<unk>	0
<s>	0
</s>	0
▁	-2.87061
。	-3.82937
)	-4.45404
之	-4.5105
/	-4.66064
(	-4.77253
也	-4.88796
以	-4.98908
而	-5.0607
為	-5.16901
者	-5.20482
有	-5.32417
▁(	-5.47648
其	-5.52356
,	-5.56536
不	-5.5745
於	-5.6045
人	-5.61958
一	-5.63378
曰	-5.70277
則	-5.81392
無	-5.85985
故	-5.86587
中	-5.93479
大	-6.00104
上	-6.02627
如	-6.04682
與	-6.07024
三	-6.09177
是	-6.09746
自	-6.10631
行	-6.12512
此	-6.14436
二	-6.15052
言	-6.16169
子	-6.18275
時	-6.1856
在	-6.20659
下	-6.212
至	-6.24274
生	-6.2592
得	-6.26144
見	-6.28999
若	-6.31132
王	-6.35849
心	-6.3794
所	-6.386
又	-6.40071
道	-6.42708
事	-6.44341
云	-6.44604
作	-6.44914
明	-6.45692
出	-6.45746
名	-6.46157
及	-6.4909
即	-6.49462
法	-6.49677
非	-6.49997
天	-6.51052
相	-6.51177
山	-6.51249
入	-6.53271
公	-6.5356
皆	-6.553
文	-6.55648
用	-6.56678
謂	-6.57253
後	-6.57674
四	-6.57945
亦	-6.59582
于	-6.61947
水	-6.63284
書	-6.64053
知	-6.64637
今	-6.64758
同	-6.6542
成	-6.65504
等	-6.66887
矣	-6.68288
正	-6.69563
日	-6.70629
五	-6.71493
乃	-6.75042
、	-6.75756
從	-6.7763
我	-6.78196
地	-6.78882
當	-6.79122
然	-6.79167
多	-6.80438
前	-6.80919
方	-6.81575
使	-6.81607
可	-6.81686
已	-6.82991
因	-6.84303
來	-6.84734
令	-6.85182
去	-6.85477
分	-6.85542
復	-6.86835
諸	-6.87028
經	-6.8743
長	-6.87542
君	-6.88206
本	-6.89705
爲	-6.89919
欲	-6.90152
乎	-6.9032
臣	-6.91613
或	-6.92564
官	-6.92733
義	-6.94233
將	-6.94524
初	-6.95542
身	-6.9575
/)	-6.96046
處	-6.96311
師	-6.97274
詩	-6.97502
應	-6.99092
字	-7.02083
重	-7.0219
未	-7.02696
歸	-7.0414
傳	-7.04552
能	-7.05016
風	-7.05045
立	-7.05244
國	-7.05668
說	-7.06177
州	-7.06345
通	-7.0638
取	-7.07915
先	-7.08126
門	-7.08252
六	-7.08396
反	-7.09443
何	-7.09836
意	-7.1034
善	-7.10461
命	-7.10972
起	-7.11386
南	-7.11416
問	-7.11796
安	-7.12125
合	-7.12507
元	-7.12524
佛	-7.13762
兩	-7.13767
家	-7.14286
石	-7.14744
觀	-7.1523
世	-7.15274
定	-7.15563
小	-7.15762
外	-7.15943
聞	-7.16767
常	-7.16991
實	-7.17151
金	-7.17787
雖	-7.18494
必	-7.18595
禮	-7.19986
焉	-7.20439
過	-7.21226
數	-7.21462
受	-7.2214
平	-7.22618
既	-7.22713
盡	-7.22954
樂	-7.2303
空	-7.23359
兵	-7.23503
彼	-7.23593
民	-7.23628
神	-7.24278
聲	-7.25385
居	-7.25507
白	-7.25888
主	-7.26033
九	-7.27811
學	-7.28037
食	-7.28266
清	-7.28533
馬	-7.28693
氣	-7.28805
遂	-7.29088
城	-7.29538
東	-7.31406
陽	-7.31436
舉	-7.31676
西	-7.32056
開	-7.3268
内	-7.33307
雲	-7.34691
周	-7.34961
發	-7.35355
十	-7.35584
思	-7.35762
深	-7.35825
和	-7.35969
論	-7.36154
音	-7.36239
切	-7.36276
光	-7.36574
古	-7.36691
七	-7.36699
難	-7.37432
次	-7.37567
死	-7.3802
月	-7.38233
物	-7.39279
惟	-7.39319
陳	-7.39373
修	-7.39448
且	-7.39452
縣	-7.39477
服	-7.39863
髙	-7.39997
請	-7.39998
求	-7.40102
士	-7.40628
色	-7.41132
夫	-7.42812
耳	-7.43065
志	-7.43235
八	-7.43339
▁「	-7.43453
張	-7.4376
始	-7.43951
解	-7.44034
各	-7.44687
新	-7.44736
年	-7.4481
理	-7.45541
治	-7.45714
春	-7.45956
帝	-7.46205
還	-7.4639
易	-7.46565
爾	-7.48412
引	-7.48479
齊	-7.4861
進	-7.48667
朝	-7.48945
猶	-7.48972
玉	-7.49171
信	-7.49755
氏	-7.49987
漢	-7.50068
稱	-7.50191
度	-7.51038
餘	-7.51115
吾	-7.51324
更	-7.51469
語	-7.51746
軍	-7.52127
▁*	-7.52253
不可	-7.53028
性	-7.53482
北	-7.53835
真	-7.5392
少	-7.5407
力	-7.54078
花	-7.54625
教	-7.54696
守	-7.54825
逺	-7.5519
龍	-7.55531
間	-7.55561
李	-7.5565
體	-7.56556
位	-7.57008
著	-7.57063
老	-7.57442
宜	-7.58003
流	-7.58135
好	-7.58209
加	-7.58385
河	-7.58829
集	-7.58909
不能	-7.58922
徳	-7.59324
丨丨	-7.5946
智	-7.59737
由	-7.59795
隨	-7.59991
衣	-7.60248
便	-7.60271
興	-7.60279
德	-7.60353
直	-7.60617
節	-7.6086
黄	-7.61178
廣	-7.61345
華	-7.618
頭	-7.61948
宗	-7.62108
火	-7.62435
女	-7.63098
海	-7.6318
異	-7.63314
俱	-7.63531
親	-7.63746
凡	-7.64034
坐	-7.64872
土	-7.65138
。」	-7.65254
果	-7.65317
具	-7.65524
獨	-7.66124
路	-7.66234
望	-7.66466
勝	-7.66675
離	-7.6692
口	-7.66945
以為	-7.66974
聖	-7.67688
記	-7.6787
尚	-7.68507
止	-7.6852
屬	-7.68661
府	-7.68701
共	-7.69089
宋	-7.69102
江	-7.69107
利	-7.69461
奉	-7.69718
識	-7.70358
近	-7.7059
依	-7.70594
化	-7.7066
除	-7.70787
都	-7.7081
所以	-7.71557
動	-7.71658
注	-7.72568
制	-7.72857
木	-7.73295
甚	-7.73489
舊	-7.73534
任	-7.73717
汝	-7.73768
但	-7.73886
對	-7.74352
酒	-7.74788
足	-7.74986
田	-7.75063
○	-7.7536
向	-7.75489
病	-7.75991
失	-7.76422
林	-7.76463
百	-7.76546
惡	-7.77143
置	-7.77368
章	-7.77586
不得	-7.77642
唐	-7.77916
苦	-7.78054
父	-7.7806
武	-7.78387
並	-7.78423
奏	-7.79503
結	-7.79506
封	-7.79538
晉	-7.79784
香	-7.80012
圖	-7.80155
莫	-7.80166
兮	-7.8019
益	-7.80221
斷	-7.80365
司	-7.80451
釋	-7.80731
業	-7.80736
高	-7.80783
極	-7.80788
哉	-7.81015
卒	-7.81028
情	-7.81268
寒	-7.81363
天下	-7.81807
衆	-7.81933
萬	-7.8215
秋	-7.82251
宫	-7.82331
轉	-7.82498
夜	-7.82537
巳	-7.82742
終	-7.82929
㑹	-7.83575
滅	-7.83792
散	-7.83947
首	-7.84029
青	-7.85024
念	-7.85036
執	-7.85086
破	-7.85371
僧	-7.85521
變	-7.85545
客	-7.86121
而不	-7.86331
要	-7.86603
建	-7.86646
飛	-7.86951
隂	-7.87267
似	-7.87301
車	-7.87513
草	-7.87792
顯	-7.88177
賢	-7.89093
仁	-7.8912
戒	-7.89278
靈	-7.89509
致	-7.89896
雨	-7.90127
劉	-7.90548
就	-7.90585
一切	-7.90619
固	-7.90658
降	-7.90876
别	-7.9094
秦	-7.91064
功	-7.91261
報	-7.9139
詔	-7.91498
菩薩	-7.91886
持	-7.91926
許	-7.9193
指	-7.92428
兼	-7.9268
祖	-7.92805
滿	-7.93073
郡	-7.93099
尊	-7.93203
半	-7.93233
交	-7.93492
侯	-7.93598
左	-7.93726
伯	-7.93789
設	-7.93799
辭	-7.93867
亂	-7.94106
殺	-7.94291
計	-7.94426
樹	-7.94516
住	-7.95003
夏	-7.95136
母	-7.96428
告	-7.96553
賦	-7.96622
如是	-7.97222
疑	-7.97475
願	-7.97751
罪	-7.98027
往	-7.9831
表	-7.9834
臨	-7.98532
堂	-7.98548
他	-7.98731
象	-7.98735
手	-7.988
目	-7.99029
根	-7.99304
藏	-7.99333
錢	-7.99477
改	-8.00004
到	-8.00269
楚	-8.00344
載	-8.00498
絶	-8.00506
政	-8.00508
順	-8.00582
承	-8.008
議	-8.01234
星	-8.01269
耶	-8.01466
敬	-8.01531
全	-8.01919
賊	-8.02275
比	-8.03004
説	-8.03149
拜	-8.03242
照	-8.03513
省	-8.03757
蓋	-8.03899
祭	-8.04174
緣	-8.04206
豈	-8.05325
施	-8.05478
留	-8.05478
梁	-8.05778
喜	-8.05793
妙	-8.06015
精	-8.06176
所謂	-8.06246
景	-8.06436
愛	-8.06527
史	-8.06529
斯	-8.06617
原	-8.06648
疏	-8.06852
寺	-8.07557
覺	-8.07651
形	-8.07935
歌	-8.08025
輕	-8.08085
永	-8.08161
唯	-8.08732
容	-8.08948
不知	-8.09164
遇	-8.09305
畫	-8.10065
會	-8.10207
賜	-8.10474
右	-8.10755
視	-8.1076
予	-8.10812
貴	-8.11129
約	-8.11141
遷	-8.11507
備	-8.11911
太	-8.1219
須	-8.12302
微	-8.12473
嘗	-8.1281
登	-8.1288
存	-8.12986
邊	-8.13405
羅	-8.13442
誠	-8.13495
鄭	-8.1367
授	-8.14052
部	-8.14062
眾	-8.14099
盛	-8.1417
福	-8.14401
界	-8.1447
境	-8.14769
再	-8.15396
遣	-8.15414
乾	-8.15794
素	-8.15828
被	-8.16116
亡	-8.16129
臺	-8.16175
寧	-8.16252
濟	-8.1627
悉	-8.16365
疾	-8.16469
送	-8.16483
邪	-8.16744
卿	-8.1675
遊	-8.1677
葉	-8.16925
嚴	-8.17419
句	-8.17471
代	-8.17711
種	-8.17957
仙	-8.17994
良	-8.18056
每	-8.1806
總	-8.18154
魚	-8.18169
布	-8.18545
序	-8.18585
落	-8.18915
號	-8.19004
千	-8.19099
▁【	-8.19299
如此	-8.19723
久	-8.19945
吏	-8.20296
廟	-8.2078
孫	-8.21002
達	-8.21128
丨	-8.214
寶	-8.21474
;	-8.21509
列	-8.21515
野	-8.21628
連	-8.2166
類	-8.21736
按	-8.22087
鄉	-8.22288
曲	-8.22308
卷	-8.22432
證	-8.22433
陵	-8.2253
御	-8.22548
徒	-8.22552
退	-8.22619
竹	-8.22817
宣	-8.22824
紀	-8.22835
趙	-8.22877
造	-8.22899
如來	-8.2297
期	-8.2305
嵗	-8.23259
!	-8.23324
養	-8.23577
伏	-8.23649
別	-8.23662
魯	-8.23748
衛	-8.23904
克	-8.24281
積	-8.24285
某	-8.24691
謂之	-8.2489
特	-8.25161
獻	-8.25446
余	-8.25631
朱	-8.25765
聽	-8.25781
虚	-8.25802
孝	-8.2598
率	-8.26065
恩	-8.26356
里	-8.26844
美	-8.26984
據	-8.27122
宿	-8.27123
面	-8.272
謝	-8.27285
室	-8.27363
先生	-8.27423
儀	-8.27576
謀	-8.27632
運	-8.27969
魏	-8.28158
才	-8.28176
藥	-8.2826
升	-8.28453
收	-8.28641
楊	-8.28757
殿	-8.28761
保	-8.2893
考	-8.28957
大夫	-8.29076
犯	-8.29498
感	-8.29627
顧	-8.29959
尋	-8.30063
廢	-8.30189
看	-8.30251
答	-8.30334
遺	-8.30389
末	-8.30646
示	-8.30706
并	-8.30863
忠	-8.31025
淨	-8.31153
飲	-8.31472
胡	-8.31574
牛	-8.3176
傷	-8.31773
韻	-8.31982
簡	-8.32331
適	-8.32385
俗	-8.32439
窮	-8.32481
息	-8.32483
厚	-8.32767
諸侯	-8.32772
者也	-8.328
現	-8.32941
阿	-8.33021
權	-8.33065
:「	-8.33507
吉	-8.3374
妻	-8.33769
推	-8.33866
戰	-8.3399
工	-8.34107
移	-8.34225
職	-8.34226
攝	-8.34454
却	-8.34526
補	-8.34571
塵	-8.34629
仍	-8.34754
鎮	-8.34856
垂	-8.35225
溪	-8.35421
吳	-8.35445
紅	-8.35695
泉	-8.35782
三年	-8.35881
待	-8.35995
器	-8.36165
急	-8.36245
。】	-8.36329
恐	-8.36385
越	-8.36439
燕	-8.36493
勞	-8.36609
天子	-8.36654
闕	-8.36746
昭	-8.36771
放	-8.36784
崇	-8.36939
營	-8.36947
眾生	-8.37172
邑	-8.37293
雜	-8.3783
眼	-8.37867
雪	-8.37915
調	-8.37926
乘	-8.38088
威	-8.38119
羣	-8.38425
想	-8.38777
召	-8.38792
仲	-8.39166
憂	-8.39473
忽	-8.3989
亭	-8.39906
休	-8.40097
澤	-8.40478
之所	-8.40578
孤	-8.40598
納	-8.40822
誰	-8.41614
角	-8.41778
幽	-8.41858
曹	-8.4191
夢	-8.41944
可以	-8.41977
參	-8.42148
徐	-8.42198
盖	-8.42248
君子	-8.42295
赤	-8.42405
湯	-8.42431
皇	-8.42495
川	-8.42573
将	-8.42652
幸	-8.42742
領	-8.42995
篇	-8.432
熱	-8.43343
習	-8.43588
舍	-8.43772
懐	-8.44109
關	-8.44496
端	-8.44875
私	-8.44891
陰	-8.45094
詳	-8.4529
了	-8.45402
罷	-8.4566
叔	-8.45926
銀	-8.4599
品	-8.4632
繼	-8.46324
咸	-8.46477
差	-8.46646
寄	-8.46693
務	-8.46828
?	-8.47087
逆	-8.47368
樓	-8.47512
丹	-8.47622
回	-8.47679
慶	-8.47707
謹	-8.47852
丁	-8.47894
律	-8.47941
申	-8.48057
商	-8.48069
圓	-8.48148
烏	-8.48151
機	-8.4824
題	-8.48284
折	-8.48429
鳴	-8.48654
典	-8.48657
細	-8.48676
支	-8.48929
禁	-8.48945
齋	-8.49069
鳥	-8.49315
葢	-8.49345
甲	-8.4989
冠	-8.49956
聚	-8.50163
雙	-8.5055
沙	-8.50773
:	-8.50862
獲	-8.50949
嘉	-8.51003
恭	-8.51066
延	-8.51249
伐	-8.51306
掌	-8.51561
接	-8.51637
松	-8.51808
昔	-8.51844
覆	-8.52021
寳	-8.52041
薄	-8.52055
符	-8.52065
假	-8.52129
帶	-8.52235
印	-8.52266
辨	-8.5227
追	-8.52293
池	-8.52338
榮	-8.52347
詞	-8.52361
附	-8.52673
慧	-8.52974
幾	-8.53034
漸	-8.5306
敗	-8.5321
十二	-8.53344
翻	-8.53677
略	-8.53884
来	-8.53902
刑	-8.53952
清淨	-8.54046
露	-8.5426
呼	-8.5427
玄	-8.54455
尤	-8.54504
驚	-8.54513
量	-8.54728
夷	-8.54834
郎	-8.54951
讀	-8.54968
洞	-8.55469
免	-8.55503
試	-8.55509
裏	-8.55619
聖人	-8.55809
浮	-8.55965
不敢	-8.56109
二年	-8.56126
於是	-8.56427
味	-8.56572
乞	-8.56656
歲	-8.57297
院	-8.57466
給	-8.57667
眞	-8.5768
懷	-8.57822
攻	-8.58014
昌	-8.58516
質	-8.58574
祀	-8.58616
而已	-8.58812
弟	-8.58929
勢	-8.58952
竒	-8.59091
笑	-8.59252
射	-8.59254
春秋	-8.59486
選	-8.59552
虎	-8.59837
贈	-8.60027
資	-8.6081
遠	-8.61108
左右	-8.61364
底	-8.61393
舟	-8.61649
英	-8.61841
兒	-8.61872
最	-8.62021
孔	-8.62027
乗	-8.6209
例	-8.62144
畢	-8.62512
充	-8.62557
哀	-8.62618
一人	-8.62919
庭	-8.63053
案	-8.63097
血	-8.63119
喻	-8.63462
橋	-8.63467
刻	-8.63468
録	-8.63639
薦	-8.63702
管	-8.63712
波	-8.63719
只	-8.63789
筆	-8.63836
痛	-8.63913
禪	-8.64403
喪	-8.6441
敵	-8.64494
勸	-8.64503
韓	-8.64518
毛	-8.64568
負	-8.64615
紫	-8.64637
塞	-8.64806
妄	-8.6501
捨	-8.65129
米	-8.6543
湖	-8.65511
堅	-8.65512
鼓	-8.66115
惠	-8.66178
温	-8.66268
天地	-8.66388
察	-8.66402
頌	-8.66456
隱	-8.66522
賞	-8.66551
閒	-8.66742
影	-8.66784
走	-8.66856
早	-8.66868
那	-8.67127
殊	-8.67166
珠	-8.67303
谷	-8.67485
骨	-8.67581
井	-8.67915
勿	-8.67955
於此	-8.67975
條	-8.68009
」	-8.68104
危	-8.68107
專	-8.68697
逐	-8.6879
冬	-8.68822
弗	-8.68921
乃至	-8.68941
房	-8.69143
闗	-8.69257
怨	-8.69296
救	-8.69369
杜	-8.69564
擊	-8.69627
仰	-8.69716
游	-8.69829
普	-8.6986
閣	-8.69938
竟	-8.70052
元年	-8.70202
鬼	-8.70237
姓	-8.70509
朕	-8.70551
監	-8.70875
第	-8.70881
富	-8.70945
婦	-8.71104
屋	-8.7125
之事	-8.71439
迎	-8.71503
醉	-8.71529
悲	-8.71547
熟	-8.71938
𤣥	-8.71956
博	-8.72077
違	-8.72084
虞	-8.72152
丘	-8.72164
市	-8.72381
爵	-8.72387
棄	-8.72445
蘇	-8.72522
强	-8.7267
將軍	-8.72821
科	-8.72849
户	-8.72871
愈	-8.72895
悟	-8.7314
不同	-8.73304
勤	-8.73341
訓	-8.73408
愚	-8.73507
壽	-8.73572
友	-8.73646
陸	-8.73649
偏	-8.73722
害	-8.74186
貞	-8.74226
剛	-8.74421
役	-8.74736
己	-8.74802
密	-8.74853
舞	-8.74876
鼎	-8.7495
扵	-8.74964
衰	-8.75002
累	-8.75048
無所	-8.75131
候	-8.75158
圍	-8.75193
不見	-8.75604
園	-8.75688
皮	-8.75954
横	-8.7601
嗣	-8.76089
世尊	-8.76283
故曰	-8.76355
趣	-8.76554
背	-8.76604
陛下	-8.76822
之後	-8.76853
无	-8.77118
震	-8.77315
忘	-8.77548
增	-8.77562
註	-8.77671
沈	-8.77673
枝	-8.77679
曉	-8.77703
一日	-8.77754
愁	-8.77894
后	-8.77938
祠	-8.7806
統	-8.78475
歴	-8.78527
揚	-8.78721
蜀	-8.78808
均	-8.78829
患	-8.79002
慮	-8.7926
內	-8.79268
投	-8.7933
卦	-8.79539
恒	-8.79555
委	-8.79875
豐	-8.7997
羽	-8.80131
羊	-8.80193
源	-8.80195
是也	-8.80239
靜	-8.80534
曾	-8.80665
然後	-8.80688
履	-8.80721
敢	-8.80736
船	-8.8082
損	-8.8087
維	-8.80966
含	-8.81119
格	-8.8115
述	-8.81235
誤	-8.81259
▁右	-8.818
慈	-8.81957
碑	-8.82189
爭	-8.82269
孟	-8.8235
虛	-8.82393
至於	-8.82441
肉	-8.8262
之意	-8.8268
責	-8.82779
朝廷	-8.82786
雅	-8.8298
荒	-8.82982
蘭	-8.83156
泰	-8.83282
京	-8.83558
是以	-8.83822
秀	-8.83889
索	-8.8403
其所	-8.84131
怒	-8.84279
助	-8.84286
庶	-8.84528
席	-8.84644
消	-8.84672
縱	-8.84699
葬	-8.84711
康	-8.84738
迷	-8.84786
季	-8.84882
財	-8.85071
甘	-8.8514
即是	-8.85189
郭	-8.85239
雄	-8.85276
赴	-8.85615
不足	-8.85649
翁	-8.85685
振	-8.85688
干	-8.85737
之間	-8.85803
貪	-8.85952
夫人	-8.86394
畏	-8.86395
尚書	-8.867
隆	-8.87018
之道	-8.87114
厥	-8.87235
云何	-8.87399
儒	-8.87481
減	-8.87669
増	-8.87687
而後	-8.8773
步	-8.87752
奔	-8.87767
之時	-8.87992
侍	-8.88235
柔	-8.88377
招	-8.88396
班	-8.88408
征	-8.88498
孔子	-8.88584
絲	-8.88766
比丘	-8.88783
詣	-8.88836
殷	-8.89344
侵	-8.89423
兹	-8.89541
提	-8.89661
乆	-8.89779
防	-8.89878
騎	-8.90021
師曰	-8.9006
撫	-8.90078
梅	-8.90089
呉	-8.9012
稍	-8.90169
輪	-8.90257
莊	-8.9029
毒	-8.9035
忍	-8.90351
速	-8.90437
朔	-8.90481
遍	-8.90497
鹽	-8.90539
今日	-8.9056
編	-8.90629
惑	-8.90664
籍	-8.90766
狀	-8.91738
觸	-8.91838
徵	-8.91948
懼	-8.92247
村	-8.92333
是故	-8.92413
賔	-8.92634
革	-8.92746
決	-8.92763
族	-8.9295
冷	-8.92982
之人	-8.9327
曽	-8.93373
二十	-8.93388
盤	-8.93588
芳	-8.93731
尸	-8.93734
超	-8.93847
費	-8.941
殘	-8.9417
夀	-8.94228
巖	-8.94244
洪	-8.94347
錄	-8.94395
禪師	-8.94495
如何	-8.94663
徑	-8.94809
逢	-8.95227
避	-8.95403
第一	-8.95448
奪	-8.95493
歎	-8.95612
寛	-8.95649
否	-8.95688
太子	-8.95697
帥	-8.95813
倚	-8.95818
嶺	-8.95862
險	-8.95862
程	-8.95909
厯	-8.95915
雷	-8.9594
脩	-8.9595
戎	-8.96026
誦	-8.96105
一作	-8.96214
純	-8.96286
撰	-8.96646
繫	-8.96654
辟	-8.96674
兄	-8.96792
宅	-8.96812
誅	-8.96893
第二	-8.96984
衡	-8.97443
蒙	-8.97653
碧	-8.97659
貢	-8.97705
尾	-8.97878
霜	-8.98024
伊	-8.9835
無量	-8.98545
洗	-8.98605
姑	-8.98637
隠	-8.987
亦不	-8.98804
隔	-8.98848
短	-8.99125
黃	-8.99153
墨	-8.99237
刺	-8.99311
講	-8.99516
徃	-8.99594
為之	-8.99627
.	-8.99648
逸	-8.99651
人之	-8.99717
審	-9.00021
弱	-9.00083
斗	-9.00188
㣲	-9.00219
駕	-9.00254
况	-9.00271
何以	-9.00346
郊	-9.00531
式	-9.00709
輔	-9.01012
障	-9.01067
壇	-9.01226
供	-9.01251
采	-9.01349
襲	-9.01389
鶴	-9.01466
佐	-9.01768
額	-9.01863
有所	-9.02003
刀	-9.02048
續	-9.02212
四年	-9.02285
方便	-9.02286
堪	-9.02345
希	-9.02551
旗	-9.02582
進士	-9.02668
泥	-9.02821
座	-9.02845
劫	-9.02845
懸	-9.03098
占	-9.03203
名為	-9.03317
晚	-9.03344
頗	-9.03377
錫	-9.03522
卜	-9.0356
亦有	-9.03571
巻	-9.03669
之義	-9.03849
蕭	-9.03925
介	-9.03943
牧	-9.04017
辰	-9.04048
故云	-9.04071
凶	-9.04177
翼	-9.04195
䇿	-9.04243
屈	-9.04257
上下	-9.04521
之心	-9.0459
貫	-9.04702
訪	-9.04841
肅	-9.04913
像	-9.04956
配	-9.04981
屯	-9.05106
燈	-9.05303
分別	-9.05342
擬	-9.05365
父母	-9.05433
暴	-9.05455
師云	-9.05511
茶	-9.05518
涅槃	-9.05547
自然	-9.05651
傾	-9.05669
蔡	-9.05691
頓	-9.05695
邦	-9.05734
祝	-9.05867
旣	-9.05871
煙	-9.0598
徴	-9.06067
恨	-9.06067
沒	-9.06121
翠	-9.06139
獄	-9.06221
功德	-9.06514
淵	-9.06563
擇	-9.06642
顔	-9.06685
勒	-9.06782
肆	-9.07065
銘	-9.07068
竊	-9.0712
瑞	-9.07155
效	-9.07212
杖	-9.07473
彌	-9.07521
賀	-9.0788
渠	-9.07927
鐵	-9.07991
卑	-9.08076
貧	-9.08182
五年	-9.08237
盟	-9.08384
享	-9.0844
允	-9.08486
祥	-9.0852
摩	-9.08644
築	-9.0867
▁**	-9.08695
寵	-9.08697
之法	-9.08738
盧	-9.08823
禹	-9.08913
吐	-9.09123
仕	-9.09208
贊	-9.09252
生死	-9.09294
壁	-9.09421
壯	-9.0947
塔	-9.09577
倒	-9.09754
討	-9.09943
主人	-9.10036
不及	-9.10055
緑	-9.10257
染	-9.10276
飾	-9.10511
談	-9.10518
之中	-9.10564
弟子	-9.1062
無有	-9.1068
宻	-9.10731
賓	-9.10745
側	-9.10799
壞	-9.10817
日月	-9.11041
歳	-9.11088
宮	-9.11192
世間	-9.11197
甫	-9.11269
徹	-9.11666
静	-9.11692
徙	-9.1172
尺	-9.11764
錦	-9.11776
煩	-9.11807
慎	-9.11808
畧	-9.1208
循	-9.12176
員	-9.12272
屢	-9.12273
峯	-9.12286
洛	-9.12311
皇帝	-9.12325
陶	-9.12348
禍	-9.12352
材	-9.12487
吟	-9.1249
衞	-9.12573
偶	-9.12647
麗	-9.12668
茂	-9.12679
社	-9.13037
栁	-9.13241
馳	-9.13408
階	-9.13541
之言	-9.13599
龜	-9.13793
禄	-9.14022
之地	-9.14179
大臣	-9.14186
借	-9.14217
扶	-9.14237
憲	-9.14353
旋	-9.14381
旁	-9.14459
吕	-9.14785
糧	-9.14823
㫖	-9.14878
夕	-9.15015
限	-9.15023
遲	-9.15098
丸	-9.15226
二人	-9.1534
盈	-9.15454
農	-9.1564
▁王	-9.15662
鍾	-9.15889
謙	-9.15939
徧	-9.1598
種種	-9.16
以下	-9.16072
操	-9.1617
桑	-9.16391
中有	-9.16433
軒	-9.16438
耕	-9.16572
副	-9.16626
峰	-9.16637
佳	-9.16692
困	-9.16705
啓	-9.16793
勇	-9.16843
舒	-9.16845
千里	-9.17025
諭	-9.17051
繁	-9.17098
以此	-9.17195
術	-9.17255
岸	-9.1733
▁又	-9.17568
而無	-9.17825
督	-9.17826
齒	-9.17873
抱	-9.17891
毎	-9.18139
諸佛	-9.18242
館	-9.18365
塗	-9.1841
盜	-9.18481
遵	-9.18487
吹	-9.18574
災	-9.18728
暗	-9.18755
迹	-9.18802
穆	-9.18827
廷	-9.18888
紙	-9.18926
賈	-9.1893
淺	-9.19011
護	-9.19379
䝉	-9.19383
趨	-9.19398
烟	-9.19433
蟲	-9.19479
環	-9.19529
墮	-9.19577
桂	-9.19654
打	-9.1999
銅	-9.20037
縁	-9.20063
輿	-9.20135
貌	-9.20139
讓	-9.20189
契	-9.20254
蒼	-9.20275
戴	-9.20346
成就	-9.20355
係	-9.20458
狂	-9.20611
因緣	-9.20645
不為	-9.20821
第三	-9.21095
厭	-9.21144
黨	-9.21179
坤	-9.21329
墓	-9.21362
倫	-9.21422
鼻	-9.21577
男	-9.21705
規	-9.2173
三十	-9.21751
傅	-9.21842
昏	-9.21871
校	-9.2188
標	-9.21932
兄弟	-9.21938
宴	-9.21969
缺	-9.2206
雞	-9.22251
際	-9.22319
暮	-9.22441
優	-9.22466
舜	-9.22506
脫	-9.22578
斬	-9.22677
天下之	-9.2273
巧	-9.22796
跡	-9.22798
買	-9.22863
舌	-9.22879
付	-9.22918
錯	-9.23007
太守	-9.23114
燒	-9.23116
潤	-9.23143
署	-9.23235
凝	-9.23253
辯	-9.23275
童	-9.23371
言之	-9.23559
互	-9.2363
穴	-9.23669
諫	-9.23672
頃	-9.2371
一時	-9.23829
單	-9.23922
解脫	-9.2394
悔	-9.23965
黑	-9.24195
庫	-9.2423
倉	-9.24317
司馬	-9.24435
啟	-9.24497
歡	-9.24553
苑	-9.24603
該	-9.24649
漏	-9.24714
也故	-9.24786
庸	-9.24831
醫	-9.25006
卧	-9.25115
菩提	-9.25126
賤	-9.25139
抑	-9.25388
鳳	-9.25536
旦	-9.25596
歩	-9.25653
一名	-9.25836
鏡	-9.26006
寂	-9.26179
尼	-9.26241
又曰	-9.26281
巴	-9.26289
強	-9.26334
俾	-9.26412
腹	-9.26479
當時	-9.26531
堯	-9.26532
以上	-9.26532
供養	-9.26533
宰	-9.26544
六年	-9.26698
珍	-9.26879
萬物	-9.26887
彦	-9.27033
京師	-9.2705
范	-9.2706
二合	-9.27256
僕	-9.27347
三昧	-9.27427
判	-9.27492
厲	-9.27533
牙	-9.27545
晴	-9.27618
不以	-9.27646
不如	-9.277
和尚	-9.27758
?」	-9.27899
謁	-9.27934
州刺史	-9.28419
相應	-9.28428
者皆	-9.28448
裁	-9.28616
憶	-9.28617
江南	-9.28677
未有	-9.2874
煩惱	-9.28847
浪	-9.28866
援	-9.28896
閑	-9.28937
況	-9.28942
也又	-9.29033
津	-9.29063
未嘗	-9.29106
不應	-9.2915
慕	-9.29386
哭	-9.29401
烈	-9.29528
黒	-9.29566
蒲	-9.29619
尹	-9.29665
驗	-9.2969
▁欽定四庫全書	-9.29894
託	-9.30011
桓	-9.30049
必有	-9.3021
渡	-9.30347
十年	-9.30444
三月	-9.30483
澄	-9.30505
學者	-9.30525
逹	-9.30555
頂	-9.30676
怪	-9.30733
□	-9.31549
以爲	-9.3156
粟	-9.31742
把	-9.31773
拔	-9.32106
以來	-9.32155
叛	-9.32258
太祖	-9.32451
融	-9.32497
輒	-9.32546
預	-9.32557
麥	-9.32572
法界	-9.32663
十一	-9.32685
韋	-9.32707
古人	-9.32735
疎	-9.32746
採	-9.32867
掩	-9.32923
有司	-9.32931
宇	-9.33075
辛	-9.33276
以其	-9.33312
畜	-9.33358
傍	-9.33469
導	-9.33494
産	-9.33541
弓	-9.33572
眀	-9.33666
敷	-9.33675
飯	-9.33951
百姓	-9.3399
襄	-9.33991
御史	-9.34019
四方	-9.3405
東南	-9.34465
其事	-9.34494
蔽	-9.35195
十五	-9.35292
濕	-9.35393
婆	-9.35431
覽	-9.35544
鴻	-9.35621
訖	-9.35768
周公	-9.35786
孰	-9.35801
有餘	-9.35885
魔	-9.35921
之士	-9.35966
倍	-9.36105
不復	-9.36126
忌	-9.36152
足以	-9.36228
汗	-9.36231
潛	-9.36241
𫝊	-9.36248
亮	-9.36362
豫	-9.36493
毋	-9.36731
鐘	-9.36747
旅	-9.36785
雍	-9.36891
鳯	-9.36904
决	-9.36923
崔	-9.37012
諱	-9.37015
瞻	-9.37025
辱	-9.37261
長安	-9.37336
唱	-9.3738
敏	-9.37419
豆	-9.37512
𢎞	-9.37573
塘	-9.37742
鮮	-9.37888
的	-9.37904
光明	-9.37926
淮	-9.38053
鹿	-9.38325
弊	-9.38398
小人	-9.38835
琴	-9.38876
萬里	-9.38945
皆有	-9.38965
基	-9.39034
策	-9.39083
詠	-9.39231
寜	-9.39279
脉	-9.39331
緩	-9.39563
勉	-9.39819
披	-9.39845
展	-9.39943
其後	-9.39944
停	-9.40037
紹	-9.40074
閉	-9.401
巨	-9.40123
途	-9.40183
曰吾	-9.40508
邉	-9.40554
植	-9.40648
麻	-9.40727
金剛	-9.4082
惜	-9.40965
寫	-9.41099
擢	-9.41137
箇	-9.41162
藉	-9.4119
屏	-9.41239
蕩	-9.41337
欽	-9.41507
活	-9.41514
偽	-9.41538
故名	-9.41642
不言	-9.41765
靖	-9.4178
又有	-9.41782
子曰	-9.41801
五十	-9.41821
靡	-9.4184
輸	-9.41886
知其	-9.4191
寢	-9.41924
無不	-9.42005
究	-9.42034
荷	-9.42066
迴	-9.42107
酌	-9.42122
豪	-9.42202
研	-9.42341
驅	-9.42439
孟子	-9.42635
俊	-9.42963
午	-9.43011
譯	-9.43072
文王	-9.43118
也今	-9.43147
段	-9.43321
包	-9.43352
人也	-9.43357
公子	-9.43578
沉	-9.43641
逃	-9.43719
十六	-9.43736
前後	-9.43782
穀	-9.43783
矢	-9.43791
七年	-9.43831
帖	-9.43887
渾	-9.43977
奇	-9.44049
】	-9.44095
丈	-9.44273
遮	-9.44374
河南	-9.44403
古今	-9.44576
亨	-9.44668
從之	-9.44754
匪	-9.44928
拂	-9.44974
戍	-9.45161
浦	-9.45209
旌	-9.45252
世界	-9.45279
亦無	-9.45312
蛇	-9.4541
而為	-9.45514
育	-9.4553
所有	-9.45531
騰	-9.45558
子孫	-9.45561
經云	-9.45698
奚	-9.4577
▁治	-9.45842
魂	-9.45864
䘮	-9.45899
争	-9.46035
不過	-9.46107
衝	-9.4613
自在	-9.46212
戲	-9.46248
冊	-9.46297
周禮	-9.46453
衍	-9.46478
若有	-9.46537
坎	-9.4656
柱	-9.46696
絕	-9.46908
苟	-9.46942
㸃	-9.47081
▁題	-9.47101
誓	-9.47148
▁李	-9.47158
荆	-9.47167
無明	-9.47402
毁	-9.47421
晝	-9.47441
價	-9.4759
榖	-9.4764
局	-9.47665
諸法	-9.47705
桃	-9.4788
茍	-9.4789
隋	-9.48077
完	-9.4825
可謂	-9.48266
十方	-9.48649
旨	-9.48676
姦	-9.48827
戸	-9.48896
穿	-9.48949
酬	-9.48967
遭	-9.49
束	-9.4914
脚	-9.49177
驛	-9.49183
又云	-9.49302
准	-9.49311
枯	-9.4942
遥	-9.49429
聴	-9.49506
躬	-9.49578
歟	-9.49632
之禮	-9.49646
妾	-9.49713
國家	-9.49714
頻	-9.49842
婦人	-9.49866
晨	-9.49975
廬	-9.50003
丞	-9.50007
彰	-9.5002
俟	-9.50037
晦	-9.50256
逰	-9.50293
禽	-9.50424
柳	-9.50466
查	-9.50468
拘	-9.50669
㡬	-9.50889
慢	-9.51127
陷	-9.51269
則有	-9.5152
三日	-9.51522
炁	-9.51745
冀	-9.51804
寡	-9.51869
夫子	-9.52089
勅	-9.52092
併	-9.52179
奠	-9.52201
覩	-9.52253
而有	-9.52393
乳	-9.52478
燭	-9.52499
協	-9.52511
次第	-9.52539
八年	-9.5265
陀	-9.52714
▁送	-9.52762
:『	-9.52844
▁初	-9.52971
值	-9.52993
夾	-9.53013
割	-9.53069
隂陽	-9.53089
用之	-9.53193
飲食	-9.53279
遽	-9.53319
没	-9.53342
較	-9.53361
不然	-9.53466
叙	-9.53498
竭	-9.53525
菴	-9.5359
滋	-9.53753
敦	-9.53782
莫不	-9.53815
西南	-9.53822
䕶	-9.53843
瓊	-9.53948
蕃	-9.54035
秩	-9.54082
東西	-9.54095
一卷	-9.54105
大小	-9.54248
宏	-9.54278
劍	-9.54283
▁宋	-9.54312
奮	-9.54413
赦	-9.54633
訟	-9.54662
淫	-9.54734
爻	-9.5474
賣	-9.54751
乙	-9.54993
篤	-9.55088
崖	-9.55102
咎	-9.55141
勲	-9.55233
項	-9.55329
纔	-9.55452
枕	-9.55509
具足	-9.55512
西北	-9.55551
秉	-9.55559
者以	-9.55571
曰此	-9.5565
之子	-9.55749
兆	-9.55769
吴	-9.55772
偈	-9.55795
綱	-9.55864
奴	-9.56022
是為	-9.56066
五百	-9.56104
馮	-9.5615
岳	-9.56252
史記	-9.56292
舎	-9.56322
是名	-9.56339
鄙	-9.56481
後世	-9.56487
濁	-9.56521
賴	-9.56847
▁張	-9.56955
呈	-9.56961
十三	-9.56973
練	-9.57093
牽	-9.57217
斜	-9.5724
也夫	-9.57255
十八	-9.57299
雖有	-9.57746
其心	-9.57879
縛	-9.57975
獸	-9.58133
膏	-9.58142
彭	-9.58172
殆	-9.58245
薛	-9.58249
妃	-9.58338
嗟	-9.5834
晩	-9.58383
潔	-9.58432
大乘	-9.58535
智慧	-9.58548
伍	-9.58584
迦	-9.587
鄰	-9.5878
沙門	-9.58783
眉	-9.5888
辦	-9.59006
粉	-9.59113
蠻	-9.59249
距	-9.59293
暫	-9.59336
對曰	-9.59408
之上	-9.59437
董	-9.59503
梵	-9.59527
響	-9.59546
漢書	-9.59569
炎	-9.5962
弦	-9.59754
映	-9.59755
不用	-9.5976
話	-9.5976
圭	-9.59845
削	-9.59847
說法	-9.59863
巢	-9.5991
抵	-9.59998
葛	-9.6
出入	-9.60009
寸	-9.6004
然則	-9.60052
返	-9.6006
不可以	-9.60188
其子	-9.60214
譬	-9.60373
莊嚴	-9.60389
賛	-9.60527
茅	-9.60533
之功	-9.60534
髮	-9.60581
稽	-9.60614
巽	-9.60621
憐	-9.60788
門外	-9.60793
洲	-9.6084
佩	-9.6095
鑒	-9.61042
涉	-9.61106
斥	-9.61176
丨丨丨	-9.61217
無常	-9.61234
幼	-9.61329
藩	-9.61344
丞相	-9.61465
僅	-9.61542
不生	-9.61635
準	-9.61729
太宗	-9.61844
之則	-9.61847
陣	-9.6185
寓	-9.61854
阻	-9.61916
罰	-9.61967
潮	-9.62088
使人	-9.62089
激	-9.62181
氷	-9.62199
溝	-9.62211
逼	-9.62238
般若	-9.62323
由是	-9.62384
陞	-9.62389
凉	-9.62488
左傳	-9.62497
你	-9.62524
皇后	-9.62699
其人	-9.62702
場	-9.62866
慰	-9.62867
胥	-9.62937
愧	-9.63191
出家	-9.63231
凌	-9.63232
學士	-9.63247
内外	-9.63251
羞	-9.63262
寅	-9.63276
幣	-9.63318
瘡	-9.63419
峻	-9.6354
網	-9.63588
幹	-9.63622
豈不	-9.63716
阿難	-9.63753
漫	-9.63771
文章	-9.63816
繩	-9.63946
旱	-9.64005
璧	-9.64053
尉	-9.64192
故也	-9.64193
煎	-9.64264
灰	-9.64266
眠	-9.64298
鬼神	-9.6439
炙	-9.64626
宰相	-9.64682
聊	-9.64692
鑿	-9.64716
修行	-9.64764
不相	-9.64818
輩	-9.64902
瓦	-9.64924
各有	-9.64958
圗	-9.64971
霞	-9.65017
)○	-9.65096
捕	-9.65147
貳	-9.65176
磨	-9.65204
名曰	-9.65235
四十	-9.65246
淚	-9.65469
是時	-9.65582
不出	-9.65721
何以故	-9.65811
敎	-9.659
滯	-9.6591
肥	-9.65921
欺	-9.65935
貶	-9.65956
至于	-9.65976
祗	-9.65993
鸞	-9.66089
真如	-9.66137
不必	-9.66138
使者	-9.66209
撥	-9.66211
九年	-9.66302
踰	-9.66329
聘	-9.66333
苗	-9.66504
何處	-9.66625
十四	-9.66632
貨	-9.66658
翰	-9.6671
胎	-9.66768
巾	-9.66933
可知	-9.66954
添	-9.67211
劒	-9.67213
昧	-9.67252
饒	-9.67397
卓	-9.6754
牲	-9.67648
輙	-9.67705
囉	-9.6777
太平	-9.67829
淡	-9.67834
譽	-9.67978
即位	-9.68011
肝	-9.68157
釐	-9.68211
髪	-9.68313
▁問	-9.68336
爾時	-9.68571
曠	-9.68652
其中	-9.687
第四	-9.68707
饑	-9.68833
▁年	-9.6884
弄	-9.69056
佛法	-9.69308
逮	-9.69333
脱	-9.6935
藝	-9.69466
讀書	-9.69581
祈	-9.69608
之外	-9.6975
駐	-9.69761
不在	-9.69814
腰	-9.69815
地方	-9.69815
爰	-9.69821
製	-9.69921
謬	-9.69949
不與	-9.6998
之類	-9.70198
一百	-9.70393
健	-9.70407
聞之	-9.70423
麟	-9.7048
鈔	-9.70532
警	-9.70625
居士	-9.7067
遣使	-9.70762
冥	-9.70862
牀	-9.7088
競	-9.70932
法身	-9.70939
焚	-9.71039
不成	-9.71041
州縣	-9.7108
課	-9.71094
演	-9.71194
繞	-9.713
罔	-9.71304
有二	-9.7143
皆是	-9.71477
不動	-9.71504
虜	-9.71516
者謂	-9.71664
什	-9.71714
。』	-9.71787
君之	-9.71799
者亦	-9.71825
彊	-9.71828
儉	-9.71841
之名	-9.71877
呪	-9.71927
國之	-9.7195
弔	-9.72035
若不	-9.72068
出於	-9.72087
擁	-9.72171
南北	-9.72205
炒	-9.72225
氏曰	-9.72382
輝	-9.72446
聲聞	-9.72471
碎	-9.72556
差別	-9.72564
墜	-9.72609
低	-9.72642
自是	-9.72656
遼	-9.72716
霧	-9.72748
檢	-9.72823
得其	-9.72893
羣臣	-9.72953
窺	-9.72965
垣	-9.73014
祇	-9.73037
詩曰	-9.73096
嫌	-9.73107
人心	-9.73109
𨽻	-9.73177
鑑	-9.73178
黎	-9.73261
六月	-9.7328
詩云	-9.73283
蓮	-9.73309
只是	-9.73363
棲	-9.7337
鄧	-9.7347
五月	-9.73564
六十	-9.73642
灌	-9.73819
冦	-9.73829
文字	-9.73954
猛	-9.73969
崩	-9.73975
姚	-9.73987
扇	-9.74163
乏	-9.74215
山東	-9.74262
嗚呼	-9.74265
銜	-9.74296
癡	-9.74337
善男子	-9.74531
不是	-9.7464
譜	-9.74679
知縣	-9.74716
帛	-9.74771
山川	-9.74828
庚	-9.74848
匹	-9.74852
人間	-9.74892
乖	-9.7508
此是	-9.75097
帳	-9.75103
盗	-9.75111
叢	-9.75164
之際	-9.75171
朗	-9.7519
八月	-9.75204
草木	-9.75276
憑	-9.75332
銷	-9.75363
囊	-9.75399
之理	-9.75469
之日	-9.75504
十里	-9.75683
境界	-9.75711
創	-9.75744
東北	-9.75838
自性	-9.75888
其言	-9.75978
或有	-9.76004
快	-9.76079
淳	-9.76094
有一	-9.76336
菜	-9.76437
也其	-9.76515
涼	-9.76548
肯	-9.76569
黙	-9.7658
潭	-9.76623
麼	-9.7663
熙	-9.76673
無漏	-9.76736
整	-9.76781
晏	-9.76819
遜	-9.76952
截	-9.77064
専	-9.77165
囘	-9.77385
獵	-9.77421
之説	-9.77473
藻	-9.77525
艮	-9.77614
玩	-9.77788
昇	-9.77816
旬	-9.7787
澗	-9.77872
皆以	-9.77884
儲	-9.7789
恥	-9.779
三界	-9.77921
公之	-9.78145
咨	-9.78313
泣	-9.78317
湘	-9.78327
白雲	-9.78355
十月	-9.78373
之象	-9.78475
狄	-9.78528
▁南無	-9.7854
薨	-9.78658
漁	-9.78746
暑	-9.7875
肺	-9.78758
傳曰	-9.7878
从	-9.788
爛	-9.78814
菩薩摩訶薩	-9.78924
三千	-9.7902
冰	-9.79057
袁	-9.79095
懿	-9.79114
混	-9.79137
之數	-9.79198
牒	-9.79211
毫	-9.79257
幻	-9.79353
䟽	-9.79371
見其	-9.79417
有三	-9.79421
中國	-9.79492
範	-9.7953
祐	-9.79619
這	-9.79646
嶽	-9.79648
武帝	-9.79661
斂	-9.79675
風雨	-9.79729
恃	-9.79769
正月	-9.79938
太后	-9.79972
壺	-9.80004
一一	-9.80024
熊	-9.80041
然而	-9.80062
現在	-9.80147
菩	-9.80266
焦	-9.80271
姜	-9.80318
艱	-9.80346
鬱	-9.80402
七日	-9.8043
欣	-9.80431
箭	-9.80441
譬如	-9.80495
九月	-9.80611
至今	-9.80611
料	-9.80633
平生	-9.80703
算	-9.80857
溢	-9.80873
亷	-9.80905
織	-9.81057
排	-9.81083
明年	-9.81151
橫	-9.81165
零	-9.81188
所作	-9.81196
平等	-9.81283
擾	-9.81491
不受	-9.81584
裴	-9.81626
俯	-9.81636
臂	-9.81706
謨	-9.81706
▁唐	-9.81749
鑄	-9.81835
紛	-9.81913
板	-9.81913
浩	-9.81935
驕	-9.81994
觧	-9.82025
則不	-9.82086
所得	-9.82222
浸	-9.82279
囚	-9.82314
穢	-9.82321
謗	-9.82348
岡	-9.82365
伴	-9.82403
緒	-9.82411
偃	-9.82426
乾坤	-9.82515
孚	-9.82526
催	-9.82539
不善	-9.82558
百官	-9.82648
也然	-9.8269
閩	-9.82691
潰	-9.82892
而言	-9.82893
巡	-9.83134
誣	-9.83268
殺之	-9.83279
鴈	-9.83302
虗	-9.83305
霸	-9.83332
績	-9.83339
其餘	-9.83394
廉	-9.83587
二首	-9.83686
一句	-9.83721
未能	-9.83747
文武	-9.83772
讚	-9.8378
坊	-9.83815
亟	-9.83837
析	-9.83857
弘	-9.83911
啼	-9.83943
恵	-9.83967
樞	-9.8398
朋	-9.84107
二者	-9.84149
蓬	-9.84193
鞭	-9.84207
是非	-9.8423
軌	-9.84323
汁	-9.84496
四時	-9.84604
復有	-9.84659
仗	-9.84665
潘	-9.84838
河東	-9.84857
不肯	-9.84925
耀	-9.84952
所說	-9.84962
綠	-9.85098
書曰	-9.85123
父子	-9.85343
弼	-9.85346
一兩	-9.854
不勝	-9.85519
髙祖	-9.85602
油	-9.85727
變化	-9.85745
偉	-9.85765
絃	-9.85786
犬	-9.85821
不可得	-9.85869
歷	-9.85926
探	-9.8595
寇	-9.85973
其身	-9.85975
拒	-9.86003
不許	-9.86114
亦可	-9.86188
誕	-9.86358
長者	-9.86453
而去	-9.86486
綿	-9.86562
筵	-9.86567
説文	-9.86572
岐	-9.86688
蒸	-9.86798
何故	-9.868
武王	-9.86835
寨	-9.86851
恤	-9.86864
復次	-9.86896
冝	-9.86957
牢	-9.87029
絳	-9.8707
嫁	-9.87159
鉢	-9.87175
當知	-9.8719
不行	-9.87203
般	-9.87275
云云	-9.87281
根本	-9.87389
徽	-9.87396
何如	-9.87408
點	-9.87415
繡	-9.87438
與之	-9.87492
甞	-9.87556
裂	-9.87634
裕	-9.87666
三百	-9.87737
二月	-9.87801
突	-9.87921
彈	-9.87951
三分	-9.8797
之下	-9.88091
第五	-9.88096
掠	-9.88099
蜜	-9.88136
斤	-9.88207
▁陳	-9.88292
漕	-9.88334
究竟	-9.88427
肇	-9.88579
掃	-9.88608
江西	-9.88652
古之	-9.88676
七月	-9.88682
各一	-9.88757
片	-9.88802
詐	-9.88804
譏	-9.88807
或作	-9.88816
抗	-9.88856
冒	-9.88874
戚	-9.88912
為一	-9.89073
竝	-9.89091
攸	-9.89132
由此	-9.8928
飽	-9.89427
税	-9.89554
▁劉	-9.89655
泛	-9.89725
陂	-9.898
矜	-9.89874
播	-9.89901
不當	-9.90051
幕	-9.90092
區	-9.90106
便是	-9.90118
》	-9.90168
測	-9.90177
哲	-9.90279
無相	-9.90459
哈	-9.90472
有情	-9.90665
▁△	-9.90766
群	-9.90771
之文	-9.90788
濫	-9.90871
飢	-9.90926
天尊	-9.90946
之氣	-9.91051
於中	-9.91072
吞	-9.91094
四海	-9.9114
二十四	-9.91254
敘	-9.91387
中書	-9.9139
揖	-9.91549
一曰	-9.91558
鼔	-9.91647
頒	-9.91678
四月	-9.91705
滑	-9.91781
切音	-9.91824
一切法	-9.91915
刺史	-9.91929
為人	-9.91977
脈	-9.92054
荅	-9.92084
答曰	-9.92254
君臣	-9.92314
倦	-9.9234
大眾	-9.92403
尊者	-9.92474
一心	-9.9255
之制	-9.92634
▁能	-9.92675
丙	-9.9269
等者	-9.92737
括	-9.92787
伸	-9.92863
二字	-9.92872
禦	-9.92901
悦	-9.92908
一切眾生	-9.92939
人皆	-9.92944
暢	-9.92989
侍郎	-9.92996
芝	-9.92999
山中	-9.93006
郎中	-9.93057
挾	-9.93064
諡	-9.93193
妖	-9.93255
肩	-9.9327
言其	-9.93345
歛	-9.93408
天之	-9.93488
敕	-9.93649
諦	-9.93669
叶	-9.93705
綺	-9.93734
饗	-9.93847
無礙	-9.93913
丑	-9.93921
脾	-9.93979
閲	-9.94046
擅	-9.94105
者為	-9.94243
翔	-9.94261
一分	-9.94297
爽	-9.94327
台	-9.94328
嘆	-9.9434
摧	-9.94352
簾	-9.94358
稅	-9.94508
煮	-9.9451
陋	-9.94674
之處	-9.94718
暉	-9.94734
至是	-9.94757
虧	-9.94772
▁○	-9.94801
行之	-9.9481
再拜	-9.94907
昨	-9.95011
春風	-9.95108
属	-9.95155
爐	-9.95193
籠	-9.95228
者必	-9.95256
曜	-9.95259
注云	-9.95279
不忍	-9.95301
此中	-9.95306
以自	-9.95329
精進	-9.95349
嵩	-9.95358
自有	-9.95368
腎	-9.95375
洛陽	-9.95405
喚	-9.95408
百里	-9.95427
臯	-9.95438
托	-9.95449
無窮	-9.95466
▁月	-9.95573
睡	-9.95579
思惟	-9.95698
娶	-9.95732
跪	-9.95747
禮樂	-9.95908
層	-9.95916
邱	-9.95937
民之	-9.96065
篆	-9.96088
誥	-9.96122
二百	-9.96206
枚	-9.96233
誘	-9.96357
遐	-9.96359
至此	-9.96384
其地	-9.96388
知之	-9.964
者不	-9.96499
法門	-9.9658
其間	-9.96651
上有	-9.96673
畝	-9.96937
鋒	-9.96938
透	-9.96939
叅	-9.96939
蠶	-9.97009
不盡	-9.97067
踐	-9.97074
閏	-9.97085
之所以	-9.97128
先王	-9.9714
富貴	-9.97156
裘	-9.97207
不從	-9.97221
而成	-9.97239
奸	-9.97243
十七	-9.97284
而下	-9.97343
也若	-9.9738
一念	-9.97391
相與	-9.97404
遁	-9.97508
湏	-9.97543
疆	-9.97656
臥	-9.9767
隣	-9.97737
狗	-9.9776
菊	-9.97771
服之	-9.97821
一年	-9.97864
不識	-9.9793
其實	-9.9799
桐	-9.98033
若是	-9.98148
姬	-9.98171
溺	-9.98369
暖	-9.98517
往來	-9.98535
線	-9.98628
腫	-9.98664
天地之	-9.98733
閱	-9.988
不足以	-9.98842
綏	-9.98854
「	-9.98887
祿	-9.9889
牆	-9.98914
百年	-9.98925
社稷	-9.99022
番	-9.99029
之不	-9.99061
有功	-9.99121
法師	-9.99198
明日	-9.99201
罕	-9.99244
無事	-9.99323
男女	-9.99364
谿	-9.99376
狐	-9.99428
擒	-9.99486
▁又曰	-9.995
卽	-9.99614
雉	-9.99631
則是	-9.99675
過去	-9.99708
禾	-9.99712
熏	-9.99738
腸	-9.99772
地獄	-9.99975
詢	-10.0004
得之	-10.0018
洽	-10.0021
瓶	-10.0024
泊	-10.0029
相見	-10.0045
所在	-10.0049
廵	-10.0052
時有	-10.0056
竇	-10.0067
貽	-10.0069
則為	-10.0073
朱子	-10.0077
生於	-10.0078
㸔	-10.008
秘	-10.0084
膺	-10.0084
亦非	-10.0084
渭	-10.0086
釣	-10.0095
拾	-10.0098
枉	-10.01
寕	-10.0107
祚	-10.0112
繇	-10.0129
見之	-10.0132
又以	-10.0133
外道	-10.0141
此言	-10.0142
韶	-10.0147
効	-10.0148
随	-10.0156
隴	-10.0159
礙	-10.0165
─	-10.0165
俞	-10.0168
可得	-10.017
柄	-10.0171
諸天	-10.0174
悅	-10.0177
壊	-10.018
三人	-10.0182
傑	-10.0183
踈	-10.0191
裳	-10.0194
禮記	-10.0198
十一月	-10.0198
褒	-10.0207
㳺	-10.0211
畔	-10.0221
換	-10.0223
収	-10.0224
醜	-10.0228
七十	-10.0228
堡	-10.0229
晋	-10.0231
稷	-10.025
之屬	-10.0253
而行	-10.0257
行者	-10.0258
邵	-10.0263
薩	-10.0277
宛	-10.0278
派	-10.0286
域	-10.0288
壘	-10.0294
不至	-10.0295
東方	-10.0295
着	-10.0306
几	-10.0311
眷	-10.0313
諌	-10.0315
濬	-10.0324
鱗	-10.0332
陜西	-10.0338
無二	-10.0339
従	-10.034
故知	-10.034
問曰	-10.0344
匡	-10.0352
渉	-10.0355
其家	-10.0379
童子	-10.0385
司徒	-10.0386
觴	-10.0394
泄	-10.0396
十二月	-10.0397
湛	-10.0398
彩	-10.04
故以	-10.0406
多少	-10.0413
纂	-10.0421
不通	-10.0423
上帝	-10.0423
而能	-10.0427
安得	-10.0434
所生	-10.0436
樊	-10.0439
漆	-10.0442
可見	-10.0443
王子	-10.0446
八十	-10.0449
取其	-10.045
▁***	-10.0458
二乘	-10.0459
成王	-10.0463
絹	-10.0467
堤	-10.047
而得	-10.048
揮	-10.0488
如何是	-10.0491
所見	-10.0494
伽	-10.0495
西方	-10.0522
不離	-10.0543
不失	-10.0544
黜	-10.0545
潜	-10.055
逕	-10.0559
正法	-10.056
▁夫	-10.0568
杯	-10.0576
捐	-10.0577
促	-10.058
侍中	-10.0588
古文	-10.0588
陪	-10.0589
億	-10.0593
其義	-10.0603
無為	-10.0603
矯	-10.0622
之說	-10.0624
有大	-10.0624
子弟	-10.0625
太尉	-10.0626
三世	-10.064
虛空	-10.0648
蘊	-10.0651
節度使	-10.067
之學	-10.0672
宗廟	-10.0674
闢	-10.0677
真實	-10.0684
曷	-10.0688
紹興	-10.0694
分明	-10.0694
善根	-10.0695
亦是	-10.0698
邁	-10.0698
此經	-10.0701
黍	-10.0703
匿	-10.072
何也	-10.0727
隄	-10.073
檀	-10.0731
道也	-10.0731
者則	-10.0739
壤	-10.0752
無人	-10.0758
踏	-10.0759
二十五	-10.0773
十九	-10.0773
棗	-10.0778
是謂	-10.0779
壓	-10.0781
翰林	-10.0792
大將軍	-10.0795
者有	-10.0796
非有	-10.0812
邀	-10.0814
羌	-10.0816
無邊	-10.0817
我今	-10.0819
故事	-10.082
耆	-10.083
三十六	-10.0835
以示	-10.0838
刃	-10.0841
宵	-10.0844
未來	-10.0847
顛	-10.0852
隅	-10.0861
禱	-10.0865
相似	-10.0877
跋	-10.0878
之徒	-10.0879
而生	-10.088
无咎	-10.088
姿	-10.0885
其意	-10.0891
淑	-10.0894
之故	-10.0898
弑	-10.0907
十二年	-10.0916
疲	-10.0918
級	-10.0919
亦名	-10.0926
受命	-10.0935
𦵏	-10.0935
稀	-10.0965
胃	-10.0968
迫	-10.0971
不信	-10.0976
無間	-10.0976
司空	-10.0979
叟	-10.0984
栗	-10.0998
坡	-10.1004
薪	-10.101
四人	-10.1016
副使	-10.1017
函	-10.1022
亥	-10.1024
毗	-10.1026
嘉靖	-10.1036
後漢	-10.1038
之初	-10.104
茲	-10.1052
毀	-10.1054
諸人	-10.106
劇	-10.1067
因果	-10.1069
郷	-10.1075
灑	-10.1076
歡喜	-10.1097
未必	-10.1107
戈	-10.111
嬰	-10.111
死者	-10.1112
麤	-10.1118
四句	-10.1118
需	-10.112
大師	-10.1121
凡夫	-10.1127
緯	-10.1128
蘆	-10.1141
屠	-10.1142
明月	-10.1146
床	-10.1147
雀	-10.1148
開元	-10.115
靣	-10.1151
酉	-10.1152
道士	-10.116
▁南无	-10.116
河北	-10.1161
柴	-10.1162
療	-10.1169
不自	-10.117
陟	-10.1175
不覺	-10.1186
仇	-10.1192
未得	-10.1194
喬	-10.1195
不聞	-10.1206
奈何	-10.1213
垢	-10.1214
師古曰	-10.1216
溫	-10.122
祭祀	-10.1225
做	-10.1228
荀	-10.1234
将軍	-10.1236
勘	-10.1236
疊	-10.1237
睿	-10.1246
何所	-10.125
渚	-10.1253
十三年	-10.1253
鳩	-10.1263
闇	-10.1272
契丹	-10.1274
五色	-10.1291
故言	-10.1292
也此	-10.1294
鈎	-10.1303
呂	-10.1313
拙	-10.1313
恣	-10.1313
〕	-10.1314
莖	-10.1321
乍	-10.1322
進退	-10.1324
則無	-10.1326
冕	-10.1326
生滅	-10.1327
令人	-10.1335
袖	-10.1336
冲	-10.1336
廻	-10.1338
第六	-10.134
棘	-10.1341
訛	-10.1342
往往	-10.1344
之罪	-10.1353
五日	-10.1355
行人	-10.1356
膠	-10.1358
檄	-10.1361
渴	-10.1362
晝夜	-10.1364
輕重	-10.1366
山水	-10.1379
膝	-10.1397
艾	-10.1398
勑	-10.1398
綴	-10.1399
圃	-10.14
道之	-10.1405
五行	-10.1413
風吹	-10.1418
隊	-10.1423
本無	-10.1426
偕	-10.1428
粗	-10.1431
戀	-10.1435
公曰	-10.1436
未知	-10.1437
和合	-10.144
逾	-10.1445
先是	-10.145
所言	-10.145
不忘	-10.1452
▁撰	-10.1454
浴	-10.1455
雕	-10.1461
爾雅	-10.1472
及其	-10.1472
膽	-10.1473
勵	-10.1475
黄帝	-10.1476
不止	-10.148
逝	-10.1483
在上	-10.1484
樵	-10.1494
恕	-10.1497
欠	-10.15
欵	-10.1508
論云	-10.1509
不欲	-10.1509
下有	-10.1511
庵	-10.1512
經一卷	-10.1518
威儀	-10.1519
憤	-10.1525
故有	-10.1535
觀察	-10.1539
䖍	-10.1541
訣	-10.1543
阜	-10.1544
公孫	-10.1545
如前	-10.1547
之内	-10.1552
凖	-10.1558
餉	-10.1558
之於	-10.1559
蓄	-10.1566
巫	-10.1567
㓜	-10.1573
劣	-10.1576
榜	-10.1585
聖人之	-10.1593
戊	-10.1598
其上	-10.16
十五年	-10.1604
貯	-10.1608
者非	-10.162
吏部	-10.1623
善惡	-10.1626
埋	-10.1627
禮部	-10.1634
五分	-10.1638
欲界	-10.1643
集韻	-10.1651
莽	-10.1651
稻	-10.1653
躍	-10.1658
墳	-10.166
雁	-10.1662
世之	-10.1675
賢者	-10.1676
羙	-10.1677
册	-10.1696
不書	-10.1698
不合	-10.1702
之臣	-10.171
襟	-10.1719
南山	-10.1727
丨丨丨丨	-10.1733
博士	-10.1738
大事	-10.1747
翟	-10.1754
第七	-10.1757
翳	-10.1759
版	-10.1765
善現	-10.1766
祁	-10.1767
弁	-10.1776
汪	-10.1776
豈非	-10.178
脂	-10.1789
慙	-10.1791
閔	-10.1794
男子	-10.1794
簿	-10.1795
飄	-10.1798
太原	-10.1805
治之	-10.1808
魄	-10.181
諸比丘	-10.1817
劾	-10.1821
文公	-10.1831
夙	-10.1833
而不能	-10.1835
數十	-10.1856
自古	-10.1861
若無	-10.1862
神仙	-10.1862
太陽	-10.1864
誨	-10.1865
棺	-10.1866
也言	-10.1867
神通	-10.187
十一年	-10.1871
甲子	-10.1876
上堂	-10.1879
豈有	-10.188
人情	-10.1883
政事	-10.1886
使之	-10.1891
壹	-10.1891
怠	-10.1892
古者	-10.1895
諸生	-10.1899
澹	-10.1899
非是	-10.1902
磬	-10.1903
太極	-10.1904
蹇	-10.1917
三十里	-10.1921
𤓰	-10.1923
俎	-10.1924
冬至	-10.1925
㧞	-10.1925
淮南	-10.1929
碩	-10.1933
廣大	-10.1935
反下	-10.1936
斛	-10.1936
敝	-10.1937
魁	-10.195
籌	-10.1952
駭	-10.1957
捧	-10.1958
飲酒	-10.1959
挽	-10.196
所居	-10.1969
▁論	-10.1977
沃	-10.1979
無異	-10.1987
輦	-10.199
於人	-10.1993
鈞	-10.2
不待	-10.2002
者即	-10.2008
之辭	-10.2012
街	-10.2014
都督	-10.2014
鋪	-10.2015
認	-10.2019
終不	-10.2031
挺	-10.2033
之謂	-10.2035
今之	-10.2035
顛倒	-10.2045
藍	-10.2046
遠離	-10.2047
之用	-10.2049
壑	-10.205
臧	-10.2055
霄	-10.2058
取之	-10.2061
俸	-10.2068
匠	-10.2071
無生	-10.2071
濤	-10.2081
攀	-10.2085
偷	-10.2085
故不	-10.2098
絡	-10.2099
洋	-10.2102
之志	-10.2103
見於	-10.2104
漿	-10.211
臣等	-10.2112
一員	-10.2115
猶如	-10.2124
握	-10.2126
丗	-10.2131
十四年	-10.214
陛	-10.2142
此則	-10.2145
小兒	-10.2149
其名	-10.2151
賁	-10.2154
饌	-10.2155
左氏	-10.2157
廣韻	-10.2162
東坡	-10.2166
募	-10.2169
何為	-10.2169
或曰	-10.2172
音義	-10.2182
幅	-10.2182
不起	-10.2189
戾	-10.2189
不容	-10.2191
訶	-10.2204
十日	-10.2206
闊	-10.2207
此云	-10.2209
確	-10.2211
致仕	-10.2214
𥘉	-10.2226
縣界	-10.2228
醒	-10.2229
蹈	-10.223
唐書	-10.2234
公主	-10.2235
其道	-10.2236
公卿	-10.2237
中間	-10.2238
哩	-10.2239
濶	-10.2244
文帝	-10.2252
若干	-10.2253
勁	-10.2253
為大	-10.2255
巷	-10.2257
團	-10.2259
瀆	-10.2262
熈	-10.2274
▁爾時	-10.2277
庾	-10.2277
汝等	-10.2295
子之	-10.2299
無以	-10.2302
匈奴	-10.2303
箋	-10.2305
幢	-10.2308
明堂	-10.2312
縮	-10.2313
懲	-10.2316
而出	-10.2322
者乎	-10.2326
食之	-10.2332
南方	-10.2337
狹	-10.2341
-	-10.2344
耗	-10.2346
之民	-10.2353
斧	-10.2364
纎	-10.238
婁	-10.2385
芒	-10.24
論語	-10.2401
可也	-10.2402
桓公	-10.2406
萌	-10.2406
迦葉	-10.2409
卻	-10.2413
之餘	-10.2414
則其	-10.2427
無我	-10.2431
遙	-10.244
擲	-10.244
冶	-10.2447
不定	-10.2451
浙江	-10.2455
塲	-10.2456
無別	-10.2464
矣然	-10.2465
第八	-10.2475
柏	-10.2482
揚州	-10.2482
相續	-10.2483
個	-10.2495
毅	-10.2504
從此	-10.2506
者其	-10.2517
電	-10.2519
猷	-10.252
現前	-10.2521
士大夫	-10.2534
說文	-10.2539
視之	-10.2546
僻	-10.2547
僖	-10.2547
青山	-10.2556
浚	-10.2566
有此	-10.2569
以後	-10.2578
戮	-10.2587
王氏	-10.2589
粥	-10.2589
坦	-10.2596
藤	-10.2596
臘	-10.2602
鎭	-10.2602
文殊	-10.2602
夭	-10.2604
軸	-10.2608
淪	-10.2608
媚	-10.2614
閭	-10.2616
人物	-10.2618
梨	-10.2618
態	-10.2621
其志	-10.2625
筮	-10.263
沮	-10.2635
以是	-10.264
諒	-10.2642
股	-10.2646
倡	-10.2646
終日	-10.2648
大王	-10.2649
揺	-10.2652
濃	-10.2652
聖賢	-10.2655
法性	-10.2658
歇	-10.2667
仁義	-10.2668
祕	-10.2668
有四	-10.2669
詰	-10.2669
圓滿	-10.267
為主	-10.267
觀之	-10.2686
綵	-10.2687
此二	-10.2687
涇	-10.2699
豈可	-10.2699
天王	-10.2703
裔	-10.2704
赫	-10.2706
從事	-10.273
鄒	-10.2731
减	-10.2738
安樂	-10.2739
槐	-10.2745
蟬	-10.2747
畢竟	-10.276
諧	-10.2773
佛言	-10.2776
決定	-10.2782
頼	-10.2784
攜	-10.2786
煥	-10.2791
亦以	-10.2797
豕	-10.2798
女子	-10.2804
剎	-10.2808
法華	-10.2808
無盡	-10.2812
猶有	-10.2814
暇	-10.2824
呵	-10.2828
他人	-10.2834
鬢	-10.2836
替	-10.284
俄	-10.284
後人	-10.2844
墻	-10.2851
禀	-10.2863
租	-10.2865
山僧	-10.2866
拉	-10.2866
執事	-10.287
膚	-10.2884
以待	-10.2884
措	-10.2897
㦸	-10.2898
滴	-10.2899
懇	-10.2908
惱	-10.2912
飭	-10.2915
勾	-10.2921
堰	-10.2925
遏	-10.2934
膳	-10.2937
不易	-10.2938
無上	-10.2939
二子	-10.294
一字	-10.2941
淸	-10.2943
不堪	-10.2944
而死	-10.2946
喧	-10.295
訴	-10.295
窟	-10.2958
戌	-10.2961
捷	-10.2962
捉	-10.2973
邢	-10.2974
胸	-10.2976
諸菩薩	-10.2983
州人	-10.2985
須菩提	-10.2988
以成	-10.2998
妄想	-10.3003
綸	-10.3006
故人	-10.3016
天命	-10.3018
老人	-10.3019
鄂	-10.3019
施行	-10.3021
豹	-10.3028
叩	-10.3029
抽	-10.3031
萃	-10.3035
聰	-10.3036
燥	-10.3041
二十年	-10.3042
丕	-10.305
剪	-10.305
柯	-10.3057
姪	-10.3058
國公	-10.3066
頑	-10.3072
曰我	-10.3073
人所	-10.3077
祖宗	-10.3079
盆	-10.3083
恱	-10.3088
輯	-10.3091
不作	-10.3092
椒	-10.3092
▁楊	-10.3098
挂	-10.31
齊侯	-10.3101
出世	-10.3108
咽	-10.3113
天台	-10.3114
道理	-10.3117
滿洲	-10.3123
成佛	-10.3128
謫	-10.3137
瞋	-10.3137
邇	-10.3137
賑	-10.314
以致	-10.3142
莒	-10.3147
鄴	-10.3147
隙	-10.3162
甸	-10.3167
既而	-10.3169
帷	-10.3174
天上	-10.3177
羡	-10.3183
者是	-10.3184
濡	-10.3186
雖然	-10.3186
之至	-10.319
沛	-10.3195
十六年	-10.3196
汲	-10.3198
悼	-10.3201
䧟	-10.3202
失其	-10.3206
貸	-10.3217
中外	-10.3217
壬	-10.3221
而自	-10.3222
風俗	-10.3223
種子	-10.3234
妻子	-10.3236
竿	-10.3239
臭	-10.3249
不食	-10.3252
之盛	-10.3252
兔	-10.3254
峽	-10.3256
人以	-10.3259
衣服	-10.3267
㫁	-10.3273
虹	-10.3274
其國	-10.3279
利益	-10.3284
同上	-10.3285
十萬	-10.3286
馭	-10.3286
不須	-10.3287
筋	-10.3288
鼠	-10.3292
箕	-10.3294
之樂	-10.33
姓名	-10.3302
故能	-10.3308
三藏	-10.3309
㑹稽	-10.3311
掛	-10.3312
此事	-10.3314
天道	-10.3316
通判	-10.332
欲以	-10.3321
之徳	-10.3321
拱	-10.3326
也从	-10.3328
笛	-10.3329
核	-10.333
鍊	-10.3341
之物	-10.3344
貝	-10.3353
蔣	-10.3354
已上	-10.3357
三乘	-10.3362
▁答	-10.3371
有人	-10.3375
奢	-10.3378
狼	-10.3384
即此	-10.3392
羯磨	-10.3399
先後	-10.3403
未盡	-10.3404
拈	-10.341
栢	-10.3414
昆	-10.3417
有漏	-10.342
佛性	-10.3422
不免	-10.3425
禘	-10.3426
曩	-10.3429
於上	-10.343
評	-10.3436
糾	-10.3449
若此	-10.346
宋史	-10.3464
侈	-10.3466
或以	-10.3471
▁薩	-10.3471
成都	-10.3472
不明	-10.3478
而不知	-10.348
衢	-10.3482
妨	-10.3492
中正	-10.3497
三公	-10.3498
吉凶	-10.3499
改為	-10.3502
忿	-10.3506
仙人	-10.3509
二種	-10.3523
酸	-10.3523
庻	-10.3526
憚	-10.3527
纓	-10.3529
針	-10.3532
浙	-10.3533
押	-10.3534
猿	-10.3534
愍	-10.3536
之位	-10.3541
智者	-10.3542
諸將	-10.3542
宦	-10.3543
得失	-10.3543
中道	-10.3547
状	-10.3548
楹	-10.3557
諾	-10.3557
暨	-10.3564
不宜	-10.3565
港	-10.3566
主簿	-10.3567
今年	-10.3576
所為	-10.3576
晉書	-10.3577
堯舜	-10.3583
他日	-10.3585
抄	-10.3593
蓮華	-10.3606
一旦	-10.3609
▁黄	-10.361
老子	-10.3612
之命	-10.3617
於彼	-10.3618
有無	-10.362
有異	-10.3621
脊	-10.3622
北方	-10.3622
布施	-10.3631
於外	-10.3638
嚮	-10.3638
以求	-10.3653
山西	-10.3661
乾隆	-10.3666
劑	-10.3668
罵	-10.3671
頴	-10.3673
竄	-10.3673
愆	-10.3678
大道	-10.3681
矣故	-10.3685
矩	-10.3686
一二	-10.3686
少年	-10.3698
縣西	-10.3699
入於	-10.3704
沾	-10.3704
足下	-10.3707
王者	-10.3708
仲尼	-10.3716
岑	-10.3718
莊子	-10.372
黄金	-10.372
沐	-10.3724
之道也	-10.3727
濯	-10.3732
之書	-10.3733
何人	-10.3734
滕	-10.3744
五里	-10.375
之情	-10.3756
康熙	-10.3758
無復	-10.3759
擔	-10.3759
齡	-10.376
瓜	-10.376
其文	-10.3762
縷	-10.3768
精神	-10.3769
天人	-10.377
指揮	-10.3785
誼	-10.3791
亦作	-10.3792
隸	-10.3793
而復	-10.3794
卯	-10.3799
之變	-10.3804
架	-10.3805
不入	-10.3806
人君	-10.3809
太史	-10.3818
四分	-10.383
之大	-10.3831
珪	-10.3832
記曰	-10.3833
􁏐	-10.3838
諸侯之	-10.3842
淨土	-10.3843
不淨	-10.3843
殺人	-10.3848
)。】	-10.385
而又	-10.3853
貼	-10.3854
縣人	-10.386
所知	-10.386
大悲	-10.3862
流水	-10.3871
世祖	-10.3875
伺	-10.3878
亦然	-10.3879
觀其	-10.3886
灘	-10.3888
鷄	-10.3892
默	-10.3894
三十年	-10.3894
虐	-10.3895
猶未	-10.3899
在下	-10.3901
驢	-10.3902
丈夫	-10.3906
縣南	-10.3907
疇	-10.3909
遯	-10.3916
棟	-10.3916
遶	-10.3922
填	-10.3923
袍	-10.3923
榆	-10.3932
涕	-10.3935
縣東	-10.3935
釋迦	-10.3938
以明	-10.3945
庶幾	-10.3948
霽	-10.3961
萊	-10.3962
䖏	-10.3963
陰陽	-10.3967
家人	-10.3969
太常	-10.3971
諸子	-10.3971
痰	-10.3976
道路	-10.3978
荆州	-10.398
所依	-10.398
朝夕	-10.3981
寃	-10.3986
琳	-10.3989
此心	-10.3995
霍	-10.3995
詭	-10.3999
世子	-10.3999
宥	-10.4004
莫能	-10.4007
我等	-10.4011
瑟	-10.4013
未可	-10.4018
未至	-10.4024
虗空	-10.4025
奥	-10.4029
相傳	-10.403
在於	-10.4035
手足	-10.4036
悶	-10.4037
洩	-10.4043
醴	-10.4044
▁#+	-10.4051
矣而	-10.4052
▁凡	-10.4065
犀	-10.4065
之勢	-10.4071
三種	-10.4076
它	-10.4076
轍	-10.4078
某甲	-10.4081
本朝	-10.4082
城中	-10.4091
利害	-10.4092
之本	-10.4093
門下	-10.4095
同知	-10.4097
南陽	-10.4108
亢	-10.4112
物之	-10.4113
不著	-10.4116
汴	-10.4118
之患	-10.4118
天子之	-10.4119
瘦	-10.4122
杞	-10.4123
聼	-10.4127
風流	-10.4128
衮	-10.4134
粒	-10.4148
隘	-10.4157
凍	-10.416
判官	-10.4165
西域	-10.4168
▁趙	-10.417
鉤	-10.4171
藴	-10.4171
荘	-10.4171
君子之	-10.4172
簷	-10.4173
瑶	-10.4177
諸眾生	-10.4195
二句	-10.4196
長史	-10.4198
霑	-10.4203
是則	-10.4204
堆	-10.4204
建立	-10.4205
上曰	-10.4206
挑	-10.4214
其罪	-10.4215
蔚	-10.4215
嗜	-10.422
剥	-10.4224
洪武	-10.4227
帆	-10.4228
譚	-10.4229
事也	-10.4232
何必	-10.4232
一體	-10.4236
札	-10.424
刼	-10.424
山林	-10.4241
北面	-10.4242
羸	-10.4244
亞	-10.4245
摘	-10.4249
戶	-10.4249
非也	-10.4251
大抵	-10.4251
皆得	-10.4252
而立	-10.4252
求之	-10.4253
小乘	-10.4258
東海	-10.4258
雖不	-10.4259
在此	-10.4264
誡	-10.4266
千金	-10.4267
華嚴	-10.4272
八分	-10.4274
誇	-10.4276
州府	-10.428
其父	-10.4281
梅花	-10.4287
始終	-10.4291
樽	-10.4294
相對	-10.4294
攷	-10.4304
渙	-10.4308
蔵	-10.4309
朴	-10.431
奄	-10.4313
恪	-10.4315
南京	-10.4317
歐陽	-10.4318
秋風	-10.4319
道者	-10.4323
佑	-10.4326
未見	-10.4327
不死	-10.4328
岀	-10.4328
國土	-10.4336
乃以	-10.434
而巳	-10.4341
炳	-10.435
一錢	-10.435
跨	-10.4351
軫	-10.4352
飬	-10.4352
輅	-10.4356
者何	-10.4359
福建	-10.4361
王公	-10.4362
餅	-10.4363
批	-10.4364
睦	-10.4376
如今	-10.4379
拳	-10.4385
甘草	-10.4387
梓	-10.439
孔子曰	-10.4393
一身	-10.44
坑	-10.4403
勃	-10.4404
以前	-10.4406
閘	-10.4408
煑	-10.441
㝠	-10.4412
頌曰	-10.4415
何不	-10.4426
淹	-10.4426
迴向	-10.4434
驟	-10.4438
晉侯	-10.444
吝	-10.4442
綬	-10.4445
繪	-10.4448
控	-10.445
耳目	-10.445
皆不	-10.4451
提舉	-10.4455
巡撫	-10.4455
沸	-10.4457
畨	-10.4457
等處	-10.4463
刋	-10.4467
在外	-10.4475
一言	-10.4478
教授	-10.448
易之	-10.4481
四大	-10.4483
諍	-10.4485
誌	-10.4487
▁上堂	-10.449
瀉	-10.4491
亦云	-10.4495
實相	-10.4499
太廟	-10.4502
斑	-10.4503
一者	-10.4504
舅	-10.4508
後漢書	-10.4509
則知	-10.4512
中庸	-10.4513
倘	-10.4515
有五	-10.4519
中興	-10.4524
三代	-10.4526
毘	-10.4533
槩	-10.4537
僚	-10.4538
稽首	-10.454
不利	-10.454
竈	-10.4544
經文	-10.4544
舍利弗	-10.4544
鶯	-10.4549
殯	-10.4554
帝王	-10.4562
言語	-10.4565
揆	-10.4566
或云	-10.4568
笙	-10.4574
千載	-10.4581
事之	-10.4585
搖	-10.4591
砂	-10.4595
于是	-10.4601
金石	-10.4602
紂	-10.4602
及諸	-10.4603
其君	-10.4603
敖	-10.4614
西山	-10.4614
不住	-10.4619
芙蓉	-10.4625
裝	-10.4625
成化	-10.4626
婚	-10.4628
一首	-10.4634
▁《	-10.4638
於天	-10.4643
身心	-10.4645
修習	-10.4649
郡縣	-10.4652
元祐	-10.4655
搜	-10.4659
十卷	-10.4664
揭	-10.4665
佞	-10.4665
覓	-10.4668
婆羅門	-10.4669
得一	-10.4673
脅	-10.4674
一事	-10.4674
王之	-10.4681
永樂	-10.4682
義也	-10.4682
三者	-10.4683
諸公	-10.4683
大人	-10.4691
綽	-10.47
杏	-10.4701
與人	-10.471
傲	-10.4714
三十二	-10.4716
不正	-10.4721
葵	-10.4722
鬚	-10.4723
剉	-10.4725
甚深	-10.4728
自此	-10.4729
不解	-10.4729
諷	-10.4731
一月	-10.4742
阮	-10.4747
▁贈	-10.4749
邈	-10.4752
則以	-10.4756
數百	-10.4758
窗	-10.476
慘	-10.4761
拏	-10.4762
人主	-10.4762
數日	-10.4764
之體	-10.4765
從容	-10.4784
文學	-10.4784
鮑	-10.4785
烹	-10.4786
悠悠	-10.4788
鬬	-10.4795
消息	-10.4798
十八年	-10.4798
亦如是	-10.4799
時人	-10.48
之官	-10.4807
賔客	-10.4811
未及	-10.4813
鉛	-10.482
且道	-10.4828
之始	-10.4831
圜	-10.4836
皆為	-10.484
衣冠	-10.4848
貞觀	-10.485
帝曰	-10.485
壅	-10.485
苔	-10.4852
節度	-10.4854
太和	-10.4856
甘露	-10.4861
詩丨丨	-10.4863
齎	-10.4865
郢	-10.4868
所行	-10.4869
厄	-10.4872
詎	-10.488
恬	-10.4881
夲	-10.4886
水火	-10.489
▁秋	-10.4891
怖	-10.4894
悖	-10.4894
羮	-10.4898
之才	-10.49
▁皇上	-10.4903
上書	-10.4904
宸	-10.4909
與其	-10.4911
佐領	-10.4911
千古	-10.4914
亦爾	-10.4916
人事	-10.4917
九十	-10.4924
十七年	-10.493
簫	-10.493
二十里	-10.4937
曇	-10.4941
念佛	-10.4944
癸	-10.4947
䑕	-10.4948
其有	-10.4949
構	-10.4951
在位	-10.4957
為君	-10.4958
喝	-10.4959
駿	-10.496
嘯	-10.4963
裹	-10.4966
桃花	-10.4979
無心	-10.498
有罪	-10.498
蠲	-10.4982
比丘尼	-10.4984
喫	-10.4994
臻	-10.5001
江湖	-10.5005
蠱	-10.5011
島	-10.5012
數年	-10.5018
闡	-10.5021
沿	-10.5022
無可	-10.5024
璽	-10.5026
道場	-10.5027
太白	-10.5029
慚	-10.5033
筠	-10.5035
讒	-10.5044
扣	-10.5048
神明	-10.5051
搆	-10.5054
正義曰	-10.5056
發明	-10.5059
嚩	-10.5059
萬厯	-10.5059
受持	-10.5066
之美	-10.5067
寔	-10.5067
處士	-10.5067
畆	-10.5073
四川	-10.508
山谷	-10.5085
此時	-10.509
徇	-10.5093
皇太子	-10.5095
道人	-10.5108
爲之	-10.5109
軟	-10.5111
皓	-10.5111
進云	-10.5111
不取	-10.5114
用兵	-10.5119
夫婦	-10.5122
蜂	-10.5124
芻	-10.5134
八百	-10.5134
二分	-10.5146
人生	-10.5148
終身	-10.5154
沖	-10.5156
齊人	-10.5156
樸	-10.5156
之實	-10.5159
苖	-10.5161
不已	-10.5161
《	-10.5162
懋	-10.5164
陽縣	-10.5164
遂以	-10.5165
喇	-10.5167
汎	-10.5167
聳	-10.5168
四十里	-10.5169
令其	-10.5169
區區	-10.5173
書之	-10.5175
于此	-10.5178
䑓	-10.5178
搗	-10.5183
同時	-10.5183
之職	-10.5185
百萬	-10.5186
蹤	-10.5187
長沙	-10.519
贍	-10.519
二十八	-10.5194
汙	-10.5196
縣北	-10.5201
四百	-10.5201
賂	-10.5203
繹	-10.5209
師子	-10.521
剖	-10.5213
而歸	-10.5223
九五	-10.5229
仁宗	-10.5229
牟	-10.5237
婢	-10.5242
眷屬	-10.5244
何時	-10.5244
銓	-10.5246
未幾	-10.5255
之使	-10.5263
朽	-10.5263
法者	-10.5265
行事	-10.5273
杭	-10.5274
糞	-10.5277
逺近	-10.5281
許之	-10.5284
頤	-10.5284
腦	-10.5286
硯	-10.5286
元和	-10.5294
塊	-10.5294
僭	-10.5298
亦曰	-10.531
▁史	-10.5315
漲	-10.5317
瑩	-10.5321
大學士	-10.5321
灸	-10.5326
國人	-10.5326
以備	-10.5334
字子	-10.534
乂	-10.534
日夜	-10.5347
兊	-10.5352
為我	-10.5353
更有	-10.536
稟	-10.5366
鐸	-10.5366
償	-10.5372
歸來	-10.5374
麾	-10.5374
其一	-10.5378
五帝	-10.5384
奈	-10.5391
若能	-10.5393
璋	-10.5395
耿	-10.5395
而止	-10.5399
僉	-10.5401
纏	-10.5403
▁師云	-10.5406
白日	-10.5409
世俗	-10.5415
殁	-10.542
液	-10.5427
不知其	-10.5429
頸	-10.5445
以至	-10.5447
唯有	-10.5453
▁|	-10.5454
栖	-10.5463
長子	-10.5464
原任	-10.547
之世	-10.5471
黔	-10.5474
宗室	-10.5476
傳云	-10.5476
此亦	-10.5484
金人	-10.5488
邸	-10.5494
城南	-10.5501
清風	-10.5507
二千	-10.5508
而非	-10.5517
廓	-10.5519
百千	-10.5521
公羊	-10.5522
之性	-10.553
榻	-10.5531
滌	-10.5531
之難	-10.5531
隻	-10.5532
其下	-10.5538
豎	-10.5539
腐	-10.5539
名也	-10.5542
泰山	-10.5549
因之	-10.5549
金陵	-10.555
郤	-10.5561
大功	-10.5566
模	-10.5567
踵	-10.5569
常住	-10.557
祔	-10.5586
鷹	-10.559
醋	-10.5591
江東	-10.5596
閻	-10.56
㕘	-10.5601
千萬	-10.5605
波羅蜜	-10.5606
㓂	-10.5608
成功	-10.5613
之利	-10.5616
五十里	-10.5616
之矣	-10.5618
不肖	-10.562
噫	-10.5624
其本	-10.5628
以告	-10.5628
疋	-10.5635
一方	-10.5637
之極	-10.5643
筭	-10.565
聰明	-10.5651
曼	-10.5652
其功	-10.5653
雲南	-10.5653
宣王	-10.5657
水中	-10.5659
寂靜	-10.5659
發心	-10.5666
長生	-10.5667
煖	-10.5668
两	-10.5676
之政	-10.5678
三品	-10.5681
萬年	-10.5684
縣令	-10.5693
陜	-10.5695
然也	-10.5696
之國	-10.5702
掾	-10.5703
桀	-10.5705
襄陽	-10.5708
蹟	-10.5713
其母	-10.5715
之前	-10.5715
饋	-10.5718
弭	-10.5719
禮也	-10.572
E	-10.5721
色界	-10.5722
湖廣	-10.5723
儼	-10.5724
奕	-10.573
軰	-10.5733
所緣	-10.5734
者多	-10.5734
尖	-10.5735
以聞	-10.5735
十地	-10.5736
豫章	-10.5747
鵲	-10.5748
𤼵	-10.575
紛紛	-10.5756
怯	-10.5756
叚	-10.5757
亦得	-10.5765
三寶	-10.5765
九日	-10.5766
恁麼	-10.5767
此意	-10.5768
無數	-10.5772
無餘	-10.5773
而未	-10.5774
本作	-10.5782
不斷	-10.5786
隨順	-10.5789
士卒	-10.5792
為末	-10.5792
善法	-10.5795
入于	-10.5796
森	-10.5799
恭敬	-10.5802
教化	-10.5808
國王	-10.5813
鬻	-10.5815
不顧	-10.5815
髙宗	-10.5826
二十七	-10.5829
天理	-10.5831
二十二	-10.5834
亦復如是	-10.5837
甚多	-10.584
小便	-10.5842
㨗	-10.5849
詮	-10.5853
處處	-10.5856
弩	-10.5859
五人	-10.586
愼	-10.586
山下	-10.5864
人有	-10.5865
不異	-10.5865
之君	-10.5865
海内	-10.5868
稼	-10.5874
搏	-10.5875
涵	-10.588
騷	-10.5884
萬人	-10.5889
吒	-10.589
縫	-10.5893
技	-10.5898
去聲	-10.5905
中原	-10.5908
佛子	-10.5911
已而	-10.5913
周之	-10.5913
二兩	-10.5914
奎	-10.5915
大德	-10.5917
忤	-10.5918
相逢	-10.5921
侮	-10.5922
豁	-10.5923
命之	-10.5924
自今	-10.5928
贖	-10.5931
何事	-10.5932
二十一	-10.5936
萬世	-10.5936
能知	-10.5939
灣	-10.5943
而不可	-10.5943
胄	-10.5944
讎	-10.5945
詩書	-10.5946
門人	-10.5954
掖	-10.5959
弛	-10.596
內外	-10.5966
給事中	-10.597
中丞	-10.5971
邾	-10.5973
執政	-10.5975
下文	-10.5981
鈍	-10.5984
記云	-10.5986
蘿	-10.5989
楷	-10.5989
泯	-10.5994
炮	-10.5995
韜	-10.5995
總督	-10.5996
㕔	-10.6003
不思議	-10.6016
校尉	-10.6018
2	-10.6019
秒	-10.6019
官吏	-10.6023
二三	-10.603
此即	-10.603
大慧	-10.6039
無色	-10.6039
不變	-10.604
所以為	-10.6041
阿羅漢	-10.6044
五千	-10.6045
之詩	-10.6045
太學	-10.605
煞	-10.6051
諸軍	-10.6053
千年	-10.6055
孝子	-10.6058
紳	-10.6068
慈悲	-10.6071
衷	-10.6075
何謂	-10.6078
知府	-10.6078
鄭伯	-10.608
先王之	-10.6081
不安	-10.6082
之相	-10.609
髻	-10.6093
岱	-10.6095
此詩	-10.6096
攘	-10.6097
奏請	-10.6099
雲門	-10.61
無知	-10.61
之家	-10.6102
儻	-10.6102
真言	-10.6103
牌	-10.6103
扈	-10.6105
廼	-10.6108
焰	-10.611
粤	-10.611
壩	-10.6111
十餘	-10.6113
覲	-10.6114
老僧	-10.6121
乎其	-10.6121
畿	-10.6127
仁者	-10.6128
檻	-10.6136
上座	-10.6136
使君	-10.614
當以	-10.614
聨	-10.614
昬	-10.6142
之語	-10.6144
江陵	-10.6151
即今	-10.6157
之役	-10.6158
黄河	-10.6158
上言	-10.616
弧	-10.6164
鋭	-10.617
廊	-10.6171
之術	-10.6171
眞人	-10.6178
當作	-10.6178
之行	-10.6181
竪	-10.6191
第九	-10.6191
徼	-10.6192
涯	-10.6193
䝉古	-10.6199
溥	-10.6203
佚	-10.6207
嫡	-10.6208
陳氏	-10.6216
迂	-10.6222
蚤	-10.6222
漂	-10.6223
洞庭	-10.6224
東風	-10.6227
誰能	-10.6228
大明	-10.6236
先帝	-10.6236
而上	-10.6237
八卦	-10.6238
主之	-10.6245
答言	-10.6245
▁按	-10.6252
矧	-10.6255
隕	-10.6257
漠	-10.6264
五代	-10.6265
薑	-10.6274
梧	-10.6275
株	-10.6277
非常	-10.6279
單于	-10.6283
高祖	-10.6283
實有	-10.6286
朋友	-10.6287
寂滅	-10.6289
不可不	-10.6289
讐	-10.6292
三四	-10.6292
之主	-10.6296
自知	-10.6298
後魏	-10.6299
稜	-10.6301
懺	-10.6304
死生	-10.6308
於前	-10.6308
功名	-10.6311
迭	-10.6312
以見	-10.6312
之力	-10.6317
顏	-10.6318
互相	-10.6319
一切智	-10.6321
不聽	-10.6322
又何	-10.6322
橘	-10.6325
者矣	-10.6329
之計	-10.6331
轡	-10.6336
鎖	-10.6336
一乘	-10.6337
氏之	-10.6337
舍人	-10.6338
百餘	-10.6339
一千	-10.6341
二卷	-10.6344
於天下	-10.6344
久之	-10.6348
思之	-10.6352
欄	-10.636
至元	-10.636
皇太后	-10.6363
此皆	-10.6374
鵬	-10.6374
京兆	-10.6378
敞	-10.638
應知	-10.6381
有時	-10.6386
此乃	-10.6393
鈴	-10.6394
彌勒	-10.6394
如此則	-10.6395
尚有	-10.6402
者乃	-10.6402
釁	-10.6403
鄭氏	-10.6408
未免	-10.6413
以正	-10.6417
墟	-10.6418
䟦	-10.6424
所當	-10.6429
閤	-10.6433
世人	-10.6435
郡王	-10.6438
後有	-10.6447
衙	-10.6447
李氏	-10.6454
曳	-10.6454
三尺	-10.6456
尅	-10.6458
嚕	-10.6459
非一	-10.6464
江淮	-10.6467
教之	-10.6468
潁	-10.6469
行也	-10.647
是日	-10.6471
茹	-10.6477
冩	-10.6481
光武	-10.6481
作麼生	-10.6484
盲	-10.6486
何等	-10.6488
組	-10.6491
栽	-10.6491
不問	-10.6498
頥	-10.6499
牖	-10.6505
鬭	-10.6505
必以	-10.6506
羅漢	-10.6512
分二	-10.6518
楚子	-10.6519
怕	-10.6523
擊之	-10.6525
集作	-10.6526
有竒	-10.6527
炭	-10.653
些	-10.6533
跳	-10.6538
故其	-10.6544
十五里	-10.6552
稿	-10.6561
對治	-10.6562
▁象曰	-10.6565
卵	-10.6568
粹	-10.6572
所至	-10.6573
竅	-10.6574
邪見	-10.6576
相望	-10.6582
大海	-10.6586
殃	-10.6596
拯	-10.6601
糴	-10.6605
終始	-10.6606
貲	-10.6607
▁朱	-10.6608
凋	-10.6609
灾	-10.6612
錢塘	-10.6613
而起	-10.6615
自相	-10.6616
携	-10.6624
造化	-10.6626
未聞	-10.6627
而已矣	-10.6629
𩔖	-10.6634
兌	-10.6641
失之	-10.6643
歎曰	-10.6646
▁孫	-10.6647
芽	-10.6651
無非	-10.6652
刪	-10.6652
本末	-10.6657
旺	-10.6662
為政	-10.6666
渇	-10.6673
蕪	-10.6675
噐	-10.6676
銳	-10.6676
䕫	-10.668
縣志	-10.6687
痕	-10.669
長老	-10.669
系	-10.6692
觀音	-10.6695
九二	-10.6697
訥	-10.6698
監察御史	-10.6704
於世	-10.6706
貴賤	-10.6711
一箇	-10.6711
號曰	-10.6721
久矣	-10.6723
能生	-10.6724
絮	-10.673
鐡	-10.6734
皷	-10.6737
皃	-10.6745
於其	-10.6748
將來	-10.6749
恢	-10.6752
惟有	-10.6754
無一	-10.6758
熾	-10.6761
不絶	-10.6762
不若	-10.6768
倪	-10.6775
東都	-10.6778
數千	-10.678
不求	-10.6783
瑕	-10.6784
象曰	-10.6788
無罪	-10.6789
如故	-10.679
壮	-10.6791
庶子	-10.6793
忙	-10.6801
亦如	-10.6802
躡	-10.6804
箴	-10.6822
躁	-10.6826
掘	-10.6829
另	-10.6832
虢	-10.6834
逋	-10.6836
白佛言	-10.6837
般若波羅蜜多	-10.6839
縈	-10.684
彚	-10.6845
江上	-10.6849
諸王	-10.685
一朝	-10.685
酷	-10.6858
須臾	-10.686
輟	-10.6866
不息	-10.6872
壻	-10.6874
爪	-10.6875
官兵	-10.6876
而作	-10.6877
徘徊	-10.688
▁原	-10.6881
之德	-10.6885
人天	-10.6885
之妻	-10.6886
蘓	-10.6887
娑	-10.6891
甕	-10.6892
之南	-10.6892
訊	-10.6894
以禮	-10.6903
艸	-10.6909
屨	-10.6911
管理	-10.6916
鞍	-10.6916
麁	-10.6923
沂	-10.6926
寘	-10.6927
忝	-10.6928
屑	-10.6928
棒	-10.694
王曰	-10.6951
恚	-10.6961
周易	-10.6962
蔓	-10.6968
杭州	-10.6974
柩	-10.6976
物也	-10.6982
僧云	-10.6984
汚	-10.6984
楚人	-10.6995
可為	-10.6999
心不	-10.7003
其位	-10.7007
依舊	-10.7012
山之	-10.7013
無能	-10.7016
六五	-10.7017
若以	-10.7021
車馬	-10.7022
不犯	-10.7023
固有	-10.703
靄	-10.7033
冐	-10.7034
受之	-10.7036
工夫	-10.7037
漳	-10.7039
葦	-10.7041
棹	-10.7046
六百	-10.7047
親王	-10.7048
蓮花	-10.705
迥	-10.705
南海	-10.7057
所載	-10.7058
之門	-10.706
之東	-10.7061
迨	-10.7064
語言	-10.7065
之妙	-10.7066
寒暑	-10.7066
欒	-10.707
空中	-10.7075
其為	-10.7075
亦復	-10.7075
之節	-10.7076
餐	-10.7077
▁吳	-10.7084
大士	-10.7085
㢘	-10.7093
本草	-10.7095
汾	-10.7102
此三	-10.7104
不說	-10.7105
羨	-10.7106
城縣	-10.7109
不獲	-10.7109
▁****	-10.7112
龍門	-10.7113
不樂	-10.7116
之衆	-10.7117
▁諭	-10.712
騐	-10.7121
数	-10.7123
脇	-10.7123
何者	-10.7123
此法	-10.7124
軾	-10.7126
已下	-10.713
十人	-10.7132
金銀	-10.7132
一等	-10.7132
屯田	-10.7138
轅	-10.7138
言者	-10.7139
謚	-10.7139
少卿	-10.7141
鵠	-10.7144
拊	-10.7146
▁寄	-10.7146
曰君	-10.7154
之西	-10.7155
增長	-10.7158
始得	-10.716
書院	-10.716
拄杖	-10.7165
般若波羅蜜	-10.7167
真人	-10.7167
太師	-10.7168
羈	-10.7172
其説	-10.7173
本來	-10.7174
必先	-10.7179
最勝	-10.7179
濵	-10.7182
喘	-10.7183
舍利	-10.7183
豈能	-10.7185
受用	-10.719
陽氣	-10.7193
粲	-10.7196
則又	-10.7199
婬	-10.7205
▁界	-10.7207
堅固	-10.7212
户部	-10.7215
舉人	-10.7215
憫	-10.7217
注曰	-10.7219
謾	-10.7223
順治	-10.723
紗	-10.7231
郡守	-10.7232
遞	-10.7236
則曰	-10.7243
寮	-10.7251
軀	-10.7251
而還	-10.7251
餌	-10.7251
參軍	-10.7255
籬	-10.7259
義理	-10.7261
經曰	-10.7265
扉	-10.7269
撲	-10.7269
如法	-10.727
一寸	-10.7274
煉	-10.7275
靑	-10.728
而來	-10.728
徳之	-10.7281
無極	-10.7282
綜	-10.7288
隐	-10.7288
庶人	-10.7292
無他	-10.7294
猪	-10.7297
䕃	-10.7304
詩人	-10.7311
又問	-10.7313
縣治	-10.7323
法也	-10.7324
不下	-10.7326
之弊	-10.7326
鉅	-10.7328
妹	-10.733
相繼	-10.733
乃是	-10.7333
醇	-10.7337
明帝	-10.7339
文集	-10.7339
僧問	-10.7345
庇	-10.7349
所用	-10.7352
此等	-10.7353
員外郎	-10.7354
不能自	-10.7356
兵部	-10.736
劉氏	-10.7361
安石	-10.7362
一片	-10.7367
駒	-10.7368
岩	-10.7375
惕	-10.7376
其民	-10.7379
奬	-10.7379
檢校	-10.738
安住	-10.7381
止於	-10.7381
則必	-10.7381
無記	-10.7384
戯	-10.7384
▁〔	-10.739
所宜	-10.739
大同	-10.7394
所以者何	-10.7398
之禍	-10.7405
▁次韻	-10.7411
陀羅尼	-10.7411
杵	-10.7419
銘曰	-10.742
四種	-10.7421
有道	-10.7423
大學	-10.7423
侍者	-10.7426
嬌	-10.7427
行道	-10.7433
者如	-10.7433
冢	-10.7434
繆	-10.7435
西湖	-10.7436
七百	-10.7439
至誠	-10.7444
一生	-10.7445
得此	-10.7445
所欲	-10.7447
在天	-10.7452
盞	-10.7454
6	-10.7454
矣夫	-10.7472
安能	-10.7472
即以	-10.7476
意識	-10.7481
宫中	-10.7483
湖南	-10.7484
祖師	-10.7487
白馬	-10.7492
周官	-10.7493
挈	-10.7496
忠信	-10.75
月令	-10.7502
緣起	-10.7504
隷	-10.7504
嗔	-10.7509
分别	-10.7509
總管	-10.752
禮拜	-10.7526
鞏	-10.7528
芬	-10.7531
名字	-10.7531
代之	-10.7533
堵	-10.7534
之風	-10.7537
十九年	-10.7537
拍	-10.7538
因其	-10.7541
皆悉	-10.7544
更無	-10.7546
太傅	-10.7548
都尉	-10.7549
贓	-10.755
豈無	-10.7552
峙	-10.7552
陽明	-10.7558
穎	-10.756
崑崙	-10.7561
而入	-10.7564
示現	-10.7565
揀	-10.7565
與我	-10.7568
叨	-10.7568
麓	-10.7571
女人	-10.7575
襄公	-10.7577
賚	-10.7579
十分	-10.7582
西京	-10.7583
▁徐	-10.759
覈	-10.7594
不妨	-10.7601
叱	-10.7601
▁謝	-10.7601
生者	-10.7605
不退	-10.7607
狩	-10.7609
攬	-10.7609
盍	-10.761
得道	-10.7611
復為	-10.7612
之精	-10.7613
二十三	-10.7615
人民	-10.7617
憎	-10.7617
廩	-10.7619
蟻	-10.7619
之恩	-10.7625
明矣	-10.7626
起居	-10.7627
法度	-10.7628
檜	-10.7635
自得	-10.7637
賦詩	-10.7637
州郡	-10.7642
持戒	-10.7642
故為	-10.7642
三卷	-10.7643
殤	-10.765
鄉人	-10.7654
彛	-10.7659
趙州	-10.766
撃	-10.7662
翅	-10.7665
翦	-10.7668
為善	-10.7669
考之	-10.767
長短	-10.7671
事者	-10.7672
然其	-10.7674
梗	-10.7678
穹	-10.7686
四面	-10.7688
永嘉	-10.7691
相違	-10.7693
衫	-10.7696
莊公	-10.7697
相去	-10.77
𢎞治	-10.77
詔曰	-10.7706
苾芻	-10.7706
可憐	-10.7706
甄	-10.7711
張氏	-10.7712
而卒	-10.7713
▁甘草	-10.7713
臣之	-10.7713
用事	-10.7714
大國	-10.7714
三寸	-10.7715
悉皆	-10.7719
復以	-10.7721
臍	-10.7726
緝	-10.7731
秦王	-10.7733
蠧	-10.7735
甚矣	-10.7742
議者	-10.7746
厨	-10.7749
守之	-10.7759
灼	-10.776
來朝	-10.7763
闍	-10.7766
擯	-10.7767
所能	-10.7772
苞	-10.7773
先儒	-10.7779
始於	-10.778
▁㫖	-10.7785
不立	-10.7786
當年	-10.7788
天竺	-10.7796
蠟	-10.7796
法中	-10.78
元豐	-10.7804
摩訶	-10.7805
民間	-10.7806
府君	-10.7806
懶	-10.7811
闈	-10.7817
山在	-10.7823
烝	-10.7831
怛	-10.7831
增上	-10.7838
太上	-10.7838
為正	-10.7839
妍	-10.7839
衣食	-10.7842
禹貢	-10.785
謂此	-10.7856
自謂	-10.7857
亦當	-10.786
大義	-10.7862
一家	-10.7862
鍼	-10.7863
此其	-10.7865
晉人	-10.7866
為名	-10.7867
渥	-10.7869
上九	-10.7873
未嘗不	-10.7876
亘	-10.7878
得以	-10.7881
兎	-10.7883
伊尹	-10.7887
▁【(	-10.7894
直𨽻	-10.7894
撓	-10.7896
佛說	-10.7899
官員	-10.7901
車駕	-10.7904
蹙	-10.7915
作是念	-10.7919
佗	-10.7921
龔	-10.7922
徐州	-10.7928
無疑	-10.7928
於後	-10.7936
勺	-10.7938
昭公	-10.7938
湧	-10.7946
蒿	-10.7947
曰臣	-10.7951
彭城	-10.7952
▁胡	-10.7952
不稱	-10.7956
沼	-10.7957
而反	-10.7962
禮義	-10.7962
之任	-10.7966
鴉	-10.7968
塟	-10.7968
薰	-10.797
福德	-10.797
耦	-10.797
不暇	-10.7977
又言	-10.7978
梯	-10.7982
山人	-10.7983
六十里	-10.7988
正義	-10.799
不共	-10.7991
4	-10.8001
土地	-10.8004
疏云	-10.8004
􁀙	-10.8005
產	-10.8005
迺	-10.8005
藁	-10.8007
如是等	-10.8009
改元	-10.8013
惰	-10.8018
媿	-10.8018
怡	-10.8019
道中	-10.8022
葱	-10.8028
宣帝	-10.8032
所出	-10.8033
廣東	-10.8037
之水	-10.8038
中央	-10.8038
犢	-10.8039
二日	-10.804
闔	-10.8047
蝶	-10.8051
音聲	-10.8054
萬民	-10.8057
一物	-10.8059
上人	-10.8059
楓	-10.8063
庠	-10.8065
先君	-10.8067
不幸	-10.8069
亦如之	-10.8069
繒	-10.807
上元	-10.8071
喉	-10.8077
謂其	-10.8079
貞元	-10.808
頽	-10.8082
耻	-10.809
椎	-10.809
七分	-10.8092
繕	-10.8093
顔色	-10.8094
瞿	-10.8095
窓	-10.8095
各二	-10.8098
貴人	-10.8104
纒	-10.8105
居之	-10.8106
釋曰	-10.8108
制度	-10.8112
之論	-10.8116
六經	-10.8117
卿大夫	-10.812
皆可	-10.8121
甚麼	-10.8125
之要	-10.8125
也凡	-10.8126
議論	-10.813
善曰	-10.8131
c	-10.8136
所聞	-10.8136
其數	-10.814
朱子曰	-10.8144
表裏	-10.8146
清明	-10.815
肌	-10.8151
俠	-10.8152
靜慮	-10.8152
使其	-10.8153
袂	-10.8154
僣	-10.8159
逞	-10.8162
當為	-10.8162
又作	-10.8166
人之所	-10.8172
在前	-10.8172
酣	-10.8173
侍衛	-10.8176
人不	-10.818
今此	-10.8181
北斗	-10.8181
幡	-10.8184
凢	-10.8189
而知	-10.8191
苛	-10.8194
彼此	-10.8194
迄	-10.8195
若夫	-10.8196
平陽	-10.8196
半兩	-10.8205
禮之	-10.8206
汛	-10.821
叉	-10.8215
秪	-10.8216
斃	-10.8216
而民	-10.8221
斫	-10.8222
普賢	-10.8231
一種	-10.8232
千人	-10.8232
正是	-10.8241
歆	-10.8243
者此	-10.8245
布衣	-10.8249
千餘	-10.8252
一部	-10.8253
道德	-10.8255
何得	-10.8264
九天	-10.8265
去年	-10.8266
不去	-10.8273
九州	-10.8274
瑜	-10.8275
洎	-10.8275
尋常	-10.8277
正統	-10.8283
化為	-10.8284
轄	-10.8286
好學	-10.8287
之聲	-10.8288
如意	-10.8289
其徳	-10.829
筍	-10.8293
帑	-10.8294
人多	-10.8294
學道	-10.8295
六分	-10.8296
士之	-10.83
之末	-10.8302
屍	-10.8308
燎	-10.831
出門	-10.8315
艱難	-10.8316
各各	-10.8319
臨濟	-10.8321
帥師	-10.8323
蹄	-10.8326
異熟	-10.8328
孕	-10.8329
b	-10.8336
通鑑	-10.8337
旄	-10.8337
羲	-10.8338
闌	-10.8339
國語	-10.834
未詳	-10.834
狎	-10.8343
俘	-10.8343
第十	-10.8343
四者	-10.8344
元氣	-10.8344
之師	-10.8348
水經注	-10.8351
懺悔	-10.8352
翹	-10.8352
袒	-10.8353
!」	-10.8359
醮	-10.8359
時節	-10.8359
亦何	-10.8359
鏤	-10.8364
守備	-10.8366
之神	-10.8369
霖	-10.8371
欲令	-10.8373
嶠	-10.8373
伐鄭	-10.8376
安國	-10.8376
婉	-10.8377
反覆	-10.8377
六二	-10.8378
其可	-10.8378
但以	-10.8379
果報	-10.838
知有	-10.8384
匱	-10.8388
馴	-10.8389
入海	-10.8392
雖無	-10.8393
故謂之	-10.8394
地名	-10.8399
言也	-10.84
龎	-10.8401
其能	-10.8401
鞠	-10.8402
了知	-10.8406
又復	-10.8406
釋文	-10.8412
吸	-10.8417
父老	-10.8418
之㑹	-10.8422
是人	-10.8422
籙	-10.8426
踊	-10.8429
則非	-10.8432
一面	-10.8435
一篇	-10.8437
無畏	-10.8438
儀禮	-10.844
恰	-10.844
為國	-10.8443
徂	-10.8445
唾	-10.8445
東山	-10.8446
簪	-10.8447
南面	-10.8453
牘	-10.8455
耽	-10.8455
覃	-10.8455
之義也	-10.8456
詹	-10.8464
不可思議	-10.8466
不克	-10.8474
陌	-10.8479
無所不	-10.8479
泗	-10.8481
功臣	-10.8485
無性	-10.8486
酥	-10.8487
如有	-10.8488
冗	-10.8488
誑	-10.8491
於民	-10.8491
自稱	-10.8493
之北	-10.8497
矣今	-10.8499
萬事	-10.85
於諸	-10.85
今人	-10.8504
能為	-10.8508
3	-10.8511
鑾	-10.8512
昔者	-10.8513
起於	-10.8514
之失	-10.8519
蟠	-10.8521
人家	-10.8524
江水	-10.8525
為二	-10.8537
廣說	-10.8539
鳬	-10.8544
崇禎	-10.8545
兵馬	-10.8548
5	-10.8553
易曰	-10.8553
寂寞	-10.8554
不疑	-10.8558
有何	-10.856
世家	-10.8563
其先	-10.8563
翊	-10.8564
其所以	-10.8567
螺	-10.857
不改	-10.8572
躋	-10.8573
傷寒	-10.8573
推之	-10.8575
又如	-10.8575
緫	-10.8577
咏	-10.8583
二十六	-10.8587
不壞	-10.8589
當世	-10.8589
掉	-10.86
軍中	-10.86
故名為	-10.86
未成	-10.8601
閨	-10.8605
殖	-10.8607
紋	-10.8609
來歸	-10.8612
培	-10.8615
瑾	-10.8615
修道	-10.8616
諸路	-10.8617
㵼	-10.862
杳	-10.8627
孽	-10.8629
有常	-10.8632
謹按	-10.8633
於我	-10.8642
錢糧	-10.8643
囬	-10.8649
五陰	-10.8653
損益	-10.8655
孔氏	-10.8657
蘇軾	-10.8662
祭酒	-10.8663
一升	-10.8666
拓	-10.8673
▁疏	-10.8674
惡之	-10.8674
見佛	-10.8675
清淨故	-10.8678
不捨	-10.8682
非無	-10.8684
重修	-10.8691
念念	-10.8697
駢	-10.8699
其時	-10.8703
事君	-10.8704
也且	-10.8705
倣	-10.8705
之長	-10.8706
鄉里	-10.8706
廬陵	-10.8711
埽	-10.8711
一法	-10.8717
寐	-10.8717
附子	-10.8718
寒熱	-10.8719
欲其	-10.8722
建康	-10.8722
▁又方	-10.8723
而求	-10.8723
摇	-10.8724
同一	-10.8724
摶	-10.8728
曰汝	-10.8731
故說	-10.8735
蛟	-10.8735
畵	-10.8736
也然則	-10.8737
忠臣	-10.8737
諸臣	-10.8738
通作	-10.874
亦應	-10.8742
程子	-10.8743
國史	-10.8748
者言	-10.875
捲	-10.8752
可用	-10.8752
孟子曰	-10.8755
亦未	-10.8761
稱其	-10.8763
故得	-10.8764
住處	-10.8764
義故	-10.8766
萬一	-10.8769
實録	-10.877
天寳	-10.8771
城北	-10.8771
而退	-10.8777
遼東	-10.878
王室	-10.8781
王命	-10.8782
腥	-10.8782
扎	-10.8784
深入	-10.8786
如初	-10.8788
事而	-10.879
蓬萊	-10.8791
七十里	-10.8803
水出	-10.8804
管仲	-10.8809
微妙	-10.8809
為本	-10.881
三兩	-10.881
龕	-10.8811
此一	-10.8813
主事	-10.8816
趾	-10.8816
店	-10.8816
嵐	-10.882
望之	-10.8821
鷗	-10.8821
親近	-10.8824
駟	-10.8826
臣聞	-10.8826
最為	-10.883
欲得	-10.883
涸	-10.8839
於朝	-10.884
玉篇	-10.8842
之分	-10.8844
肘	-10.8844
㝷	-10.8846
皆在	-10.8848
至矣	-10.885
參差	-10.8851
氛	-10.8852
於下	-10.8852
聞其	-10.8855
廣西	-10.8855
歸於	-10.8861
所屬	-10.8862
無私	-10.8862
敢不	-10.8867
𥙷	-10.8867
此章	-10.8868
彪	-10.887
迪	-10.8874
者以其	-10.8875
堂上	-10.8876
而天下	-10.8877
裙	-10.8882
奉行	-10.8884
九四	-10.8887
不違	-10.8889
其性	-10.889
者曰	-10.8896
城東	-10.8898
妓	-10.89
彖	-10.8903
姊	-10.8903
浮雲	-10.8904
受其	-10.8904
拾遺	-10.8909
公事	-10.8912
九三	-10.892
杲	-10.8924
微塵	-10.8924
甲乙	-10.8925
僖公	-10.8927
廬山	-10.893
有聲	-10.893
見者	-10.8931
庚子	-10.8931
雌	-10.8933
玉女	-10.8933
可知矣	-10.8933
忽然	-10.8942
日用	-10.8943
金華	-10.8943
為三	-10.8943
是知	-10.8949
四諦	-10.895
時時	-10.8952
章句	-10.8954
|	-10.8955
臨川	-10.8955
尚未	-10.8956
埃	-10.896
褐	-10.8967
蔑	-10.897
此義	-10.8972
之教	-10.8972
但有	-10.8973
神宗	-10.8976
於斯	-10.8976
儒者	-10.8977
眩	-10.8977
壬午	-10.8977
炊	-10.8978
住持	-10.898
五品	-10.8981
大地	-10.8984
撤	-10.8987
内史	-10.8988
善哉	-10.8989
一處	-10.899
辜	-10.8991
凡有	-10.8992
稠	-10.8994
藪	-10.8995
無益	-10.9
之謂也	-10.9
每服	-10.9
䘏	-10.9004
語曰	-10.9006
如上	-10.9009
甲午	-10.9009
其親	-10.9012
見道	-10.9017
人參	-10.9018
江山	-10.9023
動而	-10.9024
立於	-10.9026
縣屬	-10.903
酋	-10.9031
夜半	-10.9035
平原	-10.9036
其勢	-10.904
善知識	-10.9041
可乎	-10.9041
今朝	-10.9044
粧	-10.9045
作詩	-10.9047
澆	-10.9047
相思	-10.905
萬餘	-10.9051
甲申	-10.9052
美人	-10.9063
求其	-10.9069
盟于	-10.907
摹	-10.907
清河	-10.9071
笑曰	-10.9072
展轉	-10.9072
無過	-10.9076
三等	-10.9077
之業	-10.9077
絰	-10.9079
梢	-10.908
丹陽	-10.9087
元帥	-10.9087
轂	-10.9088
官軍	-10.9088
戢	-10.9089
扁	-10.9089
内有	-10.909
乎此	-10.909
諸州	-10.9092
驥	-10.9092
翰林學士	-10.9093
曰昔	-10.9094
荼	-10.9095
琦	-10.9096
先師	-10.9097
蔬	-10.9099
娥	-10.91
甲辰	-10.9104
矣此	-10.9105
絞	-10.9106
學校	-10.9108
囂	-10.9117
販	-10.912
禽獸	-10.912
戊辰	-10.912
焙	-10.9121
日中	-10.9122
浄	-10.9123
將以	-10.9125
一枝	-10.9125
奉天	-10.9129
一笑	-10.913
上文	-10.913
於心	-10.913
宫室	-10.9131
心所	-10.9135
孔氏曰	-10.914
籥	-10.914
忠義	-10.9142
眇	-10.9148
東宫	-10.915
御史中丞	-10.9159
▁羅	-10.916
相公	-10.9162
夕陽	-10.9166
寤	-10.9167
無形	-10.9171
吐蕃	-10.9175
剛柔	-10.9178
韓愈	-10.918
來者	-10.9182
釋名	-10.9184
譙	-10.9186
猶在	-10.9187
分三	-10.9188
沁	-10.919
莫敢	-10.9191
子也	-10.9191
即得	-10.9192
初九	-10.9197
見聞	-10.9198
無定	-10.9199
城西	-10.92
禪定	-10.9202
悞	-10.9202
文殊師利	-10.9202
問答	-10.9205
通達	-10.9205
太隂	-10.9206
者又	-10.9208
悍	-10.9212
何足	-10.9214
其辭	-10.9214
棠	-10.9215
七十二	-10.9219
槃	-10.922
祭之	-10.922
啄	-10.9223
而致	-10.9223
三里	-10.9227
非法	-10.9231
鴨	-10.9232
兇	-10.9236
因以	-10.924
懽	-10.9242
丁未	-10.9243
時如何	-10.9247
南史	-10.9247
瀾	-10.9248
泮	-10.9252
三摩地	-10.9252
中山	-10.9255
五六	-10.9255
南無	-10.9257
貎	-10.926
楊氏	-10.9262
建安	-10.9265
有言	-10.9265
劄	-10.9269
宣和	-10.9271
帯	-10.9279
〇	-10.9282
其書	-10.9284
濱	-10.9286
眺	-10.9286
慨	-10.9288
未曾	-10.9294
姻	-10.93
伊川	-10.93
廣陵	-10.9301
侍御	-10.9301
何有	-10.9303
異於	-10.9304
諸儒	-10.9305
之亂	-10.9305
帙	-10.9307
一百二十	-10.9307
䕶軍	-10.9309
分為	-10.9311
彬	-10.9311
其形	-10.9311
以事	-10.9311
所云	-10.9312
髓	-10.9312
佛所	-10.9313
性命	-10.9314
嫉	-10.9316
六根	-10.9317
甲寅	-10.9318
而弗	-10.9319
銖	-10.9321
十種	-10.9323
宋人	-10.9323
之賢	-10.9323
廿	-10.9324
入朝	-10.9326
大聖	-10.933
無功	-10.9331
日日	-10.9332
僊	-10.9332
壬辰	-10.9334
合掌	-10.9338
六合	-10.9341
自心	-10.9347
出奔	-10.9348
教人	-10.9348
唯識	-10.9349
胷	-10.9351
非不	-10.9351
綱目	-10.9355
所攝	-10.9355
或謂	-10.9359
我心	-10.9361
必不	-10.9362
四字	-10.9363
有不	-10.9364
皇上	-10.9365
鋤	-10.9367
事理	-10.937
西風	-10.9371
慿	-10.9371
千秋	-10.9372
剝	-10.9372
難得	-10.9374
砌	-10.9382
様	-10.9385
黄道	-10.9385
其才	-10.9386
宋公	-10.939
夢中	-10.9393
加行	-10.9393
歐	-10.9397
工部	-10.9402
得名	-10.9403
之可	-10.9404
奔走	-10.9405
此地	-10.9406
曰子	-10.9412
其次	-10.9415
一聲	-10.9419
可不	-10.9419
吁	-10.9424
▁論曰	-10.9424
二千石	-10.9425
黯	-10.9428
舘	-10.9428
五經	-10.9429
三軍	-10.9429
氐	-10.9433
言曰	-10.9434
人人	-10.9436
恊	-10.9437
樂府	-10.9441
忻	-10.9441
上六	-10.9441
不思	-10.9442
複	-10.9445
流入	-10.9447
其情	-10.9447
既無	-10.9448
頰	-10.9451
其弟	-10.9452
琮	-10.9455
漬	-10.9456
言說	-10.9459
如彼	-10.9464
瞽	-10.9467
不爲	-10.9468
廂	-10.9472
9	-10.9475
至正	-10.9477
件	-10.9477
號為	-10.9482
逵	-10.9482
醢	-10.9484
嘉定	-10.9486
症	-10.9491
知州	-10.9492
洙曰	-10.9493
國子	-10.9495
之流	-10.95
帽	-10.9503
郁	-10.9504
問之	-10.9504
變而	-10.9506
邦國	-10.9507
冉	-10.9508
剡	-10.9512
丙午	-10.9512
漢軍	-10.9512
駁	-10.9514
賞罰	-10.9516
是年	-10.9517
員外	-10.9518
惇	-10.9518
之異	-10.9523
二曰	-10.9527
後來	-10.9529
盜賊	-10.9531
盡其	-10.9535
踞	-10.9537
葺	-10.9542
膿	-10.9543
庚辰	-10.9547
依止	-10.9548
城郭	-10.9549
佇	-10.9551
其理	-10.9556
僕射	-10.9557
玊	-10.9557
之儀	-10.9557
之重	-10.9558
而今	-10.9559
行禮	-10.9561
沙彌	-10.9562
覔	-10.9562
詔書	-10.9562
從來	-10.9565
粮	-10.9568
此人	-10.9569
二十九	-10.957
上疏	-10.9571
緘	-10.9572
乃知	-10.9572
最後	-10.9574
伎	-10.9578
太公	-10.9581
相國	-10.9585
寬	-10.9585
知見	-10.9587
乃得	-10.959
海上	-10.9591
事業	-10.9592
無情	-10.9592
通志	-10.9592
齊王	-10.9592
明白	-10.9593
推官	-10.9602
方丈	-10.9604
郡國	-10.9607
必須	-10.9607
玅	-10.9609
也故曰	-10.961
丙子	-10.9613
愛之	-10.9619
辛丑	-10.9628
間有	-10.963
衆人	-10.9632
皆由	-10.9633
所由	-10.9637
隨時	-10.9639
有事	-10.9641
挹	-10.9643
乙未	-10.9643
若人	-10.9651
尊卑	-10.9655
第一義	-10.9657
穰	-10.9658
無學	-10.9661
孺人	-10.9663
壬子	-10.9663
釋之	-10.9666
草堂	-10.9666
有六	-10.9669
暈	-10.967
紆	-10.9672
生薑	-10.9674
曰今	-10.9683
無所有	-10.9684
兑	-10.9686
懈	-10.9689
能令	-10.9696
吏部尚書	-10.9697
河水	-10.9698
貺	-10.9699
薊	-10.9704
一尺	-10.9712
秀才	-10.9713
變易	-10.9716
卦之	-10.9717
三五	-10.9717
痢	-10.9719
季氏	-10.9719
臣竊	-10.9721
相如	-10.9722
不仁	-10.9724
刑部	-10.9727
衾	-10.9727
監司	-10.9728
▁淨	-10.9731
稚	-10.9731
a	-10.9737
辛未	-10.9739
緇	-10.974
悠	-10.9741
然此	-10.9742
十五日	-10.9745
而欲	-10.9747
止觀	-10.9747
發熱	-10.9749
此非	-10.975
遣人	-10.9752
潞	-10.9753
鉞	-10.9755
庚申	-10.9756
廹	-10.9758
我當	-10.9759
法故	-10.9762
脯	-10.9765
三司	-10.9768
罹	-10.9768
蟄	-10.9771
寡人	-10.9773
年年	-10.9773
者當	-10.9775
渺	-10.9775
非所	-10.9775
無遺	-10.9778
7	-10.9778
之憂	-10.9779
孺	-10.9781
此書	-10.9782
百丈	-10.9782
大將	-10.9783
佛告	-10.9785
一行	-10.9786
后稷	-10.9789
澁	-10.979
可與	-10.9791
八人	-10.9793
裡	-10.9797
山河	-10.9803
落日	-10.9803
學問	-10.981
不到	-10.9813
丁丑	-10.9814
於内	-10.9816
雲中	-10.9818
笏	-10.9819
曰夫	-10.9822
是其	-10.9822
个	-10.9823
多矣	-10.9825
囑	-10.9825
縣西南	-10.9827
此理	-10.9831
夏四月	-10.9832
不可說	-10.9836
卞	-10.9841
燧	-10.9841
歙	-10.9844
酢	-10.9845
媒	-10.9848
作意	-10.9849
九分	-10.9853
龍王	-10.9854
蕭蕭	-10.9854
於道	-10.9858
非其	-10.9859
盃	-10.986
餞	-10.9864
知者	-10.9867
餓	-10.9867
攝受	-10.987
儔	-10.9872
㑹同	-10.9875
嘔	-10.9876
鵝	-10.9876
㤗	-10.9879
淤	-10.9881
萬國	-10.9883
轉運使	-10.9883
本紀	-10.9884
為此	-10.9886
鳥獸	-10.9886
庚午	-10.9887
炬	-10.9887
於今	-10.9889
其職	-10.9892
庖	-10.9894
撮	-10.9896
救之	-10.9897
訂	-10.9899
狀如	-10.9899
洒	-10.9902
一章	-10.9903
過於	-10.9906
而至	-10.9908
是月	-10.9909
斬之	-10.9909
東門	-10.991
8	-10.9913
十有二	-10.9918
别有	-10.9919
不少	-10.9919
如來藏	-10.992
郝	-10.9922
亦能	-10.9922
既有	-10.9922
甲戌	-10.9927
賄	-10.9928
凱	-10.9932
萬古	-10.9934
告之	-10.9935
南郊	-10.9936
為體	-10.9936
禆	-10.9942
其氣	-10.9943
雩	-10.9944
入門	-10.9946
桃李	-10.9949
一里	-10.995
波羅	-10.9951
匕	-10.9954
諂	-10.9954
鷺	-10.9962
蘇州	-10.9964
乙酉	-10.9966
去其	-10.9971
官至	-10.9972
正徳	-10.9975
有能	-10.9976
釵	-10.9977
▁皇	-10.9977
冤	-10.9981
本義	-10.9988
為上	-10.9989
逈	-10.999
聯	-10.9993
因此	-10.9993
之形	-10.9993
▁鄭	-10.9994
吉祥	-10.9994
莎	-10.9994
曙	-10.9996
沔	-11.0001
小者	-11.0001
先天	-11.0001
瑜伽	-11.0007
篋	-11.0012
大法	-11.0012
縱横	-11.0013
河西	-11.0013
經中	-11.0017
御史大夫	-11.0019
顒	-11.0019
青州	-11.0025
▁卷	-11.0026
正也	-11.0029
大業	-11.0031
各三	-11.0032
陽人	-11.0033
無限	-11.0035
北海	-11.0038
禍福	-11.0039
亦自	-11.0043
也蓋	-11.0044
閫	-11.0044
幾何	-11.0045
皆從	-11.0047
祉	-11.0049
旂	-11.005
牕	-11.0052
参	-11.0053
玖	-11.0057
迅	-11.0059
賢人	-11.0062
不一	-11.0064
平王	-11.0065
􂏥	-11.0066
周旋	-11.0066
冬十月	-11.0068
是何	-11.0072
突厥	-11.0074
茫茫	-11.0075
有二種	-11.0081
昆弟	-11.0081
兵丁	-11.0083
大敗	-11.0084
上天	-11.0086
國朝	-11.009
鞅	-11.0091
唇	-11.0092
夷狄	-11.0095
甥	-11.0097
▁釋曰	-11.0097
夙夜	-11.0099
水旱	-11.0099
嵗月	-11.01
行相	-11.0105
何用	-11.0108
之正	-11.0109
伏惟	-11.0111
噉	-11.0112
使臣	-11.0112
用心	-11.0114
者蓋	-11.0119
而進	-11.0121
熬	-11.0123
安居	-11.0126
無始	-11.0126
將士	-11.0127
之狀	-11.0128
弋	-11.0128
次之	-11.0129
丙辰	-11.0131
噬	-11.0132
僞	-11.0134
波羅蜜多	-11.0135
癸未	-11.014
篚	-11.0148
渡江	-11.0149
無名	-11.015
曰朕	-11.0151
日出	-11.0153
▁上諭	-11.0155
乙丑	-11.0162
羯	-11.0165
號令	-11.0169
侍從	-11.017
殫	-11.0171
𬒳	-11.0171
意也	-11.0172
癸酉	-11.0172
摯	-11.0175
東平	-11.0176
命終	-11.0176
流通	-11.0177
文王之	-11.0177
河間	-11.0178
至大	-11.018
鄭注	-11.0181
最上	-11.0184
既不	-11.0184
九江	-11.0186
子路	-11.0187
▁里	-11.0187
本傳	-11.0188
掣	-11.0188
所不	-11.0192
在内	-11.0192
之服	-11.0195
之謀	-11.0196
好惡	-11.0196
縣西北	-11.0197
同心	-11.02
稱之	-11.0203
年正月	-11.0205
地中	-11.0207
下同	-11.0211
朝服	-11.0215
之象也	-11.0216
也是	-11.0216
書云	-11.0217
滛	-11.022
縣東南	-11.0221
城下	-11.0222
勻	-11.0222
蝕	-11.0223
瑪	-11.0224
三首	-11.0227
年少	-11.0231
兖	-11.0232
多羅	-11.0233
桞	-11.0238
畱	-11.0242
用其	-11.0243
耐	-11.0246
中軍	-11.0248
何由	-11.0251
以来	-11.0253
癸丑	-11.0253
用此	-11.0257
疏曰	-11.0259
梟	-11.0262
球	-11.0262
之孫	-11.0263
蝗	-11.0263
戊申	-11.0264
安人	-11.0269
瘠	-11.0271
之序	-11.0275
調伏	-11.0277
圉	-11.0277
纖	-11.0277
峭	-11.0278
心中	-11.0278
一本	-11.0278
不知所	-11.0278
乃云	-11.028
自言	-11.028
謡	-11.0285
甘泉	-11.029
圎	-11.0292
曰天	-11.0294
未易	-11.0295
A	-11.0295
瘞	-11.0297
父兄	-11.0297
之兵	-11.0299
其體	-11.03
元帝	-11.03
噶	-11.0301
岫	-11.0301
四明	-11.0302
施設	-11.0303
睢	-11.0303
淋	-11.0304
之例	-11.0307
歸之	-11.0307
骨肉	-11.0309
宼	-11.031
之私	-11.0312
壬申	-11.0312
罍	-11.0313
數萬	-11.0313
剎那	-11.0314
殻	-11.0316
插	-11.0316
昂	-11.0317
得罪	-11.0317
復置	-11.0319
向上	-11.0319
當有	-11.032
自為	-11.032
武陵	-11.0323
孝經	-11.0323
賓客	-11.0324
其行	-11.0327
廪	-11.0329
大如	-11.033
大者	-11.033
以歸	-11.033
以次	-11.0332
妬	-11.0336
驂	-11.0336
未甞	-11.0341
宇宙	-11.0341
不由	-11.0343
一切諸	-11.0344
茗	-11.0346
地理志	-11.0348
二里	-11.0349
六度	-11.035
所成	-11.0351
識者	-11.0351
猥	-11.0353
戊午	-11.0353
竺	-11.0354
二寸	-11.0355
丁亥	-11.0356
揚雄	-11.0356
琉璃	-11.0356
概	-11.0358
志在	-11.0361
者或	-11.0366
肖	-11.037
四十八	-11.037
於一	-11.0372
數月	-11.0373
也謂	-11.0373
乙亥	-11.0373
之境	-11.0374
當歸	-11.0375
白衣	-11.0376
敲	-11.0379
切集韻	-11.0383
竦	-11.0384
▁佛言	-11.0386
二萬	-11.0388
見前	-11.039
石門	-11.039
疼	-11.0394
邕	-11.0395
劔	-11.0397
武昌	-11.0399
不獨	-11.0403
水之	-11.0403
鹹	-11.0404
城人	-11.0408
死而	-11.0408
▁提	-11.0409
五寸	-11.0409
知此	-11.0417
琰	-11.0418
贏	-11.0424
逍遥	-11.0425
宣公	-11.0425
益州	-11.0433
矣其	-11.0434
贄	-11.0435
箱	-11.0438
心者	-11.0439
白居易	-11.0443
俱有	-11.0444
舂	-11.0448
溟	-11.0449
六三	-11.045
未發	-11.045
驪	-11.0451
漢中	-11.0453
此身	-11.0454
初明	-11.0457
跛	-11.0457
不會	-11.0457
不空	-11.0458
之方	-11.0461
蒐	-11.0462
都統	-11.0462
戊子	-11.0462
僉事	-11.0466
多有	-11.0466
薫	-11.0468
笞	-11.0469
其說	-11.0469
王莽	-11.047
顆	-11.047
辛巳	-11.0474
白頭	-11.0474
不得已	-11.0476
七寶	-11.0478
詳見	-11.0481
錐	-11.0482
子男	-11.0484
濮	-11.0484
今以	-11.0485
世宗	-11.0488
大司馬	-11.0489
某官	-11.0489
塢	-11.049
▁賜	-11.049
京城	-11.0492
不來	-11.0493
討之	-11.0495
瘧	-11.0496
緊	-11.0499
小國	-11.05
前日	-11.0505
所造	-11.0506
楚王	-11.051
臆	-11.0511
杜甫	-11.0512
疾病	-11.0514
作者	-11.0518
同姓	-11.0519
辛酉	-11.052
天帝	-11.0521
猗	-11.0523
潦	-11.0524
道徳	-11.0524
昻	-11.053
娘	-11.0532
各自	-11.0535
聖道	-11.0536
為文	-11.0538
天文	-11.054
於大	-11.0541
如字	-11.0544
鯨	-11.0544
山隂	-11.0546
平地	-11.0548
牡丹	-11.0551
械	-11.0551
安定	-11.0554
日暮	-11.0554
春正月	-11.0559
何其	-11.0561
二錢	-11.0568
盂	-11.0568
長樂	-11.0569
吏民	-11.0571
夬	-11.0572
諸方	-11.0573
神武	-11.0574
舍利子	-11.0575
其聲	-11.0577
風雲	-11.0579
惶	-11.0579
有法	-11.0581
守節	-11.0581
而終	-11.0582
嬴	-11.0582
不加	-11.0584
不二	-11.0585
以養	-11.0587
軍民	-11.0588
真宗	-11.0591
異也	-11.0593
與夫	-11.0594
牡	-11.0595
匣	-11.0598
一毫	-11.0599
縣東北	-11.06
四肢	-11.0602
蓍	-11.0603
五星	-11.061
柴胡	-11.061
天涯	-11.0611
觀者	-11.0615
憾	-11.0617
人知	-11.0622
與君	-11.0623
已有	-11.0623
元始	-11.063
承天	-11.0632
譴	-11.0632
則能	-11.0635
其他	-11.0636
不滅	-11.0637
無二分	-11.0638
此語	-11.0641
幄	-11.0643
睹	-11.0645
繋	-11.0645
癸亥	-11.0645
嬪	-11.0648
萍	-11.0655
不厭	-11.0655
良久	-11.0655
苐	-11.0656
疫	-11.0662
若欲	-11.0667
少陽	-11.0668
靈寳	-11.0669
若爾	-11.0672
綰	-11.0672
捌	-11.0673
不惟	-11.0674
以俟	-11.0675
衙門	-11.0676
初六	-11.0679
拭	-11.0682
之先	-11.0683
皆同	-11.0684
三萬	-11.0687
去來	-11.0691
欲求	-11.0691
覿	-11.0695
一見	-11.0696
覇	-11.0701
▁魏	-11.0702
從前	-11.0707
也一曰	-11.0709
偈曰	-11.071
翫	-11.0712
侍御史	-11.0713
▁唵	-11.0715
又東	-11.0715
西面	-11.0719
有差	-11.072
乃止	-11.072
黄鍾	-11.0722
庚寅	-11.0723
挫	-11.0728
欝	-11.0729
人言	-11.0729
唐虞	-11.073
何須	-11.0731
狡	-11.0733
又音	-11.0734
六七	-11.0736
所執	-11.074
亳	-11.074
礪	-11.0741
之機	-11.0742
亦為	-11.0743
辛亥	-11.0743
扁舟	-11.0746
秋七月	-11.0748
芳草	-11.0748
干戈	-11.0748
累遷	-11.0753
武功	-11.0756
貟	-11.0758
是佛	-11.0759
中書令	-11.076
功成	-11.0762
壬寅	-11.0766
衣裳	-11.0766
售	-11.0767
以濟	-11.0768
侣	-11.077
白石	-11.0771
四十九	-11.0771
涎	-11.0771
燦	-11.0773
萬象	-11.0775
萬物之	-11.0776
一夕	-11.0779
劄子	-11.0782
以安	-11.0787
未敢	-11.0793
而爲	-11.0793
砦	-11.0793
國有	-11.0795
丁酉	-11.0797
蕙	-11.08
而愈	-11.0802
棣	-11.0803
與諸	-11.0803
建武	-11.0804
北齊	-11.0805
上清	-11.0807
在今	-11.0811
無作	-11.0812
槎	-11.0813
不測	-11.0816
東面	-11.0816
此四	-11.0821
胸中	-11.0823
三句	-11.0823
圓通	-11.0824
三字	-11.0826
▁種	-11.0827
須彌	-11.0828
七八	-11.083
窻	-11.0832
新安	-11.0832
子産	-11.0834
郊祀	-11.0835
賜之	-11.0839
六四	-11.0841
未足	-11.0842
?』	-11.0843
之治	-11.0846
去皮	-11.0846
菽	-11.0847
捍	-11.0847
璞	-11.0849
下明	-11.085
蓼	-11.0851
繳	-11.0856
性空	-11.0858
置之	-11.086
誰知	-11.0861
太一	-11.0865
髙下	-11.0869
藏之	-11.0874
左氏傳	-11.0875
雋	-11.0878
硬	-11.0883
詆	-11.0885
滇	-11.0885
豈得	-11.0889
訝	-11.0889
聿	-11.0889
辦理	-11.089
於是乎	-11.0894
須是	-11.0895
胡氏	-11.0897
爼	-11.0898
掲	-11.0901
鄭氏曰	-11.0902
矣又	-11.0902
往生	-11.0905
仄	-11.0905
彤	-11.0906
顔子	-11.0908
子貢	-11.0909
盥	-11.0912
戊寅	-11.0913
畀	-11.0913
於時	-11.0913
律儀	-11.0916
熹	-11.0918
糜	-11.0921
觶	-11.0925
八十里	-11.093
止之	-11.093
是菩薩	-11.0932
犧	-11.0935
甌	-11.0937
趙氏	-11.094
諮	-11.0941
有過	-11.0943
罄	-11.0943
之喪	-11.0944
渝	-11.0946
燔	-11.0946
如幻	-11.0946
何況	-11.0948
神力	-11.0949
稔	-11.095
死之	-11.095
山有	-11.0951
1	-11.0957
不朽	-11.096
倭	-11.0961
呌	-11.0961
前代	-11.0966
廷尉	-11.0968
此文	-11.0969
款	-11.0969
花開	-11.0971
目前	-11.0975
伐之	-11.0975
牋	-11.0976
者所以	-11.0977
惻	-11.0979
痺	-11.098
為民	-11.098
一向	-11.0982
再三	-11.0982
逺矣	-11.0983
三曰	-11.0986
別有	-11.0987
卉	-11.0991
馨	-11.0991
拖	-11.0993
父之	-11.0994
其妻	-11.0996
畦	-11.0996
解云	-11.0997
祫	-11.0997
因而	-11.0998
休息	-11.1004
皆非	-11.1006
庚戌	-11.1006
縣有	-11.1007
不便	-11.1008
莭	-11.1012
時為	-11.1014
▁右為末	-11.1015
衛侯	-11.1017
者謂之	-11.1019
歿	-11.1021
二員	-11.1021
丁巳	-11.1024
十餘年	-11.1026
血氣	-11.1029
說者	-11.103
義同	-11.1032
河内	-11.1033
公以	-11.1036
之意也	-11.1036
嶺南	-11.1036
當其	-11.1037
晏子	-11.1041
瓠	-11.1042
無疆	-11.1042
𦙍	-11.1043
讀之	-11.1048
緬	-11.1049
多聞	-11.1051
r	-11.1052
給事	-11.1052
糊	-11.1056
故稱	-11.1056
丙戌	-11.1056
中和	-11.1061
四十五	-11.1064
芥	-11.1067
之遺	-11.1068
右手	-11.1069
征伐	-11.1069
㪚	-11.1069
瑤	-11.107
佛祖	-11.107
文選	-11.1074
是一	-11.1079
先生之	-11.1079
則民	-11.1085
用也	-11.1086
汝今	-11.1086
汶	-11.1088
聾	-11.1091
畜生	-11.1091
大理	-11.1092
▁別	-11.1097
不畏	-11.1099
擣	-11.1099
幽州	-11.1101
南昌	-11.1103
山海經	-11.1104
亦同	-11.1112
皇子	-11.1113
財物	-11.1116
一路	-11.1116
拂子	-11.1119
矛	-11.1119
殊勝	-11.112
聞者	-11.112
回首	-11.1122
而行之	-11.1123
彫	-11.1124
0	-11.1126
𦂳	-11.1129
牛羊	-11.113
丙申	-11.113
心無	-11.1131
歴代	-11.1131
梵天	-11.1134
諸根	-11.1135
若言	-11.1136
月明	-11.1137
瑣	-11.1137
墀	-11.1139
三國	-11.1147
為首	-11.1148
瘴	-11.115
六爻	-11.1154
軍節度使	-11.1156
慷慨	-11.1156
以水	-11.1157
歸去	-11.1158
▁大悲	-11.1159
哨	-11.1159
六人	-11.116
斌	-11.1161
瀛	-11.1166
安隱	-11.1166
三十五	-11.1166
彥	-11.1169
養之	-11.1172
侑	-11.1172
去之	-11.1173
太保	-11.1173
君子以	-11.1175
相近	-11.1176
蟹	-11.1179
梵行	-11.1186
不敬	-11.1187
也從	-11.1187
企	-11.1191
之盟	-11.1191
誅之	-11.1194
少府	-11.1199
存亡	-11.1199
▁示	-11.12
欲使	-11.1204
惟其	-11.1205
邑人	-11.1207
懦	-11.121
而為之	-11.1211
禰	-11.1217
義者	-11.1223
見上	-11.1223
慟	-11.1223
以通	-11.1224
學人	-11.1225
大水	-11.1229
汀	-11.1229
所致	-11.1235
知識	-11.1236
其德	-11.1237
諳	-11.1238
則可	-11.124
自立	-11.1242
又為	-11.1244
笠	-11.1245
我所	-11.1247
學之	-11.1248
繭	-11.1251
一陽	-11.1252
如實	-11.1253
瓚	-11.1255
平日	-11.1255
昭王	-11.1258
槖	-11.126
一道	-11.1263
嚼	-11.1265
現行	-11.1265
旭	-11.1267
▁辰	-11.127
名山	-11.1274
雛	-11.1276
糶	-11.1278
儒學	-11.1279
吾子	-11.1285
冡	-11.129
殄	-11.1291
退而	-11.1292
一條	-11.1293
溜	-11.1299
昔人	-11.13
加以	-11.1301
當得	-11.1302
豚	-11.1303
人倫	-11.1304
而可	-11.1304
愚癡	-11.1307
比之	-11.1309
淮南子	-11.131
舊制	-11.1311
有孚	-11.1314
北山	-11.1318
不曾	-11.132
什麼	-11.1321
毛詩	-11.1322
唐韻	-11.1322
無由	-11.1324
而不敢	-11.1325
▁人參	-11.1326
所取	-11.1327
王孫	-11.1328
▁當歸	-11.1328
忠孝	-11.1339
廣州	-11.1339
在家	-11.1339
攻之	-11.1339
夔	-11.134
東陽	-11.1341
待之	-11.1343
軍士	-11.1347
為天下	-11.135
三百六十	-11.1353
簇	-11.1355
下至	-11.1355
咄	-11.1357
與此	-11.1361
博學	-11.1365
箋云	-11.1374
▁恩	-11.1375
常以	-11.1376
不得不	-11.138
乞食	-11.1381
貞吉	-11.1383
鴛鴦	-11.1383
無垢	-11.1383
濠	-11.1384
淺深	-11.1385
未審	-11.1387
吼	-11.1387
于天	-11.1391
東流	-11.1392
猶可	-11.1393
有感	-11.1393
黼	-11.1396
河陽	-11.1398
朶	-11.1399
昨日	-11.1399
督撫	-11.1401
所引	-11.1404
羔	-11.1406
旃	-11.1406
四夷	-11.1407
下座	-11.1408
異之	-11.1408
亦不能	-11.141
其法	-11.1413
賢聖	-11.1413
以手	-11.1416
廵撫	-11.1416
和之	-11.1419
之事也	-11.142
府志	-11.142
不爾	-11.1422
四寸	-11.1431
大江	-11.1431
六十四	-11.1434
丙寅	-11.1434
有力	-11.1435
戰國	-11.1436
浹	-11.1439
緡	-11.1443
自他	-11.1446
寝	-11.145
徃來	-11.145
召公	-11.1463
王師	-11.1466
利貞	-11.1467
鐫	-11.1467
四卷	-11.1469
禎	-11.1469
簮	-11.1469
行省	-11.1471
所著	-11.1472
曽子	-11.1474
王道	-11.1475
注見	-11.1478
五種	-11.1478
不治	-11.1478
入城	-11.1481
乾道	-11.1483
列傳	-11.1483
祧	-11.1484
叔孫	-11.1485
程子曰	-11.1485
生子	-11.149
又不	-11.1491
公私	-11.1491
僑	-11.1492
戊戌	-11.1493
己丑	-11.1494
枝葉	-11.1494
去滓	-11.1495
前漢	-11.1495
皆無	-11.15
摺	-11.1501
理之	-11.1503
徃徃	-11.1504
非人	-11.1504
乎曰	-11.1504
湍	-11.1506
嘉興	-11.1506
之宜	-11.1507
三省	-11.151
事不	-11.151
歌舞	-11.1515
李白	-11.1516
弓矢	-11.1519
恠	-11.1519
大慈	-11.152
奏事	-11.1523
鄆	-11.1524
惹	-11.1527
紐	-11.1527
在我	-11.1532
百餘里	-11.1535
闥	-11.1537
駝	-11.1537
▁陸	-11.1538
開示	-11.1541
子夏	-11.1541
作此	-11.1543
脹	-11.1544
去也	-11.1545
諸國	-11.1547
即便	-11.155
唐人	-11.1551
舖	-11.1552
九品	-11.1553
大有	-11.1553
雖未	-11.1556
閬	-11.1556
散騎常侍	-11.1557
視其	-11.1558
楮	-11.1558
菩提心	-11.156
妥	-11.1562
所求	-11.1564
撞	-11.1566
延年	-11.1568
見得	-11.157
擎	-11.157
宋書	-11.1572
墩	-11.1574
癸巳	-11.1575
曽孫	-11.1575
察其	-11.1576
也吾	-11.1577
其用	-11.1578
揣	-11.158
匝	-11.158
之誠	-11.1581
復位	-11.1581
海中	-11.1581
而用之	-11.1583
五味	-11.1583
西來	-11.1587
清涼	-11.1588
聖明	-11.1592
動靜	-11.1593
何能	-11.1598
諸行	-11.1599
之交	-11.16
當是	-11.1601
彌陀	-11.1602
之善	-11.1603
班固	-11.1605
聖主	-11.1605
緩急	-11.1607
彞	-11.161
啖	-11.1613
空心	-11.1614
非謂	-11.1618
微細	-11.1619
諡曰	-11.1619
嬉	-11.162
還有	-11.1621
之詞	-11.1622
蹕	-11.1622
使民	-11.1623
合於	-11.1623
曰卿	-11.1624
舅姑	-11.1626
同異	-11.1627
貝勒	-11.1627
無斷故	-11.1628
之資	-11.1629
丹青	-11.1629
以道	-11.1632
青雲	-11.1632
浣	-11.1634
左手	-11.1635
之甚	-11.1639
二釋	-11.164
天門	-11.1641
皇甫	-11.1642
斯文	-11.1643
所部	-11.1644
不亦	-11.1646
政和	-11.1647
▁御製	-11.165
蟾	-11.1651
留守	-11.1652
邃	-11.1652
小大	-11.1652
門内	-11.1652
拆	-11.1653
形如	-11.1655
釀	-11.1657
文云	-11.1657
孝友	-11.1661
慝	-11.1661
郵	-11.1667
堦	-11.1667
圓覺	-11.1668
季孫	-11.167
琢	-11.1672
咸陽	-11.1673
不逺	-11.1673
破之	-11.1678
非我	-11.168
流行	-11.168
翕	-11.1682
或問	-11.1694
古詩	-11.1694
復何	-11.1694
陽之	-11.1695
春色	-11.1701
亦不可	-11.1701
落花	-11.1701
四五	-11.1704
不平	-11.1713
廡	-11.1713
信之	-11.1716
嘉祐	-11.1717
小子	-11.1719
共相	-11.172
真諦	-11.172
郭璞	-11.1722
佛道	-11.1725
珮	-11.1729
o	-11.1733
流涕	-11.1733
壬戌	-11.1735
即事	-11.1736
在東	-11.1736
晉陽	-11.1737
者哉	-11.1737
之稱	-11.174
不服	-11.1741
其衆	-11.1744
鹵	-11.1747
睽	-11.1748
飲之	-11.1749
名之為	-11.1752
諸道	-11.1754
三十七	-11.1755
明道	-11.1755
無爲	-11.1755
釋云	-11.1756
囿	-11.1756
知是	-11.1757
涌	-11.1758
樹下	-11.1758
直言	-11.1762
歸于	-11.1762
今古	-11.1764
禮部尚書	-11.1766
華山	-11.1772
殉	-11.1773
其門	-11.1776
絶句	-11.1776
年十一月	-11.1776
髯	-11.1777
等皆	-11.1778
以兵	-11.178
受戒	-11.1781
掇	-11.1781
命也	-11.1785
05	-11.1789
聲也	-11.179
三升	-11.1791
難以	-11.1792
都御史	-11.1794
濟南	-11.1795
和氣	-11.1796
妙法	-11.1797
惡業	-11.1798
形容	-11.18
近世	-11.1801
日食	-11.1803
仆	-11.1805
衇	-11.1805
不了	-11.1805
五錢	-11.1807
隴西	-11.1807
臼	-11.1808
我亦	-11.1809
▁賀	-11.1809
禮儀	-11.1812
俯仰	-11.1812
▁沈	-11.1812
九重	-11.1812
慳	-11.1813
源出	-11.1813
尚書令	-11.1814
倩	-11.1814
善人	-11.1814
隨意	-11.1818
在西	-11.1819
莫若	-11.182
椿	-11.1821
貧賤	-11.1822
滄海	-11.1823
聲色	-11.1823
皂	-11.1824
初為	-11.1829
鯉	-11.1832
石頭	-11.1832
榛	-11.1832
詩序	-11.1833
乾元	-11.1834
成公	-11.1836
倖	-11.1838
芮	-11.1846
慨然	-11.1847
麝香	-11.1848
殞	-11.1848
前人	-11.1851
其力	-11.1853
與天	-11.1853
等官	-11.1854
正當	-11.1855
汗出	-11.1862
旻	-11.1862
文明	-11.1866
禁中	-11.1868
何哉	-11.187
▁増	-11.187
必欲	-11.187
憲宗	-11.187
過失	-11.1872
禧	-11.1874
之月	-11.1874
門前	-11.1874
入室	-11.188
屐	-11.1881
編修	-11.1888
始知	-11.1888
腹中	-11.1893
棄之	-11.1894
得人	-11.1896
成熟	-11.1896
提督	-11.1896
太清	-11.1897
夏至	-11.1901
穫	-11.1904
汝南	-11.1904
不還	-11.1908
乃有	-11.1909
威德	-11.1909
不假	-11.1909
何異	-11.191
人才	-11.1911
友人	-11.1913
出處	-11.1913
暝	-11.1914
氣象	-11.1914
所不能	-11.1917
雒	-11.1917
季子	-11.1918
同前	-11.1918
多所	-11.1918
不修	-11.1921
忱	-11.1921
罪人	-11.1924
法輪	-11.1925
近日	-11.1926
乙巳	-11.1927
諸家	-11.1928
両	-11.193
若見	-11.1931
江海	-11.1933
大軍	-11.1934
獻公	-11.1935
明皇	-11.1936
不廢	-11.1937
諤	-11.1942
元史	-11.1944
責之	-11.1944
慕容	-11.1944
流轉	-11.1945
以象	-11.1945
逄	-11.1947
君也	-11.1947
更不	-11.1948
江州	-11.1954
盪	-11.1955
燾	-11.1955
墉	-11.1959
舉進士	-11.196
鑰	-11.196
簟	-11.1961
斾	-11.1962
勉之	-11.1963
欹	-11.1964
蠅	-11.1964
即為	-11.1965
恐懼	-11.1966
R	-11.1969
訾	-11.1971
有疾	-11.1971
百世	-11.1972
著書	-11.1972
牝	-11.1974
身中	-11.1975
一萬	-11.1976
雍正	-11.1977
以相	-11.1977
九百	-11.1978
生民	-11.1979
芸	-11.198
於地	-11.1982
從其	-11.1982
先聖	-11.1984
能以	-11.1984
居中	-11.1985
瀝	-11.1986
所稱	-11.1988
江漢	-11.1989
無想	-11.1991
東至	-11.1994
民力	-11.1997
己未	-11.1997
簒	-11.1998
寒食	-11.1998
北極	-11.2
叢林	-11.2002
家貧	-11.2007
不滿	-11.2012
以行	-11.2013
已成	-11.2013
衲	-11.2014
白佛	-11.2014
笄	-11.2019
題詩	-11.202
如水	-11.2023
正直	-11.2025
淨戒	-11.2026
先生曰	-11.2026
者雖	-11.2028
而不得	-11.2028
理也	-11.2029
子思	-11.2029
都司	-11.203
勦	-11.2036
不實	-11.2036
乃能	-11.204
數人	-11.204
山南	-11.204
遂為	-11.2042
商人	-11.2043
經典	-11.2044
漾	-11.2047
六日	-11.2047
舄	-11.2051
君王	-11.2051
巒	-11.2054
址	-11.2057
諸葛	-11.2058
伏羲	-11.2058
百二十	-11.206
軍事	-11.206
水流	-11.2061
愷	-11.2061
經史	-11.2065
形勢	-11.2067
疼痛	-11.2071
狥	-11.2071
上方	-11.2074
歉	-11.2075
年十二月	-11.2077
宣說	-11.2079
詩話	-11.208
晁	-11.2081
無用	-11.2081
綂	-11.2085
豪傑	-11.2087
▁註曰	-11.209
默然	-11.209
馥	-11.2091
治平	-11.2092
与	-11.2093
成帝	-11.2096
各一人	-11.2103
閉門	-11.2103
修撰	-11.2106
瘥	-11.2107
己亥	-11.2107
㢤	-11.2108
於君	-11.211
一品	-11.2112
一丈	-11.2113
腳	-11.2117
玉堂	-11.2118
忩	-11.2119
與麼	-11.2121
將帥	-11.2122
四日	-11.2125
經營	-11.2126
四十二	-11.2127
吳興	-11.2129
鎗	-11.213
旒	-11.2131
下士	-11.2139
可知也	-11.214
曰某	-11.2141
之權	-11.2141
近臣	-11.2143
乃命	-11.2144
咫尺	-11.2145
稱為	-11.2148
靡不	-11.215
酪	-11.2152
軍旅	-11.2154
生故	-11.2155
而况	-11.2156
覧	-11.2156
喀	-11.2157
焚香	-11.2158
然亦	-11.2159
歸依	-11.216
鄕	-11.2163
▁蘇	-11.2165
又名	-11.2168
閎	-11.2169
邯鄲	-11.2174
相承	-11.2178
涅	-11.2179
方言	-11.2179
豔	-11.2184
以報	-11.2187
者惟	-11.2188
壽命	-11.2189
意者	-11.2189
筐	-11.219
度支	-11.2191
艶	-11.2191
部郎中	-11.2191
書法	-11.2201
氣之	-11.2203
獨立	-11.2204
之費	-11.2206
所斷	-11.2206
菱	-11.2208
西河	-11.2208
鎻	-11.2209
晟	-11.2209
芍藥	-11.221
渡河	-11.2214
衲僧	-11.2216
相從	-11.2219
實無	-11.2221
會稽	-11.2224
防禦	-11.2224
擘	-11.2225
吿	-11.2227
病者	-11.2228
職事	-11.2228
青天	-11.2231
高宗	-11.2233
得見	-11.2235
思量	-11.2238
蘄	-11.2238
希有	-11.2239
後主	-11.2239
之㫖	-11.2242
麻黄	-11.2243
功曹	-11.2244
臣下	-11.2246
年二月	-11.2246
弃	-11.2248
大喜	-11.2251
安知	-11.2252
猜	-11.2253
一段	-11.226
德之	-11.2262
媵	-11.2264
椽	-11.2265
所藏	-11.2266
故無	-11.2267
以身	-11.2267
千户	-11.2268
所立	-11.2269
白虎	-11.2269
者盖	-11.2276
不順	-11.2277
沅	-11.228
于時	-11.2283
氊	-11.2283
授之	-11.2287
乃可	-11.2288
八九	-11.2288
一切諸佛	-11.2293
其利	-11.2293
滅度	-11.2294
將兵	-11.2298
無厭	-11.2302
賽	-11.2305
是法	-11.2306
雖欲	-11.2307
鎬	-11.231
地上	-11.2311
順天	-11.2312
姤	-11.2314
建炎	-11.2319
劵	-11.232
髙麗	-11.2321
身體	-11.2324
之女	-11.2325
而實	-11.2326
無子	-11.2328
安危	-11.2328
僧伽	-11.2331
若非	-11.2334
後周	-11.2334
債	-11.2336
温服	-11.2337
鄭𤣥	-11.2337
己巳	-11.2339
萬石	-11.234
六品	-11.234
說此	-11.2341
上古	-11.2341
隰	-11.2345
人等	-11.2346
諸經	-11.235
大怒	-11.2351
神農	-11.2354
二十三年	-11.2354
右軍	-11.2356
痘	-11.2357
騁	-11.2357
新城	-11.236
攪	-11.2361
之句	-11.2361
城内	-11.2362
這箇	-11.2366
金玉	-11.2367
▁昔	-11.2369
論之	-11.2369
地也	-11.2371
出于	-11.2371
出身	-11.2374
山澤	-11.2376
珊瑚	-11.2376
瀑	-11.2376
一云	-11.2382
應之	-11.2383
汰	-11.2383
猶是	-11.2384
趙王	-11.2388
估	-11.2388
訓導	-11.2388
致其	-11.2389
之福	-11.2389
殿前	-11.239
鉉	-11.239
體用	-11.2391
又見	-11.2393
四兩	-11.2399
滓	-11.24
即有	-11.2402
沽	-11.2402
使我	-11.2405
等語	-11.2406
力故	-11.2408
生員	-11.2409
哀公	-11.241
爾等	-11.241
具奏	-11.2413
諸司	-11.2416
年六月	-11.2417
盎	-11.2417
内閣	-11.2419
無力	-11.242
追封	-11.2427
南宫	-11.2427
一夜	-11.2428
生生	-11.243
之别	-11.2432
己酉	-11.2433
巳下	-11.2434
大便	-11.2437
數也	-11.2438
皎	-11.244
年二十	-11.2441
夘	-11.2442
三業	-11.2443
秦漢	-11.2451
劉向	-11.2452
請以	-11.2455
棊	-11.2456
不祥	-11.2458
洪範	-11.246
依此	-11.2464
廖	-11.2467
取諸	-11.2467
翮	-11.247
惆悵	-11.2472
至尊	-11.2474
為說	-11.2475
昉	-11.2479
此又	-11.248
則亦	-11.248
志云	-11.2484
讚歎	-11.2485
湖州	-11.2485
無言	-11.2485
無聲	-11.2488
終於	-11.2489
盛徳	-11.2491
示之	-11.2491
各以	-11.2492
嘲	-11.2492
吳越	-11.2492
經義	-11.2495
七里	-11.2495
慣	-11.2497
事則	-11.2497
可畏	-11.25
頭上	-11.25
邏	-11.2502
在人	-11.2503
六尺	-11.2506
萬户	-11.2507
雖復	-11.2508
侔	-11.251
國子監	-11.251
誤也	-11.2511
安置	-11.2512
涖	-11.2514
不名	-11.2516
行而	-11.2516
事故	-11.2519
二十一年	-11.2522
三十四	-11.2522
國初	-11.2522
演說	-11.2523
伶	-11.2525
沫	-11.2525
之首	-11.2525
星辰	-11.2528
作亂	-11.2528
襃	-11.2528
贅	-11.2528
志曰	-11.2529
文中	-11.2529
重建	-11.2532
率衆	-11.2532
三錢	-11.2536
嗟乎	-11.2537
等事	-11.2538
曾子	-11.2538
D	-11.254
總兵	-11.2543
苦惱	-11.2544
内侍	-11.2545
之過	-11.2546
中書舍人	-11.2546
黄連	-11.2548
不載	-11.2549
解釋	-11.2553
顯示	-11.2553
正位	-11.2553
本有	-11.2555
宰臣	-11.2557
非真	-11.2558
自成	-11.2559
文義	-11.2565
航	-11.2566
也盖	-11.257
又集韻	-11.257
聖王	-11.2571
戰于	-11.2573
此為	-11.2578
萬五千	-11.2579
隨緣	-11.2581
抛	-11.2582
潁川	-11.2583
化之	-11.2583
震動	-11.2585
聞而	-11.2586
利用	-11.2588
所及	-11.2588
萬法	-11.2589
糓	-11.259
春夏	-11.2592
麋	-11.2592
常在	-11.2592
琵琶	-11.2593
賦曰	-11.2595
知音	-11.2598
自號	-11.2598
夸	-11.2601
不逮	-11.2602
嫩	-11.2602
者宜	-11.2603
者衆	-11.2608
窘	-11.261
前有	-11.2615
五尺	-11.2615
奏聞	-11.2615
怙	-11.262
以供	-11.2621
帝釋	-11.2622
城門	-11.2622
多士	-11.2623
陳留	-11.2626
一曲	-11.2628
沐浴	-11.2628
治天下	-11.2629
樣	-11.2629
樂也	-11.263
黄門	-11.2631
王制	-11.2632
因名	-11.2632
頗有	-11.2634
英雄	-11.2634
曰公	-11.2636
作佛	-11.2636
正道	-11.2639
也非	-11.2643
伏乞	-11.2644
乎天	-11.2644
獅子	-11.265
臯陶	-11.2651
之深	-11.2651
次韻	-11.2651
福州	-11.2653
污	-11.2655
疵	-11.2657
一門	-11.2658
剔	-11.2658
此說	-11.2658
不論	-11.2659
S	-11.266
無著	-11.266
惟恐	-11.2661
親戚	-11.2666
太湖	-11.2666
雷霆	-11.267
年五月	-11.2675
室中	-11.2677
榦	-11.2677
許多	-11.2677
無所得	-11.2678
五根	-11.268
西向	-11.2682
後為	-11.2684
但見	-11.2686
駐劄	-11.2688
正韻	-11.2692
人道	-11.2692
死於	-11.2694
李公	-11.2696
小功	-11.2697
無愧	-11.2697
引兵	-11.2697
寖	-11.2698
鸚鵡	-11.2705
梵志	-11.2705
少許	-11.2707
聚落	-11.2709
毓	-11.271
也哉	-11.2711
兖州	-11.2712
人臣	-11.2717
方得	-11.2717
不具	-11.272
處也	-11.2721
T	-11.2722
吠	-11.2724
正覺	-11.2725
如人	-11.2725
平聲	-11.2727
二初	-11.2728
把總	-11.2728
法華經	-11.2729
指示	-11.2732
中人	-11.2733
其始	-11.2733
前鋒	-11.2734
在京	-11.2735
年間	-11.2736
菑	-11.2737
本性	-11.2738
而用	-11.2738
繼之	-11.2738
虫	-11.274
凄	-11.2741
須知	-11.2742
報恩	-11.2742
帝紀	-11.2742
剛中	-11.2743
處分	-11.2746
琛	-11.2746
百人	-11.2746
有子	-11.2749
永安	-11.2749
處所	-11.2757
見一	-11.2757
之舊	-11.2759
曰是	-11.276
昨夜	-11.2761
熒惑	-11.2762
通典	-11.2764
籟	-11.2765
白玉	-11.2767
為因	-11.2767
達磨	-11.2768
出為	-11.277
而易	-11.2775
殷勤	-11.2781
摩尼	-11.2781
可愛	-11.2782
升降	-11.2783
東京	-11.2783
巵	-11.2784
以奉	-11.2786
隨眠	-11.2786
戒之	-11.2788
嬖	-11.2788
張公	-11.2789
施於	-11.2791
扶風	-11.2792
康熈	-11.2794
有序	-11.2795
初地	-11.2797
焉而	-11.2797
太宰	-11.2798
開封	-11.2802
年四月	-11.2803
少時	-11.2803
佛身	-11.2803
出生	-11.2808
既得	-11.2811
餓鬼	-11.2812
亶	-11.2813
名色	-11.2813
二十五年	-11.2814
如之何	-11.2814
焉其	-11.2814
穗	-11.2815
𠞰	-11.2815
治亂	-11.2817
等分	-11.2817
即日	-11.2818
肅宗	-11.2818
叔父	-11.2818
四門	-11.2819
青龍	-11.2819
以進	-11.2821
筒	-11.2821
一嵗	-11.2822
愚按	-11.2823
君命	-11.2825
窠	-11.2826
莘	-11.2827
自行	-11.2828
辟支佛	-11.2829
皆如	-11.2829
祕密	-11.283
殽	-11.2831
事宜	-11.2831
舊有	-11.2831
▁第二	-11.2832
東向	-11.2835
冀州	-11.2836
可觀	-11.2836
今從	-11.2839
以疾	-11.284
擕	-11.2842
匏	-11.2845
遣官	-11.2846
以治	-11.2849
越王	-11.2849
相接	-11.2854
永平	-11.2855
家之	-11.2855
其徒	-11.2856
師道	-11.2857
十數	-11.286
朂	-11.2861
雲氣	-11.2865
應當	-11.2868
山陽	-11.2868
石室	-11.2869
不分	-11.287
每日	-11.2871
不遇	-11.2872
昊	-11.2878
必得	-11.2879
知所	-11.2881
同年	-11.2884
自體	-11.2888
舛	-11.2889
禪師法嗣	-11.2892
聞法	-11.2894
於佛	-11.2894
昔日	-11.2895
從而	-11.2898
名號	-11.2898
▁皇帝	-11.2901
示眾	-11.2901
御書	-11.2902
年八月	-11.2906
蠻夷	-11.2908
佛土	-11.2909
之爲	-11.291
莫如	-11.2911
而見	-11.2919
晷	-11.2919
偹	-11.2922
溉	-11.2926
家有	-11.2926
樂天	-11.2929
十餘里	-11.2932
▁佛告	-11.2937
元吉	-11.2937
偶然	-11.2938
洵	-11.2939
三十三	-11.294
實為	-11.2944
毎服	-11.2945
一巻	-11.2946
髙帝	-11.2947
啞	-11.2948
八旗	-11.2948
說是	-11.2948
妣	-11.2948
盾	-11.2949
甜	-11.2952
聶	-11.2953
是我	-11.2954
州界	-11.2955
隋書	-11.2958
出世間	-11.296
燒香	-11.2961
無此	-11.2962
愽	-11.2965
洞山	-11.2966
癰	-11.2966
呼為	-11.2967
多寡	-11.2967
赤道	-11.2967
C	-11.2968
周公之	-11.2971
少隂	-11.2971
禮畢	-11.2971
瓔珞	-11.2972
騫	-11.2974
二明	-11.2979
賈誼	-11.2979
齧	-11.2979
塩	-11.298
教諭	-11.298
之典	-11.2981
嘆曰	-11.2985
麴	-11.2985
合而	-11.2986
貂	-11.2986
風塵	-11.2986
二十二年	-11.2988
卒子	-11.2994
人自	-11.2995
天神	-11.2996
一百五十	-11.2997
寰	-11.2997
鬯	-11.2999
萬二千	-11.2999
旌表	-11.3001
旌旗	-11.3004
緣生	-11.3004
年十月	-11.3005
朔方	-11.3005
官司	-11.3006
存者	-11.3009
之至也	-11.3009
經論	-11.3011
四品	-11.3012
譲	-11.3014
櫟	-11.3014
同於	-11.3015
梵語	-11.3016
涪	-11.3017
中初	-11.3018
O	-11.3019
南嶽	-11.302
殺其	-11.3021
祼	-11.3021
U	-11.3022
釘	-11.3024
璘	-11.3026
螭	-11.3027
無因	-11.3028
中流	-11.3028
先人	-11.3029
水陸	-11.303
茵	-11.3031
二公	-11.3032
食者	-11.3035
貴州	-11.3036
有天下	-11.3036
年七月	-11.3037
乎哉	-11.3042
淨名	-11.3043
泓	-11.3048
㓕	-11.3049
老死	-11.3051
上來	-11.3053
有兩	-11.3053
習氣	-11.3054
剋	-11.3056
三十一	-11.3057
考其	-11.3059
TI	-11.3059
鳳凰	-11.3063
現任	-11.3063
布政使	-11.3063
齊桓	-11.3064
宇文	-11.3068
匀	-11.307
奉使	-11.307
槍	-11.3072
世世	-11.3072
焉則	-11.3073
喚作	-11.3073
購	-11.3075
國君	-11.3076
刑罰	-11.3079
之議	-11.308
在後	-11.308
明王	-11.3081
變為	-11.3086
云爾	-11.3093
尚書省	-11.3096
亦皆	-11.3097
兀	-11.3099
二州	-11.3101
士民	-11.3101
▁─	-11.3103
典禮	-11.3103
盗賊	-11.3103
漢之	-11.3104
文子	-11.3106
丈人	-11.3106
揚子	-11.3107
KR	-11.3108
依前	-11.3111
其在	-11.3111
河圖	-11.3112
二諦	-11.3113
無道	-11.3115
颺	-11.3118
能得	-11.312
四十年	-11.3123
䰟	-11.3123
之號	-11.3123
猾	-11.3127
在縣西	-11.3127
冨	-11.3127
邠	-11.3127
靳	-11.313
曾孫	-11.3133
司農	-11.3133
國中	-11.3135
不負	-11.3136
墾	-11.3141
常有	-11.3142
以義	-11.3143
安縣	-11.3145
▁郭	-11.3147
人欲	-11.3148
斯人	-11.3148
塵埃	-11.3148
曰王	-11.3153
無法	-11.3154
愬	-11.3155
杜氏	-11.3157
居民	-11.3158
而言之	-11.3161
為義	-11.3162
一度	-11.3165
常侍	-11.3165
渤海	-11.3165
王安石	-11.3166
耒	-11.317
孝宗	-11.3173
之音	-11.3174
頓首	-11.3174
百家	-11.3175
存焉	-11.3179
小臣	-11.3181
州治	-11.3183
所起	-11.3185
五言	-11.3188
滿足	-11.3188
䦨	-11.3191
衆生	-11.3192
塹	-11.3192
巍巍	-11.3194
出聖	-11.3202
不備	-11.3203
但是	-11.3203
勛	-11.3207
駱	-11.3209
撒	-11.321
面目	-11.321
周書	-11.3211
飛鳥	-11.3211
其大	-11.3216
便有	-11.3217
之弟	-11.3221
總結	-11.3222
官屬	-11.3228
可以為	-11.3228
之期	-11.3229
既成	-11.323
豳	-11.3233
孔子之	-11.3234
大雅	-11.3234
悵	-11.3235
歸命	-11.3236
毬	-11.3239
脾胃	-11.3241
江夏	-11.3241
發起	-11.3241
感應	-11.3243
祀之	-11.3245
作是	-11.3246
五蘊	-11.3247
妝	-11.325
佛果	-11.3254
為相	-11.3255
孝弟	-11.3256
心也	-11.3258
趂	-11.3259
在乎	-11.3259
人能	-11.326
體也	-11.326
孝武	-11.3262
皆能	-11.3264
妄語	-11.3264
五識	-11.3265
剌	-11.3266
愉	-11.3268
▁麼	-11.3271
襄王	-11.3273
全體	-11.3273
信解	-11.3275
臣子	-11.3275
是心	-11.3275
不避	-11.3276
燄	-11.3277
五卷	-11.3278
或言	-11.328
L	-11.3281
律令	-11.3282
在縣東	-11.3283
瓌	-11.3284
菩薩行	-11.3285
兩浙	-11.3285
乃為	-11.3287
猶存	-11.3289
正見	-11.3291
皇考	-11.3293
紀綱	-11.3295
語錄	-11.3296
所受	-11.3297
白髪	-11.3297
南至	-11.3301
性故	-11.3301
小民	-11.3304
地震	-11.3304
鳯凰	-11.3305
而動	-11.3305
歎息	-11.3308
TE	-11.331
常山	-11.331
之田	-11.3311
瞋恚	-11.3313
臨江	-11.3313
孫氏	-11.3314
rip	-11.3315
kan	-11.3317
om	-11.3319
-12	-11.3319
▁gi	-11.332
thu	-11.3322
徑山	-11.3323
maste	-11.3323
生平	-11.3324
這裏	-11.3324
放逸	-11.3325
嶂	-11.3326
初標	-11.3326
日新	-11.3326
由旬	-11.3326
▁2018	-11.3326
眼識	-11.3329
善心	-11.333
牽牛	-11.3331
蒼蒼	-11.3334
是無	-11.3336
枳	-11.3337
所殺	-11.3337
翩翩	-11.3337
發於	-11.3339
歌曰	-11.334
我有	-11.3341
始有	-11.3344
四首	-11.3345
故鄉	-11.3346
秋水	-11.3346
以文	-11.3347
虬	-11.3347
而獨	-11.3347
法眼	-11.3348
足矣	-11.335
敗之	-11.335
鎔	-11.3351
漢武	-11.3353
修身	-11.3353
令尹	-11.3353
高下	-11.3357
射之	-11.3358
水上	-11.3359
愿	-11.336
始也	-11.3362
病也	-11.3362
藕	-11.3362
無色界	-11.3364
開府	-11.3369
寗	-11.337
譬喻	-11.3372
漢王	-11.3374
杜預	-11.3374
善也	-11.3374
無敢	-11.3375
何也曰	-11.3375
晞	-11.3376
軼	-11.338
有九	-11.3382
脣	-11.3382
<	-11.3382
隨喜	-11.3383
人亦	-11.3384
頭痛	-11.3384
瓘	-11.3387
榖梁	-11.3389
因循	-11.3391
至道	-11.3391
▁丘	-11.3393
一節	-11.3394
授記	-11.3395
竣	-11.3395
尚可	-11.3396
直指	-11.3398
侶	-11.3399
上林	-11.3401
蒙古	-11.3402
相者	-11.3402
可惜	-11.3403
下釋	-11.3403
廕	-11.3403
與子	-11.3403
年任	-11.3405
三章	-11.3405
上音	-11.3406
若比丘	-11.3406
野人	-11.3406
金色	-11.3407
齊衰	-11.3409
九卿	-11.341
封禪	-11.3413
縞	-11.3414
存乎	-11.3415
扼	-11.3416
向來	-11.3417
瓢	-11.3417
楫	-11.3417
為先	-11.3418
驀	-11.3418
其首	-11.3419
▁冬	-11.3421
孺子	-11.3422
自守	-11.3423
官府	-11.3426
聮	-11.3426
孝文	-11.3429
突吉羅	-11.3429
大黄	-11.3431
中行	-11.3431
首尾	-11.3431
滎陽	-11.3432
黍稷	-11.3433
乆矣	-11.3434
拄	-11.3435
年九月	-11.3435
車騎	-11.3437
一味	-11.3438
不拘	-11.3439
體性	-11.344
涓	-11.344
祖父	-11.3441
或為	-11.3441
善者	-11.3442
二義	-11.3444
自恣	-11.345
上品	-11.345
憩	-11.345
錬	-11.3451
竟不	-11.3452
持節	-11.3452
上表	-11.3454
灋	-11.3454
之不可	-11.3454
安撫	-11.3455
洮	-11.3455
自身	-11.3456
見此	-11.3456
夣	-11.3458
史官	-11.3459
有十	-11.3461
所奏	-11.3461
紺	-11.3461
也乃	-11.3462
刷	-11.3463
不報	-11.3463
光照	-11.3463
褥	-11.3464
之迹	-11.3469
信也	-11.3471
四曰	-11.3473
喙	-11.3474
不屈	-11.3474
公羊傳	-11.3475
精舍	-11.3477
位也	-11.3478
欣然	-11.3479
无所	-11.348
太僕	-11.348
陳氏曰	-11.3482
瘁	-11.3482
相連	-11.3483
叄	-11.3484
事親	-11.3484
悚	-11.3485
燬	-11.3486
如其	-11.3486
晃	-11.3487
黛	-11.3488
璫	-11.3489
不知何	-11.3491
饒益	-11.3491
在焉	-11.3492
隨所	-11.3493
卒於	-11.3494
髦	-11.3495
妻王氏	-11.3495
所司	-11.3496
色身	-11.3498
八十一	-11.3499
殿中	-11.3502
諸惡	-11.3502
翩	-11.3502
滄	-11.3503
大用	-11.3503
獻之	-11.3504
然有	-11.3504
如斯	-11.3504
無實	-11.3505
緋	-11.3506
隳	-11.3507
明徳	-11.3509
文書	-11.3509
河中	-11.3513
氣也	-11.3514
難陀	-11.3517
正理	-11.3518
事事	-11.352
五更	-11.3521
是事	-11.3523
之害	-11.3524
恐其	-11.3524
大都	-11.353
叫	-11.353
天官	-11.3531
禳	-11.3531
事有	-11.3532
此日	-11.3533
耄	-11.3535
常平	-11.3535
為王	-11.3536
豈知	-11.3536
六種	-11.3538
黠	-11.3541
顥	-11.3541
珂	-11.3542
舎人	-11.3543
白首	-11.3544
都賦	-11.3546
屹	-11.3547
莫之	-11.3548
於齊	-11.3548
之器	-11.3549
甯	-11.355
廟堂	-11.3552
之路	-11.3552
方寸	-11.3557
平章	-11.3557
圖書	-11.356
婦女	-11.3561
天性	-11.3561
峩	-11.3561
已得	-11.3562
南向	-11.3563
無處	-11.3564
并州	-11.3565
人身	-11.3566
不使	-11.3567
隂陽之	-11.3568
為法	-11.3573
江左	-11.3574
在南	-11.3575
皆當	-11.3577
愚謂	-11.3578
證得	-11.3581
監生	-11.3582
無端	-11.3582
二十八年	-11.3589
言之則	-11.3589
前三	-11.3589
出自	-11.3589
一帶	-11.359
中心	-11.3591
之勞	-11.3593
與汝	-11.3593
噴	-11.3595
俱生	-11.3595
識之	-11.3599
論文	-11.3605
半月	-11.3605
穆公	-11.3605
雜記	-11.3606
蛾	-11.3609
了也	-11.3611
此明	-11.3613
蔡邕	-11.3614
之常	-11.3614
不和	-11.3614
卜筮	-11.3614
雨露	-11.3615
樓閣	-11.3616
术	-11.3617
降伏	-11.3619
開封府	-11.3619
。「	-11.3621
兵部尚書	-11.3622
茫	-11.3622
舉其	-11.3623
若依	-11.3623
水利	-11.3623
可使	-11.3624
▁韓	-11.3626
嬰兒	-11.3626
蘂	-11.363
杓	-11.363
則不能	-11.3631
不殺	-11.3635
我見	-11.3635
二十四年	-11.3635
各省	-11.3636
長吏	-11.3638
心生	-11.3639
為四	-11.3641
濛	-11.3644
何日	-11.3646
豬	-11.3651
初二	-11.3652
之具	-11.3653
措置	-11.3654
鵞	-11.3656
七尺	-11.3656
姒	-11.3656
松江	-11.3658
諸郡	-11.3662
今文	-11.3665
裒	-11.3669
勇猛	-11.3669
知制誥	-11.367
意氣	-11.3671
慾	-11.3672
則當	-11.3672
駮	-11.3673
假名	-11.3676
大兵	-11.3677
此所謂	-11.3677
自覺	-11.3681
問訊	-11.3681
登臨	-11.3682
重重	-11.3682
佛菩薩	-11.3684
兩手	-11.3687
明其	-11.3691
名臣	-11.3694
也昔	-11.3696
卿士	-11.3696
五嶽	-11.3696
般涅槃	-11.3697
一舉	-11.3698
眾中	-11.3699
樂之	-11.3699
信心	-11.3706
圓明	-11.3707
裨	-11.3712
安南	-11.3715
字仲	-11.3716
皆然	-11.3718
翰林院	-11.3718
湮	-11.372
厓	-11.3721
此名	-11.3722
逓	-11.3725
曵	-11.3727
嵗時	-11.3727
閟	-11.3731
四千	-11.3733
諸有情	-11.3735
大定	-11.3737
之望	-11.3739
何可	-11.3741
骸	-11.3741
幷	-11.3742
鑪	-11.3742
〔	-11.3743
功徳	-11.3744
曰凡	-11.3745
後生	-11.3745
大徳	-11.3745
臨安	-11.3747
侍講	-11.3747
辭也	-11.3749
堂下	-11.375
剽	-11.3751
半夏	-11.3752
城外	-11.3752
杏仁	-11.3754
苴	-11.3755
不失其	-11.3756
裾	-11.3759
觚	-11.3759
廸	-11.3759
▁呉	-11.3761
盡心	-11.3762
夫子之	-11.3763
儆	-11.3763
膈	-11.3764
可得而	-11.3767
始皇	-11.3772
法相	-11.3772
花落	-11.3774
以利	-11.3776
綾	-11.3776
宣徳	-11.3779
寥	-11.378
質實	-11.3782
置酒	-11.3785
嗣後	-11.3785
大體	-11.3785
▁春秋	-11.3785
化生	-11.3786
奉詔	-11.3786
净	-11.3787
燃	-11.3787
商量	-11.3792
言無	-11.3792
亦猶	-11.3794
而東	-11.3795
柰	-11.3795
能使	-11.3795
堂堂	-11.3795
曷為	-11.3796
諸君	-11.3797
為是	-11.3798
便宜	-11.38
非禮	-11.3801
安在	-11.3802
觔	-11.3803
▁前調	-11.3807
神之	-11.3808
不窮	-11.3809
憶念	-11.3811
定公	-11.3812
行至	-11.3812
知名	-11.3813
昊天	-11.3814
傳之	-11.3816
後學	-11.3816
不倦	-11.3818
更名	-11.382
祖考	-11.382
不可勝	-11.3822
簋	-11.3823
巳上	-11.3823
刈	-11.3825
箕子	-11.3826
玉清	-11.3827
杜詩	-11.3829
萬八千	-11.3831
皆曰	-11.3837
眾僧	-11.3837
以死	-11.3838
物而	-11.3838
之病	-11.384
之身	-11.3841
雍州	-11.3843
驩	-11.3843
不相應	-11.3844
千二百	-11.3845
小人之	-11.3846
三十九	-11.3847
種性	-11.3848
知我	-11.3849
何物	-11.3851
北向	-11.3852
及此	-11.3853
日月之	-11.3854
藜	-11.3854
曲禮	-11.3857
地理	-11.3857
祥符	-11.3861
長城	-11.3861
升麻	-11.3861
得志	-11.3862
餽	-11.3862
老成	-11.3863
論曰	-11.3865
榭	-11.3867
主於	-11.3868
靈山	-11.3869
及第	-11.3873
汞	-11.3874
胙	-11.3876
曰大	-11.3876
而說	-11.3877
所願	-11.3879
韻㑹	-11.388
地黄	-11.3881
六寸	-11.3881
湯下	-11.3882
眚	-11.3886
之耳	-11.3887
二升	-11.3888
誰與	-11.3888
世事	-11.3889
邪正	-11.3892
徽宗	-11.3893
權實	-11.3893
南康	-11.3893
百尺	-11.3895
也惟	-11.3895
此處	-11.3896
受生	-11.3898
思慮	-11.3898
獨覺	-11.3901
勝義	-11.3902
脛	-11.3903
有才	-11.3905
▁子曰	-11.3905
蠡	-11.3908
鼈	-11.391
縣地	-11.3911
興化	-11.3912
佛剎	-11.3912
此篇	-11.3917
繫辭	-11.3919
太康	-11.3921
樞宻院	-11.3921
膩	-11.3925
天寶	-11.3925
位於	-11.3925
方見	-11.3926
是嵗	-11.3927
用力	-11.3927
詩見	-11.3928
一切諸法	-11.3929
皇極	-11.393
非所以	-11.393
今世	-11.3931
龍虎	-11.3933
檐	-11.3935
摭	-11.3936
痒	-11.3937
少師	-11.3939
初生	-11.394
醯	-11.394
夏侯	-11.3941
今為	-11.3943
博雅	-11.3945
未有不	-11.3945
輻	-11.3951
兢	-11.3953
大笑	-11.3954
▁太上	-11.3954
於法	-11.3955
字伯	-11.3957
茯苓	-11.3958
股肱	-11.3962
東漢	-11.3968
褚	-11.3968
未生	-11.397
儞	-11.3976
意在	-11.3983
𤣥宗	-11.3984
珍重	-11.3984
廣雅	-11.3984
汜	-11.3986
萬六千	-11.3987
鉏	-11.3988
一百三十	-11.399
腴	-11.3994
隨其	-11.3996
四尺	-11.3997
異時	-11.3999
茸	-11.4
得無	-11.4002
后土	-11.4004
之曲	-11.4006
位而	-11.4008
器也	-11.4011
雲山	-11.4016
叠	-11.4017
楚之	-11.4018
大智	-11.4019
能自	-11.402
不致	-11.402
正明	-11.4021
癖	-11.4023
輓	-11.4025
其外	-11.4026
佃	-11.4026
笋	-11.4027
汨	-11.4028
迤	-11.403
行於	-11.4031
有定	-11.4031
十丈	-11.4035
武徳	-11.4037
日以	-11.4037
一半	-11.4038
到此	-11.4039
只有	-11.404
巍	-11.4042
行則	-11.4042
秖	-11.4043
副都統	-11.4044
境内	-11.4046
乘之	-11.4047
驍	-11.4049
以定	-11.4053
出而	-11.4054
春秋之	-11.4054
哺	-11.4055
而取	-11.4055
伹	-11.4056
一枚	-11.4057
二十六年	-11.4058
染淨	-11.4061
二章	-11.4062
參政	-11.4063
公侯	-11.4064
丐	-11.4065
遘	-11.4066
不惜	-11.4066
夏五月	-11.4067
並無	-11.4067
煎至	-11.4067
得聞	-11.4068
厰	-11.4069
芟	-11.4069
意思	-11.407
輪迴	-11.4074
只在	-11.4075
一世	-11.4075
恭惟	-11.4075
一般	-11.4076
管子	-11.4077
此論	-11.4082
之原	-11.4082
優劣	-11.4084
部員外郎	-11.4086
阼階	-11.4087
太常卿	-11.4089
今時	-11.409
御製	-11.4092
服其	-11.4093
關中	-11.4094
其神	-11.4098
不久	-11.4098
敬之	-11.41
鼻孔	-11.4103
故城	-11.4105
亦必	-11.4109
漢武帝	-11.411
未定	-11.4113
不禁	-11.4114
暄	-11.4116
相隨	-11.4118
之次	-11.4119
訃	-11.4119
仲子	-11.4119
恍	-11.4122
所證	-11.4122
所歸	-11.4124
規模	-11.4124
紇	-11.4126
節制	-11.4126
稼穡	-11.4128
今乃	-11.413
秋冬	-11.4132
梧桐	-11.4133
丹砂	-11.4134
羽林	-11.4135
又謂	-11.4135
由來	-11.4137
鎧	-11.4138
礼	-11.4139
犂	-11.4142
靈公	-11.4143
▁國朝	-11.4143
北至	-11.4145
無際	-11.4146
講學	-11.4146
為害	-11.4149
石上	-11.4149
大過	-11.4152
十餘萬	-11.4153
忘其	-11.4154
已見	-11.4154
侯伯	-11.4155
知人	-11.4155
能盡	-11.4156
紱	-11.4158
以資	-11.4159
弑君	-11.416
宗族	-11.4161
以授	-11.4162
馱	-11.4163
窒	-11.4163
上章	-11.4164
方可	-11.4165
五者	-11.4166
宣城	-11.4166
㢲	-11.4167
凡聖	-11.4169
児	-11.4169
止也	-11.4169
我欲	-11.417
出其	-11.4171
儘	-11.4177
可否	-11.4178
虛妄	-11.4178
既至	-11.418
醬	-11.418
無住	-11.4181
出離	-11.4185
而无	-11.4186
過也	-11.4186
同類	-11.4187
風月	-11.4187
岷	-11.4189
蛤	-11.4189
在縣南	-11.419
二縣	-11.419
努	-11.4192
各官	-11.4192
也葢	-11.4194
尚存	-11.4195
還家	-11.4195
生而	-11.4196
雪竇	-11.4198
鑠	-11.4198
授以	-11.42
累官	-11.4202
問其	-11.4203
鶉	-11.421
見性	-11.421
千總	-11.4211
陽城	-11.4212
讀誦	-11.4212
造作	-11.4214
挿	-11.4214
釋氏	-11.4216
穩	-11.4219
待制	-11.422
顓	-11.4221
各半	-11.4222
麒麟	-11.4224
二十餘	-11.4224
袴	-11.4225
木香	-11.4225
奪其	-11.4227
玠	-11.4227
五湖	-11.4227
北史	-11.4231
何妨	-11.4231
復生	-11.4233
三十八	-11.4234
得中	-11.4234
診	-11.4235
依然	-11.4235
宗正	-11.4237
幸甚	-11.4237
之吉	-11.4237
公為	-11.4238
者葢	-11.4238
可汗	-11.424
鶻	-11.424
白术	-11.4241
不得其	-11.4242
淄	-11.4243
柵	-11.4244
樗	-11.4245
既已	-11.4246
守護	-11.4246
不就	-11.4247
幘	-11.4248
啇	-11.4249
天童	-11.4249
站	-11.425
一切智智	-11.4255
橈	-11.4257
太夫人	-11.4258
綃	-11.4258
无妄	-11.4259
慚愧	-11.4259
釡	-11.426
不允	-11.426
俄而	-11.426
惡趣	-11.426
蘖	-11.4261
此所以	-11.4263
明珠	-11.4263
閼	-11.4264
火燒	-11.4265
納之	-11.4267
處之	-11.4267
僧曰	-11.4269
下流	-11.4271
爍	-11.4275
不移	-11.4277
罇	-11.4278
悽	-11.4279
等謹按	-11.4279
補之	-11.4279
奏曰	-11.4281
不令	-11.4282
性也	-11.4283
能成	-11.4283
沓	-11.4284
不中	-11.4285
侃	-11.4285
詵	-11.4288
㭍	-11.429
此方	-11.4292
嗇	-11.4294
艷	-11.4294
▁案	-11.4295
寰宇記	-11.4296
緜	-11.4297
辛卯	-11.4299
功用	-11.43
皆言	-11.43
蛟龍	-11.4301
年三月	-11.4301
有志	-11.4302
武子	-11.4303
嘏	-11.4305
二十七年	-11.4308
不學	-11.4309
奭	-11.4314
伏願	-11.4314
螢	-11.4315
刹	-11.4315
瑗	-11.4315
娣	-11.4315
籩	-11.4317
迸	-11.4317
成道	-11.4318
菲	-11.4319
為難	-11.432
餘皆	-11.4325
無憂	-11.4326
得免	-11.4326
江都	-11.4327
非時	-11.4327
終無	-11.4329
天順	-11.433
大将軍	-11.4331
請師	-11.4333
焉故	-11.4334
譌	-11.4334
則可以	-11.4335
厠	-11.4335
孛	-11.4335
實際	-11.4336
者是也	-11.4336
別釋	-11.4336
神人	-11.4337
皇天	-11.4337
青青	-11.4339
大行	-11.4339
異者	-11.4339
列於	-11.4342
伯夷	-11.4343
固不	-11.4344
曺	-11.4345
圈	-11.4346
漸次	-11.4349
者豈	-11.4349
杪	-11.4349
立功	-11.4352
桃源	-11.4354
經書	-11.4354
周人	-11.4359
八日	-11.436
宗子	-11.4361
并序	-11.4362
怖畏	-11.4365
蘋	-11.4366
叩頭	-11.4367
相好	-11.437
七人	-11.437
難也	-11.4371
當是時	-11.4371
其禮	-11.4372
二名	-11.4376
九寸	-11.4378
觜	-11.4379
出師	-11.4379
疑其	-11.438
撿	-11.438
▁二月	-11.4382
嶷	-11.4384
廐	-11.4384
以功	-11.4385
魏書	-11.4385
不甚	-11.4386
方知	-11.4387
八萬	-11.4388
衿	-11.4389
濳	-11.4389
固已	-11.4389
出現	-11.439
頷	-11.4393
楊栁	-11.4394
山縣	-11.4396
昭穆	-11.4397
安可	-11.4398
次公	-11.44
於物	-11.4403
天氣	-11.4405
朱氏	-11.4405
門中	-11.4405
八萬四千	-11.4406
而居	-11.4406
與天地	-11.4408
今欲	-11.4408
𣙜	-11.4409
潢	-11.441
㳟	-11.4412
則天	-11.4413
予之	-11.4416
田地	-11.4416
葭	-11.4417
太倉	-11.4417
有徳	-11.4419
者得	-11.4419
明經	-11.4421
有八	-11.4421
斬首	-11.4422
主婦	-11.4422
文昌	-11.4423
作禮	-11.4423
貪欲	-11.4423
木為	-11.4426
嘗為	-11.4426
桂枝	-11.4427
法令	-11.4429
刮	-11.443
經傳	-11.443
障礙	-11.443
大風	-11.4431
聞道	-11.4432
無聞	-11.4433
中書省	-11.4433
詔以	-11.4434
經畧	-11.4436
㑹于	-11.4436
聖賢之	-11.4436
僧祇	-11.4438
開皇	-11.4438
色等	-11.4442
張子	-11.4442
墓誌銘	-11.4443
辨其	-11.4445
言於	-11.4445
加持	-11.4446
曆	-11.4447
之端	-11.4448
江浙	-11.4448
在中	-11.4451
宮殿	-11.4451
大夫之	-11.4453
一百四十	-11.4453
色相	-11.4456
声	-11.4457
知道	-11.4458
宗伯	-11.4459
者也故	-11.4459
鳶	-11.4462
為小	-11.4462
固辭	-11.4463
隆慶	-11.4463
提刑	-11.4463
三子	-11.4468
聽之	-11.4468
醪	-11.447
漚	-11.4473
列子	-11.4473
最初	-11.4473
閤門	-11.4475
瞰	-11.4476
將何	-11.4476
縳	-11.4478
千餘人	-11.4478
輔臣	-11.4478
沈約	-11.4478
為太子	-11.448
充滿	-11.4484
為汝	-11.4484
儂	-11.4485
叡	-11.4486
昴	-11.4487
忽有	-11.4488
不歸	-11.4489
縣丞	-11.449
䏻	-11.449
問如何是	-11.4493
▁敢	-11.4493
龍泉	-11.4494
政令	-11.4497
自家	-11.4499
武公	-11.45
並同	-11.4502
崑山	-11.4504
磯	-11.4505
▁九月	-11.4506
牛馬	-11.4507
致祭	-11.4507
腹痛	-11.4508
腹心	-11.4508
其私	-11.4509
相遇	-11.4511
稽古	-11.4513
國事	-11.4516
海棠	-11.4517
楚辭	-11.4519
首座	-11.452
成立	-11.4521
不任	-11.4521
漸漸	-11.4521
抹	-11.4522
樂止	-11.4526
秋八月	-11.4528
昱	-11.4529
赤子	-11.453
百日	-11.4531
吳王	-11.4533
於一切	-11.4534
細辛	-11.4535
異同	-11.4535
心故	-11.4536
切又	-11.4537
事畢	-11.454
金山	-11.4544
睛	-11.4545
妻張氏	-11.4547
紫微	-11.4548
伏以	-11.4549
財用	-11.4549
愛民	-11.455
之尊	-11.4551
作樂	-11.4553
六識	-11.4558
丁卯	-11.456
倅	-11.456
感激	-11.456
▁程	-11.4562
自殺	-11.4566
如雲	-11.4566
樂作	-11.4566
二尺	-11.4567
之大者	-11.4567
旛	-11.4567
同居	-11.4568
其色	-11.4568
乙卯	-11.457
▁其二	-11.4571
先世	-11.4571
佉	-11.4572
未始	-11.4572
秦人	-11.4575
摸	-11.4577
之母	-11.4577
離欲	-11.4577
發兵	-11.4577
尤甚	-11.4579
所獲	-11.4579
苦樂	-11.4579
凡三	-11.4579
莫非	-11.4581
戲論	-11.4582
梳	-11.4583
以金	-11.4584
若得	-11.4589
曽祖	-11.4589
吽	-11.4589
倐	-11.4589
直下	-11.4591
有成	-11.4592
則不可	-11.4594
蹶	-11.4595
所請	-11.4595
坂	-11.4595
職方	-11.4597
而忘	-11.4597
袋	-11.4599
土人	-11.4601
親親	-11.4602
相故	-11.4603
一斗	-11.4606
义	-11.4609
已來	-11.461
人無	-11.4611
鼇	-11.4612
不孝	-11.4612
不願	-11.4613
都無	-11.4613
誄	-11.4614
蕭條	-11.4616
圻	-11.4617
錠	-11.4618
諭㫖	-11.4619
且如	-11.462
亦多	-11.4621
神靈	-11.4621
粘	-11.4622
開國	-11.4622
正念	-11.4622
程氏	-11.4623
誠意	-11.4624
彝	-11.4626
中大夫	-11.4627
五十五	-11.4628
福田	-11.4632
五百里	-11.4632
胞	-11.4635
甚衆	-11.4637
一斤	-11.4638
脆	-11.4639
鄫	-11.4639
之效	-11.4642
立為	-11.4645
屎	-11.4645
樁	-11.4645
鬰	-11.4647
熙寧	-11.4647
▁量	-11.4649
長江	-11.465
之化	-11.4651
笳	-11.4652
諛	-11.4653
為右	-11.4654
生時	-11.4654
三事	-11.4657
如是則	-11.4658
辭曰	-11.4659
護法	-11.4662
主者	-11.4663
以及	-11.4664
北上	-11.4664
吾之	-11.4665
柘	-11.4669
零落	-11.4669
皋	-11.467
也是以	-11.467
商賈	-11.4671
棧	-11.4672
陀羅	-11.4673
慤	-11.4674
篁	-11.4675
於理	-11.4676
二等	-11.4677
仞	-11.4678
眞君	-11.4679
関	-11.4679
皆用	-11.4679
内則	-11.4681
鄱陽	-11.4682
荀子	-11.4683
琴瑟	-11.4686
入山	-11.4687
之能	-11.4687
天意	-11.4687
璜	-11.4688
百餘人	-11.4691
於國	-11.4692
四方之	-11.4693
三家	-11.4695
又與	-11.4695
一切如來	-11.4696
著於	-11.4697
蹊	-11.4698
其弊	-11.4699
以獻	-11.4699
性情	-11.47
詩文	-11.4702
非獨	-11.4702
安立	-11.4703
緣覺	-11.4704
直學士	-11.4705
鞫	-11.4705
郡太守	-11.4706
立于	-11.4708
執之	-11.471
山上	-11.4711
固守	-11.4714
喪服	-11.4714
善財	-11.4717
三代之	-11.4718
蠢	-11.4719
巔	-11.4719
一十	-11.472
而食	-11.4721
此謂	-11.4722
意云	-11.4724
春日	-11.473
相合	-11.4731
𣺌	-11.4732
秦州	-11.4732
不亂	-11.4734
從者	-11.4736
矣若	-11.4737
其兄	-11.4738
每年	-11.474
也按	-11.474
九十里	-11.4743
所感	-11.4745
加之	-11.4745
之源	-11.4745
事皆	-11.4746
不可見	-11.4751
也又曰	-11.4755
也君子	-11.4755
天中	-11.4756
椀	-11.4757
不舉	-11.4757
歲月	-11.4758
笥	-11.4758
不可得而	-11.4761
▁【【	-11.4762
故此	-11.4763
本心	-11.4763
湫	-11.4763
通於	-11.4764
窄	-11.4764
刻石	-11.4766
乗之	-11.4767
蒼生	-11.4767
方今	-11.4769
忍辱	-11.4771
殊不知	-11.4771
則雖	-11.4772
不依	-11.4772
癸卯	-11.4772
得意	-11.4775
爲人	-11.4776
和平	-11.4778
紘	-11.4779
勤勞	-11.4782
咬	-11.4782
不雨	-11.4785
鞋	-11.4787
碣	-11.4788
經術	-11.4788
之年	-11.479
委曲	-11.4791
懈怠	-11.4793
世有	-11.4794
本自	-11.4795
景公	-11.4796
變也	-11.4797
有小	-11.4799
軒轅	-11.4801
國用	-11.4802
之未	-11.4802
答云	-11.4806
唯是	-11.4808
嘗以	-11.4809
矦	-11.481
証	-11.481
君不見	-11.481
匹夫	-11.4811
皇朝	-11.4814
建昌	-11.4814
任之	-11.4817
祜	-11.4818
斟	-11.4819
本州	-11.4819
心腹	-11.4819
勿令	-11.482
一代	-11.482
先以	-11.4821
者固	-11.4824
其黨	-11.4825
之責	-11.4827
成周	-11.4829
年七十	-11.483
今按	-11.4833
芋	-11.4834
林下	-11.4834
如齊	-11.4835
先祖	-11.4835
退之	-11.4836
是用	-11.4837
有意	-11.4838
賢良	-11.4838
▁【△	-11.4839
中郎	-11.4841
不但	-11.4842
更相	-11.4843
瞿曇	-11.4844
嗚	-11.4845
韭	-11.4845
舟中	-11.4846
后妃	-11.4847
至則	-11.4847
南渡	-11.4848
王肅	-11.4848
謐	-11.4851
台吉	-11.4852
𣲖	-11.4853
論者	-11.4855
湖上	-11.4859
春王正月	-11.4862
不可復	-11.4863
草書	-11.4864
一語	-11.4865
一經	-11.4866
觀察使	-11.4866
上黨	-11.4868
大夫士	-11.4869
藹	-11.4869
滄浪	-11.4869
袈裟	-11.4869
司馬光	-11.487
庾信	-11.4873
七品	-11.4876
䨇	-11.4877
今已	-11.4877
以救	-11.4878
今日之	-11.4879
二百五十	-11.4879
忒	-11.4881
籩豆	-11.4884
三結	-11.4885
來聘	-11.4887
兕	-11.4887
長行	-11.4888
安民	-11.4889
謁者	-11.4891
舊名	-11.4894
為樂	-11.4894
食邑	-11.4894
所未	-11.4894
轉運	-11.4895
於他	-11.4895
吉也	-11.4895
縠	-11.4897
我於	-11.4898
虗妄	-11.4898
畋	-11.4899
日光	-11.49
安之	-11.4901
大雨	-11.4901
云此	-11.4901
不能盡	-11.4903
髀	-11.4904
秋日	-11.4904
無恙	-11.4908
一時之	-11.4909
唐太宗	-11.4909
而猶	-11.4911
山寺	-11.4912
佛如來	-11.4914
都城	-11.4914
北門	-11.4915
懌	-11.4915
之所謂	-11.4918
則天下	-11.4921
人少	-11.4922
送之	-11.4923
搶	-11.4924
為度	-11.4925
在其中	-11.4925
抃	-11.4926
於東	-11.4927
秘書	-11.4928
于朝	-11.4929
得解脫	-11.493
是經	-11.4932
所傳	-11.4932
為左	-11.4933
必無	-11.4935
槁	-11.4935
曝	-11.4936
范氏	-11.4937
率兵	-11.4939
四十四	-11.494
闗中	-11.4942
▁佛說	-11.4944
少有	-11.4949
于上	-11.495
塾	-11.495
功業	-11.4951
味甘	-11.4952
斟酌	-11.4952
自來	-11.4952
夫亡	-11.4953
無故	-11.4958
百户	-11.4959
⬤	-11.4959
愴	-11.4964
天眼	-11.4966
葩	-11.4967
無分別	-11.4969
非但	-11.497
乆之	-11.497
無足	-11.4971
惠王	-11.4972
四十六	-11.4973
▁杜	-11.4974
明明	-11.4975
千五百	-11.4975
于今	-11.4975
神龍	-11.4977
以此為	-11.4979
上聲	-11.498
千百	-11.498
禮者	-11.498
漢唐	-11.4984
水經	-11.4984
杉	-11.4985
佳人	-11.4987
參知政事	-11.4988
虎豹	-11.4989
舊志	-11.499
年老	-11.499
無量無邊	-11.499
豈惟	-11.4993
未出	-11.4993
門户	-11.4995
顗	-11.4995
閽	-11.4996
齋戒	-11.4998
禋	-11.4998
吕氏	-11.5002
老病	-11.5005
所修	-11.5008
鄭人	-11.5008
既濟	-11.5008
之仁	-11.5008
璣	-11.5009
二十五里	-11.501
衡山	-11.5011
䭾	-11.5012
僮	-11.5013
切説文	-11.5013
伏望	-11.5014
▁復次	-11.5014
餘人	-11.5014
司命	-11.5015
甚處	-11.5015
命婦	-11.5016
鄭云	-11.5018
三嵗	-11.5019
金帛	-11.5019
蔭	-11.5021
淮西	-11.5027
嘗有	-11.5028
萇	-11.5033
之䇿	-11.5033
本是	-11.5033
人掌	-11.5033
捫	-11.5034
遑	-11.5035
此道	-11.5036
動也	-11.5036
未明	-11.5036
王府	-11.5038
成敗	-11.504
大家	-11.504
之靈	-11.5041
千九百	-11.5043
潭州	-11.5046
峪	-11.5047
生長	-11.5047
太常寺	-11.5048
圓融	-11.5053
煦	-11.5054
口中	-11.5057
出來	-11.5057
在彼	-11.5057
然自	-11.5057
蹋	-11.506
發願	-11.5061
普照	-11.5061
楞伽	-11.5063
先朝	-11.5064
法智	-11.5064
經筵	-11.5066
北京	-11.5066
不仕	-11.5067
廣平	-11.5067
善之	-11.5067
有七	-11.5067
天心	-11.5068
不以為	-11.5069
初心	-11.5071
㐮	-11.5073
酈	-11.5073
而使	-11.5078
錡	-11.5078
誰家	-11.5079
無時	-11.508
雨雪	-11.508
開口	-11.5083
我身	-11.5084
肱	-11.5084
兾	-11.5084
心念	-11.5084
乃復	-11.5086
但言	-11.5087
麄	-11.5087
不遺	-11.5088
波逸提	-11.5088
修學	-11.5089
非實	-11.5089
魯人	-11.509
平定	-11.5095
本於	-11.5096
非特	-11.5097
少分	-11.5098
註云	-11.5099
眸	-11.51
是真	-11.5103
磁	-11.5103
此下	-11.5104
叅軍	-11.5104
左丞	-11.5104
經行	-11.5104
而南	-11.5105
窩	-11.5105
無方	-11.5106
蜃	-11.5106
守臣	-11.5106
溈山	-11.5108
譁	-11.5109
▁崔	-11.5109
時事	-11.511
按此	-11.5112
孩	-11.5114
縦	-11.5114
艘	-11.5115
邨	-11.5115
盡力	-11.5116
寡君	-11.5119
珥	-11.5119
食肉	-11.5121
英宗	-11.5122
聖徳	-11.5122
滂	-11.5126
一石	-11.5126
殿下	-11.5128
執著	-11.5128
極其	-11.5129
以觀	-11.5129
必能	-11.5129
孤山	-11.513
曲江	-11.5131
庶㡬	-11.5131
下詔	-11.5132
到處	-11.5132
幾時	-11.5134
舊唐書	-11.5134
先公	-11.5134
所存	-11.5137
隧	-11.5138
詩集	-11.5138
一百八十	-11.5138
猫	-11.5139
不計	-11.5139
文辭	-11.5139
真空	-11.5141
翰墨	-11.5142
也或作	-11.5143
卷十	-11.5144
召見	-11.5144
▁范	-11.5145
師友	-11.5145
黃金	-11.5145
二女	-11.5146
異姓	-11.5146
施之	-11.5147
生靈	-11.5147
愛其	-11.5148
璉	-11.5151
縑	-11.5151
鬪	-11.5152
外有	-11.5155
哥	-11.5161
切說文	-11.5163
前二	-11.5164
陳侯	-11.5166
領縣	-11.5167
藍田	-11.5168
今當	-11.5169
大願	-11.5174
我以	-11.5175
旬日	-11.5176
澀	-11.5176
未濟	-11.5176
華陽	-11.5177
聞見	-11.5177
五十六	-11.5177
聖朝	-11.5177
無差別	-11.518
總持	-11.5181
盼	-11.5182
二丈	-11.5182
昌黎	-11.5183
能所	-11.5183
▁右為細末	-11.5184
其類	-11.5188
淵明	-11.5188
穉	-11.5189
經言	-11.5189
項羽	-11.519
琅邪	-11.5191
放光	-11.5191
縣官	-11.5192
不喜	-11.5194
載之	-11.5194
善巧	-11.5195
淇	-11.5195
景帝	-11.5196
立法	-11.5197
國名	-11.5198
一官	-11.52
八千	-11.52
斡	-11.5202
自以為	-11.5202
清水	-11.5204
慄	-11.5205
揔	-11.5206
櫛	-11.5206
世居	-11.5207
三輔	-11.5209
八尺	-11.521
不妄	-11.521
護持	-11.5211
恂	-11.5212
有石	-11.5213
者可	-11.5213
寂寥	-11.5213
萬邦	-11.5215
燼	-11.5216
不勞	-11.5218
紊	-11.522
民有	-11.5221
穆王	-11.5222
惲	-11.5222
中無	-11.5222
結成	-11.5222
蜀人	-11.5223
次明	-11.5226
類也	-11.5232
國也	-11.5232
烽	-11.5233
有三種	-11.5234
檀越	-11.5235
觀心	-11.5238
察之	-11.5239
拒之	-11.524
幽人	-11.5241
朝鮮	-11.5241
娛	-11.5242
服也	-11.5247
子厚	-11.5247
赭	-11.5249
吉甫	-11.525
至徳	-11.525
郡人	-11.525
朞	-11.5251
樓臺	-11.5251
臟	-11.5252
二十卷	-11.5253
州城	-11.5255
太史公	-11.5255
文獻	-11.5261
從上	-11.5262
昔有	-11.5268
玷	-11.5268
以防	-11.5269
大旱	-11.5269
久而	-11.5269
胡氏曰	-11.5271
中書侍郎	-11.5272
聖者	-11.5272
霏	-11.5273
年六十	-11.5275
為貴	-11.5277
德山	-11.5279
攢	-11.5281
六道	-11.5282
必當	-11.5282
肚	-11.5283
所問	-11.5283
從征	-11.5285
又按	-11.5289
吾道	-11.5289
明了	-11.5289
毆	-11.529
作是說	-11.5291
之比	-11.5292
雞鳴	-11.5295
異生	-11.5296
氣血	-11.5296
孰能	-11.5298
嶼	-11.5298
吾聞	-11.5298
說戒	-11.53
者何也	-11.53
瑛	-11.5301
江北	-11.5302
一切處	-11.5302
遂成	-11.5306
同歸	-11.5306
苦行	-11.5306
既是	-11.5307
雖多	-11.5309
自當	-11.5309
領軍	-11.531
海水	-11.5311
卒于	-11.5311
與民	-11.5311
雖在	-11.5311
紈	-11.5312
虵	-11.5312
何曾	-11.5314
龍山	-11.5318
意欲	-11.5319
次日	-11.532
▁述曰	-11.5321
其年	-11.5321
礬	-11.5321
職官	-11.5322
誚	-11.5322
蔡氏	-11.5324
者不可	-11.5327
數百人	-11.5331
騶	-11.5333
薦之	-11.5335
能斷	-11.5336
侯之	-11.5338
願陛下	-11.5339
尙	-11.534
無上正等菩提	-11.534
起兵	-11.5341
猶言	-11.5342
綦	-11.5342
太乙	-11.5343
陁	-11.5345
不辭	-11.5346
本覺	-11.5347
之由	-11.535
力行	-11.5352
二百四十	-11.5354
▁三月	-11.5355
各異	-11.5355
定慧	-11.5356
思議	-11.5357
五臟	-11.5359
六卷	-11.536
頌云	-11.536
端正	-11.5361
腕	-11.5362
靈臺	-11.5362
扆	-11.5364
不存	-11.5365
近者	-11.5365
林中	-11.5365
覊	-11.5365
十二卷	-11.5367
可見矣	-11.5367
防風	-11.5368
蒼梧	-11.537
▁第	-11.537
而坐	-11.5372
八寸	-11.5372
於身	-11.5374
傭	-11.5376
南泉	-11.5377
之卦	-11.5378
為誰	-11.5381
之右	-11.5384
甃	-11.5385
前來	-11.5386
臣愚	-11.5386
浙西	-11.5387
苓	-11.5389
鬘	-11.5389
且以	-11.5389
動則	-11.5392
與同	-11.5393
棋	-11.5397
山居	-11.5398
砥	-11.5398
長慶	-11.5399
久不	-11.5399
幕府	-11.54
序曰	-11.5401
若作	-11.5401
皆云	-11.5402
經說	-11.5403
湊	-11.5404
尤為	-11.5405
重陽	-11.5405
斯民	-11.5406
▁六月	-11.5407
復見	-11.541
從今	-11.541
不啻	-11.541
▁八月	-11.5411
詡	-11.5412
清濁	-11.5413
斵	-11.5413
鑽	-11.5413
而化	-11.5413
有奇	-11.5416
刁	-11.5417
秤	-11.5417
卭	-11.5421
無違	-11.5423
者猶	-11.5424
年八十	-11.5432
令得	-11.5433
偪	-11.5434
人進士	-11.5434
奴婢	-11.5434
可考	-11.5435
太行	-11.5435
不害	-11.5437
分為二	-11.5438
辛苦	-11.5439
皇祖	-11.5439
鴟	-11.5444
不輕	-11.5449
憂患	-11.5452
劈	-11.5452
杜牧	-11.5453
進而	-11.5453
雲雨	-11.5454
樞宻	-11.5457
本部	-11.546
華亭	-11.5461
金吾	-11.5464
鬛	-11.5465
舉兵	-11.5466
埀	-11.5466
西安	-11.5466
超然	-11.5466
圖經	-11.5469
不齊	-11.547
真心	-11.547
曹伯	-11.5472
惟是	-11.5472
孫子	-11.5474
㡌	-11.5474
寂寂	-11.5476
霆	-11.5479
下結	-11.548
俛	-11.548
致之	-11.5481
彖曰	-11.5483
佛教	-11.5484
否則	-11.5484
魏志	-11.5485
芹	-11.5485
羗	-11.5488
初中	-11.5488
老君	-11.5489
慶厯	-11.5491
化身	-11.5494
戕	-11.5494
飱	-11.5494
能作	-11.5495
不義	-11.5501
㠯	-11.5504
北流	-11.5504
㑹要	-11.5504
宣子	-11.5505
性之	-11.5505
同也	-11.5505
果有	-11.5507
有神	-11.5509
初禪	-11.5513
當在	-11.5513
亦不得	-11.5513
病人	-11.5514
力士	-11.5515
總是	-11.5516
三才	-11.5516
嘉禾	-11.5517
踰年	-11.5517
二門	-11.5517
無主	-11.5519
度人	-11.5519
長夜	-11.552
臨終	-11.552
三百里	-11.5522
痞	-11.5523
馬祖	-11.5523
御史臺	-11.5524
五藏	-11.5525
今既	-11.5526
菁	-11.5527
乾之	-11.5528
皇帝陛下	-11.5533
大意	-11.5534
聖恩	-11.5534
萬行	-11.5535
反正作	-11.5537
國家之	-11.5537
此類	-11.5537
臨海	-11.5538
白雪	-11.5538
師古	-11.5539
君父	-11.5539
論其	-11.554
▁僧問	-11.554
斯言	-11.5541
慶元	-11.5542
犯者	-11.5542
實在	-11.5544
如晉	-11.5544
地下	-11.5548
吾心	-11.5552
人力	-11.5552
燮	-11.5553
中孚	-11.5557
乎夫	-11.5561
治國	-11.5562
何敢	-11.5564
題名	-11.5564
可行	-11.5568
十載	-11.5572
五萬	-11.5572
萎	-11.5572
運河	-11.5573
大中	-11.5573
京口	-11.5573
億萬	-11.5574
江寧	-11.5575
部落	-11.5575
故須	-11.5579
缾	-11.558
大帝	-11.5582
十住	-11.5583
疑之	-11.5583
之戒	-11.5585
叔向	-11.5585
煨	-11.5585
瞞	-11.5588
不進	-11.5589
娜	-11.559
欲知	-11.559
離諸	-11.5591
不傳	-11.5593
每嵗	-11.5593
▁白术	-11.5593
五曰	-11.5593
明洪武	-11.5595
三諦	-11.5596
食前	-11.5596
瞎	-11.5596
未嘗有	-11.5598
神主	-11.5599
以立	-11.5599
喝一喝	-11.5604
及至	-11.5604
親之	-11.5604
嘉之	-11.5607
徳宗	-11.5608
中郎將	-11.5608
不常	-11.5609
嘗謂	-11.5612
惡人	-11.5613
月日	-11.5613
譖	-11.5613
真性	-11.5614
疳	-11.5614
菊花	-11.5616
之遂	-11.5616
當來	-11.5618
娑嚩	-11.5619
惠方	-11.5619
優游	-11.5619
舊作	-11.562
或从	-11.5621
作用	-11.5622
以應	-11.5623
卿等	-11.5623
嫗	-11.5624
一切世間	-11.5625
不隨	-11.5629
聖教	-11.563
石膏	-11.5634
明朝	-11.5634
秋月	-11.5636
蹲	-11.5636
江河	-11.5639
年來	-11.5639
言則	-11.5641
維摩	-11.5641
非正	-11.5642
白鶴	-11.5644
民心	-11.5646
欽此	-11.5647
得入	-11.5647
照例	-11.5649
遠近	-11.5649
腊	-11.565
右丞	-11.5651
黷	-11.5651
▁第三	-11.5655
雖非	-11.5655
菹	-11.5655
仍舊	-11.5656
曰若	-11.5657
正色	-11.5657
于外	-11.5657
桷	-11.566
規矩	-11.566
中秋	-11.5661
尊重	-11.5661
逗	-11.5665
宗社	-11.5666
死罪	-11.5666
解脫門	-11.5666
園林	-11.5667
鼓吹	-11.5668
心性	-11.5668
相生	-11.5669
台州	-11.5671
圯	-11.5671
三載	-11.5672
黄花	-11.5673
疽	-11.5673
諸部	-11.5675
晉王	-11.5675
惠公	-11.5676
齊魯	-11.5678
但云	-11.5678
吻	-11.5679
新詩	-11.5679
全身	-11.568
缶	-11.5682
一室	-11.5682
誰為	-11.5682
第二十	-11.5684
封疆	-11.5685
河上	-11.5685
魯公	-11.5686
紓	-11.5687
大破之	-11.5688
少牢	-11.5689
風起	-11.5691
人謂	-11.5693
相親	-11.5694
飲水	-11.5694
受業	-11.5695
崧	-11.5695
養生	-11.5697
過此	-11.5697
之勝	-11.5698
金城	-11.5699
告曰	-11.57
言此	-11.57
圖之	-11.57
蘭亭	-11.5701
甚者	-11.5701
一小	-11.5702
苕	-11.5703
上士	-11.5705
雷雨	-11.5706
異日	-11.5706
瀕	-11.5707
▁盧	-11.5707
甚於	-11.5707
生物	-11.5708
▁十年	-11.5711
太皇太后	-11.5711
約束	-11.5712
則不然	-11.5712
炤	-11.5716
▁䟽	-11.5719
等項	-11.5719
纁	-11.5719
太祝	-11.572
痩	-11.572
大成	-11.5722
集傳	-11.5724
扞	-11.5729
釜	-11.5729
小參	-11.5729
漢陽	-11.5729
王母	-11.5729
能持	-11.5733
先主	-11.5733
壯士	-11.5734
豐年	-11.5736
韓信	-11.5737
為他	-11.5738
常州	-11.5738
秃	-11.574
利也	-11.5743
字也	-11.5751
湖北	-11.5752
言事	-11.5752
平章事	-11.5753
之良	-11.5754
秋色	-11.5754
揜	-11.5757
竹林	-11.5757
曰臣聞	-11.5757
汲汲	-11.5758
昶	-11.5758
明主	-11.5759
觀此	-11.5759
西路	-11.5759
也於是	-11.576
亦與	-11.576
深山	-11.5761
萬方	-11.5762
依法	-11.5764
郎官	-11.5764
為宗	-11.5765
而受	-11.5766
造物	-11.5766
幃	-11.5766
魯之	-11.5769
器械	-11.5769
莫知	-11.5773
梁王	-11.5774
大千	-11.5775
不愛	-11.5775
轉法輪	-11.5776
通用	-11.5777
也注	-11.5779
開門	-11.578
為重	-11.5781
若謂	-11.5782
應天	-11.5784
妻李氏	-11.5785
易也	-11.5786
也是故	-11.5787
為天子	-11.5791
自見	-11.5791
山海	-11.5791
置於	-11.5793
至公	-11.5793
也說文	-11.5793
立名	-11.5794
五欲	-11.5796
治也	-11.5796
閃	-11.5797
甲兵	-11.5798
數十人	-11.5799
得成	-11.58
建中	-11.5801
發菩提心	-11.5802
疑惑	-11.5805
不墮	-11.5805
朋黨	-11.5805
帝王之	-11.5807
瑚	-11.5807
霹靂	-11.5808
小過	-11.5811
言行	-11.5812
此之謂	-11.5812
愔	-11.5812
淘	-11.5814
山色	-11.5814
泝	-11.5815
翬	-11.5815
躔	-11.5816
筌	-11.5826
萬夀	-11.5827
二十九年	-11.5828
亦在	-11.5828
及於	-11.583
睂	-11.5832
大父	-11.5832
王元	-11.5832
乃曰	-11.5833
守禦	-11.5836
之色	-11.5836
自下	-11.5838
遊戲	-11.5841
伐齊	-11.5841
徤	-11.5842
如常	-11.5842
䜛	-11.5843
四禪	-11.5845
生起	-11.5846
婺	-11.5846
將欲	-11.5847
之辭也	-11.5847
以取	-11.5848
喜怒	-11.5848
也既	-11.5849
言我	-11.585
染污	-11.5852
常熟	-11.5852
禁止	-11.5852
即非	-11.5853
棃	-11.5853
應作	-11.5855
宛轉	-11.5855
皆謂	-11.5858
欲為	-11.5858
副將	-11.586
白水	-11.5861
若使	-11.5861
治道	-11.5862
無毒	-11.5862
得生	-11.5862
不退轉	-11.5863
同日	-11.5865
亦知	-11.5865
想見	-11.5866
行宫	-11.5866
本意	-11.5869
討賊	-11.587
閻浮提	-11.5871
事實	-11.5871
曹操	-11.5871
中宗	-11.5872
頂禮	-11.5873
有可	-11.5873
若何	-11.5873
撼	-11.5874
莅	-11.5874
亡國	-11.5875
罷之	-11.5878
奏言	-11.5879
嫂	-11.588
俱在	-11.588
屈原	-11.5881
其詞	-11.5881
愜	-11.5888
甑	-11.5888
太過	-11.5889
爾雅曰	-11.5891
自取	-11.5891
夜雨	-11.5895
記之	-11.5895
陸氏	-11.5896
方能	-11.5896
其生	-11.5898
殱	-11.5898
更生	-11.5898
通行	-11.5901
語云	-11.5903
曰陛下	-11.5904
舶	-11.5905
魏公	-11.5906
崑	-11.5908
忽見	-11.5912
枷	-11.5913
付之	-11.5915
之以為	-11.5915
性相	-11.5917
敵人	-11.5917
元嘉	-11.5918
啜	-11.5918
笈	-11.5918
仁人	-11.5918
方伯	-11.5918
衂	-11.5919
特穆爾	-11.5919
風寒	-11.592
霓	-11.5923
見于	-11.5923
郡公	-11.5923
深處	-11.5925
蕭然	-11.5927
當日	-11.5928
應有	-11.5929
臣某	-11.593
加減	-11.5931
跌	-11.5932
後二	-11.5932
其學	-11.5933
之本也	-11.5935
浩浩	-11.5935
命者	-11.5938
備矣	-11.5939
智力	-11.5941
以知	-11.5942
㤙	-11.5942
牓	-11.5946
頋	-11.5947
蒜	-11.5947
體之	-11.5947
流出	-11.5948
鳯翔	-11.5949
在縣北	-11.5949
三陽	-11.595
上流	-11.5951
曄	-11.5952
家語	-11.5955
升堂	-11.5955
異名	-11.596
方外	-11.596
祖母	-11.5962
近於	-11.5963
方等	-11.5963
依依	-11.5965
居其	-11.5967
畤	-11.5967
故今	-11.5967
頂上	-11.5968
一喝	-11.5969
誦經	-11.5969
農夫	-11.597
雇	-11.5972
布政司	-11.5975
夜深	-11.5979
㒺	-11.5979
清江	-11.598
弱冠	-11.598
潑	-11.5982
塋	-11.5982
公與	-11.5983
艇	-11.5984
州軍	-11.5985
茨	-11.5986
勿用	-11.5988
己之	-11.5991
桔梗	-11.5993
於家	-11.5994
大節	-11.5997
之誤	-11.5997
春雨	-11.5998
奐	-11.5999
一百六十	-11.6
之子也	-11.6004
大河	-11.6005
獨不	-11.6005
無得	-11.6005
賡	-11.6006
小雅	-11.6007
東萊	-11.6008
隂氣	-11.601
誐	-11.6011
者爲	-11.6012
亾	-11.6014
與王	-11.6014
成人	-11.6015
經過	-11.6017
蒯	-11.6017
湖水	-11.6019
一大	-11.602
乃與	-11.6021
之威	-11.6022
法王	-11.6023
黄鐘	-11.6024
琪	-11.6026
掀	-11.6026
扶桑	-11.6029
空山	-11.603
上皇	-11.603
手執	-11.6033
遂與	-11.6034
亦可以	-11.6034
佛南無	-11.6036
馬甲	-11.6037
蕉	-11.6037
淳化	-11.6038
而外	-11.6038
必至	-11.604
靖康	-11.6041
曰君子	-11.6041
老矣	-11.6042
五戒	-11.6042
主上	-11.6043
相類	-11.6047
尚在	-11.6049
列國	-11.6051
湛然	-11.6052
是亦	-11.6054
康王	-11.6055
圓成	-11.6055
邪氣	-11.6056
磔	-11.6056
王后	-11.6057
塚	-11.6059
不好	-11.606
燕王	-11.6061
纛	-11.6061
雖是	-11.6062
朝野	-11.6064
不時	-11.6064
雪山	-11.6064
臣僚	-11.6066
何氏	-11.6067
其政	-11.6068
檀弓	-11.6068
亂也	-11.6069
今有	-11.6069
中夜	-11.607
凡所	-11.6071
大神	-11.6071
除之	-11.6072
酒食	-11.6073
淳熙	-11.6074
人中	-11.6076
不特	-11.6081
直至	-11.6082
糟	-11.6083
而逝	-11.6085
浩然	-11.6087
萬七千	-11.609
玲瓏	-11.609
鈐	-11.6091
蛙	-11.6092
何等為	-11.6092
從何	-11.6093
丸如	-11.6093
髙明	-11.6094
灌頂	-11.6096
築城	-11.6097
筆帖式	-11.6097
郭氏	-11.6101
夫以	-11.6101
▁薛	-11.6102
與前	-11.6104
魏王	-11.6104
我聞	-11.6104
陸機	-11.6106
憔悴	-11.6106
瘳	-11.6107
瀟湘	-11.6108
名者	-11.6109
漢人	-11.6109
五方	-11.6112
人材	-11.6112
貴妃	-11.6113
不拜	-11.6114
銀兩	-11.6115
勞苦	-11.612
熏習	-11.612
漣	-11.612
痿	-11.612
無體	-11.6122
不似	-11.6123
河道	-11.6124
凡人	-11.6125
羿	-11.6125
覬	-11.6126
請於	-11.6127
楞	-11.6127
諸有	-11.613
皁	-11.6131
▁欽定	-11.6132
豉	-11.6132
以慰	-11.6133
宫人	-11.6134
文一	-11.6134
所施	-11.6134
易以	-11.6136
名之曰	-11.6137
循環	-11.6137
即時	-11.6137
大梁	-11.6137
讙	-11.6138
漢書曰	-11.6138
揲	-11.6139
太息	-11.614
泌	-11.6141
太山	-11.6141
縻	-11.6142
氓	-11.6142
不親	-11.6142
禮部侍郎	-11.6145
四眾	-11.6148
真定	-11.6148
奪之	-11.6149
其制	-11.615
分野	-11.6151
丁香	-11.6154
娑婆	-11.6155
泠	-11.6157
▁云何	-11.6158
玉帛	-11.6158
反又	-11.6158
赫赫	-11.6158
舟楫	-11.6161
而發	-11.6161
任其	-11.6161
不悟	-11.6164
譎	-11.6165
四十七	-11.6168
嘻	-11.6168
請問	-11.6168
夏日	-11.6169
情形	-11.6169
行在	-11.617
婆沙	-11.617
邊際	-11.617
獨行	-11.6176
陽春	-11.6177
魯國	-11.6177
無差	-11.6177
也所以	-11.6179
四十三	-11.618
廨	-11.618
漉	-11.618
皆自	-11.6181
磴	-11.6181
生成	-11.6181
▁勅	-11.6184
異端	-11.6185
三門	-11.6185
篩	-11.6186
釋奠	-11.6186
五十四	-11.6186
原本	-11.6187
心法	-11.6187
之時也	-11.6189
有名	-11.619
劭	-11.6191
以詩	-11.6191
用人	-11.6191
閙	-11.6193
尺二寸	-11.6193
粱	-11.6196
字元	-11.6198
紏	-11.6199
有德	-11.6201
位中	-11.6202
遍知	-11.6204
大驚	-11.6204
憍	-11.6207
㳂	-11.6207
目連	-11.6208
d	-11.621
伽藍	-11.6211
浙東	-11.6212
當今	-11.6213
曦	-11.6213
不達	-11.6214
存之	-11.6215
躭	-11.6218
文宗	-11.6218
我說	-11.6221
旦夕	-11.6221
始生	-11.6223
公諱	-11.6224
不審	-11.6225
顓頊	-11.6228
慈心	-11.6228
其失	-11.6229
楨	-11.6229
麥門冬	-11.6229
復還	-11.6232
諫官	-11.6232
五音	-11.6233
以實	-11.6234
七寸	-11.6235
只如	-11.6235
謳	-11.6238
積聚	-11.6239
▁贊曰	-11.6239
聞此	-11.6241
一國	-11.6242
十善	-11.6245
兩儀	-11.6246
一切佛	-11.6246
祖曰	-11.6246
大矣	-11.6248
▁防風	-11.6248
兒孫	-11.6248
又南	-11.6248
於義	-11.6252
二品	-11.6252
監軍	-11.6253
阡	-11.6254
屣	-11.6257
流俗	-11.6258
周室	-11.6258
全無	-11.6258
大興	-11.6259
髣髴	-11.626
可取	-11.6262
進賢	-11.6262
瑀	-11.6266
好事	-11.6266
而益	-11.6266
之旨	-11.6268
考證	-11.6268
無對	-11.6269
破壞	-11.627
太平興國	-11.6274
事物	-11.6275
三山	-11.6276
目之	-11.6276
蚊	-11.6276
▁蕭	-11.6278
自己	-11.628
大使	-11.6281
各處	-11.6283
制之	-11.6284
炫	-11.6288
西階	-11.6288
立廟	-11.6291
穀梁	-11.6292
薇	-11.6293
萬四千	-11.6295
兩句	-11.6296
自非	-11.6296
陳皮	-11.6298
時中	-11.6299
者先	-11.6301
盛衰	-11.6302
寂然	-11.6302
飈	-11.6302
珣	-11.6302
之所在	-11.6304
食後	-11.6304
其來	-11.6305
將至	-11.6306
墓在	-11.6307
要之	-11.6309
十有六	-11.6309
按察使	-11.631
晡	-11.6311
益之	-11.6311
優婆塞	-11.6314
衆皆	-11.6315
少保	-11.6315
韓魏	-11.6316
不遷	-11.6316
六塵	-11.6317
小學	-11.6317
自生	-11.6321
無失	-11.6323
幔	-11.6324
六十二	-11.6325
珠玉	-11.6326
非吾	-11.6327
慵	-11.6327
湯武	-11.6328
當然	-11.6329
行營	-11.633
万	-11.6332
大率	-11.6332
皮弁	-11.6334
謂曰	-11.6334
親見	-11.6335
歸妹	-11.6336
國師	-11.6338
而往	-11.6339
過之	-11.6341
有疑	-11.6341
泰和	-11.6347
世所	-11.6347
彘	-11.6349
守令	-11.635
阿僧祇	-11.6351
長養	-11.6353
孔安國	-11.6354
而不言	-11.6354
恒河沙	-11.6356
之貌	-11.6356
永昌	-11.6356
為天	-11.6356
鄞	-11.636
承㫖	-11.6361
宫殿	-11.6361
特進	-11.6362
身命	-11.6363
白髮	-11.6363
者多矣	-11.6368
即無	-11.6368
晤	-11.6369
千八百	-11.637
春水	-11.637
豈獨	-11.637
諸大	-11.6371
受苦	-11.6371
經綸	-11.6371
精氣	-11.6371
顯現	-11.6376
萬壽	-11.6376
力戰	-11.6377
百億	-11.6377
帝以	-11.6378
帝君	-11.6378
衛人	-11.638
能行	-11.6382
吏部侍郎	-11.6383
西至	-11.6384
名士	-11.6384
首領	-11.6385
洞天	-11.6386
槌	-11.6386
不染	-11.6387
彼岸	-11.6389
猴	-11.6391
白芷	-11.6392
立春	-11.6393
鞞	-11.6394
恒沙	-11.6397
光禄大夫	-11.6398
任運	-11.6401
故受之以	-11.6402
糠	-11.6403
之所為	-11.6404
西門	-11.6404
又姓	-11.6404
逺而	-11.6406
四象	-11.6408
戰於	-11.6408
為利	-11.6409
綱紀	-11.6411
民田	-11.6411
犒	-11.6413
尺寸	-11.6414
壝	-11.6418
日益	-11.6418
奏議	-11.6419
如一	-11.6419
臣以	-11.6419
時年	-11.6422
依他	-11.6424
□□	-11.6424
獨有	-11.6424
犁	-11.6433
四十一	-11.6434
城隍	-11.6437
漢志	-11.6438
二法	-11.6438
襍	-11.6438
五事	-11.6439
御前	-11.644
須陀洹	-11.644
縣學	-11.6443
▁是故	-11.6444
剰	-11.6444
示人	-11.6445
駑	-11.6446
以從	-11.6446
姑蘇	-11.6447
為治	-11.6448
險阻	-11.6451
大厯	-11.6452
以天下	-11.6452
之廟	-11.6453
太甲	-11.6453
逖	-11.6453
斜陽	-11.6453
今在	-11.6455
上官	-11.6456
聖諦	-11.6458
鑲黄旗	-11.6461
光禄	-11.6462
龜山	-11.6462
据	-11.6464
阿彌陀佛	-11.6467
圓教	-11.6467
金丹	-11.647
能見	-11.647
豈敢	-11.6471
丙丁	-11.6471
柰何	-11.6473
究其	-11.6474
疹	-11.6474
動静	-11.6475
曲折	-11.6475
楞嚴	-11.6476
集解	-11.6476
前世	-11.6482
末後	-11.6482
將有	-11.6483
溼	-11.6483
發其	-11.6484
作一	-11.6486
蕤	-11.6486
曾祖	-11.6489
之表	-11.649
天子諸侯	-11.6491
次于	-11.6491
暎	-11.6492
鶚	-11.6492
我者	-11.6494
山北	-11.6495
古來	-11.6496
已後	-11.6496
士人	-11.6498
荆南	-11.6498
閣下	-11.6499
撻	-11.65
識其	-11.65
惡寒	-11.65
平江	-11.65
圏	-11.6501
格物	-11.6502
誹謗	-11.6503
責其	-11.6505
皆稱	-11.6507
姑洗	-11.6508
豈其	-11.651
璠	-11.651
紹聖	-11.6511
至孝	-11.6512
或可	-11.6512
總名	-11.6514
徭	-11.6514
咽喉	-11.6514
禮官	-11.6515
君臣之	-11.6516
流離	-11.6516
所向	-11.6518
紅塵	-11.6518
又非	-11.652
一切皆	-11.6523
藐	-11.6524
有箇	-11.6524
諸山	-11.6525
窈窕	-11.6525
辨之	-11.6527
聖慈	-11.6528
妙用	-11.6531
見寄	-11.6532
鳳翔	-11.6535
誓願	-11.6535
為最	-11.6536
光輝	-11.6537
其舊	-11.6537
太監	-11.6539
中書門下	-11.6539
而西	-11.6539
噪	-11.6542
萬頃	-11.6543
治罪	-11.6543
詔令	-11.6543
俶	-11.6548
遒	-11.6551
學官	-11.6552
宗皇帝	-11.6552
數里	-11.6553
此説	-11.6555
同體	-11.6555
然猶	-11.6555
倉卒	-11.6555
故非	-11.6556
諜	-11.6557
老夫	-11.6557
不能得	-11.6558
百四十	-11.6559
洙	-11.6561
賓主	-11.6561
于齊	-11.6561
崇徳	-11.6561
以私	-11.6561
此句	-11.6564
若一切智智清淨	-11.6566
之祭	-11.6567
若在	-11.6567
今初	-11.6567
一貫	-11.6567
郯	-11.6567
指揮使	-11.6568
奨	-11.6569
也但	-11.6571
天下之人	-11.6572
諸菩薩摩訶薩	-11.6573
隱居	-11.6573
之親	-11.6573
齊師	-11.6574
泳	-11.6576
藏於	-11.6577
煜	-11.6578
十有八	-11.6579
自利	-11.658
獨坐	-11.6581
圍繞	-11.6582
之訓	-11.6583
告于	-11.6583
居官	-11.6583
詹事	-11.6584
之域	-11.6584
竭力	-11.6586
圜丘	-11.6586
墊	-11.6587
鬟	-11.6587
五十三	-11.6587
八卷	-11.6588
平時	-11.6588
了無	-11.6589
於王	-11.6589
其主	-11.6589
刑獄	-11.6589
文曰	-11.6589
或因	-11.659
仲春	-11.6592
翎	-11.6593
貍	-11.6593
泡	-11.6594
古之人	-11.6596
悴	-11.6599
白鹿	-11.6599
於西	-11.66
宗即位	-11.66
將相	-11.6601
天聖	-11.6602
嬾	-11.6604
竊以	-11.6605
山頂	-11.6606
二百里	-11.6607
濟濟	-11.6607
煬帝	-11.6607
大赦	-11.6609
可勝	-11.661
經略	-11.661
如夢	-11.6611
王佛	-11.6611
功能	-11.6613
春草	-11.6613
以顯	-11.6616
利而	-11.6616
登髙	-11.6623
世傳	-11.6625
經年	-11.6628
閏月	-11.6631
邊事	-11.6632
不等	-11.6634
配天	-11.6634
不多	-11.6635
遂使	-11.6635
難知	-11.6635
為五	-11.6635
呪曰	-11.6636
如玉	-11.6637
加恩	-11.664
安忍	-11.664
事務	-11.6642
寺僧	-11.6643
)」	-11.6644
天津	-11.6647
水名	-11.6647
齊國	-11.6647
縱橫	-11.6648
住於	-11.6648
典刑	-11.665
鬲	-11.6651
上聞	-11.6654
悔過	-11.6654
鐘鼓	-11.6654
太陰	-11.6655
覘	-11.6657
達於	-11.6658
縣名	-11.6658
飛龍	-11.666
箸	-11.666
以至於	-11.6661
待詔	-11.6664
景泰	-11.6664
兜	-11.6665
侍讀	-11.6665
據此	-11.6666
戰而	-11.6667
浮屠	-11.6667
三觀	-11.6669
秦之	-11.6669
一氣	-11.6669
羽翼	-11.6672
土木	-11.6672
百工	-11.6672
▁蔡	-11.6674
供奉	-11.6675
麽	-11.6676
入定	-11.6681
飜	-11.6681
士庶	-11.6682
卷第十	-11.6683
䜟	-11.6684
毳	-11.6684
少而	-11.6685
所化	-11.6687
讃	-11.6689
唯心	-11.6689
馬上	-11.6689
玉山	-11.669
剏	-11.669
安世	-11.6691
阿含	-11.6692
燿	-11.6692
潄	-11.6692
馬氏	-11.6693
識得	-11.6693
孔明	-11.6695
南唐	-11.6696
▁t	-11.6697
以制	-11.6698
流注	-11.6699
何益	-11.67
度之	-11.6702
中說	-11.6703
大觀	-11.6704
必死	-11.6706
則易	-11.6707
離騷	-11.6707
天下之事	-11.6709
至心	-11.6711
數十年	-11.6712
西戎	-11.6713
未央	-11.6714
鉗	-11.6715
風光	-11.6716
唯願	-11.6716
得大	-11.6719
令史	-11.6719
五聲	-11.672
有遺	-11.6723
茅屋	-11.6723
公㑹	-11.6724
不減	-11.6724
圖一	-11.6725
大射	-11.6725
山名	-11.6726
舫	-11.6728
都監	-11.6729
漕運	-11.6729
願得	-11.673
數千里	-11.6732
瞳	-11.6733
民生	-11.6733
理㑹	-11.6734
黏	-11.6735
之黨	-11.6736
非禮也	-11.6737
六卿	-11.674
本司	-11.674
遄	-11.6741
捨離	-11.6741
擬議	-11.6741
扃	-11.6742
轟	-11.6742
弑其君	-11.6743
諸賢	-11.6744
有形	-11.6745
哆	-11.6747
所論	-11.675
石壁	-11.675
勢力	-11.6752
十餘人	-11.6753
經緯	-11.6755
天下之大	-11.6755
内地	-11.6756
閒居	-11.6757
虔	-11.6758
緦	-11.6759
曲直	-11.676
五字	-11.676
名義	-11.6761
於禮	-11.6761
而無所	-11.6762
月十五日	-11.6762
一統志	-11.6763
洋洋	-11.6764
="33"/>	-11.6765
眾多	-11.6767
龍蛇	-11.6767
庶民	-11.6767
梵王	-11.6767
制置	-11.6767
過人	-11.6768
犀角	-11.6769
秦檜	-11.6769
興國	-11.6772
父母之	-11.6773
雲間	-11.6775
▁馮	-11.6778
欬	-11.6779
書生	-11.6779
治民	-11.6779
日夕	-11.678
正德	-11.6782
災異	-11.6782
颯	-11.6782
各以其	-11.6782
錦繡	-11.6782
議曰	-11.6784
蘇氏	-11.6788
汝當	-11.6789
宣宗	-11.6789
半徑	-11.679
乾薑	-11.679
陽侯	-11.6791
端坐	-11.6791
更始	-11.6792
却是	-11.6793
螽	-11.6795
蚌	-11.6795
未㡬	-11.6796
人名	-11.6797
宿衛	-11.6797
重者	-11.6798
二世	-11.6798
南有	-11.6801
宛然	-11.6801
殿上	-11.6801
塵勞	-11.6802
柔順	-11.6802
不煩	-11.6804
始以	-11.6804
孔疏	-11.6808
徒以	-11.6808
貿	-11.681
中有二	-11.6811
大唐	-11.6812
丈餘	-11.6812
萬嵗	-11.6812
平公	-11.6813
央	-11.6814
所治	-11.6814
志也	-11.6815
磚	-11.6815
作法	-11.6815
其官	-11.6816
改正	-11.6819
相率	-11.6819
夜叉	-11.6819
膜	-11.6819
勤修	-11.682
外國	-11.6821
特賜	-11.6822
韓子	-11.6824
荊	-11.6824
装	-11.6825
侍臣	-11.6826
杏花	-11.6827
顚	-11.6827
未到	-11.6828
户口	-11.6828
以助	-11.6828
翥	-11.6829
失於	-11.6831
物物	-11.6832
丨丨之	-11.6834
論議	-11.6834
不可為	-11.6836
固非	-11.6836
唯一	-11.6837
木蘭	-11.6839
相通	-11.684
剃	-11.684
麵	-11.6841
不消	-11.6842
仁也	-11.6847
道行	-11.6848
一出	-11.6849
因緣故	-11.6849
有年	-11.6851
燠	-11.6852
南郡	-11.6852
卒哭	-11.6853
亦通	-11.6854
願力	-11.6857
在朝	-11.6858
二五	-11.6858
據實	-11.686
咒	-11.6861
五十八	-11.6861
乎故	-11.6863
月餘	-11.6864
河源	-11.6864
琬	-11.6866
宕	-11.6869
城邑	-11.6871
意謂	-11.6871
別教	-11.6872
陽剛	-11.6873
日行	-11.6875
文句	-11.6878
譬之	-11.688
恐怖	-11.6881
魏晉	-11.6884
豫州	-11.6887
昭明	-11.6887
别離	-11.6889
傷心	-11.6889
其源	-11.6889
胷中	-11.6891
木之	-11.6891
成湯	-11.6892
▁姚	-11.6892
何以知	-11.6893
兩岸	-11.6893
周天	-11.6894
訐	-11.6894
以理	-11.6894
隂柔	-11.6896
幾人	-11.6896
捜	-11.6898
七言	-11.69
天時	-11.6901
作是言	-11.6901
津液	-11.6901
十力	-11.6903
以法	-11.6904
善知	-11.6904
金闕	-11.6906
於三	-11.6909
又聞	-11.6909
三德	-11.6912
故書	-11.6914
中風	-11.6915
諦聽	-11.6916
駐防	-11.6916
以表	-11.6917
去後	-11.6919
登山	-11.6919
走馬	-11.6919
厚朴	-11.6919
世孫	-11.6921
其居	-11.6921
開府儀同三司	-11.6922
不踰	-11.6923
也余	-11.6923
魔王	-11.6924
㱕	-11.6925
膾	-11.6925
梔子	-11.6927
也聖人	-11.6929
怎	-11.693
羃	-11.693
千七百	-11.6931
大宗	-11.6931
同人	-11.6931
毛傳	-11.6932
春官	-11.6933
為亂	-11.6933
也或曰	-11.6935
統領	-11.6936
萬九千	-11.6937
其子孫	-11.6938
鹵簿	-11.694
生事	-11.694
又於	-11.694
覆藏	-11.6942
駐蹕	-11.6943
七十五	-11.6944
仰山	-11.6945
貧窮	-11.6945
元昊	-11.6946
宦官	-11.6947
初無	-11.6947
蓋以	-11.6953
科舉	-11.6954
永寧	-11.6954
戸部	-11.6958
實以	-11.6958
現在前	-11.6959
祕書	-11.6959
軍節度	-11.696
亡也	-11.696
故君子	-11.6964
與他	-11.6964
人來	-11.6966
聞是	-11.6967
本非	-11.6967
萼	-11.6967
其狀	-11.6968
滙	-11.6969
▁巻	-11.6973
未為	-11.6974
讌	-11.6974
西川	-11.6976
峒	-11.6977
冇	-11.6977
放下	-11.6977
盡矣	-11.6977
自外	-11.6977
象也	-11.6978
赤色	-11.6979
則自	-11.6979
枳殻	-11.698
喜樂	-11.6982
保定	-11.6985
仍令	-11.6985
告成	-11.6987
杜注	-11.6987
集賢	-11.6989
雄黄	-11.6989
白色	-11.699
見在	-11.699
以下皆	-11.6992
黄芩	-11.6992
讜	-11.6992
代宗	-11.6993
王者之	-11.6993
日三	-11.6995
一丸	-11.6995
禦之	-11.6995
雹	-11.6995
府庫	-11.6996
自昔	-11.6996
宗人	-11.6997
澡	-11.6997
已矣	-11.6998
五兩	-11.6998
韓詩	-11.7
故雖	-11.7
成於	-11.7
泉州	-11.7005
三合	-11.7006
地勢	-11.7006
罡	-11.7007
凛	-11.7007
幸而	-11.7007
王事	-11.701
僥倖	-11.701
甘肅	-11.701
不可以不	-11.7011
鴛	-11.7013
鼐	-11.7013
善政	-11.7013
幽王	-11.7014
以柔	-11.7014
其要	-11.7015
試之	-11.7015
假令	-11.7016
諸佛如來	-11.7018
而必	-11.7018
伐宋	-11.7019
都察院	-11.7019
范陽	-11.702
自陳	-11.702
大禮	-11.702
求諸	-11.702
即於	-11.702
墓誌	-11.7021
領兵	-11.7021
占曰	-11.7021
簿書	-11.7024
又能	-11.7024
無物	-11.7024
孔雀	-11.7028
也雖	-11.7028
果然	-11.7028
於事	-11.703
可疑	-11.7031
序云	-11.7031
我師	-11.7033
夏六月	-11.7034
所學	-11.7035
孜孜	-11.7035
耘	-11.7036
萬三千	-11.7036
河朔	-11.7038
聖祖	-11.7039
文言	-11.7042
汭	-11.7043
劉子	-11.7044
正黄旗	-11.7046
極樂	-11.7047
先賢	-11.7048
權衡	-11.7048
多方	-11.705
通州	-11.7051
覺知	-11.7053
生人	-11.7054
霜雪	-11.7054
有光	-11.7054
汾陽	-11.7054
郡邑	-11.7055
以給	-11.7058
同列	-11.7058
定州	-11.7058
遂至	-11.706
e	-11.706
工部尚書	-11.7061
百僚	-11.7062
作如是	-11.7065
也予	-11.7065
衣鉢	-11.7066
終不能	-11.7066
之險	-11.7067
化作	-11.7068
出乎	-11.7068
徳行	-11.7068
各五	-11.7068
字文	-11.7069
人以為	-11.7073
如實知	-11.7075
故園	-11.7076
多病	-11.7078
假使	-11.7079
▁或問	-11.7079
歸路	-11.7081
世諦	-11.7081
三元	-11.7082
劉禹錫	-11.7082
令我	-11.7083
或時	-11.7084
人丁	-11.7085
元日	-11.7088
度量	-11.7088
宗師	-11.7088
擴	-11.7089
二十萬	-11.709
自作	-11.7092
五十二	-11.7093
下車	-11.7093
或見	-11.7097
槽	-11.7098
袤	-11.71
籖	-11.71
華嚴經	-11.7101
亦宜	-11.7102
繚	-11.7103
廣漢	-11.7103
宦者	-11.7103
湖山	-11.7104
嵇	-11.7104
運使	-11.7105
利他	-11.7106
者正	-11.7107
無忌	-11.7108
吾家	-11.711
心地	-11.7111
僵	-11.7111
死矣	-11.7112
所共	-11.7113
為緣	-11.7114
所親	-11.7114
助之	-11.7114
種類	-11.7115
南國	-11.7115
等因	-11.7115
肴	-11.7118
▁吕	-11.7118
則失	-11.7119
匙	-11.7121
家家	-11.7124
三明	-11.7125
須彌山	-11.7125
天生	-11.7126
諸如來	-11.7129
欲去	-11.7131
執法	-11.7131
不開	-11.7131
至京師	-11.7133
飡	-11.7134
舜之	-11.7134
特牲	-11.7141
威神	-11.7141
之基	-11.7144
兄子	-11.7146
然非	-11.7148
某人	-11.7149
漠漠	-11.7149
變異	-11.7151
從官	-11.7152
始祖	-11.7153
傳言	-11.7153
吾將	-11.7154
彷彿	-11.7154
善業	-11.7155
不察	-11.7155
嘗與	-11.7156
聫	-11.7156
阨	-11.7157
在府城	-11.7158
應是	-11.716
欲與	-11.7161
民無	-11.7161
中國之	-11.7161
蜡	-11.7162
珍寶	-11.7162
聆	-11.7164
溪水	-11.7165
妙覺	-11.7165
居處	-11.7166
樓上	-11.7167
莫大於	-11.7167
而亡	-11.717
公至自	-11.7171
之藥	-11.7171
可食	-11.7173
五十七	-11.7174
令狐	-11.7175
三皇	-11.7177
風雷	-11.7178
親友	-11.7178
▁勑	-11.7179
淮安	-11.718
鹽鐵	-11.7182
快樂	-11.7183
永興	-11.7184
者以為	-11.7186
兵革	-11.7188
上都	-11.7189
臣請	-11.719
安於	-11.719
坎離	-11.719
一書	-11.719
兩頭	-11.7191
風動	-11.7192
為能	-11.7193
以喻	-11.7193
所記	-11.7195
西漢	-11.7196
布政	-11.7198
歐陽修	-11.7198
各有所	-11.7199
發生	-11.7201
一百一十	-11.7201
有命	-11.7203
一點	-11.7203
儋	-11.7204
乃使	-11.7205
池上	-11.7205
張衡	-11.7205
所發	-11.7206
愠	-11.7206
一夫	-11.7206
杼	-11.721
自然之	-11.721
復命	-11.7212
薤	-11.7214
堂前	-11.7214
考功	-11.7215
馮翊	-11.7216
今則	-11.7216
到任	-11.7216
絺	-11.7217
相知	-11.7218
門之外	-11.7219
」,	-11.7219
興起	-11.7223
而稱	-11.7223
之君子	-11.7224
離離	-11.7225
受者	-11.7226
執事者	-11.7228
行臺	-11.7229
佛在	-11.723
娯	-11.7231
人共	-11.7231
有終	-11.7233
皆名	-11.7233
太初	-11.7233
如我	-11.7233
石橋	-11.7235
俗作	-11.7237
窮理	-11.7238
不差	-11.7239
孟氏	-11.724
後至	-11.7241
而治	-11.7241
六國	-11.7242
化成	-11.7243
在縣	-11.7244
贑	-11.7244
自後	-11.7245
相識	-11.7247
增減	-11.7248
天女	-11.7249
涕泣	-11.725
其害	-11.7251
太微	-11.7252
為異	-11.7252
誤矣	-11.7252
日久	-11.7254
禇	-11.7254
赤白	-11.7254
長洲	-11.7255
五穀	-11.7255
考試	-11.7256
熈寧	-11.7257
彼佛	-11.7259
恍惚	-11.726
嘶	-11.7261
淂	-11.7262
謝靈運	-11.7262
復言	-11.7262
紀事	-11.7267
擇其	-11.7268
上生	-11.7272
本路	-11.7277
▁五月	-11.7279
今者	-11.7279
百川	-11.728
於秦	-11.7281
談笑	-11.7284
等四	-11.7284
大計	-11.7284
罔不	-11.7285
勳	-11.7286
阿修羅	-11.7286
承襲	-11.7287
破戒	-11.729
痊	-11.7293
精勤	-11.7293
性者	-11.7293
皆出	-11.7293
嵩山	-11.7295
瑄	-11.7296
諸佛菩薩	-11.7296
宰執	-11.7296
氣質	-11.7297
所貴	-11.7298
皮膚	-11.7298
為第一	-11.7299
懾	-11.7299
鄖	-11.7299
聖人之道	-11.7301
長也	-11.7303
落落	-11.7304
非徒	-11.7305
聖心	-11.7305
行處	-11.7307
聽其	-11.7307
封侯	-11.7309
七星	-11.7311
萬歲	-11.7313
朝陽	-11.7314
羣生	-11.7315
断	-11.7316
闘	-11.7316
秦始皇	-11.7316
此數	-11.7318
何嘗	-11.7319
詛	-11.7319
詘	-11.732
亭亭	-11.7321
尿	-11.7322
也君	-11.7323
雷電	-11.7324
頃刻	-11.7325
天然	-11.7325
八品	-11.7326
皇皇	-11.7326
家居	-11.7328
缽	-11.733
既以	-11.7331
俱舍	-11.7331
尹氏	-11.7331
大哉	-11.7332
色如	-11.7333
不果	-11.7334
阿耨多羅三藐三菩提	-11.7336
供給	-11.7336
忠厚	-11.7336
水勢	-11.7336
廬江	-11.7337
聲名	-11.7338
謔	-11.7338
鯀	-11.7338
愛樂	-11.734
伐楚	-11.734
▁汪	-11.7341
黄氏	-11.7342
列侯	-11.7346
冢宰	-11.7346
禪人	-11.7348
正字	-11.7349
之宗	-11.7349
百五十	-11.735
治其	-11.735
以充	-11.7351
形似	-11.7352
齊書	-11.7354
可信	-11.7355
梁州	-11.7355
香山	-11.7358
龐	-11.7358
何在	-11.7361
春光	-11.7362
數十萬	-11.7362
鏗	-11.7362
八音	-11.7365
晳	-11.7368
妙音	-11.7369
何言	-11.7369
武后	-11.7373
婆羅	-11.7376
武宗	-11.7376
曰天子	-11.7377
南征	-11.7377
就位	-11.7381
五十年	-11.7381
於其間	-11.7382
時方	-11.7383
怒曰	-11.7384
祖宗之	-11.7385
自我	-11.7385
王侯	-11.7386
之微	-11.7387
等正覺	-11.7387
等覺	-11.7388
即前	-11.7388
孫權	-11.7391
散亂	-11.7392
▁以上	-11.7392
此山	-11.7392
理事	-11.7394
零陵	-11.7395
今嵗	-11.7395
諸書	-11.7396
畿内	-11.7397
蕩蕩	-11.7398
四時之	-11.7398
於己	-11.7398
鈿	-11.7399
俗呼	-11.7401
錦衣	-11.7402
波濤	-11.7403
縉紳	-11.7404
所書	-11.7406
說文云	-11.7407
與物	-11.7408
異故	-11.7408
溪山	-11.7408
君家	-11.7408
魅	-11.741
滚	-11.7412
人康熙	-11.7415
縉	-11.7419
大火	-11.7419
即行	-11.7419
朝士	-11.7419
朝廷之	-11.742
亦須	-11.7421
謂我	-11.7421
蓑	-11.7422
虎賁	-11.7422
天下無	-11.7425
佯	-11.7425
乃出	-11.7426
蔡京	-11.7426
有客	-11.7429
入道	-11.7429
者能	-11.7432
玉皇	-11.7433
末世	-11.7433
死後	-11.7433
孫曰	-11.7435
遡	-11.7437
鎮撫	-11.7437
頭陀	-11.7438
諶	-11.7438
婚姻	-11.7439
乃自	-11.744
瀘	-11.7441
而失	-11.7443
根塵	-11.7443
嚥	-11.7443
器之	-11.7444
逐之	-11.7444
至其	-11.7446
羹	-11.7448
之左	-11.7449
圖畫	-11.745
交趾	-11.745
司馬相如	-11.7451
初句	-11.7452
而論	-11.7453
極微	-11.7455
其死	-11.7455
無禮	-11.7455
三王	-11.7457
失所	-11.7457
為性	-11.7457
欲見	-11.7459
一隻	-11.746
夜月	-11.746
非其人	-11.746
偈云	-11.7461
皆作	-11.7462
辯才	-11.7462
▁秋七月	-11.7463
已久	-11.7464
兒童	-11.7465
留後	-11.7465
三十餘	-11.7469
麝	-11.747
教者	-11.747
縶	-11.7473
酌量	-11.7473
馬融	-11.7476
年五十	-11.7476
之竒	-11.7478
器用	-11.7479
稍稍	-11.7479
月中	-11.748
遇之	-11.7481
湜	-11.7484
遣之	-11.7486
相待	-11.7486
羅剎	-11.7487
己卯	-11.7487
君以	-11.7488
勝負	-11.7491
本色	-11.7491
望見	-11.7491
梁武帝	-11.7492
心心	-11.7493
翌日	-11.7493
處置	-11.7493
樂章	-11.7494
之吏	-11.7494
林泉	-11.7494
弗能	-11.7495
我為	-11.7495
鐙	-11.7496
十有五	-11.7496
黄龍	-11.7497
紛紜	-11.7497
攅	-11.7498
鏃	-11.7498
作麼	-11.7498
▁尼	-11.75
入貢	-11.75
史館	-11.75
拽	-11.7503
咸平	-11.7505
是誰	-11.7506
砧	-11.7506
而莫	-11.7506
形體	-11.7507
逺人	-11.7508
初一	-11.7509
三丈	-11.751
感動	-11.751
壙	-11.7513
兒女	-11.7513
正中	-11.7513
萬緡	-11.7514
呼吸	-11.7519
▁槃	-11.752
若論	-11.752
亦無所	-11.752
儼然	-11.7522
爨	-11.7522
婆娑	-11.7525
承平	-11.7525
獠	-11.7527
長官	-11.7533
於廟	-11.7535
百神	-11.7535
斐	-11.7536
以便	-11.7536
不道	-11.7537
▁「『	-11.7537
檣	-11.7537
地形	-11.7538
亦難	-11.7539
然以	-11.754
八字	-11.7543
雨後	-11.7543
而安	-11.7545
佛事	-11.7545
諺	-11.7546
彧	-11.7547
一㸃	-11.7547
串	-11.7549
夢見	-11.7553
五十九	-11.7553
誦之	-11.7553
四國	-11.7554
書畫	-11.7557
衛將軍	-11.7557
一百七十	-11.7558
之所由	-11.7558
以興	-11.756
勝解	-11.7561
前輩	-11.7561
風波	-11.7561
一塵	-11.7563
眼見	-11.7563
者歟	-11.7564
▁答曰	-11.7565
奉聖㫖	-11.7565
落葉	-11.757
略說	-11.757
迓	-11.7571
鄉試	-11.7578
識界	-11.7584
而難	-11.7585
故先	-11.7586
從軍	-11.7586
麫	-11.7587
亡者	-11.7588
巘	-11.7589
桂陽	-11.7592
隠居	-11.7592
熒	-11.7592
視事	-11.7592
水土	-11.7593
比於	-11.7595
題云	-11.7597
猝	-11.7597
霰	-11.7599
崛	-11.7601
文徳	-11.7601
其族	-11.7601
母弟	-11.7602
筯	-11.7602
往昔	-11.7603
無緣	-11.7604
天威	-11.7605
州牧	-11.7606
無犯	-11.7608
問於	-11.7609
形於	-11.761
一盞	-11.7611
邦之	-11.7611
身為	-11.7611
胡為	-11.7612
有心	-11.7613
瓉	-11.7614
官制	-11.7616
京兆尹	-11.7617
腋	-11.7617
崇寧	-11.7619
也至於	-11.7619
進士第	-11.762
從祀	-11.7621
山曰	-11.7621
也雖然	-11.7623
房中	-11.7623
莊宗	-11.7624
㤀	-11.7624
跂	-11.7624
考工記	-11.7624
宗廟之	-11.7626
家風	-11.7628
今後	-11.763
佛語	-11.7631
即成	-11.7632
碗	-11.7633
門者	-11.7633
三朝	-11.7634
精兵	-11.7639
近代	-11.7641
演曰	-11.7642
不辨	-11.7642
楚師	-11.7643
予曰	-11.7643
前此	-11.7644
蝦	-11.7644
行故	-11.7645
墅	-11.7645
白帝	-11.7645
儁	-11.7648
菖蒲	-11.7648
束帛	-11.765
耳今	-11.7651
餼	-11.7653
有物	-11.7653
不能無	-11.7654
欲殺	-11.7654
張氏曰	-11.7657
星在	-11.7659
相為	-11.766
賢而	-11.7662
於魯	-11.7663
未安	-11.7664
悠然	-11.7664
六軍	-11.7665
教也	-11.7667
風氣	-11.7667
侯景	-11.7668
小事	-11.7669
千六百	-11.7669
憍尸迦	-11.767
宋玉	-11.767
說偈	-11.767
本體	-11.7671
一次	-11.7672
思念	-11.7672
不虞	-11.7672
櫂	-11.7676
生天	-11.7677
未曾有	-11.7677
四無量	-11.7679
集註	-11.768
無乃	-11.7681
具官某	-11.7684
能治	-11.7684
各別	-11.7685
五世	-11.7686
峴	-11.7687
作大	-11.769
與公	-11.769
利者	-11.7691
畫一	-11.7692
了了	-11.7692
安西	-11.7693
錮	-11.7693
刑部尚書	-11.7693
本經	-11.7697
留意	-11.7698
書名	-11.7698
五升	-11.7699
守其	-11.7699
前往	-11.7699
驍騎	-11.7701
唎	-11.7702
祭天	-11.7704
▁冬十月	-11.7705
虚實	-11.7706
不收	-11.7707
癢	-11.7707
蜚	-11.7707
軍馬	-11.7707
日月星辰	-11.7709
即能	-11.771
自安	-11.771
雲夢	-11.771
王氏曰	-11.7711
嗤	-11.7712
此豈	-11.7712
厚薄	-11.7712
彼人	-11.7712
無願	-11.7713
今復	-11.7713
古人之	-11.7714
頡	-11.7714
無射	-11.7715
徐氏	-11.7716
▁『	-11.7716
為己	-11.7718
當與	-11.7719
伊等	-11.772
偈頌	-11.772
無上菩提	-11.772
初總	-11.7721
豁然	-11.7721
為實	-11.7722
竹葉	-11.7722
患之	-11.7725
山陵	-11.7727
軍營	-11.773
又作麼生	-11.7731
昔年	-11.7731
耨	-11.7733
月下	-11.7734
莫測	-11.7734
二十人	-11.7734
私意	-11.7735
此五	-11.7735
其處	-11.7735
實錄	-11.7735
貧民	-11.7735
盛時	-11.7735
甚大	-11.7736
殺生	-11.7738
悼公	-11.7739
泗州	-11.7739
皆因	-11.774
能破	-11.7742
有益	-11.7742
我是	-11.7744
酤	-11.7747
㟁	-11.7747
石城	-11.7748
新羅	-11.7748
馬匹	-11.7748
筏	-11.7749
贛	-11.7751
郞	-11.7751
以剛	-11.7751
隗	-11.7752
諫曰	-11.7753
唐宋	-11.7753
之賜	-11.7753
有相	-11.7754
賫	-11.7754
王國	-11.7755
今又	-11.7755
空空	-11.7756
無害	-11.7756
三江	-11.7758
邑之	-11.7759
姥	-11.7759
弇	-11.776
卓然	-11.776
磧	-11.7761
魴	-11.7761
不念	-11.7761
多事	-11.7762
坼	-11.7763
不敢以	-11.7763
孰為	-11.7763
問其故	-11.7763
恁	-11.7764
物者	-11.7765
濂	-11.7765
比例	-11.7766
天寒	-11.7766
次序	-11.7767
室家	-11.7769
五十一	-11.777
及餘	-11.7771
空寂	-11.7771
賻	-11.7773
為甚	-11.7773
要害	-11.7773
以禦	-11.7774
當自	-11.7776
不調	-11.7778
報之	-11.7778
不休	-11.7779
令彼	-11.7779
法空	-11.7781
年月	-11.7782
武侯	-11.7782
繫之	-11.7783
不自知	-11.7783
三世諸佛	-11.7784
容易	-11.7784
溷	-11.7785
詣闕	-11.7785
公案	-11.7786
蕭何	-11.7787
官爵	-11.7788
無語	-11.7791
縹緲	-11.7792
召之	-11.7792
叅政	-11.7793
盛德	-11.7795
一十二	-11.7796
䙝	-11.7797
鍾山	-11.7798
春秋書	-11.7799
絜	-11.78
漢魏	-11.78
盡是	-11.78
篷	-11.7802
問云	-11.7807
失道	-11.7811
王使	-11.7812
二事	-11.7812
以和	-11.7813
增益	-11.7814
居上	-11.7815
鄣	-11.7815
北平	-11.7816
穏	-11.7817
從子	-11.7819
髠	-11.7821
人嘉靖	-11.7821
逍遙	-11.7822
逺方	-11.7822
金錢	-11.7823
琅	-11.7823
明宗	-11.7827
苦集	-11.7829
不留	-11.783
視聽	-11.7831
滔	-11.7831
始見	-11.7832
亦謂	-11.7833
數之	-11.7833
余曰	-11.7834
道君	-11.7835
録事	-11.7836
在官	-11.7836
之智	-11.7837
無自性	-11.784
堯舜之	-11.7841
邾子	-11.7841
曰善	-11.7841
東林	-11.7842
應時	-11.7846
禮曰	-11.7846
玉泉	-11.7847
農桑	-11.7847
我獨	-11.7849
▁茯苓	-11.785
都䕶	-11.785
有詔	-11.785
帝即位	-11.785
興元	-11.7851
南安	-11.7852
必待	-11.7856
數千人	-11.7856
㠶	-11.7857
其根	-11.7857
以徳	-11.7857
趁	-11.7858
困於	-11.7859
東晉	-11.7859
疾苦	-11.7859
聖智	-11.786
死亡	-11.7862
當從	-11.7864
韵	-11.7865
否曰	-11.7866
盛也	-11.7867
銑	-11.7868
犍	-11.7869
濓	-11.7869
善友	-11.7871
膀胱	-11.7872
趍	-11.7874
不答	-11.7876
敬也	-11.7876
夫人之	-11.7877
諸葛亮	-11.7877
與彼	-11.7879
蘚	-11.788
爾雅云	-11.788
復歸	-11.7881
菌	-11.7882
水自	-11.7883
公議	-11.7885
或復	-11.7887
掬	-11.7887
永斷	-11.7888
蔡侯	-11.7888
茆	-11.7889
部議	-11.789
經歴	-11.789
塜	-11.7891
名稱	-11.7891
容貌	-11.7892
中出	-11.7893
異乎	-11.7896
出則	-11.7897
分司	-11.7897
驍騎校	-11.7897
大種	-11.7897
順帝	-11.79
雨過	-11.79
取士	-11.7901
猶能	-11.7901
哲宗	-11.7903
後復	-11.7903
虺	-11.7904
安撫使	-11.7905
書於	-11.7906
定制	-11.7906
之積	-11.7906
延祐	-11.7908
養老	-11.7909
今來	-11.7911
無依	-11.7911
下民	-11.7912
子雲	-11.7912
籀	-11.7913
之所能	-11.7914
相和	-11.7914
統制	-11.7914
北地	-11.7917
數數	-11.7919
相得	-11.792
讞	-11.7922
此物	-11.7923
美之	-11.7924
我來	-11.7926
昭昭	-11.7928
流傳	-11.7929
安仁	-11.793
平居	-11.793
春分	-11.793
佛智	-11.793
曲沃	-11.7931
東井	-11.7932
改名	-11.7932
中天	-11.7935
未暇	-11.7936
拌	-11.7937
澮	-11.7937
矣乃	-11.7938
辭以	-11.7938
奇特	-11.7939
瑰	-11.7939
醖	-11.7939
常行	-11.794
德也	-11.7941
惡也	-11.7941
非想	-11.7942
癎	-11.7943
賢才	-11.7943
何似	-11.7944
委任	-11.7945
一宿	-11.7945
愛人	-11.7946
梁山	-11.7946
為惡	-11.7946
轉運司	-11.7948
之苦	-11.7948
䓁	-11.795
竊謂	-11.795
總兵官	-11.7951
鄭公	-11.7953
白露	-11.7954
同志	-11.7954
陬	-11.7955
劉公	-11.7955
或者	-11.7956
搔	-11.7956
壠	-11.7957
也周禮	-11.7959
並行	-11.7959
名實	-11.796
馬蹄	-11.7961
紫陽	-11.7965
明夷	-11.7968
現身	-11.797
天地間	-11.7972
語録	-11.7973
儐	-11.7974
諸煩惱	-11.7976
而北	-11.7978
神光	-11.7979
貢舉	-11.798
龍潭	-11.7982
本官	-11.7982
引證	-11.7982
如雨	-11.7983
伏誅	-11.7985
繅	-11.7986
神也	-11.7987
有限	-11.7987
人莫	-11.7987
五等	-11.7988
松栢	-11.7989
諸色	-11.7991
遺書	-11.7992
相距	-11.7993
暹	-11.7995
紬	-11.7996
豊	-11.7996
日在	-11.7997
直隸	-11.7997
此正	-11.7997
以教	-11.7997
上柱國	-11.7998
祭也	-11.8
爲一	-11.8
燈火	-11.8002
天下有	-11.8002
荔	-11.8006
城守	-11.8006
建國	-11.8007
内府	-11.8007
已盡	-11.8008
有文	-11.8008
毋得	-11.8012
𦦨	-11.8012
相當	-11.8013
楯	-11.8014
有所得	-11.8014
加於	-11.8015
風化	-11.8015
賾	-11.8016
雲霧	-11.8018
炷	-11.8018
細雨	-11.8019
深矣	-11.8021
南極	-11.8022
筋骨	-11.8023
徳而	-11.8023
辦事	-11.8024
刳	-11.8024
清廟	-11.8025
公論	-11.8026
祀典	-11.8026
上中下	-11.8027
蛻	-11.8028
入見	-11.8028
害也	-11.8029
縣城	-11.8029
差遣	-11.8029
知已	-11.803
頭目	-11.8033
三法	-11.8033
兩端	-11.8033
皆屬	-11.8033
中尉	-11.8033
飼	-11.8035
相分	-11.8036
讀為	-11.8037
詩有	-11.8038
晉之	-11.8038
▁第四	-11.8038
那得	-11.8039
漢水	-11.804
暘	-11.804
髙士	-11.8043
鎮江	-11.8046
之思	-11.8047
之惡	-11.8047
入水	-11.8048
藝文志	-11.8048
甚厚	-11.8048
鵰	-11.8049
如天	-11.8052
隨處	-11.8052
樂器	-11.8052
水銀	-11.8052
盛京	-11.8053
神呪	-11.8054
誰敢	-11.8054
波羅夷	-11.8055
獄訟	-11.8056
告於	-11.8059
酒酣	-11.806
明德	-11.806
皇祐	-11.8061
覺悟	-11.8062
五斗	-11.8062
賜爵	-11.8062
便喝	-11.8062
都督府	-11.8063
但知	-11.8063
。』」	-11.8064
朝覲	-11.8065
以避	-11.8069
雪峰	-11.8069
無涯	-11.807
石刻	-11.807
凡四	-11.8073
留心	-11.8074
所從	-11.8074
秋夜	-11.8076
▁No	-11.8077
不給	-11.8078
二部	-11.8078
爻辭	-11.8078
之材	-11.8078
奧	-11.8079
修築	-11.8079
王維	-11.808
祖廟	-11.8081
雨中	-11.8081
考異	-11.8081
城上	-11.8082
山頭	-11.8082
所過	-11.8083
賜以	-11.8083
塵土	-11.8084
導之	-11.8084
源流	-11.8088
輪王	-11.8089
固當	-11.8089
又北	-11.8089
都官	-11.809
則止	-11.8091
補闕	-11.8091
中都	-11.8094
塗之	-11.8094
南門	-11.8095
閹	-11.8098
攣	-11.8099
平縣	-11.8099
其終	-11.81
去蘆	-11.8102
隈	-11.8103
在地	-11.8104
亦謂之	-11.8105
即空	-11.8106
悔亡	-11.8106
醴泉	-11.8106
自天	-11.8108
聽法	-11.811
一切有情	-11.811
衘	-11.811
臨事	-11.8112
▁問曰	-11.8112
以全	-11.8113
百步	-11.8113
等物	-11.8113
阪	-11.8114
武臣	-11.8114
一葉	-11.8114
▁同前	-11.8114
闕下	-11.8117
滅後	-11.8117
柬	-11.8117
百八十	-11.8118
之族	-11.8118
執中	-11.8119
不遠	-11.8119
謂是	-11.812
濺	-11.8121
者由	-11.8121
一杯	-11.8122
▁跋	-11.8122
計之	-11.8122
其詩	-11.8122
分四	-11.8123
離垢	-11.8125
陽郡	-11.8126
終也	-11.8126
爇	-11.8126
後唐	-11.8126
仁和	-11.8129
白金	-11.8131
痔	-11.8133
儒林	-11.8134
北風	-11.8134
馘	-11.8135
恁麼則	-11.8135
瘍	-11.8137
能言	-11.814
他年	-11.8142
新舊	-11.8143
族人	-11.8143
閻浮	-11.8144
五官	-11.8145
璿	-11.8145
揉	-11.8147
精微	-11.8147
所愛	-11.8149
十巻	-11.8149
彈指	-11.8149
之殊	-11.8151
進取	-11.8151
(○	-11.8151
黜陟	-11.8151
補曰	-11.8153
鰲	-11.8154
又西	-11.8155
攻城	-11.8156
碁	-11.8156
見矣	-11.8158
之陽	-11.816
軋	-11.816
所繫	-11.816
鄭康成	-11.8161
教以	-11.8163
鑊	-11.8164
好古	-11.8165
者莫不	-11.8165
洪州	-11.8166
越州	-11.8167
更加	-11.8167
者不得	-11.8168
俱是	-11.817
細研	-11.817
昇平	-11.817
淨心	-11.8171
悃	-11.8172
無辜	-11.8173
流布	-11.8173
孰不	-11.8175
者並	-11.8177
在北	-11.8177
淨故	-11.8178
貉	-11.8179
臺諫	-11.818
西上	-11.8181
當用	-11.8182
大亂	-11.8182
戎狄	-11.8182
著述	-11.8182
箔	-11.8183
䧏	-11.8184
鏞	-11.8184
於公	-11.8186
嗣位	-11.8186
菓	-11.8188
可矣	-11.8188
一切菩薩	-11.8189
連山	-11.819
瞑	-11.8191
將去	-11.8191
而不為	-11.8191
侍衞	-11.8192
分齊	-11.8192
原額	-11.8192
豈容	-11.8192
愕	-11.8193
翡翠	-11.8194
洛書	-11.8195
茱萸	-11.8195
五臺	-11.8196
開悟	-11.8197
耶律	-11.82
名利	-11.82
南流	-11.8204
絢	-11.8204
▁十二月	-11.8204
答拜	-11.8205
蕚	-11.8206
不納	-11.8207
極則	-11.8207
黄庭	-11.8207
嘉慶	-11.8207
於周	-11.8208
▁脫	-11.8208
有所不	-11.8208
樞密院	-11.8209
耆舊	-11.821
許氏	-11.821
使天下	-11.821
􁁊	-11.8213
緣故	-11.8213
兄弟之	-11.8213
騎射	-11.8215
謠	-11.8216
生涯	-11.8217
相反	-11.8217
肅肅	-11.8217
凡此	-11.8218
二邊	-11.8218
與世	-11.8218
眼前	-11.8219
▁惱	-11.822
於市	-11.8222
登樓	-11.8224
之類是也	-11.8224
兵法	-11.8225
聲音	-11.8225
等法	-11.8226
淅	-11.8227
之終	-11.8228
於諸侯	-11.8232
餒	-11.8232
其前	-11.8234
五百人	-11.8235
悉以	-11.8235
松風	-11.8238
北有	-11.824
取於	-11.824
大名	-11.8243
敬禮	-11.8243
八識	-11.8244
軍國	-11.8245
大都督	-11.8247
外戚	-11.8247
九成	-11.8248
無怨	-11.825
坐禪	-11.8251
進呈	-11.8252
屈伸	-11.8254
爾時世尊	-11.8254
乗輿	-11.8256
人不知	-11.8256
來往	-11.8256
應制	-11.8257
不散	-11.8258
一合	-11.826
佛所說	-11.8261
𢷬	-11.8261
眼中	-11.8263
衽	-11.8263
成正覺	-11.8265
方有	-11.8265
保其	-11.8269
假借	-11.8271
縣知縣	-11.8271
百物	-11.8272
蝎	-11.8275
生焉	-11.8276
二合引	-11.8279
人謂之	-11.828
▁夏四月	-11.8283
者裏	-11.8283
死也	-11.8284
何當	-11.8285
神氣	-11.8287
若約	-11.8288
一歲	-11.8288
報國	-11.8288
龍圖	-11.8289
竽	-11.829
拋	-11.8291
敢言	-11.8292
白沙	-11.8292
為業	-11.8293
於衆	-11.8293
浩蕩	-11.8294
九十六	-11.8294
之父	-11.8294
乃令	-11.8294
佛像	-11.8295
▁黄芩	-11.8295
以順	-11.8295
之戰	-11.8296
䋲	-11.8297
巴豆	-11.8297
曹公	-11.83
且夫	-11.8301
好生	-11.8301
彗	-11.8301
知君	-11.8301
嘿	-11.8302
謟	-11.8302
樞密	-11.8304
纊	-11.8304
羅浮	-11.8305
咳	-11.8306
鱉	-11.8306
娱	-11.8306
是之謂	-11.8306
興也	-11.8307
吳郡	-11.8307
六千	-11.8308
扈從	-11.8309
都指揮使	-11.8309
飴	-11.8309
者悉	-11.831
黃檗	-11.831
荻	-11.8313
而好	-11.8314
天祐	-11.8317
三更	-11.8318
傷人	-11.8319
實非	-11.832
皥	-11.832
生意	-11.8321
其惡	-11.8321
臨時	-11.8321
短長	-11.8322
易簡	-11.8322
居正	-11.8322
煌	-11.8323
然矣	-11.8324
官職	-11.8325
沆	-11.8325
外物	-11.8326
且曰	-11.8327
遊行	-11.8328
十誦	-11.8329
定國	-11.833
若乃	-11.833
隋開皇	-11.833
了義	-11.8332
祛	-11.8333
月光	-11.8335
蕊	-11.8336
瞻仰	-11.8336
莫知其	-11.8337
雜染	-11.8338
豈徒	-11.8338
故特	-11.8338
▁隋	-11.8339
鶩	-11.834
等五	-11.8344
施主	-11.8345
三千大千世界	-11.8346
遣其	-11.8346
不遑	-11.8347
鍳	-11.8347
復入	-11.8347
禍亂	-11.8349
邂逅	-11.8349
後進	-11.8349
詁	-11.835
多故	-11.8353
璟	-11.8353
之勤	-11.8354
者不能	-11.8357
超越	-11.8357
臨清	-11.8357
煌煌	-11.8358
憊	-11.8358
宜其	-11.8362
欲盡	-11.8362
起家	-11.8362
橐	-11.8363
之半	-11.8364
漏盡	-11.8364
黄耆	-11.8364
渭水	-11.8364
沴	-11.8365
不告	-11.8366
張文	-11.8366
笻	-11.8367
阿羅漢果	-11.8368
雲漢	-11.8368
萬劫	-11.8368
來降	-11.8369
五位	-11.837
之請	-11.8371
孫男	-11.8372
賖	-11.8372
進士授	-11.8373
悟入	-11.8373
自信	-11.8373
三性	-11.8374
禫	-11.8374
不繫	-11.8376
復舊	-11.8376
黄色	-11.8377
敢問	-11.8378
多言	-11.8378
喬木	-11.838
豢	-11.838
牛膝	-11.8381
云何為	-11.8382
得自在	-11.8382
寶藏	-11.8384
制作	-11.8385
法藏	-11.8385
五雲	-11.8387
芾	-11.8387
凡十	-11.8388
巫山	-11.8389
則已	-11.839
浮圖	-11.8391
一類	-11.8393
東觀	-11.8393
去國	-11.8394
哉故	-11.8394
大丈夫	-11.8395
少陵	-11.8397
之榮	-11.8397
遣兵	-11.8398
王家	-11.8399
者今	-11.8401
滅之	-11.8401
扄	-11.8401
溪上	-11.8402
鄉黨	-11.8402
元孫	-11.8404
同平章事	-11.8404
從弟	-11.8405
惟陛下	-11.8407
六十四卦	-11.8408
則與	-11.8408
奏報	-11.841
王建	-11.8411
十四日	-11.8411
迢迢	-11.8412
士夫	-11.8412
復問	-11.8412
常服	-11.8413
醫藥	-11.8414
不恤	-11.8414
四教	-11.8415
▁編	-11.8417
所據	-11.8417
蹴	-11.8418
桴	-11.8418
社稷之	-11.8418
著作	-11.8418
新書	-11.8419
乳香	-11.8419
家事	-11.842
吳江	-11.8421
大全	-11.8421
萬騎	-11.8422
剿	-11.8423
輈	-11.8423
闡提	-11.8424
黄昏	-11.8425
後三	-11.8425
宣武	-11.8426
攄	-11.8427
建元	-11.8428
而長	-11.843
嶮	-11.843
▁袁	-11.8431
所須	-11.8431
分數	-11.8433
此土	-11.8433
得果	-11.8434
若於	-11.8434
八里	-11.8435
如舊	-11.8435
祝曰	-11.8436
其過	-11.8438
也况	-11.8439
亦已	-11.8439
髙山	-11.8439
舊章	-11.844
此約	-11.8442
故聖人	-11.8443
妻陳氏	-11.8443
知足	-11.8444
去就	-11.8447
數十里	-11.8448
城在	-11.8451
攤	-11.8452
誠心	-11.8453
南軒	-11.8453
迄今	-11.8454
天降	-11.8455
漁父	-11.8456
反復	-11.8457
翼翼	-11.8457
芎藭	-11.8458
扵是	-11.846
元稹	-11.846
閭里	-11.8461
雖曰	-11.8461
經世	-11.8461
嘘	-11.8461
捺	-11.8462
必有所	-11.8463
於楚	-11.8464
樂者	-11.8465
其屬	-11.8465
改曰	-11.8465
晶	-11.8467
天柱	-11.8467
泚	-11.8467
增語	-11.8468
肄	-11.8468
以盡	-11.8468
翠微	-11.8468
霈	-11.8469
其象	-11.8469
三十卷	-11.8469
貢士	-11.8471
當先	-11.8471
裼	-11.8472
栴檀	-11.8473
斷滅	-11.8474
五代史	-11.8474
廷臣	-11.8475
齊之	-11.8476
為患	-11.8476
𤨏	-11.8476
黥	-11.8478
郊廟	-11.8478
則謂之	-11.8479
説文曰	-11.8479
復來	-11.8481
之室	-11.8481
橛	-11.8481
雖云	-11.8482
其長	-11.8483
坤之	-11.8483
樂正	-11.8485
必然	-11.8485
溈	-11.8488
心之所	-11.8489
所重	-11.849
非道	-11.8491
聞於	-11.8493
其業	-11.8494
飛來	-11.8495
正定	-11.8496
毫釐	-11.8496
恩澤	-11.8497
瑋	-11.85
則得	-11.8502
會得	-11.8502
久住	-11.8504
自持	-11.8505
道心	-11.8506
未經	-11.8506
永明	-11.8506
纍	-11.8507
豈復	-11.8507
避之	-11.8507
蔕	-11.8507
鋸	-11.8507
何年	-11.8509
吾所	-11.8509
彭蠡	-11.851
如說	-11.851
准此	-11.8511
天福	-11.8512
禄山	-11.8512
腹脹	-11.8512
五眼	-11.8512
祝融	-11.8512
紿	-11.8512
衎	-11.8514
之野	-11.8516
㝢	-11.8516
唵	-11.8516
也春秋	-11.8517
乾隆四十	-11.8519
地方官	-11.852
井田	-11.852
魚龍	-11.8521
昕	-11.8522
沛公	-11.8523
矣且	-11.8524
慊	-11.8525
閭閻	-11.8525
為學	-11.8527
淮陽	-11.8527
者凡	-11.8527
分兵	-11.8529
諫議大夫	-11.853
中使	-11.853
讖	-11.8531
也嗚呼	-11.8533
有㫖	-11.8533
戒者	-11.8535
尊號	-11.8539
三州	-11.8539
濩	-11.854
不生不滅	-11.8542
罅	-11.8544
東方朔	-11.8546
觀於	-11.8546
豐城	-11.8547
無染	-11.8547
悉能	-11.8547
漢家	-11.8548
杜陵	-11.8549
碾	-11.8549
寥寥	-11.8549
聖㫖	-11.855
不憂	-11.8551
有說	-11.8553
春來	-11.8553
進兵	-11.8553
大吕	-11.8554
先有	-11.8555
千尺	-11.8555
大壯	-11.8555
楊柳	-11.8556
下云	-11.8557
屏風	-11.8558
之益	-11.8559
仍以	-11.856
霤	-11.856
入内	-11.856
說言	-11.8561
又東南	-11.8561
豈以	-11.8563
讀曰	-11.8564
變通	-11.8565
大衍	-11.8565
夥	-11.8566
三千里	-11.8567
於其中	-11.8567
苻	-11.8568
韋昭	-11.8568
餘年	-11.8569
淵源	-11.8573
冠帶	-11.8575
避暑	-11.8575
群臣	-11.8575
已經	-11.8575
之運	-11.8576
書寫	-11.8576
卒贈	-11.8577
吳人	-11.8577
楚國	-11.8578
荆公	-11.8578
吕氏曰	-11.8578
昵	-11.8579
固無	-11.8579
鎮守	-11.8579
天機	-11.8579
澄清	-11.8581
初釋	-11.8581
兵備	-11.8584
兠	-11.8584
初發心	-11.8585
所以然者	-11.8586
▁▲	-11.8589
之疾	-11.8589
宣撫	-11.859
付囑	-11.8592
歸心	-11.8593
之厚	-11.8593
夫豈	-11.8594
▁桂心	-11.8594
伯姬	-11.8594
襦	-11.8595
各一兩	-11.8595
錢氏	-11.8596
未了	-11.8597
睨	-11.8597
圮	-11.8597
煙霞	-11.8598
小而	-11.86
其室	-11.8601
一例	-11.8601
不然則	-11.8605
詩賦	-11.8606
姓氏	-11.8606
蝸	-11.8608
存心	-11.8611
底事	-11.8611
一子	-11.8612
巡按	-11.8613
乎且	-11.8614
一音	-11.8616
安平	-11.8617
京東	-11.8617
後得	-11.8617
之可也	-11.8617
林木	-11.8618
涂	-11.8619
補遺	-11.8621
發揮	-11.8622
捻	-11.8623
園中	-11.8624
孔孟	-11.8624
經卷	-11.8624
嘉其	-11.8624
毛孔	-11.8624
蓴	-11.8625
一十五	-11.8626
終南	-11.8627
春秋傳	-11.8627
信受	-11.8628
修證	-11.8628
愚夫	-11.8629
又無	-11.863
學宫	-11.8631
孰與	-11.8632
以勸	-11.8634
之側	-11.8634
善行	-11.8634
乃作	-11.8634
左僕射	-11.8635
嘔吐	-11.8636
縣尉	-11.8636
初置	-11.8637
之罪也	-11.8637
敇	-11.8638
如理	-11.8638
霜露	-11.8638
聞說	-11.8638
一偈	-11.8639
去處	-11.8639
縱有	-11.864
是處	-11.8643
盻	-11.8643
澈	-11.8643
套	-11.8646
長春	-11.8647
▁下之	-11.8648
死則	-11.865
逆順	-11.8651
俗人	-11.8652
論中	-11.8652
印綬	-11.8653
毗尼	-11.8654
大畧	-11.8655
於庭	-11.8656
延壽	-11.8657
子母	-11.8658
三十一年	-11.8659
相依	-11.8659
下馬	-11.866
直須	-11.8661
三老	-11.8662
正在	-11.8662
蒞	-11.8662
田獵	-11.8662
時政	-11.8663
便可	-11.8664
庭前	-11.8664
所詮	-11.8666
支離	-11.8666
臣民	-11.8667
清溪	-11.8668
厥後	-11.8671
帝命	-11.8671
音樂	-11.8671
▁半夏	-11.8672
有一人	-11.8673
草草	-11.8674
兩人	-11.8675
其變	-11.8675
抉	-11.8675
時雨	-11.8675
何獨	-11.8675
飫	-11.8677
越人	-11.8678
莫道	-11.8679
不可用	-11.8681
稱人	-11.8684
褁	-11.8684
噶爾丹	-11.8684
星宿	-11.8687
興師	-11.8687
為甚麼	-11.8688
記室	-11.8689
主宰	-11.869
留之	-11.869
㓙	-11.8692
之助	-11.8693
日照	-11.8694
糖	-11.8695
于下	-11.8697
隨其所	-11.8697
諡文	-11.8698
為師	-11.8699
隼	-11.8699
憒	-11.8699
明知	-11.87
神變	-11.87
仕至	-11.8701
宜用	-11.8701
琯	-11.8701
之舞	-11.8701
嘗聞	-11.8703
與語	-11.8703
此間	-11.8704
反說文	-11.8704
知事	-11.8704
不惑	-11.8704
安得不	-11.8705
黃帝	-11.8705
重罪	-11.8707
夜來	-11.871
不殊	-11.871
近年	-11.8711
貧者	-11.8714
由於	-11.8714
子美	-11.8715
貿易	-11.8715
幽明	-11.8719
五丈	-11.8722
澤之	-11.8724
芍	-11.8725
觀行	-11.8725
隨事	-11.8725
垓	-11.8727
地界	-11.8728
軻	-11.8728
附於	-11.8728
窈	-11.8729
東行	-11.8729
餘杭	-11.873
臣恐	-11.873
搭	-11.8733
非色	-11.8733
其初	-11.8734
特以	-11.8736
闋	-11.8736
出沒	-11.8737
飛去	-11.8737
宜興	-11.8738
薺	-11.8738
太虚	-11.8739
上行	-11.874
趙曰	-11.874
神功	-11.8741
閶闔	-11.8741
有四種	-11.8742
稱名	-11.8743
清白	-11.8744
門庭	-11.8744
卒以	-11.8745
順之	-11.8745
親屬	-11.8747
㐫	-11.8748
澧	-11.8748
是爲	-11.8748
太常博士	-11.8749
正白旗	-11.8749
行矣	-11.8752
▁臣聞	-11.8755
躅	-11.8755
六十五	-11.8756
躬行	-11.8757
巴陵	-11.8758
别駕	-11.8758
登第	-11.8759
二篇	-11.876
琅玕	-11.8761
者即是	-11.8761
輪轉	-11.8761
色心	-11.8764
半夜	-11.8764
同盟	-11.8764
積石	-11.8764
鯁	-11.8765
所入	-11.8765
是菩薩摩訶薩	-11.8766
今據	-11.8766
里中	-11.8766
蒂	-11.8767
亡矣	-11.8767
行行	-11.8768
百歲	-11.877
封建	-11.877
魏文帝	-11.877
長壽	-11.877
焚之	-11.8771
說名	-11.8773
歲時	-11.8775
注同	-11.8776
名聞	-11.8776
可喜	-11.8779
莧	-11.878
不專	-11.878
字從	-11.8781
進封	-11.8782
相屬	-11.8783
賞之	-11.8783
惟我	-11.8785
不務	-11.8787
古木	-11.8788
賢能	-11.8788
騎都尉	-11.8788
果能	-11.8791
燕子	-11.8791
三教	-11.8792
耆老	-11.8793
明鏡	-11.8793
秣	-11.8793
總標	-11.8793
拈云	-11.8794
典儀	-11.8794
殿中侍御史	-11.8795
委之	-11.8796
田里	-11.8797
也文一	-11.8798
持此	-11.8798
兩月	-11.8798
又自	-11.8799
屬之	-11.8799
正言	-11.8802
若復	-11.8802
光祿	-11.8803
一邊	-11.8803
謂之曰	-11.8804
次釋	-11.8805
自縊	-11.8805
所應	-11.8806
廟碑	-11.8807
千山	-11.8809
所現	-11.8809
該部	-11.881
元元	-11.881
香爐	-11.881
不顯	-11.8811
元年正月	-11.8812
月照	-11.8812
解之	-11.8814
不見其	-11.8814
疚	-11.8814
惡心	-11.8815
稱王	-11.8815
免於	-11.8816
地平	-11.8818
▁奏為	-11.8818
導師	-11.8819
人員	-11.8819
防守	-11.8821
而殺之	-11.8822
四書	-11.8822
契經	-11.8823
之興	-11.8824
冥冥	-11.8825
也然而	-11.8826
相同	-11.8827
𨼆	-11.8827
大涅槃	-11.8828
大悟	-11.8829
南風	-11.8829
天文志	-11.8832
孑	-11.8833
子午	-11.8835
萬世之	-11.8835
家口	-11.8837
八句	-11.8838
始至	-11.8838
松柏	-11.8838
待罪	-11.8839
不救	-11.884
前事	-11.8841
發之	-11.8842
剛而	-11.8843
冬夏	-11.8846
如佛	-11.8846
盡日	-11.8847
難於	-11.8848
至如	-11.885
曰吾聞	-11.885
▁詠	-11.885
行法	-11.8852
按察司	-11.8852
或名	-11.8853
大略	-11.8854
大禹	-11.8854
化人	-11.8856
數百里	-11.8856
週	-11.8859
▁人之	-11.8859
執持	-11.886
檢討	-11.886
出兵	-11.886
卬	-11.8861
合為一	-11.8862
00	-11.8862
之宫	-11.8865
衡陽	-11.8865
方圓	-11.8866
既非	-11.8866
往還	-11.8866
直道	-11.8867
苾	-11.8868
田園	-11.8869
誰是	-11.8869
屬於	-11.8874
承上	-11.8874
部尚書	-11.8876
尒	-11.8876
則吉	-11.8876
所望	-11.8877
則爲	-11.8878
正心	-11.8879
又加	-11.8879
附近	-11.888
滅故	-11.888
順也	-11.888
四部	-11.888
畫圖	-11.8881
皆以為	-11.8882
一千五百	-11.8882
行路	-11.8883
碧雲	-11.8884
此之謂也	-11.8885
財賦	-11.8885
驤	-11.8886
依正	-11.8887
召還	-11.8888
太古	-11.8892
産後	-11.8892
況復	-11.8893
無咎	-11.8894
萬斛	-11.8894
云是	-11.8896
人語	-11.8897
可言	-11.8898
三毒	-11.8898
有二義	-11.8901
惡其	-11.8901
髭	-11.8901
明府	-11.8901
唐之	-11.8902
異物	-11.8903
堯之	-11.8903
安州	-11.8903
f	-11.8903
冺	-11.8907
公家	-11.8907
薩埵	-11.8908
冉冉	-11.8909
其末	-11.8909
乗馬	-11.8909
有幾	-11.891
元君	-11.8912
炯	-11.8912
腑	-11.8913
便得	-11.8914
礦	-11.8914
舊例	-11.8914
然後可以	-11.8914
奉命	-11.8915
俚	-11.8916
集説	-11.8916
維那	-11.8918
攫	-11.8918
異類	-11.8919
荆棘	-11.8919
他國	-11.892
分之一	-11.892
資糧	-11.8922
威力	-11.8922
不難	-11.8923
母子	-11.8923
飄飄	-11.8924
事已	-11.8926
說經	-11.8926
治水	-11.8926
貪著	-11.8927
真言曰	-11.8927
賢愚	-11.8928
並是	-11.893
說文曰	-11.8932
本文	-11.8933
集序	-11.8933
䄂	-11.8933
戒也	-11.8934
衞侯	-11.8934
惡者	-11.8935
潼	-11.8935
鹿鳴	-11.8936
傳聞	-11.8936
凡五	-11.8937
埒	-11.8937
下大夫	-11.8938
里人	-11.894
入涅槃	-11.894
朔望	-11.8941
茫然	-11.8942
大覺	-11.8943
石經	-11.8947
賑濟	-11.8947
月八日	-11.8948
臨水	-11.8949
正應	-11.8951
瓣	-11.8953
當知是	-11.8953
不佞	-11.8954
桂林	-11.8954
不寐	-11.8955
改過	-11.8957
宋元	-11.8957
天龍	-11.8959
賞賜	-11.896
周流	-11.896
周徧	-11.896
池中	-11.8961
不憚	-11.8962
於天子	-11.8962
五味子	-11.8964
狀元	-11.8964
念處	-11.8965
不發	-11.8966
闍黎	-11.8966
蔥	-11.8966
弗克	-11.8966
不可知	-11.8966
萬歴	-11.8966
有僧	-11.8967
▁木香	-11.8968
莢	-11.8968
代云	-11.8968
東南流	-11.8968
四章	-11.8969
名相	-11.8971
畎	-11.8971
字林	-11.8971
此釋	-11.8972
薄荷	-11.8972
其相	-11.8973
崇文	-11.8975
艦	-11.8975
泉石	-11.8976
何緣	-11.8976
鏡中	-11.8978
栝	-11.8979
舁	-11.8979
五榖	-11.898
十句	-11.8982
料理	-11.8982
縊	-11.8982
於晉	-11.8982
而不見	-11.8982
周氏	-11.8983
德行	-11.8983
歌詩	-11.8983
不得已而	-11.8984
衆多	-11.8985
阿耨	-11.8986
臥具	-11.8986
二十日	-11.8987
一百九十	-11.8987
孟春	-11.8988
趙盾	-11.899
氣力	-11.899
萬壑	-11.8991
小畜	-11.8992
豈是	-11.8993
李斯	-11.8997
承恩	-11.8997
一在	-11.8998
五采	-11.9001
六典	-11.9001
不習	-11.9002
部主事	-11.9002
陞座	-11.9003
鈐轄	-11.9005
人之心	-11.9005
服藥	-11.9007
因事	-11.9007
事見	-11.9007
不忠	-11.9007
淒	-11.9008
其祖	-11.9008
姊妹	-11.9008
章章	-11.9009
朝㑹	-11.901
録曰	-11.901
同州	-11.9012
眾生心	-11.9013
五行之	-11.9014
青陽	-11.9018
生彼	-11.9019
同行	-11.9019
臉	-11.902
制禮	-11.9022
而至於	-11.9023
堕	-11.9024
至理	-11.9024
帚	-11.9027
擺	-11.9027
者不過	-11.9028
但能	-11.9028
第十一	-11.9031
孜	-11.9031
以居	-11.9033
之災	-11.9034
不悦	-11.9034
佛地	-11.9035
發汗	-11.9035
知覺	-11.9038
其精	-11.9038
以祀	-11.9039
更為	-11.904
生地黄	-11.9041
後宫	-11.9041
霖雨	-11.9043
經籍	-11.9044
因是	-11.9045
真珠	-11.9047
出納	-11.9047
不可謂	-11.9049
之俗	-11.905
陳公	-11.9051
嘴	-11.9052
民皆	-11.9054
漱	-11.9054
鉶	-11.9054
葆	-11.9056
無比	-11.9057
自巳	-11.9059
八地	-11.9059
六師	-11.9059
剩	-11.906
螫	-11.906
患難	-11.9062
甦	-11.9062
倨	-11.9062
于世	-11.9063
林氏	-11.9063
請命	-11.9064
修多羅	-11.9064
翕然	-11.9065
魂魄	-11.9066
不至於	-11.9066
遇害	-11.9068
書卷	-11.9068
坎為	-11.9069
世職	-11.9069
萬福	-11.9069
陽也	-11.9071
秦伯	-11.9071
鍋	-11.9072
饒州	-11.9074
王言	-11.9074
初獻	-11.9075
也古者	-11.9076
先入	-11.9076
▁本朝	-11.9076
惡道	-11.9077
不現	-11.9077
洊	-11.9078
二十餘年	-11.9079
今觀	-11.9079
每一	-11.908
百一十	-11.908
習之	-11.908
五首	-11.9081
柑	-11.9082
精誠	-11.9082
隨機	-11.9082
羌活	-11.9083
隨之	-11.9084
卓拄杖	-11.9084
五刑	-11.9084
下獄	-11.9086
鮮卑	-11.9086
恐非	-11.9087
精明	-11.9087
疥	-11.9087
六藝	-11.9089
憇	-11.9089
种	-11.9089
七卷	-11.9092
千餘里	-11.9092
西園	-11.9092
三十日	-11.9093
九地	-11.9093
推而	-11.9093
申明	-11.9095
築室	-11.9095
右僕射	-11.9096
其夫	-11.9096
此藥	-11.9097
無逸	-11.9098
正釋	-11.9098
武德	-11.9098
不降	-11.9099
裸	-11.9099
淖	-11.9101
昌縣	-11.9102
下句	-11.9103
而與之	-11.9104
良久云	-11.9104
州西	-11.9104
百花	-11.9107
真君	-11.9108
璽書	-11.9108
叁	-11.9109
欲立	-11.9111
大經	-11.9113
諸聖	-11.9114
不愧	-11.9114
旰	-11.9114
至德	-11.9114
因甚	-11.9114
初起	-11.9116
學生	-11.9116
禹之	-11.9117
崔嵬	-11.9117
八十四	-11.9118
投之	-11.9119
以東	-11.912
附録	-11.912
文武之	-11.9121
矣故曰	-11.9122
書記	-11.9124
沱	-11.9124
送客	-11.9125
百六十	-11.9125
尚書郎	-11.9126
玉樹	-11.9127
攞	-11.9128
又嘗	-11.913
▁大黄	-11.9132
老漢	-11.9134
檝	-11.9134
騖	-11.9134
南城	-11.9134
而住	-11.9135
一端	-11.9137
荅曰	-11.9138
在兹	-11.9138
皆與	-11.914
覷	-11.9142
相視	-11.9142
魏主	-11.9142
居下	-11.9144
席上	-11.9145
中官	-11.9147
言乎	-11.9147
名宦	-11.9149
郡治	-11.9149
海陵	-11.9149
元和志	-11.9151
疇昔	-11.9151
羲和	-11.9152
諸相	-11.9152
萬餘人	-11.9155
大指	-11.9158
人舉人	-11.9158
臨淮	-11.916
以酒	-11.9162
字叔	-11.9166
高麗	-11.9167
猶豫	-11.9169
▁黄連	-11.9171
終身不	-11.9172
犬馬	-11.9173
鼓舞	-11.9175
安帝	-11.9175
形勝	-11.9175
包衣	-11.9176
吉州	-11.9177
縯	-11.9177
可解	-11.9177
10	-11.9178
巡檢	-11.9178
敢忘	-11.9179
無虞	-11.918
暇日	-11.9181
天成	-11.9182
理合	-11.9182
夢得	-11.9185
枯木	-11.9186
惟此	-11.9186
劃	-11.9187
丹霞	-11.9188
河流	-11.9188
瞬	-11.9188
大通	-11.9188
永和	-11.9189
之列	-11.919
傳記	-11.919
南越	-11.9192
珙	-11.9193
憶昔	-11.9193
如來南無	-11.9193
節婦	-11.9194
平湖	-11.9195
戡	-11.9195
文正	-11.9195
佛頂	-11.9195
生疑	-11.9195
而小	-11.9195
涇原	-11.9197
必大	-11.9197
應如是	-11.9198
北郊	-11.9199
之光	-11.9199
朝日	-11.9199
現量	-11.92
皆令	-11.9203
衛尉	-11.9204
春二月	-11.9204
未斷	-11.9205
垂拱	-11.9206
湯浸	-11.9207
亦嘗	-11.9207
厮	-11.9208
是中	-11.9208
長於	-11.9209
餘慶	-11.9211
而遂	-11.9212
一雙	-11.9213
部曲	-11.9215
昔在	-11.9217
明公	-11.9218
小字	-11.9219
可作	-11.9222
鐃	-11.9222
相即	-11.9223
滸	-11.9224
行狀	-11.9225
也正作	-11.9229
修治	-11.923
心心所	-11.9232
其流	-11.9233
王季	-11.9233
大呼	-11.9234
飾以	-11.9234
鍵	-11.9236
晉國	-11.9237
職掌	-11.9237
十有一	-11.9238
妻劉氏	-11.9238
奉表	-11.9238
曹溪	-11.9238
必自	-11.9238
武成	-11.9239
以補	-11.924
常樂	-11.924
江淹	-11.924
注疏	-11.9241
之言也	-11.9241
扶持	-11.9241
子胥	-11.9244
綘	-11.9244
皆空	-11.9244
𢎞農	-11.9245
始覺	-11.9246
收其	-11.9246
教法	-11.9246
我生	-11.9246
董仲舒	-11.9246
▁聖祖仁皇帝	-11.9247
縣故城	-11.9247
畏之	-11.9248
律云	-11.9249
漪	-11.925
悸	-11.9252
禮成	-11.9252
廵檢	-11.9252
黄門侍郎	-11.9253
流光	-11.9253
已去	-11.9253
十斤	-11.9254
渤	-11.9255
伋	-11.9256
云我	-11.9256
甚明	-11.9256
雖小	-11.9257
漁陽	-11.9258
掃除	-11.9258
▁敕	-11.9258
深思	-11.9259
期於	-11.9259
南斗	-11.926
五服	-11.9261
分付	-11.9264
手書	-11.9265
他方	-11.9265
為眾生	-11.9265
離於	-11.9265
調和	-11.9266
遲遲	-11.9267
陸游	-11.9268
當於	-11.9269
鴆	-11.9271
主治	-11.9272
禮佛	-11.9273
屛	-11.9273
都是	-11.9278
東路	-11.9278
之功也	-11.9278
櫓	-11.9279
當塗	-11.928
者少	-11.9282
癘	-11.9283
等州	-11.9283
和上	-11.9283
神道碑	-11.9283
芭蕉	-11.9285
膂	-11.9287
先明	-11.9289
仲淹	-11.9289
年月日	-11.929
吾身	-11.929
武夷	-11.9291
深淺	-11.9291
仿	-11.9293
陣亡	-11.9293
勤苦	-11.9294
酒浸	-11.9295
兩京	-11.9296
列聖	-11.9296
奏稱	-11.9297
佛國	-11.9298
直以	-11.9299
位在	-11.93
海外	-11.93
疑是	-11.93
俱胝	-11.9301
之始也	-11.9302
▁「【	-11.9307
謝曰	-11.9307
較之	-11.9309
政教	-11.9309
其材	-11.931
宗旨	-11.9311
行書	-11.9311
流落	-11.9311
咸通	-11.9313
□□□□	-11.9313
荆楚	-11.9316
今我	-11.9317
——	-11.9317
賵	-11.9317
甘心	-11.9317
問言	-11.9317
四里	-11.9319
對曰臣	-11.9319
學術	-11.9319
摽	-11.9321
舉之	-11.9323
召為	-11.9323
世襲	-11.9324
適子	-11.9324
穆穆	-11.9324
已定	-11.9326
瞥	-11.9329
及時	-11.9329
半年	-11.9329
拳拳	-11.933
髙陽	-11.9331
遍行	-11.9331
海門	-11.9332
所害	-11.9332
律吕	-11.9334
追之	-11.9334
▁校	-11.9334
大統	-11.9335
二陽	-11.9335
通身	-11.9335
淳熈	-11.9336
恁地	-11.9336
袪	-11.9337
不重	-11.934
憂也	-11.9346
元亨	-11.9346
珉	-11.9347
抱朴子	-11.9347
相顧	-11.9347
乆而	-11.9352
慈母	-11.9352
已過	-11.9352
繄	-11.9353
▁治小兒	-11.9354
磐	-11.9354
下方	-11.9355
襪	-11.9355
可說	-11.9356
効力	-11.9356
不礙	-11.9357
萬計	-11.9358
自東	-11.9359
應用	-11.9361
佛世尊	-11.9363
引之	-11.9365
若菩薩摩訶薩	-11.9366
之報	-11.9366
自足	-11.9369
城池	-11.9369
歴官	-11.937
何則	-11.9371
所餘	-11.9372
絶其	-11.9372
噎	-11.9373
隆興	-11.9373
麋鹿	-11.9374
水調	-11.9374
以昭	-11.9374
因縁	-11.9375
非惟	-11.9377
遼陽	-11.9378
其孫	-11.9378
漫漫	-11.9379
曬	-11.9379
簧	-11.9379
清光	-11.9379
未離	-11.938
物理	-11.938
無量壽	-11.9381
一隂	-11.9384
登歌	-11.9386
之辨	-11.9386
太府	-11.9387
風俗通	-11.9389
▁附子	-11.9389
獲其	-11.939
六字	-11.9391
二王	-11.9391
易知	-11.9391
豸	-11.9393
努力	-11.9393
者耶	-11.9394
幟	-11.9395
常為	-11.9396
舸	-11.9397
田野	-11.9397
不勝其	-11.9397
所住	-11.9398
曹植	-11.9398
蛩	-11.9401
大雪	-11.9401
陳蔡	-11.9401
五度	-11.9402
倍之	-11.9402
清流	-11.9403
夏后氏	-11.9404
其樂	-11.9404
耿耿	-11.9404
若水	-11.9404
撩	-11.9405
使知	-11.9405
寒山	-11.9407
去矣	-11.9408
能無	-11.9409
討論	-11.9409
田家	-11.941
字書	-11.941
張儀	-11.941
廣南	-11.941
遂有	-11.941
之差	-11.9415
空有	-11.9415
無幾	-11.9415
承當	-11.9416
重輕	-11.9416
見我	-11.9418
但當	-11.9419
延夀	-11.9419
府屬	-11.942
黃龍	-11.9421
無多	-11.9422
哉夫	-11.9422
各得	-11.9422
漢儒	-11.9423
翺	-11.9426
六朝	-11.9427
東郡	-11.9427
折衝	-11.9429
本漢	-11.943
有丨丨	-11.9432
彭澤	-11.9432
借問	-11.9433
鑄錢	-11.9433
莫有	-11.9434
之兆	-11.9435
噬嗑	-11.9435
親迎	-11.9435
其術	-11.9438
涼州	-11.9438
淞	-11.9439
其半	-11.9439
河南府	-11.944
驃騎	-11.944
笑語	-11.9441
東郊	-11.9442
▁芍藥	-11.9442
自明	-11.9442
亞獻	-11.9443
海鹽	-11.9443
茱茰	-11.9443
相看	-11.9443
㽔	-11.9443
入覲	-11.9444
天地之間	-11.9447
長興	-11.9447
所好	-11.9448
刄	-11.9449
不驚	-11.9449
疏言	-11.945
不落	-11.9451
安福	-11.9451
勸農	-11.9452
與李	-11.9453
商之	-11.9454
煆	-11.9455
題曰	-11.9455
三十萬	-11.9456
在縣西南	-11.9457
直上	-11.9458
簽	-11.9458
兆民	-11.9459
收拾	-11.946
中庭	-11.946
罩	-11.9461
聖德	-11.9461
會麼	-11.9461
是皆	-11.9462
吾君	-11.9463
石榴	-11.9464
覆之	-11.9464
天之所	-11.9465
能緣	-11.9466
王城	-11.9469
利養	-11.947
摩羅	-11.9471
觀世音	-11.9471
煒	-11.9473
大象	-11.9473
夜夢	-11.9476
如虛空	-11.9476
輿地	-11.9478
谷口	-11.9478
三度	-11.9478
黄州	-11.948
左傳曰	-11.948
選舉	-11.9481
哀哉	-11.9481
長松	-11.9483
厦	-11.9486
祠堂	-11.9486
參禪	-11.9488
將吏	-11.9489
者甚衆	-11.9489
斬衰	-11.949
盛而	-11.949
靈王	-11.9491
餙	-11.9491
目録	-11.9492
崔氏	-11.9493
絲竹	-11.9494
過矣	-11.9495
正朔	-11.9498
京畿	-11.9498
中州	-11.9498
康成	-11.95
之策	-11.95
所不及	-11.9502
賊衆	-11.9502
朝臣	-11.9503
求賢	-11.9505
與衆	-11.9506
大司徒	-11.9506
辟雍	-11.9507
甚難	-11.9507
將此	-11.9508
威靈	-11.9509
紵	-11.951
謝安	-11.9511
莊子曰	-11.9512
淮水	-11.9512
三塗	-11.9513
敵國	-11.9513
滋味	-11.9513
其病	-11.9514
水草	-11.9514
尺五寸	-11.9514
簡易	-11.9515
秫	-11.9516
蹔	-11.9516
瀦	-11.9516
一千二百	-11.9516
心體	-11.9517
謹案	-11.9518
三身	-11.9518
告之曰	-11.9519
賜金	-11.9519
間斷	-11.9519
還自	-11.952
故道	-11.9521
知己	-11.9522
蜀郡	-11.9523
之敗	-11.9524
長年	-11.9525
而加	-11.9525
惠帝	-11.9525
鍾離	-11.9527
幻化	-11.9528
良由	-11.953
晉師	-11.9531
所陳	-11.9532
令眾生	-11.9532
張華	-11.9533
鷓鴣	-11.9534
何以不	-11.9534
二俱	-11.9535
澣	-11.9536
武安	-11.9537
其日	-11.9537
如文	-11.9539
使持節	-11.9541
舊時	-11.9541
示眾云	-11.9543
一級	-11.9544
睫	-11.9544
垠	-11.9544
經理	-11.9544
二約	-11.9545
人馬	-11.955
忽聞	-11.9551
伯父	-11.9556
金史	-11.9557
穿鑿	-11.9558
保甲	-11.9558
金門	-11.9558
木也	-11.956
▁午	-11.956
物外	-11.956
腸胃	-11.956
舉手	-11.9563
故國	-11.9564
又二	-11.9564
疾也	-11.9566
不意	-11.9566
伐木	-11.9566
華州	-11.9567
夷則	-11.9568
百司	-11.9571
古作	-11.9572
靈光	-11.9572
惜哉	-11.9575
愚者	-11.9575
景祐	-11.9576
乃遣	-11.9577
通天	-11.9578
無任	-11.9579
妄言	-11.958
遂令	-11.958
自西	-11.9581
之法也	-11.9582
羣公	-11.9582
今天下	-11.9583
華藏	-11.9583
勞而	-11.9584
者死	-11.9585
難可	-11.9586
天地萬物	-11.9586
免其	-11.9586
僃	-11.9589
祝文	-11.959
睠	-11.9591
箠	-11.9591
蓐	-11.9591
南吕	-11.9591
乞師	-11.9593
流沙	-11.9593
九里	-11.9594
其俗	-11.9594
長幼	-11.9596
冽	-11.9597
下品	-11.9598
而廢	-11.9598
酹	-11.9599
朱熹	-11.96
淩	-11.9601
圍之	-11.9602
入蜀	-11.9604
二別	-11.9605
江縣	-11.9606
爾乃	-11.9607
砲	-11.9607
入官	-11.9607
元符	-11.9608
祭於	-11.9608
于闐	-11.9608
得位	-11.9609
後天	-11.9609
祲	-11.9609
立言	-11.9612
離合	-11.9612
何因	-11.9612
百餘年	-11.9613
獻帝	-11.9614
巴蜀	-11.9614
櫻桃	-11.9614
極矣	-11.9614
方是	-11.9614
四維	-11.9616
皆應	-11.9617
六曰	-11.9618
改作	-11.962
河決	-11.9621
始興	-11.9621
以西	-11.9622
諸将	-11.9623
老翁	-11.9623
禪寺	-11.9624
剛健	-11.9625
焉能	-11.9631
竢	-11.9632
然燈	-11.9632
能致	-11.9632
昭然	-11.9632
胃氣	-11.9634
首章	-11.9635
孤舟	-11.9635
仲景	-11.9636
洛水	-11.9636
吉水	-11.9637
自從	-11.9637
夏人	-11.9637
在昔	-11.9637
來㑹	-11.9637
害之	-11.9638
出城	-11.9639
軍務	-11.964
本年	-11.9642
三時	-11.9644
亦惟	-11.9646
江流	-11.9648
濇	-11.9648
思歸	-11.9648
赤城	-11.9649
不才	-11.965
天師	-11.965
甬	-11.965
化城	-11.9651
魏武	-11.9652
十信	-11.9652
皺	-11.9652
青衣	-11.9654
聞已	-11.9654
第三十	-11.9656
詬	-11.9656
▁諦	-11.9656
寺丞	-11.9657
淮夷	-11.9657
無外	-11.9657
洹	-11.9659
小異	-11.9661
逢人	-11.9662
摛	-11.9662
筦	-11.9662
下生	-11.9662
獨孤	-11.9663
三光	-11.9663
府事	-11.9663
證也	-11.9664
美也	-11.9664
師問	-11.9664
天監	-11.9665
惜其	-11.9667
九章	-11.9667
陲	-11.9667
十六日	-11.9668
上公	-11.9668
示以	-11.9669
無量劫	-11.967
楊子	-11.967
饋食	-11.9672
熨	-11.9673
各隨	-11.9673
似有	-11.9674
望風	-11.9675
齊桓公	-11.9675
縹	-11.9677
御筆	-11.9678
戱	-11.9679
風雅	-11.9679
良馬	-11.968
自性空	-11.9681
只為	-11.9682
身口	-11.9683
喀爾喀	-11.9683
趺	-11.9684
蔞	-11.9685
具題	-11.9686
公田	-11.9686
洪武初	-11.9687
是箇	-11.9687
余嘗	-11.9688
隄防	-11.9688
典籍	-11.9688
揑	-11.9691
漢興	-11.9692
明時	-11.9693
舉行	-11.9693
乃謂	-11.9693
風景	-11.9693
張浚	-11.9694
新法	-11.9695
飮	-11.9695
率土	-11.9698
獲得	-11.9699
烏頭	-11.9699
鐘聲	-11.9699
犯罪	-11.9699
肅然	-11.9699
難矣	-11.9699
中下	-11.97
家世	-11.9701
得雨	-11.9701
刊	-11.9702
非常之	-11.9702
媪	-11.9704
以佐	-11.9704
斯道	-11.9705
廣徳	-11.9705
風生	-11.9706
報應	-11.9706
未見其	-11.9707
厲王	-11.9707
不能知	-11.9708
朔日有食之	-11.9709
曲阜	-11.9711
眼界	-11.9711
纘	-11.9712
十二日	-11.9713
瑠璃	-11.9714
▁十一月	-11.9714
人主之	-11.9715
不昧	-11.9715
一百里	-11.9715
瀑布	-11.9716
選擇	-11.9716
車服	-11.9719
之候	-11.9719
君親	-11.972
孤城	-11.972
省入	-11.9721
長孫	-11.9722
常見	-11.9722
叔姬	-11.9722
大理寺	-11.9723
佛名	-11.9723
坤為	-11.9724
臘月	-11.9724
靴	-11.9724
司馬遷	-11.9724
硃砂	-11.9724
重耳	-11.9725
鉦	-11.9726
注釋曰	-11.9727
顔師古	-11.9728
刑法	-11.973
朕意	-11.9731
頃之	-11.9731
臺上	-11.9732
舉似	-11.9733
即令	-11.9733
萬億	-11.9736
褊	-11.9737
賔主	-11.9737
兵部侍郎	-11.9737
一百八	-11.9737
所撰	-11.9738
下降	-11.9739
捶	-11.9739
無根	-11.974
附庸	-11.974
進也	-11.9741
殊不	-11.9741
爵禄	-11.9741
山房	-11.9742
歸田	-11.9744
樹木	-11.9744
論說	-11.9745
主客	-11.9746
而后	-11.9746
大川	-11.9746
之䘮	-11.9747
喃	-11.9747
光大	-11.9749
一介	-11.975
公公	-11.9751
史氏	-11.9752
廣明	-11.9754
消滅	-11.9754
雅頌	-11.9754
髙堂	-11.9754
治病	-11.9754
少傅	-11.9755
城市	-11.9755
柱國	-11.9755
林寺	-11.9757
大品	-11.9758
哭之	-11.9758
些子	-11.9758
酺	-11.9759
三摩	-11.976
上命	-11.9765
荆芥	-11.9766
辭免	-11.9767
相因	-11.9768
㸑	-11.9768
子瞻	-11.9768
今言	-11.9769
六十三	-11.9769
太玄	-11.9769
獲罪	-11.9769
只得	-11.9769
七十六	-11.977
軍器	-11.977
急於	-11.9771
未解	-11.9772
佛眼	-11.9773
道義	-11.9775
器物	-11.9775
眾苦	-11.9775
風霜	-11.9776
白茯苓	-11.9777
得度	-11.9778
苧	-11.9778
全書	-11.9778
北征	-11.9779
佐食	-11.9779
但得	-11.978
窪	-11.978
雨水	-11.9781
千三百	-11.9782
滿地	-11.9783
一任	-11.9783
老去	-11.9784
今經	-11.9784
平行	-11.9785
交通	-11.9787
數目	-11.9788
自愛	-11.979
為陽	-11.9791
▁董	-11.9792
涅槃經	-11.9794
以為然	-11.9794
群生	-11.9795
發遣	-11.9796
秋九月	-11.9796
華隂	-11.9797
鷲	-11.9797
既云	-11.9799
已知	-11.98
異人	-11.9801
賠	-11.9801
何法	-11.9803
乎吾	-11.9805
慎勿	-11.9805
兜率	-11.9805
邾人	-11.9805
祭器	-11.9806
心境	-11.9807
在縣東南	-11.9807
鑲白旗	-11.9809
也若夫	-11.981
永康	-11.981
載酒	-11.9811
譟	-11.9812
陵縣	-11.9812
桃仁	-11.9814
臨朝	-11.9814
亦隨	-11.9814
三十五里	-11.9814
給與	-11.9816
七千	-11.9816
馳騁	-11.9817
八種	-11.9818
推恩	-11.9818
臨風	-11.9818
葉似	-11.982
耜	-11.982
臓	-11.982
願為	-11.9821
廳	-11.9822
滄洲	-11.9823
方來	-11.9823
褰	-11.9824
求得	-11.9824
迎之	-11.9825
本國	-11.9826
坫	-11.9826
類篇	-11.9827
內空	-11.9827
莾	-11.9828
之選	-11.9829
推其	-11.9829
安排	-11.983
不語	-11.983
手持	-11.9831
度脫	-11.9831
觥	-11.9832
揵	-11.9832
鏁	-11.9832
輔相	-11.9832
燕山	-11.9833
江頭	-11.9834
祊	-11.9834
食貨志	-11.9835
以仁	-11.9836
鄭司農云	-11.9837
傅之	-11.9837
耳若	-11.9838
農事	-11.9839
解說	-11.9842
君子小人	-11.9842
月上	-11.9842
上䟽	-11.9844
律師	-11.9845
也亦作	-11.9846
天錫	-11.9846
今夜	-11.9846
田宅	-11.9846
顰	-11.9851
額爾	-11.9853
飾也	-11.9853
次子	-11.9853
徳音	-11.9856
西江	-11.9857
延平	-11.9857
抒	-11.9858
踪	-11.9859
助教	-11.9859
天水	-11.9859
㕓	-11.986
惜之	-11.986
愛敬	-11.986
墨子	-11.986
始末	-11.9861
紫宸	-11.9862
前驅	-11.9863
混沌	-11.9866
盡忠	-11.9866
十二因緣	-11.9867
光華	-11.9867
如火	-11.9867
守道	-11.9867
為欲	-11.9868
洄	-11.9868
鄉射	-11.9868
無上正	-11.9869
不可言	-11.9869
疝	-11.987
嵗星	-11.9871
之質	-11.9874
五福	-11.9875
忠恕	-11.9875
肌膚	-11.9875
蘇子	-11.9878
甎	-11.9878
者唯	-11.988
不得與	-11.988
宜令	-11.9881
牛頭	-11.9882
軍前	-11.9882
下音	-11.9882
挍	-11.9883
吳氏	-11.9883
比干	-11.9884
正殿	-11.9884
千戸	-11.9885
九人	-11.9885
至扵	-11.9885
潘岳	-11.9887
兵攻	-11.9887
致知	-11.9887
請益	-11.9888
録云	-11.989
【	-11.9891
前年	-11.9891
其手	-11.9893
記得	-11.9893
荐	-11.9893
四事	-11.9894
導引	-11.9895
詳定	-11.9895
然後能	-11.9895
後代	-11.9895
不盈	-11.9896
狸	-11.9896
起居注	-11.9896
擇滅	-11.9897
陛下之	-11.9897
使得	-11.9897
筴	-11.9902
睇	-11.9902
𠂻	-11.9904
不同也	-11.9906
堂記	-11.9907
衢州	-11.9907
徙居	-11.9909
無上道	-11.991
同分	-11.9912
自任	-11.9912
如在	-11.9913
征西	-11.9913
是甚麼	-11.9914
上首	-11.9915
教民	-11.9917
木名	-11.9917
然後知	-11.9917
我法	-11.9917
光景	-11.9918
子儀	-11.9918
京西	-11.992
范蠡	-11.992
冬月	-11.992
薈	-11.9921
欲乞	-11.9922
為母	-11.9922
慶府	-11.9924
坪	-11.9925
琚	-11.9925
聘禮	-11.9925
少者	-11.9926
穡	-11.9926
還宫	-11.9928
化爲	-11.9928
曰不然	-11.9928
青城	-11.9929
不曽	-11.9929
之最	-11.9929
輔政	-11.9931
七種	-11.9933
憍慢	-11.9936
懼其	-11.9937
恐有	-11.9937
吕氏春秋	-11.9939
名家	-11.994
糗	-11.994
能入	-11.994
八方	-11.9941
幾度	-11.9942
物故	-11.9943
鉅鹿	-11.9945
雲霄	-11.9946
一切眾	-11.9946
從人	-11.9948
如山	-11.9949
菰	-11.9949
身見	-11.9949
縵	-11.995
註曰	-11.995
恭儉	-11.9951
五臣	-11.9953
隨風	-11.9953
秋分	-11.9953
不交	-11.9954
晚年	-11.9954
舊事	-11.9955
建徳	-11.9955
盖以	-11.9955
五常	-11.9958
醍醐	-11.9959
汪氏	-11.996
皆具	-11.996
太元	-11.996
四萬	-11.996
汧	-11.9963
曹氏	-11.9965
碣石	-11.9966
住此	-11.9969
神足	-11.9971
流血	-11.9972
具有	-11.9972
專以	-11.9972
延安	-11.9973
籲	-11.9973
鵷	-11.9973
二府	-11.9974
早晚	-11.9975
妄心	-11.9975
届	-11.9976
顙	-11.9977
不輟	-11.9981
府州縣	-11.9981
南來	-11.9982
矚	-11.9982
▁寸	-11.9983
大夏	-11.9983
又東北	-11.9983
堙	-11.9984
遊擊	-11.9986
嵓	-11.9986
十行	-11.9987
榴	-11.9988
豈特	-11.9988
凌雲	-11.9989
已生	-11.9989
雲霞	-11.999
殂	-11.999
烏程	-11.9991
服食	-11.9991
永豐	-11.9991
末年	-11.9992
之所以為	-11.9992
坻	-11.9993
如此而	-11.9993
毘尼	-11.9993
利於	-11.9993
自證	-11.9993
受禪	-11.9994
周制	-11.9994
設有	-11.9995
烟霞	-11.9995
過半	-11.9995
便打	-11.9996
九族	-11.9996
〡	-11.9997
之歌	-11.9998
無表	-11.9999
禕	-11.9999
天資	-12
杜門	-12
鄉飲酒	-12.0001
無意	-12.0001
厯代	-12.0001
機宜	-12.0002
士女	-12.0003
決擇	-12.0003
是否	-12.0004
以降	-12.0004
而走	-12.0004
凡六	-12.0006
溯	-12.0007
念誦	-12.0007
棐	-12.001
唐李	-12.001
承事	-12.0011
必使	-12.0012
布薩	-12.0012
知母	-12.0013
神州	-12.0013
謝氏	-12.0014
蒼茫	-12.0014
物皆	-12.0014
呵責	-12.0015
影像	-12.0015
不曉	-12.0016
要在	-12.0018
琥珀	-12.0018
藺	-12.0018
望其	-12.0018
治兵	-12.0021
木石	-12.0022
甘棠	-12.0022
奩	-12.0022
極言	-12.0023
普濟	-12.0023
吾今	-12.0023
相持	-12.0024
横渠	-12.0024
議郎	-12.0025
報身	-12.0026
清凉	-12.0026
庠序	-12.0027
未入	-12.0028
家法	-12.0029
于民	-12.0029
睿宗	-12.003
亦足	-12.003
八部	-12.0031
曰予	-12.0031
陘	-12.0033
平安	-12.0034
命根	-12.0034
度眾生	-12.0035
藏經	-12.0036
善能	-12.0037
等謹案	-12.0037
臚	-12.0039
一十六	-12.0039
眡	-12.0039
百草	-12.004
闚	-12.0042
周遍	-12.0042
文詞	-12.0042
辛夘	-12.0043
可稱	-12.0043
㯽榔	-12.0044
蒼龍	-12.0044
伏見	-12.0045
僧道	-12.0046
沉香	-12.0047
盤庚	-12.0048
姓也	-12.0048
照耀	-12.0048
下邳	-12.0049
於意云何	-12.0049
視朝	-12.0049
▁補藻	-12.0049
于家	-12.005
頭面	-12.0052
之心也	-12.0052
論主	-12.0052
鴈門	-12.0053
微子	-12.0054
某氏	-12.0055
伏念	-12.0055
興亡	-12.0055
取汁	-12.0055
㨿	-12.0056
描	-12.0056
梭	-12.0056
曰古者	-12.0057
能通	-12.0057
犯法	-12.006
耕種	-12.006
伯克	-12.006
應物	-12.006
不赴	-12.0062
凜	-12.0063
子女	-12.0063
六十六	-12.0063
口舌	-12.0063
我我	-12.0065
革職	-12.0065
工程	-12.0065
人户	-12.0066
所建	-12.0067
方士	-12.0068
世道	-12.007
睡眠	-12.007
四靜慮	-12.0071
毒藥	-12.0071
林鍾	-12.0071
棄其	-12.0073
雲林	-12.0073
撾	-12.0074
事竊	-12.0074
十界	-12.0074
雲居	-12.0076
相交	-12.0076
眾人	-12.0076
古德	-12.0078
絀	-12.0078
雒陽	-12.0079
譛	-12.008
以廣	-12.008
肌肉	-12.0081
保全	-12.0082
復作	-12.0083
六十一	-12.0083
洪水	-12.0083
應劭曰	-12.0084
猨	-12.0084
生處	-12.0085
朝政	-12.0086
九尺	-12.0087
彎	-12.0087
之過也	-12.0087
參議	-12.0088
▁之以	-12.0091
春秋時	-12.0092
果故	-12.0092
眼等	-12.0093
卦爻	-12.0094
以副	-12.0094
往者	-12.0095
㓗	-12.0095
六句	-12.0096
天皇	-12.0099
正氣	-12.0099
或用	-12.0099
虎狼	-12.0101
而況	-12.0101
左氏曰	-12.0101
兵車	-12.0101
卷四	-12.0101
悌	-12.0103
玄沙	-12.0103
宣徽	-12.0104
言之也	-12.0104
上下相	-12.0105
流民	-12.0105
或以為	-12.0106
宿命	-12.0107
吾師	-12.0107
從政	-12.0108
蘧	-12.0108
何名	-12.0108
綿綿	-12.0109
▁正義鄭氏康成曰	-12.011
天真	-12.0111
其城	-12.0112
水清	-12.0112
從父	-12.0112
汝州	-12.0113
或在	-12.0113
儀注	-12.0114
不傷	-12.0114
便能	-12.0115
狃	-12.0117
煇	-12.0117
禁戒	-12.0118
二君	-12.012
集覽	-12.012
二音	-12.0122
為人所	-12.0124
誠有	-12.0124
正宗	-12.0125
堂中	-12.0125
天魔	-12.0126
天府	-12.0127
慼	-12.0127
樂安	-12.0128
戦	-12.0129
校書	-12.0135
貴乎	-12.0135
三聖	-12.0135
棚	-12.0136
武城	-12.0138
千仞	-12.0138
日午	-12.0138
一隅	-12.0139
六十七	-12.0139
所以能	-12.014
西天	-12.014
票	-12.014
消長	-12.014
婿	-12.0145
迷惑	-12.0145
取象	-12.0145
形骸	-12.0145
青春	-12.0145
六祖	-12.0145
矣吾	-12.0146
七廟	-12.0147
影響	-12.0149
八解脫	-12.0151
康叔	-12.0152
橘皮	-12.0152
喜曰	-12.0152
東川	-12.0153
玉藻	-12.0153
此外	-12.0154
香火	-12.0155
分段	-12.0155
稗	-12.0155
鬱鬱	-12.0156
别為	-12.0156
孝亷	-12.0157
高山	-12.0157
每月	-12.0158
秋毫	-12.0159
綉	-12.016
居人	-12.016
屯兵	-12.016
乙丙	-12.016
乃成	-12.0161
以配	-12.0161
不類	-12.0162
大中祥符	-12.0164
者誰	-12.0164
能除	-12.0165
懃	-12.0166
不除	-12.0166
又得	-12.0167
立身	-12.017
鐺	-12.017
霄漢	-12.0172
時刻	-12.0175
怒而	-12.0176
五老	-12.0176
有慶	-12.0177
東歸	-12.0178
景福	-12.0178
聦	-12.0178
岳陽	-12.0179
鑲紅旗	-12.0179
滄州	-12.0179
無欲	-12.018
司冦	-12.018
京房	-12.0181
人萬厯	-12.0182
發源	-12.0182
後因	-12.0184
哉此	-12.0184
有待	-12.0186
碧玉	-12.0187
無算	-12.0187
)〔	-12.0188
建寧	-12.0188
萱	-12.0189
門生	-12.019
常存	-12.019
文忠	-12.0192
提學	-12.0192
救苦	-12.0193
十千	-12.0193
止于	-12.0193
湟	-12.0194
師子吼	-12.0195
所止	-12.0195
神道	-12.0196
君諱	-12.0197
善女人	-12.0198
依於	-12.0201
何義	-12.0202
未然	-12.0202
親征	-12.0202
本名	-12.0205
流星	-12.0206
姜氏	-12.0207
玉京	-12.0207
▁川芎	-12.0208
枲	-12.0209
六十八	-12.0211
十方世界	-12.0211
庄	-12.0212
守正	-12.0212
隨宜	-12.0212
所恃	-12.0212
除滅	-12.0213
大破	-12.0213
鎚	-12.0214
未歸	-12.0214
淳祐	-12.0215
空虚	-12.0216
之為言	-12.0217
三十二相	-12.0218
軺	-12.0218
咸寧	-12.0219
拈拄杖	-12.022
如來說	-12.0221
亦不敢	-12.0223
而不知其	-12.0224
其音	-12.0224
止息	-12.0225
對法	-12.0226
界內	-12.0226
騶虞	-12.0227
誰謂	-12.0229
瑞應	-12.023
積年	-12.0231
中宫	-12.0231
龍池	-12.0232
潞州	-12.0232
金沙	-12.0232
靈帝	-12.0237
不可得故	-12.0237
皤	-12.0238
固不可	-12.0239
千石	-12.024
夷吾	-12.0241
爾雅釋	-12.0242
卷二	-12.0245
呉越	-12.0245
腫痛	-12.0246
湄	-12.0246
各四	-12.0247
貢生	-12.0247
而勿	-12.0247
咸淳	-12.0247
素服	-12.0248
建議	-12.0249
慶雲	-12.0249
以遺	-12.025
金主	-12.025
未識	-12.025
本分	-12.0252
簸	-12.0253
不成就	-12.0253
清泉	-12.0254
出塞	-12.0254
瀰	-12.0255
乘馬	-12.0256
竟陵	-12.0257
歌聲	-12.0257
郕	-12.0257
剗	-12.0259
應對	-12.0264
宣諭	-12.0264
按察	-12.0264
安有	-12.0265
聖意	-12.0265
以為常	-12.0265
歴年	-12.0265
君子不	-12.0266
甓	-12.0266
柴門	-12.0266
不患	-12.0268
帝崩	-12.0268
天下事	-12.0269
桀紂	-12.0269
寧夏	-12.0271
名言	-12.0273
二三子	-12.0273
公卿大夫	-12.0275
好事者	-12.0276
問僧	-12.0277
月夜	-12.0279
暌	-12.0279
為仁	-12.028
祓	-12.0281
但恐	-12.0283
青色	-12.0283
冠者	-12.0283
祺	-12.0286
體相	-12.0286
懼而	-12.0287
壁立	-12.0288
三重	-12.0288
寒泉	-12.0288
問何	-12.0288
行役	-12.0289
以往	-12.029
請上堂	-12.0291
十字	-12.0292
既見	-12.0292
相度	-12.0293
冬日	-12.0293
二物	-12.0294
所著有	-12.0294
前言	-12.0294
去心	-12.0296
合諸侯	-12.0296
鎛	-12.0297
是故說	-12.0297
百官志	-12.0297
所疑	-12.0298
劉氏曰	-12.0298
厲公	-12.0299
能證	-12.0304
儷	-12.0305
蹻	-12.0305
冬十一月	-12.0306
哉然	-12.0306
心痛	-12.0306
膿血	-12.0307
一變	-12.0307
辠	-12.031
形色	-12.0311
長卿	-12.0311
諸弟子	-12.0311
槀	-12.0312
與弟	-12.0313
惡行	-12.0317
一爻	-12.0317
其墓	-12.0317
不擇	-12.0318
淹留	-12.0318
之澤	-12.032
四望	-12.032
獺	-12.0321
法處	-12.0322
二年正月	-12.0322
所持	-12.0327
人父	-12.0327
焉夫	-12.0328
自念	-12.0329
于晉	-12.0331
十五卷	-12.0332
宣德	-12.0332
從他	-12.0332
至治	-12.0332
第十二	-12.0333
被執	-12.0333
本處	-12.0334
沙門釋	-12.0336
孱	-12.0336
無患	-12.0338
所指	-12.0341
其南	-12.0343
不虛	-12.0345
掌其	-12.0345
俱無	-12.0345
悲夫	-12.0348
積雪	-12.0348
自由	-12.0348
荆湖	-12.0349
大槩	-12.0349
弓箭	-12.035
瑱	-12.0352
林間	-12.0352
論事	-12.0353
篡	-12.0354
多情	-12.0355
賈逵	-12.0357
可通	-12.0357
眼目	-12.0358
意樂	-12.0358
揖讓	-12.0358
鸛	-12.0358
身死	-12.036
以南	-12.0361
初出	-12.0361
之禮也	-12.0362
綢繆	-12.0363
于公	-12.0364
刖	-12.0365
鎰	-12.0367
劓	-12.0367
無病	-12.0369
卷三十	-12.0369
七十三	-12.0372
江隂	-12.0373
赴闕	-12.0374
符命	-12.0374
當國	-12.0377
最髙	-12.0378
一口	-12.038
嗅	-12.038
眼根	-12.0381
法體	-12.0381
凡事	-12.0382
惜乎	-12.0382
狠	-12.0382
王君	-12.0382
阿誰	-12.0383
莞	-12.0383
廣韻集韻	-12.0384
閩中	-12.0385
麾下	-12.0388
之累	-12.0388
盛事	-12.0388
為郡	-12.0389
直饒	-12.0389
猶自	-12.0389
肋	-12.0391
予嘗	-12.0393
說得	-12.0395
以北	-12.0395
傳授	-12.0396
所觀	-12.0397
牐	-12.0398
一卦	-12.0398
北岸	-12.0399
開寳	-12.0401
為丞相	-12.0402
又令	-12.0404
犇	-12.0405
頺	-12.0407
必由	-12.0407
都邑	-12.0409
創業	-12.0411
天啟	-12.0412
臣伏	-12.0412
窆	-12.0413
必致	-12.0416
睢陽	-12.042
値	-12.042
塡	-12.042
南行	-12.0421
便成	-12.0422
道俗	-12.0422
深心	-12.0423
開化	-12.0423
憂之	-12.0423
即當	-12.0424
深知	-12.0424
咲	-12.0424
復起	-12.0425
溝洫	-12.0425
長嘯	-12.0425
府治	-12.0425
庭中	-12.0426
椁	-12.0427
彼處	-12.0427
有為法	-12.0428
溉田	-12.0428
之類皆	-12.0429
亦不可得	-12.043
為細末	-12.0431
婺州	-12.0432
去嵗	-12.0432
史臣	-12.0433
逶迤	-12.0433
泥洹	-12.0434
賈氏	-12.0435
千乗	-12.0436
恨不	-12.0436
百五十里	-12.0437
稱善	-12.0437
歸家	-12.0438
盱	-12.0438
高明	-12.0439
誠能	-12.0439
一個	-12.0439
滔滔	-12.044
道家	-12.044
紀年	-12.0443
西征	-12.0444
春三月	-12.0446
亊	-12.0447
金粟	-12.0447
三歲	-12.0448
凉州	-12.0448
月色	-12.0449
拶	-12.0449
過患	-12.0449
夜夜	-12.0449
初住	-12.0449
▁乾薑	-12.045
餘姚	-12.0451
譏之	-12.0451
姦邪	-12.0454
何意	-12.0454
應云	-12.0455
刺之	-12.0456
河漢	-12.0457
周子	-12.046
鴿	-12.046
卷一	-12.0461
仰視	-12.0463
鄰國	-12.0463
保安	-12.0466
倣此	-12.0468
不預	-12.0469
切並音	-12.0469
自新	-12.0471
而輕	-12.0472
騾	-12.0473
衮冕	-12.0475
半錢	-12.0475
搢	-12.0475
令他	-12.0476
又置	-12.0477
不設	-12.0477
甚盛	-12.0477
最大	-12.0478
議處	-12.0478
矣哉	-12.0481
又東逕	-12.0481
竊惟	-12.0482
荆山	-12.0482
花香	-12.0484
鳥名	-12.0484
天際	-12.0484
燕禮	-12.0485
燕趙	-12.0485
學正	-12.0486
之工	-12.0486
來世	-12.0486
跖	-12.0487
里克	-12.0488
韓琦	-12.0488
内附	-12.0489
天雨	-12.049
大畜	-12.0493
梁簡文帝	-12.0493
而後可	-12.0494
張良	-12.0494
髙氏	-12.0494
往事	-12.0494
五祀	-12.0494
行於世	-12.0497
立祠	-12.0497
鞮	-12.0498
是名為	-12.0499
謀反	-12.05
抜	-12.05
西伯	-12.0502
釣魚	-12.0502
師便打	-12.0503
布哈	-12.0504
斿	-12.0505
縝	-12.0505
迦羅	-12.0505
仲舒	-12.0508
壁間	-12.0511
不聴	-12.0513
為證	-12.0515
並為	-12.0515
之劑	-12.0515
鯤	-12.0516
猛獸	-12.0516
而言也	-12.0518
北伐	-12.0519
亳州	-12.0519
宣州	-12.0519
比年	-12.0519
多種	-12.052
甚至	-12.0521
相感	-12.0521
詒	-12.0523
轉變	-12.0523
看花	-12.0523
霍亂	-12.0524
非聖人	-12.0524
不省	-12.0524
二千五百	-12.0525
嚴淨	-12.0525
礮	-12.0525
瀨	-12.0525
正觀	-12.0526
輔之	-12.0528
衆心	-12.0529
埶	-12.0529
文武官	-12.0529
最多	-12.053
萬萬	-12.0531
敗績	-12.0531
枋	-12.0532
敢以	-12.0532
英華	-12.0532
四相	-12.0534
眾生故	-12.0535
公族	-12.0535
駛	-12.0536
又奏	-12.0537
嗚呼哀哉	-12.0537
那箇	-12.0537
一切種智	-12.0538
翛然	-12.0538
鮫	-12.0538
居家	-12.0538
受爵	-12.054
岐山	-12.0541
廬州	-12.0545
勣	-12.0546
笙歌	-12.0547
三爻	-12.0548
染著	-12.0549
並用	-12.055
二隂	-12.0551
積水	-12.0553
撫州	-12.0557
斷惑	-12.0558
殛	-12.0558
姑息	-12.0559
聞之曰	-12.056
户部尚書	-12.056
百七十	-12.056
初文	-12.056
泗水	-12.0561
已說	-12.0563
凟	-12.0563
吉日	-12.0565
祖父母	-12.0565
呂氏	-12.0566
人姓	-12.0567
猺	-12.0567
堊	-12.0567
途中	-12.0568
初約	-12.0569
手中	-12.057
男兒	-12.0571
在縣西北	-12.0571
▁春日	-12.0572
非理	-12.0572
姨	-12.0574
水煎	-12.0575
來奔	-12.0575
公薨	-12.0575
至於此	-12.0576
鼙	-12.0576
諸縣	-12.0577
氣味	-12.0578
莆田	-12.0581
象形	-12.0581
塤	-12.0581
巉	-12.0581
撝	-12.0581
僧尼	-12.0583
瓦礫	-12.0584
宰夫	-12.0585
野老	-12.0587
先言	-12.0588
樓船	-12.0589
鼉	-12.059
歧	-12.059
塵沙	-12.0591
悄	-12.0594
姝	-12.0594
不竭	-12.0595
直得	-12.0597
百王	-12.0598
㑹於	-12.0599
未可知	-12.0599
深衣	-12.06
六波羅蜜	-12.06
白言	-12.0601
▁*****	-12.0601
司官	-12.0601
碧落	-12.0602
先期	-12.0602
罽	-12.0602
何患	-12.0604
聖學	-12.0604
有時而	-12.0605
暦	-12.0608
郛	-12.0608
之辰	-12.0609
留連	-12.0609
梵音	-12.0609
絶頂	-12.0609
戰功	-12.061
蹤跡	-12.061
三部	-12.0611
通論	-12.0612
泣曰	-12.0613
典史	-12.0615
無障礙	-12.0615
若離	-12.0615
▁爾時世尊	-12.0616
之心而	-12.0617
在室	-12.0617
不詳	-12.0617
踴躍	-12.0617
眾會	-12.0618
來求	-12.0619
幙	-12.0619
塑	-12.0619
戎馬	-12.062
不能行	-12.062
硝	-12.0621
户部侍郎	-12.0622
焉得	-12.0623
多難	-12.0623
劉歆	-12.0623
地道	-12.0624
螟	-12.0624
耳非	-12.0624
長驅	-12.0624
眼睛	-12.0624
愛惜	-12.0625
鑣	-12.0626
重華	-12.063
占者	-12.063
俗諦	-12.063
葛根	-12.0631
滅盡	-12.0631
得其所	-12.0632
試問	-12.0633
進爵	-12.0635
之度	-12.0635
曠野	-12.0636
目錄	-12.0636
朱雀	-12.0638
文侯	-12.0638
加意	-12.0639
而不用	-12.0639
未備	-12.0639
能詮	-12.064
喟然	-12.064
設官	-12.064
雲臺	-12.064
祟	-12.0642
國政	-12.0643
安陸	-12.0644
下第二	-12.0649
昌言	-12.065
布帛	-12.065
五行志	-12.065
諸處	-12.065
手自	-12.0651
讀如	-12.0653
獅	-12.0654
苦諦	-12.0655
近侍	-12.0656
其父母	-12.0657
地藏	-12.0658
黻	-12.0658
熖	-12.0658
聞聲	-12.066
纍纍	-12.066
能發	-12.0662
不期	-12.0662
何罪	-12.0663
罔極	-12.0665
建隆	-12.0666
篠	-12.0667
客來	-12.067
為吏	-12.067
熾然	-12.067
靈官	-12.0671
山前	-12.0671
雖得	-12.0673
救護	-12.0673
月滿	-12.0673
内官	-12.0674
前進	-12.0677
薑汁	-12.0677
重來	-12.0677
宜服	-12.0678
當陽	-12.0681
#+	-12.0682
遂得	-12.0683
至善	-12.0684
夢寐	-12.0685
鄉縣	-12.0686
夏秋	-12.0686
諭之	-12.0686
哦	-12.0687
紫芝	-12.0689
不可測	-12.069
󲊛	-12.069
厎	-12.069
時珍曰	-12.069
鯉魚	-12.069
千丈	-12.069
范仲淹	-12.0691
盧氏	-12.0694
吳中	-12.0694
居此	-12.0695
毛氏	-12.0696
宜人	-12.0696
會同	-12.0697
樞宻使	-12.07
誰復	-12.07
郃	-12.0701
萬機	-12.0702
一切相智	-12.0702
蚩尤	-12.0702
畬	-12.0703
族姓	-12.0704
或從	-12.0705
良知	-12.0705
尔	-12.0706
四念住	-12.0707
諸苾芻	-12.0708
周行	-12.0709
五十餘	-12.0709
吾欲	-12.0709
文采	-12.0709
能如是	-12.071
荔枝	-12.0714
百辟	-12.0715
向前	-12.0717
人君之	-12.0718
桓子	-12.072
絲毫	-12.0721
業道	-12.0721
兩淮	-12.0723
菩薩戒	-12.0723
縂	-12.0724
子由	-12.0724
時彼	-12.0725
不停	-12.0726
雲集	-12.0727
潤澤	-12.0728
古佛	-12.0729
吾民	-12.0729
兵起	-12.0729
又是	-12.0731
蜩	-12.0731
天長	-12.0731
只今	-12.0732
顔淵	-12.0734
輔國	-12.0736
鄭州	-12.0736
此一節	-12.0738
七十餘	-12.0739
憂國	-12.0739
界外	-12.074
條理	-12.074
四十餘	-12.0742
乘輿	-12.0742
擿	-12.0742
水西	-12.0744
康節	-12.0745
十三日	-12.0746
召對	-12.0746
顧命	-12.0747
聽受	-12.075
言哉	-12.0751
少室	-12.0751
勤王	-12.0752
君子之道	-12.0753
榮辱	-12.0753
二百餘	-12.0753
眄	-12.0754
文理	-12.0754
梨花	-12.0755
不欺	-12.0756
蒼天	-12.0756
撫之	-12.0757
一切世界	-12.0757
京都	-12.0757
佛經	-12.0758
書史	-12.0759
淑人	-12.076
既久	-12.0762
匯	-12.0763
無塵	-12.0763
隨行	-12.0764
内臣	-12.0766
感慨	-12.0766
蕨	-12.0767
法施	-12.0769
無論	-12.0769
上句	-12.077
罟	-12.077
不同者	-12.0771
會中	-12.0771
冠軍	-12.0773
大樂	-12.0773
城東北	-12.0774
徐徐	-12.0774
尊貴	-12.0774
饔	-12.0774
筝	-12.0774
賞給	-12.0775
便見	-12.0776
婺源	-12.0779
震為	-12.0782
鷂	-12.0786
車輪	-12.0786
以辨	-12.0788
茀	-12.0788
帀	-12.0788
穆宗	-12.0789
賦云	-12.079
圍遶	-12.079
泫	-12.079
直入	-12.0791
但說	-12.0791
隴右	-12.0793
交相	-12.0793
仭	-12.0795
泛舟	-12.0796
萬全	-12.0796
以是因緣	-12.0796
其為人	-12.0796
中士	-12.0796
宓	-12.0797
其美	-12.0798
陽太守	-12.08
畫像	-12.0802
道術	-12.0802
方始	-12.0803
召入	-12.0804
破賊	-12.0805
看得	-12.0806
總領	-12.0807
以彰	-12.0808
離别	-12.0809
者可以	-12.0809
一僧	-12.081
䂓	-12.0811
擊敗	-12.0811
宜春	-12.0812
補注	-12.0815
又將	-12.0815
佛號	-12.0815
在縣東北	-12.0815
利有攸往	-12.0815
述其	-12.0817
兩省	-12.0817
魯侯	-12.0817
潯陽	-12.0818
嶧	-12.0818
愚人	-12.0819
一百二十里	-12.0819
歘	-12.082
今陛下	-12.0821
異矣	-12.0821
蒼苔	-12.0822
淬	-12.0823
今夕	-12.0823
永無	-12.0824
小心	-12.0824
于周	-12.0824
從兄	-12.0825
嗟夫	-12.0826
千歲	-12.0827
纚	-12.0827
未來世	-12.0827
無念	-12.0829
潯	-12.083
六宫	-12.083
是書	-12.083
能取	-12.0833
乙夘	-12.0833
扎薩克	-12.0834
陜州	-12.0835
五濁	-12.0836
數尺	-12.0836
瑯琊	-12.0837
繢	-12.0837
忠賢	-12.0837
遺風	-12.0837
襲職	-12.0838
遁去	-12.0838
水晶	-12.0838
其禍	-12.0839
琨	-12.0841
朝宗	-12.0842
我家	-12.0842
捨身	-12.0844
文館	-12.0844
希夷	-12.0845
襯	-12.0846
秋雨	-12.0848
要知	-12.0849
吏治	-12.085
階下	-12.085
噦	-12.085
講論	-12.0851
利物	-12.0851
大力	-12.0852
老氏	-12.0852
回頭	-12.0853
闐	-12.0854
少監	-12.0855
先登	-12.0855
葬於	-12.0856
亦甚	-12.0856
利根	-12.0857
傳燈	-12.0857
为	-12.0857
别後	-12.0857
▁蕙田案	-12.086
晰	-12.086
舊史	-12.0863
善言	-12.0864
城西南	-12.0865
㝡	-12.0867
十丸	-12.0868
味苦	-12.0869
二百八十	-12.087
性本	-12.0871
舟行	-12.0872
該管	-12.0873
西郊	-12.0875
如是說	-12.0876
呉興	-12.0876
等閒	-12.0877
能起	-12.0877
爪牙	-12.0878
覯	-12.0878
水一盞	-12.088
市井	-12.088
險而	-12.088
為宫	-12.0883
揩	-12.0885
離心	-12.0886
一劫	-12.0887
百畝	-12.0889
无不利	-12.089
等並	-12.0891
二智	-12.0892
又改	-12.0893
正因	-12.0893
恢復	-12.0894
餘里	-12.0895
天之道	-12.0896
因地	-12.0896
意業	-12.0896
以成其	-12.0897
壽量	-12.0899
現觀	-12.0899
媯	-12.0899
蘭若	-12.0899
元年改	-12.0901
如何曰	-12.0902
畢竟空	-12.0903
一座	-12.0903
舡	-12.0904
陳平	-12.0905
駙馬	-12.0906
交錯	-12.0907
擾擾	-12.0907
上意	-12.0908
色界繫	-12.091
詈	-12.091
妙行	-12.0911
欲往	-12.0912
夷簡	-12.0912
尸羅	-12.0912
夤	-12.0912
南岸	-12.0914
夫何	-12.0915
賦役	-12.0917
停止	-12.092
㑹諸侯	-12.092
諄諄	-12.092
龍樹	-12.092
校書郎	-12.092
為陛下	-12.0922
十度	-12.0922
十二人	-12.0923
年四十	-12.0924
鄧州	-12.0924
荆門	-12.0926
㑹昌	-12.0929
蛾眉	-12.093
四瀆	-12.093
大司農	-12.0931
尚能	-12.0931
西流	-12.0931
灤	-12.0932
新豐	-12.0932
遷于	-12.0933
某等	-12.0933
小腸	-12.0934
景徳	-12.0934
已死	-12.0936
們	-12.0936
地官	-12.0938
武定	-12.0939
九十九	-12.094
在府治	-12.094
遺事	-12.0943
伯玉	-12.0943
賜名	-12.0943
蔀	-12.0943
降㫖	-12.0944
河洛	-12.0944
香氣	-12.0948
嗽	-12.0948
衒	-12.0948
化他	-12.0951
福禄	-12.0952
倬	-12.0953
塞外	-12.0954
九州之	-12.0955
補特伽羅	-12.0955
在手	-12.0955
柔軟	-12.0956
應供	-12.0957
團練	-12.0957
▁御定	-12.0958
生氣	-12.0958
既定	-12.0958
孟軻	-12.0958
永貞	-12.0958
非敢	-12.0958
諸軍事	-12.0959
一統	-12.096
四天王	-12.0961
四壁	-12.0961
雍容	-12.0962
耳然	-12.0963
進攻	-12.0963
國夫人	-12.0964
直是	-12.0965
於兹	-12.0965
▲	-12.0966
一粒	-12.0966
六里	-12.0967
之墓	-12.0967
東征	-12.0967
黄鶴	-12.0969
風熱	-12.0969
邯	-12.0969
提婆	-12.097
馨香	-12.0971
隍	-12.0974
殳	-12.0974
授受	-12.0975
大宗伯	-12.0976
韓文	-12.0976
元元年	-12.0978
軍政	-12.0978
正紅旗	-12.0979
正旦	-12.0979
事體	-12.0979
長歌	-12.0979
魏氏	-12.098
舉世	-12.098
搴	-12.0981
荘子	-12.0982
光佛	-12.0983
陳設	-12.0983
虎丘	-12.0984
信乎	-12.0985
饑饉	-12.0986
金光	-12.0986
柔而	-12.0987
還復	-12.0988
登科	-12.0988
者案	-12.0989
作業	-12.0989
資生	-12.099
五章	-12.099
諉	-12.099
阿爾	-12.0991
宫闕	-12.0992
一十八	-12.0992
荷花	-12.0993
燒灰	-12.0994
臨淄	-12.0995
趙云	-12.0996
萬乗	-12.0997
萬姓	-12.0999
先行	-12.1001
主管	-12.1001
恩詔	-12.1002
銕	-12.1002
稍有	-12.1005
金水	-12.1005
聚衆	-12.1005
芥子	-12.1006
孝公	-12.1006
騂	-12.1007
交阯	-12.1008
王舍城	-12.1009
鷁	-12.1009
司天	-12.1009
金匱	-12.1009
景物	-12.101
天下之至	-12.1011
十倍	-12.1011
䕶軍校	-12.1011
喫飯	-12.1011
慟哭	-12.1012
鳥飛	-12.1013
鄂州	-12.1013
蘇秦	-12.1014
錄云	-12.1015
行止	-12.1016
性命之	-12.1016
正智	-12.1016
文粹	-12.1016
清平	-12.1017
》(	-12.1017
仰天	-12.1018
幽居	-12.1019
惠卿	-12.1019
提㸃	-12.1021
雞犬	-12.1022
霍光	-12.1023
庶乎	-12.1025
居住	-12.1025
安邑	-12.1025
壟	-12.1026
忠良	-12.1026
若菩薩	-12.1026
無錫	-12.1027
月朔	-12.1027
孝悌	-12.1029
頓悟	-12.1029
此菩薩	-12.103
秋聲	-12.1031
大腸	-12.1031
海口	-12.1032
𠻳	-12.1033
髙樓	-12.1033
帝堯	-12.1034
獄中	-12.1034
適來	-12.1037
諦觀	-12.1037
寒氣	-12.1039
騎馬	-12.104
天徳	-12.1041
助祭	-12.1041
通教	-12.1041
三篇	-12.1042
直省	-12.1042
泰州	-12.1043
拄杖子	-12.1045
勿使	-12.1045
偵	-12.1047
通考	-12.1051
太牢	-12.1053
説得	-12.1054
滄溟	-12.1054
厥隂	-12.1055
而可以	-12.1057
舊典	-12.1058
楊花	-12.1058
苦節	-12.1058
夫差	-12.1059
問學	-12.1059
嵬	-12.106
史記曰	-12.106
害人	-12.1061
用藥	-12.1061
本願	-12.1062
黄白	-12.1062
都鄙	-12.1063
漢文	-12.1063
羶	-12.1066
綻	-12.1066
引見	-12.1066
震澤	-12.1067
召伯	-12.1067
舟師	-12.1069
藝文	-12.1069
長三尺	-12.1071
所以致	-12.1071
十有四	-12.1071
於一切法	-12.1072
至京	-12.1073
本又作	-12.1073
再服	-12.1074
之誅	-12.1075
受教	-12.1075
已具	-12.1076
潺湲	-12.1077
前期	-12.1078
之祥	-12.1078
往来	-12.1079
管領	-12.1079
出征	-12.1081
鄭玄	-12.1083
工巧	-12.1085
東西南北	-12.1086
大凡	-12.1088
淮海	-12.1088
祭服	-12.1088
金剛經	-12.109
榔	-12.1092
簡公	-12.1094
歩軍	-12.1094
西東	-12.1094
所惡	-12.1094
之力也	-12.1096
无極	-12.1096
自餘	-12.1096
循吏	-12.1096
配享	-12.1098
工部侍郎	-12.11
雎	-12.11
温公	-12.11
韓公	-12.1101
胡不	-12.1102
合肥	-12.1102
難行	-12.1102
遷都	-12.1103
無生忍	-12.1103
▁右㕮咀	-12.1103
凑	-12.1106
司射	-12.1106
釋義	-12.1106
只要	-12.1106
如許	-12.1108
霅	-12.1108
灌溉	-12.1108
平常	-12.1109
雞子	-12.111
一步	-12.1111
楠	-12.1111
胤	-12.1111
雖殊	-12.1111
逆旅	-12.1111
善道	-12.1114
色空	-12.1115
郄	-12.1115
潤州	-12.1117
亹亹	-12.1118
招撫	-12.1119
郡城	-12.112
至聖	-12.112
其任	-12.1121
温州	-12.1121
巳來	-12.1121
武庫	-12.1121
氏族	-12.1122
字註	-12.1122
鏐	-12.1123
淮隂	-12.1123
首楞嚴	-12.1123
身熱	-12.1124
靚	-12.1125
池水	-12.1127
交易	-12.1129
捄	-12.113
一來	-12.113
桓帝	-12.113
門下侍郎	-12.113
武王之	-12.1132
掃地	-12.1133
繇是	-12.1134
鷙	-12.1134
自憐	-12.1134
豈易	-12.1134
敬則	-12.1136
寰宇	-12.1136
制置使	-12.1137
譔	-12.1137
葷	-12.1137
了別	-12.1138
星君	-12.1139
惓惓	-12.1139
明州	-12.114
蒲州	-12.114
一線	-12.1141
運行	-12.1142
孰謂	-12.1142
不越	-12.1143
雲龍	-12.1146
締	-12.1146
眾寶	-12.1146
或謂之	-12.1147
分為三	-12.1147
又詔	-12.1148
𥿄	-12.1149
王業	-12.1149
丁夘	-12.1149
還鄉	-12.1149
赤壁	-12.115
三十丸	-12.1152
川澤	-12.1152
外内	-12.1152
色白	-12.1153
子之言	-12.1154
光祿大夫	-12.1154
執爵	-12.1155
紫金	-12.1155
故舊	-12.1157
十畝	-12.1159
手詔	-12.116
西蜀	-12.116
也以其	-12.116
蹉跎	-12.1161
知禮	-12.1165
佟	-12.1168
德宗	-12.1171
不雜	-12.1171
繼母	-12.1171
田賦	-12.1173
其端	-12.1174
固宜	-12.1176
夜行	-12.1177
天祥	-12.1177
九原	-12.1178
趙公	-12.1179
居然	-12.118
設教	-12.1182
而後有	-12.1182
慶父	-12.1183
周家	-12.1183
庶吉士	-12.1183
鞠躬	-12.1183
獻子	-12.1184
而不及	-12.1184
其大者	-12.1185
隋唐	-12.1185
七十八	-12.1185
天光	-12.1185
悵望	-12.1186
昜	-12.1187
丰	-12.1187
芷	-12.1187
廟在	-12.1188
何耶	-12.1188
五句	-12.1188
埭	-12.1189
雖同	-12.1191
正受	-12.1191
暮春	-12.1191
弟兄	-12.1192
悉令	-12.1193
為御史	-12.1193
了達	-12.1193
孝廉	-12.1195
不返	-12.1195
塵垢	-12.1195
鐘磬	-12.1198
將歸	-12.1199
一十四	-12.1202
幾年	-12.1202
朝貢	-12.1203
】【	-12.1204
而知之	-12.1206
乃還	-12.1207
泉水	-12.1207
萬安	-12.1208
化眾生	-12.1209
西平	-12.1212
釋經	-12.1213
厪	-12.1213
持經	-12.1214
除去	-12.1215
贊者	-12.1215
称	-12.1216
在左	-12.1219
所自出	-12.1219
護念	-12.1219
郊特牲	-12.1223
昔時	-12.1223
趙孟	-12.1225
立朝	-12.1226
功夫	-12.1229
藥王	-12.1229
千乘	-12.1229
語意	-12.1229
六萬	-12.123
圩	-12.123
色青	-12.1231
旡	-12.1233
荷葉	-12.1233
經濟	-12.1235
四體	-12.1235
滁	-12.1235
仁義之	-12.1237
有差別	-12.1237
白虎通	-12.1237
涵養	-12.1237
殆盡	-12.1239
焉耳	-12.1239
継	-12.124
翺翔	-12.124
矍	-12.1242
戰勝	-12.1243
皈依	-12.1244
任事	-12.1247
太平之	-12.1248
千世界	-12.1248
硫黄	-12.1249
欽奉	-12.1249
大車	-12.1249
洺	-12.1249
緦麻	-12.1249
非唯	-12.125
普天	-12.125
枳實	-12.125
惟願	-12.1251
薙	-12.1252
歐陽公	-12.1252
皎皎	-12.1252
十八日	-12.1253
灝	-12.1254
臬	-12.1256
高帝	-12.1258
立秋	-12.1259
太王	-12.1259
延陵	-12.1261
人順治	-12.1262
髙郵	-12.1263
陸續	-12.1263
初問	-12.1264
唧	-12.1264
豺狼	-12.1264
西魏	-12.1264
下第	-12.1265
皆依	-12.1265
前一日	-12.1266
長久	-12.1267
銀河	-12.1267
彗星	-12.1268
不乏	-12.1269
國風	-12.1269
嚩日囉	-12.1269
擊鼓	-12.1269
雖異	-12.1269
人之道	-12.1271
入江	-12.1271
又遣	-12.1271
看來	-12.1271
孰知	-12.1272
百金	-12.1272
文獻通考	-12.1272
無忘	-12.1273
此其所以	-12.1273
不要	-12.1274
不衰	-12.1274
陡	-12.1276
律中	-12.1278
嘗言	-12.1279
卷第四	-12.1279
依稀	-12.1279
何謂也	-12.128
説文云	-12.1283
而去之	-12.1284
造次	-12.1286
而趨	-12.1287
拈起	-12.1288
帥師伐	-12.129
之暇	-12.1291
驅馳	-12.1292
闞	-12.1293
吃	-12.1293
各得其	-12.1296
有悔	-12.1296
用刑	-12.1297
紛然	-12.1297
害於	-12.1297
荀卿	-12.1297
天目	-12.1297
雲飛	-12.1298
獻官	-12.1298
京官	-12.1299
宋板	-12.1299
不登	-12.13
具官	-12.1302
搐	-12.1303
家傳	-12.1303
而遽	-12.1305
多年	-12.1307
所從來	-12.1308
向背	-12.131
皇太	-12.1311
青松	-12.1311
方面	-12.1311
我昔	-12.1311
手指	-12.1313
武備	-12.1313
二百一十	-12.1317
通政	-12.1318
西陵	-12.1319
回向	-12.132
稹	-12.1321
碑文	-12.1322
古道	-12.1323
不均	-12.1324
殺害	-12.1326
持誦	-12.1326
或說	-12.1327
猶恐	-12.1327
巴延	-12.1328
良醫	-12.1328
性善	-12.1328
曉諭	-12.1328
大似	-12.1329
隨心	-12.1331
差官	-12.1331
柞	-12.1332
曰如何是	-12.1333
呉王	-12.1334
揄	-12.1334
珏	-12.1334
六處	-12.1336
駞	-12.1337
稽顙	-12.1337
一服	-12.1337
益甚	-12.1338
百三十	-12.134
山上有	-12.1341
第十三	-12.1342
悪	-12.1344
人心之	-12.1345
桶	-12.1346
六十年	-12.1346
懴	-12.1346
可笑	-12.1349
葉落	-12.1351
物色	-12.1352
是歲	-12.1352
城東南	-12.1353
先君之	-12.1353
楼	-12.1354
一番	-12.1355
西海	-12.1355
館閣	-12.1355
矗	-12.1356
虀	-12.1356
髑髏	-12.1356
▁訶薩	-12.1358
天池	-12.1358
艮為	-12.1358
凭	-12.1358
寥廓	-12.136
失禮	-12.136
賢士	-12.136
連年	-12.1361
微塵數	-12.1362
其誰	-12.1362
朕心	-12.1362
奮迅	-12.1362
蜀中	-12.1363
璩	-12.1363
呉氏	-12.1363
莊周	-12.1364
上供	-12.1364
猛虎	-12.1365
燋	-12.1368
讀者	-12.137
鮒	-12.1371
照臨	-12.1371
家藏	-12.1372
五七	-12.1372
進止	-12.1373
乱	-12.1373
癰疽	-12.1373
眉毛	-12.1373
大猷	-12.1374
河南尹	-12.1375
繫於	-12.1375
篙	-12.1375
聞奏	-12.1376
成形	-12.1376
甚重	-12.138
禺	-12.138
池州	-12.138
龍骨	-12.1381
驗之	-12.1383
能勝	-12.1384
上虞	-12.1385
南州	-12.1385
貧富	-12.1385
不懼	-12.1387
䆒	-12.1388
袵	-12.1388
為郎	-12.1389
吁嗟	-12.1389
菅	-12.139
七地	-12.1394
既知	-12.1394
楸	-12.1395
今改正	-12.1396
儒生	-12.1396
千四百	-12.1396
鏘	-12.1398
輜重	-12.1398
上香	-12.1398
萬仞	-12.1399
之子孫	-12.1399
班師	-12.14
者必有	-12.14
堞	-12.1402
雲騎尉	-12.1402
一郡	-12.1404
深廣	-12.1404
七夕	-12.1404
椅	-12.1405
公室	-12.1405
知幾	-12.1406
之類也	-12.1406
真俗	-12.1406
轉相	-12.1408
賢臣	-12.1408
正字通	-12.1408
各置	-12.1408
四海之	-12.1409
右丞相	-12.141
丹田	-12.1411
于天下	-12.1411
根性	-12.1412
七十七	-12.1412
米價	-12.1413
黙然	-12.1414
公劉	-12.1415
月落	-12.1417
國子祭酒	-12.142
呬	-12.1422
膓	-12.1422
州防禦使	-12.1423
六龍	-12.1424
意根	-12.1425
生瘡	-12.1425
織女	-12.1426
皈	-12.1427
璇	-12.1427
昭宗	-12.1428
土官	-12.1431
王臣	-12.1431
柿	-12.1432
下血	-12.1432
杜甫詩	-12.1432
小吏	-12.1433
我慢	-12.1434
訢	-12.1434
上京	-12.1436
𧰼	-12.1437
壕	-12.1437
困窮	-12.1437
貓	-12.1439
等流	-12.144
行幸	-12.1442
伯禽	-12.1444
椘	-12.1444
鄂爾	-12.1445
楚楚	-12.1447
邦家	-12.1447
之炁	-12.1447
罪福	-12.1447
列名	-12.1451
修善	-12.1451
慇懃	-12.1454
避地	-12.1454
西晉	-12.1455
長公主	-12.1456
案此	-12.1459
碭	-12.1459
驪山	-12.1459
河口	-12.146
成徳	-12.1461
烘	-12.1461
威福	-12.1462
詩句	-12.1462
宮中	-12.1462
何憂	-12.1462
也音義	-12.1463
之區	-12.1463
輕車都尉	-12.1464
鳧	-12.1464
擯者	-12.1464
蠲免	-12.1465
監本	-12.1465
誠信	-12.1465
諸藥	-12.1465
不貪	-12.1467
而歸之	-12.1468
新建	-12.1468
院事	-12.1468
兵民	-12.1469
威武	-12.1473
一莖	-12.1474
臺灣	-12.1476
小小	-12.1477
十方諸佛	-12.1477
日進	-12.1477
倉庫	-12.1478
八十八	-12.1481
蹂	-12.1481
韓氏	-12.1482
乎對曰	-12.1482
譯曰	-12.1485
菩薩摩訶	-12.1485
聖訓	-12.1485
鍇	-12.1486
棄捨	-12.1487
然哉	-12.1488
三千人	-12.1489
不事	-12.1489
相攻	-12.149
赧	-12.1491
初發	-12.1491
莆	-12.1491
後世之	-12.1491
楊公	-12.1491
髙平	-12.1492
萬神	-12.1493
羆	-12.1493
注謂	-12.1494
才能	-12.1494
三百餘	-12.1495
擠	-12.1496
知止	-12.1496
刦	-12.1498
鮪	-12.1498
氣虚	-12.1498
祈雨	-12.1498
樞機	-12.1498
地利	-12.1499
礫	-12.15
東北流	-12.15
茂陵	-12.15
多爾濟	-12.1501
粢盛	-12.1503
番禺	-12.1504
品云	-12.1504
教令	-12.1505
雪中	-12.1507
道學	-12.1508
徒勞	-12.1508
三十二年	-12.1511
聽命	-12.1512
低頭	-12.1513
旐	-12.1513
里許	-12.1514
僧中	-12.1514
由彼	-12.1515
終不可	-12.1516
訛作	-12.1519
熾盛	-12.1519
戰死	-12.1521
麯	-12.1523
扐	-12.1523
應須	-12.1523
古制	-12.1523
子游	-12.1523
紫雲	-12.1523
幸得	-12.1524
水浸	-12.1525
凈	-12.1525
九十八	-12.1526
他事	-12.1526
簡文	-12.1528
一切煩惱	-12.1531
桓温	-12.1535
抑亦	-12.1535
茅山	-12.1536
昆明	-12.1536
閨門	-12.1537
有事於	-12.1538
嚢	-12.1538
九鼎	-12.1538
巳前	-12.1539
石渠	-12.154
路寢	-12.154
躐	-12.154
康公	-12.154
千嵗	-12.1541
業報	-12.1544
中有三	-12.1545
老母	-12.1546
不敏	-12.1547
天下後世	-12.1548
菟	-12.1548
康熙三十	-12.1548
大歡喜	-12.1548
汩	-12.155
此爻	-12.1551
云何名	-12.1551
所養	-12.1553
無妨	-12.1553
長官司	-12.1554
宴坐	-12.1555
致命	-12.1555
刑名	-12.1555
伐晉	-12.1556
他時	-12.1557
盌	-12.1558
者箇	-12.1558
平等性	-12.1558
固請	-12.156
特書	-12.156
形像	-12.156
各具	-12.156
南浦	-12.1561
先覺	-12.1561
十有九	-12.1561
蔡州	-12.1561
開花	-12.1562
遺跡	-12.1563
武威	-12.1564
放過	-12.1564
公車	-12.1565
應詔	-12.1569
無所用	-12.1569
帷幄	-12.1571
臨安府	-12.1572
行脚	-12.1575
一頌	-12.1575
四牡	-12.1576
拜送	-12.1577
祠祀	-12.158
必求	-12.1581
至眞	-12.1582
諏	-12.1582
十有三	-12.1583
儕	-12.1583
公輔	-12.1584
尊賢	-12.1585
天下皆	-12.1585
㑹試	-12.1586
尺餘	-12.1586
嬈	-12.1587
蔗	-12.1588
第八識	-12.159
積善	-12.1591
易林	-12.1592
務在	-12.1593
臠	-12.1595
巽為	-12.1596
身業	-12.1597
七十四	-12.1597
訕	-12.1597
蒨	-12.1597
腹滿	-12.1598
州都督	-12.1598
與否	-12.1599
衡州	-12.16
事聞	-12.16
再拜稽首	-12.16
應鍾	-12.16
累年	-12.1601
還歸	-12.1601
之言曰	-12.1603
取捨	-12.1604
錢唐	-12.1605
花枝	-12.1608
問佛	-12.1608
八極	-12.161
神化	-12.161
以待之	-12.1612
奉迎	-12.1613
阿羅	-12.1613
相向	-12.1614
和樂	-12.1615
和州	-12.1616
言訖	-12.1616
歸宗	-12.1616
筑	-12.1617
元亨利貞	-12.1618
山之陽	-12.162
電光	-12.1621
赤松	-12.1621
偃蹇	-12.1621
移文	-12.1622
所傷	-12.1623
封爵	-12.1624
真理	-12.1624
搢紳	-12.1628
由斯	-12.1629
講堂	-12.1631
終于	-12.1631
窮盡	-12.1631
太虛	-12.1633
風露	-12.1633
改易	-12.1634
卷三	-12.1636
受樂	-12.1636
惟公	-12.1637
龍腦	-12.1637
啐	-12.164
優婆夷	-12.164
卹	-12.164
通別	-12.164
筆墨	-12.1641
諭以	-12.1641
冷水	-12.1642
祕閣	-12.1642
来歸	-12.1642
用功	-12.1642
傘	-12.1642
太子太保	-12.1644
京邑	-12.1645
淋漓	-12.1645
當機	-12.1646
衲子	-12.1647
拈香	-12.1647
可久	-12.1648
復古	-12.1648
淙	-12.165
舉動	-12.1651
打破	-12.1651
牟尼	-12.1652
征討	-12.1653
不嫌	-12.1654
堅守	-12.1655
四員	-12.1655
穽	-12.1655
得其人	-12.1657
糝	-12.1657
謝公	-12.1659
芳菲	-12.1659
動作	-12.166
壌	-12.166
尚多	-12.1661
化育	-12.1662
品中	-12.1662
兩字	-12.1664
富民	-12.1664
相忘	-12.1665
不懈	-12.1665
百嵗	-12.1666
地位	-12.1666
神物	-12.1666
怳	-12.1668
闌干	-12.1668
四無所畏	-12.1668
榖梁傳	-12.1668
涇陽	-12.1669
咨嗟	-12.1669
柔弱	-12.1671
法住	-12.1672
已甚	-12.1673
酒泉	-12.1673
國學	-12.1673
蘆花	-12.1674
所賜	-12.1675
尤多	-12.1677
骨髓	-12.1677
正等覺	-12.1677
白蓮	-12.1677
亦稱	-12.1678
焚其	-12.1681
附㑹	-12.1684
條例	-12.1684
承制	-12.1686
所變	-12.1687
可比	-12.1688
儒術	-12.169
宗祀	-12.169
必不能	-12.169
純陽	-12.1691
雷公	-12.1691
司業	-12.1691
毛詩曰	-12.1692
縣境	-12.1692
岌	-12.1693
亦可謂	-12.1693
遍滿	-12.1694
兵士	-12.1695
勢必	-12.1695
曾無	-12.1696
反下同	-12.1697
遂致	-12.1697
自此始	-12.17
州知州	-12.17
城西北	-12.1701
杜氏曰	-12.1701
挨	-12.1703
憐愍	-12.1704
渦	-12.1705
對酒	-12.1707
法制	-12.1709
哉今	-12.1709
千峰	-12.1709
閥	-12.171
交州	-12.1711
本源	-12.1712
於後世	-12.1713
山陰	-12.1715
諠	-12.1715
賭	-12.1715
羽毛	-12.1715
仲冬	-12.1716
異相	-12.1717
池塘	-12.1717
福寺	-12.1719
六神通	-12.1719
尋伺	-12.172
鱠	-12.172
外事	-12.1721
必將	-12.1722
逃亡	-12.1722
雌雄	-12.1722
僅存	-12.1723
妄見	-12.1723
茄	-12.1725
季秋	-12.1729
往復	-12.173
酆	-12.173
改封	-12.1731
衰老	-12.1731
蟋蟀	-12.1733
彖辭	-12.1735
汾州	-12.1735
底人	-12.1736
業障	-12.1736
受福	-12.1737
集巻十	-12.1738
淨業	-12.1738
逆賊	-12.1739
字韻	-12.174
下文云	-12.1741
南歸	-12.1741
兩足	-12.1741
萬夫	-12.1742
木葉	-12.1743
流亡	-12.1743
詫	-12.1743
遨	-12.1743
伏兵	-12.1743
土司	-12.1744
苫	-12.1746
半日	-12.1746
虚無	-12.1746
袁州	-12.1746
二十八宿	-12.1747
廊廟	-12.1748
勝處	-12.1751
孀	-12.1751
祈禱	-12.1751
極目	-12.1752
仝	-12.1752
東魏	-12.1752
離散	-12.1752
五部	-12.1753
郅	-12.1753
於戲	-12.1754
▁摩訶薩	-12.1754
哀帝	-12.1755
生擒	-12.1756
伯仲	-12.1757
湘水	-12.1758
拈出	-12.1758
勝進	-12.1758
頹	-12.1758
經部	-12.1759
蘗	-12.176
老師	-12.176
溝壑	-12.1761
裴度	-12.1762
夫妻	-12.1763
未滿	-12.1763
悰	-12.1763
九華	-12.1764
人之情	-12.1764
又廣韻	-12.1765
如鏡	-12.1768
所以爲	-12.1768
永州	-12.1768
禮樂之	-12.1768
拇	-12.1769
不絕	-12.1769
副都	-12.1769
老子曰	-12.1772
龍飛	-12.1774
日落	-12.1774
稱讚	-12.1778
此據	-12.1779
文士	-12.178
柟	-12.1781
享年	-12.1782
然後可	-12.1782
舊説	-12.1784
[...]
