<unk>	0
<s>	0
</s>	0
。	-2.21557
▁	-2.98171
,	-4.0001
者	-4.94721
也	-5.10261
故	-5.14052
、	-5.15105
(	-5.25058
)	-5.2921
之	-5.37639
不	-5.52023
為	-5.54534
有	-5.5549
以	-5.55699
是	-5.62742
無	-5.6351
一	-5.65433
若	-5.78706
二	-5.79587
於	-5.80162
如	-5.82913
▁「	-5.84222
即	-5.84723
而	-5.88287
中	-5.89567
▁*	-5.89997
此	-5.93134
法	-5.97375
心	-5.99646
三	-5.99658
得	-6.08069
等	-6.08348
。」	-6.0993
名	-6.101
云	-6.10697
非	-6.11482
人	-6.14111
謂	-6.16018
行	-6.16955
佛	-6.17299
生	-6.17508
時	-6.21437
曰	-6.24309
相	-6.25357
見	-6.26647
下	-6.28112
言	-6.28834
說	-6.31429
其	-6.32177
則	-6.36411
至	-6.3804
大	-6.38346
上	-6.39908
自	-6.42231
作	-6.43024
與	-6.43481
明	-6.46399
及	-6.46854
四	-6.47798
因	-6.5112
道	-6.52871
亦	-6.55706
身	-6.56374
我	-6.57069
▁【	-6.6019
彼	-6.60326
又	-6.60516
菩薩	-6.609
所	-6.60929
問	-6.61183
!	-6.62808
;	-6.6297
出	-6.63785
諸	-6.64317
師	-6.65764
)。	-6.6606
在	-6.67355
入	-6.68568
後	-6.68847
義	-6.69008
處	-6.70615
:「	-6.71561
經	-6.72096
或	-6.75503
從	-6.76181
皆	-6.76234
事	-6.77458
。】	-6.78159
一切	-6.79358
同	-6.8112
如是	-6.81129
成	-6.81181
▁(	-6.83073
前	-6.84435
五	-6.84898
今	-6.85477
起	-6.85946
如來	-6.86665
來	-6.86958
多	-6.87603
?	-6.88076
受	-6.89238
初	-6.90128
觀	-6.91163
智	-6.91454
應	-6.91573
意	-6.92616
知	-6.93146
善	-6.93664
已	-6.94582
」	-6.94963
當	-6.96569
通	-6.96856
天	-6.96888
住	-6.97066
空	-6.97713
能	-6.99683
欲	-7.00132
緣	-7.00608
地	-7.01914
然	-7.0264
本	-7.03034
反	-7.03705
令	-7.03996
眾生	-7.05708
修	-7.06039
王	-7.06188
引	-7.06537
正	-7.07355
分	-7.07444
用	-7.09982
性	-7.10482
由	-7.11832
解	-7.12058
依	-7.12488
色	-7.12531
:	-7.13636
眾	-7.13984
耶	-7.1414
去	-7.14269
子	-7.14552
乃	-7.15002
常	-7.15507
果	-7.16324
定	-7.16579
汝	-7.16605
可	-7.1932
取	-7.19327
離	-7.19693
聞	-7.19789
盡	-7.20119
教	-7.20319
難	-7.20623
巳	-7.20802
十	-7.21301
水	-7.21513
文	-7.21807
答	-7.21948
識	-7.21996
雖	-7.22053
僧	-7.22075
六	-7.22468
先	-7.23211
世尊	-7.23506
隨	-7.24376
復	-7.24442
山	-7.25226
滅	-7.25872
別	-7.26364
乃至	-7.2642
論	-7.26513
門	-7.26986
次	-7.27006
既	-7.27173
清淨	-7.27413
過	-7.2743
真	-7.29359
破	-7.29669
聲	-7.29683
語	-7.30207
淨	-7.30556
體	-7.31822
何	-7.32736
釋	-7.32741
但	-7.33161
便	-7.33211
斷	-7.3335
未	-7.33991
現	-7.34644
不得	-7.35307
戒	-7.36
念	-7.36474
立	-7.36507
唯	-7.36531
合	-7.36832
顯	-7.37304
開	-7.38287
求	-7.39337
師曰	-7.39964
業	-7.40755
七	-7.41042
世	-7.41047
苦	-7.41926
著	-7.43661
即是	-7.43711
他	-7.43819
俱	-7.43923
食	-7.43961
具	-7.44295
理	-7.45138
重	-7.45297
八	-7.46552
方	-7.46912
▁**	-7.47096
勝	-7.47163
餘	-7.47651
發	-7.48516
云何	-7.48591
耳	-7.48703
想	-7.48751
日	-7.49792
音	-7.50139
境	-7.50294
樂	-7.50365
舉	-7.5041
向	-7.51078
光	-7.51134
實	-7.51655
覺	-7.52125
禪師	-7.5248
攝	-7.52655
師云	-7.53055
會	-7.5338
異	-7.53507
將	-7.54055
外	-7.54102
矣	-7.54464
內	-7.5474
轉	-7.55054
結	-7.55717
還	-7.56702
信	-7.56707
持	-7.57187
頭	-7.59144
衣	-7.59258
慧	-7.59465
願	-7.59868
對	-7.60057
位	-7.60346
廣	-7.61337
證	-7.6181
.	-7.62021
捨	-7.62207
小	-7.62222
物	-7.62251
深	-7.62263
宗	-7.63117
化	-7.63227
力	-7.63705
比丘	-7.63925
風	-7.64569
除	-7.64729
請	-7.65222
方便	-7.66172
長	-7.66177
根	-7.66612
二合	-7.67855
坐	-7.68976
學	-7.69737
字	-7.69797
妙	-7.70089
分別	-7.70258
數	-7.70328
無量	-7.70466
使	-7.70635
名為	-7.70846
?」	-7.71287
白	-7.71404
施	-7.71589
喻	-7.71636
共	-7.7181
更	-7.71887
安	-7.72002
▁二	-7.72881
德	-7.72927
】	-7.73314
功德	-7.74535
眼	-7.747
火	-7.75286
不可	-7.75422
不能	-7.75515
兩	-7.75846
惡	-7.76088
集	-7.76379
各	-7.76568
九	-7.77099
總	-7.77277
要	-7.77464
種	-7.77639
歸	-7.78844
乎	-7.79087
指	-7.79088
雲	-7.79115
須	-7.79752
約	-7.804
示	-7.80569
寶	-7.80711
香	-7.8076
國	-7.81299
高	-7.81545
主	-7.81653
藏	-7.82077
了	-7.8223
家	-7.82515
且	-7.82797
疏	-7.82954
涅槃	-7.82999
成就	-7.83239
神	-7.83497
圓	-7.8358
聖	-7.83739
必	-7.84402
煩惱	-7.84905
月	-7.85177
因緣	-7.85258
執	-7.85363
死	-7.85673
是故	-7.85909
解脫	-7.86833
所以	-7.86847
故云	-7.87284
報	-7.87858
好	-7.88268
華	-7.8873
口	-7.88946
世間	-7.89424
遠	-7.89815
疑	-7.90018
:『	-7.90632
莫	-7.90939
悉	-7.90978
諸佛	-7.90981
供養	-7.9117
思	-7.91261
金	-7.91681
遂	-7.9169
度	-7.91912
到	-7.9241
不知	-7.9285
寺	-7.93935
失	-7.94083
病	-7.94169
滿	-7.94318
悟	-7.94955
和尚	-7.95036
居	-7.95093
利	-7.95256
愛	-7.95274
止	-7.95528
命	-7.95713
種種	-7.96358
記	-7.96469
品	-7.96765
少	-7.97019
往	-7.97313
稱	-7.97708
海	-7.98283
禪	-7.98487
公	-7.98617
就	-7.98715
▁是	-7.98784
和	-7.99107
生死	-7.99256
第二	-7.99889
罪	-7.99952
傳	-8.0082
法界	-8.01249
是名	-8.01275
似	-8.02267
觸	-8.02331
無有	-8.02699
無明	-8.02831
界	-8.03121
極	-8.0337
足	-8.03941
三昧	-8.04101
清	-8.04477
照	-8.04782
妄	-8.05048
何以故	-8.05124
流	-8.05172
吾	-8.05548
略	-8.07093
猶	-8.08643
動	-8.09738
所謂	-8.09883
句	-8.09943
機	-8.10009
聽	-8.10227
具足	-8.10338
老	-8.10649
那	-8.11125
書	-8.11265
直	-8.12055
年	-8.12149
順	-8.12415
辨	-8.12588
迷	-8.12705
形	-8.12722
。』	-8.12787
底	-8.12947
凡	-8.13267
親	-8.13299
禮	-8.13663
手	-8.13723
不同	-8.14084
並	-8.14831
遍	-8.15557
不見	-8.16933
犯	-8.16976
造	-8.17007
福	-8.17218
始	-8.17316
女	-8.17557
相應	-8.1759
于	-8.17668
故名	-8.17954
▁有	-8.18168
樹	-8.18209
第三	-8.18228
印	-8.18581
花	-8.19636
說法	-8.19709
目	-8.19859
被	-8.19861
絕	-8.19928
龍	-8.20317
看	-8.2038
情	-8.20812
邪	-8.20887
元	-8.21519
石	-8.22185
却	-8.22211
阿難	-8.22834
夜	-8.22907
爾時	-8.23073
普	-8.23295
障	-8.2354
諸法	-8.23561
第一	-8.23635
類	-8.23904
惑	-8.24084
計	-8.24364
塵	-8.25333
斯	-8.25507
自在	-8.25786
大乘	-8.25977
全	-8.26004
般若	-8.26101
古	-8.26455
真如	-8.26573
忍	-8.26936
喜	-8.27286
路	-8.27342
出家	-8.27519
南	-8.27599
乘	-8.27825
▁生	-8.27894
竟	-8.27991
阿	-8.28204
▁法	-8.28205
頌	-8.28339
▁△	-8.28351
法身	-8.28703
莊嚴	-8.28785
世界	-8.28856
亦不	-8.29032
習	-8.29587
土	-8.29715
差別	-8.29931
佛法	-8.3003
豈	-8.30121
等者	-8.30153
爾	-8.30344
羅	-8.3043
▁問	-8.30471
金剛	-8.30645
如何	-8.30823
表	-8.30924
光明	-8.31014
近	-8.31543
境界	-8.31607
打	-8.31715
染	-8.31864
參	-8.31878
終	-8.3192
智慧	-8.32321
百	-8.32506
平等	-8.3256
▁南無	-8.32642
屬	-8.33431
新	-8.33982
尋	-8.34144
於此	-8.34246
益	-8.34384
菩	-8.34778
假	-8.3515
達	-8.35423
邊	-8.35538
復次	-8.35583
加	-8.35867
城	-8.35898
菩提	-8.362
母	-8.36256
修行	-8.36341
自性	-8.36382
蓋	-8.36481
味	-8.37147
帝	-8.37174
獨	-8.37225
夫	-8.37358
▁言	-8.37773
次第	-8.37986
甚	-8.38187
祖	-8.38316
俗	-8.38465
▁初	-8.3861
不生	-8.3899
▁三	-8.39635
摩	-8.39657
望	-8.39722
東	-8.39789
譬	-8.40573
聲聞	-8.40673
變	-8.40693
設	-8.40742
貪	-8.4087
萬	-8.40948
千	-8.41107
像	-8.41107
藥	-8.41324
劫	-8.41595
「	-8.41777
▁為	-8.4189
尊	-8.42514
殺	-8.4298
而不	-8.4315
許	-8.43166
增	-8.43232
半	-8.43237
以為	-8.43264
今日	-8.43265
興	-8.43317
無常	-8.43341
散	-8.43502
誰	-8.43699
木	-8.43859
壞	-8.44215
無相	-8.44377
如此	-8.44418
▁***	-8.44506
趣	-8.44867
進	-8.4519
迦	-8.45276
大眾	-8.45402
玄	-8.45789
善男子	-8.45829
制	-8.45953
裏	-8.45955
究竟	-8.46024
護	-8.46221
西	-8.46349
尼	-8.46566
惟	-8.46738
波	-8.46983
治	-8.47137
不應	-8.47399
雨	-8.47448
弟子	-8.47721
量	-8.47942
聚	-8.48141
》	-8.48145
易	-8.4841
若有	-8.48464
▁云	-8.48699
州	-8.49008
齊	-8.49532
平	-8.4987
昔	-8.49938
無漏	-8.5004
林	-8.50055
覆	-8.50115
魔	-8.50199
息	-8.5042
墮	-8.51234
比	-8.51299
靈	-8.51462
首	-8.5158
麼	-8.5167
一一	-8.51745
尚	-8.51999
婆	-8.52054
草	-8.521
沙門	-8.52275
放	-8.52422
二乘	-8.52586
外道	-8.5297
輪	-8.52988
兼	-8.53169
居士	-8.53198
法門	-8.53318
部	-8.53547
偈	-8.53587
微	-8.53842
久	-8.54214
何故	-8.54239
精進	-8.54577
寂	-8.54697
慈	-8.54738
因果	-8.54867
▁佛	-8.55082
焉	-8.55095
亦無	-8.55121
▁人	-8.55159
無所	-8.55175
沒	-8.55177
自然	-8.55335
▁○	-8.55385
致	-8.55409
面	-8.55429
輕	-8.55701
十方	-8.55714
此是	-8.55766
恒	-8.55873
遮	-8.55974
落	-8.55988
你	-8.56781
奉	-8.58006
感	-8.58074
遊	-8.58151
▁得	-8.58299
況	-8.58349
脫	-8.58958
都	-8.59059
遇	-8.59084
經云	-8.59244
當知	-8.59345
▁一	-8.5948
二者	-8.59483
超	-8.5973
一切眾生	-8.60184
此中	-8.604
氣	-8.60453
切	-8.60596
間	-8.6066
辯	-8.61175
宜	-8.61247
有情	-8.61479
律	-8.61505
第四	-8.61559
所有	-8.61594
夢	-8.6167
菩薩摩訶薩	-8.61749
舍	-8.62263
▁此	-8.62584
號	-8.62608
退	-8.62798
并	-8.62894
只	-8.63187
如何是	-8.63195
譯	-8.63209
哉	-8.63219
誦	-8.63837
一者	-8.63874
雙	-8.64175
過去	-8.64193
譬如	-8.64206
頓	-8.64218
宿	-8.64256
告	-8.64288
周	-8.64373
皆是	-8.64468
存	-8.64668
志	-8.64964
伏	-8.65301
讚	-8.65554
父	-8.65679
馬	-8.65704
三界	-8.65799
牛	-8.66033
佛言	-8.66298
的	-8.66521
漸	-8.66596
無礙	-8.66668
未來	-8.66697
▁爾時	-8.66796
隱	-8.66898
細	-8.67069
▁南无	-8.67111
現在	-8.67183
據	-8.67226
歎	-8.67369
所說	-8.67476
經一卷	-8.67546
歡喜	-8.67553
之法	-8.67834
功	-8.6802
器	-8.68219
思惟	-8.68312
▁心	-8.68324
遣	-8.68391
靜	-8.68523
末	-8.68748
珠	-8.68826
善現	-8.68891
勸	-8.68973
權	-8.69026
獲	-8.6913
塔	-8.69158
善根	-8.70049
堂	-8.70065
故曰	-8.70262
舊	-8.70284
恐	-8.70302
精	-8.70399
陰	-8.70484
縛	-8.70596
壽	-8.7061
真實	-8.7103
野	-8.71105
鬼	-8.71115
收	-8.71393
第	-8.71577
▁說	-8.71603
)。】	-8.71667
待	-8.71937
簡	-8.72079
無二	-8.72243
徧	-8.72275
置	-8.72325
▁論	-8.72372
答曰	-8.72396
一日	-8.72533
一心	-8.7274
影	-8.72828
鼻	-8.73023
之所	-8.73171
▁時	-8.73193
違	-8.7321
懷	-8.73221
法性	-8.73341
忽	-8.73348
密	-8.73428
舌	-8.73446
亡	-8.7347
春	-8.73528
決定	-8.73635
敬	-8.7376
提	-8.7409
象	-8.74119
一句	-8.74196
留	-8.74228
標	-8.74495
若不	-8.74555
亂	-8.74625
倒	-8.74699
永	-8.74742
種子	-8.74802
凡夫	-8.75213
一切法	-8.75282
諦	-8.75322
父母	-8.75362
章	-8.75479
和合	-8.75636
囉	-8.75758
嚴	-8.75875
不動	-8.76088
幾	-8.7685
供	-8.76969
圓滿	-8.77054
支	-8.77223
寒	-8.77242
漢	-8.77302
述	-8.77435
翻	-8.77454
忘	-8.77678
窮	-8.77754
守	-8.7785
虛空	-8.77892
現前	-8.78021
尊者	-8.78097
虛	-8.78132
序	-8.78156
根本	-8.78585
頂	-8.78623
錄	-8.78639
玉	-8.78809
妄想	-8.7894
十二	-8.78974
無生	-8.79104
不是	-8.79111
容	-8.79154
疾	-8.79318
無為	-8.79458
燈	-8.79581
▁曰	-8.79752
法師	-8.7976
相續	-8.79786
沙	-8.79872
君	-8.80032
生滅	-8.80157
鉢	-8.80386
此云	-8.80665
無邊	-8.80848
雜	-8.81167
陀	-8.81175
節	-8.81273
一念	-8.81306
此經	-8.81442
北	-8.81627
▁薩	-8.81709
座	-8.81808
宣	-8.81881
▁上堂	-8.81895
幻	-8.8213
橫	-8.82339
無別	-8.82476
▁中	-8.8265
以此	-8.82801
笑	-8.82819
中有	-8.82939
由此	-8.83609
之中	-8.83683
寧	-8.83739
▁若	-8.8378
辭	-8.83939
咸	-8.84008
曾	-8.84042
猶如	-8.84183
授	-8.84298
賢	-8.84488
遠離	-8.84524
虗	-8.8454
▁來	-8.85036
燒	-8.85068
上堂	-8.85096
欲界	-8.85427
例	-8.85651
之人	-8.85804
歲	-8.86143
是為	-8.86252
正法	-8.86347
承	-8.86461
最	-8.86672
列	-8.86688
▁知	-8.86872
救	-8.86908
財	-8.87096
觀察	-8.87099
推	-8.87129
地獄	-8.87141
賊	-8.87246
▁行	-8.87271
悲	-8.8731
亦名	-8.87803
我今	-8.87858
▁如	-8.87959
垂	-8.87976
▁師云	-8.88005
羯磨	-8.88119
黃	-8.88233
偏	-8.8853
乞	-8.8854
堅	-8.88839
雪	-8.89205
一時	-8.89392
三世	-8.89664
三乘	-8.89696
▁界	-8.89844
文殊	-8.8991
交	-8.9001
山僧	-8.90024
復有	-8.90097
之心	-8.90588
盛	-8.90621
太	-8.90658
朝	-8.90874
關	-8.90944
陳	-8.91004
小乘	-8.91068
代	-8.91155
長者	-8.91334
濟	-8.9139
布	-8.91398
不離	-8.92052
修習	-8.92065
骨	-8.92159
又云	-8.92314
虗空	-8.92617
○	-8.92768
有二	-8.92994
法華	-8.93107
可知	-8.93173
呪	-8.93174
所作	-8.93331
任	-8.93469
建	-8.93492
成佛	-8.93608
差	-8.93895
▁《	-8.94059
佛性	-8.94062
露	-8.94087
畢	-8.94404
汝等	-8.94458
青	-8.94496
念佛	-8.94498
梵	-8.94526
飛	-8.94803
實相	-8.94883
含	-8.949
亦有	-8.94943
淨土	-8.94957
故言	-8.95009
愚	-8.95253
棄	-8.9556
服	-8.95583
一人	-8.9564
備	-8.95688
大悲	-8.95717
之義	-8.95941
臨	-8.96095
迦葉	-8.96173
三種	-8.96231
出世	-8.96268
兒	-8.96354
車	-8.9637
強	-8.96437
亦爾	-8.96444
▁見	-8.96636
故知	-8.96736
發心	-8.96979
不成	-8.96999
布施	-8.97034
癡	-8.97062
客	-8.97144
且道	-8.97299
亦如是	-8.97377
消	-8.97611
回	-8.98011
於中	-8.98205
點	-8.98615
廣大	-8.99141
▁明	-8.9915
夏	-8.99222
神通	-8.99341
期	-8.99466
須菩提	-8.99511
害	-8.99769
勿	-8.99898
諸天	-8.99943
受持	-9.0005
歷	-9.00205
無盡	-9.00286
問曰	-9.00325
毒	-9.00331
行者	-9.00515
有漏	-9.00522
我等	-9.00589
唱	-9.00611
▁道	-9.00618
二種	-9.00667
進云	-9.00684
鳥	-9.00849
縱	-9.00916
誠	-9.00963
契	-9.01208
決	-9.01612
不定	-9.01773
資	-9.01946
登	-9.02178
鐵	-9.02229
亦是	-9.02258
視	-9.02698
顛倒	-9.02771
菴	-9.02867
▁四	-9.02907
速	-9.02995
領	-9.03311
彰	-9.03331
慢	-9.03382
徒	-9.03391
室	-9.03556
不淨	-9.0366
亦復如是	-9.03767
注	-9.04
休	-9.04652
隨順	-9.04762
▁師	-9.04902
呼	-9.05091
接	-9.05097
畢竟	-9.05454
助	-9.05521
院	-9.05581
亦非	-9.05713
仰	-9.06152
河	-9.06155
繫	-9.06304
▁子	-9.06378
步	-9.06614
特	-9.06867
四大	-9.06876
道場	-9.06965
有三	-9.06994
再	-9.07126
所依	-9.07147
奪	-9.07489
貴	-9.07545
不可得	-9.07581
建立	-9.07589
固	-9.07602
天下	-9.07668
大師	-9.07719
寄	-9.07736
宮	-9.07779
送	-9.08045
利益	-9.08093
飯	-9.08265
張	-9.08283
不思議	-9.08318
人天	-9.0835
蘊	-9.08547
旨	-9.08573
諸比丘	-9.08611
▁又	-9.08626
邪見	-9.0863
熱	-9.0868
某	-9.08861
▁****	-9.08883
否	-9.08903
▁名	-9.09013
每	-9.09076
若無	-9.09161
無上	-9.09256
陽	-9.09303
田	-9.09318
不為	-9.09351
畫	-9.09393
身心	-9.09619
儀	-9.09945
婆羅門	-9.09953
某甲	-9.10016
江	-9.10021
舍利弗	-9.10471
冥	-9.10513
勤	-9.10636
常住	-9.10767
背	-9.1079
對治	-9.10965
四句	-9.10998
士	-9.11069
恩	-9.11099
內外	-9.11212
憂	-9.11335
▁相	-9.11405
然後	-9.11548
迴向	-9.11628
第五	-9.11637
越	-9.11723
不善	-9.1173
泥	-9.11768
三藏	-9.1177
講	-9.11826
談	-9.11898
於是	-9.12057
▁切	-9.12111
或有	-9.12154
徹	-9.12333
甚深	-9.12528
官	-9.12629
般	-9.12645
華嚴	-9.1266
眷屬	-9.12869
一切智	-9.12892
索	-9.1295
所以者何	-9.12987
佛子	-9.13059
反下	-9.13085
應知	-9.13175
迹	-9.13261
運	-9.13339
痛	-9.13339
判	-9.13374
源	-9.13447
詣	-9.13472
殊	-9.13576
彌	-9.13605
曲	-9.13627
暗	-9.13662
卷	-9.13768
謝	-9.13931
載	-9.14186
走	-9.14235
積	-9.14243
何以	-9.14262
互	-9.14325
不住	-9.14533
於彼	-9.14651
上座	-9.14677
釋迦	-9.14711
▁【(	-9.14727
熏	-9.14771
答言	-9.14864
仁	-9.14966
己	-9.14999
齋	-9.15096
降	-9.15261
迴	-9.15344
葉	-9.15353
弘	-9.15505
有一	-9.15538
《	-9.15581
聖人	-9.15597
剎	-9.15696
融	-9.15916
調	-9.16052
秋	-9.1627
三寶	-9.16528
連	-9.1655
三者	-9.16651
臣	-9.16838
箇	-9.17024
瞋	-9.17073
黑	-9.17164
魚	-9.17229
謗	-9.17498
患	-9.17608
無我	-9.17672
左	-9.17876
之相	-9.17877
相似	-9.17982
熟	-9.1807
第六	-9.18145
二十	-9.18552
增長	-9.18552
帶	-9.18611
蓮華	-9.18716
寂靜	-9.18744
大小	-9.18797
諸人	-9.19005
鏡	-9.19118
角	-9.19257
皆悉	-9.19271
不起	-9.19346
能生	-9.19566
前後	-9.1959
所緣	-9.1987
▁答	-9.19926
如前	-9.19944
池	-9.19969
可得	-9.20017
太子	-9.20131
肉	-9.20186
麤	-9.2029
老僧	-9.20321
十地	-9.20358
蒙	-9.20421
中道	-9.20481
)(	-9.20537
急	-9.20685
刀	-9.20751
分明	-9.20912
示現	-9.20997
星	-9.21049
〕	-9.21165
之時	-9.21165
緣起	-9.21204
端	-9.21204
五百	-9.21234
赤	-9.2135
虎	-9.21367
▁|	-9.21414
臥	-9.21618
所生	-9.21656
論云	-9.21709
嗣	-9.21748
▁彼	-9.21795
原	-9.21831
卻	-9.21842
氏	-9.21907
十一	-9.21931
比丘尼	-9.21952
國土	-9.22006
有無	-9.22197
安住	-9.2223
彌勒	-9.22245
仍	-9.22256
美	-9.22353
覩	-9.22354
姓	-9.22382
仙	-9.22404
謂之	-9.22408
敘	-9.22438
名曰	-9.22564
闕	-9.22718
真言	-9.22733
話	-9.22909
逆	-9.22921
纔	-9.23029
而為	-9.2307
僧云	-9.23084
尾	-9.23331
遺	-9.23444
一乘	-9.23452
逐	-9.2358
寂滅	-9.23591
毀	-9.23648
演	-9.23896
持戒	-9.23898
第八	-9.2393
僧問	-9.23939
喚	-9.24007
▁何	-9.2405
付	-9.24128
余	-9.24202
▁經	-9.24672
天子	-9.24772
無間	-9.25078
峰	-9.25177
慶	-9.25181
民	-9.25195
一卷	-9.25254
不出	-9.253
色界	-9.25315
不著	-9.25324
十六	-9.25434
-	-9.25633
劣	-9.25744
伽	-9.25746
不說	-9.25895
▁處	-9.26002
師子	-9.26066
悔	-9.2611
懺	-9.26213
際	-9.26223
飲	-9.26254
不受	-9.26516
投	-9.26526
科	-9.26645
群	-9.26688
良	-9.26879
胡	-9.26985
殿	-9.27177
巖	-9.27249
拔	-9.27318
五陰	-9.27431
呵	-9.27462
唐	-9.2748
祇	-9.2759
勢	-9.27636
吉	-9.27861
徵	-9.27996
而生	-9.28217
其心	-9.28245
最勝	-9.2826
福德	-9.283
中間	-9.28413
本無	-9.28586
錢	-9.28673
賀	-9.28812
是人	-9.28825
懺悔	-9.28856
云云	-9.28856
鼓	-9.29002
▁淨	-9.29056
養	-9.29094
▁性	-9.29129
飲食	-9.29133
不覺	-9.29588
乾	-9.29622
七日	-9.2964
改	-9.2973
圖	-9.29745
第七	-9.29838
▁身	-9.29874
曉	-9.30029
厭	-9.30054
阿羅漢	-9.30078
補	-9.30368
不退	-9.30382
適	-9.30486
四種	-9.30518
房	-9.30562
損	-9.30569
果報	-9.30689
訶	-9.30836
!」	-9.30969
拈	-9.31043
脚	-9.31411
勞	-9.31463
是也	-9.31534
跡	-9.31607
專	-9.31662
威	-9.31812
日月	-9.31857
畜	-9.31881
移	-9.31928
網	-9.32114
十八	-9.3237
恁麼	-9.32388
諸菩薩	-9.32576
惠	-9.32675
堪	-9.32685
折	-9.32971
把	-9.33163
童子	-9.33285
▁我	-9.33314
大慧	-9.33364
擬	-9.33423
慈悲	-9.3363
E	-9.33806
幽	-9.33987
召	-9.34007
不可思議	-9.34085
南無	-9.34122
泉	-9.34128
善法	-9.34133
▁大	-9.34244
非有	-9.34278
所得	-9.343
錯	-9.3433
擊	-9.34407
苾芻	-9.34444
烏	-9.34529
驗	-9.34585
葢	-9.34636
毛	-9.34682
不斷	-9.34745
驚	-9.34752
礙	-9.34785
單	-9.34905
非是	-9.35035
皮	-9.35279
意識	-9.353
讀	-9.35362
而有	-9.35366
伊	-9.35552
乳	-9.35653
竹	-9.35809
園	-9.35845
鳴	-9.35989
早	-9.36066
▁如是	-9.3611
隔	-9.36163
瓶	-9.36264
這	-9.36434
不壞	-9.36441
▁上	-9.3646
所攝	-9.36473
准	-9.36519
傷	-9.36579
舍利	-9.36591
延	-9.36609
智者	-9.36642
▁次	-9.3666
悉皆	-9.36684
▁能	-9.3672
▁別	-9.36899
里	-9.36962
續	-9.37
惱	-9.37375
加行	-9.37383
無不	-9.3744
免	-9.37637
奇	-9.37674
閒	-9.37713
善惡	-9.37744
嚩	-9.37821
三十	-9.37865
普賢	-9.37869
啟	-9.37937
各有	-9.37998
素	-9.38042
顧	-9.38087
脩	-9.38103
若是	-9.3816
堅固	-9.3824
􂏥	-9.38421
增上	-9.3848
安樂	-9.3852
故名為	-9.38611
無色	-9.38757
短	-9.38929
逢	-9.38963
垢	-9.38968
各各	-9.39235
浮	-9.39279
古人	-9.39305
陀羅尼	-9.3934
懸	-9.39437
不可說	-9.39498
不作	-9.39578
有人	-9.39614
哩	-9.39646
毘	-9.39744
麁	-9.3976
▁種	-9.39875
者謂	-9.3992
為因	-9.39951
拜	-9.39968
雖有	-9.39988
此二	-9.40123
無記	-9.40234
孤	-9.40375
孝	-9.40441
憶	-9.40466
大德	-9.40499
▁佛言	-9.40599
詳	-9.40632
▁後	-9.40666
峯	-9.40721
廢	-9.40819
有四	-9.40862
威儀	-9.40919
般若波羅蜜多	-9.41009
純	-9.41102
恭敬	-9.41118
怖	-9.41154
潤	-9.41327
樓	-9.4133
受用	-9.41471
大士	-9.4171
漏	-9.41783
行相	-9.41799
活	-9.41801
法者	-9.41827
何等	-9.41845
臺	-9.41871
遷	-9.41901
了知	-9.42002
不信	-9.42033
法中	-9.42061
質	-9.42255
女人	-9.42313
右	-9.42374
酒	-9.42431
招	-9.42508
所見	-9.42597
爭	-9.4263
不捨	-9.42735
返	-9.4279
分二	-9.42894
負	-9.42967
溪	-9.42968
自心	-9.43012
詮	-9.43028
無異	-9.43069
四諦	-9.43109
不識	-9.43343
下明	-9.4335
是時	-9.43369
畏	-9.43402
屈	-9.4343
百千	-9.43509
終不	-9.43542
松	-9.43562
大地	-9.43575
歌	-9.43601
鈔	-9.43627
般若波羅蜜	-9.43757
異熟	-9.43809
覓	-9.43817
依止	-9.44046
不異	-9.44142
無數	-9.44204
十種	-9.44223
禮拜	-9.44251
今此	-9.44361
所行	-9.44589
見佛	-9.44736
枝	-9.44882
沙彌	-9.44969
言說	-9.45172
宋	-9.45201
減	-9.45256
府	-9.4532
佛說	-9.45354
塞	-9.45415
▁地	-9.45578
訖	-9.45593
幸	-9.45696
不如	-9.45746
蛇	-9.45809
準	-9.45818
大王	-9.45843
責	-9.45928
無性	-9.4594
此即	-9.46172
音聲	-9.46298
盜	-9.46453
申	-9.46659
▁五	-9.46827
▁其	-9.46846
究	-9.46852
典	-9.46946
是以	-9.47117
蘇	-9.47143
▁住	-9.47296
澄	-9.47425
有所	-9.47565
名字	-9.47673
為人	-9.47682
累	-9.47693
相見	-9.47843
狂	-9.479
侍者	-9.47966
▁空	-9.48054
不然	-9.48072
予	-9.48092
▁門	-9.48126
題	-9.4815
之事	-9.48272
薄	-9.48401
▁智	-9.48565
諍	-9.48615
▁菩薩	-9.4868
住持	-9.48689
髮	-9.48736
怨	-9.4875
可以	-9.49084
唯有	-9.49186
▁示	-9.49408
私	-9.49488
浪	-9.49492
▁所	-9.49517
▁緣	-9.49546
侍	-9.49588
冷	-9.49961
幢	-9.50049
有為	-9.50141
之言	-9.50159
住處	-9.50191
試	-9.5025
附	-9.50295
弟	-9.50306
臨濟	-9.50332
皆有	-9.50494
六根	-9.50513
導	-9.50732
如法	-9.50769
道理	-9.50865
亦云	-9.50868
纏	-9.50901
兮	-9.50987
煩	-9.51026
作意	-9.51045
則無	-9.51344
男	-9.514
三摩地	-9.51471
而無	-9.51501
紅	-9.51507
拘	-9.51593
穢	-9.517
若言	-9.51761
茶	-9.51761
捉	-9.51973
殘	-9.52004
喫	-9.52182
李	-9.52216
多少	-9.52242
軍	-9.52245
現行	-9.52259
時如何	-9.52274
涉	-9.52379
篇	-9.52604
雲門	-9.52684
而得	-9.52747
?』	-9.52771
無二分	-9.5281
才	-9.52822
喪	-9.5288
村	-9.52909
故說	-9.52927
諸根	-9.52973
廣說	-9.52978
崇	-9.53161
輩	-9.53275
調伏	-9.53356
未得	-9.53404
唯識	-9.53425
玅	-9.53461
非法	-9.53482
經文	-9.53572
如是等	-9.53727
杖	-9.53789
船	-9.53863
兵	-9.53951
省	-9.5401
默	-9.54125
知見	-9.54212
血	-9.5424
掌	-9.54338
止觀	-9.54426
無斷故	-9.54455
淺	-9.54477
乖	-9.54515
本來	-9.54543
借	-9.54643
十四	-9.54655
相違	-9.54952
傍	-9.55006
羅漢	-9.55102
夷	-9.55142
賜	-9.55151
不與	-9.5526
善哉	-9.55267
審	-9.55274
禪定	-9.55343
天王	-9.55524
眠	-9.55526
值	-9.55661
從此	-9.55746
巧	-9.55783
長老	-9.55854
瑜伽	-9.5589
波羅蜜	-9.55929
婬	-9.56
壇	-9.56027
牒	-9.56122
剎那	-9.56299
所知	-9.56514
舍利子	-9.56636
於諸	-9.56663
▁眾生	-9.56685
靜慮	-9.56801
希	-9.56841
四者	-9.56932
條	-9.56971
三千	-9.56985
者即	-9.56991
閑	-9.5704
洗	-9.57066
此法	-9.5713
無畏	-9.57149
慮	-9.57174
禁	-9.5719
語言	-9.57195
庵	-9.57271
甞	-9.57314
▁疏	-9.57339
斥	-9.57439
及諸	-9.57587
吒	-9.57588
問答	-9.57617
不二	-9.57626
不犯	-9.57639
為一	-9.5792
合掌	-9.57925
詩	-9.58014
拂	-9.58015
令其	-9.58021
西方	-9.58142
追	-9.58155
遭	-9.58233
其中	-9.58362
註	-9.58397
瑞	-9.58407
詔	-9.58415
娑	-9.58424
諸眾生	-9.5844
何處	-9.58501
無作	-9.58556
是則	-9.58612
無心	-9.58635
十五	-9.58749
悅	-9.58819
途	-9.58892
屋	-9.59144
不失	-9.59147
暫	-9.59316
十三	-9.59333
▁應	-9.59421
一分	-9.59459
展	-9.59494
為體	-9.59524
揚	-9.59588
微妙	-9.59803
趙州	-9.59977
無學	-9.59981
誓	-9.59987
勅	-9.60011
梁	-9.60039
念念	-9.60106
如來藏	-9.60323
▁義	-9.60439
之道	-9.60496
善知識	-9.60576
煙	-9.60681
頌曰	-9.60705
▁釋	-9.6071
▁日	-9.60794
我當	-9.612
變化	-9.61322
經中	-9.61405
觀音	-9.61435
友	-9.6148
孔	-9.61732
至於	-9.61839
畜生	-9.61869
攝受	-9.6187
舟	-9.6187
如實	-9.62072
不在	-9.62131
之處	-9.62156
戶	-9.62219
微塵	-9.6223
酬	-9.62247
亦然	-9.6244
床	-9.62503
統	-9.62706
自他	-9.62779
塗	-9.62899
一向	-9.62917
何不	-9.62957
學者	-9.62976
▁唵	-9.63046
何況	-9.63156
通達	-9.63248
磨	-9.63248
一法	-9.63283
拏	-9.63426
貧	-9.6348
能知	-9.63559
汝今	-9.63648
▁王	-9.63719
白佛言	-9.63782
洞	-9.63783
亦應	-9.63949
別有	-9.63977
名之為	-9.64005
敢	-9.64009
檀	-9.64107
此事	-9.64144
天地	-9.64152
武	-9.64192
或云	-9.64205
▁在	-9.64215
之理	-9.64264
能令	-9.6452
是謂	-9.64529
不會	-9.6461
諸方	-9.64688
委	-9.64691
▁德	-9.64702
佛祖	-9.64738
五種	-9.64925
愈	-9.65131
焰	-9.65179
此人	-9.65198
茲	-9.65385
該	-9.65406
儒	-9.65424
不敢	-9.65583
宣說	-9.65692
贊	-9.65746
何者	-9.65761
有二種	-9.65776
闇	-9.65818
文字	-9.65952
微細	-9.66026
秀	-9.66141
第一義	-9.66197
大海	-9.66313
義故	-9.66564
如上	-9.6658
▁前	-9.66586
釋曰	-9.6666
殊勝	-9.66734
▁提	-9.66755
按	-9.66789
富	-9.66846
諸行	-9.66879
▁一切	-9.66886
愚癡	-9.66982
若以	-9.66986
其所	-9.6707
納	-9.67155
▁然	-9.67185
是非	-9.67285
文中	-9.67337
命終	-9.67539
怪	-9.67543
迎	-9.67578
筆	-9.6759
三業	-9.67605
哀	-9.67618
其人	-9.67647
顯示	-9.67684
亦如	-9.677
防	-9.67726
個	-9.67733
學人	-9.67874
睡	-9.67892
揀	-9.67997
修道	-9.68001
所言	-9.6812
若人	-9.68123
▁識	-9.68211
亦得	-9.68224
蟲	-9.68239
心所	-9.68293
最上	-9.68294
下座	-9.68311
一切諸	-9.68313
詞	-9.68327
▁事	-9.68377
須彌	-9.68465
旋	-9.6848
曩	-9.68489
敷	-9.68496
展轉	-9.6856
梵行	-9.68627
婦	-9.68648
未曾	-9.68678
七寶	-9.68724
國王	-9.68752
蘭	-9.68753
以是	-9.68766
扶	-9.68804
牽	-9.68814
親近	-9.68888
託	-9.69026
披	-9.69106
▁乘	-9.69181
天台	-9.69337
喝	-9.69425
穿	-9.69518
誤	-9.6961
陵	-9.69635
沈	-9.69696
充	-9.69785
吳	-9.69834
自體	-9.69931
岸	-9.69985
真諦	-9.69996
若能	-9.70042
出生	-9.70108
務	-9.70148
鬼神	-9.70171
安隱	-9.70202
此義	-9.70206
為說	-9.70265
受戒	-9.70367
景	-9.70401
不取	-9.70482
無知	-9.70576
吹	-9.70674
皆得	-9.70677
不須	-9.70789
見道	-9.70879
冬	-9.70904
龍王	-9.70907
盧	-9.70942
偈曰	-9.71034
是菩薩	-9.71078
義也	-9.71239
作麼生	-9.71288
倍	-9.71413
故有	-9.71432
蓮	-9.7161
壽命	-9.71624
梵志	-9.71676
皇	-9.71683
避	-9.717
昧	-9.71763
透	-9.71875
御	-9.71913
發起	-9.71927
▁常	-9.71973
訓	-9.72139
預	-9.72303
即得	-9.72434
亦復	-9.72554
信解	-9.72574
空中	-9.7259
竪	-9.72599
無著	-9.72604
不以	-9.72641
之意	-9.72731
渠	-9.7274
甘露	-9.72786
孫	-9.7288
禪師法嗣	-9.72906
開示	-9.72955
闍	-9.72996
清淨故	-9.73001
谷	-9.73019
亦可	-9.73176
何所	-9.73199
鹿	-9.73258
臂	-9.73303
帝釋	-9.73374
教化	-9.73475
謬	-9.73567
一切諸佛	-9.73578
吐	-9.73629
同一	-9.7363
6	-9.73701
履	-9.73733
弄	-9.73861
楚	-9.73882
有何	-9.73895
符	-9.73896
T	-9.73911
衰	-9.7403
同時	-9.74148
不許	-9.74248
人間	-9.74274
此三	-9.74306
快	-9.74326
讚歎	-9.74535
壁	-9.7455
應當	-9.74586
法故	-9.74623
嘗	-9.7469
而去	-9.74707
寬	-9.74712
無所有	-9.74725
五蘊	-9.74763
狀	-9.74771
有餘	-9.7484
二諦	-9.74863
行人	-9.74889
米	-9.74897
不爾	-9.74987
響	-9.75064
下釋	-9.75076
能所	-9.7508
霜	-9.75087
此則	-9.75117
而言	-9.75141
隨眠	-9.75204
人也	-9.75382
慕	-9.75641
甘	-9.75653
戲	-9.75695
辦	-9.75777
律儀	-9.75778
謁	-9.75781
有異	-9.75844
不空	-9.75991
更有	-9.76051
二人	-9.76055
滿足	-9.76077
卒	-9.761
不滅	-9.76123
則不	-9.76312
則有	-9.76398
R	-9.76447
不及	-9.76473
封	-9.76561
五根	-9.76588
如幻	-9.76797
潛	-9.7692
上下	-9.7696
了也	-9.76967
施設	-9.7697
而巳	-9.77109
莊	-9.77156
我見	-9.77173
雖然	-9.77237
不肯	-9.77241
賣	-9.77296
有五	-9.77304
秦	-9.77397
摩訶	-9.77408
羊	-9.77435
限	-9.77494
縣	-9.77518
▁量	-9.77541
博	-9.77695
不行	-9.77765
諫	-9.77908
濁	-9.78031
由是	-9.78049
作是念	-9.78052
兄	-9.78194
白雲	-9.78238
▁念	-9.78259
梵天	-9.78312
眾僧	-9.78391
撰	-9.7845
自有	-9.78503
又復	-9.78566
圓通	-9.78671
頗	-9.78749
不用	-9.78816
其身	-9.78938
寫	-9.78966
毗	-9.79008
不了	-9.79164
瞋恚	-9.79179
/	-9.79179
獻	-9.7919
擲	-9.79307
案	-9.79408
宅	-9.7942
所成	-9.79471
信心	-9.79558
隨緣	-9.79583
染淨	-9.79633
遙	-9.79673
洲	-9.79843
眉	-9.79939
若爾	-9.80019
紫	-9.80304
即此	-9.80426
無垢	-9.8044
心不	-9.80457
第九	-9.80491
聞法	-9.80593
何得	-9.8063
▁僧	-9.80756
側	-9.80757
男女	-9.80877
體性	-9.80929
▁復	-9.80967
天人	-9.81065
故也	-9.81089
祖師	-9.81182
無人	-9.81208
齒	-9.81314
▁當	-9.81343
可見	-9.81358
習氣	-9.814
席	-9.81537
而起	-9.81625
惡業	-9.81672
十七	-9.81686
左右	-9.81707
局	-9.81711
棒	-9.81817
所證	-9.81867
赴	-9.81869
佛果	-9.81872
▁#+	-9.81936
只是	-9.82053
老人	-9.82242
即便	-9.82286
菩提心	-9.82304
薩	-9.82371
碧	-9.82412
配	-9.82534
▁今	-9.82566
大慈	-9.82569
儞	-9.82597
刻	-9.82611
處處	-9.82613
佛道	-9.82625
▁右	-9.82799
貫	-9.82803
正見	-9.82905
▁尊	-9.82993
榮	-9.83055
沉	-9.83204
演說	-9.83206
便是	-9.83232
有時	-9.83565
性空	-9.83592
古今	-9.83631
繁	-9.83632
時節	-9.83664
非無	-9.83701
▁起	-9.83756
珍	-9.83786
然此	-9.83819
▁丘	-9.83821
恭	-9.83942
自身	-9.84039
還有	-9.8408
始終	-9.84169
川	-9.84217
▁天	-9.84279
段	-9.84306
不復	-9.84307
劍	-9.84324
▁間	-9.84344
▁〔	-9.84362
放逸	-9.84416
昇	-9.84424
見聞	-9.8444
圓覺	-9.84446
厚	-9.84549
夫人	-9.84561
振	-9.84602
權實	-9.84611
▁定	-9.84651
守護	-9.84652
罵	-9.84697
逼	-9.84738
實有	-9.84786
欣	-9.84814
豈非	-9.84857
豈不	-9.84999
但是	-9.85044
叢林	-9.85047
他人	-9.85048
不盡	-9.85085
肯	-9.85132
隨喜	-9.85139
上來	-9.85241
晉	-9.8527
自相	-9.8543
既無	-9.85454
文殊師利	-9.85458
當時	-9.85521
所起	-9.85551
▁【【	-9.85572
聖道	-9.85578
不解	-9.85592
餓鬼	-9.85592
正念	-9.8565
而說	-9.85818
神力	-9.8585
二明	-9.85864
顏	-9.86021
憑	-9.86063
不聞	-9.86091
梨	-9.86102
若比丘	-9.86105
流通	-9.86154
▁【△	-9.86158
晚	-9.86182
種性	-9.86256
突吉羅	-9.86282
初地	-9.86326
若依	-9.8635
恨	-9.86365
欲令	-9.86455
見者	-9.86482
游	-9.86648
五識	-9.86652
呈	-9.86708
繼	-9.86801
▁云何	-9.86885
伹	-9.86913
尺	-9.86973
乃云	-9.86975
灰	-9.87004
如今	-9.87029
名色	-9.87045
億	-9.87107
▁聞	-9.87229
初明	-9.87306
無色界	-9.87326
始得	-9.87327
流轉	-9.8744
多聞	-9.87442
凡聖	-9.87454
昏	-9.87534
最後	-9.87594
乞食	-9.87604
擇	-9.87614
俱生	-9.87653
其義	-9.87704
佛所	-9.87728
勇	-9.87762
憶念	-9.87802
何謂	-9.87805
淨戒	-9.87812
銀	-9.87909
不相	-9.8792
此文	-9.88037
東方	-9.88046
不共	-9.88056
首座	-9.88057
但有	-9.88076
傾	-9.88107
解云	-9.88154
紙	-9.88206
清涼	-9.88337
上音	-9.88409
管	-9.88436
少分	-9.88454
缺	-9.88481
昌	-9.88533
吞	-9.88547
一切諸法	-9.88589
蓮花	-9.88594
降伏	-9.88802
色等	-9.88853
讀誦	-9.88863
▁滅	-9.88892
之後	-9.88914
認	-9.88966
巳下	-9.8899
無始	-9.88995
希有	-9.89006
牙	-9.89083
互相	-9.89091
稟	-9.89105
醉	-9.89319
必有	-9.89455
受生	-9.89482
佛告	-9.8958
安立	-9.8958
世俗	-9.89596
以其	-9.89663
伴	-9.89721
梵語	-9.89778
十九	-9.89839
一生	-9.89929
▁樂	-9.89945
生於	-9.89963
乃是	-9.89988
井	-9.90027
▁六	-9.90051
▁根	-9.9006
此明	-9.90074
▁果	-9.90102
者是	-9.9011
未審	-9.90127
史	-9.90267
倚	-9.90324
為欲	-9.90506
翁	-9.90598
善巧	-9.90712
波羅	-9.90726
最初	-9.90735
加持	-9.90754
盤	-9.90898
洞山	-9.9096
不妨	-9.90989
逸	-9.91021
英	-9.91185
鑑	-9.91237
抱	-9.91272
又問	-9.91282
升	-9.91327
▁麼	-9.91343
解釋	-9.91371
眼識	-9.91469
▁成	-9.91508
自恣	-9.91561
則為	-9.91565
法眼	-9.91605
妙法	-9.9165
萬物	-9.91713
安居	-9.91719
法輪	-9.91792
朗	-9.91828
色身	-9.91837
滯	-9.91847
忠	-9.91994
善財	-9.91996
三年	-9.92031
訪	-9.92082
愁	-9.9219
正明	-9.9221
之行	-9.92239
奏	-9.92352
▁僧問	-9.92389
道人	-9.92427
可謂	-9.92499
護法	-9.92499
授記	-9.92502
撥	-9.92513
▁復次	-9.92594
去也	-9.92607
稍	-9.92666
一切如來	-9.92669
誡	-9.92715
階	-9.92728
本覺	-9.92778
擔	-9.92798
)」	-9.92904
若見	-9.92944
遵	-9.93069
怛	-9.93139
二義	-9.93154
戰	-9.93188
如彼	-9.93226
▁可	-9.93241
實際	-9.9326
箭	-9.93282
生起	-9.93283
而能	-9.93336
▁慧	-9.93342
涅	-9.93376
▁羅	-9.93394
宮殿	-9.93476
得道	-9.93514
▁觀	-9.93539
一名	-9.93582
鑒	-9.93601
初禪	-9.9366
碎	-9.93686
本有	-9.93689
四方	-9.93699
竭	-9.93709
▁多	-9.93789
震	-9.93794
圓融	-9.93808
舒	-9.93886
銷	-9.93923
議	-9.93973
濕	-9.93986
偶	-9.94002
佛身	-9.94013
八萬四千	-9.94082
第十	-9.94127
弗	-9.94134
奴	-9.94191
徑	-9.9425
繩	-9.94282
下文	-9.94334
虗妄	-9.94359
經論	-9.94436
瞻	-9.94482
是法	-9.94494
白佛	-9.94575
正是	-9.94744
嚕	-9.94845
本性	-9.94874
佛土	-9.94902
雷	-9.94913
不言	-9.94915
無非	-9.94942
心中	-9.95035
謹	-9.95036
證得	-9.95145
尤	-9.95158
吉祥	-9.95167
此心	-9.95167
相者	-9.95177
虛妄	-9.95314
▁句	-9.95335
如人	-9.95356
怒	-9.95447
此等	-9.95453
驢	-9.9546
洪	-9.95468
囑	-9.95507
魏	-9.95524
假名	-9.95537
彌陀	-9.95565
瓔珞	-9.95615
▁便	-9.95661
冠	-9.95736
三諦	-9.95872
衣服	-9.95876
童	-9.9604
時有	-9.96106
達磨	-9.96106
六度	-9.96253
▁離	-9.96275
▁論曰	-9.9638
六識	-9.96402
無住	-9.9643
湖	-9.96564
無量無邊	-9.96698
喚作	-9.96959
倫	-9.97015
觀心	-9.97032
鄉	-9.97103
怖畏	-9.97124
即以	-9.9713
未有	-9.9713
諸有	-9.9714
保	-9.97149
有法	-9.97161
卓	-9.97225
相故	-9.9723
出離	-9.97262
發菩提心	-9.97302
恚	-9.9739
狗	-9.97446
更無	-9.97448
故不	-9.9747
三句	-9.97545
濫	-9.97654
乾坤	-9.97683
柱	-9.97692
自知	-9.97787
仙人	-9.97861
往生	-9.97903
曳	-9.97903
法相	-9.97903
侵	-9.9793
藉	-9.9802
賓	-9.98026
無餘	-9.98042
▁覺	-9.98078
往來	-9.98142
獄	-9.98188
萬法	-9.98223
是佛	-9.98287
反正作	-9.98358
▁如來	-9.98382
庭	-9.98386
油	-9.98399
道者	-9.98427
做	-9.98444
又如	-9.98446
請師	-9.9851
若欲	-9.9852
枯	-9.98553
隆	-9.98585
祕密	-9.98625
鼻孔	-9.98672
大智	-9.98677
胎	-9.98701
尸	-9.98715
於佛	-9.98717
滅度	-9.98769
是事	-9.98787
及以	-9.98791
腹	-9.98905
力故	-9.99035
勝義	-9.99052
一處	-9.99059
忽然	-9.99159
▁佛說	-9.99189
輪迴	-9.99263
跋	-9.99291
賴	-9.99331
澤	-9.99389
拄杖	-9.994
▁受	-9.99427
隨意	-9.99458
鈍	-9.9953
浴	-9.99654
鳳	-9.99728
五欲	-9.99744
猛	-9.99749
污	-9.9975
二釋	-9.99872
檀越	-9.99876
拳	-9.99952
聚落	-9.99958
停	-9.99994
卿	-10.0001
鐘	-10.001
波逸提	-10.0017
發願	-10.0019
貪欲	-10.0024
醫	-10.0027
為我	-10.0028
苟	-10.0029
嫌	-10.003
心生	-10.0031
譬喻	-10.0031
甲	-10.004
割	-10.005
思量	-10.0061
不名	-10.0063
世人	-10.0069
飾	-10.008
執著	-10.0083
身中	-10.0085
之性	-10.0094
頌云	-10.0096
b	-10.0101
竝	-10.0103
忍辱	-10.0105
南泉	-10.0107
得名	-10.0108
有三種	-10.0108
聖者	-10.0111
天眼	-10.012
郎	-10.0121
泰	-10.0124
元年	-10.0131
搖	-10.0135
術	-10.0138
文云	-10.0141
四眾	-10.0144
晝夜	-10.0148
▁世	-10.0162
妻	-10.0163
工	-10.0166
衲僧	-10.0172
說戒	-10.0179
偽	-10.0184
閱	-10.0194
緣覺	-10.02
離欲	-10.0201
色相	-10.0201
放光	-10.0205
諸惡	-10.0206
眾中	-10.0207
▁方	-10.0209
▁意	-10.0237
福田	-10.0243
市	-10.025
▁述曰	-10.0257
麻	-10.0259
賢聖	-10.0265
政	-10.0266
危	-10.0267
基	-10.0269
營	-10.027
無分別	-10.028
閣	-10.0286
罷	-10.0286
緣生	-10.0297
編	-10.0298
圓教	-10.031
十住	-10.031
依此	-10.0313
故得	-10.0331
將來	-10.0331
▁十	-10.0335
若一切智智清淨	-10.034
分三	-10.0341
▁依	-10.0347
丈	-10.0359
截	-10.0366
渡	-10.0367
也無	-10.0368
二字	-10.0379
不入	-10.0386
真空	-10.039
但以	-10.0391
障礙	-10.0413
卑	-10.0418
作佛	-10.0422
默然	-10.0425
歡	-10.0426
此言	-10.0427
懈怠	-10.043
摩尼	-10.0431
辟支佛	-10.0433
晝	-10.0434
目連	-10.0454
離諸	-10.0454
二十五	-10.0467
為緣	-10.0468
閉	-10.0471
定慧	-10.0472
妄語	-10.0472
謂此	-10.0479
獨覺	-10.0484
▁欲	-10.0484
丈夫	-10.0489
四禪	-10.0492
以明	-10.0493
長行	-10.0502
若於	-10.0504
▁色	-10.0505
前三	-10.0508
於一	-10.0509
楊	-10.0516
溈山	-10.0518
之體	-10.0521
知識	-10.0524
買	-10.0526
有十	-10.053
有大	-10.0543
不曾	-10.0549
▁舉	-10.056
真性	-10.0561
之名	-10.0564
斗	-10.0573
苦樂	-10.0574
威德	-10.0583
韻	-10.0584
▁業	-10.059
德山	-10.0591
既是	-10.0591
淵	-10.0592
顯現	-10.0593
於一切	-10.0597
泯	-10.0603
灌頂	-10.0606
無窮	-10.0623
伯	-10.0631
熏習	-10.0631
總結	-10.0634
銅	-10.0643
任運	-10.0646
災	-10.0647
轉法輪	-10.065
爛	-10.065
無所得	-10.0651
番	-10.0651
共相	-10.0653
丹	-10.0656
我所	-10.0665
正覺	-10.0666
競	-10.0668
曇	-10.0677
樹下	-10.0678
蕩	-10.0683
無能	-10.0688
騰	-10.0694
禪人	-10.0695
總持	-10.07
未能	-10.0705
亦能	-10.0707
寸	-10.0711
▁實	-10.0718
巨	-10.073
性相	-10.0735
之身	-10.0738
疏云	-10.0738
昭	-10.0746
▁解	-10.075
灑	-10.0755
四十	-10.0756
疎	-10.0764
巳上	-10.0764
察	-10.0764
生者	-10.0772
金色	-10.0775
五者	-10.0779
是我	-10.0779
別教	-10.08
不自	-10.0807
不依	-10.0808
梅	-10.0809
翳	-10.0816
□	-10.0825
▁持	-10.083
司	-10.0831
頻	-10.0842
過失	-10.0842
荅	-10.0851
當得	-10.0852
問訊	-10.0854
四分	-10.0855
欺	-10.086
祖曰	-10.0867
則是	-10.0869
▁戒	-10.0875
百丈	-10.0877
有此	-10.0878
暮	-10.0879
當來	-10.088
即為	-10.0881
歸依	-10.09
妨	-10.09
三觀	-10.0908
▁分	-10.0909
▁現	-10.0915
之類	-10.092
湛	-10.0928
明了	-10.093
囊	-10.0944
今時	-10.0944
此名	-10.0946
丁	-10.0947
▁足	-10.0949
郡	-10.0952
而作	-10.0961
二句	-10.0962
羣	-10.0965
人民	-10.097
令人	-10.0972
欽	-10.0973
王子	-10.098
不足	-10.0981
而行	-10.0994
不變	-10.1001
發明	-10.1007
雖復	-10.1008
漸次	-10.1011
相分	-10.1018
淨名	-10.102
▁八	-10.1022
成熟	-10.1023
善知	-10.1025
無因	-10.1041
大法	-10.1049
炎	-10.1054
什	-10.1058
令得	-10.1066
馳	-10.1069
圓明	-10.1085
扇	-10.1087
非真	-10.1091
萬行	-10.1093
凝	-10.1108
敵	-10.112
僧伽	-10.1121
法王	-10.1121
添	-10.1126
▁釋曰	-10.1127
嘉	-10.1128
一切世間	-10.1133
相好	-10.1135
族	-10.115
見性	-10.1151
一種	-10.1155
向上	-10.1163
遲	-10.1176
▁槃	-10.1177
位中	-10.1178
於法	-10.1184
欲得	-10.1188
歇	-10.1194
不樂	-10.1194
勇猛	-10.1203
射	-10.1207
能為	-10.1211
與麼	-10.1214
五十	-10.1218
作麼	-10.1219
弱	-10.1231
▁用	-10.1236
給	-10.1237
佛南無	-10.1237
三德	-10.1241
未免	-10.1241
釋云	-10.1255
考	-10.126
功能	-10.1261
草木	-10.1266
性故	-10.127
踏	-10.1284
化身	-10.1289
與我	-10.1291
克	-10.1293
即今	-10.1293
成道	-10.1294
一字	-10.1297
善心	-10.1315
困	-10.1319
苦惱	-10.1323
諸菩薩摩訶薩	-10.1328
不相應	-10.133
祥	-10.1331
恒沙	-10.1331
墜	-10.1334
蜜	-10.1335
彼此	-10.1342
嗔	-10.1345
作用	-10.1354
或作	-10.136
無事	-10.1365
莫不	-10.1365
▁「『	-10.1376
嘆	-10.1378
雞	-10.1378
弊	-10.1387
三十二	-10.1393
輒	-10.1395
▁七	-10.1397
勝解	-10.1397
故須	-10.1401
次明	-10.141
敗	-10.1412
懼	-10.1413
▁通	-10.1414
束	-10.1424
不可以	-10.143
▁阿	-10.1431
均	-10.1439
異生	-10.1446
於我	-10.1446
憍尸迦	-10.1459
二年	-10.146
真心	-10.147
一味	-10.147
吼	-10.1473
▁眾	-10.1475
同異	-10.148
荒	-10.1481
瞿曇	-10.1483
破戒	-10.1492
法智	-10.1493
已下	-10.1497
。「	-10.15
先師	-10.1507
誑	-10.1509
愍	-10.151
之本	-10.152
奔	-10.1529
不立	-10.1535
能見	-10.1539
映	-10.1542
▁願	-10.1543
諸佛菩薩	-10.1544
▁惱	-10.155
蔽	-10.1557
心無	-10.1558
庶	-10.1566
千里	-10.1566
六塵	-10.1568
初心	-10.1572
心念	-10.1575
若作	-10.1577
極微	-10.1582
上品	-10.1585
窟	-10.1587
入定	-10.1593
在於	-10.1599
須知	-10.1606
今初	-10.1606
雅	-10.1608
之間	-10.161
偈云	-10.161
劉	-10.161
饒益	-10.1612
在家	-10.1616
也從	-10.1618
萬里	-10.1622
價	-10.1622
人中	-10.1623
六十	-10.1625
報恩	-10.1626
住於	-10.1633
▁答曰	-10.164
實無	-10.1641
豎	-10.1641
鎮	-10.1642
佛教	-10.1642
都無	-10.1646
一明	-10.1646
隨其	-10.1648
竊	-10.1655
十卷	-10.167
丘	-10.167
頃	-10.1671
苦行	-10.1672
不求	-10.1673
所引	-10.1676
佛剎	-10.1678
諸經	-10.168
若干	-10.1687
商	-10.1687
佉	-10.17
天上	-10.1707
無想	-10.1709
心者	-10.171
斬	-10.1714
有說	-10.1718
宇	-10.1726
惹	-10.1727
不從	-10.173
▁力	-10.1733
而住	-10.174
諸有情	-10.174
一切智智	-10.1741
略說	-10.1745
慈心	-10.1748
恐怖	-10.1748
作者	-10.1753
彼人	-10.1754
各別	-10.1755
爐	-10.1756
所修	-10.1757
邑	-10.1758
造作	-10.1765
▁由	-10.1765
入於	-10.1769
叉	-10.1789
伐	-10.179
能斷	-10.1792
險	-10.1793
板	-10.1796
世諦	-10.1805
護持	-10.1832
文句	-10.1832
唯是	-10.1832
率	-10.1834
杜	-10.1836
名也	-10.184
貌	-10.1842
慳	-10.1856
作禮	-10.187
鶴	-10.1872
說者	-10.1877
▁第二	-10.1879
▁比丘	-10.1883
令彼	-10.1883
聖教	-10.1883
三明	-10.1884
風吹	-10.1886
愧	-10.1892
馱	-10.1892
下結	-10.1896
未盡	-10.1899
雄	-10.1899
▁唐	-10.1901
掃	-10.1902
幼	-10.1905
生故	-10.1906
山中	-10.1907
善業	-10.1907
▁去	-10.191
孰	-10.1914
抄	-10.1914
出入	-10.1923
謂於	-10.1929
而今	-10.1929
分齊	-10.193
無罪	-10.1932
穴	-10.1934
嶺	-10.1934
皆由	-10.1935
▁No	-10.1938
後世	-10.1945
揭	-10.1948
答云	-10.1949
三世諸佛	-10.195
作法	-10.1952
僧祇	-10.1956
二初	-10.1958
娑婆	-10.1964
之文	-10.1964
湯	-10.1965
王佛	-10.1966
白衣	-10.1967
紹	-10.1968
變易	-10.1968
片	-10.1968
如實知	-10.1971
法也	-10.1971
又曰	-10.1973
▁斷	-10.1976
場	-10.1982
不還	-10.1984
r	-10.1994
溫	-10.1998
出現	-10.2001
▁就	-10.2011
皆為	-10.2014
之因	-10.2017
戲論	-10.2028
為本	-10.2032
大臣	-10.2033
消息	-10.2038
今朝	-10.204
得果	-10.2044
解脫門	-10.2047
包	-10.2048
同前	-10.2048
事理	-10.2049
利他	-10.2065
受苦	-10.2069
朱	-10.2078
▁體	-10.2081
體用	-10.2085
二合引	-10.2089
徐	-10.209
▁佛告	-10.2096
一體	-10.2102
柳	-10.2103
受者	-10.2103
臭	-10.2106
初句	-10.2112
循	-10.2113
此四	-10.2113
皆以	-10.2114
▁寶	-10.2115
諸如來	-10.2119
飽	-10.2124
八十	-10.2125
破壞	-10.2128
駕	-10.2132
▁理	-10.2134
薪	-10.2145
經說	-10.215
染污	-10.2156
心性	-10.2159
徑山	-10.2159
採	-10.2161
逮	-10.2166
十力	-10.2169
八識	-10.217
也又	-10.217
豐	-10.2171
。』」	-10.2172
劒	-10.2173
若約	-10.2176
我於	-10.2179
尋常	-10.218
夜叉	-10.2186
良久	-10.2187
非一	-10.2192
去來	-10.2196
繞	-10.2198
藍	-10.2204
此身	-10.2207
說言	-10.2209
抑	-10.2215
薦	-10.2223
穀	-10.2227
二法	-10.2227
鉤	-10.2232
隨所	-10.2235
不實	-10.2236
既不	-10.2238
紀	-10.2241
▁教	-10.2247
為性	-10.2247
豈有	-10.2249
得成	-10.2266
▁尼	-10.2267
塵勞	-10.2269
黃檗	-10.2269
如意	-10.2276
規	-10.2278
此乃	-10.2278
難陀	-10.2284
▁脫	-10.2285
生時	-10.2286
趨	-10.2287
天童	-10.2287
此約	-10.2288
秪	-10.2293
三法	-10.2297
之境	-10.2299
六種	-10.2301
旦	-10.2304
言之	-10.2308
惜	-10.2309
禍	-10.2309
等覺	-10.2311
一切有情	-10.232
辯才	-10.2321
三身	-10.2327
所為	-10.2331
錫	-10.2331
知其	-10.2334
較	-10.2344
琉璃	-10.2344
慚愧	-10.2346
為他	-10.2348
然則	-10.2348
氏子	-10.2352
播	-10.2355
肩	-10.2358
和上	-10.2365
施主	-10.2381
初二	-10.2382
而成	-10.2384
梵王	-10.2385
行道	-10.2386
吽	-10.239
作是	-10.2392
優	-10.2392
盈	-10.2395
崖	-10.2398
六道	-10.2398
能持	-10.24
咄	-10.2409
▁死	-10.2412
大願	-10.2413
旁	-10.2416
依他	-10.2419
為二	-10.2421
所執	-10.2422
中說	-10.2425
袈裟	-10.2425
之力	-10.2432
絲	-10.2435
尊重	-10.2438
唯心	-10.2442
大道	-10.2442
未知	-10.2444
修學	-10.245
龜	-10.245
輝	-10.2453
雜染	-10.2454
自行	-10.2458
相對	-10.2461
賤	-10.2467
勒	-10.247
唯一	-10.2474
雪竇	-10.2482
噉	-10.2484
得聞	-10.2485
此意	-10.2487
說此	-10.2488
意云	-10.2504
法華經	-10.2506
皆名	-10.2511
若得	-10.2512
僧曰	-10.2513
則知	-10.2521
煖	-10.2521
即有	-10.2524
優婆塞	-10.2527
惡趣	-10.2529
不也	-10.253
京	-10.2534
甚麼	-10.2535
說名	-10.2548
冰	-10.2564
教授	-10.2569
一部	-10.2571
瘡	-10.2575
此土	-10.2575
或復	-10.258
舞	-10.2581
成正覺	-10.2583
教人	-10.2593
之曰	-10.2601
祝	-10.2603
飢	-10.2606
▁山	-10.2609
義者	-10.261
A	-10.2618
一喝	-10.2619
直下	-10.2623
盲	-10.2633
充滿	-10.2641
所詮	-10.2641
阿彌陀佛	-10.2642
得解脫	-10.2645
荷	-10.2647
觀行	-10.2648
門中	-10.2649
雪峰	-10.2664
衛	-10.2667
不明	-10.2671
跛	-10.2671
即非	-10.2677
顛	-10.2681
無體	-10.2693
謙	-10.2696
維	-10.27
遊戲	-10.2701
而非	-10.2702
討	-10.2704
未生	-10.2706
所造	-10.2711
後二	-10.2715
棲	-10.2716
彼岸	-10.2719
格	-10.2719
▁盡	-10.2728
此下	-10.2728
兄弟	-10.2733
菩薩行	-10.2734
掩	-10.2742
今經	-10.2754
其事	-10.2756
論文	-10.2758
不必	-10.2768
羯	-10.2774
佛菩薩	-10.2774
誓願	-10.2774
盖	-10.2774
隣	-10.2775
商量	-10.2783
獸	-10.2783
▁諦	-10.2784
冤	-10.28
彈	-10.2801
淡	-10.2803
干	-10.2812
渾	-10.2817
有六	-10.2817
軌	-10.2818
故非	-10.2822
裂	-10.2828
讓	-10.2835
斷滅	-10.2839
及餘	-10.2842
是其	-10.2845
得生	-10.2848
無願	-10.2855
輕重	-10.2856
此論	-10.2857
▁清淨	-10.2857
得見	-10.2858
狹	-10.2859
善友	-10.2867
所化	-10.287
諸佛如來	-10.2872
永斷	-10.2872
臥具	-10.2872
一百	-10.2873
伸	-10.288
不生不滅	-10.2884
此之	-10.2887
問如何是	-10.2887
入涅槃	-10.2899
現身	-10.2905
▁文	-10.2907
猶未	-10.2916
一箇	-10.2923
多羅	-10.2923
這箇	-10.2928
不合	-10.2933
眾多	-10.2936
一切佛	-10.2938
謾	-10.2941
一身	-10.2945
般涅槃	-10.2947
娜	-10.295
妙音	-10.2952
珍寶	-10.2958
偷	-10.2958
瓦	-10.2962
大種	-10.2965
圍繞	-10.2969
暴	-10.2971
覺知	-10.2971
饒	-10.2971
修證	-10.2978
祐	-10.2979
即無	-10.2981
經言	-10.2983
恣	-10.2984
虫	-10.2986
不忘	-10.2988
真言曰	-10.3
縱橫	-10.3002
▁夫	-10.3003
衣鉢	-10.3005
南方	-10.3008
慚	-10.3009
如來南無	-10.3042
言語	-10.3048
亭	-10.3051
馬祖	-10.3055
▁家	-10.3056
根塵	-10.306
輸	-10.306
▁他	-10.3063
良久云	-10.3069
白言	-10.307
非不	-10.3073
也說文	-10.3074
覆藏	-10.3077
是菩薩摩訶薩	-10.3085
是何	-10.3087
刺	-10.3092
——	-10.3093
不退轉	-10.3094
或以	-10.3099
躬	-10.31
一切菩薩	-10.3101
三日	-10.3102
混	-10.3112
騎	-10.3113
付囑	-10.3114
能作	-10.3117
貪著	-10.3118
無差別	-10.3122
見之	-10.3122
換	-10.3127
遶	-10.3128
三毒	-10.3134
知是	-10.3134
婆羅	-10.3139
橋	-10.3141
捨離	-10.3153
故此	-10.3158
排	-10.316
前二	-10.3161
聞之	-10.3166
老死	-10.3169
一偈	-10.3169
錦	-10.3175
▁問曰	-10.318
只如	-10.3182
▁想	-10.3186
能破	-10.3189
05	-10.3194
眾人	-10.3197
修多羅	-10.3206
全身	-10.3207
因此	-10.3209
四教	-10.3209
汝當	-10.3212
不過	-10.3214
及與	-10.3214
惡道	-10.3215
又作麼生	-10.3218
仰山	-10.3222
方等	-10.3222
是中	-10.3231
式	-10.3233
畔	-10.3234
豈可	-10.3254
問言	-10.3259
暢	-10.3259
次釋	-10.326
覽	-10.3261
諸煩惱	-10.3262
能得	-10.3274
終日	-10.3275
芳	-10.3279
現在前	-10.3285
艸	-10.3287
毗尼	-10.3287
驅	-10.3289
知有	-10.3292
因甚	-10.3294
至今	-10.3294
得入	-10.3294
津	-10.3297
三性	-10.3303
不墮	-10.3303
有相	-10.3313
有四種	-10.3314
須臾	-10.3316
妙覺	-10.3317
方得	-10.3318
不通	-10.3322
圍	-10.3323
焚	-10.3324
誐	-10.3327
愛樂	-10.3329
佛如來	-10.3331
心地	-10.3332
故今	-10.3336
三千大千世界	-10.334
候	-10.334
D	-10.334
於其	-10.3344
淳	-10.3347
陀羅	-10.3348
鋒	-10.3354
稽首	-10.3358
君子	-10.336
何為	-10.336
不堪	-10.3361
是知	-10.3365
長安	-10.3365
趙	-10.3368
如文	-10.3376
四相	-10.3378
五法	-10.3379
無可	-10.3381
也正作	-10.3381
析	-10.3382
膝	-10.3384
應云	-10.3385
出世間	-10.3389
二十四	-10.3393
八萬	-10.3395
別釋	-10.3398
漫	-10.3399
而出	-10.3409
山曰	-10.341
淨心	-10.3412
男子	-10.3413
財物	-10.3416
放下	-10.3416
▁聖	-10.3418
三人	-10.3424
楞嚴	-10.3434
賞	-10.3436
更不	-10.3437
▁異	-10.344
三月	-10.3446
辰	-10.3449
▁贊曰	-10.3457
甚多	-10.3462
刃	-10.3475
勤修	-10.3475
十年	-10.3477
明月	-10.3477
無復	-10.348
能緣	-10.3482
麥	-10.3484
費	-10.3487
非常	-10.3489
利養	-10.3495
以無	-10.3498
大涅槃	-10.3501
之旨	-10.3513
明日	-10.3517
閻浮提	-10.3517
▁餘	-10.3518
彼佛	-10.3519
中初	-10.3521
以顯	-10.3522
方丈	-10.3525
謀	-10.3531
產	-10.3532
必須	-10.3536
剛	-10.3548
o	-10.3552
代云	-10.3553
夕	-10.3554
渴	-10.3555
無上菩提	-10.3563
腳	-10.3569
S	-10.3571
誘	-10.3572
墨	-10.3574
依正	-10.3575
是真	-10.3581
遍知	-10.3584
斫	-10.3595
散亂	-10.3597
立名	-10.3601
康	-10.3601
m	-10.3604
阿僧祇	-10.3604
或名	-10.3606
忌	-10.3607
之說	-10.361
勢力	-10.361
翠	-10.3615
大聖	-10.3616
所求	-10.3619
維那	-10.3623
復以	-10.3623
秉	-10.3627
拋	-10.3632
二邊	-10.3638
不來	-10.3639
冀	-10.364
在此	-10.3647
陸	-10.3651
爾時世尊	-10.3661
之門	-10.3664
願力	-10.3665
處所	-10.3676
諸相	-10.3679
猶是	-10.368
非實	-10.3681
名相	-10.3682
敲	-10.3686
端正	-10.3687
十二因緣	-10.3688
佗	-10.3688
今明	-10.3691
麗	-10.3699
仲	-10.3701
𦦨	-10.3703
百年	-10.3705
針	-10.3708
羅剎	-10.3708
▁菩提	-10.3713
獲得	-10.3713
二十八	-10.3714
難得	-10.3716
佛智	-10.3718
已得	-10.3718
山云	-10.3721
今以	-10.3722
我說	-10.3727
所在	-10.3728
擯	-10.3736
魯	-10.3737
人人	-10.3744
直得	-10.375
八地	-10.375
若菩薩摩訶薩	-10.3754
故無	-10.3765
四無量	-10.3767
故以	-10.3779
不染	-10.378
所立	-10.378
天女	-10.3782
拂子	-10.3784
潔	-10.3788
二卷	-10.3789
線	-10.3792
神足	-10.3793
不久	-10.3796
則能	-10.3803
四門	-10.3804
法藏	-10.3808
自巳	-10.3817
曜	-10.3817
十界	-10.3818
腰	-10.3822
地中	-10.3822
色心	-10.3824
烟	-10.3826
豆	-10.3829
挂	-10.3836
撿	-10.3837
▁第三	-10.3842
坐禪	-10.385
不具	-10.3853
百億	-10.3854
〔	-10.3857
憍	-10.386
如斯	-10.3863
之外	-10.3867
論主	-10.3869
法空	-10.387
▁嚴	-10.387
皆從	-10.3871
安忍	-10.3873
不假	-10.3878
即於	-10.388
五眼	-10.3881
憍慢	-10.3882
胸	-10.3885
淚	-10.3888
此亦	-10.3888
人法	-10.3897
以下	-10.3905
三結	-10.3915
聲也	-10.3917
二門	-10.3918
維摩	-10.3921
非我	-10.3921
何須	-10.3923
肅	-10.3924
等法	-10.3925
須是	-10.3928
闡	-10.3933
輔	-10.3934
▁著	-10.3937
瑟	-10.394
思之	-10.3943
銘	-10.3945
雖無	-10.3952
水中	-10.3952
乏	-10.3956
涼	-10.3959
契經	-10.3961
悞	-10.3962
欲求	-10.3963
而後	-10.3963
中無	-10.3963
如經	-10.3967
應作	-10.3968
為大	-10.3968
我身	-10.3968
說為	-10.3975
玄沙	-10.3978
喜樂	-10.3981
作此	-10.3981
創	-10.3983
大千	-10.3984
啼	-10.3986
裡	-10.3994
耕	-10.3995
至此	-10.3996
聽法	-10.3997
攞	-10.3997
額	-10.4007
三十六	-10.4009
所明	-10.401
之教	-10.4017
等也	-10.4018
見其	-10.4018
公案	-10.4019
曹	-10.4019
會得	-10.4023
影像	-10.4026
▁立	-10.403
如說	-10.403
非也	-10.4034
之智	-10.4036
一切皆	-10.4038
晦	-10.4038
哆	-10.404
一云	-10.4041
逝	-10.4042
苦集	-10.4042
與彼	-10.4046
化生	-10.4049
十信	-10.4054
此方	-10.4054
侯	-10.4065
善女人	-10.4067
昔日	-10.4067
輪王	-10.4067
四明	-10.4069
諱	-10.4079
增益	-10.4079
身口	-10.4079
低	-10.408
二俱	-10.4083
命根	-10.4088
無犯	-10.4091
便打	-10.4095
報身	-10.4096
與人	-10.4096
▁苦	-10.4102
參禪	-10.4108
故能	-10.4109
得此	-10.4112
一相	-10.4116
▁語	-10.4127
宗旨	-10.413
不違	-10.4139
灌	-10.4139
大事	-10.4142
籠	-10.4143
於前	-10.4146
氷	-10.4146
長養	-10.4149
綠	-10.4151
彩	-10.4155
戀	-10.4155
四法	-10.4156
不待	-10.4157
珍重	-10.4163
而自	-10.4164
閻浮	-10.4168
佛事	-10.4175
說偈	-10.418
識得	-10.4182
空寂	-10.4196
指示	-10.4197
殺生	-10.4204
總是	-10.4215
C	-10.4216
練	-10.4217
至心	-10.4219
植	-10.4219
▁『	-10.422
寶藏	-10.4227
驀	-10.4229
不現	-10.4232
學道	-10.4236
與汝	-10.424
勘	-10.4246
阿修羅	-10.4247
時彼	-10.4252
域	-10.4254
耀	-10.4255
侶	-10.4258
頂禮	-10.4258
非時	-10.4259
又有	-10.4266
未斷	-10.4266
踰	-10.4267
之地	-10.4268
▁師曰	-10.4272
精舍	-10.4279
廟	-10.428
哭	-10.428
譏	-10.4282
過患	-10.4286
慎	-10.4291
正智	-10.4302
為三	-10.4311
佛眼	-10.4316
夢中	-10.4316
▁月	-10.4322
誹謗	-10.4324
奢	-10.4324
忙	-10.4325
奇特	-10.4325
祭	-10.4328
目前	-10.4328
O	-10.433
扣	-10.4332
睡眠	-10.4334
牀	-10.4339
師便打	-10.4341
岳	-10.4342
摧	-10.4342
何等為	-10.4344
蹤	-10.4351
娑嚩	-10.4352
弭	-10.4352
此說	-10.4362
兔	-10.4368
種類	-10.4372
自利	-10.4373
而來	-10.4379
是一	-10.438
相逢	-10.4381
何有	-10.4385
程	-10.4385
U	-10.4386
正因	-10.4388
既有	-10.439
觀世音	-10.4396
TI	-10.44
長短	-10.44
操	-10.4402
太平	-10.4405
對曰	-10.4407
無緣	-10.4407
隋	-10.4408
眼根	-10.4413
或時	-10.4417
一片	-10.4418
問云	-10.4418
無過	-10.4421
之功	-10.4425
》(	-10.443
入室	-10.4434
圓成	-10.4436
無限	-10.4438
羽	-10.4442
吟	-10.4442
意樂	-10.4443
因中	-10.4453
初住	-10.4464
󲊛	-10.4466
鬘	-10.4466
見有	-10.4469
妄心	-10.4469
校	-10.4471
以手	-10.4472
不成就	-10.4474
聞已	-10.4476
▁養	-10.448
▁爾	-10.448
先明	-10.4482
今言	-10.4488
何緣	-10.4501
往昔	-10.4502
作如是	-10.4502
選	-10.4504
▁合	-10.4512
度眾生	-10.4512
所現	-10.4513
育	-10.4516
鞭	-10.4517
識界	-10.4518
以彼	-10.4519
鹽	-10.4519
阿耨多羅三藐三菩提	-10.4526
蒲	-10.4526
辱	-10.4528
#+	-10.453
疊	-10.4548
一聲	-10.4564
信受	-10.4566
▁漏	-10.457
樓閣	-10.4574
青山	-10.4575
從來	-10.4577
瞞	-10.458
相即	-10.4584
直饒	-10.4584
鄙	-10.4589
聞者	-10.4592
其意	-10.4593
重重	-10.4594
無實	-10.4597
一塵	-10.4602
如佛	-10.4605
我為	-10.4607
智力	-10.4607
因緣故	-10.4607
開悟	-10.4608
身子	-10.4612
書寫	-10.4614
說有	-10.4615
眾會	-10.4617
天竺	-10.4619
髻	-10.4632
他方	-10.4633
其實	-10.4634
念處	-10.4637
俱有	-10.4638
祕	-10.4644
莖	-10.4645
吠	-10.4654
大意	-10.4655
我亦	-10.466
離於	-10.4662
地前	-10.4664
軟	-10.4666
殃	-10.4668
何事	-10.4669
轉變	-10.4673
即空	-10.4676
非但	-10.468
環	-10.4681
利根	-10.4681
眾苦	-10.4681
占	-10.4684
導師	-10.4687
於意云何	-10.4687
無對	-10.4688
老漢	-10.469
反說文	-10.4692
鮮	-10.4693
所問	-10.4693
之果	-10.4698
悉能	-10.4698
正行	-10.4709
無染	-10.4718
佛國	-10.472
則非	-10.4724
無障礙	-10.4724
其體	-10.4727
功用	-10.4727
補特伽羅	-10.4731
唎	-10.4733
苦諦	-10.4735
云何為	-10.4737
出來	-10.4742
是心	-10.4743
緩	-10.4744
正理	-10.4745
▁婆	-10.4747
無差	-10.4747
屏	-10.4749
亦同	-10.475
見分	-10.4758
界內	-10.476
柔	-10.4761
臘	-10.4764
嗟	-10.4766
大覺	-10.4766
若在	-10.4768
即前	-10.4771
由旬	-10.4773
邊際	-10.4774
毘尼	-10.4776
廓	-10.4783
糞	-10.4783
季	-10.4785
頂上	-10.48
七地	-10.4805
能成	-10.4806
方知	-10.482
通教	-10.4824
嶽	-10.4824
二十一	-10.4849
翼	-10.4855
溺	-10.4856
乃曰	-10.4858
K	-10.4858
方能	-10.4859
如如	-10.486
酪	-10.4861
詐	-10.4866
所聞	-10.487
此釋	-10.4872
即成	-10.4875
畢竟空	-10.4878
國師	-10.4878
聖賢	-10.4879
漏盡	-10.4879
文義	-10.4882
▁土	-10.4882
伺	-10.4884
L	-10.4887
動靜	-10.4891
巾	-10.4892
若此	-10.4894
一切處	-10.4895
斷惑	-10.4898
富貴	-10.4902
常樂	-10.4906
陷	-10.4925
或見	-10.4925
同上	-10.4927
悟入	-10.4933
示眾	-10.4934
無疑	-10.4937
策	-10.4937
▁諸佛	-10.4942
心故	-10.4946
泥洹	-10.4948
rip	-10.4954
現量	-10.4954
kan	-10.4956
-12	-10.4956
坑	-10.4957
▁gi	-10.4963
經行	-10.4964
thu	-10.4968
co	-10.4968
▁2018	-10.4973
maste	-10.4973
人之	-10.4974
勉	-10.4975
8	-10.4976
深心	-10.4976
午	-10.4978
後一	-10.4979
身命	-10.4984
】【	-10.4988
其相	-10.4989
醒	-10.4989
法體	-10.499
探	-10.4994
後三	-10.4994
耆	-10.5003
黃金	-10.5008
▁華	-10.5008
掛	-10.5009
東西	-10.501
䟽	-10.5028
菜	-10.5035
燒香	-10.5038
對法	-10.5041
上人	-10.5045
不免	-10.5048
鍾	-10.505
石頭	-10.505
為宗	-10.5056
已上	-10.5059
以成	-10.506
不可得故	-10.5062
燕	-10.5069
除滅	-10.5072
拙	-10.5073
即名	-10.5073
嫉	-10.5076
有所得	-10.5076
衲	-10.5077
▁「【	-10.5079
五分	-10.5082
能入	-10.5091
牧	-10.5094
佛為	-10.5096
拄杖子	-10.5101
佛世尊	-10.5103
請上堂	-10.5107
唯願	-10.5108
空空	-10.5109
以上	-10.5111
快樂	-10.5113
佛語	-10.5115
貧窮	-10.5115
燭	-10.5115
有緣	-10.5117
▁悉	-10.5124
直須	-10.5139
我是	-10.5142
之物	-10.5145
剌	-10.5146
初標	-10.5148
若謂	-10.5148
遊行	-10.5152
何用	-10.5155
奚	-10.5156
為之	-10.5157
經典	-10.516
金銀	-10.5165
熾然	-10.5165
於一切法	-10.5167
誨	-10.5167
▁那	-10.5169
▁頌曰	-10.5179
▁情	-10.518
恃	-10.5183
本末	-10.5187
饑	-10.5191
西域	-10.5194
但說	-10.5198
眼見	-10.5204
意根	-10.5207
意也	-10.521
自性空	-10.5211
柴	-10.5214
說是	-10.5215
須陀洹	-10.5215
假使	-10.5215
九品	-10.5216
此一	-10.5218
三事	-10.5219
愚夫	-10.5222
無情	-10.523
碑	-10.5232
不修	-10.5236
又以	-10.5237
四靜慮	-10.5239
未至	-10.524
揮	-10.5244
若論	-10.5244
三品	-10.5249
粥	-10.5252
一切眾	-10.5259
如理	-10.526
受樂	-10.5262
等事	-10.5265
詰	-10.527
末後	-10.5273
即能	-10.5278
歸命	-10.5278
洛	-10.5278
▁訶薩	-10.5281
佛地	-10.5282
安置	-10.5286
老子	-10.5286
健	-10.5291
觀之	-10.5293
師子吼	-10.5295
之用	-10.5297
論中	-10.53
深入	-10.5301
其餘	-10.5301
有八	-10.5302
十善	-10.5304
之德	-10.5311
前文	-10.5311
籌	-10.5313
枕	-10.5314
貞	-10.5315
事業	-10.5317
隨機	-10.5324
況復	-10.5325
四天下	-10.5327
者箇	-10.533
測	-10.5332
布薩	-10.5334
但云	-10.5335
不聽	-10.5336
意業	-10.534
為正	-10.5341
依法	-10.5344
初文	-10.5346
我慢	-10.5348
整	-10.5354
若非	-10.5355
鼎	-10.5356
體相	-10.5356
曠	-10.5357
餘人	-10.5371
拍	-10.5375
今文	-10.5384
五戒	-10.5385
▁是故	-10.5386
祈	-10.539
所斷	-10.5391
範	-10.5392
正受	-10.5394
霞	-10.5396
蜀	-10.5398
▁年	-10.5399
僧中	-10.5413
了達	-10.5414
地上	-10.5433
縷	-10.5433
罰	-10.5435
臨終	-10.5438
闍黎	-10.5438
逾	-10.5441
即時	-10.5447
會麼	-10.5451
喝一喝	-10.5458
枉	-10.5464
會中	-10.5464
請問	-10.5467
正道	-10.5468
大明	-10.5475
秘	-10.5475
三十二相	-10.5476
如我	-10.5476
六處	-10.5478
弓	-10.5481
三教	-10.5484
第八識	-10.5485
▁經云	-10.5486
身業	-10.5487
使人	-10.5488
▁昧	-10.549
令他	-10.5494
尋伺	-10.5495
聰	-10.5498
若離	-10.5499
漸漸	-10.5506
憐	-10.551
瞿	-10.5512
煞	-10.5513
▁宋	-10.5517
下品	-10.5517
惡行	-10.5523
因故	-10.5527
四海	-10.5534
粗	-10.5534
掉	-10.5535
多有	-10.5537
令我	-10.5544
結成	-10.5544
在前	-10.5546
湛然	-10.5547
不問	-10.555
迦羅	-10.5553
心法	-10.5555
婆沙	-10.5556
有省	-10.5563
棄捨	-10.5565
三衣	-10.557
曹溪	-10.5571
▁喜	-10.5572
俾	-10.5572
如虛空	-10.5573
我法	-10.5573
毫	-10.5574
名號	-10.5574
精勤	-10.5578
已生	-10.5578
一問	-10.5579
三義	-10.558
非色	-10.5583
已說	-10.5589
刑	-10.5593
此識	-10.5596
承當	-10.5597
役	-10.5598
而立	-10.5599
▁九	-10.56
▁重	-10.5602
法處	-10.5606
又此	-10.5607
初中	-10.5623
滅盡	-10.5626
小兒	-10.563
六年	-10.5633
一劫	-10.5634
一行	-10.5636
佛號	-10.5639
一月	-10.5642
鎖	-10.5644
仗	-10.5652
身見	-10.5657
遍行	-10.5658
聊	-10.5659
▁薩摩訶薩	-10.5662
為是	-10.5663
蒼	-10.5664
是誰	-10.5668
華嚴經	-10.5668
魂	-10.5669
諸大	-10.5671
十方諸佛	-10.5673
相也	-10.5675
捺	-10.5678
全體	-10.568
函	-10.5681
正觀	-10.5682
南山	-10.5685
托	-10.5686
併	-10.5688
潭	-10.5688
稱讚	-10.5695
是甚麼	-10.5697
成立	-10.57
不隨	-10.5701
而復	-10.5705
流出	-10.571
今者	-10.5715
壯	-10.572
十行	-10.5724
▁利	-10.5727
並是	-10.5728
種姓	-10.5728
名義	-10.573
所住	-10.5733
竺	-10.5735
什麼	-10.5736
各自	-10.5741
是諸	-10.5747
鄭	-10.575
普照	-10.575
算	-10.575
此處	-10.5752
作如是言	-10.5754
寢	-10.5755
正作	-10.576
律師	-10.5762
▁二釋	-10.5771
生處	-10.5772
逈	-10.5773
者即是	-10.5775
陶	-10.5776
當機	-10.5781
資糧	-10.5781
是名為	-10.5784
變異	-10.5785
▁化	-10.5789
摩訶衍	-10.5792
憐愍	-10.5793
▁*****	-10.5794
宏	-10.5796
上古	-10.5798
為甚麼	-10.5803
二障	-10.5804
未見	-10.5804
生疑	-10.5804
雖不	-10.5808
撫	-10.5809
神變	-10.5811
極樂	-10.5812
陞座	-10.5815
能詮	-10.5817
得大	-10.5818
日用	-10.5823
頭上	-10.5823
於他	-10.5823
意在	-10.5823
無智	-10.5825
聞說	-10.5833
門人	-10.5836
繇	-10.5838
黃龍	-10.5839
云何名	-10.5841
妻子	-10.5842
心境	-10.5847
窺	-10.5848
二十二	-10.585
根性	-10.5851
人所	-10.5857
應供	-10.5858
春風	-10.5861
得法	-10.5862
八解脫	-10.5864
埋	-10.5867
後有	-10.5868
茂	-10.5868
晴	-10.5872
▁捨	-10.5874
非謂	-10.5874
引證	-10.5875
感應	-10.5878
能起	-10.5881
業道	-10.5886
雖是	-10.5887
皆空	-10.5898
二智	-10.5902
能證	-10.5903
▁食	-10.5908
如夢	-10.5908
▁具	-10.5909
意者	-10.5912
研	-10.5913
一點	-10.5915
手足	-10.5918
叔	-10.5919
二相	-10.5923
遠近	-10.593
修所斷	-10.5939
緣故	-10.5951
靈山	-10.5958
▁摩訶薩	-10.5962
覺悟	-10.5963
罔	-10.5973
肘	-10.5978
謂有	-10.5983
雪山	-10.5984
波羅蜜多	-10.5985
同體	-10.5986
擬議	-10.5986
面目	-10.5986
一切煩惱	-10.5991
何曾	-10.5993
父子	-10.5995
是經	-10.5996
之內	-10.5997
真理	-10.6001
苑	-10.6001
檢	-10.6004
淫	-10.6007
一門	-10.6017
此地	-10.602
用心	-10.6021
流水	-10.6022
身相	-10.6024
寮	-10.6025
所受	-10.6028
此菩薩	-10.6033
警	-10.6034
葬	-10.6036
惡人	-10.6039
呵責	-10.6039
異相	-10.6041
柔軟	-10.6046
闊	-10.6057
應以	-10.6059
譽	-10.606
須彌山	-10.606
薰	-10.606
同於	-10.6064
無表	-10.6065
係	-10.6065
俱舍	-10.6069
三時	-10.6072
波羅夷	-10.6075
醜	-10.6077
圍遶	-10.6082
烈	-10.6083
兆	-10.6084
理事	-10.6085
五色	-10.6087
光照	-10.6087
入道	-10.6089
▁竟	-10.6092
六者	-10.6092
所居	-10.6094
超越	-10.6095
聲聞緣覺	-10.6097
泛	-10.6097
不死	-10.6098
龕	-10.6098
雲居	-10.61
俗諦	-10.6101
一言	-10.6101
總名	-10.6102
十方世界	-10.6102
總別	-10.6103
古佛	-10.6103
道相智	-10.6103
化作	-10.6107
電	-10.6117
了義	-10.6119
頭陀	-10.6119
一切相智	-10.6125
戴	-10.6125
道俗	-10.6126
念誦	-10.6129
五位	-10.6131
之上	-10.6142
七種	-10.6146
平生	-10.6146
楞伽	-10.6146
正等覺	-10.6149
仁者	-10.615
由彼	-10.6154
之機	-10.6157
非人	-10.616
孟	-10.6161
西天	-10.6162
凡有	-10.6163
魔王	-10.6163
▁爾時世尊	-10.6172
鞞	-10.6173
言無	-10.6173
眼睛	-10.6174
開口	-10.6175
卜	-10.6177
執持	-10.6178
派	-10.618
炬	-10.6181
幡	-10.6182
本願	-10.6183
離相	-10.6185
以是因緣	-10.6186
奉行	-10.6186
內空	-10.6187
無法	-10.6188
其有	-10.6188
法嗣	-10.6189
靡	-10.6191
焦	-10.6192
於世	-10.6194
生天	-10.6196
汗	-10.62
梵音	-10.62
數數	-10.6204
迷悟	-10.6206
大論	-10.6206
缽	-10.6207
俱胝	-10.6209
教法	-10.6209
有二義	-10.6214
此品	-10.6216
事故	-10.6219
得自在	-10.6221
常在	-10.6222
衣食	-10.6223
善能	-10.6231
悔過	-10.6234
兒孫	-10.6236
久住	-10.6238
千古	-10.6242
聽受	-10.6243
准此	-10.6244
真俗	-10.6245
夙	-10.6254
不容	-10.6262
▁南	-10.6262
若有眾生	-10.6264
妄見	-10.6266
諸外道	-10.6277
初一	-10.6281
朕	-10.6281
法施	-10.6283
師乃	-10.6286
栴檀	-10.6289
惡心	-10.6297
不令	-10.6298
織	-10.6299
三卷	-10.6304
離垢	-10.6309
業障	-10.6316
自是	-10.6316
社	-10.6317
應身	-10.6317
▁轉	-10.6319
叢	-10.632
燄	-10.6322
何名	-10.6332
本性空	-10.6335
六祖	-10.6339
九十	-10.6347
崩	-10.6347
三百	-10.6347
擾	-10.6348
我不	-10.6351
作是言	-10.6356
無形	-10.6356
阿闍梨	-10.636
疑惑	-10.6361
釣	-10.6365
頑	-10.6366
大似	-10.6366
與之	-10.6371
尚不	-10.6371
殺人	-10.6371
無念	-10.6372
作業	-10.6377
諦聽	-10.6377
正釋	-10.6378
衍	-10.6384
無言	-10.639
身體	-10.639
果故	-10.6391
二十七	-10.6397
乃能	-10.6397
不疑	-10.6398
▁一時	-10.6398
壽量	-10.6401
復問	-10.6402
瑠璃	-10.6402
遽	-10.6402
此間	-10.6404
爪	-10.641
有七	-10.6413
欠	-10.6416
哲	-10.6419
化他	-10.6419
一標	-10.6419
周遍	-10.6423
鈍根	-10.6425
界外	-10.6425
綿	-10.6428
曰如何是	-10.643
大品	-10.6436
日日	-10.6442
我心	-10.6442
黨	-10.6442
▁學	-10.6445
俊	-10.6447
家風	-10.6447
廬山	-10.6448
本自	-10.645
無自性	-10.6451
八種	-10.6454
彈指	-10.6456
皆無	-10.6458
大喜	-10.6459
寂然	-10.6462
飄	-10.6462
職	-10.6463
突	-10.6463
▁初明	-10.6465
今當	-10.6467
化眾生	-10.647
長壽	-10.647
阿羅漢果	-10.647
以來	-10.6471
瞎	-10.6472
▁信	-10.6474
▁藏	-10.6477
其名	-10.648
▁須	-10.6481
亦通	-10.6482
繫縛	-10.6489
綱	-10.6493
而逝	-10.6495
料簡	-10.6498
大家	-10.6506
善逝	-10.6507
皷	-10.6513
佛之	-10.6514
便得	-10.6519
霧	-10.6521
知之	-10.6522
內心	-10.6524
▁初標	-10.6526
不礙	-10.6527
邏	-10.6527
皆能	-10.6528
或說	-10.6529
增減	-10.6529
心行	-10.6531
無上正等菩提	-10.6537
製	-10.6541
一事	-10.6542
業報	-10.6543
得失	-10.6547
發生	-10.6549
十句	-10.6551
滋	-10.6552
二約	-10.6554
抽	-10.6561
卷第十	-10.6561
諸聖	-10.6563
十八界	-10.6563
誕	-10.6564
歟	-10.6564
勵	-10.6572
猶有	-10.6578
得度	-10.6581
十日	-10.6584
䭾	-10.6584
咎	-10.6586
行法	-10.6587
十誦	-10.6587
行處	-10.6588
既云	-10.6589
拽	-10.6595
何必	-10.6596
昨日	-10.6597
ㄟ	-10.6598
層	-10.6598
第一義諦	-10.6601
可說	-10.6604
戒本	-10.6605
厥	-10.6615
屢	-10.662
寡	-10.6623
攀緣	-10.6623
通別	-10.6625
▁世間	-10.6625
着	-10.6634
斤	-10.6634
千年	-10.6643
大悟	-10.665
空有	-10.6653
法寶	-10.6657
二禪	-10.6657
皆不	-10.6658
滅故	-10.6663
若菩薩	-10.6672
一切種智	-10.6672
貪愛	-10.6673
廣明	-10.6674
敬禮	-10.6677
拄	-10.6678
山河	-10.6681
聰明	-10.6684
谿	-10.6685
從前	-10.669
何法	-10.6693
適來	-10.6694
熾	-10.6696
見已	-10.6703
光佛	-10.6707
工夫	-10.6707
擎	-10.6709
道諦	-10.671
抵	-10.6715
於人	-10.6719
十法	-10.672
舉似	-10.6722
門下	-10.6724
四念住	-10.6725
如來說	-10.6726
不顧	-10.6736
法爾	-10.6736
王言	-10.674
往詣	-10.6741
旬	-10.6742
二十三	-10.675
諸子	-10.6756
▁千	-10.6759
恒河沙	-10.6766
不欲	-10.6768
門外	-10.6772
火燒	-10.6772
眾寶	-10.6775
道得	-10.6777
聖凡	-10.6782
不落	-10.6783
半月	-10.6785
持經	-10.6787
不思	-10.6798
是實	-10.6798
嚴淨	-10.6798
之士	-10.6798
四人	-10.6805
行脚	-10.6806
分身	-10.6807
積集	-10.6808
得一	-10.681
持誦	-10.6816
自覺	-10.6817
酥	-10.682
未必	-10.6823
9	-10.6823
桃	-10.6825
死生	-10.6828
▁證	-10.6831
犯戒	-10.6835
異故	-10.6835
不分	-10.6836
屍	-10.6838
▁第四	-10.6838
未嘗	-10.6839
此戒	-10.6841
何異	-10.6843
革	-10.6846
萬象	-10.6852
之與	-10.6863
禮佛	-10.6866
未甞	-10.6866
亦當	-10.6874
度脫	-10.6878
為名	-10.6882
秖	-10.6882
為甚	-10.6882
鑽	-10.6884
流布	-10.6885
別相	-10.6886
而說偈言	-10.6888
尸羅	-10.6892
所須	-10.6892
手執	-10.6896
淺深	-10.6897
依於	-10.6899
餅	-10.69
不遠	-10.6901
乍	-10.6901
遍滿	-10.6904
此語	-10.6904
到此	-10.6904
妙行	-10.691
現觀	-10.6911
▁物	-10.6914
無見	-10.6915
恥	-10.6918
盆	-10.6924
記云	-10.6927
聞佛	-10.6928
如水	-10.6932
十萬	-10.6932
▁外	-10.6936
解說	-10.6942
同類	-10.6944
北方	-10.6945
又作	-10.6947
牢	-10.6951
欲界繫	-10.6952
這裏	-10.6959
了別	-10.6962
▁眼	-10.6965
明其	-10.6965
三十年	-10.6965
觀者	-10.6966
四無所畏	-10.6971
今謂	-10.6976
亦以	-10.6977
心王	-10.6977
握	-10.6978
餘處	-10.6979
同分	-10.6985
當於	-10.6991
頓悟	-10.6993
下地	-10.6995
阿含	-10.6997
大用	-10.6997
鑿	-10.7
彼諸	-10.7006
大經	-10.7008
虧	-10.7008
藥叉	-10.701
實性	-10.7013
不絕	-10.7013
箇甚麼	-10.7014
怕	-10.7016
分段	-10.7021
而坐	-10.7025
句義	-10.7029
回向	-10.703
唵	-10.7031
問僧	-10.7035
暖	-10.7035
雪峯	-10.7037
無所著	-10.7039
誦經	-10.7041
六波羅蜜	-10.7042
若說	-10.7043
作是說	-10.7044
鼠	-10.705
能發	-10.7053
十五日	-10.7054
無端	-10.7056
藥王	-10.7057
四天王	-10.7058
訛	-10.7058
【	-10.7061
衲子	-10.7061
擁護	-10.7066
餘三	-10.7068
伽藍	-10.7069
為眾	-10.707
隨時	-10.7074
一類	-10.7077
增上慢	-10.7081
搆	-10.7083
a	-10.7083
或為	-10.7088
若知	-10.7089
本迹	-10.7091
幻化	-10.7092
下音	-10.7094
攬	-10.7095
羞	-10.71
▁滿	-10.7105
話頭	-10.7107
促	-10.7109
之業	-10.711
不息	-10.7117
諾	-10.7124
與諸	-10.7126
勝妙	-10.7127
是常	-10.7129
了了	-10.7131
清風	-10.7134
廣釋	-10.7145
神呪	-10.7147
遣使	-10.7147
三門	-10.7149
自言	-10.7152
慰	-10.7153
自作	-10.7154
醍醐	-10.7157
聲色	-10.7157
問何故	-10.7157
二十年	-10.7163
問佛	-10.7164
業果	-10.7164
不放逸	-10.7167
得菩提	-10.7168
見諦	-10.7168
何人	-10.7173
犬	-10.7178
道士	-10.7181
別明	-10.7181
難可	-10.7186
正說	-10.7186
我以	-10.719
茅	-10.7191
萬歲	-10.7192
緊	-10.7202
勝進	-10.7205
嚴飾	-10.7209
些	-10.7212
偈頌	-10.7215
消滅	-10.7217
心也	-10.7224
但為	-10.7225
所取	-10.7226
得麼	-10.7235
▁施	-10.7238
體也	-10.7239
莫能	-10.7239
四念處	-10.7242
大力	-10.7243
兜率	-10.7243
轉輪王	-10.7247
但言	-10.7251
不到	-10.7255
依舊	-10.7256
堆	-10.7257
緒	-10.7259
能治	-10.7268
右手	-10.7274
然而	-10.7279
空故	-10.728
四果	-10.7282
之語	-10.7285
闡提	-10.729
剋	-10.7292
為四	-10.7294
涌	-10.7304
布施波羅蜜多	-10.7305
知足	-10.7307
來者	-10.7308
所應	-10.7309
法執	-10.731
且如	-10.731
林中	-10.7311
四事	-10.7311
坐斷	-10.7316
晨	-10.7317
三摩	-10.7321
時人	-10.7322
城中	-10.7324
峻	-10.7326
龍樹	-10.733
優婆夷	-10.7331
正當	-10.7334
六神通	-10.7336
正義	-10.7338
趣向	-10.7338
荼	-10.7341
三十七	-10.7344
具如	-10.7344
設有	-10.7348
他心智	-10.7348
蔭	-10.735
髓	-10.7352
一頌	-10.7353
斷煩惱	-10.7354
宰	-10.7356
是故說	-10.7358
一切世界	-10.736
▁涅槃	-10.7364
妙喜	-10.737
比量	-10.7377
我執	-10.7378
韓	-10.7383
撲	-10.7391
七識	-10.74
攝取	-10.7403
能取	-10.7406
田地	-10.7407
腸	-10.7407
眼界	-10.7408
▁示眾	-10.7411
機緣	-10.7415
以前	-10.7418
受具	-10.7418
現見	-10.7419
見此	-10.7424
泣	-10.7425
盡是	-10.7426
前四	-10.7427
釋名	-10.7432
虛空界	-10.7432
心心所	-10.7435
其間	-10.7437
衡	-10.7439
▁度	-10.7439
軀	-10.744
眾生心	-10.7441
五塵	-10.7441
自已	-10.7443
奢摩他	-10.7443
皆同	-10.745
應如是	-10.7452
已來	-10.7455
不論	-10.7456
蹋	-10.7457
等正覺	-10.7467
入門	-10.7472
為彼	-10.7472
聾	-10.7473
摩羅	-10.7476
芽	-10.7477
直指	-10.748
賢首	-10.7483
常無常	-10.7485
監	-10.7486
境智	-10.7488
施與	-10.7493
為其	-10.7496
古德	-10.7497
在甚麼處	-10.7498
䇿	-10.7499
▁迦	-10.7501
▁普	-10.7504
豪	-10.7505
五年	-10.7506
律云	-10.7507
贈	-10.7508
佛十力	-10.7508
瑩	-10.7512
有箇	-10.7513
所願	-10.7516
為法	-10.7517
依處	-10.7518
祿	-10.7518
作家	-10.752
興化	-10.7524
覺觀	-10.7525
以自	-10.7527
呬	-10.7528
如下	-10.7531
三有	-10.7534
僧禮拜	-10.7535
d	-10.7543
等故	-10.7545
知音	-10.7547
菩薩摩訶	-10.7548
賓主	-10.755
無定	-10.755
良以	-10.7554
皆令	-10.7554
本識	-10.7557
道品	-10.7557
▁惡	-10.7558
▁礙	-10.7559
不易	-10.7564
三禪	-10.7565
長夜	-10.7567
從今	-10.757
一段	-10.757
染心	-10.7572
為勝	-10.7572
或言	-10.7573
敏	-10.7574
能除	-10.7577
鄰	-10.7577
者裏	-10.7577
諸餘	-10.7578
一品	-10.7579
憎	-10.7579
巳前	-10.758
相待	-10.7581
熾盛	-10.7585
何義	-10.7586
無比	-10.7587
牟尼	-10.7587
等流	-10.7589
葛	-10.7589
百萬	-10.7593
全無	-10.7593
自證	-10.7593
后	-10.7593
不別	-10.7594
亦為	-10.7595
辛	-10.7597
群生	-10.7598
諸天子	-10.7598
所以道	-10.7599
五濁	-10.7599
逃	-10.7601
即入	-10.7609
槃	-10.7614
不由	-10.7614
汁	-10.7615
眼等	-10.7615
總相	-10.7617
子曰	-10.7617
此為	-10.7618
打破	-10.7619
跳	-10.7622
執受	-10.7624
▁案	-10.7624
良由	-10.7634
先生	-10.7638
二百	-10.7639
如前說	-10.7642
我聞	-10.7651
轉身	-10.7652
真妄	-10.7653
染著	-10.7654
獵	-10.7657
桂	-10.766
解脫道	-10.766
此理	-10.7663
前說	-10.7668
意界	-10.7668
眷	-10.7668
有如是	-10.767
財寶	-10.767
削	-10.7671
皇帝	-10.7673
始覺	-10.7674
以何	-10.7675
便有	-10.7676
五力	-10.7677
誰能	-10.768
班	-10.7682
不可見	-10.7683
▁金剛	-10.7685
奈	-10.7686
故稱	-10.7689
我有	-10.7695
拶	-10.7695
吏	-10.7703
諦觀	-10.7704
殊不知	-10.7706
拈云	-10.771
鉢囉	-10.7711
二十九	-10.7711
▁字	-10.7715
作證	-10.772
四年	-10.7731
王曰	-10.7735
為眾生	-10.7736
下至	-10.7741
未曾有	-10.7744
假立	-10.7745
▁陀	-10.7745
評	-10.7746
五人	-10.7747
不食	-10.7748
大慈悲	-10.7749
曷	-10.775
二空	-10.7752
取著	-10.7752
葛藤	-10.7756
與他	-10.7757
稱為	-10.7758
行故	-10.7762
有為法	-10.7775
初釋	-10.7776
於後	-10.7776
椎	-10.7777
5	-10.7778
道中	-10.7782
疲	-10.7783
▁第	-10.7784
寤	-10.7784
論說	-10.7785
救護	-10.7787
挑	-10.7788
妙用	-10.7788
不達	-10.7795
地界	-10.7795
計著	-10.7797
生也	-10.7798
獅子	-10.7799
▁卷	-10.7801
三十三天	-10.7802
無依	-10.7803
實法	-10.7806
黎	-10.7806
輪轉	-10.7807
捧	-10.781
聖智	-10.781
品中	-10.7812
祗	-10.7812
尚書	-10.7819
裁	-10.7819
▁尚	-10.7821
邦	-10.7822
帙	-10.7824
藥山	-10.7824
攀	-10.7832
異名	-10.7839
激	-10.7842
籍	-10.7844
錐	-10.7845
日夜	-10.785
為實	-10.7851
何因	-10.7853
波若	-10.7854
一任	-10.7856
斷除	-10.7862
能說	-10.7863
涅槃經	-10.7864
為首	-10.7866
病人	-10.7866
示眾云	-10.787
名言	-10.7873
當言	-10.7876
个	-10.7879
巢	-10.788
斷常	-10.7882
許多	-10.7882
分四	-10.7884
教中	-10.7891
是無	-10.7902
說之	-10.7903
有色	-10.7906
屠	-10.791
▁摩	-10.7914
於空	-10.7916
▁名為	-10.7917
藏識	-10.7919
有生	-10.7922
漿	-10.7922
九次第定	-10.7922
四面	-10.7928
剖	-10.7938
有義	-10.7938
▁惟	-10.794
滅諦	-10.7944
躍	-10.7944
瘦	-10.7944
正宗	-10.7947
頗有	-10.7951
諸功德	-10.7951
主人	-10.7954
八勝處	-10.7957
尋思	-10.7959
毛孔	-10.796
項	-10.7961
街	-10.7962
e	-10.7964
不念	-10.7966
凌	-10.7966
是有	-10.7966
天宮	-10.7968
四月	-10.7974
九地	-10.798
至誠	-10.7981
若復	-10.7991
懶	-10.7996
惟願	-10.7997
初生	-10.7998
二分	-10.7998
貪等	-10.8
樂受	-10.8003
具有	-10.8005
中云	-10.8006
自己	-10.8008
▁分別	-10.8009
耶答	-10.8011
佛心	-10.8016
莎	-10.802
於心	-10.8025
有佛	-10.8025
化佛	-10.8027
取捨	-10.8027
心體	-10.8035
將謂	-10.8041
邪正	-10.8042
真常	-10.8048
病者	-10.805
賢者	-10.8054
亦說	-10.8057
驚怖	-10.8061
挽	-10.8068
之際	-10.8074
能於	-10.8075
底人	-10.8076
無為法	-10.8083
威力	-10.8083
聖諦	-10.8084
教誡	-10.8087
行也	-10.8091
千萬	-10.8093
食者	-10.8096
梵本	-10.8097
非想	-10.8098
兩句	-10.8099
無有是處	-10.8102
所出	-10.8102
慧命	-10.8104
今云	-10.8105
遍計	-10.8112
別故	-10.8113
亮	-10.8116
帛	-10.8117
色處	-10.8117
一切智智清淨故	-10.8118
▁數	-10.8121
切忌	-10.8122
端坐	-10.8125
亦不得	-10.8125
菓	-10.8127
與前	-10.8132
前中	-10.8136
倉	-10.8136
粟	-10.8139
見思	-10.814
善女人等	-10.8141
塵沙	-10.8149
帖	-10.815
廬	-10.8156
道德	-10.8158
不能得	-10.8161
一曰	-10.8162
受持讀誦	-10.8162
意謂	-10.8163
腦	-10.8165
▁士	-10.8166
色空	-10.817
行陰	-10.8174
開合	-10.8179
▁座	-10.8179
者麼	-10.8181
唯除	-10.8181
覺支	-10.8188
常為	-10.819
咬	-10.8196
匪	-10.8196
▁邊	-10.8196
法住	-10.8199
慧眼	-10.8199
難思	-10.8199
而修	-10.8201
而入	-10.8202
煩惱障	-10.8204
岐	-10.8204
上文	-10.8207
結集	-10.8211
賦	-10.8212
云何名為	-10.8214
能觀	-10.8222
名稱	-10.8231
諸師	-10.8231
當有	-10.8234
為方便	-10.8234
久遠	-10.8235
迥	-10.8236
尊宿	-10.8241
哀愍	-10.8242
罪福	-10.8243
▁蜜多	-10.8243
修善	-10.8243
拈出	-10.8247
諭	-10.8249
若有人	-10.8251
周徧	-10.8252
即知	-10.8252
非有非無	-10.8252
當體	-10.8252
此非	-10.8254
為業	-10.8261
妖	-10.8262
拈起	-10.8266
誰知	-10.827
與佛	-10.8271
7	-10.8272
六入	-10.8275
替	-10.8276
若為	-10.8278
無得	-10.8278
台	-10.8279
▁了	-10.8281
佛所說	-10.8282
鬪	-10.8283
王舍城	-10.8283
其本	-10.8285
無際	-10.8286
為作	-10.8288
中有二	-10.829
怠	-10.8295
怛囉	-10.8295
巳後	-10.8296
修羅	-10.8299
陀羅尼門	-10.8304
妄計	-10.8304
朽	-10.831
西來	-10.8312
允	-10.8312
俱是	-10.8315
斧	-10.8315
鷄	-10.8316
所顯	-10.8316
陣	-10.8316
各異	-10.8319
師問	-10.8319
海中	-10.832
能滅	-10.8321
生長	-10.8321
當以	-10.8322
遙見	-10.8326
善行	-10.8332
四智	-10.8338
岩	-10.8339
四無色定	-10.8341
未聞	-10.8342
將軍	-10.8343
四卷	-10.8344
滅定	-10.8346
彼比丘	-10.8347
膽	-10.8352
嚩日囉	-10.8353
郭	-10.8354
枳	-10.8357
教他	-10.8357
耳根	-10.8361
見如來	-10.8361
不虛	-10.8362
日光	-10.8362
本是	-10.8362
便下座	-10.8364
中之	-10.8364
人身	-10.8365
分中	-10.8366
豈得	-10.8368
以法	-10.837
天帝釋	-10.8372
鎧	-10.8373
分位	-10.8375
敕	-10.8376
諸佛世尊	-10.8377
可解	-10.8387
復言	-10.839
石霜	-10.8391
下劣	-10.8392
通身	-10.8394
炭	-10.8396
初靜慮	-10.8396
教化眾生	-10.8397
今古	-10.8397
今欲	-10.8399
踐	-10.8402
聞是	-10.8408
明暗	-10.841
明知	-10.841
所知障	-10.8412
括	-10.8413
所由	-10.8414
若據	-10.8415
中二	-10.8415
最為	-10.8416
七者	-10.8417
如是如是	-10.8418
所觀	-10.842
良久曰	-10.8425
之一	-10.843
有性	-10.8431
異類	-10.8433
山林	-10.8434
淨穢	-10.8436
▁羅蜜多	-10.8437
亦不可得	-10.8438
南嶽	-10.8445
報言	-10.8445
無所畏	-10.8446
當作	-10.845
縫	-10.8451
等諸	-10.8451
從上	-10.8454
轉識	-10.8456
為主	-10.8456
衝	-10.8457
▁以故	-10.8459
匠	-10.8461
二形	-10.8468
當為	-10.8468
華言	-10.8471
有五種	-10.8473
四生	-10.8474
此十	-10.8476
所持	-10.8476
出於	-10.8477
輙	-10.8478
度人	-10.8481
為汝	-10.8481
巡	-10.8483
釋迦牟尼佛	-10.8486
藤	-10.8487
其性	-10.8487
決擇	-10.8489
觀世音菩薩	-10.8489
取相	-10.849
俄	-10.8491
常行	-10.8493
既爾	-10.8495
空華	-10.8499
無語	-10.8499
皆依	-10.85
直至	-10.8503
觀法	-10.851
山河大地	-10.8513
春秋	-10.8519
菩薩摩	-10.8519
罪人	-10.8524
若彼	-10.8524
將欲	-10.853
令心	-10.8531
歸宗	-10.8534
平等性	-10.8534
翅	-10.8536
上地	-10.8538
永離	-10.854
不去	-10.854
正定	-10.8543
▁【○	-10.8543
舜	-10.8546
隨逐	-10.8546
足下	-10.8547
佛陀	-10.8549
戒者	-10.8552
莫道	-10.8553
豁	-10.8553
是無常	-10.8553
華藏	-10.8554
後生	-10.8554
求法	-10.8556
為僧	-10.8557
業用	-10.8561
g	-10.8563
學處	-10.8564
八部	-10.8565
空無	-10.8572
這僧	-10.8574
復說	-10.8575
如其	-10.8575
明王	-10.858
五祖	-10.858
等三	-10.8582
爽	-10.8591
樣	-10.8592
意旨如何	-10.8594
知此	-10.8596
矩	-10.8602
般若波	-10.8603
生生	-10.8606
諸弟子	-10.8607
唾	-10.8608
道行	-10.8608
能行	-10.861
一剎那	-10.8613
▁百	-10.8614
自見	-10.8614
無處	-10.8614
廁	-10.8615
小參	-10.8618
滅後	-10.862
念住	-10.8621
慶喜	-10.8623
地藏	-10.8625
嗚呼	-10.8625
淨行	-10.8627
一千	-10.8629
元來	-10.8631
所餘	-10.8635
輕安	-10.8637
▁我今	-10.8637
坐具	-10.8638
忻	-10.8642
禁戒	-10.8646
今既	-10.8647
室中	-10.8648
舌頭	-10.8651
端嚴	-10.8652
巳來	-10.8653
真淨	-10.8655
有力	-10.8655
百萬億	-10.8656
論者	-10.8656
即同	-10.8656
佳	-10.8656
▁無量	-10.8658
鳩	-10.8659
宿命	-10.8666
震動	-10.8666
罕	-10.8667
本心	-10.8667
能以	-10.8668
有多	-10.8668
阿那含	-10.8672
證明	-10.8673
曹山	-10.8675
聞此	-10.8677
▁詔譯	-10.8677
可愛	-10.8678
後來	-10.8679
奮	-10.868
蕭	-10.8681
天龍	-10.8681
十方佛	-10.8682
上方	-10.8688
示之	-10.8689
嵩	-10.8695
現世	-10.8695
已斷	-10.8695
非心	-10.8696
供給	-10.8703
由斯	-10.8704
覷	-10.8705
惡作	-10.8708
說也	-10.871
一切佛法	-10.871
1	-10.8713
相望	-10.8718
曼	-10.8722
七十	-10.8724
恁麼則	-10.8724
定心	-10.8726
天神	-10.8727
篤	-10.8729
無厭	-10.873
鈴	-10.8731
應言	-10.8733
使者	-10.8734
末世	-10.8734
乾闥婆	-10.8734
應說	-10.8735
善見	-10.8736
實智	-10.8736
京師	-10.8737
以何為	-10.8738
從彼	-10.8738
靈隱	-10.8741
薩婆多	-10.8742
諸地	-10.8744
得佛	-10.8748
詠	-10.8749
壓	-10.875
奧	-10.8751
相貌	-10.8753
而化	-10.8756
復云	-10.8756
性者	-10.8757
閩	-10.8764
速疾	-10.8767
縮	-10.8768
多人	-10.8768
釋成	-10.8769
無憂	-10.8773
護念	-10.8773
思議	-10.8777
蹈	-10.8778
無方	-10.878
大人	-10.878
夾山	-10.8782
孔子	-10.8785
重罪	-10.8786
老和尚	-10.8786
𩕳	-10.8787
▁妙	-10.8788
佛頂	-10.879
二十六	-10.8792
之下	-10.8795
喧	-10.8796
諸世間	-10.8796
與此	-10.8798
苾芻尼	-10.8799
受報	-10.88
等四	-10.8801
▁益	-10.8802
恁麼道	-10.8806
啞	-10.8806
有兩	-10.8809
▁蜜	-10.8811
宛然	-10.8816
覔	-10.8824
得罪	-10.8825
也說文從	-10.8826
二頌	-10.8827
利樂	-10.8834
便成	-10.8838
若我	-10.8843
姑	-10.8844
寓	-10.8845
外境	-10.8845
露柱	-10.8846
撮	-10.8848
一家	-10.885
▁所有	-10.885
一下	-10.8851
為難	-10.8853
▁娑嚩	-10.8854
明白	-10.886
唯佛	-10.886
力士	-10.8862
掘	-10.8862
不殺	-10.8872
俟	-10.8873
裹	-10.8873
剎土	-10.8875
頸	-10.8877
軒	-10.8877
非離	-10.8878
定中	-10.8879
便喝	-10.8882
桑	-10.8883
築	-10.8884
圓頓	-10.8888
有僧	-10.8888
跪	-10.8889
琴	-10.889
覺性	-10.8892
諸業	-10.8895
道聖諦	-10.8896
優劣	-10.8897
之徒	-10.8898
償	-10.8902
之妙	-10.8902
應當學	-10.8902
起故	-10.8904
▁剛	-10.8906
諂	-10.8906
能引	-10.891
▁送	-10.8914
何如	-10.8915
明明	-10.8917
增上緣	-10.8918
體是	-10.8918
見一	-10.8919
俱時	-10.8921
頭頭	-10.8921
簾	-10.8923
即不問	-10.8928
荊	-10.8928
呂	-10.893
栽	-10.8931
▁禪	-10.8931
了無	-10.8932
雖然如是	-10.8933
王宮	-10.8937
謂彼	-10.8938
肥	-10.8944
捐	-10.8945
諸見	-10.8948
宗門	-10.8955
前人	-10.8955
伽陀	-10.8956
即彼	-10.8957
一往	-10.8958
從何	-10.8958
隷	-10.8959
調達	-10.8959
承事	-10.8967
隨轉	-10.8967
脈	-10.8968
炙	-10.8973
佛名	-10.8974
何也	-10.8975
虞	-10.8976
謂諸	-10.8977
口業	-10.8979
非理	-10.8982
無病	-10.8982
應有	-10.8983
槌	-10.8983
眉毛	-10.8983
深信	-10.8987
▁波羅蜜多	-10.8987
靡不	-10.8989
隨心	-10.8992
色陰	-10.8993
釋義	-10.8994
此五	-10.8997
魔事	-10.8999
何時	-10.9002
品云	-10.9002
度生	-10.9004
清淨故一切智智清淨	-10.9004
柄	-10.9007
之流	-10.9008
一來	-10.9009
謨	-10.9012
脂	-10.9012
洎	-10.9012
能現	-10.9013
摩尼寶	-10.9019
人皆	-10.9023
經卷	-10.9023
貝	-10.9026
肆	-10.9028
而已	-10.9029
妄念	-10.9029
隅	-10.903
二名	-10.9031
為佛	-10.9032
▁進	-10.9033
便能	-10.9033
以是義故	-10.9034
證入	-10.9035
以一	-10.9036
為什麼	-10.9037
有一人	-10.9037
餓	-10.9039
天魔	-10.9041
隨處	-10.9042
剎利	-10.9043
鴻	-10.9045
轉輪聖王	-10.9048
完	-10.905
善男	-10.9052
苦聖諦	-10.9062
實義	-10.9063
叫	-10.9065
債	-10.9066
高下	-10.9066
▁頌	-10.9067
燃	-10.907
方名	-10.9074
滑	-10.9074
以拄杖	-10.9075
後人	-10.9076
儀軌	-10.9076
忿	-10.9078
攝論	-10.908
下三	-10.9082
未出	-10.9083
法忍	-10.9084
跨	-10.9084
上界	-10.9089
不亂	-10.9089
後明	-10.9094
若法	-10.9094
譬如有人	-10.9097
夢見	-10.9099
止息	-10.9101
謂由	-10.9102
所緣緣	-10.9107
面前	-10.9107
意處	-10.9111
何能	-10.9111
方可	-10.9112
之有	-10.9112
之日	-10.9113
成佛道	-10.9114
當生	-10.9115
昨	-10.9116
普賢菩薩	-10.9116
無諍	-10.9118
世法	-10.9118
本師	-10.9123
為說法	-10.9124
拒	-10.9127
祠	-10.9127
一般	-10.9129
無生滅	-10.9131
不忍	-10.9131
此諸	-10.9131
作如是說	-10.9133
轉依	-10.9133
火宅	-10.9137
作麼生是	-10.9137
作大	-10.9138
來也	-10.9141
園林	-10.9141
此定	-10.9143
諸善	-10.9144
覿面	-10.9146
俱非	-10.9148
轍	-10.9149
菩薩言	-10.9149
列名	-10.9153
知者	-10.9157
是苦	-10.9157
或可	-10.9158
正眼	-10.9158
效	-10.916
自此	-10.9162
生身	-10.9168
風雨	-10.9169
後得	-10.917
▁二明	-10.9171
造業	-10.9171
言教	-10.9172
後如何	-10.9177
祀	-10.9178
譯曰	-10.918
初問	-10.92
口中	-10.9203
誰是	-10.9205
勝處	-10.9205
壑	-10.9206
釋之	-10.9207
因者	-10.9212
不虗	-10.9212
四重	-10.9212
引發	-10.9214
正顯	-10.9215
牟	-10.9216
字也	-10.9216
不見有	-10.9219
總明	-10.922
公曰	-10.9226
初發心	-10.9227
庫	-10.9231
羸	-10.9235
有其	-10.9239
常見	-10.9243
菩薩戒	-10.9244
髑髏	-10.9245
有學	-10.9245
微塵數	-10.9245
為諸	-10.9245
義同	-10.9246
得其	-10.9247
不昧	-10.9253
或曰	-10.9254
結界	-10.9256
此句	-10.9257
無極	-10.9261
聖眾	-10.9262
諸佛子	-10.9264
有言	-10.9265
貨	-10.9268
江南	-10.9271
預流	-10.9272
以至	-10.9272
果也	-10.9274
厄	-10.9275
不相違	-10.9277
亦不能	-10.9278
不少	-10.9282
何妨	-10.929
南北	-10.929
自謂	-10.9293
自說	-10.9294
於世間	-10.9296
是比丘	-10.9298
吸	-10.9299
提婆	-10.9299
袖	-10.9303
捨身	-10.9303
注云	-10.9303
波夜提	-10.9303
婬欲	-10.9308
迷惑	-10.9308
其文	-10.931
煎	-10.931
示寂	-10.9311
▁海	-10.9311
為令	-10.9313
于時	-10.9318
几	-10.9318
為此	-10.9321
兜	-10.9323
入山	-10.9323
牆	-10.9325
為顯	-10.9329
集諦	-10.933
勝劣	-10.9331
眼處	-10.9332
懇	-10.9333
十二年	-10.9335
沾	-10.9337
度無極	-10.9339
合成	-10.934
請益	-10.9341
堯	-10.9344
聽聞	-10.9344
諸苦	-10.9347
非唯	-10.935
百歲	-10.9351
必定	-10.9351
三根	-10.9352
即生	-10.9353
若諸菩薩	-10.9358
利生	-10.936
銕	-10.9363
肇	-10.9366
大捨	-10.9367
之異	-10.9368
融通	-10.9369
巴	-10.9371
平地	-10.9371
▁如是我聞	-10.9372
自家	-10.9373
熱惱	-10.9373
三塗	-10.9378
▁漢	-10.9381
有頂	-10.9382
八者	-10.9384
浩	-10.9387
它	-10.9389
門者	-10.9389
故經云	-10.9395
為道	-10.9396
已後	-10.9402
一切種	-10.9402
庸	-10.9403
厭離	-10.9406
斷見	-10.9406
聲聞乘	-10.9407
見得	-10.9408
同居	-10.9408
至于	-10.9408
無量眾生	-10.9413
釘	-10.9415
行願	-10.9415
憂惱	-10.9415
後釋	-10.9416
▁譬如	-10.9417
皆應	-10.9417
其數	-10.9418
陰陽	-10.9421
寶塔	-10.9425
▁報	-10.9426
狐	-10.9427
水火	-10.9427
定有	-10.9434
▁命	-10.9435
說文	-10.9435
螺	-10.9441
死後	-10.9443
鬚	-10.9444
邁	-10.9445
偃	-10.9446
▁大乘	-10.9447
本空	-10.9448
無益	-10.9448
前五	-10.9452
迫	-10.9453
無滅	-10.9454
安心	-10.9454
醯	-10.9456
徃	-10.9456
之前	-10.9457
後際	-10.9459
摸	-10.9463
拾	-10.9466
第三句	-10.9466
擁	-10.9467
其言	-10.947
軸	-10.9471
章句	-10.9471
第二句	-10.9472
別說	-10.9475
貯	-10.9475
業識	-10.9476
阿誰	-10.9479
後時	-10.948
信樂	-10.9482
臻	-10.9482
義理	-10.9483
惡見	-10.9487
甚深般若波羅蜜多	-10.9488
二反	-10.9494
▁動	-10.9494
爭奈	-10.9496
介	-10.9499
結戒	-10.9502
一物	-10.9504
廣如	-10.9505
此翻	-10.9508
分付	-10.9508
人心	-10.9512
論師	-10.9515
甫	-10.9516
能依	-10.9517
法說	-10.9519
凶	-10.9519
風流	-10.9519
無生忍	-10.952
懃	-10.952
殆	-10.952
僅	-10.952
所說法	-10.9521
具壽	-10.9525
語錄	-10.9527
一一皆	-10.9528
▁罪	-10.9531
勝佛	-10.9531
香華	-10.9533
銜	-10.9535
便生	-10.9536
隨宜	-10.9537
預流果	-10.9539
禪那	-10.9545
筋	-10.9548
之罪	-10.9549
不生滅	-10.9549
是大	-10.9549
無分別智	-10.955
▁是時	-10.9551
▁議	-10.9555
凍	-10.9562
時時	-10.9562
州云	-10.9562
所發	-10.9565
從是	-10.9568
無所有處	-10.9569
五道	-10.9569
復生	-10.9575
睹	-10.9577
甜	-10.9577
既非	-10.9583
墮落	-10.9583
依前	-10.9586
im	-10.9588
▁品	-10.959
若比丘尼	-10.9591
輿	-10.9592
搜	-10.9596
此初也	-10.9596
生彼	-10.9598
得出	-10.9599
跢	-10.96
犯者	-10.9601
恁	-10.9605
菩薩南無	-10.9607
俗人	-10.9608
中品	-10.9609
之子	-10.961
生信	-10.9617
▁失	-10.9618
等持	-10.9624
應與	-10.963
即不	-10.9632
未了	-10.9632
諸識	-10.9633
大空	-10.9633
皆具	-10.9633
用也	-10.9634
訣	-10.9634
威神	-10.9638
領解	-10.9638
慈氏	-10.9638
等是	-10.964
東山	-10.9642
佛殿	-10.9642
僧尼	-10.9643
有心	-10.9643
芝	-10.9644
五句	-10.9644
帳	-10.9646
悉知	-10.9648
伽羅	-10.9652
得阿耨多羅三藐三菩提	-10.9653
斜	-10.9653
住世	-10.9655
草鞋	-10.9655
▁小參	-10.9656
飲酒	-10.9659
如來所	-10.966
天中	-10.9662
乃至廣說	-10.9667
巖頭	-10.9669
汎	-10.9672
種智	-10.9672
為真	-10.9673
千聖	-10.9673
四十二	-10.9673
若從	-10.9674
曼拏羅	-10.968
五部	-10.9681
此上	-10.9682
▁種種	-10.9683
投子	-10.9684
所變	-10.9693
識者	-10.9695
於如來	-10.9697
餘皆	-10.9698
剎海	-10.9701
自得	-10.9702
諸苾芻	-10.9706
淨業	-10.9706
肉眼	-10.9706
十門	-10.9707
尊貴	-10.9711
老宿	-10.9711
未明	-10.9712
<	-10.9715
:>	-10.9715
六句	-10.9717
㵎	-10.9718
外人	-10.9719
總標	-10.9719
大丈夫	-10.9721
忉利天	-10.9722
不開	-10.9722
告曰	-10.9723
苗	-10.9724
▁神	-10.9727
應化	-10.9728
枯木	-10.973
空處	-10.9731
不至	-10.9738
國中	-10.974
棺	-10.9741
入滅	-10.9742
一面	-10.9746
汙	-10.9747
四緣	-10.9748
覲	-10.9748
彼處	-10.9749
異者	-10.9753
措	-10.9757
鈎	-10.9757
方成	-10.9757
日出	-10.9762
下二	-10.9763
▁何是	-10.9764
或現	-10.9766
初總	-10.9769
阻	-10.9769
高聲	-10.9772
故成	-10.9778
獼猴	-10.978
蘆	-10.9782
殷	-10.9783
為善	-10.9787
▁劫	-10.9787
巳得	-10.9789
始知	-10.9789
丑	-10.979
具三	-10.979
歎曰	-10.9791
上首	-10.9791
『	-10.9792
知一切法	-10.9793
翻譯	-10.9793
一邊	-10.9807
欝	-10.9807
豁然	-10.9808
三十四	-10.981
一見	-10.981
請佛	-10.9813
空觀	-10.9813
擇滅	-10.9814
薩婆若	-10.9814
鬪諍	-10.9815
三十三	-10.9815
前云	-10.9816
積聚	-10.9816
說名為	-10.9817
閻	-10.9818
非餘	-10.9819
眾生界	-10.9825
飢渴	-10.9825
炤	-10.9827
諸魔	-10.9829
食肉	-10.9833
撞	-10.9836
自分	-10.9837
二事	-10.984
不當	-10.9842
屎	-10.9842
果者	-10.9843
見彼	-10.9846
有別	-10.9846
▁塵	-10.9854
不有	-10.9859
佛在	-10.9859
五事	-10.986
到來	-10.9862
經部	-10.9862
離染	-10.9867
當知是	-10.9867
▁上堂云	-10.9868
不止	-10.9872
外空	-10.9876
萬劫	-10.9879
又見	-10.988
斷絕	-10.9886
薩婆	-10.9889
倘	-10.9889
巍巍	-10.9897
漁	-10.9899
剝	-10.9901
是什麼	-10.9903
大笑	-10.9904
大雲	-10.9906
枝葉	-10.9907
親友	-10.991
汝若	-10.9913
共住	-10.9913
不攝	-10.9914
告言	-10.9922
淨法	-10.993
奉持	-10.9934
為義	-10.9936
般若波羅	-10.9936
釋論	-10.9938
佛乘	-10.9938
▁壞	-10.994
且置	-10.994
傑	-10.994
觧	-10.994
漂	-10.9942
只為	-10.9943
穩	-10.9945
文二	-10.9946
而知	-10.9947
▁僧曰	-10.9948
普門	-10.9952
婢	-10.9956
隱顯	-10.9956
三昧耶	-10.9957
無根	-10.9958
後學	-10.996
云何菩薩	-10.9962
得涅槃	-10.9963
若聞	-10.9964
窗	-10.9964
見色	-10.9966
裝	-10.9968
三分	-10.9969
則得	-10.9971
號曰	-10.9971
鴈	-10.9976
六月	-10.9977
朔	-10.9977
初果	-10.9978
妙明	-10.9978
智論	-10.9987
劫中	-10.9987
彼論	-10.9988
智斷	-10.9989
四依	-10.9991
形像	-10.9992
名聞	-10.9992
鍊	-10.9996
悟道	-10.9996
識心	-10.9996
若生	-10.9998
〡	-11.0011
謂是	-11.0013
善哉善哉	-11.0015
起於	-11.0019
大菩提	-11.0021
僻	-11.0023
觀此	-11.0027
通於	-11.0033
又於	-11.0038
為先	-11.0038
相隨	-11.0039
絃	-11.0039
杵	-11.0042
陛下	-11.0043
又言	-11.0044
明珠	-11.0044
七年	-11.0047
化為	-11.0047
佛告阿難	-11.0047
一義	-11.0049
薩埵	-11.0053
綺	-11.0054
內有	-11.006
叩	-11.0066
沸	-11.0067
無違	-11.0067
道路	-11.0071
寐	-11.0072
當陽	-11.0072
俱起	-11.0073
▁可得	-11.0073
則不然	-11.0078
有十種	-11.0083
副	-11.0083
三相	-11.0084
▁初釋	-11.0085
何者是	-11.0088
淨信	-11.0088
▁執	-11.0089
我已	-11.0095
叉手	-11.0097
如是說	-11.0097
禰	-11.0103
別名	-11.0106
瞻仰	-11.0107
偷蘭遮	-11.0113
穆	-11.0113
禪者	-11.0114
初約	-11.0115
(〔	-11.0115
五逆	-11.0117
▁悲	-11.0117
喫飯	-11.0118
用之	-11.0119
員	-11.0119
能感	-11.012
豈能	-11.0121
不安	-11.0122
四神足	-11.0125
悲心	-11.0128
身口意	-11.013
彼說	-11.013
▁主	-11.013
爾所	-11.0135
為果	-11.0135
▁切法	-11.0136
劈	-11.0136
莫是	-11.0137
也未	-11.0144
令入	-11.0144
雖未	-11.0146
退失	-11.0146
有見	-11.0147
為證	-11.0149
阿羅	-11.0153
如是乃至	-11.0155
諸緣	-11.0155
四義	-11.016
理實	-11.016
諸部	-11.0161
無上道	-11.0166
攝故	-11.0166
集眾	-11.0167
夾	-11.017
所欲	-11.0172
在後	-11.0177
了因	-11.0178
又二	-11.0179
二部	-11.0185
祇如	-11.0191
如空	-11.0191
令眾生	-11.0192
得益	-11.0194
㗚	-11.0194
▁第一	-11.0195
自生	-11.0195
餘法	-11.0198
真金	-11.0199
將何	-11.0203
剪	-11.0204
皆云	-11.0205
卵	-11.0214
彥	-11.0216
明之	-11.0218
▁手	-11.0219
釋迦老子	-11.0222
形色	-11.0222
有我	-11.0223
斯則	-11.0223
眼目	-11.0223
善來	-11.0224
諸佛法	-11.0228
奈何	-11.0236
色無色界	-11.0239
之則	-11.024
所感	-11.0242
有罪	-11.0244
本分	-11.0246
餘二	-11.0248
釋中	-11.0251
聻	-11.0252
愚人	-11.0254
不應觀	-11.0257
乙	-11.0259
墮地獄	-11.0262
中有三	-11.0262
大夫	-11.0263
從他	-11.0267
尖	-11.0269
禾	-11.0269
進修	-11.0269
人情	-11.027
勝故	-11.0271
端的	-11.0273
因地	-11.0273
猶在	-11.0277
彼經	-11.0278
五品	-11.0279
一條	-11.0283
湧	-11.0284
誰為	-11.0289
上中下	-11.029
自稱	-11.0292
開發	-11.0295
性命	-11.0296
耽	-11.0298
欲知	-11.0299
躡	-11.0299
願我	-11.03
為五	-11.03
猪	-11.0301
燈明	-11.0301
無私	-11.0301
懈	-11.0303
修慧	-11.0303
相應法	-11.0307
修行者	-11.0309
染法	-11.0312
異熟果	-11.0313
要且	-11.0314
相攝	-11.0314
伎樂	-11.0315
經二卷	-11.0315
千佛	-11.0318
不破	-11.0319
▁羅蜜	-11.0324
鑄	-11.0327
一期	-11.0329
稻	-11.033
所治	-11.033
音義	-11.0332
三合	-11.0332
世世	-11.0338
名利	-11.0338
聞聲	-11.0339
大菩薩	-11.0341
境故	-11.0344
起滅	-11.0344
明淨	-11.0344
諸趣	-11.0344
吉羅	-11.0352
咽	-11.0355
䟦	-11.0357
以智	-11.0358
煮	-11.0358
生因	-11.0359
觀身	-11.0359
一切法空	-11.036
佛弟子	-11.036
前際	-11.036
叟	-11.0363
心起	-11.0363
▁猶如	-11.0365
為求	-11.0366
無所住	-11.0367
達摩	-11.0368
受記	-11.0369
律中	-11.0369
無動	-11.037
鋪	-11.0371
如日	-11.0377
月光	-11.0377
工巧	-11.0378
▁切眾生	-11.0378
惡口	-11.0382
普現	-11.0384
有對	-11.0384
夜半	-11.0387
3	-11.0387
儉	-11.0387
見處	-11.0389
憤	-11.0391
龍門	-11.0392
恰	-11.0397
□□	-11.0397
▁疏云	-11.04
不勞	-11.0404
是處	-11.0404
傳法	-11.0406
淪	-11.0407
喃	-11.0408
亦作	-11.0412
綴	-11.0416
本尊	-11.0418
能障	-11.0419
曠野	-11.042
別顯	-11.042
唯在	-11.042
依報	-11.0422
方便善巧	-11.0425
豫	-11.0427
暉	-11.0429
六通	-11.043
之樂	-11.043
心心	-11.0435
圓悟	-11.0436
知法	-11.0436
捕	-11.044
中陰	-11.0443
希望	-11.0443
毒蛇	-11.0444
未離	-11.0445
觀照	-11.0445
▁解脫	-11.0446
從初	-11.0449
是如來	-11.045
於理	-11.045
既得	-11.045
以有	-11.0453
來至	-11.0453
今為	-11.0456
便見	-11.0461
天親	-11.0461
必當	-11.0462
貪瞋癡	-11.0462
演曰	-11.0466
第四禪	-11.0466
王所	-11.0469
得戒	-11.047
因僧問	-11.047
別立	-11.0473
一僧	-11.0473
霄	-11.0476
而白佛言	-11.0476
▁諸法	-11.0476
復舉	-11.0477
竅	-11.0478
離故	-11.0479
三十一	-11.048
材	-11.0483
令知	-11.0483
放過	-11.0484
於大	-11.049
堪任	-11.049
嚼	-11.0491
闢	-11.0492
之苦	-11.0492
樂欲	-11.0493
或於	-11.0493
非道	-11.0494
然燈	-11.0495
讖	-11.0496
三十五	-11.0496
▁母	-11.0498
恒河	-11.0499
左手	-11.0499
妄執	-11.0499
形相	-11.0502
成實	-11.0503
▁第五	-11.0505
滴	-11.0508
化城	-11.0508
微笑	-11.0509
先後	-11.051
唐云	-11.051
我若	-11.051
栗	-11.0512
大德僧聽	-11.0512
秘密	-11.0521
皆如	-11.0521
若善男子	-11.0526
七遍	-11.0526
亦不可	-11.0528
能變	-11.053
空性	-11.0533
安得	-11.0535
復白佛言	-11.0535
眾緣	-11.0536
破僧	-11.0536
復何	-11.0538
有疑	-11.054
四正斷	-11.0541
其國	-11.0541
多分	-11.0544
則成	-11.0548
膠	-11.0553
誅	-11.0554
往往	-11.0556
毒藥	-11.0557
得之	-11.0558
彼等	-11.0559
而不能	-11.0559
禮敬	-11.0559
佛前	-11.056
填	-11.0562
二音	-11.0563
江西	-11.0569
明矣	-11.0571
應無	-11.0572
殺害	-11.0573
一佛	-11.0574
隨一	-11.0575
相應故	-11.0579
知事	-11.0583
善住	-11.0584
其道	-11.0586
陁	-11.0586
終無	-11.0589
所歸	-11.0589
難知	-11.0589
解者	-11.0595
覺了	-11.0597
無量劫	-11.06
末法	-11.0602
因也	-11.0603
八百	-11.0606
今之	-11.0607
離此	-11.0607
花開	-11.0608
毋	-11.0608
▁終	-11.061
發露	-11.0611
享	-11.0612
類智	-11.0615
二三	-11.0615
欲樂	-11.0617
不涉	-11.0617
初三	-11.0624
此皆	-11.0625
一年	-11.0627
同歸	-11.0627
之見	-11.0636
過於	-11.0636
末那	-11.0637
由前	-11.0642
梵云	-11.0647
云何得	-11.0647
請和尚	-11.0649
噫	-11.065
攻	-11.065
惱亂	-11.0651
舍那	-11.0651
取其	-11.0652
▁無有	-11.0654
匹	-11.0654
佛像	-11.0655
五行	-11.0657
應是	-11.0658
韋	-11.0662
二月	-11.0662
是身	-11.0662
即當	-11.0664
非彼	-11.0665
無失	-11.067
戒律	-11.0672
不正	-11.0674
法堂	-11.0675
遐	-11.0675
五月	-11.0676
喻如	-11.0677
不能知	-11.0679
去聲	-11.0681
心外	-11.0682
亦無所	-11.0683
有體	-11.0684
食時	-11.0685
攝一切	-11.0686
千歲	-11.0686
同名	-11.0688
明佛	-11.0689
彌勒菩薩	-11.0691
膩	-11.0693
盡智	-11.0693
手中	-11.0694
▁悟	-11.0695
變為	-11.0699
宗師	-11.0699
禱	-11.0701
紛	-11.0702
開顯	-11.0702
次句	-11.0703
為有	-11.0707
令一切眾生	-11.0708
筏	-11.071
釋也	-11.071
食之	-11.0722
未成	-11.0722
出三界	-11.0723
育王	-11.0723
無量壽	-11.0723
所不能	-11.0726
抳	-11.0729
為師	-11.0733
十惡	-11.0733
假說	-11.0735
下句	-11.0735
見聞覺知	-11.0736
丸	-11.0737
僧寶	-11.074
觀自在	-11.074
道也	-11.074
咨	-11.0741
二果	-11.0742
闍梨	-11.0743
不但	-11.0743
有分	-11.0745
久之	-11.0748
戾	-11.0748
釋提桓因	-11.075
深廣	-11.075
▁類	-11.0751
湘	-11.0752
非異	-11.0752
當說	-11.0753
復更	-11.0756
稽	-11.0757
寂照	-11.076
離一切	-11.076
房舍	-11.0762
苦海	-11.0762
受法	-11.0766
諸教	-11.0767
言我	-11.077
嫉妬	-11.0771
坐臥	-11.078
童女	-11.0783
思念	-11.0789
愆	-11.0791
師子座	-11.0793
是箇	-11.0794
粉	-11.0794
見解	-11.0797
無願解脫門	-11.0805
若道	-11.0806
如大	-11.0806
親見	-11.0807
叱	-11.0808
犯重	-11.0809
不轉	-11.0812
未幾	-11.0815
之大	-11.0816
▁習	-11.082
不屬	-11.082
遏	-11.0821
二地	-11.0821
隨煩惱	-11.0822
不能自	-11.0825
頓教	-11.0825
昔有	-11.0826
緇	-11.0828
應須	-11.0831
生佛	-11.0831
▁古	-11.0833
玩	-11.0834
五卷	-11.0837
兩頭	-11.0839
惡法	-11.0839
金剛經	-11.0839
為境	-11.084
教門	-11.084
無一	-11.0841
如次	-11.0842
是名菩薩	-11.0843
幹	-11.0847
▁男子	-11.085
勝鬘	-11.085
纖	-11.0852
愛欲	-11.0854
佛出世	-11.0856
護國	-11.0862
而未	-11.0864
阿毘曇	-11.0868
生善	-11.087
未來世	-11.0877
薦得	-11.0878
勸修	-11.088
當下	-11.0881
不畏	-11.0887
金光明	-11.0889
如何是佛	-11.089
插	-11.0893
釋文	-11.0898
即應	-11.0898
罪業	-11.0898
慳貪	-11.0904
不緣	-11.0904
得無	-11.0907
而現	-11.091
蜂	-11.0911
坐道場	-11.0912
善不善	-11.0918
河沙	-11.0918
何物	-11.0919
所入	-11.0919
佛意	-11.092
稱歎	-11.0921
不被	-11.0924
述曰	-11.0926
金陵	-11.0927
唯說	-11.0927
不悟	-11.0927
聚集	-11.0931
辟	-11.0931
周匝	-11.0931
婁	-11.0933
忿怒	-11.0934
楊岐	-11.0935
悉地	-11.0936
剩	-11.0938
無量功德	-11.0938
大會	-11.0938
大劫	-11.0939
識陰	-11.094
坦	-11.0941
蓬	-11.0942
猗	-11.0942
法行	-11.0949
受想行識	-11.0949
一實	-11.0951
助道	-11.0951
亦空	-11.0951
龍象	-11.0953
四行	-11.0956
我我所	-11.0957
一性	-11.096
他心	-11.096
賈	-11.0962
踊	-11.0962
昨夜	-11.0966
身語	-11.0966
九界	-11.0971
十戒	-11.0971
視之	-11.0972
己身	-11.0973
品第十	-11.0973
實非	-11.0976
療	-11.0978
非相	-11.0978
諮	-11.098
不學	-11.098
諸法實相	-11.0981
嗜	-11.0981
二教	-11.0983
=	-11.0984
等相	-11.0985
到彼岸	-11.0986
論曰	-11.0987
觀想	-11.0987
斷故	-11.0989
遁	-11.099
不繫	-11.0991
徒眾	-11.0992
巳去	-11.0993
即真	-11.0993
以偈	-11.0993
入地獄	-11.0994
▁夜	-11.0994
妃	-11.0995
本源	-11.0995
是汝	-11.0998
依教	-11.0999
酸	-11.1003
逆順	-11.1003
兩舌	-11.1005
沙彌尼	-11.1006
信者	-11.1006
第六識	-11.1006
首楞嚴	-11.1008
福慧	-11.1017
前明	-11.1017
眼觸	-11.1019
悶	-11.1023
世界中	-11.1029
不遷	-11.1031
十遍處	-11.1031
不可盡	-11.1032
百千萬億	-11.1033
香嚴	-11.1033
團	-11.1034
暑	-11.1037
佛界	-11.1037
潮	-11.1038
心意	-11.1041
供養佛	-11.1043
其家	-11.1043
佛以	-11.1047
誇	-11.1047
五眾	-11.1048
長慶	-11.1051
如何得	-11.1054
等皆	-11.1055
雀	-11.1055
上有	-11.1056
無間道	-11.1058
勤苦	-11.1067
作惡	-11.1069
旛	-11.1069
無名	-11.1069
四德	-11.1071
亦不見	-11.1072
其上	-11.1072
生淨土	-11.1076
事也	-11.1077
一約	-11.1077
俱無	-11.1081
四部	-11.1081
無貪	-11.1082
隨念	-11.1083
無用	-11.1085
以諸	-11.1085
寶華	-11.1087
字函	-11.1088
人說	-11.1094
漚	-11.1096
不喜	-11.1097
刪	-11.11
所熏	-11.11
沙門釋	-11.1101
利鈍	-11.1103
其理	-11.1107
趣入	-11.1112
四無礙解	-11.1114
來意	-11.1116
麟	-11.1117
繫念	-11.1118
儻	-11.1122
即說	-11.1123
寒暑	-11.1124
性德	-11.1124
文也	-11.1125
天然	-11.1125
金輪	-11.1126
下約	-11.1126
誣	-11.1126
4	-11.1127
禹	-11.113
逢人	-11.1131
訥	-11.1135
詢	-11.1135
無忘失法	-11.1136
悉令	-11.1136
應時	-11.1138
根境	-11.1139
先有	-11.1139
法無	-11.114
逍遙	-11.1144
威光	-11.1145
後得智	-11.1148
為喻	-11.1149
父王	-11.115
上妙	-11.1153
揖	-11.1153
炷	-11.1155
天眾	-11.1156
應受	-11.1156
必不	-11.1158
c	-11.1161
皆成	-11.1164
中生	-11.1165
彼天	-11.1166
藝	-11.1166
鍼	-11.1166
▁若有	-11.117
其子	-11.1172
三聖	-11.1173
解行	-11.1177
依彼	-11.118
勑	-11.118
逗	-11.1187
約教	-11.1189
不善業	-11.1192
栖	-11.1193
超過	-11.1196
觀其	-11.1197
第四句	-11.1199
佛答	-11.12
嚧	-11.1202
▁於是	-11.1203
而彼	-11.1206
現相	-11.1208
塵垢	-11.1208
笑曰	-11.1209
起行	-11.1209
起時	-11.1209
一異	-11.1211
叅	-11.1211
長時	-11.1212
稱名	-11.1212
體故	-11.1213
舊云	-11.1215
三際	-11.1219
雲巖	-11.1221
其形	-11.1223
餐	-11.1224
上上	-11.1225
彼彼	-11.123
熙	-11.1237
祖云	-11.1239
而論	-11.124
有無量	-11.124
令諸	-11.1241
而退	-11.1243
經律	-11.1244
吾今	-11.1245
▁三結	-11.1246
死者	-11.1247
令生	-11.1248
梯	-11.1255
但能	-11.1256
無聞	-11.1259
三釋	-11.126
頂門	-11.1263
如論	-11.1264
猿	-11.1264
以是故	-11.1265
如虗空	-11.1265
施者	-11.1265
塗香	-11.1265
三十棒	-11.1269
百劫	-11.1269
舉一	-11.127
然彼	-11.1272
起信	-11.1274
但見	-11.1277
自下	-11.1278
但得	-11.1281
二依	-11.1282
▁伽	-11.1282
五日	-11.1282
佐	-11.1285
智故	-11.1287
宛	-11.1287
與你	-11.1287
四十九	-11.1289
斷疑	-11.1291
士夫	-11.1293
亦無有	-11.13
収	-11.1301
及彼	-11.1304
悲智	-11.1304
糧	-11.1304
撒	-11.1305
猛利	-11.1306
眾生故	-11.1307
洗浴	-11.1308
下第二	-11.131
無力	-11.1312
佛經	-11.1313
陋	-11.1314
墮於	-11.1316
萬德	-11.1318
滅者	-11.1322
三途	-11.1324
說經	-11.1326
大迦葉	-11.1326
精神	-11.1326
有九	-11.1331
▁若人	-11.1332
傲	-11.1332
為能	-11.134
彼國	-11.1341
資生	-11.1343
▁忍	-11.1343
計我	-11.1347
善人	-11.1349
得清淨	-11.1349
名無	-11.135
朋	-11.135
一如	-11.135
矜	-11.1351
作何	-11.1352
終身	-11.1353
蘭若	-11.1357
僧無語	-11.1358
▁經曰	-11.1359
寂光	-11.1362
也須	-11.1364
全提	-11.1365
經意	-11.1365
本質	-11.1367
所著	-11.1367
每日	-11.137
眚	-11.1373
隙	-11.1373
永嘉	-11.1374
▁箋云	-11.1374
語業	-11.1375
陀那	-11.1378
剃	-11.1379
一棒	-11.138
淨慈	-11.1383
生歡喜	-11.1384
▁菩薩摩訶薩	-11.1386
▁伏	-11.1388
上句	-11.1389
▁護	-11.1391
▁趣	-11.1392
有過	-11.1392
下引	-11.1393
事者	-11.1394
若取	-11.1394
次說	-11.1395
〈	-11.1396
〉	-11.1396
一枝	-11.1398
要須	-11.14
然其	-11.1401
令諸眾生	-11.1403
衢	-11.1406
慣	-11.1407
是空	-11.1409
耐	-11.141
煑	-11.141
到處	-11.141
還會麼	-11.1411
行之	-11.1411
正知	-11.1412
維摩詰	-11.1415
罪過	-11.1418
佛及	-11.1419
所以然者	-11.1421
所念	-11.1421
色界繫	-11.1421
天帝	-11.1422
星宿	-11.1423
六地	-11.1423
極成	-11.1426
▁順	-11.1429
住者	-11.1432
現起	-11.1433
二處	-11.1433
其地	-11.1434
空解脫門	-11.1436
偉	-11.1437
第二明	-11.1439
乃可	-11.1439
結使	-11.1439
勸請	-11.1441
持此	-11.1443
出沒	-11.1443
能與	-11.1448
而實	-11.1448
咒	-11.1451
芥	-11.1452
以喻	-11.1452
此位	-11.1454
聞慧	-11.1455
人不	-11.1457
相傳	-11.1457
古人道	-11.1457
初二句	-11.1461
中國	-11.1461
十里	-11.1462
便為	-11.1463
心印	-11.1464
此時	-11.1468
金剛手	-11.1469
憙	-11.1469
摘	-11.1469
樵	-11.1469
向前	-11.147
將此	-11.147
有甚	-11.147
無主	-11.147
是所	-11.1471
八月	-11.1473
讚佛	-11.1473
正報	-11.1474
滅道	-11.1474
律文	-11.1477
報應	-11.1477
▁祖	-11.1478
悉得	-11.1479
努	-11.1482
譯經	-11.1482
擒	-11.1483
孕	-11.1483
爰	-11.1483
於色	-11.1484
之過	-11.1485
何等為十	-11.1487
確	-11.1488
今依	-11.1491
諸聲聞	-11.1491
箇什麼	-11.1491
浣	-11.1492
恬	-11.1497
道吾	-11.15
結前	-11.1502
日輪	-11.1503
揵	-11.1505
法雲	-11.1506
若自	-11.1508
如海	-11.1508
阿彌陀	-11.1511
國人	-11.1513
為王	-11.1513
譚	-11.1515
只得	-11.1519
死屍	-11.1519
欄	-11.1524
理智	-11.1527
在什麼處	-11.1528
邪行	-11.1529
心常	-11.153
諸色	-11.1535
中下	-11.1538
正好	-11.1539
料	-11.154
同行	-11.1541
今世	-11.1546
而取	-11.1546
之緣	-11.1546
其後	-11.1547
放大光明	-11.1547
互為	-11.1548
報曰	-11.155
正信	-11.1551
普遍	-11.1551
及其	-11.1553
從緣	-11.1554
彼法	-11.1557
阿僧祇劫	-11.1559
成辦	-11.1562
莎訶	-11.1567
東南	-11.1569
語者	-11.1572
無諸	-11.1573
彼有	-11.1574
利物	-11.1575
踞	-11.1575
求佛	-11.1575
見我	-11.1576
三處	-11.1579
子孫	-11.158
妙智	-11.1583
千二百	-11.1584
三聚	-11.1585
若行	-11.1589
波旬	-11.1593
出門	-11.1594
彼云	-11.1597
邊事	-11.1601
身者	-11.1602
又說	-11.1603
一番	-11.1603
有人言	-11.1603
開堂	-11.1605
寔	-11.1608
犯罪	-11.1609
到這裏	-11.1615
膺	-11.1616
皆當	-11.1617
旗	-11.1617
之眾	-11.1618
受食	-11.1619
上二	-11.162
進退	-11.1624
能造	-11.1626
行施	-11.163
海水	-11.1631
又解	-11.1631
襲	-11.1631
昆	-11.1633
翻為	-11.1634
難解	-11.1635
沫	-11.1636
檀波羅蜜	-11.1637
一則	-11.1641
少林	-11.1645
雜亂	-11.1647
寶珠	-11.1648
尅	-11.165
僧伽婆尸沙	-11.165
具說	-11.1652
傳云	-11.1653
金山	-11.1654
身根	-11.1654
即見	-11.1658
開導	-11.166
瓜	-11.1663
七佛	-11.1668
萬億	-11.167
品類	-11.1672
籬	-11.1673
一路	-11.1675
淨故	-11.1678
欲使	-11.1683
為復	-11.1683
諸漏	-11.1684
勿令	-11.1688
二見	-11.1689
世之	-11.1695
芥子	-11.1698
上根	-11.1701
煉	-11.1701
之極	-11.1704
長者子	-11.1704
象王	-11.1705
架	-11.1706
無物	-11.1713
人來	-11.1714
得成就	-11.1714
宇宙	-11.1715
陁羅尼	-11.1716
苦受	-11.1719
論釋	-11.1719
觀智	-11.1719
業力	-11.172
六群比丘	-11.1726
五通	-11.1726
溢	-11.1726
所能	-11.1727
▁女	-11.1729
戒定慧	-11.1731
受業	-11.1731
皆非	-11.1733
從心	-11.1733
模	-11.1733
何由	-11.1734
說法者	-11.1734
以佛	-11.1735
陀羅尼經	-11.1735
九年	-11.1736
毗盧	-11.1738
▁續	-11.1739
不輕	-11.1743
之由	-11.1747
俯	-11.1747
嶮	-11.1748
忽有	-11.1749
香花	-11.175
佛法僧	-11.175
殷勤	-11.1752
怯	-11.1753
携	-11.1753
隨其所	-11.1753
諸善根	-11.1755
或是	-11.1755
橛	-11.1757
今則	-11.1757
坊	-11.1758
挺	-11.1762
雖則	-11.1763
宗風	-11.1763
分為	-11.1771
無斷	-11.1775
烹	-11.1777
刊	-11.1777
同學	-11.1779
他日	-11.1782
真正	-11.1782
無功用	-11.1789
略舉	-11.1789
永無	-11.179
行於	-11.179
難云	-11.1791
僧亮曰	-11.1796
心淨	-11.1797
之要	-11.1798
必無	-11.1798
▁治	-11.1799
座主	-11.18
十月	-11.1802
上徒	-11.1806
增語	-11.1806
淨人	-11.1806
徵釋	-11.1807
執我	-11.1808
法無我	-11.181
痕	-11.181
件	-11.1815
豈不是	-11.1816
未到	-11.1817
住此	-11.1817
不因	-11.1817
猶豫	-11.1818
徙	-11.1819
第七識	-11.182
奮迅	-11.182
汝可	-11.1822
音樂	-11.1824
諸大菩薩	-11.1825
法雨	-11.1826
九者	-11.1826
一道	-11.183
制戒	-11.1833
三學	-11.1834
謂佛	-11.1836
相與	-11.1837
2	-11.1837
下二句	-11.1842
將去	-11.1847
四十八	-11.1848
i	-11.1849
異也	-11.1852
生法	-11.1853
▁達	-11.1856
於諸法	-11.1859
自地	-11.1859
五趣	-11.186
入此	-11.1862
廿	-11.1862
總攝	-11.1863
勃	-11.1867
家家	-11.1869
東土	-11.1869
為異	-11.187
斯陀含	-11.187
聽者	-11.1871
天寧	-11.1873
牒前	-11.1877
有智	-11.1877
二別	-11.1879
通名	-11.1881
丈六	-11.1882
亦名為	-11.1883
有能	-11.1886
無由	-11.1887
▁磨	-11.1887
皆不可得	-11.1887
如是一切	-11.189
墻	-11.189
辟支	-11.189
方所	-11.189
粒	-11.189
而轉	-11.1891
時分	-11.1892
一色	-11.1893
不順	-11.1894
一闡提	-11.1895
具戒	-11.1895
四時	-11.1896
觀佛	-11.19
惑亂	-11.19
閏	-11.19
捲	-11.1905
非如	-11.191
何別	-11.1912
曆	-11.1913
麁重	-11.1916
縱有	-11.1917
作佛事	-11.1918
唱言	-11.1919
菩提樹	-11.1919
已滅	-11.1923
癡人	-11.1924
征	-11.1924
八難	-11.1928
應用	-11.193
疋	-11.193
稀	-11.1931
特地	-11.1933
柏	-11.1934
實語	-11.1937
光明佛	-11.1941
未詳	-11.1941
鷲	-11.1941
流注	-11.1942
智光	-11.1944
剃髮	-11.1944
一境	-11.1945
恒住捨性	-11.1946
而求	-11.1946
其母	-11.1949
能熏	-11.1949
即如	-11.195
色法	-11.1953
於自	-11.1954
二因	-11.1963
我昔	-11.1964
言辭	-11.1965
緇素	-11.1969
▁照	-11.1971
業者	-11.1972
證知	-11.1973
絹	-11.1977
徹底	-11.1979
之位	-11.1981
一個	-11.1982
不存	-11.1982
古文	-11.1983
後結	-11.1984
即與	-11.1985
虔	-11.1985
▁論云	-11.1986
入城	-11.1987
f	-11.1987
普賢行	-11.199
暇	-11.199
能捨	-11.1991
伎倆	-11.1992
濃	-11.1992
嬰兒	-11.1993
行般若波羅蜜	-11.1996
空生	-11.1996
梓	-11.1997
惠施	-11.1998
先世	-11.1999
赫	-11.2001
不應住	-11.2004
而為說法	-11.2004
二答	-11.201
展轉相	-11.2011
於斯	-11.2011
洽	-11.2016
僧殘	-11.2017
門前	-11.2021
理性	-11.2022
五千	-11.2023
根本智	-11.2027
成滿	-11.203
三歸	-11.2032
苦果	-11.2034
遍照	-11.2035
調御	-11.2036
倦	-11.2039
布袋	-11.2042
山川	-11.2044
如上說	-11.2045
脣	-11.2045
要知	-11.2047
大義	-11.2048
禪師語錄卷	-11.205
釋氏	-11.2053
嫁	-11.2055
笛	-11.2055
瓦礫	-11.2055
妙理	-11.2056
拈拄杖	-11.2058
受陰	-11.206
亘	-11.2065
慇懃	-11.2065
旱	-11.2069
今生	-11.207
放光明	-11.2071
數量	-11.2073
四聖諦	-11.2073
隨增	-11.2073
歿	-11.2074
霑	-11.2074
尚無	-11.2078
之宗	-11.2092
執有	-11.2094
▁若波羅蜜多	-11.2094
拭	-11.2098
等無間緣	-11.21
法義	-11.2101
娑羅	-11.2103
證成	-11.2107
有差別	-11.2112
詎	-11.2113
色蘊	-11.2115
兜率天	-11.2118
泡	-11.2118
▁十二	-11.2119
何故不	-11.2119
不勝	-11.212
證果	-11.2121
一切人	-11.2121
修觀	-11.2122
能仁	-11.2124
印可	-11.2127
是善男子	-11.2131
彼土	-11.2135
陟	-11.2138
語云	-11.2139
相生	-11.214
其福	-11.2141
第十一	-11.2147
牛頭	-11.2148
妬	-11.215
象馬	-11.2151
有幾	-11.2151
為十	-11.2153
諸大眾	-11.2155
此道	-11.2155
秤	-11.2157
得脫	-11.2158
解脫者	-11.216
那箇	-11.2162
能修	-11.2163
佩	-11.2167
浸	-11.2167
希求	-11.2171
樂說	-11.2172
亦須	-11.2172
既知	-11.2174
▁彌	-11.2177
魅	-11.218
處也	-11.2181
儼	-11.2181
香氣	-11.2182
六趣	-11.2187
病苦	-11.2192
聞佛所說	-11.2192
耳識	-11.2193
誦呪	-11.2193
修因	-11.2194
慈明	-11.2195
方有	-11.2198
雖多	-11.2199
人見	-11.22
箇箇	-11.22
堂中	-11.2201
敦	-11.2202
。」「	-11.2205
浙	-11.2206
山門	-11.2209
態	-11.2212
二千	-11.2212
阿賴耶識	-11.2213
又是	-11.2218
有為無為	-11.2218
歡喜奉行	-11.2219
以理	-11.222
理也	-11.2224
滅除	-11.2225
萌	-11.2225
悉是	-11.2227
而見	-11.223
無漏法	-11.2231
逼迫	-11.2231
證真	-11.2232
三約	-11.2241
光中	-11.2241
彼所	-11.2242
▁堂	-11.2242
更相	-11.2243
性也	-11.2243
▁沙	-11.2244
求之	-11.2245
阿難陀	-11.2249
巷	-11.2251
所施	-11.2251
拖	-11.2256
00	-11.2257
縱廣	-11.226
一依	-11.2261
門庭	-11.2262
任持	-11.2264
損害	-11.2264
心識	-11.2267
法法	-11.2268
有德	-11.2269
無數劫	-11.2269
言其	-11.227
疏文	-11.2274
門云	-11.2274
真珠	-11.2276
第一卷	-11.2276
大同	-11.228
海印	-11.2281
一毫	-11.2285
而不知	-11.2287
顏色	-11.2289
解了	-11.229
隊	-11.2292
翻身	-11.2294
上之	-11.2294
無障	-11.2295
能了	-11.2297
下別	-11.2297
有佛性	-11.2299
神光	-11.2299
道法	-11.23
疾病	-11.2305
箋云	-11.2305
此呪	-11.2307
此智	-11.2308
向下	-11.2309
福業	-11.2313
善解	-11.2314
一音	-11.2315
謂若	-11.2315
分為二	-11.2316
初後	-11.2317
娛樂	-11.2319
當知是人	-11.232
隨應	-11.2324
聯	-11.2326
外國	-11.2326
盞	-11.2331
踈	-11.2331
常樂我淨	-11.2331
▁又問	-11.2331
不相離	-11.2335
既言	-11.2335
▁福	-11.2337
匡	-11.2339
在彼	-11.234
歸來	-11.2341
▁阿難	-11.2341
之始	-11.2344
不貪	-11.2345
持犯	-11.2346
校量	-11.2346
薄伽梵	-11.2346
矯	-11.2349
步步	-11.235
羅睺羅	-11.2354
浦	-11.2356
劫數	-11.2356
七卷	-11.2357
一場	-11.2357
捷	-11.236
於餘	-11.236
謂依	-11.2361
方始	-11.2364
不唯	-11.2366
斛	-11.2366
之辭	-11.2371
八聖道支	-11.2371
武帝	-11.2373
佛境界	-11.2376
者僧	-11.2379
應非	-11.2383
一步	-11.2383
禪宗	-11.2384
三地	-11.2386
未可	-11.2387
損減	-11.2387
藏身	-11.2387
為所	-11.2388
搏	-11.2391
稅	-11.2391
之具	-11.2395
農	-11.2399
常以	-11.2399
精明	-11.2401
好惡	-11.2403
令住	-11.2403
我者	-11.2403
觀門	-11.2406
砂	-11.2406
又彼	-11.2412
伎	-11.2415
▁昔	-11.2417
提婆達多	-11.2417
自古	-11.2418
教理	-11.2419
我欲	-11.2419
潑	-11.2422
定性	-11.2422
舍衛城	-11.2423
▁流	-11.2423
護摩	-11.2425
寶積	-11.2427
計度	-11.2427
貪瞋	-11.2427
不淨觀	-11.2428
侍郎	-11.2429
來世	-11.243
晏	-11.2432
所覆	-11.2433
只在	-11.2435
戈	-11.2441
澗	-11.2442
界中	-11.2442
丹霞	-11.2442
薩嚩	-11.2443
那由他	-11.2444
往彼	-11.2446
前世	-11.2447
文言	-11.2447
鄧	-11.2447
▁波羅蜜	-11.2447
偈言	-11.2447
稱佛	-11.2448
別人	-11.2449
為依	-11.2451
即佛	-11.2452
竿	-11.2452
舉僧問	-11.2453
生死涅槃	-11.2453
無邊際	-11.2455
佛慧	-11.2458
若諸	-11.2459
有實	-11.246
過去未來	-11.2466
猒	-11.2467
善修	-11.247
謂以	-11.2471
鹿苑	-11.2473
脇	-11.2474
禽	-11.2476
隻	-11.2479
三賢	-11.2481
貢	-11.2483
堪能	-11.2483
經中說	-11.2486
明鏡	-11.2489
山頂	-11.2491
佛菩提	-11.2495
是彼	-11.2497
緣者	-11.2498
久矣	-11.2498
無所不	-11.2498
三說	-11.2498
旃檀	-11.2498
教者	-11.2499
未悟	-11.2499
根源	-11.2501
當知此	-11.2502
主伴	-11.2504
如有	-11.2505
可畏	-11.2507
藏經	-11.251
而至	-11.2512
▁葉	-11.2514
於今	-11.2515
巳成	-11.2516
之聲	-11.2517
者何	-11.2517
泊	-11.2519
其父	-11.252
卷第四	-11.252
於三	-11.2522
九種	-11.2525
▁壽	-11.2525
前之	-11.2526
來去	-11.2526
彼時	-11.2526
福智	-11.2527
師資	-11.2529
五臺	-11.253
▁敬	-11.2531
會通	-11.2534
非因	-11.2535
直是	-11.2536
降魔	-11.2537
過量	-11.2539
為第一	-11.2542
位也	-11.2542
前來	-11.2543
嬈	-11.2547
翹	-11.2549
緊那羅	-11.2549
能解	-11.2549
若未	-11.2549
照明	-11.2556
▁輪	-11.2556
受請	-11.2556
無性自性空	-11.2557
大苦	-11.256
僕	-11.2561
等閒	-11.2563
王如來	-11.2563
澡	-11.2564
神通力	-11.2566
毗盧遮那	-11.2567
即從座起	-11.257
品第二十	-11.257
又何	-11.2577
聞其	-11.258
婆子	-11.2582
下正	-11.2583
傍生	-11.2586
無生無滅	-11.2587
提起	-11.2588
應觀	-11.2589
忘失	-11.2591
逮得	-11.2591
汾陽	-11.2592
佛日	-11.2596
十千	-11.26
而此	-11.26
定力	-11.26
普請	-11.2604
還復	-11.2604
乃知	-11.2604
推求	-11.2604
百八	-11.2605
此初	-11.2605
用故	-11.2606
於無	-11.2607
低頭	-11.2607
若就	-11.2608
則以	-11.2609
接引	-11.2611
始從	-11.2611
區	-11.2613
之初	-11.2613
自念	-11.2614
上三	-11.2615
念言	-11.2618
二行	-11.262
復為	-11.262
下方	-11.2621
未是	-11.2621
現成	-11.2621
乃得	-11.2625
是色	-11.2626
七月	-11.2627
諸菩	-11.2629
轉故	-11.2629
▁智慧	-11.263
成壞	-11.2631
金粟	-11.2632
次有	-11.2632
釋種	-11.2633
以大	-11.2634
地水火風	-11.2637
今說	-11.2637
如是法	-11.2638
少欲	-11.2641
五味	-11.2646
初出	-11.2646
次二	-11.2649
眾德	-11.2651
事相	-11.2654
增進	-11.2656
凡愚	-11.2658
九月	-11.2659
無所得為方便	-11.266
無礙智	-11.2661
惟有	-11.2664
是因	-11.2666
猷	-11.2667
常有	-11.2667
空者	-11.2667
那羅延	-11.2667
卷第三	-11.2668
內外空	-11.2668
無所有不可得	-11.2668
生老病死	-11.2669
不觀	-11.267
若使	-11.267
言下	-11.267
覺者	-11.2672
餘經	-11.2672
聳	-11.2677
訶責	-11.2678
用處	-11.2679
豈是	-11.268
其僧	-11.2681
大仙	-11.2682
通塞	-11.2685
出生死	-11.2688
亦皆	-11.2689
龍女	-11.2691
如來所說	-11.2691
▁遍	-11.2692
勝利	-11.2693
▁陰	-11.2693
婦女	-11.27
拈香	-11.2702
風輪	-11.2702
空也	-11.2703
頌上	-11.2703
多種	-11.2704
攝持	-11.2704
泮	-11.2707
便問	-11.2707
矢	-11.2708
只要	-11.2709
濤	-11.2711
理無	-11.2712
把住	-11.2714
十歲	-11.2714
今且	-11.2715
自餘	-11.2715
座上	-11.272
唯取	-11.2721
授與	-11.2722
作如是念	-11.2723
死人	-11.2724
這個	-11.2728
諸位	-11.273
入空	-11.273
一著	-11.2731
巳竟	-11.2734
正遍知	-11.2734
齎	-11.2734
餘四	-11.2736
有邊	-11.2737
但取	-11.2738
迴心	-11.2739
富樓那	-11.2739
泥牛	-11.2743
即心	-11.2743
純陀	-11.2744
身為	-11.2745
尚未	-11.2747
妙色	-11.275
故立	-11.2752
可憐	-11.2755
劇	-11.2757
所用	-11.2758
〕」	-11.2758
多劫	-11.2758
有因	-11.2759
戒行	-11.2762
憎愛	-11.2762
自相空	-11.2763
桓	-11.2764
比丘僧	-11.2765
准前	-11.2766
俱行	-11.2767
得福	-11.2767
開敷	-11.2769
深密	-11.2769
勝行	-11.277
畢竟如何	-11.2774
迴向一切智智	-11.2774
輔行	-11.2775
挾	-11.2776
笠	-11.2776
理趣	-11.2779
不見道	-11.2779
初門	-11.2779
▁獄	-11.278
夭	-11.2781
用此	-11.2781
禽獸	-11.2782
帝王	-11.2785
萬年	-11.2785
悉檀	-11.2786
澹	-11.2786
唐言	-11.2788
舉揚	-11.2793
結罪	-11.2796
一切功德	-11.2796
見所斷	-11.2797
作甚麼	-11.2799
月輪	-11.2802
厨	-11.2802
之恩	-11.2803
頂禮佛足	-11.2803
覺明	-11.2803
雖在	-11.2807
休息	-11.281
可為	-11.281
所緣境	-11.2811
卷第二	-11.2811
別圓	-11.2811
不分別	-11.2816
族姓子	-11.2818
▁際	-11.2819
作衣	-11.2823
而常	-11.2824
世尊說	-11.2824
無所依	-11.2827
以示	-11.2829
是故名為	-11.2831
一經	-11.2832
別眾	-11.2833
善財童子	-11.2834
五明	-11.2836
正解	-11.2836
名大	-11.2837
卦	-11.2838
謚	-11.2839
教令	-11.2839
兔角	-11.2841
纖毫	-11.2845
▁思議	-11.2851
水月	-11.2852
狼	-11.2853
無等	-11.2856
鈔云	-11.2858
此頌	-11.2858
一旦	-11.2859
課	-11.2859
餘者	-11.2859
旅	-11.286
▁世界	-11.286
香水	-11.2864
戒法	-11.2865
參學	-11.2869
多論	-11.2872
皆言	-11.2873
駭	-11.2874
八千	-11.2875
在其中	-11.2875
有為空	-11.2875
無此	-11.2876
同事	-11.2878
此法門	-11.2878
道智	-11.2878
於眾生	-11.2883
阿字	-11.2884
▁|(	-11.2886
意觸	-11.2889
絕待	-11.2891
多生	-11.2891
難也	-11.2892
與其	-11.2892
膚	-11.2893
受教	-11.2894
我能	-11.2897
膏	-11.2897
修治	-11.2898
十迴向	-11.2898
方廣	-11.29
天人師	-11.2903
如一	-11.2903
未證	-11.291
是道	-11.2911
智知	-11.2911
佛住	-11.2912
真智	-11.2913
當念	-11.2913
三尺	-11.2913
大悲心	-11.2924
上聲	-11.2925
湏	-11.2929
有世界名	-11.2934
!』	-11.2935
隨行	-11.2936
獨覺菩提	-11.2937
諸有情類	-11.2938
僧擬議	-11.2942
有愛	-11.2944
▁沙門	-11.2947
至彼	-11.2947
直心	-11.2947
如雲	-11.2948
深妙	-11.2948
諸禪	-11.295
應機	-11.2951
有三義	-11.2955
曉了	-11.2959
此偈	-11.296
帆	-11.2961
還是	-11.2963
不雜	-11.2963
意欲	-11.2964
大集	-11.2965
於外	-11.297
到者裏	-11.2972
諸仁者	-11.2972
之餘	-11.2975
言句	-11.2977
電光	-11.2982
還知	-11.2983
鬧	-11.2984
匝	-11.2985
▁迦葉	-11.2985
▁摩賀	-11.2985
初分	-11.2987
天樂	-11.2992
戍	-11.2993
恩愛	-11.2993
體者	-11.2995
諸國	-11.2997
娑婆世界	-11.2997
四攝	-11.2997
臍	-11.2998
無倒	-11.2999
能化	-11.2999
華香	-11.3001
搭	-11.3003
博山	-11.3004
厲	-11.3006
女子	-11.3006
於生死	-11.3008
必得	-11.3008
修梵行	-11.3009
隨彼	-11.301
世親	-11.3015
行中	-11.3016
論議	-11.3017
欲見	-11.3017
專心	-11.3018
六卷	-11.3019
那裏	-11.302
韶	-11.3021
汝見	-11.3022
優波離	-11.3023
裕	-11.3025
而於	-11.3028
阿難言	-11.3032
利益眾生	-11.3033
是果	-11.3035
亦未	-11.3035
而可	-11.3035
隱沒	-11.3036
永不	-11.3038
雲集	-11.3039
雖非	-11.304
六七	-11.304
結制	-11.3041
繒	-11.3041
淨妙	-11.3041
第四靜慮	-11.3044
十者	-11.3044
複	-11.3045
一切法皆	-11.3049
趺坐	-11.3052
一切時	-11.3053
在世	-11.3053
體非	-11.3055
有甚麼	-11.3055
輕慢	-11.3056
曾無	-11.3057
鷹	-11.3057
月十五日	-11.3061
知諸法	-11.3061
證菩提	-11.3062
於身	-11.3062
先說	-11.3062
行住坐臥	-11.3062
謂無	-11.3066
仕	-11.3068
發意	-11.3071
即指	-11.3075
雙非	-11.3078
圓相	-11.3081
▁屬	-11.3082
榻	-11.3083
城邑	-11.3085
不移	-11.3086
異於	-11.3087
惑業	-11.3088
教也	-11.3088
呌	-11.3089
答中	-11.309
▁贈	-11.3091
一回	-11.3092
著衣	-11.3093
從佛	-11.3097
傳燈	-11.3101
高峰	-11.3103
頌中	-11.3103
無以	-11.3103
亦隨	-11.3105
硬	-11.3106
澁	-11.3106
觀於	-11.3106
沙門瞿曇	-11.3108
三十七品	-11.3109
野狐	-11.311
心即	-11.3111
三摩提	-11.3113
脩行	-11.3114
但約	-11.3114
中論	-11.3114
所至	-11.3116
柯	-11.3116
覺心	-11.3116
曾見	-11.3117
意旨	-11.312
釋言	-11.312
伏願	-11.3123
置於	-11.3123
十八佛不共法	-11.3124
阿那	-11.3124
波斯匿王	-11.3125
生緣	-11.3126
不契	-11.3127
亦復不	-11.3127
飯食	-11.3128
天主	-11.3129
體即	-11.3129
非佛	-11.313
菩薩地	-11.313
恕	-11.3133
便行	-11.3134
行事	-11.3135
惡魔	-11.3136
不消	-11.3138
▁囉	-11.3138
變現	-11.3141
雖同	-11.3142
孚	-11.3142
入海	-11.3143
磬	-11.3144
此三昧	-11.3144
▁息	-11.3145
▁一切眾生	-11.3145
供佛	-11.3146
四百	-11.3147
▁犯	-11.3149
截斷	-11.3149
八年	-11.315
甚處	-11.3151
幾時	-11.3151
法要	-11.3152
當人	-11.3152
圓照	-11.3156
遞	-11.3156
化人	-11.3158
師僧	-11.3159
巳說	-11.316
意說	-11.3161
底事	-11.3161
則應	-11.3161
匿	-11.3164
或無	-11.3164
東林	-11.3165
心意識	-11.3167
疏中	-11.3168
廣略	-11.3168
妙德	-11.317
皎	-11.3173
未足	-11.3173
略明	-11.3176
過去世	-11.3176
隨他	-11.3181
不惜	-11.3181
唇	-11.3181
看看	-11.3182
如世	-11.3185
璧	-11.3187
四蘊	-11.3187
不可說不可說	-11.3188
色像	-11.3193
見諸	-11.3195
眼中	-11.3196
非想非非想處	-11.3197
那邊	-11.3198
說話	-11.3199
宗鏡	-11.3201
自由	-11.3201
別解	-11.3202
因明	-11.3203
蘿	-11.3203
齡	-11.3203
▁誦	-11.3203
上烏	-11.3208
三智	-11.321
亦知	-11.321
級	-11.3211
馬鳴	-11.3212
百餘	-11.3212
疏主	-11.3214
▁障	-11.3215
筆受	-11.3219
琳	-11.322
之色	-11.3221
唯此	-11.3222
無量百千	-11.3228
▁舍	-11.3229
王位	-11.323
作是語	-11.3232
且約	-11.3235
貶	-11.3236
尋求	-11.3237
幾人	-11.3242
比丘言	-11.3242
攝心	-11.3243
如來身	-11.3245
出家人	-11.3247
天下人	-11.325
佛種	-11.325
鬱	-11.3252
第二卷	-11.3254
諸比丘尼	-11.3255
身分	-11.3259
所因	-11.326
欲以	-11.3261
動搖	-11.3262
更加	-11.3265
五十三	-11.3269
若復有人	-11.3272
俱不	-11.3273
性淨	-11.3274
雁	-11.3274
唧	-11.3274
三慧	-11.3275
宵	-11.3277
發言	-11.3278
離繫	-11.328
三果	-11.328
揣	-11.328
心住	-11.3281
一語	-11.3281
歷劫	-11.3282
無等等	-11.3282
迦旃延	-11.3285
少時	-11.3286
復有說者	-11.3287
寶所	-11.3287
之別	-11.3287
明心	-11.3288
修福	-11.3289
別義	-11.329
頴	-11.3291
作諸	-11.3293
踊躍	-11.3294
軌則	-11.3295
釋子	-11.3296
稚	-11.3296
抗	-11.3296
恠	-11.3296
祇是	-11.3297
向佛	-11.3298
前七	-11.3299
西北	-11.33
睦州	-11.33
雖殊	-11.3302
眾善	-11.3303
大機	-11.3305
通明	-11.3305
▁智者	-11.3305
傅	-11.3305
賴耶	-11.3306
斷結	-11.3309
菩薩乘	-11.3309
三輪	-11.3312
石門	-11.3314
正思惟	-11.3315
愛著	-11.3318
知彼	-11.3318
起塔	-11.332
▁畏	-11.3322
冲	-11.3324
但由	-11.3325
數十	-11.3329
當觀	-11.3329
不改	-11.3332
見取	-11.3333
四王	-11.3336
果然	-11.3336
上明	-11.3337
以後	-11.3338
▁熟	-11.334
貼	-11.3341
▁復有	-11.3341
生相	-11.3344
能攝	-11.3345
芭蕉	-11.3346
蹉過	-11.3348
不殊	-11.3349
具四	-11.3349
群臣	-11.335
斂	-11.3352
頌言	-11.3352
本具	-11.3357
供養恭敬	-11.3361
一切行	-11.3362
旃	-11.3363
催	-11.3363
恢	-11.3363
世出世間	-11.3363
況有	-11.3363
隨類	-11.3363
僧問如何是	-11.3367
諸佛所	-11.3369
年少	-11.3369
寶樹	-11.337
住地	-11.337
今約	-11.3371
如實了知	-11.3373
法器	-11.3374
理故	-11.3375
鎻	-11.3379
於十方	-11.3379
不惟	-11.338
三惡道	-11.338
一半	-11.3381
無他	-11.3383
意趣	-11.3383
出家者	-11.3383
喫茶	-11.3384
兩手	-11.3385
蒸	-11.3385
有諸	-11.3385
0	-11.3386
處分	-11.3386
▁第六	-11.3388
知解	-11.3389
風穴	-11.339
就中	-11.339
雖知	-11.339
無覆無記	-11.3393
折伏	-11.3393
學無學	-11.3394
之福	-11.3399
弘經	-11.34
不敬	-11.34
無字	-11.34
再三	-11.3401
釋上	-11.3402
五十五	-11.3403
舍衛國	-11.3403
方為	-11.3405
或從	-11.3406
十法界	-11.3406
又若	-11.3408
脉	-11.3408
總說	-11.3409
顯揚	-11.341
尚有	-11.3411
妙寶	-11.3411
偷蘭	-11.3413
凡所	-11.3414
限量	-11.3415
生平	-11.3418
道之	-11.3419
反考聲云	-11.3424
箋	-11.3424
些子	-11.3428
莽	-11.343
當處	-11.3431
▁慈	-11.3433
意識界	-11.3436
者意云	-11.3439
今但	-11.3441
師便	-11.3443
堂堂	-11.3446
知覺	-11.3447
樞	-11.3448
滅時	-11.3448
一毛	-11.3451
歷歷	-11.3452
為最	-11.3453
趁	-11.3457
聖位	-11.3459
心懷	-11.3461
一界	-11.3463
南無釋迦牟尼佛南無釋迦牟尼佛	-11.3463
苦痛	-11.3469
前六	-11.347
於境	-11.347
無行	-11.3474
對前	-11.3475
溫陵曰	-11.3476
至真	-11.3478
▁染	-11.348
一滴	-11.348
鼓山	-11.3482
良醫	-11.3484
邊見	-11.3485
掌中	-11.3486
退轉	-11.3487
玄義	-11.3487
於地	-11.3489
貞觀	-11.3492
故下	-11.3492
菩提涅槃	-11.3494
言訖	-11.3498
祚	-11.3502
冊	-11.3502
行業	-11.3503
據此	-11.3505
此解	-11.3506
由心	-11.3508
宴坐	-11.3509
又不	-11.351
色聲	-11.3513
於中有二	-11.3515
後之	-11.3515
妄生	-11.3515
舌根	-11.3516
領受	-11.3518
有比丘	-11.3521
▁晚參	-11.3523
問也	-11.3524
三重	-11.3524
聞經	-11.3527
等至	-11.3529
永明	-11.3529
園中	-11.353
全彰	-11.3531
大樹	-11.3533
若不爾者	-11.3533
菩薩道	-11.3535
乃以	-11.3536
浩浩	-11.3539
告諸比丘	-11.354
說故	-11.3544
宿世	-11.3546
衫	-11.3546
有漏無漏	-11.3547
言有	-11.3548
顯實	-11.3548
正教	-11.355
瑜	-11.3552
有想	-11.3553
下示	-11.3555
十億	-11.3558
沐	-11.3558
似有	-11.3558
慈雲	-11.3558
壤	-11.3559
遜	-11.3559
幢佛	-11.3559
上居	-11.356
覺分	-11.3562
回頭	-11.3563
▁久	-11.3564
能立	-11.3565
從空	-11.3566
羹	-11.357
我相	-11.357
▁問如何是	-11.3571
不減	-11.3571
作一	-11.3572
乃為	-11.3573
念佛三昧	-11.3576
恭敬供養	-11.3577
▁晉	-11.3578
喝一喝云	-11.3578
經歷	-11.3583
之情	-11.3584
次一	-11.3585
世界海	-11.3585
正令	-11.3586
面壁	-11.3587
六十四	-11.3588
清淨心	-11.3589
不可言	-11.3591
石女	-11.3591
憨	-11.3593
造色	-11.3594
難提	-11.3595
人多	-11.3596
如鏡	-11.3598
委悉	-11.3598
正體	-11.3599
復於	-11.3601
諷誦	-11.3601
師之	-11.3604
立義	-11.3605
▁箇	-11.3606
便與	-11.3607
毘曇	-11.3616
▁如何	-11.3616
桃花	-11.3617
皆通	-11.3617
定者	-11.3623
問此	-11.3623
相狀	-11.3624
已去	-11.3624
少室	-11.3624
諸文	-11.3626
性無	-11.3626
還見	-11.3628
汝心	-11.3628
雙照	-11.3631
汝等諸人	-11.3631
募	-11.3633
滅盡定	-11.3636
深山	-11.3637
我所說	-11.3637
寅	-11.3637
意言	-11.3638
缾	-11.3638
宗乘	-11.3638
入處	-11.3641
相承	-11.3643
釋疑	-11.3643
別住	-11.3646
復能	-11.3646
出定	-11.3647
肇曰	-11.3648
學士	-11.3648
第一句	-11.3651
汝諸人	-11.3652
一夜	-11.3656
破之	-11.366
貧道	-11.366
能如是	-11.3666
揑	-11.3667
識處	-11.3667
大智慧	-11.3668
權智	-11.3672
內身	-11.3673
顯其	-11.3675
嚮	-11.3676
𢙣	-11.3678
經作	-11.3679
此陀羅尼	-11.3681
廣說乃至	-11.3681
奴婢	-11.3685
姚	-11.3687
能受	-11.3688
是別	-11.3689
繡	-11.3689
先以	-11.3691
中先	-11.3692
塊	-11.3693
隨其所應	-11.3694
高山	-11.3694
汝應	-11.3696
迴轉	-11.3696
於汝	-11.3696
鉢羅	-11.3697
復作是念	-11.3701
頰	-11.3701
具眼	-11.3701
歸於	-11.3702
由於	-11.3702
同也	-11.3703
常念	-11.3703
演曰後	-11.3704
無為空	-11.3706
波浪	-11.3706
大小乘	-11.3708
是假	-11.371
頓漸	-11.3712
眉間	-11.3712
以表	-11.3712
得勝	-11.3714
於其中	-11.3715
杓	-11.3716
貴賤	-11.3717
僊	-11.3718
依何	-11.372
果位	-11.372
應生	-11.372
作羯磨	-11.3721
為上	-11.3722
▁進云	-11.3725
僧物	-11.3726
其一	-11.3728
白淨	-11.3729
援	-11.373
飜	-11.373
諸菩薩眾	-11.3731
外無	-11.3731
大寶	-11.3732
多時	-11.3734
四分律	-11.3734
差別故	-11.3735
長大	-11.3735
▁羅漢	-11.3739
箇中	-11.3739
觸處	-11.374
鸞	-11.3741
林下	-11.3742
無量義	-11.3744
不下	-11.3744
法名	-11.3745
王者	-11.3745
上戶	-11.3747
命者	-11.3747
法喻	-11.375
受諸	-11.3751
難信	-11.3756
慈愍	-11.3757
外有	-11.3758
若樂若苦	-11.3759
一比丘	-11.376
除去	-11.376
無慚	-11.3762
新羅	-11.3764
應修	-11.3764
屑	-11.3764
甕	-11.3764
後方	-11.3772
以釋	-11.3787
非實有	-11.3789
密意	-11.379
堂前	-11.379
有云	-11.379
空相	-11.3791
菩薩所	-11.3792
便出	-11.3794
取之	-11.3794
地位	-11.3796
不停	-11.3798
心心所法	-11.38
勤精進	-11.3802
業故	-11.3803
成一	-11.3804
而死	-11.3805
遍計所執	-11.3806
無遺	-11.3806
稱揚	-11.3806
永滅	-11.3808
𤙖	-11.381
十六日	-11.381
逕	-11.3811
商主	-11.3813
怛他	-11.3815
近前	-11.3816
四字	-11.3817
沐浴	-11.3817
無厭足	-11.382
不還果	-11.382
知一切	-11.3821
黑白	-11.3827
當年	-11.3827
金剛藏	-11.3827
怡	-11.3827
回首	-11.3827
若心	-11.3828
外緣	-11.3829
三道	-11.3829
於上	-11.3829
修集	-11.3829
一遍	-11.3834
邀	-11.3834
三字	-11.3834
身上	-11.3838
盡故	-11.3839
密語	-11.3839
受想	-11.3841
焚香	-11.3841
▁部	-11.3842
皆可	-11.3843
賺	-11.3844
因是	-11.3844
愛敬	-11.3846
知眾生	-11.3847
長生	-11.3848
別異	-11.3849
勘破	-11.3852
安慰	-11.3853
所愛	-11.3854
那箇是	-11.3855
悉見	-11.3857
不獲	-11.3859
從其	-11.386
生心	-11.3861
發趣	-11.3861
見他	-11.3862
之一字	-11.3864
君臣	-11.3865
法海	-11.3865
聖法	-11.3867
門戶	-11.3867
枚	-11.3869
掠	-11.3869
缽囉	-11.3873
時諸	-11.3873
本事	-11.3875
能轉	-11.3876
說彼	-11.3877
墮惡道	-11.3878
太虗	-11.3879
▁倒	-11.388
三下	-11.388
頹	-11.388
此正	-11.3881
氣力	-11.3883
無分	-11.3883
三障	-11.3885
盡未來際	-11.3886
筭	-11.3886
押	-11.3886
得解	-11.3886
無所有故	-11.3888
纂	-11.3888
心為	-11.389
今人	-11.389
論義	-11.3892
鼈	-11.3892
誤也	-11.3894
具云	-11.3895
實是	-11.3897
▁隋	-11.3901
掣	-11.3902
是為菩薩	-11.3902
力用	-11.3903
諸大德	-11.3903
ā	-11.3904
狐疑	-11.3905
露地	-11.3905
誦持	-11.3906
不和合	-11.3909
生死之	-11.391
不善法	-11.391
怨家	-11.3911
則見	-11.3912
受具足戒	-11.3913
文意	-11.3914
散空	-11.3915
涕	-11.3916
范	-11.3916
等無間	-11.3919
更須	-11.392
或在	-11.3921
稜	-11.3921
篋	-11.3922
昂	-11.3922
畢竟無	-11.3922
法語	-11.3923
火中	-11.3924
主宰	-11.3925
普眼	-11.3928
隨事	-11.3929
還歸	-11.3929
高座	-11.3929
初頌	-11.3929
過者	-11.3932
呵呵大笑	-11.3933
三十八	-11.3933
翠巖	-11.3937
憫	-11.394
善說	-11.3941
後四	-11.3943
墮在	-11.3944
所樂	-11.3947
山王	-11.3949
於道	-11.3949
沼	-11.395
若修	-11.395
棘	-11.395
崔	-11.3951
以此為	-11.3955
妙吉祥	-11.3956
十二部經	-11.3956
擘	-11.3957
七等覺支	-11.3963
欲顯	-11.3964
大乘經	-11.3969
方是	-11.3972
諸論	-11.3972
離合	-11.3973
解義	-11.3975
不犯者	-11.3975
福報	-11.3976
為樂	-11.3977
十事	-11.398
不散	-11.398
苾	-11.398
股	-11.398
三十九	-11.3983
多寶	-11.3983
萬八千	-11.3984
失却	-11.3986
得成佛	-11.3988
出體	-11.3989
水流	-11.3991
大唐	-11.3992
▁杭州	-11.3994
七歲	-11.3994
分之	-11.3997
十二卷	-11.3997
隨相	-11.3998
王即	-11.4006
色無色	-11.4006
怎	-11.4007
章門	-11.4008
刀杖	-11.4009
文章	-11.401
宮中	-11.401
為惡	-11.4013
是則名為	-11.4016
灾	-11.4016
▁面	-11.4016
欲明	-11.4017
迭	-11.4018
見佛性	-11.4021
舉手	-11.4021
洒	-11.4022
入佛	-11.4022
大方廣	-11.4022
青天	-11.4025
迸	-11.4025
遠公	-11.4027
嬰	-11.4028
卷第一	-11.4029
翰	-11.4031
汝言	-11.4032
者乎	-11.4032
胝	-11.4033
鹹	-11.4034
相中	-11.4034
住山	-11.4034
作是思惟	-11.4035
相現	-11.4038
百二十	-11.4039
佛告諸比丘	-11.4039
其志	-11.4039
杯	-11.4039
畵	-11.4039
出現於世	-11.4043
看來	-11.4043
憂苦	-11.4044
應求	-11.4044
深遠	-11.4045
郤	-11.4045
▁斯	-11.4046
能照	-11.4046
不愛	-11.4049
蟻	-11.4049
柰	-11.405
跏趺	-11.405
得定	-11.4051
雕	-11.4051
進云如何是	-11.4053
善趣	-11.4053
嗅	-11.4054
其德	-11.4054
回互	-11.4055
頭面禮足	-11.4059
為利	-11.4061
七八	-11.4061
文三	-11.4062
挈	-11.4063
得箇	-11.4064
點頭	-11.4066
有種種	-11.4067
姪	-11.4069
耶舍	-11.4071
復作	-11.4072
兩箇	-11.4074
譏嫌	-11.4075
若常若無常	-11.4075
瓊	-11.4075
零	-11.4076
以種種	-11.4077
中三	-11.4079
是故當知	-11.4079
勇健	-11.4082
聖果	-11.4083
隨分	-11.4083
慧日	-11.4085
一齊	-11.4086
▁寄	-11.4086
此顯	-11.4087
)○	-11.4087
陞	-11.4089
第十二	-11.409
次約	-11.4091
三段	-11.4092
向道	-11.4093
儔	-11.4093
受之	-11.4095
證道	-11.4098
呪術	-11.4107
摧伏	-11.4108
亦成	-11.4108
行經	-11.4108
人物	-11.4109
茫茫	-11.4111
合為	-11.4115
忽遇	-11.4116
叵	-11.4117
七重	-11.4118
▁善男子	-11.4119
過去未來現在	-11.412
囚	-11.4123
益物	-11.4125
不肖	-11.4126
實不	-11.4127
半偈	-11.4127
靖	-11.4128
有人問	-11.4129
効	-11.4129
萬古	-11.4131
第十六	-11.4131
今我	-11.4132
說此經	-11.4132
能伏	-11.4133
王聞	-11.4136
智也	-11.4136
竹篦	-11.4136
須達	-11.4136
忽見	-11.4137
唯依	-11.414
種族	-11.414
虵	-11.4141
一百八	-11.4141
諸善男子	-11.4142
取證	-11.4142
檗	-11.4142
於內	-11.4143
知我	-11.4144
紺	-11.4144
總有	-11.4145
疑情	-11.4146
卷第五	-11.4147
業相	-11.4148
一真	-11.415
種善根	-11.415
未入	-11.4151
中邊	-11.4152
入水	-11.4154
觀自在菩薩	-11.4154
院主	-11.4156
成等正覺	-11.4157
不滿	-11.416
無二為方便	-11.4162
所計	-11.4164
不可量	-11.4166
千人	-11.4168
而食	-11.417
殖	-11.4171
偕	-11.4171
大藏	-11.4171
母胎	-11.4173
體無	-11.4175
合為一	-11.4177
非正	-11.4179
十二處	-11.4179
境也	-11.4182
空界	-11.4183
本處	-11.4183
皆因	-11.4185
善道	-11.4185
庚	-11.4186
何者為	-11.4186
願往生	-11.4187
無生法忍	-11.4189
變成	-11.419
值佛	-11.419
寶莊嚴	-11.4191
往至	-11.4191
眼裏	-11.4192
亦令	-11.4193
甚難	-11.4195
既然	-11.4195
復告	-11.4195
士曰	-11.4196
別者	-11.4198
鞋	-11.4198
弘誓	-11.4201
處中	-11.4202
水陸	-11.4203
遷流	-11.4204
無量無數	-11.4206
及至	-11.4207
通論	-11.4211
無央數	-11.4213
財施	-11.4215
於三界	-11.4216
揩	-11.4219
速得	-11.422
我得	-11.4221
達多	-11.4223
非非	-11.4223
度者	-11.4224
謂前	-11.4225
女身	-11.4225
惺惺	-11.4225
二日	-11.4229
孔雀	-11.4229
示人	-11.4229
優婆	-11.423
修斷	-11.423
脊	-11.423
辜負	-11.4232
各具	-11.4233
諸法無	-11.4234
僧堂	-11.4237
儲	-11.4237
此問	-11.4237
叡	-11.4241
顯了	-11.4241
從今日	-11.4242
受此	-11.4243
姿	-11.4243
蘇州	-11.4244
掉舉	-11.4245
可取	-11.4248
羨	-11.4249
此比丘	-11.425
緣境	-11.425
▁支	-11.4252
立為	-11.4252
綺語	-11.4253
艱	-11.4253
依他起	-11.4254
蔡	-11.4255
萬二千	-11.4255
▁初問	-11.4256
少年	-11.4256
全是	-11.4258
戒體	-11.4258
帀	-11.426
上力	-11.426
此見	-11.4262
塘	-11.4266
有病	-11.4269
下文云	-11.4273
▁旨	-11.4274
物物	-11.4275
生欲界	-11.4275
二乘人	-11.4276
師便喝	-11.4279
塵數	-11.428
翫	-11.428
無色界繫	-11.4281
目錄	-11.4284
閙	-11.4291
百千萬	-11.4293
欲為	-11.4293
不差	-11.4296
』	-11.4296
正月	-11.4296
商人	-11.4298
過也	-11.4298
行成	-11.4299
終不能	-11.4299
盡其	-11.43
孝順	-11.4301
者皆	-11.4302
勝義空	-11.4304
啄	-11.4304
非空	-11.4304
亦即	-11.4306
遷化	-11.431
云我	-11.431
倣	-11.431
▁所說	-11.431
堪忍	-11.4312
暫時	-11.4312
色者	-11.4313
無義	-11.4314
為苦	-11.4316
寺僧	-11.4317
能忍	-11.4318
世第一法	-11.432
共成	-11.432
菩薩摩訶薩行	-11.4321
獲益	-11.4321
乃有	-11.4322
邈	-11.4322
飡	-11.4322
十人	-11.4322
可惜	-11.4328
𦘕	-11.4328
六十二	-11.4329
無性空	-11.4332
願一切眾生	-11.4334
大論云	-11.4336
相成	-11.4336
故制	-11.4339
在何處	-11.4339
記曰	-11.4339
苔	-11.434
意生身	-11.4342
無功	-11.4342
徧計	-11.4342
妙光	-11.4342
明得	-11.4343
土地	-11.4343
論之	-11.4352
得知	-11.4353
面門	-11.4358
仁王	-11.4359
料揀	-11.436
是諸佛	-11.4361
為諸眾生	-11.4362
卓拄杖云	-11.4364
楞伽經	-11.4364
教行	-11.4365
失譯	-11.437
第三卷	-11.437
菩薩如是	-11.4371
劄	-11.4371
欲貪	-11.4372
補處	-11.4372
諦理	-11.4377
見人	-11.4377
▁初約	-11.4377
是三昧	-11.4378
集會	-11.4381
犁	-11.4382
一夕	-11.4387
西堂	-11.4388
復見	-11.439
鱗	-11.4391
開元	-11.4391
有事	-11.4393
一切陀羅尼門	-11.4393
了然	-11.4395
施為	-11.4397
眼耳	-11.4398
諸賢	-11.4399
悠悠	-11.4402
一方	-11.4403
▁訶	-11.4403
今有	-11.4405
略釋	-11.4406
▁裏	-11.4406
本際	-11.4406
如本	-11.4408
地獄中	-11.4408
卯	-11.4408
豈無	-11.441
長沙	-11.4413
正答	-11.4413
是菩提	-11.4415
晨朝	-11.4417
憲	-11.4417
此謂	-11.4418
未起	-11.4419
無想定	-11.4419
棹	-11.442
誦真言	-11.4421
還得	-11.4426
三四	-11.4428
眾皆	-11.443
染汙	-11.443
毘盧遮那	-11.4435
有作	-11.4437
也廣雅	-11.4438
依經	-11.444
無際空	-11.444
是同	-11.4441
十餘	-11.4441
絲毫	-11.4442
勤求	-11.4443
諸比	-11.4444
摩竭	-11.4445
著地	-11.4445
沃	-11.4445
法華經云	-11.4445
兩重	-11.4445
雖得	-11.4445
設齋	-11.4447
佛知見	-11.4448
某甲比丘	-11.4448
觀空	-11.4448
之報	-11.4449
則生	-11.4453
▁慮	-11.4454
明見	-11.4456
之義也	-11.4457
與師	-11.4457
館	-11.4457
乃問	-11.4459
殞	-11.4462
觀見	-11.4465
見精	-11.4465
在外	-11.4467
先問	-11.4468
捻	-11.447
顧視	-11.4473
淨光	-11.4474
更生	-11.4474
諸山	-11.4476
出頭	-11.4476
為物	-11.4477
洛陽	-11.4477
思想	-11.4478
三千大千	-11.448
非此	-11.4482
動轉	-11.4482
攪	-11.4482
手裏	-11.4485
所學	-11.4487
修菩薩行	-11.4488
婦人	-11.4489
五時	-11.4489
涯	-11.4489
見惑	-11.4491
有知	-11.4491
今復	-11.4494
十身	-11.4494
沖	-11.4495
獨露	-11.4496
捨此	-11.4496
禪門	-11.4497
無妨	-11.4497
黃梅	-11.4499
因緣生	-11.4502
上生	-11.4502
荊棘	-11.4503
之數	-11.4504
能壞	-11.4504
大教	-11.4505
有二意	-11.4506
受身	-11.4506
所照	-11.4508
以拂子	-11.451
第四卷	-11.4511
今得	-11.4511
普光	-11.4512
應諾	-11.4513
阜	-11.4513
▁林	-11.4514
第十三	-11.4517
燈籠	-11.4518
就此	-11.4518
地持	-11.4518
堅牢	-11.4519
咦	-11.452
思擇	-11.4521
出過	-11.4522
絡	-11.4523
觀經	-11.4524
不獨	-11.4525
魄	-11.4525
鸚鵡	-11.4526
佛塔	-11.4527
方圓	-11.4528
二經	-11.453
不共法	-11.4531
雲棲	-11.4531
治之	-11.4531
大慈大悲	-11.4531
帽	-11.4532
隨身	-11.4533
現法	-11.4534
拔濟	-11.4534
但名	-11.4535
水上	-11.4538
破無明	-11.4538
共行	-11.4541
正法眼藏	-11.4542
菩提道	-11.4542
▁題	-11.4543
證法	-11.4546
▁萬	-11.4549
澆	-11.455
若我若無我	-11.4551
中際	-11.4551
屏處	-11.4554
識性	-11.4555
如何是祖師西來意	-11.4557
▁僧云	-11.4558
之談	-11.4558
不可得空	-11.4559
法定	-11.456
本國	-11.4561
億劫	-11.4564
阿脩羅	-11.4565
更無別	-11.4566
陰界入	-11.4568
臼	-11.4569
抹	-11.4569
躭	-11.4569
所趣	-11.4572
住在	-11.4573
我與	-11.4573
那羅	-11.4575
〡也	-11.4577
慈恩	-11.458
菩提心者	-11.4581
是故如來	-11.4582
▁舍利弗	-11.4583
諸祖	-11.4584
亦復然	-11.4585
常得	-11.4587
等經	-11.4587
心相	-11.4587
竹林	-11.4588
皆共	-11.4588
熈	-11.4588
於時	-11.4588
入聖	-11.4591
有什麼	-11.4592
離苦	-11.4592
無佛	-11.4592
▁此中	-11.4594
號為	-11.4597
佛即	-11.4597
淮	-11.4598
觀也	-11.4599
尒	-11.4599
珊瑚	-11.4599
婇女	-11.4601
不要	-11.4603
我常	-11.4605
▁尾	-11.4606
信施	-11.4607
具德	-11.4608
智人	-11.461
人等	-11.4611
因何	-11.4612
稱性	-11.4612
壺	-11.4613
正恁麼時	-11.4613
爍	-11.4614
謂能	-11.4615
引經	-11.4615
是義	-11.4617
諸欲	-11.4618
在內	-11.4618
出水	-11.4619
愚者	-11.4621
本意	-11.4622
親切	-11.4624
之謂	-11.4624
是能	-11.4625
果德	-11.4627
手持	-11.4628
差別者	-11.4631
得力	-11.4631
野干	-11.4631
帥	-11.4632
亨	-11.4632
中現	-11.4634
▁福州	-11.4636
欺誑	-11.4636
猶若	-11.4641
寶光	-11.4642
下合	-11.4643
至理	-11.4646
歲月	-11.4648
舍宅	-11.4649
難見	-11.465
大溈	-11.4651
勝法	-11.4651
如常	-11.4651
毬	-11.4651
甚麼處	-11.4652
毘盧	-11.4652
以求	-11.4652
若其	-11.4657
滅罪	-11.4658
揔	-11.4661
戒取	-11.4662
杲	-11.4664
向上事	-11.4664
藥草	-11.4667
八法	-11.4667
無生為方便	-11.4667
雍	-11.4667
諷	-11.4668
頂戴	-11.4669
▁儀	-11.4673
皈	-11.4673
令不	-11.4674
三遍	-11.4678
句中	-11.468
▁杖	-11.4682
日中	-11.4682
五錢	-11.4683
眼識界	-11.4685
青色	-11.4686
歛	-11.4689
牌	-11.4689
離過	-11.4689
白色	-11.4693
思慧	-11.4693
以身	-11.4693
亦復如	-11.4695
人壽	-11.4695
怯弱	-11.4696
來入	-11.4699
下顯	-11.4699
像法	-11.4699
餌	-11.4702
安排	-11.4703
下半	-11.4703
後說	-11.4704
五乘	-11.4708
鐵牛	-11.471
今現在	-11.471
既而	-11.4711
其或未然	-11.4714
非情	-11.4715
灼	-11.4716
自在天	-11.4716
勝德	-11.4717
寶蓋	-11.4717
時如何師云	-11.4719
行時	-11.4719
太守	-11.472
同參	-11.4721
圓光	-11.4722
並皆	-11.4724
本淨	-11.4724
示其	-11.4727
是為菩薩摩訶薩	-11.4727
云何知	-11.4728
然有	-11.4728
因行	-11.4728
妙樂	-11.4729
秪如	-11.473
教之	-11.4731
臘月	-11.4733
妙香	-11.4735
即滅	-11.4735
▁殊	-11.4735
言音	-11.4738
▁一心奉請	-11.4739
狗子	-11.474
槩	-11.474
體同	-11.4744
安樂行	-11.4744
便起	-11.4744
一子	-11.4744
佛力	-11.4745
白日	-11.4745
若住	-11.4745
▁(△〔	-11.4746
增語是菩薩摩訶薩不	-11.4747
嘯	-11.4748
旃陀羅	-11.4749
若實	-11.4751
謂如來	-11.4752
共生	-11.4752
生大	-11.4755
信根	-11.4756
休去	-11.4756
諳	-11.4759
暨	-11.4759
愛見	-11.476
設使	-11.4761
故彼	-11.4762
時中	-11.4762
答前	-11.4764
▁須菩提	-11.4765
天真	-11.4765
所集	-11.4765
出眾	-11.4765
斑	-11.4765
栢	-11.4765
又為	-11.4766
雖說	-11.4766
寶幢	-11.4768
中具	-11.4769
能顯	-11.4769
今從	-11.477
惡友	-11.477
五地	-11.4772
摶	-11.4777
因生	-11.4778
▁修行	-11.4779
諂曲	-11.478
而作是言	-11.478
又道	-11.4782
俱空	-11.4782
法會	-11.4783
空義	-11.4783
大威德	-11.4784
大乘法	-11.4786
▁帝	-11.4788
佛知	-11.4788
不宜	-11.4789
八卷	-11.4791
瀉	-11.4791
漉	-11.4791
能離	-11.4792
吉凶	-11.4792
實報	-11.4793
歌舞	-11.4794
動念	-11.4794
其法	-11.4795
講堂	-11.4797
又三	-11.4798
先舉	-11.4799
歸家	-11.48
世事	-11.4802
法幢	-11.4804
保福	-11.4804
深法	-11.4806
彼於	-11.481
謂我	-11.4811
歸方丈	-11.4812
▁違	-11.4813
與欲	-11.4815
發阿耨多羅三藐三菩提心	-11.4817
多諸	-11.4817
▁曩莫	-11.4818
屬於	-11.4818
門也	-11.4822
風動	-11.4823
淹	-11.4823
十方如來	-11.4825
依然	-11.4828
是行	-11.4829
中有四	-11.4829
▁曾	-11.4831
邪命	-11.4831
都不	-11.4832
二執	-11.4836
亦見	-11.4838
所依止	-11.4839
千載	-11.484
流入	-11.484
今取	-11.4841
阿鼻	-11.4841
天衣	-11.4841
是同是別	-11.4842
廉	-11.4843
以辨	-11.4844
來問	-11.4845
已前	-11.4846
道果	-11.4847
▁麼生	-11.4847
四十四	-11.4847
霹靂	-11.4849
中夜	-11.4849
拱	-11.4851
定意	-11.4852
五十二	-11.4854
塔廟	-11.4856
北斗	-11.4857
而發	-11.4857
看他	-11.4858
障故	-11.4859
為斷	-11.4859
聖行	-11.486
能信	-11.4861
行位	-11.4861
下生	-11.4863
他家	-11.4864
非所	-11.4864
賢劫	-11.4864
空理	-11.4865
諸王	-11.4867
根器	-11.4869
三行	-11.487
修定	-11.487
之主	-11.4872
此以	-11.4873
問道	-11.4876
問何	-11.4876
若過	-11.4878
化度	-11.4878
筵	-11.488
赤色	-11.488
六法	-11.4881
本來面目	-11.4883
釋經	-11.4884
顯理	-11.4885
佛世界	-11.4885
今年	-11.4886
智海	-11.489
者個	-11.4891
不可思	-11.4892
勝義諦	-11.4892
燋	-11.4894
間斷	-11.4894
芙蓉	-11.4894
捏	-11.4894
引導	-11.4895
立地	-11.4895
殊妙	-11.4898
五十一	-11.4898
簷	-11.49
可信	-11.4904
魔軍	-11.4905
老病	-11.4906
一句作麼生道	-11.4907
夫子	-11.4908
蠅	-11.4913
醫藥	-11.4917
如火	-11.4918
由有	-11.4919
]	-11.492
善巧方便	-11.492
緣因	-11.4922
毘婆沙	-11.4924
滅相	-11.4927
不真	-11.4927
不稱	-11.4927
殺活	-11.4928
心等	-11.4931
上苦	-11.4931
開化	-11.4932
驟	-11.4933
若一	-11.4933
世俗智	-11.4934
僧坊	-11.4936
大莊嚴	-11.4937
廊	-11.4939
儼然	-11.4941
個甚麼	-11.4941
無想天	-11.4942
諸世界	-11.4942
是善	-11.4948
是總	-11.4949
領納	-11.495
徒勞	-11.4951
家業	-11.4952
戒也	-11.4952
時至	-11.4953
身土	-11.4953
十念	-11.4955
字門	-11.4957
▁退	-11.4957
若起	-11.4959
▁初正	-11.4962
滌	-11.4964
五六	-11.4967
捨受	-11.4969
獎	-11.4971
奇哉	-11.4972
大經云	-11.4973
不向	-11.4973
千世界	-11.4977
離念	-11.4978
性具	-11.4978
深淺	-11.4978
歡喜踊躍	-11.4979
開解	-11.4979
震旦	-11.498
二緣	-11.498
光陰	-11.4982
皓	-11.4984
防護	-11.4985
即往	-11.4985
人道	-11.4986
無聲	-11.4988
供具	-11.4988
何似	-11.4989
說偈曰	-11.499
之志	-11.4991
無欲	-11.4991
猛火	-11.4992
徧滿	-11.4995
世間法	-11.4997
來時	-11.4997
我言	-11.4997
戎	-11.4998
鵝	-11.4999
一切善法	-11.5002
眾行	-11.5002
獅	-11.5003
岑	-11.5004
鋤	-11.5004
還家	-11.5006
西南	-11.5006
二性	-11.5008
綵	-11.5011
頞	-11.5011
一日一夜	-11.5013
株	-11.5014
大城	-11.5017
墳	-11.5017
以智慧	-11.5018
袋	-11.5018
寧可	-11.502
愛念	-11.5022
宴	-11.5022
大光明	-11.5024
萬壽	-11.5025
已盡	-11.5027
一指	-11.5028
聽我	-11.5028
峭	-11.503
壅	-11.503
說無	-11.503
想念	-11.5032
瑜伽論	-11.5035
座下	-11.5036
真際	-11.5036
諸物	-11.5036
相從	-11.5037
努力	-11.5038
惶	-11.5038
窮子	-11.5039
教義	-11.5041
貪心	-11.5043
諸事	-11.5045
於四	-11.5046
▁首	-11.5047
佛國土	-11.5048
簡擇	-11.5049
元是	-11.5049
三緣	-11.5049
摽	-11.505
諸蘊	-11.5053
等起	-11.5055
義利	-11.5055
阿蘭若	-11.5055
本論	-11.5056
次下	-11.5056
以能	-11.506
七十二	-11.5061
自證分	-11.5061
龍宮	-11.5063
事中	-11.5066
皆屬	-11.5066
諸善法	-11.5066
十二緣	-11.507
光影	-11.5072
深生	-11.5075
鏡中	-11.5077
一世	-11.5079
極果	-11.5079
痴	-11.5081
華果	-11.5082
莊嚴具	-11.5082
山谷	-11.5083
天耳	-11.5086
不發	-11.5087
六時	-11.5088
此界	-11.5088
變壞	-11.5089
掇	-11.5089
拈來	-11.509
不名為	-11.509
▁設	-11.5093
作麼生會	-11.5093
智照	-11.5094
中出	-11.5095
初舉	-11.5095
一食	-11.5098
但明	-11.5099
無說	-11.5099
如是觀	-11.5101
龍華	-11.5104
未發	-11.5106
隨業	-11.5108
惺	-11.5109
起者	-11.5109
一雙	-11.511
若能如是	-11.5111
居之	-11.5113
優波	-11.5115
靄	-11.5116
毘舍	-11.512
結勸	-11.512
十五卷	-11.5121
一朝	-11.5121
十方界	-11.5122
分為三	-11.5123
空不空	-11.5124
初正	-11.5125
且喜	-11.5127
貢高	-11.5128
若淨若不淨	-11.5129
貪求	-11.5132
從生	-11.5132
放生	-11.5132
而觀	-11.5133
從人	-11.5137
渚	-11.5138
便道	-11.5139
信等	-11.5139
貿	-11.514
釋者	-11.5146
第三十	-11.5148
未滿	-11.515
我之	-11.515
真體	-11.5154
之所以	-11.5154
不可稱	-11.5156
大神通	-11.5156
慾	-11.5162
鴿	-11.5162
故令	-11.5163
綸	-11.5163
而以	-11.5164
則不能	-11.5166
行菩薩道	-11.5167
汝何	-11.5167
伽耶	-11.5167
消除	-11.5168
為自	-11.517
斷一切	-11.517
敬重	-11.5172
謂從	-11.5172
從教	-11.5173
合上	-11.5174
夜來	-11.5175
生已	-11.5176
下根	-11.5177
無涯	-11.518
赦	-11.5182
妙慧	-11.5185
入一切	-11.5185
出去	-11.5186
虛空中	-11.5187
襟	-11.5188
嘴	-11.5189
次日	-11.519
不造	-11.5191
靜處	-11.5191
有主	-11.5193
其旨	-11.5194
受其	-11.5194
當自	-11.5196
莫測	-11.5197
自在故	-11.5197
八日	-11.5198
分五	-11.5199
菩提分法	-11.5201
泐潭	-11.5202
摩賀	-11.5203
梅花	-11.5206
別也	-11.5207
喉	-11.5208
者多	-11.5209
於諸眾生	-11.5209
鄣	-11.5209
千萬億	-11.5209
中有一	-11.521
山下	-11.521
之曲	-11.5211
忉利	-11.5211
即顯	-11.5212
天雨	-11.5213
須菩	-11.5214
如是諸	-11.5215
阿育王	-11.5218
欲心	-11.522
金剛三昧	-11.5221
世出世	-11.5223
可爾	-11.5223
之益	-11.5223
能自	-11.5226
妙法蓮華經	-11.5227
漫荼羅	-11.5229
琰	-11.5229
▁齊	-11.523
悲泣	-11.523
漸頓	-11.5233
杭	-11.5234
化導	-11.5235
令汝	-11.5238
在我	-11.5239
所致	-11.524
四天	-11.5242
愽	-11.5242
摩睺羅伽	-11.5242
此依	-11.5243
第三明	-11.5244
無礙解	-11.5244
不負	-11.5245
汝所	-11.5245
本來無	-11.5247
聲佛	-11.5247
事事	-11.5248
庾	-11.5249
性中	-11.525
諸龍	-11.525
人有	-11.5251
非見	-11.5253
是第二	-11.5254
▁賢	-11.5257
當作佛	-11.5261
不害	-11.5261
四十一	-11.5261
嵒	-11.5262
蔓	-11.5262
持鉢	-11.5266
得受	-11.5266
石上	-11.5267
奉事	-11.5268
燥	-11.5269
同是	-11.5272
開眼	-11.5275
取一	-11.5276
蠶	-11.5276
一總	-11.5277
影響	-11.5278
得阿羅漢	-11.5279
龜毛	-11.5281
孤負	-11.5282
所宜	-11.5285
學佛	-11.5287
杳	-11.5289
楷	-11.5289
違順	-11.529
身界	-11.529
中亦	-11.529
沙門法	-11.5291
如風	-11.5291
之源	-11.5292
眾惡	-11.5292
嵐	-11.5296
途中	-11.5296
疑悔	-11.5299
後念	-11.5299
毀謗	-11.5299
麤重	-11.5299
三部	-11.5299
神仙	-11.53
亦與	-11.5301
學法	-11.5302
墓	-11.5303
▁靜	-11.5304
師以	-11.5304
總釋	-11.5304
反廣雅	-11.5305
誌	-11.5306
本生	-11.5307
千峰	-11.5308
辛苦	-11.5309
尿	-11.5309
鎚	-11.5309
出長房錄	-11.5311
歸去	-11.5312
中人	-11.5313
▁天童	-11.5313
想陰	-11.5313
拈拄杖云	-11.5314
而受	-11.5314
褥	-11.5315
▁比丘尼	-11.5316
由此因緣	-11.5317
焚燒	-11.5318
佛法中	-11.5318
若先	-11.5319
終教	-11.5319
當學	-11.5319
訟	-11.5321
菊	-11.5323
兩種	-11.5325
若受	-11.5325
資具	-11.5327
一大	-11.5329
從一	-11.533
凋	-11.533
非聖	-11.533
而言之	-11.533
方法	-11.5332
各得	-11.5332
若向	-11.5334
有漏法	-11.5336
釋迦如來	-11.5336
為相	-11.5336
拾得	-11.5337
纏縛	-11.5337
偈讚	-11.5338
經者	-11.534
不辨	-11.534
三頌	-11.5341
或因	-11.5343
超出	-11.5344
十二部	-11.5345
不休	-11.5345
一萬	-11.5345
為非	-11.5345
所縛	-11.5345
勝者	-11.5346
五門	-11.5347
還來	-11.5349
獄卒	-11.535
被他	-11.5351
紹興	-11.5352
起心	-11.5353
即自	-11.5354
義中	-11.5354
二萬	-11.5355
等義	-11.5356
逞	-11.5357
一地	-11.5359
與樂	-11.5361
行腳	-11.5362
波羅提木叉	-11.5363
終始	-11.5365
齋戒	-11.5366
講說	-11.5366
權教	-11.5367
對境	-11.5369
尊特	-11.5369
於中初	-11.5371
毗舍	-11.5372
頭指	-11.5376
即不然	-11.5376
法合	-11.5379
蒲團	-11.538
大身	-11.538
二根	-11.538
撞著	-11.5381
敬信	-11.5381
唯有一	-11.5382
元無	-11.5384
褒	-11.5384
娶	-11.5384
顯發	-11.5385
月明	-11.5387
蹄	-11.5387
冶	-11.5388
西山	-11.5389
五義	-11.5389
正為	-11.5389
種種諸	-11.5395
香爐	-11.5396
坤	-11.5396
摩耶	-11.5396
朴	-11.5397
漆	-11.5398
五百人	-11.5398
諸三昧	-11.5399
到家	-11.5403
五蓋	-11.5404
胸中	-11.5406
執金剛	-11.5409
菩薩藏	-11.541
太虛	-11.541
郊	-11.5411
好手	-11.5412
乾慧	-11.5415
呵呵	-11.5415
乃名	-11.5416
捺囉	-11.5416
非得	-11.5416
與眾生	-11.5419
人言	-11.5423
二祖	-11.5424
不思議界	-11.5424
溝	-11.5424
描	-11.5425
妙心	-11.5427
無記心	-11.5427
汝是	-11.5428
不可壞	-11.5428
喫棒	-11.5429
背捨	-11.543
▁於彼	-11.5431
正使	-11.5434
即事	-11.5435
枷	-11.5438
本體	-11.5441
一對	-11.5441
問之	-11.5441
▁告	-11.5444
尹	-11.5445
法樂	-11.5445
▁初總	-11.5445
仁義	-11.5447
廣博	-11.5449
共相空	-11.545
十重	-11.5451
四地	-11.5457
其罪	-11.5458
摩訶迦葉	-11.5458
一多	-11.5459
看經	-11.5459
近事	-11.5459
之首	-11.5459
下第三	-11.546
自歸	-11.5461
士云	-11.5462
明年	-11.5463
後起	-11.5463
使其	-11.5464
惡世	-11.5464
應如	-11.5465
无	-11.5465
不增	-11.5466
國名	-11.5466
結緣	-11.5467
記得	-11.5468
便作	-11.547
名身	-11.547
寧有	-11.5471
過此	-11.5473
入地	-11.5476
數日	-11.5476
示眾曰	-11.5478
供養諸佛	-11.5478
青黃	-11.5478
三昧門	-11.548
不遍	-11.548
呪曰	-11.548
掀翻	-11.548
▁遠離	-11.5481
尉	-11.5483
心源	-11.5483
是為十	-11.5483
火光	-11.5484
萬人	-11.5485
高廣	-11.5485
本非	-11.5486
▁弟子	-11.5486
大般若波羅蜜多經	-11.5486
三因	-11.5487
跋陀羅	-11.549
便禮拜	-11.549
此印	-11.549
愛語	-11.5491
棗	-11.5493
迦囉	-11.5494
參究	-11.5494
二喻	-11.5495
結繫	-11.5496
詩云	-11.5499
朵	-11.55
妹	-11.55
攜	-11.55
多所	-11.55
▁文殊師利	-11.55
滅則	-11.5502
交涉	-11.5503
中觀	-11.5506
一代	-11.5506
一丈	-11.5509
語默	-11.551
共有	-11.5511
容易	-11.5512
知根	-11.5512
各隨	-11.5513
我此	-11.5513
打鼓	-11.5514
帝曰	-11.5515
明菩薩	-11.5517
凉	-11.5517
有聲	-11.5521
普明	-11.5522
性自	-11.5526
聞巳	-11.5527
先釋	-11.5527
能度	-11.553
▁第七	-11.5531
埋沒	-11.5532
釋此	-11.5533
悟解	-11.5533
更問	-11.5534
禦	-11.5534
藏主	-11.5534
羣生	-11.5536
觀同上	-11.5537
淨地	-11.5538
次名	-11.5543
所解	-11.5546
以杖	-11.5546
化主	-11.5547
釜	-11.5548
概	-11.5548
碩	-11.5548
一切法無	-11.5549
婬女	-11.5551
菩薩住	-11.5551
三受	-11.5553
無漏智	-11.5553
二師	-11.5553
為常	-11.5555
阿耨	-11.5555
稱量	-11.5556
教主	-11.5557
義通	-11.5558
因而	-11.556
六群	-11.5562
捨戒	-11.5567
其徒	-11.5568
尊者阿難	-11.5569
庶幾	-11.5571
垣	-11.5572
甚大	-11.5572
宣揚	-11.5572
遞相	-11.5573
僧眾	-11.5573
便作是念	-11.5573
▁許	-11.5573
造論	-11.5574
盂	-11.5575
今何	-11.558
三心	-11.5581
協	-11.5582
諸波羅蜜	-11.5584
窠	-11.5587
普為	-11.5588
之藏	-11.5591
玄妙	-11.5592
法席	-11.5593
一掌	-11.5593
南岳	-11.5594
下隨釋	-11.5594
卷上	-11.5595
可觀	-11.5595
墮地	-11.5597
雙林	-11.5598
即起	-11.5598
諍論	-11.5599
來處	-11.5599
世尊告	-11.56
古德云	-11.5602
翔	-11.5602
先須	-11.5603
何意	-11.5606
□□□	-11.5608
凡情	-11.561
祖道	-11.561
問如何	-11.5614
你道	-11.5615
無門	-11.5616
如是名為	-11.5617
拔苦	-11.5618
等取	-11.5618
七大	-11.5619
不重	-11.562
結示	-11.5624
雜色	-11.5626
於過去	-11.5626
地者	-11.5626
僧無對	-11.5627
不應作	-11.5629
江河	-11.5629
羅什	-11.5629
鎔	-11.563
之真	-11.5632
對眾	-11.5633
願行	-11.5634
實為	-11.5636
竇	-11.5637
真覺	-11.5638
生空	-11.5638
心量	-11.5641
勳	-11.5641
向這裏	-11.5642
上至	-11.5643
靠	-11.5644
榜	-11.5645
準此	-11.5646
後後	-11.5646
聞見	-11.5647
落在	-11.5649
月八日	-11.5651
媚	-11.5652
離生性	-11.5654
行布施	-11.5654
性本	-11.5657
普化	-11.5657
經義	-11.5658
販	-11.5658
二子	-11.5661
何言	-11.5664
行苦	-11.5666
涅槃者	-11.5667
二偈頌	-11.5668
救濟	-11.5669
即名為	-11.567
入三昧	-11.5673
裔	-11.5673
兩處	-11.5674
上莫	-11.5679
便知	-11.568
撐	-11.568
為身	-11.5682
四悉	-11.5683
石室	-11.5684
揀擇	-11.5685
能盡	-11.5685
家人	-11.569
又能	-11.5691
釋迦牟尼	-11.5694
吝	-11.5694
揆	-11.5694
摩那	-11.5694
要見	-11.5695
獨坐	-11.5696
甚處來	-11.5699
約法	-11.5699
觸為緣	-11.57
千山	-11.57
樹木	-11.5701
斷諸	-11.5705
當頭	-11.5708
前生	-11.5708
得無生忍	-11.5709
埵	-11.571
法華云	-11.5711
紛紛	-11.5712
央	-11.5713
安能	-11.5713
隨情	-11.5714
菩提樹下	-11.5714
異見	-11.5717
今解	-11.5719
是諸菩薩	-11.5722
傳授	-11.5723
不審	-11.5723
汝身	-11.5725
離心	-11.5725
大愚	-11.5726
約理	-11.5727
謂言	-11.5727
淨飯王	-11.5731
當與	-11.5732
迷悶	-11.5732
無取	-11.5734
時王	-11.5734
眸	-11.5736
無減	-11.5737
苦苦	-11.5737
別境	-11.5737
四倒	-11.5738
之殊	-11.5739
此有	-11.5745
法座	-11.5745
得意	-11.5745
中所有	-11.5745
同生	-11.5745
舍利弗言	-11.5746
不除	-11.5747
邪婬	-11.5747
求道	-11.575
但知	-11.575
世間解	-11.575
能使	-11.575
先聖	-11.5751
涅槃云	-11.5751
捨心	-11.5753
三初	-11.5755
離言	-11.5756
▁二答	-11.5756
淨不淨	-11.5759
復還	-11.576
真佛	-11.5761
爭得	-11.5762
但依	-11.5764
演曰二	-11.5765
所繫	-11.5767
般泥洹	-11.5767
之路	-11.5768
不可取	-11.5768
大僧	-11.577
後漢	-11.577
法印	-11.5771
底麼	-11.5771
不語	-11.5774
空花	-11.5778
有犯	-11.5778
鱉	-11.5778
不曉	-11.5779
十五年	-11.5779
今更	-11.5782
作淨	-11.5782
▁第十	-11.5783
柔和	-11.5783
▁誰	-11.5784
幻師	-11.5785
寵	-11.5785
顯露	-11.5786
種種因緣	-11.5787
異熟生	-11.5788
若入	-11.5788
非定	-11.5789
所破	-11.5789
但隨	-11.5793
要識	-11.5794
如前所說	-11.5797
無生智	-11.5797
向外	-11.5798
不隔	-11.5799
采	-11.5799
覺意	-11.5801
生死海	-11.5802
聞思	-11.5802
故次	-11.5802
不能盡	-11.5803
夢幻	-11.5805
師乃云	-11.5805
三名	-11.5806
寂寂	-11.5806
酢	-11.5807
那含	-11.5809
別行	-11.581
惱害	-11.5811
字從	-11.5815
臭穢	-11.5816
萬善	-11.5818
養育	-11.582
天地間永流通	-11.5821
不妄	-11.5821
即色	-11.5823
出罪	-11.5824
同彼	-11.5824
無縛	-11.5825
佛與	-11.5826
既見	-11.5827
餘九	-11.5827
卷第六	-11.5828
怨敵	-11.5829
得記	-11.583
動地	-11.583
金剛杵	-11.5831
頭角	-11.5835
轉輪	-11.5835
丞相	-11.5836
然燈佛	-11.5838
之想	-11.5839
生死苦	-11.584
其光	-11.584
引生	-11.5841
同類因	-11.5841
這佛法	-11.5844
三匝	-11.5844
智德	-11.5846
上半	-11.5848
冒	-11.5849
容有	-11.5849
求其	-11.5852
安國	-11.5854
子細	-11.5855
實爾	-11.5856
而終	-11.5856
曠劫	-11.5856
專念	-11.5857
祖意	-11.5858
圓寂	-11.5859
來生	-11.586
萎	-11.5863
因名	-11.5863
佛母	-11.5864
證理	-11.5869
也說文云	-11.5871
波利	-11.5872
四十五	-11.5874
同此	-11.5874
常自	-11.5874
不知有	-11.5875
離塵	-11.5878
異說	-11.5878
無二無別	-11.588
種種莊嚴	-11.5881
自悟	-11.5881
又前	-11.5884
諧	-11.5885
向者裏	-11.5885
▁佛告善現	-11.5885
不證	-11.5886
所不	-11.5886
他身	-11.5887
常說	-11.5888
本經	-11.5889
▁又法	-11.589
悲愍	-11.5891
卷下	-11.5891
聖僧	-11.5895
禪寺	-11.5895
心想	-11.5897
尊重讚歎	-11.5898
􂌞	-11.5899
踵	-11.5899
亦具	-11.5901
之謂也	-11.5902
俱舍論	-11.5902
之難	-11.5902
其處	-11.5902
同故	-11.5903
白佛言世尊	-11.5904
一重	-11.5904
華嚴經云	-11.5912
唯願世尊	-11.5912
現生	-11.5914
文帝	-11.5917
獨步	-11.5917
又如何	-11.5922
天目	-11.5922
答此	-11.5924
然雖如是	-11.5924
應物	-11.5924
假實	-11.5925
等心	-11.5926
聞性	-11.5926
開法	-11.5927
這一	-11.5927
識住	-11.5927
綜	-11.5928
不答	-11.5928
知已	-11.5931
無上士	-11.5933
撒手	-11.5933
天華	-11.5934
嵩山	-11.5934
發大	-11.5934
我及	-11.5935
現有	-11.5936
不自在	-11.5936
之失	-11.5938
芻	-11.5938
常寂	-11.5938
正意	-11.594
是有為	-11.594
皈依	-11.5941
空門	-11.5941
像前	-11.5942
佛功德	-11.5942
同喻	-11.5946
前行	-11.5949
我從	-11.5949
不虛妄性	-11.5949
荊溪	-11.595
有支	-11.595
種生	-11.595
所逼	-11.5952
天中天	-11.5955
龍潭	-11.5956
支佛	-11.5957
今佛	-11.5958
窮盡	-11.596
馮	-11.5964
耳聞	-11.5967
法本	-11.5967
一百二十	-11.5967
唯然	-11.5968
結云	-11.5968
同聲	-11.5968
真法	-11.5969
吾師	-11.5969
普觀	-11.597
楞	-11.5972
之師	-11.5973
書記	-11.5973
自利利他	-11.5974
欣然	-11.5975
三摩地門	-11.5975
善利	-11.5976
下次	-11.5977
還生	-11.5979
▁西	-11.598
無上正	-11.598
肝	-11.598
大功德	-11.5981
涅槃經云	-11.5982
彭	-11.5983
問疾	-11.5983
處者	-11.5984
攸	-11.5985
前念	-11.5986
薦福	-11.5986
舉體	-11.5987
禪客	-11.5987
而用	-11.5987
寶物	-11.5991
籤	-11.5995
以見	-11.5996
末後句	-11.5996
不遇	-11.5997
不知其	-11.5998
喻中	-11.6
戲笑	-11.6
自在力	-11.6004
之方	-11.6004
餘比丘	-11.6005
通曰	-11.6006
藏通	-11.6006
隸	-11.6007
阿毘達磨	-11.6007
族姓	-11.6007
非擇滅	-11.6012
我知	-11.6012
芒	-11.6014
藻	-11.6014
為我說	-11.6018
出其	-11.6018
道故	-11.6018
▁有情	-11.6018
告諸	-11.6019
苦者	-11.602
能令眾生	-11.6021
東晉	-11.6021
之實	-11.6023
煥	-11.6026
進趣	-11.6026
穢土	-11.6026
持名	-11.6027
割截	-11.6027
付法	-11.6028
散心	-11.6028
大乘者	-11.6028
擅	-11.6028
慨	-11.6029
百姓	-11.6032
決疑	-11.6033
樂著	-11.6033
周旋	-11.6033
或依	-11.6033
四釋	-11.6033
疑網	-11.6034
具此	-11.6035
饌	-11.6036
黃蘗	-11.6036
盡形壽	-11.6039
▁正覺	-11.6041
近日	-11.6041
黃門	-11.6043
窓	-11.6043
勸發	-11.6045
中亦有	-11.6046
濯	-11.605
以空	-11.6051
▁答言	-11.6053
見法	-11.6054
散華	-11.6058
愁憂	-11.6059
比智	-11.6059
迦樓羅	-11.6062
▁雜	-11.6063
不變異性	-11.6065
有苦	-11.6066
特為	-11.6069
說三乘	-11.607
,「	-11.6071
出要	-11.6071
成菩提	-11.6072
正破	-11.6073
如月	-11.6075
還見麼	-11.6076
下正明	-11.6077
滄海	-11.6077
得安樂	-11.6078
與諸人	-11.6078
十四卷	-11.6079
在心	-11.608
冤家	-11.608
是否	-11.6083
唯以	-11.6084
前言	-11.6084
八戒	-11.6084
為何	-11.6085
偈中	-11.6085
若云	-11.6085
花香	-11.6085
至道	-11.6087
尊勝	-11.6088
隨文	-11.6088
曾聞	-11.6089
從本	-11.609
▁哉	-11.609
語曰	-11.6092
自從	-11.6094
等五	-11.6096
漆桶	-11.6097
施食	-11.6098
所犯	-11.61
旻	-11.6101
胤	-11.6101
▁永	-11.6103
令離	-11.6104
現在世	-11.6106
▁十一	-11.6106
地神	-11.6106
瑞應	-11.6107
非學非無學	-11.6108
溼	-11.6108
犍	-11.6109
一釋	-11.6111
歎佛	-11.6112
▁十方	-11.6117
龐	-11.6118
菩薩於	-11.612
除遣	-11.6121
數百	-11.6122
懿	-11.6123
苦智	-11.6124
薦取	-11.6125
既至	-11.6127
及乎	-11.6127
悲願	-11.6129
玄奘	-11.6129
郁	-11.613
慧菩薩	-11.6131
▁二正	-11.6133
法喜	-11.6133
契經說	-11.6134
為破	-11.6136
洋	-11.6136
即法身	-11.6137
幢幡	-11.6139
一切三摩地門	-11.6139
他物	-11.6139
瑟吒	-11.614
菩薩眾	-11.6141
不具足	-11.6142
除其	-11.6142
護身	-11.6143
性起	-11.6143
鵬	-11.6145
十義	-11.6146
大富	-11.6148
無變異空	-11.615
阿賴耶	-11.615
求佛道	-11.6152
下手	-11.6152
身壞命終	-11.6153
佛滅後	-11.6153
文略	-11.6153
▁嚩	-11.6153
菩薩以	-11.6156
七百	-11.6159
性非	-11.6159
睛	-11.6159
意觸為緣所生諸受	-11.616
新學	-11.616
永盡	-11.6162
稠	-11.6163
受具戒	-11.6164
儀式	-11.6165
勸人	-11.6167
顒	-11.6167
邃	-11.6167
觜	-11.6167
蚊	-11.6167
未及	-11.6169
不執	-11.6169
已離	-11.6169
法音	-11.617
第十五	-11.6172
老師	-11.6172
計有	-11.6174
此日	-11.6174
桐	-11.6174
好看	-11.6175
故說為	-11.6175
森	-11.6178
而歸	-11.6179
頭面	-11.618
會上	-11.6181
邇	-11.6181
不留	-11.6182
異處	-11.6182
盧舍那	-11.6182
善根迴向	-11.6183
障道	-11.6186
出界	-11.6186
想者	-11.6187
諸門	-11.6187
推之	-11.619
妙義	-11.619
自性清淨	-11.6192
摩尼珠	-11.6195
死時	-11.6198
聖王	-11.6202
悋	-11.6203
▁此是	-11.6203
又音	-11.6204
調柔	-11.6204
眾魔	-11.6205
指前	-11.6208
所疑	-11.6208
十地菩薩	-11.6209
為食	-11.6209
此生	-11.621
何在	-11.621
為淨	-11.6211
池中	-11.6212
聞持	-11.6216
四結	-11.6218
能了知	-11.6218
𡰱	-11.6218
無量光	-11.622
雖異	-11.622
足以	-11.6223
梵世	-11.6225
四聖	-11.6226
不厭	-11.6229
七處	-11.6231
灼然	-11.6231
正命	-11.6234
沙門婆羅門	-11.6235
陞堂	-11.6236
名句	-11.6237
行善	-11.6237
蹉	-11.6239
前境	-11.624
如是知	-11.624
断	-11.6241
禿	-11.6241
嗢	-11.6241
華鬘	-11.6241
迅	-11.6243
我本	-11.6243
於一切眾生	-11.6243
吳興	-11.6244
性海	-11.6246
敗壞	-11.6247
▁佛在	-11.6248
所獲	-11.625
世所	-11.6251
▁一切法	-11.6252
諸天眾	-11.6252
▁當知	-11.6253
漢書	-11.6254
天竺三藏	-11.6255
若佛子	-11.6256
▁周	-11.6257
正直	-11.6257
正性	-11.6257
行門	-11.6257
開權	-11.6258
啼哭	-11.6259
之矣	-11.6259
非善	-11.6259
捨墮	-11.626
宛轉	-11.6261
又非	-11.6262
靈源	-11.6263
由來	-11.6264
鐸	-11.6265
麤細	-11.6266
阿那律	-11.6266
功勳	-11.6267
九句	-11.6267
自受	-11.6268
自無	-11.6268
獨立	-11.6269
飲水	-11.6269
除病	-11.627
廣分別	-11.627
巳盡	-11.6271
若至	-11.6271
一輪	-11.6271
佛告大慧	-11.6272
塵塵	-11.6273
腐	-11.6274
之念	-11.6275
實事	-11.6275
修禪	-11.6275
酉	-11.6275
不測	-11.6276
亦乃	-11.6277
自成	-11.6278
出身	-11.6278
道不得	-11.6278
妄言	-11.6279
一笑	-11.628
菩薩得	-11.628
若遇	-11.6282
此天	-11.6284
㝡	-11.6285
兩行	-11.6287
百川	-11.6289
加被	-11.6292
椽	-11.6292
愛取	-11.6295
俱名	-11.6295
因位	-11.6296
白如是	-11.6297
執事	-11.6298
活計	-11.6299
二業	-11.6299
作什麼	-11.6299
過未	-11.6299
諸法空	-11.6302
得如是	-11.6302
熊	-11.6302
求索	-11.6302
餘義	-11.6302
闍維	-11.6302
二云	-11.6302
即是如來	-11.6303
如佛所說	-11.6304
馬大師	-11.6307
▁【【■	-11.6307
矛	-11.6307
故使	-11.6307
人事	-11.631
是眾生	-11.631
靈雲	-11.6311
於無量	-11.6312
未久	-11.6314
猜	-11.6315
從初發心	-11.6316
善惡業	-11.6317
相資	-11.632
不能見	-11.632
瞋心	-11.632
以事	-11.6321
十八卷	-11.6321
種種色	-11.6321
五十六	-11.6322
更說	-11.6322
椀	-11.6322
再來	-11.6324
器世間	-11.6326
澡浴	-11.6326
已還	-11.6328
呼為	-11.633
重釋	-11.6331
香水海	-11.6332
以心	-11.6333
還他	-11.6335
爆	-11.6336
囑累	-11.6337
脾	-11.6337
來往	-11.6337
為生	-11.6337
六師	-11.6338
更互	-11.6338
故先	-11.6338
千劫	-11.6339
人生	-11.634
拈花	-11.6341
法生	-11.6343
隨義	-11.6343
乞師	-11.6343
教誨	-11.6344
僧伽藍	-11.6345
下引證	-11.6348
本起	-11.6348
無滯	-11.635
於此中	-11.6351
入理	-11.6353
櫱	-11.6354
十二月	-11.6354
能通	-11.6355
本為	-11.6355
▁恒	-11.6356
名善	-11.6356
路上	-11.6357
遍法界	-11.6357
見於	-11.6358
二世	-11.6358
三世佛	-11.6359
速證	-11.6359
華嚴云	-11.6359
為菩薩	-11.636
陛	-11.636
無癡	-11.636
▁示眾云	-11.6362
不巳	-11.6363
決了	-11.6363
成大	-11.6363
山水	-11.6365
氣息	-11.6367
瑕	-11.6368
機關	-11.6371
耆婆	-11.6371
下云	-11.6371
大梵	-11.6373
紐	-11.6375
眾聖	-11.6375
諸天人	-11.6375
道無	-11.6376
西國	-11.6377
心得	-11.6379
意地	-11.6379
入胎	-11.638
身識	-11.6381
定是	-11.6381
言詞	-11.6381
無位真人	-11.6382
分上	-11.6384
唯見	-11.6385
其猶	-11.6385
誼	-11.639
何謂為	-11.6391
便休	-11.6393
總舉	-11.6394
盡形	-11.6395
有眼	-11.6395
寶山	-11.6396
藏教	-11.6397
崑崙	-11.6397
牧牛	-11.6399
等閑	-11.64
真身	-11.6401
太原	-11.6402
斯乃	-11.6402
海雲	-11.6403
便去	-11.6403
曇摩	-11.6404
與果	-11.6405
次辨	-11.6405
卷第二十	-11.6405
風光	-11.6407
云何菩薩摩訶薩	-11.6408
佇	-11.641
會也	-11.6411
悼	-11.6412
秊	-11.6412
嚴身	-11.6413
讚嘆	-11.6414
此門	-11.6421
諍訟	-11.6421
蹤跡	-11.6421
為汝說	-11.6422
生滅門	-11.6424
於佛前	-11.6426
▁般若波羅蜜多	-11.6427
企	-11.6427
從地	-11.6428
名異	-11.6429
龍池	-11.6429
自下第二	-11.6431
莫有	-11.6433
▁佛告阿難	-11.6433
必先	-11.6436
之稱	-11.6439
慈悲心	-11.644
那得	-11.644
天下之	-11.6441
擡	-11.6442
爇	-11.6442
何等為四	-11.6443
高僧	-11.6443
首山	-11.6443
雖云	-11.6444
殺之	-11.6448
德佛	-11.6448
對首	-11.645
一根	-11.6451
勸令	-11.6451
憚	-11.6452
因成	-11.6452
略示	-11.6453
誰敢	-11.6455
戮	-11.6457
佛剎微塵數	-11.6457
五支	-11.6458
德行	-11.646
應先	-11.646
寺沙門	-11.6461
欲說	-11.6462
三車	-11.6463
徽	-11.6463
多年	-11.6463
照了	-11.6464
結反	-11.6466
生等	-11.6467
法雲地	-11.6468
司馬	-11.6468
釋梵	-11.6469
潤生	-11.647
明星	-11.647
王之	-11.647
攢	-11.6472
世尊告諸比丘	-11.6472
不增不減	-11.6473
出時	-11.6473
妙圓	-11.6473
明相	-11.6477
互用	-11.6479
八方	-11.648
▁潭州	-11.648
初學	-11.6481
過去諸佛	-11.6482
則同	-11.6482
或謂	-11.6483
分文	-11.6483
▁大慧	-11.6485
長水	-11.6486
霽	-11.6488
或作是說	-11.6488
提持	-11.6488
一機	-11.6489
浮圖	-11.6489
向後	-11.649
定無	-11.6491
上許	-11.6493
心所法	-11.6496
恒河沙等	-11.65
一念心	-11.65
隨流	-11.6501
壽昌	-11.6501
二界	-11.6502
說一乘	-11.6502
止持	-11.6503
二顯	-11.6503
溈	-11.6503
常隨	-11.6503
飛行	-11.6504
無罣礙	-11.6507
突出	-11.6507
兩字	-11.6508
上二界	-11.6508
吃	-11.651
遊方	-11.6511
非同	-11.6515
水精	-11.6516
持律	-11.6516
之句	-11.6517
▁密	-11.6519
相離	-11.652
▁號	-11.6521
起信論	-11.6521
緣識	-11.6521
白象	-11.6523
立宗	-11.6526
羈	-11.6526
釆	-11.6526
本所	-11.6527
二身	-11.6527
憶持	-11.6527
二利	-11.6528
遮那	-11.6533
曼荼羅	-11.6533
塵中	-11.6533
法塵	-11.6533
不驚	-11.6536
空閑	-11.6539
八句	-11.6539
彼一切	-11.654
留難	-11.654
入大	-11.6541
▁譯曰	-11.6542
耳界	-11.6543
段食	-11.6543
青原	-11.6546
如汝所說	-11.6546
不平	-11.6547
眾經	-11.6548
一會	-11.655
胎生	-11.6552
數珠	-11.6553
如是見	-11.6554
孤山	-11.6554
眼觸為緣所生諸受	-11.6556
▁怛	-11.6559
禪波羅蜜	-11.6561
身長	-11.6561
普見	-11.6562
香積	-11.6562
寒山	-11.6562
耻	-11.6564
平常	-11.6564
應現	-11.6564
問汝	-11.6565
聖種	-11.6567
敷座	-11.6567
不顛倒	-11.6567
斷善根	-11.6568
趂	-11.6568
願求	-11.6568
聲界	-11.6568
最大	-11.6569
於未來世	-11.6571
系	-11.6571
麵	-11.6571
小人	-11.6573
梵網	-11.6574
菴主	-11.6574
持明	-11.6577
皆然	-11.6578
木人	-11.658
遍處	-11.6581
瞋恨	-11.6581
無退	-11.6582
得食	-11.6582
亦由	-11.6583
功力	-11.6583
出息	-11.6585
遠行	-11.6586
罪報	-11.6586
爺	-11.6587
琅	-11.6587
▁二種	-11.6587
對面	-11.6587
我巳	-11.6588
▁娑	-11.6589
智度論	-11.659
天界	-11.6591
此六	-11.6592
如是則	-11.6596
次答	-11.6596
》,	-11.6597
德也	-11.6598
未為	-11.66
覰	-11.6602
致使	-11.6603
相去	-11.6604
總顯	-11.6604
意氣	-11.6605
香味觸	-11.6605
在地	-11.6606
證涅槃	-11.6607
千由旬	-11.6608
羅網	-11.6609
識等	-11.661
藏菩薩	-11.661
杭州	-11.6612
幻有	-11.6614
虎丘	-11.6614
奉獻	-11.6614
▁癡	-11.6615
三位	-11.6618
長空	-11.6618
甲冑	-11.6619
光明照	-11.662
▁今初	-11.6622
四十六	-11.6622
銳	-11.6624
圭	-11.6624
作麼生道	-11.6625
勾	-11.6625
客塵	-11.6626
寒熱	-11.6626
夜摩天	-11.6626
亦言	-11.6627
如意珠	-11.6627
衣物	-11.6629
夫婦	-11.663
不善根	-11.663
難測	-11.663
嚩囉	-11.663
滋味	-11.6631
方便品	-11.6632
亟	-11.6633
你若	-11.6637
百由旬	-11.6637
智論云	-11.6638
唯約	-11.6639
萬仞	-11.664
此據	-11.664
疑者	-11.6642
娘	-11.6642
一切有	-11.6644
渴仰	-11.6645
為空	-11.6646
鬬	-11.6646
▁次結	-11.6647
你諸人	-11.6648
等智	-11.665
於五	-11.665
▁稽首	-11.6651
諸菩薩等	-11.6651
顯真	-11.6652
不如法	-11.6652
若執	-11.6653
是智	-11.6655
十分	-11.6655
求那	-11.6655
下舉	-11.6656
圓成實	-11.6656
本文	-11.6657
三問	-11.666
東北	-11.6661
威勢	-11.6663
善思	-11.6665
▁曩謨	-11.6667
佛制	-11.667
撾	-11.6671
少欲知足	-11.6671
前問	-11.6673
所可	-11.6675
使我	-11.6676
眾同分	-11.6676
耳目	-11.6676
巳知	-11.6678
王菩薩	-11.6678
胎藏	-11.6679
雌	-11.6679
店	-11.6679
還同	-11.6679
無瞋	-11.668
眾曰	-11.668
▁智清淨	-11.6681
隴	-11.6687
羅睺	-11.6687
無漏心	-11.6687
即現	-11.6688
拯	-11.6689
以方便	-11.6689
本法	-11.6693
所傳	-11.6698
廣解	-11.67
裴	-11.6701
十度	-11.6701
佛世	-11.6702
失其	-11.6703
觀彼	-11.6705
舌界	-11.6707
遠離一切	-11.6708
蠱	-11.6709
版	-11.671
執取	-11.671
毀呰	-11.6711
令一切	-11.6711
小果	-11.6711
廓然	-11.6712
非生	-11.6713
起諸	-11.6713
有六種	-11.6713
紅爐	-11.6713
華開	-11.6714
次引	-11.6715
法滅	-11.6715
承上	-11.6716
於法界	-11.6717
猶存	-11.6717
無有異	-11.6717
大方廣佛華嚴經	-11.6718
煗	-11.6718
檀那	-11.6718
此教	-11.672
眾集	-11.672
則曰	-11.6721
自思惟	-11.6722
此三種	-11.6723
一舉	-11.6725
▁南無寶	-11.6726
過惡	-11.6727
有生滅	-11.6729
▁甲	-11.673
本云	-11.673
動著	-11.6731
,《	-11.6732
智度	-11.6732
摩頂	-11.6732
手眼	-11.6734
見諸佛	-11.6734
可言	-11.6738
二首	-11.6738
挍	-11.6738
我即	-11.6739
璞	-11.6741
自當	-11.6741
出興	-11.6743
品第四	-11.6744
有四句	-11.6744
自取	-11.6744
但於	-11.6745
若夫	-11.6745
業緣	-11.6746
闔	-11.6749
具大	-11.6749
理觀	-11.6751
故論云	-11.6752
果中	-11.6754
五十八	-11.6754
如來地	-11.6755
初示	-11.6756
噓	-11.6756
一微塵	-11.6756
第十四	-11.6758
值遇	-11.6758
白毫	-11.6759
非身	-11.676
正在	-11.6761
鐘聲	-11.6762
而欲	-11.6763
當為汝說	-11.6765
已成	-11.6766
通釋	-11.6766
非汝	-11.6766
木石	-11.6767
往還	-11.6767
▁二別	-11.677
不道	-11.677
之世	-11.6771
能招	-11.6771
金光	-11.6772
如是思惟	-11.6773
理應	-11.6774
者名為	-11.6774
方乃	-11.6774
純熟	-11.6774
下有	-11.6775
汝能	-11.6776
怛嚩	-11.6776
之甚	-11.6776
臺山	-11.6776
正示	-11.6778
寺中	-11.6779
贖	-11.678
最極	-11.6781
評曰	-11.6781
汝於	-11.6781
童真	-11.6786
▁鉢	-11.6786
他化自在天	-11.6787
不恁麼	-11.6787
以證	-11.6787
右膝著地	-11.6788
即離	-11.6789
自在王	-11.6789
正法眼	-11.679
一本	-11.679
隨人	-11.6791
向人	-11.6792
紫金	-11.6793
此大	-11.6796
護世	-11.6798
求生	-11.68
流行	-11.6801
辜	-11.6802
故不說	-11.6803
參差	-11.6803
作種種	-11.6803
增一	-11.6804
八相	-11.6805
欲愛	-11.6806
二解	-11.6807
半音	-11.6808
其行	-11.6808
十一年	-11.6811
真實義	-11.6812
樹上	-11.6814
周禮	-11.6815
一曲	-11.6816
格外	-11.6816
鼻界	-11.6816
無眾生	-11.6817
算數	-11.6818
喜根	-11.6818
弦	-11.6819
腋	-11.6819
書云	-11.6819
只此	-11.6819
七眾	-11.682
分外	-11.682
▁初正釋	-11.6821
年來	-11.6824
最尊	-11.6824
惡知識	-11.6824
章安	-11.6825
重說	-11.6826
捶	-11.6827
韜	-11.6827
哮吼	-11.6827
去處	-11.6827
切音	-11.6828
非他	-11.6829
若與	-11.6829
獲大	-11.683
欲往	-11.6831
帝網	-11.6833
惡事	-11.6834
人知	-11.6834
01	-11.6835
有形	-11.6836
大光	-11.6836
本地	-11.6837
無外	-11.6839
不二門	-11.6839
△	-11.684
殄	-11.6842
閫	-11.6842
修諸	-11.6844
如金剛	-11.6844
聽許	-11.6845
我先	-11.6845
眾妙	-11.6845
莊子	-11.6847
正勤	-11.6848
及一切	-11.685
大千世界	-11.6851
下去	-11.6852
百千億	-11.6853
地法	-11.6854
七支	-11.6855
黃色	-11.6855
十四年	-11.6855
疑也	-11.6856
卷之	-11.6857
慧力	-11.6858
初起	-11.6858
海底	-11.6859
然非	-11.686
謂曰	-11.686
各以	-11.6863
設教	-11.6863
甄	-11.6865
一口	-11.6865
師打云	-11.6865
仇	-11.6866
僧伽梨	-11.6867
長遠	-11.6868
十三年	-11.6869
之相也	-11.6871
器中	-11.6872
上堂云	-11.6873
掬	-11.6874
咲	-11.6874
構	-11.6874
撓	-11.6874
藏中	-11.6874
依之	-11.6875
襄	-11.6876
除此	-11.6878
自爾	-11.688
藥師	-11.688
▁弗	-11.688
滅法	-11.6882
酌	-11.6882
碗	-11.6882
聲聞辟支佛	-11.6883
了悟	-11.6885
四住	-11.6885
二正	-11.6888
識之	-11.6888
偷盜	-11.6888
粘	-11.689
胃	-11.689
有量	-11.6891
能覺	-11.6891
我無我	-11.6891
發業	-11.6891
食已	-11.6892
觀諸法	-11.6893
生涯	-11.6893
分別說	-11.6893
▁芻	-11.6894
海會	-11.6894
孰能	-11.6895
二品	-11.6895
只有	-11.6896
昭覺	-11.69
羅國	-11.6901
惟心	-11.6901
等物	-11.6902
徧照	-11.6902
▁毘	-11.6903
棒打	-11.6904
至極	-11.6904
茫然	-11.6906
▁場	-11.6907
切莫	-11.6908
歷代	-11.6911
無一法	-11.6911
說得	-11.6913
抖擻	-11.6913
窠臼	-11.6913
三拜	-11.6914
搖動	-11.6914
入法界	-11.6915
質礙	-11.6917
照耀	-11.692
身如	-11.6922
就初	-11.6923
厭患	-11.6925
落處	-11.6925
顯勝	-11.6925
當面	-11.6926
顯法	-11.6926
分別者	-11.6928
皺	-11.6929
卓拄杖	-11.6931
▁初分科	-11.6931
伴侶	-11.6932
之家	-11.6933
日照	-11.6934
右脇	-11.6934
三七日	-11.6935
瞬	-11.6936
邪道	-11.6936
泉云	-11.6937
清凉	-11.6941
剔	-11.6945
說是經	-11.6946
解制	-11.6947
過故	-11.6948
亦不離	-11.6948
莫作	-11.6948
青蓮	-11.695
入一	-11.6951
之風	-11.6952
即涅槃	-11.6953
先所	-11.6953
近分	-11.6955
千差	-11.6956
門開	-11.696
天之	-11.6961
▁三藏法師玄奘奉	-11.6961
縵	-11.6961
艾	-11.6961
晤	-11.6961
初參	-11.6961
論一卷	-11.6961
求菩提	-11.6963
大佛頂	-11.6963
毀犯	-11.6964
庵主	-11.6964
引文	-11.6964
長衣	-11.6965
或生	-11.6966
譯云	-11.6967
差別相	-11.6971
在目前	-11.6973
妄情	-11.6973
能善	-11.6974
此因	-11.6976
臨時	-11.6976
癰	-11.6977
▁丘尼	-11.6978
自類	-11.6979
入者	-11.6979
既巳	-11.6983
六門	-11.6985
見相	-11.6987
所有諸	-11.6988
貞元	-11.699
於佛法中	-11.6993
充足	-11.6993
刮	-11.6993
中根	-11.6993
問若	-11.6994
剎塵	-11.6995
此難	-11.6995
如來法身	-11.6997
壽者	-11.6998
遼	-11.6998
承天	-11.6999
化物	-11.6999
什麼處	-11.6999
五十七	-11.7
籌量	-11.7
脚下	-11.7
透得	-11.7001
分析	-11.7003
而證	-11.7004
破其	-11.7005
梢	-11.7009
縱使	-11.7009
今乃	-11.701
東海	-11.701
解也	-11.7011
㲲	-11.7012
呪願	-11.7013
即是佛	-11.7015
諸所有	-11.7015
大歡喜	-11.7016
令眾	-11.7018
下別釋	-11.7019
以一切法	-11.702
於欲界	-11.7021
翻經	-11.7024
所被	-11.7025
不同故	-11.7025
成就如是	-11.7026
此會	-11.7026
可也	-11.7028
二十五有	-11.7029
功成	-11.703
豈不見	-11.7031
無處所	-11.7032
如金	-11.7032
棃	-11.7033
亦不應	-11.7033
瞌睡	-11.7033
道安	-11.7036
▁諸天	-11.704
轉大法輪	-11.7041
是故菩薩	-11.7041
香味	-11.7043
為六	-11.7044
印呪	-11.7044
易知	-11.7046
心要	-11.7047
玄文	-11.7047
如初	-11.7049
罔措	-11.7049
荊溪云	-11.7049
合有	-11.7051
相依	-11.7051
共為	-11.7056
▁10:23:	-11.7056
垂手	-11.7056
當受	-11.7056
署	-11.7057
總為	-11.7057
中央	-11.7058
惡鬼	-11.7058
三玄	-11.706
稠林	-11.7061
攝法	-11.7062
大通	-11.7062
一說	-11.7063
超然	-11.7065
意顯	-11.7065
向甚麼處	-11.7067
得來	-11.7067
皆名為	-11.7068
境中	-11.7069
如影	-11.707
▁繫	-11.707
問若爾	-11.7071
祕密主	-11.7071
後心	-11.7072
定故	-11.7073
少有	-11.7073
秦言	-11.7073
琦	-11.7073
矚	-11.7073
賒	-11.7073
佛問	-11.7073
堂上	-11.7073
能成就	-11.7074
善者	-11.7074
祕藏	-11.7075
以此因緣	-11.7075
州人	-11.7075
修持	-11.7075
而反	-11.7076
類也	-11.7076
跋陀	-11.7077
南海	-11.7077
如天	-11.7078
通利	-11.7079
一轉語	-11.7079
何勞	-11.708
心如	-11.7081
身內	-11.7081
入塔	-11.7084
▁或有	-11.7084
▁里	-11.7085
十一卷	-11.7086
宜應	-11.7086
利眾生	-11.7086
善權	-11.7086
當云何	-11.7086
蔣山	-11.7087
周法界	-11.7087
建塔	-11.7089
從緣生	-11.709
雜心	-11.7091
獨行	-11.7092
自手	-11.7093
迷真	-11.7097
百里	-11.7098
虎狼	-11.7098
餘如	-11.7099
更無餘	-11.7101
無殊	-11.7102
波斯	-11.7103
已知	-11.7104
至佛所	-11.7106
其聲	-11.711
有道	-11.7113
上巨	-11.7114
不露	-11.7115
六字	-11.7116
一切境界	-11.7117
所住處	-11.7117
大小便	-11.7118
非滅	-11.7119
今夜	-11.7119
所染	-11.712
劫初	-11.712
不怖	-11.7121
罄	-11.7121
紅塵	-11.7122
中住	-11.7122
種種方便	-11.7122
無常等	-11.7122
既成	-11.7122
咽喉	-11.7122
影現	-11.7123
自念言	-11.7123
又無	-11.7123
受大戒	-11.7125
欲作	-11.7127
不律儀	-11.7127
僉	-11.7129
憂愁	-11.7132
不迷	-11.7132
勝於	-11.7133
巳滅	-11.7135
踢	-11.7136
董	-11.7136
奉佛	-11.7137
香界	-11.7137
可意	-11.7138
喻顯	-11.7138
師兄	-11.7139
畢竟淨故	-11.714
遠來	-11.714
言論	-11.7142
於何	-11.7142
若更	-11.7145
波頭摩	-11.7145
謂眾曰	-11.7148
未解	-11.7148
八苦	-11.7148
六反	-11.7151
終歸	-11.7153
憂根	-11.7153
若了	-11.7153
輥	-11.7153
緘	-11.7153
與眾	-11.7154
不同也	-11.7156
阿闍世王	-11.716
並無	-11.7162
賜紫	-11.7163
瞥	-11.7163
生天上	-11.7164
以大悲	-11.7164
五住	-11.7166
還本	-11.7167
五十四	-11.7167
真宗	-11.7167
▁是人	-11.7169
燦	-11.7169
此通	-11.7172
照用	-11.7172
真偽	-11.7173
▁歲	-11.7174
無色定	-11.7175
小大	-11.7177
葦	-11.7178
僚	-11.7178
云何言	-11.7179
【□	-11.718
佛德	-11.7182
安穩	-11.7184
滿中	-11.7184
淨名云	-11.7185
無苦	-11.7185
誥	-11.7186
前塵	-11.7186
安坐	-11.7187
隨方	-11.7191
師翁	-11.7192
奘	-11.7192
姊	-11.7192
一切相	-11.7193
瑤	-11.7194
諒	-11.7194
陌	-11.7194
為涅槃	-11.7194
易解	-11.7194
師言	-11.7196
雪竇顯	-11.7197
拈香云	-11.7197
四日	-11.7197
聞而	-11.7197
庭前	-11.7198
乃成	-11.7198
說諸法	-11.7199
是正	-11.7201
只見	-11.7201
鄭注	-11.7202
戟	-11.7202
四陰	-11.7203
熏修	-11.7204
語已	-11.7204
亦滅	-11.7205
六行	-11.7206
不加	-11.7206
得安隱	-11.7207
施等	-11.721
成其	-11.7211
佛寶	-11.7211
成故	-11.7213
第五卷	-11.7213
廣狹	-11.7215
洞然	-11.7215
指歸	-11.7217
具明	-11.7218
佛說法	-11.7218
具十	-11.7219
衣者	-11.7219
十二時中	-11.722
為得	-11.7221
卷第七	-11.7222
失於	-11.7222
失念	-11.7223
何益	-11.7225
證智	-11.7226
t	-11.7226
好醜	-11.7227
心亂	-11.7228
化之	-11.7232
聞思修	-11.7233
治病	-11.7233
諸眾	-11.7233
得未曾有	-11.7234
耗	-11.7235
青黃赤白	-11.7235
此喻	-11.7237
教意	-11.7241
六日	-11.7244
不動地	-11.7244
六品	-11.7247
未分	-11.7248
莫教	-11.7248
佛滅度後	-11.725
事作麼生	-11.7251
鄴	-11.7251
五德	-11.7251
嗣法	-11.7253
假有	-11.7254
了不可得	-11.7255
袁	-11.7256
無愧	-11.7256
且止	-11.7258
至十	-11.7259
三藏法師	-11.726
事畢	-11.726
知時	-11.726
全同	-11.7262
觸界	-11.7263
彼文	-11.7264
有分別	-11.7265
修成	-11.7269
大方	-11.727
今在	-11.727
如是事	-11.7271
生苦	-11.7271
▁億	-11.7271
甚深法	-11.7272
炳	-11.7272
證也	-11.7273
卷舒	-11.7274
經一部	-11.7276
訛也	-11.7278
▁二約	-11.7278
曰和尚	-11.7278
得悟	-11.7279
▁南无寶	-11.728
親屬	-11.728
家之	-11.7282
亦自	-11.7282
轉相	-11.7282
歎德	-11.7283
讎	-11.7283
下辨	-11.7283
奕	-11.7284
去此	-11.7284
癩	-11.7284
無瑕	-11.7285
十六卷	-11.7285
各一	-11.7285
後文	-11.7287
此山	-11.7289
右旋	-11.7289
是你	-11.729
膳	-11.7292
被人	-11.7292
陂	-11.7292
式叉摩那	-11.7292
裙	-11.7292
即心即佛	-11.7293
三惑	-11.7293
持呪	-11.7296
千億	-11.7296
挨	-11.73
名同	-11.7301
巳是	-11.7303
所纏	-11.7306
曰恁麼則	-11.7306
知佛	-11.7307
大將	-11.7308
略不	-11.7308
攔	-11.7309
於所	-11.731
靜慮波羅蜜多	-11.7311
行菩薩	-11.7313
所及	-11.7314
於苦	-11.7314
直入	-11.7315
二眾	-11.7316
師說	-11.7316
一切惡	-11.7316
者是也	-11.7317
万	-11.7317
與大	-11.7317
合論	-11.7317
常修	-11.7318
相入	-11.7322
共語	-11.7322
何等法	-11.7323
王經	-11.7323
諸惑	-11.7323
太史	-11.7324
樂聞	-11.7324
寇	-11.7325
慘	-11.7325
吾宗	-11.7326
循環	-11.7326
初發	-11.7327
蕩蕩	-11.7327
自心現	-11.7329
輕賤	-11.733
苦滅	-11.7331
一來果	-11.7331
見是	-11.7331
如所	-11.7333
淨者	-11.7333
先德	-11.7334
此性	-11.7335
上天	-11.7335
五穀	-11.7337
有五百	-11.7337
異時	-11.7338
有果	-11.7339
不清淨	-11.7339
子也	-11.7343
意明	-11.7343
放出	-11.7343
來詣	-11.7344
汲	-11.7345
白王	-11.7346
雷音	-11.7346
俗字也	-11.7347
到底	-11.735
荊州	-11.7351
敷演	-11.7352
堅實	-11.7352
之病	-11.7352
高僧傳	-11.7353
界者	-11.7354
透脫	-11.7354
常當	-11.7354
後五	-11.7355
▁以此	-11.7355
珪	-11.7358
珂	-11.7358
謂除	-11.7359
地也	-11.7359
不現前	-11.736
力能	-11.7361
擔荷	-11.7362
於涅槃	-11.7364
前所	-11.7364
聖心	-11.7364
故不可	-11.7366
十方一切	-11.7367
佛地論	-11.7367
造化	-11.7368
為根本	-11.7369
三惡	-11.7369
欣樂	-11.7372
來此	-11.7372
直截	-11.7373
覺禪師	-11.7374
貽	-11.7375
鴉	-11.7375
此段	-11.7375
如是之人	-11.7376
受等	-11.7379
踏著	-11.7379
師舉	-11.7381
生解	-11.7382
鬚髮	-11.7385
若要	-11.7385
孝子	-11.7386
正以	-11.7387
何因緣故	-11.7387
當行	-11.7388
之形	-11.7389
文殊師利菩薩	-11.739
姊妹	-11.7391
阿練若	-11.7391
古之	-11.7393
魔業	-11.7393
石蜜	-11.7396
二觀	-11.7397
後別	-11.7397
不生故	-11.7398
作是念已	-11.7398
道力	-11.7399
因義	-11.7399
釋前	-11.7399
中來	-11.74
見斷	-11.74
本不生	-11.7402
此觀	-11.7402
約義	-11.7402
大雄	-11.7406
彼宗	-11.7406
憾	-11.7408
文殊師利言	-11.7408
利益安樂	-11.7409
大行	-11.741
進前	-11.7411
大車	-11.7411
得證	-11.7413
居家	-11.7414
滅也	-11.7414
會稽	-11.7415
四空	-11.7416
位者	-11.7416
猴	-11.7416
睿	-11.7416
堯舜	-11.7417
丙	-11.7418
既以	-11.7419
區區	-11.7419
已見	-11.7419
無餘涅槃	-11.742
▁第八	-11.742
他國	-11.7421
秖是	-11.7422
發真	-11.7423
無量壽佛	-11.7423
憍陳如	-11.7425
何因緣	-11.7425
拓	-11.7425
審諦	-11.7426
▁佛如來	-11.7427
可不	-11.7427
願為	-11.7428
示以	-11.7428
法則	-11.743
▁亂	-11.743
知非	-11.743
發大心	-11.7431
謂如	-11.7431
芬	-11.7432
淨居天	-11.7433
是修	-11.7435
若有菩薩	-11.7436
謗法	-11.7437
相合	-11.7437
贍部洲	-11.7438
遂成	-11.7439
▁無邊	-11.7439
成就者	-11.7439
前解	-11.7441
智通	-11.7442
來迎	-11.7442
如上所說	-11.7444
發揮	-11.7444
據實	-11.7445
盡力	-11.7446
大有	-11.7447
時眾	-11.7448
齅	-11.7449
罵詈	-11.745
常生	-11.7451
無果	-11.7458
慧者	-11.7459
理會	-11.7459
湖南	-11.7463
昔人	-11.7463
▁一日	-11.7464
得衣	-11.7466
菩提薩埵	-11.7466
受化	-11.7468
位次	-11.7468
擇法	-11.7469
造惡	-11.7469
太白	-11.7469
諸塵	-11.7469
所表	-11.7469
斯義	-11.7471
泥犁	-11.7472
指出	-11.7474
▁謝	-11.7475
見在	-11.7475
形如	-11.7476
隨眾生	-11.7476
▁皇	-11.7478
戚	-11.748
塹	-11.7483
旌	-11.7483
領眾	-11.7483
謂菩薩	-11.7483
去者	-11.7484
出氣	-11.7485
苦因	-11.7485
初敘	-11.7485
用者	-11.7487
現識	-11.7487
白法	-11.7488
山海	-11.7489
一隻	-11.7489
應捨	-11.7491
上卷	-11.7491
輦	-11.7491
窄	-11.7491
拂袖	-11.7491
意作麼生	-11.7492
的的	-11.7492
▁寂	-11.7492
不常	-11.7493
▁甚麼	-11.7497
之水	-11.7497
數年	-11.7497
四無量心	-11.7498
亂想	-11.7499
四魔	-11.75
菩薩名	-11.7501
無所見	-11.7502
豈容	-11.7503
求解脫	-11.7503
太宗	-11.7503
別處	-11.7505
並非	-11.7507
聖人之	-11.7507
在手	-11.7507
悠	-11.7508
說一切法	-11.7508
岫	-11.7508
西晉	-11.7508
堪受	-11.7509
力者	-11.751
經疏	-11.751
有殊	-11.751
一切佛剎	-11.7511
▁志	-11.7512
親里	-11.7513
因緣者	-11.7513
犍度	-11.7514
指頭	-11.7515
活命	-11.7516
棄之	-11.7517
來日	-11.7517
離色	-11.7518
上子	-11.7519
去住	-11.7521
此與	-11.7521
▁察	-11.7522
此疑	-11.7523
戒場	-11.7523
知恩	-11.7524
形聲	-11.7526
肚	-11.7526
▁梁	-11.7528
深重	-11.7528
金剛心	-11.7529
過去現在	-11.7529
退屈	-11.7532
▁諸比丘	-11.7532
重擔	-11.7532
句非	-11.7533
欲入	-11.7533
大地獄	-11.7537
▁偈	-11.7537
狀如	-11.7538
此物	-11.7539
無所從來	-11.754
忖	-11.7542
緣所生	-11.7542
我人	-11.7543
于此	-11.7544
無缺	-11.7545
十劫	-11.7545
國界	-11.7546
所轉	-11.7546
凡人	-11.7546
性體	-11.7549
此後	-11.755
家中	-11.7552
甲子	-11.7552
阿師	-11.7552
地大	-11.7553
淨施	-11.7553
綱宗	-11.7554
舉喻	-11.7555
偏圓	-11.7555
二紙	-11.7556
後身	-11.7556
是故名	-11.7557
古云	-11.756
渺	-11.7561
離障	-11.7564
願佛	-11.7565
便可	-11.7566
極大	-11.7566
駐	-11.7567
如山	-11.7568
妙莊嚴	-11.7569
作聲	-11.757
四位	-11.7571
來求	-11.7572
老婆	-11.7573
廝	-11.7575
攘	-11.7575
方便者	-11.7576
黃葉	-11.7577
信行	-11.7579
天堂	-11.758
得樂	-11.7581
三依	-11.7582
瘂	-11.7584
於大眾中	-11.7584
東西南北	-11.7584
明此	-11.7585
也又音	-11.7587
受具足	-11.7588
虗空界	-11.7588
決斷	-11.7589
智體	-11.7591
異之	-11.7593
為別	-11.7594
前所說	-11.7594
大火	-11.7595
一切善根	-11.7595
古來	-11.7595
疾得	-11.7595
為自性	-11.7598
佛出	-11.76
嬾	-11.7601
皃	-11.7601
我在	-11.7601
經明	-11.7601
恒常	-11.7602
開門	-11.7603
三周	-11.7606
僧便喝	-11.7606
宿住	-11.7606
然也	-11.7608
塵埃	-11.7608
膿	-11.7609
諸家	-11.7609
合前	-11.7609
之慧	-11.761
此衣	-11.761
宰官	-11.7612
久久	-11.7613
大段	-11.7614
大施	-11.7616
始末	-11.7617
為除	-11.7618
雹	-11.7618
其前	-11.7618
何足	-11.7619
疏鈔	-11.762
師遂	-11.762
承佛	-11.762
若斷	-11.7621
普入	-11.7621
至一	-11.7622
公之	-11.7624
正位	-11.7625
▁淨土	-11.7626
惰	-11.7626
曼殊室利	-11.7626
▁思惟	-11.7628
一尺	-11.7629
王臣	-11.7629
質直	-11.763
所食	-11.763
佛智慧	-11.7632
無遮	-11.7636
爾許	-11.7636
置之	-11.7636
事如何	-11.7638
等文	-11.7638
便自	-11.764
真人	-11.764
妙玄	-11.7642
許之	-11.7643
颺	-11.7643
隨力	-11.7644
▁其心	-11.7644
願生	-11.7645
長跪	-11.7645
等說	-11.7647
後夜	-11.7647
非斷	-11.7648
如響	-11.7649
真如門	-11.765
所對	-11.7651
驕	-11.7652
制意	-11.7652
難言	-11.7652
有益	-11.7652
為妙	-11.7653
不放	-11.7653
數息	-11.7654
賢善	-11.7655
遍十方	-11.7655
▁拜	-11.7659
九日	-11.7659
剎帝利	-11.766
阿修羅王	-11.7663
鴛鴦	-11.7669
行行	-11.767
彼非	-11.767
三科	-11.7671
下卷	-11.7672
心與	-11.7673
身行	-11.7673
三昧者	-11.7673
即取	-11.7673
般若經	-11.7673
▁三明	-11.7675
安養	-11.7675
增上果	-11.7675
當時若	-11.7676
不似	-11.7676
及諸菩薩	-11.7679
為用	-11.7679
樹林	-11.768
雜集	-11.7681
一句子	-11.7682
為所依	-11.7683
况	-11.7686
要當	-11.7688
滄	-11.7688
苦報	-11.7689
欲取	-11.769
者哉	-11.769
中興	-11.7691
彼無	-11.7692
欲識	-11.7692
如來智慧	-11.7692
大雨	-11.7692
五體投地	-11.7694
利人	-11.7694
趺	-11.7695
無容	-11.7696
得免	-11.7697
應名	-11.7698
等言	-11.7698
我今當	-11.7699
獵師	-11.7699
先標	-11.77
說淨	-11.77
行履	-11.77
百千劫	-11.7702
姦	-11.7703
血肉	-11.7704
四五	-11.7707
別示	-11.7707
損益	-11.7709
無雜	-11.7709
久近	-11.7709
聲聞眾	-11.771
摩納	-11.7711
慎勿	-11.7711
鑛	-11.7711
高祖	-11.7713
▁是說	-11.7713
難事	-11.7714
同品	-11.7719
名等	-11.772
得不退轉	-11.772
蚤	-11.772
同安	-11.7721
入息	-11.7721
滅智	-11.7723
極重	-11.7726
為初	-11.7726
能分別	-11.7726
施行	-11.7727
湯藥	-11.7728
信力	-11.7729
誰道	-11.773
而下	-11.7731
與麼道	-11.7732
違背	-11.7733
此但	-11.7734
復次若	-11.7734
心數	-11.7735
不計	-11.7735
聖旨	-11.7736
玄旨	-11.7736
旨趣	-11.7737
山居	-11.7737
𨁝跳	-11.7737
業生	-11.7737
異門	-11.7738
本行	-11.7739
咸皆	-11.7739
▁細	-11.7741
不滯	-11.7743
謂諸菩薩	-11.7744
詭	-11.7746
匙	-11.7746
滿月	-11.7746
諸禪德	-11.7746
寶雲	-11.7749
半夜	-11.7749
在天	-11.775
六義	-11.7752
渧	-11.7754
盍	-11.7754
標名	-11.7758
▁蘊	-11.7759
善現當知	-11.7761
起用	-11.7762
妙華	-11.7763
春色	-11.7766
復起	-11.7766
放捨	-11.7768
十二入	-11.7769
無難	-11.7771
百法	-11.7771
▁鈔	-11.7772
無價	-11.7776
遍界	-11.7778
親證	-11.7779
喬	-11.778
腕	-11.778
金錢	-11.7781
而問	-11.7781
出入息	-11.7782
非為	-11.7784
隨眾	-11.7784
六萬	-11.7785
流傳	-11.7787
唯緣	-11.7787
黠	-11.7789
瓔	-11.7789
皤	-11.7789
甘蔗	-11.7789
破云	-11.7789
即從	-11.7792
法王子	-11.7794
牛羊	-11.7795
令行	-11.7797
▁安住	-11.7797
大心	-11.7797
覈	-11.7797
貪嗔	-11.7798
不孝	-11.7798
黑暗	-11.7799
欲行	-11.7799
六十二見	-11.7799
報佛	-11.7801
受我	-11.7803
方外	-11.7803
成佛時	-11.7803
於中二	-11.7804
且作麼生	-11.7804
耆闍崛山	-11.7806
滓	-11.7806
轟	-11.7806
知他	-11.7806
顯說	-11.7807
􂉓	-11.7809
塚	-11.7813
瑞巖	-11.7815
兩邊	-11.7816
靈巖	-11.7819
臆	-11.7823
天上天下	-11.7823
炊	-11.7823
瓢	-11.7823
酷	-11.7823
堅持	-11.7824
真是	-11.7824
試問	-11.7824
自非	-11.7824
體空	-11.7826
名真	-11.7828
涌出	-11.7828
我某甲	-11.7829
次復	-11.783
行布	-11.7832
爻	-11.7832
佛成道	-11.7834
▁祇	-11.7834
吹毛	-11.7835
三更	-11.7836
爾乃	-11.7837
如地	-11.7837
數千	-11.7838
徧法界	-11.7839
劃	-11.7841
演曰三	-11.7842
中指	-11.7843
所共	-11.7843
意生	-11.7843
選擇	-11.7843
▁淨故	-11.7844
內證	-11.7845
釋籤	-11.7847
四十九年	-11.7847
嫡	-11.7849
鈍置	-11.785
樂者	-11.7851
甚奇	-11.7853
定也	-11.7853
歸一	-11.7854
實體	-11.7854
色想	-11.7854
▁若能	-11.7855
得阿羅漢果	-11.7855
經書	-11.7856
復次善男子	-11.7856
異香	-11.7857
之深	-11.7857
胷	-11.7858
略也	-11.786
字義	-11.786
時諸比丘	-11.7862
捨者	-11.7862
具五	-11.7865
若將	-11.7865
亂心	-11.7865
八字	-11.7865
此相	-11.7866
便入	-11.7866
窣堵波	-11.7868
白牛	-11.7868
▁按	-11.7868
臨機	-11.7869
觀成	-11.7869
知心	-11.7871
緣中	-11.7872
諸臣	-11.7872
得其便	-11.7873
非親	-11.7874
所覺	-11.7874
性是	-11.7875
閭	-11.7876
斷者	-11.7876
不謬	-11.7877
因性	-11.7878
空過	-11.7879
弘法	-11.7879
讚言	-11.7881
不苦不樂	-11.7883
慧解脫	-11.7883
說偈言	-11.7884
道支	-11.7886
除諸	-11.7886
二文	-11.7889
圈	-11.789
增勝	-11.789
故唯	-11.7891
十三卷	-11.7892
能施	-11.7893
指南	-11.7894
森羅	-11.7894
穿鑿	-11.7895
進云恁麼則	-11.7898
秋風	-11.7898
別緣	-11.79
今觀	-11.7901
約事	-11.7901
繫心	-11.7901
上樹	-11.7901
眾生相	-11.7902
鵲	-11.7902
心解脫	-11.7902
書曰	-11.7902
終至	-11.7904
即具	-11.7906
初略	-11.7908
阿耨多羅三藐三菩	-11.791
俱轉	-11.791
縈	-11.791
十字街頭	-11.791
西來意	-11.7913
▁須菩提言	-11.7915
不善心	-11.7917
眾法	-11.7918
若僧	-11.7919
形體	-11.792
成論	-11.792
妙觀	-11.7921
自誓	-11.7921
生得	-11.7922
出山	-11.7925
序分	-11.7928
猛虎	-11.7928
斯事	-11.7931
十方三世	-11.7932
然於	-11.7934
二十卷	-11.7935
馳走	-11.7936
如是學	-11.7936
鑊	-11.7936
齧	-11.7937
業因	-11.7938
略無	-11.7938
助成	-11.7942
有功	-11.7942
亦從	-11.7942
從容	-11.7943
皆歸	-11.7944
來至此	-11.7945
不傳	-11.7945
老病死	-11.7945
無壞	-11.7945
惡不善法	-11.7946
未達	-11.7947
玉泉	-11.7947
清淨法身	-11.7949
在下	-11.795
與麼則	-11.795
▁曇	-11.7951
龍蛇	-11.7951
述成	-11.7951
無煩惱	-11.7951
悕	-11.7952
德本	-11.7953
智障	-11.7953
瞪	-11.7954
僧宗曰	-11.7955
鏡清	-11.7957
故但	-11.7959
施戒	-11.796
人能	-11.7962
淨水	-11.7962
以神力	-11.7964
圓妙	-11.7964
自受用	-11.7965
隨眠隨增	-11.7965
師云你	-11.7966
門頭	-11.7967
印度	-11.7967
古師	-11.797
撩	-11.7972
然雖	-11.7972
▁者何	-11.7972
▁若波羅蜜	-11.7974
精氣	-11.7974
捨家	-11.7975
蘖	-11.7976
新舊	-11.7977
下總結	-11.7978
僧事	-11.7978
▁摩訶	-11.7979
隨後	-11.7979
喜悅	-11.7979
方來	-11.798
後當	-11.798
s	-11.798
恱	-11.7981
婆伽婆	-11.7982
還我	-11.7983
願得	-11.7984
火聚	-11.7985
大集經	-11.7985
義門	-11.7985
倩	-11.7989
桶	-11.7992
復有一	-11.7993
不可計	-11.7996
師長	-11.7996
觀眾生	-11.7996
雲雨	-11.7998
緫	-11.7998
臨命終時	-11.7999
右邊	-11.7999
黃河	-11.8002
光宅	-11.8004
初解	-11.8006
詣彼	-11.8007
憩	-11.8007
非智	-11.8007
▁地獄	-11.8008
舍衛	-11.8008
快活	-11.8009
謂欲界	-11.8009
汝自	-11.801
山僧今日	-11.801
威音	-11.8011
好與	-11.8011
鑪	-11.8011
香象	-11.8013
▁喝	-11.8015
仲尼	-11.8016
三寸	-11.8016
相應者	-11.8021
緣了	-11.8022
斯人	-11.8022
得無生法忍	-11.8025
磚	-11.8025
大界	-11.8025
因緣和合	-11.8027
所有一切	-11.8028
依義	-11.8029
即依	-11.803
瓦石	-11.8031
門入	-11.8031
樂故	-11.8031
▁姓	-11.8033
然後乃	-11.8035
十八不共法	-11.8035
空法	-11.8035
木叉	-11.8036
集僧	-11.8036
其色	-11.8036
相空	-11.8038
是故我	-11.8038
修得	-11.804
有覆	-11.804
獨處	-11.8041
盟	-11.8042
衷	-11.8042
▁初敘	-11.8043
五果	-11.8044
花鬘	-11.8044
沒交涉	-11.8045
五大	-11.8045
本也	-11.8045
滅已	-11.8046
荷負	-11.8046
思惑	-11.8046
色根	-11.8047
則可	-11.805
龐居士	-11.8051
萃	-11.8051
其功	-11.8052
晃	-11.8052
證無上正等菩提	-11.8052
應學	-11.8054
伏藏	-11.8056
今亦	-11.8056
二取	-11.8056
餘事	-11.8057
上二句	-11.8061
▁濟	-11.8061
言詮	-11.8061
自能	-11.8062
到彼	-11.8063
愛盡	-11.8064
此岸	-11.8065
尚不能	-11.8066
安身立命	-11.8069
輯	-11.8069
著衣持鉢	-11.8069
相繼	-11.8069
舉其	-11.807
那伽	-11.807
正語	-11.807
義說	-11.8071
則墮	-11.8071
山頭	-11.8072
別傳	-11.8074
嬉戲	-11.8074
初夜	-11.8074
在人	-11.8075
以一切	-11.8075
有部	-11.8078
撼	-11.8078
十乘	-11.8078
不調	-11.8079
斷盡	-11.808
三大	-11.808
分證	-11.8081
宗趣	-11.8082
一頓	-11.8082
一百八遍	-11.8083
墮惡趣	-11.8084
▁天台	-11.8086
筌	-11.8087
淨天	-11.8088
六事	-11.8088
十小劫	-11.8088
火坑	-11.8089
中阿含	-11.809
白椎	-11.809
轉成	-11.8091
四無	-11.8091
萬事	-11.8091
非淨	-11.8094
遇緣	-11.8094
結跏趺坐	-11.8096
碓	-11.8096
雉	-11.8096
復得	-11.8097
若因	-11.8098
行蘊	-11.8098
正修	-11.8099
世間出世間	-11.8099
上都	-11.81
大梵天王	-11.81
▁南無善	-11.81
庫藏	-11.8101
中文	-11.8101
德相	-11.8101
二位	-11.8102
鑰	-11.8105
階級	-11.8105
下界	-11.8106
客比丘	-11.8107
善生	-11.8108
一宿	-11.8108
浮雲	-11.8109
皆在	-11.811
能隨	-11.8112
亦在	-11.8113
一粒	-11.8114
規矩	-11.8114
八正道	-11.8114
精進波羅蜜多	-11.8116
下語	-11.8119
比丘比丘尼	-11.8121
空三昧	-11.8122
繪	-11.8122
百味	-11.8123
安處	-11.8123
應得	-11.8123
依他性	-11.8125
根本無明	-11.8125
不可知	-11.8127
坡	-11.8129
婆娑	-11.8129
華光	-11.813
二偈	-11.813
麁細	-11.8132
生子	-11.8133
▁利弗	-11.8134
淨潔	-11.8136
隨法行	-11.8137
十智	-11.8137
▁幻	-11.8137
船子	-11.8138
深處	-11.8139
彊	-11.814
于今	-11.8143
凡夫人	-11.8143
戒相	-11.8144
為眾生故	-11.8144
不顯	-11.8144
無增減	-11.8147
革屣	-11.8147
怨賊	-11.8147
福聚	-11.8149
慧光	-11.8149
亞	-11.8149
惣	-11.8149
▁悔	-11.8149
腹中	-11.815
如是菩薩	-11.8151
棒喝	-11.8151
我自	-11.8152
幡蓋	-11.8153
著力	-11.8156
四邊	-11.8156
山前	-11.8157
▁徑山	-11.8158
─	-11.8158
▁述	-11.8159
說文云	-11.8159
無一物	-11.816
肇公	-11.816
非緣	-11.8161
堪為	-11.8161
次三	-11.8162
若多	-11.8164
登地	-11.8165
堪笑	-11.8165
三轉	-11.8166
玄門	-11.8166
睒	-11.8167
同處	-11.8168
若有比丘	-11.8168
題目	-11.8169
明眼	-11.817
方便力	-11.8171
阿彌	-11.8172
報佛恩	-11.8174
檻	-11.8176
虹	-11.8176
黑闇	-11.8176
獨尊	-11.8179
諸境	-11.818
邪法	-11.8181
來集	-11.8182
事若何	-11.8182
第十地	-11.8183
▁十五	-11.8183
技	-11.8184
沙門釋子	-11.8184
性即	-11.8185
見苦所斷	-11.8185
入院	-11.8185
常懷	-11.8186
便宜	-11.8186
良藥	-11.8186
林泉	-11.8189
白四羯磨	-11.8189
識中	-11.819
便謂	-11.8192
八十一	-11.8192
此二種	-11.8193
幅	-11.8194
報化	-11.8197
莫非	-11.8197
戒定	-11.8199
阿耨多羅三	-11.8199
却是	-11.8199
支節	-11.8199
見眾生	-11.8199
邊地	-11.8201
塢	-11.8203
始於	-11.8204
且道是	-11.8205
自為	-11.8206
遍一切處	-11.8207
若望	-11.8207
大般涅槃	-11.8208
等名	-11.8208
外物	-11.8209
初又二	-11.8209
阿耨菩提	-11.8209
異生性	-11.8211
▁剎	-11.8213
絕言	-11.8215
太祖	-11.8215
俱得	-11.8215
▁復如是	-11.8216
草堂	-11.8217
有疾	-11.822
▁提心	-11.822
哥	-11.8221
句句	-11.8221
悶絕	-11.8222
次二句	-11.8222
准知	-11.8223
兩人	-11.8224
即用	-11.8224
心不相應行	-11.8225
三請	-11.8225
波濤	-11.8226
一拜	-11.8226
從頭	-11.8226
於大乘	-11.8226
諸法皆	-11.8228
昔時	-11.8229
執為	-11.8229
還委悉麼	-11.823
彫	-11.823
無妄	-11.8231
與比丘	-11.8231
迦絺那衣	-11.8232
則與	-11.8234
聞名	-11.8234
歸堂	-11.8235
為君	-11.8235
形容	-11.8236
清白	-11.8238
歡喜地	-11.8238
始教	-11.8239
恐人	-11.824
玉女	-11.824
明覺	-11.824
他受用	-11.8241
六十三	-11.8242
寂寥	-11.8242
神我	-11.8242
監院	-11.8244
塔寺	-11.8245
或問	-11.8245
於義	-11.8246
極則	-11.8246
三千界	-11.8248
疲倦	-11.8248
對待	-11.8251
一理	-11.8252
即說偈言	-11.8252
定當	-11.8253
為世	-11.8256
訴	-11.8257
若觀	-11.8258
應為	-11.8258
空無邊處	-11.8259
品之	-11.8261
五教	-11.8261
生老死	-11.8261
物外	-11.8262
學戒	-11.8262
違犯	-11.8263
食噉	-11.8264
戒中	-11.8265
滲漏	-11.8266
當用	-11.8269
末香	-11.8269
且莫	-11.8269
鐵圍山	-11.827
擲下	-11.8273
樂住	-11.8274
n	-11.8275
憒	-11.8275
蠢	-11.8275
僧今	-11.8276
此類	-11.8279
如王	-11.8279
淨戒波羅蜜多	-11.828
誦此	-11.828
十二支	-11.8281
如化	-11.8283
沓	-11.8284
有一比丘	-11.8285
古鏡	-11.8285
之惑	-11.8285
是有法	-11.8285
寂寞	-11.8286
入嚩	-11.8286
彼言	-11.8287
能救	-11.8287
所宗	-11.8287
思益	-11.8289
即位	-11.8289
今略	-11.8291
教觀	-11.8292
沿	-11.8293
陪	-11.8293
斷德	-11.8294
不越	-11.8294
四十七	-11.8295
攝者	-11.8295
難行	-11.8296
官人	-11.8297
繫屬	-11.8298
王及	-11.8299
在佛	-11.8299
十四日	-11.8299
却問	-11.83
所有眾生	-11.83
茫	-11.8301
曬	-11.8302
匣	-11.8302
爵	-11.8302
繩床	-11.8304
放行	-11.8304
疏釋	-11.8305
蔬	-11.8305
敬愛	-11.8307
彼亦	-11.8308
文為二	-11.8308
破法	-11.8308
不憶	-11.8309
▁十三	-11.8309
今家	-11.8309
三菩提	-11.831
內法	-11.8312
糠	-11.8312
噴	-11.8312
京兆	-11.8313
信佛	-11.8313
入見道	-11.8314
四十三	-11.8314
次科	-11.8316
利行	-11.8316
汪	-11.8317
教相	-11.8318
▁越	-11.8319
錯過	-11.832
是有漏	-11.832
如是種種	-11.8321
為一切眾生	-11.8325
罪障	-11.8329
為一切	-11.8329
無戲論	-11.833
個個	-11.833
氈	-11.833
得往生	-11.8331
勝相	-11.8332
一度	-11.8333
▁初正明	-11.8333
辨相	-11.8334
上云	-11.8334
諸眷屬	-11.8334
必能	-11.8334
修此	-11.8335
基云	-11.8336
下正釋	-11.8336
問意	-11.8337
▁我等	-11.834
餘文	-11.8341
我無	-11.8342
發聲	-11.8343
身在	-11.8343
▁初引	-11.8344
於事	-11.8345
轉增	-11.8345
修性	-11.8347
五十九	-11.8347
梟	-11.8348
豈知	-11.8348
擣	-11.8348
成就眾生	-11.8348
伏惟	-11.8348
倡	-11.8349
▁羅門	-11.8349
▁恩	-11.835
以立	-11.8351
專精	-11.8352
躡前	-11.8352
等類	-11.8353
成於	-11.8353
智度論云	-11.8355
無量樂	-11.8355
汝莫	-11.8357
癈	-11.8357
霖	-11.8357
生彼國	-11.8358
具二	-11.8359
摩那婆	-11.836
人王	-11.8361
尸利	-11.8361
有定	-11.8363
必是	-11.8363
為上首	-11.8364
入聚落	-11.8364
發於	-11.8365
此女	-11.8365
身受	-11.8366
擺	-11.8366
穎	-11.8366
練根	-11.8367
初正明	-11.8368
及見	-11.8369
即受	-11.837
▁第九	-11.837
鳥獸	-11.8374
與僧	-11.8377
唐譯	-11.8377
頒	-11.8378
外法	-11.8378
不多	-11.838
左邊	-11.838
不廢	-11.838
名目	-11.8382
主賓	-11.8382
出來道	-11.8383
惛	-11.8383
觀一切法	-11.8383
世有	-11.8384
隨根	-11.8386
城門	-11.8387
某處	-11.8388
問云何	-11.8388
三昧經	-11.8388
觸著	-11.839
文有	-11.839
早是	-11.8391
標舉	-11.8392
諍事	-11.8395
寶座	-11.8396
為誰	-11.8398
事法	-11.8401
律藏	-11.8401
為害	-11.8402
生不生	-11.8403
九十日	-11.8403
光輝	-11.8404
經本	-11.8406
初正釋	-11.8406
志願	-11.8407
功德莊嚴	-11.8407
見麼	-11.8407
道眼	-11.8407
壞苦	-11.8407
論其	-11.8408
上士	-11.8408
文武	-11.8409
三紙	-11.841
去時	-11.841
六情	-11.8411
▁是念	-11.8412
印印	-11.8412
好箇	-11.8417
開皇	-11.8417
須陀	-11.842
挫	-11.8421
善吉	-11.8422
如華嚴	-11.8428
▁燈	-11.8429
機感	-11.8429
▁頂	-11.843
猶如虛空	-11.843
籃	-11.8431
現瑞	-11.8431
大海水	-11.8431
萬松	-11.8431
由我	-11.8432
將至	-11.8438
溟	-11.844
▁害	-11.844
新到	-11.844
本作	-11.8442
合掌恭敬	-11.8442
自立	-11.8446
十字	-11.8446
龍牙	-11.8448
還識	-11.8448
落髮	-11.8448
後至	-11.8449
刈	-11.8449
螫	-11.8449
香山	-11.845
令修	-11.845
真見	-11.845
淨居	-11.845
明智	-11.8451
文有三	-11.8451
後句	-11.8452
一國	-11.8455
大象	-11.8456
遣人	-11.8456
住法	-11.8457
𥠖	-11.8458
是見	-11.8458
恐懼	-11.8459
文殊普賢	-11.8459
小者	-11.8459
請法	-11.8459
樹神	-11.8462
曾到	-11.8464
火焰	-11.8466
斯經	-11.8468
是因緣	-11.8468
當如是	-11.8469
必以	-11.847
吽吽	-11.8471
無塵	-11.8472
身無	-11.8473
▁聞如是	-11.8474
禪床	-11.8475
迦留陀夷	-11.8476
行婬	-11.8477
叛	-11.8477
金剛薩埵	-11.8477
能淨	-11.8477
有餘師說	-11.8478
別體	-11.8478
八九	-11.848
諸佛無上正等菩提	-11.848
引起	-11.8481
福州	-11.8482
如何是道	-11.8484
杏	-11.8486
其力	-11.8487
法句	-11.8488
未具	-11.8488
卵生	-11.8489
其說	-11.8491
投機	-11.8492
可作	-11.8492
議曰	-11.8493
普說	-11.8494
逆流	-11.8495
巳而	-11.8495
五性	-11.8495
勗	-11.8495
表法	-11.8495
等流果	-11.8495
掃地	-11.8495
千百億	-11.8496
▁不可得	-11.8496
是諸眾生	-11.8498
古人云	-11.8498
諸上座	-11.8498
第七卷	-11.8498
嘿	-11.8501
慼	-11.8501
有二十	-11.8502
謂一	-11.8503
何可	-11.8504
漏無漏	-11.8506
須菩提言	-11.8508
並同	-11.8509
吾當	-11.851
禪和	-11.8513
鶯	-11.8513
寥寥	-11.8514
萬機	-11.8514
一線	-11.8515
契理	-11.8517
易得	-11.8517
無識	-11.8518
不拘	-11.8518
欲色界	-11.8518
諸法相	-11.8519
▁拈云	-11.8519
一切事	-11.8519
初總標	-11.852
智證	-11.8522
異品	-11.8523
礪	-11.8523
病比丘	-11.8523
開演	-11.8524
第一明	-11.8525
跟	-11.853
悉以	-11.8531
理即	-11.8531
清淨本然	-11.8532
中初科	-11.8534
師打	-11.8534
善性	-11.8535
▁雲門	-11.8536
菩薩白佛言	-11.8538
緣此	-11.8539
我觀	-11.8539
應問	-11.854
蝶	-11.8542
向上一路	-11.8542
正業	-11.8543
瓣香	-11.8544
為行	-11.8545
作持	-11.8546
從事	-11.8546
恩德	-11.8548
巳還	-11.8549
義是	-11.8549
隘	-11.8551
空假	-11.8551
坦然	-11.8552
落花	-11.8553
若准	-11.8556
六即	-11.8557
萬有	-11.8558
幾箇	-11.856
無名指	-11.856
平正	-11.8561
取境	-11.8567
禮懺	-11.8567
後解	-11.8569
〕-【	-11.8569
涎	-11.8569
涵	-11.857
禪林	-11.857
罪者	-11.8571
金光明經	-11.8571
通三性	-11.8572
橫竪	-11.8573
見道所斷	-11.8573
决	-11.8574
約行	-11.8574
境界故	-11.8575
而無所	-11.8575
後更	-11.8576
皆生	-11.8577
殿上	-11.8577
蓄	-11.8579
肺	-11.8579
入寺	-11.8581
未除	-11.8581
其類	-11.8582
亦無所有	-11.8585
其語	-11.8586
因相	-11.8586
掀	-11.8587
為明	-11.8588
說十	-11.8588
殺盜	-11.859
諸所	-11.8593
盡道	-11.8594
為成	-11.8595
從口	-11.8596
初牒	-11.8597
密雲	-11.8597
培	-11.8598
不避	-11.8598
即攝	-11.8601
深義	-11.8601
何獨	-11.8603
為所緣	-11.8603
始有	-11.8604
非業	-11.8604
擾亂	-11.8605
味界	-11.8605
自覺聖智	-11.8606
叨	-11.8607
弩	-11.8607
茆	-11.8607
內無	-11.8607
相違故	-11.8607
知客	-11.8608
云如何是	-11.8608
一切眾生皆	-11.8608
朋友	-11.8608
今詳	-11.8608
未來現在	-11.8609
苦根	-11.8609
便歸方丈	-11.8609
是方便	-11.861
謂初	-11.861
純一	-11.861
▁陳	-11.8613
久立	-11.8613
妾	-11.8616
根力	-11.8616
爾時佛告	-11.8617
躁	-11.8619
有身見	-11.8619
今於	-11.8621
第六卷	-11.8626
世界種	-11.8627
無別體	-11.8628
皆大歡喜	-11.8629
論意	-11.8632
燃燈	-11.8633
贍	-11.8633
猫	-11.8634
攝生	-11.8634
極樂世界	-11.8634
溥	-11.8637
二就	-11.8637
如律	-11.8638
後因	-11.8638
王公	-11.8638
欲生	-11.8639
上五	-11.8641
法律	-11.8642
無住處	-11.8643
受菩薩戒	-11.8644
智佛	-11.8645
第十七	-11.8646
果滿	-11.8647
七覺	-11.8648
圜	-11.8648
志求	-11.8648
人我	-11.8649
何耶	-11.865
善事	-11.865
所修行	-11.8651
▁待	-11.8653
是無漏	-11.8653
邪定	-11.8653
妍	-11.8654
心則	-11.8654
虜	-11.8654
不施	-11.8655
都是	-11.8656
人眾	-11.8657
即假	-11.8658
若許	-11.866
散動	-11.866
細滑	-11.8661
分者	-11.8661
半頌	-11.8664
為小	-11.8664
還成	-11.8664
人趣	-11.8664
以何因緣	-11.8665
始自	-11.8666
三災	-11.8667
貧賤	-11.8667
故爾	-11.8667
結之	-11.8671
求於	-11.8672
坎	-11.8672
曰我	-11.8675
得離	-11.8675
今作	-11.8677
腳跟	-11.8681
亦常	-11.8682
教我	-11.8683
心力	-11.8684
禮謝	-11.8685
實理	-11.8685
種種差別	-11.8686
十號	-11.8687
一首	-11.8687
性自性	-11.869
鉢盂	-11.8691
辣	-11.8692
尸棄	-11.8692
別請	-11.8692
狼藉	-11.8692
攝化	-11.8693
而為上首	-11.8695
死心	-11.8696
也然	-11.8697
親承	-11.8698
風起	-11.8699
天上人間	-11.87
卷第八	-11.8701
岡	-11.8701
膿血	-11.8702
山上	-11.8702
都無所	-11.8702
復作是言	-11.8704
誑惑	-11.8704
葉落	-11.8705
為母	-11.8707
禪牀	-11.8707
兇	-11.871
遑	-11.8711
弔	-11.8711
彼二	-11.8712
上流	-11.8712
越州	-11.8713
常無	-11.8713
應念	-11.8714
分限	-11.8715
以致	-11.8715
犢子	-11.8715
藕	-11.8716
之詞	-11.8717
究盡	-11.8718
迄	-11.8719
与	-11.8719
湊	-11.872
訂	-11.872
揚州	-11.8722
演法	-11.8722
上言	-11.8722
藏性	-11.8723
頗梨	-11.8724
▁當願眾生	-11.8725
阿耨多羅三藐三	-11.8726
佛在舍衛國	-11.8728
手把	-11.8728
之意也	-11.8729
序云	-11.8729
於一切時	-11.8729
一切世	-11.873
中分二	-11.8731
之氣	-11.8731
親族	-11.8731
人命	-11.8732
種種相	-11.8734
如來智	-11.8735
阿鼻地獄	-11.8735
我實	-11.8737
上於	-11.8737
阿耨多	-11.8737
救度	-11.8738
匱	-11.8739
薀	-11.8739
筠	-11.8739
刀山	-11.8739
當令	-11.874
▁象	-11.8741
第二靜慮	-11.8741
今釋	-11.8741
歷然	-11.8741
▁虛空	-11.8742
中言	-11.8744
受人	-11.8744
皆須	-11.8744
法化	-11.8745
虛誑	-11.8746
能燒	-11.8747
之可	-11.8747
違逆	-11.8747
底句	-11.8747
有退	-11.8748
譜	-11.8748
軫	-11.8748
腫	-11.8748
濟云	-11.8749
粉碎	-11.8749
取食	-11.875
識取	-11.875
有僧問	-11.8751
八十四	-11.8751
勝果	-11.8751
若一切	-11.8752
互融	-11.8753
但舉	-11.8753
喻於	-11.8754
願智	-11.8756
故稱為	-11.8756
尊卑	-11.8757
五更	-11.8757
實我	-11.8757
彼眾生	-11.8757
壞滅	-11.8757
埽	-11.8758
不以為	-11.8759
後二句	-11.8759
活人	-11.876
兩足	-11.8761
說甚	-11.8761
什摩	-11.8762
密密	-11.8762
人前	-11.8762
阿閦	-11.8764
金剛般若	-11.8766
之號	-11.8766
分衛	-11.8767
肌	-11.8767
密言	-11.8768
我於彼	-11.8769
文彩	-11.877
微密	-11.877
還自	-11.8771
入藏	-11.8772
離欲界	-11.8773
不齊	-11.8774
可與	-11.8774
生愛	-11.8774
在中	-11.8775
却來	-11.8775
爾時世尊告	-11.8777
醋	-11.8777
初定	-11.8778
應更	-11.8779
入法	-11.878
禪院	-11.878
▁從此	-11.8781
雙結	-11.8781
觸目	-11.8782
牽引	-11.8782
緣成	-11.8782
行化	-11.8782
九十九	-11.8783
禮足	-11.8783
反下音	-11.8784
然今	-11.8785
扇子	-11.8785
大般若	-11.8786
▁切智智清淨	-11.8787
八聖道	-11.8788
此由	-11.8789
眾相	-11.879
泄	-11.8791
著眼	-11.8792
白馬	-11.8793
無明住地	-11.8793
璉	-11.8796
較量	-11.8796
作念	-11.8797
塚間	-11.8798
時到	-11.8799
變作	-11.8799
魏譯	-11.88
一眾	-11.88
延壽	-11.8801
為門	-11.8801
▁初舉	-11.8802
反覆	-11.8803
師拈云	-11.8804
無有餘	-11.8804
四十年	-11.8805
極為	-11.8805
作主	-11.8806
▁智智清淨	-11.8806
世智	-11.8807
空無我	-11.8808
物也	-11.8808
無文	-11.8808
全機	-11.8811
寶王	-11.8812
反顯	-11.8814
愛憎	-11.8814
棟	-11.8814
於其中間	-11.8814
▁若比丘	-11.8815
致敬	-11.8815
阿毘	-11.8816
做工夫	-11.8817
名體	-11.8817
和尚云	-11.8818
大人相	-11.8823
大自在	-11.8823
所云	-11.8824
證者	-11.8825
引論	-11.8826
五字	-11.8827
生在	-11.8827
設供	-11.8829
緣緣	-11.883
相當	-11.8831
十九卷	-11.8831
初中後	-11.8831
當如	-11.8832
包含	-11.8832
緣彼	-11.8834
踰繕那	-11.8834
篆	-11.8834
孟子	-11.8837
為諸菩薩	-11.8839
或執	-11.884
垢淨	-11.8842
今問	-11.8843
緯	-11.8844
增語是菩薩摩訶薩	-11.8844
普光明	-11.8845
問師	-11.8845
掘地	-11.8846
彌陀佛	-11.8846
四洲	-11.8846
若但	-11.8846
曰汝	-11.8846
津梁	-11.8847
關中	-11.885
次以	-11.8851
菩薩所行	-11.8851
初徵	-11.8851
國清	-11.8852
平等性智	-11.8852
聆	-11.8853
眩	-11.8853
教道	-11.8856
南陽	-11.8857
菩提分	-11.8858
無足	-11.8858
更求	-11.886
一百一十	-11.8861
孩	-11.8862
海內	-11.8862
第一義空	-11.8864
光焰	-11.8864
干戈	-11.8864
悟去	-11.8864
即是空	-11.8864
於一切處	-11.8864
作是觀	-11.8865
云爾	-11.8867
者少	-11.8867
▁以者何	-11.8868
大弟子	-11.887
乃見	-11.887
禪師語錄	-11.887
聞佛說	-11.887
自性故	-11.887
魔波旬	-11.8871
已作	-11.8871
一切色	-11.8872
城東	-11.8872
誰人	-11.8872
餉	-11.8873
裘	-11.8873
是事如是持	-11.8873
十餘年	-11.8873
於佛法	-11.8873
殊特	-11.8874
一文	-11.8875
撫掌	-11.8875
重明	-11.8876
九十六	-11.8876
皆爾	-11.8876
二定	-11.8877
善入	-11.8879
行菩薩行	-11.888
奉為	-11.888
之患	-11.888
問取	-11.8882
此業	-11.8883
無偏	-11.8883
無量諸佛	-11.8884
無底	-11.8885
現種種	-11.8888
前已	-11.8888
平等故	-11.8888
輻	-11.8889
離彼	-11.889
不覆藏	-11.8892
剗	-11.8892
鞠	-11.8892
懺法	-11.8892
一切悉	-11.8894
讀書	-11.8895
▁烏	-11.8895
鏡像	-11.8896
性離	-11.8897
三十日	-11.8897
含識	-11.8898
如前釋	-11.8899
則名	-11.8899
通相	-11.8899
無樂	-11.8901
聖言	-11.8901
於汝意云何	-11.8902
欵	-11.8902
霍	-11.8902
江陵	-11.8902
未然	-11.8903
若唯	-11.8907
地等	-11.891
疆	-11.8911
眀	-11.8911
為生死	-11.8912
傅大士	-11.8913
底是	-11.8915
八萬劫	-11.8918
難以	-11.8918
菩提場	-11.8919
大旨	-11.8919
既盡	-11.892
次別	-11.892
重者	-11.8921
獲福	-11.8921
諸法性	-11.8922
妙果	-11.8922
舊時	-11.8923
無常想	-11.8923
出家學道	-11.8924
悕望	-11.8924
眼色	-11.8925
色中	-11.8926
宗教	-11.8929
鴨	-11.8929
簿	-11.8931
無恚	-11.8932
除疑	-11.8933
定生	-11.8935
支分	-11.8936
習學	-11.8937
峰頂	-11.8937
之識	-11.8937
第二第三	-11.8937
自業	-11.8939
如雨	-11.894
▁縛	-11.894
貧人	-11.8941
分布	-11.8941
重輕	-11.8941
在這裏	-11.8944
彰其	-11.8944
▁有人	-11.8945
捨命	-11.8945
故號	-11.8947
資財	-11.8947
通前	-11.8947
可度	-11.8948
林間	-11.8949
師與	-11.8949
孽	-11.895
瞽	-11.895
初依	-11.8953
就座	-11.8953
神王	-11.8953
峰頭	-11.8953
隨有	-11.8953
苦故	-11.8953
依主釋	-11.8953
梨耶	-11.8954
行因	-11.8954
牢獄	-11.8954
盜心	-11.8955
學徒	-11.8956
▁􂉓	-11.8957
未說	-11.8958
方見	-11.8959
靈光	-11.896
▁三種	-11.896
今見	-11.8961
機鋒	-11.8962
太陽	-11.8962
雖行	-11.8962
近遠	-11.8963
維摩經	-11.8963
於諸法中	-11.8964
盲人	-11.8964
一莖	-11.8965
王問	-11.8965
襄州	-11.8965
北山	-11.8966
重頌	-11.8966
入內	-11.8968
量云	-11.8968
諸公	-11.8969
楔	-11.8969
法服	-11.8971
聞知	-11.8971
蘆花	-11.8972
機宜	-11.8972
破也	-11.8972
無咎	-11.8974
答彼	-11.8974
入中	-11.8976
依持	-11.8976
行路	-11.8977
品第二	-11.8977
夜神	-11.8978
亦難	-11.8978
訊	-11.898
骨髓	-11.8981
蔑	-11.8985
耨	-11.8985
行解	-11.8986
詣佛所	-11.8987
施權	-11.8988
題云	-11.8988
義亦	-11.8989
相稱	-11.8989
阿耨多羅	-11.8989
落地	-11.899
巒	-11.8991
翻成	-11.8992
國家	-11.8993
三十年後	-11.8993
進步	-11.8993
裸	-11.8994
在甚處	-11.8994
經曰	-11.8996
法衣	-11.8996
悉達	-11.8997
曾不	-11.8997
吾我	-11.8998
常法	-11.8998
依本	-11.8998
若定	-11.8998
讒	-11.8999
問話	-11.8999
燈光	-11.8999
高低	-11.8999
所習	-11.9
于世	-11.9001
常應	-11.9003
意如何	-11.9005
二手	-11.9005
年年	-11.9006
助伴	-11.9007
j	-11.9008
明教	-11.9012
如幻化	-11.9012
鄔波	-11.9012
作因	-11.9013
離生	-11.9013
初至	-11.9014
除一切	-11.9015
朝夕	-11.9015
一諦	-11.9017
三藏教	-11.9017
雪竇云	-11.9019
奉施	-11.9019
道流	-11.9021
到已	-11.9022
作善	-11.9023
別離	-11.9024
照曜	-11.9024
▁垢	-11.9025
若犯	-11.9025
為界	-11.9025
摩那埵	-11.9027
箕	-11.9028
廼	-11.9028
偏袒右肩	-11.9028
惻	-11.9028
禮佛足	-11.9028
有所作	-11.9029
說大乘	-11.9033
口說	-11.9033
般若波羅蜜多清淨	-11.9034
未熟	-11.9036
今就	-11.9036
而往	-11.9036
凝然	-11.9036
只知	-11.9037
捫	-11.9037
三載	-11.9038
喇	-11.9038
巴鼻	-11.9041
三苦	-11.9042
性惡	-11.9046
應成	-11.9046
品明	-11.9047
欄楯	-11.9047
諸結	-11.9048
一切法界	-11.9049
廣慧	-11.905
二時	-11.9051
起來	-11.9052
喝云	-11.9053
六相	-11.9055
其量	-11.9055
云何有	-11.9056
歸趣	-11.9056
花果	-11.9057
媒	-11.9057
髀	-11.9057
舶	-11.9057
還至	-11.9058
忍者	-11.9058
販賣	-11.9058
卓一下	-11.906
通玄	-11.9061
即理	-11.9061
信敬	-11.9061
能證得	-11.9065
聖弟子	-11.9066
有多種	-11.9066
天明	-11.9067
▁所得	-11.9067
如是次第	-11.9068
雲山	-11.9069
六百	-11.9069
異體	-11.907
由其	-11.9071
所作事	-11.9071
無變	-11.9072
玲瓏	-11.9072
幾度	-11.9075
其時	-11.9075
大河	-11.9075
觀色	-11.9077
一手	-11.9077
醜陋	-11.9077
台州	-11.9077
一切聲聞	-11.9077
實也	-11.9078
中明	-11.9079
身形	-11.9079
辨才	-11.9084
嗚	-11.9085
無惑	-11.9086
紳	-11.9087
經法	-11.9087
安忍波羅蜜多	-11.9088
若不得	-11.9089
有因緣	-11.9089
難者	-11.909
僧與	-11.9093
不相似	-11.9094
路頭	-11.9095
應於	-11.9095
不到處	-11.9096
下賤	-11.9097
安然	-11.9097
馬師	-11.9098
并諸	-11.9098
九部	-11.9098
東坡	-11.9099
太極	-11.9101
州曰	-11.9101
阿耨多羅三藐	-11.9101
同住	-11.9102
行住	-11.9103
巳有	-11.9103
如燈	-11.9104
汝既	-11.9106
不難	-11.9106
砌	-11.9106
四名	-11.9107
傳曰	-11.9108
進止	-11.9109
時諸苾芻	-11.911
有識	-11.9114
▁不犯者	-11.9115
不盜	-11.9117
脚跟	-11.9117
假觀	-11.9117
無漏道	-11.9118
阿難白佛言	-11.9119
之能	-11.9119
二破	-11.912
所作業	-11.912
明達	-11.9121
▁蘇	-11.9121
往返	-11.9122
不得自在	-11.9122
佛境	-11.9122
之根	-11.9123
有限	-11.9124
問其	-11.9125
得人身	-11.9125
法事	-11.9125
是菩	-11.9126
媿	-11.9126
薑	-11.9126
無惡	-11.9127
骸	-11.9127
生後	-11.9127
▁文殊	-11.9128
▁露	-11.9129
這般	-11.9129
是法身	-11.913
於言下	-11.913
少許	-11.913
結盡	-11.913
之善	-11.9131
謗佛	-11.9132
為趣	-11.9132
沒馱	-11.9134
▁諸菩薩	-11.9134
盡無餘	-11.9135
陜	-11.9136
因甚麼	-11.9136
三解脫門	-11.9138
有個	-11.9141
事須	-11.9141
交徹	-11.9143
受行	-11.9144
蝕	-11.9146
需	-11.9146
一行半	-11.9146
難處	-11.9146
現證	-11.9147
大本	-11.9148
錢塘	-11.9148
塵劫	-11.9149
雖具	-11.9151
大指	-11.9152
其所以	-11.9152
是理	-11.9153
初會	-11.9154
不堅	-11.9155
》、《	-11.9156
初言	-11.9156
自力	-11.9157
不得巳	-11.9158
如所說	-11.9158
有物	-11.9158
莎呵	-11.9159
山高	-11.9159
擊拂子	-11.916
腦後	-11.916
煩惱故	-11.9161
與上	-11.9161
違理	-11.9161
安身	-11.9163
▁十四	-11.9164
▁女人	-11.9164
為伴	-11.9164
五湖	-11.9165
舂	-11.9166
隨從	-11.9166
兩眼	-11.9168
喜心	-11.9168
觀中	-11.9168
拍手	-11.9168
▁十六	-11.9168
增廣	-11.9169
啟請	-11.9171
致令	-11.9172
現報	-11.9173
若諸眾生	-11.9174
異學	-11.9176
雲峰	-11.9176
重病	-11.9176
不護	-11.9177
無思	-11.9178
聲聞人	-11.9178
▁色界	-11.9181
▁無我	-11.9182
毀壞	-11.9183
浮山	-11.9183
塵剎	-11.9184
一切遍	-11.9185
不往	-11.9185
勸持	-11.9186
意思	-11.9187
辨其	-11.9187
中最	-11.9189
余曰	-11.9194
向他道	-11.9196
一室	-11.9196
▁大悲	-11.9197
若有善男子	-11.9197
樂根	-11.92
五見	-11.92
智眼	-11.9201
驚起	-11.9204
滅惡	-11.9204
▁藐三菩提	-11.9205
共一	-11.9206
門竟	-11.9206
一佛乘	-11.9207
正斷	-11.9207
或一	-11.9209
不收	-11.9209
箇消息	-11.9211
九十八	-11.9211
徧十方	-11.9212
普應	-11.9212
義當	-11.9212
常存	-11.9212
濡	-11.9213
寂滅相	-11.9214
最妙	-11.9214
坌	-11.9215
鉗鎚	-11.9215
▁又作	-11.9215
三度	-11.9216
斷障	-11.9217
俱舍云	-11.9217
輔行云	-11.9219
遂以	-11.9222
如說修行	-11.9222
病也	-11.9225
懊惱	-11.9225
聞正法	-11.9228
牢固	-11.923
遍一切	-11.9231
緣慮	-11.9232
共同	-11.9232
▁慢	-11.9235
屙	-11.9235
迺	-11.9235
品第六	-11.9236
菩提之心	-11.9237
真解脫	-11.924
此中有	-11.924
通局	-11.924
喜見	-11.9241
寂定	-11.9245
滅壞	-11.9245
馭	-11.9245
聰慧	-11.9246
真修	-11.9249
別云	-11.9249
復次大慧	-11.925
色性	-11.925
吳越	-11.925
加護	-11.9251
▁叉	-11.9251
得與	-11.9252
持齋	-11.9254
如汝	-11.9254
地地	-11.9254
觀音菩薩十方諸佛菩薩	-11.9255
一頭	-11.9257
自宗	-11.9257
第三禪	-11.9257
使得	-11.9258
六十五	-11.9259
此念	-11.9259
為究竟	-11.9261
丈室	-11.9262
求覓	-11.9262
恰似	-11.9262
佛子菩薩摩訶薩	-11.9262
大業	-11.9263
▁及以	-11.9263
歸本	-11.9264
軛	-11.9265
註云	-11.9266
佛化	-11.9266
▁左	-11.9268
上直	-11.9268
本分事	-11.9268
所害	-11.927
記莂	-11.9271
閑居	-11.9274
小劫	-11.9275
猶自	-11.9276
神明	-11.9276
令此	-11.9277
波瀾	-11.9277
若然者	-11.9279
▁眠	-11.9279
初云	-11.9279
修者	-11.928
領悟	-11.928
事事無礙	-11.928
萬曆	-11.9281
三空	-11.9281
無上法	-11.9282
之寶	-11.9282
讀之	-11.9283
得名為	-11.9286
▁無上	-11.9287
正等	-11.9287
計反	-11.9287
滅諍	-11.9288
是定	-11.9289
必應	-11.9289
作白	-11.929
不應道理	-11.929
閻羅	-11.9292
山野	-11.9293
生厭離	-11.9294
雲水	-11.9294
婚	-11.9295
不惜身命	-11.9296
楞嚴經	-11.9296
四句偈	-11.9298
三總結	-11.93
巳下至	-11.9302
有少	-11.9304
唄	-11.9304
義釋	-11.9305
其土	-11.9305
鬥	-11.9305
月落	-11.9305
衲衣	-11.9307
巧妙	-11.9307
對於	-11.9309
須具	-11.9313
不與取	-11.9314
知歸	-11.9314
願樂	-11.9314
曹洞	-11.9314
拊	-11.9315
皮肉	-11.9315
虐	-11.9315
便於	-11.9316
眾罪	-11.9317
如是展轉	-11.9318
▁三藐三菩提	-11.9318
妙相	-11.9318
常與	-11.9318
圓修	-11.9321
見空	-11.9322
能受持	-11.9323
姚秦	-11.9324
今已	-11.9324
表示	-11.9325
蠻	-11.9325
珊	-11.9325
次破	-11.9326
第十八	-11.9327
智門	-11.9329
心緣	-11.9329
徵起	-11.9329
增收	-11.9329
施物	-11.933
豎拂	-11.933
恁麼會	-11.933
顗	-11.9335
駿	-11.9335
形貌	-11.9335
海眾	-11.9338
率爾	-11.9338
傾動	-11.9341
證此	-11.9341
心動	-11.9341
▁肇曰	-11.9341
善女	-11.9341
瓶等	-11.9342
之儀	-11.9342
量等	-11.9342
無處不	-11.9343
有何差別	-11.9343
貪嗔癡	-11.9344
答話	-11.9344
斷彼	-11.9344
來參	-11.9345
▁羅三藐三菩提	-11.9345
章中	-11.9346
答以	-11.9348
以定	-11.9348
顯色	-11.935
仔細	-11.9351
▁行者	-11.9352
有用	-11.9352
空智	-11.9352
止住	-11.9353
諸德	-11.9355
眾中有	-11.9356
化儀	-11.936
在定	-11.936
持禁戒	-11.9361
典座	-11.9362
諸經論	-11.9362
解脫知見	-11.9363
識蘊	-11.9364
波逸底迦	-11.9366
專注	-11.9366
未始	-11.9369
於一念中	-11.9369
四維	-11.937
世論	-11.937
此結	-11.937
美食	-11.9372
前巳	-11.9373
王城	-11.9374
妙好	-11.9375
處非處	-11.9375
三細	-11.9376
毘奈耶	-11.9376
迨	-11.9376
萬世	-11.9376
大利益	-11.9377
▁二分	-11.9377
斯言	-11.9378
所得功德	-11.9381
修行般若波羅蜜多	-11.9381
八正	-11.9382
更受	-11.9383
秋月	-11.9385
遠離諸	-11.9385
礫	-11.9386
薩哩嚩	-11.9386
示相	-11.9386
不好	-11.9387
▁吽	-11.9388
開士	-11.939
梵言	-11.939
是業	-11.9391
此國	-11.9392
而我	-11.9393
上坐	-11.9395
惡者	-11.9396
甌	-11.9396
免得	-11.9396
摩訶薩	-11.9397
▁十八	-11.9398
教以	-11.9398
往復	-11.9401
多作	-11.9401
屈曲	-11.9402
頓斷	-11.9402
之光	-11.9402
從僧乞	-11.9403
說破	-11.9404
至涅槃	-11.9404
▁多羅三藐三菩提	-11.9406
竄	-11.9406
耄	-11.9406
蟬	-11.9406
曾有	-11.9407
祇洹	-11.9407
許有	-11.9409
以之為	-11.941
飛鳥	-11.9411
講經	-11.9411
大自在天	-11.9412
無覺	-11.9413
是第三	-11.9413
壁上	-11.9413
相續不斷	-11.9414
所使	-11.9416
粥飯	-11.9417
淨除	-11.9418
冝	-11.9419
萬境	-11.9419
必依	-11.942
▁可說	-11.942
不全	-11.942
白四	-11.9421
未知智	-11.9424
舉身	-11.9424
其王	-11.9425
經名	-11.9425
讚曰	-11.9426
掖	-11.9427
我皆	-11.9429
退後	-11.9429
諸罪	-11.943
境者	-11.943
竹園	-11.943
有十二	-11.9431
上他	-11.9431
高明	-11.9431
向汝道	-11.9431
善慧	-11.9433
閻羅王	-11.9433
羅山	-11.9434
勸信	-11.9434
作事	-11.9435
底道理	-11.9435
善思念之	-11.9437
最為第一	-11.9439
以道	-11.9441
廻向	-11.9442
沙門果	-11.9444
離生死	-11.9444
世間人	-11.9444
持法	-11.9446
毅	-11.9447
是涅槃	-11.9447
不相應行	-11.9448
出城	-11.9448
夜夢	-11.945
寶壽	-11.9452
奄	-11.9452
既能	-11.9453
經從	-11.9453
妙道	-11.9453
諸國土	-11.9454
研究	-11.9454
無邊故	-11.9454
向甚麼處去	-11.9454
蒙佛	-11.9454
無常苦	-11.9455
相識	-11.9455
通身是	-11.9458
等觀	-11.9459
顆	-11.946
正言	-11.9461
業種	-11.9461
瀑流	-11.9462
虛空藏	-11.9462
資福	-11.9463
離垢地	-11.9465
圓具	-11.9466
為他說	-11.9466
頭首	-11.9467
品第五	-11.9467
眾色	-11.947
語諸比丘	-11.947
皆見	-11.9471
更為	-11.9471
王法	-11.9472
戒禁取	-11.9472
識體	-11.9473
周圓	-11.9474
精進力	-11.9474
隨好	-11.9474
饒舌	-11.9474
寶月	-11.9477
義成	-11.9477
契悟	-11.9477
如是我聞	-11.9478
是真實	-11.9478
疑心	-11.9479
通用	-11.9479
鶖子	-11.948
比尼	-11.9481
羅婆	-11.9482
是般若波羅蜜	-11.9482
數論	-11.9482
不得作	-11.9485
遠矣	-11.9487
青州	-11.9488
寶亮曰	-11.9488
六合	-11.9488
天寶	-11.9488
悚	-11.9489
夜深	-11.9489
自來	-11.9489
小異	-11.9491
無盡故	-11.9491
善因	-11.9492
先已	-11.9493
之論	-11.9495
適悅	-11.9496
成阿羅漢	-11.9496
耆舊	-11.9496
皆稱	-11.9497
記別	-11.9498
黏	-11.9498
賢護	-11.9498
王老師	-11.95
誰當	-11.95
南院	-11.9502
山主	-11.9502
短長	-11.9503
蟠	-11.9504
識知	-11.9504
前釋	-11.9504
智境	-11.9505
皆約	-11.9505
也或作	-11.9506
丞	-11.9507
▁耨多羅三藐三菩提	-11.9508
駝	-11.9508
各三	-11.9508
識生	-11.9509
出世法	-11.9511
釋迦佛	-11.9511
分為四	-11.9512
夜摩	-11.9513
之耳	-11.9513
依文	-11.9514
結上	-11.9514
益也	-11.9515
發現	-11.9516
五篇	-11.9516
羅云	-11.9517
發無上	-11.9517
未滅	-11.9517
現於	-11.9517
契合	-11.9518
念力	-11.9518
有差	-11.9518
答也	-11.9518
忝	-11.9518
畫像	-11.9519
遍身	-11.952
先總	-11.9523
出假	-11.9524
安在	-11.9526
峰曰	-11.9526
之屬	-11.9528
四十里	-11.9529
▁又解	-11.9531
實德	-11.9533
無能勝	-11.9534
不煩	-11.9535
年二十	-11.9537
15	-11.9538
七方便	-11.9538
所不攝	-11.9539
四無色	-11.954
看取	-11.954
度量	-11.9543
經教	-11.9543
性非性	-11.9543
去年	-11.9545
得恁麼	-11.9546
圓淨	-11.9546
表業	-11.9547
口出	-11.9547
七十三	-11.9547
卷第九	-11.9549
開權顯實	-11.9549
作福	-11.955
雲中	-11.955
多矣	-11.9551
10	-11.9551
跋難陀	-11.9552
離言說	-11.9552
天道	-11.9553
別無	-11.9556
五無間	-11.9557
若具	-11.9557
平日	-11.9557
反悞	-11.9558
後分	-11.9558
眾鳥	-11.9558
髭	-11.956
離有無	-11.956
無勝	-11.9562
不周	-11.9562
十七卷	-11.9564
且依	-11.9565
不能生	-11.9565
即上	-11.9566
於諸佛	-11.9566
八人	-11.9566
梵網經	-11.9567
轉勝	-11.9567
僧參	-11.9567
所緣故	-11.9568
悴	-11.957
侮	-11.957
二結	-11.9571
空慧	-11.9572
忽聞	-11.9572
焉知	-11.9572
亦有亦無	-11.9572
人非人等	-11.9572
無損	-11.9572
主人公	-11.9572
起處	-11.9572
大圓鏡智	-11.9573
著於	-11.9574
鉢中	-11.9576
如世尊說	-11.9576
醫王	-11.9577
非性	-11.9577
不能動	-11.9579
▁南無大	-11.958
鏤	-11.958
畧	-11.958
白雲端	-11.9581
法供養	-11.9583
▁段	-11.9584
改元	-11.9584
西京	-11.9585
景云	-11.9585
決擇分	-11.9587
僧俗	-11.9589
杌	-11.959
蕃	-11.9591
秪是	-11.9591
暗中	-11.9591
起立	-11.9592
除却	-11.9592
持業釋	-11.9594
一切剎	-11.9595
廣辨	-11.9595
二初明	-11.9595
耽著	-11.9595
相同	-11.9596
勢分	-11.9596
唯識論	-11.9597
多是	-11.9598
倪	-11.9598
所乘	-11.96
贓	-11.9601
刼	-11.9601
紋	-11.9601
不懈	-11.9602
度世	-11.9602
雨華	-11.9603
也經文作	-11.9603
物我	-11.9605
各反	-11.9606
五處	-11.9606
文相	-11.9608
最上乘	-11.961
三番	-11.961
竈	-11.9611
狎	-11.9611
次云	-11.9614
劬勞	-11.9615
刀兵	-11.9615
大善	-11.9615
如言	-11.9617
身觸	-11.9618
No	-11.962
未敢	-11.962
大智度論	-11.9621
觀音菩薩無量諸佛菩薩	-11.9621
銖	-11.9622
同教	-11.9622
見地	-11.9625
男兒	-11.9626
洞庭	-11.9626
不思惟	-11.9628
巨海	-11.9629
復名	-11.9629
十九年	-11.963
第二釋	-11.9631
因事	-11.9631
相國	-11.9631
十一月	-11.9631
以水	-11.9632
或有眾生	-11.9632
化現	-11.9632
常作	-11.9633
應作是說	-11.9633
纔見	-11.9633
說般若	-11.9633
示疾	-11.9633
不悔	-11.9634
犢	-11.9634
如云	-11.9635
稱之	-11.9636
▁趙州	-11.9638
為言	-11.964
在上	-11.9641
膜	-11.9642
道著	-11.9642
骨肉	-11.9643
見僧	-11.9643
求出家	-11.9644
禮三拜	-11.9645
有幾種	-11.9646
喜足	-11.9648
此復	-11.9654
私謂	-11.9654
習近	-11.9655
佛光	-11.9656
盡壽	-11.9656
六位	-11.9657
此第二	-11.9659
頷	-11.966
廣州	-11.9662
今是	-11.9663
醎	-11.9663
綽	-11.9663
海門	-11.9663
好事	-11.9664
圓音	-11.9666
和南	-11.9666
未開	-11.9666
長處	-11.9667
望於	-11.9667
單傳	-11.9668
我愛	-11.9668
得羅漢	-11.9669
眾具	-11.967
攝大乘	-11.967
來詣佛所	-11.967
生喜	-11.9672
▁師問	-11.9674
前十	-11.9674
器界	-11.9674
阿那含果	-11.9675
江湖	-11.9675
頌古	-11.9676
優曇	-11.9679
教體	-11.9679
大精進	-11.968
若汝	-11.968
亦不生	-11.9683
孤山曰	-11.9684
已有	-11.9687
是權	-11.9687
十七年	-11.9688
得到	-11.969
幾多	-11.969
毘羅	-11.969
次問	-11.9691
濟度	-11.9691
晦堂	-11.9692
無與等	-11.9692
同入	-11.9693
苦空	-11.9693
野老	-11.9693
天涯	-11.9694
一毛孔	-11.9694
菩薩等	-11.9695
先當	-11.9695
憂喜	-11.9696
動也	-11.9697
順理	-11.9699
調和	-11.9699
愍念	-11.97
不打	-11.9701
如是般若波羅蜜多	-11.9702
其次	-11.9703
自高	-11.9704
筒	-11.9705
一切苦	-11.9705
果上	-11.9706
獨有	-11.9706
是妄	-11.9708
合會	-11.9709
風月	-11.9709
寶冠	-11.9711
則失	-11.9712
滿目	-11.9712
袒	-11.9714
牛車	-11.9716
以知	-11.9716
為當	-11.9717
大定	-11.9717
示滅	-11.9718
他化	-11.9718
於未來	-11.9719
也要	-11.9719
其過	-11.972
更增	-11.972
則易	-11.9721
或由	-11.9723
入於涅槃	-11.9723
▁│	-11.9723
月上	-11.9725
和會	-11.9725
瞻禮	-11.9726
愜	-11.9726
漬	-11.9726
餘五	-11.9727
穢污	-11.9728
文學	-11.9729
菩薩成就	-11.973
淨智	-11.973
一緣	-11.9732
俱有因	-11.9732
處麼	-11.9733
開善	-11.9734
棒頭	-11.9734
城內	-11.9735
留心	-11.9735
此律	-11.9735
飲光	-11.9736
萬像	-11.9736
餘一切	-11.9736
淨佛國土	-11.9738
第三靜慮	-11.9739
入出	-11.974
上所	-11.9742
敬心	-11.9743
其教	-11.9743
一由旬	-11.9743
明眼人	-11.9744
彼既	-11.9745
初祖	-11.9746
一合相	-11.9747
蓋是	-11.9747
便即	-11.9749
卷中	-11.9749
不斷絕	-11.975
別別	-11.9751
無覆	-11.9753
遷變	-11.9753
妙境	-11.9753
為諸人	-11.9753
實教	-11.9754
思慮	-11.9754
約位	-11.9754
異耳	-11.9755
石人	-11.9755
覩見	-11.9756
是何人	-11.9757
苦哉	-11.9757
二百五十	-11.9758
識識	-11.9758
舉前話	-11.976
逼惱	-11.9761
結歸	-11.9763
格量	-11.9764
是無記	-11.9766
難思議	-11.9766
兩段	-11.9766
慙	-11.9767
可斷	-11.9768
覧	-11.9768
幾何	-11.9768
先作	-11.9768
不同者	-11.9769
乞求	-11.977
普濟	-11.9771
寂默	-11.9771
深般若波羅蜜多	-11.9772
別列	-11.9772
本色	-11.9773
垢穢	-11.9774
人家	-11.9774
第八卷	-11.9775
不近	-11.9776
必欲	-11.9778
吻	-11.9778
鯨	-11.9778
常恒	-11.9779
二別釋	-11.978
疲極	-11.978
無記性	-11.9781
不可稱計	-11.9783
非究竟	-11.9783
▁上來	-11.9784
非親里	-11.9785
清淨法	-11.9788
弼	-11.9789
手捉	-11.979
為定	-11.9791
外凡	-11.9791
惑盡	-11.9791
得住	-11.9795
未會	-11.9796
房中	-11.9799
具足戒	-11.9799
無有能	-11.9799
敝	-11.9799
得法眼淨	-11.98
欲令眾生	-11.98
年老	-11.9801
穢惡	-11.9801
同犯	-11.9807
諸人還	-11.9808
人見錄	-11.9809
有勝	-11.9809
鋸	-11.981
齩	-11.981
天地之	-11.981
例此	-11.981
舉起	-11.9811
之分	-11.9811
一位	-11.9812
度一切	-11.9815
度之	-11.9816
百福	-11.9816
頌前	-11.9818
師友	-11.9818
檢點	-11.9818
如來出世	-11.9819
頤	-11.9821
塑	-11.9821
不知何	-11.9821
雖通	-11.9821
皆作	-11.9822
智慧光明	-11.9823
七十七	-11.9823
三七	-11.9827
黑色	-11.9827
淨覺	-11.9828
生住滅	-11.9829
不辭	-11.983
毒害	-11.983
勤行	-11.9831
云和尚	-11.9831
麓	-11.9831
燎	-11.9831
中亦二	-11.9833
義趣	-11.9833
八事	-11.9836
形狀	-11.9836
平等心	-11.9836
即日	-11.9837
峰云	-11.9837
如來滅後	-11.9839
成實論	-11.984
非獨	-11.9841
離惡	-11.9841
乎哉	-11.9842
詶	-11.9842
一大藏教	-11.9842
十六年	-11.9842
即真如	-11.9842
我應	-11.9843
中事	-11.9845
因陀羅	-11.9845
峯云	-11.9845
皆入	-11.9846
▁室	-11.9847
第一座	-11.9847
明空	-11.9848
十六行	-11.9848
駒	-11.985
以義	-11.985
境相	-11.9851
愛結	-11.9852
苕	-11.9852
舅	-11.9852
▁性空	-11.9853
▁最勝	-11.9854
成熟有情	-11.9854
汝道	-11.9854
㒵	-11.9855
傍人	-11.9856
以金	-11.9856
依真	-11.986
汝但	-11.986
禾山	-11.986
向甚處	-11.9861
屣	-11.9863
羲	-11.9863
眾生身	-11.9863
錯亂	-11.9864
於一一	-11.9864
難量	-11.9865
管取	-11.9866
便請	-11.9867
可知矣	-11.9867
手印	-11.9867
初長行	-11.9868
自度	-11.9868
傷害	-11.9869
右繞	-11.9871
意解	-11.9872
惡獸	-11.9872
澄清	-11.9873
相公	-11.9873
在欲界	-11.9874
約人	-11.9875
含藏	-11.9875
識相	-11.9875
可名	-11.9876
車匿	-11.9876
各說	-11.9876
▁臣	-11.9877
謂其	-11.988
色如	-11.9881
今巳	-11.9882
恡	-11.9884
阿惟越致	-11.9884
鑁	-11.9884
以慧	-11.9885
休歇	-11.9886
是義不然	-11.9886
妙性	-11.9887
我語	-11.9887
為巳	-11.9888
有信	-11.9889
有司	-11.989
以慈	-11.989
我弟子	-11.9891
初入	-11.9891
▁二結	-11.9893
𠔃反	-11.9895
入堂	-11.9896
誰家	-11.9896
心生歡喜	-11.9899
上乘	-11.9902
俗姓	-11.9903
隨入	-11.9904
外護	-11.9905
澍	-11.9905
慟	-11.9906
陁羅𡰱	-11.9906
出聲	-11.9909
▁[	-11.991
學問	-11.991
性空故	-11.9912
更作	-11.9912
釋教	-11.9913
二頭指	-11.9913
▁愚	-11.9914
能出	-11.9914
撥無	-11.9916
分別故	-11.9917
六種震動	-11.9917
莫將	-11.992
或得	-11.992
一切善	-11.992
妙悟	-11.9922
所依故	-11.9922
寰中	-11.9924
無量眾	-11.9924
次觀	-11.9925
豁開	-11.9925
為甚麼不	-11.9926
捩	-11.9927
綻	-11.9927
善根力	-11.9927
明行足	-11.9929
+(	-11.993
可樂	-11.993
有礙	-11.993
有菩薩摩訶薩	-11.9931
外色	-11.9931
當依	-11.9932
比丘眾	-11.9932
速成	-11.9935
長子	-11.9936
諸小	-11.9936
早巳	-11.9936
豹	-11.9937
誠心	-11.9937
煌	-11.9938
金沙	-11.9938
違教	-11.9939
經題	-11.994
聚中	-11.9942
攝入	-11.9943
方便說	-11.9943
簸	-11.9948
尊敬	-11.9948
佞	-11.9948
池水	-11.9949
辭去	-11.9949
堅住	-11.9949
茶毗	-11.9951
泮吒	-11.9951
虛偽	-11.9952
亦曰	-11.9952
方顯	-11.9952
依身	-11.9952
異熟識	-11.9952
熱鐵	-11.9956
其源	-11.9957
▁次明	-11.9957
宿習	-11.9959
脅	-11.9959
絆	-11.9959
俞	-11.9959
資粮	-11.996
藏佛	-11.996
中流	-11.996
方生	-11.9962
為弟子	-11.9962
火炬	-11.9963
同共	-11.9964
常情	-11.9965
隨所應	-11.9965
以右手	-11.9966
大蟲	-11.9966
著我	-11.9967
重關	-11.9969
善思惟	-11.997
款	-11.997
𤚥	-11.997
蟾	-11.997
粳米	-11.997
方寸	-11.997
航	-11.997
亦何	-11.997
一生補處	-11.9971
品第三	-11.9972
救苦	-11.9972
第二十	-11.9976
一總標	-11.9976
不復更	-11.9977
果名	-11.9977
其門	-11.9977
青蓮華	-11.9977
是第一	-11.9978
沮	-11.9978
三會	-11.9979
坻	-11.998
寶網	-11.9982
一眾生	-11.9982
又諸	-11.9982
造立	-11.9983
玉篇	-11.9983
根鈍	-11.9983
不自知	-11.9984
眼前	-11.9984
破執	-11.9984
此即是	-11.9987
之狀	-11.9987
只管	-11.9988
白銀	-11.9988
勝智	-11.9988
音響	-11.9989
山寺	-11.999
化成	-11.9991
属	-11.9991
倐	-11.9991
時解脫	-11.9992
無去來	-11.9994
廣顯	-11.9996
若準	-11.9997
乃至老死	-11.9998
命終生	-11.9998
認得	-12.0001
土中	-12.0002
故下文云	-12.0003
五重	-12.0003
作舞	-12.0003
復現	-12.0005
發菩提	-12.0005
大乘中	-12.0007
輟	-12.0008
成益	-12.0008
殺者	-12.0009
謂離	-12.0011
亦不知	-12.0012
拄杖云	-12.0014
雜穢	-12.0014
伽他	-12.0015
體中	-12.0017
英靈	-12.0017
不妄語	-12.0018
文有二	-12.0019
路絕	-12.0019
利害	-12.0019
徹骨	-12.0019
復有二	-12.002
無間斷	-12.002
根熟	-12.0021
新譯	-12.0021
無量劫來	-12.0022
三諫	-12.0024
弁	-12.0025
▁含	-12.0025
相連	-12.0025
空等	-12.0026
諸佛國土	-12.0029
火裏	-12.0032
教伊	-12.0033
八十種好	-12.0034
勇猛精進	-12.0035
歸依佛	-12.0035
愛心	-12.0035
則汝	-12.0035
觀時	-12.0037
僧擬	-12.0037
梵僧	-12.0041
雖能	-12.0042
經三卷	-12.0043
復云何	-12.0045
蔚	-12.0045
彼心	-12.0045
所問經	-12.0046
以神通力	-12.0048
淨眼	-12.0049
後魏	-12.0049
塵境	-12.0049
七十五	-12.0051
所以者	-12.0052
序品	-12.0052
六根清淨	-12.0052
洗足	-12.0054
僧祇云	-12.0055
▁可思議	-12.0055
金翅鳥	-12.0055
u	-12.0056
喻之	-12.0058
觀世	-12.0059
七句	-12.0059
譯者	-12.006
明照	-12.006
徧行	-12.006
龍神	-12.006
誌公	-12.0061
信也	-12.0061
大利	-12.0061
一世界	-12.0061
譯人	-12.0062
所護	-12.0062
幾許	-12.0062
障難	-12.0062
山神	-12.0063
加以	-12.0064
得好	-12.0065
三祇	-12.0065
六凡	-12.0066
不應說	-12.0066
粲	-12.0067
島	-12.0067
當得作佛	-12.0067
除斷	-12.0068
眾所	-12.0069
猶可	-12.007
法力	-12.007
照見	-12.0071
▁初示	-12.0073
簡別	-12.0074
剎竿	-12.0076
禪悅	-12.0076
必由	-12.0076
崛	-12.0077
前進	-12.0077
佛印	-12.0077
淑	-12.0078
住相	-12.0081
上七	-12.0082
之所能	-12.0082
後果	-12.0083
金石	-12.0083
問難	-12.0083
命終之後	-12.0084
有覆無記	-12.0084
反上	-12.0085
床座	-12.0085
狂亂	-12.0086
則不可	-12.0086
既同	-12.0086
腳下	-12.0087
迦葉佛	-12.0087
釋曰後	-12.0087
四大種	-12.0088
巧便	-12.0088
忞	-12.0088
以淨	-12.0089
空見	-12.009
長蘆	-12.0091
疫	-12.0091
一十	-12.0092
覆障	-12.0093
感果	-12.0094
非眾生	-12.0096
奉上	-12.0096
當成	-12.0097
是凡夫	-12.0098
行支	-12.0098
祖佛	-12.0098
邵	-12.0099
錯會	-12.0101
一大事因緣	-12.0104
此就	-12.0104
娑婆訶	-12.0106
物者	-12.0107
昔年	-12.0107
昇進	-12.0107
初總明	-12.0107
坐處	-12.0113
一宗	-12.0113
遊山	-12.0114
▁是等	-12.0114
諸比丘聞佛所說	-12.0115
源流	-12.0117
▁四明	-12.0118
歸敬	-12.0119
我時	-12.012
糊	-12.0121
今當說	-12.0125
未在	-12.0125
卜度	-12.0126
上味	-12.0127
無熱	-12.0127
染污心	-12.0127
栴檀香	-12.0128
方便智	-12.0129
應爾	-12.0129
奠	-12.0132
人之所	-12.0132
百官	-12.0133
地動	-12.0134
亦生	-12.0135
普攝	-12.0136
能遍	-12.0136
▁○(	-12.0139
不了義	-12.0139
我於爾時	-12.014
仁王經	-12.0141
靴	-12.0143
無德	-12.0143
勿生	-12.0145
踏破	-12.0145
眼光	-12.0145
出世間法	-12.0145
始見	-12.0146
外求	-12.0146
未忘	-12.0147
僧祗	-12.0149
邪執	-12.0153
能具	-12.0153
鼻根	-12.0153
各有所	-12.0154
水牯牛	-12.0154
鹵	-12.0154
不借	-12.0155
取彼	-12.0155
劣故	-12.0156
生色界	-12.0157
之化	-12.016
橫身	-12.0161
四悉檀	-12.0161
▁十七	-12.0161
不可數	-12.0162
不朽	-12.0162
捨身命	-12.0162
身外	-12.0163
遊於	-12.0164
如其次第	-12.0164
狄	-12.0165
相看	-12.0166
福嚴	-12.0166
會釋	-12.0166
▁華嚴	-12.0169
之盛	-12.0169
生果	-12.0171
▁掌	-12.0171
可成	-12.0171
微妙法	-12.0172
佛之知見	-12.0173
汝等當	-12.0175
若捨	-12.0176
白蓮	-12.0176
行滿	-12.0176
非義	-12.0177
行頭陀	-12.0178
二論	-12.0179
爾雅	-12.018
所止	-12.018
兀	-12.0181
敷具	-12.0182
深達	-12.0183
造次	-12.0183
不覺知	-12.0186
亦異	-12.0186
剜	-12.0187
二途	-12.0187
應量	-12.0188
十六心	-12.0188
為障	-12.0189
諸佛世界	-12.019
自信	-12.0192
剎中	-12.0193
半滿	-12.0193
成都	-12.0194
和尚道	-12.0194
▁佛語	-12.0195
萬峰	-12.0196
諸惡趣	-12.0198
拆	-12.0198
核	-12.0198
心定	-12.0198
巧方便	-12.0199
萬緣	-12.0199
第十九	-12.02
角反	-12.02
失也	-12.0201
三角	-12.0201
為眾生說	-12.0204
巳生	-12.0209
王經一卷	-12.0211
兩序	-12.0211
得淨	-12.0212
辨得	-12.0213
假令	-12.0217
散花	-12.0218
▁伊	-12.0219
慰喻	-12.0219
蹲	-12.022
堦	-12.022
峙	-12.022
自在佛	-12.0221
相不可得	-12.0221
為總	-12.0221
朝廷	-12.0222
城郭	-12.0223
四土	-12.0224
提綱	-12.0224
正當恁麼時	-12.0225
老母	-12.0226
下答	-12.0229
能正	-12.0229
現在前時	-12.023
貲	-12.0231
樹枝	-12.0231
若果	-12.0232
嘆曰	-12.0233
怨親	-12.0234
起居	-12.0235
何殊	-12.0235
於此處	-12.0236
得須陀洹	-12.0236
所譯	-12.0236
所望	-12.0238
供養如來	-12.0238
笈多	-12.0239
靈骨	-12.0242
無記法	-12.0242
叶	-12.0242
極喜地	-12.0242
而作佛事	-12.0243
獨自	-12.0243
盛滿	-12.0245
一鉢	-12.0246
德用	-12.0246
聲下	-12.0246
末代	-12.0247
應可	-12.0247
舉唱	-12.0247
糞掃衣	-12.0248
乃爾	-12.0248
直教	-12.0249
趣生	-12.025
猥	-12.0253
總在	-12.0253
業煩惱	-12.0253
擊鼓	-12.0255
聚會	-12.0255
盡情	-12.0255
清水	-12.0255
十二種	-12.0257
身語意	-12.0257
委曲	-12.0258
為根	-12.0258
怙	-12.0259
應住	-12.026
吳興曰	-12.026
不毀	-12.0261
魁	-12.0264
說一切有部	-12.0264
十波羅蜜	-12.0264
險難	-12.0265
生人中	-12.0265
好心	-12.0267
東京	-12.027
壞色	-12.027
作沙門	-12.027
纖塵	-12.027
自責	-12.027
菴羅	-12.0271
清明	-12.0272
如須彌山	-12.0273
所造色	-12.0273
以對	-12.0274
蟒	-12.0275
若緣	-12.0275
威音王	-12.0276
但可	-12.0276
之學	-12.0279
口言	-12.028
▁河	-12.028
果能	-12.0281
我家	-12.0282
妙有	-12.0282
文殊問	-12.0285
普令	-12.0285
釐	-12.0285
檐	-12.0286
無餘依	-12.0287
文雖	-12.0288
未識	-12.0289
居處	-12.0289
一足	-12.029
為佛事	-12.0291
請說	-12.0291
變化身	-12.0293
威神力	-12.0294
聲聲	-12.0295
止犯	-12.0295
後報	-12.0297
鉗	-12.0297
黯	-12.0297
衣裳	-12.03
禍福	-12.0303
不擇	-12.0303
合說	-12.0305
前八	-12.0307
相關	-12.0307
證義	-12.0308
迂	-12.0308
啖	-12.0308
諸界	-12.0309
此一瓣香	-12.0309
▁巧	-12.031
名阿	-12.0311
▁初牒	-12.0312
是識	-12.0313
塔中	-12.0313
滿二十	-12.0315
則此	-12.0315
所釋	-12.0317
梵天王	-12.0317
修惑	-12.0318
情識	-12.0318
沙云	-12.0318
諡	-12.0319
虗偽	-12.0319
親疎	-12.032
予曰	-12.032
相觸	-12.0321
順忍	-12.0321
天竺沙門	-12.0322
戒品	-12.0322
年正月	-12.0326
云何以	-12.0326
當須	-12.0327
攝眾生	-12.0328
不障	-12.033
語句	-12.033
不應理	-12.0332
定相	-12.0332
四角	-12.0333
閉門	-12.0337
借問	-12.0337
勝定	-12.0337
液	-12.0341
潘	-12.0341
濛	-12.0342
眾等	-12.0342
出處	-12.0343
薄福	-12.0343
普覆	-12.0345
所招	-12.0345
在一處	-12.0346
白骨	-12.0346
毱多	-12.0347
妙覺明	-12.0347
數人	-12.0347
劫濁	-12.0347
遍覆	-12.0349
默然故	-12.0349
▁佛菩薩	-12.0349
無量阿僧祇	-12.0351
集智	-12.0352
許你	-12.0352
堤	-12.0353
壘	-12.0353
豬	-12.0353
同本	-12.0354
今昔	-12.0356
原來	-12.0356
下中上	-12.0358
二徵	-12.0359
鹽官	-12.036
但觀	-12.0361
蘊攝	-12.0361
發光	-12.0361
恍	-12.0362
無垢稱	-12.0362
不可稱量	-12.0363
首楞嚴經	-12.0364
藏者	-12.0364
空劫	-12.0365
品第一	-12.0366
終是	-12.0366
兩教	-12.0368
裸形	-12.0369
串	-12.0369
二類	-12.0369
交參	-12.0371
問著	-12.0372
作活計	-12.0372
公云	-12.0372
惡名	-12.0374
反又音	-12.0374
峨	-12.0375
正真	-12.0375
粹	-12.0375
鏁	-12.0375
智光明	-12.0375
理教	-12.0375
憂悲	-12.0375
服之	-12.0375
本業	-12.0376
男根	-12.0376
八品	-12.0376
此世界	-12.0376
空無相	-12.0377
能聞	-12.0377
四支	-12.0378
無虧	-12.0378
悅意	-12.0381
於中有	-12.0382
各各自	-12.0383
後復	-12.0385
塔銘	-12.0386
亦猶	-12.0389
二老	-12.039
▁勿	-12.039
高麗	-12.0391
語話	-12.0392
念法	-12.0393
為己	-12.0394
諸居士	-12.0394
業因緣	-12.0395
浴池	-12.0395
一定	-12.0395
國內	-12.0397
寶印	-12.0397
蹟	-12.0397
初列	-12.0398
千生	-12.0399
波羅奈	-12.0399
歸心	-12.04
人空	-12.0401
寶蓮華	-12.0401
六十八	-12.0402
離一切相	-12.0402
至矣	-12.0403
汝說	-12.0405
誰不	-12.0406
無路	-12.0407
勝負	-12.0407
土木	-12.0408
▁若爾	-12.041
捨去	-12.0411
又從	-12.0411
是大乘	-12.0412
▁勒	-12.0415
我子	-12.0416
闌	-12.0419
鳩摩羅什	-12.042
未圓	-12.0421
夏安居	-12.0422
之法也	-12.0423
四恩	-12.0423
四處	-12.0423
悟得	-12.0425
杖頭	-12.0426
得無漏	-12.0427
楞嚴經云	-12.0427
龐公	-12.0427
善護	-12.0429
語也	-12.0429
是無為	-12.0429
於小	-12.0429
等是也	-12.0429
嚙	-12.0431
冬至	-12.0432
路逢	-12.0433
巳身	-12.0433
十載	-12.0434
厭惡	-12.0435
告眾	-12.0435
必具	-12.0435
塔于	-12.0437
自心現量	-12.0438
▁西方	-12.044
住後	-12.0441
金華	-12.0441
▁呪	-12.0441
k	-12.0442
▁10:25:	-12.0442
波羅密	-12.0443
保寧	-12.0443
彼地	-12.0443
修淨業	-12.0444
巳斷	-12.0444
以論	-12.0445
一燈	-12.0448
諸障	-12.0448
疲厭	-12.045
▁若欲	-12.0451
若到	-12.0451
為護	-12.0451
財利	-12.0452
理體	-12.0452
法可得	-12.0452
一切菩薩摩訶薩行	-12.0452
羮	-12.0454
智性	-12.0455
尚不可得	-12.0455
忍受	-12.0456
一切眾生心	-12.0456
而致	-12.0457
忤	-12.0457
地藏菩薩	-12.0458
隱覆	-12.0459
孤峰	-12.0459
士大夫	-12.0461
其中有	-12.0461
空行	-12.0462
鳳凰	-12.0465
令捨	-12.0465
開山	-12.0465
涕唾	-12.0466
並從	-12.0466
希奇	-12.0466
後顯	-12.0466
壬	-12.0467
臨行	-12.0467
泥團	-12.0468
隨喜迴向	-12.0468
若一切智	-12.0469
師弟	-12.047
所攝受	-12.047
隨眾生心	-12.0473
真我	-12.0474
▁一切智智清淨	-12.0474
淋	-12.0476
反考聲	-12.0476
不干	-12.0477
瞻視	-12.0477
文為三	-12.0477
相顯	-12.0478
衲僧家	-12.0479
自然而	-12.048
三假	-12.0482
服藥	-12.0483
即約	-12.0484
執心	-12.0485
瀾	-12.0485
毘鉢舍那	-12.0487
涉入	-12.0489
肉身	-12.0491
▁一切皆	-12.0492
得圓滿	-12.0492
綿綿	-12.0493
可依	-12.0493
身光	-12.0494
前事	-12.0494
便乃	-12.0494
昭然	-12.0495
▁洞山	-12.0495
一顆	-12.0496
▁上堂舉	-12.0496
法味	-12.0498
如世間	-12.0498
潰	-12.0499
悖	-12.0499
已復	-12.0501
勉之	-12.0502
誕生	-12.0502
洪武	-12.0504
稱理	-12.0507
▁摩地	-12.0507
善知識者	-12.0509
門曰	-12.0509
嗔恚	-12.051
山色	-12.0511
藥病	-12.0512
身量	-12.0516
說甚麼	-12.0516
無慚愧	-12.0517
成唯識	-12.0518
爾者	-12.0518
之命	-12.0518
所列	-12.052
瑞相	-12.052
又釋	-12.0521
蝦	-12.0521
分散	-12.0522
▁一心頂禮	-12.0522
劫外	-12.0522
履踐	-12.0524
世第一	-12.0525
祖父	-12.0525
疲勞	-12.0525
證悟	-12.0528
得起	-12.0529
例餘	-12.0533
一切大眾	-12.0535
大好	-12.0535
南嶽下	-12.0535
為遮	-12.0535
諸凡夫	-12.0536
諸病	-12.0537
招提	-12.0537
佛海	-12.0538
而顯	-12.0539
忽生	-12.054
蓋覆	-12.054
非真實	-12.0542
知一切眾生	-12.0543
極苦	-12.0544
撈	-12.0544
之器	-12.0545
風雲	-12.0545
不癡	-12.0546
三昧力	-12.0547
第一義中	-12.0547
說箇	-12.0549
觀待	-12.0549
一切外道	-12.0549
我想	-12.0551
既為	-12.0551
陳如	-12.0553
我師	-12.0553
行步	-12.0554
錢財	-12.0555
犯輕垢罪	-12.0555
如來應正等覺	-12.0556
恒住	-12.0558
無性故	-12.0558
善男子我	-12.0559
英雄	-12.0559
容受	-12.0559
秉拂	-12.0561
▁速	-12.0562
之喻	-12.0562
勝功德	-12.0563
犯波羅夷	-12.0563
擊碎	-12.0564
疑云	-12.0564
我今日	-12.0564
恁麼去	-12.0564
須陀洹果	-12.0564
座前	-12.0565
聲聞弟子	-12.0566
持世	-12.0566
終成	-12.0567
鵠	-12.0567
蹴	-12.0567
吁	-12.0567
脚跟下	-12.0567
無縛無解	-12.0568
蓮池	-12.0568
君王	-12.0569
無論	-12.057
石壁	-12.0571
床上	-12.0571
方言	-12.0571
而臥	-12.0572
聲塵	-12.0573
室內	-12.0573
客來	-12.0574
此宗	-12.0575
為對	-12.0576
勝也	-12.0577
發問	-12.0577
大神	-12.0578
結歎	-12.0578
受罪	-12.058
所燒	-12.0582
互有	-12.0583
究其	-12.0583
有二一	-12.0583
是中有	-12.0585
業感	-12.0585
寂靜故	-12.0588
14	-12.0589
有樂	-12.0589
無身	-12.0589
生無色界	-12.0589
百千億那由他	-12.0589
遘	-12.059
差別智	-12.0593
起煩惱	-12.0594
大戒	-12.0595
別求	-12.0596
瞎漢	-12.0596
以是白佛	-12.0596
寶鏡	-12.0597
於虛空中	-12.06
歸真	-12.06
𥁞	-12.0601
加之	-12.0602
億百千	-12.0603
恐有	-12.0604
荷擔	-12.0604
痛棒	-12.0604
宗中	-12.0606
若常	-12.0606
聖壽	-12.0607
單白	-12.0608
過去佛	-12.061
歡悅	-12.0611
堅執	-12.0612
十方無量	-12.0612
姉	-12.0612
有一類	-12.0613
之頃	-12.0614
金口	-12.0615
作如是語	-12.0617
目視	-12.062
妙旨	-12.0622
皆現	-12.0622
濕生	-12.0622
金烏	-12.0622
正憶念	-12.0622
正論	-12.0622
熱時	-12.0624
甎	-12.0624
屯	-12.0624
旋轉	-12.0624
宣示	-12.0625
何關	-12.0625
迷情	-12.0626
興善	-12.0627
歷代祖師	-12.0627
求利	-12.0627
年中	-12.0628
雖曰	-12.0628
所得法	-12.0629
別論	-12.0629
禪道	-12.063
快哉	-12.0631
官反	-12.0631
無上覺	-12.0631
請住	-12.0632
將護	-12.0632
往古	-12.0633
隨我	-12.0633
諸句	-12.0634
最後身	-12.0635
教外別傳	-12.0636
是名菩薩摩訶薩	-12.0636
如實智	-12.0636
慳悋	-12.0638
娑囉	-12.0639
推倒	-12.0641
又由	-12.0642
與餘	-12.0643
孰為	-12.0643
千江	-12.0643
彼我	-12.0644
之權	-12.0645
一立因	-12.0645
僧徒	-12.0645
無生無	-12.0647
即屬	-12.0651
鎮州	-12.0651
之迹	-12.0651
圓證	-12.0652
嚴淨佛土	-12.0652
成德	-12.0653
心心法	-12.0653
底迦	-12.0653
依空	-12.0656
密嚴	-12.0656
觀境	-12.0656
此舉	-12.0657
八十八	-12.0657
轉生	-12.0657
蠟	-12.0658
駄	-12.0658
▁知識	-12.066
▁賀	-12.0661
勝前	-12.0662
但當	-12.0662
且據	-12.0663
四紙	-12.0663
皆說	-12.0663
喫茶去	-12.0664
持心	-12.0664
無師	-12.0665
恭惟	-12.0666
名山	-12.0667
樂見	-12.0668
菩薩修行	-12.0668
巍	-12.067
贅	-12.067
江上	-12.067
妄識	-12.0672
能住	-12.0672
從佛聞	-12.0672
本因	-12.0673
▁一義	-12.0674
說此偈	-12.0674
大品云	-12.0675
▁不為	-12.0677
恒河沙數	-12.0678
先知	-12.0681
此座	-12.0682
收拾	-12.0682
品第七	-12.0682
餘之	-12.0682
調御丈夫	-12.0683
貴人	-12.0683
篤信	-12.0684
慈悲喜捨	-12.0684
▁是則	-12.0684
王氏	-12.0685
今疏	-12.0685
佛告比丘	-12.0686
三界中	-12.0687
證據	-12.0688
轉根	-12.0688
此亦如是	-12.0688
七世	-12.0691
犯捨墮	-12.0692
億那由他	-12.0692
如契經說	-12.0692
纓	-12.0693
峽	-12.0693
舡	-12.0693
十八年	-12.0693
爪牙	-12.0695
如來十力	-12.0696
德業	-12.0696
有斯	-12.0697
景德	-12.0698
從何來	-12.0699
不傷	-12.0699
是故說曰	-12.07
無盡藏	-12.0703
攝大乘論	-12.0704
杲日	-12.0704
結加趺坐	-12.0705
犀	-12.0707
宗皇帝	-12.0707
相雜	-12.0708
中庸	-12.0708
懷疑	-12.071
密印	-12.0711
陰界	-12.0712
乞者	-12.0713
洞明	-12.0713
二大指	-12.0713
善男子善女人	-12.0713
他宗	-12.0714
禮樂	-12.0714
閑靜	-12.0715
神識	-12.0716
生識	-12.0716
如來藏性	-12.0716
老死愁歎苦憂惱	-12.0716
脩羅	-12.0717
無上正等	-12.0717
得無上	-12.0717
全真	-12.0719
可知也	-12.072
四無畏	-12.072
▁布	-12.0722
師指	-12.0723
本宗	-12.0723
於一時	-12.0725
大果	-12.0726
力反	-12.0727
伍	-12.0728
鎗	-12.0728
天龍八部	-12.0728
九峰	-12.073
之乎	-12.0732
僧忍	-12.0732
劫名	-12.0734
留礙	-12.0734
說禪	-12.0735
正徧知	-12.0736
無法可	-12.0736
覆護	-12.0736
慧根	-12.0737
而且	-12.0738
大山	-12.0738
水邊	-12.0738
遠行地	-12.0739
屆	-12.0739
提撕	-12.074
洛浦	-12.074
自陳	-12.0741
紹隆	-12.0742
中二先	-12.0742
富樂	-12.0745
寰	-12.0745
大涅槃經	-12.0745
望前	-12.0747
一夏	-12.0748
▁南无大	-12.075
閼伽	-12.0751
寶髻	-12.0752
七尺	-12.0753
反說文云	-12.0753
戒經	-12.0754
而說頌曰	-12.0755
第十卷	-12.0756
疇	-12.0757
梁山	-12.0757
勸化	-12.0758
妄起	-12.0758
復過	-12.0758
四念	-12.0759
這裡	-12.0759
契經中	-12.076
小指	-12.0761
第二月	-12.0761
馥	-12.0762
蒿	-12.0762
筍	-12.0763
須彌山王	-12.0766
二無我	-12.0766
天下老和尚	-12.0766
結縛	-12.0767
五百年	-12.0767
不久當	-12.0768
鄔	-12.0769
異法	-12.0771
奉請	-12.0771
復觀	-12.0772
四頌	-12.0772
準前	-12.0772
中路	-12.0774
另	-12.0774
諠	-12.0774
者意說	-12.0775
由他	-12.0776
意中	-12.0777
莫知	-12.0778
故不名	-12.0779
簡異	-12.0779
自共相	-12.078
次當	-12.0781
此二句	-12.0782
力無畏	-12.0782
修德	-12.0783
大悅	-12.0783
增一阿含	-12.0785
下次明	-12.0785
乱	-12.0785
璨	-12.0786
眇	-12.0786
此中意	-12.0787
縱奪	-12.0787
一歲	-12.0787
盜賊	-12.0788
談論	-12.0788
修心	-12.0789
▁神通	-12.079
惡報	-12.079
五神通	-12.0791
誦戒	-12.0791
十萬億	-12.0791
泉州	-12.0793
道業	-12.0793
別中	-12.0795
以方便力	-12.0795
有志	-12.0796
三千世界	-12.0796
羯囉	-12.0796
仞	-12.0796
燼	-12.0797
外別有	-12.0797
復入	-12.0797
𤼵	-12.0797
笻	-12.0797
萬象森羅	-12.0798
測量	-12.0799
經所說	-12.0801
漸增	-12.0802
▁三菩提	-12.0804
未竟	-12.0805
皆盡	-12.0805
三歲	-12.0806
看病	-12.0806
果海	-12.0807
亦依	-12.0807
所度	-12.0809
有智慧	-12.081
青龍	-12.0812
王家	-12.0813
全在	-12.0813
修淨土	-12.0815
在者裏	-12.0815
習因	-12.0816
何處有	-12.0816
不管	-12.0817
悉為	-12.0817
修行人	-12.0818
更有一	-12.082
福利	-12.082
衣被	-12.082
達磨大師	-12.082
聖性	-12.0821
鶻	-12.0821
佛告舍利弗	-12.0823
蜜多	-12.0824
具陳	-12.0824
妨難	-12.0825
長阿含	-12.0825
千秋	-12.0826
背上	-12.0826
如盲	-12.0827
壽終	-12.0829
六夜	-12.0829
即般若	-12.0829
受學	-12.0831
聞香	-12.0831
安詳	-12.0831
分別性	-12.0832
必然	-12.0832
相符	-12.0832
千尺	-12.0835
一葉	-12.0835
不墜	-12.0835
起大悲	-12.0837
受他	-12.0839
具一切	-12.0839
外塵	-12.0842
願一切眾生得	-12.0842
日上堂	-12.0843
無量種	-12.0843
受五戒	-12.0844
躄	-12.0844
漲	-12.0844
十誦云	-12.0844
直言	-12.0845
證滅	-12.0845
若成就	-12.0845
背後	-12.0845
光普照	-12.0846
律儀戒	-12.0846
授以	-12.085
第二譯	-12.085
弘道	-12.085
百論	-12.0852
手段	-12.0852
清淨戒	-12.0852
一貫	-12.0853
淨德	-12.0854
調伏眾生	-12.0854
只這	-12.0855
何待	-12.0856
▁切智	-12.0858
未徹	-12.0858
一拶	-12.0858
百一十	-12.0859
不對	-12.0859
二顯果	-12.0859
▁李	-12.0861
濕嚩	-12.0861
潤澤	-12.0862
自住	-12.0863
欲來	-12.0864
能測	-12.0864
林寺	-12.0865
祕密藏	-12.0865
瑜伽云	-12.0866
不思議境	-12.0866
餘習	-12.0866
法鼓	-12.0867
巫	-12.0868
三惡趣	-12.0868
綖	-12.0868
內凡	-12.0868
非心非佛	-12.0868
則無有	-12.0869
世祖	-12.087
▁南无善	-12.0871
欲界中	-12.0872
然亦	-12.0872
現形	-12.0873
老胡	-12.0874
可有	-12.0875
所請	-12.0876
初機	-12.0876
益州	-12.0877
寺譯	-12.0877
扉	-12.0879
六十六	-12.088
上蒲	-12.088
如法華	-12.0881
非直	-12.0881
一節	-12.0882
微言	-12.0882
何以知	-12.0882
加行位	-12.0883
錄云	-12.0883
車乘	-12.0884
滿慈	-12.0884
何罪	-12.0885
全收	-12.0885
遺教	-12.0885
心之所	-12.0886
恰好	-12.0887
手脚	-12.0888
隨諸眾生	-12.0888
梵眾	-12.0889
以彰	-12.0889
四月八日	-12.0891
䥫	-12.0891
指上	-12.0892
侍衛	-12.0893
法愛	-12.0893
功德海	-12.0894
之禮	-12.0894
却後	-12.0895
迷理	-12.0896
三類	-12.0897
蒼天	-12.0898
亥	-12.09
根身	-12.0901
囂	-12.0903
自欺	-12.0903
乘此	-12.0904
即無明	-12.0905
羊毛	-12.0906
唯得	-12.091
聞是語已	-12.0911
金剛智	-12.0912
不備	-12.0913
箱	-12.0915
難遇	-12.0915
卓拄杖下座	-12.0916
大梅	-12.0916
長年	-12.0917
而興	-12.0918
心心數法	-12.0919
判為	-12.0922
古路	-12.0923
受相應	-12.0924
一隊	-12.0924
徇	-12.0927
冐	-12.0927
秫	-12.0927
廚	-12.0927
述曰此	-12.0927
寶林	-12.093
結夏	-12.0931
六人	-12.0932
酒肉	-12.0933
癡狂	-12.0933
人無我	-12.0934
苦集滅道	-12.0934
復有二種	-12.0936
俱通	-12.0938
倏	-12.0938
開佛知見	-12.094
▁南嶽	-12.0941
深般若波羅蜜	-12.0944
不受後有	-12.0944
反非也	-12.0944
到頭	-12.0944
報盡	-12.0944
妙音聲	-12.0945
我願	-12.0946
勝因	-12.0947
都盡	-12.0947
進曰	-12.0948
腮	-12.095
呾	-12.095
理門	-12.0951
俱盡	-12.0951
廣長	-12.0954
能示	-12.0954
虛空藏菩薩	-12.0954
垂示	-12.0955
金剛手菩薩	-12.0955
癸	-12.0956
出外	-12.0956
話會	-12.0958
智積	-12.0958
後於	-12.0958
皮膚	-12.096
妄分別	-12.096
意同	-12.0961
遂令	-12.0961
無盡意	-12.0963
成無上	-12.0964
覺體	-12.0964
不倦	-12.0967
色究竟天	-12.0969
洞徹	-12.0971
尼眾	-12.0973
近離甚處	-12.0974
阿須倫	-12.0974
還滅	-12.0975
傘	-12.0977
若他	-12.0977
果法	-12.0977
盡滅	-12.0978
動用	-12.0979
義別	-12.0979
任意	-12.0981
惟一	-12.0983
13	-12.0984
大凡	-12.0984
所有功德	-12.0985
不與麼	-12.0985
共許	-12.0985
腥	-12.0986
釧	-12.0986
竭力	-12.0988
第八地	-12.0988
佛令	-12.0989
性常	-12.0991
肖	-12.0992
為令眾生	-12.0992
灘	-12.0993
諸尊	-12.0993
不足以	-12.0994
於正法	-12.0994
僧道	-12.0994
海上	-12.0995
如鳥	-12.0996
自持	-12.0996
極惡	-12.0996
錯認	-12.0997
餘方	-12.0997
色塵	-12.0997
給孤獨園	-12.0998
上說	-12.1003
能護	-12.1004
所收	-12.1005
鼓聲	-12.1008
可乎	-12.1009
降生	-12.1009
▁如是等	-12.1009
不祥	-12.101
佛性者	-12.1011
瞎驢	-12.1012
相容	-12.1012
千七百	-12.1013
聖慧	-12.1013
出現世間	-12.1014
耳鼻	-12.1015
千界	-12.1016
生盲	-12.1018
部中	-12.1019
火爐	-12.102
形骸	-12.1021
沛	-12.1021
楹	-12.1022
玄微	-12.1023
空如來藏	-12.1023
師至	-12.1023
洛叉	-12.1023
授戒	-12.1024
復應	-12.1024
可證	-12.1025
牛馬	-12.1025
時有一	-12.1025
歲時	-12.1027
兩忘	-12.1027
不暇	-12.103
巳證	-12.103
踪	-12.1033
讐	-12.1033
總報	-12.1034
吉州	-12.1034
無始來	-12.1035
後代	-12.1037
▁明州	-12.1037
定業	-12.104
蓮華藏	-12.1041
忘言	-12.1041
諸佛出世	-12.1042
三乘人	-12.1042
偶然	-12.1042
非處	-12.1045
非一非異	-12.1046
說夢	-12.1046
功夫	-12.1048
若如是者	-12.1048
不謗	-12.1049
持淨戒	-12.1049
祝髮	-12.105
禮記	-12.1052
質多	-12.1054
天外	-12.1055
五葉	-12.1055
五百比丘	-12.1055
尼薩耆波逸提	-12.1058
鑊湯	-12.1058
日月燈	-12.1059
四段	-12.106
是我所	-12.106
▁羅尼	-12.1062
西湖	-12.1062
不任	-12.1062
叫喚	-12.1063
四祖	-12.1064
追求	-12.1066
迹門	-12.1066
請僧	-12.1068
孃	-12.1069
一切有為	-12.1072
吾道	-12.1072
永絕	-12.1076
一下云	-12.1076
如來有	-12.1076
失壞	-12.1076
元魏	-12.1077
乳酪	-12.1078
罸	-12.1081
驀然	-12.1082
智用	-12.1083
哩野	-12.1083
餘時	-12.1084
凡小	-12.1085
落落	-12.1085
孤山云	-12.1085
無不盡	-12.1086
給侍	-12.1088
救世	-12.1088
甚為	-12.1089
順逆	-12.1091
訝	-12.1093
甦	-12.1093
亦緣	-12.1094
於中有三	-12.1094
令成	-12.1097
根緣	-12.1099
除愈	-12.1099
受熏	-12.1101
分座	-12.1102
盡苦	-12.1103
涅槃界	-12.1103
還入	-12.1104
不能令	-12.1105
咀	-12.1105
眴	-12.1105
聲聞獨覺	-12.1106
胞胎	-12.1107
如是等法	-12.1107
諸幻	-12.1107
滅擯	-12.1108
之異名	-12.1108
保任	-12.1108
惡言	-12.1109
身口意業	-12.111
善慧地	-12.1111
魚龍	-12.1112
諮問	-12.1112
是日	-12.1112
翠微	-12.1113
所動	-12.1114
小界	-12.1114
▁嚩日囉	-12.1115
成就一切	-12.1115
異性	-12.1116
之音	-12.1118
祭祀	-12.1118
千餘	-12.1118
奢摩	-12.1118
即不無	-12.1119
名德	-12.1119
會下	-12.112
本寂	-12.112
損壞	-12.1121
愛染	-12.1121
是實有	-12.1123
立法	-12.1124
合譬	-12.1126
從之	-12.1126
毀戒	-12.1128
車馬	-12.1128
出胎	-12.1128
智明	-12.1128
欲聞	-12.1129
遯	-12.1129
法兄	-12.1132
其水	-12.1133
向西	-12.1134
僧房	-12.1136
12	-12.1138
識支	-12.114
亢	-12.1141
莫向	-12.1143
頭曰	-12.1143
破邪	-12.1143
苦法智	-12.1144
之書	-12.1144
瀑	-12.1147
將心	-12.115
多門	-12.115
作是願	-12.115
心是佛	-12.1151
湖州	-12.1151
▁須菩提白佛言	-12.1151
無窮盡	-12.1152
毒龍	-12.1152
一致	-12.1152
之表	-12.1152
菩提者	-12.1153
是甚麼人	-12.1153
獄中	-12.1153
與理	-12.1155
栴	-12.1155
無慧	-12.1156
曼陀羅	-12.1156
廻	-12.1157
寬狹	-12.1157
不約	-12.116
二支	-12.1162
圓極	-12.1163
間有	-12.1164
眾病	-12.1164
顯正	-12.1165
佛鑑	-12.1165
賓頭盧	-12.1166
駛	-12.1166
苗稼	-12.1166
大水	-12.1166
▁初列	-12.1166
大難	-12.1167
斯文	-12.1167
摩訶般若	-12.1169
▁又復	-12.1171
當修	-12.1173
所制	-12.1174
皆不能	-12.1175
僧殘罪	-12.1175
於諸有情	-12.1175
滿慈子	-12.1175
▁勅	-12.1175
道樹	-12.1176
毛詩	-12.1176
此罪	-12.1176
十心	-12.1176
尼薩耆	-12.1177
法界眾生	-12.1177
將為	-12.1177
窟中	-12.1178
畢竟不生	-12.1178
皎潔	-12.1178
▁財	-12.1179
大愛道	-12.118
十二時	-12.1181
箇漢	-12.1182
造罪	-12.1182
麻谷	-12.1183
如電	-12.1184
串習	-12.1184
解結	-12.1184
捨於	-12.1184
前義	-12.1184
那堪	-12.1185
魔羅	-12.1185
誦習	-12.1185
頌合	-12.1185
分科	-12.1185
安可	-12.1186
[...]
