<unk>	0
<s>	0
</s>	0
▁	-2.9204
/	-4.19023
)	-4.19991
(	-4.54711
之	-4.5584
以	-4.86927
為	-5.03697
▁(	-5.11064
而	-5.21934
人	-5.37781
也	-5.43477
有	-5.49977
其	-5.51858
者	-5.55272
於	-5.5659
曰	-5.75172
一	-5.8622
不	-5.88293
在	-5.90482
至	-5.98183
王	-5.99399
與	-6.05107
則	-6.05592
自	-6.06812
上	-6.08976
大	-6.09374
及	-6.13868
中	-6.16615
子	-6.16644
山	-6.24487
無	-6.26898
時	-6.27747
臣	-6.31111
又	-6.33739
行	-6.34239
三	-6.34325
等	-6.34994
事	-6.35549
所	-6.37098
二	-6.42025
縣	-6.42162
官	-6.42181
/)	-6.43554
皆	-6.45051
如	-6.47335
言	-6.47972
今	-6.48214
使	-6.48618
出	-6.49262
公	-6.49399
令	-6.55602
下	-6.57107
入	-6.57405
于	-6.5817
後	-6.58968
故	-6.59155
文	-6.59489
此	-6.60682
知	-6.61629
明	-6.63445
兵	-6.64434
乃	-6.64981
道	-6.67298
水	-6.67815
得	-6.69421
書	-6.69769
名	-6.69778
復	-6.69813
城	-6.70191
見	-6.70362
將	-6.70693
用	-6.71141
州	-6.71481
亦	-6.75805
四	-6.75922
五	-6.76564
即	-6.76959
元	-6.77266
矣	-6.79872
正	-6.81219
南	-6.81589
從	-6.82734
同	-6.82843
立	-6.8341
國	-6.8439
天	-6.8522
安	-6.87718
若	-6.8837
地	-6.89287
當	-6.8967
相	-6.89922
東	-6.90105
日	-6.9053
作	-6.90584
西	-6.90585
軍	-6.90848
可	-6.90848
是	-6.91055
長	-6.91345
成	-6.91835
已	-6.91968
生	-6.92314
民	-6.92465
石	-6.92577
多	-6.92654
前	-6.95792
氏	-6.96208
分	-6.96744
河	-6.96781
遂	-6.97133
張	-6.97236
本	-6.98589
因	-6.9901
内	-6.99388
字	-7.00032
方	-7.00329
平	-7.00457
陳	-7.0058
各	-7.00879
初	-7.02206
李	-7.02629
命	-7.02837
然	-7.04075
請	-7.04748
非	-7.04939
欲	-7.05211
馬	-7.05668
通	-7.07006
北	-7.08923
歸	-7.09672
謂	-7.09991
門	-7.10269
周	-7.10431
禮	-7.11354
帝	-7.11951
家	-7.12047
進	-7.12079
或	-7.12339
金	-7.12501
置	-7.12615
應	-7.13522
六	-7.13727
云	-7.15286
志	-7.1557
府	-7.15979
先	-7.16129
諸	-7.16402
定	-7.16523
必	-7.17247
漢	-7.17301
重	-7.18112
奏	-7.18274
守	-7.18729
未	-7.18731
外	-7.19088
詔	-7.1962
數	-7.20001
宋	-7.20566
取	-7.20849
經	-7.21109
合	-7.21207
去	-7.22986
建	-7.23641
居	-7.23675
焉	-7.2446
乎	-7.2525
齊	-7.25296
年	-7.25335
傳	-7.25403
髙	-7.25425
君	-7.2616
法	-7.26286
封	-7.26966
郡	-7.27026
任	-7.27733
來	-7.2815
既	-7.28419
實	-7.29522
世	-7.30116
武	-7.30265
死	-7.30956
江	-7.30968
雖	-7.31838
何	-7.31873
聞	-7.32559
劉	-7.32753
小	-7.33264
九	-7.33277
加	-7.33559
常	-7.33653
我	-7.33678
心	-7.34333
兩	-7.34409
主	-7.34448
徳	-7.35442
奉	-7.35518
唐	-7.35686
士	-7.35977
師	-7.35981
賊	-7.35987
義	-7.36207
古	-7.36479
夫	-7.36552
宜	-7.37023
卒	-7.37197
司	-7.38175
舉	-7.38498
屬	-7.38995
治	-7.3923
並	-7.39555
且	-7.39563
始	-7.3961
十	-7.39955
惟	-7.40084
發	-7.40484
俱	-7.41193
起	-7.41674
稱	-7.42037
開	-7.42059
興	-7.42486
都	-7.4262
改	-7.4328
學	-7.43482
朝	-7.43512
爲	-7.43553
清	-7.4375
處	-7.44037
議	-7.44094
善	-7.44463
白	-7.45376
八	-7.45421
七	-7.45625
光	-7.45896
凡	-7.46533
還	-7.46535
樂	-7.47002
田	-7.47213
和	-7.47641
引	-7.47683
間	-7.47741
遣	-7.47907
黄	-7.48202
修	-7.48524
除	-7.48999
新	-7.49306
盡	-7.49804
深	-7.50173
晉	-7.50343
舊	-7.51075
過	-7.51133
㑹	-7.51137
廣	-7.51238
設	-7.51278
尚	-7.51575
能	-7.51594
秦	-7.51685
口	-7.5198
路	-7.52143
降	-7.53063
思	-7.53399
趙	-7.53612
龍	-7.54261
侯	-7.54538
次	-7.54552
受	-7.55535
以為	-7.55719
陽	-7.55735
爾	-7.56036
鎮	-7.56253
易	-7.56393
直	-7.56584
服	-7.56979
海	-7.57874
衆	-7.58375
親	-7.58405
由	-7.58951
宗	-7.59469
制	-7.59653
遷	-7.60527
神	-7.60632
集	-7.60713
天下	-7.60768
少	-7.61047
度	-7.61166
錢	-7.62127
觀	-7.62273
論	-7.62545
流	-7.62854
省	-7.63005
左	-7.63562
共	-7.63622
風	-7.63811
圖	-7.63974
賜	-7.64198
拜	-7.64508
土	-7.6456
節	-7.64676
魏	-7.64831
問	-7.6519
宫	-7.65209
原	-7.65497
反	-7.6575
里	-7.65866
殺	-7.66167
兼	-7.66248
著	-7.66316
逺	-7.66398
理	-7.66776
授	-7.67002
求	-7.67008
意	-7.67092
坐	-7.6747
不可	-7.68243
楊	-7.68293
三年	-7.68426
梁	-7.685
詩	-7.68815
父	-7.6976
望	-7.69856
信	-7.70358
吾	-7.70408
不能	-7.70439
章	-7.70754
按	-7.70832
止	-7.71477
營	-7.71756
伯	-7.7204
雲	-7.72109
食	-7.72491
甚	-7.72554
計	-7.72692
政	-7.72873
記	-7.73587
耳	-7.73609
近	-7.73676
布	-7.73868
孫	-7.74259
保	-7.74725
高	-7.75862
每	-7.76125
難	-7.76582
益	-7.76794
木	-7.77119
據	-7.77138
餘	-7.773
林	-7.77591
身	-7.78014
仍	-7.78227
位	-7.78449
史	-7.78825
月	-7.78845
妻	-7.78999
二年	-7.79494
更	-7.7954
寺	-7.8024
功	-7.80433
克	-7.80673
許	-7.80724
首	-7.8129
右	-7.81441
并	-7.81455
率	-7.81797
失	-7.82465
利	-7.82785
○	-7.83333
承	-7.8334
廢	-7.83412
衛	-7.83529
音	-7.83624
固	-7.83655
力	-7.83675
萬	-7.84208
太	-7.84695
廟	-7.84924
玉	-7.85237
,	-7.85279
女	-7.85783
嘗	-7.8579
代	-7.86008
永	-7.86049
載	-7.863
楚	-7.8661
領	-7.86777
猶	-7.8682
備	-7.87047
解	-7.87256
致	-7.87264
留	-7.87427
德	-7.87503
具	-7.87541
朕	-7.87907
給	-7.8801
仁	-7.8872
将	-7.89382
告	-7.89455
特	-7.89535
隨	-7.89572
春	-7.89746
臺	-7.89746
橋	-7.89784
攻	-7.90088
賢	-7.90278
陵	-7.90318
罷	-7.90406
物	-7.90441
聲	-7.90463
獨	-7.90628
聖	-7.90843
納	-7.91002
吏	-7.91105
夏	-7.91339
往	-7.92136
卿	-7.92312
表	-7.92328
嵗	-7.92544
景	-7.92751
百	-7.93022
異	-7.93023
臨	-7.93274
忠	-7.93602
陛下	-7.93784
宣	-7.94839
注	-7.94879
寧	-7.94927
再	-7.94969
元年	-7.95345
濟	-7.95584
謀	-7.95859
吳	-7.96181
祖	-7.96549
母	-7.96727
華	-7.96806
召	-7.9698
交	-7.97164
悉	-7.97295
鄉	-7.97921
車	-7.97965
銀	-7.97967
執	-7.98308
就	-7.98391
嚴	-7.98511
殿	-7.98907
丁	-7.98946
敬	-7.98954
紀	-7.99542
部	-7.99594
徐	-7.99841
收	-8.00121
色	-8.00199
魯	-8.00433
朝廷	-8.00681
終	-8.00786
但	-8.00788
儀	-8.01089
工	-8.01174
報	-8.01259
號	-8.01342
朱	-8.01416
堂	-8.01505
亂	-8.0151
别	-8.01576
達	-8.01585
遇	-8.02011
罪	-8.02446
昭	-8.02615
獻	-8.02638
切	-8.02675
送	-8.02735
青	-8.0275
順	-8.03021
哉	-8.03221
頭	-8.03332
勝	-8.03361
老	-8.03605
崇	-8.03608
貴	-8.03656
亡	-8.03923
考	-8.03927
選	-8.04066
權	-8.04088
氣	-8.0414
泉	-8.04756
户	-8.04888
闕	-8.04939
辭	-8.0525
免	-8.05381
孝	-8.05414
祭	-8.05676
湖	-8.05883
登	-8.05966
全	-8.06127
職	-8.0618
邑	-8.06206
川	-8.06584
延	-8.06634
撰	-8.06677
語	-8.06889
監	-8.06974
補	-8.07158
好	-8.07944
御	-8.08218
存	-8.08321
不得	-8.0838
亭	-8.08402
戰	-8.08585
將軍	-8.09082
溪	-8.09274
絶	-8.09386
務	-8.09476
一人	-8.09514
恐	-8.10217
運	-8.10332
列	-8.10485
鄭	-8.11006
羅	-8.1101
依	-8.11037
比	-8.1161
靈	-8.11716
視	-8.11812
充	-8.11996
對	-8.12056
翻	-8.12157
衣	-8.12234
連	-8.12953
恩	-8.13074
差	-8.1308
退	-8.13615
夜	-8.13659
犯	-8.13715
化	-8.14171
典	-8.14184
胡	-8.144
轉	-8.14803
被	-8.15264
慶	-8.15346
造	-8.15422
阿	-8.15525
韓	-8.15539
説	-8.15606
敗	-8.1589
素	-8.16009
昌	-8.16242
厚	-8.16904
良	-8.16981
所以	-8.17138
福	-8.17143
誠	-8.17182
升	-8.17184
越	-8.17519
恭	-8.176
嘉	-8.17658
向	-8.1767
便	-8.17786
歴	-8.17903
乞	-8.17957
卷	-8.18024
闗	-8.18137
移	-8.18282
草	-8.18363
要	-8.18465
足	-8.18488
盛	-8.18493
掌	-8.19003
案	-8.19321
燕	-8.19791
仲	-8.19862
真	-8.20568
左右	-8.2094
康	-8.2112
破	-8.21267
尊	-8.2165
威	-8.21707
動	-8.21808
照	-8.2213
私	-8.22134
教	-8.22155
星	-8.22188
極	-8.22199
斯	-8.22416
變	-8.22489
祀	-8.22605
謹	-8.22884
汝	-8.22967
酒	-8.23057
敵	-8.23117
例	-8.2361
約	-8.23708
録	-8.23765
果	-8.24068
曹	-8.24304
疾	-8.24335
弟	-8.24423
繼	-8.24452
追	-8.24582
秋	-8.24586
容	-8.24785
科	-8.25342
邊	-8.25381
襲	-8.25489
額	-8.25533
四年	-8.25641
院	-8.25674
尋	-8.25772
均	-8.25841
於是	-8.26044
到	-8.26047
附	-8.2622
幸	-8.26415
折	-8.27009
才	-8.27019
寳	-8.27271
察	-8.2729
増	-8.27643
商	-8.27702
▁王	-8.27786
五年	-8.27857
花	-8.27879
目	-8.28134
詣	-8.28222
而不	-8.28313
禁	-8.2841
疑	-8.28424
惡	-8.28542
祠	-8.28814
皇	-8.28876
簡	-8.29165
業	-8.29511
火	-8.29703
謝	-8.30215
沙	-8.30326
申	-8.3088
顧	-8.31
太子	-8.31062
界	-8.31098
輕	-8.31241
京	-8.31427
進士	-8.31687
役	-8.31907
顯	-8.3211
關	-8.32142
嶺	-8.32231
彼	-8.32461
澤	-8.32515
管	-8.32528
米	-8.32771
疏	-8.3285
隆	-8.33251
夷	-8.33256
調	-8.33456
遺	-8.3363
泰	-8.33843
推	-8.33938
畢	-8.33994
斷	-8.34037
莫	-8.34177
結	-8.34333
積	-8.3463
獲	-8.34685
郭	-8.34698
勒	-8.34839
吉	-8.34923
英	-8.35155
端	-8.35278
築	-8.35334
會	-8.3534
皇帝	-8.35489
牛	-8.35667
持	-8.35716
散	-8.35749
后	-8.35946
刑	-8.35974
塘	-8.36043
千	-8.3629
室	-8.36464
署	-8.36607
總	-8.36752
願	-8.36812
蓋	-8.36892
伏	-8.37025
詳	-8.37091
資	-8.37164
期	-8.37348
懐	-8.37414
榮	-8.37537
體	-8.3754
地方	-8.37815
徒	-8.37828
池	-8.37852
指	-8.37989
擊	-8.38337
屯	-8.385
徙	-8.38563
嗣	-8.3857
甲	-8.3877
性	-8.3907
尚書	-8.39213
回	-8.39314
鹽	-8.39387
美	-8.39405
飛	-8.39556
隂	-8.39807
撫	-8.39835
試	-8.40064
咸	-8.40125
陸	-8.40145
春秋	-8.40168
客	-8.40214
委	-8.40248
碑	-8.40377
誅	-8.40551
村	-8.40573
市	-8.40663
賞	-8.40673
情	-8.40716
大臣	-8.4072
圍	-8.40757
知縣	-8.41189
赴	-8.41271
支	-8.41387
豈	-8.41453
塞	-8.41531
病	-8.41531
雨	-8.41651
如此	-8.41703
象	-8.41741
爵	-8.41974
蘇	-8.42058
班	-8.42474
薦	-8.42528
精	-8.42615
二人	-8.4262
博	-8.42683
蜀	-8.42854
統	-8.43067
籍	-8.43077
盖	-8.43676
糧	-8.43813
施	-8.43942
六年	-8.43955
賦	-8.44162
久	-8.44292
接	-8.44449
呉	-8.44523
喜	-8.44652
帥	-8.44917
叔	-8.45134
滿	-8.45177
天子	-8.45423
勢	-8.45625
放	-8.45627
急	-8.45837
之後	-8.46009
不敢	-8.4602
伐	-8.46114
手	-8.46195
太守	-8.46312
船	-8.46381
御史	-8.46403
僧	-8.46439
騎	-8.46538
微	-8.46959
半	-8.46981
尤	-8.47063
烏	-8.47197
雜	-8.47252
適	-8.47341
累	-8.47463
養	-8.47738
減	-8.47912
係	-8.4816
格	-8.48274
洞	-8.48341
源	-8.48498
孟	-8.4854
宿	-8.48623
庫	-8.48645
末	-8.48721
房	-8.48806
洪	-8.48998
聽	-8.49042
予	-8.49103
河南	-8.49498
類	-8.49566
查	-8.49612
空	-8.49669
樓	-8.49729
羣	-8.49837
豐	-8.5004
二十	-8.50075
郎	-8.50139
帶	-8.50232
稍	-8.50315
徴	-8.5048
謂之	-8.50502
曲	-8.50612
面	-8.50786
迎	-8.50906
律	-8.50986
厯	-8.51706
刻	-8.51755
討	-8.52102
旗	-8.52261
可以	-8.52287
習	-8.52341
谷	-8.52876
不知	-8.52942
第	-8.53052
姓	-8.53055
副	-8.53144
温	-8.5315
竒	-8.53206
贈	-8.53219
器	-8.53696
孔	-8.5411
須	-8.54281
走	-8.54557
督	-8.55189
墓	-8.55363
負	-8.55765
息	-8.55797
樹	-8.5583
昔	-8.56061
魚	-8.56141
逆	-8.56574
侍	-8.56856
種	-8.56912
征	-8.56977
葉	-8.56994
休	-8.57112
傷	-8.57324
以下	-8.5734
垂	-8.57455
季	-8.57585
州刺史	-8.57657
藏	-8.57821
奔	-8.57967
編	-8.57969
倉	-8.58171
莊	-8.58196
▁張	-8.58351
冠	-8.58455
條	-8.5853
費	-8.58599
惠	-8.58652
邪	-8.58878
勞	-8.58934
来	-8.5906
待	-8.59089
兮	-8.59132
於此	-8.5922
衞	-8.59392
葢	-8.5942
井	-8.59446
以上	-8.59621
䝉	-8.5981
序	-8.59881
專	-8.59948
說	-8.60048
太祖	-8.60151
横	-8.60221
先生	-8.60316
▁李	-8.60428
呼	-8.60618
寨	-8.60644
富	-8.60709
遊	-8.60865
歲	-8.60882
寛	-8.60903
候	-8.61053
舍	-8.61055
從之	-8.61221
七年	-8.61229
虎	-8.61239
大夫	-8.61285
野	-8.61307
害	-8.61379
貢	-8.61451
勿	-8.61617
責	-8.61777
渠	-8.61965
畧	-8.61983
愛	-8.62084
救	-8.62202
怒	-8.62296
巴	-8.62455
之地	-8.62556
叛	-8.62592
。	-8.62596
乗	-8.62636
滅	-8.62643
所謂	-8.62692
懼	-8.62969
決	-8.63007
該	-8.63099
落	-8.63626
竹	-8.63718
杜	-8.63798
十二	-8.6392
憲	-8.63924
他	-8.64086
閣	-8.64389
慮	-8.64486
射	-8.64536
香	-8.6454
庶	-8.64636
冬	-8.64674
覆	-8.64756
皇后	-8.6499
似	-8.64994
仙	-8.6502
屢	-8.65059
舟	-8.6513
堅	-8.65181
諸侯	-8.65257
松	-8.65284
東南	-8.653
質	-8.65649
而已	-8.65868
允	-8.65886
角	-8.65939
徵	-8.66152
訓	-8.66278
穆	-8.66499
密	-8.66673
釋	-8.66712
之所	-8.66843
太后	-8.66919
俗	-8.66962
棄	-8.67025
陞	-8.67091
念	-8.67123
參	-8.67235
沈	-8.67302
錫	-8.67458
巖	-8.67564
伊	-8.67769
斬	-8.6796
江南	-8.68242
山東	-8.68351
百姓	-8.68458
題	-8.68548
州縣	-8.68687
貫	-8.68703
智	-8.68787
丹	-8.69042
聚	-8.69077
遣使	-8.69134
寶	-8.69407
有司	-8.69474
印	-8.69559
蕭	-8.69584
員	-8.69665
防	-8.69706
振	-8.69706
殷	-8.69707
之人	-8.69727
姑	-8.69739
八年	-8.70229
雍	-8.70315
之事	-8.70327
諭	-8.70579
擢	-8.70656
扵	-8.70675
夀	-8.70699
漸	-8.7076
强	-8.70768
赤	-8.70774
宻	-8.70832
䇿	-8.70883
維	-8.70942
乾	-8.7104
耶	-8.71281
符	-8.71511
識	-8.7156
雄	-8.71564
程	-8.7157
朔	-8.71631
堡	-8.71709
審	-8.72024
輔	-8.72039
虞	-8.72108
薄	-8.72124
乘	-8.72277
懷	-8.72359
畫	-8.72699
革	-8.72734
誤	-8.72803
余	-8.72859
境	-8.72904
雅	-8.72912
頗	-8.72936
離	-8.73003
戎	-8.73165
虚	-8.732
讀	-8.73323
鼎	-8.73548
秀	-8.73592
者也	-8.73788
𢎞	-8.73797
危	-8.7382
鼓	-8.73953
貞	-8.74316
衡	-8.74646
怨	-8.74774
遵	-8.7483
揚	-8.74843
紅	-8.74986
忽	-8.75198
陜西	-8.75245
至於	-8.7525
蔡	-8.75334
希	-8.75445
冊	-8.75513
渡	-8.75752
佐	-8.7649
廷	-8.76491
獄	-8.76571
淮	-8.76668
感	-8.76761
勸	-8.76772
肅	-8.76781
苦	-8.76815
牧	-8.77034
唯	-8.77167
歌	-8.77335
毎	-8.77667
曽	-8.77783
壇	-8.77806
賈	-8.77854
戒	-8.77946
索	-8.78063
兒	-8.78153
吕	-8.78188
丘	-8.78248
族	-8.78292
范	-8.78394
京師	-8.78565
增	-8.78596
逐	-8.78918
憂	-8.78959
茂	-8.7928
示	-8.79293
孤	-8.79297
西北	-8.79329
以來	-8.79435
肆	-8.79505
頃	-8.79624
敢	-8.7999
寒	-8.79994
彦	-8.79996
形	-8.8025
縱	-8.80458
仰	-8.80602
假	-8.80655
園	-8.80858
不足	-8.81056
式	-8.8147
幾	-8.81476
愈	-8.81523
最	-8.81582
祥	-8.81664
一日	-8.81733
庭	-8.8242
篇	-8.8247
三月	-8.82497
喪	-8.82946
亮	-8.83048
兹	-8.83202
窮	-8.8322
勤	-8.83351
患	-8.83403
十年	-8.83471
西南	-8.83527
勇	-8.83647
招	-8.83716
為之	-8.83733
洛	-8.83979
遼	-8.84023
供	-8.84041
配	-8.84139
裁	-8.84211
游	-8.84556
㫖	-8.84561
隋	-8.84829
黨	-8.8486
弗	-8.85109
戸	-8.85314
量	-8.85412
贊	-8.85487
儒	-8.8563
欽	-8.85834
是以	-8.85925
葬	-8.86053
奪	-8.86089
辨	-8.861
己	-8.86195
邦	-8.86415
巳	-8.86463
淵	-8.86614
之間	-8.86623
寜	-8.86775
略	-8.86864
擇	-8.86957
缺	-8.87079
佛	-8.8711
▁年	-8.87227
盤	-8.87298
俟	-8.87374
避	-8.87383
其後	-8.87422
賀	-8.87731
述	-8.87788
驛	-8.87972
擬	-8.88412
干	-8.88435
循	-8.88523
紹	-8.88538
徑	-8.88563
投	-8.88573
齋	-8.89003
師古曰	-8.89071
訖	-8.89165
然後	-8.89254
狀	-8.89294
禄	-8.89481
况	-8.89551
九年	-8.89637
倫	-8.89721
詞	-8.89785
侵	-8.89929
盧	-8.89987
竟	-8.90059
𤣥	-8.90251
助	-8.90281
抵	-8.90335
司馬	-8.90354
烈	-8.90438
敏	-8.90705
溝	-8.90794
䕶	-8.90961
逹	-8.91064
又有	-8.91247
寵	-8.91248
諫	-8.91332
▁陳	-8.91449
無所	-8.9156
浦	-8.916
斗	-8.91613
盜	-8.91722
三十	-8.91854
銅	-8.9188
畏	-8.92051
錄	-8.92147
冦	-8.92208
操	-8.92326
校	-8.92361
仕	-8.92383
之意	-8.92454
辦	-8.92473
徃	-8.92891
某	-8.92903
席	-8.92928
翼	-8.92979
續	-8.9305
限	-8.93136
東北	-8.93223
兄	-8.93236
傅	-8.93269
殊	-8.93373
瑞	-8.93377
𨽻	-8.9345
蘭	-8.93456
俊	-8.93494
竊	-8.93699
珠	-8.93826
禹	-8.94008
一員	-8.94354
早	-8.94614
飲	-8.94688
靖	-8.94707
一名	-8.94714
羊	-8.9479
援	-8.94801
友	-8.94881
爭	-8.94903
隠	-8.94982
夢	-8.95237
荒	-8.95525
邉	-8.95593
湯	-8.95627
講	-8.95686
峯	-8.95708
優	-8.95723
甫	-8.95744
▁劉	-8.95775
契丹	-8.9582
勅	-8.95823
旌	-8.96069
險	-8.96132
偽	-8.96166
蠻	-8.96244
細	-8.96449
江西	-8.96472
羽	-8.96493
幽	-8.96622
震	-8.96746
農	-8.96855
浮	-8.96925
至是	-8.97001
卜	-8.97034
館	-8.97288
謙	-8.97333
陷	-8.97402
屋	-8.97455
筆	-8.97553
熟	-8.97611
▁欽定四庫全書	-8.97745
茶	-8.97826
哀	-8.97866
賔	-8.98113
九月	-8.98215
董	-8.98331
節度使	-8.98366
弱	-8.98516
完	-8.98543
津	-8.9861
𫝊	-8.9867
八月	-8.98705
鳴	-8.9875
曾	-8.98794
婦	-8.98991
姦	-8.99019
趨	-8.99056
尹	-8.99094
副使	-8.99214
太宗	-8.99544
勲	-8.99605
浙江	-8.9961
環	-8.99701
塔	-8.99738
君子	-8.99757
六月	-8.99801
歳	-8.99944
占	-8.99999
岳	-9.00051
速	-9.00129
顔	-9.00294
宏	-9.00355
覺	-9.00511
暴	-9.006
慎	-9.00606
河東	-9.00747
乆	-9.00757
宰相	-9.00774
縣界	-9.00813
寇	-9.00889
階	-9.01089
眀	-9.011
辰	-9.01388
虜	-9.01467
違	-9.01575
十里	-9.01589
孔子	-9.0171
薨	-9.01744
買	-9.0179
輸	-9.01852
脩	-9.01915
駐	-9.01986
毛	-9.02007
潛	-9.02051
紫	-9.02378
崔	-9.02499
判	-9.02539
禍	-9.02545
之時	-9.02606
俾	-9.02829
藥	-9.02969
祝	-9.02975
國家	-9.03068
遠	-9.03162
財	-9.03242
羣臣	-9.03375
之心	-9.0339
决	-9.0344
伍	-9.03584
駕	-9.03833
愚	-9.03908
哈	-9.0397
毁	-9.04062
五月	-9.0411
屈	-9.04224
鳳	-9.04244
壽	-9.04472
宴	-9.04507
履	-9.04557
綱	-9.04735
甘	-9.04738
熙	-9.04743
辟	-9.05029
曰吾	-9.05241
機	-9.05356
閘	-9.05447
堯	-9.05501
刺	-9.05508
預	-9.05604
丞	-9.05873
産	-9.06242
一卷	-9.06338
弊	-9.06347
鳯	-9.06414
超	-9.06497
享	-9.06582
宅	-9.06659
丞相	-9.06706
豫	-9.06753
准	-9.06842
旁	-9.06865
課	-9.06915
毋	-9.06941
門外	-9.06945
不許	-9.06959
輿	-9.07096
敦	-9.07149
妃	-9.0717
讓	-9.07269
雪	-9.07337
純	-9.07345
舒	-9.0735
妄	-9.0736
隄	-9.07591
輒	-9.0811
杖	-9.08119
材	-9.08133
逸	-9.08284
效	-9.08322
郊	-9.08352
根	-9.08391
粟	-9.0846
衍	-9.08574
逃	-9.08646
壁	-9.08655
内外	-9.08813
何以	-9.08842
慈	-9.09008
舜	-9.09037
嘉靖	-9.09093
雙	-9.09243
姚	-9.09264
坊	-9.09324
損	-9.09396
社	-9.09429
價	-9.09448
付	-9.09778
不及	-9.09855
隱	-9.09867
步	-9.10036
馳	-9.10085
太平	-9.10172
之法	-9.10185
戴	-9.10224
中書	-9.10353
舞	-9.10373
東西	-9.10422
芳	-9.10458
基	-9.1072
覽	-9.1104
品	-9.11059
背	-9.11087
堰	-9.1111
耕	-9.11181
繫	-9.1147
馮	-9.11648
介	-9.11888
普	-9.11938
撥	-9.12037
裕	-9.12037
者皆	-9.12066
其所	-9.12121
對曰	-9.12179
其子	-9.1246
先是	-9.12512
彭	-9.12549
河北	-9.1274
将軍	-9.12799
導	-9.1281
長安	-9.12881
寄	-9.12932
賣	-9.12979
薛	-9.12991
其事	-9.13084
策	-9.13305
句	-9.13579
懸	-9.13583
也今	-9.1361
雷	-9.13836
采	-9.13914
濬	-9.14042
十二月	-9.14203
恒	-9.14309
殺之	-9.14312
彌	-9.14789
併	-9.14919
山西	-9.14934
局	-9.14943
鍾	-9.15065
派	-9.15228
厥	-9.15337
陶	-9.1546
縁	-9.15567
襄	-9.15774
戍	-9.1601
由是	-9.16026
兄弟	-9.16045
啟	-9.16108
寕	-9.16132
之言	-9.16173
協	-9.16219
管理	-9.16299
秩	-9.16343
未嘗	-9.1658
畝	-9.166
捕	-9.16781
規	-9.16928
之子	-9.16997
彊	-9.1701
上下	-9.17174
十一月	-9.17415
而後	-9.17461
却	-9.17465
四川	-9.17642
夫人	-9.17681
▁皇上	-9.1769
拔	-9.17701
子孫	-9.18071
歩	-9.1809
謁	-9.1819
皮	-9.18216
聞之	-9.1825
蒲	-9.18312
飾	-9.18557
鐵	-9.18558
驗	-9.18624
港	-9.18713
側	-9.18762
誰	-9.18781
尉	-9.19058
崖	-9.19063
距	-9.1908
宮	-9.19088
蕃	-9.19094
鈔	-9.19143
提	-9.19268
巡撫	-9.19274
桑	-9.19429
刺史	-9.1952
大將軍	-9.19737
藩	-9.19779
訪	-9.19844
等處	-9.19865
福建	-9.19891
衰	-9.20094
借	-9.20197
刀	-9.20241
税	-9.20329
繁	-9.20346
金人	-9.20355
絲	-9.20397
榖	-9.20562
錦	-9.20608
二月	-9.20614
▁宋	-9.20665
五十	-9.20684
冀	-9.20703
是也	-9.21211
露	-9.21312
縣志	-9.21316
十月	-9.21421
諡	-9.21482
静	-9.21492
即位	-9.21689
貳	-9.2171
二百	-9.22061
驚	-9.22155
赦	-9.22259
今日	-9.22404
停	-9.22414
鄧	-9.22614
啓	-9.22644
陂	-9.22713
淺	-9.22725
學士	-9.22784
茍	-9.22819
旱	-9.22914
鳥	-9.22932
盗	-9.22965
旦	-9.23057
盈	-9.23111
罰	-9.2318
有所	-9.23423
崩	-9.23464
禮部	-9.23517
貪	-9.23661
知府	-9.23701
術	-9.23713
堤	-9.23721
髙祖	-9.24036
哭	-9.2412
不過	-9.24128
武帝	-9.24194
争	-9.24208
逼	-9.24304
珍	-9.24332
之道	-9.24556
桂	-9.24575
十五	-9.24611
倚	-9.24692
旋	-9.24697
巡	-9.24743
涇	-9.25016
尾	-9.2503
座	-9.25137
蒙	-9.25197
塵	-9.25237
百官	-9.2538
單	-9.25418
偏	-9.25453
壯	-9.2563
韋	-9.26268
使者	-9.26327
桓	-9.26356
浚	-9.26727
辛	-9.26778
黎	-9.2682
抑	-9.26873
柱	-9.26898
貶	-9.26974
四方	-9.27113
植	-9.27208
輙	-9.27221
鴻	-9.27223
扶	-9.2726
叙	-9.27429
七月	-9.27478
天地	-9.2751
䘮	-9.27556
公主	-9.27669
庸	-9.27669
番	-9.27804
都督	-9.28019
栁	-9.28141
㣲	-9.28163
邱	-9.28214
聴	-9.2822
改為	-9.28285
三日	-9.28329
故事	-9.28528
侍中	-9.28603
未有	-9.28616
遽	-9.28676
専	-9.28721
同知	-9.28869
不同	-9.28876
僅	-9.28976
十一	-9.29023
佐領	-9.29053
妾	-9.29079
酌	-9.29188
文武	-9.29241
通判	-9.2928
漕	-9.29305
之士	-9.29426
縣西	-9.29484
明年	-9.29547
▁㫖	-9.29723
場	-9.29935
笑	-9.30013
四十	-9.30051
雲南	-9.30126
創	-9.30201
峻	-9.30241
困	-9.30387
尺	-9.3048
敕	-9.30658
不為	-9.30695
巻	-9.3071
翁	-9.30879
跪	-9.30895
緩	-9.30971
前後	-9.31007
秉	-9.31024
䝉古	-9.31128
原任	-9.3123
災	-9.31238
吴	-9.31303
弼	-9.31332
▁右	-9.31441
其地	-9.31477
閒	-9.31486
上曰	-9.31703
宰	-9.31744
澄	-9.31864
淳	-9.31981
官兵	-9.32285
▁唐	-9.3232
躬	-9.3243
▁月	-9.32498
採	-9.3254
吏部	-9.32542
頂	-9.32555
俸	-9.32567
稽	-9.32568
▁楊	-9.32628
匹	-9.32644
穀	-9.32651
波	-9.32791
奮	-9.32811
卑	-9.32823
墨	-9.32891
翰	-9.33137
住	-9.33277
逢	-9.33353
丈	-9.33392
没	-9.33399
縣東	-9.33536
忘	-9.33541
縣人	-9.33651
底	-9.33674
太原	-9.33764
之處	-9.339
阻	-9.34134
咨	-9.34199
巨	-9.34397
潭	-9.34416
岡	-9.34445
苑	-9.34471
幹	-9.34486
壩	-9.34657
亷	-9.34668
傾	-9.34748
頌	-9.34776
究	-9.3501
貧	-9.35025
四月	-9.3514
賛	-9.35237
盟	-9.35341
袁	-9.35428
當時	-9.35532
三百	-9.35593
本朝	-9.35607
割	-9.35643
天下之	-9.35761
鑄	-9.35937
鹿	-9.35939
峰	-9.36052
鄂	-9.36097
四人	-9.36243
〕	-9.36271
踰	-9.36478
十一年	-9.36598
堪	-9.36683
自是	-9.36744
一百	-9.36771
厲	-9.36829
虛	-9.36829
衝	-9.36927
南北	-9.36964
稅	-9.3698
▁下	-9.36991
臣等	-9.3719
檢	-9.37191
攝	-9.37223
囘	-9.37299
湖廣	-9.37347
男	-9.37491
縣南	-9.37506
潮	-9.37529
父母	-9.3753
曰此	-9.37541
有功	-9.37592
祐	-9.37616
育	-9.37761
聖人	-9.37827
岸	-9.37841
麟	-9.37961
指揮	-9.38159
黒	-9.38439
段	-9.38454
僕	-9.38469
荆	-9.38744
諸將	-9.38797
萬厯	-9.38811
誣	-9.38901
什	-9.38904
只	-9.38908
侍郎	-9.38995
梅	-9.39071
掠	-9.3909
騰	-9.39203
▁奏	-9.3921
陰	-9.39255
不如	-9.39259
亦有	-9.39406
擅	-9.39526
不復	-9.39622
第一	-9.39655
不從	-9.39838
施行	-9.40321
南京	-9.40344
賓	-9.40359
册	-9.40381
詐	-9.40415
兆	-9.40437
帛	-9.40577
是時	-9.406
十三	-9.40674
陣	-9.40717
儲	-9.4076
銘	-9.40903
牙	-9.40929
太尉	-9.40995
嵩	-9.41105
擒	-9.41166
十六	-9.41201
凖	-9.41292
匈奴	-9.41478
沒	-9.41489
料	-9.41532
麥	-9.41535
滿洲	-9.41795
瞻	-9.42026
麗	-9.42071
廵	-9.42099
郎中	-9.42114
勉	-9.42173
十二年	-9.42195
熊	-9.42262
抱	-9.424
洋	-9.42591
夾	-9.42648
總督	-9.42715
懿	-9.42755
幼	-9.4278
骨	-9.42787
之制	-9.42879
五里	-9.43086
削	-9.43119
屏	-9.43274
國公	-9.43347
使人	-9.43461
恵	-9.43465
蕩	-9.43555
貨	-9.43686
十三年	-9.43729
圓	-9.43749
其餘	-9.43765
徽	-9.43766
羌	-9.43825
三人	-9.4388
亟	-9.43898
拒	-9.43928
黃	-9.43937
豪	-9.43947
奠	-9.43982
勘	-9.43984
之日	-9.44059
麻	-9.44092
奏請	-9.44226
劾	-9.44364
殘	-9.44451
以此	-9.44534
□	-9.44729
中國	-9.44745
幣	-9.44829
奚	-9.44923
垣	-9.44981
中外	-9.4505
那	-9.45072
胥	-9.45094
零	-9.45111
苗	-9.45173
禦	-9.45302
遲	-9.45332
人也	-9.45428
饑	-9.45445
靜	-9.45452
宇	-9.45573
鑿	-9.4558
看	-9.45586
寢	-9.45602
舉人	-9.45635
泥	-9.45665
渾	-9.45674
罕	-9.45701
否	-9.45706
剛	-9.45809
閲	-9.45838
知其	-9.4584
呈	-9.46033
縣北	-9.46064
倍	-9.4624
儉	-9.46252
標	-9.46253
卓	-9.46283
答	-9.464
一年	-9.46409
準	-9.46456
叅	-9.46496
藉	-9.46505
賴	-9.46542
斤	-9.4675
託	-9.4689
霸	-9.46972
諸軍	-9.47023
足以	-9.47024
洲	-9.47033
歡	-9.47081
一時	-9.47241
▁趙	-9.47242
奸	-9.47351
人心	-9.4766
項	-9.47793
世祖	-9.47862
拉	-9.47992
亦不	-9.48061
矢	-9.4807
篤	-9.48264
公子	-9.48301
鐘	-9.48368
而無	-9.4856
壹	-9.48585
遭	-9.48713
圗	-9.48726
蔽	-9.48983
郡王	-9.49161
聘	-9.49228
逮	-9.49321
軒	-9.49359
六十	-9.49412
辱	-9.49506
直𨽻	-9.49557
言之	-9.49571
洛陽	-9.49624
曉	-9.49675
枝	-9.49689
隊	-9.49704
既而	-9.49715
談	-9.49727
無不	-9.49756
昇	-9.49811
之禮	-9.49856
▁命	-9.49932
像	-9.5006
囚	-9.50066
斥	-9.50136
皇太子	-9.5018
諱	-9.50325
奴	-9.50402
莫不	-9.50493
趣	-9.50613
淮南	-9.50913
社稷	-9.5105
仗	-9.51115
蒼	-9.5113
賤	-9.51201
焚	-9.51218
慕	-9.51219
檄	-9.51241
忌	-9.51384
哲	-9.51466
觧	-9.51479
必有	-9.5148
廬	-9.51626
兵丁	-9.51637
捐	-9.51646
出入	-9.51812
靡	-9.51822
較	-9.51853
黙	-9.51888
欺	-9.51961
致仕	-9.52002
舎	-9.52008
祖宗	-9.52081
募	-9.52161
以聞	-9.52328
司徒	-9.5234
皆有	-9.5239
禪	-9.52478
浩	-9.52484
值	-9.52675
含	-9.52679
短	-9.52776
租	-9.52811
輪	-9.52887
展	-9.52958
重修	-9.53086
給事中	-9.53137
綏	-9.5317
大小	-9.53201
弓	-9.53268
悦	-9.53369
所在	-9.53391
台	-9.53395
州人	-9.53451
▁周	-9.53458
圭	-9.53484
饒	-9.53585
潰	-9.53635
邵	-9.53694
一切	-9.53702
偉	-9.5379
壊	-9.53975
鑒	-9.53989
融	-9.54047
夕	-9.54072
属	-9.54155
童	-9.54166
練	-9.54183
帖	-9.54252
隔	-9.54269
榜	-9.54354
束	-9.54445
成都	-9.54478
跡	-9.54547
績	-9.54802
親王	-9.54878
宗室	-9.54958
紹興	-9.55229
誘	-9.55254
寡	-9.55275
陛	-9.5528
添	-9.55284
大學士	-9.55299
鶴	-9.55369
恨	-9.55533
千里	-9.55568
辦理	-9.55614
包	-9.55649
裴	-9.55785
用之	-9.558
十八	-9.55886
康熙	-9.56013
擾	-9.56115
鎭	-9.56128
不以	-9.56201
喇	-9.56378
開元	-9.56399
竭	-9.56412
抗	-9.56423
収	-9.56477
縣屬	-9.56622
官員	-9.56737
煩	-9.56824
錢糧	-9.56964
板	-9.5701
主簿	-9.57117
錯	-9.57142
讀書	-9.57194
尼	-9.5726
知州	-9.57308
長史	-9.57479
滋	-9.57597
訟	-9.57729
十五年	-9.57781
龜	-9.57852
妙	-9.57964
祚	-9.57972
遜	-9.57976
徹	-9.58078
潘	-9.58107
十四年	-9.58162
従	-9.58214
頓	-9.58253
佳	-9.58286
乙	-9.58317
汛	-9.58323
㧞	-9.58331
提舉	-9.58403
莽	-9.58597
豆	-9.58642
不見	-9.58654
寅	-9.58685
誦	-9.58842
廉	-9.58862
凶	-9.59019
竇	-9.59097
黜	-9.59106
之數	-9.59119
子弟	-9.59171
恃	-9.59293
▁上諭	-9.59398
瓊	-9.59402
死者	-9.59462
随	-9.59469
頒	-9.59518
排	-9.59612
潤	-9.59639
廣東	-9.59647
十四	-9.59665
小人	-9.59722
脱	-9.59746
褒	-9.59909
況	-9.59923
析	-9.59938
相傳	-9.59939
官吏	-9.60046
峽	-9.60118
柔	-9.60168
醫	-9.6018
鬼	-9.60223
痛	-9.60242
濫	-9.60265
巢	-9.6036
不行	-9.60436
璧	-9.60469
溢	-9.60592
孰	-9.60645
上有	-9.60653
遁	-9.60657
尸	-9.60681
奇	-9.60688
猛	-9.60793
韻	-9.60845
十六年	-9.60878
祿	-9.60902
户部	-9.60993
強	-9.61014
碧	-9.61014
之外	-9.61062
中有	-9.61162
傑	-9.61163
敷	-9.61201
漏	-9.61218
銜	-9.61238
確	-9.61257
樞	-9.6141
晦	-9.61432
瓦	-9.61447
澗	-9.61459
詢	-9.61486
岱	-9.61573
朗	-9.61585
成化	-9.61705
不必	-9.61729
而去	-9.61729
範	-9.61806
可謂	-9.61809
閉	-9.61908
黄河	-9.61967
壘	-9.61999
之際	-9.62087
巧	-9.62098
▁諭	-9.62151
汪	-9.62151
激	-9.62159
翟	-9.62209
謨	-9.62241
▁史	-9.62261
冒	-9.62308
之中	-9.62356
㕔	-9.62367
匡	-9.62452
悟	-9.62454
塲	-9.62484
契	-9.62695
牲	-9.62724
以其	-9.62738
級	-9.62867
肇	-9.62926
警	-9.62984
迹	-9.63003
晋	-9.63031
惑	-9.6307
鄰	-9.63219
亨	-9.63258
葛	-9.63396
輝	-9.63531
算	-9.63635
雞	-9.63661
▁詔	-9.63664
㸃	-9.63669
所有	-9.63699
之功	-9.63797
祗	-9.63825
絹	-9.64029
廣西	-9.64061
揚州	-9.64181
政事	-9.64193
現	-9.64232
黑	-9.64239
肉	-9.64281
瀆	-9.64533
絳	-9.64568
驅	-9.64611
裏	-9.64696
殆	-9.64823
以備	-9.64972
誕	-9.65061
托	-9.65106
▁州	-9.65244
慰	-9.65254
諌	-9.65367
之上	-9.65388
驕	-9.65411
五百	-9.65565
洪武	-9.6561
畨	-9.65658
阜	-9.65704
洗	-9.65741
灌	-9.65777
知之	-9.6601
竝	-9.66022
辯	-9.66063
纂	-9.66091
恤	-9.66097
晏	-9.66203
午	-9.66401
者亦	-9.66402
其中	-9.66426
翠	-9.66471
岐	-9.66642
之罪	-9.66656
掩	-9.66709
後世	-9.66823
士卒	-9.66852
隴	-9.66863
正月	-9.66875
鑑	-9.6688
綿	-9.66928
彰	-9.66976
父子	-9.66999
街	-9.67008
屯田	-9.67173
呂	-9.67231
諸生	-9.67298
山川	-9.6734
拘	-9.67452
喬	-9.67492
輩	-9.67502
郡縣	-9.67541
七十	-9.67632
遥	-9.67676
鮮	-9.67864
所屬	-9.67903
其言	-9.6792
晚	-9.68142
汗	-9.68167
疎	-9.68295
荷	-9.68388
諸王	-9.68467
城中	-9.68507
▁徐	-9.68513
柴	-9.68515
血	-9.68542
沮	-9.68619
古今	-9.68683
匿	-9.68698
註	-9.68703
故名	-9.68705
再拜	-9.68753
凌	-9.68876
陽縣	-9.69034
主人	-9.69076
悲	-9.69146
十卷	-9.69148
赫	-9.69174
塗	-9.69211
邀	-9.69292
了	-9.69309
都統	-9.69346
又曰	-9.69366
𢎞治	-9.69387
之義	-9.69389
穴	-9.69431
毅	-9.69452
有餘	-9.69494
貯	-9.69649
至今	-9.69715
博士	-9.69764
整	-9.69826
紙	-9.69878
兵部	-9.69966
柳	-9.70065
樊	-9.70093
韶	-9.70175
惜	-9.70195
文帝	-9.70283
誓	-9.70391
太常	-9.70537
以後	-9.70557
閩	-9.70611
䧟	-9.70646
翰林	-9.70761
節度	-9.70919
昏	-9.7093
穿	-9.71017
史記	-9.71037
製	-9.71122
不肯	-9.71134
宗廟	-9.71189
執政	-9.71272
三十里	-9.71288
十七	-9.71355
守備	-9.71467
官軍	-9.71601
日月	-9.71701
餉	-9.71724
乏	-9.71852
許之	-9.71956
恕	-9.7196
劍	-9.72026
睿	-9.7222
永樂	-9.7238
也故	-9.72426
上書	-9.72468
學者	-9.72539
諸路	-9.72554
灘	-9.72623
怪	-9.72643
爰	-9.72686
司空	-9.72735
緒	-9.72861
减	-9.72939
飭	-9.73035
之民	-9.7315
守節	-9.73157
不至	-9.73175
毒	-9.73224
偶	-9.73293
簿	-9.73298
𦵏	-9.73416
賑	-9.73482
二十年	-9.73573
不當	-9.73589
雖有	-9.73685
忍	-9.737
州府	-9.7385
鋪	-9.73895
荆州	-9.73985
八十	-9.74014
百里	-9.74021
繡	-9.74066
銷	-9.74165
潔	-9.74264
數十	-9.74314
諸州	-9.74401
周公	-9.74422
戚	-9.74425
泣	-9.74487
行之	-9.745
與之	-9.74504
而死	-9.74556
先帝	-9.74796
熈	-9.74812
疆	-9.74837
之名	-9.75022
有竒	-9.75039
單于	-9.75043
昨	-9.75068
國之	-9.75082
▁黄	-9.75108
敎	-9.75176
民間	-9.75308
證	-9.75319
卧	-9.75343
仁宗	-9.75369
珪	-9.75412
|	-9.75548
味	-9.75562
竄	-9.75594
渉	-9.75735
齒	-9.75737
砦	-9.75746
悔	-9.75797
曠	-9.7591
鄙	-9.75929
隸	-9.76007
鄴	-9.76009
截	-9.7627
陜	-9.76318
匪	-9.76529
輦	-9.76541
坦	-9.76545
荘	-9.76619
斂	-9.76668
字子	-9.7669
十七年	-9.7689
以示	-9.76958
十五里	-9.77035
䟽	-9.77051
是為	-9.77136
祈	-9.77197
如故	-9.77206
消	-9.77239
駐劄	-9.77263
三里	-9.77337
督撫	-9.77504
以致	-9.77596
暫	-9.77601
涉	-9.77688
▁馬	-9.77736
途	-9.7776
出於	-9.77767
三千	-9.77913
暮	-9.77929
燒	-9.77931
又以	-9.77967
貸	-9.77978
▁南	-9.78143
牌	-9.78227
漢書	-9.78318
釐	-9.78491
勵	-9.78603
七十里	-9.78619
二卷	-9.78632
渭	-9.78681
佑	-9.78789
未幾	-9.79001
魁	-9.79041
軌	-9.79142
凝	-9.79149
歎	-9.79213
䖍	-9.79236
長子	-9.79357
安石	-9.79511
曰我	-9.79593
▁軍	-9.7972
三分	-9.79889
畜	-9.80006
八旗	-9.8009
▁〔	-9.80126
帳	-9.80197
太和	-9.80242
聼	-9.80268
謬	-9.80268
用兵	-9.80286
其家	-9.80367
風俗	-9.80368
繩	-9.80394
㡬	-9.80439
大同	-9.80546
皆以	-9.8056
不勝	-9.80626
攸	-9.80712
縣治	-9.80797
徐州	-9.80934
上言	-9.80974
獵	-9.80975
佩	-9.81009
利害	-9.81055
遼東	-9.811
丕	-9.81129
炎	-9.81153
屠	-9.81324
故也	-9.81357
逰	-9.81358
突	-9.81497
姬	-9.81616
抄	-9.81703
妻王氏	-9.81703
挾	-9.81712
汴	-9.81886
膺	-9.81919
判官	-9.81967
弟子	-9.81995
譽	-9.8201
如何	-9.82073
厭	-9.82093
湖南	-9.82254
競	-9.82302
艱	-9.82311
至此	-9.82354
五分	-9.82451
南陽	-9.82458
薩	-9.82506
復置	-9.82578
漫	-9.82595
際	-9.82605
㨗	-9.82673
也夫	-9.82674
括	-9.82745
等官	-9.82803
耀	-9.82825
贖	-9.82836
繇	-9.82878
歟	-9.82905
後漢	-9.82996
恪	-9.83016
二里	-9.83035
擊之	-9.83124
姜	-9.83209
廵撫	-9.83227
縣令	-9.8327
旅	-9.83484
累遷	-9.83485
稷	-9.83542
傍	-9.83632
總管	-9.83647
洽	-9.83679
監察御史	-9.83681
畆	-9.83681
八十里	-9.83702
䕶軍	-9.83719
藝	-9.8374
▁日	-9.83779
擁	-9.8384
濶	-9.83971
淫	-9.84057
文字	-9.84065
蔣	-9.84096
▁孫	-9.84119
禽	-9.84144
鸞	-9.84186
漢軍	-9.8421
祁	-9.84275
烟	-9.84313
詠	-9.84354
噶	-9.84493
燭	-9.84529
倒	-9.84529
茅	-9.84563
冲	-9.84577
之説	-9.84588
徧	-9.84589
旣	-9.84779
姓名	-9.84858
状	-9.84898
秦王	-9.84915
▁帝	-9.84964
重建	-9.85059
桃	-9.85093
二十里	-9.85119
現在	-9.85129
齎	-9.85192
肥	-9.85248
訴	-9.85283
襄陽	-9.85335
城縣	-9.85341
得其	-9.85383
之故	-9.85414
毫	-9.85431
之計	-9.85492
不然	-9.85527
舖	-9.85612
醉	-9.85675
不用	-9.85699
具奏	-9.8573
▁朱	-9.85776
㓜	-9.85805
壞	-9.85879
娶	-9.85891
之下	-9.85941
實録	-9.86118
十萬	-9.86156
後魏	-9.86191
偕	-9.86204
菴	-9.8624
一曰	-9.86251
嫁	-9.86328
把	-9.86351
四十里	-9.86366
復為	-9.86413
質實	-9.86437
二十四	-9.86445
不忍	-9.86466
摩	-9.86578
暉	-9.86761
懋	-9.86761
者以	-9.86888
虧	-9.8698
吐	-9.8703
揖	-9.87086
故曰	-9.8714
蠲	-9.87278
訥	-9.8732
名曰	-9.87322
貽	-9.87325
至元	-9.87335
浪	-9.87447
刑部	-9.87453
人皆	-9.87498
霍	-9.87532
二員	-9.87549
偃	-9.87558
受命	-9.87559
臯	-9.87571
臧	-9.87611
沛	-9.87623
公卿	-9.87672
琳	-9.87695
之南	-9.87753
影	-9.87843
是日	-9.8794
披	-9.87946
戮	-9.8797
饗	-9.88026
其間	-9.88055
書院	-9.88057
健	-9.88239
侍衛	-9.88245
謫	-9.88304
提督	-9.88352
牒	-9.88445
浙	-9.88445
縣西南	-9.88474
泊	-9.88588
江淮	-9.88741
箭	-9.88849
輅	-9.88851
沉	-9.88856
欲以	-9.88916
窺	-9.89039
校尉	-9.89048
湛	-9.89229
鈞	-9.89254
吐蕃	-9.89265
緣	-9.89283
周禮	-9.89304
三司	-9.89344
而下	-9.89388
斬之	-9.8943
皇太后	-9.89464
十八年	-9.89474
灣	-9.89546
邁	-9.89568
寓	-9.89576
咎	-9.89578
之臣	-9.89682
㓂	-9.89881
城南	-9.8989
坡	-9.89901
五代	-9.89937
拱	-9.90008
恥	-9.90022
各有	-9.90136
腹	-9.90196
嗣後	-9.90363
未能	-9.9038
明日	-9.90387
縣西北	-9.90428
而還	-9.90455
欵	-9.90465
眞	-9.90513
之徒	-9.90597
溥	-9.90618
獸	-9.90696
喻	-9.90697
往來	-9.90726
演	-9.90744
主事	-9.90806
為一	-9.90809
至于	-9.90866
然則	-9.90902
逕	-9.9095
二十五	-9.90959
五十里	-9.91004
▁吳	-9.91074
庚	-9.9108
戲	-9.91168
高祖	-9.91211
甲子	-9.9123
墜	-9.91251
捌	-9.91286
將士	-9.91357
其人	-9.91373
効	-9.91441
世宗	-9.91451
妻張氏	-9.91461
頼	-9.91607
饌	-9.91613
閭	-9.91635
狂	-9.91645
荀	-9.91651
矜	-9.91656
之妻	-9.91661
髪	-9.91665
潜	-9.91708
無以	-9.91734
者不	-9.91762
藻	-9.91774
則有	-9.91948
冕	-9.92026
隘	-9.92063
之患	-9.92144
瑪	-9.92214
蛇	-9.9222
貝勒	-9.92231
頻	-9.9228
閔	-9.92332
數千	-9.92347
懲	-9.92372
鐸	-9.92412
憤	-9.92533
總兵	-9.92551
書曰	-9.92627
膳	-9.92643
巾	-9.92667
五千	-9.92685
耗	-9.92814
捧	-9.93116
閱	-9.93275
已而	-9.93351
漆	-9.93353
探	-9.93503
數百	-9.9361
者為	-9.93623
版	-9.93688
僉	-9.93758
如是	-9.93759
催	-9.93769
婦人	-9.93777
闢	-9.93813
糴	-9.93816
綸	-9.9382
員外郎	-9.93821
之類	-9.93835
幕	-9.93907
衙門	-9.93916
建康	-9.93919
另	-9.94027
卦	-9.94065
眼	-9.94094
豈不	-9.94131
入朝	-9.94263
仇	-9.94368
綬	-9.94381
嶽	-9.9439
副都統	-9.94421
區	-9.94422
緑	-9.94439
等謹按	-9.94476
琴	-9.94592
匠	-9.94689
奈何	-9.94689
芝	-9.94693
耿	-9.94764
山在	-9.94782
播	-9.94814
批	-9.9483
鼔	-9.94929
也其	-9.9493
神宗	-9.94991
君臣	-9.95156
之初	-9.95221
淑	-9.95225
的	-9.95263
不受	-9.95302
京兆	-9.95342
寃	-9.95401
憑	-9.95408
豈可	-9.95431
嬰	-9.95441
第二	-9.9545
斛	-9.95459
聰	-9.95478
行禮	-9.95479
旬	-9.95491
州郡	-9.95523
晨	-9.9558
㑹稽	-9.95621
正統	-9.95649
一千	-9.95685
銓	-9.95687
軍民	-9.95708
改元	-9.95731
▁聞	-9.9594
縣東南	-9.95963
源出	-9.96149
柄	-9.96179
寫	-9.96286
勾	-9.9629
鏡	-9.96405
纎	-9.96446
玖	-9.96461
以爲	-9.96858
其罪	-9.9689
打	-9.96923
往往	-9.96924
議者	-9.96934
以前	-9.97009
左傳	-9.97064
俄	-9.972
㕘	-9.97313
繞	-9.97355
東至	-9.97434
各一	-9.97439
王子	-9.97502
劒	-9.97503
夏四月	-9.97539
▁胡	-9.97595
㑹同	-9.97658
齡	-9.97664
十九	-9.97694
于是	-9.97729
數年	-9.9774
矯	-9.97874
▁金	-9.97969
人主	-9.97992
以待	-9.98069
六十里	-9.98102
奎	-9.982
坤	-9.98209
俯	-9.98211
藍	-9.98214
妖	-9.98224
隻	-9.98265
乖	-9.98266
突厥	-9.98273
明堂	-9.98287
二千	-9.98369
湘	-9.98428
譏	-9.98453
十九年	-9.98483
禱	-9.98505
不出	-9.98582
飯	-9.98661
旨	-9.98778
疋	-9.98819
縣東北	-9.98843
其上	-9.98883
不相	-9.98884
大軍	-9.98962
舊志	-9.99018
所得	-9.99022
棟	-9.9905
各一人	-9.99171
四海	-9.9924
自古	-9.9925
三卷	-9.99251
河西	-9.99296
溺	-9.99307
因之	-9.99326
八分	-9.99326
郡守	-9.99328
之勢	-9.99329
誥	-9.9933
纔	-9.99346
輯	-9.99427
江陵	-9.99449
相繼	-9.99472
教授	-9.99501
扇	-9.99535
工部	-9.99562
璋	-9.99657
鋭	-9.9973
長沙	-9.99821
爽	-9.99857
活	-9.99863
玩	-9.99975
吹	-9.99988
軍士	-10.0002
凉	-10.0005
需	-10.0005
倭	-10.0006
一分	-10.0011
脚	-10.0011
倘	-10.0011
不與	-10.0016
公孫	-10.0019
軍中	-10.0024
之西	-10.0027
從事	-10.003
層	-10.0031
譜	-10.0031
晝	-10.0036
下有	-10.0044
一里	-10.0045
▁皇帝	-10.0048
車駕	-10.0049
爾等	-10.0052
遐	-10.0059
五日	-10.0065
人情	-10.0071
牽	-10.0071
水經注	-10.0071
狄	-10.0072
弑	-10.0073
璽	-10.0074
碩	-10.0083
輕重	-10.0083
婚	-10.0084
元祐	-10.0096
挑	-10.0099
婁	-10.0111
都尉	-10.0113
沿	-10.0115
士大夫	-10.0116
之例	-10.0124
不應	-10.0141
島	-10.0145
萬里	-10.0146
哨	-10.0147
浸	-10.0148
焦	-10.0149
互	-10.015
之利	-10.0153
氷	-10.016
唱	-10.0168
不可以	-10.017
文王	-10.0171
山下	-10.0178
丙	-10.0181
黔	-10.0185
叢	-10.0187
不合	-10.0189
遣人	-10.0205
二縣	-10.0209
之内	-10.0215
三十六	-10.0215
三公	-10.0219
譚	-10.0221
貴州	-10.0226
邢	-10.0227
弔	-10.0242
十餘	-10.0245
吏部尚書	-10.0265
三等	-10.0266
稿	-10.0276
武王	-10.0281
鞭	-10.0281
水出	-10.0282
生員	-10.0283
故城	-10.0284
五人	-10.0286
平陽	-10.0292
京城	-10.0311
冬十月	-10.0311
夲	-10.0312
撃	-10.0313
糾	-10.0317
通志	-10.0317
太廟	-10.032
刋	-10.0323
厰	-10.0326
篆	-10.033
時有	-10.0331
歛	-10.0335
琦	-10.0336
乃以	-10.0336
不宜	-10.0342
取之	-10.0345
得之	-10.0346
帝曰	-10.0349
所居	-10.0349
諸臣	-10.0354
牢	-10.0355
之弊	-10.036
磨	-10.0361
王氏	-10.0363
即此	-10.0366
俞	-10.0375
喀	-10.0375
閑	-10.0376
宛	-10.0378
刼	-10.038
眷	-10.0382
之則	-10.0386
暢	-10.0386
蓄	-10.0399
翔	-10.0405
者必	-10.0418
緯	-10.0422
等語	-10.0427
之不	-10.043
填	-10.0437
都司	-10.044
暨	-10.0445
巷	-10.0446
檜	-10.0448
孚	-10.0449
無事	-10.0451
兵馬	-10.0456
各省	-10.0457
南至	-10.0462
潁	-10.0464
三十年	-10.0464
漲	-10.0465
令其	-10.0466
罔	-10.0468
織	-10.0469
御史中丞	-10.0471
妻李氏	-10.0473
障	-10.0478
贓	-10.0481
押	-10.0482
引兵	-10.0499
貞觀	-10.0501
燈	-10.0505
之東	-10.0505
率衆	-10.0511
捨	-10.0511
戈	-10.0512
不在	-10.0512
洩	-10.0517
遞	-10.0521
出為	-10.0533
中興	-10.0539
迴	-10.0548
墳	-10.0553
綱目	-10.057
髙宗	-10.0581
不聽	-10.0594
償	-10.0596
分别	-10.061
轉運使	-10.0615
已上	-10.0631
遍	-10.0656
二州	-10.0665
肯	-10.067
何如	-10.0678
閏	-10.0679
敝	-10.0679
北至	-10.068
嫌	-10.0686
大兵	-10.0694
注見	-10.0696
㳺	-10.0698
崇禎	-10.0699
甲申	-10.0705
扎	-10.0714
通鑑	-10.0716
在位	-10.0718
迫	-10.072
行事	-10.0721
漢中	-10.0721
四分	-10.0723
涼	-10.0724
自今	-10.0729
泗	-10.0732
如有	-10.0735
古之	-10.0741
伸	-10.0747
元豐	-10.0747
舊制	-10.0749
▁鄭	-10.0756
替	-10.0761
漁	-10.0772
冶	-10.0778
内有	-10.0784
諾	-10.0784
十人	-10.0787
墩	-10.0788
文章	-10.0788
▁御製	-10.0795
鄒	-10.0796
人進士	-10.0796
𩔖	-10.0798
斌	-10.0799
禮樂	-10.0802
庚子	-10.0806
訊	-10.0809
蘓	-10.0813
測	-10.0817
湏	-10.0819
巫	-10.0821
郢	-10.0825
是年	-10.0828
君之	-10.083
倡	-10.083
頴	-10.0831
杭	-10.0834
誼	-10.0835
又云	-10.0836
城北	-10.0839
嘉定	-10.085
捷	-10.085
禮部尚書	-10.0861
乾隆	-10.0865
道路	-10.0866
鬻	-10.0868
隣	-10.087
九十里	-10.087
挺	-10.0877
城東	-10.088
勺	-10.0885
正徳	-10.0888
愧	-10.0898
樂止	-10.0901
元和	-10.0907
七里	-10.0911
之兵	-10.0918
訛	-10.0923
在京	-10.0931
討之	-10.0933
家人	-10.0933
縣有	-10.0936
枕	-10.0938
快	-10.0941
煙	-10.0944
籌	-10.0949
隙	-10.0949
淹	-10.0953
一旦	-10.0955
千户	-10.0955
或有	-10.0957
西域	-10.0957
勑	-10.0961
貌	-10.0966
其下	-10.0966
水利	-10.0969
見其	-10.0969
冝	-10.0975
大事	-10.0987
内史	-10.0988
軍節度使	-10.0993
其名	-10.0997
隅	-10.0998
姪	-10.0998
秋七月	-10.0999
各官	-10.1
子曰	-10.1005
孟子	-10.1007
于此	-10.1011
清河	-10.1018
滕	-10.1019
在縣西	-10.1021
之學	-10.1023
妻子	-10.1027
中原	-10.1031
欣	-10.1032
▁恩	-10.1035
玄	-10.1036
霜	-10.1037
不足以	-10.1045
艾	-10.1047
入海	-10.1048
慧	-10.105
春正月	-10.1054
不欲	-10.1055
其衆	-10.1057
脅	-10.1073
宋史	-10.1074
壺	-10.1078
哩	-10.1083
數日	-10.1087
久之	-10.1094
監司	-10.11
詩云	-10.1102
公事	-10.1109
詭	-10.1111
不便	-10.1126
者有	-10.1133
脫	-10.1139
縣地	-10.114
甞	-10.1141
城西	-10.1154
疲	-10.1161
絃	-10.1167
酋	-10.1173
訓導	-10.1177
瑾	-10.1179
慢	-10.118
運河	-10.1182
贍	-10.1189
猷	-10.119
不免	-10.1205
舍人	-10.1208
壬午	-10.1209
彬	-10.1213
古人	-10.1214
忠義	-10.1216
衮	-10.1231
踐	-10.1235
:	-10.1238
之北	-10.1238
翰林學士	-10.124
懇	-10.1242
甲辰	-10.1246
▁司	-10.1254
晝夜	-10.1258
靣	-10.126
有罪	-10.1261
虐	-10.1261
憚	-10.1264
陪	-10.1264
有差	-10.1265
光武	-10.1266
又言	-10.1269
綽	-10.1272
惇	-10.1285
諒	-10.1285
炳	-10.1292
蒙古	-10.1297
迷	-10.1311
内侍	-10.1313
辛未	-10.1313
酬	-10.1315
彭城	-10.1318
殁	-10.1319
萬餘	-10.1327
太師	-10.1329
冬至	-10.1332
袍	-10.1334
事宜	-10.1334
裂	-10.1336
立於	-10.1343
一月	-10.1344
為名	-10.1345
逺近	-10.1345
若不	-10.1346
太學	-10.1347
甲午	-10.1348
朱子	-10.1349
皇子	-10.135
一體	-10.1352
第三	-10.1354
庾	-10.1357
破之	-10.136
核	-10.136
幽州	-10.1366
遏	-10.1371
撤	-10.1375
▁何	-10.1385
刃	-10.1388
所言	-10.1391
忤	-10.1392
域	-10.1394
其國	-10.1397
睦	-10.1404
曜	-10.1415
僚	-10.1418
其父	-10.142
腰	-10.1427
東宫	-10.1438
遣官	-10.1438
欽此	-10.1449
在縣東	-10.145
汾	-10.1452
二子	-10.1464
之水	-10.1468
畿	-10.1472
先後	-10.1474
齊王	-10.1478
萬年	-10.1478
舅	-10.1479
棺	-10.1482
駐防	-10.1488
教諭	-10.1489
跨	-10.1496
中山	-10.1505
西安	-10.1506
沐	-10.1509
行省	-10.1511
囊	-10.1511
柏	-10.1513
忿	-10.1516
舊有	-10.1522
叚	-10.1524
▁按	-10.1525
蓮	-10.1528
換	-10.1528
侍御史	-10.1533
弁	-10.1533
漠	-10.1534
功臣	-10.1537
現任	-10.154
在外	-10.1545
乙酉	-10.1548
陋	-10.1556
見之	-10.1568
彪	-10.1569
数	-10.1572
牆	-10.1577
淤	-10.1578
不可不	-10.158
乙未	-10.1584
一等	-10.1584
四時	-10.159
䑓	-10.1592
大王	-10.1597
裔	-10.1599
官至	-10.1602
霞	-10.1605
恣	-10.1606
丙午	-10.1607
耆	-10.1607
甸	-10.1608
丙子	-10.1611
可也	-10.1612
相與	-10.1612
不言	-10.1616
所奏	-10.1616
癸未	-10.1616
一帶	-10.163
晟	-10.1637
都御史	-10.1638
祭祀	-10.1644
二十五里	-10.1648
使臣	-10.1649
朋	-10.1653
丁丑	-10.1659
詔曰	-10.1663
從征	-10.1664
低	-10.1665
濁	-10.1665
壬辰	-10.1665
閻	-10.1669
將兵	-10.1671
更名	-10.1671
地震	-10.1675
萬一	-10.1678
詔書	-10.1678
死之	-10.1681
庚辰	-10.1684
西至	-10.1688
賂	-10.1688
僻	-10.1689
汲	-10.1695
乳	-10.1705
髙麗	-10.1713
悼	-10.1717
繪	-10.1718
斜	-10.1727
邸	-10.173
僉事	-10.1738
諷	-10.1739
也又	-10.1748
百餘	-10.175
豹	-10.175
黄帝	-10.1751
未可	-10.1753
壤	-10.1754
之家	-10.1757
之衆	-10.176
又東	-10.176
吟	-10.176
杭州	-10.1765
薪	-10.1768
之用	-10.1777
覩	-10.1778
詰	-10.1779
苖	-10.1782
言者	-10.1784
鋒	-10.1789
四百	-10.1789
從前	-10.1792
之屬	-10.1796
有大	-10.1801
禾	-10.1806
怠	-10.1809
其弟	-10.1813
代之	-10.1814
文學	-10.1823
兵部尚書	-10.1824
二日	-10.1828
成王	-10.183
百萬	-10.1832
等項	-10.1832
州界	-10.1837
王公	-10.1838
隂陽	-10.1845
棲	-10.1854
墮	-10.1858
粤	-10.186
未及	-10.1862
沃	-10.1865
㭍	-10.1865
甲寅	-10.1872
使之	-10.1876
而行	-10.1879
構	-10.188
飬	-10.188
札	-10.1881
亦無	-10.1882
若干	-10.1895
有二	-10.1912
取其	-10.1915
釁	-10.1917
晴	-10.1917
蠶	-10.1917
嚮	-10.1919
閤	-10.1927
萬人	-10.1929
之官	-10.1934
混	-10.1944
檢校	-10.1947
泛	-10.1954
西京	-10.1956
油	-10.1957
成功	-10.1958
▁聖	-10.1959
丁未	-10.1961
以次	-10.1961
中丞	-10.1963
菜	-10.1967
賚	-10.197
永安	-10.1972
嗟	-10.1975
辛丑	-10.1981
辛酉	-10.1983
宸	-10.1989
轄	-10.1993
有三	-10.1997
筠	-10.1999
諡曰	-10.2
之役	-10.2005
揆	-10.2019
也然	-10.2022
▁林	-10.2026
者則	-10.2028
益州	-10.2038
癸酉	-10.2038
為大	-10.2039
寸	-10.2039
昆	-10.2039
壬子	-10.2042
郡國	-10.2047
粮	-10.2049
數萬	-10.2049
奉天	-10.2052
騐	-10.2057
奕	-10.2058
照例	-10.206
想	-10.2063
弛	-10.2064
云云	-10.2067
護	-10.2071
三省	-10.2076
煥	-10.2078
雍正	-10.2079
函	-10.2079
楷	-10.2082
勁	-10.2086
然而	-10.2093
叄	-10.2099
濠	-10.2102
鮑	-10.2118
七日	-10.2124
是非	-10.2126
把總	-10.2129
每年	-10.2131
公曰	-10.2132
遂以	-10.2139
疊	-10.2141
一二	-10.2142
蟲	-10.2142
庚午	-10.2151
今年	-10.2151
滯	-10.2155
用事	-10.2164
所至	-10.2168
丁酉	-10.217
故以	-10.217
吏民	-10.2172
之理	-10.2175
戊子	-10.2177
舊名	-10.2178
帯	-10.2178
▁士	-10.218
文公	-10.2189
觸	-10.2194
乙亥	-10.2194
返	-10.2195
昧	-10.2205
世子	-10.2207
沔	-10.222
儼	-10.2223
曰臣	-10.2225
沖	-10.2232
羙	-10.2232
乙丑	-10.2234
▁凡	-10.2235
二萬	-10.2237
枉	-10.225
門下	-10.225
叩	-10.225
劇	-10.2251
丁亥	-10.2254
八人	-10.2256
新城	-10.2256
宥	-10.2257
敖	-10.2258
陟	-10.226
㢘	-10.2262
▁卷	-10.2265
恢	-10.2268
壬寅	-10.2269
以来	-10.2271
防禦	-10.2271
濤	-10.2273
唐書	-10.228
搆	-10.2282
衢	-10.2284
大敗	-10.229
店	-10.229
坑	-10.229
奏事	-10.2291
狐	-10.2293
漳	-10.23
進退	-10.2304
位於	-10.2304
禀	-10.2336
七分	-10.2341
闊	-10.2359
二十一年	-10.2364
也若	-10.2364
蘆	-10.2364
筆帖式	-10.2373
臣聞	-10.2376
壬申	-10.2377
霄	-10.2383
歐陽	-10.2383
曰今	-10.2384
樂作	-10.2391
攷	-10.2394
鐡	-10.2394
六人	-10.2396
府志	-10.2407
辛巳	-10.2412
真宗	-10.2412
尚書省	-10.2422
情形	-10.2423
逾	-10.2425
武昌	-10.2427
河内	-10.245
中軍	-10.2453
得以	-10.246
戊午	-10.247
列傳	-10.2472
民之	-10.2476
侈	-10.2476
者多	-10.2479
㤗	-10.2479
伊等	-10.2479
大水	-10.2483
大理	-10.2487
不通	-10.2491
團	-10.2491
奢	-10.2496
岑	-10.2501
建安	-10.2505
其意	-10.2508
▁原	-10.2513
元帥	-10.2513
少卿	-10.2514
執事	-10.2515
李氏	-10.252
繕	-10.2525
夫子	-10.2525
舊作	-10.2526
康熈	-10.2531
壬	-10.2534
上帝	-10.2539
是嵗	-10.2542
▁沈	-10.2542
自然	-10.2549
作亂	-10.2549
祭酒	-10.2554
䕫	-10.2554
緝	-10.2555
在今	-10.2558
檀	-10.2562
未至	-10.2563
諸子	-10.2564
河水	-10.2565
東海	-10.2566
戊辰	-10.2574
庻	-10.2575
國子監	-10.2579
卒子	-10.2583
貝	-10.2584
辛亥	-10.2585
千餘	-10.2586
在縣南	-10.2594
庚申	-10.2595
江東	-10.2596
綵	-10.2598
安定	-10.2598
架	-10.2599
内閣	-10.2608
二十三年	-10.2612
國朝	-10.2615
如此則	-10.2619
推官	-10.2623
廩	-10.2638
二十八	-10.2639
南向	-10.264
上疏	-10.2641
㫁	-10.2645
楹	-10.2649
十日	-10.2654
癸丑	-10.2656
宣徳	-10.2656
銀兩	-10.2658
九十	-10.2662
是月	-10.2662
楚王	-10.2665
戊寅	-10.2666
其心	-10.2669
前往	-10.267
丑	-10.2672
壓	-10.2674
牟	-10.2675
台吉	-10.2678
門内	-10.2679
萬物	-10.2684
宼	-10.2685
逵	-10.2688
俘	-10.2692
佞	-10.2692
欠	-10.2692
寂	-10.2697
八百	-10.2698
鵬	-10.2698
海内	-10.2703
鬬	-10.2703
琮	-10.2714
冰	-10.2716
▁賜	-10.272
己未	-10.272
峪	-10.2721
誨	-10.2731
朴	-10.2738
扣	-10.2739
謗	-10.2741
大将軍	-10.2744
丙申	-10.276
二分	-10.2765
寔	-10.2767
臂	-10.2768
神武	-10.2773
兇	-10.2774
翊	-10.2774
染	-10.2781
弘	-10.2787
槩	-10.2789
太白	-10.2799
二十七	-10.2799
其實	-10.28
學校	-10.28
奬	-10.28
丙辰	-10.2805
人等	-10.2806
諸道	-10.2808
之職	-10.2809
未必	-10.2813
戊	-10.2813
酉	-10.2813
昻	-10.2818
自稱	-10.282
於上	-10.2824
䘏	-10.2829
斃	-10.2838
城下	-10.2841
追封	-10.2848
之命	-10.2849
二字	-10.285
平原	-10.2854
𤼵	-10.2855
紛	-10.2857
隆慶	-10.2861
風雨	-10.2865
伺	-10.2865
暗	-10.287
士民	-10.2875
桓公	-10.2875
彈	-10.2877
北面	-10.2877
安南	-10.288
措置	-10.2882
劉氏	-10.2883
東都	-10.2884
搜	-10.2884
庚寅	-10.2889
此事	-10.2894
映	-10.2897
攜	-10.2899
不絶	-10.29
戊申	-10.2901
阮	-10.2901
慕容	-10.2901
胄	-10.2902
詔以	-10.291
綴	-10.291
明帝	-10.2913
居民	-10.2915
愍	-10.2922
埽	-10.2923
乃止	-10.2933
自此	-10.2936
三品	-10.2943
大業	-10.2947
弩	-10.2948
裘	-10.2951
禧	-10.2959
千人	-10.2964
措	-10.2965
一在	-10.297
得失	-10.297
𤓰	-10.2972
▁能	-10.2975
發兵	-10.2981
不若	-10.2986
乂	-10.299
一百二十	-10.299
捍	-10.2991
各處	-10.2992
寰宇記	-10.2993
亦以	-10.2995
可汗	-10.2995
大將	-10.2998
沂	-10.3005
亢	-10.3006
鞏	-10.3011
妻陳氏	-10.3013
何也	-10.3018
枯	-10.3018
暑	-10.3029
朝夕	-10.3044
及其	-10.3044
沁	-10.3045
邑人	-10.3046
豫章	-10.3049
裝	-10.3058
二十二年	-10.3062
有一	-10.3066
拂	-10.3067
兩浙	-10.3068
先王	-10.3069
峙	-10.3069
冗	-10.3075
無子	-10.3081
州治	-10.3087
駭	-10.3091
三萬	-10.3093
甚多	-10.3094
監生	-10.31
拾	-10.3102
盜賊	-10.3102
部落	-10.3103
永平	-10.3105
城内	-10.3107
人物	-10.3111
二十二	-10.3112
而出	-10.3123
莒	-10.3124
掾	-10.3128
晉陽	-10.3133
丙寅	-10.3138
太傅	-10.3141
之文	-10.3151
救之	-10.3158
所部	-10.3159
廣陵	-10.316
千總	-10.3163
王莽	-10.3168
廼	-10.3173
冷	-10.3173
不克	-10.3175
傳曰	-10.3177
籠	-10.3179
飢	-10.3179
不容	-10.319
甘肅	-10.3202
桐	-10.3206
流入	-10.3207
本紀	-10.3213
丹陽	-10.3219
諸司	-10.322
丁巳	-10.322
制度	-10.3222
鬭	-10.3223
酌量	-10.3225
安國	-10.3227
二等	-10.3227
尚有	-10.3228
馭	-10.3231
蝗	-10.3233
之變	-10.3234
中書令	-10.3236
響	-10.3239
三代	-10.324
率兵	-10.3244
紳	-10.3246
萌	-10.3251
癸亥	-10.3252
醜	-10.3255
曰君	-10.3259
甲戌	-10.3261
悍	-10.3261
牀	-10.3261
不報	-10.3263
之政	-10.3263
臨安	-10.3272
戌	-10.3274
之亂	-10.3282
之所以	-10.3282
矩	-10.3285
誅之	-10.3288
奏言	-10.3289
癸巳	-10.3289
布政司	-10.3295
潞	-10.3297
殺人	-10.3299
駿	-10.3301
宦	-10.3303
乙巳	-10.3304
數月	-10.3307
皇上	-10.3308
榆	-10.3311
僭	-10.3314
境内	-10.3315
廣州	-10.332
亦曰	-10.3325
葺	-10.3326
犬	-10.3328
▁魏	-10.3336
諸郡	-10.3339
入城	-10.334
内地	-10.3346
東平	-10.3348
年任	-10.3354
狗	-10.3355
森	-10.3357
夫亡	-10.3358
奏聞	-10.3367
谿	-10.3371
號曰	-10.3377
所載	-10.338
譯	-10.3382
雕	-10.3383
狹	-10.3384
躍	-10.3384
而有	-10.3389
詹	-10.3399
建昌	-10.3401
溫	-10.3403
敞	-10.3403
之盛	-10.3405
黍	-10.3419
控	-10.3423
太監	-10.343
蹈	-10.3433
平定	-10.3438
覈	-10.3444
形勢	-10.3447
參知政事	-10.3448
為政	-10.3453
來歸	-10.3457
狼	-10.3462
估	-10.3466
豈有	-10.3467
宫中	-10.3469
▁陽	-10.3471
之樂	-10.3472
渚	-10.3472
在縣北	-10.348
金銀	-10.3481
徇	-10.3485
斬首	-10.3495
▁郭	-10.3501
旌表	-10.3501
後為	-10.3502
己亥	-10.3503
樞宻院	-10.3509
見於	-10.3513
敗之	-10.3514
二十一	-10.3516
河陽	-10.3523
深入	-10.3526
道士	-10.3528
麓	-10.3529
網	-10.3529
賞罰	-10.3535
亞	-10.3537
論語	-10.3538
一作	-10.3539
縛	-10.3547
龎	-10.3549
莫敢	-10.3549
<	-10.3551
▁t	-10.3553
="33"/>	-10.3555
曽孫	-10.3555
㦸	-10.3556
栢	-10.3557
之志	-10.3562
癸	-10.3565
一面	-10.3567
▁撰	-10.3569
金陵	-10.3572
以兵	-10.3576
蓬	-10.3577
廷尉	-10.3577
政和	-10.3584
參軍	-10.3585
戊戌	-10.3601
嗚呼	-10.3603
栗	-10.3606
軫	-10.3606
即今	-10.3613
恬	-10.3617
馬匹	-10.3619
中書舍人	-10.3624
庚戌	-10.3636
軰	-10.3648
聳	-10.3652
▁宗	-10.3653
處分	-10.3654
宣和	-10.3657
時為	-10.3658
會稽	-10.3659
揭	-10.366
所殺	-10.3667
他日	-10.3673
起兵	-10.3676
按察使	-10.3678
亥	-10.368
不下	-10.3681
▁「	-10.3683
其母	-10.3685
璘	-10.3688
碎	-10.3692
簾	-10.3694
事務	-10.37
己酉	-10.3702
天命	-10.3704
永嘉	-10.3706
之餘	-10.3709
瑜	-10.3716
裳	-10.3721
讒	-10.3724
疇	-10.3727
南山	-10.3729
亦可	-10.373
而歸	-10.3735
渡江	-10.3735
雉	-10.3736
驟	-10.3738
勦	-10.3741
衣冠	-10.3744
皓	-10.3745
郷	-10.3746
庶幾	-10.3747
䖏	-10.375
片	-10.3753
瑚	-10.3754
彩	-10.3754
水旱	-10.3756
熱	-10.3757
總兵官	-10.3759
人員	-10.3764
迪	-10.3765
隷	-10.3769
以通	-10.3772
般	-10.3777
丙戌	-10.3779
萬世	-10.378
燬	-10.3781
叟	-10.3784
修築	-10.379
膏	-10.379
皆為	-10.3793
弄	-10.3797
古者	-10.3805
山中	-10.3805
富貴	-10.3815
認	-10.3817
秘	-10.3817
僕射	-10.3822
禎	-10.3826
所司	-10.3831
國王	-10.3833
踈	-10.3835
樸	-10.3837
墓在	-10.3838
前鋒	-10.3841
安得	-10.3845
尚未	-10.3845
不已	-10.3847
公私	-10.3848
軾	-10.3853
九分	-10.3854
前代	-10.3855
廪	-10.3856
眉	-10.386
常平	-10.3861
副將	-10.3862
僖	-10.3862
冢	-10.3864
一事	-10.3865
寡人	-10.3865
岀	-10.3868
之費	-10.3868
渤海	-10.388
之術	-10.3883
讐	-10.3884
之禍	-10.3886
北齊	-10.3887
為人	-10.3892
羞	-10.3899
畔	-10.3905
▁許	-10.3906
守之	-10.3909
壑	-10.3913
勃	-10.3916
繳	-10.3919
虢	-10.3919
之任	-10.3922
髮	-10.3927
不堪	-10.3934
男女	-10.3934
戾	-10.3936
己丑	-10.3936
考證	-10.3938
譙	-10.3946
太常卿	-10.3952
帝王	-10.3956
石門	-10.3959
孝宗	-10.3966
柵	-10.3966
矣然	-10.3968
依舊	-10.3972
綜	-10.3977
▁國朝	-10.3981
滇	-10.3983
墻	-10.3989
河中	-10.3991
王安石	-10.3996
言其	-10.4002
本傳	-10.4004
粗	-10.4008
民田	-10.4009
次第	-10.4009
錢塘	-10.4013
白馬	-10.4014
伏乞	-10.4014
己巳	-10.4014
廖	-10.4018
司馬光	-10.4019
二十三	-10.4019
縣丞	-10.4021
墟	-10.4022
六分	-10.4023
邇	-10.4023
湖北	-10.4026
視之	-10.4029
倪	-10.403
四面	-10.403
瘞	-10.4032
忠臣	-10.4043
尚書令	-10.4047
從容	-10.4049
攻之	-10.4052
蔵	-10.4055
掃	-10.4056
揮	-10.4059
王師	-10.4067
國人	-10.4069
摧	-10.4078
几	-10.4079
也而	-10.4079
彛	-10.4081
龍門	-10.4082
氐	-10.4084
臘	-10.4084
麾	-10.4085
芒	-10.4086
憲宗	-10.4096
徼	-10.4097
二十五年	-10.4098
為國	-10.4098
所為	-10.41
卽	-10.4107
難以	-10.4122
者即	-10.4123
因名	-10.4125
若有	-10.4132
冉	-10.4132
站	-10.4133
乾道	-10.4137
妻劉氏	-10.4138
握	-10.4139
冐	-10.4141
宣帝	-10.4152
而止	-10.4163
𠞰	-10.4164
由此	-10.4164
驍騎校	-10.4177
山縣	-10.4177
大義	-10.418
泰山	-10.4181
安撫	-10.4187
二十七年	-10.4193
埋	-10.4195
抽	-10.4197
蘇州	-10.4204
誌	-10.421
則是	-10.421
汶	-10.4213
鄉人	-10.4217
不書	-10.4219
軍營	-10.4221
二十六年	-10.4221
不盡	-10.4223
人舉人	-10.4225
後主	-10.4225
志云	-10.4229
治之	-10.4231
飲食	-10.4236
劄	-10.4238
霧	-10.4248
自殺	-10.4252
安縣	-10.4253
歎曰	-10.4262
之難	-10.4266
毆	-10.4271
筵	-10.4273
禮記	-10.4274
貞元	-10.4277
渡河	-10.4277
壬戌	-10.4287
一巻	-10.4293
龔	-10.4294
事之	-10.4297
起居	-10.4297
曰昔	-10.4302
江州	-10.4304
人君	-10.4305
河道	-10.4309
佃	-10.4314
泄	-10.4314
貼	-10.4316
舉兵	-10.4317
西山	-10.4322
二千石	-10.4326
等皆	-10.4328
雲中	-10.4331
無可	-10.4332
元帝	-10.4336
今之	-10.4339
)〔	-10.4339
二十六	-10.434
以告	-10.4341
二十八年	-10.4345
大怒	-10.4347
人康熙	-10.4348
郁	-10.4348
噶爾丹	-10.4351
觀之	-10.4355
縣學	-10.4355
耳目	-10.4359
子也	-10.4359
秦檜	-10.4362
武功	-10.4363
廓	-10.4367
北向	-10.4372
河間	-10.4372
苛	-10.4375
鬱	-10.4377
鈎	-10.4378
稻	-10.439
趙王	-10.4394
者乎	-10.4396
鉅	-10.4397
之前	-10.44
不食	-10.4403
太常寺	-10.4404
請以	-10.4405
箕	-10.441
天順	-10.4411
以自	-10.4411
山陽	-10.4415
扼	-10.4416
二十四年	-10.4419
何為	-10.4424
臣僚	-10.4428
卯	-10.4431
億	-10.4439
罵	-10.4442
青州	-10.4443
或曰	-10.4446
山水	-10.445
其一	-10.445
咸陽	-10.4454
復以	-10.4463
暇	-10.4465
不易	-10.4465
曰汝	-10.4466
綺	-10.4473
終身	-10.4476
朔方	-10.4484
棘	-10.4485
軍事	-10.4486
羡	-10.4486
致祭	-10.4487
郝	-10.4488
官司	-10.449
英宗	-10.4499
天寳	-10.45
御史大夫	-10.4501
評	-10.4502
民力	-10.4509
長樂	-10.4511
熙寧	-10.4513
不忘	-10.4518
大江	-10.4523
臻	-10.4525
宇文	-10.4531
若此	-10.4536
得罪	-10.4539
愆	-10.4544
壮	-10.4556
四卷	-10.4565
為民	-10.4566
父老	-10.4567
南海	-10.4567
天文	-10.4581
莫能	-10.4582
喀爾喀	-10.4591
通州	-10.4592
仍令	-10.4592
記云	-10.4599
之議	-10.46
弦	-10.4603
迨	-10.461
不問	-10.4611
考試	-10.4613
直隸	-10.4613
詩曰	-10.4615
壅	-10.4618
後人	-10.4619
繹	-10.4623
順天	-10.4625
釋之	-10.4627
𥘉	-10.4628
集覽	-10.463
械	-10.4641
衷	-10.4643
燕王	-10.4643
其黨	-10.4644
曰朕	-10.4654
魏主	-10.4656
是故	-10.4659
枚	-10.466
秦州	-10.4662
絡	-10.4663
鱗	-10.4664
第五	-10.4669
轍	-10.4678
掘	-10.4682
滑	-10.4682
無復	-10.4685
而卒	-10.4687
今從	-10.4689
本部	-10.4693
其功	-10.4694
羲	-10.4695
御史臺	-10.4698
儒學	-10.4701
東流	-10.4702
與其	-10.4718
行營	-10.4719
張氏	-10.4723
柩	-10.4723
來朝	-10.4727
朝鮮	-10.4732
殿中	-10.4733
失其	-10.4734
宰臣	-10.4734
新安	-10.4735
漕運	-10.4739
粒	-10.474
九江	-10.4745
苐	-10.4747
屍	-10.475
大明	-10.4752
永昌	-10.4752
曷	-10.4768
太皇太后	-10.4769
墾	-10.4774
監軍	-10.478
扈	-10.4781
即行	-10.4781
北流	-10.4782
諤	-10.4785
愁	-10.4786
禹貢	-10.4787
此時	-10.4791
翰林院	-10.4791
貲	-10.4792
陳留	-10.4793
逋	-10.4794
庵	-10.48
邈	-10.4801
並無	-10.4802
一百五十	-10.4805
曰卿	-10.4806
注云	-10.4809
誡	-10.4821
明洪武	-10.4823
▁陸	-10.4829
革職	-10.4833
謚	-10.4834
節制	-10.4835
元和志	-10.4844
祇	-10.4849
之情	-10.4855
人丁	-10.4859
無異	-10.4867
大定	-10.487
出身	-10.4877
卞	-10.488
者非	-10.4881
二十九	-10.4883
庠	-10.4886
太湖	-10.4886
苟	-10.4886
東向	-10.4888
澹	-10.4889
旺	-10.4895
之謀	-10.4896
草木	-10.4902
蠧	-10.4911
梓	-10.4911
王者	-10.4914
▁晉	-10.4915
笞	-10.4917
陽人	-10.4918
累官	-10.492
之書	-10.4922
堯舜	-10.4922
祔	-10.4924
土人	-10.4927
地理志	-10.4928
刪	-10.4932
侍從	-10.4933
上表	-10.4934
或以	-10.4939
一次	-10.4941
衙	-10.4943
紂	-10.4943
龍泉	-10.4947
促	-10.4947
知制誥	-10.4953
之師	-10.4954
甚衆	-10.4954
彚	-10.4957
金石	-10.496
之國	-10.4962
肩	-10.4963
瓚	-10.4963
多所	-10.4966
廊	-10.497
賁	-10.4971
世家	-10.4974
蹟	-10.4981
水勢	-10.4982
▁里	-10.4983
未詳	-10.4983
踵	-10.499
百户	-10.4995
之說	-10.4996
法度	-10.5
已下	-10.5004
布衣	-10.5007
粉	-10.5016
景泰	-10.5018
雀	-10.5019
常山	-10.5022
近臣	-10.5024
欒	-10.5025
▁梁	-10.5026
概	-10.5027
西向	-10.5032
竈	-10.5034
妨	-10.5036
培	-10.5041
濟南	-10.5043
殺其	-10.5044
恱	-10.505
遮	-10.5051
一百里	-10.5051
萬歴	-10.5058
鎬	-10.5064
大赦	-10.5067
凱	-10.507
小民	-10.5073
將來	-10.5077
王府	-10.5078
地名	-10.5082
圃	-10.5082
繆	-10.5095
弭	-10.5099
轉運	-10.5101
八里	-10.5101
辦事	-10.5103
東陽	-10.5104
無窮	-10.5105
𣙜	-10.511
蔚	-10.5112
至大	-10.5112
▁題	-10.5119
初為	-10.5122
皆不	-10.5122
太史	-10.5122
槐	-10.5128
敘	-10.5128
水經	-10.5128
正黄旗	-10.5128
琛	-10.5129
後周	-10.5129
者其	-10.5129
効力	-10.513
五經	-10.5135
未知	-10.5136
以求	-10.5138
掖	-10.5148
伏誅	-10.5152
藴	-10.5154
於朝	-10.5157
一萬	-10.517
五萬	-10.5172
行臺	-10.5183
散騎常侍	-10.5192
首領	-10.5196
之君	-10.5198
隐	-10.5201
廹	-10.5205
韜	-10.5207
在縣	-10.5207
議論	-10.5207
百人	-10.5208
婢	-10.5208
將帥	-10.521
布政使	-10.5211
又名	-10.5213
五品	-10.5215
傳云	-10.5216
夙	-10.5219
留守	-10.5219
并州	-10.5222
䕃	-10.5225
灰	-10.5227
大抵	-10.5229
俎	-10.5242
謁者	-10.5247
平章	-10.5247
廂	-10.5249
持節	-10.525
也且	-10.5258
諧	-10.5261
瀛	-10.5262
所見	-10.5264
二十九年	-10.5265
郤	-10.5271
亦如之	-10.5271
讎	-10.5273
緩急	-10.5274
穎	-10.5278
其先	-10.5283
帑	-10.5287
斧	-10.5292
模	-10.5292
之語	-10.5298
漢王	-10.5299
禮畢	-10.53
同平章事	-10.5304
領兵	-10.5306
郡太守	-10.5309
之世	-10.5309
留後	-10.5324
塢	-10.5325
西路	-10.5326
遊擊	-10.5332
日夜	-10.5338
願陛下	-10.5344
薊	-10.5345
一路	-10.5346
守禦	-10.5346
其勢	-10.5346
中郎將	-10.5348
百年	-10.5352
迄	-10.5352
惡之	-10.5352
山南	-10.5353
長吏	-10.5353
廕	-10.5355
六百	-10.5355
下流	-10.5357
藤	-10.5358
銳	-10.5359
御製	-10.5361
每嵗	-10.5362
曾孫	-10.5362
▁二月	-10.5363
自有	-10.5365
不聞	-10.5365
至正	-10.5365
蒸	-10.537
於民	-10.537
濮	-10.5371
矣今	-10.5372
指揮使	-10.5373
觀察使	-10.5378
妹	-10.5379
舌	-10.538
三十五里	-10.5381
飲酒	-10.5382
之大	-10.5383
酷	-10.5383
號為	-10.5383
此皆	-10.5384
之恩	-10.5385
明白	-10.5389
防守	-10.5395
萬石	-10.5396
公之	-10.5399
歆	-10.5408
甘泉	-10.5409
嶺南	-10.541
開封	-10.5415
濵	-10.5421
倣	-10.5421
相國	-10.5421
樵	-10.5426
罷之	-10.543
嘆	-10.543
堆	-10.5431
好學	-10.5435
輔臣	-10.5436
毋得	-10.5439
▁御	-10.544
荅	-10.5441
通行	-10.5444
行宫	-10.546
販	-10.5461
五帝	-10.5462
涸	-10.5466
殯	-10.5477
户口	-10.5478
元昊	-10.549
玠	-10.5492
而立	-10.55
此則	-10.55
淪	-10.5501
數人	-10.5501
二名	-10.5502
拯	-10.5503
拒之	-10.5504
中書侍郎	-10.5509
之孫	-10.5513
仁義	-10.5517
、	-10.5525
之儀	-10.5527
奥	-10.5527
城人	-10.5528
朝服	-10.5529
官屬	-10.553
金帛	-10.553
之風	-10.5531
復位	-10.5533
瑶	-10.5534
慙	-10.5537
驍騎	-10.5538
宫室	-10.5538
城外	-10.5539
摘	-10.5542
太平興國	-10.5543
坎	-10.5544
工程	-10.5546
有石	-10.5548
百餘里	-10.5553
十餘萬	-10.5558
球	-10.5561
勛	-10.5566
晩	-10.5568
攀	-10.557
壻	-10.5573
脊	-10.5573
膠	-10.5574
拏	-10.5576
力戰	-10.5577
▁韓	-10.5579
吞	-10.559
三十五	-10.5592
典禮	-10.5593
元孫	-10.5594
廬陵	-10.5595
聨	-10.5597
渺	-10.56
孝子	-10.5602
▁以上	-10.5603
一尺	-10.5606
漢人	-10.5607
也臣	-10.5612
磬	-10.5613
邕	-10.5614
它	-10.562
鑾	-10.5621
侮	-10.5627
所用	-10.5632
大司馬	-10.5635
太保	-10.5636
所當	-10.5648
稜	-10.5648
遣兵	-10.5648
燎	-10.5649
行至	-10.5649
今後	-10.5652
西河	-10.5653
都監	-10.5654
虹	-10.5654
爛	-10.5656
膽	-10.5658
駢	-10.566
詆	-10.5663
噐	-10.5665
孝武	-10.5666
▁郎	-10.5673
望之	-10.5675
兖州	-10.5676
奏曰	-10.5678
此書	-10.5683
特穆爾	-10.5683
▁錢	-10.5684
以安	-10.5685
永寧	-10.5688
守臣	-10.5688
不顧	-10.569
之氣	-10.569
終不	-10.5692
間有	-10.5694
亦名	-10.5704
入於	-10.5706
等因	-10.5709
滎陽	-10.5711
天地之	-10.5714
禮部侍郎	-10.5717
北京	-10.5717
東方	-10.5722
▁佚	-10.5728
建武	-10.5733
必不	-10.5734
五行	-10.5737
金主	-10.5737
鎮守	-10.5738
諸國	-10.5743
桀	-10.5746
其書	-10.5747
偹	-10.5748
有奇	-10.5751
鑲黄旗	-10.5754
而不能	-10.5754
於外	-10.5755
糶	-10.5756
邾	-10.5758
萊	-10.5759
綠	-10.5764
甄	-10.5766
湧	-10.5766
鼻	-10.5768
覲	-10.5768
縣知縣	-10.5769
鬼神	-10.5769
闡	-10.5773
耶律	-10.5774
不得已	-10.5778
其身	-10.578
以資	-10.5781
有此	-10.5785
隴西	-10.5789
樁	-10.5795
大中	-10.5798
千餘人	-10.5799
縣城	-10.5805
南郊	-10.5811
綰	-10.5814
孔子曰	-10.5815
礮	-10.5815
南昌	-10.5816
地方官	-10.582
居之	-10.583
徽宗	-10.583
冀州	-10.5832
字仲	-10.5835
叁	-10.5836
定州	-10.5842
進兵	-10.5842
郡公	-10.5844
者曰	-10.5845
五色	-10.5848
七百	-10.585
堵	-10.5851
年間	-10.5855
書之	-10.5857
鄱陽	-10.5857
王曰	-10.5861
觀其	-10.5863
灾	-10.5866
晉王	-10.5866
柯	-10.5867
開府儀同三司	-10.5868
同上	-10.5868
聖明	-10.5869
廻	-10.587
南面	-10.5871
而復	-10.5873
犀	-10.5875
粲	-10.5882
此其	-10.5884
衣服	-10.5886
分兵	-10.5894
迭	-10.5895
未聞	-10.5896
神主	-10.5903
本路	-10.5906
蔡京	-10.5912
汝南	-10.5913
黄金	-10.5913
庇	-10.5913
僑	-10.5915
着	-10.5922
戸部	-10.5922
洎	-10.5925
豈非	-10.5926
歴代	-10.5942
憐	-10.5942
恊	-10.5942
相應	-10.5952
山谷	-10.5952
淳熙	-10.5957
鄉試	-10.5961
國語	-10.5964
▁呉	-10.5969
言曰	-10.597
築城	-10.5971
其有	-10.5984
記曰	-10.5984
之物	-10.5987
芻	-10.6
两	-10.6005
實在	-10.6017
天之	-10.602
到任	-10.6022
流涕	-10.6023
盗賊	-10.6027
江浙	-10.603
賞給	-10.6031
見前	-10.6034
浙西	-10.6035
兖	-10.6035
匱	-10.6038
禘	-10.6039
號令	-10.604
以禮	-10.6042
言於	-10.6043
第四	-10.6043
笙	-10.6048
梗	-10.6048
給事	-10.6053
祥符	-10.6055
陽城	-10.6058
拓	-10.606
淡	-10.606
南康	-10.606
五卷	-10.6069
二三	-10.607
字伯	-10.6073
夏人	-10.6073
因而	-10.6075
東京	-10.6078
州城	-10.6079
飽	-10.6081
萬五千	-10.6084
肅宗	-10.6084
次之	-10.6089
俱在	-10.609
▁程	-10.6093
未盡	-10.6095
努	-10.6099
猶有	-10.6101
琰	-10.6104
魂	-10.6107
不利	-10.6111
▁祖	-10.6112
侃	-10.6115
武徳	-10.6117
毗	-10.612
大使	-10.6122
駁	-10.6122
以成	-10.6124
滌	-10.6125
賄	-10.6127
劫	-10.6129
水陸	-10.613
撓	-10.6135
安人	-10.6135
三州	-10.6138
賔客	-10.6141
孝經	-10.6146
永興	-10.6147
燾	-10.6147
即日	-10.6151
吳王	-10.6154
令史	-10.6154
鎗	-10.6157
聞其	-10.6165
駐蹕	-10.6167
待之	-10.6168
▁三月	-10.6169
時人	-10.617
棗	-10.6173
人多	-10.6176
於天下	-10.6177
乃命	-10.6177
辜	-10.6178
為相	-10.6188
開封府	-10.619
塟	-10.6191
▁餘	-10.6198
最為	-10.6199
而上	-10.6206
三國	-10.6208
儻	-10.6209
之才	-10.6212
福州	-10.6214
一百二十里	-10.6214
貟	-10.6221
蘇軾	-10.6223
鄉里	-10.6227
溉	-10.6229
挽	-10.623
厨	-10.6233
不一	-10.6237
白雲	-10.6239
及諸	-10.624
張浚	-10.6243
臣愚	-10.6246
稱其	-10.6247
無罪	-10.6252
塩	-10.6253
工部尚書	-10.6257
一品	-10.6257
數百人	-10.6262
行在	-10.6265
葵	-10.6266
岩	-10.6266
上流	-10.6268
忱	-10.6269
不肖	-10.6278
濕	-10.6279
涵	-10.628
陳氏	-10.628
相見	-10.6282
廸	-10.6287
有聲	-10.6294
嫡	-10.6295
聊	-10.6295
三十二	-10.6296
人才	-10.6299
仍舊	-10.6301
顒	-10.6305
件	-10.6305
城門	-10.6307
本州	-10.6308
北海	-10.631
又西	-10.6315
參政	-10.6317
耻	-10.6321
領催	-10.6324
彥	-10.6326
觴	-10.6326
昉	-10.6333
竿	-10.6336
艱難	-10.6338
之使	-10.6341
悖	-10.6341
淮西	-10.6341
表裏	-10.6341
羽林	-10.6342
熒惑	-10.6343
萬户	-10.6345
鉞	-10.6347
以濟	-10.635
可為	-10.6353
故道	-10.6354
不識	-10.6365
闗中	-10.6365
▁九月	-10.637
未見	-10.6371
不屈	-10.6377
椒	-10.638
自為	-10.6383
六千	-10.6386
豕	-10.6386
歐	-10.6388
瑄	-10.6389
四千	-10.6391
茲	-10.6397
等事	-10.6399
一出	-10.6402
孺	-10.6406
遙	-10.641
技	-10.6414
以功	-10.6431
經史	-10.6437
帷	-10.6438
寧夏	-10.6441
不止	-10.6442
攘	-10.6452
滙	-10.6454
禁中	-10.646
其民	-10.646
鎮江	-10.6465
詳見	-10.6467
北方	-10.6468
撮	-10.647
寘	-10.6472
慶元	-10.6473
家貧	-10.6477
臣下	-10.6479
股	-10.648
大學	-10.6487
熾	-10.6489
何所	-10.6489
無功	-10.649
剖	-10.6494
土地	-10.6501
其文	-10.6501
產	-10.6502
聖人之	-10.6506
駒	-10.6513
可得	-10.6516
譴	-10.6518
所宜	-10.6518
凡有	-10.652
十二卷	-10.652
愷	-10.6521
丁卯	-10.6523
陣亡	-10.6524
以便	-10.6525
祕	-10.6529
奏稱	-10.6531
系	-10.6536
昂	-10.6537
不死	-10.6541
鹵	-10.6544
即以	-10.6546
𣲖	-10.655
帝以	-10.655
▁謝	-10.6556
越王	-10.6561
掛	-10.6563
之論	-10.6565
腹心	-10.6567
不失	-10.6571
瓘	-10.6574
武陵	-10.6576
。|	-10.658
臨江	-10.6586
承襲	-10.6589
淨	-10.659
掲	-10.6593
癸卯	-10.6593
治罪	-10.6596
之神	-10.6597
上黨	-10.6597
辛卯	-10.6613
矣而	-10.6613
梯	-10.6619
女子	-10.6621
太祝	-10.6625
之憂	-10.6628
嘉祐	-10.6634
觔	-10.6634
不獲	-10.6634
乙卯	-10.6636
鞫	-10.6637
以至	-10.6637
)○	-10.664
▁汪	-10.6646
已經	-10.6647
賢者	-10.6648
不致	-10.6648
▁十二月	-10.665
卿等	-10.6651
考之	-10.6659
陀	-10.666
研	-10.666
之力	-10.6662
雇	-10.6663
都察院	-10.6665
所生	-10.667
線	-10.6676
不知其	-10.6679
郊祀	-10.668
嚕	-10.668
中書省	-10.6683
前日	-10.6685
二曰	-10.6686
𦙍	-10.6688
媚	-10.669
頑	-10.669
汚	-10.6694
宦者	-10.6695
▁羅	-10.6699
瓜	-10.6702
在縣西南	-10.6704
宗即位	-10.6711
巡檢	-10.6713
度支	-10.6716
九卿	-10.6716
纓	-10.6716
▁聖祖仁皇帝	-10.6717
樽	-10.6719
鼐	-10.6719
▁皇	-10.672
進呈	-10.672
則不	-10.6726
潁川	-10.6734
▁百	-10.6737
魏王	-10.6739
囬	-10.6741
一道	-10.6742
生子	-10.6746
讀曰	-10.6747
雍州	-10.6752
▁六月	-10.6754
而入	-10.6756
不成	-10.6758
萃	-10.676
周易	-10.676
出師	-10.6765
霽	-10.6771
得人	-10.6778
廣平	-10.6782
饋	-10.6782
蠻夷	-10.6787
嶠	-10.6788
咸平	-10.6788
吏部侍郎	-10.6789
約束	-10.6789
可見	-10.6791
等州	-10.6798
起至	-10.6799
雍正五年	-10.68
相去	-10.6801
經筵	-10.6801
宦官	-10.6803
茹	-10.6804
行人	-10.6804
城郭	-10.681
遼陽	-10.6811
其説	-10.6817
聶	-10.682
亘	-10.6827
商人	-10.6831
在西	-10.6833
侍衞	-10.6834
家口	-10.6841
直省	-10.6842
以供	-10.6842
四十五	-10.6844
為此	-10.6844
興國	-10.6851
又南	-10.6855
來降	-10.6857
奉使	-10.6858
罇	-10.6859
開府	-10.686
平生	-10.6861
左氏	-10.6861
大徳	-10.6863
二百里	-10.6863
戢	-10.6864
國用	-10.6864
十有二	-10.6867
人少	-10.687
員外	-10.6872
舉進士	-10.6873
姊	-10.688
大功	-10.6881
可用	-10.6884
下詔	-10.6886
不入	-10.6888
世襲	-10.6888
猶未	-10.6892
於前	-10.6892
▁書法	-10.6893
被執	-10.6902
迺	-10.6903
殿前	-10.6903
給與	-10.6905
當作	-10.6906
軍節度	-10.691
怯	-10.6911
神明	-10.6913
召見	-10.6915
大破之	-10.6915
剪	-10.6919
株	-10.692
前來	-10.6921
東門	-10.6922
三尺	-10.6922
嗜	-10.6926
曰陛下	-10.6938
胙	-10.6944
汙	-10.6944
亳	-10.6949
平江	-10.695
涯	-10.695
禮官	-10.695
相度	-10.6958
遂為	-10.6958
鳯翔	-10.696
而不知	-10.696
惟有	-10.6962
狥	-10.6966
正德	-10.697
受其	-10.6974
卒贈	-10.6976
州軍	-10.6976
▁曹	-10.6978
盆	-10.698
何不	-10.6984
世之	-10.6985
七千	-10.6989
固守	-10.6994
婆	-10.6994
渥	-10.6996
入見	-10.6999
睢	-10.7
無他	-10.7001
平章事	-10.7002
汎	-10.7005
淳化	-10.7006
八千	-10.701
上元	-10.7012
嘉慶	-10.7013
憶	-10.7014
坪	-10.7017
元史	-10.7018
二十萬	-10.7021
姿	-10.7022
應天	-10.7024
厄魯特	-10.7028
直言	-10.7028
二十卷	-10.7029
當以	-10.703
因其	-10.703
都指揮使	-10.7032
夏五月	-10.7034
反覆	-10.7039
杞	-10.704
賊衆	-10.7041
成帝	-10.7045
▁馮	-10.7046
無益	-10.7046
之重	-10.7047
址	-10.7048
鳩	-10.7049
出兵	-10.7051
霖	-10.7053
去年	-10.7054
加恩	-10.7061
河決	-10.7064
四品	-10.7069
未免	-10.707
禮儀	-10.7072
倖	-10.7072
軍馬	-10.708
霑	-10.7081
舉行	-10.7084
皇甫	-10.7084
職事	-10.7084
粹	-10.7085
龕	-10.7089
峒	-10.709
袖	-10.7095
南安	-10.7095
不加	-10.7096
去之	-10.7096
其利	-10.7101
言事	-10.7101
軍前	-10.7105
不幸	-10.7111
七十二	-10.7112
以歸	-10.7112
紹聖	-10.7112
▁發明	-10.7113
清水	-10.7114
得免	-10.7117
其職	-10.7122
為主	-10.7122
禁止	-10.7124
江水	-10.7129
多爾濟	-10.7134
一寸	-10.7135
▁杜	-10.7137
愛民	-10.7139
分為	-10.7139
覇	-10.714
諸儒	-10.7141
熹	-10.7143
渙	-10.7143
祀之	-10.7144
為太子	-10.7145
莫若	-10.7148
逞	-10.7149
老子	-10.7149
嘉興	-10.715
貴人	-10.715
簫	-10.7151
穢	-10.7151
近日	-10.716
器械	-10.7166
莭	-10.7166
此等	-10.7166
因循	-10.7175
襄王	-10.7175
一百三十	-10.7177
鞠	-10.7182
之路	-10.7186
七人	-10.7188
據實	-10.7189
來㑹	-10.7196
惕	-10.7197
在東	-10.7206
覃	-10.7217
湖州	-10.7218
後有	-10.7223
府屬	-10.7225
叱	-10.7226
南流	-10.7226
逓	-10.7228
稼	-10.7236
佟	-10.7237
豈能	-10.7239
錠	-10.725
保定	-10.7252
鷹	-10.7255
光禄大夫	-10.7255
刷	-10.7257
筭	-10.7257
保甲	-10.7258
扶風	-10.7262
寝	-10.7263
▁冬十月	-10.7264
跋	-10.727
▁同日又	-10.7272
偷	-10.7273
毓	-10.7278
南方	-10.7281
窟	-10.7282
少府	-10.7295
承㫖	-10.7297
濯	-10.7302
驍	-10.7304
江都	-10.7308
歿	-10.7309
賜之	-10.7312
禪師	-10.7314
南唐	-10.7315
洵	-10.7317
布哈	-10.7323
精兵	-10.7323
圜	-10.7324
北岸	-10.7332
塹	-10.7334
數十人	-10.7335
者謂	-10.7337
桂陽	-10.7338
貧民	-10.7339
顛	-10.7342
両	-10.7343
昱	-10.7343
包衣	-10.7344
為上	-10.7344
泗州	-10.7344
一家	-10.7347
長官司	-10.7347
省入	-10.7349
宰執	-10.7349
卒於	-10.7349
關中	-10.735
而成	-10.7351
以進	-10.7353
殿下	-10.7354
在此	-10.7356
修撰	-10.7361
戰於	-10.7365
土司	-10.7367
改正	-10.7367
戰于	-10.7368
差遣	-10.7368
西湖	-10.737
雖不	-10.7378
稔	-10.7378
闔	-10.738
牐	-10.7381
之失	-10.7381
縷	-10.7383
師古	-10.7392
博學	-10.7393
顥	-10.7393
景帝	-10.7394
不載	-10.7399
宿衛	-10.7401
久矣	-10.7402
槍	-10.7403
皆在	-10.7405
一言	-10.7406
進封	-10.7408
▁萬	-10.7408
炭	-10.7409
加以	-10.7409
本年	-10.7409
查明	-10.7411
有異	-10.7413
貿易	-10.7415
上以	-10.7415
緡	-10.7418
人民	-10.7419
名也	-10.7427
流賊	-10.7428
叩頭	-10.743
百餘人	-10.7432
其才	-10.7434
椿	-10.7436
縮	-10.7437
鴈	-10.7441
▁部	-10.7441
受之	-10.7441
真定	-10.7442
灼	-10.7444
國事	-10.7444
攻城	-10.7445
開皇	-10.7445
文集	-10.7445
求之	-10.7448
四十八	-10.7452
城在	-10.7452
售	-10.7453
六卷	-10.7455
荆南	-10.7456
經義	-10.7463
高宗	-10.7464
郡治	-10.7465
興化	-10.7466
漂	-10.7466
或謂	-10.7466
此言	-10.747
皂	-10.7471
附近	-10.7471
滄	-10.7472
事者	-10.7474
在縣東南	-10.7476
在南	-10.7481
以防	-10.7481
一部	-10.7482
襄公	-10.7483
諸部	-10.7485
而東	-10.7489
具題	-10.7493
三曰	-10.7497
未經	-10.7498
不善	-10.7499
罹	-10.75
夙夜	-10.7501
如初	-10.7502
男子	-10.7505
爐	-10.751
砌	-10.7512
改名	-10.7514
飄	-10.7515
▁八月	-10.7517
。」	-10.7518
今改正	-10.7518
何必	-10.7522
轉運司	-10.7522
問之	-10.7523
數千人	-10.7531
藁	-10.7532
邯鄲	-10.7532
不安	-10.7537
四夷	-10.7538
笑曰	-10.7547
之實	-10.7549
地理	-10.755
失之	-10.755
武宗	-10.7554
曰公	-10.7557
治平	-10.756
淮安	-10.7561
中尉	-10.7562
雍正七年	-10.7564
謂其	-10.7567
數目	-10.7572
圉	-10.7574
要害	-10.7574
大興	-10.7574
瓌	-10.7579
▁皇考	-10.758
之美	-10.758
考異	-10.7581
實為	-10.7581
晉書	-10.7582
寖	-10.7582
鑲白旗	-10.7588
秒	-10.7588
商賈	-10.7589
一丈	-10.759
待制	-10.7594
禦之	-10.7596
同州	-10.7601
不時	-10.7603
不待	-10.7603
土官	-10.7604
天津	-10.7608
邏	-10.7609
頤	-10.7611
已有	-10.7612
景公	-10.7615
生事	-10.7616
巒	-10.7619
改曰	-10.7626
杯	-10.7627
先朝	-10.7629
占曰	-10.7636
輟	-10.7638
初置	-10.7641
以是	-10.7647
綂	-10.7653
濱	-10.7654
順治	-10.7655
孽	-10.7657
進攻	-10.7658
梁王	-10.7662
殿中侍御史	-10.7666
不法	-10.7669
㝠	-10.7674
叅領	-10.7679
本司	-10.7682
叶	-10.7683
齊人	-10.7693
常侍	-10.7693
帝即位	-10.7695
窩	-10.7695
僣	-10.7696
溉田	-10.7697
而退	-10.7698
奉詔	-10.7699
之要	-10.7703
世居	-10.7714
叅政	-10.7714
中官	-10.7716
西方	-10.7717
弓矢	-10.7718
雒	-10.7719
晉侯	-10.772
講學	-10.7725
泉州	-10.7726
仲尼	-10.7727
曩	-10.7728
一十	-10.7735
其志	-10.7739
一方	-10.7741
之始	-10.7743
大破	-10.7749
敵人	-10.7751
襲職	-10.7752
為天下	-10.7753
大名	-10.7756
妻楊氏	-10.7756
艘	-10.7757
江夏	-10.7758
此乃	-10.7761
安危	-10.7761
崇徳	-10.7762
鏤	-10.7764
他人	-10.7765
金城	-10.7766
一百四十	-10.7767
死罪	-10.777
臣恐	-10.7771
▁秋七月	-10.7777
承天	-10.7779
巴延	-10.778
瑕	-10.7785
諫官	-10.7791
六經	-10.7792
瑛	-10.7795
水自	-10.7795
該部	-10.7798
畱	-10.7801
南岸	-10.7802
有五	-10.7804
非所以	-10.7808
▁蕭	-10.781
郡人	-10.781
之分	-10.7812
▁夏四月	-10.7814
▁員	-10.7814
武定	-10.7817
萬餘人	-10.7824
鉛	-10.7826
者乃	-10.7826
劵	-10.7831
不明	-10.7831
入貢	-10.7831
殫	-10.7837
天道	-10.7837
門人	-10.784
欄	-10.784
宣王	-10.7842
互相	-10.7844
襃	-10.7849
不就	-10.7851
豁	-10.7854
軸	-10.7855
剿	-10.7859
必先	-10.786
而又	-10.786
犢	-10.7861
可乎	-10.7862
脉	-10.7864
之位	-10.7867
可知	-10.7867
於後	-10.7871
臣竊	-10.7872
舊例	-10.7878
妥	-10.7882
以死	-10.7882
琅邪	-10.789
大河	-10.7891
從者	-10.7891
摺	-10.7895
賠	-10.7897
無一	-10.7898
領軍	-10.7898
免其	-10.79
而言	-10.79
昭王	-10.7902
可否	-10.7902
▁諭㫖	-10.7907
鐫	-10.7907
昶	-10.7911
三十七	-10.7912
服之	-10.7914
吳越	-10.7916
相望	-10.7917
進賢	-10.7923
四萬	-10.7924
稱之	-10.7926
所著有	-10.7928
叡	-10.7928
倦	-10.7929
主之	-10.793
嘉之	-10.7931
歸之	-10.7931
奄	-10.7935
志在	-10.7936
鮮卑	-10.7937
憾	-10.7937
三百里	-10.7938
聰明	-10.7938
聖徳	-10.794
亶	-10.7944
羸	-10.7944
實以	-10.7944
食之	-10.7945
京東	-10.7947
長興	-10.7948
則無	-10.7952
悅	-10.7953
脈	-10.7956
立功	-10.7958
繋	-10.7959
制置使	-10.796
四十年	-10.7963
迂	-10.7965
軍務	-10.7967
刑部尚書	-10.7967
者矣	-10.7968
復有	-10.797
雍正二年	-10.7971
損益	-10.7975
賑濟	-10.7977
東面	-10.7979
揺	-10.7982
安西	-10.7989
千載	-10.7991
范陽	-10.7991
六合	-10.7993
朋黨	-10.7993
龍山	-10.7993
詣闕	-10.7995
宣宗	-10.7996
國史	-10.7997
粥	-10.7999
囂	-10.8002
詩書	-10.8004
特進	-10.8004
衣食	-10.8006
王室	-10.8007
笛	-10.8008
裹	-10.8008
上皇	-10.8009
賽	-10.8012
而能	-10.8012
䓁	-10.8014
刑獄	-10.8015
春二月	-10.8016
浴	-10.802
黄道	-10.802
梵	-10.8024
死於	-10.8026
峭	-10.8029
異之	-10.8029
西面	-10.8031
▁十一月	-10.8032
驥	-10.8033
諸公	-10.8037
之謂	-10.8039
臨川	-10.8041
晏子	-10.8043
憫	-10.8045
招撫	-10.8046
臺灣	-10.8049
兄子	-10.8052
入于	-10.8053
陸續	-10.8053
無疆	-10.8054
蹕	-10.8055
蘭州	-10.8057
常州	-10.8059
之主	-10.8061
十餘年	-10.8061
邠	-10.8062
數十萬	-10.8063
瑩	-10.8064
萬八千	-10.8065
雁	-10.8065
▁五月	-10.8068
古文	-10.8072
縣境	-10.8074
未得	-10.8077
金華	-10.8078
釣	-10.808
海口	-10.8083
闈	-10.8086
禮義	-10.8086
易之	-10.8089
鈐轄	-10.8092
謹按	-10.8097
曰臣聞	-10.8103
廷臣	-10.8108
固辭	-10.8108
挈	-10.811
敇	-10.8117
田地	-10.8117
篚	-10.8118
之䇿	-10.8119
授以	-10.812
皷	-10.812
漢陽	-10.8121
御前	-10.8123
京西	-10.8124
不敷	-10.8125
原額	-10.8126
多寡	-10.813
廳	-10.8132
緬	-10.8135
以獻	-10.8136
天啟	-10.8137
杲	-10.814
左僕射	-10.8145
四里	-10.8146
諸将	-10.8147
河口	-10.8147
分司	-10.8147
五六	-10.8155
其君	-10.8157
釋奠	-10.8158
生於	-10.816
納之	-10.8164
奉行	-10.8166
山有	-10.8167
在縣西北	-10.8175
十餘里	-10.8177
惰	-10.818
蠡	-10.8182
官爵	-10.8184
四十五里	-10.8186
部議	-10.8193
歉	-10.8196
廐	-10.8198
見在	-10.8198
楊氏	-10.8201
更始	-10.8202
紗	-10.8204
剥	-10.8204
蹇	-10.8207
必須	-10.8209
三軍	-10.8212
從祀	-10.8214
未敢	-10.8214
三縣	-10.8216
膝	-10.8216
璉	-10.8217
六品	-10.8219
曼	-10.822
▁夏	-10.822
一百六十	-10.8221
所著	-10.8221
太公	-10.8226
三十四	-10.8227
安民	-10.823
太僕	-10.8233
財物	-10.8235
文書	-10.8239
瘠	-10.8245
芬	-10.8245
都城	-10.8245
阿爾	-10.8246
孝文	-10.8247
大旱	-10.8247
庶人	-10.8248
絞	-10.8248
殱	-10.8248
趙氏	-10.8249
汰	-10.825
建炎	-10.825
因以	-10.8251
牘	-10.8251
大都	-10.8252
崇寧	-10.8252
御書	-10.8257
鎮撫	-10.8257
或云	-10.8257
永豐	-10.826
不少	-10.8262
其義	-10.8267
海陵	-10.8272
奪其	-10.8277
杏	-10.8277
民生	-10.8282
愛之	-10.8285
鷄	-10.8285
廬江	-10.8286
不動	-10.8287
忻	-10.8288
臨清	-10.8291
國初	-10.8297
▁|	-10.8297
箇	-10.8298
人材	-10.8299
統領	-10.83
編修	-10.8302
左丞	-10.8305
樂安	-10.8305
北直	-10.8306
摯	-10.8307
使其	-10.8307
不暇	-10.831
之害	-10.8311
生民	-10.8313
琪	-10.8318
▁董	-10.8318
閤門	-10.8319
舎人	-10.8321
不滿	-10.8323
祉	-10.8328
足下	-10.8329
責之	-10.8332
經歴	-10.8332
諸葛	-10.8333
搏	-10.8334
葦	-10.8334
教之	-10.8335
齊侯	-10.8336
又東北	-10.834
議準	-10.8342
為亂	-10.8343
詎	-10.8344
謂曰	-10.8345
北有	-10.8347
大風	-10.8347
樞宻	-10.8349
而南	-10.835
舘	-10.835
大禮	-10.8351
鹵簿	-10.8351
思之	-10.8352
天子之	-10.8352
靳	-10.8355
一錢	-10.8357
全忠	-10.836
所請	-10.8363
松江	-10.8364
祧	-10.8366
初獻	-10.8368
榆林	-10.837
千秋	-10.8372
三十一年	-10.8372
雋	-10.8372
大觀	-10.8373
夔	-10.838
觀音	-10.8382
矣故	-10.8383
者並	-10.8384
衆皆	-10.8395
本末	-10.84
儁	-10.8404
者或	-10.8405
添設	-10.8406
通典	-10.8406
必欲	-10.8407
轅	-10.841
関	-10.8411
襟	-10.8412
名臣	-10.8414
立為	-10.8414
征伐	-10.8415
驢	-10.842
惟陛下	-10.8423
補音	-10.8424
涪	-10.8431
必以	-10.8435
之業	-10.8435
䕶軍校	-10.8436
視事	-10.8438
箴	-10.844
鉤	-10.844
典史	-10.844
中書門下	-10.8443
遇有	-10.8444
當世	-10.8449
者又	-10.845
賜爵	-10.845
大都督	-10.8457
大雨	-10.8457
二百五十	-10.846
躡	-10.8466
為文	-10.8467
五尺	-10.8468
一嵗	-10.8468
紀修	-10.8468
又北	-10.847
狡	-10.8472
東漢	-10.8472
經畧	-10.8472
宵	-10.8473
▁姚	-10.8476
江寧	-10.8477
俠	-10.8479
幅	-10.8479
三十三	-10.8479
其他	-10.848
終日	-10.8481
不信	-10.8483
十分	-10.8484
安能	-10.8485
執事者	-10.8485
侍講	-10.8487
縉	-10.8487
以疾	-10.8489
先王之	-10.8492
隋開皇	-10.8494
在州	-10.8495
始終	-10.8501
沾	-10.8502
戀	-10.8504
灑	-10.8507
礦	-10.8508
鉉	-10.8513
太極	-10.8513
乆之	-10.8513
恂	-10.8514
鑰	-10.8514
樞密院	-10.8514
察哈爾	-10.8515
少保	-10.8517
二丈	-10.8517
紀綱	-10.8518
所欲	-10.852
人户	-10.852
天台	-10.852
隕	-10.8523
巴爾	-10.8525
聖賢	-10.8525
管仲	-10.8532
周官	-10.8536
伎	-10.8537
曰天	-10.8537
萬七千	-10.8542
千萬	-10.8544
字元	-10.8547
自號	-10.8549
醇	-10.8553
自縊	-10.856
無敢	-10.8561
一百八十	-10.8561
尤甚	-10.8562
鳳翔	-10.8568
夏侯	-10.857
内附	-10.8571
諡文	-10.8571
相近	-10.8572
上都	-10.8572
形如	-10.8572
之本	-10.8577
㳟	-10.8579
▁葉	-10.8581
爾雅	-10.8582
數十里	-10.8583
尚存	-10.8584
雍正元年	-10.8585
貴妃	-10.8589
出知	-10.8592
稱為	-10.8595
兩淮	-10.8596
曰若	-10.8596
劣	-10.8598
之徳	-10.8599
曰大	-10.8605
幄	-10.861
無人	-10.8613
中都	-10.8614
在縣東北	-10.8616
同時	-10.8616
庶子	-10.8617
奉聖㫖	-10.8617
災異	-10.8619
不服	-10.862
其城	-10.8621
問曰	-10.8622
髙帝	-10.8624
窘	-10.8625
挫	-10.8632
溜	-10.8632
之子也	-10.8634
▁奏為	-10.8635
幷	-10.8635
可不	-10.8637
謀反	-10.8638
宗社	-10.8638
自後	-10.8641
和碩	-10.8645
流民	-10.8649
引見	-10.8651
無有	-10.8652
参	-10.8657
芮	-10.8658
儀注	-10.866
姻	-10.8661
屯兵	-10.8671
安撫使	-10.8673
之典	-10.8673
沅	-10.8674
泰和	-10.8677
臺諫	-10.8678
扎薩克	-10.868
府庫	-10.8681
濡	-10.8686
兵部侍郎	-10.8687
不知所	-10.869
乃遣	-10.8692
相對	-10.8693
鼓吹	-10.8694
提㸃	-10.8694
劭	-10.8694
山陵	-10.8696
滿漢	-10.8698
不疑	-10.8698
圯	-10.87
梟	-10.8702
奨	-10.8704
涇原	-10.8705
八卷	-10.8706
加意	-10.8707
旭	-10.8707
方今	-10.8708
若是	-10.8708
嬪	-10.8713
購	-10.8714
瑟	-10.8718
止之	-10.8719
六里	-10.8721
在城東	-10.8722
以俟	-10.8722
話	-10.8723
仙人	-10.8724
再三	-10.8729
四員	-10.8731
潞州	-10.8734
湍	-10.8734
邃	-10.8734
無遺	-10.8735
降㫖	-10.8737
行者	-10.874
未㡬	-10.8741
遂與	-10.8742
都督府	-10.8744
大體	-10.8745
萬九千	-10.8747
曹操	-10.8749
票	-10.875
曰夫	-10.8751
十八里	-10.8752
始皇	-10.8754
止於	-10.8762
考異曰	-10.8766
元嘉	-10.8766
鑲藍旗	-10.8767
中間	-10.8769
朽	-10.8771
太康	-10.8772
財用	-10.8772
三輔	-10.8775
立廟	-10.8777
卷一百	-10.8778
煬帝	-10.8783
泓	-10.8787
▁皇太后	-10.8787
冡	-10.8788
父兄	-10.8791
亦當	-10.8795
珙	-10.8797
劔	-10.8797
踏	-10.8799
日食	-10.8801
為首	-10.8806
殉	-10.8807
婦女	-10.8807
平地	-10.8808
療	-10.881
之號	-10.8811
職官	-10.8812
巡檢司	-10.8816
制置	-10.8816
瑗	-10.8817
臨海	-10.8818
廨	-10.8818
者三	-10.882
行走	-10.882
馴	-10.8823
石城	-10.8826
泌	-10.8826
己卯	-10.8826
二府	-10.8829
一字	-10.8829
敢不	-10.883
其妻	-10.883
金山	-10.8831
大梁	-10.8834
旂	-10.8834
醴	-10.8834
軍旅	-10.8834
湖水	-10.8836
在上	-10.8836
䑕	-10.8837
題請	-10.8839
不自	-10.8843
六尺	-10.8845
其弊	-10.8845
項羽	-10.8846
又東南	-10.8847
五星	-10.885
頽	-10.8851
既至	-10.8853
生靈	-10.8854
該督撫	-10.8856
廡	-10.8859
浙東	-10.8865
▁潘	-10.8865
大計	-10.8867
九州	-10.8873
▁盛京	-10.8873
惠王	-10.8876
根本	-10.8876
再行	-10.8878
賊匪	-10.888
騎都尉	-10.888
諫曰	-10.888
還宫	-10.8882
追之	-10.8882
人嘉靖	-10.8894
㝷	-10.8894
改屬	-10.8898
世職	-10.8899
滛	-10.8901
韓魏	-10.8903
朂	-10.8904
擔	-10.8908
愿	-10.8911
愼	-10.8911
不惟	-10.8912
筮	-10.8913
燧	-10.8914
弋	-10.8915
柒	-10.8916
二品	-10.8916
各屬	-10.8919
曇	-10.8921
燦	-10.8922
▁蔡	-10.8927
詳定	-10.893
蠲免	-10.8932
之節	-10.8943
綾	-10.8945
人有	-10.8949
經理	-10.8949
歙	-10.8951
州防禦使	-10.8954
本漢	-10.8954
右僕射	-10.8955
廬州	-10.8957
華山	-10.896
仕至	-10.896
道也	-10.8962
戶	-10.8962
完顔	-10.8964
宣諭	-10.8965
定例	-10.8966
知名	-10.8967
燔	-10.8968
原本	-10.8969
守令	-10.8969
之末	-10.8972
江北	-10.8972
事也	-10.8975
▁先是	-10.8977
凢	-10.8979
拆	-10.8979
别有	-10.898
帝崩	-10.898
髙下	-10.8981
户部尚書	-10.8982
為害	-10.8985
闇	-10.8985
有事	-10.8989
文武官	-10.899
實錄	-10.8992
正藍旗	-10.8995
正殿	-10.8998
矣夫	-10.8998
以上者	-10.8999
彼此	-10.9001
地勢	-10.9003
有㫖	-10.9006
竟不	-10.9006
華州	-10.9008
委官	-10.9008
圜丘	-10.9011
所稱	-10.9012
布政	-10.9015
黄門	-10.9015
蹙	-10.9015
置之	-10.9019
法令	-10.902
忠孝	-10.9022
螺	-10.9027
在於	-10.9027
便宜	-10.9027
為左	-10.9027
烝	-10.903
諮	-10.903
刁	-10.9033
歸於	-10.904
召還	-10.904
曰子	-10.9041
其次	-10.9042
一也	-10.9042
師道	-10.9043
一本	-10.9043
瑋	-10.9047
為陛下	-10.9053
中庸	-10.9054
九日	-10.9055
為右	-10.9056
戰國	-10.9056
也此	-10.9057
文宗	-10.9057
瞿	-10.9057
所能	-10.9058
昭公	-10.9059
箋	-10.906
喧	-10.9061
所獲	-10.9062
而得	-10.9063
十五日	-10.9064
熈寧	-10.9066
繒	-10.9067
駝	-10.9068
駱	-10.907
豎	-10.9071
而自	-10.9073
兵至	-10.9073
之弟	-10.9074
瀘	-10.9074
剏	-10.9075
懦	-10.9083
又遣	-10.9084
二百四十	-10.9085
仲淹	-10.9086
噶爾	-10.9087
▁范	-10.9088
巡按	-10.9088
自謂	-10.9089
做	-10.9092
先儒	-10.9094
棄之	-10.9096
非也	-10.9097
尅	-10.9099
不得不	-10.9102
又為	-10.9104
璫	-10.9105
舅姑	-10.9107
侯景	-10.9108
召為	-10.911
之資	-10.911
長者	-10.9111
無忌	-10.9113
遁去	-10.9115
嶼	-10.9116
中和	-10.9117
京口	-10.9117
人父	-10.9117
二十餘	-10.9118
不等	-10.9119
侍讀	-10.912
凍	-10.9126
奏議	-10.9127
年老	-10.9127
四日	-10.9129
事君	-10.913
皇朝	-10.913
賫	-10.914
一併	-10.9143
逝	-10.9143
於天	-10.9144
封禪	-10.9145
又詔	-10.9148
老人	-10.9148
稀	-10.9148
其法	-10.915
稚	-10.915
伴	-10.9153
兩省	-10.9154
停止	-10.9154
玊	-10.9157
大喜	-10.9158
今據	-10.9161
後漢書	-10.9162
白石	-10.9164
攬	-10.9167
明宗	-10.9169
也乃	-10.917
佳氏	-10.9174
三員	-10.918
躋	-10.9185
臣請	-10.919
大國	-10.9191
中為	-10.9191
鹽鐵	-10.9192
分防	-10.9193
次子	-10.9195
其孫	-10.9196
處置	-10.9197
朕意	-10.9199
四十九	-10.9202
户部侍郎	-10.9204
慶厯	-10.9208
㸔	-10.9208
乾元	-10.9209
處士	-10.9209
伏望	-10.9212
至京師	-10.9214
哈喇	-10.9214
竣	-10.9215
金吾	-10.9219
多少	-10.922
萬六千	-10.9224
太宰	-10.9228
人所	-10.9235
鞍	-10.9237
事例	-10.9245
梧	-10.9247
廵檢	-10.9248
管轄	-10.925
因此	-10.9252
周之	-10.9254
三丈	-10.9261
詔令	-10.9263
者悉	-10.9265
内府	-10.9265
其數	-10.9266
諸縣	-10.9268
賜名	-10.9269
旻	-10.9269
乃與	-10.9269
州知州	-10.9269
我師	-10.9274
同日	-10.9274
上聞	-10.9274
未嘗不	-10.9276
南有	-10.9279
撒	-10.928
蠟	-10.9293
慘	-10.9297
得一	-10.9297
長官	-10.9301
宗正	-10.9302
懈	-10.9304
山北	-10.9304
贄	-10.9304
所出	-10.9305
冩	-10.9307
陳設	-10.9308
十二里	-10.9309
拙	-10.9311
萬國	-10.9313
三十九	-10.9317
同心	-10.9317
欽奉	-10.932
竭力	-10.932
在城西	-10.9321
從此	-10.9324
親戚	-10.9325
▁盧	-10.9332
徳宗	-10.9332
發源	-10.9335
居官	-10.9337
不起	-10.9338
多有	-10.9341
殤	-10.9346
鑄錢	-10.9346
開國	-10.9351
甕	-10.9353
佚	-10.9354
安平	-10.9355
十名	-10.9359
崑山	-10.9359
衆人	-10.9362
世忠	-10.9362
莫如	-10.9363
曦	-10.9363
白水	-10.9365
安樂	-10.9366
請於	-10.9369
也言	-10.9369
遶	-10.9371
聞而	-10.9375
膚	-10.9375
武臣	-10.9377
之半	-10.9377
十丈	-10.9377
用人	-10.9383
雍正三年	-10.9384
蟠	-10.9386
灌田	-10.9392
宣撫使	-10.9393
萬壽	-10.9395
委任	-10.9396
踞	-10.9397
旒	-10.9399
歇	-10.9406
組	-10.9406
以報	-10.9408
交趾	-10.9409
始於	-10.9409
三十一	-10.941
東路	-10.941
之望	-10.9412
自守	-10.9413
武進人	-10.9415
千金	-10.9415
長城	-10.9418
立法	-10.942
遇害	-10.9421
順帝	-10.9421
矦	-10.9425
漢之	-10.9427
▁陳氏曰	-10.9428
亳州	-10.9429
所過	-10.9429
樞密使	-10.9432
所作	-10.9432
城守	-10.9436
太常博士	-10.944
者衆	-10.9441
竢	-10.9441
掣	-10.9445
猺	-10.9445
萇	-10.9447
潦	-10.9449
之道也	-10.945
康熙四十	-10.9452
褚	-10.9452
分置	-10.9454
而未	-10.946
軍器	-10.9461
十數	-10.9461
察其	-10.9461
氏女	-10.9461
亞獻	-10.9467
部曲	-10.9476
豫州	-10.9476
▁顧	-10.9476
▁尉	-10.9477
哲宗	-10.9478
之女	-10.9479
而進	-10.948
氊	-10.9481
▁袁	-10.9481
樞宻使	-10.9482
九里	-10.9484
洪武初	-10.9486
訛作	-10.9487
捉	-10.949
府州縣	-10.9491
勉之	-10.9494
矧	-10.9495
奴婢	-10.9502
區區	-10.9502
電	-10.9513
東坡	-10.9513
黄龍	-10.9514
也自	-10.9514
而來	-10.9515
嘗為	-10.9519
四十二	-10.9521
安撫司	-10.9522
滄州	-10.9522
訣	-10.9523
爻	-10.9524
秦漢	-10.9524
洞庭	-10.9526
牛羊	-10.9526
厄	-10.9527
搶	-10.9528
賦詩	-10.9532
錡	-10.9532
中宗	-10.9533
貢生	-10.9535
有才	-10.954
俱有	-10.9541
寺在	-10.9543
簒	-10.9544
鼠	-10.9545
又令	-10.9546
進士授	-10.9547
大理寺	-10.9549
京畿	-10.9549
乃得	-10.9554
纛	-10.9559
三十八	-10.956
雍正六年	-10.956
不改	-10.9562
琬	-10.9563
傲	-10.9563
璠	-10.9563
史官	-10.9565
東南流	-10.9565
永康	-10.9566
天祐	-10.9566
郭勒	-10.9567
延祐	-10.9569
璟	-10.9572
章惇	-10.9574
明初	-10.9576
皆得	-10.9577
十餘人	-10.9578
苻	-10.9583
有無	-10.9583
亦未	-10.9584
北平	-10.9584
衫	-10.9585
罪人	-10.9588
透	-10.9588
蔑	-10.9588
棣	-10.9589
臣言	-10.9591
可行	-10.9592
門下侍郎	-10.9593
羮	-10.9596
崧	-10.9596
▁崔	-10.9597
黄鍾	-10.9599
封疆	-10.9601
殖	-10.9603
嵗月	-10.9604
理合	-10.9605
盡心	-10.9606
入官	-10.9608
諸水	-10.9609
歸附	-10.9609
之聲	-10.9609
城池	-10.961
不避	-10.9611
右丞	-10.9612
紐	-10.9614
之期	-10.9615
帽	-10.9617
曉諭	-10.9618
夭	-10.9621
三十卷	-10.9621
涼州	-10.9622
馬甲	-10.9624
告成	-10.9625
建議	-10.9625
嬖	-10.9632
更不	-10.9633
平王	-10.9635
分野	-10.9635
中正	-10.9645
▁太祖	-10.9646
延安	-10.9646
其本	-10.9647
甥	-10.9654
城陷	-10.9656
佗	-10.9657
伐之	-10.9662
一篇	-10.9665
是謂	-10.9667
下至	-10.967
耕種	-10.967
砲	-10.967
親征	-10.9671
畀	-10.9676
檢討	-10.9676
孝友	-10.9677
後以	-10.9679
車騎	-10.9679
稟	-10.9679
怡	-10.968
縣置	-10.9683
亦非	-10.9688
款	-10.969
賞賜	-10.9693
楞	-10.9694
刻石	-10.9695
鎖	-10.9697
翦	-10.9698
叔父	-10.9699
之右	-10.9699
▁論曰	-10.97
王元	-10.9701
繼之	-10.9704
以正	-10.9705
各二	-10.9708
煜	-10.9708
台州	-10.9709
司官	-10.971
▁蘇	-10.9712
料理	-10.9715
紿	-10.9716
安置	-10.9718
清江	-10.9718
仆	-10.9719
國子	-10.9721
蜀人	-10.9722
西平	-10.9722
安福	-10.9723
右翼	-10.9725
開寳	-10.9729
不測	-10.9729
曺	-10.973
歷	-10.9738
者各	-10.9738
之門	-10.9739
豪傑	-10.9745
華陽	-10.9746
聿	-10.9752
皇祐	-10.9755
府城	-10.9757
頸	-10.976
非常	-10.976
東北至	-10.9762
食邑	-10.9765
衛所	-10.9766
閎	-10.9767
鵠	-10.9767
其主	-10.9769
臨淮	-10.9769
本名	-10.977
紛紛	-10.9772
應之	-10.9773
有小	-10.9777
居住	-10.9782
公議	-10.9782
山上	-10.9783
▁欽定	-10.9783
魏書	-10.9783
今若	-10.9784
東魏	-10.9786
新建	-10.9788
有言	-10.9791
本無	-10.9796
非是	-10.9798
天意	-10.9799
北門	-10.9799
聚衆	-10.98
五寸	-10.98
非有	-10.98
廣漢	-10.9803
丗	-10.9804
在城南	-10.9804
三寸	-10.9807
叅軍	-10.981
何處	-10.9812
苞	-10.9815
安陸	-10.982
以事	-10.9821
答曰	-10.9821
▁薛	-10.9821
原係	-10.9823
九百	-10.9825
徃徃	-10.9828
渝	-10.9829
下獄	-10.9829
高麗	-10.9829
妻趙氏	-10.9829
東山	-10.9829
韓琦	-10.9831
隨時	-10.9837
相接	-10.9838
為王	-10.9839
兵攻	-10.9841
逆賊	-10.9848
慿	-10.9848
暖	-10.9848
天聖	-10.9852
萬安	-10.9856
帝紀	-10.9856
璜	-10.9859
等物	-10.9861
安帝	-10.9863
曰是	-10.9863
我兵	-10.9868
沽	-10.9869
旬日	-10.9876
感激	-10.9876
經營	-10.988
提刑	-10.9881
一朝	-10.9884
又何	-10.9886
興元	-10.9888
劄子	-10.9889
洙	-10.989
留心	-10.989
定制	-10.9891
在城	-10.9891
慷慨	-10.9893
撫臣	-10.9898
扈從	-10.9899
中大夫	-10.9899
一百七十	-10.99
應劭曰	-10.9903
徃來	-10.9904
乗輿	-10.9907
崑崙	-10.9908
功徳	-10.9908
嵐	-10.9911
群	-10.9912
紇	-10.9912
不納	-10.9913
而欲	-10.9913
一官	-10.9914
淮陽	-10.9917
字文	-10.9919
一部一冊	-10.9926
則其	-10.9926
復舊	-10.9928
差官	-10.9928
迥	-10.9934
顗	-10.9934
前有	-10.9937
其能	-10.9937
豈得	-10.9941
妻周氏	-10.9942
招討使	-10.9943
然也	-10.9943
北地	-10.9947
人事	-10.9948
二十人	-10.9953
嶷	-10.9953
之次	-10.9954
范仲淹	-10.9955
工部侍郎	-10.9957
朝貢	-10.9957
不取	-10.9959
以為然	-10.9962
寗	-10.9968
本朝康熙	-10.9972
百丈	-10.9977
之遂	-10.9983
安州	-10.9983
統軍	-10.9983
教習	-10.9984
新舊	-10.9987
參議	-10.9989
仁和	-10.999
西有	-10.9993
錦州	-10.9993
學宫	-10.9995
饒州	-10.9996
京兆尹	-10.9997
帥師	-10.9998
文昌	-11
有不	-11
宣撫	-11.0001
平縣	-11.0004
薦之	-11.0005
第十	-11.0007
奏報	-11.0011
建中	-11.0013
麾下	-11.0014
信之	-11.0015
不樂	-11.0018
糜	-11.0018
次日	-11.002
翳	-11.0028
四尺	-11.0029
寮	-11.0029
萬緡	-11.003
尚可	-11.003
淚	-11.0032
祀典	-11.0033
又置	-11.0036
淳祐	-11.0036
之舊	-11.0036
南郡	-11.0038
西門	-11.0043
雍正四年	-11.0045
凡三	-11.0046
以奉	-11.0047
府治	-11.005
覧	-11.0051
五丈	-11.0052
晉人	-11.0056
在前	-11.006
塊	-11.0066
陽侯	-11.0067
家莊	-11.0068
建徳	-11.0068
雖然	-11.0073
乃使	-11.0073
蚤	-11.0073
故有	-11.0076
懽	-11.0077
至徳	-11.0078
嗣位	-11.008
▁太宗	-11.008
於秦	-11.0082
丈夫	-11.0085
零陵	-11.0085
妻徐氏	-11.0087
珣	-11.0088
人馬	-11.0092
華亭	-11.0092
丈餘	-11.0095
涇陽	-11.0098
進爵	-11.0099
礙	-11.0103
疏言	-11.0105
輔政	-11.0106
典儀	-11.0111
覘	-11.0115
鄆	-11.0117
圩	-11.0118
多矣	-11.0123
緋	-11.0124
石頭	-11.0125
鄭氏	-11.0126
俄而	-11.0128
四名	-11.0132
㑹要	-11.0133
所云	-11.0134
以給	-11.0134
之辭	-11.0137
内官	-11.0139
所致	-11.0142
閏月	-11.0142
嘆曰	-11.0144
事有	-11.0148
一座	-11.0155
七品	-11.0162
元初	-11.0163
先君	-11.0164
摹	-11.0165
尤為	-11.0165
即古	-11.0169
東南至	-11.0176
敗走	-11.0178
簽	-11.0179
其徒	-11.0179
大厯	-11.0181
奔走	-11.0184
童子	-11.0185
棠	-11.0186
教化	-11.0189
殄	-11.0192
山隂	-11.0193
事件	-11.0198
何人	-11.0201
猥	-11.0211
劉向	-11.0211
至誠	-11.0211
元符	-11.0212
洮	-11.0215
金川	-11.0215
之長	-11.0217
而天下	-11.0217
斡	-11.0218
聖㫖	-11.0218
徳之	-11.0221
沙門	-11.0222
腐	-11.0222
王道	-11.0224
無過	-11.0225
龍潭	-11.0229
四曰	-11.023
何足	-11.0233
自立	-11.0237
今名	-11.0237
查得	-11.0241
一兩	-11.0241
交阯	-11.0242
朝政	-11.0242
安邑	-11.0245
以授	-11.0246
作樂	-11.0247
陽郡	-11.0248
襲封	-11.0248
▁蔣	-11.0252
甚厚	-11.0252
夷狄	-11.0254
其時	-11.0255
未易	-11.0255
莊宗	-11.0257
獨不	-11.0258
第六	-11.0259
進取	-11.026
事理	-11.0263
學官	-11.0263
槃	-11.0265
靈州	-11.0268
套	-11.027
艦	-11.027
山林	-11.0271
沿海	-11.0272
於今	-11.0273
修葺	-11.0273
四十六	-11.0275
自陳	-11.0275
叅將	-11.0277
如前	-11.0279
副都	-11.0279
從子	-11.0279
蓮花	-11.0279
則為	-11.0281
宗族	-11.0282
奉表	-11.0282
之田	-11.0283
誤也	-11.0284
文獻	-11.0286
人舉	-11.0286
於下	-11.029
訂	-11.0291
奏准	-11.0291
嬴	-11.0292
河南府	-11.0292
光禄	-11.0293
同列	-11.0295
詹事	-11.0297
者何	-11.0298
圖之	-11.0299
秋八月	-11.0302
擲	-11.0303
奈	-11.0305
欲令	-11.031
來屬	-11.031
廣徳	-11.0311
而西	-11.0311
正白旗	-11.0312
紆	-11.0315
宣城	-11.0317
甚矣	-11.0317
諸軍事	-11.0317
犒	-11.0322
改封	-11.0323
譖	-11.0323
屬之	-11.0326
僊	-11.0327
鞅	-11.0327
東北流	-11.033
一夕	-11.0332
䘚	-11.0338
紘	-11.0338
莘	-11.0338
又於	-11.034
莅	-11.0342
中建	-11.0342
璞	-11.0343
曲沃	-11.0345
雩	-11.0346
先聖	-11.0347
穰	-11.0348
拊	-11.0348
有詔	-11.0352
委署	-11.0355
駮	-11.0355
宣武	-11.0357
民有	-11.0357
陵寢	-11.036
合於	-11.0361
剡	-11.0362
衆心	-11.0362
所由	-11.0362
西川	-11.0366
額外	-11.0367
斟酌	-11.037
▁后	-11.037
州牧	-11.0372
府事	-11.0373
牖	-11.0373
法司	-11.0374
二寸	-11.0375
流至	-11.0376
爼	-11.0377
和尚	-11.0379
又按	-11.0388
米價	-11.0394
江左	-11.0394
河自	-11.0396
籩	-11.0396
廣南	-11.0397
百二十	-11.0398
人世居	-11.04
斫	-11.0401
之責	-11.0402
戰死	-11.0403
南城	-11.0406
圮	-11.0408
府學	-11.0411
祖宗之	-11.0411
之左	-11.0412
褐	-11.0415
帶領	-11.042
儆	-11.0422
晁	-11.0428
故城在	-11.0429
人臣	-11.0429
集十卷	-11.0431
即令	-11.0432
臥	-11.0432
自當	-11.0433
詡	-11.0436
車馬	-11.0437
為患	-11.0437
靖康	-11.0438
東川	-11.0441
太倉	-11.0442
頥	-11.0443
善惡	-11.0444
砂	-11.0444
戯	-11.0452
兩路	-11.0452
寰	-11.0454
和議	-11.0455
名為	-11.0456
都䕶	-11.0457
之險	-11.0459
漢唐	-11.0459
鈐	-11.0459
箱	-11.046
夫婦	-11.0461
常以	-11.0461
重之	-11.0462
唐虞	-11.0462
閒散	-11.0464
石室	-11.0464
神位	-11.0472
餘杭	-11.0473
支給	-11.0475
河源	-11.0477
▁吕	-11.0477
近者	-11.0478
喇嘛	-11.048
兼管	-11.048
竦	-11.0483
􁀙	-11.0483
分守	-11.0491
猝	-11.0491
六日	-11.0493
登歌	-11.0493
辭曰	-11.0493
陜州	-11.0495
吝	-11.0495
議處	-11.0497
沼	-11.0499
郎官	-11.0499
岷	-11.0503
本色	-11.0507
后稷	-11.0507
卭	-11.0507
從官	-11.0507
京官	-11.0507
討賊	-11.051
邊事	-11.051
莊公	-11.051
閹	-11.0511
昊	-11.0512
涕	-11.0514
▁六年	-11.0515
金史	-11.0519
刑罰	-11.0521
獠	-11.0524
入内	-11.0526
幢	-11.0527
不息	-11.0527
之矣	-11.0531
左翼	-11.0533
巽	-11.0539
著書	-11.0541
宣撫司	-11.0542
各州縣	-11.0543
則必	-11.0543
旄	-11.0543
宣德	-11.0543
夘	-11.0544
唐主	-11.0544
上官	-11.0547
瀾	-11.0552
郵	-11.0553
為我	-11.0554
從其	-11.0555
浄	-11.0555
名山	-11.0557
轡	-11.0558
覿	-11.0559
徐廣曰	-11.0559
職方	-11.0561
汀	-11.0562
二年正月	-11.0562
財賦	-11.0563
蕪	-11.0563
蝕	-11.0564
樞密	-11.0564
六十四	-11.0566
安仁	-11.0566
兵民	-11.0573
吳興	-11.0573
平日	-11.0575
之權	-11.0576
設立	-11.0578
又奏	-11.0579
寧州	-11.058
事見	-11.0585
裒	-11.0587
河朔	-11.0587
退而	-11.0587
舟師	-11.0588
患之	-11.0589
蛟	-11.059
等奏	-11.0593
一千五百	-11.0594
曰王	-11.0595
儀仗	-11.0598
惟是	-11.0601
四書	-11.0601
七八	-11.0601
景祐	-11.0603
伊犂	-11.0608
河工	-11.0609
之勞	-11.0611
六七	-11.0615
諸書	-11.0615
修理	-11.0616
為君	-11.0618
駟	-11.0618
哥	-11.0619
乾隆三十	-11.062
宜令	-11.0621
圻	-11.0622
遣其	-11.0622
宣慰司	-11.0626
朔望	-11.063
右丞相	-11.0631
畤	-11.0632
子女	-11.0632
后土	-11.0633
也昔	-11.0633
不治	-11.0633
而反	-11.0635
有成	-11.0635
起程	-11.064
年二月	-11.0646
閼	-11.0647
有道	-11.065
年正月	-11.0652
年二十	-11.0652
有四	-11.0656
諸山	-11.0656
迅	-11.0658
𤣥宗	-11.0659
内臣	-11.066
人順治	-11.0662
▁傅	-11.0665
既已	-11.0667
夏六月	-11.0668
檻	-11.0671
二尺	-11.0675
淂	-11.0679
盍	-11.0679
今日之	-11.0683
家屬	-11.0684
從弟	-11.0685
都指揮	-11.0686
畋	-11.0686
祫	-11.0687
骨肉	-11.0688
其水	-11.0688
泰州	-11.0688
所向	-11.069
建元	-11.0695
烹	-11.0695
▁五年	-11.0697
出自	-11.0697
北路	-11.0698
少師	-11.07
不悦	-11.07
又不	-11.0702
下同	-11.0704
殿上	-11.0705
疾苦	-11.0707
兩岸	-11.0708
元年正月	-11.0708
治道	-11.0709
沛公	-11.0709
應行	-11.071
稽古	-11.0711
命婦	-11.0714
肖	-11.0717
不願	-11.0718
廟在	-11.0719
其日	-11.072
三百六十	-11.0721
隳	-11.0723
置於	-11.0724
不能自	-11.0729
覺羅	-11.073
可考	-11.0731
千戸	-11.0736
然其	-11.0745
除之	-11.0747
温州	-11.0748
忝	-11.0752
惲	-11.0752
補曰	-11.0756
自言	-11.0759
破賊	-11.0762
受禪	-11.0763
今嵗	-11.0764
吐谷渾	-11.0764
夜半	-11.0767
輜重	-11.0767
蔓	-11.0767
與夫	-11.0768
瓶	-11.0768
千古	-11.0769
奮勇	-11.077
目前	-11.0771
貺	-11.0772
甃	-11.0773
柱國	-11.0774
礪	-11.0775
剽	-11.0775
餽	-11.0777
頗有	-11.0777
海州	-11.0778
兔	-11.078
後宫	-11.0781
代州	-11.0783
撲	-11.0785
道之	-11.0788
其故	-11.0789
銖	-11.079
貴賤	-11.0791
楚人	-11.0791
其年	-11.0794
禆	-11.0803
郡邑	-11.0804
出戰	-11.0809
少年	-11.0809
長洲	-11.0809
少有	-11.081
朝臣	-11.0811
賜以	-11.0811
五十六	-11.0814
總領	-11.0814
俱係	-11.0815
藍田	-11.0815
主上	-11.0816
四十四	-11.0818
人犯	-11.0818
秦之	-11.0818
壕	-11.0821
郯	-11.0821
稽察	-11.0823
所築	-11.0825
扞	-11.0825
陛下之	-11.0827
以上俱	-11.0828
上柱國	-11.0829
欲乞	-11.083
恢復	-11.083
學問	-11.0832
鵲	-11.0833
㪚	-11.0833
朔日有食之	-11.0834
醢	-11.0835
甲兵	-11.0837
移駐	-11.0838
沙河	-11.0841
黄門侍郎	-11.0843
處之	-11.0843
時政	-11.0843
書云	-11.0843
青山	-11.0844
經術	-11.0845
彧	-11.0845
所敗	-11.0846
南門	-11.0846
鑲紅旗	-11.085
特賜	-11.0851
朕心	-11.0852
湮	-11.0855
長洲人	-11.0856
真人	-11.0857
恐其	-11.0858
揣	-11.0858
故不	-11.0859
嵗時	-11.0859
縣官	-11.0863
本官	-11.0864
延綏	-11.0865
故能	-11.0868
萬民	-11.0869
顆	-11.087
其道	-11.087
婺	-11.0871
又設	-11.0871
來者	-11.0872
機宜	-11.0872
乃令	-11.0872
槖	-11.0874
者如	-11.0875
脂	-11.0876
三四	-11.0877
事不	-11.0879
燮	-11.0882
者惟	-11.0883
不給	-11.0883
終始	-11.0884
鄖	-11.0884
(○	-11.0887
漢武帝	-11.0887
汾州	-11.0887
瑀	-11.0889
折色	-11.0891
儒者	-11.0892
贑	-11.0893
有天下	-11.0894
題準	-11.0894
置酒	-11.0896
辛夘	-11.0896
宫人	-11.0896
設法	-11.0897
之體	-11.0899
長公主	-11.0899
青龍	-11.09
一石	-11.09
存亡	-11.0902
瞽	-11.0903
▁余	-11.0903
保安	-11.0904
有常	-11.0908
各置	-11.0908
桃源	-11.091
㑹試	-11.0911
不須	-11.0915
慟	-11.0918
事聞	-11.0918
穹	-11.0918
而北	-11.0922
神仙	-11.0923
皆可	-11.0925
驃騎	-11.0925
盡力	-11.0925
幫	-11.0928
九人	-11.0928
孫權	-11.0928
數里	-11.093
建隆	-11.0933
不立	-11.0934
又改	-11.0937
配享	-11.0937
一千二百	-11.094
叠	-11.094
有疾	-11.0942
蔬	-11.0943
萬全	-11.0945
頭目	-11.095
猶存	-11.0952
吉凶	-11.0952
鄧州	-11.0953
天門	-11.0956
啼	-11.0957
正紅旗	-11.0957
拾遺	-11.0958
四十七	-11.0958
以謂	-11.0961
故其	-11.0963
以時	-11.0964
儀禮	-11.0964
管勾	-11.0967
至矣	-11.0968
統制	-11.0969
餘皆	-11.0969
紏	-11.0969
藪	-11.0969
暹	-11.097
每月	-11.0972
稠	-11.0973
榻	-11.0974
萬兩	-11.0974
漢志	-11.0977
從而	-11.0977
鬚	-11.0977
祜	-11.0984
吿	-11.0986
諜	-11.0987
以實	-11.0989
之員	-11.0989
三路	-11.099
蒐	-11.099
坂	-11.0993
外戚	-11.0993
墊	-11.0993
各該	-11.0994
並為	-11.0994
今改	-11.0994
章句	-11.0994
不聴	-11.0995
之宜	-11.0995
四十三	-11.0997
使副	-11.0998
人數	-11.0999
前此	-11.1001
民心	-11.1001
逐一	-11.1002
幡	-11.1002
功曹	-11.1004
碑記	-11.1005
諸處	-11.1007
▁硃批	-11.1015
諫議大夫	-11.1017
每日	-11.1018
四字	-11.1025
鉅鹿	-11.1026
年少	-11.1026
怙	-11.1027
該管	-11.1027
延州	-11.1028
䕶衛	-11.1028
則又	-11.1028
死而	-11.103
州團練使	-11.1031
睿宗	-11.1037
後復	-11.1043
天竺	-11.1043
僥倖	-11.1044
萬嵗	-11.1044
張儀	-11.1045
補授	-11.1046
班師	-11.1046
就近	-11.1047
不平	-11.1052
軒轅	-11.1054
以身	-11.1055
無為	-11.1055
經制	-11.1056
事體	-11.1056
未定	-11.1057
西北至	-11.1058
欲使	-11.1058
伯克	-11.1058
不逺	-11.1058
以救	-11.1065
夥	-11.1065
慝	-11.1065
待罪	-11.1065
在州東	-11.1065
以西	-11.1066
慨然	-11.1067
乍	-11.1067
世傳	-11.1067
堅守	-11.1069
黼	-11.1069
後唐	-11.1072
尖	-11.1073
永和	-11.1073
川縣	-11.1073
彞	-11.1073
悞	-11.1076
奐	-11.1077
殺傷	-11.1078
昔者	-11.1081
休息	-11.1081
悉心	-11.1082
青海	-11.1082
矣又	-11.1082
賓客	-11.1086
漢置	-11.1086
首尾	-11.1092
本府	-11.1094
咸淳	-11.1099
隆興	-11.1102
列於	-11.1103
騎射	-11.1103
無常	-11.1104
相連	-11.1106
甘露	-11.1109
乃詔	-11.1111
識者	-11.1113
升為	-11.1117
仍以	-11.1118
異同	-11.1119
踰年	-11.1121
楚子	-11.1121
交與	-11.1122
▁天恩	-11.1124
春夏	-11.1124
明皇	-11.113
山人	-11.1136
餘黨	-11.1136
萬夀	-11.1138
此地	-11.1139
無疑	-11.1139
舟楫	-11.1139
晃	-11.1141
怒曰	-11.1141
收其	-11.1143
貝子	-11.1143
衡山	-11.1143
兩月	-11.1144
煮	-11.1145
討平之	-11.1145
官制	-11.1145
各一員	-11.1145
伊尹	-11.1147
直學士	-11.1149
縂	-11.1149
明道	-11.1151
床	-11.1153
宫殿	-11.1155
羨	-11.1155
明一統志	-11.1157
相率	-11.116
企	-11.1162
涖	-11.1162
雨水	-11.1163
舛	-11.1165
巴陵	-11.1165
輔國公	-11.1166
何謂	-11.1167
凉州	-11.1169
康熙五十	-11.1172
入為	-11.1174
禋	-11.1176
而行之	-11.1177
孔氏	-11.1177
所聞	-11.1181
東郡	-11.1183
妻朱氏	-11.1184
如常儀	-11.1184
内大臣	-11.1184
右軍	-11.1185
之㑹	-11.1188
用其	-11.1188
逃亡	-11.119
改建	-11.1195
後改	-11.1198
廢縣	-11.1198
携	-11.12
各以	-11.1201
州西	-11.1202
實有	-11.1203
嚴加	-11.1205
射之	-11.1207
皎	-11.1208
追至	-11.1209
貂	-11.1211
䜟	-11.1213
餌	-11.1213
口糧	-11.1217
天寶	-11.1219
慤	-11.1221
態	-11.1221
翌日	-11.1233
在州西	-11.1234
明矣	-11.1235
長孫	-11.1236
功名	-11.1237
諡忠	-11.1237
俶	-11.1238
石橋	-11.1238
疑之	-11.1242
康王	-11.1242
聖意	-11.1243
所知	-11.1244
在府	-11.1248
嘯	-11.1249
無故	-11.1251
雍正八年	-11.1254
為丞相	-11.1254
軍校	-11.1256
景徳	-11.1258
官民	-11.1258
三十二年	-11.1258
三名	-11.1258
馮翊	-11.1258
之賢	-11.1261
烏珠	-11.1262
伽	-11.1263
屑	-11.1268
請降	-11.1271
趙鼎	-11.1274
笏	-11.1274
手詔	-11.1277
嘉禾	-11.1279
違者	-11.1279
水中	-11.1282
親屬	-11.1283
下邳	-11.1284
額爾	-11.1287
禍福	-11.1288
語曰	-11.129
人言	-11.1291
滴	-11.1294
千石	-11.1294
一百一十	-11.1296
百僚	-11.1298
定議	-11.13
於内	-11.1301
隰	-11.1301
武安	-11.1302
一子	-11.1306
狎	-11.1306
疫	-11.1309
吉林	-11.1312
題名	-11.1314
埃	-11.1314
學生	-11.1314
澳	-11.1315
楨	-11.1315
軍政	-11.1318
兎	-11.1319
凋	-11.1319
梨	-11.1319
愬	-11.1324
樂章	-11.1326
下令	-11.1328
軍國	-11.1329
一一	-11.1332
今已	-11.1332
言語	-11.1333
其門	-11.1334
㐮	-11.1334
餘衆	-11.1334
▁撫	-11.1336
▁尚書	-11.1337
頃之	-11.134
將相	-11.134
詩賦	-11.1343
髙郵	-11.1348
北山	-11.1349
剋	-11.1349
矣其	-11.1351
磚	-11.1354
有能	-11.1354
倉庫	-11.1356
壹拾	-11.136
舶	-11.1361
三間	-11.1362
三十五年	-11.1362
其首	-11.1364
無私	-11.1366
誇	-11.1367
鄭州	-11.1367
始置	-11.1368
扁	-11.1368
縦	-11.1371
縳	-11.1375
▁京	-11.1377
橫	-11.138
鹽課	-11.138
時年	-11.1381
之遺	-11.1381
何故	-11.1383
遵行	-11.1383
夏秋	-11.1383
訓練	-11.1384
望風	-11.1385
乘輿	-11.1389
其兄	-11.1395
在府治	-11.1395
而不可	-11.1396
當是	-11.1397
十巻	-11.1398
上意	-11.1398
定國	-11.1401
及第	-11.1401
以明	-11.1402
猾	-11.1403
定逺	-11.1404
五百里	-11.1405
天理	-11.1406
五名	-11.1406
非其	-11.1408
尚書左僕射	-11.1408
差役	-11.1412
大如	-11.1412
𢎞農	-11.1413
之舞	-11.1414
來京	-11.1418
哈薩克	-11.1418
匣	-11.1419
鴈門	-11.142
主管	-11.142
出奔	-11.1422
沸	-11.1422
▁七年	-11.1423
城西南	-11.1425
國家之	-11.1425
水患	-11.1427
又東逕	-11.1429
九域志	-11.143
盛徳	-11.1431
諸侯之	-11.1432
初以	-11.1435
沆	-11.1435
四寸	-11.1439
更有	-11.1439
海道	-11.1439
去後	-11.144
明統志	-11.144
昴	-11.144
其制	-11.1443
聖朝	-11.1445
濛	-11.1445
猿	-11.1445
東有	-11.1448
自知	-11.1449
以東	-11.1451
先期	-11.1456
纒	-11.1458
▁十年	-11.1461
聖心	-11.1461
丁夘	-11.1462
忠信	-11.1466
縱横	-11.1466
先主	-11.1468
穆宗	-11.1468
有過	-11.147
列侯	-11.1472
鄭伯	-11.1473
諭㫖	-11.1474
嫉	-11.1475
禁軍	-11.148
祖父	-11.148
尚書左丞	-11.1482
所執	-11.1483
前進	-11.1483
海中	-11.1483
犯法	-11.1483
宣化	-11.1484
漿	-11.1484
千五百	-11.1485
存留	-11.1486
日久	-11.1487
五十四	-11.1492
自行	-11.1493
在内	-11.1493
▁秋	-11.1497
槽	-11.1497
相公	-11.1498
順天府	-11.1498
伏兵	-11.15
六釐	-11.1505
前項	-11.1506
人由進士	-11.1506
大驚	-11.1506
摭	-11.151
晷	-11.151
譲	-11.151
隋書	-11.151
乙夘	-11.1515
果有	-11.1516
家居	-11.1517
里許	-11.1517
於東	-11.1518
勤勞	-11.1518
寧逺	-11.152
承制	-11.152
昬	-11.1523
不去	-11.1525
而民	-11.1526
未足	-11.1526
貎	-11.1528
論之	-11.153
簷	-11.1532
托克托	-11.1532
新興	-11.1533
成公	-11.1534
盎	-11.1535
察罕	-11.1539
起於	-11.154
顏	-11.1541
若夫	-11.1541
臨安府	-11.1542
訾	-11.1545
百世	-11.1548
素服	-11.1548
今為	-11.1548
本作	-11.1548
之境	-11.1549
此亦	-11.1549
慚	-11.1554
奭	-11.1555
士庶	-11.1557
璣	-11.1557
淮東	-11.1557
匯	-11.1558
而寡	-11.1561
字叔	-11.1563
羣官	-11.1564
惶	-11.1564
澤州	-11.1565
猪	-11.1567
乾坤	-11.1568
或作	-11.1575
諸葛亮	-11.1578
三十萬	-11.1578
而用之	-11.1579
之流	-11.1579
黯	-11.158
不拘	-11.158
埒	-11.1585
犇	-11.1585
數千里	-11.1589
煎	-11.1589
月餘	-11.159
和州	-11.1591
▁鄧	-11.1595
西南至	-11.1595
河州	-11.16
剰	-11.1602
闌	-11.1602
黜陟	-11.1604
王國	-11.1605
四州	-11.1606
居中	-11.1606
澧	-11.1607
▁敢	-11.1607
生擒	-11.1609
授之	-11.161
兩河	-11.1613
嘉其	-11.1615
内務府	-11.1615
朝㑹	-11.1617
尊號	-11.1617
相承	-11.1619
獻公	-11.162
彤	-11.162
頓首	-11.1623
未完	-11.1625
渭南	-11.1627
寐	-11.1629
足矣	-11.1632
二百八十	-11.1633
也陛下	-11.1634
梁山	-11.1635
安東	-11.1635
夏至	-11.1636
並不	-11.1637
太行	-11.1637
江湖	-11.1639
餘人	-11.1642
暈	-11.1642
仍照	-11.1643
不允	-11.1645
此山	-11.1648
無錫人	-11.1648
兩五錢	-11.1651
數十年	-11.1654
八名	-11.1656
人萬厯	-11.1657
正義	-11.1658
地也	-11.1659
聯	-11.166
㑹議	-11.1661
向來	-11.1662
珂	-11.1664
剔	-11.1664
數百里	-11.1666
科舉	-11.1668
淇	-11.1669
中郎	-11.1669
十五卷	-11.167
而生	-11.1672
楮	-11.1673
陕西	-11.1673
栽	-11.1673
王命	-11.1674
江縣	-11.1675
㤙	-11.1678
聖王	-11.168
絳州	-11.1681
庄	-11.1681
游牧	-11.1682
準噶爾	-11.1682
赴闕	-11.1683
猜	-11.1686
兵備	-11.1688
叨	-11.1691
其可	-11.1693
副之	-11.1695
莖	-11.1699
▁戴	-11.1705
㳂	-11.1709
磯	-11.1709
曰善	-11.1709
于朝	-11.1712
新河	-11.1712
矣此	-11.1713
改置	-11.1714
以書	-11.1714
無知	-11.1717
夀春	-11.1722
倉卒	-11.1722
中使	-11.1722
召對	-11.1724
會同	-11.1725
𣺌	-11.1727
𬒳	-11.1727
閫	-11.1728
民人	-11.173
擇其	-11.173
觀察	-11.173
哈達	-11.173
追贈	-11.1731
留之	-11.1731
舁	-11.1731
二十日	-11.1731
拏獲	-11.1732
先行	-11.1733
車騎將軍	-11.1735
▁四年	-11.1736
之治	-11.1736
建寧	-11.1737
百司	-11.1737
除名	-11.1738
五十八	-11.174
罄	-11.174
詩文	-11.1745
虗	-11.1745
科道	-11.1747
方畧	-11.1748
臣所	-11.1751
以應	-11.1753
學正	-11.1759
一百九十	-11.176
事皆	-11.176
馨	-11.1761
之象	-11.1762
傭	-11.1763
潼闗	-11.1764
韓信	-11.1764
州東	-11.1765
被害	-11.1768
神位前	-11.1769
義理	-11.177
建立	-11.1773
蘄	-11.1774
故地	-11.1775
陞任	-11.1778
李綱	-11.1779
六軍	-11.1781
涕泣	-11.1781
無考	-11.1782
狩	-11.1783
起復	-11.1783
常熟	-11.1785
城東南	-11.1789
桞	-11.1794
多方	-11.1797
栖	-11.1799
等各	-11.1799
此二	-11.18
人知	-11.1802
考功	-11.1805
祭之	-11.1806
處所	-11.1808
不可復	-11.181
提舉司	-11.181
盾	-11.181
浮梁	-11.181
譬	-11.1811
至京	-11.1812
鄞	-11.1812
無虞	-11.1813
上命	-11.1813
氏之	-11.1817
年四月	-11.1817
張掖	-11.1821
偵	-11.1821
在焉	-11.1821
為三	-11.1821
考其	-11.1822
送之	-11.1823
部郎中	-11.1823
侍臣	-11.1825
位于	-11.1825
謐	-11.1829
敢言	-11.183
亦何	-11.1832
撫孤	-11.1832
規模	-11.1834
恩澤	-11.1839
魄	-11.1839
盱眙	-11.1839
於齊	-11.1841
揀	-11.1841
梓宫	-11.1841
復遣	-11.1841
十餘丈	-11.1842
一貫	-11.1842
充軍	-11.1843
鈴	-11.1844
先登	-11.1845
為本	-11.1846
前導	-11.1847
峩	-11.1847
磨勘	-11.1851
並同	-11.1853
事而	-11.1853
羈	-11.1853
行幸	-11.1853
唐太宗	-11.1853
禮成	-11.1854
饑民	-11.1855
▁彭	-11.1856
一應	-11.1856
釘	-11.1857
將以	-11.186
百家	-11.1861
天心	-11.1862
至公	-11.1863
逄	-11.1867
積石	-11.1867
逺矣	-11.1868
汝州	-11.1871
琿	-11.1871
未發	-11.1872
不可得	-11.1872
歴年	-11.1873
秦始皇	-11.1874
四十餘	-11.1876
吳郡	-11.1877
軍需	-11.1878
當有	-11.1879
歴官	-11.1879
出征	-11.1883
品級	-11.1886
鎔	-11.1889
責成	-11.189
之性	-11.1891
-	-11.1894
鴨	-11.1894
文明	-11.1894
河上	-11.1895
三子	-11.1897
後又	-11.1898
在城北	-11.1899
司農	-11.1902
股肱	-11.1903
疑其	-11.1905
無名	-11.1906
蕪湖	-11.1906
魏晉	-11.1906
豫州刺史	-11.1906
給之	-11.1909
州廢	-11.1911
陌	-11.1912
五十七	-11.1913
其害	-11.1913
姦邪	-11.1913
萬騎	-11.1914
隴右	-11.1915
疾病	-11.1916
令尹	-11.1917
延夀	-11.1921
按察司	-11.1921
緞	-11.1921
圖經	-11.1923
昆弟	-11.1924
贇	-11.1926
視其	-11.1927
以行	-11.193
各營	-11.193
蓬萊	-11.1931
沿途	-11.1932
稱臣	-11.1932
▁八年	-11.1932
運道	-11.1933
腦	-11.1935
不仕	-11.1935
之私	-11.1937
今陛下	-11.1939
經過	-11.1942
以罪	-11.1942
餓	-11.1944
▁謹案	-11.1945
歩軍	-11.1945
八日	-11.1946
酋長	-11.1948
榛	-11.1949
雍正九年	-11.195
梁州	-11.1951
覆奏	-11.1955
▁廷	-11.1956
㕘領	-11.1958
許州	-11.1959
天成	-11.196
聞奏	-11.1963
康熙三十	-11.1966
徭	-11.1967
芙蓉	-11.1967
一處	-11.1969
即是	-11.1969
自應	-11.1971
精神	-11.1974
入冦	-11.1976
伐齊	-11.1976
遼史	-11.1978
陳州	-11.1979
上司	-11.1979
三十六年	-11.1981
提㸃刑獄	-11.1985
有益	-11.1986
越州	-11.1987
之㫖	-11.1992
始得	-11.2
擊賊	-11.2004
紀年	-11.2004
既有	-11.2005
三江	-11.2009
以南	-11.2011
鉢	-11.2013
鏞	-11.2013
水合	-11.2013
奏準	-11.2015
運糧	-11.2017
四十一	-11.2022
非所	-11.2024
獻官	-11.2025
蘿	-11.2027
營田	-11.2028
夏國	-11.2028
▁太廟	-11.2029
道徳	-11.2031
耽	-11.2031
六萬	-11.2036
相持	-11.204
水軍	-11.204
太常少卿	-11.2042
五釐	-11.2043
磁	-11.2043
申明	-11.2046
藏之	-11.2046
隋志	-11.2048
柘	-11.2052
年十月	-11.2055
武后	-11.2056
七寸	-11.2057
小國	-11.2059
至則	-11.2059
髙陽	-11.2059
化為	-11.2059
亦自	-11.206
遂至	-11.2061
推恩	-11.2063
潭州	-11.2063
水西	-11.2065
千户所	-11.2067
新法	-11.2068
兵法	-11.2072
交通	-11.2072
人監生	-11.2073
價銀	-11.2073
牓	-11.2073
撫按	-11.2074
廢帝	-11.2075
叅議	-11.2075
僧道	-11.2076
無道	-11.2079
海上	-11.2079
達爾	-11.208
跳	-11.2082
衢州	-11.2083
月令	-11.2084
曰某	-11.2086
乃復	-11.2089
以禦	-11.209
既不	-11.209
冥	-11.2091
天啓	-11.2092
代宗	-11.2095
流經	-11.2095
去其	-11.2095
稽首	-11.2096
城東北	-11.2096
以故	-11.2096
富平	-11.2098
封爵	-11.2099
馥	-11.2101
福康安	-11.2101
取士	-11.2101
行軍	-11.2104
一例	-11.2106
皆由	-11.2107
中道	-11.2109
重行	-11.2111
知人	-11.2112
少傅	-11.2114
自相	-11.2114
晞	-11.2115
寳應	-11.2115
眺	-11.2119
皆是	-11.2121
如舊	-11.2123
成都府	-11.2124
歐陽修	-11.2126
不稱	-11.2126
者雖	-11.2127
大成	-11.2128
不逮	-11.2128
五十五	-11.2128
乾隆四十	-11.2129
春三月	-11.2131
禮之	-11.2132
楫	-11.2132
徂	-11.2133
帝時	-11.2134
於道	-11.2136
様	-11.2137
淮水	-11.2137
岳州	-11.2139
南詔	-11.214
於斯	-11.2141
則曰	-11.2142
亦為	-11.2143
又謂	-11.2145
言也	-11.2145
兩京	-11.2145
年八月	-11.2147
見而	-11.2148
子産	-11.2149
江山	-11.2149
羗	-11.2152
人夫	-11.2152
洪範	-11.2154
外委	-11.2154
諸人	-11.2155
顓	-11.2156
萬二千	-11.2162
上京	-11.2163
曄	-11.2164
若以	-11.2164
臣子	-11.2165
蟬	-11.2166
皆出	-11.2167
之年	-11.2167
以避	-11.2167
𦂳	-11.2168
年七十	-11.2171
上章	-11.2172
科給事中	-11.2175
悉以	-11.2177
豳	-11.218
國有	-11.2183
愔	-11.2185
菊	-11.2185
助教	-11.2187
禮也	-11.2187
石塘	-11.2187
上疏曰	-11.2188
天禧	-11.2193
過於	-11.2194
隄防	-11.2194
准其	-11.2194
江口	-11.2195
星出	-11.2197
峴	-11.2197
衛尉	-11.2197
燕京	-11.2198
左丞相	-11.2202
正中	-11.2203
以金	-11.2204
印綬	-11.2205
綱紀	-11.2205
一毫	-11.2206
女真	-11.221
昌平	-11.221
召之	-11.2212
水口	-11.2213
用心	-11.2214
惟恐	-11.2215
明史	-11.2215
滅之	-11.2215
今欲	-11.2219
▁旌表	-11.222
文曰	-11.222
浹	-11.2221
餘姚	-11.2222
督臣	-11.2225
嶂	-11.2227
吏治	-11.2228
遣將	-11.2229
民多	-11.2229
告之	-11.2233
徵銀	-11.2235
卒其子	-11.2235
上供	-11.2236
磧	-11.2236
輔國	-11.2238
窪	-11.2241
事實	-11.2246
前去	-11.2248
南宫	-11.2249
大司農	-11.225
綦	-11.225
樂平	-11.225
公羊	-11.2252
刑名	-11.2254
斬獲	-11.2254
儔	-11.2255
又與	-11.2256
所據	-11.2258
書法	-11.226
中知	-11.2261
入覲	-11.2262
服其	-11.2264
之狀	-11.2265
必無	-11.2265
武德	-11.2265
七卷	-11.2266
臨洮	-11.2266
昭宗	-11.2267
朝野	-11.2267
襄城	-11.2267
謡	-11.2268
塋	-11.2269
荆湖	-11.2276
武威	-11.2276
元至元	-11.2276
入江	-11.2277
虎賁	-11.2278
袒	-11.2278
入境	-11.2278
澆	-11.2279
執中	-11.2279
議奏	-11.2282
埠	-11.2283
年七月	-11.2286
分數	-11.2288
▁洪	-11.2291
八九	-11.2292
杖一百	-11.2292
等謹案	-11.2293
趾	-11.2293
與民	-11.2294
蹤	-11.2297
皆如	-11.2298
以圖	-11.23
帥衆	-11.2302
▁駕	-11.2305
通考	-11.2307
▁本朝	-11.2309
若水	-11.2311
何敢	-11.2313
南巡	-11.2315
所以為	-11.2316
摇	-11.2317
𥙷	-11.232
擕	-11.2321
蒼梧	-11.2322
海寧	-11.2323
諳	-11.2325
人間	-11.2325
開墾	-11.2325
蜜	-11.2326
聽其	-11.2327
稍有	-11.2328
不知何	-11.2331
存者	-11.2332
澶州	-11.2332
洪州	-11.2332
岳飛	-11.2333
一身	-11.2334
地形	-11.2334
曰彼	-11.2334
之先	-11.2334
成之	-11.2335
殂	-11.2336
所轄	-11.2336
克用	-11.2337
明經	-11.2337
▁諭曰	-11.2339
差人	-11.2342
為善	-11.2344
江隂	-11.2344
贏	-11.2344
第七	-11.2345
郊廟	-11.2346
示之	-11.2347
望見	-11.235
右正言	-11.2352
三嵗	-11.2353
慶州	-11.2353
狀如	-11.2353
糓	-11.2355
兵於	-11.2355
言路	-11.2356
赤道	-11.2357
其不	-11.2358
彦博	-11.2359
䧏	-11.2359
諸君	-11.2359
者十	-11.236
與人	-11.2361
先賢	-11.2364
額駙	-11.2365
四五	-11.2366
吉水	-11.2367
荆州刺史	-11.2368
縀	-11.2369
奉迎	-11.2369
漁陽	-11.2369
注見漢	-11.237
正書	-11.237
陡	-11.2374
龜兹	-11.2374
使君	-11.2374
所置	-11.2375
巡司	-11.2376
二百二十	-11.2377
舊傳	-11.2377
延年	-11.2377
固有	-11.238
五十九	-11.238
始有	-11.238
大舉	-11.2383
冠帶	-11.2386
之敗	-11.2386
庶㡬	-11.2387
兌	-11.2388
干戈	-11.2389
潢	-11.2389
其辭	-11.239
宿州	-11.2391
武都	-11.2391
以充	-11.2392
附郭	-11.2392
餅	-11.2393
敗績	-11.2394
貳拾	-11.2395
泰定	-11.2395
三千人	-11.2399
獲其	-11.2399
之誠	-11.2401
壯士	-11.2404
肝	-11.2407
山麓	-11.2408
委之	-11.2409
嘉靖中	-11.241
校書郎	-11.2411
崑山人	-11.2411
開門	-11.2412
伏見	-11.2413
亦皆	-11.2413
鄆州	-11.2415
著有	-11.2415
雖欲	-11.2416
周圍	-11.2416
碣	-11.2417
七十五	-11.2417
故云	-11.2419
多士	-11.2419
北伐	-11.242
髙平	-11.2421
〕〔	-11.2422
應用	-11.2422
建州	-11.2423
嘗以	-11.2424
傳諭	-11.2425
者無	-11.2426
訐	-11.2426
官及	-11.2426
閑散	-11.2426
侔	-11.2426
等路	-11.2427
五十年	-11.2427
而求	-11.2428
後來	-11.2429
功封	-11.243
文徳	-11.2431
一門	-11.2432
當考	-11.2432
觀望	-11.2432
刑部侍郎	-11.2436
萬三千	-11.2439
我軍	-11.244
籥	-11.2441
市易	-11.2441
盡忠	-11.2441
如常	-11.2441
長春	-11.2444
彗	-11.2444
江上	-11.2449
軼	-11.2449
宋時	-11.245
前期	-11.2452
者甚衆	-11.2455
寤	-11.2455
癸夘	-11.2455
溪水	-11.2456
南渡	-11.2456
免官	-11.2456
之禁	-11.246
賢良	-11.246
逐之	-11.246
一縣	-11.246
讞	-11.2461
▁聖恩	-11.2461
宣府	-11.2462
則天	-11.2464
轂	-11.2464
權知	-11.2464
以北	-11.2466
艮	-11.247
集賢	-11.2473
也於是	-11.2474
咸通	-11.2474
䜛	-11.2474
秋九月	-11.2476
亦多	-11.2477
善之	-11.2478
庶吉士	-11.2479
丐	-11.2479
盂	-11.2479
王珪	-11.248
江蘇	-11.248
君子之	-11.2481
議曰	-11.2482
㟁	-11.2484
㑹昌	-11.2485
清明	-11.2485
政令	-11.2488
學政	-11.2491
富弼	-11.2492
所不	-11.2492
嘗有	-11.2496
上年	-11.2498
靄	-11.2498
前一日	-11.25
侍御	-11.2503
醴泉	-11.2503
十一年任	-11.2508
已定	-11.2508
無能	-11.2511
宣公	-11.2512
成立	-11.2512
部尚書	-11.2512
人以為	-11.2512
行文	-11.2513
入宫	-11.2515
惠帝	-11.2522
殃	-11.2523
噫	-11.2523
寒暑	-11.2527
頡	-11.2527
帝命	-11.2533
徙居	-11.2533
近侍	-11.2534
凡五	-11.2537
摶	-11.2537
諶	-11.2537
下馬	-11.254
不忠	-11.254
苦節	-11.254
建平	-11.2542
一軍	-11.2542
㨿	-11.2542
論列	-11.2542
籩豆	-11.2545
府州	-11.2546
朶	-11.2546
兑	-11.2547
征討	-11.255
復命	-11.2553
縫	-11.2556
爪	-11.2556
之服	-11.2556
彝	-11.2557
扆	-11.2557
以私	-11.2557
後廢	-11.2558
大清	-11.256
使持節	-11.2561
姑息	-11.2564
泗水	-11.2564
令人	-11.2566
义	-11.2566
闕下	-11.2569
比之	-11.2569
何事	-11.257
領之	-11.2572
▁聖祖	-11.2572
手足	-11.2576
仁夀	-11.2576
昭烈	-11.2577
條奏	-11.2579
殆盡	-11.2581
八尺	-11.2581
兊	-11.2581
殺賊	-11.2582
寺觀	-11.2584
其說	-11.2585
惠卿	-11.2586
西寧	-11.2588
盡其	-11.2589
宜興	-11.2593
帝王之	-11.2594
應龍	-11.2596
得志	-11.2596
冠服	-11.2597
犂	-11.2599
矛	-11.26
埶	-11.26
常有	-11.26
不覺	-11.2601
士人	-11.2601
單騎	-11.2602
民居	-11.2602
二郡	-11.2604
州境	-11.2605
不意	-11.2605
靈公	-11.2607
文子	-11.2607
池州	-11.2611
朝賀	-11.2612
本草	-11.2613
咸寧	-11.2614
以養	-11.2615
入蜀	-11.2616
百二十里	-11.2616
善政	-11.2618
俗名	-11.2622
間建	-11.2622
▁九年	-11.2623
年十二月	-11.2624
國也	-11.2625
熲	-11.2625
鎮西	-11.2625
諭以	-11.2628
駙馬	-11.2629
華隂	-11.2631
經略	-11.2631
之異	-11.2632
被災	-11.2634
律令	-11.2635
装	-11.2635
克之	-11.2636
興安	-11.2638
尚在	-11.2639
選人	-11.2639
選舉	-11.2639
已久	-11.2639
僃	-11.264
定襄	-11.2641
職掌	-11.2642
推之	-11.2645
保全	-11.2645
義勇	-11.2649
侂胄	-11.2651
執法	-11.2651
▁千	-11.2653
家橋	-11.2654
水入	-11.2656
六部	-11.2663
以見	-11.2664
甎	-11.2664
守將	-11.2669
時事	-11.2672
州諸軍事	-11.2673
賦役	-11.2675
兩二錢	-11.2676
茫	-11.2678
宋人	-11.2679
耳今	-11.2679
近世	-11.2681
奉安	-11.2682
既成	-11.2683
其東	-11.2685
兩四錢	-11.2687
桓帝	-11.2689
卹	-11.2689
祺	-11.2689
硯	-11.2689
伐鄭	-11.2689
徳州	-11.2691
廬山	-11.2693
大統	-11.2693
五十餘	-11.2694
叔孫	-11.2696
此非	-11.2697
和氣	-11.2697
留意	-11.27
自來	-11.2701
千餘里	-11.2701
墀	-11.2702
袤	-11.2703
丸	-11.2706
又復	-11.2708
封為	-11.2709
十三日	-11.271
松山	-11.2711
五官	-11.2711
三十餘	-11.2715
老成	-11.2715
畫一	-11.2715
固已	-11.2716
近年	-11.2716
裨	-11.2718
興師	-11.2719
命之	-11.2719
邠州	-11.2719
罍	-11.2719
百五十	-11.2719
稱職	-11.272
月犯	-11.272
直抵	-11.2721
大安	-11.2721
地畝	-11.2721
挹	-11.2723
不常	-11.2724
褥	-11.2725
于闐	-11.2727
等議	-11.2727
覬	-11.2728
瓉	-11.2728
張文	-11.2731
更為	-11.2731
為天子	-11.2732
靈臺	-11.2733
五十三	-11.2733
遇賊	-11.2736
妻胡氏	-11.2737
雲騎尉	-11.2741
抃	-11.2741
䟦	-11.2742
殞	-11.2743
閭閻	-11.2745
治天下	-11.2745
乃還	-11.2745
哀公	-11.2748
鯉	-11.2749
降者	-11.275
正法	-11.2751
無算	-11.2751
北上	-11.2752
六十五	-11.2752
驩	-11.2753
契丹主	-11.2754
西南流	-11.2757
白沙	-11.2758
冇	-11.2758
極言	-11.2758
卒於官	-11.2759
囉	-11.276
昌縣	-11.2761
省城	-11.2762
尺五寸	-11.2764
唐志	-11.2765
大亂	-11.2765
泮	-11.2765
邊境	-11.2765
衛人	-11.2766
泣曰	-11.2766
豈無	-11.2767
愉	-11.2768
禕	-11.2768
石刻	-11.2769
一十五	-11.277
涓	-11.2772
與王	-11.2772
惜之	-11.2774
子胥	-11.2775
楓	-11.2778
泰始	-11.2778
知所	-11.2778
付之	-11.2779
臨時	-11.2782
遯	-11.2783
覆準	-11.2783
武職	-11.2784
之福	-11.2784
以慰	-11.2787
冨	-11.2788
搖	-11.2788
靈帝	-11.2792
骸	-11.2798
猶在	-11.28
汜	-11.2801
縈	-11.2812
帙	-11.2813
殮	-11.2813
廣濟	-11.2817
三王	-11.2819
名宦	-11.282
是歲	-11.282
亭侯	-11.282
珏	-11.2823
國除	-11.2823
河南尹	-11.2824
雖無	-11.2825
田租	-11.2825
與戰	-11.2827
二釐	-11.2827
不論	-11.2829
供奉	-11.2829
瀦	-11.283
石壁	-11.2832
相州	-11.2834
祖母	-11.2836
拖	-11.2837
妻黄氏	-11.2839
戰守	-11.2839
己夘	-11.2839
朝堂	-11.2845
階下	-11.2846
有徳	-11.2846
棚	-11.2848
各二人	-11.2848
上香	-11.2848
無辜	-11.2848
武城	-11.285
代王	-11.2851
今乃	-11.2851
㒺	-11.2853
四釐	-11.2855
以下皆	-11.2856
正直	-11.2857
▁勅	-11.2859
朱熹	-11.286
愽	-11.2863
儀同三司	-11.2863
形勝	-11.2863
居此	-11.2867
种	-11.2867
亦云	-11.2867
易以	-11.287
崇文	-11.2871
們	-11.2873
合肥	-11.2875
匹夫	-11.2875
是則	-11.2876
屬官	-11.2876
瑣	-11.2878
插	-11.2879
十六日	-11.288
大節	-11.288
聖慈	-11.2881
里克	-11.2881
所害	-11.2881
靈武	-11.2882
自成	-11.2884
十二人	-11.2885
歸順	-11.2885
薨子	-11.2887
百日	-11.2887
其南	-11.2891
本省	-11.2891
正位	-11.2891
十有六	-11.2892
也吾	-11.2898
㕘政	-11.2898
肅州	-11.2899
小者	-11.2901
十八日	-11.2902
處州	-11.2904
酣	-11.2906
颺	-11.2908
月日	-11.2909
騎兵	-11.2909
沿邊	-11.291
章京	-11.2911
武侯	-11.2913
輓	-11.2913
二百七十	-11.2914
奉命	-11.2915
不畏	-11.2916
與我	-11.2916
雨雪	-11.2917
右衛	-11.292
明徳	-11.2921
冬十一月	-11.2925
録事	-11.2926
天錫	-11.2929
木為	-11.293
讜	-11.2932
照舊	-11.2933
今既	-11.2933
而弗	-11.2934
朝士	-11.2934
益都	-11.2934
鎮海	-11.2934
出城	-11.2936
奏入	-11.2936
四門	-11.2936
在案	-11.2937
山海	-11.2938
者謂之	-11.2938
不備	-11.294
司道	-11.2941
▁奏為奏	-11.2943
宋祁曰	-11.2944
又請	-11.2944
恐懼	-11.2945
皇考	-11.2946
遷都	-11.2949
其親	-11.295
平州	-11.2951
日行	-11.2952
蜀郡	-11.2955
莫之	-11.2956
如淳曰	-11.2959
於大	-11.296
琨	-11.2963
河渠	-11.2964
公論	-11.2964
上林	-11.2965
常熟人	-11.2969
其北	-11.2969
計之	-11.2971
西戎	-11.2971
餘姚人	-11.2971
暠	-11.2973
箐	-11.2973
嚴行	-11.2974
籌畫	-11.2974
滑州	-11.2975
一半	-11.2976
水之	-11.2977
事故	-11.298
不甚	-11.2984
吉州	-11.2984
其西	-11.2986
以助	-11.2986
説文	-11.2987
周書	-11.2989
釗	-11.2989
武備	-11.2989
濟寧	-11.2989
徴銀	-11.2991
忠賢	-11.2991
間道	-11.2993
通省	-11.2993
悚	-11.2994
合而	-11.2995
不進	-11.2995
神龍	-11.2996
橘	-11.2999
舊唐書	-11.3
列聖	-11.3004
百斤	-11.3005
五曰	-11.3006
君父	-11.3007
以相	-11.3007
冬十二月	-11.3008
▁刺史	-11.301
二百六十	-11.3011
毛詩	-11.3013
懾	-11.3014
乃出	-11.3015
城上	-11.3015
五十二	-11.3016
襲爵	-11.3017
富民	-11.3018
南海人	-11.3018
不解	-11.3019
險阻	-11.3019
纘	-11.3019
楚州	-11.3022
一經	-11.3023
於時	-11.3024
追尊	-11.3025
廣寧	-11.3027
但以	-11.3027
緡錢	-11.3029
揑	-11.3029
牛馬	-11.303
而已矣	-11.3031
十二日	-11.3032
多不	-11.3033
與諸	-11.3034
署理	-11.3037
所立	-11.3038
▁俞	-11.3039
至尊	-11.3042
一百五十里	-11.3042
未甞	-11.3043
馬軍	-11.3044
而起	-11.3044
而終	-11.3045
二女	-11.3047
居正	-11.3049
禇	-11.305
而致	-11.305
嘗與	-11.3051
其力	-11.3052
疏請	-11.3052
▁管	-11.3053
刦	-11.3054
矣若	-11.3058
三十八年	-11.3058
齋戒	-11.3059
▁聖主	-11.306
條例	-11.306
何由	-11.3061
議定	-11.3061
;	-11.3065
半年	-11.3065
也音	-11.3066
是書	-11.3066
溧陽	-11.3067
與弟	-11.3067
予之	-11.3072
九品	-11.3075
積水	-11.3078
漾	-11.308
敦煌	-11.3081
吁	-11.3083
一統志	-11.3084
城西北	-11.3087
禽獸	-11.3088
年十九	-11.3089
淳熈	-11.309
設官	-11.3092
武成	-11.3093
山頂	-11.3094
有古	-11.3097
官一員	-11.3097
經傳	-11.3098
阿桂	-11.3098
欽遵	-11.3099
大中祥符	-11.31
㠯	-11.3101
案近刻	-11.3102
潼	-11.3103
重兵	-11.3107
交州	-11.3108
涇州	-11.3109
定陶	-11.3112
不虞	-11.3114
璽書	-11.3114
正曰	-11.3116
昕	-11.3116
別	-11.3116
皆無	-11.3116
親臨	-11.3117
今廢	-11.3117
一十二	-11.3117
張俊	-11.3117
其情	-11.3119
朔州	-11.3119
巔	-11.312
河流	-11.312
桂林	-11.3122
獻之	-11.3123
五百人	-11.3124
桃花	-11.3126
娘	-11.3127
七錢	-11.3127
用此	-11.3128
八釐	-11.3128
合流	-11.313
欲與	-11.3131
之勝	-11.3132
久而	-11.3132
㡌	-11.3137
涿	-11.3138
滁州	-11.3139
之請	-11.3139
兼領	-11.314
郡唐	-11.314
鎮南	-11.3141
武舉	-11.3144
驤	-11.3144
清口	-11.3144
闥	-11.3146
鄜延	-11.3147
臣民	-11.3149
之黨	-11.315
也遂	-11.3152
盟于	-11.3153
酈	-11.3154
液	-11.3158
酒泉	-11.3158
成敗	-11.3158
天性	-11.3159
詳議	-11.3159
這	-11.3163
之迹	-11.3165
有隙	-11.3166
騾	-11.3168
㓕	-11.3168
蘄州	-11.3172
韓世忠	-11.3173
於中	-11.3174
論者	-11.3176
文選	-11.3176
晉州	-11.3177
選用	-11.3178
六國	-11.3179
著作郎	-11.3181
指示	-11.3182
自新	-11.3182
甌	-11.3182
洪武中	-11.3183
建興	-11.3183
軍人	-11.3184
守兵	-11.3186
只是	-11.3187
燕山	-11.3188
四世孫	-11.319
各設	-11.3194
戰敗	-11.3196
都虞候	-11.3197
妻吳氏	-11.3199
鄂州	-11.32
十有五	-11.32
出納	-11.32
塞外	-11.3201
收成	-11.3203
髻	-11.3204
諸城	-11.3206
潮州	-11.3208
不雨	-11.3211
子儀	-11.3212
嵗星	-11.3214
堂上	-11.3215
民無	-11.3217
奏乞	-11.3217
以病	-11.3217
一度	-11.3219
安府	-11.3219
大悦	-11.322
院事	-11.322
登進士	-11.3223
毎年	-11.3224
二水	-11.3225
上䟽	-11.3226
昇平	-11.3228
等言	-11.3228
陽山	-11.3228
所及	-11.3228
不獨	-11.323
獲罪	-11.3232
華亭人	-11.3235
當為	-11.3235
治亂	-11.3236
薦舉	-11.3236
鄉侯	-11.3237
在府城	-11.3238
總管府	-11.3238
始以	-11.324
其位	-11.3244
逺方	-11.3244
注曰	-11.3245
不實	-11.3247
虧空	-11.3249
編户	-11.325
發明	-11.325
瀘州	-11.325
自西	-11.325
隗	-11.3251
尋以	-11.3254
尚書右僕射	-11.3254
災傷	-11.3256
引去	-11.3258
宋主	-11.326
鴉	-11.3261
官府	-11.3261
沿江	-11.3262
年五月	-11.3263
被殺	-11.3263
東井	-11.3266
上書言	-11.3268
以為不可	-11.3269
騫	-11.3269
夷簡	-11.327
雍正十年	-11.327
七萬	-11.3271
厯代	-11.3272
船隻	-11.3273
七十餘	-11.3276
兵力	-11.3276
麴	-11.3277
赭	-11.3277
擊破之	-11.3278
斬其	-11.3279
為治	-11.3281
諭之	-11.3282
捲	-11.3282
執之	-11.3285
論事	-11.3286
立碑	-11.3287
勢必	-11.3287
荆門	-11.329
之别	-11.329
衡陽	-11.3292
盪	-11.3293
經費	-11.3293
縊	-11.3296
賊人	-11.3296
大通	-11.3298
佯	-11.3298
年月	-11.3299
清平	-11.33
問其	-11.3301
宣州	-11.3303
無由	-11.3303
瀝	-11.3303
行下	-11.3305
亦必	-11.3306
年九月	-11.3307
闕里	-11.3309
長驅	-11.331
士子	-11.3311
求其	-11.3311
眠	-11.3314
日益	-11.3316
凡十	-11.3316
壝	-11.3316
發遣	-11.3317
墓誌	-11.3318
之交	-11.3321
烏孫	-11.3321
一時之	-11.3322
▁未見	-11.3322
選擇	-11.3322
援兵	-11.3323
二年二月	-11.3324
乎此	-11.3324
年六月	-11.3324
萬四千	-11.3326
靡不	-11.3328
登城	-11.3328
二百餘	-11.3329
查勘	-11.333
巴蜀	-11.333
徐州刺史	-11.3333
安陽	-11.3334
侑	-11.3335
滂	-11.3335
五等	-11.3335
崑	-11.3335
戦	-11.334
擴	-11.334
百戸	-11.334
於本	-11.3342
就位	-11.3344
著於	-11.3345
餘里	-11.3345
在州南	-11.3346
十匹	-11.3346
年十八	-11.3348
光祖	-11.335
人不	-11.3352
乾徳	-11.3352
年號	-11.3354
匝	-11.3356
土兵	-11.3356
既得	-11.3356
可觀	-11.3356
雲龍	-11.3357
二世	-11.3359
白金	-11.3359
韓愈	-11.3361
躁	-11.3361
▁上諭軍機大臣曰	-11.3362
年三月	-11.3362
未成	-11.3362
寧縣	-11.3363
小兒	-11.3364
欲立	-11.3364
老弱	-11.3365
為重	-11.3366
阿里	-11.3367
至道	-11.3369
者俱	-11.337
鎧	-11.3371
一條	-11.3373
於是乎	-11.3373
年八十	-11.3374
厯官	-11.3375
惻	-11.3379
上谷	-11.3381
拳	-11.3382
不倦	-11.3385
錢塘人	-11.3388
黠	-11.3392
郡城	-11.3394
民皆	-11.3395
男婦	-11.3397
永明	-11.3397
似此	-11.3398
額曰	-11.34
曽祖	-11.3401
王宗	-11.3402
孕	-11.3403
衡州	-11.3404
亡命	-11.3408
去處	-11.341
達於	-11.341
通事	-11.3411
監督	-11.3412
八十一	-11.3412
苴	-11.3413
此據	-11.3414
捜	-11.3414
任之	-11.3414
立于	-11.3415
待詔	-11.3416
本朝因之	-11.3417
婉	-11.3419
嘴	-11.3419
左衛	-11.342
二十七日	-11.3424
囑	-11.3424
終獻	-11.3425
大畧	-11.3428
大海	-11.3429
四縣	-11.3431
按察	-11.3431
州觀察使	-11.3432
少監	-11.3433
年十一月	-11.3434
為侍中	-11.3436
▁校	-11.3436
青陽	-11.3439
為小	-11.344
人力	-11.3441
庠生	-11.3442
州南	-11.3445
又翻	-11.3445
在任	-11.3447
二百三十	-11.3449
苔	-11.3451
先師	-11.3451
狀元	-11.3452
大行	-11.3453
梁武帝	-11.3454
於西	-11.3454
平時	-11.3454
啇	-11.3456
不分	-11.3457
平之	-11.3457
兵起	-11.3458
其半	-11.3458
始祖	-11.3459
國子祭酒	-11.3459
三字	-11.3461
責其	-11.3462
輕騎	-11.3462
入對	-11.3463
事竊	-11.3464
灌溉	-11.3464
驪	-11.3466
好惡	-11.3466
糧餉	-11.3466
溯	-11.3467
鄞縣	-11.3469
鑲	-11.3469
進士第	-11.3469
幾何	-11.3471
性命	-11.3471
無所不	-11.3473
靈王	-11.3473
預備	-11.3474
大夏	-11.3476
而為之	-11.3476
増置	-11.3477
曹州	-11.3477
湜	-11.3477
婺州	-11.3479
大饑	-11.3481
甘州	-11.3481
窄	-11.3483
詩集	-11.3483
少子	-11.3483
有志	-11.3485
外國	-11.3486
刹	-11.3488
水又東	-11.3489
自將	-11.3492
神廟	-11.3492
相距	-11.3493
門入	-11.3494
北郊	-11.3495
元年改	-11.3497
高帝	-11.3499
所領	-11.35
閉門	-11.35
乎其	-11.3503
紬	-11.3503
濮州	-11.3504
賞賚	-11.3504
歸徳	-11.3504
引河	-11.3505
何得	-11.3506
蟒	-11.3509
部員外郎	-11.351
而殺之	-11.3511
朝議	-11.3513
𦂳要	-11.3516
盥	-11.3516
帥臣	-11.3518
軍門	-11.3519
玉帛	-11.3519
實心	-11.352
三十七年	-11.3521
異日	-11.3522
為皇太子	-11.3523
為正	-11.3526
承平	-11.3526
▁巻	-11.3529
凡四	-11.353
曲阜	-11.3531
竅	-11.3531
此心	-11.3532
寰宇	-11.3532
河之	-11.3532
光禄寺	-11.3533
神人	-11.3533
失所	-11.3534
三司使	-11.3534
不亦	-11.3535
甚屬	-11.3535
▁旨	-11.3535
御筆	-11.3535
帆	-11.3536
矟	-11.3536
為賊所	-11.3537
稽查	-11.354
滁	-11.354
迄今	-11.354
速行	-11.3541
不廢	-11.3542
孫氏	-11.3544
與賊	-11.3545
山海經	-11.3547
裙	-11.3547
其族	-11.3548
五城	-11.3551
諛	-11.3552
兩六錢	-11.3553
半里	-11.3555
被水	-11.3556
圍之	-11.3556
黄巖	-11.3556
翹	-11.3558
鎻	-11.3558
之教	-11.3558
並令	-11.3559
之戒	-11.3562
每石	-11.3562
廟堂	-11.3563
否則	-11.3564
管領	-11.3564
元末	-11.3567
恚	-11.3568
中流	-11.357
總理	-11.3571
獅子	-11.3572
三載	-11.3572
漢武	-11.3572
同姓	-11.3573
於國	-11.3573
兢	-11.3574
都部署	-11.3574
坍	-11.3574
臆	-11.3574
廬墓	-11.3576
水師	-11.3578
門之外	-11.3579
鋤	-11.3579
難於	-11.3579
按此	-11.3581
上殿	-11.3582
伊犁	-11.3586
之策	-11.3587
之形	-11.3587
擢用	-11.3587
則可	-11.3588
今以	-11.359
氛	-11.359
鰲	-11.359
南征	-11.359
不聼	-11.359
下車	-11.3591
盡行	-11.3592
四十一年	-11.3593
在朝	-11.3593
博羅	-11.3593
曲江	-11.3595
嘗謂	-11.3596
安世	-11.3596
外其	-11.3597
北征	-11.3598
不變	-11.3599
兩零	-11.3601
近刻	-11.3602
娥	-11.3603
天平	-11.3604
西流	-11.3606
蠕蠕	-11.3606
兾	-11.3606
勸農	-11.3607
石山	-11.3607
卒于	-11.3608
必得	-11.3609
因言	-11.361
令狐	-11.3611
祭器	-11.3611
原任驍騎校	-11.3617
一釐	-11.3618
其私	-11.3618
當是時	-11.362
人倫	-11.3621
卵	-11.3622
濂	-11.3622
且言	-11.3626
徽州	-11.3627
等並	-11.3628
濓	-11.363
先農	-11.3631
擒之	-11.3631
威儀	-11.3631
長慶	-11.3632
此又	-11.3632
鵝	-11.3633
薰	-11.3633
或言	-11.3637
既無	-11.3638
紋	-11.3639
兵革	-11.364
之機	-11.364
牧馬	-11.3641
則天下	-11.3643
諸家	-11.3643
法也	-11.3644
貢獻	-11.3645
然亦	-11.3645
乃自	-11.3645
六寸	-11.3646
固請	-11.3647
良臣	-11.3647
伏惟	-11.3651
新書	-11.3652
擊敗	-11.3654
複	-11.3654
非一	-11.3655
踊	-11.3655
之吏	-11.3655
蔡州	-11.3655
天聰	-11.3656
另行	-11.3656
雲陽	-11.3656
焚之	-11.3657
楚之	-11.3659
依前	-11.3659
猶可	-11.3662
不得其	-11.3664
御座	-11.3666
不果	-11.3671
為先	-11.3672
贛	-11.3673
所行	-11.3673
一首	-11.3675
者當	-11.3678
豐城	-11.3679
主者	-11.368
皇太	-11.368
春秋時	-11.368
棍	-11.3682
岫	-11.3687
汭	-11.3687
磔	-11.3687
瀕	-11.3689
賜死	-11.369
主客	-11.3693
久不	-11.3694
十三里	-11.3696
三世	-11.3697
興工	-11.3697
州縣官	-11.3698
各有差	-11.3699
西階	-11.3699
平公	-11.3701
等曰	-11.3703
攤	-11.3704
圈	-11.3704
弃	-11.3704
胸	-11.3705
延慶	-11.3705
執事官	-11.3706
宣慰	-11.3708
厪	-11.3709
挂	-11.3709
妻沈氏	-11.371
固原	-11.371
永新	-11.3711
不由	-11.3711
陰陽	-11.3711
卡	-11.3713
信都	-11.3716
永樂中	-11.3717
搢笏	-11.3717
皆非	-11.3718
之具	-11.3719
遼西	-11.3719
平城	-11.372
紹興府	-11.372
便是	-11.3721
受業	-11.3722
濰	-11.3726
炬	-11.3726
併入	-11.3726
子貢	-11.3726
不以為	-11.3726
旁有	-11.3726
今所	-11.3728
三十三年	-11.3728
未便	-11.373
為司徒	-11.3737
東萊	-11.3741
因事	-11.3741
所親	-11.3741
大業初	-11.3743
矢石	-11.3745
西魏	-11.3746
藩鎮	-11.3748
又西南	-11.375
糧道	-11.3751
詵	-11.3753
瀚	-11.3753
北向立	-11.3754
如儀	-11.3755
及此	-11.3756
邦彦	-11.3757
特命	-11.3757
以定	-11.3759
煦	-11.3764
協領	-11.3765
為司空	-11.3768
有詩	-11.3772
之虞	-11.3774
不思	-11.3774
無定	-11.3774
官職	-11.3776
圖書	-11.3777
文廟	-11.3779
尚書郎	-11.3781
二次	-11.3781
顔色	-11.3784
更定	-11.3785
罰俸	-11.379
見任	-11.379
雖未	-11.3791
而罷	-11.3796
白鹿	-11.3802
亦宜	-11.3804
浜	-11.3804
且曰	-11.3804
流離	-11.3805
漳州	-11.3806
十四日	-11.3806
宜春	-11.3808
班固	-11.3811
興平	-11.3813
在官	-11.3813
濮陽	-11.3816
始興	-11.3818
尺寸	-11.3818
尋復	-11.3819
三百五十	-11.382
三十人	-11.3821
無極	-11.3822
卻	-11.3824
朝廷之	-11.3825
送部	-11.3826
對曰臣	-11.383
巴里坤	-11.383
乃可	-11.3832
二十餘年	-11.3832
之善	-11.3832
嘉靖間	-11.3833
助之	-11.3833
拒守	-11.3834
降之	-11.3835
四十五年	-11.3838
昔人	-11.3838
百匹	-11.3838
府知府	-11.3839
太上皇	-11.3839
其舊	-11.384
運使	-11.384
千百	-11.3841
總河	-11.3841
之首	-11.3843
無錫	-11.3843
世孫	-11.3844
▁謹按	-11.3845
復還	-11.385
謂之曰	-11.3851
永定	-11.3851
其屬	-11.3852
天王	-11.3853
寕縣	-11.3853
可勝	-11.3854
宜陽	-11.3854
枷	-11.3854
之極	-11.3854
廬舍	-11.3855
撫之	-11.3859
天水	-11.3861
論其	-11.3862
祝文	-11.3862
庖	-11.3863
偁	-11.3863
穗	-11.3863
三門	-11.3863
戰功	-11.3865
千二百	-11.3865
六名	-11.3867
登第	-11.3868
鏜	-11.3869
水草	-11.3873
擊敗之	-11.3874
戩	-11.3874
其議	-11.3875
不恤	-11.3875
乃知	-11.3875
山隂人	-11.3875
鍾離	-11.3876
部侍郎	-11.3877
生而	-11.3877
民兵	-11.3878
朝陽	-11.3879
十有一	-11.388
者盖	-11.388
緊	-11.3881
犧	-11.3882
蠱	-11.3885
旦夕	-11.3887
臣願	-11.3887
儀同	-11.3889
灝	-11.3891
且以	-11.3892
小臣	-11.3895
輔國將軍	-11.3895
知事	-11.3895
舉哀	-11.3896
孛	-11.3896
元元	-11.3898
漣	-11.39
腸	-11.3901
劉豫	-11.3902
南路	-11.3904
歩騎	-11.391
州屬	-11.391
貧者	-11.3913
涌	-11.3913
渦	-11.3913
勒兵	-11.3919
三年正月	-11.3919
所經	-11.3919
揀選	-11.3922
大者	-11.3923
過失	-11.3923
部署	-11.3924
屆	-11.3924
曙	-11.3924
别駕	-11.3925
㕘將	-11.3926
可與	-11.3927
大名府	-11.3927
各衙門	-11.3929
於市	-11.393
昔有	-11.3931
垂拱	-11.3931
安徽	-11.3936
使民	-11.3939
上自	-11.394
薫	-11.3941
安化	-11.3942
焚其	-11.3942
於世	-11.3943
第八	-11.3943
出降	-11.3946
其官	-11.3947
是何	-11.3947
明萬厯	-11.3947
哀帝	-11.3947
母弟	-11.3947
弱冠	-11.3948
外任	-11.395
之句	-11.3952
幸甚	-11.3952
塜	-11.3952
筍	-11.3952
丑進士	-11.3953
杜預	-11.3954
慨	-11.3954
張公	-11.3958
上問	-11.396
一舉	-11.396
赴京	-11.396
匏	-11.3963
之方	-11.3964
班第	-11.3966
不著	-11.3966
兩八錢	-11.3967
尊卑	-11.3968
妓	-11.3969
臣以為	-11.3969
中國之	-11.397
召公	-11.397
天福	-11.3973
斑	-11.3975
日期	-11.3975
黄州	-11.3975
雍州刺史	-11.3979
一節	-11.3979
交易	-11.398
言而	-11.398
呉越	-11.398
原任䕶軍校	-11.3981
與同	-11.3981
今按	-11.3983
一州	-11.3984
退保	-11.3984
軀	-11.3985
鎰	-11.3986
北境	-11.3988
天人	-11.3988
所書	-11.3989
荔	-11.399
司庫	-11.3991
受爵	-11.3991
大用	-11.3991
殿内	-11.3992
理宗	-11.3992
守貞	-11.3993
絶其	-11.3993
汝等	-11.3993
州刺	-11.3993
邵武	-11.3994
石經	-11.3996
臨淄	-11.3996
改設	-11.4
東入	-11.4
百兩	-11.4004
遣使者	-11.4004
蒿	-11.4008
農桑	-11.4009
以取	-11.401
中行	-11.401
海塘	-11.401
脯	-11.4012
貢舉	-11.4015
五代史	-11.4016
妻孫氏	-11.4016
所取	-11.4016
别為	-11.4017
矣臣	-11.4019
守城	-11.4019
不正	-11.402
分道	-11.4021
勤王	-11.4023
天威	-11.4025
煒	-11.4025
暐	-11.4025
天祥	-11.4027
分註	-11.4029
▁生員	-11.4031
莊子	-11.4031
者今	-11.4032
七尺	-11.4033
天下幸甚	-11.4033
醮	-11.4035
香山	-11.4036
人謂	-11.4036
琢	-11.4036
九成	-11.4037
之甚	-11.4037
中式	-11.4038
葱	-11.404
流水	-11.4041
之曲	-11.4042
州事	-11.4042
太清	-11.4042
千匹	-11.4043
賑之	-11.4043
而非	-11.4047
秋冬	-11.4049
武公	-11.4052
胎	-11.4053
酺	-11.4053
鑪	-11.4053
皁	-11.4053
以法	-11.4055
拒戰	-11.4055
嘏	-11.4059
鹽法	-11.406
變化	-11.4061
唐制	-11.4062
禱雨	-11.4062
十七日	-11.4066
三面	-11.4069
挿	-11.407
可知矣	-11.4071
唐末	-11.4071
察之	-11.4072
以全	-11.4073
牡	-11.4074
八兩	-11.4075
濳	-11.4076
而不敢	-11.4079
府界	-11.4079
届	-11.4082
集議	-11.4082
平章政事	-11.4082
動支	-11.4084
本縣	-11.4086
不求	-11.4087
文彦博	-11.4087
儘	-11.4087
瘦	-11.4087
坫	-11.4087
實封	-11.4087
皆從	-11.4088
四十二年	-11.4089
遣之	-11.409
而巳	-11.4093
石勒	-11.4094
武平	-11.4095
萬厯間	-11.4096
大呼	-11.4096
騷	-11.4097
定公	-11.4097
歙縣人	-11.4097
邪正	-11.4098
遘	-11.4099
黎陽	-11.4099
遂使	-11.4099
六十七	-11.4101
轉運副使	-11.4102
遇之	-11.4104
譌	-11.4104
純仁	-11.4104
駙馬都尉	-11.4105
達嚕噶齊	-11.4105
及至	-11.4106
諸色	-11.4106
陘	-11.4108
周文	-11.4109
加之	-11.4114
之過	-11.4114
兵士	-11.4115
養之	-11.4115
水又	-11.4116
門户	-11.4117
日中	-11.4118
三十四年	-11.4119
𨗳	-11.4121
已成	-11.4122
浮橋	-11.4123
樂器	-11.4124
兀	-11.4126
薊州	-11.4127
回部	-11.413
雜記	-11.413
熱河	-11.4131
日用	-11.4131
航	-11.4131
蔡邕	-11.4131
椽	-11.4133
顓頊	-11.4133
自東	-11.4133
汧	-11.4134
嵗貢	-11.4137
聫	-11.4138
何可	-11.4139
紊	-11.414
有可	-11.414
等縣	-11.4141
皆曰	-11.4142
將至	-11.4143
童貫	-11.4144
咏	-11.4144
呵	-11.415
倩	-11.415
之常	-11.4151
萬方	-11.4152
和親	-11.4152
欲得	-11.4154
落職	-11.4154
和元年	-11.4154
獻帝	-11.4157
以重	-11.4157
幕府	-11.416
正旦	-11.416
蕭何	-11.4161
喚	-11.4161
炙	-11.4161
从	-11.4161
雒陽	-11.4162
漢水	-11.4163
臨朝	-11.4168
流亡	-11.4171
一千三百	-11.4175
必致	-11.4176
長短	-11.4177
不朽	-11.4178
逈	-11.4178
撫州	-11.418
物料	-11.4181
何其	-11.4182
終於	-11.4183
不祥	-11.4183
天監	-11.4184
宣慰使	-11.4186
接濟	-11.4186
一心	-11.4188
擒獲	-11.4189
諂	-11.419
淀	-11.419
甦	-11.4195
採買	-11.4197
則民	-11.4198
謂此	-11.4202
唐置	-11.4203
亦然	-11.4204
縣尉	-11.4205
又聞	-11.4206
有方	-11.4207
与	-11.4207
紱	-11.4207
譛	-11.4207
建言	-11.4207
即將	-11.4208
在城内	-11.4215
銑	-11.4216
元宗	-11.4218
餞	-11.4218
字公	-11.4219
八萬	-11.4223
百步	-11.4229
復入	-11.4229
唐宋	-11.4229
定額	-11.4229
不准	-11.423
南平	-11.4233
受詔	-11.4235
▁尹	-11.4235
水災	-11.4236
外有	-11.4237
此次	-11.4238
帶兵	-11.4241
等情	-11.4241
當死	-11.4243
武官	-11.4244
志曰	-11.4248
藝文志	-11.4248
昌黎	-11.425
其所以	-11.425
異姓	-11.425
合無	-11.4251
瘴	-11.4252
不拜	-11.4252
縣界一百	-11.4253
慟哭	-11.4255
雨雹	-11.4258
姒	-11.4259
克圖	-11.4259
利而	-11.4262
旗人	-11.4263
武進	-11.4264
怖	-11.4264
椎	-11.4264
喉	-11.4264
悃	-11.4264
大樂	-11.4265
武康	-11.4269
入門	-11.4271
昭穆	-11.4271
瀑	-11.4272
用度	-11.4272
稼穡	-11.4273
之效	-11.4274
遺詔	-11.4274
委員	-11.4274
夸	-11.4276
瑱	-11.4276
陽武	-11.4277
昌言	-11.4278
備禦	-11.428
欲殺	-11.4282
天柱	-11.4284
其子孫	-11.4284
永徽	-11.4285
如其	-11.4285
異時	-11.4285
為二	-11.4286
社稷之	-11.4287
國學	-11.4287
徭役	-11.4288
開化	-11.4288
郡隋	-11.4288
民不	-11.4289
▁陶	-11.4292
並行	-11.4292
公輔	-11.4292
一千一百	-11.4292
太元	-11.4293
次引	-11.4293
曰爾	-11.4294
死亡	-11.4295
數萬人	-11.4296
又定	-11.4296
三楹	-11.4297
臚	-11.4298
中宫	-11.4298
府同知	-11.4299
抜	-11.4299
水縣	-11.43
改今名	-11.4303
城邑	-11.4303
十有四	-11.4305
以昭	-11.4305
冠軍	-11.4307
青城	-11.4309
額森	-11.431
仔	-11.4311
其外	-11.4311
講求	-11.4311
全活	-11.4313
渭水	-11.4317
肅然	-11.4317
建國	-11.4318
聞者	-11.4318
飾以	-11.4318
上從之	-11.432
安石曰	-11.432
三府	-11.4321
鶚	-11.4322
為界	-11.4323
耆老	-11.4323
能為	-11.4323
伏羲	-11.4323
漕糧	-11.4325
拜位	-11.4325
力行	-11.4326
揚州刺史	-11.4326
丹徒	-11.4328
元年春正月	-11.4328
常服	-11.4331
中統	-11.4334
衛將軍	-11.4334
太子太保	-11.4336
而易	-11.4336
明月	-11.4338
賻	-11.434
二十名	-11.434
大典	-11.4341
人無	-11.4342
當在	-11.4342
少而	-11.4344
蒲州	-11.4345
琅	-11.4349
公著	-11.435
之至意	-11.4353
涿州	-11.4354
之苦	-11.4356
剌	-11.4356
亦不能	-11.4359
到日	-11.4359
乗勝	-11.4359
然自	-11.4359
十疋	-11.436
移於	-11.436
額徵	-11.4362
泠	-11.4363
年建	-11.4363
為御史	-11.4365
濟隂	-11.4366
不舉	-11.4366
初改	-11.4369
其謀	-11.4372
普安	-11.4373
便殿	-11.4374
以清	-11.4374
袋	-11.4374
尚書右丞	-11.4375
該督	-11.4376
今天下	-11.4377
過人	-11.4377
團練	-11.4379
小學	-11.4379
出其	-11.438
黄巢	-11.438
分為二	-11.4383
霖雨	-11.4383
所造	-11.4384
報國	-11.4385
烈婦	-11.4385
升降	-11.4385
贊引	-11.4386
郟	-11.4386
又據	-11.4386
穆王	-11.4388
得名	-11.439
商州	-11.439
何哉	-11.4391
連年	-11.4393
不自安	-11.4393
光明	-11.4394
▁侍郎	-11.4395
郡志	-11.4395
鳥獸	-11.4397
調度	-11.4398
必能	-11.4398
一郡	-11.44
今又	-11.4402
鳳凰	-11.4403
安慶	-11.4407
遴	-11.4408
鳳陽	-11.4409
必死	-11.441
何能	-11.4411
行而	-11.4413
蔡確	-11.4416
昌邑	-11.4417
大有	-11.4418
寧海	-11.4418
儋	-11.4421
明嘉靖	-11.4421
氏曰	-11.4421
永州	-11.4421
之稱	-11.4424
兵敗	-11.4424
五十一	-11.4425
毬	-11.4427
中書舎人	-11.4429
九釐	-11.443
凡所	-11.443
以新	-11.4431
為太尉	-11.4431
驍勇	-11.4433
為天	-11.4434
而使	-11.4434
忠烈	-11.4436
俗呼	-11.4436
武氏	-11.4437
戕	-11.4439
正色	-11.444
字景	-11.4441
佛寺	-11.4441
賢能	-11.4444
題准	-11.4447
十斤	-11.4447
收復	-11.4447
太陽	-11.4449
元吉	-11.4449
擄	-11.445
六十六	-11.445
可使	-11.4452
一十四	-11.4454
議叙	-11.4454
騶	-11.4455
萬戸	-11.4455
瓠	-11.4455
公同	-11.4455
環慶	-11.4457
異於	-11.4457
袁州	-11.446
金玉	-11.4461
軫念	-11.4461
告急	-11.4462
藝文	-11.4462
較之	-11.4462
伶	-11.4462
立祠	-11.4463
求去	-11.4463
清風	-11.4465
不敬	-11.4466
朔日食	-11.4467
八十四	-11.4467
寺丞	-11.4467
矣乃	-11.4469
竟陵	-11.4469
軍使	-11.4475
里人	-11.4476
不修	-11.4477
犯罪	-11.4479
大懼	-11.4481
漢興	-11.4482
穆公	-11.4485
鳯凰	-11.4487
勞苦	-11.4487
以拒	-11.4488
處也	-11.4488
錦衣	-11.449
州都督	-11.4491
乗之	-11.4492
資政殿學士	-11.4492
召募	-11.4493
死生	-11.4494
纖	-11.4498
權貴	-11.45
當國	-11.4501
▁裴	-11.4501
唐初	-11.4502
▁皇后	-11.4502
登州	-11.4507
赤子	-11.4508
蘇松	-11.4509
鳬	-11.4509
咄	-11.4509
將吏	-11.451
同縣	-11.451
餘兩	-11.4511
相如	-11.4511
伐楚	-11.4513
中州	-11.4515
縣民	-11.4517
書目	-11.4517
上謂	-11.4521
無餘	-11.4522
一十六	-11.4522
子思	-11.4523
任事	-11.4523
立定	-11.4524
漢兵	-11.4524
緘	-11.4526
肆拾	-11.4526
者哉	-11.4528
萬計	-11.4529
分流	-11.4531
前殿	-11.4532
人崇禎	-11.4532
已死	-11.4532
以問	-11.4533
以利	-11.4535
黙然	-11.4538
記室	-11.4538
牋	-11.4539
赦天下	-11.4545
巴圖魯	-11.4548
兩宫	-11.4548
情願	-11.4549
士馬	-11.455
公侯	-11.4551
應天府	-11.4551
皇天	-11.4551
宋公	-11.4554
乘勝	-11.4556
稱賀	-11.4557
新羅	-11.4558
運司	-11.4559
金兵	-11.456
無得	-11.4563
治河	-11.4563
不事	-11.4564
太子太傅	-11.4565
復扶	-11.4565
駐兵	-11.4566
定奪	-11.4567
郭璞	-11.4568
幻	-11.4569
提學	-11.457
捍禦	-11.4571
敵國	-11.4572
十一日	-11.4572
乆矣	-11.4573
若無	-11.4573
一夫	-11.4575
入闗	-11.4577
振武	-11.4577
二年置	-11.4578
羅漢	-11.4578
孝弟	-11.458
璿	-11.4581
王廟	-11.4582
前軍	-11.4584
食其	-11.4585
▁史記	-11.4586
太原府	-11.4586
滚	-11.4587
奉㫖	-11.4588
建文	-11.459
墉	-11.459
纂修	-11.459
以天下	-11.459
和之	-11.4591
也然則	-11.4592
倅	-11.4593
馬邑	-11.4594
世世	-11.4595
應援	-11.4595
不義	-11.4597
輿地紀勝	-11.4599
湫	-11.4599
潤州	-11.4601
鎮東	-11.4601
楯	-11.4604
臭	-11.4604
太上	-11.4605
累年	-11.4607
安之	-11.4607
翻下同	-11.4608
翅	-11.461
辟雍	-11.4611
分遣	-11.4611
左遷	-11.4611
二王	-11.4612
不赴	-11.4613
忠厚	-11.4613
孜	-11.4614
府君	-11.4614
王家	-11.4616
蟻	-11.4616
旃	-11.4616
嚴飭	-11.4617
南入	-11.4617
蘇轍	-11.4617
殿庭	-11.4618
所建	-11.4619
本處	-11.4619
苻堅	-11.4619
時任	-11.462
步軍	-11.462
黷	-11.4621
至治	-11.4621
悠	-11.4622
戡	-11.4622
銅錢	-11.4624
利州	-11.4624
等第	-11.4625
意欲	-11.4626
杳	-11.4628
媒	-11.4628
光祿大夫	-11.463
該處	-11.463
伍拾	-11.4632
識之	-11.4634
焉其	-11.4635
淮揚	-11.4636
不預	-11.4638
巢穴	-11.4639
為盜	-11.4639
又自	-11.4639
其聲	-11.4641
為是	-11.4644
降詔	-11.4644
閬	-11.4645
難得	-11.4645
烏桓	-11.4647
泚	-11.4648
印信	-11.4649
三老	-11.4651
曲折	-11.4653
次年	-11.4657
未明	-11.4658
緜	-11.4658
不使	-11.4659
罪之	-11.4659
賊首	-11.466
曰天子	-11.466
典故	-11.4662
以其子	-11.4662
大師	-11.4662
豁免	-11.4662
九尺	-11.4662
元年二月	-11.4663
二年春正月	-11.4666
本寺	-11.467
洧	-11.467
兼權	-11.4676
並未	-11.4676
九錢	-11.4676
舄	-11.4676
鄉縣	-11.4678
起家	-11.4679
太僕寺	-11.4679
増設	-11.4682
吏目	-11.4682
鵞	-11.4682
官給	-11.4683
掌印	-11.4683
水溢	-11.4684
報稱	-11.4686
止有	-11.4688
講官	-11.4689
有文	-11.4689
未行	-11.4691
皆用	-11.4692
衞人	-11.4695
案内	-11.4695
其俗	-11.4695
之詩	-11.4696
與語	-11.4696
▁御書	-11.4699
蒞	-11.47
侍讀學士	-11.47
禍亂	-11.4703
罷去	-11.4704
授為	-11.4705
針	-11.4706
進軍	-11.4707
親軍	-11.4708
漢屬	-11.4708
日以	-11.471
有六	-11.4712
折銀	-11.4713
歸于	-11.4714
復何	-11.4714
初封	-11.4716
奏摺	-11.4719
為郡	-11.472
其在	-11.472
分左右	-11.4721
義倉	-11.4722
欲為	-11.4723
徘徊	-11.4724
二千五百	-11.4725
時方	-11.4725
舊址	-11.4726
上郡	-11.4726
中常侍	-11.4727
遂罷	-11.4728
五年任	-11.473
踴躍	-11.4731
起運	-11.4731
營兵	-11.4733
之區	-11.4735
城破	-11.4737
天長	-11.4738
季孫	-11.474
永福	-11.474
三十九年	-11.4744
尋常	-11.4746
正當	-11.4748
舊城	-11.4749
在府城東	-11.4751
僖公	-11.4752
豐縣	-11.4754
繖	-11.4754
聲色	-11.4755
各項	-11.4755
不令	-11.4757
遣中使	-11.4759
不可勝	-11.476
等十	-11.476
亾	-11.4761
檐	-11.4761
車師	-11.4761
移文	-11.4761
不豫	-11.4763
統兵	-11.4766
▁#+	-11.4767
其徳	-11.4772
出塞	-11.4773
田賦	-11.4775
之舉	-11.4777
著作	-11.4777
陵縣	-11.4778
陽曲	-11.4781
朕之	-11.4782
為定	-11.4783
菁	-11.4785
孺子	-11.4785
漢文	-11.4785
宋齊	-11.4785
議郎	-11.4785
之源	-11.4786
問其故	-11.4786
彈壓	-11.4786
都統制	-11.4786
斷其	-11.4788
▁十三年	-11.4788
讀祝	-11.479
爲之	-11.4791
東階	-11.4791
通事舍人	-11.4792
祝版	-11.4794
▁邵	-11.4795
清查	-11.4797
王妃	-11.4797
上天	-11.4802
惠公	-11.4803
幔	-11.4803
西夏	-11.4803
建德	-11.4804
宫門	-11.4806
共銀	-11.4807
大唐	-11.4808
監國	-11.4814
此項	-11.4815
鹹	-11.4815
賡	-11.4815
也師古曰	-11.4817
者與	-11.482
元康	-11.4821
地而	-11.4821
女為	-11.4824
可容	-11.4826
觜	-11.4828
六十八	-11.4829
大率	-11.483
楠	-11.4834
即皇帝位	-11.4834
著述	-11.4835
復用	-11.4836
平凉	-11.4836
任内	-11.4836
崇明	-11.4837
三百人	-11.4839
有泉	-11.4839
吳人	-11.4839
阨	-11.484
撻	-11.484
▁費	-11.484
太白犯	-11.484
文辭	-11.4843
懌	-11.4844
赦之	-11.4844
又嘗	-11.4844
奉化	-11.4847
重耳	-11.4849
以義	-11.4849
年表	-11.485
十有八	-11.4851
渴	-11.4852
城隍	-11.4853
尋改	-11.4854
▁慈	-11.4855
未嘗有	-11.4856
迎之	-11.4856
稱帝	-11.4857
今來	-11.4858
廣武	-11.4858
倬	-11.4858
齊主	-11.4858
邑令	-11.4859
賊黨	-11.4859
索倫	-11.4861
在彼	-11.4862
在北	-11.4862
不任	-11.4862
郢州	-11.4864
無厭	-11.4864
興宗	-11.4864
致死	-11.4864
月初一日	-11.4865
則知	-11.4865
▁十一年	-11.4866
北史	-11.4867
東晉	-11.4868
南越	-11.4871
一十八	-11.4872
蘭陵	-11.4872
功成	-11.4874
大臣等	-11.4875
陕	-11.4877
吾子	-11.4877
常平倉	-11.4878
之於是	-11.488
雄州	-11.4882
串	-11.4883
作詩	-11.4883
史館	-11.4883
副元帥	-11.4885
所撰	-11.4886
三道	-11.4888
垢	-11.4889
十三年任	-11.489
當塗	-11.4891
補用	-11.4892
與此	-11.4892
招降	-11.4893
良民	-11.4895
爾哈	-11.4896
三釐	-11.4897
沔陽	-11.4897
者得	-11.4901
已見	-11.4901
號泣	-11.4902
隋唐	-11.4902
何時	-11.4904
為尚書	-11.4904
序曰	-11.4904
七釐	-11.4906
釡	-11.4907
鈕	-11.4907
乞罷	-11.4909
潼關	-11.491
億萬	-11.491
本朝乾隆	-11.4912
元帥府	-11.4913
在天	-11.4913
剝	-11.4913
餐	-11.4913
熈河	-11.4915
家有	-11.4916
一十五里	-11.4917
步騎	-11.4918
令各	-11.492
乾隆元年	-11.4921
周旋	-11.4923
末年	-11.4924
和平	-11.4924
親詣	-11.4927
▁賈	-11.4927
其學	-11.4929
无	-11.4931
泳	-11.4932
澈	-11.4932
籙	-11.4932
緇	-11.4932
大赦天下	-11.4933
易曰	-11.4933
神靈	-11.4933
計也	-11.4934
沂州	-11.4935
宣子	-11.4935
居士	-11.4936
五兩	-11.4937
鼇	-11.4938
九千	-11.4938
青苗	-11.4939
海鹽	-11.4939
河在	-11.4939
穫	-11.494
新淦	-11.494
樞宻副使	-11.494
遼主	-11.4941
不察	-11.4942
▁宋史	-11.4943
募兵	-11.4943
朝廷以	-11.4945
從來	-11.4946
臣謂	-11.4947
送至	-11.4948
李文	-11.4949
頋	-11.495
字季	-11.4951
蕭山	-11.4951
朱氏	-11.4951
水南	-11.4956
十六卷	-11.4956
自取	-11.4959
不軌	-11.4961
機務	-11.4961
舊典	-11.4962
時日	-11.4962
自以為	-11.4962
踐阼	-11.4963
夫以	-11.4964
平湖	-11.4964
原籍	-11.4965
緫	-11.4966
女也	-11.4966
行於世	-11.4969
簋	-11.4969
羔	-11.4969
也非	-11.4969
是其	-11.4971
之詔	-11.4972
賜額	-11.4973
水也	-11.4973
嘉納	-11.4974
除授	-11.4975
擯	-11.4975
一百八十里	-11.4975
九重	-11.4975
始知	-11.4976
三鎮	-11.4976
▁聖訓	-11.4977
▁是月	-11.4978
尋陽	-11.4979
故謂之	-11.4981
熒惑犯	-11.4981
意也	-11.4981
至和	-11.4983
州志	-11.4984
洛水	-11.4984
贅	-11.4987
畧曰	-11.4989
遂成	-11.4989
三朝	-11.4989
西海	-11.4994
山澤	-11.4995
起居注	-11.4995
上怒	-11.4996
叔向	-11.4996
乎且	-11.4998
未進士	-11.5001
以待之	-11.5001
巡幸	-11.5003
七十六	-11.5006
囿	-11.5006
将士	-11.5008
中牟	-11.5009
以廣	-11.5011
韓王	-11.5013
當其	-11.5013
有名	-11.5016
誤國	-11.5016
之𩔖	-11.5017
内除	-11.5017
信州	-11.5018
六十三	-11.5018
湊	-11.5018
哷	-11.5019
軟	-11.5019
厓	-11.5019
如今	-11.5019
朕甚	-11.5019
一書	-11.5023
十九日	-11.5024
三年任	-11.5024
西上	-11.5024
臼	-11.5025
戌進士	-11.5027
總制	-11.5028
錦衣衛	-11.5028
其行	-11.5029
無禮	-11.5029
士之	-11.503
琵琶	-11.5031
礟	-11.5031
故人	-11.5031
後因	-11.5032
祠祀	-11.5032
無幾	-11.5035
甚盛	-11.5036
有司奏	-11.5036
簪	-11.5037
安可	-11.504
然不	-11.504
歸併	-11.5041
南史	-11.5042
尼堪	-11.5043
文忠	-11.5044
安豐	-11.5047
而亡	-11.5049
者言	-11.5049
儒臣	-11.5049
武子	-11.5049
玘	-11.505
珽	-11.505
稹	-11.505
潁州	-11.5052
山河	-11.5052
無庸	-11.5053
軍功	-11.5053
逖	-11.5056
得雨	-11.5057
水火	-11.5058
營遊擊	-11.5058
京都	-11.5058
我朝	-11.5061
五原	-11.5061
一十里	-11.5062
不但	-11.5062
復立	-11.5063
詔㫖	-11.5064
行也	-11.5064
招集	-11.5065
一小	-11.5066
亦同	-11.5068
者所以	-11.507
故城在今	-11.507
王旦	-11.5072
王建	-11.5073
䨇	-11.5075
其前	-11.5076
物之	-11.5077
淄	-11.5078
平涼	-11.5078
此意	-11.5079
更相	-11.5081
菩薩	-11.5081
流星	-11.5083
良久	-11.5083
東阿	-11.5083
險要	-11.5086
夏州	-11.5088
幸而	-11.5088
安逺	-11.5089
忠良	-11.5089
六十二	-11.509
田宅	-11.5091
為刺史	-11.5092
致齋	-11.5092
蒲城	-11.5092
進𠞰	-11.5093
孜孜	-11.5093
承恩	-11.5094
白鶴	-11.5096
湟	-11.5096
里至	-11.5101
如果	-11.5102
日新	-11.5103
員缺	-11.5103
給發	-11.5104
李公	-11.5104
其將	-11.5104
委曲	-11.5104
兗州	-11.5105
教官	-11.5106
都水	-11.5106
媿	-11.5106
証	-11.5106
八寸	-11.5106
器用	-11.5109
躬親	-11.5111
廢弛	-11.5112
之威	-11.5113
南豐	-11.5116
祿山	-11.5117
欽若	-11.5117
名士	-11.5117
盛京	-11.5118
兼知	-11.5118
伋	-11.5118
盧龍	-11.5119
皆云	-11.5119
翕	-11.512
罵賊	-11.5123
是用	-11.5123
暘	-11.5123
叅知政事	-11.5125
長江	-11.5126
者自	-11.5126
二百九十	-11.5127
黥	-11.5127
▁十月	-11.5127
為姦	-11.5129
既定	-11.5129
琯	-11.5131
又音	-11.5131
請罷	-11.5133
二公	-11.5134
勝負	-11.5135
樂工	-11.5135
租賦	-11.514
國中	-11.5141
唐時	-11.5142
服闋	-11.5142
之死	-11.5144
合浦	-11.5146
覔	-11.515
竺	-11.5151
大防	-11.5152
甚至	-11.5153
必至	-11.5154
子夏	-11.5154
孝義	-11.5155
部院	-11.5156
誑	-11.5156
是夜	-11.5159
倘有	-11.5159
命有司	-11.5159
其失	-11.516
兩廡	-11.5161
不啻	-11.5161
天保	-11.5161
去嵗	-11.5161
邦昌	-11.5162
所未	-11.5163
每遇	-11.5165
報部	-11.5165
仞	-11.5166
為賊	-11.5166
盤山	-11.5166
端拱	-11.5166
詔有司	-11.5167
太妃	-11.5167
砥	-11.5168
附見	-11.5168
皥	-11.5169
縑	-11.5169
彘	-11.5169
創業	-11.5169
理藩院	-11.5169
朞	-11.5171
宋元	-11.5171
▁督	-11.5172
俛伏興	-11.5173
▁隋	-11.5173
絰	-11.5173
承宗	-11.5174
也是	-11.5174
藹	-11.5175
鴟	-11.5175
定為	-11.5175
世職表	-11.5176
前事	-11.5177
施於	-11.5178
北極	-11.5178
帝怒	-11.5179
釀	-11.5179
三代之	-11.518
恐非	-11.518
四年任	-11.5181
阪	-11.5181
曰何	-11.5183
憎	-11.5186
節儉	-11.5187
可惜	-11.5188
平陸	-11.5189
義陽	-11.519
督率	-11.5191
戎狄	-11.5191
消息	-11.5192
在縣治東	-11.5193
造冊	-11.5194
之戰	-11.5194
睹	-11.5194
肺	-11.5194
而知	-11.5199
著作佐郎	-11.52
升殿	-11.5202
樂府	-11.5204
去官	-11.5205
董卓	-11.5207
賜金	-11.5209
並進	-11.5209
豈敢	-11.5209
本意	-11.5211
之精	-11.5212
劉裕	-11.5212
神農	-11.5213
谷水	-11.5213
其形	-11.5215
義兵	-11.5216
之急	-11.5216
者許	-11.5216
外藩	-11.5216
縣侯	-11.5219
州北	-11.5221
北斗	-11.5226
濟北	-11.5229
逢吉	-11.523
皋	-11.5232
句容	-11.5233
漳水	-11.5234
白虎	-11.5234
在州北	-11.5239
吳江	-11.5239
順治元年	-11.5241
伊川	-11.5241
賊勢	-11.5243
招討	-11.5243
項王	-11.5244
光禄卿	-11.5245
賢人	-11.5245
見殺	-11.5246
㑹于	-11.5246
贊者	-11.5247
乞歸	-11.5247
呼為	-11.5248
秩滿	-11.5249
明州	-11.5251
有記	-11.5252
社倉	-11.5255
入焉	-11.5255
易於	-11.5256
翕然	-11.5256
即於	-11.5256
金國	-11.5258
永初	-11.5258
大雪	-11.5259
此所謂	-11.526
朱全忠	-11.526
水注之	-11.5263
則當	-11.5263
七十八	-11.5263
却之	-11.5264
金州	-11.5267
避之	-11.5267
個	-11.5268
郴	-11.5268
一則	-11.5269
大敗之	-11.5269
獄訟	-11.527
搭	-11.527
盩厔	-11.527
現係	-11.5271
福晉	-11.5271
齊國	-11.5273
茶鹽	-11.5274
賜號	-11.5274
盞	-11.5277
祭天	-11.5277
僚屬	-11.5279
魯國	-11.5281
降指揮	-11.5282
嫂	-11.5283
炊	-11.5283
光州	-11.5284
非不	-11.5286
然猶	-11.5286
職名	-11.5287
者若	-11.5287
徒以	-11.5288
本道	-11.5288
甯	-11.5289
醒	-11.5289
者以為	-11.5291
扵是	-11.5292
為帝	-11.5294
與李	-11.5295
之族	-11.5295
里南北距	-11.5295
晡	-11.5296
伐宋	-11.5296
以為常	-11.5298
季氏	-11.5298
埭	-11.5298
哀毁	-11.5299
不急	-11.53
南鄭	-11.53
引水	-11.53
官者	-11.5302
沿河	-11.5303
監門	-11.5303
六十年	-11.5305
此為	-11.5305
夷人	-11.5306
景福	-11.5306
公祠	-11.5307
后妃	-11.5307
未婚	-11.5307
或問	-11.5309
濟河	-11.531
民情	-11.5311
將校	-11.5311
罷兵	-11.5313
七年任	-11.5314
集一卷	-11.5314
十七年任	-11.5314
以其地	-11.5314
所記	-11.5317
經厯	-11.5318
西城	-11.532
言臣	-11.5321
㢤	-11.5321
阿睦爾撒納	-11.5321
或因	-11.5322
天時	-11.5323
方物	-11.5324
汾陽	-11.5326
無此	-11.5326
亦不可	-11.5327
夫卒	-11.5328
扉	-11.5328
碉	-11.5328
六十一	-11.5331
無恙	-11.5333
試之	-11.5334
事畢	-11.5334
其手	-11.5335
前世	-11.5335
陸拾	-11.5336
東道	-11.5336
大吏	-11.5336
臨事	-11.5337
之深	-11.534
桓温	-11.5341
嶧	-11.5341
衾	-11.5341
賊至	-11.5341
非其人	-11.5343
徳明	-11.5345
大辟	-11.5347
篋	-11.5347
樂奏	-11.5348
物也	-11.5351
海運	-11.5352
赴行在	-11.5352
劾奏	-11.5353
拭	-11.5354
糞	-11.5354
秦秦	-11.5356
年十七	-11.5356
萬邦	-11.5357
以制	-11.5357
方略	-11.5358
吕氏	-11.5359
愛其	-11.536
祼	-11.536
還京	-11.5361
無足	-11.5362
鄜	-11.5363
烏程	-11.5364
有警	-11.5366
縣名	-11.5366
譎	-11.5366
欲自	-11.5367
何益	-11.5368
九卷	-11.5371
河橋	-11.5371
皆稱	-11.5372
撞	-11.5373
杉	-11.5373
失利	-11.5373
奉御	-11.5373
臨御	-11.5373
五臺	-11.5375
新野	-11.5376
復設	-11.5376
二年三月	-11.5377
右諫議大夫	-11.5377
有年	-11.5378
仰祈	-11.5379
晉國	-11.5381
其處	-11.5383
屬員	-11.5384
二部	-11.5384
易州	-11.5386
取㫖	-11.5388
表請	-11.5391
收貯	-11.5392
六員	-11.5392
南斗	-11.5393
者是	-11.5394
山寺	-11.5396
儒林	-11.5397
歎息	-11.5397
畏之	-11.5398
保寧	-11.5399
魏公	-11.5399
出境	-11.5401
再加	-11.5402
上親	-11.5402
西漢	-11.5403
皆以為	-11.5403
折衝	-11.5405
趕	-11.5405
要地	-11.5405
二十五日	-11.5406
濠州	-11.5407
秘書監	-11.5407
堯舜之	-11.5409
欣然	-11.541
呉王	-11.541
宿遷	-11.5411
四路	-11.5412
同中書門下平章事	-11.5412
似道	-11.5412
供給	-11.5412
簽書	-11.5414
黒龍江	-11.5415
以觀	-11.5416
卿大夫	-11.5416
三巻	-11.5416
象山	-11.5417
辰州	-11.5419
葉爾羌	-11.5425
舊章	-11.5426
散騎	-11.5426
治水	-11.5426
一千四百	-11.5427
馬氏	-11.5428
並依	-11.5429
兩三錢	-11.543
大寧	-11.543
江漢	-11.543
譟	-11.543
耄	-11.5431
詮	-11.5431
詔獄	-11.5433
公服	-11.5434
禮直官	-11.5434
犁	-11.5436
陽太守	-11.5436
上御	-11.5437
髦	-11.5437
絀	-11.5437
酌獻	-11.5438
字君	-11.5443
領縣	-11.5444
啖	-11.5444
果能	-11.5444
沁水	-11.5444
臣願陛下	-11.5444
奪之	-11.5446
寧府	-11.5448
人之所	-11.5448
未有不	-11.545
弋陽	-11.545
屬縣	-11.545
里自界首至	-11.545
齧	-11.545
須臾	-11.5451
開濬	-11.5452
姓氏	-11.5453
九寸	-11.5453
工夫	-11.5456
獨孤	-11.5457
憩	-11.5457
自此始	-11.5457
裴度	-11.5459
兼侍中	-11.546
無非	-11.5461
嬉	-11.5463
眇	-11.5463
鍊	-11.5463
令丞	-11.5464
嚴禁	-11.5465
凡六	-11.5465
十六人	-11.5466
鄜州	-11.5466
貢方物	-11.5468
雲氣	-11.5468
媳	-11.547
病故	-11.547
失於	-11.5472
太中大夫	-11.5473
悉平	-11.5473
蕃部	-11.5475
原任筆帖式	-11.5476
袴	-11.5476
淮北	-11.5476
周室	-11.5477
西曰	-11.5477
失守	-11.5478
國主	-11.5478
畿内	-11.5481
之比	-11.5482
呉興	-11.5482
鈍	-11.5483
從軍	-11.5483
不負	-11.5484
以父	-11.5487
在府城西	-11.5488
回鶻	-11.5492
水上	-11.5492
魏博	-11.5494
韶州	-11.5494
先天	-11.5494
都元帥	-11.5494
天祚	-11.5495
遵照	-11.5497
州總管	-11.5497
第九	-11.5497
四十三年	-11.5498
初屬	-11.5498
▁大夫	-11.5499
娛	-11.5503
鞠躬	-11.5505
分水	-11.5506
十四卷	-11.5506
臯陶	-11.5506
事親	-11.5507
故有是命	-11.5508
馳驛	-11.5509
賞之	-11.5509
副将	-11.5511
國政	-11.5512
示以	-11.5514
不附	-11.5515
譁	-11.5516
沴	-11.5516
之不可	-11.5516
丹墀	-11.5518
德宗	-11.5518
苦之	-11.5521
瑤	-11.5522
二年四月	-11.5523
田畝	-11.5525
將此	-11.5525
文義	-11.5526
原設	-11.5526
幘	-11.5528
身死	-11.5528
昺	-11.5529
俘獲	-11.5529
防禦使	-11.553
川陜	-11.553
南昌人	-11.553
東安	-11.5531
保障	-11.5531
漢末	-11.5533
照數	-11.5533
龍溪	-11.5541
刄	-11.5542
梓潼	-11.5543
刑法	-11.5546
為國家	-11.5547
掃除	-11.5547
鯨	-11.5548
利之	-11.5548
景定	-11.555
作何	-11.5552
初無	-11.5552
轉輸	-11.5552
鴻臚寺	-11.5552
割地	-11.5552
又命	-11.5553
興州	-11.5554
使天下	-11.5555
皇城	-11.5557
給銀	-11.5559
萬一千	-11.5559
兩府	-11.556
吉安	-11.5564
議准	-11.5564
十年任	-11.5565
次於	-11.5566
明詔	-11.5567
太子少保	-11.5567
曰天下	-11.5567
煉	-11.5571
五品以上	-11.5573
胡氏	-11.5573
之由	-11.5573
搗	-11.5575
供職	-11.5575
法駕	-11.5576
開禧	-11.5576
錢物	-11.5577
東下	-11.5579
魏郡	-11.5583
歸化	-11.5583
聖主	-11.5584
睢陽	-11.5584
有子	-11.5585
竊見	-11.5587
變而	-11.5587
濃	-11.5588
蓼	-11.5588
長於	-11.5588
水東	-11.5588
三次	-11.5592
還朝	-11.5592
明主	-11.5592
為南	-11.5593
其大	-11.5593
繚	-11.5594
如意	-11.5594
餼	-11.5594
眩	-11.5594
不竭	-11.5595
軍於	-11.5595
來注之	-11.5597
衛士	-11.5598
元兵	-11.5599
無論	-11.5599
屨	-11.5601
可取	-11.5603
讀之	-11.5603
使司	-11.5606
妬	-11.5607
柰何	-11.5608
伏望聖慈	-11.5608
三年二月	-11.5608
堂官	-11.5609
困於	-11.561
王孫	-11.5613
有闕	-11.5615
其軍	-11.5617
▁熊	-11.5618
月食	-11.5618
四兩	-11.5619
十四年任	-11.562
忠節	-11.562
智者	-11.5621
人進	-11.5622
喜曰	-11.5623
管河	-11.5623
軍興	-11.5624
著字	-11.5625
又欲	-11.5626
重者	-11.5627
水道	-11.5628
餘慶	-11.5628
六十九	-11.5629
宰桑	-11.5629
滔	-11.5629
為法	-11.563
宫觀	-11.563
舊設	-11.563
崇仁	-11.5631
肄	-11.5631
才能	-11.5633
十有三	-11.5635
震澤	-11.5637
故址	-11.564
大道	-11.5641
二年任	-11.5641
䕶軍統領	-11.5642
請命	-11.5643
世隆	-11.5645
三原	-11.5645
一案	-11.5645
於心	-11.5646
兩人	-11.5646
温泉	-11.5646
不得過	-11.5647
欲其	-11.5648
詔賜	-11.5649
十萬石	-11.5649
▁鄒	-11.5649
國體	-11.565
惡其	-11.5653
汴州	-11.5655
改作	-11.5655
存焉	-11.5655
邳	-11.5656
猶不	-11.5657
㸃檢	-11.5657
也後	-11.5657
為庶人	-11.5657
▁丞	-11.5658
湖口	-11.5658
相同	-11.5661
不經	-11.5661
棄市	-11.5662
横山	-11.5664
馬頭	-11.5667
配天	-11.5669
謝曰	-11.567
乗馬	-11.567
犯者	-11.5671
當年	-11.5672
賢才	-11.5672
設伏	-11.5673
二百一十	-11.5673
死不	-11.5674
漢魏	-11.5676
别無	-11.568
瀉	-11.568
李侍堯	-11.568
故吏	-11.568
隠居	-11.5681
固不	-11.5683
徙治	-11.5685
文侯	-11.5685
務在	-11.5686
氓	-11.5687
陸路	-11.5688
詔從之	-11.5691
千八百	-11.5693
飲之	-11.5693
手書	-11.5694
進用	-11.5695
寺僧	-11.5698
身為	-11.57
縗	-11.57
永清	-11.57
後殿	-11.5701
七十三	-11.5701
於地	-11.5702
䕫州	-11.5705
可嘉	-11.5706
大德	-11.5708
論議	-11.571
有加	-11.5711
利用	-11.5711
哈密	-11.5712
雹	-11.5714
論功	-11.5715
出于	-11.5716
卿士	-11.5717
敬謹	-11.5718
常青	-11.5718
有變	-11.5718
蜂	-11.5719
秦人	-11.5719
歸國	-11.572
名實	-11.572
陬	-11.572
▁聞謹	-11.5721
政府	-11.5725
即有	-11.5725
庥	-11.5727
疵	-11.5727
豊	-11.5727
一水	-11.573
兵圍	-11.573
傷人	-11.573
疏奏	-11.5732
謀殺	-11.5732
每歲	-11.5732
此外	-11.5733
恰	-11.5734
君也	-11.5734
不答	-11.5734
之序	-11.5736
旌旗	-11.5736
真君	-11.5738
穆爾	-11.5738
延壽	-11.5738
斟	-11.5739
北邊	-11.574
思明	-11.5744
賢曰	-11.5745
明安	-11.5746
煌	-11.5746
南境	-11.5746
罷歸	-11.5746
厠	-11.5747
山陰	-11.5747
懐逺	-11.5747
虚實	-11.5748
承襲詳	-11.5748
散官	-11.5749
協力	-11.575
恐有	-11.5751
卒以	-11.5751
於河	-11.5751
人性	-11.5752
鄣	-11.5754
忠武	-11.5756
優劣	-11.5756
中下	-11.5757
辰進士	-11.5758
當今	-11.5759
大祀	-11.576
公使	-11.576
彫	-11.576
蟄	-11.576
端明殿學士	-11.576
祠在	-11.5764
外其餘	-11.5765
平人	-11.5767
不作	-11.5767
邳州	-11.5767
靈山	-11.577
曲直	-11.5772
憚之	-11.5772
八十五	-11.5773
而不得	-11.5773
占城	-11.5773
良知	-11.5773
▁十二年	-11.5774
族人	-11.5776
相視	-11.5776
所論	-11.5777
舊法	-11.5777
章奏	-11.578
皇極	-11.5782
郡地	-11.5784
終身不	-11.5785
三百餘	-11.5785
古城	-11.5785
坐事	-11.5786
討論	-11.5786
遷延	-11.5787
精鋭	-11.5788
舂	-11.5789
百五十里	-11.579
▁鍾	-11.5791
問罪	-11.5791
哈宻	-11.5793
其源	-11.5793
平陵	-11.5794
間任	-11.5794
塾	-11.5794
妻呉氏	-11.5795
鳯陽	-11.5796
趙州	-11.5796
肄業	-11.5797
不孝	-11.5797
兗	-11.5798
丁謂	-11.5799
珉	-11.5801
六年任	-11.5801
伏念	-11.5801
誠能	-11.5802
李光	-11.5803
城堡	-11.5803
雁門	-11.5804
年六十	-11.5805
立石	-11.5811
貴溪	-11.5813
千牛	-11.5813
百官志	-11.5813
大雅	-11.5814
忒	-11.5814
殽	-11.5814
在府城南	-11.5814
載之	-11.5816
開平	-11.5816
道里	-11.5818
樂舞	-11.5818
▁毛	-11.5819
勾當	-11.5819
光化	-11.582
武帝時	-11.5821
鬯	-11.5821
煖	-11.5821
唐開元	-11.5822
姑洗	-11.5825
中央	-11.5827
蹲	-11.5828
所存	-11.5828
也按	-11.5829
咽	-11.5834
兩山	-11.5835
商旅	-11.5835
二兩	-11.5835
慶之	-11.5835
焚香	-11.5836
山後	-11.5837
長生	-11.5837
▁皇祖	-11.5838
㑹典	-11.5838
交結	-11.5839
安都	-11.584
殿門	-11.5841
節婦	-11.5841
事勢	-11.5845
及是	-11.5845
僱	-11.5848
召試	-11.5848
鹽池	-11.5849
徳音	-11.585
所議	-11.585
水漲	-11.5851
顯祖	-11.5852
圎	-11.5855
濼	-11.5855
鹽井	-11.5855
府人	-11.5856
百石	-11.5856
講讀	-11.5857
小字	-11.5857
栅	-11.5861
麤	-11.5861
偪	-11.5861
烈祖	-11.5862
任使	-11.5862
觀者	-11.5863
黒水	-11.5863
官皆	-11.5863
執爵	-11.5864
卒諡	-11.5865
其二	-11.5866
仰體	-11.5867
賜宴	-11.5867
曰寡人	-11.5868
鼓舞	-11.5868
開寶	-11.5868
萬世之	-11.5869
朕以	-11.587
成化間	-11.5872
大半	-11.5872
平糶	-11.5873
十五萬	-11.5874
驂	-11.5875
嘉善	-11.5875
四十四年	-11.5877
漕河	-11.588
荼	-11.5881
嫗	-11.5882
十步	-11.5882
不煩	-11.5882
大駕	-11.5883
府長史	-11.5884
得此	-11.5884
小餘	-11.5885
簿書	-11.5886
陽平	-11.5887
英雄	-11.5887
字彦	-11.5887
自安	-11.5888
遂入	-11.5891
沿革	-11.5891
將何	-11.5893
一見	-11.5893
並以	-11.5895
不離	-11.5896
乃召	-11.5896
扎布	-11.5898
七廟	-11.5898
此數	-11.5899
之意也	-11.59
謚曰	-11.59
恤民	-11.5901
弇	-11.5901
誰能	-11.5902
之耳	-11.5905
傳之	-11.5905
二聖	-11.5907
袁紹	-11.5908
塌	-11.5909
調發	-11.591
光宗	-11.5912
初六日	-11.5912
范蠡	-11.5913
欲求	-11.5913
翥	-11.5916
鑠	-11.5916
分給	-11.5917
逰擊	-11.592
行書	-11.5924
奉禮	-11.5925
是否	-11.5925
菑	-11.5925
甚有	-11.5926
西岸	-11.5926
若能	-11.5926
四年正月	-11.5927
其狀	-11.5927
入學	-11.5927
▁奏明	-11.5927
天徳	-11.5928
菱	-11.5929
浮屠	-11.593
▁丹	-11.5932
看得	-11.5932
十畝	-11.5933
謁者引	-11.5933
仿	-11.5936
附於	-11.5937
贊曰	-11.5938
成周	-11.5939
威武	-11.5939
不順	-11.594
荆襄	-11.5941
籬	-11.5942
七十七	-11.5943
豚	-11.5943
一千八百	-11.5944
家語	-11.5944
房屋	-11.5946
南北朝	-11.5949
析置	-11.5951
之父	-11.5952
鄞人	-11.5954
▁學士	-11.5954
未安	-11.5954
有犯	-11.5954
與兄	-11.5955
唐人	-11.5956
芹	-11.5956
延平	-11.5957
二十八日	-11.5959
白帝	-11.5959
所定	-11.5961
上方	-11.5962
邛	-11.5963
供奉官	-11.5964
起居郎	-11.5964
仁和人	-11.5964
東曰	-11.5965
又加	-11.5967
昊天	-11.5967
並用	-11.5968
卷十	-11.5969
斐	-11.597
在郡	-11.5971
以祀	-11.5971
存之	-11.5971
武陽	-11.5973
將領	-11.5974
非獨	-11.5974
下士	-11.5976
宗廟社稷	-11.5976
門生	-11.5977
0	-11.5977
之親	-11.5977
録一卷	-11.5981
吳縣人	-11.5982
債	-11.5984
児	-11.5984
南流入	-11.5985
孳	-11.5987
奉祠	-11.5988
宋初	-11.599
十餘日	-11.599
養馬	-11.5991
巍	-11.5992
天和	-11.5992
集二卷	-11.5993
矣且	-11.5994
大潰	-11.5995
務期	-11.5996
秀才	-11.5997
詈	-11.5997
今在	-11.6
少退	-11.6001
夜郎	-11.6002
凡遇	-11.6002
簮	-11.6004
嗟乎	-11.6005
▁解題曰	-11.6005
饑饉	-11.6006
任用	-11.6006
疏濬	-11.6007
早卒	-11.6007
道人	-11.6009
龍興	-11.601
海門	-11.601
八品	-11.6011
不能盡	-11.6011
理志	-11.6011
隨征	-11.6012
已行	-11.6012
於楚	-11.6015
晉陵	-11.6016
緊要	-11.6016
魏武	-11.6017
印務	-11.6018
珥	-11.6018
觶	-11.6018
痕	-11.6018
交部	-11.6019
文臣	-11.6019
數丈	-11.6022
錐	-11.6025
計議	-11.6026
于時	-11.6026
復見	-11.6026
未備	-11.6028
寧人	-11.6028
等俱	-11.6029
業經	-11.6029
神之	-11.603
攢	-11.6032
螭	-11.6032
躬行	-11.6033
太史公	-11.6035
世民	-11.6036
新昌	-11.6036
聞見	-11.6039
威福	-11.604
當日	-11.6041
錮	-11.6042
唐貞觀	-11.6045
茍且	-11.6045
九十六	-11.6051
郃	-11.6051
覺察	-11.6052
賜錢	-11.6052
魯人	-11.6053
可疑	-11.6054
遵守	-11.6055
䕶軍叅領	-11.6055
不殺	-11.6056
多事	-11.6057
呌	-11.6059
唐之	-11.606
阿克蘇	-11.6062
不可用	-11.6063
諸暨	-11.6064
賴以	-11.6065
硃	-11.6066
十五年任	-11.6067
把總一員	-11.6069
聽之	-11.6069
怨望	-11.607
昆明	-11.607
鄢	-11.6071
漢時	-11.6071
玉山	-11.6071
急務	-11.6074
五百餘	-11.6074
相攻	-11.6075
之務	-11.6075
昭明	-11.6075
可得而	-11.6077
乘馬	-11.6077
魏氏	-11.6077
媯	-11.608
胷	-11.608
弓箭	-11.6081
大政	-11.6081
多羅	-11.6081
秘書	-11.6084
瞰	-11.6084
巴東	-11.6084
至意	-11.6087
軍至	-11.6087
諭之曰	-11.6087
甚重	-11.6088
居其	-11.6088
十二年任	-11.6089
中人	-11.609
縉雲	-11.609
世傑	-11.6092
郡廢	-11.6093
圏	-11.6094
牝	-11.6094
乎對曰	-11.6096
各員	-11.6096
邕州	-11.6097
民以	-11.6097
宣政	-11.61
禳	-11.6101
而作	-11.6103
唐書地理志	-11.6103
已來	-11.6104
周氏	-11.6104
義士	-11.6105
十六年任	-11.6106
慶陽	-11.6106
贖罪	-11.6108
㝢	-11.6108
孟康曰	-11.6108
莫大於	-11.6109
加封	-11.6109
安在	-11.6111
遣還	-11.6113
姓也	-11.6113
自首	-11.6114
秃	-11.6115
劉光世	-11.6116
稍遷	-11.6117
亦在	-11.6119
所陳	-11.6122
至孝	-11.6124
夫死	-11.6124
所掠	-11.6126
戸口	-11.6132
積年	-11.6133
蔚州	-11.6133
所需	-11.6133
薩哈	-11.6135
據此	-11.6135
進曰	-11.6135
所舉	-11.6136
琉璃	-11.6136
者照	-11.6136
計其	-11.6137
嵗餘	-11.6138
貢士	-11.6138
治民	-11.6139
而取	-11.614
有九	-11.614
所管	-11.6141
比年	-11.6141
厥後	-11.6142
彭澤	-11.6142
楚國	-11.6145
太初	-11.6146
一統	-11.6146
十三卷	-11.6146
兖州刺史	-11.6147
犍為	-11.6147
廿	-11.6149
碑文	-11.615
曹公	-11.6151
魯公	-11.6152
攻圍	-11.6154
在縣治	-11.6154
浣	-11.6156
五十人	-11.6158
慶府	-11.6158
隋文帝	-11.616
小心	-11.6162
淸	-11.6163
紡績	-11.6164
所入	-11.6164
言行	-11.6165
浙省	-11.6165
注於	-11.6167
功業	-11.6169
朕躬	-11.6169
從父	-11.6171
揚雄	-11.6171
溧水	-11.6172
金錢	-11.6173
羣小	-11.6174
祖考	-11.6177
以賜	-11.618
金谿	-11.618
額設	-11.6182
一千六百	-11.6183
汾隂	-11.6183
壽春	-11.6184
如之何	-11.6184
方士	-11.6185
東岸	-11.6185
醫藥	-11.6186
▁原額	-11.6188
自經	-11.619
義烏	-11.619
過之	-11.6191
▁品	-11.6192
隨之	-11.6192
過半	-11.6193
不守	-11.6193
廣昌	-11.6195
日本	-11.6195
泯	-11.6198
二年改	-11.6198
仁孝	-11.6199
過此	-11.62
文成	-11.6202
行伍	-11.6203
一物	-11.6204
又無	-11.6205
鬰	-11.6205
莫知	-11.6206
萬貫	-11.6206
浮圖	-11.6207
甚大	-11.6207
感動	-11.6209
二十一日	-11.6209
次于	-11.6209
參差	-11.621
入河	-11.6212
内殿	-11.6214
隨行	-11.6214
四子	-11.6215
降為	-11.6216
重慶	-11.6219
祝史	-11.6221
死節	-11.6221
昭帝	-11.6224
巨石	-11.6224
疏曰	-11.6224
朕所	-11.6224
自昔	-11.6225
照磨	-11.6225
鉦	-11.6226
隱居	-11.6226
岐山	-11.6228
以此為	-11.623
太學生	-11.6233
鞾	-11.6233
曰吾聞	-11.6235
生徒	-11.6235
之母	-11.6236
寡君	-11.6236
紓	-11.6237
其禮	-11.6238
所費	-11.6239
併力	-11.624
故以其子	-11.624
當差	-11.6241
來攻	-11.6241
旗幟	-11.6242
母病	-11.6244
於庭	-11.6244
營伍	-11.6245
千兩	-11.6245
典籍	-11.6246
菽	-11.6246
步兵	-11.6248
千年	-11.6248
舊為	-11.625
二千人	-11.625
不無	-11.6251
者蓋	-11.6252
四丈	-11.6253
親信	-11.6254
𠂻	-11.6254
異也	-11.6254
卡倫	-11.6256
中立	-11.6256
亦難	-11.6257
分明	-11.6259
秉公	-11.6259
視朝	-11.626
築堤	-11.6261
▁四月	-11.6261
不即	-11.6263
三百二十	-11.6264
闗係	-11.6264
春風	-11.6265
霍光	-11.6268
建業	-11.6269
應詔	-11.6272
圍城	-11.6274
元年四月	-11.6274
王后	-11.6275
本院	-11.6276
燕趙	-11.6277
登科	-11.6278
東行	-11.6278
新都	-11.6278
賜姓	-11.6278
谷口	-11.6279
赤城	-11.628
削去	-11.6282
京兆府	-11.6282
照依	-11.6283
不屈死	-11.6284
自漢	-11.6286
能以	-11.6288
棹	-11.629
寧國	-11.6293
也哉	-11.6294
王肅	-11.6295
十八年任	-11.6297
一十七	-11.6297
有白	-11.6297
之詞	-11.6298
不到	-11.6299
乃為	-11.63
甚者	-11.63
請令	-11.6303
戰士	-11.6305
重於	-11.6306
南漢	-11.6307
鄭𤣥	-11.6308
藺	-11.6311
灋	-11.6311
字徳	-11.6311
某人	-11.6312
雍熙	-11.6313
威名	-11.6314
謂宜	-11.6314
之以為	-11.6316
運米	-11.6316
珮	-11.6318
生平	-11.632
雅爾	-11.6321
襄子	-11.6321
人主之	-11.6321
務令	-11.6321
回紇	-11.6322
杜門	-11.6323
監丞	-11.6323
嗣立	-11.6324
迓	-11.6325
諸蠻	-11.6327
定邊	-11.6329
十五名	-11.6329
三郡	-11.6332
髠	-11.6332
値	-11.6332
邦國	-11.6332
鑑修	-11.6333
撥給	-11.6335
每一	-11.6336
潼川	-11.6337
遺書	-11.6337
夫差	-11.6339
耒	-11.634
元氣	-11.6341
郴州	-11.6342
人生	-11.6342
自若	-11.6345
之未	-11.6345
陳於	-11.6346
烈女	-11.6346
攔	-11.6346
耐	-11.6346
入寇	-11.6346
陳奏	-11.6346
可畏	-11.6347
擢為	-11.6349
山上有	-11.6349
天生	-11.6349
之乎	-11.635
盛典	-11.6351
中置	-11.6352
妄言	-11.6353
凜	-11.6353
兵三千	-11.6354
郡國志	-11.6355
▁是日	-11.6355
淮南王	-11.6357
前奏	-11.6357
石為	-11.6357
妻妾	-11.6358
武庫	-11.636
珩	-11.6361
孟津	-11.6362
鏐	-11.6362
滋生	-11.6362
蘇秦	-11.6362
可以為	-11.6364
梁主	-11.6365
壹千	-11.6365
僖宗	-11.6366
龜山	-11.6366
2	-11.6368
飼	-11.6368
舊在	-11.6369
該管官	-11.6369
▁七月	-11.6369
又使	-11.637
以本	-11.6371
唐武徳	-11.6372
世為	-11.6373
調遣	-11.6374
進討	-11.6375
雖多	-11.6376
三十餘年	-11.6376
召入	-11.6376
築隄	-11.6376
徐氏	-11.6378
凱旋	-11.6378
乞降	-11.6378
尚多	-11.6379
水北	-11.638
也凡	-11.638
若非	-11.638
又作	-11.6381
貞女	-11.6383
人由	-11.6384
内監	-11.6384
一十三	-11.6384
婺源	-11.6387
石鼓	-11.6387
江海	-11.6388
六百石	-11.6391
書成	-11.6392
者豈	-11.6392
黄水	-11.6393
朩	-11.6396
沱	-11.6396
宣示	-11.6397
横行	-11.6397
又問	-11.6398
古制	-11.6398
水在	-11.6399
顯慶	-11.6399
云爾	-11.64
里有	-11.64
十兩	-11.64
者宜	-11.6401
開成	-11.6402
闘	-11.6403
舊浙江通志	-11.6403
明昌	-11.6405
壯丁	-11.6407
北軍	-11.6408
之誅	-11.6409
時時	-11.641
廷試	-11.641
麽	-11.641
神功	-11.6411
▁度使	-11.6412
接界	-11.6412
羣盜	-11.6415
人口	-11.6416
移治	-11.6417
皇孫	-11.6417
間以	-11.6417
各府	-11.6419
▁虞	-11.6419
鍾山	-11.642
遇事	-11.6422
水流	-11.6422
東門外	-11.6422
不設	-11.6424
移咨	-11.6425
華容	-11.6426
考滿	-11.6426
邊防	-11.6427
甚於	-11.6428
事多	-11.643
治國	-11.6431
碾	-11.6432
脇	-11.6432
菲	-11.6432
齊集	-11.6434
縝	-11.6436
河防	-11.6437
精騎	-11.6438
仙居	-11.6439
屛	-11.6439
鯀	-11.6439
又從	-11.6443
以降	-11.6444
仍為	-11.6445
東西二	-11.6445
注于	-11.6445
頭山	-11.6445
修復	-11.6445
凡此	-11.6446
太白晝見	-11.6446
六曰	-11.6446
領州	-11.6448
副都御史	-11.6449
有光	-11.645
雨澤	-11.6451
稱善	-11.6451
臣雖	-11.6452
子男	-11.6452
▁睿	-11.6453
西征	-11.6453
郎將	-11.6453
後患	-11.6454
之基	-11.6454
太山	-11.6455
蒼生	-11.6456
境上	-11.6456
委以	-11.6458
有意	-11.646
洛陽人	-11.646
淩	-11.6461
灤	-11.6463
豫省	-11.6467
紹定	-11.6467
文宣	-11.6468
慶歴	-11.647
不和	-11.647
相機	-11.6473
撫綏	-11.6474
攻取	-11.6475
臨軒	-11.6476
賑恤	-11.6479
筋	-11.648
支河	-11.6481
則非	-11.6481
鎮國	-11.6482
甲士	-11.6482
先入	-11.6483
序立	-11.6483
國子博士	-11.6484
鎮江府	-11.6484
貞觀元年	-11.6486
有限	-11.6486
厲公	-11.6486
方可	-11.6487
連山	-11.6487
城垣	-11.6489
王廷	-11.649
髙昌	-11.6491
欺罔	-11.6491
一斤	-11.6493
解送	-11.6495
采石	-11.6496
月十五日	-11.6496
冤	-11.6497
進貢	-11.6497
西北流	-11.6497
致之	-11.6497
婚姻	-11.6497
四明	-11.6498
東注	-11.6499
温公	-11.65
毋庸	-11.6502
承嗣	-11.6502
創建	-11.6502
有何	-11.6504
宇宙	-11.6504
一代	-11.6506
無患	-11.6507
鶻	-11.6508
不多	-11.6508
▁皇清	-11.6508
河中府	-11.6509
澧州	-11.6511
三百八十	-11.6513
史氏	-11.6514
不中	-11.6518
卬	-11.6518
廟碑	-11.6518
此碑	-11.6519
咫尺	-11.6519
冊寳	-11.652
初建	-11.6522
以象	-11.6523
勇士	-11.6524
疏入	-11.6525
封建	-11.6525
䋲	-11.6525
魏州	-11.6526
副總兵	-11.6526
率土	-11.6528
不均	-11.653
南道	-11.6533
建置	-11.6533
為嗣	-11.6534
銘曰	-11.6535
民困	-11.6535
兩朝	-11.6536
何罪	-11.6536
利也	-11.6539
徳化	-11.6539
帝遣	-11.6541
有序	-11.6543
江中	-11.6544
玷	-11.6547
僅存	-11.6548
程子	-11.6548
擇日	-11.6548
商量	-11.655
五世	-11.6552
為太	-11.6552
勞績	-11.6553
無用	-11.6553
榷	-11.6554
之喪	-11.6555
七星	-11.6555
左都御史	-11.6556
二十四日	-11.6556
考察	-11.6556
乾祐	-11.6556
聖母	-11.6557
大聖	-11.6557
在大	-11.6559
松潘	-11.6561
一百三十里	-11.6561
利病	-11.6562
蹄	-11.6563
宋建	-11.6564
遂致	-11.6564
無愧	-11.6566
三川	-11.6567
代為	-11.6568
萬頃	-11.657
僉書	-11.657
律吕	-11.657
兵二千	-11.6571
在後	-11.6571
麗水	-11.6571
美人	-11.6572
麋	-11.6573
伏祈	-11.6573
詔自今	-11.6573
九十九	-11.6574
辭以	-11.6575
即可	-11.6576
宵旰	-11.6576
免役	-11.6577
固當	-11.658
名勝志	-11.658
為難	-11.658
隴州	-11.658
明洪武初	-11.6582
公言	-11.6583
而况	-11.6584
馬歩	-11.6586
害民	-11.6586
和卓	-11.6587
賢否	-11.659
統之	-11.659
書籍	-11.6592
不詳	-11.6593
議以	-11.6593
憂之	-11.6594
孝公	-11.6598
辨其	-11.6598
攅	-11.6598
涂	-11.6598
掇	-11.6598
白居易	-11.6598
之端	-11.6599
上曰朕	-11.66
未可知	-11.66
言官	-11.66
二年五月	-11.6601
狄道	-11.6601
竊以	-11.6602
攻破	-11.6604
進至	-11.6604
新豐	-11.6604
阼階	-11.6611
即墨	-11.6611
垓	-11.6612
猖獗	-11.6613
置司	-11.6615
嘉泰	-11.6615
鎮州	-11.6616
斗門	-11.6616
招之	-11.6617
其流	-11.6617
石泉	-11.6617
天眷	-11.6618
▁十四年	-11.6618
帕	-11.662
絮	-11.662
耦	-11.662
為郎	-11.662
顯宗	-11.6621
其業	-11.6622
府尹	-11.6623
侍立	-11.6623
阿拉	-11.6623
前書	-11.6623
北四十里	-11.6624
鴻臚	-11.6626
經籍	-11.6626
現今	-11.6627
▁世宗憲皇帝	-11.6627
曵	-11.6627
死子	-11.6628
白日	-11.6629
悼公	-11.663
懼而	-11.6631
國號	-11.6631
案此	-11.6632
祈禱	-11.6633
𨼆	-11.6634
倨	-11.6634
女直	-11.6637
糧草	-11.6638
請和	-11.6639
遷徙	-11.664
集古	-11.6641
貴戚	-11.6641
竒之	-11.6642
晰	-11.6642
兼侍讀	-11.6644
錢帛	-11.6645
季子	-11.6646
導引	-11.6646
敵兵	-11.6647
三千餘	-11.6648
集二十卷	-11.665
戒之	-11.6652
許以	-11.6654
該撫	-11.6655
學術	-11.6655
大人	-11.6657
喪服	-11.6657
請行	-11.6657
不能用	-11.6657
揚子	-11.6657
安吉	-11.6658
館閣	-11.6659
遂有	-11.6659
呼曰	-11.6659
為秦	-11.6659
萬厯中	-11.666
知有	-11.6661
祠廟	-11.6663
棉	-11.6664
𠡠	-11.6664
膏腴	-11.6664
長平	-11.6665
齊桓公	-11.6666
鄂爾	-11.6667
姦臣	-11.667
第三子	-11.667
蒯	-11.6671
衍聖公	-11.6671
好生	-11.6672
為宰相	-11.6672
復與	-11.6672
黄鐘	-11.6672
州學	-11.6673
年十六	-11.6674
為後	-11.6675
妥協	-11.6676
以勸	-11.6677
营	-11.6678
廆	-11.6678
曰不可	-11.6679
兼轄	-11.6679
官有	-11.668
事情	-11.6681
與秦	-11.6681
豐城人	-11.6682
而忘	-11.6683
官各	-11.6683
勣	-11.6684
昭義	-11.6684
弧	-11.6685
有備	-11.6686
正朔	-11.6686
所重	-11.6687
五十萬	-11.6691
曰不然	-11.6692
竊惟	-11.6693
水泉	-11.6693
隧	-11.6693
廟號	-11.6694
訪聞	-11.6696
提要	-11.6697
棄城	-11.6697
來貢	-11.6697
使相	-11.6698
平元年	-11.6699
治中	-11.67
縣治東	-11.67
其來	-11.67
安居	-11.67
刈	-11.67
王王	-11.67
鷺	-11.6701
斯民	-11.6703
任城	-11.6704
守道	-11.6704
鎮逺	-11.6704
母子	-11.6705
終無	-11.6705
七十九	-11.6707
錢氏	-11.6707
者聽	-11.6708
巡視	-11.6709
康熙二十	-11.671
亦應	-11.6712
至於此	-11.6713
以補	-11.6713
蒋	-11.6715
亦謂之	-11.6716
聖學	-11.6716
乎夫	-11.6716
襄州	-11.672
可望	-11.6722
從兄	-11.6722
鎮標	-11.6724
烽	-11.6727
拱辰	-11.6727
漢為	-11.6729
急於	-11.673
無主	-11.673
查出	-11.6732
以吕祖謙	-11.6732
太官令	-11.6733
萬斛	-11.6733
見者	-11.6734
家灣	-11.6735
文官	-11.6735
看詳	-11.6735
上將軍	-11.6736
近代	-11.6736
曰非	-11.6737
暄	-11.6737
丨丨	-11.6742
而食	-11.6743
韓城	-11.6743
服䖍曰	-11.6745
入關	-11.6746
古北口	-11.6746
於我	-11.6749
遣使來	-11.6749
勝之	-11.675
講武	-11.675
孰與	-11.6751
破其	-11.6752
郗	-11.6752
責以	-11.6752
報之	-11.6753
部左侍郎	-11.6756
諸侯王	-11.6757
心腹	-11.6757
必當	-11.6757
竊聞	-11.6758
櫛	-11.6759
罷相	-11.676
衆議	-11.6761
還至	-11.6762
東莞	-11.6764
霆	-11.6764
稍稍	-11.6766
玉泉	-11.6766
所恃	-11.6766
你	-11.6767
妻汪氏	-11.6767
學習	-11.6768
遴選	-11.6769
邢州	-11.6769
不降	-11.677
撫軍	-11.677
職任	-11.677
山之陽	-11.677
▁十五年	-11.677
之竒	-11.6774
頰	-11.6774
冠者	-11.6776
若使	-11.6776
貞祐	-11.6776
聽政	-11.6777
不早	-11.6778
増修	-11.6779
年分	-11.6779
誓不	-11.678
堅固	-11.6781
成化中	-11.6781
贈太師	-11.6782
妻何氏	-11.6784
小功	-11.6785
以治	-11.6786
之仁	-11.6788
戍兵	-11.6788
櫃	-11.6789
澮	-11.6789
本旗	-11.6792
允文	-11.6793
濟陽	-11.6793
或為	-11.6794
語言	-11.6795
者莫不	-11.6795
發其	-11.6795
瘡	-11.6796
窰	-11.6796
餙	-11.6796
僞	-11.6796
玖拾	-11.6798
宜興人	-11.6799
一千七百	-11.6799
有是	-11.6801
明公	-11.6801
東省	-11.6802
僉都御史	-11.6802
三山	-11.6803
七十四	-11.6803
經學	-11.6803
祠祭	-11.6803
迤	-11.6803
永年	-11.6804
彖	-11.6804
袂	-11.6804
名號	-11.6804
驛丞	-11.6804
臣伏見	-11.6805
賴之	-11.6806
五世孫	-11.6806
伏望陛下	-11.6807
數多	-11.6808
慶雲	-11.6809
聖祖	-11.681
至城下	-11.681
及長	-11.6811
壁立	-11.6812
有神	-11.6812
張良	-11.6814
亦作	-11.6815
病卒	-11.6816
臨汾	-11.6816
堙	-11.6816
盧氏	-11.6818
拍	-11.6818
武寧	-11.6819
二國	-11.6819
同官	-11.682
雲夢	-11.682
遂命	-11.682
到部	-11.6821
自南	-11.6821
榭	-11.6822
配位	-11.6822
支用	-11.6823
當與	-11.6824
土木	-11.6827
權衡	-11.6827
魏徴	-11.683
制曰	-11.6831
光世	-11.6832
復出	-11.6832
無慮	-11.6833
耀州	-11.6833
武藝	-11.6833
縉紳	-11.6833
儒士	-11.6834
擠	-11.6834
鎮國公	-11.6835
剽掠	-11.6835
捌拾	-11.6836
以孝聞	-11.6836
别將	-11.684
笄	-11.6841
卒年七十	-11.6842
人家	-11.6843
偃師	-11.6844
紀事	-11.6844
百尺	-11.6844
廵按	-11.6845
梓州	-11.6845
而可	-11.6846
淤塞	-11.6846
業已	-11.6847
臨晉	-11.6847
州節度使	-11.6847
▁世祖章皇帝	-11.6849
棊	-11.6849
廣順	-11.685
泉水	-11.6851
踰月	-11.6853
將有	-11.6853
尚書僕射	-11.6854
家堰	-11.6854
焉耆	-11.6855
青衣	-11.6855
不登	-11.6855
二年六月	-11.6856
日出	-11.6856
太一	-11.6856
朝㫖	-11.6858
龍虎	-11.686
何異	-11.686
識其	-11.6861
進位	-11.6862
不存	-11.6862
化之	-11.6863
有兩	-11.6864
買馬	-11.6864
跪奏	-11.6865
考官	-11.6866
地置	-11.6867
絶頂	-11.6867
發覺	-11.6869
都水監	-11.6869
瀑布	-11.6869
北界	-11.687
括地志	-11.6871
官錢	-11.6871
忭	-11.6871
誚	-11.6871
舊額	-11.6875
漢初	-11.6875
弟也	-11.6876
自刎	-11.6876
軍糧	-11.6878
夷吾	-11.6878
桐城人	-11.6879
其墓	-11.6881
每有	-11.6881
孤山	-11.6882
悌	-11.6882
率師	-11.6882
不仁	-11.6882
鞍馬	-11.6883
一行	-11.6885
時刻	-11.6886
興復	-11.6886
一介	-11.6887
成徳	-11.6888
追諡	-11.6889
誤作	-11.689
哈爾	-11.6892
而實	-11.6892
唐李	-11.6893
三年春正月	-11.6893
翁姑	-11.6894
縣入	-11.6894
應副	-11.6894
節次	-11.6894
宸濠	-11.6895
建初	-11.6896
既平	-11.6897
入淮	-11.6897
明末	-11.6898
招諭	-11.6898
淮隂	-11.6898
自得	-11.6898
相似	-11.6899
其氣	-11.69
棧	-11.69
腥	-11.6901
品官	-11.6901
賈誼	-11.6902
宣徽使	-11.6904
罪惡	-11.6905
曰秦	-11.6905
鍼	-11.6908
景仁	-11.6909
鄂爾泰	-11.6912
修治	-11.6913
誠意	-11.6913
不能無	-11.6913
紹興中	-11.6914
都堂	-11.6914
三年三月	-11.6914
君長	-11.6916
宛平	-11.6916
所收	-11.6916
者猶	-11.6917
為吏	-11.6917
如遇	-11.692
後進	-11.6922
亦與	-11.6923
縻	-11.6923
陁	-11.6924
不踰	-11.6924
流血	-11.6924
動用	-11.6924
烏爾	-11.6924
罔不	-11.6925
統轄	-11.6926
議事	-11.6926
權勢	-11.6927
忌之	-11.6927
江寜	-11.6927
里東至	-11.6929
千騎	-11.6929
始至	-11.693
噬	-11.6931
莱	-11.6931
讚	-11.6931
山下有	-11.6931
半月	-11.6932
姑蘇	-11.6933
二州刺史	-11.6934
守忠	-11.6934
殿後	-11.6935
議之	-11.6935
南下	-11.6937
諸科	-11.6937
鐘鼓	-11.6938
塚	-11.6939
朝奉郎	-11.6939
齊魯	-11.6939
林木	-11.6939
皆自	-11.694
無射	-11.694
沈約	-11.694
瀛州	-11.6941
和糴	-11.6941
麒麟	-11.6942
汾水	-11.6943
鬱林	-11.6944
不才	-11.6944
名器	-11.6945
曾祖	-11.6945
四十人	-11.6947
昭陵	-11.6947
敵騎	-11.6948
收買	-11.6949
此豈	-11.695
安知	-11.695
平居	-11.695
咨部	-11.6951
十七里	-11.6952
一斗	-11.6953
流移	-11.6953
以居	-11.6953
絕	-11.6954
何者	-11.6956
皆謂	-11.6957
重任	-11.6957
德州	-11.6958
傳聞	-11.6959
一百四十里	-11.6959
恩信	-11.6959
各路	-11.6959
而動	-11.6959
人夫亡	-11.696
今復	-11.6961
三百四十	-11.6961
腴	-11.6961
睡	-11.6961
蜚	-11.6961
嵇	-11.6961
所傳	-11.6963
天下之人	-11.6963
治兵	-11.6964
清源	-11.6965
宰輔	-11.6965
封侯	-11.6965
西界	-11.6969
抛	-11.6969
兩廣	-11.6969
稱王	-11.6971
好問	-11.6972
者不過	-11.6974
週	-11.6974
元年五月	-11.6974
體量	-11.6976
䭾	-11.6976
白龍	-11.6979
勞之	-11.6981
西道	-11.6981
▁尺	-11.6981
熙河	-11.6982
帝乃	-11.6983
舊臣	-11.6983
景雲	-11.6983
馬步	-11.6983
成熟	-11.6984
𣸪	-11.6984
西行	-11.6984
五員	-11.6986
永濟	-11.6988
羣牧	-11.6988
瓊州	-11.6988
皆屬	-11.6988
之月	-11.6992
御營	-11.6992
始也	-11.6992
金剛	-11.6993
題曰	-11.6993
百八十	-11.6993
磐	-11.6994
城陽	-11.6994
兩端	-11.6994
之俗	-11.6995
各自	-11.6996
章帝	-11.6997
抒	-11.6999
茗	-11.6999
王安	-11.6999
給以	-11.7
玉牒	-11.7
亦得	-11.7001
百餘丈	-11.7002
州西南	-11.7002
子路	-11.7002
夫役	-11.7003
乏食	-11.7003
可比	-11.7005
王爵	-11.7006
爨	-11.7007
既久	-11.7007
丁銀	-11.7007
初立	-11.7009
清流	-11.7009
遣子	-11.701
特㫖	-11.701
與子	-11.7012
詔諭	-11.7013
天官	-11.7013
据	-11.7014
王景	-11.7015
乾符	-11.7017
在縣治西	-11.7017
鄢陵	-11.7017
也謂	-11.7017
出門	-11.7018
相通	-11.702
騁	-11.702
著為令	-11.7021
躔	-11.7022
蜀中	-11.7022
廣信	-11.7022
聖德	-11.7023
恭儉	-11.7023
寛厚	-11.7023
箋按	-11.7023
固非	-11.7024
西安府	-11.7024
為東	-11.7025
朝覲	-11.7025
立春	-11.7026
敎授	-11.7029
竊發	-11.7029
有龍	-11.7029
之德	-11.703
范祖禹	-11.7031
巴西	-11.7032
▁項	-11.7034
兩旁	-11.7035
和好	-11.7036
璨	-11.7037
成就	-11.7037
善人	-11.7037
泣下	-11.7039
岳陽	-11.7039
州别駕	-11.704
三河	-11.704
見聞	-11.704
弓箭手	-11.7041
趙普	-11.7041
之大者	-11.7042
上乃	-11.7043
部將	-11.7044
頊	-11.7044
簠	-11.7045
犬馬	-11.7045
彗星	-11.7045
甚明	-11.7047
今則	-11.7048
矢志	-11.7048
先生之	-11.705
乃有	-11.705
八年任	-11.7051
虬	-11.7052
臣嘗	-11.7053
為質	-11.7054
使知	-11.7055
神州	-11.7056
永樂初	-11.7056
厮	-11.7057
八十三	-11.7057
樂清	-11.7058
貿	-11.7061
經書	-11.7061
里北至	-11.7062
聞喜	-11.7062
至自	-11.7062
宜加	-11.7063
兵入	-11.7063
歴任	-11.7065
御極	-11.7065
雎	-11.7066
令有司	-11.7066
投誠	-11.7067
良弼	-11.7067
無聞	-11.7068
羃	-11.7068
題叅	-11.7069
標目修	-11.707
毎嵗	-11.707
聲明	-11.707
黔中	-11.7071
二麥	-11.7071
以守	-11.7071
回人	-11.7072
蜀王	-11.7073
莾	-11.7075
壹百	-11.7078
人稱	-11.7078
以討	-11.7079
即時	-11.7079
司業	-11.7079
臣某	-11.7082
四十餘年	-11.7083
僰	-11.7083
鏘	-11.7083
光逺	-11.7083
也盖	-11.7083
巴郡	-11.7086
前因	-11.7086
聖恩	-11.709
僧格	-11.709
猶豫	-11.709
諌議大夫	-11.709
駞	-11.709
名注見	-11.7091
安集	-11.7092
謝罪	-11.7093
一件	-11.7094
一室	-11.7095
於魏	-11.7097
瀋陽	-11.7097
謾	-11.7098
汁	-11.7098
不移	-11.7098
入就位	-11.7099
始建	-11.7099
是歳	-11.71
相屬	-11.7101
渭州	-11.7102
殺戮	-11.7103
巴勒	-11.7103
宋志	-11.7103
歌舞	-11.7104
桂州	-11.7105
掄	-11.7106
謟	-11.7106
附之	-11.7107
制書	-11.7108
之非	-11.7108
朝見	-11.7109
北曰	-11.7109
必敗	-11.711
需用	-11.711
廣德	-11.7111
溺死	-11.7111
四鎮	-11.7112
胥吏	-11.7112
外官	-11.7113
非常之	-11.7114
烏什	-11.7114
敬宗	-11.7114
統志	-11.7115
涿郡	-11.7115
葬之	-11.7116
導之	-11.7116
▁韋	-11.7116
年十五	-11.7117
□(	-11.7117
追擊	-11.7118
詔罷	-11.7118
出而	-11.7119
為變	-11.7119
者仍	-11.7119
古蹟	-11.7121
必為	-11.7123
酒食	-11.7123
千六百	-11.7125
大猷	-11.7126
廢立	-11.7126
之口	-11.7126
六州	-11.7127
雌	-11.7127
八十六	-11.7127
鍳	-11.7129
十九年任	-11.7129
番禺人	-11.7129
入洛	-11.713
永元	-11.713
歸化城	-11.7131
詩序	-11.7132
百濟	-11.7133
自非	-11.7134
利於	-11.7134
在長安	-11.7135
二帝	-11.7136
遺孤	-11.7136
於家	-11.7137
▁葛	-11.7138
而用	-11.7138
軍法	-11.7139
有定	-11.7141
皆言	-11.7142
遂廢	-11.7143
威將軍	-11.7144
布政使司	-11.7144
使至	-11.7144
皆死	-11.7146
老病	-11.7147
蕭然	-11.7148
宗子	-11.7148
每旗	-11.7149
書生	-11.715
之惡	-11.715
瘳	-11.7152
鄉民	-11.7154
君王	-11.7154
萬匹	-11.7154
莆田	-11.7155
縣公	-11.7155
儀制	-11.7156
守志	-11.7157
為最	-11.7158
擊破	-11.7158
遂定	-11.7158
逺人	-11.7159
翎	-11.7159
農民	-11.716
萊州	-11.716
始末	-11.7161
同邑	-11.7163
孝王	-11.7164
一戰	-11.7164
禮儀使	-11.7165
汴京	-11.7165
阿克	-11.7166
吉水人	-11.7166
上虞	-11.7167
小大	-11.7167
妻郭氏	-11.7168
齋郎	-11.7168
吉甫	-11.7168
以威	-11.7169
者不得	-11.717
正言	-11.717
得其人	-11.717
簇	-11.7171
管子	-11.7173
二千餘	-11.7173
乞休	-11.7174
禁之	-11.7175
事母	-11.7175
十倍	-11.7175
甘心	-11.7176
求賢	-11.7176
箕子	-11.7176
士氣	-11.7177
然有	-11.7177
爭之	-11.7178
百王	-11.7178
至日	-11.7179
自固	-11.718
部下	-11.718
登極	-11.7182
法者	-11.7183
蹶	-11.7183
訢	-11.7183
害之	-11.7183
復業	-11.7184
於衆	-11.7185
元至正	-11.7186
頒行	-11.7189
多者	-11.719
汝愚	-11.719
定海	-11.719
登進士第	-11.719
晏然	-11.719
俄羅斯	-11.719
科爾沁	-11.719
番禺	-11.719
初名	-11.7192
殿中監	-11.7192
錢榖	-11.7192
范純仁	-11.7193
詳悉	-11.7194
不敢言	-11.7196
其任	-11.7196
館職	-11.7196
師中	-11.7197
龍池	-11.7198
巵	-11.7198
退復位	-11.7199
以杜	-11.7199
巴圖	-11.7201
北魏	-11.7202
孝武帝	-11.7204
異議	-11.7205
岳鍾琪	-11.7206
清白	-11.7208
捐俸	-11.7209
堯臣	-11.721
亦嘗	-11.7211
驛站	-11.7212
▁京師	-11.7212
輸納	-11.7213
等率	-11.7214
大略	-11.7215
歌曰	-11.7216
水路	-11.7217
入侍	-11.7217
魯侯	-11.7218
領縣二	-11.7219
海外	-11.7219
行則	-11.7219
奮擊	-11.7219
提領	-11.722
所藏	-11.7221
方正	-11.7221
姦人	-11.7222
俛	-11.7223
戰船	-11.7224
烏喇	-11.7224
在下	-11.7224
元年三月	-11.7227
都官	-11.7227
學士院	-11.7228
點	-11.7228
當先	-11.7228
群臣	-11.7228
擎	-11.7229
再遷	-11.7229
神祠	-11.723
萬姓	-11.7231
聞之曰	-11.7231
禁兵	-11.7233
本國	-11.7235
分界	-11.7235
遷於	-11.7238
誠心	-11.7238
銀一兩	-11.7239
麒	-11.7241
意者	-11.7243
别置	-11.7243
等使	-11.7243
江州刺史	-11.7243
同異	-11.7244
邜	-11.7245
各縣	-11.7245
沐浴	-11.7246
之誤	-11.7248
武岡	-11.7248
氣象	-11.7248
兵討	-11.7252
轎	-11.7252
閽	-11.7252
帥府	-11.7253
其死	-11.7255
平之章	-11.7256
吏卒	-11.7256
櫟	-11.7257
郭子儀	-11.7258
天厯	-11.7258
擾民	-11.7259
前任	-11.726
▁賀	-11.7261
百寮	-11.7261
鹽官	-11.7262
乃退	-11.7263
▁是年	-11.7263
閭里	-11.7263
屬國	-11.7264
公家	-11.7264
大宛	-11.7264
奮勉	-11.7264
非特	-11.7265
餘干	-11.7265
開列	-11.7266
黨與	-11.7268
琚	-11.7268
牽牛	-11.7269
朕思	-11.7269
防範	-11.7269
非禮	-11.727
一疋	-11.7271
切下	-11.7273
彰徳	-11.7275
芥	-11.7276
師事	-11.7276
丹陛	-11.7278
炤	-11.7278
奉先	-11.7278
之衝	-11.7278
宣仁	-11.728
不道	-11.7281
一十九	-11.7283
地利	-11.7283
牧守	-11.7284
大震	-11.7284
亦已	-11.7284
凛	-11.7284
等五	-11.7285
糧運	-11.7286
風化	-11.7286
四海之	-11.7286
天神	-11.7286
宗皇帝	-11.7287
皆當	-11.7288
收穫	-11.7289
見于	-11.729
北三十里	-11.729
林寺	-11.729
致書	-11.7291
榆次	-11.7291
綘	-11.7291
詬	-11.7291
見上	-11.7292
夀陽	-11.7292
汀州	-11.7293
原任佐領	-11.7293
成祖	-11.7293
往来	-11.7293
以佐	-11.7294
許其	-11.7295
言于	-11.7296
具官	-11.7296
但恐	-11.7298
授官	-11.7299
筦	-11.7299
前人	-11.7299
内使	-11.73
塗炭	-11.7301
瑞安	-11.7301
益州刺史	-11.7303
悔之	-11.7308
國計	-11.7309
杜陵	-11.731
豐年	-11.731
源流	-11.7311
幽王	-11.7311
有謀	-11.7312
事上	-11.7313
棐	-11.7315
景龍	-11.7316
宏治	-11.7317
司直	-11.7317
秋成	-11.7318
為漢	-11.7319
庶政	-11.7319
吕公著	-11.7321
也因	-11.7322
築室	-11.7322
凑	-11.7322
卸	-11.7322
里源出	-11.7323
而輕	-11.7323
乃至	-11.7323
天授	-11.7323
掖庭	-11.7327
澇	-11.7327
者此	-11.7328
七名	-11.7328
二十二日	-11.7328
不勞	-11.7329
考課	-11.7329
龍江	-11.7331
孫子	-11.7334
使使	-11.7335
征明	-11.7335
也况	-11.7337
太微	-11.7338
星辰	-11.7339
羣下	-11.7341
喜怒	-11.7341
嚴州	-11.7341
上封事	-11.7343
復來	-11.7343
與張	-11.7343
不習	-11.7343
千三百	-11.7345
特氏	-11.7345
時已	-11.7345
上諭	-11.7346
▁聞事竊	-11.7346
忠直	-11.7348
士竒	-11.7348
乾隆二十	-11.7348
補闕	-11.7348
北入	-11.7349
野王	-11.7349
孔道	-11.7349
成服	-11.7349
前驅	-11.7349
蘭亭	-11.7349
君命	-11.735
教坊	-11.735
黄岡人	-11.735
吾民	-11.7353
兵器	-11.7353
皆同	-11.7354
奉朝請	-11.7354
銷金	-11.7355
切責	-11.7355
以從	-11.7356
天下事	-11.7356
山崩	-11.7359
丁憂	-11.736
于天	-11.7361
戰勝	-11.7361
不繼	-11.7362
憐之	-11.7363
雲梯	-11.7363
簡公	-11.7365
整飭	-11.7367
詢問	-11.7367
奉先殿	-11.7367
事發	-11.7368
繫獄	-11.7368
提調	-11.7369
芽	-11.737
芟	-11.737
其不可	-11.7371
起居舍人	-11.7371
風土	-11.7372
甚急	-11.7372
器物	-11.7374
皆降	-11.7374
率府	-11.7375
莫有	-11.7378
尊者	-11.7378
于上	-11.7379
移書	-11.738
遺址	-11.738
其用	-11.7381
仍屬	-11.7381
珠爾	-11.7382
五方	-11.7383
鄩	-11.7385
知情	-11.7385
開元中	-11.7386
獲免	-11.7386
附㑹	-11.7386
亡也	-11.7386
江都人	-11.7387
渤	-11.7387
酌定	-11.7389
十分之	-11.7391
杼	-11.7392
更無	-11.7393
茭	-11.7393
▁國初	-11.7395
賛者	-11.7396
在乎	-11.7397
衿	-11.7397
諭旨	-11.7399
笥	-11.7401
有力	-11.7402
括地志云	-11.7402
該旗	-11.7404
入山	-11.7405
慄	-11.7406
上蔡	-11.7406
風流	-11.7408
四方之	-11.7408
窮民	-11.7408
▁湯	-11.7409
堞	-11.7409
乃是	-11.7409
弗能	-11.7409
穉	-11.7409
詘	-11.7409
九十七	-11.7409
工人	-11.7409
者斬	-11.741
辟為	-11.7411
小子	-11.7413
舉事	-11.7413
者固	-11.7413
五千人	-11.7414
省牲	-11.7415
三兩	-11.7416
保舉	-11.7416
擣	-11.7417
三旗	-11.7417
元忠	-11.7418
庫爾	-11.7418
南朝	-11.7419
良玉	-11.742
可知也	-11.7425
八卦	-11.7426
郭氏	-11.7426
京邑	-11.7426
出則	-11.7428
五嶽	-11.7428
遣使朝貢	-11.7429
朝邑	-11.7431
二十六日	-11.7431
堅壁	-11.7432
釵	-11.7433
扎爾	-11.7435
對峙	-11.7437
輿地	-11.7437
愛惜	-11.7439
大金	-11.7439
等共	-11.744
㕘議	-11.744
得㫖	-11.7441
讙	-11.7441
三年四月	-11.7441
雍正十二年	-11.7441
儉約	-11.7442
多而	-11.7442
應得	-11.7443
六十餘	-11.7443
孝感	-11.7444
淮南子	-11.7445
之謂也	-11.7445
期於	-11.7446
四十卷	-11.7447
彼處	-11.7448
建康府	-11.7449
所賜	-11.7449
先人	-11.7449
者咸	-11.7449
仁宗時	-11.7451
猗	-11.7453
婺源人	-11.7455
所遺	-11.7455
徴收	-11.7456
兵馬使	-11.7456
都事	-11.7457
製造	-11.7457
徳威	-11.7458
失職	-11.746
額數	-11.746
員闕	-11.7462
正在	-11.7463
戰而	-11.7463
兩制	-11.7463
天下之大	-11.7463
翺	-11.7464
枋	-11.7464
曳	-11.7464
洊	-11.7464
祲	-11.7464
筐	-11.7464
棄官	-11.7465
西華	-11.7467
顧問	-11.7467
至聖	-11.7472
碣石	-11.7472
為便	-11.7474
今屬	-11.7474
俗謂之	-11.7477
忻州	-11.7477
酌議	-11.7477
自唐	-11.7477
糊	-11.748
絢	-11.748
副總管	-11.7481
至德	-11.7483
萬古	-11.7485
開皇初	-11.7486
大鴻臚	-11.7489
雅樂	-11.7489
失察	-11.7489
孟氏	-11.749
貨物	-11.749
在府城北	-11.749
造册	-11.7491
而不言	-11.7494
法制	-11.7495
笋	-11.7496
入學額數	-11.7496
天變	-11.7497
猶以	-11.7499
建祠	-11.7502
晉屬	-11.7502
驃騎將軍	-11.7502
新喻	-11.7502
若何	-11.7504
翀	-11.7504
大吕	-11.7505
之廟	-11.7505
受封	-11.7506
募民	-11.7507
曰諾	-11.7507
流寓	-11.7507
者將	-11.7507
編審	-11.7508
督學	-11.751
可令	-11.7511
嘗言	-11.7512
槎	-11.7512
濟州	-11.7512
裁減	-11.7514
買補	-11.7515
地界	-11.7516
誠恐	-11.7517
任其	-11.7517
尊諡	-11.7518
匈	-11.7519
修武	-11.7519
奉祀	-11.7519
夷陵	-11.752
諲	-11.752
恠	-11.752
一頃	-11.7521
永為	-11.7522
前行	-11.7525
不可勝計	-11.7527
筑	-11.7528
便民	-11.7528
平原君	-11.7531
四拜	-11.7531
陳平	-11.7531
諍	-11.7533
新平	-11.7535
夾攻	-11.7536
如法	-11.7537
亦是	-11.7537
合用	-11.7538
繼遷	-11.7538
二十三日	-11.754
侵擾	-11.7541
休寧人	-11.7542
不救	-11.7544
塤	-11.7544
端平	-11.7544
高平	-11.7545
但有	-11.7547
四百五十	-11.7547
堯佐	-11.7548
紫陽	-11.755
昵	-11.7552
窠	-11.7552
改易	-11.7553
義也	-11.7555
遂安	-11.7556
講論	-11.7557
正人	-11.7557
數倍	-11.7558
師傅	-11.7559
亰	-11.756
宣城人	-11.7562
三皇	-11.7563
臨海人	-11.7563
我我	-11.7564
推誠	-11.7565
貢賦	-11.7565
護軍	-11.7566
羈縻	-11.7568
兼佐領	-11.7571
本姓	-11.7572
崇德	-11.7572
都省	-11.7573
世充	-11.7574
三百三十	-11.7575
侍講學士	-11.7576
其色	-11.7577
海潮	-11.7578
州判	-11.7578
究其	-11.7578
何患	-11.7579
萬幾	-11.7579
與天	-11.758
戰艦	-11.7581
為憂	-11.7581
出口	-11.7582
車服	-11.7582
僵	-11.7584
又非	-11.7584
太蔟	-11.7585
欽天監	-11.7586
臣不敢	-11.7587
官田	-11.7587
亡國	-11.7588
▁敕	-11.759
人望	-11.7592
梁置	-11.7593
申飭	-11.7594
煽	-11.7595
北行	-11.7595
禮物	-11.7595
捕之	-11.7596
神䇿	-11.7596
大将	-11.7596
牲畜	-11.7597
貴陽	-11.7597
為樂	-11.7598
喀什噶爾	-11.76
喝	-11.76
▁曾	-11.7601
無間	-11.7604
邯	-11.7604
見今	-11.7604
白玉	-11.7605
皆因	-11.7605
劉備	-11.7605
而獨	-11.7606
上疏言	-11.7606
恭惟	-11.7607
景德	-11.7607
永嘉人	-11.7607
曰今日	-11.7609
稱疾	-11.7611
復歸	-11.7611
為心	-11.7611
淖爾	-11.7612
昌化	-11.7613
繭	-11.7616
繫之	-11.7617
里南至	-11.7617
也但	-11.7617
泰安	-11.7618
重大	-11.7618
聲勢	-11.7619
上馬	-11.762
東觀	-11.7622
順徳	-11.7623
也君	-11.7623
璩	-11.7624
㑹於	-11.7625
徳裕	-11.7625
孟嘗君	-11.7625
陽明	-11.7628
璇	-11.7633
鐙	-11.7633
西陵	-11.7633
一統志云	-11.7633
出力	-11.7635
無逸	-11.7635
喀喇	-11.7636
本朝順治	-11.7636
抹	-11.7638
曷為	-11.7638
縣也	-11.7638
家世	-11.7639
工匠	-11.764
正字	-11.764
簡子	-11.764
些	-11.7641
冬夏	-11.7641
神座	-11.7641
種種	-11.7641
敬之	-11.7643
各以其	-11.7644
不務	-11.7645
音義	-11.7645
臺山	-11.7646
始封	-11.7646
奉公	-11.7647
太子太師	-11.7647
句踐	-11.7647
征西	-11.7647
衆多	-11.7647
河洛	-11.7648
年五十	-11.7649
詔天下	-11.7649
去縣	-11.7653
位在	-11.7656
兠	-11.7657
一級	-11.7661
於君	-11.7662
伯父	-11.7663
迦	-11.7663
子羽	-11.7665
六毫	-11.7666
元年七月	-11.7667
朔日	-11.7669
或勸	-11.7669
者先	-11.767
胃	-11.7671
琅邪王	-11.7671
四十九年	-11.7671
外省	-11.7672
不可為	-11.7672
卨	-11.7673
嵌	-11.7673
五路	-11.7673
税銀	-11.7675
▁吴	-11.7675
便於	-11.7676
道南	-11.7677
妻鄭氏	-11.7677
資治通鑑	-11.7677
叛逆	-11.7678
先鋒	-11.768
烏蘭	-11.768
誘之	-11.7681
陪臣	-11.7681
自縊死	-11.7681
宣布	-11.7682
弓馬	-11.7682
維新	-11.7682
正始	-11.7682
諸陵	-11.7682
者止	-11.7683
高陽	-11.7683
一隻	-11.7683
南曰	-11.7684
等七	-11.7685
長寧	-11.7685
何用	-11.7686
以孝	-11.7687
霍山	-11.7688
也是以	-11.7688
其妻子	-11.7689
甚為	-11.769
調補	-11.769
文安	-11.7691
有七	-11.7692
不特	-11.7693
枉法	-11.7693
也蓋	-11.7696
珠玉	-11.7698
三年五月	-11.7698
嵗支	-11.77
卜筮	-11.77
字號	-11.7701
改過	-11.7701
差使	-11.7703
不輟	-11.7703
南三十里	-11.7703
朋友	-11.7704
一無所	-11.7705
附載	-11.7705
祕閣	-11.7705
録云	-11.7706
貧乏	-11.7706
出迎	-11.7706
協同	-11.7707
聲言	-11.7707
左司	-11.7707
長白山	-11.7708
陪祀	-11.7708
崇義	-11.7708
口外	-11.7711
奉天人	-11.7712
三十日	-11.7712
不難	-11.7713
去就	-11.7713
未到	-11.7715
得無	-11.7716
中京	-11.7716
空虚	-11.7717
乎曰	-11.7719
即與	-11.772
文移	-11.7721
詰之	-11.7722
孟春	-11.7722
纁	-11.7722
遑	-11.7723
清溪	-11.7723
更張	-11.7725
墅	-11.7726
農夫	-11.7727
督兵	-11.7729
為記	-11.7729
筒	-11.773
衘	-11.773
之盟	-11.773
舍利	-11.773
即命	-11.7731
好古	-11.7731
還京師	-11.7731
陛下以	-11.7731
藏於	-11.7733
也帝	-11.7733
方平	-11.7735
其政	-11.7735
宫闈	-11.7737
十五人	-11.7739
公署	-11.774
來年	-11.774
諭令	-11.774
凡七	-11.7741
之化	-11.7742
論奏	-11.7743
母喪	-11.7743
布帛	-11.7744
造化	-11.7744
移鎮	-11.7745
箠	-11.7746
景靈宫	-11.7746
之側	-11.7747
縣尹	-11.7747
不能制	-11.7747
注之	-11.7747
少時	-11.7749
三品以上	-11.7749
亮翻	-11.7751
力士	-11.7752
八十七	-11.7753
之備	-11.7753
林志	-11.7753
祠堂	-11.7754
臺站	-11.7754
學行	-11.7754
填星	-11.7754
雲山	-11.7754
人貢生	-11.7755
秉政	-11.7756
之義也	-11.7757
八員	-11.7758
門四	-11.7759
二十餘里	-11.776
祭告	-11.776
與俱	-11.776
之器	-11.7761
及卒	-11.7761
苾	-11.7763
俟其	-11.7763
猗氏	-11.7764
月給	-11.7766
說文	-11.7766
元光	-11.7767
碑隂	-11.7771
性剛	-11.7771
罰俸一年	-11.7772
籲	-11.7772
一隅	-11.7776
四十萬	-11.7776
水土	-11.7777
幟	-11.7777
著將	-11.7779
▁譚	-11.7779
以為言	-11.778
之信	-11.778
四百里	-11.7781
洺	-11.7781
歸安	-11.7782
獅	-11.7782
郡名	-11.7784
俱著	-11.7786
勤於	-11.7787
能自	-11.7787
大次	-11.7788
處處	-11.7789
善為	-11.779
南門外	-11.7791
薩克	-11.7792
恭奉	-11.7792
昭儀	-11.7792
城隍廟	-11.7793
修身	-11.7794
周人	-11.7795
終不能	-11.7795
左將軍	-11.7796
當即	-11.7796
相顧	-11.7796
等府	-11.7798
井陘	-11.7799
宋書	-11.7799
魏人	-11.7799
茂陵	-11.7799
烏拉	-11.78
編年	-11.7801
祕書監	-11.7801
鉅野	-11.7803
調用	-11.7803
虎符	-11.7804
閬中	-11.7806
山勢	-11.7809
之罪也	-11.7809
沅州	-11.781
主帥	-11.781
都總管	-11.781
力學	-11.7811
親親	-11.7812
二年建	-11.7813
四十六年	-11.7813
大司徒	-11.7815
出使	-11.7816
遂殺	-11.7817
于外	-11.7817
西洋	-11.7818
深思	-11.7818
居多	-11.7819
六曹	-11.782
瞭	-11.782
几筵	-11.7821
元魏	-11.7822
務要	-11.7823
忠誠	-11.7823
博囉	-11.7823
改今額	-11.7824
一歲	-11.7824
仁壽	-11.7828
北流入	-11.7828
不厭	-11.7828
不禁	-11.7828
咽喉	-11.7828
繙譯	-11.7828
人物志	-11.783
者葢	-11.783
自可	-11.783
生計	-11.7831
吏士	-11.7832
病死	-11.7834
是夕	-11.7834
衛侯	-11.7835
勃海	-11.7836
風雲	-11.7836
粧	-11.7836
上奏曰臣	-11.7838
仁傑	-11.7839
不戰	-11.7839
乎今	-11.7839
欲望	-11.7839
智伯	-11.784
二巻	-11.7841
營造	-11.7841
規制	-11.7843
於古	-11.7844
𦍑	-11.7845
畎	-11.7845
九年任	-11.7846
廣大	-11.7847
劉摯	-11.785
大路	-11.785
而走	-11.785
豐稔	-11.7851
成侯	-11.7852
也公	-11.7852
噴	-11.7853
張晏曰	-11.7853
重地	-11.7856
甲科	-11.7857
兵餉	-11.7857
薩爾	-11.7858
皇統	-11.7859
最多	-11.7859
貝州	-11.786
五州	-11.786
自給	-11.7861
頡利	-11.7861
公羊傳	-11.7861
赤眉	-11.7861
所貴	-11.7862
萬事	-11.7863
凖噶爾	-11.7863
天下之事	-11.7864
出鎮	-11.7865
鹽城	-11.7867
而居	-11.7867
秀水	-11.7868
經世	-11.7869
告歸	-11.787
者罪	-11.787
東西相向	-11.7871
州西北	-11.7872
白衣	-11.7873
必行	-11.7875
范氏	-11.7876
異端	-11.7878
百六十	-11.7878
欝	-11.7878
進士知	-11.7883
正陽	-11.7884
衞將軍	-11.7885
酸	-11.7886
原有	-11.7886
溱	-11.7886
▁廣義	-11.7887
如是則	-11.7888
無害	-11.7888
諸衛	-11.7889
博陵	-11.7889
草堂	-11.789
方鎮	-11.789
司𨽻	-11.7892
遵化	-11.7895
守正	-11.7895
其要	-11.7895
慈谿	-11.7895
節省	-11.7896
全書	-11.7899
君臣之	-11.7901
天資	-11.7902
哺	-11.7903
民食	-11.7903
曽子	-11.7903
之祭	-11.7904
經畫	-11.7904
聖賢之	-11.7905
復起	-11.7906
今雖	-11.7906
聖躬	-11.7906
安福人	-11.7906
寧宗	-11.7907
三百七十	-11.7908
亡者	-11.7909
仲春	-11.7911
鴆	-11.7911
其詞	-11.7911
勿復	-11.7914
成宗	-11.7915
已為	-11.7917
再拜訖	-11.7918
市井	-11.7919
滸	-11.7919
施之	-11.792
赴援	-11.7921
土貢	-11.7921
之靈	-11.7923
者凡	-11.7925
明成化	-11.7926
以固	-11.7926
鯁	-11.7927
方許	-11.7927
南蠻	-11.7927
狃	-11.7928
冏	-11.7928
畦	-11.7928
成書	-11.7932
李克用	-11.7933
請將	-11.7933
生死	-11.7933
節度使李	-11.7933
富陽	-11.7933
不親	-11.7934
議和	-11.7934
當塗人	-11.7935
卉	-11.7936
扺	-11.7936
百歩	-11.7937
登封	-11.7938
伏以	-11.7938
帝幸	-11.794
合為一	-11.7941
墾田	-11.7942
頗多	-11.7944
燿	-11.7944
不生	-11.7945
峨	-11.7946
九十五	-11.795
私鹽	-11.795
内開	-11.795
豈容	-11.7951
朱雀	-11.7951
蜀漢	-11.7951
霸州	-11.7952
筏	-11.7952
畵	-11.7953
十有七	-11.7953
分巡	-11.7956
朝日	-11.7956
事在	-11.7957
七十一	-11.7958
講和	-11.796
三營	-11.7961
勰	-11.7961
渇	-11.7961
初授	-11.7961
州東北	-11.7961
東莞人	-11.7961
知諫院	-11.7962
不妨	-11.7964
直指	-11.7966
章宗	-11.7966
首惡	-11.7967
亦如	-11.7968
煑	-11.7969
舫	-11.7969
鄂拉	-11.797
倍之	-11.797
送神	-11.7971
可通	-11.7971
從五品	-11.7972
譬如	-11.7973
石虎	-11.7973
禮經	-11.7975
南直	-11.7975
鄉村	-11.7975
六卿	-11.7976
錦繡	-11.7977
先年	-11.7977
協律郎	-11.7978
隋大業	-11.7978
廷議	-11.7978
簡易	-11.7979
墳墓	-11.798
死士	-11.7981
五年正月	-11.7982
地下	-11.7983
為利	-11.7984
撃之	-11.7985
杆	-11.7986
靴	-11.7986
刲股	-11.7986
渡淮	-11.7989
吏翻	-11.7991
田土	-11.7991
定擬	-11.7992
直至	-11.7993
自持	-11.7995
烏蘇	-11.7995
於廟	-11.7995
李元	-11.7995
使還	-11.7997
日至	-11.8
母曰	-11.8001
伉	-11.8003
諏	-11.8003
琇	-11.8003
應令	-11.8005
已至	-11.8006
孝行	-11.8006
▁梅	-11.8006
以彰	-11.8006
四年二月	-11.8006
高下	-11.8006
木蘭	-11.8007
王以下	-11.8007
其兵	-11.8009
者故	-11.8009
自餘	-11.8012
其旁	-11.8013
又議準	-11.8016
以副	-11.8017
東上	-11.8017
程氏	-11.8017
監官	-11.8019
也至於	-11.8022
大石	-11.8025
卒年六十	-11.8028
慰勞	-11.8028
跟	-11.8028
周迴	-11.8028
▁上以	-11.8029
也惟	-11.8029
擁衆	-11.803
鞏昌	-11.8032
軻	-11.8033
以城降	-11.8033
右副都御史	-11.8034
一章	-11.8035
炯	-11.8036
縠	-11.8036
具疏	-11.8037
軍儲	-11.8039
從政	-11.8039
衛大將軍	-11.8039
有八	-11.8041
河身	-11.8041
臨陣	-11.8041
部主事	-11.8042
記之	-11.8042
福寺	-11.8042
恭順	-11.8043
方山	-11.8043
州安置	-11.8044
傕	-11.8045
埀	-11.8045
縣治西	-11.8045
城周	-11.8046
力辭	-11.8047
王世	-11.805
東城	-11.805
既以	-11.8051
秀州	-11.8051
從七品	-11.8053
鉗	-11.8053
任意	-11.8054
不憚	-11.8056
飲福	-11.8056
兵擊	-11.8057
將佐	-11.8057
皆與	-11.8059
已得	-11.8059
大衆	-11.8059
稱㫖	-11.8059
如例	-11.806
累朝	-11.8061
從重	-11.8061
死事	-11.8061
肱	-11.8061
之所謂	-11.8061
蘋	-11.8061
燃	-11.8061
為盗	-11.8064
武舞	-11.8065
他處	-11.8066
此處	-11.8066
芾	-11.8067
▁十六年	-11.8068
齊齊	-11.8068
欲用	-11.8069
文宣王	-11.8069
相沿	-11.8069
毀	-11.807
舉動	-11.807
經緯	-11.8072
為業	-11.8072
通天	-11.8073
自盡	-11.8075
責授	-11.8078
安堵	-11.8078
净	-11.8078
治東	-11.8079
上幸	-11.8079
凡百	-11.8081
始安	-11.8082
務使	-11.8083
尤多	-11.8084
拿	-11.8084
率其	-11.8084
林甫	-11.8085
膠東	-11.8086
織造	-11.8087
傘	-11.8087
不妄	-11.8087
桐廬	-11.8089
▁寸	-11.809
後至	-11.8091
▁聖駕	-11.8092
淳于	-11.8093
而陛下	-11.8093
家港	-11.8094
閩省	-11.8095
殪	-11.8095
糠	-11.8095
瀋	-11.8096
前漢	-11.8097
逺者	-11.8097
李靖	-11.8098
後軍	-11.8098
避難	-11.81
廣陽	-11.8101
未暇	-11.8101
同郡	-11.8101
至如	-11.8102
玉帶	-11.8103
最後	-11.8103
亦不敢	-11.8103
婿	-11.8104
蠢	-11.8104
青州刺史	-11.8104
誰敢	-11.8104
如晉	-11.8105
臨潼	-11.8105
羽翼	-11.8105
儀衛	-11.8106
叙功	-11.8107
大罵	-11.8107
死矣	-11.8108
勿以	-11.8108
藩司	-11.8108
分路	-11.8109
敗賊	-11.8109
周主	-11.811
宜都	-11.811
西北隅	-11.8111
免死	-11.8112
小分	-11.8113
衮冕	-11.8114
兵少	-11.8115
乃立	-11.8115
西向立	-11.8116
淖	-11.8117
實無	-11.8118
謂人曰	-11.812
濟水	-11.812
翫	-11.8121
塞之	-11.8121
領縣三	-11.8122
劾之	-11.8123
洪武間	-11.8123
寸二分	-11.8124
▁姜	-11.8125
釋氏	-11.8126
折而東	-11.8126
友諒	-11.8126
累世	-11.8126
以免	-11.8128
申嚴	-11.8128
二年八月	-11.8128
時務	-11.8128
别立	-11.8129
8	-11.8129
䦨	-11.8129
甓	-11.8129
寳慶	-11.813
眉州	-11.813
入奏	-11.8133
宗祀	-11.8133
毁之	-11.8133
泝	-11.8134
感悟	-11.8135
桷	-11.8138
復扶又翻	-11.8139
繼母	-11.8139
左門	-11.814
福清	-11.8141
格物	-11.8142
令民	-11.8142
慮其	-11.8143
仲子	-11.8145
追及	-11.8145
▁國家	-11.8146
文詞	-11.8146
李白	-11.8148
忠勇	-11.8149
楚師	-11.815
首級	-11.815
八十二	-11.815
大司空	-11.8151
尼瑪哈	-11.8152
覊	-11.8155
崗	-11.8155
笠	-11.8155
愜	-11.8155
舊産錢	-11.8155
大戰	-11.8155
山名	-11.8156
奢侈	-11.8157
使我	-11.8157
請㫖	-11.8158
其應	-11.8158
葉赫	-11.8159
中書監	-11.8159
劉歆	-11.8161
以寛	-11.8161
春坊	-11.8162
請復	-11.8162
禩	-11.8163
梢	-11.8163
三百餘里	-11.8164
曰凡	-11.8166
行令	-11.8166
操守	-11.8167
縣東三十里	-11.8167
降于	-11.8167
▁部尚書	-11.8168
聲援	-11.8168
帝問	-11.8169
兵討之	-11.8169
不歸	-11.8169
八十九	-11.8169
公田	-11.817
愛人	-11.817
縣故城	-11.8171
信也	-11.8171
起為	-11.8171
菹	-11.8172
䆒	-11.8172
媵	-11.8172
紵絲	-11.8173
平樂	-11.8174
十二名	-11.8174
南接	-11.8176
冬月	-11.8178
是後	-11.8179
獻子	-11.818
匄	-11.818
杰	-11.818
武衛	-11.818
四出	-11.8181
為人所	-11.8181
查照	-11.8182
宣力	-11.8182
之尊	-11.8182
二千里	-11.8183
歩兵	-11.8183
妻程氏	-11.8184
遷于	-11.8184
流注	-11.8184
迎神	-11.8186
有云	-11.8187
威逺	-11.8188
御殿	-11.8188
逺而	-11.8188
西州	-11.8188
襖	-11.8189
顧謂	-11.8191
度量	-11.8193
一升	-11.8194
深知	-11.8195
佔	-11.8197
焞	-11.8197
沙漠	-11.8199
始為	-11.82
復召	-11.82
二級	-11.8201
小吏	-11.8201
王敦	-11.8202
武林	-11.8203
蕙	-11.8206
肅清	-11.8207
善射	-11.8208
願得	-11.8208
調兵	-11.8209
上欲	-11.821
致其	-11.821
制也	-11.821
雍正十三年	-11.821
殿學士	-11.821
御馬	-11.8212
曰願	-11.8212
補之	-11.8212
丈五尺	-11.8213
光弼	-11.8213
董仲舒	-11.8216
威王	-11.8218
毫無	-11.8219
所忌	-11.822
興兵	-11.8221
伐我	-11.8221
歸仁	-11.8221
䕶送	-11.8222
之慮	-11.8222
凟	-11.8223
妻馬氏	-11.8223
許昌	-11.8224
行義	-11.8226
晉天福	-11.8226
交代	-11.8227
謝恩	-11.8228
光祿	-11.8228
為司	-11.8228
路總管	-11.8228
理學	-11.8228
詹事府	-11.8229
六丈	-11.8231
淘	-11.8231
挟	-11.8231
遹	-11.8231
兵屯	-11.8232
權臣	-11.8233
楊文	-11.8234
覽奏	-11.8235
河清	-11.8235
不惜	-11.8236
臣寮	-11.8236
郡中	-11.8236
在我	-11.8238
於周	-11.8239
奏銷	-11.8239
櫬	-11.824
於兹	-11.8241
合兵	-11.8242
費用	-11.8242
寛大	-11.8244
告於	-11.8244
後屬	-11.8244
釐八毫	-11.8244
百神	-11.8244
二處	-11.8246
斯文	-11.8248
孩	-11.8249
唾	-11.8249
四百餘	-11.8249
往返	-11.825
二年七月	-11.825
其性	-11.8251
一百十	-11.8251
小人之	-11.8253
文華	-11.8253
渠魁	-11.8254
民户	-11.8254
不協	-11.8255
堂下	-11.8255
寥	-11.8255
安插	-11.8256
便之	-11.8256
帳下	-11.8256
李斯	-11.8257
㤀	-11.8257
四十八年	-11.8258
周世宗	-11.8258
旗鼓	-11.8258
殊不	-11.8263
潯	-11.8263
三年改	-11.8264
必將	-11.8264
一片	-11.8265
蜀之	-11.8267
流俗	-11.8267
重臣	-11.8268
太僕卿	-11.8268
無何	-11.8268
國書	-11.8269
不害	-11.8271
不是	-11.8272
赴之	-11.8273
悠悠	-11.8275
決口	-11.8275
其過	-11.8275
刑部郎中	-11.8276
坐視	-11.8277
恭謝	-11.8278
水門	-11.8278
竊謂	-11.8279
延袤	-11.828
上俱	-11.8283
汶上	-11.8284
尚方	-11.8284
登山	-11.8285
獻王	-11.8286
蘭谿	-11.829
元年六月	-11.829
專以	-11.829
嚴明	-11.829
新附	-11.829
條上	-11.8291
亹	-11.8292
斾	-11.8292
供億	-11.8292
敬則	-11.8293
工料	-11.8294
持重	-11.8294
諌官	-11.8295
臨幸	-11.8296
爾泰	-11.8298
著加恩	-11.8299
代郡	-11.8299
武皇帝	-11.8302
為非	-11.8302
司理	-11.8302
三禮	-11.8303
出守	-11.8305
避地	-11.8306
記一卷	-11.8306
在城西南	-11.8307
法師	-11.8309
杓	-11.8309
德之	-11.831
遵義	-11.8311
五間	-11.8311
王士	-11.8313
大寳	-11.8314
豈惟	-11.8314
綏徳	-11.8315
十三人	-11.8315
子午	-11.8316
榦	-11.8318
m	-11.8318
革帶	-11.832
累日	-11.8323
元鼎	-11.8323
民事	-11.8323
不遜	-11.8325
即為	-11.8326
太祖皇帝	-11.8326
廟庭	-11.8327
西接	-11.8327
嘉祥	-11.8328
善騎射	-11.8328
之卒	-11.8329
聊城	-11.8332
非惟	-11.8332
居人	-11.8333
申報	-11.8334
明倫堂	-11.8335
徳行	-11.8336
何憂	-11.8337
布拉克	-11.8337
戍卒	-11.8338
呈報	-11.8339
假借	-11.8339
魏文帝	-11.834
又論	-11.8341
期年	-11.8341
增設	-11.8343
乗間	-11.8343
無一人	-11.8343
上中下	-11.8343
八分書	-11.8345
方得	-11.8345
直秘閣	-11.8345
餘悉	-11.8347
摺奏	-11.8348
多故	-11.8349
見錢	-11.8349
當此	-11.835
王侯	-11.835
仲舒	-11.8351
屢敗	-11.8352
炫	-11.8352
制作	-11.8354
千四百	-11.8357
和爾	-11.8358
一丈五尺	-11.8358
公車	-11.8358
東昌	-11.8359
為御史大夫	-11.8359
不收	-11.8359
▁皇子	-11.8361
駑	-11.8361
頵	-11.8361
宋朝	-11.8362
泛溢	-11.8364
弁兵	-11.8365
一星	-11.8365
管軍	-11.8365
諸事	-11.8366
名之曰	-11.8367
▁國朝康熙	-11.8367
者二	-11.8367
仁厚	-11.8368
内則	-11.8368
不遵	-11.8368
內	-11.837
𥙿	-11.837
意在	-11.837
一百六十里	-11.837
僧辯	-11.837
書奏	-11.8372
富人	-11.8373
者令	-11.8373
時稱	-11.8374
樓船	-11.8376
伐蜀	-11.8376
為額	-11.8377
情由	-11.8378
姊妹	-11.8379
近習	-11.838
鼓鑄	-11.8381
監臨	-11.8385
洗馬	-11.8385
黑龍江	-11.8388
醫學	-11.8388
節義	-11.8389
金壇	-11.8389
産業	-11.839
實徵	-11.839
髙山	-11.8391
長安志	-11.8392
焉故	-11.8392
臣工	-11.8395
㽞	-11.8396
单	-11.8396
鄭康成	-11.8396
請託	-11.8396
亦不得	-11.8397
孝惠	-11.8398
投之	-11.8398
兩漢	-11.8399
誅戮	-11.84
彼時	-11.84
戍守	-11.8401
文德	-11.8403
禺	-11.8403
城市	-11.8404
▁秋八月	-11.8404
躭	-11.8404
蕚	-11.8404
世俗	-11.8405
情節	-11.8405
九經	-11.8406
但當	-11.8407
此誠	-11.8408
初平	-11.8408
臺省	-11.8409
又多	-11.8412
之力也	-11.8413
桌	-11.8413
洪水	-11.8413
焰	-11.8413
也如	-11.8416
禪寺	-11.8417
該員	-11.8418
命也	-11.8418
紛紜	-11.8418
召拜	-11.8419
遂得	-11.8419
縁由	-11.842
一百二	-11.8421
磴	-11.8421
州東南	-11.8422
荒蕪	-11.8423
事事	-11.8424
縣儒學	-11.8424
里西至	-11.8424
杜氏	-11.8424
二十九日	-11.8425
之兄	-11.843
譔	-11.8431
玫	-11.8431
罽	-11.8431
元時	-11.8431
列國	-11.8433
二百餘里	-11.8433
天氣	-11.8433
省事	-11.8433
九十二	-11.8434
皇祖	-11.844
元年八月	-11.844
嗇	-11.8442
生辰	-11.8443
衆軍	-11.8443
副榜	-11.8443
以和	-11.8444
▁覽	-11.8445
百四十	-11.8446
國夫人	-11.8446
九十八	-11.8447
看守	-11.8447
洒	-11.8448
柟	-11.8448
大理評事	-11.8448
五榖	-11.8449
龍川	-11.8449
大理卿	-11.845
相符	-11.8451
孟子曰	-11.8451
敢有	-11.8451
交界	-11.8451
日暮	-11.8451
元作	-11.8454
通好	-11.8455
漢髙祖	-11.8456
襍	-11.8457
鍵	-11.8457
工役	-11.8457
賛引	-11.8458
其直	-11.8458
▁午	-11.8459
永樂間	-11.8459
眀年	-11.8459
▁龔	-11.8461
情實	-11.8461
立朝	-11.8462
素與	-11.8462
将帥	-11.8463
到官	-11.8464
顔子	-11.8465
義熙	-11.8465
祏	-11.8466
綝	-11.8466
議政	-11.8467
南陵	-11.8467
方面	-11.8467
政教	-11.8467
成臯	-11.8468
正統間	-11.8469
四百八十	-11.8471
他事	-11.8473
奉國	-11.8473
蜀主	-11.8474
盡得	-11.8474
姥	-11.8474
應募	-11.8475
來聘	-11.8475
俯仰	-11.8475
官物	-11.8478
入室	-11.8478
億兆	-11.8479
爾朱	-11.8479
役者	-11.8481
家法	-11.8481
其始	-11.8481
四郡	-11.8482
臣愚以為	-11.8487
東林	-11.8487
元年十月	-11.8488
乃罷	-11.8489
數尺	-11.8489
是知	-11.8489
縱兵	-11.8489
罷為	-11.8491
事覺	-11.8491
二年九月	-11.8493
三百九十	-11.8494
流行	-11.8495
萬機	-11.8495
張子	-11.8495
之妙	-11.8495
元年九月	-11.8496
亦屬	-11.8496
運至	-11.8497
戮力	-11.85
酢	-11.8501
越人	-11.8502
國恩	-11.8503
割股	-11.8504
同族	-11.8504
部族	-11.8506
先遣	-11.8509
直史館	-11.8509
路通	-11.8509
為前鋒	-11.8511
戸部尚書	-11.8512
亦言	-11.8512
騷擾	-11.8512
存貯	-11.8513
奉聖	-11.8513
所求	-11.8514
李燾	-11.8514
大内	-11.8516
執笏	-11.8517
鎮總兵	-11.8517
大逆	-11.8518
侣	-11.8518
可信	-11.8519
豪右	-11.8519
巡狩	-11.852
湧出	-11.852
職銜	-11.8522
築土	-11.8522
無備	-11.8523
於戲	-11.8523
慈谿人	-11.8523
竟以	-11.8524
經一卷	-11.8527
皖	-11.8527
▁聖諭	-11.8528
雍正十一年	-11.8528
後魏置	-11.8528
寺碑	-11.8529
義民	-11.853
耆舊	-11.853
延齡	-11.8532
自任	-11.8534
衚衕	-11.8536
𠫭	-11.8536
石五斗	-11.8536
字士	-11.8537
居處	-11.8539
同居	-11.8539
故得	-11.8539
練兵	-11.854
千七百	-11.8541
十嵗	-11.8542
農事	-11.8544
遂令	-11.8544
赫連	-11.8544
游擊	-11.8545
侗	-11.8545
党項	-11.8546
臣臣	-11.8547
素有	-11.8547
正三品	-11.8547
兼理	-11.8548
忽有	-11.8549
月十八日	-11.855
誠為	-11.855
儒術	-11.8551
雲州	-11.8552
一新	-11.8554
何有	-11.8554
珊瑚	-11.8554
吏人	-11.8555
上饒	-11.8556
明季	-11.8557
可無	-11.8557
太武	-11.8558
勸之	-11.8558
百餘年	-11.8559
有寵	-11.856
右營	-11.8561
其禍	-11.8562
䛕	-11.8563
聞風	-11.8565
備用	-11.8565
臨河	-11.8568
佛像	-11.857
劉瑾	-11.857
將何以	-11.8571
溟	-11.8571
▁恩賜雲騎尉世職	-11.8571
殛	-11.8572
二百人	-11.8572
詔曰朕	-11.8572
鄉薦	-11.8573
管内	-11.8574
士皆	-11.8574
此即	-11.8574
極論	-11.8574
水深	-11.8575
商民	-11.8576
開河	-11.8576
正白旗人	-11.8576
奏樂	-11.8576
不計	-11.8576
齊師	-11.8577
臨川人	-11.8578
憂勤	-11.8579
衞尉	-11.8579
孔明	-11.8579
i	-11.8581
國相	-11.8581
監本	-11.8582
之功也	-11.8582
城寨	-11.8583
死于	-11.8583
自焚	-11.8586
澶	-11.8586
猶言	-11.8586
侯國	-11.8587
爾噶	-11.8588
自立為	-11.859
宿衞	-11.859
少者	-11.8592
之域	-11.8592
湯武	-11.8592
不完	-11.8593
兼行	-11.8593
未央	-11.8594
百三十	-11.8594
相向	-11.8595
復請	-11.8595
俱已	-11.8596
大掠	-11.8596
無憂	-11.8597
僮	-11.8597
縣西三十里	-11.8598
逍遥	-11.8598
乘之	-11.8598
謀之	-11.8599
阿喇	-11.86
知政事	-11.86
者少	-11.86
諫議	-11.8601
於法	-11.8601
景宗	-11.8602
武徳四年	-11.8603
劉公	-11.8603
利其	-11.8603
千總一員	-11.8604
王業	-11.8605
居家	-11.8606
引軍	-11.8607
悵	-11.8607
田文鏡	-11.8607
或者	-11.8607
增置	-11.8607
尉氏	-11.8608
説之	-11.8608
互市	-11.8609
馬融	-11.8609
走馬	-11.861
荆山	-11.8612
文襄	-11.8613
制勝	-11.8613
動静	-11.8613
詛	-11.8616
上將	-11.8616
有識	-11.8617
澶淵	-11.8617
設於	-11.8618
親見	-11.8618
為己	-11.862
帝謂	-11.862
久逺	-11.8621
永泰	-11.8621
恭請	-11.8621
之最	-11.8622
又得	-11.8622
西羌	-11.8622
文思	-11.8622
宗周	-11.8624
枝葉	-11.8626
一刻	-11.8628
庶民	-11.8629
能否	-11.8631
刑部主事	-11.8631
也豈	-11.8632
其理	-11.8633
九名	-11.8634
柷	-11.8634
烏梁海	-11.8634
郃陽	-11.8635
輔之	-11.8636
郿	-11.8637
所繫	-11.8637
力爭	-11.8638
民賴	-11.8641
漬	-11.8643
文炳	-11.8644
南行	-11.8645
不遑	-11.865
臺諌	-11.865
▁十八年	-11.8651
碭	-11.8652
縣主簿	-11.8653
遺跡	-11.8654
希烈	-11.8654
樞密副使	-11.8654
五縣	-11.8655
萬歲	-11.8655
雖非	-11.8655
妣	-11.8656
出外	-11.8657
運送	-11.8658
應麟	-11.8658
極其	-11.866
厲王	-11.8661
膠州	-11.8662
往年	-11.8662
錄事	-11.8664
以本官	-11.8664
轉運判官	-11.8667
惟一	-11.8667
久廢	-11.8669
辰星	-11.8669
瀧	-11.867
水源	-11.8671
於義	-11.8672
賊帥	-11.8673
非徒	-11.8675
又西北	-11.8675
丁口	-11.8676
連州	-11.8678
特降	-11.8678
天寳元年	-11.8679
不可以不	-11.8681
寒心	-11.8683
可復	-11.8683
兼侍講	-11.8684
不得入	-11.8685
人衆	-11.8685
此必	-11.8685
王倫	-11.8686
伯玉	-11.8686
憂國	-11.8686
通融	-11.8686
善於	-11.8687
計者	-11.8687
仰惟	-11.8687
午門	-11.8688
禄山	-11.8691
旌其門	-11.8691
發運使	-11.8691
積貯	-11.8691
孰能	-11.8692
一百五	-11.8693
此輩	-11.8693
楚克	-11.8694
少孤	-11.8695
以白	-11.8695
至長安	-11.8696
王導	-11.8696
▁雷	-11.8696
鬲	-11.8696
義興	-11.8697
東南隅	-11.8698
為念	-11.8698
事機	-11.8698
師還	-11.8699
元景	-11.8699
市舶	-11.8699
隄岸	-11.87
栻	-11.8701
三獻	-11.8701
全州	-11.8702
名節	-11.8702
府縣	-11.8702
葆	-11.8704
博爾	-11.8705
聮	-11.8705
診	-11.8705
雖在	-11.8708
舊通志	-11.8708
詔諸路	-11.8709
欽宗	-11.871
黄初	-11.871
價值	-11.871
往者	-11.871
五十名	-11.871
文舞	-11.8711
竪	-11.8714
部衆	-11.8714
澤潞	-11.8714
固始	-11.8716
銀一千	-11.8718
俱照	-11.8719
屬焉	-11.872
盡禮	-11.872
▁十七年	-11.872
盡言	-11.8721
督府	-11.8721
傳修	-11.8722
米二	-11.8723
大書	-11.8723
𧺫	-11.8723
胤	-11.8723
一項	-11.8724
師友	-11.8726
舊事	-11.8726
其鋒	-11.8727
奉禮郎	-11.8727
成湯	-11.8728
汴梁	-11.8732
撫諭	-11.8732
媪	-11.8732
家事	-11.8733
三水	-11.8735
月十三日	-11.8738
兩軍	-11.8739
其山	-11.8739
日乆	-11.874
俱屬	-11.874
十八人	-11.874
火藥	-11.874
大全	-11.8741
冀州刺史	-11.8741
擺	-11.8741
▁又曰	-11.8742
避暑	-11.8742
盥洗	-11.8743
統制官	-11.8744
不得已而	-11.8744
日月之	-11.8744
漢文帝	-11.8744
復行	-11.8745
九龍	-11.8745
吾聞	-11.8745
敏中	-11.8747
宗伯	-11.8749
賈逵	-11.875
宫架	-11.875
趺	-11.875
汝陽	-11.8753
此語	-11.8753
王文	-11.8753
躬自	-11.8753
月十二日	-11.8757
餘年	-11.8759
T	-11.8759
咱	-11.876
爕	-11.876
鶯	-11.876
捶	-11.876
死傷	-11.876
更生	-11.876
乃更	-11.876
▁甲子	-11.876
叄拾	-11.8761
事迹	-11.8762
爾圖	-11.8762
四望	-11.8763
為左右	-11.8765
卓異	-11.8765
金龍	-11.8766
中山王	-11.8766
隋置	-11.8766
比至	-11.8767
此何	-11.8767
正學	-11.8767
小事	-11.8768
跪進	-11.8768
竹木	-11.8768
燄	-11.8769
羿	-11.8769
慶賀	-11.8769
甲乙	-11.8769
復曰	-11.877
函谷	-11.877
責令	-11.877
来歸	-11.8771
東逕	-11.8771
巴哈	-11.8772
勘合	-11.8772
轉行	-11.8773
奉勅	-11.8773
一摺	-11.8773
未為	-11.8773
米石	-11.8774
俱以	-11.8775
百名	-11.8776
皝	-11.8777
默	-11.8778
工食	-11.8778
四瀆	-11.8779
國法	-11.878
天文志	-11.8781
邀擊	-11.8783
來援	-11.8784
九十三	-11.8784
太息	-11.8785
革退	-11.8786
継	-11.8787
芸	-11.8787
不擾	-11.8787
緦麻	-11.8787
不決	-11.8788
賞銀	-11.8788
蚩尤	-11.8788
嘉興人	-11.8788
議覆	-11.8789
之本也	-11.8789
閨	-11.8791
豈宜	-11.8792
告者	-11.8792
八十八	-11.8793
新蔡	-11.8793
爾格	-11.8794
易簡	-11.8794
目録	-11.8795
鏗	-11.8796
礬	-11.8796
鷙	-11.8796
百工	-11.8797
通計	-11.8798
東鄉	-11.8799
長夀	-11.8799
開運	-11.8799
某官	-11.8799
衝決	-11.88
黎元	-11.8803
一千九百	-11.8803
不曽	-11.8804
欲盡	-11.8804
募人	-11.8804
溷	-11.8805
r	-11.8805
為功	-11.8805
保䕶	-11.8807
飭令	-11.8807
即如	-11.8809
正官	-11.8809
尋遷	-11.8809
土著	-11.881
彦章	-11.881
知道	-11.8811
征之	-11.8813
不茍	-11.8814
縶	-11.8814
南旺	-11.8815
雜處	-11.8815
修建	-11.8815
隰州	-11.8815
千九百	-11.8815
孝敬	-11.8815
吾君	-11.8817
綿州	-11.8817
沙州	-11.8817
我等	-11.8818
雅州	-11.8818
茍有	-11.8819
不喜	-11.882
土産	-11.882
黄氏	-11.882
於太廟	-11.8821
謹案	-11.8822
E	-11.8823
R	-11.8823
前赴	-11.8825
未下	-11.8826
姑臧	-11.8826
先事	-11.8827
七毫	-11.8828
一律	-11.8829
鐘磬	-11.8829
上批	-11.883
文煥	-11.8831
繫囚	-11.8831
門下省	-11.8832
顧命	-11.8832
佇	-11.8832
峝	-11.8832
鉏	-11.8832
司天	-11.8832
溝洫	-11.8833
二石	-11.8833
初即位	-11.8833
漢使	-11.8833
釐三毫	-11.8834
内黄	-11.8835
延熹	-11.8835
橋梁	-11.8836
而猶	-11.8837
大員	-11.8837
各給	-11.8838
大治	-11.8838
二首	-11.8839
部郎	-11.8839
因請	-11.884
經畧使	-11.884
遲延	-11.884
湖中	-11.8841
宓	-11.8841
租税	-11.8842
勒石	-11.8842
不減	-11.8843
特加	-11.8843
風吹	-11.8843
之列	-11.8844
白起	-11.8847
若欲	-11.8848
吉祥	-11.8848
王叔	-11.885
醖	-11.885
搬	-11.885
帝從之	-11.8851
馬歩軍	-11.8851
高郵	-11.8851
侯伯	-11.8851
草創	-11.8851
重罪	-11.8851
請罪	-11.8853
彭蠡	-11.8854
如一	-11.8854
杜甫	-11.8856
思慮	-11.8859
問於	-11.886
祭於	-11.8861
滎澤	-11.8862
▁題為	-11.8864
所不能	-11.8865
詔下	-11.8867
宫闕	-11.8867
求治	-11.8867
神道碑	-11.8867
憂懼	-11.8869
㸑	-11.8869
朝散大夫	-11.8869
劉文	-11.8869
當從	-11.887
為戒	-11.887
襄陵	-11.8871
政務	-11.8872
氏族	-11.8872
燕人	-11.8873
牽制	-11.8875
司祝	-11.8876
殘缺	-11.8876
不遺	-11.8876
與否	-11.8876
修之	-11.8876
深為	-11.8877
茂州	-11.8877
党	-11.8877
所難	-11.8878
都轉運使	-11.8879
三家	-11.8879
羣盗	-11.8879
俱為	-11.888
衆官	-11.888
民甚	-11.8882
仁者	-11.8882
經典	-11.8882
籖	-11.8884
復生	-11.8886
永寕	-11.8887
貢院	-11.8888
權宜	-11.8889
邊外	-11.8889
都爾	-11.889
齊楚	-11.8891
攝事	-11.8891
卓然	-11.8892
時雨	-11.8893
逃歸	-11.8893
▁上命	-11.8895
屡	-11.8896
隍	-11.8897
額徴	-11.8899
服色	-11.8899
眞宗	-11.8899
教民	-11.89
衣裳	-11.8901
學田	-11.8901
憲章	-11.8901
道府	-11.8901
中路	-11.8903
比干	-11.8903
餒	-11.8905
摠	-11.8905
奏入報	-11.8906
所治	-11.8907
臣竊以	-11.8908
據險	-11.8908
禁錮	-11.8909
周制	-11.891
知樞宻院事	-11.8911
邊患	-11.8911
宗人府	-11.8912
休戚	-11.8912
來獻	-11.8914
日有	-11.8914
都知	-11.8915
北庭	-11.8917
益以	-11.8917
則可以	-11.8919
水出焉	-11.8919
謝安	-11.892
渰	-11.8924
四百六十	-11.8924
之漸	-11.8925
特諭	-11.8925
賈似道	-11.8926
三年七月	-11.8927
王制	-11.8928
廢之	-11.8928
集五卷	-11.8928
二道	-11.8929
桓子	-11.8929
合州	-11.893
定數	-11.8931
余按	-11.8931
李繼	-11.8931
補外	-11.8931
甲戍	-11.8932
不敢復	-11.8932
啜	-11.8932
後改為	-11.8932
西伯	-11.8933
溶	-11.8933
釐四毫	-11.8933
監察	-11.8933
田疇	-11.8933
祕書	-11.8934
所統	-11.8934
以代	-11.8935
藉以	-11.8937
勝非	-11.8937
雖已	-11.8939
岷州	-11.894
尺二寸	-11.894
神器	-11.8941
水源出	-11.8942
南河	-11.8942
盡矣	-11.8943
窺伺	-11.8944
之累	-11.8946
乃作	-11.8947
課銀	-11.8947
徵收	-11.8947
此奏	-11.8948
太學博士	-11.8948
大約	-11.895
馬政	-11.8951
攄	-11.8951
夹	-11.8951
日夕	-11.8951
索隠	-11.8953
弑其君	-11.8953
樂陵	-11.8954
懐王	-11.8957
勔	-11.8957
上下相	-11.8958
典章	-11.8959
左庶子	-11.8959
本軍	-11.896
痊	-11.896
秤	-11.896
四年春正月	-11.8961
中途	-11.8961
祀事	-11.8961
虚名	-11.8961
拔之	-11.8962
已降	-11.8962
嵗久	-11.8962
下情	-11.8962
皇弟	-11.8962
鶉	-11.8963
而難	-11.8964
無從	-11.8965
之限	-11.8966
橋在	-11.8966
釋文	-11.8967
大禹	-11.8968
皇帝陛下	-11.8968
特書	-11.8968
醴齊	-11.8969
狠	-11.897
病篤	-11.8973
惻然	-11.8974
遣其將	-11.8974
秣陵	-11.8975
王欽若	-11.8977
惟其	-11.8978
樣	-11.8979
羯	-11.8979
禪院	-11.8979
失色	-11.8979
㑹諸侯	-11.898
遂絶	-11.898
旗分	-11.8981
廟祀	-11.8981
秘閣	-11.8982
之固	-11.8983
清逺	-11.8983
知縣王	-11.8983
重華	-11.8986
将兵	-11.8986
李成	-11.8986
正定	-11.8987
絜	-11.8988
鍔	-11.8988
闗防	-11.899
巫山	-11.8991
進士官至	-11.8991
便可	-11.8992
其材	-11.8992
力田	-11.8993
肆行	-11.8994
討平	-11.8997
梅花	-11.8997
盡善	-11.8999
驃騎大將軍	-11.9
攀龍	-11.9
趙彦	-11.9
不異	-11.9
諸將皆	-11.9001
出宫	-11.9001
三千里	-11.9001
以謝	-11.9002
相當	-11.9002
於理	-11.9003
形似	-11.9004
不悟	-11.9005
之積	-11.9005
餘丈	-11.9006
竑	-11.9007
東流入	-11.901
濮王	-11.901
祖父母	-11.901
潮陽	-11.9011
急攻	-11.9012
將作監	-11.9013
僚佐	-11.9015
牕	-11.9016
翼日	-11.9016
官弁	-11.9017
晉江人	-11.9017
流通	-11.9018
嗣源	-11.9019
不可行	-11.902
順義	-11.9021
黍稷	-11.9022
厦	-11.9024
䏻	-11.9024
左右皆	-11.9024
教以	-11.9025
紫微	-11.9025
而廢	-11.9027
羣書	-11.9027
不置	-11.9028
糧儲	-11.9029
侯王	-11.903
二者	-11.903
擅權	-11.9031
永寜	-11.9031
母憂	-11.9032
兵食	-11.9032
水手	-11.9033
特恩	-11.9033
李景	-11.9034
至重	-11.9035
▁萬夀	-11.9036
汝礪	-11.9037
原州	-11.9038
無已	-11.9038
自誓	-11.9038
致治	-11.9038
守者	-11.9038
玉堂	-11.9039
儒生	-11.9041
一同	-11.9041
寧波	-11.9041
河源出	-11.9043
嶴	-11.9044
琥	-11.9044
髯	-11.9044
三等輕車都尉	-11.9044
益甚	-11.9044
左營	-11.9045
進奉	-11.9045
為都督	-11.9045
四星	-11.9045
之財	-11.9046
釐二毫	-11.9047
楚楚	-11.9047
實難	-11.9048
分布	-11.9048
去矣	-11.9049
朝官	-11.9049
樂毅	-11.9049
東出	-11.905
母后	-11.905
震動	-11.9051
二千四百	-11.9051
播州	-11.9052
縁邊	-11.9052
義學	-11.9053
蜡	-11.9053
汨	-11.9053
之助	-11.9053
未獲	-11.9053
之興	-11.9055
鐵錢	-11.9056
磁州	-11.9057
全無	-11.9057
介休	-11.9058
興修	-11.9058
自保	-11.9058
▁十里	-11.9061
四年三月	-11.9062
儂	-11.9062
縋	-11.9062
碁	-11.9062
擿	-11.9062
里西北至	-11.9062
有遺	-11.9062
經年	-11.9063
公府	-11.9063
安設	-11.9063
元年置	-11.9064
光禄勲	-11.9065
右都御史	-11.9065
民安	-11.9066
以紀	-11.9066
禘祫	-11.9069
事姑	-11.9069
遵奉	-11.907
殿最	-11.907
叱之	-11.9071
師古曰言	-11.9071
巘	-11.9072
紀律	-11.9075
畏懼	-11.9075
三處	-11.9075
入京	-11.9076
擒其	-11.9077
具本	-11.9077
千頃	-11.9079
山巔	-11.908
息民	-11.9081
伊洛	-11.9082
以為非	-11.9082
政績	-11.9087
承辦	-11.9087
有是命	-11.9087
鳥鎗	-11.9088
茶陵	-11.9088
愕	-11.9089
而好	-11.9089
燉煌	-11.9091
兵勢	-11.9091
仍賜	-11.9092
官名	-11.9094
夀州	-11.9095
石工	-11.9095
卒官	-11.9095
居喪	-11.9096
之能	-11.9097
既立	-11.9097
䝉古語	-11.9097
漢制	-11.9098
▁黃	-11.9098
迤西	-11.9098
亦須	-11.9099
垜	-11.91
猫	-11.91
過也	-11.91
得實	-11.91
安陵	-11.9101
在州西南	-11.9102
▁後漢書	-11.9104
都人	-11.9105
文皇帝	-11.9106
秋風	-11.9107
且夫	-11.9108
甲胄	-11.9108
之祀	-11.9108
此所以	-11.9109
鎮安	-11.9109
洮州	-11.9109
珊	-11.9109
遺愛	-11.9109
元年任	-11.9109
為奴	-11.9111
詔遣	-11.9116
守備一員	-11.912
馬上	-11.912
逃竄	-11.912
司香	-11.912
淵源	-11.9121
要之	-11.9122
田氏	-11.9123
莫測	-11.9124
四年四月	-11.9124
州同	-11.9125
韋昭	-11.9128
州領	-11.9128
營州	-11.9129
議欲	-11.9129
卒年	-11.913
王彦	-11.9131
體仁	-11.9132
侵犯	-11.9133
私意	-11.9133
赤水	-11.9133
修省	-11.9134
應請	-11.9136
長蘆	-11.9136
和帝	-11.9136
盃	-11.9137
篡	-11.9137
舞蹈	-11.9138
異常	-11.9139
不可得而	-11.9139
東接	-11.914
之子孫	-11.914
不敢不	-11.9141
葭	-11.9141
鄉舉	-11.9142
藩邸	-11.9143
閩縣人	-11.9143
餘石	-11.9143
十八卷	-11.9144
未見其	-11.9145
三晉	-11.9145
宗廟之	-11.9145
沓	-11.9146
▁䟽議曰	-11.9147
犯之	-11.9147
現任筆帖式	-11.9149
陳公	-11.9151
達實	-11.9152
▁釐	-11.9152
不齊	-11.9152
飛龍	-11.9153
劉子	-11.9154
厚恩	-11.9156
洸	-11.9156
賜諡	-11.9156
信安	-11.9157
物力	-11.9158
䖍州	-11.9159
名儒	-11.916
有如	-11.9161
永順	-11.9162
文武百官	-11.9162
北道	-11.9163
必勝	-11.9164
曾子	-11.9164
捫	-11.9165
澍	-11.9165
靚	-11.9165
豬	-11.9165
少帝	-11.9166
章疏	-11.9167
伯夷	-11.9168
諌曰	-11.9169
答拜	-11.917
曽經	-11.917
格外	-11.917
居庸	-11.917
人咸	-11.9171
清濁	-11.9173
之音	-11.9173
修造	-11.9174
竒兵	-11.9175
北接	-11.9176
亦謂	-11.9177
明王	-11.918
其居	-11.918
乾寧	-11.918
特以	-11.9181
尺餘	-11.9182
由來	-11.9183
矣遂	-11.9183
同年	-11.9183
無多	-11.9184
▁鼂氏曰	-11.9184
應否	-11.9184
帝親	-11.9185
帷幄	-11.9185
▁周易	-11.9185
偽翻	-11.9185
可立	-11.9189
尊崇	-11.919
諾爾	-11.9191
尚食	-11.9191
北漢	-11.9192
唯有	-11.9193
紺	-11.9194
漕渠	-11.92
準其	-11.92
十里至	-11.9201
至元二十	-11.9202
仇池	-11.9202
聽命	-11.9202
還家	-11.9202
何氏	-11.9202
八音	-11.9202
孰不	-11.9203
歸葬	-11.9203
立是為	-11.9204
蒲圻	-11.9205
軍吏	-11.9206
於學	-11.9207
獲之	-11.9208
又東北逕	-11.9209
一丈二尺	-11.921
晉武帝	-11.9211
指為	-11.9212
地丁	-11.9212
碭山	-11.9212
隲	-11.9212
率所部	-11.9213
涪州	-11.9214
鄉黨	-11.9215
牡丹	-11.9215
馬援	-11.9215
之訓	-11.9216
神道	-11.9217
寧都	-11.9219
𤦺	-11.9219
莫可	-11.922
也是故	-11.922
土田	-11.922
所薦	-11.9221
壠	-11.9222
瓣	-11.9222
郞	-11.9222
岢嵐	-11.9223
今日之事	-11.9223
前徃	-11.9223
縣故城南	-11.9224
督責	-11.9225
▁上天	-11.9225
上遣	-11.9225
掖門	-11.9225
京房	-11.9226
蓋以	-11.9227
二疋	-11.9227
等銀	-11.9228
服御	-11.923
黎庶	-11.923
嵩山	-11.9231
未立	-11.9231
燥	-11.9231
遺之	-11.9232
流沙	-11.9234
通濟	-11.9235
總裁	-11.9235
院使	-11.9235
孝亷	-11.9236
校理	-11.9236
之規	-11.9237
地土	-11.9237
屢經	-11.9238
敎諭	-11.9238
釐九毫	-11.9238
留任	-11.9239
廵狩	-11.9239
司𨽻校尉	-11.9241
政治	-11.9242
年久	-11.9243
命官	-11.9244
謂左右曰	-11.9245
衙前	-11.9247
之福也	-11.9247
月初三日	-11.9248
則已	-11.9249
順昌	-11.9249
忘其	-11.9249
所破	-11.925
易也	-11.925
垂簾	-11.925
幃	-11.925
仰天	-11.9251
攻克	-11.9253
果然	-11.9253
大笑	-11.9254
精舍	-11.9255
發帑	-11.9256
玉門	-11.9257
必由	-11.9258
忤㫖	-11.9259
聲名	-11.9259
於京師	-11.9259
淄川	-11.926
跌	-11.926
冺	-11.926
館陶	-11.9261
教養	-11.9262
并力	-11.9263
泰和人	-11.9263
察院	-11.9263
吕大防	-11.9263
盈縮	-11.9263
隆安	-11.9263
不好	-11.9264
才識	-11.9265
邊臣	-11.9265
獻忠	-11.9265
川省	-11.9267
朕惟	-11.9268
咸淳臨安志	-11.9269
偈	-11.9269
刳	-11.9269
裾	-11.9269
食盡	-11.927
私第	-11.927
感泣	-11.9271
桐城	-11.9272
盛事	-11.9273
雞鳴	-11.9277
不違	-11.9278
籍田	-11.9278
不勝其	-11.9278
五十卷	-11.9279
寢疾	-11.9279
焯	-11.9279
翬	-11.9279
讌	-11.9279
遒	-11.9279
俚	-11.9279
髙明	-11.9279
常在	-11.9279
可保	-11.9279
六品以下	-11.928
等書	-11.9282
百金	-11.9282
難行	-11.9283
隨州	-11.9283
變易	-11.9285
能知	-11.9287
遺腹	-11.9287
内帑	-11.9288
預為	-11.9288
之賦	-11.9288
以平	-11.9289
曹參軍	-11.9289
祀宋	-11.929
布爾	-11.9291
周詳	-11.9292
疆域	-11.9293
晉宋	-11.9294
諸弟	-11.9295
乎若	-11.9296
情理	-11.9297
林邑	-11.9297
功加	-11.9298
幇	-11.9298
䝉遜	-11.9298
被圍	-11.9299
旬月	-11.9299
壇上	-11.93
禮文	-11.93
以徇	-11.9301
循吏	-11.9301
長垣	-11.9301
亦復	-11.9302
宋紹興	-11.9304
巡按御史	-11.9304
鄭人	-11.9305
俱各	-11.9305
事下	-11.9306
信任	-11.9306
剛中	-11.9306
羣生	-11.9306
仍行	-11.9307
與劉	-11.9307
雲貴	-11.9307
率多	-11.9307
淯	-11.9307
靑	-11.9307
簠簋	-11.9307
鏃	-11.9307
迸	-11.9307
既多	-11.9308
相為	-11.9308
乃能	-11.9309
賊兵	-11.9309
七嵗	-11.931
一念	-11.9311
知縣張	-11.9311
力不能	-11.9311
足為	-11.9312
九十四	-11.9313
韓侂胄	-11.9314
題補	-11.9314
吏事	-11.9314
忠言	-11.9315
瑊	-11.9316
據實奏	-11.9317
燼	-11.9317
三年六月	-11.9317
僦	-11.9317
喙	-11.9317
兩翼	-11.9317
馬戰兵	-11.9318
並非	-11.9319
昭然	-11.9319
節鉞	-11.9319
時論	-11.932
里中	-11.9321
遼州	-11.9322
龍城	-11.9323
且有	-11.9325
又分	-11.9325
粱	-11.9326
之暇	-11.9327
年羮堯	-11.9327
鉶	-11.9327
者獨	-11.9327
今宜	-11.9327
蘄水	-11.9328
修徳	-11.9331
孝悌	-11.9332
押班	-11.9332
起自	-11.9332
真州	-11.9332
有違	-11.9332
西南夷	-11.9332
必不能	-11.9333
年置	-11.9334
碑云	-11.9334
此理	-11.9335
下民	-11.9336
不支	-11.9336
從寛	-11.9336
輕車	-11.9337
虎牢	-11.9339
奉法	-11.934
絲毫	-11.934
一萬五千	-11.934
鎮北	-11.9341
覆之	-11.9342
罪狀	-11.9343
風濤	-11.9343
河曲	-11.9344
親近	-11.9344
受冊	-11.9345
危亡	-11.9345
霈	-11.9346
杪	-11.9346
漊	-11.9346
蚡	-11.9346
䙝	-11.9346
條陳	-11.9346
經綸	-11.9347
雷雨	-11.9347
六安	-11.9348
接壤	-11.9348
弓弩	-11.935
左軍	-11.9351
閣臣	-11.9351
講義	-11.9352
石梁	-11.9352
戒嚴	-11.9353
韓氏	-11.9353
抉	-11.9355
安静	-11.9356
賊巢	-11.9357
與楚	-11.9357
水又東逕	-11.9359
勵精	-11.9359
語及	-11.9359
凡事	-11.936
利民	-11.936
隨事	-11.9361
公弼	-11.9362
四年置	-11.9362
漢主	-11.9362
▁祝	-11.9363
亦猶	-11.9363
馬駝	-11.9363
冊寶	-11.9363
斵	-11.9365
璹	-11.9365
适	-11.9365
蔭	-11.9365
兼并	-11.9367
人正徳	-11.9367
三年置	-11.9369
老矣	-11.937
達什	-11.9371
百八十里	-11.9373
止令	-11.9373
殿試	-11.9374
造作	-11.9375
驪山	-11.9376
當道	-11.9376
相合	-11.9376
充國	-11.9379
正八品	-11.9381
疾篤	-11.9381
黃帝	-11.9382
嵬	-11.9383
更加	-11.9384
攸之	-11.9384
仕進	-11.9384
欲殺之	-11.9384
亊	-11.9384
因以名	-11.9386
師旅	-11.9386
一十一	-11.9387
年十	-11.9388
科銀	-11.9389
楊素	-11.939
率皆	-11.9391
及時	-11.9393
指授	-11.9393
乾德	-11.9394
雷州	-11.9395
遠近	-11.9396
不愛	-11.9399
抵罪	-11.94
吳楚	-11.9401
糧食	-11.9401
仍於	-11.9402
冢宰	-11.9402
石洞	-11.9402
修城	-11.9405
陽翟	-11.9406
者多矣	-11.9406
乃謂	-11.9407
徙都	-11.9408
縣南三十里	-11.941
伏思	-11.9411
之寄	-11.9412
猶恐	-11.9413
勳	-11.9413
▁㫖依議	-11.9413
已後	-11.9413
繼祖	-11.9415
一種	-11.9415
文正	-11.9416
曹彬	-11.9416
而外	-11.9417
告于	-11.9417
太子詹事	-11.9417
建成	-11.9417
病者	-11.9417
黄鍾之	-11.9419
帝欲	-11.9419
地方人其	-11.9419
蔡氏	-11.942
孝昭	-11.942
秘書省	-11.942
▁太宗文皇帝	-11.942
情罪	-11.942
畿輔	-11.9421
義州	-11.9422
事竣	-11.9422
南部	-11.9423
周公之	-11.9423
澗水	-11.9423
脅從	-11.9423
莫非	-11.9424
呉江	-11.9424
六師	-11.9426
直書	-11.9426
殿中丞	-11.9427
失業	-11.9427
之可也	-11.9428
莊王	-11.9429
乘間	-11.9429
元日	-11.943
南來	-11.9431
趙魏	-11.9431
名位	-11.9431
供應	-11.9432
固山貝子	-11.9432
窻	-11.9432
韙	-11.9432
龍圖閣直學士	-11.9433
御批	-11.9433
名色	-11.9433
永興軍	-11.9433
勿令	-11.9434
内壝	-11.9435
水田	-11.9436
之念	-11.9436
升堂	-11.9438
止長	-11.9439
保大	-11.9439
從事中郎	-11.9442
冽	-11.9442
鍋	-11.9442
迤邐	-11.9442
用力	-11.9444
行狀	-11.9445
内屬	-11.9448
銀一百	-11.9449
武皇	-11.9449
商酌	-11.945
𢎞治間	-11.9451
二頃	-11.9451
纉	-11.9452
也願	-11.9453
貼黄	-11.9458
唐縣	-11.946
紵	-11.946
正七品	-11.9461
營汛	-11.9461
!	-11.9461
堦	-11.9461
疽	-11.9461
太乙	-11.9463
西境	-11.9463
莫知所	-11.9464
經始	-11.9465
子良	-11.9465
行軍司馬	-11.9466
不患	-11.9468
八十餘	-11.9468
寓居	-11.9469
又恐	-11.947
隋改	-11.947
北二十里	-11.947
誓死	-11.947
治行	-11.9471
頺	-11.9471
不爲	-11.9471
寧古塔	-11.9471
副將軍	-11.9475
弓手	-11.9476
營繕	-11.9476
數百萬	-11.9476
學教授	-11.9477
同安	-11.9478
雲集	-11.9479
招安	-11.9479
北來	-11.948
乃欲	-11.948
兕	-11.9481
周天	-11.9481
祗候	-11.9482
爪牙	-11.9483
其術	-11.9483
龍首	-11.9483
華嚴	-11.9483
蓍	-11.9484
掌書記	-11.9484
仍命	-11.9484
智勇	-11.9486
初定	-11.9486
梁國	-11.9486
聖訓	-11.9486
將安	-11.9487
杜預曰	-11.9487
都下	-11.9489
濩	-11.9491
呉郡	-11.9492
至扵	-11.9492
應照	-11.9492
告以	-11.9492
重鎮	-11.9492
警蹕	-11.9493
通海	-11.9494
樓煩	-11.9495
元屬	-11.9495
縣名屬	-11.9495
兼中書令	-11.9496
讓之	-11.9496
殺我	-11.9497
湖山	-11.9498
抗疏	-11.9499
宫内	-11.9499
勞費	-11.9501
欽此欽遵	-11.9501
太醫	-11.9501
停其	-11.9505
一女	-11.9506
頗為	-11.9507
大順	-11.9507
噲	-11.9509
巍巍	-11.9511
都督僉事	-11.9511
太史令	-11.9512
理財	-11.9513
積弊	-11.9513
性至孝	-11.9515
殿直	-11.9516
用是	-11.9516
陞為	-11.9516
濟南府	-11.9516
闔門	-11.9517
使得	-11.9518
敵衆	-11.9519
窑	-11.952
擁兵	-11.952
斯言	-11.9522
孔子廟	-11.9522
化州	-11.9523
文理	-11.9523
永逺	-11.9526
定天下	-11.9526
帝意	-11.9526
中允	-11.9526
普濟	-11.9526
誠以	-11.9527
祈雨	-11.9528
正副	-11.9528
九萬	-11.9529
開復	-11.953
茂貞	-11.9531
大赦改元	-11.9532
氏世居	-11.9532
千乘	-11.9533
翰林學士承㫖	-11.9533
參將	-11.9534
全義	-11.9535
國亡	-11.9536
哉今	-11.9536
良法	-11.9537
倐	-11.9538
淑妃	-11.9538
為大司馬	-11.9538
茨	-11.9539
吾心	-11.9539
路轉運使	-11.9539
覓	-11.9539
何則	-11.9539
非敢	-11.9539
惜哉	-11.954
鄱	-11.954
佩刀	-11.954
歸誠	-11.9541
今古	-11.9541
革去	-11.9541
無嗣	-11.9544
在府治東	-11.9544
黜之	-11.9544
鄖陽	-11.9544
安寧	-11.9545
誠有	-11.9547
稱制	-11.9548
羆	-11.9548
顯徳	-11.9549
鎮軍	-11.9551
故老	-11.9551
昭陽	-11.9553
封還	-11.9553
僖祖	-11.9555
軍敗	-11.9557
堂邑	-11.9557
軍食	-11.9558
旛	-11.9559
罅	-11.9559
分屬	-11.9562
三等侍衛	-11.9563
嘯聚	-11.9563
酒酣	-11.9563
俞允	-11.9564
屹	-11.9564
費揚古	-11.9565
盡殺	-11.9565
假節	-11.9566
力請	-11.9567
耘	-11.9568
故宅	-11.9568
詧	-11.9569
世系	-11.9572
不乏	-11.9572
離散	-11.9574
質明	-11.9574
隆恩	-11.9575
工部郎中	-11.9575
系出	-11.9576
非吾	-11.9577
氏年二十	-11.9577
未央宫	-11.9577
洩水	-11.9578
之手	-11.9579
恩詔	-11.9579
月十一日	-11.958
伊吾	-11.9581
邉事	-11.9581
從六品	-11.9581
因以為	-11.9581
攻魏	-11.9581
納言	-11.9582
天興	-11.9583
朱泚	-11.9585
悛	-11.9588
耨	-11.9588
苕	-11.9588
軍容	-11.9589
時雍	-11.9591
萬斤	-11.9593
穡	-11.9594
嘉興府志	-11.9594
縱火	-11.9594
鄉兵	-11.9596
劑	-11.9596
死後	-11.9596
化成	-11.9597
都邑	-11.9597
修舉	-11.9598
縣名注見	-11.9598
雝	-11.9598
畏服	-11.9599
寕州	-11.96
▁段	-11.96
衝要	-11.96
清泉	-11.9602
巴圖爾	-11.9602
入秦	-11.9603
以絶	-11.9605
山東河南	-11.9606
或以為	-11.9606
王延	-11.9607
庚戍	-11.9607
霏	-11.9608
康居	-11.9608
尺六寸	-11.9609
二年十二月	-11.9609
縣省入	-11.9612
四年五月	-11.9613
者是也	-11.9616
聲教	-11.9616
請立	-11.9617
中郎将	-11.9619
海西	-11.962
歴陽	-11.962
陽氣	-11.9621
上邽	-11.9622
櫟陽	-11.9622
功德	-11.9625
内庫	-11.9625
數嵗	-11.9627
夣	-11.9628
洄	-11.9628
諄諄	-11.9628
寶應	-11.9629
湘潭	-11.963
尺四寸	-11.963
教子	-11.9632
來告	-11.9633
千餘級	-11.9633
添差	-11.9636
二年十一月	-11.9636
詳加	-11.9636
士英	-11.9637
待其	-11.9637
棄其	-11.9637
齊州	-11.9637
段氏	-11.9637
役法	-11.9637
成衮扎布	-11.9637
壙	-11.9637
鷗	-11.9637
聲聞	-11.9639
閩中	-11.964
復叛	-11.964
都昌	-11.964
景王	-11.9643
懼其	-11.9645
訶	-11.9647
也又曰	-11.9648
具摺	-11.9648
妻許氏	-11.9649
一萬二千	-11.9651
曹氏	-11.9652
騷動	-11.9652
不來	-11.9652
鄯善	-11.9653
建陽	-11.9654
題報	-11.9654
宗道	-11.9654
始平	-11.9655
一槩	-11.9656
過矣	-11.9656
瑒	-11.9657
多羅貝勒	-11.9658
再任	-11.9661
豈其	-11.9662
西鄉	-11.9663
能言	-11.9663
祥瑞	-11.9664
香爐	-11.9664
候補	-11.9666
各依	-11.9666
諸賢	-11.9666
為第一	-11.9667
跪奠	-11.9667
悮	-11.9667
棨	-11.9667
鬢	-11.9667
▁册	-11.9668
新唐書	-11.9668
出錢	-11.9668
控扼	-11.9669
復加	-11.9669
下吏	-11.9669
巴顔	-11.967
初任	-11.967
為人臣	-11.9671
者何也	-11.9671
荆公	-11.9671
靖難	-11.9671
▁辰	-11.9671
洞天	-11.9672
奠爵	-11.9673
知樞密院事	-11.9673
十一卷	-11.9675
京留守	-11.9676
今聞	-11.9677
又將	-11.9677
五言	-11.9678
皆然	-11.9678
格爾	-11.9679
二年十月	-11.968
兵甲	-11.968
疑即	-11.968
又經	-11.968
從九品	-11.9681
陳倉	-11.9681
東郊	-11.9682
俱死	-11.9683
縣西四十里	-11.9683
惟以	-11.9686
㑹合	-11.9686
槊	-11.9687
武弁	-11.9687
張本	-11.9688
張永	-11.9688
案牘	-11.969
恒山	-11.9691
賊將	-11.9691
察訪	-11.9691
鮮于	-11.9692
盥手	-11.9694
其姦	-11.9695
龍朔	-11.9695
三十名	-11.9695
復令	-11.9696
奉恩將軍	-11.9697
止是	-11.9697
所進	-11.9697
必大	-11.9697
髙陵	-11.9698
兆惠	-11.9699
示天下	-11.9699
臣之所	-11.97
北去	-11.9702
敗於	-11.9702
軍還	-11.9704
諮議	-11.9704
忠貞	-11.9706
熒	-11.9706
仙芝	-11.9707
集賢校理	-11.9707
陽江	-11.9707
所引	-11.9708
流寇	-11.9708
商販	-11.9709
漢家	-11.971
兵柄	-11.971
通衢	-11.9711
土城	-11.9712
祝融	-11.9712
豈以	-11.9713
王韶	-11.9713
譬之	-11.9714
二城	-11.9715
漕船	-11.9716
魚臺	-11.9716
亞夫	-11.9716
色如	-11.9716
悰	-11.9717
湼	-11.9717
友善	-11.9717
藝祖	-11.9718
無狀	-11.9718
天府	-11.9718
五湖	-11.9718
為災	-11.9719
守仁	-11.972
汜水	-11.972
該縣	-11.9721
濟濟	-11.9724
輔弼	-11.9724
不審	-11.9724
龍頭	-11.9724
取諸	-11.9725
平江府	-11.9725
佐命	-11.9726
晚年	-11.9726
方輿	-11.9726
職業	-11.9726
紀録	-11.9726
澣	-11.9727
簧	-11.9727
晉灼曰	-11.9727
明時	-11.9727
夀昌	-11.9727
字汝	-11.9728
折衷	-11.9728
滎	-11.9728
音樂	-11.9729
因命	-11.9729
老疾	-11.973
五嵗	-11.973
宻院	-11.9732
逆戰	-11.9732
輿鬼	-11.9732
十道	-11.9732
山一名	-11.9734
直龍圖閣	-11.9735
為副	-11.9735
田廬	-11.9736
束帛	-11.9736
夷則	-11.9737
團練使	-11.9737
聖慮	-11.9737
未平	-11.9738
所滅	-11.9739
孝皇帝	-11.974
將行	-11.974
自隨	-11.9742
安車	-11.9743
該省	-11.9745
亦稱	-11.9746
佶	-11.9747
誄	-11.9747
漕米	-11.9747
錢六分	-11.9748
▁先師	-11.9748
二萬餘	-11.9749
舊縣	-11.975
有惠政	-11.9752
貳百	-11.9752
所犯	-11.9752
長老	-11.9753
王庭	-11.9755
家産	-11.9756
反側	-11.9756
重進	-11.9756
?	-11.9756
軹	-11.9757
地分	-11.9757
將官	-11.9758
貞觀中	-11.9758
歸朝	-11.9759
今並	-11.9761
九十一	-11.9762
嵗終	-11.9762
縣北三十里	-11.9764
方澤	-11.9764
聖宗	-11.9764
安得不	-11.9765
軍機大臣	-11.9766
新紀	-11.9766
肘	-11.9766
側有	-11.9767
來奔	-11.9767
本心	-11.9768
一匹	-11.9769
齊名	-11.977
塔爾	-11.9773
勸進	-11.9773
已甚	-11.9773
經濟	-11.9774
丙戍	-11.9774
峯山	-11.9775
元年十二月	-11.9777
賊怒	-11.9777
大慶	-11.9777
河津	-11.9778
河隂	-11.9779
諸鎮	-11.9779
可矣	-11.9779
饑寒	-11.978
山莊	-11.9782
紹熙	-11.9782
出家	-11.9783
重榮	-11.9784
協理	-11.9784
唐武德	-11.9784
伐秦	-11.9784
椅	-11.9787
徤	-11.9787
百七十	-11.9787
而不為	-11.9787
被賊	-11.9788
▁奏為恭	-11.9788
正五品	-11.9788
太上皇帝	-11.9789
葱嶺	-11.979
餘並	-11.979
固宜	-11.979
盖以	-11.9791
元年十一月	-11.9791
遷官	-11.9791
者輒	-11.9792
益加	-11.9792
狼狽	-11.9797
道宗	-11.9797
訃	-11.9797
餉銀	-11.9797
界首	-11.9797
如天	-11.9798
滄海	-11.9799
學道	-11.9799
漢川	-11.98
疑有	-11.98
不知也	-11.98
知誥	-11.9801
九齡	-11.9801
黎州	-11.9803
國勢	-11.9804
軍統制	-11.9805
明兵	-11.9805
斿	-11.9807
闕失	-11.9808
兩次	-11.9808
福山	-11.9808
封樁	-11.9809
髙士	-11.9809
大患	-11.981
月十九日	-11.981
四府	-11.9811
方伯	-11.9814
四年六月	-11.9814
勒停	-11.9814
晉師	-11.9814
治西	-11.9814
等衙門	-11.9815
能使	-11.9816
清臣	-11.9817
汊	-11.9817
遂行	-11.9817
庫車	-11.9817
楊廷	-11.9817
獨斷	-11.9817
上海人	-11.9818
妻金氏	-11.982
祭文	-11.9821
天光	-11.9822
惜其	-11.9824
江右	-11.9825
騖	-11.9827
仄	-11.9827
搢紳	-11.9827
留神	-11.9828
降諭㫖	-11.9828
野人	-11.9828
允恭	-11.9829
東西面	-11.983
闗外	-11.9831
謂侍臣曰	-11.9831
不能得	-11.9831
隨即	-11.9832
司農寺	-11.9834
窖	-11.9837
一語	-11.9837
進號	-11.9839
詔贈	-11.984
公正	-11.9841
凡二十	-11.9841
同謀	-11.9841
漢書地理志	-11.9842
徳興	-11.9844
齋宫	-11.9845
不悛	-11.9845
鞮	-11.9845
但云	-11.9846
減半	-11.9847
將作	-11.9848
君子小人	-11.9848
寺前	-11.9848
三升	-11.9849
青田	-11.9849
恩賞	-11.9849
號稱	-11.985
雷霆	-11.985
評事	-11.9851
誣告	-11.9851
遁走	-11.9852
變通	-11.9852
張廷	-11.9853
仍留	-11.9853
優詔	-11.9854
二篇	-11.9854
密雲	-11.9857
樂業	-11.9858
㭍拾	-11.9859
王徳	-11.9859
講堂	-11.986
洪洞	-11.986
熈寜	-11.986
如其言	-11.9862
仰見	-11.9863
遂復	-11.9866
十員	-11.9866
郇	-11.9867
春申君	-11.9867
聲如雷	-11.9868
天池	-11.9868
仰視	-11.9868
字畫	-11.9868
凡八	-11.987
盛衰	-11.9871
惠民	-11.9871
部議覆	-11.9872
真卿	-11.9873
十四人	-11.9873
軍機	-11.9873
京朝官	-11.9874
自序	-11.9875
吕后	-11.9875
應鍾	-11.9875
挨	-11.9876
麻城人	-11.9876
河圖	-11.9876
山海闗	-11.9877
前史	-11.9877
讃	-11.9877
餓死	-11.9877
貧富	-11.9877
嗣昌	-11.9879
綿亘	-11.988
宗弼	-11.988
要路	-11.9882
丹陽尹	-11.9884
慎重	-11.9884
若之何	-11.9884
惠州	-11.9885
五度	-11.9885
進止	-11.9886
升祔	-11.9887
即當	-11.9888
上古	-11.9891
元朔	-11.9892
營守備	-11.9893
漢州	-11.9895
吉日	-11.9896
王黼	-11.9897
考校	-11.9897
堕	-11.9897
響應	-11.9898
史臣	-11.9899
光庭	-11.9899
府通判	-11.99
茅山	-11.99
一人掌	-11.9903
田禾	-11.9903
長卿	-11.9904
倍於	-11.9905
於此置	-11.9905
邊陲	-11.9906
為皇太后	-11.9908
死則	-11.9909
所遣	-11.9909
為限	-11.991
月二十四日	-11.9911
不决	-11.9911
闗東	-11.9911
越嶲	-11.9911
沂水	-11.9911
後徙	-11.9912
伏願	-11.9912
平越	-11.9913
富者	-11.9913
十篇	-11.9915
罸	-11.9918
吠	-11.9918
中傷	-11.9919
二星	-11.992
伯叔	-11.9921
未决	-11.9923
應時	-11.9925
無乃	-11.9925
不得與	-11.9927
藎	-11.9928
虺	-11.9928
蟾	-11.9928
邴	-11.9928
衙署	-11.9928
合肥人	-11.9929
士誠	-11.9929
奉議郎	-11.993
人夫亡守節	-11.9931
請改	-11.9931
文職	-11.9931
初除	-11.9933
之裔	-11.9933
聖政	-11.9934
在城東南	-11.9936
左手	-11.9937
髤	-11.9938
文館	-11.9938
十萬緡	-11.9939
情弊	-11.994
乾元元年	-11.994
圖籍	-11.9942
有疑	-11.9942
第進士	-11.9943
金帶	-11.9943
之事也	-11.9943
髙厚	-11.9943
和闐	-11.9944
西陽	-11.9944
竊恐	-11.9944
蘇州府	-11.9945
六宫	-11.9945
稱疾不	-11.9946
元載	-11.9946
髙皇帝	-11.9947
東境	-11.9948
諸羅	-11.9948
少昊	-11.9951
堂堂	-11.9952
洋洋	-11.9953
常徳	-11.9953
風俗通	-11.9956
葬於	-11.9956
乆而	-11.9956
十一人	-11.9958
杵	-11.9958
[...]
