<unk>	0
<s>	0
</s>	0
▁	-2.91158
)	-3.99236
/	-3.99409
(	-4.27374
之	-4.42211
以	-4.90854
也	-4.92173
而	-5.00842
為	-5.02393
▁(	-5.09422
者	-5.28277
有	-5.34648
其	-5.46573
曰	-5.49907
一	-5.59756
不	-5.66215
於	-5.6823
則	-5.68463
人	-5.7742
丨丨	-5.81668
中	-5.95554
子	-5.97332
大	-5.97536
上	-5.9797
與	-6.00366
如	-6.04151
無	-6.06878
下	-6.11037
自	-6.18265
時	-6.20752
至	-6.22519
三	-6.23311
見	-6.25576
用	-6.27037
生	-6.28281
在	-6.28654
得	-6.30006
故	-6.30993
此	-6.32635
王	-6.34095
出	-6.35548
詩	-6.3608
二	-6.36631
行	-6.377
書	-6.40424
言	-6.41181
/)	-6.43699
又	-6.44482
水	-6.45946
皆	-6.4598
是	-6.46363
作	-6.46521
及	-6.4956
丨	-6.5039
所	-6.50731
日	-6.5093
後	-6.52754
入	-6.5277
若	-6.53216
方	-6.53716
乃	-6.5511
兩	-6.55986
事	-6.58413
天	-6.5926
矣	-6.61411
云	-6.63469
公	-6.63647
山	-6.63884
五	-6.66696
去	-6.67225
或	-6.67333
于	-6.67517
文	-6.67608
傳	-6.69222
分	-6.69288
亦	-6.69587
使	-6.70046
即	-6.71419
道	-6.72219
令	-6.73359
四	-6.7336
多	-6.74011
相	-6.7532
名	-6.7553
心	-6.76436
氣	-6.78404
可	-6.7894
今	-6.79812
謂	-6.79818
同	-6.80003
正	-6.81044
當	-6.81259
長	-6.84401
風	-6.84954
然	-6.86194
成	-6.86894
非	-6.8707
爲	-6.90314
明	-6.90598
知	-6.91299
從	-6.92213
取	-6.9442
官	-6.94705
乎	-6.95255
字	-6.95446
法	-6.95478
數	-6.95656
石	-6.96085
因	-6.96372
將	-6.96622
内	-6.97399
小	-6.97875
欲	-6.97972
白	-6.98193
食	-6.98733
地	-6.99305
治	-7.00094
已	-7.0054
金	-7.01308
主	-7.0201
君	-7.02043
復	-7.02254
服	-7.02804
必	-7.03057
陽	-7.03371
元	-7.03441
前	-7.04096
重	-7.04163
經	-7.05701
平	-7.0591
本	-7.06803
馬	-7.09741
合	-7.10376
臣	-7.10594
能	-7.10856
未	-7.1098
家	-7.1199
命	-7.12131
先	-7.12747
處	-7.13399
焉	-7.1343
和	-7.14424
國	-7.14479
通	-7.14977
髙	-7.15472
六	-7.15583
立	-7.16209
神	-7.16747
來	-7.17219
等	-7.17348
何	-7.19738
初	-7.20391
實	-7.20792
州	-7.20931
安	-7.21268
居	-7.21732
雖	-7.21785
常	-7.21788
遂	-7.2239
外	-7.22822
門	-7.23251
清	-7.23333
南	-7.24551
張	-7.24613
帝	-7.24933
諸	-7.25259
發	-7.26022
歸	-7.2606
月	-7.26461
耳	-7.26778
九	-7.27162
散	-7.2762
加	-7.27981
黄	-7.28756
禮	-7.29227
過	-7.29751
李	-7.30124
周	-7.30139
善	-7.30951
民	-7.31257
盡	-7.31316
物	-7.31755
少	-7.31928
我	-7.32287
火	-7.32439
宜	-7.32502
花	-7.32599
兵	-7.334
死	-7.3393
病	-7.34521
問	-7.34854
身	-7.36257
陳	-7.3695
起	-7.37045
既	-7.37475
論	-7.37545
酒	-7.37821
易	-7.37963
東	-7.38155
木	-7.38922
寒	-7.39375
錢	-7.41456
惟	-7.4213
玉	-7.42215
西	-7.42345
聞	-7.42716
半	-7.42805
學	-7.4293
世	-7.43428
定	-7.43469
師	-7.4396
各	-7.44015
頭	-7.44281
求	-7.44698
夫	-7.44874
深	-7.46046
古	-7.46262
間	-7.46273
隂	-7.46325
熱	-7.46564
春	-7.46636
始	-7.46796
八	-7.46942
城	-7.4711
軍	-7.47347
漢	-7.47749
七	-7.47858
義	-7.47905
土	-7.47934
士	-7.48136
便	-7.48157
開	-7.48792
樂	-7.48793
龍	-7.48847
年	-7.48908
不能	-7.48978
光	-7.49084
甚	-7.49159
意	-7.49398
草	-7.49507
雲	-7.50399
好	-7.50681
思	-7.50716
度	-7.51155
朝	-7.51614
節	-7.52912
逺	-7.53302
應	-7.53384
守	-7.53389
進	-7.53439
唐	-7.53797
觀	-7.53843
不可	-7.53844
齊	-7.54104
聲	-7.54181
舉	-7.54345
且	-7.54433
徳	-7.55093
以為	-7.55212
十	-7.55252
北	-7.56078
新	-7.56485
注	-7.56561
色	-7.5675
吾	-7.57395
直	-7.57704
氏	-7.57911
湯	-7.58222
志	-7.59951
賦	-7.60192
更	-7.6027
猶	-7.60366
凡	-7.60528
青	-7.61227
稱	-7.61621
圖	-7.62029
反	-7.62049
置	-7.62107
香	-7.62238
利	-7.6267
請	-7.62884
止	-7.63054
足	-7.63309
難	-7.63782
宫	-7.6399
極	-7.64116
理	-7.64329
記	-7.65014
餘	-7.66006
天下	-7.66049
口	-7.66236
夜	-7.66668
女	-7.66693
衣	-7.67166
流	-7.67328
動	-7.67403
畫	-7.67903
還	-7.67966
藥	-7.68016
劉	-7.68493
集	-7.69578
並	-7.69719
體	-7.70589
受	-7.70626
坐	-7.71026
制	-7.71466
葉	-7.71562
仁	-7.72125
次	-7.72268
父	-7.72641
車	-7.72859
老	-7.73051
語	-7.73163
獨	-7.73165
田	-7.73176
似	-7.73396
華	-7.73474
都	-7.73622
縣	-7.7377
封	-7.73865
宋	-7.73964
百	-7.74028
説	-7.74229
真	-7.74434
别	-7.74667
音	-7.75304
廣	-7.75399
尚	-7.75436
晉	-7.75483
表	-7.75676
星	-7.75829
武	-7.76006
絶	-7.76129
衆	-7.76163
望	-7.76481
秋	-7.76674
所以	-7.77182
解	-7.77202
血	-7.77436
秦	-7.77965
信	-7.77979
府	-7.78614
㑹	-7.78854
飲	-7.78888
左	-7.79423
異	-7.7945
著	-7.79977
近	-7.80033
目	-7.8048
引	-7.80501
化	-7.80573
位	-7.80719
丨丨丨	-7.80882
魚	-7.80917
史	-7.81123
但	-7.81207
興	-7.82071
對	-7.82189
性	-7.82677
除	-7.83316
臨	-7.83989
屬	-7.84097
微	-7.84193
親	-7.84261
夏	-7.84283
不得	-7.84329
江	-7.84371
失	-7.84519
嘗	-7.84629
切	-7.8506
形	-7.85265
謂之	-7.85281
手	-7.85446
而不	-7.85795
宗	-7.85812
末	-7.85912
飛	-7.86222
積	-7.86236
每	-7.86403
梁	-7.86548
致	-7.86684
任	-7.86731
○	-7.87393
精	-7.8774
赤	-7.87879
固	-7.87921
母	-7.87987
變	-7.88313
勝	-7.88489
兼	-7.88513
力	-7.88529
俱	-7.88675
賜	-7.88997
終	-7.89497
痛	-7.89577
共	-7.89882
虚	-7.89966
客	-7.89969
卒	-7.90107
詔	-7.90217
林	-7.90235
貴	-7.90692
益	-7.91305
海	-7.91505
要	-7.91661
章	-7.91738
盛	-7.92155
伯	-7.92212
惡	-7.92259
▁治	-7.92338
爾	-7.92546
侯	-7.92562
哉	-7.92763
乾	-7.92899
首	-7.9294
敬	-7.93116
根	-7.93256
聖	-7.93423
丸	-7.93441
舊	-7.9377
交	-7.93855
視	-7.94195
疾	-7.94434
拜	-7.94884
傷	-7.94963
亂	-7.95379
竹	-7.95632
樹	-7.95676
許	-7.96217
司	-7.96419
雨	-7.96506
萬	-7.96615
修	-7.9696
河	-7.97358
象	-7.97465
載	-7.97709
空	-7.97906
温	-7.98052
景	-7.98557
角	-7.98678
輕	-7.98803
皮	-7.98918
奏	-7.99129
卿	-7.99366
政	-7.99601
郡	-8.00112
靈	-8.00489
路	-8.00584
結	-8.00845
德	-8.00968
素	-8.01033
賢	-8.01165
破	-8.01651
趙	-8.01867
殺	-8.02071
魏	-8.02436
奉	-8.0248
藏	-8.02522
送	-8.02756
比	-8.02925
滿	-8.02947
隨	-8.02985
辭	-8.03998
功	-8.04047
說	-8.04095
就	-8.04458
指	-8.04575
高	-8.05116
紅	-8.05142
類	-8.05904
連	-8.05959
右	-8.06296
補	-8.06441
邪	-8.06533
美	-8.06784
孫	-8.06815
甲	-8.06838
太	-8.07134
遇	-8.07154
牛	-8.07171
如此	-8.0757
細	-8.07715
吏	-8.0774
歌	-8.07815
建	-8.08105
蓋	-8.0849
須	-8.08534
急	-8.0871
所謂	-8.08945
降	-8.09036
喜	-8.09485
賊	-8.10053
骨	-8.10134
具	-8.10197
楚	-8.10302
伏	-8.10756
號	-8.11087
留	-8.11258
改	-8.11761
教	-8.11843
全	-8.11948
祖	-8.12249
嵗	-8.12378
良	-8.12388
向	-8.1241
并	-8.12957
亡	-8.13455
厚	-8.13799
朱	-8.1403
紀	-8.14068
面	-8.14135
轉	-8.14174
部	-8.14316
炒	-8.14489
率	-8.14622
謝	-8.14742
設	-8.14787
情	-8.14808
卷	-8.14869
種	-8.14878
臺	-8.15125
不知	-8.15223
筆	-8.15287
按	-8.15305
原	-8.15454
獻	-8.15468
養	-8.15482
布	-8.15519
莫	-8.15624
肉	-8.15986
議	-8.16026
落	-8.16027
御	-8.16832
祭	-8.16952
計	-8.17449
楊	-8.1757
備	-8.1761
兮	-8.1772
登	-8.17893
差	-8.18027
代	-8.18032
果	-8.18046
遊	-8.18476
誠	-8.18794
苦	-8.19269
盖	-8.20135
陵	-8.20211
容	-8.20306
執	-8.20405
題	-8.20609
戰	-8.20627
推	-8.20643
曲	-8.21164
順	-8.21221
遷	-8.2131
才	-8.21371
鄭	-8.21498
告	-8.21711
器	-8.22098
再	-8.22404
邊	-8.22628
承	-8.22905
遺	-8.23376
由	-8.23418
列	-8.23601
─	-8.23683
勞	-8.23693
省	-8.24264
丹	-8.24551
他	-8.24626
升	-8.24684
詳	-8.2469
却	-8.24733
召	-8.24892
持	-8.25153
彼	-8.25206
往	-8.25236
毒	-8.25476
胡	-8.25491
尊	-8.25663
宿	-8.25811
燕	-8.25934
調	-8.25948
一兩	-8.25976
野	-8.26038
遣	-8.26148
乗	-8.26178
退	-8.26313
久	-8.2661
造	-8.26966
收	-8.27123
堂	-8.27141
刑	-8.27279
宣	-8.27352
紫	-8.27612
豈	-8.27765
可以	-8.28014
殿	-8.28189
被	-8.28255
孝	-8.28374
薄	-8.28744
冷	-8.28782
愛	-8.28782
仙	-8.28851
葢	-8.2923
吳	-8.29266
恐	-8.29828
▁又曰	-8.29828
疑	-8.29924
羅	-8.29982
脉	-8.29993
攻	-8.30088
愈	-8.30475
忠	-8.3052
寳	-8.3062
顧	-8.31027
到	-8.31029
離	-8.31166
授	-8.31207
浮	-8.31296
兒	-8.31389
熟	-8.31571
𤣥	-8.3159
天子	-8.3163
存	-8.3168
衛	-8.31807
録	-8.31929
室	-8.32374
斷	-8.32715
權	-8.32762
仲	-8.32879
雜	-8.33074
羣	-8.33379
者也	-8.33448
識	-8.33508
謀	-8.33513
竒	-8.33557
職	-8.33718
俗	-8.33872
附	-8.33991
虎	-8.34086
韓	-8.34254
運	-8.34403
冬	-8.34504
嚴	-8.34552
掌	-8.34876
鳥	-8.34879
澤	-8.35003
叔	-8.35072
帶	-8.352
左右	-8.3524
考	-8.35426
簡	-8.35583
余	-8.35721
冠	-8.35777
驚	-8.35895
徐	-8.36017
篇	-8.3604
僧	-8.36247
放	-8.36404
曹	-8.36652
里	-8.37229
米	-8.37735
斯	-8.37886
忽	-8.38088
千	-8.38123
敗	-8.38221
鳴	-8.38288
依	-8.38298
禁	-8.38371
懐	-8.38434
夢	-8.38444
将	-8.38522
刻	-8.38942
悉	-8.39136
廟	-8.39153
刺	-8.39406
汝	-8.39489
儀	-8.40253
濟	-8.40529
寺	-8.4071
感	-8.40752
典	-8.40883
泉	-8.40909
工	-8.40927
吉	-8.40959
商	-8.41009
廢	-8.41078
露	-8.41087
移	-8.41158
先生	-8.41236
闕	-8.41356
予	-8.414
逆	-8.41806
越	-8.41971
適	-8.42139
候	-8.42259
煎	-8.42318
榮	-8.42338
威	-8.42586
味	-8.42804
垂	-8.42807
幸	-8.42943
申	-8.43223
只	-8.43282
端	-8.43341
研	-8.43419
耶	-8.43619
𫝊	-8.43662
▁又	-8.43784
毛	-8.43812
序	-8.43961
昭	-8.44241
看	-8.44249
延	-8.44355
崇	-8.44559
丨丨丨丨	-8.44735
杜	-8.44841
永	-8.44849
墨	-8.44852
勢	-8.45112
㣲	-8.45487
珠	-8.45494
炙	-8.46334
賞	-8.46778
池	-8.46788
堅	-8.46816
乘	-8.4685
試	-8.46879
郎	-8.46994
折	-8.4701
罪	-8.47235
漸	-8.47299
窮	-8.47321
丁	-8.4738
君子	-8.47448
孔	-8.47538
强	-8.47596
雪	-8.47605
施	-8.47656
業	-8.47741
大夫	-8.47809
休	-8.47874
羊	-8.48237
參	-8.48426
期	-8.48485
来	-8.48492
寄	-8.48591
私	-8.48657
而已	-8.48682
息	-8.48774
約	-8.48913
后	-8.48971
松	-8.49218
魯	-8.49304
十二	-8.49428
伐	-8.49523
之所	-8.49554
一名	-8.4957
選	-8.49629
寧	-8.49662
嘉	-8.49767
鄉	-8.50147
納	-8.50589
三年	-8.51054
枝	-8.5109
射	-8.51092
春秋	-8.51158
皇	-8.513
甘	-8.5136
徒	-8.51391
擊	-8.51402
陰	-8.5158
走	-8.51768
横	-8.51906
市	-8.52039
待	-8.52156
恩	-8.52161
保	-8.52568
營	-8.52719
背	-8.53042
一日	-8.53165
於是	-8.53264
黒	-8.53297
仍	-8.53297
聖人	-8.5345
孤	-8.53517
呼	-8.53588
▁右	-8.53758
尤	-8.53787
患	-8.53811
報	-8.53915
讀	-8.53967
舍	-8.53986
婦	-8.54004
疏	-8.54063
特	-8.54643
照	-8.54644
虛	-8.54667
瘡	-8.54736
諸侯	-8.54875
達	-8.55116
厯	-8.55229
印	-8.55368
怒	-8.55503
聽	-8.55535
質	-8.55557
尋	-8.55679
總	-8.55719
務	-8.55958
鎮	-8.5639
唯	-8.56423
烏	-8.56513
負	-8.56589
顯	-8.57105
鹽	-8.57133
智	-8.57237
吐	-8.57265
昔	-8.57455
條	-8.57515
塞	-8.57625
咸	-8.57663
據	-8.57771
鬼	-8.57793
朔	-8.57924
不敢	-8.5794
銀	-8.58233
聚	-8.58264
覺	-8.58344
姓	-8.58457
願	-8.58466
尚書	-8.58801
陸	-8.59015
覆	-8.59249
谷	-8.59281
眼	-8.59371
罷	-8.59382
妻	-8.59454
茶	-8.59833
妙	-8.59848
釋	-8.59853
勿	-8.59897
各一	-8.60422
最	-8.60824
憂	-8.60853
某	-8.6111
不足	-8.6132
游	-8.6132
將軍	-8.61327
蜀	-8.61338
又曰	-8.61355
證	-8.617
沈	-8.61845
弱	-8.61957
邑	-8.61962
川	-8.62159
福	-8.62271
詞	-8.62293
亭	-8.62572
樓	-8.62583
己	-8.62589
辨	-8.62893
幽	-8.63222
孔子	-8.63276
圓	-8.63387
贈	-8.63416
減	-8.63497
天地	-8.63516
井	-8.63517
逐	-8.63538
羽	-8.63691
充	-8.63932
弟	-8.63941
歲	-8.64049
闗	-8.64067
舞	-8.64089
畢	-8.64135
辛	-8.64161
之後	-8.64169
溪	-8.6417
律	-8.64277
管	-8.64363
然後	-8.64403
是也	-8.64558
暴	-8.64814
底	-8.64912
厥	-8.64933
孟	-8.64985
符	-8.64989
房	-8.65089
虞	-8.65247
危	-8.65264
註	-8.65417
帖	-8.65556
敵	-8.65577
裏	-8.6569
財	-8.65817
獲	-8.65871
英	-8.65888
蘇	-8.66027
了	-8.66043
昌	-8.66166
領	-8.66476
之間	-8.66881
消	-8.66894
稍	-8.66947
腫	-8.67224
濕	-8.67326
克	-8.67553
察	-8.67566
院	-8.67574
歴	-8.67657
慶	-8.67793
追	-8.67878
博	-8.68138
免	-8.68165
犯	-8.6839
忌	-8.68403
户	-8.68637
恭	-8.68662
徑	-8.6869
丘	-8.68715
秀	-8.68883
尾	-8.6892
投	-8.68999
巳	-8.691
季	-8.69128
雞	-8.69371
毎	-8.69387
庭	-8.6945
沙	-8.69505
富	-8.69602
蟲	-8.69626
第	-8.69731
害	-8.69775
習	-8.69971
殊	-8.70104
資	-8.70167
屋	-8.70384
監	-8.70408
偏	-8.70691
太守	-8.71227
夷	-8.71254
碑	-8.71321
關	-8.71412
狀	-8.71429
齋	-8.71452
量	-8.71502
絲	-8.71561
醉	-8.71655
閣	-8.71685
接	-8.7179
佛	-8.71929
衰	-8.72227
膏	-8.72323
㸃	-8.72344
詩丨丨	-8.72375
騎	-8.72375
縱	-8.72431
友	-8.72574
滅	-8.729
雄	-8.72919
損	-8.72921
薦	-8.73018
祀	-8.7305
格	-8.73064
幾	-8.73257
鼓	-8.73458
給	-8.73504
一人	-8.73545
含	-8.73869
二十	-8.74097
惠	-8.74166
甘草	-8.74371
詩曰	-8.74619
專	-8.7472
郭	-8.74881
畏	-8.74916
步	-8.75032
二年	-8.75125
穴	-8.75218
太子	-8.75227
謹	-8.75251
紙	-8.75333
笑	-8.75393
肝	-8.75498
迎	-8.75736
頗	-8.75786
采	-8.75792
早	-8.75929
誤	-8.76022
雅	-8.76159
履	-8.76581
汁	-8.76715
戒	-8.76749
假	-8.76834
雙	-8.76886
句	-8.77074
念	-8.77158
尺	-8.77266
舟	-8.7744
弦	-8.77507
塗	-8.77522
寶	-8.7783
哀	-8.78261
機	-8.78356
至於	-8.78511
辰	-8.78882
繼	-8.78904
洗	-8.78924
呉	-8.79016
龜	-8.79016
太祖	-8.79232
短	-8.79346
無所	-8.79354
逸	-8.79425
乆	-8.79497
崔	-8.7965
鼎	-8.79812
蘭	-8.80072
蛇	-8.80642
揚	-8.80677
曉	-8.81085
銅	-8.81173
齒	-8.8121
□	-8.81431
懸	-8.81439
宻	-8.81589
醫	-8.81601
園	-8.8177
船	-8.8183
宅	-8.81917
豐	-8.81935
訓	-8.82081
累	-8.8226
支	-8.82378
霜	-8.82595
統	-8.82671
産	-8.83171
棄	-8.83306
干	-8.83609
汗	-8.8362
品	-8.83685
影	-8.83798
脾	-8.8406
不同	-8.84243
曰此	-8.84328
席	-8.84396
之事	-8.84425
貫	-8.8443
寛	-8.84577
洞	-8.84633
誰	-8.84633
索	-8.84645
圍	-8.84893
效	-8.8495
術	-8.85177
救	-8.85282
増	-8.85413
腹	-8.85488
爭	-8.85491
傅	-8.85658
誅	-8.85761
粉	-8.85798
案	-8.85876
均	-8.86036
貞	-8.86233
隠	-8.86332
乞	-8.86643
衡	-8.86742
儒	-8.86758
隂陽	-8.86773
乳	-8.86976
盧	-8.86995
人之	-8.87168
脈	-8.87204
肺	-8.87207
胃	-8.87218
曽	-8.8729
殷	-8.87426
刀	-8.87443
為之	-8.87617
是以	-8.87661
燒	-8.87761
而後	-8.87839
腎	-8.88058
續	-8.88134
斗	-8.88197
辟	-8.88238
桑	-8.88769
怨	-8.88859
兄	-8.88963
歳	-8.88968
故曰	-8.88975
蒙	-8.89057
京	-8.89239
不及	-8.89263
梅	-8.89327
畧	-8.89443
翼	-8.89468
韋	-8.90109
乙	-8.90189
塵	-8.90328
側	-8.90401
蕭	-8.90432
盤	-8.90584
奔	-8.90602
隱	-8.90669
慮	-8.90715
元年	-8.90774
班	-8.90875
錦	-8.91312
採	-8.91329
顔	-8.91332
侍	-8.91547
夫人	-8.91678
之法	-8.91777
歩	-8.91855
卦	-8.91931
桂	-8.91947
朝廷	-8.92155
陛下	-8.92295
懼	-8.92297
壯	-8.92357
牙	-8.92481
逢	-8.92486
夀	-8.92636
其所	-8.92783
密	-8.92834
賀	-8.93023
百姓	-8.93115
洪	-8.93388
弗	-8.93534
宴	-8.93583
康	-8.93859
潤	-8.93878
服之	-8.93948
示	-8.94026
栁	-8.94039
賈	-8.94039
震	-8.94056
避	-8.94246
述	-8.94377
壁	-8.9445
波	-8.94514
詣	-8.94531
助	-8.94617
源	-8.94631
緑	-8.94682
泥	-8.94692
農	-8.94941
責	-8.95055
亦有	-8.95229
凶	-8.9527
煩	-8.95333
禹	-8.95552
静	-8.95772
湖	-8.95805
朕	-8.95883
爵	-8.95915
懷	-8.95946
陶	-8.95986
仰	-8.96013
婦人	-8.96351
麗	-8.964
榖	-8.96451
▁甘草	-8.96464
祠	-8.96531
之意	-8.96811
黑	-8.96907
振	-8.96931
禍	-8.97111
回	-8.97134
粟	-8.97265
杖	-8.97287
之道	-8.9734
役	-8.97375
忘	-8.97506
中有	-8.97536
茂	-8.97624
上下	-8.9774
扵	-8.97809
二兩	-8.97851
遲	-8.97867
卧	-8.97938
不見	-8.98009
麻	-8.98145
委	-8.98166
屈	-8.98186
禄	-8.98191
愚	-8.98197
鶴	-8.98364
▁宋	-8.98376
輔	-8.98514
赴	-8.98545
緩	-8.98736
雷	-8.98987
寫	-8.99024
戎	-8.99235
純	-8.99272
線	-8.99313
鍾	-8.9934
擇	-8.99533
阿	-8.99583
𢎞	-8.99631
籍	-8.99641
喪	-8.99736
徃	-8.99914
牧	-8.99988
眀	-9.00062
䇿	-9.00259
而無	-9.00311
貧	-9.00337
操	-9.00371
徴	-9.00518
淵	-9.00694
製	-9.00769
環	-9.00899
芳	-9.00902
翠	-9.00928
柔	-9.01019
曰吾	-9.0109
太宗	-9.012
鼻	-9.01217
▁欽定四庫全書	-9.01228
占	-9.01383
昏	-9.01393
佐	-9.01436
州刺史	-9.01486
蔡	-9.01506
族	-9.0171
讓	-9.01736
嗣	-9.01757
戲	-9.01821
三分	-9.01828
三十	-9.01828
蜜	-9.01834
夕	-9.01843
防	-9.02088
也故	-9.02329
司馬	-9.02477
閉	-9.02507
巧	-9.02658
凝	-9.02954
否	-9.02968
界	-9.03012
竊	-9.03095
會	-9.0315
翁	-9.03169
盈	-9.03207
循	-9.03314
勸	-9.03395
橋	-9.0351
荒	-9.0369
隆	-9.03962
敢	-9.04183
日月	-9.04339
限	-9.04469
征	-9.04561
維	-9.04595
有所	-9.046
珍	-9.04886
程	-9.05008
閒	-9.05076
剛	-9.05076
泰	-9.05088
旁	-9.05152
駕	-9.05231
桃	-9.05252
驗	-9.05411
肥	-9.05482
悲	-9.05505
脩	-9.05562
壽	-9.05571
式	-9.05624
者皆	-9.05643
▁唐	-9.05669
吕	-9.05715
飲食	-9.05719
况	-9.05896
又有	-9.05917
速	-9.05964
佳	-9.06158
庶	-9.06178
鐵	-9.06226
科	-9.06259
灰	-9.06307
諫	-9.06391
巖	-9.06591
例	-9.06651
襲	-9.06655
略	-9.06742
錄	-9.06743
憲	-9.06817
脚	-9.06877
沉	-9.06944
慎	-9.06983
當時	-9.07041
碧	-9.07382
半兩	-9.07435
莊	-9.07585
名曰	-9.076
蒸	-9.07678
獸	-9.07759
傾	-9.0776
於此	-9.08063
飾	-9.08097
貢	-9.08221
麥	-9.08353
舜	-9.08455
徵	-9.08459
勤	-9.08507
規	-9.08508
材	-9.0856
何以	-9.08592
怪	-9.08644
編	-9.08649
寵	-9.0877
只是	-9.08794
▁王	-9.08831
豆	-9.08875
浸	-9.0903
剉	-9.09107
偶	-9.09153
晚	-9.09213
之時	-9.09255
隋	-9.09267
三日	-9.0942
撰	-9.09566
飯	-9.09627
鹿	-9.09628
僕	-9.09862
滑	-9.09879
之言	-9.09954
旦	-9.0999
肅	-9.10103
館	-9.10118
銘	-9.1012
對曰	-9.10142
衝	-9.10228
漢書	-9.10242
詠	-9.10435
宰相	-9.10439
不如	-9.1045
審	-9.10477
之地	-9.10527
用之	-9.10532
繁	-9.10694
蒼	-9.10706
人也	-9.10706
燥	-9.10725
談	-9.10776
革	-9.10813
祥	-9.10868
郊	-9.10902
旋	-9.11012
千里	-9.11063
奪	-9.11133
之中	-9.11297
啓	-9.11315
馳	-9.11334
兄弟	-9.11366
招	-9.11484
宮	-9.1165
鏡	-9.11701
違	-9.11791
療	-9.11927
一分	-9.11971
配	-9.12181
之類	-9.12337
戴	-9.12415
講	-9.1248
輪	-9.12509
决	-9.12529
妄	-9.12832
韻	-9.12991
學者	-9.13124
胎	-9.13178
靜	-9.1318
耕	-9.13185
侵	-9.13199
抱	-9.13261
倍	-9.13434
費	-9.13539
三月	-9.1381
獄	-9.13849
荆	-9.13878
距	-9.13969
菜	-9.13974
髙祖	-9.13995
范	-9.14454
萬物	-9.14504
險	-9.14514
堯	-9.14557
琴	-9.14609
社	-9.15007
烟	-9.15091
史記	-9.1532
太陽	-9.15327
甫	-9.1548
五十	-9.15577
竟	-9.15757
倚	-9.15805
京師	-9.16003
輒	-9.16045
煮	-9.16063
其後	-9.16146
午	-9.16382
古人	-9.16444
舒	-9.1652
植	-9.16527
未嘗	-9.16633
停	-9.16718
隔	-9.16759
希	-9.16786
困	-9.16842
莖	-9.17044
亮	-9.17082
超	-9.17151
油	-9.17285
允	-9.17293
武帝	-9.17359
葬	-9.17562
徙	-9.17672
尹	-9.18004
討	-9.18008
殘	-9.18216
頌	-9.18312
答	-9.18564
卑	-9.18576
繫	-9.18635
訪	-9.18663
曾	-9.18708
姑	-9.18799
鳯	-9.18882
食之	-9.19008
煙	-9.19062
勇	-9.1908
爛	-9.1913
撫	-9.19183
陣	-9.19756
賔	-9.19792
恨	-9.19798
署	-9.19824
之心	-9.19961
第一	-9.20013
洛	-9.2007
唐書	-9.20074
淺	-9.2015
薛	-9.20209
賤	-9.20228
泄	-9.20312
柱	-9.20548
吹	-9.20593
痰	-9.20669
仕	-9.20782
小兒	-9.2082
▁又方	-9.21037
一錢	-9.21103
旗	-9.21215
渠	-9.21252
墓	-9.21298
為末	-9.21494
舌	-9.21504
疎	-9.21513
穆	-9.21614
斬	-9.21747
縁	-9.21801
倉	-9.21892
借	-9.21958
丞相	-9.21987
苑	-9.22001
必有	-9.22002
副	-9.22067
彦	-9.22127
自然	-9.22138
決	-9.22162
奴	-9.22213
帥	-9.22363
卜	-9.22595
宰	-9.2267
長安	-9.22714
暮	-9.22758
頓	-9.22765
兹	-9.22804
邉	-9.22882
弓	-9.22883
矢	-9.22966
岸	-9.22971
眞	-9.22998
圗	-9.23021
父母	-9.23108
幅	-9.23114
錫	-9.23203
晝	-9.23336
二人	-9.23444
蒲	-9.23481
逹	-9.23485
㫖	-9.2352
巨	-9.23606
使人	-9.23712
如何	-9.23724
衞	-9.23732
腰	-9.24011
之氣	-9.24168
淡	-9.24171
不復	-9.24248
之人	-9.24263
男	-9.24309
片	-9.24392
發熱	-9.24411
以上	-9.24614
彌	-9.24636
寅	-9.24693
孟子	-9.24867
碎	-9.24964
階	-9.24991
較	-9.25205
不止	-9.25503
享	-9.25573
之義	-9.2558
枯	-9.25633
漏	-9.25639
䘮	-9.2574
旣	-9.25843
烈	-9.25913
鳳	-9.26013
者為	-9.26161
詩云	-9.26327
狂	-9.26336
庚	-9.26342
黃	-9.26416
趨	-9.26465
津	-9.26493
贊	-9.26564
買	-9.26679
瑞	-9.26711
恒	-9.26784
斜	-9.26913
其人	-9.26914
周禮	-9.26969
像	-9.26999
築	-9.27049
強	-9.27049
亦不	-9.27091
四年	-9.27131
争	-9.27315
軒	-9.27476
倒	-9.27534
子孫	-9.27552
豪	-9.27553
謙	-9.27758
丙	-9.27763
扶	-9.27875
未有	-9.27919
言之	-9.27978
有餘	-9.28029
局	-9.2809
覽	-9.28213
單	-9.28217
謁	-9.2822
穀	-9.28278
五年	-9.28326
貪	-9.28374
輿	-9.28519
滯	-9.28584
境	-9.28655
學士	-9.28668
屯	-9.28757
天下之	-9.28798
導	-9.28879
之士	-9.28938
童	-9.28985
供	-9.29122
寢	-9.29165
淫	-9.29458
不為	-9.29477
不用	-9.29484
蔽	-9.29534
寸	-9.29567
蠶	-9.29609
員	-9.29775
知其	-9.29776
也今	-9.30134
包	-9.30285
介	-9.30593
茍	-9.30601
五分	-9.30724
▁原	-9.30832
傷寒	-9.30837
併	-9.30909
掩	-9.31181
正月	-9.3132
歎	-9.31359
磨	-9.31389
雍	-9.31991
脱	-9.32129
慈	-9.32284
錯	-9.32327
遵	-9.32418
堪	-9.32462
棗	-9.32528
▁人參	-9.32574
令人	-9.32668
暗	-9.32726
苗	-9.32774
愁	-9.32877
畜	-9.32901
後漢書	-9.3306
鮮	-9.3319
子曰	-9.33288
策	-9.33297
灸	-9.33306
啟	-9.33307
優	-9.33349
淮	-9.33563
校	-9.33693
禽	-9.33708
抑	-9.339
頃	-9.34014
古今	-9.34071
肆	-9.34119
黨	-9.34151
算	-9.34177
鴻	-9.34301
江南	-9.34318
不過	-9.34431
莫不	-9.34658
十五	-9.3468
以此	-9.34805
儉	-9.34827
裴	-9.34851
又云	-9.34864
厲	-9.34926
項	-9.34944
潛	-9.35096
桓	-9.35339
毁	-9.35341
迹	-9.35361
皆有	-9.35508
得之	-9.35598
邦	-9.35633
陷	-9.35741
焦	-9.35747
▁當歸	-9.35767
凉	-9.35792
壇	-9.358
足以	-9.35872
偽	-9.35938
燭	-9.35979
價	-9.35981
擬	-9.36273
輙	-9.36273
寡	-9.36313
犬	-9.36547
柳	-9.36554
翻	-9.36671
之數	-9.36718
預	-9.36836
住	-9.36848
晉書	-9.36997
託	-9.37012
穿	-9.37232
屢	-9.37266
寒熱	-9.37279
便是	-9.3732
以下	-9.37338
丑	-9.37377
人參	-9.37383
十一月	-9.37496
▁李	-9.37825
髪	-9.37908
手足	-9.37917
坤	-9.381
御史	-9.38131
測	-9.38149
妾	-9.38196
墜	-9.38216
竭	-9.38229
以爲	-9.38273
枚	-9.38316
廷	-9.38598
四方	-9.38628
無不	-9.38631
夾	-9.38741
亦可	-9.38745
以來	-9.38816
亥	-9.38867
聞之	-9.38888
皇帝	-9.38939
四時	-9.38987
歡	-9.39082
董	-9.39136
内外	-9.39161
賣	-9.39314
氷	-9.39377
燈	-9.39406
遠	-9.39458
尸	-9.39478
缺	-9.39505
可謂	-9.3957
䕶	-9.39923
書曰	-9.39939
焙	-9.39962
吟	-9.40031
丞	-9.40081
四十	-9.40209
毋	-9.40213
狗	-9.40842
臂	-9.40991
去皮	-9.40994
嶺	-9.41072
幹	-9.4112
▁明	-9.41202
晨	-9.41286
馮	-9.41302
者以	-9.41336
大小	-9.41518
筋	-9.41666
村	-9.4167
今日	-9.41719
文章	-9.41757
出入	-9.41792
貨	-9.41811
舎	-9.41911
後世	-9.41957
周公	-9.4203
叙	-9.42047
染	-9.42278
辱	-9.42349
遽	-9.42402
誦	-9.42405
之上	-9.4244
前後	-9.425
枕	-9.42567
活	-9.42571
三兩	-9.42625
傍	-9.42627
災	-9.4275
澄	-9.42801
禪	-9.42803
五月	-9.42992
傳曰	-9.4331
劑	-9.4335
峻	-9.43428
勒	-9.43441
吴	-9.4347
那	-9.43665
▁増	-9.43793
督	-9.438
劒	-9.44165
拂	-9.4421
辯	-9.44262
融	-9.44267
酸	-9.44294
判	-9.44341
扇	-9.44458
出於	-9.44573
鐘	-9.44652
濁	-9.44717
腸	-9.44735
盜	-9.44961
增	-9.44993
自是	-9.45058
敦	-9.45127
庸	-9.45231
糧	-9.45259
悟	-9.45377
▁張	-9.45631
▁─	-9.45699
皇后	-9.45709
蕃	-9.45752
割	-9.4584
屏	-9.45852
也若	-9.45863
鬱	-9.45927
削	-9.45995
俊	-9.46003
哭	-9.46049
當歸	-9.46113
瀉	-9.46121
想	-9.46123
東南	-9.46188
炮	-9.46231
姦	-9.46233
妃	-9.46236
不以	-9.4631
宇	-9.46514
援	-9.46517
亷	-9.46584
故也	-9.46593
貌	-9.46668
滋	-9.46708
拔	-9.46736
十年	-9.4695
紹	-9.47051
雀	-9.47107
輸	-9.47112
截	-9.47274
其事	-9.47381
徹	-9.47464
有司	-9.47479
暑	-9.4753
做	-9.47631
諭	-9.47783
一曰	-9.47845
璧	-9.47942
以其	-9.47955
尉	-9.47957
牀	-9.47974
出聖	-9.48023
没	-9.48046
赦	-9.48065
𤓰	-9.48068
付	-9.48085
一時	-9.48098
渡	-9.48243
靡	-9.48348
跡	-9.48355
饑	-9.4836
庫	-9.48394
之則	-9.48441
鑄	-9.48645
晦	-9.48667
文王	-9.48675
觸	-9.48678
針	-9.48722
披	-9.48755
宏	-9.48768
伊	-9.48868
祝	-9.48876
衇	-9.49277
小便	-9.49329
惑	-9.49393
提	-9.49405
不出	-9.49454
膿	-9.49641
慕	-9.49784
譜	-9.49936
而為	-9.50005
狐	-9.50011
十一	-9.50086
倫	-9.50112
有一	-9.5014
戊	-9.50157
膽	-9.50181
廬	-9.50231
基	-9.50292
脫	-9.50307
敏	-9.50351
藝	-9.50384
育	-9.50436
讀書	-9.50463
潔	-9.50542
弧	-9.50554
醋	-9.50597
瓊	-9.50628
虜	-9.5076
巢	-9.50783
劍	-9.50891
汗出	-9.51001
治之	-9.51161
敷	-9.51191
而去	-9.51398
小人	-9.51431
彈	-9.51603
弊	-9.51737
攝	-9.51743
閑	-9.51824
酉	-9.51985
衍	-9.51999
束	-9.52061
旱	-9.52107
勲	-9.52137
遍	-9.52267
殆	-9.52289
夫子	-9.52364
上有	-9.52381
鸞	-9.52524
大臣	-9.52542
股	-9.52572
厭	-9.52683
沒	-9.52752
不通	-9.52756
箇	-9.52775
也夫	-9.52919
悔	-9.52976
激	-9.52995
囊	-9.53029
篤	-9.53042
映	-9.53095
黄帝	-9.5333
左傳	-9.53402
寜	-9.53406
二錢	-9.53449
玩	-9.53487
之名	-9.53503
敎	-9.53656
翰	-9.53658
得其	-9.53675
驅	-9.53739
葛	-9.53914
斤	-9.53926
晴	-9.54002
繩	-9.54004
一百	-9.54276
絹	-9.54392
鑿	-9.54467
裁	-9.54476
第二	-9.54502
豫	-9.54675
段	-9.54875
之説	-9.5492
叛	-9.54955
綱	-9.55001
諱	-9.55131
逰	-9.55399
也其	-9.55413
競	-9.5552
不可以	-9.55558
帛	-9.55566
各二	-9.556
喻	-9.55669
溢	-9.55669
欽	-9.55766
奮	-9.55936
頻	-9.55996
附子	-9.56012
刺史	-9.56128
罰	-9.56195
遭	-9.56379
菊	-9.56432
其子	-9.5652
睡	-9.5654
秩	-9.56544
由是	-9.56572
幼	-9.56618
岳	-9.56619
零	-9.56697
陽氣	-9.56753
見之	-9.56809
羣臣	-9.56881
霧	-9.57066
之禮	-9.57075
鬼神	-9.57101
侍中	-9.57187
専	-9.57269
把	-9.57303
▁白	-9.57398
其中	-9.57449
鄙	-9.57464
冰	-9.57465
趣	-9.57496
眉	-9.57552
旅	-9.57568
峰	-9.57578
硯	-9.5758
茅	-9.57701
則有	-9.57794
袁	-9.58038
勅	-9.58048
從之	-9.58057
廉	-9.58174
脂	-9.58194
靣	-9.58204
鑒	-9.58217
佩	-9.58315
額	-9.58329
忍	-9.58338
雖有	-9.58349
纔	-9.58385
各有	-9.58412
者必	-9.58419
瓦	-9.58428
者有	-9.5843
曰我	-9.58442
藉	-9.58473
搗	-9.58538
六年	-9.58561
之子	-9.58665
銜	-9.58874
溫	-9.58938
竇	-9.58939
四肢	-9.58943
▁問	-9.58978
逃	-9.58999
疼痛	-9.59055
進士	-9.59068
芝	-9.59081
兆	-9.59185
絡	-9.59264
蕩	-9.59267
惜	-9.59301
漿	-9.59373
癸	-9.59407
一切	-9.59548
勉	-9.59594
荷	-9.59623
與之	-9.59625
秘	-9.59815
鄧	-9.59884
騰	-9.59897
孰	-9.59993
十六	-9.60012
桐	-9.60142
潰	-9.60236
灌	-9.60318
尅	-9.60325
八月	-9.60455
湏	-9.60461
之外	-9.60529
五色	-9.60566
之功	-9.6059
後漢	-9.60706
侍郎	-9.60802
五行	-9.60886
盗	-9.60946
頂	-9.6098
𨽻	-9.61159
渾	-9.61205
板	-9.6132
生於	-9.61479
尖	-9.61504
壬	-9.6151
奇	-9.61531
係	-9.61539
奚	-9.61707
取其	-9.61726
國家	-9.61767
牽	-9.62054
十三	-9.62169
姬	-9.62204
効	-9.62222
草木	-9.62232
艾	-9.62349
藻	-9.62486
輩	-9.62496
軸	-9.62513
泣	-9.62539
薑	-9.62542
繞	-9.62616
箭	-9.62636
凌	-9.62644
太后	-9.62664
三百	-9.62688
煑	-9.62759
打	-9.62829
晩	-9.62863
主之	-9.62996
之理	-9.63014
戸	-9.63031
二月	-9.63103
靖	-9.63256
弟子	-9.63276
偃	-9.63305
霞	-9.63359
主人	-9.63403
㸔	-9.63426
叢	-9.63525
國之	-9.63616
稽	-9.63655
着	-9.63681
山水	-9.63726
勁	-9.63832
熊	-9.63885
▁夫	-9.63932
瞻	-9.6394
八分	-9.64008
巾	-9.64034
十八	-9.64065
髮	-9.64265
絳	-9.64283
綿	-9.64314
人皆	-9.6432
而成	-9.64423
逼	-9.64615
聴	-9.64631
丈	-9.64643
者亦	-9.64657
殺之	-9.64704
萬里	-9.64797
觧	-9.64969
互	-9.64977
宋史	-9.65053
捕	-9.65072
歟	-9.651
鈎	-9.6515
▁撰	-9.6516
契	-9.6519
冬至	-9.65225
曜	-9.65314
拘	-9.65447
緯	-9.65523
禮記	-9.65635
裂	-9.65719
展	-9.6583
冦	-9.65868
漆	-9.6589
▁右為末	-9.65967
父子	-9.65995
見其	-9.66034
蠻	-9.66037
蓮	-9.66046
貼	-9.66185
窺	-9.66234
座	-9.66287
擢	-9.66307
乏	-9.66393
富貴	-9.66506
一升	-9.66596
練	-9.66736
泛	-9.668
不然	-9.66858
躬	-9.66914
壺	-9.66915
道士	-9.67
訖	-9.67008
故事	-9.67121
踰	-9.67342
帳	-9.67365
響	-9.67429
悦	-9.67442
囚	-9.67523
雉	-9.67568
鼔	-9.6759
峯	-9.67654
數十	-9.67675
不利	-9.67774
河南	-9.67775
籠	-9.67815
之際	-9.67821
㡬	-9.67867
洛陽	-9.68002
麟	-9.68137
百官	-9.68149
也然	-9.68174
戍	-9.68176
檢	-9.68186
其言	-9.68213
姚	-9.68366
獵	-9.68435
不相	-9.68486
猛	-9.685
膠	-9.68504
七日	-9.68521
欺	-9.68559
襄	-9.6862
煞	-9.68681
六十	-9.68734
浦	-9.6876
収	-9.68761
腦	-9.68803
旬	-9.6882
彊	-9.68976
明日	-9.68984
淳	-9.69065
墮	-9.69082
織	-9.69151
蘆	-9.69215
核	-9.6923
也又	-9.69361
軟	-9.69393
斂	-9.69429
整	-9.69493
公子	-9.69549
司徒	-9.69578
取之	-9.69622
寓	-9.69633
訟	-9.69719
十月	-9.69808
賓	-9.69851
則為	-9.69883
何如	-9.70009
鋒	-9.70029
䑕	-9.70083
祿	-9.70209
俾	-9.7026
文帝	-9.70267
垣	-9.70281
標	-9.70287
然則	-9.70294
健	-9.70492
徧	-9.70526
時有	-9.70553
冀	-9.70591
皆以	-9.70634
快	-9.70689
浪	-9.70705
摩	-9.70739
膝	-9.70833
黄連	-9.70847
之制	-9.70899
下有	-9.7092
又以	-9.71032
賛	-9.71051
彭	-9.71061
黍	-9.7124
冝	-9.71313
嘔	-9.71334
壊	-9.71354
如是	-9.71442
擁	-9.71505
岐	-9.71621
東西	-9.71656
各半	-9.71712
不食	-9.71787
古之	-9.71934
即位	-9.71973
椒	-9.72032
值	-9.72113
潮	-9.7213
不行	-9.72136
粒	-9.72159
稻	-9.72275
抵	-9.72281
為人	-9.72287
這	-9.72292
太隂	-9.7231
焚	-9.72409
文字	-9.72618
崖	-9.72665
渇	-9.7269
肩	-9.72732
鄰	-9.72745
弄	-9.72752
頭痛	-9.72758
鼠	-9.72906
視之	-9.72984
五錢	-9.73085
迷	-9.73092
犀	-9.73135
南北	-9.73135
譽	-9.73159
洲	-9.73174
不必	-9.73311
咎	-9.73378
七年	-9.7338
温服	-9.73425
魂	-9.73464
▁陳	-9.73574
之下	-9.73605
少許	-9.73607
七月	-9.73618
樞	-9.73658
者不	-9.73688
四月	-9.73717
甲乙	-9.73736
天之	-9.73787
東坡	-9.73789
所在	-9.739
痘	-9.73929
溺	-9.73958
卯	-9.73967
人物	-9.7404
幕	-9.74123
阻	-9.74131
沸	-9.7418
挾	-9.74242
遥	-9.74259
荀	-9.7426
囘	-9.74339
知之	-9.74404
拒	-9.74473
軌	-9.7451
西北	-9.74683
各三	-9.74702
喘	-9.74724
風雨	-9.74724
▁劉	-9.74732
坡	-9.7481
所得	-9.74817
料	-9.74923
巴	-9.74937
而有	-9.74954
繇	-9.75047
鍼	-9.75069
範	-9.75079
中國	-9.75174
鷄	-9.75189
河東	-9.75199
課	-9.75257
粥	-9.75371
詐	-9.75386
繡	-9.75543
甲子	-9.75563
記曰	-9.7558
時人	-9.7566
鬚	-9.75682
朗	-9.75768
崩	-9.75923
炎	-9.75954
十四	-9.75971
儲	-9.75986
恵	-9.7599
四兩	-9.75997
驕	-9.76046
之屬	-9.76147
▁白术	-9.7625
杜甫	-9.7639
痢	-9.76408
半夏	-9.76466
而愈	-9.76546
排	-9.76626
之日	-9.76738
的	-9.76779
餅	-9.76905
使者	-9.77046
槐	-9.77065
冊	-9.7713
普	-9.77224
第三	-9.77337
注云	-9.77341
𦂳	-9.77419
翔	-9.77426
粗	-9.77466
飢	-9.77508
大將軍	-9.77522
篆	-9.77529
二十四	-9.77672
誕	-9.77679
際	-9.77681
警	-9.77727
脹	-9.77753
鑑	-9.77782
冲	-9.77842
隅	-9.77952
渉	-9.77961
湘	-9.78041
􁀙	-9.78082
武王	-9.7812
酌	-9.78126
謬	-9.78172
大便	-9.78245
㵼	-9.78318
糞	-9.78572
太尉	-9.78743
橘	-9.78849
釣	-9.7886
暖	-9.78965
壓	-9.79069
不肯	-9.79101
虧	-9.79107
症	-9.79144
六月	-9.79432
完	-9.79488
盟	-9.79497
旌	-9.79552
九月	-9.79579
庾	-9.79659
毫	-9.79778
飲酒	-9.79815
妖	-9.79817
慢	-9.79877
帝曰	-9.8003
生薑	-9.80047
藩	-9.80097
圜	-9.80138
誓	-9.80208
俞	-9.80244
本草	-9.80282
僅	-9.8029
二字	-9.80318
至于	-9.80419
換	-9.80505
其上	-9.80607
羞	-9.80635
裘	-9.80643
網	-9.80644
坎	-9.80681
挺	-9.80792
開元	-9.80884
透	-9.80905
荅	-9.8092
績	-9.80944
戌	-9.81018
唱	-9.81081
中書	-9.81149
而死	-9.81182
勾	-9.81184
暢	-9.81216
驛	-9.81226
究	-9.8124
貶	-9.81242
黄道	-9.81272
姜	-9.81284
女子	-9.81413
突	-9.81491
憶	-9.81505
縮	-9.81532
牢	-9.81548
霸	-9.81615
疼	-9.81732
司空	-9.81732
䝉	-9.81749
綠	-9.81795
晏	-9.8197
瘧	-9.82084
山谷	-9.82096
詩見	-9.82106
遣使	-9.82175
溝	-9.82191
其實	-9.82296
聘	-9.8231
鱗	-9.82347
擾	-9.82351
秉	-9.82378
液	-9.82426
祐	-9.8244
其家	-9.8258
涼	-9.82582
鞭	-9.82851
臭	-9.82879
乖	-9.82977
羙	-9.83023
今之	-9.83029
棲	-9.83103
柴	-9.8319
澁	-9.83254
鴈	-9.83275
一卷	-9.83336
圭	-9.83338
緒	-9.83364
郎中	-9.83378
西南	-9.83397
浴	-9.83412
潭	-9.83477
二百	-9.83494
痺	-9.83593
人心	-9.83718
不宜	-9.83726
旺	-9.83732
一作	-9.83814
爽	-9.83819
白术	-9.83836
陽明	-9.83853
栗	-9.83868
▁防風	-9.83878
絃	-9.83975
太極	-9.84024
脾胃	-9.84123
渴	-9.84161
七十	-9.84197
属	-9.84251
二分	-9.84279
藤	-9.84318
闊	-9.84345
下之	-9.84349
斑	-9.84389
創	-9.84412
曠	-9.84417
嬰	-9.84419
其心	-9.8443
閏	-9.84459
天地之	-9.84556
十二月	-9.84709
减	-9.84751
子弟	-9.84777
今人	-9.84789
婢	-9.84813
竝	-9.84863
蓄	-9.84899
徽	-9.84905
饒	-9.84952
酬	-9.85003
不言	-9.85049
壅	-9.85063
禮樂	-9.85211
淮南	-9.85413
四分	-9.85471
然而	-9.85487
淚	-9.85532
俟	-9.8555
▁右為細末	-9.85564
杯	-9.85663
者則	-9.85665
邵	-9.85725
迴	-9.85908
三公	-9.85937
至今	-9.85968
随	-9.86115
嶽	-9.86128
芍藥	-9.86172
覩	-9.8618
耗	-9.86322
不勝	-9.8641
南史	-9.86659
公主	-9.86681
爰	-9.86797
蓬	-9.86807
添	-9.86818
三寸	-9.86836
其餘	-9.86859
得一	-9.8692
暉	-9.86942
稷	-9.87088
攸	-9.87155
淨	-9.87284
大抵	-9.87358
澗	-9.87384
詔曰	-9.874
飽	-9.87443
㧞	-9.87479
者其	-9.8749
腹痛	-9.87494
低	-9.87511
臍	-9.87518
▁凡	-9.87541
㑹稽	-9.87556
博士	-9.87623
區	-9.87684
障	-9.87691
弔	-9.87737
已上	-9.8778
三錢	-9.87812
十日	-9.87815
文武	-9.87828
空心	-9.87903
惠方	-9.87916
恃	-9.87917
跋	-9.87927
其間	-9.88118
姿	-9.88331
裹	-9.88607
廻	-9.88681
協	-9.88742
刃	-9.88767
五日	-9.88867
公卿	-9.88872
抗	-9.8896
而下	-9.88964
朱子	-9.88969
男子	-9.88974
南方	-9.89027
匹	-9.89032
蟬	-9.89057
葱	-9.89088
漫	-9.89111
君之	-9.89163
大黄	-9.8928
呂	-9.89418
五百	-9.89528
主簿	-9.89625
爾雅	-9.89627
鄴	-9.8964
䧟	-9.89667
乾薑	-9.89746
胸	-9.89839
是時	-9.89871
不盡	-9.89977
匈奴	-9.89992
輕重	-9.90058
光武	-9.90125
愧	-9.90137
行之	-9.90203
探	-9.9023
疳	-9.90283
两	-9.90337
言其	-9.90494
紹興	-9.90587
去滓	-9.90629
數日	-9.90664
豹	-9.90668
爻	-9.9073
木香	-9.90799
是故	-9.90849
殻	-9.90866
七分	-9.90866
山川	-9.90896
長史	-9.90916
人有	-9.90944
答曰	-9.90971
嫌	-9.90979
嫁	-9.90981
▁月	-9.90987
不欲	-9.91026
啼	-9.91032
胥	-9.91056
而出	-9.91115
曰君	-9.91135
偉	-9.91206
不在	-9.91324
廵	-9.91331
湛	-9.91331
杏	-9.91418
咽	-9.91549
𩔖	-9.91581
卓	-9.91601
其名	-9.91603
遼	-9.91606
諌	-9.9164
潘	-9.91674
恥	-9.91793
中風	-9.91801
叅	-9.91812
君臣	-9.91882
之學	-9.91954
為一	-9.91983
層	-9.92011
坊	-9.92011
圖一	-9.92018
乍	-9.92023
不應	-9.9211
掠	-9.92159
擅	-9.92177
精神	-9.92206
弼	-9.92241
伍	-9.92276
穢	-9.92294
有人	-9.92305
甞	-9.92339
自有	-9.92422
而行	-9.92446
熬	-9.92482
樊	-9.92548
矩	-9.92571
一字	-9.926
遁	-9.92674
盆	-9.92703
斥	-9.92753
渚	-9.9277
漁	-9.92808
播	-9.92878
不與	-9.92905
握	-9.92922
伸	-9.92976
晝夜	-9.93046
則不	-9.93142
經曰	-9.93307
俯	-9.93356
腹中	-9.93448
不受	-9.93501
明堂	-9.9352
仗	-9.9354
節度使	-9.9362
黙	-9.93656
大如	-9.93697
猪	-9.93766
瘦	-9.9378
杵	-9.93887
隊	-9.93935
不至	-9.93953
㓜	-9.93986
褒	-9.94066
彩	-9.94121
促	-9.94147
▁晉	-9.94163
砂	-9.94174
歛	-9.94347
矜	-9.94409
途	-9.94485
公曰	-9.94526
綴	-9.94627
綺	-9.94673
祈	-9.9469
釐	-9.94718
黎	-9.94733
平生	-9.94859
混	-9.94869
紋	-9.94914
荆州	-9.94951
化為	-9.95053
驢	-9.95149
▁年	-9.95169
不當	-9.9523
稀	-9.95319
四海	-9.95323
吞	-9.95342
鳩	-9.95376
巫	-9.9545
薪	-9.95467
翳	-9.95513
濶	-9.95519
輦	-9.95549
防風	-9.95614
八年	-9.95617
血氣	-9.95625
夲	-9.95708
是為	-9.95785
嵩	-9.95794
不已	-9.9582
捨	-9.95831
亟	-9.96007
腐	-9.96085
誣	-9.96149
一二	-9.96249
柄	-9.96311
塊	-9.96359
三十六	-9.96413
之故	-9.96465
媚	-9.96483
恕	-9.96497
之於	-9.96573
卵	-9.96607
遜	-9.96626
簾	-9.96774
豈不	-9.96814
一年	-9.96833
艮	-9.9685
瓶	-9.96864
宗廟	-9.96967
臥	-9.97011
勑	-9.97051
之說	-9.97102
雕	-9.97171
為主	-9.97269
慰	-9.97319
聊	-9.97333
死者	-9.97733
几	-9.9777
臯	-9.97814
冒	-9.97818
▁史	-9.97824
劇	-9.97849
有大	-9.97879
是謂	-9.97887
之謂	-9.97929
彰	-9.97952
陋	-9.97977
暫	-9.98087
宛	-9.98091
貯	-9.98185
羮	-9.98198
山中	-9.98229
幣	-9.98242
古者	-9.98287
而生	-9.98308
論語	-9.98508
公孫	-9.98597
昇	-9.98648
昧	-9.98907
禦	-9.98929
社稷	-9.98947
魄	-9.98994
壞	-9.99044
狄	-9.99055
懿	-9.99099
竅	-9.99107
有功	-9.99107
潜	-9.9914
東北	-9.99218
葵	-9.99222
萌	-9.99222
白居易	-9.9923
之徒	-9.99248
醜	-9.99262
十餘	-9.99327
字子	-9.99347
民之	-9.99352
禾	-9.99376
悶	-9.9944
戚	-9.99501
太常	-9.99549
相似	-9.99574
従	-9.9959
弩	-9.99602
凖	-9.99608
一枚	-9.99752
麝香	-9.99768
叟	-9.9979
何也	-9.99813
不是	-9.99822
枉	-9.99882
肌	-10.0002
匪	-10.0015
方見	-10.0018
括	-10.0019
千金	-10.0022
膈	-10.0025
該	-10.0027
每服	-10.0028
緣	-10.0028
太原	-10.0033
膚	-10.004
㳺	-10.0042
不成	-10.0062
不足以	-10.0066
浩	-10.0071
後有	-10.008
茯苓	-10.0082
者非	-10.0091
後人	-10.0094
黄金	-10.0098
将軍	-10.0099
乃以	-10.0109
人主	-10.0112
▁茯苓	-10.0117
問曰	-10.0117
先王	-10.012
踐	-10.0122
薨	-10.0128
少陽	-10.0131
閲	-10.0132
求之	-10.0133
之内	-10.0137
塘	-10.0139
有三	-10.0146
人間	-10.0148
臧	-10.0155
▁黄	-10.0169
棘	-10.0185
東方	-10.0192
耀	-10.0202
濡	-10.0216
以示	-10.0216
奈何	-10.0221
兔	-10.0227
其身	-10.023
元氣	-10.0234
戈	-10.0235
揺	-10.0238
杏仁	-10.024
牆	-10.0248
纂	-10.0251
賴	-10.0259
擒	-10.0259
宋書	-10.0263
邪氣	-10.0265
況	-10.0266
矯	-10.0271
其意	-10.0284
▁漢	-10.029
王者	-10.0292
罔	-10.0294
從事	-10.0297
憑	-10.0304
眠	-10.0305
牲	-10.0305
團	-10.0309
涉	-10.0321
殺人	-10.0325
黄芩	-10.0326
綬	-10.033
億	-10.0333
一方	-10.0335
頸	-10.0338
見上	-10.0344
或曰	-10.035
安得	-10.0362
淋	-10.0366
▁黄芩	-10.0366
鷹	-10.0377
丨丨之	-10.0383
都督	-10.0384
仁義	-10.0385
濃	-10.0387
之物	-10.0394
稅	-10.0394
閭	-10.0395
之不	-10.0396
云云	-10.0398
剪	-10.0411
翰林	-10.0411
屠	-10.0413
税	-10.0421
洽	-10.0422
是非	-10.0429
涎	-10.043
寇	-10.0434
之所以	-10.0436
欵	-10.0444
棺	-10.0468
藍	-10.047
多少	-10.0474
貳	-10.0479
袖	-10.0479
三千	-10.048
男女	-10.0487
太平	-10.0492
憐	-10.0493
壤	-10.0493
芒	-10.0498
圃	-10.0514
嗟	-10.0515
寃	-10.0516
羌	-10.0527
往往	-10.0527
誥	-10.0533
無窮	-10.0535
狼	-10.0545
貴人	-10.0545
九年	-10.0548
六分	-10.055
之文	-10.0553
人以	-10.0562
氣血	-10.0562
毅	-10.0569
觀其	-10.0578
壘	-10.0582
饗	-10.0584
觀之	-10.0586
伊川	-10.0588
不識	-10.0591
析	-10.0611
十七	-10.0611
受命	-10.0613
柏	-10.0621
躁	-10.0628
一寸	-10.063
韶	-10.0631
斛	-10.0633
膳	-10.064
無以	-10.064
未能	-10.064
晋	-10.0648
禀	-10.065
竈	-10.065
州縣	-10.0651
或有	-10.0656
者謂	-10.0657
可見	-10.0663
見於	-10.0663
夭	-10.0671
數百	-10.0675
敕	-10.0679
節度	-10.0681
祗	-10.0683
準	-10.0687
李白	-10.069
祚	-10.069
人君	-10.0704
各一兩	-10.0706
踈	-10.0707
簿	-10.0709
之象	-10.071
▁木香	-10.0729
醒	-10.0734
水中	-10.0735
曰臣	-10.0738
紛	-10.0741
韓愈	-10.0746
則是	-10.0748
東海	-10.0753
百里	-10.0758
吏部	-10.0767
赤道	-10.0775
鵲	-10.0776
掃	-10.0778
仁宗	-10.0788
摘	-10.0791
蟹	-10.0791
状	-10.0801
塔	-10.0803
喬	-10.0804
神仙	-10.0806
箕	-10.0806
莊子	-10.0808
駭	-10.0809
蔵	-10.0809
故以	-10.081
而不能	-10.0818
匿	-10.0825
有二	-10.0826
輝	-10.0828
倦	-10.0833
准	-10.0837
返	-10.0852
柴胡	-10.0859
亦無	-10.0871
者乃	-10.0875
玄	-10.0876
罕	-10.0877
滴	-10.0879
曰昔	-10.0881
恤	-10.0887
者是	-10.0889
綵	-10.0889
娶	-10.0896
巽	-10.0899
話	-10.0902
譏	-10.0906
八十	-10.0907
冕	-10.0923
不合	-10.0923
至此	-10.0925
所居	-10.0927
一箇	-10.0927
士大夫	-10.0932
貝	-10.0953
北方	-10.0954
相與	-10.0955
也此	-10.0958
魁	-10.097
不忍	-10.0972
所見	-10.0973
戮	-10.0976
硬	-10.0981
二十五	-10.0988
膺	-10.0994
哲	-10.0995
淮南子	-10.0996
有丨丨	-10.1
豕	-10.1006
渭	-10.1014
細研	-10.1015
淑	-10.1023
變化	-10.1025
谿	-10.1034
隴	-10.1041
狀如	-10.1042
以自	-10.1045
樵	-10.1048
黜	-10.1052
鈞	-10.1062
▁半夏	-10.1064
賔客	-10.107
評	-10.1089
半徑	-10.1089
髙宗	-10.1107
去蘆	-10.1115
陂	-10.1116
在上	-10.1123
呈	-10.1125
埋	-10.1129
逮	-10.1131
二升	-10.1133
以致	-10.1134
麻黄	-10.1139
五代	-10.1143
寂	-10.1155
經云	-10.1156
之餘	-10.1168
喫	-10.1175
肇	-10.1175
畝	-10.1182
雁	-10.1184
西域	-10.1185
藴	-10.1188
三人	-10.1191
▁大黄	-10.1205
鬭	-10.1212
▁黄連	-10.1215
嘔吐	-10.1217
㪚	-10.1219
高祖	-10.122
不從	-10.1225
唇	-10.1235
瑩	-10.1235
托	-10.1235
脊	-10.1236
蠟	-10.1236
明年	-10.1237
丗	-10.1243
少年	-10.1247
蜂	-10.1264
苖	-10.1268
老人	-10.127
璽	-10.1274
瓜	-10.1276
▁桂心	-10.1277
酒浸	-10.1282
未必	-10.1283
竿	-10.1283
揖	-10.1286
刼	-10.1287
飲之	-10.1295
騐	-10.1308
訴	-10.1308
陰陽	-10.1308
迫	-10.1312
亞	-10.1318
鋪	-10.132
或以	-10.1321
熙	-10.1327
檀	-10.1332
揮	-10.1333
電	-10.1337
裕	-10.1344
汪	-10.1348
不許	-10.1354
煖	-10.1365
十九	-10.1367
朋	-10.1377
二寸	-10.1382
家人	-10.1383
兎	-10.1385
皆是	-10.1386
姓名	-10.1395
湯下	-10.1397
冩	-10.1398
泊	-10.1401
既而	-10.1403
揚州	-10.1404
梨	-10.1405
諧	-10.1409
亨	-10.1411
函	-10.1415
婁	-10.1416
癰	-10.1417
飬	-10.1419
无	-10.1426
風俗	-10.1427
巡	-10.143
躍	-10.1446
㦸	-10.1451
大者	-10.1457
邱	-10.1462
臟	-10.1463
屑	-10.1465
三代	-10.1467
成都	-10.1469
膀胱	-10.1472
匡	-10.1473
仇	-10.148
畔	-10.1481
進退	-10.1508
䟽	-10.1511
裔	-10.1516
於外	-10.1524
百餘	-10.1529
▁治小兒	-10.154
▁補藻	-10.1541
肯	-10.1542
者宜	-10.1547
老子	-10.1571
裝	-10.1583
津液	-10.1585
奸	-10.1588
賢者	-10.1593
斧	-10.1595
炭	-10.1607
牡丹	-10.1624
慧	-10.1625
恱	-10.1631
者多	-10.164
謨	-10.1645
帷	-10.1651
門外	-10.1652
於上	-10.1656
袍	-10.1662
爐	-10.1669
鬬	-10.1669
仲尼	-10.1671
汴	-10.1676
終日	-10.1677
欲以	-10.168
言語	-10.1682
號曰	-10.1693
菴	-10.1696
及其	-10.1698
其國	-10.1709
其氣	-10.1711
僕射	-10.1713
莽	-10.1715
同上	-10.1719
世之	-10.1723
失其	-10.1727
其下	-10.1737
文公	-10.1738
禱	-10.1738
聖賢	-10.1738
遐	-10.1741
恣	-10.1747
▁川芎	-10.1748
成王	-10.1767
誘	-10.1767
太史	-10.1768
拾	-10.1772
隣	-10.1787
太白	-10.179
第四	-10.1793
不安	-10.1794
不解	-10.1795
綏	-10.1795
猿	-10.1802
亢	-10.1814
苟	-10.1815
祭祀	-10.182
侈	-10.182
此言	-10.182
一物	-10.183
冶	-10.183
之本	-10.1834
豈可	-10.1837
場	-10.1839
㫁	-10.1844
凍	-10.1846
摹	-10.1849
文學	-10.186
抽	-10.1861
曰卿	-10.1871
劾	-10.1873
駿	-10.188
域	-10.1881
阜	-10.189
狹	-10.189
珪	-10.1896
當以	-10.1912
榜	-10.1917
漕	-10.1922
尼	-10.1923
曰汝	-10.1925
王氏	-10.1928
朴	-10.1943
貽	-10.1946
裳	-10.195
河北	-10.1953
魏書	-10.1953
瘥	-10.1957
態	-10.1961
之術	-10.1961
之書	-10.1962
街	-10.1963
道也	-10.1971
嗜	-10.1972
十分	-10.1986
宵	-10.1986
鋭	-10.1986
闢	-10.1989
其地	-10.1991
煨	-10.1995
訛	-10.1995
岡	-10.1997
濫	-10.1998
南陽	-10.2
▁附子	-10.2013
盞	-10.2015
慙	-10.2016
注曰	-10.2019
濇	-10.2019
𦵏	-10.2022
曰今	-10.2029
蔣	-10.2031
三四	-10.2035
筭	-10.2046
沃	-10.205
妻子	-10.2051
一斤	-10.2053
婚	-10.2057
之初	-10.2058
賦曰	-10.2075
吉凶	-10.2082
中興	-10.2088
烹	-10.2103
胸中	-10.2105
孔子曰	-10.2107
墻	-10.2107
校尉	-10.211
起於	-10.2111
澹	-10.2114
少隂	-10.2116
鮑	-10.212
妓	-10.2127
諷	-10.213
諸將	-10.2131
發汗	-10.2139
喉	-10.2139
不動	-10.2143
蘇軾	-10.2144
賁	-10.2145
不失	-10.2145
以後	-10.2149
熈	-10.2151
洩	-10.2154
其母	-10.2161
而言	-10.2162
為度	-10.2169
跪	-10.2171
翟	-10.2173
矣然	-10.2174
株	-10.2174
逺近	-10.2176
剖	-10.2177
桓公	-10.2181
坑	-10.2187
之藥	-10.2194
耳目	-10.2204
鬻	-10.2205
様	-10.2207
表裏	-10.2208
册	-10.2209
中丞	-10.2223
填	-10.2229
筍	-10.2247
之變	-10.2248
堯舜	-10.2253
則無	-10.2257
顛	-10.2261
阮	-10.2263
唾	-10.2266
隐	-10.2267
▁芍藥	-10.2277
灑	-10.2278
嘆	-10.228
乂	-10.2284
諡	-10.2285
人多	-10.2286
衣服	-10.2287
胃氣	-10.2289
戾	-10.2301
可也	-10.2303
其父	-10.2305
舅	-10.2308
豈有	-10.231
數年	-10.2322
觴	-10.2328
畵	-10.2329
西方	-10.2335
傑	-10.2339
之勢	-10.2342
桂枝	-10.2344
之官	-10.2345
中庸	-10.235
工夫	-10.2353
往來	-10.2354
草書	-10.2355
天道	-10.2356
加減	-10.2366
募	-10.2367
世祖	-10.2374
閔	-10.2375
擊之	-10.2375
暈	-10.2379
聖人之	-10.2387
圏	-10.2389
不明	-10.2395
其一	-10.2398
架	-10.2398
怠	-10.2402
▁周	-10.2403
餌	-10.2408
飄	-10.2411
五味	-10.2411
奠	-10.2417
莫能	-10.2428
榆	-10.2428
之劑	-10.2429
艱	-10.243
駐	-10.2433
以成	-10.2435
判官	-10.244
奢	-10.2441
頒	-10.2445
無事	-10.245
臘	-10.2458
邀	-10.2459
於人	-10.2465
帝王	-10.2466
不聞	-10.2478
二曰	-10.2479
本朝	-10.2487
若是	-10.2488
牒	-10.2488
墳	-10.2498
邁	-10.2505
人所	-10.2519
二子	-10.252
閱	-10.2525
擲	-10.253
掘	-10.2535
詢	-10.2543
漬	-10.2547
一月	-10.2552
級	-10.2563
所作	-10.2563
與人	-10.2564
以待	-10.2566
模	-10.2566
摧	-10.2566
台	-10.2574
笑曰	-10.2578
自古	-10.2578
蝕	-10.258
鐡	-10.2582
易之	-10.2594
不下	-10.2594
顔色	-10.2595
塲	-10.2601
不若	-10.2603
鴨	-10.2608
王子	-10.2611
攜	-10.2615
之職	-10.2616
秒	-10.2626
鵠	-10.2626
乾坤	-10.2648
聼	-10.2665
▁十	-10.2668
筵	-10.267
疊	-10.2675
故能	-10.2677
十萬	-10.268
道理	-10.2692
若有	-10.2692
柯	-10.2701
銖	-10.2703
而復	-10.2704
為大	-10.2706
霄	-10.2712
有此	-10.2719
荘	-10.2724
不仁	-10.2724
圎	-10.273
舍人	-10.273
疆	-10.2735
之位	-10.2738
故名	-10.2749
歎曰	-10.2755
不治	-10.2755
而能	-10.2758
僚	-10.2765
疲	-10.278
之患	-10.2781
銷	-10.2783
巻	-10.2783
之妙	-10.2785
不入	-10.2796
五六	-10.2796
山東	-10.2807
魏志	-10.2808
祕	-10.2813
不易	-10.2821
衣冠	-10.2821
隙	-10.2824
版	-10.2824
單于	-10.2828
未盡	-10.2829
疽	-10.2832
羸	-10.2838
▁乾薑	-10.2846
政事	-10.2849
栢	-10.2854
皮膚	-10.2855
太學	-10.2864
再拜	-10.2871
僻	-10.2874
敝	-10.2876
惡寒	-10.2881
辦	-10.2882
纎	-10.2887
孚	-10.2894
語曰	-10.2895
詭	-10.2897
縫	-10.2901
雌	-10.2908
縣令	-10.2909
神明	-10.2912
見一	-10.2913
匠	-10.2914
而反	-10.2919
士卒	-10.2931
之狀	-10.2932
其義	-10.2933
鎭	-10.2936
壑	-10.294
瑶	-10.2941
童子	-10.2942
不死	-10.2949
百年	-10.2955
不堪	-10.2955
於天	-10.296
緊	-10.2971
陟	-10.2974
不信	-10.2975
而得	-10.2978
京兆	-10.2979
陪	-10.2993
擣	-10.3005
曰夫	-10.3011
諸子	-10.3012
故其	-10.3013
纓	-10.3013
軫	-10.3014
道之	-10.3022
咨	-10.3027
拙	-10.3029
澀	-10.3033
何為	-10.3034
五寸	-10.3043
得失	-10.3043
饌	-10.3047
須臾	-10.3048
濤	-10.3053
不覺	-10.3061
札	-10.3064
耆	-10.3069
宫中	-10.3073
笛	-10.3074
二三	-10.3074
若不	-10.3075
月令	-10.3078
噫	-10.3085
虹	-10.3085
甚多	-10.3086
掾	-10.3087
撥	-10.3087
芙蓉	-10.3087
北史	-10.3095
之用	-10.3099
紂	-10.3119
諸公	-10.3122
第五	-10.3127
金石	-10.3128
縷	-10.313
䖍	-10.3133
而止	-10.3137
梓	-10.3137
貞觀	-10.3139
勃	-10.3139
纒	-10.314
上帝	-10.3142
郢	-10.3153
豫章	-10.3156
詰	-10.3156
右軍	-10.3158
之處	-10.316
术	-10.3167
亦曰	-10.3168
未知	-10.317
勵	-10.3172
俄	-10.3174
佞	-10.3181
楷	-10.3182
之精	-10.3184
上書	-10.3184
先是	-10.3184
不善	-10.3185
之利	-10.3192
霍	-10.3197
契丹	-10.3199
租	-10.3199
以前	-10.3201
巴豆	-10.3207
忿	-10.321
自此	-10.3214
久之	-10.3217
𥘉	-10.3223
或云	-10.3224
糊	-10.3235
爪	-10.3236
唐人	-10.3244
丈夫	-10.3255
▁按	-10.3258
訣	-10.3263
憤	-10.3265
故人	-10.3275
二十八	-10.3281
麵	-10.3281
故有	-10.3285
終不	-10.3286
沮	-10.3289
至是	-10.3289
演	-10.3307
箴	-10.3309
不容	-10.3309
所致	-10.3321
睛	-10.3331
各五	-10.3334
翅	-10.334
他日	-10.3358
五星	-10.3369
南山	-10.3378
淹	-10.3393
甕	-10.3393
其本	-10.3394
海内	-10.3395
鉤	-10.3396
南海	-10.3396
髓	-10.3397
床	-10.3406
三尺	-10.3409
衢	-10.341
十里	-10.3412
足下	-10.3414
平行	-10.3414
而不知	-10.3428
後魏	-10.3429
二日	-10.343
攀	-10.3432
不待	-10.3439
腫痛	-10.3439
倣	-10.3443
涕	-10.3444
杜牧	-10.3446
味甘	-10.3453
仙人	-10.3462
蹇	-10.3465
汲	-10.347
天理	-10.3477
人情	-10.3479
恢	-10.3481
分明	-10.3486
亦是	-10.3486
輅	-10.3487
叚	-10.3491
腹脹	-10.3497
頴	-10.3498
両	-10.3498
鹹	-10.3501
催	-10.3502
怯	-10.3505
去心	-10.3512
欠	-10.3515
元和	-10.3517
不絶	-10.3518
從容	-10.3525
聰	-10.3528
五臟	-10.3528
上曰	-10.3528
之國	-10.3536
蠱	-10.3541
浄	-10.3541
切並音	-10.3541
下利	-10.3543
風寒	-10.3544
逾	-10.3544
脯	-10.3549
者謂之	-10.3556
蘓	-10.3562
遮	-10.3562
夘	-10.3569
身熱	-10.3571
出聖濟	-10.3575
身體	-10.3586
皆可	-10.3593
昨	-10.3594
日夜	-10.3598
濯	-10.3608
闇	-10.3609
之臣	-10.3615
磬	-10.3616
之體	-10.3616
昆	-10.3617
心腹	-10.3621
捧	-10.3622
亦以	-10.3626
譬	-10.3627
皆為	-10.3636
程子	-10.3636
奕	-10.3638
痒	-10.3642
稜	-10.3643
無復	-10.3647
明帝	-10.3648
宗室	-10.3652
肌肉	-10.3658
郡縣	-10.3663
明皇	-10.3666
祖宗	-10.3669
蔓	-10.3669
胞	-10.3669
一尺	-10.3672
相見	-10.3676
桃花	-10.3679
孕	-10.3682
都尉	-10.3682
拱	-10.3686
檄	-10.3688
轡	-10.3699
者乎	-10.3699
在於	-10.3715
㕔	-10.3716
日三	-10.3718
拾遺	-10.3719
蹈	-10.3723
隸	-10.3723
綽	-10.3723
繪	-10.3725
天命	-10.3728
門下	-10.3738
四人	-10.3739
縛	-10.3744
蟻	-10.3747
皓	-10.3749
石膏	-10.375
欬	-10.3758
一度	-10.3759
八百	-10.3762
梗	-10.3776
眷	-10.3776
之樂	-10.378
芽	-10.3786
噐	-10.379
謂其	-10.3792
號為	-10.3793
蹄	-10.3795
終身	-10.3797
秦王	-10.3797
戯	-10.3798
籌	-10.3798
它	-10.3803
旨	-10.3808
在位	-10.3814
邢	-10.3818
遂以	-10.3819
不免	-10.3821
冢	-10.3824
義理	-10.3825
查	-10.3826
甄	-10.3827
球	-10.3828
銳	-10.383
何處	-10.3835
之志	-10.3836
矣故	-10.3844
嗚呼	-10.3845
百萬	-10.3849
遏	-10.3855
三曰	-10.3856
其文	-10.3864
▁楊	-10.3865
一旦	-10.3868
㝠	-10.3869
所生	-10.3871
東都	-10.3872
陳皮	-10.3873
之聲	-10.3873
奥	-10.3878
汚	-10.3878
伺	-10.3879
之性	-10.3885
貸	-10.3894
痞	-10.3897
此則	-10.3898
之病	-10.3903
州郡	-10.3903
贍	-10.3905
内史	-10.3906
嫩	-10.3911
許之	-10.3915
泰山	-10.3916
相去	-10.3928
驟	-10.3932
水火	-10.3933
水煎	-10.3944
豈非	-10.3952
薄荷	-10.3955
剥	-10.3957
▁細辛	-10.3959
猶有	-10.3959
春風	-10.3962
大學	-10.3963
以水	-10.3973
其法	-10.3976
水經注	-10.3981
筠	-10.3983
桀	-10.3984
䑓	-10.3984
數千	-10.3988
必先	-10.3996
道人	-10.4003
頼	-10.4003
誨	-10.4004
病者	-10.4005
巷	-10.4007
亦得	-10.4008
餉	-10.4009
欣	-10.4022
宣帝	-10.4024
刋	-10.4033
食前	-10.4034
九分	-10.4039
䕫	-10.4041
押	-10.4048
以求	-10.405
可知	-10.4052
胄	-10.4056
偷	-10.4058
沿	-10.406
陛	-10.4063
可用	-10.4068
仲景	-10.4073
歇	-10.4074
改為	-10.4078
崑崙	-10.4078
入於	-10.408
閩	-10.4081
之家	-10.4084
番	-10.4085
亦然	-10.4087
一種	-10.4087
書云	-10.4088
如故	-10.4089
毎服	-10.41
則其	-10.4103
其妻	-10.4107
䖏	-10.4108
夫婦	-10.4108
皷	-10.4109
本傳	-10.4111
濬	-10.4111
顔子	-10.4115
鳬	-10.4121
搏	-10.4122
恪	-10.4127
一事	-10.4129
人家	-10.4132
懲	-10.4132
榻	-10.4135
麥門冬	-10.4137
等分	-10.4141
壮	-10.4144
細辛	-10.4151
襄陽	-10.4152
心痛	-10.4155
曰天	-10.4156
憚	-10.4163
腹滿	-10.4163
幾何	-10.4164
岀	-10.4165
㨗	-10.4166
形如	-10.4168
挂	-10.4174
諒	-10.4174
糾	-10.4174
四寸	-10.4178
可為	-10.4179
衫	-10.4185
無人	-10.4187
叩	-10.4187
搜	-10.4191
侮	-10.4191
捷	-10.4193
元稹	-10.4199
▁柴胡	-10.42
不忘	-10.4211
物之	-10.4211
之民	-10.4217
傲	-10.4224
軰	-10.4225
皇太子	-10.423
堆	-10.4233
元祐	-10.4234
俠	-10.4235
凢	-10.4238
診	-10.4241
熏	-10.4247
酥	-10.4248
也言	-10.4251
禮部	-10.4253
蒿	-10.4255
苞	-10.4255
系	-10.4259
見得	-10.4261
人事	-10.4264
食後	-10.4264
搆	-10.4266
古文	-10.4267
粲	-10.4267
問之	-10.4268
衮	-10.4268
什	-10.4273
桂心	-10.4279
島	-10.428
白雲	-10.4294
鵝	-10.4294
山在	-10.4299
山林	-10.4301
此是	-10.4302
使之	-10.4305
麴	-10.4306
襟	-10.4308
先以	-10.4316
汙	-10.4317
其功	-10.4319
其道	-10.4319
喚	-10.432
無力	-10.4323
卽	-10.4325
謗	-10.4328
愼	-10.4334
者即	-10.4335
所載	-10.4344
山海經	-10.4357
之盛	-10.4361
聰明	-10.4369
王公	-10.437
受之	-10.4381
▁趙	-10.4388
者曰	-10.4388
即是	-10.4389
延年	-10.4393
岑	-10.4395
枳殻	-10.4398
朽	-10.4398
前有	-10.4401
相對	-10.4402
山有	-10.4408
物也	-10.441
▁穴	-10.4415
未可	-10.4416
筋骨	-10.4418
國公	-10.4424
蒜	-10.4429
嚼	-10.4429
大人	-10.4429
若此	-10.4435
而歸	-10.4435
確	-10.4442
燒灰	-10.4442
小者	-10.4445
白虎	-10.4447
夏至	-10.4447
在外	-10.4449
饋	-10.4451
屎	-10.4453
沐	-10.4454
劉禹錫	-10.4455
又問	-10.4457
郡國	-10.4458
彪	-10.4459
吸	-10.446
壻	-10.446
邈	-10.446
沛	-10.4461
所言	-10.4466
禘	-10.4467
總録	-10.4473
否曰	-10.4478
江淮	-10.4478
頰	-10.448
塗之	-10.4492
譚	-10.4495
處士	-10.4501
太公	-10.4505
以告	-10.4507
為君	-10.4508
王莽	-10.4509
諸生	-10.4511
齊王	-10.4513
椎	-10.4516
大腸	-10.4524
認	-10.4529
▁臣按	-10.4532
此皆	-10.4533
失之	-10.4534
煥	-10.4539
此乃	-10.4539
上言	-10.454
管仲	-10.4544
善惡	-10.4546
于是	-10.455
滕	-10.4554
太和	-10.4556
檻	-10.4562
元帝	-10.4563
須是	-10.4565
齊書	-10.4572
相傳	-10.4573
萬人	-10.4574
未及	-10.4578
桔梗	-10.4579
嶠	-10.458
之才	-10.4583
寡人	-10.4583
邸	-10.4591
煉	-10.4595
之道也	-10.4599
暇	-10.4603
頑	-10.4605
為細末	-10.4607
踏	-10.4612
麫	-10.4621
他人	-10.4621
二千石	-10.4622
聳	-10.4623
始於	-10.4635
不知其	-10.4636
脇	-10.4638
竄	-10.4644
謫	-10.4649
婆	-10.465
宜服	-10.465
千萬	-10.4652
揆	-10.4665
其形	-10.4666
睿	-10.4668
冥	-10.4669
誡	-10.467
技	-10.4675
箋	-10.468
栽	-10.4682
道路	-10.4683
長者	-10.469
蔡邕	-10.4692
▁梁	-10.4692
九日	-10.4696
突厥	-10.4697
駒	-10.4706
使君	-10.4709
煎服	-10.4716
時珍曰	-10.4724
胷	-10.4725
灾	-10.4728
牽牛	-10.4733
炊	-10.4733
笏	-10.4734
丁香	-10.4736
葦	-10.4737
馭	-10.474
窟	-10.4749
▁增	-10.4752
風熱	-10.4752
瀆	-10.4754
者如	-10.4758
般	-10.4761
二十七	-10.4767
之前	-10.4769
羡	-10.477
而立	-10.4772
江陵	-10.4772
用兵	-10.4774
五藏	-10.4777
梅花	-10.4779
灼	-10.4781
宥	-10.4784
太傅	-10.4789
八卦	-10.48
此方	-10.4805
▁麻黄	-10.4806
萊	-10.4806
左氏	-10.4808
傳云	-10.4809
之任	-10.4812
所為	-10.4816
鬢	-10.482
敖	-10.482
苔	-10.4822
冐	-10.4823
逕	-10.4826
之始	-10.4833
中外	-10.4835
措	-10.4835
白馬	-10.4837
四字	-10.4841
之情	-10.4841
摶	-10.4842
五升	-10.4847
廼	-10.4853
庻	-10.4863
補之	-10.4865
川芎	-10.4868
中央	-10.4869
主治	-10.4881
五經	-10.4883
小腸	-10.4885
起居	-10.4887
論曰	-10.4887
參軍	-10.4887
挽	-10.4888
控	-10.4894
在内	-10.4895
員外	-10.4896
㢘	-10.4897
掛	-10.49
者此	-10.491
之實	-10.4912
氣虚	-10.4916
必以	-10.4916
梧	-10.4922
日食	-10.4927
替	-10.4927
真宗	-10.4928
弁	-10.4941
其性	-10.4941
明月	-10.4945
布衣	-10.4946
所用	-10.4948
伴	-10.4948
之命	-10.4955
吝	-10.4956
内有	-10.4963
丙丁	-10.4966
説文	-10.4968
癖	-10.4969
閤	-10.4971
書畫	-10.4974
龎	-10.4978
好學	-10.4983
淪	-10.4986
洞庭	-10.4988
睦	-10.4995
舊唐書	-10.5001
孝經	-10.5002
歐陽	-10.5006
虐	-10.501
相公	-10.5011
六經	-10.5012
逝	-10.5014
甚者	-10.5015
則知	-10.5017
捉	-10.5017
則以	-10.5031
鄒	-10.5041
曷	-10.5042
構	-10.5042
諸軍	-10.5045
長生	-10.5046
綸	-10.5048
隂氣	-10.505
無有	-10.5052
潁	-10.5055
以備	-10.5055
代之	-10.5056
所出	-10.5057
曰某	-10.5059
一服	-10.5067
貴賤	-10.5068
不去	-10.507
者死	-10.5076
虗	-10.5078
紗	-10.508
寒暑	-10.5081
氏之	-10.5086
世家	-10.5086
良久	-10.5087
間有	-10.5089
心下	-10.5099
斫	-10.5099
裙	-10.5103
異之	-10.5103
俸	-10.5104
弛	-10.5106
者當	-10.5107
之徳	-10.511
厚朴	-10.5115
組	-10.5121
稠	-10.5127
非也	-10.5133
先後	-10.5138
廣陵	-10.5139
未至	-10.5139
螺	-10.5142
偕	-10.5145
琳	-10.5149
不生	-10.5153
歌曰	-10.5155
有五	-10.5162
伎	-10.5164
少時	-10.5166
升麻	-10.5166
不問	-10.5167
名也	-10.5167
猷	-10.5169
滛	-10.517
氐	-10.517
臻	-10.5173
碩	-10.5173
日中	-10.5173
周官	-10.5174
護	-10.5174
寔	-10.5179
眩	-10.5182
為政	-10.5189
銓	-10.5193
文選	-10.5196
宦	-10.5197
腕	-10.5201
痿	-10.5203
太師	-10.5204
-	-10.5207
朝夕	-10.5209
顆	-10.5216
軍中	-10.5219
執政	-10.523
十二年	-10.5237
鉛	-10.5247
鵞	-10.5247
副使	-10.5248
𤣥宗	-10.5249
牋	-10.525
煩躁	-10.5253
傅之	-10.5258
三焦	-10.5259
麾	-10.5261
麤	-10.5269
九十	-10.5271
酷	-10.5276
其志	-10.5278
管子	-10.5281
之罪	-10.5281
利害	-10.5289
謹按	-10.5299
之美	-10.5299
子路	-10.53
在下	-10.5303
何所	-10.5303
苓	-10.5305
糓	-10.5309
有聲	-10.5311
之世	-10.5318
制度	-10.5319
濕熱	-10.5325
邇	-10.5326
皆不	-10.5326
三軍	-10.5328
致仕	-10.5334
蟠	-10.5335
畨	-10.534
城中	-10.5345
曰子	-10.5345
其説	-10.5348
之政	-10.5352
抄	-10.5353
三升	-10.5355
▁右用	-10.536
梢	-10.5362
廊	-10.5364
而已矣	-10.5372
造化	-10.5375
捐	-10.5375
萃	-10.5378
鏤	-10.5378
祁	-10.5383
給事中	-10.5383
江東	-10.5385
雄黄	-10.5386
此心	-10.5388
有罪	-10.5392
或問	-10.5396
不自	-10.5397
蠧	-10.5403
二十一	-10.5405
慘	-10.5409
栖	-10.5409
也如	-10.5412
踵	-10.5412
雒	-10.5413
悅	-10.5415
嘯	-10.5428
法也	-10.543
䟦	-10.5434
韭	-10.5434
功臣	-10.5437
肘	-10.544
痔	-10.5445
無他	-10.5446
按之	-10.5446
可得	-10.545
已而	-10.5462
行書	-10.5462
厨	-10.5463
大事	-10.5474
芻	-10.5478
之語	-10.5481
三五	-10.5483
官至	-10.5485
國人	-10.549
千餘	-10.549
㠯	-10.5491
又名	-10.5493
乃止	-10.5495
悼	-10.5495
妹	-10.5502
汎	-10.5502
天子之	-10.5503
不可不	-10.5504
此其	-10.5507
相國	-10.5513
經絡	-10.5514
半錢	-10.5516
▁桔梗	-10.5517
朋友	-10.5519
樂府	-10.5526
大將	-10.5527
郷	-10.553
勿令	-10.553
六寸	-10.5536
理㑹	-10.5538
痩	-10.5544
以禮	-10.5544
繭	-10.5545
再服	-10.5548
堤	-10.5549
長沙	-10.5554
元豐	-10.5559
腸胃	-10.5559
何必	-10.5566
無異	-10.5567
長短	-10.5568
疹	-10.5569
雖不	-10.557
怕	-10.5571
儼	-10.5571
厥隂	-10.5572
瑟	-10.5579
為相	-10.5582
一篇	-10.5582
故謂之	-10.5587
喧	-10.5587
庾信	-10.5589
姪	-10.5592
拭	-10.5594
乙丙	-10.5595
沖	-10.5596
垢	-10.5598
各等	-10.5603
跳	-10.5606
牛膝	-10.5607
黄色	-10.5616
脅	-10.5622
髻	-10.5622
若干	-10.5623
廷尉	-10.5624
通鑑	-10.5626
檢校	-10.5636
▁陳皮	-10.5637
茹	-10.5638
贖	-10.5639
推之	-10.564
愛之	-10.564
事之	-10.564
有異	-10.5642
用事	-10.5643
産後	-10.5645
鶯	-10.5651
廣韻	-10.5651
無時	-10.5651
絮	-10.5653
天文	-10.5665
江西	-10.5666
五千	-10.5669
為丨丨	-10.567
或作	-10.5671
疇	-10.5672
跨	-10.5677
神宗	-10.5679
名為	-10.5687
嶺南	-10.569
三品	-10.5699
所以為	-10.5701
蛟	-10.5702
惡之	-10.5708
縈	-10.5709
妨	-10.5712
庶人	-10.5717
賦詩	-10.5718
太廟	-10.572
疫	-10.5723
璋	-10.5725
愍	-10.5725
讐	-10.5727
歐	-10.5729
北海	-10.5734
敘	-10.5742
時為	-10.5743
蠲	-10.5745
蔚	-10.5748
常以	-10.575
金陵	-10.5752
西京	-10.5754
薰	-10.5755
班固	-10.576
四五	-10.5764
六合	-10.5764
焙乾	-10.5767
忠信	-10.5774
坦	-10.5775
参	-10.5776
以丨丨	-10.5777
穎	-10.5778
霍亂	-10.5779
不聽	-10.5786
誼	-10.5786
所宜	-10.579
大怒	-10.5793
甲丙	-10.5796
流水	-10.5808
求其	-10.5813
少府	-10.5814
峽	-10.5824
悖	-10.5824
熾	-10.5829
攻之	-10.5829
法度	-10.583
甘露	-10.5831
恵方	-10.5832
二十年	-10.5833
未見	-10.5833
洋	-10.5835
伊尹	-10.5836
恬	-10.5838
太陰	-10.5845
宫室	-10.5852
寤	-10.5853
䕃	-10.5853
四面	-10.5853
門人	-10.5858
記云	-10.5865
樽	-10.5869
其書	-10.5872
粹	-10.5875
霽	-10.5875
揚雄	-10.5876
之至	-10.5882
▁麝香	-10.5883
而還	-10.5884
去其	-10.5884
春夏	-10.5885
簷	-10.5886
郡守	-10.5887
渙	-10.5889
此藥	-10.5894
其次	-10.5896
瑕	-10.5896
蓼	-10.5899
孝子	-10.5918
琰	-10.5919
周之	-10.5922
撮	-10.5932
汝南	-10.5932
吐蕃	-10.5938
視其	-10.5945
讎	-10.5945
奄	-10.5945
鈔	-10.5945
在此	-10.5947
之長	-10.5952
風流	-10.5956
牟	-10.5958
七八	-10.5958
鍊	-10.5958
綾	-10.5962
呼為	-10.5965
𢷬	-10.5968
啖	-10.5969
禽獸	-10.5969
然也	-10.597
當世	-10.5973
光明	-10.5977
妍	-10.5979
鐸	-10.5982
甸	-10.5985
聞其	-10.5988
此為	-10.5989
敞	-10.599
▁補註	-10.599
以至	-10.599
攪	-10.599
繆	-10.5992
蔬	-10.5997
讒	-10.6005
虚實	-10.6006
晏子	-10.6007
車馬	-10.601
梵	-10.6012
金銀	-10.6016
蹟	-10.6016
滌	-10.6017
下血	-10.6017
四曰	-10.6022
之形	-10.6022
閻	-10.6025
之要	-10.6028
澆	-10.6029
次第	-10.603
稼	-10.6034
宣和	-10.6034
藁	-10.6038
欒	-10.6039
病人	-10.6039
茗	-10.6045
二尺	-10.606
四百	-10.6062
諸王	-10.6063
州府	-10.607
十三年	-10.607
迭	-10.6072
犢	-10.6078
如此則	-10.6079
齎	-10.6079
炳	-10.6082
未發	-10.6083
忠臣	-10.6083
議者	-10.6084
鳥獸	-10.6084
陸機	-10.6085
博學	-10.6087
一家	-10.6088
士人	-10.6088
二十二	-10.609
因其	-10.609
葉似	-10.6092
▁杏仁	-10.6094
毛詩	-10.6095
平原	-10.6096
其理	-10.6097
愆	-10.6099
償	-10.6099
桞	-10.6099
鼈	-10.61
不和	-10.6105
之分	-10.6108
▁朱	-10.611
唐太宗	-10.6112
沾	-10.6113
守之	-10.6113
醴	-10.6115
之論	-10.6116
三十二	-10.6118
其聲	-10.6135
欄	-10.6136
誌	-10.6139
九州	-10.6139
熱毒	-10.614
於内	-10.6141
倡	-10.6142
畿	-10.6144
之使	-10.6144
居士	-10.6148
取汁	-10.615
國有	-10.6155
綜	-10.6155
之衆	-10.6157
儒者	-10.616
諸州	-10.6161
㓂	-10.6162
肚	-10.6163
糴	-10.6164
益州	-10.6168
於天下	-10.6171
秀才	-10.6173
而自	-10.6174
議論	-10.6176
麄	-10.6179
攷	-10.6181
浚	-10.6183
圖二	-10.6186
用此	-10.6188
東宫	-10.6192
也凡	-10.6193
不正	-10.6197
曰公	-10.62
扁	-10.6201
未得	-10.6206
不須	-10.6207
五兩	-10.6208
夙	-10.621
窠	-10.6211
塩	-10.6211
已下	-10.6212
壹	-10.6218
郭璞	-10.6223
婉	-10.6225
楚王	-10.6227
葱白	-10.6231
宜用	-10.6231
一言	-10.6231
乳香	-10.6232
君子之	-10.6234
相應	-10.6238
十五年	-10.6241
此亦	-10.6247
誇	-10.6249
入朝	-10.6251
山之	-10.6253
小便不利	-10.6254
七寸	-10.6257
而入	-10.6259
厄	-10.6259
即愈	-10.6259
風吹	-10.6266
疋	-10.6266
近世	-10.6268
美人	-10.6273
叱	-10.6278
西山	-10.6282
不息	-10.6282
之難	-10.6285
之證	-10.6289
筮	-10.6289
禮義	-10.6297
中山	-10.6303
荅曰	-10.6305
丹砂	-10.6306
而上	-10.6311
乃是	-10.6311
然其	-10.6311
屍	-10.6321
自謂	-10.6321
甲寅	-10.6322
六七	-10.6322
馴	-10.6331
說文	-10.6332
李氏	-10.6333
時時	-10.6341
去之	-10.6343
一丸	-10.6345
▁魏	-10.6346
聨	-10.6348
肅宗	-10.6357
先生曰	-10.6358
褐	-10.6359
恁地	-10.6361
滓	-10.6363
稟	-10.6366
取出	-10.6369
萬民	-10.637
之君	-10.6371
劉向	-10.6371
子貢	-10.6373
牌	-10.6376
七十二	-10.6381
沫	-10.6382
徳宗	-10.6386
俄而	-10.6387
六百	-10.6387
止於	-10.6387
望之	-10.6392
其罪	-10.6392
娥	-10.6393
有四	-10.6394
樸	-10.6397
有竒	-10.6404
五帝	-10.6404
即以	-10.6406
人不	-10.6407
太過	-10.6408
拳	-10.6411
乃知	-10.6417
不起	-10.6422
奎	-10.6428
則天	-10.6435
牖	-10.6439
無常	-10.6439
迺	-10.6442
罵	-10.6451
八寸	-10.6458
三字	-10.6459
庚子	-10.6465
▁孫	-10.6465
斃	-10.6466
楮	-10.6473
豬	-10.6476
桃仁	-10.6478
姊	-10.648
而致	-10.6484
事也	-10.6487
豉	-10.6489
膜	-10.6497
槩	-10.6497
畆	-10.6497
之辭	-10.6499
於前	-10.6499
􁁊	-10.6501
攘	-10.6508
曰朕	-10.6509
湯主之	-10.651
子也	-10.6511
笙	-10.6513
▁升麻	-10.6514
教之	-10.6521
在天	-10.6524
此書	-10.6525
陸游	-10.653
礬	-10.6539
▁白芷	-10.654
生瘡	-10.6542
者何	-10.6545
北齊	-10.655
啄	-10.6551
清明	-10.6551
翦	-10.6554
其君	-10.6556
而又	-10.6558
禁中	-10.6559
擔	-10.6561
用藥	-10.6563
考之	-10.6569
臼	-10.6573
真人	-10.6575
口中	-10.6577
個	-10.6577
夏侯	-10.658
初為	-10.6581
一枝	-10.6583
謂曰	-10.6584
駢	-10.6586
事君	-10.6595
▁麥門冬	-10.6595
牡	-10.6598
隋書	-10.6599
由此	-10.66
薫	-10.6611
涸	-10.6614
公之	-10.6619
壬子	-10.662
邕	-10.6623
大王	-10.6624
三百六十	-10.6627
麩炒	-10.6628
戀	-10.6629
狎	-10.6629
覇	-10.6629
三十年	-10.6637
陜	-10.6639
所當	-10.6644
不甚	-10.665
癎	-10.6651
梟	-10.6664
萬世	-10.6666
元史	-10.6666
祇	-10.6675
大業	-10.6676
因以	-10.6682
王曰	-10.6684
先王之	-10.6687
仁者	-10.6689
作痛	-10.6697
於心	-10.6697
毗	-10.67
而不可	-10.6703
每日	-10.6706
鋤	-10.6707
其色	-10.671
鄉里	-10.6712
氣之	-10.6713
瑜	-10.6718
水銀	-10.6725
詩丨	-10.6726
芥	-10.673
羲	-10.6731
居之	-10.6737
復有	-10.6737
廓	-10.6744
家有	-10.6749
翹	-10.6752
變為	-10.6761
自稱	-10.6773
夜半	-10.6777
杞	-10.6781
洪武	-10.6789
駁	-10.679
神農	-10.6793
中書令	-10.6794
其病	-10.6796
仄	-10.6797
車駕	-10.68
件	-10.6801
為上	-10.6801
疝	-10.6804
簪	-10.6804
風邪	-10.6806
洎	-10.6811
釵	-10.6815
一斗	-10.6817
於地	-10.6818
子産	-10.6829
脛	-10.6831
楓	-10.6833
証	-10.6837
自汗	-10.6837
僖	-10.6839
為正	-10.6842
終始	-10.6844
▁厚朴	-10.6845
孛	-10.6848
十人	-10.6849
之極	-10.6851
卞	-10.6851
膿血	-10.6854
别有	-10.6855
中間	-10.6856
味苦	-10.6857
所藏	-10.6858
赫	-10.6858
其數	-10.6859
鞍	-10.6859
竹葉	-10.6859
第六	-10.686
本經	-10.6862
蝶	-10.6865
痕	-10.6869
之節	-10.6872
發於	-10.6874
貞元	-10.6875
黯	-10.6876
僭	-10.6877
是日	-10.6879
穗	-10.6887
咏	-10.6887
十丸	-10.6887
上疏	-10.6889
𤼵	-10.6891
先帝	-10.6893
之弊	-10.6895
何故	-10.6898
而卒	-10.6898
貎	-10.6899
縱横	-10.6904
沈約	-10.6905
髙下	-10.6907
國朝	-10.6907
虢	-10.6908
倪	-10.6913
莒	-10.6913
可乎	-10.6918
雜記	-10.6918
諸儒	-10.692
多有	-10.692
薊	-10.6921
于此	-10.6921
明道	-10.6924
晷	-10.6924
批	-10.6932
輯	-10.6932
莫敢	-10.6935
腥	-10.6935
侍御史	-10.6939
之月	-10.6939
轅	-10.6945
撲	-10.6945
甜	-10.6945
漢武	-10.6946
以明	-10.6947
耿	-10.6948
和之	-10.6952
而退	-10.6957
瓣	-10.6957
僣	-10.6961
則必	-10.6967
死生	-10.6967
六日	-10.6969
後來	-10.6971
禹貢	-10.6972
故云	-10.6975
窗	-10.6976
賂	-10.6977
癡	-10.6979
撃	-10.6979
嬌	-10.6983
城南	-10.6985
貲	-10.6987
孝武	-10.6988
一條	-10.6991
四十九	-10.6991
氏曰	-10.6992
駟	-10.6993
生者	-10.6996
可與	-10.6999
之禍	-10.7004
▁徐	-10.7011
者用	-10.7012
人生	-10.7012
少卿	-10.7013
酢	-10.7023
秋冬	-10.7023
次之	-10.7023
呌	-10.7024
妬	-10.7024
之度	-10.7027
日三服	-10.703
蘭亭	-10.7034
輟	-10.7038
矣而	-10.7042
相如	-10.7059
二千	-10.706
褚	-10.706
臟腑	-10.7062
齡	-10.7065
一嵗	-10.7069
椀	-10.7072
皂	-10.7075
九寸	-10.7077
服藥	-10.7084
酒下	-10.7085
此事	-10.7085
山下	-10.7086
䨇	-10.7087
一千	-10.7088
侍御	-10.7098
歸之	-10.7104
吐血	-10.7106
而非	-10.7108
十一年	-10.7109
稱其	-10.7111
不能自	-10.7114
天寳	-10.7116
寮	-10.7116
▁川	-10.7117
▁右㕮咀	-10.7124
棊	-10.7125
轂	-10.7128
薑汁	-10.7133
▁枳殻	-10.7133
百日	-10.7134
丕	-10.7139
劔	-10.7139
斬之	-10.7139
何人	-10.7142
瘀血	-10.7142
烏梅	-10.7146
鉢	-10.715
蕪	-10.7161
▁吳	-10.7161
瓠	-10.7169
另	-10.717
亦非	-10.7175
猶未	-10.7178
搖	-10.7179
矣夫	-10.718
耻	-10.718
之神	-10.7181
陀	-10.7182
唐韻	-10.719
毬	-10.7191
璞	-10.7193
志曰	-10.7197
枝葉	-10.7205
玉堂	-10.7209
得此	-10.7213
生子	-10.7226
轍	-10.7227
騷	-10.723
忤	-10.723
比例	-10.7231
戰國	-10.7236
丨丨丨丨丨	-10.7242
監察御史	-10.7257
絞	-10.726
驥	-10.7263
穰	-10.7265
白芷	-10.7266
兩半	-10.7266
笞	-10.7267
衙	-10.727
所能	-10.727
國語	-10.7274
昬	-10.7278
素問	-10.7279
除之	-10.7279
鈴	-10.7279
糯米	-10.7285
菩薩	-10.7289
衣食	-10.7292
一大	-10.7294
丨丨而	-10.7298
丙子	-10.7299
通典	-10.73
廬山	-10.7301
尚有	-10.7307
儀禮	-10.7309
嚮	-10.7312
作詩	-10.7314
曾子	-10.7315
遶	-10.7316
大明	-10.7317
棟	-10.7319
娘	-10.732
晉侯	-10.7324
籬	-10.7328
王維	-10.7332
撓	-10.7336
書之	-10.7338
為本	-10.7341
▁白茯苓	-10.7341
世人	-10.7342
涯	-10.7344
賈誼	-10.7344
飲水	-10.7345
譬如	-10.7351
簫	-10.7352
不樂	-10.7353
浙	-10.736
亦自	-10.7362
諸藥	-10.7363
豚	-10.7364
流行	-10.7366
挑	-10.7366
厠	-10.737
因而	-10.7371
消息	-10.7373
治法	-10.7374
彭城	-10.7375
口乾	-10.7375
常山	-10.7375
匣	-10.7379
▁陸	-10.7379
曰丨丨	-10.738
胃中	-10.738
以手	-10.7382
曰若	-10.7392
五人	-10.7392
釡	-10.7396
苛	-10.7397
奏事	-10.7399
醇	-10.74
舂	-10.7401
寕	-10.7408
之風	-10.7409
始皇	-10.7413
八九	-10.7415
顒	-10.7419
𢃄	-10.7419
何不	-10.7422
自家	-10.7426
成功	-10.7428
之計	-10.7431
咽喉	-10.7434
宣王	-10.7436
餐	-10.7439
之役	-10.7442
行人	-10.7444
劉氏	-10.7447
抱朴子	-10.7448
者所以	-10.745
如前	-10.7455
賜之	-10.7459
十四年	-10.7461
又何	-10.7462
應之	-10.7465
:	-10.7469
佚	-10.7473
河内	-10.7474
衆人	-10.7478
煎至	-10.7479
知母	-10.7481
之正	-10.7482
漢武帝	-10.7482
鄭氏	-10.7483
勻	-10.7493
脣	-10.7493
學問	-10.7497
衂	-10.7504
土地	-10.7509
龍門	-10.7509
未嘗不	-10.7511
戊子	-10.7516
掣	-10.7516
非其	-10.7521
叅軍	-10.7523
蘿	-10.7526
欲得	-10.7533
可愛	-10.7533
梁簡文帝	-10.7534
旄	-10.7535
先用	-10.7539
十數	-10.7544
水煎服	-10.7546
昔者	-10.7546
劣	-10.7546
▁芎藭	-10.7549
羌活	-10.7549
與其	-10.755
現	-10.7551
碗	-10.7551
有力	-10.7557
一夕	-10.7557
亦名	-10.7559
不幸	-10.756
三合	-10.7561
及第	-10.7561
殃	-10.7563
燧	-10.7565
彛	-10.757
不肖	-10.7573
文曰	-10.7575
之謂也	-10.7582
則又	-10.7583
丹陽	-10.7584
無疑	-10.7585
酒服	-10.7585
頥	-10.7588
灘	-10.759
大笑	-10.7594
知名	-10.7594
損益	-10.7596
後為	-10.7598
三角形	-10.7599
故不	-10.7602
汾	-10.7608
月餘	-10.7609
之流	-10.761
黄耆	-10.7612
棠	-10.7614
躔	-10.7617
㕘	-10.7627
祭酒	-10.7628
畦	-10.7629
臣聞	-10.7634
勘	-10.7635
五味子	-10.7636
圖書	-10.7636
寘	-10.7637
上元	-10.764
雋	-10.7641
瀝	-10.7641
道者	-10.7642
或謂	-10.7645
千年	-10.7646
廿	-10.7649
刪	-10.7651
若夫	-10.7654
雛	-10.7657
脚氣	-10.7661
宰臣	-10.7662
升降	-10.7662
為善	-10.7666
安能	-10.7667
暨	-10.7669
中人	-10.7672
隘	-10.7673
一石	-10.7675
扈	-10.7676
一身	-10.7677
千人	-10.768
此意	-10.7683
竦	-10.7684
吏民	-10.7685
有道	-10.7687
芬	-10.7687
流涕	-10.7687
沂	-10.7688
地平	-10.7689
者或	-10.7691
之異	-10.7693
青州	-10.7697
寐	-10.7698
嚥	-10.7699
梯	-10.7703
净	-10.7706
青龍	-10.7708
孺	-10.7709
人為	-10.771
毒氣	-10.771
欝	-10.7712
殖	-10.7715
隻	-10.7716
遼東	-10.7722
歙	-10.7724
宸	-10.7724
礙	-10.7726
自言	-10.7727
分别	-10.773
艶	-10.7732
一本	-10.7733
腰痛	-10.7734
煆	-10.7734
惰	-10.7736
徼	-10.7736
詎	-10.774
郁	-10.7743
因之	-10.7751
常服	-10.7754
粧	-10.7756
之力	-10.7757
尚書令	-10.7757
一百二十	-10.7758
螭	-10.776
▁右以	-10.776
漢王	-10.776
荀子	-10.776
也是	-10.7761
久矣	-10.7763
諸侯之	-10.7768
江湖	-10.777
金玉	-10.7774
紅花	-10.7775
贓	-10.7776
酣	-10.7777
其勢	-10.7782
宇文	-10.7782
麋	-10.7783
其民	-10.7784
言曰	-10.7784
癢	-10.7785
中正	-10.7786
醬	-10.7792
詹	-10.7793
帽	-10.7799
幘	-10.7804
一處	-10.7804
建安	-10.7805
陌	-10.7807
芋	-10.781
匱	-10.7817
鞠	-10.7818
陞	-10.7819
最為	-10.7823
盃	-10.7824
筒	-10.7825
甑	-10.7828
獻之	-10.7831
軀	-10.7832
出血	-10.7834
所至	-10.7835
躡	-10.7836
群	-10.7839
烝	-10.784
乎曰	-10.784
贄	-10.7841
▁羌活	-10.7843
粘	-10.7843
釁	-10.7844
一宿	-10.7846
譙	-10.7848
第七	-10.7852
鯉	-10.7853
郤	-10.7856
挈	-10.7859
先君	-10.7861
於丨丨	-10.7866
一片	-10.7867
慕容	-10.7867
瓌	-10.7868
未幾	-10.7871
齊人	-10.7873
陳留	-10.7876
庶幾	-10.7882
匕	-10.7883
屨	-10.7884
安國	-10.7886
洒	-10.7887
繕	-10.7888
咳𠻳	-10.7888
欲其	-10.7889
一盞	-10.789
山人	-10.7894
▁紫	-10.79
逄	-10.79
不定	-10.7901
甲午	-10.7903
骨肉	-10.7905
捲	-10.7908
丙午	-10.7908
春分	-10.7908
而未	-10.7909
釀	-10.7911
今年	-10.7912
所知	-10.7913
千載	-10.7913
帆	-10.7916
威儀	-10.7917
錢半	-10.792
一小	-10.792
悍	-10.7932
隄	-10.7939
如今	-10.7939
繒	-10.794
於中	-10.7941
其能	-10.7944
小腹	-10.7946
赤白	-10.7947
𨼆	-10.7948
帝紀	-10.7949
虵	-10.7952
幽州	-10.7952
無一	-10.7954
氣象	-10.7961
積聚	-10.7967
皇甫	-10.7967
此理	-10.7968
噉	-10.7969
二十三	-10.797
之比	-10.7977
養之	-10.7977
訊	-10.798
孝文	-10.7981
廹	-10.7981
先主	-10.7981
永嘉	-10.7981
意思	-10.7983
羈	-10.7985
幡	-10.7985
治小兒	-10.7986
入藥	-10.7987
無益	-10.7988
脆	-10.7993
於民	-10.7994
賓客	-10.7994
爲之	-10.7997
其有	-10.8
射之	-10.8005
諸葛	-10.801
執事	-10.8012
北極	-10.8014
之末	-10.8017
以正	-10.8017
詵	-10.8018
不暇	-10.8026
而至	-10.803
𦙍	-10.8038
過於	-10.8043
迥	-10.8046
不調	-10.8054
置之	-10.8056
別	-10.8062
所欲	-10.8063
二十六	-10.8064
歸於	-10.8066
華山	-10.8068
舘	-10.8071
者又	-10.8073
煩熱	-10.8086
詩書	-10.8086
▁#+	-10.8087
E	-10.8087
T	-10.8087
㯽榔	-10.8089
羔	-10.8091
以聞	-10.8091
緋	-10.8095
懇	-10.8095
周書	-10.8097
不顧	-10.8098
麝	-10.8098
揭	-10.81
▁海	-10.81
臣之	-10.8101
如何曰	-10.8101
而作	-10.8101
當有	-10.8108
者矣	-10.8111
置酒	-10.8111
石榴	-10.8117
乃得	-10.8122
憎	-10.8125
中原	-10.8126
屯田	-10.8128
成帝	-10.8129
水氣	-10.8131
日出	-10.8131
銘曰	-10.8131
以生	-10.8132
蹙	-10.8133
筆法	-10.8135
玊	-10.8141
不可得	-10.8141
从	-10.8145
也且	-10.8151
煩悶	-10.8152
叶	-10.8157
荆公	-10.8161
菱	-10.817
無汗	-10.817
殿中	-10.8174
鄉人	-10.8177
於下	-10.8181
弑	-10.8184
匀	-10.8184
a	-10.8186
易曰	-10.8188
尿	-10.8189
鐫	-10.8199
燎	-10.8205
繹	-10.8206
▁後漢	-10.8209
簇	-10.8216
而知	-10.8223
迂	-10.8224
問其	-10.8226
木𤓰	-10.8229
初生	-10.8231
丙寅	-10.8232
髙麗	-10.8234
韜	-10.8235
琵琶	-10.8236
萬餘	-10.8239
食甚	-10.8242
救之	-10.8243
病也	-10.8245
藪	-10.8246
藕	-10.8249
家貧	-10.8251
不疑	-10.8252
豈能	-10.8252
朶	-10.8257
何謂	-10.8258
頤	-10.826
翫	-10.8261
楹	-10.8261
隕	-10.8261
甲申	-10.8263
察其	-10.8263
之行	-10.8265
十五日	-10.8265
嗽	-10.8266
庚申	-10.8267
逵	-10.8267
翊	-10.8269
貧賤	-10.8269
建武	-10.827
民間	-10.8271
禍福	-10.8275
些	-10.8275
嫡	-10.8278
宫人	-10.828
六尺	-10.8281
蛾	-10.8281
乘之	-10.8284
當為	-10.8289
一十	-10.8291
篋	-10.8295
識者	-10.8297
者可	-10.8298
譲	-10.8299
中宗	-10.83
購	-10.8303
張華	-10.8304
濵	-10.8305
思之	-10.8306
𠻳	-10.8307
迨	-10.8307
售	-10.8312
此人	-10.8314
匙	-10.8323
齊侯	-10.8328
枳實	-10.833
即此	-10.8335
昻	-10.8337
地之	-10.8338
徐州	-10.8341
無私	-10.8345
鸚鵡	-10.835
龔	-10.8352
明矣	-10.8354
舊制	-10.8355
怡	-10.8356
曽子	-10.836
萬年	-10.8362
蓮花	-10.8364
之門	-10.8368
日用	-10.8369
秋風	-10.8369
御史中丞	-10.8373
固有	-10.8374
禮之	-10.8375
檜	-10.8375
前代	-10.8376
所傷	-10.8379
涵	-10.8379
丹青	-10.838
國史	-10.8381
未聞	-10.8381
車騎	-10.8387
無可	-10.8388
大司馬	-10.8388
無所不	-10.839
不拘	-10.8392
文宗	-10.8402
㣲炒	-10.8403
猫	-10.8404
其根	-10.8404
殯	-10.8405
湧	-10.8407
軾	-10.8411
未成	-10.8414
使其	-10.8415
炒各	-10.8416
所有	-10.8416
施行	-10.8417
黄門	-10.8422
秤	-10.8422
數人	-10.8427
兊	-10.843
▁丁香	-10.8436
七百	-10.8443
題云	-10.8446
下焦	-10.8447
真蹟	-10.8453
散騎常侍	-10.8455
徇	-10.8456
餞	-10.8468
又如	-10.8472
見前	-10.8477
漲	-10.8477
硃砂	-10.848
東漢	-10.848
朱子曰	-10.848
燔	-10.8481
▁黄耆	-10.8482
封禪	-10.8484
𬒳	-10.8486
東方朔	-10.8486
河圖	-10.8487
漂	-10.849
不祥	-10.8491
太僕	-10.8491
長子	-10.8492
為天下	-10.8494
行事	-10.8495
詔書	-10.8497
咬	-10.8501
涇	-10.8501
禪師	-10.8501
書法	-10.8502
▁石膏	-10.8502
曰王	-10.8504
各半兩	-10.8505
凱	-10.8506
在前	-10.8507
硫黄	-10.8509
數也	-10.851
及諸	-10.8513
已有	-10.8518
立方	-10.8518
煬帝	-10.8518
愚按	-10.8519
憲宗	-10.8525
二十九	-10.8526
分為	-10.8526
地黄	-10.8529
錢塘	-10.853
乙丑	-10.853
豎	-10.8533
矣今	-10.8534
沙門	-10.8536
禇	-10.8537
迅	-10.8545
數萬	-10.8545
冬月	-10.8546
之師	-10.8548
賢人	-10.8549
癰疽	-10.8552
乎其	-10.8554
藏之	-10.8557
謚	-10.8558
歆	-10.8562
言也	-10.8563
寒食	-10.8564
琮	-10.8567
不改	-10.8567
慚	-10.8572
賞罰	-10.8575
郡王	-10.8576
產	-10.8581
之山	-10.8581
沔	-10.8584
菊花	-10.8585
沼	-10.8593
不知所	-10.8594
清風	-10.8595
拯	-10.8597
三司	-10.86
大風	-10.86
皮日休	-10.8606
御史大夫	-10.8607
侃	-10.861
五代史	-10.8614
鵬	-10.8615
譯	-10.8619
先天	-10.8627
拌	-10.8629
臣等	-10.8634
以養	-10.8639
岩	-10.8641
甌	-10.8649
霑	-10.8654
武后	-10.8655
人之所	-10.8657
縣有	-10.8658
教授	-10.866
蠅	-10.8662
益氣	-10.8663
禮也	-10.8671
思慮	-10.8675
若無	-10.8676
釋氏	-10.8676
王之	-10.8678
研細	-10.868
水旱	-10.868
父老	-10.8681
冗	-10.8684
為陽	-10.8685
脹滿	-10.8688
鷺	-10.8691
不差	-10.8692
五曰	-10.8692
王道	-10.8693
提舉	-10.8694
榦	-10.8697
▁或問	-10.8698
遂為	-10.8698
濮	-10.87
不一	-10.8702
皂角	-10.8706
孫權	-10.8706
海棠	-10.8707
上氣	-10.8714
糜	-10.8715
白色	-10.872
潁川	-10.872
餓	-10.872
諸道	-10.8721
之㑹	-10.8721
鴉	-10.8724
伏羲	-10.8729
故為	-10.8729
一朝	-10.8729
功名	-10.873
友人	-10.874
正韻	-10.874
指揮	-10.8745
周易	-10.8747
妝	-10.875
涌	-10.875
五品	-10.875
大驚	-10.875
是知	-10.8753
曇	-10.8759
筯	-10.8759
白日	-10.876
悸	-10.876
數月	-10.8761
蒼术	-10.8761
簟	-10.8763
後主	-10.8764
亦未	-10.8766
中郎將	-10.8768
而民	-10.8771
麓	-10.8776
楊氏	-10.8779
惟有	-10.8781
常侍	-10.8784
形似	-10.8787
甲辰	-10.8794
峙	-10.8794
殿前	-10.8795
有常	-10.8801
彖	-10.8803
投之	-10.8806
其所以	-10.8807
腿	-10.8807
宋人	-10.8809
字伯	-10.8809
子夏	-10.881
琢	-10.8811
慿	-10.8812
熒惑	-10.8813
不離	-10.8813
發明	-10.8815
云此	-10.8818
多矣	-10.8818
一兩半	-10.8821
弋	-10.8824
政和	-10.8825
相等	-10.8827
之重	-10.8828
人謂	-10.8832
晁	-10.8837
至矣	-10.8838
逺矣	-10.8838
彞	-10.8843
太山	-10.8847
犀角	-10.8849
者是也	-10.885
氣也	-10.8851
於道	-10.8852
瘴	-10.8855
之主	-10.8858
十卷	-10.8859
閎	-10.886
至正	-10.8866
▁生薑	-10.8866
假令	-10.8867
拍	-10.8868
耐	-10.887
常有	-10.8871
平王	-10.8872
縑	-10.8882
庚午	-10.8883
森	-10.8886
髯	-10.8887
法以	-10.8892
而欲	-10.8896
本無	-10.8898
觜	-10.89
十餘年	-10.8902
囂	-10.8905
▁胡	-10.8906
國子	-10.8912
盡其	-10.8912
蹤	-10.8913
三萬	-10.8913
▁獨活	-10.8917
待詔	-10.892
魏文帝	-10.8925
海中	-10.8925
杭	-10.8928
萬物之	-10.8928
大豆	-10.893
鎖	-10.8932
此語	-10.8932
▁臣若水通曰	-10.8945
惡風	-10.8945
年少	-10.8955
卷中	-10.8955
前漢	-10.8956
非常	-10.8957
梔子	-10.8958
箱	-10.8962
冷水	-10.8969
菽	-10.897
且如	-10.8971
懋	-10.8977
皮臍	-10.8978
而求	-10.8984
嘔逆	-10.899
知人	-10.8991
此卷	-10.8993
賚	-10.8995
太乙	-10.8996
為國	-10.9001
其他	-10.9005
泡	-10.9008
炙各	-10.901
隴西	-10.9016
蚤	-10.9022
訥	-10.9022
諾	-10.9022
鈍	-10.9031
曝	-10.9031
各四	-10.9033
同時	-10.9033
諸家	-10.9033
数	-10.9035
蛤	-10.9037
扉	-10.904
氊	-10.904
曰是	-10.9041
南郊	-10.9042
辛丑	-10.9046
稚	-10.9046
當是	-10.9046
參差	-10.9048
鬰	-10.9049
溥	-10.9053
始得	-10.9054
微炒	-10.9055
閨	-10.9055
為名	-10.9062
而進	-10.9062
行者	-10.9062
於後	-10.9065
丨之丨	-10.9066
矣此	-10.9073
遣人	-10.9074
破之	-10.9075
彫	-10.9076
從此	-10.9079
遍身	-10.9083
之失	-10.9083
反覆	-10.9084
改元	-10.9086
或因	-10.9091
廩	-10.9093
小字	-10.9097
呵	-10.9098
冡	-10.9099
本末	-10.9103
茸	-10.9108
芎藭	-10.9114
以金	-10.9115
詩話	-10.9115
曹植	-10.9117
二句	-10.9122
皆在	-10.9123
待之	-10.9125
徳之	-10.9138
闔	-10.914
為我	-10.9143
劫	-10.9144
故知	-10.9148
不滿	-10.9149
病在	-10.915
之令	-10.9152
一合	-10.9153
受其	-10.9157
杲	-10.9158
之遺	-10.9158
其說	-10.9159
動而	-10.9159
蕙	-10.916
王孫	-10.9163
琦	-10.9174
壯熱	-10.9174
嘲	-10.9178
峭	-10.9181
春日	-10.9182
祫	-10.9185
萍	-10.9188
歴代	-10.9188
携	-10.919
正弦	-10.9192
者名	-10.9194
椿	-10.9195
必死	-10.9197
以供	-10.9198
復為	-10.9199
高宗	-10.9199
清河	-10.9205
中書舍人	-10.9205
色白	-10.9206
性命	-10.9206
嘉靖	-10.9207
色如	-10.9212
忽然	-10.9217
下痢	-10.9218
然亦	-10.9221
無遺	-10.9223
問其故	-10.9224
掖	-10.9225
景帝	-10.9225
大敗	-10.9227
列子	-10.9227
邾	-10.9236
自得	-10.924
蝗	-10.9244
寨	-10.9245
國初	-10.9247
大熱	-10.9247
八尺	-10.9247
教人	-10.9249
道徳	-10.925
功曹	-10.9251
彬	-10.9252
琛	-10.9255
嫗	-10.9255
晉人	-10.9258
一句	-10.9259
以相	-10.926
有熱	-10.9261
五尺	-10.9262
二十丸	-10.9262
陳氏	-10.9262
淘	-10.9265
一半	-10.9266
已成	-10.9266
出本	-10.9267
古詩	-10.9268
遞	-10.9271
者不可	-10.9271
廂	-10.9273
庠	-10.9275
相繼	-10.9276
壬辰	-10.9279
禎	-10.928
漠	-10.9281
白礬	-10.9281
龍腦	-10.9283
紫色	-10.9284
邦國	-10.9285
越王	-10.9286
糖	-10.929
無非	-10.9291
員外郎	-10.9292
拆	-10.9296
血虚	-10.9299
諸人	-10.93
堰	-10.9301
許多	-10.9304
乃命	-10.9304
鄂	-10.9306
戊申	-10.9308
作一	-10.9308
乃可	-10.9312
不好	-10.9315
吳興	-10.9315
大棗	-10.9319
廣州	-10.9322
四尺	-10.9323
茴香	-10.9325
三陽	-10.9325
忽有	-10.9326
趙王	-10.9327
赤色	-10.9327
屏風	-10.9329
四十八	-10.9329
丁未	-10.933
大而	-10.9337
入于	-10.9338
瘀	-10.9338
菌	-10.9343
五里	-10.9345
頓首	-10.9348
安石	-10.9348
字仲	-10.935
可食	-10.9351
者無	-10.9354
腑	-10.9354
需	-10.9361
岱	-10.9362
陜西	-10.9365
三十里	-10.9367
事不	-10.9367
▁卷	-10.9372
白茯苓	-10.9375
胸膈	-10.9375
緝	-10.938
姻	-10.938
遯	-10.938
三十丸	-10.9381
乙酉	-10.9382
郡太守	-10.9384
牝	-10.9384
摇	-10.9385
湯調下	-10.9385
冉	-10.9389
又為	-10.9389
己巳	-10.939
生地黄	-10.9394
曹公	-10.9397
肌膚	-10.9398
安定	-10.9398
嘗有	-10.9405
人言	-10.9407
嘆曰	-10.9407
此二	-10.9409
枳	-10.9409
而起	-10.941
襄公	-10.9411
子大	-10.9412
之亂	-10.9412
或用	-10.9413
但以	-10.9413
鉅	-10.9423
甚則	-10.9425
學之	-10.9429
雲氣	-10.9433
告之	-10.9434
逋	-10.9434
扣	-10.9436
精氣	-10.9436
可觀	-10.9437
凋	-10.9438
可以為	-10.9439
柑	-10.9441
魏公	-10.9442
榮衛	-10.9443
▁崔	-10.9446
漢中	-10.9448
一印	-10.9449
亦能	-10.9454
亦為	-10.9456
曰凡	-10.9459
短氣	-10.9459
后稷	-10.9459
胷中	-10.9462
不求	-10.9462
永樂	-10.9472
鶻	-10.9473
左手	-10.9477
土人	-10.9477
親戚	-10.9482
蓍	-10.9482
海上	-10.9483
巵	-10.9483
則民	-10.9484
旬日	-10.9484
丨丨丨丨丨丨丨丨	-10.9488
為天	-10.9489
相望	-10.949
笋	-10.9493
疾病	-10.9494
墟	-10.9497
晉陽	-10.9497
曳	-10.9498
綰	-10.9499
城郭	-10.95
冨	-10.9502
王安石	-10.9503
内熱	-10.9505
▁雄黄	-10.9505
熱病	-10.9507
孔氏	-10.9509
謁者	-10.9511
來朝	-10.9512
自今	-10.9512
官吏	-10.9514
也非	-10.9515
辜	-10.9515
退而	-10.9517
晟	-10.9517
詩人	-10.9517
三輔	-10.9518
必不	-10.9519
辛未	-10.9521
人臣	-10.9524
亦當	-10.9525
生地	-10.9527
便有	-10.9532
子思	-10.9533
山藥	-10.9533
惡瘡	-10.9537
戢	-10.954
大寒	-10.9543
根本	-10.9543
水浸	-10.9547
桃李	-10.9547
度支	-10.9548
氣不	-10.955
世間	-10.955
徃徃	-10.9552
鈐	-10.9555
楚人	-10.9555
忝	-10.9559
咸陽	-10.9563
初商	-10.9565
非有	-10.9565
戊辰	-10.9565
四夷	-10.9565
互相	-10.9568
聾	-10.957
黄茋	-10.9576
不變	-10.9577
此時	-10.9578
紛紛	-10.9584
僉	-10.9585
日行	-10.9589
其利	-10.9591
袴	-10.9593
江淹	-10.9593
風氣	-10.9594
持節	-10.9595
帝以	-10.9596
河間	-10.9599
酪	-10.9602
舎人	-10.9604
死而	-10.9604
燃	-10.9607
張子	-10.9608
靄	-10.9612
而來	-10.9613
械	-10.9614
紳	-10.9615
徘徊	-10.9617
迄	-10.9618
州人	-10.9618
夏月	-10.9619
不得已	-10.9622
徃來	-10.9622
百人	-10.9627
言者	-10.9629
相距	-10.9631
牛馬	-10.9632
少有	-10.9637
其體	-10.964
曙	-10.964
潄	-10.9641
張氏	-10.9641
中和	-10.965
义	-10.965
吕氏春秋	-10.9652
不消	-10.9657
揀	-10.966
阿膠	-10.9663
用力	-10.9664
矛	-10.9664
頽	-10.9665
上焦	-10.9665
不獲	-10.9667
縳	-10.967
則曰	-10.9676
芸	-10.9679
煎湯	-10.9682
耦	-10.9684
周天	-10.9689
翰林學士	-10.9689
顗	-10.969
武陵	-10.969
癸巳	-10.9691
者惟	-10.9691
丁丑	-10.9692
其徳	-10.9696
相類	-10.9698
兵部	-10.9703
萬國	-10.9707
媒	-10.9708
秃	-10.9708
曰臣聞	-10.9713
粤	-10.9713
二者	-10.9714
六十四	-10.9718
猴	-10.9718
甚矣	-10.9719
竟不	-10.9719
中心	-10.972
庇	-10.9723
紆	-10.9723
亦如之	-10.9724
太宰	-10.9725
己酉	-10.9729
北斗	-10.9732
㝷	-10.9732
刈	-10.9732
愷	-10.9737
觀察使	-10.9739
東門	-10.974
一云	-10.9741
培	-10.9742
袂	-10.9742
之候	-10.9744
瘠	-10.9751
皁	-10.9752
之别	-10.9754
則可	-10.9756
瞽	-10.9757
之方	-10.9761
亘	-10.9761
▁桂	-10.9763
聞而	-10.9765
近臣	-10.9765
怖	-10.9768
甥	-10.9769
艱難	-10.9769
不禁	-10.977
韓信	-10.977
挹	-10.9771
紫蘇	-10.9781
而用之	-10.9784
販	-10.9786
戊午	-10.9787
▁鄭	-10.979
將士	-10.9791
留守	-10.9791
荆芥	-10.9799
面目	-10.9801
求得	-10.9802
相近	-10.9803
▁生地黄	-10.9804
十六年	-10.9808
征伐	-10.981
梁武帝	-10.981
噎	-10.9813
不思	-10.9813
魯公	-10.9815
穫	-10.9815
趾	-10.9815
得以	-10.9816
疑其	-10.9816
▁里	-10.9816
甲丁	-10.9818
九江	-10.9818
合於	-10.9821
五榖	-10.9824
即止	-10.9825
亦云	-10.983
平日	-10.9833
瑣	-10.9835
窓	-10.9835
驂	-10.9835
萬事	-10.9836
氣逆	-10.9837
甲戌	-10.9837
請以	-10.9837
葛根	-10.9838
兩手	-10.9842
一段	-10.9847
剛柔	-10.9849
奈	-10.9851
陽之	-10.9852
十七年	-10.9855
李賀	-10.9855
去白	-10.9856
二公	-10.9858
纖	-10.9859
蚌	-10.9859
傷於	-10.9861
立春	-10.9863
不作	-10.9864
羽林	-10.9865
三十五	-10.9871
不拘時	-10.9873
祭之	-10.9876
風俗通	-10.9878
緘	-10.9879
心中	-10.9882
屈伸	-10.9883
公羊	-10.9885
經史	-10.9885
其才	-10.9887
白玉	-10.9889
命之	-10.9898
於朝	-10.9898
飭	-10.9899
所由	-10.9899
刻石	-10.9902
擦	-10.9903
給事	-10.9907
醢	-10.9908
▁本朝	-10.991
詆	-10.9913
稱之	-10.9917
遙	-10.9923
竪	-10.9923
拊	-10.9923
癸丑	-10.9925
大義	-10.993
棄之	-10.993
都賦	-10.9933
壬午	-10.9937
子敬	-10.9938
諸葛亮	-10.9939
大喜	-10.9939
籥	-10.9943
部郎中	-10.9946
亦作	-10.9948
雞子	-10.9948
戊寅	-10.995
皆得	-10.9951
寒氣	-10.9954
更有	-10.9956
一生	-10.9958
難治	-10.996
無形	-10.9961
堵	-10.9961
頷	-10.9968
隂乾	-10.997
昴	-10.9971
之音	-10.9972
辛酉	-10.9973
乙未	-10.9973
同煎	-10.9977
去皮尖	-10.9979
八十一	-10.9981
一般	-10.9981
不逺	-10.9982
者言	-10.9986
神武	-10.9989
楷書	-10.999
歐陽修	-10.9991
形體	-10.9991
牕	-10.9993
不知何	-10.9995
心煩	-10.9996
矣又	-10.9997
昶	-10.9998
以象	-10.9998
人名	-11.0002
嬴	-11.0003
乎此	-11.0003
者加	-11.0006
酉陽雜俎	-11.0008
四日	-11.0008
江左	-11.0008
辛巳	-11.0012
難得	-11.0014
召見	-11.0015
刑罰	-11.0015
滑石	-11.0017
店	-11.0017
瑾	-11.0017
至誠	-11.0018
蓬萊	-11.0018
何事	-11.0026
上等	-11.0029
丁巳	-11.003
所不	-11.0031
加以	-11.0032
者雖	-11.0033
癸酉	-11.0036
可汗	-11.0036
有神	-11.0037
▁五味子	-11.0038
壬申	-11.0041
己未	-11.0042
去聲	-11.0049
▁牛膝	-11.0053
不敬	-11.0054
長吏	-11.0056
貂	-11.0061
乙亥	-11.0062
逞	-11.0062
師道	-11.0063
糯	-11.0063
號令	-11.0064
鞏	-11.0066
庚辰	-11.0066
無功	-11.0067
代宗	-11.007
洪範	-11.0072
之教	-11.0076
炁	-11.0077
虬	-11.0077
謡	-11.0082
出門	-11.0082
駮	-11.0083
軒轅	-11.0084
平方	-11.0084
熨	-11.0084
也故曰	-11.0085
一丈	-11.0085
衷	-11.0085
庚寅	-11.0086
建中	-11.0087
冷氣	-11.0088
己亥	-11.009
總管	-11.0094
曼	-11.0094
刮	-11.0096
者先	-11.01
率衆	-11.0103
嵗星	-11.0104
山梔	-11.0105
碾	-11.0113
之義也	-11.0113
始終	-11.0114
備用	-11.0116
而弗	-11.0119
賑	-11.0122
以獻	-11.0122
世子	-11.0126
恠	-11.0128
散治	-11.0129
曰陛下	-11.0131
曵	-11.0133
黄鍾	-11.0135
人無	-11.0137
亁	-11.0137
王元	-11.0137
壬癸	-11.0139
之號	-11.0141
鷗	-11.0148
瘞	-11.0148
患處	-11.0148
相和	-11.0149
一㸃	-11.0151
出自	-11.0154
五更	-11.0155
有疾	-11.0156
百二十	-11.0162
武徳	-11.0162
首尾	-11.0163
儻	-11.0163
何足	-11.0165
史官	-11.0167
其職	-11.0167
冀州	-11.0169
為文	-11.017
弭	-11.0173
示之	-11.0176
江水	-11.0176
腎氣	-11.0178
二味	-11.0178
此又	-11.0179
之交	-11.0179
其位	-11.018
先儒	-11.0181
幻	-11.0183
釘	-11.0183
丙辰	-11.0186
右手	-11.0192
恍惚	-11.0194
并州	-11.0195
題詩	-11.0196
結實	-11.0197
既至	-11.0199
百官志	-11.02
而天下	-11.0204
觀者	-11.0207
己丑	-11.0207
温酒	-11.0208
癸亥	-11.0208
易林	-11.0211
江夏	-11.0219
城門	-11.022
是何	-11.022
西漢	-11.0221
公事	-11.0222
喜怒	-11.0223
於世	-11.0223
寝	-11.0224
▁薛	-11.0225
渤海	-11.0227
齧	-11.0229
▁杜	-11.0238
雩	-11.0239
為法	-11.024
種之	-11.0241
言於	-11.0241
非是	-11.0242
後至	-11.0242
蜀人	-11.0245
壬寅	-11.0245
調下	-11.0249
不獨	-11.0252
翰墨	-11.0254
即為	-11.0256
吁	-11.0258
砌	-11.026
剡	-11.026
弃	-11.026
陽縣	-11.0261
風濕	-11.0262
臆	-11.0264
岫	-11.0265
鎔	-11.0265
窻	-11.0265
驪	-11.0274
亦何	-11.0274
昱	-11.0275
庚辛	-11.028
▁乳香	-11.028
杭州	-11.0282
木通	-11.0284
羨	-11.0285
盲	-11.0285
奉和	-11.0286
湯洗	-11.0289
口噤	-11.029
今以	-11.0291
之端	-11.0293
世俗	-11.0295
義也	-11.0297
其時	-11.0297
盜賊	-11.0298
淸	-11.0301
滲	-11.0301
其狀	-11.0301
自知	-11.0302
通判	-11.0303
皎	-11.0303
瓘	-11.0303
兾	-11.0306
試之	-11.0308
依舊	-11.0309
秦漢	-11.0309
所殺	-11.0315
粟米	-11.0317
以来	-11.0318
必須	-11.0318
西河	-11.032
仆	-11.032
形之	-11.0321
人欲	-11.0324
辛亥	-11.0324
乗之	-11.0324
立於	-11.0324
嘗為	-11.0325
癸未	-11.0326
拾遺記	-11.0327
黔	-11.0328
珊瑚	-11.0331
樂天	-11.0331
恊	-11.0332
有白	-11.0333
最髙	-11.0336
彤	-11.0336
麒麟	-11.0337
大理	-11.0339
咳嗽	-11.0341
插	-11.0347
吏部尚書	-11.0348
正氣	-11.0351
天王	-11.0352
戊己	-11.0355
昔人	-11.0358
擘	-11.0361
肉桂	-11.0362
丙申	-11.0365
相合	-11.0367
却是	-11.0368
丨丨之丨	-11.0368
文集	-11.037
兖州	-11.0371
四十五	-11.0372
之序	-11.0372
盪	-11.0373
觔	-11.0376
此物	-11.0377
愛其	-11.0381
秋分	-11.0382
0	-11.0383
識之	-11.0383
脉浮	-11.0385
未足	-11.0386
為小	-11.0387
時刻	-11.0388
説得	-11.039
水出	-11.0391
無毒	-11.0393
自為	-11.0393
為害	-11.0395
當作	-11.0398
不平	-11.0401
天上	-11.0404
狩	-11.041
行而	-11.0411
解毒	-11.0412
狡	-11.0414
始也	-11.042
黄河	-11.0423
甘泉	-11.0423
綃	-11.0425
天氣	-11.0425
俎	-11.0426
覃	-11.0427
明目	-11.0428
錐	-11.0429
渡江	-11.0429
可使	-11.0429
文書	-11.043
渥	-11.043
丁亥	-11.0432
溜	-11.0435
范成大	-11.0435
分之	-11.0438
為貴	-11.0439
郄	-11.044
耽	-11.0445
黄丹	-11.0446
以酒	-11.0448
梳	-11.0451
挿	-11.0451
建康	-11.0452
讀之	-11.0453
人亦	-11.0454
雒陽	-11.0455
項羽	-11.0456
善畫	-11.0459
黏	-11.0461
喙	-11.0464
鴟	-11.0464
衣裳	-11.0465
誄	-11.0466
賦云	-11.0467
乃有	-11.0468
京城	-11.047
闈	-11.0471
愿	-11.0471
不載	-11.0472
生人	-11.0472
公私	-11.0473
棹	-11.0482
拓	-11.0482
寺詩	-11.0484
使民	-11.0487
死於	-11.0492
事親	-11.0493
一體	-11.0493
多用	-11.0497
將以	-11.0497
難以	-11.0502
治天下	-11.0503
動静	-11.0504
武昌	-11.0506
禆	-11.0508
王室	-11.051
者何也	-11.051
臯陶	-11.0517
噴	-11.0518
芩	-11.0519
出于	-11.0519
晞	-11.0524
丙戌	-11.0526
和氣	-11.0526
褁	-11.0527
石室	-11.0528
靨	-11.0528
褥	-11.0529
卿大夫	-11.0531
終於	-11.0532
複	-11.0532
廪	-11.0533
麻子	-11.0534
靑	-11.0534
飼	-11.0534
猥	-11.0539
各以	-11.054
雖然	-11.0542
城下	-11.0543
欹	-11.0545
之可	-11.0545
學校	-11.0545
活套	-11.0545
秦始皇	-11.0548
其辭	-11.0549
無聲	-11.0551
名臣	-11.0552
膩	-11.0552
蕊	-11.0555
王母	-11.0557
十有二	-11.0558
佑	-11.0558
挫	-11.056
無子	-11.056
復以	-11.056
第八	-11.0561
太上	-11.0565
俘	-11.0566
清濁	-11.0566
之首	-11.0567
夷狄	-11.0568
行於	-11.0568
可知矣	-11.0569
比之	-11.0571
之水	-11.0572
尤甚	-11.0572
形容	-11.0574
河西	-11.0578
三嵗	-11.058
以事	-11.0583
以治	-11.0588
奏曰	-11.0591
掲	-11.0592
顏	-11.0592
櫻桃	-11.0593
款	-11.0593
潦	-11.0593
謝靈運	-11.0598
一員	-11.06
衡山	-11.0601
東風	-11.0604
咳	-11.0605
楚子	-11.0607
光禄	-11.0607
桂枝湯	-11.0608
無定	-11.0608
星辰	-11.0608
不逮	-11.061
黒色	-11.0611
其情	-11.0612
方可	-11.0612
譴	-11.0613
河水	-11.0614
世宗	-11.0615
龍骨	-11.0617
分野	-11.0617
後周	-11.0617
梁書	-11.0618
▁子曰	-11.0618
帯	-11.0619
五十丸	-11.0619
淺深	-11.0621
理之	-11.0622
討之	-11.0623
筐	-11.0624
一首	-11.0629
景公	-11.063
横渠	-11.0631
十八年	-11.0632
其親	-11.0634
匏	-11.0634
以通	-11.0642
軍事	-11.0644
盎	-11.0644
皂莢	-11.0645
至元	-11.0645
石上	-11.0647
能為	-11.0648
也然則	-11.0649
朝野	-11.065
區區	-11.0652
▁赤芍藥	-11.0653
奬	-11.0656
媿	-11.0656
何時	-11.0658
以定	-11.066
而安	-11.066
倘	-11.0661
則不能	-11.0664
慄	-11.0664
舉人	-11.0664
嘗與	-11.0667
之南	-11.067
亦不可	-11.0671
有才	-11.0671
豔	-11.0672
千古	-11.0673
蕭何	-11.0674
囿	-11.0675
捜	-11.0677
周旋	-11.0679
十九年	-11.068
不便	-11.0685
丹溪	-11.0685
生死	-11.0686
馥	-11.0687
是其	-11.0689
東垣	-11.069
髙帝	-11.0691
官屬	-11.0694
叩頭	-11.0694
正義	-11.0696
各一錢	-11.0697
朔方	-11.0701
而實	-11.0701
也蓋	-11.0702
佗	-11.0703
懶	-11.0704
噦	-11.0704
名山	-11.0705
郊祀	-11.0708
軍士	-11.0708
▁太平御覽卷第	-11.0709
个	-11.0714
鴛鴦	-11.0714
鎬	-11.0714
樗	-11.072
未詳	-11.0725
次日	-11.0728
一行	-11.0728
以是	-11.073
不加	-11.0732
論之	-11.0732
臣下	-11.0733
良方	-11.0733
見而	-11.0734
梧桐	-11.0734
t	-11.0736
顓頊	-11.0736
心之	-11.0739
雍州	-11.074
本紀	-11.074
柿	-11.0741
▁一小兒	-11.0744
不避	-11.0745
三里	-11.0746
無忌	-11.0749
淳化	-11.0749
曰何	-11.075
相連	-11.075
逸少	-11.0752
聖王	-11.0752
圉	-11.0752
非一	-11.0752
之德	-11.0752
西湖	-11.0754
米飲下	-11.076
豁	-11.076
李嶠	-11.0761
河陽	-11.0767
尋常	-11.0776
司農	-11.0777
一萬	-11.0777
巒	-11.0777
鹵	-11.0778
滎陽	-11.0778
滄	-11.0782
▁木通	-11.0782
蟄	-11.0785
之次	-11.0788
悠悠	-11.079
之孫	-11.0792
智者	-11.0793
騁	-11.0794
三卷	-11.0794
之業	-11.0795
潮熱	-11.0797
入水	-11.0797
幄	-11.08
火燒	-11.0803
平章事	-11.0803
港	-11.0806
磁	-11.0806
肖	-11.0807
朝士	-11.081
即得	-11.0815
足矣	-11.0816
者以其	-11.0819
漢之	-11.082
因此	-11.082
直角	-11.0821
一等	-11.0822
舄	-11.0822
是月	-11.0824
所云	-11.0826
曰大	-11.0828
理也	-11.0829
誅之	-11.0829
兖	-11.0832
面積	-11.0839
張衡	-11.084
與夫	-11.0841
乙巳	-11.0843
更無	-11.0843
過之	-11.0846
▁論曰	-11.0846
耳聾	-11.0848
溲	-11.0849
有毒	-11.085
性之	-11.085
人自	-11.0854
成對	-11.0854
一夜	-11.0857
賄	-11.0859
笥	-11.086
異於	-11.0864
掉	-11.0865
橫	-11.0865
不就	-11.0867
小麥	-11.0867
矣若	-11.087
慾	-11.087
搨	-11.0871
汶	-11.0871
著書	-11.0871
宣宗	-11.0876
闌	-11.088
搐	-11.0885
彘	-11.0887
千秋	-11.0892
七尺	-11.0896
有小	-11.0899
文子	-11.09
合而	-11.09
户部	-11.0903
兌	-11.0903
二萬	-11.0904
九百	-11.0907
因名	-11.0908
黄白	-11.0909
嘉之	-11.091
熱氣	-11.0911
隷	-11.0914
孝宗	-11.0915
不舉	-11.0918
侍從	-11.0918
内經	-11.0919
平陽	-11.092
其神	-11.092
待制	-11.0921
䜟	-11.0925
眇	-11.0925
隂陽之	-11.0932
不可用	-11.0933
▁知母	-11.0935
天竺	-11.0936
驚悸	-11.0939
天文志	-11.094
拘急	-11.094
其門	-11.094
穹	-11.0941
歷	-11.0941
▁沈	-11.0942
牛羊	-11.0952
窮理	-11.0954
金方	-11.0957
膾	-11.0958
人者	-11.0962
一節	-11.0963
天官	-11.0963
相減	-11.0964
鉞	-11.0965
責之	-11.0966
五合	-11.0967
明經	-11.0968
今有	-11.0969
繋	-11.0969
山澤	-11.0974
薤	-11.0974
蘸	-11.0974
如有	-11.0975
空中	-11.0977
之兵	-11.098
體之	-11.0982
奉使	-11.0984
漳	-11.0985
堡	-11.0985
庶子	-11.0986
李斯	-11.0989
猶在	-11.099
博物志	-11.0993
三角	-11.0996
五七	-11.0996
與我	-11.0997
連翹	-11.0998
杜預	-11.0999
職事	-11.1
邯鄲	-11.1001
為太子	-11.1005
隨時	-11.1005
一劑	-11.1005
菖蒲	-11.1005
城西	-11.1005
無極	-11.1006
武子	-11.1007
𥙷	-11.1007
必欲	-11.1009
此非	-11.1011
好惡	-11.1014
在人	-11.1014
父兄	-11.1018
蚊	-11.1018
呪	-11.1018
王勃	-11.1019
下部	-11.1019
山隂	-11.1022
孝弟	-11.1022
不時	-11.1022
有六	-11.1023
眥	-11.1024
潘岳	-11.1026
青皮	-11.1028
各自	-11.1031
天台	-11.1032
釋之	-11.1033
金吾	-11.1036
河中	-11.1038
以功	-11.1039
礪	-11.104
諸國	-11.1041
若以	-11.1044
一一	-11.1046
不亦	-11.105
今世	-11.1051
孽	-11.1051
掇	-11.1051
也乃	-11.1054
正色	-11.1059
湯治	-11.106
不效	-11.1064
牘	-11.1068
眺	-11.1068
半斤	-11.1072
闡	-11.1073
旂	-11.1074
為左	-11.1074
雲中	-11.1075
髀	-11.1077
沉香	-11.108
東觀	-11.1081
此證	-11.1082
御製	-11.1083
鳯凰	-11.1085
令史	-11.1085
其脉	-11.1089
亦如	-11.1094
之比例	-11.1098
再三	-11.11
其外	-11.11
泌	-11.1101
糟	-11.1101
騫	-11.1104
每用	-11.1105
愔	-11.1109
與天	-11.1116
黄庭堅	-11.1117
御書	-11.1119
調和	-11.112
梁元帝	-11.1123
者衆	-11.1123
變而	-11.1126
神效	-11.1127
▁寸	-11.1127
不取	-11.1127
杳	-11.1129
啇	-11.1129
揉	-11.1129
皆用	-11.1133
柘	-11.1135
二王	-11.1136
為三	-11.1136
色黄	-11.1143
四千	-11.1144
馨	-11.1147
葉如	-11.1147
溉	-11.1147
虚寒	-11.1151
噬	-11.1151
丨丨丨丨丨丨	-11.1152
緩急	-11.1156
蔑	-11.1157
士之	-11.1158
無道	-11.1164
奔走	-11.1166
太保	-11.1166
王建	-11.1173
兵法	-11.1174
王羲之	-11.1175
開府	-11.1179
盍	-11.1179
味辛	-11.1183
▁隋	-11.1185
去粗皮	-11.1188
上方	-11.1189
日暮	-11.1189
此法	-11.1192
氣不足	-11.1193
色青	-11.1193
世傳	-11.1194
曄	-11.1195
㓕	-11.1196
王師	-11.1198
惕	-11.1202
▁蘇	-11.1204
之憂	-11.1205
不立	-11.1206
鬛	-11.1207
吕氏	-11.1209
次商	-11.121
青山	-11.1212
搔	-11.1213
嘗謂	-11.1217
牓	-11.1219
吾子	-11.1219
印綬	-11.1219
之器	-11.1221
玠	-11.1224
闥	-11.1224
珥	-11.1224
虚則	-11.1227
矣其	-11.1228
呼吸	-11.1228
鼻中	-11.1231
羲之	-11.1234
吳王	-11.1234
上天	-11.1238
珠玉	-11.1247
劭	-11.1247
人謂之	-11.1247
也又曰	-11.1249
規矩	-11.1251
授之	-11.1251
贅	-11.1252
劵	-11.1253
尚書郎	-11.1257
即日	-11.1257
不畏	-11.126
蒂	-11.1263
也吾	-11.1263
於時	-11.1264
頌曰	-11.1266
萬五千	-11.1266
天行	-11.1267
琥珀	-11.1267
嘗以	-11.1268
逓	-11.1269
無此	-11.1273
存亡	-11.1274
㡌	-11.1275
地理志	-11.128
嘉禾	-11.1282
司天	-11.1287
法令	-11.1289
不拘時候	-11.1289
相當	-11.129
凡有	-11.1291
實者	-11.1291
儔	-11.1292
人倫	-11.1292
寸口	-11.1297
禮儀	-11.1298
兕	-11.1303
府君	-11.1305
數百人	-11.1305
太史公	-11.1306
多所	-11.1308
駱	-11.1309
也葢	-11.1312
瘡口	-11.1312
中郎	-11.1313
鞕	-11.1314
伯夷	-11.1317
無罪	-11.1318
餳	-11.132
梅堯臣	-11.1322
流注	-11.1326
深入	-11.1326
于天	-11.1326
字元	-11.1327
䜴	-11.1327
實行	-11.1327
屐	-11.1332
兵起	-11.1333
不能食	-11.1333
墨子	-11.1333
魏王	-11.1334
丁酉	-11.1335
鞅	-11.1335
上表	-11.1339
又謂	-11.1339
又作	-11.1345
獨活	-11.1346
更以	-11.1347
遂成	-11.1348
覧	-11.1349
白石	-11.1349
望見	-11.135
盗賊	-11.1352
兩頭	-11.1352
貟	-11.1353
不收	-11.1353
戊戌	-11.1355
這箇	-11.1359
千餘人	-11.136
零陵	-11.1362
百世	-11.1365
重者	-11.1371
派	-11.1372
刷	-11.1372
勺	-11.1372
狥	-11.1372
長樂	-11.1372
令尹	-11.1372
半升	-11.1374
而終	-11.1375
晉王	-11.1375
積年	-11.1376
有差	-11.1377
獺	-11.1377
諸司	-11.1381
察之	-11.1384
熱服	-11.1384
有過	-11.1385
未易	-11.1387
槖	-11.1389
山南	-11.1391
㤗	-11.1392
天人	-11.1393
乃令	-11.1396
芎	-11.1396
所司	-11.14
氣味	-11.1401
不稱	-11.1402
大率	-11.1402
紐	-11.1405
恂	-11.1406
瘕	-11.1406
生而	-11.1408
於是乎	-11.1408
東行	-11.141
㑹要	-11.141
世説	-11.1411
琉璃	-11.1412
竹瀝	-11.1412
養生	-11.1413
逍遥	-11.1414
兵馬	-11.1416
異也	-11.142
光禄大夫	-11.142
臍下	-11.1421
行也	-11.1426
其可	-11.1427
騶	-11.1427
蟾	-11.1428
航	-11.1429
所求	-11.1429
莊公	-11.1433
嬉	-11.1435
簮	-11.1435
頗有	-11.1439
利之	-11.1443
曰吾聞	-11.1452
苦寒	-11.1452
數十人	-11.1453
欣然	-11.1456
其首	-11.1456
有兩	-11.1458
不測	-11.1459
莫若	-11.1461
恐懼	-11.1461
弓矢	-11.1462
太一	-11.1464
袒	-11.1466
空腹	-11.1467
人知	-11.1469
為右	-11.147
姙娠	-11.1471
第九	-11.1471
事者	-11.1473
東平	-11.1474
廐	-11.1475
在乎	-11.1477
奏請	-11.1477
大旱	-11.1477
金匱	-11.1478
鬲	-11.1481
當其	-11.1484
瞿	-11.1485
先人	-11.1487
不任	-11.1489
外有	-11.149
水上	-11.149
惲	-11.149
其用	-11.149
可不	-11.1491
象曰	-11.1495
大國	-11.1495
覆之	-11.1497
江上	-11.1497
癥	-11.1498
亦猶	-11.1499
惇	-11.15
大水	-11.1501
奴婢	-11.1503
熱則	-11.1503
東京	-11.1503
以歸	-11.1503
事而	-11.1504
笠	-11.1504
神龍	-11.1504
闗中	-11.1506
漸漸	-11.1508
家之	-11.151
室中	-11.151
之恩	-11.1511
者蓋	-11.1511
生氣	-11.1516
之具	-11.1516
星在	-11.1518
其行	-11.152
圗一	-11.1521
榛	-11.1521
芒硝	-11.1522
知制誥	-11.1522
乳母	-11.1525
下氣	-11.1526
草堂	-11.1526
欲令	-11.1528
螫	-11.1533
捍	-11.1533
蠻夷	-11.1536
祔	-11.1539
茄	-11.1539
謂此	-11.1539
之權	-11.154
信之	-11.1541
九卿	-11.1542
辭曰	-11.1542
傭	-11.1544
謝安	-11.1547
帙	-11.155
云是	-11.155
將帥	-11.1555
之色	-11.1556
神氣	-11.1557
出千	-11.1558
加减	-11.1559
昉	-11.1559
數里	-11.1564
魏晉	-11.1571
天寶	-11.1574
叔父	-11.1576
太清	-11.1578
訝	-11.1579
其力	-11.158
尊卑	-11.1582
正直	-11.1589
灌之	-11.1589
傳見	-11.1589
嵐	-11.1591
濱	-11.1591
萬八千	-11.1591
是則	-11.1592
自號	-11.1593
同心	-11.1597
丸如	-11.1603
袋	-11.1605
如常	-11.1605
▁赤茯苓	-11.1607
詩序	-11.1609
虚而	-11.1613
初起	-11.1615
武功	-11.1618
雖無	-11.1618
肺氣	-11.1619
覲	-11.1624
玉女	-11.1626
䘏	-11.1626
乙丁	-11.1627
東陽	-11.1632
孟郊	-11.1635
方寸	-11.1635
知者	-11.1637
縞	-11.1638
南宫	-11.1639
而為之	-11.1641
痰涎	-11.1643
不愈	-11.1644
茲	-11.1644
曩	-11.1644
上黨	-11.1644
誰能	-11.1645
南面	-11.1647
教化	-11.1648
凡人	-11.1648
浮腫	-11.1649
硝	-11.1649
癭	-11.165
▁應閏	-11.1651
嵗月	-11.1651
頭面	-11.1652
之遂	-11.1654
葶藶	-11.1655
滚	-11.1655
莎	-11.1655
章句	-11.1656
柰	-11.1656
尚未	-11.1659
后妃	-11.166
前人	-11.166
内傷	-11.166
所聞	-11.1663
以道	-11.1667
三度	-11.1671
化之	-11.1673
縠	-11.1673
萬六千	-11.1673
性情	-11.1675
生用	-11.1676
中尉	-11.1676
慝	-11.1679
過多	-11.1679
撞	-11.1679
大雅	-11.168
門户	-11.1682
殁	-11.1685
之稱	-11.1687
北面	-11.1687
覈	-11.1688
▁治婦人	-11.1689
之西	-11.169
米飲	-11.1691
灣	-11.1691
宼	-11.1691
百病	-11.1692
歎息	-11.1692
多食	-11.1695
珮	-11.1695
脾氣	-11.1696
宣武	-11.1697
而食	-11.1697
未免	-11.1699
後方	-11.17
摯	-11.1701
二印	-11.1702
治國	-11.1704
固辭	-11.1707
六兩	-11.1707
倩	-11.1708
累遷	-11.171
之句	-11.171
色赤	-11.1711
昭王	-11.1712
粳米	-11.1714
藏於	-11.1716
蕉	-11.1716
腎水	-11.1717
直言	-11.1718
頭上	-11.1718
不妨	-11.1718
轄	-11.172
3	-11.172
卷十	-11.172
能知	-11.1722
納之	-11.1722
一邊	-11.1723
之東	-11.1723
近日	-11.1724
之疾	-11.1725
百家	-11.1726
平地	-11.1726
如神	-11.1727
小而	-11.1729
其弟	-11.173
吻	-11.1732
之積	-11.1735
之費	-11.1737
治傷寒	-11.1743
矧	-11.1744
以報	-11.1747
荔枝	-11.1747
宗正	-11.1748
與此	-11.1751
怒曰	-11.1752
會稽	-11.1755
翕	-11.1756
彥	-11.1756
荼	-11.1762
温庭筠	-11.1763
中書侍郎	-11.1765
▁烏	-11.1766
曲江	-11.1767
不惟	-11.1767
施於	-11.1771
有言	-11.1775
戰國䇿	-11.1776
陽侯	-11.1777
可得而	-11.178
位至	-11.1781
否則	-11.1782
切音	-11.1783
日在	-11.1785
攬	-11.1785
軍旅	-11.1786
卉	-11.1788
皆由	-11.1789
酒食	-11.179
名士	-11.179
紈	-11.1791
無敢	-11.1793
復置	-11.1793
一章	-11.1795
萎	-11.1797
不由	-11.18
猶可	-11.1801
關中	-11.1805
楊萬里	-11.1811
次等	-11.1811
皆然	-11.1814
形勢	-11.1814
謐	-11.1815
槃	-11.1815
徤	-11.1815
▁事類	-11.1817
佐以	-11.1819
粱	-11.1819
所行	-11.1823
不著	-11.1825
録曰	-11.1828
之化	-11.1829
▁呉	-11.183
所著	-11.183
而易	-11.1832
炬	-11.1833
中軍	-11.1835
以利	-11.1839
倖	-11.1839
麥冬	-11.1841
丈人	-11.1845
翌日	-11.1851
日月之	-11.1854
旒	-11.1857
相減餘	-11.1858
復生	-11.1858
i	-11.1869
朴硝	-11.187
▁犀角	-11.187
陽城	-11.1877
嬰兒	-11.1879
所及	-11.1879
去苗	-11.188
濛	-11.1881
猗	-11.1881
治亂	-11.1882
外國	-11.1884
撤	-11.1887
亦多	-11.189
孺子	-11.1892
之㫖	-11.1898
殄	-11.1899
窘	-11.1899
二十餘	-11.19
已上各	-11.1904
而動	-11.1908
皮毛	-11.1909
只有	-11.1911
弘	-11.1911
經度	-11.1915
剝	-11.1917
人才	-11.1919
有天下	-11.1919
其先	-11.192
得罪	-11.1921
嘉祐	-11.1921
於君	-11.1922
溼	-11.1923
丨其丨	-11.1924
輕粉	-11.1924
張説	-11.193
腋	-11.1931
庖	-11.1934
聽之	-11.1936
風雲	-11.1939
斾	-11.1941
有事	-11.1942
也盖	-11.1943
頭疼	-11.1943
攣	-11.1945
得人	-11.1946
于時	-11.1948
蛟龍	-11.1949
莫之	-11.195
襄王	-11.1951
直線	-11.1952
二卷	-11.1953
而行之	-11.1953
堦	-11.1954
尺寸	-11.1954
小柴胡湯	-11.1955
又不	-11.1957
其制	-11.196
鳶	-11.196
蘇州	-11.196
麩	-11.1961
繼之	-11.1962
面赤	-11.1962
貴妃	-11.1962
叔向	-11.1964
肝經	-11.1966
又言	-11.1966
何也曰	-11.1967
在焉	-11.1968
誤矣	-11.1972
為二	-11.1975
徐陵	-11.1975
后土	-11.1975
顥	-11.1976
地上	-11.1977
憾	-11.1978
死矣	-11.1979
不得不	-11.198
自出	-11.1981
睢	-11.1981
百合	-11.1981
女人	-11.1982
葺	-11.1984
珣	-11.1984
槎	-11.199
▁附方	-11.1992
不喜	-11.1992
昆弟	-11.1992
赭	-11.1993
鯉魚	-11.1994
泗	-11.1995
也但	-11.1996
列於	-11.1996
熙寧	-11.1996
刁	-11.1996
二女	-11.1997
何其	-11.1997
十枚	-11.1998
不中	-11.1998
盂	-11.1999
此所謂	-11.1999
法當	-11.1999
婦女	-11.2001
壬戌	-11.2002
其年	-11.2005
紺	-11.2005
瘤	-11.2008
莫如	-11.201
欲使	-11.2013
四十二	-11.2013
慟	-11.2013
每服三錢	-11.2014
疥	-11.2025
神人	-11.2025
但見	-11.203
嬖	-11.2033
大同	-11.2034
不厭	-11.2035
從而	-11.2039
有名	-11.204
永平	-11.2045
橘皮	-11.2046
唐虞	-11.2049
存焉	-11.2049
一時之	-11.205
之儀	-11.2055
將相	-11.2056
文昌	-11.2061
訂	-11.2063
從其	-11.2065
恐其	-11.2067
入海	-11.2068
蝦	-11.2069
為隂	-11.2071
祖父	-11.2073
衛將軍	-11.2074
居中	-11.2074
一見	-11.2076
屈原	-11.2076
六曰	-11.2078
蠡	-11.208
蔕	-11.2081
清水	-11.2081
半日	-11.2086
▁傷寒	-11.2088
至徳	-11.2089
年正月	-11.2091
即今	-11.2092
之謀	-11.2093
嫂	-11.2094
空心服	-11.2094
證也	-11.2098
畱	-11.21
人能	-11.2101
長於	-11.2102
始有	-11.2104
温公	-11.2108
昂	-11.2112
猜	-11.2112
木為	-11.2118
觚	-11.2118
徽宗	-11.212
乆之	-11.212
百餘人	-11.212
青雲	-11.2125
小學	-11.2128
七枚	-11.2128
相反	-11.2129
▁漢書曰	-11.213
痰飲	-11.213
如水	-11.2131
自立	-11.2134
有九	-11.2134
五苓散	-11.2134
丁戊	-11.2135
左傳曰	-11.2135
之賢	-11.2136
煎取	-11.2137
敵人	-11.2137
天門	-11.2138
通於	-11.2139
列侯	-11.2139
此等	-11.2141
棋	-11.2141
R	-11.2143
舛	-11.2143
m	-11.2143
r	-11.2143
o	-11.2143
本於	-11.2144
然不	-11.2145
書於	-11.2145
江山	-11.2147
犧	-11.2147
埃	-11.2148
中氣	-11.2154
湯武	-11.2156
三服	-11.2157
之北	-11.2158
心神	-11.2162
字文	-11.2166
者三	-11.2167
南郡	-11.2168
為侍中	-11.2168
優劣	-11.2169
攤	-11.2172
曹操	-11.2173
庵	-11.2173
少而	-11.2173
蘇子	-11.2175
熹	-11.218
翮	-11.2181
天時	-11.2182
小大	-11.2183
之女	-11.2184
可作	-11.2185
蘂	-11.2185
和平	-11.2185
為佳	-11.2186
椽	-11.2186
地理	-11.2192
實也	-11.2197
議郎	-11.2197
行至	-11.2198
此謂	-11.2198
徂	-11.2199
懦	-11.2199
𨕖	-11.2199
鳳凰	-11.2199
前輩	-11.2201
如意	-11.2202
痙	-11.2205
叡	-11.2205
璫	-11.2205
鎧	-11.2205
國王	-11.2207
▁療	-11.2207
八日	-11.2207
之甚	-11.2208
駝	-11.2211
罹	-11.2211
外戚	-11.2212
司馬相如	-11.2213
行則	-11.2214
同姓	-11.2215
至則	-11.2216
圈	-11.2217
實則	-11.2219
於庭	-11.2221
則愈	-11.2223
所書	-11.2225
有時	-11.2226
綿裹	-11.2228
將來	-11.2229
董仲舒	-11.223
四錢	-11.2231
送之	-11.2231
解之	-11.2231
亦不能	-11.2232
朝服	-11.2232
後唐	-11.2232
斵	-11.2236
韋應物	-11.2237
之宜	-11.2241
庚戌	-11.2241
,	-11.2242
蜈蚣	-11.2242
久不	-11.2244
張公	-11.2244
五穀	-11.2245
江海	-11.2246
以應	-11.2246
李公	-11.2246
黄鐘	-11.2247
酋	-11.2249
之源	-11.2251
湍	-11.2255
腹内	-11.2256
金史	-11.2257
果有	-11.2258
人掌	-11.2259
可畏	-11.2259
睂	-11.2261
槍	-11.2261
贏	-11.2261
鑰	-11.2261
成膏	-11.2261
兄子	-11.2264
以進	-11.2266
虫	-11.2267
堂上	-11.2269
扶風	-11.2272
僊	-11.2273
鎗	-11.2273
疵	-11.2273
粮	-11.2273
黄赤	-11.2273
鍋	-11.2276
大體	-11.2276
焚香	-11.2279
也遂	-11.2279
豈得	-11.2283
祧	-11.2286
臨川	-11.2287
四物湯	-11.2289
釋名	-11.2291
▁前胡	-11.2294
子午	-11.2296
秋日	-11.2298
侔	-11.2298
悞	-11.2298
曺	-11.2298
臓	-11.2299
建炎	-11.2302
在地	-11.2303
倭	-11.2305
用心	-11.2306
繇是	-11.2307
二枚	-11.2308
忠孝	-11.2309
畋	-11.231
忙	-11.2311
前藥	-11.2312
恰	-11.2318
之害	-11.2322
靈帝	-11.2325
赤小豆	-11.2327
不散	-11.2328
莭	-11.233
綱目	-11.233
水土	-11.2331
劄	-11.2332
也是故	-11.2332
牡蠣	-11.2333
有光	-11.2334
存者	-11.2334
萼	-11.2336
昭公	-11.2338
疔	-11.2338
也所以	-11.2338
▁沉香	-11.234
以俟	-11.2341
自後	-11.2341
按此	-11.2341
幷	-11.2342
旻	-11.2342
菰	-11.2342
事則	-11.2343
莖葉	-11.2344
相生	-11.2344
熱者	-11.2345
如初	-11.2345
其葉	-11.2347
魏武	-11.2351
▁㯽榔	-11.2351
退之	-11.2351
旌旗	-11.2353
以行	-11.2354
别研	-11.236
棣	-11.2361
夏日	-11.2363
不服	-11.2364
鄭𤣥	-11.2365
烏頭	-11.2368
大将軍	-11.2368
瘡上	-11.2372
細切	-11.2374
郗	-11.2374
識其	-11.2376
知也	-11.2376
宦者	-11.2382
二物	-11.2386
鯨	-11.2386
豈無	-11.2387
縣西	-11.2387
山詩	-11.2387
轉運使	-11.2388
者盖	-11.239
從者	-11.2391
髙士	-11.2392
艷	-11.2393
不曾	-11.2396
北山	-11.2397
殫	-11.2399
之常	-11.2403
揚子	-11.2404
二十日	-11.2405
蒐	-11.2405
其主	-11.2407
忠義	-11.2408
次韻	-11.241
賦丨丨	-11.241
陽也	-11.2412
之象也	-11.2415
乃為	-11.2416
格物	-11.2417
領軍	-11.2417
鹿茸	-11.2418
兇	-11.2418
器也	-11.2418
為一率	-11.2419
在後	-11.2424
圖經	-11.2425
無過	-11.2428
傷人	-11.243
羊肉	-11.243
嶷	-11.2431
水一盞	-11.2433
歌舞	-11.2436
雲母	-11.2437
奐	-11.2437
牛黄	-11.2438
人或	-11.2439
卜筮	-11.244
象限	-11.2441
詡	-11.2442
旃	-11.2442
益甚	-11.2447
為實	-11.2447
語言	-11.2448
舉進士	-11.2448
天麻	-11.245
而今	-11.2452
嘗見	-11.2456
汜	-11.2456
諫議大夫	-11.2457
孫子	-11.2459
家語	-11.2459
為心	-11.2462
未之	-11.2463
無名	-11.2465
蜀志	-11.2466
夸	-11.2469
覔	-11.2469
萬四千	-11.2471
不違	-11.2475
裾	-11.2475
璘	-11.2482
忽見	-11.2482
股肱	-11.2482
之資	-11.2483
▁春秋	-11.2485
常在	-11.2485
乾道	-11.2485
而長	-11.2485
▁黄茋	-11.2488
動則	-11.2488
濳	-11.2488
湊	-11.2488
隂虚	-11.2491
也因	-11.2493
乃至	-11.2493
伽	-11.2494
相承	-11.2494
嫉	-11.2494
此即	-11.2495
穴也	-11.2495
之服	-11.2496
者因	-11.2498
人人	-11.25
敢不	-11.2501
杪	-11.2501
鎻	-11.2501
人以為	-11.2503
風冷	-11.2504
惶	-11.2508
不歸	-11.2511
瀾	-11.2512
訾	-11.2514
憫	-11.2514
何由	-11.2515
年老	-11.2518
柩	-11.252
濾	-11.252
更始	-11.2521
百僚	-11.2521
摻	-11.2523
血脉	-11.2526
埽	-11.2526
自以為	-11.2526
而用	-11.2527
城東	-11.2529
天性	-11.2531
▁釋	-11.2534
所稱	-11.2535
獨不	-11.2537
南唐	-11.2538
開皇	-11.2538
獻公	-11.2539
杜甫詩	-11.2544
也是以	-11.2547
生物	-11.2548
果然	-11.2549
交趾	-11.2551
出其	-11.2552
内減	-11.2556
論云	-11.2557
縣南	-11.2562
貍	-11.2565
南康	-11.2565
三世	-11.2566
和尚	-11.2566
韓子	-11.2567
至大	-11.2567
氣質	-11.257
躋	-11.2571
浣	-11.2577
以濟	-11.2578
致其	-11.2582
概	-11.2584
點	-11.2584
衾	-11.2586
脇下	-11.2586
逺志	-11.2586
明白	-11.2589
三國	-11.259
茵	-11.259
之邪	-11.259
嵇康	-11.2592
大道	-11.2592
去黒	-11.2592
癰腫	-11.2592
五百里	-11.2593
遇之	-11.2594
以賜	-11.2594
地方	-11.2594
瓢	-11.2597
箸	-11.2597
▁尺	-11.2601
焉其	-11.2602
不論	-11.2602
跌	-11.2603
仍以	-11.2605
不義	-11.2606
之良	-11.2609
康節	-11.2612
▁石氏曰	-11.2612
尤為	-11.2615
稱為	-11.2615
占曰	-11.2616
東山	-11.2616
上林	-11.2617
發之	-11.2621
之先	-11.2623
諫曰	-11.2624
▁枳實	-11.2626
哺	-11.2628
門生	-11.263
少腹	-11.2633
西王母	-11.2633
篇曰	-11.2634
揩	-11.2636
金人	-11.2639
能言	-11.2639
及至	-11.264
殞	-11.2642
蔥	-11.2642
動靜	-11.2642
臨卧	-11.2643
□□	-11.2643
二斗	-11.2643
匝	-11.2648
來者	-11.2648
脾土	-11.2648
桓温	-11.2649
無餘	-11.265
同年	-11.2651
更加	-11.2654
莢	-11.2655
得意	-11.2656
圖畫	-11.2656
以身	-11.2658
僖公	-11.2659
癬	-11.2664
葩	-11.2668
裒	-11.2668
盛徳	-11.2671
亭詩	-11.2671
金城	-11.2672
也按	-11.2673
瓚	-11.2675
五十里	-11.2677
湯方	-11.268
明宗	-11.2681
民有	-11.2681
二百四十	-11.2682
止之	-11.2686
睹	-11.2688
慤	-11.2688
奉天	-11.2688
三十三	-11.2691
能食	-11.2692
猾	-11.2694
三味	-11.2697
太陽病	-11.27
殿下	-11.27
之迹	-11.2701
乾元	-11.2701
貼之	-11.2702
侍讀	-11.2702
不化	-11.2703
以安	-11.2704
則生	-11.2707
如人	-11.2707
㐫	-11.2707
去滓温服	-11.2708
與諸	-11.271
字叔	-11.2712
楯	-11.2714
埤雅	-11.2714
與語	-11.2719
三十日	-11.2719
辨其	-11.2719
何得	-11.2719
斟酌	-11.2721
有子	-11.2721
以次	-11.2722
中使	-11.2724
諮	-11.2724
琴瑟	-11.2725
装	-11.2727
紀綱	-11.2727
皇太后	-11.2729
夙夜	-11.273
青衣	-11.2731
四十六	-11.2732
栁宗元	-11.2734
之脉	-11.2736
三十七	-11.2736
足陽明	-11.2739
出為	-11.2739
倍之	-11.2741
雖欲	-11.2741
金華	-11.2741
叔孫	-11.2746
大雨	-11.2747
五度	-11.2747
公侯	-11.2751
地而	-11.2752
干戈	-11.2753
囬	-11.2753
艦	-11.2753
蕪荑	-11.2753
命也	-11.2754
霖	-11.2755
監司	-11.2756
久而	-11.2757
醫者	-11.2757
而不敢	-11.2758
之治	-11.2758
禧	-11.2762
啜	-11.2766
宣城	-11.2771
楚辭	-11.2772
晃	-11.2773
扁鵲	-11.2774
▁阿膠	-11.2774
開花	-11.2775
日午	-11.278
財物	-11.2782
萬嵗	-11.2783
地氣	-11.2784
鮓	-11.2786
辰星	-11.2786
二七	-11.2786
獅子	-11.2786
墾	-11.279
藥也	-11.2791
避之	-11.2795
分三服	-11.2799
上行	-11.28
郭曰	-11.28
當用	-11.2801
第十	-11.2804
冪	-11.2806
綂	-11.2806
佇	-11.2806
巔	-11.2806
皆非	-11.2808
香附	-11.281
轉運	-11.281
逐之	-11.2811
虎賁	-11.2813
重之	-11.2814
多寡	-11.2816
則非	-11.2817
惠王	-11.2817
父之	-11.2821
一百五十	-11.2822
各一人	-11.2824
貺	-11.2826
湖州	-11.2831
何用	-11.2832
奭	-11.2832
迪	-11.2832
肋	-11.2835
金帛	-11.2836
以助	-11.2837
姓氏	-11.2837
不計時候	-11.2839
八人	-11.2844
8	-11.2845
醪	-11.2845
以奉	-11.2846
其衆	-11.2846
不備	-11.2847
得數	-11.2851
未定	-11.2852
開元中	-11.2852
功徳	-11.2853
作樂	-11.2853
哀公	-11.2853
樂之	-11.2857
亦同	-11.2857
汀	-11.2858
b	-11.2859
齊民要術	-11.2859
欲死	-11.2862
黄蘗	-11.2862
而不得	-11.2863
事皆	-11.2864
㕮咀	-11.2864
鑠	-11.2865
利小便	-11.2869
非禮	-11.2873
患之	-11.2874
少陰	-11.2875
鉉	-11.2875
麻油	-11.2878
通用	-11.2879
皆能	-11.288
以義	-11.2882
五丸	-11.2883
▁蒼术	-11.2884
碁	-11.2885
過人	-11.2886
善之	-11.2893
百尺	-11.2894
腠理	-11.2895
腴	-11.2896
郎官	-11.2897
姥	-11.2898
禳	-11.2898
而小	-11.29
知所	-11.2905
流星	-11.2906
之至也	-11.2906
心也	-11.2906
如玉	-11.2907
煉蜜	-11.2908
曰善	-11.2908
為學	-11.2912
良乆	-11.2912
虎豹	-11.2912
所記	-11.2913
先聖	-11.2914
者葢	-11.2918
垂線	-11.2919
▁白芍藥	-11.292
鄭伯	-11.2922
閉門	-11.2922
商賈	-11.2922
不窮	-11.2922
罄	-11.2925
明主	-11.2927
花開	-11.2931
踊	-11.2932
▁集解	-11.2934
野人	-11.2934
祥符	-11.2936
寸二分	-11.2938
之路	-11.2938
鈿	-11.2938
擕	-11.2938
濠	-11.2938
▁後魏	-11.2941
聞見	-11.2943
敬之	-11.2943
也謂	-11.2943
周人	-11.2943
於斯	-11.2945
閬	-11.2945
疸	-11.2947
四品	-11.2948
五十六	-11.2948
朱砂	-11.295
伐之	-11.295
灸之	-11.2951
頭風	-11.2952
何哉	-11.2952
▁右二味	-11.2955
自殺	-11.2955
立功	-11.2955
對曰臣	-11.2955
燈心	-11.2956
之善	-11.2957
寒邪	-11.2959
應制詩	-11.2959
然有	-11.296
王制	-11.2961
各二兩	-11.2963
勾股	-11.2965
勝之	-11.2966
白衣	-11.2969
陸龜蒙	-11.2972
麪	-11.2972
安知	-11.2973
藜	-11.2976
之私	-11.2977
明徳	-11.2978
於市	-11.2979
又用	-11.298
漢書曰	-11.2981
悠	-11.2981
十餘萬	-11.2983
之妻	-11.2983
忩	-11.2985
盥	-11.2985
芫花	-11.2988
日日	-11.299
編修	-11.2991
藥末	-11.2992
羅漢	-11.2993
未甞	-11.2994
膩粉	-11.2995
大軍	-11.2995
為先	-11.2995
承天	-11.2996
城縣	-11.2998
芹	-11.2999
于丨丨	-11.3001
乃出	-11.3003
送下	-11.3003
蜜和	-11.3004
醮	-11.3005
脈浮	-11.3007
焚之	-11.3008
一品	-11.3012
六人	-11.3012
石門	-11.3013
出處	-11.3013
渡河	-11.3016
盾	-11.3016
貝母	-11.3018
衘	-11.3019
莘	-11.3019
之議	-11.3019
至尊	-11.302
鶉	-11.3021
如之何	-11.3022
中書門下	-11.3024
皆無	-11.3025
捻	-11.3026
猪脂	-11.3027
成敗	-11.303
者哉	-11.3031
郵	-11.3031
厥逆	-11.3032
惟其	-11.3032
元嘉	-11.3033
滔	-11.3036
有徳	-11.3037
嬪	-11.3037
於東	-11.3038
丨丨注	-11.3038
鞋	-11.3039
大功	-11.3039
疑之	-11.304
此詩	-11.3042
人民	-11.3046
乃使	-11.3046
窒	-11.3046
為民	-11.305
注丨丨	-11.305
工部	-11.3052
其弊	-11.3054
帝王之	-11.3054
過度	-11.3054
也昔	-11.3056
五官	-11.3056
舶	-11.3057
近代	-11.3059
砦	-11.3059
▁右為末煉蜜	-11.3063
者以為	-11.3063
樂也	-11.3066
讌	-11.3066
不廢	-11.3067
南京	-11.3067
特進	-11.3069
一面	-11.3069
用筆	-11.307
殺其	-11.3071
黄龍	-11.3072
而發	-11.3073
皆如	-11.3077
非所	-11.3078
在我	-11.308
謂之曰	-11.308
有石	-11.3081
穆公	-11.3081
侍臣	-11.3081
武帝紀	-11.3081
始生	-11.3082
宫殿	-11.3084
▁郭	-11.3084
瑗	-11.3084
能使	-11.3085
亳	-11.3086
僞	-11.3086
軼	-11.3086
記室	-11.3087
初虧	-11.3088
塹	-11.3093
吿	-11.3093
文王之	-11.3093
稼穡	-11.3094
之本也	-11.3094
緇	-11.3095
王命	-11.3095
四率	-11.3095
千户	-11.3097
有意	-11.3097
必得	-11.3097
使臣	-11.3098
狸	-11.3099
不使	-11.3106
遒	-11.3106
爍	-11.3107
瘰癧	-11.3107
三十九	-11.3107
之機	-11.311
傷風	-11.3111
不齊	-11.3114
豫州	-11.3117
少氣	-11.3117
龜山	-11.3117
湖南	-11.3118
治平	-11.312
涓	-11.312
瘳	-11.312
未有不	-11.3121
處之	-11.3122
未敢	-11.3123
召公	-11.3124
京兆尹	-11.3125
喉痺	-11.3125
在裏	-11.3126
農桑	-11.3126
為丸	-11.3127
暄	-11.3127
實有	-11.3129
元日	-11.3131
蝎	-11.3132
道德	-11.3133
五行之	-11.3133
則氣	-11.3133
孔雀	-11.3134
塟	-11.3134
俛	-11.3136
施之	-11.3138
趙氏	-11.3138
蝨	-11.3141
將兵	-11.3142
言之則	-11.3143
文義	-11.3143
不倦	-11.3143
頓服	-11.3145
羗	-11.3147
山西	-11.3147
隗	-11.3147
苐	-11.3148
農夫	-11.315
詹事	-11.3153
無間	-11.3153
勝則	-11.3156
並同	-11.3156
子厚	-11.3159
盌	-11.3161
録云	-11.3164
日辰	-11.3167
後宫	-11.3171
而走	-11.3171
之田	-11.3172
書生	-11.3172
琬	-11.3175
不可勝	-11.3175
人身	-11.3182
金水	-11.3185
喘急	-11.3188
踞	-11.3188
和勻	-11.319
為二率	-11.319
不痛	-11.3191
宜以	-11.3193
昔有	-11.3193
諸郡	-11.3199
以此為	-11.32
蜃	-11.3202
繳	-11.3202
經緯	-11.3203
飾以	-11.3204
廬陵	-11.3205
畤	-11.3209
吳郡	-11.3213
去粗	-11.3213
天雄	-11.3213
句股	-11.3214
子母	-11.3214
而見	-11.3215
數尺	-11.3215
坂	-11.3215
曰天子	-11.3216
嵩山	-11.3216
天下無	-11.3216
閼	-11.3216
性也	-11.3217
飛鳥	-11.3217
仁也	-11.3219
日二	-11.3222
相接	-11.3223
七星	-11.3224
等證	-11.3226
各等分	-11.3231
豪傑	-11.3233
經年	-11.3234
元帥	-11.3234
驍	-11.3235
此之謂	-11.3237
槽	-11.3237
廣大	-11.3237
每一	-11.3239
帝即位	-11.3241
六典	-11.3242
走馬	-11.3243
九品	-11.3247
不救	-11.3247
流血	-11.325
冬夏	-11.325
國用	-11.325
不進	-11.3251
蒼梧	-11.3253
司馬光	-11.3253
甘遂	-11.3254
彚	-11.3256
荔	-11.3259
第二十	-11.326
不常	-11.3261
朂	-11.3264
▁桃仁	-11.3264
夔	-11.3264
无咎	-11.3266
江州	-11.3266
▁朱子曰	-11.3268
以兵	-11.327
年月	-11.3271
以觀	-11.3275
以給	-11.3275
溫服	-11.3277
痊	-11.3279
慶厯	-11.3283
竒之	-11.3285
好古	-11.3287
用其	-11.3287
三十一	-11.3287
曰非	-11.3287
以防	-11.3292
瘻	-11.3297
榴	-11.3298
年十一月	-11.3299
颺	-11.3299
忻	-11.3299
浮雲	-11.3304
緜	-11.3306
山居	-11.3308
其政	-11.3309
㓙	-11.331
實録	-11.3311
䖝	-11.3313
凡此	-11.3313
嵗時	-11.3316
要之	-11.3317
梁王	-11.3317
萬一	-11.3319
瑤	-11.332
抹	-11.332
髭	-11.332
宋朝	-11.332
而言之	-11.332
衛尉	-11.3322
曰爾	-11.3322
奉詔	-11.3323
三王	-11.3325
京口	-11.3325
▁青皮	-11.3326
黛	-11.3326
羸瘦	-11.3326
侯景	-11.3327
三十四	-11.3328
異記	-11.3331
骨髓	-11.3332
小篆	-11.3334
不克	-11.3336
▁雪	-11.3337
順帝	-11.3339
不學	-11.3342
盡心	-11.3345
武帝時	-11.3346
何物	-11.3347
不順	-11.3347
覿	-11.3347
相逢	-11.3348
肢體	-11.335
黄栢	-11.335
摭	-11.3352
考其	-11.3353
因問	-11.3353
卻	-11.3354
鐺	-11.3354
别駕	-11.3355
赤茯苓	-11.3356
不到	-11.3358
語云	-11.3358
舉兵	-11.3359
稔	-11.336
八兩	-11.336
哈	-11.3361
濟南	-11.3361
錦繡	-11.3362
既得	-11.3366
撻	-11.3368
規模	-11.3372
緡	-11.3373
慷慨	-11.3375
為天子	-11.3375
月中	-11.3377
内則	-11.3379
度分	-11.3379
上古	-11.338
地中	-11.3381
虚熱	-11.3381
三十八	-11.3382
▁丁	-11.3382
籙	-11.3382
收之	-11.3385
英雄	-11.3386
張說	-11.3387
歸來	-11.3389
尚可	-11.3389
都是	-11.3389
之過	-11.339
其妙	-11.3391
不減	-11.3394
孟子曰	-11.3394
元年正月	-11.3394
於齊	-11.3395
百八十	-11.3395
懽	-11.3396
隧	-11.3396
邠	-11.3399
三等	-11.3401
謂之丨丨	-11.3402
宗族	-11.3408
可憐	-11.341
龕	-11.341
無恙	-11.3411
之明	-11.3412
居處	-11.3412
南有	-11.3413
正書	-11.3417
雞鳴	-11.3417
内侍	-11.3417
溟	-11.3417
抛	-11.3417
二十里	-11.3422
水經	-11.3423
二合	-11.3426
三子	-11.3427
也惟	-11.3428
芍	-11.343
媪	-11.3431
凡三	-11.3432
隨其	-11.3434
惻	-11.3434
筆墨	-11.3435
穂	-11.3437
張九齡	-11.3438
猪苓	-11.3439
夢中	-11.3441
無禮	-11.3441
亦必	-11.3443
乳汁	-11.3444
則易	-11.3445
行道	-11.3445
為丞相	-11.3445
師古曰	-11.3447
季氏	-11.3451
熈寧	-11.3452
幢	-11.3452
慨	-11.3453
旭	-11.3454
得免	-11.3455
既有	-11.3455
彼此	-11.3456
等皆	-11.3457
賜以	-11.3457
則不可	-11.3459
奪其	-11.346
相遇	-11.3465
下至	-11.3466
實熱	-11.3467
明王	-11.3467
安帝	-11.3469
者自	-11.3475
事有	-11.3475
方得	-11.3476
山陽	-11.348
泠	-11.348
蹲	-11.348
樹下	-11.3481
嗇	-11.3482
丸服	-11.3487
邃	-11.3487
羿	-11.3487
▁硃砂	-11.349
廬江	-11.3491
師曰	-11.3494
月食	-11.3497
是年	-11.3498
承㫖	-11.3501
水調	-11.3502
燾	-11.3502
白鹿	-11.3504
當年	-11.3505
萬七千	-11.3505
丸如梧桐子大	-11.3505
江漢	-11.3507
聲色	-11.3507
師曠	-11.3507
稽首	-11.3507
十斤	-11.3508
苴	-11.3508
霜雪	-11.3508
利而	-11.3509
則能	-11.351
欲求	-11.351
心火	-11.3512
湯浸	-11.3514
鼓吹	-11.3515
蜘蛛	-11.3516
不計	-11.3519
文辭	-11.3521
今在	-11.3521
之差	-11.3522
一百四十	-11.3522
家藏	-11.3524
蘋	-11.3525
皇極	-11.3526
人少	-11.3526
獨立	-11.3527
新書	-11.3529
飛去	-11.3531
𫝊曰	-11.3531
吠	-11.3535
者得	-11.3536
虞世南	-11.3538
匹夫	-11.3538
好事	-11.3538
法師	-11.3543
木之	-11.3543
縣東	-11.3543
大都	-11.3546
尚書省	-11.3548
異端	-11.355
越人	-11.3551
撒	-11.3551
璜	-11.3551
北門	-11.3551
類也	-11.3551
水陸	-11.3554
煅	-11.3554
篩	-11.3556
真珠	-11.3557
莫知	-11.3558
菑	-11.3558
𣙜	-11.3558
修身	-11.3561
磁石	-11.3564
侍講	-11.3564
好事者	-11.3566
狀元	-11.3566
之子也	-11.3566
訶	-11.3568
敬則	-11.3569
休息	-11.357
作亂	-11.3571
諸君	-11.3574
官府	-11.3575
以文	-11.3578
酈	-11.3579
贊曰	-11.358
璟	-11.3583
痂	-11.3583
亶	-11.3587
通天	-11.3587
▁桂枝	-11.3587
夜夢	-11.3591
乙卯	-11.3592
耨	-11.3594
正是	-11.3594
漿水	-11.3598
三代之	-11.3599
𢎞農	-11.3601
剽	-11.3601
穉	-11.3601
君也	-11.3601
長孫	-11.3605
▁釋名	-11.3606
刑部	-11.3606
忘其	-11.3607
蛙	-11.3608
福建	-11.361
不移	-11.361
誤也	-11.361
無由	-11.361
赤芍藥	-11.3611
若水	-11.3612
尺餘	-11.3613
天聖	-11.3615
三足	-11.3615
論衡	-11.3618
南渡	-11.3619
曰彼	-11.362
國子監	-11.362
明府	-11.362
愉	-11.3622
宇宙	-11.3623
此類	-11.3624
細剉	-11.3626
螢	-11.3626
百餘里	-11.3627
棃	-11.3629
僑	-11.363
墉	-11.363
食前服	-11.3631
已來	-11.3631
刄	-11.3637
知此	-11.3637
藹	-11.3644
既成	-11.3644
容貌	-11.3644
廟堂	-11.3645
▁右件	-11.3649
徳行	-11.365
諂	-11.3651
太湖	-11.3652
志云	-11.3652
五聲	-11.3654
而坐	-11.3656
遂與	-11.3657
出而	-11.3657
華陽	-11.3658
膓	-11.3658
研末	-11.3659
多是	-11.3663
任昉	-11.3663
聿	-11.3665
柵	-11.3665
封侯	-11.3666
乗馬	-11.3667
安危	-11.3667
安在	-11.367
半月	-11.3672
其大	-11.3673
一陽	-11.3674
企	-11.368
廸	-11.368
肴	-11.3687
二劑	-11.3687
祜	-11.3688
善書	-11.3688
著作	-11.3689
雲南	-11.369
相思	-11.3694
虱	-11.3694
夣	-11.3694
大字	-11.3695
可知也	-11.3698
十餘人	-11.3699
寂寞	-11.3702
骨節	-11.3705
周子	-11.3705
賢良	-11.3706
不遇	-11.3706
者由	-11.3709
以清	-11.371
帝時	-11.3713
蘄	-11.3717
故君子	-11.3718
惠帝	-11.3719
此所以	-11.3721
私意	-11.3721
又按	-11.3724
傳注	-11.3725
其味	-11.3727
甲乙丙	-11.3728
道而	-11.3729
授以	-11.373
殽	-11.373
雷霆	-11.3731
瀛	-11.3731
世說	-11.3737
治也	-11.3742
結胸	-11.3742
但有	-11.3742
不爲	-11.3743
二種	-11.3744
珂	-11.3745
君王	-11.3748
後以	-11.3748
大赦	-11.3749
做得	-11.375
民無	-11.3754
水一盞半	-11.3757
宋玉	-11.3759
日躔	-11.3759
崔氏	-11.3761
刺之	-11.3762
一方用	-11.3762
閫	-11.3766
丐	-11.3766
金瘡	-11.3772
廖	-11.3774
補中益氣湯	-11.3774
衆皆	-11.3778
以救	-11.3783
絶句	-11.3786
鵰	-11.3788
慨然	-11.379
乗輿	-11.3792
六國	-11.3793
舉其	-11.3793
郝	-11.3794
載之	-11.3794
舟中	-11.3794
處處	-11.3795
無害	-11.3795
五行志	-11.3795
暝	-11.3795
宗子	-11.3797
薦之	-11.3797
在中	-11.3797
所論	-11.3799
痛不可忍	-11.3802
痛者	-11.3802
乃作	-11.3804
金星	-11.3805
當先	-11.3805
乾隆	-11.3811
人参	-11.3812
當今	-11.3815
籖	-11.3817
賞賜	-11.3817
▁滑石	-11.3818
温酒下	-11.3818
胸滿	-11.3819
非所以	-11.3821
若能	-11.3822
鑄錢	-11.3822
所存	-11.3822
長而	-11.3823
不可復	-11.3823
黼	-11.3825
潢	-11.3825
城北	-11.3828
延夀	-11.3829
不能言	-11.3829
寒則	-11.3829
砥	-11.3831
塜	-11.3832
逈	-11.3832
婚姻	-11.3833
本作	-11.3833
歐公	-11.3834
何能	-11.3836
多者	-11.3837
乃自	-11.3837
猶存	-11.384
簒	-11.3842
與王	-11.3845
殤	-11.3847
立法	-11.3849
除之得	-11.385
沛公	-11.3854
杜詩	-11.3854
有文	-11.3855
莊子曰	-11.3857
石灰	-11.3859
奪之	-11.3861
名畫	-11.3861
▁連翹	-11.3862
靈臺	-11.3864
庭中	-11.3867
酒酣	-11.3867
而痛	-11.3867
考功	-11.3868
嘶	-11.3869
剔	-11.3869
得所	-11.387
長三尺	-11.3871
▁右三味	-11.3871
行草	-11.3871
此説	-11.3873
九五	-11.3874
井田	-11.3876
䜛	-11.3876
交角	-11.3876
久服	-11.3877
一百八十	-11.3882
方言	-11.3882
善者	-11.3883
杓	-11.3883
七錢	-11.3885
起兵	-11.3892
三隂	-11.3893
前日	-11.3896
陁	-11.3898
存乎	-11.3898
切集韻韻㑹	-11.39
制之	-11.3901
事業	-11.3901
恚	-11.3903
供奉	-11.3904
為散	-11.3907
古法	-11.3907
壯士	-11.391
娛	-11.3911
新安	-11.3912
犂	-11.3913
縦	-11.3913
日再	-11.3917
渝	-11.3918
賞之	-11.3919
問於	-11.392
莫非	-11.3922
官軍	-11.3923
每服五錢	-11.3923
平分	-11.3925
小楷	-11.3925
六軍	-11.3926
墓誌	-11.3932
水腫	-11.3933
墀	-11.3933
之類是也	-11.3933
無心	-11.3934
世所	-11.3935
安樂	-11.3935
賦見	-11.3938
俯仰	-11.3938
譬之	-11.3938
生意	-11.3939
三稜	-11.3939
拖	-11.394
相乘	-11.394
池中	-11.3941
蠱毒	-11.3942
宗伯	-11.3944
後學	-11.3946
於國	-11.3949
寺碑	-11.3949
在其中	-11.3949
叠	-11.3949
蓴	-11.3949
漢興	-11.395
主於	-11.3951
范陽	-11.3955
釜	-11.3957
大學士	-11.3958
山河	-11.3958
亦須	-11.3958
鄭注	-11.396
惡血	-11.3962
余嘗	-11.3964
秘書	-11.3964
諤	-11.3964
年年	-11.3965
文士	-11.3967
發散	-11.3968
輕身	-11.3968
離騷	-11.397
六宫	-11.397
▁盧	-11.3971
羗活	-11.3973
還家	-11.3977
酺	-11.3979
佯	-11.3979
言不	-11.398
射干	-11.3982
以問	-11.3983
以實	-11.3984
相得	-11.3986
所傳	-11.3991
棧	-11.3994
肢	-11.3994
使我	-11.3995
▁天麻	-11.3996
另研	-11.3999
平章	-11.3999
戰於	-11.4001
千文	-11.4005
孰能	-11.4007
吐下	-11.4008
塢	-11.4009
四度	-11.4009
新法	-11.401
正交	-11.4013
浙江	-11.4013
日光	-11.4015
磚	-11.4016
襦	-11.4016
知有	-11.4018
信也	-11.4018
▁治一切	-11.4019
萬户	-11.402
謔	-11.4024
▁元史	-11.4024
孫氏	-11.4025
三斗	-11.4025
所造	-11.403
滂	-11.403
縹	-11.4031
則天下	-11.4032
之意也	-11.4032
又與	-11.4033
隂中	-11.4033
皇子	-11.4034
未嘗有	-11.4034
涕泣	-11.4038
刹	-11.4039
辟雍	-11.4039
之野	-11.4042
.	-11.4046
臣竊	-11.4048
則當	-11.4049
上攻	-11.4049
縣北	-11.405
鉏	-11.4053
人力	-11.4053
欲知	-11.4055
為己	-11.4055
藿	-11.4058
筆意	-11.4059
積熱	-11.4059
朝臣	-11.406
小子	-11.4062
▁葛根	-11.4066
皆從	-11.4067
四十里	-11.4068
綦	-11.4068
地名	-11.4069
丁卯	-11.4071
肉蓯蓉	-11.4071
紇	-11.4074
侣	-11.4076
龍虎	-11.4078
言事	-11.4081
史館	-11.4082
張文	-11.4084
諫官	-11.4085
四時之	-11.4085
沿革	-11.4086
菉豆	-11.4087
上人	-11.4088
辛卯	-11.409
楫	-11.4091
悴	-11.4091
▁右四味	-11.4093
兩端	-11.4093
拒之	-11.4093
晒	-11.4095
十丈	-11.4097
泓	-11.4098
甚衆	-11.4101
可治	-11.4102
萬石	-11.4105
侍宴	-11.4106
成公	-11.4106
川烏	-11.4106
入山	-11.4108
爲人	-11.4108
吾家	-11.4109
此三	-11.411
瑀	-11.4111
皺	-11.4113
發背	-11.4116
頭目	-11.4116
有能	-11.4117
於今	-11.4118
無能	-11.4119
不失其	-11.412
泳	-11.4121
九重	-11.4121
大凡	-11.4122
始知	-11.4123
得名	-11.4126
處分	-11.4127
譎	-11.4128
無故	-11.413
著於	-11.413
晒乾	-11.4132
寺僧	-11.4132
以授	-11.4134
冷熱	-11.4134
宜令	-11.4135
之效	-11.4137
器用	-11.4138
為病	-11.4138
其始	-11.4143
又見	-11.4143
法書	-11.4147
目之	-11.4148
切焙	-11.4149
南行	-11.4149
若乃	-11.415
沐浴	-11.415
喉中	-11.415
鱠	-11.4151
官司	-11.4152
無度	-11.4153
去皮臍	-11.4153
不納	-11.4154
一部	-11.4154
弱冠	-11.4159
松江	-11.4161
切線	-11.4162
更名	-11.4165
誚	-11.4166
一隻	-11.4167
詔令	-11.4167
何者	-11.4167
己之	-11.4168
願陛下	-11.4172
有物	-11.4172
e	-11.4174
倉卒	-11.4175
隰	-11.4176
又置	-11.4176
成就	-11.4177
經義	-11.4179
▁東坡	-11.418
不願	-11.4181
鍾繇	-11.4181
哨	-11.4181
德宗	-11.4182
御筆	-11.4182
乙角	-11.4185
氛	-11.4189
讃	-11.4189
其精	-11.419
同前	-11.4191
多則	-11.4192
箔	-11.4192
舅姑	-11.4192
其類	-11.4193
江河	-11.4193
廡	-11.4193
飲子	-11.4194
蔗	-11.4194
肱	-11.4195
陳平	-11.4195
隨之	-11.4196
薔薇	-11.4196
白蜜	-11.4197
參政	-11.4202
諸路	-11.4204
醖	-11.4204
任臣案	-11.4204
一笑	-11.4204
不修	-11.4204
人道	-11.4204
呼之	-11.4204
左僕射	-11.4205
不妄	-11.4206
所未	-11.4208
氣力	-11.4208
觀察	-11.4208
檀香	-11.4209
不以為	-11.4209
皇上	-11.421
而可	-11.421
愚謂	-11.421
必用	-11.4211
髠	-11.4211
乃與	-11.4212
十度	-11.4213
二斤	-11.4215
則止	-11.4216
不瘥	-11.4216
邪熱	-11.4217
攅	-11.4219
中行	-11.422
隂也	-11.422
去毛	-11.4225
足太陽	-11.4226
之誤	-11.4227
中道	-11.4228
便宜	-11.4229
藍田	-11.4229
吐逆	-11.423
疰	-11.4231
之事也	-11.4232
裡	-11.4234
苧	-11.4234
鹽鐵	-11.4235
也宜	-11.4237
王導	-11.4237
石為	-11.4239
武侯	-11.424
引兵	-11.424
䋲	-11.4242
縣官	-11.4243
制曰	-11.4244
鹿角	-11.4244
馬融	-11.4244
郡人	-11.4245
境内	-11.4246
之母	-11.4247
河南尹	-11.4248
立秋	-11.425
紫草	-11.425
三十餘	-11.425
▁韋	-11.4256
者猶	-11.4257
驩	-11.4257
兑	-11.4257
竹茹	-11.4258
盛衰	-11.4261
官制	-11.4263
翡翠	-11.4265
世有	-11.4265
利也	-11.4267
琅邪	-11.4267
幕府	-11.4268
亦宜	-11.4269
加之	-11.4271
者若	-11.4275
斬首	-11.4277
好酒	-11.4283
耘	-11.4286
而食之	-11.429
寒濕	-11.4291
罪人	-11.4294
運行	-11.4294
不分	-11.4295
謾	-11.4295
偹	-11.4295
仞	-11.4295
樞宻	-11.4296
人馬	-11.43
何異	-11.4302
七次	-11.4302
松脂	-11.4302
三百里	-11.4308
沸湯	-11.431
哥	-11.4311
扼	-11.4311
安可	-11.4311
不朽	-11.4313
千嵗	-11.4314
自愈	-11.4315
川椒	-11.4315
宣公	-11.4319
秦之	-11.4319
千葉	-11.4327
石刻	-11.4329
入口	-11.4332
太初	-11.4332
綘	-11.4334
有定	-11.4334
田宅	-11.4334
仲舒	-11.4334
蚩尤	-11.4335
永興	-11.4336
▁治産後	-11.4337
聯	-11.4338
商人	-11.4339
誠意	-11.434
自守	-11.4341
姨	-11.4341
乃能	-11.4342
種種	-11.4342
後生	-11.4343
甚於	-11.4346
白花	-11.4346
吃	-11.4349
蒯	-11.4349
山上	-11.4351
蜀郡	-11.4352
五音	-11.4352
以和	-11.4353
大觀	-11.4355
二丈	-11.4355
新羅	-11.4356
州牧	-11.4357
笄	-11.4357
稽古	-11.4357
視事	-11.4358
雖多	-11.4358
見人	-11.4359
凡十	-11.4361
不審	-11.4364
諦	-11.4364
不仕	-11.4368
雹	-11.4372
瘍	-11.4372
缶	-11.4372
愽	-11.4374
肘後	-11.4375
去穰	-11.4378
摸	-11.438
錡	-11.438
卭	-11.4383
蹶	-11.4387
鞫	-11.4387
禮記曰	-11.4389
長慶	-11.4389
南人	-11.439
禮曰	-11.439
御史臺	-11.4392
調理	-11.4393
臨安	-11.4394
揣	-11.4395
出則	-11.4399
之能	-11.44
而痊	-11.4402
其兄	-11.4402
以小	-11.4404
實而	-11.4405
閉塞	-11.4405
辰砂	-11.441
英宗	-11.4411
糶	-11.4411
日久	-11.4413
集賢	-11.4414
右丞	-11.4414
經營	-11.4414
治病	-11.4415
十尺	-11.4415
其術	-11.4416
在東	-11.4416
心而	-11.4416
吏部侍郎	-11.4417
鄱陽	-11.4417
司馬遷	-11.4423
形於	-11.4424
崑山	-11.4426
穏	-11.4426
▁漢書	-11.4427
甲戊	-11.4427
虚損	-11.4428
日月星辰	-11.4428
一十二	-11.443
乎天	-11.4432
穆宗	-11.4432
慢火	-11.4433
歐陽公	-11.4437
殊不知	-11.4438
十餘里	-11.4439
胡椒	-11.4442
於身	-11.4447
更相	-11.4447
以知	-11.4448
一两	-11.4449
煮取	-11.4451
謂人曰	-11.4455
甚厚	-11.4455
祕書	-11.4457
中出	-11.4457
銚	-11.4457
飛白	-11.4457
多不	-11.4458
稍稍	-11.4458
不能盡	-11.4458
一世	-11.446
五十四	-11.4461
杼	-11.4461
自非	-11.4462
亦皆	-11.4462
白者	-11.4462
虺	-11.4462
同列	-11.4464
一軸	-11.4464
出身	-11.4465
桓帝	-11.4465
五萬	-11.4466
都官	-11.4466
漉	-11.4467
失於	-11.447
西京雜記	-11.4472
㢲	-11.4473
吉甫	-11.4473
無用	-11.4473
臨江	-11.4474
神也	-11.4474
魯人	-11.4474
能盡	-11.4475
登第	-11.4476
各有所	-11.4477
▁地骨皮	-11.448
百工	-11.4483
炒令	-11.4484
自相	-11.4484
詣闕	-11.4485
乆矣	-11.4485
君子以	-11.449
者爲	-11.4491
弗能	-11.4491
須用	-11.4492
釋奠	-11.4495
遂至	-11.4495
噪	-11.4496
以補	-11.4497
成化	-11.4498
青色	-11.4499
後又	-11.45
固不	-11.4501
意也	-11.4501
朔望	-11.4501
七政	-11.4501
加至	-11.4502
骸	-11.4504
曰今日	-11.4505
聖賢之	-11.4506
飴	-11.451
楚之	-11.4511
㳟	-11.4512
扶桑	-11.4513
像一	-11.4513
在西	-11.4515
奏之	-11.4515
則死	-11.4519
自乘	-11.452
之表	-11.4521
之半	-11.4522
紹聖	-11.4523
面色	-11.4523
進賢	-11.4525
東至	-11.4525
一聲	-11.4526
之弟	-11.4526
俚	-11.4527
黄門侍郎	-11.4529
▁一婦人	-11.4529
置於	-11.4532
此之謂也	-11.4533
明一統志丨丨	-11.4534
僮	-11.4535
搽	-11.4535
鷰	-11.4535
琪	-11.4535
不可食	-11.4536
西戎	-11.4538
之舊	-11.454
寗	-11.4542
辨之	-11.4542
臉	-11.4543
獨孤	-11.4544
紙上	-11.4544
論其	-11.4547
大呼	-11.4549
至如	-11.455
啞	-11.4551
者但	-11.4552
應天	-11.4552
裴度	-11.4555
以白	-11.4555
太倉	-11.4557
槌	-11.4559
廣漢	-11.456
不可得而	-11.4564
人見	-11.4564
人則	-11.4564
半盞	-11.4564
地下	-11.4565
悽	-11.4566
南軒	-11.4567
黙然	-11.4568
十餘日	-11.4568
田野	-11.4568
譫語	-11.4568
張良	-11.4569
不踰	-11.4569
封之	-11.457
太康	-11.457
鮑照	-11.4573
宦官	-11.4574
諸症	-11.4576
惡心	-11.4577
生民	-11.4578
不快	-11.4578
如法	-11.4578
物而	-11.4578
筆力	-11.4581
甚有	-11.4582
艾葉	-11.4582
蕚	-11.4582
功成	-11.4583
二州	-11.4584
治風	-11.4585
不孝	-11.4585
黄花	-11.4586
爼	-11.4587
水下	-11.459
斌	-11.459
王褒	-11.459
唐李	-11.4594
李徳裕	-11.4594
阮籍	-11.4594
軍國	-11.4595
其處	-11.4599
霍光	-11.4601
道家	-11.4601
皆出	-11.4602
之大者	-11.4603
以意	-11.4604
皇朝	-11.4605
餽	-11.4606
井中	-11.4607
荆南	-11.4608
▁國朝	-11.4609
癸卯	-11.461
無知	-11.4613
丸如梧桐子大每服	-11.4613
敲	-11.4614
偶然	-11.4618
五月五日	-11.4619
或言	-11.4619
驃騎	-11.462
令狐	-11.4622
下筆	-11.4627
兢	-11.4629
糠	-11.4629
毳	-11.463
可取	-11.4631
魅	-11.4635
非不	-11.4636
醎	-11.4638
磔	-11.4638
為首	-11.464
熟地	-11.4641
腹心	-11.4642
一法	-11.4643
罷之	-11.4644
新汲水	-11.4644
槁	-11.4645
芮	-11.4645
西川	-11.4648
異同	-11.4648
熱而	-11.465
毓	-11.4653
朝㑹	-11.4655
正方	-11.4656
子胥	-11.4657
生薑汁	-11.4657
一味	-11.466
以充	-11.4661
已見	-11.4661
不開	-11.4661
浹	-11.4661
正初刻	-11.4662
夫子之	-11.4663
此圖	-11.4663
為四	-11.4668
之詞	-11.4669
其源	-11.4672
權衡	-11.4673
所部	-11.4674
文明	-11.4676
涪	-11.4676
之戒	-11.4676
扆	-11.4677
一代	-11.4677
石勒	-11.4679
地也	-11.4683
為郎	-11.4683
每服一錢	-11.4685
七夕	-11.4686
連珠	-11.4686
豳	-11.4689
以避	-11.4689
不爾	-11.469
神麯	-11.4692
而亡	-11.4696
入門	-11.4696
不得其	-11.4698
無疆	-11.4698
食肉	-11.4698
順天	-11.4699
楸	-11.4701
有詔	-11.4701
腰脚	-11.4702
開封	-11.4703
數千人	-11.4706
服其	-11.4708
虀	-11.4709
一塊	-11.471
下車	-11.4711
一百六十	-11.4711
卿等	-11.4714
綱紀	-11.4714
不令	-11.4714
少頃	-11.4714
體用	-11.4715
不曽	-11.4715
櫛	-11.4716
閃	-11.4717
致知	-11.4719
每服三錢水一盞	-11.4719
漢末	-11.472
親親	-11.4721
地黄丸	-11.4723
不過三	-11.4723
錬	-11.4725
風毒	-11.4729
年七十	-11.473
此數	-11.473
燕王	-11.4732
必當	-11.4733
髣髴	-11.4733
五靈脂	-11.4733
▁杜甫	-11.4734
蜀中	-11.4734
北至	-11.4734
十兩	-11.4735
莊宗	-11.4737
可否	-11.4738
者也故	-11.4738
死罪	-11.4742
子瞻	-11.4744
講學	-11.4744
翎	-11.4747
乎哉	-11.4749
日新	-11.4749
泮	-11.4749
下詔	-11.4749
桀紂	-11.475
南越	-11.475
十五丸	-11.4751
卿士	-11.4751
小吏	-11.4753
韓非子	-11.4754
杉	-11.4755
道中	-11.4756
彧	-11.4756
生焉	-11.4757
葭	-11.4757
漾	-11.4757
顚	-11.4757
淬	-11.4759
曲禮	-11.4759
富人	-11.476
生于	-11.4763
一具	-11.4764
有一人	-11.4766
九二	-11.4767
相通	-11.4768
焉故	-11.4769
人面	-11.4769
文獻通考	-11.4772
目赤	-11.4772
幔	-11.4773
哀帝	-11.4774
戒之	-11.4777
緫	-11.4779
白樂天	-11.478
驗之	-11.4781
不察	-11.4781
齊國	-11.4781
平旦	-11.4781
將有	-11.4783
勉之	-11.4783
律令	-11.4784
賜爵	-11.4786
郡公	-11.4786
全蝎	-11.4787
字公	-11.4788
叨	-11.4789
▁人参	-11.4792
所向	-11.4792
總論	-11.4792
俱有	-11.4792
王府	-11.4794
襍	-11.4797
只在	-11.4803
食者	-11.4804
分數	-11.4804
既不	-11.4804
荻	-11.4805
俶	-11.4805
補闕	-11.4806
▁牛黄	-11.4806
曲直	-11.4809
浸一宿	-11.4811
非獨	-11.4811
臨海	-11.4813
祉	-11.4813
馬援	-11.4814
𨽻書	-11.4817
夕陽	-11.4818
均數	-11.4818
懐詩	-11.4819
戊巳	-11.482
輻	-11.4821
上詳	-11.4822
之法也	-11.4825
止痛	-11.4825
愛人	-11.4826
季孫	-11.4826
熱甚	-11.4826
而好	-11.4827
説苑	-11.4827
捫	-11.4829
不語	-11.4833
漢魏	-11.4835
▁橘皮	-11.4836
二服	-11.4839
十四日	-11.484
水流	-11.4841
江都	-11.4842
▁茯神	-11.4843
理中湯	-11.4845
猛獸	-11.4846
石頭	-11.4846
茱茰	-11.4848
▁逺志	-11.4848
出師	-11.4848
岷	-11.4849
循環	-11.4852
中焦	-11.4855
浮屠	-11.4856
朱氏	-11.4857
土之	-11.4859
至京師	-11.4862
服此	-11.4863
而况	-11.4864
封建	-11.4865
箕子	-11.4866
陳橘皮	-11.4868
曰然	-11.4868
罍	-11.487
校書	-11.487
說得	-11.487
發兵	-11.4871
百寮	-11.4871
杏花	-11.4872
開門	-11.4872
詳見	-11.4875
炮去	-11.4876
方士	-11.4878
剋	-11.4878
覘	-11.4878
霹靂	-11.4878
十粒	-11.4879
至其	-11.4882
經術	-11.4884
細末	-11.4886
左丞	-11.4887
天成	-11.4889
▁治風	-11.4889
置一	-11.489
字畫	-11.4891
荘子	-11.4892
有箇	-11.4892
吳人	-11.4892
丈餘	-11.4893
少師	-11.4893
終無	-11.4898
砂仁	-11.4898
名家	-11.4899
曰君子	-11.4899
無足	-11.4901
主上	-11.4906
胡桃	-11.4907
㑹於	-11.4907
蹕	-11.491
鬯	-11.491
汰	-11.491
髦	-11.491
召之	-11.4911
北人	-11.4911
故令	-11.4912
愬	-11.4914
為水	-11.4914
涵養	-11.4918
王敦	-11.4918
寖	-11.4918
紘	-11.4919
鹵簿	-11.4919
陸游詩	-11.492
炷	-11.4926
荳	-11.4927
不少	-11.4927
儒學	-11.4929
嘗言	-11.4929
與君	-11.4929
行在	-11.493
表曰	-11.4931
莫知其	-11.4931
寥	-11.4934
沆	-11.4935
之竒	-11.4935
少者	-11.4937
東觀漢記	-11.494
每服二錢	-11.4942
入腹	-11.4945
序曰	-11.4945
南星	-11.4946
尚在	-11.4949
心氣	-11.4949
五常	-11.4956
芟	-11.4959
驚風	-11.4959
鶩	-11.4959
二星	-11.496
肝火	-11.496
師古	-11.4961
有憂	-11.4964
▁范	-11.4968
正當	-11.497
頃刻	-11.4973
依前	-11.4975
皆自	-11.4975
篁	-11.4976
臘月	-11.4977
以天下	-11.4978
次以	-11.4981
皇天	-11.4982
▁龍骨	-11.4982
力行	-11.4982
之兆	-11.4983
宛轉	-11.4984
五斗	-11.4984
幃	-11.4984
最多	-11.4985
事物	-11.4987
四十四	-11.4987
義之	-11.4987
二度	-11.4988
國中	-11.4989
附論	-11.4991
吾聞	-11.4992
十五度	-11.4993
大悦	-11.4997
相搏	-11.4998
微黄	-11.4999
年九月	-11.5
而難	-11.5
多而	-11.5003
臣請	-11.5003
吳越	-11.5004
每嵗	-11.5004
茱萸	-11.5004
也於是	-11.5005
祖考	-11.5006
▁傳記	-11.5007
儁	-11.5008
一心	-11.501
器物	-11.5011
官職	-11.5011
近者	-11.5011
者豈	-11.5013
近於	-11.5016
得道	-11.5017
笈	-11.5017
計之	-11.502
宿衛	-11.5023
白鶴	-11.5024
南至	-11.5024
雖未	-11.5024
從官	-11.5024
艸	-11.5025
也哉	-11.5028
孔子之	-11.5029
取諸	-11.503
志在	-11.5031
聖明	-11.5031
一端	-11.5034
蘇秦	-11.5035
之不可	-11.5035
財用	-11.5035
三老	-11.5035
序云	-11.5037
丁丙	-11.5039
小國	-11.5041
覬	-11.5041
鷂	-11.5041
櫓	-11.5041
冇	-11.5041
伏見	-11.5043
韻㑹	-11.5044
動也	-11.5044
三部	-11.5045
入内	-11.5047
▁吕	-11.5048
不害	-11.5048
八風	-11.5048
而東	-11.5049
雲笈七籖	-11.505
鏁	-11.505
又加	-11.5052
茫	-11.5053
未出	-11.5054
泄瀉	-11.5055
千石	-11.5059
東流	-11.5059
生生	-11.506
蕭蕭	-11.506
填星	-11.5062
吐利	-11.5063
勛	-11.5066
非人	-11.5066
有無	-11.5069
晚年	-11.507
不異	-11.507
牙齒	-11.5071
▁熟地黄	-11.5073
故言	-11.5075
▁史記曰	-11.5077
唯有	-11.5077
邨	-11.5083
人莫	-11.5083
大小便	-11.5084
以竹	-11.5087
盛則	-11.5087
方圓	-11.5089
閒居	-11.5089
聞者	-11.5094
非謂	-11.5094
至道	-11.5094
者多矣	-11.5098
已後	-11.5099
上蔡	-11.5099
㒺	-11.5099
目録	-11.5101
昭穆	-11.5103
變易	-11.5104
▁蕭	-11.5105
聮	-11.5105
去根	-11.5105
壅滯	-11.5107
缾	-11.5107
諛	-11.5107
崧	-11.5107
宣子	-11.511
如火	-11.511
火星	-11.5113
食邑	-11.5114
亦謂之	-11.5114
峴	-11.5114
墨竹	-11.5115
五臓	-11.5118
一室	-11.5119
虚勞	-11.512
荷葉	-11.512
之所在	-11.5121
有形	-11.5121
腎虚	-11.5121
害人	-11.5122
登髙	-11.5123
四方之	-11.5124
不存	-11.5128
▁譬如	-11.5128
滄海	-11.5128
未解	-11.5129
事事	-11.5131
子雲	-11.5131
謝曰	-11.5132
舫	-11.5132
讚	-11.5132
正三刻	-11.5133
百步	-11.5133
兩角	-11.5134
六氣	-11.5135
學書	-11.5137
佛像	-11.514
▁梔子	-11.5141
樣	-11.5141
食貨志	-11.5141
目眩	-11.5141
之期	-11.5142
廟碑	-11.5142
其徒	-11.5142
數以	-11.5144
遺書	-11.5145
竺	-11.5146
時年	-11.5148
咸平	-11.5149
殿上	-11.5149
為宰相	-11.515
胡氏	-11.5151
▁敢	-11.5153
尚存	-11.5156
其背	-11.5157
c	-11.5157
温酒調下	-11.5158
問之曰	-11.516
黍稷	-11.5161
大破之	-11.5161
不實	-11.5162
水晶	-11.5163
之室	-11.5164
厚薄	-11.5165
錠	-11.5166
因循	-11.5166
虚弱	-11.5167
仁義禮智	-11.5167
復見	-11.5168
口瘡	-11.5169
是一	-11.5169
人得	-11.5169
三才	-11.5171
禮部尚書	-11.5172
檳榔	-11.5172
更不	-11.5173
頁	-11.5174
煩渴	-11.5174
消渴	-11.5174
治其	-11.5175
死不	-11.5176
者固	-11.5176
蘆頭	-11.5177
▁右為散	-11.5178
二穴	-11.5178
府庫	-11.5178
大梁	-11.5182
嘏	-11.5186
薺	-11.5191
鮮卑	-11.5192
註云	-11.5194
將去	-11.5194
兩邊	-11.5195
鑾	-11.5197
不能行	-11.5197
木蘭	-11.5197
百丈	-11.52
浙西	-11.5201
孝友	-11.5201
顓	-11.5202
於大	-11.5203
東向	-11.5203
不休	-11.5204
器械	-11.5205
之䇿	-11.5205
方用	-11.5209
一百三十	-11.521
昌黎	-11.521
二十八宿	-11.521
不曉	-11.5212
林木	-11.5212
逺方	-11.5212
暴乾	-11.5214
▁又療	-11.5216
一株	-11.5219
漢唐	-11.5219
正統	-11.522
䦨	-11.5223
鍾山	-11.5223
大中	-11.5223
攢	-11.5224
嶼	-11.5224
數而	-11.5226
同於	-11.5227
城外	-11.5229
形氣	-11.5229
長老	-11.5229
司命	-11.5229
得志	-11.523
兩儀	-11.5232
王荆公	-11.5232
痓	-11.5233
覓	-11.5233
其德	-11.5233
則亦	-11.5237
盈縮	-11.5239
二首	-11.5241
窄	-11.5241
末年	-11.5241
祀之	-11.5242
齊桓公	-11.5242
固守	-11.5243
土木	-11.5245
聶	-11.5246
頃之	-11.5249
你	-11.5249
與弟	-11.525
王粲	-11.5252
戰而	-11.5253
聞於	-11.5254
蘖	-11.5256
大司徒	-11.5256
菲	-11.5257
受病	-11.5257
姒	-11.5257
癩	-11.5258
為臣	-11.5258
精微	-11.5261
寒水石	-11.5261
研勻	-11.5262
亦可以	-11.5262
四象	-11.5263
胸脇	-11.5264
瑯琊	-11.5266
瘁	-11.5266
而忘	-11.5266
剉碎	-11.5267
之運	-11.5267
攻城	-11.5268
甲兵	-11.5271
以火	-11.5274
吐瀉	-11.5275
稿	-11.5275
雌雄	-11.5275
初無	-11.5275
千百	-11.5276
不來	-11.5277
章帝	-11.5278
睿宗	-11.5279
萇	-11.5281
便可	-11.5281
直學士	-11.5281
在朝	-11.5282
葡萄	-11.5283
鍳	-11.5283
煩渇	-11.5283
數十里	-11.5286
無聞	-11.5287
不能無	-11.5288
神靈	-11.5289
桑白皮	-11.5289
己卯	-11.5292
暦	-11.5292
魴	-11.5292
與子	-11.5292
士庶	-11.5294
章草	-11.5295
為五	-11.5295
去殻	-11.5296
脾虚	-11.53
釋名曰	-11.5301
七人	-11.5302
治民	-11.5302
乎對曰	-11.5303
簡易	-11.5303
内府	-11.5305
胡麻	-11.5305
曽孫	-11.5306
以禦	-11.5306
器之	-11.5307
勿用	-11.5307
宓	-11.5309
知道	-11.5309
三者	-11.5309
能以	-11.531
痘瘡	-11.531
自當	-11.5313
經傳	-11.5315
逺而	-11.5315
亦治	-11.5316
香附子	-11.5317
至公	-11.5317
三丸	-11.5317
欬嗽	-11.5318
玉海	-11.5318
然無	-11.5318
明珠	-11.532
若使	-11.5321
肝木	-11.5322
璠	-11.5326
𤨏	-11.5326
鄭康成	-11.5328
文忠	-11.5328
常平	-11.5331
故得	-11.5331
▁蔡	-11.5331
昭宗	-11.5333
諳	-11.5334
何嘗	-11.5335
袁紹	-11.5336
氏方	-11.5337
布帛	-11.5338
此病	-11.5339
▁婦人	-11.534
淄	-11.5342
檐	-11.5342
貓	-11.5342
鸛	-11.5342
心不	-11.5347
于上	-11.5348
武臣	-11.5349
▁唐書曰	-11.535
臨時	-11.535
城上	-11.5351
倅	-11.5351
從弟	-11.5354
俗名	-11.5357
鎊	-11.5359
崑	-11.536
然自	-11.5361
天府	-11.5361
三次	-11.5362
行營	-11.5363
有八	-11.5363
五湖	-11.5366
書記	-11.5366
䏻	-11.5367
佳人	-11.5367
國君	-11.5367
泯	-11.5368
太平興國	-11.5368
地骨皮	-11.5368
孔明	-11.5369
經脉	-11.5369
以制	-11.5373
一里	-11.5373
董卓	-11.5374
能治	-11.5374
必能	-11.5375
城内	-11.5375
名之曰	-11.5376
諺曰	-11.5376
瓮	-11.5377
年十月	-11.5377
事實	-11.5378
▁荆芥	-11.5378
▁法以	-11.5379
戱	-11.5385
皴	-11.5385
為樂	-11.5386
米芾	-11.5387
三星	-11.5387
淮西	-11.5389
為長	-11.5389
重陽	-11.5391
一貫	-11.5393
曬	-11.5393
心經	-11.5397
於水	-11.5398
湯送下	-11.5399
可惜	-11.5399
高下	-11.5399
九尺	-11.5399
秦人	-11.54
相乗	-11.5402
復何	-11.5403
一粒	-11.5403
錢氏	-11.5403
不除	-11.5403
處也	-11.5404
落花	-11.5404
惟恐	-11.5405
客星	-11.5406
於我	-11.5407
寸許	-11.5407
白芍藥	-11.5408
冬日	-11.5408
曝乾	-11.5409
雨露	-11.5409
右僕射	-11.541
奩	-11.5411
聞之曰	-11.5412
並見	-11.5412
萬三千	-11.5412
沽	-11.5414
東井	-11.5415
晋書	-11.5417
芾	-11.5417
也當	-11.5417
後復	-11.5418
炫	-11.5419
無憂	-11.5422
絲竹	-11.5424
在南	-11.5424
千二百	-11.5425
食其	-11.5426
黿	-11.5428
沓	-11.5428
跗	-11.5428
食少	-11.5429
二氣	-11.543
也臣	-11.543
輔政	-11.5431
列傳	-11.5432
二年正月	-11.5436
曰不然	-11.5436
北有	-11.5437
其屬	-11.544
謳	-11.5441
白頭	-11.5443
絰	-11.5445
之原	-11.5445
▁巴豆	-11.5445
口舌	-11.5448
九十度	-11.5448
母曰	-11.5451
者莫不	-11.5451
偈	-11.5453
螯	-11.5454
樂章	-11.5456
也雖	-11.5456
欬逆	-11.5457
平聲	-11.5458
當然	-11.5458
時事	-11.5459
金石録	-11.5459
風化	-11.546
餘弦	-11.5462
不發	-11.5462
丙角	-11.5465
其在	-11.5467
麵糊	-11.547
聲音	-11.547
姤	-11.5471
緯度	-11.5472
北地	-11.5477
字季	-11.5477
土中	-11.5478
數為	-11.5479
僵	-11.5479
鑚	-11.5479
命曰	-11.5481
宋公	-11.5484
潞	-11.5484
鷄子	-11.5486
五十五	-11.5486
為最	-11.5488
磧	-11.5488
閽	-11.5488
澣	-11.5488
為義	-11.5489
終身不	-11.5491
口鼻	-11.5491
於河	-11.5494
學道	-11.5495
明公	-11.5495
則自	-11.5496
籟	-11.5497
艘	-11.5497
初一刻	-11.5497
茯	-11.5497
烽	-11.5498
雷電	-11.5499
萬厯	-11.5499
篆書	-11.5502
之威	-11.5502
見此	-11.5504
辛苦	-11.5505
腧	-11.5505
汨	-11.5505
固已	-11.5506
虚也	-11.5506
服食	-11.5508
一歲	-11.5509
一星	-11.5509
大雪	-11.5513
凉州	-11.5513
紊	-11.5514
大畧	-11.5514
袤	-11.5516
虧損	-11.5516
梁州	-11.5516
有數	-11.5517
調服	-11.5517
大徳	-11.5519
軍節度使	-11.552
功業	-11.5521
債	-11.5522
亡也	-11.5524
者故	-11.5524
身重	-11.5524
所取	-11.5524
溏	-11.5525
觀音	-11.5528
或如	-11.5529
一舉	-11.5529
味酸	-11.553
述異記	-11.5533
炒黄	-11.5533
耳今	-11.5535
胡粉	-11.5535
推官	-11.5536
入地	-11.5538
真氣	-11.5538
起居注	-11.5539
隳	-11.554
殊不	-11.5545
一周	-11.5546
永昌	-11.5547
廨	-11.5548
形而	-11.5549
松柏	-11.5551
中流	-11.5552
▁北齊	-11.5554
死也	-11.5554
劉子	-11.5555
昊天	-11.5556
童便	-11.5556
餒	-11.5557
則可以	-11.5557
水二盞	-11.5558
一書	-11.556
焉則	-11.5562
六畜	-11.5562
餘皆	-11.5563
輕者	-11.5563
五嶽	-11.5563
鄭谷	-11.5564
百歩	-11.5564
儆	-11.5566
鴿	-11.5566
徐徐	-11.5566
周室	-11.5568
雲雨	-11.5568
瞑	-11.5569
用大	-11.5571
犀角屑	-11.5572
有頃	-11.5573
春色	-11.5574
南極	-11.5576
茯神	-11.5576
五等	-11.5577
不似	-11.5577
一曲	-11.558
宗紀	-11.558
修撰	-11.5582
擎	-11.5583
鼇	-11.5583
等物	-11.5585
只用	-11.5585
太元	-11.5585
門内	-11.5586
之數也	-11.5587
勣	-11.5588
居其	-11.5588
氣上	-11.5589
生肌	-11.5589
立效	-11.559
匈	-11.5591
何可	-11.5592
𣗳	-11.5592
立為	-11.5592
心肺	-11.5595
五十九	-11.5596
𤣥武	-11.5598
之最	-11.5598
文侯	-11.56
瘖	-11.5601
能致	-11.5601
輔臣	-11.5602
朞	-11.5602
橘紅	-11.5603
民力	-11.5604
四十七	-11.5605
立愈	-11.561
又丨丨	-11.5611
作丨丨	-11.5611
榭	-11.5611
安撫	-11.5612
所不能	-11.5613
於秦	-11.5615
為治	-11.5616
筩	-11.5618
闘	-11.5618
麯	-11.5619
究其	-11.5619
之勞	-11.5621
既無	-11.5623
余謂	-11.5623
莧	-11.5626
憊	-11.5627
▁𥙷藻	-11.5627
芳草	-11.563
孟嘗君	-11.5631
▁裴	-11.5633
將至	-11.5633
去節	-11.5635
州都督	-11.5635
血出	-11.5635
鶚	-11.5635
欲絶	-11.5636
乾燥	-11.5637
則雖	-11.5637
直指	-11.5638
留意	-11.5639
醴泉	-11.5639
部員外郎	-11.5642
禮畢	-11.5642
郊廟	-11.5642
太虚	-11.5644
飲食不	-11.5645
鄆	-11.5646
光照	-11.5647
生平	-11.5647
金丹	-11.5648
武庫	-11.5649
嘉定	-11.565
初初刻	-11.5653
呉興	-11.5655
為司徒	-11.5656
不經	-11.5657
不悦	-11.5657
尺許	-11.5659
之典	-11.5661
苦酒	-11.5661
紿	-11.5662
今觀	-11.5662
道術	-11.5663
九九	-11.5665
德之	-11.5665
安世	-11.5665
善人	-11.5665
位而	-11.5666
以至於	-11.5666
盡力	-11.5666
八千	-11.5669
復圓	-11.5669
鯀	-11.5671
白露	-11.5673
秫	-11.5679
揲	-11.5679
餙	-11.5679
芡	-11.5679
小豆	-11.568
白皮	-11.5683
用水	-11.5684
地利	-11.5685
烏藥	-11.5686
顔師古	-11.5687
㳂	-11.5688
李商隠	-11.5688
不特	-11.5688
建元	-11.569
直上	-11.569
而獨	-11.5691
蓐	-11.5693
苻	-11.5695
之以為	-11.5697
劈	-11.5697
桶	-11.5697
利者	-11.5701
之歌	-11.5703
仲春	-11.5707
前胡	-11.5709
蒼蒼	-11.5709
骨蒸	-11.571
張儀	-11.5712
鏗	-11.5714
前世	-11.5714
士女	-11.5715
山海	-11.5716
燒之	-11.5717
其證	-11.5719
聖徳	-11.572
以死	-11.572
令其	-11.5721
聖散	-11.5722
滇	-11.5723
燄	-11.5723
獨行	-11.5724
須㬰	-11.5724
必無	-11.5725
文正	-11.5726
鹽湯	-11.5726
父母之	-11.5727
南蠻	-11.5728
能自	-11.573
則用	-11.5731
監軍	-11.5732
帶下	-11.5732
初三刻	-11.5732
聖主	-11.5734
固是	-11.5739
與前	-11.5741
大司農	-11.5741
主事	-11.5742
悉以	-11.5742
於己	-11.5743
薏苡仁	-11.5743
䕶軍	-11.5744
酒調	-11.5746
呉王	-11.5747
備矣	-11.5749
髙陽	-11.5749
叫	-11.575
枸杞	-11.575
診之	-11.575
亭長	-11.5751
相加	-11.5752
炒去	-11.5752
皆因	-11.5752
下馬	-11.5753
海水	-11.5753
魯國	-11.5755
其來	-11.5755
上文	-11.5756
▁周禮	-11.5758
翩	-11.5758
朱雀	-11.5759
子儀	-11.576
乃復	-11.5761
七里	-11.5761
仁之	-11.5761
四十三	-11.5762
何謂也	-11.5763
尤妙	-11.5763
烘	-11.5768
蝦蟇	-11.5768
跖	-11.5768
甚盛	-11.5768
食飲	-11.5769
季子	-11.5771
在表	-11.5773
極其	-11.5773
曰寡人	-11.5777
淵明	-11.5777
百金	-11.5778
苻堅	-11.5779
紫微	-11.5779
之症	-11.5781
仝	-11.5784
彝	-11.5785
怒而	-11.5786
小餘	-11.5786
正二刻	-11.5786
而多	-11.5788
出來	-11.5788
主客	-11.5791
齋戒	-11.5792
四體	-11.5794
方今	-11.5794
大麥	-11.5795
及此	-11.58
雲林	-11.58
盡矣	-11.58
一角	-11.5802
後因	-11.5802
鬟	-11.5803
東萊	-11.5803
貧者	-11.5806
不寧	-11.5806
去鬚	-11.5806
日入	-11.5806
此名	-11.5807
親王	-11.5807
發其	-11.5807
俗呼	-11.581
午時	-11.5811
羽翼	-11.5811
爇	-11.5812
利用	-11.5813
滋味	-11.5813
入室	-11.5813
太常卿	-11.5814
萬二千	-11.5815
稱善	-11.5817
六朝	-11.5817
何有	-11.5817
鴻臚	-11.5818
沈香	-11.5819
武宗	-11.582
御府	-11.582
吼	-11.5821
泝	-11.5821
山石	-11.5821
各異	-11.5823
嘉其	-11.5826
黑色	-11.5827
委曲	-11.5827
者欲	-11.5827
脉沉	-11.5828
火也	-11.5828
織女	-11.5828
斟	-11.5829
正一刻	-11.5831
從兄	-11.5831
荆芥穗	-11.5833
議曰	-11.5833
方丈	-11.5837
久則	-11.5837
㣲黄	-11.5837
猪肉	-11.5838
時號	-11.5838
瞖	-11.5839
酤	-11.5839
初二刻	-11.5839
作此	-11.584
曰願	-11.5841
三省	-11.5841
而外	-11.5843
崇禎	-11.5843
龍膽	-11.5843
六品	-11.5847
仁人	-11.5847
太息	-11.5847
腮	-11.5848
估	-11.5848
揔	-11.5848
大槩	-11.5848
而取	-11.5848
酥炙	-11.5849
文仲	-11.585
人迎	-11.5851
則謂之	-11.5853
為吏	-11.5853
顔淵	-11.5856
毀	-11.5857
澄清	-11.5857
此帖	-11.5858
不答	-11.5858
雨雪	-11.5859
月明	-11.5863
供養	-11.5864
追之	-11.5864
之吏	-11.5865
撚	-11.5865
靴	-11.5865
度之	-11.5866
王肅	-11.5867
相隨	-11.5867
▁白居易	-11.5874
蜡	-11.5874
數十年	-11.5878
自乗	-11.5878
官爵	-11.5879
吐之	-11.588
釋文	-11.588
吐㵼	-11.5881
勝負	-11.5883
廣平	-11.5883
1	-11.5883
再用	-11.5883
拈	-11.5883
斐	-11.5883
糝	-11.5883
已死	-11.5884
天柱	-11.5884
所害	-11.5887
正位	-11.5887
肝腎	-11.5888
崇寧	-11.5888
精妙	-11.5891
岑參	-11.5892
從軍	-11.5895
欲為	-11.5897
正也	-11.5897
為仁	-11.5897
馬蹄	-11.5901
嚏	-11.5901
迸	-11.5901
鑪	-11.5901
萬古	-11.5901
之宫	-11.5902
知覺	-11.5902
煎至六分去滓	-11.5904
某云	-11.5904
嗜酒	-11.5904
於衆	-11.5905
天帝	-11.5906
長城	-11.5908
礬石	-11.5909
燼	-11.591
禕	-11.591
勰	-11.591
畏之	-11.5912
丨丨丨丨丨丨丨	-11.5914
於西	-11.5917
去核	-11.5917
大都督	-11.5919
弇	-11.5921
塵埃	-11.5921
瘡瘍	-11.5923
或謂之	-11.5924
白水	-11.5928
歿	-11.5928
渺	-11.5928
治道	-11.5929
畫山水	-11.5931
劉歆	-11.5931
下流	-11.5932
遺之	-11.5932
者正	-11.5933
成周	-11.5934
别録	-11.5935
王儉	-11.5936
於物	-11.5937
耒	-11.5937
暹	-11.5937
▁荆州占曰	-11.5937
剌	-11.5937
猶言	-11.5938
瀟湘	-11.5938
四句	-11.5938
曲折	-11.594
金剛	-11.5942
不殺	-11.5943
丸治	-11.5946
阪	-11.5946
一百一十	-11.5947
所愛	-11.5949
蔡京	-11.5949
風起	-11.5951
都䕶	-11.5951
洗之	-11.5955
也至於	-11.5956
癘	-11.5957
物事	-11.5957
當死	-11.596
帑	-11.596
恭敬	-11.5961
棗肉	-11.5961
千五百	-11.5962
過此	-11.5964
物理	-11.5965
五丈	-11.5966
應聲	-11.5967
赤腫	-11.5967
自若	-11.5968
鍾乳	-11.5968
泄㵼	-11.5968
碣	-11.5968
四升	-11.5969
兵革	-11.5971
悚	-11.5973
不斷	-11.5975
六千	-11.5975
皇祐	-11.5977
虚者	-11.5979
舊有	-11.5981
之深	-11.5981
飛龍	-11.5981
六藝	-11.5983
迦	-11.5985
▁治傷寒	-11.5985
入城	-11.5987
白首	-11.5989
凈	-11.5992
時候	-11.5992
申公	-11.5996
五服	-11.5996
桂陽	-11.5996
過也	-11.5997
六度	-11.6
更生	-11.6001
腸鳴	-11.6001
其要	-11.6003
瞳	-11.6003
麻仁	-11.6003
獻帝	-11.6004
為第一	-11.6005
熱也	-11.6005
七情	-11.6009
仰視	-11.6009
貴戚	-11.6011
水洗	-11.6013
一門	-11.6015
觀此	-11.6016
黄庭	-11.6017
閟	-11.6019
數百里	-11.602
卒於	-11.602
哲宗	-11.6021
吾所	-11.6022
▁右搗	-11.6022
煎七分	-11.6026
漢有	-11.6027
易簡	-11.6027
茨	-11.6027
扞	-11.6028
鼈甲	-11.6028
可行	-11.6028
定國	-11.6029
范蠡	-11.603
有志	-11.6031
後天	-11.6034
惱	-11.6035
鎰	-11.6037
醤	-11.6037
審其	-11.6042
選人	-11.6043
不假	-11.6043
明其	-11.6045
大行	-11.6045
永安	-11.6045
叉	-11.6046
去渣	-11.6046
咫尺	-11.6047
▁藿香	-11.6047
藿香	-11.6049
任之	-11.6049
又自	-11.6052
左旋	-11.6052
同知	-11.6053
證治	-11.6054
教以	-11.6055
鼻塞	-11.6055
用時	-11.6057
遂使	-11.6058
流入	-11.6059
悌	-11.6061
▁雙	-11.6062
有病	-11.6062
四味	-11.6062
儘	-11.6064
嘴	-11.6064
而西	-11.6066
駙馬	-11.6066
鄭公	-11.6066
瞿麥	-11.6066
四季	-11.6067
之容	-11.6067
嵇	-11.6069
顧謂	-11.6072
霆	-11.6073
者十	-11.6073
其俗	-11.6073
歉	-11.6073
無數	-11.6074
雲霧	-11.6074
宋史樂志	-11.6074
昭帝	-11.6075
講論	-11.6076
避暑	-11.6078
▁宋史	-11.6079
雲夢	-11.6079
其詞	-11.608
善為	-11.608
唐制	-11.6081
太陽之	-11.6081
脾肺	-11.6083
所過	-11.6084
前症	-11.6086
古人之	-11.6087
遺事	-11.6087
詩賦	-11.6088
禹錫	-11.609
者能	-11.6091
▁左傳	-11.6091
之髙	-11.6091
亾	-11.6092
癃	-11.6092
善射	-11.6095
五采	-11.6097
家傳	-11.61
開國	-11.6102
之右	-11.6102
二世	-11.6104
白术散	-11.6104
官人	-11.6104
深山	-11.6105
臣子	-11.6106
秋水	-11.6106
金錢	-11.6107
次用	-11.6109
絕	-11.611
嚢	-11.611
不愛	-11.6111
善也	-11.6111
交州	-11.6111
導之	-11.6111
正字	-11.6114
此章	-11.6114
一杯	-11.6115
周公之	-11.6117
處置	-11.6118
相交	-11.6118
嗔	-11.6119
盛於	-11.612
變也	-11.6121
精兵	-11.6121
其毒	-11.6122
隠居	-11.6123
齊名	-11.6123
著作郎	-11.6123
須要	-11.6127
大江	-11.6128
公羊傳	-11.6128
實為	-11.6129
臣也	-11.6132
勞役	-11.6133
堂下	-11.6133
去年	-11.6134
伶	-11.6134
流於	-11.6135
妄行	-11.6136
故用	-11.6136
最高	-11.6137
今欲	-11.6137
㝢	-11.6138
進之	-11.6138
錢匕	-11.6139
輕薄	-11.6139
十倍	-11.6141
此篇	-11.6143
▁董	-11.6146
三丈	-11.6147
砭	-11.6147
袪	-11.6147
葅	-11.6147
甚美	-11.6148
刺痛	-11.6148
不思飲食	-11.6149
數丈	-11.615
相火	-11.615
之較	-11.6151
詔以	-11.6151
縣尉	-11.6152
者不能	-11.6153
芷	-11.6154
柰何	-11.6155
▁按此	-11.6155
萆薢	-11.6156
千八百	-11.6158
吐出	-11.6159
髙山	-11.616
乳食	-11.616
晳	-11.6163
諸臣	-11.6164
蜚	-11.6165
謟	-11.6165
黷	-11.6165
仲子	-11.6165
克己	-11.6165
虚冷	-11.6166
不傳	-11.6167
十步	-11.6171
黄蠟	-11.6173
隴右	-11.6174
鼉	-11.6174
相從	-11.6177
▁晉書	-11.6177
花落	-11.6178
至孝	-11.6179
楊子	-11.6181
不遺	-11.6181
學而	-11.6182
之陽	-11.6184
化成	-11.6187
行度	-11.6188
喘息	-11.6189
羲和	-11.6191
原本	-11.6191
不遂	-11.6192
為司	-11.6196
言則	-11.6197
苦參	-11.62
穆王	-11.6203
長官	-11.6205
同異	-11.6205
馬上	-11.6205
紀曰	-11.6209
何益	-11.621
而受	-11.621
女也	-11.621
雷雨	-11.6211
珉	-11.6211
硇砂	-11.6211
母子	-11.6212
者不過	-11.6213
大戴禮	-11.6214
五十七	-11.6214
曰古者	-11.6215
一毫	-11.6217
乾葛	-11.6217
之類皆	-11.6218
必為	-11.6219
景徳	-11.6219
有何	-11.622
不意	-11.622
耳若	-11.622
有女	-11.6221
治婦人	-11.6221
紱	-11.6221
燉煌	-11.6221
箠	-11.6221
鉗	-11.6221
諸書	-11.6221
天下有	-11.6222
後用	-11.6223
靡不	-11.6223
節氣	-11.6223
聖朝	-11.6224
九天	-11.6225
半分	-11.6226
吾心	-11.6226
如其言	-11.6226
㸑	-11.623
伏惟	-11.6231
鮮于	-11.6232
是嵗	-11.6232
初置	-11.6235
人主之	-11.6236
斯言	-11.6238
甦	-11.6239
毒藥	-11.6239
一國	-11.6241
六卿	-11.6241
八音	-11.6241
迎之	-11.6244
之年	-11.6244
萬九千	-11.6248
四星	-11.6249
心胸	-11.6249
無愧	-11.625
乎夫	-11.6251
其半	-11.6251
也余	-11.6252
必待	-11.6252
煎至七分	-11.6253
髙明	-11.6253
夢見	-11.6253
以立	-11.6253
各七	-11.6254
或時	-11.6254
陶侃	-11.6254
留之	-11.6255
夜行	-11.6255
神道碑	-11.6255
懈	-11.6256
正則	-11.6258
妊娠	-11.6258
月行	-11.6258
恒星	-11.6261
士也	-11.6264
洛水	-11.6265
自陳	-11.6267
薩	-11.6267
文中子	-11.6268
用補中益氣湯	-11.6268
先有	-11.6268
經籍	-11.6269
數千里	-11.627
樓上	-11.6273
改名	-11.6274
未央	-11.6275
陽虚	-11.6275
畀	-11.6276
獠	-11.6276
鈆	-11.6277
力士	-11.6278
謝朓	-11.6278
全體	-11.6279
復舊	-11.6279
異日	-11.6281
五十八	-11.6281
器中	-11.6283
車服	-11.6284
桑根白皮	-11.6286
即死	-11.629
陸贄	-11.6291
賫	-11.6295
稗	-11.6295
地有	-11.6296
圖之	-11.6298
腰背	-11.6298
各以其	-11.6299
水仙	-11.6299
又東	-11.63
鋸	-11.6301
晉卿	-11.6302
八字	-11.6304
禄山	-11.6306
竊謂	-11.6308
丹參	-11.631
其手	-11.6311
轉筋	-11.6311
血熱	-11.6312
劉長卿	-11.6312
翥	-11.6313
禊	-11.6314
之所為	-11.6314
杜仲	-11.6315
朝政	-11.6317
臨淄	-11.6318
韓退之	-11.6319
櫟	-11.6319
先祖	-11.632
山寺	-11.632
北征	-11.6321
靖康	-11.6322
有感	-11.6323
有水	-11.6323
雜録	-11.6323
時政	-11.6323
譌	-11.6323
題名	-11.6324
之由	-11.6325
淳熙	-11.6326
遂得	-11.6328
而巳	-11.633
皆當	-11.6331
旦夕	-11.6332
帚	-11.6333
六味	-11.6334
楚國	-11.6334
而莫	-11.6334
生葱	-11.6335
行幸	-11.6336
咸通	-11.6336
不致	-11.6337
▁圖經曰	-11.6338
建國	-11.6338
調塗	-11.634
黄疸	-11.634
以私	-11.634
二五	-11.634
並行	-11.6341
人必	-11.6341
受禪	-11.6342
祟	-11.6342
靳	-11.6342
甲角	-11.6342
能行	-11.6343
數十萬	-11.6345
舊事	-11.6347
駞	-11.6351
臨事	-11.6352
伏兵	-11.6352
蒺藜	-11.6353
豈知	-11.6353
度量	-11.6354
跋云	-11.6355
宣徳	-11.6356
吳茱茰	-11.6357
一尺二寸	-11.6358
三種	-11.636
與天地	-11.6361
橙	-11.6361
燠	-11.6361
孟浩然	-11.6362
天地間	-11.6364
百司	-11.6365
昨日	-11.6365
姑蘇	-11.6366
户口	-11.6366
知我	-11.6368
孔融	-11.637
舟楫	-11.637
子云	-11.6372
無已	-11.6372
子丑	-11.6372
莫大於	-11.6374
四角	-11.6375
可疑	-11.6377
翩翩	-11.638
以取	-11.6381
為難	-11.6381
天水	-11.6382
天監	-11.6383
良馬	-11.6383
大全	-11.6383
陸雲	-11.6384
青青	-11.6387
受業	-11.6387
所獲	-11.6387
元吉	-11.6387
不親	-11.6388
邏	-11.6389
陷中	-11.639
四物	-11.639
成而	-11.6391
水一大盞	-11.6392
一十六	-11.6395
之福	-11.6395
煩滿	-11.6396
異人	-11.6396
無端	-11.6397
禮部侍郎	-11.6397
者並	-11.6397
刑法	-11.6398
焦氏易林	-11.6398
科舉	-11.6399
皆曰	-11.6399
達於	-11.6399
宗即位	-11.64
人語	-11.6402
甘草湯	-11.6402
五十三	-11.6404
長江	-11.6405
所重	-11.6406
與民	-11.6406
嘗聞	-11.6407
是亦	-11.6407
然猶	-11.6408
齊魯	-11.6408
潤澤	-11.6409
必是	-11.6411
死亡	-11.6411
介甫	-11.6411
張籍	-11.6411
木也	-11.6411
約之	-11.6413
亭亭	-11.6414
犯法	-11.6414
急痛	-11.6415
不要	-11.6416
險阻	-11.6416
鏃	-11.6417
三七	-11.6418
為尚書	-11.6419
二百五十	-11.6419
十五里	-11.6421
三枚	-11.6421
此說	-11.6422
蘿蔔	-11.6422
師友	-11.6423
有七	-11.6424
致之	-11.6424
忽聞	-11.6425
韓魏	-11.6426
羆	-11.6426
躭	-11.6427
其方	-11.6428
神仙傳	-11.643
四者	-11.643
紙本	-11.6431
某官	-11.6433
始以	-11.6433
方知	-11.6434
淅	-11.6436
舡	-11.6436
天生	-11.6437
太府	-11.6438
以法	-11.6438
熟地黄	-11.6443
非其人	-11.6444
仲夏	-11.6446
砧	-11.6446
譖	-11.6446
道則	-11.6448
時雨	-11.6451
一莖	-11.6452
六五	-11.6453
宿食	-11.6454
永明	-11.6454
熒	-11.6454
方治	-11.6455
同日	-11.6457
不見其	-11.6457
既已	-11.6458
㕔事	-11.646
吾之	-11.646
苕	-11.6463
筝	-11.6465
有遺	-11.6469
非徒	-11.6469
秦州	-11.647
經筵	-11.6471
丨丨兮	-11.6472
尤佳	-11.6474
內	-11.6474
娯	-11.6474
攫	-11.6474
昕	-11.6474
韓詩外傳	-11.6474
豐年	-11.6477
中夜	-11.6479
宋之問	-11.6479
害之	-11.6482
且以	-11.6482
六十日	-11.6482
罽	-11.6483
世稱	-11.6483
水利	-11.6483
六七日	-11.6484
荔支	-11.6486
李靖	-11.6487
虛實	-11.6491
十嵗	-11.6491
本是	-11.6491
乾嘔	-11.6491
比干	-11.6493
蚯蚓	-11.6493
仍用	-11.6494
慎勿	-11.6495
酒炒	-11.6497
惡其	-11.6499
孩	-11.65
如雲	-11.6501
是用	-11.6502
菁	-11.6502
呼曰	-11.6503
愠	-11.6503
以代	-11.6503
武公	-11.6503
三家	-11.6504
次序	-11.6505
之所謂	-11.6506
百斤	-11.6506
寰	-11.651
願得	-11.6511
漁父	-11.6512
巴蜀	-11.6512
閹	-11.6512
各六	-11.6513
出水	-11.6516
免官	-11.6517
自此始	-11.6517
逆行	-11.6518
帝命	-11.6518
禮者	-11.6519
為患	-11.6521
去苖	-11.6523
華隂	-11.6524
化痰	-11.6526
其日	-11.6526
魂魄	-11.6529
物有	-11.6529
一頭	-11.6529
通利	-11.653
兵部尚書	-11.653
䧏	-11.6531
犁	-11.6531
喝	-11.6531
嗟乎	-11.6532
京房	-11.6533
何敢	-11.6534
十八日	-11.6535
與同	-11.6536
登科	-11.6537
不拜	-11.6537
亦佳	-11.6538
乆服	-11.6539
酒調下	-11.654
如是則	-11.654
煜	-11.6541
集韻	-11.6541
行臺	-11.6542
分母	-11.6542
一幅	-11.6542
其末	-11.6543
有汗	-11.6543
此地	-11.6544
文徳	-11.6544
夫以	-11.6544
内經曰	-11.6545
自生	-11.6545
七品	-11.6548
為司空	-11.6548
近時	-11.6549
祼	-11.6551
國家之	-11.6551
雷公	-11.6554
顛倒	-11.6555
開封府	-11.6558
煤	-11.656
襪	-11.656
洛中	-11.6562
開寳	-11.6564
七嵗	-11.6564
同郡	-11.6565
載記	-11.6565
方是	-11.6566
所好	-11.6566
斯文	-11.6569
澡	-11.657
攻其	-11.657
河朔	-11.6571
重於	-11.6571
無情	-11.6572
正如	-11.6573
清熱	-11.6573
五刑	-11.6574
定公	-11.6574
敬宗	-11.6574
録事	-11.6574
今已	-11.6575
之望	-11.6575
生乾地黄	-11.6576
佃	-11.6577
燮	-11.6579
▁小兒	-11.6581
不犯	-11.6583
車騎將軍	-11.6584
笑而	-11.6584
存之	-11.6584
與他	-11.6584
弓弩	-11.6584
人呼為	-11.6585
所受	-11.6588
在北	-11.6589
睫	-11.6589
悵	-11.6592
樞密	-11.6593
靈公	-11.6596
○○	-11.6596
為御史	-11.6596
▁右五味	-11.6598
韓公	-11.6598
乾漆	-11.6598
秋月	-11.66
鬱金	-11.66
時節	-11.6601
氣滯	-11.6604
▁一人	-11.6604
取士	-11.6605
淇	-11.6608
焰	-11.6608
君命	-11.6609
王侯	-11.661
花鳥	-11.6611
林甫	-11.6612
朋黨	-11.6612
下士	-11.6613
一夫	-11.6613
亦用	-11.6613
之殊	-11.6617
則失	-11.6618
以候	-11.6621
而取之	-11.6624
諸病	-11.6625
垂拱	-11.6626
玲瓏	-11.6628
卷二	-11.6628
陳書	-11.663
登山	-11.6633
飱	-11.6634
戰于	-11.6634
之類也	-11.6636
死人	-11.6636
西門	-11.6637
中大夫	-11.6637
瑋	-11.6637
詘	-11.6637
周文	-11.6639
爾雅云	-11.6639
黃帝	-11.6641
龍蛇	-11.6641
太武	-11.6642
蘇轍	-11.6643
復還	-11.6643
可笑	-11.6644
目前	-11.6646
跛	-11.6647
皆謂	-11.6648
明也	-11.6652
為亂	-11.6653
上䟽	-11.6653
吏人	-11.6656
食後服	-11.6657
行禮	-11.6658
補中	-11.6658
養老	-11.6659
十字	-11.6659
生姜	-11.6661
方形	-11.6661
▁本草	-11.6663
生薑三片	-11.6664
不可為	-11.6664
樹木	-11.6665
部落	-11.6665
在心	-11.6666
兠	-11.6666
凑	-11.6666
襃	-11.6666
邪正	-11.667
隋煬帝	-11.667
或為	-11.6671
是理	-11.6671
成人	-11.6671
無限	-11.6673
細而	-11.6673
都城	-11.6674
知己	-11.6675
瑛	-11.6676
廏	-11.6676
黠	-11.6676
每至	-11.6676
海藻	-11.6677
九章	-11.6678
二八	-11.6678
▁牡蠣	-11.668
則不然	-11.6682
身之	-11.6684
成於	-11.6685
羃	-11.6686
則已	-11.6686
看得	-11.6686
安西	-11.6688
又嘗	-11.6689
書院	-11.669
㐮	-11.669
兩脇	-11.6691
所貴	-11.6691
都下	-11.6693
神女	-11.6694
最大	-11.6695
四逆湯	-11.6695
先師	-11.6696
本州	-11.6696
不煩	-11.6697
自外	-11.6697
與衆	-11.6697
丙乙	-11.6697
半年	-11.6698
當與	-11.67
眼目	-11.67
年二月	-11.6702
節制	-11.6703
舉之	-11.6704
絹本	-11.6704
捶	-11.6705
七曰	-11.6707
黜陟	-11.6707
長大	-11.6709
必大	-11.671
孔安國	-11.671
而居	-11.6711
所歸	-11.6712
忱	-11.6715
弱者	-11.6716
治中	-11.6717
澤瀉	-11.6721
麻黄湯	-11.6722
頭眩	-11.6723
▁羚羊角	-11.6724
溷	-11.6725
老父	-11.6726
别錄	-11.6726
夜光	-11.6728
正言	-11.6731
薇	-11.6732
數者	-11.6733
以徳	-11.6734
瓉	-11.6734
丼	-11.6734
澮	-11.6734
頋	-11.6734
元好問	-11.6735
等處	-11.6736
樓臺	-11.6736
地形	-11.6737
故聖人	-11.6737
又似	-11.6739
圓如	-11.6739
為誰	-11.6742
一方無	-11.6742
黒豆	-11.6743
分作	-11.6743
飡	-11.6744
熲	-11.6744
醯	-11.6744
以理	-11.6744
青黛	-11.6745
當自	-11.6746
語録	-11.6747
亦與	-11.6749
出納	-11.675
註曰	-11.675
▁史記	-11.6751
禮官	-11.6753
空虚	-11.6753
心主	-11.6753
稹	-11.6754
烙	-11.6754
矟	-11.6754
明旦	-11.6754
主者	-11.6757
濃煎	-11.676
唐宋	-11.6762
無量	-11.6763
恍	-11.6763
漢文帝	-11.6763
擯	-11.6764
子美	-11.6764
後進	-11.6766
昊	-11.6769
非吾	-11.677
祝融	-11.6771
五嵗	-11.6771
之耳	-11.6772
親之	-11.6773
意欲	-11.6773
僴	-11.6773
溝洫	-11.6774
大衍	-11.6774
丹皮	-11.6775
西園	-11.6776
多言	-11.6776
姑洗	-11.6777
㸃畫	-11.6778
獨坐	-11.6779
上品	-11.678
配天	-11.678
可考	-11.678
大破	-11.6782
紏	-11.6783
舌上	-11.6784
不惑	-11.6784
典禮	-11.6786
七十五	-11.6786
璣	-11.6787
下邳	-11.6789
師之	-11.6791
皆同	-11.6791
南門	-11.6791
火氣	-11.6793
雖在	-11.6793
吞之	-11.6795
六爻	-11.6795
于闐	-11.68
大帝	-11.68
發而	-11.6802
凝滯	-11.6803
云爾	-11.6807
使持節	-11.6807
驚癎	-11.6808
七十里	-11.6808
數劑	-11.6809
丨又	-11.6811
沅	-11.6813
臠	-11.6813
三朝	-11.6815
生冷	-11.6818
未㡬	-11.6819
聲也	-11.682
米醋	-11.6822
叢生	-11.6823
肅然	-11.6823
不忠	-11.6825
學官	-11.6827
北伐	-11.6828
淮陽	-11.6829
其禮	-11.683
蹊	-11.6831
補益	-11.6831
並用	-11.6833
云何	-11.6834
白殭蠶	-11.6835
洗去	-11.6835
有金	-11.6836
二丸	-11.6836
今乃	-11.6837
昨夜	-11.6837
琅	-11.6839
首領	-11.684
其内	-11.6841
李商隱	-11.6842
則傷	-11.6843
明君	-11.6843
欲與	-11.6843
神妙	-11.6843
上皇	-11.6846
為人所	-11.6847
一雙	-11.6847
非特	-11.6847
論者	-11.6848
減半	-11.6848
在京	-11.6849
而輕	-11.685
從來	-11.685
始置	-11.6851
每年	-11.6852
澈	-11.6852
聫	-11.6852
經文	-11.6855
素有	-11.6857
葛洪	-11.6857
州有	-11.6861
鮫	-11.6862
餘慶	-11.6864
鼓琴	-11.6865
大夏	-11.6866
郎君	-11.6867
之問	-11.6868
等藥	-11.687
遂令	-11.687
又非	-11.6871
夬	-11.6872
纊	-11.6872
教民	-11.6873
卷三	-11.6874
五言	-11.6875
皎然	-11.6875
紅色	-11.6876
並無	-11.6878
其音	-11.6878
所感	-11.6878
舉而	-11.6882
西風	-11.6882
鑽	-11.6882
天雨	-11.6883
如舊	-11.6883
鳳翔	-11.6884
大官	-11.6884
琨	-11.6886
人呼	-11.6889
受邪	-11.6891
七言	-11.6891
日華	-11.6891
卷四	-11.6893
法用	-11.6893
郡中	-11.6893
不多	-11.6895
用人	-11.6895
長洲	-11.6896
今見	-11.6897
安南	-11.6898
車前	-11.6899
閭里	-11.69
湫	-11.6902
刳	-11.6902
蒔	-11.6902
亦謂	-11.6902
勤勞	-11.6904
有赤	-11.6906
天門冬	-11.6908
說苑	-11.6909
口徑	-11.6909
揜	-11.6912
湮	-11.6912
倨	-11.6912
懾	-11.6912
褊	-11.6912
其害	-11.6916
如此者	-11.6916
兩耳	-11.6917
詰之	-11.6917
開成	-11.6917
松栢	-11.6919
山陵	-11.692
塡	-11.6922
絺	-11.6922
▁右除	-11.6923
民也	-11.6924
刑獄	-11.6925
本意	-11.6926
春官	-11.6928
河伯	-11.6929
督郵	-11.6929
西海	-11.6931
緬	-11.6931
莞	-11.6932
秦芁	-11.6932
零落	-11.6933
一念	-11.6937
隱居	-11.6939
又能	-11.6939
心者	-11.694
音律	-11.694
江總	-11.6941
眸	-11.6941
蘇軾詩	-11.6942
福州	-11.6943
鳯翔	-11.6943
古方	-11.6945
黄蘖	-11.6948
川澤	-11.6948
十丸空心	-11.6948
梁武	-11.695
顙	-11.6951
水精	-11.6951
磯	-11.6951
暠	-11.6951
不雨	-11.6955
之興	-11.6956
九竅	-11.6957
傷脾	-11.6959
今日之	-11.6959
已發	-11.696
伯玉	-11.6961
蔓荆子	-11.6961
郁李仁	-11.6961
帝問	-11.6963
守令	-11.6964
飛燕	-11.6964
無辜	-11.6964
汗下	-11.6964
年八月	-11.6965
四十一	-11.6968
湜	-11.6969
安之	-11.6969
穴中	-11.697
衿	-11.6971
趍	-11.6971
而失	-11.6973
顔延之	-11.6973
聲聞	-11.6976
▁唐書	-11.6976
▁桑白皮	-11.6976
食不	-11.6978
菘	-11.698
麞	-11.6981
其失	-11.6982
時行	-11.6982
乃謂	-11.6983
一秒	-11.6984
萬頃	-11.6984
可勝	-11.6987
地勢	-11.6988
書名	-11.6989
唐之	-11.699
誑	-11.6991
桂林	-11.6993
其業	-11.6994
大成	-11.6994
愛民	-11.6994
士民	-11.6995
縣人	-11.6996
帝乃	-11.6996
立廟	-11.6996
軻	-11.6997
習之	-11.6998
彈琴	-11.6998
方積	-11.6999
文靖	-11.7001
嗤	-11.7001
收斂	-11.7003
者取	-11.7004
易也	-11.7006
欲作	-11.7007
五卷	-11.7008
外感	-11.7009
中孚	-11.701
霓	-11.7011
▁王欽若等	-11.7012
是矣	-11.7018
四卷	-11.7021
西有	-11.7021
仿	-11.7021
摛	-11.7022
棒	-11.7022
斯人	-11.7022
但知	-11.7022
其初	-11.7023
於理	-11.7024
▁南史	-11.7024
洛書	-11.7024
此處	-11.7027
大㦸	-11.7027
二十一年	-11.7029
輭	-11.7032
洵	-11.7032
上見	-11.7032
邑人	-11.7032
二十萬	-11.7032
布政	-11.7033
蘇頲	-11.7033
景祐	-11.7034
不類	-11.7034
外邪	-11.7037
一兩去	-11.7039
音樂	-11.7041
之尊	-11.7041
豺	-11.7041
若因	-11.7041
騾	-11.7042
定其	-11.7043
人不知	-11.7043
百嵗	-11.7045
即出	-11.7046
卷第	-11.7048
者今	-11.7048
寡君	-11.7049
青白	-11.705
十二分	-11.7051
太嵗	-11.7051
种	-11.7052
紬	-11.7052
李廣	-11.7054
皆屬	-11.7056
耳中	-11.7056
不能得	-11.7057
盛而	-11.7058
薑棗	-11.7059
其死	-11.706
之側	-11.706
出焉	-11.706
櫻	-11.7061
四足	-11.7062
南風	-11.7062
於事	-11.7062
長卿	-11.7063
形狀	-11.7064
自然之	-11.7064
彭祖	-11.7065
秘閣	-11.7066
保其	-11.7066
得無	-11.7069
與兄	-11.707
取一	-11.7071
▁人之	-11.7072
立而	-11.7072
瀕	-11.7072
難也	-11.7072
衇浮	-11.7074
我心	-11.7075
落日	-11.7075
不然則	-11.7076
公家	-11.7077
因得	-11.7077
金木	-11.7078
若欲	-11.7079
言行	-11.7079
▁白礬	-11.708
琅玕	-11.7082
裨	-11.7082
壟	-11.7082
淤	-11.7082
顔真卿	-11.7083
初出	-11.7084
▁郗萌曰	-11.7084
亦在	-11.7085
知是	-11.7085
晉公	-11.7087
之始也	-11.7088
尊者	-11.7089
傳論	-11.7089
米泔	-11.7089
李白詩	-11.709
異姓	-11.7091
諸賢	-11.7092
江表	-11.7092
見聞	-11.7092
流離	-11.7093
政令	-11.7096
季夏	-11.7099
于外	-11.7101
帥師	-11.7101
大㑹	-11.7102
先朝	-11.7102
窈窕	-11.7102
絢	-11.7102
生長	-11.7104
逖	-11.7105
室之	-11.7105
下文	-11.7105
人之心	-11.7106
天神	-11.7109
小人之	-11.7111
音義	-11.7111
伐木	-11.7112
惆悵	-11.7112
成湯	-11.7114
臺閣	-11.7115
束帛	-11.7119
喜曰	-11.7119
入宫	-11.712
發黄	-11.712
楊梅	-11.7122
意者	-11.7122
毆	-11.7122
輓	-11.7122
甚大	-11.7123
雲間	-11.7124
忠恕	-11.7125
定州	-11.7125
見于	-11.7126
季秋	-11.7128
水煮	-11.7128
平公	-11.7128
玉山	-11.7131
宕	-11.7133
塚	-11.7133
選舉	-11.7133
予嘗	-11.7134
漢初	-11.7135
擇其	-11.7135
便自	-11.7136
知州	-11.7137
可見矣	-11.7138
▁胃	-11.7141
齊之	-11.7143
延壽	-11.7143
題曰	-11.7145
是如此	-11.7146
終不能	-11.7148
賢才	-11.7149
胡人	-11.7149
小便赤	-11.715
毫釐	-11.715
研各	-11.7153
禺	-11.7153
霏	-11.7153
乃遣	-11.7153
中官	-11.7154
乃取	-11.7154
堯舜之	-11.7155
客於	-11.7157
有似	-11.7158
之辨	-11.7162
庾肩吾	-11.7163
魔	-11.7163
駑	-11.7165
大海	-11.7165
其生	-11.7165
性善	-11.7166
諸經	-11.7166
天下之大	-11.7167
行軍	-11.7169
於王	-11.7172
清白	-11.7172
至夜	-11.7172
搶	-11.7173
亦復	-11.7175
元宗	-11.7179
曰宋	-11.7181
為衣	-11.7183
已定	-11.7183
立夏	-11.7184
彷彿	-11.7184
氣化	-11.7184
安得不	-11.7186
陽明病	-11.7186
於家	-11.7186
甲乙丙丁	-11.7186
筋脉	-11.7188
舜之	-11.7188
建隆	-11.7189
泚	-11.7191
笑之	-11.7191
知縣	-11.7191
▁車前子	-11.7191
賦序	-11.7193
左氏傳	-11.7193
水榖	-11.7193
多士	-11.7194
欵識云	-11.7194
報之	-11.7194
山上有	-11.7196
加人參	-11.7196
閏月	-11.7196
二經	-11.7198
藜蘆	-11.7198
云我	-11.7198
有云	-11.7199
倐	-11.72
出肘	-11.72
萬邦	-11.72
諶	-11.7201
淮南王	-11.7201
兩京	-11.7203
不能制	-11.7205
勞苦	-11.7207
五十二	-11.7207
賢而	-11.7207
▁右剉散	-11.7208
律吕	-11.721
園中	-11.7211
之域	-11.7212
聖濟	-11.7213
逆旅	-11.7214
𣲖	-11.7214
天元	-11.7214
三章	-11.7215
别為	-11.7216
香爐	-11.7217
亦難	-11.7217
千乗	-11.722
或以為	-11.7221
建平	-11.7222
凄	-11.7222
之靈	-11.7223
闋	-11.7224
百户	-11.7225
年八十	-11.7226
博物	-11.7228
仕宦	-11.7234
韻詩	-11.7235
百物	-11.7235
壠	-11.7235
柳宗元	-11.7235
曰聞	-11.7235
日蝕	-11.7235
相持	-11.7235
其私	-11.7237
樞宻院	-11.7237
鼻衂	-11.7239
相率	-11.724
害也	-11.724
歸于	-11.724
之所由	-11.7241
六腑	-11.7242
自利	-11.7242
率兵	-11.7243
囷	-11.7244
貞觀中	-11.7244
然此	-11.7245
坼	-11.7245
想見	-11.7247
字君	-11.7248
以資	-11.7248
賈逵	-11.7248
爾雅曰	-11.725
消渇	-11.7251
千六百	-11.7252
永徽	-11.7252
毎日	-11.7252
且夫	-11.7253
洞天	-11.7255
燿	-11.7255
趙孟頫	-11.7257
觀於	-11.7257
二里	-11.7258
一女	-11.7259
有客	-11.7261
崇文	-11.7261
相摶	-11.7262
▁治姙娠	-11.7263
堂堂	-11.7264
門前	-11.7264
小便利	-11.7265
蘇氏	-11.7266
自安	-11.7266
水墨	-11.7267
九成	-11.727
中常侍	-11.7271
大亂	-11.7271
皆言	-11.7271
輿服志	-11.7272
民者	-11.7272
必自	-11.7273
紫金	-11.7273
豈惟	-11.7275
▁千金方	-11.7275
所主	-11.7275
不辨	-11.7276
度數	-11.7277
交通	-11.7277
六二	-11.7278
戰國策	-11.7278
一次	-11.7279
盜汗	-11.7279
李紳	-11.7279
以木	-11.728
楊栁	-11.7283
上生	-11.7285
漢髙祖	-11.7285
漢人	-11.7285
制作	-11.7285
▁鼈甲	-11.7286
年四月	-11.7288
國也	-11.7288
中秋	-11.7291
韓魏公	-11.7291
武成	-11.7293
晉國	-11.7293
後果	-11.7294
▁右搗篩	-11.7295
▁以上	-11.7296
緻	-11.7296
皋	-11.7296
和中	-11.7297
茫茫	-11.7297
卷一	-11.7297
噤	-11.7298
時已	-11.7301
王叔	-11.7302
百疋	-11.7302
智伯	-11.7303
不給	-11.7303
予曰	-11.7304
韓詩	-11.7305
灸三壯	-11.7305
皮肉	-11.7305
北郊	-11.7306
春生	-11.7306
得二	-11.7306
襯	-11.7307
筴	-11.7307
覊	-11.7307
者少	-11.7309
不可與	-11.731
師子	-11.7311
執法	-11.7311
作渴	-11.7312
斷其	-11.7312
▁發明	-11.7315
禁止	-11.7316
即有	-11.7318
曰諾	-11.7318
一經	-11.7319
理則	-11.7319
華亭	-11.7319
曰可	-11.7321
所以然者	-11.7324
搗碎	-11.7324
雖曰	-11.7325
曰余	-11.7326
太甲	-11.7326
八十四	-11.7326
抜	-11.7328
筌	-11.7328
三禮	-11.7328
湯加	-11.7329
令曰	-11.733
付之	-11.733
祭天	-11.7332
漢志	-11.7334
善政	-11.7334
之親	-11.7334
為重	-11.7335
風塵	-11.7336
其肉	-11.7337
厓	-11.7338
分秒	-11.7343
其長	-11.7343
五字	-11.7343
子良	-11.7347
假如	-11.7348
形勝	-11.7348
吳中	-11.7349
大要	-11.7349
四逆	-11.735
四六	-11.7351
康王	-11.7352
皆以為	-11.7353
太微	-11.7353
晉武帝	-11.7353
百四十	-11.7356
經書	-11.736
一婦人	-11.7362
結子	-11.7363
萱	-11.7363
難於	-11.7364
流俗	-11.7365
於義	-11.7366
異常	-11.7366
源流	-11.7366
井水	-11.7367
湯浸去	-11.7367
乃去	-11.7368
銅器	-11.737
諸軍事	-11.7371
都指揮使	-11.7373
懐素	-11.7373
萬餘人	-11.7374
始為	-11.7375
局方	-11.7376
毎服一錢	-11.7378
北苑	-11.7379
為太尉	-11.7379
奏議	-11.7379
􁁜	-11.7379
癥瘕	-11.738
自來	-11.738
民心	-11.7382
宋璟	-11.7384
隋文帝	-11.7386
出一	-11.7386
人性	-11.7388
安平	-11.7389
罌	-11.739
汲黯	-11.7391
不虞	-11.7391
四川	-11.7392
氣虛	-11.7392
蘭臺	-11.7393
流而	-11.7393
其變	-11.7393
勿使	-11.7394
二百里	-11.7395
六帖	-11.7396
上官	-11.7397
古有	-11.7398
足少隂	-11.7398
縻	-11.74
漢儒	-11.74
也或曰	-11.7404
奏聞	-11.7404
獄訟	-11.7405
示人	-11.7408
天地之間	-11.7409
太𤣥	-11.741
每月	-11.7411
瞰	-11.7411
伋	-11.7411
傳初	-11.7414
凡四	-11.7415
北齊書	-11.7415
此豈	-11.7417
九族	-11.7417
蜜丸	-11.7419
漁陽	-11.742
澧	-11.7421
渭水	-11.7422
▁姚	-11.7423
竹木	-11.7424
鉅鹿	-11.7424
專以	-11.7424
防禦	-11.7427
數四	-11.7428
膂	-11.7428
唐史	-11.7428
綈	-11.7432
收其	-11.7432
解散	-11.7433
者莫	-11.7434
辰巳	-11.7435
俱為	-11.7436
閤門	-11.7436
隋唐	-11.7439
事上	-11.7439
因言	-11.744
海外	-11.7441
碧玉	-11.7442
桴	-11.7442
同類	-11.7443
子京	-11.7444
所食	-11.7446
音聲	-11.7448
記之	-11.745
求諸	-11.7454
此條	-11.7455
魏徴	-11.7458
蓯蓉	-11.7459
陶𢎞景	-11.746
竽	-11.746
復來	-11.7461
曰天下	-11.7461
足少陽	-11.7462
戶	-11.7463
諜	-11.7463
朝鮮	-11.7463
漢家	-11.7464
即差	-11.7464
温水	-11.7467
制也	-11.7468
年十五	-11.7471
不寐	-11.7472
撿	-11.7474
白雪	-11.7474
異物志	-11.7474
景仁	-11.7474
祖母	-11.7474
石斛	-11.7476
▁後周	-11.7476
簡子	-11.7477
百五十	-11.7478
漢時	-11.748
疑是	-11.748
大師	-11.7481
予之	-11.7482
朝日	-11.7485
小便不通	-11.7487
者悉	-11.7488
必至	-11.7488
永和	-11.7488
而猶	-11.7489
物皆	-11.7489
全無	-11.749
三皇	-11.749
失道	-11.749
之廟	-11.749
天下之事	-11.749
執之	-11.7491
惡也	-11.7491
不可以不	-11.7493
内閣	-11.7493
仲秋	-11.7495
復作	-11.7495
宋元	-11.7497
法者	-11.7498
白虎湯	-11.7499
同居	-11.75
闕下	-11.75
庾亮	-11.7502
天徳	-11.7503
端午	-11.7503
所説	-11.7504
子由	-11.7504
顱	-11.7505
九十六	-11.7506
不拘多少	-11.7506
乘馬	-11.7507
每見	-11.7509
相同	-11.751
也既	-11.751
江北	-11.7511
炯	-11.7512
不亂	-11.7512
田家	-11.7512
縣界	-11.7513
月朔	-11.7514
王融	-11.7514
和匀	-11.7514
優游	-11.7515
㓗	-11.7516
▁滓	-11.7516
天南星	-11.7516
甚佳	-11.7517
傳丨丨	-11.7517
顯宗	-11.7518
▁大棗	-11.7519
此論	-11.7519
肝膽	-11.752
職官	-11.7521
一握	-11.7522
所撰	-11.7522
補腎	-11.7526
國子祭酒	-11.7527
煮取一升	-11.7527
以全	-11.7528
友善	-11.7528
京邑	-11.7529
乃成	-11.753
浙東	-11.753
朱衣	-11.7531
不設	-11.7532
將何	-11.7534
曾孫	-11.7534
▁肉桂	-11.7535
秋夜	-11.7536
岌	-11.7537
命門	-11.7537
曰丨	-11.754
不謹	-11.754
▁蘇軾	-11.7541
春草	-11.7541
農事	-11.7542
方寸匕	-11.7543
乎故	-11.7546
西至	-11.7549
康熙	-11.755
蒼生	-11.755
開平	-11.7551
無二	-11.7554
三斤	-11.7554
崩中	-11.7555
皆有之	-11.7555
未始	-11.7556
夏后氏	-11.7556
困於	-11.7557
潑	-11.7558
遘	-11.7558
著述	-11.7558
先公	-11.7559
脇痛	-11.7561
延之	-11.7562
是之謂	-11.7564
目為	-11.7565
無失	-11.7566
略曰	-11.7567
鄭人	-11.7567
呷	-11.7569
澤蘭	-11.7571
堯夫	-11.7571
口苦	-11.7572
客有	-11.7574
林邑	-11.7575
宛然	-11.7575
青黄	-11.7575
共工	-11.7575
山圖	-11.7576
輿地	-11.7576
國事	-11.7577
留心	-11.7578
災異	-11.7579
睢陽	-11.7581
川谷	-11.7582
可喜	-11.7582
年二十	-11.7582
經畧	-11.7583
中書省	-11.7583
韓文	-11.7583
往来	-11.7584
吳茱萸	-11.7585
酒洗	-11.7585
一根	-11.7586
瀑	-11.7587
惠公	-11.7587
所屬	-11.7589
兀	-11.7589
淒	-11.759
肄	-11.759
本體	-11.7591
以減	-11.7592
天馬	-11.7594
不交	-11.7595
但當	-11.7596
所親	-11.7597
丙戊	-11.7598
耆老	-11.7598
椹	-11.7598
之可也	-11.7598
木星	-11.7599
然如	-11.76
而治	-11.7601
天心	-11.7602
雲山	-11.7602
所推	-11.7604
親見	-11.7606
不悟	-11.7608
之功也	-11.7608
耜	-11.7611
去矣	-11.7613
承氣	-11.7613
之材	-11.7614
然非	-11.7615
有益	-11.7615
掘地	-11.7616
子昻	-11.7617
盛時	-11.7617
洮	-11.7618
任其	-11.7619
言無	-11.7619
五世	-11.7621
陽太守	-11.7621
沈佺期	-11.7622
憩	-11.7622
縉紳	-11.7622
九三	-11.7625
即時	-11.7626
癲	-11.7627
乃召	-11.7627
小民	-11.7628
笳	-11.763
不住	-11.763
可矣	-11.763
佐之	-11.7631
放之	-11.7632
縣屬	-11.7632
縉	-11.7632
茵陳	-11.7633
然後能	-11.7634
文理	-11.7634
太牢	-11.7635
一千二百	-11.7635
之險	-11.7635
也君	-11.764
而南	-11.764
深淺	-11.7641
酒泉	-11.7641
病則	-11.7642
賽	-11.7643
箏	-11.7643
淳于	-11.7644
將死	-11.7644
㑹昌	-11.7645
郭子儀	-11.7646
釀酒	-11.7646
各有差	-11.7646
輔國	-11.7646
君子不	-11.7648
▁白附子	-11.7654
輔之	-11.7655
又無	-11.7655
勿食	-11.7655
即瘥	-11.7659
少子	-11.7659
無物	-11.766
絶無	-11.766
暇日	-11.7663
一位	-11.7663
鄉黨	-11.7663
不務	-11.7665
昭明	-11.7668
動作	-11.7672
閩中	-11.7673
語也	-11.7673
其為人	-11.7673
山堂肆考	-11.7675
蹋	-11.7675
炤	-11.7675
有鳥	-11.7677
大厯	-11.7679
所執	-11.768
雜俎	-11.768
作小	-11.7682
京都	-11.7682
日至	-11.7683
雪詩	-11.7683
異物	-11.7684
責其	-11.7685
於其間	-11.7685
鴈門	-11.7685
嘘	-11.7686
鯤	-11.7686
凌雲	-11.7686
▁術曰	-11.7686
欲去	-11.7687
每有	-11.7689
句云	-11.7691
澤中	-11.7693
臣禹錫等謹按	-11.7697
六一	-11.7698
十一秒	-11.7698
意在	-11.7698
有序	-11.7699
川升麻	-11.77
小雅	-11.7701
惟此	-11.7701
不可謂	-11.7701
同而	-11.7702
失色	-11.7702
在官	-11.7703
鯁	-11.7704
米飲調下	-11.7704
二十五年	-11.7707
嶂	-11.7707
熟乾地黄	-11.7708
廵狩	-11.7709
問何	-11.7714
不屈	-11.7714
小異	-11.7715
相親	-11.7717
鉦	-11.7718
敇	-11.7718
05	-11.7718
三元	-11.7719
辭以	-11.7719
百花	-11.772
肉豆蔲	-11.7722
▁袁	-11.7722
上聞	-11.7722
變成	-11.7723
蒲黄	-11.7724
榮衞	-11.7724
爵禄	-11.7726
或在	-11.7726
禋	-11.7727
諸山	-11.7727
吾將	-11.7728
殉	-11.7729
讞	-11.7729
都御史	-11.7732
安民	-11.7732
方干	-11.7733
儋	-11.7733
也豈	-11.7734
死後	-11.7735
七壯	-11.7736
▁牡丹皮	-11.7736
盧綸	-11.7736
成文	-11.7737
豢	-11.774
祓	-11.774
藝文類聚	-11.774
元康	-11.774
古今注	-11.7741
炭火	-11.7742
中州	-11.7742
已前	-11.7743
備急	-11.7744
入見	-11.7747
許渾	-11.7747
補脾	-11.7748
墨林	-11.7749
東郡	-11.7749
部尚書	-11.775
李林甫	-11.775
峩	-11.775
嚙	-11.7751
地黃	-11.7752
之誠	-11.7754
目中	-11.7756
胡黄連	-11.7757
伐齊	-11.7758
▁黑	-11.7759
▁龍腦	-11.776
咽乾	-11.776
連理	-11.7761
癉	-11.7761
不擇	-11.7761
赤子	-11.7762
▁烏頭	-11.7763
三年正月	-11.7763
當從	-11.7764
荀卿	-11.7767
引之	-11.7767
赤石脂	-11.7769
推其	-11.7772
隼	-11.7772
不輟	-11.7773
水穀	-11.7773
固非	-11.7774
兩足	-11.7775
始見	-11.7776
而不見	-11.7777
周流	-11.7778
壅塞	-11.7782
剰	-11.7783
侑	-11.7783
中書舎人	-11.7785
折半	-11.7787
午後	-11.7788
藏書	-11.7788
筆勢	-11.7788
一十八	-11.7789
假借	-11.779
單衣	-11.7791
夷簡	-11.7791
其皮	-11.7793
兵士	-11.7793
柞	-11.7794
善則	-11.7795
者佳	-11.7798
與李	-11.7799
不勝其	-11.7799
而益	-11.78
老夫	-11.78
兼治	-11.7804
雖復	-11.7806
勞倦	-11.7807
夜則	-11.7807
改作	-11.781
▁淮南子曰	-11.7813
魯直	-11.7814
蚘	-11.7814
大節	-11.7815
猶是	-11.7815
去土	-11.7816
纛	-11.7816
蛀	-11.7816
霤	-11.7816
虞集	-11.7816
中立	-11.7817
其端	-11.7817
開口	-11.7817
我我	-11.7818
身上	-11.7818
怪之	-11.7818
八味丸	-11.7822
為郡	-11.7822
㡬何	-11.7822
花木	-11.7823
少昊	-11.7823
尤多	-11.7824
民病	-11.7825
兩人	-11.7826
腸風	-11.7826
陬	-11.7827
人共	-11.7828
痞滿	-11.7829
書史	-11.7829
恐非	-11.783
精於	-11.783
▁右剉	-11.7832
朝陽	-11.7834
戎狄	-11.7835
篇云	-11.7835
四門	-11.7836
淮隂	-11.7836
紫花	-11.7837
鮪	-11.7837
每服一	-11.7838
字彦	-11.7838
然後可以	-11.7838
亂也	-11.7839
所立	-11.7839
其官	-11.7839
漢制	-11.784
濕氣	-11.784
四瀆	-11.784
馮翊	-11.7841
思量	-11.7842
中指	-11.7843
温中	-11.7843
距地	-11.7844
之微	-11.7844
經水	-11.7845
辣	-11.7845
執中	-11.7846
翰林院	-11.7848
三率	-11.7848
㤀	-11.7848
甯	-11.7848
銑	-11.7848
秦艽	-11.7849
百川	-11.7849
余曰	-11.785
起而	-11.785
之例	-11.7852
樓詩	-11.7854
燥濕	-11.7855
孔孟	-11.7855
社稷之	-11.7856
每服一丸	-11.7857
十全大補湯	-11.7857
兒童	-11.7858
鴆	-11.7859
無患	-11.786
舊章	-11.7862
絶其	-11.7862
江中	-11.7862
以教	-11.7862
孝悌	-11.7863
蓋以	-11.7863
陶潛	-11.7863
求賢	-11.7863
房中	-11.7865
諡曰	-11.7866
北平	-11.7866
黥	-11.7867
不等	-11.7869
藏府	-11.7869
之辰	-11.7869
媵	-11.787
七丸	-11.7872
空心食前	-11.7873
大腹	-11.7874
亡者	-11.7874
雖小	-11.7876
良薑	-11.7878
雨水	-11.7879
易得	-11.7879
武都	-11.7879
白帝	-11.7879
▁𤣥參	-11.788
消長	-11.788
陽盛	-11.7881
挼	-11.7881
清凉	-11.7881
托裏	-11.7882
彗	-11.7883
要在	-11.7883
臨朝	-11.7884
自己	-11.7885
石菖蒲	-11.7886
箋本	-11.7887
易以	-11.7888
一十五	-11.7888
者耶	-11.7888
甘菊花	-11.789
阿魏	-11.7891
所養	-11.7891
䙝	-11.7892
聖人之道	-11.7894
平時	-11.7895
修治	-11.7896
效之	-11.7897
復出	-11.7898
工部尚書	-11.7898
無怨	-11.7899
御前	-11.79
倦怠	-11.79
其黨	-11.7902
堅硬	-11.7902
異而	-11.7902
言訖	-11.7903
堕	-11.7903
何首烏	-11.7903
六甲	-11.7904
五枚	-11.7905
典籍	-11.7905
煉蜜和	-11.7906
石壁	-11.7906
亡矣	-11.7906
次年	-11.7906
閣下	-11.7906
先賢	-11.7907
天福	-11.7909
其流	-11.791
苑中	-11.791
地龍	-11.7911
廢帝	-11.7911
夫妻	-11.7911
而心	-11.7912
賜金	-11.7913
亦嘗	-11.7914
遣之	-11.7915
集序	-11.7916
相為	-11.7916
氣散	-11.792
弟也	-11.7921
家事	-11.7922
所引	-11.7923
澤㵼	-11.7923
同一	-11.7924
當日	-11.7924
天寒	-11.7924
▁陳橘皮	-11.7924
出汗	-11.7925
黄初	-11.7925
在手	-11.7925
漱	-11.7925
鑊	-11.7925
六府	-11.7925
貉	-11.7925
和而	-11.7926
東壁	-11.7927
山頂	-11.7929
極則	-11.793
邵子	-11.7933
更服	-11.7934
於彼	-11.7936
孜	-11.7936
罐	-11.7936
羊祜	-11.7939
痛甚	-11.7939
於南	-11.7939
韓王	-11.794
市人	-11.794
瓷	-11.794
樂志	-11.794
皆稱	-11.7941
雌黄	-11.7943
至死	-11.7944
遼史	-11.7944
如泥	-11.7946
獻子	-11.7947
鴛	-11.7947
閘	-11.7947
𧰼	-11.7947
衛氣	-11.7947
而不言	-11.795
荆楚	-11.795
有節	-11.795
天地萬物	-11.7951
上下相	-11.7953
以為然	-11.7954
上疏曰	-11.7954
加附子	-11.7954
之祖	-11.7955
年十二月	-11.7957
管子曰	-11.7957
文獻	-11.7958
日夕	-11.7958
潯陽	-11.7959
中節	-11.796
俄頃	-11.7962
言此	-11.7964
三辰	-11.7965
羯	-11.7967
女為	-11.7968
不省	-11.7968
大綱	-11.7968
進曰	-11.7968
𧖟	-11.7969
也予	-11.7969
吞下	-11.7971
殷勤	-11.7971
其狀如	-11.7973
妄言	-11.7974
屬陽	-11.7975
其室	-11.7977
莫有	-11.7979
艇	-11.798
蠢	-11.798
塋	-11.798
日華子云	-11.798
曰晉	-11.7981
立身	-11.7981
冢宰	-11.7981
肺金	-11.7981
頡	-11.7982
為寒	-11.7985
以苦	-11.7985
菓	-11.7986
岐伯曰	-11.7986
坐客	-11.7987
努	-11.7987
炎帝	-11.7988
山濤	-11.7988
其學	-11.799
腎經	-11.799
蒲萄	-11.7991
滄浪	-11.7992
而化	-11.7993
之正弦	-11.7996
四十年	-11.7998
天后	-11.7998
法則	-11.7998
痛或	-11.8002
趂	-11.8002
咒	-11.8002
王后	-11.8004
立成	-11.8004
盗汗	-11.8005
下獄	-11.8005
東有	-11.8006
▁赤石脂	-11.8006
俗謂之	-11.8007
其名曰	-11.8009
國無	-11.8009
賀孫	-11.801
當得	-11.8011
和帝	-11.8011
不遷	-11.8013
。	-11.8013
臑	-11.8013
腊	-11.8013
上清	-11.8014
成形	-11.8014
而得之	-11.8016
家法	-11.8017
用白	-11.8017
水道	-11.802
應對	-11.8021
天下事	-11.8023
王王	-11.8023
尤善	-11.8024
隲	-11.8024
汭	-11.8024
譛	-11.8024
山北	-11.8025
勝也	-11.8025
即成	-11.8029
細嚼	-11.803
失所	-11.8031
無逸	-11.8031
美之	-11.8032
其夫	-11.8032
恒山	-11.8033
河上	-11.8033
四子	-11.8034
貫休	-11.8035
𢎞治	-11.8035
樟	-11.8036
老而	-11.8036
莫知所	-11.8036
槐花	-11.8037
性好	-11.8039
一紙	-11.8043
朝堂	-11.8044
車輪	-11.8045
雖是	-11.8046
詩文	-11.8047
五加皮	-11.8047
手書	-11.8047
各二錢	-11.8048
故稱	-11.805
加於	-11.8051
都無	-11.8051
及於	-11.8056
公孫𢎞	-11.8057
涖	-11.8058
豊	-11.8058
堯之	-11.8058
之祭	-11.8059
和丸	-11.806
咸池	-11.8061
外臺	-11.8062
本草云	-11.8062
黍米	-11.8064
大火	-11.8065
李元	-11.8067
必致	-11.8068
白虎通	-11.8068
邯	-11.8069
12	-11.8069
松雪	-11.8069
左右曰	-11.8069
安有	-11.8069
又復	-11.8071
異乎	-11.8073
相識	-11.8074
法帖	-11.8075
新城	-11.8075
大家	-11.8075
文宣	-11.8076
道義	-11.8078
凡事	-11.8078
顧問	-11.808
耄	-11.808
膊	-11.808
蚕	-11.808
諫議	-11.8081
祛	-11.8082
順之	-11.8083
張仲	-11.8083
各隨	-11.8084
茅山	-11.8084
如飛	-11.8084
臨池	-11.8085
二品	-11.8086
一統志	-11.8088
腫滿	-11.809
各得	-11.8092
璽書	-11.8092
一件	-11.8095
切説文	-11.8098
感動	-11.8099
相感	-11.8099
百數	-11.81
燒存性	-11.81
續漢書	-11.8101
洙	-11.8102
玷	-11.8103
暘	-11.8103
▁戴	-11.8103
亡國	-11.8104
尉遲	-11.8104
較之	-11.8108
也然而	-11.8109
以遺	-11.811
存心	-11.8111
到此	-11.8111
于地	-11.8112
中得	-11.8113
魏氏	-11.8113
竹林	-11.8114
玳瑁	-11.8114
疾苦	-11.8115
長公主	-11.8116
三昧	-11.8117
羣書	-11.8117
地官	-11.8118
測曰	-11.8119
扁舟	-11.8119
白芍	-11.812
拘攣	-11.8121
者良	-11.8121
丸如梧子大	-11.8122
之務	-11.8122
而變	-11.8122
豫州刺史	-11.8123
合歡	-11.8124
不負	-11.8124
籜	-11.8125
驪山	-11.8125
行狀	-11.8127
儒生	-11.8127
今古	-11.8128
方伯	-11.8128
入胃	-11.8128
切集韻	-11.8128
地榆	-11.813
九四	-11.813
▁晉書曰	-11.8134
址	-11.8136
妣	-11.8136
未為	-11.8136
司冦	-11.8137
乘輿	-11.8137
▁梅	-11.8138
状如	-11.8138
離離	-11.8138
不勞	-11.8139
肺痿	-11.8139
一千五百	-11.814
不憂	-11.8141
世世	-11.8143
大年	-11.8143
流通	-11.8145
賈島	-11.8145
交於	-11.8146
朝官	-11.8146
土為	-11.8146
錢起	-11.8147
則心	-11.8147
只得	-11.8147
幂	-11.8147
缸	-11.8147
帝堯	-11.8148
百壯	-11.8148
元章	-11.8155
上問	-11.8156
歸家	-11.8157
泔	-11.8157
孟夏	-11.8157
气	-11.8159
▁貝母	-11.8159
賛曰	-11.8159
入蜀	-11.816
天下之人	-11.8161
朝議	-11.8161
臍腹	-11.8163
不得眠	-11.8163
大暑	-11.8164
最後	-11.8165
附於	-11.8165
全數	-11.8168
王者之	-11.8168
為業	-11.8168
為三率	-11.8168
有兵	-11.8169
款識云	-11.817
屛	-11.817
玦	-11.817
丁乙	-11.817
書史㑹要	-11.817
興元	-11.817
幽人	-11.817
禰	-11.817
趺	-11.8171
月水	-11.8171
這裏	-11.8171
聲如	-11.8172
鱉	-11.8173
西征	-11.8173
色紫	-11.8173
百神	-11.8173
諺云	-11.8174
煮取二升	-11.8175
損傷	-11.8176
敗之	-11.8178
斷之	-11.8178
異時	-11.8178
水出焉	-11.8179
樞宻使	-11.8179
曰予	-11.818
琇	-11.8181
謠	-11.8181
飲冷	-11.8182
已久	-11.8182
田獵	-11.8183
元載	-11.8185
固無	-11.819
讝語	-11.8193
引見	-11.8193
各置	-11.8194
之府	-11.8194
部曲	-11.8194
▁馮	-11.8195
程氏	-11.8195
成也	-11.8197
漏下	-11.82
公田	-11.82
孰與	-11.8201
南征	-11.8203
週	-11.8204
瀨	-11.8204
地道	-11.8205
冠冕	-11.8205
帝嚳	-11.8208
只管	-11.8209
以配	-11.8209
龍朔	-11.821
非時	-11.8211
固當	-11.8212
徭	-11.8214
而不用	-11.8214
咄	-11.8215
吐谷渾	-11.8215
升堂	-11.8216
居於	-11.8218
其花	-11.8218
缺盆	-11.8221
煩燥	-11.8222
霖雨	-11.8223
無言	-11.8223
任意	-11.8223
以鐵	-11.8224
折衝	-11.8224
長幼	-11.8224
平原君	-11.8225
獨有	-11.8225
之宗	-11.8226
竹石	-11.8227
恐是	-11.8227
自行	-11.8227
之飾	-11.8227
煎至七分去滓	-11.8228
㑹于	-11.8228
▁加味	-11.8229
而喘	-11.823
楨	-11.8231
臨淮	-11.8233
萬騎	-11.8233
紵	-11.8235
西銘	-11.8235
死則	-11.8235
譟	-11.8238
阨	-11.8238
厥陰	-11.8238
卷五	-11.8239
具以	-11.8241
京官	-11.8241
月下	-11.8241
務在	-11.8242
樂毅	-11.8243
背上	-11.8243
自成	-11.8245
▁十六	-11.8247
總錄	-11.8247
腫毒	-11.8247
悰	-11.8249
也从	-11.825
敷之	-11.8253
軍民	-11.8254
大指	-11.8254
古木	-11.8255
制置	-11.8255
左思	-11.8257
今後	-11.8258
騖	-11.8259
相屬	-11.826
藺	-11.826
方論	-11.826
王右軍	-11.8261
二十三年	-11.8262
風痰	-11.8262
▁下詳	-11.8263
築城	-11.8266
之言也	-11.8266
候之	-11.8267
蹻	-11.8268
小臣	-11.8268
蒼龍	-11.8268
火上	-11.8269
而罷	-11.8271
h	-11.8272
撾	-11.8272
▁普濟方	-11.8272
以下皆	-11.8273
其血	-11.8275
山查	-11.8276
弱而	-11.8277
渾天	-11.8278
乆而	-11.8278
潤州	-11.8279
累日	-11.828
石崇	-11.828
侍者	-11.8281
年號	-11.8281
者甚衆	-11.8282
再入	-11.8282
出奔	-11.8282
繫辭	-11.8282
而就	-11.8282
4	-11.8283
䄂	-11.8283
鈕	-11.8283
胙	-11.8283
東郭	-11.8284
貧民	-11.8285
列國	-11.8285
成子	-11.8287
上衝	-11.8288
面上	-11.8288
晉宋	-11.8288
安車	-11.8289
七度	-11.8289
墅	-11.8289
諺	-11.8291
仰天	-11.8293
血脈	-11.8294
不得入	-11.8294
老翁	-11.8294
硏	-11.8295
婿	-11.8295
若何	-11.8296
非真	-11.8297
瘡疹	-11.8298
故鄉	-11.8299
蘗	-11.8299
徐鉉	-11.83
居民	-11.83
世界	-11.8301
以勸	-11.8301
北軍	-11.8302
上令	-11.8302
腋下	-11.8303
漢陽	-11.8304
蘇武	-11.8304
之為言	-11.8304
醫家	-11.8305
塌	-11.8306
委之	-11.8306
武安	-11.8309
功用	-11.831
咸曰	-11.831
冠帶	-11.831
本名	-11.8311
存性	-11.8312
衡陽	-11.8313
至若	-11.8314
不傷	-11.8315
漢世	-11.8316
丨詳	-11.8316
五種	-11.8317
唐末	-11.8318
項王	-11.8318
六錢	-11.8319
時方	-11.832
謀反	-11.832
異者	-11.8324
其前	-11.8327
卷六	-11.8328
而勿	-11.8328
韓偓	-11.833
大矣	-11.8331
矣且	-11.8331
耳然	-11.8332
宗廟之	-11.8335
埋之	-11.8336
此必	-11.8336
益之	-11.8337
短長	-11.834
樂器	-11.834
衲	-11.834
賭	-11.834
宣州	-11.8341
一斛	-11.8342
孟氏	-11.8342
清心	-11.8342
吐痰	-11.8342
君臣之	-11.8345
天然	-11.8346
四君子湯	-11.8346
禦之	-11.8346
列女傳	-11.8348
氣盛	-11.835
元年詔	-11.8351
赤壁	-11.8353
一氣	-11.8353
大宛	-11.8355
五六日	-11.8355
勞而	-11.8355
劉公	-11.8358
其目	-11.8358
不可言	-11.836
臨軒	-11.8361
由於	-11.8361
知音	-11.8362
蠍	-11.8363
簿書	-11.8364
年六月	-11.8365
帝令	-11.8367
▁答	-11.8367
圖一卷	-11.8368
▁爾雅曰	-11.8369
也况	-11.8369
賢士	-11.8372
至於此	-11.8372
莊周	-11.8373
荆州刺史	-11.8374
中年	-11.8374
大恱	-11.8374
嶺表	-11.8375
熖	-11.8375
在州	-11.8376
之火	-11.8376
遣其	-11.8378
者吾	-11.8378
浮圖	-11.8379
檀弓	-11.838
助之	-11.8381
賦得	-11.8381
知禮	-11.8382
▁北史	-11.8383
嘉興	-11.8383
居官	-11.8385
孟春	-11.8386
舟車	-11.8387
范仲淹	-11.8387
騶虞	-11.839
夏后	-11.8391
二穴在	-11.8392
九宫	-11.8392
訪之	-11.8392
直是	-11.8392
少監	-11.8393
南昌	-11.8393
距度	-11.8394
少隂病	-11.8397
k	-11.8398
光曰	-11.8398
謝氏	-11.8398
不流	-11.84
秘書監	-11.8401
貢舉	-11.8401
誦之	-11.8402
因謂	-11.8402
文詞	-11.8402
有禮	-11.8403
天資	-11.8405
便血	-11.8405
由來	-11.8405
飲下	-11.8406
蓮子	-11.8406
豈以	-11.8407
善言	-11.8407
甚至	-11.8408
孟冬	-11.8409
凡六	-11.8409
緹	-11.8409
謝承後漢書	-11.8409
召入	-11.841
用法	-11.8411
時氣	-11.8412
當是時	-11.8412
廷珪	-11.8414
聖祖	-11.8415
著色	-11.8415
非惟	-11.8416
所畫	-11.8416
悶亂	-11.8417
鷙	-11.8418
始興	-11.8421
煦	-11.8421
蒨	-11.8421
中惡	-11.8421
薤白	-11.8422
大過	-11.8423
漏蘆	-11.8423
去後	-11.8424
遊於	-11.8429
之粟	-11.8431
用人參	-11.8431
纍	-11.8432
▁費	-11.8433
司𨽻	-11.8433
則成	-11.8435
節儉	-11.8435
所指	-11.8436
雅頌	-11.8439
安道	-11.844
便秘	-11.8441
工人	-11.8441
交易	-11.8442
辰戌	-11.8443
餘人	-11.8443
妥	-11.8444
信乎	-11.8448
六十里	-11.845
奢侈	-11.8451
庶民	-11.8452
矣乃	-11.8452
勞傷	-11.8452
法制	-11.8453
則病	-11.8454
期而	-11.8455
此山	-11.8455
躑躅	-11.8456
煮汁	-11.8456
於肺	-11.8457
▁東觀漢記曰	-11.8459
四皓	-11.8462
毎服二錢	-11.8464
者常	-11.8464
延英	-11.8467
犯之	-11.8467
乃用	-11.8467
尺二寸	-11.8468
懌	-11.847
外傳	-11.847
一理	-11.847
▁苦參	-11.847
晡	-11.8471
字景	-11.8473
鍾離	-11.8473
而歌	-11.8473
欲立	-11.8478
詮	-11.8479
罅	-11.8479
纁	-11.8479
神品	-11.8479
日二服	-11.8481
之基	-11.8483
始祖	-11.8485
經宿	-11.8485
池上	-11.8486
十有五	-11.8489
厮	-11.8489
而無所	-11.8489
朔日食	-11.8489
畢竟	-11.849
梹榔	-11.849
唐初	-11.8492
一璽	-11.8493
牛角	-11.8499
不自知	-11.8499
空亡	-11.85
嵌	-11.8502
惜其	-11.8502
受詔	-11.8503
起于	-11.8503
都統	-11.8506
酒調服	-11.8506
李成	-11.8507
真定	-11.8507
之俗	-11.8509
再加	-11.851
恭儉	-11.8511
感應	-11.8511
妳	-11.8514
栢子仁	-11.8514
瘡腫	-11.8514
七十六	-11.8514
豈其	-11.8519
於海	-11.852
徳而	-11.8521
所以能	-11.8521
春秋時	-11.8522
曰先生	-11.8523
十一分	-11.8523
劉備	-11.8524
傷心	-11.8524
留後	-11.8524
咸亨	-11.8524
導引	-11.8525
一碗	-11.8525
窖	-11.8525
偪	-11.8525
窩	-11.8525
赫赫	-11.8529
為火	-11.8529
讜	-11.853
分三	-11.853
聞人	-11.8532
人意	-11.8533
制禮	-11.8534
常州	-11.8536
禍亂	-11.8537
車前子	-11.8537
珏	-11.8537
有時而	-11.8539
初仕	-11.8539
▁右六味	-11.854
中宫	-11.854
金花	-11.8541
渤	-11.8543
二年詔	-11.8543
之責	-11.8544
味鹹	-11.8544
不可忍	-11.8545
越州	-11.8545
小過	-11.8545
和親	-11.8547
梔子仁	-11.8549
▁右粗搗篩	-11.8549
拉	-11.8549
牡丹皮	-11.855
月十五日	-11.8551
補其	-11.8555
花葉	-11.8556
圖一軸	-11.8557
昔在	-11.8557
方正	-11.856
訐	-11.8561
韞	-11.8561
g	-11.8561
萬斛	-11.8561
作渇	-11.8562
至秋	-11.8562
相次	-11.8563
無方	-11.8564
帝謂	-11.8564
疏云	-11.8565
甚重	-11.8565
論事	-11.8565
俱在	-11.8565
芎歸	-11.8566
恩澤	-11.8566
父為	-11.8567
亦甚	-11.8567
侯伯	-11.8567
於周	-11.8568
進止	-11.8569
姚合	-11.8572
比於	-11.8572
慣	-11.8572
沁	-11.8572
亡其	-11.8572
不報	-11.8572
▁澤瀉	-11.8572
不啻	-11.8573
翕然	-11.8575
為官	-11.8576
邪在	-11.8576
為妙	-11.8577
仲冬	-11.8578
非無	-11.8578
甚明	-11.8578
之訓	-11.8578
韓琦	-11.8578
小便數	-11.8579
志於	-11.8581
自可	-11.8582
輈	-11.8584
瑒	-11.8584
殿中侍御史	-11.8585
即事詩	-11.8585
其腹	-11.8585
引數	-11.8586
學生	-11.8586
一道	-11.8586
玉樹	-11.8588
亭侯	-11.859
氣喘	-11.8591
老成	-11.8591
辛熱	-11.8592
盼	-11.8592
為太	-11.8592
為定	-11.8593
仍令	-11.8593
唐書地理志	-11.8596
白歛	-11.8596
据	-11.8596
漚	-11.8596
開府儀同三司	-11.8596
西施	-11.8596
門之外	-11.8596
僧道	-11.8598
然後知	-11.8599
幽明	-11.8599
角形	-11.8599
長二尺	-11.86
列仙傳	-11.86
十三度	-11.8601
去黑	-11.8602
盧氏	-11.8602
化下	-11.8603
葢以	-11.8604
下後	-11.8608
爾乃	-11.8608
心脾	-11.8609
曰秦	-11.8609
焉而	-11.8609
遂有	-11.861
四十餘	-11.8612
香氣	-11.8614
武德	-11.8614
以降	-11.8614
諸将	-11.8615
承平	-11.8616
歸去	-11.8616
瓤	-11.8616
兩旁	-11.8617
妻之	-11.8617
宰執	-11.8619
蚓	-11.8619
値	-11.8619
軋	-11.8619
堇	-11.8619
肝氣	-11.8621
▁聖惠方	-11.8622
智永	-11.8622
職方	-11.8623
閶闔	-11.8623
晦日	-11.8624
尺牘	-11.8624
日時	-11.8625
渾然	-11.8625
不同而	-11.8625
兩句	-11.8628
凡所	-11.863
六百石	-11.863
日晡	-11.8632
徒以	-11.8632
滑稽	-11.8632
歐陽詢	-11.8632
意氣	-11.8632
納音	-11.8633
調中	-11.8634
服此藥	-11.8637
令勻	-11.8638
寒水	-11.8638
只要	-11.864
之質	-11.864
吳志	-11.8641
不全	-11.8641
▁程	-11.8641
百草	-11.8641
▁右七味	-11.8643
建業	-11.8644
孝武帝	-11.8646
丸梧子大	-11.8648
之印	-11.8649
之貴	-11.865
附子湯	-11.865
戸部	-11.865
半周	-11.8651
燋	-11.8655
穀梁	-11.8656
豈獨	-11.8656
象也	-11.8656
曰聖人	-11.8657
能令	-11.8657
傷其	-11.8662
變通	-11.8664
分為二	-11.8664
有司奏	-11.8664
有一種	-11.8666
五方	-11.8666
硃	-11.8666
掬	-11.8667
臛	-11.8667
如無	-11.8672
大禮	-11.8673
太上皇	-11.8675
一百七十	-11.8676
超然	-11.8676
舉動	-11.8678
辟邪	-11.8678
使天下	-11.8678
鄣	-11.8678
白附子	-11.8678
耳鳴	-11.8678
樓船	-11.8681
安縣	-11.8681
慢驚	-11.8682
兖州刺史	-11.8683
依法	-11.8683
手指	-11.8685
等並	-11.8685
流沙	-11.8685
其口	-11.8687
難知	-11.8688
陽春	-11.869
市井	-11.8693
龍圖	-11.8693
盡忠	-11.8693
童子小便	-11.8694
條下	-11.8694
勸農	-11.8697
半两	-11.8697
上面	-11.8699
月經	-11.8699
彎	-11.8701
套	-11.8701
猨	-11.8702
道心	-11.8702
名字	-11.8704
其禍	-11.8704
衆生	-11.8706
其舊	-11.8706
駿馬	-11.8707
驤	-11.8707
景龍	-11.8708
荆棘	-11.8709
輜重	-11.871
隸書	-11.871
不事	-11.8711
善於	-11.8711
又令	-11.8712
既濟	-11.8713
訢	-11.8714
夏禹	-11.8714
芭蕉	-11.8714
至善	-11.8714
者必有	-11.8717
賜物	-11.8717
患者	-11.8718
一歳	-11.8718
防己	-11.8719
飽食	-11.8719
生風	-11.8719
也所謂	-11.8719
霜露	-11.8721
計其	-11.8721
反復	-11.8723
仕至	-11.8723
凝結	-11.8723
龜兹	-11.8724
誰與	-11.8725
先知	-11.8725
爨	-11.8726
跂	-11.8726
砲	-11.8726
篠	-11.8726
北京	-11.8728
盛夏	-11.873
衛侯	-11.8733
白道	-11.8733
焮	-11.8734
佛法	-11.8734
光澤	-11.8736
咀	-11.8738
奨	-11.8738
簋	-11.8738
數與	-11.8739
動揺	-11.8739
▁石斛	-11.8739
其祖	-11.874
伐鄭	-11.874
面黄	-11.8742
▁地黄	-11.8742
鹿鳴	-11.8742
可服	-11.8743
即令	-11.8745
大赦天下	-11.8746
中庭	-11.8747
後入	-11.8748
論議	-11.8748
連山	-11.8749
治水	-11.875
史書	-11.875
不虚	-11.8751
夜卧	-11.8753
文成	-11.8754
做工夫	-11.8754
杜子美	-11.8754
治産後	-11.8754
只為	-11.8755
亦善	-11.8755
無主	-11.8756
猶能	-11.8757
長方	-11.8761
席上	-11.8761
▁右先	-11.8762
佛寺	-11.8762
蕨	-11.8762
甃	-11.8762
▁杜仲	-11.8762
也君子	-11.8763
楊素	-11.8765
左右皆	-11.8765
▁右為細末煉蜜	-11.8765
手太隂	-11.8765
炮製	-11.8765
田園	-11.8767
無比	-11.8768
沈周	-11.8769
漁者	-11.8771
象牙	-11.8772
不可勝數	-11.8775
丸如桐子大每服	-11.8777
喟然	-11.8778
天意	-11.8778
慶雲	-11.8778
名實	-11.8779
范氏	-11.8779
功德	-11.8779
經卷	-11.8779
桓𤣥	-11.878
變色	-11.8781
溪山	-11.8782
諸侯王	-11.8782
向上	-11.8782
正始	-11.8783
滅之	-11.8784
記其	-11.8784
瑱	-11.8786
跟	-11.8786
▁鐵	-11.8786
泣曰	-11.8787
陳蕃	-11.8787
東晉	-11.8789
吏部郎	-11.8789
非此	-11.879
於禮	-11.879
漢書地理志	-11.8791
千餘里	-11.8791
孔帖	-11.8792
所作也	-11.8793
月蝕	-11.8794
合為一	-11.8794
身死	-11.8795
子細	-11.8795
鷓鴣	-11.8798
攄	-11.8798
舸	-11.8798
鮒	-11.8798
魏武帝	-11.8799
並以	-11.8799
▁蜀椒	-11.88
國傳	-11.88
尊師	-11.88
七廟	-11.88
一匙	-11.8801
諸方	-11.8801
無厭	-11.8804
之所生	-11.8804
也若夫	-11.8805
十二辰	-11.8805
腰脊	-11.8805
候冷	-11.8806
諸證	-11.8806
講武	-11.8807
二篇	-11.8809
椅	-11.881
讙	-11.881
凡五	-11.881
冬至日	-11.881
雲漢	-11.8813
雖非	-11.8816
經行	-11.8816
惡氣	-11.8817
厚而	-11.8817
簧	-11.8818
無别	-11.8818
衂血	-11.8818
者不得	-11.8819
本也	-11.882
杜氏	-11.8821
儼然	-11.8822
敵之	-11.8823
法言	-11.8825
六律	-11.8825
獲其	-11.8825
林中	-11.8827
五十餘	-11.8829
面青	-11.8829
古制	-11.883
此本	-11.883
風水	-11.8833
博雅	-11.8833
浥	-11.8834
憔悴	-11.8834
後代	-11.8836
不登	-11.8836
不復見	-11.8836
棄其	-11.8838
出遊	-11.8838
於左	-11.884
便殿	-11.8841
三月三日	-11.8841
諸疾	-11.8841
乃云	-11.8843
必然	-11.8843
武威	-11.8844
條理	-11.8845
千九百	-11.8845
拏	-11.8846
万	-11.8846
惡物	-11.8846
汴州	-11.8846
生成	-11.8848
大腹皮	-11.885
十二日	-11.885
期門	-11.885
繫之	-11.8851
所服	-11.8851
之隂	-11.8852
有變	-11.8852
甚詳	-11.8853
其質	-11.8854
積石	-11.8855
▁說文曰	-11.8855
正朔	-11.8858
瀘	-11.8858
緗	-11.8858
欵冬花	-11.8858
縝	-11.8858
蛇床子	-11.8858
為末以	-11.8859
大略	-11.8859
厯數	-11.8861
▁乾地黄	-11.8862
金色	-11.8862
宣慰	-11.8862
少傅	-11.8863
畫史	-11.8864
有限	-11.8866
字也	-11.8869
臣僚	-11.8869
症也	-11.887
歌詩	-11.887
稱職	-11.8871
三百五十	-11.8871
中寒	-11.8871
方外	-11.8871
錦衣	-11.8871
圜丘	-11.8871
俛仰	-11.8872
大約	-11.8872
結核	-11.8875
陸氏	-11.8875
當國	-11.8876
口燥	-11.8877
霜降	-11.8878
夜啼	-11.8882
夫差	-11.8882
石經	-11.8883
不固	-11.8883
之𩔖	-11.8884
筆談	-11.8885
參知政事	-11.8885
百藥	-11.8885
遣使者	-11.8885
事畢	-11.8886
形色	-11.8887
梧桐子大	-11.8887
剉各	-11.8887
去就	-11.8887
並出	-11.8888
六四	-11.8889
左方	-11.889
豈敢	-11.8891
太簇	-11.8892
董其昌	-11.8893
要害	-11.8894
鹽湯下	-11.8894
瑰	-11.8894
吮	-11.8894
枲	-11.8894
鱣	-11.8894
沬	-11.8894
有德	-11.8894
故無	-11.8895
興國	-11.8895
群臣	-11.8896
免於	-11.8896
▁炙甘草	-11.8897
都邑	-11.8898
之力也	-11.8899
以藥	-11.89
又當	-11.8901
聲名	-11.8902
幸而	-11.8902
不能為	-11.8903
不可知	-11.8903
不老	-11.8904
清酒	-11.8905
歧	-11.8906
醫藥	-11.8907
相顧	-11.8909
肅肅	-11.8909
委任	-11.8909
方面	-11.8912
炮薑	-11.8912
所忌	-11.8912
光彩	-11.8912
事理	-11.8912
乎若	-11.8913
而至於	-11.8913
曰妾	-11.8914
萬緡	-11.8915
浩然	-11.8915
新論	-11.8917
自漢	-11.8917
本義	-11.8918
穆天子傳	-11.8919
駙馬都尉	-11.8919
舊典	-11.8919
早晚	-11.892
不守	-11.8921
將欲	-11.8922
來降	-11.8922
不得已而	-11.8923
來歸	-11.8925
並為	-11.8925
鹽鐵論	-11.8926
收藏	-11.8926
言行録	-11.8927
衆多	-11.8928
二條	-11.8928
桷	-11.8929
大統	-11.893
如雨	-11.893
摺	-11.893
娱	-11.893
郯	-11.893
詬	-11.893
鄭注云	-11.8931
有理	-11.8932
麾下	-11.8932
惡而	-11.8932
得三	-11.8935
傅𤣥	-11.8936
自云	-11.8936
侍衛	-11.8936
能通	-11.8938
二十人	-11.8939
無射	-11.894
清廟	-11.894
自明	-11.8941
▁治諸	-11.8942
𨗳	-11.8943
作一服	-11.8944
結於	-11.8945
有命	-11.8945
米元章	-11.8945
無毒主	-11.8948
坐於	-11.895
於野	-11.8951
濟濟	-11.8951
白濁	-11.8951
雅樂	-11.8951
各五錢	-11.8952
不降	-11.8952
孰為	-11.8953
欽若	-11.8954
朏	-11.8955
若非	-11.8955
巴㦸	-11.8955
依此	-11.8955
𢷬篩	-11.8955
伯英	-11.8957
文皇	-11.8958
非但	-11.8958
絶倫	-11.896
之苦	-11.896
宰輔	-11.8961
倣此	-11.8962
臨水	-11.8963
以别	-11.8963
主司	-11.8964
儀同	-11.8965
六十六	-11.8966
隂盛	-11.8966
昵	-11.8967
香薷	-11.8967
老母	-11.897
活人	-11.8971
何在	-11.8973
里人	-11.8974
煩疼	-11.8974
中國之	-11.8975
鄜	-11.8975
多故	-11.8976
貴乎	-11.8977
桔	-11.8978
百餘年	-11.8979
致逺	-11.8981
▁没藥	-11.8982
尺五寸	-11.8982
二百一十	-11.8982
病後	-11.8983
七月七日	-11.8984
北辰	-11.8984
七十餘	-11.8985
職掌	-11.8985
兩浙	-11.8986
芝草	-11.8986
豆大	-11.8989
爪牙	-11.8989
𤣥參	-11.8989
水飛	-11.8989
淋漓	-11.899
九度	-11.8991
怙	-11.8991
犒	-11.8991
坎離	-11.8992
足厥隂	-11.8993
朱熹	-11.8993
樂正	-11.8993
草烏	-11.8995
▁琥珀	-11.8997
等分為末	-11.8997
脩身	-11.9
汗之	-11.9
貞元中	-11.9003
褰	-11.9003
悛	-11.9004
之祥	-11.9004
莫測	-11.9004
至德	-11.9005
不衰	-11.9005
▁校	-11.9005
所不及	-11.9005
惜乎	-11.9006
等症	-11.9008
愈甚	-11.9008
在家	-11.9009
厯法	-11.9009
龍尾	-11.901
家無	-11.9012
太行	-11.9015
列宿	-11.9015
靈芝	-11.9015
滎	-11.9016
六十三	-11.9018
義士	-11.902
典刑	-11.9021
一變	-11.9021
何以知之	-11.9022
世本	-11.9024
司直	-11.9024
有識	-11.9025
李陵	-11.9025
觥	-11.9028
正義曰	-11.9028
易為	-11.903
九華	-11.9031
朝賀	-11.9032
貿	-11.9033
水一中盞	-11.9034
雲門	-11.9035
則反	-11.9037
柱國	-11.9038
近年	-11.9038
青橘皮	-11.9039
又改	-11.9039
搗篩	-11.904
翬	-11.904
囑	-11.904
扃	-11.9041
矦	-11.9041
縶	-11.9041
日漸	-11.9042
不具	-11.9042
所發	-11.9042
而笑	-11.9042
樓閣	-11.9042
固不可	-11.9043
所從	-11.9045
交錯	-11.9045
王仲	-11.9047
必在	-11.9047
之智	-11.9049
兆民	-11.9051
登樓	-11.9052
瘢	-11.9053
涿	-11.9053
不計時	-11.9053
南向	-11.9053
宋史食貨志	-11.9054
齊桓	-11.9054
▁葛	-11.9056
杜陵	-11.9056
二年二月	-11.9058
黄衣	-11.9059
厯代	-11.906
先入	-11.9061
虞舜	-11.9061
髙適	-11.9063
通書	-11.9064
C	-11.9065
S	-11.9065
擺	-11.9065
碓	-11.9065
K	-11.9065
納言	-11.9065
皆云	-11.9066
有疑	-11.9067
周制	-11.9067
巫山	-11.9068
精舍	-11.9069
州司馬	-11.9069
六十四卦	-11.907
簽	-11.9071
之過也	-11.9071
經綸	-11.9072
驚恐	-11.9073
上柱國	-11.9073
▁天南星	-11.9074
涼州	-11.9074
桃源	-11.9075
饑寒	-11.9076
其任	-11.9076
神効	-11.9077
巍	-11.9077
u	-11.9077
A	-11.9077
D	-11.9077
I	-11.9077
L	-11.9077
O	-11.9077
U	-11.9077
s	-11.9077
▁201	-11.9077
穠	-11.9077
憇	-11.9077
鐙	-11.9077
n	-11.9078
p	-11.9078
之罪也	-11.9078
往見	-11.9078
圍之	-11.908
不精	-11.9081
之喪	-11.9083
經典	-11.9083
毛羽	-11.9083
犬馬	-11.9085
長興	-11.9085
謝之	-11.9088
吉日	-11.9088
児	-11.909
交阯	-11.909
其脈	-11.9091
利貞	-11.9091
漬之	-11.9092
腹大	-11.9092
駟馬	-11.9093
至日	-11.9093
三事	-11.9095
辛夘	-11.9095
云凡	-11.9098
餘年	-11.9102
煌	-11.9102
圖曰	-11.9102
五倍子	-11.9103
一路	-11.9103
自天	-11.9104
便於	-11.9105
我朝	-11.9106
茅屋	-11.9107
二員	-11.9107
憚之	-11.9108
敵國	-11.911
盛德	-11.9111
宣撫	-11.9111
害於	-11.9112
者凡	-11.9112
丨為丨	-11.9113
旁有	-11.9113
太真	-11.9114
梭	-11.9115
霰	-11.9115
蟾蜍	-11.9115
公言	-11.9115
景雲	-11.9116
天祐	-11.9116
文正公	-11.9116
大法	-11.9117
得地	-11.9117
不恤	-11.9117
幽王	-11.9119
不可治	-11.912
狀似	-11.9121
嵗餘	-11.9121
僖宗	-11.9121
征討	-11.9122
瘧疾	-11.9122
娑	-11.9127
穩	-11.9127
芤	-11.9127
益精	-11.9128
聦	-11.9129
七寳	-11.9131
痛處	-11.9132
東郊	-11.9132
遂致	-11.9132
出乎	-11.9132
民皆	-11.9132
始于	-11.9134
▁灸	-11.9134
肝脾	-11.9139
棚	-11.9139
旰	-11.9139
我欲	-11.9139
何則	-11.914
字書	-11.9142
懼而	-11.9143
圖詩	-11.9143
養性	-11.9145
時日	-11.9145
唐明皇	-11.9145
一十三	-11.9147
九六	-11.9147
燦	-11.9148
傷損	-11.9149
進食	-11.9149
出塞	-11.9151
摠	-11.9152
狠	-11.9152
公輔	-11.9152
簡公	-11.9152
姦邪	-11.9152
小指	-11.9152
姊妹	-11.9153
葬之	-11.9155
太常博士	-11.9155
惡者	-11.9156
一方有	-11.9156
所獻	-11.9156
王戎	-11.9158
三千人	-11.9158
大禹	-11.9159
▁右為末用	-11.9159
竹筒	-11.9159
其美	-11.9159
自唐	-11.916
不聴	-11.9161
欲殺	-11.9161
為吏部尚書	-11.9162
華州	-11.9162
青蒿	-11.9163
狀若	-11.9163
時稱	-11.9163
同行	-11.9164
特以	-11.9165
波斯	-11.9166
河洛	-11.9168
膿水	-11.9169
立言	-11.9169
風生	-11.917
▁十四	-11.917
之勝	-11.9171
某人	-11.9171
建徳	-11.9172
血分	-11.9172
藝文志	-11.9175
禁之	-11.9176
卬	-11.9177
▁十月	-11.9177
氣急	-11.9177
而不為	-11.9178
横行	-11.918
青鹽	-11.918
向背	-11.9183
七千	-11.9183
裏面	-11.9184
林下	-11.9185
身命	-11.9186
貧富	-11.9186
葆	-11.9187
卒子	-11.9187
嵓	-11.9189
埒	-11.9189
熱藥	-11.9189
其旁	-11.919
愚者	-11.9191
一両	-11.9192
淮南子曰	-11.9192
八品	-11.9192
一個	-11.9195
不習	-11.9195
青木香	-11.9196
氣弱	-11.9197
矣哉	-11.9198
蔞	-11.92
定制	-11.92
當在	-11.9201
珽	-11.9202
菹	-11.9202
謇	-11.9202
相併	-11.9204
正心	-11.9205
温補	-11.9207
梨花	-11.9209
乾之	-11.9209
有情	-11.921
家家	-11.9211
雜志	-11.9211
王珪	-11.9212
㤙	-11.9214
兎絲子	-11.9214
誠能	-11.9214
魏徵	-11.9215
從上	-11.9215
玉泉	-11.9215
八度	-11.9216
▁詩集	-11.9217
無差	-11.9218
應劭	-11.9219
語林	-11.922
日數	-11.9221
兩目	-11.9221
老弱	-11.9223
校正	-11.9224
大石	-11.9224
庶㡬	-11.9225
蓑	-11.9227
論書	-11.9227
彭蠡	-11.9228
内容	-11.9228
美女	-11.9232
難矣	-11.9232
以仁	-11.9232
發狂	-11.9232
李勣	-11.9232
亡命	-11.9233
公車	-11.9233
家世	-11.9233
詞云	-11.9234
前鋒	-11.9236
改之	-11.9237
大篆	-11.9239
舁	-11.9239
是心	-11.924
大黃	-11.9242
▁檳榔	-11.9242
嘗於	-11.9244
終南	-11.9244
盖以	-11.9246
蒼耳	-11.9246
右行	-11.9247
老矣	-11.9248
不辭	-11.9249
手自	-11.9249
利為度	-11.925
晏子曰	-11.9251
薯蕷	-11.9252
鬪	-11.9252
以廣	-11.9253
君家	-11.9254
馳騁	-11.9254
貨殖	-11.9254
洪水	-11.9255
其效	-11.9255
水草	-11.9256
言我	-11.9258
無根	-11.9258
與日	-11.9258
三光	-11.9259
樹上	-11.9259
上殿	-11.9259
者唯	-11.9261
表證	-11.9261
百畝	-11.9262
高帝	-11.9263
不可見	-11.9264
九齡	-11.9264
荇	-11.9264
睨	-11.9264
堊	-11.9264
太平御覽	-11.9265
于今	-11.9266
炙甘草	-11.9266
其語	-11.9267
之災	-11.9267
益智	-11.9267
方云	-11.9268
扶持	-11.9269
里中	-11.9271
其居	-11.9271
云今	-11.9272
東夷	-11.9273
其中有	-11.9274
引飲	-11.9274
運使	-11.9274
檢討	-11.9274
以威	-11.9276
譬猶	-11.9276
堞	-11.9277
濩	-11.9277
非禮也	-11.928
泰始	-11.9281
感而	-11.9282
相加得	-11.9283
天降	-11.9283
在丨丨	-11.9283
同州	-11.9284
十五分	-11.9284
乘之得	-11.9284
尚書左丞	-11.9284
毎服三錢	-11.9285
約束	-11.9285
▁治心	-11.9289
曦	-11.9289
嬾	-11.9289
汧	-11.9289
元符	-11.929
異名	-11.9291
▁又云	-11.9293
詔賜	-11.9295
世無	-11.9295
皮弁	-11.9295
枇杷	-11.9295
蘭陵	-11.9295
氣味甘	-11.9296
延平	-11.9296
清氣	-11.9297
歸脾湯	-11.9297
日進	-11.9297
草草	-11.9298
及長	-11.9299
注謂	-11.93
川大黄	-11.9301
絜	-11.9302
埶	-11.9302
郃	-11.9302
麺	-11.9302
耒耜	-11.9302
十二度	-11.9303
氣候	-11.9303
不可不知	-11.9304
流落	-11.9307
繫於	-11.9307
三十萬	-11.9308
流出	-11.9309
而知之	-11.931
百事	-11.9312
嘗從	-11.9312
老氏	-11.9312
宋齊	-11.9313
不知人	-11.9313
飜	-11.9315
國學	-11.9315
自止	-11.9316
神主	-11.9316
不可下	-11.9316
若在	-11.9316
更為	-11.9316
一息	-11.9317
之曲	-11.9317
有銘	-11.9318
脉弦	-11.9319
積雪	-11.9322
畫一	-11.9322
然皆	-11.9323
也彼	-11.9324
州城	-11.9324
君父	-11.9324
逺者	-11.9325
薈	-11.9327
矮	-11.9327
多因	-11.9328
徐氏	-11.9328
每邊	-11.9329
禮志	-11.933
瀑布	-11.9331
參术	-11.9333
乃詔	-11.9334
乃見	-11.9334
墓誌銘	-11.9335
酒肉	-11.9335
數升	-11.9336
設官	-11.9336
不足則	-11.9336
長編	-11.9336
内殿	-11.9338
哭之	-11.9338
行乎	-11.9339
發熱惡寒	-11.9339
撼	-11.934
鶡	-11.934
塾	-11.934
鐃	-11.934
騏驥	-11.934
輔相	-11.9342
發動	-11.9342
皆與	-11.9345
重耳	-11.9348
極細	-11.9348
光輝	-11.9348
織成	-11.9348
者名曰	-11.9349
所奏	-11.9351
▁程子曰	-11.9353
羽毛	-11.9353
二錢半	-11.9354
四海之	-11.9355
破賊	-11.9356
等州	-11.9356
文采	-11.9356
親友	-11.9356
惡人	-11.9359
荆山	-11.9359
八錢	-11.936
韋昭	-11.9361
牛蒡子	-11.9361
服方寸匕	-11.9361
歌行	-11.9362
嗚	-11.9363
流傳	-11.9365
五十一	-11.9365
搭	-11.9365
䆒	-11.9365
冽	-11.9365
哽	-11.9365
春雨	-11.9367
乙甲	-11.9369
請問	-11.9371
二君	-11.9374
中星	-11.9375
順氣	-11.9377
直至	-11.9377
消食	-11.9378
其㫖	-11.9378
描	-11.9378
造化之	-11.9378
馬圖	-11.9379
丨丨坡	-11.9382
一十一	-11.9382
破血	-11.9384
間以	-11.9384
下第	-11.9385
青陽	-11.9385
以待之	-11.9386
豈復	-11.9387
年五十	-11.9388
一女子	-11.9388
以疾	-11.9389
拽	-11.9391
瑪瑙	-11.9391
姝	-11.9391
葵子	-11.9391
髙平	-11.9392
八曰	-11.9394
是他	-11.9394
則難	-11.9395
玉帛	-11.9397
相離	-11.9397
天錫	-11.9397
風雷	-11.9398
如膏	-11.94
今夫	-11.94
何憂	-11.94
漕運	-11.9402
聽其	-11.9403
颯	-11.9403
應手	-11.9403
延胡索	-11.9403
娣	-11.9404
百千	-11.9407
明於	-11.9407
果得	-11.9408
四柱	-11.941
何耶	-11.941
之境	-11.9411
尊號	-11.9412
玉壺	-11.9412
暮春	-11.9412
同歸	-11.9414
白龍	-11.9415
於魯	-11.9416
紫芝	-11.9416
惋	-11.9416
之賦	-11.9416
宋史禮志	-11.9417
洋洋	-11.9417
文帝紀	-11.9418
新序	-11.942
團練	-11.942
止血	-11.942
時珍	-11.942
朝貢	-11.9424
不才	-11.9425
不可曉	-11.9425
方法	-11.9426
遣將	-11.9427
落筆	-11.9428
政教	-11.9428
爪甲	-11.9428
之敗	-11.9428
莱	-11.9429
鮑叔	-11.943
風動	-11.943
盛之	-11.943
蒸餅	-11.9431
居易	-11.9431
石渠	-11.9431
今則	-11.9433
▁白芍	-11.9434
吕公	-11.9435
如來	-11.9435
于河	-11.9436
泛舟	-11.9436
外無	-11.9437
子男	-11.9439
仁傑	-11.9441
散騎	-11.9442
此三者	-11.9442
罩	-11.9442
磴	-11.9442
僃	-11.9442
綉	-11.9442
文心雕龍	-11.9443
本乎	-11.9444
宫闕	-11.9444
諸色	-11.9445
大于	-11.9445
顔魯公	-11.9445
國在	-11.9445
耳後	-11.9446
月日	-11.9448
卿相	-11.945
象形	-11.945
一十四	-11.945
事多	-11.945
知言	-11.9452
營室	-11.9453
為丸如	-11.9453
曽祖	-11.9453
蘆薈	-11.9453
容止	-11.9454
趯	-11.9455
逢吉	-11.9455
尤精	-11.9455
自覺	-11.9456
未到	-11.9456
未見其	-11.9456
是夕	-11.9456
拌勻	-11.9456
視聽	-11.9457
軍節度	-11.9458
人君之	-11.9458
可致	-11.9459
仲文	-11.9459
赤白痢	-11.9461
御題	-11.9462
下民	-11.9463
以興	-11.9463
勝於	-11.9463
漢水	-11.9465
咽痛	-11.9465
州諸軍事	-11.9466
善屬文	-11.9466
而逺	-11.9466
之舞	-11.9467
厲王	-11.9467
謩	-11.9467
蛤粉	-11.9468
之戰	-11.9469
本司	-11.9476
▁右同	-11.9476
逆順	-11.9476
甆	-11.9476
安置	-11.9477
十歩	-11.9477
簡文	-11.9479
窑	-11.948
千四百	-11.948
阡陌	-11.948
官桂	-11.9481
聞奏	-11.9481
州節度使	-11.9482
些子	-11.9484
土星	-11.9484
自消	-11.9484
本天	-11.9484
荷花	-11.9484
那得	-11.9484
常令	-11.9485
最難	-11.9486
七合	-11.9487
生日	-11.9487
知得	-11.9487
尤宜	-11.9487
二十六年	-11.9488
四明	-11.9488
三載	-11.9489
八珍湯	-11.9489
江浙	-11.9491
吏士	-11.9492
己庚	-11.9493
異功散	-11.9493
楊維楨	-11.9493
▁右為末煉蜜和	-11.9493
琚	-11.9493
硼砂	-11.9493
寒凉	-11.9493
乃曰	-11.9494
入貢	-11.9495
不預	-11.9497
晉文公	-11.9498
不可得也	-11.9498
紛紜	-11.9499
脉之	-11.95
向來	-11.95
五祀	-11.95
燕趙	-11.95
無咎	-11.95
談論	-11.9502
過江	-11.9503
百一十	-11.9503
廣西	-11.9504
也聖人	-11.9504
燥熱	-11.9505
羣公	-11.9505
㽔	-11.9505
光庭	-11.9505
國獻	-11.9506
嘿	-11.9506
篚	-11.9506
蕡	-11.9506
烏孫	-11.9507
起自	-11.9509
祕曰	-11.9511
不愧	-11.9512
李邕	-11.9512
未明	-11.9513
戰勝	-11.9513
楷法	-11.9514
烏蛇	-11.9514
屬於	-11.9514
少與	-11.9514
于朝	-11.9515
有所不	-11.9516
安排	-11.9516
人目	-11.9518
此疾	-11.9518
二十餘年	-11.9518
金沙	-11.9518
一觔	-11.9519
賾	-11.9519
㕓	-11.9519
士毅	-11.9519
安期	-11.952
累年	-11.9521
端正	-11.9521
一統	-11.9521
麋鹿	-11.9522
蒼頡	-11.9523
不還	-11.9524
誰知	-11.9528
已矣	-11.9528
酒煮	-11.953
所賜	-11.9531
5	-11.9532
暍	-11.9532
尊賢	-11.9533
泣下	-11.9534
之寳	-11.9534
作文	-11.9536
其子孫	-11.9537
内臣	-11.9538
青天	-11.9538
萬方	-11.9539
翼翼	-11.9539
作書	-11.954
炙剉	-11.954
故舊	-11.954
不盈	-11.9541
丸方	-11.9542
白髪	-11.9542
少陵	-11.9542
一百九十	-11.9543
㸃之	-11.9544
七七	-11.9544
蘚	-11.9544
監門	-11.9544
為博士	-11.9544
蕋	-11.9545
旡	-11.9545
籀	-11.9545
絞取汁	-11.9546
李泌	-11.9546
▁衍義曰	-11.9547
銀器	-11.9547
疏曰	-11.955
不欺	-11.955
謂左右曰	-11.955
學於	-11.9551
記事	-11.9552
三條	-11.9554
之目	-11.9555
是皆	-11.9555
龍眠	-11.9555
伐楚	-11.9555
感於	-11.9556
火土	-11.9556
去蘆頭	-11.9557
2	-11.9558
殂	-11.9558
駱賔王	-11.9558
七升	-11.9558
無銘	-11.9558
於楚	-11.9559
石虎	-11.956
急用	-11.9562
出兵	-11.9565
鯽魚	-11.9566
日南	-11.9567
白居易詩	-11.9569
石田	-11.957
相因	-11.957
櫂	-11.9571
但云	-11.9571
二十八年	-11.9572
同名	-11.9572
訶子	-11.9572
生靈	-11.9573
無病	-11.9573
木瓜	-11.9575
提刑	-11.9575
創業	-11.9575
畫工	-11.9577
不得卧	-11.9577
耳非	-11.9578
真君	-11.958
鐘鼓	-11.958
轉側	-11.958
璇	-11.9583
帔	-11.9584
封疆	-11.9584
一語	-11.9585
盡得	-11.9586
而趨	-11.9588
賜帛	-11.9588
嘗問	-11.9588
改易	-11.9589
大哉	-11.959
賢愚	-11.9593
掌中	-11.9597
補虚	-11.9597
前驅	-11.9598
半生	-11.9598
以為常	-11.9599
成名	-11.9599
散方	-11.9599
動氣	-11.96
▁南齊	-11.96
平無毒	-11.9601
餘杭	-11.9602
萊公	-11.9602
每以	-11.9603
急於	-11.9604
南嶽	-11.9605
切集韻韻	-11.9605
幟	-11.9606
日乾	-11.9606
温病	-11.9606
請於	-11.9607
二百八十	-11.9609
之鄉	-11.9609
之策	-11.9609
櫃	-11.961
弹	-11.961
定天下	-11.961
而明	-11.9611
謝莊	-11.9611
富者	-11.9612
蕭條	-11.9613
▁朱熹曰	-11.9616
補氣	-11.9616
位在	-11.9616
蔬食	-11.9617
仲淹	-11.9618
大聖	-11.9618
郡有	-11.9618
行路	-11.9618
生時	-11.9619
以御	-11.9621
魚鼈	-11.9622
敢言	-11.9622
罨	-11.9623
昭儀	-11.9624
▁藁本	-11.9625
强弱	-11.9625
而必	-11.9628
年間	-11.9631
名號	-11.9631
不吉	-11.9632
▁六月	-11.9632
徐州刺史	-11.9632
桓子	-11.9632
興師	-11.9633
而北	-11.9634
踝	-11.9635
屣	-11.9636
暎	-11.9636
狙	-11.9636
鱉甲	-11.9639
子房	-11.964
之盟	-11.964
寒温	-11.9641
科斗	-11.9641
眼中	-11.9643
天禧	-11.9644
林鍾	-11.9644
抃	-11.9645
黄土	-11.9645
嗣位	-11.9646
眩暈	-11.9647
搗羅為末	-11.9647
呉郡	-11.9647
梔	-11.9648
穿鑿	-11.9648
鞾	-11.9649
詛	-11.9649
蜩	-11.9649
不滅	-11.965
工書	-11.9651
召為	-11.9651
▁魏志曰	-11.9652
居人	-11.9652
永寧	-11.9652
于公	-11.9652
絶人	-11.9653
虎狼	-11.9653
乃還	-11.9653
元昊	-11.9655
各三分	-11.9656
上流	-11.9656
彦博	-11.9657
山茱茰	-11.9658
所惡	-11.9659
居上	-11.9659
諸般	-11.9659
次入	-11.966
黄州	-11.9663
勇士	-11.9663
多汗	-11.9664
藏器曰	-11.9664
伏誅	-11.9664
貴於	-11.9665
斷絶	-11.9665
支離	-11.9666
初學	-11.9666
好色	-11.9666
參茋	-11.9667
吾與	-11.9667
在左	-11.9668
婺	-11.9668
民多	-11.9669
珍珠	-11.9669
贈之	-11.967
▁澤㵼	-11.967
學術	-11.967
比肩	-11.9671
儒術	-11.9672
必敗	-11.9672
恨不	-11.9673
乙夘	-11.9673
甚急	-11.9673
王衍	-11.9673
籩	-11.9673
續斷	-11.9674
蠕蠕	-11.9675
靚	-11.9675
眄	-11.9675
南齊	-11.9675
臓腑	-11.9675
二十九日	-11.9677
過失	-11.9679
無所用	-11.9679
以紙	-11.9681
五兵	-11.9682
栁枝	-11.9682
雞犬	-11.9683
潭州	-11.9683
東魏	-11.9684
一疋	-11.9685
又得	-11.9685
金紫	-11.9686
畫圖	-11.9686
淋瀝	-11.9686
兒女	-11.9688
惹	-11.9688
鍜	-11.9688
悪	-11.9688
水和	-11.9689
世事	-11.9689
黄老	-11.9689
國夫人	-11.969
白芨	-11.969
程子曰	-11.9691
師傅	-11.9691
餅子	-11.9692
仍舊	-11.9692
讀為	-11.9692
稍熱服	-11.9692
詔曰朕	-11.9693
四維	-11.9695
曲水	-11.9695
而往	-11.9696
而更	-11.9697
聞道	-11.9697
神物	-11.9697
五斤	-11.9697
即用	-11.9697
故謂	-11.9698
上聲	-11.9698
足太隂	-11.9699
今君	-11.9699
▁編	-11.97
來年	-11.97
一隅	-11.97
情性	-11.9701
此因	-11.9701
因事	-11.9702
宋書禮志	-11.9702
百六十	-11.9702
去官	-11.9706
以水七升	-11.9707
蕤	-11.9708
五百人	-11.971
改正	-11.971
萬計	-11.9711
為御史大夫	-11.9713
真跡	-11.9713
梁冀	-11.9714
䂓	-11.9714
粲然	-11.9715
豺狼	-11.9715
光祿大夫	-11.9716
未暇	-11.9716
以表	-11.9717
元暉	-11.9718
者歟	-11.9718
丁夘	-11.972
▁之以	-11.9721
金山	-11.9721
㕘軍	-11.9721
公權	-11.9721
堂前	-11.9721
自負	-11.9723
而殺之	-11.9724
汗不出	-11.9725
先見	-11.9725
大吕	-11.9726
滴水	-11.9727
山多	-11.9727
禮記月令	-11.9727
莪	-11.9727
慊	-11.9727
新校正云按	-11.9727
狄仁傑	-11.9728
荆軻	-11.9729
清淨	-11.9729
産婦	-11.9729
第十一	-11.9729
適足	-11.9734
大便不通	-11.9734
安邑	-11.9735
命婦	-11.9735
内踝	-11.9737
丁角	-11.9738
少游	-11.9738
每服四錢	-11.974
論道	-11.974
䛕	-11.9741
不但	-11.9741
祖宗之	-11.9742
先登	-11.9742
前方	-11.9745
佩刀	-11.9747
正徳	-11.9748
入耳	-11.9751
楊柳	-11.9752
季冬	-11.9753
珎	-11.9754
莅	-11.9754
孜孜	-11.9754
征西	-11.9754
姚崇	-11.9754
秦檜	-11.9755
久而不	-11.9755
宫門	-11.9755
亦已	-11.9757
西伯	-11.9759
分寸	-11.976
所乗	-11.9762
知命	-11.9763
不可使	-11.9764
未安	-11.9765
待其	-11.9766
▁千金	-11.9766
壁間	-11.9766
上章	-11.9766
二十二年	-11.9766
平江	-11.9767
使相	-11.9767
教坊	-11.9767
經學	-11.9769
相引	-11.9771
漢文	-11.9774
東西南北	-11.9775
調之	-11.9775
金剛經	-11.9775
有奇	-11.9775
起家	-11.9776
常見	-11.9777
▁丙	-11.9778
太醫	-11.9779
老僧	-11.9779
不可輕	-11.978
立祠	-11.978
縟	-11.978
焉得	-11.9783
南豐	-11.9784
萬機	-11.9787
氣韻	-11.9787
長年	-11.9789
難為	-11.9789
狂言	-11.9789
元始	-11.979
詁	-11.9792
且曰	-11.9792
隨意	-11.9793
大中祥符	-11.9794
本輪	-11.9794
之貌	-11.9797
芥子	-11.9797
兵車	-11.9797
其直	-11.9797
亦有之	-11.9798
之嵗	-11.9799
山名	-11.98
六卷	-11.9802
畫地	-11.9803
魏文侯	-11.9803
秋毫	-11.9804
吾君	-11.9804
掖庭	-11.9805
治脚氣	-11.9806
綫	-11.9807
楠	-11.9807
故雖	-11.9807
活血	-11.9807
▁菖蒲	-11.9807
如山	-11.9807
憂患	-11.9808
各八	-11.9809
解衣	-11.981
孟軻	-11.9811
風月	-11.9811
腹脇	-11.9812
禹之	-11.9813
州總管	-11.9816
四劑	-11.9816
貴重	-11.9816
相謂曰	-11.9817
同研	-11.9817
一冊	-11.9818
立碑	-11.9819
冏	-11.982
白沙	-11.982
詶	-11.982
槊	-11.982
他處	-11.9821
吕后	-11.9822
去瓤	-11.9823
中都	-11.9824
蔡州	-11.9825
八陣	-11.9825
立冬	-11.9826
表請	-11.9826
行義	-11.9826
孔門	-11.9828
麽	-11.9828
熬成膏	-11.9828
天乙	-11.9829
哉故	-11.9829
養氣	-11.983
頂上	-11.983
大樹	-11.9833
瘈瘲	-11.9833
固請	-11.9834
上谷	-11.9835
今天下	-11.9835
萬卷	-11.9836
不患	-11.9837
征南	-11.9838
號泣	-11.9839
天涯	-11.984
眞人	-11.9844
▁青黛	-11.9844
與共	-11.9846
袵	-11.9847
淖	-11.9847
瞬	-11.9847
在彼	-11.9849
貢獻	-11.9851
縮砂仁	-11.9852
許敬宗	-11.9852
二十四年	-11.9852
羞惡	-11.9853
自序	-11.9854
張騫	-11.9854
上升	-11.9856
王國	-11.9856
神化	-11.9857
信然	-11.9859
朔日	-11.986
率以	-11.986
宋書符瑞志	-11.986
德行	-11.9861
財賦	-11.9861
鳯皇	-11.9861
大半	-11.9861
房𤣥齡	-11.9861
必勝	-11.9862
三倍	-11.9862
再煎	-11.9862
移時	-11.9863
洪州	-11.9866
不專	-11.9867
多服	-11.9867
上中下	-11.9868
等事	-11.9869
命有司	-11.987
大貴	-11.9871
琯	-11.9872
乙戊	-11.9872
從子	-11.9872
又别	-11.9872
猶如	-11.9873
愜	-11.9873
鞮	-11.9873
袐	-11.9873
必求	-11.9874
無敵	-11.9874
一葉	-11.9874
筆記	-11.9875
也又云	-11.9876
藝文	-11.9878
西都	-11.9879
多事	-11.9879
除熱	-11.988
牧守	-11.988
大使	-11.9881
熨之	-11.9881
台州	-11.9882
楝	-11.9884
寒無毒主	-11.9884
制其	-11.9885
校書郎	-11.9887
湏臾	-11.9887
尺四寸	-11.9888
▁太陽	-11.9889
敏中	-11.989
淳熈	-11.989
子張	-11.9891
昆吾	-11.9894
占之	-11.9894
氣衰	-11.9895
便利	-11.9895
仰觀	-11.9895
王季	-11.9895
酸棗	-11.9896
會要	-11.9897
脾腎	-11.9898
年春正月	-11.9898
遂絶	-11.9898
十一日	-11.99
搜神記	-11.99
討論	-11.9901
誰家	-11.9901
細細	-11.9902
其面	-11.9904
尚方	-11.9905
雍州刺史	-11.9906
然後可	-11.9907
雜病	-11.9907
鴻漸	-11.9909
黄昏	-11.9909
襄子	-11.9911
忠厚	-11.9912
如彼	-11.9912
不足者	-11.9913
互見	-11.9913
黄水	-11.9913
濺	-11.9913
鉄	-11.9913
乙庚	-11.9917
下降	-11.9917
升麻湯	-11.9919
今朝	-11.9919
整齊	-11.9919
行步	-11.992
去麄皮	-11.9921
吹之	-11.9924
李善	-11.9925
水泉	-11.9926
之冠	-11.9926
期於	-11.9926
卣	-11.9927
四萬	-11.9927
酉陽雜爼	-11.9927
菩提	-11.9927
▁梔子仁	-11.9928
上意	-11.9928
夷吾	-11.9929
官員	-11.9929
財官	-11.9929
之時也	-11.9929
吹笛	-11.9931
槿	-11.9932
五岳	-11.9933
術士	-11.9934
北風	-11.9935
故實	-11.9936
為鬼	-11.9936
各十	-11.9936
宣徽	-11.9936
閉口	-11.9938
熱盛	-11.9939
舉手	-11.9939
俗人	-11.9939
一官	-11.994
墩	-11.994
王禹偁	-11.994
盻	-11.994
牧羊	-11.9941
▁黃	-11.9941
▁%	-11.9941
貫通	-11.9942
獄吏	-11.9942
陰氣	-11.9942
不熟	-11.9944
一器	-11.9945
堯典	-11.9945
▁川大黄	-11.9945
半合	-11.9947
辛夷	-11.9948
夏商	-11.9949
多年	-11.9953
躬行	-11.9953
心下痞	-11.9953
㪷	-11.9954
串	-11.9954
近侍	-11.9954
藥力	-11.9955
為廷尉	-11.9956
遲速	-11.9956
有痰	-11.9957
又治	-11.9957
萬世之	-11.9957
腫脹	-11.9958
▁柳	-11.9959
最佳	-11.9961
揖讓	-11.9962
中積	-11.9963
已盡	-11.9965
天地之心	-11.9965
三物	-11.9965
正旦	-11.9965
畎	-11.9967
凜	-11.9967
刖	-11.9967
字道	-11.9967
等謹案	-11.9967
破故紙	-11.9967
病源	-11.9968
不書	-11.997
藩鎮	-11.9971
漢官	-11.9971
未之有也	-11.9971
客曰	-11.9972
者可以	-11.9972
所成	-11.9973
承氣湯	-11.9974
韋莊	-11.9974
嫁娶	-11.9975
從父	-11.9975
玉帶	-11.9976
皆作	-11.9977
額上	-11.9977
▁南星	-11.9978
▁天門冬	-11.998
紓	-11.9981
即便	-11.9981
理㑹得	-11.9982
赤芍	-11.9982
百辟	-11.9983
貨財	-11.9983
為之使	-11.9984
五事	-11.9984
循行	-11.9984
史記曰	-11.9985
𢎞景曰	-11.9986
下行	-11.9986
和靖	-11.9988
宜先	-11.9989
直以	-11.999
一二日	-11.999
室家	-11.9991
黄蓍	-11.9993
次輪	-11.9993
月夜	-11.9994
舩	-11.9994
茭	-11.9994
斆	-11.9994
不茍	-11.9995
九經	-11.9996
之卦	-11.9996
茂陵	-11.9996
省中	-11.9997
玉石	-11.9998
相知	-12.0001
央	-12.0001
宫詞	-12.0002
羣生	-12.0003
髙堂	-12.0004
己者	-12.0005
腦子	-12.0006
一十七	-12.0007
趙孟	-12.0007
繚	-12.0007
戕	-12.0008
焼	-12.0008
蔭	-12.0008
氓	-12.0008
數嵗	-12.0008
不可及	-12.001
誤以	-12.0012
三江	-12.0012
韋氏	-12.0013
目視	-12.0013
以刀	-12.0013
皥	-12.0015
已出	-12.0015
黄雀	-12.0015
京畿	-12.0015
潔白	-12.0016
夏秋	-12.0018
廊廟	-12.0018
湖上	-12.002
臨終	-12.0021
少孤	-12.0021
日益	-12.0022
八味	-12.0023
所舉	-12.0024
肢節	-12.0024
告子	-12.0025
朱泚	-12.0026
風痺	-12.0027
兩月	-12.0028
二事	-12.0029
惟是	-12.003
歩騎	-12.003
廣南	-12.0033
秋色	-12.0033
小小	-12.0034
百王	-12.0034
悉皆	-12.0035
蔀	-12.0035
邜	-12.0035
灋	-12.0035
麸炒	-12.0036
龍眼	-12.0036
籩豆	-12.0036
研匀	-12.0037
建中湯	-12.0037
逆氣	-12.0038
漁人	-12.0038
清流	-12.0039
湖廣	-12.004
天真	-12.004
減之	-12.004
不恱	-12.0042
加大黄	-12.0043
四望	-12.0043
車載	-12.0044
大意	-12.0044
造物	-12.0045
祕閣	-12.0045
妻妾	-12.0046
三百二十	-12.0047
蛩	-12.0048
徽之	-12.0049
曲阜	-12.0052
金箔	-12.0054
昌邑	-12.0054
所施	-12.0055
古意	-12.0055
丘陵	-12.0056
尚書僕射	-12.0056
吾道	-12.0057
美惡	-12.0057
色黒	-12.0058
騎馬	-12.0058
過矣	-12.0061
二璽	-12.0061
裸	-12.0062
纍纍	-12.0062
内官	-12.0063
初發	-12.0063
没藥	-12.0064
有别	-12.0064
圖三	-12.0066
字從	-12.0066
炮各	-12.0067
神功	-12.0068
刑部尚書	-12.0069
連年	-12.0069
居此	-12.0069
子之言	-12.0071
尤工	-12.0071
甲庚	-12.0071
療之	-12.0071
餓死	-12.0072
刻之	-12.0073
函谷	-12.0074
便當	-12.0075
▁九月	-12.0075
六君子湯	-12.0075
蔡氏	-12.0076
沴	-12.0076
者無不	-12.0076
可容	-12.0077
汲汲	-12.0077
不留	-12.0077
十一度	-12.0078
並有	-12.0078
不達	-12.0081
酸棗仁	-12.0081
得其人	-12.0081
百代	-12.0082
萬象	-12.0083
愕	-12.0084
彗星	-12.0085
得病	-12.0085
公府	-12.0086
黄鶴	-12.0088
一層	-12.0088
譁	-12.0089
秧	-12.0089
𡨕	-12.0089
作餅	-12.009
驚駭	-12.0092
還宫	-12.0092
獨無	-12.0092
定位	-12.0093
其樂	-12.0093
不隨	-12.0093
收拾	-12.0094
發搐	-12.0094
矣遂	-12.0094
雲臺	-12.0095
孝公	-12.0096
伯父	-12.0096
無乃	-12.0097
山茱萸	-12.0098
既定	-12.0099
漢祖	-12.0099
十二時	-12.01
研為末	-12.01
有蟲	-12.01
孝亷	-12.0102
與汝	-12.0102
璉	-12.0103
綻	-12.0103
璆	-12.0103
駛	-12.0103
葷	-12.0103
順行	-12.0103
之美者	-12.0104
老者	-12.0106
自隨	-12.011
行於世	-12.0111
▁産後	-12.0111
千仞	-12.0111
項氏	-12.0112
曰此是	-12.0113
晉陵	-12.0113
郭璞注	-12.0116
䑛	-12.0117
飈	-12.0117
鍔	-12.0117
李膺	-12.0117
桓公曰	-12.0118
將行	-12.0119
須知	-12.0119
開方	-12.012
翺	-12.0121
能得	-12.0121
郭氏	-12.0122
川烏頭	-12.0123
再以	-12.0123
重重	-12.0123
虎頭	-12.0126
訶梨勒	-12.0127
告以	-12.0127
曰古之	-12.0127
日照	-12.0128
▁甘氏曰	-12.0131
行矣	-12.0131
趙公	-12.0131
始作	-12.0132
▁古人	-12.0133
之態	-12.0133
表云	-12.0133
至春	-12.0134
舊名	-12.0135
其難	-12.0135
威將軍	-12.0136
劄子	-12.0139
斯民	-12.014
無所見	-12.014
一十九	-12.0143
造次	-12.0144
書籍	-12.0144
▁御纂醫宗金鑑	-12.0144
𦕈	-12.0144
清異録	-12.0144
後服	-12.0145
傳序	-12.0146
尺為	-12.0147
▁假如	-12.0148
分兩	-12.0149
遑	-12.0149
應時	-12.0151
平無毒主	-12.0151
榖梁	-12.0151
出危	-12.0152
望風	-12.0152
嘔血	-12.0153
殭蠶	-12.0155
亂世	-12.0156
通行	-12.0156
切片	-12.0157
昭昭	-12.0157
河源	-12.0157
汞	-12.0158
▁孟子曰	-12.0158
如在	-12.0159
戎馬	-12.0159
靈武	-12.0163
為佐	-12.0163
丙辛	-12.0164
侯王	-12.0165
為福	-12.0166
昌言	-12.0168
矢石	-12.0169
天池	-12.017
斡	-12.0172
表邪	-12.0173
通神	-12.0174
磁器	-12.0174
二率	-12.0176
舊説	-12.0177
親切	-12.0177
十二律	-12.0177
大駕	-12.0178
元和中	-12.0179
波濤	-12.018
令公	-12.0181
四七	-12.0182
故號	-12.0183
以佐	-12.0184
申酉	-12.0184
砒	-12.0184
郅	-12.0184
召對	-12.0185
傷則	-12.0185
娘子	-12.0186
加柴胡	-12.0188
於諸侯	-12.0188
▁一男子	-12.0189
中毒	-12.0189
厥後	-12.019
羸痩	-12.0191
今按	-12.0194
腰膝	-12.0195
必使	-12.0195
字士	-12.0196
赤松	-12.0196
天之所	-12.0196
吾欲	-12.0197
維摩	-12.0198
蘧	-12.0199
庳	-12.0199
㨿	-12.0199
埀	-12.0199
璵	-12.0199
王充論衡	-12.0199
僥倖	-12.0199
富民	-12.02
隂隂	-12.02
虚心	-12.02
為宫	-12.0202
集賢院	-12.0202
精明	-12.0203
建章	-12.0203
長春	-12.0205
叱之	-12.0206
十五秒	-12.0206
痼	-12.0206
哭泣	-12.0207
為逆	-12.0208
百九十	-12.021
之工	-12.0212
許慎	-12.0212
枸杞子	-12.0213
無傷	-12.0213
▁硫黄	-12.0214
通作	-12.0215
十疋	-12.0215
於路	-12.0216
神龜	-12.0217
驄	-12.0217
異苑	-12.0218
諸風	-12.0218
肩背	-12.022
孕婦	-12.022
相間	-12.0221
生萬物	-12.0222
舟人	-12.0222
水蛭	-12.0224
更用	-12.0224
六六	-12.0225
萬全	-12.0225
慎之	-12.0227
扎	-12.0227
檣	-12.0227
岳陽	-12.0228
也雖然	-12.0228
元元	-12.0229
元元年	-12.023
次于	-12.0231
陜州	-12.0232
甲己	-12.0232
諌曰	-12.0232
真偽	-12.0234
林寺	-12.0234
以東	-12.0236
膏藥	-12.0236
之勇	-12.0237
少保	-12.0238
宗社	-12.0238
拄	-12.0239
火盛	-12.0239
石城	-12.024
故使	-12.024
搴	-12.0241
雝	-12.0241
二家	-12.0241
濕痺	-12.0241
唐本注云	-12.0241
湯火	-12.0242
豈徒	-12.0243
譏之	-12.0243
枇杷葉	-12.0248
木火	-12.0248
此症	-12.0249
驚曰	-12.0249
脹痛	-12.0249
葫蘆	-12.0249
食積	-12.025
人材	-12.0254
㺯	-12.0254
冤	-12.0255
蟋蟀	-12.0255
孑	-12.0255
穽	-12.0255
不知此	-12.0256
心熱	-12.0257
一級	-12.0257
已過	-12.0258
褒貶	-12.0259
炙令	-12.0259
偏枯	-12.026
三歳	-12.0261
廣徳	-12.0261
了無	-12.0262
二十七日	-12.0263
漸愈	-12.0264
傷食	-12.0264
太素	-12.0265
蜀王	-12.0265
畫像	-12.0265
而廢	-12.0266
新婦	-12.0267
黻	-12.0268
橈	-12.0268
六三	-12.0269
韻並	-12.027
三宫	-12.027
合浦	-12.027
力戰	-12.0271
▁八月	-12.0272
遂命	-12.0273
徳裕	-12.0275
璩	-12.0275
追封	-12.0276
白金	-12.0276
始出	-12.0278
聚而	-12.0278
不久	-12.0279
草生	-12.0279
賜錢	-12.0279
毘	-12.028
翠羽	-12.028
前殿	-12.028
赦之	-12.0281
長一尺	-12.0281
金銀花	-12.0282
騂	-12.0282
鷁	-12.0282
𫉬	-12.0282
發生	-12.0283
帷幄	-12.0283
金門	-12.0284
十六日	-12.0285
廣東	-12.0287
各一分	-12.0287
之氣也	-12.0288
希夷	-12.0289
望其	-12.029
樞機	-12.029
中滿	-12.0292
雨後	-12.0293
何須	-12.0294
得之矣	-12.0294
六十五	-12.0294
弧矢	-12.0295
蜀椒	-12.0295
巘	-12.0296
孫叔敖	-12.0296
煌煌	-12.0296
從祀	-12.0296
平居	-12.0297
即命	-12.03
出家	-12.0301
水星	-12.0301
為御史中丞	-12.0302
卷八	-12.0302
掌邦	-12.0303
其樹	-12.0306
二千五百	-12.0307
非聖人	-12.0307
宙	-12.0309
郡國志	-12.031
縮砂	-12.031
尻	-12.031
渾儀	-12.0311
深矣	-12.0311
而後有	-12.0312
棄官	-12.0313
肺熱	-12.0314
蕭然	-12.0314
寄生	-12.0317
治一切	-12.0318
得他	-12.0322
好生	-12.0322
邊境	-12.0322
濟北	-12.0323
枷	-12.0324
柟	-12.0324
不惡寒	-12.0325
𤓰蔞	-12.0325
大辟	-12.0327
哀哉	-12.0328
王家	-12.033
次曰	-12.0332
億萬	-12.0332
私欲	-12.0333
潼	-12.0334
孫皓	-12.0334
洗淨	-12.0334
不急	-12.0335
文館	-12.0335
古書	-12.0335
紫雲	-12.0336
物故	-12.0337
文武之	-12.0337
寡婦	-12.0337
文粹	-12.0339
不至於	-12.0339
熱結	-12.034
衆寡	-12.0342
卓然	-12.0346
何患	-12.0347
考課	-12.0347
産業	-12.0347
昔日	-12.0348
平復	-12.0348
交接	-12.035
煎至一盞	-12.0351
苗葉	-12.0352
▁總纂官	-12.0352
朢	-12.0352
其族	-12.0353
心腹痛	-12.0353
所據	-12.0354
白公	-12.0354
千里之	-12.0354
玉篇	-12.0355
工畫	-12.0355
所敗	-12.0356
二三日	-12.0357
易知	-12.0358
瓶中	-12.0359
隨事	-12.036
執筆	-12.0361
牀下	-12.0362
見鬼	-12.0362
八八	-12.0362
之族	-12.0362
止用	-12.0362
而與之	-12.0363
▁地榆	-12.0363
世謂	-12.0365
集中	-12.0365
在坐	-12.0366
貯之	-12.0366
化爲	-12.0366
▁芒硝	-12.0366
陸錫熊	-12.0366
賃	-12.0366
曖	-12.0366
歧伯曰	-12.0366
潞州	-12.0367
手詔	-12.0368
經言	-12.0368
毎用	-12.037
實理	-12.0371
臣恐	-12.0372
呉人	-12.0373
親近	-12.0374
鍋内	-12.0374
武夷	-12.0375
衍義	-12.0375
時嘗	-12.0377
自我	-12.0377
一郡	-12.0378
本原	-12.0381
南斗	-12.0382
外物	-12.0386
自昔	-12.0386
三十度	-12.0386
四世	-12.0386
▁又法	-12.0387
風土記	-12.0388
本心	-12.0388
八座	-12.0389
誠心	-12.039
年六十	-12.039
致死	-12.039
朕意	-12.0391
諍	-12.0392
麫糊	-12.0392
三方	-12.0393
初服	-12.0393
挍	-12.0394
屹	-12.0394
嶮	-12.0394
紀昀	-12.0394
惜哉	-12.0394
福禄	-12.0394
婆娑	-12.0395
外内	-12.0395
蔓菁	-12.0395
遲疾	-12.0396
是箇	-12.0396
其候	-12.0397
叔孫通	-12.0398
五十年	-12.0398
所乘	-12.0399
千乘	-12.04
趙簡子	-12.04
承之	-12.0401
三歲	-12.0401
榮之	-12.0402
舊法	-12.0403
右方	-12.0405
自足	-12.0406
躬自	-12.0406
亞夫	-12.0407
嘻	-12.0407
心之所	-12.0408
紫石英	-12.0408
齊景公	-12.041
以水三升	-12.0411
于世	-12.0412
城邑	-12.0413
穆穆	-12.0414
終是	-12.0414
如何是	-12.0415
多病	-12.0416
太始	-12.0416
帳中	-12.0416
隨風	-12.0417
燒令	-12.0417
此句	-12.0419
建昌	-12.0419
用功	-12.0419
得其所	-12.042
六升	-12.042
善相	-12.0421
焉能	-12.0421
長一丈	-12.0422
半印	-12.0422
帕	-12.0422
闚	-12.0422
兜	-12.0422
圯	-12.0422
痃癖	-12.0423
▁蒲黄	-12.0423
二十七年	-12.0425
軍吏	-12.0426
于前	-12.0427
大澤	-12.0428
患此	-12.0428
不足為	-12.0428
肺癰	-12.0429
大蒜	-12.043
送客	-12.043
蔡襄	-12.0431
賢於	-12.0431
范文正公	-12.0433
仁義之	-12.0435
六十二	-12.0435
賢不肖	-12.0436
溶	-12.0436
单	-12.0437
菟	-12.0437
羹	-12.0437
擿	-12.0437
遇害	-12.0437
太史令	-12.0437
頸項	-12.0437
▁沒藥	-12.0438
加茯苓	-12.0439
薑湯下	-12.0439
續文獻通考	-12.0439
夏官	-12.0439
田中	-12.044
舌本	-12.044
守道	-12.044
温泉	-12.0442
商量	-12.0442
烏梅肉	-12.0443
丸如梧桐子大毎服	-12.0445
胡廣	-12.0445
▁輕粉	-12.0445
剉炒	-12.0446
以南	-12.0446
銅錢	-12.0447
海南	-12.0448
明明	-12.0448
即今之	-12.0448
浮大	-12.0449
切正韻	-12.0449
中有一	-12.045
人官至	-12.045
溪水	-12.0451
降火	-12.0451
克己復禮	-12.0451
圻	-12.0451
蛆	-12.0451
市中	-12.0454
千七百	-12.0454
崔浩	-12.0455
薑三片	-12.0456
學士院	-12.0456
不均	-12.0457
自給	-12.0457
用意	-12.0459
故吏	-12.0459
周禮曰	-12.0461
▁子之	-12.0461
之選	-12.0461
者不知	-12.0462
▁防己	-12.0464
伉	-12.0465
▁素絹本著色畫	-12.0465
6	-12.0465
韵	-12.0465
方能	-12.0465
豨	-12.0465
徳音	-12.0466
名位	-12.0467
三門	-12.0469
卒然	-12.0469
上書言	-12.0471
多死	-12.0471
亡陽	-12.0472
三年詔	-12.0473
前此	-12.0478
溺於	-12.0478
芰	-12.0478
忌之	-12.0478
答云	-12.0479
筦	-12.0479
仭	-12.0479
衒	-12.0479
餼	-12.0479
飲食少思	-12.0479
萬貫	-12.0479
從外	-12.048
典故	-12.048
瀛洲	-12.048
長七尺	-12.0481
結成	-12.0481
累世	-12.0485
巡撫	-12.0486
殺蟲	-12.0487
王事	-12.0488
千金翼	-12.0489
張掖	-12.049
之味	-12.049
八十八	-12.0492
九歌	-12.0492
▁右等分	-12.0492
持之	-12.0492
三千里	-12.0493
悝	-12.0493
劉毅	-12.0493
大荒	-12.0494
▁右為粗末	-12.0494
樂記	-12.0494
定武	-12.0495
腹圍	-12.0496
大儒	-12.0497
顔回	-12.0498
與客	-12.05
懼其	-12.05
生男	-12.0502
繼以	-12.0504
安仁	-12.0504
既久	-12.0505
跣	-12.0505
▁墀	-12.0506
搗爛	-12.0506
羶	-12.0508
昭陵	-12.0509
瞳子	-12.0509
唐本	-12.0509
今陛下	-12.051
新豐	-12.0511
▁官桂	-12.0512
軍人	-12.0515
物色	-12.0515
寫生	-12.0515
内出	-12.0516
▁孟子	-12.0517
矣吾	-12.0517
太甚	-12.052
中脘	-12.052
二百七十	-12.0522
雇	-12.0522
▁一秒冬至	-12.0522
此花	-12.0522
藥性論云	-12.0522
榮辱	-12.0524
司馬温公	-12.0525
皆成	-12.0525
所制	-12.0526
留連	-12.0526
八十七	-12.0526
加味	-12.0527
▁後漢書曰	-12.0527
生地黄汁	-12.0527
與物	-12.0528
祠堂	-12.0529
玉衡	-12.0529
十畝	-12.053
六十一	-12.0533
無灰酒	-12.0533
老子曰	-12.0536
佺	-12.0536
胆	-12.0536
簸	-12.0536
謝公	-12.0536
橘柚	-12.0536
黄精	-12.0537
生薑五片	-12.0537
蟾酥	-12.0538
氣絶	-12.0539
諸縣	-12.0539
田疇	-12.054
不道	-12.0541
血痢	-12.0542
李固	-12.0542
轉而	-12.0543
之理也	-12.0543
揚州刺史	-12.0544
實錄	-12.0544
而言也	-12.0545
直道	-12.0545
八珍	-12.0547
之状	-12.055
小輪	-12.055
五侯	-12.055
龍泉	-12.055
有毛	-12.0551
知府	-12.0551
衆心	-12.0552
衆星	-12.0553
方位	-12.0554
西蜀	-12.0554
榮華	-12.0555
魯之	-12.0556
墳墓	-12.0558
自矜	-12.056
康成	-12.0562
果如	-12.0563
賈人	-12.0563
搥	-12.0564
閙	-12.0565
良醫	-12.0566
之誅	-12.0566
繪事	-12.0568
清泉	-12.0568
藥性	-12.0569
頗多	-12.0569
乎且	-12.057
鈎藤	-12.057
開闢	-12.0572
已具	-12.0572
世系	-12.0574
二嵗	-12.0574
小事	-12.0575
各得其	-12.0575
雲霞	-12.0577
兼有	-12.0577
向日	-12.0578
夷則	-12.0578
不置	-12.0579
鬆	-12.0579
十二經	-12.0579
賢能	-12.0579
鬱鬱	-12.0581
犯者	-12.0582
煎至五分去滓	-12.0582
又多	-12.0582
改過	-12.0583
木賊	-12.0583
天津	-12.0584
坐卧	-12.0585
和元年	-12.0586
交食	-12.0586
外史	-12.0587
私第	-12.0588
玉牒	-12.059
兼領	-12.059
錮	-12.059
武平	-12.0591
盒	-12.0593
故老	-12.0594
東歸	-12.0594
二陳湯	-12.0594
當代	-12.0594
乃引	-12.0594
熟視	-12.0594
建議	-12.0597
觀書	-12.0597
積滯	-12.0598
京兆府	-12.0598
甚麽	-12.0599
才學	-12.0599
大理寺	-12.06
為皇太子	-12.06
所學	-12.0602
髙昌	-12.0602
分司	-12.0603
朝覲	-12.0603
初學記	-12.0603
通經	-12.0604
共為	-12.0605
百三十	-12.0606
儀注	-12.0607
黄帝曰	-12.0607
愴	-12.0607
不顯	-12.0607
嗅	-12.0608
遡	-12.0608
鑣	-12.0608
著名	-12.0608
根皮	-12.0609
浮而	-12.0611
常與	-12.0611
可稱	-12.0611
香油	-12.0612
劉表	-12.0613
儒林	-12.0615
文定	-12.0615
元封	-12.0616
憲章	-12.0616
血流	-12.0617
煎八分	-12.0617
後漢書曰	-12.0619
不再	-12.0619
朱文公	-12.0619
雜以	-12.062
語及	-12.062
六韜	-12.062
本道	-12.0621
耕者	-12.0622
所治	-12.0622
暐	-12.0622
箜篌	-12.0622
離宫	-12.0622
令丞	-12.0623
恐未	-12.0624
天頂	-12.0624
粥飲下	-12.0626
經過	-12.0627
喬木	-12.0627
大本	-12.0628
錯綜	-12.0628
附㑹	-12.0629
火煆	-12.063
十九日	-12.0631
臺上	-12.0633
兵部侍郎	-12.0633
原文	-12.0633
鎮江	-12.0633
各三錢	-12.0634
穴在	-12.0635
臚	-12.0635
體重	-12.0636
戰士	-12.0636
漣	-12.0636
箆	-12.0636
璹	-12.0636
匃奴	-12.0637
生旺	-12.0637
天之道	-12.0637
又聞	-12.0638
樂工	-12.0639
不貴	-12.0639
芩連	-12.064
少好學	-12.064
紙筆	-12.0641
之助	-12.0642
純粹	-12.0642
説話	-12.0643
在郡	-12.0643
守節	-12.0644
反胃	-12.0646
蝟	-12.0646
不貳	-12.0648
罷相	-12.0649
母弟	-12.0649
榼	-12.0651
褚遂良	-12.0651
垠	-12.0651
丸如桐子大	-12.0651
其材	-12.0651
司空圖	-12.0653
之黨	-12.0654
佛氏	-12.0654
用六君	-12.0654
甘棠	-12.0655
如人行	-12.0656
折枝	-12.0658
无妄	-12.0659
撫軍	-12.0659
異志	-12.0659
周圍	-12.0662
舍利	-12.0662
州長史	-12.0665
鄉侯	-12.0666
氣衝	-12.0666
賜姓	-12.0668
進呈	-12.0669
皮尖	-12.0671
水飲	-12.0671
孔中	-12.0671
子游	-12.0671
團扇	-12.0671
展轉	-12.0672
𢎞正	-12.0672
茅根	-12.0673
造父	-12.0676
四種	-12.0677
盟于	-12.0678
太古	-12.0678
其尾	-12.0678
亦主	-12.0679
凹	-12.068
泉水	-12.068
▁治肺	-12.068
靈運	-12.0681
色紅	-12.0681
處便	-12.0682
大興	-12.0683
可復	-12.0687
十三日	-12.0687
大便秘	-12.0687
研令勻	-12.0688
三州	-12.0689
泥金	-12.0689
但欲	-12.069
木葉	-12.0691
高麗	-12.0693
郞	-12.0694
血不止	-12.0695
客氣	-12.0695
其惡	-12.0696
良工	-12.0696
公論	-12.0697
性理	-12.0697
齊師	-12.0699
我何	-12.07
慈母	-12.0703
指揮使	-12.0704
地震	-12.0704
不誠	-12.0705
廣雅	-12.0705
磊	-12.0705
代王	-12.0708
鴞	-12.0709
𣺌	-12.0709
揷	-12.0709
櫝	-12.0709
▁救飢	-12.071
給之	-12.071
惻隠	-12.0711
丹毒	-12.0712
倉廩	-12.0712
棗二枚	-12.0712
數寸	-12.0717
職官志	-12.0717
國政	-12.0718
暑月	-12.072
二十卷	-12.072
發揮	-12.0721
汝州	-12.0722
儷	-12.0723
蝦蟆	-12.0723
刑政	-12.0728
停滯	-12.0728
虞夏	-12.0729
諮議	-12.073
中書監	-12.073
立止	-12.0731
年三十	-12.0731
田里	-12.0732
失節	-12.0733
九十九	-12.0735
省察	-12.0735
不返	-12.0737
並宜	-12.0737
礫	-12.0737
蓽	-12.0738
戴叔倫	-12.0738
抉	-12.0738
冡宰	-12.0738
博通	-12.074
食頃	-12.074
患難	-12.074
軍門	-12.0742
底事	-12.0743
一向	-12.0743
去目	-12.0743
羚羊角屑	-12.0744
兩字	-12.0747
是夜	-12.075
扶南	-12.0752
匾	-12.0752
亊	-12.0752
六味地黄丸	-12.0753
此義	-12.0753
過半	-12.0753
如新	-12.0755
湖中	-12.0755
油調	-12.0755
翎毛	-12.0757
漠漠	-12.0757
宜春	-12.0758
雨中	-12.076
先生云	-12.076
南國	-12.0761
三篇	-12.0762
龍齒	-12.0762
七遍	-12.0764
慶元	-12.0764
有小毒	-12.0766
淞	-12.0767
灞	-12.0767
進爵	-12.0768
天保	-12.0769
喘促	-12.0772
之瑞	-12.0773
夜深	-12.0773
蝸	-12.0774
有大小	-12.0776
上九	-12.0776
虛勞	-12.0777
○○○	-12.0777
己夘	-12.0778
香草	-12.0778
西向	-12.0778
帝舜	-12.0778
客至	-12.078
九州之	-12.0781
橐	-12.0782
羣芳譜	-12.0782
壁上	-12.0782
張湯	-12.0784
歲月	-12.0785
酉陽	-12.0785
手持	-12.0786
十三分	-12.0788
曲盡	-12.0788
文襄	-12.0791
發其汗	-12.0793
宜加	-12.0794
五品以上	-12.0796
盈尺	-12.0796
絆	-12.0796
糗	-12.0796
闔閭	-12.0798
捕之	-12.0798
年十二	-12.0799
手陽明	-12.0799
通身	-12.08
脾經	-12.0802
以醋	-12.0802
所收	-12.0802
嗜欲	-12.0803
移於	-12.0805
萱草	-12.0805
財貨	-12.0807
御覽	-12.0807
初九	-12.081
訓曰	-12.0811
桑螵蛸	-12.0811
元城	-12.0812
淡竹葉	-12.0815
胷膈	-12.0818
君子小人	-12.0818
大鴻臚	-12.0819
一發	-12.0821
失時	-12.0822
人參湯	-12.0822
如雞子	-12.0822
神州	-12.0823
天禄	-12.0824
扄	-12.0826
欎	-12.0826
伏龍肝	-12.0826
傳贊	-12.0828
不可行	-12.0829
▁訶子	-12.0829
諸印	-12.0829
人之道	-12.0829
旗幟	-12.083
萬一千	-12.0831
天機	-12.0831
蛻	-12.0832
明德	-12.0832
積薪	-12.0834
建初	-12.0834
數倍	-12.0835
所餘	-12.0835
意甚	-12.0836
公族	-12.0836
獲罪	-12.0836
憂之	-12.0837
二十六日	-12.0838
闍	-12.084
珙	-12.084
黼黻	-12.0841
寂寥	-12.0841
中土	-12.0841
舉事	-12.0841
力田	-12.0843
四年正月	-12.0844
名譽	-12.0845
減去	-12.0845
所患	-12.0845
石橋	-12.0846
舜禹	-12.0847
王君	-12.0847
黃道	-12.0849
漢髙	-12.085
如雪	-12.085
九鼎	-12.0853
分曉	-12.0854
即吐	-12.0854
太平之	-12.0854
黝	-12.0855
幙	-12.0855
暌	-12.0855
義方	-12.0855
囓	-12.0855
豈容	-12.0856
樞密院	-12.0858
擢為	-12.0858
難經	-12.0861
西行	-12.0861
寓居	-12.0863
岷山	-12.0864
許昌	-12.0864
二百餘	-12.0864
助教	-12.0865
一樹	-12.0866
客熱	-12.0867
四五日	-12.0869
食物	-12.0869
垓	-12.087
媛	-12.087
斁	-12.087
入秦	-12.087
倪瓚	-12.087
司業	-12.087
冷痛	-12.0871
月離	-12.0871
清涼	-12.0873
南安	-12.0874
藝祖	-12.0874
古之人	-12.0875
膏腴	-12.0876
何獨	-12.0876
化生	-12.0879
次下	-12.0881
湯泡	-12.0884
不渴	-12.0884
本篇	-12.0884
女樂	-12.0884
戡	-12.0885
塼	-12.0885
竟無	-12.0885
獄中	-12.0885
延陵	-12.0886
為尚書令	-12.0886
至明	-12.0886
相干	-12.0887
釋迦	-12.0888
二百三十	-12.0888
則吉	-12.0892
巫咸	-12.0892
公綽	-12.0893
内消	-12.0893
授時	-12.0894
不直	-12.0896
汝等	-12.0896
周穆王	-12.0898
極矣	-12.0898
巴陵	-12.0898
𦍑	-12.0899
籃	-12.0899
摽	-12.0899
華林園	-12.09
巍巍	-12.09
欬𠻳	-12.09
翺翔	-12.0902
衛士	-12.0902
氣短	-12.0903
事詳	-12.0904
無雙	-12.0905
頭項	-12.0905
少陽之	-12.0906
臺省	-12.0907
祠部	-12.0907
胃熱	-12.0908
文思	-12.0909
忘憂	-12.0909
思歸	-12.0911
於廟	-12.0911
都督府	-12.0912
但言	-12.0912
蚩	-12.0912
所製	-12.0913
親屬	-12.0913
潤之	-12.0913
四合	-12.0914
秪	-12.0914
繖	-12.0914
潰爛	-12.0915
炮製去	-12.0915
蘆根	-12.0916
帝親	-12.0917
自然汁	-12.0917
真時	-12.0918
申明	-12.0919
冬𤓰	-12.0919
南吕	-12.092
㑹同	-12.0921
立朝	-12.0921
決明	-12.0921
相視	-12.0922
有不同	-12.0923
縣西北	-12.0924
天河	-12.0924
正道	-12.0924
飾之	-12.0925
熱湯	-12.0926
君長	-12.0926
李晟	-12.0928
周勃	-12.0928
飫	-12.0929
為三率求得四率	-12.0929
蛛	-12.0929
十七日	-12.0929
光宅	-12.093
吏卒	-12.093
而觀之	-12.0931
始自	-12.0931
俗呼為	-12.0932
三司使	-12.0933
盡善	-12.0935
雖云	-12.0935
峨	-12.0935
倉庫	-12.0936
筆端	-12.0937
罔不	-12.0937
聖惠	-12.0937
縣丞	-12.0938
許由	-12.094
失守	-12.0941
士元	-12.0943
旋覆花	-12.0944
逍遙	-12.0944
新語	-12.0945
從政	-12.0945
國子博士	-12.0946
據此	-12.0946
投壺	-12.0948
願聞	-12.0948
魏明帝	-12.0949
硫	-12.095
徙居	-12.0953
商周	-12.0954
閉目	-12.0956
宗人	-12.0957
談笑	-12.0959
飄飄	-12.0959
安敢	-12.096
楚師	-12.096
去油	-12.096
鄧禹	-12.096
戰功	-12.096
茍有	-12.0961
雞頭	-12.0961
戊丁	-12.0962
心術	-12.0962
宿度	-12.0963
治熱	-12.0964
癲疾	-12.0965
封爵	-12.0966
炮裂去	-12.0967
泗州	-12.0967
又取	-12.0968
道夫	-12.0969
才能	-12.0969
塗山	-12.097
迄今	-12.0971
合和	-12.0972
視之乃	-12.0972
欲見	-12.0973
迤	-12.0974
殳	-12.0974
擠	-12.0974
圓治	-12.0974
後来	-12.0975
痛止	-12.0975
劉晏	-12.0975
赤眼	-12.0978
[...]
