<unk>	0
<s>	0
</s>	0
▁	-2.56677
之	-4.35337
也	-4.66044
)	-4.82049
而	-4.93269
以	-5.06935
(	-5.07226
者	-5.09879
/	-5.16867
爲	-5.22418
於	-5.39366
有	-5.42109
不	-5.44913
其	-5.50535
則	-5.57254
一	-5.61401
無	-5.76517
人	-5.78231
上	-5.82298
天	-5.83274
生	-5.86154
中	-5.92857
大	-5.95298
神	-5.97308
故	-5.99759
曰	-6.0327
心	-6.10313
自	-6.12187
下	-6.13539
行	-6.17718
此	-6.18536
道	-6.18775
如	-6.18881
得	-6.22395
子	-6.23079
三	-6.23798
是	-6.25729
▁(	-6.26148
至	-6.28206
與	-6.31973
矣	-6.33508
在	-6.33909
言	-6.36611
明	-6.4097
用	-6.42972
日	-6.43128
若	-6.44724
見	-6.45739
非	-6.48566
所	-6.49305
乎	-6.50345
出	-6.50546
氣	-6.51436
水	-6.51439
眞	-6.52234
時	-6.53178
入	-6.53229
法	-6.55409
乃	-6.56785
名	-6.57062
皆	-6.605
身	-6.60855
二	-6.61566
成	-6.62064
或	-6.6396
五	-6.64191
知	-6.66873
即	-6.6723
同	-6.69568
可	-6.6978
方	-6.70797
君	-6.71109
能	-6.71475
地	-6.72416
經	-6.72845
然	-6.74585
事	-6.76064
四	-6.76073
作	-6.7659
符	-6.76639
相	-6.77292
後	-6.78378
天尊	-6.79295
内	-6.79347
當	-6.79544
金	-6.7975
火	-6.79912
靈	-6.80149
玄	-6.80598
臣	-6.81581
我	-6.81731
陽	-6.81926
亦	-6.82553
又	-6.8338
正	-6.83872
山	-6.84005
主	-6.85041
合	-6.85676
及	-6.85914
文	-6.85998
令	-6.86295
來	-6.87058
化	-6.87377
王	-6.88124
九	-6.89519
使	-6.90128
將	-6.9147
去	-6.91641
常	-6.92087
欲	-6.9352
今	-6.93668
從	-6.94099
命	-6.96826
精	-6.97777
形	-6.97858
通	-6.98551
元	-6.9941
物	-6.99801
分	-7.0072
謂	-7.01064
復	-7.01186
云	-7.01731
書	-7.01889
治	-7.02526
諸	-7.02535
處	-7.02858
善	-7.03357
多	-7.03594
風	-7.03655
先	-7.03949
長	-7.04653
德	-7.05107
已	-7.05389
師	-7.06309
仙	-7.06854
本	-7.07466
取	-7.07996
炁	-7.08501
玉	-7.08928
前	-7.09144
外	-7.09793
應	-7.11024
死	-7.11031
焉	-7.11797
因	-7.14683
光	-7.15036
受	-7.15164
未	-7.16007
立	-7.16467
安	-7.17226
必	-7.17397
開	-7.18053
度	-7.18207
字	-7.1835
吾	-7.18572
夫	-7.1885
居	-7.19032
六	-7.20206
重	-7.20524
和	-7.20959
天地	-7.21022
雲	-7.21787
八	-7.22262
性	-7.23021
盡	-7.23171
存	-7.23293
過	-7.23625
觀	-7.23717
宫	-7.23798
兩	-7.24124
何	-7.24899
起	-7.25074
白	-7.2513
陰	-7.25514
世	-7.26425
食	-7.26793
帝	-7.26987
七	-7.27182
于	-7.27271
數	-7.28918
音	-7.29168
十	-7.29425
耳	-7.29452
門	-7.29957
空	-7.29995
雖	-7.30195
服	-7.30218
清	-7.3057
小	-7.30603
丹	-7.30743
月	-7.30811
體	-7.31381
公	-7.31587
飛	-7.3207
歸	-7.32874
龍	-7.32972
理	-7.33225
不可	-7.33901
定	-7.34566
反	-7.34726
聞	-7.3507
自然	-7.36423
始	-7.36716
運	-7.36914
萬	-7.36934
石	-7.37587
无	-7.37822
發	-7.37996
○	-7.38361
聖	-7.38481
實	-7.38689
求	-7.38949
意	-7.39125
章	-7.39143
功	-7.39205
不能	-7.39494
真	-7.39547
流	-7.39634
妙	-7.3969
高	-7.40153
傳	-7.40401
修	-7.40908
動	-7.40952
難	-7.41637
惡	-7.41965
而不	-7.42384
某	-7.42733
解	-7.42911
虚	-7.44822
各	-7.45154
家	-7.45676
華	-7.45779
守	-7.46209
病	-7.46759
土	-7.47493
衆	-7.47745
次	-7.48315
降	-7.48472
念	-7.48479
為	-7.4876
樂	-7.4894
易	-7.48968
邪	-7.49502
星	-7.49516
眞人	-7.5003
散	-7.50199
凡	-7.50893
變	-7.51174
說	-7.51396
民	-7.51431
年	-7.51584
等	-7.51608
天下	-7.51936
鬼	-7.52047
極	-7.52286
不得	-7.52414
結	-7.52676
平	-7.53567
口	-7.53609
初	-7.53833
木	-7.53938
官	-7.54614
國	-7.5479
信	-7.54891
失	-7.55164
黄	-7.55401
哉	-7.55812
利	-7.55834
願	-7.56459
離	-7.56812
惟	-7.57347
隨	-7.57583
遂	-7.57987
色	-7.58217
足	-7.59497
所以	-7.59622
止	-7.60617
好	-7.60708
藥	-7.60813
還	-7.6093
目	-7.61374
深	-7.62848
教	-7.62876
思	-7.63603
猶	-7.63816
周	-7.64247
南	-7.64791
更	-7.6547
少	-7.65776
蓋	-7.66244
青	-7.66411
絶	-7.66416
便	-7.67354
會	-7.67636
,	-7.67837
位	-7.67867
頭	-7.68048
隂	-7.68295
洞	-7.68333
宜	-7.68485
景	-7.6852
請	-7.69365
聲	-7.69543
靜	-7.69594
藏	-7.69598
終	-7.69722
致	-7.70118
且	-7.70237
女	-7.70911
養	-7.71413
全	-7.71642
義	-7.72529
莫	-7.7258
間	-7.72684
問	-7.72731
根	-7.73056
既	-7.73786
微	-7.73808
直	-7.73836
禮	-7.73962
並	-7.74073
香	-7.74186
左	-7.74188
俱	-7.74273
東	-7.7435
舉	-7.74574
福	-7.74587
交	-7.74968
情	-7.75499
馬	-7.76248
朝	-7.76343
百	-7.76374
節	-7.76886
著	-7.77107
北	-7.77114
右	-7.77317
故曰	-7.77447
奉	-7.7753
關	-7.77778
寳	-7.77797
息	-7.77899
▁大悲	-7.78082
不知	-7.78294
西	-7.78417
力	-7.7867
執	-7.7869
太	-7.78852
兵	-7.78979
齊	-7.79057
象	-7.79143
滅	-7.79187
廣	-7.79979
除	-7.80053
學	-7.80115
遊	-7.8022
赤	-7.80279
彼	-7.80493
萬物	-7.80578
志	-7.80755
隱	-7.80841
老	-7.81068
張	-7.81241
進	-7.81585
加	-7.81848
向	-7.81893
聖人	-7.82509
巳	-7.82794
伏	-7.83144
要	-7.83663
轉	-7.83665
但	-7.83939
以爲	-7.84231
苦	-7.84262
異	-7.84468
者也	-7.84545
司	-7.84761
乾	-7.84939
甚	-7.84947
語	-7.84966
固	-7.84976
衣	-7.86389
尊	-7.86544
都	-7.86545
須	-7.86559
坐	-7.86738
爾	-7.86859
積	-7.87011
可以	-7.87944
亂	-7.88053
夜	-7.88826
一切	-7.89186
勝	-7.89225
之道	-7.89239
之中	-7.89522
寒	-7.89525
切	-7.89538
之所	-7.89569
制	-7.90054
召	-7.90244
遠	-7.90489
號	-7.90714
告	-7.90996
謂之	-7.91163
遇	-7.91164
由	-7.91337
汝	-7.91522
貴	-7.91543
宗	-7.91726
攝	-7.92733
照	-7.93135
圖	-7.93571
論	-7.93576
指	-7.93778
罪	-7.93795
親	-7.93833
母	-7.9419
依	-7.94211
保	-7.94329
古	-7.94434
疾	-7.94633
陳	-7.95275
稱	-7.95462
滿	-7.95517
府	-7.95531
所謂	-7.95815
登	-7.95886
首	-7.96153
共	-7.96188
益	-7.96515
智	-7.96515
永	-7.96519
急	-7.97059
旣	-7.9714
殺	-7.97293
興	-7.97346
雷	-7.97584
日月	-7.97724
順	-7.97772
獨	-7.98177
畢	-7.98625
魂	-7.9878
任	-7.99132
幽	-7.99477
傷	-7.99598
▁右	-7.99612
視	-8.00712
引	-8.0072
海	-8.00982
斯	-8.01691
似	-8.01992
誠	-8.02068
紫	-8.02144
陰陽	-8.0245
具	-8.02485
花	-8.02883
呪	-8.02888
施	-8.02993
壇	-8.03122
忘	-8.03852
仁	-8.04042
戒	-8.04209
亡	-8.04347
素	-8.04396
注	-8.04507
别	-8.04616
己	-8.04662
識	-8.05004
持	-8.05059
對	-8.05182
備	-8.05195
果	-8.05239
感	-8.0538
臨	-8.05843
州	-8.05881
到	-8.06198
春	-8.06893
顯	-8.07549
太上	-8.07594
千	-8.07805
手	-8.08096
望	-8.08224
覺	-8.08747
雨	-8.09222
宿	-8.0933
酒	-8.09351
建	-8.0964
强	-8.09679
訣	-8.09788
賢	-8.1012
屬	-8.10163
⬤	-8.10171
輕	-8.10649
先生	-8.10845
卽	-8.1102
齋	-8.11263
血	-8.11745
骨	-8.11851
業	-8.12078
面	-8.12569
就	-8.12591
害	-8.12598
達	-8.12639
虛	-8.12646
悟	-8.12717
豈	-8.12737
熱	-8.13033
造	-8.13134
唯	-8.1317
集	-8.13226
奏	-8.13882
尚	-8.1399
喜	-8.14032
十二	-8.14238
消	-8.14283
士	-8.14345
容	-8.14534
品	-8.15132
列	-8.15216
室	-8.15619
授	-8.15797
却	-8.16418
破	-8.16491
了	-8.16504
斗	-8.16509
收	-8.16512
往	-8.16571
近	-8.16946
路	-8.17015
斷	-8.17067
愛	-8.17736
乘	-8.17889
布	-8.18666
勿	-8.19111
升	-8.19499
盛	-8.19614
聽	-8.19828
虎	-8.19844
機	-8.19946
報	-8.1995
再	-8.20141
承	-8.20145
草	-8.20261
宣	-8.20266
恩	-8.2093
封	-8.21193
留	-8.21267
半	-8.21754
回	-8.21797
悉	-8.21823
塵	-8.2216
仰	-8.22577
黑	-8.22806
御	-8.22945
朱	-8.23066
林	-8.23107
車	-8.23386
窮	-8.23615
卷	-8.2363
期	-8.2368
大道	-8.23703
儀	-8.24603
如此	-8.2513
威	-8.25144
九天	-8.25321
眞君	-8.25379
逆	-8.25565
:	-8.25589
餘	-8.26005
是以	-8.2605
羅	-8.26185
謹	-8.26654
神仙	-8.27013
辭	-8.27139
凝	-8.27288
鍊	-8.27747
簡	-8.27775
累	-8.27939
父	-8.28215
久	-8.28444
李	-8.28657
并	-8.28911
俗	-8.29116
毒	-8.29152
城	-8.29179
濟	-8.29626
新	-8.29776
聚	-8.30106
敬	-8.30109
吉	-8.30407
祖	-8.30515
申	-8.30622
無爲	-8.30756
末	-8.31077
禍	-8.3113
人之	-8.31693
壽	-8.3194
適	-8.32113
啓	-8.32503
載	-8.32774
▁人	-8.33373
速	-8.33616
氏	-8.33638
禁	-8.3371
印	-8.33759
曲	-8.33798
圓	-8.33867
損	-8.33871
退	-8.34436
遺	-8.34579
被	-8.34624
落	-8.34651
歲	-8.34702
休	-8.34826
録	-8.34842
境	-8.34924
部	-8.35003
普	-8.35055
妄	-8.35269
記	-8.35333
凶	-8.35728
脉	-8.3574
弟子	-8.35854
長生	-8.36156
證	-8.36508
魚	-8.3651
每	-8.36754
漢	-8.36792
坤	-8.36916
調	-8.37097
髙	-8.37496
垂	-8.37527
刑	-8.37582
夢	-8.37693
浮	-8.3796
堅	-8.38033
變化	-8.38038
許	-8.38195
總	-8.38235
厚	-8.383
美	-8.38303
葉	-8.38342
十方	-8.38354
疑	-8.38434
患	-8.38578
澤	-8.3858
迷	-8.38613
胎	-8.38644
痛	-8.38785
良	-8.38796
表	-8.39225
住	-8.39472
愈	-8.39533
放	-8.39604
是也	-8.40279
五行	-8.4032
甲	-8.4101
呼	-8.41052
姓	-8.41095
然後	-8.41221
計	-8.41327
乗	-8.4174
尋	-8.42051
舍	-8.42093
篇	-8.4214
想	-8.42163
憂	-8.42233
也故	-8.42249
延	-8.42287
堂	-8.42329
臺	-8.42341
諸天	-8.4236
無所	-8.42542
三界	-8.42565
咸	-8.42612
考	-8.42694
恐	-8.42882
劫	-8.43196
徒	-8.43394
縁	-8.43533
寶	-8.43814
慈	-8.43966
榮	-8.44011
秋	-8.44265
冥	-8.44287
候	-8.44323
質	-8.44363
道士	-8.44414
珠	-8.44548
玉女	-8.44594
夏	-8.44834
之時	-8.44867
參	-8.44912
。	-8.44988
真人	-8.45038
辰	-8.45069
味	-8.45123
遣	-8.45173
而已	-8.45272
狀	-8.45325
上清	-8.45658
愚	-8.45762
使者	-8.45901
懷	-8.46023
他	-8.46083
謝	-8.46151
魄	-8.46266
耶	-8.46444
代	-8.46495
拜	-8.46521
兮	-8.46576
田	-8.46617
皇	-8.47025
按	-8.47062
中有	-8.47098
賜	-8.47391
鉛	-8.47743
之人	-8.47775
釋	-8.48277
紀	-8.48307
覆	-8.48312
設	-8.48372
飲	-8.48609
忽	-8.48745
爭	-8.4882
投	-8.48836
敗	-8.48903
棄	-8.48908
汞	-8.48963
伯	-8.49121
谷	-8.49435
誦	-8.49449
崇	-8.49534
類	-8.49581
歌	-8.49695
湯	-8.49837
假	-8.4986
震	-8.50402
露	-8.50531
慶	-8.50659
獲	-8.50722
犯	-8.50735
待	-8.50779
救	-8.50787
T	-8.50842
客	-8.50852
E	-8.50861
▁#+	-8.50882
黃	-8.50937
武	-8.51428
左右	-8.51536
▁道	-8.51567
温	-8.51797
推	-8.51836
冠	-8.52032
災	-8.52121
於是	-8.52128
昔	-8.52185
含	-8.52545
比	-8.52738
牛	-8.52772
漸	-8.52774
鬼神	-8.52924
眼	-8.52991
種	-8.53036
原	-8.5331
細	-8.53939
帝君	-8.54287
昇	-8.54472
天帝	-8.54571
閉	-8.54613
元始	-8.54878
示	-8.54998
予	-8.55378
幾	-8.55501
鼎	-8.55618
超	-8.55671
勞	-8.55775
腎	-8.5583
看	-8.55906
淨	-8.56004
太一	-8.56017
▁䟽	-8.5637
返	-8.56503
驚	-8.56551
吏	-8.56597
輪	-8.56675
將軍	-8.56744
魔	-8.56919
危	-8.57086
寧	-8.57234
履	-8.576
庭	-8.57757
之間	-8.57864
卦	-8.5814
蒙	-8.5839
兆	-8.58473
連	-8.58544
江	-8.58869
紅	-8.5922
駕	-8.59232
職	-8.59324
嚴	-8.59328
之法	-8.59388
一日	-8.59488
詩	-8.59595
嘗	-8.59808
專	-8.60019
只	-8.60152
源	-8.60291
三元	-8.60322
河	-8.60671
縣	-8.60677
上下	-8.60681
移	-8.60717
隂陽	-8.60723
置	-8.60811
▁太上	-8.61178
泉	-8.61356
軍	-8.61441
兼	-8.61507
領	-8.61768
昌	-8.61769
逐	-8.61771
接	-8.62119
肉	-8.62188
薄	-8.62215
端	-8.62309
舊	-8.62332
卒	-8.62594
衰	-8.6267
違	-8.62696
生死	-8.62797
剛	-8.62899
差	-8.62987
肝	-8.63035
也夫	-8.63349
走	-8.63509
之氣	-8.63534
惠	-8.63603
輔	-8.63625
昭	-8.63714
奇	-8.63868
勑	-8.63966
一名	-8.64079
負	-8.64159
謀	-8.64215
不敢	-8.64262
器	-8.64299
術	-8.64384
角	-8.64508
之後	-8.64551
喪	-8.64597
羽	-8.64693
煉	-8.64795
唐	-8.64893
契	-8.64963
迹	-8.65168
慮	-8.65365
盈	-8.65377
靈寳	-8.65607
侍	-8.6582
衛	-8.65993
務	-8.66059
鳥	-8.66113
童	-8.66327
補	-8.66383
殿	-8.66409
乆	-8.66577
衆生	-8.66589
背	-8.67223
財	-8.67545
掌	-8.67769
不見	-8.67956
察	-8.68006
孝	-8.68055
淵	-8.68067
㑹	-8.68075
之上	-8.68171
恭	-8.68266
至於	-8.68271
而無	-8.68281
煙	-8.68415
君子	-8.68465
燒	-8.68513
遷	-8.68534
貪	-8.68555
而後	-8.68745
鳴	-8.68875
吐	-8.69411
裏	-8.69447
諱	-8.69619
)(	-8.69778
太極	-8.69819
其所	-8.6994
越	-8.70069
仍	-8.70164
混	-8.70231
納	-8.70402
役	-8.70844
水火	-8.70958
劉	-8.71004
肺	-8.71172
乾坤	-8.71312
鐵	-8.71398
坎	-8.7147
得道	-8.71481
大神	-8.71693
遍	-8.71767
是謂	-8.71897
帶	-8.72069
闕	-8.72088
殊	-8.72125
特	-8.72279
戰	-8.72335
梁	-8.72347
政	-8.72461
午	-8.72513
蟲	-8.72547
晨	-8.72608
造化	-8.72777
游	-8.72856
籙	-8.72999
雜	-8.73007
光明	-8.73262
科	-8.73293
烏	-8.73401
井	-8.73536
有所	-8.73537
資	-8.7364
權	-8.73642
丘	-8.73688
干	-8.73752
詣	-8.74081
籍	-8.74115
誰	-8.7414
之炁	-8.74186
牒	-8.74395
瓊	-8.7442
詞	-8.74479
如是	-8.74499
採	-8.74562
賊	-8.7459
寂	-8.74714
詳	-8.74887
步	-8.74898
慧	-8.74982
笑	-8.74994
父母	-8.75215
服之	-8.75323
秦	-8.75434
尸	-8.75453
序	-8.75633
道德	-8.75663
統	-8.75772
條	-8.75826
宅	-8.75993
早	-8.76257
冬	-8.76265
式	-8.76373
燈	-8.76375
典	-8.7648
名曰	-8.76548
樹	-8.76553
宋	-8.76927
抱	-8.77002
無窮	-8.77217
房	-8.77432
界	-8.77521
喻	-8.77535
刻	-8.77628
迎	-8.77704
野	-8.77817
塞	-8.77971
耀	-8.78207
勤	-8.78228
英	-8.78346
筆	-8.78595
五帝	-8.78684
私	-8.78794
冷	-8.79078
富	-8.79177
免	-8.79317
而爲	-8.7944
密	-8.79442
才	-8.79658
怒	-8.79713
i	-8.79741
泰	-8.79772
甘	-8.79859
曹	-8.80018
營	-8.80048
穢	-8.80077
玉清	-8.80159
不足	-8.8022
沉	-8.80263
敕	-8.80366
克	-8.80492
送	-8.80564
爲之	-8.80802
助	-8.81053
内外	-8.81068
律	-8.81203
辯	-8.81233
之事	-8.81252
乞	-8.81306
揚	-8.81363
伐	-8.81709
侯	-8.81776
錢	-8.81783
護	-8.82034
習	-8.82205
功德	-8.82275
祝	-8.82291
老君	-8.82396
鳳	-8.82452
附	-8.82624
鼓	-8.82679
奔	-8.82775
獄	-8.82806
勢	-8.8307
忠	-8.83073
徹	-8.83136
熟	-8.83174
育	-8.83471
效	-8.83525
弱	-8.83588
幸	-8.83677
男	-8.83826
經云	-8.83869
夷	-8.83929
濁	-8.84034
柔	-8.84141
怨	-8.84348
淸	-8.84351
星君	-8.84593
之心	-8.84811
量	-8.84963
迴	-8.85087
皮	-8.85113
招	-8.85336
縱	-8.85358
充	-8.85433
兹	-8.85474
R	-8.85558
脾	-8.8567
宮	-8.85712
不爲	-8.85749
池	-8.85955
廟	-8.86
驗	-8.86175
祈	-8.86281
約	-8.86337
追	-8.86565
顧	-8.86655
閑	-8.86831
跡	-8.8696
鼻	-8.87025
夫人	-8.87084
趙	-8.87178
人也	-8.87311
敢	-8.87473
逺	-8.87686
秀	-8.87753
佛	-8.87842
羣	-8.8802
銀	-8.88056
昏	-8.88079
逢	-8.88099
穴	-8.88208
脫	-8.88266
省	-8.88286
鎭	-8.88297
生於	-8.88368
童子	-8.88406
於此	-8.88462
户	-8.89278
而生	-8.89427
碧	-8.89432
廢	-8.89509
上帝	-8.89612
惑	-8.89688
畫	-8.89813
暴	-8.89947
歷	-8.89971
四時	-8.90128
傾	-8.90178
希	-8.9025
怪	-8.90252
群	-8.90281
畏	-8.90453
管	-8.90465
獻	-8.90532
蕩	-8.90713
現	-8.90773
t	-8.90981
寄	-8.91031
付	-8.91184
o	-8.91374
三十六	-8.91402
r	-8.91403
二十	-8.9143
卿	-8.91698
余	-8.91935
陵	-8.91992
徐	-8.92099
影	-8.92171
蛇	-8.9238
讀	-8.92385
鎮	-8.92574
波	-8.92615
太陽	-8.92822
最	-8.92968
金丹	-8.93231
元君	-8.93276
塗	-8.9373
精神	-8.93791
㫖	-8.93816
均	-8.93818
偏	-8.94151
津	-8.94154
之以	-8.9418
無極	-8.94342
之士	-8.94359
停	-8.94498
映	-8.94699
悲	-8.94714
徃	-8.94819
腹	-8.94991
砂	-8.95361
老子	-8.95432
註	-8.95571
卧	-8.95811
禄	-8.95898
工	-8.95924
扶	-8.95983
監	-8.96166
無有	-8.96298
□	-8.96307
改	-8.96337
折	-8.96372
霞	-8.96459
無不	-8.96737
奪	-8.97053
庶	-8.97056
里	-8.97187
丁	-8.97202
男女	-8.97257
松	-8.9728
曜	-8.97332
懸	-8.97449
兒	-8.97481
敵	-8.97675
世人	-8.97788
毛	-8.98029
盜	-8.98035
雪	-8.98131
錬	-8.98188
汁	-8.9819
▁志心朝禮	-8.98223
醮	-8.98371
尤	-8.98429
孤	-8.98516
焚	-8.98518
而成	-8.9863
仲	-8.98645
格	-8.98734
楚	-8.98975
貞	-8.99016
賤	-8.99081
第一	-8.99139
巽	-8.99144
泥	-8.99214
竹	-8.99305
宇	-8.99614
五色	-8.99645
詔	-8.99662
之内	-8.99766
枝	-8.99938
鶴	-9.00019
5	-9.00066
哀	-9.00106
五嶽	-9.00159
徳	-9.00204
孫	-9.00379
弗	-9.00467
胡	-9.005
潜	-9.00567
出入	-9.00722
友	-9.00825
雄	-9.01021
魏	-9.01345
液	-9.01441
灰	-9.01575
吹	-9.01705
地獄	-9.01721
頂	-9.01727
純	-9.01744
刀	-9.01754
是非	-9.01942
知其	-9.0195
二十四	-9.01985
宻	-9.02074
萬神	-9.02248
道之	-9.02404
妖	-9.02463
貫	-9.02477
係	-9.0249
煞	-9.02525
北斗	-9.02592
不同	-9.0267
緑	-9.02689
祥	-9.02817
今日	-9.0287
寅	-9.02875
披	-9.02994
敷	-9.03017
祕	-9.03242
曾	-9.03247
試	-9.0329
是故	-9.03368
竟	-9.03396
盟	-9.03401
潤	-9.03486
旋	-9.03512
佩	-9.03518
三年	-9.03548
巧	-9.0355
滯	-9.03561
淫	-9.03604
像	-9.0366
用之	-9.03733
故能	-9.03861
座	-9.03869
洪	-9.039
索	-9.04125
行之	-9.0427
歩	-9.04294
横	-9.04333
句	-9.04531
三十	-9.04553
神明	-9.0458
之精	-9.04665
責	-9.047
循	-9.04702
捨	-9.0486
禀	-9.04946
否	-9.05015
徧	-9.05178
暗	-9.05361
▁夫	-9.05476
刺	-9.05493
委	-9.05559
澄	-9.05564
誓	-9.05805
拔	-9.05809
商	-9.05865
a	-9.05921
徑	-9.05972
攻	-9.06024
吟	-9.06136
c	-9.06243
述	-9.06344
舟	-9.06388
之功	-9.06448
故云	-9.06488
殃	-9.06501
令人	-9.06518
增	-9.06634
化爲	-9.06736
孔	-9.06792
壯	-9.06985
丸	-9.07131
勸	-9.07178
史	-9.07346
▁又	-9.07378
際	-9.074
b	-9.07407
孔子	-9.07637
貌	-9.0771
據	-9.07747
巨	-9.07796
之則	-9.07976
先天	-9.08053
鄉	-9.08107
雙	-9.08254
蒼	-9.08278
擊	-9.08318
金闕	-9.0835
齒	-9.08511
孰	-9.08529
天下之	-9.08607
不以	-9.08985
一人	-9.09188
晋	-9.09233
騰	-9.09565
之理	-9.09809
曉	-9.10212
朗	-9.10236
彰	-9.10333
陸	-9.10462
祭	-9.10601
天道	-9.10689
驅	-9.10704
髮	-9.10736
斬	-9.10782
輝	-9.10969
十五	-9.11113
誅	-9.11259
卯	-9.11522
唱	-9.1164
貧	-9.11862
e	-9.11982
狂	-9.12009
舌	-9.1201
煎	-9.12156
不及	-9.12296
繼	-9.1235
三日	-9.12419
慕	-9.12434
邊	-9.12435
略	-9.12609
儒	-9.12636
獸	-9.12643
龜	-9.13068
有餘	-9.13078
逸	-9.13171
馳	-9.132
爐	-9.13414
訖	-9.13458
率	-9.13479
以此	-9.1382
沈	-9.13921
院	-9.13943
康	-9.14035
鑒	-9.14102
避	-9.14135
吸	-9.14205
辛	-9.14314
鬱	-9.14329
没	-9.14356
修行	-9.14425
錫	-9.14427
季	-9.1455
辱	-9.14652
阿	-9.14796
天地之	-9.15147
産	-9.15278
提	-9.15317
劍	-9.15376
豐	-9.15423
洗	-9.155
羊	-9.15534
忌	-9.16036
▁次	-9.16043
輿	-9.1625
四方	-9.16316
包	-9.16601
爽	-9.1665
演	-9.16818
黄帝	-9.16852
彌	-9.16853
把	-9.16862
市	-9.16885
泄	-9.16934
東方	-9.17034
雷霆	-9.17069
審	-9.17078
苟	-9.17092
繫	-9.17246
何以	-9.17248
亦不	-9.17249
巖	-9.17282
灾	-9.17613
賞	-9.17649
天之	-9.1773
楊	-9.17735
潔	-9.17776
竅	-9.17948
梵	-9.18119
薦	-9.18135
䰟	-9.18196
無形	-9.18455
點	-9.18464
魯	-9.18492
赴	-9.18565
北方	-9.18714
之意	-9.18748
郭	-9.18831
活	-9.18841
恒	-9.18991
人間	-9.19125
竊	-9.19131
響	-9.19248
佐	-9.1925
毋	-9.1928
天門	-9.19325
嘉	-9.19328
其心	-9.1934
仁義	-9.19434
逍遥	-9.19475
炎	-9.19548
靈官	-9.19611
者皆	-9.19628
煩	-9.19725
維	-9.19739
疏	-9.19755
脩	-9.19794
而有	-9.19826
妻	-9.19946
律令	-9.1995
不生	-9.19975
誤	-9.19996
翼	-9.20015
環	-9.20125
衝	-9.20189
昧	-9.20203
决	-9.20229
霜	-9.20244
旦	-9.204
艮	-9.205
之下	-9.20566
默	-9.20606
司命	-9.20621
䟽	-9.20814
射	-9.20854
短	-9.20854
無量	-9.20874
厥	-9.20909
答	-9.20926
其身	-9.20954
▁月	-9.21054
辟	-9.21102
芝	-9.21211
學者	-9.21315
博	-9.21392
中央	-9.21474
天師	-9.21474
三天	-9.21527
厄	-9.21553
不用	-9.21577
是爲	-9.2162
㝠	-9.21621
愆	-9.21709
吞	-9.21745
弘	-9.21771
飾	-9.21808
又曰	-9.21859
議	-9.21878
峰	-9.21886
至道	-9.21916
學道	-9.22078
尾	-9.2231
俾	-9.22345
頓	-9.22371
燕	-9.22384
趣	-9.22406
龍虎	-9.22417
溪	-9.22431
之日	-9.22654
鍾	-9.22665
懼	-9.22774
醉	-9.22786
川	-9.22904
瑞	-9.22911
行道	-9.23009
法師	-9.23048
蜀	-9.23095
况	-9.23117
隆	-9.23181
況	-9.23226
騎	-9.23314
振	-9.23424
寫	-9.23547
世間	-9.23551
訓	-9.23623
染	-9.23695
伏願	-9.23859
▁帝	-9.23874
出於	-9.23946
南方	-9.23988
謙	-9.24071
陶	-9.24079
之言	-9.24083
屋	-9.24157
覩	-9.24207
底	-9.24239
兊	-9.24257
吴	-9.24259
京	-9.24331
煥	-9.24352
仙人	-9.24396
談	-9.24413
泥丸	-9.24449
也若	-9.24456
之妙	-9.2448
竭	-9.24553
黒	-9.24658
拘	-9.24707
眾	-9.24744
晝夜	-9.24753
不可以	-9.24759
紙	-9.25051
亦有	-9.25085
沙	-9.25129
若有	-9.25131
肅	-9.25145
偶	-9.25217
得其	-9.25254
▁無註	-9.25264
三五	-9.25268
顔	-9.25398
未嘗	-9.25419
僞	-9.25448
嗣	-9.25538
十一	-9.25568
操	-9.25609
急急如	-9.25612
燭	-9.25678
託	-9.25728
嶽	-9.25768
壞	-9.2577
瘡	-9.25898
之神	-9.25986
頌	-9.26009
各有	-9.26043
霄	-9.26191
觸	-9.26285
綱	-9.26421
謁	-9.26424
曰吾	-9.26467
急急如律令	-9.26713
爲人	-9.26747
夀	-9.26809
酉	-9.26855
樓	-9.26999
言之	-9.27002
叔	-9.27091
百姓	-9.27134
五方	-9.27231
席	-9.27308
限	-9.27314
第	-9.27338
稽首	-9.27402
晝	-9.27455
大將軍	-9.27473
莫不	-9.27618
芒	-9.27623
吕	-9.27661
太清	-9.27665
尺	-9.27805
盖	-9.2786
卑	-9.27919
堪	-9.28025
導	-9.28051
庚	-9.28107
使人	-9.28152
咽	-9.2831
大帝	-9.28311
給	-9.28312
盤	-9.28481
子孫	-9.28698
欺	-9.28824
奚	-9.28875
烈	-9.28925
辨	-9.29125
罰	-9.29131
旨	-9.29149
漏	-9.29156
旛	-9.29214
屈	-9.2922
蘇	-9.29255
膏	-9.29313
愼	-9.29439
性命	-9.2951
翠	-9.29532
郡	-9.29568
堯	-9.29683
▁註	-9.29766
大聖	-9.29779
奉行	-9.29799
則有	-9.29862
階	-9.2999
者不	-9.30039
基	-9.30138
鏡	-9.30206
亥	-9.30298
防	-9.30321
穀	-9.30456
功曹	-9.30521
道君	-9.3068
祠	-9.30705
勇	-9.30941
究	-9.31107
案	-9.31184
▁注	-9.31208
暉	-9.31219
錯	-9.31322
天人	-9.31343
淺	-9.31363
一時	-9.31393
胃	-9.31432
摩	-9.31738
滋	-9.31939
亭	-9.32015
厭	-9.3202
一兩	-9.32047
沖	-9.32102
弟	-9.32278
呪曰	-9.32299
可謂	-9.32371
殘	-9.32389
火候	-9.32547
清淨	-9.3257
困	-9.32764
脚	-9.32832
雞	-9.32899
第二	-9.32918
融	-9.33009
歡	-9.33292
之地	-9.33347
檢	-9.33506
配	-9.33529
壁	-9.33601
毁	-9.3362
墨	-9.33676
倒	-9.33679
▁上清	-9.33683
寡	-9.33846
三官	-9.33858
沐浴	-9.33865
灌	-9.34099
竒	-9.3419
知之	-9.34193
再拜	-9.34293
枯	-9.34412
侵	-9.34422
身中	-9.34499
七日	-9.34503
研	-9.34561
三光	-9.3466
道者	-9.34689
亦可	-9.34707
悔	-9.34747
西方	-9.34752
祐	-9.3476
杖	-9.34938
矜	-9.35075
五藏	-9.35084
元氣	-9.35099
編	-9.35139
智慧	-9.35222
粉	-9.35241
開度	-9.35278
道也	-9.35294
伸	-9.35393
絳	-9.35395
帥	-9.35495
冀	-9.35823
遭	-9.36003
又云	-9.36087
緣	-9.3623
足以	-9.3624
度人	-9.36527
以其	-9.36563
供養	-9.36893
佳	-9.36909
隔	-9.37036
戴	-9.37075
仙官	-9.37096
嬰	-9.37106
醫	-9.37361
蔽	-9.37435
▁又方	-9.3749
子曰	-9.37509
罡	-9.37559
桃	-9.37565
必有	-9.37751
玉帝	-9.37801
校	-9.38039
側	-9.38042
▁年	-9.38052
杜	-9.38104
一身	-9.3812
元帥	-9.38204
秘	-9.38263
其道	-9.38292
軒	-9.3838
死生	-9.38443
墮	-9.38472
上元	-9.38513
善惡	-9.38525
鄭	-9.38564
大小	-9.38713
俯	-9.38779
赦	-9.3883
享	-9.38899
抑	-9.38933
婦	-9.38933
g	-9.38941
叩	-9.39075
畜	-9.39148
冲	-9.39235
丑	-9.39326
荒	-9.39353
岀	-9.39414
濕	-9.39459
題	-9.39478
者爲	-9.39489
米	-9.39508
策	-9.39553
晦	-9.39585
下降	-9.39679
域	-9.39686
太平	-9.39742
廉	-9.39807
煑	-9.40026
規	-9.40159
庸	-9.40201
錦	-9.40401
雖有	-9.40404
十四	-9.40411
者是	-9.40454
之門	-9.40608
瞻	-9.40663
富貴	-9.40698
翁	-9.40708
膽	-9.40765
之數	-9.40855
遵	-9.40901
趨	-9.41014
於人	-9.41127
十八	-9.41157
肆	-9.41353
乳	-9.41658
其中	-9.41699
舞	-9.41727
之義	-9.41848
第三	-9.41857
如何	-9.41879
占	-9.41902
萬里	-9.4195
之謂	-9.42051
九幽	-9.42255
真君	-9.42258
十六	-9.42351
預	-9.42377
此經	-9.42456
賔	-9.42463
還丹	-9.42465
憑	-9.4261
靑	-9.42639
那	-9.42769
帝王	-9.42823
險	-9.42867
麗	-9.42936
班	-9.43006
腦	-9.43031
牙	-9.43145
太玄	-9.43211
電	-9.43268
得之	-9.43327
虧	-9.4334
丈人	-9.4336
茂	-9.43438
不動	-9.43542
爻	-9.4365
鮮	-9.43811
劒	-9.43874
弊	-9.43876
自有	-9.43938
者必	-9.43968
三寳	-9.43996
風雨	-9.44094
魂魄	-9.4416
天子	-9.44164
咎	-9.44196
祀	-9.44225
霧	-9.44228
金光	-9.44336
夭	-9.44341
訟	-9.44375
溺	-9.44397
無上	-9.4441
西北	-9.44503
禪	-9.44572
篆	-9.44583
鸞	-9.44607
韓	-9.44695
蘭	-9.44991
不死	-9.44996
至眞	-9.45004
慈悲	-9.45107
徵	-9.45172
歳	-9.45459
十三	-9.45555
孟	-9.45756
靖	-9.45783
傍	-9.45984
混沌	-9.45989
箇	-9.46116
郷	-9.46259
五臟	-9.46307
逃	-9.46309
物之	-9.46325
之名	-9.4642
神王	-9.46474
名爲	-9.46497
激	-9.46571
續	-9.46581
捉	-9.46652
分明	-9.46829
標	-9.46833
太虚	-9.47022
寢	-9.47255
僧	-9.47285
飲食	-9.47321
着	-9.47367
草木	-9.4745
答曰	-9.47485
一炁	-9.47559
障	-9.47564
夕	-9.47602
東南	-9.47611
而不知	-9.47845
往來	-9.47899
暮	-9.47955
之外	-9.47963
訪	-9.48063
遲	-9.48065
尅	-9.48075
禱	-9.48131
説	-9.48158
途	-9.48165
八卦	-9.48195
棲	-9.48283
禹	-9.48343
慢	-9.48347
也此	-9.48404
摧	-9.48452
供	-9.48468
筭	-9.48521
又有	-9.48562
不信	-9.4866
▁凡	-9.48724
者非	-9.48901
旁	-9.49049
緫	-9.49065
符命	-9.4909
K	-9.49122
透	-9.4913
舒	-9.49139
魁	-9.49193
競	-9.49374
則爲	-9.49443
扵	-9.495
人心	-9.49506
幻	-9.49838
而行	-9.49853
煮	-9.49866
蒸	-9.49876
歟	-9.49973
傅	-9.50063
稍	-9.50177
嬰兒	-9.5043
乖	-9.50474
巾	-9.50587
十月	-9.50657
不如	-9.50667
珍	-9.50676
○)	-9.50696
樞	-9.50706
不復	-9.50789
犬	-9.50846
小人	-9.5093
清靜	-9.50956
▲	-9.51038
食之	-9.51183
鹽	-9.51242
則不	-9.51418
三洞	-9.51434
寸	-9.51436
淡	-9.51457
不過	-9.5146
打	-9.51551
然而	-9.51696
千里	-9.51727
莊子	-9.51771
稽	-9.5178
涉	-9.51853
不欲	-9.51973
銅	-9.52101
一年	-9.52141
療	-9.52188
恃	-9.5231
與之	-9.52313
樸	-9.5232
峯	-9.52352
者有	-9.52362
借	-9.52438
遥	-9.52472
烟	-9.5254
支	-9.52617
乙	-9.52653
紫微	-9.5279
大夫	-9.52829
水銀	-9.52853
削	-9.52881
人身	-9.52886
經曰	-9.53167
歎	-9.53311
霹靂	-9.53345
丹田	-9.53383
桑	-9.53405
擇	-9.53499
單	-9.5354
而去	-9.53596
天中	-9.53729
費	-9.53753
暫	-9.53796
邑	-9.53805
也今	-9.53897
崖	-9.54078
上天	-9.5408
絡	-9.5428
至人	-9.54347
玄都	-9.54569
12	-9.54757
號曰	-9.5484
腫	-9.54846
s	-9.54887
ma	-9.54898
輒	-9.55002
完	-9.5516
磨	-9.55162
缺	-9.55189
丹砂	-9.55231
.	-9.55289
柱	-9.55326
廻	-9.55336
賦	-9.5534
範	-9.55408
讓	-9.55447
宴	-9.55534
針	-9.55585
冰	-9.55648
植	-9.55775
圍	-9.55789
懴	-9.55922
允	-9.5594
上聖	-9.55997
淳	-9.56121
凌	-9.5621
二人	-9.5622
筋	-9.56342
宰	-9.56388
閣	-9.56393
貨	-9.56506
悅	-9.5673
百日	-9.56733
柳	-9.57011
p	-9.57022
的	-9.57057
無心	-9.57067
爲一	-9.57209
四海	-9.57278
賴	-9.57313
材	-9.57337
h	-9.57373
▁右符	-9.57565
飢	-9.57567
族	-9.576
018	-9.57606
禳	-9.5763
也其	-9.57805
無名	-9.57886
繁	-9.57959
上昇	-9.57961
者以	-9.57989
倫	-9.58047
无極	-9.58066
程	-9.58074
溢	-9.5816
自在	-9.58162
天眞	-9.58258
躬	-9.58286
混合	-9.58297
墜	-9.5843
白虎	-9.58455
不成	-9.58685
三清	-9.58765
七祖	-9.58793
之際	-9.588
天上	-9.58829
萬劫	-9.58996
A	-9.59023
U	-9.59023
撫	-9.59068
藉	-9.59083
則無	-9.59095
天君	-9.59128
上有	-9.5913
太素	-9.59177
穿	-9.5924
爰	-9.5926
舜	-9.59261
旬	-9.59289
長存	-9.59429
荷	-9.59443
忍	-9.59487
汗	-9.59632
不相	-9.59648
朱書	-9.59681
▁2	-9.59737
后	-9.59792
司馬	-9.59878
其神	-9.5994
者亦	-9.59943
撰	-9.60005
姦	-9.6002
不離	-9.60042
5-	-9.6017
-0	-9.60193
古今	-9.60253
未有	-9.60359
眉	-9.60396
六甲	-9.60405
太隂	-9.6041
山川	-9.60458
m	-9.60511
於天	-9.60519
於道	-9.60544
D	-9.60581
C	-9.60582
L	-9.60642
兄	-9.60645
O	-9.60763
S	-9.60763
I	-9.60764
u	-9.60764
n	-9.60764
k	-9.60765
自得	-9.60841
三千	-9.6088
禽	-9.60934
翻	-9.61006
酆都	-9.61009
未能	-9.61188
之物	-9.61209
因縁	-9.61276
八景	-9.61345
暢	-9.61427
仗	-9.61554
不勝	-9.61721
西南	-9.61801
添	-9.6189
緩	-9.62023
寵	-9.62153
殆	-9.6218
上眞	-9.62306
逹	-9.62317
瑩	-9.62396
鹿	-9.62442
第四	-9.62537
譽	-9.62591
拂	-9.62654
北極	-9.6269
有一	-9.62707
苗	-9.62717
眞文	-9.62785
動靜	-9.62798
洞天	-9.62827
燒香	-9.62863
不出	-9.62878
之道也	-9.62986
古之	-9.63018
各一	-9.6304
館	-9.63144
虚無	-9.63267
橋	-9.63276
生成	-9.63293
鴻	-9.63332
值	-9.63462
世之	-9.63583
毎	-9.63646
厲	-9.63711
戲	-9.63851
纔	-9.63898
五日	-9.64105
玉皇	-9.64135
詠	-9.64268
莊	-9.64287
而能	-9.6439
鑑	-9.64461
一氣	-9.64635
之用	-9.64692
惜	-9.64732
渾	-9.64804
春秋	-9.64806
五星	-9.64966
東北	-9.64991
呼吸	-9.65015
飛仙	-9.65055
飛天	-9.65088
倚	-9.65153
芳	-9.65233
衡	-9.65304
此言	-9.65309
後世	-9.65333
不足以	-9.65488
與人	-9.65511
陽氣	-9.65517
腰	-9.65538
諸侯	-9.65594
道人	-9.65649
坎離	-9.65653
碎	-9.65653
人有	-9.65769
曰此	-9.65772
此是	-9.66262
本命	-9.66312
見其	-9.66391
罔	-9.66394
割	-9.66425
髓	-9.6643
其人	-9.66472
誕	-9.66573
言其	-9.66575
靡	-9.66662
者乃	-9.66697
蓮	-9.66717
一如	-9.66718
至于	-9.66763
罷	-9.66844
焦	-9.66874
浪	-9.66951
介	-9.66962
不必	-9.67012
一斤	-9.67056
衞	-9.67182
戌	-9.6723
報應	-9.67317
急急	-9.67456
吿	-9.67477
彩	-9.67497
儉	-9.67643
皆有	-9.67667
腸	-9.67697
化生	-9.67724
秉	-9.67781
聞之	-9.67781
姓名	-9.67857
純陽	-9.67873
億	-9.67895
枉	-9.67911
亦無	-9.6805
爛	-9.68059
遁	-9.68149
身心	-9.68174
判	-9.68196
雷公	-9.68334
臻	-9.68345
不在	-9.68392
萬靈	-9.68403
於物	-9.68415
常以	-9.68559
葬	-9.68683
鑿	-9.68687
滑	-9.68713
人皆	-9.68822
姑	-9.68842
桂	-9.68845
以成	-9.68922
翳	-9.68936
掩	-9.69154
神氣	-9.69209
項	-9.6925
遐	-9.69257
革	-9.6931
便是	-9.69334
甲子	-9.6952
矣故	-9.69532
之至	-9.69701
無常	-9.6975
網	-9.69792
故也	-9.69861
不失	-9.69874
篤	-9.69961
太陰	-9.69974
種種	-9.70086
詐	-9.70112
寓	-9.7018
誥	-9.70283
之象	-9.70301
萌	-9.70308
併	-9.70412
之初	-9.70434
吒	-9.70467
無事	-9.70499
十七	-9.70572
分别	-9.70588
然則	-9.70637
尙	-9.70677
生人	-9.70693
而得	-9.70716
豈不	-9.70725
魔王	-9.70774
我身	-9.70775
垢	-9.70926
曷	-9.70947
飯	-9.71014
哭	-9.71015
握	-9.71017
之罪	-9.71107
彭	-9.71146
左手	-9.7118
窺	-9.71213
社	-9.71356
耗	-9.71423
之術	-9.71468
即是	-9.71499
所在	-9.7153
夫子	-9.71559
世界	-9.71701
治之	-9.71749
者則	-9.71776
妙道	-9.71893
▁具位	-9.71994
捧	-9.7207
功成	-9.7214
匪	-9.72228
俟	-9.72232
而不能	-9.72233
六合	-9.72326
覽	-9.7234
行持	-9.72397
掃	-9.72445
神靈	-9.72456
誦經	-9.72471
虞	-9.72657
之本	-9.72684
卜	-9.72703
二年	-9.72764
也故曰	-9.72795
太微	-9.72829
戸	-9.72864
講	-9.72892
其德	-9.72901
太乙	-9.72919
見之	-9.72971
旺	-9.73046
以來	-9.73072
弦	-9.7315
局	-9.7324
前後	-9.73339
準	-9.73489
也言	-9.73629
不行	-9.73658
不善	-9.73672
灸	-9.73693
正一	-9.73764
爲末	-9.73813
祝曰	-9.73891
太空	-9.74003
綿	-9.74123
耳目	-9.74214
茅	-9.74215
認	-9.74276
墓	-9.74283
嶺	-9.74386
九宫	-9.74392
其性	-9.74484
第五	-9.74621
若不	-9.74625
不明	-9.74684
而自	-9.74812
也然	-9.74861
土地	-9.74886
十九	-9.74887
做	-9.7491
之所以	-9.74945
不言	-9.75075
爵	-9.75105
威儀	-9.75261
𡻕	-9.75297
躁	-9.75351
日中	-9.75355
黙	-9.75387
一曰	-9.75428
0	-9.75431
愁	-9.75456
沐	-9.75521
晴	-9.75579
狗	-9.75609
吉凶	-9.75632
无量	-9.7567
無所不	-9.75671
三才	-9.75673
神通	-9.75712
金液	-9.75738
減	-9.75739
脱	-9.75784
九年	-9.75881
郎	-9.7589
拱	-9.75926
副	-9.76016
繩	-9.76036
束	-9.7609
之德	-9.76147
牽	-9.76173
廬	-9.76216
其形	-9.76254
/○○○○)	-9.76393
崑崙	-9.76606
之有	-9.76628
函	-9.76641
祖師	-9.76652
寒暑	-9.7675
山林	-9.76763
盧	-9.76854
其氣	-9.76867
擣	-9.7688
三月	-9.76918
三百	-9.76976
是時	-9.77142
此乃	-9.77195
之始	-9.77246
不然	-9.77251
湖	-9.77255
繞	-9.77261
疾病	-9.77262
蓬	-9.77286
玉京	-9.77346
須臾	-9.77387
朔	-9.7747
韻	-9.77483
臭	-9.77506
岸	-9.7753
入於	-9.77573
例	-9.77577
呈	-9.7758
在於	-9.77607
枚	-9.77635
水中	-9.77635
鐘	-9.77654
▁元始	-9.77656
眞炁	-9.77978
若能	-9.78054
書符	-9.78137
臣等	-9.78176
之說	-9.78229
浩	-9.78365
其事	-9.78439
玄元	-9.78581
大法	-9.78616
不通	-9.78625
者謂	-9.78949
碑	-9.79034
太和	-9.791
裂	-9.79114
洞玄	-9.79201
嘆	-9.79336
天罡	-9.79403
燥	-9.79466
冝	-9.79474
驕	-9.79555
▁玉清	-9.79587
叅	-9.79693
此道	-9.79751
也又	-9.79754
主者	-9.79859
絲	-9.79922
神君	-9.79955
園	-9.79962
醜	-9.80125
選	-9.80126
或有	-9.80258
互	-9.80278
農	-9.80339
施行	-9.80389
闡	-9.80423
東華	-9.8044
輩	-9.80543
敦	-9.80575
襲	-9.80575
無以	-9.80594
於外	-9.80744
浴	-9.80789
慾	-9.8094
謬	-9.81082
神光	-9.81098
大將	-9.81108
青龍	-9.81126
不祥	-9.81237
鉛汞	-9.81269
一月	-9.81329
猛	-9.81371
絕	-9.8139
在上	-9.8142
▁志心敬禮	-9.81451
以今	-9.81612
測	-9.81697
雌	-9.817
有無	-9.818
不止	-9.81865
欽	-9.81926
埋	-9.81944
多少	-9.82045
工夫	-9.82219
一念	-9.82258
人能	-9.82285
七星	-9.823
快	-9.8235
竈	-9.82421
宏	-9.82436
名山	-9.82479
睡	-9.82512
元年	-9.82556
麻	-9.82558
牧	-9.82566
胞	-9.82624
▁呪曰	-9.82677
婦人	-9.82711
整	-9.82784
鳯	-9.82865
恣	-9.82903
漿	-9.82943
耕	-9.82982
雷神	-9.83012
恍惚	-9.83046
神人	-9.83132
莖	-9.83204
雅	-9.83228
六十	-9.83239
-	-9.83277
九轉	-9.83301
人民	-9.83342
衍	-9.83378
采	-9.83418
癸	-9.8358
飛行	-9.83622
丈	-9.83715
虚空	-9.83727
進退	-9.83786
眞經	-9.83835
古人	-9.83841
萬物之	-9.83861
眞仙	-9.83898
蕭	-9.83922
三炁	-9.83937
囊	-9.84007
泛	-9.84093
修眞	-9.84093
自生	-9.84153
衆人	-9.84202
斤	-9.84267
淪	-9.84305
賛	-9.84315
微妙	-9.8437
五雷	-9.84394
縛	-9.8444
油	-9.8454
恨	-9.84619
呵	-9.84706
赤子	-9.84751
屏	-9.84794
臂	-9.84797
大洞	-9.84978
無知	-9.85005
諭	-9.85102
奥	-9.85195
失其	-9.85199
殷	-9.852
將吏	-9.85326
之類	-9.8533
聖人之	-9.85362
粗	-9.85363
延年	-9.85378
不聞	-9.85378
死者	-9.85395
懇	-9.85428
琴	-9.8546
五十	-9.85554
亨	-9.85556
肥	-9.85644
鋒	-9.85795
鄙	-9.85799
静	-9.85807
元炁	-9.85876
一心	-9.85939
豆	-9.85951
之處	-9.8603
寺	-9.8614
誡	-9.86189
焚香	-9.86189
悦	-9.86345
鼠	-9.86399
十日	-9.86462
蜜	-9.86575
寬	-9.86658
皆是	-9.8667
奈何	-9.86704
勒	-9.86894
終始	-9.86981
亮	-9.87049
君臣	-9.87061
有道	-9.8721
一卷	-9.87335
神將	-9.87355
擁	-9.874
凡人	-9.87439
朕	-9.87493
別	-9.87493
浸	-9.87659
餌	-9.87806
飽	-9.8788
璧	-9.87914
讃	-9.87967
瘟	-9.88114
之機	-9.8825
故有	-9.88328
可得	-9.8833
剋	-9.88355
女子	-9.88358
無私	-9.88494
戀	-9.88554
汝等	-9.8862
4	-9.88695
天機	-9.88696
膝	-9.88699
二字	-9.88758
遽	-9.88798
二兩	-9.88823
荆	-9.89029
丙	-9.89032
旗	-9.89034
蓬萊	-9.89041
肩	-9.89056
山中	-9.89132
7	-9.89167
朴	-9.89176
七寳	-9.89311
勉	-9.89358
百年	-9.89417
元神	-9.8944
之境	-9.89489
解脫	-9.89592
夙	-9.8961
倍	-9.89663
擾	-9.89731
盗	-9.89745
庵	-9.89834
▁「	-9.89868
眞氣	-9.89894
二者	-9.89906
相與	-9.89925
誘	-9.89925
牢	-9.90009
贈	-9.90031
由是	-9.90048
銖	-9.90092
无上	-9.90134
五老	-9.90154
更生	-9.9016
暑	-9.90265
空洞	-9.90384
幼	-9.90404
廼	-9.90412
豫	-9.90456
9	-9.90555
而不可	-9.90592
孕	-9.90597
以道	-9.90635
闇	-9.90739
叩齒	-9.9084
之前	-9.90848
禦	-9.90898
陷	-9.90909
周天	-9.91009
四十	-9.91114
下元	-9.9121
存亡	-9.91225
白雲	-9.91251
頗	-9.91263
金剛	-9.91336
甫	-9.91355
排	-9.91391
中元	-9.91408
探	-9.91559
郊	-9.91641
陽明	-9.91662
芽	-9.91718
此法	-9.91784
額	-9.91885
范	-9.91922
逝	-9.91982
南宫	-9.9201
眞靈	-9.92087
征	-9.9212
効	-9.92137
銷	-9.92137
橫	-9.92174
救苦	-9.9232
懴悔	-9.92382
人之所	-9.92443
三皇	-9.9247
慎	-9.92486
佑	-9.9264
元陽	-9.92675
6	-9.92728
四象	-9.92751
弄	-9.92885
動而	-9.92922
眞符	-9.92982
帛	-9.93047
洛	-9.93061
甯	-9.93135
搗	-9.93193
爲主	-9.93228
煩惱	-9.93309
南極	-9.93392
右手	-9.93394
歛	-9.9344
練	-9.9347
劵	-9.93471
催	-9.93494
之徒	-9.93526
與物	-9.93552
枕	-9.93555
北帝	-9.93611
瑶	-9.93647
視之	-9.93687
聖賢	-9.93715
一一	-9.93764
二月	-9.93808
紛	-9.93852
金石	-9.93876
不受	-9.93979
陣	-9.94095
囚	-9.94122
曠	-9.942
不自	-9.94221
廓	-9.94245
黨	-9.94297
▁至心信禮	-9.94313
沸	-9.94392
眀	-9.94483
九炁	-9.94502
皆得	-9.94526
丹陽	-9.94703
翔	-9.94759
當以	-9.94784
巢	-9.94823
之文	-9.94834
奸	-9.94908
藴	-9.9494
岳	-9.9496
1	-9.95009
葛	-9.95105
一點	-9.95119
匱	-9.95139
飄	-9.95216
矯	-9.95249
尊神	-9.95314
○)(	-9.95315
何也	-9.9532
三十二	-9.95325
三者	-9.95351
所有	-9.95353
自是	-9.95377
皈	-9.95401
准	-9.95405
逮	-9.95475
精氣	-9.95487
船	-9.95505
纏	-9.95574
錄	-9.95591
之宫	-9.95631
礙	-9.95721
道場	-9.95772
刃	-9.95775
飛昇	-9.95925
火鈴	-9.95937
金華	-9.96068
此皆	-9.96187
至此	-9.96222
棗	-9.96256
冒	-9.96323
崩	-9.96373
終日	-9.96462
無邊	-9.96484
中宫	-9.96497
之謂也	-9.96506
闢	-9.96546
鄰	-9.96597
脂	-9.96679
之情	-9.96679
柔弱	-9.96684
肇	-9.96712
尹	-9.96727
故不	-9.96735
消息	-9.96791
銜	-9.96799
托	-9.96885
莫能	-9.96899
能知	-9.96926
是以聖人	-9.96986
門下	-9.96997
層	-9.9705
;	-9.97059
崔	-9.9711
矣夫	-9.97114
而非	-9.97247
黄芽	-9.97317
玉符	-9.97318
肯	-9.97319
菴	-9.9732
大丹	-9.97348
片	-9.97436
四肢	-9.97462
者乎	-9.97492
神虎	-9.97595
而出	-9.97611
2	-9.97642
僕	-9.97657
口訣	-9.97668
吳	-9.9767
掐	-9.97778
促	-9.9784
神霄	-9.97869
無方	-9.97908
爲善	-9.97927
第六	-9.97927
於心	-9.98014
一百	-9.98106
心中	-9.98131
宫中	-9.9822
本無	-9.98369
牀	-9.98373
八方	-9.98434
展	-9.98442
押	-9.98456
手足	-9.98518
之位	-9.98519
扇	-9.98575
烹	-9.98598
大羅	-9.98659
物也	-9.98678
之大	-9.98693
空中	-9.98716
禍福	-9.98751
成就	-9.98779
仕	-9.98818
亡魂	-9.98834
上仙	-9.98876
其功	-9.98921
軀	-9.98941
截	-9.98987
屯	-9.99061
及其	-9.99074
抽	-9.99074
8	-9.99101
矢	-9.99154
玄妙	-9.9922
文王	-9.99274
鑪	-9.99322
膺	-9.99432
五炁	-9.99501
明堂	-9.99533
曆	-9.99572
兔	-9.99576
𡨚	-9.99588
齎	-9.99613
其上	-9.99642
小兒	-9.9965
躍	-9.99691
其實	-9.9974
有三	-9.99857
擒	-9.99874
者即	-9.99949
之性	-9.99958
▁唵	-9.99961
昇天	-10
甘露	-10.0002
各三	-10.0015
所居	-10.0019
通靈	-10.0025
頒	-10.0033
俞	-10.0042
何謂	-10.0043
3	-10.0044
保命	-10.0049
神化	-10.006
常存	-10.0062
嗟	-10.0067
之要	-10.007
酸	-10.0072
眠	-10.0078
譬如	-10.0086
卵	-10.0087
洞神	-10.0095
臍	-10.0103
其名	-10.0108
䇿	-10.0123
混元	-10.0127
以明	-10.0129
此章	-10.0131
兌	-10.0132
從此	-10.0133
仙道	-10.0134
八月	-10.0146
二百	-10.0146
彈	-10.0147
泰山	-10.0157
偃	-10.0158
瓦	-10.0162
暖	-10.0164
逰	-10.0169
築	-10.0174
箕	-10.0176
治病	-10.0178
元始天尊	-10.0191
茶	-10.0192
聰	-10.0212
赫	-10.0214
而下	-10.0214
得一	-10.0215
黄庭	-10.0227
皇帝	-10.0231
妙經	-10.0249
灑	-10.0252
東西	-10.0253
天仙	-10.0255
神呪	-10.0258
眞一	-10.026
壬	-10.0268
壘	-10.0275
憲	-10.0285
有爲	-10.0287
直符	-10.0298
者其	-10.0303
逼	-10.0306
貴賤	-10.0306
而言	-10.0329
守一	-10.033
皈依	-10.0332
以為	-10.0334
髙上	-10.0336
曰我	-10.0338
晉	-10.0362
無欲	-10.0369
子之	-10.0377
叙	-10.0381
屢	-10.039
不識	-10.0391
萬化	-10.0402
梅	-10.0403
輙	-10.0409
告下	-10.041
鑄	-10.0417
不肯	-10.0421
日夜	-10.0426
不覺	-10.043
靈光	-10.0431
以至	-10.0431
屍	-10.0433
泣	-10.0435
彊	-10.0437
玄壇	-10.0443
這	-10.0445
遏	-10.0446
在乎	-10.0446
諫	-10.0446
生神	-10.0447
垣	-10.0451
躡	-10.0454
頃	-10.0459
如法	-10.0461
譬	-10.0461
頑	-10.0472
乏	-10.0481
國家	-10.0482
方便	-10.0487
則知	-10.0492
䖍	-10.0496
非有	-10.0499
迫	-10.0521
五月	-10.0525
氷	-10.0531
六天	-10.0534
入室	-10.0537
閒	-10.054
𤣥	-10.054
毫	-10.0543
清虚	-10.0553
酬	-10.0559
兩手	-10.0566
賈	-10.0577
瀆	-10.0582
有功	-10.0585
戊	-10.0586
凡有	-10.0587
民之	-10.0587
而已矣	-10.0594
鄕	-10.0603
使之	-10.0604
成功	-10.0607
修齋	-10.0608
十年	-10.061
歸於	-10.0611
一物	-10.0613
與道	-10.0613
▁皇	-10.0615
不爭	-10.0635
七十二	-10.0647
嚥	-10.0649
旱	-10.0653
說經	-10.066
之主	-10.0663
妙用	-10.0665
云何	-10.0669
唵	-10.0682
増	-10.0683
凉	-10.0684
--	-10.0684
其數	-10.0684
以致	-10.0689
蹈	-10.0693
一聲	-10.0697
擬	-10.0701
炭	-10.0714
捕	-10.0718
頻	-10.073
輸	-10.0731
漠	-10.0731
星辰	-10.0734
曰子	-10.0735
若是	-10.0736
善人	-10.0736
可見	-10.0738
憫	-10.0743
牝	-10.0746
鷄	-10.0746
天關	-10.0751
健	-10.0756
邦	-10.0766
四兩	-10.0773
之患	-10.0774
合於	-10.0774
妃	-10.0781
饑	-10.0783
籠	-10.0789
晚	-10.0791
渡	-10.0799
有形	-10.0802
欣	-10.0812
結成	-10.0816
剔	-10.0828
於内	-10.0833
▁九天	-10.0836
憐	-10.0838
贊	-10.0842
希夷	-10.0843
相應	-10.0844
闊	-10.0844
水府	-10.0845
人人	-10.0848
名也	-10.0848
男子	-10.0855
神丹	-10.0865
戾	-10.0866
修之	-10.0869
三塗	-10.0875
此則	-10.0876
徘徊	-10.0877
雖然	-10.0877
齋戒	-10.0881
吏兵	-10.0882
戎	-10.0886
善男子	-10.089
云云	-10.0897
戮	-10.0909
少陽	-10.0912
湛	-10.0913
正道	-10.0914
剪	-10.0916
不利	-10.0916
和合	-10.0919
携	-10.0922
太子	-10.0928
凝神	-10.0937
大慈	-10.0942
以自	-10.0954
修道	-10.0956
人生	-10.0957
下有	-10.0961
腹中	-10.0963
人道	-10.0964
人所	-10.0965
六月	-10.0967
輦	-10.0975
乍	-10.0975
所言	-10.0978
主宰	-10.098
雀	-10.098
劔	-10.098
覓	-10.0985
所見	-10.0992
踐	-10.0992
鄧	-10.1004
玄武	-10.1009
百神	-10.1009
威靈	-10.1014
輪轉	-10.1015
仲尼	-10.1029
絳宫	-10.1031
薪	-10.1034
妾	-10.1043
金水	-10.1048
而死	-10.1049
蹤	-10.1053
匡	-10.1054
挺	-10.1054
南斗	-10.1064
人物	-10.1066
金玉	-10.107
之故	-10.1072
何爲	-10.1072
豈非	-10.1072
文字	-10.1076
卓	-10.1079
毀	-10.1084
徴	-10.1084
同前	-10.1089
疫	-10.1094
勅	-10.1094
黃帝	-10.1096
生者	-10.1103
不求	-10.1103
侍衛	-10.1113
邈	-10.1114
自此	-10.1133
二氣	-10.1134
正月	-10.1138
𩔖	-10.1142
各二	-10.1146
觀之	-10.1159
本來	-10.1159
麥	-10.1159
其言	-10.1163
巍巍	-10.1164
嵗	-10.117
恬	-10.1179
殺人	-10.1179
不知其	-10.118
虚皇	-10.1186
口中	-10.1194
䝉	-10.1195
之形	-10.1208
二十五	-10.121
雍	-10.1214
减	-10.1221
如前	-10.1228
元皇	-10.123
治國	-10.1231
爾時	-10.1233
一者	-10.1234
鎖	-10.1235
緊	-10.1245
人事	-10.1252
葢	-10.1255
聰明	-10.1257
豈有	-10.126
三寸	-10.1265
不入	-10.127
▁召	-10.1275
所以爲	-10.1285
萬象	-10.1286
之體	-10.1287
匿	-10.1288
眷	-10.1291
搜	-10.1302
天皇	-10.1304
三兩	-10.1306
則是	-10.1308
以求	-10.1312
睹	-10.1317
後天	-10.1317
冬至	-10.1327
華蓋	-10.1331
渴	-10.1338
貼	-10.1339
又何	-10.1345
受生	-10.1349
賢者	-10.1353
撓	-10.1357
第七	-10.1358
醋	-10.1362
得此	-10.1363
生而	-10.1364
不息	-10.1365
修身	-10.1366
朱陵	-10.1366
故以	-10.1369
拒	-10.1375
狐	-10.1376
自然之	-10.1377
軌	-10.1378
形神	-10.1379
之方	-10.138
不食	-10.1389
至矣	-10.1389
之曰	-10.1391
駐	-10.1409
決	-10.1409
皓	-10.1415
齡	-10.1422
復有	-10.1429
不與	-10.1431
超度	-10.1435
有人	-10.1438
擲	-10.1439
板	-10.144
九霄	-10.1442
抵	-10.1444
自己	-10.1452
莊子曰	-10.1456
恭望	-10.146
台	-10.1462
朱砂	-10.1462
朱雀	-10.1464
不絶	-10.1468
朋	-10.1469
物物	-10.147
東海	-10.1471
緒	-10.1479
乎其	-10.148
抱一	-10.1485
濟度	-10.1487
臣某	-10.1488
之恩	-10.1494
嘯	-10.1497
潭	-10.1502
峻	-10.1513
師曰	-10.1517
方可	-10.1518
福地	-10.1522
奮	-10.1523
祚	-10.1525
其意	-10.1527
阻	-10.1533
賓	-10.1537
爲天下	-10.1542
不安	-10.1544
怠	-10.1545
有此	-10.1545
服食	-10.155
之極	-10.1558
太虛	-10.156
或作	-10.1566
菜	-10.1575
八十	-10.1587
在人	-10.1588
利害	-10.1591
人君	-10.1602
升降	-10.1603
一寸	-10.1608
兄弟	-10.1611
在我	-10.1611
勿令	-10.1617
之變	-10.1618
天官	-10.1621
問曰	-10.1622
萬人	-10.1623
其間	-10.163
五味	-10.1634
玉童	-10.1635
泯	-10.1636
膠	-10.1637
七元	-10.1645
滌	-10.1647
▁老子曰	-10.1647
伊	-10.1648
炙	-10.1652
又以	-10.1657
幕	-10.1659
道法	-10.1664
之音	-10.1666
者言	-10.167
之狀	-10.1672
心不	-10.1676
若無	-10.168
啟	-10.1691
感應	-10.1702
馭	-10.1704
祗	-10.1707
成眞	-10.1708
厯	-10.1709
d	-10.1713
時有	-10.1713
八極	-10.1724
不至	-10.1724
四大	-10.1727
一也	-10.1728
聲色	-10.1736
倉	-10.1744
警	-10.1744
捐	-10.1745
在天	-10.175
弓	-10.1751
洲	-10.1759
所生	-10.1761
沾	-10.1762
一旦	-10.177
澗	-10.1776
華池	-10.1777
上皇	-10.1779
至尊	-10.1784
瀉	-10.1785
不已	-10.1785
濡	-10.1787
國之	-10.1788
天王	-10.1794
跨	-10.1797
人以	-10.1797
內	-10.1798
求之	-10.1806
五神	-10.1807
刼	-10.1807
有大	-10.1808
饒	-10.1809
胎息	-10.1813
自知	-10.1816
纒	-10.1819
榜	-10.182
上香	-10.182
其本	-10.1823
當時	-10.1829
一升	-10.1851
焰	-10.1859
對曰	-10.1864
天蓬	-10.1869
九玄	-10.1871
普度	-10.1872
糧	-10.1873
胷	-10.1874
七十	-10.1879
所爲	-10.1879
列子	-10.1882
脊	-10.1883
神符	-10.1888
爲我	-10.1897
七月	-10.1903
之鬼	-10.1913
凡夫	-10.1917
古者	-10.1923
存思	-10.1925
不可得而	-10.1931
終不	-10.1932
夫婦	-10.1938
起於	-10.1942
天丁	-10.1944
長夜	-10.1946
不仁	-10.195
社稷	-10.195
檄	-10.1953
萬民	-10.1953
五道	-10.1954
曰夫	-10.1956
夾	-10.1959
員	-10.1963
斗中	-10.1966
赤帝	-10.1966
故無	-10.1967
金精	-10.1971
流行	-10.1979
病者	-10.1981
拯	-10.1995
手執	-10.1997
兇	-10.2003
九月	-10.2014
皆以	-10.2022
宛	-10.2023
之根	-10.2023
跪	-10.2024
剥	-10.2026
鞭	-10.2026
麤	-10.2026
不容	-10.2029
和氣	-10.204
五靈	-10.2046
非人	-10.2052
旅	-10.2054
黄籙	-10.2056
之先	-10.2058
上升	-10.2058
雷電	-10.2062
陋	-10.207
黄金	-10.2072
内有	-10.2074
故爲	-10.209
三一	-10.209
觀其	-10.2102
瓶	-10.2104
其子	-10.2107
啼	-10.2114
髙功	-10.2117
踈	-10.2119
晶	-10.212
几	-10.212
養生	-10.2122
之聲	-10.2124
天心	-10.2133
生生	-10.2142
駭	-10.2144
瘥	-10.2146
玩	-10.2147
不須	-10.215
大藥	-10.2151
一切衆生	-10.2161
太白	-10.2167
循環	-10.2173
亢	-10.2178
玉文	-10.2179
上品	-10.218
晏	-10.2181
偽	-10.2181
開明	-10.2183
綿綿	-10.2184
濯	-10.219
元精	-10.2192
未知	-10.2194
取其	-10.2195
寒熱	-10.2196
主人	-10.2215
何如	-10.2218
▁贈	-10.2222
綵	-10.2225
而來	-10.2226
天文	-10.2232
緯	-10.2235
寇	-10.2236
搏	-10.2236
二十八	-10.2252
村	-10.2259
日用	-10.226
圭	-10.2267
喜怒	-10.227
播	-10.227
不待	-10.2271
咒	-10.2271
眞道	-10.2275
洞眞	-10.2276
壤	-10.2279
中之	-10.2281
汙	-10.2281
袍	-10.2286
之子	-10.2289
猪	-10.2289
旌	-10.229
靈文	-10.2291
邀	-10.2293
曽	-10.2296
神功	-10.2297
而反	-10.2302
修鍊	-10.2307
般	-10.2315
以生	-10.232
癡	-10.2324
受命	-10.2343
次第	-10.2346
搯	-10.2347
祟	-10.2349
▁道言	-10.2357
叨	-10.236
宸	-10.2362
讚	-10.2362
洽	-10.2372
曰汝	-10.2375
入道	-10.238
爲道	-10.2384
俄	-10.239
骸	-10.2398
上生	-10.24
一道	-10.2403
其後	-10.2404
使我	-10.2405
行事	-10.2407
三台	-10.2407
孚	-10.2409
拙	-10.2412
之源	-10.2418
噫	-10.2429
正法	-10.2437
無礙	-10.2438
之可	-10.2438
渠	-10.244
箭	-10.244
▁象曰	-10.2441
不忘	-10.2443
徙	-10.2451
九色	-10.2469
纂	-10.247
不盡	-10.2471
督	-10.2473
上詣	-10.2474
至誠	-10.2475
眷屬	-10.2478
取之	-10.2479
十二月	-10.2479
安得	-10.2485
熏	-10.2486
揮	-10.2487
官將	-10.2492
括	-10.2493
一分	-10.2501
而復	-10.2516
無復	-10.2517
宥	-10.2518
是名	-10.252
囘	-10.2521
掛	-10.2521
重陽	-10.2521
正炁	-10.253
壺	-10.2543
地府	-10.2543
麟	-10.2544
朽	-10.2547
作用	-10.2547
嫌	-10.2555
粟	-10.2555
好生	-10.2575
香火	-10.2576
八十一	-10.2581
紫雲	-10.2581
憎	-10.2584
低	-10.2585
鈎	-10.259
不免	-10.2597
伍	-10.2602
争	-10.2602
不測	-10.2605
賣	-10.2608
討	-10.2613
蕃	-10.2613
以下	-10.2616
胥	-10.2617
一陽	-10.2621
不應	-10.2626
明日	-10.2628
伺	-10.2634
三宫	-10.2635
▁義曰	-10.2639
算	-10.2645
所得	-10.265
祖炁	-10.2652
斧	-10.2653
之君	-10.2658
故知	-10.266
弟子某	-10.266
某人	-10.2661
堯舜	-10.2663
鱗	-10.2668
悶	-10.267
玄牝	-10.2675
消滅	-10.2677
人者	-10.2678
成形	-10.268
孽	-10.2681
愧	-10.2687
罪福	-10.2688
匠	-10.2692
溟	-10.2693
無間	-10.2694
釜	-10.2704
卻	-10.2707
攺	-10.2707
靈寶	-10.2715
虔	-10.2715
婆	-10.2715
神炁	-10.2716
縮	-10.2717
人不	-10.2726
受度	-10.273
流光	-10.2733
㸃	-10.2733
於世	-10.2736
衆眞	-10.2737
攸	-10.2738
蔡	-10.2739
眾生	-10.2739
生萬物	-10.2739
聖衆	-10.2742
勾	-10.275
宇宙	-10.2754
公子	-10.2755
陛下	-10.2755
若此	-10.2756
所行	-10.2757
應感	-10.2757
摇	-10.276
徇	-10.2766
話	-10.2766
未得	-10.2768
風雷	-10.2773
傳授	-10.2774
爲用	-10.2776
者當	-10.2783
巫	-10.2783
或以	-10.2791
者無	-10.2799
上古	-10.2804
疾速	-10.2814
拔度	-10.2819
御前	-10.2824
主之	-10.2824
醒	-10.2825
始於	-10.2826
㧞	-10.2829
虛無	-10.2834
肌	-10.2835
簿	-10.2845
北向	-10.2847
銘	-10.2847
之光	-10.2848
買	-10.2848
▁師曰	-10.2856
陰陽之	-10.286
寥	-10.2865
而至	-10.2868
炁吹	-10.2874
思慮	-10.2877
勃	-10.2879
太上老君	-10.2881
f	-10.2884
而天下	-10.2895
消除	-10.2895
無非	-10.2896
傲	-10.2896
我今	-10.2898
億劫	-10.2907
梵炁	-10.2909
三尸	-10.2909
世世	-10.2909
何處	-10.2912
▁靈寳	-10.2915
長春	-10.2916
无爲	-10.2919
數十	-10.292
父子	-10.2922
洞章	-10.2922
存神	-10.2924
攀	-10.293
巡	-10.2932
同於	-10.2933
隅	-10.2933
庫	-10.2935
盞	-10.2938
腐	-10.2956
畔	-10.2956
守之	-10.2961
其有	-10.2962
禮樂	-10.2966
餐	-10.2967
▁至心朝禮	-10.2969
他人	-10.2969
消災	-10.297
天宫	-10.2983
南北	-10.2985
是知	-10.2993
九州	-10.2994
若夫	-10.3001
得失	-10.3003
綺	-10.3005
阜	-10.3005
至今	-10.3007
忽然	-10.3008
之府	-10.3008
王母	-10.3009
玄珠	-10.3015
賢人	-10.3015
殻	-10.3017
乃至	-10.3018
段	-10.3021
故言	-10.3021
上章	-10.3023
姜	-10.3029
潛	-10.3029
血氣	-10.3033
不去	-10.3034
導引	-10.3034
之國	-10.3039
髪	-10.3041
栢	-10.3044
圎	-10.3053
派	-10.3057
大吉	-10.3064
形容	-10.3066
鋪	-10.3071
五氣	-10.3073
爲大	-10.3081
役使	-10.3084
裙	-10.3084
終身	-10.3086
失之	-10.3086
靈符	-10.309
一體	-10.3091
儲	-10.3101
精思	-10.3101
而求	-10.3102
署	-10.3102
千年	-10.3104
萬事	-10.3108
顛	-10.3113
上宫	-10.3115
蠱	-10.313
延生	-10.313
風雲	-10.3133
也蓋	-10.3137
於身	-10.315
冤	-10.3151
良久	-10.3161
唾	-10.3163
其文	-10.3164
治天下	-10.3171
徼	-10.3175
頌曰	-10.3183
下方	-10.3183
之至也	-10.3183
不可得	-10.3184
周流	-10.3194
猿	-10.3194
洞明	-10.3197
用也	-10.3198
二十七	-10.32
廣大	-10.3205
通玄	-10.3213
神室	-10.3213
區	-10.3216
受持	-10.3217
詩曰	-10.3217
之宗	-10.3218
羣生	-10.3218
龍王	-10.3219
之行	-10.322
言曰	-10.3221
控	-10.3225
豪	-10.3225
禾	-10.3225
製	-10.3235
膀胱	-10.3237
於中	-10.3239
體道	-10.3251
二物	-10.3253
後學	-10.3256
叛	-10.326
雄黄	-10.3261
悖	-10.3262
偉	-10.3262
悃	-10.3268
易曰	-10.327
也非	-10.3272
第八	-10.3277
青帝	-10.3281
公曰	-10.3283
天曹	-10.3284
經法	-10.3287
皆由	-10.3291
▁第三	-10.3292
度世	-10.3293
言語	-10.3298
祛	-10.3299
與天地	-10.3301
洞房	-10.3305
道而	-10.3306
釣	-10.331
頼	-10.3312
功行	-10.3314
陽神	-10.332
其理	-10.3323
旡	-10.3324
奴	-10.3336
賀	-10.3337
以應	-10.3339
誦之	-10.3341
四月	-10.3342
其用	-10.3347
亦然	-10.3358
援	-10.3362
邁	-10.3362
之書	-10.3365
玉字	-10.3367
戊己	-10.3367
始終	-10.3369
冶	-10.3372
婁	-10.3374
表裏	-10.3375
無情	-10.3375
大梵	-10.3377
萬法	-10.3381
安寧	-10.3384
洞陽	-10.3388
孔子曰	-10.3391
其下	-10.3391
有生	-10.3398
守其	-10.34
祅	-10.34
敎	-10.34
奢	-10.34
陰氣	-10.3404
五音	-10.3404
其次	-10.3413
眞形	-10.3415
宗師	-10.3417
▁第一	-10.3419
忠孝	-10.3422
與我	-10.3424
與天	-10.3427
無爲而	-10.3429
忿	-10.3434
水之	-10.3434
江海	-10.3439
老人	-10.344
中黄	-10.3444
不起	-10.3448
相生	-10.3449
憶	-10.345
之尊	-10.3451
邪氣	-10.3452
五年	-10.3455
以水	-10.3456
矣此	-10.3456
之分	-10.3458
於天下	-10.3459
裳	-10.3462
天符	-10.3465
亦非	-10.3468
塊	-10.3475
謫	-10.3475
殺之	-10.3487
墻	-10.3488
無聲	-10.3495
九靈	-10.3498
不易	-10.3499
赤書	-10.3505
於地	-10.3511
姿	-10.3514
謗	-10.3516
白日	-10.3517
安能	-10.3517
只是	-10.3519
眞武	-10.352
眞空	-10.3522
壑	-10.3523
氣也	-10.3524
神名	-10.3525
幹	-10.3526
金書	-10.3531
紹	-10.3536
不若	-10.3536
喉	-10.3538
偕	-10.3539
倦	-10.3546
威神	-10.3546
軫	-10.3547
▁上帝	-10.3547
而止	-10.355
後人	-10.3565
甲乙	-10.3565
出家	-10.3568
朝元	-10.3573
銳	-10.3577
壓	-10.3577
中間	-10.3577
能生	-10.3578
上方	-10.358
學士	-10.3583
將來	-10.3589
巴	-10.359
產	-10.359
東嶽	-10.3592
較	-10.3601
居之	-10.3604
甘草	-10.3611
焕	-10.3616
強	-10.3616
糞	-10.3618
嗜	-10.3625
宵	-10.3629
料	-10.3629
技	-10.3642
疲	-10.3642
諧	-10.3642
眇	-10.3647
世俗	-10.365
三百六十	-10.3652
白帝	-10.3654
皇君	-10.3663
三魂	-10.3664
陟	-10.3667
上士	-10.3669
筵	-10.3675
而歸	-10.3677
顚	-10.3692
勵	-10.3693
而知	-10.3694
東向	-10.3703
優	-10.3704
開化	-10.3706
生化	-10.3708
盲	-10.3717
漆	-10.3718
知者	-10.3719
〇	-10.3723
力士	-10.3727
谿	-10.3732
叱	-10.3732
紫陽	-10.3734
幽魂	-10.3735
二炁	-10.3742
歸之	-10.3745
不正	-10.3749
智者	-10.3751
之化	-10.3759
偈	-10.3761
侮	-10.3763
六丁	-10.3764
應物	-10.3771
轡	-10.3771
遯	-10.3771
粒	-10.3773
炒	-10.3776
此爲	-10.378
漫	-10.3781
裹	-10.3783
囉	-10.3785
侣	-10.3785
輕重	-10.3786
藥物	-10.3789
生靈	-10.3805
相合	-10.3813
王者	-10.3815
諸法	-10.3816
德之	-10.3827
陽精	-10.3837
太眞	-10.3837
八百	-10.3837
玉虚	-10.3842
爲本	-10.3843
上聞	-10.3846
金木	-10.3849
薰	-10.3849
長跪	-10.385
濫	-10.385
隸	-10.385
何所	-10.3857
老子曰	-10.386
該	-10.3863
琅	-10.3875
時時	-10.3876
未可	-10.3882
滓	-10.3887
依法	-10.3888
鹹	-10.39
在此	-10.39
踰	-10.3901
遊行	-10.3901
馮	-10.3901
高下	-10.3902
昩	-10.3903
栖	-10.3903
歡喜	-10.3904
惱	-10.3907
鈞	-10.3908
天理	-10.3913
裘	-10.3916
孰能	-10.3926
運行	-10.3931
時人	-10.3935
小便	-10.3936
必先	-10.3936
歌曰	-10.394
與道合眞	-10.3946
玉晨	-10.3947
僅	-10.3956
二十八宿	-10.3958
▁録曰	-10.396
闔	-10.396
六畜	-10.3963
爲天	-10.3964
生天	-10.3965
衆聖	-10.3972
大有	-10.3977
酌	-10.3983
大王	-10.3986
三十二天	-10.3994
當知	-10.4004
利益	-10.4007
姚	-10.4009
挾	-10.4009
艾	-10.4009
之學	-10.4015
扣	-10.4022
恊	-10.4023
之身	-10.4028
玄玄	-10.403
天元	-10.4035
臟	-10.4036
隙	-10.4036
之教	-10.4039
不從	-10.4042
無物	-10.4049
不解	-10.4049
尸解	-10.405
用兵	-10.4053
道成	-10.4054
至理	-10.4056
得仙	-10.4057
念呪	-10.4061
亘	-10.4061
豈能	-10.4062
百里	-10.4065
則神	-10.4066
之誠	-10.4072
文章	-10.4072
濃	-10.4077
夜半	-10.4081
此之謂	-10.4085
及諸	-10.4089
哲	-10.409
貢	-10.4093
此二	-10.4095
繒	-10.4098
十餘	-10.41
三素	-10.4101
剖	-10.4103
上相	-10.4103
踵	-10.4103
遠矣	-10.4104
四者	-10.4107
在下	-10.4107
場	-10.4108
三人	-10.4111
亦如	-10.4112
穆	-10.4113
聖母	-10.4115
亦是	-10.4115
誇	-10.4117
茲	-10.4118
形體	-10.4123
言也	-10.4125
蒲	-10.4125
三十日	-10.4126
眞官	-10.4127
全眞	-10.4129
潰	-10.4131
霑	-10.4131
運用	-10.4142
少陰	-10.4142
污	-10.4144
吾身	-10.4147
可知	-10.4152
玄關	-10.4153
析	-10.4157
相傳	-10.4158
然也	-10.416
㣲	-10.4163
三景	-10.4163
洩	-10.4163
骨肉	-10.4164
外物	-10.4165
飈	-10.4171
忤	-10.4171
桓	-10.4184
津液	-10.4191
猶如	-10.4192
用心	-10.4193
湛然	-10.4194
仙公	-10.4195
測曰	-10.4196
穹	-10.4196
棺	-10.4198
一二	-10.4209
瓜	-10.421
五穀	-10.4211
成道	-10.4213
入山	-10.4217
眞鉛	-10.4218
城隍	-10.4221
札	-10.4224
之山	-10.4229
之力	-10.4231
伴	-10.4239
四字	-10.4246
丹成	-10.4249
平等	-10.4251
欲得	-10.4253
▁第二	-10.4258
溥	-10.4267
愍	-10.4267
此心	-10.4268
而入	-10.4268
萬世	-10.4272
眩	-10.4274
蠶	-10.4278
非道	-10.428
畧	-10.4281
無人	-10.4282
於上	-10.4285
▁東方	-10.4287
身形	-10.4288
入意	-10.4292
顏	-10.4295
二儀	-10.4302
乃是	-10.4307
揖	-10.4307
换	-10.4311
喬	-10.4321
▁南方	-10.4322
藹	-10.4322
善者	-10.4325
在心	-10.4329
長安	-10.4334
皂	-10.4336
飲酒	-10.4337
幽冥	-10.4338
太初	-10.434
湧	-10.4341
也故云	-10.4346
粹	-10.4347
一字	-10.4351
虛空	-10.4357
齋主	-10.4361
逕	-10.4363
罄	-10.4363
三分	-10.4372
國土	-10.4374
官吏	-10.4374
玉華	-10.4379
解釋	-10.438
吾今	-10.4381
晩	-10.439
床	-10.4391
罩	-10.4391
如意	-10.4391
皈命	-10.4392
天寳	-10.4394
病人	-10.4395
必須	-10.4398
歴	-10.4405
逾	-10.4405
道炁	-10.4405
矣然	-10.4406
禽獸	-10.4408
不得已	-10.4411
核	-10.4414
日三	-10.4421
身體	-10.4421
之師	-10.4423
陀	-10.443
捷	-10.4434
眞常	-10.4436
人情	-10.444
熙	-10.4444
紫府	-10.4446
正氣	-10.4452
則其	-10.4461
出離	-10.4461
也凡	-10.4463
帔	-10.4471
▁甘草	-10.4473
則民	-10.4473
輪迴	-10.4477
大國	-10.4479
斷絶	-10.4486
九重	-10.449
五百	-10.4492
其志	-10.4497
至真	-10.4499
立功	-10.4501
葵	-10.4503
董	-10.4503
仙翁	-10.4506
調和	-10.4513
▁爾時	-10.4513
生氣	-10.4514
服氣	-10.4519
二十二	-10.4529
具足	-10.453
四十九	-10.4537
閉目	-10.4538
三田	-10.4538
悉皆	-10.4538
縈	-10.4545
澆	-10.4547
子午	-10.4549
二十一	-10.455
不宜	-10.4551
六根	-10.4556
百病	-10.4558
國王	-10.4558
突	-10.4559
快樂	-10.457
閱	-10.4574
南嶽	-10.4576
盆	-10.4576
神祇	-10.4576
剛柔	-10.458
霍	-10.458
生也	-10.4581
七年	-10.4581
訶	-10.4582
斥	-10.4586
頤	-10.4588
亦得	-10.4593
無憂	-10.4593
皆可	-10.4594
有心	-10.4596
胸	-10.4599
衣服	-10.4599
以養	-10.46
教化	-10.4604
九十	-10.461
壅	-10.4614
䕶	-10.4616
兵馬	-10.4617
見於	-10.4622
千萬	-10.4623
一本	-10.4627
清齋	-10.4627
而立	-10.4629
行者	-10.4629
功名	-10.4634
三陽	-10.4638
恠	-10.4642
耽	-10.4645
三教	-10.4647
知道	-10.4657
漱	-10.4657
所說	-10.4657
戍	-10.4659
三關	-10.4662
一方	-10.467
心心	-10.4672
恥	-10.4673
即得	-10.4673
天一	-10.4674
▁第四	-10.4676
扶桑	-10.4677
杯	-10.4678
始生	-10.4682
喫	-10.4687
未始	-10.469
杳	-10.4693
之家	-10.4695
廷	-10.4696
勘	-10.4697
帳	-10.4702
屑	-10.4702
甲寅	-10.4702
固濟	-10.4706
閭	-10.4713
今有	-10.4717
鈴	-10.4719
聖前	-10.4723
教人	-10.4724
天命	-10.4725
絹	-10.4741
十五日	-10.4743
或爲	-10.4743
一粒	-10.4744
佞	-10.4745
奠	-10.4745
頸	-10.4745
布施	-10.4746
爪	-10.4749
上真	-10.4757
圃	-10.4759
丹書	-10.4771
羲	-10.4778
▁北方	-10.4779
侯王	-10.4779
不定	-10.4783
者蓋	-10.4783
太上道君	-10.4789
風火	-10.4793
二曰	-10.4796
設醮	-10.4796
軸	-10.4797
尼	-10.4797
玊	-10.4798
隨時	-10.4816
倘	-10.4817
諒	-10.4817
奕	-10.482
換	-10.4825
暇	-10.4826
洒	-10.4826
俠	-10.4832
故謂之	-10.4835
安鎭	-10.484
軿	-10.484
仇	-10.4844
灼	-10.4846
五兩	-10.4846
和與道合眞	-10.4847
而巳	-10.4849
慈尊	-10.4852
喘	-10.4854
味甘	-10.4855
顔色	-10.4856
攪	-10.4858
褐	-10.4858
顚倒	-10.4862
學仙	-10.4865
朝廷	-10.4866
妙法	-10.487
欠	-10.4875
虚无	-10.4875
願得	-10.4876
揺	-10.4879
治身	-10.4879
以是	-10.4879
第九	-10.488
中國	-10.4883
九竅	-10.4886
驛	-10.4886
▁御註	-10.4891
乃得	-10.4898
汲	-10.4904
小腸	-10.4905
▁解曰	-10.4912
▁士	-10.4913
閉氣	-10.4916
以上	-10.4925
司天	-10.4929
所欲	-10.4929
眞王	-10.4931
一云	-10.4932
大人	-10.4942
詩云	-10.4954
卯酉	-10.496
態	-10.4963
流珠	-10.4965
號令	-10.4966
之迹	-10.4967
高上	-10.4969
凈	-10.4972
歸命	-10.4973
學人	-10.4975
不當	-10.4975
此時	-10.4976
顛倒	-10.4979
心無	-10.499
劄	-10.4992
蟾	-10.4993
授以	-10.4994
通於	-10.5002
蹇	-10.5007
靜而	-10.5009
相見	-10.5012
九地	-10.5013
人自	-10.5013
吾之	-10.5016
郞	-10.502
靄	-10.5022
兆身	-10.5023
裁	-10.5024
故名	-10.5025
從之	-10.503
名利	-10.5033
▁伏以	-10.5037
構	-10.5037
也是以	-10.5039
人家	-10.5042
明月	-10.5042
尚書	-10.5043
圓明	-10.5048
邪精	-10.5051
藍	-10.5052
寃	-10.5052
誣	-10.5052
脅	-10.5052
中和	-10.5054
遊於	-10.5055
東極	-10.5062
門人	-10.5063
已上	-10.5067
而未	-10.5071
之㫖	-10.5071
西山	-10.5075
零	-10.5077
天醫	-10.5078
俯仰	-10.5081
淋	-10.5081
讎	-10.5081
詭	-10.5082
眞精	-10.5084
事也	-10.5084
𩲸	-10.5089
文武	-10.5091
上登	-10.5093
詰	-10.5096
得見	-10.51
三寶	-10.5111
䘮	-10.5111
瘧	-10.5111
非常	-10.5112
生民	-10.5113
乃可	-10.5114
法事	-10.5115
三師	-10.5116
不悟	-10.5118
通神	-10.512
未必	-10.5121
狀如	-10.5124
創	-10.5126
丙丁	-10.513
二十三	-10.5136
可用	-10.5137
昭昭	-10.5138
我之	-10.5147
三境	-10.5147
狹	-10.5152
朝禮	-10.5153
存焉	-10.5153
丞相	-10.5154
儻	-10.5156
。」	-10.5156
億萬	-10.5159
物而	-10.5162
諸神	-10.5166
漂	-10.5171
▁通玄經曰	-10.5171
者可	-10.5179
之與	-10.518
二寸	-10.5189
别有	-10.5192
取出	-10.5192
姤	-10.5197
柄	-10.5198
長短	-10.5201
藏於	-10.5201
蟻	-10.5201
藝	-10.5201
之難	-10.5202
冥冥	-10.5205
天之道	-10.5208
化成	-10.5212
地户	-10.5212
寛	-10.5217
璇璣	-10.5217
有名	-10.5217
常有	-10.5219
上奏	-10.5222
精誠	-10.5222
黎	-10.5222
度命	-10.5225
飛龍	-10.5226
氏之	-10.5227
龍漢	-10.5229
漁	-10.5229
羞	-10.5232
貽	-10.5232
玉光	-10.5232
司馬云	-10.5232
不堪	-10.5233
者多	-10.5235
皆爲	-10.5239
蛟	-10.5241
太過	-10.5242
恪	-10.5247
撥	-10.5247
躋	-10.5247
妨	-10.5257
莫測	-10.526
虐	-10.5261
成仙	-10.5261
中天	-10.5271
韋	-10.5271
黍	-10.5274
之屬	-10.5274
飛雲	-10.5274
變爲	-10.5279
疊	-10.5279
眞火	-10.5284
養之	-10.5288
其義	-10.529
苑	-10.5292
相去	-10.5296
涵	-10.53
有二	-10.5303
碧落	-10.5304
其餘	-10.5304
河圖	-10.531
良乆	-10.5312
德者	-10.5318
而行之	-10.5321
使民	-10.5322
王曰	-10.533
騫	-10.5333
十一月	-10.5334
庶幾	-10.5335
系	-10.5338
罕	-10.5338
件	-10.5338
猷	-10.5339
蠻	-10.5342
一箇	-10.5342
清微	-10.5344
可不	-10.5345
而退	-10.5347
眞性	-10.5347
河車	-10.5348
懽	-10.535
鍊度	-10.5351
六府	-10.5352
存想	-10.5359
矣故曰	-10.5359
恕	-10.5369
蔵	-10.5369
也聖人	-10.5371
更相	-10.538
人主	-10.5381
去來	-10.5382
▁西方	-10.5387
所受	-10.5389
止於	-10.5391
形骸	-10.5392
不顧	-10.5393
貸	-10.5399
臧	-10.5399
有物	-10.5402
▁宣	-10.5404
来	-10.5415
太元	-10.5417
金銀	-10.5418
依前	-10.5422
四面	-10.5422
用此	-10.5423
僻	-10.5423
或曰	-10.5427
堅固	-10.5436
不能自	-10.5438
豈可	-10.5441
髙眞	-10.5441
斂	-10.5442
功夫	-10.5443
岐	-10.5443
嗚呼	-10.5447
以知	-10.5448
漬	-10.5449
貺	-10.545
生物	-10.5454
相似	-10.546
安樂	-10.546
此文	-10.5463
非我	-10.5465
嵩	-10.5467
惡人	-10.5467
三氣	-10.5469
玄冥	-10.5472
秩	-10.5473
二日	-10.5475
浄	-10.5482
狼	-10.5485
踏	-10.5486
五苦	-10.5486
故聖人	-10.5488
膚	-10.5489
所用	-10.5493
南昌	-10.5494
欲以	-10.5494
感通	-10.5499
速降	-10.55
而化	-10.5502
道不	-10.5502
睿	-10.5504
此符	-10.5504
錬度	-10.5505
書之	-10.5505
不是	-10.551
生焉	-10.5512
遠近	-10.5522
道則	-10.5522
沖和	-10.5529
之章	-10.5535
今人	-10.5536
之靈	-10.5536
邇	-10.5538
鉤	-10.5539
穩	-10.554
丞	-10.5541
之志	-10.5542
八節	-10.5544
豁	-10.5545
皆當	-10.5547
庇	-10.5554
襟	-10.557
抗	-10.557
萃	-10.557
揭	-10.557
玄中	-10.5575
涼	-10.5576
請問	-10.5579
姓某	-10.5583
吁	-10.5586
措	-10.5586
稀	-10.5586
飲之	-10.5589
志心	-10.5594
玉液	-10.5603
▁玉帝	-10.5608
合道	-10.5611
一事	-10.5616
之樂	-10.5622
雷火	-10.5623
奉爲	-10.5626
方寸	-10.5629
諦	-10.5631
因其	-10.5634
玄靈	-10.5638
注云	-10.5638
團	-10.5639
思之	-10.5641
嚮	-10.5648
你	-10.5648
有情	-10.5649
至德	-10.5654
賞罰	-10.5655
無異	-10.5655
是經	-10.5661
攝召	-10.5664
遮	-10.5664
功徳	-10.5665
在内	-10.5673
視聽	-10.5674
言而	-10.5676
▁信禮	-10.568
所出	-10.5681
若人	-10.5681
衣食	-10.5682
之祖	-10.5682
太守	-10.5684
在前	-10.5691
矣而	-10.5694
者所以	-10.5697
豈知	-10.5706
常行	-10.5709
其法	-10.571
暎	-10.5712
見有	-10.5712
淮	-10.5716
猶有	-10.5717
山之	-10.5717
善功	-10.5719
河上公曰	-10.5719
常在	-10.5725
道化	-10.5727
協	-10.5727
天帝君	-10.5729
法界	-10.5731
禮拜	-10.5733
萬年	-10.5734
陽光	-10.5736
金甲	-10.5736
亦猶	-10.5736
官屬	-10.5737
三尺	-10.5742
殫	-10.5743
金籙	-10.5745
保舉	-10.5745
欲求	-10.5746
戚	-10.5747
何有	-10.5751
無由	-10.5751
青華	-10.5752
轂	-10.5759
萬炁	-10.576
天氣	-10.5763
指揮	-10.5765
翊	-10.5777
通天	-10.5781
之民	-10.5785
日月之	-10.5785
去其	-10.5793
妻子	-10.5793
聾	-10.5794
分形	-10.5798
内觀	-10.5799
蓮花	-10.5799
根本	-10.5805
各各	-10.5806
填	-10.5807
遜	-10.5821
者何也	-10.5823
杳冥	-10.583
九日	-10.583
教之	-10.5832
神水	-10.5833
捻	-10.5835
熬	-10.5836
地上	-10.5836
亡者	-10.5836
將欲	-10.5838
滴	-10.5839
婬	-10.5839
街	-10.5839
祈禱	-10.5841
化身	-10.5845
失道	-10.5845
人多	-10.585
其所以	-10.5852
無言	-10.5853
天神	-10.5854
過去	-10.5854
也吾	-10.5854
物外	-10.5855
黃庭	-10.5856
去滓	-10.5866
正神	-10.587
岡	-10.5871
無他	-10.5876
无窮	-10.5877
無爲之	-10.5885
癰	-10.5886
紂	-10.5887
雕	-10.5887
懿	-10.5888
度厄	-10.5889
玉簡	-10.5892
亡人	-10.5897
昊天	-10.5897
薛	-10.5898
七魄	-10.5899
窟	-10.5903
䧟	-10.5904
距	-10.5904
忘其	-10.5905
▁太一	-10.5907
道家	-10.5907
群生	-10.5914
水官	-10.5914
褒	-10.592
華陽	-10.5923
唎	-10.5926
門户	-10.5926
和平	-10.5932
恱	-10.5936
不肖	-10.5937
須至	-10.5939
文昌	-10.5941
丹經	-10.5952
鳩	-10.5952
寂然	-10.5954
各自	-10.5955
口舌	-10.5956
磬	-10.5959
此理	-10.5963
書云	-10.5966
諸司	-10.5967
愚人	-10.5967
說法	-10.5967
大衆	-10.5967
竿	-10.5969
挫	-10.5969
牌	-10.5969
汎	-10.597
筋骨	-10.5972
忱	-10.5972
養性	-10.5977
慰	-10.5977
其根	-10.5978
夫道	-10.598
命門	-10.5992
歇	-10.5996
幡	-10.6001
姹女	-10.6002
無益	-10.6005
氣之	-10.6005
動則	-10.6008
莫知	-10.6009
嗔	-10.6011
不窮	-10.6012
遶	-10.6012
今之	-10.6013
地仙	-10.6015
嘘	-10.6016
歸根	-10.6017
▁第五	-10.6017
知此	-10.6017
潮	-10.6018
諾	-10.6018
上朝	-10.6018
之眞	-10.6019
諸仙	-10.6021
於前	-10.6021
白雪	-10.6023
或云	-10.6026
不合	-10.6033
唇	-10.6034
弼	-10.6036
運動	-10.6037
所求	-10.6039
三曰	-10.6039
孟子	-10.6039
不變	-10.604
襄	-10.6048
批	-10.605
丕	-10.605
三品	-10.6052
昨	-10.6056
亡靈	-10.6057
依科	-10.6069
黄素	-10.6069
星宿	-10.6072
▁䟽夫	-10.6076
叟	-10.6079
簫	-10.6083
德也	-10.6084
飮	-10.6087
一枚	-10.609
乎此	-10.609
替	-10.6091
獅子	-10.6092
道術	-10.6093
軟	-10.6098
溝	-10.61
尖	-10.61
仙都	-10.6102
可爲	-10.6102
紛紛	-10.6103
迅	-10.6106
蔭	-10.6116
謾	-10.6116
幢	-10.6126
也且	-10.6127
聞道	-10.6132
蓄	-10.6133
之儀	-10.6134
救度	-10.6137
侈	-10.6142
遼	-10.6147
於我	-10.6149
三業	-10.6149
▁桂心	-10.615
抽添	-10.6151
氛	-10.6177
天光	-10.6177
頭戴	-10.6177
茯苓	-10.6178
所能	-10.618
湘	-10.6182
自古	-10.6184
其國	-10.6191
清明	-10.6193
嗇	-10.6199
下手	-10.62
白鶴	-10.6207
流通	-10.6212
成都	-10.6213
則能	-10.6214
叩頭	-10.6216
熊	-10.6216
則天下	-10.6218
戈	-10.6218
霆	-10.6222
自非	-10.6225
也是	-10.6226
光照	-10.6227
未見	-10.6228
而欲	-10.6228
爲陽	-10.6231
敏	-10.6232
蔓	-10.6232
一作	-10.6238
從事	-10.6238
黄帝曰	-10.6246
圓滿	-10.6247
无所	-10.625
此一	-10.6254
周公	-10.6255
人知	-10.6256
其一	-10.6258
修奉	-10.6261
太山	-10.6262
之令	-10.6263
上應	-10.6263
幽明	-10.6267
之使	-10.6268
運轉	-10.6269
而動	-10.627
使其	-10.6271
分野	-10.6273
之勢	-10.6279
虹	-10.6282
沛	-10.6283
大乘	-10.6289
以示	-10.629
行人	-10.6294
紫虚	-10.6296
柴	-10.6298
桀	-10.6299
擅	-10.63
聊	-10.63
天堂	-10.6303
一言	-10.6309
月中	-10.6313
▁恩	-10.6317
蕩蕩	-10.6321
痢	-10.6321
疼	-10.6333
翹	-10.6338
延壽	-10.6344
頭上	-10.6345
大定	-10.6345
無用	-10.6345
不傷	-10.6346
徃來	-10.6347
六氣	-10.6347
▁北斗	-10.6347
債	-10.6348
正眞	-10.635
之首	-10.635
轍	-10.635
鴈	-10.635
盜賊	-10.6357
五斗	-10.6357
上玄	-10.6358
安鎮	-10.6359
出乎	-10.636
不治	-10.6362
之衆	-10.6362
屠	-10.6363
反覆	-10.6366
梯	-10.6375
一家	-10.6377
佩之	-10.6379
赫赫	-10.638
貯	-10.6384
雱曰	-10.6389
普濟	-10.6392
未至	-10.6392
君曰	-10.6394
道以	-10.6396
仙眞	-10.6396
壬癸	-10.6399
榖	-10.6401
其家	-10.6402
可得而	-10.6405
不知所	-10.6406
霸	-10.6407
九眞	-10.6408
五行之	-10.6409
其色	-10.6409
無生	-10.641
自見	-10.6421
而不爲	-10.6422
玄黄	-10.6427
不亦	-10.6429
道無	-10.6433
侍衞	-10.6433
安靜	-10.6434
劣	-10.6435
檀	-10.6435
何必	-10.6436
之期	-10.6447
何不	-10.6448
何故	-10.6448
窗	-10.6452
拭	-10.6452
粥	-10.6452
同歸	-10.6456
奈	-10.6458
法官	-10.6462
入于	-10.6465
此其	-10.6465
至聖	-10.6467
則不能	-10.647
老氏	-10.647
飛騰	-10.6471
百靈	-10.648
熒惑	-10.6486
洞淵	-10.6486
股	-10.6486
渉	-10.6486
形而	-10.6486
不散	-10.6486
其時	-10.649
理也	-10.6491
岱	-10.6498
以待	-10.6504
萬變	-10.6505
不違	-10.6509
青玄	-10.651
鬚	-10.6518
樵	-10.6521
所不	-10.6522
繡	-10.6524
其行	-10.6525
覆載	-10.6528
功過	-10.6534
譴	-10.6537
某甲	-10.654
茅山	-10.6543
兩儀	-10.6544
由此	-10.6547
皇天	-10.655
盻	-10.6551
六十四	-10.6554
版	-10.6555
蔚	-10.6555
紫炁	-10.6562
名字	-10.6563
羸	-10.6566
之禮	-10.6567
受之	-10.6569
未盡	-10.6572
庚申	-10.6572
韶	-10.6572
人天	-10.6573
之色	-10.6574
先後	-10.6579
用事	-10.6582
符使	-10.6584
應時	-10.6585
從官	-10.6585
養神	-10.6588
課	-10.6589
摶	-10.659
挹	-10.659
豕	-10.659
迭	-10.659
离	-10.659
陽之	-10.6594
爲度	-10.6595
葱	-10.66
爲上	-10.6602
則必	-10.6603
子時	-10.6606
日出	-10.6606
者何	-10.6607
若欲	-10.6607
接引	-10.6608
漸漸	-10.6609
皮膚	-10.661
无形	-10.6611
老聃	-10.6612
▁祖師	-10.6614
登眞	-10.6614
法度	-10.6616
明道	-10.6619
大腸	-10.662
到此	-10.6621
虚而	-10.6625
不厭	-10.6626
萬鬼	-10.6626
魅	-10.6628
雌雄	-10.6637
求道	-10.6638
蠲	-10.6641
在外	-10.6642
應化	-10.6645
獵	-10.6653
其眞	-10.6654
孩	-10.6657
武帝	-10.6658
好惡	-10.6659
厨	-10.6661
自化	-10.6662
火急	-10.6665
之貌	-10.6671
大明	-10.6672
腥	-10.6672
岐伯曰	-10.6673
之義也	-10.6676
而不得	-10.6679
而用之	-10.6682
惶	-10.6688
肘	-10.6692
萬丈	-10.6693
卽是	-10.6694
燿	-10.6694
此三	-10.6695
法象	-10.6697
五聲	-10.6697
境界	-10.6701
心神	-10.6705
有德	-10.6707
故得	-10.6707
之域	-10.6714
魂神	-10.6715
自以爲	-10.6715
眞人曰	-10.6722
怡	-10.6723
至妙	-10.6725
轅	-10.6727
炳	-10.6729
▁大道	-10.6733
十分	-10.6733
匹	-10.6738
其大	-10.6742
辦	-10.6747
事之	-10.6747
臘	-10.6754
僚	-10.6755
眞元	-10.6757
之路	-10.6758
翰	-10.6761
剌	-10.6764
不拘	-10.6764
▁至心歸命信禮	-10.6764
椎	-10.6764
者死	-10.6774
死魂	-10.6776
百二十	-10.6776
掠	-10.6777
八字	-10.678
紐	-10.6781
怕	-10.6782
不許	-10.6784
上經	-10.6789
其精	-10.6793
聦	-10.6795
吽	-10.6796
四季	-10.6796
不忍	-10.6798
不思	-10.6798
心爲	-10.68
無道	-10.6801
夏至	-10.6802
所由	-10.6806
不畏	-10.6808
栗	-10.6817
此書	-10.6818
吾奉	-10.6818
告文	-10.682
故其	-10.682
邪魔	-10.6828
之端	-10.6831
天樞	-10.6843
此謂	-10.6846
乃能	-10.6853
斜	-10.6853
柯	-10.6853
幽顯	-10.6854
隱居	-10.6855
成丹	-10.6859
恭敬	-10.6859
靈臺	-10.6861
生炁	-10.6862
四聖	-10.6863
相隨	-10.6864
蝕	-10.6868
也謂	-10.6869
化形	-10.6869
絃	-10.6871
日日	-10.6873
應之	-10.6876
姬	-10.6876
歸依	-10.688
每日	-10.6886
法門	-10.6887
痊	-10.6888
▁謹請	-10.6896
而況	-10.6901
某處	-10.6903
袖	-10.6904
數也	-10.6907
齋主某	-10.6908
一百二十	-10.6908
干冒	-10.691
恍	-10.6914
硫黄	-10.6916
赤明	-10.6916
陰符	-10.6922
玄眞	-10.6925
鳥獸	-10.6934
揆	-10.6939
九祖	-10.6946
復命	-10.6947
月華	-10.6949
肖	-10.6952
建立	-10.6953
翕	-10.6958
火燒	-10.696
淸淨	-10.6963
夫妻	-10.6965
蘂	-10.6967
書曰	-10.6975
泊	-10.6978
法輪	-10.6989
流精	-10.6991
相交	-10.6993
椒	-10.6995
天真	-10.6997
紫庭	-10.7004
三升	-10.7006
不傳	-10.7007
往往	-10.7011
椿	-10.7014
竇	-10.7014
績	-10.7014
叢	-10.7021
因而	-10.7023
御䟽	-10.7026
瘦	-10.703
之憂	-10.7031
則生	-10.7033
大德	-10.7034
以告	-10.7044
普天	-10.7044
幅	-10.705
伏羲	-10.7055
祭祀	-10.7056
其生	-10.7058
方圓	-10.7062
二子	-10.7065
裔	-10.7068
行於	-10.7069
一遍	-10.7072
偷	-10.7076
爲君	-10.7079
言功	-10.7083
東井	-10.7087
飛空	-10.7092
吐納	-10.7099
念念	-10.7101
所知	-10.7104
九陽	-10.7104
爲禍	-10.7105
無功	-10.7108
皆從	-10.7111
問之	-10.7112
何以故	-10.7113
大臣	-10.7119
彼此	-10.7121
八難	-10.7122
峙	-10.7123
衣冠	-10.7126
形如	-10.7126
九光	-10.7136
㝷	-10.7141
敝	-10.7141
饗	-10.7141
▁明皇曰	-10.7143
諸子	-10.7145
又名	-10.7145
福德	-10.7145
則氣	-10.7152
猶未	-10.7153
鍊形	-10.7155
未生	-10.7157
戒者	-10.7158
出世	-10.7159
墳	-10.7159
咽液	-10.716
惡乎	-10.7166
汗出	-10.7167
四極	-10.7169
次存	-10.7169
之世	-10.7171
明矣	-10.7175
中出	-10.7177
二十六	-10.7177
者如	-10.7181
轉輪	-10.7183
甲申	-10.7184
度師	-10.7188
高眞	-10.7189
三遍	-10.7189
中來	-10.7192
莫之	-10.7192
者以其	-10.7193
綸	-10.7194
授之	-10.7195
家人	-10.7201
無可	-10.7202
翫	-10.7205
坦	-10.7205
靈書	-10.7206
此人	-10.7207
嘔	-10.7208
伏望	-10.7209
法身	-10.7209
之官	-10.7211
之符	-10.7212
墟	-10.7213
髻	-10.7215
餅	-10.7215
趾	-10.7215
後聖	-10.7215
莫若	-10.7216
齋壇	-10.7219
某等	-10.722
至大	-10.7223
昔者	-10.7223
尉	-10.7224
俗人	-10.7226
聳	-10.7233
五常	-10.7235
採藥	-10.7237
乎天	-10.7238
金鼎	-10.7238
蟬	-10.7251
罹	-10.7252
事理	-10.7252
吾道	-10.7253
不可不	-10.7253
開通	-10.7254
日光	-10.7254
而忘	-10.7255
謹按	-10.7258
𡨋	-10.7259
艱	-10.7261
萬物皆	-10.7264
愚者	-10.7267
玄虚	-10.727
於己	-10.7272
三焦	-10.7274
帀	-10.7284
易之	-10.7285
所至	-10.7285
下士	-10.7286
上道	-10.7288
矩	-10.7288
八年	-10.7289
陽生	-10.7301
北海	-10.7303
之餘	-10.7305
啖	-10.7307
在地	-10.731
五寸	-10.7311
之苦	-10.7312
豹	-10.7314
附子	-10.732
裝	-10.7322
發生	-10.7325
斑	-10.7326
?	-10.7326
彦	-10.7326
需	-10.7326
梨	-10.7326
者謂之	-10.7326
玉訣	-10.7327
極則	-10.7327
神咒	-10.7327
八門	-10.7329
虎狼	-10.733
子貢	-10.7332
是其	-10.7333
無盡	-10.7335
醴	-10.7335
神兵	-10.7335
祈雨	-10.7337
陛	-10.734
之異	-10.7343
谷神	-10.7344
上請	-10.7348
痹	-10.735
所作	-10.735
面目	-10.7351
衷	-10.7354
之象也	-10.7356
九皇	-10.7358
忠信	-10.7359
陽也	-10.736
嫁	-10.7363
僊	-10.7364
/○○○	-10.7365
改元	-10.7365
數日	-10.7366
不順	-10.7366
情欲	-10.737
所屬	-10.7373
不由	-10.7375
非眞	-10.7377
有五	-10.7377
亟	-10.7382
叩齒九通	-10.7382
祇	-10.7384
其體	-10.7386
法籙	-10.7386
靈章	-10.7397
山下	-10.7398
仁者	-10.7401
恬淡	-10.7402
無我	-10.7408
地之	-10.741
此亦	-10.7414
流水	-10.7414
章第十	-10.7416
擎	-10.742
者矣	-10.7423
聖胎	-10.7424
妙化	-10.7425
平安	-10.7427
精進	-10.7429
金門	-10.743
可也	-10.7431
無始	-10.7431
爍	-10.7434
淑	-10.7439
昊	-10.7442
苦惱	-10.7443
武王	-10.7449
獨立	-10.7452
者道之	-10.7453
驟	-10.7454
一片	-10.7455
跂	-10.7457
求仙	-10.7462
地下	-10.7466
三途	-10.7467
蔣	-10.7474
一朝	-10.7475
俊	-10.7476
酷	-10.7476
鵬	-10.7476
之災	-10.7477
昆	-10.7485
誰能	-10.7486
追攝	-10.7486
紫金	-10.7486
鵲	-10.7494
洎	-10.7495
裕	-10.7495
隋	-10.7495
亶	-10.7495
笈	-10.7498
紫房	-10.75
妙有	-10.7503
六道	-10.7508
捲	-10.7514
玉堂	-10.7514
駢	-10.7514
好道	-10.7522
癘	-10.7527
平旦	-10.7529
太帝	-10.7533
劇	-10.7533
通達	-10.754
未聞	-10.754
山谷	-10.7544
而終	-10.7548
固有	-10.755
恤	-10.755
之號	-10.7553
寳經	-10.7554
採取	-10.7558
一千	-10.7561
太華	-10.7562
血脉	-10.7563
八威	-10.7565
邪鬼	-10.7566
丈夫	-10.7568
相通	-10.7568
以正	-10.757
▁按	-10.7572
二三	-10.7573
一生	-10.7576
受其	-10.7577
洞靈	-10.7583
害人	-10.7588
復歸	-10.7589
譚	-10.759
殊不知	-10.7591
喝	-10.7601
▁第六	-10.7601
神吏	-10.7606
不得不	-10.7607
萬聖	-10.7609
媒	-10.761
刀圭	-10.7612
六年	-10.7613
空虚	-10.7613
自來	-10.7622
不問	-10.7622
火光	-10.7623
清濁	-10.7623
桐	-10.7628
祿	-10.7628
殉	-10.7629
地祇	-10.7632
甚多	-10.7633
掘	-10.7635
龍神	-10.7638
邵	-10.7641
斛	-10.7642
神農	-10.7643
無色	-10.7643
而民	-10.7646
叉	-10.7647
▁衍義云	-10.7648
尊卑	-10.7648
▁太清	-10.765
以聞	-10.7652
也如	-10.7652
之又	-10.7653
榮華	-10.7654
第十	-10.7657
有異	-10.766
人爲	-10.766
寐	-10.7665
妄想	-10.7665
握固	-10.7666
坑	-10.7667
敢有	-10.7668
此身	-10.767
正陽	-10.7672
後有	-10.7674
靜則	-10.7676
至精	-10.7683
飛玄	-10.7685
鎔	-10.7686
未免	-10.7687
揣	-10.7687
三十五	-10.7689
昇仙	-10.7689
膿	-10.769
仙家	-10.769
不可思議	-10.7691
同卷	-10.7693
琳	-10.7699
大抵	-10.7699
紋	-10.7702
不修	-10.7703
傷人	-10.7704
己之	-10.7705
君之	-10.7705
箋	-10.7706
知足	-10.7706
爲先	-10.7706
其情	-10.7707
不壞	-10.771
日月星辰	-10.7712
丁巳	-10.7713
玄天	-10.7714
册	-10.7715
四年	-10.7717
亦名	-10.7722
自成	-10.7724
死亡	-10.7726
秋冬	-10.7727
熾	-10.7731
春夏	-10.7733
小大	-10.7734
死而	-10.7735
寡人	-10.7736
梓	-10.7738
五升	-10.7738
玄門	-10.774
有司	-10.774
字號計十	-10.7743
痰	-10.7745
聯	-10.7745
夫唯	-10.7746
心者	-10.7747
無遺	-10.7747
江河	-10.7748
知也	-10.7755
造物	-10.7755
王公	-10.7757
劫運	-10.7758
聽之	-10.7763
鉢	-10.7764
拆	-10.7764
亦曰	-10.7765
則非	-10.7766
詮	-10.7767
▁申	-10.7774
山水	-10.7775
十過	-10.7775
織	-10.7779
不任	-10.7782
纖	-10.7783
蛻	-10.7784
妬	-10.7784
喧	-10.7784
沃	-10.7784
如此則	-10.7785
奉道	-10.7785
瑕	-10.7792
經中	-10.7801
道德之	-10.7813
之命	-10.7814
眞宰	-10.7816
轟	-10.7817
難得	-10.7818
忘言	-10.7819
轄	-10.7821
造化之	-10.7823
鋭	-10.7823
上德	-10.7823
李云	-10.7826
室中	-10.7826
豁落	-10.7828
九壘	-10.7829
貧賤	-10.783
不著	-10.783
一十二	-10.783
只在	-10.7831
玉章	-10.7834
不孝	-10.7835
南華	-10.784
宫室	-10.7841
先須	-10.7842
生身	-10.7843
軒轅	-10.7843
黄華	-10.7846
修持	-10.7851
庚辛	-10.7855
丙午	-10.7867
▁御注曰	-10.7868
吉祥	-10.787
藻	-10.7878
寜	-10.7879
婚	-10.7882
淚	-10.7882
眄	-10.7882
孰爲	-10.7884
可乎	-10.7888
在世	-10.7888
者不可	-10.789
妙本	-10.7892
二升	-10.7893
難以	-10.7893
此之謂也	-10.7897
九氣	-10.7897
有常	-10.79
▁徽宗註曰	-10.7901
屎	-10.7901
𨽻	-10.7901
無爲也	-10.7903
臣聞	-10.7906
而起	-10.7907
性之	-10.7907
▁中央	-10.7909
不妄	-10.7909
所願	-10.7911
黜	-10.7921
逍遙	-10.7921
端坐	-10.7925
有時	-10.7928
本性	-10.7932
女人	-10.7934
濤	-10.7937
爲害	-10.7937
袁	-10.7941
殁	-10.7941
縳	-10.7941
教主	-10.7942
互相	-10.7943
金龍	-10.7947
當其	-10.7947
赤炁	-10.7947
洞真	-10.7948
傅之	-10.795
魁罡	-10.795
五六	-10.7951
圓成	-10.7955
雹	-10.7961
能爲	-10.7966
不樂	-10.7968
▁劉	-10.7972
者雖	-10.7975
其日	-10.7975
死矣	-10.7977
之表	-10.7978
山嶽	-10.798
凍	-10.7981
抛	-10.7981
𥘉	-10.7981
无有	-10.7981
杵	-10.7996
之辭	-10.7999
終於	-10.7999
戒者不得	-10.8
有道者	-10.8001
玉札	-10.8003
而上	-10.8004
猛獸	-10.8006
西王母	-10.801
仙靈	-10.8011
佚	-10.8021
訛	-10.8021
非也	-10.8025
亦當	-10.8027
真炁	-10.803
判官	-10.8031
開元	-10.8034
天地之間	-10.8039
開悟	-10.804
譏	-10.8041
▁臣義曰	-10.8041
▁聞者	-10.8044
有何	-10.8051
洞中	-10.8056
閉塞	-10.8058
刋	-10.8061
我者	-10.8064
不化	-10.8064
下界	-10.8068
和之	-10.8071
物無	-10.8072
腑	-10.8073
▁界	-10.8078
蘆	-10.808
微祝曰	-10.808
玉眞	-10.8082
一國	-10.8083
無一	-10.8088
物我	-10.8089
莽	-10.8089
無定	-10.809
太歲	-10.8093
人倫	-10.8094
自爲	-10.8094
修煉	-10.8095
縫	-10.8096
稷	-10.8098
有四	-10.8101
償	-10.8101
交媾	-10.8102
常住	-10.8102
▁䟽義曰	-10.8102
火車	-10.8103
萬方	-10.8104
日新	-10.8107
不染	-10.8107
華山	-10.8109
一合	-10.8111
神神	-10.8112
道路	-10.8112
不老	-10.8112
太古	-10.8113
禁忌	-10.8113
水旱	-10.8115
已成	-10.8116
弩	-10.8117
靈砂	-10.8121
玄科	-10.8121
擢	-10.8121
槐	-10.8121
不立	-10.8121
天有	-10.8122
而又	-10.8122
因以	-10.8124
▁玉皇	-10.8125
不作	-10.8125
未嘗不	-10.8126
成䟽	-10.8127
自謂	-10.8128
▁清微	-10.8128
皇后	-10.813
玉闕	-10.8131
兆民	-10.8132
羅列	-10.814
迨	-10.8141
釁	-10.8141
聘	-10.8141
變而	-10.8142
帝一	-10.8145
符籙	-10.8147
甲戌	-10.8147
性也	-10.8149
雷雨	-10.8151
永無	-10.8152
求其	-10.8155
當先	-10.8156
誨	-10.8156
人亦	-10.8157
綬	-10.8158
一毫	-10.8159
者能	-10.816
柏	-10.816
何由	-10.816
伏以	-10.8167
萬福	-10.8168
賁	-10.8172
江南	-10.8173
大道之	-10.8173
之福	-10.8175
爲惡	-10.8181
纓	-10.8182
?」	-10.8182
槩	-10.8182
凢	-10.8182
而弗	-10.8184
脇	-10.8185
頃刻	-10.8186
其爲	-10.8198
價	-10.82
人曰	-10.8201
凝結	-10.8202
噴	-10.8202
武侯	-10.8207
五千	-10.8208
愛之	-10.8221
慘	-10.8222
苦海	-10.8222
江湖	-10.8223
有命	-10.8226
一句	-10.823
一息	-10.8233
貴人	-10.8234
萬有	-10.8234
贖	-10.8242
始也	-10.8243
新校正云按	-10.8243
凖	-10.8243
廵	-10.8243
扉	-10.8243
我以	-10.8245
之節	-10.8247
有知	-10.8251
郁	-10.8253
十里	-10.8253
當歸	-10.8254
仞	-10.8256
之盛	-10.8257
可以爲	-10.8262
時也	-10.8262
至心	-10.8262
攘	-10.8263
奎	-10.8263
氤氲	-10.8263
法也	-10.8263
縷	-10.8263
羡	-10.8263
邱	-10.8263
頽	-10.8263
涕	-10.8264
若非	-10.8267
一如告命	-10.8267
玄德	-10.8271
沉淪	-10.8273
仲尼曰	-10.8276
方能	-10.8278
明眞	-10.8278
大者	-10.8281
制伏	-10.8282
三過	-10.8288
去處	-10.8289
妙理	-10.829
居中	-10.8296
散花	-10.8296
模	-10.8303
隊	-10.8304
欵	-10.8304
登壇	-10.8306
礬	-10.8309
無涯	-10.8312
變成	-10.8313
不失其	-10.8326
恭惟	-10.8329
之水	-10.8332
九龍	-10.8334
疆	-10.8335
消魔	-10.8336
庚子	-10.8338
傳之	-10.834
事事	-10.8343
九九	-10.8343
豉	-10.8346
埃	-10.8348
吞之	-10.8348
千載	-10.835
丁亥	-10.8353
精微	-10.8356
若以	-10.8356
見聞	-10.8357
挽	-10.8366
也〇	-10.8367
肌膚	-10.8367
脹	-10.8371
聦明	-10.8371
究竟	-10.8373
河曰	-10.8375
異於	-10.8376
紫清	-10.8382
物者	-10.8384
心存	-10.8384
矣若	-10.8385
淩	-10.8385
聖王	-10.8386
玄中大法師	-10.8387
長乆	-10.8387
則人	-10.839
相和	-10.8391
至極	-10.8392
五者	-10.8392
▁舊註	-10.8392
社令	-10.8397
所宜	-10.8397
能使	-10.8402
處處	-10.8404
嗜欲	-10.8406
命也	-10.8406
唤	-10.8408
之利	-10.8413
火輪	-10.8414
馘	-10.8415
真靈	-10.8417
從而	-10.8424
小國	-10.843
靈應	-10.8431
五分	-10.8431
照耀	-10.8434
之流	-10.8435
聖智	-10.8439
傷寒	-10.8439
道德經	-10.8439
伏火	-10.844
蒼生	-10.844
韜	-10.8441
從容	-10.8442
知止	-10.8442
物有	-10.8442
其内	-10.8443
隴	-10.8444
玄微	-10.8449
霽	-10.8449
曰天	-10.845
地官	-10.8454
咽之	-10.8455
者先	-10.8463
四百	-10.8472
論曰	-10.8475
迸	-10.8476
其說	-10.8477
葆	-10.8478
▁三天	-10.8478
眞實	-10.8479
簡文	-10.8482
普告	-10.8484
解厄	-10.8485
白玉	-10.8485
凋	-10.849
戟	-10.8491
八兩	-10.8494
爲陰	-10.8495
追魂	-10.8496
乎哉	-10.8498
悟道	-10.8501
言者	-10.8502
不滅	-10.8505
▁老君曰	-10.8505
也是故	-10.8507
不聽	-10.8507
根源	-10.8511
弔	-10.8512
翅	-10.8512
桓公	-10.8513
更有	-10.8513
無為	-10.8519
相對	-10.852
發明	-10.8521
濛	-10.8521
素靈	-10.8525
服藥	-10.853
自稱	-10.8532
發於	-10.8534
壬子	-10.8536
百歲	-10.854
知有	-10.8542
化人	-10.8557
義也	-10.8557
二分	-10.8566
靈根	-10.857
同乎	-10.8575
簇	-10.8575
!	-10.8575
痺	-10.8575
八日	-10.8579
養氣	-10.8586
齋法	-10.8586
哉故	-10.8587
器中	-10.859
化之	-10.8591
亦以	-10.8596
其母	-10.8598
有聲	-10.8598
玉童玉女	-10.8603
乃爲	-10.8604
到處	-10.8606
不假	-10.8606
匝	-10.8608
术	-10.8609
不亂	-10.8609
縱横	-10.861
狄	-10.861
訴	-10.8616
盡矣	-10.8616
將以	-10.8617
方知	-10.8619
不和	-10.8622
雲中	-10.8623
必得	-10.8626
形質	-10.8627
蟠	-10.8631
涯	-10.8632
長久	-10.8632
物皆	-10.8632
有數	-10.8633
上啓	-10.8634
扃	-10.8639
䕃	-10.8639
酆	-10.864
三十九	-10.864
寳籙	-10.8641
莫知其	-10.8641
下文	-10.8645
十天	-10.8648
衢	-10.8649
遞	-10.8649
勲	-10.866
塡	-10.866
脛	-10.866
可使	-10.8661
儼	-10.8661
全其	-10.8662
生滅	-10.8667
爲物	-10.867
也雖	-10.8671
家國	-10.8671
則可以	-10.8675
化育	-10.8677
則雖	-10.868
涸	-10.8681
復生	-10.8685
建齋	-10.8685
法中	-10.8686
未始有	-10.8689
温養	-10.8694
陞	-10.8699
者是也	-10.8702
頥	-10.8703
脯	-10.8703
▁志心歸命	-10.8703
赤色	-10.8703
三四	-10.8707
壬午	-10.8708
復還	-10.8709
而實	-10.871
伏魔	-10.8711
千日	-10.8712
緘	-10.8717
誑	-10.8721
篇云	-10.8723
饌	-10.8724
擔	-10.8724
周旋	-10.8725
青童	-10.8726
事畢	-10.8726
唯唯	-10.8734
血湖	-10.8737
靈飛	-10.8744
虬	-10.8746
蠟	-10.8746
慶雲	-10.8746
所不能	-10.8749
三聲	-10.875
人世	-10.8752
善行	-10.8753
鼎器	-10.8753
相連	-10.8757
上法	-10.8759
降臨	-10.8762
牖	-10.8765
浩劫	-10.8766
芥	-10.8766
咨	-10.8767
岑	-10.8767
▁郭註	-10.8768
威光	-10.877
白馬	-10.8775
山澤	-10.8776
半斤	-10.8776
丹元	-10.8777
者也故	-10.878
餓	-10.8781
宿命	-10.8786
培	-10.8789
恢	-10.8795
若干	-10.8802
稟	-10.881
寔	-10.881
綴	-10.881
贍	-10.881
隳	-10.881
入水	-10.881
圓通	-10.881
百萬	-10.8812
經緯	-10.8814
▁右法	-10.8818
真經	-10.8821
而致	-10.8821
無象	-10.8823
壬辰	-10.8824
所聞	-10.8829
正直	-10.8829
氣氣	-10.883
下土	-10.8831
洞徹	-10.8833
讀書	-10.8839
情性	-10.8839
紫極	-10.8841
塵垢	-10.8844
配合	-10.8845
太始	-10.8845
大如	-10.8846
今古	-10.8848
窒	-10.8853
苛	-10.8854
得以	-10.8856
長生不死	-10.8857
大乗	-10.8865
湯治	-10.8865
之風	-10.8865
▁又曰	-10.8867
頂上	-10.887
過度	-10.8871
萬國	-10.8872
淘	-10.8875
符呪	-10.8876
其方	-10.8877
子母	-10.888
聖人不	-10.8882
進火	-10.8885
神龍	-10.8893
拳	-10.8895
不勞	-10.8895
盍	-10.8897
痔	-10.8897
謹牒	-10.8897
不可見	-10.8898
祈恩	-10.89
澹	-10.8902
洞府	-10.8907
兵士	-10.8908
泉曲	-10.8908
皆在	-10.891
六情	-10.8911
是之謂	-10.8911
勤行	-10.8914
恰	-10.8916
彼我	-10.8922
今以	-10.8923
天柱	-10.8923
▁北帝	-10.8925
不異	-10.8928
耆	-10.893
白炁	-10.8932
於無	-10.8936
在身	-10.8939
九五	-10.8941
頂門	-10.8945
於下	-10.895
愼之	-10.895
萬古	-10.8951
音聲	-10.8952
之美	-10.8956
真符	-10.8958
而可	-10.8961
蜂	-10.8961
哺	-10.8962
釐	-10.8962
儔	-10.8963
麾	-10.8963
見在	-10.8964
二八	-10.8965
北辰	-10.8966
之運	-10.8973
王子	-10.8973
三禮	-10.8974
謝過	-10.8975
玉淸	-10.8975
問道	-10.8978
者自	-10.8981
之基	-10.8981
人得	-10.8986
口吐	-10.8986
而萬物	-10.8988
五符	-10.8988
▁人參	-10.899
寳珠	-10.8991
爲國	-10.8992
其民	-10.8995
者不能	-10.9
如斯	-10.9001
黄白	-10.9002
天魔王	-10.9003
橘	-10.9004
終無	-10.9005
必以	-10.9005
常道	-10.9006
迂	-10.9007
直上	-10.9008
丁未	-10.9008
請降	-10.9009
而無所	-10.9012
孝子	-10.9013
交合	-10.9018
聖人之道	-10.9021
牡	-10.9021
三合	-10.9022
忽見	-10.9023
則失	-10.9024
青衣	-10.9024
有言	-10.9025
隱書	-10.9026
作禮	-10.9027
何人	-10.9028
休息	-10.903
長史	-10.9032
存心	-10.9035
原赦	-10.9039
焉故	-10.9044
以傳	-10.9047
兀	-10.9051
臼	-10.9051
福田	-10.9054
用其	-10.9055
天魔	-10.9059
平生	-10.9069
▁經曰	-10.907
十極	-10.9073
殺害	-10.9079
以手	-10.9079
道衆	-10.908
滋味	-10.908
中指	-10.9082
雖不	-10.9082
一尺	-10.9084
所犯	-10.9085
個	-10.9086
無端	-10.9091
隨其	-10.9092
淹	-10.9093
扁	-10.9094
㐫	-10.9095
嘻	-10.9095
帖	-10.9095
此意	-10.9097
異也	-10.9098
金童	-10.9099
可與	-10.91
真文	-10.91
文書	-10.91
牛馬	-10.9101
方得	-10.9104
仙經	-10.9117
砒	-10.9118
茍	-10.9118
爲體	-10.9118
規矩	-10.9119
忽有	-10.912
動植	-10.9122
辰星	-10.9123
胸中	-10.9125
也但	-10.9125
鼎中	-10.913
通明	-10.9133
而心	-10.9133
紫氣	-10.9134
千古	-10.9136
之病	-10.9136
曩	-10.914
挑	-10.914
百餘	-10.9141
六腑	-10.9148
妙行	-10.9149
超昇	-10.9149
一錢	-10.9158
之候	-10.9159
理之	-10.9161
法令	-10.9162
沒	-10.9162
郤	-10.9162
鼔	-10.9162
止也	-10.9164
戒之	-10.9169
眞陽	-10.9169
從心	-10.917
清風	-10.9178
得長生	-10.9178
榮曰	-10.9178
黄老	-10.918
非其	-10.918
逞	-10.9185
虜	-10.9185
聖德	-10.9185
十萬人	-10.9187
亦能	-10.919
是何	-10.9191
十二人	-10.9194
赫奕	-10.9196
二景	-10.9197
惡之	-10.9198
如人	-10.9199
功滿	-10.9201
玄機	-10.9205
以相	-10.9205
嗚	-10.9205
▁圖經曰	-10.9209
歸一	-10.9218
懈	-10.9218
淨明	-10.9221
入地	-10.9221
一處	-10.9225
圓光	-10.9227
裴	-10.9229
墨子	-10.9229
動作	-10.923
婚姻	-10.923
神鬼	-10.9235
字道	-10.9237
經典	-10.9237
性情	-10.9238
知而	-10.9238
疇	-10.9238
火之	-10.9239
澄清	-10.9239
疰	-10.924
而作	-10.9249
先生曰	-10.9251
挈	-10.9251
幣	-10.9252
濱	-10.9252
道經	-10.9255
年月日時	-10.9255
存乎	-10.9261
下部	-10.9261
上淸	-10.9262
味苦	-10.9263
此等	-10.9266
▁太玄	-10.9266
樞機	-10.9266
先以	-10.9266
二千	-10.9266
久久	-10.9267
太歳	-10.9269
高明	-10.927
所致	-10.9272
不差	-10.9272
囂	-10.9279
蒿	-10.928
上文	-10.9285
明年	-10.9286
衆等	-10.9288
之母	-10.9288
跳	-10.9291
▁太上老君	-10.9292
問於	-10.9295
超然	-10.9296
真仙	-10.9299
亦復如是	-10.93
無數	-10.9303
交會	-10.9304
一般	-10.9304
年月	-10.9305
通眞	-10.9308
隨意	-10.9309
線	-10.931
也所以	-10.9313
風吹	-10.9315
執法	-10.9319
忙	-10.932
丙子	-10.932
鬥	-10.932
七轉	-10.9321
財物	-10.9321
我等	-10.9328
經文	-10.9329
命之	-10.9329
數百	-10.9332
▁鈔	-10.9332
之實	-10.9333
宣告	-10.9335
甲午	-10.9335
須知	-10.9336
要在	-10.9337
不遇	-10.9339
不盈	-10.9339
方外	-10.9341
假令	-10.9342
注生	-10.9347
有象	-10.9347
不敬	-10.9349
乃知	-10.9355
卷之三	-10.9355
▁第七	-10.9357
潤澤	-10.9358
御史	-10.9358
▁牒	-10.9358
雲霞	-10.9363
之器	-10.9363
梧	-10.9364
媚	-10.9366
摘	-10.9366
暈	-10.9366
祖宗	-10.9368
不負	-10.9375
他日	-10.9375
胞胎	-10.9379
下臨	-10.9381
救人	-10.9381
其能	-10.9385
萊	-10.9385
推之	-10.9387
▁上元	-10.939
六百	-10.9391
衆官	-10.9392
照臨	-10.9392
大師	-10.9395
孔明	-10.9398
濟物	-10.9406
拾	-10.9407
盡其	-10.9408
四維	-10.9412
確	-10.9412
撼	-10.9412
非是	-10.9415
來迎	-10.9416
異名	-10.9416
虚心	-10.9416
十二時	-10.9421
如有	-10.9423
丁丑	-10.9425
庚辰	-10.9426
廬山	-10.9426
▁當歸	-10.9427
二十九	-10.9427
禮義	-10.9428
瀝	-10.9433
但見	-10.9434
又問	-10.9434
、	-10.9435
流金	-10.9438
戊辰	-10.9439
隨之	-10.9442
四寸	-10.9444
▁元始天尊	-10.9445
則可	-10.9445
章奏	-10.9448
者哉	-10.9453
之野	-10.9457
嫉	-10.9458
勁	-10.9458
稻	-10.9458
馳騁	-10.9459
若見	-10.9463
從來	-10.9463
蛟龍	-10.9467
徐徐	-10.9468
身命	-10.9468
硫	-10.947
飄飄	-10.9472
之年	-10.9473
敢不	-10.9474
廕	-10.9481
敖	-10.9481
徽	-10.9483
匀	-10.9485
百骸	-10.9489
謹請	-10.9491
一丸	-10.9493
不干	-10.9497
災厄	-10.95
騁	-10.9503
吝	-10.9503
二音	-10.9503
受錬	-10.9504
某日	-10.9508
合同	-10.9511
人欲	-10.9514
傳曰	-10.9516
腎氣	-10.9517
性命之	-10.9518
出而	-10.9519
内丹	-10.9521
之語	-10.9524
欲使	-10.9524
丐	-10.9526
藩	-10.9527
憤	-10.9527
冠帶	-10.9528
流火	-10.9529
名書	-10.9529
死也	-10.9532
此所謂	-10.9533
具位	-10.9534
▁寸	-10.9534
香花	-10.9537
七百	-10.9539
六通	-10.9541
乙丑	-10.9541
三拜	-10.9542
以德	-10.9542
亡䰟	-10.9545
其位	-10.9546
山河	-10.9547
矣今	-10.9548
勑命	-10.9548
渺	-10.9549
傑	-10.955
酥	-10.9551
掇	-10.9551
不貴	-10.9551
無毒	-10.9552
玄功	-10.9554
今據	-10.9555
本作	-10.9555
不一	-10.9556
得生	-10.9557
而易	-10.9565
虎豹	-10.9566
當作	-10.9568
癸亥	-10.9569
色如	-10.9572
夸	-10.9574
躔	-10.9574
潘	-10.9574
曰道	-10.9574
十萬	-10.9578
今世	-10.9581
陽炁	-10.9584
不昧	-10.9592
迷惑	-10.9593
勳	-10.9596
罵	-10.9597
兎	-10.9597
▁衍義曰	-10.9597
飛歩	-10.9598
信之	-10.9607
亡故某	-10.9608
一元	-10.9608
之哉	-10.9613
體用	-10.9613
與吾	-10.9618
樊	-10.962
鬻	-10.9621
黍米	-10.9622
心痛	-10.9623
其可	-10.9624
大劫	-10.9626
陽火	-10.963
疵	-10.9631
曹仙官	-10.9635
罪業	-10.9644
䖏	-10.9644
秤	-10.9644
𥙷	-10.9644
者可以	-10.9644
天府	-10.9645
塗之	-10.9646
之臺	-10.9647
默默	-10.9652
戊子	-10.9653
森	-10.9654
雷局	-10.9655
神眞	-10.9659
未有不	-10.966
壽命	-10.966
每服	-10.966
亦不能	-10.9661
驂	-10.9663
付之	-10.9667
歆	-10.9668
大地	-10.967
大魔王	-10.967
下民	-10.9673
怖	-10.9681
之本也	-10.9682
虚靜	-10.9684
乙卯	-10.9684
鬢	-10.9688
七竅	-10.9689
叶	-10.9691
炊	-10.9691
荀	-10.9691
蒂	-10.9692
癸丑	-10.9694
叩齒三通	-10.9695
八音	-10.9697
三天門下	-10.9698
精華	-10.9699
三部	-10.9703
而進	-10.9705
頭痛	-10.9705
二七	-10.9705
眞水	-10.9706
爲師	-10.9707
紛紜	-10.971
願聞	-10.971
不虧	-10.9712
玉宸	-10.9713
▁具法位	-10.9714
衮	-10.9714
瓢	-10.9715
雉	-10.9715
躭	-10.9715
甞	-10.9721
分爲	-10.9723
甚矣	-10.9723
六親	-10.9724
百官	-10.9724
隱於	-10.9724
與其	-10.9724
藏之	-10.9728
天台	-10.973
至神	-10.9732
袋	-10.9733
而見	-10.9736
當得	-10.9738
些	-10.9739
忝	-10.9739
癢	-10.9739
中嶽	-10.9739
之冠	-10.9741
未來	-10.9741
己身	-10.9744
盛衰	-10.9745
存念	-10.9749
三卷	-10.975
長年	-10.9752
有事	-10.9759
百關	-10.9766
▁呪畢	-10.9771
不遠	-10.9772
身爲	-10.9773
劑	-10.9778
六日	-10.9779
相得	-10.9779
以制	-10.9782
混成	-10.9784
子欲	-10.9784
方諸	-10.9785
曳	-10.9786
璽	-10.9786
頰	-10.9786
道心	-10.9787
受事	-10.9788
▁无上	-10.9791
開天	-10.9791
是我	-10.9796
▁焚	-10.9796
八天	-10.9798
此即	-10.9799
不二	-10.98
青炁	-10.9801
四明	-10.9801
河海	-10.9802
自無	-10.9803
心印	-10.9803
太皇	-10.9805
䖍誠	-10.9809
棘	-10.9809
菩薩	-10.981
元和	-10.9813
上通	-10.9814
謂其	-10.9815
屈伸	-10.9815
之報	-10.9818
非一	-10.9824
四天	-10.9829
各五	-10.983
而言之	-10.9831
道在	-10.9834
方位	-10.9837
昇玄	-10.9837
京師	-10.9838
大齋	-10.984
者得	-10.9841
無疆	-10.9844
離宫	-10.9846
尋常	-10.9847
此藥	-10.9848
皆非	-10.9854
關啓	-10.9856
懺	-10.9857
娶	-10.9858
什	-10.9858
悠悠	-10.9858
坎中	-10.9859
左足	-10.986
女青	-10.9862
能行	-10.9864
未足	-10.9867
煅	-10.9868
少隂	-10.9872
大化	-10.9873
之由	-10.988
鷹	-10.9881
詢	-10.9881
毅	-10.9882
戶	-10.9882
震動	-10.9885
之業	-10.9888
不住	-10.9888
仙佛	-10.9889
▁上言	-10.989
利物	-10.9892
辜	-10.9892
寂寂	-10.9897
真王	-10.9901
玄帝	-10.9903
九星	-10.9905
妖精	-10.9905
脈	-10.9906
㦸	-10.9906
以前	-10.9906
之疾	-10.9906
但以	-10.991
金花	-10.9912
答云	-10.9914
憚	-10.9914
之至謹	-10.9914
以無爲	-10.9919
四聲	-10.9923
合成	-10.9923
告行	-10.9924
半兩	-10.9924
日精	-10.9924
▁下元	-10.9928
架	-10.993
七曜	-10.993
五人	-10.9931
文公	-10.9936
莊嚴	-10.9937
學道者	-10.9938
之元	-10.9938
相逢	-10.9943
乾元	-10.9944
鍊丹	-10.9945
是道	-10.9945
輕泄	-10.9947
大哉	-10.9951
不移	-10.9951
籌	-10.9954
喚	-10.9954
禧	-10.9954
殖	-10.9954
尾閭	-10.9956
此明	-10.9956
現形	-10.9959
金色	-10.9959
人參	-10.9964
道徳	-10.9965
掾	-10.9967
任意	-10.997
聞見	-10.9972
金蓮	-10.9974
考召	-10.9975
成也	-10.9975
岩	-10.9979
拈	-10.9979
綠	-10.9979
觧	-10.9979
繇	-10.9979
醇	-10.9979
天炁	-10.9979
之仁	-10.998
兩目	-10.9981
忘形	-10.9985
而无	-10.9988
弼曰	-10.9988
保護	-10.9989
也亦	-10.999
多有	-10.9993
開光	-10.9995
卷上	-10.9996
十惡	-11.0003
昴	-11.0003
甕	-11.0003
十兩	-11.0003
下至	-11.0011
今則	-11.0013
陽子	-11.0016
化天尊	-11.0019
洞照	-11.002
殄	-11.0021
紫霄	-11.0022
冲和	-11.0024
請命	-11.0024
黑帝	-11.003
最爲	-11.003
二卷	-11.0032
西華	-11.0032
物不	-11.0035
尊師	-11.0036
應變	-11.0041
矣吾	-11.0041
十人	-11.0045
稼	-11.0051
難可	-11.0051
咄	-11.0052
炬	-11.0052
痿	-11.0052
其父	-11.0057
靈童	-11.0059
顆	-11.0061
轉經	-11.0062
心則	-11.0064
木之	-11.0064
其地	-11.0065
卷下	-11.0067
三代	-11.0068
等衆	-11.0068
見一	-11.007
乃以	-11.0071
亦何	-11.0074
受福	-11.0074
籥	-11.0076
殞	-11.0076
跋	-11.0076
搖	-11.0076
凡此	-11.0076
雨露	-11.0078
中道	-11.008
而爲之	-11.0081
者此	-11.0084
不避	-11.0084
三字	-11.0086
之禍	-11.0089
福慶	-11.009
羽衣	-11.0091
一條	-11.0092
千金	-11.0093
靈明	-11.0094
爲始	-11.0095
囿	-11.0096
書名	-11.0097
不見其	-11.0098
酒服	-11.01
搆	-11.0101
參同契	-11.0101
謹同誠上啓	-11.0101
河伯	-11.0104
壬寅	-11.0104
名號	-11.0107
呂	-11.0107
株	-11.011
雲霧	-11.0112
籟	-11.0116
長齋	-11.0118
鉞	-11.0119
赤氣	-11.0119
五雲	-11.012
七八	-11.0124
耐	-11.0126
生門	-11.0127
則死	-11.0129
何能	-11.013
▁宋	-11.0136
洞元	-11.0138
堅强	-11.0143
浮雲	-11.0143
强名	-11.0144
昇入	-11.0146
也乃	-11.0147
▁老君	-11.0149
▁10:21:4	-11.015
怯	-11.015
地氣	-11.0153
丙寅	-11.0154
得聞	-11.0154
而應	-11.0155
明白	-11.0156
七政	-11.0159
流鈴	-11.0161
玉虛	-11.0161
奏聞	-11.0162
不下	-11.0163
所以能	-11.0165
一歲	-11.0167
有感	-11.0169
愚癡	-11.0181
成而	-11.0193
十華	-11.0196
礬石	-11.0197
筌	-11.0197
玉經	-11.0197
少年	-11.02
鎻	-11.02
惡鬼	-11.02
殺生	-11.0201
亦復	-11.0201
本末	-11.0202
太上大道君	-11.0202
羽蓋	-11.0204
仙聖	-11.0206
回向	-11.0207
無過	-11.0207
不言而	-11.0208
福禄	-11.0214
特賜	-11.0218
天雷	-11.022
者常	-11.0221
簾	-11.0222
告盟	-11.0223
北酆	-11.0224
即爲	-11.0224
汪	-11.0224
誌	-11.0225
企	-11.0225
猜	-11.0225
鐡	-11.0225
鈍	-11.0225
外道	-11.0227
聞其	-11.023
浩浩	-11.0231
未分	-11.0236
蹄	-11.0238
萬萬	-11.0239
隂陽之	-11.0242
數年	-11.0242
馨	-11.0245
辛酉	-11.0246
飬	-11.0246
慄	-11.0248
瑤	-11.0248
鬭	-11.025
橐籥	-11.025
▁靈寶	-11.0251
護持	-11.0254
形也	-11.0257
南海	-11.0257
之才	-11.0262
崑	-11.0262
秋分	-11.0262
世有	-11.0262
我獨	-11.0263
靈壇	-11.0263
紫光	-11.0264
以至於	-11.0266
則傷	-11.0266
㝠㝠	-11.0268
七玄	-11.0268
四時之	-11.0269
悠	-11.027
光華	-11.027
河源	-11.0272
涎	-11.0275
蹟	-11.0275
撮	-11.0275
懐	-11.0275
須㬰	-11.0275
呪詛	-11.0277
石室	-11.028
五臓	-11.0281
者豈	-11.0281
之始也	-11.0282
法服	-11.0283
▁河曰	-11.0283
無二	-11.0284
色界	-11.0285
洗心	-11.0286
同心	-11.0286
一法	-11.0287
則心	-11.0288
號爲	-11.0289
者曰	-11.0291
及至	-11.0293
之旨	-11.0295
貝	-11.0296
不退	-11.0296
靜坐	-11.0299
先師	-11.0299
抄	-11.03
𩀱	-11.03
一夕	-11.03
初生	-11.03
不可稱量	-11.03
無能	-11.03
唯有	-11.0302
君子之	-11.0304
腹痛	-11.0305
星斗	-11.0306
戊寅	-11.0306
任其	-11.0307
變易	-11.0308
世上	-11.031
月光	-11.0311
内音	-11.0314
咒曰	-11.032
亦不可	-11.0322
朝夕	-11.0322
雖復	-11.0324
懲	-11.0325
耻	-11.0325
心生	-11.0326
嗜慾	-11.0326
白石	-11.0327
級	-11.0329
刀兵	-11.033
然燈	-11.0331
丙申	-11.0333
奉請	-11.0335
下丹田	-11.0337
積善	-11.0339
殺鬼	-11.0343
于天	-11.0344
運度	-11.0346
九元	-11.0346
七聲	-11.0347
夜光	-11.0352
人見	-11.0352
戊戌	-11.0353
之相	-11.0355
庚寅	-11.0358
解除	-11.0358
雲氣	-11.0359
惡業	-11.036
靈仙	-11.0362
坐忘	-11.0364
碧霞	-11.0364
史記	-11.0365
告命	-11.0367
麻黄	-11.0371
一通	-11.0372
焉能	-11.0374
化也	-11.0375
枷	-11.0375
薩	-11.0375
浙	-11.0375
沼	-11.0375
謚	-11.0375
之鄉	-11.0376
遊宴	-11.0377
之訣	-11.0379
入藥	-11.038
遂成	-11.0381
如字	-11.0383
吾心	-11.0385
明明	-11.0388
明珠	-11.0389
一音	-11.039
四五	-11.0392
周迴	-11.0393
玄宗	-11.0393
何異	-11.0394
可名	-11.0394
王侯	-11.0394
不休	-11.0394
諷	-11.0395
行而	-11.0395
久矣	-11.0396
三十三	-11.0397
下同	-11.0398
第一百	-11.0399
俓	-11.04
撞	-11.0401
凡事	-11.0402
經教	-11.0406
金眞	-11.0408
美惡	-11.0409
洪恩	-11.041
祉	-11.041
五金	-11.0414
爲汝	-11.0415
泓	-11.0426
㓕	-11.0426
羹	-11.0426
玄一	-11.0427
白素	-11.0427
枝葉	-11.0428
精炁	-11.043
島	-11.0431
戊午	-11.0432
勿食	-11.0432
天根	-11.0435
所載	-11.0436
上達	-11.0438
賢聖	-11.0438
玉樞	-11.044
麽	-11.0447
某家	-11.0448
此所以	-11.0451
栽	-11.0451
攖	-11.0451
矧	-11.0451
胤	-11.0451
魒	-11.0451
言不	-11.0453
玉籙	-11.0453
太無	-11.0454
所治	-11.0457
以意	-11.046
四司	-11.0461
玄臺	-11.0462
者衆	-11.0465
最上	-11.0468
壇前	-11.0469
之具	-11.0469
周行	-11.047
之所謂	-11.047
大事	-11.047
救之	-11.047
莫大於	-11.0471
心意	-11.0473
笑曰	-11.0473
燦	-11.0475
藤	-11.0477
闘	-11.0477
芻狗	-11.0477
神威	-11.0479
七返	-11.0481
其病	-11.0485
動也	-11.0485
三華	-11.0485
皆不	-11.0493
莫之能	-11.0494
終身不	-11.0495
至靈	-11.0496
乎故	-11.0499
之厄	-11.0501
亞	-11.0501
洋	-11.0501
煖	-11.0502
閏	-11.0502
字子	-11.0504
有志	-11.0511
於彼	-11.0512
不停	-11.0516
德行	-11.0516
其外	-11.0521
歸去	-11.0522
隻	-11.0526
之郷	-11.0526
祈禳	-11.0526
者不得	-11.0528
點化	-11.0528
多食	-11.0528
贅	-11.0528
𣈆	-11.0528
毗	-11.0528
煆	-11.0528
無外	-11.0529
一度	-11.0534
海内	-11.0539
甲辰	-11.0541
人鬼	-11.0543
言有	-11.0546
小者	-11.0546
不改	-11.0548
碧玉	-11.0549
祭酒	-11.055
堆	-11.0554
𠔃	-11.0554
内視	-11.0556
故人	-11.0563
榆	-11.0567
去之	-11.057
壇場	-11.0571
持戒	-11.0572
焚符	-11.0573
天庭	-11.0574
識之	-11.0576
治也	-11.0577
犀	-11.0578
電光	-11.0578
遣使	-11.0579
伽	-11.058
倡	-11.058
珪	-11.058
覲	-11.058
靡不	-11.0581
在後	-11.0582
黄色	-11.0582
入口	-11.0583
也惟	-11.0584
□□	-11.0585
超生	-11.0586
强梁	-11.0586
之質	-11.0588
玉音	-11.059
祈晴	-11.0591
生則	-11.0595
一身之	-11.0598
善信	-11.0598
虚實	-11.0599
非所	-11.0601
不害	-11.0602
以言	-11.0602
蝗	-11.0602
其要	-11.0607
事不	-11.0612
薑	-11.0617
玄同	-11.0618
心腹	-11.062
餓鬼	-11.0625
一本作	-11.0625
怎	-11.0628
冐	-11.063
也所謂	-11.063
天恩	-11.0631
之脉	-11.0631
閲	-11.0631
▁科儀立成品	-11.0631
貳	-11.0631
聞者	-11.0632
焚之	-11.0632
爲眞	-11.0634
▁乾薑	-11.0634
向來	-11.0635
爲吾	-11.0636
日直	-11.0637
▁茯苓	-11.0638
流傳	-11.0641
多則	-11.0642
了悟	-11.0647
未嘗有	-11.0648
之時也	-11.0648
虚則	-11.0648
日辰	-11.065
許由	-11.065
無限	-11.0651
日行	-11.0652
汨	-11.0656
者不知	-11.0665
一十	-11.0667
各有所	-11.0667
▁玉皇大天尊玄穹髙上帝	-11.0669
金火	-11.0671
者猶	-11.0674
煙霞	-11.0675
當爲	-11.0677
成子	-11.0678
金母	-11.0679
蟄	-11.068
皇上	-11.068
順行	-11.0683
瞽	-11.0683
収	-11.0683
東北方	-11.0684
純粹	-11.0686
癸酉	-11.0687
六聲	-11.0688
二聲	-11.0688
珠玉	-11.0691
杏	-11.0694
如是則	-11.0694
利貞	-11.0694
後生	-11.0699
病也	-11.07
上願	-11.0702
隨事	-11.0703
無任	-11.0705
風刀	-11.0707
覃	-11.0711
令其	-11.0712
之所爲	-11.0713
學之	-11.0713
閻	-11.0714
安知	-11.0714
更無	-11.0715
番	-11.0718
道本	-11.0719
丹臺	-11.0719
一味	-11.072
終南	-11.0722
蓋以	-11.0724
保其	-11.0727
道前	-11.0728
自然之道	-11.0729
里域	-11.0731
已而	-11.0732
紏	-11.0734
骨髓	-11.0735
疼痛	-11.0736
沫	-11.0736
冢	-11.0736
明皇	-11.0738
未成	-11.0741
不全	-11.0745
雷部	-11.0746
今生	-11.0746
惟願	-11.0749
神變	-11.075
事而	-11.0752
官事	-11.0752
演說	-11.0754
某乙	-11.0754
承天	-11.0754
小兆	-11.0755
又如	-11.076
參差	-11.076
皎	-11.0761
在中	-11.0761
巍	-11.0762
隠	-11.0762
照應	-11.0765
受鍊	-11.0765
王君	-11.0766
治在	-11.0766
積聚	-11.0771
釋氏	-11.0772
朱衣	-11.0773
而况	-11.0774
▁陶隱居云	-11.0775
矣又	-11.0776
於後	-11.0778
莫非	-11.0779
無害	-11.0779
謡	-11.0782
言我	-11.0784
庚午	-11.0786
受經	-11.0787
翟	-11.0787
寳章	-11.0788
酣	-11.0788
茫茫	-11.0789
存之	-11.0789
善之	-11.0792
乆矣	-11.0793
得遇	-11.0793
二斗	-11.0795
當有	-11.0795
炁入	-11.0799
三世	-11.0807
相反	-11.0809
祕訣	-11.0814
慚	-11.0814
地戸	-11.0814
寤	-11.0814
在其中	-11.0815
青天	-11.0816
七遍	-11.0819
九寸	-11.0822
不審	-11.0824
詎	-11.0825
聖君	-11.0825
玉樓	-11.0825
元命	-11.0825
榮衛	-11.0826
守道	-11.0829
燒之	-11.0831
賢愚	-11.0832
福堂	-11.0833
門外	-11.0835
十丸	-11.0835
火也	-11.0835
勿以	-11.0836
惕	-11.084
之寳	-11.0841
徊	-11.0841
斃	-11.0841
盪	-11.0841
不愛	-11.0845
皆自	-11.0845
聖帝	-11.0847
伏乞	-11.0851
▁盧曰	-11.0851
萬二千	-11.0855
胎仙	-11.0856
之累	-11.0857
丹天	-11.0857
四十五	-11.0858
凶惡	-11.0859
▁里	-11.086
記云	-11.0862
丹靈	-11.0863
火火	-11.0865
爲義	-11.0865
見者	-11.0865
登仙	-11.0867
遙	-11.0867
皷	-11.0868
驢	-11.0868
樣	-11.0868
辰子	-11.0868
輕舉	-11.087
朝謁	-11.0872
喪其	-11.0873
知人	-11.0873
三千六百	-11.0873
戊申	-11.0877
言此	-11.0881
侍經	-11.0881
還元	-11.0882
赤龍	-11.0884
之澤	-11.0885
足矣	-11.0886
后土	-11.0888
或見	-11.0888
能成	-11.089
重玄	-11.0891
㓂	-11.0894
以後	-11.0895
幾何	-11.0899
合而	-11.0899
形形	-11.09
行不	-11.0908
不達	-11.0912
之室	-11.0913
兩忘	-11.0914
不犯	-11.0918
於水	-11.0918
鮑	-11.092
彫	-11.0921
渭	-11.0921
得爲	-11.0923
光耀	-11.0924
不可爲	-11.0925
傳度	-11.0926
無迹	-11.0927
自然之理	-11.0928
惠子	-11.0932
睦	-11.0936
氣象	-11.0936
斡	-11.0937
來者	-11.094
所啓	-11.0941
卷之二	-11.0941
本是	-11.0941
隨方	-11.0942
璞	-11.0944
而用	-11.0944
此三者	-11.0945
在泉	-11.0947
噉	-11.0948
診	-11.0948
廣成子	-11.0951
緋	-11.0956
玉府	-11.0956
崇建	-11.0958
山在	-11.0958
生乎	-11.0961
與道合	-11.0961
月十五日	-11.0963
砂子	-11.0965
少許	-11.0966
大魔	-11.0968
▁帝曰	-11.0969
異之	-11.097
蕩除	-11.097
矣其	-11.0971
有罪	-11.0972
九華	-11.0973
惚	-11.0974
葷	-11.0974
巷	-11.0974
鳳凰	-11.0975
列位	-11.0977
弗能	-11.0979
人之心	-11.098
道之人	-11.0981
霍亂	-11.0982
制之	-11.0982
不存	-11.0983
行此	-11.0984
爲水	-11.0991
癸未	-11.0995
投詞	-11.0996
始青	-11.0997
用力	-11.0998
婢	-11.1001
苔	-11.1001
望之	-11.1004
此山	-11.1005
鼻中	-11.1006
而外	-11.1007
精光	-11.1009
南山	-11.1012
太真	-11.1012
▁第八	-11.1015
靈寳天尊	-11.1015
慧光	-11.1015
青宫	-11.1016
平坐	-11.1021
善也	-11.1021
庖	-11.1027
人不知	-11.1033
四十二	-11.1033
之不可	-11.1033
▁訣曰	-11.1037
九過	-11.1038
欲令	-11.1039
一斗	-11.1041
齋功	-11.1041
安於	-11.1045
槁	-11.1047
起居	-11.1048
懴謝	-11.1052
塵世	-11.1053
伏冀	-11.1055
隣	-11.1055
▁已上	-11.1058
降眞	-11.1059
四瀆	-11.106
黄道	-11.1061
萬天	-11.1062
俄而	-11.1065
降伏	-11.1065
也又云	-11.1067
千歲	-11.107
不竭	-11.1071
辛亥	-11.1077
與世	-11.108
胷中	-11.108
以心	-11.1082
善則	-11.1082
畝	-11.1082
南面	-11.1084
光輝	-11.1085
化作	-11.1085
杏仁	-11.1086
肌肉	-11.1086
幽關	-11.1087
九鼎	-11.1088
諸衆生	-11.1089
歩虚	-11.1089
硃砂	-11.1091
相因	-11.1094
種民	-11.1094
此事	-11.1101
何時	-11.1106
今爲	-11.1106
取汁	-11.1107
帷	-11.111
拍	-11.111
膜	-11.111
讒	-11.111
鶉	-11.111
宫觀	-11.111
人無	-11.111
生死之	-11.1111
於斯	-11.1115
陰也	-11.1115
▁辰申	-11.1115
飛天神王	-11.1117
哀樂	-11.1121
初九	-11.1122
昭然	-11.1123
誦詠	-11.1124
帝尊	-11.1129
敕命	-11.1132
而坐	-11.1135
狙	-11.1137
謨	-11.1137
咬	-11.1137
睛	-11.1137
激切	-11.1137
言人	-11.1138
區區	-11.1138
身外	-11.1139
乙酉	-11.1143
代之	-11.1143
不以爲	-11.1143
過此	-11.1143
靜也	-11.1144
斬邪	-11.1147
赦罪	-11.1157
雷聲	-11.116
天地間	-11.1163
熈	-11.1164
璣	-11.1164
邃	-11.1164
繪	-11.1164
▁辰午	-11.1166
起死	-11.1167
其聲	-11.117
白氣	-11.1174
自從	-11.1176
刑罰	-11.1178
▁急急如律令	-11.1179
▁辰未	-11.1183
與神	-11.1183
洞清	-11.1186
受氣	-11.1189
黄炁	-11.1191
輅	-11.1191
善哉	-11.1192
▁辰辰	-11.1194
發願	-11.1195
瞑目	-11.1195
衆妙	-11.1196
之會	-11.1198
▁辰戌	-11.1202
周易	-11.1203
功用	-11.1203
正化	-11.1206
凡物	-11.1207
之辰	-11.1208
子等	-11.1209
之論	-11.1214
類也	-11.1214
聖位	-11.1216
向上	-11.1218
燔	-11.1219
破獄	-11.1219
爲事	-11.1221
三昧	-11.1221
以喻	-11.1224
無餘	-11.1225
天河	-11.1226
不調	-11.1226
嶽瀆	-11.1227
萬類	-11.123
師尊	-11.123
諦聽	-11.1235
昇度	-11.1238
部領	-11.1238
以治	-11.1238
土府	-11.1241
豈得	-11.1241
也既	-11.1242
一種	-11.1243
夢中	-11.1246
修真	-11.1246
午時	-11.1246
寓言	-11.1246
嘿	-11.1246
觴	-11.1246
也然則	-11.1252
眞宗	-11.1255
而猶	-11.1255
呼爲	-11.1257
何足	-11.1258
雲雨	-11.126
逆順	-11.1263
德不	-11.1271
黃籙	-11.1273
宦	-11.1274
拊	-11.1274
穰	-11.1274
拷	-11.1274
之政	-11.1274
▁辰酉	-11.1275
▁彖曰	-11.1275
▁辰寅	-11.1276
少女	-11.1278
三王	-11.128
太尉	-11.128
芍藥	-11.1281
帝眞	-11.1283
行則	-11.1285
鴻濛	-11.129
白日昇天	-11.1293
海空	-11.1297
上界	-11.1297
爲首	-11.1298
之威	-11.1299
經絡	-11.1301
大功	-11.1301
刊	-11.1302
坊	-11.1302
▁辰丑	-11.1303
隱顯	-11.1303
帝庭	-11.1306
流布	-11.1307
卷之四	-11.131
歸于	-11.1315
微塵	-11.1316
肘後	-11.1316
上帝敕	-11.1318
物則	-11.1319
燒灰	-11.132
同志	-11.1321
宫殿	-11.1321
不令	-11.1321
牲	-11.1326
此物	-11.1328
著書	-11.1329
惟有	-11.1329
嗽	-11.1329
叫	-11.133
渥	-11.133
也昔	-11.133
此天	-11.133
▁辰亥	-11.1331
▁辰卯	-11.1331
寳光	-11.1333
拜章	-11.1334
察其	-11.1336
成數	-11.1337
衆真	-11.1338
大象	-11.1338
先亡	-11.134
金簡	-11.1343
祥光	-11.1344
從何	-11.1344
火府	-11.1344
元降	-11.1345
靈通	-11.1347
▁或問	-11.1347
先王	-11.1349
清和	-11.1351
再三	-11.1353
羅酆	-11.1354
運化	-11.1355
道非	-11.1355
如水	-11.1355
記名	-11.1356
浹	-11.1357
弭	-11.1357
閩	-11.1357
不使	-11.1358
央	-11.1358
此方	-11.1363
敢問	-11.1363
黃芽	-11.1364
理國	-11.1368
無失	-11.1371
瞋	-11.1377
不居	-11.1378
丁卯	-11.1378
是則	-11.1378
其君	-11.1379
㪚	-11.1385
忻	-11.1385
蹶	-11.1385
撲	-11.1385
交感	-11.1386
立於	-11.1389
齋官	-11.1389
九府	-11.1394
符吏	-11.1398
壬申	-11.1399
七炁	-11.1402
臍下	-11.1404
爲地	-11.1404
萬道	-11.1405
歎曰	-11.1406
中正	-11.1408
身長	-11.1409
垂慈	-11.1411
熒	-11.1412
茹	-11.1412
乎夫	-11.1413
疽	-11.1413
十斤	-11.1413
金仙	-11.1413
渚	-11.1413
款	-11.1413
犢	-11.1413
扁鵲	-11.1414
視其	-11.1416
神全	-11.1419
輕慢	-11.142
破軍	-11.1421
丙辰	-11.1421
所遇	-11.1423
元始天王	-11.1423
尊經	-11.1424
返照	-11.1425
害也	-11.1431
如玉	-11.1432
門戸	-11.1436
光芒	-11.1437
肚	-11.1441
脣	-11.1441
合眞	-11.1444
内諱	-11.1444
患人	-11.1444
惟其	-11.1445
大千	-11.1448
定録	-11.1451
位爲	-11.1455
會稽	-11.1455
節度	-11.1457
以金	-11.1458
行雨	-11.146
須是	-11.1461
如雲	-11.1463
重樓	-11.1463
不惑	-11.1464
赤白	-11.1469
娥	-11.147
聖眞	-11.1471
須要	-11.1471
永保	-11.1475
欻	-11.1476
空空	-11.1476
間有	-11.1484
頓首	-11.1488
我心	-11.1488
而後能	-11.1491
之所由	-11.1491
皆因	-11.1492
咳	-11.1495
其妙	-11.1496
氐	-11.1498
硬	-11.1498
一部	-11.1499
南陽	-11.1501
此非	-11.1502
倪	-11.1502
閉炁	-11.1505
珮	-11.1509
幽夜	-11.1511
祕之	-11.1512
飛升	-11.1513
三十一	-11.1515
有違	-11.1516
所及	-11.1519
四曰	-11.152
上至	-11.1523
上宰	-11.1524
焉其	-11.1524
歲月	-11.1525
千人	-11.1525
之交	-11.1526
▁伏聞	-11.1526
瞳	-11.1526
寂寞	-11.1527
孤魂	-11.1527
道理	-11.1528
成矣	-11.1528
乎曰	-11.1529
復爲	-11.153
次之	-11.153
道教	-11.1531
水土	-11.1531
寵辱	-11.1531
神者	-11.1531
覺悟	-11.1532
爲貴	-11.1533
地中	-11.1535
▁辰巳	-11.1535
歘	-11.1536
監齋	-11.154
癸巳	-11.1543
盛德	-11.1543
四句	-11.1543
何哉	-11.1544
建壇	-11.1545
何事	-11.1546
脆	-11.1553
正音	-11.1553
蘿	-11.1553
腴	-11.1555
猒	-11.1555
太宗	-11.1555
盛則	-11.1556
無時	-11.1558
宗廟	-11.1559
之末	-11.156
稽首再拜	-11.1561
語言	-11.1562
之原	-11.1563
知所	-11.1564
▁正一	-11.1566
雖欲	-11.157
道氣	-11.1572
之過	-11.1574
六者	-11.1574
四十八	-11.1575
不得妄	-11.1577
天兵	-11.1577
乘雲	-11.1578
▁天尊言	-11.1581
乃止	-11.1581
琢	-11.1583
璇	-11.1583
匣	-11.1583
髣髴	-11.1583
玅	-11.1583
言無	-11.1583
▁無上	-11.1584
不可勝	-11.1584
言道	-11.1585
古之人	-11.1585
生育	-11.1588
四音	-11.1591
八風	-11.1592
▁元始符命	-11.1593
乙巳	-11.1599
能無	-11.16
彭祖	-11.1602
如彼	-11.1602
各異	-11.1607
辛卯	-11.1608
畜生	-11.1609
於民	-11.161
死之	-11.1611
中生	-11.1618
朝眞	-11.1621
服符	-11.1622
諸惡	-11.1622
下及	-11.1622
雲母	-11.1623
官君	-11.1624
相類	-11.1624
處也	-11.1624
損益	-11.1626
樂也	-11.1626
訾	-11.1631
剛强	-11.1631
返本	-11.1632
榮辱	-11.1633
自明	-11.1634
人各	-11.1635
蒜	-11.164
週	-11.164
下入	-11.1642
大海	-11.1645
西北方	-11.1645
辛丑	-11.1647
得眞	-11.1648
石上	-11.1654
九道	-11.166
者從	-11.1661
龜山	-11.1662
爲政	-11.1666
嚼	-11.1669
▁日華子云	-11.1669
褁	-11.1669
濳	-11.1669
德而	-11.167
▁酆都	-11.1671
千二百	-11.1673
氣爲	-11.1673
▁太極	-11.1674
則易	-11.1674
得之以	-11.1674
之藥	-11.1677
厥陰	-11.1678
法天	-11.168
伏念	-11.1681
受苦	-11.1686
六十日	-11.1687
制魔	-11.1687
一口	-11.1687
道不可	-11.1687
黄書	-11.1688
奄	-11.1689
如常	-11.1689
持誦	-11.1689
笙	-11.1694
天樂	-11.1695
思惟	-11.1697
奧	-11.1698
鴉	-11.1698
仙童	-11.17
九清	-11.17
鼎内	-11.1702
炎炎	-11.1702
大通	-11.1706
七寶	-11.1706
流注	-11.171
處於	-11.1721
絞	-11.1721
靈音	-11.1722
因緣	-11.1724
河上	-11.1726
國祚	-11.1726
忠臣	-11.1727
▁關尹子曰	-11.1728
以定	-11.1729
形者	-11.1729
洞庭	-11.1731
綱紀	-11.1731
百六	-11.1731
言哉	-11.1732
諸葛	-11.1733
旁門	-11.1737
方治	-11.1739
守靜	-11.1744
大天尊	-11.1744
而失	-11.1748
鵠	-11.1749
亦同	-11.175
去皮	-11.175
七分	-11.1751
天下者	-11.1752
腸胃	-11.1753
經脉	-11.1753
无不	-11.1753
飛神	-11.1754
虛皇	-11.1754
兢	-11.1756
罏	-11.1756
之意也	-11.1757
帝命	-11.1757
乙亥	-11.1761
塵寰	-11.1762
白色	-11.1764
勾陳	-11.1764
坐卧	-11.1765
大黄	-11.1766
天地萬物	-11.1767
降下	-11.1768
示人	-11.1768
萬魔	-11.1771
呼召	-11.1773
八素	-11.1773
問其	-11.1774
石膏	-11.1774
同異	-11.1774
成人	-11.1777
雲篆	-11.1779
不齊	-11.178
相忘	-11.1783
聖師	-11.1783
囑	-11.1783
慙	-11.1785
掖	-11.1785
圜	-11.1785
竄	-11.1785
則物	-11.1787
丙戌	-11.1788
衆神	-11.1788
既有	-11.1789
太公	-11.1789
曰昔	-11.1793
吾將	-11.1793
行年	-11.1795
龜蛇	-11.1798
芬	-11.1798
大風	-11.1801
來往	-11.1804
修習	-11.1804
之治	-11.1806
黑雲	-11.1806
來臨	-11.1806
▁中元	-11.1809
十餘年	-11.1811
本經	-11.1813
六寸	-11.1813
梗	-11.1814
竪	-11.1814
羙	-11.1814
故雖	-11.1815
登山	-11.1815
九江	-11.1816
▁第九	-11.1816
不義	-11.1816
此章言	-11.1817
稽首皈依	-11.1818
辛巳	-11.1818
癸卯	-11.182
君諱	-11.1823
黒帝	-11.1823
而為	-11.1823
旋行	-11.1824
群仙	-11.1824
其光	-11.1826
四千	-11.1827
九人	-11.1827
其罪	-11.1834
與汝	-11.1834
苦爽	-11.1835
無差	-11.1837
如今	-11.1837
諸人	-11.1839
驪	-11.184
之月	-11.1842
呌	-11.1843
夬	-11.1843
摽	-11.1843
鵝	-11.1843
降生	-11.1844
同類	-11.1846
乎道	-11.1847
成敗	-11.1848
得道者	-11.185
帝曰	-11.1851
化而	-11.1855
萬遍	-11.1858
㧞度	-11.1861
赴壇	-11.1862
之權	-11.1863
如嬰兒	-11.1865
預修	-11.1867
除邪	-11.187
宣揚	-11.187
之用也	-11.1871
人莫	-11.1871
天書	-11.1871
眞汞	-11.1872
黄氣	-11.1872
刧	-11.1873
欄	-11.1873
陪	-11.1873
刳	-11.1873
畢又	-11.1873
天下之至	-11.1874
一大	-11.1875
之數也	-11.1879
命魔	-11.188
識者	-11.1888
權衡	-11.1888
木也	-11.1891
貧窮	-11.1892
明鏡	-11.1894
先人	-11.1895
要知	-11.1896
始得	-11.1897
乾薑	-11.1898
次念	-11.1899
中風	-11.1899
亦云	-11.1899
輻	-11.1901
骨節	-11.1901
心拜	-11.1902
葺	-11.1902
飡	-11.1902
羿	-11.1902
盜跖	-11.1904
合乎	-11.1909
幽㝠	-11.191
東南方	-11.1911
一節	-11.1912
至樂	-11.1915
天之所	-11.1915
人不能	-11.1916
不平	-11.1916
愛人	-11.1918
無思	-11.192
投誠	-11.1922
玄上	-11.1924
明師	-11.1925
玄通	-11.1925
土皇	-11.193
大患	-11.1931
僣	-11.1931
戢	-11.1931
燄	-11.1931
如來	-11.1932
赤文	-11.1933
不疑	-11.1934
宣行	-11.1935
斗柄	-11.1937
瑟	-11.1937
天地之道	-11.1938
而莫	-11.194
此日	-11.1943
陰乾	-11.1943
本乎	-11.1944
曰君	-11.1946
火龍	-11.1946
眞心	-11.1946
此四	-11.1949
芝英	-11.1949
一半	-11.195
手把	-11.1951
謹據	-11.1953
不雜	-11.1953
惡根	-11.1953
合屬	-11.1955
者或	-11.196
耦	-11.1961
聴	-11.1961
麥門冬	-11.1961
緬	-11.1961
氣候	-11.1962
之害	-11.1962
金液還丹	-11.1965
白元	-11.1965
爲心	-11.1965
長生久視	-11.1968
未及	-11.1969
生于	-11.1971
保生	-11.1971
口鼻	-11.1971
百鬼	-11.1972
天皇大帝	-11.1972
經營	-11.1974
四分	-11.1978
憂患	-11.1978
同一	-11.1982
來降	-11.1982
論之	-11.1983
待之	-11.1985
天下有	-11.1986
禎	-11.1987
倏	-11.1988
自足	-11.199
先天之	-11.199
啞	-11.1991
沿	-11.1991
通用	-11.1991
二十年	-11.1992
世俗之	-11.1993
煉丹	-11.1995
欲知	-11.1995
之深	-11.1997
先聖	-11.1998
十遍	-11.2
以奉	-11.2001
萬邪	-11.2004
即日	-11.2008
▁科曰	-11.2014
大羅天	-11.2016
其力	-11.2017
澡	-11.2019
篩	-11.2019
冠衣	-11.202
六音	-11.202
相承	-11.2021
孟子曰	-11.2023
四日	-11.2025
用則	-11.2027
浮沉	-11.2027
黑色	-11.2028
何謂也	-11.2028
當令	-11.2028
二首	-11.2029
大指	-11.203
靈風	-11.2032
居其	-11.2034
前去	-11.2035
世事	-11.2037
▁雷霆	-11.2038
▁天尊曰	-11.2038
自然而	-11.204
大真人	-11.2041
謹言	-11.2042
▁玉皇大天尊玄穹高上帝	-11.2044
人則	-11.2044
故稱	-11.2045
三軍	-11.2045
形長	-11.2045
日時	-11.2045
自相	-11.2045
新校正云詳	-11.205
釀	-11.205
沮	-11.205
奴婢	-11.2051
立教	-11.2052
自然也	-11.2053
以利	-11.2053
萬眞	-11.2055
何其	-11.2057
功曹使者	-11.2061
火星	-11.2062
氏曰	-11.2062
管仲	-11.2063
君召	-11.2064
未悟	-11.2067
太𡻕	-11.2068
子文	-11.2069
師父	-11.207
金虎	-11.207
右足	-11.2071
長樂	-11.2073
眞師	-11.2076
律令敕	-11.2077
百節	-11.2079
笛	-11.2079
之正	-11.208
三十六部尊經	-11.208
綏	-11.208
蓍	-11.208
水水	-11.2082
何須	-11.2084
也彼	-11.2084
身而	-11.2085
夫惟	-11.2085
南向	-11.2085
心地	-11.2088
乾之	-11.2091
道果	-11.2091
宿啓	-11.2092
不倦	-11.2094
能勝	-11.2095
天闕	-11.2095
文子	-11.2098
鼓舞	-11.2098
七七	-11.2099
但能	-11.21
眸	-11.2102
三十四	-11.2103
洛陽	-11.2103
見人	-11.2105
直指	-11.2107
者宜	-11.2107
一竅	-11.211
噓	-11.211
熖	-11.211
物自	-11.2111
▁題	-11.2111
與此	-11.2112
西嶽	-11.2115
樂其	-11.2117
含靈	-11.2117
有病	-11.2118
思念	-11.2118
多言	-11.2119
不貪	-11.212
病在	-11.2122
歷代	-11.2123
三三	-11.2124
泠	-11.2127
開張	-11.2128
有小	-11.2131
硃	-11.2131
補之	-11.2131
合和	-11.2133
莊周	-11.2135
思議	-11.2136
巳上	-11.2138
而明	-11.2145
年命	-11.2146
刀山	-11.215
兩足	-11.2151
神不	-11.2153
治亂	-11.2154
必然	-11.2155
無上道	-11.2156
所適	-11.2158
天然	-11.2158
念道	-11.216
傳於	-11.2162
過於	-11.2164
娑訶	-11.2165
敢忘	-11.2166
大慈大悲	-11.2167
▲▲	-11.2168
▁急急如	-11.2168
辛未	-11.2169
以此爲	-11.217
容易	-11.2171
蜩	-11.2171
陂	-11.2171
劈	-11.2171
空心	-11.2172
遊乎	-11.2172
優游	-11.2175
所向	-11.2178
無厭	-11.218
李筌曰	-11.2181
道妙	-11.2183
者道也	-11.2183
禁戒	-11.2184
己而	-11.2185
以和	-11.2185
欲界	-11.2188
前來	-11.2191
尹喜	-11.2193
難也	-11.2193
▁傳曰	-11.2193
丹法	-11.2195
句曲	-11.2198
梵行	-11.2199
▁大黄	-11.22
呬	-11.2201
知磬舉	-11.2201
等神	-11.2201
之理也	-11.2201
升天	-11.2202
白金	-11.2202
干戈	-11.2206
而走	-11.2207
吾言	-11.2208
不為	-11.2211
大成	-11.2212
月之	-11.2215
宗祖	-11.2215
於其間	-11.2216
又能	-11.2216
事有	-11.222
飢渴	-11.2222
之能	-11.2223
元吉	-11.2223
庶人	-11.2224
愼勿	-11.2226
目視	-11.2226
誰知	-11.2226
不可名	-11.2227
百脉	-11.2228
鬼名	-11.2228
傳云	-11.223
筮	-11.2231
一行	-11.2231
疎	-11.2231
翦	-11.2231
尿	-11.2231
而往	-11.2232
有神	-11.2232
元洞	-11.2233
十二年	-11.2235
皆須	-11.2235
一周	-11.2237
中人	-11.2238
以身	-11.2238
合德	-11.224
會於	-11.2241
土也	-11.2242
已有	-11.2242
眞土	-11.2244
爲民	-11.2253
金錢	-11.2255
護身	-11.2258
上靈	-11.2261
疋	-11.2262
流金火鈴	-11.2263
爲臣	-11.2264
萬歲	-11.2269
順也	-11.227
其始	-11.2271
百邪	-11.2272
雲水	-11.2274
妄言	-11.2278
▁年月日	-11.2278
真一	-11.228
度數	-11.2283
影響	-11.2284
生長	-11.2284
騰空	-11.2286
爲德	-11.2288
菊	-11.2289
也於是	-11.2291
治下篩	-11.2292
暨	-11.2292
滛	-11.2292
苞	-11.2292
随	-11.2292
喙	-11.2292
誠心	-11.2294
玄風	-11.2295
之甚	-11.2295
小童	-11.2297
能自	-11.2297
擊之	-11.2301
治小兒	-11.2303
直至	-11.2304
復爐	-11.2304
仙籍	-11.2305
三十年	-11.2305
非無	-11.2308
由於	-11.2308
異人	-11.231
顔回	-11.2312
之信	-11.2312
以授	-11.2314
公私	-11.2316
天性	-11.2316
本根	-11.2318
丹誠	-11.2319
掣	-11.232
即有	-11.2321
定位	-11.2322
粘	-11.2323
鋤	-11.2323
玉皇上帝	-11.2323
地理	-11.2325
七千	-11.2325
流霞	-11.2326
木爲	-11.2327
篇曰	-11.2328
爵禄	-11.2329
變通	-11.233
十方三界	-11.233
總領	-11.2336
吉日	-11.2339
守中	-11.2341
北嶽	-11.2343
奉戒	-11.2343
長生之	-11.2344
净	-11.2347
立春	-11.2347
道道	-11.2349
吾所	-11.2349
六時	-11.235
九音	-11.2351
三公	-11.2352
歸來	-11.2356
之稱	-11.2356
無疑	-11.2357
貪狼	-11.2357
異乎	-11.2359
之長	-11.2365
▁如律令	-11.2366
不論	-11.237
生殺	-11.2371
鬱儀	-11.2375
關告	-11.2376
見性	-11.2377
三萬六千	-11.2378
盂	-11.2379
鬼賊	-11.2383
沓	-11.2385
等志心歸命禮願	-11.2385
聿	-11.2385
磚	-11.2385
簪	-11.2385
乃成	-11.2385
鬱鬱	-11.2385
其名曰	-11.2387
當須	-11.239
平地	-11.2395
冨	-11.2396
盈滿	-11.2398
積功	-11.2398
之耳	-11.24
是人	-11.24
中心	-11.2401
先主	-11.2404
七情	-11.2407
之科	-11.2409
自取	-11.241
紅塵	-11.241
十一音	-11.2413
仙王	-11.2415
湏	-11.2416
水流	-11.2418
有欲	-11.2419
一室	-11.2422
祥雲	-11.2427
三七	-11.2427
諸大	-11.2428
三十六天	-11.2429
神王長生大聖无量度人	-11.243
疑惑	-11.2433
無令	-11.2434
考校	-11.2435
清浄	-11.2435
圈	-11.2435
己未	-11.2436
章第二十	-11.2436
眞聖	-11.2436
靜室	-11.2437
味辛	-11.2438
惡者	-11.2438
充滿	-11.2439
上徹	-11.244
北都	-11.2441
器也	-11.2441
神聖	-11.2441
何物	-11.2442
兩半	-11.2443
爐中	-11.2444
不交	-11.2445
伎	-11.2446
奉命	-11.2447
毓	-11.2447
淸靜	-11.245
三十七	-11.2452
天地人	-11.2454
鍾離	-11.2457
生薑	-11.2458
茫	-11.246
滅度	-11.2461
與夫	-11.2462
死籍	-11.2463
杓	-11.2463
天下之人	-11.2464
大仙	-11.2467
善哉善哉	-11.2468
勿使	-11.247
▁芍藥	-11.2471
本師	-11.2472
不得其	-11.2474
塵埃	-11.2474
八石	-11.2475
▁右用	-11.2477
稚	-11.2477
其機	-11.2478
洞虚	-11.2478
太乙救苦天尊	-11.2479
神仙諸靈官	-11.2479
滅亡	-11.248
沖虚	-11.2481
庚戌	-11.2482
中外	-11.2483
專一	-11.2485
之所能	-11.2485
足下	-11.249
而不知其	-11.249
至仁	-11.2491
目前	-11.2491
棄之	-11.2494
▁太上洞玄靈寳	-11.2494
掃除	-11.2495
言訖	-11.2495
之爲物	-11.2496
聞經	-11.2499
一世	-11.25
太后	-11.25
教以	-11.2504
修仙	-11.2504
罪根	-11.2506
海上	-11.2506
膈	-11.2508
鏤	-11.2509
纎	-11.2509
藪	-11.2509
靣	-11.2509
榻	-11.2509
巵	-11.2509
必不	-11.251
儒者	-11.251
時刻	-11.2512
不備	-11.2513
等分	-11.2513
三色	-11.2515
了了	-11.2516
西南方	-11.2516
等伏聞	-11.252
離合	-11.2528
化化	-11.2528
因此	-11.253
十音	-11.2532
比於	-11.2533
卷中	-11.2535
至則	-11.2535
開闢	-11.2536
葩	-11.254
厠	-11.2541
弃	-11.2541
昬	-11.2541
▁志心皈命禮	-11.2541
有九	-11.2541
恐其	-11.2544
若得	-11.2545
治世	-11.2548
海中	-11.2553
天行	-11.2556
玉池	-11.2556
不虚	-11.2558
紫霞	-11.2563
▁北極	-11.2563
而常	-11.2563
師資	-11.2566
驅邪	-11.2568
百事	-11.2571
峽	-11.2572
澀	-11.2572
豚	-11.2572
踞	-11.2572
鍼	-11.2572
隘	-11.2572
憩	-11.2572
真形	-11.2572
人口	-11.2574
帝前	-11.2575
六陽	-11.2575
物以	-11.2579
豈無	-11.258
羣仙	-11.2581
靈山	-11.2584
▁髙上	-11.2585
上部	-11.2587
於萬物	-11.259
以濟	-11.259
蠱毒	-11.2594
貴乎	-11.2595
普及	-11.2596
者又	-11.2599
一服	-11.2599
煑取	-11.2599
之私	-11.26
翮	-11.2603
踪	-11.2603
鬰	-11.2604
菖蒲	-11.2604
山上	-11.2605
結璘	-11.2606
▁大聖	-11.2607
紫色	-11.2608
以時	-11.2613
久而	-11.2615
十二音	-11.2618
慨	-11.262
其迹	-11.2622
所云	-11.2624
滄	-11.2625
既得	-11.2626
難言	-11.2629
涌	-11.2633
雖未	-11.2635
諸藥	-11.2635
劎	-11.2635
駒	-11.2635
咫尺	-11.2635
滅形	-11.2636
▁太上无極大道	-11.2637
平日	-11.2639
其妻	-11.2646
無相	-11.2647
傳道	-11.2649
可道	-11.2649
三時	-11.265
世之人	-11.265
求生	-11.2653
無終	-11.2654
齋意	-11.2655
七音	-11.2655
今來	-11.2656
服餌	-11.2658
實爲	-11.2659
經籙	-11.266
謹爲	-11.2661
晦朔	-11.2661
興隆	-11.2662
大棗	-11.2665
善果	-11.2665
三稱	-11.2666
酢	-11.2666
敲	-11.2667
寥廓	-11.2668
信也	-11.267
壬戌	-11.267
究其	-11.2671
惡瘡	-11.2674
出于	-11.2675
磁石	-11.2678
何得	-11.2679
身不	-11.2679
之庭	-11.2679
家有	-11.268
妙行眞人	-11.2681
復以	-11.2681
青書	-11.2681
利器	-11.2682
之喻	-11.2683
有疾	-11.2685
本於	-11.2687
論云	-11.2688
元宫	-11.269
下流	-11.2692
錬形	-11.2692
大同	-11.2694
仙君	-11.2695
不留	-11.2696
六分	-11.2697
六十四卦	-11.2697
橐	-11.2699
廊	-11.2699
丗	-11.2699
箱	-11.2699
岫	-11.2699
又存	-11.2699
己酉	-11.27
之微	-11.2702
微言	-11.2702
並同	-11.2706
歡樂	-11.2707
六宫	-11.2707
所好	-11.2708
雞子	-11.2708
不獲	-11.271
同學	-11.2711
爲宗	-11.2716
之司	-11.2716
用火	-11.2718
五曰	-11.2718
伏藏	-11.2721
▁皇帝	-11.2724
元辰	-11.2725
後來	-11.2725
不朽	-11.2726
四支	-11.2727
皆同	-11.2727
之資	-11.2729
章第七	-11.2729
以安	-11.2729
迓	-11.2731
鬲	-11.2731
悼	-11.2731
梟	-11.2731
蛤	-11.2731
中部	-11.2732
有限	-11.2733
統領	-11.2734
能以	-11.2734
赤天	-11.2736
不斷	-11.2736
所貴	-11.2737
首尾	-11.274
日月星宿	-11.2746
之魂	-11.2746
三山	-11.2747
監生	-11.275
又請	-11.2752
以救	-11.2753
靜定	-11.2758
於天地	-11.2759
一性	-11.276
棟	-11.276
哉夫	-11.2761
怛	-11.2763
在位	-11.2764
彌羅	-11.2766
聖祖	-11.2769
諸經	-11.2769
正性	-11.2772
太霞	-11.2773
且夫	-11.2773
丹藥	-11.2774
二十四人	-11.2774
第十一	-11.2775
何嘗	-11.2777
太祖	-11.2781
永離	-11.2783
所傳	-11.2784
却入	-11.2785
爲名	-11.2785
太極眞人	-11.2787
十戒	-11.2791
肅清	-11.2791
玄母	-11.2793
芻	-11.2794
瞿	-11.2794
拌	-11.2795
穎	-11.2795
𨼆	-11.2795
惟道	-11.2798
僕射	-11.2799
道行	-11.2802
當願一切	-11.2803
禍患	-11.2804
急速	-11.2805
覆之	-11.2807
之夫	-11.281
氣者	-11.2812
有過	-11.2815
常居	-11.2815
土木	-11.2816
之果	-11.2817
悔過	-11.2818
真道	-11.2824
太易	-11.2824
受道	-11.2825
攣	-11.2825
幽微	-11.2826
舘	-11.2827
臟腑	-11.2828
但當	-11.2829
又復	-11.2829
經師	-11.2831
其辭	-11.2831
春分	-11.2831
可畏	-11.2832
霜雪	-11.2837
長者	-11.2838
天降	-11.2839
萬衆	-11.2842
始知	-11.285
晃	-11.2851
風伯	-11.2853
下愚	-11.2853
七尺	-11.2855
本也	-11.2857
塚	-11.2859
▁10:21:5	-11.286
挂	-11.286
一陰	-11.2861
當用	-11.2861
▁量	-11.2867
幽靈	-11.287
太无	-11.2873
九拜	-11.2873
仙曹	-11.2875
修丹	-11.2878
爲己	-11.2883
四人	-11.2883
烏頭	-11.2886
霖	-11.2887
速至	-11.2888
本壇	-11.2888
當年	-11.289
五龍	-11.2891
徤	-11.2892
沴	-11.2892
賫	-11.2892
趍	-11.2892
鑽	-11.2892
安有	-11.2894
青城	-11.2895
其分	-11.2895
天將	-11.2896
道性	-11.2898
▁各禮師存念如法	-11.2904
勤苦	-11.2905
然其	-11.2906
爲二	-11.2907
順天	-11.2907
麻子	-11.2909
救護	-11.2911
不可測	-11.2913
明其	-11.2914
六爻	-11.2914
是諸	-11.2915
可欲	-11.2919
然有	-11.2919
是日	-11.292
行下	-11.2921
第十二	-11.2921
斬鬼	-11.2922
敵人	-11.2923
己亥	-11.2924
狸	-11.2924
浦	-11.2925
閔	-11.2925
吊	-11.2925
哩	-11.2925
眥	-11.2925
馴	-11.2925
自身	-11.2925
來生	-11.2928
已身	-11.293
伏地	-11.2932
煉度	-11.2932
蠢動	-11.2933
明目	-11.2934
安神	-11.2934
寂然不動	-11.2934
筆書	-11.294
保安	-11.2942
有分	-11.2943
公孫	-11.2943
▁右十	-11.2943
爲正	-11.2947
數千	-11.2948
誥命	-11.2948
剉	-11.2952
會合	-11.2955
百川	-11.2956
太霄	-11.2956
鍋	-11.2957
繕	-11.2957
之次	-11.2962
是皆	-11.2967
一千二百	-11.297
統攝	-11.2971
實也	-11.2973
眇眇	-11.2976
恐懼	-11.2979
如初	-11.2981
金容	-11.2983
五通	-11.2985
天時	-11.2986
▁嶽	-11.2987
閼	-11.2988
謹奏	-11.2989
吼	-11.299
▁重稱法位	-11.299
眼前	-11.2993
不加	-11.2994
玄宫	-11.2995
七世	-11.2998
方函	-11.3001
地司	-11.3004
咸得	-11.3005
全形	-11.3005
六七	-11.3007
正位	-11.3009
不煩	-11.3011
能守	-11.3012
之中有	-11.3013
清凉	-11.3014
天下也	-11.3014
傷也	-11.3014
亡過某	-11.3015
洞觀	-11.3017
自爾	-11.3017
道備	-11.3018
莫如	-11.302
痾	-11.3021
居於	-11.3022
物故	-11.3022
三塗五苦	-11.3024
國有	-11.3025
▁太上無極大道	-11.3025
我我	-11.3025
玉書	-11.3028
湯武	-11.3029
日月星	-11.303
驅除	-11.3031
死人	-11.3032
七眞	-11.3033
異香	-11.3033
其中有	-11.3035
土釜	-11.3036
以禮	-11.3036
如此者	-11.3038
朱宫	-11.3039
▁太乙	-11.304
髙明	-11.304
六六	-11.3043
何用	-11.3043
三斤	-11.3046
▁黄帝	-11.3047
作一	-11.3049
▁謹召	-11.3052
己丑	-11.3055
各四	-11.3055
陰德	-11.3056
查	-11.3056
舎	-11.3056
覬	-11.3056
玄之又玄	-11.3056
白芷	-11.3058
聖號	-11.3058
▁右二味	-11.3058
空寂	-11.3059
無妄	-11.3061
畏之	-11.3063
其炁	-11.3066
茅君	-11.3067
一丈	-11.3069
無極大道	-11.3069
時節	-11.3073
細研	-11.3074
貪求	-11.3079
下弦	-11.308
於是乎	-11.3081
▁孫	-11.3082
無鞅	-11.3083
於國	-11.3084
興雲	-11.3086
師友	-11.3087
名之曰	-11.3089
壹	-11.3089
巔	-11.3089
渺渺	-11.3089
養形	-11.3089
知識	-11.3094
得成	-11.3096
微微	-11.3096
玄師	-11.3096
不得已而	-11.3096
於陽	-11.3097
之南	-11.3099
難知	-11.3099
元元	-11.3102
歷劫	-11.3108
于此	-11.311
苦酒	-11.311
方且	-11.311
渾淪	-11.3112
豫章	-11.3114
復見	-11.3115
龍門	-11.3115
聖慈	-11.3115
大過	-11.3116
出焉	-11.3117
壺子	-11.3119
五賊	-11.3121
眞誥	-11.3122
甦	-11.3122
繆	-11.3122
衒	-11.3122
釘	-11.3122
霐	-11.3122
勝也	-11.3123
大道君	-11.3123
巴豆	-11.3124
欲其	-11.3125
召之	-11.3126
營衛	-11.3126
要妙	-11.3129
陰中	-11.313
接物	-11.3131
前有	-11.3131
支離	-11.3134
能制	-11.3134
飢寒	-11.3135
伏惟	-11.3136
粲	-11.3137
也哉	-11.3143
爲治	-11.3144
二千二百	-11.3146
蠢	-11.3147
常人	-11.3148
河上公	-11.3148
旦夕	-11.315
與諸	-11.3153
三尊	-11.3155
渙	-11.3156
髯	-11.3156
今故燒香自皈依	-11.3156
有六	-11.3158
正也	-11.3162
靈府	-11.3163
死於	-11.3165
如上	-11.3165
直日	-11.3166
靈源	-11.3169
又見	-11.3169
如日	-11.317
入聖	-11.3172
半夏	-11.3173
國人	-11.3174
失也	-11.3175
靈神	-11.3175
黄籙大齋	-11.318
鬼官	-11.3182
又言	-11.3183
飴	-11.3189
覔	-11.3189
▁曹操曰	-11.319
金公	-11.3191
道乃	-11.3192
重重	-11.3197
兼忘	-11.3198
錦帔	-11.3199
得道之	-11.3201
著於	-11.3204
青雲	-11.3205
同體	-11.3206
▁細辛	-11.3206
八分	-11.3207
始有	-11.3209
神凝	-11.3209
感而	-11.3209
而獨	-11.321
四體	-11.3211
則曰	-11.3212
身輕	-11.3212
落落	-11.3212
之宜	-11.3215
死地	-11.3216
高祖	-11.3219
一小	-11.322
鬬	-11.3223
斲	-11.3223
呉	-11.3223
伊尹	-11.3224
宫主	-11.3225
輕身	-11.3227
本司	-11.3227
中書	-11.323
母也	-11.3231
救苦天尊	-11.3231
相爲	-11.3235
帝王之	-11.3237
爲是	-11.3237
玄精	-11.3238
氣化	-11.3239
▁敢	-11.3244
耳非	-11.3244
行化	-11.3246
各隨	-11.3246
雖曰	-11.3248
未詳	-11.3248
二星	-11.325
受法	-11.3253
同也	-11.3253
安穩	-11.3254
未曾	-11.3255
啄	-11.3255
巒	-11.3256
鄒	-11.3256
臥	-11.3256
麵	-11.3256
誹謗	-11.3256
之弊	-11.3257
不滯	-11.3258
用藥	-11.3262
所化	-11.3264
一轉	-11.3267
不遺	-11.3267
桂心	-11.3273
十卷	-11.3274
丹霞	-11.3275
之氣也	-11.3276
謝恩	-11.3276
安其	-11.3277
兵革	-11.3277
積德	-11.3282
以象	-11.3284
河東	-11.3285
名實	-11.3286
倐	-11.3286
顙	-11.3289
馥	-11.329
麓	-11.329
嫩	-11.329
消亡	-11.3291
五嶽四瀆	-11.3292
之職	-11.3293
之容	-11.3293
鐺	-11.3296
朱履	-11.3298
紫煙	-11.3303
道力	-11.3305
不分	-11.3308
於大	-11.3308
聖人以	-11.3311
掌握	-11.3313
果有	-11.3315
說之	-11.3315
千眞	-11.3316
已來	-11.3318
金陵	-11.3321
二篇	-11.3322
牟	-11.3323
槌	-11.3324
竦	-11.3324
丹霄	-11.3324
萬仙	-11.3325
上善	-11.3326
此名	-11.3328
五尺	-11.3328
滄海	-11.3334
修設	-11.3334
五福	-11.3335
直入	-11.3335
飛符	-11.3336
壇中	-11.3337
昔有	-11.3337
修建	-11.3339
正中	-11.3339
喘息	-11.334
無際	-11.3341
一十五	-11.3341
内景	-11.3344
今當	-11.3345
名者	-11.3347
碧虚	-11.3348
罪魂	-11.3349
曝	-11.3351
生成之	-11.3353
生根	-11.3355
仁義之	-11.3356
蕪	-11.3357
瘟疫	-11.3357
▁唐本注云	-11.3358
冩	-11.3358
縹緲	-11.3358
斫	-11.3358
交接	-11.3358
以觀	-11.3359
合一	-11.3363
必至	-11.3363
齋醮	-11.3364
侍宸	-11.3365
所奏	-11.3365
形影	-11.3367
雲車	-11.3368
五合	-11.3369
令我	-11.3371
若然者	-11.3371
黄衣	-11.3372
遂使	-11.3373
皇極	-11.3376
次以	-11.3378
樓觀	-11.3378
感動	-11.338
无常	-11.3383
汚	-11.3391
衘	-11.3392
軄	-11.3392
▁10:21:3	-11.3392
▁學士及百姓子	-11.3392
雨師	-11.3394
去矣	-11.3396
朋友	-11.3396
昭明	-11.3397
帝敕	-11.3398
少時	-11.3399
醴泉	-11.3402
大豆	-11.3403
之東	-11.3404
有力	-11.3406
二錢	-11.3406
未濟	-11.3407
彼之	-11.3412
則不然	-11.3416
知天	-11.3417
之愆	-11.342
閉口	-11.342
人我	-11.3422
粮	-11.3424
飛揚	-11.3424
寳符	-11.3424
将	-11.3426
抜	-11.3426
狎	-11.3426
己卯	-11.3431
▁向來	-11.3433
九百	-11.3434
也若夫	-11.3435
便得	-11.3436
猛吏	-11.3436
物爲	-11.3436
生數	-11.3439
愛其	-11.3439
特降	-11.3441
行法	-11.3445
道本無	-11.3446
有如	-11.3447
武曲	-11.3448
心下	-11.3448
淮南	-11.3448
害之	-11.3448
當日	-11.3449
直下	-11.3451
白衣	-11.3451
以次	-11.3452
達於	-11.3454
蠻雷	-11.3454
清都	-11.3455
是眞	-11.346
攢	-11.3461
虫	-11.3461
娱	-11.3461
甜	-11.3461
玄化	-11.3461
天眞皇人	-11.3462
收攝	-11.3462
守眞	-11.3462
無主	-11.3463
合其	-11.3463
五體	-11.3464
自然而然	-11.3467
者不以	-11.3474
所施	-11.3479
法信	-11.348
傳言	-11.3481
隨機	-11.3481
嵩山	-11.3482
所存	-11.3483
皇人	-11.3483
在焉	-11.3483
正心	-11.3483
之必	-11.3483
遨	-11.3484
九天之	-11.3486
白簡	-11.3488
出處	-11.3488
三十八	-11.3488
驗也	-11.349
知我	-11.3491
難治	-11.3493
譜	-11.3493
安可	-11.3495
艷	-11.3495
癰疽	-11.3495
之未	-11.3496
甲兵	-11.3497
只要	-11.3499
者少	-11.3499
邪正	-11.35
之序	-11.35
文云	-11.3501
瑶池	-11.3501
月建	-11.3502
真官	-11.3502
也人之	-11.3503
腋	-11.3505
盡性	-11.3506
遨遊	-11.3507
大壯	-11.3508
其明	-11.3508
仙階	-11.3509
寂滅	-11.3511
此篇	-11.3512
九泉	-11.3514
浮空	-11.3515
而還	-11.3516
即此	-11.3516
城郭	-11.3517
昭王	-11.3519
相感	-11.3519
觀於	-11.352
靈寳大法	-11.3521
希有	-11.3525
知音	-11.3526
施爲	-11.3527
惰	-11.3528
此語	-11.3529
瘵	-11.353
㓜	-11.353
蘄	-11.353
侔	-11.353
卷之一	-11.3531
南上	-11.3533
雲路	-11.3537
中庸	-11.3538
不敢爲	-11.3539
不侵	-11.3539
今月某日	-11.3541
掣電	-11.3543
護國	-11.3544
十有三	-11.3544
七月七日	-11.3545
自家	-11.3546
亦不知	-11.3546
關節	-11.3547
之華	-11.3547
是已	-11.3548
不難	-11.3548
四生	-11.355
▁問曰	-11.3551
入腹	-11.3553
方丈	-11.3555
失於	-11.3558
太常	-11.3559
未易	-11.3559
川谷	-11.356
罔極	-11.356
宣王	-11.356
車馬	-11.3562
形神俱妙	-11.3564
等至心皈命禮願	-11.3564
雁	-11.3565
糊	-11.3565
訥	-11.3565
▁志心信禮	-11.3565
桔梗	-11.3565
六尺	-11.3565
何可	-11.3566
妖魔	-11.3567
必死	-11.3567
凡所	-11.3568
擲火	-11.3568
諸將	-11.3572
展轉	-11.3572
文帝	-11.3572
慈心	-11.3573
道塲	-11.3576
地也	-11.3576
髙尊	-11.3578
明了	-11.3578
乃有	-11.3582
存見	-11.3584
易也	-11.3588
罪人	-11.3589
包羅	-11.3589
勉之	-11.3589
自愛	-11.3589
妹	-11.3592
敬禮	-11.3593
見世	-11.3595
洞達	-11.3595
都督	-11.3596
機關	-11.3597
兩腎	-11.3598
羈	-11.3599
夔	-11.3599
盃	-11.3599
貶	-11.3599
楮	-11.3599
桀紂	-11.36
能令	-11.36
光景	-11.3601
因果	-11.3604
騫林	-11.3606
攻之	-11.3606
歸眞	-11.3609
布炁	-11.3612
即時	-11.3613
洞煥	-11.3614
依此	-11.3614
水上	-11.3614
之淵	-11.3615
道生	-11.3615
自天	-11.3616
入靖	-11.3616
明君	-11.3616
黄耆	-11.3616
來下	-11.3616
不衰	-11.362
大矣	-11.3622
心火	-11.3623
便可	-11.3623
神風	-11.3624
能言	-11.3626
鬼魅	-11.3627
慎之	-11.3628
無親	-11.3628
以左手	-11.3629
道之士	-11.363
塘	-11.3632
百千	-11.3633
眞授	-11.3634
▁10:22:1	-11.3634
駿	-11.3634
弛	-11.3634
毬	-11.3634
以智	-11.3635
令得	-11.3635
而未嘗	-11.3638
不懼	-11.3638
孛	-11.3639
除已	-11.364
生前	-11.364
有爲之	-11.3641
身入	-11.3641
須至申	-11.3642
老君曰	-11.3644
流浪	-11.3645
有成	-11.3649
▁洞玄靈寳	-11.365
以立	-11.3653
寒庭	-11.3654
子産	-11.3655
司空	-11.3656
君主	-11.3657
是一	-11.3657
皆然	-11.3657
久之	-11.3658
飛鳥	-11.3661
既無	-11.3663
無傷	-11.3665
亦自	-11.3665
飛走	-11.3667
鈆	-11.3667
嫉妬	-11.367
可知矣	-11.367
繼之	-11.3672
生故	-11.3675
我則	-11.3676
是一病	-11.3679
意也	-11.3685
人力	-11.3689
又方治	-11.3691
尊貴	-11.3695
召將	-11.3695
呼之	-11.3695
必能	-11.3697
之西	-11.37
山東	-11.37
所主	-11.37
靈旛	-11.3703
昂	-11.3704
相遇	-11.3704
鯨	-11.3705
奬	-11.3705
鞋	-11.3705
前生	-11.3705
不免於	-11.3706
持之	-11.3706
統御	-11.3706
青童君	-11.3707
以酒	-11.3708
二君	-11.3708
合形	-11.3709
而不敢	-11.3711
精精	-11.3713
行功	-11.3715
星在	-11.3716
五彩	-11.3716
▁范曰	-11.3717
行氣	-11.3718
玄女	-11.3719
炁合	-11.3719
多矣	-11.372
師之	-11.3721
精血	-11.3721
悟眞	-11.3722
丘山	-11.3723
侍從	-11.3723
所指	-11.3724
或在	-11.3724
貨財	-11.3725
子路	-11.3725
冕	-11.3728
此又	-11.373
亦爲	-11.373
四指	-11.3732
二符	-11.3733
飛步	-11.3734
硝石	-11.3734
離坎	-11.3734
不傾	-11.3734
將何	-11.3735
駟	-11.3735
所請	-11.3736
萬物而	-11.3738
阮	-11.374
秪	-11.374
何者	-11.374
兜	-11.3741
再念	-11.3742
屬陰	-11.3744
仙品	-11.3745
正是	-11.3747
晚朝	-11.3749
流轉	-11.3749
煉形	-11.375
而愈	-11.375
含光	-11.3751
不寧	-11.3753
鎮星	-11.3755
玉曆	-11.3755
次序	-11.3756
道矣	-11.3757
魔鬼	-11.3757
子子	-11.3761
七宿	-11.3762
三徧	-11.3764
其親	-11.3765
竹葉	-11.3766
以道爲	-11.3767
頭建	-11.3768
取天下	-11.3771
二十日	-11.3774
屨	-11.3775
蓼	-11.3775
刮	-11.3775
袂	-11.3775
存身	-11.3776
自當	-11.3776
神力	-11.3777
乗雲	-11.3778
道體	-11.3779
五老上帝	-11.3782
不殆	-11.3783
善用	-11.3785
度人經	-11.3788
凡欲	-11.3788
即愈	-11.3789
誓願	-11.3792
大丈夫	-11.3794
不輟	-11.3795
之歲	-11.3798
一次	-11.3799
上書	-11.38
家宅	-11.38
立而	-11.3801
高山	-11.3802
無量度人	-11.3803
處士	-11.3805
猛火	-11.3805
聞而	-11.3807
不常	-11.3808
憾	-11.3811
扈	-11.3811
▁請稱法位	-11.3811
永不	-11.3812
也唯	-11.3813
降于	-11.3814
變神	-11.3817
眞神	-11.3818
之失	-11.382
無故	-11.3828
不專	-11.3829
未幾	-11.3829
不學	-11.3829
六塵	-11.3829
卷之五	-11.383
便有	-11.3831
不載	-11.3832
無味	-11.3832
不顯	-11.3833
善言	-11.3836
靈丹	-11.3837
鑊湯	-11.3838
法則	-11.3839
土土	-11.3843
乃見	-11.3843
浩然	-11.3844
然後能	-11.3846
臯	-11.3846
言則	-11.3846
跛	-11.3847
徂	-11.3847
舄	-11.3847
籤	-11.3847
魍魎	-11.3847
龐	-11.3847
炎帝	-11.3849
當此之時	-11.3849
暘谷	-11.385
奏請	-11.385
斯言	-11.3851
西向	-11.3852
且如	-11.3853
恩光	-11.3854
各以	-11.3854
▁洞玄	-11.3855
細辛	-11.3856
一篇	-11.3856
鬼王	-11.3856
人或	-11.3857
速起	-11.3857
豁然	-11.3859
廣成	-11.3859
祝之	-11.386
仙姑	-11.3864
方是	-11.3867
使天下	-11.387
稱揚	-11.3871
則反	-11.3872
龍蛇	-11.3875
九天之上	-11.3878
化神	-11.3879
觜	-11.388
一刻	-11.3882
溟涬	-11.3882
流入	-11.3882
同身寸	-11.3883
攫	-11.3883
菩提	-11.3883
盈虚	-11.3884
具載	-11.3888
出自	-11.389
正坐	-11.3891
妄作	-11.3895
自安	-11.3896
其門	-11.3897
即以	-11.3897
之而不	-11.3898
觀者	-11.39
下世	-11.3903
地皇	-11.3903
分身	-11.3904
無求	-11.3905
上弦	-11.3907
吾聞	-11.3908
之所生	-11.3909
雌一	-11.391
益氣	-11.3911
玄老	-11.3913
菌	-11.3914
燎	-11.3915
爐鼎	-11.3917
衆仙	-11.3918
䑓	-11.3919
碩	-11.3919
諂	-11.3919
譎	-11.3919
頴	-11.3919
荅	-11.3919
淺深	-11.392
正教	-11.392
常當	-11.3921
忍辱	-11.3925
墨書	-11.3925
妙哉	-11.3925
▁十四	-11.3929
日魂	-11.3935
騎吏	-11.3936
得一以	-11.3938
備矣	-11.3938
行藏	-11.394
桃花	-11.394
治人	-11.394
君子以	-11.3941
則道	-11.3943
慈仁	-11.3945
黄精	-11.3946
爲此	-11.3947
即止	-11.3947
士庶	-11.3947
瓊臺	-11.395
示以	-11.395
一乘	-11.395
說是	-11.3951
小腹	-11.3951
四十四	-11.3952
果報	-11.3953
鍳	-11.3955
募	-11.3955
迥	-11.3955
枯槁	-11.3956
疫癘	-11.3958
禹歩	-11.3959
遂以	-11.3962
之人也	-11.3963
既已	-11.3964
司録	-11.3968
金金	-11.3968
氣力	-11.397
來入	-11.3972
訣曰	-11.3973
長生大帝	-11.3973
至藥	-11.3973
要訣	-11.3974
无極大道	-11.3976
敬之	-11.3977
死生之	-11.3978
炷	-11.398
無成	-11.3981
金星	-11.3982
身有	-11.3986
俱入	-11.3989
迦	-11.3989
應聲	-11.3989
教法	-11.3989
諸靈官	-11.399
糠	-11.3991
歧	-11.3991
惹	-11.3991
菲	-11.3991
有能	-11.3991
主於	-11.3992
所陳	-11.3999
以全	-11.4
神魂	-11.4001
成真	-11.4003
相傾	-11.4004
玉房	-11.4004
渾沌	-11.4005
登天	-11.4006
輟	-11.4007
善事	-11.4008
无量度人	-11.4009
自已	-11.401
混然	-11.4012
天生	-11.4013
先存	-11.4013
蒙恩	-11.4013
一門	-11.4016
勝則	-11.4017
硝	-11.402
參同	-11.4021
全身	-11.4022
東方青	-11.4022
七徧	-11.4024
玉匱	-11.4026
臨壇	-11.4026
身死	-11.4026
所惡	-11.4027
貟	-11.4027
𣗳	-11.4027
赤石脂	-11.4027
鴟	-11.4027
噀	-11.4029
經書	-11.403
先王之	-11.4031
實而	-11.4032
何以知	-11.4032
煥明	-11.4033
多生	-11.4034
金碧	-11.4035
玄光	-11.4037
我有	-11.4037
註曰	-11.4037
唯願	-11.4039
濟世	-11.4043
扶持	-11.4045
黄雲	-11.4046
出門	-11.4047
平平	-11.4048
雖無	-11.4048
之勝	-11.4048
十種	-11.4049
十有二	-11.4052
變形	-11.4052
一徧	-11.4053
申酉	-11.4053
芝草	-11.4054
者歟	-11.4056
特爲	-11.4058
▁附子	-11.4058
共成	-11.406
靈芝	-11.4062
戊已	-11.4063
藜	-11.4064
如上法	-11.4064
蛾	-11.4064
津梁	-11.4067
端正	-11.4067
午文	-11.4067
孝慈	-11.4068
咽氣	-11.4069
六兩	-11.4071
己巳	-11.4074
故謂	-11.4074
結繩	-11.4075
玉臺	-11.4077
復於	-11.4079
非不	-11.408
師寳	-11.4082
間隔	-11.4082
然如	-11.4084
十六日	-11.4086
罪咎	-11.4086
如一	-11.4087
浮黎	-11.4087
非吾	-11.4087
於事	-11.4087
幽暗	-11.4088
雷震	-11.4088
涓	-11.4089
啓告	-11.409
能得	-11.4092
天年	-11.4093
大力	-11.4094
▁地之	-11.4094
隱名	-11.4096
傷於	-11.4096
天和	-11.4096
列聖	-11.4096
之奥	-11.4096
損之	-11.4097
燼	-11.4099
稔	-11.4099
子列子	-11.41
雨澤	-11.41
羌	-11.41
爲非	-11.4101
各得	-11.4103
知其所	-11.4104
九變	-11.4104
武夷	-11.4106
白鹿	-11.4107
威德	-11.411
之因	-11.411
不輕	-11.4111
氣自	-11.4111
小有	-11.4113
▁抱朴子曰	-11.4116
修德	-11.4119
其來	-11.412
一石	-11.4121
災害	-11.4121
或謂	-11.4124
可知也	-11.4124
侍郎	-11.4124
其術	-11.4126
利用	-11.4126
一首	-11.4126
事者	-11.4126
爲火	-11.4128
鍊神	-11.4129
不自知	-11.4131
瞑	-11.4132
小而	-11.4133
爲佳	-11.4135
大聖衆	-11.4136
曰臣	-11.4137
璋	-11.4137
蹊	-11.4137
懶	-11.4137
汾	-11.4137
猴	-11.4137
稠	-11.4137
狡	-11.4137
郢	-11.4137
天丁力士	-11.4138
持經	-11.4139
耳聾	-11.4143
獲福	-11.4145
曰若	-11.4147
道合	-11.415
腰痛	-11.415
百八十	-11.4152
曹治	-11.4154
斯爲	-11.4154
厄難	-11.4156
身得	-11.4161
弘道	-11.4163
事業	-11.4164
二尺	-11.4164
中斗	-11.4164
自正	-11.4166
仰天	-11.4166
法食	-11.4167
吾有	-11.4168
而不見	-11.4173
識其	-11.4174
相須	-11.4174
插	-11.4174
棒	-11.4174
輯	-11.4174
瀾	-11.4174
永斷	-11.4174
細微	-11.4175
死後	-11.4176
這箇	-11.4178
降靈	-11.4179
▁神霄	-11.418
始皇	-11.4181
儒墨	-11.4183
侍香	-11.4183
本始	-11.4183
九晨	-11.4183
司徒	-11.4184
所歸	-11.4184
而長	-11.4186
保身	-11.4187
鬱勃	-11.4188
屬陽	-11.4188
隂精	-11.4189
仙矣	-11.419
行滿	-11.419
非可	-11.4191
見前	-11.4193
之制	-11.4195
▁太陽	-11.4196
勤修	-11.4197
丁酉	-11.4198
形於	-11.4198
五斤	-11.4201
羣臣	-11.4202
夢見	-11.4203
醮筵	-11.4203
之圖	-11.4203
刺之	-11.4204
其死	-11.4204
有定	-11.4204
必當	-11.4205
▁太歳年月日	-11.4205
成象	-11.4205
六洞	-11.4206
閃	-11.4206
在己	-11.4207
其象	-11.4207
道祖	-11.4208
爲樂	-11.421
霓	-11.421
明科	-11.4211
而受	-11.4211
攬	-11.4211
闌	-11.4211
瓠	-11.4211
得之者	-11.4211
澄心	-11.4212
不廢	-11.4212
▁巳上	-11.4213
之役	-11.4213
孰知	-11.4215
水陸	-11.4219
地黄	-11.422
告之	-11.4221
也萬物	-11.4225
之應	-11.4225
隨心	-11.4225
有待	-11.4225
見形	-11.4226
清凈	-11.4227
某身	-11.4227
神公	-11.4233
疾苦	-11.4233
我亦	-11.4235
爲身	-11.4235
種子	-11.4237
爲金	-11.4237
形狀	-11.4239
其脉	-11.4239
黑鉛	-11.4239
不擇	-11.424
既濟	-11.424
爲丸	-11.4243
其勢	-11.4243
千餘	-11.4243
不恃	-11.4244
亡也	-11.4244
又不	-11.4245
儼然	-11.4246
恚	-11.4246
嗌	-11.4248
憊	-11.4248
道要	-11.4248
陰生	-11.4252
天綱	-11.4253
攝生	-11.4254
靈靈	-11.4258
天德	-11.4258
方隅	-11.4259
妖氛	-11.4264
徒勞	-11.4265
四十六	-11.4266
一宿	-11.4267
之車	-11.4269
天經	-11.4271
天界	-11.4272
益筭	-11.4272
神妙	-11.4275
所當	-11.4276
養其	-11.4278
服此	-11.4278
▁生薑	-11.428
行善	-11.428
幘	-11.4281
不殺	-11.4284
七人	-11.4284
▁10:22:0	-11.4286
悮	-11.4286
歙	-11.4286
甑	-11.4286
道自	-11.4289
林木	-11.4292
今年	-11.4293
有時而	-11.4293
三辰	-11.4295
牛膝	-11.4295
解結	-11.4295
而至於	-11.4296
立至	-11.43
散治	-11.4301
無所用	-11.4301
舉其	-11.4306
禮謝	-11.4306
今在	-11.4306
則與	-11.4307
達者	-11.4307
而傳	-11.4308
讀之	-11.4309
奔走	-11.431
言之則	-11.431
實有	-11.4311
從今	-11.4312
空無	-11.4313
塵勞	-11.4317
妙訣	-11.4317
如故	-11.4318
者欲	-11.4322
風月	-11.4322
痕	-11.4323
塑	-11.4323
䂓	-11.4323
舛	-11.4323
雲集	-11.4325
而强	-11.4325
愆尤	-11.4328
政事	-11.4331
靈眞	-11.4332
司殺	-11.4332
無德	-11.4337
青紙	-11.434
相成	-11.434
眞風	-11.4342
五十五	-11.4344
而我	-11.4346
髙仙	-11.4347
玉篇	-11.4347
歲星	-11.4348
度脫	-11.4353
都畢	-11.4356
夙夜	-11.4357
告曰	-11.4358
稅	-11.4361
販	-11.4361
䑕	-11.4361
諮	-11.4361
栀子	-11.4361
紫微宫	-11.4364
分三服	-11.4364
而物	-11.4367
陽而	-11.4368
靈驗	-11.437
心腎	-11.437
高宗	-11.4371
迎之	-11.4374
實則	-11.4379
合自然	-11.4379
早朝	-11.438
命者	-11.4381
公卿	-11.4382
皆空	-11.4383
三災	-11.4384
安危	-11.4387
青黄	-11.4388
中見	-11.4389
膿血	-11.4393
不暇	-11.4394
秋毫	-11.4395
也又曰	-11.4395
幽爽	-11.4395
凡修	-11.4396
救濟	-11.4397
膳	-11.4398
清虛	-11.4399
火運	-11.4401
太一救苦天尊	-11.4401
百家	-11.4403
進士	-11.4403
九品	-11.4406
無敵	-11.4407
法衆	-11.4407
解穢	-11.4408
升麻	-11.4409
北炁	-11.4411
則謂之	-11.4413
符召	-11.4414
入門	-11.4414
不期	-11.4414
佩服	-11.4415
並是	-11.4417
辯者	-11.4417
風波	-11.4418
諸山	-11.4422
時行	-11.4425
相接	-11.4428
諸家	-11.4433
人必	-11.4433
婦女	-11.4433
癇	-11.4434
出其	-11.4435
峭	-11.4435
券	-11.4436
癖	-11.4436
蝸	-11.4436
鞠	-11.4436
终	-11.4436
蠅	-11.4436
心如	-11.4438
人言	-11.4439
與衆	-11.4439
在手	-11.444
以度	-11.4441
位也	-11.4442
遵奉	-11.4445
即便	-11.4446
之智	-11.4451
仙師	-11.4452
當境	-11.4452
而後有	-11.4453
萬病	-11.4454
所部	-11.4455
斯文	-11.4455
上行	-11.4457
玉清訣	-11.4457
其知	-11.4458
幽深	-11.446
流俗	-11.4462
之祕	-11.4463
證果	-11.4464
無漏	-11.4465
德天尊	-11.4465
可勝	-11.4466
見道	-11.4468
不務	-11.4468
有意	-11.447
結胎	-11.447
跖	-11.4472
之北	-11.4472
立身	-11.4472
無極世界	-11.4474
蚤	-11.4474
三界十方	-11.4475
夾脊	-11.4475
起火	-11.4477
事無	-11.4477
與道同	-11.4478
▁䟽此	-11.4478
掃蕩	-11.4479
在彼	-11.4482
若乃	-11.4482
之所在	-11.4483
其狀	-11.4484
推移	-11.4484
勿用	-11.4484
士卒	-11.4485
犯者	-11.4486
爲盜	-11.4488
上帝律令	-11.449
知常	-11.449
火鍊	-11.4491
姥	-11.4492
國君	-11.4494
而貴	-11.4494
黃金	-11.4496
惡死	-11.4498
子云	-11.4499
卯文	-11.4499
大悲	-11.45
殺伐	-11.45
而卒	-11.4502
鄉里	-11.4503
周圓	-11.4503
只爲	-11.4504
天威	-11.4506
未判	-11.4508
鼈	-11.4508
舉世	-11.4508
避之	-11.4509
入符	-11.4509
利而	-11.451
合神	-11.451
道流	-11.4511
▁三清	-11.4512
蹙	-11.4512
玲瓏	-11.4512
貲	-11.4512
斷除	-11.4513
山山	-11.4514
度生	-11.4516
松脂	-11.4518
譬喻	-11.4519
報對	-11.4519
極也	-11.4521
雌黄	-11.4523
之事也	-11.4524
應用	-11.4525
不喜	-11.4534
公之	-11.4536
天數	-11.4536
無罪	-11.454
而不失	-11.4542
如在	-11.4542
取此	-11.4544
太丹	-11.4548
取炁	-11.4549
誠惶誠恐稽首頓首	-11.455
篋	-11.4551
僉	-11.4551
彤	-11.4551
筠	-11.4551
▁至心皈命禮	-11.4551
賢良	-11.4554
中山	-11.4556
亦將	-11.4557
須用	-11.456
氣血	-11.4561
散形	-11.4563
者取	-11.4563
無停	-11.4564
三斗	-11.4565
地有	-11.4566
光映	-11.4567
外無	-11.4568
相望	-11.4568
祈福	-11.4569
有一人	-11.457
月魄	-11.4571
離中	-11.4571
爲利	-11.4572
讀誦	-11.4573
至寳	-11.4573
最靈	-11.4574
九六	-11.4575
堂堂	-11.4575
乃曰	-11.4578
上白	-11.4582
則又	-11.4582
▁天運	-11.4583
▁防風	-11.4584
生矣	-11.4585
風化	-11.4586
者唯	-11.4587
專心	-11.4587
奏章	-11.4589
巿	-11.4589
吠	-11.4589
墉	-11.4589
扄	-11.4589
簷	-11.4589
變也	-11.459
東西南北	-11.4591
障礙	-11.4593
坦然	-11.4594
前驅	-11.4595
門庭	-11.4595
爾等	-11.4595
不幸	-11.4598
入定	-11.4598
傳送	-11.4602
虎嘯	-11.4603
何患	-11.4603
明於	-11.4607
熱病	-11.4608
危殆	-11.461
▁上靈官	-11.4612
氣和	-11.4614
貪欲	-11.4614
明王	-11.4616
▁黄芩	-11.4617
比之	-11.4617
高士	-11.4618
大戒	-11.462
仁也	-11.462
不取	-11.4621
方來	-11.4621
今故	-11.4622
已矣	-11.4623
烈火	-11.4623
自守	-11.4624
址	-11.4625
玄景	-11.4626
筒	-11.4627
不外	-11.4627
笥	-11.4627
心有	-11.4628
曇	-11.4628
牘	-11.4628
本草	-11.4628
笏	-11.4628
香官使者左右龍虎君侍香諸靈官當令	-11.4628
穗	-11.4628
頡	-11.4628
黑氣	-11.4628
保天長存	-11.4628
散則	-11.4631
得意	-11.4631
橘皮	-11.4632
便宜	-11.4635
中有一	-11.4635
文曲	-11.4636
隱隱	-11.4636
人中	-11.4636
升入	-11.4636
三轉	-11.4641
交通	-11.4643
咽喉	-11.4644
洞微	-11.4644
臨軒	-11.4646
燃	-11.4646
黄婆	-11.4647
仙衆	-11.4648
大寒	-11.4648
得度	-11.4649
一百八十	-11.465
屬於	-11.4652
魔精	-11.4652
安泰	-11.4653
九二	-11.4653
遠志	-11.4654
香爐	-11.4655
則萬物	-11.4655
火中	-11.4657
鉛中	-11.4658
自號	-11.4658
往而不	-11.4658
曹官	-11.4659
者正	-11.4661
産後	-11.4662
鞅	-11.4662
同時	-11.4663
呪畢	-11.4663
吾以	-11.4663
飲水	-11.4664
和則	-11.4664
蕩滌	-11.4666
佇	-11.4667
娘	-11.4667
鑠	-11.4667
大元帥	-11.4668
六經	-11.467
金木水火土	-11.467
聽法	-11.4673
二斤	-11.4675
多方	-11.4676
德德	-11.4677
不怒	-11.4678
▁法師	-11.4678
德之人	-11.4679
其源	-11.4679
地軸	-11.4682
陽日	-11.4683
京兆	-11.4684
無以爲	-11.4684
畢乃	-11.4685
壽夭	-11.4685
無不爲	-11.4685
左傳	-11.4686
陰精	-11.4687
相親	-11.4689
護命	-11.469
神仙之	-11.469
復何	-11.469
無滯	-11.4691
上氣	-11.4694
亦未	-11.4695
因循	-11.4697
輔佐	-11.4697
譬之	-11.4698
窈冥	-11.4701
未發	-11.4701
芙蓉	-11.4702
一曲	-11.4702
欬	-11.4703
事皆	-11.4705
妍	-11.4705
嬉	-11.4705
弋	-11.4705
繳	-11.4705
蔕	-11.4705
髀	-11.4705
▁道德眞經	-11.4706
都天	-11.4706
▁道學不得	-11.4707
無英	-11.4708
三道	-11.4709
君王	-11.471
翛然	-11.4711
貴也	-11.4711
防風	-11.4714
常無	-11.4715
心自	-11.4716
風氣	-11.4717
一眞	-11.4718
不到	-11.472
順之	-11.472
全體	-11.472
分別	-11.4721
匹夫	-11.4723
數之	-11.4723
水池	-11.4725
天下無	-11.4726
之以爲	-11.4726
而不自	-11.4728
和光	-11.4729
徹視	-11.4729
各半	-11.473
則止	-11.4735
蔬	-11.4735
亦可以	-11.4736
青色	-11.4737
投於	-11.4737
無爲則	-11.4738
我也	-11.4739
百步	-11.4741
法者	-11.4741
人身中	-11.4742
臣今	-11.4743
貴於	-11.4743
櫛	-11.4744
籬	-11.4744
檻	-11.4745
錐	-11.4745
嫗	-11.4745
碗	-11.4745
洋洋	-11.4745
九天生神	-11.4745
山有	-11.4746
萬物生	-11.4747
今時	-11.475
廉貞	-11.4754
而治	-11.4756
不來	-11.4759
鬼道	-11.476
左目	-11.476
寡欲	-11.4763
浮華	-11.4766
馬之	-11.4768
願垂	-11.4769
▁芎藭	-11.4772
太保	-11.4772
六五	-11.4774
覆護	-11.4775
景雲	-11.4776
六度	-11.4777
黔	-11.4777
玉芝	-11.4777
羽化	-11.4778
嘆曰	-11.478
足躡	-11.4782
不但	-11.4782
中士	-11.4783
塔	-11.4784
叚	-11.4784
愽	-11.4784
熨	-11.4784
章第三十	-11.4785
自矜	-11.4785
和而	-11.4788
主張	-11.4788
自言	-11.4788
之善	-11.4789
未明	-11.479
髙下	-11.479
陞壇	-11.4791
之類也	-11.4792
下䧏	-11.4792
見此	-11.4793
煞文	-11.4793
黙念	-11.4793
羅天	-11.4794
諸君	-11.4796
天下皆	-11.4797
安在	-11.4799
護法	-11.48
曲直	-11.4801
地方	-11.4802
之界	-11.4803
腎中	-11.4804
受化	-11.4805
不降	-11.4805
曰凡	-11.4806
丹華	-11.4808
歘火	-11.481
有間	-11.481
壺中	-11.4811
一章	-11.4814
結爲	-11.4814
體之	-11.4815
鍊氣	-11.4817
上極	-11.4817
曾青	-11.4817
物而不	-11.4818
請福	-11.4818
此中	-11.482
列宿	-11.482
六陰	-11.482
爲某	-11.4823
經世	-11.4823
噬	-11.4823
霈	-11.4823
戹	-11.4823
願賜	-11.4824
不憂	-11.4828
十四年	-11.4828
主簿	-11.4829
上帝勑	-11.4831
行注	-11.4834
祕法	-11.4837
玉局	-11.4837
火池	-11.4837
枯骨	-11.484
其處	-11.484
十八年	-11.4841
佑聖	-11.4841
旣得	-11.4843
媾	-11.4843
誦呪	-11.4846
州刺史	-11.4846
切念	-11.4851
星官	-11.4854
演教	-11.4855
降於	-11.4856
不辭	-11.486
北面	-11.4861
溲	-11.4863
朵	-11.4863
者莫	-11.4863
普救	-11.4865
設教	-11.4865
皇道君	-11.4865
▁右件	-11.4872
水穀	-11.4872
運火	-11.4875
善心	-11.4877
髙真	-11.4877
萬姓	-11.4878
造作	-11.4884
衣裳	-11.4885
房中	-11.4885
以兩手	-11.4889
柰何	-11.489
黄連	-11.4891
正當	-11.4891
上卿	-11.4894
獨活	-11.4897
螫	-11.4897
自今	-11.4897
眞皇	-11.4899
六賊	-11.4899
弑	-11.4902
樽	-11.4902
濇	-11.4902
擘	-11.4902
東斗	-11.4903
玉陛下	-11.4903
未達	-11.4904
清水	-11.4906
悲夫	-11.4907
手持	-11.4907
但有	-11.4908
風俗	-11.4911
八寸	-11.4912
上三天	-11.4913
五更	-11.4914
以昭	-11.4914
欣然	-11.4915
草木之	-11.4916
向北	-11.4916
千百	-11.4917
有光	-11.4918
語曰	-11.4919
漢中	-11.4921
一致	-11.4921
色赤	-11.4922
禁止	-11.4923
詩書	-11.4927
人之生也	-11.4928
順其	-11.4928
君吏	-11.4929
亂也	-11.4933
右手執	-11.4933
三萬	-11.4934
老聃曰	-11.4935
祝畢	-11.4935
反又	-11.4936
龍吟	-11.4936
臨目	-11.4939
不離於	-11.4939
頓悟	-11.494
𥿄	-11.4941
二十三日	-11.4942
安居	-11.4942
▁道法會元	-11.4942
紗	-11.4942
梳	-11.4942
冑	-11.4942
擺	-11.4942
斗極	-11.4943
致雨	-11.4944
謝罪	-11.4944
玉泉	-11.4944
配天	-11.4945
近於	-11.4946
光大	-11.4948
身生	-11.4952
定息	-11.4952
不計	-11.4953
紫晨	-11.4955
也苟	-11.4955
各得其	-11.4955
不除	-11.4956
者卽	-11.4959
為之	-11.4959
修心	-11.4959
不欺	-11.4961
九還	-11.4963
召龍	-11.4963
與日	-11.4963
陽中	-11.4965
不爾	-11.4966
並用	-11.4966
而取	-11.4966
九夜	-11.4967
之任	-11.4967
閉息	-11.4967
幽棲曰	-11.4968
▁其二	-11.4969
復連	-11.4969
莫知所	-11.4969
試之	-11.4971
形氣	-11.4971
制御	-11.4971
惻	-11.4977
妄爲	-11.4978
大怒	-11.4981
蜕	-11.4982
𡖖	-11.4982
混洞	-11.4982
楚王	-11.4984
少而	-11.4984
雞犬	-11.4989
五府	-11.499
▁宣詞	-11.499
乃復	-11.4991
厥隂	-11.4992
頭面	-11.4994
吿下	-11.4995
力行	-11.4997
去聲	-11.4997
深山	-11.4999
眞知	-11.5001
四十三	-11.5005
下鬼	-11.5006
學而	-11.5007
於俗	-11.5008
抱朴子	-11.501
夫何故	-11.5017
傷害	-11.5017
吾師	-11.5019
立壇	-11.502
但知	-11.502
*	-11.5022
数	-11.5022
萍	-11.5022
庥	-11.5022
悚	-11.5022
欝	-11.5022
蚌	-11.5022
陁	-11.5022
厚薄	-11.5023
向東	-11.5023
洞經	-11.5024
禎祥	-11.5025
師云	-11.5027
利濟	-11.503
致其	-11.503
木火	-11.5034
倣	-11.5034
第十三	-11.5035
紀綱	-11.5035
祝融	-11.5037
難矣	-11.5038
消散	-11.5038
仙傳	-11.5038
▁歩虚	-11.5041
出則	-11.5046
忘我	-11.5049
▁鳴法鼓二十四通	-11.5051
合符	-11.5051
者亡	-11.5052
愛河	-11.5052
以天下	-11.5052
以表	-11.5053
地道	-11.5054
大天王	-11.5057
坡	-11.5058
執著	-11.5058
察察	-11.5058
精心	-11.5059
入火	-11.5061
總是	-11.5061
狩	-11.5062
耿	-11.5062
愿	-11.5063
謐	-11.5063
異類	-11.5063
章第四	-11.5064
助之	-11.5068
氣海	-11.507
爲仁	-11.507
居處	-11.507
立秋	-11.507
然哉	-11.5073
地紀	-11.5073
合景	-11.5074
勝之	-11.5078
端的	-11.5078
香煙	-11.508
仙去	-11.508
司命君	-11.5081
五月五日	-11.5081
藏府	-11.5082
心念	-11.5082
不可輕	-11.5083
依舊	-11.5087
日以	-11.5087
自可	-11.5088
一拜	-11.509
▁甲子	-11.5091
陽之炁	-11.5094
水一	-11.5098
妄行	-11.5101
匕	-11.5103
𢹂	-11.5103
金符	-11.5104
懈怠	-11.5107
知覺	-11.5108
室内	-11.5108
開口	-11.511
投之	-11.511
萬重	-11.5113
既而	-11.5113
記之	-11.5113
腰帶	-11.5114
上告	-11.5114
何等	-11.5115
採之	-11.5115
時告下	-11.5117
大笑	-11.5118
太倉	-11.5119
多事	-11.5119
必欲	-11.5119
深遠	-11.5121
以取	-11.5121
而民自	-11.5124
傳經	-11.5124
不處	-11.5127
當自	-11.5128
爲福	-11.5128
生神章	-11.5128
而居	-11.5128
畢竟	-11.5129
三度	-11.513
耳若	-11.5131
色青	-11.5132
己者	-11.5135
元靈	-11.5136
戰勝	-11.5136
聖天尊	-11.5137
月一日	-11.5138
五湖	-11.5138
謂之道	-11.5138
道友	-11.5139
經寳	-11.5139
巨門	-11.514
前章	-11.514
若遇	-11.5142
玉室	-11.5143
癥	-11.5144
▁靈寳領教濟度金書	-11.5144
佯	-11.5144
旄	-11.5144
瘞	-11.5144
藿	-11.5144
崆峒	-11.5144
巓	-11.5144
皆成	-11.5145
自作	-11.5145
志在	-11.5146
赦宥	-11.5147
仙卿	-11.5147
三淸	-11.5149
功圓	-11.5149
自後	-11.515
如火	-11.5153
宅舍	-11.5153
步步	-11.5154
世所	-11.5156
恩愛	-11.5157
結氣	-11.5159
太上之	-11.5159
中分	-11.5159
由人	-11.516
九醜	-11.516
行乎	-11.5162
火氣	-11.5163
受此	-11.5164
陽極	-11.5166
春風	-11.5169
放下	-11.5169
斯道	-11.5169
務在	-11.517
鼓琴	-11.517
研細	-11.5171
而得之	-11.5171
遑	-11.5174
當願	-11.5176
外有	-11.5176
相從	-11.5178
居士	-11.5179
山海	-11.518
交泰	-11.5181
千變萬化	-11.5185
遘	-11.5185
隕	-11.5185
解之	-11.5185
麒麟	-11.5185
不怠	-11.5185
化氣	-11.5186
西靈	-11.5188
巳身	-11.5189
▁〇	-11.519
者易	-11.519
師道	-11.5191
腹内	-11.5191
純陰	-11.5193
外丹	-11.5194
養育	-11.5196
爲無爲	-11.5197
並無	-11.5198
葉似	-11.52
發爐	-11.5203
宣化	-11.5205
中篇	-11.5206
病病	-11.5208
内守	-11.5209
之法也	-11.521
立冬	-11.521
所以不	-11.5211
毒藥	-11.5212
渾然	-11.5214
不忠	-11.5215
則身	-11.5215
巳午	-11.5216
金丹之	-11.5219
委曲	-11.5219
道生一	-11.5224
綜	-11.5225
訝	-11.5226
君父	-11.5226
相繼	-11.5227
▁臣聞	-11.5227
利人	-11.5229
受戒	-11.5232
隨吾	-11.5232
玄恩	-11.5234
物理	-11.5234
相續	-11.5234
大喜	-11.5238
其音	-11.5239
祀典	-11.5239
流於	-11.524
聖道	-11.524
難遇	-11.5243
學道之士	-11.5244
半日	-11.5246
不知所以	-11.5246
紙上	-11.5247
英雄	-11.5248
十善	-11.5249
視之不見	-11.5249
符文	-11.5251
極而	-11.5252
召請	-11.5253
者吾	-11.5255
上下相	-11.5258
佩帶	-11.5262
井中	-11.5263
綽	-11.5265
帝座	-11.5265
无所不	-11.5266
剝	-11.5267
笠	-11.5267
膩	-11.5267
鉅	-11.5267
匙	-11.5267
蟹	-11.5267
▁右出洞真	-11.5267
臣妾	-11.5268
古文	-11.5269
皆如	-11.5271
置於	-11.5271
雲臺	-11.5272
不能知	-11.5273
法橋	-11.5275
而勿	-11.5277
本身	-11.5279
萬氣	-11.528
又爲	-11.5281
▁東曰	-11.5282
表奏	-11.5282
道德天尊	-11.5283
鬼門	-11.5283
天章	-11.5284
者因	-11.5285
之良	-11.5286
監察	-11.529
響應	-11.529
雖多	-11.5293
下氣	-11.5293
不淨	-11.5293
聞吾	-11.5294
而變	-11.5296
年月日	-11.5296
天寶	-11.5298
中黃	-11.5298
三蟲	-11.53
品物	-11.5301
▁十六	-11.5302
法用	-11.5304
大使	-11.5307
蚊	-11.5308
鳶	-11.5308
属	-11.5308
雲輿	-11.5309
荆棘	-11.5309
鬼兵	-11.531
麝香	-11.5311
有道之士	-11.5312
列仙	-11.5312
丸如	-11.5312
帝勑	-11.5315
承誥奉行	-11.5318
虔誠	-11.532
此地	-11.5321
此處	-11.5323
堯夫	-11.5323
雞鳴	-11.5323
一理	-11.5328
形色	-11.5328
▁大悲大	-11.533
人共	-11.533
而不用	-11.533
之吉	-11.5331
洗滌	-11.5332
也然而	-11.5332
中品	-11.5332
無意	-11.5333
啓請	-11.5333
爲病	-11.5335
往而	-11.5337
合爲	-11.5338
冥心	-11.5339
欻火	-11.534
全也	-11.534
大洞經	-11.5345
封之	-11.5346
荆州	-11.5347
糾	-11.5348
蹻	-11.5349
襌	-11.535
羨	-11.535
瑛	-11.535
踴躍	-11.535
内名	-11.5352
包含	-11.5353
朝天	-11.5356
復位	-11.5357
洛書	-11.5357
於東	-11.5357
慈光	-11.5358
▁東嶽	-11.5359
皇夫人	-11.5361
森羅	-11.5361
發遣	-11.5361
▁白术	-11.5365
紫書	-11.5366
王道	-11.5371
神識	-11.5372
方其	-11.5373
召呪	-11.5374
形象	-11.5375
九老	-11.5376
赤城	-11.5376
逐一	-11.5377
則天地	-11.5377
或問	-11.5378
腎水	-11.5379
三毒	-11.538
得神仙	-11.5381
當於	-11.5382
大真君	-11.5383
枯木	-11.5384
帝時	-11.5385
鍊成	-11.5387
焚修	-11.539
長壽	-11.5391
猫	-11.5391
敘	-11.5391
涇	-11.5391
瘳	-11.5391
動止	-11.5393
立成	-11.5394
乃命	-11.5394
其利	-11.5394
本自	-11.5395
稱之	-11.5396
煥爛	-11.5397
兵强	-11.5398
難成	-11.5399
君字	-11.5401
曰今	-11.5403
二句	-11.5403
太靈	-11.5403
龍章	-11.5403
淳樸	-11.5407
爲美	-11.5407
年年	-11.5408
乃生	-11.5409
列於	-11.5409
衣食自然	-11.5409
有善	-11.5411
无咎	-11.5412
故當	-11.5412
升壇	-11.5413
丹青	-11.5416
在其	-11.5417
億萬人	-11.5417
於子	-11.5419
發心	-11.5419
人皇	-11.5422
讃詠	-11.5422
打破	-11.5423
不守	-11.5423
符中	-11.5424
認得	-11.5425
胎生	-11.5425
修學	-11.5425
容貌	-11.5427
利之	-11.5427
妄語	-11.5427
降福	-11.5428
中孚	-11.5428
脫胎	-11.5429
炁一口	-11.5431
玉司	-11.5433
炫	-11.5433
訂	-11.5433
鑚	-11.5433
汩	-11.5433
顓頊	-11.5433
調理	-11.5435
罪愆	-11.5435
明者	-11.5436
方無極太上靈寳天尊	-11.5436
方士	-11.5438
受符	-11.5438
大盜	-11.5439
法王	-11.5441
住持	-11.5444
在左	-11.5444
損人	-11.5446
伏聞	-11.5446
死則	-11.5447
有益	-11.5448
纂微	-11.5449
復性	-11.5453
師子	-11.5456
諸方	-11.5456
旣濟	-11.5457
日益	-11.546
施於	-11.5465
心法	-11.5466
是曰	-11.5467
吞服	-11.5469
此數	-11.547
空青	-11.547
在吾	-11.547
更不	-11.5471
三眞	-11.5471
評	-11.5471
爲難	-11.5472
滯於	-11.5472
具奏	-11.5473
居上	-11.5474
捍	-11.5474
曼	-11.5475
浣	-11.5475
咀	-11.5475
刄	-11.5475
糜	-11.5475
炮	-11.5475
葦	-11.5475
土爲	-11.5475
乎若	-11.5477
亦須	-11.5478
勝於	-11.5478
無患	-11.5478
萬億	-11.5479
修齋行道	-11.548
之丹	-11.5481
窮極	-11.5482
以御	-11.5483
乎人	-11.5483
延夀	-11.5483
宰相	-11.5487
肝氣	-11.5488
之别	-11.5488
未敢	-11.5489
脾胃	-11.5489
教門	-11.5489
故令	-11.549
不能得	-11.5491
玉女名	-11.5491
勝負	-11.5491
辟邪	-11.5492
太明	-11.5493
無光	-11.5496
三省	-11.5496
朝儀	-11.5497
直事	-11.5499
小子	-11.55
三靈	-11.55
尚有	-11.55
眞境	-11.5502
愛民	-11.5503
催生	-11.5503
玄元始	-11.5505
▁具位姓某	-11.5505
卦之	-11.5506
含眞	-11.5512
難窮	-11.5513
貞吉	-11.5514
居下	-11.5514
恃其	-11.5514
置之	-11.5514
於德	-11.5516
驥	-11.5517
擕	-11.5517
堤	-11.5517
墀	-11.5517
粧	-11.5517
處世	-11.5518
杳杳	-11.552
修善	-11.5522
須得	-11.5523
十轉	-11.5524
未兆	-11.5526
進拜	-11.5527
聚散	-11.5528
即與	-11.553
矣且	-11.553
乗空	-11.553
胃氣	-11.553
一十八	-11.553
窮通	-11.5531
王氏	-11.5532
深淺	-11.5533
位而	-11.5533
度量	-11.5535
大君	-11.5538
來朝	-11.5539
比若	-11.554
長三寸	-11.554
家庭	-11.5541
惑於	-11.5544
浮生	-11.5545
證道	-11.5551
人若	-11.5551
人命	-11.5552
九分	-11.5553
山神	-11.5554
超出	-11.5556
得免	-11.5556
自滅	-11.5557
帝晨	-11.5557
一團	-11.5558
可不愼	-11.5559
嵐	-11.556
癩	-11.556
仆	-11.556
爨	-11.556
牡蠣	-11.556
佩身	-11.556
應運	-11.5563
本體	-11.5564
隨物	-11.5566
則無所	-11.5567
玄明	-11.557
也至於	-11.5571
三十九章	-11.5571
厚朴	-11.5572
老者	-11.5572
五篇	-11.5576
太史	-11.5577
化炁	-11.5579
不獨	-11.558
善勝	-11.558
而相	-11.5582
色黄	-11.5582
及於	-11.5583
其變	-11.5584
延康	-11.5584
不瘥	-11.5585
皆能	-11.5585
重者	-11.5585
象也	-11.5587
者若	-11.5588
章句	-11.5591
衛護	-11.5593
三島	-11.5594
服色	-11.5597
海水	-11.5597
第十四	-11.5597
獨有	-11.5598
廣寒	-11.5599
至人之	-11.5599
伏尸	-11.5601
霹	-11.5602
精勤	-11.5603
一面	-11.5603
萬善	-11.5603
乾乾	-11.5605
九章	-11.5606
先有	-11.5607
化機	-11.5607
四尺	-11.5608
日入	-11.5608
投簡	-11.5608
黄房	-11.5611
經言	-11.5611
絶滅	-11.5611
桃康	-11.5612
長也	-11.5613
之妙用	-11.5613
心常	-11.5614
青牛	-11.5614
安心	-11.5616
了然	-11.5616
與子	-11.5618
萬物而不	-11.5619
天運	-11.562
不惟	-11.5621
章表	-11.5625
善能	-11.5626
八九	-11.5627
九丹	-11.5627
寒温	-11.5628
急急奉	-11.5628
謂我	-11.5629
言教	-11.5629
磁	-11.563
所傷	-11.5631
無虧	-11.5631
合明	-11.5633
一吸	-11.5634
何足以	-11.5634
百餘年	-11.5638
肢體	-11.5639
宫闕	-11.5642
方平	-11.5643
彖	-11.5643
人臣	-11.5643
百體	-11.5644
亡其	-11.5644
不亡	-11.5644
戕	-11.5645
乂	-11.5645
棊	-11.5645
鴨	-11.5645
戯	-11.5645
闚	-11.5645
者但	-11.5646
瓊林	-11.5647
水調	-11.5648
渝	-11.5649
當是	-11.565
純一	-11.5651
持齋	-11.5651
亦不得	-11.5652
虚極	-11.5654
无極无量品	-11.5656
北斗七星	-11.5656
夫聖人	-11.5656
遂至	-11.5658
任物	-11.5659
之殊	-11.5659
生時	-11.5662
十尺	-11.5662
簡易	-11.5663
耳夫	-11.5664
每一	-11.5664
玄曹	-11.5664
利也	-11.5664
醮儀	-11.5664
群品	-11.5667
除去	-11.5668
神燈	-11.5669
翊聖	-11.5669
丹道	-11.5671
云是	-11.5672
紫虛	-11.5673
能見	-11.5673
飛度	-11.5674
紅光	-11.5674
再服	-11.5674
閬	-11.5675
之典	-11.5675
面有	-11.5675
中原	-11.5679
其應	-11.5679
一輪	-11.5679
大水	-11.5681
真氣	-11.5681
之功也	-11.5684
而難	-11.5686
分三	-11.5687
蝶	-11.5687
印印	-11.5687
皆令	-11.5688
棋	-11.5688
滚	-11.5688
籖	-11.5688
銚	-11.5688
它	-11.5688
漲	-11.5688
綂	-11.5688
汴	-11.5688
畿	-11.5688
剡	-11.5688
惠施	-11.5689
其化	-11.5692
恁	-11.5693
嬰孩	-11.5693
水火之	-11.5693
日宫	-11.5693
帝主	-11.5695
無病	-11.5696
洞門	-11.5697
齋事	-11.57
氣逆	-11.5701
妖邪	-11.5703
不知其所	-11.5703
道功曹	-11.5703
施用	-11.5703
以善	-11.5705
七十四	-11.5705
爲器	-11.5705
艱難	-11.5705
其智	-11.5708
九千	-11.5709
監度	-11.5711
三聖	-11.5714
源流	-11.5715
而後可	-11.5717
白礬	-11.5717
氣散	-11.5718
面上	-11.5719
入妙	-11.5719
春三月	-11.572
此章明	-11.5721
義者	-11.5721
子弟	-11.5723
七寸	-11.5725
依按	-11.5726
上中下	-11.5726
禳災	-11.5726
煎取	-11.5727
欲爲	-11.5728
吾子	-11.5728
道門	-11.5729
棠	-11.5729
有識	-11.573
深重	-11.573
捫	-11.5731
悴	-11.5731
敞	-11.5731
迕	-11.5731
盼	-11.5731
腕	-11.5731
菽	-11.5731
▁御註曰	-11.5732
光中	-11.5735
師曠	-11.5736
大方	-11.5739
通乎	-11.5739
疑其	-11.574
孫子	-11.574
成金	-11.5742
玄經	-11.5742
三清上聖	-11.5743
眞司	-11.5744
五官	-11.5744
守護	-11.5744
今夫	-11.5745
已下	-11.5746
能致	-11.5747
萬殊	-11.5749
是用	-11.5751
不終	-11.5752
猶存	-11.5752
不曉	-11.5753
河水	-11.5754
郡縣	-11.5755
否泰	-11.5755
耳故	-11.5757
此說	-11.5758
固守	-11.5759
凡情	-11.5759
則我	-11.576
砂汞	-11.576
執符	-11.576
明燈	-11.5762
長子	-11.5763
成寳	-11.5764
者必有	-11.5764
内藥	-11.5768
見存	-11.5769
五岳	-11.5769
同人	-11.577
昇降	-11.5773
祁	-11.5774
▁南華經曰	-11.5774
明照	-11.5775
執之	-11.5775
臭腐	-11.5776
定志	-11.5776
禍亂	-11.5777
傷亡	-11.5779
迄	-11.5779
惠澤	-11.5779
回光	-11.5784
哉此	-11.5785
長保	-11.5785
也豈	-11.5788
黄芩	-11.5788
甚則	-11.579
惡道	-11.5791
反本	-11.5792
目之	-11.5793
我道	-11.5794
先於	-11.5794
水運	-11.5795
及乎	-11.5797
免於	-11.5797
聽其	-11.5798
死入	-11.5798
經者	-11.5798
六律	-11.5801
潦	-11.5802
精氣神	-11.5806
耳聞	-11.5806
即今	-11.5809
之秘	-11.5809
分布	-11.5809
赤松子	-11.581
辛苦	-11.581
(/○○○	-11.5811
復其	-11.5812
即位	-11.5813
物之所	-11.5814
彼岸	-11.5816
之大者	-11.5817
哆	-11.5818
澁	-11.5818
彬	-11.5818
涣	-11.5818
颺	-11.5818
飭	-11.5818
饋	-11.5818
拓	-11.5818
善治	-11.5818
吟詠	-11.5818
血食	-11.582
頓服	-11.582
鼻口	-11.582
玉京山	-11.582
提携	-11.5822
輕清	-11.5823
其猶	-11.5823
忘情	-11.5823
斯乃	-11.5824
泰定	-11.5827
道貴	-11.5827
又當	-11.5829
謹召	-11.583
瑶臺	-11.5831
鈔	-11.5834
眞金	-11.5835
濟人	-11.5835
▁若見	-11.5838
道之所	-11.5839
久服	-11.5841
以物	-11.5842
人雖	-11.5845
四十年	-11.5846
北府	-11.5846
心之所	-11.5846
解散	-11.5847
歸本	-11.5848
全生	-11.5848
奏狀	-11.5849
聖功	-11.5851
之精也	-11.5852
香燈	-11.5852
爲細末	-11.5854
普照	-11.5855
之主也	-11.5859
漢書	-11.586
常能	-11.5861
絮	-11.5861
泮	-11.5861
楹	-11.5861
瘁	-11.5861
消長	-11.5862
夫子之	-11.5862
以付	-11.5863
丈餘	-11.5863
非道也	-11.5863
黑炁	-11.5863
火急奉行	-11.5864
慳貪	-11.5864
天靈	-11.5865
不妨	-11.5865
自消	-11.5866
十二河源	-11.5866
嚥液	-11.5867
向外	-11.5867
按之	-11.587
爲人所	-11.5871
不經	-11.5871
不滿	-11.5872
元眞	-11.5873
兼愛	-11.5873
上表	-11.5875
昔日	-11.5875
奪其	-11.5875
丹訣	-11.5876
三惡	-11.5876
升度	-11.5878
不捨	-11.588
五石	-11.588
無門	-11.5882
觸犯	-11.5883
元父	-11.5883
否則	-11.5884
考官	-11.5885
惟恐	-11.5885
陽九	-11.5889
數里	-11.5891
之念	-11.5891
▁液	-11.5892
養火	-11.5896
出没	-11.5897
訣云	-11.5897
不知道	-11.5899
永劫	-11.5899
朗然	-11.5899
則成	-11.59
有得	-11.59
同其	-11.5901
▁頌曰	-11.5901
小過	-11.5905
五濁	-11.5905
旙	-11.5905
衲	-11.5905
溺於	-11.5906
聞是	-11.5907
次思	-11.5908
出現	-11.5908
則形	-11.5909
戌亥	-11.5912
立夏	-11.5913
心氣	-11.5913
咽止	-11.5914
▁尺	-11.5918
示之	-11.5919
謹依	-11.5921
仰惟	-11.5922
毫髮	-11.5923
二象	-11.5923
超凌	-11.5925
昏昏	-11.5928
則不可	-11.593
期於	-11.5932
無形無	-11.5935
氣入	-11.5935
二陽	-11.5936
如何是	-11.5939
貴其	-11.5942
以事	-11.5943
道藏	-11.5943
孝道	-11.5944
也猶	-11.5944
义	-11.5945
末世	-11.5945
下德	-11.5947
迪	-11.5947
肺氣	-11.5948
亦在	-11.5949
姪	-11.5949
寮	-11.5949
駡	-11.5949
有是	-11.595
吴茱萸	-11.595
梵天	-11.5951
五里	-11.5952
何氏曰	-11.5952
皮毛	-11.5953
修養	-11.5954
名於	-11.5956
沌	-11.5956
至言	-11.5957
左旋	-11.5957
無體	-11.5957
曰然則	-11.5958
自悟	-11.5963
符圖	-11.5963
諸眞	-11.5964
天獄	-11.5964
祭之	-11.5966
造物者	-11.5967
其過	-11.5968
久視	-11.5969
靜中	-11.5971
吉慶	-11.5976
駕龍	-11.5977
若水	-11.5978
亡國	-11.5979
無名者	-11.598
進道	-11.598
本源	-11.598
伯夷	-11.5982
瓊輪	-11.5982
二十四氣	-11.5984
朝拜	-11.5985
八道	-11.5985
而趨	-11.5985
今將	-11.5986
仍乞	-11.5988
瞬	-11.5989
而遊	-11.599
若存	-11.5993
檜	-11.5994
幃	-11.5994
秃	-11.5994
嬪	-11.5994
睽	-11.5994
周而復始	-11.5994
優劣	-11.5994
紫皇	-11.5996
又恐	-11.5996
以類	-11.5997
以報	-11.5997
含生	-11.5998
乘之	-11.5998
九三	-11.5999
故次之以	-11.6
十數	-11.6
眞訣	-11.6002
承符	-11.6005
說此	-11.6006
十八日	-11.6006
入符中	-11.6007
故君子	-11.6007
▁是以聖人	-11.6007
宻呪	-11.6007
隂氣	-11.6008
學之士	-11.6009
可憐	-11.6009
擾擾	-11.6012
林泉	-11.6015
安坐	-11.6016
良因	-11.6016
長養	-11.6017
吾當	-11.6018
常樂	-11.602
雲龍	-11.6021
一顆	-11.6022
南宮	-11.6024
爲仙	-11.6024
即成	-11.6026
南方火	-11.6027
初六	-11.6027
資於	-11.6029
得矣	-11.603
餌之	-11.603
焉得	-11.6031
所造	-11.6031
從其	-11.6033
猶可	-11.6034
鱉	-11.6036
蓊	-11.6037
不可知	-11.6037
瘴	-11.6038
帽	-11.6038
黯	-11.6038
阨	-11.6038
惺惺	-11.6038
有縁	-11.604
即使	-11.6041
是乃	-11.6041
斬之	-11.6041
紫微上宫	-11.6041
等事	-11.6042
旣有	-11.6042
罪過	-11.6043
故可	-11.6043
仗劒	-11.6044
廓然	-11.6045
十二辰	-11.6045
三物	-11.6046
三茅	-11.6046
於人也	-11.6047
大洞眞經	-11.605
依時	-11.6051
與天地同	-11.6058
太極之	-11.6058
仁慈	-11.6061
隱語	-11.6062
開闔	-11.6063
紫元	-11.6063
蒼龍	-11.6064
焉有	-11.6064
之妙也	-11.6066
一見	-11.6068
徑御	-11.6068
合體	-11.6071
五榖	-11.6072
實者	-11.6074
昭報	-11.6074
以生爲	-11.6075
凑	-11.6075
甚於	-11.6076
爲道者	-11.6077
無明	-11.6077
不落	-11.6077
少氣	-11.6078
謹重誠上啓	-11.6079
能通	-11.6079
重濁	-11.608
隍	-11.608
溜	-11.6083
粤	-11.6083
軒冕	-11.6084
之望	-11.6084
▁莊子	-11.6085
待時	-11.6085
之高	-11.6086
斬妖	-11.6087
飛捷	-11.6087
將至	-11.6088
與時	-11.6088
焉則	-11.6092
心上	-11.6092
故號	-11.6094
疥	-11.6094
紫宸	-11.6096
牡丹	-11.6098
以身爲	-11.6099
入鼎	-11.6099
埋之	-11.61
能治	-11.6101
澤及	-11.6102
超凡	-11.6103
擁護	-11.6104
甚易	-11.6104
甲子日	-11.6104
此六	-11.6104
災殃	-11.6105
充塞	-11.6108
行用	-11.6109
會得	-11.611
勞苦	-11.6114
无色	-11.6116
祭鍊	-11.6117
主帥	-11.6118
深入	-11.6118
數足	-11.6118
無足	-11.6119
神遊	-11.6119
對化	-11.612
好學	-11.612
引至	-11.612
主將	-11.6121
實無	-11.6122
不知有	-11.6122
去後	-11.6123
陰陽相	-11.6124
不足者	-11.6124
天下太平	-11.6126
奏事	-11.6127
吻	-11.6127
樗	-11.6127
軰	-11.6127
巻	-11.6127
辤	-11.6127
開皇	-11.6129
似有	-11.6132
監臨	-11.6132
勤勞	-11.6132
可行	-11.6133
本行	-11.6135
矣是	-11.6138
皆屬	-11.6138
危亡	-11.6139
作善	-11.6139
无英	-11.6144
極其	-11.6145
累劫	-11.6145
兩句	-11.6145
樹木	-11.6146
法音	-11.6147
宿世	-11.6147
而形	-11.6147
微而	-11.6148
妄傳	-11.6149
絶學	-11.615
生我	-11.615
非所以	-11.6151
自覺	-11.6152
拔出	-11.6152
不克	-11.6153
于今	-11.6155
衆人之	-11.6156
可致	-11.6161
主領	-11.6162
自失	-11.6162
利者	-11.6165
設位	-11.6167
不可得也	-11.6168
弗知	-11.6169
兮若	-11.6171
哭泣	-11.6171
四十一	-11.6172
臆	-11.6172
金烏	-11.6172
卉	-11.6172
呴	-11.6172
凄	-11.6173
懋	-11.6173
椀	-11.6173
楓	-11.6173
瓮	-11.6173
矣是以	-11.6173
▁丸	-11.6175
腠理	-11.6176
麻姑	-11.6176
有天下	-11.6176
曰吾聞	-11.6176
道常	-11.6176
無一物	-11.6177
非但	-11.6177
陶鑄	-11.6177
青詞	-11.6177
銅柱	-11.6178
四夷	-11.6179
地水	-11.618
明德	-11.618
卷一之	-11.6181
者也夫	-11.6182
者方	-11.6183
▁賛曰	-11.6183
寳藏	-11.6185
柰	-11.6186
無咎	-11.6187
時當	-11.6188
曰朕	-11.6191
幽䰟	-11.6193
根基	-11.6195
之館	-11.6198
▁混元	-11.62
貧富	-11.6201
九真	-11.6201
三九	-11.6204
於今	-11.6205
也以其	-11.6205
得所	-11.6205
散華	-11.6206
而今	-11.6207
星主	-11.6209
无復	-11.621
知是	-11.621
今子	-11.621
不可言	-11.6213
事君	-11.6214
以俟	-11.6215
胡麻	-11.6217
塜	-11.6217
成云	-11.6217
泉源	-11.6217
釡	-11.6218
儛	-11.6218
刖	-11.6218
燮	-11.6218
𢘆	-11.6218
噐	-11.6218
揲	-11.6218
旂	-11.6218
湮	-11.6218
魓	-11.6218
漚	-11.6218
嬴	-11.6218
牝牡	-11.6219
南昌上宫	-11.6219
前程	-11.6219
蕩穢	-11.6221
湧泉	-11.6224
蓮華	-11.6226
稱爲	-11.6226
十三年	-11.6229
千千	-11.6229
精修	-11.6231
易行	-11.6232
三乘	-11.6233
離苦	-11.6236
可言	-11.6237
不具	-11.6238
開目	-11.6238
善縁	-11.624
動者	-11.6241
諸苦	-11.6243
令行	-11.6243
化而爲	-11.6243
深處	-11.6244
或因	-11.6246
曾不	-11.6247
畢引	-11.6248
一枝	-11.6251
玄理	-11.6252
譽之	-11.6253
爲母	-11.6254
唐虞	-11.6255
不可與	-11.6255
送迎	-11.6257
而不言	-11.6257
教令	-11.6258
受之於	-11.6258
啓白	-11.6259
也雖然	-11.6259
癲	-11.626
指示	-11.6262
逺近	-11.6262
三十里	-11.6263
晷	-11.6263
呢	-11.6263
猥	-11.6263
汲汲	-11.6264
止之	-11.6264
衰老	-11.6265
變動	-11.6266
夜行	-11.6267
雖異	-11.6268
曰何	-11.6269
塗炭	-11.6269
狀若	-11.627
如雞子	-11.6271
左右手	-11.6272
鍾乳	-11.6272
宫府	-11.6274
一百二十人	-11.6274
猶在	-11.6274
千秋	-11.6276
奉天	-11.6276
下血	-11.6277
宗親	-11.6278
松栢	-11.628
論語	-11.628
同此	-11.628
聖人所以	-11.6283
圓象	-11.6283
五兵	-11.6283
岱宗	-11.6283
而降	-11.6284
腎爲	-11.6284
百千萬	-11.6284
謙下	-11.6286
士之	-11.6288
錦衣	-11.6289
美也	-11.6291
領兵	-11.6292
開圖	-11.6293
勇猛	-11.6293
和釋	-11.6294
火養	-11.6295
子能	-11.6297
行於世	-11.6299
玉真	-11.6299
求乞	-11.6301
性命之情	-11.6301
道中	-11.6302
三次	-11.6302
則無以	-11.6304
▁聖㫖	-11.6305
虧盈	-11.6307
百人	-11.6307
睢	-11.6309
▁碧虚子陳景元曰	-11.6309
麴	-11.6309
揀	-11.6309
缸	-11.6309
▁碧虚註	-11.6309
日三服	-11.6309
誅之	-11.631
學道之人	-11.631
吾所以	-11.6311
秋月	-11.6312
如左	-11.6314
唵吽	-11.6316
▁下之	-11.6317
眞光	-11.6317
律令勑	-11.6319
三官九府	-11.632
違者	-11.6321
主司	-11.6323
無此	-11.6325
遵依	-11.6326
由來	-11.6326
神州	-11.6327
經戒	-11.6328
起雷	-11.6328
聞此	-11.6329
中下	-11.6329
夜夢	-11.6331
掌中	-11.6333
謂此	-11.6333
二十七日	-11.6333
固非	-11.6333
益州	-11.6334
其徒	-11.6334
十枚	-11.6335
陰陰	-11.6336
四氣	-11.6337
立法	-11.6337
者由	-11.6337
過止	-11.6337
之雲	-11.6339
變而爲	-11.634
坤之	-11.6341
然後可以	-11.6341
載之	-11.6342
道學	-11.6342
無影	-11.6342
戊巳	-11.6342
順物	-11.6342
未甞	-11.6343
法主	-11.6343
汞鉛	-11.6344
龍文	-11.6345
不伏	-11.6347
召魂	-11.6348
登高	-11.6348
群魔	-11.6348
則多	-11.6349
非徒	-11.6349
初一	-11.635
五千文	-11.635
一盞	-11.6352
至元	-11.6352
星宫	-11.6354
詹	-11.6355
叩齒三十六通	-11.6355
壼	-11.6355
衿	-11.6355
袐	-11.6355
閤	-11.6355
羊角	-11.6356
俄頃	-11.6356
玄文	-11.6357
億萬衆	-11.6359
仰視	-11.6359
之陰	-11.636
寸口	-11.6362
難爲	-11.6364
受報	-11.6365
於南	-11.6365
其末	-11.6365
洪水	-11.6365
一十六	-11.6367
崑崙山	-11.6368
應干	-11.6369
流芳	-11.6369
義曰	-11.637
七百年	-11.6373
事意	-11.6378
父毋	-11.6378
名譽	-11.6379
心性	-11.638
不矜	-11.638
言行	-11.6381
▁證盟	-11.6381
而已故	-11.6385
正理	-11.6385
天下而	-11.6387
神機	-11.6387
離於	-11.6388
而食	-11.6389
家門	-11.639
之兆	-11.6391
消渴	-11.6392
二十八日	-11.6392
悟眞篇	-11.6393
水氣	-11.6393
乆而	-11.6394
有國	-11.6394
四直	-11.6394
江東	-11.6394
▁金闕	-11.6395
人謂之	-11.6395
元化	-11.6395
立言	-11.6398
黄紙	-11.6398
空腹	-11.6398
帝子	-11.6398
其㫖	-11.6399
靴	-11.64
恩惟	-11.64
僂	-11.6401
彘	-11.6401
皁	-11.6401
紊	-11.6401
謟	-11.6401
稜	-11.6401
罐	-11.6401
韭	-11.6401
五臟六腑	-11.6402
雷祖	-11.6404
回頭	-11.6404
人之情	-11.6405
▁靈寳通玄弘教水南先生林靈眞	-11.6405
雲房	-11.6406
▁半夏	-11.6406
寂寥	-11.6407
▁讚	-11.6408
案主者	-11.641
瓊漿	-11.6411
一等	-11.6412
自歸	-11.6412
勸人	-11.6415
神道	-11.6418
元景	-11.6419
悉令	-11.6419
河南	-11.6419
得其所	-11.6422
八荒	-11.6425
敗之	-11.6425
所修	-11.6428
窈	-11.6429
義理	-11.6429
以備	-11.643
難易	-11.643
泥丸宫	-11.6431
一時之	-11.6432
六極	-11.6433
等身中	-11.6433
交相	-11.6434
▁物之	-11.6434
莫敢	-11.6435
甚者	-11.6436
二指	-11.6438
莫大	-11.6438
小則	-11.6438
海嶽	-11.6439
煞炁	-11.644
大都	-11.6442
尚賢	-11.6444
六龍	-11.6445
金運	-11.6446
分位	-11.6447
吃	-11.6447
撻	-11.6447
聮	-11.6447
蘖	-11.6447
▁吕註	-11.6448
石壁	-11.6448
霄漢	-11.6451
月日	-11.6452
物情	-11.6452
文侯	-11.6454
亦如之	-11.6455
聲也	-11.6456
誦此經	-11.6457
與道合真	-11.6457
□(	-11.6458
上祝	-11.6459
相推	-11.646
八者	-11.6463
不收	-11.6463
智力	-11.6463
獨行	-11.6468
同出	-11.647
中藏	-11.647
北隂	-11.6472
與天同	-11.6472
琳琅	-11.6473
發泄	-11.6475
加封	-11.6477
六字	-11.6477
是亦	-11.6478
意者	-11.6478
鎭星	-11.6479
崔云	-11.648
獲罪	-11.648
今月	-11.648
非獨	-11.6481
元初	-11.6482
龍駕	-11.6482
永樂	-11.6483
虎龍	-11.6484
深淵	-11.6484
前世	-11.6485
九聲	-11.6485
謄	-11.6486
此義	-11.6489
飄風	-11.6491
溉	-11.6492
乾卦	-11.6492
冬夏	-11.6493
娛	-11.6494
掉	-11.6494
醯	-11.6494
潄	-11.6494
上陽子曰	-11.6494
記曰	-11.6497
若要	-11.6498
爲眞人	-11.6499
二百四十	-11.65
風生	-11.6501
苦魂	-11.6501
吐氣	-11.6502
金砂	-11.6504
平叔	-11.6505
降魔	-11.6505
三百日	-11.6507
子綦	-11.6507
受煉	-11.6508
書於	-11.6508
而亡	-11.6509
運氣	-11.6511
▁勑呪	-11.6512
羣魔	-11.6514
駕景	-11.6517
至柔	-11.6517
布衣	-11.6517
一段	-11.6518
也人能	-11.6519
解悟	-11.6519
伏爲	-11.652
次用	-11.652
玄教	-11.652
俗學	-11.652
衆多	-11.6521
許多	-11.6522
清涼	-11.6522
▁又法	-11.6524
良醫	-11.6524
金瘡	-11.6524
召靈	-11.6526
地分	-11.6528
而益	-11.6529
有毒	-11.6529
千二百人	-11.653
形名	-11.653
一過	-11.6532
邪淫	-11.6534
洞賔	-11.6535
在右	-11.6536
合子	-11.6536
九宸	-11.6536
爲徒	-11.6537
得水	-11.6538
至微	-11.6538
乙未	-11.6538
▁太微	-11.6539
娑	-11.6539
鹵	-11.654
桎梏	-11.654
漉	-11.654
窅	-11.654
窠	-11.654
閽	-11.654
㤗	-11.654
說戒	-11.6541
不同而	-11.6541
猖狂	-11.6541
超凡入聖	-11.6541
木星	-11.6542
全在	-11.6543
其類	-11.6544
以法	-11.6545
輕死	-11.6547
見諸	-11.6549
篇目	-11.6549
白書	-11.6551
壇上	-11.6552
天地之大	-11.6552
爲奇	-11.6553
之極也	-11.6554
用功	-11.6555
流血	-11.6555
嶽府	-11.6557
者聖人	-11.6557
能盡	-11.6558
人之生	-11.6562
小指	-11.6562
故常	-11.6563
右目	-11.6565
利名	-11.6567
不曾	-11.6569
爲丹	-11.657
流演	-11.6571
民也	-11.6572
隱諱	-11.6572
下品	-11.6572
萬品	-11.6572
學問	-11.6573
性本	-11.6575
之格	-11.6576
三晨	-11.6577
械	-11.6579
竺	-11.6579
者此也	-11.658
之木	-11.658
則亂	-11.658
慎勿	-11.658
不能行	-11.658
二道	-11.6581
猶是	-11.6583
並行	-11.6583
龍骨	-11.6585
火雷	-11.6585
率土	-11.6585
失性	-11.6586
金房	-11.6586
雷王	-11.6587
疝	-11.6587
咏	-11.6587
郄	-11.6587
煇	-11.6587
狠	-11.6587
尻	-11.6587
迺	-11.6587
太原	-11.6588
反爲	-11.6588
遠而	-11.6588
城隍社令	-11.6588
蚩尤	-11.6588
光陰	-11.6589
白术	-11.6589
雲飛	-11.659
洞天福地	-11.659
𡨚仇	-11.6592
四達	-11.6595
寒氣	-11.6597
牢獄	-11.6597
逆旅	-11.6598
北斗七元	-11.6599
之例	-11.6599
不知也	-11.6599
以代	-11.66
開泰	-11.6601
禄存	-11.6601
仙吏	-11.6602
給付	-11.6602
天開	-11.6603
汝今	-11.6606
胃中	-11.6607
又非	-11.6608
無爲者	-11.661
地名	-11.661
恒山	-11.6614
中央黄	-11.6614
守雌	-11.6615
有犯	-11.6617
君姓	-11.6618
日月五星	-11.6621
俱生	-11.6623
極於	-11.6625
可成	-11.6627
墮落	-11.6628
)□(	-11.663
下照	-11.6632
玉陽	-11.6632
於理	-11.6632
白銀	-11.6633
煉神	-11.6633
不可用	-11.6634
杜光庭	-11.6634
觔	-11.6634
逡巡	-11.6635
萬罪	-11.6635
玄洲	-11.6635
冥司	-11.6635
清靈	-11.6636
正則	-11.6637
明星	-11.6637
氣交	-11.6638
隨所	-11.6638
人面	-11.6638
浩蕩	-11.6639
可漏	-11.6639
冲虚	-11.664
主治	-11.664
眞名	-11.6641
家書	-11.6641
神郷	-11.6642
亦由	-11.6643
嗣師	-11.6644
作福	-11.6645
要道	-11.6645
切切	-11.6646
之言也	-11.6646
一紀	-11.6647
流沙	-11.6647
乾坤之	-11.6648
庶使	-11.6648
無益於	-11.6649
多端	-11.6649
騰騰	-11.6649
係薦	-11.665
混融	-11.6652
能修	-11.6652
害物	-11.6653
吾與	-11.6654
▁乾地黄	-11.6656
孰知其	-11.6656
滿口	-11.6657
隱文	-11.6658
當此	-11.6658
本在	-11.6659
腹滿	-11.666
形魂	-11.6661
之貴	-11.6661
大靈官	-11.6663
披髮	-11.6664
景霄	-11.6666
惟聖人	-11.6666
仰觀	-11.6666
眞僞	-11.6668
蜜丸	-11.6668
在于	-11.6669
是猶	-11.6669
八會	-11.6671
奉迎	-11.6672
有身	-11.6672
政和	-11.6672
校録	-11.6673
州縣	-11.6673
其福	-11.6675
兩耳	-11.6676
臨時	-11.6676
四衆	-11.6676
不與物	-11.6677
六星	-11.6677
神明之	-11.6678
定矣	-11.6678
由心	-11.6678
天樞院	-11.6679
歸心	-11.6679
翌日	-11.668
果然	-11.6681
譯	-11.6681
爲鬼	-11.6682
賂	-11.6682
攷	-11.6682
▁靈寳大法司	-11.6682
蓬島	-11.6683
無識	-11.6683
保守	-11.6684
琅函	-11.6684
生生之	-11.6684
釋迦	-11.6685
黑白	-11.6685
陶冶	-11.6686
二章	-11.6687
合用	-11.6688
莊子云	-11.6689
光彩	-11.6689
住世	-11.669
萬騎	-11.6691
有八	-11.6692
十徧	-11.6692
焉此	-11.6694
從事於	-11.6694
大智	-11.6696
財貨	-11.6696
則得	-11.6701
隨縁	-11.6701
以及	-11.6702
間斷	-11.6703
之策	-11.6705
旬日	-11.6705
示之以	-11.6706
蒼蒼	-11.6708
窮理	-11.6709
返還	-11.671
祈求	-11.671
然若	-11.6712
仙子	-11.6712
威力	-11.6712
法筵	-11.6713
所召	-11.6717
毫末	-11.6718
果能	-11.6719
▁文昌	-11.672
非特	-11.6721
故不可	-11.6721
唯聖人	-11.6722
五辛	-11.6724
復卦	-11.6725
足則	-11.6725
黄土	-11.6725
豈容	-11.6725
萬八千	-11.6726
伯陽	-11.6727
左有	-11.6728
萎	-11.6729
顓	-11.6729
懃	-11.6729
刁	-11.6729
嶂	-11.6729
慿	-11.6729
粱	-11.6729
衫	-11.6729
攄	-11.6729
與人同	-11.673
有爲也	-11.6731
具位臣姓某	-11.6731
得志	-11.6731
死之徒	-11.6733
東山	-11.6735
玄奥	-11.6736
禪師	-11.6738
▁右出	-11.6739
神器	-11.674
槁木	-11.6742
見矣	-11.6742
易以	-11.6744
採訪	-11.6744
加至	-11.6744
身神	-11.6744
而不窮	-11.6745
齊國	-11.6746
衛靈	-11.6748
世尊	-11.6748
▁急如律令	-11.6749
獅	-11.6751
冷水	-11.6752
靈宫	-11.6752
而不以	-11.6753
符章	-11.6753
之頃	-11.6753
飛入	-11.6754
方術	-11.6755
化度	-11.6755
耳聽	-11.6756
言言	-11.6757
黄河	-11.6757
切慮	-11.6758
硯	-11.6759
四升	-11.6759
崇奉	-11.676
只用	-11.676
萬事畢	-11.6762
於西	-11.6762
十五年	-11.6762
咸令	-11.6763
信心	-11.6764
奚足	-11.6765
氣盛	-11.6766
已得	-11.6767
經同卷	-11.6767
特與	-11.6769
玄穹	-11.6769
七十五	-11.6771
不依	-11.6772
必敗	-11.6773
自然成	-11.6773
天猷	-11.6774
穆王	-11.6776
不可復	-11.6776
樂道	-11.6777
售	-11.6777
婉	-11.6777
聆	-11.6777
贏	-11.6777
泳	-11.6777
驅使	-11.6778
坎宫	-11.678
一志	-11.678
内文	-11.678
萬縁	-11.678
常與	-11.6781
混一	-11.6781
無爭	-11.6781
陽數	-11.6782
五十一	-11.6783
長大	-11.6783
面東	-11.6783
目中	-11.6784
木石	-11.6785
指歸	-11.6786
伺候	-11.6786
之堂	-11.6789
眞香	-11.6789
符檄	-11.6793
靈魂	-11.6793
章第六	-11.6793
偶然	-11.6794
漏泄	-11.6796
無疾	-11.68
養素	-11.6801
譬猶	-11.6803
五種	-11.6805
同聲	-11.6808
十聲	-11.6808
反復	-11.6813
萬壽	-11.6815
者固	-11.6816
風流	-11.6816
日在	-11.6817
月孛	-11.6818
四卷	-11.6821
符法	-11.6821
惶懼	-11.6822
皆悉	-11.6825
凛	-11.6825
娠	-11.6825
租	-11.6825
逈	-11.6825
蔑	-11.6825
旻	-11.6825
鏗	-11.6825
下情不勝	-11.6825
隂符	-11.6826
而好	-11.6826
一陰一陽	-11.6826
西斗	-11.6826
先世	-11.6827
薰蒸	-11.6828
八千	-11.6829
白黑	-11.6831
于時	-11.6831
室主	-11.6832
萬生	-11.6832
地雷	-11.6833
眞機	-11.6833
明主	-11.6834
狀申	-11.6835
帝諱	-11.6835
廣度	-11.6835
皆言	-11.6835
圍繞	-11.6836
捻香	-11.6838
皆知	-11.6839
武火	-11.684
寅申	-11.684
二仙	-11.6841
鬼精	-11.6842
三里	-11.6845
大火	-11.6845
水爲	-11.6845
風寒	-11.6847
所以然者	-11.6847
何曾	-11.6848
常守	-11.6848
之神也	-11.6849
勿失	-11.6849
二味	-11.685
帝闕	-11.6851
可傳	-11.6852
大宗師	-11.6853
雲山	-11.6853
俯伏	-11.6853
奏告	-11.6854
師事	-11.6855
大雨	-11.6856
大便	-11.6858
群臣	-11.6858
倚伏	-11.6858
九土	-11.686
至是	-11.6862
後至	-11.6864
▁大洞	-11.6865
▁天曹	-11.6865
大旱	-11.6867
清閑	-11.6871
以示人	-11.6871
爲萬物	-11.6871
内則	-11.6872
吾亦	-11.6872
三十六部	-11.6872
之辯	-11.6872
斯人	-11.6872
月生	-11.6873
攜	-11.6874
眚	-11.6874
壷	-11.6874
琉璃	-11.6874
轝	-11.6874
鳧	-11.6874
禺	-11.6874
冉冉	-11.6874
人當	-11.6874
三部八景	-11.6875
科法	-11.6875
焉夫	-11.6881
行止	-11.6881
其命	-11.6882
衆妙之門	-11.6882
大順	-11.6883
於衆	-11.6884
復歸於	-11.6885
代謝	-11.6885
延命	-11.6886
授受	-11.6886
嚥之	-11.6887
顔子	-11.6888
中極	-11.689
不愈	-11.689
眞人云	-11.689
星中	-11.6891
而何	-11.6891
一切威靈	-11.6892
上御	-11.6893
民無	-11.6893
敷奏	-11.6894
舉家	-11.6895
頒行	-11.6897
證明	-11.6899
穴在	-11.6902
▁天威	-11.6902
妙炁	-11.6902
單衣	-11.6902
誠能	-11.6902
收拾	-11.6903
過也	-11.6904
子亦	-11.6904
以舌	-11.6907
亡過	-11.6907
以彰	-11.6908
生魂	-11.6909
八聲	-11.691
之詞	-11.691
法式	-11.6911
大還丹	-11.6912
下觀	-11.6915
在人間	-11.6916
玉漿	-11.6917
西極	-11.6919
必待	-11.692
鯉	-11.692
焼	-11.692
異同	-11.692
布化	-11.6922
勿得	-11.6922
謹具狀上申	-11.6922
鑰	-11.6922
蓋謂	-11.6923
各一兩	-11.6924
幾人	-11.6924
所著	-11.6925
母子	-11.6925
氣聚	-11.6925
保神	-11.6926
小吏	-11.6927
玄雲	-11.6928
讃歎	-11.6928
未定	-11.6929
駟馬	-11.6929
月宫	-11.6929
謹上請	-11.6929
周回	-11.693
爲妙	-11.693
愛欲	-11.693
寥寥	-11.6931
木木	-11.6931
吾所謂	-11.6932
魏公	-11.6932
山名	-11.6932
妄動	-11.6932
案上	-11.6933
遍滿	-11.6934
無已	-11.6935
嗟乎	-11.6935
刻書	-11.6936
水洗	-11.6937
沈淪	-11.6938
得入	-11.6938
於君	-11.6938
上造	-11.694
以順	-11.694
乆之	-11.6943
已後	-11.6944
不歸	-11.6945
▁政和	-11.6947
太淸	-11.695
邪見	-11.6952
收捉	-11.6954
安期	-11.6954
知見	-11.6954
柔順	-11.6955
本靖	-11.6955
左府	-11.6959
以仁義	-11.6963
慈愛	-11.6963
左手執	-11.6966
聖㫖	-11.6966
思神	-11.6969
▁道者	-11.697
治民	-11.6971
!」	-11.6971
▁大聖北斗七元君能解	-11.6971
▁潁濱蘇轍曰	-11.6971
咦	-11.6971
清氣	-11.6972
希微	-11.6973
君親	-11.6973
不吉	-11.6973
方始	-11.6976
孰敢	-11.6976
侍中	-11.6979
呂帝	-11.698
神驗	-11.698
東行	-11.698
速現	-11.6981
髙上玉皇	-11.6984
朗朗	-11.6984
任之	-11.6985
玄圖	-11.6986
心主	-11.6987
道通	-11.6987
黄泉	-11.6988
感格	-11.6991
青山	-11.6992
無累	-11.6993
▁本司	-11.6994
大威	-11.6996
姻	-11.6996
天涯	-11.6997
物各	-11.6999
圖書	-11.6999
池中	-11.7001
或生	-11.7001
幽隂	-11.7001
所愛	-11.7002
爲小	-11.7002
木運	-11.7002
朗徹	-11.7002
城中	-11.7002
飽食	-11.7005
▁聖意	-11.7006
天地之氣	-11.7007
終南山	-11.7008
全無	-11.7009
紫衣	-11.7011
又將	-11.7012
祕要	-11.7012
慕道	-11.7013
續命	-11.7013
第十六	-11.7014
外篇	-11.7014
妙音	-11.7014
至重	-11.7015
神清	-11.7016
皓靈	-11.7017
是非之	-11.7017
方見	-11.7018
迍	-11.702
榦	-11.702
痒	-11.702
鶯	-11.702
邉	-11.702
滯魄	-11.702
舉動	-11.702
或號	-11.7021
奕奕	-11.7021
未然	-11.7021
安排	-11.7022
下田	-11.7023
玉石	-11.7023
不可思議功德	-11.7023
白紙	-11.7023
退而	-11.7024
五德	-11.7024
之房	-11.7025
安國	-11.7026
至貴	-11.7028
欲明	-11.7028
大略	-11.7029
師傳	-11.7029
七祖父母	-11.7031
堯之	-11.7032
光澤	-11.7033
將此	-11.7034
欲見	-11.7034
事物	-11.7035
瓊宫	-11.7037
毛髮	-11.7037
合爲一	-11.7038
五運	-11.7043
九萬	-11.7043
惡氣	-11.7045
應是	-11.7045
其職	-11.7046
一貫	-11.7047
縱橫	-11.7047
籍師	-11.7048
求財	-11.7048
木公	-11.705
二合	-11.7051
木金	-11.7052
首謝	-11.7054
幽獄	-11.7054
老翁	-11.7054
回首	-11.7055
異而	-11.7056
玉寳	-11.7057
比干	-11.7057
天尊說	-11.7059
勞而	-11.706
青城山	-11.706
法雨	-11.706
齋堂	-11.7062
楚人	-11.7064
嘯命	-11.7065
帝皇	-11.7065
逍	-11.7068
仙名	-11.7069
梢	-11.7069
榛	-11.7069
冗	-11.7069
趺	-11.7069
跌	-11.7069
螻蟻	-11.7069
屬金	-11.707
必成	-11.7071
隂功	-11.7071
山居	-11.7072
玉精	-11.7072
彌綸	-11.7072
▁高上	-11.7073
愚迷	-11.7074
耳中	-11.7074
細細	-11.7075
異日	-11.7076
也因	-11.7076
黄赤	-11.7077
不察	-11.7077
丑未	-11.708
紹興	-11.7083
尊帝	-11.7083
人形	-11.7084
輪廻	-11.7085
未形	-11.7085
法相	-11.7087
十二日	-11.7088
校正	-11.7088
五轉	-11.7088
人之道	-11.7089
不救	-11.7091
昊天玉皇上帝	-11.7092
捉鬼	-11.7092
不死之	-11.7094
重罪	-11.7094
肢	-11.7095
獨見	-11.7097
幽玄	-11.7097
億千	-11.7097
其死也	-11.7098
並與	-11.7099
垂光	-11.71
灸法	-11.7101
萬一	-11.7102
塲	-11.7102
以慈	-11.7104
念呪曰	-11.7105
仙宫	-11.7105
不材	-11.7106
▁上上	-11.7107
斯須	-11.7107
長生乆視	-11.711
犯之	-11.7113
七枚	-11.7115
鰲	-11.7118
芸芸	-11.7119
妓	-11.7119
悍	-11.7119
東郭	-11.712
王相	-11.7121
紫蓋	-11.7122
參同契曰	-11.7123
穢氣	-11.7123
金科	-11.7125
以理	-11.7125
好事	-11.7126
妙樂	-11.7129
四正	-11.7129
節候	-11.7136
肝膽	-11.7137
皆應	-11.7138
謂之曰	-11.7138
又按	-11.7138
不逆	-11.714
位乎	-11.7141
者知	-11.7142
九州社令	-11.7144
封禪	-11.7145
夫欲	-11.7146
每月	-11.7147
微寒	-11.7148
瑞氣	-11.7148
高而	-11.7149
我當	-11.7149
玄㝠	-11.715
何在	-11.715
從前	-11.7154
正真	-11.7154
云此	-11.7154
是夕	-11.7156
公侯	-11.7157
信禮	-11.7157
陽魂	-11.7157
甘雨	-11.7158
至靜	-11.7159
止止	-11.716
行香	-11.7161
永爲	-11.7162
大赤天	-11.7162
通身	-11.7162
衝天	-11.7163
六神	-11.7163
典者	-11.7163
白蜜	-11.7164
徃徃	-11.7164
嗣法	-11.7165
道運	-11.7166
見我	-11.7166
定慧	-11.7168
叠	-11.7169
嚙	-11.7169
櫃	-11.7169
紺	-11.7169
虗	-11.7169
知之矣	-11.7169
土皇君	-11.7169
爲常	-11.717
可觀	-11.7171
氣息	-11.7171
▁甲辰	-11.7172
位登	-11.7172
山頭	-11.7172
枳實	-11.7172
大澤	-11.7172
八㑹	-11.7174
近世	-11.7174
終不能	-11.7176
清眞	-11.7176
温酒	-11.7177
玄炁	-11.7178
大法師	-11.7179
先天一炁	-11.718
之計	-11.7181
六曰	-11.7184
虎兔	-11.7184
雖殊	-11.7185
晨夕	-11.7186
至孝	-11.7186
在天爲	-11.7186
道亦	-11.7187
出神	-11.7188
一個	-11.7188
仙仗	-11.7189
亦无	-11.7189
初學	-11.719
旦暮	-11.7191
以道德	-11.7193
以虚	-11.7195
第十五	-11.7196
飛華	-11.7196
非凡	-11.7197
三獻	-11.7197
封固	-11.7198
走馬	-11.7199
有終	-11.7199
等閑	-11.7201
萬端	-11.7201
主生	-11.7202
困苦	-11.7202
滿室	-11.7203
其室	-11.7204
之瑞	-11.7204
之祥	-11.7205
謹奉	-11.7205
面前	-11.7205
長而	-11.7206
命曰	-11.7208
輕敵	-11.7208
爲功	-11.7208
爲天子	-11.7211
禹步	-11.7211
浮丘	-11.7212
▁子曰	-11.7212
又作	-11.7213
招眞	-11.7215
與俗	-11.7216
瘕	-11.7218
煦	-11.7219
損之又損	-11.7219
流星	-11.7219
貪生	-11.7219
可惜	-11.7219
陷者中	-11.722
在目前	-11.7221
魚鼈	-11.7222
者寡	-11.7223
靈妙	-11.7226
自勝	-11.7226
眞息	-11.7226
口口	-11.7228
者即是	-11.7229
混同	-11.723
以靜	-11.7232
足陽明	-11.7234
敬信	-11.7234
其首	-11.7235
故事	-11.7238
同行	-11.7238
綱維	-11.7238
而不辭	-11.7238
以鼻	-11.724
六二	-11.724
與語	-11.7241
黄龍	-11.7242
道之體	-11.7242
莫能知	-11.7246
臍中	-11.7247
爲學	-11.7247
各執	-11.7248
已死	-11.7249
空玄	-11.7252
科儀	-11.7252
一塊	-11.7252
▁中平	-11.7253
哀哉	-11.7254
欽奉	-11.7257
太清宫	-11.7257
了無	-11.7257
亦宜	-11.7258
又用	-11.7258
昇遷	-11.7259
許君	-11.7262
不知何	-11.7263
五色雲	-11.7263
天目	-11.7266
▁川	-11.7267
復來	-11.7269
兑	-11.7269
爇	-11.7269
龔	-11.7269
使然	-11.7269
靜默	-11.7269
驅雷	-11.727
敷陳	-11.7271
孝悌	-11.7271
率性	-11.7271
不能盡	-11.7272
之柄	-11.7272
五戒	-11.7272
斗口	-11.7273
不傷人	-11.7273
致使	-11.7276
若愚	-11.7277
若使	-11.7277
有形之	-11.7279
百世	-11.728
生道	-11.7281
元老	-11.7286
炎火	-11.729
玄極	-11.7292
四門	-11.7295
金匱	-11.7296
寳文	-11.7296
明光	-11.7296
之𩔖	-11.7297
養生之	-11.7297
無爲之道	-11.7301
食飲	-11.7302
苟能	-11.7303
▁稽首	-11.7303
手中	-11.7303
上金	-11.7303
滿足	-11.7304
▁宸	-11.7304
無力	-11.7305
吐血	-11.7306
萬物莫不	-11.7307
不墮	-11.7308
以火	-11.7309
人之性	-11.7311
清微天	-11.7311
戰而	-11.7312
三千里	-11.7314
滅罪	-11.7314
嬌	-11.7315
秘訣	-11.7315
靈化	-11.7316
瘻	-11.7319
生命	-11.7319
▁道法會元卷之一百	-11.7319
泗	-11.7319
浚	-11.7319
瞀	-11.7319
㳺	-11.7319
捶	-11.7319
欒	-11.7319
無鞅數衆	-11.7319
麫	-11.7319
杪	-11.7319
咳嗽	-11.732
照破	-11.732
等志心稽首禮	-11.7321
陽爻	-11.7323
是謂玄德	-11.7324
九隂	-11.7324
不念	-11.7325
癰腫	-11.7325
關奏	-11.7325
生子	-11.7326
罡風	-11.7327
合干	-11.7327
居山	-11.733
澤瀉	-11.733
子細	-11.7332
神運	-11.7332
本心	-11.7332
數至	-11.7336
縱有	-11.7336
蕭蕭	-11.7336
復出	-11.7337
我形	-11.7338
無色界	-11.7338
資生	-11.7339
歸元	-11.734
刑德	-11.734
觀乎	-11.734
不足則	-11.7342
安身	-11.7343
應乎	-11.7344
三將軍	-11.7345
花開	-11.7346
齋用	-11.7348
忽聞	-11.7349
觀音	-11.7351
交結	-11.7352
傷生	-11.7352
作此	-11.7352
湛寂	-11.7354
紫微大帝	-11.7355
清旦	-11.7355
先用	-11.7355
必無	-11.7356
揚州	-11.7356
者未嘗	-11.7357
昏迷	-11.7357
積行	-11.7357
至一	-11.7361
不善人	-11.7362
通幽	-11.7362
道雖	-11.7363
行符	-11.7364
安和	-11.7364
而返	-11.7365
暝	-11.7365
為天下	-11.7367
本宫	-11.7368
至如	-11.7369
甄	-11.7369
𩳐	-11.737
拽	-11.737
韞	-11.737
▁疑獨註	-11.737
槖籥	-11.737
救苦眞人	-11.7371
天福	-11.7371
紫户	-11.7376
青陽	-11.7377
天地日月	-11.7378
精靈	-11.7378
自然生	-11.7379
巽方	-11.7381
不勤	-11.7383
西東	-11.7384
絶塵	-11.7386
兩邊	-11.7388
水星	-11.7388
滅魔	-11.7388
乎天地	-11.7388
時爲	-11.7389
韜光	-11.7389
三陰	-11.7391
之心也	-11.7393
青氣	-11.7393
小成	-11.7395
縣令	-11.7395
調息	-11.7396
丘陵	-11.7397
玄真	-11.7397
若在	-11.7398
堅白	-11.7398
患難	-11.7399
周身	-11.74
衆靈	-11.7401
寳誥	-11.7401
▁神虎	-11.7402
繫辭	-11.7403
空洞之	-11.7406
兵戈	-11.7406
四序	-11.7406
智巧	-11.7408
無怨	-11.7409
加以	-11.7411
福報	-11.7412
之場	-11.7414
▁醫	-11.7414
末學	-11.7415
祕於	-11.7415
精邪	-11.7417
某年	-11.7417
清静	-11.7418
九十日	-11.7418
鍊之	-11.7418
不足以爲	-11.7419
聲聞	-11.7419
盥	-11.7421
哪	-11.7421
螟	-11.7421
嗄	-11.7421
悞	-11.7421
砌	-11.7421
譔	-11.7421
煌煌	-11.7421
歸根復命	-11.7422
符篆	-11.7422
方用	-11.7423
男坎	-11.7424
三家	-11.7425
汝當	-11.7425
神精	-11.7425
杳㝠	-11.7425
用意	-11.7428
寅卯	-11.7428
散壇	-11.7429
龍飛	-11.743
持符	-11.743
須當	-11.7431
右有	-11.7432
無極之	-11.7433
不久	-11.7434
水神	-11.7435
武當	-11.7435
經歷	-11.7436
氣運	-11.7437
神童	-11.7439
將恐	-11.744
道之用	-11.744
之孫	-11.7443
舉事	-11.7445
獄中	-11.7446
巨細	-11.7449
向日	-11.745
▁五方	-11.7451
身無	-11.7451
太平經	-11.7452
上篇	-11.7452
積年	-11.7454
百福	-11.7455
眉間	-11.7457
塞其	-11.7457
血血	-11.7458
相剋	-11.7459
二陰	-11.746
▁下下	-11.7462
天門冬	-11.7463
大士	-11.7464
與彼	-11.7465
氣滿	-11.7468
實非	-11.7468
二五	-11.7469
無比	-11.7469
何况	-11.747
而取之	-11.7472
則无	-11.7472
漓	-11.7472
琪	-11.7472
暄	-11.7472
皺	-11.7472
吉祥檀熾鈞	-11.7472
玄圃	-11.7473
飛龍騎吏	-11.7473
熙熙	-11.7473
關鍵	-11.7474
中秋	-11.7476
靜處	-11.7478
今朝	-11.748
陽縣	-11.748
有七	-11.7481
可作	-11.7482
雲霄	-11.7482
隨我	-11.7483
思存	-11.7485
善應	-11.7486
俱忘	-11.7486
民間	-11.7487
修崇	-11.7487
大醮	-11.7487
昭彰	-11.7488
無敢	-11.7488
不答	-11.7489
青靈	-11.749
委蛇	-11.7492
暘	-11.7492
請師	-11.7492
各七	-11.7494
琅玕	-11.7496
轉誦	-11.7497
潜通	-11.7497
失度	-11.7499
二神	-11.75
魔試	-11.75
玄都玉京	-11.7501
雙手	-11.7501
隱韻	-11.7502
故易	-11.7503
不遂	-11.7503
捷疾	-11.7505
功業	-11.7505
青絲	-11.7505
成汁	-11.7506
鬱羅	-11.7508
之行也	-11.7508
不泄	-11.7508
苦趣	-11.7511
深矣	-11.7512
蓋之	-11.7514
不病	-11.7514
一爻	-11.7516
竟不	-11.7517
炎光	-11.7519
十一年	-11.7522
則見	-11.7523
洞視	-11.7523
斟	-11.7524
凱	-11.7524
寍	-11.7524
畦	-11.7524
官將百二十人	-11.7524
硇砂	-11.7525
而笑	-11.7525
又玄	-11.7526
隄防	-11.7526
▁符命	-11.7526
一隻	-11.7527
表文	-11.7528
隱藏	-11.7529
耳目之	-11.7529
而求之	-11.7532
知不知	-11.7534
玉檢	-11.7535
生地黄	-11.7535
放生	-11.7536
神奇	-11.7537
天意	-11.7538
下情無任	-11.7538
魚鼠	-11.7539
開啓	-11.754
常生	-11.7541
宗皇帝	-11.7542
朔旦	-11.7542
▁紫微	-11.7543
鼻孔	-11.7545
至寶	-11.7545
七聖	-11.7545
丹房	-11.7547
法位	-11.7547
還返	-11.7547
朗耀	-11.7547
靈藥	-11.7547
臣身中	-11.7548
古之善	-11.7549
玉樹	-11.7549
引之	-11.7549
九尺	-11.7549
身如	-11.755
雲錦	-11.7551
相尅	-11.7552
無根	-11.7554
九鳳	-11.7555
玉珮	-11.7555
萬精	-11.7556
國中	-11.7558
人莫不	-11.7558
酒肉	-11.7559
邵子	-11.756
善根	-11.756
卯時	-11.7561
者言其	-11.7561
死䰟	-11.7561
辰巳	-11.7561
於其中	-11.7562
書篆	-11.7564
穢濁	-11.7565
所授	-11.7568
上將	-11.7568
解其	-11.7568
丑時	-11.7569
諸公	-11.757
裁成	-11.7571
生瘡	-11.7571
航	-11.7572
名位	-11.7574
眞科	-11.7574
宙	-11.7574
▁甲申	-11.7575
廣况	-11.7575
龍甬用	-11.7576
次日	-11.7576
多可个舌	-11.7576
嶮	-11.7576
曵	-11.7576
笋	-11.7576
慝	-11.7576
扎	-11.7576
菑	-11.7576
蜚	-11.7576
廚	-11.7576
無偏	-11.7576
先君	-11.7577
悶悶	-11.7577
以補	-11.7577
金臺	-11.7578
各十	-11.7578
白玉蟾	-11.7583
其主	-11.7586
四六	-11.7586
在道	-11.7586
瞻仰	-11.7588
引艮	-11.7588
視而	-11.7589
令乾	-11.7589
父兄	-11.7589
莫不由	-11.7591
南方赤帝	-11.7592
數數	-11.7592
默然	-11.7592
海蟾	-11.7593
真聖	-11.7593
育萬物	-11.7594
星光	-11.7594
相離	-11.7595
物或	-11.7595
之液	-11.7596
求福	-11.7596
長七寸	-11.7597
冷氣	-11.7598
發揮	-11.7604
▁昊天玉皇上帝	-11.7605
三更	-11.7606
謹當	-11.7607
異端	-11.7608
一意	-11.7608
越人	-11.7609
食肉	-11.761
丁壬	-11.7611
昭烈	-11.7613
楊子	-11.7614
吴王	-11.7617
水精	-11.7619
因物	-11.7622
刻石	-11.7623
何憂	-11.7624
長嘯	-11.7625
不因	-11.7625
君道經第	-11.7626
必致	-11.7626
無塵	-11.7627
牛斗奏六	-11.7628
禾火化八	-11.7628
蹔	-11.7628
荐	-11.7628
佗	-11.7628
眺	-11.7628
魘	-11.7628
龜水貴	-11.7628
風伯雨師	-11.7628
心動	-11.7628
不宰	-11.7629
月明	-11.7629
升仙	-11.763
案判官	-11.763
世傳	-11.7631
何敢	-11.7631
雲宫	-11.7632
猛將	-11.7636
未解	-11.7637
夢寐	-11.7638
煎湯	-11.7641
身後	-11.7641
六十卦	-11.7642
本命之日	-11.7642
火令	-11.7643
芎藭	-11.7643
來至	-11.7644
青霄	-11.7644
長生之道	-11.7644
亦必	-11.7645
爾雅	-11.7645
庶得	-11.7646
拜表	-11.7647
葉如	-11.7647
獨存	-11.765
離散	-11.765
宛轉	-11.765
爲土	-11.7652
此卦	-11.7653
青白	-11.7653
玄丹	-11.7654
河魁	-11.7654
勝人	-11.7655
慈父	-11.7656
二千一百	-11.7658
玉篆	-11.766
虚中	-11.7661
小小	-11.7663
府君	-11.7663
水帝	-11.7663
可見矣	-11.7664
大慈悲	-11.7664
亦難	-11.7666
之跡	-11.7666
不淫	-11.7666
真宰	-11.7668
浮空而至	-11.7669
風清	-11.7669
炁炁	-11.767
▁甲午	-11.7673
外藥	-11.7674
亦作	-11.7674
砂中	-11.7675
之衣	-11.7676
右腎	-11.7678
二女	-11.7678
悸	-11.7678
羣品	-11.7679
還歸	-11.768
下映	-11.768
元亨利貞	-11.768
刀早孝岳	-11.768
弁	-11.768
恆	-11.768
玃	-11.768
賑	-11.768
髭	-11.768
帙	-11.768
慊	-11.768
泡	-11.768
溷	-11.768
▁録曰愚觀	-11.768
妻子四日	-11.7681
七過	-11.7681
毫釐	-11.7681
惑也	-11.7683
乞丐	-11.7684
前行	-11.7685
陽陽	-11.7685
陰神	-11.7686
卷之六	-11.7687
照徹	-11.7688
天長	-11.7688
自新	-11.7688
凡遇	-11.7689
洞天仙官	-11.7689
承受	-11.769
足太陽	-11.7692
是一藥	-11.7692
幾時	-11.7693
尹子曰	-11.7693
貴者	-11.7695
爲患	-11.7696
開宰	-11.7697
至無	-11.7699
絶粒	-11.7699
超升	-11.7703
玉蟾	-11.7704
千典	-11.7704
正在	-11.7705
難名	-11.7706
罷對	-11.7706
丁井	-11.7707
豈復	-11.7708
弱水	-11.7709
不飢	-11.771
03	-11.771
孔衆	-11.7712
審禁	-11.7712
應世	-11.7713
君允	-11.7714
返生	-11.7714
遍身	-11.7715
九厄	-11.7716
至期	-11.7717
爐火	-11.7718
福壽	-11.7718
稍稍	-11.7719
一陽生	-11.7722
土皇姓	-11.7723
几前	-11.7723
好色	-11.7726
經註	-11.7728
白光	-11.7728
犧	-11.7729
混化	-11.7729
熱氣	-11.7731
又奚	-11.7731
不可妄	-11.7731
▁靈寳領教濟度金書卷之二百	-11.7733
喑	-11.7733
窘	-11.7733
緇	-11.7733
頷	-11.7733
啓奏	-11.7733
齧缺	-11.7733
闔闢	-11.7735
大驚	-11.7739
百谷	-11.774
强弱	-11.774
北極大帝	-11.7741
姑射	-11.7741
皆出於	-11.7742
曝乾	-11.7743
大熱	-11.7743
▁南極	-11.7744
度魂	-11.7744
稽首禮	-11.7745
温温	-11.7746
順時	-11.7748
仰祈	-11.7749
碧霄	-11.775
毒害	-11.7751
用之則	-11.7753
並作	-11.7755
飛去	-11.7759
濟濟	-11.7761
便爲	-11.7762
▁急如	-11.7763
歩綱	-11.7763
于後	-11.7763
不言之教	-11.7766
右轉	-11.7768
各安其	-11.7768
毛寶	-11.7768
其他	-11.777
寳華	-11.7771
舟車	-11.7773
五十四	-11.7773
正覺	-11.7773
諸聖	-11.7774
月月	-11.7775
兩頭	-11.7779
如春	-11.778
執持	-11.7781
山崩	-11.7781
遂得	-11.7781
皇老	-11.7783
之紀	-11.7785
羶	-11.7785
泰清	-11.7786
濮	-11.7786
枸杞	-11.7786
卞	-11.7786
瀛洲	-11.7786
何益	-11.7787
有災	-11.7787
猪脂	-11.7788
亦隨	-11.7788
誦持	-11.779
靜心	-11.7791
倏忽	-11.7791
也光謂	-11.7795
隨風	-11.7795
山魈	-11.7795
奉受	-11.7796
病苦	-11.7796
三要	-11.7797
四靈	-11.7799
流輝	-11.7799
長沙	-11.7799
必獲	-11.78
殿下	-11.78
酆都大帝	-11.78
爽靈	-11.78
飛霞	-11.7801
赤水	-11.7803
交姤	-11.7803
斡運	-11.7804
一劑	-11.7805
當世	-11.7806
有信	-11.7807
屬火	-11.7808
所住	-11.7809
曾子	-11.781
心猿	-11.7811
帥將	-11.7812
常用	-11.7817
劫劫	-11.7817
相求	-11.7818
盡是	-11.7819
戒律	-11.782
無拘	-11.782
哉然	-11.7823
西城	-11.7823
燈燭	-11.7823
海底	-11.7824
水出焉	-11.7828
眞眞	-11.7828
而多	-11.7829
自全	-11.783
青面	-11.7831
宣通	-11.7832
形全	-11.7832
心靜	-11.7832
久則	-11.7834
而升	-11.7835
燧	-11.7837
三通	-11.7837
在東	-11.7838
所禀	-11.7838
▁道君	-11.7838
平易	-11.7838
紳	-11.7839
蠹	-11.7839
澈	-11.7839
鋸	-11.7839
虺	-11.7839
君官將一百二十人治	-11.7839
問乎	-11.7839
閬苑	-11.7839
六道四生	-11.7839
綿綿若存	-11.784
同塵	-11.784
爲父	-11.7841
火符	-11.7843
九玄七祖	-11.7845
德星君	-11.7849
心志	-11.7849
内藏	-11.7851
孤寡	-11.7853
雷祖大帝	-11.7854
夏禹	-11.7854
非法	-11.7855
獨化	-11.7856
留心	-11.7857
矣蓋	-11.7857
志意	-11.7858
盡也	-11.786
九獄	-11.786
神官	-11.7863
一座	-11.7864
唯道	-11.7864
麋	-11.7865
窮於	-11.7865
百二十人	-11.7865
左契	-11.7865
本位	-11.7866
華胥	-11.7866
廣濟	-11.7868
▁乙未	-11.7868
貪愛	-11.7869
有兩	-11.7871
在壇	-11.7872
副將	-11.7872
輔弼	-11.7873
金闕帝君	-11.7873
酒食	-11.7873
苟得	-11.7873
賜以	-11.7873
微呪曰	-11.7873
九曲	-11.7874
辰戌	-11.7875
雷轟	-11.7875
而不知其所	-11.7877
之輩	-11.7878
申狀	-11.7879
半夜	-11.7879
如小豆	-11.788
璫	-11.7881
觀妙	-11.7881
不驕	-11.7883
所養	-11.7883
一呼	-11.7884
救治	-11.7886
錬質	-11.7888
也如此	-11.789
故氣	-11.7891
一周天	-11.7891
不遷	-11.7891
諛	-11.7891
宂	-11.7892
摸	-11.7892
蝎	-11.7892
亢倉子	-11.7892
夫人之	-11.7893
紫文	-11.7894
眞源	-11.7894
東方青帝	-11.7895
命終	-11.7897
施惠	-11.7898
剛風	-11.7899
壇所	-11.7899
元素	-11.79
而後知	-11.7901
兩弦	-11.7902
烏兔	-11.7902
三呼	-11.7902
檢校	-11.7902
眞意	-11.7904
死灰	-11.7904
乾道	-11.7904
謡歌	-11.7905
義云	-11.7906
立名	-11.7907
莊公	-11.7908
北元	-11.7908
清泠	-11.7909
奔馳	-11.791
陽之氣	-11.7912
本命日	-11.7912
於市	-11.7914
三極	-11.7914
嗣教	-11.7917
箇箇	-11.7919
寶誥	-11.7919
李氏	-11.792
聲音	-11.7921
難測	-11.7921
▁丁卯	-11.7923
禀受	-11.7925
曰先生	-11.7925
錢財	-11.7927
死炁	-11.7929
而異	-11.793
由其	-11.793
錢馬	-11.793
之說也	-11.7931
還家	-11.7933
本原	-11.7934
順理	-11.7935
無忌	-11.7937
▁玄都	-11.7939
消灾	-11.7939
二十九日	-11.794
解脱	-11.7942
垂象	-11.7944
隱形	-11.7945
上見	-11.7945
苓	-11.7946
彷彿	-11.7946
烝	-11.7946
薫	-11.7946
三司	-11.7947
闕下	-11.7947
無爲而無不爲	-11.7947
燈儀	-11.7948
灌溉	-11.7949
户牖	-11.795
守神	-11.7953
察之	-11.7953
祖考	-11.7953
玉輿	-11.7954
稱善	-11.7955
之咎	-11.7955
馨香	-11.7956
淨水	-11.7956
殷勤	-11.7957
上騰	-11.7957
其終	-11.7958
大願	-11.7959
完全	-11.7959
甲乙經	-11.7959
採得	-11.796
朱子曰	-11.7961
鐵圍	-11.7962
不尚賢	-11.7964
不就	-11.7964
與萬物	-11.7966
分外	-11.7969
水性	-11.7971
運限	-11.7971
亦皆	-11.7971
不辯	-11.7972
素問	-11.7972
掾吏	-11.7972
遞相	-11.7973
非聖人	-11.7975
信道	-11.7975
回每	-11.7975
天池	-11.7976
金帛	-11.7976
世法	-11.7977
受教	-11.7978
法地	-11.798
常服	-11.798
王弼	-11.7981
三朝	-11.7981
侮之	-11.7982
以歸	-11.7982
後聖君	-11.7983
還山	-11.7984
自由	-11.7985
陜	-11.7986
易知	-11.7989
全矣	-11.799
所告	-11.7991
承負	-11.7991
抱陽	-11.7992
何況	-11.7992
若何	-11.7993
業報	-11.7993
自伐	-11.7994
其狀如	-11.7995
常欲	-11.7995
今齋主某	-11.7996
噏	-11.8
字號計九卷	-11.8
沽	-11.8
大悲大願大聖大慈	-11.8
在人爲	-11.8
五十二	-11.8
上善若水	-11.8
天一生水	-11.8001
良兩	-11.8001
司命司録	-11.8002
盛而	-11.8003
玄牝之門	-11.8005
若知	-11.8005
上景	-11.8005
爲而不恃	-11.8006
和同	-11.8007
爲友	-11.8007
召雷	-11.8007
山高	-11.8008
亡故某人	-11.8009
等魂	-11.8009
答言	-11.801
玉郎	-11.801
官使者	-11.8011
大寳	-11.8013
六四	-11.8014
先知	-11.8015
乳香	-11.8015
異常	-11.8017
天中之	-11.8018
夷狄	-11.8019
漢武帝	-11.8022
失時	-11.8022
四十七	-11.8022
樓臺	-11.8022
衆魂	-11.8022
後漢	-11.8025
孔丘	-11.8025
假借	-11.8025
飮食	-11.8026
慈惠	-11.8028
陰陽之氣	-11.8028
懇祈	-11.8028
食氣	-11.803
腹脹	-11.803
天衢	-11.803
知道者	-11.8032
玄象	-11.8032
明晨	-11.8033
非其人	-11.8034
聖境	-11.8036
而不變	-11.8041
邪神	-11.8045
杜牧曰	-11.8046
尚未	-11.8047
薤	-11.8047
兩者	-11.8048
動用	-11.8049
非謂	-11.8052
瀛	-11.8054
不節	-11.8054
博學	-11.8054
悵	-11.8055
棹	-11.8055
裊	-11.8055
汶	-11.8055
莅	-11.8055
螺	-11.8055
潢	-11.8055
行住坐卧	-11.8055
賄	-11.8055
玷	-11.8055
一十四	-11.8055
之效	-11.8055
鯉魚	-11.8057
雄雌	-11.8058
大覺	-11.8058
萬神朝禮	-11.8059
一伏時	-11.8059
焦枯	-11.8062
君名	-11.8065
去就	-11.8066
飛輪	-11.8066
默念	-11.8067
形像	-11.8067
身受	-11.8068
靈異	-11.8068
在北	-11.8069
之所以爲	-11.807
當來	-11.807
大業	-11.8071
功力	-11.8071
曹操	-11.8072
觀身	-11.8072
獨處	-11.8073
大賢	-11.8073
公主	-11.8075
周徧	-11.8076
伐之	-11.8077
祖先	-11.8078
迷途	-11.8078
今故燒香	-11.8079
紫華	-11.8081
靈君	-11.8081
玉霄	-11.8081
常念	-11.8082
向道	-11.8082
不多	-11.8085
服丹	-11.8086
五千言	-11.8086
里中	-11.8087
在西	-11.8087
成佛	-11.8089
雷鳴	-11.8091
猶言	-11.8093
五華	-11.8093
知命	-11.8093
威嚴	-11.8094
與之俱	-11.8094
煞鬼	-11.8096
仰謝	-11.8096
▁當司	-11.81
▁又方取	-11.8102
以義	-11.8104
金城	-11.8106
事竟	-11.8107
養炁	-11.8108
刹	-11.8108
滎	-11.8109
懦	-11.8109
拖	-11.8109
瀹	-11.8109
雛	-11.8109
䏻	-11.8109
僵	-11.8109
筌蹄	-11.811
金晶	-11.811
翩翩	-11.811
左右官使者	-11.8111
小事	-11.8112
虛而	-11.8114
辟除	-11.8114
内篇	-11.8116
以爲常	-11.8116
妻妾	-11.8117
之位也	-11.8117
其才	-11.8118
門中	-11.812
家貧	-11.8121
生涯	-11.8122
出遊	-11.8124
年正月	-11.8124
百二十人出	-11.8125
跳出	-11.8125
如水之	-11.8125
九色之	-11.8126
合炁	-11.8127
熱則	-11.8128
追䰟	-11.8129
嘗聞	-11.8131
是吾	-11.8132
以仁	-11.8133
之勞	-11.8135
未萌	-11.8136
文理	-11.814
神真	-11.814
仙境	-11.8141
主管	-11.8141
▁師尊大聖衆至眞之德得道之後	-11.8141
用智	-11.8142
下痢	-11.8144
傾心	-11.8144
大要	-11.8147
九曜	-11.8147
至公	-11.8148
必應	-11.815
南丹	-11.8152
和也	-11.8153
▁丁酉	-11.8153
以己	-11.8153
淨土	-11.8155
劫數	-11.8156
難行	-11.8159
乎其中	-11.816
諸部	-11.8161
備守	-11.8162
至申	-11.8162
隱士	-11.8164
芋	-11.8164
鄂	-11.8164
▁雲笈七籤卷之	-11.8164
㳙	-11.8164
届	-11.8164
歉	-11.8164
苐	-11.8164
鯤	-11.8164
賾	-11.8164
俎	-11.8164
櫟	-11.8164
屠割	-11.8166
谷神不死	-11.8167
離火	-11.8169
嘗有	-11.8169
煩悶	-11.817
意欲	-11.8171
乆乆	-11.8172
凝滯	-11.8172
落滅	-11.8172
德全	-11.8173
漁父	-11.8173
神藥	-11.8175
爲寳	-11.8176
神龜	-11.8176
七十二候	-11.8177
䰟𩲸	-11.8178
亦無所	-11.8179
活計	-11.8182
土星	-11.8183
圓治	-11.8185
青羊	-11.8185
内養	-11.8187
無所見	-11.8187
陰極	-11.8187
者人之	-11.8189
▁蜀椒	-11.819
大運	-11.8191
孺	-11.8192
十有五	-11.8194
意馬	-11.8198
本亦作	-11.8198
昔之	-11.8201
多年	-11.8202
作爲	-11.8202
應驗	-11.8205
合行	-11.8206
二卦	-11.8208
字元	-11.8209
咸使	-11.8209
成王	-11.8209
所患	-11.8209
遷神	-11.8209
在家	-11.821
符命告下	-11.8211
五藏之	-11.8211
憂苦	-11.8211
命根	-11.8211
上六	-11.8213
有箇	-11.8213
得之於	-11.8214
長九寸	-11.8216
靈泉	-11.8217
其口	-11.8217
數月	-11.8217
遭遇	-11.8217
百穀	-11.8217
不可謂	-11.8218
○○○	-11.8218
千生	-11.8219
中庭	-11.8219
蜃	-11.8219
相扶	-11.8219
百丈	-11.8219
琰	-11.8219
閨	-11.8219
耄	-11.8219
胄	-11.8219
恬惔	-11.822
吉利	-11.822
某人靈䰟	-11.8221
稼穡	-11.8222
仙伯	-11.8222
往見	-11.8225
只此	-11.8225
俯垂	-11.8226
西方白帝	-11.8226
爲基	-11.8227
黍珠	-11.8227
亘古	-11.8228
九宮	-11.8229
爾雅云	-11.8229
之卦	-11.8229
則精	-11.8232
相守	-11.8233
月朔	-11.8235
怒而	-11.8236
則應	-11.8236
殺戮	-11.824
録籍	-11.824
天地之心	-11.8241
身熱	-11.8243
斬滅	-11.8245
養就	-11.8246
立命	-11.8248
觀之則	-11.8249
營營	-11.825
▁承誥奉行	-11.8251
者天之	-11.8252
其初	-11.8254
而知之	-11.8254
不似	-11.8254
推而	-11.8256
領教	-11.8257
之女	-11.8257
但得	-11.8258
一步	-11.8258
片時	-11.8258
官長	-11.8259
削落	-11.8259
盡心	-11.8259
考對	-11.826
迷津	-11.826
因是	-11.8265
六害	-11.8266
重泉	-11.8266
不啻	-11.8266
依然	-11.8266
殃咎	-11.8267
保全	-11.8268
公事	-11.8268
妙果	-11.8269
時候	-11.8271
撒	-11.8272
四神	-11.8272
民安	-11.8273
珍寳	-11.8274
州人	-11.8274
繹	-11.8274
妊娠	-11.8274
▁元始一炁萬神雷司	-11.8275
刦	-11.8275
慵	-11.8275
瘖	-11.8275
嗅	-11.8275
疳	-11.8275
㡬	-11.8275
怙	-11.8275
不知何許人	-11.8275
▁勑符呪	-11.8275
於腎	-11.8276
眞藏	-11.8276
告齋	-11.8277
跣足	-11.8277
燒香散花	-11.8277
卽此	-11.8277
下副	-11.8278
無量無邊	-11.828
葛洪	-11.8283
建醮	-11.8283
雖小	-11.8284
白龍	-11.8284
酒色	-11.8284
左腎	-11.8286
結實	-11.8286
冒犯	-11.8288
王天下	-11.8289
無心而	-11.8289
政教	-11.829
根塵	-11.829
屋宇	-11.8292
任其自	-11.8292
如前法	-11.8293
哉蓋	-11.8294
水源	-11.8295
三種	-11.8295
鬼魔	-11.8296
▁霄	-11.8296
問其故	-11.8296
不死之道	-11.8297
章一通	-11.8297
百拜	-11.8298
太上三尊	-11.8299
尊重	-11.8299
瓊文	-11.8302
坎爲	-11.8302
黄花	-11.8305
五十六	-11.8306
上乘	-11.8307
之根本	-11.8307
不損	-11.8307
主執	-11.8307
屬水	-11.8308
貪嗔	-11.8308
午朝	-11.8308
中文	-11.831
手指	-11.8311
諸罪	-11.8311
日月同	-11.8313
照明	-11.8319
斗星	-11.832
正文	-11.8321
衆惡	-11.8322
色白	-11.8326
時年	-11.8327
▁黄連	-11.8328
外來	-11.833
▁出堂頌	-11.833
張預曰	-11.833
恂	-11.8331
蘋	-11.8331
組	-11.8331
膂	-11.8331
牆	-11.8331
叩齒十二通	-11.8331
救世	-11.8332
遇之	-11.8332
灾害	-11.8333
使氣	-11.8336
侍郞	-11.8337
十倍	-11.8341
此道者	-11.8341
五十七	-11.8342
征伐	-11.8342
列子曰	-11.8343
辟穀	-11.8343
先當	-11.8344
止水	-11.8346
柔和	-11.8347
莫有	-11.8349
得人	-11.835
之過也	-11.835
明真	-11.8351
華夏	-11.8353
大凡	-11.8354
祖劫	-11.8354
水晶	-11.8355
▁九聲	-11.8355
只有	-11.8356
七色	-11.8356
行不言之教	-11.8356
通流	-11.8357
周遊	-11.8358
▁八聲	-11.8359
禮者	-11.836
飛精	-11.836
德化	-11.836
玉名	-11.8361
此兩者	-11.8362
符一道	-11.8363
三行	-11.8364
行此道	-11.8366
靈篇	-11.8369
左宫	-11.8369
火錬	-11.8371
其極	-11.8372
曠然	-11.8372
如之何	-11.8374
真師	-11.8375
里社	-11.8376
今吾	-11.8376
都是	-11.8377
湛湛	-11.8377
初無	-11.8378
雖知	-11.8379
平氣	-11.8379
切以	-11.838
靜黙	-11.8381
大亂	-11.8381
斗訣	-11.8381
發熱	-11.8382
濁者	-11.8382
志云	-11.8383
翼翼	-11.8384
煌	-11.8386
救拔	-11.8386
難得之貨	-11.8387
於道也	-11.8387
趁	-11.8387
劾	-11.8387
掀	-11.8387
牓	-11.8387
茗	-11.8387
経	-11.8387
翺翔	-11.8387
盟誓	-11.8387
旦旦	-11.8387
杳杳冥冥	-11.8387
蓬瀛	-11.8388
子墨子曰	-11.8388
六銖	-11.8388
斡旋	-11.8388
八紘	-11.8389
塵沙	-11.8391
勞神	-11.8392
萬卷	-11.8393
▁右符告下	-11.8395
所不知	-11.8396
於肺	-11.8397
隨身	-11.8399
七變	-11.8403
炁布	-11.8404
應有	-11.8406
理身	-11.841
妙應	-11.8411
坎水	-11.8411
短氣	-11.8411
其政	-11.8412
正南	-11.8414
物來	-11.8415
康寧	-11.8415
精專	-11.8416
箇中	-11.8417
祕呪	-11.8418
曰爾	-11.8421
▁十聲	-11.8421
精粗	-11.8422
味酸	-11.8424
古仙	-11.8424
齋直	-11.8425
精明	-11.8426
南炁	-11.8428
鼓之	-11.8429
聖主	-11.8429
墮於	-11.843
自我	-11.843
幻化	-11.843
无礙	-11.843
萬千	-11.8433
血肉	-11.8434
乘風	-11.8434
玉笈	-11.8434
位居	-11.8436
吹之	-11.8438
無别	-11.844
雷府	-11.8441
五香	-11.8443
砥	-11.8443
抹	-11.8444
灘	-11.8444
鷙	-11.8444
至心歸命	-11.8445
陶鎔	-11.8446
樞紐	-11.8447
超脫	-11.8448
玄範	-11.8449
太微天帝君	-11.8449
是月	-11.8451
如石	-11.8452
成熟	-11.8452
妖孽	-11.8452
九四	-11.8453
上件	-11.8454
粉霜	-11.8456
御製	-11.8456
六位	-11.8456
第十八	-11.8457
執對	-11.8458
天下莫不	-11.8458
民病	-11.846
未審	-11.8463
相待	-11.8463
拜上	-11.8466
所感	-11.8468
而不見其	-11.8468
形軀	-11.8472
蜀郡	-11.8473
爲物所	-11.8474
月精	-11.8474
外應	-11.8474
百壯	-11.8476
服炁	-11.8476
却用	-11.8477
取諸	-11.8477
又音	-11.8477
朱子	-11.8478
目擊	-11.8479
精魂	-11.8479
所稱	-11.848
教授	-11.848
無待	-11.8481
俱是	-11.8481
知之者	-11.8481
失其所	-11.8481
其藥	-11.8482
金章	-11.8484
决定	-11.8484
方爲	-11.8485
有孚	-11.8487
猛烈	-11.8487
奚爲	-11.8489
平王	-11.8489
謹具	-11.849
居民	-11.849
法性	-11.8492
體天尊	-11.8492
水雷	-11.8495
逐物	-11.8496
定光	-11.8496
五緯	-11.8496
象帝之先	-11.8498
太玄都	-11.8498
一動	-11.8498
平常	-11.8499
夢覺	-11.85
隨人	-11.85
頭頭	-11.85
嶠	-11.85
艶	-11.85
儵	-11.85
彝	-11.85
緡	-11.85
醬	-11.85
𤍠	-11.85
目録	-11.85
精嚴	-11.8501
其德乃	-11.8502
無染	-11.8503
謹狀	-11.8503
莫可	-11.8503
秦王	-11.8505
爲一過	-11.8506
北山	-11.8506
仰望	-11.8507
化物	-11.8507
賢士	-11.8508
土運	-11.8508
心有所	-11.8508
以我之	-11.8509
子胥	-11.8509
牛羊	-11.851
六一泥	-11.851
九龍符命	-11.851
出官	-11.851
殃及	-11.8511
於無形	-11.8512
瑩徹	-11.8514
下令	-11.8515
到壇	-11.8515
真誥	-11.8516
無疵	-11.8519
未若	-11.8523
其年	-11.8523
救物	-11.8524
上衝	-11.8525
爲相	-11.8526
物亦	-11.8526
游於	-11.8526
温服	-11.8527
欲望	-11.853
念頭	-11.853
火焚	-11.8531
通利	-11.8532
八靈	-11.8533
天雄	-11.8533
周遍	-11.8533
不逮	-11.8534
五億	-11.8534
普化	-11.8536
急召	-11.8537
十洲	-11.8537
執政	-11.8538
三篇	-11.8539
禍福之	-11.8539
遷善	-11.854
仁愛	-11.8541
繡衣	-11.8542
乗龍	-11.8543
諸天上帝	-11.8544
持念	-11.8546
樓閣	-11.8547
之所欲	-11.8547
釋之	-11.8549
苴	-11.8552
聃	-11.8553
師眞	-11.8553
銅鐵	-11.8554
玉山	-11.8554
方成	-11.8555
陰符經	-11.8556
則致	-11.8557
三捻上香	-11.8557
憍	-11.8557
杼	-11.8557
跟	-11.8557
鐸	-11.8557
鷺	-11.8557
皂莢	-11.8558
須憑	-11.856
輔星	-11.856
道眼	-11.8564
黄中	-11.8564
已知	-11.8564
生之徒	-11.8565
契合	-11.8565
師授	-11.8566
三歲	-11.8566
就某處	-11.8567
道俗	-11.8568
明霞	-11.857
洞鑒	-11.857
不少	-11.857
古聖	-11.8573
差别	-11.8573
仍以	-11.8574
雲軿	-11.8575
聲聲	-11.8577
收捕	-11.8578
者神之	-11.8578
不乆	-11.8578
金氣	-11.8578
不返	-11.858
之名也	-11.858
尊號	-11.858
遠遊	-11.858
内傳	-11.8581
湯下	-11.8582
一切眞靈	-11.8585
心傳	-11.8585
靈威	-11.8585
苦參	-11.8585
佐命	-11.8587
毒氣	-11.8588
諷誦	-11.859
誤也	-11.859
燦爛	-11.8591
皆出	-11.8593
曰善哉	-11.8594
忒	-11.8594
往生	-11.8594
五内	-11.8594
能解	-11.8594
自貴	-11.8595
主録	-11.8595
天后	-11.8595
去地	-11.8596
虛心	-11.8597
喉中	-11.8598
與前	-11.8598
服御	-11.8599
宫商	-11.8601
猶豫	-11.8602
形貌	-11.8604
至陰	-11.8605
眞詮	-11.8606
恐有	-11.8606
神女	-11.8608
百物	-11.8609
引進	-11.8609
詛	-11.8609
皇上帝	-11.861
江淮	-11.8613
所樂	-11.8614
▁聖惠方治	-11.8615
噠	-11.8615
槎	-11.8615
薊	-11.8615
螭	-11.8615
后土皇地祇	-11.8615
縻	-11.8615
舂	-11.8615
豋	-11.8615
醍醐	-11.8615
筏	-11.8615
筴	-11.8615
栝蔞	-11.8615
▁抱一子曰	-11.8615
少室	-11.8616
日再	-11.8616
三百里	-11.8616
不擾	-11.8617
仙童玉女	-11.8617
妄念	-11.8618
丹頭	-11.8619
柴胡	-11.862
老氏之	-11.862
羣眞	-11.862
山精	-11.8624
坤卦	-11.8625
九仙	-11.8626
延齡	-11.8627
歸妹	-11.8627
之味	-11.8629
提點	-11.863
國安民	-11.8631
四十里	-11.8631
石灰	-11.8634
在人身	-11.8634
廣成先生	-11.8634
曾史	-11.8634
數十年	-11.8635
有云	-11.8637
兩脚	-11.8639
六欲	-11.8639
西域	-11.8639
美之	-11.864
閉門	-11.8642
半升	-11.8642
第十九	-11.8642
鼎爐	-11.8643
紫戸	-11.8643
開導	-11.8643
四種	-11.8645
常自	-11.8646
然而然	-11.8648
都監	-11.8649
靈都	-11.865
仙觀	-11.8652
無損	-11.8652
諸獄	-11.8653
破壞	-11.8654
都統	-11.8654
爪甲	-11.8654
使之然	-11.8655
志士	-11.8655
虚危	-11.8656
受書	-11.8657
九族	-11.8657
忘機	-11.8658
藥成	-11.8659
一切諸	-11.8659
百草	-11.8659
小劫	-11.8659
分作	-11.8661
爲根	-11.8662
十七日	-11.8662
天谷	-11.8662
速出	-11.8663
寒則	-11.8664
五十三	-11.8666
爲之使	-11.8668
滌除	-11.8669
色聲	-11.8671
曰予	-11.8671
菩	-11.8672
莫見其	-11.8672
謹封	-11.8672
珏	-11.8673
絆	-11.8673
諍	-11.8673
麄	-11.8673
篡	-11.8673
諌	-11.8673
郵	-11.8673
無極無量品	-11.8673
桐栢	-11.8674
樹下	-11.8674
月餘	-11.8674
實相	-11.8675
五十九	-11.8675
五逆	-11.8676
清酒	-11.8676
美者	-11.8676
色相	-11.8676
以是因縁	-11.8678
▁元始天王曰	-11.8679
肅殺	-11.8684
盗賊	-11.8684
苦樂	-11.8685
皇皇	-11.8685
毁譽	-11.8687
胡粉	-11.8688
得罪	-11.8689
志氣	-11.8689
異矣	-11.8691
散亂	-11.8691
定心	-11.8692
鸞鶴	-11.8695
甚深	-11.8695
五帝直符	-11.8695
毒龍	-11.8696
身退	-11.8697
輔翼	-11.8698
▁元始上帝	-11.8705
土石	-11.8705
傳法	-11.8705
而視之	-11.8706
靈濟	-11.8707
代天師	-11.8707
虚玄	-11.8711
寧海	-11.8712
乞爲	-11.8713
文明	-11.8713
鐶	-11.8713
雷令	-11.8714
西方金	-11.8716
意在	-11.8716
醮詞	-11.8716
南方赤	-11.8716
祥煙	-11.8716
省府	-11.8719
善惡之	-11.872
濟生	-11.8723
諸侯之	-11.8725
天花	-11.8725
隂生	-11.8725
外求	-11.8725
專爲	-11.8727
少壯	-11.8729
坼	-11.873
蘧	-11.873
聽命	-11.8731
陰功	-11.8731
槃	-11.8731
▁藥性論云	-11.8731
𦍙	-11.8731
▁孫眞人備急千金要方卷之	-11.8731
▁道門科範大全集卷之	-11.8731
啇	-11.8731
褥	-11.8731
謌	-11.8731
勛	-11.8731
殽	-11.8731
煬	-11.8731
邸	-11.8731
關尹	-11.8732
▁地仰依	-11.8732
自適	-11.8733
雷霆都司	-11.8733
既成	-11.8733
爲萬物之	-11.8733
聖眾	-11.8733
陶隱居	-11.8733
無虞	-11.8733
千金翼	-11.8733
奚以	-11.8734
五藏六府	-11.8734
吾不知其	-11.8737
目明	-11.8738
旌陽	-11.8738
十九年	-11.874
堯舜之	-11.8744
常常	-11.8744
明夷	-11.8745
咽津	-11.8746
不可食	-11.8746
既知	-11.8747
白髮	-11.8748
勞形	-11.8751
輕易	-11.8752
符水	-11.8752
其弟	-11.8755
安定	-11.8755
不覩	-11.8756
賜號	-11.8756
求諸	-11.8757
仁人	-11.8758
還復	-11.8759
都司	-11.876
道之要	-11.876
投龍	-11.8763
前件	-11.8764
虚明	-11.8765
弱者	-11.8765
年七十	-11.8766
人迎	-11.8766
山人	-11.8767
大義	-11.8767
欲死	-11.8768
冬三月	-11.8769
清炁	-11.877
十絶	-11.8771
罪犯	-11.8771
萬物之母	-11.8771
數萬	-11.8773
到頭	-11.8774
進賢	-11.8775
亦多	-11.8776
玉都	-11.8777
能持	-11.8777
无名	-11.8779
此蓋	-11.8779
殊途	-11.878
稱其	-11.878
黃籙大齋	-11.8782
用黄	-11.8783
則難	-11.8783
元來	-11.8788
堵	-11.8788
四溟	-11.8789
再用	-11.8789
怵	-11.8789
廡	-11.8789
乹	-11.8789
殯	-11.8789
渟	-11.8789
瑠璃	-11.8789
庾	-11.8789
爕	-11.8789
閫	-11.8789
野人	-11.879
肺中	-11.8792
停輪	-11.8796
胎中	-11.8796
範圍	-11.8797
三官大帝	-11.8797
▁日告下	-11.8797
三日三夜	-11.8798
世之所	-11.88
形器	-11.88
一源	-11.8803
立極	-11.8804
治化	-11.8804
▁註夫	-11.8808
而忘其	-11.8809
二十四日	-11.8809
觀察	-11.8809
牽牛	-11.881
逆行	-11.8811
可愛	-11.8813
虚寂	-11.8814
元始上帝	-11.8815
色色	-11.8816
沉滯	-11.8816
常山	-11.8816
瘡上	-11.8817
有敕	-11.8819
又加	-11.8819
甚重	-11.882
宅中	-11.882
況於	-11.8823
此其所以	-11.8824
安置	-11.8825
所制	-11.8828
三神	-11.8829
一塵	-11.883
萬慮	-11.8831
四時五行	-11.8831
無心於	-11.8833
林中	-11.8835
順則	-11.8838
如日月	-11.8838
素書	-11.884
食後	-11.884
肅肅	-11.8842
萬歳	-11.8843
長一丈	-11.8845
楷	-11.8846
眞人道士	-11.8847
▁其三	-11.8847
沬	-11.8848
衾	-11.8848
願以是功德	-11.8848
飜	-11.8848
㳟	-11.8848
:「	-11.8848
喜怒哀樂	-11.8849
童顔	-11.8849
後代	-11.8849
礜石	-11.885
▁右符治	-11.885
第十七	-11.885
勃勃	-11.885
毎日	-11.885
不屈	-11.8853
朱章	-11.8853
不隨	-11.8855
爲不善	-11.8857
靖廬	-11.8858
離乎	-11.8859
酉文	-11.8859
老莊	-11.8861
官府	-11.8864
絶頂	-11.8865
黄籙齋	-11.8868
心肺	-11.887
御曰	-11.8872
七曰	-11.8873
然後知	-11.8873
流景	-11.8873
其味	-11.8877
般般	-11.8877
積氣	-11.8879
之側	-11.888
潔白	-11.888
九層	-11.8882
▁唵吽吽	-11.8883
六炁	-11.8884
形似	-11.8885
可稱	-11.8885
不空	-11.8885
黄鍾	-11.8885
三首	-11.8886
修誦	-11.8886
受用	-11.8887
充盈	-11.8888
無愧	-11.8889
炁聚	-11.889
徒衆	-11.8891
熱毒	-11.8891
于外	-11.8892
乞賜	-11.8893
内修	-11.8893
不還	-11.8895
二十一日	-11.8896
作法	-11.8896
扶風	-11.8896
言說	-11.8901
領仙	-11.8901
雲炁	-11.8902
赫然	-11.8903
礪	-11.8907
陌	-11.8907
滂	-11.8907
滕	-11.8907
摹	-11.8907
芹	-11.8907
葫蘆	-11.8907
瓦礫	-11.8908
甲庚	-11.8908
不固	-11.8909
無崖	-11.8909
相違	-11.891
益生	-11.8911
淡泊	-11.8912
林氏曰	-11.8913
身有光明	-11.8913
八萬四千	-11.8914
百尺	-11.8915
鷄子	-11.8915
位列	-11.8916
自樂	-11.8917
某事	-11.8917
凡俗	-11.8917
召役	-11.8917
鷄鳴	-11.8918
黒炁	-11.8918
通真	-11.8918
天下之事	-11.8921
⬤⬤	-11.8921
黄籙院	-11.8921
神后	-11.8925
名之爲	-11.8925
人主之	-11.8928
郷里	-11.8929
資財	-11.893
青金	-11.8931
得飛仙	-11.8935
三乗	-11.8937
孺子	-11.8937
賊害	-11.8938
無用之	-11.8939
專行	-11.8939
仙真	-11.894
制度	-11.894
萬機	-11.894
陽和	-11.8942
西方白	-11.8942
風起	-11.8943
不同也	-11.8943
長一尺	-11.8946
勑攝	-11.8949
脾中	-11.8949
乆服	-11.8949
於道者	-11.8951
莫知其所	-11.8952
疾疫	-11.8952
物莫能	-11.8953
物化	-11.8954
廟貌	-11.8957
識破	-11.8959
攝魄	-11.8959
分兩	-11.8959
速去	-11.8961
臾	-11.8961
與之爲	-11.8962
所居之	-11.8964
蛙	-11.8965
无邊	-11.8965
孚佑	-11.8966
愉	-11.8966
各還	-11.8967
芸	-11.8967
𧵥	-11.8967
概	-11.8967
邯鄲	-11.8967
郝	-11.8967
劃	-11.8967
慇懃	-11.8967
竝	-11.8967
霓旌	-11.8967
當念	-11.8969
却以	-11.897
左行	-11.8971
苟非	-11.8973
靈氣	-11.8974
禮懴	-11.8974
鬱單	-11.8976
邪道	-11.8976
高仙	-11.8976
則吉	-11.8976
梅堯臣曰	-11.8976
未備	-11.8977
聖教	-11.8982
端拱	-11.8982
相聞	-11.8983
廟在	-11.8984
依前法	-11.8985
所學	-11.8986
六十一	-11.8987
忠良	-11.8989
立便	-11.899
國主	-11.899
徃生	-11.8992
削罪	-11.8994
財寳	-11.8994
斤兩	-11.8995
宫内	-11.9001
不自見	-11.9001
不殊	-11.9002
崑崙之	-11.9003
難於	-11.9006
各得其所	-11.9008
苟不	-11.9008
州郡	-11.9008
原其	-11.9009
請頒	-11.901
之德也	-11.9011
河中	-11.9012
損傷	-11.9013
小吉	-11.9015
令熱	-11.9017
合藥	-11.9017
多欲	-11.9018
而逝	-11.9019
所問	-11.9021
楊朱	-11.9021
歌舞	-11.9022
羊肉	-11.9023
四合	-11.9023
六十二	-11.9024
煉精	-11.9025
鍊炁	-11.9025
五七	-11.9025
節次	-11.9025
一點眞	-11.9026
彗	-11.9027
愕	-11.9027
聶	-11.9027
盎	-11.9027
覿	-11.9027
春夏秋冬	-11.9027
旌旗	-11.9029
外内	-11.9031
三十六人	-11.9031
禮敬	-11.9031
熒惑星	-11.9032
白首	-11.9032
阿膠	-11.9033
長幼	-11.9033
開示	-11.9034
懇禱	-11.9035
校定	-11.9036
莊子所謂	-11.9036
小異	-11.904
尊靈	-11.904
求之於	-11.9041
天地之始	-11.9041
火精	-11.9041
萬物之所	-11.9042
靜靜	-11.9043
是書	-11.9044
青精	-11.9045
困於	-11.9046
以柔	-11.9046
莫大焉	-11.9047
也以此	-11.9048
而問之	-11.9048
勑召	-11.9048
第三十	-11.905
歩罡	-11.905
五過	-11.9051
門門	-11.9051
開天門	-11.9053
司迎	-11.9055
二名	-11.9056
鑒映	-11.9059
自巳	-11.9059
禹餘天	-11.906
扶衰	-11.9061
統兵	-11.9063
酉時	-11.9064
衆經	-11.9064
毒蛇	-11.9067
太宰	-11.907
下教	-11.907
合丹	-11.9071
真人曰	-11.9072
所畏	-11.9073
坐起	-11.9073
者天地之	-11.9073
舍人	-11.9074
來去	-11.9075
偃月	-11.9076
一依	-11.9077
畫一	-11.9078
引領	-11.9078
不禁	-11.9078
敬奉	-11.9079
長夜之	-11.908
靈炁	-11.908
以成其	-11.9082
之常也	-11.9082
天王姓	-11.9083
當存	-11.9084
鄉人	-11.9086
丹竈	-11.9086
廪	-11.9087
磴	-11.9087
孑	-11.9087
盒	-11.9087
瑣	-11.9087
衂	-11.9087
恡	-11.9087
懾	-11.9087
栁	-11.9087
昻	-11.9087
玉門	-11.9088
萬神咸聽	-11.9088
焚化	-11.9089
亞獻	-11.909
之津	-11.9091
出血	-11.9092
碍	-11.9092
昆蟲	-11.9092
倐忽	-11.9094
▁偈曰	-11.9096
不忒	-11.9096
巳亥	-11.9099
持此	-11.9099
屯蒙	-11.91
安得不	-11.91
孟孫	-11.9101
九十九	-11.9102
▁具位臣某	-11.9103
曲垂	-11.9103
得之矣	-11.9106
永固	-11.9107
頂禮	-11.9108
繩墨	-11.9111
誠惶誠恐稽首頓首再拜	-11.9111
下注	-11.9111
戊癸	-11.9112
而無不	-11.9112
羽服	-11.9114
發聲	-11.9115
來歸	-11.9115
諸君丈人	-11.9116
水火相	-11.9117
〇張預曰	-11.9117
照見	-11.9118
哀公	-11.912
而去之	-11.9122
色黑	-11.9122
善念	-11.9122
噀水	-11.9122
年少	-11.9124
丙辛	-11.9125
合并	-11.9126
逆天	-11.9129
取捨	-11.9129
蓬頭	-11.913
靈公	-11.9132
依式	-11.9132
明徹	-11.9132
萬餘	-11.9133
問云	-11.9134
成聖	-11.9135
取人	-11.9135
可食	-11.9136
返形	-11.9136
脾氣	-11.9137
慈俯垂	-11.9138
僖	-11.9139
即須	-11.9139
愛惡	-11.914
仙班	-11.914
流形	-11.914
中皇	-11.914
耳今	-11.9141
總統	-11.9141
演法	-11.9141
而任之	-11.9143
宜服	-11.9144
祀之	-11.9144
秋三月	-11.9146
矛	-11.9147
餉	-11.9147
啜	-11.9148
昉	-11.9148
閡	-11.9148
窪	-11.9148
旒	-11.9148
猾	-11.9148
鼇	-11.9148
喉嚨	-11.9148
升騰	-11.9148
九老仙都	-11.9148
玉隆	-11.9148
貪著	-11.9148
年中	-11.9149
口誦	-11.915
玉英	-11.915
深思	-11.9151
匹配	-11.9151
信矣	-11.9151
天地造化	-11.9151
已具	-11.9152
侍者	-11.9154
發露	-11.9154
天地之中	-11.9155
灌注	-11.9156
葛根	-11.9156
北斗九皇	-11.9158
三丰	-11.9159
盤旋	-11.916
滿散	-11.9161
炷香	-11.9164
驚駭	-11.9164
元始符命	-11.9164
紫芝	-11.9165
夏三月	-11.9166
可與言	-11.9166
不驚	-11.917
内照	-11.9171
二千四百	-11.9171
當生	-11.9174
拘於	-11.9175
湧出	-11.9176
景象	-11.9177
白皮	-11.9178
風塵	-11.9178
攝魂	-11.918
物不能	-11.9181
無瑕	-11.9184
大悲大願	-11.9185
搬	-11.9187
嘉祥	-11.9187
也易曰	-11.9188
齒落	-11.9188
無違	-11.9188
▁(/)	-11.9191
黑暗	-11.9191
將吏兵	-11.9191
經年	-11.9192
羅浮	-11.9192
妙義	-11.9193
交錯	-11.9194
重隂	-11.9194
命籍	-11.9195
火發	-11.9196
必使	-11.9196
之謀	-11.9197
附體	-11.9197
悲哀	-11.9197
不能傷	-11.92
水一斗	-11.92
六趣	-11.92
者氣之	-11.9203
物類	-11.9204
千仞	-11.9204
官君將吏	-11.9205
純白	-11.9205
兩字	-11.9207
爾乃	-11.9208
欹	-11.9209
藕	-11.9209
▁道學當念	-11.9209
讖	-11.9209
隧	-11.9209
攅	-11.9209
飊	-11.9209
𦋇	-11.9209
圖經	-11.9209
無適	-11.9209
生身受度	-11.921
用鉛	-11.9211
不可使	-11.9215
塊然	-11.9215
如泥	-11.9217
不比	-11.9218
止此	-11.9219
寶經	-11.922
每至	-11.922
天地萬物之	-11.9224
遵行	-11.9224
妙門	-11.9224
靑城	-11.9225
還虛	-11.9225
仙界	-11.9226
無所容	-11.9228
以有爲	-11.9228
虚靈	-11.9229
咭	-11.9229
旣無	-11.9231
桃源	-11.9232
以施	-11.9236
至亥	-11.9237
十七年	-11.9239
吕氏曰	-11.9241
奏申	-11.9242
都講	-11.9244
名聲	-11.9246
東方木	-11.9246
聖化	-11.9246
拾遺	-11.9246
不怨	-11.9247
曰夫子	-11.9247
宣和	-11.9249
孟氏	-11.9252
聖人之心	-11.9252
有漏	-11.9253
小豆	-11.9253
億兆	-11.9253
大器	-11.9254
請進	-11.9256
調氣	-11.9256
普告三界	-11.926
推遷	-11.926
五百里	-11.9262
華房	-11.9262
充實	-11.9263
庶物	-11.9264
六轉	-11.9265
濁氣	-11.9265
樂推	-11.9266
千災	-11.9268
𣺌	-11.927
姝	-11.927
瓷	-11.927
糟	-11.927
鞏	-11.927
笞	-11.927
覷	-11.927
逓	-11.927
噬嗑	-11.927
紆	-11.927
烜赫	-11.927
漬之	-11.9271
▁東方八天	-11.9271
正宗	-11.9274
在其中矣	-11.9275
情慾	-11.9276
子之言	-11.9277
不可窮	-11.9279
染著	-11.9279
不可稱	-11.9281
域中	-11.9282
物莫	-11.9284
人之有	-11.9285
霍山	-11.9286
胃管	-11.9289
古來	-11.9289
符告下	-11.9289
滅盡	-11.9292
兩傍	-11.9293
天地之根	-11.9294
城隍司	-11.9294
珍重	-11.9295
直符使者	-11.9295
以爲天下	-11.9296
非義	-11.9298
聞謹狀	-11.9299
煥耀	-11.9299
身亡	-11.93
衆星	-11.9303
五劫	-11.9303
謹謹	-11.9304
四角	-11.9305
沖氣	-11.9305
無辜	-11.9305
九遍	-11.9307
第二十	-11.9309
北帝敕	-11.9309
寅時	-11.9309
親戚	-11.9315
而不失其	-11.9315
從官十	-11.9315
此段	-11.9316
致虚	-11.9317
大禹	-11.9317
先天地生	-11.9319
▁右四味	-11.9321
斗牛	-11.9321
釜中	-11.9322
十四日	-11.9325
各六	-11.9325
變化無窮	-11.9326
五芽	-11.9326
下賤	-11.9327
玉晨君	-11.9328
窮魂	-11.9328
字號計	-11.933
違天	-11.933
出塵	-11.9331
糖	-11.9332
椽	-11.9332
冊	-11.9332
悽	-11.9332
瞰	-11.9332
捺	-11.9332
曦	-11.9332
菓	-11.9332
逄	-11.9332
▁鬳齋云	-11.9332
倩	-11.9332
仁義者	-11.9333
▁右三味	-11.9335
七氣	-11.9336
犀角	-11.9336
修造	-11.9338
洪慈	-11.9339
得解脫	-11.9339
各安	-11.9342
卓中	-11.9343
禮記	-11.9345
月八日	-11.9345
而不止	-11.9347
女官	-11.935
潭洞	-11.9351
火炎	-11.9354
一夜	-11.9354
者不可以	-11.9356
人間之	-11.9358
夫何	-11.9359
子華子	-11.9359
羽翼	-11.9359
未離	-11.9359
内踝	-11.9359
散景	-11.936
招靈	-11.936
虎符	-11.9361
北方水	-11.9362
宋人	-11.9364
味鹹	-11.9364
降世	-11.9364
淳風	-11.9364
震巽	-11.9365
以資	-11.9366
者莫不	-11.9366
申奏	-11.9366
肩吾	-11.9367
知母	-11.9367
進修	-11.9367
又從	-11.937
篇中	-11.9371
四司五帝	-11.9372
西海	-11.9373
事親	-11.9374
▁神仙傳	-11.9376
清潔	-11.9376
周禮	-11.9377
龍車	-11.9378
十二部	-11.9378
由我	-11.9378
臓	-11.9379
炭火	-11.9379
亥子	-11.9379
腸中	-11.938
青霞	-11.938
之甚也	-11.9381
乞降	-11.9385
空歌	-11.9386
永嘉	-11.9386
天厨	-11.9387
願聞其	-11.9387
洞映	-11.9388
之獄	-11.9389
萬般	-11.939
懴罪	-11.939
无妄	-11.939
氣足	-11.9391
開關	-11.9392
睫	-11.9393
蠡	-11.9393
四九	-11.9393
相愛	-11.9394
感而遂通	-11.9394
乃妳女	-11.9394
同覃田	-11.9394
吾牙月堯	-11.9394
安亞乙一	-11.9394
杞	-11.9394
蹠	-11.9394
䙱	-11.9394
庻	-11.9394
顒	-11.9394
▁重刋道藏輯要	-11.9394
禆	-11.9394
褚	-11.9394
諺	-11.9394
鉗	-11.9394
疹	-11.9394
碣	-11.9394
裸	-11.9394
五瓦仰	-11.9394
走哉足	-11.9394
動之死地	-11.9394
内南年	-11.9394
從師	-11.9395
金童玉女	-11.9395
千丈	-11.9395
解形	-11.9395
以充	-11.9396
異物	-11.9396
太衝	-11.9396
自在匠	-11.9398
固不可	-11.9398
寳蓋	-11.94
义赤	-11.94
鶴鳴	-11.94
三丹田	-11.9401
五師	-11.9401
天籟	-11.9401
性性	-11.9403
甚麽	-11.9403
近揆	-11.9404
夫物	-11.9404
四圍	-11.9404
召神	-11.9405
斯民	-11.9406
道院	-11.9407
先天地	-11.9407
拔罪	-11.9408
崇辰	-11.9408
惡惡	-11.9409
石膽	-11.9411
坤宫	-11.9412
服方寸七	-11.9413
發動	-11.9419
祝云	-11.9419
家風	-11.9419
煉成	-11.942
佩符	-11.9421
以避	-11.9422
關元	-11.9422
相侵	-11.9424
苟有	-11.9425
散髮	-11.9426
少頃	-11.9426
壽域	-11.9428
佛法	-11.9429
顯現	-11.9429
大慧	-11.9432
面北	-11.9434
至於此	-11.9435
苦行	-11.9435
常無欲	-11.9437
滑石	-11.9438
清平	-11.9438
貪財	-11.9439
惠王	-11.9439
太淵	-11.944
皇甫	-11.944
節制	-11.944
淮南子	-11.9444
生理	-11.9444
天蓬呪	-11.9446
一千五百	-11.9446
五瘟	-11.9447
追薦	-11.9448
太師	-11.9449
約束	-11.9449
部尚書	-11.9449
自養	-11.945
曲折	-11.9451
慳	-11.9453
語云	-11.9454
昏亂	-11.9455
十六字	-11.9455
九都	-11.9455
舅	-11.9456
𫝊	-11.9456
卜百丙必	-11.9456
古甲九癸	-11.9456
旁排平瓶	-11.9456
草采七	-11.9456
普朴品匹	-11.9456
曹才全	-11.9456
母馬美米	-11.9456
父凡吠	-11.9456
老冷吕	-11.9456
黄華雄賢	-11.9456
儘	-11.9456
滲	-11.9456
甌	-11.9456
蓯蓉	-11.9456
賚	-11.9456
等至心稽首禮	-11.9456
晏子	-11.9456
職司	-11.9457
東丹帝	-11.9457
思三星	-11.9457
亡過某等	-11.9457
坼丑	-11.9457
朱陵火府	-11.9457
八表	-11.9458
痼疾	-11.9459
地獄主者	-11.946
腰脊	-11.946
虚無自然	-11.9461
之墟	-11.9462
光謂	-11.9462
菊花	-11.9464
象天	-11.9465
清寧	-11.9465
三界官屬	-11.9465
宿縁	-11.9467
也若以	-11.9468
遂與	-11.9471
舌下	-11.9472
▁玄師曰	-11.9472
遂致	-11.9474
莊震	-11.9477
便成	-11.9478
貫通	-11.9479
六十五	-11.9479
集福	-11.9479
凡諸	-11.9481
民物	-11.9482
歸家	-11.9486
無所得	-11.9487
問答	-11.9488
如儀	-11.9488
𠃔	-11.9489
衆邪	-11.9489
寺象	-11.949
少微曰	-11.949
赦除	-11.9492
見之者	-11.9492
后妃	-11.9492
忘心	-11.9493
說偈	-11.9495
青黄白	-11.9496
帝師	-11.9496
餘方	-11.9497
綉	-11.9497
乘龍	-11.9498
俱在	-11.9499
皇圖	-11.9502
桃李	-11.9504
執節	-11.9505
精液	-11.9507
始乎	-11.9508
一指	-11.9509
正念	-11.9511
召集	-11.9513
各依	-11.9513
愚昧	-11.9516
渇	-11.9516
入兆	-11.9517
方寸七	-11.9519
訪道	-11.9519
餒	-11.9519
赤衣	-11.9519
鹿犖离	-11.9519
闓	-11.9519
另	-11.9519
爻王寅	-11.9519
臉	-11.9519
萇	-11.9519
揉	-11.9519
畛	-11.9519
眹	-11.9519
鎗	-11.9519
仙化成人	-11.9519
玉帛	-11.9519
死氣	-11.9519
斟酌	-11.952
夫法飛	-11.952
▁西方八天	-11.952
金生水	-11.9522
極樂	-11.9522
慈航	-11.9522
將兵	-11.9525
常令	-11.9525
聖人之所	-11.9529
初起	-11.9531
晃朗	-11.9531
髙皇	-11.9532
洪範	-11.9532
人之身	-11.9534
伏候	-11.9536
太極真人	-11.9537
屬土	-11.9539
隂德	-11.954
善道	-11.9542
速達	-11.9543
九載	-11.9544
道境	-11.9545
上清宫	-11.9547
邪炁	-11.9547
五方五	-11.9547
恬然	-11.9548
愈多	-11.9551
冥官	-11.9551
無縁	-11.9551
養命	-11.9552
太白星	-11.9555
而民不	-11.9555
宫中有	-11.9556
之夕	-11.9556
告之曰	-11.9557
山手	-11.9558
具狀	-11.9558
作丹	-11.9558
之星	-11.9559
干犯	-11.956
一杯	-11.9562
可測	-11.9562
宅直	-11.9562
迴光	-11.9564
惡心	-11.9565
守衛	-11.9567
日月之光	-11.9569
施化	-11.9569
只今	-11.957
短長	-11.9572
長房	-11.9572
生意	-11.9574
本文	-11.9574
鍛	-11.9576
神庭	-11.9577
訊	-11.9577
修行人	-11.9578
方无極飛天	-11.958
北宫	-11.958
都忘	-11.9581
冉	-11.9582
滔	-11.9582
【	-11.9582
㗶	-11.9582
黑花香血	-11.9582
䢖	-11.9582
步白備鼻	-11.9582
闈	-11.9582
寨	-11.9582
燠	-11.9582
湫	-11.9582
螣蛇	-11.9583
曲則全	-11.9583
乾虯	-11.9583
▁北方八天	-11.9584
葛仙翁	-11.9585
威制	-11.9585
懺悔	-11.9585
茶呈	-11.9586
戒行	-11.9587
辟斥	-11.9587
真元	-11.9587
包裹	-11.9588
緑軿	-11.9588
齋心	-11.9588
靈感	-11.9589
獨坐	-11.959
幽寥	-11.9591
得道之後	-11.9592
此竅	-11.9592
田蠶	-11.9592
循理	-11.9594
老少	-11.9596
大易	-11.9597
宜乎	-11.9597
平復	-11.9597
得福	-11.9597
衡山	-11.9598
無勞	-11.96
中田	-11.9601
雷兵	-11.9603
要言	-11.9603
群靈	-11.9603
刺可入同身寸之	-11.9604
集神	-11.9604
皇太子	-11.9605
日觀	-11.9605
諸弟子	-11.9606
向前	-11.9606
百億	-11.9608
吽吽	-11.9608
垂教	-11.9608
七壯	-11.9609
福庭	-11.9613
曰何謂	-11.9614
梵氣	-11.9615
齋修	-11.9615
霞光	-11.9617
飛裙	-11.9617
難明	-11.9618
人之所以	-11.9619
西門	-11.9619
四隅	-11.9621
毫分	-11.9623
黒書	-11.9624
近者	-11.9624
徑路	-11.9626
器物	-11.9626
太妙	-11.9627
邵陽	-11.9627
瓊花	-11.9627
靈妃	-11.9628
臨事	-11.9628
夏月	-11.9628
坤爲	-11.9629
之句	-11.963
並皆	-11.963
悟解	-11.9632
入壇	-11.9632
刑獄	-11.9635
六十八	-11.9636
寒泉	-11.9636
約而	-11.9636
非惟	-11.9637
耗散	-11.964
通變	-11.964
靈寶天尊	-11.9641
嚥氣	-11.9644
正色	-11.9645
聾盲	-11.9645
有喜	-11.9646
文万未	-11.9646
目貌眉民	-11.9646
瞞	-11.9646
緜	-11.9646
芟	-11.9646
瘍	-11.9646
𨇠	-11.9646
圉	-11.9646
梧桐	-11.9646
現於	-11.9647
小畜	-11.9648
▁司額	-11.9648
朝朝	-11.9649
烹鍊	-11.9649
能容	-11.9649
祖玄	-11.965
旡咎	-11.965
一日一夜	-11.965
形勢	-11.9651
黒簿	-11.9651
玉陛	-11.9652
五帝大魔	-11.9653
感激	-11.9653
紫精	-11.9654
夜卧	-11.9656
〇杜牧曰	-11.9657
降聖	-11.9657
出户	-11.9657
旣已	-11.9657
安然	-11.9658
冬月	-11.9658
臭穢	-11.9658
則無不	-11.966
禱祈	-11.966
山石	-11.966
三十過	-11.966
奏啓	-11.9661
愛憎	-11.9663
中有神	-11.9667
曹局	-11.9668
雲雷	-11.9669
紫宫	-11.967
玉衡	-11.9671
丹光	-11.9673
天羅	-11.9673
欣欣	-11.9674
者心也	-11.9675
若有衆生	-11.9675
被其	-11.9675
禍害	-11.9676
妄心	-11.968
勞心	-11.9684
清清	-11.9684
吾欲	-11.9686
屬木	-11.9687
得度世	-11.9687
十丈	-11.9687
兩間	-11.9687
誦是經	-11.9689
經訣	-11.969
不過三	-11.9691
姓字	-11.9692
山頂	-11.9693
三條	-11.9694
▁之者	-11.9694
風澤	-11.9696
防己	-11.9696
厚德	-11.9696
衆皆	-11.9697
香烟	-11.9697
琴瑟	-11.9698
炎上	-11.9698
▁太上靈寳	-11.9703
化為	-11.9707
妙處	-11.9708
茨	-11.971
灣	-11.971
緝	-11.971
酪	-11.971
濬	-11.971
肋	-11.971
苖	-11.971
濠	-11.971
腳	-11.971
醖	-11.971
閎	-11.971
憇	-11.971
蕆	-11.971
】	-11.971
從道	-11.9711
金馬	-11.9711
▁日具位	-11.9711
同登	-11.9711
改過	-11.9711
崔本作	-11.9712
▁南方八天	-11.9712
本法	-11.9712
開發	-11.9715
藥石	-11.9715
字伯	-11.9716
斬馘	-11.9716
靜夜	-11.9719
憂樂	-11.9719
人不識	-11.972
無物不	-11.9721
漿水	-11.9721
海空智藏	-11.9723
山海經	-11.9725
侵害	-11.9725
不得與	-11.9726
亦有之	-11.9727
藏形	-11.9727
皆不得	-11.9729
岐伯	-11.973
而不動	-11.973
七十一	-11.973
具有	-11.9731
宰制	-11.9731
卦象	-11.9735
忘身	-11.9735
洪波	-11.9735
信受	-11.9736
者不過	-11.9736
瑶壇	-11.9737
自信	-11.9737
金關	-11.974
聲名	-11.9741
深可	-11.9741
奉送	-11.9746
靈濟宫	-11.9747
華光	-11.9751
微明	-11.9752
口傳	-11.9754
青繒	-11.9754
未曽	-11.9755
覆地	-11.9756
陽雷	-11.9758
本元	-11.9765
取法	-11.9766
相國	-11.9767
俛	-11.9767
其禍	-11.977
辰時	-11.9772
總攝	-11.9772
純素	-11.9772
然後可	-11.9773
動静	-11.9773
厥後	-11.9775
槍	-11.9775
泰玄都省	-11.9775
盱	-11.9775
揩	-11.9775
柩	-11.9775
糝	-11.9775
薈	-11.9775
虵	-11.9775
孜孜	-11.9775
自今以去	-11.9775
浮空而來	-11.9776
靈虚	-11.9776
省悟	-11.9777
善利	-11.9777
貞觀	-11.9778
六慾	-11.9779
〇王皙曰	-11.9779
體道者	-11.978
亡身	-11.978
凝精	-11.978
心目	-11.9781
郭璞	-11.9784
天下莫	-11.9786
黃婆	-11.9786
華林	-11.9787
奉法	-11.9788
公孫龍	-11.9788
淪於	-11.9788
心識	-11.9789
嘔吐	-11.9791
殺身	-11.9792
心術	-11.9793
真火	-11.9794
太㣲	-11.9795
拯救	-11.9795
營衞	-11.9796
靈司	-11.9801
得喪	-11.9802
保固	-11.9802
黄寧	-11.9804
拔宅	-11.9804
雲散	-11.9805
語默	-11.9805
須延	-11.9807
齎持	-11.9808
何暇	-11.9808
玉册	-11.9808
常思	-11.9812
講說	-11.9812
來世	-11.9816
集註	-11.9818
房室	-11.9819
乆視	-11.982
楊君	-11.982
此一句	-11.9821
盡力	-11.9822
不可解	-11.9822
玄綱	-11.9823
度仙	-11.9824
忘功	-11.9825
千靈	-11.9826
金庭	-11.9826
文始	-11.9827
亥時	-11.9829
度人無量	-11.9829
正一功曹	-11.9829
授子	-11.983
龍芽	-11.9831
夀命	-11.9834
悲哉	-11.9835
拄	-11.9839
坤巧丘弃	-11.984
壊	-11.984
思之還反真形	-11.984
藐	-11.984
▁靈寳領教濟度金書卷之一百	-11.984
譙	-11.984
佈	-11.984
須至牒者	-11.984
攢簇	-11.984
朴硝	-11.9841
舜之	-11.9842
遐邇	-11.9842
經綸	-11.9844
有驗	-11.9844
張弓	-11.9845
閑居	-11.9846
擬議	-11.9846
臣等皈身皈神皈命首體投	-11.9848
有形者	-11.9849
准此	-11.9851
議論	-11.9851
來詣	-11.9852
頑空	-11.9853
二十四神	-11.9854
和柔	-11.9854
契道	-11.9856
朝宗	-11.9858
未央	-11.9859
始分	-11.9859
無分别	-11.9861
云爾	-11.9865
寂靜	-11.9866
梅花	-11.9867
化應聲天	-11.9868
身中之	-11.9868
純熟	-11.9868
魔障	-11.9868
缺盆	-11.987
尺五寸	-11.9871
助吾	-11.9871
四卦	-11.9874
匠石	-11.9875
登真	-11.9875
永安	-11.9877
註云	-11.9877
相近	-11.988
物命	-11.9881
帝位	-11.9882
四轉	-11.9882
死罪	-11.9884
通徹	-11.9886
刺史	-11.9889
秘法	-11.9889
總監	-11.9892
天下之物	-11.9892
幽都	-11.9892
傷性	-11.9893
入泥丸	-11.9893
魈	-11.9893
鸞鳳	-11.9897
誠信	-11.9898
除害	-11.9898
昇平	-11.9899
何勞	-11.99
火官	-11.9903
金輪	-11.9904
軻	-11.9905
曁	-11.9905
証	-11.9905
鍚	-11.9905
億曽萬祖	-11.9905
殂	-11.9905
魁𩲃𩵄䰢魓𩳐魒	-11.9905
踊躍	-11.9906
驅邪院	-11.9906
嚴裝	-11.9908
▁太歲年月日	-11.9908
凌空	-11.9908
輜重	-11.9909
相依	-11.9911
尤甚	-11.9912
聽之不聞	-11.9912
驚恐	-11.9913
者多矣	-11.9913
忿怒	-11.9914
祕文	-11.9914
玄覽	-11.9914
帝力	-11.9915
伐惡	-11.9915
不可以爲	-11.9915
聽吾	-11.9916
再生	-11.9916
漢武	-11.9917
弼星	-11.9918
先服	-11.9919
波濤	-11.992
烟霞	-11.992
紫㣲	-11.9921
孔氏	-11.9921
緒餘	-11.9921
殄滅	-11.9923
鍊精	-11.9924
四十九日	-11.9928
吞下	-11.9929
顯化	-11.9929
不足故	-11.9929
子貢曰	-11.9929
六甲六丁	-11.993
主攝	-11.993
斗府	-11.9931
朱陽	-11.9932
欽承	-11.9932
不迷	-11.9933
如愚	-11.9933
品格	-11.9933
役役	-11.9935
赤松	-11.9936
士石	-11.9936
結就	-11.9937
五代	-11.9937
吏民	-11.9937
人見之	-11.9943
當思	-11.9943
不出户	-11.9944
三指	-11.9946
▁右呪	-11.9946
玉爐	-11.9947
本命元辰	-11.9947
田野	-11.9948
一百五十	-11.995
金口	-11.995
普度天人	-11.9951
澹然	-11.9952
倣此	-11.9952
致柔	-11.9953
治病功曹	-11.9953
晨昏	-11.9954
未足以	-11.9955
直待	-11.9956
頒降	-11.9956
仁宗	-11.9957
靈液	-11.9958
違科	-11.9958
明旦	-11.9958
天台山	-11.996
甚難	-11.996
龍蟠	-11.9962
玉庭	-11.9962
日夕	-11.9963
他方	-11.9965
姹	-11.9966
九微	-11.9966
落死	-11.9966
乙庚	-11.9966
根深	-11.9968
年八十	-11.997
蕤	-11.9971
湊	-11.9971
癭	-11.9971
趎	-11.9971
删	-11.9971
嚤	-11.9971
合屬去處	-11.9971
藜蘆	-11.9971
虚妄	-11.9971
實實	-11.9973
以防	-11.9975
不生不滅	-11.9975
開壇	-11.9975
者物之	-11.9975
天廷	-11.9976
皆有之	-11.9978
由此觀之	-11.9979
抑亦	-11.998
天地水三官	-11.998
畢即	-11.998
景福	-11.9981
養七日	-11.9984
三五功曹	-11.9985
先身	-11.9987
紫陽眞人	-11.9989
東流	-11.9989
行步	-11.999
夫道者	-11.999
繫於	-11.9993
六十六	-11.9994
八尺	-11.9994
殺機	-11.9995
鬱秀	-11.9995
發狂	-11.9995
俱化	-11.9996
聽令	-11.9996
病患	-11.9997
宿對	-11.9997
靈關	-11.9998
黑書	-11.9998
葱白	-11.9998
妙體	-11.9999
更加	-11.9999
中宮	-12.0001
寶珠	-12.0004
四十尺	-12.0005
相會	-12.0007
無垠	-12.001
萬𩔖	-12.0013
大帥	-12.0016
眾人	-12.0018
儒家	-12.002
遊戲	-12.002
天災	-12.0021
其生也	-12.0021
五苦八難	-12.0023
高聖	-12.0023
之生也	-12.0026
轉轉	-12.0026
再入	-12.0027
無慮	-12.0027
𣲖	-12.0028
假如	-12.0028
聖知	-12.003
之力也	-12.003
兕	-12.0032
九河	-12.0032
瑞應	-12.0032
楚之	-12.0033
飛行上清	-12.0034
仰荷	-12.0035
已前	-12.0036
惜乎	-12.0036
能如是	-12.0036
鯢	-12.0037
武晩尾	-12.0037
隷	-12.0037
驀	-12.0037
䆫	-12.0037
廽	-12.0037
忮	-12.0037
蠧	-12.0037
蹲	-12.0037
帆	-12.0037
駁	-12.0037
叩齒七通	-12.0037
四極明科	-12.0038
▁陳藏器云	-12.0038
至午	-12.0038
豪傑	-12.0038
毛羽	-12.0038
▁上清靈寳大法	-12.0039
其質	-12.0041
肉人	-12.0041
默運	-12.0041
俯賜	-12.0045
不漏	-12.0045
誠意	-12.0047
侍女	-12.0051
全德	-12.0052
相公	-12.0053
入海	-12.0053
若是者	-12.0055
靜極	-12.0055
按摩	-12.0055
鐵面	-12.0056
大有之	-12.0056
可保	-12.0058
北極紫微大帝	-12.0059
衆人之所	-12.0059
其巧	-12.0061
上境	-12.0061
易遷	-12.0063
拘制	-12.0064
炁入符	-12.0065
十二時中	-12.0066
妙相	-12.0066
惡星	-12.0066
願念	-12.0066
心齋	-12.0068
和暢	-12.0069
▁聚形	-12.0069
不屬	-12.0071
轟雷	-12.0072
七十三	-12.0072
古本	-12.0074
稱慶	-12.0076
良由	-12.0076
被髮	-12.0076
萬形	-12.0077
三千三百	-12.0078
改易	-12.0078
雷君	-12.0079
常然	-12.0079
申時	-12.008
萬乗	-12.008
鎚	-12.0081
天地根	-12.0081
飛光	-12.0082
自持	-12.0083
仙録	-12.0086
月日時	-12.0086
煩熱	-12.0088
爲末以	-12.0088
危險	-12.0088
一而已	-12.0089
親愛	-12.0092
開花	-12.0092
柔弱者	-12.0092
乾汞	-12.0092
延長	-12.0093
常寂	-12.0094
隨符	-12.0094
妖怪	-12.0095
東宫	-12.0096
昔在	-12.0096
萬物之理	-12.0099
萬惡	-12.01
幾乎	-12.0102
𩵄	-12.0104
湍	-12.0104
璨	-12.0104
逋	-12.0104
鷗	-12.0104
店	-12.0104
覈	-12.0104
▁王元澤曰	-12.0104
亷	-12.0104
不敢爲天下先	-12.0104
七宿星君	-12.0107
三枚	-12.0107
削除	-12.0108
一里	-12.0108
張道陵	-12.0108
一十三	-12.0108
不遵	-12.0109
有奇	-12.0109
混合百神	-12.0109
年壽	-12.0111
當依	-12.0112
家家	-12.0113
黄紙朱書	-12.0115
無形無名	-12.0115
事無事	-12.0117
莫教	-12.0117
洞隂	-12.0118
天地陰陽	-12.0122
萬種	-12.0123
滯爽	-12.0124
要當	-12.0125
本州	-12.0127
離道	-12.0129
淵源	-12.0131
甘鍋	-12.0131
玄祖	-12.0132
節度使	-12.0133
▁道言夫	-12.0134
温無毒主	-12.0135
夫至人	-12.0136
侍座	-12.0138
兩箇	-12.0139
平正	-12.014
景公	-12.014
江水	-12.014
木精	-12.0143
淸虛	-12.0143
之所不能	-12.0143
非止	-12.0143
往還	-12.0144
累世	-12.0144
香味	-12.0146
脚氣	-12.0146
餘年	-12.0146
狂風	-12.0146
彼且	-12.0148
度死	-12.0149
係於	-12.015
齊并	-12.0151
本願	-12.0151
所薦亡	-12.0151
㕮咀以	-12.0151
南陵	-12.0153
萬帝	-12.0154
便當	-12.0154
為主	-12.0155
所以成	-12.0156
非常道	-12.0156
莖葉	-12.0159
猶能	-12.016
更始	-12.0161
黎庶	-12.0161
逆流	-12.0161
務令	-12.0162
大造	-12.0163
學眞	-12.0164
焚燒	-12.0166
天上天下	-12.0166
玉兔	-12.0167
題曰	-12.0167
赭	-12.0168
相資	-12.0171
復始	-12.0171
𨚫	-12.0171
逭	-12.0171
鍜	-12.0171
愠	-12.0171
綾	-12.0171
閟	-12.0171
霹𩆝	-12.0171
騐	-12.0171
扆	-12.0171
朶	-12.0171
黛	-12.0171
七日七夜	-12.0171
醮官某	-12.0172
五靈玄老	-12.0172
惡趣	-12.0173
墨翟	-12.0173
通感	-12.0173
冷熱	-12.0173
建功	-12.0174
錦繡	-12.0174
也此言	-12.0176
速達俓	-12.0176
醮謝	-12.0177
五十八	-12.0178
之子也	-12.0178
庵曰	-12.0179
于前	-12.0179
飛天神人	-12.018
六十甲子	-12.018
嘔逆	-12.018
自致	-12.018
補益	-12.0181
攝炁	-12.0182
讀經	-12.0182
謁帝	-12.0186
之虞	-12.0186
自責	-12.0186
端嚴	-12.0186
蓋言	-12.0188
留連	-12.0188
眼目	-12.019
傳付	-12.0191
某官	-12.0192
隂靈	-12.0193
思量	-12.0194
江州	-12.0194
仙樂	-12.0194
巽風	-12.0196
過咎	-12.0197
積累	-12.0197
王屋山	-12.0197
大矣哉	-12.0197
頂中	-12.0198
無所不通	-12.0201
口吹	-12.0201
居焉	-12.0202
聖像	-12.0202
獨居	-12.0203
足少陽	-12.0203
玄樞	-12.0205
丹基	-12.0205
絶句	-12.0207
三等	-12.0207
不時	-12.0208
分離	-12.0208
子房	-12.0208
口乾	-12.0211
旣知	-12.0212
胡不	-12.0212
重念	-12.0214
朱表	-12.0217
龍山	-12.022
雲光	-12.022
誅斬	-12.0221
去離	-12.0224
既生	-12.0224
文彩	-12.0224
消盡	-12.0225
茱萸	-12.0227
奉承	-12.0228
不知所在	-12.0229
受籙	-12.0231
以助	-12.0232
胡爲	-12.0232
斷穀	-12.0232
雖云	-12.0232
肝中	-12.0234
名香	-12.0234
齊物	-12.0234
和順	-12.0235
德充	-12.0235
誰與	-12.0236
五指	-12.0236
益壽	-12.0237
䰢	-12.0238
倖	-12.0238
飼	-12.0238
弈	-12.0238
簮	-12.0238
蹴	-12.0238
寘	-12.0238
摭	-12.0238
撚	-12.0238
燋	-12.0238
荘	-12.0238
複	-12.0238
邢	-12.0238
騷	-12.0238
▁歸命信禮	-12.0238
懴主某	-12.0239
無名之樸	-12.0239
混而爲一	-12.0239
亦如是	-12.0239
鮑叔	-12.024
冠服	-12.024
悔吝	-12.024
纒綿	-12.0242
雷使者	-12.0243
特垂	-12.0243
密呪	-12.0245
心懷	-12.0245
回旋	-12.0246
何縁	-12.0247
商賈	-12.0247
將帥	-12.0247
整肅	-12.0247
不可執	-12.0247
玉律	-12.0248
▁具位奉行	-12.0248
翰林	-12.025
三錢	-12.0252
成器	-12.0252
以天下爲	-12.0255
上京	-12.0256
火裏	-12.0256
長三尺	-12.0256
繩繩	-12.0257
博士	-12.0258
緩急	-12.0259
吾嘗	-12.0259
前導	-12.0259
▁又呪	-12.026
相引	-12.0261
暴乾	-12.0261
由是觀之	-12.0261
▁牒請	-12.0261
關召	-12.0262
甘美	-12.0264
九孔	-12.0267
福善	-12.0268
帝真	-12.0268
之所致也	-12.0268
異哉	-12.0269
卒子	-12.0269
鼻引	-12.0271
天津	-12.0271
降炁	-12.0272
惠子曰	-12.0272
部衞	-12.0272
之階	-12.0275
無擇	-12.0275
二十五日	-12.0276
清醮	-12.0276
偷盜	-12.0276
穴中	-12.0277
殿宇	-12.0278
召見	-12.0278
不足爲	-12.0278
衛氣	-12.028
嗔怒	-12.0281
也莊子曰	-12.0281
所臨	-12.0281
陰魄	-12.0282
▁得而	-12.0283
官職	-12.0283
感化	-12.0283
甘泉	-12.0284
寸二分	-12.0285
打坐	-12.0286
父老	-12.0286
伯樂	-12.0288
須彌	-12.0289
也及其	-12.029
下焦	-12.0292
出戸	-12.0292
顯靈	-12.0294
隂年	-12.0294
含元	-12.0296
不美	-12.0297
▁聖慈允	-12.0298
慈雲	-12.0299
彙	-12.03
曰敢問	-12.0301
之所自然生金液丹碧	-12.0306
嚧	-12.0306
慟	-12.0306
撤	-12.0306
囬	-12.0306
絪緼	-12.0306
螢	-12.0306
非是愛吟詩	-12.0306
侶	-12.0306
淄	-12.0306
生天生地	-12.0307
士大夫	-12.0307
疾厄	-12.0309
田疇	-12.0313
外事	-12.0313
每遇	-12.0313
擇日	-12.0313
均平	-12.0314
資始	-12.0315
金鈕	-12.0316
細剉	-12.0317
常情	-12.0317
祖父	-12.0318
應機	-12.0318
天竺	-12.0318
九天丈人	-12.032
後天之	-12.0322
若驚	-12.0322
禮師	-12.0324
安民	-12.0324
玉眸	-12.0325
波羅	-12.0327
身披	-12.0328
咸通	-12.0329
凡愚	-12.033
罔象	-12.0332
放蕩	-12.0333
氣不足	-12.0335
千萬人	-12.0335
墠	-12.0335
兒女	-12.0336
災凶	-12.0338
黄丹	-12.0339
色身	-12.0341
眞珠	-12.0342
門弟子	-12.0345
劒訣	-12.0347
日夜半	-12.0347
香官	-12.0348
朝奏	-12.0348
器用	-12.035
▁聖威	-12.0351
▁酆都山	-12.0352
監壇	-12.0352
能消	-12.0354
少微	-12.0355
使者符	-12.0355
有道之	-12.0357
刑名	-12.0358
表白	-12.0358
治婦人	-12.0358
十干	-12.0361
白公	-12.0363
殺傷	-12.0364
▁天尊告	-12.0367
現身	-12.0371
求利	-12.0372
即差	-12.0372
猖	-12.0374
二丈	-12.0375
瑰	-12.0375
啗	-12.0375
廖	-12.0375
瑜	-12.0375
堊	-12.0375
屐	-12.0375
悛	-12.0375
邠	-12.0375
之性也	-12.0375
蒞	-12.0375
最難	-12.0375
罵詈	-12.0375
棺槨	-12.0375
轉經行道	-12.0378
后稷	-12.0378
罪消滅	-12.0378
梵炁天君	-12.0379
二十丸	-12.0379
動動	-12.038
石榴	-12.038
日久	-12.0381
洞源	-12.0382
蜜和	-12.0383
主吏	-12.0384
三千五百	-12.0385
穆公	-12.0387
童蒙	-12.0387
懷胎	-12.0388
抱道	-12.039
𡨚愆	-12.0391
辰文	-12.0391
杜仲	-12.0393
飛霄	-12.0394
合而成	-12.0396
旋轉	-12.0396
六戊	-12.0397
乘空	-12.0398
火焰	-12.0399
老死	-12.0399
坤元	-12.0399
其中有精	-12.04
遠行	-12.0402
恢恢	-12.0404
必有所	-12.0405
飽滿	-12.0406
勇者	-12.0406
百五十	-12.0406
波流	-12.0407
負石	-12.0407
驚懼	-12.0408
從善	-12.0408
詐僞	-12.0408
與弟子	-12.0409
金格	-12.0409
之謂歟	-12.0409
有慶	-12.0409
難尋	-12.041
[...]
