<unk>	0
<s>	0
</s>	0
▁	-2.81257
之	-4.39215
而	-4.85532
)	-5.01642
/	-5.04363
以	-5.09747
也	-5.24308
(	-5.25034
有	-5.38202
為	-5.43359
其	-5.44521
者	-5.54214
於	-5.54976
不	-5.64864
人	-5.72046
一	-5.79845
無	-5.93017
▁(	-5.94958
則	-6.01199
自	-6.02261
公	-6.07098
與	-6.10177
如	-6.12827
曰	-6.16366
中	-6.21489
上	-6.2152
時	-6.22547
行	-6.23633
子	-6.24672
大	-6.30376
得	-6.31874
在	-6.32392
作	-6.32739
天	-6.358
見	-6.36146
此	-6.36357
書	-6.369
生	-6.37837
事	-6.40855
山	-6.421
文	-6.46745
是	-6.47133
言	-6.4774
日	-6.49414
君	-6.49424
至	-6.49889
出	-6.52556
所	-6.52701
下	-6.53393
詩	-6.5377
心	-6.55025
道	-6.56511
于	-6.56687
故	-6.57338
亦	-6.58574
三	-6.59875
爲	-6.60038
知	-6.60475
矣	-6.61224
又	-6.62756
可	-6.62824
長	-6.6308
我	-6.63822
已	-6.64163
明	-6.64296
來	-6.65219
王	-6.66042
非	-6.66205
乎	-6.66469
同	-6.66993
歸	-6.67141
今	-6.68462
水	-6.69202
然	-6.69891
相	-6.70265
/)	-6.70566
皆	-6.71389
成	-6.72908
多	-6.7298
若	-6.73453
風	-6.73494
入	-6.7363
名	-6.75248
後	-6.75341
兮	-6.75661
去	-6.75669
欲	-6.76453
方	-6.76544
當	-6.78979
復	-6.81475
乃	-6.81501
用	-6.83337
春	-6.83873
將	-6.84036
官	-6.84659
使	-6.84865
未	-6.84906
臣	-6.84955
重	-6.85045
雲	-6.86778
正	-6.87496
前	-6.8971
傳	-6.90079
及	-6.90623
清	-6.93594
逺	-6.94581
何	-6.94749
二	-6.94976
過	-6.95349
從	-6.95836
焉	-6.96336
花	-6.97115
家	-6.9806
雖	-6.9863
云	-6.98996
思	-6.99805
能	-6.99852
聞	-6.99905
地	-7.00341
深	-7.01396
石	-7.01546
盡	-7.02583
且	-7.03593
新	-7.03931
意	-7.04081
惟	-7.04347
字	-7.05397
或	-7.06236
髙	-7.06498
老	-7.06932
學	-7.08969
先	-7.0917
月	-7.09177
分	-7.0947
吾	-7.09756
初	-7.09804
空	-7.10705
世	-7.11696
元	-7.11697
開	-7.11916
安	-7.12476
更	-7.12529
居	-7.12594
金	-7.12948
因	-7.14217
猶	-7.14584
古	-7.15011
望	-7.15092
聲	-7.15289
小	-7.16284
謂	-7.16541
即	-7.17417
秋	-7.1777
處	-7.17925
玉	-7.18296
令	-7.18322
既	-7.18615
還	-7.18894
必	-7.19564
四	-7.20052
南	-7.20094
起	-7.20113
命	-7.20198
應	-7.20577
夫	-7.20859
民	-7.21503
獨	-7.21814
難	-7.2226
平	-7.22383
實	-7.23268
觀	-7.23344
樂	-7.23868
身	-7.24477
本	-7.24593
五	-7.25456
間	-7.25833
外	-7.26433
白	-7.266
門	-7.26676
問	-7.27152
遂	-7.2723
州	-7.27866
朝	-7.27933
兵	-7.28866
西	-7.29186
經	-7.29283
陳	-7.29313
國	-7.30038
神	-7.30384
通	-7.30387
寒	-7.30573
流	-7.31396
始	-7.31848
立	-7.31899
論	-7.31991
常	-7.32034
師	-7.32107
好	-7.32295
徳	-7.3231
客	-7.32509
數	-7.33302
馬	-7.33425
守	-7.33529
東	-7.33666
光	-7.33843
氣	-7.34244
少	-7.34359
合	-7.34385
兩	-7.34603
尚	-7.3462
先生	-7.34633
賦	-7.3471
發	-7.34961
雨	-7.35728
張	-7.36095
善	-7.36241
近	-7.36504
和	-7.36615
飛	-7.37382
舊	-7.38534
諸	-7.38933
情	-7.39003
士	-7.39268
取	-7.39558
易	-7.39914
周	-7.40114
法	-7.40133
志	-7.4047
夜	-7.40815
酒	-7.40981
禮	-7.41306
語	-7.41504
江	-7.42962
舉	-7.43716
予	-7.44286
路	-7.44687
似	-7.44767
爾	-7.44808
城	-7.44831
稱	-7.44936
歌	-7.45043
年	-7.45743
集	-7.45998
漢	-7.46227
坐	-7.47157
定	-7.47564
哉	-7.48564
莫	-7.48766
興	-7.48771
求	-7.49072
死	-7.49263
林	-7.49457
義	-7.49611
龍	-7.50418
信	-7.50425
圖	-7.50991
真	-7.51208
香	-7.51287
李	-7.51492
耳	-7.52166
别	-7.52186
進	-7.53809
余	-7.54455
親	-7.54563
宜	-7.54948
黄	-7.55173
物	-7.55492
辭	-7.56142
共	-7.56375
九	-7.57083
向	-7.57281
等	-7.57578
益	-7.58409
直	-7.58527
六	-7.59043
華	-7.59479
節	-7.59522
甚	-7.59583
北	-7.60543
動	-7.6077
海	-7.61005
不可	-7.61063
力	-7.61506
餘	-7.61559
請	-7.6175
巳	-7.61796
理	-7.62314
㑹	-7.62604
一作	-7.62705
絶	-7.62969
不能	-7.63422
記	-7.638
樹	-7.64235
雪	-7.64259
治	-7.64905
終	-7.65074
遊	-7.65175
天下	-7.65315
青	-7.65432
内	-7.65692
以為	-7.65952
賢	-7.66058
異	-7.66533
喜	-7.66675
豈	-7.6668
足	-7.66809
登	-7.67078
陽	-7.67435
度	-7.67486
到	-7.67559
高	-7.67598
留	-7.67728
對	-7.67799
食	-7.68035
滿	-7.68084
竹	-7.68463
任	-7.68706
色	-7.68737
臨	-7.68851
固	-7.68862
田	-7.69173
奉	-7.69448
輕	-7.70331
衣	-7.71209
草	-7.71587
寄	-7.71723
唐	-7.7194
著	-7.7323
顧	-7.73506
功	-7.73536
落	-7.73689
堂	-7.73736
制	-7.73865
病	-7.74319
百	-7.74416
曲	-7.74591
看	-7.74692
縣	-7.74754
景	-7.74851
氏	-7.75316
載	-7.7546
致	-7.75578
萬	-7.75627
失	-7.75724
某	-7.75759
序	-7.7597
齊	-7.75978
修	-7.76172
服	-7.76207
衆	-7.76587
聖	-7.77115
才	-7.77126
隨	-7.77177
宫	-7.77338
女	-7.78296
德	-7.78821
彼	-7.79172
勝	-7.79197
章	-7.79326
主	-7.79327
愁	-7.79398
封	-7.7944
誠	-7.79949
亂	-7.79959
宋	-7.80205
来	-7.80339
首	-7.80397
韻	-7.80533
畫	-7.80724
教	-7.80975
閒	-7.81509
靈	-7.81696
軍	-7.82476
幸	-7.825
宗	-7.82515
懐	-7.8276
武	-7.82997
次	-7.8316
斯	-7.83394
十	-7.83453
都	-7.83504
紅	-7.83907
素	-7.8391
窮	-7.84226
帝	-7.84242
受	-7.84311
解	-7.8441
手	-7.84459
奏	-7.84911
頭	-7.84971
秦	-7.84991
久	-7.8503
幽	-7.85054
政	-7.8509
而不	-7.85505
交	-7.85539
府	-7.85785
卒	-7.85875
謝	-7.86018
兼	-7.86027
念	-7.8617
容	-7.8634
夢	-7.86481
嘗	-7.86677
誰	-7.86943
所以	-7.8702
凡	-7.87133
郡	-7.87333
散	-7.87874
便	-7.87892
各	-7.87953
識	-7.88109
視	-7.8814
承	-7.88193
轉	-7.88692
半	-7.8929
表	-7.89298
不知	-7.89386
詞	-7.89442
愛	-7.89478
極	-7.89513
屬	-7.89533
伯	-7.89907
野	-7.89936
父	-7.89952
驚	-7.89988
比	-7.90056
期	-7.90142
劉	-7.90546
仁	-7.90884
寺	-7.90901
侯	-7.91024
疑	-7.91167
體	-7.91254
河	-7.91278
魚	-7.91677
孤	-7.91796
廣	-7.91863
良	-7.91936
送	-7.91946
葉	-7.91997
連	-7.92091
隂	-7.92278
吏	-7.9245
垂	-7.92457
引	-7.92653
許	-7.93124
止	-7.93899
車	-7.94093
照	-7.94141
音	-7.94238
仙	-7.9427
溪	-7.94294
報	-7.9438
句	-7.94389
願	-7.9447
議	-7.94747
感	-7.94994
化	-7.94999
微	-7.95292
木	-7.95507
臺	-7.957
遺	-7.95775
要	-7.95957
除	-7.96079
母	-7.96547
計	-7.96681
扵	-7.96704
休	-7.96729
亭	-7.96805
八	-7.96845
聽	-7.97043
土	-7.9722
泉	-7.97276
醉	-7.97326
贈	-7.97748
貴	-7.97968
孫	-7.98113
存	-7.98255
口	-7.98664
再	-7.98783
忽	-7.98977
變	-7.99074
寧	-7.99219
美	-7.99326
夏	-7.99443
嚴	-7.99525
苦	-7.99582
嵗	-7.99738
却	-7.99998
適	-8.00026
由	-8.00032
目	-8.00352
徒	-8.00428
星	-8.00751
俱	-8.00774
憂	-8.01175
賜	-8.01266
就	-8.01279
並	-8.01548
塵	-8.01644
利	-8.0167
卿	-8.02139
祖	-8.02172
具	-8.02234
省	-8.02291
敬	-8.02611
切	-8.02732
楚	-8.02898
七	-8.0291
汝	-8.02958
指	-8.02959
全	-8.03049
題	-8.03109
邊	-8.03237
永	-8.03293
待	-8.03427
鳴	-8.0386
尊	-8.04031
往	-8.0435
試	-8.0469
拜	-8.04772
巻	-8.04797
移	-8.04804
笑	-8.06084
性	-8.06199
原	-8.06329
薄	-8.06386
加	-8.06466
千	-8.06876
悲	-8.06896
遇	-8.069
但	-8.0703
樓	-8.07117
司	-8.07152
史	-8.07177
燕	-8.07217
精	-8.07278
結	-8.07399
遷	-8.07447
持	-8.07535
列	-8.07615
游	-8.07686
改	-8.07857
俗	-8.0799
説	-8.08123
榮	-8.08242
仲	-8.08345
被	-8.08603
梁	-8.08842
兹	-8.0908
斷	-8.09145
恩	-8.09175
松	-8.09198
幾	-8.09214
羣	-8.0965
建	-8.09981
将	-8.10006
竒	-8.10178
惡	-8.10259
錢	-8.10516
尋	-8.10725
厚	-8.10934
火	-8.11249
破	-8.11455
說	-8.11615
蓋	-8.11698
浮	-8.1218
置	-8.12293
詔	-8.12599
位	-8.12784
勞	-8.13011
翁	-8.13109
號	-8.13135
不得	-8.13231
謀	-8.1337
疾	-8.13599
備	-8.13622
回	-8.13636
鄉	-8.1371
反	-8.13791
盛	-8.14001
推	-8.14274
露	-8.14286
告	-8.1469
收	-8.14837
宿	-8.14853
齋	-8.14994
閣	-8.15076
之所	-8.15194
每	-8.15225
越	-8.15303
影	-8.15348
庭	-8.15371
早	-8.15402
懷	-8.15413
降	-8.15643
授	-8.1576
注	-8.15816
依	-8.15874
趙	-8.16155
藏	-8.16327
飲	-8.16334
養	-8.16427
忠	-8.16569
讀	-8.16773
簡	-8.16808
朱	-8.17235
尤	-8.17283
離	-8.17439
積	-8.17446
業	-8.17683
亡	-8.18157
吳	-8.18282
盖	-8.18491
左	-8.18706
如此	-8.18794
霜	-8.19204
闕	-8.19342
吟	-8.19447
所謂	-8.19456
可以	-8.19493
仍	-8.19599
晉	-8.19883
調	-8.20022
僧	-8.20048
職	-8.20246
端	-8.20282
君子	-8.20503
▁題	-8.20507
慶	-8.20829
胡	-8.2096
雙	-8.21228
崇	-8.21343
殿	-8.21711
須	-8.2176
曉	-8.21974
孝	-8.22096
代	-8.22119
恐	-8.22593
御	-8.22632
繼	-8.22647
太	-8.22651
虚	-8.22652
工	-8.22691
考	-8.22838
哀	-8.23237
敢	-8.23262
室	-8.23267
象	-8.23385
廟	-8.23481
負	-8.23567
晚	-8.23983
傷	-8.24175
濟	-8.2444
翠	-8.24447
波	-8.24514
鳥	-8.24561
耶	-8.24648
横	-8.2468
弗	-8.24723
恨	-8.24868
楊	-8.25304
賊	-8.25322
裏	-8.25461
昔	-8.25479
賞	-8.25538
筆	-8.25857
郎	-8.25927
澤	-8.25929
特	-8.2618
乆	-8.2632
類	-8.26503
果	-8.26776
選	-8.26847
舞	-8.27009
羅	-8.27047
芳	-8.27066
接	-8.27094
篇	-8.27164
罷	-8.27241
急	-8.27624
施	-8.27683
廢	-8.28172
葢	-8.28223
折	-8.28692
追	-8.29125
舟	-8.29433
克	-8.29522
荒	-8.29702
兒	-8.2993
梅	-8.30116
息	-8.30651
仰	-8.30679
放	-8.30694
英	-8.30772
宣	-8.31166
獻	-8.31228
謹	-8.31389
形	-8.31427
池	-8.31524
友	-8.31745
軒	-8.31884
𤣥	-8.32044
者也	-8.32051
嘉	-8.32217
顯	-8.3242
紀	-8.32509
最	-8.32824
昭	-8.32848
只	-8.32863
徐	-8.3323
私	-8.33237
陵	-8.33259
殘	-8.33294
右	-8.33295
約	-8.33306
寳	-8.3371
戰	-8.33897
務	-8.33936
曽	-8.34127
皇	-8.34175
遣	-8.34467
煙	-8.34569
資	-8.34875
碧	-8.3506
倚	-8.35326
静	-8.35352
鶴	-8.35364
殊	-8.35734
▁送	-8.36024
薦	-8.36265
湖	-8.36721
勢	-8.36828
威	-8.36964
冠	-8.37021
枝	-8.371
細	-8.37369
覺	-8.37558
面	-8.37961
率	-8.38179
布	-8.38242
典	-8.38463
萬里	-8.38609
漸	-8.38722
千里	-8.39016
叔	-8.3923
沈	-8.39756
帶	-8.39829
運	-8.39884
咸	-8.39977
魏	-8.40049
歲	-8.40092
逢	-8.4019
邑	-8.40326
屋	-8.40332
他	-8.4034
沙	-8.40698
達	-8.40857
順	-8.40886
雜	-8.41019
伏	-8.41033
逐	-8.41051
執	-8.41092
園	-8.41202
夀	-8.41222
種	-8.41409
退	-8.41418
緑	-8.41453
惠	-8.41976
銘	-8.41998
延	-8.42125
栁	-8.42164
雅	-8.42293
暮	-8.423
累	-8.42453
於是	-8.42837
蘭	-8.42936
關	-8.42977
保	-8.43014
儀	-8.43135
福	-8.43425
造	-8.43835
危	-8.43948
怨	-8.4406
按	-8.44504
禁	-8.44584
權	-8.44687
祠	-8.44894
呼	-8.44976
材	-8.45402
川	-8.45545
走	-8.45657
隠	-8.45794
忘	-8.45881
雄	-8.46109
隔	-8.46112
里	-8.4617
烏	-8.46179
勤	-8.46416
珠	-8.46541
烟	-8.46561
刻	-8.46742
吹	-8.46782
妙	-8.4692
塞	-8.46996
程	-8.47074
迎	-8.47161
佛	-8.47447
乗	-8.47516
獲	-8.47587
谷	-8.47787
愚	-8.47866
不敢	-8.47895
旣	-8.48045
示	-8.48107
天子	-8.4829
船	-8.48587
揚	-8.48687
二首	-8.48734
曹	-8.48811
機	-8.48821
附	-8.48876
殺	-8.48934
衰	-8.49041
市	-8.49128
秀	-8.49269
虎	-8.49605
爭	-8.49833
弟	-8.4986
召	-8.50016
逰	-8.50252
戒	-8.50397
曾	-8.50433
丹	-8.50496
鄭	-8.50503
闗	-8.50574
歴	-8.50851
橋	-8.51014
投	-8.51049
罪	-8.51198
韓	-8.5121
祭	-8.51316
憶	-8.51603
昌	-8.52158
維	-8.52266
况	-8.5237
補	-8.52733
愈	-8.52748
隱	-8.52944
蜀	-8.53074
想	-8.53075
傾	-8.53298
紫	-8.533
撫	-8.53484
兄	-8.53561
聚	-8.53795
晴	-8.54218
甫	-8.54319
含	-8.54408
申	-8.5455
習	-8.54659
堪	-8.54869
質	-8.54941
巖	-8.55619
悉	-8.55685
振	-8.55695
强	-8.55725
儒	-8.55741
邪	-8.5575
魯	-8.55803
顔	-8.55965
委	-8.56128
并	-8.56295
博	-8.56366
充	-8.56485
天地	-8.56618
免	-8.56862
設	-8.56865
棄	-8.56871
疏	-8.56894
偶	-8.56958
牛	-8.57035
婦	-8.5709
夕	-8.57092
器	-8.57441
甘	-8.57468
偏	-8.57729
朝廷	-8.57732
靜	-8.57754
乞	-8.58026
三年	-8.58203
據	-8.58274
夷	-8.58398
赴	-8.58612
舍	-8.58707
夫人	-8.58714
慮	-8.58899
遲	-8.59002
招	-8.59027
商	-8.59111
屢	-8.59226
擬	-8.59256
録	-8.59389
恭	-8.5941
俾	-8.59427
訪	-8.59448
勿	-8.59604
部	-8.59698
抱	-8.5975
總	-8.59806
庶	-8.59874
冷	-8.59905
避	-8.59954
壽	-8.60011
歎	-8.60206
晩	-8.60417
歡	-8.60424
竊	-8.60522
暗	-8.60603
營	-8.60726
懸	-8.60762
升	-8.60853
唯	-8.60905
智	-8.60941
鎮	-8.61042
春秋	-8.61077
陛下	-8.61169
之間	-8.61183
卷	-8.61229
納	-8.61417
寛	-8.61459
藥	-8.61564
今日	-8.61882
厥	-8.61984
竟	-8.62306
覆	-8.62323
訓	-8.6235
院	-8.62918
孟	-8.63129
麗	-8.63161
蘇	-8.63182
琴	-8.63212
貧	-8.63405
侍	-8.63544
惜	-8.63563
短	-8.63926
,	-8.6396
眼	-8.64167
徑	-8.64177
族	-8.64271
末	-8.64372
條	-8.6448
參	-8.64597
履	-8.64794
聖人	-8.64958
衛	-8.65174
洞	-8.65182
駕	-8.65342
詳	-8.65629
詠	-8.65682
冬	-8.65713
而已	-8.65922
骨	-8.65929
狀	-8.66103
敗	-8.66253
杜	-8.66259
陸	-8.6626
差	-8.66289
季	-8.66339
隆	-8.66452
㣲	-8.66464
村	-8.66488
根	-8.66511
丘	-8.66636
符	-8.66726
律	-8.66784
畏	-8.6682
不足	-8.66983
䝉	-8.67223
勸	-8.67476
至於	-8.67605
銀	-8.67611
凝	-8.67665
館	-8.67672
談	-8.67759
頗	-8.67949
逸	-8.67982
堅	-8.68131
辨	-8.68257
鼎	-8.68341
縁	-8.68669
呉	-8.68751
翻	-8.68796
徃	-8.68843
岸	-8.68847
錦	-8.68869
借	-8.68886
第	-8.68939
角	-8.68958
騎	-8.69041
宅	-8.69051
候	-8.69056
仕	-8.69196
役	-8.69395
馳	-8.69554
敵	-8.69586
察	-8.69596
管	-8.69645
慕	-8.69769
脩	-8.699
孔	-8.69975
盤	-8.70197
虞	-8.70245
貞	-8.70604
假	-8.70884
啓	-8.71108
索	-8.71278
富	-8.71309
其所	-8.71363
䇿	-8.71541
甲	-8.71777
稍	-8.71826
碑	-8.71978
懼	-8.72009
壁	-8.72238
絲	-8.7228
源	-8.72489
淚	-8.72542
違	-8.72588
歳	-8.72737
一日	-8.72755
滅	-8.72917
不見	-8.73035
浪	-8.7308
熟	-8.73085
以爲	-8.73228
采	-8.73251
領	-8.73306
户	-8.73436
刑	-8.73549
迷	-8.73599
嶺	-8.73744
無所	-8.73831
尚書	-8.7389
侵	-8.73939
閑	-8.73988
聴	-8.74156
井	-8.74174
京	-8.74178
疎	-8.74232
峯	-8.74357
僕	-8.74658
豐	-8.74716
費	-8.74824
峰	-8.74831
格	-8.74862
卧	-8.75073
席	-8.7544
射	-8.75519
宴	-8.75617
繁	-8.75642
房	-8.75705
春風	-8.75805
境	-8.75833
増	-8.75964
之意	-8.7605
趨	-8.76186
茂	-8.76249
肅	-8.76255
淵	-8.76299
征	-8.76328
大夫	-8.76484
效	-8.76649
荷	-8.76659
憐	-8.76692
述	-8.7679
監	-8.76906
遥	-8.77079
謂之	-8.77123
支	-8.77143
均	-8.77144
住	-8.77153
温	-8.77234
跡	-8.77251
鼓	-8.77256
壯	-8.77311
孰	-8.77624
翼	-8.77681
專	-8.77744
丁	-8.77862
怒	-8.78033
誤	-8.78287
赤	-8.78322
文章	-8.78339
釋	-8.78404
遠	-8.78447
寵	-8.78521
康	-8.78576
了	-8.78579
寫	-8.78598
步	-8.78687
背	-8.78735
縱	-8.78754
嗣	-8.7876
旋	-8.78928
佐	-8.7927
佳	-8.79353
聊	-8.79359
拂	-8.79393
乘	-8.7945
狂	-8.79485
頻	-8.79652
禪	-8.79873
墨	-8.80066
希	-8.80648
祀	-8.80891
人之	-8.81051
干	-8.81197
鳳	-8.81234
姑	-8.81329
㡬	-8.81336
羽	-8.81413
責	-8.81512
毛	-8.81535
畢	-8.81834
煩	-8.81911
傍	-8.81982
鳯	-8.82177
當時	-8.82188
患	-8.82192
泥	-8.82258
邦	-8.82306
籍	-8.82326
味	-8.82366
消	-8.82648
盈	-8.82648
映	-8.82733
託	-8.82735
操	-8.82776
桂	-8.82913
乾	-8.83031
扶	-8.83044
葬	-8.83182
之士	-8.83223
鴻	-8.83296
洪	-8.83306
頌	-8.83318
編	-8.83321
靡	-8.83415
▁欽定四庫全書	-8.83511
錫	-8.83511
奔	-8.83835
給	-8.83893
愧	-8.84018
而後	-8.84075
宻	-8.84105
鏡	-8.84371
嗟	-8.84884
公之	-8.84899
▁又	-8.85015
害	-8.85023
有所	-8.85064
為之	-8.85128
助	-8.85506
吉	-8.85546
争	-8.85566
庸	-8.85696
蕭	-8.8575
江南	-8.85753
掩	-8.85854
辱	-8.85861
是以	-8.86063
允	-8.86073
平生	-8.86224
朕	-8.86572
左右	-8.86577
耕	-8.86599
底	-8.86702
墓	-8.8673
邉	-8.86828
漫	-8.86928
險	-8.86997
燈	-8.87077
蒼	-8.87185
賀	-8.87205
農	-8.87211
郭	-8.87238
環	-8.87316
匪	-8.87505
啟	-8.87561
慰	-8.8766
謁	-8.87704
喪	-8.87942
巧	-8.87964
阿	-8.88021
瑞	-8.882
之心	-8.88247
足以	-8.88332
優	-8.88335
階	-8.88358
困	-8.88432
逹	-8.88523
古人	-8.88563
科	-8.88769
十二	-8.8878
斜	-8.89113
否	-8.89549
擊	-8.89584
何處	-8.89614
之後	-8.89642
歩	-8.89643
擇	-8.89774
慎	-8.89876
攻	-8.90105
量	-8.90306
介	-8.90498
將軍	-8.90555
白雲	-8.90604
柳	-8.90681
式	-8.9075
響	-8.90926
鮮	-8.91089
不及	-8.91102
誦	-8.91253
略	-8.91254
伐	-8.91288
迹	-8.91523
社	-8.91566
畧	-8.91593
校	-8.91669
天下之	-8.91729
衡	-8.91851
弱	-8.91871
怪	-8.91953
屈	-8.92011
舒	-8.9205
班	-8.92172
淺	-8.92262
姓	-8.92387
十年	-8.92553
潤	-8.92572
趣	-8.92573
戎	-8.92632
迴	-8.92762
圍	-8.92836
把	-8.92858
瞻	-8.92958
供	-8.93039
氷	-8.93123
虛	-8.93145
讀書	-8.9315
講	-8.93172
恒	-8.93215
慈	-8.93375
覽	-8.93475
繫	-8.93488
陰	-8.93914
風雨	-8.93967
輒	-8.94045
鴈	-8.94121
祥	-8.94549
茶	-8.94551
續	-8.94658
牧	-8.94788
郊	-8.94817
米	-8.94843
日月	-8.94868
莊	-8.94878
逆	-8.94891
雷	-8.95049
擁	-8.95329
抑	-8.95466
不為	-8.9552
二年	-8.95635
毎	-8.95681
故人	-8.95862
棲	-8.95953
霞	-8.95958
奪	-8.96287
豪	-8.96318
童	-8.96364
催	-8.96381
憲	-8.96499
嗚呼	-8.9667
之事	-8.96791
忍	-8.96896
○	-8.96995
掌	-8.97058
然後	-8.97124
之道	-8.97219
黃	-8.97223
寶	-8.97232
徴	-8.97403
之言	-8.97432
彌	-8.97508
禍	-8.97529
占	-8.9758
眞	-8.97673
厯	-8.97847
孔子	-8.97851
賔	-8.97892
例	-8.97905
妻	-8.97928
裁	-8.97941
卜	-8.97959
犯	-8.98128
陶	-8.98217
震	-8.98515
肆	-8.98529
雞	-8.98767
貫	-8.98916
眠	-8.98968
帥	-8.99004
窺	-8.9904
會	-8.9913
鍾	-8.99154
弄	-8.99237
齒	-8.99396
卑	-8.99519
統	-8.99554
凉	-8.99675
旁	-8.99681
賈	-8.9974
進士	-9.00152
循	-9.00187
何以	-9.00191
人間	-9.00201
未嘗	-9.00444
輔	-9.00557
彦	-9.00581
諭	-9.00884
如何	-9.00889
勉	-9.00989
烈	-9.01071
爵	-9.01088
展	-9.01095
擢	-9.01115
渡	-9.01378
貪	-9.0156
殷	-9.01963
之以	-9.02066
遽	-9.02205
羞	-9.02422
悟	-9.02512
昏	-9.02529
低	-9.02561
紛	-9.0268
學者	-9.02707
披	-9.02768
沉	-9.03038
兄弟	-9.03054
后	-9.03303
泰	-9.03344
植	-9.03396
缺	-9.03456
圓	-9.03536
不如	-9.03583
霧	-9.03635
枯	-9.03727
配	-9.03741
宰	-9.03832
沒	-9.03837
誅	-9.0392
枕	-9.04085
魂	-9.04158
付	-9.0416
㫖	-9.04213
蒙	-9.04226
渠	-9.04264
一時	-9.04311
肯	-9.04467
買	-9.04595
禄	-9.04663
祝	-9.04827
術	-9.04938
燭	-9.04994
子孫	-9.05002
戴	-9.0518
驅	-9.05412
激	-9.05563
勇	-9.05685
暫	-9.05705
歟	-9.05729
㸔	-9.06002
審	-9.0621
晨	-9.06294
剛	-9.06424
柔	-9.06548
躬	-9.06592
那	-9.06595
厭	-9.06607
尾	-9.0669
宇	-9.06752
珍	-9.06901
明月	-9.07041
吐	-9.07293
超	-9.07449
洗	-9.07465
厲	-9.07559
之人	-9.07613
徙	-9.07697
防	-9.07711
輿	-9.07718
塗	-9.07733
己	-9.07761
刺	-9.0784
印	-9.07897
晝	-9.0793
堯	-9.07944
痛	-9.08034
品	-9.08113
飾	-9.08126
。	-9.08267
規	-9.08271
蕩	-9.08296
羊	-9.08509
毋	-9.08637
諱	-9.08664
寜	-9.08689
巢	-9.08694
禽	-9.08717
策	-9.08768
財	-9.08867
辟	-9.08984
没	-9.09005
寓	-9.09109
徵	-9.09182
伊	-9.09288
藩	-9.09312
妄	-9.09592
盧	-9.09623
賤	-9.0965
諸侯	-9.09673
㳺	-9.09731
副	-9.09752
屏	-9.09797
貢	-9.09803
密	-9.09886
鬼	-9.10044
綠	-9.10054
答	-9.10181
廬	-9.10462
繞	-9.1052
呈	-9.1059
輪	-9.10591
以來	-9.10699
速	-9.107
奚	-9.10763
掃	-9.10776
阻	-9.10892
之地	-9.10933
有餘	-9.11073
爰	-9.11096
舎	-9.11132
泛	-9.11136
漏	-9.11298
獄	-9.11364
鸞	-9.11368
敏	-9.11394
斗	-9.11395
藉	-9.1146
不以	-9.11558
救	-9.11742
曠	-9.11782
湯	-9.11821
築	-9.11822
淮	-9.11848
旅	-9.11976
菊	-9.11983
▁贈	-9.12029
决	-9.12057
叙	-9.12165
泣	-9.12175
襲	-9.12219
遭	-9.12234
廷	-9.12372
長安	-9.12402
酬	-9.12409
舜	-9.12529
於此	-9.12598
奮	-9.12601
踈	-9.12626
寡	-9.12642
哭	-9.12674
劍	-9.12772
享	-9.12815
讓	-9.12816
純	-9.12816
遵	-9.12842
叢	-9.13048
亦有	-9.13072
不復	-9.1347
圗	-9.13594
澄	-9.13765
啼	-9.13791
暴	-9.13872
囘	-9.13925
革	-9.13975
鄰	-9.14196
側	-9.14206
青山	-9.14283
桑	-9.14483
潮	-9.14614
輸	-9.14652
潛	-9.15048
京師	-9.15282
㸃	-9.15332
祗	-9.15383
俯	-9.15426
貌	-9.1551
而無	-9.15599
預	-9.1561
蔡	-9.15674
崖	-9.15791
古今	-9.15884
酌	-9.1599
御史	-9.1608
契	-9.16135
曰吾	-9.16354
弊	-9.16394
丞相	-9.1648
龜	-9.16505
百年	-9.16564
粟	-9.16598
際	-9.167
醫	-9.16808
添	-9.16892
殆	-9.16892
倒	-9.16937
其後	-9.17224
雁	-9.17391
至今	-9.174
暖	-9.17513
損	-9.17536
尹	-9.17584
吕	-9.17643
范	-9.17646
伴	-9.17667
集作	-9.17923
洲	-9.18344
可謂	-9.18366
眉	-9.18482
禹	-9.18504
佩	-9.18517
騰	-9.18586
宮	-9.18912
謙	-9.18949
融	-9.18993
▁和	-9.19087
劒	-9.19217
嘆	-9.19256
鐘	-9.19348
辰	-9.19475
纔	-9.19575
炎	-9.19999
唱	-9.20207
秩	-9.20258
戲	-9.20323
稀	-9.20365
崔	-9.20439
途	-9.2063
繡	-9.2077
血	-9.20788
旦	-9.20835
澗	-9.20971
必有	-9.2099
穿	-9.21183
一人	-9.21401
茍	-9.21482
也夫	-9.21573
眀	-9.21728
太守	-9.21804
錄	-9.21813
未有	-9.22264
欽	-9.22299
驛	-9.22326
滋	-9.22416
倫	-9.22418
強	-9.22489
基	-9.22583
苟	-9.2261
桃	-9.22618
四方	-9.22698
不同	-9.22805
凌	-9.22843
浦	-9.22974
僅	-9.2305
贊	-9.23074
旌	-9.23243
輩	-9.23385
洛	-9.23723
大臣	-9.23764
輙	-9.2383
者皆	-9.23874
蒲	-9.23907
尺	-9.24273
蔽	-9.24331
淡	-9.24396
上下	-9.24415
學士	-9.24483
援	-9.24493
冀	-9.24619
有司	-9.24889
𢎞	-9.24947
競	-9.24977
山中	-9.2503
丞	-9.25049
欺	-9.25049
緩	-9.25131
菴	-9.25191
涼	-9.25253
旗	-9.25337
翔	-9.25416
韋	-9.25459
採	-9.25624
藝	-9.25627
寢	-9.25651
增	-9.25801
帖	-9.25896
案	-9.25987
欣	-9.26097
悔	-9.26115
敎	-9.26162
壇	-9.26371
▁寄	-9.26449
墮	-9.26528
陪	-9.2657
苑	-9.26597
牽	-9.26695
黨	-9.26757
稽	-9.2681
言之	-9.26821
逮	-9.26949
姿	-9.27005
渾	-9.27129
䘮	-9.27139
決	-9.27154
藻	-9.27244
奇	-9.27246
返	-9.2729
探	-9.27336
徹	-9.27401
其人	-9.2747
銅	-9.27523
津	-9.2778
𥘉	-9.27812
督	-9.28192
也今	-9.28285
逃	-9.28309
歸來	-9.28334
慙	-9.28474
簾	-9.28565
何如	-9.2867
墜	-9.28671
膺	-9.28782
晦	-9.28871
錯	-9.28974
璧	-9.28996
俊	-9.29014
東南	-9.29078
譜	-9.29265
無人	-9.29341
界	-9.29359
諫	-9.29399
麥	-9.29403
亟	-9.29512
其事	-9.29588
銜	-9.29645
秋風	-9.29664
喻	-9.29774
濕	-9.29824
輝	-9.30157
也故	-9.30306
朔	-9.30437
署	-9.30463
踰	-9.3063
董	-9.30646
完	-9.3079
巨	-9.30791
飯	-9.31209
刀	-9.31232
潔	-9.31252
荆	-9.31408
傅	-9.31462
丗	-9.31478
淸	-9.3152
豈不	-9.31563
梅花	-9.31583
的	-9.31604
産	-9.31606
鹿	-9.31655
提	-9.31797
拙	-9.31875
杯	-9.31884
敦	-9.31886
鬱	-9.31909
蓮	-9.31915
詩云	-9.31931
篤	-9.31955
鄙	-9.31956
脱	-9.32044
山川	-9.32062
風流	-9.32257
悠悠	-9.32264
四海	-9.32287
元年	-9.32311
相與	-9.32347
育	-9.3235
絃	-9.3241
寂	-9.32639
頓	-9.3273
排	-9.32768
國家	-9.32853
湘	-9.32855
粉	-9.32945
譽	-9.33286
一首	-9.33377
屯	-9.33424
快	-9.33429
尉	-9.33467
釣	-9.33472
糧	-9.33563
脫	-9.33629
吴	-9.33644
戸	-9.33649
頃	-9.33655
宏	-9.33663
乍	-9.3367
況	-9.3371
觸	-9.33964
後世	-9.34029
䕶	-9.34062
倍	-9.34122
人也	-9.34234
額	-9.34341
夫子	-9.34677
黙	-9.34913
饒	-9.34998
銷	-9.35156
徧	-9.35214
憑	-9.35316
秉	-9.35466
父母	-9.35472
千載	-9.35529
賛	-9.35531
之功	-9.35705
停	-9.35809
然而	-9.35827
陋	-9.35852
綺	-9.35885
警	-9.35886
三月	-9.35909
幕	-9.36186
抵	-9.36243
叟	-9.36246
惑	-9.36512
勲	-9.36535
牀	-9.36536
杖	-9.3654
玩	-9.36659
觴	-9.36701
靖	-9.3673
之時	-9.36767
皇帝	-9.37056
紙	-9.37291
緒	-9.37328
弓	-9.37364
安得	-9.37377
籠	-9.37569
值	-9.37578
柱	-9.37587
倉	-9.37601
着	-9.37606
究	-9.37629
鹽	-9.37716
扇	-9.37751
艱	-9.37778
眷	-9.37793
冝	-9.37829
峻	-9.3786
牙	-9.38001
江湖	-9.3804
廻	-9.38207
太平	-9.38214
鐵	-9.38247
賴	-9.38324
翰	-9.38336
閉	-9.3834
蓬	-9.38415
司馬	-9.38428
覩	-9.38508
塘	-9.38728
窗	-9.38772
儲	-9.38791
濃	-9.38845
敷	-9.38928
倦	-9.39081
焚	-9.3912
姦	-9.39199
鑒	-9.39297
衍	-9.39399
穆	-9.39409
較	-9.39507
谿	-9.39628
駐	-9.39689
妾	-9.39863
勒	-9.39968
之際	-9.39971
飢	-9.40246
山水	-9.40264
其言	-9.40428
染	-9.40455
壓	-9.40467
潭	-9.40542
虜	-9.40543
嫌	-9.40667
肥	-9.40675
遍	-9.40701
睡	-9.40721
瓊	-9.40775
飽	-9.40788
主人	-9.4085
冰	-9.41019
判	-9.4111
草木	-9.41155
午	-9.413
之中	-9.4136
盜	-9.41368
毁	-9.41449
奴	-9.41476
偉	-9.41527
亮	-9.4172
萬物	-9.41787
之義	-9.41801
彈	-9.41841
麟	-9.41936
遐	-9.41954
處士	-9.42095
標	-9.42223
卽	-9.42241
莫不	-9.42273
肉	-9.42276
削	-9.42394
二十	-9.42423
註	-9.42433
富貴	-9.42738
耀	-9.42747
人心	-9.42822
無不	-9.42831
東風	-9.42851
第一	-9.4289
誓	-9.43075
乏	-9.43164
饑	-9.43167
練	-9.43334
芙蓉	-9.43384
祈	-9.43398
娶	-9.4342
善曰	-9.43454
之法	-9.43465
別	-9.43536
之學	-9.43548
話	-9.43614
鬢	-9.43624
茅	-9.43626
摧	-9.43656
詣	-9.44053
岳	-9.44113
之不	-9.44119
不勝	-9.44128
鞭	-9.44222
束	-9.44364
髪	-9.44499
價	-9.44511
渚	-9.44729
胥	-9.44784
揺	-9.44839
喧	-9.4486
▁王	-9.44865
随	-9.45064
▁次韻	-9.45073
恵	-9.45139
暑	-9.45201
彭	-9.45214
豫	-9.45461
足下	-9.45463
苔	-9.45547
諸生	-9.45622
減	-9.45901
像	-9.46014
又曰	-9.46066
劇	-9.46111
導	-9.46226
整	-9.46283
竭	-9.46326
腹	-9.46386
何人	-9.4643
明年	-9.46605
寸	-9.46683
矜	-9.46734
飄	-9.46737
岡	-9.46759
馮	-9.46815
君之	-9.46891
鑿	-9.47163
畔	-9.47185
紹	-9.47227
穴	-9.47254
磨	-9.47265
中有	-9.47268
誇	-9.47316
未能	-9.47458
災	-9.47474
知其	-9.47489
五年	-9.47622
衝	-9.47699
甞	-9.47731
疊	-9.47828
其子	-9.47978
課	-9.48178
幹	-9.48298
攀	-9.48299
者亦	-9.48302
然則	-9.48373
褒	-9.484
澹	-9.48409
塔	-9.48464
也其	-9.48488
少年	-9.48559
白日	-9.48591
垣	-9.4867
蕃	-9.4882
襟	-9.48831
以此	-9.49013
其間	-9.49113
謬	-9.49251
閲	-9.49344
何時	-9.49422
績	-9.49488
蟲	-9.4949
郷	-9.49562
辯	-9.4958
亦不	-9.49586
蠻	-9.49599
恥	-9.4963
河南	-9.49797
撰	-9.49907
不過	-9.50056
滯	-9.50153
囊	-9.50277
製	-9.50348
俟	-9.50361
浩	-9.50442
閩	-9.50467
使君	-9.50525
鱗	-9.50724
戍	-9.50757
網	-9.50795
挾	-9.50802
溢	-9.50864
簷	-9.50872
幼	-9.50982
乾坤	-9.51053
陣	-9.511
小人	-9.51186
戚	-9.51297
淳	-9.51368
罔	-9.51429
巾	-9.51445
姬	-9.51744
▁年	-9.5181
隣	-9.51846
腸	-9.51953
属	-9.52001
係	-9.52032
䟽	-9.52144
出於	-9.52184
枉	-9.52186
太子	-9.52188
文字	-9.52328
彩	-9.52491
是也	-9.52662
驕	-9.52663
奠	-9.52687
孟子	-9.52808
洙曰	-9.52875
筵	-9.52949
醒	-9.52989
樵	-9.53012
換	-9.53026
盟	-9.53062
晏	-9.53087
黒	-9.53207
男	-9.53263
擅	-9.53278
南山	-9.53288
閱	-9.53359
燒	-9.53373
包	-9.534
賣	-9.53431
今年	-9.53487
踐	-9.53714
相逢	-9.53785
功名	-9.5389
無事	-9.53916
百姓	-9.54022
弔	-9.54088
不忍	-9.5416
無窮	-9.54164
揮	-9.54188
圃	-9.54267
潜	-9.54313
態	-9.54317
淑	-9.54369
而為	-9.54373
訟	-9.54545
玄	-9.54573
丈	-9.54694
戀	-9.54905
討	-9.54921
衞	-9.54985
健	-9.55002
子曰	-9.55062
忌	-9.55127
逾	-9.55136
壑	-9.55158
旱	-9.55357
其心	-9.55359
㫁	-9.55368
自是	-9.55384
拔	-9.55392
涉	-9.55408
流水	-9.55437
層	-9.55515
雕	-9.55598
爽	-9.55638
促	-9.55739
人生	-9.55836
世之	-9.55839
彰	-9.55849
熱	-9.5585
▁右	-9.55858
清風	-9.55955
不然	-9.56032
併	-9.56067
限	-9.5611
宵	-9.56492
驗	-9.56562
協	-9.56582
不足以	-9.56605
觧	-9.56629
不可以	-9.5678
風吹	-9.5685
裂	-9.56855
兆	-9.56983
邀	-9.57012
冦	-9.57116
踏	-9.57148
割	-9.57168
薛	-9.57256
▁宋	-9.57353
斬	-9.57457
四年	-9.57508
也而	-9.57524
貽	-9.57641
斥	-9.57661
暢	-9.57687
芝	-9.57714
闢	-9.57732
挂	-9.57811
朋	-9.57815
諸公	-9.57856
千古	-9.57951
攝	-9.57983
辦	-9.57986
不必	-9.58035
古之	-9.58042
之為	-9.58046
伸	-9.58197
巴	-9.58227
攜	-9.58256
之外	-9.58312
紛紛	-9.5834
詎	-9.58376
抗	-9.58393
襄	-9.58415
湏	-9.58462
▁撰	-9.58488
歛	-9.58541
不用	-9.58658
髮	-9.58724
之文	-9.58876
檢	-9.58887
漢書	-9.58949
孺人	-9.59066
綴	-9.59188
是非	-9.59199
毒	-9.59237
帆	-9.59246
徘徊	-9.59299
漁	-9.59319
邁	-9.59319
賓	-9.59396
十五	-9.59791
葛	-9.59852
局	-9.5988
故曰	-9.59933
桃花	-9.59935
樞	-9.60171
以自	-9.6034
昨	-9.60351
剪	-9.60392
袁	-9.60469
坡	-9.605
嶽	-9.60505
黄金	-9.60624
嬌	-9.60691
者乎	-9.60725
府君	-9.60757
懿	-9.60802
三首	-9.60844
南北	-9.60878
夙	-9.60879
冊	-9.60894
可憐	-9.6114
台	-9.61146
周公	-9.61206
出入	-9.6135
得其	-9.61388
相思	-9.61391
之餘	-9.61403
冒	-9.61683
播	-9.61728
曷	-9.61834
東西	-9.61943
江西	-9.61952
偕	-9.62044
之則	-9.62086
父子	-9.62112
州縣	-9.62113
媚	-9.62138
宰相	-9.62215
徽	-9.62292
他日	-9.62303
帳	-9.62462
渉	-9.62593
腰	-9.62668
牆	-9.62689
卓	-9.62694
効	-9.62723
叅	-9.62743
斂	-9.62745
蹈	-9.6287
寂寞	-9.62902
陞	-9.62933
逝	-9.62942
盗	-9.62965
矧	-9.62969
緣	-9.63039
儉	-9.63049
往往	-9.63102
翰林	-9.63112
該	-9.63137
亷	-9.63212
迫	-9.63304
乖	-9.63329
而有	-9.63544
證	-9.6359
三日	-9.63779
織	-9.63822
洽	-9.63894
顛	-9.63935
也然	-9.63964
之子	-9.63968
恤	-9.6399
綱	-9.64222
上人	-9.64316
浸	-9.64353
瓦	-9.64394
則有	-9.64435
矢	-9.64535
捐	-9.64669
活	-9.64783
當年	-9.64811
㓜	-9.64845
皮	-9.64852
東坡	-9.64854
凶	-9.64863
不在	-9.64884
攸	-9.64995
霑	-9.6511
仗	-9.65248
偃	-9.65277
區區	-9.65301
隋	-9.65309
夕陽	-9.65357
之說	-9.65405
十一	-9.65569
窓	-9.65641
憤	-9.65653
陟	-9.6566
州刺史	-9.65677
隴	-9.65679
漕	-9.6577
誣	-9.65806
裕	-9.66093
之日	-9.66094
碎	-9.66183
凍	-9.66193
皆有	-9.66329
創	-9.66355
膏	-9.66469
遶	-9.66491
不肯	-9.66515
座	-9.66542
泊	-9.66576
之名	-9.6671
侍郎	-9.66725
西山	-9.66771
弟子	-9.66776
猿	-9.67058
荅	-9.67145
繩	-9.67175
朗	-9.67237
熊	-9.67246
諒	-9.67275
墻	-9.67326
蛇	-9.67366
之上	-9.67415
見其	-9.67434
駭	-9.67471
使人	-9.67522
者其	-9.6757
公子	-9.67638
千年	-9.67655
喚	-9.67745
潘	-9.67746
擾	-9.67767
昧	-9.67782
頒	-9.67885
之曰	-9.67898
一笑	-9.68148
墳	-9.68176
䖏	-9.68187
濤	-9.68201
之盛	-9.68304
疲	-9.68347
▁李	-9.68385
淫	-9.68606
灑	-9.68661
之所以	-9.68725
榖	-9.68737
不盡	-9.68775
區	-9.6879
又有	-9.68865
傑	-9.68959
前後	-9.68969
以其	-9.69006
廉	-9.6921
者必	-9.69221
霽	-9.69263
江上	-9.69268
範	-9.69508
蟬	-9.69582
羡	-9.69609
叨	-9.69614
恃	-9.6972
如是	-9.69722
之志	-9.6975
互	-9.69883
明日	-9.69916
托	-9.6994
叛	-9.6998
鼔	-9.70089
雖有	-9.70093
挽	-9.70113
疆	-9.70113
悦	-9.70163
誰能	-9.70203
獸	-9.70377
偽	-9.70401
銘曰	-9.70405
之徒	-9.70531
誕	-9.70589
桐	-9.70606
衣冠	-9.70628
鑑	-9.70646
聞之	-9.70712
郎中	-9.71028
宦	-9.71112
綿	-9.71291
捨	-9.71305
料	-9.71369
軌	-9.71402
従	-9.71412
三十	-9.71462
淨	-9.7148
群	-9.7154
士大夫	-9.71719
裴	-9.71786
暇	-9.7185
彊	-9.71911
鶯	-9.72052
史記	-9.72136
百里	-9.72285
西風	-9.72289
浮雲	-9.72296
獵	-9.72337
姚	-9.72337
巡	-9.72355
埋	-9.72431
壤	-9.72585
肇	-9.72609
雍	-9.72683
隅	-9.72687
▁張	-9.72802
人皆	-9.7282
不忘	-9.72837
五十	-9.72837
蚤	-9.72866
黎	-9.72889
汗	-9.72921
嵩	-9.72923
摩	-9.73009
終日	-9.73067
自有	-9.73107
繇	-9.73172
禮樂	-9.73258
裘	-9.73326
項	-9.73409
▁答	-9.73425
障	-9.73725
捕	-9.73778
苗	-9.73838
自古	-9.73855
七十	-9.73977
普	-9.73992
行人	-9.74541
瘦	-9.74552
臯	-9.74569
慚	-9.74596
自然	-9.74639
篆	-9.74664
洞庭	-9.74675
單	-9.74701
赦	-9.74815
羙	-9.7493
涵	-9.74963
遙	-9.75041
曰此	-9.75172
至于	-9.75224
靑	-9.75241
扁舟	-9.75313
諧	-9.75357
其身	-9.75368
六月	-9.75447
岀	-9.75463
鋒	-9.75545
堆	-9.75596
中書	-9.7564
䑓	-9.75667
其中	-9.75733
逼	-9.75753
雀	-9.75813
秘	-9.75828
子弟	-9.75881
蓄	-9.75885
脚	-9.75906
夾	-9.7595
咎	-9.7599
躍	-9.76023
天涯	-9.76303
藤	-9.76368
評	-9.76373
吏部	-9.76377
詩曰	-9.76392
乳	-9.76448
庶幾	-9.76488
詩書	-9.76494
鄧	-9.7655
譏	-9.76562
収	-9.76651
誌	-9.76731
嫁	-9.76756
洛陽	-9.76818
貨	-9.76924
詢	-9.76932
矯	-9.76951
其家	-9.77029
無以	-9.77052
縈	-9.77065
叶	-9.77185
五月	-9.77277
天上	-9.77287
袖	-9.77323
壊	-9.7733
一旦	-9.774
由是	-9.77429
拘	-9.77542
蕭蕭	-9.77544
旬	-9.77555
舌	-9.77563
之至	-9.77655
二子	-9.77829
堤	-9.78004
槐	-9.78122
使者	-9.78159
落日	-9.78309
勁	-9.7832
十三	-9.78354
奸	-9.78458
蔵	-9.78475
峽	-9.78477
頼	-9.78514
檄	-9.78549
貳	-9.78553
打	-9.78632
山林	-9.7874
靣	-9.78862
睿	-9.78865
庵	-9.78896
俄	-9.78953
誼	-9.78992
賦詩	-9.79111
頂	-9.79151
爐	-9.79181
鈎	-9.79218
溝	-9.79349
年年	-9.79381
江山	-9.7948
何必	-9.79544
餉	-9.79548
摘	-9.79548
棹	-9.7955
几	-9.79568
内外	-9.79652
専	-9.79686
爛	-9.79688
敝	-9.79752
矣而	-9.79964
韶	-9.80032
勵	-9.80059
何事	-9.80078
卦	-9.80089
妍	-9.80089
民之	-9.80132
蒸	-9.80181
神仙	-9.80209
不相	-9.80216
帷	-9.80221
不堪	-9.80263
壘	-9.80352
岑	-9.80459
茲	-9.80548
芳草	-9.80665
聨	-9.80694
妖	-9.80823
辛	-9.80836
檻	-9.81082
謫	-9.81096
肩	-9.81149
崩	-9.81168
懶	-9.81202
倡	-9.81232
道士	-9.81315
轍	-9.81361
二人	-9.81465
從容	-9.8148
何所	-9.81747
孚	-9.81748
豈無	-9.81778
之故	-9.81841
欵	-9.81882
濁	-9.81953
麻	-9.81995
歇	-9.81998
用之	-9.82038
遜	-9.82089
之下	-9.82091
坤	-9.8215
儻	-9.82219
䖍	-9.82344
咨	-9.82437
榜	-9.82611
人情	-9.82711
聖賢	-9.82788
十八	-9.83067
相見	-9.83079
美人	-9.83172
金陵	-9.83177
絳	-9.83198
相望	-9.83233
蹤	-9.83259
其意	-9.83278
忝	-9.83292
一二	-9.83295
綵	-9.83375
貶	-9.83381
匹	-9.83382
遮	-9.83429
陂	-9.83435
聳	-9.83466
疇	-9.83477
聘	-9.83499
淹	-9.83573
捧	-9.83724
草堂	-9.8379
得之	-9.83809
弦	-9.83818
不至	-9.8383
片	-9.83864
場	-9.83949
桓	-9.83994
灰	-9.83995
執事	-9.84071
雉	-9.84072
冩	-9.84073
朝夕	-9.84131
域	-9.84175
漲	-9.84234
故事	-9.84299
千金	-9.8441
中原	-9.84427
山東	-9.84456
電	-9.84503
瑶	-9.84561
誥	-9.84573
員	-9.84772
有以	-9.84827
亨	-9.84936
之説	-9.85042
黜	-9.85081
圭	-9.8511
翳	-9.85187
籌	-9.85238
不待	-9.85278
恣	-9.8532
悼	-9.85331
析	-9.85351
妃	-9.85386
臥	-9.85388
六年	-9.85394
箇	-9.85394
壺	-9.85396
扉	-9.85467
▁謝	-9.85518
而巳	-9.85751
祇	-9.85849
魄	-9.85866
邈	-9.85877
媿	-9.85906
不自	-9.86022
碩	-9.86081
栖	-9.86177
海内	-9.86209
之書	-9.86253
訴	-9.86335
仁義	-9.86335
奈何	-9.86385
罰	-9.864
穀	-9.86484
者以	-9.86584
其志	-9.86685
之民	-9.86797
邵	-9.86872
箭	-9.86885
馭	-9.86926
禱	-9.86954
吞	-9.8705
混	-9.87078
㧞	-9.87085
不成	-9.87128
淪	-9.87174
牕	-9.87188
戈	-9.87394
▁前調	-9.87473
猶有	-9.87483
四時	-9.87494
隙	-9.87498
伍	-9.875
文武	-9.87571
僻	-9.87582
函	-9.87614
之臣	-9.87642
者非	-9.87731
濫	-9.87913
慢	-9.87956
祿	-9.87999
虹	-9.88195
毫	-9.88246
痕	-9.88268
突	-9.88278
粗	-9.88282
而下	-9.88305
臂	-9.88319
不容	-9.88338
邇	-9.88349
握	-9.88571
汪	-9.88594
軸	-9.88605
慧	-9.88679
是時	-9.88741
桃李	-9.88768
灘	-9.88785
致仕	-9.88826
撥	-9.88908
塲	-9.88922
不聞	-9.88997
𦵏	-9.89172
罕	-9.89242
十四	-9.89307
者不	-9.89314
後人	-9.89315
距	-9.8934
鑄	-9.89354
一言	-9.89373
哲	-9.89391
一切	-9.8944
武帝	-9.89451
咏	-9.89458
宸	-9.89504
蠶	-9.89581
竇	-9.89596
無復	-9.89604
西湖	-9.89854
薪	-9.89911
一朝	-9.89965
見之	-9.90066
楹	-9.90066
國之	-9.90207
公卿	-9.90208
十六	-9.90365
濯	-9.90388
浙	-9.90416
以下	-9.90427
勅	-9.9043
回首	-9.90507
柄	-9.90522
弼	-9.90543
蝶	-9.90607
羨	-9.90616
截	-9.90698
暉	-9.90813
遼	-9.90851
嬰	-9.90883
霄	-9.90902
不識	-9.9093
西南	-9.9094
叩	-9.90947
與之	-9.91086
祚	-9.91201
西北	-9.9132
各有	-9.91322
柯	-9.91388
歸去	-9.91402
未知	-9.91444
菜	-9.91466
三千	-9.91533
涕	-9.91534
茫茫	-9.91537
鵲	-9.91578
技	-9.91637
藴	-9.91889
鴉	-9.9189
三百	-9.91892
霸	-9.91912
噫	-9.91932
棘	-9.92058
月明	-9.92102
戯	-9.92177
樊	-9.92196
殁	-9.92224
侈	-9.92235
簿	-9.92236
醜	-9.92332
俞	-9.92372
齡	-9.92436
森	-9.92438
金石	-9.926
以示	-9.92615
不幸	-9.92663
詭	-9.92742
冥	-9.92753
進退	-9.92756
之於	-9.92781
三代	-9.92871
云云	-9.92913
尸	-9.9296
及其	-9.92988
之才	-9.93068
其名	-9.93077
左傳	-9.9308
忙	-9.93117
畜	-9.93202
稅	-9.93224
者則	-9.93243
猷	-9.93251
中丞	-9.93253
飭	-9.93287
裳	-9.9329
隂陽	-9.93309
竄	-9.93336
綏	-9.9337
之禮	-9.93373
七年	-9.934
查	-9.93518
掛	-9.93561
謨	-9.93601
不是	-9.93687
焦	-9.93694
囚	-9.93725
十里	-9.93824
鬼神	-9.94008
仙人	-9.94032
中外	-9.9404
今之	-9.94059
鷗	-9.94127
怯	-9.94141
㢤	-9.94214
十日	-9.94295
軰	-9.94303
日暮	-9.94342
祐	-9.94426
作詩	-9.9443
算	-9.94442
杭	-9.94464
嚮	-9.94484
禦	-9.94491
四首	-9.94558
誨	-9.94595
𨽻	-9.94628
陛	-9.94697
頑	-9.94705
二月	-9.94783
往來	-9.94812
白髪	-9.94846
庫	-9.94882
構	-9.94884
精神	-9.94973
竿	-9.9498
熙	-9.9503
榻	-9.95036
十月	-9.95037
君臣	-9.9507
以是	-9.95147
僚	-9.95152
▁月	-9.95326
濶	-9.95419
未必	-9.95434
眺	-9.95536
惆悵	-9.95572
跨	-9.95646
冲	-9.9572
萬事	-9.95816
衷	-9.95857
誘	-9.95867
透	-9.9592
春色	-9.95926
謾	-9.95969
從事	-9.96066
阜	-9.96153
庾	-9.96156
行之	-9.96237
魁	-9.96278
白頭	-9.96291
二字	-9.96329
太祖	-9.96346
携	-9.96395
道中	-9.96526
壞	-9.96557
落花	-9.96589
拱	-9.96623
豈非	-9.96637
偷	-9.96666
太宗	-9.96671
參差	-9.96677
豆	-9.96712
毅	-9.96716
段	-9.96738
中國	-9.9674
虧	-9.96751
蓬萊	-9.96828
又云	-9.9684
浴	-9.96943
笛	-9.96955
為人	-9.96969
喬	-9.96994
庻	-9.9705
暨	-9.97063
堯舜	-9.97072
諸子	-9.97101
醇	-9.9725
揚州	-9.97267
訖	-9.97288
一枝	-9.97296
公曰	-9.9732
此時	-9.97329
冶	-9.97338
樂府	-9.97368
此詩	-9.97379
之氣	-9.97402
拒	-9.97417
幣	-9.97564
滴	-9.976
夭	-9.97647
太史	-9.97724
是故	-9.97784
淮南	-9.97806
海上	-9.97848
控	-9.97889
㝠	-9.97928
鈞	-9.97957
酣	-9.98075
坊	-9.98076
熈	-9.9808
詩人	-9.98124
四十	-9.98131
嘯	-9.98205
陷	-9.98444
怕	-9.98509
逕	-9.98642
知之	-9.98646
八月	-9.98705
門外	-9.98828
硯	-9.98839
惟有	-9.98861
板	-9.98862
奈	-9.98905
人物	-9.98914
聖人之	-9.98932
猛	-9.98949
沾	-9.98954
曜	-9.98983
纎	-9.98986
驟	-9.98989
稻	-9.99005
慘	-9.99019
迂	-9.99047
粹	-9.99171
傲	-9.99188
侍御	-9.99252
綸	-9.99267
次公	-9.99309
矣然	-9.9935
護	-9.99382
寕	-9.99442
屠	-9.99457
牒	-9.99461
道之	-9.99502
山人	-9.99673
賢者	-9.99689
其為	-9.99701
慿	-9.99731
忩	-9.99744
零	-9.99791
遁	-9.99798
乎其	-9.9982
不覺	-9.99837
湛	-9.99903
相公	-9.99911
仇	-9.99947
煥	-10.0003
山谷	-10.0015
栽	-10.0016
黑	-10.0024
状	-10.0033
飬	-10.0034
謗	-10.0038
千萬	-10.004
太白	-10.0043
懋	-10.0046
未及	-10.005
而又	-10.0058
□	-10.0059
猶未	-10.0062
烹	-10.0063
刺史	-10.0074
居士	-10.008
裝	-10.008
狐	-10.0084
懇	-10.0086
粧	-10.0086
諌	-10.0092
風俗	-10.0096
者有	-10.0101
滑	-10.0101
㝷	-10.0103
青雲	-10.011
騷	-10.0117
床	-10.0118
窻	-10.0118
其文	-10.0129
▁夫	-10.0136
恕	-10.0145
不與	-10.0153
萬古	-10.0157
之初	-10.0159
灌	-10.0164
挺	-10.018
囬	-10.0183
䕃	-10.0197
點	-10.0203
耳目	-10.0213
廵	-10.0214
嵗月	-10.0218
𬒳	-10.0218
栢	-10.022
從此	-10.0222
岐	-10.0225
子之	-10.0238
𤓰	-10.0242
即事	-10.0247
恱	-10.0247
昇	-10.0251
奥	-10.0266
文王	-10.0269
其餘	-10.0271
抽	-10.028
梓	-10.0287
以上	-10.0289
癡	-10.0292
者矣	-10.0299
臣等	-10.0307
渥	-10.0312
溺	-10.0319
輯	-10.0319
禀	-10.0332
寃	-10.0334
禾	-10.034
次韻	-10.0342
文學	-10.0345
倘	-10.0346
閭	-10.0347
寅	-10.0348
阮	-10.0349
清明	-10.0358
拾	-10.0364
先生之	-10.0365
不須	-10.0368
劄子	-10.037
懽	-10.0372
姜	-10.0373
爲之	-10.0375
一字	-10.0378
侣	-10.0385
閔	-10.0387
令人	-10.0395
宛	-10.0398
王氏	-10.0401
五色	-10.0403
不出	-10.0409
巷	-10.0416
蕪	-10.0423
老人	-10.0427
掠	-10.043
南京	-10.0435
父老	-10.0435
鄕	-10.044
些	-10.0445
蟠	-10.0448
道路	-10.0455
鳬	-10.0456
渭	-10.0467
天之	-10.0476
也言	-10.0482
千秋	-10.0487
輦	-10.0508
犬	-10.051
犀	-10.0518
一年	-10.0518
九月	-10.0519
晋	-10.0521
欠	-10.0523
六十	-10.0526
之風	-10.0527
慨	-10.0534
或作	-10.0537
而能	-10.0538
搜	-10.0542
措	-10.0547
旨	-10.0554
亦何	-10.0555
於人	-10.0557
捷	-10.056
正月	-10.0561
萃	-10.0567
貯	-10.0573
而不能	-10.0575
不易	-10.0588
數十	-10.059
軀	-10.0591
汙	-10.0591
蘆	-10.0593
塟	-10.0593
道人	-10.0593
不當	-10.0593
闊	-10.0595
之美	-10.0597
税	-10.0613
一片	-10.0618
臻	-10.0618
公以	-10.0632
亞	-10.0632
博士	-10.0639
其道	-10.0641
二十年	-10.0647
社稷	-10.0652
亦可	-10.0655
去年	-10.0659
雖然	-10.0665
鬬	-10.067
架	-10.0672
揖	-10.0672
團	-10.0674
人家	-10.068
人事	-10.0689
鼻	-10.0695
日夜	-10.0696
恬	-10.0701
研	-10.0701
刋	-10.0705
餐	-10.0711
使之	-10.0715
聼	-10.0719
世間	-10.0719
▁其二	-10.0732
所見	-10.0734
嗜	-10.074
儼	-10.0742
終身	-10.0744
朽	-10.0746
豈有	-10.075
政事	-10.0757
詐	-10.0757
八年	-10.0759
幻	-10.0761
君子之	-10.0767
匡	-10.0771
籬	-10.0774
縷	-10.0775
斯文	-10.0781
若是	-10.0789
紹興	-10.0792
羣臣	-10.0793
赫	-10.0794
沐	-10.0799
登臨	-10.0802
江東	-10.0809
寔	-10.0816
迺	-10.0828
沿	-10.0832
為君	-10.0833
不肖	-10.0835
山下	-10.084
㑹稽	-10.0841
帛	-10.0848
搖	-10.0848
有感	-10.086
則其	-10.0865
廼	-10.0868
戾	-10.0873
萌	-10.0877
蔣	-10.0887
禮部	-10.0891
蠧	-10.0898
風塵	-10.0902
膠	-10.0906
見於	-10.0908
書曰	-10.0909
填	-10.0917
柏	-10.0921
纓	-10.0925
迥	-10.0926
袂	-10.0931
餞	-10.0932
所居	-10.0934
蜂	-10.0934
河東	-10.0936
而去	-10.0945
不朽	-10.0946
此心	-10.095
認	-10.0951
朱子	-10.0956
之大	-10.0959
匿	-10.0972
相對	-10.0982
蹇	-10.0982
耆	-10.0983
車馬	-10.0986
沃	-10.0988
髙祖	-10.0992
沮	-10.0996
曙	-10.1002
其地	-10.1009
縮	-10.1013
簪	-10.1028
闈	-10.1035
利害	-10.1035
誰知	-10.1043
為我	-10.1045
衢	-10.1047
今朝	-10.1049
隄	-10.1053
膚	-10.1059
所得	-10.1066
也又	-10.1072
頴	-10.1073
士之	-10.1074
炳	-10.1077
之樂	-10.108
濡	-10.1082
蟻	-10.1087
皆以	-10.1093
鬚	-10.1094
袍	-10.1101
之詩	-10.1101
纂	-10.1102
題詩	-10.1102
牢	-10.1109
揆	-10.111
輟	-10.111
古者	-10.1115
覔	-10.1123
時有	-10.1126
之命	-10.1128
懲	-10.1132
岩	-10.1138
咫尺	-10.1138
粤	-10.1138
顔色	-10.1149
之類	-10.1149
祖宗	-10.1153
閨	-10.1165
裔	-10.1174
梵	-10.1179
朴	-10.1183
艾	-10.119
也若	-10.1199
数	-10.1202
長者	-10.1202
驥	-10.1205
栗	-10.1218
需	-10.1224
畵	-10.1231
憚	-10.1232
躋	-10.1236
墟	-10.125
汀	-10.1257
鄒	-10.1268
其實	-10.1275
羈	-10.1279
以求	-10.1286
攬	-10.1288
亦無	-10.1295
汲	-10.1304
出門	-10.1306
貸	-10.1309
什	-10.1324
樸	-10.1326
不受	-10.1334
至此	-10.1342
之制	-10.1347
鎖	-10.1349
▁劉	-10.1351
梧	-10.1359
竝	-10.1361
莊子	-10.1363
潰	-10.1363
藁	-10.1369
成都	-10.1371
刼	-10.1371
多少	-10.1371
湧	-10.1372
轡	-10.1374
槩	-10.1385
樽	-10.1394
諷	-10.1396
▁代	-10.1397
稿	-10.1398
有時	-10.1398
丈夫	-10.1402
之理	-10.1404
一身	-10.1405
王公	-10.141
廊	-10.1413
先王	-10.1423
島	-10.1429
掾	-10.1434
砌	-10.1439
若此	-10.1442
橘	-10.1445
尚有	-10.1446
得以	-10.145
佑	-10.1451
峙	-10.1453
▁賀	-10.1459
老子	-10.1463
變化	-10.1466
慷慨	-10.1468
鋪	-10.147
跋	-10.1471
之情	-10.1477
江水	-10.1486
長沙	-10.1494
白首	-10.1499
開元	-10.1504
分明	-10.1507
藍	-10.151
釐	-10.1516
欄	-10.1518
花開	-10.1518
絶句	-10.1522
如今	-10.1522
街	-10.1524
何日	-10.1532
勑	-10.1534
灣	-10.1536
通判	-10.1539
與君	-10.1542
臘	-10.1552
斧	-10.1573
闌	-10.1576
次第	-10.1578
邱	-10.158
戮	-10.1589
筠	-10.1591
東海	-10.1603
司空	-10.1605
周禮	-10.1609
鴛鴦	-10.1611
㦸	-10.1614
滄海	-10.1615
匠	-10.1616
瑟	-10.1619
它	-10.1621
蘿	-10.1621
故其	-10.1627
畱	-10.163
東山	-10.1632
歷	-10.1634
姓名	-10.1635
蔚	-10.1641
饗	-10.1646
大小	-10.1648
這	-10.1662
未盡	-10.1665
君王	-10.1667
城南	-10.1669
奔走	-10.1674
天地之	-10.1675
姪	-10.1676
從之	-10.1679
四月	-10.1683
庇	-10.1685
施行	-10.1689
繪	-10.1691
不免	-10.1697
測	-10.1698
主簿	-10.1703
聰	-10.1713
伏惟	-10.1714
挹	-10.1722
之政	-10.1725
怠	-10.1733
觀其	-10.1736
受命	-10.1737
所為	-10.174
翦	-10.174
劾	-10.1747
汚	-10.1748
詰	-10.1756
縱横	-10.176
䑕	-10.1761
莽	-10.1762
鉅	-10.1762
鳩	-10.1777
楊栁	-10.1787
固有	-10.1787
議論	-10.1788
者為	-10.1788
丹青	-10.1794
錢塘	-10.18
演	-10.1804
絮	-10.1806
太學	-10.1815
可也	-10.1817
造化	-10.1817
天台	-10.1818
咽	-10.1822
明堂	-10.1825
并序	-10.1825
壮	-10.1828
迨	-10.1831
則又	-10.1833
時時	-10.1836
七月	-10.1842
秀才	-10.1843
元祐	-10.1844
雛	-10.1846
暝	-10.1848
棟	-10.1848
箋	-10.1849
傳曰	-10.186
踵	-10.1864
磬	-10.1869
秋水	-10.1871
新詩	-10.1871
葵	-10.1876
鵬	-10.1876
者又	-10.1879
杏	-10.1879
凖	-10.188
某官	-10.1889
萍	-10.1898
風雲	-10.1907
數年	-10.1908
所至	-10.191
羌	-10.191
杳	-10.1912
十七	-10.1913
三十年	-10.1915
門下	-10.1921
凋	-10.193
蒼蒼	-10.1936
出處	-10.1938
悵	-10.1939
豁	-10.1951
故鄉	-10.1951
之賢	-10.1952
上有	-10.1954
簮	-10.1955
臧	-10.1962
之勢	-10.1962
橫	-10.1962
巫	-10.1971
同年	-10.1973
箴	-10.1983
斑	-10.1986
粲	-10.1989
搆	-10.1992
浄	-10.1994
償	-10.1999
𥙷	-10.1999
莫能	-10.2
滌	-10.2004
鷄	-10.2019
冐	-10.2022
夣	-10.2027
先後	-10.2027
得失	-10.2029
嬉	-10.203
括	-10.2049
耗	-10.2053
未得	-10.2056
膽	-10.2056
徼	-10.2065
死生	-10.2067
佞	-10.207
賁	-10.2083
未嘗不	-10.2084
以待	-10.2087
軫	-10.2091
元和	-10.2098
門前	-10.21
憫	-10.2101
租	-10.2104
久矣	-10.2105
六經	-10.2105
擲	-10.2105
不死	-10.2108
未可	-10.2108
八十	-10.2119
翩翩	-10.212
再拜	-10.2123
不言	-10.2132
佇	-10.2133
嘉靖	-10.2134
黍	-10.2139
豹	-10.214
逺近	-10.2141
布衣	-10.2141
恰	-10.2144
蕭條	-10.2146
不欲	-10.2148
替	-10.215
酸	-10.2152
畦	-10.2158
中興	-10.2169
頽	-10.2173
瑩	-10.2175
蹙	-10.2184
盍	-10.2186
日日	-10.2187
之作	-10.219
之難	-10.2195
于是	-10.2204
組	-10.2213
靄	-10.2214
窟	-10.2214
其父	-10.2217
槎	-10.2217
而不知	-10.2219
他人	-10.223
珪	-10.2231
指揮	-10.2235
梢	-10.2236
札	-10.2251
荀	-10.2253
既而	-10.2256
此地	-10.226
教授	-10.2264
讒	-10.2285
挈	-10.229
郢	-10.2291
妻子	-10.2292
敘	-10.2298
幅	-10.2299
九重	-10.2303
隘	-10.2309
捲	-10.2312
紆	-10.2312
椒	-10.2316
瓶	-10.2316
准	-10.2316
何足	-10.2326
而自	-10.2334
萬世	-10.2336
何為	-10.2338
依舊	-10.2342
庚	-10.2346
腐	-10.2348
沛	-10.2361
慨然	-10.2363
於斯	-10.2363
又以	-10.2368
愆	-10.2371
花落	-10.2371
或有	-10.2373
求之	-10.2376
娥	-10.2388
榆	-10.2388
飲酒	-10.2388
鮑	-10.2388
躡	-10.2392
青天	-10.2394
乙	-10.2395
太常	-10.24
墓誌銘	-10.24
其先	-10.2408
舘	-10.2412
佳人	-10.2414
甲子	-10.2428
无	-10.2432
九年	-10.2435
蔬	-10.2436
僊	-10.2438
無限	-10.2439
訛	-10.2441
妓	-10.2443
堦	-10.2443
抛	-10.2446
絡	-10.245
盆	-10.2455
鎭	-10.2458
副使	-10.2458
謡	-10.2463
涯	-10.2467
之論	-10.2468
沼	-10.2472
玊	-10.2474
弛	-10.2478
䕫	-10.2479
此日	-10.2481
所作	-10.2483
安能	-10.249
▁祭	-10.2492
攷	-10.2497
提舉	-10.2501
狼	-10.2505
於世	-10.2508
瀾	-10.2512
至是	-10.2526
武王	-10.2529
馴	-10.2534
郡縣	-10.2543
大抵	-10.2545
寇	-10.2546
宇宙	-10.2557
刃	-10.2559
未易	-10.2559
敕	-10.256
蹟	-10.2566
俯仰	-10.2568
太尉	-10.258
之變	-10.2588
昬	-10.2588
奬	-10.2589
遏	-10.259
塵埃	-10.2595
以成	-10.2598
殫	-10.2602
擒	-10.261
桞	-10.261
若夫	-10.2614
荘	-10.2616
風月	-10.2616
地方	-10.2621
萬一	-10.2622
儔	-10.2623
氏之	-10.2631
有此	-10.2638
恢	-10.2639
廓	-10.2641
下有	-10.2647
凢	-10.2649
豔	-10.2651
之任	-10.2652
相如	-10.2656
飲食	-10.2659
▁某	-10.2663
之數	-10.2667
又何	-10.2671
之謂	-10.2672
秋色	-10.2685
廿	-10.2691
神明	-10.2695
孺	-10.2698
而成	-10.2699
敞	-10.2701
未幾	-10.2708
貺	-10.2714
怡	-10.2714
名曰	-10.2717
▁士	-10.272
縣令	-10.2727
蔓	-10.2729
茗	-10.2733
王孫	-10.2733
而歸	-10.2745
貲	-10.2761
▁賜	-10.2775
人有	-10.2776
所在	-10.2785
艶	-10.2794
拍	-10.2796
蠲	-10.2797
不獲	-10.2801
或曰	-10.2807
减	-10.2814
胄	-10.2823
牋	-10.2823
生於	-10.2824
筍	-10.2826
軟	-10.283
明朝	-10.2832
杜詩	-10.2838
鷹	-10.2839
㢘	-10.2842
一聲	-10.2845
徇	-10.2845
無一	-10.2847
欲以	-10.2849
之術	-10.2852
皇上	-10.2853
麾	-10.2865
現	-10.2878
者曰	-10.288
成功	-10.2883
消息	-10.2885
邸	-10.2889
吁	-10.2889
之内	-10.2902
二三	-10.2902
見寄	-10.2904
若干	-10.2905
蛟	-10.2907
文帝	-10.2909
級	-10.2913
誰與	-10.2916
册	-10.2918
之用	-10.2919
太原	-10.2925
盃	-10.2929
之句	-10.2929
萬年	-10.2932
不動	-10.2935
牡丹	-10.2936
不應	-10.2938
故園	-10.2942
之恩	-10.2946
俸	-10.295
鵠	-10.2952
婉	-10.2958
河北	-10.2958
瘴	-10.296
衾	-10.2962
之計	-10.2963
之患	-10.2967
已而	-10.2969
童子	-10.2971
匈奴	-10.2972
汎	-10.2973
不到	-10.2975
言者	-10.2983
児	-10.2986
昔人	-10.2986
城中	-10.2988
先君	-10.2998
斯人	-10.3
即位	-10.3003
歐陽	-10.301
冗	-10.3012
兔	-10.3014
江海	-10.3015
紳	-10.3019
南陽	-10.3022
忤	-10.3037
有道	-10.3039
撲	-10.3039
矣夫	-10.304
三人	-10.3046
脉	-10.3049
㓂	-10.3053
鈔	-10.3053
寨	-10.306
九州	-10.306
取其	-10.3067
不合	-10.3073
第二	-10.3078
煖	-10.3085
緘	-10.3087
數百	-10.3093
豫章	-10.3097
瓜	-10.3101
夢中	-10.3115
處處	-10.3118
其上	-10.3118
零落	-10.3119
瀆	-10.3125
斜陽	-10.3141
霖	-10.3143
英雄	-10.3145
葺	-10.3145
两	-10.3147
襄陽	-10.3148
九日	-10.3149
丕	-10.315
模	-10.3151
龍門	-10.3153
芬	-10.3157
纒	-10.3162
募	-10.317
此意	-10.317
友人	-10.3172
終不	-10.3176
之徳	-10.3182
視之	-10.3183
勘	-10.3184
虐	-10.319
上書	-10.3192
陌	-10.3201
歌舞	-10.3201
集卷	-10.3209
羸	-10.3211
與其	-10.3214
猶在	-10.3225
不行	-10.3228
一夜	-10.3231
百官	-10.3233
有功	-10.3234
趂	-10.3234
五日	-10.3235
濬	-10.3236
不失	-10.3236
别離	-10.3242
不許	-10.3242
罹	-10.3249
睦	-10.3252
賔客	-10.3252
不作	-10.3255
狄	-10.3259
十九	-10.3264
青青	-10.3268
一見	-10.3269
做	-10.327
耿	-10.3273
冕	-10.3273
逍遥	-10.3279
家人	-10.3288
輕重	-10.3289
汴	-10.3289
􁀙	-10.3295
呂	-10.3297
渺	-10.3298
二百	-10.3301
漿	-10.3301
狎	-10.3302
駿	-10.3302
三尺	-10.3305
空山	-10.3306
有一	-10.331
玉堂	-10.331
淵明	-10.3316
乃知	-10.332
不若	-10.3322
一篇	-10.3326
山之	-10.333
僉	-10.3332
艱難	-10.334
之官	-10.3347
莖	-10.3356
檀	-10.3359
周旋	-10.3361
衮	-10.3363
攘	-10.3367
緯	-10.3371
一百	-10.3374
諡	-10.3379
判官	-10.3384
司徒	-10.3385
▁同前	-10.3388
徂	-10.339
朋友	-10.3393
紗	-10.3399
之重	-10.3413
仲尼	-10.3421
膳	-10.3423
詩序	-10.3425
穹	-10.3432
李氏	-10.3435
數日	-10.3438
恭惟	-10.3439
倪	-10.3441
耻	-10.3448
系	-10.3449
頥	-10.3454
其一	-10.3454
鄉人	-10.3456
柴	-10.3457
廬山	-10.3457
之行	-10.3461
㕘	-10.3468
一曲	-10.347
逋	-10.3472
荆州	-10.3474
▁昔	-10.3478
未見	-10.3479
自得	-10.3481
闇	-10.3481
雨露	-10.3486
無心	-10.3487
之語	-10.3488
牖	-10.3495
揭	-10.3496
甕	-10.3505
衫	-10.3505
派	-10.3507
珮	-10.3509
道也	-10.3509
之罪	-10.3512
誰家	-10.3517
人以	-10.3517
摇	-10.3521
失其	-10.3521
剖	-10.3525
臣聞	-10.3526
山色	-10.3529
兎	-10.3536
棺	-10.3537
坦	-10.354
死者	-10.3541
上帝	-10.3544
鬭	-10.3546
寒暑	-10.3547
駒	-10.3548
寒食	-10.3548
邨	-10.3553
中庸	-10.3556
與人	-10.3556
當世	-10.3557
幽人	-10.3559
迭	-10.3563
峭	-10.3566
天道	-10.3567
芒	-10.3568
屐	-10.3568
滄浪	-10.3573
遂以	-10.3574
也吾	-10.3576
翅	-10.3577
以告	-10.3584
其可	-10.359
将軍	-10.359
百萬	-10.3595
之職	-10.3598
祕	-10.3605
以詩	-10.3606
門人	-10.361
牲	-10.3612
雖不	-10.3618
殷勤	-10.3622
薫	-10.3624
徃徃	-10.3624
䦨	-10.3627
言其	-10.363
坎	-10.3634
閉門	-10.3637
賑	-10.3642
軾	-10.3644
氛	-10.3654
遣使	-10.3654
畝	-10.3658
後漢	-10.3662
之可	-10.3662
矩	-10.3663
秪	-10.3667
人所	-10.3675
鷺	-10.3677
洒	-10.3677
㱕	-10.3684
妨	-10.3684
騁	-10.3687
勾	-10.3691
人主	-10.3692
皷	-10.3695
黄河	-10.3698
曰是	-10.3698
版	-10.3703
帙	-10.3704
不知其	-10.3709
對曰	-10.371
於天下	-10.371
隊	-10.371
無他	-10.3716
閫	-10.3722
祉	-10.3731
不暇	-10.3731
羮	-10.3732
以後	-10.3732
意氣	-10.3733
狹	-10.3733
以至	-10.3734
牘	-10.3734
洋	-10.3736
隐	-10.3736
依然	-10.3737
本無	-10.3739
孫曰	-10.3744
液	-10.3747
始終	-10.3751
䧟	-10.3752
䏻	-10.3752
何其	-10.3753
潦	-10.376
扣	-10.3761
岫	-10.3762
宥	-10.3763
則是	-10.3763
書院	-10.3764
薰	-10.3768
其有	-10.377
文公	-10.3772
金華	-10.378
可知	-10.3781
禪師	-10.3782
株	-10.3783
於天	-10.3814
皓	-10.3823
嵐	-10.3824
饋	-10.3826
慵	-10.3829
何由	-10.3831
槖	-10.3833
山河	-10.3838
塢	-10.3841
繆	-10.3844
有大	-10.385
舍人	-10.3853
年少	-10.3855
太夫人	-10.3855
自謂	-10.3856
妝	-10.3861
其下	-10.3862
綬	-10.3864
今古	-10.387
至正	-10.3876
五百	-10.388
狗	-10.3881
恪	-10.3883
白髮	-10.3885
覲	-10.3886
批	-10.3888
可見	-10.389
掲	-10.3896
孝子	-10.3902
浚	-10.3908
世事	-10.3911
祁	-10.3915
罄	-10.3923
張氏	-10.3925
逈	-10.3927
霍	-10.3935
於今	-10.3938
生死	-10.394
棗	-10.3942
佚	-10.3946
噐	-10.395
帝王	-10.3954
隕	-10.3955
則曰	-10.3956
不少	-10.3963
一家	-10.3968
孝友	-10.3975
依依	-10.3975
穢	-10.3976
亦以	-10.3979
未至	-10.3981
芽	-10.3984
稼	-10.399
無可	-10.3991
國公	-10.3993
舟中	-10.3998
以致	-10.3998
億	-10.4001
羲	-10.4008
肖	-10.4011
而復	-10.4019
鄉里	-10.4023
慣	-10.4024
雲山	-10.4026
酷	-10.4039
二公	-10.4049
凄	-10.4049
昔者	-10.405
鐡	-10.406
髯	-10.4061
將以	-10.407
丸	-10.4073
著書	-10.4078
安知	-10.4078
之矣	-10.408
嗟乎	-10.4081
茹	-10.4086
鋤	-10.4086
贍	-10.4088
春水	-10.4094
干戈	-10.4095
崑崙	-10.4109
禮記	-10.411
此其	-10.4113
萬國	-10.4114
其才	-10.4117
皇后	-10.4117
為文	-10.4124
讐	-10.4127
之利	-10.4129
麓	-10.4131
豈可	-10.4153
鬻	-10.4158
漾	-10.4162
事業	-10.4168
不爲	-10.4171
駢	-10.4174
而行	-10.4176
其親	-10.418
張公	-10.4184
十萬	-10.4186
寮	-10.4189
自知	-10.4191
釀	-10.4193
銓	-10.4196
終始	-10.4197
之力	-10.42
舅	-10.4203
-	-10.4206
婦人	-10.4212
欹	-10.4213
帯	-10.4214
有序	-10.4215
確	-10.422
於時	-10.423
李公	-10.4231
其所以	-10.4231
相從	-10.4235
而卒	-10.4253
起居	-10.4253
孫男	-10.4255
薨	-10.4255
之弊	-10.4259
鉤	-10.4261
熹	-10.4262
溫	-10.4263
之末	-10.4265
廬陵	-10.4268
鴨	-10.4271
江陵	-10.4271
獨立	-10.4272
涇	-10.4278
而已矣	-10.4284
人人	-10.4292
奕	-10.4296
歆	-10.4297
無有	-10.4304
壻	-10.4306
儒者	-10.4308
諾	-10.4309
▁詠	-10.4311
無情	-10.4319
之憂	-10.4319
笙	-10.4319
百世	-10.4324
白馬	-10.4325
有子	-10.4333
稔	-10.4337
綜	-10.4338
梯	-10.4342
而未	-10.4349
而弗	-10.4354
嶠	-10.4354
教之	-10.4358
鏤	-10.4361
衙	-10.4367
愼	-10.4369
剡	-10.437
之門	-10.4376
五言	-10.4386
稷	-10.4396
戢	-10.4397
夙夜	-10.4408
同心	-10.4413
弘	-10.4426
夜深	-10.4427
三十六	-10.4427
譚	-10.443
昨日	-10.4432
雲中	-10.444
退之	-10.444
萊	-10.4442
曩	-10.445
用兵	-10.4458
如故	-10.4464
學問	-10.4464
糾	-10.4464
先帝	-10.447
閏	-10.447
聖明	-10.4479
之役	-10.4482
讎	-10.4484
郡守	-10.4486
春雨	-10.4486
賚	-10.4486
畆	-10.4491
洪武	-10.4492
筭	-10.4493
渴	-10.4496
艷	-10.4505
論語	-10.4506
物之	-10.4507
唐人	-10.4512
學校	-10.4518
漠漠	-10.4524
▁楊	-10.4527
太極	-10.4531
取之	-10.4534
沖	-10.4535
春草	-10.4536
侮	-10.4536
歎息	-10.4539
夲	-10.4542
醴	-10.4543
北山	-10.4545
因以	-10.4545
監察御史	-10.455
訝	-10.4552
陜	-10.4555
厓	-10.456
湖上	-10.456
瀟湘	-10.4569
寂寥	-10.4571
擕	-10.4574
焉而	-10.4575
縛	-10.4576
矣今	-10.458
韜	-10.4596
甸	-10.4597
樓臺	-10.4598
樂天	-10.4602
于此	-10.4607
呌	-10.4613
黄花	-10.4614
王子	-10.4616
不善	-10.4621
▁唐	-10.4624
澆	-10.4624
觀之	-10.4624
劔	-10.4626
迄	-10.4628
不止	-10.4639
轅	-10.4643
尼	-10.4643
多士	-10.4645
不信	-10.4646
閟	-10.4648
䘏	-10.4653
東方	-10.4656
者多	-10.4658
眇	-10.4662
天命	-10.4664
轂	-10.4672
之節	-10.4673
苖	-10.4673
泰山	-10.4676
不起	-10.4681
企	-10.4682
眩	-10.4684
此身	-10.4686
古文	-10.4686
忠信	-10.4691
晝夜	-10.4691
般	-10.4693
枚	-10.4694
灼	-10.47
幾時	-10.4701
而得	-10.4702
鋭	-10.4704
城郭	-10.4707
不妨	-10.471
茅屋	-10.4711
一名	-10.4711
穎	-10.4713
漆	-10.4714
渙	-10.4714
闡	-10.4719
猥	-10.472
蛟龍	-10.472
翹	-10.472
其能	-10.4721
詩話	-10.4722
亢	-10.4725
非有	-10.4727
忠義	-10.4731
湖南	-10.4736
野人	-10.4737
埀	-10.474
之辭	-10.4743
趙曰	-10.4746
掖	-10.4748
弭	-10.476
京兆	-10.4762
江淮	-10.4763
㠶	-10.4767
聰明	-10.477
生平	-10.4771
是為	-10.4774
㨗	-10.4775
白石	-10.4777
從來	-10.4779
跳	-10.4779
女子	-10.478
沸	-10.4782
閤	-10.4783
溜	-10.4787
君家	-10.479
萬人	-10.4792
之業	-10.4793
一一	-10.4796
溥	-10.4798
嘲	-10.4802
公為	-10.4807
忿	-10.4813
未足	-10.4814
準	-10.4817
絕	-10.4817
其說	-10.4828
蘂	-10.4828
倐	-10.483
杭州	-10.4834
不遇	-10.4835
不已	-10.4836
彛	-10.4836
莭	-10.4838
注云	-10.4842
廩	-10.4844
姻	-10.4844
厨	-10.4849
林下	-10.4849
剥	-10.4851
譬	-10.4851
而不可	-10.4854
礙	-10.4856
非是	-10.486
夜半	-10.4863
覓	-10.487
▁帝	-10.4873
紋	-10.4876
劉氏	-10.4877
畨	-10.4878
一生	-10.488
之實	-10.4883
裙	-10.4884
至元	-10.4886
蟾	-10.4889
憔悴	-10.4891
元氣	-10.4898
李白	-10.4899
宗廟	-10.49
迅	-10.4905
訊	-10.4908
拈	-10.4914
尋常	-10.4924
浙江	-10.4926
晉書	-10.4926
二十四	-10.4927
摹	-10.4927
非所	-10.4932
蘓	-10.4938
七日	-10.4939
虗	-10.4951
言語	-10.4956
粒	-10.4959
吾子	-10.496
斤	-10.496
拳	-10.4969
祔	-10.497
湍	-10.497
箕	-10.4971
豈知	-10.4977
之治	-10.4981
夸	-10.4985
不絶	-10.4985
之使	-10.4988
為政	-10.499
翫	-10.4993
也則	-10.4998
啄	-10.5
髻	-10.5002
我亦	-10.5005
年來	-10.5005
螢	-10.5008
長江	-10.5009
白雪	-10.5017
不厭	-10.5017
先是	-10.502
所聞	-10.5021
鞏	-10.5028
娛	-10.503
忠孝	-10.503
恊	-10.5032
相傳	-10.5043
猜	-10.5043
有二	-10.5043
無異	-10.5043
官吏	-10.5051
脂	-10.5052
洎	-10.5055
平原	-10.5056
奢	-10.5056
惕	-10.5058
而非	-10.5062
畿	-10.5062
恠	-10.5071
逞	-10.5071
何須	-10.5072
於朝	-10.508
▁陛下	-10.508
撓	-10.5083
巡撫	-10.5085
琵琶	-10.5086
厄	-10.5088
惰	-10.5093
久之	-10.5101
其義	-10.5108
▁跋	-10.5111
揚雄	-10.5115
五湖	-10.5121
此事	-10.5127
大江	-10.5129
之家	-10.5137
一巻	-10.5137
臨川	-10.514
不顧	-10.514
寂寂	-10.5142
慟	-10.5145
釵	-10.5145
葩	-10.5146
寘	-10.5147
太師	-10.5155
員外	-10.5158
世人	-10.5165
所當	-10.5165
有言	-10.5173
豈能	-10.5173
讀之	-10.5173
知君	-10.5178
然其	-10.5178
馨	-10.5182
餌	-10.5185
十載	-10.5185
亘	-10.519
以文	-10.5194
一事	-10.5202
相繼	-10.5206
趙云	-10.5206
海棠	-10.5213
傷心	-10.5215
斾	-10.5234
衣食	-10.5236
得一	-10.5239
三公	-10.524
也哉	-10.5245
奎	-10.5247
不通	-10.5249
别有	-10.525
同知	-10.5255
聿	-10.5256
炊	-10.5256
閣下	-10.5258
為國	-10.5258
悍	-10.526
鯨	-10.526
之私	-10.5261
衣裳	-10.5273
桃源	-10.5273
銳	-10.5275
五首	-10.5283
勃	-10.5284
渡江	-10.5284
杏花	-10.5288
江漢	-10.529
者哉	-10.5291
吾道	-10.5296
簟	-10.5298
古詩	-10.5299
簫	-10.53
何用	-10.5301
垢	-10.5303
事之	-10.5306
漂	-10.5307
何當	-10.5308
腴	-10.5313
未免	-10.5315
奄	-10.5316
曰我	-10.5317
腥	-10.5317
圎	-10.5317
歐	-10.532
是日	-10.5326
苛	-10.5328
悠然	-10.5331
肌	-10.5331
乂	-10.5331
丙	-10.5335
無言	-10.5342
無由	-10.5344
治之	-10.5351
拓	-10.5353
挿	-10.5353
潁	-10.5353
侍中	-10.5357
老成	-10.5362
蕙	-10.5362
第三	-10.5365
倩	-10.537
之始	-10.5372
敲	-10.5375
苞	-10.5379
之禍	-10.5379
春光	-10.538
想見	-10.5385
而今	-10.5387
不求	-10.5389
若有	-10.5392
縯	-10.5404
龔	-10.5408
不獨	-10.5413
由來	-10.5415
本朝	-10.5418
有聲	-10.542
琳	-10.5422
弁	-10.5428
驂	-10.5431
何有	-10.5435
與夫	-10.5438
婚	-10.5439
此言	-10.5441
膝	-10.5443
只是	-10.5446
四人	-10.5448
黄帝	-10.545
妬	-10.5453
之誠	-10.5454
帽	-10.5459
一本	-10.5464
然也	-10.5468
人言	-10.5471
此則	-10.5473
訂	-10.5478
議者	-10.5481
九十	-10.5483
乎此	-10.5483
給事中	-10.5484
不負	-10.5488
:	-10.5496
大父	-10.5498
瀑	-10.5504
釁	-10.5514
贖	-10.5514
於其	-10.5515
雲氣	-10.5518
人者	-10.5522
未聞	-10.5528
▁皇	-10.553
翰墨	-10.5531
之屬	-10.5534
何妨	-10.5537
鳯凰	-10.5543
幾何	-10.5562
雋	-10.5563
蹄	-10.5564
天理	-10.5567
落葉	-10.5577
或以	-10.5585
為誰	-10.5587
娘	-10.5588
諸將	-10.5588
其功	-10.559
謂其	-10.5595
甘泉	-10.5597
未敢	-10.5597
於外	-10.56
冨	-10.56
他年	-10.5601
不宜	-10.5601
覈	-10.5602
大將軍	-10.5608
沂	-10.5609
梗	-10.561
老去	-10.5611
飈	-10.5613
豪傑	-10.5615
▁宿	-10.5616
之資	-10.5616
百尺	-10.5617
陜西	-10.563
便是	-10.5631
之師	-10.5633
熏	-10.5636
相國	-10.5637
憎	-10.5638
彫	-10.5638
聮	-10.564
熾	-10.5641
之本	-10.5642
裹	-10.5644
臣之	-10.5644
▁編	-10.5651
罵	-10.5652
始知	-10.5652
訣	-10.5655
故云	-10.5658
前日	-10.5663
旌旗	-10.5665
覧	-10.567
而上	-10.5677
刪	-10.5679
斛	-10.568
文選	-10.568
我心	-10.568
黄昏	-10.5691
豈惟	-10.5694
少卿	-10.5694
不問	-10.5696
不明	-10.5701
節度	-10.5706
裾	-10.5709
之流	-10.571
葦	-10.5711
所有	-10.5712
三山	-10.5712
無遺	-10.5714
矣故	-10.5714
蕭然	-10.5714
倣	-10.5718
漠	-10.5719
所知	-10.5724
可為	-10.5729
笋	-10.573
乃以	-10.5735
簇	-10.5736
繹	-10.5736
夜雨	-10.5737
昨夜	-10.5742
道徳	-10.5749
池上	-10.5751
濵	-10.5754
仄	-10.5758
骨肉	-10.576
鵝	-10.576
陳氏	-10.5763
扁	-10.5765
紅塵	-10.5766
書之	-10.5775
刹	-10.5776
先人	-10.5779
在此	-10.5779
肝	-10.578
稠	-10.5781
諸君	-10.5781
蒼生	-10.5781
君不見	-10.5782
復有	-10.5785
胡為	-10.5795
何也	-10.5798
不改	-10.5804
篋	-10.5807
幕府	-10.5821
甄	-10.5823
竈	-10.5823
醪	-10.5824
媒	-10.5832
甥	-10.5832
芻	-10.584
執政	-10.5841
者乃	-10.5842
十餘	-10.5842
其本	-10.5845
太后	-10.5848
苐	-10.5848
雲間	-10.5851
不解	-10.5853
押	-10.5856
者或	-10.5858
之教	-10.5859
功成	-10.5859
名山	-10.5859
貝	-10.5869
文集	-10.587
三四	-10.5875
卻	-10.5878
廣陵	-10.5879
璞	-10.5886
妣	-10.5893
▁趙	-10.5897
者何	-10.5897
惱	-10.59
藹	-10.5902
兒女	-10.5905
時節	-10.5906
故國	-10.5907
抄	-10.5914
和氣	-10.5914
其説	-10.5916
楷	-10.5925
漳	-10.5925
天子之	-10.5926
經營	-10.5927
知音	-10.5928
同時	-10.5932
稱其	-10.5937
夫婦	-10.5941
永嘉	-10.5948
向來	-10.5949
龎	-10.595
悶	-10.5955
細雨	-10.5955
馬上	-10.5956
瀉	-10.5956
迪	-10.5956
深處	-10.5956
之世	-10.5958
炙	-10.5959
豕	-10.596
憩	-10.5967
大事	-10.5971
㓕	-10.5972
粥	-10.5975
呵	-10.5975
而止	-10.5977
為善	-10.5978
埽	-10.5982
中間	-10.5982
螺	-10.5984
鼠	-10.5984
竦	-10.5984
寖	-10.5987
衆人	-10.5988
殺人	-10.5991
侍從	-10.5993
窈窕	-10.5994
檜	-10.5994
孽	-10.5996
舉進士	-10.6001
琢	-10.6001
乆矣	-10.6003
鎻	-10.6003
胸中	-10.6007
嬾	-10.6008
翟	-10.6022
之妙	-10.6023
而言	-10.6025
矣其	-10.6029
具官某	-10.6029
孔子曰	-10.6031
覃	-10.6032
渇	-10.6039
中流	-10.6039
燈火	-10.6041
求其	-10.6043
嫩	-10.6046
鞠	-10.6048
蟄	-10.6048
兒童	-10.6049
聯	-10.6051
先王之	-10.6056
不可不	-10.6058
無聲	-10.6058
有三	-10.6061
縹緲	-10.6065
何年	-10.6074
拊	-10.6074
詔書	-10.6076
東北	-10.6077
自此	-10.6081
多病	-10.6083
談笑	-10.6086
兵部	-10.6087
時人	-10.6091
必以	-10.6097
榭	-10.6099
鐫	-10.6101
㕔	-10.6101
字子	-10.6102
也自	-10.6104
敢不	-10.6106
東都	-10.6108
鄂	-10.6109
廟堂	-10.6109
瑕	-10.6112
以禮	-10.6114
也且	-10.6117
武昌	-10.6119
倅	-10.6122
昆	-10.6123
伺	-10.6123
▁次	-10.6123
湖山	-10.6126
糴	-10.6129
朶	-10.613
軼	-10.6132
陽春	-10.6132
劣	-10.6135
遞	-10.6136
重陽	-10.6141
不逮	-10.6145
▁春日	-10.6152
後來	-10.6158
兇	-10.6158
悠	-10.6161
悖	-10.6161
本末	-10.6162
亦非	-10.6162
窘	-10.6173
鈴	-10.6173
十二月	-10.6174
內	-10.6184
大義	-10.6188
還家	-10.6189
異時	-10.619
知有	-10.619
翮	-10.6192
霏	-10.6198
之望	-10.6199
作者	-10.6199
自號	-10.62
畀	-10.6202
也此	-10.6209
番	-10.6209
忠臣	-10.6213
歲月	-10.6217
謚	-10.6223
一方	-10.6228
絹	-10.6233
鑰	-10.6233
逺矣	-10.6242
六合	-10.6244
人才	-10.6247
贏	-10.625
上元	-10.6258
貧賤	-10.6261
則不	-10.6263
大人	-10.6269
油	-10.6272
鄴	-10.6279
失之	-10.6279
我欲	-10.6287
邃	-10.6289
子男	-10.6289
福建	-10.6289
韓愈	-10.6298
廹	-10.6299
迢迢	-10.6299
虬	-10.6301
犢	-10.6301
餓	-10.6304
而死	-10.6306
爾雅	-10.6312
亦自	-10.6315
於上	-10.6316
須臾	-10.6322
徳之	-10.6325
詩文	-10.6329
笏	-10.633
滕	-10.6333
殺之	-10.6333
頋	-10.6335
沽	-10.6337
道者	-10.6339
睂	-10.6341
新安	-10.6344
儂	-10.6347
北斗	-10.6355
浹	-10.6362
太息	-10.6363
其時	-10.6365
詆	-10.6365
也公	-10.6367
様	-10.6367
國史	-10.6376
登髙	-10.6376
逄	-10.6377
成王	-10.6384
故也	-10.6385
望之	-10.639
涸	-10.6392
儘	-10.6394
郵	-10.6396
皎	-10.6399
一世	-10.6399
聞其	-10.64
山隂	-10.64
有志	-10.64
所能	-10.6404
一曰	-10.6406
法度	-10.641
于今	-10.641
輓	-10.6411
僣	-10.6414
也予	-10.6414
舂	-10.6415
煎	-10.6421
叠	-10.6426
反覆	-10.6426
塵土	-10.6428
蜜	-10.6431
其勢	-10.6432
之衆	-10.6435
黛	-10.6437
大道	-10.6439
饌	-10.6443
月下	-10.6444
人不	-10.6445
風光	-10.6451
世祖	-10.6453
所藏	-10.6457
學之	-10.6462
歸路	-10.6465
父兄	-10.6465
事君	-10.6469
颺	-10.6471
鼇	-10.6475
書生	-10.648
永樂	-10.6481
給事	-10.6503
南海	-10.6505
多情	-10.6506
不入	-10.6506
翊	-10.6507
也余	-10.6508
榦	-10.651
鐸	-10.651
梧桐	-10.6516
培	-10.6522
無恙	-10.6525
知縣	-10.6526
無為	-10.6537
待制	-10.6545
於是乎	-10.6546
之舊	-10.6547
楓	-10.6547
稚	-10.6547
春日	-10.655
巽	-10.6553
公孫	-10.6554
拾遺	-10.6556
氣象	-10.656
邢	-10.6563
載酒	-10.6564
春來	-10.6565
▁里	-10.6567
篷	-10.6567
曳	-10.6567
搏	-10.6568
珊瑚	-10.6573
大學	-10.6573
單于	-10.6576
裡	-10.6578
日以	-10.6582
擔	-10.6585
稟	-10.6585
有人	-10.6588
鸚鵡	-10.6592
所載	-10.6594
愍	-10.6596
不樂	-10.6599
售	-10.6599
成化	-10.6602
棠	-10.6603
盡日	-10.6606
故有	-10.6612
洩	-10.6618
晁	-10.6625
譴	-10.6628
使其	-10.6628
憾	-10.6629
武陵	-10.6634
只有	-10.6636
在於	-10.664
盼	-10.664
燕子	-10.6641
在天	-10.6641
老夫	-10.6642
孤舟	-10.6644
尚未	-10.6647
行事	-10.6648
光武	-10.6649
昌黎	-10.6653
惶	-10.6655
欣然	-10.6655
隻	-10.6665
數月	-10.6667
緫	-10.6668
所欲	-10.6677
廪	-10.6678
篁	-10.6678
别後	-10.6679
禮義	-10.6682
以備	-10.6685
世家	-10.6687
而求	-10.6688
黔	-10.6689
其民	-10.6691
鑾	-10.6691
則必	-10.6697
庠	-10.6701
與子	-10.6708
造物	-10.671
小兒	-10.6713
偶然	-10.6714
蠟	-10.6723
得此	-10.6729
功臣	-10.673
於前	-10.6732
貞元	-10.6733
以聞	-10.6734
盪	-10.6737
愛之	-10.6741
閻	-10.6741
甚矣	-10.6746
股	-10.6747
其詩	-10.6753
相知	-10.6754
瑤	-10.6756
好學	-10.6757
不逺	-10.6764
邂逅	-10.6768
趾	-10.6768
十五年	-10.6775
净	-10.6775
未成	-10.6776
參軍	-10.6782
灾	-10.6783
檐	-10.6786
知已	-10.6786
浩蕩	-10.6786
楫	-10.6787
泄	-10.6791
蒼茫	-10.6793
不能自	-10.6795
焚香	-10.6801
泯	-10.6806
以俟	-10.6811
真人	-10.6812
詹	-10.6814
翕	-10.6824
近世	-10.683
▁史	-10.6841
推官	-10.6843
堂上	-10.6843
氊	-10.6849
風波	-10.6854
秋月	-10.6858
監司	-10.686
燎	-10.686
檣	-10.6862
盛徳	-10.6872
斟	-10.6872
之聲	-10.6873
左氏	-10.6873
以言	-10.6878
一夕	-10.6881
老矣	-10.6881
公主	-10.6894
言也	-10.6896
更有	-10.6898
滄洲	-10.6905
七言	-10.6906
其職	-10.6908
胸	-10.6917
愜	-10.6917
韵	-10.6919
山西	-10.6921
平日	-10.6923
雨過	-10.6925
不廢	-10.6928
卉	-10.6928
不辭	-10.6931
王者	-10.6932
者謂	-10.6934
以来	-10.6934
江頭	-10.6936
歉	-10.6938
冢	-10.6938
亭亭	-10.6944
則為	-10.6946
冉冉	-10.6948
白玉	-10.6949
之典	-10.6949
溪上	-10.6952
黯	-10.6953
其行	-10.6956
有客	-10.6957
掇	-10.6961
也是	-10.6966
注曰	-10.6969
可惜	-10.6971
航	-10.6972
棊	-10.6973
死而	-10.6975
閎	-10.6977
蘋	-10.6982
嘶	-10.6983
笻	-10.6987
多矣	-10.6988
閒居	-10.6988
故能	-10.6988
感激	-10.6989
百餘	-10.6991
誡	-10.6995
安危	-10.6998
胎	-10.6998
古來	-10.6998
不歸	-10.6999
南國	-10.7005
臨風	-10.7008
喬木	-10.7009
有不	-10.7009
褐	-10.7012
齎	-10.7016
有意	-10.7019
婁	-10.7029
岱	-10.7032
覿	-10.7037
所宜	-10.7037
拯	-10.7039
貴賤	-10.704
公諱	-10.7042
綰	-10.7045
三子	-10.7048
北風	-10.7051
暄	-10.7059
坑	-10.7061
人之所	-10.7061
不食	-10.7062
梳	-10.7068
是則	-10.7069
暎	-10.7074
蒿	-10.7077
勉之	-10.7079
E	-10.7079
T	-10.7079
前人	-10.7081
髣髴	-10.7082
幄	-10.7084
其母	-10.7084
得人	-10.7085
賈誼	-10.7085
籟	-10.7088
駟	-10.709
麒麟	-10.7095
之榮	-10.71
寐	-10.7107
挑	-10.7115
無數	-10.7117
無愧	-10.7118
箱	-10.7119
超然	-10.7125
顏	-10.7127
考之	-10.7131
歿	-10.7132
核	-10.7132
汾	-10.7134
子美	-10.7136
生民	-10.7136
芸	-10.7137
柴門	-10.7139
長史	-10.7142
愴	-10.7153
煮	-10.7155
斃	-10.7156
山居	-10.7158
鈍	-10.7158
鞍	-10.716
郁	-10.7163
鬟	-10.7167
䟦	-10.717
牟	-10.7174
蓮花	-10.718
不一	-10.7183
太傅	-10.7184
爻	-10.7185
諳	-10.7185
頤	-10.7188
碧雲	-10.7188
叚	-10.719
來者	-10.719
坂	-10.7193
百家	-10.7196
婢	-10.7197
関	-10.7198
為大	-10.72
得意	-10.7202
瘠	-10.7205
蝕	-10.7214
禆	-10.7215
衲	-10.722
跪	-10.7221
所言	-10.7221
耿耿	-10.7223
扶桑	-10.7224
青春	-10.7225
存者	-10.7231
而知	-10.7231
歙	-10.7235
心事	-10.7238
辜	-10.7239
松風	-10.7242
師友	-10.7243
鴛	-10.7243
今人	-10.7244
之要	-10.7245
之勞	-10.7245
至矣	-10.7247
庖	-10.7252
濱	-10.7254
髙下	-10.7256
及此	-10.7263
可得	-10.7264
上天	-10.7264
其他	-10.7265
廡	-10.7266
化為	-10.727
之能	-10.7274
十一月	-10.7276
庶㡬	-10.7278
曲江	-10.7279
磯	-10.728
以相	-10.7281
識者	-10.7288
都督	-10.729
墀	-10.729
長生	-10.729
不似	-10.7298
可乎	-10.7305
玉山	-10.7305
文辭	-10.7307
登樓	-10.731
竊以	-10.7331
之遺	-10.7332
以明	-10.7333
以謂	-10.7337
幾人	-10.7339
唐虞	-10.734
偈	-10.7357
天人	-10.7358
頸	-10.736
復何	-10.7364
鳳凰	-10.7365
也乃	-10.7368
諸人	-10.7369
江左	-10.7373
也非	-10.7376
阡	-10.7377
不下	-10.738
此亦	-10.7384
諸儒	-10.7385
不佞	-10.7386
闔	-10.7387
但見	-10.7388
人知	-10.739
仁宗	-10.7391
或謂	-10.7393
屑	-10.7394
一杯	-10.7398
送客	-10.7399
禍福	-10.7399
在上	-10.7399
男子	-10.741
者固	-10.7412
生涯	-10.7414
非其	-10.7418
緝	-10.7423
自言	-10.7423
之原	-10.7424
嵗時	-10.743
姊	-10.743
所稱	-10.7432
方今	-10.7435
莫敢	-10.7435
相看	-10.7438
耒	-10.7441
盜賊	-10.7441
礪	-10.7444
周之	-10.7444
蹕	-10.7452
星辰	-10.7452
侔	-10.7457
殞	-10.7458
公事	-10.746
置之	-10.7469
自憐	-10.747
甌	-10.747
瑣	-10.747
之先	-10.7472
有常	-10.7473
看花	-10.7476
十餘年	-10.7476
瓢	-10.748
壅	-10.7486
五行	-10.7488
日出	-10.749
一官	-10.7491
石上	-10.7491
嘉定	-10.7492
在位	-10.7494
嗔	-10.7496
扈	-10.7502
天意	-10.7504
也然則	-10.7508
梨	-10.7515
曽祖	-10.7515
退而	-10.7516
無定	-10.7516
五更	-10.7516
聖朝	-10.752
溪山	-10.7522
置酒	-10.7527
堂堂	-10.7528
無極	-10.7531
之體	-10.7538
而况	-10.7539
西京	-10.7542
摶	-10.7543
聞道	-10.7547
臆	-10.7549
舫	-10.7552
而出	-10.7553
當是時	-10.7555
章句	-10.7557
悚	-10.7559
屈原	-10.7561
徃來	-10.7562
悅	-10.7565
劄	-10.7566
以前	-10.7568
離騷	-10.7572
伊尹	-10.7574
曵	-10.7575
皆可	-10.7577
耐	-10.758
繄	-10.7582
隳	-10.7582
善惡	-10.7582
不亦	-10.7584
惟其	-10.759
萬頃	-10.7591
上方	-10.7592
伎	-10.7593
嬴	-10.7601
鉞	-10.7607
▁臣聞	-10.7609
贅	-10.7612
蔑	-10.7623
相去	-10.7624
落落	-10.7624
是謂	-10.7627
辛苦	-10.763
桀	-10.7631
睹	-10.7632
少陵	-10.7633
檢校	-10.7633
光明	-10.7635
重來	-10.7637
凛	-10.764
二者	-10.7645
節度使	-10.7646
悵望	-10.7646
晞	-10.7651
與世	-10.7654
竹林	-10.7656
於後	-10.7659
楮	-10.7659
你	-10.7662
不疑	-10.7668
賖	-10.7673
城西	-10.7678
屨	-10.7684
十分	-10.7685
遯	-10.7688
㡌	-10.769
其在	-10.7691
上林	-10.7691
不去	-10.7695
玉樹	-10.7695
劫	-10.7699
豈獨	-10.7705
昔年	-10.7706
插	-10.7707
糜	-10.7707
懦	-10.7712
㤙	-10.7713
汲汲	-10.7713
椎	-10.7721
綽	-10.7722
而天下	-10.7725
蛩	-10.7727
宋玉	-10.7731
擘	-10.7735
妹	-10.7735
明主	-10.7736
離别	-10.7736
士卒	-10.7736
玲瓏	-10.7738
忻	-10.7739
廣東	-10.7739
繭	-10.7739
曼	-10.774
國朝	-10.774
蛾	-10.7741
暈	-10.7741
蛙	-10.7744
北海	-10.7746
宫中	-10.7746
之失	-10.775
彭城	-10.7751
如此則	-10.7753
覇	-10.7755
秋聲	-10.7756
狥	-10.7758
不息	-10.7759
獨有	-10.7759
夜月	-10.7759
不可得	-10.776
於民	-10.7763
鯉	-10.7763
亦未	-10.7764
撼	-10.7775
之仁	-10.7777
誚	-10.7777
顆	-10.778
疇昔	-10.778
屯田	-10.7783
太和	-10.7783
驩	-10.7794
線	-10.7796
思之	-10.7796
以事	-10.78
大雅	-10.7802
莎	-10.7803
止於	-10.7803
近日	-10.7807
寥	-10.7808
為一	-10.7808
之謀	-10.781
讌	-10.7811
牛羊	-10.7813
所著	-10.7817
俠	-10.7818
斯民	-10.7821
緇	-10.7821
世俗	-10.7822
山寺	-10.7822
集巻十	-10.7822
水流	-10.7823
此生	-10.7823
埃	-10.7824
者豈	-10.7824
嘉祐	-10.7826
五代	-10.7831
安人	-10.7833
茵	-10.7834
牌	-10.7837
楊柳	-10.7837
無疑	-10.7843
天性	-10.785
酋	-10.7851
而欲	-10.7852
▁荅	-10.7859
一月	-10.7863
咸陽	-10.7866
蘇州	-10.7868
幢	-10.7871
乎哉	-10.7872
哺	-10.788
三世	-10.7881
五六	-10.7882
匝	-10.7885
天寒	-10.7888
所以為	-10.789
風景	-10.7891
事者	-10.7891
用事	-10.7891
其書	-10.7892
之德	-10.7893
詩成	-10.7893
尙	-10.7904
冡	-10.7904
玷	-10.7908
一念	-10.7909
一體	-10.7912
九江	-10.7914
之靈	-10.7915
固已	-10.7918
十二年	-10.7919
宜人	-10.7921
教化	-10.7922
因其	-10.7922
猶可	-10.7923
滛	-10.7926
無私	-10.7929
經綸	-10.7931
騐	-10.7937
畫圖	-10.7938
也昔	-10.7942
之孫	-10.7942
寤	-10.7945
▁蘇	-10.7946
僭	-10.7948
辭免	-10.795
契丹	-10.7951
耄	-10.7951
旭	-10.7951
城東	-10.7952
之㑹	-10.7954
仁者	-10.7954
此書	-10.7958
緬	-10.7959
一何	-10.796
則知	-10.7962
不禁	-10.7965
笠	-10.7967
煙霞	-10.7969
丐	-10.7974
家有	-10.7976
二十八	-10.7977
經年	-10.7978
之未	-10.7981
賦曰	-10.7982
聖主	-10.7985
一葉	-10.7987
不惟	-10.7987
季子	-10.7988
刑部	-10.7992
南方	-10.7992
旄	-10.7993
賞罰	-10.7996
日夕	-10.8005
之勝	-10.8006
所云	-10.8014
▁孫	-10.8017
獨坐	-10.8018
吾聞	-10.8018
無端	-10.8018
噴	-10.8019
二十五	-10.802
言曰	-10.8024
為詩	-10.8031
翡翠	-10.8031
歎曰	-10.8032
建安	-10.8032
飛鳥	-10.8034
泝	-10.8035
者如	-10.8039
之善	-10.8042
無所不	-10.8043
五雲	-10.8047
自昔	-10.8047
螭	-10.8048
四明	-10.8049
䄂	-10.8053
眼前	-10.8061
穏	-10.8061
忱	-10.8067
當其	-10.8067
孤城	-10.8068
園林	-10.807
緩急	-10.8073
之前	-10.8074
性命	-10.8079
號令	-10.808
二千石	-10.8081
杞	-10.8081
撤	-10.8082
雞鳴	-10.8082
宛轉	-10.8082
蒼苔	-10.8085
優游	-10.8089
耽	-10.8096
間有	-10.81
離離	-10.8101
㤀	-10.8102
蘄	-10.8104
與我	-10.8105
之年	-10.8109
也嗚呼	-10.811
我來	-10.8112
▁勑	-10.8117
其學	-10.812
流涕	-10.8121
水中	-10.8122
如水	-10.8123
椽	-10.8124
飄飄	-10.8125
拆	-10.8125
之深	-10.8131
則無	-10.8133
對酒	-10.8134
唐書	-10.8135
穫	-10.8137
月色	-10.8138
其徒	-10.814
吝	-10.8146
太行	-10.8146
形容	-10.8148
幃	-10.8154
圜	-10.8156
四字	-10.8156
僞	-10.8158
嗚呼哀哉	-10.8163
宗室	-10.8165
三軍	-10.8168
南渡	-10.8169
瑾	-10.8169
馬蹄	-10.8175
蘚	-10.8177
抃	-10.8178
風起	-10.8182
元豐	-10.8184
其力	-10.8187
吸	-10.8188
殯	-10.819
湖廣	-10.8191
嗤	-10.8193
以道	-10.8194
小子	-10.8196
風霜	-10.8199
殖	-10.8203
▁皇上	-10.8206
鉢	-10.8206
無益	-10.8207
之精	-10.8207
四句	-10.8208
巵	-10.821
加以	-10.8225
泗	-10.8226
工部	-10.8227
功業	-10.8228
于時	-10.823
工夫	-10.8231
不啻	-10.8232
太公	-10.8233
中人	-10.8242
聲名	-10.8242
郤	-10.8243
其門	-10.8244
再三	-10.8244
囂	-10.8247
彷彿	-10.8249
輅	-10.8249
清光	-10.8258
好事	-10.8259
林泉	-10.8259
其辭	-10.8265
笳	-10.8269
不克	-10.8271
漢家	-10.8274
店	-10.8276
蹊	-10.8278
恭惟某官	-10.8279
冬至	-10.828
先公	-10.828
者雖	-10.8282
安可	-10.8282
之思	-10.8284
西域	-10.8284
烟霞	-10.8287
其不	-10.8294
自今	-10.8294
誰為	-10.8294
先世	-10.8298
淹留	-10.8299
雖無	-10.83
斵	-10.8303
已矣	-10.8308
人亦	-10.8309
明皇	-10.8309
翠微	-10.8311
之兵	-10.8315
知者	-10.8316
▁讀	-10.8322
云爾	-10.8326
水旱	-10.8326
繕	-10.8326
之爲	-10.8327
璋	-10.8328
流俗	-10.8333
長老	-10.8336
濠	-10.8337
固不	-10.8339
之東	-10.8342
巫山	-10.8344
雲雨	-10.8347
焉則	-10.8347
於道	-10.8349
飛來	-10.8349
髦	-10.835
壠	-10.8353
州郡	-10.8356
羽翼	-10.8357
皋	-10.8359
山頭	-10.8361
使我	-10.8362
萬象	-10.8363
貴人	-10.8364
此皆	-10.8364
譲	-10.8365
用其	-10.8371
頰	-10.8373
甘露	-10.8373
奉使	-10.8374
巔	-10.8375
千人	-10.8375
嫉	-10.8377
得罪	-10.8378
鍊	-10.8381
侯之	-10.8383
靡不	-10.8383
弩	-10.8389
波濤	-10.839
子由	-10.839
以歸	-10.8392
彚	-10.8393
經史	-10.8396
命之	-10.8397
之音	-10.8404
梟	-10.8404
借問	-10.8405
之㫖	-10.8406
曾祖	-10.8415
髙堂	-10.8421
脈	-10.8422
瞽	-10.8425
惇	-10.8428
漢唐	-10.8429
爪	-10.8431
西園	-10.8431
謳	-10.8432
王之	-10.8433
泉石	-10.8434
髙明	-10.8434
兀	-10.8435
皇太子	-10.8437
千百	-10.8438
由此	-10.8441
髙樓	-10.8441
吾家	-10.8443
駁	-10.8443
翰林學士	-10.8445
緜	-10.8449
班固	-10.845
断	-10.8453
有詩	-10.8455
匣	-10.8456
視其	-10.8457
何哉	-10.8458
長歌	-10.8458
人多	-10.8458
必先	-10.8463
焉其	-10.8465
五人	-10.8468
千尺	-10.847
邕	-10.8473
貎	-10.8474
其情	-10.8475
流落	-10.8479
不從	-10.8481
之勤	-10.8481
参	-10.8484
囿	-10.8484
相似	-10.8484
明珠	-10.8487
四面	-10.8487
有如	-10.8489
崔嵬	-10.8489
龕	-10.8492
覊	-10.8494
銀河	-10.8505
名士	-10.8505
以慰	-10.8507
弃	-10.8507
之權	-10.8508
經術	-10.8511
尚可	-10.8511
少府	-10.8515
曰子	-10.8515
垂楊	-10.8516
王師	-10.8517
綃	-10.8524
莫如	-10.8524
不惜	-10.8526
稽首	-10.853
田家	-10.8532
大節	-10.8533
江流	-10.8534
經過	-10.8535
雖欲	-10.8537
譁	-10.8538
琅玕	-10.8541
挫	-10.8543
賡	-10.8544
之位	-10.8545
濳	-10.8547
補注	-10.8549
白鶴	-10.8551
王道	-10.8552
漢之	-10.8552
提刑	-10.8553
嶂	-10.8555
石門	-10.8557
雨後	-10.8557
一句	-10.8557
三載	-10.8557
不仕	-10.8557
講學	-10.8557
蹉跎	-10.8562
事也	-10.8563
察其	-10.8563
六日	-10.8566
騫	-10.8567
儒學	-10.8567
眸	-10.8568
四百	-10.8568
有竒	-10.8571
白露	-10.8574
天門	-10.8576
簿書	-10.8577
闥	-10.8581
槁	-10.8582
漫漫	-10.8582
清溪	-10.8583
䨇	-10.8583
感慨	-10.8584
古木	-10.8585
紂	-10.8586
拖	-10.859
貂	-10.8591
後漢書	-10.8592
縉紳	-10.8593
遘	-10.8595
璫	-10.8596
笑曰	-10.8596
貞觀	-10.8598
霜雪	-10.8601
長城	-10.8601
何能	-10.8602
崑山	-10.8604
高祖	-10.8606
舄	-10.8609
其始	-10.8616
叱	-10.8617
至誠	-10.8619
師道	-10.862
二日	-10.8624
斯言	-10.8626
販	-10.8629
有異	-10.8634
蒼梧	-10.8636
八九	-10.8641
禎	-10.8645
之交	-10.8645
魚龍	-10.8649
清江	-10.865
是用	-10.8651
巒	-10.8656
武功	-10.8657
夜夜	-10.8658
顔子	-10.8658
滿地	-10.866
櫂	-10.8667
凄凉	-10.8668
豎	-10.867
▁九日	-10.867
翰曰	-10.8672
閶闔	-10.8677
郡國	-10.8677
南史	-10.8681
不得不	-10.8682
聆	-10.8688
吾之	-10.8689
兢	-10.869
彪	-10.8697
名臣	-10.8699
巘	-10.8701
行樂	-10.8701
太僕	-10.8702
▁維	-10.8703
而致	-10.8705
飜	-10.8707
浩浩	-10.871
▁朱	-10.8711
髙宗	-10.8712
明府	-10.8717
亦云	-10.8728
笑語	-10.8732
弱冠	-10.8733
田園	-10.8734
朂	-10.8736
軍中	-10.8737
誄	-10.8738
先儒	-10.874
鉛	-10.874
易之	-10.8741
㟁	-10.8744
憂患	-10.8746
四十年	-10.8749
浮屠	-10.8751
時事	-10.8755
故山	-10.8755
把酒	-10.8756
概	-10.8756
▁恩	-10.8759
漪	-10.8759
嗇	-10.876
南宫	-10.8761
中夜	-10.8764
孺子	-10.8768
中山	-10.8768
難得	-10.8771
相親	-10.8772
不來	-10.8773
炭	-10.8774
恍	-10.8775
而不得	-10.8775
而為之	-10.8775
丹陽	-10.8776
一室	-10.8776
表裏	-10.8778
股肱	-10.8778
t	-10.8784
十一年	-10.8786
▁吳	-10.8788
三代之	-10.879
盎	-10.8793
如雲	-10.8795
靳	-10.8797
吾心	-10.8798
𢎞治	-10.8801
針	-10.8803
人君	-10.8804
椿	-10.8806
集賢	-10.8807
臭	-10.8808
之方	-10.881
松栢	-10.881
惟是	-10.881
為天下	-10.8811
大明	-10.8812
一心	-10.8812
菱	-10.8815
數千	-10.882
樓上	-10.8821
a	-10.8822
於中	-10.8823
酒酣	-10.8831
▁嗚呼	-10.8832
陀	-10.8835
文獻	-10.8839
虎豹	-10.8842
菊花	-10.8845
前代	-10.8845
㤗	-10.8846
光輝	-10.8847
正是	-10.885
匆匆	-10.885
摭	-10.8854
稜	-10.8854
不平	-10.8854
往事	-10.8857
砧	-10.886
之女	-10.8861
行行	-10.8865
千山	-10.8867
凱	-10.8867
敖	-10.8869
河陽	-10.8872
平地	-10.8875
塊	-10.8875
飄零	-10.8876
墅	-10.8878
仆	-10.8879
記之	-10.888
莫若	-10.8889
亦曰	-10.889
柩	-10.8893
榛	-10.8894
尖	-10.8898
芹	-10.8898
邯鄲	-10.8898
▁䟦	-10.8899
霜露	-10.8902
知名	-10.8904
長子	-10.8906
前輩	-10.8914
遡	-10.8914
笙歌	-10.8914
中和	-10.8915
問之	-10.8916
艮	-10.8917
天氣	-10.892
剰	-10.892
月中	-10.8921
之責	-10.8925
裒	-10.8926
萬壑	-10.8932
捉	-10.8945
俘	-10.8946
長松	-10.8946
目前	-10.8947
賂	-10.8948
煌煌	-10.8949
幽居	-10.8952
無用	-10.8953
平陽	-10.8954
山房	-10.8955
此中	-10.8958
穉	-10.8958
杜陵	-10.8959
劉公	-10.8964
安石	-10.8965
以及	-10.8969
不離	-10.8977
幸甚	-10.8978
唯有	-10.8978
户部	-10.8979
無乃	-10.898
浩然	-10.8981
何異	-10.8981
以安	-10.8983
昻	-10.8985
無疆	-10.8986
予之	-10.8991
未甞	-10.8991
事而	-10.8993
堰	-10.8993
里中	-10.8995
民間	-10.9003
於心	-10.9007
此去	-10.901
那得	-10.9013
圖書	-10.9016
記曰	-10.9016
氓	-10.9017
河漢	-10.9018
無非	-10.9021
狡	-10.9025
有情	-10.9025
蛾眉	-10.9026
湖州	-10.903
▁秋日	-10.9032
行者	-10.9032
餽	-10.9035
雲霄	-10.9036
蘭亭	-10.9036
制度	-10.9039
詩句	-10.9043
尔	-10.9044
之性	-10.9046
寝	-10.9047
無功	-10.9054
寥寥	-10.9056
始於	-10.9061
壯士	-10.9066
帑	-10.9067
亥	-10.9068
郞	-10.9068
非不	-10.9073
親戚	-10.9073
者惟	-10.9076
斷腸	-10.9078
食之	-10.9082
吏民	-10.9083
堵	-10.9084
治平	-10.9084
臨江	-10.9086
轄	-10.9087
璽	-10.9088
毗	-10.909
然亦	-10.909
世有	-10.9091
豐年	-10.9092
無任	-10.9092
長嘯	-10.9099
而作	-10.91
酉	-10.9101
起家	-10.9102
之期	-10.9104
去國	-10.9106
至公	-10.9107
渝	-10.9107
之儀	-10.9107
雨中	-10.9108
也雖然	-10.9108
侑	-10.9109
不加	-10.9112
歌曰	-10.9115
稽古	-10.9115
不任	-10.9118
穩	-10.9118
始得	-10.912
唾	-10.9121
萬方	-10.9121
聫	-10.9121
三字	-10.9122
何似	-10.9126
為此	-10.9126
一代	-10.9132
隷	-10.9134
宣和	-10.9135
知我	-10.9137
擎	-10.9138
霈	-10.9138
江城	-10.9138
從今	-10.9139
或者	-10.914
向曰	-10.9141
遂為	-10.9141
吿	-10.9144
聞者	-10.9146
婆	-10.9147
無餘	-10.9149
之訓	-10.9154
縫	-10.9155
城下	-10.9157
語曰	-10.9162
洋洋	-10.9168
碣	-10.9169
未央	-10.9172
囘首	-10.9173
矣此	-10.9175
翩	-10.9176
潺湲	-10.9178
可用	-10.9179
之道也	-10.918
惹	-10.9183
憇	-10.9186
嫡	-10.919
無間	-10.919
十首	-10.9192
太湖	-10.9198
窄	-10.9206
因循	-10.9207
草草	-10.9211
療	-10.9216
梨花	-10.9219
𥿄	-10.9222
自為	-10.9222
只今	-10.9227
菩薩	-10.9228
之費	-10.9232
幾度	-10.9235
攄	-10.9235
鵞	-10.9235
家居	-10.9237
席上	-10.9238
名也	-10.9242
芳菲	-10.9244
者歟	-10.9244
三司	-10.9246
相期	-10.9247
異日	-10.9247
之主	-10.9249
萬户	-10.9249
飮	-10.9252
紀綱	-10.9259
長洲	-10.926
雷霆	-10.9261
脅	-10.9265
到處	-10.9265
驢	-10.9266
以死	-10.9266
之亂	-10.9269
正統	-10.9277
悽	-10.9278
夷狄	-10.928
兾	-10.9281
巍巍	-10.9282
丑	-10.9284
港	-10.9284
酹	-10.9284
盞	-10.9288
宣城	-10.9289
漁父	-10.9292
方寸	-10.9292
逓	-10.9298
堡	-10.9301
幸而	-10.9301
而獨	-10.9303
暇日	-10.9305
顰	-10.9307
賓客	-10.9311
公私	-10.9314
啇	-10.9314
誰復	-10.9317
貼	-10.9317
以正	-10.9318
半夜	-10.9319
其徳	-10.9319
睠	-10.9321
而不敢	-10.9321
得雨	-10.9322
平居	-10.9323
五字	-10.933
三徑	-10.9335
改元	-10.9337
溟	-10.9338
▁其三	-10.9343
僕射	-10.9343
從軍	-10.9343
臉	-10.9344
能使	-10.9345
可與	-10.9346
久而	-10.9347
噪	-10.9348
洵	-10.935
芥	-10.9353
大師	-10.9353
無處	-10.9353
繋	-10.9354
于朝	-10.9355
後生	-10.9355
雌	-10.9358
豈徒	-10.9358
而莫	-10.9359
光禄	-10.9361
乃有	-10.9361
東門	-10.9362
磴	-10.9366
其罪	-10.9366
九天	-10.9367
馥	-10.9367
天際	-10.9367
公與	-10.9371
旦夕	-10.9375
荆棘	-10.9376
匱	-10.9377
紱	-10.9377
豈其	-10.938
湮	-10.9382
▁酬	-10.9383
則以	-10.9384
楊花	-10.9385
者盖	-10.9387
華山	-10.9389
筮	-10.9389
之極	-10.9396
此非	-10.9398
規模	-10.9398
家貧	-10.94
与	-10.94
捍	-10.9405
纖	-10.9406
撃	-10.9407
未歸	-10.9407
而民	-10.9408
一也	-10.9408
薇	-10.941
一道	-10.9412
而至	-10.9413
一㸃	-10.9415
▁十年	-10.9416
即日	-10.942
總督	-10.9421
良曰	-10.9423
十三年	-10.9425
存亡	-10.9429
四夷	-10.9432
堂記	-10.9436
也臣	-10.9439
封侯	-10.9439
卓然	-10.944
爲人	-10.9442
人意	-10.9442
非常	-10.9443
縻	-10.9443
以報	-10.9444
楼	-10.9447
白鷗	-10.9449
無聞	-10.945
而終	-10.9452
秦漢	-10.9453
妥	-10.9453
嗚	-10.9455
白居易	-10.946
手足	-10.9463
楚辭	-10.9466
風雅	-10.9468
王室	-10.947
孟子曰	-10.947
知府	-10.947
哈	-10.9471
舊遊	-10.9474
龍蛇	-10.9478
秋雨	-10.948
風露	-10.9484
參政	-10.9485
惻	-10.9487
從而	-10.9488
嗟夫	-10.9491
狩	-10.9492
聖恩	-10.9492
揣	-10.9493
㪚	-10.9494
書云	-10.9494
楊氏	-10.9495
迸	-10.9497
民力	-10.9498
南浦	-10.9501
吾友	-10.9502
知人	-10.9502
典刑	-10.9505
歸於	-10.9506
銑曰	-10.9508
南風	-10.951
自笑	-10.951
晷	-10.951
花枝	-10.9512
猶存	-10.9512
集中	-10.9514
在焉	-10.9514
購	-10.9517
道德	-10.9519
彤	-10.9521
以濟	-10.9522
佳句	-10.9523
徤	-10.9524
譬如	-10.9526
今為	-10.9526
郡邑	-10.9529
舊時	-10.9531
有無	-10.9532
清秋	-10.9533
吁嗟	-10.9536
砥	-10.954
居之	-10.954
孰不	-10.9541
姑蘇	-10.9547
盗賊	-10.9551
扃	-10.9554
僉事	-10.9554
日落	-10.9556
襃	-10.9558
義理	-10.9559
扵是	-10.956
追封	-10.956
應制	-10.9561
痩	-10.9561
䰟	-10.9561
捫	-10.9561
諸臣	-10.9561
而爲	-10.9563
彬	-10.9564
今嵗	-10.9565
非一	-10.9567
丹砂	-10.957
石室	-10.9573
天寳	-10.9576
茫	-10.9577
男女	-10.9579
繁華	-10.958
嵗寒	-10.9581
之國	-10.9585
知所	-10.9586
松江	-10.9586
髩	-10.9588
雪中	-10.9592
則亦	-10.9593
人世	-10.9597
而可	-10.9597
若乃	-10.9597
嶺南	-10.9599
山僧	-10.9601
觀者	-10.9603
名家	-10.9604
燧	-10.9605
𦙍	-10.9608
躅	-10.9612
其次	-10.9613
承平	-10.9613
譙	-10.9616
其弟	-10.9619
之異	-10.9619
以身	-10.9623
弧	-10.9625
香山	-10.9627
墓誌	-10.9628
在人	-10.9632
贄	-10.9634
三朝	-10.9634
官府	-10.9646
若不	-10.9649
缾	-10.9649
薊	-10.965
朝陽	-10.965
次適	-10.965
在兹	-10.9654
十四年	-10.966
皆不	-10.966
劵	-10.9663
編修	-10.9664
流離	-10.9666
相憶	-10.9667
騖	-10.9669
小大	-10.9671
不安	-10.9674
睇	-10.9676
厠	-10.9676
殄	-10.9678
月照	-10.9678
愽	-10.9679
陳公	-10.968
粮	-10.9683
金玉	-10.9691
胷中	-10.9692
三五	-10.9694
郎官	-10.9696
不寐	-10.9703
此語	-10.9704
皇天	-10.9705
之詞	-10.9707
炬	-10.9707
生意	-10.9711
歸心	-10.9721
大學士	-10.9722
二句	-10.9724
木蘭	-10.9725
娱	-10.9725
流光	-10.9727
老病	-10.9727
日用	-10.9732
鈿	-10.9733
之君	-10.9733
之長	-10.9736
元日	-10.9736
池塘	-10.9737
古之人	-10.9738
婆娑	-10.9738
子雲	-10.974
寸心	-10.974
蒐	-10.9742
日新	-10.9742
不得已	-10.9745
件	-10.9746
天風	-10.9746
送君	-10.9756
者耶	-10.976
有成	-10.9761
颯	-10.9761
不願	-10.9762
雖未	-10.9763
卒於	-10.9764
愛其	-10.9769
而起	-10.9771
以公	-10.9773
疵	-10.9774
荷花	-10.9774
繳	-10.9776
明時	-10.9779
鳶	-10.9781
劑	-10.9783
東平	-10.9784
▁卷	-10.9788
正直	-10.9789
而來	-10.9789
之議	-10.979
翛然	-10.9791
餅	-10.9792
必欲	-10.9793
之選	-10.9795
致其	-10.9796
伏以	-10.9796
攅	-10.98
相識	-10.9803
蕚	-10.9804
之請	-10.9805
何不	-10.9807
掣	-10.9809
猶能	-10.981
冺	-10.9811
夜來	-10.9812
矣又	-10.9821
複	-10.9822
言而	-10.9822
當日	-10.9823
守之	-10.9825
四川	-10.9828
唇	-10.9828
大理	-10.983
如許	-10.983
在我	-10.983
之南	-10.983
那知	-10.983
先朝	-10.9832
號為	-10.9835
煑	-10.9835
識之	-10.9837
事親	-10.9839
娯	-10.984
損益	-10.984
訥	-10.9842
宣王	-10.9843
霄漢	-10.9843
不遺	-10.9847
詩有	-10.9848
事有	-10.9848
瑜	-10.9853
之賜	-10.9857
為主	-10.9865
上疏	-10.9865
根本	-10.9866
我有	-10.9867
智者	-10.9868
胷	-10.9869
隈	-10.987
北方	-10.9871
斫	-10.9873
四五	-10.9876
等處	-10.9879
蟹	-10.988
丈人	-10.9881
瘁	-10.9884
留連	-10.9889
赫赫	-10.9893
周官	-10.9894
景物	-10.9898
歸来	-10.9903
祭祀	-10.9904
老翁	-10.9908
能以	-10.9908
臨水	-10.9909
幾年	-10.9911
遲遲	-10.9914
朝來	-10.9915
惟公	-10.9921
不稱	-10.9922
春寒	-10.9925
塋	-10.9925
之效	-10.993
中秋	-10.993
一路	-10.993
太史公	-10.9932
建康	-10.9936
夢寐	-10.9941
在乎	-10.9949
今夜	-10.995
雨雪	-10.995
五帝	-10.9951
百花	-10.9952
而公	-10.9958
今已	-10.9963
其大	-10.9963
盛時	-10.9967
第五	-10.997
東流	-10.997
萼	-10.9971
為民	-10.9971
無此	-10.9972
平章	-10.9972
濟南	-10.9976
員外郎	-10.9976
神武	-10.9979
欝	-10.9981
逶迤	-10.9982
紈	-10.9983
泛舟	-10.9987
山陽	-10.9987
而反	-10.9989
愉	-10.9997
羅浮	-10.9999
文粹	-11.0001
大業	-11.0001
葱	-11.0004
嘗以	-11.0006
▁天子	-11.0006
蝗	-11.0006
自愛	-11.0007
暮雲	-11.0008
譯	-11.0013
徐州	-11.0014
雲南	-11.0021
瞰	-11.0022
泠泠	-11.0022
開府	-11.0024
圉	-11.0024
汨	-11.0025
第四	-11.0025
鳥獸	-11.0032
日益	-11.0034
嬪	-11.0038
思歸	-11.0039
不倦	-11.0039
其生	-11.004
官軍	-11.0041
者蓋	-11.0044
長樂	-11.0044
門户	-11.0046
扄	-11.0049
謠	-11.0049
康熙	-11.005
者無	-11.0057
山澤	-11.0057
之甚	-11.0061
賢人	-11.0061
魔	-11.0067
潄	-11.0067
瓠	-11.0067
東歸	-11.0068
一時之	-11.007
昊	-11.007
有神	-11.0072
所及	-11.0073
而立	-11.0075
夢裏	-11.0077
之福	-11.0077
近臣	-11.008
性情	-11.0089
出而	-11.0092
蕊	-11.0092
相應	-11.0092
盡其	-11.0094
極目	-11.0095
即是	-11.0098
後有	-11.0098
▁徐	-11.0101
異於	-11.0101
明道	-11.0106
剽	-11.0109
伊川	-11.0112
無能	-11.0112
㒺	-11.0113
蕉	-11.0118
不違	-11.012
官至	-11.0121
此又	-11.0121
滄	-11.0123
冥冥	-11.0125
未暇	-11.0125
霰	-11.0129
學道	-11.013
至其	-11.0131
樓閣	-11.0131
其用	-11.0132
中天	-11.0135
鄭氏	-11.0136
南歸	-11.0137
歸田	-11.0138
勛	-11.0138
居然	-11.014
物也	-11.0143
人自	-11.0143
年華	-11.0147
惟恐	-11.0153
旒	-11.0159
暮春	-11.0164
斜日	-11.0164
有能	-11.0164
柬	-11.0167
徒以	-11.0169
管仲	-11.0169
驪	-11.0172
慝	-11.0177
太古	-11.0179
逺山	-11.0186
逵	-11.0187
叔父	-11.019
兵馬	-11.0193
淒	-11.0194
易曰	-11.0195
債	-11.0195
糓	-11.0195
綉	-11.0195
御史中丞	-11.0198
五千	-11.0202
滂	-11.0206
將帥	-11.0207
頓首	-11.0209
龍虎	-11.0209
竟不	-11.0211
亦復	-11.0211
旃	-11.0211
孤雲	-11.0212
豚	-11.0212
其性	-11.0216
躁	-11.0217
吳越	-11.0218
威儀	-11.022
深山	-11.022
銖	-11.0221
更無	-11.0222
相隨	-11.0224
科舉	-11.0224
天心	-11.023
繼之	-11.0235
元帥	-11.0235
瀛	-11.0235
者故	-11.0237
伏望	-11.0239
公所	-11.0239
縦	-11.0239
晤	-11.024
昔日	-11.0245
必不	-11.0246
不學	-11.0247
與天	-11.0248
遄	-11.025
如玉	-11.025
伯夷	-11.0251
滿眼	-11.0251
燼	-11.0252
口號	-11.0254
漢武	-11.0255
訾	-11.0257
廣西	-11.026
諸軍	-11.026
瀝	-11.026
諸孫	-11.026
乎夫	-11.0261
者是	-11.0261
其爲	-11.0264
有懐	-11.0264
况復	-11.0265
傳之	-11.0266
王母	-11.0267
錦繡	-11.0268
施於	-11.027
汰	-11.0271
麤	-11.0271
行而	-11.0271
猗	-11.0274
韓子	-11.0274
舎人	-11.0276
少時	-11.028
戰國	-11.0282
西方	-11.0283
四日	-11.0284
咲	-11.0286
婺	-11.0287
容易	-11.0289
▁奉和	-11.0297
守令	-11.03
飡	-11.03
成敗	-11.0302
明公	-11.0302
亾	-11.0304
能知	-11.0306
屹	-11.031
鑪	-11.0311
東陽	-11.0313
疾病	-11.0315
鉉	-11.0318
柰何	-11.0319
藜	-11.0319
王君	-11.032
千餘	-11.0321
五經	-11.0324
華亭	-11.0327
鏗	-11.0331
鬛	-11.0332
聞而	-11.0334
報國	-11.0334
御製	-11.0334
濮	-11.0339
黄葉	-11.0341
傳云	-11.0341
而行之	-11.0342
風生	-11.0346
用心	-11.0349
筐	-11.0351
程子	-11.0357
詩以	-11.0359
壹	-11.0362
顚	-11.0365
明白	-11.0366
而進	-11.0367
泮	-11.0368
嚼	-11.037
覬	-11.037
之西	-11.0373
吳興	-11.0378
即今	-11.0382
修撰	-11.0384
剔	-11.0384
願言	-11.0386
善人	-11.0386
野老	-11.0386
部員外郎	-11.0386
湖水	-11.0389
知己	-11.039
行路	-11.0395
悞	-11.0395
殃	-11.0399
趍	-11.0399
數人	-11.0399
古人之	-11.0403
不能無	-11.0405
月夜	-11.0406
一物	-11.0409
魏公	-11.0409
古道	-11.041
開國	-11.0412
不果	-11.0413
不傳	-11.0414
清夜	-11.0424
足矣	-11.0427
以見	-11.0427
觀察	-11.0428
迓	-11.0428
拏	-11.0428
圖畫	-11.0429
▁諭	-11.0431
今來	-11.0431
棋	-11.0435
安在	-11.0437
勦	-11.0439
自信	-11.0443
歌聲	-11.0444
睨	-11.0446
甚多	-11.0446
竟何	-11.0457
男兒	-11.0457
浙東	-11.0459
直道	-11.0463
濟曰	-11.0465
胡不	-11.0465
幔	-11.0465
法師	-11.0472
掘	-11.0473
所不	-11.0474
子也	-11.0474
三更	-11.0474
伏念臣	-11.0477
中州	-11.0477
平時	-11.0478
南昌	-11.0478
之列	-11.0479
卯	-11.048
第十	-11.048
宗社	-11.0484
亦知	-11.0486
六朝	-11.0489
孫子	-11.0493
羇	-11.0494
有五	-11.0497
嘗聞	-11.0497
墉	-11.0499
堕	-11.0502
之分	-11.0503
六七	-11.0506
縞	-11.0506
曰汝	-11.0506
癖	-11.0507
河間	-11.0507
彞	-11.051
變而	-11.0515
走馬	-11.0516
留别	-11.0516
械	-11.0516
可畏	-11.0517
禋	-11.0519
形勢	-11.052
春山	-11.0527
舛	-11.0536
怎	-11.0536
麋鹿	-11.0537
鶻	-11.0537
中道	-11.0537
孜孜	-11.054
以義	-11.054
淵源	-11.0541
臣愚	-11.0545
紫芝	-11.0545
漣	-11.0547
鸎	-11.0547
後先	-11.055
其國	-11.0553
發明	-11.0553
都御史	-11.0554
其弊	-11.0554
而易	-11.0554
至則	-11.0561
可喜	-11.0564
不知所	-11.0565
之傳	-11.0567
集巻二	-11.0567
煦	-11.0569
廖	-11.0569
曦	-11.0569
翥	-11.0569
皇甫	-11.0572
來歸	-11.0574
難為	-11.0576
𣺌	-11.0577
深入	-11.058
宗族	-11.0581
歌詩	-11.0583
識其	-11.0585
於家	-11.0586
孤山	-11.0588
毀	-11.0588
秃	-11.0588
年七十	-11.0589
毛詩曰	-11.059
藪	-11.0593
新月	-11.0594
琦	-11.0605
風動	-11.0608
京口	-11.0609
蹶	-11.0614
喙	-11.0614
昂	-11.0615
皆為	-11.0615
方外	-11.0618
慄	-11.0619
世所	-11.0621
脆	-11.0622
伏乞	-11.0623
出其	-11.0623
吾將	-11.0624
子瞻	-11.0625
博學	-11.0626
可知矣	-11.0626
皆得	-11.0626
翎	-11.0633
又不	-11.0634
閭里	-11.0636
之所謂	-11.0637
蠱	-11.0637
▁憶	-11.0637
烽	-11.0639
多事	-11.0641
顓	-11.0644
藏之	-11.0645
浣	-11.0646
之狀	-11.065
出于	-11.0652
偃蹇	-11.0654
何敢	-11.0655
盛衰	-11.0655
宫室	-11.0655
飄然	-11.0655
乎曰	-11.0658
行省	-11.0658
月滿	-11.0659
承恩	-11.066
五臣	-11.0661
不允	-11.0661
暘	-11.0663
其氣	-11.0668
枝葉	-11.0668
以奉	-11.0669
杜甫	-11.067
雲林	-11.0677
相過	-11.0678
凌雲	-11.0681
天下之人	-11.0682
職方	-11.0683
命也	-11.0687
秦王	-11.0688
文昌	-11.0691
好惡	-11.0692
艸	-11.0693
不謂	-11.0695
人謂	-11.0696
之物	-11.0697
依稀	-11.0697
不利	-11.0701
武夷	-11.0702
受其	-11.0702
實録	-11.0703
經筵	-11.0703
聖徳	-11.0703
入朝	-11.0703
行狀	-11.0706
光景	-11.0709
立言	-11.0709
可不	-11.0714
金門	-11.0715
興亡	-11.0716
林間	-11.0716
之宜	-11.0719
俎	-11.0721
隨風	-11.0721
者三	-11.0726
能為	-11.0726
襍	-11.0728
謝公	-11.0729
來往	-11.073
幡	-11.0732
上曰	-11.0735
一章	-11.0737
於下	-11.0741
天外	-11.0745
泳	-11.0746
滄溟	-11.0747
鐙	-11.0754
今夕	-11.0754
有遺	-11.0757
拉	-11.0758
蕭瑟	-11.0758
沓	-11.0759
遒	-11.0762
豈敢	-11.0762
有待	-11.0764
將相	-11.0767
諸家	-11.077
邑之	-11.0771
謫仙	-11.0773
殉	-11.0773
纍纍	-11.0773
小臣	-11.0777
隴西	-11.0781
装	-11.0781
之良	-11.0782
起於	-11.0784
陸機	-11.0785
不思	-11.0785
後學	-11.0788
筝	-11.0788
祖母	-11.0789
大家	-11.0792
詩集	-11.0792
甲申	-11.0793
本傳	-11.0794
丘壑	-11.0801
之化	-11.0805
弋	-11.0808
茫然	-11.0809
▁題畫	-11.081
校尉	-11.0811
竅	-11.0813
生而	-11.0819
彼此	-11.0822
功徳	-11.0822
曺	-11.0827
鏡中	-11.0828
之具	-11.0829
擾擾	-11.0831
説文	-11.0833
吼	-11.0834
皇帝陛下	-11.0838
煉	-11.0838
教人	-11.084
數萬	-11.084
夫子之	-11.0845
已成	-11.0846
球	-11.085
芍藥	-11.085
上官	-11.0851
流傳	-11.0854
不畏	-11.0856
尊前	-11.0856
何曽	-11.0858
淑人	-11.0859
諛	-11.0861
縣官	-11.0862
非獨	-11.0863
其子孫	-11.0863
懈	-11.0864
具官	-11.0865
棧	-11.0866
楚人	-11.0868
可得而	-11.0871
行役	-11.0871
冤	-11.0873
奏報	-11.0876
鶚	-11.0877
㓗	-11.0877
夢魂	-11.0878
氷雪	-11.0878
霏霏	-11.0879
十人	-11.0881
祭酒	-11.0883
朱顔	-11.0884
赤子	-11.0887
同志	-11.0887
夫豈	-11.0887
九原	-11.0888
長卿	-11.0888
盡心	-11.0888
盛事	-11.089
i	-11.0892
金人	-11.0893
雍容	-11.0894
論之	-11.0902
去嵗	-11.0903
華陽	-11.0905
孰能	-11.0906
知公	-11.0906
正徳	-11.0907
天竺	-11.0908
先生曰	-11.0909
誰謂	-11.0911
籙	-11.0911
皎皎	-11.0912
考其	-11.0913
鬰	-11.0915
不治	-11.0917
使臣	-11.0917
公言	-11.092
聖賢之	-11.0922
風物	-11.0923
蘇軾	-11.0924
禮也	-11.0926
柰	-11.0927
將來	-11.0927
地下	-11.0933
侍御史	-11.0933
僵	-11.0935
杵	-11.0938
可使	-11.0938
悃	-11.0939
處之	-11.094
二十二	-11.094
孔子之	-11.0942
頃刻	-11.0944
▁鄭	-11.0944
匹夫	-11.0947
主事	-11.095
閙	-11.095
有光	-11.0952
傳聞	-11.0953
思君	-11.0955
瘞	-11.0958
風前	-11.0959
鬱鬱	-11.0959
論文	-11.0959
此篇	-11.096
之象	-11.0961
如在	-11.0967
不滿	-11.0968
之材	-11.0969
萬石	-11.0974
漢書曰	-11.0975
賄	-11.0977
赤壁	-11.0977
當是	-11.0978
花間	-11.098
水上	-11.0983
春深	-11.0984
珍重	-11.0985
本作	-11.0988
有酒	-11.0989
壬辰	-11.099
滇	-11.0994
有罪	-11.0996
精舍	-11.0997
逺遊	-11.0998
僖	-11.0998
雲霞	-11.0999
涎	-11.1001
飫	-11.1009
既已	-11.101
欲其	-11.101
諸賢	-11.1012
愕	-11.1012
寥廓	-11.1013
握手	-11.1014
安國	-11.1016
匏	-11.1016
江州	-11.1022
▁送李	-11.1026
客來	-11.1026
身後	-11.1028
八百	-11.1028
他時	-11.1029
乆之	-11.1035
史官	-11.1036
惓惓	-11.1036
當以	-11.1037
清流	-11.1037
人材	-11.1037
代之	-11.1039
杜門	-11.1039
礼	-11.104
推之	-11.104
無多	-11.1041
眼中	-11.1043
黷	-11.1044
膩	-11.1044
風雪	-11.1044
而退	-11.1045
措置	-11.1045
花下	-11.1046
無地	-11.1047
之不可	-11.105
一門	-11.105
之明	-11.105
之水	-11.1056
忘其	-11.1056
在外	-11.1058
飛去	-11.1061
不避	-11.1061
公論	-11.1062
㳟	-11.1063
應有	-11.1064
數千里	-11.1066
方丈	-11.1067
為名	-11.1069
薄暮	-11.107
六首	-11.1073
京華	-11.1074
縠	-11.1075
十數	-11.1077
雲霧	-11.1079
告之	-11.1079
已見	-11.108
光華	-11.1083
鬂	-11.1083
脊	-11.1083
又見	-11.1085
拭	-11.1085
漁樵	-11.1093
積雪	-11.1094
貟	-11.1095
號曰	-11.1097
復以	-11.1099
汶	-11.1101
子厚	-11.1101
節婦	-11.1105
昆弟	-11.1106
縣丞	-11.1106
僮	-11.1106
敢以	-11.1109
杪	-11.111
同一	-11.111
不便	-11.1111
倖	-11.1113
疑是	-11.1113
楚王	-11.1114
者多矣	-11.1114
嘉興	-11.1114
偹	-11.1115
綂	-11.1115
劉向	-11.1115
非吾	-11.1116
長年	-11.1119
昉	-11.1122
髙士	-11.1122
贓	-11.1122
不仁	-11.1122
殱	-11.1126
禮之	-11.1129
崑	-11.1132
曲折	-11.1134
o	-11.1134
m	-11.1134
r	-11.1134
青松	-11.1134
R	-11.1134
支離	-11.1135
杜鵑	-11.1135
沽酒	-11.1135
好古	-11.1137
孝經	-11.1138
澁	-11.1138
浮生	-11.1142
昇平	-11.1143
治亂	-11.1143
城市	-11.1144
三分	-11.1145
實為	-11.1146
白沙	-11.1146
者今	-11.1147
驄	-11.1148
忠厚	-11.1151
予嘗	-11.1153
繚	-11.1153
先聖	-11.1156
又聞	-11.1156
物外	-11.1159
而益	-11.1162
西江	-11.1165
何者	-11.1166
拳拳	-11.117
其兄	-11.1171
未識	-11.1173
淮西	-11.1173
乃得	-11.1174
塾	-11.1175
君恩	-11.1177
不取	-11.1177
何物	-11.1179
譬之	-11.1185
盈盈	-11.119
山上	-11.1191
生子	-11.1192
濺	-11.1193
家家	-11.1195
國子	-11.1195
君以	-11.1198
養生	-11.1203
家世	-11.1204
四壁	-11.1204
因之	-11.1205
茸	-11.1207
其理	-11.1208
子思	-11.121
河水	-11.121
人倫	-11.1211
至大	-11.1212
皇皇	-11.1212
詫	-11.1214
也惟	-11.1214
雲夢	-11.1214
一卷	-11.1214
突兀	-11.1215
此乃	-11.1216
鑠	-11.1217
㺯	-11.1218
和之	-11.1223
雞犬	-11.1224
扆	-11.1226
闘	-11.1226
槃	-11.1227
孕	-11.123
哀哉	-11.1231
嘆曰	-11.1232
故以	-11.1232
鄭公	-11.1235
▁陸	-11.1241
忽然	-11.1241
肴	-11.1242
以行	-11.1244
之處	-11.1244
偶成	-11.1245
顛倒	-11.1247
老杜	-11.1249
崢嶸	-11.125
學術	-11.125
某日	-11.125
孔氏	-11.1252
無意	-11.1253
年七	-11.1253
犂	-11.1254
草色	-11.1254
艇	-11.1255
張君	-11.1256
其君	-11.1257
鄊	-11.1258
陰陽	-11.126
刷	-11.1262
有名	-11.1263
至尊	-11.1264
悴	-11.1265
大體	-11.1266
稱之	-11.127
且以	-11.1271
都門	-11.1273
其法	-11.1275
重重	-11.1276
弟兄	-11.128
鷓鴣	-11.1285
豊	-11.1286
英華	-11.1286
記得	-11.1286
自非	-11.1288
幷	-11.1289
入門	-11.1291
學官	-11.1291
▁賦得	-11.1291
嘗為	-11.1292
琉璃	-11.1294
蹔	-11.1294
蜃	-11.1294
賢良	-11.1294
成就	-11.1295
發於	-11.1297
余曰	-11.1298
集序	-11.1299
喉	-11.1301
力行	-11.1304
生日	-11.1305
嶼	-11.1305
樗	-11.1306
廊廟	-11.1306
踞	-11.1307
登山	-11.1307
閭閻	-11.1307
所傳	-11.1308
溉	-11.1309
掉	-11.1312
之迹	-11.1313
闋	-11.1314
鷁	-11.1314
山在	-11.1315
予曰	-11.1316
鍳	-11.1318
理之	-11.1319
和尚	-11.1319
縑	-11.1322
聾	-11.1322
所學	-11.1324
職事	-11.1325
繒	-11.1326
鬯	-11.133
治天下	-11.1338
沔	-11.1338
其利	-11.1338
月上	-11.1339
不立	-11.134
用此	-11.1341
扼	-11.1345
一語	-11.1347
此理	-11.1349
▁送王	-11.135
刻石	-11.1351
歳月	-11.1351
禽獸	-11.1352
循吏	-11.1355
騎馬	-11.1358
諦	-11.1358
取士	-11.1359
之威	-11.1359
月落	-11.1359
千丈	-11.1363
丙辰	-11.1364
溪水	-11.1365
珠簾	-11.1365
皂	-11.1366
乃為	-11.1367
供奉	-11.1368
人語	-11.137
勤勞	-11.1371
肅肅	-11.1374
少師	-11.1376
紛紜	-11.1377
日長	-11.1378
中書舍人	-11.1384
皆是	-11.1388
稍稍	-11.1388
未發	-11.1389
冉	-11.139
卵	-11.1391
所願	-11.1391
必能	-11.1392
今日之	-11.1394
然自	-11.1394
本於	-11.1396
皆在	-11.1398
白水	-11.1401
雨聲	-11.1406
仁人	-11.1406
黠	-11.1407
奉詔	-11.1407
過於	-11.1407
何謂	-11.1408
涓	-11.1408
不測	-11.1411
禮部尚書	-11.1414
無力	-11.1415
萱	-11.1415
庚子	-11.1416
所由	-11.1418
是年	-11.1418
方伯	-11.1421
涌	-11.1423
張子	-11.1423
舟楫	-11.1425
雲漢	-11.1425
愿	-11.1427
知道	-11.1427
庾信	-11.1428
南州	-11.143
玉女	-11.1431
復見	-11.1431
祖考	-11.1433
揚子	-11.1435
髓	-11.1437
往還	-11.1438
夫以	-11.1438
秖	-11.1439
之表	-11.144
人無	-11.1442
也因	-11.1442
懐古	-11.1443
猨	-11.1443
何許	-11.1444
宣帝	-11.1444
服之	-11.1448
都城	-11.1449
猾	-11.145
送别	-11.1451
鉏	-11.1452
鎬	-11.1452
朱門	-11.1452
安之	-11.1453
趙氏	-11.1454
志在	-11.1454
釣魚	-11.1454
水之	-11.1454
之澤	-11.1455
教諭	-11.1455
驅馳	-11.1457
宗皇帝	-11.1457
亦然	-11.1458
飛花	-11.1463
之常	-11.1463
常平	-11.1465
才子	-11.1466
秋來	-11.1466
可觀	-11.1467
筒	-11.1468
跂	-11.1468
花前	-11.1468
不愧	-11.1471
孝弟	-11.1471
儆	-11.1472
邑人	-11.1475
歴歴	-11.1481
翺翔	-11.1481
夜坐	-11.1482
縣尉	-11.1483
亦已	-11.1483
總管	-11.1484
常州	-11.1486
▁又一體	-11.1486
隸	-11.1488
之寄	-11.1489
何可	-11.1489
敢忘	-11.149
絶頂	-11.1491
居官	-11.1494
之興	-11.1495
煙雨	-11.1495
孔明	-11.1496
噬	-11.1497
古寺	-11.1497
其位	-11.1497
或云	-11.1498
東宫	-11.1501
猶自	-11.1502
不多	-11.1503
濟濟	-11.1503
牎	-11.1505
國家之	-11.1508
若無	-11.1509
霆	-11.1509
闕下	-11.151
裊	-11.1513
綢繆	-11.1513
庭前	-11.1516
皇極	-11.1516
一醉	-11.1517
嘗謂	-11.1518
一氣	-11.1519
為學	-11.1519
而生	-11.1521
其故	-11.1525
十六年	-11.1525
奨	-11.1525
継	-11.1525
蠅	-11.1531
啜	-11.1542
臣竊	-11.1544
故里	-11.1545
甃	-11.1546
異同	-11.1547
吉凶	-11.1549
燄	-11.155
謔	-11.155
彎	-11.1551
壁間	-11.1552
以進	-11.1552
悲歌	-11.1555
主上	-11.1558
秋草	-11.1561
自從	-11.1562
行道	-11.1563
相顧	-11.1565
款	-11.1566
隠居	-11.1568
可否	-11.1568
糶	-11.157
自足	-11.157
彥	-11.1571
自立	-11.1571
臣以	-11.1572
付之	-11.1573
舟行	-11.1576
五馬	-11.1577
考功	-11.1579
稚子	-11.158
而取	-11.158
上言	-11.158
也於是	-11.158
禾黍	-11.1581
壬	-11.1582
遨	-11.1582
常侍	-11.1584
數十年	-11.1586
罇	-11.1587
天機	-11.1588
持節	-11.1588
相忘	-11.1588
空谷	-11.159
能自	-11.1592
躔	-11.1593
已有	-11.1593
酒醒	-11.1596
余嘗	-11.1598
廣大	-11.1598
闌干	-11.1602
穠	-11.1604
石壁	-11.1606
所思	-11.1606
之機	-11.1606
試問	-11.1609
風煙	-11.1611
無涯	-11.1616
毓	-11.1616
夫人之	-11.1617
遑	-11.1618
惜哉	-11.1619
勻	-11.162
燃	-11.162
淮海	-11.1621
分别	-11.1624
顒	-11.1624
兩岸	-11.1626
可愛	-11.1626
孰與	-11.1632
大厯	-11.1633
西來	-11.1635
禧	-11.1637
愠	-11.1637
湘水	-11.1638
清河	-11.1639
禁中	-11.1639
衿	-11.164
野水	-11.1641
法也	-11.1649
頷	-11.1649
之墓	-11.1652
諮	-11.1652
紅葉	-11.1654
憂國	-11.1654
其聲	-11.1655
自以為	-11.1657
瓌	-11.1658
之神	-11.1661
入於	-11.1661
碁	-11.1662
濛	-11.1663
㴱	-11.1666
而用之	-11.1666
書屋	-11.1672
那堪	-11.1672
師曰	-11.1673
羔	-11.1673
弑	-11.1673
諸葛	-11.1676
下車	-11.1678
松柏	-11.1678
車騎	-11.168
不斷	-11.1681
曇	-11.1683
逗	-11.1683
睢	-11.1683
文書	-11.1688
紓	-11.169
叫	-11.1691
於公	-11.1692
珠玉	-11.1694
4	-11.1699
釡	-11.1699
吳中	-11.17
吐蕃	-11.1701
毬	-11.1704
未始	-11.1708
㝢	-11.1708
也蓋	-11.171
躭	-11.1712
一書	-11.1713
不才	-11.1713
當今	-11.1716
世道	-11.1718
鴟	-11.1723
曰某	-11.1724
知制誥	-11.1725
性之	-11.1728
儷	-11.1729
窈	-11.1729
荐	-11.1729
自持	-11.1729
天下之事	-11.173
士民	-11.1731
豈復	-11.1731
相尋	-11.1732
以養	-11.1736
錐	-11.1736
問學	-11.1737
琮	-11.1737
無際	-11.1738
前年	-11.1738
無塵	-11.174
紀事	-11.174
旂	-11.1741
行宫	-11.1742
中年	-11.1744
歘	-11.1746
公在	-11.1747
死於	-11.175
大者	-11.175
鍾山	-11.1752
一行	-11.1757
爾其	-11.1759
岷	-11.176
夔	-11.176
桑麻	-11.1764
異端	-11.1764
腸斷	-11.1764
德之	-11.1769
年六十	-11.177
瀨	-11.1771
萎	-11.1771
楊子	-11.1773
二曰	-11.1776
藕	-11.1776
相送	-11.1776
訃	-11.1778
雨餘	-11.1779
七十二	-11.178
趁	-11.1783
愬	-11.1783
芋	-11.1783
陌上	-11.1786
朝廷之	-11.1787
欲去	-11.1788
霓裳	-11.1788
二千	-11.1788
問曰	-11.1789
各自	-11.1791
相接	-11.1792
詡	-11.1792
暮雨	-11.1794
溼	-11.1796
葆	-11.18
虢	-11.18
可勝	-11.1801
漬	-11.1802
秋光	-11.1804
鰲	-11.1805
至扵	-11.1806
轉運使	-11.1808
甲辰	-11.1808
行也	-11.181
莅	-11.1813
抉	-11.1813
其私	-11.1816
水火	-11.1819
蓑	-11.1819
黄州	-11.182
屈指	-11.1821
〇	-11.1821
此豈	-11.1825
築室	-11.1832
千門	-11.1835
樓船	-11.1838
臣子	-11.1838
炯	-11.1842
北闕	-11.1842
桓公	-11.1845
授之	-11.1846
木葉	-11.1848
開門	-11.1848
楊公	-11.185
也盖	-11.1851
以疾	-11.1851
寺丞	-11.1852
菲	-11.1853
也如	-11.1855
為樂	-11.1855
秘書	-11.1856
小民	-11.1857
無奈	-11.1858
者猶	-11.1859
非無	-11.1861
泓	-11.1862
山前	-11.1862
悲夫	-11.1863
百川	-11.1864
惜其	-11.1865
之域	-11.1866
玉壺	-11.1869
不可得而	-11.1869
此一	-11.187
生靈	-11.1871
倉卒	-11.1873
之報	-11.1873
舉人	-11.1873
公自	-11.1874
杉	-11.1874
養之	-11.1875
故舊	-11.1877
之害	-11.188
鞅	-11.1882
吾所	-11.1884
秋霜	-11.1884
聖人之道	-11.1886
阨	-11.1889
許之	-11.189
矦	-11.1891
碧玉	-11.1893
丙子	-11.1896
受之	-11.19
車駕	-11.1902
後進	-11.1903
錦衣	-11.1906
𣲖	-11.1907
耆舊	-11.1907
相遇	-11.191
▁平生	-11.191
㳂	-11.1911
固非	-11.1911
空餘	-11.1912
身世	-11.1913
恨不	-11.1915
轟	-11.1915
孰為	-11.1919
實有	-11.192
未有不	-11.1923
其體	-11.193
和平	-11.1932
刈	-11.1932
癸	-11.1935
自適	-11.1939
雖云	-11.1941
僥倖	-11.1941
小山	-11.1941
吟詩	-11.1942
題名	-11.1942
駑	-11.1942
少保	-11.1944
觥	-11.1945
磊落	-11.1948
出守	-11.1952
郊祀	-11.1953
瀛洲	-11.1953
國語	-11.1957
到此	-11.1958
齊魯	-11.1962
蕋	-11.1962
滔滔	-11.1962
大同	-11.1963
辛丑	-11.1963
秦人	-11.1966
卒以	-11.1967
李君	-11.1967
吹簫	-11.1968
君墓誌銘	-11.1969
叅軍	-11.197
之謂也	-11.1974
禅	-11.1975
赭	-11.1975
家事	-11.1976
此是	-11.1976
儒林	-11.1976
湖海	-11.1978
欲盡	-11.198
星斗	-11.1983
曛	-11.1984
址	-11.1987
亊	-11.1988
同歸	-11.199
瘳	-11.1992
爍	-11.1992
有四	-11.1994
明矣	-11.1994
東林	-11.1995
河朔	-11.1999
寒泉	-11.2
金谷	-11.2002
吾民	-11.2002
白鷺	-11.2003
當作	-11.2004
淋漓	-11.2005
燔	-11.2005
悄	-11.2008
聖天子	-11.2009
吻	-11.201
逖	-11.201
天地間	-11.2012
蓬蒿	-11.2013
之北	-11.2016
髙風	-11.202
其居	-11.2021
相率	-11.2023
之尊	-11.2023
安樂	-11.2026
長短	-11.2027
存乎	-11.2027
清泉	-11.2031
腦	-11.2031
櫻桃	-11.2032
羽林	-11.2033
中郎	-11.2033
緡	-11.2034
愛民	-11.2035
韓信	-11.2037
京城	-11.2037
鶩	-11.2039
無常	-11.2039
委曲	-11.204
庚申	-11.2041
神靈	-11.2042
萬民	-11.2042
南郊	-11.2044
蹲	-11.2044
俛	-11.2045
有云	-11.2048
洞天	-11.2048
秧	-11.2049
不甚	-11.2053
趙公	-11.2054
宋史	-11.2055
遼東	-11.2055
南康	-11.2057
𣣔	-11.2057
近者	-11.2058
廷尉	-11.2058
亦不能	-11.2058
司農	-11.2059
賈生	-11.2063
家法	-11.2065
哉夫	-11.2065
隱居	-11.2067
平湖	-11.2069
不遑	-11.2072
年二月	-11.2074
腕	-11.2074
老僧	-11.2076
曽子	-11.2076
聲色	-11.2078
頺	-11.2079
藐	-11.2079
無過	-11.2082
櫛	-11.2083
收拾	-11.2083
長吏	-11.2084
三峽	-11.2084
大名	-11.2087
直言	-11.2087
鄞	-11.2088
梭	-11.2088
洊	-11.2088
風雷	-11.2088
亦足	-11.2089
太清	-11.2089
怙	-11.2091
在昔	-11.2093
▁朝廷	-11.2094
亦是	-11.2095
避暑	-11.21
文采	-11.21
嵓	-11.2101
於其間	-11.2103
無足	-11.2106
萬斛	-11.2106
終於	-11.2108
修竹	-11.2109
睡起	-11.2109
其業	-11.2109
愷	-11.2109
磵	-11.2109
不使	-11.211
腹心	-11.211
都尉	-11.2111
道而	-11.2111
夜宿	-11.2112
與公	-11.2112
用力	-11.2114
而入	-11.2115
麝	-11.2116
大都	-11.2117
窠	-11.2118
莫知	-11.2119
忽見	-11.2119
進士第	-11.2121
特賜	-11.2121
物色	-11.2123
可無	-11.2125
為客	-11.2128
峩	-11.2129
不聽	-11.2133
於我	-11.2134
吾廬	-11.2134
旻	-11.2135
声	-11.2136
斯道	-11.2137
任之	-11.2139
僑	-11.2139
吏部尚書	-11.214
㵼	-11.214
丁未	-11.2145
入海	-11.2147
延年	-11.2147
戱	-11.2149
里人	-11.215
踪	-11.2151
天官	-11.2153
屛	-11.2153
盂	-11.2164
只在	-11.2164
施之	-11.2168
中央	-11.2169
遂使	-11.2171
努力	-11.2172
正色	-11.2172
猶是	-11.2172
孫女	-11.2173
水雲	-11.2175
圯	-11.2175
櫓	-11.2175
一水	-11.2175
不由	-11.2179
隨時	-11.2182
鹵	-11.2182
蹋	-11.2184
欲使	-11.2184
萬夀	-11.219
陳迹	-11.219
沴	-11.2192
于天	-11.2194
墓表	-11.2194
將士	-11.2195
其形	-11.2197
不以為	-11.2201
廸	-11.2201
笥	-11.2202
即此	-11.2203
▁勅	-11.2203
國有	-11.2208
為言	-11.2209
賸	-11.221
鎔	-11.221
殘月	-11.2211
彭澤	-11.2213
﨑嶇	-11.2214
何在	-11.2215
於兹	-11.2215
焉者	-11.2216
明徳	-11.2216
花發	-11.2218
酥	-11.2219
曽孫	-11.222
列子	-11.2221
穗	-11.2223
海門	-11.2224
州人	-11.2224
松竹	-11.2227
帝王之	-11.2229
不可復	-11.2233
發其	-11.2233
蘆花	-11.2234
事事	-11.2234
以時	-11.2234
官兵	-11.2235
吾師	-11.2236
二十一	-11.2238
焉故	-11.2239
有加	-11.2241
我今	-11.2242
侍講	-11.2244
譎	-11.2245
月出	-11.2248
年正月	-11.2248
喘	-11.225
文詞	-11.2252
百丈	-11.2254
矚	-11.2254
石橋	-11.2256
復為	-11.2258
風日	-11.2259
信之	-11.226
獨行	-11.226
南望	-11.226
蜀人	-11.226
合於	-11.2261
有作	-11.2262
竺	-11.2263
屍	-11.2267
昜	-11.2267
甍	-11.2267
搢紳	-11.2268
若為	-11.2271
江河	-11.2273
疋	-11.2274
炫	-11.2276
不能盡	-11.2278
爼	-11.2283
應是	-11.2284
盛德	-11.2284
興起	-11.2287
一介	-11.2289
于世	-11.2289
犁	-11.229
谷口	-11.229
自天	-11.229
金吾	-11.2291
丙午	-11.2291
今又	-11.2294
生事	-11.2294
向人	-11.2295
南樓	-11.2295
於物	-11.2298
大將	-11.23
燦	-11.2301
而猶	-11.2301
錢糧	-11.2301
著作	-11.2302
遺書	-11.2302
坼	-11.2303
不敏	-11.2303
漢魏	-11.2303
以故	-11.2305
萬餘	-11.2306
金山	-11.2307
亦多	-11.2308
治道	-11.2309
寄語	-11.2311
崧	-11.2312
記云	-11.2313
未嘗有	-11.2318
豈易	-11.232
攢	-11.2321
山有	-11.2326
慊	-11.233
淺深	-11.233
公議	-11.2333
大徳	-11.2334
不妄	-11.2338
遺文	-11.2338
不得其	-11.234
大用	-11.2341
而忘	-11.2341
▁江上	-11.2343
㝠㝠	-11.2343
盥	-11.2343
世而	-11.2347
衣服	-11.2349
城頭	-11.235
瞿	-11.2351
笞	-11.2351
有聞	-11.2352
以書	-11.2355
者衆	-11.2356
顥	-11.2356
客有	-11.2357
藍田	-11.236
文物	-11.2361
溷	-11.2361
看山	-11.2361
吾兄	-11.2361
王侯	-11.2363
異之	-11.2363
瀑布	-11.2364
今世	-11.2367
閽	-11.237
當有	-11.2372
衆生	-11.2374
飇	-11.2374
通鑑	-11.2375
悲風	-11.2376
千户	-11.2377
駱	-11.2379
三江	-11.2379
江邊	-11.2379
春歸	-11.2379
為韻	-11.2381
前漢	-11.2382
暁	-11.2383
卞	-11.2385
0	-11.2386
戦	-11.2388
祖父	-11.2391
告成	-11.2391
者當	-11.2391
科第	-11.2391
餘生	-11.2392
校書	-11.2394
沉沉	-11.2396
瞑	-11.2398
遣人	-11.24
用人	-11.2402
絲竹	-11.2402
行雲	-11.2405
也彼	-11.2407
甘棠	-11.2407
樂也	-11.2414
然有	-11.2415
漁舟	-11.242
一夫	-11.2421
有年	-11.2424
北望	-11.2425
啖	-11.2428
殤	-11.2428
太倉	-11.2428
尚存	-11.2431
秋山	-11.2435
中心	-11.2435
之吏	-11.2436
紫微	-11.2438
一節	-11.2438
陬	-11.2441
磧	-11.2441
牓	-11.2442
宜其	-11.2442
烝	-11.2443
水邊	-11.2444
醖	-11.2445
樂事	-11.2448
夫何	-11.245
以取	-11.245
縹	-11.2451
不可見	-11.2458
者吾	-11.246
短長	-11.2463
諸侯之	-11.2464
▁送張	-11.2464
秋日	-11.2464
衰病	-11.2465
所用	-11.2466
幙	-11.2471
今宵	-11.2472
多所	-11.2472
既成	-11.2474
南來	-11.2477
所生	-11.2477
白鳥	-11.2478
如之何	-11.2481
去其	-11.2481
此詞	-11.2483
不異	-11.2483
二女	-11.2487
師之	-11.2488
渺渺	-11.2489
最為	-11.2489
嬋娟	-11.2491
郡王	-11.2492
欒	-11.2493
桂樹	-11.2494
陳君	-11.2496
不窮	-11.2497
安撫	-11.2497
黄鵠	-11.2497
罔不	-11.2498
絢	-11.25
然以	-11.2503
醮	-11.2505
天威	-11.2505
太孺人	-11.2506
龍山	-11.2509
字仲	-11.2512
未㡬	-11.2512
乙酉	-11.2515
是亦	-11.2515
請以	-11.2516
蒼龍	-11.2516
存焉	-11.2518
知是	-11.2518
學而	-11.2518
囯	-11.2519
竊謂	-11.2519
承明	-11.2519
莫道	-11.2521
周易	-11.2521
不知何	-11.2521
蒞	-11.2523
然猶	-11.253
韓公	-11.253
■	-11.2532
桑榆	-11.2533
如雪	-11.2539
名之曰	-11.2539
越王	-11.2539
菁	-11.2541
哉然	-11.2542
史館	-11.2545
神之	-11.2546
未詳	-11.2547
杖藜	-11.2548
黄鶴	-11.255
髙山	-11.2552
龍圖	-11.2553
沈沈	-11.2553
帝曰	-11.2556
不移	-11.2557
不愛	-11.2557
諸老	-11.2557
古意	-11.2557
長風	-11.256
燠	-11.2563
說文	-11.2564
傭	-11.2564
蒹葭	-11.2564
逢人	-11.2565
别來	-11.2568
相依	-11.2569
宋人	-11.2572
賽	-11.2573
瑶池	-11.2576
怳	-11.2578
而必	-11.2578
則非	-11.2579
倐忽	-11.2581
主之	-11.2584
衡門	-11.2586
有可	-11.2588
形骸	-11.2588
其官	-11.2589
君父	-11.2589
或問	-11.259
戕	-11.2591
光隂	-11.2592
不意	-11.2595
年五十	-11.2596
嚢	-11.2596
則雖	-11.2596
承天	-11.2597
門生	-11.2597
杯酒	-11.2597
花飛	-11.2599
蜚	-11.2601
今乃	-11.2602
朔方	-11.2603
蠡	-11.2603
卜居	-11.2605
衘	-11.2605
及時	-11.2608
早春	-11.2608
摛	-11.2609
荆公	-11.2609
固無	-11.261
善者	-11.2611
臨安	-11.2612
有天下	-11.2613
清香	-11.2613
賜之	-11.2615
沫	-11.2619
極其	-11.2621
黄門	-11.2622
手自	-11.2622
乾道	-11.2623
鐘聲	-11.2624
乃是	-11.2624
▁山中	-11.2628
濛濛	-11.263
九華	-11.263
䜛	-11.2633
漉	-11.2633
無盡	-11.2633
大功	-11.2633
首尾	-11.2634
忽忽	-11.2637
惲	-11.2637
無幾	-11.2641
慳	-11.2642
盲	-11.2642
不敢以	-11.2645
立功	-11.2645
聞於	-11.2646
之正	-11.2646
所貴	-11.2646
鍼	-11.2647
汝南	-11.2647
清廟	-11.2649
孰知	-11.265
塩	-11.2651
諸郡	-11.2651
釋氏	-11.2651
不勞	-11.2653
能言	-11.2653
元帝	-11.2656
明經	-11.2657
豈得	-11.2657
若何	-11.2661
羣公	-11.2661
莓苔	-11.2661
赤松	-11.2663
者葢	-11.2665
公侯	-11.2665
可考	-11.2669
予言	-11.267
棄之	-11.267
北京	-11.2671
翼翼	-11.2674
唐之	-11.2674
聞君	-11.2675
比之	-11.2675
瀟灑	-11.2676
駝	-11.2678
籥	-11.2678
南征	-11.268
一去	-11.268
難忘	-11.268
也君	-11.2682
擷	-11.2683
雲門	-11.2685
别業	-11.2691
欲求	-11.2691
千仞	-11.2693
不宣	-11.2694
三品	-11.2695
將何	-11.2696
曰昔	-11.2696
▁乞	-11.2697
始皇	-11.27
身在	-11.2702
對月	-11.2703
經義	-11.2704
凭	-11.2704
蝴蝶	-11.2707
不著	-11.2707
萬家	-11.2709
孱	-11.2709
咨嗟	-11.2711
公亦	-11.2712
無知	-11.2714
有是	-11.2716
者自	-11.2717
仲子	-11.2717
乙未	-11.2718
我生	-11.2719
至若	-11.2719
倭	-11.272
于家	-11.2722
江北	-11.2722
昔在	-11.2723
之助	-11.2727
萬邦	-11.2729
經濟	-11.2731
戊辰	-11.2735
亦嘗	-11.2737
骸	-11.2737
瀕	-11.2737
子貢	-11.2738
脯	-11.2739
來時	-11.274
最後	-11.274
家山	-11.2742
嘗有	-11.2742
㝎	-11.2744
麴	-11.2744
終南	-11.2744
丁丑	-11.2746
始有	-11.2748
公家	-11.2748
俚	-11.2748
想像	-11.275
舉世	-11.275
皆非	-11.2752
枕上	-11.2755
起而	-11.2756
先師	-11.2759
及於	-11.2764
進而	-11.2764
脣	-11.2767
齧	-11.2767
明帝	-11.2771
淛	-11.2771
紺	-11.2776
之竒	-11.2776
立朝	-11.2777
朱氏	-11.2777
七人	-11.2778
無名	-11.2778
同官	-11.2779
不減	-11.278
於學	-11.2781
無時	-11.2782
不憚	-11.2783
籜	-11.2785
者所以	-11.2786
濂	-11.2787
非徒	-11.2788
幾日	-11.2789
莘	-11.2789
種種	-11.2794
不變	-11.2795
抹	-11.2797
之習	-11.2799
粘	-11.2799
得名	-11.2801
何曾	-11.2802
且曰	-11.2804
福州	-11.2805
庚辰	-11.2807
春雲	-11.281
万	-11.2811
有期	-11.2815
只恐	-11.2816
者即	-11.2818
雲飛	-11.2823
乎吾	-11.2824
飛鴻	-11.2825
日與	-11.2826
臣無任	-11.2826
御史大夫	-11.2827
楽	-11.2827
▁伏以	-11.2828
吾君	-11.2828
底事	-11.283
石渠	-11.283
牽牛	-11.2831
非所以	-11.2834
能無	-11.2836
大梁	-11.2837
莫之	-11.2842
江浙	-11.2847
十有二	-11.2848
祖宗之	-11.2849
所爲	-11.285
昭王	-11.2851
皇太后	-11.2852
宜有	-11.2854
封禪	-11.2854
召公	-11.2854
菑	-11.2856
國士	-11.2857
渡河	-11.2857
潯陽	-11.2859
麋	-11.2859
搴	-11.2859
吠	-11.2861
無聊	-11.2861
孟軻	-11.2862
建炎	-11.2862
世界	-11.2867
城外	-11.2867
啼鳥	-11.2868
言事	-11.2868
拂衣	-11.287
者誰	-11.2873
聊復	-11.2874
交情	-11.2875
用是	-11.2877
管絃	-11.2878
吉甫	-11.2879
墾	-11.2879
典禮	-11.288
鄉黨	-11.2881
與余	-11.2884
同遊	-11.2887
太廟	-11.2887
在前	-11.2888
亦必	-11.2888
掀	-11.2888
誰憐	-11.289
論議	-11.289
甲午	-11.289
峩峩	-11.2891
人為	-11.2892
揔	-11.2893
留守	-11.2896
無敢	-11.2897
不假	-11.2901
百戰	-11.2901
行李	-11.2901
西望	-11.2903
非常之	-11.2907
待之	-11.2907
尚在	-11.2908
直上	-11.2908
如斯	-11.291
二十七	-11.2913
此道	-11.2913
得句	-11.2917
所存	-11.2917
▁其四	-11.292
瑰	-11.2921
刮	-11.2922
有所不	-11.2922
其材	-11.2923
苕	-11.2925
吾鄉	-11.2926
隧	-11.2926
壷	-11.2926
國初	-11.2927
滿庭	-11.2927
四子	-11.2929
汗漫	-11.2932
燕山	-11.2933
孰謂	-11.2933
昊天	-11.2934
有文	-11.2935
一寸	-11.2936
曰天	-11.2938
尊酒	-11.2942
七八	-11.2942
五里	-11.2947
遊子	-11.2948
雷雨	-11.2949
儕	-11.2949
潁川	-11.295
髙帝	-11.2951
不可勝	-11.2951
砂	-11.2952
菽	-11.2953
燬	-11.2955
取諸	-11.2957
憊	-11.2964
詘	-11.2964
諸君子	-11.2964
之厚	-11.2965
者爲	-11.2965
子産	-11.2966
逆旅	-11.2967
繡衣	-11.2969
十七年	-11.297
悵然	-11.2971
山行	-11.2971
神人	-11.2972
哥	-11.2974
琛	-11.2974
仙家	-11.2977
祜	-11.2977
酒杯	-11.2978
迤	-11.2978
曝	-11.2978
之光	-11.2982
葬于	-11.2983
匡廬	-11.2985
丁酉	-11.2985
事不	-11.2987
剝	-11.2988
珥	-11.2989
我家	-11.2989
留意	-11.2989
人則	-11.2991
齊賢曰	-11.2991
伏願	-11.2992
駸駸	-11.2993
法令	-11.2994
必得	-11.2994
且夫	-11.2996
聖王	-11.2996
雲外	-11.2996
其年	-11.2996
綘	-11.2998
久不	-11.2998
軍節度使	-11.2999
一嵗	-11.3001
誰識	-11.3001
壬子	-11.3002
之戒	-11.3002
庶人	-11.3002
非特	-11.3004
有定	-11.3004
耘	-11.3005
有過	-11.3005
潑	-11.3007
王粲	-11.3007
泠	-11.3009
禹貢	-11.3016
疚	-11.3017
𥙿	-11.3017
不煩	-11.3017
能盡	-11.3017
三十里	-11.3018
締	-11.3021
璜	-11.3021
者得	-11.3023
懐抱	-11.3024
慶元	-11.3028
紫陽	-11.303
e	-11.3031
丙申	-11.3031
廣州	-11.3032
文正	-11.3032
一帶	-11.3032
漢中	-11.3034
麽	-11.3036
涙	-11.3036
昭昭	-11.3038
相承	-11.3039
西東	-11.3039
肺	-11.3039
宫殿	-11.304
六人	-11.3042
龍泉	-11.3042
𠂻	-11.3045
待罪	-11.3046
過此	-11.3049
著於	-11.305
蓼	-11.305
獨不	-11.3052
蠻夷	-11.3053
節制	-11.3054
出為	-11.3055
魚鳥	-11.3056
闗山	-11.3056
翕然	-11.3059
嫂	-11.306
駮	-11.306
月華	-11.306
中謝	-11.3063
秋江	-11.3064
諸路	-11.3065
不道	-11.3067
縶	-11.3069
行矣	-11.3071
扈從	-11.3072
䆫	-11.3074
軺	-11.3075
天津	-11.3077
何幸	-11.3079
壬午	-11.308
二十三	-11.3081
安於	-11.3082
堂前	-11.3084
辤	-11.3084
東園	-11.3084
所未	-11.3086
文明	-11.3088
娃	-11.3088
世上	-11.309
月令	-11.309
不計	-11.3091
數聲	-11.3091
洙	-11.3093
之俗	-11.3095
始以	-11.3096
無因	-11.3096
詞賦	-11.3096
非我	-11.3099
大王	-11.31
窅	-11.3103
稼穡	-11.3104
雪後	-11.3104
爽氣	-11.3105
鱠	-11.3108
究其	-11.3109
奩	-11.3112
窩	-11.3112
怖	-11.3112
時為	-11.3116
徜徉	-11.3117
空中	-11.3117
曹植	-11.312
吾生	-11.312
椀	-11.3125
十九年	-11.3125
良知	-11.3125
無語	-11.3127
亹亹	-11.3127
年八十	-11.3128
以次	-11.313
無罪	-11.3133
荼	-11.3136
年六	-11.3136
本州	-11.3139
又如	-11.3139
中大夫	-11.3142
▁君不見	-11.3142
洪範	-11.3149
塜	-11.3151
一經	-11.3156
庚戌	-11.3156
曾孫	-11.3157
也凡	-11.3158
新聲	-11.3159
鴻鴈	-11.3159
▁江南	-11.3159
風聲	-11.316
别駕	-11.316
奏議	-11.3162
軍民	-11.3162
七字	-11.3163
物理	-11.3163
此二	-11.3163
時方	-11.3166
闗中	-11.3169
迄今	-11.317
懾	-11.317
不返	-11.3173
虚名	-11.3179
埸	-11.3179
一面	-11.318
有命	-11.3183
葭	-11.3185
淮南子	-11.3185
劉郎	-11.3186
祖諱	-11.3187
東籬	-11.3188
詩酒	-11.3188
失所	-11.3189
親友	-11.3191
翠華	-11.3192
孔孟	-11.3193
四方之	-11.3193
右軍	-11.3195
謐	-11.3195
涖	-11.3195
晶	-11.3196
蔡邕	-11.3197
以資	-11.3199
慤	-11.32
鼓吹	-11.3202
與時	-11.3205
於古	-11.3208
可以為	-11.3209
攫	-11.3209
伯仲	-11.3209
有若	-11.321
豈特	-11.3212
廽	-11.3214
西陵	-11.3215
也雖	-11.3216
知此	-11.3217
二十六	-11.3217
天馬	-11.3218
而愈	-11.3219
裨	-11.3219
外物	-11.3222
▁秋夜	-11.3226
如彼	-11.3226
討論	-11.3227
一編	-11.3227
今按	-11.3227
燈前	-11.3228
嘘	-11.3229
之所為	-11.3229
城上	-11.3231
甲兵	-11.3232
天資	-11.3233
斡	-11.3234
即以	-11.3234
察之	-11.3234
西河	-11.3235
無子	-11.3238
癸丑	-11.3239
鏘	-11.3241
得志	-11.3241
琴瑟	-11.3242
農夫	-11.3243
▁挽	-11.3246
有才	-11.3246
著述	-11.3247
喫	-11.3248
開封	-11.3249
軒轅	-11.3251
搗	-11.3253
光照	-11.3254
其鄉	-11.3256
擣	-11.3258
王事	-11.3259
去去	-11.3259
論曰	-11.3261
公獨	-11.3262
叅政	-11.3263
見前	-11.3265
暮年	-11.3271
志士	-11.3272
紫宸	-11.3273
宗伯	-11.3273
者莫不	-11.3274
芭蕉	-11.3275
吾母	-11.3276
六龍	-11.3277
杳杳	-11.3277
媪	-11.3278
臣下	-11.3279
餘年	-11.3279
揺落	-11.3281
過人	-11.3283
至徳	-11.3285
天香	-11.3288
香火	-11.3289
乎天	-11.329
祠堂	-11.3293
微風	-11.3294
以遺	-11.3294
亦皆	-11.3298
竊惟	-11.33
補曰	-11.33
而實	-11.3302
竚	-11.3302
乆而	-11.3303
語言	-11.3303
璽書	-11.3304
天生	-11.3305
大矣	-11.3305
世無	-11.3306
甓	-11.3307
人臣	-11.3307
天下之大	-11.3308
田里	-11.3308
一半	-11.3309
名其	-11.331
沈約	-11.3311
安用	-11.3319
亦可以	-11.3322
菌	-11.3322
時雨	-11.3322
曰夫	-11.3323
殊未	-11.3323
下馬	-11.3324
作此	-11.3325
忘機	-11.3325
幌	-11.3327
鶉	-11.3327
得無	-11.3327
韓退之	-11.3327
民生	-11.3329
溪流	-11.3331
筋力	-11.3332
家之	-11.3334
也豈	-11.3338
秋氣	-11.3338
不察	-11.3338
韓曰	-11.3342
道義	-11.3344
還鄉	-11.3347
軍旅	-11.3347
波瀾	-11.3349
日照	-11.335
▁朕	-11.3354
元戎	-11.3355
神宗	-11.3355
用韻	-11.3355
松下	-11.3356
不報	-11.3356
遺跡	-11.3356
嫗	-11.3356
容與	-11.3357
五十年	-11.3357
規矩	-11.3361
袒	-11.3361
將歸	-11.3362
戌	-11.3364
留客	-11.3365
桂林	-11.3366
國夫人	-11.3366
雩	-11.3367
滄江	-11.3368
約束	-11.3368
故不	-11.3369
竟日	-11.337
矣若	-11.337
左丞	-11.3371
其詞	-11.3371
白晝	-11.3372
佳氣	-11.3372
也然而	-11.3373
教子	-11.3375
幸有	-11.3377
燕趙	-11.3378
三省	-11.3379
化之	-11.338
不就	-11.338
去後	-11.3381
出塞	-11.3382
先塋	-11.3385
固知	-11.3386
㡬時	-11.3387
哉故	-11.3387
等閒	-11.3388
騶	-11.339
侶	-11.3391
莆	-11.3395
擯	-11.3396
縳	-11.3396
橈	-11.3397
避地	-11.3398
聖慈	-11.3398
不載	-11.34
緋	-11.3401
公既	-11.3401
耦	-11.3401
獨自	-11.3402
不分	-11.3404
我獨	-11.3405
臨流	-11.3406
如意	-11.341
能詩	-11.3411
▁皇帝	-11.3415
仞	-11.3416
自守	-11.3417
一箇	-11.3418
衡山	-11.3418
漢宫	-11.3419
奉天	-11.3421
戊	-11.3421
哨	-11.3421
之稱	-11.3421
唐宋	-11.3422
之器	-11.3422
秋毫	-11.3423
修身	-11.3424
水陸	-11.3425
之䇿	-11.3426
龍飛	-11.3428
虎丘	-11.3429
吳江	-11.343
凉風	-11.343
篠	-11.3431
憶昔	-11.3431
我行	-11.3431
雲臺	-11.3432
國人	-11.3433
庚午	-11.3433
南都	-11.3435
責之	-11.3435
如山	-11.3435
辛未	-11.3441
昔之	-11.3441
黄公	-11.3441
園中	-11.3442
亶	-11.3446
踟蹰	-11.3446
朝野	-11.3449
自成	-11.3449
手書	-11.3449
駛	-11.3451
大笑	-11.3451
尚饗	-11.3451
人道	-11.3451
立身	-11.3454
春江	-11.3454
鵷	-11.3454
c	-11.3455
理也	-11.3457
名字	-11.3457
忽聞	-11.3458
豈是	-11.3459
烽火	-11.346
亦當	-11.346
休息	-11.346
綻	-11.3461
八首	-11.3461
行路難	-11.3462
逺方	-11.3462
不能以	-11.3464
是何	-11.3465
展轉	-11.3465
心而	-11.3466
躬行	-11.3466
醉中	-11.3466
未了	-11.3467
土木	-11.3468
甘心	-11.347
之華	-11.3471
殿下	-11.3474
㾗	-11.3476
聶	-11.3476
浙西	-11.3478
登第	-11.3478
辭曰	-11.3479
未許	-11.3479
宼	-11.3481
彭蠡	-11.3481
也是故	-11.3481
遺愛	-11.3482
前此	-11.3483
此山	-11.3483
關中	-11.3484
纍	-11.3484
虺	-11.3486
癸未	-11.3491
六國	-11.3493
閩中	-11.3493
斟酌	-11.3493
使民	-11.3493
織女	-11.3495
天然	-11.3496
之感	-11.3497
脩竹	-11.3497
前有	-11.3502
為世	-11.3503
淳熈	-11.3503
見聞	-11.3505
碌碌	-11.3506
别墅	-11.3506
甲戌	-11.3507
律詩	-11.3507
居民	-11.3508
思慮	-11.351
於内	-11.351
以治	-11.3511
緊	-11.3516
不論	-11.3516
旦暮	-11.3517
白衣	-11.3517
在下	-11.3518
潘岳	-11.352
北極	-11.3521
故老	-11.3523
戊戌	-11.3526
勞苦	-11.3529
授以	-11.3532
撞	-11.3532
然後知	-11.3532
新年	-11.3533
子夏	-11.3533
右丞	-11.3534
兩三	-11.3536
一舉	-11.3538
滿目	-11.3539
扶風	-11.354
則天下	-11.3542
雪滿	-11.3542
總兵	-11.3542
不孝	-11.3543
舊事	-11.3543
騷人	-11.3543
䋲	-11.3546
聚散	-11.3547
北門	-11.3547
歴代	-11.3548
九卿	-11.3549
箏	-11.3551
之運	-11.3555
史氏	-11.3557
又作	-11.3557
書來	-11.3558
問其	-11.3558
海外	-11.3558
起舞	-11.3561
綾	-11.3561
璘	-11.3566
瑛	-11.3568
敬之	-11.3569
大計	-11.3569
篙	-11.3569
論其	-11.357
東家	-11.357
千嵗	-11.357
佳處	-11.357
金碧	-11.3574
夐	-11.3576
乾元	-11.3579
方知	-11.3579
凡三	-11.358
兕	-11.3581
阮籍	-11.3581
舶	-11.3584
之微	-11.3585
抒	-11.3586
不留	-11.3588
未應	-11.3589
中朝	-11.3591
河西	-11.3593
歸舟	-11.3593
宣徳	-11.3594
孩	-11.3595
訐	-11.3596
對此	-11.3596
寒山	-11.3598
▁夏日	-11.36
嘉禾	-11.3601
郡人	-11.3601
錢唐	-11.3602
毛詩	-11.3602
新晴	-11.3603
徭	-11.3605
可知也	-11.3607
以大	-11.361
今者	-11.3611
訶	-11.3611
國子監	-11.3614
便宜	-11.3614
燥	-11.3615
未定	-11.3616
今則	-11.3618
奏事	-11.3619
直學士	-11.3624
樽前	-11.3625
謝安	-11.3627
太保	-11.3628
前朝	-11.3628
鄱陽	-11.3629
九霄	-11.363
霖雨	-11.363
皇考	-11.3633
以觀	-11.3635
蚊	-11.3637
珉	-11.3637
飛龍	-11.3638
良辰	-11.364
壬寅	-11.3642
漢陽	-11.3642
家傳	-11.3643
守臣	-11.3644
扞	-11.3647
推恩	-11.3647
願得	-11.3648
尤為	-11.3648
是知	-11.3649
石刻	-11.3649
兵革	-11.3651
去就	-11.3652
聒	-11.3652
莫非	-11.3656
褰	-11.3656
洄	-11.3657
過之	-11.3658
二三子	-11.3658
玉帛	-11.366
互相	-11.3662
淂	-11.3662
與王	-11.3662
廂	-11.3663
名實	-11.3664
聖心	-11.3667
▁國家	-11.3667
趙王	-11.3667
釋之	-11.3667
▁敕	-11.3668
無補	-11.3669
日已	-11.367
前事	-11.3671
侍讀	-11.3672
琴書	-11.3672
連天	-11.3672
五陵	-11.3672
皃	-11.3672
庚寅	-11.3674
内史	-11.3675
詮	-11.3677
醅	-11.3677
也某	-11.3679
頗有	-11.368
封疆	-11.3681
風采	-11.3682
b	-11.3682
冽	-11.3682
霓	-11.3684
之隆	-11.3685
青衫	-11.3686
茨	-11.3687
不驚	-11.3689
所自	-11.369
山南	-11.369
徙倚	-11.3691
流年	-11.3692
呀	-11.3693
一洗	-11.3695
又謂	-11.3695
烟雨	-11.3697
也葢	-11.3697
諸王	-11.3699
軒冕	-11.37
又為	-11.37
卒于	-11.37
欲知	-11.37
餘姚	-11.3702
錬	-11.3703
大國	-11.3704
但恐	-11.3704
其源	-11.3704
如有	-11.3706
壙	-11.3708
眄	-11.3708
他鄉	-11.3709
筋	-11.3709
甲寅	-11.3709
其樂	-11.3709
賢而	-11.371
醉後	-11.3711
歲時	-11.3712
斗酒	-11.3715
名節	-11.3717
不難	-11.3717
出自	-11.3717
紊	-11.3718
一毫	-11.3719
欲為	-11.372
有懷	-11.372
之過	-11.3721
靖康	-11.3723
百嵗	-11.3727
北上	-11.373
於君	-11.3733
絃歌	-11.3733
無路	-11.3734
肘	-11.3734
具奏	-11.3737
父之	-11.3738
塞上	-11.3739
不得而	-11.3739
又得	-11.3742
廵撫	-11.3743
生長	-11.3743
杲	-11.3744
行藏	-11.3744
𤨏	-11.3744
而食	-11.3745
庠序	-11.3746
然者	-11.3747
遂成	-11.3749
初無	-11.3752
見贈	-11.3753
之境	-11.3754
厪	-11.3754
圻	-11.3754
熖	-11.3754
恭人	-11.3754
帷幄	-11.3755
冬日	-11.3756
如天	-11.3757
▁人生	-11.3761
八極	-11.3762
盻	-11.3763
棣	-11.3763
入山	-11.3766
甲乙	-11.3767
森森	-11.3767
乾隆	-11.3768
漢武帝	-11.3768
晃	-11.377
蘖	-11.377
甑	-11.377
金馬	-11.3771
彈琴	-11.3771
吹笛	-11.3773
四顧	-11.3774
軋	-11.3774
千峰	-11.3775
青州	-11.3776
予以	-11.3778
一段	-11.3779
不屑	-11.3781
肅宗	-11.3782
雙飛	-11.3787
重修	-11.3787
廣平	-11.3787
東漢	-11.3789
聞見	-11.3789
亦既	-11.379
疑其	-11.3793
河流	-11.3793
有事	-11.3795
塚	-11.3795
事則	-11.3796
官司	-11.3796
平王	-11.3797
賢才	-11.3797
之貴	-11.3798
三十二	-11.3799
逺而	-11.3799
扶持	-11.3801
之意也	-11.3801
制作	-11.3802
雲水	-11.3803
以居	-11.3803
期於	-11.3803
列聖	-11.3805
公墓誌銘	-11.381
君看	-11.381
文以	-11.3814
豈必	-11.3814
茂陵	-11.3815
袴	-11.3816
愛君	-11.3816
廣文	-11.3816
本是	-11.382
讙	-11.3821
方其	-11.3822
日斜	-11.3823
連山	-11.3823
唐詩	-11.3825
草樹	-11.3826
劉禹錫	-11.3829
人在	-11.3829
從其	-11.3831
其為人	-11.3831
焰	-11.3832
正當	-11.3833
乃能	-11.3834
宫闕	-11.3834
形於	-11.3834
漢王	-11.3834
諺	-11.3835
君為	-11.3838
民心	-11.3839
客愁	-11.3839
所不能	-11.384
佳期	-11.384
升堂	-11.384
難以	-11.3841
歸去來	-11.3842
六百	-11.3842
經行	-11.3844
八荒	-11.3846
拄	-11.3846
爱	-11.3847
精誠	-11.3849
璣	-11.3849
也是以	-11.3851
鑣	-11.3852
▁呉	-11.3853
小樓	-11.3854
天下無	-11.3854
早晚	-11.3856
羲和	-11.3856
敢言	-11.3857
▁寄題	-11.3858
樂之	-11.3858
曰君	-11.3858
原注	-11.3858
所取	-11.3861
之夫	-11.3862
殽	-11.3863
有徳	-11.3863
上柱國	-11.3864
所出	-11.3865
墩	-11.3868
樞宻	-11.3868
東望	-11.3868
樞密	-11.3872
其術	-11.3875
風清	-11.3876
揜	-11.3878
檝	-11.388
吾父	-11.3881
天公	-11.3882
桷	-11.3883
其族	-11.3883
昔時	-11.3884
將有	-11.3885
箸	-11.3889
囑	-11.3889
旬日	-11.3889
戎馬	-11.3889
樓前	-11.3889
大賢	-11.389
悪	-11.3894
窒	-11.3894
顧我	-11.3894
待詔	-11.3895
縣君	-11.3896
十八年	-11.3897
度支	-11.3898
溯	-11.3904
今兹	-11.3906
煙波	-11.3909
入覲	-11.3909
兩人	-11.3909
琅	-11.3909
舊章	-11.391
至治	-11.3913
秋夜	-11.392
赤城	-11.392
侍臣	-11.392
人去	-11.3923
客至	-11.3923
畊	-11.3925
癯	-11.3925
撑	-11.3925
三曰	-11.3927
蓍	-11.3929
犧	-11.393
紐	-11.393
君諱	-11.393
未為	-11.3931
固當	-11.3934
磔	-11.3936
朙	-11.3936
泪	-11.3936
蟋蟀	-11.3936
輈	-11.3936
其舊	-11.3936
楨	-11.3936
荆南	-11.3937
以傳	-11.3942
一出	-11.3946
人力	-11.3947
雪霜	-11.3951
緑水	-11.3952
神龍	-11.3953
劉君	-11.3956
族人	-11.3957
惟我	-11.3958
誰言	-11.3959
泰和	-11.396
見此	-11.396
碧落	-11.396
千樹	-11.396
擴	-11.3962
道傍	-11.3963
時聞	-11.3965
故家	-11.3967
廐	-11.3967
衡陽	-11.3969
羅衣	-11.397
薩	-11.3972
使天下	-11.3972
榮辱	-11.3974
或可	-11.3975
困於	-11.3975
大司馬	-11.3976
禘	-11.3977
則可	-11.3983
䂓	-11.3983
紉	-11.3983
恐懼	-11.3985
絲綸	-11.3989
親見	-11.3989
緑隂	-11.399
歸期	-11.399
閤下	-11.3991
司馬相如	-11.3991
於戲	-11.3995
攜手	-11.3996
神女	-11.3998
郭璞	-11.3998
䦨干	-11.3998
百餘年	-11.3999
進取	-11.4
之雄	-11.4002
却憶	-11.4003
不屈	-11.4004
氤氲	-11.4004
刻之	-11.4004
一别	-11.4004
潞	-11.4004
年十月	-11.4004
幸得	-11.4004
唐太宗	-11.4006
長適	-11.4006
穆穆	-11.4006
之暇	-11.4007
嵯峨	-11.4009
癸酉	-11.4009
豺狼	-11.4009
憲宗	-11.4012
折衝	-11.4014
黄雲	-11.4015
以副	-11.4016
名為	-11.4016
臺上	-11.4019
纜	-11.402
黄鸝	-11.4021
嘻	-11.4022
其字	-11.4023
曾子	-11.4023
人或	-11.4024
陽明	-11.4024
自喜	-11.4026
為治	-11.4027
者若	-11.4027
不生	-11.4028
謹按	-11.4029
有詔	-11.4029
閬	-11.4029
之寵	-11.4031
天寶	-11.4033
藏書	-11.4034
不喜	-11.4034
靚	-11.4035
大哉	-11.4036
州府	-11.4036
隂隂	-11.4036
秀色	-11.4037
日月之	-11.4038
缸	-11.4041
者以為	-11.4042
庻幾	-11.4042
▁下之	-11.4043
流行	-11.4044
苦心	-11.4044
聖學	-11.4048
無憾	-11.4049
蕩蕩	-11.4049
形勝	-11.4051
一郡	-11.4052
丙戌	-11.4052
是皆	-11.4052
祭文	-11.4055
蹴	-11.4056
七百	-11.4057
終古	-11.4057
茅茨	-11.4058
石城	-11.4058
雨晴	-11.4061
浥	-11.4062
杖屨	-11.4063
春夏	-11.4064
桑梓	-11.4066
蕨	-11.4067
臣某	-11.4068
舸	-11.4069
羣生	-11.407
御書	-11.4072
盡力	-11.4072
帝子	-11.4073
薜蘿	-11.4073
飄颻	-11.4073
忘歸	-11.4075
槿	-11.4078
司馬遷	-11.4079
萬山	-11.4079
孝宗	-11.4082
所論	-11.4082
滓	-11.4082
以供	-11.4084
儒生	-11.4085
枯槁	-11.4086
有知	-11.4089
延祐	-11.4093
果有	-11.4094
儒術	-11.4096
自任	-11.4097
鈞天	-11.4102
皆曰	-11.4105
萬物之	-11.4105
欲問	-11.4106
一尺	-11.4108
之言曰	-11.4108
髙人	-11.411
見者	-11.411
邦國	-11.4112
異乎	-11.4112
平安	-11.4112
海水	-11.4112
集巻三	-11.4114
聊以	-11.4115
草書	-11.4116
玉樓	-11.4117
之必	-11.4118
依前	-11.4118
山靈	-11.412
弹	-11.412
用也	-11.4124
剏	-11.4126
蔭	-11.4126
韞	-11.4126
所遇	-11.4127
八日	-11.4127
誦之	-11.4127
貢士	-11.4127
澄清	-11.4128
當路	-11.4129
青絲	-11.4131
之形	-11.4133
渭水	-11.4134
自稱	-11.4136
關山	-11.4138
朝暮	-11.4138
戊申	-11.4139
巍	-11.4139
大儒	-11.414
行在	-11.4141
八分	-11.4141
不乏	-11.4142
未到	-11.4142
城北	-11.4142
見于	-11.4142
州之	-11.4145
本草	-11.4147
風濤	-11.4148
東郊	-11.4148
湘江	-11.4149
周公之	-11.415
又嘗	-11.4154
萬嵗	-11.4155
孫氏	-11.4155
不衰	-11.4159
衙門	-11.4159
與物	-11.4161
者此	-11.4161
曰臣	-11.4161
風味	-11.4162
江夏	-11.4163
齋居	-11.4163
郡夫人	-11.4165
當為	-11.4166
者然	-11.4169
清談	-11.417
運使	-11.4171
勲業	-11.4171
可行	-11.4172
小人之	-11.4172
餒	-11.4173
捜	-11.4174
青草	-11.4174
棲遲	-11.4179
雅頌	-11.4179
漁陽	-11.4179
䓁	-11.4179
時來	-11.418
始見	-11.4182
未遑	-11.4183
與予	-11.4183
三王	-11.4183
縟	-11.4185
心期	-11.4185
金縷	-11.4187
後之人	-11.4187
㝡	-11.419
千頃	-11.4191
何言	-11.4191
飛燕	-11.4193
而不為	-11.4195
言行	-11.4195
聖㫖	-11.4195
閼	-11.4195
心不	-11.4197
遥知	-11.42
淤	-11.4206
綦	-11.4206
虵	-11.4206
濓	-11.4206
飱	-11.421
槳	-11.421
謝靈運	-11.421
筦	-11.4211
問訊	-11.4211
劃	-11.4211
神物	-11.4212
誠有	-11.4212
可能	-11.4213
又非	-11.4214
丁亥	-11.4214
歐陽公	-11.4214
今天下	-11.4217
致之	-11.422
西漢	-11.422
取進止	-11.422
世世	-11.4222
纛	-11.4222
未覺	-11.4223
贈别	-11.4229
二君	-11.423
死矣	-11.4231
近來	-11.4233
雜詩	-11.4234
禄山	-11.4235
綱紀	-11.4236
莫問	-11.4238
風急	-11.4238
奏請	-11.4238
白樂天	-11.4239
落筆	-11.4241
也况	-11.4242
明詔	-11.4242
沅	-11.4243
煞	-11.4244
覘	-11.4244
長夜	-11.4246
李杜	-11.4246
后土	-11.4246
三輔	-11.4247
生成	-11.4248
祝文	-11.425
大士	-11.425
士贇曰	-11.4255
閘	-11.4255
政之	-11.4257
為是	-11.4257
木落	-11.4258
詔令	-11.4259
南枝	-11.426
事功	-11.426
列於	-11.4262
唱和	-11.4262
郝	-11.4265
▁軾	-11.4267
忽驚	-11.4268
無忘	-11.4269
么	-11.4271
窆	-11.4271
客路	-11.4271
頭白	-11.4273
也何	-11.4276
何則	-11.4276
不休	-11.4277
從子	-11.4277
蔥	-11.4282
也必	-11.4282
到任	-11.4284
萬夫	-11.4285
揀	-11.4287
攪	-11.4287
􁁊	-11.4287
焉夫	-11.4287
杓	-11.4287
意欲	-11.4288
年八月	-11.4289
仕宦	-11.4289
黼	-11.4291
縣人	-11.4292
提學	-11.4292
林壑	-11.4292
暌	-11.4292
汩	-11.4292
詒	-11.4292
也使	-11.4293
之所在	-11.4296
摩挲	-11.4298
出師	-11.4299
元元	-11.4299
不審	-11.43
一望	-11.43
嵇	-11.4301
堞	-11.4303
寺僧	-11.4303
恩澤	-11.4304
都賦	-11.4305
浩歌	-11.4307
毫釐	-11.4308
輕舟	-11.4308
次曰	-11.4309
東閣	-11.431
喟然	-11.4311
片言	-11.4311
誠意	-11.4313
缶	-11.4314
觜	-11.4314
祝融	-11.4314
卭	-11.4315
常有	-11.4315
一徑	-11.4316
此行	-11.4318
不齊	-11.4318
善政	-11.4319
潭州	-11.432
▁憶昔	-11.432
之死	-11.432
近代	-11.4321
軻	-11.4322
逺人	-11.4323
非也	-11.4324
罏	-11.4325
先天	-11.4329
字伯	-11.433
紏	-11.433
半生	-11.4331
深思	-11.4331
固宜	-11.4332
一再	-11.4332
朝日	-11.4332
湖光	-11.4333
流泉	-11.4335
未已	-11.4335
橐	-11.4336
山城	-11.4339
芟	-11.4339
前賢	-11.434
本自	-11.4344
士人	-11.4344
吳王	-11.4344
老而	-11.4345
台州	-11.4346
夥	-11.4352
殘雪	-11.4353
髙閣	-11.4355
多故	-11.4357
與李	-11.4365
好事者	-11.4366
相屬	-11.4368
夜泊	-11.4368
明明	-11.4369
拚	-11.4369
小者	-11.4369
道理	-11.437
項羽	-11.4372
籖	-11.4373
渤海	-11.4375
重華	-11.4379
沁	-11.438
微雨	-11.438
東風吹	-11.4381
也故曰	-11.4382
茆	-11.4382
而樂	-11.4387
潢	-11.4387
征伐	-11.4387
安定	-11.4388
建昌	-11.439
茁	-11.439
愛人	-11.4391
馳騁	-11.4393
搔	-11.4393
天池	-11.4394
之序	-11.4394
周氏	-11.4395
廨	-11.4396
䜟	-11.4396
力學	-11.4397
巫峽	-11.4398
楚國	-11.4399
太平之	-11.4399
琯	-11.44
何嘗	-11.44
今以	-11.4402
重於	-11.4403
青燈	-11.4403
之基	-11.4404
諗	-11.4407
老大	-11.4408
平沙	-11.4409
薦之	-11.4411
經世	-11.4411
天下之士	-11.4411
鐘鼓	-11.4411
古樂府	-11.4412
產	-11.4412
其妻	-11.4413
花影	-11.4414
諍	-11.4414
風氣	-11.4415
▁人之	-11.4418
乙丑	-11.4418
入城	-11.442
乃復	-11.442
二十餘	-11.442
者十	-11.4421
先賢	-11.4423
謂此	-11.4423
雲深	-11.4427
之號	-11.4427
豈謂	-11.4428
含情	-11.443
駐蹕	-11.4431
三寸	-11.4432
途中	-11.4432
留滯	-11.4433
以名	-11.4433
画	-11.4434
戶	-11.4434
以病	-11.4435
舉其	-11.4436
題曰	-11.4444
内翰	-11.4446
矣予	-11.4446
綺羅	-11.445
摯	-11.4451
鶯啼	-11.4451
臣所	-11.4453
慶厯	-11.4455
槽	-11.4456
文士	-11.4458
蹤跡	-11.4459
矣吾	-11.4459
土地	-11.4459
同日	-11.446
不憂	-11.446
乗興	-11.446
兖	-11.446
無已	-11.4462
另	-11.4462
枝上	-11.4462
於國	-11.4464
重輕	-11.4465
屏風	-11.4466
朝朝	-11.4467
團團	-11.4467
見上	-11.4467
而無所	-11.4467
蠢	-11.4467
之好	-11.4468
書事	-11.4469
淮隂	-11.447
至如	-11.447
未肯	-11.4471
曽不	-11.4472
汜	-11.4473
之源	-11.4473
予與	-11.4473
風來	-11.4474
荷葉	-11.4475
長吟	-11.4476
惟陛下	-11.4476
平江	-11.448
兩浙	-11.448
不類	-11.4482
懌	-11.4483
動静	-11.4486
▁廷	-11.4486
萬厯	-11.4486
考績	-11.4488
民有	-11.4488
臞	-11.4489
墓銘	-11.4491
揮毫	-11.4492
仲宣	-11.4493
遊人	-11.4493
詩巻	-11.4494
𡨕	-11.4495
肻	-11.4495
西樓	-11.4496
安南	-11.4497
事宜	-11.4497
而使	-11.4498
能不	-11.4501
又復	-11.4501
中使	-11.4502
江右	-11.4503
踰年	-11.4504
虀	-11.4506
有賢	-11.4507
花香	-11.4508
而用	-11.4508
蕭何	-11.451
滿城	-11.4511
雙闕	-11.4512
為吏	-11.4512
臯陶	-11.4512
居人	-11.4513
七尺	-11.4513
觀音	-11.4514
百代	-11.4516
以通	-11.4517
也謂	-11.4518
一種	-11.4518
翰林院	-11.452
春意	-11.4523
䧏	-11.4523
山雲	-11.4523
世故	-11.4526
險阻	-11.4526
山月	-11.4526
刳	-11.4528
不䏻	-11.4532
山髙	-11.4533
此等	-11.4534
邦人	-11.4535
武侯	-11.4537
百金	-11.4537
相視	-11.4538
淩	-11.4539
名者	-11.4541
厥後	-11.4541
乃命	-11.4544
舊有	-11.4547
論事	-11.4548
滄波	-11.4549
駟馬	-11.455
升降	-11.455
長官	-11.4553
粲然	-11.4556
山海經	-11.4557
與民	-11.4558
二十九	-11.4559
乎故	-11.456
人欲	-11.456
與諸	-11.456
清白	-11.4561
同列	-11.4561
又言	-11.4562
鳥飛	-11.4562
未安	-11.4562
名利	-11.4566
讃	-11.4567
小學	-11.4572
瘡	-11.4573
燾	-11.4573
乙亥	-11.4573
不辨	-11.4574
太一	-11.4575
世路	-11.4575
雲開	-11.458
眉山	-11.4583
江村	-11.4584
者不可	-11.4585
終無	-11.4586
尊號	-11.4586
昭明	-11.4587
余言	-11.4587
行客	-11.4588
部使者	-11.4589
䆒	-11.459
戊子	-11.459
詩一首	-11.4592
云何	-11.4592
復來	-11.4593
値	-11.4595
娟娟	-11.4595
紫氣	-11.4596
春事	-11.4598
求諸	-11.4601
不可以不	-11.4601
立春	-11.4601
故為	-11.4601
山海	-11.4602
秦之	-11.4602
西施	-11.4602
大有	-11.4603
崇禎	-11.4606
之室	-11.4606
患難	-11.4606
朔風	-11.4606
之忠	-11.4607
潯	-11.4608
第六	-11.4608
成人	-11.4609
不住	-11.4611
掄	-11.4612
上聞	-11.4613
太學生	-11.4614
交游	-11.4616
躑躅	-11.4618
堂下	-11.4618
天河	-11.4618
録事	-11.4619
矣乃	-11.4619
秩滿	-11.4623
率土	-11.4623
縣主簿	-11.4624
矛	-11.4626
芷	-11.4626
堯舜之	-11.4627
發揮	-11.4628
尅	-11.4629
爾乃	-11.4629
姝	-11.4634
諜	-11.4634
中正	-11.4634
才名	-11.4637
時見	-11.464
不可及	-11.4641
白鹿	-11.4642
年二十	-11.4643
中書令	-11.4647
吾黨	-11.4647
庶子	-11.465
爛漫	-11.4651
其外	-11.4651
江天	-11.4654
酤	-11.4657
何意	-11.4658
雖在	-11.4659
官舍	-11.4663
無違	-11.4663
元老	-11.4663
賢愚	-11.4667
烘	-11.4668
丰	-11.4668
笄	-11.4668
戊午	-11.4669
桴	-11.4672
之首	-11.4673
商賈	-11.4673
意者	-11.4674
秦淮	-11.4675
在朝	-11.4675
齊王	-11.4675
請於	-11.4676
與天地	-11.4679
膓	-11.4679
尤甚	-11.468
陽之	-11.4681
詹事	-11.4685
金錢	-11.4685
欲乞	-11.4686
餘慶	-11.4687
本心	-11.4687
之工	-11.4688
棟宇	-11.4689
小舟	-11.4689
賢之	-11.469
風土	-11.4691
淄	-11.4692
水清	-11.4692
臺閣	-11.4693
浮圖	-11.4693
非其人	-11.4693
始至	-11.4694
所屬	-11.4698
東湖	-11.4699
留題	-11.47
魏晉	-11.4704
湖北	-11.4706
而思	-11.4707
天文	-11.4708
空自	-11.4709
驪山	-11.471
汀洲	-11.4711
擺	-11.4713
五福	-11.4714
三萬	-11.4715
要之	-11.4715
神功	-11.4716
之慶	-11.4716
相近	-11.4716
蜀道	-11.4717
卿大夫	-11.4718
江都	-11.4719
春愁	-11.4723
而吾	-11.4725
之祥	-11.4726
▁哭	-11.4728
否則	-11.4728
轉運	-11.4728
所與	-11.4728
無計	-11.473
奪其	-11.4731
其德	-11.4735
而東	-11.4736
婿	-11.4736
吾儕	-11.4737
東觀	-11.4737
召還	-11.4739
老樹	-11.4741
莾	-11.4741
鼓舞	-11.4742
胡氏	-11.4742
徐公	-11.4743
筆墨	-11.4747
言則	-11.4749
多難	-11.475
蕭索	-11.475
嗟我	-11.4751
靈臺	-11.4753
臨事	-11.4754
興廢	-11.4757
諸書	-11.4759
陽城	-11.4763
滎陽	-11.4763
南極	-11.4764
讞	-11.4764
世傳	-11.4764
所恃	-11.4765
國用	-11.4767
百王	-11.4768
㑹同	-11.477
不踰	-11.4772
新秋	-11.4772
丘園	-11.4773
白璧	-11.4774
但有	-11.4774
髭	-11.4774
魯公	-11.4775
因而	-11.4776
今觀	-11.4776
深知	-11.4776
美酒	-11.4778
髙臺	-11.4779
邦家	-11.478
躊躇	-11.4781
千官	-11.4782
嵗暮	-11.4784
亦難	-11.4785
愛惜	-11.4786
如來	-11.4788
盤桓	-11.479
同姓	-11.479
徳音	-11.4791
歸于	-11.4791
不我	-11.4791
惡之	-11.4791
湯武	-11.4792
壬戌	-11.4793
羲皇	-11.4793
南面	-11.4795
奏聞	-11.4796
此所謂	-11.4796
飛泉	-11.4796
从	-11.4798
也又曰	-11.48
星河	-11.48
作賦	-11.48
乎是	-11.4801
黄塵	-11.4801
公車	-11.4801
猛虎	-11.4802
遺恨	-11.4803
幽獨	-11.4805
儀禮	-11.4805
意也	-11.4806
下筆	-11.4808
余以	-11.481
難矣	-11.481
非敢	-11.4814
誰是	-11.4815
及第	-11.4815
某氏	-11.4818
邠	-11.482
筆硯	-11.4821
斈	-11.4821
神州	-11.4821
吾身	-11.4822
辛酉	-11.4822
青陽	-11.4823
不曽	-11.4824
丁寧	-11.4825
天宇	-11.4831
從公	-11.4831
澧	-11.4833
詠歌	-11.4834
晚節	-11.4835
一云	-11.4837
哉今	-11.4839
大成	-11.4843
鄉閭	-11.4844
乎今	-11.4844
百辟	-11.4844
内閣	-11.4845
八句	-11.4846
格物	-11.4847
思量	-11.4848
矣是	-11.4849
事理	-11.485
程氏	-11.485
者可	-11.485
一千	-11.4852
無何	-11.4854
遂令	-11.4855
揷	-11.4856
自覺	-11.4856
曆	-11.486
鱸	-11.4862
而居	-11.4863
楸	-11.4863
不惑	-11.4864
自來	-11.4868
之族	-11.4869
世為	-11.4869
幽棲	-11.487
客子	-11.4871
庶乎	-11.4872
尚能	-11.4873
花滿	-11.4873
建章	-11.4878
有味	-11.4879
連城	-11.488
百草	-11.4881
了無	-11.4881
▁去年	-11.4882
水仙	-11.4883
閨門	-11.4883
空言	-11.4883
璇	-11.4884
霾	-11.4884
中庭	-11.4885
罅	-11.4885
明光	-11.4888
秉燭	-11.4888
者謂之	-11.4889
是嵗	-11.4889
近年	-11.4889
覯	-11.489
之病	-11.4891
周子	-11.4892
天下者	-11.4893
以利	-11.4897
范蠡	-11.4897
竹枝	-11.4898
分司	-11.4899
儼然	-11.49
矗	-11.4901
櫟	-11.4901
已久	-11.4902
朋黨	-11.4902
疾苦	-11.4902
無成	-11.4904
悰	-11.4907
驃騎	-11.4909
仰天	-11.4909
一觴	-11.4909
哦	-11.4909
之險	-11.491
寡人	-11.491
清晨	-11.491
亦猶	-11.491
乎若	-11.4912
烟波	-11.4915
志於	-11.4915
求賢	-11.4916
下至	-11.4917
嘆息	-11.4917
凡有	-11.4918
去來	-11.4921
▁雨中	-11.4922
春官	-11.4923
不輕	-11.4924
王維	-11.4925
朝天	-11.4926
則吾	-11.4928
罔極	-11.4928
▁中秋	-11.4928
無主	-11.4929
生者	-11.493
荆門	-11.4931
勺	-11.4938
服其	-11.4939
其賢	-11.4939
玉泉	-11.494
不給	-11.4941
何限	-11.4942
百神	-11.4944
矣公	-11.4945
焉耳	-11.4946
十巻	-11.4947
凡所	-11.4948
之務	-11.4948
山深	-11.4949
者何也	-11.495
官員	-11.495
二十餘年	-11.4952
不定	-11.4953
羿	-11.4954
𤣥宗	-11.4956
壬申	-11.4957
泌	-11.4959
載之	-11.496
左氏傳	-11.4962
荔枝	-11.4962
幘	-11.4963
其初	-11.4964
九疑	-11.4966
中宵	-11.4967
芳樹	-11.4967
發之	-11.4968
謂公	-11.497
珂	-11.4971
逡巡	-11.4971
兢兢	-11.4972
五老	-11.4974
箠	-11.4975
太宰	-11.4975
五嶽	-11.4976
凟	-11.4977
瑶臺	-11.4978
源流	-11.4981
飛雪	-11.4981
髙卧	-11.4983
食邑	-11.4983
青樓	-11.4986
山光	-11.4987
南湖	-11.4988
應天	-11.4988
厮	-11.4988
太華	-11.499
目録	-11.4992
令尹	-11.4993
明發	-11.4993
爾雅曰	-11.4993
死不	-11.4993
自相	-11.4994
芝蘭	-11.4994
羗	-11.4994
無逸	-11.4994
不存	-11.4995
過客	-11.4996
蘇公	-11.4998
還自	-11.4998
會稽	-11.5
塹	-11.5
諸道	-11.5
新城	-11.5004
之英	-11.5005
八卦	-11.5006
驅車	-11.5006
罍	-11.5007
益州	-11.5009
陽和	-11.5009
天邊	-11.501
琰	-11.501
錮	-11.5011
也及	-11.5011
文苑	-11.5012
不記	-11.5012
異也	-11.5013
鴻臚	-11.5013
疫	-11.5014
戸部	-11.5014
經歴	-11.5016
筆力	-11.5018
三千里	-11.5021
越人	-11.5022
若使	-11.5023
序之	-11.5025
白蓮	-11.5025
之辰	-11.5025
經緯	-11.5026
奕奕	-11.503
嵇康	-11.5031
過雨	-11.5031
氣之	-11.5032
忘言	-11.5032
物情	-11.5033
之路	-11.5034
衒	-11.5035
𦂳	-11.5035
大中	-11.5036
國風	-11.5038
諸州	-11.5038
襦	-11.504
禮法	-11.504
無害	-11.5041
凨	-11.5041
回頭	-11.5041
㡬何	-11.5043
老氏	-11.5046
者不能	-11.5048
天髙	-11.5049
河上	-11.505
弗能	-11.5051
世情	-11.5051
雲生	-11.5052
一尊	-11.5055
出山	-11.5056
花木	-11.5057
十有一	-11.5057
穡	-11.5057
脾	-11.5058
霹靂	-11.5058
孝思	-11.5059
天開	-11.506
縉	-11.5061
仕者	-11.5062
銀燭	-11.5064
届	-11.5064
甚者	-11.5065
扵此	-11.5065
岐路	-11.5066
擇其	-11.5067
是宜	-11.5067
擊之	-11.5069
俶	-11.507
滁	-11.5071
菰	-11.5073
明鏡	-11.5073
科目	-11.5074
祀之	-11.5076
鎗	-11.5076
百憂	-11.5077
其來	-11.5078
尚書省	-11.5079
㸑	-11.5082
公公	-11.5082
然如	-11.5083
矣余	-11.5085
怛	-11.5086
聲聞	-11.5087
鳥啼	-11.5088
九成	-11.5089
政和	-11.5091
嵩山	-11.5092
主者	-11.5092
邪正	-11.5093
默	-11.5094
荇	-11.5094
李斯	-11.5094
小園	-11.5094
無負	-11.5094
少而	-11.5094
有限	-11.5096
網羅	-11.5096
吳門	-11.5097
青蓮	-11.5097
詞章	-11.51
俛仰	-11.5105
壌	-11.5105
剗	-11.5105
槍	-11.5105
大畧	-11.5106
詩卷	-11.5108
天下事	-11.5109
鵰	-11.5111
至仁	-11.5111
論者	-11.5112
碧山	-11.5113
行義	-11.5113
欣欣	-11.5114
蓴	-11.5116
蒼翠	-11.5117
并州	-11.5119
幽谷	-11.5123
捄	-11.5123
酈	-11.5123
無憂	-11.5124
湄	-11.5127
合而	-11.5127
韓文	-11.5128
柟	-11.5129
五世	-11.5129
太山	-11.5132
天下而	-11.5136
物而	-11.5137
鳴琴	-11.5139
上客	-11.5139
郡城	-11.5139
逍遙	-11.5141
諸司	-11.5142
第七	-11.5143
之以為	-11.5143
刑罰	-11.5144
舊史	-11.5145
於衆	-11.5146
斌	-11.5147
夜光	-11.5147
醉鄉	-11.5147
其政	-11.5148
百工	-11.5149
隨處	-11.515
于兹	-11.5151
未見其	-11.5152
瓚	-11.5152
殿中	-11.5154
胡公	-11.5155
之側	-11.5155
其首	-11.5156
豈容	-11.5157
親王	-11.516
甚於	-11.516
可笑	-11.5162
戡	-11.5164
金銀	-11.5166
藝文	-11.5166
蝸	-11.5167
不可謂	-11.5167
莫遣	-11.5167
備矣	-11.5167
淇	-11.5168
順天	-11.5168
歸時	-11.5168
神農	-11.5168
檢討	-11.5169
何益	-11.5172
戚戚	-11.5172
瀘	-11.5173
者咸	-11.5176
自我	-11.5177
京洛	-11.5177
内有	-11.5178
慟哭	-11.5181
兵部尚書	-11.5182
之舉	-11.5183
心如	-11.5183
至京師	-11.5186
糟	-11.5186
江淹	-11.5187
也既	-11.5187
酲	-11.5188
日下	-11.5189
六字	-11.5194
兩京	-11.5196
大率	-11.5198
頭上	-11.5199
祛	-11.52
辛亥	-11.5201
入夢	-11.5202
本路	-11.5202
勸農	-11.5206
訓導	-11.5207
舊日	-11.521
春酒	-11.5211
嘿	-11.5212
文正公	-11.5216
毫髪	-11.5216
以獻	-11.5217
躓	-11.5218
不特	-11.5219
阡陌	-11.522
救之	-11.5221
一錢	-11.5222
西州	-11.5226
不但	-11.5227
儗	-11.523
伯父	-11.5231
長句	-11.5231
厎	-11.5235
其流	-11.5236
所望	-11.5236
以昭	-11.5237
長驅	-11.5238
不可為	-11.5238
忘憂	-11.5241
妻孥	-11.5243
士君子	-11.5243
曄	-11.5246
楚詞	-11.5246
王莽	-11.5247
竊聞	-11.5247
石田	-11.5247
今上	-11.5248
安居	-11.5249
常在	-11.5249
鷗鷺	-11.525
釣臺	-11.5253
笑我	-11.5253
惜乎	-11.5257
之田	-11.5257
樽酒	-11.5259
數里	-11.5261
不雨	-11.5262
翠羽	-11.5262
而還	-11.5267
歌行	-11.5268
召見	-11.5268
名教	-11.5269
離羣	-11.527
而難	-11.5271
杼	-11.5274
故居	-11.5278
嗟嗟	-11.5281
之區	-11.5281
甲科	-11.5282
陲	-11.5282
昕	-11.5283
民者	-11.5284
追隨	-11.5284
數行	-11.5289
永言	-11.5293
風化	-11.5294
今復	-11.5295
鸛	-11.5295
事皆	-11.5296
上國	-11.5296
石湖	-11.5298
田野	-11.5298
苕溪	-11.5299
閃	-11.5301
却是	-11.5304
而南	-11.5305
簸	-11.5307
羶	-11.5307
以興	-11.5308
不幸而	-11.531
本司	-11.5311
鳥鳴	-11.5311
尚書曰	-11.5311
鄉試	-11.5311
慎勿	-11.5312
坐看	-11.5313
皆知	-11.5313
以表	-11.5318
躬耕	-11.5319
圮	-11.5319
簒	-11.5319
長楊	-11.532
囀	-11.5322
江樓	-11.5324
帝之	-11.5324
隼	-11.5325
常山	-11.5326
蛻	-11.5331
恂	-11.5331
又能	-11.5331
嘔	-11.5331
朩	-11.5331
甜	-11.5331
萬萬	-11.5332
南軒	-11.5332
利而	-11.5334
徐氏	-11.5335
長河	-11.5336
恁	-11.5337
寄書	-11.5338
經傳	-11.5338
食其	-11.534
竪	-11.5343
陽縣	-11.5344
誰道	-11.5344
自傷	-11.5344
巴蜀	-11.5345
刑獄	-11.5348
吏部侍郎	-11.535
學宫	-11.5351
隴頭	-11.5352
劉子	-11.5353
以教	-11.5353
常恐	-11.5353
吾亦	-11.5354
仲舒	-11.5355
譔	-11.5355
誰敢	-11.5356
卧病	-11.5359
白蘋	-11.5359
願為	-11.536
國事	-11.5361
衰老	-11.5361
皁	-11.5361
皺	-11.5361
豳	-11.5362
柘	-11.5363
功德	-11.5363
張衡	-11.5364
市井	-11.5365
父母之	-11.5368
羽毛	-11.5369
所好	-11.5371
襄公	-11.5372
面目	-11.5373
祺	-11.5373
聞有	-11.5374
仰視	-11.5376
之益	-11.5377
河洛	-11.5383
那能	-11.5383
之易	-11.5383
華屋	-11.5383
至道	-11.5384
以立	-11.5384
敵人	-11.5385
思所以	-11.5385
之規	-11.5387
故知	-11.5387
璉	-11.5392
塡	-11.5392
讚	-11.5392
行於	-11.5392
天王	-11.5395
南飛	-11.5396
嫋嫋	-11.5398
愁絶	-11.5398
寒雲	-11.5398
山莊	-11.54
遥望	-11.5401
也至於	-11.5401
陋巷	-11.5402
山路	-11.5402
太乙	-11.5402
奪之	-11.5402
也先生	-11.5403
夫君	-11.5403
泉聲	-11.5403
躐	-11.5404
其害	-11.5405
蘇曰	-11.5405
宴坐	-11.5405
所向	-11.541
送之	-11.5412
仲春	-11.5415
家聲	-11.5417
公嘗	-11.5421
兒孫	-11.5421
遺事	-11.5422
河内	-11.5422
戊寅	-11.5423
斗牛	-11.5424
聽之	-11.5428
以全	-11.5428
▁聞道	-11.543
先主	-11.5431
萬巻	-11.5432
萬丈	-11.5432
舊物	-11.5434
毳	-11.5434
献	-11.5434
鯤	-11.5434
之端	-11.5436
無形	-11.5437
白金	-11.5437
積善	-11.5438
館閣	-11.5438
到家	-11.5439
絜	-11.544
亂離	-11.544
曰今	-11.5441
得所	-11.5442
誰云	-11.5445
伏羲	-11.5445
彬彬	-11.5447
心知	-11.5448
清濁	-11.545
舅姑	-11.5451
孟氏	-11.5452
义	-11.5452
輝光	-11.5454
杜牧	-11.5454
財用	-11.5455
為本	-11.5456
如雨	-11.5457
於文	-11.5462
十有五	-11.5463
劬	-11.5463
自在	-11.5464
蔕	-11.5464
一雙	-11.5466
葬於	-11.5466
麻姑	-11.5467
與同	-11.5468
此數	-11.5471
年十二月	-11.5472
為郡	-11.5473
▁故人	-11.5474
劭	-11.5475
驚起	-11.5478
碣石	-11.5478
太上	-11.5479
長門	-11.5479
哭之	-11.5479
差遣	-11.5479
月十五日	-11.548
其大者	-11.548
天光	-11.5481
書法	-11.5482
舉而	-11.5482
招提	-11.5482
㽞	-11.5483
金城	-11.5483
秋雲	-11.5484
其難	-11.5485
矯矯	-11.5487
憲副	-11.5487
飛絮	-11.5488
筌	-11.5489
燮	-11.5489
宇文	-11.5489
親親	-11.549
豐城	-11.5491
李陵	-11.5493
亦足以	-11.5494
三秋	-11.5494
駿馬	-11.5494
天順	-11.5495
鹿門	-11.5495
東京	-11.5496
竟以	-11.5497
出乎	-11.5498
目之	-11.5499
法而	-11.5499
義也	-11.5501
大官	-11.5501
七首	-11.5502
安民	-11.5502
人民	-11.5503
之令	-11.5505
紅顔	-11.5505
之姿	-11.5507
喇	-11.5507
佗	-11.5507
太虚	-11.5509
之耳	-11.551
傾倒	-11.551
也後	-11.5513
都官	-11.5513
斚	-11.5513
蚌	-11.5513
縱有	-11.5514
人歸	-11.5514
三嵗	-11.5515
令名	-11.5516
酒家	-11.5516
不失其	-11.5518
櫻	-11.5518
恨無	-11.5519
佃	-11.5519
梁王	-11.552
清歌	-11.552
翺	-11.5527
諫官	-11.5527
亡國	-11.5528
豈以	-11.5528
應詔	-11.5529
曹公	-11.553
寧知	-11.553
其終	-11.553
吾知	-11.553
循良	-11.5531
庭樹	-11.5531
或不	-11.5532
昱	-11.5532
以私	-11.5532
太陽	-11.5536
其死	-11.5536
者以其	-11.5538
當代	-11.5538
伶	-11.5538
廷臣	-11.5541
百千	-11.5542
朝宗	-11.5544
槀	-11.555
萬世之	-11.5551
曲直	-11.5551
▁長安	-11.5554
半空	-11.5557
從政	-11.5558
樞宻院	-11.5559
一樹	-11.5561
前世	-11.5563
諸山	-11.5565
有六	-11.5567
急於	-11.5567
夏侯	-11.5567
或無	-11.5568
喜怒	-11.5568
莊周	-11.5569
沙門	-11.557
不虞	-11.5571
數百年	-11.5572
於理	-11.5573
於後世	-11.5576
臨池	-11.5577
㐮	-11.5579
諄諄	-11.5581
遭逢	-11.5581
澈	-11.5582
成於	-11.5582
獨往	-11.5584
青苔	-11.5585
不備	-11.5587
難於	-11.5587
佳節	-11.5587
焉是	-11.5588
殿前	-11.5588
小雅	-11.5589
奉命	-11.5591
睢陽	-11.5592
萬乗	-11.5594
賢能	-11.5594
之居	-11.5594
天柱	-11.5594
年四月	-11.5595
相呼	-11.5597
臼	-11.5597
銘銘曰	-11.5599
曰若	-11.5599
則不然	-11.56
維揚	-11.56
不數	-11.56
入室	-11.56
軍事	-11.5601
定國	-11.5605
緗	-11.5605
迤邐	-11.5606
春雪	-11.5606
在官	-11.5607
責其	-11.5611
燕雀	-11.5611
祕書	-11.5612
芬芳	-11.5612
正字	-11.5613
虚空	-11.5613
亦不可	-11.5613
往年	-11.5613
須㬰	-11.5614
皆然	-11.5614
雲起	-11.5614
夕照	-11.5615
無虞	-11.5615
年九月	-11.5615
多寡	-11.5618
姒	-11.5618
維摩	-11.5619
家住	-11.562
艘	-11.5623
存之	-11.5623
一般	-11.5624
壟	-11.5624
蜿蜒	-11.5624
烏鵲	-11.5625
之喪	-11.5626
深林	-11.563
舩	-11.563
君曰	-11.5632
還朝	-11.5636
道則	-11.5636
詩中	-11.5638
無錫	-11.5639
南園	-11.5641
子房	-11.5642
臬	-11.5642
但願	-11.5642
此君	-11.5643
乃至	-11.5643
百人	-11.5648
𣙜	-11.5649
仙翁	-11.5649
移文	-11.5649
人共	-11.565
離合	-11.5652
小雨	-11.5653
此樂	-11.5653
薔薇	-11.5655
驊騮	-11.5655
蒲萄	-11.5655
北征	-11.5656
團扇	-11.5656
不飲	-11.566
去矣	-11.5661
林木	-11.5662
夢得	-11.5663
果然	-11.5665
窮理	-11.5667
以勸	-11.5667
鈐	-11.5667
竽	-11.5668
諸友	-11.5668
先覺	-11.5671
昭陽	-11.5674
奉聖㫖	-11.5678
薤	-11.568
之宗	-11.5681
民無	-11.5681
玉京	-11.5683
足為	-11.5683
峴	-11.5683
漢水	-11.5683
守道	-11.5683
挽詞	-11.5683
甲第	-11.5684
亳	-11.5685
鴻雁	-11.5685
日光	-11.5686
吊	-11.5686
洙泗	-11.5687
自許	-11.5688
一等	-11.5688
便欲	-11.5691
冨貴	-11.5691
於大	-11.5691
晟	-11.5693
海隅	-11.5693
懷古	-11.5693
碑銘	-11.5694
華髪	-11.5694
逺道	-11.5695
宜春	-11.5695
湫	-11.5697
連雲	-11.5699
瞻望	-11.5702
珠璣	-11.5702
焉能	-11.5702
竭力	-11.5703
人來	-11.5703
今夫	-11.5704
崆峒	-11.5705
矣哉	-11.5706
論詩	-11.5709
入蜀	-11.571
者至	-11.571
自安	-11.571
保全	-11.571
臺諫	-11.571
已無	-11.5711
所致	-11.5711
諉	-11.5711
畋	-11.5711
大行	-11.5713
安期	-11.5713
各以	-11.5714
涪	-11.5715
幽明	-11.5718
年四十	-11.5718
金盤	-11.5721
宗之	-11.5721
雖非	-11.5723
余與	-11.5723
踣	-11.5724
之大者	-11.5724
乃作	-11.5725
嘗與	-11.5725
杜子美	-11.5728
為法	-11.5729
兩月	-11.573
韙	-11.573
柵	-11.573
地理	-11.573
而亡	-11.573
蜀本	-11.573
王命	-11.5731
為難	-11.5732
仰惟	-11.5733
所親	-11.5735
喜見	-11.5736
河圖	-11.5737
序云	-11.5737
傾城	-11.5738
可信	-11.5741
且復	-11.5742
両	-11.5743
肝膽	-11.5744
涕泣	-11.5745
凛凛	-11.5746
道心	-11.5746
為序	-11.5746
正義	-11.5746
綿綿	-11.5747
▁少年	-11.5748
犒	-11.5749
鏁	-11.5749
固辭	-11.5749
來朝	-11.575
丹丘	-11.575
所從	-11.575
為貴	-11.5751
從弟	-11.5754
祖妣	-11.5756
矣乎	-11.5756
永安	-11.5757
先君子	-11.5757
華嚴	-11.5758
黄鍾	-11.5758
筆端	-11.5759
夏日	-11.576
怍	-11.5761
四世	-11.5762
十有八	-11.5763
如公	-11.5765
黜陟	-11.5765
夷齊	-11.5766
陛下之	-11.5768
此物	-11.577
八人	-11.577
等語	-11.5771
龜山	-11.5771
商山	-11.5771
天章	-11.5772
其語	-11.5773
𠞰	-11.5774
▁子之	-11.5774
恩命	-11.5776
前驅	-11.5781
父諱	-11.5783
不服	-11.5785
我師	-11.5786
閉户	-11.5786
鏃	-11.5787
落盡	-11.5787
歐陽修	-11.5792
于外	-11.5792
義之	-11.5792
不正	-11.5793
豸	-11.5793
䆳	-11.5793
箔	-11.5793
俄而	-11.5794
殊不	-11.5796
優劣	-11.5797
祝曰	-11.5797
萬騎	-11.5799
墊	-11.5799
蒯	-11.5799
達於	-11.58
昭君	-11.5801
精微	-11.5801
肄	-11.5802
臚	-11.5804
柝	-11.5804
好風	-11.5805
幽蘭	-11.5805
兩鬢	-11.5806
王府	-11.5806
時則	-11.5807
有得	-11.5808
因得	-11.5808
遺民	-11.5809
官制	-11.5809
九曲	-11.5811
瞥	-11.5812
不患	-11.5815
皆能	-11.5816
𦕈	-11.5818
大海	-11.5819
之次	-11.5819
不語	-11.5819
文苑英華	-11.582
作歌	-11.582
少壯	-11.582
夜寒	-11.5821
榴	-11.5823
乃今	-11.5824
清凉	-11.5827
句法	-11.5828
緑樹	-11.5829
黄氏	-11.583
蓬瀛	-11.583
蘇武	-11.583
澀	-11.5831
飢寒	-11.5831
某人	-11.5835
黄鳥	-11.5837
餙	-11.5837
詬	-11.5837
尺寸	-11.5838
之譽	-11.5841
澌	-11.5843
青鳥	-11.5844
伊洛	-11.5849
櫺	-11.585
聖祖	-11.585
治民	-11.5851
東臯	-11.5851
西蜀	-11.5853
碧海	-11.5854
籬落	-11.5856
各一	-11.5858
正在	-11.5858
豈止	-11.5864
立法	-11.5864
而興	-11.5865
木石	-11.5866
歸省	-11.5869
灝	-11.5869
賒	-11.5869
恍惚	-11.5869
之歎	-11.5871
不常	-11.5871
吏治	-11.5873
登高	-11.5875
權衡	-11.5876
照耀	-11.588
江月	-11.5881
棟梁	-11.5881
揉	-11.5881
質之	-11.5882
之辨	-11.5883
千騎	-11.5885
下第	-11.5885
得請	-11.5886
必至	-11.5886
天與	-11.5886
先祖	-11.5887
折腰	-11.5888
諏	-11.5888
不祥	-11.5889
暦	-11.5891
楚客	-11.5893
願陛下	-11.5893
答曰	-11.5893
爵禄	-11.5895
祀典	-11.5896
古有	-11.5896
吹笙	-11.5898
襪	-11.5898
䡖	-11.5901
黄庭	-11.5902
凜	-11.5903
未終	-11.5904
感動	-11.5906
石林	-11.5907
夜夢	-11.5908
所部	-11.5909
匹馬	-11.591
成周	-11.591
鼉	-11.5913
隰	-11.5913
之積	-11.5914
封建	-11.5915
有九	-11.5915
大觀	-11.5915
韓詩	-11.5916
存心	-11.5916
口占	-11.5917
已過	-11.5919
見示	-11.592
雹	-11.592
玠	-11.592
異人	-11.592
風烟	-11.5921
又將	-11.5922
積水	-11.5925
舡	-11.5926
學也	-11.5927
朝雲	-11.5927
登科	-11.5927
行則	-11.5928
里閭	-11.5928
雪山	-11.5928
不開	-11.5929
城縣	-11.593
歸夢	-11.5932
不然則	-11.5932
君心	-11.5933
補闕	-11.5933
相連	-11.5934
▁伏審	-11.5934
老來	-11.5934
墨竹	-11.5936
子長	-11.5938
天顔	-11.5939
風度	-11.594
一隅	-11.5943
曉日	-11.5943
亦欲	-11.5947
王父	-11.5947
之質	-11.5947
大風	-11.5949
熈寧	-11.5949
濁酒	-11.5949
望中	-11.5951
撮	-11.5952
迢遞	-11.5952
器之	-11.5952
年十一月	-11.5954
其善	-11.5955
則已	-11.5956
諸弟	-11.5956
之弗	-11.5956
其失	-11.5956
人莫	-11.5957
怪石	-11.5959
賞心	-11.5959
天下士	-11.5959
為之記	-11.596
世宗	-11.5961
緹	-11.5964
婦女	-11.5965
而治	-11.5968
騏驥	-11.5971
與客	-11.5974
十卷	-11.5975
者宜	-11.5976
因此	-11.5977
歌詠	-11.5978
▁二月	-11.598
宛然	-11.598
新豐	-11.5982
辛巳	-11.5984
個	-11.5984
丙寅	-11.5985
為郎	-11.5986
但覺	-11.5988
病起	-11.5988
當此	-11.5988
懼其	-11.5988
皇子	-11.5988
▁崔	-11.5988
露華	-11.5991
以天下	-11.5993
客心	-11.5994
敢望	-11.5994
獻納	-11.5994
欲得	-11.5996
煜	-11.5996
霅	-11.5996
爇	-11.5997
帰	-11.5997
則民	-11.5997
予聞	-11.5997
一色	-11.5997
此類	-11.5998
詩賦	-11.5998
安敢	-11.5998
王安石	-11.5999
三事	-11.6
青門	-11.6001
煒	-11.6003
希夷	-11.6004
聖德	-11.6004
于公	-11.6005
狂歌	-11.6007
浮沉	-11.6008
晉人	-11.6008
痾	-11.6009
綆	-11.6009
金帛	-11.6009
士夫	-11.6011
百僚	-11.6012
寥落	-11.6012
掃除	-11.6013
吾徒	-11.6013
李太白	-11.6014
未開	-11.6016
范公	-11.6016
寒梅	-11.6019
無從	-11.602
畫船	-11.6025
得見	-11.6025
其師	-11.6027
循環	-11.6028
既得	-11.6028
莊子曰	-11.6029
延陵	-11.603
流風	-11.6031
舊制	-11.6031
斯世	-11.6032
陽臺	-11.6032
吕氏	-11.6033
而稱	-11.6033
之所能	-11.6034
羣山	-11.6034
以廣	-11.6035
蔗	-11.6035
必曰	-11.6037
馳驅	-11.6037
也亦	-11.6037
如君	-11.604
一變	-11.604
喜雨	-11.6041
曰公	-11.6041
譌	-11.6042
蘭若	-11.6045
于後	-11.6045
呉興	-11.6046
其數	-11.6047
耳今	-11.6048
復古	-11.6048
屡	-11.6048
飴	-11.6048
高下	-11.6048
塵世	-11.6049
特進	-11.605
異數	-11.6052
部郎中	-11.6053
者莫	-11.6054
送行	-11.6055
傳家	-11.6056
大河	-11.6059
獨酌	-11.606
膾	-11.6061
峡	-11.6061
屬之	-11.6062
而遽	-11.6064
特以	-11.6064
字字	-11.6065
其神	-11.6066
下詔	-11.6066
之君子	-11.6066
一樽	-11.6067
之由	-11.6068
鳥聲	-11.6069
大禮	-11.607
論思	-11.607
避世	-11.6072
廟碑	-11.6072
豈足	-11.6072
西征	-11.6073
積雨	-11.6073
重門	-11.6074
僦	-11.6074
曁	-11.6074
巋然	-11.6075
人能	-11.6075
因縁	-11.6075
魏文帝	-11.6077
松楸	-11.6078
可疑	-11.608
漱	-11.608
莒	-11.608
耆老	-11.6082
方且	-11.6083
邊城	-11.6085
搔首	-11.6085
知命	-11.6086
慾	-11.6087
夜分	-11.6087
司理	-11.6088
東野	-11.609
但以	-11.609
推轂	-11.6091
之色	-11.6091
晉陽	-11.6092
古風	-11.6093
宗師	-11.6095
太皇太后	-11.6095
廢興	-11.6096
遲暮	-11.6097
於詩	-11.6097
嘏	-11.6099
東方朔	-11.61
人以為	-11.6101
端居	-11.6102
所重	-11.6105
穆公	-11.6108
亂山	-11.6108
此固	-11.6109
執法	-11.611
也至	-11.6111
僃	-11.6113
城門	-11.6114
與此	-11.6115
愛此	-11.6119
鞍馬	-11.6119
某等	-11.6122
累遷	-11.6122
猶記	-11.6123
聖神	-11.6123
提督	-11.6124
荻	-11.6125
淮陽	-11.6126
籲	-11.613
惟此	-11.613
空翠	-11.6131
閥	-11.6131
銀漢	-11.6131
引領	-11.6132
先輩	-11.6133
空庭	-11.6133
卿士	-11.6135
出沒	-11.6136
紅粉	-11.6136
益以	-11.6138
紛然	-11.6139
溶溶	-11.6139
片雲	-11.6141
馨香	-11.6141
賦此	-11.6141
早卒	-11.6143
其辭曰	-11.6143
平韻	-11.6144
長慶	-11.6144
醢	-11.6145
年三月	-11.6146
任使	-11.6146
觀察使	-11.6146
出則	-11.6147
金粟	-11.6148
花時	-11.6148
大兵	-11.6148
如是則	-11.6148
天錫	-11.6149
燿	-11.6152
慈母	-11.6153
致政	-11.6153
節義	-11.6155
心自	-11.6156
髙樹	-11.6157
六藝	-11.6157
殻	-11.6159
兵法	-11.6159
襄王	-11.6159
故雖	-11.6159
長空	-11.616
未老	-11.6162
昌言	-11.6162
人不知	-11.6163
蒼然	-11.6164
三家	-11.6165
疴	-11.6165
習之	-11.6165
三章	-11.6168
朱絃	-11.6168
未艾	-11.6169
緑楊	-11.6169
幾許	-11.6169
猿鶴	-11.617
貧者	-11.617
文王之	-11.6171
撒	-11.6172
証	-11.6172
陶潛	-11.6172
至理	-11.6173
祥符	-11.6178
之操	-11.6178
但知	-11.6178
方將	-11.6178
成帝	-11.6179
而就	-11.6179
既有	-11.618
予亦	-11.618
之智	-11.6182
良可	-11.6182
當然	-11.6183
沾衣	-11.6183
河山	-11.6183
穽	-11.6185
諶	-11.6185
翬	-11.6185
三春	-11.6185
雙雙	-11.6186
大軍	-11.6186
以便	-11.6188
為先	-11.6188
清曉	-11.619
僅存	-11.6191
甚厚	-11.6192
名世	-11.6192
地勢	-11.6193
尊者	-11.6193
伯玉	-11.6195
農桑	-11.6196
受知	-11.6197
參知政事	-11.6198
十丈	-11.6198
我思	-11.6199
冠帶	-11.6199
連日	-11.62
卿等	-11.62
之誅	-11.62
重九	-11.62
楚辭曰	-11.62
入于	-11.6201
地名	-11.6203
乱	-11.6204
有㫖	-11.6205
無量	-11.6205
予謂	-11.6208
無與	-11.6208
黄山	-11.6209
語也	-11.6211
手持	-11.6212
然非	-11.6212
更相	-11.6213
髙陽	-11.6217
芲	-11.6218
亦豈	-11.6218
以充	-11.6218
輕薄	-11.6218
志氣	-11.6218
晚年	-11.6219
然哉	-11.6219
鎮江	-11.6219
所難	-11.622
落照	-11.6222
萬木	-11.6223
羅漢	-11.6223
榼	-11.6224
持此	-11.6224
葉落	-11.6226
春夢	-11.623
未忘	-11.623
海中	-11.6231
跖	-11.6231
雲端	-11.6232
此所以	-11.6233
極矣	-11.6235
以佐	-11.6235
望雲	-11.6236
巴陵	-11.6236
牛馬	-11.6239
受業	-11.6243
辞	-11.6244
雒	-11.6245
愁人	-11.6245
棃	-11.6246
驄馬	-11.6247
穰	-11.6249
區區之	-11.6249
稗	-11.625
餼	-11.625
朝市	-11.6252
使得	-11.6252
不置	-11.6253
故名	-11.6254
視聽	-11.6255
半年	-11.6256
犬吠	-11.6256
詩韻	-11.6257
推其	-11.6258
之累	-11.6262
窮愁	-11.6263
堙	-11.6264
甿	-11.6264
鳯翔	-11.6265
王者之	-11.6267
財賦	-11.6269
報恩	-11.627
惋	-11.627
此外	-11.627
▁汪	-11.6271
軍馬	-11.6271
學古	-11.6272
當塗	-11.6274
亦惟	-11.6275
廕	-11.6277
翠竹	-11.6282
勸君	-11.6282
坐中	-11.6283
呉越	-11.6283
禇	-11.6283
千尋	-11.6284
東城	-11.6286
大宗	-11.6286
却笑	-11.6286
歸休	-11.6287
聖皇	-11.6288
其端	-11.6289
䛕	-11.629
平昔	-11.629
禮儀	-11.629
出身	-11.6291
凌波	-11.6291
非惟	-11.6292
之親	-11.6294
太初	-11.6295
兵戈	-11.6296
筴	-11.6297
襯	-11.6297
出納	-11.6297
多有	-11.6297
鷙	-11.63
往者	-11.6302
吉州	-11.6302
如此而	-11.6302
鵶	-11.6303
埒	-11.6303
邏	-11.6303
壩	-11.6303
踴躍	-11.6304
非人	-11.6304
吾欲	-11.6304
所書	-11.6304
黙黙	-11.6305
大雪	-11.6305
白帝	-11.6306
天下後世	-11.6307
相聞	-11.6307
魯國	-11.6307
鱸魚	-11.6309
忭	-11.631
不茍	-11.6311
何求	-11.6312
自可	-11.6316
如夢	-11.6316
据	-11.6317
腔	-11.6317
亦將	-11.6318
為心	-11.632
空有	-11.632
溝壑	-11.6321
飛雲	-11.6322
魯直	-11.6324
師古	-11.6325
不墜	-11.6326
僉憲	-11.6331
者不過	-11.6331
家藏	-11.6331
嘉其	-11.6332
雪花	-11.6332
邇來	-11.6333
所請	-11.6334
坐對	-11.6336
可望	-11.6337
自明	-11.6339
其末	-11.634
陶令	-11.6341
豢	-11.6343
賻	-11.6343
暗香	-11.6343
本官	-11.6344
梁園	-11.6344
意思	-11.6345
經始	-11.6346
奉行	-11.6346
蘇氏	-11.6346
請予	-11.6346
徊	-11.6349
瀬	-11.635
諂	-11.635
仙子	-11.635
其教	-11.6351
西川	-11.6351
延平	-11.6356
馘	-11.6356
化作	-11.6358
何心	-11.6358
真宗	-11.6358
禮部侍郎	-11.6359
馬嘶	-11.6359
泚	-11.636
哂	-11.6363
忠貞	-11.6367
爲文	-11.6367
未全	-11.6369
早朝	-11.6369
淬	-11.637
眎	-11.637
書成	-11.637
公卿大夫	-11.637
宗元	-11.6372
四望	-11.6372
片片	-11.6372
採蓮	-11.6373
簧	-11.6373
隨意	-11.6374
誑	-11.6377
湖中	-11.6377
乎且	-11.6379
行止	-11.6379
可稱	-11.6381
十有六	-11.6381
杜甫詩	-11.6384
其二	-11.6384
朝士	-11.6386
民以	-11.6387
序曰	-11.6387
真定	-11.6388
舟人	-11.6389
無方	-11.6389
蕤	-11.639
媛	-11.639
周南	-11.6391
來自	-11.6393
不管	-11.6393
杜預	-11.6394
也若夫	-11.6394
篇章	-11.6396
盡矣	-11.6396
晡	-11.6397
師古曰	-11.6397
宣慰	-11.6399
帝鄉	-11.6401
遂至	-11.6402
水聲	-11.6403
義士	-11.6403
嵌	-11.6403
詞臣	-11.6404
愁思	-11.6404
公乃	-11.6407
膏澤	-11.6408
埜	-11.641
嬖	-11.641
正言	-11.641
於義	-11.6411
自負	-11.6412
和風	-11.6412
聊自	-11.6413
矣且	-11.6413
畫像	-11.6413
即景	-11.6414
列傳	-11.6414
以助	-11.6415
不修	-11.6416
河之	-11.6416
空虚	-11.6417
鴻鵠	-11.6417
鳥雀	-11.6417
枝頭	-11.6417
開口	-11.6417
經學	-11.642
墳墓	-11.642
吾何	-11.6422
生理	-11.6422
者所	-11.6423
畤	-11.6423
癸亥	-11.6424
荀卿	-11.6424
蕭散	-11.6425
肱	-11.6425
慕之	-11.6427
華表	-11.6428
家庭	-11.643
木之	-11.6432
有美	-11.6433
竹間	-11.6435
黏	-11.6437
如絲	-11.6437
宋元	-11.6438
士也	-11.6438
▁皇太后	-11.644
笈	-11.6441
王曰	-11.6443
竹樹	-11.6445
藹藹	-11.6445
弓矢	-11.6445
以盡	-11.6445
庭院	-11.6447
若曰	-11.6447
羣仙	-11.6447
丹心	-11.6448
年間	-11.6448
坐客	-11.6448
▁郭	-11.6449
文武之	-11.645
荔	-11.6451
小詩	-11.6451
照臨	-11.6452
皇祐	-11.6454
怡然	-11.6456
飛揚	-11.6456
稱為	-11.6456
晏子	-11.6457
彖	-11.6457
五侯	-11.6459
累贈	-11.6461
其要	-11.6462
水石	-11.6462
鞋	-11.6463
安縣	-11.6463
肩輿	-11.6463
再見	-11.6463
乃在	-11.6463
斸	-11.6464
颯颯	-11.6464
以仁	-11.6465
次之	-11.6465
涼風	-11.6465
貢舉	-11.6466
周流	-11.6466
竣	-11.6467
及今	-11.6467
而安	-11.6468
掃地	-11.647
颷	-11.647
帚	-11.647
狙	-11.647
上意	-11.6471
天時	-11.6471
溪頭	-11.6472
都統	-11.6472
百篇	-11.6473
巳而	-11.6473
魏闕	-11.6473
爲我	-11.6476
滙	-11.6477
餘杭	-11.6478
其詳	-11.6478
西郊	-11.6478
不嫌	-11.6479
歐公	-11.6483
薺	-11.6484
新亭	-11.6484
司業	-11.6485
須知	-11.6485
榮華	-11.6485
亭記	-11.6487
▁寒食	-11.6489
其任	-11.649
忽憶	-11.649
紹聖	-11.649
禮成	-11.649
櫝	-11.6491
秋興	-11.6491
苦寒	-11.6491
致身	-11.6492
成命	-11.6492
黽勉	-11.6492
相違	-11.6493
嵗嵗	-11.6495
女兒	-11.6497
掬	-11.6498
驍	-11.6499
春秋之	-11.6499
一飯	-11.6502
不悟	-11.6504
吾言	-11.6504
濯纓	-11.6507
畢竟	-11.6507
矣雖然	-11.6508
之什	-11.6509
而逝	-11.6509
數十人	-11.6509
旣而	-11.651
一日之	-11.6511
樂善	-11.6512
凛然	-11.6512
成章	-11.6512
一州	-11.6512
▁送陳	-11.6513
滔	-11.6513
以至於	-11.6513
服除	-11.6514
而失	-11.6515
成均	-11.6515
横流	-11.6516
軍士	-11.6516
縣尹	-11.6517
箕子	-11.652
其類	-11.6521
歴官	-11.6522
一人之	-11.6523
齟齬	-11.6525
餘事	-11.6528
東君	-11.6528
付與	-11.6528
最是	-11.6528
鄉之	-11.6529
以救	-11.6529
蘇子	-11.653
撚	-11.6531
相和	-11.6532
蓬莱	-11.6532
林中	-11.6534
者言	-11.6535
老農	-11.6535
井田	-11.6535
黃金	-11.6536
舟車	-11.6536
宗子	-11.6537
成文	-11.6537
鳥道	-11.6538
月光	-11.654
絶壁	-11.6544
不恤	-11.6544
未休	-11.6544
沙頭	-11.6544
之殊	-11.6547
后稷	-11.6547
無一事	-11.6547
上都	-11.6547
何䖏	-11.6548
來此	-11.655
所司	-11.655
隠隠	-11.6551
范陽	-11.6551
峥嶸	-11.6552
澣	-11.6552
05	-11.6552
白骨	-11.6552
者二	-11.6553
尊卑	-11.6553
微言	-11.6555
繽紛	-11.6556
具在	-11.6556
自少	-11.6556
誅之	-11.6556
千峯	-11.6556
陳平	-11.6557
平明	-11.6558
復還	-11.6558
已覺	-11.6558
留侯	-11.6559
山空	-11.6561
者獨	-11.6562
布政	-11.6562
説文曰	-11.6563
爾等	-11.6564
伐木	-11.6565
其成	-11.6565
藂	-11.6565
淳熙	-11.6566
少傅	-11.6567
一麾	-11.6567
崛	-11.6569
落月	-11.657
千家	-11.6571
半月	-11.6573
果何	-11.6575
微茫	-11.6576
筯	-11.6576
下視	-11.6577
紫翠	-11.6577
城闕	-11.6577
營營	-11.6578
壼	-11.6579
前段	-11.658
休戚	-11.6581
補之	-11.6581
簡書	-11.6583
傍人	-11.6583
月日	-11.6583
上馬	-11.6584
易也	-11.6586
君臣之	-11.6587
兩朝	-11.6587
乃可	-11.6587
大略	-11.6589
洞房	-11.659
高明	-11.6591
儒臣	-11.6593
復得	-11.6594
莫教	-11.6594
之歌	-11.6595
日中	-11.6596
北堂	-11.6596
我公	-11.6596
桃葉	-11.6598
太君	-11.6599
建中	-11.6601
水落	-11.6601
示之	-11.6602
督撫	-11.6602
三復	-11.6603
估	-11.6604
三百年	-11.6605
雖多	-11.6606
抑亦	-11.6607
意在	-11.6608
玉臺	-11.6608
家語	-11.6608
庭中	-11.6609
身心	-11.6611
殺身	-11.6612
寓居	-11.6612
圖經	-11.6613
帶雨	-11.6613
胙	-11.6613
都事	-11.6614
則可以	-11.6615
萬金	-11.6615
侍宴	-11.6615
一新	-11.6618
而巳矣	-11.6618
深矣	-11.6619
厚薄	-11.662
周行	-11.662
船頭	-11.6623
不欺	-11.6625
遺風	-11.6625
酧	-11.6627
萋萋	-11.6627
一榻	-11.6627
賜金	-11.6628
以文學	-11.6629
下情	-11.6629
一邑	-11.663
坐令	-11.6631
上皇	-11.6633
獠	-11.6634
贑	-11.6634
不自知	-11.6635
今昔	-11.6635
官職	-11.6636
七里	-11.6637
數百里	-11.6638
▁公諱	-11.6638
饑寒	-11.6639
滸	-11.6639
春花	-11.664
空林	-11.664
後主	-11.664
焉得	-11.664
除夕	-11.6641
可傳	-11.6641
自由	-11.6641
上古	-11.6643
信乎	-11.6643
河中	-11.6644
勝負	-11.6644
仁義之	-11.6645
之秀	-11.6645
制置	-11.6645
永州	-11.6651
雲烟	-11.6652
不義	-11.6653
與誰	-11.6654
我聞	-11.6655
余亦	-11.6657
寞	-11.6657
厦	-11.6658
哉此	-11.6658
春去	-11.6659
諤	-11.6659
如舊	-11.6659
秣	-11.6659
貴州	-11.6659
已知	-11.6661
之事也	-11.6662
本意	-11.6663
直指	-11.6663
交遊	-11.6666
不可知	-11.6667
衆皆	-11.6667
凈	-11.6668
甯	-11.6668
亦宜	-11.6668
咸淳	-11.6668
毁譽	-11.6669
近於	-11.667
不經	-11.6672
陽侯	-11.6674
其友	-11.6676
能文	-11.6677
進之	-11.6678
古之君子	-11.6678
其亦	-11.6679
念此	-11.6679
四皓	-11.6682
遺老	-11.6682
命以	-11.6682
莫言	-11.6683
桂枝	-11.6684
發憤	-11.6687
異鄉	-11.6688
兩地	-11.6688
賫	-11.6689
盈尺	-11.669
學生	-11.6691
其祖	-11.6691
不足為	-11.6692
其誰	-11.6693
闗河	-11.6693
首陽	-11.6694
告之曰	-11.6696
内則	-11.6696
為公	-11.6697
累日	-11.6698
辛勤	-11.6702
既至	-11.6703
結廬	-11.6703
而至於	-11.6705
冬十月	-11.6706
遇事	-11.6707
怵	-11.6709
中都	-11.6709
嫓	-11.6709
荆楚	-11.671
柴扉	-11.6711
本紀	-11.6711
石榴	-11.6713
夜長	-11.6713
嵗晚	-11.6713
特立	-11.6713
要害	-11.6714
自漢	-11.6714
流沙	-11.6714
上流	-11.6714
終其身	-11.6716
娟	-11.6716
莫大於	-11.6716
鏡裏	-11.6717
皇祖	-11.6719
者凡	-11.6721
前山	-11.6722
及諸	-11.6723
不渝	-11.6725
苦吟	-11.6726
何况	-11.6727
凄凄	-11.6729
光彩	-11.673
菰蒲	-11.6731
能得	-11.6733
敵國	-11.6733
生計	-11.6734
梁州	-11.6737
部主事	-11.6739
嘉之	-11.674
長於	-11.674
君亦	-11.6741
翠㣲	-11.6741
以喻	-11.6744
忘情	-11.6746
正位	-11.6749
卿相	-11.675
耋	-11.675
宣州	-11.6751
少有	-11.6753
落成	-11.6753
以給	-11.6755
韭	-11.6758
汲黯	-11.6759
終朝	-11.676
事體	-11.6761
侃	-11.6762
墓在	-11.6762
猶得	-11.6764
常以	-11.6764
醑	-11.6765
矣嗚呼	-11.6765
雖曰	-11.6766
為問	-11.6766
毅然	-11.6767
之疾	-11.6768
白紵	-11.6769
于人	-11.6769
颸	-11.6772
勳	-11.6772
公爲	-11.6773
所奏	-11.6774
離宫	-11.6774
嗚咽	-11.6775
其長	-11.6777
正大	-11.6778
工部尚書	-11.6779
而遂	-11.678
恙	-11.678
十有四	-11.6782
望見	-11.6783
嶷	-11.6784
山鬼	-11.6784
友朋	-11.6785
野鶴	-11.6785
莫測	-11.6785
大厦	-11.6785
个	-11.6785
將安	-11.6786
隂陽之	-11.6787
同異	-11.6787
晨起	-11.6789
小小	-11.6791
兩句	-11.6792
此邦	-11.6792
山泉	-11.6793
霜風	-11.6796
述其	-11.6797
松聲	-11.6798
頡	-11.6798
越州	-11.6798
岧嶤	-11.6799
經畧	-11.68
柑	-11.6801
不再	-11.6802
好生	-11.6803
屬予	-11.6803
在東	-11.6805
相問	-11.6805
物華	-11.6805
泥塗	-11.6805
者焉	-11.6806
不早	-11.6807
▁旅	-11.6808
驤	-11.6808
大雨	-11.6809
荘子	-11.681
南城	-11.6813
芙蕖	-11.6813
蜩	-11.6813
何獨	-11.6814
董仲舒	-11.6814
而已哉	-11.6815
陳留	-11.6815
於彼	-11.6819
橙	-11.682
喝	-11.682
琱	-11.682
寤寐	-11.6821
直𨽻	-11.6821
卧龍	-11.6823
必有所	-11.6827
玉人	-11.6827
得於	-11.6828
是豈	-11.683
逢迎	-11.6831
直以	-11.6831
幽州	-11.6832
那可	-11.6832
之父	-11.6832
徃事	-11.6833
和靖	-11.6833
脛	-11.6834
子路	-11.6835
也或曰	-11.6838
冰雪	-11.684
其美	-11.6841
在彼	-11.6841
朅來	-11.6841
邦之	-11.6844
楓葉	-11.6844
如前	-11.6844
龍吟	-11.6844
聞人	-11.6844
委之	-11.6845
㡬人	-11.6845
紫薇	-11.6846
白虎	-11.6847
轆轤	-11.6848
賢士	-11.6849
中賀	-11.685
所適	-11.6852
君今	-11.6854
獨孤	-11.6855
擠	-11.6855
人主之	-11.6856
采石	-11.6858
吏事	-11.6858
既無	-11.686
宰臣	-11.6862
惬	-11.6862
纏	-11.6862
下土	-11.6863
詩禮	-11.6863
▁范	-11.6864
者常	-11.6866
其如	-11.6866
幾回	-11.6867
以往	-11.6867
朝奉郎	-11.6869
汾陽	-11.6871
周室	-11.6871
觚	-11.6872
焉今	-11.6873
蘅	-11.6876
史臣	-11.6877
䝉恩	-11.6879
雷電	-11.6881
念我	-11.6881
别號	-11.6881
宣室	-11.6882
黄菊	-11.6882
于鱗	-11.6884
聖君	-11.6885
反復	-11.6886
香爐	-11.6886
我輩	-11.6887
名園	-11.6887
老眼	-11.6887
總是	-11.6888
眼看	-11.6888
以應	-11.6888
睫	-11.6889
宕	-11.689
然皆	-11.6891
八字	-11.6891
倚樓	-11.6892
山間	-11.6892
而名	-11.6894
不盈	-11.6895
志云	-11.6895
太常博士	-11.6896
竢	-11.6897
三間	-11.6898
者悉	-11.6899
應笑	-11.69
豺虎	-11.6902
郡公	-11.6903
不勝其	-11.6904
委任	-11.6904
詩思	-11.6904
輞川	-11.6905
自取	-11.6905
一分	-11.6906
改為	-11.6907
饒州	-11.6907
事多	-11.6908
王家	-11.6908
者如此	-11.6908
三皇	-11.6908
夢想	-11.691
我昔	-11.6913
既以	-11.6913
曰不然	-11.6914
縣之	-11.6915
芰荷	-11.6916
鶯花	-11.6918
者也故	-11.6918
石泉	-11.6918
h	-11.6918
數百人	-11.6918
承㫖	-11.6921
孝悌	-11.6922
囷	-11.6924
菩提	-11.6926
東來	-11.6926
▁落日	-11.6926
泫	-11.6926
成名	-11.6928
甚衆	-11.693
湊	-11.6933
兩宫	-11.6934
濟時	-11.6935
災異	-11.6935
振衣	-11.6936
張仲	-11.6936
未行	-11.6936
士女	-11.6937
朞	-11.6937
窮通	-11.6937
圖之	-11.6938
千載之	-11.6939
搶	-11.6939
頹	-11.694
又是	-11.6941
戒之	-11.6941
其孤	-11.6943
多方	-11.6943
農事	-11.6944
武林	-11.6944
徐君	-11.6944
莱	-11.6946
舊居	-11.6946
憲章	-11.6946
物有	-11.6949
赫然	-11.695
陶淵明	-11.6952
安得不	-11.6952
石頭	-11.6952
處置	-11.6952
時年	-11.6952
能致	-11.6953
涂	-11.6954
菖蒲	-11.6954
比於	-11.6954
笑談	-11.6955
開花	-11.6955
字元	-11.6956
秋冬	-11.6957
陸離	-11.6957
相向	-11.6962
之兆	-11.6962
昭穆	-11.6963
潤色	-11.6964
安排	-11.6964
之念	-11.6964
字平聲	-11.6965
之哉	-11.6965
水經注	-11.6966
秋思	-11.6967
荆山	-11.6968
三昧	-11.6968
前修	-11.6969
也或	-11.6971
原本	-11.6971
導之	-11.6973
不事	-11.6974
而受	-11.6976
而西	-11.6977
加於	-11.6977
徒勞	-11.6977
秦川	-11.6979
黄龍	-11.698
神道碑	-11.6982
閹	-11.6982
身為	-11.6983
㑹合	-11.6984
氷霜	-11.6984
問津	-11.6985
山翁	-11.6986
以善	-11.6986
大府	-11.6987
百户	-11.6988
尚何	-11.6989
渡頭	-11.6989
謂曰	-11.6991
好音	-11.6992
無外	-11.6992
年老	-11.6992
雲煙	-11.6993
之譏	-11.6993
恭儉	-11.6993
醺	-11.6996
詶	-11.6996
赴闕	-11.6996
布政司	-11.6997
醴泉	-11.6997
獨倚	-11.6997
正人	-11.6998
李廣	-11.7
相得	-11.7001
夢覺	-11.7002
厝	-11.7003
繙	-11.7003
陁	-11.7003
志曰	-11.7004
者能	-11.7007
清和	-11.7008
亦在	-11.701
數語	-11.701
硬	-11.7011
三十五	-11.7012
寛大	-11.7013
大喜	-11.7014
五星	-11.7016
為記	-11.7017
原隰	-11.7018
髙情	-11.7019
鹿鳴	-11.7019
不湏	-11.7019
猶恐	-11.7023
所記	-11.7023
盌	-11.7025
螻蟻	-11.7025
衮衮	-11.7027
子之言	-11.7027
清淺	-11.7028
必將	-11.7028
時復	-11.703
下士	-11.7032
文忠	-11.7032
懵	-11.7032
清淨	-11.7032
憂勤	-11.7033
兩漢	-11.7033
初度	-11.7034
懷抱	-11.7035
北面	-11.7036
於東	-11.7038
清涼	-11.7039
髙低	-11.7041
事實	-11.7041
在京	-11.7042
兩山	-11.7042
山堂	-11.7042
性也	-11.7042
鴟夷	-11.7042
處分	-11.7043
天長	-11.7043
肅然	-11.7043
泉州	-11.7044
以兵	-11.7044
牝	-11.7046
婣	-11.7046
薑	-11.7046
䕫州	-11.7047
士子	-11.7047
撫州	-11.7048
然若	-11.7048
云是	-11.7049
大如	-11.705
不苟	-11.7051
睥睨	-11.7053
耨	-11.7053
氣質	-11.7054
不巳	-11.7054
二絶	-11.7057
八尺	-11.7059
過眼	-11.7059
函谷	-11.7059
四門	-11.7059
未報	-11.7059
有志於	-11.706
之目	-11.706
感恩	-11.7061
皆出	-11.7061
其俗	-11.7061
炷	-11.7062
塵外	-11.7062
紫雲	-11.7064
後世之	-11.7064
者因	-11.7065
往復	-11.7065
苦辛	-11.7065
聲音	-11.7066
欲歸	-11.7066
楚之	-11.7069
興國	-11.7069
焉以	-11.7069
應之	-11.7071
之野	-11.7072
聦	-11.7073
血氣	-11.7073
分為	-11.7073
齊梁	-11.7074
視事	-11.7074
牢落	-11.7078
有田	-11.7078
不曾	-11.7078
原野	-11.7079
曾不	-11.708
為子	-11.7084
西風吹	-11.7085
楚山	-11.7086
願君	-11.7088
室家	-11.7089
長在	-11.709
士林	-11.7091
醉眠	-11.7092
於鄉	-11.7092
寵光	-11.7093
之急	-11.7093
京國	-11.7093
假借	-11.7094
巗	-11.7096
南豐	-11.7097
欲往	-11.7097
南去	-11.7097
桂花	-11.7099
欲望	-11.71
諡文	-11.71
之久	-11.7101
懸知	-11.7101
隱隱	-11.7101
於漢	-11.7102
寰	-11.7103
絀	-11.7103
汁	-11.7103
黼黻	-11.7104
安仁	-11.7104
而發	-11.7104
如是而	-11.7105
紫霞	-11.7106
震澤	-11.7106
斐	-11.7106
少留	-11.7107
夜郎	-11.7107
按察使	-11.711
炤	-11.7111
胃	-11.7111
荏苒	-11.7111
魴	-11.7111
恂恂	-11.7111
於禮	-11.7113
樂章	-11.7114
一鄉	-11.7114
諸孤	-11.7115
西路	-11.7115
曲水	-11.7116
可見矣	-11.7116
相待	-11.7116
曰君子	-11.7117
踊	-11.7117
璿	-11.7118
熊羆	-11.7118
豈為	-11.7118
書記	-11.712
之詳	-11.712
芰	-11.712
栁色	-11.712
何爲	-11.7121
慶雲	-11.7122
按察	-11.7124
名位	-11.7124
平仄	-11.7125
逭	-11.7125
法者	-11.7125
其室	-11.7126
野花	-11.7127
無敵	-11.7129
道學	-11.713
都下	-11.7131
家學	-11.7132
閭巷	-11.7132
用意	-11.7133
方士	-11.7134
之子孫	-11.7135
河源	-11.7135
遥遥	-11.7135
光禄大夫	-11.7136
夜聞	-11.7136
苜蓿	-11.7139
配天	-11.7141
任重	-11.7142
貂裘	-11.7142
之母	-11.7142
相為	-11.7143
此間	-11.7145
平蕪	-11.7145
桑柘	-11.7146
酪	-11.7147
鵾	-11.7147
大禹	-11.7148
詩家	-11.7151
元昊	-11.7152
未解	-11.7153
瀧	-11.7154
以降	-11.7156
言於	-11.7158
宣撫	-11.7158
宋之	-11.7159
非禮	-11.7162
奏乞	-11.7163
仕至	-11.7164
丹霞	-11.7164
淮水	-11.7165
永日	-11.7166
甚至	-11.7167
慇懃	-11.7168
郊原	-11.7168
日華	-11.717
于斯	-11.717
征人	-11.717
以從	-11.7171
鄭𤣥	-11.7171
子仁	-11.7171
以文章	-11.7172
使節	-11.7173
其傳	-11.7174
先正	-11.7174
南安	-11.7174
撾	-11.7176
謟	-11.7176
之右	-11.7177
惜之	-11.7177
二十里	-11.7178
雲散	-11.7179
曰王	-11.7182
悸	-11.7183
四十九	-11.7183
進賢	-11.7185
在家	-11.7186
賴有	-11.7186
呼吸	-11.7188
于上	-11.7189
祲	-11.719
峴山	-11.719
畬	-11.719
湔	-11.719
狃	-11.719
頎	-11.719
臨海	-11.719
定知	-11.7191
此句	-11.7191
清霜	-11.7194
舉頭	-11.7195
二親	-11.7195
之詔	-11.7196
酌酒	-11.7198
二百年	-11.7199
利病	-11.7199
歲寒	-11.7201
垠	-11.7204
南嶽	-11.7204
坻	-11.7205
天府	-11.7205
免於	-11.7209
滿堂	-11.7211
車輪	-11.7211
晉侯	-11.7214
尺素	-11.7216
賢不肖	-11.7217
行舟	-11.7218
尚書郎	-11.7221
市朝	-11.7222
為文章	-11.7223
牡	-11.7223
天之所	-11.7225
駞	-11.7226
鷰	-11.7226
倜儻	-11.7226
▁盧	-11.7227
茅山	-11.7227
興化	-11.7228
疑作	-11.7228
不殺	-11.7228
合歡	-11.7229
之富	-11.723
山雨	-11.7232
峒	-11.7234
一端	-11.7234
之義也	-11.7236
諱某	-11.7237
吉水	-11.7238
大書	-11.7238
杜宇	-11.7239
忽有	-11.7239
匍匐	-11.7241
渟	-11.7241
荃	-11.7241
於身	-11.7241
明德	-11.7242
高宗	-11.7243
天真	-11.7244
門巷	-11.7244
以承	-11.7246
何故	-11.7248
水西	-11.7248
恩榮	-11.7248
棼	-11.7248
孟浩然	-11.7249
威靈	-11.7249
廣徳	-11.725
萬姓	-11.7253
此情	-11.7254
琬	-11.7255
載籍	-11.7257
孝亷	-11.7257
羽儀	-11.7258
經云	-11.7259
知非	-11.7259
頌曰	-11.7259
不可無	-11.7259
雲根	-11.726
躋攀	-11.726
七夕	-11.7261
羊腸	-11.7261
無斁	-11.7261
兹山	-11.7262
投老	-11.7262
偪	-11.7262
於周	-11.7263
知州	-11.7263
下民	-11.7264
石梁	-11.7266
從前	-11.7266
平野	-11.7266
亦可謂	-11.7266
子陵	-11.7267
髙歌	-11.7267
入京	-11.7268
若非	-11.7268
恐其	-11.7269
清波	-11.727
禰	-11.727
湜	-11.727
絆	-11.727
褚	-11.727
氣清	-11.727
不務	-11.7271
經略	-11.7273
青城	-11.7274
徙居	-11.7279
深院	-11.7279
在目	-11.7279
西戎	-11.728
弱水	-11.7281
守備	-11.7281
西溪	-11.7281
横塘	-11.7283
縣有	-11.7284
入官	-11.7285
宫人	-11.7286
垓	-11.7287
果能	-11.7288
不省	-11.7288
通州	-11.729
閴	-11.7292
有法	-11.7292
月影	-11.7292
客中	-11.7294
節物	-11.7295
禍亂	-11.7295
四十八	-11.7297
世居	-11.7297
遇之	-11.7298
執筆	-11.7299
孝武	-11.73
青眼	-11.73
有不可	-11.7301
之懿	-11.7302
波浪	-11.7302
樓觀	-11.7302
位而	-11.7303
立於	-11.7304
從兄	-11.7304
功夫	-11.7306
校書郎	-11.7306
近體	-11.7308
漁翁	-11.731
賑濟	-11.7311
山北	-11.7311
出城	-11.7312
所撰	-11.7312
君獨	-11.7312
止之	-11.7312
楣	-11.7314
之賦	-11.7314
何足以	-11.7315
詞林	-11.7315
此夜	-11.7315
莫向	-11.7316
道家	-11.7317
北地	-11.7318
蓋有	-11.732
爲君	-11.7321
謝曰	-11.7322
太液	-11.7322
祧	-11.7322
獅子	-11.7323
及至	-11.7325
建立	-11.7325
褊	-11.7329
陡	-11.7329
記其	-11.733
昆明	-11.7331
舉手	-11.7332
行歌	-11.7333
亭上	-11.7335
分付	-11.7335
此為	-11.7335
里之	-11.7336
鯨鯢	-11.7336
莫愁	-11.7336
嘉樹	-11.7337
三光	-11.7338
人望	-11.7339
試之	-11.734
苓	-11.7343
多才	-11.7345
竒絶	-11.7351
雨霽	-11.7352
神道	-11.7353
横行	-11.7354
夘	-11.7354
醉裏	-11.7354
塍	-11.7357
玦	-11.7358
伏波	-11.7358
歡喜	-11.736
樹下	-11.7361
立而	-11.7362
明哲	-11.7362
啞	-11.7365
髙麗	-11.7366
天末	-11.7366
▁送劉	-11.7366
終焉	-11.7368
中國之	-11.7368
青林	-11.7369
移家	-11.7369
莫知其	-11.7371
切切	-11.7372
字仄聲	-11.7373
如畫	-11.7373
雲錦	-11.7374
天壤	-11.7375
曰予	-11.7375
兖州	-11.7375
宫詞	-11.7379
閒暇	-11.738
遹	-11.738
看雲	-11.7382
不淺	-11.7383
千巖	-11.7384
漚	-11.7385
生于	-11.7385
其精	-11.7385
清絶	-11.7386
盖有	-11.7386
論功	-11.739
以定	-11.739
四書	-11.7392
史記曰	-11.7394
羃	-11.7395
不羣	-11.7396
雲物	-11.7398
善也	-11.7398
細細	-11.74
寒夜	-11.7402
過從	-11.7403
皆自	-11.7404
獻之	-11.7404
武臣	-11.7404
吾儒	-11.7405
知止	-11.7405
田疇	-11.7405
多聞	-11.7407
為師	-11.7408
所施	-11.7408
服闋	-11.741
無不可	-11.7413
盡是	-11.7413
之鄉	-11.7416
不收	-11.7418
贏得	-11.7418
尤難	-11.7418
書畫	-11.7419
上章	-11.7419
遺像	-11.742
吳山	-11.742
髙秋	-11.7421
無邊	-11.7422
沛公	-11.7422
12	-11.7422
惻然	-11.7422
有力	-11.7423
礎	-11.7425
四曰	-11.7425
輪囷	-11.7426
此圖	-11.7426
無厭	-11.7427
東郭	-11.7427
疑之	-11.7428
記室	-11.7428
撩	-11.7428
母子	-11.7431
天衢	-11.7431
計其	-11.7432
齊人	-11.7434
余謂	-11.7434
江寧	-11.7435
香風	-11.7436
潺潺	-11.7437
保定	-11.7437
倒影	-11.7438
為報	-11.7439
為之序	-11.7439
沙漠	-11.744
公至	-11.7441
雖小	-11.7441
龍鱗	-11.7442
生生	-11.7443
路傍	-11.7444
也遂	-11.7444
矯首	-11.7446
庭下	-11.7446
文忠公	-11.7447
大政	-11.7448
宗正	-11.7448
卒年	-11.7448
雜詠	-11.7449
二章	-11.7449
年七月	-11.7449
良工	-11.7449
留得	-11.745
尊師	-11.7453
之所由	-11.7453
散騎常侍	-11.7454
與張	-11.7454
如初	-11.7455
優㳺	-11.7459
於無窮	-11.746
鄒魯	-11.746
氐	-11.7462
山鳥	-11.7462
而言之	-11.7463
頻年	-11.7464
近侍	-11.7464
自致	-11.7465
曹操	-11.7465
俎豆	-11.7466
東去	-11.7466
悠哉	-11.7466
金剛	-11.7469
麄	-11.7469
錢氏	-11.7471
往来	-11.7471
三百篇	-11.7471
主客	-11.7473
無物	-11.7476
松雪	-11.7477
上苑	-11.7478
最髙	-11.7479
不偶	-11.7479
臨御	-11.748
招魂	-11.7482
自處	-11.7483
庀	-11.7484
燈花	-11.7485
御筆	-11.7486
糞	-11.7487
彼其	-11.7488
白羽	-11.7488
境内	-11.7489
水深	-11.749
多言	-11.749
過矣	-11.749
因思	-11.749
犬馬	-11.749
不隨	-11.7492
肺腑	-11.7492
碑文	-11.7492
必求	-11.7493
擊壤	-11.7494
不赴	-11.7495
九鼎	-11.7495
等官	-11.7495
二府	-11.7496
詞云	-11.7496
髙僧	-11.7497
過半	-11.7497
且有	-11.7498
佳麗	-11.75
千齡	-11.7501
勝之	-11.7501
所歸	-11.7502
子姓	-11.7503
諸天	-11.7504
論道	-11.7504
几席	-11.7504
翩然	-11.7505
且喜	-11.7507
之至也	-11.7508
經理	-11.7508
一子	-11.7511
周孔	-11.7512
滋味	-11.7512
下流	-11.7513
春風吹	-11.7513
耳而	-11.7514
洲渚	-11.7514
漢儒	-11.7515
一息	-11.7516
濯足	-11.7517
縣西	-11.7519
溪橋	-11.7519
澄江	-11.752
昔我	-11.752
碧樹	-11.7521
匀	-11.7521
小橋	-11.7522
者尚	-11.7522
名勝	-11.7522
參議	-11.7523
月八日	-11.7524
垂老	-11.7525
吾邑	-11.7525
痛飲	-11.7527
亡矣	-11.7528
瑶草	-11.7528
南朝	-11.7528
戞	-11.7529
媵	-11.7529
古昔	-11.7529
客裏	-11.753
一川	-11.753
江梅	-11.7531
我皇	-11.7531
靈山	-11.7531
多時	-11.7534
一夢	-11.7534
莫作	-11.7535
憐君	-11.7536
嚬	-11.7536
孔門	-11.7537
氣節	-11.7538
窮途	-11.7538
▁聖主	-11.754
民情	-11.7541
涵養	-11.7543
天恩	-11.7548
天明	-11.7548
忠良	-11.7551
庥	-11.7551
罩	-11.7551
御園	-11.7553
者公	-11.7554
素心	-11.7555
紅日	-11.7555
若人	-11.7556
以贈	-11.7558
之間而	-11.7558
二篇	-11.7559
扳	-11.7559
入夜	-11.7559
所不及	-11.756
其遺	-11.756
而不知其	-11.756
金紫	-11.7561
萬死	-11.7562
許國	-11.7564
微臣	-11.7565
摸	-11.7566
描	-11.7566
不好	-11.7567
都是	-11.7567
無咎	-11.7567
我朝	-11.7569
一代之	-11.757
知幾	-11.757
主於	-11.7572
無所用	-11.7573
有八	-11.7574
稾	-11.7574
山亭	-11.7575
鑱	-11.7576
畹	-11.7576
以孝	-11.7577
亦如	-11.7577
秦州	-11.7578
家書	-11.7578
辨之	-11.7579
表章	-11.7579
煙雲	-11.7581
小吏	-11.7581
糊	-11.7582
晳	-11.7582
應知	-11.7583
魏志	-11.7583
罪人	-11.7584
未曽	-11.7584
舊業	-11.7584
晏然	-11.7586
感而	-11.7586
民物	-11.7587
致知	-11.759
有疾	-11.7591
故得	-11.7593
二老	-11.7593
種竹	-11.7593
與俱	-11.7594
乎然	-11.7595
鐺	-11.7597
如飛	-11.7597
分韻得	-11.7597
講論	-11.7598
永叔	-11.7598
之求	-11.7599
不辱	-11.76
取次	-11.76
誠能	-11.76
豈若	-11.7601
柴桑	-11.7601
焉有	-11.7602
老母	-11.7602
高樓	-11.7603
聞風	-11.7604
固不可	-11.7604
青龍	-11.7608
熙寧	-11.7608
祠下	-11.761
宜乎	-11.7611
君親	-11.7611
饕	-11.7612
相宜	-11.7613
造次	-11.7616
曰朕	-11.7616
夢到	-11.7618
爲一	-11.7618
是爲	-11.7619
戛	-11.7619
勝事	-11.762
篤於	-11.762
安道	-11.7621
獨以	-11.7623
御史臺	-11.7623
卜築	-11.7624
能事	-11.7626
水利	-11.7627
㑹有	-11.7627
一區	-11.7627
莞	-11.7627
將至	-11.7628
張良	-11.7629
攻之	-11.7629
都人	-11.763
冠冕	-11.7631
紅樹	-11.7633
大夫士	-11.7635
對客	-11.7635
也已	-11.7635
之陽	-11.7636
當世之	-11.7636
失職	-11.7638
楚江	-11.7639
武庫	-11.7641
咀	-11.7642
遂與	-11.7642
自當	-11.7643
徳行	-11.7643
常熟	-11.7643
府事	-11.7644
有識	-11.7644
與衆	-11.7644
臣請	-11.7645
殘陽	-11.7645
不能為	-11.7645
昔賢	-11.7646
五品	-11.7646
大聖	-11.7646
文雅	-11.7648
以法	-11.7648
不致	-11.7648
帝城	-11.7649
爨	-11.765
碾	-11.765
伏念	-11.765
此際	-11.765
買田	-11.7652
禮記曰	-11.7653
窶	-11.7653
藹然	-11.7654
而求之	-11.7655
而加	-11.7657
靡靡	-11.7657
癸卯	-11.7657
道上	-11.7658
枯木	-11.7659
▁午	-11.7659
一國	-11.766
袁州	-11.766
初心	-11.766
諫議	-11.766
如一	-11.7662
江干	-11.7663
吾宗	-11.7663
而廢	-11.7664
不振	-11.7664
日星	-11.7664
華堂	-11.7665
瞳	-11.7666
湯湯	-11.7666
與道	-11.7666
兩家	-11.7667
剛柔	-11.7667
樓頭	-11.7667
帝紀	-11.7669
改作	-11.7669
九衢	-11.767
聽其	-11.767
後昆	-11.7671
無二	-11.7672
長亭	-11.7674
不拘	-11.7674
傷春	-11.7674
八音	-11.7675
感時	-11.7677
嵗華	-11.7678
萬壽	-11.7679
河橋	-11.7682
得免	-11.7682
如此其	-11.7682
某某	-11.7684
靈運	-11.7684
西歸	-11.7685
一死	-11.7687
灤	-11.7688
彀	-11.7688
亦能	-11.7688
送春	-11.7688
樂道	-11.7689
欽承	-11.769
獨醒	-11.7691
鏡湖	-11.7692
為害	-11.7693
處也	-11.7694
剩	-11.7695
伏見	-11.7696
竹帛	-11.7698
一律	-11.7698
子胥	-11.7699
詩名	-11.77
印綬	-11.7701
張華	-11.7704
獄訟	-11.7705
露濕	-11.7706
池水	-11.7707
鄭曰	-11.7709
曰善	-11.7709
逺邇	-11.7709
祓	-11.771
?	-11.771
天下有	-11.7712
四十五	-11.7713
連年	-11.7714
同郡	-11.7715
况乃	-11.7716
以爾	-11.7717
癘	-11.7717
雖復	-11.772
天聖	-11.772
流鶯	-11.7721
歌吹	-11.7721
是書	-11.7724
雙鬢	-11.7725
▁2	-11.7725
跛	-11.7726
已是	-11.7727
漢興	-11.7729
乆不	-11.7729
因風	-11.7729
動而	-11.773
僖公	-11.7731
舊聞	-11.7732
月十一日	-11.7733
在其中	-11.7733
涴	-11.7733
樹色	-11.7734
恭惟皇帝陛下	-11.7734
名賢	-11.7735
二州	-11.7737
不害	-11.7738
世系	-11.7739
古城	-11.7741
公始	-11.7741
煙霧	-11.7741
佀	-11.7741
一統	-11.7742
春陽	-11.7742
感舊	-11.7743
及見	-11.7743
復生	-11.7744
料理	-11.7745
皆由	-11.7745
數十萬	-11.7746
然矣	-11.7749
擿	-11.7749
無怨	-11.7749
一畨	-11.7749
口宣	-11.775
俯視	-11.775
莫可	-11.7751
便可	-11.7751
幅巾	-11.7752
晴空	-11.7753
侍郞	-11.7754
明君	-11.7754
疎雨	-11.7756
金蓮	-11.7757
得賢	-11.7758
無期	-11.7761
雲影	-11.7761
鯉魚	-11.7763
勝地	-11.7764
鑚	-11.7764
隆興	-11.7764
元夕	-11.7765
虎頭	-11.7765
東萊	-11.7767
不亂	-11.7768
英英	-11.7769
義方	-11.777
興來	-11.777
先生以	-11.777
雙燕	-11.7771
萬福	-11.7771
樣	-11.7772
寒光	-11.7772
聖門	-11.7773
也按	-11.7773
事已	-11.7775
髫	-11.7776
評事	-11.7778
志也	-11.7779
釜	-11.7779
只應	-11.7781
園亭	-11.7782
徳宗	-11.7784
二巻	-11.7785
母夫人	-11.7786
動靜	-11.7786
相通	-11.7786
崗	-11.7787
慱	-11.7787
煙水	-11.7789
終不能	-11.7789
同行	-11.779
與否	-11.779
則不可	-11.7791
望其	-11.7793
不至於	-11.7794
貿	-11.7795
官屬	-11.7795
畒	-11.7795
飛騰	-11.7796
不眠	-11.7796
之孝	-11.7798
野色	-11.7799
安撫使	-11.78
簡易	-11.7801
京邑	-11.7801
乙巳	-11.7802
㓛	-11.7802
落木	-11.7803
也歟	-11.7803
蔓草	-11.7803
何堪	-11.7804
吾與	-11.7804
之卒	-11.7804
佛法	-11.7804
廣漢	-11.7807
長春	-11.7808
自愧	-11.781
前身	-11.781
無取	-11.7811
又明年	-11.7811
六尺	-11.7811
落魄	-11.7812
時作	-11.7813
即有	-11.7814
清時	-11.7815
欲與	-11.7815
中軍	-11.7816
不停	-11.7816
薊門	-11.7816
揖讓	-11.7816
解衣	-11.7816
為天子	-11.7817
鎮撫	-11.7818
壖	-11.7818
兊	-11.7818
宵旰	-11.7819
不專	-11.7819
室中	-11.782
金波	-11.782
命公	-11.7821
西門	-11.7822
儁	-11.7826
塞外	-11.7829
陸氏	-11.7829
原上	-11.7831
有時而	-11.7831
高堂	-11.7833
年冬	-11.7834
大化	-11.7835
建業	-11.7836
為御史	-11.7838
居中	-11.784
猝	-11.784
▁御定全唐詩	-11.7841
隤	-11.7841
髠	-11.7841
018	-11.7841
當道	-11.7842
如見	-11.7842
誠齋	-11.7844
望風	-11.7845
龍眠	-11.7845
吳郡	-11.7845
十五日	-11.7847
䙝	-11.7849
痊	-11.7849
次子	-11.7849
▁秋風	-11.785
五臣本	-11.785
長林	-11.7853
何從	-11.7853
之績	-11.7853
刁	-11.7855
曽無	-11.7856
大德	-11.7856
驚人	-11.7856
妒	-11.7856
辭以	-11.7857
一雨	-11.7857
肌膚	-11.7858
有素	-11.7862
遣興	-11.7862
飼	-11.7864
変	-11.7864
翠袖	-11.7864
之崇	-11.7864
氏墓誌銘	-11.7865
實錄	-11.7867
盛矣	-11.7867
凡此	-11.7868
煌	-11.7869
有七	-11.787
幟	-11.7871
也耶	-11.7871
瀹	-11.7872
萬樹	-11.7872
誰不	-11.7876
億萬	-11.7878
不輟	-11.7879
鶯聲	-11.7879
不殊	-11.7879
平章事	-11.788
言歸	-11.788
有靈	-11.7881
君君	-11.7882
姓氏	-11.7883
地僻	-11.7884
不懈	-11.7887
未明	-11.789
億兆	-11.789
仰止	-11.7891
之慮	-11.7894
金闕	-11.7894
腮	-11.7895
未之有	-11.7896
便覺	-11.7896
過也	-11.7897
主管	-11.7897
何如哉	-11.79
尚多	-11.79
瓊瑶	-11.7903
本非	-11.7903
聖意	-11.7903
南華	-11.7904
泣下	-11.7905
危坐	-11.7905
攬轡	-11.7905
至孝	-11.7906
賦云	-11.7907
見過	-11.7909
書堂	-11.7909
念之	-11.791
.	-11.7911
淙	-11.7911
伏望聖慈	-11.7911
齋記	-11.7913
詩篇	-11.7914
環堵	-11.7914
得其人	-11.7915
秋深	-11.7917
哉雖然	-11.7917
如昨	-11.7921
勤王	-11.7921
為最	-11.7922
致君	-11.7923
不期	-11.7923
皥	-11.7926
夢斷	-11.7928
公詩	-11.7929
南陌	-11.7929
今春	-11.7931
▁八月	-11.7931
之口	-11.7933
莫怪	-11.7933
去留	-11.7933
倚杖	-11.7934
以授	-11.7935
兩儀	-11.7935
平定	-11.7936
行吟	-11.7937
闕里	-11.7938
澤國	-11.7941
焉知	-11.7941
晴日	-11.7942
狷	-11.7942
何得	-11.7942
尚書令	-11.7943
深谷	-11.7943
李白詩	-11.7944
器械	-11.7944
陵谷	-11.7945
者在	-11.7945
况是	-11.7947
二世	-11.7948
待月	-11.7948
雙溪	-11.7948
鬪	-11.795
一飽	-11.795
癸巳	-11.7951
蟠桃	-11.7953
出郭	-11.7956
前去	-11.7956
跌	-11.7958
賙	-11.7958
易為	-11.7959
之休	-11.7959
孝廉	-11.7961
終老	-11.7961
過我	-11.7961
可期	-11.7961
壯心	-11.7962
嵬	-11.7963
三十餘	-11.7965
知其為	-11.7965
▁東風	-11.7966
有數	-11.7966
安足	-11.7967
友生	-11.7971
信也	-11.7972
孰若	-11.7972
必無	-11.7973
藿	-11.7973
吾輩	-11.7973
出没	-11.7974
斯須	-11.7977
哉予	-11.7977
嬰兒	-11.7979
獨無	-11.798
蒨	-11.7981
㓙	-11.7981
蛤	-11.7981
裊裊	-11.7981
者既	-11.7981
▁雨後	-11.7982
▁㫖	-11.7982
繚繞	-11.7983
都察院	-11.7985
築城	-11.7985
▁皇祖	-11.7986
之誤	-11.7986
一致	-11.7988
醫藥	-11.7989
鼓角	-11.7989
郊廟	-11.7989
中書舎人	-11.799
之跡	-11.7991
為爾	-11.7994
山青	-11.7995
𧺫	-11.7997
上京	-11.7997
所樂	-11.7997
機杼	-11.7998
曰彼	-11.7998
自唐	-11.7999
夾道	-11.8
較之	-11.8
山之原	-11.8
天成	-11.8001
固然	-11.8003
烈士	-11.8004
牀頭	-11.8004
固難	-11.8004
累年	-11.8006
庶吉士	-11.8006
零陵	-11.8006
己丑	-11.8007
者可以	-11.8008
縣南	-11.8008
張籍	-11.8009
殘年	-11.8009
易水	-11.801
也知	-11.801
見君	-11.8011
盾	-11.8012
闖	-11.8013
喚起	-11.8013
不誣	-11.8013
生前	-11.8015
老臣	-11.8017
寵榮	-11.8017
儒冠	-11.8017
州軍	-11.8018
野寺	-11.8018
山花	-11.802
無賴	-11.8021
病中	-11.8022
儋	-11.8023
沐浴	-11.8023
金閨	-11.8025
若斯	-11.8025
異姓	-11.8026
潤州	-11.8027
珎	-11.8028
月初	-11.8028
目送	-11.8028
鄂州	-11.803
無慮	-11.8032
玉階	-11.8034
猿啼	-11.8034
北歸	-11.8036
宰執	-11.8036
夀考	-11.8036
娑	-11.8036
此盖	-11.8036
人耳	-11.8038
吳楚	-11.8038
玉簫	-11.8041
駕言	-11.8042
正學	-11.8043
為重	-11.8043
澗水	-11.8043
觀風	-11.8045
少長	-11.8046
三十餘年	-11.8048
康樂	-11.8049
我則	-11.8049
前軰	-11.805
之弟	-11.8051
屏山	-11.8055
仕進	-11.8055
政令	-11.8056
不回	-11.8057
壚	-11.8057
K	-11.806
C	-11.806
S	-11.806
苴	-11.8062
嗟予	-11.8063
清泠	-11.8063
婺源	-11.8064
雨暘	-11.8064
清隂	-11.8065
一女	-11.8065
神光	-11.8065
三百里	-11.8066
當自	-11.8066
相訪	-11.8066
為正	-11.8067
u	-11.8067
k	-11.8068
n	-11.8068
p	-11.8068
出家	-11.8068
g	-11.8068
L	-11.8068
O	-11.8068
U	-11.8068
s	-11.8068
彝	-11.8068
剿	-11.8068
薙	-11.8068
訕	-11.8068
A	-11.8068
D	-11.8068
I	-11.8068
花紅	-11.8068
金沙	-11.8068
列國	-11.8068
今在	-11.8069
曲盡	-11.8069
弗克	-11.8072
吾嘗	-11.8074
褁	-11.8076
殺氣	-11.8076
若以	-11.8076
恢復	-11.8077
一統志	-11.8078
辟雍	-11.8079
一絶	-11.808
萬重	-11.8081
欹枕	-11.8081
碩人	-11.8082
王元	-11.8082
公名	-11.8082
乎抑	-11.8083
眾	-11.8084
岳陽	-11.8084
門戸	-11.8084
混沌	-11.8085
馬首	-11.8087
宫觀	-11.8088
學行	-11.8092
無勞	-11.8093
頌聲	-11.8095
始末	-11.8095
髙枕	-11.8095
柱國	-11.8095
其衆	-11.8096
垂釣	-11.8097
繼以	-11.8097
立志	-11.8098
▁湖上	-11.8098
之心而	-11.8099
称	-11.8099
瓦礫	-11.81
江亭	-11.8101
樹立	-11.8102
朱文公	-11.8102
北辰	-11.8102
憑誰	-11.8103
蜀之	-11.8103
六十年	-11.8104
開闢	-11.8104
治其	-11.8105
去住	-11.8105
一幅	-11.8105
虞舜	-11.8105
土人	-11.8107
沆瀣	-11.8107
畛	-11.8107
心力	-11.8109
開封府	-11.811
靈巖	-11.811
神器	-11.811
淮安	-11.811
離愁	-11.811
士氣	-11.8111
安有	-11.8113
郭氏	-11.8114
榕	-11.8115
彗	-11.8115
▁勅具官某	-11.8116
寒風	-11.8116
繇是	-11.8118
不見其	-11.8119
賦一首	-11.812
豈但	-11.812
學正	-11.8122
結交	-11.8123
百司	-11.8124
以徳	-11.8124
都邑	-11.8125
累世	-11.8126
請君	-11.8126
甚盛	-11.8127
王氣	-11.8128
道術	-11.8129
異哉	-11.8129
纎纎	-11.813
與吾	-11.813
㕓	-11.813
龍潭	-11.8131
奉公	-11.8131
瀦	-11.8131
薌	-11.8131
一貫	-11.8134
其視	-11.8135
碧草	-11.8136
軍國	-11.8137
則當	-11.8137
無辜	-11.8138
化成	-11.8139
沆	-11.8139
直欲	-11.8139
考諱	-11.8142
終當	-11.8142
簫鼓	-11.8142
眼底	-11.8143
三十三	-11.8143
君行	-11.8144
▁東坡	-11.8145
集巻四	-11.8147
天所	-11.8147
賢聖	-11.8147
奉祠	-11.8148
桐廬	-11.815
月二十日	-11.8151
之章	-11.8151
棄捐	-11.8154
當在	-11.8155
居處	-11.8156
四海之	-11.8157
雲龍	-11.8157
之嚴	-11.8157
惟一	-11.8157
今我	-11.8158
交趾	-11.8161
獻公	-11.8161
抑揚	-11.8163
狀元	-11.8163
閒情	-11.8164
薫風	-11.8164
耳目之	-11.8165
殊方	-11.8165
塗炭	-11.8166
大旱	-11.8166
之明年	-11.8167
仁也	-11.8167
此調	-11.8168
▁姚	-11.8168
竊見	-11.8168
余之	-11.8168
前村	-11.8169
而外	-11.8169
竹葉	-11.8169
遂得	-11.8171
賾	-11.8171
感歎	-11.8171
綱目	-11.8172
古今之	-11.8173
簾櫳	-11.8175
山家	-11.8176
嗣子	-11.8176
藥石	-11.8177
書史	-11.8178
㮣	-11.8179
窪	-11.8179
蓊	-11.8179
堂中	-11.8179
贊曰	-11.8179
負薪	-11.818
哲人	-11.8181
路轉	-11.8183
公自注	-11.8184
無生	-11.8186
未若	-11.8187
嚴陵	-11.8188
清露	-11.819
新除	-11.8191
山陰	-11.8194
上表	-11.8194
贈太師	-11.8194
暝色	-11.8194
竆	-11.8195
薰風	-11.8196
孝文	-11.8196
竹杖	-11.8198
第八	-11.8199
尙書	-11.82
類此	-11.82
櫪	-11.8201
矣臣	-11.8201
五尺	-11.8202
之虞	-11.8202
縣學	-11.8203
商周	-11.8204
千五百	-11.8204
灼灼	-11.8204
蕩漾	-11.8204
其尤	-11.8206
西去	-11.8206
實在	-11.8207
未乾	-11.8207
以實	-11.8207
乃與	-11.8207
平聲	-11.8208
一丘	-11.8208
相迎	-11.8208
象山	-11.8209
央	-11.821
之勇	-11.8211
華夷	-11.8211
椘	-11.8211
尓	-11.8211
祈雨	-11.8211
所陳	-11.8211
退食	-11.8212
磊	-11.8213
之悲	-11.8213
蜀中	-11.8214
二詩	-11.8214
身外	-11.8217
禹穴	-11.8218
此本	-11.8218
曰惟	-11.8219
朝露	-11.8219
稍長	-11.822
無垠	-11.822
山之陽	-11.822
可取	-11.8221
累官	-11.8221
水部	-11.8222
情性	-11.8223
無留	-11.8224
所以爲	-11.8225
逢春	-11.8225
府庫	-11.8226
遂有	-11.8226
▁皇帝陛下	-11.8227
樹影	-11.8227
同里	-11.8229
君侯	-11.8229
其治	-11.8231
見公	-11.8234
京畿	-11.8234
煇	-11.8235
玉露	-11.8236
錦囊	-11.8238
宣力	-11.8239
皆無	-11.8242
風騷	-11.8242
跼	-11.8243
其黨	-11.8244
之比	-11.8245
命駕	-11.8245
承乏	-11.8245
名流	-11.8245
題云	-11.8245
鄰里	-11.8246
里巷	-11.8246
此章	-11.8246
者甚衆	-11.8247
休命	-11.8248
保其	-11.8249
後嗣	-11.8249
物以	-11.8249
曖	-11.8251
從者	-11.8251
龍池	-11.8254
耳然	-11.8254
洛下	-11.8255
婺州	-11.8257
食肉	-11.8257
臨清	-11.8257
器用	-11.8258
百物	-11.8259
仿	-11.8259
櫬	-11.8259
離情	-11.826
年六月	-11.826
江隂	-11.826
家在	-11.8263
金莖	-11.8264
異物	-11.8265
麈	-11.8266
重光	-11.8266
晴雲	-11.8266
以理	-11.8267
謂我	-11.8267
㨿	-11.8267
瑯琊	-11.8267
功利	-11.827
召為	-11.8271
千林	-11.8271
信宿	-11.8271
公卒	-11.8272
伯氏	-11.8273
山石	-11.8273
時政	-11.8273
先生文集	-11.8274
師儒	-11.8274
言動	-11.8275
咄	-11.8275
嗅	-11.8275
今天子	-11.8276
贛	-11.8277
玉盤	-11.8278
姑息	-11.8278
歸老	-11.8279
感物	-11.8279
翠屏	-11.828
郡齋	-11.8281
方來	-11.8282
棄官	-11.8282
舅氏	-11.8282
而不見	-11.8283
洗心	-11.8283
埭	-11.8284
今見	-11.8284
應無	-11.8284
弇	-11.8284
卓犖	-11.8285
登臺	-11.8287
鏞	-11.8291
影落	-11.8291
皤	-11.8291
珣	-11.8292
為王	-11.8293
聨句	-11.8293
濁醪	-11.8294
低頭	-11.8295
代宗	-11.8295
寒江	-11.8297
一紙	-11.8297
遭時	-11.8298
子規	-11.8298
蜕	-11.83
楊君	-11.83
孤燈	-11.8301
五嶺	-11.8302
臨岐	-11.8303
有所思	-11.8304
同僚	-11.8304
凡百	-11.8304
飲水	-11.8305
嗣位	-11.8305
海宇	-11.8306
得其所	-11.8307
致逺	-11.8307
挟	-11.8308
闚	-11.8308
春盡	-11.831
見説	-11.8311
景文	-11.8312
上頭	-11.8312
外戚	-11.8313
日暖	-11.8314
洛中	-11.8314
聲聲	-11.8317
壺中	-11.832
捐軀	-11.832
便有	-11.832
稱觴	-11.832
一歲	-11.832
北來	-11.8321
坰	-11.8323
▁百年	-11.8323
3	-11.8324
誠可	-11.8324
三台	-11.8325
㑹試	-11.8325
一枕	-11.8327
兒子	-11.8328
濆	-11.8329
一無	-11.833
瀟瀟	-11.833
賭	-11.8332
猫	-11.8332
飽食	-11.8332
又欲	-11.8333
英靈	-11.8334
茅簷	-11.8334
服食	-11.8335
之符	-11.8335
絶人	-11.8336
眼明	-11.8337
勤儉	-11.8338
贈君	-11.8339
十有七	-11.8339
瘡痍	-11.834
顧問	-11.8342
砥柱	-11.8343
周易曰	-11.8343
前古	-11.8345
九歌	-11.8345
北平	-11.8346
所行	-11.8346
艦	-11.8346
論交	-11.8347
能令	-11.8347
陳子	-11.8348
浮萍	-11.8348
其處	-11.8348
名在	-11.8348
文成	-11.8348
昵	-11.8348
樁	-11.8348
年光	-11.8351
行至	-11.8353
南還	-11.8354
辝	-11.8357
加焉	-11.8358
其前	-11.8358
三老	-11.8359
風飄	-11.8359
發而	-11.8359
昔有	-11.8361
人之心	-11.8362
某年月日	-11.8362
吕公	-11.8363
水面	-11.8364
不具	-11.8365
蒔	-11.8365
靦	-11.8365
絶域	-11.8365
多年	-11.8366
天水	-11.8366
矣然則	-11.8366
比屋	-11.8367
請曰	-11.8368
呻吟	-11.8369
居家	-11.837
之堂	-11.8371
何啻	-11.8371
生徒	-11.8371
不虚	-11.8371
醉翁	-11.8372
歧	-11.8373
亦得	-11.8374
時已	-11.8374
黍稷	-11.8374
孔安國	-11.8377
潦倒	-11.8377
淳祐	-11.8378
仄韻	-11.8378
則不能	-11.838
忠烈	-11.838
一品	-11.8381
開府儀同三司	-11.8381
舜之	-11.8383
緑野	-11.8383
南唐	-11.8383
户牖	-11.8385
亦甚	-11.8385
而況	-11.8385
詔曰	-11.8386
藩籬	-11.8386
列宿	-11.8387
知巳	-11.8388
計者	-11.8388
天降	-11.8388
天禄	-11.8389
路入	-11.8391
好在	-11.8392
所寄	-11.8392
社稷之	-11.8393
大年	-11.8394
以防	-11.8394
景仁	-11.8394
落梅	-11.8395
郡中	-11.8395
絶無	-11.8396
士有	-11.8396
三生	-11.8397
隍	-11.8397
噉	-11.8397
桑田	-11.8397
誠以	-11.8397
洞中	-11.8397
碧天	-11.8398
横斜	-11.8399
承命	-11.84
平津	-11.84
之策	-11.84
庾信詩	-11.8401
用前韻	-11.8405
無媿	-11.8405
示人	-11.8405
致祭	-11.8407
逢君	-11.8408
神聖	-11.8409
不教	-11.841
憶昨	-11.8411
浮名	-11.8412
金鑾	-11.8412
詳見	-11.8414
東川	-11.8414
月十三日	-11.8416
紫陌	-11.8416
内侍	-11.8417
問君	-11.8417
通家	-11.8419
賢否	-11.8419
誠心	-11.842
大典	-11.8421
謝靈運詩	-11.8421
而動	-11.8422
菅	-11.8422
倡和	-11.8424
消長	-11.8424
吾意	-11.8424
般若	-11.8424
閒人	-11.8425
大槩	-11.8426
成湯	-11.8428
學於	-11.8428
掩映	-11.8429
聞命	-11.843
溍	-11.843
鍵	-11.843
葡萄	-11.843
逥	-11.843
四山	-11.843
服膺	-11.843
恐非	-11.843
新春	-11.8431
忠誠	-11.8431
翰苑	-11.8432
尺牘	-11.8432
辛卯	-11.8432
讀者	-11.8432
公又	-11.8432
橋邊	-11.8432
不擇	-11.8433
字文	-11.8434
盡忠	-11.8434
大字	-11.8435
使持節	-11.8436
乘興	-11.8438
欎	-11.8438
旛	-11.8438
兩兩	-11.844
夢回	-11.844
講求	-11.8442
終于	-11.8443
未忍	-11.8443
同前	-11.8444
行且	-11.8445
㶚	-11.8446
摺	-11.8447
衰翁	-11.8447
野草	-11.8447
城池	-11.8448
其不可	-11.8449
創業	-11.8452
列侯	-11.8454
梁元帝	-11.8454
一命	-11.8454
一壺	-11.8454
貴乎	-11.8456
以稱	-11.8457
朝霞	-11.8458
向東	-11.8459
于中	-11.846
雲樹	-11.846
之愛	-11.846
其孫	-11.8461
佯	-11.8461
今欲	-11.8462
荒城	-11.8462
唳	-11.8462
將行	-11.8462
公輔	-11.8463
者也夫	-11.8463
不滅	-11.8463
中行	-11.8465
無風	-11.8465
姑射	-11.8466
以和	-11.8466
剡溪	-11.8467
滿林	-11.8468
㡬度	-11.8469
我何	-11.847
㩦	-11.8471
鉦	-11.8471
各異	-11.8472
幽尋	-11.8472
物物	-11.8473
丁卯	-11.8475
亂後	-11.8475
字韻	-11.8475
復作	-11.8476
所感	-11.8477
齋先生	-11.8478
纉	-11.8479
熄	-11.8479
軿	-11.8479
汛	-11.8479
言之則	-11.848
年五月	-11.848
行下	-11.8481
化工	-11.8482
百事	-11.8483
特授	-11.8483
固其	-11.8484
檠	-11.8485
推而	-11.8485
通籍	-11.8485
而先	-11.8486
指顧	-11.8486
沙鷗	-11.8488
逸民	-11.8488
鳳翔	-11.8489
風送	-11.8489
崇文	-11.8489
勢利	-11.8489
以永	-11.8493
逢時	-11.8493
倚天	-11.8493
之裔	-11.8495
謳歌	-11.8495
以貽	-11.8495
與兄	-11.8497
皇家	-11.8497
将以	-11.8497
▁昨	-11.8497
數尺	-11.8498
萬計	-11.8499
仁厚	-11.8501
先卒	-11.8502
無忝	-11.8502
禳	-11.8504
仙掌	-11.8507
卿雲	-11.8508
之封	-11.8509
是之謂	-11.8509
輔臣	-11.8509
十有三	-11.8509
袵	-11.851
十有九	-11.851
無雙	-11.8511
輻	-11.8512
朝散大夫	-11.8512
奕世	-11.8513
何勞	-11.8513
廣雅曰	-11.8513
忠恕	-11.8513
本根	-11.8514
山頂	-11.8515
成書	-11.8516
一條	-11.8516
文義	-11.8518
田廬	-11.8518
奐	-11.8519
更深	-11.852
d	-11.8521
復出	-11.8521
委蛇	-11.8521
正德	-11.8522
宜興	-11.8523
靈芝	-11.8524
早晩	-11.8524
沛然	-11.8527
月十八日	-11.8528
臣敢不	-11.8528
伏念某	-11.8528
顦顇	-11.8529
靈光	-11.8529
簿領	-11.8529
詩情	-11.853
萬幾	-11.8534
明滅	-11.8534
湖邊	-11.8535
至和	-11.8535
死則	-11.8536
乃爾	-11.8537
嶮	-11.8537
纈	-11.8537
顗	-11.8537
二聖	-11.8537
佛老	-11.8537
去官	-11.8537
祀事	-11.8539
洞口	-11.854
相因	-11.854
詔下	-11.854
蘭臺	-11.854
昔聞	-11.854
應時	-11.8541
所述	-11.8542
景福	-11.8543
武子	-11.8543
峨	-11.8545
此處	-11.8545
瑄	-11.8546
雇	-11.8546
代謝	-11.8547
永興	-11.8548
宫商	-11.8549
世説	-11.8549
招隠	-11.8551
曉風	-11.8551
之倫	-11.8552
深藏	-11.8552
以保	-11.8553
沚	-11.8554
𬞞	-11.8554
大理評事	-11.8554
顧瞻	-11.8555
景陽	-11.8557
御溝	-11.8557
而與之	-11.8557
當國	-11.8558
㑹昌	-11.8558
而後已	-11.8558
分符	-11.856
復起	-11.8561
路人	-11.8562
令狐	-11.8562
釣磯	-11.8562
安所	-11.8562
勣	-11.8562
榮枯	-11.8563
灞	-11.8564
巖壑	-11.8564
一燈	-11.8566
一例	-11.8567
有德	-11.8567
子敬	-11.8567
焉可	-11.8567
終年	-11.8569
只合	-11.857
明王	-11.857
沍	-11.857
瓉	-11.857
先人之	-11.8571
禁林	-11.8571
吳氏	-11.8572
羅綺	-11.8573
精舎	-11.8573
之妻	-11.8575
屣	-11.8576
無别	-11.8577
指㸃	-11.8578
忒	-11.8579
蒼山	-11.858
莆田	-11.858
必須	-11.8581
與語	-11.8581
戲作	-11.8583
小字	-11.8583
僕夫	-11.8584
事見	-11.8585
言路	-11.8585
轉運司	-11.8587
三十七	-11.8587
𬗋	-11.8587
昴	-11.8587
習俗	-11.8589
聖俞	-11.8589
金釵	-11.8589
餘力	-11.859
公羊	-11.8591
天祥	-11.8593
關河	-11.8593
未獲	-11.8594
元稹	-11.8596
年豐	-11.8596
雜興	-11.8596
奉常	-11.8596
仲淹	-11.8596
多謝	-11.8597
恐未	-11.8597
薄命	-11.8599
必使	-11.86
淮南子曰	-11.8601
兵備	-11.8601
臣雖	-11.8602
莊公	-11.8603
景帝	-11.8604
野客	-11.8606
過江	-11.8607
易以	-11.8607
淮東	-11.8607
與人交	-11.8611
震驚	-11.8612
𫀆	-11.8612
才能	-11.8613
外有	-11.8614
三才	-11.8614
哉是	-11.8615
三湘	-11.8616
為賢	-11.8616
洪州	-11.8617
辨其	-11.8618
畫一	-11.8618
鷄鳴	-11.8619
曰非	-11.8619
採藥	-11.862
漓	-11.862
刄	-11.862
抜	-11.862
犇	-11.862
青霄	-11.862
苧	-11.8621
平反	-11.8622
職業	-11.8622
氣候	-11.8622
與劉	-11.8623
何地	-11.8623
廣寒	-11.8624
王業	-11.8624
采蓮	-11.8624
者誠	-11.8625
亦不敢	-11.8626
隠者	-11.8626
曬	-11.8629
恩深	-11.8629
周書	-11.8629
禮經	-11.863
知之矣	-11.863
民瘼	-11.863
六十四	-11.863
道塲	-11.8631
律吕	-11.8632
照人	-11.8632
南行	-11.8633
恍然	-11.8633
就中	-11.8635
不競	-11.8636
刑部尚書	-11.8636
白楊	-11.8637
天籟	-11.8637
輕寒	-11.8637
何暇	-11.8637
嶄	-11.8637
錡	-11.8637
深宫	-11.8639
在西	-11.864
商量	-11.864
竟無	-11.8641
官守	-11.8641
焉然	-11.8641
虚無	-11.8641
腐儒	-11.8642
器也	-11.8643
不中	-11.8644
仍舊	-11.8645
㸃㸃	-11.8645
貟外	-11.8645
珩	-11.8646
别去	-11.8646
酒熟	-11.8646
徒自	-11.8647
而好	-11.8649
▁馮	-11.865
之苦	-11.8652
雪夜	-11.8653
夜色	-11.8653
臨軒	-11.8653
側身	-11.8654
稹	-11.8654
崕	-11.8654
瓘	-11.8654
風沙	-11.8655
艤	-11.8655
無礙	-11.8655
遭遇	-11.8656
景泰	-11.8658
瞻仰	-11.8658
轅門	-11.8663
烏啼	-11.8664
如流	-11.8667
春暉	-11.8667
大澤	-11.8669
斜暉	-11.8669
萬仞	-11.8669
不遂	-11.8669
臠	-11.8671
精力	-11.8671
公生	-11.8671
衆所	-11.8674
實難	-11.8675
東下	-11.8675
何知	-11.8677
通典	-11.8677
山川之	-11.8677
鯁	-11.8677
適意	-11.8678
芮	-11.8679
▁七言絶句	-11.8679
伽	-11.8681
稻粱	-11.8681
琪	-11.8681
向誰	-11.8682
短歌	-11.8684
吾弟	-11.8684
程朱	-11.8685
道院	-11.8685
玉立	-11.8687
橘柚	-11.8688
自奮	-11.8688
不得巳	-11.8688
典籍	-11.8688
魏王	-11.8688
失於	-11.8689
虎狼	-11.8689
師魯	-11.8689
直到	-11.8691
喜而	-11.8691
夙昔	-11.8692
臣恐	-11.8692
不亡	-11.8692
一則	-11.8693
而善	-11.8693
空濛	-11.8694
瀟洒	-11.8695
下風	-11.8697
三十八	-11.8697
▁吕	-11.8698
始覺	-11.8698
丘山	-11.8698
子文	-11.8704
奭	-11.8704
倬	-11.8704
洛水	-11.8705
拄杖	-11.8706
之廣	-11.8706
涕泗	-11.8709
子女	-11.8709
宿雨	-11.871
身輕	-11.8712
靨	-11.8713
南遷	-11.8713
鉗	-11.8713
南有	-11.8714
故謂之	-11.8715
五載	-11.8715
遐邇	-11.8715
復命	-11.8716
泣血	-11.8716
韶光	-11.8717
自樂	-11.8718
義則	-11.8718
▁右臣	-11.872
無求	-11.872
顙	-11.872
無論	-11.872
徽宗	-11.8721
祫	-11.8721
其狀	-11.8722
二萬	-11.8722
溪邊	-11.8722
某月日	-11.8723
軍節度	-11.8724
披衣	-11.8724
司命	-11.8725
蘇秦	-11.8726
無一人	-11.8727
魏國	-11.8728
號稱	-11.8729
魑魅	-11.873
巖巖	-11.873
北史	-11.873
肺肝	-11.873
殘花	-11.8731
風髙	-11.8731
人少	-11.8734
難知	-11.8735
爼豆	-11.8735
聞公	-11.8735
松菊	-11.8735
名姓	-11.8736
晚風	-11.8737
盖其	-11.8737
盱	-11.8737
萬馬	-11.8737
孫士毅	-11.8738
枵	-11.8738
冕旒	-11.8739
何如也	-11.8739
三歎	-11.874
殘紅	-11.874
書懐	-11.8741
君命	-11.8742
邊事	-11.8742
相將	-11.8742
退居	-11.8743
吳人	-11.8744
政教	-11.8745
三十四	-11.8746
村落	-11.8746
璚	-11.8747
䝉古	-11.8747
悽愴	-11.8747
余聞	-11.8747
婚姻	-11.8748
每嵗	-11.8749
秦皇	-11.8749
雙調	-11.875
於秦	-11.875
臺下	-11.875
内府	-11.8752
枋	-11.8755
訓詁	-11.8757
水竹	-11.8757
豈意	-11.8758
▁夜雨	-11.8762
六代	-11.8762
坐視	-11.8763
悛	-11.8764
楯	-11.8764
之曲	-11.8764
以彰	-11.8764
盖以	-11.8764
殺其	-11.8764
半山	-11.8764
居多	-11.8766
遺我	-11.8766
窮年	-11.8766
端明	-11.8766
授受	-11.8766
拂拭	-11.8767
未死	-11.8768
行乎	-11.877
簡而	-11.877
涕淚	-11.877
莫辭	-11.877
嶺外	-11.8771
自陳	-11.8771
之亡	-11.8771
知言	-11.8772
守禦	-11.8772
薜荔	-11.8773
還有	-11.8773
享年六十	-11.8773
性命之	-11.8773
者往往	-11.8774
比肩	-11.8774
相同	-11.8778
之足	-11.878
以寛	-11.878
未備	-11.878
者率	-11.8781
之例	-11.8782
一任	-11.8783
無消息	-11.8784
文翁	-11.8786
從官	-11.8788
惨	-11.8789
臣伏見	-11.879
俄頃	-11.8792
之珍	-11.8793
止此	-11.8793
冷落	-11.8796
掞	-11.8798
其夫	-11.8798
乙卯	-11.8798
郎君	-11.8802
成行	-11.8805
藜藿	-11.8806
謝表	-11.8807
語云	-11.8807
防禦	-11.8809
元吉	-11.8809
好山	-11.881
宋公	-11.8811
青冥	-11.8811
戎狄	-11.8812
人之情	-11.8814
深淺	-11.8814
虯	-11.8815
第九	-11.8815
文殊	-11.8815
多暇	-11.8815
露下	-11.8815
好是	-11.8816
臺省	-11.8817
所守	-11.8818
彈冠	-11.8819
謝客	-11.882
真可	-11.8821
建武	-11.8822
矮	-11.8823
撐	-11.8823
清池	-11.8824
嚴霜	-11.8824
而獲	-11.8824
差池	-11.8824
南臺	-11.8826
不得已而	-11.8827
維舟	-11.8828
三國	-11.8828
清且	-11.8828
引去	-11.8829
有司之	-11.883
淋	-11.883
前溪	-11.883
丁巳	-11.883
鄙人	-11.883
釋奠	-11.8831
髀	-11.8831
尢	-11.8832
嶙峋	-11.8832
罥	-11.8832
軄	-11.8832
蕆	-11.8832
蓋以	-11.8833
為利	-11.8833
踰月	-11.8833
英宗	-11.8833
以疾卒	-11.8834
至於此	-11.8835
因時	-11.8835
存其	-11.8836
誰得	-11.8836
嘗讀	-11.8837
史傳	-11.8838
到官	-11.884
㐫	-11.884
多在	-11.8842
自重	-11.8845
僮僕	-11.8847
畫屏	-11.8847
處州	-11.8848
嗷嗷	-11.8849
華隂	-11.8849
來請	-11.885
推誠	-11.885
澹然	-11.885
以代	-11.8851
皇明	-11.8851
守節	-11.8851
言哉	-11.8851
水濵	-11.8852
吳公	-11.8852
學詩	-11.8852
述作	-11.8853
于天下	-11.8853
享年	-11.8854
水光	-11.8855
向日	-11.8856
文宗	-11.8856
但得	-11.8856
芳洲	-11.8857
忠宣	-11.8857
之過也	-11.8857
羹	-11.8857
永平	-11.8857
通於	-11.8858
漕運	-11.8859
諸葛亮	-11.8859
可言	-11.886
最多	-11.8861
右侍郎	-11.8862
困窮	-11.8862
古書	-11.8862
是邦	-11.8862
承家	-11.8863
朝議	-11.8863
無俗	-11.8864
矣昔	-11.8864
术	-11.8864
冀州	-11.8864
請命	-11.8864
不逢	-11.8864
奉先	-11.8865
䧺	-11.8866
俺	-11.8866
桺	-11.8866
不因	-11.8866
其父母	-11.8867
維持	-11.8868
平分	-11.8869
流霞	-11.8869
在今	-11.887
相催	-11.887
分數	-11.887
▁西湖	-11.8871
讜	-11.8872
人稀	-11.8873
髙第	-11.8874
柁	-11.8874
縝	-11.8874
報稱	-11.8876
傳記	-11.8876
昭然	-11.8877
因成	-11.8878
名儒	-11.8879
加恩	-11.8879
松桂	-11.8879
▁送人	-11.888
舉子	-11.888
相持	-11.888
信州	-11.8881
行處	-11.8882
及門	-11.8885
端午	-11.8885
賔主	-11.8887
兮何	-11.8888
紘	-11.8888
録云	-11.8888
袤	-11.8889
語及	-11.889
親故	-11.8891
彘	-11.8892
惟謹	-11.8893
亭下	-11.8893
樓中	-11.8893
之季	-11.8894
世之人	-11.8894
登進士第	-11.8895
煙火	-11.8897
呼兒	-11.8899
此之謂	-11.8901
異代	-11.8904
條理	-11.8906
黄冠	-11.8906
海南	-11.8906
乃欲	-11.8907
乃自	-11.8907
刀筆	-11.8907
所期	-11.8907
晨興	-11.8907
紛華	-11.8908
權臣	-11.8909
枰	-11.8909
筞	-11.8909
河梁	-11.8911
都無	-11.8911
正朔	-11.8911
隂晴	-11.8912
喜曰	-11.8912
出世	-11.8912
孤村	-11.8914
煩惱	-11.8914
孝敬	-11.8914
之宫	-11.8915
貧民	-11.8915
更生	-11.8916
漢室	-11.8916
牧之	-11.8916
楠	-11.8917
寰宇	-11.8917
要在	-11.8918
湛然	-11.8918
兵火	-11.8918
於京師	-11.8919
以終	-11.8919
諫議大夫	-11.8919
爪牙	-11.892
至於今	-11.892
倉皇	-11.8921
有國	-11.8922
以紀	-11.8922
輕舉	-11.8922
烟水	-11.8923
三十一	-11.8923
衡州	-11.8923
而歸之	-11.8924
一株	-11.8924
私意	-11.8924
寗	-11.8925
波光	-11.8926
蘸	-11.8926
恚	-11.8926
殛	-11.8926
不流	-11.8926
瑟瑟	-11.8926
歳時	-11.8926
自保	-11.8927
蓋其	-11.893
山長	-11.8932
悉以	-11.8932
神交	-11.8934
撿	-11.8935
絺	-11.8935
荆榛	-11.8935
在何處	-11.8935
不令	-11.8936
近古	-11.8936
還山	-11.8937
之設	-11.8938
萬戸	-11.8938
清商	-11.8939
繩墨	-11.894
杜氏	-11.8942
纘	-11.8943
頡頏	-11.8943
悄悄	-11.8944
四體	-11.8944
降指揮	-11.8944
榮名	-11.8945
滿山	-11.8945
部曲	-11.8945
才力	-11.8946
梓州	-11.8946
出知	-11.8947
澤民	-11.8947
自兹	-11.8948
平仲	-11.8948
友愛	-11.8949
品題	-11.895
也補曰	-11.8952
去聲	-11.8952
慼	-11.8952
詩以誌慰	-11.8952
跣	-11.8952
涘	-11.8953
納之	-11.8954
五斗	-11.8956
鬢毛	-11.8957
之備	-11.8958
神氣	-11.8958
湛露	-11.8959
獨能	-11.8959
孟郊	-11.896
流血	-11.896
助之	-11.896
崇徳	-11.896
徬徨	-11.896
朦朧	-11.8961
川原	-11.8961
伯樂	-11.8963
▁其五	-11.8963
乃止	-11.8966
從君	-11.8966
馬頭	-11.8967
甚明	-11.8968
碧桃	-11.8969
荆湖	-11.897
海東	-11.8971
必待	-11.8971
春華	-11.8973
讀易	-11.8973
而言曰	-11.8974
必有以	-11.8976
秋天	-11.8976
入秦	-11.8977
全其	-11.8977
令子	-11.8977
恧	-11.8978
賜以	-11.8978
追思	-11.8978
耶抑	-11.8979
浮丘	-11.8979
四十二	-11.8981
上之人	-11.8981
歸雲	-11.8983
月餘	-11.8983
釣竿	-11.8983
言笑	-11.8984
驛路	-11.8984
百餘里	-11.8984
叢林	-11.8985
流芳	-11.8985
葑	-11.8986
㩀	-11.8986
𨳩	-11.8986
籃輿	-11.8987
法制	-11.8988
池州	-11.8988
起坐	-11.8989
六卿	-11.8989
起復	-11.8991
棄置	-11.8992
喟	-11.8992
大亂	-11.8993
句云	-11.8993
形影	-11.8993
夷猶	-11.8994
在京師	-11.8994
古松	-11.8995
而勿	-11.8995
叔向	-11.8995
太常寺	-11.8996
由来	-11.8999
五十里	-11.8999
田間	-11.9
乎余	-11.9001
先期	-11.9006
金屋	-11.9007
而趨	-11.9009
呉王	-11.901
書中	-11.9011
而志	-11.9011
文定	-11.9011
宗祀	-11.9012
嘗試	-11.9012
紬	-11.9012
詈	-11.9013
錙銖	-11.9013
樛	-11.9013
太府	-11.9013
但聞	-11.9013
為義	-11.9015
東坡詩	-11.9016
月十二日	-11.9016
長淮	-11.9017
尤多	-11.9017
本原	-11.9019
所建	-11.9019
致治	-11.9019
其色	-11.902
誌銘	-11.9021
睛	-11.9021
庄	-11.9021
硎	-11.9021
庭闈	-11.9022
而望	-11.9023
偶題	-11.9023
又不能	-11.9026
羣玉	-11.9026
仙去	-11.9026
筮仕	-11.9029
浣花	-11.9029
磚	-11.903
相逐	-11.9031
羇旅	-11.9033
人士	-11.9033
儒者之	-11.9033
未曾	-11.9034
以是為	-11.9035
宿昔	-11.9036
渌	-11.9036
嫠	-11.9039
貍	-11.9039
折衷	-11.9039
客舍	-11.9039
間以	-11.9039
相類	-11.9039
驚心	-11.904
捲簾	-11.904
孰云	-11.904
酒旗	-11.9041
斷續	-11.9043
衰草	-11.9044
百氏	-11.9044
之可也	-11.9044
蓬山	-11.9044
不比	-11.9045
銑	-11.9045
從人	-11.9047
咸池	-11.9047
鞦韆	-11.9047
日邊	-11.9047
還似	-11.9048
激切	-11.9048
鶴曰	-11.905
可量	-11.9051
不得與	-11.9052
天下國家	-11.9053
爭先	-11.9054
方云	-11.9054
事勢	-11.9055
洶洶	-11.9057
有足	-11.9058
萬言	-11.9059
敷陳	-11.9059
非復	-11.906
應接	-11.906
以才	-11.9062
教官	-11.9062
某月某日	-11.9065
澡	-11.9065
始自	-11.9066
狼籍	-11.9066
虎符	-11.9066
早秋	-11.9066
之容	-11.9067
絶勝	-11.9067
㡬年	-11.9067
教以	-11.9068
在廷	-11.9068
王建	-11.9068
行旅	-11.9069
王褒	-11.907
必然	-11.9072
歡聲	-11.9072
惟神	-11.9073
栁絮	-11.9073
荒凉	-11.9074
舊本	-11.9075
厚矣	-11.9076
莫笑	-11.9077
又無	-11.9078
花底	-11.9079
盡言	-11.908
後代	-11.9081
烟霧	-11.9082
未就	-11.9082
頳	-11.9082
不書	-11.9083
舊學	-11.9083
矣然而	-11.9084
政府	-11.9084
朱輪	-11.9088
西子	-11.9088
真是	-11.9089
㸃綴	-11.9089
窮達	-11.909
以忠	-11.9091
詵	-11.9091
饜	-11.9091
其所為	-11.9091
是處	-11.9092
漢庭	-11.9092
有佳	-11.9094
之乆	-11.9096
不敬	-11.9097
十餘萬	-11.9097
其勞	-11.9097
南越	-11.9098
又自	-11.9098
慘淡	-11.9099
急雨	-11.9099
兌	-11.91
邅	-11.91
年三十	-11.91
▁蔡	-11.9101
不救	-11.9103
字畫	-11.9103
在眼	-11.9104
月十九日	-11.9106
昏昏	-11.9107
池中	-11.9107
亦與	-11.9108
鄖	-11.9109
思親	-11.9109
春暮	-11.911
今陛下	-11.911
非才	-11.911
何止	-11.9111
淒涼	-11.9112
非真	-11.9112
科名	-11.9114
而北	-11.9114
山陵	-11.9114
不舉	-11.9116
於予	-11.912
細草	-11.912
不徒	-11.912
何憂	-11.912
飄風	-11.9121
二尺	-11.9123
者必有	-11.9125
弔古	-11.9125
因書	-11.9127
金臺	-11.9128
求予	-11.9128
月十四日	-11.9129
永夜	-11.9129
進封	-11.9129
皇華	-11.9129
英俊	-11.9129
者無不	-11.913
事上	-11.9131
引年	-11.9132
此夕	-11.9132
一丈	-11.9132
摩詰	-11.9134
三絶	-11.9136
清朝	-11.9137
固巳	-11.9138
國體	-11.9139
長鳴	-11.914
便當	-11.914
喪亂	-11.9141
發兵	-11.9141
渡口	-11.9141
政成	-11.9141
魯連	-11.9141
呉中	-11.9141
黎庶	-11.9142
道場	-11.9142
隄防	-11.9142
瑗	-11.9144
方言	-11.9145
髙門	-11.9145
合葬	-11.9147
萬乘	-11.9147
亦未嘗	-11.9148
▁薛	-11.915
之班	-11.9151
四鄰	-11.9151
中宗	-11.9152
癢	-11.9153
阪	-11.9153
召對	-11.9153
大法	-11.9153
嗟哉	-11.9153
四十里	-11.9153
▁題王	-11.9154
者邪	-11.9155
歸思	-11.9156
秘閣	-11.9156
▁門下	-11.9157
具瞻	-11.9158
其主	-11.9158
儀刑	-11.9159
自然之	-11.9162
子野	-11.9162
遨遊	-11.9163
太𤣥	-11.9163
市人	-11.9163
是誰	-11.9163
入為	-11.9164
及乎	-11.9166
二毛	-11.9166
之趣	-11.9168
收成	-11.9168
兄子	-11.9169
乎予	-11.917
黄石	-11.917
青瑣	-11.917
砭	-11.917
咿	-11.917
誰肯	-11.9171
六句	-11.9171
法從	-11.9171
郴	-11.9171
激烈	-11.9171
西京賦	-11.9173
聦明	-11.9173
縣東	-11.9173
入翰林	-11.9175
不登	-11.9175
晉公	-11.9175
飛上	-11.9177
大吏	-11.9178
甚善	-11.9179
絶倫	-11.9179
嘅	-11.9179
愚者	-11.9179
黄道	-11.9181
執手	-11.9183
稷契	-11.9183
更覺	-11.9184
隋書	-11.9184
相仍	-11.9184
朱公	-11.9185
天和	-11.9186
益深	-11.9186
每見	-11.9186
噤	-11.9188
之墟	-11.9189
薦紳	-11.9189
身如	-11.919
扶疎	-11.9192
甚大	-11.9192
影響	-11.9192
嗜酒	-11.9192
得非	-11.9193
子猷	-11.9194
恰似	-11.9195
熒熒	-11.9196
溶	-11.9197
糝	-11.9197
虚心	-11.9198
可爲	-11.9199
猶堪	-11.92
甚難	-11.9202
萬籟	-11.9202
宣公	-11.9202
徒有	-11.9202
後段	-11.9204
故道	-11.9205
焯	-11.9206
必為	-11.9206
何苦	-11.9206
講習	-11.9208
酒食	-11.9208
氣味	-11.921
必大	-11.9211
不同而	-11.9213
賢於	-11.9213
深夜	-11.9214
豁然	-11.9216
齒牙	-11.9216
髙唐	-11.9216
林寺	-11.9217
未遂	-11.9217
秋八月	-11.9218
是心	-11.9219
感懐	-11.922
春衣	-11.9222
諸本	-11.9223
何患	-11.9223
媮	-11.9223
幾處	-11.9224
逺樹	-11.9226
也君子	-11.9228
從古	-11.9229
寂無	-11.923
謌	-11.9232
諸國	-11.9233
毘陵	-11.9234
君子小人	-11.9234
簡編	-11.9235
吾祖	-11.9236
覆載	-11.9238
皆謂	-11.9239
楚楚	-11.9241
之本也	-11.9241
堊	-11.9241
生還	-11.9242
不敢不	-11.9248
畫舫	-11.9248
玉燭	-11.9248
垂拱	-11.9249
諄	-11.925
玆	-11.925
鼈	-11.925
世變	-11.925
鮫	-11.9251
女二	-11.9254
君去	-11.9255
孤忠	-11.9257
往時	-11.9258
袪	-11.9259
泥沙	-11.926
一石	-11.9261
可復	-11.9261
不得志	-11.9262
勿復	-11.9262
顧影	-11.9262
宗即位	-11.9262
真成	-11.9263
二王	-11.9263
常情	-11.9264
誰當	-11.9264
惜别	-11.9264
獨存	-11.9265
約而	-11.9265
閑居	-11.9265
正好	-11.9266
長歎	-11.9266
此誠	-11.9266
暾	-11.9267
設施	-11.9267
元龍	-11.9267
何處是	-11.9268
國王	-11.9268
九首	-11.9268
所繫	-11.9268
城隍	-11.9268
海潮	-11.9269
而去之	-11.9269
有差	-11.9271
俱有	-11.9272
宣德	-11.9275
賢臣	-11.9276
阻風	-11.9276
意謂	-11.9277
遺音	-11.9277
必盡	-11.9277
之濵	-11.9279
爲國	-11.9279
忠言	-11.9279
益堅	-11.9279
无咎	-11.928
見訪	-11.9281
上黨	-11.9282
為宗	-11.9283
音書	-11.9283
之所存	-11.9284
河伯	-11.9284
情形	-11.9285
颭	-11.9286
王郎	-11.9286
沈氏	-11.9288
同舍	-11.9288
使知	-11.9291
齊侯	-11.9293
利也	-11.9294
烱	-11.9294
以寄	-11.9295
彧	-11.9295
溘	-11.9295
加之	-11.9295
詎可	-11.9295
洮	-11.9295
墓碑	-11.9296
悲秋	-11.9296
煙樹	-11.9296
有愧	-11.9297
而銘之	-11.9297
携手	-11.9299
汝州	-11.9299
幽深	-11.9299
埏	-11.93
臨淮	-11.93
經旬	-11.93
同氣	-11.9301
鄉國	-11.9301
猶子	-11.9303
四座	-11.9303
之碑	-11.9304
布政使	-11.9304
贈言	-11.9305
斧斤	-11.9305
泠然	-11.9306
幽香	-11.9306
寒水	-11.9307
縈紆	-11.9307
茍有	-11.9309
岷山	-11.9309
月十六日	-11.9309
殘春	-11.931
君實	-11.9312
九泉	-11.9312
自矜	-11.9312
瞞	-11.9312
逸興	-11.9313
在堂	-11.9313
謂宜	-11.9313
良臣	-11.9315
應須	-11.9316
其所謂	-11.9316
樊曰	-11.9319
竹裏	-11.9319
紅雲	-11.932
蔡州	-11.9321
鍔	-11.9321
鑽	-11.9321
狼狽	-11.9321
鵩	-11.9321
德音	-11.9323
躍馬	-11.9325
行臺	-11.9325
清暉	-11.9325
僧舍	-11.9327
庶民	-11.9329
十倍	-11.9329
吾親	-11.933
穂	-11.933
扎	-11.933
本乎	-11.9331
子方	-11.9332
我國家	-11.9332
良人	-11.9332
不遷	-11.9333
卜筮	-11.9334
兩年	-11.9334
惘然	-11.9337
王逸	-11.9337
逺客	-11.9338
罷去	-11.9339
始祖	-11.934
介甫	-11.934
隱者	-11.934
賢哉	-11.9342
一堂	-11.9342
斷絶	-11.9342
風力	-11.9343
帝命	-11.9343
新書	-11.9344
目斷	-11.9345
此老	-11.9345
隨人	-11.9346
種樹	-11.9346
萬松	-11.9346
六師	-11.9348
花草	-11.9348
畸	-11.9348
城樓	-11.9349
謂何	-11.935
可恃	-11.9351
故常	-11.9351
己酉	-11.9352
善類	-11.9353
吉日	-11.9353
生人	-11.9353
世子	-11.9354
徃還	-11.9355
膝下	-11.9355
昭公	-11.9355
都憲	-11.9355
那復	-11.9356
馬援	-11.9356
堠	-11.9357
琥珀	-11.9357
▁西風	-11.9357
渺茫	-11.9358
尚矣	-11.9359
焉用	-11.936
大怒	-11.936
人不見	-11.936
日食	-11.9362
清輝	-11.9362
李子	-11.9362
從教	-11.9363
垂垂	-11.9366
罟	-11.9366
正氣	-11.9366
非謂	-11.9366
廢而	-11.9368
宦情	-11.9369
桐江	-11.9369
長日	-11.9371
可樂	-11.9371
快意	-11.9371
筆削	-11.9373
堯之	-11.9373
有心	-11.9373
以誠	-11.9374
唘	-11.9375
帕	-11.9375
鄉先生	-11.9376
詩二首	-11.9378
孟子之	-11.9379
與汝	-11.938
父某	-11.938
送酒	-11.9381
畫堂	-11.9381
篤行	-11.9382
光祿	-11.9384
天下之至	-11.9386
永年	-11.9386
人稱	-11.9386
太康	-11.9389
清芬	-11.9391
曽未	-11.9391
聲華	-11.9391
住持	-11.9391
上清	-11.9393
瘵	-11.9393
國勢	-11.9393
逡廵	-11.9394
交相	-11.9394
列仙	-11.9394
月十七日	-11.9394
供職	-11.9396
春隂	-11.9396
岑寂	-11.9396
題其	-11.9398
鳴玉	-11.9399
所造	-11.94
爕	-11.9402
之㣲	-11.9403
不撓	-11.9404
少游	-11.9404
城隅	-11.9405
抱琴	-11.9407
老我	-11.9407
執中	-11.9408
老杜詩	-11.9408
中立	-11.9408
海鹽	-11.9408
怒而	-11.9408
巖穴	-11.941
帝京	-11.9411
地上	-11.9411
娉婷	-11.9411
大丈夫	-11.9412
▁七夕	-11.9414
嘗曰	-11.9414
講明	-11.9415
又名	-11.9416
至德	-11.9416
之不足	-11.9418
典章	-11.9418
摠	-11.9421
僇	-11.9421
得疾	-11.9423
文子	-11.9423
閒雲	-11.9424
嗜好	-11.9425
將何以	-11.9425
者也今	-11.9425
藝文志	-11.9426
而後可	-11.9426
似此	-11.9427
楚天	-11.9427
都䕶	-11.9428
無窮之	-11.9429
計之	-11.9429
池館	-11.9429
降㫖	-11.943
清新	-11.943
肉食	-11.9431
三巻	-11.9431
居常	-11.9432
窮巷	-11.9433
心目	-11.9434
永懐	-11.9434
國學	-11.9435
軍門	-11.9436
先民	-11.9437
晨昏	-11.9437
可致	-11.9437
烏衣	-11.9438
蓂	-11.9439
彂	-11.9439
之為人	-11.9439
仲冬	-11.9439
落暉	-11.944
羯	-11.9442
十洲	-11.9442
層層	-11.9443
前期	-11.9443
憶舊	-11.9444
絶塵	-11.9444
年月日	-11.9445
清音	-11.9446
范氏	-11.9446
伊何	-11.9447
休明	-11.9447
羽衣	-11.9448
以避	-11.9448
天目	-11.9449
所愛	-11.9449
夜行	-11.9452
其根	-11.9452
長孺	-11.9452
不達	-11.9453
年未	-11.9454
不習	-11.9454
晩節	-11.9455
盛年	-11.9456
興元	-11.9457
鳯皇	-11.9457
新正	-11.9461
李侯	-11.9461
九族	-11.9461
庸人	-11.9462
寄聲	-11.9464
寧有	-11.9465
流連	-11.9465
爲善	-11.9466
鳧	-11.9466
晨夕	-11.9467
古樹	-11.9467
含笑	-11.9468
即席	-11.9468
兵民	-11.9468
方壺	-11.9469
泗州	-11.9469
乗風	-11.9469
未息	-11.9469
松隂	-11.947
許多	-11.9473
鴈門	-11.9474
不俟	-11.9474
道旁	-11.9474
不進	-11.9475
杜若	-11.9475
披襟	-11.9477
漂泊	-11.9478
盛而	-11.9479
于前	-11.9479
則易	-11.948
天地之間	-11.948
將兵	-11.9481
祕閣	-11.9481
有用	-11.9482
附於	-11.9483
螟	-11.9484
以卒	-11.9484
膏肓	-11.9484
逺行	-11.9485
重建	-11.9486
一春	-11.9487
錯落	-11.9487
者果	-11.9488
月二十四日	-11.9488
末路	-11.9488
光大	-11.9489
既久	-11.949
元符	-11.949
生物	-11.9491
夫差	-11.9492
曉色	-11.9492
至人	-11.9492
弗及	-11.9493
淆	-11.9493
㫄	-11.9493
緑苔	-11.9494
輔之	-11.9494
▁題趙	-11.9494
公道	-11.9494
適當	-11.9496
大統	-11.9497
俗人	-11.9497
氣力	-11.9498
以謝	-11.9499
古稱	-11.9499
臺榭	-11.9499
章臺	-11.95
翌日	-11.95
叔度	-11.9502
闍	-11.9502
遥想	-11.9503
隔水	-11.9503
望逺	-11.9504
南溪	-11.9505
不可測	-11.9506
休休	-11.9506
永豐	-11.9507
巉	-11.9508
寄言	-11.9508
丹墀	-11.9509
照影	-11.951
鄆	-11.9511
仁聖	-11.9511
㳙	-11.9511
蝟	-11.9511
鈆	-11.9512
其墓	-11.9512
不竭	-11.9513
經籍	-11.9513
王佐	-11.9514
形而	-11.9514
漁歌	-11.9514
以重	-11.9514
宿草	-11.9515
之祀	-11.9516
禊	-11.9516
而得之	-11.9517
半日	-11.9517
披圖	-11.9517
之柄	-11.9519
縱使	-11.9519
自生	-11.9519
温公	-11.952
嶔	-11.9521
攖	-11.9521
肰	-11.9521
嘗見	-11.9521
桂陽	-11.9523
爐香	-11.9524
松間	-11.9524
兆民	-11.9524
御前	-11.9525
孰非	-11.9525
之瑞	-11.9526
身死	-11.9527
亦為	-11.9528
行營	-11.9528
人户	-11.9529
昩	-11.953
旭日	-11.953
誰其	-11.953
靈均	-11.953
臣今	-11.9531
亦莫	-11.9532
參天	-11.9533
髙齋	-11.9533
未平	-11.9533
五十六	-11.9534
恩波	-11.9534
勤苦	-11.9537
嫦娥	-11.9539
歊	-11.9539
煤	-11.9539
煽	-11.9539
顔氏	-11.9539
晉卿	-11.9541
南斗	-11.9541
西安	-11.9542
不放	-11.9543
九折	-11.9543
斯堂	-11.9544
悌	-11.9544
長揖	-11.9544
羅列	-11.9545
别時	-11.9545
乗輿	-11.9547
方面	-11.9547
驀	-11.9548
悲哉	-11.9549
必當	-11.9549
清都	-11.9549
魂魄	-11.955
後宫	-11.955
伯兄	-11.9552
告歸	-11.9552
佇立	-11.9553
哉且	-11.9555
異者	-11.9555
花鳥	-11.9556
僅得	-11.9556
封章	-11.9556
涔	-11.9556
本院	-11.9556
草莽	-11.9556
居易	-11.9556
俛首	-11.9557
迪功郎	-11.9557
所自出	-11.9557
烟雲	-11.9557
陽山	-11.9558
以圖	-11.9558
又與	-11.9558
惟應	-11.9559
諸佛	-11.956
告于	-11.956
莫惜	-11.956
悲傷	-11.956
精靈	-11.9561
治國	-11.9561
溺於	-11.9561
巡按	-11.9562
問道	-11.9563
北人	-11.9564
巨源	-11.9565
尚友	-11.9566
武備	-11.9567
夜歸	-11.9568
見諸	-11.9568
舊典	-11.9568
迎風	-11.957
門庭	-11.957
者是也	-11.957
也陛下	-11.9571
雪裏	-11.9572
百八十	-11.9572
鴻毛	-11.9572
以補	-11.9573
諡曰	-11.9573
之所以為	-11.9574
撻	-11.9575
爛熳	-11.9576
宿衛	-11.9576
小閣	-11.9576
爲此	-11.9577
富人	-11.9578
所過	-11.9578
玉皇	-11.9579
相聚	-11.9579
入仕	-11.9581
衆多	-11.9582
楓林	-11.9582
龍興	-11.9582
變故	-11.9583
殆盡	-11.9583
趙君	-11.9584
先哲	-11.9584
尋芳	-11.9584
剸	-11.9585
酺	-11.9585
多是	-11.9586
不顯	-11.9586
漢使	-11.9586
簫韶	-11.9587
髙處	-11.9591
和樂	-11.9591
舜禹	-11.9592
▁昨夜	-11.9592
豈弟	-11.9593
糗	-11.9594
精明	-11.9594
天爵	-11.9594
海陵	-11.9595
淮上	-11.9595
所立	-11.9595
輔相	-11.9596
紅紫	-11.9597
若干巻	-11.9597
之頃	-11.9598
亦謂	-11.96
無失	-11.9601
法言	-11.9602
露滴	-11.9603
將欲	-11.9603
瀏	-11.9603
苫	-11.9603
曉來	-11.9603
峨眉	-11.9604
宦官	-11.9604
佳客	-11.9605
兀兀	-11.9605
伊人	-11.9606
左司	-11.9606
旰	-11.9606
縣治	-11.9608
由是而	-11.9609
于民	-11.9609
說者	-11.9609
褒貶	-11.961
又况	-11.9612
秦始皇	-11.9612
磐石	-11.9613
書傳	-11.9615
猗歟	-11.9616
未可以	-11.9616
而不言	-11.9619
比丘	-11.962
曰卿	-11.962
召入	-11.9623
颼颼	-11.9624
獨何	-11.9627
閤門	-11.9628
從事於	-11.9629
紿	-11.9631
鞫	-11.9631
山麓	-11.9631
治行	-11.9632
而莫之	-11.9632
四十六	-11.9633
厚而	-11.9633
東路	-11.9633
必自	-11.9634
不可勝數	-11.9636
地形	-11.9637
荒村	-11.9638
已盡	-11.9639
舁	-11.964
▁國朝	-11.9641
礫	-11.9643
州城	-11.9644
涓涓	-11.9645
可奈何	-11.9646
况有	-11.9647
不極	-11.9648
朝鮮	-11.9648
小景	-11.9649
漸覺	-11.965
元勲	-11.965
駐馬	-11.965
樓下	-11.965
移居	-11.9652
天工	-11.9653
僧房	-11.9656
之願	-11.9656
比干	-11.9657
獨憐	-11.9657
混一	-11.9658
褥	-11.9659
貴妃	-11.966
亰	-11.966
心之所	-11.966
容貌	-11.9661
况乎	-11.9663
有益	-11.9664
家國	-11.9667
𤣥圃	-11.9668
幾多	-11.9668
月五日	-11.9669
初開	-11.9671
結茅	-11.9671
之黨	-11.9671
客曰	-11.9671
凡十	-11.9672
集有	-11.9672
旬月	-11.9673
敢辭	-11.9673
少監	-11.9674
清源	-11.9674
行已	-11.9674
河南府	-11.9674
其半	-11.9675
等因	-11.9675
隂山	-11.9678
秋風吹	-11.9679
疊嶂	-11.968
吟詠	-11.968
重臣	-11.9681
叩頭	-11.9683
文皇	-11.9684
荒蕪	-11.9684
荀子	-11.9684
與弟	-11.9684
七言律	-11.9684
匯	-11.9687
蒼天	-11.9687
職在	-11.9687
一戰	-11.9688
月二十八日	-11.9688
闔閭	-11.9688
斁	-11.9688
瞿塘	-11.9688
清氣	-11.969
李賀	-11.9691
仁夀	-11.9691
鑑湖	-11.9692
情深	-11.9692
清夢	-11.9693
動心	-11.9694
征衣	-11.9694
盡瘁	-11.9695
森然	-11.9695
分手	-11.9696
狠	-11.9696
𠖇	-11.9696
故君子	-11.9696
抵掌	-11.9696
早梅	-11.9697
顧謂	-11.9698
鸞鳯	-11.9699
君能	-11.9699
朕惟	-11.97
景祐	-11.9701
自見	-11.9701
屈伸	-11.9702
得官	-11.9702
名譽	-11.9702
司直	-11.9704
大定	-11.9705
駿奔	-11.9705
俳	-11.9705
淘	-11.9705
之别	-11.9706
愁殺	-11.9706
周人	-11.9708
之言也	-11.9709
迎春	-11.9709
天山	-11.9709
索居	-11.9711
客思	-11.9711
正始	-11.9711
鸞鳳	-11.9712
▁古詩	-11.9712
可作	-11.9712
以南	-11.9712
儒雅	-11.9713
樹杪	-11.9714
頫	-11.9715
六宫	-11.9715
惟爾	-11.9717
馳道	-11.9717
又豈	-11.9718
江聲	-11.9719
士竒	-11.9721
維時	-11.9722
早發	-11.9722
成康	-11.9723
不順	-11.9723
已甚	-11.9723
本部	-11.9724
遅	-11.9724
郯	-11.9724
山荘	-11.9724
舍利	-11.9725
三十九	-11.9726
水月	-11.9726
著于	-11.9726
優渥	-11.9726
温州	-11.9727
一度	-11.9727
而不可得	-11.9728
以成其	-11.9728
烟火	-11.9728
何耶	-11.9729
之罪也	-11.973
野田	-11.973
秫	-11.973
歲暮	-11.9732
青溪	-11.9732
撝	-11.9732
凌風	-11.9732
讋	-11.9733
此曲	-11.9733
四者	-11.9733
杯中	-11.9733
皇恩	-11.9735
宇内	-11.9738
寢食	-11.974
路逺	-11.974
保障	-11.974
大水	-11.974
西臺	-11.9741
討賊	-11.9742
環珮	-11.9742
其㫖	-11.9745
安慶	-11.9745
衢州	-11.9747
盛典	-11.9747
五子	-11.9749
層樓	-11.9749
公實	-11.9752
泐	-11.9752
莊嚴	-11.9753
婚嫁	-11.9754
通政	-11.9754
余讀	-11.9755
向西	-11.9756
棹歌	-11.9756
謫居	-11.9758
魏武	-11.9758
六言	-11.976
必死	-11.976
皇朝	-11.976
阿母	-11.9761
隔岸	-11.9762
獨見	-11.9762
端坐	-11.9762
放翁	-11.9763
刑名	-11.9763
青史	-11.9764
花氣	-11.9767
八十一	-11.9768
供養	-11.9768
泣曰	-11.9769
與爾	-11.9769
百九十	-11.977
離憂	-11.977
以此為	-11.9771
二儀	-11.9772
手中	-11.9773
向背	-11.9773
所求	-11.9774
連理	-11.9775
吉士	-11.9778
盛世	-11.9779
三川	-11.978
醲	-11.978
百餘人	-11.978
潼	-11.978
忘年	-11.9781
寒花	-11.9781
伏惟陛下	-11.9782
不敢言	-11.9783
綵衣	-11.9783
延佇	-11.9784
臣民	-11.9784
隋唐	-11.9784
春晚	-11.9787
淡淡	-11.9787
方欲	-11.9787
銷魂	-11.9789
四野	-11.9789
咈	-11.9789
王國	-11.979
九齡	-11.979
恐有	-11.9791
鐘磬	-11.9791
朕以	-11.9791
數枝	-11.9792
勉强	-11.9793
五常	-11.9794
龍光	-11.9794
深厚	-11.9796
而不顧	-11.9796
一縣	-11.9797
世業	-11.9797
昶	-11.9799
道州	-11.98
離恨	-11.9801
西掖	-11.9803
玉川	-11.9803
▁梅花	-11.9804
聽雨	-11.9804
死亡	-11.9804
相伴	-11.9805
士庶	-11.9805
不能言	-11.9806
壁立	-11.9807
歸計	-11.9808
令君	-11.9808
蒂	-11.9808
勗	-11.9808
並行	-11.9811
老死	-11.9811
秣陵	-11.9812
徳業	-11.9813
轉輸	-11.9815
囬首	-11.9816
功曹	-11.9816
明星	-11.9816
北齊	-11.9816
御極	-11.9818
以功	-11.9818
飛動	-11.9821
藜杖	-11.9821
風浪	-11.9822
樾	-11.9823
鄙夫	-11.9825
願以	-11.9825
痛哭	-11.9826
黎元	-11.9826
以厚	-11.9827
國子祭酒	-11.9828
州事	-11.9828
君子之所	-11.9828
某年	-11.9829
權貴	-11.9831
固守	-11.9834
嵗在	-11.9834
專以	-11.9834
之奥	-11.9836
禮樂之	-11.9838
享年七十	-11.9838
秋夕	-11.9838
司冦	-11.9839
典謨	-11.9839
豈直	-11.9839
建國	-11.984
顛沛	-11.9841
江路	-11.9843
出竒	-11.9843
忘却	-11.9843
漁人	-11.9844
重疊	-11.9844
者少	-11.9845
已多	-11.9846
脇	-11.9846
蟾蜍	-11.9846
囊中	-11.9848
相求	-11.9849
曹氏	-11.985
達人	-11.985
日影	-11.9852
或言	-11.9853
天運	-11.9853
瀟	-11.9854
蛺蝶	-11.9854
姮娥	-11.9855
召試	-11.9856
接武	-11.9857
風輕	-11.9857
離披	-11.9859
尤重	-11.986
故相	-11.9862
稱善	-11.9862
中書門下	-11.9863
泫然	-11.9864
𢾗	-11.9865
汭	-11.9865
葳蕤	-11.9865
後魏	-11.9866
馳騖	-11.9866
自省	-11.9866
又一體	-11.9867
賢士大夫	-11.9867
松花	-11.9868
香草	-11.9869
月二十五日	-11.9869
初日	-11.987
獲罪	-11.987
誰信	-11.9871
貟外郎	-11.9871
萬化	-11.9872
犖	-11.9873
起兵	-11.9873
潮州	-11.9874
鼯	-11.9874
饔	-11.9874
者尤	-11.9875
死節	-11.9878
寒雨	-11.9878
榴花	-11.9881
心術	-11.9882
之司	-11.9883
清興	-11.9883
淳化	-11.9883
不讓	-11.9883
十字	-11.9884
孜	-11.9884
嚙	-11.9884
棚	-11.9884
臘月	-11.9885
家園	-11.9886
之陋	-11.9887
烟樹	-11.9888
蝦	-11.9888
哉吾	-11.9889
先皇	-11.989
三州	-11.9892
鶱	-11.9893
主恩	-11.9894
忽焉	-11.9895
陽氣	-11.9896
百步	-11.9896
石磴	-11.9896
亂石	-11.9896
内地	-11.9897
九秋	-11.9897
詎能	-11.9898
况今	-11.9898
有涯	-11.9899
誰似	-11.99
呼為	-11.99
所遺	-11.99
近聞	-11.99
桓桓	-11.9901
西極	-11.9902
乗時	-11.9902
雨濕	-11.9902
飄泊	-11.9904
無酒	-11.9905
玉笛	-11.9906
天縱	-11.9908
出焉	-11.9908
龍沙	-11.9909
特地	-11.9909
然後可以	-11.991
雨來	-11.991
而可以	-11.991
人之道	-11.991
見月	-11.991
水經	-11.9912
黯然	-11.9912
其禍	-11.9913
張儀	-11.9914
固可	-11.9914
徵君	-11.9915
父也	-11.9915
京兆尹	-11.9917
十六日	-11.9917
氣和	-11.9917
皆稱	-11.9918
親朋	-11.9919
寒日	-11.992
又從而	-11.992
仙山	-11.992
不知有	-11.9922
皐	-11.9922
躬親	-11.9923
經曰	-11.9925
莫厭	-11.9925
林塘	-11.9926
行當	-11.9927
王謝	-11.9927
立秋	-11.9928
律令	-11.9929
於朝廷	-11.9931
左氏傳曰	-11.9931
未足以	-11.9932
華胥	-11.9933
雨歇	-11.9934
碧梧	-11.9934
羽檄	-11.9935
皎然	-11.9936
仰觀	-11.9936
樞機	-11.9936
利於	-11.9937
矣况	-11.9937
萬卷	-11.9938
夏至	-11.9939
長庚	-11.9939
繾綣	-11.9941
鉄	-11.9941
猪	-11.9941
承務郎	-11.9941
誰人	-11.9942
大理寺丞	-11.9942
霍光	-11.9943
瓊花	-11.9943
一線	-11.9944
之吉	-11.9944
來訪	-11.9945
章章	-11.9948
殘燈	-11.9948
人心之	-11.9949
富春	-11.9949
詞人	-11.995
庶政	-11.9952
文館	-11.9952
寓目	-11.9953
焉爾	-11.9953
唯唯	-11.9953
唯恐	-11.9955
吾志	-11.9955
寂然	-11.9955
以還	-11.9956
力田	-11.9956
令我	-11.9956
一杯酒	-11.9957
尺書	-11.9957
問我	-11.9958
終難	-11.9958
世務	-11.9958
諸父	-11.9958
焉若	-11.9959
况於	-11.9959
奉親	-11.996
商人	-11.9961
之誼	-11.9962
千鈞	-11.9962
固多	-11.9962
紅藥	-11.9962
似水	-11.9962
片帆	-11.9963
壺觴	-11.9963
金匱	-11.9964
深居	-11.9965
道里	-11.9965
封君	-11.9967
江雲	-11.9967
猴	-11.9969
而後知	-11.997
累月	-11.9971
齊名	-11.9971
咄咄	-11.9973
特降	-11.9973
也聖人	-11.9975
全盛	-11.9976
又恐	-11.9976
並見	-11.9977
芝草	-11.9978
則夫	-11.9978
腋	-11.9979
傚	-11.9979
磁	-11.9979
惴惴	-11.9979
大将軍	-11.9979
日久	-11.998
不終	-11.9981
勞生	-11.9981
有約	-11.9981
五等	-11.9981
近時	-11.9982
負郭	-11.9984
茂才	-11.9985
馮夷	-11.9986
二麥	-11.9987
寒色	-11.9987
白駒	-11.9987
𣏌	-11.9989
莫知所	-11.999
雞豚	-11.9992
月二日	-11.9993
叅議	-11.9994
家風	-11.9994
無忌	-11.9996
長虹	-11.9997
榱	-11.9998
9	-11.9998
砦	-11.9998
曹子建	-11.9998
▁集部	-11.9999
樂毅	-12.0001
正值	-12.0001
養老	-12.0001
層城	-12.0001
且將	-12.0002
後日	-12.0002
嘗言	-12.0003
者不知	-12.0003
纊	-12.0003
歡娛	-12.0007
春城	-12.0007
之𥘉	-12.0008
罌	-12.0008
鍜	-12.0008
靴	-12.0008
先大夫	-12.0008
可堪	-12.0009
掩扉	-12.0009
何傷	-12.0011
大驚	-12.0011
顔淵	-12.0011
苦雨	-12.0011
至于今	-12.0013
兩日	-12.0013
黥	-12.0015
成立	-12.0017
水東流	-12.0017
蘭蕙	-12.0018
釋迦	-12.0019
華州	-12.0019
行春	-12.0019
編次	-12.002
濟川	-12.002
帝堯	-12.0021
華髮	-12.0021
之功也	-12.0021
羣賢	-12.0024
嘗從	-12.0025
居庸	-12.0026
伉	-12.0027
栁條	-12.0028
相合	-12.0028
劬勞	-12.0029
軍政	-12.0029
民安	-12.003
建寧	-12.003
賦役	-12.003
震動	-12.003
己未	-12.0031
瓊樹	-12.0032
同舟	-12.0034
轉蓬	-12.0034
官爵	-12.0035
左思	-12.0036
未還	-12.0036
郛	-12.0037
也昔者	-12.0037
而喜	-12.0037
賜宴	-12.0037
之中而	-12.0039
元季	-12.0039
隗	-12.0039
岱宗	-12.004
不得以	-12.0041
傳後	-12.0042
物故	-12.0042
郡侯	-12.0043
盛哉	-12.0044
黄屋	-12.0044
而未嘗	-12.0045
鳳皇	-12.0045
四朝	-12.0046
攤	-12.0046
泊舟	-12.0047
在手	-12.0048
未厭	-12.0049
督府	-12.0052
贈之	-12.0052
雨洗	-12.0052
傾心	-12.0053
中書省	-12.0053
全活	-12.0054
聖代	-12.0054
以儒	-12.0055
8	-12.0056
丱	-12.0056
禕	-12.0056
蜀郡	-12.0057
休寧	-12.0058
前路	-12.0058
已定	-12.0058
草廬	-12.0058
英才	-12.0059
臭味	-12.0061
歸途	-12.0061
本來	-12.0061
圖報	-12.0062
清浄	-12.0062
青嶂	-12.0062
畫角	-12.0063
蒲團	-12.0063
惟新	-12.0063
久已	-12.0064
其變	-12.0064
奏狀	-12.0064
後序	-12.0065
萱草	-12.0066
諼	-12.0066
奉寄	-12.0066
殿中侍御史	-12.0066
燈下	-12.0066
農家	-12.0067
改過	-12.0067
舉酒	-12.0067
龍驤	-12.007
始信	-12.0072
觸目	-12.0073
厰	-12.0075
蠖	-12.0075
隲	-12.0075
郡太守	-12.0075
蓮葉	-12.0076
綱常	-12.0078
蓋亦	-12.0078
因君	-12.0078
長相思	-12.0079
衆口	-12.0079
更名	-12.008
晚晴	-12.008
淚痕	-12.0081
騎驢	-12.0081
孔雀	-12.0081
誰見	-12.0082
向使	-12.0082
其詞曰	-12.0083
宸翰	-12.0084
錦袍	-12.0084
磷	-12.0085
釘	-12.0085
窳	-12.0085
知識	-12.0086
林氏	-12.0086
告於	-12.0087
文敏	-12.0087
大敗	-12.0089
高帝	-12.0089
宋書	-12.0089
洙曰一	-12.009
飛雨	-12.009
紇	-12.0092
日觀	-12.0092
群臣	-12.0093
伏讀	-12.0094
双	-12.0095
沬	-12.0095
考亭	-12.0096
瀚海	-12.0096
朕意	-12.0097
中路	-12.0099
晉宋	-12.0099
王制	-12.0101
飲馬	-12.0104
見得	-12.0105
舉目	-12.0105
肆其	-12.0108
京東	-12.0108
之態	-12.0108
仙客	-12.011
凡四	-12.011
蒼崖	-12.011
遺編	-12.011
新法	-12.0111
凋零	-12.0111
子姪	-12.0112
逺望	-12.0112
膏腴	-12.0112
項王	-12.0113
三兩	-12.0113
民事	-12.0113
七十餘	-12.0114
摽	-12.0114
厖	-12.0114
各官	-12.0114
所著有	-12.0114
以禦	-12.0114
為陛下	-12.0116
可數	-12.0116
熒	-12.0118
理則	-12.0119
猶勝	-12.012
泉流	-12.012
髙節	-12.012
山名	-12.0121
平易	-12.0122
能忘	-12.0122
江口	-12.0122
飛仙	-12.0123
香滿	-12.0123
俗吏	-12.0123
等事	-12.0123
凑	-12.0124
迢逓	-12.0124
豈曰	-12.0124
梁武帝	-12.0125
出扵	-12.0126
討之	-12.0126
秋浦	-12.0127
衆星	-12.0128
醉卧	-12.0128
萬全	-12.0128
𢎞農	-12.0128
勿謂	-12.0128
六軍	-12.0129
雌雄	-12.013
據此	-12.0131
澹泊	-12.0132
柿	-12.0133
劈	-12.0133
埤	-12.0134
君子也	-12.0134
城邑	-12.0134
我老	-12.0135
鄭康成	-12.0135
更始	-12.0136
梁簡文帝	-12.0137
遣官	-12.0138
我知	-12.0139
誰將	-12.0139
前來	-12.014
巢穴	-12.0142
不允詔	-12.0142
甘㫖	-12.0143
艫	-12.0143
琬琰	-12.0143
紀昀	-12.0143
像贊	-12.0144
五百年	-12.0144
親舊	-12.0144
楊墨	-12.0145
為患	-12.0145
立廟	-12.0146
西流	-12.0146
▁君諱	-12.0146
按察司	-12.0147
而返	-12.0148
歴年	-12.0149
進用	-12.0149
合乎	-12.015
羙人	-12.0152
瑋	-12.0153
鱣	-12.0153
若能	-12.0154
富民	-12.0155
豺	-12.0156
縣事	-12.0158
深深	-12.016
衆人之	-12.0161
開軒	-12.0162
怱怱	-12.0163
孔融	-12.0164
雲母	-12.0164
元化	-12.0164
遣之	-12.0165
無迹	-12.0166
花雨	-12.0166
諸經	-12.0167
凄然	-12.0167
釣船	-12.0168
孤臣	-12.0168
龍鍾	-12.0169
自解	-12.0169
欲作	-12.0169
時候	-12.0171
縣知縣	-12.0171
詩歌	-12.0172
糢糊	-12.0172
余觀	-12.0175
擇之	-12.0175
來徃	-12.0176
資政	-12.0176
迢	-12.0178
芳心	-12.0179
若將	-12.0179
貧富	-12.018
持之	-12.018
吾兒	-12.018
喜得	-12.018
单	-12.0182
癭	-12.0182
月白	-12.0184
如神	-12.0184
烈烈	-12.0185
其制	-12.0185
姓字	-12.0186
昭陵	-12.0188
念臣	-12.0188
體用	-12.019
對雪	-12.019
瑀	-12.0192
皴	-12.0192
茟	-12.0192
攙	-12.0192
宦遊	-12.0193
亦如之	-12.0194
故吏	-12.0194
真如	-12.0195
變易	-12.0195
執事之	-12.0196
客衣	-12.0199
藕花	-12.02
白苧	-12.0201
毛羽	-12.0201
里閈	-12.0202
雲際	-12.0202
手詔	-12.0203
之災	-12.0204
一本作	-12.0205
鑾輿	-12.0206
寒燈	-12.0207
謝家	-12.021
其迹	-12.0211
應憐	-12.0211
易得	-12.0211
荑	-12.0212
東征	-12.0212
文林郎	-12.0212
無名氏	-12.0212
皆從	-12.0212
文華	-12.0213
呼童	-12.0214
未巳	-12.0214
以罪	-12.0215
舊宅	-12.0216
更化	-12.0216
征西	-12.0217
歡呼	-12.0218
大猷	-12.0219
香霧	-12.0219
所共	-12.0222
所指	-12.0223
事畢	-12.0225
如雷	-12.0225
自家	-12.0225
歡樂	-12.0226
咸有	-12.0227
月二十一日	-12.0228
甘雨	-12.0228
之心也	-12.0229
美哉	-12.023
蘧	-12.023
列郡	-12.0231
淖	-12.0231
中興之	-12.0232
年譜	-12.0232
歸鴻	-12.0234
小心	-12.0236
亡何	-12.0236
文墨	-12.0237
最愛	-12.0238
援筆	-12.0239
以為常	-12.0239
案牘	-12.0239
江中	-12.024
潏	-12.0241
崤	-12.0241
名器	-12.0241
公府	-12.0242
丹桂	-12.0242
非若	-12.0242
齋戒	-12.0244
於市	-12.0244
巻舒	-12.0245
半天	-12.0246
彩雲	-12.0246
先登	-12.0246
細民	-12.0247
几杖	-12.0247
東吳	-12.0248
楚子	-12.0248
氏諱	-12.025
光芒	-12.025
鬲	-12.0251
工於	-12.0251
鐃	-12.0251
舊唐書	-12.0252
鮑照	-12.0253
載筆	-12.0254
立馬	-12.0254
馮翊	-12.0254
外家	-12.0256
呉江	-12.0256
惟君	-12.0256
歸歟	-12.0257
伯牙	-12.0257
云亡	-12.0257
因事	-12.0257
紅粧	-12.0258
昧死	-12.0258
昭示	-12.0259
青鸞	-12.026
長曰	-12.026
徯	-12.0261
繫馬	-12.0261
絶世	-12.0263
宣諭	-12.0264
韓氏	-12.0264
如海	-12.0265
復用	-12.0266
西城	-12.0266
耿介	-12.0268
姥	-12.0269
長干	-12.027
應物	-12.0271
愷悌	-12.0271
國計	-12.0273
周文	-12.0273
則思	-12.0273
見說	-12.0273
偉哉	-12.0274
定州	-12.0275
觀書	-12.0275
巖下	-12.0277
拜手	-12.0277
騶虞	-12.0278
難成	-12.0279
塵寰	-12.0279
漢文	-12.0279
皦	-12.028
孀	-12.028
糲	-12.028
惡其	-12.0282
其智	-12.0282
聞說	-12.0282
醉倒	-12.0283
之志也	-12.0284
鷗鳥	-12.0284
詞客	-12.0285
異域	-12.0285
周道	-12.0285
百慮	-12.0289
荄	-12.029
東陵	-12.0291
其愚	-12.0291
心情	-12.0292
上䟽	-12.0292
至京	-12.0294
東壁	-12.0294
猶疑	-12.0295
句句	-12.0296
倚門	-12.0297
三篇	-12.0297
醉歸	-12.0299
五季	-12.0299
始生	-12.0299
覺來	-12.0299
不怕	-12.03
銛	-12.03
騑	-12.03
褰裳	-12.0301
今後	-12.0303
安在哉	-12.0303
馬融	-12.0305
中酒	-12.0305
子儀	-12.0307
侍衛	-12.0307
天地萬物	-12.0307
中土	-12.031
裛	-12.031
挐	-12.031
魅	-12.031
畫馬	-12.031
二十一年	-12.031
輕風	-12.0311
是真	-12.0312
使司	-12.0314
獨得	-12.0315
大荒	-12.0317
疎影	-12.0317
思欲	-12.0318
繢	-12.032
承事郎	-12.032
根柢	-12.0321
正旦	-12.0321
所據	-12.0322
永康	-12.0323
為仁	-12.0325
黎民	-12.0328
清晝	-12.0328
偉人	-12.0329
邑中	-12.0329
僨	-12.033
扺	-12.033
箜篌	-12.033
文史	-12.0331
天下幸甚	-12.0332
作樂	-12.0333
夷陵	-12.0336
談經	-12.0337
九分	-12.0338
1	-12.034
吭	-12.034
石鼓	-12.034
哀樂	-12.0341
壽考	-12.0342
碧水	-12.0342
事狀	-12.0344
自棄	-12.0344
無術	-12.0345
之歡	-12.0346
儒家	-12.0346
百靈	-12.0347
銅柱	-12.0347
兵部侍郎	-12.0348
前件	-12.0348
新建	-12.0349
褭	-12.035
孫權	-12.035
玉雪	-12.035
相語	-12.035
孤鶴	-12.0351
逝者	-12.0353
高士	-12.0353
請銘	-12.0354
初見	-12.0354
望月	-12.0356
下令	-12.0356
不相見	-12.0356
哉余	-12.0356
勤於	-12.0356
天街	-12.0356
更為	-12.0357
撫之	-12.0357
四十三	-12.0357
吾觀	-12.0358
公等	-12.0358
而仕	-12.0358
沱	-12.0359
衽	-12.036
霤	-12.036
欲令	-12.036
興盡	-12.0361
皓首	-12.0362
任事	-12.0363
各有所	-12.0363
詔㫖	-12.0364
坐久	-12.0364
吾之所	-12.0364
洪濤	-12.0365
雪浪	-12.0366
周王	-12.0366
者殆	-12.0367
松筠	-12.0367
臣僚	-12.0367
予予	-12.0368
揮手	-12.0368
耕桑	-12.0369
盡得	-12.0369
紫㣲	-12.037
倏	-12.037
詩以誌事	-12.037
鴈行	-12.037
金殿	-12.0371
方叔	-12.0371
髙郵	-12.0371
園池	-12.0371
淮甸	-12.0372
終身不	-12.0373
返照	-12.0374
許由	-12.0375
采薇	-12.0375
彈指	-12.0375
如洗	-12.0375
拜命	-12.0376
不復見	-12.0376
君子之道	-12.0378
王勃	-12.0378
章奏	-12.0379
敇	-12.038
四十餘	-12.038
臣不勝	-12.038
姦邪	-12.038
居此	-12.0381
佳城	-12.0381
場屋	-12.0382
鄉心	-12.0382
府中	-12.0383
巨石	-12.0383
階前	-12.0385
隔江	-12.0385
來京師	-12.0386
兩淮	-12.0386
雲低	-12.0386
傳誦	-12.0386
偏宜	-12.0386
三里	-12.0386
衆芳	-12.0387
滑稽	-12.0387
妙處	-12.0388
蘭陵	-12.0389
惸	-12.039
耒耜	-12.039
詩選	-12.0391
無間言	-12.0393
大本	-12.0395
清華	-12.0396
維新	-12.0396
下逮	-12.0396
手植	-12.0396
四十七	-12.0396
全無	-12.0397
鄭君	-12.0398
删	-12.0399
敭	-12.0399
臣言	-12.04
人寰	-12.04
絡繹	-12.0401
星星	-12.0403
海濵	-12.0404
塵沙	-12.0404
次日	-12.0404
望望	-12.0404
洞門	-12.0405
威名	-12.0405
夜氣	-12.0405
詩後	-12.0406
禮官	-12.0407
十方	-12.0408
小亭	-12.0409
坐見	-12.0409
魚鼈	-12.0409
永寧	-12.041
桀紂	-12.041
積累	-12.0411
從祀	-12.0411
斗柄	-12.0411
舉行	-12.0411
早世	-12.0411
者也其	-12.0412
巖廊	-12.0413
銀臺	-12.0414
[...]
