<unk>	0
<s>	0
</s>	0
▁	-3.07353
)	-3.84065
也	-3.94925
之	-4.12649
/	-4.19828
(	-4.36579
而	-4.56864
以	-4.63128
▁(	-4.69246
者	-4.83329
為	-4.93546
則	-5.00085
其	-5.10436
有	-5.17636
曰	-5.20379
不	-5.34048
於	-5.49386
故	-5.5296
言	-5.60439
是	-5.77811
與	-5.7866
又	-5.86256
于	-5.88933
一	-5.89068
無	-5.89866
此	-5.91033
人	-5.93774
謂	-5.93805
大	-5.95687
矣	-5.96441
反	-6.04817
在	-6.06368
如	-6.07907
自	-6.07915
皆	-6.09451
上	-6.099
切	-6.14972
三	-6.18772
子	-6.19692
亦	-6.20224
下	-6.21582
至	-6.2215
云	-6.22511
非	-6.23085
二	-6.30535
所	-6.30771
音	-6.31448
作	-6.3315
同	-6.34672
乎	-6.35196
中	-6.39184
用	-6.39471
行	-6.40125
○	-6.40722
見	-6.4148
王	-6.42175
乃	-6.45166
然	-6.47174
事	-6.47794
正	-6.49059
得	-6.50565
禮	-6.52413
及	-6.53264
五	-6.53836
時	-6.54245
若	-6.54451
四	-6.54771
公	-6.57385
君	-6.58771
當	-6.60132
出	-6.62918
書	-6.6449
使	-6.64713
字	-6.65891
明	-6.6688
今	-6.67191
文	-6.6743
從	-6.68445
必	-6.70213
爲	-6.70653
即	-6.71368
焉	-6.73412
天	-6.73983
成	-6.7428
注	-6.77187
知	-6.77218
已	-6.78054
相	-6.79075
既	-6.81201
居	-6.82301
後	-6.83232
雖	-6.84795
生	-6.85857
所以	-6.85877
國	-6.86767
道	-6.86805
本	-6.87398
入	-6.87566
易	-6.87751
可	-6.88279
傳	-6.88475
齊	-6.88725
我	-6.88816
猶	-6.88928
命	-6.89656
諸侯	-6.90928
日	-6.91243
民	-6.91434
義	-6.92036
小	-6.92872
名	-6.93115
或	-6.93623
立	-6.94099
服	-6.94241
陽	-6.94838
水	-6.97242
地	-6.97708
取	-6.97934
惟	-6.97993
方	-6.98357
能	-6.98524
聲	-6.98889
復	-6.99247
先	-6.99823
合	-7.01997
主	-7.02574
未	-7.02716
始	-7.04058
欲	-7.05099
以為	-7.05763
夫	-7.05767
將	-7.06196
心	-7.06431
長	-7.06498
象	-7.06528
六	-7.06963
何	-7.07537
大夫	-7.07864
物	-7.07905
周	-7.08739
處	-7.09136
祭	-7.0953
樂	-7.1094
來	-7.11797
耳	-7.12278
士	-7.14002
九	-7.14034
實	-7.14585
重	-7.14646
去	-7.15144
師	-7.16049
外	-7.1605
臣	-7.16452
説	-7.16585
古	-7.17991
晉	-7.18202
氏	-7.18353
内	-7.18928
鄭	-7.19086
初	-7.19329
而不	-7.21301
凡	-7.21323
通	-7.21597
謂之	-7.2174
食	-7.22409
詩	-7.2403
多	-7.24342
山	-7.2503
諸	-7.26251
分	-7.2702
經	-7.27797
所謂	-7.28256
位	-7.28595
不可	-7.2878
受	-7.28862
陳	-7.29236
歸	-7.29603
前	-7.30212
遂	-7.30429
哉	-7.30716
楚	-7.31336
徳	-7.3143
止	-7.31954
者也	-7.32093
數	-7.32269
稱	-7.32382
无	-7.33062
官	-7.33495
變	-7.34166
意	-7.34485
安	-7.35108
魯	-7.36431
七	-7.3653
爾	-7.38064
終	-7.38454
說	-7.38515
且	-7.38667
不能	-7.38764
,	-7.39041
君子	-7.3955
卒	-7.39674
女	-7.40298
兩	-7.40485
善	-7.4081
志	-7.41612
隂	-7.42124
因	-7.4266
蓋	-7.42767
馬	-7.42878
南	-7.43989
舉	-7.441
車	-7.46088
親	-7.46346
東	-7.46361
八	-7.46363
治	-7.46595
辭	-7.47254
平	-7.47401
法	-7.47611
執	-7.47712
朝	-7.49802
木	-7.50178
世	-7.50506
夏	-7.5064
伯	-7.50924
天子	-7.52143
㑹	-7.52685
求	-7.52767
宋	-7.53364
聖人	-7.53534
節	-7.53834
問	-7.55015
常	-7.5565
疏	-7.5633
應	-7.5667
致	-7.56687
殺	-7.57044
父	-7.57325
宜	-7.57497
故曰	-7.57541
尊	-7.57559
過	-7.57643
直	-7.57818
西	-7.57834
定	-7.583
次	-7.5838
體	-7.58642
田	-7.59211
神	-7.59331
進	-7.60105
動	-7.60483
盡	-7.60484
而已	-7.61535
敬	-7.6181
屬	-7.61862
韻	-7.61965
惡	-7.61978
由	-7.62309
卦	-7.6259
門	-7.62915
家	-7.6299
衆	-7.63233
氣	-7.63699
彼	-7.64257
月	-7.64355
觀	-7.64374
升	-7.64726
亂	-7.64854
乾	-7.65204
固	-7.65315
元	-7.65788
和	-7.65945
各	-7.66006
信	-7.66057
令	-7.66188
死	-7.66818
是也	-7.6682
州	-7.67338
縣	-7.67394
告	-7.67489
順	-7.67607
春秋	-7.67819
侯	-7.67927
風	-7.67933
剛	-7.68457
制	-7.69043
力	-7.69411
喪	-7.69546
比	-7.69564
天下	-7.69598
之事	-7.69879
吉	-7.70003
難	-7.70434
利	-7.70504
德	-7.70785
章	-7.70814
身	-7.70973
十	-7.70999
思	-7.71576
土	-7.71766
學	-7.71874
興	-7.72938
失	-7.73142
衣	-7.7334
但	-7.73534
離	-7.74726
北	-7.74901
火	-7.75378
異	-7.75408
如此	-7.75455
伐	-7.75894
解	-7.75912
城	-7.76374
)○	-7.76515
釋	-7.76617
獻	-7.76668
吾	-7.77009
引	-7.77416
設	-7.77447
衛	-7.77648
逺	-7.77747
尚	-7.7806
註	-7.78776
發	-7.79727
似	-7.80276
髙	-7.80423
仁	-7.80445
左	-7.80554
好	-7.80596
年	-7.8117
論	-7.81569
加	-7.81663
尸	-7.81742
近	-7.81873
之時	-7.82232
主人	-7.82336
盖	-7.82391
降	-7.82638
武	-7.82867
極	-7.82952
益	-7.8346
之意	-7.8346
足	-7.83482
可以	-7.83616
請	-7.83778
政	-7.83919
首	-7.83945
獨	-7.84366
柔	-7.85022
漢	-7.85196
指	-7.85483
而後	-7.85622
少	-7.85682
之義	-7.85795
葢	-7.85849
疑	-7.8608
魚	-7.86404
序	-7.86846
不得	-7.87383
載	-7.87477
交	-7.87617
之道	-7.87623
深	-7.87636
宗	-7.87645
守	-7.87699
白	-7.87919
賔	-7.88459
理	-7.88652
宫	-7.88798
也又	-7.89258
視	-7.89908
度	-7.9028
往	-7.91113
語	-7.91662
聞	-7.91679
兵	-7.917
春	-7.91933
盛	-7.92812
射	-7.93372
爵	-7.93374
備	-7.93525
餘	-7.94013
邑	-7.9406
功	-7.94369
等	-7.94419
適	-7.94501
賓	-7.94641
帝	-7.94776
石	-7.94935
亡	-7.95227
就	-7.95709
莫	-7.95979
金	-7.96244
徒	-7.96337
廣	-7.96513
。	-7.96677
别	-7.96838
玉	-7.97035
母	-7.97161
起	-7.97201
坤	-7.97724
據	-7.97733
疾	-7.98226
右	-7.98348
甚	-7.98511
並	-7.98629
盟	-7.98657
共	-7.98985
著	-7.99006
美	-7.99065
按	-7.99124
祀	-7.99318
唯	-7.99348
孔子	-7.9955
口	-7.99842
都	-7.9992
罪	-8.001
夷	-8.00461
百	-8.01178
教	-8.01353
黄	-8.01678
人之	-8.01862
周公	-8.01925
拜	-8.01943
切音	-8.02109
文王	-8.02268
更	-8.02355
賢	-8.03045
容	-8.03262
器	-8.03401
間	-8.03775
篇	-8.03948
不知	-8.04014
斯	-8.04172
秦	-8.04192
兮	-8.04204
葬	-8.04702
滅	-8.04951
許	-8.05034
要	-8.05069
婦	-8.0509
豈	-8.05187
謀	-8.05188
从	-8.05351
便	-8.0567
震	-8.058
酒	-8.06201
卿	-8.06807
逆	-8.06935
養	-8.07178
記	-8.07236
他	-8.07283
刑	-8.07689
商	-8.07699
之象	-8.07866
祖	-8.08097
己	-8.08219
秋	-8.08434
昭	-8.08559
廟	-8.08729
色	-8.08787
張	-8.09263
掌	-8.09444
説文	-8.09625
之所	-8.09701
丘	-8.09758
胡	-8.10399
新	-8.10608
是以	-8.10747
承	-8.11008
室	-8.11236
考	-8.11328
案	-8.11343
澤	-8.11376
河	-8.11597
聖	-8.1161
牛	-8.1198
天地	-8.13041
流	-8.13808
不言	-8.13825
史	-8.14024
戒	-8.1409
類	-8.14135
之禮	-8.14552
遇	-8.1461
克	-8.14757
奉	-8.14773
辟	-8.15057
具	-8.15361
目	-8.15439
凶	-8.15531
賦	-8.1558
殷	-8.15847
兼	-8.15935
孔	-8.16785
之後	-8.16896
改	-8.17126
小人	-8.17422
封	-8.17488
叔	-8.17602
對	-8.17642
太	-8.18154
退	-8.18169
布	-8.18593
貌	-8.18862
濟	-8.18866
全	-8.18872
也故	-8.1921
冬	-8.19223
職	-8.19571
至於	-8.19725
臨	-8.19836
俱	-8.19961
施	-8.2014
任	-8.20194
夫人	-8.20251
厚	-8.20281
司	-8.20367
存	-8.20572
陵	-8.20671
哀	-8.20684
不敢	-8.2072
敗	-8.2077
貴	-8.20959
角	-8.21141
汝	-8.21209
虞	-8.21557
舊	-8.21742
私	-8.21923
然後	-8.22264
燕	-8.22438
訓	-8.22553
冠	-8.22728
紀	-8.22808
龍	-8.22891
隨	-8.22966
憂	-8.23016
原	-8.23261
誠	-8.23332
老	-8.23407
還	-8.23532
性	-8.23737
周禮	-8.23893
戰	-8.23973
納	-8.24227
化	-8.24319
修	-8.24814
軍	-8.24915
華	-8.25654
祝	-8.2601
弗	-8.26045
儀	-8.26118
介	-8.26904
特	-8.27132
清	-8.27147
情	-8.27161
其所	-8.27402
廢	-8.27457
絶	-8.27483
巽	-8.27688
革	-8.27939
詳	-8.28213
嘗	-8.28331
集韻	-8.28455
旅	-8.28926
御	-8.28996
三年	-8.29092
唐	-8.29365
望	-8.29396
依	-8.29532
歌	-8.29547
微	-8.29573
公子	-8.29932
坐	-8.2996
萬	-8.30039
星	-8.30061
亨	-8.30072
孝	-8.30144
鼓	-8.30262
坎	-8.30273
輕	-8.30705
曲	-8.30866
享	-8.30884
言之	-8.31114
􁏐	-8.31243
光	-8.32307
俗	-8.32409
上下	-8.32461
勞	-8.3252
形	-8.32712
置	-8.3336
孟子	-8.33462
予	-8.3362
貞	-8.33795
辨	-8.34132
律	-8.34215
圖	-8.3426
誤	-8.34507
畫	-8.34615
否	-8.34827
鼎	-8.35046
待	-8.35047
遷	-8.35125
除	-8.35222
再	-8.3535
席	-8.35354
向	-8.35803
戎	-8.35931
代	-8.36012
以其	-8.36146
繼	-8.363
羽	-8.36619
井	-8.36809
杜	-8.36824
期	-8.36871
雨	-8.36959
傷	-8.37012
句	-8.37072
林	-8.37181
蔡	-8.37231
草	-8.37308
質	-8.37318
乗	-8.37699
專	-8.37986
列	-8.38382
孫	-8.38407
半	-8.38469
后	-8.38533
江	-8.38655
推	-8.38669
卜	-8.38721
之間	-8.3877
鳥	-8.38896
申	-8.38966
危	-8.39677
息	-8.39894
卑	-8.39937
羊	-8.40035
衞	-8.4019
越	-8.40213
桓	-8.40283
厥	-8.40341
建	-8.40737
虚	-8.40786
之心	-8.40862
積	-8.40952
履	-8.41612
手	-8.42004
工	-8.42069
開	-8.42243
薦	-8.42245
授	-8.42584
仲	-8.43084
邪	-8.43248
者以	-8.43285
宣	-8.43506
府	-8.43663
曹	-8.43704
勝	-8.44104
不同	-8.44154
朱	-8.4421
舍	-8.44249
夫子	-8.44727
例	-8.4493
散	-8.44936
讀	-8.44982
音義	-8.45019
舜	-8.45106
禹	-8.45156
衰	-8.45179
旣	-8.45277
毛	-8.45521
會	-8.45597
鄉	-8.4564
怨	-8.45812
末	-8.45856
以下	-8.45949
須	-8.4604
簡	-8.46065
愛	-8.46085
强	-8.46167
豐	-8.4667
維	-8.46694
率	-8.46706
梁	-8.46775
爻	-8.47332
賜	-8.47569
庶	-8.47597
舞	-8.47644
十二	-8.47815
飲	-8.47834
為之	-8.48298
皇	-8.48425
恐	-8.48456
廣韻	-8.48603
有所	-8.48739
故云	-8.48791
嵗	-8.49413
郊	-8.49531
保	-8.49559
斷	-8.49931
邦	-8.4994
典	-8.501
羣	-8.5054
里	-8.50683
之中	-8.50714
總	-8.50726
陰	-8.5077
咸	-8.50943
又曰	-8.5116
病	-8.5144
良	-8.5156
路	-8.51601
吳	-8.51646
省	-8.52043
才	-8.52061
獲	-8.52098
之言	-8.52139
窮	-8.52216
達	-8.52302
徐	-8.52345
左傳	-8.52832
感	-8.52936
葉	-8.52972
救	-8.53086
畢	-8.53173
至于	-8.53266
險	-8.53346
奔	-8.53365
習	-8.53434
害	-8.53487
不以	-8.53626
只	-8.53678
兄弟	-8.53794
苦	-8.53931
高	-8.53938
堂	-8.54038
報	-8.54138
面	-8.54389
圍	-8.54423
威	-8.54643
牲	-8.5471
武王	-8.54975
薄	-8.55226
奏	-8.5524
說文	-8.5533
皮	-8.55463
艮	-8.55549
顯	-8.55789
恒	-8.55835
果	-8.56084
部	-8.56233
損	-8.5627
畏	-8.5643
聚	-8.56516
将	-8.57092
精	-8.57241
藏	-8.57264
尤	-8.57294
甲	-8.57411
赤	-8.5757
矢	-8.57734
也从	-8.57766
免	-8.57969
號	-8.58235
▁子	-8.58438
飾	-8.58918
何以	-8.58925
丨	-8.59113
乘	-8.59189
奠	-8.59252
謹	-8.59407
連	-8.59798
謙	-8.60034
天下之	-8.60142
附	-8.60255
喜	-8.60534
聘	-8.60598
野	-8.60937
嘉	-8.60975
而言	-8.61007
子曰	-8.61211
族	-8.61443
而無	-8.61496
示	-8.61665
闕	-8.6193
泰	-8.62381
不書	-8.6249
蒙	-8.6268
亦作	-8.63063
呼	-8.63319
象曰	-8.63375
必有	-8.63449
无咎	-8.63483
弓	-8.63617
刺	-8.63678
結	-8.63724
豫	-8.63753
權	-8.63845
或作	-8.64033
純	-8.64132
於此	-8.64246
司馬	-8.64374
占	-8.64478
畜	-8.64635
懼	-8.6475
父母	-8.6482
嚴	-8.65024
厲	-8.65033
之辭	-8.65065
不足	-8.65098
配	-8.65308
素	-8.65681
造	-8.65732
端	-8.65858
婦人	-8.66106
計	-8.6653
久	-8.66634
棄	-8.6669
然則	-8.66846
莊	-8.6689
一人	-8.66946
姑	-8.66968
遺	-8.67381
之説	-8.67449
弑	-8.67496
表	-8.67639
永	-8.67757
助	-8.67863
禁	-8.68438
頭	-8.68519
哭	-8.68649
隂陽	-8.6865
成王	-8.6868
青	-8.68723
責	-8.68858
扵	-8.68952
寧	-8.69073
無所	-8.69209
患	-8.69231
弟	-8.69244
漸	-8.69414
聽	-8.69481
竹	-8.6951
豆	-8.6973
困	-8.698
役	-8.69807
某	-8.69807
萬物	-8.69981
虎	-8.70049
雜	-8.70051
敵	-8.7017
靈	-8.70213
覆	-8.70451
宿	-8.70483
約	-8.70612
勿	-8.70692
䘮	-8.70827
襄	-8.70884
故也	-8.70942
討	-8.71003
肉	-8.71006
鳴	-8.71079
者謂	-8.71123
者皆	-8.71457
議	-8.71538
𫝊	-8.72366
弱	-8.72439
惠	-8.72458
朔	-8.7248
采	-8.72619
飛	-8.72676
卷	-8.72914
集	-8.73014
敢	-8.73248
李	-8.73361
統	-8.73443
持	-8.73539
違	-8.73549
貢	-8.7365
假	-8.73714
劉	-8.73733
叶	-8.7388
轉	-8.73929
姓	-8.74036
幾	-8.74084
之人	-8.74199
之法	-8.74324
差	-8.74511
注云	-8.74565
孟	-8.74766
於是	-8.74769
左右	-8.74938
侵	-8.74991
忽	-8.75008
社	-8.75124
每	-8.75129
伏	-8.75151
式	-8.75162
屈	-8.75171
夜	-8.75252
来	-8.75275
召	-8.75395
龜	-8.75445
征	-8.75477
海	-8.75934
干	-8.76116
恭	-8.76128
客	-8.76254
齊侯	-8.76321
帥	-8.7654
災	-8.76978
并	-8.77088
徃	-8.77125
足以	-8.7717
孚	-8.77234
苟	-8.77271
最	-8.77384
放	-8.77398
俎	-8.77446
寒	-8.77492
則有	-8.77578
接	-8.77809
脩	-8.77815
▁象曰	-8.7787
慎	-8.77892
被	-8.77906
古文	-8.77908
垂	-8.78063
之地	-8.78434
參	-8.78456
户	-8.78699
管	-8.78706
登	-8.79092
幣	-8.79099
碑	-8.79187
湯	-8.79218
衡	-8.7939
徹	-8.79395
狄	-8.79496
景	-8.79585
言其	-8.79778
均	-8.79848
蒲	-8.79906
亦有	-8.80004
福	-8.80012
悔	-8.80064
丁	-8.80178
忠	-8.80267
其事	-8.80413
背	-8.80447
暴	-8.80462
弔	-8.80595
尺	-8.80663
未有	-8.8087
旁	-8.80873
種	-8.81132
□	-8.81219
念	-8.81355
雲	-8.81625
決	-8.81634
輔	-8.81685
皆有	-8.81751
盈	-8.81787
隱	-8.81876
▁人	-8.81888
崇	-8.82067
傳曰	-8.82146
不及	-8.82238
元年	-8.82334
細	-8.82432
先王	-8.82493
屋	-8.82548
後世	-8.82596
訟	-8.8275
季	-8.82835
一曰	-8.82966
之理	-8.8304
怒	-8.83579
送	-8.83647
友	-8.8392
業	-8.84309
詔	-8.84462
側	-8.8456
氏曰	-8.84606
不可以	-8.84701
桑	-8.84853
叛	-8.84933
富	-8.84979
移	-8.85019
左氏	-8.85204
帶	-8.85241
之類	-8.85319
折	-8.85319
妻	-8.85432
幽	-8.85643
誅	-8.85807
略	-8.85892
烏	-8.85934
慮	-8.8641
急	-8.86714
真	-8.86777
魏	-8.86785
歴	-8.86873
爾雅	-8.86975
也此	-8.86979
揚	-8.87
祭祀	-8.87192
可知	-8.87262
包	-8.87288
隠	-8.87375
追	-8.87588
禄	-8.87692
千	-8.87722
贊	-8.87955
三月	-8.88244
晉侯	-8.88244
補	-8.88494
日月	-8.88588
鄭伯	-8.8877
禍	-8.8887
肆	-8.88877
昏	-8.89095
而為	-8.89155
雷	-8.89201
酌	-8.89268
况	-8.89659
也然	-8.89717
辰	-8.89941
勢	-8.904
襲	-8.90434
犯	-8.90436
呉	-8.90513
察	-8.90532
耕	-8.907
賤	-8.91132
郡	-8.91139
顧	-8.912
堯	-8.91401
史記	-8.9154
録	-8.91672
述	-8.91878
只是	-8.92017
淫	-8.92119
圭	-8.92148
獸	-8.92262
智	-8.92308
妄	-8.92413
休	-8.92572
黨	-8.92576
識	-8.92691
君之	-8.92692
孤	-8.92763
量	-8.92844
其君	-8.9285
錯	-8.92911
陸	-8.92914
桓公	-8.93024
繫	-8.93102
了	-8.93111
愚	-8.93641
學者	-8.93659
爭	-8.93795
尾	-8.93849
四方	-8.94116
何也	-8.9443
即位	-8.94438
兄	-8.94544
男	-8.94545
蔽	-8.9489
市	-8.94934
用之	-8.95023
昌	-8.95051
空	-8.95082
麻	-8.95089
防	-8.95227
歟	-8.95259
二年	-8.95301
也若	-8.95331
昔	-8.95332
迎	-8.95408
巳	-8.95646
則是	-8.95834
二十	-8.95933
務	-8.96042
僖	-8.96165
諸侯之	-8.96229
宮	-8.96271
横	-8.9639
中國	-8.96502
堅	-8.96556
耶	-8.96671
故以	-8.96726
禘	-8.96861
財	-8.96906
逐	-8.96973
之子	-8.97047
九五	-8.9707
在上	-8.97151
不見	-8.97159
仍	-8.97184
負	-8.97355
去聲	-8.9742
味	-8.97486
而有	-8.97518
余	-8.97807
調	-8.98013
北面	-8.98196
泉	-8.982
齊人	-8.98255
則不	-8.98441
偏	-8.98518
忘	-8.98708
▁右	-8.9881
速	-8.98973
川	-8.98992
勤	-8.99036
不必	-8.9907
絲	-8.99254
條	-8.99337
庸	-8.99541
之數	-8.99841
留	-8.99853
之上	-8.99874
饗	-8.99954
榖	-9.00056
輿	-9.00197
道也	-9.00386
擇	-9.00493
未嘗	-9.00497
胥	-9.00613
之功	-9.0074
齒	-9.00836
讓	-9.01142
牧	-9.01205
荒	-9.01215
雍	-9.01244
趨	-9.01252
之屬	-9.01303
農	-9.01392
懐	-9.01653
避	-9.01762
遯	-9.0185
恩	-9.01915
穀	-9.01964
妾	-9.02311
宰	-9.0233
博	-9.02415
格	-9.02417
筮	-9.02438
朱子	-9.02473
也夫	-9.02512
抑	-9.02815
不與	-9.02818
匪	-9.02992
皆以	-9.03119
此言	-9.03175
雅	-9.03219
之名	-9.03613
文公	-9.0364
塞	-9.03873
亦不	-9.03888
矣故	-9.03926
揖	-9.04173
慶	-9.04332
㣲	-9.04572
以此	-9.04669
逸	-9.04816
沈	-9.04968
乾坤	-9.05013
鬼神	-9.05047
愈	-9.05074
却	-9.05134
世子	-9.05144
吉凶	-9.0538
刻	-9.05453
喻	-9.05485
莒	-9.05491
底	-9.05601
宗廟	-9.05741
諱	-9.05748
錫	-9.06227
收	-9.06279
天之	-9.06449
敎	-9.06893
庭	-9.07028
者亦	-9.07214
民之	-9.07269
延	-9.07292
之位	-9.07468
監	-9.07552
其心	-9.07761
含	-9.07773
費	-9.07773
𤣥	-9.07837
寡	-9.07844
洗	-9.07849
譏	-9.08098
:	-9.08255
邾	-9.08352
蘇	-9.08507
趙	-9.08575
房	-9.0882
在下	-9.09094
漢書	-9.09216
不過	-9.09241
洛	-9.09463
攻	-9.09601
之下	-9.09663
壯	-9.09681
祥	-9.09729
不為	-9.09762
擊	-9.09807
歲	-9.09955
人君	-9.10192
禮也	-9.10356
温	-9.10367
通作	-9.10436
竒	-9.10471
有司	-9.10556
兊	-9.10796
互	-9.10834
楊	-9.10873
舒	-9.10948
九二	-9.10995
不當	-9.11059
毁	-9.11096
願	-9.112
斂	-9.11289
便是	-9.1129
國之	-9.11432
賁	-9.11539
嗣	-9.11599
宅	-9.11604
竟	-9.11696
▁欽定四庫全書	-9.11945
也今	-9.12046
禽	-9.12276
骨	-9.12294
舟	-9.12483
四時	-9.12486
厯	-9.1249
殊	-9.12554
孰	-9.12568
専	-9.1261
徴	-9.12657
之道也	-9.12809
豕	-9.12809
乆	-9.12874
楚子	-9.13
寛	-9.13102
韓	-9.13371
其義	-9.13466
君臣	-9.13761
鍾	-9.13824
黒	-9.1388
短	-9.13938
以爲	-9.14004
之徳	-9.14059
翼	-9.14062
不復	-9.14122
貶	-9.1417
谷	-9.14184
毋	-9.14195
一名	-9.14198
正月	-9.14224
公羊	-9.14234
證	-9.14261
勇	-9.14286
蟲	-9.14371
不然	-9.14461
畧	-9.14565
屯	-9.14619
委	-9.14783
悉	-9.14826
羞	-9.14876
資	-9.14933
裳	-9.15003
王之	-9.15088
嫁	-9.15107
貫	-9.15184
康	-9.15229
之說	-9.15265
六五	-9.15738
使之	-9.1575
切集韻	-9.15782
佐	-9.15794
寢	-9.15944
之故	-9.15961
靡	-9.16091
得其	-9.16095
熟	-9.161
取其	-9.16226
可謂	-9.16316
見其	-9.16334
階	-9.16335
十年	-9.16752
古者	-9.16757
勸	-9.1678
以見	-9.16965
則為	-9.1697
充	-9.16987
渠	-9.17089
審	-9.17093
以上	-9.17166
到	-9.1739
根	-9.17425
殿	-9.17442
旦	-9.17444
也一曰	-9.17472
知其	-9.17474
也言	-9.17548
禮記	-9.17786
上九	-9.17852
束	-9.17975
當時	-9.18112
皃	-9.18196
可見	-9.18239
杖	-9.18247
之外	-9.1825
頌	-9.18278
攝	-9.1828
血	-9.18307
兹	-9.18599
此章	-9.18621
甘	-9.18694
十一	-9.18747
賊	-9.18831
紂	-9.18873
兌	-9.18928
穆	-9.18951
禾	-9.19193
▁註曰	-9.19318
其實	-9.19542
諫	-9.19678
罔	-9.19724
貳	-9.19865
支	-9.19999
行之	-9.20203
之所以	-9.20206
鮮	-9.20381
五年	-9.20469
莊公	-9.20539
其位	-9.20649
扶	-9.20676
不用	-9.20721
樹	-9.2076
索	-9.2077
黍	-9.20858
吕	-9.2091
罰	-9.21071
不如	-9.21263
賈	-9.21292
二字	-9.21324
落	-9.21338
昭公	-9.21423
本作	-9.21647
雉	-9.21686
營	-9.21809
出於	-9.21839
從之	-9.21859
舎	-9.21881
其身	-9.21907
稍	-9.21985
辱	-9.2199
訖	-9.221
人心	-9.22116
伐鄭	-9.22135
材	-9.22295
班	-9.2248
如何	-9.22488
雖有	-9.22568
十六	-9.22569
𤼵	-9.22795
剥	-9.22858
▁○	-9.22877
稷	-9.23118
運	-9.23379
則其	-9.23399
仕	-9.23468
十五	-9.23574
循	-9.23752
戸	-9.23983
故為	-9.23987
天子之	-9.24076
強	-9.24186
使人	-9.24207
又集韻	-9.2422
游	-9.24267
夾	-9.2428
導	-9.24376
九三	-9.24397
為主	-9.24432
葛	-9.2449
甫	-9.24516
正義曰	-9.24545
鼔	-9.24826
不在	-9.2496
尹	-9.25145
竊	-9.25146
弦	-9.25175
米	-9.25443
咎	-9.25493
滿	-9.25525
眀	-9.25554
塗	-9.25716
禮樂	-9.25878
不相	-9.25969
五十	-9.26015
誰	-9.26023
京	-9.26054
几	-9.2614
下文	-9.26261
肅	-9.26287
淺	-9.26321
敦	-9.26333
僖公	-9.26351
楚人	-9.26381
郭	-9.26644
可也	-9.268
殯	-9.26808
卿大夫	-9.26892
九四	-9.26945
戴	-9.27006
杞	-9.2707
消	-9.27205
盟于	-9.27433
王者	-9.27751
尚書	-9.27757
係	-9.27758
看	-9.27824
僕	-9.27964
六二	-9.28054
崩	-9.28073
奪	-9.28116
彖	-9.28134
匹	-9.28257
鹿	-9.28294
恤	-9.28295
下同	-9.28296
又有	-9.28384
上六	-9.28568
詞	-9.28679
之謂	-9.28739
自然	-9.28753
閒	-9.28766
犬	-9.28828
源	-9.28865
事也	-9.28868
縱	-9.28869
厭	-9.28919
答	-9.28927
三十	-9.28984
協	-9.29042
剛柔	-9.29209
鬼	-9.29476
遠	-9.29662
躬	-9.29848
古人	-9.29853
故知	-9.29856
耦	-9.29883
需	-9.30002
行也	-9.3014
啓	-9.30193
而成	-9.30207
十三	-9.30229
周之	-9.3038
笑	-9.30463
六年	-9.3062
駕	-9.30954
無不	-9.30982
郎	-9.31007
照	-9.31027
者以其	-9.31128
泥	-9.31188
四年	-9.31422
賢者	-9.31634
衛侯	-9.3166
蠱	-9.31717
天命	-9.31971
彊	-9.31986
徵	-9.32017
偶	-9.32166
夕	-9.32214
七年	-9.32225
賞	-9.32253
為一	-9.32385
八卦	-9.32485
吝	-9.32533
此詩	-9.32547
之文	-9.32549
太子	-9.32563
姜	-9.32661
萃	-9.32848
不正	-9.32912
忌	-9.33044
庚	-9.33052
獄	-9.33216
臺	-9.33249
中正	-9.33265
牽	-9.3329
玉篇	-9.33359
貪	-9.33463
壇	-9.33666
冕	-9.3372
屨	-9.33795
各有	-9.33858
勉	-9.3396
振	-9.3417
麗	-9.34225
之初	-9.34264
效	-9.3427
密	-9.34336
▁傳	-9.3435
吏	-9.34393
上帝	-9.34399
君子之	-9.34444
至此	-9.34448
允	-9.34455
斗	-9.34597
境	-9.34629
中庸	-9.34639
綏	-9.34645
倫	-9.34726
之制	-9.34868
誓	-9.34881
其言	-9.34986
領	-9.3503
偽	-9.3506
累	-9.35121
懷	-9.35216
健	-9.35256
兆	-9.35267
走	-9.35288
子孫	-9.35313
棘	-9.35324
一日	-9.35396
出入	-9.35531
而下	-9.35582
關	-9.35696
所以為	-9.35835
又云	-9.36018
蕭	-9.36052
其道	-9.36139
同上	-9.3619
烝	-9.36255
者何	-9.3652
緩	-9.36566
公孫	-9.36705
校	-9.36766
之罪	-9.36779
徑	-9.36866
矣然	-9.36985
襄公	-9.3712
援	-9.37134
三日	-9.37197
或曰	-9.37254
幸	-9.37329
受命	-9.37402
而能	-9.37476
單	-9.37564
二人	-9.37574
俟	-9.37734
𦵏	-9.37874
逹	-9.37875
界	-9.37905
静	-9.38005
蹇	-9.38057
文武	-9.38082
聖人之	-9.38224
男女	-9.3838
其餘	-9.38479
及其	-9.38586
築	-9.38616
睽	-9.38632
、	-9.3864
初九	-9.38669
茅	-9.3877
渙	-9.38771
鄙	-9.39003
榮	-9.39055
社稷	-9.39141
變化	-9.39186
饌	-9.39214
季氏	-9.39229
候	-9.39285
山川	-9.39328
者非	-9.39329
之象也	-9.39384
雞	-9.39456
進退	-9.39545
縁	-9.39588
廬	-9.39629
彌	-9.39847
殺之	-9.39897
析	-9.40013
見於	-9.40073
祈	-9.40152
宋公	-9.40179
如是	-9.40186
惑	-9.40277
非也	-9.40324
況	-9.40463
羣臣	-9.40488
兑	-9.40626
靜	-9.4069
夢	-9.40725
藥	-9.40831
狐	-9.40878
冝	-9.40882
術	-9.41061
之於	-9.41067
浮	-9.41228
巾	-9.41252
其後	-9.41483
六三	-9.41508
百官	-9.41509
嫌	-9.41509
伊	-9.41587
▁凡	-9.41695
倚	-9.417
荆	-9.41727
書曰	-9.41741
寵	-9.41756
朋	-9.418
者為	-9.4183
衍	-9.41927
之詩	-9.42127
館	-9.42155
限	-9.42424
講	-9.42551
而行	-9.42589
天道	-9.42678
之義也	-9.42745
霸	-9.42774
藉	-9.42777
倍	-9.42944
入于	-9.43177
帥師	-9.43185
淵	-9.43201
編	-9.43374
虛	-9.43495
這	-9.43514
驕	-9.43709
僭	-9.43859
徧	-9.43872
故不	-9.43874
故言	-9.43977
鄰	-9.44023
盧	-9.44028
辯	-9.44055
百姓	-9.44119
義同	-9.44172
釋文	-9.44186
鄭氏曰	-9.44232
露	-9.44341
闗	-9.44433
詩曰	-9.44484
亦如之	-9.44522
儀禮	-9.44655
朱子曰	-9.44669
尋	-9.44687
穴	-9.44709
晦	-9.44716
取之	-9.4482
不足以	-9.44924
早	-9.44969
儒	-9.45029
譽	-9.45039
回	-9.45079
招	-9.45154
之際	-9.45215
程	-9.45318
者言	-9.45367
鄭氏	-9.45421
欲其	-9.45427
侍	-9.45524
王命	-9.45605
歩	-9.45611
然而	-9.45775
則知	-9.45873
戚	-9.45957
决	-9.45979
借	-9.46041
步	-9.46055
之臣	-9.46214
諡	-9.4636
辛	-9.46708
之情	-9.46733
大功	-9.46787
繩	-9.46816
故有	-9.46918
之物	-9.46984
飲酒	-9.4703
九年	-9.47075
其國	-9.47295
國人	-9.47343
赴	-9.47375
七月	-9.47415
牢	-9.47431
叙	-9.47508
輪	-9.47664
鐘	-9.47696
飯	-9.47711
㫖	-9.47805
帛	-9.47857
巫	-9.479
大人	-9.479
為君	-9.48003
試	-9.48009
西南	-9.48125
仰	-9.48127
削	-9.48181
池	-9.482
聴	-9.48231
奚	-9.48271
故謂之	-9.48315
續	-9.48362
而不能	-9.48455
遣	-9.48459
歳	-9.48478
笙	-9.48568
慢	-9.48571
其徳	-9.48584
者不	-9.48624
庶子	-9.4867
内外	-9.49069
黑	-9.49089
之喪	-9.49286
歎	-9.4931
之極	-9.49312
道之	-9.494
竝	-9.49405
而又	-9.49411
易之	-9.49451
則以	-9.49462
旗	-9.49534
▁秋	-9.49596
箋	-9.49738
薨	-9.49909
戍	-9.50011
其中	-9.50059
其意	-9.50106
遽	-9.50109
如字	-9.50138
周官	-9.50191
篤	-9.50337
佩	-9.50402
十二月	-9.50423
墓	-9.50522
貨	-9.50554
與之	-9.50635
晉人	-9.50681
上文	-9.50751
繁	-9.50762
破	-9.50803
疆	-9.50915
撰	-9.5103
皆是	-9.51238
者必	-9.51246
恥	-9.51309
孔氏曰	-9.51355
育	-9.51366
九月	-9.51373
莫不	-9.51398
香	-9.51478
皇帝	-9.51583
也凡	-9.51587
棺	-9.51589
東北	-9.51651
裘	-9.5167
黃	-9.51802
其志	-9.51869
五月	-9.51886
之服	-9.51886
隆	-9.51916
掩	-9.52103
正也	-9.52112
麥	-9.52139
▁公	-9.5216
物之	-9.52198
符	-9.52264
把	-9.52291
八年	-9.52381
謝	-9.52459
覺	-9.52463
旋	-9.52517
寳	-9.52579
給	-9.52622
貞吉	-9.52635
▁王	-9.52654
大國	-9.52691
月令	-9.52717
對曰	-9.52847
敷	-9.52892
詩云	-9.52918
幹	-9.52997
淮	-9.52999
有功	-9.53171
受之	-9.53177
動而	-9.53184
茍	-9.53206
没	-9.53349
古之	-9.53444
二月	-9.53455
先生	-9.53484
陶	-9.53503
▁「	-9.53506
寸	-9.53566
悦	-9.53722
朕	-9.53766
之君	-9.53799
之始	-9.53854
䇿	-9.53864
事之	-9.53887
以待	-9.53938
牙	-9.53943
璧	-9.53947
六四	-9.53983
増	-9.54046
六爻	-9.54171
玄	-9.54204
程子	-9.54219
夬	-9.5427
六十	-9.54517
司徒	-9.54545
亦以	-9.54594
相應	-9.54691
倉	-9.54708
五行	-9.54805
於上	-9.54953
之日	-9.54972
以正	-9.54978
之用	-9.54979
粟	-9.5503
啟	-9.55127
敖	-9.5514
稽	-9.55147
也云	-9.55209
出奔	-9.55265
丑	-9.55435
文一	-9.55489
▁夫	-9.55495
戾	-9.55501
儉	-9.55505
論語	-9.55559
其子	-9.55578
再拜	-9.5559
虐	-9.55594
醴	-9.55643
迹	-9.55796
小國	-9.55854
閏	-9.55857
禦	-9.55932
唐韻	-9.55942
東南	-9.561
亦曰	-9.56153
閔	-9.5619
潔	-9.56511
娶	-9.56669
託	-9.56699
其罪	-9.56701
人也	-9.56819
黎	-9.56961
下有	-9.56973
東西	-9.57072
逃	-9.57082
遊	-9.57189
斬	-9.57384
曽	-9.5741
尊卑	-9.57623
草木	-9.57688
怠	-9.57731
有孚	-9.57802
天地之	-9.57941
十八	-9.57974
於外	-9.57975
六月	-9.58034
者有	-9.58052
幼	-9.58152
夀	-9.58172
缺	-9.58262
毒	-9.58342
宻	-9.58402
圓	-9.5843
傅	-9.58438
八月	-9.58653
可知矣	-9.58657
旱	-9.58676
環	-9.58824
腹	-9.5891
栗	-9.59049
宣公	-9.59136
攸	-9.59294
而得	-9.59428
十四	-9.5943
之世	-9.59443
失其	-9.59493
以明	-9.59521
范	-9.59595
不待	-9.59624
潛	-9.59647
亢	-9.5966
不從	-9.5972
第	-9.5985
拘	-9.59874
蕩	-9.59876
在外	-9.59926
是故	-9.59989
陷	-9.6003
明矣	-9.60083
十月	-9.60173
繹	-9.60224
飲食	-9.60302
刀	-9.60321
甸	-9.60324
曉	-9.60452
南面	-9.60589
俾	-9.60595
烈	-9.60644
祠	-9.60745
東方	-9.60822
機	-9.60886
仲尼	-9.6093
徙	-9.61016
契	-9.61078
馮	-9.61211
而不知	-9.61214
本義	-9.61217
利貞	-9.61246
撫	-9.61286
以自	-9.61408
午	-9.61409
三百	-9.61457
於人	-9.61468
争	-9.61508
焚	-9.61539
墨	-9.61567
賛	-9.61606
程子曰	-9.6168
之盟	-9.61719
后稷	-9.61853
磬	-9.6187
不忍	-9.61874
而立	-9.6205
牀	-9.62179
之實	-9.62217
旌	-9.62218
不善	-9.62223
姤	-9.62257
枝	-9.62282
為大	-9.62424
是為	-9.62472
煩	-9.62569
一陽	-9.6258
玩	-9.62588
如初	-9.62593
䟽	-9.62678
殆	-9.62697
又音	-9.62798
晋	-9.62823
甚矣	-9.62826
忍	-9.62895
秉	-9.62917
之内	-9.62949
夫婦	-9.62986
罷	-9.63153
閑	-9.63183
脱	-9.63201
鑿	-9.63211
乙	-9.63265
恃	-9.6327
規	-9.6337
也然則	-9.63439
三章	-9.6347
孔子曰	-9.63475
不至	-9.63488
之主	-9.6349
之前	-9.63498
丹	-9.63539
伊尹	-9.63627
蕃	-9.63629
漆	-9.63688
祔	-9.63716
父子	-9.63754
預	-9.63764
子路	-9.63843
突	-9.63943
豈不	-9.63964
知之	-9.64022
不行	-9.64046
展	-9.6422
人所	-9.64231
切說文	-9.64287
大臣	-9.64292
筵	-9.64301
肥	-9.64585
而已矣	-9.64591
初六	-9.64618
自是	-9.6468
減	-9.64762
天理	-9.64809
酬	-9.64858
者則	-9.6492
命之	-9.64929
較	-9.64939
主婦	-9.64988
當作	-9.65022
慈	-9.65066
上有	-9.65108
巧	-9.65229
大事	-9.65337
之大	-9.6534
隔	-9.65422
王室	-9.65441
不失	-9.65473
傳云	-9.65481
巢	-9.65485
弟子	-9.65597
鳩	-9.65831
沒	-9.65844
賂	-9.65844
菜	-9.65847
遲	-9.65868
釐	-9.65989
柩	-9.66
國君	-9.66068
昧	-9.66068
弁	-9.66073
選	-9.66125
此則	-9.66157
之志	-9.66199
頤	-9.66279
朋友	-9.66285
距	-9.66374
之德	-9.66407
姬	-9.66474
得之	-9.66504
副	-9.66642
亭	-9.66838
練	-9.66838
先儒	-9.6689
童	-9.67025
所當	-9.6716
百里	-9.67224
西面	-9.67333
驗	-9.67386
文王之	-9.67404
大過	-9.67427
之氣	-9.67495
蓍	-9.67544
的	-9.67628
那	-9.67728
其地	-9.6776
誘	-9.67811
段	-9.67812
薛	-9.67943
未必	-9.68022
於天	-9.68065
▁侯	-9.68121
而出	-9.68153
驅	-9.68276
无所	-9.68323
未能	-9.68392
沙	-9.6841
之㑹	-9.68643
疏曰	-9.68653
在位	-9.68722
東面	-9.6877
相與	-9.68923
鄭云	-9.68924
切又	-9.68954
韋	-9.69044
也或作	-9.69159
踊	-9.69207
邦國	-9.69274
齊桓	-9.6928
小功	-9.69345
以成	-9.69361
矜	-9.69587
三公	-9.69709
嗟	-9.6971
亦可	-9.69784
朝服	-9.69801
男子	-9.69805
宣王	-9.69809
▁案	-9.69997
偃	-9.70112
以求	-9.70144
而无	-9.70148
究	-9.70286
做	-9.70376
則無	-9.70387
匡	-9.70393
一章	-9.70514
貝	-9.70579
従	-9.70665
迷	-9.70699
妃	-9.70708
羅	-9.70743
蜀	-9.70755
悲	-9.70801
之事也	-9.70889
之樂	-9.70996
其辭	-9.71033
不出	-9.71114
痛	-9.71174
又姓	-9.71196
▁夏	-9.71197
屏	-9.71211
孔氏	-9.71269
曾	-9.71289
丈	-9.71348
濁	-9.71391
而復	-9.71479
地名	-9.71503
之使	-9.71592
基	-9.71644
十七	-9.71674
傾	-9.71759
祗	-9.71835
盜	-9.71871
邊	-9.71897
仁義	-9.71926
國家	-9.7202
稱人	-9.72066
柄	-9.7213
貧	-9.72155
供	-9.72229
赦	-9.72296
有餘	-9.72302
吴	-9.72309
二章	-9.72423
亦是	-9.72449
以禮	-9.72551
銘	-9.72573
怪	-9.72643
乾之	-9.72658
西北	-9.72758
故書	-9.72829
四月	-9.72956
普	-9.7299
巨	-9.73025
有罪	-9.73038
笄	-9.7306
毎	-9.73078
不應	-9.73268
之國	-9.73331
〇	-9.7339
曷	-9.73421
十五年	-9.73466
京師	-9.73522
莊子	-9.73548
祼	-9.73585
牆	-9.7362
又以	-9.737
者其	-9.7374
股	-9.73741
尊者	-9.74168
錄	-9.742
姦	-9.74236
箇	-9.74252
狂	-9.7436
豹	-9.74385
庶人	-9.74448
之命	-9.7445
操	-9.74537
膚	-9.74567
鹽	-9.7459
威儀	-9.7464
以來	-9.74744
酢	-9.74787
大學	-9.74811
同姓	-9.74981
孔疏	-9.75073
胡氏	-9.75091
猶有	-9.75106
苗	-9.7512
禹貢	-9.7513
有事	-9.75264
遵	-9.75265
來聘	-9.75283
來朝	-9.75291
踐	-9.75296
以示	-9.75308
閉	-9.7536
桃	-9.75449
也故曰	-9.75507
琴	-9.75546
▁撰	-9.75638
子之	-9.75681
宋人	-9.7569
明堂	-9.75712
辭也	-9.75715
踰	-9.75723
糾	-9.75746
故能	-9.75758
物也	-9.75902
優	-9.75915
亦無	-9.75922
齋	-9.75924
徽	-9.75928
門外	-9.76087
觧	-9.76107
召公	-9.76116
觶	-9.76186
十一年	-9.76252
切説文	-9.76252
求之	-9.76341
㢲	-9.76341
邢	-9.7645
十一月	-9.76473
憲	-9.76485
衣服	-9.76519
祫	-9.76531
渉	-9.76628
禮之	-9.76628
絃	-9.76655
饋	-9.76661
人情	-9.76662
▁按	-9.76674
前後	-9.76717
旬	-9.7672
縮	-9.76901
壽	-9.76998
弑君	-9.77061
詣	-9.77065
閭	-9.77089
不合	-9.77244
僅	-9.77247
括	-9.77341
植	-9.77404
籍	-9.7744
故其	-9.77467
頒	-9.77501
大夫士	-9.7764
不明	-9.77769
不成	-9.7783
戈	-9.7791
▁子曰	-9.77985
見之	-9.78258
薪	-9.78528
寅	-9.78625
愚按	-9.78628
絰	-9.78639
贈	-9.78712
竭	-9.78759
使者	-9.78855
觀之	-9.78885
弊	-9.78907
於下	-9.78934
滑	-9.78971
俗作	-9.78993
矣此	-9.79037
屢	-9.79045
之變	-9.7908
妙	-9.79099
其説	-9.79269
仇	-9.79326
正義	-9.79387
慕	-9.79602
之處	-9.79614
狩	-9.7963
吉也	-9.79642
策	-9.79707
冰	-9.79739
有常	-9.79797
阿	-9.79832
自有	-9.79858
貎	-9.799
以告	-9.80016
謬	-9.80069
瀆	-9.80085
者蓋	-9.8011
義也	-9.80178
必以	-9.80179
媵	-9.80243
黍稷	-9.80255
▁冬	-9.80325
遭	-9.80328
欺	-9.80352
囚	-9.805
袒	-9.80596
翟	-9.806
敝	-9.80632
顔	-9.80716
增	-9.80735
安得	-9.80744
之官	-9.80756
英	-9.8082
如晉	-9.80978
舅	-9.81027
詩人	-9.81039
涉	-9.81045
之士	-9.81098
榖梁	-9.81103
暗	-9.81217
十三年	-9.81293
播	-9.81316
與其	-9.81356
未濟	-9.81357
䝉	-9.81482
戮	-9.81499
其民	-9.81575
題	-9.81672
成公	-9.81724
品	-9.8173
岐	-9.81786
荀	-9.81877
滕	-9.81897
以象	-9.81979
其人	-9.81981
二五	-9.82012
蒼	-9.82051
吹	-9.82078
四海	-9.82224
又作	-9.82237
染	-9.82301
爰	-9.82321
幅	-9.82359
斥	-9.82359
于此	-9.82403
則必	-9.82433
治之	-9.82459
先君	-9.82486
君子以	-9.82533
七十	-9.82591
醢	-9.82596
西方	-9.82661
服之	-9.82695
萌	-9.82819
膳	-9.8288
翻	-9.82959
今之	-9.8307
算	-9.83128
也文一	-9.8318
徳之	-9.83196
熊	-9.83233
其名	-9.83271
茂	-9.83318
歸于	-9.83367
因其	-9.83379
擯	-9.83546
臭	-9.83553
者此	-9.8356
錢	-9.83577
堯舜	-9.83666
沃	-9.83697
詐	-9.83728
軌	-9.83766
不欲	-9.83792
瑞	-9.83803
无妄	-9.83879
同人	-9.83921
阻	-9.8401
剝	-9.84019
生於	-9.84039
畝	-9.84066
後人	-9.84068
艾	-9.84097
不稱	-9.8411
懲	-9.84155
非禮	-9.84166
牡	-9.842
十九	-9.84203
荅	-9.84363
穿	-9.8441
冬至	-9.84444
在此	-9.84509
書之	-9.8455
時也	-9.84581
黄鍾	-9.84586
壊	-9.84644
項	-9.84822
萬民	-9.84828
醜	-9.84859
併	-9.8486
寄	-9.84899
也蓋	-9.84916
千里	-9.84948
嫡	-9.84957
十四年	-9.84985
侈	-9.85014
其上	-9.85048
迫	-9.85076
挾	-9.85076
先後	-9.85116
君命	-9.8512
臧	-9.85131
豈有	-9.85157
髪	-9.85164
藝	-9.85206
何也曰	-9.85302
㡬	-9.85444
先王之	-9.85483
所言	-9.8558
提	-9.85627
輕重	-9.85659
昬	-9.8567
孝子	-9.85671
而不可	-9.85765
灌	-9.85766
天王	-9.85781
陟	-9.85805
之正	-9.85816
秩	-9.85855
割	-9.85889
固有	-9.85902
悖	-9.85903
大抵	-9.85908
瑟	-9.85909
鼻	-9.85945
艱	-9.86025
不易	-9.86112
蠶	-9.86243
此亦	-9.86393
盤	-9.86421
之節	-9.86468
晝	-9.86487
雩	-9.86593
奄	-9.86644
▁疏	-9.86671
誥	-9.86724
隋	-9.86728
寜	-9.86742
故受之以	-9.86792
宴	-9.8682
止於	-9.86862
則曰	-9.86931
税	-9.87002
乖	-9.87115
秀	-9.87123
猛	-9.87145
織	-9.87183
而止	-9.87265
瓦	-9.87289
三分	-9.87297
盥	-9.87308
▁宋	-9.87326
卦之	-9.87433
所用	-9.87448
遏	-9.87465
之本	-9.87479
壹	-9.87586
蛇	-9.87595
齊衰	-9.87611
其為	-9.8764
瑕	-9.87646
緯	-9.87654
之謂也	-9.8767
當為	-9.87694
亦然	-9.87747
壺	-9.87749
億	-9.87819
有二	-9.87845
所云	-9.87857
為善	-9.88022
不信	-9.88096
咨	-9.88111
失之	-9.88159
十二年	-9.8833
攷	-9.8843
不通	-9.88452
終始	-9.88557
不容	-9.88558
脅	-9.88614
▁注	-9.88809
忠信	-9.88899
▁正義曰	-9.88971
以後	-9.89047
貴賤	-9.89047
虢	-9.8905
觀其	-9.89059
溝	-9.89061
王制	-9.89108
溺	-9.89113
版	-9.89192
肺	-9.89264
異於	-9.89332
之役	-9.89369
寓	-9.89377
亥	-9.89421
徂	-9.89438
天子諸侯	-9.8955
禱	-9.89575
醉	-9.89629
死者	-9.89672
春王正月	-9.89692
芳	-9.89849
拒	-9.8985
祿	-9.89856
孟子曰	-9.899
遜	-9.89921
於君	-9.89933
女子	-9.89944
鄭注	-9.89996
如此則	-9.90089
考之	-9.90119
之意也	-9.90242
寶	-9.90346
注同	-9.90375
伸	-9.90434
也注	-9.90464
驚	-9.90586
籥	-9.9059
希	-9.90596
往來	-9.90619
柱	-9.90637
之職	-9.90651
冀	-9.9067
讒	-9.90692
倒	-9.90758
之學	-9.90899
鄭人	-9.90952
博雅	-9.90987
而自	-9.91035
祭之	-9.9108
懿	-9.91122
之體	-9.91156
言之則	-9.91192
大小	-9.91225
公之	-9.91291
臣子	-9.91295
準	-9.91452
若是	-9.9147
經文	-9.91551
一事	-9.91643
二十四	-9.91725
在内	-9.91739
投	-9.9174
則非	-9.91753
而生	-9.9181
伐之	-9.91818
奴	-9.91828
君也	-9.9183
仁者	-9.91874
陳氏曰	-9.9191
周人	-9.92067
歛	-9.92115
狀	-9.92243
不自	-9.92277
拂	-9.92326
肩	-9.924
而上	-9.92414
然也	-9.92502
為正	-9.92789
桀	-9.92866
歸之	-9.929
而未	-9.92977
跪	-9.93029
筆	-9.93044
殤	-9.93045
縫	-9.93058
魯之	-9.93091
之辭也	-9.93105
爼	-9.93122
一句	-9.93143
可知也	-9.9323
其文	-9.93237
吐	-9.93314
不食	-9.9334
頓	-9.93351
於天下	-9.93351
曰吾	-9.934
愚謂	-9.93417
不忘	-9.93446
溢	-9.93463
域	-9.93593
宇	-9.93634
曹伯	-9.93662
▁釋曰	-9.93769
奮	-9.93828
是時	-9.93904
▁正義鄭氏康成曰	-9.93936
凝	-9.93957
一也	-9.94059
或从	-9.94064
是謂	-9.94075
殘	-9.94076
歸妹	-9.9409
脊	-9.94108
無事	-9.94189
膏	-9.94194
讀為	-9.9421
雖不	-9.94275
卜筮	-9.94291
為人	-9.94299
而非	-9.94327
太極	-9.94386
亳	-9.94394
冒	-9.94409
舌	-9.94418
十六年	-9.94431
觸	-9.94496
未可	-9.94502
其功	-9.94569
不利	-9.94606
南北	-9.94661
㑹于	-9.94678
不勝	-9.94729
隅	-9.94747
止也	-9.94793
潰	-9.94799
季孫	-9.94873
不可不	-9.94877
其時	-9.94949
陳氏	-9.95049
為政	-9.95049
灋	-9.95131
至是	-9.95188
圜	-9.95213
趾	-9.95226
二陽	-9.9523
其間	-9.9527
綱	-9.95317
籩	-9.95383
中孚	-9.95452
乞	-9.95506
翰	-9.95538
墮	-9.95604
反又	-9.95668
喪服	-9.95697
有此	-9.95764
杜注	-9.95852
亦非	-9.95866
其本	-9.95892
道理	-9.95916
古今	-9.95938
以致	-9.95969
小子	-9.95983
郷	-9.95987
二子	-9.96139
上聲	-9.96272
小過	-9.96299
拊	-9.96394
必先	-9.96396
伍	-9.96404
事君	-9.96491
則亦	-9.96503
忿	-9.96504
其禮	-9.96561
俊	-9.96592
以至	-9.96593
而歸	-9.966
推之	-9.96631
非禮也	-9.96649
其情	-9.9667
繫辭	-9.9671
際	-9.96748
賀	-9.9676
在於	-9.96819
哲	-9.96824
不服	-9.96956
呂	-9.9696
爻辭	-9.96964
湖	-9.96998
大射	-9.97005
釁	-9.97057
主於	-9.9708
纓	-9.97117
髮	-9.97162
亟	-9.97168
恵	-9.97177
賔客	-9.9719
▁春秋	-9.97246
食之	-9.97374
扈	-9.97381
于天	-9.97427
昆弟	-9.97442
鬯	-9.97451
鬱	-9.97452
嗚呼	-9.97465
輒	-9.97546
萊	-9.97597
如齊	-9.9764
邇	-9.97725
鎮	-9.97794
敏	-9.97835
聞之	-9.9787
堂上	-9.97908
懸	-9.98059
稅	-9.9806
董	-9.9808
大有	-9.98089
誣	-9.98105
何為	-9.98107
執事	-9.98115
去其	-9.98143
宥	-9.98284
睦	-9.98374
雄	-9.98515
潤	-9.98531
堂下	-9.98588
者乎	-9.98592
之難	-9.98699
壞	-9.98712
賴	-9.98712
擾	-9.98757
燭	-9.98858
苞	-9.9887
矣而	-9.98956
靈公	-9.98985
胡氏曰	-9.99026
少牢	-9.9921
黄帝	-9.99259
裏	-9.99277
乂	-9.993
氷	-9.99345
脯	-9.99385
隂柔	-9.99395
水火	-9.9947
戒之	-9.99655
既濟	-9.99732
穀梁	-9.99786
善也	-9.99792
濫	-9.99891
上同	-9.99913
邱	-9.99914
之至	-9.99959
豳	-9.9998
脫	-10.0003
四十	-10.0004
花	-10.0005
大也	-10.0008
岳	-10.0009
逢	-10.001
人之所	-10.0023
卿士	-10.0027
混	-10.0028
抗	-10.0033
欽	-10.0034
不盡	-10.0039
子貢	-10.0039
醫	-10.0039
立于	-10.0043
訛	-10.0046
叔孫	-10.0048
頥	-10.0049
人以	-10.0062
一隂	-10.0063
鄫	-10.0063
韻㑹	-10.0067
聖賢	-10.0067
獵	-10.0085
婁	-10.0085
王氏	-10.0087
或以	-10.0088
弑其君	-10.0098
教之	-10.0109
整	-10.0109
行事	-10.0114
武公	-10.0118
擬	-10.0121
𢎞	-10.0122
中有	-10.0124
神明	-10.0127
恕	-10.0128
緦	-10.0133
人皆	-10.0133
搏	-10.0134
元吉	-10.014
▁能	-10.0151
帷	-10.0159
司空	-10.0162
綴	-10.0166
篚	-10.0168
二十五	-10.0174
声	-10.0175
法也	-10.0178
員	-10.018
殽	-10.018
侑	-10.0184
陽氣	-10.0193
事而	-10.0195
饑	-10.0197
祧	-10.0197
箕	-10.0198
敘	-10.0227
至誠	-10.0229
为	-10.0246
春秋書	-10.0246
完	-10.0246
入於	-10.025
濡	-10.0253
有三	-10.0265
隕	-10.0276
則又	-10.0277
相似	-10.0286
逼	-10.0288
闢	-10.0302
愼	-10.0302
哀公	-10.0303
未詳	-10.031
矯	-10.0311
答拜	-10.0315
陳侯	-10.0317
稻	-10.0327
謨	-10.0332
該	-10.0333
之書	-10.0333
此皆	-10.0335
明夷	-10.0336
也從	-10.0337
狹	-10.0346
二者	-10.0347
黜	-10.0349
躍	-10.0359
亦當	-10.036
衞侯	-10.0365
創	-10.0367
左氏傳	-10.0367
其有	-10.0368
故稱	-10.038
暑	-10.0388
進而	-10.039
它	-10.0392
誦	-10.0403
未得	-10.0408
者案	-10.041
績	-10.0411
是非	-10.0444
羙	-10.0447
淳	-10.0466
之才	-10.0468
北方	-10.0468
平聲	-10.0474
父之	-10.0477
易曰	-10.0477
管仲	-10.0481
於其	-10.0481
測	-10.0493
皆不	-10.0498
逮	-10.0517
乎此	-10.0532
即是	-10.0534
荼	-10.054
始於	-10.0541
家人	-10.0543
蔡侯	-10.0545
噬	-10.0551
乎曰	-10.0553
警	-10.056
産	-10.0573
紫	-10.0574
朝廷	-10.0587
雪	-10.0588
繇	-10.0588
何如	-10.0592
卒哭	-10.0593
又何	-10.0605
致其	-10.0609
太祖	-10.061
鴻	-10.061
正應	-10.0614
酉	-10.0623
異也	-10.0623
之分	-10.063
四國	-10.065
不安	-10.0666
宛	-10.0668
于是	-10.0671
不宜	-10.0693
其德	-10.07
藻	-10.07
瓜	-10.0703
為義	-10.0706
周公之	-10.0708
鄧	-10.0713
匕	-10.0715
不入	-10.0717
未知	-10.0726
之行	-10.0727
頗	-10.0727
十八年	-10.0732
佞	-10.0735
皆在	-10.0735
行而	-10.0742
斧	-10.0743
第一	-10.0745
毫	-10.0745
之吉	-10.0753
先祖	-10.0761
恱	-10.0764
得中	-10.0766
之卦	-10.0774
之美	-10.0781
二句	-10.0785
九十	-10.0787
太甲	-10.0794
壤	-10.0801
剛中	-10.081
臯	-10.0811
奇	-10.0814
無道	-10.0824
佐食	-10.0829
二隂	-10.083
子男	-10.083
靖	-10.0841
之盛	-10.0848
經書	-10.0848
他人	-10.0852
賓客	-10.0866
軒	-10.0868
惕	-10.087
本又作	-10.0875
弋	-10.0883
郤	-10.0885
魯人	-10.0885
▁年	-10.0886
適子	-10.0887
錦	-10.0895
侮	-10.0899
讎	-10.09
抱	-10.0901
小畜	-10.0906
泛	-10.0908
板	-10.0912
嚮	-10.0913
鉤	-10.0913
之至也	-10.0914
相見	-10.092
不敬	-10.0931
區	-10.0933
記曰	-10.0935
益之	-10.0937
坤為	-10.0942
者是	-10.0943
裕	-10.096
嶽	-10.0963
禮義	-10.0975
一作	-10.0979
宗子	-10.0981
䑕	-10.0984
第二	-10.0991
數也	-10.0992
桐	-10.0993
執之	-10.0994
其可	-10.1004
不若	-10.1006
同盟	-10.1007
燕禮	-10.1015
小臣	-10.1016
其親	-10.1016
不已	-10.1022
之民	-10.1022
之性	-10.1034
僣	-10.1034
土地	-10.1036
大夫之	-10.1037
之長	-10.1042
摯	-10.1042
無罪	-10.1046
璋	-10.1046
特牲	-10.1047
壁	-10.1048
此爻	-10.1052
簋	-10.1054
噬嗑	-10.1057
陰陽	-10.1059
鴈	-10.1059
而致	-10.1059
猶言	-10.106
之失	-10.106
艸	-10.1066
裁	-10.107
園	-10.1072
三四	-10.1073
伏羲	-10.1073
溪	-10.1075
小雅	-10.1077
虧	-10.1081
明年	-10.1082
蠻	-10.1089
廉	-10.109
衛人	-10.1095
臯陶	-10.1103
賢人	-10.1105
乏	-10.1123
今日	-10.1124
一時	-10.1131
脂	-10.1133
伯姬	-10.1136
刃	-10.1138
判	-10.1139
又廣韻	-10.114
此篇	-10.1144
稼	-10.1158
譜	-10.1162
名也	-10.1164
十有二	-10.1165
禽獸	-10.1191
馳	-10.1193
。」	-10.1206
見得	-10.1211
鵠	-10.1216
者所以	-10.1217
不是	-10.1228
公㑹	-10.1229
杜氏曰	-10.1236
惡之	-10.1237
後漢	-10.124
釋曰	-10.1242
季子	-10.1248
非是	-10.1255
變而	-10.1261
河南	-10.1264
之序	-10.1265
之末	-10.1268
樂之	-10.128
即此	-10.1286
浸	-10.1291
則可	-10.1296
般	-10.1296
頃	-10.1298
媚	-10.1299
栁	-10.1301
穆公	-10.1318
別	-10.132
此是	-10.1327
此時	-10.1329
蘭	-10.133
畔	-10.133
定公	-10.1332
与	-10.1332
之形	-10.1334
水名	-10.1334
歡	-10.1338
長也	-10.1349
飽	-10.1349
汲	-10.135
惟其	-10.135
子産	-10.1358
莖	-10.1359
善惡	-10.136
勺	-10.1361
水出	-10.1368
以剛	-10.1369
渭	-10.1373
皮弁	-10.1376
戲	-10.1377
疏云	-10.1378
崔	-10.1384
成功	-10.1389
此説	-10.1392
之月	-10.1396
在天	-10.1401
今文	-10.1402
悔亡	-10.1403
於内	-10.1404
人者	-10.1404
髙祖	-10.1412
坎為	-10.1413
進也	-10.1414
則當	-10.1417
不息	-10.1421
以前	-10.1427
彰	-10.1427
居中	-10.1431
駟	-10.1434
明日	-10.1439
行人	-10.1439
紛	-10.1439
大壯	-10.1442
擅	-10.1443
洽	-10.145
荀子	-10.1457
去之	-10.1459
楚師	-10.1467
者也故	-10.1469
也詩	-10.1471
其數	-10.1472
而書	-10.1479
昭穆	-10.1493
腥	-10.1495
而入	-10.1497
津	-10.1499
三代	-10.1504
無窮	-10.1506
攘	-10.1508
奥	-10.1509
使民	-10.1511
譬	-10.1519
悟	-10.1526
十七年	-10.1534
截	-10.1534
之勢	-10.1541
狼	-10.1543
如之何	-10.1545
▁疏曰	-10.1553
滋	-10.1558
二百	-10.1558
所得	-10.1561
彭	-10.1568
也盖	-10.1576
壻	-10.1581
羮	-10.1592
公曰	-10.1596
南方	-10.1599
弼	-10.16
於民	-10.1601
大師	-10.1602
惠公	-10.1605
皆同	-10.1609
沮	-10.161
不仁	-10.1616
不免	-10.1617
洪	-10.1624
闇	-10.1631
黼	-10.1631
國語	-10.166
三人	-10.1663
盾	-10.1674
波	-10.1677
豈非	-10.1684
於齊	-10.1688
子思	-10.1689
坤之	-10.1691
楹	-10.1692
▁義	-10.1701
以行	-10.1705
灼	-10.1711
正韻	-10.1717
覲	-10.1723
蹈	-10.1729
伐宋	-10.1732
之師	-10.1736
地之	-10.1736
也君子	-10.1741
其理	-10.1748
比之	-10.1751
王氏曰	-10.1755
雙	-10.1761
晚	-10.1763
鄆	-10.1765
之禍	-10.1768
激	-10.1772
▁月	-10.1774
子夏	-10.1775
四人	-10.1794
輅	-10.1797
次之	-10.1798
箕子	-10.1799
所為	-10.18
而反	-10.1802
當以	-10.1805
曠	-10.1805
應之	-10.1808
司射	-10.181
曰此	-10.1819
鳥獸	-10.1822
鐵	-10.1824
晏	-10.1825
長子	-10.1829
珠	-10.183
出于	-10.184
猶未	-10.1844
夲	-10.1846
寇	-10.1848
人事	-10.1854
祐	-10.186
政事	-10.1865
礼	-10.1867
言語	-10.1869
信也	-10.1876
法度	-10.1877
王子	-10.188
中央	-10.1883
侯伯	-10.1885
荘	-10.1886
反下	-10.1886
冥	-10.1899
義理	-10.1914
棟	-10.1914
宰夫	-10.1915
躁	-10.1915
盗	-10.1917
魄	-10.1918
▁賦也	-10.1921
説文云	-10.1925
柔順	-10.1928
朝夕	-10.1933
圉	-10.1938
慝	-10.1946
成人	-10.1947
諸儒	-10.1947
或問	-10.195
其聲	-10.1961
水之	-10.1964
妹	-10.1967
梅	-10.1968
紹	-10.1969
無有	-10.197
服也	-10.1983
王肅	-10.1984
敬也	-10.1991
惜	-10.1993
飬	-10.1996
親親	-10.1996
冊	-10.1999
之徒	-10.2001
征伐	-10.2001
嬖	-10.2004
内則	-10.2007
▁又曰	-10.2008
檢	-10.2015
吕氏曰	-10.2016
組	-10.2018
▁本義	-10.2029
所在	-10.2031
反覆	-10.2034
買	-10.2038
者如	-10.2038
淮夷	-10.204
芻	-10.2042
三十六	-10.2047
立於	-10.2048
木名	-10.2053
周易	-10.2058
庻	-10.206
絳	-10.2061
而不敢	-10.2065
此經	-10.2071
者矣	-10.2071
之祭	-10.2075
也亦作	-10.2075
聘禮	-10.2077
箋云	-10.2079
平王	-10.2083
損益	-10.2088
牖	-10.2091
詳見	-10.2091
不肯	-10.2094
顛	-10.2096
萬世	-10.2096
註云	-10.2101
許之	-10.2106
一物	-10.211
燔	-10.211
丕	-10.2117
公羊傳	-10.2121
夷狄	-10.2122
則民	-10.2123
以事	-10.2123
藩	-10.2128
心之	-10.2129
三家	-10.213
若有	-10.2131
弓矢	-10.2132
者盖	-10.2133
欲以	-10.2138
之政	-10.2147
阜	-10.2148
未成	-10.2149
也音義	-10.2152
仲子	-10.2156
亦云	-10.2156
非謂	-10.216
非有	-10.2162
麟	-10.2173
方言	-10.2175
枚	-10.2179
大者	-10.2179
》	-10.2184
未聞	-10.2185
首章	-10.2186
異姓	-10.219
競	-10.2191
宫室	-10.2199
亞	-10.2204
云云	-10.2205
八十	-10.2209
曲禮	-10.2209
穫	-10.221
賵	-10.221
恨	-10.2216
人道	-10.2216
四章	-10.2227
髙宗	-10.2228
今人	-10.2229
明也	-10.2232
利有攸往	-10.2236
杜氏	-10.2241
二十七	-10.225
之神	-10.2251
非其	-10.2254
無射	-10.2257
將以	-10.2262
肯	-10.2263
漏	-10.2269
所生	-10.2273
俯	-10.2275
小大	-10.228
揲	-10.2282
巡	-10.2288
文子	-10.2293
斤	-10.2298
不變	-10.2306
可為	-10.232
是其	-10.2323
旂	-10.2325
禰	-10.2327
▁左傳	-10.2328
顔子	-10.2335
其能	-10.2338
1	-10.2341
集註	-10.2341
不克	-10.2346
在中	-10.2346
由是	-10.2348
陽剛	-10.2349
確	-10.2351
五帝	-10.2351
卽	-10.2355
其一	-10.2356
不知其	-10.2359
滯	-10.2359
己之	-10.2361
中也	-10.2361
則可以	-10.2364
祖廟	-10.2368
病也	-10.2372
馭	-10.2372
制度	-10.2378
拾	-10.2379
而知	-10.2381
付	-10.2385
丗	-10.2388
蔑	-10.2397
誕	-10.24
而動	-10.2402
大畜	-10.2404
泣	-10.2405
而為之	-10.2406
之餘	-10.2407
闔	-10.2407
轂	-10.2411
成也	-10.2419
㸃	-10.2423
小斂	-10.2429
親之	-10.2431
其所以	-10.2431
矛	-10.2431
命也	-10.2431
戰于	-10.2435
有不	-10.2435
非常	-10.2437
不能自	-10.2445
集傳	-10.2447
噐	-10.2449
祊	-10.2452
戌	-10.2454
軫	-10.2454
弧	-10.2455
衆人	-10.2456
程傳	-10.2458
元亨	-10.246
六十四卦	-10.246
嘆	-10.2465
一爻	-10.2467
於王	-10.247
行禮	-10.2474
娣	-10.2478
止之	-10.2478
在今	-10.2481
鸞	-10.2481
卦爻	-10.2481
陂	-10.2493
其性	-10.2494
之西	-10.2496
以時	-10.2498
中之	-10.25
▁十	-10.2506
▁鄭注	-10.2506
此所以	-10.2516
;	-10.2517
曽子	-10.2518
豈可	-10.2521
庶幾	-10.2523
贄	-10.2525
泰山	-10.2528
墜	-10.2528
垣	-10.2534
或有	-10.2535
緣	-10.2537
軍旅	-10.2546
魂	-10.2548
腊	-10.2548
督	-10.2548
而還	-10.2554
此以	-10.2555
世之	-10.256
莫之	-10.2569
考工記	-10.257
柴	-10.2572
象也	-10.2574
者乃	-10.2575
暮	-10.2576
旨	-10.2576
不義	-10.2579
文明	-10.258
西階	-10.2585
不順	-10.2586
取諸	-10.2591
親迎	-10.2598
者即	-10.2598
與人	-10.26
所載	-10.2608
擯者	-10.261
焉則	-10.2611
憚	-10.2611
渾	-10.2614
寘	-10.262
陋	-10.2629
羔	-10.2632
之貌	-10.2636
狗	-10.2638
囿	-10.2638
第三	-10.264
伐齊	-10.2649
成周	-10.266
于上	-10.2663
禫	-10.2668
讀如	-10.2669
無以	-10.2669
俞	-10.2676
熱	-10.2682
幕	-10.2685
蒸	-10.2688
章句	-10.269
日中	-10.2691
舅姑	-10.2691
之南	-10.2693
其說	-10.2696
小人之	-10.27
彖辭	-10.2701
無所不	-10.2702
注疏	-10.2705
也且	-10.2705
二切	-10.2708
圗	-10.2715
雀	-10.2721
可見矣	-10.2727
菑	-10.2727
其用	-10.2728
於是乎	-10.2732
下士	-10.2736
寡君	-10.2738
廣韻集韻	-10.2738
盍	-10.2742
國名	-10.2743
得以	-10.2747
未至	-10.2748
豚	-10.2755
其下	-10.276
札	-10.2762
人主	-10.2766
随	-10.2769
濯	-10.2771
拔	-10.2772
邾人	-10.2777
有大	-10.2777
跡	-10.2778
工夫	-10.2781
瞽	-10.2784
不中	-10.2786
弛	-10.2794
𨽻	-10.28
始也	-10.2803
幽王	-10.2804
下大夫	-10.2812
快	-10.2815
蒿	-10.2821
矣夫	-10.2821
斬衰	-10.2823
洪範	-10.2824
而死	-10.283
春秋傳	-10.2831
聼	-10.2833
暇	-10.2835
袁	-10.2838
皆為	-10.284
霜	-10.2843
飢	-10.2854
亦如	-10.2856
瞻	-10.2858
以柔	-10.2859
乾為	-10.2861
臣之	-10.287
不親	-10.2871
五聲	-10.2872
之儀	-10.2872
興也	-10.2872
子弟	-10.2875
謁	-10.2875
附庸	-10.2876
其次	-10.2878
以歸	-10.2884
凖	-10.2888
在前	-10.29
字註	-10.2905
若此	-10.2907
上公	-10.2908
亷	-10.2909
小者	-10.2913
科	-10.2914
塵	-10.2921
禮者	-10.2924
此云	-10.293
菹	-10.2932
罍	-10.2933
山名	-10.2949
而來	-10.2967
次于	-10.297
事者	-10.2972
逺近	-10.2977
事則	-10.2978
裂	-10.2979
賄	-10.2982
▁彖曰	-10.2984
伊川	-10.2984
上之	-10.2987
正字通	-10.2988
苑	-10.3
轅	-10.3001
三者	-10.3004
迭	-10.3004
也周禮	-10.3009
后妃	-10.3012
荷	-10.3013
此心	-10.3014
皇后	-10.3015
引詩	-10.302
愆	-10.3021
禪	-10.3026
受其	-10.3028
得位	-10.3034
簫	-10.3034
祖考	-10.3035
濮	-10.3037
之詞	-10.3037
奈何	-10.3044
鮑	-10.3044
冦	-10.3046
齊師	-10.3052
車馬	-10.3054
説文曰	-10.3054
樊	-10.3056
無服	-10.3056
行者	-10.3058
繡	-10.306
倡	-10.306
好惡	-10.306
何所	-10.3071
捷	-10.3075
光明	-10.3087
卓	-10.3088
涖	-10.3089
未見	-10.3093
視之	-10.3094
衆也	-10.3095
黙	-10.3102
松	-10.3103
宗人	-10.3107
我心	-10.311
始終	-10.3111
畿	-10.3114
而后	-10.3115
▁鄭氏曰	-10.3118
彖傳	-10.313
蒐	-10.313
岸	-10.3131
而求	-10.3132
乎其	-10.3132
融	-10.3132
所能	-10.3135
丈夫	-10.3135
褒	-10.3136
富貴	-10.3144
隸	-10.3156
握	-10.316
矩	-10.3162
次第	-10.3162
存乎	-10.3162
不受	-10.3163
一節	-10.3167
廣大	-10.3167
夭	-10.3169
而弗	-10.3169
暢	-10.3172
利用	-10.3172
告之	-10.3173
畿内	-10.3174
以義	-10.3181
繒	-10.3181
旒	-10.3181
蓄	-10.3181
柯	-10.3185
之善	-10.3185
眚	-10.3194
田獵	-10.3195
者葢	-10.3195
之稱	-10.3202
施於	-10.3203
亂也	-10.3205
二十八	-10.3208
不止	-10.3229
緫	-10.3232
鄭司農云	-10.3233
叢	-10.3235
蓼	-10.3237
公卿	-10.3243
疎	-10.3252
此意	-10.3253
炙	-10.3254
於廟	-10.3257
傳言	-10.3265
本末	-10.3266
輯	-10.3268
養之	-10.3273
說文云	-10.3273
過也	-10.3274
勲	-10.3285
居上	-10.3292
樂也	-10.3293
明其	-10.3298
焉故	-10.3298
衽	-10.3308
氏之	-10.3311
至矣	-10.3319
於中	-10.3323
悼公	-10.3323
袂	-10.3324
焦	-10.3327
灰	-10.3327
輔氏曰	-10.3329
國中	-10.3336
廷	-10.3343
文言	-10.3346
其始	-10.3356
可與	-10.336
之患	-10.3366
鳥名	-10.3368
矣又	-10.3374
峻	-10.3375
皆非	-10.3377
中心	-10.3378
冢宰	-10.3382
尹氏	-10.3384
濕	-10.3384
不動	-10.3388
流行	-10.3389
三陽	-10.3394
也葢	-10.3396
毛詩	-10.3398
道路	-10.3405
久矣	-10.3406
六卿	-10.3408
之妻	-10.3412
肝	-10.3413
措	-10.3417
所居	-10.3429
不違	-10.343
繅	-10.3435
出而	-10.3435
冢	-10.3435
纔	-10.3439
偕	-10.3439
苴	-10.345
麋	-10.346
珍	-10.346
山海經	-10.3462
大雅	-10.3465
誨	-10.3468
晉師	-10.348
七日	-10.348
此其	-10.3482
前漢	-10.3482
宵	-10.3484
得正	-10.3484
三爻	-10.3487
鉏	-10.3487
卯	-10.3492
此所謂	-10.3497
裼	-10.3508
大宰	-10.3511
當在	-10.3519
于齊	-10.3526
為上	-10.3538
淮南子	-10.3543
眞	-10.3549
一字	-10.355
以道	-10.3552
取象	-10.3553
剛而	-10.3558
有疾	-10.3561
王后	-10.3562
諧	-10.3566
變也	-10.3569
類篇	-10.3572
殖	-10.3574
而民	-10.3585
筐	-10.3592
長短	-10.36
鼠	-10.3602
何哉	-10.3604
人臣	-10.3607
緒	-10.3608
無常	-10.3608
䖍	-10.361
其家	-10.3611
代之	-10.3616
上介	-10.3618
復位	-10.3625
▁問	-10.3625
其母	-10.3626
爲之	-10.3633
僚	-10.3633
旄	-10.3637
籩豆	-10.364
說文曰	-10.3644
衮	-10.3651
不使	-10.3654
勿用	-10.3655
翔	-10.3657
函	-10.3657
相對	-10.3661
盤庚	-10.3662
陽之	-10.3664
一百	-10.3668
想	-10.367
數之	-10.367
湛	-10.3673
有悔	-10.3675
欒	-10.3677
鉶	-10.368
二曰	-10.3695
之惡	-10.3696
各以其	-10.3696
使其	-10.3697
楚之	-10.3698
切今用	-10.3701
舉其	-10.3705
枯	-10.3706
耳目	-10.3709
人而	-10.3712
纎	-10.3713
未盡	-10.3717
繋	-10.3718
又言	-10.3723
藴	-10.3727
芒	-10.373
奢	-10.3733
於禮	-10.3736
輸	-10.3753
刪	-10.3753
其不	-10.3754
疇	-10.3755
明之	-10.3756
甲子	-10.3756
謂其	-10.3758
告于	-10.3759
守之	-10.3763
日食	-10.3764
之廟	-10.3768
臂	-10.377
古作	-10.3773
之賢	-10.3773
一篇	-10.3779
所宜	-10.378
炎	-10.3787
豈能	-10.3789
于外	-10.3791
九州	-10.3791
或謂	-10.3792
銅	-10.3793
之時也	-10.3794
縣南	-10.3794
檀弓	-10.3796
則吉	-10.3799
順也	-10.3802
邾子	-10.3805
牟	-10.381
於魯	-10.3815
他國	-10.3817
晉之	-10.3819
中行	-10.3821
而言之	-10.3821
意也	-10.3821
沛	-10.3836
成湯	-10.3839
兔	-10.385
竈	-10.3853
緇	-10.3856
信之	-10.3859
所作	-10.3859
行則	-10.386
遐	-10.386
人為	-10.3866
伐楚	-10.387
經傳	-10.3871
也按	-10.3872
其父	-10.3874
纁	-10.3875
粗	-10.3881
有道	-10.3882
風雨	-10.3883
獻公	-10.3886
於諸侯	-10.3887
𩔖	-10.3892
草名	-10.3892
談	-10.3894
五日	-10.3895
棗	-10.3896
汙	-10.39
諭	-10.3911
相近	-10.3918
第十	-10.392
螽	-10.3921
若不	-10.3925
此又	-10.3925
未嘗不	-10.3927
▁南	-10.3927
曰我	-10.3928
之語	-10.393
此謂	-10.393
柳	-10.3931
大宗	-10.3931
爾雅釋	-10.3933
所見	-10.394
堪	-10.3954
所由	-10.3955
熙	-10.3957
佳	-10.3965
之妙	-10.3968
可以為	-10.3971
活	-10.3977
列國	-10.398
亮	-10.3981
衝	-10.3982
之東	-10.3983
亦未	-10.3987
渡	-10.399
輻	-10.3992
在其中	-10.4
張氏曰	-10.4001
聲也	-10.4001
▁六四	-10.4002
絞	-10.4007
注釋曰	-10.4008
暫	-10.4012
而見	-10.4016
南吕	-10.4019
琴瑟	-10.4024
属	-10.4026
康叔	-10.4032
夏四月	-10.4032
銜	-10.404
秦伯	-10.4043
姑洗	-10.4043
終日	-10.4043
澄	-10.4046
曰君	-10.4047
盡其	-10.4049
-	-10.4053
紅	-10.4055
可乎	-10.4061
之例	-10.4061
于下	-10.4062
遂以	-10.4062
也案	-10.4063
寫	-10.4067
冬十月	-10.4068
祭也	-10.4072
明徳	-10.4073
動也	-10.4077
鈞	-10.4077
其職	-10.4081
圃	-10.4081
亦為	-10.4081
▁經	-10.4082
非一	-10.4083
士之	-10.4085
通用	-10.4088
其象	-10.4092
故君子	-10.4092
而終	-10.4096
惰	-10.4101
膠	-10.4102
諌	-10.4102
在人	-10.4102
武子	-10.4106
集韻或作	-10.4106
蘇氏曰	-10.411
經云	-10.411
震為	-10.4111
迪	-10.4115
治也	-10.4116
簒	-10.4116
大吕	-10.4117
自此	-10.4117
皆言	-10.4118
壬	-10.4121
苖	-10.4122
頻	-10.4126
而使	-10.4133
歸於	-10.4133
氣也	-10.4134
摩	-10.4135
則无	-10.4143
用事	-10.4143
四方之	-10.4146
葵	-10.4146
渝	-10.4153
者三	-10.4154
以從	-10.4155
皆然	-10.4162
彛	-10.4167
今按	-10.4169
之北	-10.417
衣裳	-10.4173
鄒	-10.4178
也或曰	-10.418
助祭	-10.418
縷	-10.4188
徳行	-10.4193
櫟	-10.4195
湏	-10.4205
頑	-10.4209
燎	-10.4217
勑	-10.4219
所行	-10.4221
於心	-10.4223
徇	-10.4226
聰明	-10.4226
者若	-10.4243
名曰	-10.4245
返	-10.4247
▁集說	-10.425
生物	-10.4254
來奔	-10.4256
太廟	-10.4258
丙	-10.4258
周書	-10.4259
其行	-10.4261
在東	-10.4267
巴	-10.4268
之次	-10.4273
如是則	-10.4276
纂	-10.4278
漢志	-10.428
而往	-10.4285
一年	-10.4286
文章	-10.4292
而用	-10.4293
毛氏曰	-10.4296
魚名	-10.4298
庾	-10.43
秋七月	-10.4309
河圖	-10.4316
零	-10.432
然其	-10.432
此理	-10.4322
悼	-10.4322
隂陽之	-10.4329
樂正	-10.433
之治	-10.4332
于王	-10.4333
猶可	-10.434
之過	-10.4346
其勢	-10.4346
樞	-10.4352
潘	-10.4352
慶父	-10.4352
閣	-10.4352
讐	-10.4352
大義	-10.4356
趣	-10.4357
吁	-10.4358
書名	-10.4359
變為	-10.4366
而不言	-10.4374
多矣	-10.4381
三十二	-10.4383
宋板	-10.4385
位而	-10.4386
自古	-10.4393
路寢	-10.4394
序卦	-10.4396
無可	-10.4402
而不得	-10.4416
爾雅云	-10.442
之異	-10.4421
者謂之	-10.4425
囊	-10.4433
合諸侯	-10.4436
巷	-10.4446
釋之	-10.4448
以治	-10.4448
安能	-10.4451
亦猶	-10.4451
詠	-10.4458
畀	-10.4459
矣故曰	-10.446
夷則	-10.4461
發明	-10.4462
賦也	-10.4464
主之	-10.4467
佗	-10.447
之類是也	-10.447
古音	-10.4473
飾也	-10.4481
之亂	-10.4483
觚	-10.4484
其他	-10.4488
裔	-10.4491
三曰	-10.4493
三軍	-10.4496
其臣	-10.4498
有天下	-10.4499
彝	-10.4502
眉	-10.4503
殄	-10.4505
庶民	-10.4507
之戒	-10.4513
宏	-10.452
過於	-10.452
居下	-10.4528
非特	-10.4536
作樂	-10.4536
占者	-10.4537
震動	-10.4543
微子	-10.4543
影	-10.4545
暨	-10.4545
無非	-10.4547
未及	-10.4553
四寸	-10.4555
墳	-10.4555
而行之	-10.4558
地也	-10.4566
三國	-10.457
位也	-10.4571
▁九二	-10.4577
深衣	-10.4578
皆曰	-10.4578
合於	-10.4578
▁碑	-10.4579
而去	-10.458
浴	-10.4581
太史	-10.4581
於我	-10.4583
養老	-10.4585
於天子	-10.4585
志在	-10.459
蜡	-10.4592
爽	-10.4594
卦變	-10.4595
揜	-10.4597
大子	-10.4597
值	-10.4599
死而	-10.4603
祁	-10.4604
世家	-10.4612
於地	-10.4614
坎離	-10.4614
成之	-10.4616
而退	-10.4629
牝	-10.4629
多少	-10.4635
皆可	-10.4642
賈疏	-10.4652
麤	-10.4653
剛健	-10.466
以養	-10.4664
叔姬	-10.4666
之别	-10.4671
六十四	-10.4673
先生曰	-10.4674
用其	-10.4675
淑	-10.4676
之禮也	-10.4684
之聲	-10.4685
椒	-10.469
勾	-10.4701
猷	-10.4701
有徳	-10.4701
之甚	-10.4703
人掌	-10.4703
討賊	-10.4706
邁	-10.4708
衆賔	-10.4711
鳯	-10.4715
墉	-10.4719
拯	-10.4719
寡人	-10.4719
者惟	-10.4721
再拜稽首	-10.4722
衾	-10.4726
不告	-10.4728
知者	-10.4741
人欲	-10.4742
弭	-10.4745
而可	-10.4746
則能	-10.4751
室家	-10.4753
極其	-10.4754
佑	-10.4763
已上	-10.4765
犧	-10.4768
合而	-10.477
▁六三	-10.477
伐晉	-10.4773
救之	-10.4779
之終	-10.4794
不名	-10.4795
鉉	-10.4796
縣北	-10.48
春秋之	-10.4801
茹	-10.4804
安也	-10.4805
亦謂	-10.4812
皆得	-10.4812
也春秋	-10.482
曰子	-10.4823
以相	-10.4824
與此	-10.4827
江漢	-10.4827
在我	-10.4829
得失	-10.4841
本亦作	-10.4845
則雖	-10.4847
无應	-10.4849
網	-10.4855
父兄	-10.4855
分明	-10.4856
居之	-10.4859
塟	-10.4863
三寸	-10.4863
不備	-10.4863
所欲	-10.4864
離為	-10.4865
阼階	-10.4865
也既	-10.4869
南山	-10.4874
而作	-10.4874
恐其	-10.4875
先天	-10.4877
上章	-10.4877
時而	-10.4889
公室	-10.4889
誠意	-10.489
母弟	-10.4895
諸臣	-10.4904
箭	-10.4906
譌	-10.4908
近於	-10.4909
因之	-10.4911
▁蕙田案	-10.4916
而欲	-10.4916
之利	-10.4917
二爻	-10.4921
理也	-10.4922
缶	-10.4922
雜記	-10.4926
王道	-10.4927
又與	-10.4927
摇	-10.493
但言	-10.4932
洞	-10.4933
之宜	-10.4936
▁秋七月	-10.4937
窺	-10.4941
之田	-10.4943
聰	-10.4945
嘏	-10.4945
正其	-10.4951
膺	-10.4952
晨	-10.4959
恐懼	-10.4961
此卦	-10.4962
分别	-10.4962
憤	-10.4967
㝠	-10.4967
五章	-10.4971
貉	-10.4973
弗克	-10.4973
恣	-10.4975
賜之	-10.4978
當然	-10.4978
不得不	-10.498
鳳	-10.4982
壅	-10.4982
附録	-10.4984
婚	-10.4986
皆作	-10.4992
之為言	-10.4995
萬物之	-10.4998
碩	-10.4999
耆	-10.5005
傲	-10.5005
▁九四	-10.5009
梓	-10.5009
玉藻	-10.5016
一月	-10.5017
披	-10.5028
磨	-10.5028
元亨利貞	-10.5028
㓜	-10.5033
兒	-10.5036
器也	-10.5039
詰	-10.5039
童子	-10.5039
祇	-10.5043
升堂	-10.5045
終於	-10.5049
稱子	-10.5052
丞	-10.5052
姜氏	-10.5055
昊天	-10.5057
相去	-10.5058
兵車	-10.5061
詢	-10.5062
也又姓	-10.5068
賣	-10.5069
入門	-10.507
繆	-10.507
景公	-10.5072
轡	-10.5076
穢	-10.5077
謹按	-10.5079
趙盾	-10.508
飭	-10.5081
繫之	-10.5083
▁敖氏曰	-10.5094
祭天	-10.5099
舜之	-10.51
集解	-10.5102
修身	-10.5108
其體	-10.511
芟	-10.5111
有終	-10.5112
出門	-10.5112
在西	-10.5122
劉氏	-10.5123
秦人	-10.5126
歆	-10.5128
德之	-10.5129
蟲名	-10.513
類也	-10.5133
醬	-10.5134
汁	-10.5134
▁初九	-10.514
各一	-10.5144
也惟	-10.5145
駁	-10.5145
祭服	-10.5146
束帛	-10.5149
也又曰	-10.5152
大明	-10.5152
以授	-10.5152
敕	-10.5153
頂	-10.5153
髽	-10.5157
滌	-10.516
凌	-10.5161
中而	-10.5161
一體	-10.5162
公劉	-10.5165
鞅	-10.5169
而居	-10.5169
徳而	-10.517
若夫	-10.5174
正位	-10.5175
縣東	-10.5176
本草	-10.5179
㑹同	-10.5181
之常	-10.5185
之等	-10.5188
日之	-10.5189
既有	-10.5189
▁六二	-10.5191
以俟	-10.5195
翦	-10.5195
枉	-10.5196
則不可	-10.5201
愧	-10.5203
仁也	-10.5207
本無	-10.5208
靣	-10.5208
隷	-10.521
綜	-10.5214
巽為	-10.5216
矣今	-10.5217
肇	-10.5222
卒爵	-10.5235
而天下	-10.5241
傍	-10.5253
之家	-10.5254
鶴	-10.5263
佚	-10.5267
諸家	-10.5269
文也	-10.5271
毛傳	-10.5272
榆	-10.5272
反下同	-10.5279
全體	-10.528
儐	-10.5284
記云	-10.5284
冶	-10.5287
惡也	-10.5289
也但	-10.5291
吾子	-10.5294
彞	-10.5296
▁九五	-10.5297
神之	-10.53
門之外	-10.5304
並同	-10.5306
飱	-10.5307
之弟	-10.5307
乳	-10.5311
䧟	-10.5319
愛之	-10.5319
二韻	-10.5324
也廣韻	-10.5328
公侯	-10.5329
曷為	-10.5335
在後	-10.5336
卧	-10.5338
粥	-10.5338
縣西	-10.5339
郕	-10.5344
鄭𤣥	-10.535
韶	-10.535
霍	-10.5355
猗	-10.5356
于晉	-10.5357
羈	-10.5358
已下	-10.5362
武帝	-10.5366
十九年	-10.5367
終身	-10.537
船	-10.5373
尼	-10.5375
无咎也	-10.5385
晝夜	-10.5388
治其	-10.5395
皆謂	-10.5398
昔者	-10.5398
陽縣	-10.5401
鄉射	-10.5405
道者	-10.5409
門内	-10.5412
一尺	-10.5413
乎故	-10.5414
揚雄	-10.5415
隙	-10.5415
之深	-10.5416
周室	-10.5418
國有	-10.5423
鄭康成	-10.5425
不特	-10.5426
何必	-10.5427
皆用	-10.5429
見上	-10.544
蔓	-10.5441
得志	-10.5444
上行	-10.5446
之首	-10.545
師古曰	-10.5451
窒	-10.5456
卻	-10.546
据	-10.5466
一箇	-10.5469
之母	-10.5471
未有不	-10.5472
於義	-10.5476
慰	-10.5487
也通作	-10.549
動則	-10.5491
陳蔡	-10.5492
黄鐘	-10.5495
文姜	-10.5499
捨	-10.5503
而巳	-10.5504
所出	-10.5507
▁或問	-10.5508
授之	-10.5515
其氣	-10.5518
逺矣	-10.5518
五祀	-10.5518
彖曰	-10.5523
張氏	-10.5525
而實	-10.5525
収	-10.5531
䙝	-10.5531
象形	-10.5537
枕	-10.5539
唱	-10.5539
可用	-10.554
之㫖	-10.5542
禀	-10.5551
箴	-10.5555
一卦	-10.5557
人有	-10.5557
此之謂	-10.5559
蜃	-10.5559
相為	-10.556
理之	-10.5567
纂註	-10.5568
而用之	-10.5572
於晉	-10.5575
朱氏曰	-10.5577
正是	-10.5577
從而	-10.559
長者	-10.559
洩	-10.559
知所	-10.5594
自為	-10.5596
▁上六	-10.5599
二國	-10.56
俘	-10.5603
不改	-10.5606
替	-10.5607
昆	-10.5616
由此	-10.562
饔	-10.5622
醮	-10.5623
之大者	-10.5629
隨時	-10.5633
形容	-10.5634
五人	-10.5634
鞠	-10.5636
孝經	-10.5637
戊	-10.5638
𤓰	-10.5639
刑罰	-10.5639
孝弟	-10.5642
而言也	-10.5643
甞	-10.5643
不失其	-10.5644
反位	-10.5652
▁六五	-10.5653
罕	-10.5656
失位	-10.5656
存焉	-10.5659
化之	-10.5661
爾雅曰	-10.5666
求其	-10.5669
林鍾	-10.5672
門人	-10.5674
見于	-10.5675
召伯	-10.5676
▁上九	-10.5678
從者	-10.5681
為貴	-10.5701
相遇	-10.5702
翕	-10.5703
上言	-10.5708
官府	-10.5711
3	-10.5711
台	-10.5711
右手	-10.5713
眡	-10.5715
逝	-10.5715
也聖人	-10.5718
王使	-10.5718
中軍	-10.5718
之論	-10.5719
厲公	-10.573
之私	-10.5733
鑒	-10.574
卦辭	-10.5741
僻	-10.5741
柔而	-10.5743
太平	-10.5749
曾子	-10.5756
下民	-10.5759
舊説	-10.5759
局	-10.5764
滛	-10.5772
陪	-10.5776
障	-10.5776
來者	-10.5778
卵	-10.578
氣之	-10.5781
大矣	-10.5793
其惡	-10.5794
故特	-10.5798
詭	-10.5801
之器	-10.5804
順而	-10.5804
則不能	-10.581
見矣	-10.5811
雖無	-10.5821
▁主人	-10.5826
皆從	-10.5827
不舉	-10.5832
譖	-10.5833
陸氏	-10.5833
嬴	-10.5835
鯀	-10.5837
引之	-10.5841
餕	-10.5841
人則	-10.5842
癸	-10.5843
禮儀	-10.5849
貽	-10.585
▁九三	-10.585
者當	-10.5851
停	-10.5858
隐	-10.5858
大宗伯	-10.5859
逞	-10.5862
國子	-10.5863
而進	-10.5868
燒	-10.587
人不	-10.5871
萬邦	-10.5873
无不利	-10.588
始生	-10.588
乃以	-10.5882
不聞	-10.5883
四象	-10.5888
博士	-10.5888
疾也	-10.5893
之閒	-10.5904
五百里	-10.591
二三	-10.591
正之	-10.591
不亦	-10.5912
毅	-10.5914
郢	-10.5916
此書	-10.5918
物而	-10.5923
倦	-10.5924
為重	-10.5927
低	-10.5928
耿	-10.5928
悅	-10.5928
無異	-10.5929
也是故	-10.5931
泗	-10.5933
於朝	-10.5938
辨其	-10.5938
不可以不	-10.5939
婉	-10.594
二十一	-10.594
一分	-10.5943
訝	-10.5944
篆	-10.5946
故得	-10.595
眷	-10.5953
司正	-10.5954
若以	-10.5956
此義	-10.5956
嗜	-10.5957
奸	-10.5957
隧	-10.5961
而外	-10.5961
曲沃	-10.5962
先言	-10.5963
饒	-10.5973
用力	-10.5977
鄉飲酒	-10.5983
切集韻韻㑹	-10.5983
學之	-10.5984
又東	-10.5985
責之	-10.5987
莫能	-10.5991
偪	-10.5992
於楚	-10.5994
善之	-10.5995
已有	-10.5996
之精	-10.5997
劉氏曰	-10.5998
寺	-10.5999
尉	-10.6005
解云	-10.601
致之	-10.6019
?	-10.6019
隊	-10.6023
終也	-10.6026
饋食	-10.6026
為臣	-10.6029
次序	-10.6032
誤矣	-10.6033
聊	-10.6036
為大夫	-10.6038
篇海	-10.6038
我之	-10.6041
要之	-10.6043
以安	-10.6044
升降	-10.6046
此二	-10.6047
㫁	-10.6048
生者	-10.605
三十年	-10.605
五采	-10.6051
騰	-10.6057
糧	-10.6057
訪	-10.6057
民心	-10.6063
王城	-10.6064
九寸	-10.6066
五色	-10.6067
又為	-10.6068
於己	-10.6072
寒暑	-10.6072
雒	-10.6074
本於	-10.6075
覽	-10.6079
楚辭	-10.608
為天子	-10.6081
當是	-10.6082
征凶	-10.6082
辜	-10.6083
極而	-10.6085
殷之	-10.6087
无不	-10.6089
槩	-10.6089
風俗	-10.6096
畆	-10.6102
四分	-10.6108
生民	-10.611
其形	-10.611
揆	-10.6111
𤣥端	-10.6111
蔵	-10.6111
艱難	-10.6113
之方	-10.6116
▁冬十月	-10.6126
然亦	-10.6128
宗伯	-10.6129
四字	-10.6131
郊祀	-10.6133
商人	-10.6138
杜預	-10.6139
相承	-10.614
洮	-10.6141
艮止	-10.6148
或為	-10.6148
髦	-10.6149
第四	-10.6149
小事	-10.615
而至	-10.6151
五十里	-10.6152
鑄	-10.6153
而遂	-10.6156
名之	-10.6161
昨	-10.6162
隰	-10.6165
唐虞	-10.6169
輩	-10.617
菽	-10.6173
以生	-10.6174
婢	-10.6175
涕	-10.618
以及	-10.6185
沐	-10.6187
失禮	-10.619
凶也	-10.6195
三耦	-10.6196
思之	-10.6196
翬	-10.6197
趙氏	-10.62
言之也	-10.6202
涇	-10.6203
用兵	-10.6205
下云	-10.6209
稼穡	-10.6209
驪	-10.6212
頸	-10.6217
廩	-10.6221
浚	-10.6221
不絶	-10.623
木也	-10.6238
此說	-10.6238
水經注	-10.624
樓	-10.6243
羸	-10.6247
知此	-10.6247
事親	-10.6248
汚	-10.6251
正而	-10.6251
襚	-10.6255
故聖人	-10.6256
陽生	-10.6259
也或从	-10.6259
毗	-10.626
橋	-10.626
▁朱子曰	-10.6265
王者之	-10.6266
憾	-10.6272
隣	-10.6272
云爾	-10.6279
欠	-10.6281
椁	-10.6285
州吁	-10.6287
舂	-10.6302
三千	-10.6303
者明	-10.6306
之交	-10.6307
筭	-10.6307
▁初六	-10.6322
八寸	-10.6324
此乃	-10.6325
有一	-10.6327
漿	-10.633
有四	-10.6339
敬之	-10.6341
四時之	-10.6343
者自	-10.6346
往而	-10.6349
之耳	-10.635
伯夷	-10.6354
者或	-10.6356
帥師伐	-10.6357
為天	-10.6358
入海	-10.636
范氏	-10.6372
家之	-10.6372
造化	-10.6375
當從	-10.6379
夏六月	-10.638
和之	-10.638
為仁	-10.638
又案	-10.6382
利害	-10.6383
曰天	-10.6384
匿	-10.6384
閔公	-10.6391
狎	-10.6392
尊也	-10.6395
輦	-10.6397
騎	-10.6406
郊特牲	-10.6408
為國	-10.641
絶之	-10.6417
姚	-10.6419
其終	-10.6421
之親	-10.6425
但以	-10.6428
衷	-10.6431
齊之	-10.6431
故雖	-10.6431
滅之	-10.6436
釋名	-10.6436
粱	-10.644
水中	-10.644
不暇	-10.644
比也	-10.6441
楊氏	-10.6442
二十二	-10.6443
以立	-10.6445
不可得	-10.6446
可得而	-10.6447
不雨	-10.645
注正義曰	-10.6451
繼之	-10.6452
不得已	-10.6452
其類	-10.6453
遁	-10.6454
不取	-10.6457
餼	-10.6462
木為	-10.6464
公子遂	-10.6465
匏	-10.6465
鹵	-10.6467
百工	-10.6469
釋云	-10.6472
一言	-10.6478
韓詩	-10.6478
胙	-10.6484
若今	-10.6485
是亦	-10.6487
者又	-10.649
侵伐	-10.649
三尺	-10.6493
河東	-10.6493
無疑	-10.6494
二十五年	-10.6494
殺人	-10.6495
説文作	-10.6501
莽	-10.6502
體之	-10.6503
以順	-10.6504
个	-10.6504
相反	-10.6505
筋	-10.6506
鹹	-10.6506
不去	-10.6507
下經	-10.6508
世婦	-10.6508
都鄙	-10.6509
蹙	-10.651
㑹諸侯	-10.6515
周制	-10.6516
盛也	-10.6516
所不	-10.6521
曰某	-10.6521
終則	-10.6523
雖欲	-10.6524
之不可	-10.6528
憑	-10.6528
辠	-10.6528
埽	-10.6532
來歸	-10.6535
上經	-10.6535
諸公	-10.6537
美也	-10.6537
退而	-10.6537
超	-10.6546
撓	-10.6554
之可	-10.6558
不至於	-10.6561
寐	-10.6567
為二	-10.657
字林	-10.657
贊者	-10.6571
蚤	-10.6572
待之	-10.6574
廵	-10.6575
瓠	-10.6581
之所為	-10.6582
上生	-10.6586
為宫	-10.6586
成而	-10.6587
康王	-10.6588
也箋云	-10.6593
老子	-10.6593
澗	-10.6598
山之	-10.6599
拱	-10.6601
不逺	-10.6609
浪	-10.6611
詹	-10.6612
當位	-10.6613
羲	-10.6615
藪	-10.6617
論之	-10.6619
喙	-10.6621
探	-10.6621
称	-10.6621
中爻	-10.6622
伯禽	-10.6623
稱王	-10.6624
彦	-10.6625
舄	-10.6628
之教	-10.6635
如今	-10.6637
也古者	-10.6637
矣若	-10.6642
君子之道	-10.6644
雖然	-10.6645
四尺	-10.6645
劒	-10.6647
之所在	-10.6648
愚案	-10.6649
受爵	-10.6649
主君	-10.665
勅	-10.6652
為文	-10.6652
五寸	-10.6655
以定	-10.6657
利見大人	-10.666
解之	-10.6665
洛書	-10.6665
鄭注云	-10.6667
夏之	-10.6669
茀	-10.6669
太常	-10.6675
㦸	-10.6679
汾	-10.6681
大斂	-10.6683
者多	-10.6684
山在	-10.6686
别有	-10.669
阼	-10.6698
之黨	-10.6702
異者	-10.6703
日新	-10.6704
教人	-10.6707
因以	-10.6708
之戰	-10.671
詩小雅	-10.6716
絜	-10.6718
仙	-10.6718
陽也	-10.6721
髙下	-10.6729
亨也	-10.6734
之本也	-10.6737
遥	-10.6737
處之	-10.6737
太公	-10.6738
五刑	-10.6739
豪	-10.6741
鬭	-10.6741
備矣	-10.6741
三字	-10.6743
乃得	-10.6744
及於	-10.6746
覿	-10.6746
晉楚	-10.6753
辨之	-10.6753
五百	-10.6757
乃是	-10.6758
卷十	-10.6759
之謀	-10.6762
切正韻	-10.6764
庫	-10.6766
妨	-10.6768
欲使	-10.6771
▁應	-10.6771
施之	-10.6771
騂	-10.6772
以濟	-10.6774
之先	-10.6777
深矣	-10.6782
魯國	-10.6787
廟門	-10.6788
拜送	-10.6789
衎	-10.679
讀若	-10.6792
四夷	-10.6795
所有	-10.6796
以知	-10.6797
鄰國	-10.6801
二十三	-10.6801
朝聘	-10.6804
廹	-10.6808
其大	-10.6809
命者	-10.6809
盛徳	-10.681
常也	-10.6812
輙	-10.6813
訊	-10.6813
左手	-10.6813
齊魯	-10.6817
泄	-10.6821
棲	-10.6822
而卒	-10.6823
粲	-10.6826
故先	-10.6829
救鄭	-10.6829
殺其	-10.6829
告於	-10.6831
地中	-10.6832
獸名	-10.6833
問之	-10.6835
駒	-10.6836
自外	-10.6837
殺其大夫	-10.6839
槃	-10.684
晉文	-10.6841
有過	-10.6842
學士	-10.6845
岡	-10.6849
不和	-10.6851
不拜	-10.6853
緝	-10.6855
兖	-10.6855
字韻	-10.6855
王曰	-10.6855
用九	-10.6856
無知	-10.6858
十人	-10.6859
叚	-10.686
縣西南	-10.686
隨之	-10.6862
礙	-10.6863
㨗	-10.6863
矣其	-10.6864
国	-10.6867
▁夏四月	-10.687
藏之	-10.6872
又按	-10.688
起於	-10.6883
於國	-10.6884
覩	-10.6885
臣下	-10.6886
求諸	-10.6888
非正	-10.6891
莫非	-10.6891
鱗	-10.6899
利也	-10.6901
康成	-10.6908
巖	-10.6908
孕	-10.6908
郭云	-10.6908
蔡氏	-10.691
王朝	-10.6912
潜	-10.6913
何休	-10.6917
李氏	-10.6919
其力	-10.692
襄王	-10.6922
孺子	-10.6927
刋	-10.6931
壬午	-10.6932
上士	-10.6933
生而	-10.6933
中道	-10.6937
文字	-10.6938
樂器	-10.6939
亦不可	-10.694
阮	-10.6945
何故	-10.6945
應鍾	-10.6946
鐸	-10.6956
文二	-10.6957
韻補	-10.6959
摧	-10.6963
射之	-10.6964
而已故	-10.6971
歷	-10.6972
王事	-10.6974
秋冬	-10.6977
國也	-10.6985
㑹盟	-10.6988
性之	-10.6989
之力	-10.6994
雕	-10.6995
著其	-10.6997
無禮	-10.7
至尊	-10.7004
紐	-10.7004
私意	-10.7005
滕子	-10.7005
劣	-10.7008
隘	-10.7013
埋	-10.7013
皇極	-10.7019
抵	-10.7022
一身	-10.7024
蘇氏	-10.7031
驟	-10.7032
同心	-10.704
此年	-10.7042
鋪	-10.7046
伊川曰	-10.7046
三等	-10.7048
演	-10.705
艮為	-10.7057
不求	-10.7058
百物	-10.7059
孔子之	-10.7061
無他	-10.7064
冇	-10.7064
武王之	-10.7068
與天	-10.7076
為本	-10.7077
輈	-10.7078
二卦	-10.7081
不立	-10.7081
夔	-10.7083
脚	-10.7083
事物	-10.7095
▁#+	-10.7097
公族	-10.7099
押	-10.7101
聚也	-10.7102
和也	-10.7109
趙氏曰	-10.711
亦必	-10.711
之業	-10.7114
郈	-10.7115
不由	-10.7115
四曰	-10.7118
或云	-10.712
所歸	-10.712
可食	-10.7122
話	-10.7125
掌其	-10.7129
生也	-10.7132
心也	-10.7132
鶉	-10.7134
不廢	-10.7135
孽	-10.7138
齧	-10.7143
其在	-10.7144
治天下	-10.7157
諂	-10.7157
止于	-10.716
然後可以	-10.716
庇	-10.7162
從其	-10.7165
其常	-10.7167
則自	-10.7171
士大夫	-10.7175
緑	-10.7178
注謂	-10.718
粉	-10.7184
切一	-10.7187
分為	-10.7192
甯	-10.7192
不厭	-10.721
則書	-10.7213
葦	-10.7215
致命	-10.7217
先君之	-10.7219
配天	-10.7223
之應	-10.7227
羌	-10.7227
豬	-10.7227
也是以	-10.7232
亦謂之	-10.7234
亦得	-10.7234
與夫	-10.724
馬融	-10.7241
有命	-10.7243
逕	-10.7248
人倫	-10.7249
太簇	-10.7252
五服	-10.7252
貴者	-10.7253
第五	-10.7255
易以	-10.7259
抽	-10.726
過而	-10.7261
故不言	-10.7263
財用	-10.7265
共其	-10.7268
夙	-10.7268
院	-10.727
以徳	-10.7272
二體	-10.728
百年	-10.7285
則一	-10.7289
宫中	-10.7289
國而	-10.7289
為首	-10.729
自守	-10.7292
匠	-10.7293
軸	-10.7294
騶虞	-10.7295
以備	-10.7295
中和	-10.7296
宣子	-10.7298
武庚	-10.7299
保其	-10.7302
叔向	-10.7306
不獨	-10.7308
于楚	-10.7311
四牡	-10.7315
妖	-10.7316
於前	-10.7321
而獨	-10.7322
剽	-10.7322
許多	-10.7323
鬻	-10.7327
潁	-10.733
大喪	-10.7331
日在	-10.7331
死生	-10.7334
能盡	-10.7335
一等	-10.7335
明堂位	-10.7336
羿	-10.7336
繞	-10.7341
逺也	-10.7346
不我	-10.7348
坫	-10.7351
鞏	-10.7355
陽爻	-10.736
讙	-10.736
不可得而	-10.7362
太宰	-10.7362
▁周易	-10.7362
行道	-10.7363
稽首	-10.7365
禹之	-10.7365
誤也	-10.7367
稱名	-10.7367
其失	-10.7368
取義	-10.7369
憂患	-10.737
祭酒	-10.7371
夏至	-10.7374
為己	-10.7375
方伯	-10.7378
曰凡	-10.7379
愁	-10.7379
不窮	-10.7383
則此	-10.7384
沂	-10.7388
而况	-10.7388
頰	-10.7389
寝	-10.7392
甥	-10.7393
仁人	-10.74
蟄	-10.7401
王季	-10.7406
棠	-10.7407
三年之喪	-10.7407
坊	-10.7414
存亡	-10.7418
旅酬	-10.742
禮器	-10.7421
懋	-10.7422
範	-10.7424
能以	-10.7427
2	-10.7429
精神	-10.7429
有異	-10.7436
戕	-10.7442
髙氏曰	-10.7442
災也	-10.7444
採	-10.7446
長幼	-10.7449
大司馬	-10.7451
額	-10.7451
不顧	-10.7453
六章	-10.7459
芮	-10.7462
外内	-10.7462
銳	-10.7466
皆云	-10.7467
諒	-10.747
爵弁	-10.747
于周	-10.7473
竄	-10.748
佛	-10.7485
三嵗	-10.7485
不肖	-10.7488
卑者	-10.7489
道而	-10.7495
喪禮	-10.7495
既葬	-10.7496
易也	-10.7496
先公	-10.7498
▁A	-10.7499
一條	-10.7501
神也	-10.7504
悔吝	-10.7504
地而	-10.7508
不降	-10.7514
字彙補	-10.7515
兩儀	-10.7518
隼	-10.7519
▁注曰	-10.7519
三百六十	-10.7522
緦麻	-10.7525
日用	-10.7527
縣東北	-10.7528
亦可以	-10.7533
也左傳	-10.7535
兄弟之	-10.7535
銀	-10.7538
使我	-10.7542
今作	-10.7545
士喪禮	-10.7554
李氏曰	-10.7555
何其	-10.7556
以利	-10.756
許男	-10.7561
父母之	-10.7562
二十六	-10.7563
徼	-10.7577
聿	-10.7577
鬲	-10.7577
晉侯使	-10.758
東門	-10.7581
梗	-10.7582
王姬	-10.7586
凢	-10.7587
於周	-10.7587
赫	-10.7596
絡	-10.7606
懈	-10.7606
夫子之	-10.7606
有五	-10.7608
賤者	-10.7609
徳也	-10.7611
恭敬	-10.7612
既成	-10.7615
多寡	-10.762
其妻	-10.7624
譏之	-10.7624
漁	-10.7626
以次	-10.7626
▁序	-10.7631
字彚補	-10.7632
者是也	-10.7632
比於	-10.7632
而祭	-10.7633
羔裘	-10.7637
隱公	-10.7639
毛氏	-10.7649
須是	-10.765
相合	-10.7654
行乎	-10.7658
司冦	-10.766
莫如	-10.7662
能知	-10.7665
周家	-10.7668
以報	-10.7669
師敗績	-10.7672
然後能	-10.7673
沱	-10.7679
相接	-10.7681
性情	-10.7683
單伯	-10.7684
仲吕	-10.769
皆當	-10.769
韠	-10.7693
廣雅	-10.7693
鞭	-10.7695
紙	-10.7702
十里	-10.7707
也疏	-10.7714
𦙍	-10.7719
所執	-10.772
相類	-10.7725
者雖	-10.7727
勒	-10.7729
柏	-10.773
隂氣	-10.7733
杜註	-10.7736
繭	-10.7739
沿	-10.7739
荆州	-10.7743
番	-10.7744
貍	-10.7745
!	-10.7754
朝覲	-10.7757
言不	-10.7758
四岳	-10.7762
烹	-10.7764
之明	-10.7768
綽	-10.7769
此章言	-10.7773
排	-10.7776
合也	-10.7777
稟	-10.7779
嬰	-10.778
復有	-10.778
中者	-10.778
憂也	-10.7781
《	-10.7782
則謂之	-10.7783
朔日有食之	-10.7785
不獲	-10.7785
變易	-10.7787
存之	-10.7788
樂記	-10.7791
厲王	-10.7792
納之	-10.7793
踈	-10.7794
之貞	-10.7794
石經	-10.7795
用此	-10.7797
為民	-10.7797
是之謂	-10.7798
皆無	-10.7801
故名	-10.7802
囘	-10.7804
無一	-10.7806
無私	-10.7811
壬申	-10.7812
▁九月	-10.7813
場	-10.7813
二十年	-10.7814
謂此	-10.7819
▁六月	-10.7822
淪	-10.7823
號令	-10.7825
房中	-10.7828
此與	-10.7829
鷹	-10.7834
同而	-10.7836
者衆	-10.7837
五陽	-10.7841
食也	-10.7841
叔父	-10.7843
絺	-10.7844
晏子	-10.7847
未發	-10.7848
戊辰	-10.785
四者	-10.7854
季友	-10.7856
夏后氏	-10.7858
天時	-10.786
恪	-10.7864
生之	-10.7867
4	-10.7869
一嵗	-10.787
以興	-10.7871
終吉	-10.7875
則失	-10.7875
彈	-10.7879
曼	-10.7879
菁	-10.7879
賔主	-10.788
▁《	-10.788
時有	-10.7882
又不	-10.7882
笏	-10.7884
腓	-10.7884
冠者	-10.7887
一寸	-10.789
始有	-10.7891
侯氏	-10.7893
塾	-10.7894
同盟于	-10.7898
采地	-10.7901
四句	-10.7904
癸亥	-10.7904
陳人	-10.7909
研	-10.7914
爨	-10.7914
祭仲	-10.7915
矦	-10.7916
承天	-10.7917
子游	-10.7918
家語	-10.7919
木之	-10.7923
漢孔氏曰	-10.7923
迂	-10.7924
變通	-10.7925
仲春	-10.7926
春夏	-10.7929
罪人	-10.793
為惡	-10.7933
五曰	-10.7937
道則	-10.7938
韻會	-10.794
此非	-10.7941
不惟	-10.7943
三隂	-10.7945
加於	-10.7945
下生	-10.7946
盡也	-10.7946
二十三年	-10.7947
而不書	-10.795
從容	-10.7954
字從	-10.796
未定	-10.7967
㸔	-10.797
其私	-10.7973
何以書	-10.7974
曳	-10.7975
摶	-10.7975
可疑	-10.7979
詩大雅	-10.7979
以和	-10.7982
自得	-10.7982
天下之大	-10.7986
必有所	-10.7986
可畏	-10.799
祚	-10.799
失道	-10.7991
王臣	-10.7994
臘	-10.8
詁	-10.8001
沔	-10.8005
伐衛	-10.801
鋭	-10.801
八人	-10.8013
卦名	-10.8013
漬	-10.8015
駿	-10.8015
壙	-10.8015
之端	-10.8016
日月星辰	-10.8016
今乃	-10.8018
與上	-10.802
酒食	-10.8021
三句	-10.8023
日月之	-10.8024
司士	-10.8028
太王	-10.8029
百八十	-10.803
此等	-10.803
典禮	-10.8033
言此	-10.8034
又謂	-10.8034
趙孟	-10.8036
一國	-10.8037
美之	-10.8047
宼	-10.8048
遍	-10.8053
罟	-10.8056
隠公	-10.8057
制之	-10.8059
大水	-10.8064
是知	-10.8065
之始也	-10.8065
祖宗	-10.8066
顓頊	-10.8066
下體	-10.807
敢不	-10.8075
利涉大川	-10.8075
頼	-10.8076
縣西北	-10.8077
小而	-10.8079
浩	-10.8081
本或作	-10.8081
閲	-10.809
遷于	-10.8099
榖梁傳	-10.8102
西上	-10.8104
此類	-10.8107
姪	-10.8112
異矣	-10.8115
t	-10.8117
什	-10.8123
邉	-10.8128
天神	-10.8131
戒也	-10.8131
住	-10.8133
途	-10.8138
方氏曰	-10.8138
别作	-10.814
所引	-10.814
不思	-10.8143
山林	-10.8144
自我	-10.8147
氐	-10.8148
反復	-10.8153
所以致	-10.8158
殷人	-10.8159
寗	-10.8161
將軍	-10.8163
斛	-10.8163
鵲	-10.8163
止而	-10.8164
訾	-10.8164
庚辰	-10.8165
必不	-10.8165
喬	-10.8168
圜丘	-10.8171
而殺之	-10.8172
自立	-10.8173
所掌	-10.818
城縣	-10.818
作易	-10.8182
不云	-10.8184
納幣	-10.8184
斿	-10.8185
當有	-10.8188
而食	-10.819
於物	-10.8193
纚	-10.8195
縞	-10.8197
冀州	-10.8197
以樂	-10.82
掘	-10.82
謗	-10.82
中間	-10.8204
在室	-10.8208
㑹晉	-10.8209
衆賓	-10.821
䕶	-10.8211
與諸侯	-10.8212
以此為	-10.8213
羣吏	-10.8215
不識	-10.8216
上大夫	-10.8218
為節	-10.8219
腰	-10.8221
各以	-10.8222
害也	-10.8224
身之	-10.8225
此即	-10.8226
堵	-10.8226
着	-10.8226
字下	-10.8228
往往	-10.823
云凡	-10.8231
蔡人	-10.8232
乃能	-10.8236
蓬	-10.8237
像	-10.8237
相親	-10.824
以下皆	-10.8242
寔	-10.8242
燮	-10.8242
睢	-10.8247
太師	-10.8249
何以不	-10.825
無疆	-10.825
室中	-10.8253
直言	-10.8254
之所以為	-10.8257
▁B	-10.826
簿	-10.8263
印	-10.8263
之衆	-10.8263
可得	-10.8268
江南	-10.8269
極則	-10.8275
成風	-10.8279
座	-10.828
意如	-10.8281
巡守	-10.8281
使臣	-10.8282
十日	-10.8283
其政	-10.8284
蓋以	-10.8285
邵	-10.8287
昏禮	-10.8291
三卿	-10.8292
郭璞	-10.8298
遣使	-10.8305
學問	-10.8305
自取	-10.8307
執其	-10.8308
辭曰	-10.8309
雌	-10.8309
莒人	-10.831
難也	-10.8311
討之	-10.8311
公榖	-10.8314
設于	-10.8319
不一	-10.8319
反徐	-10.8321
綿	-10.8325
騐	-10.8325
四隂	-10.833
事畢	-10.8334
𥘉	-10.8336
勃	-10.8336
字从	-10.8338
不祭	-10.8339
為三	-10.8339
諸子	-10.834
食者	-10.8341
翁	-10.8341
大史	-10.8342
為諸侯	-10.8342
志行	-10.8343
汗	-10.8344
亡也	-10.8346
榖梁曰	-10.8347
相生	-10.835
徃來	-10.8356
之權	-10.8356
耳非	-10.8358
8	-10.8362
溫	-10.8362
自然之	-10.8367
音同	-10.8371
二十八年	-10.8374
后土	-10.8374
為天下	-10.8377
夙夜	-10.838
亦惟	-10.838
分而	-10.8381
不日	-10.8382
澮	-10.8383
公田	-10.8385
綸	-10.8385
模	-10.8393
爛	-10.8394
不死	-10.8394
蠻夷	-10.8396
此三	-10.8398
天官	-10.8401
商之	-10.8402
治民	-10.8405
君而	-10.8407
善而	-10.8409
四五	-10.841
未免	-10.841
其制	-10.8412
氣象	-10.8414
三五	-10.8415
彘	-10.8415
内史	-10.8415
下章	-10.8416
有六	-10.8416
非所	-10.8417
桂	-10.842
漫	-10.842
其才	-10.8424
亦自	-10.8429
麗乎	-10.8429
氏云	-10.8434
出乎	-10.8434
為陽	-10.8435
于僞	-10.8437
何氏	-10.8439
志也	-10.844
楅	-10.8442
减	-10.8442
陽虎	-10.8444
蔚	-10.8447
無復	-10.8448
程氏	-10.8449
禮有	-10.845
聽之	-10.8451
行父	-10.8454
草也	-10.8457
伐秦	-10.8462
也以其	-10.8464
本紀	-10.8464
節也	-10.8467
平公	-10.8468
多士	-10.8468
蹶	-10.8468
是已	-10.847
有定	-10.8473
蟬	-10.8473
榛	-10.8474
司寇	-10.8474
節之	-10.8477
在南	-10.8479
於後	-10.848
以祀	-10.8483
孫氏	-10.8484
春官	-10.8486
胄	-10.8487
各有所	-10.8487
地道	-10.8489
君道	-10.8489
窮也	-10.8492
瘠	-10.8495
鼗	-10.8495
逺而	-10.8496
處也	-10.8499
非聖人	-10.85
魯地	-10.8505
六尺	-10.8506
甲戌	-10.8509
亦同	-10.8509
兩端	-10.8509
班固	-10.851
諸夏	-10.8512
公及	-10.8515
乾元	-10.852
望之	-10.852
夾鍾	-10.8522
蔡氏曰	-10.8525
正直	-10.8526
衆多	-10.853
為父	-10.8531
尚有	-10.8532
乙亥	-10.8539
諸國	-10.8544
堯典	-10.8545
彫	-10.8548
豎	-10.8548
愬	-10.8553
生生	-10.8554
今以	-10.8558
誅之	-10.8559
即今	-10.856
癸酉	-10.856
意思	-10.8561
過乎	-10.8562
衞人	-10.8564
辛巳	-10.8564
翣	-10.8564
獻子	-10.8566
歐陽	-10.8568
之孫	-10.8568
脉	-10.857
將有	-10.857
助之	-10.8577
陸氏曰	-10.8578
姒	-10.858
此事	-10.8582
蕤	-10.8582
貌又	-10.8583
妣	-10.8587
道徳	-10.859
免於	-10.8591
闡	-10.8591
九江	-10.8595
本文	-10.8596
貸	-10.8597
大車	-10.86
鐘鼓	-10.8601
茲	-10.8602
取於	-10.8602
大雩	-10.8603
▁此言	-10.8605
紀侯	-10.8605
位不當也	-10.8605
相感	-10.8606
為下	-10.8607
之色	-10.8608
天人	-10.861
而從	-10.8611
凡言	-10.8613
亦何	-10.8617
徳者	-10.8618
小白	-10.8618
翳	-10.8618
之罪也	-10.8621
妻之	-10.8623
閏月	-10.8624
屑	-10.8624
重也	-10.8626
穀梁傳	-10.8628
相通	-10.8629
添	-10.8635
視也	-10.8635
陳之	-10.8637
以隂	-10.8638
技	-10.864
其外	-10.864
革之	-10.864
亦通	-10.8641
子張	-10.8641
祖父	-10.8642
挈	-10.8646
諸大夫	-10.8649
莘	-10.8651
輯録	-10.8653
位在	-10.8653
列於	-10.8654
以觀	-10.8654
以至於	-10.8655
汎	-10.8656
瓊	-10.8656
裹	-10.8656
湯武	-10.8658
賾	-10.8662
吕氏	-10.8662
放此	-10.8663
冉	-10.8663
▁三月	-10.8668
噫	-10.8669
恁地	-10.8669
為王	-10.8671
莒子	-10.8677
齎	-10.8678
主人之	-10.8678
牛羊	-10.868
魴	-10.868
左傳曰	-10.8681
可不	-10.8683
榦	-10.8684
之篇	-10.8687
車之	-10.8688
两	-10.8689
君子不	-10.869
與天地	-10.869
此一節	-10.869
有子	-10.8694
丁巳	-10.8695
死則	-10.8699
聲音	-10.87
祭於	-10.87
縛	-10.87
殳	-10.87
㳺	-10.87
為後	-10.8709
射者	-10.8711
衣也	-10.8714
祭器	-10.8716
東萊	-10.8718
三命	-10.8719
跛	-10.8722
戎狄	-10.8726
易簡	-10.8728
之憂	-10.8728
以動	-10.8728
拜受	-10.8728
穆王	-10.8733
所以能	-10.8735
重耳	-10.8742
冕服	-10.8746
已成	-10.8749
互相	-10.8749
十分	-10.8749
皆如	-10.875
二十六年	-10.8752
籠	-10.8754
天地之道	-10.8757
始死	-10.8759
尺二寸	-10.876
始祖	-10.876
近而	-10.8764
申伯	-10.8771
其初	-10.8773
法則	-10.8775
罪之	-10.8776
旃	-10.8776
若曰	-10.8782
七寸	-10.8785
銖	-10.8787
妻子	-10.8789
其占	-10.8789
者正	-10.8791
緌	-10.8793
之尊	-10.8796
鄂	-10.8798
托	-10.8798
天位	-10.8801
▁姑	-10.8804
楚公子	-10.8808
八音	-10.8808
二十四年	-10.8809
旐	-10.8809
汜	-10.8809
渚	-10.8809
二尺	-10.881
知禮	-10.8814
興師	-10.8815
掛	-10.882
氣質	-10.8822
進之	-10.8826
沉	-10.8826
耻	-10.8826
九分	-10.8827
各自	-10.8828
不得其	-10.8828
善人	-10.8829
朽	-10.8832
有時	-10.8836
曹人	-10.8838
魯公	-10.884
姻	-10.884
政令	-10.8841
問於	-10.8842
子家	-10.8843
豈得	-10.8844
鼈	-10.8846
之灋	-10.8847
長而	-10.8847
政教	-10.8848
事故	-10.8849
乎天	-10.885
戊申	-10.8852
顔色	-10.8852
▁左氏傳	-10.8854
成卦	-10.8855
六子	-10.8857
促	-10.8859
魯史	-10.8867
庠	-10.8869
其生	-10.887
犂	-10.887
汶	-10.8873
反注同	-10.8875
濬	-10.8876
變則	-10.8876
二分	-10.8877
吳子	-10.8881
丁未	-10.8882
東序	-10.8885
墻	-10.8887
無君	-10.889
生焉	-10.8893
詛	-10.8893
漢儒	-10.8893
在其中矣	-10.8895
四爻	-10.8897
澄曰	-10.8899
而小	-10.89
電	-10.8901
以見其	-10.8906
堯之	-10.8907
己丑	-10.891
饗食	-10.8913
標	-10.8915
舉之	-10.8915
師于	-10.8935
六人	-10.8937
詩言	-10.8939
劉向	-10.8941
以伐	-10.8941
之門	-10.8943
曰君子	-10.8943
擊之	-10.8949
稱其	-10.8951
不敢以	-10.8952
明德	-10.8953
于廟	-10.8953
无悔	-10.8954
象傳	-10.8954
神農	-10.8959
以制	-10.8959
教民	-10.896
相連	-10.8963
表裏	-10.8964
注釋曰云	-10.8964
大饗	-10.8965
性命	-10.8965
惡其	-10.8966
失國	-10.8966
陛下	-10.8969
八尺	-10.897
正則	-10.8972
諸侯之大夫	-10.8974
二四	-10.8975
治兵	-10.8975
祉	-10.8976
叔孫豹	-10.8978
耜	-10.898
王所	-10.8985
而猶	-10.8988
5	-10.8991
制禮	-10.8992
而至於	-10.8995
姊妹	-10.8997
不顯	-10.8998
或言	-10.8999
邑也	-10.8999
之女	-10.9
大司徒	-10.9001
何謂	-10.9004
以出	-10.9006
嗇	-10.9006
隂之	-10.9007
是一	-10.9009
之䘮	-10.9009
古之人	-10.9012
▁孔氏曰	-10.9012
饔餼	-10.9016
聨	-10.9027
能使	-10.903
遄	-10.9032
君父	-10.9033
大司樂	-10.9033
載之	-10.9036
尊而	-10.9036
魯侯	-10.9039
詩書	-10.904
亦皆	-10.904
曰王	-10.9042
弃	-10.9044
舍之	-10.9048
黻	-10.9049
從事	-10.905
卒于	-10.9052
君不	-10.9053
扇	-10.9055
鄉遂	-10.9055
二十九	-10.9056
其長	-10.9056
一定	-10.9057
有慶	-10.9061
郜	-10.9061
誄	-10.9061
為先	-10.9061
六寸	-10.9061
農夫	-10.9062
死於	-10.9062
驂	-10.9066
干戈	-10.9067
鎬	-10.9069
使大夫	-10.9072
其服	-10.9073
易者	-10.9074
直書	-10.9076
中庭	-10.9077
寤	-10.9077
祀之	-10.9078
棣	-10.908
不貳	-10.9086
弄	-10.9089
媒	-10.9089
微者	-10.909
復歸	-10.9091
雖未	-10.9093
之要	-10.9093
其色	-10.9094
里克	-10.9095
琰	-10.9095
送之	-10.9099
緜	-10.9099
于民	-10.9106
劓	-10.9106
簧	-10.9106
皆所以	-10.9109
善者	-10.9111
認	-10.9112
殺也	-10.9112
壘	-10.9117
名為	-10.9118
獄訟	-10.9118
其利	-10.9118
鑑	-10.9121
燥	-10.9123
或謂之	-10.9126
丸	-10.9129
不祥	-10.9129
則止	-10.9132
熈	-10.9134
之差	-10.9135
為隂	-10.9136
實有	-10.9139
刈	-10.914
祭法	-10.914
仲孫	-10.9141
人物	-10.9141
西階上	-10.9145
作亂	-10.9146
潞	-10.9146
之狀	-10.9147
君位	-10.9156
帝王	-10.9157
莞	-10.9157
為母	-10.9157
甲午	-10.9159
居尊位	-10.9159
而云	-10.916
小宗	-10.9164
此文	-10.9166
周道	-10.9169
問曰	-10.9174
必待	-10.9175
洛邑	-10.9177
而稱	-10.9179
儲	-10.918
顧命	-10.9181
三王	-10.9182
其法	-10.9182
亦與	-10.9186
弘	-10.9186
睿	-10.9186
乃命	-10.9187
否曰	-10.9187
天下之事	-10.9188
曽孫	-10.9189
紂之	-10.9194
召陵	-10.9195
壮	-10.9197
之所由	-10.92
鍼	-10.9203
覇	-10.9203
若然	-10.9205
惇	-10.9209
三十里	-10.9209
以盡	-10.9212
正道	-10.9213
其官	-10.9216
小宰	-10.9219
太保	-10.9221
有兩	-10.9222
當其	-10.9225
賻	-10.9226
耽	-10.9232
撥	-10.9232
南陽	-10.9232
大亨	-10.9234
則凶	-10.9235
二君	-10.9237
聽命	-10.9239
楊氏曰	-10.924
説得	-10.9244
冡	-10.9246
太宗	-10.925
湯之	-10.9254
蹄	-10.9255
治亂	-10.9255
乃可	-10.9258
職云	-10.9259
沼	-10.926
於時	-10.9263
之剛	-10.9263
闊	-10.9266
迄	-10.9266
幂	-10.9266
舜典	-10.9267
射人	-10.9268
觀象	-10.9269
如楚	-10.927
惟恐	-10.9271
委曲	-10.9273
所止	-10.9273
之效	-10.9274
子朝	-10.9275
則已	-10.9276
通曰	-10.9277
文義	-10.9278
二十七年	-10.9279
書云	-10.928
有序	-10.9281
二寸	-10.9283
架	-10.9283
淹	-10.9283
明白	-10.9284
太蔟	-10.9284
人亦	-10.9286
夏五月	-10.9292
而加	-10.9294
賚	-10.9295
管子	-10.9296
山下	-10.9296
消息	-10.9296
後天	-10.9297
厎	-10.9301
尊賢	-10.9305
筍	-10.9307
切見	-10.9308
敝邑	-10.9312
利於	-10.9313
亦在	-10.9314
不吉	-10.9318
有德	-10.9322
為此	-10.9322
之水	-10.9324
下卦	-10.9324
功也	-10.9327
管蔡	-10.9328
卦體	-10.9329
春秋傳曰	-10.9335
樸	-10.9336
亦不能	-10.9336
出自	-10.9336
棄之	-10.9337
於理	-10.9338
之遺	-10.9339
所取	-10.9339
戰國	-10.9339
用六	-10.934
岀	-10.9341
召南	-10.9342
脛	-10.9347
臨之	-10.9348
九章	-10.935
五世	-10.9356
三才	-10.9356
三獻	-10.9358
雍州	-10.9359
他日	-10.9364
仗	-10.9365
讀書	-10.9366
生子	-10.9367
周頌	-10.9369
省文	-10.9371
▁理	-10.9372
其來	-10.9373
至善	-10.9374
重者	-10.9376
承上	-10.9377
隴	-10.9377
中士	-10.9381
六畫	-10.9384
大王	-10.9384
闕文	-10.9386
爪	-10.9387
凉	-10.9388
大廟	-10.939
西戎	-10.9392
血氣	-10.9393
▁毛傳	-10.9393
郯	-10.9395
之而已	-10.9396
御史	-10.9397
祭祀之	-10.9398
父在	-10.9398
百一十	-10.9402
麾	-10.9406
獲者	-10.9412
樂者	-10.9412
一説	-10.9413
是年	-10.9414
喪大記	-10.9414
九六	-10.9417
萬事	-10.9418
▁王氏曰	-10.942
匱	-10.9421
高宗	-10.9421
所從	-10.9422
狀如	-10.9422
涼	-10.9429
諷	-10.9433
孟春	-10.9434
攜	-10.9435
自相	-10.9435
嬰齊	-10.9437
詩序	-10.9437
自稱	-10.944
左氏曰	-10.9441
切文一重音一	-10.9441
二日	-10.9442
矧	-10.9447
乃有	-10.9448
𧰼	-10.945
酸	-10.9452
眇	-10.9452
証	-10.9452
必自	-10.9453
者豈	-10.9456
鬬	-10.9458
監本	-10.9459
不察	-10.9459
一朝	-10.9463
廪	-10.9464
安國	-10.9465
宗廟之	-10.9467
動之	-10.9468
轍	-10.9469
系	-10.947
與子	-10.9474
臣也	-10.9475
於五	-10.9476
其神	-10.9476
劉子	-10.9479
義者	-10.9482
一音	-10.9486
不致	-10.9488
棄疾	-10.9488
庶羞	-10.9489
水流	-10.949
小君	-10.949
各得其	-10.9491
知有	-10.9491
禍福	-10.9493
惡而	-10.9494
熾	-10.9494
肄	-10.9494
逾	-10.9494
人民	-10.9495
善則	-10.9497
動静	-10.9503
女之	-10.9504
中國之	-10.9505
髀	-10.9505
何得	-10.9512
襃	-10.9515
斃	-10.9517
按此	-10.9519
百二十	-10.9521
畎	-10.9523
福也	-10.9524
以尊	-10.9526
言我	-10.9527
於身	-10.9527
不齊	-10.9527
之辨	-10.9529
檜	-10.9529
新安陳氏曰	-10.953
公卿大夫	-10.9533
從上	-10.9533
陘	-10.9535
脾	-10.9535
之來	-10.9536
而後可	-10.9537
雖非	-10.9538
此一	-10.954
在彼	-10.9542
心而	-10.9542
離之	-10.9543
百畝	-10.9543
説者	-10.9547
人君之	-10.9547
東海	-10.9547
▁八月	-10.9549
宜其	-10.955
能自	-10.9551
三變	-10.9551
圖之	-10.9551
不畏	-10.9551
一一	-10.9551
山澤	-10.9551
五分	-10.9553
六鄉	-10.9555
鈎	-10.9559
耀	-10.9559
複	-10.9559
守其	-10.9559
民無	-10.956
卿大夫士	-10.956
故必	-10.9562
綦	-10.9565
墟	-10.9565
說文作	-10.9565
無文	-10.9566
而不及	-10.957
華元	-10.957
之誤	-10.9571
絹	-10.9571
之重	-10.9572
儒者	-10.9574
之舞	-10.9576
不離	-10.9577
今此	-10.9578
語録	-10.958
州府	-10.9581
不聽	-10.9582
爻變	-10.9583
之義故	-10.9587
駭	-10.9588
慶源輔氏曰	-10.9589
其死	-10.9589
▁牘	-10.9589
其弟	-10.9592
乾上	-10.9593
兕	-10.9594
圻	-10.9595
伐陳	-10.9597
泰誓	-10.9598
仁之	-10.9598
七十二	-10.9599
貶之	-10.9603
庚午	-10.961
而與之	-10.961
明明	-10.9611
彼此	-10.9611
疑也	-10.9612
罪也	-10.9618
盂	-10.9624
壝	-10.9624
惟有	-10.9626
集說	-10.9627
琢	-10.963
卦象	-10.9631
有九	-10.9634
報之	-10.9635
箱	-10.9636
親也	-10.9637
汭	-10.9639
此禮	-10.9641
縣有	-10.9641
陛	-10.9644
少陽	-10.9645
皇天	-10.9646
度量	-10.9647
叔弓	-10.9648
奠于	-10.9651
國之君	-10.9653
綺	-10.9654
𫉬	-10.9654
北上	-10.966
陽而	-10.9661
當如	-10.9665
特書	-10.9665
安於	-10.9666
集説	-10.9669
掃	-10.967
之甚也	-10.9672
不平	-10.9673
君子小人	-10.9673
八十一	-10.9675
用刑	-10.9675
而起	-10.9677
北向	-10.9678
於堂	-10.9679
侵鄭	-10.968
飛鳥	-10.9681
濟濟	-10.9682
姓也	-10.9683
鹿鳴	-10.9683
體也	-10.9686
得其正	-10.9686
立而	-10.9686
之會	-10.9694
笛	-10.9696
臼	-10.9697
日至	-10.9702
亂之	-10.9703
▁集説	-10.971
亦名	-10.9713
在左	-10.9714
櫛	-10.9714
季孫行父	-10.9715
之恩	-10.9721
德行	-10.9726
核	-10.9727
阪	-10.9727
四十九	-10.973
譚	-10.9733
衢	-10.9733
不孝	-10.9733
公作	-10.9734
檀	-10.9738
推而	-10.974
韜	-10.9745
夏時	-10.9746
臆	-10.9746
夏正	-10.975
盪	-10.9751
志於	-10.9754
舉觶	-10.9754
垢	-10.9757
旌旗	-10.976
製	-10.9763
中則	-10.9765
禮畢	-10.9767
牲體	-10.9768
天降	-10.9769
往則	-10.9776
無過	-10.9776
蒯	-10.9779
事業	-10.9785
以叛	-10.9786
有禮	-10.9788
之福	-10.9791
也鄭	-10.9791
一家	-10.9792
哉故	-10.9794
其書	-10.9798
斾	-10.9799
百世	-10.9808
歸而	-10.9809
君臣之	-10.9811
涂	-10.9811
個	-10.9811
岐山	-10.9812
嶺	-10.9824
▁白雲郭氏曰	-10.9824
踵	-10.983
虹	-10.983
彤	-10.983
之可也	-10.9831
如何曰	-10.9835
二千	-10.9838
自處	-10.9838
師之	-10.9839
所聞	-10.9842
謚	-10.9842
月之	-10.9843
三子	-10.9849
禋	-10.985
為名	-10.9851
文選	-10.9852
躋	-10.9853
今從	-10.9856
鄉大夫	-10.9857
自謂	-10.9864
倪	-10.9866
不時	-10.9867
是用	-10.9872
同義	-10.9873
故不書	-10.9874
以享	-10.9874
相得	-10.9874
公如晉	-10.9877
必欲	-10.988
東上	-10.9882
令尹	-10.9883
眼	-10.9885
則得	-10.9888
▁集傳	-10.9891
有可	-10.9892
而易	-10.9893
左傳云	-10.9895
軾	-10.9896
憎	-10.9897
迨	-10.9897
便有	-10.9899
彭城	-10.9899
有事於	-10.99
存疑	-10.9902
朴	-10.9903
洲	-10.9903
坤上	-10.9913
▁程子曰	-10.9914
亡矣	-10.9914
覃	-10.9915
升自西階	-10.9916
合之	-10.9916
朱傳	-10.9917
昭子	-10.9917
緇衣	-10.9922
儆	-10.9922
則天下	-10.9923
而忘	-10.9923
外之	-10.9924
公與	-10.9924
所惡	-10.9926
鯉	-10.9928
盡矣	-10.9929
小學	-10.9931
▁敖氏繼公曰	-10.9931
夫人之	-10.9932
與五	-10.9932
揭	-10.9934
四陽	-10.9935
以喻	-10.9939
文武之	-10.9941
辭以	-10.9945
竇	-10.9946
毖	-10.9946
▁孫	-10.9947
盆	-10.9953
▁世佐案	-10.9953
而去之	-10.9956
書其	-10.9958
洒	-10.9959
罔不	-10.9959
王宫	-10.9961
畫卦	-10.9962
人之心	-10.9963
頽	-10.9971
族人	-10.9974
置之	-10.9974
與二	-10.9978
少女	-10.9979
治水	-10.9981
此正	-10.9982
一心	-10.9982
鎛	-10.9983
故於	-10.9984
逋	-10.9985
坎下	-10.9986
晉國	-10.9989
前日	-10.9993
君子有	-10.9994
王畿	-10.9994
南向	-10.9996
禮以	-10.9999
天文	-11
其祖	-11.0002
公㑹晉侯	-11.0012
殃	-11.0015
之陽	-11.0015
實也	-11.0015
不疑	-11.0016
為用	-11.0017
己巳	-11.0017
交相	-11.0018
與君	-11.0019
劍	-11.0021
▁繼公謂	-11.0021
而後有	-11.0022
之迹	-11.0023
西向	-11.0024
株	-11.0025
晉人執	-11.0027
享之	-11.0034
歸父	-11.0041
井田	-11.0045
臻	-11.0046
邸	-11.0046
人能	-11.0046
期而	-11.0047
吉祭	-11.0048
縣東南	-11.005
手足	-11.0056
都賦	-11.0057
韋昭	-11.0057
在地	-11.0059
通典	-11.0062
泲	-11.0064
跋	-11.0064
齊桓公	-11.0065
匹夫	-11.0065
女子子	-11.0069
而不已	-11.007
再命	-11.0072
從楚	-11.0072
湆	-11.0083
者猶	-11.0085
借為	-11.0085
之化	-11.0088
陽為	-11.0092
所主	-11.0095
慤	-11.0096
分之	-11.0096
顔淵	-11.0098
自家	-11.01
中興	-11.0101
凍	-11.0102
未敢	-11.0106
欣	-11.0108
昵	-11.0108
幄	-11.0108
親者	-11.0112
曲直	-11.0117
性也	-11.0124
官名	-11.0125
乃為	-11.0126
響	-11.0127
斜	-11.0127
者先	-11.0127
二十二年	-11.0127
行師	-11.0129
獻之	-11.0131
司服	-11.0131
概	-11.0133
天下之至	-11.0135
曰大	-11.0135
執事者	-11.0136
所處	-11.0137
淺深	-11.0138
奔走	-11.014
互體	-11.0141
啖	-11.0142
或以為	-11.0144
枲	-11.0145
菅	-11.0146
陣	-11.0146
愠	-11.0146
辛亥	-11.0148
魯君	-11.015
衮冕	-11.0153
舞者	-11.0153
清明	-11.0154
大徳	-11.0155
其序	-11.0156
林鐘	-11.0157
坎上	-11.0157
荘公	-11.0158
于宋	-11.0158
在廟	-11.0159
者欲	-11.016
可使	-11.016
不許	-11.0163
于中	-11.0164
乗之	-11.0164
伺	-11.0165
諸矦	-11.0168
燠	-11.0171
於公	-11.0172
至今	-11.0174
桓子	-11.0176
之所謂	-11.0178
稱之	-11.0179
孔氏穎達曰	-11.0181
無子	-11.0182
故因	-11.0182
君所	-11.0184
耳若	-11.0185
淮南	-11.0187
即所謂	-11.0189
後漢書	-11.0193
直云	-11.0193
附於	-11.0194
切釋	-11.0195
𫝊曰	-11.0195
險而	-11.0195
上卦	-11.02
各切	-11.02
盛而	-11.0201
霤	-11.0201
家臣	-11.0202
而應	-11.0203
過則	-11.0204
前此	-11.0206
遼	-11.021
示人	-11.021
林氏曰	-11.0212
常事	-11.0213
成於	-11.0215
魁	-11.0215
顚	-11.0216
溥	-11.0216
▁伊川先生曰	-11.0216
玉帛	-11.0216
東都	-11.0222
初為	-11.0223
於事	-11.0224
日出	-11.0228
此其所以	-11.0231
治國	-11.0232
祖父母	-11.0234
養也	-11.0238
白虎通	-11.0238
不修	-11.0239
不加	-11.0241
周南	-11.0245
獻尸	-11.0246
数	-11.0247
然非	-11.0247
縶	-11.0247
臣鍇曰	-11.0253
紊	-11.0254
予之	-11.0254
橫	-11.026
屠	-11.026
所以明	-11.026
之害	-11.0268
乃復	-11.0268
知人	-11.0274
0	-11.0275
以中正	-11.0276
公使	-11.0277
何有	-11.0277
教化	-11.0279
腸	-11.0279
者因	-11.028
既已	-11.0281
和而	-11.0281
理而	-11.0282
寺人	-11.0283
星辰	-11.0286
曾孫	-11.0288
庖	-11.0289
色也	-11.0289
姊	-11.029
以救	-11.029
以爵	-11.029
之正也	-11.0291
薳	-11.0292
得其所	-11.0295
而安	-11.0295
之主也	-11.0296
可矣	-11.0297
萬年	-11.0297
慙	-11.0298
奔齊	-11.0299
洪水	-11.0301
禮部	-11.0302
嚌	-11.0304
久也	-11.0305
状	-11.0305
視其	-11.0305
亶	-11.0305
哀姜	-11.0305
平日	-11.0307
無益	-11.0311
孟氏	-11.0312
癸巳	-11.0313
六切	-11.0319
有所不	-11.032
與我	-11.032
故夫子	-11.0322
?」	-11.0324
▁林	-11.0325
于天子	-11.0328
記者	-11.033
詘	-11.033
三畫	-11.0332
合樂	-11.0332
九州之	-11.0333
皓	-11.0337
吟	-11.0337
視朝	-11.0338
既得	-11.0341
雜卦	-11.0343
息也	-11.0345
貧賤	-11.0345
理㑹	-11.0348
往也	-11.0348
戀	-11.035
于郊	-11.035
興起	-11.0351
順之	-11.0352
琮	-11.0353
和樂	-11.0357
必得	-11.036
變動	-11.036
以祭	-11.0361
焉爾	-11.0361
乾道	-11.0361
疾病	-11.0362
於道	-11.0365
康誥	-11.0366
必至	-11.0367
以起	-11.0368
設之	-11.0368
為禮	-11.0368
雷風	-11.0368
蒯聵	-11.0369
沐浴	-11.0369
皆由	-11.0371
同於	-11.0371
而言則	-11.0372
者多矣	-11.0372
在乎	-11.0373
肱	-11.0374
已而	-11.0376
與楚	-11.0377
而先	-11.0378
自下	-11.0379
有虞氏	-11.038
明王	-11.0381
第六	-11.0382
在堂	-11.0388
爵者	-11.039
瓚	-11.0393
昭明	-11.0397
與大夫	-11.0398
下有也字	-11.0398
固不	-11.0399
郭氏	-11.0399
過矣	-11.04
而受	-11.0402
捕	-11.0405
通也	-11.0411
之由	-11.0414
瘞	-11.0414
虡	-11.0414
久而	-11.0421
韻義異	-11.0423
先儒謂	-11.0423
學而	-11.0424
責其	-11.0425
皆以為	-11.043
陜	-11.043
揖讓	-11.0436
大祥	-11.0437
刑之	-11.0438
鏤	-11.044
發於	-11.0444
六日	-11.0444
何不	-11.0445
成服	-11.0446
巻	-11.0447
昃	-11.0447
地上	-11.0449
焉此	-11.0451
順天	-11.0453
以柔居	-11.0454
以陽	-11.0456
除之	-11.0464
山有	-11.0467
書者	-11.0467
物者	-11.0468
不得已而	-11.0469
橈	-11.0472
沸	-11.0472
之多	-11.0474
神主	-11.0474
黄鍾之	-11.0474
河北	-11.0474
猶在	-11.0475
水經	-11.0475
飾之	-11.0478
㑹而	-11.0478
耄	-11.0479
戊午	-11.048
沖	-11.0486
注曰	-11.0486
而使之	-11.0488
禮則	-11.0488
若無	-11.0489
自以為	-11.0495
申生	-11.0496
挺	-11.0499
之機	-11.0499
不踰	-11.0502
初生	-11.0502
者如此	-11.0503
切許氏曰	-11.0505
一旦	-11.0506
蕪	-11.051
泯	-11.0512
異乎	-11.0517
故春秋	-11.0518
齊國	-11.052
太原	-11.0524
漕	-11.0525
達於	-11.0527
樂作	-11.0531
至大	-11.0534
二女	-11.0535
孝公	-11.0537
初爻	-11.0537
鮪	-11.0538
阼階上	-11.0539
曰昔	-11.0541
不害	-11.0541
斯民	-11.0545
安之	-11.0548
非獨	-11.055
薺	-11.0551
告子	-11.0551
安定	-11.0556
乗車	-11.0557
柞	-11.0557
乎上	-11.0559
所受	-11.056
凡祭祀	-11.0562
在國	-11.0564
王政	-11.0565
二十一年	-11.0565
相因	-11.0567
已見	-11.0568
福禄	-11.0569
麇	-11.0571
天地之間	-11.0572
纒	-11.0577
乎哉	-11.0579
春正月	-11.0582
欲立	-11.0583
汪氏曰	-11.0585
為小	-11.0589
奔喪	-11.0591
特以	-11.0592
諾	-11.0593
不然則	-11.0594
卦為	-11.0596
上卿	-11.0597
大路	-11.0602
此三者	-11.0602
憐	-11.0604
瓶	-11.0604
閱	-11.0609
内卦	-11.061
上天	-11.0612
建國	-11.0615
切集韻韻㑹正韻	-11.0616
張子	-11.0616
以通	-11.0616
呈	-11.0617
立之	-11.0619
聖王	-11.0622
于人	-11.0625
犀	-11.063
交錯	-11.0635
有力	-11.0635
夷儀	-11.0639
不交	-11.064
皆自	-11.064
己亥	-11.0641
邦之	-11.0641
南郊	-11.0643
以奉	-11.0643
疵	-11.0643
不同也	-11.0644
人心之	-11.0646
度也	-11.0647
扐	-11.0647
豈無	-11.0648
尊之	-11.0649
大吉	-11.065
一二	-11.0652
結之	-11.0653
清濁	-11.0653
者凡	-11.0655
賢而	-11.0656
訴	-11.0656
亦用	-11.0658
而取	-11.0659
險阻	-11.0659
牝馬	-11.0661
春分	-11.0662
言行	-11.0663
為異	-11.0668
▁孟子曰	-11.0669
諸侯之師	-11.067
義而	-11.067
人人	-11.0671
厚薄	-11.0672
侍中	-11.0675
釡	-11.0676
以往	-11.0677
受福	-11.0681
嬪	-11.0682
以供	-11.0682
耒	-11.0683
蟹	-11.0683
皇祖	-11.0686
賓主	-11.0687
張子曰	-11.069
糗	-11.069
之舊	-11.069
助也	-11.069
交於	-11.069
心不	-11.069
圭璋	-11.0691
喪紀	-11.0695
史官	-11.0695
胎	-11.0696
也天子	-11.0698
不朝	-11.0698
入河	-11.0698
為心	-11.0699
贅	-11.0703
妥	-11.0703
徐州	-11.0709
若能	-11.071
孟子言	-11.0713
所致	-11.0719
六位	-11.0719
繢	-11.0723
廵守	-11.0724
子糾	-11.0724
其善	-11.0727
計切	-11.0729
此句	-11.073
以入	-11.0731
在焉	-11.0732
一命	-11.0736
以聽	-11.0736
不可勝	-11.0739
民不	-11.0739
之任	-11.0741
陌	-11.0743
耳故	-11.0744
莫大於	-11.0745
獨言	-11.0745
不興	-11.0746
改過	-11.0748
厄	-11.075
乾侯	-11.075
姑姊妹	-11.0752
甚明	-11.0753
晳	-11.0756
杼	-11.0756
租	-11.0756
不臣	-11.0757
土之	-11.0758
自天子	-11.0761
山東	-11.0763
不堪	-11.0763
昏姻	-11.0765
語辭	-11.0765
唐韻集韻	-11.0765
厚也	-11.0771
容貌	-11.0771
之凶	-11.0771
之心也	-11.0774
偷	-11.0776
黄道	-11.0779
馬氏曰	-11.078
僞	-11.0782
祀天	-11.0783
朱氏	-11.0784
喪祭	-11.0787
紳	-11.079
丙午	-11.0791
武成	-11.0792
清廟	-11.0794
金石	-11.0794
二篇	-11.0795
多方	-11.08
㠯	-11.0803
順乎	-11.0804
亦姓	-11.0807
離上	-11.0807
不進	-11.0808
乾坤之	-11.081
搢	-11.081
6	-11.081
伋	-11.081
泮	-11.081
矣何	-11.0811
五等	-11.0811
終不	-11.0813
多言	-11.0815
于天下	-11.0815
唐書	-11.0817
是矣	-11.0817
无妄之	-11.0817
備也	-11.0818
不問	-11.0818
毳	-11.0821
揚州	-11.0822
修徳	-11.0823
卒章	-11.0824
察其	-11.0828
州長	-11.0829
艮之	-11.083
旟	-11.083
彭蠡	-11.0831
王弼	-11.0836
言天	-11.0837
以共	-11.0837
河内	-11.0845
奠爵	-11.0845
起也	-11.0847
桷	-11.0851
西伯	-11.0854
可通	-11.0854
岱	-11.0856
為利	-11.086
十有二月	-11.086
其屬	-11.0861
地理志	-11.0862
綬	-11.0864
袍	-11.0864
球	-11.0864
成其	-11.0864
也不言	-11.0865
太陽	-11.0865
有喜	-11.0866
器用	-11.0867
近之	-11.0868
不幸	-11.0869
此之謂也	-11.0869
既不	-11.087
之事故	-11.0871
思慮	-11.0871
而失	-11.0871
疑之	-11.0872
據此	-11.0873
之時而	-11.0873
之未	-11.0883
黄氏曰	-11.0887
征之	-11.0889
消長	-11.089
怡	-11.0891
虺	-11.0895
又問	-11.0897
之計	-11.09
大行人	-11.09
喪其	-11.0902
成物	-11.0905
雅頌	-11.0909
任之	-11.0909
勤勞	-11.0909
邶	-11.0911
之類皆	-11.0912
▁仲	-11.0914
所自	-11.0914
以仁	-11.0915
曰天子	-11.0917
吞	-11.0918
鄭康成曰	-11.0921
如字又	-11.0921
賞罰	-11.0922
並行	-11.0924
春秋時	-11.0925
拇	-11.0925
恊	-11.0925
廟中	-11.0926
知來	-11.0926
豐年	-11.0927
貨賄	-11.0927
而難	-11.0929
大惡	-11.093
上下之	-11.0936
首尾	-11.0936
何足	-11.0936
不測	-11.0942
咎也	-11.0942
于魯	-11.0942
時事	-11.0943
重言	-11.0948
之誠	-11.0948
黄氏	-11.0949
乾下	-11.0952
疊	-11.0952
孔安國	-11.0954
疑其	-11.0959
將命	-11.0959
窮理	-11.096
凡有	-11.0962
義則	-11.0963
既言	-11.0965
衆庶	-11.0966
遮	-11.0966
蜩	-11.0966
諸侯以	-11.0967
守正	-11.0967
相比	-11.0968
十有六	-11.0971
一度	-11.0972
沓	-11.0973
譬如	-11.0975
傳稱	-11.0977
青州	-11.0977
宦	-11.098
為君子	-11.0983
逐之	-11.0984
用牲	-11.0985
劑	-11.0985
正當	-11.0985
詩之	-11.0986
悶	-11.0987
凡人	-11.0987
禴	-11.0987
而益	-11.0988
之人也	-11.0988
鄭以	-11.0989
正中	-11.099
庚寅	-11.099
賈氏曰	-11.0991
而可以	-11.0993
如京師	-11.0997
城在	-11.0998
敖氏	-11.1
㧞	-11.1
不得為	-11.1001
擊也	-11.1002
不解	-11.1004
踰年	-11.1005
逵	-11.1006
濵	-11.1007
i	-11.1014
葭	-11.1014
之事則	-11.1014
紼	-11.1014
柔中	-11.1015
訂	-11.1021
簟	-11.1021
扞	-11.1021
甚於	-11.1022
合乎	-11.1023
于朝	-11.1023
所自出	-11.1025
羹	-11.1028
郭璞曰	-11.103
之風	-11.103
引此	-11.1031
不爲	-11.1032
脯醢	-11.1034
玁狁	-11.1035
百四十	-11.1037
▁虞翻曰	-11.1037
不須	-11.1041
筥	-11.1042
國風	-11.1044
皃又	-11.1045
其物	-11.1045
郁	-11.1048
孫子	-11.1051
人之道	-11.1052
以取	-11.1052
譏其	-11.1052
輴	-11.1055
以應	-11.1058
媯	-11.1062
當是時	-11.1064
靈王	-11.1065
安得不	-11.1068
患難	-11.1072
城濮	-11.1073
隂爻	-11.1073
立政	-11.1073
逺之	-11.1073
易中	-11.1074
圈	-11.1074
坤下	-11.1077
者何也	-11.1079
一本	-11.1081
▁鄭箋	-11.1081
而無所	-11.1082
▁是故	-11.1083
脈	-11.1083
失也	-11.1085
坎水	-11.1089
以教	-11.1089
以敬	-11.1095
平陽	-11.1098
王公	-11.1104
中節	-11.1106
服者	-11.1108
之野	-11.1109
胖	-11.1111
多也	-11.1111
勞苦	-11.1112
周旋	-11.1112
荅拜	-11.1113
之具	-11.1114
伐我	-11.1116
傑	-11.1117
紘	-11.1118
餞	-11.1118
東向	-11.1122
天徳	-11.1122
震之	-11.1123
鮮虞	-11.1125
其過	-11.1125
禮運	-11.1126
▁敢	-11.1127
外卦	-11.1129
君親	-11.1129
邾婁	-11.113
必須	-11.1138
r	-11.1138
戢	-11.1139
二變	-11.1142
婚姻	-11.1146
母之	-11.1146
汲汲	-11.1147
夫家	-11.1148
四十八	-11.1149
漾	-11.1151
然後有	-11.1151
E	-11.1152
T	-11.1152
R	-11.1152
䜛	-11.1152
改為	-11.1156
以著	-11.1159
過之	-11.1161
大祭祀	-11.1162
暌	-11.1166
所存	-11.1168
其室	-11.1169
因而	-11.117
惠王	-11.1171
思其	-11.1174
陸璣	-11.1175
改元	-11.1175
外朝	-11.1177
為商	-11.1179
卞	-11.118
愛人	-11.1181
十二律	-11.1182
能行	-11.1183
戒懼	-11.1185
易傳	-11.1185
諸侯有	-11.1188
盟主	-11.119
我有	-11.1192
繼之以	-11.1193
圎	-11.1194
加之	-11.1195
徐曰	-11.1196
以兵	-11.1197
作詩	-11.1198
七十里	-11.12
皇太子	-11.12
夫之	-11.1201
又當	-11.1201
纍	-11.1201
譲	-11.1201
些	-11.1201
以天下	-11.1202
指其	-11.1202
内有	-11.1205
者固	-11.1206
▁鄭康成曰	-11.1208
公會	-11.1211
而吉	-11.1215
挽	-11.1215
様	-11.1215
所稱	-11.1221
不生	-11.1221
奪之	-11.1222
行於	-11.1225
乎外	-11.1227
苛	-11.1229
執爵	-11.1229
臧孫	-11.123
帝曰	-11.1231
非正也	-11.1233
終不可	-11.1233
之賦	-11.1235
武功	-11.1236
力行	-11.1238
冡宰	-11.124
夏官	-11.1241
養人	-11.1241
漳	-11.1242
此節	-11.1242
窆	-11.1243
未安	-11.1244
鄉人	-11.1244
一端	-11.1245
所知	-11.1247
五為	-11.1248
洫	-11.125
揉	-11.125
急也	-11.1252
而不見	-11.1255
無二	-11.1257
叩	-11.1257
惻	-11.1262
大牢	-11.1262
未甞	-11.1264
卅	-11.1265
什一	-11.1265
小民	-11.1266
范氏曰	-11.1267
故用	-11.1267
宗周	-11.1268
士冠禮	-11.1268
義見	-11.1272
大傳	-11.1273
善道	-11.1273
省聲	-11.1275
闑	-11.1276
九族	-11.1277
秋官	-11.1282
舊說	-11.1285
胃	-11.1286
羡	-11.1286
䖏	-11.1286
卷三	-11.1289
艮上	-11.1289
逆之	-11.1291
行其	-11.1292
虜	-11.1293
自晉	-11.1295
靈臺	-11.1296
三事	-11.1297
婦人之	-11.1299
邵子	-11.1304
層	-11.1307
湇	-11.1307
不可為	-11.1308
區區	-11.1308
困于	-11.1308
狄人	-11.1308
皆稱	-11.131
字彚	-11.1311
鷄	-11.1314
苕	-11.1314
河水	-11.1316
二音	-11.1317
康公	-11.1317
无疆	-11.132
貴乎	-11.132
大哉	-11.1326
地官	-11.1327
大業	-11.1327
這箇	-11.1329
就其	-11.1331
秋八月	-11.1334
秘	-11.1335
兎	-11.1335
於斯	-11.1337
諱之	-11.1338
不杖	-11.1341
秦晉	-11.1342
舛	-11.1342
乃止	-11.1343
聞其	-11.1344
雨雪	-11.1344
縣名	-11.1345
來盟	-11.1345
伐莒	-11.1346
離下	-11.1347
自内	-11.1349
片	-11.1349
無時	-11.1351
粢盛	-11.1353
文一重音一	-11.1356
剛柔相	-11.1357
無敢	-11.1357
賈逵	-11.1358
天下無	-11.1361
其先	-11.1362
繻	-11.1364
聲又	-11.1364
間有	-11.1367
世本	-11.1368
居尊	-11.1369
而升	-11.137
慾	-11.1371
烖	-11.1371
朞	-11.1371
應乎	-11.1371
古本	-11.1374
君陳	-11.1374
忠恕	-11.1375
水土	-11.1375
乎且	-11.1377
不恤	-11.1379
君臣之義	-11.138
嗣王	-11.1381
賢也	-11.1382
千乘	-11.1383
志云	-11.1383
初之	-11.1383
夏殷	-11.1384
覲禮	-11.1388
五事	-11.1388
扱	-11.1392
辛酉	-11.1394
肖	-11.1395
為角	-11.1398
葵丘	-11.1398
命婦	-11.1401
功成	-11.1402
其樂	-11.1405
之右	-11.1406
否則	-11.1407
之君子	-11.1407
結切	-11.141
逆女	-11.141
王業	-11.141
碎	-11.1414
頴	-11.1414
謀也	-11.1416
動靜	-11.1416
服䖍	-11.1417
角切	-11.142
稱公	-11.1421
袪	-11.1421
皋	-11.1421
不終	-11.1422
在朝	-11.1423
相繼	-11.1425
且如	-11.1426
甲寅	-11.1428
從王	-11.143
變者	-11.1433
已矣	-11.1434
加于	-11.1437
帝乙	-11.1438
藏於	-11.144
為中	-11.1441
祖禰	-11.1441
大祝	-11.1441
三十一年	-11.1442
不恭	-11.1442
崔氏	-11.1443
也至於	-11.1444
▁禮記	-11.1445
焉是	-11.1447
故使	-11.1448
昴	-11.1449
婚媾	-11.145
初二	-11.145
日而	-11.1453
洛陽	-11.1454
則否	-11.1454
穎	-11.1454
而謂之	-11.1454
者但	-11.1456
八章	-11.1459
也詩曰	-11.146
有節	-11.1461
新城	-11.1462
時則	-11.1463
定其	-11.1463
盡心	-11.1465
蘆	-11.1471
禳	-11.1471
惡人	-11.1472
膝	-11.1477
王莽	-11.1478
剡	-11.1478
虞書	-11.1479
以是為	-11.1481
上應	-11.1482
共之	-11.1484
不可謂	-11.1484
㓙	-11.1485
溝洫	-11.1486
國事	-11.1486
得臣	-11.1486
北宫	-11.1487
盖以	-11.1489
正與	-11.1489
説卦	-11.1489
萬國	-11.149
初上	-11.149
大衍	-11.1491
冐	-11.1493
城郭	-11.1493
其命	-11.1495
春王二月	-11.1499
成王之	-11.1499
罹	-11.15
五爻	-11.1502
相從	-11.1504
水旱	-11.1505
掌邦	-11.1506
糞	-11.1507
濶	-11.1507
六律	-11.1509
不倦	-11.1514
菲	-11.1514
胾	-11.1514
鋒	-11.1514
▁下之	-11.1515
▁張氏曰	-11.1517
卬	-11.1521
怙	-11.1521
得民	-11.1523
隂也	-11.1528
腫	-11.1529
紆	-11.1529
七分	-11.1531
大象	-11.1531
非所以	-11.1533
獮	-11.1536
骨肉	-11.1536
所以成	-11.1539
震上	-11.1539
居于	-11.1543
餌	-11.1543
有時而	-11.1544
膳夫	-11.1548
可行	-11.1549
能為	-11.155
線	-11.155
書法	-11.1554
梁山	-11.1555
大矣哉	-11.1556
新安	-11.1562
敗績	-11.1564
文帝	-11.1564
之邑	-11.1567
無怨	-11.1567
汪	-11.1569
晉書	-11.1571
損之	-11.1572
不可易	-11.1572
之仁	-11.1573
乃所以	-11.1573
和順	-11.1573
蔡邕	-11.1573
成就	-11.1574
體用	-11.1576
▁功	-11.1579
疑於	-11.1582
而必	-11.1583
經典	-11.1583
好學	-11.1583
十有五	-11.1586
以玉	-11.1586
後者	-11.1586
也孟子	-11.1586
大率	-11.1586
蔀	-11.1587
良馬	-11.1587
然有	-11.1588
▁廟	-11.1589
七章	-11.1593
勁	-11.1594
以六	-11.1597
也史記	-11.1598
寂	-11.16
于公	-11.1601
遞	-11.1601
拭	-11.1601
鮒	-11.1601
峯	-11.1601
而南	-11.1602
申之	-11.1602
宗婦	-11.1604
夫人姜氏	-11.1605
之基	-11.1607
其大夫	-11.161
應鐘	-11.1616
鈴	-11.1616
鄭註	-11.1618
而發	-11.1618
安民	-11.162
公孫敖	-11.162
酳	-11.1621
奠觶	-11.1621
成文	-11.1622
與齊	-11.1624
巽順	-11.1628
坦	-11.163
蠲	-11.163
祭統	-11.163
乎夫	-11.1631
祭禮	-11.1631
▁嚴陵方氏曰	-11.1635
朗	-11.1635
也集韻	-11.1636
虎賁	-11.1637
凡此	-11.1638
郵	-11.1638
丁丑	-11.1639
誠信	-11.1645
孔云	-11.1645
竅	-11.1645
疚	-11.1645
魋	-11.1645
足矣	-11.1645
▁左氏曰	-11.1646
而治	-11.1646
不同者	-11.1651
三篇	-11.1651
之身	-11.1652
罇	-11.1652
牛馬	-11.1652
秦師	-11.1652
别為	-11.1655
此論	-11.1662
盎	-11.1663
重於	-11.1664
無主	-11.1667
脤	-11.1667
旡	-11.1667
之數也	-11.1669
是理	-11.1669
曰寡君	-11.167
▁集説曰	-11.1671
馴	-11.1672
彪	-11.1674
滄	-11.1674
辦	-11.1674
㐮	-11.1674
識之	-11.1675
所傳	-11.1676
生于	-11.1678
斁	-11.1679
雝	-11.1681
險難	-11.1681
彚	-11.1683
休息	-11.1683
四郊	-11.1685
事皆	-11.1686
一書	-11.1686
七八	-11.1687
是月也	-11.1687
立廟	-11.1687
事理	-11.169
别名	-11.169
毛云	-11.1691
士師	-11.1693
以比	-11.1695
揮	-11.1695
殛	-11.1696
鑊	-11.1696
軷	-11.1696
所記	-11.1699
龍門	-11.17
上體	-11.1701
為害	-11.1701
以九	-11.1703
緼	-11.1704
一毫	-11.1704
鄭𤣥云	-11.1704
穆穆	-11.1705
而葬	-11.1708
一夫	-11.1711
扑	-11.1711
鳬	-11.1711
為卿	-11.1711
加以	-11.1712
曰予	-11.1713
肅肅	-11.1713
震下	-11.1713
夏商	-11.1714
五隂	-11.1716
之事而	-11.1716
誡	-11.1719
制其	-11.172
无所不	-11.1722
時行	-11.1723
昭王	-11.1724
▁帝	-11.1726
弗能	-11.1726
辛丑	-11.173
懦	-11.1733
邲	-11.1733
戊寅	-11.1734
㑹之	-11.1736
以辨	-11.1737
非徒	-11.1739
迅	-11.1741
莪	-11.1741
▁胡傳	-11.1746
狡	-11.1747
稚	-11.1748
級	-11.175
封之	-11.175
者由	-11.1751
孫氏曰	-11.1752
固守	-11.1752
巾車	-11.1753
為難	-11.1754
雁	-11.1755
鴟	-11.1755
小祥	-11.1756
未明	-11.1756
未葬	-11.1757
以金	-11.176
五者	-11.1765
虞翻	-11.1766
荆楚	-11.1769
百人	-11.1769
贖	-11.177
東房	-11.177
丙戌	-11.1771
祭義	-11.1773
而相	-11.1773
元咺	-11.1774
錫命	-11.1774
六曰	-11.1775
庚戌	-11.178
公至自	-11.1782
固已	-11.1783
不可復	-11.1785
換	-11.1785
亾	-11.1785
▁鄭鍔曰	-11.1785
籀文	-11.1786
于内	-11.1789
位於	-11.179
利渉大川	-11.1796
脩身	-11.1797
致知	-11.1798
然後可	-11.1799
于門外	-11.1802
書傳	-11.1805
二反	-11.1807
使卿	-11.1807
以剛中	-11.1807
俗呼	-11.1811
孔父	-11.1813
之質	-11.1814
灾	-11.1815
无攸利	-11.1815
之族	-11.1817
上篇	-11.1818
者二	-11.182
撻	-11.1822
第七	-11.1823
潦	-11.1823
傷也	-11.1824
宗族	-11.1824
大全	-11.1828
韓愈	-11.1829
袖	-11.183
繪	-11.183
和平	-11.183
在北	-11.1833
舍人	-11.1834
滎	-11.1834
單子	-11.1837
擁	-11.1837
於初	-11.1838
髙明	-11.1838
觀之則	-11.1842
之微	-11.1842
人自	-11.1845
天下之人	-11.1848
下句	-11.1848
不書葬	-11.185
利而	-11.1851
無足	-11.1852
穉	-11.1852
若之何	-11.1853
大國之	-11.1857
關雎	-11.1859
巽下	-11.186
掌之	-11.1862
前年	-11.1868
御者	-11.1869
▁興也	-11.1869
卒子	-11.1869
於經	-11.187
相傳	-11.1875
乙酉	-11.1877
枝葉	-11.1878
象之	-11.1878
慘	-11.1882
驩	-11.1882
柶	-11.1882
大川	-11.1887
莫敢	-11.1888
▁之以	-11.1889
冠禮	-11.1889
體而	-11.1889
羲和	-11.1892
其事也	-11.1894
不但	-11.1898
為長	-11.1901
相交	-11.1902
起居	-11.1903
▁夏五月	-11.1904
咏	-11.1905
治人	-11.1906
諸卦	-11.191
律吕	-11.1911
無功	-11.1911
又玉篇	-11.1912
上古	-11.1917
屬之	-11.1919
晁	-11.1919
腐	-11.192
林父	-11.1921
未足	-11.1923
倨	-11.1927
三十三	-11.1935
予小子	-11.1938
故鄭	-11.1941
醯	-11.1941
故謂	-11.1946
形而	-11.1946
喪事	-11.1948
燕飲	-11.1951
凡三	-11.1957
帳	-11.1957
為羽	-11.1958
本心	-11.1958
于西	-11.1959
二事	-11.1962
日有食之	-11.1963
蝗	-11.1965
羨	-11.1965
薦之	-11.1965
案此	-11.1966
下篇	-11.1967
之術	-11.1969
矣是	-11.1969
吉者	-11.1969
絮	-11.1972
甒	-11.1972
心之所	-11.1973
明而	-11.1974
帝紀	-11.1975
谿	-11.1975
假借	-11.1975
齊地	-11.1976
為衆	-11.1978
老者	-11.198
貞正	-11.1983
告也	-11.1984
跳	-11.1987
料	-11.1987
透	-11.1987
分寸之	-11.1989
以進	-11.1992
始于	-11.1993
蹕	-11.1995
闗雎	-11.1996
名之曰	-11.2
字彙	-11.2001
流言	-11.2002
季秋	-11.2003
降一等	-11.2003
於宋	-11.2004
▁氏曰	-11.2007
先入	-11.2008
公穀	-11.2009
其難	-11.201
凡四	-11.201
濟水	-11.2011
股肱	-11.2011
逺者	-11.2012
者既	-11.2013
居處	-11.2017
居喪	-11.2017
此數	-11.2017
百七十	-11.2017
别也	-11.2019
當用	-11.2019
坎險	-11.2021
魚腊	-11.2021
是言	-11.2023
弩	-11.2024
為右	-11.2025
為亂	-11.2025
鬱鬯	-11.2027
後來	-11.2027
所據	-11.203
得一	-11.2031
不諱	-11.2031
也若夫	-11.2032
闞	-11.2033
出則	-11.2035
藍	-11.2035
宗室	-11.2036
不嫌	-11.2039
六軍	-11.204
義與	-11.2041
楣	-11.2041
也詩云	-11.2043
互見	-11.2043
無後	-11.2045
忒	-11.2046
四徳	-11.2047
貞厲	-11.2048
豆籩	-11.2051
序云	-11.2054
名者	-11.2054
反又音	-11.2058
樵	-11.2059
此語	-11.206
一段	-11.206
之朝	-11.206
民者	-11.206
出師	-11.2061
困而	-11.2061
次於	-11.2063
而歸之	-11.2065
注言	-11.2066
未嘗有	-11.2067
豔	-11.2071
嵩	-11.2071
犢	-11.2071
懼而	-11.2073
文云	-11.2076
伏生	-11.2081
去國	-11.2083
不繫	-11.2083
丁亥	-11.2084
陳鄭	-11.2086
禜	-11.2086
世室	-11.2087
為九	-11.2089
唯有	-11.2089
王法	-11.209
九疇	-11.209
則先	-11.2092
中虚	-11.2094
內	-11.2094
禮曰	-11.2095
諸侯皆	-11.2098
公羊曰	-11.21
莠	-11.2102
伐邾	-11.2103
變於	-11.2104
不殺	-11.2105
坎之	-11.2107
芾	-11.2107
文徳	-11.211
有别	-11.211
鄫子	-11.211
字誤	-11.2111
爻之	-11.2111
庚申	-11.2112
教以	-11.2113
畜之	-11.2115
咽	-11.2117
銑	-11.2117
禡	-11.2117
培	-11.2117
虗	-11.2117
▁五月	-11.212
成徳	-11.2122
稽顙	-11.2123
則天	-11.2125
朔日	-11.2126
德而	-11.213
於東	-11.2132
也曷為	-11.2132
萑	-11.2132
熏	-11.2132
下殤	-11.2134
下應	-11.2135
不寧	-11.2135
已甚	-11.2136
坎坎	-11.2136
之䇿	-11.2138
▁子之	-11.214
桓王	-11.2142
告廟	-11.2142
雖在	-11.2143
所施	-11.2144
約之	-11.2144
江東	-11.2145
以證	-11.2146
迴	-11.2148
樗	-11.2148
遙	-11.2148
華山	-11.2149
於郊	-11.215
本卦	-11.215
行役	-11.2151
凡事	-11.2152
獨行	-11.2153
熹	-11.2156
請命	-11.2157
茨	-11.2158
于君	-11.2158
水在	-11.216
鄭地	-11.2161
非義	-11.2162
璜	-11.2163
三代之	-11.2163
順從	-11.2165
盟㑹	-11.2168
凶事	-11.217
吉禮	-11.217
衿	-11.2171
刺之	-11.2171
然矣	-11.2171
奉之	-11.2172
誤作	-11.2172
雖曰	-11.2173
之弊	-11.2175
禍亂	-11.2176
蘓	-11.2179
礿	-11.2186
明道	-11.2188
而後能	-11.2188
不知何	-11.219
六爻皆	-11.2191
養其	-11.2191
下流	-11.2191
之中而	-11.2192
五行之	-11.2193
曽祖	-11.2196
武丁	-11.2197
程氏曰	-11.2198
女君	-11.22
輹	-11.2202
炳	-11.2202
吿	-11.221
也其曰	-11.221
或者	-11.221
乆矣	-11.2212
何嘗	-11.2215
己未	-11.2216
之所能	-11.2219
焉耳	-11.2221
掠	-11.2225
予一人	-11.2226
天下之民	-11.2228
子般	-11.2229
新民	-11.2229
鏡	-11.2233
□□	-11.2233
飲之	-11.2234
澤之	-11.2236
隹	-11.224
不誠	-11.2243
無間	-11.2243
豫章	-11.2246
條理	-11.2246
汨	-11.2248
何獨	-11.2249
𤣥謂	-11.225
前人	-11.2253
樂而	-11.2255
冪	-11.2256
於大夫	-11.2257
此聖人	-11.2259
不假	-11.2263
平地	-11.2264
濳	-11.2264
郛	-11.2264
應門	-11.2265
之威	-11.2265
士匄	-11.227
搜	-11.2272
縊	-11.2272
著於	-11.2273
補遺	-11.2276
憂心	-11.2277
月而	-11.2277
態	-11.2279
鬛	-11.2279
鵲巢	-11.228
▁義曰	-11.2284
墠	-11.2285
也釋	-11.2286
公至自㑹	-11.2287
未為	-11.2287
鄘	-11.2287
7	-11.2287
不好	-11.2289
車服	-11.2291
名又	-11.2292
上爻	-11.2294
學易	-11.2295
瑣	-11.2295
鄄	-11.2295
變宫	-11.2298
憂之	-11.2301
在魯	-11.2302
發之	-11.2302
宗本紀	-11.2303
樂師	-11.2305
設於	-11.2305
人謂	-11.2306
而東	-11.2308
汴	-11.2311
盱	-11.2311
而長	-11.2315
之政令	-11.2316
極矣	-11.2318
冲	-11.2319
蕤賔	-11.2319
亂而	-11.2319
▁二月	-11.232
四百	-11.232
大夫以上	-11.2321
所及	-11.2322
繫於	-11.2322
能用	-11.2324
化育	-11.2325
報反	-11.2326
打	-11.2326
天之所	-11.2327
侵宋	-11.2329
未可以	-11.2331
拜受爵	-11.2331
乗馬	-11.2333
𤣥酒	-11.2333
淡	-11.2334
廓	-11.2334
易林	-11.2334
䘮服	-11.2335
為能	-11.2335
自知	-11.2339
大道	-11.2343
穿鑿	-11.2345
聖賢之	-11.2345
失正	-11.2345
攻之	-11.2345
不虞	-11.2349
无窮	-11.235
何可	-11.2351
者哉	-11.2351
忘其	-11.2351
御事	-11.2355
鎬京	-11.2355
顙	-11.2357
灑	-11.2358
恢	-11.2358
兊為	-11.2358
者唯	-11.236
一念	-11.2362
少儀	-11.2363
如此而	-11.2363
鄭鍔曰	-11.2366
廂	-11.2366
俛	-11.2366
臣民	-11.2366
諸侯而	-11.237
不得以	-11.2372
撃	-11.2373
者彼	-11.2374
倣此	-11.2377
卷二	-11.2387
察之	-11.2387
東夷	-11.239
者宜	-11.2392
管叔	-11.2392
以名	-11.2394
轄	-11.2397
耗	-11.2397
羣隂	-11.2398
不見其	-11.2399
六書	-11.24
二物	-11.2401
易道	-11.2401
揚子	-11.2403
則用	-11.2404
赤色	-11.2404
酅	-11.2405
始得	-11.2407
漢水	-11.2412
瑱	-11.2413
正朔	-11.2415
子西	-11.2415
故孔子	-11.2416
其首	-11.2418
豈其	-11.2418
循環	-11.2418
反對	-11.242
一語	-11.2422
王人	-11.2422
時人	-11.2422
州來	-11.2422
吾心	-11.2424
之名也	-11.2425
前章	-11.2427
長三尺	-11.2428
黝	-11.2429
王昭禹曰	-11.2429
盛貌	-11.2429
困窮	-11.243
有咎	-11.243
事事	-11.2432
而不為	-11.2433
存者	-11.2434
之資	-11.2435
卷二十	-11.2435
於彼	-11.2436
榭	-11.2436
髠	-11.2436
赫赫	-11.2437
格物	-11.2439
于社	-11.2444
而廢	-11.2444
燕射	-11.2444
襄仲	-11.2448
少隂	-11.2449
則所謂	-11.245
三十一	-11.2451
一見	-11.2451
酷	-11.2452
庭實	-11.2453
會于	-11.2453
為美	-11.2456
人無	-11.2457
公命	-11.2459
天之命	-11.246
則不得	-11.246
一變	-11.2463
𤣥冠	-11.2463
語録曰	-11.2465
禁令	-11.2466
以守	-11.2466
餓	-11.2468
導之	-11.247
邦國之	-11.2475
經言	-11.2475
四面	-11.2476
熒	-11.2476
湘	-11.2476
曵	-11.2476
更有	-11.2477
稱君	-11.248
制作	-11.2482
書卒	-11.2483
填	-11.2484
魚石	-11.2485
其節	-11.2488
而知之	-11.2491
堇	-11.2492
署	-11.2492
于河	-11.2492
艮下	-11.2493
从艸	-11.2494
同時	-11.2494
委積	-11.2495
先人	-11.2496
義曰	-11.2496
以身	-11.2496
子叔姬	-11.2497
六經	-11.2505
伐木	-11.2506
乙丑	-11.2507
a	-11.2508
篡	-11.251
之心而	-11.2513
件	-11.2515
璣	-11.2515
液	-11.2516
膴	-11.2516
涸	-11.2516
與國	-11.2517
而不用	-11.2518
此蓋	-11.2519
難而	-11.2521
所安	-11.2521
功業	-11.2528
乾卦	-11.2529
積石	-11.2529
新邑	-11.2537
溉	-11.254
敬王	-11.2542
以别	-11.2542
冕而	-11.2543
既以	-11.2544
欒盈	-11.2544
三百里	-11.2546
誰能	-11.2548
渥	-11.2548
玊	-11.2548
薰	-11.2548
之號	-11.2551
螟	-11.2556
貴於	-11.2557
自上	-11.2557
大君	-11.2558
長安	-11.2559
書日	-11.2559
誠也	-11.2559
聖人之道	-11.256
人鬼	-11.2562
輟	-11.2564
巽而	-11.2565
考其	-11.2567
九五之	-11.2568
雷雨	-11.2572
封疆	-11.2572
柔得中	-11.2573
得乎	-11.2573
亞獻	-11.2574
其舊	-11.2575
以配	-11.2579
詔王	-11.258
䕫	-11.258
奠於	-11.2582
之用也	-11.2587
叟	-11.2588
仲山甫	-11.2589
民之所	-11.2592
塊	-11.2596
以類	-11.2597
淇	-11.2599
兌為	-11.2601
為法	-11.2605
楚丘	-11.2607
音註	-11.2607
民力	-11.2607
矣且	-11.2608
極也	-11.2609
㓂	-11.2609
椘	-11.2612
如彼	-11.2613
權衡	-11.2615
則易	-11.2616
感動	-11.2616
公如齊	-11.2616
本有	-11.2618
纊	-11.262
從君	-11.2621
荀息	-11.2622
可久	-11.2625
樂止	-11.2625
同類	-11.2626
六官	-11.2626
無極	-11.2626
尚未	-11.2628
煮	-11.2629
腆	-11.2629
捧	-11.2629
姜嫄	-11.2629
比干	-11.2629
近君	-11.2633
能止	-11.2634
首止	-11.2636
群	-11.2637
不定	-11.2641
男女之	-11.2642
徐音	-11.2642
成數	-11.2643
誠之	-11.2643
太守	-11.2647
不流	-11.2648
切博雅	-11.2649
侍郎	-11.265
粹	-11.2651
化為	-11.2652
形如	-11.2653
之類也	-11.2656
此條	-11.2659
殷民	-11.266
可觀	-11.2661
貺	-11.2661
而得中	-11.2661
王師	-11.2662
壬辰	-11.2664
佩玉	-11.2668
臣道	-11.2668
我以	-11.2668
渴	-11.2669
愷	-11.2669
蔡傳	-11.267
祭則	-11.2672
戒其	-11.2672
用人	-11.2675
是詩	-11.2676
疫	-11.2677
誇	-11.2677
復命	-11.268
師氏	-11.2684
鰥	-11.2684
譎	-11.2685
鼙	-11.2685
皷	-11.2685
夘	-11.2687
釋奠	-11.2688
居於	-11.269
統於	-11.2691
上進	-11.2692
邦君	-11.2692
黏	-11.2693
槀	-11.2693
大故	-11.2701
仞	-11.2701
愉	-11.2702
謀之	-11.2706
澤中	-11.2707
曰不可	-11.2708
卑而	-11.2709
鉞	-11.2709
之象故	-11.2709
說者	-11.2709
慊	-11.271
脀	-11.271
告朔	-11.271
丘陵	-11.271
不中正	-11.271
猶曰	-11.2714
勞而	-11.2715
酏	-11.2718
閎	-11.2718
緡	-11.2718
之飾	-11.2719
之好	-11.2719
有功也	-11.272
之流	-11.272
凱	-11.2721
事有	-11.2721
畢公	-11.2722
以國	-11.2724
不勝其	-11.2727
横渠	-11.2728
不專	-11.2728
根本	-11.2731
又見	-11.2731
小兒	-11.2732
之功也	-11.2732
軹	-11.2734
數十	-11.2735
職事	-11.2737
也爾雅	-11.2737
大武	-11.2739
方其	-11.274
進則	-11.2741
簪	-11.2742
竹名	-11.2744
九河	-11.2745
安知	-11.2745
感應	-11.2745
焉其	-11.2747
於仁	-11.2747
樂則	-11.2749
粒	-11.275
問其	-11.2752
卷一	-11.2753
却是	-11.2754
言君子	-11.2754
劉歆	-11.2754
粢	-11.2754
祭地	-11.2755
裴	-11.2759
之漸	-11.2759
降而	-11.276
有寵	-11.276
漆沮	-11.2761
天理之	-11.2761
入聲	-11.2765
懌	-11.2767
㤗	-11.2767
彚纂	-11.2767
上下相	-11.277
而從之	-11.277
東遷	-11.2772
之和	-11.2773
二十九年	-11.2774
鍇	-11.2775
將至	-11.2775
槁	-11.2775
得吉	-11.2776
今俗	-11.2777
兖州	-11.2778
犧牲	-11.2783
葢以	-11.2783
炊	-11.2783
章八句	-11.2784
無逸	-11.2786
者天	-11.2786
豫州	-11.279
也於是	-11.279
箋曰	-11.2796
泰之	-11.2796
景王	-11.2797
語曰	-11.2799
崑崙	-11.28
离	-11.28
在右	-11.28
為可	-11.2805
陷於	-11.2806
餒	-11.2808
聖人以	-11.281
之爻	-11.281
是説	-11.2815
故城	-11.2816
涯	-11.2816
e	-11.2816
正祭	-11.2816
教也	-11.2822
老陽	-11.2823
之地也	-11.2825
采蘩	-11.2826
蒙引	-11.2829
勉之	-11.2829
為小人	-11.2829
兩爻	-11.283
侯國	-11.2831
食肉	-11.2831
乞師	-11.2833
其兄	-11.2836
五禮	-11.2836
詩者	-11.2837
唐孔氏曰	-11.2838
不能無	-11.2838
▁爻	-11.2839
剖	-11.2841
人名	-11.2841
方是	-11.2841
身而	-11.2842
學也	-11.2844
肆夏	-11.2846
北郊	-11.2847
傳文	-11.2847
天所	-11.2848
▁謝湜曰	-11.2849
大敗	-11.2849
君薨	-11.285
八分	-11.2852
至五	-11.2856
一時之	-11.2857
以東	-11.2857
臥	-11.2857
楷	-11.2857
節文	-11.2859
其葉	-11.286
略之	-11.2861
魯頌	-11.2861
不常	-11.2863
黄鳥	-11.2866
衛之	-11.2867
緩也	-11.2871
柔弱	-11.2873
齊侯宋公	-11.2873
九嬪	-11.2874
駮	-11.2874
樂章	-11.2875
三桓	-11.2878
于五	-11.2878
後鄭	-11.2879
不作	-11.288
上下皆	-11.2881
蓍龜	-11.2881
一般	-11.2882
紺	-11.2882
瘁	-11.2882
我者	-11.2882
氏掌	-11.2885
三傳	-11.2886
之車	-11.2888
日以	-11.2889
沽	-11.289
最為	-11.2893
召之	-11.2894
主兵	-11.2894
▁孟子	-11.2895
夸	-11.2899
不來	-11.2899
重在	-11.2901
士禮	-11.2903
弁絰	-11.2903
車也	-11.2905
漢有	-11.2906
勵	-11.2907
筓	-11.2907
五尺	-11.2909
慶封	-11.2909
本爻	-11.291
物皆	-11.291
説見	-11.291
又如	-11.2912
度之	-11.2915
其事而	-11.292
周王	-11.292
扃	-11.2924
沾	-11.2924
皇皇	-11.2927
王孫	-11.2928
乾乾	-11.2928
所養	-11.2929
搖	-11.2932
匠人	-11.2932
而哭	-11.2932
與三	-11.2933
大都	-11.2936
敗也	-11.294
卷四	-11.294
熬	-11.294
永貞	-11.294
尊位	-11.2948
煙	-11.2949
葛藟	-11.2949
所不能	-11.295
舉也	-11.2957
毛氏韻増	-11.2957
帨	-11.2957
觀此	-11.2957
功臣	-11.2958
黄金	-11.2962
則凡	-11.2962
農事	-11.2963
凡物	-11.2964
萬里	-11.2969
而順	-11.297
四體	-11.2971
邠	-11.2974
地理	-11.2978
械	-11.2978
有能	-11.2979
麌	-11.2982
鷺	-11.2983
一卦之	-11.2984
杞伯	-11.2984
辭之	-11.2985
難知	-11.2986
復生	-11.2987
為魯	-11.2987
又叶	-11.2988
綠	-11.299
斉	-11.299
矣蓋	-11.2994
之左	-11.2998
為四	-11.2998
驛	-11.2999
正心	-11.2999
形體	-11.3
陳留	-11.3
虎豹	-11.3001
聖人之心	-11.3003
季春	-11.3004
是皆	-11.3005
視朔	-11.3006
簠	-11.3007
同居	-11.3007
繕	-11.3007
癸丑	-11.3009
奭	-11.3009
又引	-11.3015
及此	-11.3015
列子	-11.3015
穹	-11.3015
本非	-11.3015
耳然	-11.3019
▁孔氏穎達曰	-11.3019
之最	-11.302
五官	-11.3022
穡	-11.3023
素服	-11.3026
閽	-11.3028
不盈	-11.3028
雉門	-11.3029
在家	-11.3031
駢	-11.3032
失時	-11.3033
開元	-11.3034
商頌	-11.3036
所以然者	-11.3036
不憂	-11.3036
也易曰	-11.3037
實以	-11.3038
許嫁	-11.3039
疋	-11.3041
釀	-11.3041
戰而	-11.3042
固非	-11.3045
㑹意	-11.3047
𤣥冕	-11.3047
則稱	-11.3049
蠆	-11.3049
此四	-11.3051
則無以	-11.3051
其末	-11.3052
西序	-11.3055
著矣	-11.3055
論其	-11.3056
淂	-11.3058
郳	-11.3058
東郊	-11.3059
矣哉	-11.3059
堯舜之	-11.306
祔於	-11.306
主人獻	-11.3061
鄭氏謂	-11.3065
來告	-11.3065
進於	-11.3068
南上	-11.3068
貞固	-11.3068
東流	-11.3069
太康	-11.307
東征	-11.3073
位乎	-11.3073
油	-11.3074
字之譌	-11.3075
辛卯	-11.3076
害於	-11.3077
無咎	-11.3077
都邑	-11.3077
附㑹	-11.3079
千乗	-11.3079
慈母	-11.3081
砥	-11.3083
不著	-11.3083
伐許	-11.3085
天子之禮	-11.3087
辛未	-11.3088
失其所	-11.3089
皇考	-11.3091
八百	-11.3091
郊社	-11.3092
金玉	-11.3093
除喪	-11.3097
所共	-11.3098
郑	-11.31
六師	-11.3101
為壇	-11.3104
俠	-11.3108
衣之	-11.3109
止則	-11.3112
盛衰	-11.3116
所感	-11.3117
亡國	-11.3121
皆書	-11.3122
自安	-11.3123
可以見	-11.3123
芬	-11.3125
礪	-11.3125
▁公羊傳	-11.3129
從人	-11.3129
其變	-11.3132
嘯	-11.3134
齡	-11.3134
五穀	-11.3135
並易	-11.3136
錫之	-11.3139
徳則	-11.3142
鄣	-11.3142
别子	-11.3142
朝歌	-11.3143
司馬法	-11.3144
世俗	-11.3147
者不能	-11.3152
所以養	-11.3154
賈誼	-11.3154
南宫	-11.3154
莊姜	-11.3155
兆民	-11.3155
不果	-11.3158
逰	-11.3159
鉦	-11.3159
故无咎	-11.3161
凡此皆	-11.3161
盛德	-11.3167
不以為	-11.3167
之責	-11.3167
煎	-11.3168
祓	-11.3168
易知	-11.3174
計之	-11.3176
檻	-11.3176
哉此	-11.3179
鳥之	-11.3179
與鄭	-11.3181
天地萬物	-11.3182
韭	-11.3182
黔	-11.3184
同故	-11.3188
就位	-11.3188
從政	-11.3189
焉得	-11.319
復入	-11.3191
者四	-11.3193
弇	-11.3193
必使	-11.3196
屬於	-11.3196
為妻	-11.3198
有成	-11.3199
庫門	-11.3201
而思	-11.3205
如一	-11.3206
蠡	-11.321
梏	-11.321
白馬	-11.3211
正者	-11.3213
之運	-11.3213
交切	-11.3218
跨	-11.3219
暴虐	-11.3219
國政	-11.3221
其分	-11.3222
字書	-11.3222
四望	-11.3223
扶風	-11.3225
欲去	-11.3225
紒	-11.3227
遑	-11.3229
起而	-11.3229
二公	-11.3229
不當位	-11.323
金縢	-11.323
詩傳	-11.3231
非人	-11.3232
天下之理	-11.3235
姬姓	-11.3235
兩手	-11.3235
也文一重音一	-11.3236
大意	-11.3237
反本	-11.3239
自治	-11.3239
魯大夫	-11.3241
乘之	-11.3241
從此	-11.3241
風之	-11.3242
之言也	-11.3243
啼	-11.3245
恐非	-11.3245
春王三月	-11.3246
禦之	-11.3247
信而	-11.3248
孟子所謂	-11.3248
二三子	-11.3249
孔曰	-11.3249
成矣	-11.3249
道義	-11.325
▁弟	-11.3251
叅	-11.3253
慄	-11.3253
牂	-11.3253
構	-11.3253
醇	-11.3253
禆	-11.3253
晉文公	-11.3257
者以此	-11.3258
騶	-11.3259
是心	-11.3262
鄭氏康成曰	-11.3262
國佐	-11.3267
乎人	-11.3269
之刑	-11.3275
始見	-11.3276
愛其	-11.3277
賜也	-11.3279
貼	-11.3279
周語	-11.328
帝堯	-11.3281
之法也	-11.3283
吳人	-11.3284
用心	-11.3287
气	-11.3288
克之	-11.3288
遂人	-11.3288
以善	-11.3288
以成其	-11.329
光武	-11.3292
掖	-11.3293
誼	-11.3295
振旅	-11.33
生成	-11.3303
祕	-11.3305
韓侯	-11.3306
丙子	-11.3306
韻今圈	-11.3311
不務	-11.3311
不樂	-11.3311
故取	-11.3314
顛倒	-11.3315
悠	-11.3317
鄉黨	-11.3317
而不知其	-11.3322
紇	-11.3322
後言	-11.3322
壓	-11.3322
紕	-11.3322
孑	-11.3322
黷	-11.3322
成子	-11.3323
極言	-11.3324
齊晉	-11.3324
所好	-11.3325
與同	-11.3326
釋例	-11.3327
敬慎	-11.3327
故事	-11.3328
亦不得	-11.3328
荏	-11.3331
眩	-11.3331
曰夫	-11.3331
生時	-11.3333
上射	-11.3333
無遺	-11.3335
尺四寸	-11.3339
鴞	-11.3339
朝王	-11.334
而盡	-11.334
所以示	-11.3341
所立	-11.3342
又自	-11.3345
此道	-11.3345
帖	-11.3348
西河	-11.3352
其父母	-11.3354
煖	-11.3357
寕	-11.3357
霽	-11.3357
秬鬯	-11.3357
皆指	-11.3359
震巽	-11.3361
自見	-11.3361
季文子	-11.3362
也禮記	-11.3363
規模	-11.3367
圍之	-11.3367
吉无咎	-11.3367
北海	-11.3367
中書	-11.3369
或省	-11.3369
輔相	-11.3371
司城	-11.3372
乍	-11.3374
可考	-11.3376
居四	-11.3377
己酉	-11.3377
私欲	-11.3379
晉大夫	-11.3381
卦以	-11.3381
慧	-11.3383
耘	-11.3383
熊氏	-11.3384
亨者	-11.3387
齊侯使	-11.3388
之域	-11.3389
兩旁	-11.339
蟻	-11.3392
存心	-11.3393
變而為	-11.3394
愛也	-11.3396
相朝	-11.3398
必用	-11.3399
於家	-11.3399
竦	-11.34
謂我	-11.3404
于戚	-11.3405
廟門外	-11.3407
别於	-11.3409
死之	-11.341
聚而	-11.3413
無能	-11.3414
鼎之	-11.3414
則宜	-11.3416
奠之	-11.3416
地以	-11.3417
芥	-11.3418
碣石	-11.3419
豚魚	-11.3421
本意	-11.3422
公薨	-11.3423
也况	-11.3423
方來	-11.3425
滂	-11.3427
穗	-11.3427
彩	-11.3427
亦因	-11.3429
少者	-11.343
者見	-11.3431
高祖	-11.3432
左師	-11.3434
暘	-11.3435
解見	-11.3438
其器	-11.3438
使知	-11.3439
人之情	-11.3442
莫若	-11.3443
虞人	-11.3443
好也	-11.3444
西山	-11.3448
且以	-11.3448
不能盡	-11.3449
制也	-11.3449
逺人	-11.345
弗敢	-11.3452
而化	-11.3453
廐	-11.3453
正義曰此	-11.3453
師保	-11.3453
失之矣	-11.3454
列切	-11.3456
事上	-11.3457
君子所	-11.3458
不遺	-11.3458
巽上	-11.3461
㡳	-11.3462
盟而	-11.3463
大命	-11.3463
隨其	-11.3463
之容	-11.3463
在所	-11.3465
勿恤	-11.3467
炎上	-11.347
於其間	-11.347
煑	-11.347
殉	-11.347
足也	-11.3471
復之	-11.3475
无咎象曰	-11.3476
不知所	-11.3476
聽其	-11.3477
錡	-11.3479
閻	-11.3479
鳶	-11.3479
與衆	-11.348
者舉	-11.3481
冉有	-11.3487
曽子問	-11.3488
慨	-11.3488
變風	-11.3492
有應	-11.3495
而處	-11.3496
甑	-11.3497
卦徳	-11.3502
▁十有二月	-11.3503
同意	-11.3503
傳正義曰	-11.3503
欲求	-11.3504
國都	-11.3505
其明	-11.3505
煬	-11.3506
詒	-11.3506
騏	-11.3506
施于	-11.3507
而魯	-11.3507
其夫	-11.3509
恃其	-11.3509
丞相	-11.351
者然	-11.3511
反身	-11.3511
一理	-11.3511
事神	-11.3512
項氏曰	-11.3512
五經	-11.3513
鄢	-11.3514
忱	-11.3514
煦	-11.3514
辟廱	-11.3515
可信	-11.3517
伯父	-11.3518
之助	-11.3521
于鄭	-11.3521
平易	-11.3522
季冬	-11.3523
近郊	-11.3525
赤子	-11.3527
言文王	-11.3529
離明	-11.353
詩作	-11.3532
現	-11.3532
也此言	-11.3533
皇太后	-11.3534
有家	-11.3534
道心	-11.3536
止言	-11.3536
黒色	-11.3537
▁秋八月	-11.3538
也孔氏曰	-11.3538
以德	-11.3539
天地間	-11.3539
有竒	-11.354
安有	-11.3542
埤雅	-11.3542
三年之	-11.3542
語也	-11.3543
逃歸	-11.3544
必然	-11.3547
兩句	-11.3549
笠	-11.355
蠢	-11.355
龠	-11.355
鄭之	-11.3551
▁冬十有二月	-11.3553
以致其	-11.3554
三十四	-11.3555
唁	-11.3555
宜矣	-11.3556
奕	-11.3556
王崩	-11.3556
宋襄	-11.3557
以益	-11.3558
於庭	-11.3558
懼其	-11.3559
路門	-11.3559
平也	-11.356
同用	-11.356
不偏	-11.356
投壺	-11.3561
㑹葬	-11.3565
一國之	-11.3566
同體	-11.3566
何謂也	-11.3566
絶其	-11.3567
珪	-11.3568
臀	-11.3568
眂	-11.3568
己者	-11.3568
後乃	-11.3568
之比	-11.3568
君若	-11.357
專以	-11.3573
采蘋	-11.3573
京兆	-11.3576
縵	-11.3576
不能救	-11.3576
感而	-11.3577
也觀	-11.3578
望其	-11.3579
不可見	-11.3582
㑹稽	-11.3583
六五之	-11.3583
小亨	-11.3584
崖	-11.3585
太后	-11.3588
侯切	-11.359
不怨	-11.3591
棐	-11.3592
於世	-11.3592
紱	-11.3592
妄動	-11.3595
始封	-11.3597
故以為	-11.3598
天王使	-11.3601
價	-11.3603
定之	-11.3604
者據	-11.3607
也雖然	-11.3608
莧	-11.3608
切二	-11.3609
之病	-11.361
祭先	-11.3611
譙	-11.3612
樂以	-11.3613
飲食之	-11.3613
可貞	-11.3613
定位	-11.3617
原隰	-11.362
翩	-11.3621
苓	-11.3621
暱	-11.3621
孔氏穎逹曰	-11.3621
勞之	-11.3621
未易	-11.3622
増韻	-11.3622
方氏	-11.3623
者也然	-11.3623
天性	-11.3623
書作	-11.3623
㽔賔	-11.3623
涵	-11.3623
甲辰	-11.3625
其儀	-11.3626
頡	-11.3629
滎陽	-11.3629
壬戌	-11.3631
惡惡	-11.3631
六遂	-11.3631
卜之	-11.3631
嗣君	-11.3632
致爵	-11.3632
讀曰	-11.3634
水上	-11.3635
本乎	-11.3636
信乎	-11.3636
必當	-11.3637
亂世	-11.3638
洵	-11.3639
齍	-11.3639
虎牢	-11.3641
右師	-11.3643
至徳	-11.3646
兵器	-11.3646
煇	-11.3648
前言	-11.365
諸人	-11.3652
釣	-11.3657
也玉篇	-11.3657
居五	-11.3659
臣召南	-11.366
先聖	-11.3662
隂而	-11.3669
通乎	-11.3669
佐之	-11.3671
共王	-11.3672
三揖	-11.3672
之久	-11.3672
瘍	-11.3675
腎	-11.3675
濩	-11.3675
廸	-11.3675
饗之	-11.3675
趙鞅	-11.3677
▁毛曰	-11.3679
而取之	-11.3679
肸	-11.3681
b	-11.3683
白色	-11.3688
苐	-11.3693
坐取	-11.3696
共工	-11.3697
三監	-11.3698
四十五	-11.3698
不敢自	-11.3699
初無	-11.3701
飪	-11.3701
而好	-11.3707
然必	-11.3708
秋九月	-11.3708
梁州	-11.3711
異同	-11.3712
萬民之	-11.3716
以承	-11.3718
後儒	-11.3718
一種	-11.3719
深也	-11.3719
韍	-11.3719
小宗伯	-11.372
這裏	-11.3721
上去	-11.3722
▁太	-11.3724
皆與	-11.3726
孺	-11.3726
▁劉氏曰	-11.3727
下管	-11.3727
肴	-11.3728
幽明	-11.3729
京房	-11.3729
所封	-11.3734
癸未	-11.3735
立君	-11.3736
揔	-11.3737
燧	-11.3737
觳	-11.3738
公羊傳曰	-11.3738
女字	-11.3741
能守	-11.3742
吉甫	-11.3742
戎車	-11.3742
法之	-11.3743
得罪	-11.3744
箋正義曰	-11.3744
三十五	-11.3745
于門	-11.3746
𥙷	-11.3746
穰	-11.3747
瑗	-11.3747
揚子方言	-11.3747
畫之	-11.3748
固當	-11.3749
於鄭	-11.3749
也孟子曰	-11.3749
莫大乎	-11.3753
禘祫	-11.3753
▁李	-11.3754
厓	-11.3756
鏃	-11.3756
叢生	-11.3756
不亂	-11.3761
棄其	-11.3762
異故	-11.3762
斷之	-11.3764
彗	-11.3765
南海	-11.3765
終于	-11.3767
其誠	-11.377
之以禮	-11.3771
其衆	-11.3771
澤上	-11.3771
太和	-11.3772
之序也	-11.3772
孰能	-11.3773
光也	-11.3776
所治	-11.3777
七廟	-11.3779
又如字	-11.378
穆叔	-11.3781
聖人所以	-11.3782
吉服	-11.3782
罋	-11.3783
官之長	-11.3785
用布	-11.3785
不期	-11.3786
之位也	-11.3788
皆取	-11.3791
賢才	-11.3791
多故	-11.3791
仲孫蔑	-11.3792
盛大	-11.3793
以陽剛	-11.3794
主乎	-11.3795
過中	-11.3795
大戴禮	-11.3797
物有	-11.3798
禮文	-11.3798
不載	-11.3799
無定	-11.38
馨	-11.38
浦	-11.38
封禪	-11.38
饎	-11.3801
▁五年	-11.3803
自養	-11.3804
性善	-11.3804
救陳	-11.3804
互坎	-11.3805
季孫宿	-11.3807
故可	-11.3808
不可用	-11.3809
所求	-11.381
怯	-11.381
其質	-11.381
按左氏	-11.381
▁朱註	-11.3811
都是	-11.3814
諸爻	-11.3816
拙	-11.3819
蠃	-11.3819
帝嚳	-11.3822
父為	-11.3823
利見	-11.3825
春秋之義	-11.3827
茫	-11.3828
天王崩	-11.3829
子曰君子	-11.3832
之境	-11.3836
有他	-11.3838
而遷	-11.384
好善	-11.384
碩人	-11.3844
親戚	-11.3849
與民	-11.385
末章	-11.3851
歸藏	-11.3853
亦不敢	-11.3854
亘	-11.3855
莭	-11.3855
是就	-11.3857
國無	-11.3858
王國	-11.3858
攷之	-11.3858
禮樂之	-11.3862
鄭玄	-11.3863
忝	-11.3865
夫音扶	-11.3865
奔晉	-11.3866
其應	-11.3867
見殺	-11.3868
述其	-11.3869
勝者	-11.3869
經綸	-11.3871
處父	-11.3872
急於	-11.3873
秦漢	-11.3874
文侯	-11.3875
參差	-11.3877
也莊子	-11.388
北燕	-11.3881
他卦	-11.3882
脣	-11.3883
譛	-11.3883
五星	-11.3887
皇父	-11.3888
洛誥	-11.3888
司農	-11.3891
杜氏注	-11.3891
作春秋	-11.3891
贏	-11.3892
二等	-11.3895
蔡叔	-11.3897
者五	-11.3897
字之誤	-11.3898
夾鐘	-11.3898
識其	-11.3899
毛公	-11.39
人知	-11.3902
水名在	-11.3903
而變	-11.3909
有年	-11.3909
幷	-11.391
由其	-11.3911
近世	-11.3911
本是	-11.3911
無形	-11.3912
後有	-11.3913
然猶	-11.3913
仲遂	-11.3914
曰古者	-11.3916
貞凶	-11.3917
貢賦	-11.3917
同一	-11.3918
瞿	-11.3919
▁考異古本註	-11.392
易之道	-11.392
難以	-11.3921
▁蕙田案以上	-11.3923
左𫝊	-11.3924
百九十	-11.3926
後至	-11.3926
之衰	-11.3926
夷吾	-11.3927
忠厚	-11.3928
柷	-11.3929
說得	-11.3929
奚齊	-11.393
乘車	-11.3931
悠悠	-11.3932
考證	-11.3932
□(	-11.3934
後魏	-11.3935
有位	-11.3936
謔	-11.3938
狃	-11.3938
皁	-11.3947
槐	-11.3947
▁横渠先生曰	-11.3947
君以	-11.395
與此同	-11.3953
之訓	-11.3953
運行	-11.3954
敗之	-11.3955
恬	-11.3956
効	-11.3956
搆	-11.3956
此明	-11.3961
下言	-11.3962
入而	-11.3963
用幣	-11.3966
元子	-11.3969
之小者	-11.3971
常在	-11.3972
江淮	-11.3972
伯主	-11.3973
祭于	-11.3973
之屬也	-11.3974
坼	-11.3975
習之	-11.3979
肉也	-11.3982
觴	-11.3984
為吉	-11.3987
虞夏	-11.3988
于前	-11.3989
為之也	-11.3993
長女	-11.3994
鳥也	-11.3999
崔杼	-11.4002
門東	-11.4002
韎	-11.4003
亦可謂	-11.4008
桴	-11.4012
嗣子	-11.4012
讀者	-11.4013
所守	-11.4014
社稷之	-11.4015
之災	-11.4015
荘子	-11.4019
郭璞云	-11.402
登歌	-11.402
莎	-11.4021
鞞	-11.4021
人子	-11.4027
也亦姓	-11.4028
大行	-11.4029
櫜	-11.403
曺	-11.403
畨	-11.403
二南	-11.4034
爻象	-11.4035
武城	-11.4035
也孔子	-11.4038
人謂之	-11.4039
梟	-11.404
伉	-11.404
見前	-11.404
速也	-11.4045
一卷	-11.4047
南鄉	-11.4048
㓕	-11.4049
墀	-11.4049
狥	-11.4049
姪娣	-11.405
絜矩	-11.405
得人	-11.4051
邑名	-11.4052
大火	-11.4055
之制也	-11.4056
點	-11.4058
摘	-11.4058
大禮	-11.406
滅國	-11.406
无位	-11.4061
父卒	-11.4061
讀爲	-11.4062
象占	-11.4063
之過也	-11.4066
日行	-11.4066
蕢	-11.4068
百六十	-11.4068
不能行	-11.4071
固不可	-11.4074
承之	-11.4075
矣豈	-11.4077
七尺	-11.4081
授受	-11.4082
于野	-11.4082
齊王	-11.4089
夾室	-11.4091
次國	-11.4094
欲見	-11.4094
固是	-11.4095
篇海類編	-11.4096
甚多	-11.4097
乎若	-11.4099
▁對曰	-11.4099
丙辰	-11.4099
六反	-11.41
欒書	-11.4101
▁咎	-11.4102
其㫖	-11.4105
膾	-11.4105
駱	-11.4105
洋洋	-11.4105
自明	-11.4107
切水	-11.4108
刀切	-11.4109
反哭	-11.4109
正謂	-11.411
乗剛	-11.4114
謂五	-11.4116
又非	-11.4117
鐘磬	-11.4122
吉日	-11.4123
民皆	-11.4123
嗑	-11.4123
之盛也	-11.4126
記之	-11.4127
相濟	-11.4128
歌之	-11.4129
以封	-11.4131
皎	-11.4133
廛	-11.4133
絀	-11.4133
健而	-11.4136
之度	-11.4136
舊史	-11.4139
不設	-11.4139
女歸	-11.414
從祖	-11.414
楯	-11.4142
秣	-11.4143
天下國家	-11.4143
第八	-11.4145
焉用	-11.4146
)□(	-11.4146
坤順	-11.4147
乃謂	-11.4147
孝孫	-11.4148
狐裘	-11.4148
有善	-11.4149
中大夫	-11.4149
不㑹	-11.4149
亦宜	-11.415
從祀	-11.4151
中實	-11.4152
觀其所	-11.4152
阨	-11.4152
利之	-11.4152
而後可以	-11.4153
歸生	-11.4154
尋常	-11.4154
褒貶	-11.4157
害之	-11.4159
爻言	-11.4159
為主而	-11.416
9	-11.4161
鋤	-11.4161
迥	-11.4161
不越	-11.4163
之歌	-11.4166
所至	-11.4167
爲主	-11.4167
呉子	-11.4168
不遑	-11.4169
劫	-11.4171
諸父	-11.4172
卦中	-11.4173
天行	-11.4174
▁釋曰云	-11.4175
雷電	-11.4176
爻皆	-11.4178
繼世	-11.4179
俶	-11.418
褻	-11.418
也又音	-11.4181
而朝	-11.4182
天氣	-11.4185
幣帛	-11.4187
宋華元	-11.4187
詞也	-11.4189
第九	-11.4189
我則	-11.419
仆	-11.419
諺	-11.419
四升	-11.4191
射則	-11.4194
孟獻子	-11.4194
加一	-11.4195
道藝	-11.4195
何由	-11.4201
炭	-11.4208
不重	-11.4208
又能	-11.4208
者言之	-11.421
子展	-11.421
大體	-11.4214
長男	-11.4214
三江	-11.4215
大夫盟	-11.4216
好色	-11.4217
逡	-11.4218
五廟	-11.4218
.	-11.4218
▁郝氏曰	-11.422
戊子	-11.422
與晉	-11.422
欲得	-11.4224
比而	-11.4228
卷五	-11.4229
練冠	-11.423
小異	-11.4231
其爵	-11.4232
央	-11.4234
少退	-11.4235
沬	-11.4237
大槩	-11.4239
貴也	-11.424
郎切	-11.424
齊家	-11.424
王肅云	-11.4244
六服	-11.4244
食於	-11.4245
者必有	-11.4245
遷善	-11.4246
翠	-11.4246
鄖	-11.4246
是月	-11.4247
而分	-11.4249
隂陽相	-11.4249
但有	-11.425
天生	-11.425
二説	-11.4252
之兵	-11.4252
不詳	-11.4255
長兄弟	-11.4255
告以	-11.4255
遷之	-11.4256
鷙	-11.4256
匈奴	-11.4256
六百	-11.4256
十有三年	-11.4259
曾祖	-11.4261
何能	-11.4261
則亂	-11.4261
力切	-11.4261
近也	-11.4262
下卦之	-11.4264
頷	-11.4265
故此	-11.4269
為體	-11.4272
叛晉	-11.4273
此二者	-11.4275
太祝	-11.4275
叔武	-11.4277
者以為	-11.4277
之𩔖	-11.4279
不同而	-11.4279
仲秋	-11.4281
而始	-11.4282
以禦	-11.4282
喚	-11.4284
撮	-11.4284
安在	-11.4285
其害	-11.4285
近者	-11.4287
之為物	-11.4289
也彼	-11.4292
挑	-11.4294
蜂	-11.4294
躐	-11.4294
必書	-11.4295
註疏	-11.4298
車徒	-11.4299
主國	-11.4299
與公	-11.4303
仕者	-11.4305
云天子	-11.4307
踐土	-11.4309
次也	-11.431
更無	-11.4311
不遷	-11.4312
孟冬	-11.4315
之徳也	-11.4318
為質	-11.4318
▁四年	-11.4322
矣然則	-11.4323
而知其	-11.4323
無别	-11.4323
子貢曰	-11.4327
九居	-11.4327
猶云	-11.4327
宋衛	-11.4331
挹	-11.4332
尚可	-11.4335
亡者	-11.4336
有形	-11.4338
童蒙	-11.4343
為五	-11.4343
必無	-11.4343
諸侯大夫	-11.4345
直以	-11.4346
倣	-11.4347
祝史	-11.4347
世世	-11.4348
篇云	-11.4349
許氏	-11.4351
洧	-11.4351
閼	-11.4351
靳	-11.4351
同徳	-11.4352
其容	-11.4352
主人拜	-11.4353
之期	-11.4353
宰相	-11.4353
又從而	-11.4356
能致	-11.4356
季札	-11.4356
在齊	-11.436
乘馬	-11.436
含章	-11.4361
南至	-11.4361
今我	-11.4362
適孫	-11.4366
篤實	-11.4366
▁正傳曰書	-11.4368
生萬物	-11.4368
朝事	-11.4369
用師	-11.4369
懇	-11.4371
糓	-11.4371
相求	-11.4371
明器	-11.4371
往而不	-11.4372
崇徳	-11.4372
所畜	-11.4372
語意	-11.4376
鄭箋	-11.4376
伐而	-11.4376
谷風	-11.4377
不明也	-11.4377
切文一重音	-11.4377
▁『	-11.4378
莊王	-11.4379
錯綜	-11.438
帑	-11.438
萬章	-11.438
文一重音二	-11.4382
司馬相如	-11.4382
其大者	-11.4383
職曰	-11.4386
綱領	-11.4386
孚信	-11.4387
栢	-11.4389
仁義禮智	-11.439
也何以	-11.439
不可知	-11.4391
敬則	-11.4394
其要	-11.4395
而祭之	-11.4396
文一重音	-11.4396
將何	-11.4399
鑣	-11.4399
曰請	-11.4403
光大	-11.4409
蘖	-11.4409
之理也	-11.441
穆姜	-11.441
而殺	-11.4413
精微	-11.4414
成康	-11.4417
凡六	-11.4418
紓	-11.4419
之道故	-11.4422
字義	-11.4422
文王世子	-11.4423
執政	-11.4424
乃云	-11.4425
太尉	-11.4425
六分	-11.4426
有攸往	-11.4427
致敬	-11.4428
流而	-11.4428
糜	-11.4428
一獻	-11.4429
一丈	-11.443
人身	-11.4431
之室	-11.4431
而告	-11.4432
閤	-11.4433
黨正	-11.4433
孟津	-11.4434
醴酒	-11.4436
畬	-11.4438
禖	-11.4438
不可與	-11.4439
城之	-11.4441
君子之所	-11.4442
以卦體	-11.4443
幽州	-11.4443
小邾子	-11.4443
朝廟	-11.4444
莫不有	-11.4445
外則	-11.4446
耑	-11.4448
蕡	-11.4448
良霄	-11.445
上説	-11.4452
死亡	-11.4454
以隂柔	-11.4455
五榖	-11.4456
爲君	-11.4456
翅	-11.4457
洊	-11.4457
其子孫	-11.4461
應五	-11.4461
貞也	-11.4462
▁劉	-11.4462
經營	-11.4462
動於	-11.4462
之道而	-11.4463
智者	-11.4465
何用	-11.4466
炮	-11.4467
狠	-11.4467
課	-11.4467
𫝑	-11.4467
鴟鴞	-11.4467
䟽曰	-11.4467
未踰年	-11.4472
自當	-11.4472
鞶	-11.4475
見於經	-11.4476
是以君子	-11.4477
之時則	-11.4477
豻	-11.4477
如此其	-11.4477
三章章四句	-11.4477
與民同	-11.4478
封人	-11.4479
不能正	-11.448
天文志	-11.448
尊故	-11.4481
不治	-11.4483
奉天	-11.4483
將帥	-11.4484
祝融	-11.4485
爵禄	-11.4485
忠臣	-11.4485
㑹也	-11.4486
行矣	-11.4486
刖	-11.4486
捍	-11.4486
柤	-11.4487
勸之	-11.4487
乾體	-11.449
為句	-11.4491
騷	-11.4492
集韻同	-11.4492
博學	-11.4492
桓文	-11.4494
之死	-11.4494
公㑹齊侯	-11.4495
為證	-11.4495
肫	-11.4496
憊	-11.4496
憫	-11.4496
之宫	-11.4496
在下者	-11.4497
出來	-11.4497
既曰	-11.4499
庶㡬	-11.4499
艸名	-11.4502
大如	-11.4503
五音	-11.4504
只在	-11.4505
入陳	-11.4505
乙巳	-11.4506
將去	-11.4508
坎中	-11.4508
共公	-11.4509
悌	-11.4513
卦有	-11.4515
隤	-11.4516
聘問	-11.4519
坐奠爵	-11.4522
嫂	-11.4523
常人	-11.4524
衡山	-11.4525
斑	-11.4526
茵	-11.4526
枋	-11.4526
葱	-11.4526
申命	-11.4527
詩所謂	-11.4529
天命之	-11.4531
亨通	-11.4531
書葬	-11.4531
自今	-11.4532
屈伸	-11.4533
朝日	-11.4534
任其	-11.4535
二百里	-11.4535
篠	-11.4535
出險	-11.4535
僑如	-11.4538
固無	-11.454
趙武	-11.4543
說卦	-11.4544
褐	-11.4545
郝	-11.4548
雞鳴	-11.4548
計反	-11.455
未出	-11.455
矣乃	-11.455
赤狄	-11.4552
字作	-11.4552
▁里	-11.4554
諛	-11.4555
莅	-11.4555
著之	-11.4559
無傳	-11.4561
存其	-11.4562
弗許	-11.4563
秋分	-11.4564
瑶	-11.4565
蒍	-11.4565
紛紛	-11.4565
輝	-11.4568
圍宋	-11.4569
吾聞	-11.4571
霄	-11.4572
秬	-11.4573
折獄	-11.4573
為六	-11.4573
兼言	-11.4574
恆	-11.4574
野人	-11.4575
可言	-11.4576
諱也	-11.4576
中霤	-11.4577
孫林父	-11.4579
毛鄭	-11.458
神道	-11.4583
樽	-11.4584
柩車	-11.4588
弑逆	-11.4588
月朔	-11.4588
聖人作易	-11.459
復以	-11.4596
以死	-11.4596
孝也	-11.4597
而論	-11.4597
殊不知	-11.4598
得中道	-11.4599
如宋	-11.4599
▁面	-11.46
牽牛	-11.4603
非我	-11.4607
嫌於	-11.4608
有加	-11.4609
丈人	-11.4611
貶而	-11.4611
鞌	-11.4613
甃	-11.4614
小序	-11.4614
庚子	-11.4616
成形	-11.4616
順理	-11.4617
二氣	-11.4617
夫婦之	-11.4618
山西	-11.4618
終而	-11.4619
自外來	-11.4619
之年	-11.4621
仲夏	-11.4623
名氏	-11.4623
誠敬	-11.4624
宜有	-11.4628
甲兵	-11.4632
在于	-11.4633
㐫	-11.4635
五典	-11.4636
于堂	-11.4636
平丘	-11.4637
所陳	-11.4638
繫于	-11.4638
臣妾	-11.4638
明者	-11.4638
是故君子	-11.4639
是何	-11.4639
大僕	-11.4639
逸豫	-11.464
西土	-11.464
慮其	-11.464
峰	-11.4643
聯	-11.4643
與否	-11.4644
哭之	-11.4644
告之以	-11.4645
又在	-11.4646
與焉	-11.4649
字與	-11.4649
因此	-11.465
國在	-11.465
百五十	-11.4651
而亡	-11.4651
是乃	-11.4651
擔	-11.4653
鱄	-11.4653
亦從	-11.4656
不達	-11.4656
實之	-11.4658
本字	-11.4659
縣屬	-11.4659
啐	-11.466
皿	-11.4663
睹	-11.4663
不郊	-11.4665
盡善	-11.4665
于時	-11.4668
冬官	-11.4669
奔楚	-11.4671
五味	-11.4672
髻	-11.4673
蝕	-11.4673
翼翼	-11.4674
於西	-11.4677
之光	-11.4678
家氏曰	-11.4678
不競	-11.4681
方百里	-11.4685
尤為	-11.4687
衆隂	-11.4691
不覺	-11.4691
殺大夫	-11.4692
而遽	-11.4692
俄	-11.4693
亹亹	-11.4693
所指	-11.4697
阼階下	-11.4698
成踊	-11.4698
之半	-11.47
二者皆	-11.4702
改正	-11.4702
臑	-11.4703
鼏	-11.4703
㑹於	-11.4703
沙隨	-11.4704
洗爵	-11.4705
或疑	-11.4705
無聲	-11.4707
參之	-11.4708
與魯	-11.4709
行險	-11.4711
控	-11.4713
儺	-11.4713
列反	-11.4717
異而	-11.4717
無厭	-11.4717
及時	-11.4718
覆之	-11.4719
三重	-11.4719
僑	-11.4719
豈以	-11.4719
集疏	-11.472
惟天	-11.4721
怒也	-11.4723
瞽瞍	-11.4723
承上文	-11.4723
豈敢	-11.4728
人力	-11.4729
子罕	-11.473
不直	-11.4731
㒺	-11.4733
公即位	-11.4733
無害	-11.4735
一切	-11.4739
大圭	-11.4739
大裘	-11.474
廞	-11.4743
巡狩	-11.4745
以明之	-11.475
為我	-11.4751
大陸	-11.4751
一貫	-11.4751
凡五	-11.4752
▁榖梁傳	-11.4752
嫉	-11.4753
長樂陳氏曰	-11.4753
▁或曰	-11.4753
孔傳	-11.4756
糴	-11.4757
而且	-11.4759
東階	-11.4759
疲	-11.4763
伎	-11.4763
漯	-11.4763
明言	-11.4763
迎尸	-11.4764
者爲	-11.4765
之柔	-11.4766
一例	-11.4766
西域	-11.4767
卜郊	-11.4767
各異	-11.4768
易氏曰	-11.4768
相易	-11.4768
微而	-11.4769
雖多	-11.4769
其族	-11.4771
而春秋	-11.4772
猥	-11.4773
錮	-11.4773
必知	-11.4773
莫知	-11.4773
宋公陳侯	-11.4774
何人	-11.4776
行列	-11.4777
民事	-11.4778
在下而	-11.4779
經緯	-11.4779
周流	-11.4779
隄	-11.4781
孫炎曰	-11.4782
燕樂	-11.4782
勉强	-11.4783
一世	-11.4784
不惑	-11.4786
之子也	-11.4789
一本作	-11.4789
而書之	-11.479
從母	-11.4792
覯	-11.4793
誠者	-11.4795
拜賔	-11.4795
之極也	-11.4796
勝之	-11.4797
異端	-11.4798
察也	-11.4802
篋	-11.4803
在野	-11.4804
雖小	-11.4805
善言	-11.4805
剛中而應	-11.4806
賢能	-11.4806
帥師圍	-11.4808
不弔	-11.481
並無	-11.4811
今年	-11.4812
馘	-11.4813
欵	-11.4813
生死	-11.4816
非時	-11.4816
年正月	-11.4817
▁魏	-11.4817
九二之	-11.4819
弔服	-11.4821
今在	-11.4823
釋文云	-11.4824
然後知	-11.4825
苟有	-11.4826
君徳	-11.4827
之所生	-11.4827
無駭	-11.4827
故吉	-11.4828
先王以	-11.4828
致用	-11.4829
凶荒	-11.4829
致仕	-11.483
賢臣	-11.4831
時已	-11.4832
飫	-11.4832
君子觀	-11.4833
東至	-11.4833
王父	-11.4833
小司徒	-11.4833
以威	-11.4835
緇布冠	-11.4835
時祭	-11.4836
此處	-11.4837
異耳	-11.4841
我獨	-11.4841
東山	-11.4842
塤	-11.4843
骼	-11.4843
廏	-11.4843
訃	-11.4843
宋史	-11.4844
為戒	-11.4845
父母之喪	-11.4845
夫豈	-11.4845
故舉	-11.4845
之子孫	-11.4853
于房	-11.4854
置於	-11.4856
盟者	-11.4856
冬夏	-11.4857
之祖	-11.4857
入室	-11.4862
扆	-11.4863
蟋蟀	-11.4863
一氣	-11.4864
其仁	-11.4864
其日	-11.4864
以手	-11.4866
昊	-11.4869
困於	-11.4869
請於	-11.487
鬴	-11.4873
庶母	-11.4874
習坎	-11.4875
而遇	-11.4877
丙申	-11.4881
不往	-11.4883
申言	-11.4883
得衆	-11.4883
為災	-11.4885
成章	-11.4888
圖書	-11.4889
亦多	-11.4891
瓉	-11.4892
兢	-11.4893
絇	-11.4893
不可考	-11.4896
與下	-11.4897
滅亡	-11.4898
膳宰	-11.49
周禮春官	-11.49
則君	-11.4902
括髮	-11.4906
十餘	-11.4906
周召	-11.4907
之意而	-11.4912
杯	-11.4914
封建	-11.4915
北山	-11.4917
容切	-11.4918
有事于	-11.4919
待於	-11.4922
咸恒	-11.4922
襦	-11.4924
耐	-11.4924
禮經	-11.4925
江東呼	-11.4926
能無	-11.4927
以著其	-11.4927
麓	-11.4928
當國	-11.4928
淫亂	-11.4929
知其為	-11.493
黒水	-11.4931
天之道	-11.4933
不同故	-11.4934
刮	-11.4934
蛤	-11.4934
爓	-11.4934
渫	-11.4934
器物	-11.4935
陪臣	-11.4935
字為	-11.4936
王乃	-11.4939
康侯	-11.4939
盟也	-11.4941
執弓	-11.4942
荆山	-11.4942
出奔晉	-11.4944
伐魯	-11.4945
窮極	-11.4947
三品	-11.4949
之問	-11.495
妾母	-11.4951
之實也	-11.4952
門庭	-11.4954
知幾	-11.4954
霓	-11.4954
位不當	-11.4958
之積	-11.4959
假令	-11.4959
推其	-11.4959
天運	-11.496
國史	-11.496
姓名	-11.4963
紀綱	-11.4965
聶	-11.497
武人	-11.4971
魚麗	-11.4974
又東北	-11.4974
遡	-11.4975
抄	-11.4975
賈氏公彦曰	-11.4975
以防	-11.4976
人多	-11.4977
于篚	-11.4977
以存	-11.4978
毛傳云	-11.4978
常道	-11.4979
十有二人	-11.4982
千二百	-11.4982
必於	-11.4984
亹	-11.4985
隈	-11.4985
美其	-11.4985
無餘	-11.4985
常棣	-11.4987
也集韻或作	-11.4987
不得與	-11.4992
瑑	-11.4995
愿	-11.4995
典瑞	-11.4997
之占	-11.4997
庶乎	-11.4997
剛來	-11.4998
良切	-11.5
玉名	-11.5001
聖人之意	-11.5002
楚莊	-11.5003
不正也	-11.5003
異義	-11.5005
椎	-11.5005
儻	-11.5005
剛也	-11.5006
規矩	-11.5008
敎之	-11.5008
如是而	-11.5009
也孔子曰	-11.501
歐	-11.5012
卦畫	-11.5012
地氣	-11.5015
孰為	-11.5015
畱	-11.5016
啇	-11.5016
匄	-11.5017
為徴	-11.5017
相當	-11.5018
拜之	-11.5019
後世之	-11.5022
上句	-11.5023
黎民	-11.5024
竿	-11.5024
妬	-11.5026
勘	-11.5026
各得	-11.5028
繼以	-11.5028
善矣	-11.5028
六典	-11.5029
知天	-11.503
羣后	-11.5031
於室	-11.5031
四卦	-11.5032
不得而	-11.5034
内宰	-11.5035
之賊	-11.5035
箸	-11.5036
雹	-11.5036
湑	-11.5036
偹	-11.5036
百神	-11.5037
布帛	-11.5037
大祭	-11.5039
以王命	-11.5039
七人	-11.5039
定天下	-11.5041
絶也	-11.5042
許慎	-11.5044
曲禮云	-11.5044
未至於	-11.5045
卦之中	-11.5045
聲色	-11.5047
陔	-11.5047
問焉	-11.5048
功徳	-11.5048
五音集韻	-11.505
而後言	-11.505
杜云	-11.505
朝踐	-11.5051
燕居	-11.5052
物事	-11.5053
不可廢	-11.5055
萇	-11.5056
襍	-11.5057
美惡	-11.5061
渾然	-11.5062
▁四書	-11.5062
老而	-11.5063
雖以	-11.5064
吳氏	-11.5064
動作	-11.5066
而不窮	-11.5066
瑩	-11.5067
澣	-11.5067
穆子	-11.507
今既	-11.5072
相須	-11.5072
不可曉	-11.5074
▁八年	-11.5075
精氣	-11.5075
讀之	-11.5075
孤卿	-11.5075
祖母	-11.5075
峙	-11.5077
以朝	-11.5078
以表	-11.5079
合為一	-11.508
稱爵	-11.5087
祲	-11.5088
酈	-11.5088
公宫	-11.5088
發見	-11.5091
入告	-11.5092
圭璧	-11.5093
以實	-11.5094
出征	-11.5095
叶音	-11.5095
侵蔡	-11.5095
為治	-11.5097
非天	-11.5097
奐	-11.5098
竽	-11.5098
而不失	-11.5099
碑丨	-11.51
毛伯	-11.5101
无咎矣	-11.5104
當依	-11.5107
二十里	-11.5108
喉	-11.5108
禹曰	-11.5108
感人	-11.5109
故爲	-11.5109
叔仲	-11.511
之策	-11.5111
月日	-11.5112
為韻	-11.5113
得罪於	-11.5114
幸而	-11.5118
始作	-11.5118
暉	-11.5119
虫	-11.5119
祭肺	-11.5119
4.	-11.5119
闚	-11.512
仲冬	-11.512
反命	-11.5124
下軍	-11.5125
天意	-11.5127
㕓	-11.5129
无咎者	-11.513
去疾	-11.5131
而輕	-11.5132
主祭	-11.5132
不免於	-11.5134
有凶	-11.5135
▁通論	-11.5138
囂	-11.5139
斐	-11.5139
亦无	-11.514
教者	-11.514
烝嘗	-11.514
出奔楚	-11.5141
三歲	-11.5144
内外之	-11.5145
朱子云	-11.5145
白狄	-11.5147
伐衞	-11.5148
與初	-11.5148
又加	-11.5149
天下皆	-11.5149
在晉	-11.515
南國	-11.5153
甲申	-11.5153
朱註	-11.5154
輕者	-11.5154
三十二年	-11.5156
冩	-11.516
裒	-11.516
豳風	-11.5161
陰柔	-11.5164
出車	-11.5165
怒而	-11.5165
前有	-11.5166
安危	-11.5169
縳	-11.5171
釜	-11.5171
上達	-11.5171
1.	-11.5171
無惡	-11.5171
因時	-11.5172
不妄	-11.5175
位于	-11.5176
配之	-11.518
珥	-11.5181
▁之則	-11.5181
掛一	-11.5182
之自然	-11.5182
雖是	-11.5183
魯衛	-11.5184
勝也	-11.5188
褚	-11.5191
参	-11.5191
僖二十	-11.5193
十有八年	-11.5194
十有二年	-11.5194
者可以	-11.5194
其誰	-11.5197
有箇	-11.52
三升	-11.5204
而立之	-11.5208
屈完	-11.5209
為祖	-11.5211
不懼	-11.5211
其所為	-11.5212
殁	-11.5212
邰	-11.5212
誠心	-11.5214
篇首	-11.5215
宋之	-11.5218
執玉	-11.522
藏也	-11.5221
倅	-11.5223
匪人	-11.5225
其詞	-11.5227
必至於	-11.5227
建侯	-11.5227
之令	-11.5228
不犯	-11.523
以西	-11.5233
爻義	-11.5234
納采	-11.5234
為貞	-11.5235
孫良夫	-11.5235
而況	-11.5235
不俟	-11.5236
吉凶悔吝	-11.5236
惟時	-11.5238
頃公	-11.5242
▁論語	-11.5243
小邾	-11.5243
褊	-11.5244
傷之	-11.5245
大門	-11.5249
成事	-11.5249
在上而	-11.5249
和氣	-11.5249
切文一重音二	-11.525
也然而	-11.5251
未變	-11.5251
師衆	-11.5255
長殤	-11.5256
壬寅	-11.5256
俱作	-11.5257
上承	-11.5257
之疑	-11.5258
詳矣	-11.5258
于飛	-11.5261
▁王曰	-11.5263
之大者也	-11.5263
因以為	-11.5263
大同	-11.5264
有慶也	-11.5264
髙大	-11.5264
之什	-11.5264
我思	-11.5265
冷	-11.5265
閩	-11.5265
龔	-11.5265
禮官	-11.5265
侵齊	-11.5268
戒令	-11.5268
修其	-11.5268
祭社	-11.5268
純陽	-11.527
未當	-11.527
東平	-11.5271
無人	-11.5272
三讓	-11.5273
亦未嘗	-11.5274
不可以為	-11.5275
吾身	-11.5276
再三	-11.5278
荀偃	-11.5279
舜禹	-11.5281
欲速	-11.5284
菴	-11.5285
甗	-11.5286
斵	-11.5286
亂臣賊子	-11.5286
天心	-11.5287
以剛居	-11.529
蕩蕩	-11.5291
揄	-11.5295
梧	-11.5295
酬酢	-11.5296
黠	-11.5296
燋	-11.5296
諼	-11.5296
▁新安朱氏曰	-11.5296
冠而	-11.5297
其内	-11.5298
堅固	-11.5301
鄭公子	-11.5303
死也	-11.5303
蔣	-11.5307
大旱	-11.5308
既平	-11.5313
告公	-11.5316
衆寡	-11.5316
大誥	-11.5317
周天	-11.5317
兼有	-11.5317
居正	-11.5319
㣲子	-11.532
啐酒	-11.5321
師古	-11.5323
成列	-11.5323
之屬皆	-11.5324
乘剛	-11.5327
芸	-11.5328
豢	-11.5328
得天下	-11.533
五福	-11.5331
方叔	-11.5331
隆殺	-11.5333
𫝊云	-11.5334
婦道	-11.5334
當日	-11.5334
書王	-11.5338
卉	-11.5339
方千里	-11.5339
為尸	-11.5341
故鄭云	-11.5344
餘皆	-11.5344
大成	-11.5345
尊於	-11.5345
5.	-11.5347
動物	-11.5347
羊豕	-11.5348
秒	-11.5349
刑人	-11.535
不共	-11.5351
城北	-11.5352
以陽居	-11.5352
其禍	-11.5352
之祀	-11.5352
衛地	-11.5353
不徒	-11.5353
地示	-11.5356
皆因	-11.5357
蓋亦	-11.5359
之候	-11.5359
滓	-11.536
鐡	-11.536
潮	-11.536
太牢	-11.536
職方	-11.536
而降	-11.536
亦稱	-11.5361
為人臣	-11.5361
則固	-11.5362
三世	-11.5365
於鬼神	-11.5366
田野	-11.5366
金路	-11.5367
擊鼓	-11.5368
許氏曰	-11.5368
胷	-11.5368
棜	-11.537
芼	-11.537
太過	-11.5372
而莫之	-11.5372
孝子之	-11.5372
變文	-11.5372
春秋之法	-11.5374
形於	-11.5374
以保	-11.5378
矣但	-11.5378
而亨	-11.5379
曾子問	-11.538
親愛	-11.5381
天下之動	-11.5383
而得之	-11.5384
經世	-11.5385
是也云	-11.5385
伐紂	-11.5387
鴆	-11.5389
之卦也	-11.5391
此豈	-11.5392
其歸	-11.5393
連山	-11.5394
以節	-11.5398
於子	-11.5398
桓公之	-11.54
政在	-11.5402
芝	-11.5402
縓	-11.5402
公至自晉	-11.5403
北靣	-11.5404
虚中	-11.5408
之簡	-11.5409
第二十	-11.5409
遷都	-11.541
凡伯	-11.5411
也愚按	-11.5413
芹	-11.5413
今考	-11.5414
情偽	-11.5414
則吾	-11.5418
其師	-11.5418
許諾	-11.5418
不移	-11.5419
譬之	-11.542
薇	-11.5422
及物	-11.5422
圍成	-11.5423
鱣	-11.5424
庿	-11.5424
瘳	-11.5424
杏	-11.5429
弗及	-11.543
縣名在	-11.5431
未光也	-11.5431
郡縣	-11.5431
名物	-11.5433
掇	-11.5434
緊	-11.5434
隮	-11.5434
桎梏	-11.5434
讀作	-11.5437
自天	-11.5439
璧琮	-11.5439
廣狹	-11.5439
其凶	-11.5439
意在	-11.5439
將死	-11.544
十有六年	-11.5441
象數	-11.5442
象傳曰	-11.5443
利有攸徃	-11.5443
使某	-11.5445
吕氏春秋	-11.5445
蠧	-11.5445
言之者	-11.5447
外事	-11.5449
小象	-11.545
所加	-11.5451
定也	-11.5453
愛敬	-11.5453
卷六	-11.5456
陽陽	-11.5457
曲折	-11.5461
二百四十	-11.5465
▁𫝊	-11.5465
鳧	-11.5466
剪	-11.5466
護	-11.5466
旜	-11.5466
邦家	-11.5467
鄢陵	-11.5467
饗禮	-11.5467
夏后	-11.5468
不學	-11.5469
所建	-11.5469
邑人	-11.547
少男	-11.5471
既濟之	-11.5472
甫田	-11.5473
既殯	-11.5474
做得	-11.5474
與之盟	-11.5475
伶	-11.5477
貿	-11.5477
又州名	-11.548
求賢	-11.5486
以周	-11.5487
蓐	-11.5488
廼	-11.5488
入朔	-11.5489
揲蓍	-11.549
常禮	-11.549
達于	-11.5491
子玉	-11.5491
風化	-11.5491
咺	-11.5494
也本作	-11.5496
令人	-11.5498
剔	-11.5499
犆	-11.5499
歇	-11.5499
改作	-11.5499
一說	-11.5499
淳于	-11.5507
拳	-11.5509
醻	-11.5509
物不可以終	-11.551
而設	-11.5512
看來	-11.5513
以討	-11.5514
萬物皆	-11.5514
所以别	-11.5515
俱是	-11.5517
萬夫	-11.5518
大功之	-11.5518
之側	-11.5519
扉	-11.552
如此故	-11.5522
曰歸	-11.5522
卿大夫之	-11.5525
其黨	-11.5525
所依	-11.5527
既立	-11.5527
四十里	-11.553
先王之制	-11.5532
白華	-11.5532
者名	-11.5535
寛裕	-11.5536
也若然	-11.5536
馬云	-11.5537
貍首	-11.554
變故	-11.554
井井	-11.5541
案周禮	-11.5542
曜	-11.5542
所尚	-11.5542
何以為	-11.5543
此四者	-11.5544
離騷	-11.5547
散聲	-11.5548
昬禮	-11.5551
則異	-11.5551
川澤	-11.5552
以布	-11.5552
厠	-11.5553
亮反	-11.5562
繚	-11.5563
廿	-11.5563
▁公羊曰	-11.5566
議論	-11.5568
烈祖	-11.5569
而徃	-11.5573
信矣	-11.5573
故其占	-11.5574
冨	-11.5574
氓	-11.5574
浙	-11.5574
戡	-11.5574
有夏	-11.5577
刺幽王也	-11.5577
各隨	-11.5579
卜日	-11.5579
呂氏	-11.558
其極	-11.558
遷於	-11.5582
樹之	-11.5582
註謂	-11.5583
為公	-11.5583
書及	-11.5584
漸漸	-11.5584
枸	-11.5585
乙未	-11.5587
矣春秋	-11.5588
同然	-11.5589
文定	-11.5592
諸侯則	-11.5594
六二之	-11.5595
甕	-11.5596
銷	-11.5596
麛	-11.5596
曰然則	-11.5597
古禮	-11.5599
之詞也	-11.5601
必由	-11.5601
難矣	-11.5604
鉅	-11.5604
覆也	-11.5604
叔孫氏	-11.5605
以来	-11.5606
君使	-11.5607
卭	-11.5607
萍	-11.5607
寮	-11.5607
居東	-11.561
尊尊	-11.5611
有心	-11.5613
兩卦	-11.5614
者言其	-11.5616
也又云	-11.5616
云云何也曰	-11.562
首絰	-11.5621
不論	-11.5622
左執	-11.5626
斟	-11.5627
煥	-11.5629
於衆	-11.563
宋華	-11.5632
録之	-11.5637
百揆	-11.5637
刼	-11.5639
償	-11.564
賑	-11.564
子皮	-11.564
為飾	-11.5641
也増韻	-11.5643
宋地	-11.5643
从木	-11.5644
敖氏繼公曰	-11.5645
神人	-11.5646
鐃	-11.565
六句	-11.5652
於門外	-11.5655
秦穆	-11.5657
不甚	-11.5657
少師	-11.5657
支切	-11.5658
大叔	-11.5658
齊宋	-11.566
虞氏	-11.5661
窟	-11.5661
儐尸	-11.5662
之變也	-11.5663
降自西階	-11.5664
入廟	-11.5664
故復	-11.5665
今案	-11.5666
一陰	-11.5667
恥也	-11.5668
二千五百	-11.5668
而萬物	-11.5668
太僕	-11.567
姞	-11.5672
肘	-11.5672
兑為	-11.5675
此特	-11.5675
帥其屬	-11.5676
之材	-11.5677
偃師	-11.5678
嵗時	-11.5679
又名	-11.5679
何時	-11.568
丁酉	-11.5681
貞者	-11.5681
大亂	-11.5681
稱師	-11.5683
紏	-11.5683
鞠躬	-11.5686
甸服	-11.5686
得中而	-11.5687
韋弁	-11.5687
主于	-11.569
而歌	-11.5692
仁則	-11.5692
耨	-11.5693
待其	-11.5694
耒耜	-11.5695
倍之	-11.5696
與士	-11.5698
君臣父子	-11.57
晉趙鞅	-11.5705
譴	-11.5705
明是	-11.5706
進徳	-11.5707
士虞禮	-11.5709
獨立	-11.5713
我我	-11.5715
僧	-11.5716
悛	-11.5716
鴇	-11.5716
能久	-11.5717
執圭	-11.5717
鄭國	-11.5719
丹朱	-11.572
无常	-11.5721
而俟	-11.5724
乎對曰	-11.5724
其義也	-11.5725
歉	-11.5727
璽	-11.5727
恂	-11.5727
心之憂矣	-11.5727
益也	-11.573
災異	-11.573
祭名	-11.573
6.	-11.573
圍許	-11.5731
其羽	-11.5732
為功	-11.5734
漸進	-11.5734
可否	-11.5734
天下有	-11.5735
與之同	-11.5735
行貌	-11.5736
釋詁文	-11.5736
在上者	-11.5736
揣	-11.5738
漂	-11.5738
愍	-11.5738
甬	-11.5738
稽古	-11.5739
壬子	-11.5739
於神	-11.5741
用剛	-11.5742
擇其	-11.5744
縢	-11.5745
正大	-11.5746
由於	-11.5748
號咷	-11.575
矣是以	-11.5751
甚大	-11.5756
彤弓	-11.5759
古人之	-11.5766
于上帝	-11.5769
能成	-11.577
㢘	-11.5771
霸主	-11.5772
奏肆夏	-11.5776
集于	-11.5779
欒氏	-11.578
鞉	-11.5782
應在	-11.5784
郊廟	-11.5786
終必	-11.5787
度數	-11.5788
入江	-11.5792
僉	-11.5793
畋	-11.5793
耆老	-11.5794
嫁女	-11.5794
常法	-11.5794
陽在下	-11.5802
書至	-11.5802
日入	-11.5803
巧言	-11.5804
邀	-11.5805
之山	-11.5808
皆不書	-11.5809
定矣	-11.5813
陳其	-11.5813
【	-11.5816
鞮	-11.5816
杠	-11.5816
正矣	-11.5816
異于	-11.5821
之文也	-11.5822
鳲鳩	-11.5827
任重	-11.5828
益稷	-11.5829
此春秋	-11.5829
惠伯	-11.583
所論	-11.5834
不可使	-11.5835
主人降	-11.5835
獨用	-11.5836
當爲	-11.5836
册	-11.5838
不月	-11.5838
不患	-11.5839
丙寅	-11.584
郤克	-11.5841
剛陽	-11.5843
不逮	-11.5844
之父	-11.5845
四馬	-11.5847
同日	-11.5847
蚌	-11.5849
麕	-11.5849
厨	-11.5849
止是	-11.5849
羣小	-11.5851
所不及	-11.5856
得國	-11.5857
失於	-11.5858
大祖	-11.5859
門西	-11.586
比于	-11.586
悔過	-11.586
霰	-11.586
十萬	-11.5861
白雲	-11.5861
子駟	-11.5861
傳作	-11.5862
明乎	-11.5863
在官	-11.5863
公至自齊	-11.5864
文飾	-11.5864
亦異	-11.5864
初獻	-11.5866
詩中	-11.5867
豈特	-11.5867
射禮	-11.587
饁	-11.5871
几筵	-11.5873
稱字	-11.5874
賔客之	-11.5875
季武子	-11.5876
今河南	-11.5879
本體	-11.588
裨	-11.5881
載物	-11.5882
岷山	-11.5885
字註詳	-11.5887
之吏	-11.5887
元氣	-11.5888
曰夫子	-11.5893
禭	-11.5894
廣雅云	-11.5896
不濟	-11.5898
亮切	-11.5898
否泰	-11.5899
必能	-11.5899
足利本	-11.5899
公薨于	-11.59
陜西	-11.59
長㓜	-11.5901
孛	-11.5902
危厲	-11.5903
齊衰三月	-11.5903
為説	-11.5904
騑	-11.5905
褒姒	-11.5906
鰥寡	-11.5907
輔之	-11.5908
也前漢	-11.5908
於已	-11.591
六畜	-11.5911
至自齊	-11.5911
童僕	-11.5911
于我	-11.5913
通論	-11.5914
喜怒哀樂	-11.5916
上軍	-11.5918
何切	-11.592
太學	-11.592
一隂一陽	-11.592
受盟	-11.592
意者	-11.5925
多有	-11.5927
訓為	-11.5928
把伯	-11.593
平子	-11.5931
神靈	-11.5932
六藝	-11.5935
濟南	-11.5936
未見其	-11.5938
壑	-11.5938
頁	-11.5938
無違	-11.5938
椅	-11.5939
用柔	-11.5939
有疑	-11.594
土功	-11.594
郎反	-11.5942
決之	-11.5942
迎之	-11.5944
乾健	-11.5945
靜而	-11.5946
非但	-11.5946
斯言	-11.5946
二卿	-11.5947
廡	-11.595
荀卿	-11.5957
桀紂	-11.5958
升歌	-11.5959
而請	-11.596
救切	-11.596
不中不正	-11.596
綂	-11.5961
徐氏	-11.5964
為主故	-11.5968
二剛	-11.5969
為人所	-11.597
亦豈	-11.5971
縣界	-11.5972
衆主人	-11.5972
隻	-11.5972
何事	-11.5974
十有七年	-11.5976
涖盟	-11.5981
物物	-11.5983
蜚	-11.5984
宁	-11.5984
稔	-11.5984
褎	-11.5984
殷周	-11.5985
星名	-11.5986
酳尸	-11.5986
山上	-11.5987
雲漢	-11.5988
當如此	-11.5989
學校	-11.5989
之郊	-11.599
情性	-11.599
之一字	-11.599
之意故	-11.5991
孟孫	-11.5992
曰吾聞	-11.5993
五度	-11.5993
所滅	-11.5994
澆	-11.5995
衺	-11.5995
畛	-11.5995
虔	-11.5995
一行	-11.5996
孔穎達	-11.5996
為夫人	-11.5997
不先	-11.5999
主宰	-11.5999
烝民	-11.6
12	-11.6001
命令	-11.6001
簡公	-11.6002
徃而	-11.6002
離火	-11.6003
龜山	-11.6003
左旋	-11.6006
陸徳明	-11.6006
所貴	-11.6008
陽卦	-11.6008
畏之	-11.6009
害人	-11.6013
絰帶	-11.6013
猶存	-11.6014
貞觀	-11.6015
何以知	-11.6016
宰我	-11.6017
茶	-11.6018
用玉	-11.6019
闋	-11.602
極於	-11.602
之宗	-11.6021
立春	-11.6021
吉事	-11.6022
段作	-11.6022
則必有	-11.6024
屬也	-11.6025
分為二	-11.6026
書序	-11.6028
歠	-11.6029
士卒	-11.6029
帝本紀	-11.6031
能勝	-11.6032
危也	-11.6036
可以觀	-11.6037
入學	-11.6037
朝諸侯	-11.6039
季姬	-11.6039
百穀	-11.6039
盡性	-11.604
凟	-11.604
𧃊	-11.604
而西	-11.604
楚滅	-11.6047
故不得	-11.6047
筆削	-11.6049
絶句	-11.6049
思念	-11.6049
三苗	-11.605
今王	-11.605
射姑	-11.6051
䜴	-11.6052
閾	-11.6052
許田	-11.6052
之冠	-11.6053
兩切	-11.6053
公事	-11.6054
衣食	-11.6055
周正	-11.6062
籌	-11.6063
郟	-11.6063
一方	-11.6064
乾肉	-11.6064
以輔	-11.6069
虢公	-11.6069
潤澤	-11.607
而不復	-11.6071
異名	-11.6073
賤之	-11.6074
仄	-11.6074
奬	-11.6074
静而	-11.6075
常理	-11.6076
天下後世	-11.6077
盡力	-11.6077
一里	-11.6077
潁川	-11.6077
然後為	-11.608
皃文一	-11.6084
而北	-11.6085
漚	-11.6086
簠簋	-11.6086
恥之	-11.609
千萬	-11.6091
口舌	-11.6092
將來	-11.6093
不以禮	-11.6094
柎	-11.6097
駘	-11.6097
南郡	-11.6099
馬氏	-11.6099
所乗	-11.61
夫易	-11.6103
无過	-11.6105
敬仲	-11.6106
寢廟	-11.6108
之節也	-11.6108
而勿	-11.6109
柘	-11.6109
封於	-11.6109
各得其所	-11.6109
斟酌	-11.611
南仲	-11.611
生意	-11.6113
賢遍	-11.6115
盎齊	-11.6115
其材	-11.6117
將行	-11.6118
侃	-11.612
増入	-11.6121
廣平	-11.6122
若使	-11.6124
㑹吳	-11.6124
於太廟	-11.6128
嘉靖	-11.6131
百榖	-11.6131
𤼵明	-11.6131
贍	-11.6132
者吾	-11.6132
元士	-11.6135
葉似	-11.6135
不均	-11.6137
公邑	-11.6138
離散	-11.6139
牧野	-11.6145
正名	-11.6145
學記	-11.6145
為徳	-11.6145
鄭司農	-11.6147
欲令	-11.6148
先鄭	-11.6149
酢主人	-11.6152
蘩	-11.6152
亦已	-11.6154
杵	-11.6154
怛	-11.6154
收斂	-11.6157
時中	-11.6157
不臧	-11.6157
大帶	-11.6158
彼注云	-11.6163
十有一年	-11.6164
全在	-11.6167
警戒	-11.6169
老隂	-11.6172
相助	-11.6172
未失	-11.6173
非其人	-11.6174
顔師古	-11.6175
磐	-11.6175
溺於	-11.6175
貯	-11.6177
捐	-11.6177
𤯝	-11.6177
有大小	-11.6179
廢置	-11.618
土為	-11.6181
宗廟社稷	-11.6181
補過	-11.6182
篇名	-11.6182
疏謂	-11.6184
尚賢	-11.6186
泓	-11.6189
蔬	-11.6189
士介	-11.6191
謝氏	-11.6192
別作	-11.6199
王若曰	-11.62
切音與	-11.6201
▁姑洗	-11.6202
與盟	-11.6202
同上又	-11.6203
来朝	-11.6203
十有一月	-11.6203
書人	-11.6203
躬行	-11.6204
人道之	-11.6204
無信	-11.6205
受服	-11.6206
人呼	-11.6208
尊敬	-11.6208
與物	-11.621
鏞	-11.6212
使天下	-11.6213
以隂居	-11.6214
地位	-11.6214
無適	-11.6214
十卷	-11.6214
東方之	-11.6217
晉地	-11.6218
用功	-11.6219
淄	-11.6221
訟之	-11.6223
吻	-11.6224
獒	-11.6224
二行	-11.6227
養民	-11.6227
交際	-11.6231
作此詩	-11.6232
古制	-11.6233
酌獻	-11.6234
人共	-11.6237
而心	-11.6237
執一	-11.6237
一畫	-11.6242
人生	-11.6242
香草	-11.6244
過剛	-11.6244
變徴	-11.6245
闈	-11.6245
史氏	-11.6247
詆	-11.6247
擣	-11.6247
之殊	-11.6248
注引	-11.6248
愛民	-11.625
畿外	-11.6252
不殊	-11.6253
雛	-11.6258
碧	-11.6258
顒	-11.6258
濱	-11.6258
謟	-11.6258
𨼆	-11.6258
荀罃	-11.6259
魯以	-11.626
無名	-11.626
以避	-11.6261
錫衰	-11.6262
皮弁服	-11.6263
子儀	-11.6263
坐奠	-11.6264
好之	-11.6268
很	-11.627
悪	-11.627
天府	-11.627
西郊	-11.6272
亦言	-11.6273
中宗	-11.6273
之敗	-11.6273
所可	-11.6274
簞	-11.6274
省作	-11.6274
充耳	-11.6274
3.	-11.6276
方且	-11.6277
三十七	-11.6278
皆謂之	-11.628
不辨	-11.6281
牘	-11.6281
棟橈	-11.6282
草木之	-11.6282
九經	-11.6283
視聽	-11.6283
奏請	-11.6287
不分	-11.629
戯	-11.6293
磔	-11.6293
杭	-11.6293
忮	-11.6293
五剛	-11.6295
加切	-11.6298
北面東上	-11.6299
承上章	-11.6301
魯桓	-11.6303
𤣥鳥	-11.6304
也其言	-11.6306
大略	-11.6306
人倫之	-11.6307
之征	-11.6309
解經	-11.631
厥徳	-11.631
平生	-11.6311
賛者	-11.6313
命數	-11.6313
合于	-11.6313
恐未	-11.6313
許叔	-11.6314
者莫如	-11.6314
文王之徳	-11.6315
餅	-11.6316
聘享	-11.6317
鄭師	-11.6319
離離	-11.6319
動故	-11.6322
無良	-11.6323
刑者	-11.6325
遘	-11.6328
捄	-11.6328
所食	-11.6328
誰與	-11.6328
康節	-11.633
也愚謂	-11.633
屈原	-11.6331
諡法	-11.6333
微弱	-11.6333
弔者	-11.6335
埤	-11.6338
漢之	-11.634
五音篇海	-11.634
者歟	-11.6341
▁山隂陸氏曰	-11.6341
初四	-11.6341
十有五年	-11.6343
四十二	-11.6344
庶士	-11.6344
令尹子	-11.6344
楚茨	-11.6347
主人主婦	-11.6348
擬議	-11.6348
土田	-11.635
鬰	-11.6352
姆	-11.6352
鸛	-11.6352
窞	-11.6352
精義	-11.6353
答之	-11.6353
安樂	-11.6358
吉无不利	-11.6359
胡氏傳	-11.6359
於是始	-11.6359
無辜	-11.6362
曲禮曰	-11.6362
扁	-11.6363
隨人	-11.6363
王世子	-11.6364
降神	-11.6365
自成	-11.6366
列國之	-11.6367
乾陽	-11.6367
之兆	-11.6368
夷狄之	-11.6375
綃	-11.6375
賔尸	-11.6376
司宫	-11.638
升自	-11.6381
又廣韻集韻	-11.6382
楚楚	-11.6383
衣冠	-11.6384
萬二千	-11.6384
切竝音	-11.6385
謝氏曰	-11.6385
角反	-11.6386
者不得	-11.6386
牒	-11.6387
諏	-11.6387
采薇	-11.6389
无首	-11.6391
太史公	-11.6392
尤甚	-11.6395
良心	-11.6396
妾子	-11.6397
尊祖	-11.6398
宀	-11.6399
羶	-11.6399
殱	-11.6399
奎	-11.6399
以酒	-11.6399
小記	-11.64
8.	-11.6401
九行	-11.6401
緩急	-11.6401
子姓	-11.6403
扶又	-11.6405
濟西	-11.6405
而藏之	-11.6405
得之矣	-11.6406
純一	-11.6406
矣盖	-11.6406
䋲	-11.641
貟	-11.641
之律	-11.641
藝文志	-11.6411
大邦	-11.6413
享國	-11.6414
八佾	-11.6416
敦厚	-11.6417
四四	-11.6418
同功	-11.6419
喜怒	-11.6419
皤	-11.6422
簀	-11.6422
訥	-11.6422
思也	-11.6422
後同	-11.6423
俱有	-11.6423
釋曰此	-11.6424
今屬	-11.6425
焉夫	-11.6427
所服	-11.6427
以降	-11.6428
征吉	-11.643
豈可以	-11.6432
靑	-11.6434
原本	-11.6438
于邾	-11.6439
殯宫	-11.644
以佐	-11.644
能敬	-11.6441
禋祀	-11.6443
漢武帝	-11.6443
能順	-11.6444
跂	-11.6446
于太廟	-11.6447
遂行	-11.6448
漢時	-11.6449
對待	-11.6451
縣今	-11.6452
優游	-11.6452
竊意	-11.6452
三者皆	-11.6454
之中有	-11.6455
四瀆	-11.6456
悍	-11.6458
見龍在田	-11.6458
終日乾乾	-11.6458
七百	-11.6459
郡國	-11.6461
不輕	-11.6464
天地之心	-11.6464
正律	-11.6465
其所當	-11.6467
而後行	-11.6467
吸	-11.6469
楬	-11.647
干戚	-11.6472
也書曰	-11.6472
百辟	-11.6473
新宫	-11.6474
仲弓	-11.6475
三十八	-11.6475
可不慎	-11.6476
自然之理	-11.6477
盜賊	-11.6477
嘉禮	-11.6479
檐	-11.6481
飴	-11.6481
坤體	-11.6482
專言	-11.6486
浸長	-11.6487
不富	-11.6487
飄	-11.6488
紹興	-11.6488
重卦	-11.6489
正理	-11.6491
答曰	-11.6492
衙	-11.6493
一无	-11.6493
糟	-11.6493
覈	-11.6493
劉炫	-11.6494
驪姬	-11.6495
益下	-11.6496
有言曰	-11.6497
之美者	-11.6498
卷耳	-11.6498
相違	-11.6499
東楹	-11.65
校人	-11.65
其右	-11.65
龜筮	-11.6502
繳	-11.6505
鈍	-11.6505
迓	-11.6505
不類	-11.6506
竊謂	-11.6506
特言	-11.651
五十六	-11.6511
夬夬	-11.6511
相推	-11.6513
不敢當	-11.6514
蚩	-11.6515
無父	-11.6515
金奏	-11.6517
糝	-11.6517
傚	-11.6517
考異	-11.6518
乙卯	-11.652
者欲見	-11.6521
不止於	-11.6522
附于	-11.6524
」	-11.6524
武舞	-11.6524
来聘	-11.6526
進士	-11.6528
▁冬十有一月	-11.6528
出處	-11.6528
顓	-11.6529
斫	-11.6529
盲	-11.6529
挂	-11.6529
折俎	-11.6531
大倫	-11.6532
感切	-11.6532
老成	-11.6533
庭燎	-11.6534
食禮	-11.6534
直是	-11.6535
司宼	-11.6536
風雷	-11.6539
去一	-11.6541
叔孫僑如	-11.6542
之間謂之	-11.6544
卷七	-11.6546
7.	-11.6547
天地之數	-11.6548
呼報	-11.655
之偏	-11.6551
子云	-11.6553
陳設	-11.6554
紀季	-11.6556
神位	-11.6557
王家	-11.6557
兼用	-11.6558
揚之水	-11.6559
物生	-11.6559
賔賔	-11.656
泉水	-11.656
南征	-11.6562
豸	-11.6565
禬	-11.6565
君子謂	-11.6567
集義	-11.6567
中氣	-11.6568
之樂也	-11.6568
各反	-11.6569
夫差	-11.657
歌者	-11.6572
鄉飲	-11.6574
大禹	-11.6575
匜	-11.6577
武王伐紂	-11.6579
過失	-11.6581
非能	-11.6583
宗祀	-11.6585
居柔	-11.6585
既畢	-11.6586
實理	-11.6586
利西南	-11.6587
推本	-11.6588
派	-11.6589
卣	-11.6589
荑	-11.6589
以素	-11.6592
自任	-11.6592
遇雨	-11.6592
維持	-11.6597
地志	-11.6597
備物	-11.6598
所以正	-11.66
酋	-11.66
橐	-11.6601
僮	-11.6601
華氏	-11.6603
哉然	-11.6603
先代	-11.6606
設席	-11.6608
而觀之	-11.6612
躡	-11.6613
二條	-11.6614
旁通	-11.6615
衰世	-11.6617
車駕	-11.6618
所係	-11.6618
佾	-11.6619
宋師	-11.6622
蜼	-11.6625
儷	-11.6625
玷	-11.6625
▁翼註曰	-11.6625
上之人	-11.6625
隰有	-11.6628
為不善	-11.6628
飾以	-11.663
許其	-11.6631
下射	-11.6631
太隂	-11.6631
以君命	-11.6632
不忠	-11.6633
西面北上	-11.6633
子之言	-11.6634
有恒	-11.6635
之咎	-11.6636
慼	-11.6637
晷	-11.6637
内女	-11.6637
毫釐	-11.664
五方	-11.6643
不救	-11.6647
服期	-11.6647
三危	-11.6647
之大小	-11.6648
笴	-11.6649
又人名	-11.6649
資始	-11.665
不相得	-11.665
知止	-11.665
所繫	-11.6651
言之耳	-11.6653
持之	-11.6655
皥	-11.6657
某氏	-11.6657
大門外	-11.6659
芍	-11.6661
誌	-11.6661
罰之	-11.6662
父子兄弟	-11.6666
諸侯朝	-11.6669
吏切	-11.6669
於父母	-11.667
一歲	-11.6671
樂官	-11.6673
曷爲	-11.6673
緘	-11.6673
憖	-11.6673
賔禮	-11.6675
孔子之言	-11.6676
相背	-11.6676
既定	-11.6677
所遇	-11.6677
兵革	-11.668
辨正	-11.6681
所以爲	-11.6682
其廟	-11.6683
為龍	-11.6685
斚	-11.6685
檉	-11.6685
晉悼	-11.6689
筴	-11.6692
不可過	-11.6693
世道	-11.6695
東漢	-11.6697
匣	-11.6697
觀乎	-11.6698
危懼	-11.6699
顯然	-11.6699
四世	-11.67
土也	-11.67
也故以	-11.67
生數	-11.6701
公孫丑	-11.6705
未然	-11.6705
三節	-11.6705
齋戒	-11.6707
髙子	-11.6708
絢	-11.6709
漠	-11.6709
不可解	-11.671
得名	-11.6712
五升	-11.6713
不遇	-11.6714
部第	-11.6716
旻	-11.6718
三辭	-11.6719
維其	-11.672
耉	-11.6722
攣	-11.6722
彄	-11.6722
設官	-11.6723
薦脯醢	-11.6726
有喪	-11.6728
設教	-11.6733
見大人	-11.6733
所願	-11.6733
而已此	-11.6733
樂音洛	-11.6733
涓	-11.6734
陳乞	-11.6734
為賔	-11.6736
古字	-11.6737
終南	-11.6738
同志	-11.6739
則曷為	-11.674
雖不同	-11.6741
之勇	-11.6742
受幣	-11.6743
誠實	-11.6743
易位	-11.6743
受之以	-11.6743
臨下	-11.6743
洋	-11.6746
癡	-11.6746
遹	-11.6746
搢笏	-11.6746
麻衣	-11.6747
亦甚	-11.6747
十五里	-11.675
𤣥黄	-11.6751
郊勞	-11.6752
而進之	-11.6753
經不書	-11.6753
昆切	-11.6755
於此而	-11.6757
餉	-11.6758
逖	-11.6758
夫子之言	-11.6759
子男之	-11.676
以助	-11.6761
近臣	-11.6761
氣化	-11.6761
五十四	-11.6764
國家之	-11.6765
集韻類篇	-11.6766
有理	-11.6767
其角	-11.6767
得禮	-11.6769
聖人因	-11.677
䕃	-11.677
絕	-11.677
下文云	-11.6771
於人也	-11.6771
亦非也	-11.6771
不伐	-11.6773
夏書	-11.6774
人者也	-11.6774
資斧	-11.6776
邪正	-11.6776
此記	-11.6777
天德	-11.6778
獲麟	-11.6779
到切	-11.6779
竹器	-11.678
綱紀	-11.678
得无咎	-11.6782
顏	-11.6783
戊戌	-11.6784
坤道	-11.6785
放之	-11.6786
師旅	-11.6787
不能討	-11.6792
虞公	-11.6792
董仲舒	-11.6795
翩翩	-11.6795
歸寧	-11.6797
二節	-11.6797
違之	-11.6798
之所同	-11.6798
其憂	-11.6799
而告之	-11.6803
北極	-11.6803
其端	-11.6804
已久	-11.6807
澹	-11.6807
剛得中	-11.6807
下皆同	-11.6807
城南	-11.6811
吾君	-11.6811
出迎	-11.6812
十有四年	-11.6813
雖異	-11.6813
取矢	-11.6814
烏路	-11.6815
吠	-11.6819
卄	-11.6819
團	-11.6819
天災	-11.6823
作是詩	-11.6823
東周	-11.6824
弱水	-11.6824
魯有	-11.6824
州縣	-11.6824
不如是	-11.6826
誰敢	-11.6826
前篇	-11.6828
聞之曰	-11.6829
集注	-11.683
薄言	-11.6831
菟	-11.6832
迺	-11.6832
享祀	-11.6833
凡民	-11.6835
田賦	-11.6837
而不失其	-11.6839
禁止	-11.6839
交易	-11.6839
簒弑	-11.684
永嘉	-11.6842
反丨	-11.6842
居隂	-11.6843
一家之	-11.6843
三綱	-11.6843
險中	-11.6844
庶其	-11.6844
喧	-11.6844
揺	-11.6844
燬	-11.6844
㛰	-11.6844
今本	-11.6846
從夫	-11.6846
韓詩作	-11.6846
窮則	-11.6846
治道	-11.6848
中衣	-11.6849
仲虺	-11.6849
但云	-11.685
朋來	-11.685
玉路	-11.6851
一義	-11.6852
古文作	-11.6852
君賜	-11.6852
乃知	-11.6854
敞	-11.6854
隗	-11.6856
咈	-11.6856
奪其	-11.6856
何咎	-11.6857
須句	-11.6858
政治	-11.686
侯服	-11.6863
祫祭	-11.6865
繼父	-11.687
凡書	-11.6871
之常也	-11.6873
季夏	-11.6875
整齊	-11.6877
萬舞	-11.6878
三飯	-11.688
另	-11.6881
鵻	-11.6881
濡其尾	-11.6881
受田	-11.6881
莫大焉	-11.6883
麗於	-11.6884
平常	-11.6884
二水	-11.6885
陽剛中正	-11.6886
侯中	-11.6888
洛水	-11.6889
注解云	-11.6892
誑	-11.6893
溼	-11.6893
雲氣	-11.6894
稱國	-11.6895
老夫	-11.6895
武宫	-11.6897
甸人	-11.69
恵公	-11.6901
似乎	-11.6902
前代	-11.6903
四十六	-11.6904
只有	-11.6905
媾	-11.6905
苹	-11.6906
履虎尾	-11.6906
僴	-11.6906
文獻通考	-11.6906
示民	-11.6907
歴代	-11.6909
雞澤	-11.6909
彖象	-11.691
嚳	-11.6913
炎帝	-11.6913
常服	-11.6914
蠅	-11.6916
沚	-11.6918
仲氏	-11.692
嗣位	-11.692
名篇	-11.6921
甘棠	-11.6921
為人後者	-11.6921
制器	-11.6921
建子	-11.6923
何疑	-11.6923
但知	-11.6927
祭天地	-11.6927
樂舞	-11.6928
衰絰	-11.6928
者不過	-11.693
准	-11.6931
櫝	-11.6931
至極	-11.6932
盥洗	-11.6933
伯討	-11.6933
申侯	-11.6935
再言	-11.6936
甲胄	-11.6936
遣車	-11.6937
尺五寸	-11.6938
號曰	-11.6938
乃成	-11.6939
大河	-11.694
專指	-11.694
階上	-11.6941
恐人	-11.6942
軍事	-11.6942
北門	-11.6944
奔莒	-11.6945
尊王	-11.6945
則无咎	-11.6948
筮者	-11.6948
宋災	-11.6953
之服也	-11.6954
反一音	-11.6954
小歛	-11.6955
著明	-11.6955
橘	-11.6955
亨利貞	-11.6955
啄	-11.6955
馨香	-11.6956
在己	-11.6957
梓人	-11.6958
閟宫	-11.6959
千五百	-11.696
縱横	-11.6961
司儀	-11.6961
酒正	-11.6962
襄二十	-11.6962
三行	-11.6966
幡	-11.6968
菀	-11.6968
盛時	-11.6972
不謹	-11.6972
回切	-11.6974
地勢	-11.6976
私人	-11.6977
百家	-11.6982
郤缺	-11.6984
世祖	-11.6988
澶淵	-11.6989
侵陳	-11.6989
女御	-11.6991
之志也	-11.6991
綍	-11.6993
臧文仲	-11.6993
齊鄭	-11.6993
鍾離	-11.6994
互艮	-11.6996
丁寧	-11.6998
繋辭	-11.7001
前驅	-11.7001
卦義	-11.7001
牷	-11.7005
臝	-11.7005
拆	-11.7005
履霜	-11.7006
為艮	-11.701
鄉射禮	-11.701
卷八	-11.7011
自此至	-11.7012
削之	-11.7013
髙山	-11.7014
讀易	-11.7014
其根	-11.7015
晉語	-11.7016
樊遲	-11.7016
積累	-11.7017
鶻	-11.7018
但書	-11.7019
西京	-11.7021
究其	-11.7021
矣况	-11.7023
方可	-11.7025
在心	-11.7026
吏反	-11.7028
挫	-11.703
楚國	-11.7032
褖衣	-11.7032
季氏之	-11.7034
尊君	-11.7035
05	-11.7035
七升	-11.7036
公子友	-11.7042
會同	-11.7043
掣	-11.7043
充實	-11.7043
升階	-11.7044
呉氏	-11.7046
未嫁	-11.7047
天下大	-11.705
鄭公孫	-11.705
郊天	-11.7052
平時	-11.7054
晋侯	-11.7055
以待之	-11.7055
針	-11.7055
棖	-11.7055
跣	-11.7055
餽	-11.7055
諶	-11.7055
道德	-11.7059
重増	-11.7059
無愧	-11.7062
同異	-11.7067
猴	-11.7068
致福	-11.7068
霧	-11.7068
匝	-11.7068
畤	-11.7068
文二重音一	-11.707
木鐸	-11.7071
因名	-11.7072
括髪	-11.7072
肆其	-11.7072
不討	-11.7073
唐韻正	-11.7073
聲一曰	-11.7073
儼	-11.7074
文理	-11.7076
文舞	-11.7077
宣姜	-11.7079
來求	-11.708
秃	-11.7081
帚	-11.7081
不存	-11.7082
有厲	-11.7083
而著	-11.7083
門之内	-11.7085
不留	-11.7087
推之則	-11.7088
堂西	-11.7089
弗與	-11.7089
小行人	-11.7089
▁鄭曰	-11.709
耳今	-11.7092
朝㑹	-11.7093
慆	-11.7093
汰	-11.7093
紵	-11.7093
湫	-11.7093
企	-11.7093
南有	-11.7094
作主	-11.7095
降殺	-11.7095
知其所	-11.7095
商周	-11.7095
能安	-11.7095
聲徐曰	-11.7096
倫切	-11.71
都家	-11.7104
箕子之	-11.7104
服事	-11.7105
侔	-11.7106
千古	-11.7108
候切	-11.711
危亡	-11.711
力反	-11.7111
私覿	-11.7116
書契	-11.7116
采邑	-11.7116
綌	-11.7118
間斷	-11.7122
脊脅	-11.7122
必不能	-11.7124
不毁	-11.7124
清酒	-11.7124
水草	-11.7125
固辭	-11.7127
王制云	-11.7128
不勉	-11.7129
齊戒	-11.7129
泠	-11.7131
鄟	-11.7131
商書	-11.7132
九年春	-11.7134
無算爵	-11.7134
棧	-11.7135
韻増入	-11.7135
一千	-11.7137
清河	-11.7137
隴西	-11.7138
者正以	-11.7141
流沙	-11.7143
之證	-11.7145
酌酒	-11.7146
人之性	-11.7148
竒偶	-11.7149
徳性	-11.7152
凶年	-11.7154
湎	-11.7155
惡乎	-11.7156
僂	-11.7156
天下之道	-11.7157
二簋	-11.7158
事天	-11.716
形似	-11.716
玉藻云	-11.7162
朱子語	-11.7165
横木	-11.7168
茷	-11.7169
為近	-11.7172
▁正傳曰	-11.7173
水鳥	-11.7174
足以見	-11.7174
▁􁁇	-11.7177
之别名	-11.7177
奏樂	-11.7178
天威	-11.7179
五句	-11.7181
h	-11.7182
葅	-11.7182
▁㽔	-11.7182
此盟	-11.7183
有嘉	-11.7183
韓厥	-11.7186
閨門	-11.7187
日光	-11.7188
已過	-11.7189
君將	-11.719
無所用	-11.7191
祭宗廟	-11.7192
不可行	-11.7195
也〇	-11.7196
恭儉	-11.7197
階下	-11.7203
所定	-11.7203
五代	-11.7205
聘于	-11.7206
若何	-11.7207
可據	-11.7207
韵	-11.7207
辵	-11.7207
雲峯胡氏曰	-11.7207
見爾雅	-11.7209
或書作	-11.7212
觀民	-11.7213
十五日	-11.7213
三十九	-11.7213
焉能	-11.7213
杜子春云	-11.7217
諸書	-11.7217
賔射	-11.7217
羣廟	-11.722
嚚	-11.722
召誥	-11.722
昆吾	-11.7221
刑殺	-11.7222
孰謂	-11.7222
以别之	-11.7222
所以尊	-11.7224
讀詩	-11.7227
克己	-11.7228
造化之	-11.7228
司㑹	-11.7229
賢君	-11.7229
生氣	-11.723
小寢	-11.7231
憧憧	-11.7233
圍鄭	-11.7233
肆師	-11.7234
深逺	-11.7238
知之矣	-11.7239
朝廷之	-11.7239
主盟	-11.7239
相次	-11.724
敬嬴	-11.724
朱子謂	-11.7241
偉	-11.7246
所以教	-11.7246
泰否	-11.7249
侍御	-11.7258
宋鄭	-11.7258
浹	-11.7258
篪	-11.7259
骸	-11.7259
總名	-11.7264
以陽居隂	-11.7265
去年	-11.7267
其類也	-11.7267
不審	-11.7268
高下	-11.7268
兩觀	-11.727
四德	-11.7271
春秋之時	-11.7271
稾	-11.7271
知覺	-11.7273
晉君	-11.7278
孝友	-11.728
無失	-11.7282
釋菜	-11.7283
脰	-11.7284
瀾	-11.7284
北堂	-11.7286
釋經	-11.7288
至精	-11.7291
天子之命	-11.7292
之中也	-11.7293
終焉	-11.7294
貨財	-11.7294
為長子	-11.7294
楫	-11.7296
餙	-11.7297
姦宄	-11.7297
為盟主	-11.7299
王猛	-11.7299
六升	-11.73
縠	-11.7302
法制	-11.7304
▁方氏慤曰	-11.7304
可勝	-11.7305
受命于	-11.7305
北斗	-11.7306
纂疏	-11.7309
自欺	-11.7309
皮為	-11.7309
擩	-11.731
苫	-11.731
▁胡安國曰	-11.731
遲遲	-11.7311
叔孫得臣	-11.7311
君臣上下	-11.7311
二與五	-11.7312
固可	-11.7314
洞庭	-11.7314
卑下	-11.7316
淫奔	-11.7317
上擯	-11.7317
假道	-11.732
精粗	-11.732
平原	-11.7323
滔	-11.7323
中聲	-11.7324
自南	-11.7325
皇氏	-11.7326
不忒	-11.7327
僕人	-11.7328
以警	-11.733
老人	-11.7331
九賦	-11.7331
檀弓云	-11.7332
三星	-11.7332
顧氏	-11.7333
不正則	-11.7334
何耶	-11.7336
棼	-11.7336
笥	-11.7336
前期	-11.7337
内事	-11.7338
老少	-11.7339
席前	-11.7339
不道	-11.7342
江水	-11.7343
泗水	-11.7343
遂滅	-11.7344
之體也	-11.7344
天地之氣	-11.7344
降服	-11.7346
州里	-11.7348
庳	-11.7349
譯	-11.7349
家道	-11.735
三辰	-11.7352
昭然	-11.7353
互文	-11.7354
王官	-11.7355
故引	-11.7355
齋曰	-11.7355
係於	-11.7357
鄉飲酒禮	-11.7358
四隅	-11.7358
聖人之所	-11.736
大難	-11.7362
兩頭	-11.7362
五十五	-11.7362
王正月	-11.7363
貳車	-11.7365
釋獲者	-11.7366
必求	-11.7366
四十四	-11.7367
因事	-11.7369
赴告	-11.737
雜記云	-11.7371
無一毫	-11.7371
女妻	-11.7372
物理	-11.7374
豺	-11.7374
栽	-11.7375
字又作	-11.7377
下土	-11.7379
禮法	-11.7379
紅切	-11.738
牧人	-11.7382
陽處父	-11.7383
利建侯	-11.7383
能改	-11.7384
舎之	-11.7385
何異	-11.7387
楨	-11.7388
諦	-11.7388
䘏	-11.7388
其流	-11.7388
荀林父	-11.7389
郊特牲云	-11.7391
易見	-11.7391
既醉	-11.7391
王天下	-11.7394
凶服	-11.7395
泰伯	-11.7397
玉府	-11.7397
縣故城	-11.7397
應天	-11.7398
結反	-11.7399
芑	-11.7399
為正應	-11.7399
罽	-11.7401
撞	-11.7401
毀	-11.7401
跗	-11.7401
凡十	-11.7402
何罪	-11.7404
養賢	-11.7408
正誤	-11.7409
從父	-11.741
樂只君子	-11.7414
十餘年	-11.7419
鄉師	-11.7422
邈	-11.7423
變革	-11.7425
刑法	-11.7426
翹	-11.7427
溷	-11.7427
藿	-11.7427
兾	-11.7427
戶	-11.7427
古老	-11.7435
神座	-11.7435
相保	-11.7438
祭公	-11.7438
天討	-11.7439
萬方	-11.7439
鬷	-11.744
鎭	-11.744
蜺	-11.744
祜	-11.744
齊景公	-11.7443
▁序曰	-11.7445
三徳	-11.7445
貫通	-11.7445
執觶	-11.7448
不苟	-11.7448
髙氏	-11.7449
切釋云	-11.7451
霆	-11.7451
螽斯	-11.7452
蘀	-11.7453
▁􁁆	-11.7455
惟爾	-11.7456
世卿	-11.7456
徐徐	-11.7457
陽城	-11.7459
吉士	-11.7461
二家	-11.7464
鶉火	-11.7465
有限	-11.7466
淸	-11.7466
齊大夫	-11.7466
尨	-11.7466
▁漢上朱氏曰	-11.7466
於其中	-11.7466
此二句	-11.7468
數年	-11.7468
田役	-11.7469
▁朱曰	-11.7472
政刑	-11.7477
先書	-11.7477
曲阜	-11.7477
寢門	-11.7478
涌	-11.7479
袴	-11.7479
葑	-11.7479
千載	-11.7481
韓宣子	-11.7482
皆出於	-11.7483
鞠衣	-11.7484
亦不過	-11.7485
威武	-11.7489
中門	-11.7489
來復	-11.749
見弑	-11.749
椽	-11.7492
邯鄲	-11.7492
澨	-11.7492
增韻	-11.7493
燔柴	-11.7494
从水	-11.7495
也从心	-11.7499
大衆	-11.7499
救邢	-11.75
白虎	-11.7501
鍵	-11.7505
劇	-11.7505
掲	-11.7505
謡	-11.7505
馮翊	-11.7506
之為道	-11.7506
林氏	-11.7507
化民	-11.7511
事父母	-11.7513
臣謹按	-11.7515
載師	-11.7515
武氏	-11.7515
日夜	-11.7515
尚何	-11.7518
稱公子	-11.7518
攀	-11.7519
人之國	-11.7519
東方朔	-11.752
相雜	-11.752
人事之	-11.7522
勝負	-11.7522
陰陽之	-11.7523
者也故曰	-11.7528
一徳	-11.753
令狐	-11.7531
醋	-11.7532
謳	-11.7532
出地	-11.7532
典刑	-11.7533
五嶽	-11.7534
於四方	-11.7535
焉故曰	-11.7541
一百二十	-11.7542
而求之	-11.7543
稱弟	-11.7544
埋之	-11.7544
傳寫	-11.7544
忍切	-11.7544
伊川程子曰	-11.7548
逺郊	-11.7548
▁尹曰	-11.7548
殷禮	-11.7551
爲人	-11.7551
其所以為	-11.7553
簡易	-11.7554
厯數	-11.7555
萬人	-11.7555
岷	-11.7555
歌舞	-11.7556
亡國之	-11.7556
苟不	-11.7557
先師	-11.7558
晢	-11.7558
頍	-11.7558
帟	-11.7558
𤾉	-11.7558
瀍	-11.7558
食貨志	-11.7558
猜	-11.7558
照臨	-11.7559
舊章	-11.756
從晉	-11.7562
籀	-11.7565
但當	-11.7568
但見	-11.7568
蘋	-11.7569
腴	-11.7571
汔	-11.7571
不登	-11.7572
不念	-11.7576
逐君	-11.7578
俗音	-11.7578
芋	-11.7585
療	-11.7585
僎	-11.7585
紫陽朱子曰	-11.7585
正寢	-11.7589
外物	-11.759
今日之	-11.7591
正色	-11.7593
懿公	-11.7594
所藏	-11.7598
▁張彦陵曰	-11.7598
▁龜山楊氏曰	-11.7598
A	-11.7599
地祗	-11.7602
逺方	-11.7602
開元禮	-11.7602
于是乎	-11.7603
大閲	-11.7604
渡河	-11.7605
送死	-11.7605
多福	-11.7606
只是一	-11.7607
諧聲	-11.7611
菼	-11.7611
朂	-11.7611
飛龍在天	-11.7611
括囊	-11.7613
也鄭司農云	-11.7615
牖下	-11.7616
曰寡人	-11.7617
鼓瑟	-11.7618
毁折	-11.7618
故須	-11.7619
桑扈	-11.762
正服	-11.762
赤道	-11.7621
遷國	-11.7621
弗過	-11.7621
左氏云	-11.7624
懽	-11.7624
醤	-11.7624
牿	-11.7624
羣公	-11.7625
奈	-11.7626
省察	-11.7632
一軍	-11.7634
隂盛	-11.7635
撥亂	-11.7637
爇	-11.7638
机	-11.7638
𣏌	-11.7638
至親	-11.7639
七十五	-11.7639
終不能	-11.764
稱國以殺	-11.7641
殺牲	-11.7642
受命於	-11.7642
改易	-11.7643
所祭	-11.7644
晉趙盾	-11.7646
老婦	-11.7649
鑠	-11.7651
鞫	-11.7651
審矣	-11.7653
小聘	-11.7656
古樂	-11.7659
吳楚	-11.766
告神	-11.7662
g	-11.7664
西北面	-11.7664
甄	-11.7664
敺	-11.7664
者此也	-11.7666
琅邪	-11.7666
茂盛	-11.7666
宜乎	-11.7669
坐祭	-11.7671
緇布	-11.7672
哭踊	-11.7673
止其所	-11.7674
不與焉	-11.7676
莫知其	-11.7678
焞	-11.7678
賈氏	-11.768
公孫歸父	-11.768
互離	-11.7682
後嗣	-11.7682
諸侯之禮	-11.7683
送葬	-11.7684
文考	-11.7686
内朝	-11.7687
不足而	-11.7687
帝位	-11.7687
立法	-11.7689
孟夏	-11.7689
定四年	-11.769
斝	-11.7691
倘	-11.7691
廖	-11.7691
唐叔	-11.7691
澧	-11.7691
六宗	-11.7693
事晉	-11.7694
豉	-11.7695
又本韻	-11.7696
止而不	-11.7696
陸渾	-11.7697
北杏	-11.7697
東坡	-11.7698
委蛇	-11.7698
聖人之言	-11.7699
晉陽	-11.77
君臣相	-11.7701
之地而	-11.7702
祀五帝	-11.7703
祈榖	-11.7704
媿	-11.7705
狷	-11.7705
經義	-11.7705
饑饉	-11.7705
各從其	-11.7706
先儒以	-11.7708
民間	-11.771
職掌	-11.7711
卒觶	-11.7711
有漸	-11.7712
相攻	-11.7712
取邑	-11.7712
伐國	-11.7713
素衣	-11.7714
鄭知	-11.7715
掌客	-11.7715
鳴謙	-11.7717
㸑	-11.7718
論語云	-11.7721
人性	-11.7723
果何	-11.7723
索隱	-11.7724
百餘里	-11.7725
無貶	-11.7725
入郢	-11.773
騁	-11.7731
刳	-11.7731
襌	-11.7731
駵	-11.7731
澡	-11.7731
九百	-11.7734
長尺	-11.7734
為之主	-11.7734
並用	-11.7734
之辱	-11.7735
須知	-11.7738
亦莫	-11.7739
又地名	-11.7739
光大也	-11.7741
下孟	-11.7742
事鬼神	-11.7743
縿	-11.7745
晞	-11.7745
醒	-11.7745
商賈	-11.7746
廟碑	-11.7746
雲夢	-11.7747
通志	-11.7749
羣公子	-11.7752
薦俎	-11.7752
惑於	-11.7753
看得	-11.7757
晉平	-11.7762
常情	-11.7763
於寢	-11.7769
民生	-11.7769
我先王	-11.7772
后夫人	-11.7774
字林云	-11.778
又見下	-11.7784
羆	-11.7785
倖	-11.7785
坂	-11.7785
咸臨	-11.7785
街	-11.7785
周禮天官	-11.7787
無節	-11.7788
正聲	-11.7788
總言	-11.7789
尚存	-11.779
東郡	-11.779
而後已	-11.7795
練祥	-11.7796
中原	-11.7798
錐	-11.7799
罄	-11.7799
文明之	-11.7799
克明	-11.7801
徴舒	-11.7803
二伯	-11.7803
居位	-11.7804
神宗	-11.7809
相資	-11.781
膊	-11.7812
臨事	-11.7813
夏小正	-11.7814
成性	-11.7822
幬	-11.7826
適人者	-11.7826
是箇	-11.7827
至於此	-11.7828
侵衛	-11.7833
此據	-11.7834
九職	-11.7836
賓賓	-11.7837
彭生	-11.7838
𦂳	-11.784
節度	-11.784
而伐之	-11.7841
之詩曰	-11.7841
亦不足	-11.7842
之謂乎	-11.7845
屬焉	-11.7847
向戌	-11.7849
賔長	-11.785
款	-11.7853
烜	-11.7853
脆	-11.7853
涿	-11.7853
宣帝	-11.7854
致逺	-11.7854
之嫌	-11.7854
伐吳	-11.7855
未足以	-11.7857
長大	-11.7857
見執	-11.786
終之以	-11.7862
昭昭	-11.7863
九尺	-11.7864
山澤之	-11.7866
笱	-11.7866
曽子曰	-11.7866
騫	-11.7867
譁	-11.7867
忤	-11.7867
觀我生	-11.7868
咥	-11.7871
應初	-11.7872
薛伯	-11.7874
而不忘	-11.7875
拜賓	-11.7879
純粹	-11.7884
于房中	-11.7889
正則吉	-11.7892
蹲	-11.7894
纖	-11.7894
牲用	-11.7897
未備	-11.7897
王母	-11.7897
黄裳	-11.7899
所履	-11.7899
子曰吾	-11.79
則不然	-11.7903
鼓舞	-11.7906
卷九	-11.7906
楸	-11.7908
膰	-11.7908
互震	-11.7908
何咎之有	-11.7909
納公	-11.7911
則民不	-11.7912
畢竟	-11.7912
故次之以	-11.7913
受其福	-11.7917
取法	-11.7918
繼母	-11.7919
篇中	-11.7919
司常	-11.7919
諍	-11.7922
特牲少牢	-11.7922
附錄	-11.7922
▁集傳賦也	-11.7922
虞卒哭	-11.7923
于四方	-11.7924
切近	-11.7926
之本體	-11.7926
相逺	-11.7928
翟泉	-11.7931
閟	-11.7931
日進	-11.7932
臾	-11.7933
六行	-11.7934
無度	-11.7935
成二年	-11.7935
沇	-11.7935
蘧	-11.7935
襢	-11.7935
I	-11.7935
TE	-11.7936
堯舜之道	-11.7936
明帝	-11.7939
千六百	-11.7943
名分	-11.7945
偶然	-11.7947
郤至	-11.7947
禮制	-11.7947
𧰼曰	-11.7948
用壯	-11.7948
墾	-11.7949
柔順中正	-11.7951
以此知	-11.7951
震艮	-11.7951
左氏以為	-11.7952
哀樂	-11.7956
卒伍	-11.7961
2.	-11.7962
蛾	-11.7963
闐	-11.7963
s	-11.7963
鈔	-11.7963
徐氏曰	-11.7965
加爵	-11.7965
去就	-11.7968
相配	-11.797
元文	-11.7971
穀梁曰	-11.7972
大有之	-11.7972
貊	-11.7974
常行	-11.7974
螫	-11.7976
麴	-11.7976
詈	-11.7977
哭泣	-11.7978
酒誥	-11.7978
生育	-11.7978
。』	-11.7978
百有二十	-11.7979
其道窮也	-11.798
入于海	-11.798
不得其所	-11.798
爲政	-11.7986
其財	-11.7986
涵養	-11.7986
之稱也	-11.7986
中星	-11.7987
亂臣	-11.7988
浪切	-11.7989
天保	-11.7989
溱	-11.799
曏	-11.799
寖	-11.799
王輔嗣	-11.799
期於	-11.7993
千九百	-11.7993
從王事	-11.7993
汝南	-11.7995
剛健中正	-11.7998
東面北上	-11.8
教之以	-11.8001
此所以為	-11.8002
不仁者	-11.8002
稊	-11.8004
癘	-11.8004
蘇軾	-11.8007
所獲	-11.8007
黄色	-11.8008
非卿	-11.8011
紞	-11.8018
純隂	-11.8019
甲乙	-11.8021
堊室	-11.8023
南蒯	-11.8023
舉鼎	-11.8024
人皆有	-11.8025
傅説	-11.8027
士服	-11.8027
所以深	-11.8027
按說文	-11.8027
所以立	-11.8028
酒醴	-11.803
北流	-11.803
祝辭	-11.8031
從陽	-11.8031
訏	-11.8032
帯	-11.8032
者也夫	-11.8034
三王之	-11.8036
一邊	-11.8037
典常	-11.8037
黄中	-11.8039
職方氏	-11.8041
達道	-11.8043
入門左	-11.8043
錞	-11.8046
藁	-11.8046
O	-11.8046
宴樂	-11.8047
諸説	-11.8047
帥師侵	-11.8047
桐柏	-11.8047
黄池	-11.8052
陳列	-11.8056
誰謂	-11.8057
太傅	-11.8059
四百里	-11.8059
o	-11.8059
觜	-11.806
愾	-11.806
慿	-11.806
9.	-11.8061
趙子曰	-11.8063
罔有	-11.8066
天下莫	-11.8067
之終也	-11.8068
百乗	-11.8068
取鄆	-11.8068
責人	-11.8069
又唐韻	-11.8071
co	-11.8073
m	-11.8073
u	-11.8073
k	-11.8073
▁201	-11.8073
▁ma	-11.8074
天子之事	-11.8079
不愛	-11.808
人臣之	-11.8084
何以不言	-11.8085
嗚	-11.8086
支子	-11.8086
書爵	-11.8087
K	-11.8087
敔	-11.8087
p	-11.8087
蝝	-11.8087
蓮	-11.8087
靷	-11.8087
D	-11.8087
聳	-11.8087
迤	-11.8087
C	-11.8087
L	-11.8087
S	-11.8087
U	-11.8087
叔孫婼	-11.8088
不煩	-11.8089
潤下	-11.8091
朝夕哭	-11.8091
▁一稱	-11.8092
八政	-11.8094
帝舜	-11.8095
羔羊	-11.8098
之得失	-11.8101
弑父	-11.8101
瘡	-11.8101
淆	-11.8101
康子	-11.8101
隨事	-11.8104
楹間	-11.8104
其孰能	-11.8104
魚鼈	-11.8106
尤切	-11.8107
無斁	-11.8107
復扶又反	-11.8107
文意	-11.8109
講武	-11.811
軍中	-11.8111
臣鍇按	-11.8112
冉求	-11.8114
齊景	-11.8115
孔頴達	-11.8115
曰諾	-11.8117
衆陽	-11.8118
大德	-11.8127
故其象占如此	-11.8129
諄諄	-11.8129
莒子邾子	-11.813
遂以為	-11.8131
門户	-11.8131
必因	-11.8132
饒氏曰	-11.8132
城門	-11.8135
孤子	-11.8137
於明堂	-11.8137
樂樂	-11.8138
主爻	-11.8141
矣而又	-11.8142
荀爽	-11.8143
文質	-11.8143
入門右	-11.8143
八十四	-11.8143
縈	-11.8143
郇	-11.8143
芣苢	-11.8143
欽哉	-11.8144
獻酬	-11.8145
田畯	-11.8145
陵縣	-11.8146
理義	-11.8146
國之大事	-11.815
洪武	-11.815
小篆	-11.8153
習於	-11.8154
鎧	-11.8157
瞑	-11.8157
尅	-11.8157
串	-11.8157
詎	-11.8157
賙	-11.8157
大禹謨	-11.8158
二王之後	-11.816
不啻	-11.8161
設卦	-11.8162
人才	-11.8162
多聞	-11.8163
腹心	-11.8163
於此矣	-11.8163
仕於	-11.8164
不幸而	-11.8164
之𧰼	-11.8166
義例	-11.8169
璞	-11.817
洙	-11.8171
躔	-11.8171
凶矣	-11.8172
今觀	-11.8174
足以盡	-11.8178
冬十有二月	-11.8178
子常	-11.8179
不哭	-11.8179
衍文	-11.8181
征役	-11.8183
諄	-11.8185
恚	-11.8185
寃	-11.8185
椹	-11.8185
真氏曰	-11.8185
括地志	-11.8186
也从木	-11.8189
姓苑	-11.819
周公作	-11.8197
郿	-11.82
艮其背	-11.82
▁萊按	-11.8201
既見君子	-11.8201
三歳	-11.8201
其效	-11.8203
庶邦	-11.8203
截然	-11.8205
文祖	-11.8209
大綱	-11.8209
與人同	-11.821
暵	-11.8214
衫	-11.8214
此不言	-11.8218
吕刑	-11.8219
犬戎	-11.8219
諸侯盟	-11.822
而不變	-11.8221
坤卦	-11.8223
兗	-11.8226
縻	-11.8228
不滿	-11.8229
始交	-11.8229
叔向曰	-11.8233
偪陽	-11.8234
節奏	-11.824
桓叔	-11.8241
柔得位	-11.8241
罃	-11.8241
侗	-11.8242
一个	-11.8242
襄陵許氏曰	-11.8242
反叶	-11.8243
欲殺	-11.8244
伐徐	-11.8246
何敢	-11.8251
楚子使	-11.8254
入渭	-11.8254
吕反	-11.8256
彖言	-11.8256
荀躒	-11.8256
威如	-11.8258
何益	-11.8258
昆蟲	-11.826
未知其	-11.8263
不能安	-11.8266
應四	-11.8267
𤣥孫	-11.8269
純乎	-11.827
豈必	-11.827
南門	-11.8271
帝王之	-11.8275
不可通	-11.8276
利艱貞	-11.8277
公羊作	-11.8278
裼衣	-11.8279
巽木	-11.8279
教國子	-11.8279
太常卿	-11.828
又類篇	-11.8282
應對	-11.8284
僊	-11.8284
菆	-11.8284
鐲	-11.8284
隳	-11.8284
濤塗	-11.8285
圓圖	-11.8286
鄭莊	-11.8287
前定	-11.8291
獻官	-11.8291
堊	-11.8294
黽	-11.8295
推廣	-11.8298
頑民	-11.8298
未必然	-11.83
敵國	-11.83
司命	-11.83
苟能	-11.8304
禰廟	-11.8307
物欲	-11.8311
神物	-11.8311
列于	-11.8311
陸機	-11.8311
道之大	-11.8312
字或作	-11.8313
斲	-11.8313
胏	-11.8313
輓	-11.8313
虽	-11.8313
可任	-11.8313
勞民	-11.8314
萬五千	-11.8315
養生	-11.8316
注据	-11.832
今夫	-11.832
其所以然	-11.8321
封國	-11.8322
碩大	-11.8324
之所欲	-11.8325
寒泉	-11.8325
相錯	-11.8326
乃還	-11.8327
展輿	-11.8331
以盡其	-11.8331
小利貞	-11.8332
防其	-11.8332
朔方	-11.8335
戴公	-11.8336
趣馬	-11.8337
佃	-11.834
昭元年	-11.8341
于西階上	-11.8341
遒	-11.8341
靁	-11.8341
縣地	-11.8345
心術	-11.8347
將欲	-11.8351
名文一	-11.8352
儋	-11.8356
小弁	-11.8357
釋卦辭	-11.8358
明哲	-11.8361
檀弓曰	-11.8364
敢問	-11.8368
公侯伯子男	-11.8369
蔞	-11.837
映	-11.837
摰	-11.837
為雨	-11.8373
蕭魚	-11.8373
有害	-11.8374
所畏	-11.8377
路車	-11.8377
白茅	-11.8378
遲速	-11.8378
治事	-11.8383
也古作	-11.8384
幦	-11.8384
▁藍田吕氏曰	-11.8384
邶鄘	-11.8385
之器也	-11.839
流水	-11.8391
足利本同	-11.8393
君母	-11.8395
卓子	-11.8396
公羊云	-11.8398
瓢	-11.8399
掉	-11.8399
隍	-11.8399
鶩	-11.8399
駰	-11.8399
宮室	-11.8399
隂卦	-11.8399
七年春	-11.84
即席	-11.8401
各有其	-11.8404
无可	-11.8404
加之以	-11.8404
必死	-11.8407
可推	-11.841
孩	-11.8413
豝	-11.8413
槖	-11.8413
彭彭	-11.8415
作三軍	-11.8417
清聲	-11.8418
次章	-11.842
無虧	-11.8421
出母	-11.8421
祭之日	-11.8422
服斬	-11.8422
豉反	-11.8423
孟子之言	-11.8425
他事	-11.8426
薌	-11.8428
徯	-11.8428
粤	-11.8428
己卯	-11.8431
牢禮	-11.8432
祭畢	-11.8432
要服	-11.8432
相和	-11.8434
故詩人	-11.8435
罔極	-11.8441
已具	-11.8441
語助	-11.8442
廻	-11.8442
東行	-11.8443
下士二人	-11.8446
又正韻	-11.8449
憂懼	-11.8455
豈知	-11.8455
何待	-11.8456
幺	-11.8456
甿	-11.8456
▁正義敖氏繼公曰	-11.8457
東萊吕氏曰	-11.8457
鄉里	-11.8458
鴻鴈	-11.8459
合祭	-11.8462
豈弟君子	-11.8463
審其	-11.8466
宫商	-11.8467
即今之	-11.8468
降階	-11.847
古者天子	-11.847
酬賔	-11.847
漷	-11.8471
不亦宜乎	-11.8472
黜陟	-11.8474
衆士	-11.8475
十二辰	-11.8476
無以異	-11.8477
隂隂	-11.8478
不愧	-11.8478
震澤	-11.848
尊之也	-11.8482
自修	-11.8483
東陽	-11.8483
大夫之子	-11.8485
椓	-11.8485
繘	-11.8485
而已非	-11.8488
百畆	-11.8488
胸	-11.849
曾子曰	-11.8495
君牙	-11.8496
風俗通	-11.8498
頫	-11.85
潛龍勿用	-11.85
為之服	-11.8503
娶妻	-11.8503
百乘	-11.8503
踐履	-11.8503
聽訟	-11.8506
再見	-11.8506
禮成	-11.851
漢武	-11.8514
踞	-11.8514
埴	-11.8515
王假有廟	-11.8515
綢繆	-11.8515
舎人	-11.8516
甯喜	-11.852
三采	-11.8523
所以治	-11.8525
邴	-11.8529
分之一	-11.8533
讒人	-11.8534
南方之	-11.8535
鄭忽	-11.8536
士鞅	-11.8536
上下交	-11.8537
巽體	-11.8538
天地之中	-11.8539
潭	-11.8544
怍	-11.8544
幾何	-11.8544
玉人	-11.8545
伐曹	-11.8547
用賢	-11.8549
率諸侯	-11.8551
嘉賔	-11.8553
王子虎	-11.8553
踰月	-11.8555
其業	-11.8555
沫	-11.8558
庵	-11.8558
杵臼	-11.8558
杜預曰	-11.8559
稻粱	-11.856
剛而不中	-11.8563
復讎	-11.8565
嚴氏曰	-11.8565
南流	-11.8566
𤣥衣	-11.8569
三統	-11.857
修德	-11.8571
事父	-11.8572
村	-11.8573
㪚	-11.8573
蟜	-11.8573
將亡	-11.8573
郊禘	-11.8577
醴齊	-11.8582
發揮	-11.8582
燕燕	-11.8582
又徒	-11.8584
何氏曰	-11.8584
方言云	-11.8586
深思	-11.8587
處困	-11.8587
寥	-11.8587
羑里	-11.8588
可以知	-11.8592
未形	-11.8595
親疎	-11.8595
趙穿	-11.8596
不可掩	-11.8596
褘	-11.8596
以上皆	-11.8597
射御	-11.8598
自强	-11.8601
音洛	-11.8601
天地之大	-11.8602
禎	-11.8602
與時偕行	-11.8602
重增	-11.8603
自己	-11.8604
詩疏	-11.8604
子產	-11.8604
家父	-11.8605
義大矣哉	-11.8606
也𤣥謂	-11.8606
國之卿	-11.8607
光輝	-11.8608
伐崇	-11.8608
强弱	-11.8609
又韻㑹	-11.8611
好徳	-11.8612
▁先儒曰	-11.8613
誠齋	-11.8616
稱侯	-11.8616
文王武王	-11.8617
掛扐	-11.8617
君夫人	-11.8618
舊本	-11.8621
之所有	-11.8622
相距	-11.8623
草蟲	-11.8627
浮于	-11.8627
齊侯衛侯	-11.8629
太室	-11.863
要絰	-11.8631
稠	-11.8632
盬	-11.8632
雋	-11.8632
柔進而上行	-11.8632
輔氏廣曰	-11.8632
季孫意如	-11.8633
坎艮	-11.8634
之甚者	-11.864
未畢	-11.8641
者皆是	-11.8641
史記作	-11.8642
甸師	-11.8643
方城	-11.8645
箾	-11.8646
姜姓	-11.8648
鷩冕	-11.8648
縣鄙	-11.8649
晉獻公	-11.8653
之讎	-11.8655
所以次	-11.8657
諸侯之國	-11.866
宗廟之祭	-11.866
販	-11.8661
蕨	-11.8661
善政	-11.8665
殤公	-11.8665
其咎	-11.8666
滕薛	-11.8666
麋鹿	-11.867
居室	-11.8671
邕	-11.8673
哿	-11.8676
楛	-11.8676
雷霆	-11.8678
凡祭	-11.868
之所及	-11.8682
征夫	-11.8685
呉人	-11.8685
睡	-11.8691
滅陳	-11.8691
又東逕	-11.8691
隸釋云	-11.8692
剛正	-11.8696
倍律	-11.8697
將幣	-11.8698
五百人	-11.8701
所由生	-11.8703
薛氏曰	-11.8704
闌	-11.8705
墊	-11.8705
子赤	-11.8706
中牟	-11.8707
喪主	-11.8708
先王之道	-11.8708
在我者	-11.8713
矣是故	-11.872
簾	-11.872
螢	-11.872
瞽矇	-11.8721
袁僑	-11.8721
不正其	-11.8724
未光	-11.8725
▁述曰	-11.8731
勇力	-11.8734
宰周公	-11.8735
弗聽	-11.8735
予惟	-11.8736
啖氏曰	-11.8739
今増	-11.8739
上面	-11.8742
得其中	-11.8744
娶于	-11.8744
謹案	-11.8744
江黄	-11.8745
也春秋傳曰	-11.8747
何患	-11.8749
評	-11.875
夾谷	-11.875
迎牲	-11.875
防閑	-11.8754
嗟乎	-11.8757
葛帶	-11.8759
不能保	-11.8761
崔子	-11.8763
楚詞	-11.8764
臡	-11.8765
壷	-11.8765
琬	-11.8765
九歌	-11.8765
▁蒙謂	-11.8767
之源	-11.8768
章首	-11.8769
首惡	-11.8771
坡	-11.8771
境内	-11.8771
功衰	-11.8771
四海之内	-11.8771
子臧	-11.8774
葉氏曰	-11.8777
非其位	-11.8778
諜	-11.878
憬	-11.878
雊	-11.878
拜手稽首	-11.878
子夏曰	-11.8781
也左氏曰	-11.8783
故先言	-11.8783
自見矣	-11.8783
得其宜	-11.8792
申明	-11.8794
相如賦	-11.8794
栖	-11.8795
栝	-11.8795
貙	-11.8795
駉	-11.8795
殻	-11.8795
順時	-11.8795
瞽宗	-11.8796
郷射	-11.8797
春秋之世	-11.8798
無明文	-11.8799
舉奠	-11.8804
通達	-11.8806
本義云	-11.8806
諸篇	-11.8807
琳	-11.881
西漢	-11.8811
在郊	-11.8813
長久	-11.8813
郊外	-11.8814
國語曰	-11.8816
伐鼓	-11.8818
衆介	-11.8818
河曲	-11.8822
時雨	-11.8825
湊	-11.8825
隩	-11.8825
寰宇記	-11.8825
柰	-11.8825
商臣	-11.8827
豈惟	-11.8827
貞吉悔亡	-11.8829
常存	-11.883
親近	-11.8831
義理之	-11.8832
云云者	-11.8835
父死	-11.8835
無算	-11.8836
犬馬	-11.8839
朶	-11.8839
椑	-11.884
三百八十四爻	-11.884
蓺	-11.884
拳拳	-11.884
夫婦之道	-11.884
五里	-11.8841
十篇	-11.8843
切韻㑹	-11.8845
周衰	-11.8846
感通	-11.8847
昊天上帝	-11.8848
於中國	-11.8848
自此始	-11.8849
賔降	-11.8851
也从水	-11.8851
纁裳	-11.8852
年月	-11.8852
聾	-11.8855
禺	-11.8855
售	-11.8855
臬	-11.8855
謫	-11.8855
自此以下	-11.8858
臨川	-11.8859
逹於	-11.8862
地震	-11.8863
子某	-11.8866
十有四	-11.8867
堆	-11.887
柢	-11.887
腦	-11.887
祛	-11.887
詩緝	-11.8871
史二人	-11.8877
不與盟	-11.8878
爻位	-11.8882
載書	-11.8882
尹氏曰	-11.8882
乾剛	-11.8883
尊長	-11.8883
不妨	-11.8884
烟	-11.8885
戛	-11.8885
灂	-11.8885
鶬	-11.8885
㔻	-11.8885
世叔	-11.8886
上辛	-11.8888
大㫖	-11.8891
韻增入	-11.8894
乃旦	-11.8895
良人	-11.8897
振振	-11.89
俛伏興	-11.89
嶓冢	-11.89
刃切	-11.8901
賓降	-11.8901
衰裳	-11.8902
已定	-11.8904
醢人	-11.8905
文勢	-11.8906
應乎天	-11.8906
於人者	-11.8906
六宫	-11.8907
爵命	-11.891
宋之盟	-11.8912
五千	-11.8914
翿	-11.8915
鼉	-11.8915
爐	-11.8915
濼	-11.8915
喪服小記	-11.8916
卦之下	-11.8921
萬物之情	-11.8922
範圍	-11.8925
報怨	-11.8929
常山	-11.8929
名又姓	-11.8929
既練	-11.8929
䏻	-11.893
㕘	-11.893
羃	-11.893
何以言	-11.8932
即戎	-11.8937
八八	-11.8938
遥反	-11.8939
亦不必	-11.894
能如此	-11.894
而不顧	-11.8942
聖門	-11.8944
愴	-11.8945
淨	-11.8945
紡	-11.8945
河陽	-11.8947
刀反	-11.8948
扶持	-11.8952
異物	-11.8959
之總名	-11.896
葆	-11.8961
稌	-11.8961
禚	-11.8961
陳氏大猷曰	-11.8961
命有司	-11.8962
盡其道	-11.8967
我聞	-11.897
出奔齊	-11.8971
大辰	-11.8973
還歸	-11.8974
不可亂	-11.8975
裝	-11.8976
柷敔	-11.8976
若干	-11.8977
㽔	-11.8978
安得有	-11.8982
渙散	-11.8987
令聞	-11.8989
往来	-11.8989
鏗	-11.8991
島	-11.8991
廟見	-11.8992
不熟	-11.8993
張衡	-11.8994
遣奠	-11.8995
豈弟	-11.8999
膳羞	-11.9
有司徹	-11.9001
濟隂	-11.9003
丈反	-11.9006
凋	-11.9006
㬥	-11.9006
餱	-11.9006
陳氏祥道曰	-11.9006
葛覃	-11.9009
▁經部	-11.9009
蹇難	-11.901
正義曰此一節	-11.9011
切並音	-11.9011
無有不	-11.9014
▁竊案	-11.9017
喜樂	-11.9019
曰嗚呼	-11.9021
侯伯之	-11.9023
好禮	-11.9025
顔氏	-11.9026
天之道也	-11.9026
貌詩	-11.9026
以人事	-11.9027
古文尚書	-11.9028
不屑	-11.9029
調和	-11.9032
至扵	-11.9032
母死	-11.9033
正嵗	-11.9036
㮚	-11.9037
无功	-11.904
自下而上	-11.904
節制	-11.9041
不可大事	-11.9045
縣東南有	-11.9048
太𤣥	-11.9048
以是知	-11.9049
不得志	-11.9051
髙位	-11.9051
十徽	-11.9051
師敗	-11.9052
銓	-11.9052
扄	-11.9052
好仁	-11.9053
地利	-11.9055
見於外	-11.9055
養氣	-11.9056
深入	-11.9059
故特書	-11.906
天下之心	-11.906
子産曰	-11.9065
士妻	-11.9065
杙	-11.9068
宕	-11.9068
泊	-11.9068
莱	-11.9068
孫士毅	-11.9068
受封	-11.9069
勇反	-11.9069
兩節	-11.907
圭瓚	-11.9071
臣鍇	-11.9071
黍離	-11.9071
均平	-11.9075
雖不當位	-11.9075
未絶	-11.9076
九徳	-11.9077
十有三	-11.9081
浪反	-11.9083
玦	-11.9083
罩	-11.9083
為于偽反	-11.9083
交接	-11.9086
輔氏	-11.9086
濟河	-11.909
武夫	-11.9092
采采	-11.9096
知道	-11.9097
遼東	-11.9097
父命	-11.9098
姓氏	-11.9098
▁總纂官	-11.9098
字不同	-11.9099
西南面	-11.9102
行皃	-11.9103
夏后氏之	-11.9103
包犧	-11.9104
初與四	-11.9107
僖二十八年	-11.9109
除之得	-11.911
而不自知	-11.9111
非真	-11.9112
蜎	-11.9114
夤	-11.9114
擘	-11.9114
紗	-11.9114
或失	-11.9114
舟楫	-11.9115
不稱使	-11.9116
大衍厯	-11.9116
齊襄	-11.9119
之國也	-11.9121
賈人	-11.9122
借用	-11.9123
恰	-11.9125
猛獸	-11.9125
則為之	-11.9127
淒	-11.9129
摽	-11.9129
仡	-11.9129
紀昀	-11.9129
韎韐	-11.9129
淮泗	-11.9131
豈徒	-11.9138
戎事	-11.9139
監本誤	-11.9139
朔月	-11.9145
癸卯	-11.9146
齊崔杼	-11.9148
殺公子	-11.9148
之樂歌	-11.9148
尚質	-11.9149
厥明	-11.9154
習射	-11.9157
天下諸侯	-11.9158
任賢	-11.9158
捉	-11.916
眠	-11.916
囬	-11.916
弣	-11.916
田祖	-11.9163
蚩尤	-11.9163
官之屬	-11.9164
首服	-11.9165
少進	-11.9173
素裳	-11.9174
孥	-11.9176
𤨏	-11.9176
忌日	-11.9176
傷人	-11.9177
為令尹	-11.9177
滎澤	-11.9183
自責	-11.9184
十有八	-11.9187
君奭	-11.9188
從父昆弟	-11.9191
商民	-11.9191
圯	-11.9191
氾	-11.9191
卋	-11.9191
朝天子	-11.9196
海内	-11.9197
權臣	-11.92
東宫	-11.9201
所造	-11.9201
陸錫熊	-11.9207
州牧	-11.921
史臣	-11.9216
倉庚	-11.9217
泮宫	-11.9217
參伍	-11.9218
噍	-11.9223
綪	-11.9223
腸胃	-11.9223
哀戚	-11.9224
肵俎	-11.9224
戈兵	-11.9227
正字通俗	-11.9231
必亡	-11.9233
鳥鼠	-11.9234
之驗	-11.9234
得尊位	-11.9237
伐戎	-11.9237
四鄰	-11.9238
杓	-11.9238
擭	-11.9238
褥	-11.9238
支離	-11.9239
見賢遍反	-11.9239
象辭	-11.924
侍坐	-11.924
君之所	-11.9241
階間	-11.9243
尺寸	-11.9245
而名之	-11.9245
也从手	-11.925
文德	-11.9253
茇	-11.9254
蛟	-11.9254
笲	-11.9254
頎	-11.9254
異國	-11.9254
古法	-11.9256
奕奕	-11.9257
共姬	-11.9257
一身之	-11.9262
府庫	-11.9263
有先後	-11.9264
楊墨	-11.9267
𤣥纁	-11.9268
蝸	-11.927
膋	-11.927
季康子	-11.9271
只得	-11.9272
亂賊	-11.9272
聲廣韻	-11.9272
世變	-11.9275
陽厭	-11.9275
多懼	-11.9276
侵楚	-11.9276
嚴陵方氏曰	-11.9277
素冠	-11.9278
公伐邾	-11.9278
各掌其	-11.928
襄十	-11.9281
豈容	-11.9281
太玄	-11.9284
鄔	-11.9285
豁	-11.9285
酆	-11.9285
暖	-11.9285
簜	-11.9285
薁	-11.9285
師曠	-11.9287
祀典	-11.9289
玄端	-11.9291
尹子	-11.9292
師尹	-11.9292
學禮	-11.9294
九功	-11.9296
安府	-11.9299
藐	-11.9301
下垂	-11.9302
只就	-11.9302
劬勞	-11.9303
厥後	-11.9305
馬牛	-11.9306
六轡	-11.9306
半律	-11.9308
衛國	-11.9309
孔疏云	-11.9312
黑色	-11.9314
不曽	-11.9315
柝	-11.9316
畦	-11.9317
胳	-11.9317
查	-11.9317
燼	-11.9317
汪氏克寛曰	-11.9317
弑君之賊	-11.932
公㑹齊侯于	-11.9322
不悖	-11.9324
也从糸	-11.9328
伐柯	-11.9332
拍	-11.9333
麃	-11.9333
闥	-11.9333
囷	-11.9333
曁	-11.9333
膽	-11.9333
帝乙歸妹	-11.9334
王子朝	-11.9338
黄鐘之	-11.9339
遷主	-11.934
訓詁	-11.9342
故知此	-11.9343
上中下	-11.9343
壺口	-11.9343
張本	-11.9344
成德	-11.9347
綆	-11.9348
薊	-11.9348
損下益上	-11.9348
教誨	-11.9349
黼黻	-11.9349
中士四人	-11.935
轉移	-11.9352
荆蠻	-11.9352
布席	-11.9354
屋漏	-11.9356
乱	-11.9364
搔	-11.9364
凛	-11.9364
磋	-11.9364
賈公彦	-11.9364
渭水	-11.9364
武王克商	-11.9366
范宣子	-11.9367
本原	-11.9368
所恃	-11.9368
俯仰	-11.9368
工商	-11.937
率性	-11.9372
碑隂	-11.9373
獲吉	-11.9375
鍭	-11.938
朋黨	-11.9381
郊野	-11.9381
定姒	-11.9381
須臾	-11.9383
建立	-11.9384
陟彼	-11.9387
大呂	-11.939
無所不至	-11.9394
朐	-11.9396
瘦	-11.9396
琫	-11.9396
嗛	-11.9396
熊羆	-11.9396
叶韻	-11.94
公及齊侯	-11.9403
拂經	-11.9403
禹稷	-11.941
万	-11.9412
涗	-11.9412
麄	-11.9412
人徒二十人	-11.9415
唐棣	-11.9419
降福	-11.9419
而無禮	-11.9419
既𦵏	-11.9419
不振	-11.942
二丈	-11.9421
十二章	-11.9425
觥	-11.9427
殪	-11.9428
一百四十	-11.9428
宗國	-11.9435
容止	-11.9438
敢告	-11.9443
元帝	-11.9444
大音泰	-11.9445
邦國都鄙	-11.9446
之輕重	-11.9449
西階下	-11.9449
髙平	-11.9452
00	-11.9454
咥人	-11.9454
食邑	-11.9457
奄有	-11.9458
致死	-11.9459
惜乎	-11.9459
脢	-11.946
摭	-11.946
通天下之志	-11.946
寂然不動	-11.9461
卦氣	-11.9462
芮伯	-11.9463
拜稽顙	-11.9465
郷飲酒	-11.9465
在下位	-11.9466
鎮圭	-11.9469
嶧	-11.9476
届	-11.9476
千三百	-11.9479
不出於	-11.9481
一偏	-11.9481
親疏	-11.9482
側室	-11.9482
五品	-11.9482
享先王	-11.9485
稜	-11.9492
坎體	-11.9493
曹氏曰	-11.9493
天地之化	-11.9494
知其非	-11.9494
孤卿大夫	-11.9494
底意思	-11.9495
宛丘	-11.9496
配合	-11.9498
竭力	-11.9499
同姓之	-11.9499
玉幣	-11.9503
仁宗	-11.9504
戒占者	-11.9507
森	-11.9508
稂	-11.9508
儕	-11.9508
箎	-11.9508
▁無垢曰	-11.9508
吕音訓	-11.9508
相隨	-11.9508
宗社	-11.9508
末年	-11.9514
寸半	-11.9514
楚殺其大夫	-11.9515
息亮	-11.9518
雅樂	-11.9519
沴	-11.9524
豵	-11.9524
▁坡謂	-11.9526
罪惡	-11.9528
吕切	-11.9529
之本意	-11.9531
舉足	-11.954
廾	-11.954
殞	-11.954
袵	-11.954
柏舟	-11.9543
素絲	-11.9545
君之子	-11.9547
經意	-11.9549
卦之主	-11.9549
百三十	-11.955
七里	-11.955
疆理	-11.9556
瑚	-11.9556
丰	-11.9556
霑	-11.9556
生魄	-11.9556
廬江	-11.9557
震震	-11.9558
切集韻韻會	-11.9559
髙厚	-11.956
苟且	-11.956
少昊	-11.9563
康成曰	-11.9564
置閏	-11.9564
比年	-11.9565
廢疾	-11.9568
呂氏曰	-11.957
大畧	-11.957
按説文	-11.9571
犯難	-11.9571
輮	-11.9572
*	-11.9572
▁存疑鄭氏康成曰	-11.9572
桓二年	-11.9573
少康	-11.9573
韓子	-11.9576
熊耳	-11.9581
少南	-11.9585
士縠	-11.9585
掊	-11.9588
薫	-11.9588
人之善	-11.9589
畏懼	-11.959
不亦可乎	-11.9593
知其不可	-11.9595
革命	-11.9595
中吕	-11.9599
者則以	-11.96
篆文	-11.9603
簡子	-11.9604
瞭	-11.9604
兀	-11.9604
詖	-11.9605
袗	-11.9605
渇	-11.9605
毛本誤	-11.9605
中正之道	-11.9606
戰國䇿	-11.9607
告之曰	-11.9608
弓弩	-11.9608
孔子弟子	-11.9609
十畝	-11.9609
小事吉	-11.9609
與之言	-11.9612
服齊衰	-11.9621
瑜	-11.9621
稀	-11.9621
鷁	-11.9621
濰	-11.9621
趯	-11.9621
𣣔	-11.9621
欒黶	-11.9621
而不改	-11.9621
棺椁	-11.9624
保民	-11.9624
秩秩	-11.9625
天地人	-11.9627
下三爻	-11.9631
推原	-11.9633
慎獨	-11.9635
羽毛	-11.9636
陽貨	-11.9636
在兹	-11.9637
蜉蝣	-11.964
革路	-11.964
聦明	-11.9643
歴年	-11.9645
西傾	-11.9648
尺八寸	-11.9648
户牖	-11.9648
瑁	-11.9653
冓	-11.9653
受天命	-11.9654
髙固	-11.9656
循理	-11.9656
闔廬	-11.9658
左還	-11.9661
不克訟	-11.9663
勞心	-11.9664
出奔陳	-11.9665
父子君臣	-11.9665
未有能	-11.9666
自得之	-11.9672
周礼	-11.9675
盥手	-11.9675
有大功	-11.9676
不能勝	-11.9678
占得	-11.968
定制	-11.9683
葛屨	-11.9683
聽政	-11.9684
聖徳	-11.9684
脡	-11.9686
刄	-11.9686
辟雍	-11.9686
毛傳曰	-11.9687
廵狩	-11.9688
四十一	-11.969
通鑑	-11.9691
既夕	-11.9692
附麗	-11.9693
車右	-11.9694
牛羊豕	-11.9694
有如此者	-11.9695
全卦	-11.97
11.	-11.9701
忍反	-11.9702
啜	-11.9702
袤	-11.9702
熄	-11.9702
鳯凰	-11.9702
與平聲	-11.9703
棗栗	-11.9706
壽考	-11.9706
朗切	-11.9708
傾覆	-11.9709
降洗	-11.971
不得入	-11.971
得其道	-11.9711
閨	-11.9712
恒山	-11.9715
十有三年春	-11.9715
恒久	-11.9715
築臺	-11.9715
伯叔	-11.9715
土圭	-11.9715
見易曰	-11.9718
羊舌	-11.9719
雌雄	-11.972
媵爵	-11.9721
於神明	-11.9723
營室	-11.9723
西北隅	-11.9723
周禮地官	-11.9727
有之矣	-11.9729
其動也	-11.973
江河	-11.9731
某甫	-11.9731
宋襄公	-11.9733
㳟	-11.9735
栩	-11.9735
梯	-11.9735
易之為書	-11.9737
諸侯伐鄭	-11.9738
北辰	-11.9739
五服之	-11.974
目前	-11.9743
季孫斯	-11.9743
五霸	-11.9745
成萬物	-11.9746
未幾	-11.9747
盟于扈	-11.9748
鷩	-11.9749
泌	-11.9752
軓	-11.9752
夀考	-11.9753
牛角	-11.9756
良夫	-11.9757
凶咎	-11.9758
吉禘	-11.9758
一歳	-11.9758
祖乙	-11.9759
展衣	-11.9759
兩箇	-11.9761
之殤	-11.9763
不在於	-11.9763
大夫妻	-11.9764
内侍	-11.9764
陽動	-11.9764
王曰嗚呼	-11.9765
鬼方	-11.9767
育萬物	-11.9767
釋例曰	-11.9768
从虫	-11.9768
冏	-11.9768
孌	-11.9768
肢	-11.9768
蘄	-11.9768
覜	-11.9768
鄶	-11.9768
霖	-11.9768
何以能	-11.977
萬九千	-11.9773
執燭	-11.9776
不愆	-11.9777
聦	-11.9779
服䖍云	-11.9781
坊記	-11.9781
黿	-11.9785
羣神	-11.9785
絺綌	-11.9785
辛夘	-11.9786
小人之道	-11.9792
齊宣王	-11.9792
無忌	-11.9797
菏	-11.9798
士昏禮	-11.9798
率循	-11.9799
亦孔之	-11.9799
菹醢	-11.98
棫	-11.9801
岑	-11.9801
蠭	-11.9801
讞	-11.9801
孜孜	-11.9801
外宗	-11.9801
降席	-11.9801
洽切	-11.9805
永終	-11.9808
黄河	-11.9808
隋書	-11.9812
淇水	-11.9812
汧	-11.9818
琚	-11.9818
庀	-11.9818
嫡子	-11.9818
終則有始	-11.9818
正義云	-11.9819
入淮	-11.982
盈虚	-11.9822
藉田	-11.9822
親盡	-11.9823
服大功	-11.9824
健順	-11.9826
燕饗	-11.9827
凱風	-11.9828
掌教	-11.9829
豈獨	-11.9829
產	-11.9832
雲雷	-11.9832
彳	-11.9834
岍	-11.9834
自我西郊	-11.9835
不拘	-11.9835
裏面	-11.9835
首飾	-11.9836
王及后	-11.9838
无私	-11.9838
黄帝堯舜	-11.9841
岐周	-11.9841
盧氏	-11.9844
㫖酒	-11.9846
東西面	-11.9847
戒慎	-11.985
箙	-11.9851
纘	-11.9851
仲康	-11.9853
莫重於	-11.9854
下記云	-11.9854
第十一	-11.9857
赤舄	-11.9858
紙韻	-11.9859
大羮	-11.986
方岳	-11.9861
博厚	-11.9861
韓起	-11.9862
不書即位	-11.9865
以行其	-11.9865
取妻	-11.9867
婼	-11.9867
終身不	-11.9867
螻	-11.9867
岌	-11.9867
筲	-11.9867
樂正子	-11.9868
徐邈	-11.9868
以理言	-11.9871
▁右記	-11.9872
羽籥	-11.9872
討罪	-11.9872
二尺二寸	-11.9875
不答	-11.9878
正脊	-11.9879
流通	-11.9884
釈	-11.9884
菜名	-11.9885
濟天下	-11.9888
過不及	-11.989
息民	-11.989
户外	-11.989
只管	-11.9899
執曹伯	-11.99
以是而	-11.99
柲	-11.9901
堰	-11.9901
敬以直内	-11.9901
惻怛	-11.9901
民莫不	-11.9902
河圗	-11.9902
聲之誤也	-11.9902
釋名曰	-11.9903
湛露	-11.9905
遷尸	-11.9906
聞喪	-11.9908
市朝	-11.9909
無正文	-11.9912
繆公	-11.9913
辭讓	-11.9914
薑	-11.9917
百僚	-11.9918
山林川澤	-11.9918
孔安國曰	-11.9919
十有一	-11.992
巷伯	-11.9927
每事	-11.9927
尊嚴	-11.9934
网	-11.9934
醯醢	-11.9936
鼓鐘	-11.9936
逸樂	-11.9942
王后之	-11.9942
有所往	-11.9946
有功於	-11.9946
典命	-11.9947
吳氏曰	-11.9948
尖	-11.9951
埶	-11.9951
坻	-11.9951
聮	-11.9951
皆放此	-11.9952
尸酢	-11.9953
侵曹	-11.9956
成均	-11.9959
交孚	-11.996
方十里	-11.996
禮記云	-11.996
請期	-11.9967
司馬遷	-11.9967
梨	-11.9968
鍰	-11.9968
亢龍有悔	-11.9968
優劣	-11.997
臧氏	-11.9971
枯楊	-11.9974
文集	-11.9974
丁丈	-11.9974
無過不及	-11.9974
咸池	-11.9976
救徐	-11.9977
長六寸	-11.9979
▁楊曰	-11.9981
好貌	-11.9982
噲	-11.9985
楔	-11.9985
鄀	-11.9985
逄	-11.9985
緅	-11.9985
方百里者	-11.9985
珠玉	-11.9986
色白	-11.9988
早晚	-11.999
車輪	-11.9992
坤土	-11.9994
唐孔氏	-11.9995
尸侑	-11.9997
秦誓	-11.9997
免牲	-11.9997
視學	-11.9999
雎	-11.9999
救齊	-12
深淺	-12.0001
蒺藜	-12.0002
鄕	-12.0002
俾爾	-12.0003
路史	-12.0003
䟽云	-12.0004
右个	-12.0006
逺害	-12.0007
到得	-12.0009
長沙	-12.0016
广	-12.0018
梵	-12.0018
饜	-12.0018
赳	-12.0019
床	-12.0019
齊世子光	-12.0019
兢兢	-12.0019
聖經	-12.0025
各不同	-12.0025
笙磬	-12.0027
誠能	-12.0029
漢唐	-12.0031
十有九年	-12.0031
西東面	-12.0031
播種	-12.0032
歎息	-12.0033
肵	-12.0034
鄭司農曰	-12.0035
􁂅	-12.0035
櫬	-12.0035
難易	-12.0036
▁提要	-12.0037
董氏曰	-12.0038
溝瀆	-12.004
負芻	-12.0043
分曉	-12.0045
不悟	-12.0046
伐鬼方	-12.0047
樂府	-12.0048
財物	-12.0049
虞舜	-12.005
譌從	-12.0051
筩	-12.0052
轢	-12.0052
飧	-12.0052
沂水	-12.0055
昆弟之子	-12.0056
邳	-12.0057
篇末	-12.0057
動動	-12.0057
君臣同	-12.0061
楚子伐鄭	-12.0062
禹治水	-12.0062
來媵	-12.0062
釋名云	-12.0063
叔牙	-12.0066
下棺	-12.0066
應劭曰	-12.0069
秫	-12.0069
顓臾	-12.0069
候人	-12.007
由是觀之	-12.0073
違道	-12.0074
九貢	-12.0075
折衷	-12.0075
私心	-12.0077
經界	-12.0078
儼然	-12.0079
文王受命	-12.008
歐陽氏曰	-12.0081
往㑹	-12.0083
費誓	-12.0086
簴	-12.0086
莢	-12.0086
沁	-12.0086
淅	-12.0086
珽	-12.0086
陞	-12.0086
繶	-12.0086
酺	-12.0086
淮水	-12.0087
廬陵李氏曰	-12.0087
可羞	-12.0089
今文作	-12.009
貨殖	-12.009
黄鍾為	-12.009
羅氏	-12.0093
先蔑	-12.0094
故書曰	-12.0095
二十八宿	-12.0095
曷為不言	-12.0097
哀矜	-12.0097
蕤賓	-12.0098
憂思	-12.0101
晉殺其大夫	-12.0101
果能	-12.0101
攝政	-12.0102
菊	-12.0103
阱	-12.0103
则	-12.0103
▁乾學案	-12.0103
幹父之蠱	-12.0103
惻隱	-12.0107
夜半	-12.0109
艮體	-12.011
屯難	-12.0111
獻功	-12.0115
王庭	-12.0118
貴貴	-12.0118
叫	-12.012
仲孫何忌	-12.012
▁武夷胡氏傳	-12.012
韭菹	-12.0126
殺身	-12.0126
邾子來朝	-12.0129
改葬	-12.0133
丹陽	-12.0135
左執爵	-12.0136
襟	-12.0138
或躍在淵	-12.0138
雲行雨施	-12.0138
聚斂	-12.0138
何以知其	-12.0139
不敏	-12.0139
惻隠	-12.0141
以剛居柔	-12.0141
器械	-12.0145
國之大夫	-12.0146
吳師	-12.0148
絲衣	-12.0149
徳業	-12.0149
維何	-12.015
肉袒	-12.015
巽巽	-12.015
▁范曰	-12.0154
篴	-12.0155
臨川吳氏曰	-12.0155
君臣之分	-12.0161
江夏	-12.0163
秭	-12.0172
南軒張氏曰	-12.0172
公羊以為	-12.0174
士庶子	-12.0175
行其志	-12.0175
切木名	-12.0177
羊俎	-12.0178
勸勉	-12.0179
建寅	-12.0179
以馭其	-12.018
鄭箋云	-12.0182
戰勝	-12.0187
掌王之	-12.0188
元后	-12.0188
定陶	-12.0188
棃	-12.0189
冽	-12.0189
厖	-12.0189
鄴	-12.0189
陸氏佃曰	-12.0189
不能制	-12.0189
六十里	-12.019
招魂	-12.0194
也不曰	-12.0194
䇿書	-12.0195
過揲	-12.0196
父祖	-12.0199
瞻彼	-12.0199
▁李曰	-12.0199
好勇	-12.0205
昜	-12.0206
瘧	-12.0206
淖	-12.0206
所以待	-12.0209
悼子	-12.0211
光禄	-12.0212
叔肸	-12.0212
建丑	-12.0213
歸咎	-12.0213
言采其	-12.0215
宿衛	-12.0218
能如是	-12.0219
釋按	-12.0219
臣某	-12.0222
杜預云	-12.0222
只説	-12.0223
鑽	-12.0223
邿	-12.0223
切易林	-12.0224
失政	-12.0226
示之以	-12.0226
失其正	-12.0228
馴致	-12.023
教令	-12.0234
大蒐	-12.0238
翊	-12.024
鴛鴦	-12.0241
塋	-12.0241
山甫	-12.0242
萃聚	-12.025
吉凶生	-12.0252
祖奠	-12.0254
萎	-12.0258
檿	-12.0258
嗃嗃	-12.0258
擇善	-12.0259
立社	-12.0261
不家食	-12.0263
千四百	-12.0266
春秋左傳	-12.0268
東壁	-12.0269
徒役	-12.027
象路	-12.0271
文采	-12.0272
徵舒	-12.0275
伴	-12.0275
軋	-12.0275
旺	-12.0275
懟	-12.0275
悞	-12.0275
汶水	-12.0283
祔廟	-12.0285
編鐘	-12.0289
𧖟	-12.0293
萹	-12.0293
勦	-12.0293
愛親	-12.0293
之情狀	-12.0298
歌鹿鳴	-12.0299
即上文	-12.0303
齊人宋人	-12.0306
田器	-12.0308
祭祀之禮	-12.0308
塘	-12.031
灉	-12.031
駐	-12.031
牧誓	-12.0311
筮日	-12.0311
釋草	-12.0315
燕寢	-12.0315
賜予	-12.0317
二王後	-12.0318
徃徃	-12.032
遷徙	-12.0323
差等	-12.0324
壟	-12.0328
憶	-12.0328
姥	-12.0328
孔子釋	-12.033
甚逺	-12.0332
爾雅釋詁	-12.0332
廬陵	-12.0334
合而言之	-12.0335
上合志	-12.0336
有爵者	-12.0338
不相悖	-12.0339
公食大夫禮	-12.0343
埸	-12.0344
滸	-12.0345
鵜	-12.0345
昩	-12.0345
盞	-12.0345
辞	-12.0345
答再拜	-12.0345
庻人	-12.0348
雝雝	-12.0348
東南流	-12.0348
求仁	-12.035
也為卦	-12.0352
司㓂	-12.0352
舊制	-12.0352
攴	-12.0355
五絃	-12.0356
奠幣	-12.036
狄泉	-12.036
夙興	-12.0362
佻	-12.0362
憸	-12.0362
纛	-12.0362
耋	-12.0363
以隂居陽	-12.0364
互巽	-12.0366
12.	-12.0368
艱貞	-12.0369
圜土	-12.0372
熊侯	-12.0373
邪僻	-12.0375
其本心	-12.0376
坐視	-12.0377
叱	-12.038
苽	-12.038
秸	-12.038
㝷	-12.038
此五者	-12.0382
將中軍	-12.0383
一件	-12.0383
休命	-12.0384
輝光	-12.0386
舊唐書	-12.0387
坑	-12.0397
跌	-12.0398
捋	-12.0398
蜜	-12.0398
邃	-12.0398
恫	-12.0398
昕	-12.0398
▁此一章書是	-12.0398
朱子語類	-12.0402
處險	-12.0403
先儒以為	-12.0407
濡尾	-12.0407
天下平	-12.0409
有二義	-12.041
十寸	-12.0412
三丈	-12.0412
蚳	-12.0415
佼	-12.0415
睆	-12.0415
摹	-12.0415
氛	-12.0415
犒	-12.0415
蜮	-12.0415
硬	-12.0415
汶陽之田	-12.0415
声臣鍇曰	-12.0416
災害	-12.0418
明明徳	-12.0418
吴氏	-12.0419
嗇夫	-12.0425
何害	-12.0425
拜稽首	-12.0426
親廟	-12.0427
士庶人	-12.0428
田里	-12.0431
簭	-12.0433
醓醢	-12.0433
享帝	-12.0433
伊訓	-12.0435
禍患	-12.0439
四十七	-12.0443
敖繼公曰	-12.0444
坤坤	-12.0447
魯莊公	-12.0449
濤	-12.0449
葷	-12.045
嘔	-12.045
挼	-12.045
酖	-12.045
匯	-12.045
通為一韻	-12.045
悲哀	-12.0451
遭喪	-12.0454
亳社	-12.0463
懾	-12.0468
下共有也字	-12.0468
古之君子	-12.0475
徐戎	-12.0476
墨子	-12.0476
陟降	-12.0485
㒵	-12.0485
鍛	-12.0486
咮	-12.0486
覊	-12.0486
杜氏預曰	-12.0486
孔門	-12.049
剛中正	-12.0491
苗民	-12.0491
植物	-12.0492
委任	-12.0493
稷契	-12.0495
閉塞	-12.0498
秦穆公	-12.0501
哺	-12.0503
鷂	-12.0503
軰	-12.0503
韔	-12.0503
采芑	-12.0506
貞吝	-12.0507
刺史	-12.0509
三百篇	-12.0511
公侯伯	-12.0511
皮帛	-12.0511
天地交	-12.0512
祖之廟	-12.0512
南河	-12.0513
按周禮	-12.0515
時邁	-12.0521
拓	-12.0521
此一經	-12.0522
不得其正	-12.0524
行葦	-12.0524
等謹案	-12.0526
犧尊	-12.0526
不稱公子	-12.0533
元永貞	-12.0536
雲門	-12.0538
螣	-12.0539
覘	-12.0539
删	-12.0539
如齊逆女	-12.0541
止息	-12.0541
飲福	-12.0541
爵位	-12.0542
變例	-12.0542
不可測	-12.0543
進賢	-12.0544
編磬	-12.0548
庶孫	-12.0549
品物	-12.055
本然之	-12.0555
扣	-12.0557
燄	-12.0557
鬚	-12.0557
北狄	-12.0557
感物	-12.0559
三之一	-12.0559
赤芾	-12.0561
少皥	-12.0563
定體	-12.0565
尋盟	-12.0566
燿	-12.0575
緻	-12.0575
嚭	-12.0575
壎	-12.0575
珩	-12.0575
一以貫之	-12.0575
彼其之子	-12.0576
左个	-12.0578
何也蓋	-12.0579
章四句	-12.0579
南呂	-12.058
敗宋師	-12.0587
堤	-12.0593
閫	-12.0593
軀	-12.0593
縦	-12.0593
周南召南	-12.0593
鴆反	-12.0598
拜送爵	-12.0602
固結	-12.0603
主人拜送	-12.0604
設洗	-12.0606
高氏曰	-12.0607
頓首	-12.0608
饒氏	-12.0608
慟	-12.0611
倬	-12.0611
祏	-12.0611
禄位	-12.0611
象魏	-12.0612
先覺	-12.0614
哲人	-12.0614
崇德	-12.0614
繹祭	-12.0614
私恩	-12.0615
救患	-12.0617
鶴鳴	-12.0618
水火相	-12.0627
蜻	-12.0628
晃	-12.0628
茸	-12.0628
贛	-12.0628
祖妣	-12.0629
馮河	-12.0631
城成周	-12.0632
祁祁	-12.0634
家室	-12.0635
求福	-12.0637
建安	-12.0637
文王之德	-12.0642
體之上	-12.0643
不失其正	-12.0645
疢	-12.0646
哀痛	-12.0649
應乎乾	-12.0653
三十日	-12.0653
攝位	-12.0655
受賜	-12.0657
逆祀	-12.0658
諸爻皆	-12.066
忠孝	-12.0663
於南郊	-12.0663
批	-12.0664
刷	-12.0664
酇	-12.0664
銍	-12.0664
鬄	-12.0664
食音嗣	-12.0666
附近	-12.0666
想見	-12.0668
汝墳	-12.0673
晉人宋人	-12.0674
猱	-12.0682
黯	-12.0682
湍	-12.0682
湮	-12.0683
宇宙	-12.0683
丨丨	-12.0683
漢魏	-12.0688
閒暇	-12.0688
尺六寸	-12.069
太伯	-12.069
艸木	-12.0694
蘿	-12.0694
長厯	-12.0695
臯門	-12.0695
曰敢問	-12.07
臠	-12.0701
踦	-12.0701
姨	-12.0701
帥師救	-12.0705
錯簡	-12.0713
輿尸	-12.0715
酤	-12.0719
㰱	-12.0719
西階東	-12.072
為父後者	-12.072
濡首	-12.0721
子貢問	-12.0721
公食大夫	-12.0723
水名出	-12.0724
又國名	-12.0731
等差	-12.0736
怖	-12.0737
虵	-12.0737
曀	-12.0737
開封府	-12.0737
怠惰	-12.0741
叔于田	-12.0742
伯子男	-12.0743
所當然	-12.0752
蠻荆	-12.0753
充滿	-12.0754
罵	-12.0755
綵	-12.0755
摻	-12.0755
藜	-12.0755
鷦	-12.0755
杳	-12.0755
蟠	-12.0755
燈	-12.0755
觱	-12.0755
諸侯來朝	-12.0757
晉悼公	-12.0758
並去聲	-12.0758
功德	-12.076
▁蕙田案此	-12.0763
百九十二	-12.0763
仲幾	-12.0763
五等諸侯	-12.0764
仇牧	-12.0767
潛龍	-12.0768
不書此何以書	-12.0769
傷害	-12.077
萬一千	-12.077
盡其心	-12.0771
上佐食	-12.0773
泳	-12.0773
抒	-12.0773
廋	-12.0773
娛	-12.0773
斨	-12.0773
吕祖謙	-12.0773
巍巍	-12.0773
詬	-12.0773
馵	-12.0773
之屬是也	-12.0775
子突	-12.0777
毳冕	-12.0781
酬賓	-12.0782
竒耦	-12.0783
有一毫	-12.0791
秠	-12.0791
者未之有也	-12.0792
安静	-12.0794
湯孫	-12.0798
舒鳩	-12.0804
蟲牢	-12.0806
讀祝	-12.0808
萋	-12.081
炤	-12.081
酗	-12.081
文王周公	-12.0811
涉大川	-12.0818
顔師古曰	-12.0818
靈龜	-12.082
餐	-12.0826
道而行	-12.0826
逾年	-12.0827
枳	-12.0828
爕	-12.0828
南軒曰	-12.0829
如常儀	-12.0829
利女貞	-12.0829
天之所以	-12.084
矇	-12.0846
捶	-12.0846
帀	-12.0846
漣	-12.0846
踣	-12.0846
朏	-12.0846
褫	-12.0846
十朋之龜	-12.0847
韻會正韻	-12.0847
不動心	-12.0847
卷十一	-12.0852
末世	-12.0852
古者諸侯	-12.0853
隂陽之氣	-12.0854
拜辱	-12.0855
嘉賓	-12.0856
魏晉	-12.0856
瓦器	-12.0857
潔白	-12.0859
牽合	-12.0863
琥	-12.0865
緹	-12.0865
陳祥道	-12.0865
劉敞	-12.0868
春秋之所	-12.087
除害	-12.087
語錄	-12.087
志在外	-12.087
以位言	-12.0878
祝祝	-12.0883
掾	-12.0883
王安石	-12.0884
霸業	-12.0885
裁成	-12.0887
崇髙	-12.0888
徐邈讀	-12.0888
荀寅	-12.0889
莫肯	-12.0889
東西南北	-12.089
堙	-12.0902
簨	-12.0902
苻	-12.0902
克己復禮	-12.0902
坎為水	-12.0907
索隠	-12.0908
三與上	-12.0912
子大叔	-12.0918
鏘	-12.092
襜	-12.092
酣	-12.092
訣	-12.092
龡	-12.092
鳳凰	-12.092
禘祭	-12.0924
利用獄	-12.0926
包荒	-12.0932
禮樂志	-12.0934
湯湯	-12.0936
與天地同	-12.0937
幘	-12.0939
筠	-12.0939
有孚攣如	-12.0939
聃	-12.0939
孔孟	-12.0945
喪冠	-12.0945
不驕	-12.0948
哀公問	-12.0951
風俗通云	-12.0952
貔	-12.0957
轘	-12.0957
妒	-12.0957
挍	-12.0957
月恭校上	-12.0957
拾取矢	-12.0959
司市	-12.0959
狄侵齊	-12.096
稽疑	-12.0963
成卦之主	-12.0967
盈滿	-12.0969
不窋	-12.0969
踖	-12.0976
町	-12.0976
徐鍇曰	-12.0976
府二人史	-12.0976
无所容	-12.0977
升自阼階	-12.0977
丗子	-12.0978
項羽	-12.0979
安靜	-12.098
誅賞	-12.098
下大夫二人	-12.0982
私家	-12.0985
下邳	-12.099
陽在上	-12.0993
▁禮志	-12.0993
犖	-12.0994
元和志	-12.0996
果蓏	-12.0996
切艸名	-12.0996
吳越	-12.0998
典籍	-12.1001
羞惡	-12.1002
嵗月	-12.1004
革帶	-12.1004
邾莒	-12.1007
千里之外	-12.1011
霜露	-12.1012
祈穀	-12.1013
喈喈	-12.1013
皇皇者華	-12.1013
宋板同	-12.1015
命於天子	-12.1015
嫁娶	-12.1019
配上帝	-12.1019
冬十有一月	-12.102
救宋	-12.1025
絞帶	-12.1026
先王制禮	-12.1028
非禮勿	-12.103
旁親	-12.103
帗	-12.1032
忡	-12.1032
案左氏	-12.1034
寸五分	-12.1042
聴命	-12.1044
繼祖	-12.1046
戴氏	-12.105
好賢	-12.105
董氏	-12.105
拚	-12.1051
瞢	-12.1051
鵰	-12.1051
匹夫匹婦	-12.1051
喟	-12.1051
强暴	-12.1052
險在前	-12.1053
上士二人	-12.1055
妙用	-12.1055
妻妾	-12.1063
抑揚	-12.1065
甘心	-12.1065
莫敢不	-12.1067
嵒	-12.1069
裸	-12.1069
嬰兒	-12.107
半寸	-12.1072
中士二人	-12.1073
跪奏	-12.1076
負侯	-12.1077
權輿	-12.1081
須要	-12.1081
易繫辭	-12.1081
品以上	-12.1082
伯業	-12.1083
養萬物	-12.1085
殷勤	-12.1087
螗	-12.1088
豶	-12.1088
韣	-12.1088
清音説文	-12.1088
筵前	-12.1089
半徑	-12.1089
諸樊	-12.1093
趙衰	-12.1094
夕惕	-12.1095
城楚丘	-12.1099
酒漿	-12.1101
憂勤	-12.1102
角弓	-12.1102
施舍	-12.1105
鍜	-12.1107
䰟	-12.1107
失其道	-12.111
中殤	-12.1113
雜亂	-12.1113
二十五里	-12.112
兩階	-12.1121
亦書作	-12.1123
八年春	-12.1124
覬	-12.1126
塈	-12.1126
溱洧	-12.1126
長八尺	-12.1126
大蔟	-12.1128
酒器	-12.1131
大姒	-12.1133
10.	-12.1134
十翼	-12.1135
特豚	-12.1135
貓	-12.1145
仲叔	-12.1146
行其道	-12.1149
倫理	-12.1157
最難	-12.1163
儔	-12.1164
缾	-12.1164
乾鑿度	-12.1164
一百六十	-12.1164
星紀	-12.1165
委貌	-12.1165
涇水	-12.1167
量力	-12.1169
饗燕	-12.1169
祖甲	-12.1172
羽翼	-12.1173
太姒	-12.1174
旣葬	-12.1175
一叚	-12.1176
各當其	-12.1178
母妻	-12.1178
父母兄弟	-12.1182
榜	-12.1183
輤	-12.1183
掎	-12.1183
紲	-12.1183
鋸	-12.1183
鴽	-12.1183
堕	-12.1183
儘	-12.1183
􁕔	-12.1183
鵙	-12.1183
本㫖	-12.1188
性命之理	-12.119
只是一箇	-12.1191
舊典	-12.1191
姑息	-12.1192
都尉	-12.1192
州刺史	-12.1193
一百五十	-12.1201
僨	-12.1202
徤	-12.1202
歜	-12.1202
鰌	-12.1202
餗	-12.1202
瑾	-12.1202
三章章六句	-12.1202
滙	-12.1202
哭盡哀	-12.1202
孝慈	-12.1203
以示人	-12.1204
配享	-12.1207
閽人	-12.1209
程朱	-12.1216
特舉	-12.1216
髲	-12.1221
鸇	-12.1221
諤	-12.1221
灃	-12.1221
鄅	-12.1221
終无尤也	-12.1221
乾隆四十	-12.1221
注孔曰	-12.1224
曷為不	-12.1225
孫炎	-12.1226
力役	-12.1234
女嫁	-12.1235
寰	-12.124
縟	-12.124
蹟	-12.124
各正性命	-12.124
四十有九	-12.1242
臯陶謨	-12.1243
阼階東	-12.1244
理之所	-12.1244
休美	-12.1247
葢取諸	-12.1248
克商	-12.1249
公至自伐	-12.125
釋曰案	-12.1252
苦菜	-12.1255
陳佗	-12.1257
反又如字	-12.1258
鄼	-12.1259
<	-12.1259
卷十二	-12.126
威嚴	-12.1263
並列	-12.1266
其義一也	-12.1271
鄭樵	-12.1271
服緦	-12.1277
辭洗	-12.1277
私情	-12.1277
攸往	-12.1278
嬌	-12.1278
蹊	-12.1278
賜爵	-12.128
公會晉侯	-12.1282
蔡仲	-12.1284
執戈	-12.1293
牝牛	-12.1294
何以異	-12.1297
齊姜	-12.1297
鴨	-12.1297
軟	-12.1297
茆	-12.1297
瀦	-12.1297
纉	-12.1297
湜	-12.1297
私邑	-12.1301
禱祠	-12.1304
冬十一月	-12.1304
魏絳	-12.1308
等級	-12.1311
文不具	-12.1311
鴻漸	-12.1312
隂陽和	-12.1312
無所容	-12.1316
貜	-12.1316
桎	-12.1316
廊	-12.1316
槱	-12.1316
誚	-12.1316
堲	-12.1316
軼	-12.1316
麽	-12.1316
韓詩外傳	-12.1317
秬黍	-12.1318
百步	-12.1321
神祗	-12.1324
閤門	-12.1328
亦州名	-12.1331
伐桀	-12.1333
醆	-12.1333
濟險	-12.1336
兵甲	-12.1337
赤紱	-12.134
孝悌	-12.1341
先軫	-12.1341
依舊	-12.1342
邦交	-12.1342
柏舉	-12.1346
而天下治	-12.1346
天地不交	-12.1346
小國之君	-12.1349
兩邊	-12.1349
釋獲	-12.1351
黃帝	-12.1352
未暇	-12.1354
柚	-12.1355
挐	-12.1355
潼	-12.1355
雲峰胡氏曰	-12.1355
烈烈	-12.1363
飄風	-12.1364
赧	-12.1374
擢	-12.1374
癉	-12.1374
坰	-12.1374
冺	-12.1374
㦲	-12.1374
滌濯	-12.1376
閉門	-12.1376
之善者	-12.1377
昧爽	-12.1378
樛木	-12.138
暴亂	-12.138
貌一曰	-12.138
禮曲禮	-12.1381
褘衣	-12.1382
詳審	-12.1383
降復位	-12.1386
圉人	-12.139
隂厭	-12.1391
絛	-12.1394
悽	-12.1394
师	-12.1394
劉氏敞曰	-12.1394
梧桐	-12.1395
趙簡子	-12.1395
條目	-12.14
▁愚曰	-12.1403
虞芮	-12.1405
蔡季	-12.1406
大射禮	-12.1408
榮辱	-12.1409
闕疑	-12.141
婆	-12.1413
鵝	-12.1413
汋	-12.1413
劌	-12.1413
陳氏澔曰	-12.1413
形勢	-12.1416
息浪	-12.1419
不匱	-12.1419
夏桀	-12.1422
慶府	-12.1422
安排	-12.1423
凡二十	-12.1432
幠	-12.1433
諮	-12.1433
愬愬	-12.1433
萑葦	-12.1434
樊纓	-12.1436
大閱	-12.1437
禦冦	-12.1439
旻天	-12.1442
故戒以	-12.1445
湖廣	-12.1446
扶又反	-12.1448
盟詛	-12.145
稗	-12.1452
栲	-12.1452
羇	-12.1452
▁朱氏附録	-12.1452
敗狄于	-12.1452
河南府	-12.1453
雷動	-12.1457
漳水	-12.1457
下士四人	-12.146
義又見	-12.1464
府史	-12.1466
小有言	-12.1466
南蠻	-12.1467
舞大武	-12.1468
陸璣云	-12.147
呵	-12.1472
炰	-12.1472
虒	-12.1472
荐	-12.1472
袞	-12.1472
茭	-12.1472
損上益下	-12.1472
鄬	-12.1472
李鼎祚	-12.1472
緜緜	-12.1472
松柏	-12.1473
七八九六	-12.1474
玉磬	-12.1474
兄弟之子	-12.1475
仇讎	-12.1476
韻㑹正韻	-12.1479
類聚	-12.1485
畫八卦	-12.149
饘	-12.1491
卩	-12.1491
瞞	-12.1491
塲	-12.1491
聒	-12.1491
師傅	-12.1493
唐韻集韻韻㑹正韻	-12.1493
城虎牢	-12.1494
符節	-12.1494
舉肺	-12.1497
艮為山	-12.1497
救衛	-12.1501
房户	-12.1502
語錄曰	-12.1502
治獄	-12.1504
龍旂	-12.151
蹋	-12.1511
芘	-12.1511
耇	-12.1511
天下有道	-12.1511
兕觥	-12.1511
士䘮禮	-12.1512
力不足	-12.1515
磐桓	-12.1515
可不謹	-12.1516
震驚	-12.1517
載馳	-12.152
祔祭	-12.1523
陀	-12.153
袷	-12.153
犁	-12.153
蜋	-12.153
侯甸男	-12.1531
="33"/>	-12.1531
嵗星	-12.1535
晦朔	-12.1536
複姓	-12.1536
幹蠱	-12.1543
夭夭	-12.1543
孳	-12.155
鞍	-12.155
訐	-12.155
諉	-12.155
穽	-12.155
馳驅	-12.1555
不外乎	-12.1559
創業	-12.1562
琅	-12.1568
道不行	-12.1569
瀰	-12.157
皂	-12.157
䑓	-12.157
鱮	-12.157
不足信	-12.1571
列女傳	-12.1572
不獲其身	-12.1574
楚公子貞	-12.1579
笭	-12.159
驥	-12.159
抉	-12.159
昇	-12.159
形象	-12.159
昆夷	-12.159
江陵	-12.1595
襃貶	-12.1596
卽位	-12.1601
司裘	-12.1603
戒成王	-12.1607
水潦	-12.1607
歃	-12.1608
陸佃	-12.1609
兠	-12.1609
号	-12.1609
鼛	-12.1609
䷊	-12.1609
徐鉉曰	-12.1609
綱目	-12.1611
狡童	-12.1612
冬十二月	-12.1613
自上而下	-12.1614
殺戮	-12.1614
錦衣	-12.1626
蟊	-12.1628
膏澤	-12.1628
厂	-12.1629
罅	-12.1629
▁五禮通考卷	-12.1629
勿用取女	-12.1629
義以方外	-12.1629
皃从	-12.1631
齊桓晉文	-12.1632
孔達	-12.1636
乖戾	-12.1636
切合聲	-12.164
子張問	-12.164
沈氏	-12.164
莫大于	-12.1647
幽厲	-12.1649
㳂	-12.1649
酈道元	-12.1649
扺	-12.1649
葬我小君	-12.1649
萋萋	-12.1649
律厯志	-12.1649
宋公衛侯鄭伯曹伯	-12.1649
第十二	-12.1651
▁謝曰	-12.1656
禾稼	-12.1657
司几筵	-12.1661
賢否	-12.1662
重複	-12.1663
藍田	-12.1663
刑戮	-12.1666
峩	-12.1669
輾	-12.1669
劵	-12.1669
䷋	-12.1669
鍾鼓	-12.1669
駑馬	-12.1673
十月之交	-12.1673
小功以下	-12.1676
采菽	-12.1677
車攻	-12.1679
漢書地理志	-12.1681
庠序	-12.1683
十年春王正月	-12.1684
寸六分	-12.1684
建侯行師	-12.1686
愆期	-12.1688
爵弁服	-12.1688
馮氏曰	-12.1688
罝	-12.1689
鐙	-12.1689
冔	-12.1689
逓	-12.1689
行下孟反	-12.169
結繩	-12.1696
大功以上	-12.1696
南靣	-12.1697
蜡祭	-12.1706
齊國夏	-12.1707
國之政	-12.1708
藹	-12.1709
匊	-12.1709
駹	-12.1709
泂	-12.1709
睨	-12.1709
竁	-12.1709
杜元凱	-12.1709
畚	-12.1709
充塞	-12.1713
當此之時	-12.1713
粉米	-12.1713
海岱	-12.1714
巽為木	-12.1719
宋儒	-12.1719
晁氏曰	-12.172
對曰某	-12.1728
逺邇	-12.1729
峽	-12.1729
陳氏禮書	-12.173
樂祁	-12.1731
剛陽之	-12.1732
筮尸	-12.1742
伐檀	-12.1744
割牲	-12.1745
徳之人	-12.1747
旰	-12.1749
濛	-12.1749
竺	-12.1749
粲然	-12.175
牝牡	-12.1752
東郭	-12.1754
常事不書	-12.1756
理財	-12.1759
雲雨	-12.1762
廣韻集韻韻㑹	-12.1763
起吕	-12.1765
綴衣	-12.1769
幔	-12.1769
鼜	-12.1769
王事靡盬	-12.1769
之子于歸	-12.177
鉅鹿	-12.1771
蔡景	-12.1772
郭註	-12.1773
入于河	-12.1773
如字徐	-12.1778
郝氏	-12.1781
二與四	-12.1786
疒	-12.1789
犉	-12.1789
凄	-12.1789
盥而不薦	-12.179
洩冶	-12.1791
振鐸	-12.1793
袒免	-12.1793
公會齊侯	-12.1794
汪氏	-12.1795
吉而无咎	-12.1799
鑚	-12.181
好呼報反	-12.181
唐韻集韻韻㑹	-12.1811
」、	-12.1811
周公攝政	-12.1814
白露	-12.1816
爾雅翼	-12.182
築城	-12.1821
今改正	-12.1822
召穆公	-12.1824
中正之徳	-12.1827
窶	-12.183
裾	-12.183
四章章四句	-12.183
川流	-12.1842
吏部	-12.1847
彡	-12.185
禇	-12.185
䷀	-12.185
勲勞	-12.1852
内命婦	-12.1853
威福	-12.1854
再閏	-12.1863
公子慶父	-12.1863
增入	-12.1866
傅說	-12.1866
貧富	-12.1868
頻復	-12.187
黶	-12.187
蛙	-12.187
耎	-12.187
獺	-12.187
攫	-12.187
爟	-12.187
獫	-12.187
疥	-12.187
畺	-12.1871
鰋	-12.1871
之通稱	-12.1871
大亨以正	-12.1874
專殺	-12.1883
華蟲	-12.1888
服小功	-12.189
予奪	-12.189
甓	-12.1891
愽	-12.1891
肂	-12.1891
禓	-12.1891
▁考異古本經	-12.1891
示天下	-12.1892
石碏	-12.1892
網罟	-12.1892
思無邪	-12.1892
子晳	-12.1893
鉅野	-12.1894
今山東	-12.1895
胷中	-12.1895
寗喜	-12.1898
虞庠	-12.1901
前漢地理志	-12.1902
九州之外	-12.1904
勿逐	-12.1907
變徵	-12.1908
疽	-12.1911
蔥	-12.1911
延平周氏曰	-12.1911
媺	-12.1911
葬我君	-12.1912
西房	-12.1913
按史記	-12.1917
分為三	-12.1921
源流	-12.1924
青色	-12.193
葽	-12.1932
葍	-12.1932
憯	-12.1932
肜	-12.1932
深切著明	-12.1932
自天祐之吉无不利	-12.1932
順以巽	-12.1936
秦始皇	-12.1937
千七百	-12.1942
服其服	-12.1946
交感	-12.1947
白駒	-12.1949
八十里	-12.1952
怕	-12.1952
媧	-12.1952
􁕡	-12.1952
眾	-12.1952
䷒	-12.1952
頖	-12.1952
名山大川	-12.1952
少牢饋食禮	-12.1952
皐陶	-12.1953
一統志	-12.1955
之類皆从	-12.1956
蟄蟲	-12.1957
戎路	-12.1957
治蠱	-12.1961
趙文子	-12.1962
衆妾	-12.1963
裁制	-12.1963
珍異	-12.1965
胥童	-12.1968
璆	-12.1973
蹂	-12.1973
洌	-12.1973
劔	-12.1973
斈	-12.1973
慚	-12.1973
䷠	-12.1973
濡其首	-12.1974
幽深	-12.1976
斗建	-12.1978
臨淄	-12.1978
嫌疑	-12.198
束錦	-12.1981
方氏慤曰	-12.1982
二十五月	-12.1986
嘻	-12.1988
炫	-12.1991
豭	-12.1993
d	-12.1993
垤	-12.1993
軨	-12.1993
斆	-12.1993
淠	-12.1993
繩證反	-12.1994
直方大	-12.1996
晁氏	-12.2004
丈八尺	-12.2005
前一日	-12.2007
釋卦名義	-12.2007
戚戚	-12.201
閔二年	-12.2012
震電	-12.2012
怵	-12.2014
幢	-12.2014
鄗	-12.2014
咤	-12.2014
冗	-12.2014
錘	-12.2014
舝	-12.2014
江氏永曰	-12.2014
此虞義也	-12.2014
眀堂	-12.2015
何可長也	-12.2016
斯干	-12.2016
白賁	-12.2016
甥舅	-12.2016
四與初	-12.2017
形而下者	-12.2018
闕人名	-12.202
不可揜	-12.2026
居下之上	-12.2027
丈二尺	-12.2028
瑰	-12.2035
墐	-12.2035
㬊淵録	-12.2035
霜降	-12.2046
太戊	-12.2048
水所出	-12.205
地理志云	-12.2051
撝	-12.2053
鑮	-12.2055
畮	-12.2055
!」	-12.2056
疆埸	-12.2057
金柅	-12.2059
齊慶封	-12.206
》、	-12.2061
水出焉	-12.2067
厥貉	-12.2068
引春秋傳	-12.2069
韓奕	-12.2075
輇	-12.2076
嚴氏粲曰	-12.2076
八月有凶	-12.2078
軒轅	-12.2079
表記	-12.2081
向背	-12.2081
梓材	-12.2082
未必能	-12.2083
庖人	-12.2085
音釋經	-12.2086
南逕	-12.2088
注無傳	-12.2088
對曰臣	-12.2088
刲	-12.2091
龍龕音	-12.2094
克艱	-12.2094
絆	-12.2097
譟	-12.2097
鱧	-12.2097
釋曰自此盡	-12.2097
笑語	-12.2105
服斬衰	-12.2108
帥師伐鄭	-12.2109
出涕	-12.211
郭京	-12.2115
犍	-12.2118
蹤	-12.2118
璿	-12.2118
瓞	-12.2118
黔牟	-12.2118
擊柝	-12.2119
渭按	-12.2121
盗賊	-12.2125
民之父母	-12.2129
天地之性	-12.2132
楚子伐	-12.2133
積聚	-12.2134
溲	-12.2139
燾	-12.2139
禮樂征伐	-12.2146
縞冠	-12.2151
公㑹宋公	-12.2151
蛸	-12.2159
愎	-12.2159
嵎夷	-12.2162
麟趾	-12.2163
傅㑹	-12.2163
利涉	-12.2166
厥貢	-12.2169
陸績	-12.2171
磬折	-12.2179
萬姓	-12.218
窈	-12.218
佯	-12.218
蚡	-12.218
詵	-12.218
變而成	-12.2182
樞機	-12.2184
鼓吹	-12.2187
三年之䘮	-12.2197
逋逃	-12.2198
嘖	-12.2201
鼃	-12.2201
滔滔	-12.2202
河圖洛書	-12.2203
撝謙	-12.2203
陸佃云	-12.2204
干禄	-12.2204
註孔安國曰	-12.2207
刺幽王	-12.2209
軻	-12.2212
蹇蹇	-12.2213
荀庚	-12.2216
綢	-12.2222
濊	-12.2222
雙峯饒氏曰	-12.2223
蒼頡	-12.2224
春秋所書	-12.2227
鐘鼔	-12.223
朝鮮	-12.2231
儗	-12.2243
曩	-12.2243
玖	-12.2244
杌	-12.2244
釗	-12.2244
越境	-12.2245
寂然	-12.2246
白黒	-12.2246
泮水	-12.2251
活切	-12.2251
孔子對曰	-12.2254
講學	-12.2255
品節	-12.2259
崧	-12.2259
徒八人	-12.2259
既夕禮	-12.226
其宜也	-12.2264
劓刖	-12.2265
位正當也	-12.2265
踰越	-12.2265
陳人蔡人	-12.2266
與此不同	-12.2273
御覽	-12.2277
子夏傳	-12.228
翮	-12.2286
眸	-12.2286
泚	-12.2286
沂州	-12.2287
▁欽定	-12.2288
東北流	-12.2288
刑獄	-12.2289
應劭	-12.229
見天地之心	-12.2294
俎豆	-12.2295
玉几	-12.2295
築室	-12.2305
踧	-12.2307
幻	-12.2307
霞	-12.2307
捲	-12.2307
迆	-12.2307
簣	-12.2307
唇	-12.2307
穎達	-12.2309
實觶	-12.2312
雨露	-12.2315
感格	-12.232
先縠	-12.2325
胤	-12.2328
軛	-12.2328
驁	-12.2328
撤	-12.2328
翺翔	-12.2329
魂魄	-12.2331
封域	-12.2336
龍龕	-12.2336
唁公	-12.2337
鄭玄云	-12.2339
或省作	-12.2347
可以有為	-12.2348
月幾望	-12.2348
浞	-12.235
慇	-12.235
矰	-12.235
刌	-12.235
先甲三日	-12.235
酌醴	-12.2358
其實一也	-12.236
誦詩	-12.2366
國之師	-12.2369
噎	-12.2371
笮	-12.2371
悻	-12.2371
旆	-12.2371
叠	-12.2371
府四人史	-12.2371
杕杜	-12.2372
居于鄆	-12.2373
都人士	-12.2373
玩好	-12.2374
根牟	-12.2378
五常之	-12.2379
自反而	-12.2391
糠	-12.2393
邂逅	-12.2393
髢	-12.2393
憮	-12.2393
僚友	-12.2402
歐陽氏	-12.2406
財賦	-12.2407
淑女	-12.241
鐘鼎	-12.2413
頟	-12.2414
緄	-12.2414
繂	-12.2414
兩君相見	-12.2414
父在為母	-12.2415
孰大焉	-12.2415
先王之法	-12.2415
釋按說文	-12.2416
僕射	-12.2418
季桓子	-12.2419
于鄫	-12.2425
指揮	-12.2425
卦六爻	-12.2429
篤厚	-12.2435
鮎	-12.2435
熇	-12.2435
蹴	-12.2435
撲	-12.2435
莩	-12.2436
瑣瑣	-12.2436
齊衰以下	-12.2436
憧憧往來	-12.2436
千八百	-12.244
禦寇	-12.2443
趙魏	-12.2445
族類	-12.2447
互相備	-12.245
泝	-12.2457
鋝	-12.2457
殫	-12.2457
䷗	-12.2457
溴梁	-12.2457
隄防	-12.246
猾夏	-12.2463
汶陽	-12.2476
肌	-12.2478
些子	-12.2478
c	-12.2479
嚼	-12.2479
呻	-12.2479
麑	-12.2479
杪	-12.2479
絫	-12.2479
涘	-12.2479
颺	-12.2479
肓	-12.2479
相息亮反	-12.2479
利君子貞	-12.2481
莒慶	-12.2482
禮直官	-12.2482
歸于京師	-12.2486
公子遂如齊	-12.2491
百歩	-12.2493
考妣	-12.2494
滕侯	-12.2496
公子翬	-12.2497
鄉射記	-12.2499
擲	-12.25
猿	-12.25
嫗	-12.25
匍匐	-12.25
褧	-12.25
觩	-12.25
貂	-12.25
郤犫	-12.2501
爾雅釋草	-12.2501
宣十二年	-12.2502
緝熙	-12.2504
奠于篚	-12.2505
繼禰	-12.2518
見于經	-12.2519
萬七千	-12.2519
唾	-12.2522
赭	-12.2522
翰林院	-12.2522
逍遥	-12.2522
陸德明	-12.2522
及楚平	-12.2524
圭瓉	-12.2525
輯錄	-12.2526
張掖	-12.253
宋向戌	-12.2532
衰麻	-12.2538
帥師伐邾	-12.2543
祭祀賔客	-12.2544
𬒳	-12.2544
嘲	-12.2544
洿	-12.2544
䜟	-12.2544
䷁	-12.2544
䷛	-12.2544
呦	-12.2544
䷥	-12.2544
東靣	-12.2545
浸而長	-12.2546
嬪婦	-12.2549
熊虎	-12.2554
不逺復	-12.2554
粟米	-12.2558
戈盾	-12.2559
玉篇古文	-12.2563
蠋	-12.2565
鮀	-12.2566
嬉	-12.2566
薙	-12.2566
轝	-12.2566
兗州	-12.2567
星孛	-12.257
九家易	-12.2571
加一等	-12.2572
朝賀	-12.2574
每嵗	-12.2578
虞祔	-12.2587
躓	-12.2587
惸	-12.2587
洸	-12.2587
訢	-12.2587
毁廟之主	-12.2587
䷡	-12.2587
雙峰	-12.2588
寤寐	-12.2588
范獻子	-12.2591
韓愈詩	-12.2595
環絰	-12.2596
尺有二寸	-12.2598
揖遜	-12.26
萬殊	-12.2605
辨其物	-12.2608
癰	-12.2609
葺	-12.2609
㨿	-12.2609
鸜鵒	-12.2609
格物致知	-12.261
與音預	-12.261
互言之	-12.2612
湯誓	-12.2623
利永貞	-12.2625
冂	-12.2631
蠙	-12.2631
蹌蹌	-12.2631
禕	-12.2631
䷓	-12.2631
▁此一節書是	-12.2631
無忌憚	-12.2632
孔悝	-12.2634
校尉	-12.2636
枉道	-12.2639
疆界	-12.2643
士魴	-12.2644
華亥	-12.2645
蔓生	-12.2646
不敢忘	-12.2647
敬之至也	-12.2648
晉平公	-12.265
于召陵	-12.2651
羯	-12.2653
淚	-12.2653
籲	-12.2653
家氏鉉翁曰	-12.2653
中士八人	-12.2654
難曉	-12.2655
9.2	-12.2655
肅拜	-12.2656
齊人來歸	-12.266
十年春	-12.2661
繼嗣	-12.2663
梢	-12.2675
窘	-12.2675
簸	-12.2675
驢	-12.2675
椇	-12.2675
昉	-12.2675
𠂻	-12.2675
罶	-12.2675
虎皮	-12.2697
尒	-12.2697
栘	-12.2697
幟	-12.2697
稺	-12.2697
鵬	-12.2697
詮	-12.2697
痤	-12.2697
䷫	-12.2697
囂囂	-12.2698
蹇叔	-12.2704
嚴緝	-12.2706
與之俱	-12.2711
天命之性	-12.2715
二十九日	-12.2717
臚	-12.2719
蓑	-12.2719
濆	-12.2719
畒	-12.2719
疐	-12.2719
蓁	-12.2719
載芟	-12.2719
駜	-12.2719
升成拜	-12.2722
離麗也	-12.2725
墳衍	-12.273
句讀	-12.2731
韓魏	-12.2734
第二章	-12.2735
振鷺	-12.2738
澶	-12.2741
芽	-12.2741
謾	-12.2741
自求口實	-12.2742
䷪	-12.2742
七日來復	-12.2742
虢叔	-12.275
包羞	-12.2751
于大廟	-12.2752
滕文公	-12.2756
屯蒙	-12.276
欄	-12.2764
痒	-12.2764
巂	-12.2764
邅	-12.2764
籧篨	-12.2764
韌	-12.2764
彥	-12.2764
荻	-12.2764
体	-12.2764
脇	-12.2764
䷂	-12.2764
安成劉氏曰	-12.2764
皇氏云	-12.2773
驂馬	-12.2773
軍吏	-12.2775
黎侯	-12.2776
約束	-12.2777
寘諸	-12.2782
卑賤	-12.2782
滴	-12.2786
猪	-12.2786
銚	-12.2786
古作註詳	-12.2786
紾	-12.2786
胞	-12.2786
腯	-12.2786
龎	-12.2786
四人徒四十人	-12.2786
埤蒼	-12.2787
淫泆	-12.2787
靈座	-12.2793
外命婦	-12.2797
林麓	-12.2798
哆	-12.2808
膂	-12.2808
䷖	-12.2808
扼	-12.2808
長丁丈反	-12.2809
九二剛中	-12.2813
吕記	-12.2813
鸞刀	-12.2814
九月大雩	-12.2814
甘泉	-12.2814
決拾	-12.2819
各因其	-12.2825
元妃	-12.2826
棊	-12.2831
訕	-12.2831
輶	-12.2831
皇甫謐	-12.2831
大射儀	-12.2835
以剛居剛	-12.2837
盟誓	-12.2841
以隂居隂	-12.2848
臆説	-12.2848
枌	-12.2853
榱	-12.2853
醍	-12.2853
羖	-12.2853
洟	-12.2853
婺	-12.2853
䷝	-12.2853
卒爵拜	-12.2857
衛孫林父	-12.2864
胸中	-12.2869
熊氏云	-12.287
豚解	-12.2871
萬三千	-12.2873
羝	-12.2873
擴	-12.2874
昂	-12.2876
凑	-12.2876
之属皆从	-12.2876
僥倖	-12.2876
元祐	-12.2876
及齊師戰	-12.2877
乙夘	-12.2877
昬姻	-12.2878
闔闢	-12.2879
之大法	-12.2886
豊	-12.2898
䷇	-12.2898
改卜牛	-12.2898
旰切	-12.2899
崇牙	-12.2899
孫炎云	-12.2899
褰裳	-12.2899
釋卦名	-12.2903
从犬	-12.2915
凡邦之	-12.2916
柅	-12.2916
籬	-12.292
慱	-12.2921
巧言令色	-12.2921
離肺	-12.2924
糸	-12.2928
輔佐	-12.2928
震坎艮	-12.2929
承筐	-12.2942
𫝊正義曰	-12.2943
後甲三日	-12.2943
擿	-12.2943
灘	-12.2943
朄	-12.2943
笑言啞啞	-12.2943
䷚	-12.2943
未知孰是	-12.2943
朝覲㑹同	-12.2945
寸二分	-12.2945
賈誼傳	-12.2959
神祇	-12.2963
雚	-12.2966
踽	-12.2966
鱐	-12.2966
衈	-12.2966
疈	-12.2966
山澤通氣	-12.2966
止於至善	-12.2969
唐太宗	-12.2976
底道理	-12.2978
化成天下	-12.2982
涉川	-12.2982
納徴	-12.2983
西階上北面	-12.2985
摠	-12.2989
南有嘉魚	-12.2989
春夏秋冬	-12.299
紛紜	-12.2992
愚竊	-12.3
玩味	-12.3007
郡國志	-12.3009
閉藏	-12.3009
嘘	-12.3011
塹	-12.3011
屮	-12.3012
栭	-12.3012
鑾	-12.3012
傴	-12.3012
戦	-12.3012
摡	-12.3012
恙	-12.3012
潄	-12.3012
陸農師	-12.3012
孔叢子	-12.3012
泄泄	-12.3013
神農氏	-12.3024
拾遺	-12.3025
拏	-12.3034
埒	-12.3034
縉	-12.3034
戔戔	-12.3034
罸	-12.3034
煌煌	-12.3034
其行次且	-12.3034
弗損益之	-12.3035
誤今正	-12.3036
輸平	-12.3036
特磬	-12.3037
之為卦	-12.3038
鍾磬	-12.3039
絲枲	-12.3039
聶北	-12.3044
滋味	-12.3045
萬六千	-12.3049
昭四年	-12.3051
語黙	-12.3054
䋫	-12.3057
閹	-12.3057
䷽	-12.3057
豐其蔀	-12.3057
蟊賊	-12.3058
歌鐘	-12.3061
汾水	-12.3064
天地定位	-12.3068
滅同姓	-12.3072
莫先於	-12.3075
掬	-12.308
嚻	-12.308
駔	-12.308
嘵	-12.308
舘	-12.308
公山不狃	-12.308
逭	-12.308
飼	-12.308
楚公子嬰齊	-12.3081
𤣥枵	-12.3081
蜀才	-12.3084
大衍之數	-12.3085
喬木	-12.3087
功烈	-12.3091
簞食	-12.3095
鍪	-12.3103
霏	-12.3103
▁虞惇按	-12.3103
䷌	-12.3103
不事王侯	-12.3103
鲁	-12.3103
慈愛	-12.3108
猗嗟	-12.3111
理之常	-12.3117
邵氏	-12.3119
猨	-12.3126
笞	-12.3126
欑	-12.3126
埃	-12.3126
恐懼修省	-12.3126
贖刑	-12.3127
成宋亂	-12.313
兖州府	-12.3133
卦之終	-12.3134
漢文帝	-12.3138
甘盤	-12.3138
豕韋	-12.3141
卷阿	-12.3146
用田賦	-12.3147
窕	-12.3149
鉛	-12.3149
蒩	-12.3149
淤	-12.3149
䲭	-12.3149
䷐	-12.3149
䷾	-12.3149
南山有臺	-12.3149
鼫鼠	-12.315
過剛不中	-12.315
安其居	-12.3151
蓼蕭	-12.3156
殘賊	-12.316
十有二年春	-12.3164
侑幣	-12.3164
臿	-12.3172
甌	-12.3172
張衡西京賦	-12.3172
撟	-12.3172
賡	-12.3172
䷍	-12.3172
作丘甲	-12.3173
女音汝	-12.3173
寸三分	-12.3179
匈	-12.3195
鬵	-12.3196
竪	-12.3196
㤀	-12.3196
䷶	-12.3196
懆	-12.3219
菌	-12.3219
濃	-12.3219
阬	-12.3219
魅	-12.3219
䷎	-12.3219
帙	-12.3242
㫄	-12.3242
茁	-12.3242
煞	-12.3242
陬	-12.3242
㓗	-12.3242
献	-12.3242
䷨	-12.3242
鍊	-12.3266
鴂	-12.3266
䷩	-12.3266
鸒	-12.3289
姿	-12.3289
腋	-12.3289
迸	-12.3289
喘	-12.3289
娀	-12.3289
􁕧	-12.3289
䷜	-12.3289
漉	-12.3312
娥	-12.3312
杻	-12.3312
劾	-12.3312
浼	-12.3312
蚓	-12.3312
䷑	-12.3313
蜓	-12.3336
鐏	-12.3336
倐	-12.3336
薍	-12.3336
赬	-12.3336
苾	-12.3336
䷴	-12.3336
䷵	-12.3336
樛	-12.3353
拄	-12.336
燦	-12.336
䷄	-12.336
䷣	-12.336
䷰	-12.336
䷼	-12.336
簇	-12.338
朾	-12.3383
䷆	-12.3383
􁕗	-12.3383
䷘	-12.3383
詡	-12.3407
倩	-12.3407
紃	-12.3407
漱	-12.3407
窄	-12.3407
晰	-12.3407
塡	-12.3431
熯	-12.3431
黥	-12.3431
盻	-12.3431
綰	-12.3478
橛	-12.3478
宓	-12.3478
厶	-12.3478
笫	-12.3478
䷮	-12.3478
举	-12.3478
䷔	-12.3478
紬	-12.3502
逈	-12.3502
喫	-12.3502
䷟	-12.3502
酪	-12.3526
厞	-12.3526
処	-12.3526
晧	-12.3526
瘉	-12.3526
腒	-12.3526
䷭	-12.3526
鷯	-12.355
殂	-12.355
髺	-12.355
䷞	-12.355
褶	-12.3574
屛	-12.3574
顆	-12.3574
仔	-12.3574
揷	-12.3598
痕	-12.3598
梱	-12.3599
簷	-12.3599
傭	-12.3599
䷯	-12.3599
䷺	-12.3599
䷲	-12.3599
咳	-12.3623
忙	-12.3623
枹	-12.3623
璉	-12.3623
恠	-12.3623
㤙	-12.3623
婣	-12.3623
狭	-12.3623
朼	-12.3623
䷙	-12.3623
僵	-12.3647
湧	-12.3647
倭	-12.3647
鶡	-12.3647
謠	-12.3647
跖	-12.3647
岵	-12.3647
禧	-12.3647
惄	-12.3647
䷬	-12.3647
縂	-12.3647
毓	-12.3669
紟	-12.3671
蹻	-12.3671
蒨	-12.3671
爍	-12.3671
悱	-12.3671
鵞	-12.3671
䷳	-12.3671
宙	-12.3695
巵	-12.3696
釃	-12.3696
皈	-12.3696
珌	-12.372
趍	-12.372
拖	-12.372
澠	-12.372
諠	-12.372
宸	-12.372
枓	-12.372
洎	-12.372
䷢	-12.372
鷖	-12.3744
剕	-12.3745
呌	-12.3745
鋈	-12.3745
沅	-12.3745
僃	-12.3745
䷈	-12.3745
䷕	-12.3745
穜	-12.3769
筦	-12.3769
瑳	-12.3769
䷅	-12.3769
蝮	-12.3794
姝	-12.3794
嶷	-12.3794
䷏	-12.3794
甾	-12.3819
蔟	-12.3837
瞍	-12.3843
悴	-12.3843
餈	-12.3843
䷃	-12.3843
䷤	-12.3843
䷸	-12.3843
䷿	-12.3843
犫	-12.3868
磽	-12.3868
糲	-12.3868
牼	-12.3868
甜	-12.3868
鮐	-12.3868
戞	-12.3868
攬	-12.3868
翫	-12.3868
䷉	-12.3868
悝	-12.389
饕	-12.3893
荔	-12.3893
藤	-12.3893
插	-12.3893
憝	-12.3893
摟	-12.3893
虙	-12.3893
鱨	-12.3893
䷦	-12.3893
繐	-12.3911
両	-12.3918
宂	-12.3918
咫	-12.3918
䷧	-12.3918
亊	-12.3918
盼	-12.3943
変	-12.3943
伻	-12.3943
楮	-12.3943
樣	-12.3943
頄	-12.3943
樅	-12.3968
晴	-12.3968
畟	-12.3968
旭	-12.3968
髓	-12.3968
丌	-12.3968
罘	-12.3993
偈	-12.3993
㝛	-12.3993
謐	-12.3993
䷻	-12.3993
娑	-12.4018
葚	-12.4018
蕙	-12.4018
攢	-12.4018
侖	-12.4018
忖	-12.4018
鎰	-12.4018
顈	-12.4018
傒	-12.404
狙	-12.4044
愒	-12.4044
鶖	-12.4044
籔	-12.4044
薈	-12.4044
晡	-12.4044
㬰	-12.4044
澔	-12.4044
遟	-12.4069
氂	-12.4069
稹	-12.4069
[...]
