<unk>	0
<s>	0
</s>	0
/	-2.5437
)	-3.11484
(	-3.1491
)(	-3.37826
也	-3.50396
兮	-4.62774
為	-4.98592
,	-4.99528
之	-5.04453
爲	-5.11745
。	-5.20563
而	-5.25737
一作	-5.30705
補曰	-5.54624
曰	-5.67115
以	-5.7797
切	-5.81655
音	-5.86603
作	-5.91677
言	-5.92448
一	-5.99591
不	-6.08085
於	-6.10947
其	-6.11554
者	-6.21853
有	-6.23098
云	-6.24509
與	-6.2687
已	-6.34786
巳	-6.40062
▁(	-6.52667
無	-6.55742
貌	-6.62988
也補曰	-6.64353
?	-6.66832
皃	-6.73362
𥙷曰	-6.73804
字	-6.79801
則	-6.80971
故	-6.83154
同	-6.85095
謂	-6.86091
言已	-6.86774
徳	-6.88104
人	-6.88165
所	-6.91069
行	-6.91707
德	-6.92375
此	-6.95506
子	-6.95524
▁	-6.96336
又	-6.97159
說	-6.97645
于	-6.99094
髙	-7.02393
補	-7.03502
説	-7.036
大	-7.03977
上	-7.04064
言巳	-7.04834
自	-7.06428
亦	-7.07056
乎	-7.08378
心	-7.08494
山	-7.09198
高	-7.10811
世	-7.1131
思	-7.1141
君	-7.12255
下	-7.12358
志	-7.18745
逺	-7.1983
中	-7.23159
一云	-7.25489
己	-7.25975
見	-7.3059
文	-7.31726
懐	-7.31929
欲	-7.33588
將	-7.34068
如	-7.34418
懷	-7.34734
今	-7.34865
生	-7.35228
皆	-7.35545
旣	-7.35552
乘	-7.35763
天	-7.3599
木	-7.36777
猶	-7.38324
乗	-7.38614
名	-7.40339
日	-7.40365
何	-7.40553
長	-7.40883
王	-7.41257
正	-7.41316
時	-7.42398
乃	-7.42796
道	-7.44428
丗	-7.452
至	-7.46169
若	-7.48837
水	-7.50725
得	-7.51912
既	-7.53707
明	-7.54558
非	-7.55166
五臣云	-7.55799
去	-7.56022
然	-7.56094
玉	-7.56722
出	-7.5685
可	-7.5756
我	-7.6139
在	-7.63219
是	-7.64407
黄	-7.64629
屈原	-7.65126
草	-7.67933
一名	-7.68032
葉	-7.69286
𤣥	-7.70227
國	-7.70273
哀	-7.70336
㒵	-7.70571
本	-7.7066
居	-7.70844
余	-7.71123
耳	-7.71528
宜	-7.71727
流	-7.71793
身	-7.71936
用	-7.72161
使	-7.73121
當	-7.7422
花	-7.74974
而不	-7.75161
樂	-7.76011
方	-7.76139
多	-7.7618
黃	-7.76463
並	-7.7652
衆	-7.77002
合	-7.77553
遂	-7.77689
遊	-7.78375
貎	-7.78597
!	-7.78654
風	-7.79878
蘭	-7.80104
處	-7.80455
脩	-7.80894
修	-7.81247
冝	-7.81678
盖	-7.82578
結	-7.82783
白	-7.82887
從	-7.83466
臣	-7.8376
矣	-7.84026
不可	-7.84029
獨	-7.84051
實	-7.84354
意	-7.84538
氣	-7.84916
言己	-7.84971
陽	-7.85972
玄	-7.86498
注云	-7.86674
相	-7.86814
成	-7.87224
夫	-7.88497
詩	-7.88881
香	-7.89399
以為	-7.90736
䰟	-7.92219
焉	-7.92586
辭	-7.92707
謂之	-7.93124
盛	-7.93728
離	-7.94742
清	-7.94878
女	-7.95042
過	-7.95787
三	-7.9616
美	-7.97177
隱	-7.97445
爾雅	-7.97919
青	-7.98119
也言	-7.98485
古	-7.99194
悲	-8.00193
即	-8.00966
二	-8.01069
神	-8.01756
五	-8.01766
知	-8.02451
惟	-8.02584
被	-8.02817
華	-8.04536
能	-8.04595
棄	-8.04717
淸	-8.06067
别	-8.06635
詞	-8.06741
弃	-8.07401
願	-8.07554
復	-8.08962
芳	-8.09099
雖	-8.09184
憂	-8.09201
北	-8.09527
帝	-8.09623
常	-8.09715
命	-8.0987
來	-8.1104
傷	-8.11125
横	-8.11475
竹	-8.11662
或	-8.12605
且	-8.13189
按	-8.13266
靈	-8.13306
隠	-8.13848
九	-8.14342
雲	-8.14635
椒	-8.14934
一本	-8.15741
地	-8.15841
根	-8.16246
放	-8.16643
說文	-8.16722
楚	-8.1674
車	-8.17216
終	-8.17779
情	-8.17927
及	-8.17989
聲	-8.18363
一無	-8.18515
進	-8.18826
死	-8.18858
舉	-8.18922
未	-8.19086
善	-8.19172
念	-8.1984
石	-8.20259
屈	-8.20406
蓋	-8.21505
疏	-8.21711
遇	-8.22347
土	-8.22354
㠯	-8.22826
䟽	-8.22826
服	-8.23306
只	-8.23307
入	-8.23318
絶	-8.23418
反	-8.23471
求	-8.24142
以爲	-8.25244
直	-8.25526
失	-8.26448
比	-8.27037
難	-8.2734
苦	-8.27599
薄	-8.27939
深	-8.2812
隂	-8.28523
似	-8.28608
靑	-8.28699
引	-8.28702
類	-8.28776
葢	-8.28929
異	-8.29085
橫	-8.29095
義	-8.29105
虚	-8.29206
望	-8.29861
立	-8.31232
達	-8.31695
事	-8.31864
南	-8.32171
亂	-8.32275
四	-8.32346
解	-8.32694
年	-8.32994
陳	-8.33069
歳	-8.332
執	-8.3342
魂	-8.33634
好	-8.33681
小	-8.33741
士	-8.34007
夏	-8.34007
賢	-8.34165
語	-8.34212
節	-8.34707
回	-8.35005
極	-8.35012
齊	-8.35267
舍	-8.35338
惡	-8.36162
視	-8.36442
門	-8.37033
通	-8.37249
䝉	-8.37604
胡	-8.37796
内	-8.37997
俗	-8.38753
彼	-8.39604
予	-8.39716
吾	-8.39786
皮	-8.39824
東	-8.40898
西	-8.41115
著	-8.4167
周	-8.4205
間	-8.42211
登	-8.42213
往	-8.42286
原	-8.42291
蒙	-8.42379
藏	-8.42424
離騷	-8.42456
吳	-8.42502
歩	-8.42538
羣	-8.42759
逹	-8.42824
諸	-8.43047
少	-8.4425
後	-8.44487
注	-8.44491
鳥	-8.44498
也五臣云	-8.44534
食	-8.44763
觀	-8.44794
􁀙	-8.44854
㑹	-8.44979
歷	-8.44987
數	-8.45049
説文	-8.45703
歎	-8.45925
度	-8.46545
書	-8.46652
舎	-8.47287
□	-8.47363
歌	-8.47374
􁁊	-8.47464
衣	-8.48115
先	-8.48411
發	-8.48846
飛	-8.49061
桂	-8.49168
啓	-8.49376
是也	-8.49503
揚	-8.49509
釋文	-8.49524
近	-8.49535
歸	-8.49606
不能	-8.49606
集	-8.49802
前	-8.49887
取	-8.50337
夷	-8.50372
止	-8.50389
聽	-8.5108
恐	-8.51228
紫	-8.51258
紛	-8.51268
呼	-8.51372
還	-8.515
鳴	-8.51553
馬	-8.51749
經	-8.52234
永	-8.5227
精	-8.52296
嵗	-8.52427
哉	-8.52431
佞	-8.52597
宫	-8.53135
屬	-8.53221
江	-8.54175
史記	-8.54295
孰	-8.54343
老	-8.54472
曲	-8.55097
雜	-8.55102
右	-8.55247
初	-8.55358
重	-8.57301
體	-8.57422
忠	-8.5744
博	-8.57473
橘	-8.57551
歴	-8.57689
力	-8.57739
忽	-8.57782
靡	-8.57782
朝	-8.57912
和	-8.57966
兾	-8.57981
王逸註	-8.58119
鄉	-8.58119
顧	-8.58494
始	-8.58825
理	-8.58898
動	-8.59309
路	-8.59393
圖	-8.59884
囘	-8.60084
戸	-8.60588
廣	-8.60681
由	-8.607
象	-8.60752
指	-8.60758
莫	-8.60786
金	-8.60853
郷	-8.60898
英	-8.6104
更	-8.61143
列	-8.61269
壽	-8.617
釋文作	-8.61943
都	-8.62718
易	-8.62904
微	-8.63074
淫	-8.632
懷王	-8.6325
持	-8.63351
形	-8.63505
色	-8.63528
茝	-8.63662
真	-8.63767
亡	-8.63783
些	-8.63798
吴	-8.63812
以自	-8.64175
容	-8.64197
說文云	-8.64565
枝	-8.65006
喻	-8.65407
采	-8.65464
遠	-8.65782
啟	-8.65797
百	-8.65892
主	-8.65987
秋	-8.66331
乆	-8.66382
雨	-8.66725
固	-8.66755
甘	-8.66762
久	-8.66817
強	-8.66885
細	-8.6705
六	-8.67217
汨	-8.67357
臣云	-8.67365
安	-8.67514
愁	-8.6752
烏	-8.67638
尚	-8.68147
官	-8.68639
背	-8.68877
疑	-8.68946
物	-8.69154
赤	-8.69172
淵	-8.69607
干	-8.69632
𬒳	-8.69981
信	-8.70002
要	-8.70308
夀	-8.70309
也一云	-8.70419
本草	-8.70574
光	-8.70778
盡	-8.70788
澤	-8.71653
黒	-8.7201
必	-8.7219
野	-8.72203
落	-8.7239
徃	-8.72832
分	-8.72966
目	-8.73181
巻	-8.7332
政	-8.73951
誠	-8.74617
菜	-8.74698
承	-8.7479
代	-8.74829
佩	-8.75382
覽	-8.75404
閒	-8.75434
傳	-8.75504
介	-8.75635
曽	-8.75661
魚	-8.75853
厲	-8.75878
爾	-8.76259
家	-8.7634
諫	-8.7636
卒	-8.76375
竭	-8.76479
汩	-8.76501
㣲	-8.76576
張	-8.76589
户	-8.76595
懐王	-8.76736
次	-8.76848
履	-8.77609
逝	-8.78359
施	-8.78506
載	-8.78553
宿	-8.78773
香草	-8.79008
林	-8.79188
無所	-8.79289
邪	-8.79428
因	-8.79577
開	-8.7975
游	-8.7979
照	-8.79797
莖	-8.79848
呉	-8.79941
陵	-8.7996
廹	-8.80025
鼓	-8.80025
将	-8.80123
明也	-8.81418
讒	-8.8154
冬	-8.8209
稱	-8.82118
蕙	-8.82161
令	-8.82354
篇	-8.82444
外	-8.82557
末	-8.82634
徒	-8.82806
錯	-8.82852
平	-8.82983
龍	-8.83
皇	-8.83127
忘	-8.83304
馳	-8.83437
漢	-8.83453
覆	-8.83459
鳳	-8.83504
變	-8.8352
竝	-8.83531
聞	-8.83745
可以	-8.84197
一曰	-8.84404
詩云	-8.84447
論	-8.84495
駕	-8.85923
足	-8.86375
太	-8.86382
賦	-8.86401
質	-8.86416
波	-8.86685
託	-8.86947
滿	-8.87058
樹	-8.87062
河	-8.87081
鳯	-8.87147
禮	-8.87175
豈	-8.87194
條	-8.87198
仁	-8.87228
援	-8.87299
須	-8.87311
迫	-8.87317
違	-8.87325
端	-8.87338
寧	-8.87394
興	-8.87739
集韻	-8.87923
説文云	-8.88653
化	-8.88673
不同	-8.88742
罔	-8.89014
幽	-8.89018
也補	-8.89119
所謂	-8.89675
聼	-8.89866
群	-8.8996
誰	-8.90821
伏	-8.90903
元	-8.91055
紂	-8.91069
以喻	-8.91072
畫	-8.91092
隨	-8.91362
下有	-8.91716
舊	-8.9267
民	-8.92807
去聲	-8.93736
折	-8.93811
性	-8.94154
苗	-8.94477
逺遊	-8.94617
獲	-8.94843
朱	-8.94864
冥	-8.94911
也𥙷曰	-8.94927
史	-8.94985
后	-8.95022
荷	-8.95068
愈	-8.95074
千	-8.95095
唐	-8.9512
曾	-8.95148
狀	-8.95154
見騷經	-8.95175
圓	-8.9538
蒲	-8.95581
十	-8.95602
兹	-8.95651
非是	-8.95702
二切	-8.96467
堂	-8.96633
惑	-8.96729
五臣	-8.97028
首	-8.9777
魂乎歸徠	-8.97816
釋	-8.98008
芷	-8.98146
任	-8.98331
存	-8.98512
越	-8.98532
逢	-8.98576
附	-8.98731
轉	-8.99034
武	-8.99051
冀	-8.99071
甚	-8.99078
師	-8.99082
運	-8.99116
鬱	-8.99199
者也	-8.99212
平聲	-8.99266
娛	-8.9927
寃	-8.99273
酒	-8.99282
絕	-8.99335
逰	-8.99385
丘	-9.00091
二音	-9.00135
七	-9.00734
星	-9.01155
州	-9.022
舜	-9.02748
智	-9.03197
法	-9.03211
菊	-9.03385
危	-9.03437
聚	-9.03465
梁	-9.03543
黑	-9.03613
辟	-9.03614
茞	-9.03638
幸	-9.03653
仰	-9.03654
寳	-9.03676
去也	-9.03688
顚	-9.03709
旋	-9.0373
漠	-9.03759
索	-9.03764
步	-9.03789
察	-9.03937
害	-9.04156
徑	-9.04506
九歌	-9.04928
潔	-9.0517
寒	-9.05183
此言	-9.05214
識	-9.05362
昭	-9.05936
也言巳	-9.06125
章	-9.06797
號	-9.07008
春	-9.07021
受	-9.07115
毁	-9.07315
草木	-9.07412
天下	-9.07493
味	-9.07631
貞	-9.07779
渉	-9.07883
湯	-9.07964
誤	-9.08045
孫	-9.08075
泥	-9.08086
兩	-9.08101
眞	-9.08102
荃	-9.08138
就	-9.0814
冤	-9.0816
散	-9.08195
䇿	-9.08207
滛	-9.08224
擊	-9.08296
思念	-9.08538
淹	-9.08607
虛	-9.08764
貌也	-9.08774
良	-9.08883
刺	-9.09163
飾	-9.10236
聊	-9.10544
蔽	-9.11632
商	-9.11703
騰	-9.11781
愍	-9.12138
告	-9.12152
急	-9.12407
怨	-9.12559
舞	-9.12729
萬	-9.12745
驅	-9.12778
縁	-9.12808
馮	-9.12815
伐	-9.12824
衰	-9.1287
眾	-9.12926
撫	-9.12926
面	-9.12944
宗	-9.12953
衆人	-9.12955
小人	-9.12982
八	-9.12991
鍾	-9.12992
聖	-9.13065
陶隠居云	-9.1318
夜	-9.13935
圎	-9.1426
羮	-9.14295
上有	-9.14542
退	-9.146
怒	-9.14673
句	-9.14819
崑崙	-9.15099
公	-9.15351
口	-9.15457
湘	-9.1572
沈	-9.1622
親	-9.16237
戲	-9.16441
叢	-9.16565
叶韻	-9.16587
而生	-9.16721
記	-9.17306
瓊	-9.17345
委	-9.17372
禹	-9.17377
蹇	-9.17444
舒	-9.17527
九章	-9.17606
增	-9.17622
屋	-9.17636
所居	-9.17651
共	-9.17702
留	-9.17755
嘉	-9.17768
笑	-9.17822
沙	-9.17833
帶	-9.17872
建	-9.17878
升	-9.17888
蒿	-9.179
偽	-9.17904
佚	-9.17904
益	-9.17904
特	-9.17907
歲	-9.17921
徐	-9.17923
愚	-9.17943
旁	-9.17954
寂	-9.17958
諌	-9.1797
射	-9.17974
天問	-9.17976
顛	-9.18026
垂	-9.18042
没	-9.18046
故曰	-9.18279
羌	-9.18405
逺去	-9.1878
楚國	-9.18999
申	-9.19069
不知	-9.19119
積	-9.19194
皃也	-9.19271
治	-9.19479
羅	-9.19622
痛	-9.19774
疾	-9.20735
之中	-9.20793
定	-9.2091
忠信	-9.21062
𥙷	-9.21417
宮	-9.21996
顔	-9.22199
鮌	-9.22862
辛	-9.2289
俊	-9.229
枯	-9.22961
母	-9.23019
布	-9.2303
増	-9.23061
爭	-9.23097
㓗	-9.23129
操	-9.23132
縱	-9.23144
聴	-9.23155
位	-9.23169
怪	-9.23202
頭	-9.23228
會	-9.23239
寶	-9.23262
不得	-9.23501
考	-9.23542
亂曰	-9.24137
窮	-9.24774
浮	-9.24849
榮	-9.2527
喜	-9.25276
憂也	-9.25377
毀	-9.26092
沒	-9.26257
尤	-9.2712
河伯	-9.27273
之士	-9.27515
貴	-9.27774
角	-9.27833
庭	-9.27845
制	-9.27921
守	-9.28022
讒佞	-9.2827
序	-9.28356
芝	-9.28416
鴻	-9.28465
威	-9.28494
夕	-9.28542
斷	-9.28577
毛	-9.2859
揺	-9.28594
父	-9.28598
左	-9.28641
􁓒	-9.28715
棘	-9.28718
蛇	-9.28722
傾	-9.28722
臯	-9.2874
倚	-9.28747
鳳皇	-9.28761
慕	-9.28769
接	-9.28773
謟	-9.28777
班	-9.2882
濳	-9.28831
雞	-9.28839
電	-9.28846
荼	-9.28912
苟	-9.29102
室	-9.29133
作而	-9.3033
種	-9.30354
息	-9.30388
功	-9.30767
遺	-9.30942
也音	-9.31144
君之	-9.31472
俱	-9.31498
之山	-9.31839
雅	-9.32235
慮	-9.32247
音同	-9.32377
改	-9.32483
菅	-9.33366
待	-9.33577
空	-9.33968
抑	-9.34015
適	-9.3405
放逐	-9.3408
據	-9.34203
避	-9.34235
倡	-9.34269
緑	-9.3429
昔	-9.34339
姓	-9.34379
衡	-9.34412
杜	-9.3443
蓴	-9.34459
娱	-9.34461
註	-9.34473
滅	-9.34486
愛	-9.34497
各	-9.34498
征	-9.34499
厥	-9.34502
想	-9.34509
傅	-9.34514
茅	-9.3453
炎	-9.34555
羿	-9.34558
虞	-9.34579
塗	-9.34611
茍	-9.34613
衞	-9.34622
披	-9.34639
浮雲	-9.34647
走	-9.34654
又有	-9.34655
黨	-9.34661
侯	-9.34667
總	-9.34671
《	-9.34679
羹	-9.34683
楊	-9.34698
楚詞補注巻	-9.34698
掩	-9.34713
艾	-9.34733
伊	-9.3479
謀	-9.34968
楸	-9.34987
自傷	-9.35028
天帝	-9.35335
遭	-9.35392
也言已	-9.36073
昏	-9.36903
莞	-9.36996
殊	-9.37288
也一曰	-9.37522
王逸	-9.37625
匹	-9.37757
竄	-9.37903
餘	-9.38408
悴	-9.38634
郭璞註	-9.38959
依	-9.38972
忠信之	-9.39377
䜛	-9.39392
旗	-9.39834
但	-9.39861
芙蓉	-9.3994
氷	-9.40091
清潔	-9.40216
逐	-9.40382
遷	-9.40388
竒	-9.40397
緣	-9.40435
珠	-9.40455
渡	-9.40461
備	-9.40475
羊	-9.4067
翔	-9.40672
扵	-9.40719
闕	-9.40744
侍	-9.40746
舟	-9.40771
蘇	-9.40781
循	-9.40782
弱	-9.40783
南方	-9.40792
静	-9.40808
薺	-9.40815
㳺	-9.40826
闗	-9.40843
飲	-9.40865
墜	-9.40868
教	-9.40874
勢	-9.40881
追	-9.40888
阿	-9.40888
犇	-9.40892
延	-9.40895
慿	-9.40898
儀	-9.40901
獸	-9.40905
圃	-9.40911
;	-9.40914
汙	-9.40931
强	-9.4094
潛	-9.4095
校書郎臣王逸上	-9.40955
髪	-9.40955
迴	-9.4097
東西	-9.40975
里	-9.41002
辛夷	-9.41235
谷	-9.41565
山海經	-9.41819
至也	-9.42462
皐	-9.42716
又云	-9.42819
私	-9.42843
䛕	-9.43006
靜	-9.43041
逸	-9.43071
千里	-9.44384
九辯	-9.44876
衛	-9.44979
加	-9.45541
懼	-9.45739
法也	-9.45799
招	-9.45823
遊戲	-9.45909
旌	-9.4606
問	-9.4608
惜	-9.46272
諛	-9.46386
輔	-9.46517
堯	-9.46592
起	-9.46687
註云	-9.46746
心中	-9.46765
推	-9.46807
仁傑按	-9.46927
設	-9.47095
字補曰	-9.47184
眩	-9.47201
才	-9.47206
仁義	-9.47273
忠正	-9.47421
清白	-9.47426
晉	-9.47435
夭	-9.47438
瑶	-9.47443
蘋	-9.47447
植	-9.47448
薦	-9.47465
約	-9.47467
池	-9.47481
祭	-9.47482
膏	-9.47498
龜	-9.47506
眇眇	-9.47519
咸	-9.47524
具	-9.47526
熟	-9.4753
短	-9.47539
握	-9.47542
困	-9.47548
景	-9.47549
含	-9.47552
幹	-9.47559
𤼵	-9.47564
敎	-9.47587
拂	-9.47589
致	-9.4759
專	-9.47591
桑	-9.47598
愽	-9.4761
憑	-9.47616
凌	-9.47617
覩	-9.47618
決	-9.4762
帷	-9.47636
卷	-9.47649
夲	-9.47649
􁛜	-9.47661
配	-9.4768
臧	-9.47745
夫何	-9.4813
君也	-9.48268
免	-9.48613
名也	-9.48771
補曰説文	-9.49379
戾	-9.50271
降	-9.5075
禄	-9.50935
仕	-9.51218
亦有	-9.51608
奇	-9.51629
菌	-9.51643
君子	-9.52018
終不	-9.52493
洲	-9.52686
東方	-9.52884
仙	-9.5304
愁思	-9.53173
其葉	-9.53193
悔	-9.53253
海	-9.53317
淮南	-9.5357
敗	-9.53592
太一	-9.53614
志意	-9.5372
漸	-9.5388
録	-9.53885
葍	-9.53895
孔	-9.53909
》	-9.53965
秦	-9.53988
之所	-9.54032
應	-9.54146
飄	-9.54336
芬	-9.54389
涼	-9.545
雷	-9.54522
蘘荷	-9.54542
葯	-9.54583
詳	-9.54585
火	-9.54595
關	-9.54599
米	-9.546
殷	-9.54606
肆	-9.54608
獻	-9.54642
罪	-9.54643
置	-9.54656
客	-9.54673
厯	-9.54674
鎭	-9.54691
温	-9.54696
霓	-9.54711
兆	-9.54722
差	-9.54726
累	-9.54728
讒䛕	-9.54733
迹	-9.5474
遥	-9.5474
旦	-9.54744
蟻	-9.54747
隘	-9.5475
大招	-9.54762
氛	-9.54766
藂	-9.54768
福	-9.54774
許	-9.54799
􁂆	-9.54803
来	-9.54823
僞	-9.54824
睹	-9.54844
策	-9.54986
意欲	-9.55082
然則	-9.55273
選	-9.55491
皆有	-9.55536
人也	-9.55537
氏	-9.5677
也又	-9.56925
黄帝	-9.5715
毒	-9.57228
之神	-9.5753
何所	-9.57783
驚	-9.58356
濁	-9.58594
葛	-9.58722
側	-9.58848
祿	-9.5885
舊音	-9.58973
期	-9.59039
蔓	-9.59282
也詩	-9.59702
嚴	-9.59887
妃	-9.60706
曼	-9.60804
烝	-9.61235
營	-9.61387
騖	-9.61387
何以	-9.6141
弟	-9.61515
殺	-9.61532
抱	-9.61962
南北	-9.61969
蓮	-9.61999
臺	-9.62004
蜀	-9.62033
肉	-9.62051
諸侯	-9.62059
赴	-9.62181
巧	-9.62203
養	-9.62207
忍	-9.62295
支	-9.623
遵	-9.6231
魄	-9.62328
吐	-9.62356
畢	-9.62358
髮	-9.62363
卧	-9.62364
權	-9.62373
輪	-9.62388
簡	-9.62394
鐘	-9.62394
穴	-9.62395
謬	-9.62396
廉	-9.62399
:	-9.62405
究	-9.62406
滑	-9.62417
城	-9.62428
騁	-9.6243
徂	-9.62432
􁇻	-9.62433
倫	-9.62437
戎	-9.62437
維	-9.62438
白色	-9.62445
敷	-9.62448
鴈	-9.6245
辨	-9.62451
涕	-9.62452
子胥	-9.62454
麤	-9.62464
投	-9.62485
弓	-9.62495
􁈔	-9.62497
驥	-9.62499
嗟	-9.62534
移	-9.62551
形體	-9.62591
北方	-9.62651
苦菜	-9.62677
文選	-9.62746
圖經云	-9.62756
失志	-9.62947
意中	-9.6304
傳曰	-9.63243
詩曰	-9.6327
楚詞	-9.63864
之徒	-9.63946
忿	-9.64254
也或曰	-9.64601
黃帝	-9.64681
言日	-9.6497
尊	-9.65008
之詞	-9.6558
厚也	-9.65692
感	-9.66117
不用	-9.66627
飾也	-9.66881
順	-9.66888
連	-9.66954
無有	-9.66965
子曰	-9.67163
之意	-9.67188
船	-9.67251
裳	-9.67273
紀	-9.67278
務	-9.67292
譖	-9.67318
止也	-9.67416
徙	-9.67432
而不能	-9.67497
與此	-9.67568
而自	-9.67608
閔	-9.67752
渚	-9.6833
中有	-9.68534
也言己	-9.68823
陶	-9.68858
恨	-9.69058
麻	-9.69106
超	-9.69233
魂兮歸來	-9.69484
交	-9.69609
厭	-9.69749
濵	-9.70028
涉	-9.70204
蓀	-9.70266
吕	-9.70285
吟	-9.70328
畔	-9.70347
也一本	-9.70399
偃蹇	-9.70404
郎	-9.70414
造	-9.70421
手	-9.70435
坎	-9.7045
宋	-9.70462
祀	-9.70498
業	-9.70506
之不	-9.70509
糧	-9.70538
界	-9.70547
苴	-9.70556
下音戸	-9.70612
鮮	-9.70649
陷	-9.70664
到	-9.70666
凉	-9.70678
茂	-9.70682
促	-9.70688
稷	-9.70691
収	-9.70696
効	-9.70699
䧟	-9.70703
兔絲	-9.70704
㝠	-9.70707
狹	-9.70712
并	-9.70715
藥	-9.70715
銜	-9.70717
伯	-9.70723
臨	-9.7073
醢	-9.70732
矢	-9.70736
蕩	-9.70737
叙	-9.70743
習	-9.70744
梅	-9.7075
水中	-9.70753
决	-9.70755
彌	-9.70757
鳯皇	-9.70759
熊	-9.70765
調	-9.70771
莽	-9.70774
烈	-9.70787
燿	-9.70788
比干	-9.70789
戚	-9.70798
汚	-9.70799
貫	-9.70802
玊	-9.70809
:「	-9.7081
撓	-9.70821
踰	-9.70825
澆	-9.70826
扶	-9.70834
薜茘	-9.7084
年嵗	-9.70843
誓	-9.7085
冥冥	-9.70862
俾	-9.70912
迎	-9.70986
神明	-9.71018
鯀	-9.71019
史記作	-9.71602
淮南云	-9.71753
川	-9.71951
其實	-9.71967
觸	-9.72009
精神	-9.72027
不遇	-9.72075
也詩曰	-9.72184
之外	-9.72268
所以	-9.72356
有也字	-9.72356
君不	-9.7259
於是	-9.72753
章句第	-9.72813
而見	-9.72822
邑	-9.72847
也五臣	-9.72862
蘼蕪	-9.73475
一種	-9.73637
立也	-9.74362
光明	-9.74384
逺逝	-9.74667
第	-9.74704
暮	-9.75015
言君	-9.75134
芬芳	-9.75664
也詩云	-9.7578
行也	-9.75899
舩	-9.7605
宇	-9.76057
爛	-9.76077
憤	-9.76341
而長	-9.7671
逺兮	-9.77013
上下	-9.7705
墮	-9.77535
叢生	-9.77772
妬	-9.77819
帝謂	-9.77896
忠直	-9.78243
而行	-9.78293
淮	-9.78306
師古云	-9.78342
鬼	-9.78357
頽	-9.78364
惠	-9.78414
御	-9.78466
病	-9.78656
美也	-9.7866
友	-9.78796
而無	-9.78904
凡	-9.78907
博雅	-9.79258
武王	-9.79338
遽	-9.79455
廟	-9.79499
遑	-9.79536
荒	-9.79548
忠貞	-9.79562
紆	-9.79603
顯	-9.79607
再	-9.79609
勝	-9.79634
閑	-9.79676
展	-9.79683
妙	-9.79684
輕	-9.79695
鈍	-9.79699
翼	-9.79719
規	-9.7972
邊	-9.79735
嘉祐圖經云	-9.79735
薜荔	-9.79741
昌	-9.79741
圜	-9.79748
尾	-9.79748
田	-9.79756
臭	-9.79758
輿	-9.79758
敖	-9.79759
鋭	-9.79783
菖蒲	-9.79784
顏	-9.79797
圗	-9.79798
紅	-9.79804
播	-9.79805
別	-9.79807
屏翳	-9.79816
薠	-9.79817
賢愚	-9.79824
雀	-9.79825
甞	-9.79826
唯	-9.79829
翺翔	-9.79832
女蘿	-9.79839
鳬	-9.7984
篤	-9.79841
冰	-9.79844
蓄	-9.79849
賤	-9.7985
悦	-9.79852
欵	-9.79858
閭	-9.79862
內	-9.79862
汗	-9.79865
脱	-9.79867
駟	-9.79867
肝	-9.79868
春秋	-9.79869
訾	-9.79872
揔	-9.79879
柴	-9.79881
芳與澤其雜糅兮	-9.79881
叩	-9.79886
單	-9.79886
芒	-9.79888
七諫	-9.79888
收	-9.79895
弗	-9.79897
攝	-9.79899
綿	-9.79902
躬	-9.79904
訓	-9.79916
束	-9.7992
松	-9.79931
繩	-9.79932
逞	-9.79932
每	-9.7995
放弃	-9.79958
弧	-9.79958
富	-9.79961
向	-9.79962
年歳	-9.79965
䖏	-9.79967
志也	-9.79983
道也	-9.79991
蛟龍	-9.79992
太息	-9.80002
然後	-9.80011
議	-9.80018
仁傑按山海經	-9.80019
博雅云	-9.80095
堅	-9.80267
江離	-9.80298
内傷	-9.80409
㢮	-9.80556
門也	-9.81625
注同	-9.81627
所云	-9.81777
之類	-9.82135
杜蘅	-9.82166
忠臣	-9.82215
百草	-9.82296
以言	-9.82415
一作不	-9.82506
憂心	-9.82599
人謂之	-9.82964
疾也	-9.83079
賢也	-9.83118
撃	-9.83247
香草也	-9.83745
可食	-9.83909
之名	-9.83913
山澤	-9.83929
潔白	-9.84223
􁪡	-9.84708
席	-9.84785
之人	-9.85298
西北	-9.85447
郭璞	-9.85622
晦	-9.85748
司命	-9.85842
素	-9.85984
便	-9.86033
穢	-9.86047
呼為	-9.86199
黙	-9.86261
處也	-9.86334
其志	-9.86365
凶	-9.86404
徧	-9.86509
莊子曰	-9.86555
阻	-9.86559
枉	-9.86608
納	-9.87184
工	-9.87786
以此	-9.8782
鳥也	-9.87931
而後	-9.87946
患	-9.88027
熱	-9.88204
為之	-9.88265
周流	-9.88638
蘅	-9.88741
賢人	-9.88951
号	-9.89062
浴	-9.89102
他	-9.89168
徴	-9.89284
騷	-9.89329
尺	-9.89364
女嬃	-9.89372
容與	-9.89381
漁父	-9.89385
煩	-9.89386
翳	-9.89397
諷	-9.89482
刀	-9.89485
郭	-9.89487
山鬼	-9.89574
汜	-9.89595
貪	-9.89604
卬	-9.89605
祠	-9.89624
醫	-9.89626
句末	-9.89636
秀	-9.89636
召	-9.89656
綴	-9.8968
芰	-9.89713
保	-9.89721
刑	-9.89723
犬	-9.89726
耀	-9.89726
壄	-9.89735
洞	-9.89739
木蘭	-9.89746
捐	-9.89748
􁓣	-9.89757
蕭	-9.89772
􁚍	-9.89772
傑	-9.89773
峻	-9.89786
榖	-9.89789
半	-9.89792
滯	-9.89797
陞	-9.898
懲	-9.8981
沅	-9.89814
刻	-9.89815
封	-9.8982
箘	-9.8982
妄	-9.89827
葅	-9.89828
乾	-9.89831
白芷	-9.89834
疎	-9.89836
隅	-9.8984
鶩	-9.89842
㧞	-9.89844
皷	-9.89844
驕	-9.89844
瀨	-9.89847
籠	-9.89849
矯	-9.8985
愆	-9.89852
堅固	-9.89854
房	-9.89856
榝	-9.8986
賔	-9.89861
脂	-9.89862
驟	-9.89867
昇	-9.8987
銳	-9.89871
悵	-9.89871
庸	-9.89879
寥	-9.89879
呴	-9.89883
洞庭	-9.89883
消	-9.89887
䕃	-9.89889
狐疑	-9.89889
瀬	-9.89894
詬	-9.89894
愬	-9.89901
吞	-9.89903
悉	-9.89903
􁂄	-9.89906
四月	-9.8991
陟	-9.89911
萍	-9.89916
濿	-9.89916
叶	-9.89919
零	-9.89922
庶	-9.89924
阨	-9.89926
萃	-9.89941
鼂	-9.89946
蔽日	-9.89957
三月	-9.89959
菉	-9.89962
賦云	-9.89966
棲	-9.89968
秉	-9.8997
塺	-9.89975
耦	-9.89978
於悒	-9.8998
國家	-9.89983
蛾	-9.89991
邁	-9.89993
柔	-9.89993
京	-9.89996
脅	-9.89998
叛	-9.89998
牡桂	-9.89999
誤矣	-9.90007
艸	-9.90009
躊躇	-9.90017
自憐	-9.90023
摽	-9.90026
雍	-9.90031
羣小	-9.90104
怨思	-9.9011
柏	-9.90118
放棄	-9.90178
大夫	-9.90243
茹	-9.90246
將去	-9.90377
淩	-9.90619
不合	-9.90806
玉名	-9.90836
郭璞云	-9.90871
官切	-9.90895
憤懣	-9.91054
之處	-9.91173
也以一作而	-9.91257
也一無而字	-9.91684
所生	-9.92541
中情	-9.92998
憂愁	-9.93147
聖人	-9.933
内自	-9.93314
襃	-9.93463
道德	-9.93649
讀作	-9.93974
道徳	-9.94043
自沈	-9.94053
採	-9.94125
厚	-9.94176
鼔	-9.94294
並音	-9.9448
古人	-9.94604
囿	-9.94685
紫色	-9.94744
之道	-9.9479
取其	-9.95009
山中	-9.95077
偶	-9.95584
故言	-9.95933
賢者	-9.96303
杜若	-9.96436
戾也	-9.96622
山名	-9.96638
韻	-9.96729
假	-9.96758
又曰	-9.96831
美人	-9.97067
曉	-9.97326
古本	-9.97522
奉	-9.9764
唐本註云	-9.98178
仙人	-9.98284
術	-9.98483
音俞	-9.98851
歸來	-9.99119
美者	-9.99292
迅	-9.99633
塵	-9.99712
衍	-9.9973
天地	-9.99796
鵠	-9.99801
余兮	-9.99813
述	-9.9995
迷	-9.99962
孝	-10.0004
寤	-10.001
左右	-10.0023
江東	-10.0027
騷經	-10.0034
髙舉	-10.0044
盈	-10.0048
禮記	-10.0054
墨	-10.0055
果	-10.0058
源	-10.0063
寄	-10.0064
粉	-10.0065
鷄	-10.0066
儲	-10.0066
愼	-10.0067
飽	-10.0069
丹	-10.0069
劒	-10.0069
葦	-10.007
管	-10.0071
效	-10.0071
淺	-10.0075
溪	-10.0075
壹	-10.0075
嘗	-10.0076
娭	-10.0076
閉	-10.0077
阜	-10.0078
頗	-10.0078
佯	-10.0081
露	-10.0082
雪	-10.0083
前也	-10.0083
燕	-10.0083
婦	-10.0084
崇	-10.0084
壊	-10.0085
諂	-10.0086
純	-10.0087
浦	-10.0087
𦕈	-10.0089
泣	-10.0089
憫	-10.0089
離騷經	-10.0089
記云	-10.009
蓬	-10.009
稻	-10.0091
廢	-10.0091
尋	-10.0092
網	-10.0092
幼	-10.0092
嫩	-10.0092
叔	-10.0092
鄙	-10.0093
恱	-10.0093
徠	-10.0093
錫	-10.0093
讓	-10.0093
㫁	-10.0093
鴟	-10.0093
釣	-10.0093
劉向	-10.0094
巫	-10.0094
疲	-10.0095
咸池	-10.0095
涯	-10.0095
随	-10.0095
屏	-10.0095
戶	-10.0095
鑿	-10.0095
魂乎徠歸	-10.0096
朋	-10.0096
洋洋	-10.0096
稍	-10.0096
啾啾	-10.0097
傲	-10.0097
謡	-10.0097
况	-10.0098
卑	-10.0098
吸	-10.0098
胥	-10.0098
豐	-10.0098
斯	-10.0098
巡	-10.0099
苑	-10.0099
包	-10.0099
昧	-10.0099
亷	-10.0099
𤓰	-10.01
晝	-10.01
帳	-10.01
隔	-10.0101
苖	-10.0101
聮	-10.0101
殆	-10.0102
抽	-10.0102
株	-10.0102
叫	-10.0102
冠	-10.0102
巨	-10.0102
渴	-10.0102
諭	-10.0103
低	-10.0103
飄風	-10.0103
遙	-10.0104
㢘	-10.0104
悽	-10.0105
搴	-10.0105
麥	-10.0106
風伯	-10.0106
敶	-10.0106
摧	-10.0106
􁌁􁌁	-10.0106
拔	-10.0107
從容	-10.0108
見九歌	-10.0111
雲從	-10.0112
尹	-10.0113
白蒿	-10.0113
慄	-10.0115
其花	-10.0117
壄一作野	-10.012
苓	-10.0121
膓	-10.0125
列子	-10.0126
正直	-10.0131
洪慶善云	-10.0132
襲	-10.014
梓	-10.0149
結實	-10.0149
逺離	-10.0162
周行	-10.0167
中心	-10.0175
所在	-10.0194
其一	-10.0198
之行	-10.02
之上	-10.0242
何故	-10.0249
道兮	-10.0262
曲也	-10.0264
不别	-10.0272
或作	-10.0285
下同	-10.0297
本草有	-10.0307
兮上	-10.0307
俞	-10.031
心悲	-10.0332
一作以	-10.0362
壞	-10.0363
當作	-10.0372
言巳欲	-10.0386
食之	-10.0437
憂思也	-10.0447
遠兮	-10.0511
不若	-10.0533
欿	-10.0546
移也	-10.0552
路兮	-10.0594
又音	-10.0602
謀也	-10.0614
過之	-10.0642
貌也言	-10.0657
即今	-10.0683
之意也	-10.0772
憂思	-10.0773
修潔	-10.0811
治也	-10.0824
釋文第十	-10.085
獨行	-10.085
害也	-10.0862
九月	-10.0906
除	-10.0931
▁兮	-10.0932
何爲	-10.0947
髙山	-10.0953
伊尹	-10.0957
逝兮	-10.0968
高山	-10.0971
不周	-10.0974
沸	-10.0985
惻	-10.1
潤	-10.1
逃	-10.1002
生水	-10.1008
之甚	-10.1018
月	-10.1021
器	-10.1026
也一無	-10.1066
言之	-10.108
已之	-10.109
兒	-10.1098
巖	-10.1123
椉	-10.1147
此意	-10.1157
數也	-10.1178
路也	-10.1179
爲之	-10.1202
諱	-10.124
蘆	-10.1241
徘徊	-10.1242
而已	-10.1253
雨師	-10.1271
紛亂	-10.1277
溷濁	-10.1283
峨峨	-10.129
藑	-10.1295
沅湘	-10.1295
裔	-10.13
晏	-10.1307
十二	-10.131
葬	-10.131
宅	-10.131
國殤	-10.1311
敢	-10.1312
斥	-10.1312
招䰟	-10.1316
乖	-10.132
濡	-10.1324
娯	-10.1324
姑	-10.1324
雄	-10.1325
邈	-10.1325
孤	-10.1328
梗	-10.1329
出於此	-10.133
繼	-10.1331
懈	-10.1331
臻	-10.1331
橘柚	-10.1331
東皇太一	-10.1331
晩	-10.1331
奔	-10.1332
㝷	-10.1332
師延	-10.1333
兼	-10.1333
伍	-10.1333
虹	-10.1333
禦	-10.1333
軒	-10.1333
三危	-10.1334
囊	-10.1335
齒	-10.1335
后土	-10.1336
柘	-10.1336
嶺	-10.1337
戰	-10.1337
楚辭	-10.1337
鎮	-10.1337
曵	-10.1337
山谷	-10.1338
式	-10.1338
柱	-10.1338
殛	-10.1338
牙	-10.1338
傺	-10.1339
憍吾以其美好兮	-10.1339
於後	-10.134
垢	-10.134
恣	-10.134
晚	-10.134
陿	-10.1341
溢	-10.1341
猨	-10.1341
律	-10.1341
廻	-10.1342
雲中君	-10.1342
振	-10.1343
寗戚	-10.1343
軫	-10.1343
蔞	-10.1343
踵	-10.1343
堯舜之抗行兮	-10.1343
浞	-10.1343
四海	-10.1343
猶豫	-10.1343
啇	-10.1344
曹	-10.1344
曷	-10.1344
脫	-10.1344
􁫛	-10.1344
罰	-10.1344
休	-10.1345
踈	-10.1345
􁁛	-10.1345
楹	-10.1345
杜衡	-10.1345
嬴	-10.1345
牀	-10.1346
㫖	-10.1346
暑	-10.1346
濕	-10.1346
秘	-10.1346
啼	-10.1346
瞀	-10.1346
壓	-10.1346
態	-10.1347
窺	-10.1347
𢷬	-10.1347
恖	-10.1347
漫	-10.1347
欽定四庫全書楚詞補注巻	-10.1347
何時俗之工巧兮	-10.1347
相視也	-10.1347
惜誦	-10.1347
喟	-10.1347
弋	-10.1348
絓	-10.1348
筮	-10.1348
荅	-10.1348
溪蓀	-10.1348
弘	-10.1348
褊	-10.1348
擥	-10.1348
咎	-10.1348
繚	-10.1348
況	-10.1348
中央	-10.1349
􁒅	-10.1349
丁	-10.1349
彷徉	-10.1349
斡	-10.1349
濟	-10.1349
欽定四庫全書楚詞補注巻十	-10.1349
畛	-10.1349
鄰	-10.1349
胄	-10.135
霄	-10.135
脉	-10.135
畹	-10.135
蘭膏明燭	-10.135
畜	-10.1351
蔡	-10.1351
勺	-10.1351
雲師	-10.1351
嬋	-10.1351
儼	-10.1351
庾	-10.1351
恒	-10.1352
袪	-10.1352
杭	-10.1352
繡	-10.1352
􁌁	-10.1353
騎	-10.1353
暇	-10.1353
喪	-10.1353
音佛	-10.1353
􁍩	-10.1354
争	-10.1355
陳藏器云	-10.1356
仿偟	-10.1356
㨗	-10.1356
奴	-10.1357
讒言	-10.1357
晨	-10.1357
嗼	-10.1358
普	-10.1358
𢎞	-10.1358
凝	-10.1359
進退	-10.1359
芎	-10.1359
擗	-10.1359
拘	-10.136
卭	-10.136
丈	-10.1361
壇	-10.1361
變易	-10.1362
詘	-10.1362
負	-10.1362
瞻	-10.1363
悲泣也	-10.1363
豆	-10.1364
虫	-10.1366
惆悵	-10.1367
寡	-10.1368
碎	-10.1368
朗切	-10.1368
形容	-10.1369
美玉	-10.1369
眇	-10.1371
列宿	-10.1371
菰	-10.1372
年老	-10.1372
莖葉	-10.1373
湘君	-10.1376
􁁍	-10.1376
按本草	-10.1377
淮南子云	-10.138
深水	-10.138
韻作	-10.1381
用此語	-10.1383
思慕	-10.1384
一物	-10.1385
無聊	-10.1386
毅	-10.1386
引此	-10.1387
仟	-10.1387
音骨	-10.1393
小山	-10.1394
蟫	-10.1395
而得	-10.1396
天命	-10.1398
東君	-10.14
衆多	-10.1405
天地之	-10.1415
不識	-10.1419
切又音	-10.1421
音豪	-10.1433
貎也	-10.1434
世俗	-10.1436
衽	-10.1447
成行	-10.1454
明智	-10.1472
亦云	-10.1476
使之	-10.149
言已既	-10.1491
而日	-10.1499
力切	-10.1501
倚立	-10.1505
其華	-10.1517
文云	-10.1521
十日	-10.1541
其義	-10.1546
歎曰	-10.1548
古作	-10.1588
逺望	-10.1613
而葉	-10.1627
時也	-10.163
志不	-10.1643
言楚	-10.1648
古之	-10.1649
結切	-10.1676
導	-10.1732
郢都	-10.1798
地名	-10.1882
䰟兮歸來	-10.1899
遂見	-10.1906
有德	-10.1942
嫉妬	-10.1948
匿	-10.1962
人之	-10.1969
艱難	-10.1976
説文曰	-10.1976
屈子	-10.2001
其上	-10.2019
本作	-10.2031
匹也	-10.2059
言楚國	-10.2133
瑟	-10.2135
生於	-10.2188
壁	-10.2191
崑崙之	-10.2191
之情	-10.2201
而巳	-10.2212
四時	-10.2228
補曰此	-10.2267
國也	-10.227
之法	-10.2297
大也	-10.2324
讒人	-10.2334
毒也	-10.2341
集韻作	-10.2351
清也	-10.2364
盛也	-10.2367
也本草	-10.2391
十一	-10.2399
如此	-10.2402
皃補曰	-10.2402
豫	-10.2423
洪慶善曰	-10.2431
隠士	-10.2447
𤣥冥	-10.2459
日出	-10.2465
故以	-10.2497
往來	-10.2499
愁苦	-10.2517
史記云	-10.2547
澤也	-10.2556
昌陽	-10.2561
慘	-10.2573
讀	-10.2596
之厚	-10.2615
安也	-10.2616
利	-10.2642
案	-10.2644
盛貌	-10.2644
寸	-10.2652
罷	-10.2667
郢	-10.2673
云今	-10.268
水名	-10.2685
眠	-10.2699
像	-10.2699
虎	-10.27
骨	-10.2708
姱	-10.2713
隂陽	-10.2715
䰟魄	-10.2716
用之	-10.2716
湘夫人	-10.2724
荆	-10.2724
十四	-10.2728
别名	-10.2731
充	-10.2733
葺	-10.2733
血	-10.2734
尖	-10.2734
雌	-10.2736
鹿	-10.2736
攘	-10.2737
證	-10.2738
蒼梧	-10.2738
孟	-10.2739
胷	-10.2746
礚	-10.2747
格	-10.2749
溷	-10.2749
岡	-10.275
菌桂	-10.275
寐	-10.275
繪	-10.2751
柚	-10.2751
慎	-10.2752
浮遊	-10.2752
學	-10.2754
虬	-10.2757
豐隆	-10.2757
屑	-10.2757
省	-10.2757
浩	-10.2758
忌	-10.2759
琴	-10.2759
巒	-10.2761
辰	-10.2761
膺	-10.2761
腸	-10.2762
佐	-10.2763
全	-10.2763
漫漫	-10.2763
賊	-10.2764
㸃	-10.2764
藻	-10.2764
勅	-10.2764
樸	-10.2764
契	-10.2764
肯	-10.2764
簧	-10.2765
參	-10.2765
毋	-10.2765
歧	-10.2765
新	-10.2766
題	-10.2766
賈誼	-10.2767
爽	-10.2767
酸	-10.2767
讀若	-10.2767
虖	-10.2768
翶	-10.2768
茲	-10.2768
宣	-10.2768
槁	-10.2768
溶溶	-10.2769
崑	-10.2769
醴	-10.2769
也古	-10.2769
瑤	-10.2769
沚	-10.2769
瀆	-10.277
符	-10.277
懸	-10.277
蠭	-10.277
點	-10.277
呂	-10.277
􁓖	-10.277
局	-10.2771
曁	-10.2771
典	-10.2771
萹	-10.2771
鴨	-10.2771
駿	-10.2771
等	-10.2772
蛾眉	-10.2772
裏	-10.2772
剛	-10.2772
闇	-10.2772
肻	-10.2772
詒	-10.2773
恢	-10.2773
沈江	-10.2773
刈	-10.2773
休息	-10.2773
耿	-10.2773
萬物	-10.2773
㤀	-10.2773
瞑	-10.2773
巔	-10.2774
殷湯	-10.2774
泰	-10.2774
蹇蹇	-10.2774
東坡	-10.2774
莫半切	-10.2774
宛	-10.2774
蜺	-10.2774
曜	-10.2774
披披	-10.2775
蓱	-10.2775
下有之字	-10.2775
㭊	-10.2775
狼	-10.2775
矊	-10.2775
先導	-10.2775
儔	-10.2776
祐	-10.2776
湍	-10.2776
洪慶善引	-10.2776
寵	-10.2776
虚僞	-10.2776
鄭	-10.2777
恊	-10.2777
寞	-10.2777
峕	-10.2777
純美	-10.2777
羙	-10.2777
社	-10.2777
矩	-10.2777
昂	-10.2777
竢	-10.2777
綠	-10.2777
倉	-10.2778
湏	-10.2778
東西南北	-10.2778
皎	-10.2778
陸	-10.2778
専	-10.2778
溶	-10.2778
津	-10.2778
䖀	-10.2778
栁	-10.2779
囚	-10.2779
朴	-10.2779
續	-10.278
蒔	-10.278
朋黨	-10.278
住	-10.278
欷	-10.2781
煩寃	-10.2781
捷	-10.2781
暘	-10.2781
質性	-10.2781
。2.	-10.2781
寕	-10.2781
羞	-10.2781
趨	-10.2781
虎豹	-10.2782
馨	-10.2782
贈	-10.2783
輩	-10.2784
怛	-10.2784
匈	-10.2785
婢	-10.2785
雙	-10.2786
蕉	-10.2786
腐	-10.2786
脩長也	-10.2787
蟬	-10.2787
禮魂	-10.2787
祝融	-10.2787
憭	-10.2788
骩	-10.2788
竊	-10.2788
貧	-10.2788
栗	-10.279
葱	-10.279
音了	-10.2791
繞	-10.2792
鬱鬱	-10.2792
征夫	-10.2792
蓍	-10.2792
府	-10.2793
傽	-10.2793
舊邦	-10.2793
桃	-10.2793
削	-10.2793
裹	-10.2793
草野	-10.2794
斂	-10.2794
在旁	-10.2795
道徑	-10.2795
鏤也	-10.2795
氏之	-10.2797
南陽	-10.2797
隱士	-10.2798
芎藭	-10.2798
藏匿也	-10.2799
瓣	-10.28
茗	-10.28
二月	-10.2801
薋	-10.2801
偬	-10.2802
瓜	-10.2803
功名	-10.2807
誠欲	-10.2808
似椒	-10.2808
石蘭	-10.281
椒蘭	-10.2812
吾將	-10.2815
二女	-10.2815
古本作	-10.2815
淸白	-10.2817
故欲	-10.2817
舊故	-10.2821
相似	-10.2824
憂悲	-10.2826
到切	-10.2827
貌也言已	-10.2831
江河之	-10.2836
大鳥	-10.2836
流水	-10.2839
作之	-10.2839
心愁	-10.2841
香也	-10.2848
進用	-10.2849
貌補曰	-10.2852
上聲	-10.2856
遊戲也	-10.2857
無由	-10.2859
一章	-10.2859
日光	-10.2862
乗風	-10.2864
為席	-10.288
無極	-10.2881
渉江	-10.2882
不施	-10.289
得名	-10.289
人名	-10.2894
長生	-10.2897
申重也	-10.2902
不死	-10.2904
蜀椒	-10.2907
國名也	-10.2912
補曰淮	-10.2913
歸來兮	-10.2915
薰	-10.2921
是謂	-10.2927
補曰詩云	-10.2933
而蔽之	-10.2937
江切	-10.2963
史記曰	-10.297
化為	-10.2976
羽	-10.2979
顔師古	-10.298
水也	-10.2996
而失	-10.3004
草名	-10.3006
於天	-10.3007
所能	-10.3017
也予音與	-10.3054
說文曰	-10.3078
其本	-10.3087
不及	-10.3105
經術	-10.3141
飛也	-10.3154
今之	-10.3166
首兮	-10.3179
切叶韻	-10.3205
無時	-10.3206
罔兮	-10.3218
安所	-10.3233
而難	-10.3245
兮愁	-10.3262
修行	-10.3277
原也	-10.3299
得志	-10.3303
後世	-10.3308
言司命	-10.334
髙者	-10.3345
心一	-10.3373
楚人	-10.3406
濁也	-10.3408
風俗	-10.3432
之草	-10.3449
巳解於	-10.3456
或曰	-10.3457
之水	-10.3511
極兮	-10.3524
亦作	-10.3526
其若	-10.3572
屬也	-10.3574
以下	-10.3576
匿也	-10.3581
以一	-10.3611
舉兮	-10.365
一名杜	-10.3684
兮反	-10.3699
育	-10.3724
讒邪	-10.3744
逺行	-10.378
退也	-10.3794
人呼	-10.38
甚多	-10.3862
言其	-10.3898
申生	-10.3906
之樂	-10.3912
葉如	-10.3927
其中	-10.3931
蕪	-10.3963
一作而	-10.3994
宋玉	-10.4042
朗	-10.4046
白水	-10.4046
暴	-10.4064
誅	-10.4072
而細	-10.4084
名為	-10.4085
黃昏	-10.4106
寛	-10.411
所用	-10.4122
還歸	-10.4127
正月	-10.4136
歸來歸來	-10.4144
快	-10.4146
睠	-10.4155
為正	-10.4159
修徳	-10.4171
蜀本圖經云	-10.4172
者是也	-10.4182
危殆	-10.4214
之先	-10.4219
空虚	-10.4224
傅説	-10.424
招魂	-10.425
窮極	-10.4257
言已欲	-10.4259
紫花	-10.426
夫子	-10.428
日月	-10.4297
飲食	-10.4305
忠信也	-10.4306
隕	-10.4309
豪	-10.4314
章句	-10.4325
氣味	-10.4328
巖穴	-10.4332
壅	-10.4336
卜居	-10.4351
逾	-10.4353
尚書	-10.4354
對	-10.436
肥	-10.4368
自喻	-10.4369
汨羅	-10.4379
蘭蕙	-10.4384
漢書	-10.4384
蒼	-10.4386
聦	-10.4386
救	-10.4388
濁世	-10.4391
曠	-10.4392
掲車	-10.4393
蒸	-10.4393
泉	-10.4397
江河	-10.4398
味甘	-10.44
江南	-10.4407
字解云	-10.4409
鼠莞	-10.4409
墬	-10.4409
靈均	-10.441
玦	-10.4412
莊子	-10.4414
杳杳	-10.4414
眼	-10.4415
燭	-10.4415
最	-10.4415
鳥獸	-10.4415
央	-10.4416
歡	-10.4417
桂樹	-10.4418
罹	-10.4418
校	-10.4418
仲	-10.4419
激	-10.442
邅	-10.4421
珍	-10.4422
不敢	-10.4422
黄昏	-10.4422
坐	-10.4424
𤣥鶴	-10.4424
􁊯	-10.4424
筵	-10.4424
思慮	-10.4425
慜	-10.4425
埋	-10.4426
轅	-10.4426
淨	-10.4427
芙	-10.4427
憐	-10.4427
蘂	-10.4427
苕	-10.4427
桀	-10.4427
􁍈	-10.4428
菀	-10.4428
曼曼	-10.4428
表	-10.4429
逆	-10.4429
趣	-10.4429
東方朔	-10.4429
檻楯	-10.4429
閨	-10.4429
箏	-10.4429
品	-10.443
巴	-10.443
庚	-10.443
宴	-10.4431
洶	-10.4431
驪	-10.4431
知我	-10.4431
沉	-10.4431
祖	-10.4431
牽牛	-10.4431
榭	-10.4432
災	-10.4432
魏	-10.4432
牽	-10.4433
恩	-10.4433
斐	-10.4433
唱	-10.4433
垠	-10.4434
灼	-10.4434
傍	-10.4434
。4.	-10.4434
鴂	-10.4434
掲	-10.4434
香蒲	-10.4434
像法也	-10.4434
垠音銀	-10.4434
惀之脩美兮	-10.4434
雰雰	-10.4435
徊	-10.4435
譏	-10.4435
㣻	-10.4435
速	-10.4435
玩	-10.4435
駕八龍之婉婉兮	-10.4435
塞	-10.4435
顚倒	-10.4435
箕子	-10.4436
揆度	-10.4436
夸	-10.4436
掦	-10.4436
舌	-10.4436
霤	-10.4436
豉	-10.4436
輈	-10.4436
譎	-10.4436
泠	-10.4436
億	-10.4437
葳	-10.4437
洪水	-10.4437
禽獸	-10.4437
尸	-10.4437
瑶臺	-10.4437
仇	-10.4437
縣	-10.4437
驚駭	-10.4437
庻	-10.4437
湛	-10.4437
邸	-10.4437
早	-10.4438
洛	-10.4438
姿	-10.4438
吾又何怨乎今之人	-10.4438
慶忌	-10.4438
薫	-10.4438
􁎎	-10.4438
爰	-10.4438
激楚	-10.4438
鼠	-10.4439
忳	-10.4439
禽	-10.4439
務光	-10.4439
孰知余之從容	-10.4439
歛	-10.4439
瞍	-10.4439
虵	-10.4439
蠱	-10.4439
鴞	-10.4439
翠	-10.4439
逮	-10.4439
燒	-10.4439
翥	-10.4439
妾	-10.4439
固時俗之工巧兮	-10.4439
蕤	-10.4439
詖	-10.4439
媮	-10.4439
忽忽而遒盡兮	-10.444
纎	-10.444
誰告	-10.444
崐崘	-10.444
潜	-10.444
姢	-10.444
窄	-10.444
聨	-10.444
倨	-10.444
􁎃	-10.444
崙	-10.444
旻	-10.444
卦	-10.444
不量鑿而正枘兮	-10.4441
釐	-10.4441
侵	-10.4441
聘	-10.4441
薉	-10.4441
梅伯	-10.4441
瞽	-10.4441
卒然身殺	-10.4441
怡	-10.4441
薫草	-10.4441
慨	-10.4441
刑罰	-10.4441
尓	-10.4441
含憂	-10.4441
聊逍遥兮容與	-10.4441
鬰	-10.4441
眷眷	-10.4442
轡	-10.4442
憒	-10.4442
絲	-10.4442
鋤	-10.4442
筒	-10.4442
覺	-10.4442
紛紜	-10.4442
㬰	-10.4442
之誤耳	-10.4442
駒	-10.4442
兎	-10.4442
身服義而未沬	-10.4442
櫂	-10.4443
春蘭兮秋菊	-10.4443
世並舉而好朋兮	-10.4443
羿澆	-10.4443
而深藏	-10.4443
賈	-10.4443
忡	-10.4443
謹	-10.4443
遭遇	-10.4443
媮樂	-10.4443
烹	-10.4443
與佯同	-10.4443
號鍾	-10.4443
護	-10.4443
靁	-10.4443
㓜	-10.4443
遼遼	-10.4444
慌忽	-10.4444
扁	-10.4444
􁔱	-10.4444
䕶	-10.4444
嬖	-10.4444
北辰	-10.4444
絜	-10.4444
仁智之士	-10.4444
亮	-10.4444
薆	-10.4444
旄	-10.4444
幾	-10.4444
翺	-10.4444
相佯	-10.4444
侘傺	-10.4444
愴	-10.4444
時曖曖其將罷兮	-10.4444
凋	-10.4444
思公子兮徒離憂	-10.4444
怨靈脩之浩蕩兮	-10.4444
衣裳	-10.4444
謬諫	-10.4444
啗	-10.4445
蓐收	-10.4445
枯槁	-10.4445
䜴	-10.4445
則百姓	-10.4445
忽臨睨夫舊鄉	-10.4445
俗人	-10.4445
舊本	-10.4445
間音閑	-10.4445
飛亷	-10.4445
寓	-10.4446
氣臭	-10.4446
錄	-10.4446
王芻	-10.4446
緒	-10.4446
送美人兮南浦	-10.4446
寸有所長	-10.4446
擇	-10.4446
顧龍門而不見	-10.4446
暨	-10.4446
䜛諛	-10.4446
智有所不明	-10.4446
蜩	-10.4446
駭	-10.4447
編	-10.4447
晞	-10.4447
微霜	-10.4447
潰	-10.4447
偝	-10.4447
廀	-10.4447
邃	-10.4447
盤	-10.4447
宻	-10.4448
懤	-10.4448
􁉻	-10.4448
蠆	-10.4448
雄虺九首	-10.4448
昆	-10.4448
狗	-10.4448
稷契	-10.4448
􁑾	-10.4448
嵯峨	-10.4448
羨	-10.4448
固將愁苦而終窮	-10.4448
捨	-10.4448
筝	-10.4448
慶	-10.4449
心絓結而不解兮	-10.4449
媚	-10.4449
廉潔	-10.4449
藁	-10.4449
飛翔	-10.4449
畝	-10.4449
弛	-10.4449
與女遊兮九河	-10.4449
銘	-10.445
載雲	-10.445
戀	-10.445
鉏	-10.445
程	-10.445
縹	-10.445
屈原既放	-10.445
大司命	-10.445
隨俗	-10.445
牟	-10.4451
蹠	-10.4451
四十	-10.4451
離騷草木疏	-10.4451
略	-10.4451
徾	-10.4451
巳之	-10.4451
唐虞	-10.4452
㗖	-10.4452
悠悠	-10.4452
濫切	-10.4452
􁃎	-10.4452
雉	-10.4452
飯	-10.4452
甑	-10.4452
汎淫	-10.4452
吕望	-10.4453
棗	-10.4453
衡山	-10.4453
巾	-10.4454
熊羆	-10.4454
於中庭	-10.4454
逍遥	-10.4454
窕	-10.4454
導引	-10.4454
肩	-10.4455
至秋	-10.4455
經營	-10.4455
沈身	-10.4455
廵	-10.4455
淸涼	-10.4455
霏霏	-10.4455
邵	-10.4455
感切	-10.4455
刋	-10.4456
參差	-10.4456
遭厄	-10.4456
􁍟	-10.4456
焭焭	-10.4456
虞舜	-10.4456
衆也	-10.4456
隿	-10.4456
清㓗	-10.4456
懿	-10.4457
未央	-10.4457
淫淫	-10.4457
瀉	-10.4457
茱茰	-10.4458
擔	-10.4458
玄鶴	-10.4458
惶	-10.4458
悠	-10.4458
夏小正	-10.4459
旌一作旍	-10.4459
攄	-10.4459
蔽賢	-10.4459
陋	-10.446
三閭	-10.4461
丘陵	-10.4462
甘美	-10.4462
川谷	-10.4463
秀異	-10.4463
仁傑按本草	-10.4463
逢尤	-10.4464
玄冥	-10.4464
原書	-10.4464
饐	-10.4464
赤色	-10.4464
滃鬱	-10.4465
窈	-10.4465
薰草	-10.4466
太㣲	-10.4466
劬勞	-10.4467
從俗	-10.4467
吒	-10.4467
衰老	-10.4468
詰	-10.4468
五月	-10.4468
弱水	-10.4469
悸	-10.447
太昊	-10.447
九疑	-10.447
狀如	-10.447
芸	-10.4471
熬	-10.4471
詩人之	-10.4472
陵陽	-10.4473
嚭	-10.4473
復顧	-10.4474
其味甘	-10.4474
陳辭	-10.4475
用事	-10.4475
榜	-10.4475
搖	-10.4476
花白	-10.4478
留止	-10.4479
不足以	-10.4479
踊躍	-10.4479
離别	-10.448
條陶隠居云	-10.4481
昭華	-10.4481
夫離	-10.4481
孟切	-10.4482
新人	-10.4482
九懐	-10.4482
﨑	-10.4482
憂苦	-10.4483
而日逺	-10.4485
九懷	-10.4486
金玉	-10.449
開門	-10.4492
細辛	-10.4492
大江	-10.4493
仁傑按爾雅	-10.4493
所履	-10.4493
蕃	-10.4493
國語	-10.4494
以諷	-10.4494
甘草	-10.4495
害賢	-10.4495
衆鳥	-10.4495
始生	-10.4495
髙馳	-10.4496
猶未	-10.4499
九年	-10.4499
滋	-10.4502
吕切	-10.4502
䔖	-10.4506
聚而	-10.4506
軫丘	-10.4508
恐非	-10.451
又恐	-10.4511
哀郢	-10.4512
寤而	-10.4512
而不敢	-10.4513
爲像	-10.4515
之他	-10.4519
孔切	-10.4521
淮南曰	-10.4521
言時世	-10.4522
皆神	-10.4526
化爲	-10.4528
嬃	-10.4529
水草	-10.4532
角切	-10.4532
相和兮	-10.4533
長吟	-10.4542
誰與	-10.4542
耳非	-10.4543
深淵	-10.4546
其性	-10.4553
補曰怫	-10.4554
之事	-10.4555
大夏	-10.4556
云爾	-10.4557
王甚	-10.4559
我心	-10.456
也莊子曰	-10.4562
也仁傑按	-10.4567
迷惑也	-10.458
釋文音	-10.4583
盡其	-10.4584
盛皃	-10.46
言䰟	-10.4612
都也	-10.4625
列切	-10.4636
天子	-10.465
病也	-10.4651
清明	-10.4651
如玉	-10.4655
過也	-10.4678
也不一作	-10.4679
明君	-10.4681
念君	-10.4681
我兮	-10.4684
懷德	-10.4689
回切	-10.4699
蘭為	-10.4701
也一作徠歸	-10.4711
人多	-10.4719
者以	-10.4724
體也	-10.4728
皃也言巳	-10.4729
蓋切	-10.4742
者其	-10.4753
旗兮	-10.4764
還歸也	-10.4779
娛樂也	-10.4791
為去聲	-10.4793
起也	-10.4794
帝之	-10.4794
之質	-10.4797
其流	-10.4814
言已旣	-10.4815
者謂之	-10.4821
高貌	-10.4823
為名	-10.4827
補曰汨	-10.4844
豫也	-10.4848
既有	-10.4851
也史記云	-10.4863
惻也	-10.4869
一注云	-10.4892
爲人	-10.4903
以從	-10.4903
此語	-10.4906
淵兮	-10.4949
賢者亦	-10.4953
其高	-10.4962
花葉	-10.4975
潔也	-10.4977
皃𥙷曰	-10.4986
同志	-10.4999
上帝	-10.5026
下文	-10.5027
席也	-10.5033
念楚國也	-10.5035
佩兮	-10.504
之義	-10.5058
屈原曰	-10.5077
之以	-10.5082
懐兮	-10.5083
言巳所	-10.5084
信兮	-10.5085
跡	-10.509
説者	-10.5112
民也	-10.5123
說者	-10.5129
于羽	-10.513
言我	-10.5132
驚而	-10.514
釋之	-10.5141
不容	-10.5142
此云	-10.5148
列兮	-10.5148
中者	-10.5149
而盛	-10.5155
以時	-10.5159
行不	-10.5186
命之	-10.5196
日月兮	-10.5205
車兮	-10.5206
側也	-10.5215
切又	-10.5223
補曰左傳	-10.523
也山海經	-10.5234
兮南	-10.5236
形也	-10.5256
怫鬱兮	-10.5256
逺也	-10.5273
今人	-10.5319
下音	-10.5327
一作愍	-10.5329
兮西	-10.5332
陳也	-10.5333
修善	-10.5381
者皆	-10.5391
悲感	-10.5395
悲兮	-10.5415
深也	-10.5462
相當	-10.5467
絶兮	-10.5476
䰟者	-10.5513
及兮	-10.5516
功也	-10.5524
思也	-10.5531
草也	-10.5535
窮也	-10.5568
君命	-10.5636
為君	-10.5645
著花	-10.5656
志猶	-10.5666
繽	-10.5681
夜光	-10.5681
之美	-10.5682
爵	-10.5712
佯狂	-10.5721
怒也	-10.5735
不顧	-10.5739
故也	-10.574
也回一作	-10.5741
之後	-10.5767
皆以	-10.5769
道路	-10.5782
以避	-10.5817
也邑	-10.5827
似竹	-10.5898
爲名	-10.5916
太公	-10.5957
行正	-10.5966
膠	-10.5975
堯舜	-10.598
其身	-10.5983
崑崙山	-10.5985
之正	-10.6008
隠身	-10.6011
皃也言	-10.6013
淪	-10.6013
補曰比	-10.6038
弃也	-10.6039
草根	-10.6042
芍藥	-10.6046
明也一	-10.6054
詐	-10.6056
撟	-10.6065
漿	-10.6091
之所作也	-10.6096
郭註	-10.6098
戒	-10.61
如小	-10.6122
馳也	-10.6129
天之	-10.6138
鸞鳯	-10.6145
聦明	-10.6158
淮南子	-10.6162
鸞鳳	-10.6169
人所	-10.618
之志	-10.6209
懣	-10.6212
行忠信	-10.6215
還顧	-10.6223
衣兮	-10.6224
係	-10.6228
其一作而	-10.6234
怫鬱	-10.6242
傅說	-10.6253
之一作而	-10.6255
沖	-10.6287
而至	-10.629
望也	-10.6297
急疾	-10.63
媒	-10.6308
又東	-10.6316
低佪	-10.6317
陸璣	-10.6321
忽乎吾將行	-10.6332
吳王	-10.6344
作升	-10.6345
絡	-10.635
誦	-10.6353
相和	-10.6359
驗	-10.6365
仁傑	-10.6368
容兮	-10.637
也天對云	-10.6374
茂盛也	-10.6376
驂	-10.6376
檻	-10.6378
有節度	-10.6379
璿	-10.6381
藑茅	-10.6384
眴	-10.6388
孟子	-10.6393
切集韻	-10.6395
量	-10.6396
闇昧	-10.64
糅	-10.6401
愠	-10.6402
碕	-10.6403
兵	-10.6404
孟夏	-10.6405
扶桑	-10.6406
二百	-10.6407
葭	-10.6407
楫	-10.6408
㞶	-10.6408
璧	-10.6409
鞠	-10.6409
又何	-10.6409
重華	-10.641
塵埃	-10.641
乗雲	-10.6411
寫	-10.6411
孰能	-10.6412
世之人	-10.6412
拱	-10.6413
興祖	-10.6413
寜	-10.6414
汝	-10.6415
曙	-10.6416
浄	-10.6416
險	-10.6417
殃	-10.6417
憎	-10.6417
李	-10.6418
險阻	-10.6418
聰	-10.6418
寂寞	-10.6419
鴻鵠	-10.6419
計	-10.6419
頓	-10.6421
貪佞	-10.6422
斗	-10.6422
役	-10.6422
統	-10.6422
葵	-10.6422
軌	-10.6422
也補曰說文	-10.6424
悒	-10.6424
瀏	-10.6425
儒	-10.6425
蕭雲從	-10.6426
萌	-10.6427
隧	-10.6427
謇	-10.6428
洪	-10.6428
敏	-10.6428
考異	-10.6428
壺	-10.6428
狐	-10.6428
嘆	-10.6428
豐肉微骨	-10.6429
劣	-10.6429
涕流	-10.643
煢煢	-10.6431
欣	-10.6431
逶	-10.6431
沿	-10.6431
覈	-10.6431
軫痛也	-10.6431
與日月兮齊光	-10.6431
鼎	-10.6432
譽	-10.6432
便姢	-10.6432
郊	-10.6432
緜	-10.6432
吉日兮辰良	-10.6432
鹽	-10.6432
吹	-10.6432
皎皎	-10.6434
萬民之	-10.6434
肌	-10.6434
富貴	-10.6434
影	-10.6434
駑	-10.6434
炙	-10.6434
鬚	-10.6434
絃	-10.6434
㤗	-10.6435
蕙肴蒸兮蘭藉	-10.6435
彈	-10.6435
此句	-10.6435
夾	-10.6435
𥘉	-10.6435
板	-10.6435
晝夜	-10.6435
殫	-10.6436
謳和揚阿	-10.6436
路曼曼其脩逺兮	-10.6436
謗	-10.6436
憯	-10.6436
娟	-10.6436
石菖蒲	-10.6436
讎	-10.6436
葉兮紫莖	-10.6436
駕辯	-10.6436
狖	-10.6436
耶	-10.6436
蟲	-10.6437
不任賢	-10.6437
蓐収	-10.6437
銷	-10.6437
薜	-10.6437
佞僞	-10.6437
揉	-10.6437
湯谷	-10.6437
皡	-10.6437
絶殊也	-10.6437
鳯凰	-10.6437
鳴玉鸞之啾啾	-10.6437
􁸖	-10.6437
墟	-10.6437
大抵	-10.6438
奏	-10.6438
畏懼	-10.6438
苞	-10.6438
鼓琴	-10.6438
彼將自然	-10.6438
與佳期兮夕張	-10.6438
􁽊	-10.6438
留夷	-10.6438
睨	-10.6438
毎	-10.6438
馳逐	-10.6438
巓	-10.6438
惜其師忠	-10.6438
憎愠	-10.6438
螘	-10.6438
隐	-10.6438
遟	-10.6438
飛泉	-10.6438
埃	-10.6439
儵	-10.6439
腰	-10.6439
褒	-10.6439
佪	-10.6439
猨狖	-10.6439
把	-10.6439
沼	-10.6439
歇	-10.6439
麾	-10.644
岀	-10.644
殞	-10.644
貳	-10.644
􁽌	-10.644
羲	-10.644
旍	-10.644
聊假日以媮樂	-10.644
齊桓	-10.644
猋	-10.6441
文苑作	-10.6441
無人聲	-10.6441
酡	-10.6441
際	-10.6441
緫	-10.6441
遁	-10.6441
敝	-10.6441
享	-10.6441
厮賤	-10.6441
寂寥	-10.6441
寧溘死而流亡兮	-10.6441
曠野	-10.6441
言時丗	-10.6441
劍	-10.6441
禺	-10.6441
素榮	-10.6441
補曰菀音鬱	-10.6441
江濵	-10.6441
驅馳	-10.6441
滂	-10.6441
聰明	-10.6441
便娟	-10.6441
穆王	-10.6442
各興心而嫉妬	-10.6442
䑕	-10.6442
犯	-10.6442
悁悁	-10.6442
俓	-10.6442
仞	-10.6442
駝	-10.6442
登階	-10.6442
望涔陽兮極浦	-10.6443
遐	-10.6443
榑	-10.6443
鷦明	-10.6443
吠	-10.6443
夕晞余身兮九陽	-10.6443
妖	-10.6443
荃不察余之中情兮	-10.6443
遇蓐收乎西皇	-10.6443
郁	-10.6443
紉秋蘭以為佩	-10.6443
氾	-10.6443
材	-10.6443
憚	-10.6443
餝	-10.6443
七故切	-10.6443
辝	-10.6443
陼	-10.6443
徘	-10.6443
孈	-10.6444
粮	-10.6444
媛	-10.6444
婁	-10.6444
雹	-10.6444
戻	-10.6444
挾持也	-10.6444
籌	-10.6444
美超逺而逾邁	-10.6444
蓀壁兮紫壇	-10.6444
擣	-10.6444
眷	-10.6444
辭一作詞	-10.6444
弑	-10.6445
鴆	-10.6445
鈎	-10.6445
攬	-10.6445
纂	-10.6445
盪	-10.6445
虡	-10.6445
蒼龍之	-10.6445
頷	-10.6445
曳	-10.6445
莫知	-10.6445
伸	-10.6445
慈	-10.6445
悼	-10.6445
屢	-10.6445
覽余初其猶未悔	-10.6445
敞	-10.6445
游戲	-10.6445
衆人皆醉	-10.6445
衆踥蹀而日進兮	-10.6445
惜往日	-10.6446
於甲	-10.6446
淇	-10.6446
清激	-10.6446
群聚	-10.6446
甘棠	-10.6446
畦	-10.6446
柯	-10.6446
繩墨	-10.6446
折芳馨兮遺所思	-10.6446
抽思	-10.6446
九臯	-10.6446
雛	-10.6446
稽	-10.6447
來者	-10.6447
松喬	-10.6447
穰	-10.6447
疋	-10.6447
石磊磊兮葛蔓蔓	-10.6447
軔	-10.6447
剌	-10.6447
父母	-10.6447
駕鵝	-10.6447
塡	-10.6447
萎	-10.6447
零陵香	-10.6447
㪚	-10.6448
歎息也	-10.6448
鬣	-10.6448
牛	-10.6448
偟	-10.6448
袖	-10.6448
譜	-10.6448
就重華而敶詞	-10.6448
崔	-10.6448
繁	-10.6448
倍	-10.6448
二十五	-10.6449
閣	-10.6449
伏戲	-10.6449
幕	-10.6449
世莫知其所如	-10.6449
豸	-10.6449
曼音萬	-10.6449
豺狼	-10.6449
伴	-10.6449
鶵	-10.6449
彫	-10.645
股	-10.645
徙倚而	-10.645
者屈原之所作也	-10.645
表裏	-10.645
答	-10.645
坎廩	-10.645
西海	-10.645
羣聚	-10.645
狩	-10.645
若杜若也	-10.6451
鵾	-10.6451
滌	-10.6451
纏	-10.6451
厄	-10.6451
虺	-10.6451
薇	-10.6451
廵狩	-10.6451
薋菉葹以盈室兮	-10.6451
姜嫄	-10.6451
戲蕩	-10.6451
畏	-10.6451
從手	-10.6452
刜	-10.6452
婚	-10.6452
竭盡	-10.6452
五榖	-10.6452
燠	-10.6452
寘	-10.6453
華酌	-10.6453
涕泣	-10.6453
夕攬洲之宿莽	-10.6453
已解於	-10.6453
誠也	-10.6454
篁	-10.6455
黒色	-10.6455
離遭也	-10.6455
寥廓	-10.6455
生水中	-10.6455
東海	-10.6455
爢	-10.6456
周禮	-10.6456
璋	-10.6456
宋萬	-10.6456
抜	-10.6456
田野	-10.6456
駟馬	-10.6456
神獸	-10.6457
扈江離與辟芷兮	-10.6457
園	-10.6458
冤結	-10.6458
未聞	-10.6458
浮萍	-10.6458
距	-10.6458
拳	-10.6458
返	-10.6458
並迎	-10.6458
閶闔	-10.6459
豳	-10.6459
也俗作	-10.6459
漬	-10.6459
叢林	-10.6459
仆	-10.646
仿	-10.646
隱伏	-10.646
邢昺疏	-10.646
瞻望	-10.646
塩	-10.646
爭欲	-10.6461
轍	-10.6461
二八	-10.6461
清波	-10.6461
攀援桂枝兮	-10.6462
秦椒	-10.6462
傳芭兮代舞	-10.6463
而不衰	-10.6463
聊淹留	-10.6463
妒	-10.6463
涌	-10.6464
賈思勰云	-10.6464
䜛邪	-10.6464
馨香	-10.6464
沮	-10.6464
孟子云	-10.6465
李善引	-10.6465
叢薄	-10.6465
西方	-10.6465
沈存中云	-10.6465
榛	-10.6465
讀如	-10.6465
入聲	-10.6466
苟且	-10.6466
條云一名	-10.6466
堇	-10.6466
纍	-10.6468
椒聊	-10.6468
莎	-10.6468
猶堂	-10.6469
匡	-10.6469
曰愉	-10.6469
季	-10.647
大人賦云	-10.647
寃結	-10.6471
月令	-10.6471
冬夏	-10.6471
言魂	-10.6471
新雉	-10.6472
觀視	-10.6473
秋實	-10.6473
黄橘	-10.6473
與天地	-10.6474
文選云	-10.6476
於世	-10.6476
枉曲也	-10.6478
嘉祐圖經云今	-10.6478
楸梓	-10.6479
修飾	-10.648
才德	-10.6481
精䰟	-10.6481
髙辛	-10.6482
而去之	-10.6482
孔子	-10.6482
改易也	-10.6483
冀得	-10.6483
周合	-10.6484
大蒜	-10.6484
不反	-10.6484
也補曰下音戸	-10.6484
三公	-10.6485
乆長	-10.6486
太王	-10.6488
高馳	-10.6488
哀惜	-10.6489
根莖	-10.6489
芭蕉	-10.6489
可信	-10.649
安在	-10.6491
青黄	-10.6493
蘦	-10.6493
吴王	-10.6493
未知	-10.6494
其狀如	-10.6495
壅蔽	-10.6496
祗	-10.6499
徳兮	-10.65
九歌同	-10.6501
爲媒	-10.6502
並進	-10.6502
集兮	-10.6504
九陽	-10.6505
春草	-10.6506
所稱	-10.6507
可知	-10.6508
終不可	-10.651
開花	-10.651
何所有	-10.651
故舊	-10.651
舎止	-10.651
若雲	-10.6515
不再	-10.6519
不得志	-10.6523
忠直也	-10.6524
後人	-10.6524
昔者	-10.6525
増歎	-10.6526
别出	-10.6533
正白	-10.6538
章云	-10.654
傷己	-10.6541
香草名	-10.6542
也左傳	-10.6548
焉如	-10.6548
中宫	-10.6551
復生	-10.6555
我車	-10.6556
齊同	-10.6558
為雨師	-10.6562
大苦	-10.6563
不知我	-10.6566
補曰並	-10.6569
行義	-10.6571
經曰	-10.6571
思古	-10.6573
逺貌	-10.6573
髙陽	-10.6573
之以爲	-10.6576
繇	-10.6581
身將	-10.6581
逺矣	-10.6582
傳云	-10.6586
之類皆	-10.6588
本草云	-10.6596
帝宫	-10.6596
也釋文	-10.6597
離世	-10.6599
以自喻	-10.6601
今世	-10.6601
二字	-10.6609
記曰	-10.6611
一作意	-10.6611
自脩	-10.6611
無異	-10.6618
逺望兮	-10.6618
補曰汜音泛	-10.6623
非也	-10.6623
巳見	-10.6625
脩德	-10.6627
敬也	-10.6627
無告	-10.6629
補曰罷音	-10.6636
枝也	-10.6638
勞也	-10.6645
補曰漸	-10.6665
行貌	-10.6674
而委	-10.6684
急也	-10.6688
毒兮	-10.6698
字五臣云	-10.6701
我欲	-10.6701
又欲	-10.6719
紛錯	-10.673
著明	-10.6732
䜛佞	-10.6736
至於	-10.6743
於九	-10.6745
忿兮	-10.6746
離騷以	-10.6759
忠直之	-10.6769
檐	-10.6773
志行	-10.679
一作開	-10.6796
淸明	-10.6813
騖兮	-10.6818
人謂	-10.6822
卓逺	-10.6823
存之	-10.6824
不離	-10.6826
心為	-10.6828
重直用切	-10.683
並與	-10.6839
一作安	-10.6843
老也	-10.6846
廷	-10.6853
西極	-10.6853
五音	-10.688
遲遲	-10.6884
蔓生	-10.6886
五臣云言	-10.6912
之野	-10.6916
一作紛	-10.692
所載	-10.6921
文王也	-10.6955
逢紛	-10.6978
水則	-10.6983
行兮	-10.6988
而小	-10.7026
懼也	-10.7045
言懐	-10.705
言巳思	-10.7054
之屬	-10.7055
於丗	-10.7055
者如	-10.7056
言懷	-10.7056
囘風	-10.7069
佞所	-10.7081
用此	-10.7097
曽無	-10.7103
葉似	-10.7114
作時	-10.7119
也古本	-10.7129
而終	-10.7152
逸説	-10.7153
喻君也	-10.7154
愁而	-10.7157
文作	-10.7158
行其	-10.7172
素也	-10.7202
梅伯受醢	-10.721
水澤	-10.7226
也𥙷	-10.7236
殿也	-10.7246
西南	-10.7249
者乎	-10.7258
也其一作而	-10.7261
於山	-10.7263
説云	-10.7267
逹也	-10.7269
我之	-10.7299
執守	-10.7329
皆非	-10.7332
視也	-10.7348
當如	-10.7358
於君	-10.7363
有所	-10.7366
船也	-10.7369
𥙷曰說	-10.739
也服一	-10.7394
思一	-10.74
德也	-10.7406
為佞	-10.7413
之一	-10.7417
方也	-10.7431
歎兮	-10.7431
宫兮	-10.7431
世一	-10.7438
也降下也	-10.7451
惡也	-10.7458
棄之	-10.7462
則無	-10.7466
故云	-10.7472
長思	-10.7487
羣兮	-10.7488
憂患	-10.7489
春生	-10.7496
至此	-10.7498
進而	-10.75
也考	-10.7506
補曰山海經	-10.7547
用志	-10.7565
言天	-10.7566
隨風	-10.7573
已志	-10.762
爾雅疏	-10.7623
爲衆	-10.7624
波而	-10.7649
義與	-10.7664
類兮	-10.7675
而一	-10.7686
也五	-10.7686
殊也	-10.7712
艱難也	-10.773
也以一作	-10.7738
為二物	-10.7748
往古之	-10.776
杳杳以	-10.777
隱匿	-10.7775
之以為	-10.7785
降下也	-10.7786
弃之	-10.784
人家	-10.7846
無人	-10.7851
喜也	-10.7891
落英	-10.7897
積也	-10.7912
入也	-10.797
為經	-10.7974
痛也	-10.7982
明之	-10.7996
遭逢	-10.801
東南	-10.8015
説非是	-10.8022
民之	-10.8024
沈沒	-10.8058
守忠信	-10.8079
履行	-10.8086
聖明	-10.8098
大聖	-10.8104
佞䛕	-10.8105
黄白	-10.8125
葯房	-10.8127
居於	-10.8131
種之	-10.8169
補曰此言	-10.8174
作以	-10.8184
湯也	-10.8185
音烏	-10.8187
深山	-10.8188
能得	-10.821
者陽	-10.8213
逸以為	-10.8222
皐陶	-10.8227
言人	-10.8272
爲正	-10.8294
自悲	-10.8297
見於	-10.8303
椒一名	-10.8305
懷思也	-10.8315
世溷濁	-10.8325
壞也	-10.8325
文王	-10.833
奔走也	-10.8332
而下	-10.8347
所行	-10.8375
己之	-10.838
云云	-10.8381
行胡岡切	-10.8382
楚謂之	-10.8395
而字	-10.8403
於我	-10.8408
蒲也	-10.842
衆芳	-10.8426
日之	-10.8439
予音與	-10.8449
棄於	-10.8467
言已所	-10.8468
踡	-10.8478
勞	-10.8485
之末	-10.8494
隠藏	-10.8495
補曰集韻	-10.85
隱藏	-10.8519
乃云	-10.8527
姦	-10.8559
晃切	-10.8564
橋	-10.857
奔走	-10.8574
湖	-10.8577
亂惑	-10.8591
讀為	-10.8594
玉英	-10.8594
悄	-10.8595
纒	-10.8595
悶	-10.8609
亦可	-10.8623
如字	-10.8626
淹留	-10.8633
髙逺	-10.8635
天庭	-10.8638
霧	-10.8644
以釋	-10.865
咎繇	-10.8651
於九章	-10.8654
作閔	-10.8675
文采	-10.8677
大人賦	-10.8682
昏也	-10.8685
傷今	-10.8695
沒也	-10.8708
法度	-10.8708
亦冝	-10.8709
室兮	-10.8711
皇輿	-10.8715
歌曰	-10.8717
路之	-10.8726
以一作而	-10.8726
無光	-10.8726
爲讒	-10.8742
陸璣云	-10.8757
辛香	-10.876
亦宜	-10.8774
不失其	-10.8789
横流	-10.8795
第五	-10.8796
補曰悁	-10.8804
黃鵠	-10.881
忠誠	-10.8811
兮惟	-10.8814
罷音	-10.8816
逸說	-10.882
黄鵠	-10.8823
馳騖	-10.8826
謝	-10.8831
九歎	-10.8831
嫉	-10.8835
璣	-10.8836
廓落	-10.8845
愉	-10.8846
菹醢	-10.8847
亂也	-10.8851
邦	-10.8851
濱	-10.8856
鶴	-10.8856
此則	-10.8857
憔悴	-10.8858
賢俊	-10.8858
剖	-10.886
不可救	-10.8863
避世	-10.8864
藪	-10.8866
而羊切	-10.8868
黄白色	-10.8869
二物	-10.8871
奥	-10.8871
藇	-10.8871
宋洪興祖撰	-10.8873
僕夫	-10.8874
辯	-10.8876
四荒	-10.8877
鼻	-10.8879
雲霓	-10.8879
賈思勰	-10.888
爲讒佞所	-10.888
莊	-10.8882
蘆葦	-10.8882
薍	-10.8885
震	-10.8885
無也字	-10.8886
判	-10.8891
兮索	-10.8891
曶	-10.8892
臂	-10.8892
孔頴達	-10.8893
恭	-10.8893
破	-10.8894
筆	-10.8896
柑	-10.8896
綺	-10.8896
山其草多	-10.8897
㠁嵯	-10.8898
鸞	-10.89
糾	-10.89
值	-10.89
希	-10.8901
没也	-10.8903
俗呼	-10.8903
蜿	-10.8904
粱	-10.8906
禁	-10.8906
泛	-10.8907
飈	-10.8907
悲余	-10.8907
譬	-10.8907
嫭	-10.8908
蛟	-10.8908
謨	-10.8911
也言湯	-10.8911
糜	-10.8912
藻苗	-10.8913
饑	-10.8913
南征	-10.8914
來革	-10.8915
咆	-10.8915
潭	-10.8916
九辯第八	-10.8916
淖	-10.8917
掝	-10.8917
男	-10.8918
萆	-10.8918
赤玉	-10.8918
竦	-10.8918
九章第四	-10.8919
异	-10.8919
六合	-10.8919
味辛	-10.8919
薄附也	-10.892
蹇吾願兮	-10.892
恕	-10.892
毫	-10.892
䠶	-10.8921
襄	-10.8921
薪	-10.8922
翹	-10.8922
防風	-10.8922
豔	-10.8922
彩	-10.8922
姣麗施只	-10.8923
自投濮水	-10.8923
蔆	-10.8923
却	-10.8923
墳	-10.8923
咸唐	-10.8923
也皓一作	-10.8923
日以逺也	-10.8923
獵	-10.8924
牡丹	-10.8924
惛	-10.8924
善留客只	-10.8924
撫循也	-10.8924
豕首縱目	-10.8924
長袂拂面	-10.8924
照吾檻兮扶桑	-10.8924
司	-10.8924
超回志度	-10.8925
崔文子	-10.8925
沱低	-10.8925
滂心綽態	-10.8925
王虺騫只	-10.8925
霜	-10.8925
可啖	-10.8925
紹介也	-10.8925
草木莽莽	-10.8925
鰅鱅短狐	-10.8925
忠良	-10.8926
弊	-10.8926
澒濛	-10.8926
南房小壇	-10.8926
山林險隘	-10.8926
彃	-10.8926
招隱士	-10.8926
滔滔孟夏兮	-10.8926
匍匐	-10.8926
哀時命	-10.8926
晃	-10.8926
目録	-10.8926
偷	-10.8926
涅	-10.8927
傷懷永哀兮	-10.8927
汩徂南土	-10.8927
浮渚	-10.8927
笙	-10.8927
耿耿	-10.8927
朝霞	-10.8927
勲	-10.8927
九圖	-10.8927
炫燿	-10.8927
它	-10.8927
噐	-10.8927
罕	-10.8927
娛人亂只	-10.8927
􁫵	-10.8927
䆳	-10.8927
紆屈	-10.8927
慌	-10.8927
汲	-10.8928
好愛	-10.8928
彊	-10.8928
弭	-10.8928
佳	-10.8928
訥	-10.8928
嫭以姱只	-10.8928
道思作頌	-10.8928
愽雅云	-10.8928
滄浪之水	-10.8929
四上競氣	-10.8929
爛昭昭兮未央	-10.8929
瓊轂錯衡	-10.8929
禁苛暴只	-10.8929
趙簫倡只	-10.8929
標	-10.8929
朅丘	-10.8929
湯出重泉	-10.8929
卓卓	-10.8929
孔甚也	-10.8929
投詩賦只	-10.8929
有小崑崙	-10.8929
極聲變只	-10.8929
白皓膠只	-10.8929
綵	-10.8929
英華也	-10.8929
霧雨淫淫	-10.8929
完	-10.893
巡狩	-10.893
自寛慰也	-10.893
麗以佳只	-10.893
偉	-10.893
悔恨也	-10.893
東窮海只	-10.893
枹	-10.893
眐眐	-10.893
竭忠誠	-10.893
笑嘕只	-10.893
舉傑壓陛	-10.893
西薄羊腸	-10.893
重仁襲義兮	-10.893
瀾	-10.893
水出崑崙	-10.8931
赤華	-10.8931
崔巍髙	-10.8931
夏室寒些	-10.8931
密	-10.8931
新沐者必彈冠	-10.8931
容則秀雅	-10.8931
文異豹飾	-10.8931
紫莖屏風	-10.8931
願側身而無所	-10.8931
䋲墨	-10.8931
奠桂酒兮椒漿	-10.8931
好蔽美而稱惡	-10.8931
繼續	-10.8931
英華假只	-10.8931
摘	-10.8931
安能以身之察察	-10.8931
川谷徑復	-10.8931
惟郢路之遼遠兮	-10.8931
流潺湲些	-10.8931
調以娛只	-10.8931
侍陂陁些	-10.8932
寧與騏驥亢軛乎	-10.8932
將隨駑馬之迹乎	-10.8932
少原之壄	-10.8932
徒昆切	-10.8932
撫案下些	-10.8932
砥室翠翹	-10.8932
葉菸邑而無色兮	-10.8932
鳧	-10.8932
􁼝	-10.8932
枚	-10.8932
石上菖蒲	-10.8932
羅列	-10.8932
惜誓	-10.8932
新浴者必振衣	-10.8932
光風轉蕙	-10.8932
周之命以咨嗟	-10.8932
挂曲瓊些	-10.8932
朱塵筵些	-10.8932
矯以遺夫美人	-10.8932
雜芰荷些	-10.8932
不合於衆	-10.8932
亥	-10.8932
亦不復	-10.8932
巧倕不斲兮	-10.8932
望三五以	-10.8932
未足以	-10.8932
淟	-10.8932
癸	-10.8932
莫知余之所有	-10.8932
詒音怡	-10.8932
蹇誰留兮中洲	-10.8932
進路北次兮	-10.8932
雄鳩之鳴逝兮	-10.8932
騎白鹿而	-10.8932
􁩂	-10.8932
欣欣	-10.8932
魁	-10.8932
分曹並進	-10.8933
受物之汶汶者乎	-10.8933
不歠役只	-10.8933
坐堂伏檻	-10.8933
寒凝凝只	-10.8933
溘	-10.8933
臨曲池些	-10.8933
萷櫹槮之可哀兮	-10.8933
世幽昧以昡曜兮	-10.8933
伍子逢殃兮	-10.8933
北至幽陵	-10.8933
固庸態也	-10.8933
獨秀先些	-10.8933
瞢	-10.8933
紛緫緫其離合兮	-10.8933
靈連蜷兮既留	-10.8933
鴆告余以不好	-10.8933
齊桓聞以該輔	-10.8933
歩余馬兮	-10.8933
楊雄	-10.8933
磬	-10.8933
永長也	-10.8933
機	-10.8933
賓	-10.8934
校正	-10.8934
瓊枝以	-10.8934
三圭重侯	-10.8934
介子忠而立枯兮	-10.8934
君不行兮夷猶	-10.8934
和楚瀝只	-10.8934
和楚酪只	-10.8934
天白顥顥	-10.8934
女樂羅些	-10.8934
子胥死而後憂	-10.8934
室家遂宗	-10.8934
形銷鑠而瘀傷	-10.8934
折瓊枝以繼佩	-10.8934
文君寤而追求	-10.8934
樂不可言只	-10.8934
此孰吉孰凶	-10.8934
渨涹	-10.8934
盍將把兮瓊芳	-10.8934
竒牙	-10.8934
緫緫	-10.8934
罻羅張而在下	-10.8934
翡翠珠被	-10.8934
肴羞未通	-10.8934
膾苴蒪只	-10.8934
菑	-10.8934
虛偽	-10.8934
詬病	-10.8934
鑒	-10.8934
何所獨無芳草兮	-10.8934
余焉能忍與此終古	-10.8934
吳歈蔡謳	-10.8934
哲王又不寤	-10.8934
孰求美而釋女	-10.8934
延佇乎吾將反	-10.8934
正音征	-10.8934
火於秋	-10.8934
遒相迫些	-10.8934
冒	-10.8934
族	-10.8934
填	-10.8934
蠻	-10.8934
奮	-10.8934
綱	-10.8934
極勞心兮	-10.8934
韓信	-10.8934
令沅湘兮無波	-10.8934
何去何從	-10.8934
傷太息之愍憐兮	-10.8934
吹參差兮誰思	-10.8934
好姱佳麗兮	-10.8934
孰云察余之善惡	-10.8934
心猶豫而狐疑兮	-10.8934
忠昭昭而願見兮	-10.8934
忿懟	-10.8934
思美人兮	-10.8934
搴芙蓉兮木末	-10.8934
料	-10.8934
曼澤怡面	-10.8934
曾不知路之曲直兮	-10.8934
有鳥自南兮	-10.8934
氣於邑而不可止	-10.8934
父信讒而不好	-10.8934
牽引也	-10.8934
猶有曩之態也	-10.8934
疏石蘭兮為芳	-10.8934
穆將愉兮上皇	-10.8934
竊賦詩之所明	-10.8934
終古猶	-10.8934
血氣盛只	-10.8934
蹇淹留而躊躇	-10.8934
􁛊	-10.8934
姬	-10.8935
超越	-10.8935
助	-10.8935
一無之字	-10.8935
不沾薄只	-10.8935
使江水兮安流	-10.8935
八月	-10.8935
刻方連些	-10.8935
吳酸蒿蔞	-10.8935
四酎并孰	-10.8935
夫何極而不至兮	-10.8935
心意安只	-10.8935
惟佳人之永都兮	-10.8935
敦脄血拇	-10.8935
日月忽其不淹兮	-10.8935
枉渚	-10.8935
煎鰿	-10.8935
煔鶉敶只	-10.8935
相下女之可詒	-10.8935
葬於江魚之腹中	-10.8935
起鄭舞些	-10.8935
造新歌些	-10.8935
遽爽存只	-10.8935
何百姓之震愆	-10.8935
前圖未改	-10.8935
屈心而抑志兮	-10.8935
忽臨睨夫舊郷	-10.8935
時亦猶其未央	-10.8935
欲自適而不可	-10.8935
猋壅蔽此明月	-10.8935
蜂	-10.8935
謂申椒其不芳	-10.8935
重無怨而生離兮	-10.8935
願皓日之顯行兮	-10.8935
暗	-10.8935
石上	-10.8935
先王	-10.8935
漁	-10.8935
幽都	-10.8935
蘩	-10.8935
悵然住立	-10.8935
周官	-10.8936
勿	-10.8936
深固難徙	-10.8936
賣	-10.8936
醢豚苦狗	-10.8936
飄風屯其相離兮	-10.8936
三年積思	-10.8936
之逶虵	-10.8936
何瓊佩之偃蹇兮	-10.8936
余將董道而不豫兮	-10.8936
凜	-10.8936
君無度而弗察兮	-10.8936
呼五白些	-10.8936
善不由外來兮	-10.8936
寤從容以周流兮	-10.8936
嵗月	-10.8936
巫咸將夕降兮	-10.8936
年洋洋以日往兮	-10.8936
并日夜而無正	-10.8936
心閔憐之慘悽兮	-10.8936
忍尤而攘詬	-10.8936
思夫君兮太息	-10.8936
悔相道之不察兮	-10.8936
折若木以蔽光兮	-10.8936
望夫君兮未來	-10.8936
欲釋階而登天兮	-10.8936
欸秋冬之緒風	-10.8936
欽定補繪蕭雲從離騷全圖	-10.8936
比干菹醢	-10.8936
爛齊光些	-10.8936
班其相紛些	-10.8936
皇考之	-10.8936
與余言而不信兮	-10.8936
荆蠻	-10.8936
行婞直而不豫兮	-10.8936
被以不慈之偽名	-10.8936
近禹麾只	-10.8936
逐人駓駓些	-10.8936
采薜荔兮水中	-10.8936
靈偃蹇兮姣服	-10.8936
鼓枻而去	-10.8936
何不變此志也	-10.8936
吾使厲神占之兮	-10.8936
夢	-10.8936
理弱而媒拙兮	-10.8936
羅生兮堂下	-10.8936
芳菲菲兮滿堂	-10.8936
超惘惘而遂行	-10.8936
魂無逃只	-10.8936
藉	-10.8936
澹	-10.8936
年齒	-10.8936
思君念	-10.8936
共工	-10.8936
賜	-10.8936
也陳一作敶	-10.8936
協	-10.8936
郡	-10.8936
瘀	-10.8936
鳴鳩	-10.8936
冦	-10.8936
困辱	-10.8936
外承歡之汋約兮	-10.8936
斑陸離其上下	-10.8936
枯死也	-10.8936
㦧	-10.8936
中悶瞀之忳忳	-10.8936
九折臂而成醫兮	-10.8936
事亹亹而覬進兮	-10.8936
二八齊容	-10.8936
使涷雨兮灑塵	-10.8936
來集漢北	-10.8936
又莫察余之中情	-10.8936
嗔	-10.8936
噂	-10.8936
夕濟兮西澨	-10.8936
夫誰畏懼	-10.8936
孤寡存只	-10.8936
將騰駕兮偕逝	-10.8936
峭	-10.8936
心踊躍其若湯	-10.8936
恐鵜鴂之先鳴兮	-10.8936
捐余玦兮江中	-10.8936
掩此哀而不去	-10.8936
文章爛兮	-10.8936
曀	-10.8936
曰有志極而無旁	-10.8936
有餦餭些	-10.8936
桂櫂兮蘭枻	-10.8936
水周兮堂下	-10.8936
皇天集命	-10.8936
睇音弟	-10.8936
老嵺廓而無處	-10.8936
聞佳人兮召予	-10.8936
臨風怳兮浩歌	-10.8936
與女沐兮咸池	-10.8936
解佩纕以結言兮	-10.8936
豪傑執政	-10.8936
踰空桑兮從女	-10.8936
遭周文而得舉	-10.8936
遺余褋兮醴浦	-10.8936
邅吾道兮洞庭	-10.8936
邸余車兮方林	-10.8936
限之以大故	-10.8936
雄雄赫赫	-10.8936
願一見而有明	-10.8936
魁堆	-10.8936
鳥次兮屋上	-10.8936
􁪠	-10.8936
闔	-10.8936
重累	-10.8937
鷦	-10.8937
揆	-10.8937
施用也	-10.8937
寢	-10.8937
帯	-10.8937
歟	-10.8937
顚仆	-10.8937
介胄	-10.8937
何日夜而忘之	-10.8937
余而造怒	-10.8937
信非吾罪而棄逐兮	-10.8937
厲而不爽些	-10.8937
夕宿辰陽	-10.8937
女媧	-10.8937
恐自遺災些	-10.8937
新聲	-10.8937
求宓妃之所在	-10.8937
淋雨	-10.8937
漁父莞爾而笑	-10.8937
焉舒情而抽信兮	-10.8937
結幽蘭而延佇	-10.8937
蓀橈兮蘭旌	-10.8937
豈至今其庸亡	-10.8937
貟	-10.8937
交不忠兮怨長	-10.8937
令飄風兮先驅	-10.8937
偷以全吾軀乎	-10.8937
入不言兮出不辭	-10.8937
喙	-10.8937
夕弭節兮北渚	-10.8937
姱而不醜兮	-10.8937
存髣髴而不見兮	-10.8937
官爵也	-10.8937
心不同兮媒勞	-10.8937
恐導言之不固	-10.8937
恬死亡而不聊	-10.8937
惀力允切	-10.8937
意廣大	-10.8937
望美人兮未來	-10.8937
武丁用而不疑	-10.8937
歸來兮不可以乆	-10.8937
洞庭波兮木葉下	-10.8937
淚	-10.8937
牉獨處此異域	-10.8937
獨無匹兮	-10.8937
白日昭只	-10.8937
皇天之不純命兮	-10.8937
矰弋機而在上兮	-10.8937
石城	-10.8937
稻粢穱麥	-10.8937
與波上下	-10.8937
芒芒	-10.8937
苦衆人之	-10.8937
萬物遽只	-10.8937
覽察草木其猶未得兮	-10.8937
言不可結而詒	-10.8937
豈珵美之能當	-10.8937
願陳志而無路	-10.8937
駕飛龍兮北征	-10.8937
隆	-10.8937
曖	-10.8937
搏	-10.8937
蠢	-10.8938
猶豫而狐疑	-10.8938
抱朴	-10.8938
獨處兮	-10.8938
反既有此他志	-10.8938
實羽觴些	-10.8938
彷徨山澤	-10.8938
有瓊漿些	-10.8938
朦	-10.8938
終不變	-10.8938
背夏浦而西思兮	-10.8938
莫之能	-10.8938
餌	-10.8938
仭	-10.8938
初吾所陳之耿著兮	-10.8938
勇猛	-10.8938
南巢	-10.8938
又無良媒在其側	-10.8938
君欣欣兮樂康	-10.8938
固煩言不可結詒兮	-10.8938
圜鑿而方枘兮	-10.8938
好夫人之慷慨	-10.8938
娭光眇視	-10.8938
嫋嫋兮秋風	-10.8938
心鬱鬱之憂思兮	-10.8938
惟其紛糅而將落兮	-10.8938
惟此黨人其獨異	-10.8938
成梟而牟	-10.8938
所誅滅	-10.8938
春與秋其代序	-10.8938
望孟夏之短夜兮	-10.8938
期不信兮告余以不閒	-10.8938
浡	-10.8938
狒	-10.8938
田邑千畛	-10.8938
竊不自聊而願忠兮	-10.8938
臨流水而太息	-10.8938
莊蹻	-10.8938
諶荏弱而難持	-10.8938
謂蕙若其不可佩	-10.8938
鈞	-10.8938
露申辛夷死林薄兮	-10.8938
願自申而不得	-10.8938
飄飄風	-10.8938
鴻溶	-10.8938
黤	-10.8938
初若是而逢殆	-10.8938
夕宿兮帝郊	-10.8938
娵觜	-10.8938
廓其無求兮	-10.8938
悲莫悲兮生别離	-10.8938
惟此黨人之不諒兮	-10.8938
申旦以舒中情兮	-10.8938
竿	-10.8938
終危獨以離異兮	-10.8938
觜	-10.8938
䤅	-10.8938
梟	-10.8938
蕰	-10.8938
揭	-10.8938
噤	-10.8938
晻	-10.8938
極中也	-10.8938
聊以舒吾憂心	-10.8938
乞	-10.8938
倘佯	-10.8938
嵗忽忽	-10.8938
燥	-10.8938
而變化兮	-10.8938
補曰逴音卓	-10.8938
覽方外之荒忽兮	-10.8938
長髮曼鬋	-10.8938
一無何字	-10.8938
任重載盛兮	-10.8938
何變化以作詐	-10.8938
分流汩兮	-10.8938
卒其異方	-10.8938
同糅玉石兮	-10.8938
君誰須兮雲之際	-10.8938
吾固知其鉏鋙而難入	-10.8938
吾誼先君而後身兮	-10.8938
告余以吉故	-10.8938
和酸若苦	-10.8938
哀吾生之無樂兮	-10.8938
垂手	-10.8938
委厥美以從俗兮	-10.8938
孰不實而有穫	-10.8938
少歌曰	-10.8938
山石之	-10.8938
崖	-10.8938
思公子兮未敢言	-10.8938
憍	-10.8938
播江離與滋菊兮	-10.8938
擗蕙櫋兮既張	-10.8938
故相臣莫若君兮	-10.8938
時不可兮驟得	-10.8938
晉制犀比	-10.8938
曰君可思而不可恃	-10.8938
朕皇考曰伯庸	-10.8938
梗其有理兮	-10.8938
流澤施只	-10.8938
盾	-10.8938
祇	-10.8938
章畫志墨兮	-10.8938
自前世之嫉賢兮	-10.8938
芷葺兮荷屋	-10.8938
茍且也	-10.8938
蓀詳聾而不聞	-10.8938
蓬蒿	-10.8938
褘	-10.8938
謇不可釋	-10.8938
費白日些	-10.8938
逗	-10.8938
雲霏霏而承宇	-10.8938
霰雪紛其無垠兮	-10.8938
願若今兮無虧	-10.8938
聊假日以須	-10.8939
采芳洲兮杜若	-10.8939
皥	-10.8939
悲江介之遺風	-10.8939
當陵陽之焉至兮	-10.8939
后土何時而得漧	-10.8939
固切人之不媚兮	-10.8939
固前脩以菹醢	-10.8939
妄怒無	-10.8939
左雨師使徑侍兮	-10.8939
心怛傷之憺憺	-10.8939
心震悼而不敢	-10.8939
忠湛湛而願進兮	-10.8939
改操兮	-10.8939
晻翳	-10.8939
民好惡其不同兮	-10.8939
滅規榘而改	-10.8939
理弱而媒不通兮	-10.8939
登閬風而緤馬	-10.8939
目極千里兮傷春心	-10.8939
謇朝誶而夕替	-10.8939
飛龍兮翩翩	-10.8939
駝一作馳	-10.8939
三公穆穆	-10.8939
也蛇一作	-10.8939
仲雍	-10.8939
儵而來兮忽而逝	-10.8939
又何可以淹留	-10.8939
又好射夫封狐	-10.8939
合百草兮實庭	-10.8939
善美明只	-10.8939
孰無施而有報兮	-10.8939
張絃	-10.8939
待明君其知之	-10.8939
恩義	-10.8939
捐余袂兮江中	-10.8939
揳梓瑟些	-10.8939
樂莫樂兮新相知	-10.8939
橘頌	-10.8939
焦	-10.8939
猛犬狺狺而迎吠兮	-10.8939
猨狖之所居	-10.8939
窮不知所示	-10.8939
精色内白	-10.8939
紛逢尤以離謗兮	-10.8939
肬	-10.8939
薄寒之中人	-10.8939
虹霓	-10.8939
解萹薄與雜菜兮	-10.8939
言司命之去	-10.8939
言與行其可迹兮	-10.8939
賞	-10.8939
贅	-10.8939
越裳	-10.8939
轇	-10.8939
迷不知吾所如	-10.8939
遂自忍而沈流	-10.8939
願銜枚而無言兮	-10.8939
麋何食兮庭中	-10.8939
麾蛟龍使梁津兮	-10.8939
黯黮	-10.8939
霏	-10.8939
屠	-10.894
萑	-10.894
製芰荷以為衣兮	-10.894
哀州土之平樂兮	-10.894
旌蔽日兮敵若雲	-10.894
車錯轂兮短兵接	-10.894
音義云	-10.894
塊獨守此無澤兮	-10.894
弗省察而按實兮	-10.894
從風雨而飛颺	-10.894
恨其失時而無當	-10.894
挫糟凍飲	-10.894
擥騑轡而下節兮	-10.894
莽芒芒之無儀	-10.894
蹇獨懷此異路	-10.894
人之心不與吾心同	-10.894
仰觀刻桷	-10.894
吾與君兮齋速	-10.894
夫何彭咸之造思兮	-10.894
將突梯滑稽	-10.894
尚不知余之從容	-10.894
師灑道風伯掃塵	-10.894
建芳馨兮廡門	-10.894
引車右還	-10.894
微霜降而下戒	-10.894
忽緯繣其難遷	-10.894
惟草木之零落兮	-10.894
摯咎繇而能調	-10.894
概	-10.894
欲循道而平驅兮	-10.894
流沙千里些	-10.894
結撰至思	-10.894
而下流	-10.894
草苴比而不芳	-10.894
蘭芳假些	-10.894
言䰟神	-10.894
託彭咸之所居	-10.894
軒輬既低	-10.894
鄭綿絡些	-10.894
靈之來兮如雲	-10.894
鬬	-10.894
固亂流其鮮終兮	-10.894
在西南	-10.894
幽獨處乎山中	-10.894
梟堅堯切	-10.894
浞又貪夫厥家	-10.894
然欿傺而沈藏	-10.894
譲	-10.894
遇豐隆而不將	-10.894
韓衆	-10.894
孟堅	-10.894
枘	-10.894
一無其字	-10.894
朔	-10.894
亭	-10.894
坤	-10.894
周流乎天余乃下	-10.894
往者不可	-10.894
杼	-10.894
操吳戈兮被犀甲	-10.894
獨申旦而不寐兮	-10.894
羅囿	-10.894
或忠信而死節兮	-10.8941
曼遭夜之方長	-10.8941
背繩墨而改錯	-10.8941
至今九年而不復	-10.8941
長太息而掩涕	-10.8941
雷師告余以未具	-10.8941
先威後文	-10.8941
吾不能變心而從俗兮	-10.8941
吾告堵敖以不長	-10.8941
吾獨窮困乎此時也	-10.8941
奄離披此梧楸	-10.8941
娛酒不廢	-10.8941
字余曰靈均	-10.8941
山蕭條而無獸兮	-10.8941
巔越	-10.8941
帝子降兮北渚	-10.8941
忿恚	-10.8941
情與質信可保兮	-10.8941
憀	-10.8941
旋入雷淵	-10.8941
湯禹嚴而求合兮	-10.8941
濟渡也	-10.8941
瀣	-10.8941
皇覽揆余初度兮	-10.8941
糒	-10.8941
終不察夫民心	-10.8941
羅幬張些	-10.8941
聞至貴而遂徂兮	-10.8941
背法度而心治兮	-10.8941
背繩墨以追曲兮	-10.8941
臑若芳些	-10.8941
自此以下皆	-10.8941
芳菲菲而難虧兮	-10.8941
若千里之駒乎	-10.8941
蟻蚍蜉	-10.8941
襲長夜之悠悠	-10.8941
計專專之不可化兮	-10.8941
趙	-10.8941
鑣銜	-10.8941
阿曲隅也	-10.8941
離芳藹之方壯兮	-10.8941
餘波入	-10.8941
麗桂樹之冬榮	-10.8941
𦙍	-10.8941
鼈	-10.8941
延長也	-10.8941
暉	-10.8941
有英華	-10.8941
矢交墜兮士爭先	-10.8941
篪	-10.8941
紛總總其離合兮	-10.8941
魁摧	-10.8941
仰浮雲而永歎	-10.8941
何貞臣之無辠兮	-10.8941
前望舒使先驅兮	-10.8941
勒騏驥而更駕兮	-10.8941
哀朕時之不當	-10.8941
如列宿之錯置	-10.8941
得罪過之不意	-10.8941
恐皇輿之敗績	-10.8941
憚蹇裳而濡足	-10.8941
於筐簏	-10.8941
母姣而自好	-10.8941
煎鴻鶬些	-10.8941
草同死	-10.8941
豈不鬱陶而思君兮	-10.8941
路幽昧以險隘	-10.8941
願陳情以白行兮	-10.8941
㵼	-10.8941
下有而字	-10.8941
不撫壯而棄穢兮	-10.8941
仇怨	-10.8941
冬又申之以嚴霜	-10.8941
勑	-10.8941
又蔽而莫之白	-10.8941
名余曰正則兮	-10.8941
壹心而不豫兮	-10.8941
夕余至乎西極	-10.8941
大苦醎酸	-10.8941
太公九十乃顯榮兮	-10.8941
如脂如韋	-10.8941
孽	-10.8941
尚羊	-10.8941
尤䖍	-10.8941
屠國	-10.8941
恐自遺賊些	-10.8941
懿懿	-10.8941
扈屯騎之容容	-10.8941
有招禍之道也	-10.8941
沈日夜些	-10.8941
漁父見而問之	-10.8941
澆身被服強圉兮	-10.8941
然惆悵而自悲	-10.8941
狹陋	-10.8941
私自憐兮何極	-10.8941
精氣入而麤穢除	-10.8941
縱欲而不忍	-10.8941
羌不可保也	-10.8941
羌無實而容長	-10.8941
翳蔽也	-10.8941
肇錫余以嘉名	-10.8941
至南巢而壹息	-10.8941
舉手也	-10.8941
艷	-10.8941
芬至今猶未沬	-10.8941
蕭瑟兮	-10.8941
親戚	-10.8941
誠未遇其匹合	-10.8941
軋洋洋之無從兮	-10.8941
辛甘行些	-10.8941
遞代	-10.8941
遵赤水而容與	-10.8941
離榭脩幕	-10.8941
馳委移之焉止	-10.8941
崔嵬	-10.8941
神靈	-10.8941
廡	-10.8942
昭王	-10.8942
宵	-10.8942
亦多端而膠加	-10.8942
哀蟋蟀之宵征	-10.8942
溘埃風余上征	-10.8942
部	-10.8942
霑余襟之浪浪	-10.8942
㝠㝠	-10.8942
上洞庭而下江	-10.8942
不能復用巫陽焉	-10.8942
乃下招曰	-10.8942
乘一作椉	-10.8942
五色雜而炫燿	-10.8942
以潔楹乎	-10.8942
何故至於斯	-10.8942
依前聖以節中兮	-10.8942
冉	-10.8942
去白日之昭昭兮	-10.8942
吾誰與玩此芳草	-10.8942
呵	-10.8942
咨嗟	-10.8942
哀見君而不再得	-10.8942
夏康娛以自縱	-10.8942
尚三王只	-10.8942
嶸	-10.8942
建雄虹之采旄兮	-10.8942
後輜椉之從從	-10.8942
心怦怦兮諒直	-10.8942
忳惽惽而愁約	-10.8942
怜	-10.8942
恐情質之不信兮	-10.8942
惟庚寅吾以降	-10.8942
於水則神	-10.8942
榝又欲充夫佩幃	-10.8942
涕泣交	-10.8942
瓦	-10.8942
疲勞而	-10.8942
疾親君而無他兮	-10.8942
組綬	-10.8942
與左氏	-10.8942
與王趨夢兮課後先	-10.8942
菁	-10.8942
蝮蛇蓁蓁	-10.8942
衆人之所	-10.8942
被荷裯之晏晏兮	-10.8942
辟與此其無異	-10.8942
迷不知寵之門	-10.8942
遂儵忽而捫天	-10.8942
阽余身而危死兮	-10.8942
霜露慘悽而交下兮	-10.8942
順凱風以從遊兮	-10.8942
願一見兮道余意	-10.8942
騷騷而	-10.8942
􁌽	-10.8942
惘	-10.8942
䲭	-10.8942
吕氏春秋	-10.8943
復欲去	-10.8943
坑	-10.8943
乃知遭命之將至	-10.8943
偏	-10.8943
君之門以九重	-10.8943
夕余至乎縣圃	-10.8943
女何喜	-10.8943
悼余生之不時兮	-10.8943
愁悄悄之常悲兮	-10.8943
身而窮處	-10.8943
闌	-10.8943
雖有西施之美容兮	-10.8943
騰告鸞鳥迎宓妃	-10.8943
中瞀亂兮迷惑	-10.8943
亢	-10.8943
今之相者兮舉肥	-10.8943
入下吾不能	-10.8943
六氣而飲沆瀣兮	-10.8943
冬榮	-10.8943
后辛之菹醢兮	-10.8943
君不知兮	-10.8943
吸飛泉之微液兮	-10.8943
吾寧悃悃	-10.8943
固時俗之流從兮	-10.8943
固朕形之不服兮	-10.8943
執弓挾矢	-10.8943
夏桀之常違兮	-10.8943
將運舟而下浮兮	-10.8943
帶長鋏之陸離兮	-10.8943
忽吾行此流沙兮	-10.8943
悃	-10.8943
投之深淵些	-10.8943
故重著以自明	-10.8943
曾重也	-10.8943
楫齊揚以容與兮	-10.8943
檻層軒些	-10.8943
澒	-10.8943
焉得夫朴牛	-10.8943
然容與而狐疑	-10.8943
然潢洋而不可帶	-10.8943
白日出之悠悠	-10.8943
盛氣志而過之	-10.8943
神有所不通	-10.8943
精醇粹而始壯	-10.8943
蓄怨兮積思	-10.8943
觧	-10.8943
謂騏驥兮安歸	-10.8943
變古易俗兮世衰	-10.8943
遵江夏	-10.8943
還及君之無恙	-10.8943
颯戾	-10.8943
騏驥伏匿而不見兮	-10.8943
㡬	-10.8943
松蘿	-10.8943
先祖	-10.8943
仰觀	-10.8943
悲回風	-10.8943
臆	-10.8943
菡	-10.8943
南渡	-10.8943
筐	-10.8943
倚沼畦瀛兮	-10.8943
匱匣也	-10.8943
恐禍殃之有再	-10.8943
暢	-10.8943
欲少留此靈瑣兮	-10.8943
無舟楫而自備	-10.8943
莽洋洋而無極兮	-10.8943
見執轡者非其人兮	-10.8943
賢士無名	-10.8943
途	-10.8943
邑邑	-10.8943
願徼幸而有待兮	-10.8943
不得見兮心傷悲	-10.8943
乃復使	-10.8943
倚結軨兮長太息	-10.8943
冠切雲之崔嵬	-10.8943
又孰能無變化	-10.8943
又重之以脩能	-10.8943
召豐隆使先導兮	-10.8943
君之心兮與余異	-10.8943
國有驥而不知椉兮	-10.8943
奉先功以照下兮	-10.8943
思君其莫我忠兮	-10.8943
數有所不逮	-10.8943
昔三后之純粹兮	-10.8943
涕潺湲兮下霑軾	-10.8943
濟沅湘以南征兮	-10.8943
焉皇皇而更索	-10.8943
狐死首丘	-10.8943
紏	-10.8943
繚戾	-10.8943
肥牛之腱	-10.8943
菀積	-10.8943
萹竹	-10.8943
見王子而宿之兮	-10.8943
誕實	-10.8943
諒無怨於天下兮	-10.8943
負左右之耿介	-10.8943
質銷鑠以汋約兮	-10.8943
邅翼翼而無終兮	-10.8943
邱	-10.8943
龍卭	-10.8943
􁊥	-10.8943
擬	-10.8943
諑	-10.8943
陰	-10.8944
黴	-10.8944
班孟	-10.8944
遇暗	-10.8944
員	-10.8944
時亹亹而過中兮	-10.8944
蹇淹留而無成	-10.8944
霾兩輪兮縶四馬	-10.8944
之流風兮	-10.8944
以娱憂	-10.8944
像設君室	-10.8944
儵一作倐	-10.8944
却騏驥而不乗兮	-10.8944
又何芳之能祗	-10.8944
弗參驗以考實兮	-10.8944
彼日月之照明兮	-10.8944
循繩墨而不頗	-10.8944
徵	-10.8944
心焉取此怵惕	-10.8944
恐田野之蕪穢	-10.8944
惜吾不及古人兮	-10.8944
惜誦以致愍兮	-10.8944
懸人以娭	-10.8944
指嶓冢之西隈兮	-10.8944
明法度之嫌疑	-10.8944
洿	-10.8944
澹容與而獨倚兮	-10.8944
然潢洋而不遇兮	-10.8944
熾盛	-10.8944
獨處廓	-10.8944
皯	-10.8944
竊悼後之危敗	-10.8944
紅壁沙版	-10.8944
縹匹妙切	-10.8944
舉賢而授能兮	-10.8944
行君之意	-10.8944
被音披	-10.8944
農夫輟耕而容與兮	-10.8944
近習	-10.8944
邊馬顧而不行	-10.8944
鉤繩	-10.8944
騎膠葛以雜亂兮	-10.8944
驂白霓之習習兮	-10.8944
事君而不貳兮	-10.8944
忽忘身之賤貧	-10.8944
曅	-10.8944
號令	-10.8944
誕	-10.8944
歌曲也	-10.8944
妹	-10.8945
刑誅	-10.8945
觀者憺兮忘歸	-10.8945
卑賤	-10.8945
厥父是臧	-10.8945
攝提貞于孟陬兮	-10.8945
斯無窮乎	-10.8945
淫淫流	-10.8945
牧夫牛羊	-10.8945
瘦	-10.8945
瞻前而顧後兮	-10.8945
縹綿綿之不可紆	-10.8945
若有人兮山之阿	-10.8945
處濁世而顯榮兮	-10.8945
路道也言	-10.8945
遷逡次而勿驅兮	-10.8945
駑馬	-10.8945
乃旋我之	-10.8945
何云賢士之不處	-10.8945
何能依	-10.8945
俳佪	-10.8945
判獨離而不服	-10.8945
周論道而莫差	-10.8945
堯舜皆有所舉任兮	-10.8945
壚	-10.8945
夕始臨乎於微閭	-10.8945
大侯張只	-10.8945
婉順	-10.8945
子神農時	-10.8945
尚欲布名乎天下	-10.8945
強巨良切	-10.8945
形容枯槁	-10.8945
後文昌使掌行兮	-10.8945
搴長洲之宿莽	-10.8945
斗斛	-10.8945
新曲	-10.8945
春秋忽其不淹兮	-10.8945
曰今詩作	-10.8945
桓公聞而知之	-10.8945
椉精氣之摶摶兮	-10.8945
椉騏驥之瀏瀏兮	-10.8945
涕淫淫其若霰	-10.8945
物有所不足	-10.8945
獨耿介而不隨兮	-10.8945
登於明堂	-10.8945
直怐愗而自苦	-10.8945
瞳子	-10.8945
秘密事之載心兮	-10.8945
篸	-10.8945
良工	-10.8945
荏	-10.8945
讎而見怨	-10.8945
讒謗	-10.8945
靣	-10.8945
馳椒丘且焉止息	-10.8945
黄粱	-10.8945
􁐡	-10.8945
翔翔	-10.8945
軼	-10.8945
層	-10.8945
吾令羲和弭節兮	-10.8945
子慕予兮善窈窕	-10.8945
愚闇	-10.8945
謀不同	-10.8945
辛夷車兮結桂旗	-10.8945
一無夫字	-10.8945
之不然也	-10.8945
即此也	-10.8945
在旁曰帷	-10.8945
嶄巖兮	-10.8945
忽神奔而鬼怪	-10.8945
恐時世之不固	-10.8945
挂於	-10.8945
排閶闔而望予	-10.8945
放遊志乎雲中	-10.8945
朴以忠乎	-10.8945
無伯樂之善相兮	-10.8945
破伯牙	-10.8945
竊美申包胥之氣盛兮	-10.8945
紛純純之願忠兮	-10.8945
美善之名也	-10.8945
臆也思一作	-10.8945
與其無義而有名兮	-10.8945
蟋蟀鳴此西堂	-10.8945
視儵忽而無見兮	-10.8945
貫薜荔之落	-10.8945
路貫廬江兮左長薄	-10.8945
難追逐也	-10.8945
露才揚已	-10.8945
非余心之所樂	-10.8945
不知所行也	-10.8945
云何而逢	-10.8945
五十畝	-10.8945
啄害下人些	-10.8945
後尚可以竄藏	-10.8945
日康娛而自忘兮	-10.8945
用君之心	-10.8945
羌儵忽而難當	-10.8945
舒緩	-10.8945
蔡女	-10.8945
軒轅不可攀援兮	-10.8945
過夏首而西浮兮	-10.8945
雖過失猶弗治	-10.8945
雝	-10.8945
驥不驟進而求服兮	-10.8945
􁊭	-10.8945
臑	-10.8945
彷徨	-10.8945
逴	-10.8946
霑	-10.8946
周邵	-10.8946
扳	-10.8946
願依彭咸之遺則	-10.8946
諒	-10.8946
媱	-10.8946
遘	-10.8946
思靈保兮賢姱	-10.8946
之也以言	-10.8946
已矣哉	-10.8946
𦵔	-10.8946
之所恥	-10.8946
九鬿	-10.8946
何所憂之多方	-10.8946
兮江臯	-10.8946
冀幸	-10.8946
卒壅蔽此浮雲兮	-10.8946
吾將過乎句芒	-10.8946
孤雌	-10.8946
心怵惕而震盪兮	-10.8946
惟天地之無窮兮	-10.8946
懃	-10.8946
我欲輔之	-10.8946
汝筮予之	-10.8946
涕漸漸	-10.8946
淑善也	-10.8946
溷亂	-10.8946
盧	-10.8946
相觀民之計極	-10.8946
策駑駘而取路	-10.8946
茷	-10.8946
蟪蛄	-10.8946
質菲薄而無因兮	-10.8946
載營魄而登霞兮	-10.8946
遊驚霧之流波	-10.8946
遭讒人而嫉之	-10.8946
陽杲杲其未光兮	-10.8946
願寄言夫流星兮	-10.8946
閴	-10.8946
枲	-10.8946
不可以託些	-10.8947
西施	-10.8947
厥萌在初	-10.8947
登九天兮撫彗星	-10.8947
舜閔在家	-10.8947
赤松	-10.8947
䠶革	-10.8947
上寥廓而無天	-10.8947
塵垢	-10.8947
性愚陋以褊淺兮	-10.8947
援玉枹兮擊鳴鼓	-10.8947
操七刀切	-10.8947
江潭	-10.8947
舉長矢兮射天狼	-10.8947
雜厠	-10.8947
㒺	-10.8947
之類是也	-10.8947
今焉薄	-10.8947
嚮	-10.8947
墜墮	-10.8947
彼堯舜之耿介兮	-10.8947
惟著意而得之	-10.8947
惟郢路之遼逺兮	-10.8947
掩浮雲而上征	-10.8947
焉語助	-10.8947
眇不知其所蹠	-10.8947
纂組綺縞	-10.8947
葰	-10.8947
螫	-10.8947
補曰瞀音茂	-10.8947
輕重	-10.8947
俛	-10.8947
華采衣兮若英	-10.8947
軟	-10.8947
伯昌	-10.8947
屬音燭	-10.8947
應龍	-10.8947
欀	-10.8947
忿恨	-10.8947
肇	-10.8947
載雲旗兮委蛇	-10.8947
靈之來兮蔽日	-10.8947
何故以東南傾	-10.8947
傷靈脩之數化	-10.8947
噑	-10.8947
娯樂	-10.8947
康回馮怒	-10.8947
廱	-10.8947
忽馳騖以追逐兮	-10.8947
恐脩名之不立	-10.8947
折若木以拂日兮	-10.8947
操余弧兮反淪降	-10.8947
白日晼晚其將入兮	-10.8947
竊慕詩人之遺風兮	-10.8947
竭知盡忠	-10.8947
經營四荒兮	-10.8947
迄	-10.8947
隂陽之正	-10.8947
非余心之所急	-10.8947
鸞鳥軒翥而翔飛	-10.8947
孛	-10.8947
岱	-10.8947
忼慨	-10.8947
漠而無聲	-10.8947
漢書郊祀志有	-10.8947
生天地之若過兮	-10.8947
而能與世推移	-10.8947
巖石	-10.8948
舛	-10.8948
恲	-10.8948
楯	-10.8948
沐	-10.8948
雖願忠其焉得	-10.8948
往若流	-10.8948
撫余馬兮安驅	-10.8948
何以識之	-10.8948
十二焉分	-10.8948
心煩慮亂	-10.8948
死則又育	-10.8948
負檐	-10.8948
九侯淑女	-10.8948
出自湯谷	-10.8948
子男	-10.8948
子胥死而	-10.8948
後悔遁而有他	-10.8948
有兮字	-10.8948
朝飲木蘭之墜露兮	-10.8948
獨便悁而	-10.8948
獨悲愁其傷人兮	-10.8948
目騰光些	-10.8948
稱量	-10.8948
紛旖旎乎都房	-10.8948
結恨	-10.8948
老冉冉其將至兮	-10.8948
而蔽鄣於讒	-10.8948
耗	-10.8948
苟中情其好	-10.8948
蛾眉曼睩	-10.8948
褰	-10.8948
贍	-10.8948
跛	-10.8948
願託志乎素餐	-10.8948
飛谷	-10.8948
驂駕	-10.8948
鏡	-10.8948
忠直之士	-10.8949
廓	-10.8949
猗	-10.8949
朅兮	-10.8949
中國兮	-10.8949
藤	-10.8949
攀	-10.8949
訪	-10.8949
去故而就新	-10.8949
怞	-10.8949
不可以相	-10.8949
之得一	-10.8949
周流六漠	-10.8949
啄	-10.8949
尠	-10.8949
怨公子兮悵忘歸	-10.8949
援北斗兮酌桂漿	-10.8949
䆒	-10.8949
九辨	-10.8949
也擥一作	-10.8949
哀人生之長勤	-10.8949
容態好比	-10.8949
廊廟	-10.8949
惠氣安在	-10.8949
持弓	-10.8949
是以見放	-10.8949
枳棘	-10.8949
汁	-10.8949
白日兮	-10.8949
與化去而不見兮	-10.8949
行吟澤畔	-10.8949
蹇充倔而無端兮	-10.8949
遺視矊些	-10.8949
長離殃而愁苦	-10.8949
隳	-10.8949
雜杜衡與芳芷	-10.8949
齋戒	-10.8949
􁅩	-10.8949
􁉯	-10.8949
螽	-10.8949
蛩	-10.8949
纚	-10.8949
敕	-10.8949
處婦憤	-10.8949
葌	-10.8949
可乆兮	-10.895
嚴殺盡兮棄原	-10.895
應律兮合節	-10.895
曽一作増	-10.895
東風飄兮神靈雨	-10.895
茱萸	-10.895
躳	-10.895
也引詩	-10.895
召黔嬴而見之兮	-10.895
名聲著而日延	-10.895
夕餐秋菊之落英	-10.895
天極焉加	-10.895
帝告巫陽	-10.895
微弱	-10.895
旎	-10.895
波滔滔兮來迎	-10.895
盛鬋不同制	-10.895
美往世之登仙	-10.895
見君而	-10.895
謇其有意些	-10.895
順彌代些	-10.895
願承風乎遺則	-10.895
且休息	-10.895
之嬋媛兮	-10.895
柳	-10.895
留不死之舊鄉	-10.895
瘏	-10.895
練	-10.895
螻蛄	-10.895
禀	-10.895
躇	-10.895
讙	-10.895
虹采	-10.895
不知所從	-10.895
留靈脩兮憺忘歸	-10.895
信讒佞	-10.895
匠	-10.895
大鼈	-10.895
張掖	-10.895
恐天時之代序兮	-10.895
悁悒	-10.895
慶雲	-10.895
橐	-10.895
比親也	-10.895
澁	-10.895
芽	-10.895
薑	-10.895
邪枉	-10.895
鳳皇翼其承旂兮	-10.895
鵕䴊	-10.895
􁘯	-10.895
耄	-10.895
引楚詞	-10.895
辱	-10.8951
本草白芷一名	-10.8951
嫌	-10.8951
子交手兮東行	-10.8951
彌堅	-10.8951
斤	-10.8951
求正氣之所由	-10.8951
登崑崙兮四望	-10.8951
管晏	-10.8951
芳菲菲其彌章	-10.8951
補曰紉女	-10.8951
輾	-10.8951
願壹見	-10.8951
九嶷	-10.8951
枉攘	-10.8951
民生各有所樂兮	-10.8951
藿	-10.8951
願竢時乎吾將刈	-10.8951
摡	-10.8951
䦧	-10.8951
隠伏	-10.8951
皇天	-10.8951
滄海	-10.8952
隔塞也	-10.8952
驩	-10.8952
泣霑	-10.8952
雲容容兮而在下	-10.8952
且徐遊戲	-10.8952
宛轉	-10.8952
形枯槁而獨留	-10.8952
激感	-10.8952
純黒	-10.8952
赩	-10.8952
雊	-10.8952
駕兩龍兮驂螭	-10.8952
􁫚	-10.8952
孔鸞	-10.8952
旰	-10.8952
芝栭	-10.8952
願徑逝而未得兮	-10.8952
陳列	-10.8952
脩㓗	-10.8952
唫	-10.8952
戃慌	-10.8952
先後	-10.8952
隋	-10.8952
埀	-10.8952
沈抑而不	-10.8952
炳	-10.8952
事貴	-10.8952
作惸	-10.8952
典謨	-10.8952
凙	-10.8952
奮羽	-10.8952
感結	-10.8952
掘	-10.8952
桂舟	-10.8952
爥	-10.8952
長顑頷亦何傷	-10.8952
􁈓	-10.8952
隩	-10.8952
南北順	-10.8952
九辯九歌	-10.8953
爾雅釋草云	-10.8953
蘇鶚演義云	-10.8953
君昏亂	-10.8953
平易	-10.8953
日將暮兮悵忘歸	-10.8953
泥塗	-10.8953
爛然	-10.8953
表獨立兮山之上	-10.8953
太儀	-10.8953
彈角而	-10.8953
揭揭	-10.8953
汪洋	-10.8953
溰	-10.8953
結縎	-10.8953
腩	-10.8953
華容備些	-10.8953
觴	-10.8953
諧	-10.8953
魏闕	-10.8953
﨑嶬	-10.8953
礒	-10.8953
九州	-10.8953
沈没	-10.8954
二八侍宿	-10.8954
姱女倡兮容與	-10.8954
姱苦	-10.8954
悼來者之悐悐	-10.8954
盡節	-10.8954
磳	-10.8954
軾	-10.8954
音翦	-10.8954
機蓬矢以	-10.8954
清凉	-10.8954
自明及晦	-10.8954
迫脅	-10.8954
陸夷	-10.8954
裂	-10.8954
逢殃	-10.8954
蔬	-10.8954
儷	-10.8954
任政職	-10.8954
邪僞	-10.8954
梨	-10.8954
騂	-10.8954
名忌	-10.8954
吼	-10.8954
嶔岑	-10.8954
曏	-10.8954
歿	-10.8954
葱嶺	-10.8954
迻	-10.8954
隷	-10.8954
靈澤	-10.8954
廬	-10.8955
鴳	-10.8955
邉	-10.8955
曄	-10.8955
問天道之	-10.8955
攬茹蕙以掩涕兮	-10.8955
虀	-10.8955
璋珪	-10.8955
麋鹿	-10.8955
目睞謹也	-10.8955
羌中道而回畔兮	-10.8955
臯陶	-10.8955
蓼蟲不知	-10.8955
見伯夷之放迹	-10.8955
緩	-10.8955
纕兮	-10.8956
蘄茝	-10.8956
憾	-10.8956
鄭康成	-10.8956
三秀	-10.8956
䇿謀	-10.8956
涕滂沲	-10.8956
索胡繩之纚纚	-10.8956
更平聲	-10.8956
求介子之所存兮	-10.8956
讒䦧	-10.8956
負熊以遊	-10.8956
鄢郢	-10.8956
閔傷	-10.8956
駕馬	-10.8956
麚	-10.8956
殦	-10.8956
相朋	-10.8956
隍	-10.8956
駕龍	-10.8956
闢	-10.8956
悲余心之悁悁兮	-10.8956
漇	-10.8956
野心中	-10.8956
一作胹	-10.8956
刻著志之無適	-10.8956
回翔	-10.8956
媒人	-10.8956
愴然	-10.8956
曼曼長	-10.8956
桂枝	-10.8956
雜於黀蒸兮	-10.8956
謂文王也	-10.8957
皇皇	-10.8957
祕	-10.8957
拏	-10.8957
龢	-10.8957
賢才	-10.8957
嗌喔	-10.8957
噰	-10.8957
水之涯	-10.8957
涫	-10.8957
物有微而隕性兮	-10.8957
舉動	-10.8957
蔟	-10.8957
雙匹	-10.8957
離騷圖	-10.8957
􁆍	-10.8957
脆	-10.8957
舒情	-10.8957
劬	-10.8957
謟䛕	-10.8957
七諌	-10.8958
俊彦	-10.8958
危亡	-10.8958
市切	-10.8958
相副	-10.8958
順流	-10.8958
便事	-10.8958
坂	-10.8958
喻小	-10.8958
舊音羊	-10.8958
又有一種	-10.8958
黜貶	-10.8959
以割	-10.8959
撮	-10.8959
依依	-10.8959
危俊	-10.8959
脈	-10.8959
風肅	-10.8959
誼	-10.8959
也悠一作	-10.8959
紆余轡兮	-10.8959
作離騷上	-10.8959
望舊邦	-10.8959
不可待	-10.8959
列樹	-10.8959
圭	-10.8959
婉娩	-10.8959
崯崯	-10.8959
待明時也	-10.8959
相如賦云	-10.8959
以示	-10.896
先驅	-10.896
八極	-10.896
迷瞀	-10.896
勤而	-10.896
長訣	-10.896
懭悢	-10.896
之所識	-10.896
六經	-10.896
墨陽	-10.896
或稱	-10.896
逸以爲	-10.896
納納	-10.896
味苦	-10.896
仁賢	-10.896
帷幄也	-10.8961
日隂曀	-10.8961
伸要	-10.8961
懸圃	-10.8961
深林兮	-10.8961
的切	-10.8961
逢遇	-10.8961
周公	-10.8961
科	-10.8961
稱皇	-10.8961
諮	-10.8961
庫婁	-10.8961
欲逺去也	-10.8961
羔裘	-10.8961
䠶姦	-10.8961
也逶一作	-10.8961
冀州	-10.8961
平原	-10.8961
支解	-10.8961
望長楸而太息兮	-10.8961
吮	-10.8962
蘭橑	-10.8962
煩冤	-10.8962
奪	-10.8962
漢渚	-10.8962
無窮極	-10.8962
緣木	-10.8962
鳥飛	-10.8962
回邪	-10.8962
停	-10.8963
而無害厥躬	-10.8963
璇璣	-10.8963
綫	-10.8963
涂	-10.8963
禄命	-10.8963
前後	-10.8963
啞	-10.8963
夢中	-10.8963
嫇	-10.8963
悼亂	-10.8963
感余	-10.8963
祲	-10.8963
筴	-10.8963
蜿蟬	-10.8963
計謀	-10.8963
陶遨	-10.8963
騷屑	-10.8963
介特	-10.8963
峊	-10.8963
不枉	-10.8963
躍	-10.8963
也音萬	-10.8963
怊音	-10.8963
之南有	-10.8963
九折	-10.8963
瓊華	-10.8963
而防	-10.8963
角動	-10.8963
黴黧	-10.8963
佩玉	-10.8964
黧	-10.8964
合黎	-10.8964
炎野	-10.8964
予一作余	-10.8964
寤辟	-10.8964
茨	-10.8964
明旦	-10.8964
煮	-10.8964
乍東西也	-10.8964
夏首	-10.8964
竹根	-10.8965
戰國	-10.8965
辭賦	-10.8965
狶以	-10.8965
悲哀	-10.8965
浮石	-10.8965
英俊	-10.8965
酆	-10.8965
永思兮	-10.8965
不得揚	-10.8965
其不吾	-10.8965
松柏	-10.8965
寢食	-10.8965
嵾	-10.8965
怊怊	-10.8965
振翅	-10.8965
煩懣	-10.8965
邪佞	-10.8965
鴻鸕	-10.8965
烱	-10.8966
殽亂	-10.8966
周旋	-10.8966
成章	-10.8966
聫	-10.8966
七月	-10.8966
音希	-10.8966
鴝	-10.8967
君不察	-10.8967
日華子云	-10.8967
皇羲	-10.8967
行不正	-10.8967
駏	-10.8967
厲神	-10.8967
而賜封之	-10.8967
固知	-10.8967
丘墟	-10.8968
惜賢	-10.8968
太阿	-10.8968
而班固	-10.8968
効忠	-10.8968
盤紆	-10.8968
雲浮	-10.8968
感時	-10.8968
疾風	-10.8968
泣如	-10.8968
忠謀	-10.8968
蒯苦怪	-10.8969
阻相薄	-10.8969
壈	-10.8969
也靈一作	-10.8969
先進	-10.8969
肺	-10.8969
嗜	-10.8969
橫奔	-10.897
壄莽	-10.897
藁本	-10.897
咷音	-10.897
贄	-10.897
逶隨	-10.897
青橘	-10.897
出口	-10.897
朝堂	-10.897
而髙翔	-10.897
衣動	-10.897
丹山	-10.8971
意欲隨水	-10.8971
遺失	-10.8971
内外	-10.8972
憫上	-10.8972
神龍	-10.8972
其無人	-10.8972
仲尼	-10.8972
仇荀	-10.8972
二聖	-10.8972
生扵	-10.8972
南楚	-10.8972
通稱也	-10.8973
不能安	-10.8973
九旬	-10.8974
周遍	-10.8974
開軌	-10.8974
跳	-10.8974
困窮	-10.8974
潔清	-10.8974
眩惑	-10.8974
之遺風	-10.8974
刪詩書	-10.8974
獨無所	-10.8974
迂逺	-10.8974
通路	-10.8974
隴堆	-10.8974
音義同	-10.8974
依違	-10.8974
泫	-10.8974
脩夜	-10.8974
屈原之詞	-10.8974
任用	-10.8975
般	-10.8975
南極	-10.8975
異形	-10.8976
何殊	-10.8976
大海	-10.8976
綜	-10.8977
耳目	-10.8977
虈	-10.8977
舨	-10.8977
鶉鴳	-10.8977
屈原受	-10.8977
秋風	-10.8977
分離	-10.8977
言汝	-10.8977
雲衣	-10.8977
永年	-10.8977
似莎而大	-10.8978
悽愴	-10.8978
章華	-10.8978
終不能	-10.8978
萌生	-10.8978
復以所	-10.8978
邠岐	-10.8978
來歸	-10.8979
曰說文	-10.8979
相糾	-10.8979
於桂樹	-10.8979
泣下	-10.8979
玄武	-10.8979
寄獨	-10.8979
悲鳴	-10.8979
而長悲	-10.8979
其羽	-10.8979
安意	-10.898
也補曰莊子曰	-10.8981
羣司	-10.8981
原野	-10.8981
入江	-10.8981
申子	-10.8981
莫足與	-10.8981
衆口	-10.8981
初放	-10.8981
告我	-10.8981
彼南	-10.8981
復歸	-10.8981
然無所	-10.8981
而左傾	-10.8981
芹	-10.8982
澤蘭	-10.8982
誰可與兮	-10.8982
六蛟兮	-10.8982
綺切	-10.8982
隴	-10.8983
禍患也	-10.8983
妙思	-10.8983
狹長	-10.8983
屈原賦	-10.8983
猴猿	-10.8983
而自退	-10.8983
及榮華之未落兮	-10.8983
於君則	-10.8983
葫	-10.8983
高翔	-10.8983
龍葵	-10.8983
以量	-10.8984
大人賦曰	-10.8984
掌禹錫云	-10.8985
莫莫	-10.8985
高辛	-10.8985
前驅	-10.8986
兩水	-10.8986
愍命	-10.8986
顧念	-10.8986
三光	-10.8986
想見	-10.8986
解亂	-10.8986
流星	-10.8986
古登	-10.8987
大雅	-10.8987
補曰爲去聲	-10.8987
流瀾兮	-10.8988
然中路而迷惑兮	-10.8988
靈魂	-10.8988
白華	-10.8989
浮江	-10.899
炎火兮	-10.899
􁪮􁪮	-10.899
㣲黄	-10.899
入冥	-10.8991
守志	-10.8991
衆穢	-10.8992
證切	-10.8992
成化	-10.8992
嘯兮	-10.8992
慎云	-10.8992
盛隂	-10.8993
中惻	-10.8993
二列	-10.8993
名平	-10.8993
熟則	-10.8993
蛇床	-10.8993
雜申椒與菌桂兮	-10.8993
中去聲	-10.8994
以寂寞	-10.8994
同姓	-10.8994
肆行	-10.8995
元氣	-10.8995
皆行佞	-10.8995
去終古之所居兮	-10.8995
齊光	-10.8996
過觀	-10.8996
懷沙	-10.8997
照見	-10.8997
升天	-10.8997
榜舫	-10.8997
而不得見	-10.8997
中壄	-10.8997
而隱藏	-10.8998
交集	-10.8998
質正	-10.8998
説者曰	-10.8998
隂氣	-10.8999
沛沛	-10.8999
曰靈均	-10.8999
汎	-10.9
揚流	-10.9
則法也	-10.9
夫惟	-10.9001
神鳥	-10.9002
殺人	-10.9002
於江濵	-10.9002
階兮	-10.9004
說非是	-10.9004
心紆	-10.9005
轉移	-10.9006
遇神	-10.9006
隠隠	-10.9006
不寤	-10.9007
枝葉	-10.9007
周流於	-10.9007
僕夫之	-10.9008
王逸無	-10.9008
終朝	-10.9008
韓之	-10.9009
樹木	-10.9009
而不容兮	-10.901
三華	-10.901
來風	-10.901
自侯	-10.901
首山	-10.901
悲其志	-10.901
他方也	-10.901
操行	-10.9011
靈䰟	-10.9012
疾世	-10.9012
百六十	-10.9012
進惡	-10.9013
言鳥獸	-10.9013
補曰頓	-10.9013
言巳思念	-10.9013
周道	-10.9014
其冝也	-10.9014
言工	-10.9015
俗流	-10.9015
而媒	-10.9015
讒夫	-10.9015
游乎	-10.9016
幽昏	-10.9017
言天地	-10.9017
衆聲	-10.9017
君政	-10.9017
㒵也言	-10.9018
道要	-10.9019
怨上	-10.9019
神山	-10.9019
南國	-10.902
也其一作之	-10.902
粉切	-10.902
聖道	-10.9021
音晏	-10.9022
載雲旗之委蛇兮	-10.9022
言讒人	-10.9023
舊俗	-10.9023
思還	-10.9023
述其	-10.9024
先王之	-10.9024
橫木	-10.9024
其祀	-10.9025
莽草	-10.9025
離離	-10.9027
昭明兮	-10.9028
恨於	-10.9029
背我	-10.9029
惡草	-10.9031
上征	-10.9031
管切	-10.9031
失意	-10.9032
水深	-10.9033
世莫	-10.9034
冝脩	-10.9036
逺近	-10.9037
執心	-10.9038
得鹿	-10.9038
南榮	-10.9039
一名地	-10.9039
介子	-10.904
逾一作	-10.904
但有	-10.904
亦通	-10.9041
相從	-10.9042
貞良兮	-10.9042
有蘇	-10.9042
横木	-10.9045
薄天	-10.9045
舍止	-10.9045
靈神	-10.9046
不見	-10.9047
汨羅之	-10.9049
皆取	-10.9049
在山野	-10.9049
山林	-10.905
山間	-10.9053
吾欲	-10.9054
漁父曰	-10.9056
玄黃	-10.9057
宜修	-10.9057
賢君	-10.9057
登乎	-10.9059
之月	-10.906
桂心	-10.906
以次	-10.906
之服也	-10.906
一名水	-10.906
黄華	-10.9061
而不反	-10.9061
廓落兮	-10.9063
博雅曰	-10.9064
為蘆	-10.9064
年歲	-10.9064
志望	-10.9066
君臣	-10.9066
君異	-10.9067
堯切	-10.9067
無良	-10.9071
咎繇兮	-10.9072
而不通	-10.9074
營切	-10.9075
九思	-10.9076
玉英兮	-10.9079
若夫	-10.9081
也補曰壇音善	-10.9081
忽乎吾將行兮	-10.9081
頽兮	-10.9081
遇害	-10.9082
𤣥黄	-10.9083
心爲	-10.9084
震動也	-10.9086
補曰撰	-10.9087
惡者	-10.9087
音加	-10.9088
至于	-10.9088
南子	-10.909
星名	-10.9091
下土	-10.9092
此類	-10.9092
郢之	-10.9092
幽冥也	-10.9092
縈也	-10.9092
害人	-10.9093
當道	-10.9095
節行	-10.9096
先行	-10.9097
葉者為	-10.9097
也言美女	-10.9098
禹湯文王也	-10.9099
誣也	-10.9099
於角	-10.9101
其苗	-10.9101
衆皆	-10.9102
也左氏傳曰	-10.9103
哀哀而	-10.9103
邑里	-10.9103
作俊	-10.9104
兄也	-10.9104
以渡	-10.9105
悁	-10.9105
心常	-10.9105
邪惡	-10.9106
天不可	-10.9106
斥逐也	-10.9107
不足	-10.9107
言武王	-10.9108
左右之	-10.9108
以山海經	-10.9109
雅曰	-10.9111
不舒	-10.9112
山神	-10.9112
下沈	-10.9115
次序	-10.9115
之地	-10.9116
進御	-10.9118
音緑	-10.9118
音增	-10.9119
死也補	-10.912
倡曰	-10.9123
言巳自	-10.9124
不昭	-10.9124
自悲哀	-10.9127
聞其	-10.9128
不通	-10.9128
于筆切	-10.9129
涉江	-10.913
音叢	-10.913
言已雖	-10.913
以忠信	-10.9131
御兮	-10.9133
水水	-10.9133
勞我心	-10.9135
音眉	-10.9135
流去	-10.9135
言巳願	-10.9135
隱隱	-10.914
兮巖穴	-10.9142
書云	-10.9145
憂也音	-10.9147
自相	-10.9147
湯音	-10.9148
一篇	-10.9151
其根	-10.9151
為政	-10.9154
二人	-10.9156
容身	-10.9157
用心	-10.9157
之異	-10.9157
山氣	-10.9158
足以	-10.9161
所處	-10.9161
皇輿之	-10.9163
不忘	-10.9164
而不見	-10.9168
歸誠	-10.9168
又謂之	-10.9171
味辛香	-10.9172
放逺	-10.9172
人焉	-10.9173
其光	-10.9173
遂自	-10.9175
耳又	-10.9176
裁制	-10.9177
高丘	-10.918
南指月與列星	-10.918
天池也	-10.9183
起而	-10.9185
也極窮也	-10.9186
去兮	-10.9187
所死	-10.9189
靡有	-10.9193
無明	-10.9197
未改此度也	-10.9199
補曰聊音留	-10.92
徘徊兮	-10.9201
屈子兮	-10.9201
之弟	-10.9203
也書曰	-10.9204
髙丘	-10.9204
友兮	-10.9207
叩擊也	-10.9208
入於海	-10.921
近君	-10.9213
天生	-10.9214
白鵠	-10.9215
多憂	-10.9216
乆也	-10.9219
此國	-10.9222
衍兮	-10.9226
得所	-10.9227
而放逐	-10.9227
而歸	-10.9228
言持	-10.9231
内有	-10.9232
髙舉兮	-10.9233
賦曰	-10.9233
揚舉也	-10.9235
亦名	-10.9236
一顧	-10.9242
有節	-10.9246
有赤	-10.9248
兮賢者	-10.9249
以厲	-10.9249
敗兮	-10.925
以興	-10.9254
兮容與	-10.9256
顧眄	-10.9257
水清	-10.9262
也尚書曰	-10.9268
纒也	-10.9268
之色	-10.9269
來迅疾	-10.927
積而	-10.9271
兮周流	-10.9272
長大	-10.9279
乎補	-10.9279
喻讒	-10.9281
終年命	-10.9282
於義	-10.9283
附也	-10.9286
知所之也	-10.9292
去故	-10.9293
日又	-10.9294
䜛人	-10.9296
曰次	-10.9297
羣一	-10.9307
神名	-10.9307
文采也	-10.9309
暮兮	-10.9313
當世	-10.9315
不慙	-10.9317
天庭也	-10.9321
一作章	-10.9322
恨兮	-10.9323
兮超	-10.9328
以永	-10.9328
言已見	-10.9329
靈脩之	-10.9332
揺動	-10.9333
道故	-10.9336
悄悄	-10.9337
正謂	-10.9337
者即	-10.9338
兮慘	-10.9344
魚切	-10.9344
大澤	-10.9346
天對	-10.935
以自明	-10.935
言復有	-10.935
以度	-10.9355
驚兮	-10.9371
也其一作	-10.9373
則生	-10.9376
生兮	-10.9377
詐也	-10.9379
瑞	-10.9379
爲去聲	-10.9384
多用	-10.9389
夫有	-10.9392
䜛言	-10.9402
戒也	-10.9406
毁之	-10.9408
崑崙山也	-10.9408
快也	-10.941
之幽	-10.9411
焉陳	-10.9411
也之一作而	-10.9414
補曰睠	-10.9414
漿也	-10.9415
有小	-10.9418
西曰	-10.9421
逸註	-10.9421
使不	-10.9428
一作介	-10.943
言常	-10.9448
君謂	-10.9451
芷之	-10.9458
喻賢人	-10.9459
所思	-10.9462
自寛	-10.9473
之故也	-10.9483
當與	-10.9484
任之	-10.9485
音常	-10.9489
棄捐	-10.9496
也言君	-10.9498
實不	-10.9499
髙皃	-10.9499
思故	-10.95
言已心	-10.9507
哀我	-10.9509
其風	-10.951
焉一	-10.9512
沒切	-10.9516
受天	-10.9517
山海經云	-10.9518
如麻	-10.9526
稱之	-10.9528
者屈原	-10.9531
令之	-10.9534
用之也	-10.9547
不樂	-10.9547
兮歸來反故居些	-10.9549
人心不可謂兮	-10.9551
為小人	-10.9561
知切	-10.9562
厚之	-10.9569
也宋玉	-10.9591
而内	-10.9593
一作歸	-10.9593
已欲	-10.9605
羣佞	-10.9611
義亦	-10.9624
也洪慶善曰	-10.9626
納也	-10.9632
此字	-10.9632
駕兮	-10.9636
騰兮	-10.9639
補曰膠	-10.9644
食也	-10.9644
貌補	-10.9645
而死	-10.9661
堂兮	-10.9666
聖明也	-10.968
懷王之	-10.968
未盡	-10.968
幸兮	-10.9682
潤也	-10.9694
小而	-10.9697
音遂	-10.97
馬也	-10.9703
意以	-10.9704
言國	-10.9705
異者	-10.9709
根如	-10.9718
之和	-10.9733
伊尹也	-10.9737
者謂	-10.9742
補曰並音	-10.9744
沸也	-10.9747
逃也	-10.9752
紉	-10.9753
之宫	-10.9756
一作苦	-10.9756
乃逝	-10.9763
而異	-10.9773
言巳見	-10.9776
無所依	-10.9782
折兮	-10.9793
山西	-10.9799
黄棘之枉	-10.9812
及也補曰	-10.9827
矣補曰	-10.9831
兮幽	-10.9833
量度也	-10.9836
葉切	-10.9838
何不	-10.9842
其猶	-10.9842
悲也	-10.9842
天下之	-10.9852
色黄	-10.9861
可改	-10.9866
域	-10.9868
其文	-10.9868
蕙兮	-10.9872
發也	-10.9877
之俗	-10.988
而進	-10.9887
至㑹稽	-10.9898
不如	-10.9898
補曰假	-10.99
宿兮	-10.9908
中和	-10.9909
徧也	-10.9917
一作芳	-10.9929
穢也	-10.9938
之南	-10.9938
可切	-10.9939
黙也	-10.9946
善也	-10.9946
也言人	-10.9947
凶也	-10.9954
誠兮	-10.9957
也郭璞	-10.9961
其志也	-10.9968
知也	-10.9978
黒兮	-10.9985
湯之	-10.9993
及也	-10.9993
理兮	-10.9994
夏大	-10.9995
曰閒音	-10.9998
苦之	-11.0006
湘水	-11.0017
於逺	-11.0021
而奔走	-11.0027
其髙	-11.0029
直之	-11.0036
繽紛	-11.0043
愁悴	-11.0049
之反	-11.0049
之未	-11.005
徳如	-11.0063
者上	-11.0065
香而	-11.007
暮也	-11.0076
為難	-11.0086
壁也	-11.0115
疑也	-11.0137
知之	-11.0144
行不進	-11.0145
榮也	-11.0156
見兮	-11.0161
懐襄	-11.0165
日以	-11.0165
之菌	-11.0172
紀也	-11.0173
甚切	-11.0175
務也	-11.0177
而辭	-11.018
連也	-11.0192
順也	-11.0193
於上	-11.0198
曲兮	-11.0198
其人	-11.0203
琴瑟	-11.0209
此心	-11.0215
俗兮	-11.0216
之行也	-11.0217
所有	-11.0221
政之	-11.0223
草叢生	-11.0232
之口	-11.0234
言屈原	-11.0236
鳴兮	-11.0247
見切	-11.0255
念楚	-11.026
祿也	-11.0288
無所用	-11.0303
而從	-11.0311
為三	-11.0328
音聊一	-11.0329
毀之	-11.0346
或謂之	-11.0352
反為	-11.0354
逹兮	-11.0367
葛切	-11.0371
皆用	-11.0376
偶也	-11.0396
念懐王	-11.0396
之形	-11.0399
仕也	-11.0403
屈子之	-11.0406
之人也	-11.0415
饒	-11.0422
言有	-11.0428
承君	-11.0434
第六	-11.0443
異也	-11.0444
事君	-11.0461
(􁪡	-11.0462
執之	-11.0468
故其	-11.0477
貌詩云	-11.0485
第二	-11.0485
與日月	-11.0497
洪範	-11.0505
念懷王	-11.0528
細而	-11.0539
達兮	-11.0548
兮陳	-11.0558
死不	-11.0563
先生	-11.0563
人之所	-11.0571
一作在	-11.0573
南郢	-11.0586
南曰	-11.0589
尚未	-11.0616
作志補曰	-11.0624
從之	-11.0634
臣之	-11.0635
别之	-11.0647
三王	-11.0665
水神	-11.0669
對曰	-11.0707
入兮	-11.0721
不成	-11.0728
鼔琴	-11.0746
以上	-11.0775
氏以	-11.0779
情兮	-11.08
服好	-11.0817
以白	-11.0821
第十七	-11.0837
身之	-11.0885
方言云	-11.0889
上行	-11.089
陽氣	-11.0903
化音	-11.0905
彰	-11.0908
即以	-11.091
兮靈	-11.0939
撃也	-11.0969
作導	-11.0986
忿也	-11.0993
定也	-11.1
離憂	-11.1002
同音	-11.1008
位尊	-11.1014
娱也	-11.1026
羅也	-11.104
屈原之	-11.1051
身以	-11.1053
不猒	-11.1082
栭	-11.1088
域也	-11.1104
而逺	-11.1117
失之	-11.1135
故切	-11.1158
無私	-11.1165
山野	-11.1169
去之	-11.1189
念楚國	-11.1202
不息	-11.1208
皆解於	-11.124
木桂	-11.1242
命也	-11.1267
傷也	-11.1272
而此	-11.1275
生而	-11.1297
為我	-11.1308
同志也	-11.1325
切説文	-11.1341
爲衣	-11.1363
王之	-11.1374
渫	-11.1377
佞也	-11.139
寒也	-11.1397
德而	-11.1405
第十四	-11.1408
一作乎	-11.1411
大人	-11.1415
徑也	-11.1417
海經云	-11.1473
見疑	-11.1485
畧	-11.1489
遲遲其	-11.1508
容貌	-11.151
起五臣云	-11.1511
之善	-11.1511
而甚	-11.1526
又名	-11.1534
思忠	-11.1549
喻君	-11.155
卓	-11.1554
第十五	-11.1579
與事	-11.1584
可復	-11.1585
恃	-11.1592
第十三	-11.1603
一無而字	-11.1618
跼兮寒	-11.1639
初生	-11.1641
杜蘅也	-11.1642
襃姒	-11.1649
意兮	-11.1652
懐思也	-11.1659
大故	-11.1669
行者	-11.169
一作徠歸	-11.1694
光也	-11.17
實兮	-11.1724
無别	-11.1735
瑶華	-11.1737
所志	-11.1767
慙	-11.1783
髙萬仞	-11.1818
緯	-11.1837
苴蓴	-11.1839
兮聖	-11.184
九歌九	-11.184
草一作艸	-11.185
蒚	-11.1852
楚國也言	-11.1861
以求同志也	-11.1865
歷兹	-11.1869
言巳雖	-11.1873
迅疾	-11.1884
之法度	-11.1905
不知所	-11.1906
百姓	-11.1908
兮蘭	-11.1914
堂下	-11.1924
未改此度	-11.1935
而鳴	-11.1943
博物志	-11.1946
叩擊	-11.1952
詩云憂	-11.1953
作㢮	-11.1956
者不	-11.1962
於此	-11.1985
天池	-11.1996
青白	-11.2029
切無	-11.2029
歷九	-11.203
一名白	-11.2041
怫	-11.2047
淸潔	-11.205
藝	-11.2053
斲	-11.2066
郢也	-11.2074
道一	-11.2074
蘭香	-11.2076
欽定四庫全書	-11.208
以别	-11.2082
撰	-11.2086
荆和	-11.2091
玉石	-11.211
裁	-11.2116
哲	-11.2117
乘龍	-11.2126
哀兮	-11.2129
排	-11.2132
也補曰襲	-11.2134
玉門	-11.2139
載雲旗之委蛇	-11.2147
隱身	-11.2148
而復	-11.2151
十五	-11.2153
補曰化	-11.2154
第十一	-11.2157
魂兮歸徠	-11.2158
祗敬	-11.2159
又樹蕙之百畝	-11.216
慼	-11.2162
茈	-11.2164
五臣云喻	-11.2166
鄣	-11.2166
讒賊	-11.2168
吉	-11.2169
腹	-11.2171
山多	-11.2173
結言	-11.2174
娶	-11.2176
放在	-11.2177
貽	-11.218
國名	-11.218
迭	-11.218
貞良	-11.2182
軀	-11.2182
國無人	-11.2192
職	-11.2194
革	-11.2195
陳藏器	-11.2195
藷	-11.22
莖赤	-11.22
薕	-11.2201
奄	-11.2202
審	-11.2203
明月	-11.2203
恐誤	-11.2203
龍門	-11.2204
歔欷	-11.2204
聖賢	-11.2205
卉	-11.2205
扈	-11.2207
槩	-11.2209
韓	-11.221
而不還也	-11.2211
韋	-11.2212
書曰	-11.2213
浩蕩	-11.2213
毛公	-11.2214
酌	-11.2215
障	-11.2215
靈懐	-11.2216
峩	-11.2217
靈懷	-11.2217
㒵也言已	-11.2217
藕	-11.2218
彫胡	-11.2218
雌雄	-11.2219
乖差	-11.222
黄棘	-11.2222
殀	-11.2222
謳	-11.2222
光風	-11.2223
報	-11.2223
蠹	-11.2223
尤過也	-11.2225
饒樂	-11.2227
木堇	-11.2228
下五	-11.2228
薏	-11.223
例	-11.2231
不作劒脊	-11.2231
怊	-11.2232
妲	-11.2232
殱	-11.2232
耕	-11.2233
妻	-11.2233
楚辭卷第十	-11.2233
菹	-11.2234
籬	-11.2234
嫉妒	-11.2235
市	-11.2237
菼	-11.2237
泄	-11.2238
肴	-11.2239
旹	-11.224
暮宿	-11.224
忠直之節	-11.2242
麗	-11.2242
屣	-11.2242
噭	-11.2242
剥	-11.2242
罪過也	-11.2243
穆	-11.2243
軫石崴嵬	-11.2243
大壑	-11.2243
等謹案	-11.2244
沆瀣	-11.2244
二序舊在	-11.2245
巑	-11.2245
咷	-11.2245
缺	-11.2245
瑋	-11.2247
礫	-11.2248
闇惑不	-11.2248
貢	-11.2248
谿谷	-11.2248
僻	-11.2248
行隱進兮	-11.2248
下音户	-11.2249
瓊玉之	-11.2249
實沛徂兮	-11.2249
小雅怨誹而不亂若離騷者可謂	-11.2249
穫	-11.2249
江河之紆曲	-11.225
狶	-11.225
竟	-11.225
風土記	-11.2251
瑰	-11.2251
績	-11.2251
莞蒲	-11.2251
姜	-11.2251
染	-11.2251
復有	-11.2251
抒	-11.2251
拒	-11.2252
擘	-11.2252
臂更	-11.2252
如雨	-11.2252
煇	-11.2252
笫	-11.2252
棊	-11.2252
摶	-11.2252
憂心不遂	-11.2253
水葵	-11.2253
孔靜幽	-11.2253
眴兮杳杳	-11.2253
魂乎歸徠無東無西無南無北	-11.2253
嘷	-11.2253
聊以自救兮	-11.2253
姚	-11.2253
索藑茅以筳篿	-11.2254
東有大海溺水浟浟只	-11.2254
淡	-11.2254
莫補切	-11.2254
鬱結紆軫兮	-11.2254
魂乎歸徠尚賢士只	-11.2254
蕩蕩	-11.2254
冬有穾	-11.2255
碧	-11.2255
夏屋廣大沙堂秀只	-11.2255
離慜而長鞠	-11.2255
靈遙思	-11.2255
魂乎歸徠恣所便只	-11.2255
魂乎無西西方流沙	-11.2255
嶷	-11.2255
欲髙飛而逺集兮	-11.2256
曲屋歩壛	-11.2256
湯湯	-11.2256
觀絶霤只	-11.2256
騰駕歩	-11.2256
而易	-11.2256
虎爲	-11.2256
荔	-11.2256
生下濕地	-11.2256
邢昺云	-11.2256
夫何辠尤	-11.2256
渠糾	-11.2256
董	-11.2256
蜿蜒	-11.2256
被髮鬤只	-11.2256
路遠處幽	-11.2256
之飯芬香且柔滑也	-11.2257
壅一作雍	-11.2257
滓	-11.2257
順長瀬之	-11.2257
魂乎無南南有炎火千里	-11.2257
魂乎無東湯谷	-11.2257
抑按也	-11.2258
苽	-11.2258
屋也	-11.2258
橙	-11.2258
屈原曰吾聞之	-11.2258
下墜也	-11.2258
夷猶宿北姑兮	-11.2258
穆王巧梅	-11.2258
經堂入奥	-11.2258
翡	-11.2258
覽民尤以自鎮	-11.2258
龍駕兮帝服	-11.2258
僊	-11.2258
入于	-11.2259
瑾握瑜而自令見放	-11.2259
何親揆發足	-11.2259
叩鍾調磬	-11.2259
娥眉曼只	-11.2259
憂心不遂斯言誰告兮	-11.2259
汜崇蘭些	-11.2259
煩冤瞀容	-11.2259
篝	-11.2259
4	-11.2259
其祠必作	-11.2259
復旋反	-11.2259
憐思心之不可懲兮	-11.2259
漭洋洋只	-11.2259
漵	-11.2259
發政獻行	-11.2259
茀	-11.2259
逞志究欲	-11.2259
鴟龜	-11.2259
乂	-11.2259
䟫	-11.226
桐	-11.226
昔君與我誠言兮	-11.226
瓉	-11.226
自令放	-11.226
試	-11.226
結微情以陳詞兮	-11.226
草兮	-11.226
靈皇皇兮既降	-11.226
乏	-11.226
抑志而弭節兮	-11.226
樂鼓舞以樂諸神	-11.226
清馨凍	-11.226
葶藶	-11.226
虎豹蜿只	-11.226
高萬仭	-11.226
芙蓉始發	-11.226
渥	-11.2261
登大墳	-11.2261
兾幸君之	-11.2261
文縁波些	-11.2261
盗	-11.2261
九歌者屈原之所作也昔楚	-11.2261
奏九歌而舞韶兮	-11.2261
撗	-11.2261
撫情効志兮	-11.2261
衽若交竿	-11.2261
證此言之不可聊	-11.2261
遼逺	-11.2261
廊	-11.2262
嗷	-11.2262
欽	-11.2262
安能以皓皓之白	-11.2262
寧赴湘流	-11.2262
矇	-11.2262
開闔	-11.2262
以為君獨服此蕙兮	-11.2262
何以窴之	-11.2262
八維以自	-11.2262
南郢之邑沅湘之間其俗信鬼而好	-11.2262
報大德之優游	-11.2262
壛	-11.2262
大人所盛	-11.2262
好蔽美而嫉妬	-11.2262
孰察其撥正	-11.2262
搷鳴鼓些	-11.2262
曲眉規只	-11.2262
望屠於朝歌兮	-11.2262
材朴委積兮	-11.2262
洪泉極深	-11.2262
淫溢而將罷兮	-11.2262
矇瞍謂之不章	-11.2262
蘭茝幽而獨芳	-11.2262
蝮蛇蜒只	-11.2262
詳補曰詳	-11.2262
謠	-11.2262
豈知其何故	-11.2262
長爪踞牙	-11.2262
願志之有像	-11.2262
鬱渥	-11.2262
黄支	-11.2262
頃襄	-11.2262
繆	-11.2263
景差	-11.2263
黿	-11.2263
刻畫	-11.2263
昏闇	-11.2263
財利	-11.2263
嘐	-11.2263
徐弭節而髙厲	-11.2263
懲連改忿兮	-11.2263
戯	-11.2263
接徑千里出若雲只	-11.2263
朱脣皓齒	-11.2263
爾何懷乎故宇	-11.2263
箎	-11.2263
聇	-11.2263
豈知其故也	-11.2263
賢士只	-11.2263
選署衆神以並轂	-11.2263
邈不可慕也	-11.2263
邈而不可慕	-11.2263
陟陞皇之赫戲兮	-11.2263
願蓀美之可完	-11.2263
魂魄歸徠無逺遥只	-11.2263
下有以字	-11.2263
路曼曼其	-11.2264
仍	-11.2264
堪	-11.2264
义	-11.2264
遊兮周章	-11.2264
㴉	-11.2264
不知余之異采	-11.2264
世溷濁而嫉賢兮	-11.2264
何毒藥之謇謇兮	-11.2264
作九歌之曲	-11.2264
受賜	-11.2264
妺	-11.2264
徙倚也	-11.2264
斟	-11.2264
殄	-11.2264
水長流	-11.2264
簴	-11.2264
見俗人祭祀之禮歌舞之樂其詞鄙陋因	-11.2264
誒笑狂只	-11.2264
遂赴汨	-11.2264
離慜而不遷兮	-11.2264
魂乎歸徠思怨移只	-11.2264
鳴䶵兮吹竽	-11.2264
鴻鵠代遊曼鷫鷞只	-11.2264
彗	-11.2265
滄浪之水濁兮	-11.2265
叔孫	-11.2265
土伯九約其角觺觺些	-11.2265
􁖑	-11.2265
一無得字	-11.2265
二八接舞	-11.2265
俛詘以自抑	-11.2265
内厚質正兮	-11.2265
内欣欣而自美兮	-11.2265
古固有不並兮	-11.2265
安得夫良藥不能固臧	-11.2265
嵎	-11.2265
抑心而自強	-11.2265
斲冰兮積雪	-11.2265
易中利心以動作只	-11.2265
曲眉	-11.2265
此章言己	-11.2265
濁貪也	-11.2265
然怊悵而無冀	-11.2265
獨鄣壅而蔽隱兮	-11.2265
獵春囿只	-11.2265
白薠兮騁望	-11.2265
詞賦之	-11.2265
誅譏罷只	-11.2265
隂陽之和食天地之精	-11.2265
鞿	-11.2265
魂乎歸徠恣志慮只	-11.2265
佇眙	-11.2265
使夫百草為之不芳	-11.2265
曾歔欷之嗟嗟兮	-11.2265
次舎也	-11.2265
與美人抽怨兮	-11.2265
袵	-11.2265
杳	-11.2265
故荼薺不同畝兮	-11.2266
可以濯吾足	-11.2266
慢	-11.2266
遍	-11.2266
浴蘭湯兮沐芳	-11.2266
繳	-11.2266
覃	-11.2266
愈一作俞	-11.2266
湘沅	-11.2266
畫天地山川神靈琦	-11.2266
而陸離	-11.2266
㐮	-11.2266
不勝心伐帝夫誰使挑之	-11.2266
亦余心之所善兮雖九死其猶未悔	-11.2266
介眇志之所惑兮	-11.2266
何況一國之事兮	-11.2266
君罔謂汝何之	-11.2266
吾方髙馳而不顧	-11.2266
子僑之	-11.2266
恐重患而離尤	-11.2266
慘鬱鬱而不通兮	-11.2266
汜容與而遐舉兮	-11.2266
湯謀易旅何以厚之	-11.2266
燕雀烏鵲巢堂壇兮	-11.2266
爵禄盛只	-11.2266
畫龍蛇些	-11.2266
登巒	-11.2266
目曾波些	-11.2266
糞	-11.2266
華酌既陳	-11.2266
虚之璆琳琅玕焉	-11.2266
言肴膳	-11.2266
設張辟以娛君兮	-11.2266
長太息以掩涕兮哀民生之多艱	-11.2266
隂陽易位時不當兮	-11.2266
雅頌	-11.2266
驤	-11.2266
不同章句雜錯而廣異義焉	-11.2266
何感天抑墬	-11.2266
日昧昧其將暮	-11.2266
曰兩美其必合兮孰信脩而慕之	-11.2266
有六簙些	-11.2266
欲逺集而無所止兮	-11.2266
段	-11.2266
瓊木籬些	-11.2266
縆瑟兮交鼓	-11.2266
若竹栢之異心	-11.2266
豈唯是其有女	-11.2266
食多方些	-11.2266
祭祀	-11.2266
潺湲	-11.2266
奮翼	-11.2266
好夫人之忼慨	-11.2267
斛	-11.2267
圖經	-11.2267
岐	-11.2267
融	-11.2267
財	-11.2267
反故室	-11.2267
徹	-11.2267
脩逺其	-11.2267
㣧	-11.2267
不復還	-11.2267
余猶惡其佻巧	-11.2267
女嬋媛兮為余太息	-11.2267
憐浮雲之相羊	-11.2267
擥涕而竚眙	-11.2267
晉申生之孝子兮	-11.2267
曼余目以流觀兮	-11.2267
瞭杳杳而薄天	-11.2267
粔籹蜜餌	-11.2267
蝮	-11.2267
覽余以其脩姱	-11.2267
酎清涼些	-11.2267
類可任兮	-11.2267
余何畏懼兮	-11.2267
傺之煩惑兮	-11.2267
及少康之未家兮留有虞之二姚	-11.2267
名聲若日照四海只	-11.2267
命靈氛為余占之	-11.2267
固將重昏而終身	-11.2267
孤子唫而抆淚兮	-11.2267
定心廣志	-11.2267
徂往	-11.2267
惜壅君之不昭	-11.2267
撫珮衽以案志兮	-11.2267
放子出而不還	-11.2267
敖朕辭而不聽	-11.2267
明告君子	-11.2267
望北山而流涕兮	-11.2267
瑶席兮玉瑱	-11.2267
疏緩節兮安歌	-11.2267
瞰霧	-11.2267
知死不可讓	-11.2267
荃蕙與	-11.2267
菎蔽象棊	-11.2267
逢此世之俇攘	-11.2267
陳竽瑟兮浩倡	-11.2267
願勿愛兮	-11.2267
魂宜來歸	-11.2267
値	-11.2268
鞭	-11.2268
少司命	-11.2268
驪姬	-11.2268
旖旎	-11.2268
羊腸	-11.2268
補曰顔師古云	-11.2268
覽冀州兮有餘	-11.2268
吳信讒而弗味兮	-11.2268
姱脩滂浩	-11.2268
恥辱也	-11.2268
更統世而自貺	-11.2268
楚詞以惡草喻惡人	-11.2268
河海應龍	-11.2268
狐死必首丘	-11.2268
簡狄在臺嚳何宜	-11.2268
翶翔	-11.2268
自恣荆楚安以定只	-11.2268
花似菊而紫	-11.2268
莵絲	-11.2268
願承閒而自察兮	-11.2268
魂乎歸徠不遽惕只	-11.2268
魂乎歸徠定空桑只	-11.2268
傷爰哀永歎喟兮	-11.2268
南交阯只	-11.2268
吾聞作忠以造怨兮忽謂之過言	-11.2268
妺嬉何肆湯何殛焉	-11.2268
少司命暾將出兮東方	-11.2268
常度未替	-11.2268
惟何戒之	-11.2268
放敶組纓	-11.2268
昔余夢登天兮魂中道而無杭	-11.2268
流亡兮	-11.2268
璆鏘鳴兮琳琅	-11.2268
石瀨兮淺淺	-11.2268
竊獨悲此廩秋	-11.2268
罾何為兮木上	-11.2268
腥臊並御芳不得薄兮	-11.2268
自前世而固然	-11.2268
蟬翼為重	-11.2268
衆薆然而蔽之	-11.2268
路脩逺以周流	-11.2268
陳吳羹些	-11.2268
離婁微睇兮	-11.2268
雷開阿順	-11.2268
黙黙	-11.2268
鵾鷄	-11.2268
莘	-11.2268
眐	-11.2269
産	-11.2269
突	-11.2269
陜	-11.2269
可以濯吾纓	-11.2269
鴈皆唼夫粱藻兮	-11.2269
康	-11.2269
或訑謾而不疑	-11.2269
此當從仌	-11.2269
代水不可渉深不可測只	-11.2269
何續初繼業而厥謀不同	-11.2269
參目虎首其身若牛些	-11.2269
奄忽	-11.2269
晋	-11.2269
朝發枉陼兮	-11.2269
洌	-11.2269
穉朱顔只	-11.2269
紛鴻溶而上	-11.2269
纂就前緒遂成考功	-11.2269
薜荔柏兮蕙綢	-11.2269
蛟龍隱其文章	-11.2269
駕辯楚勞商只	-11.2269
鳥飛反故鄉兮	-11.2269
不可量兮	-11.2269
不終失過兮	-11.2269
二女御九韶歌	-11.2269
何壯武厲能流厥嚴	-11.2269
何方圜之能周兮夫孰異道而相安	-11.2269
初湯臣摯	-11.2269
名不可以虛作	-11.2269
吾至今而知其信然	-11.2269
哀南夷之莫吾知兮	-11.2269
導帝之兮九坑	-11.2269
張咸池奏承雲兮	-11.2269
後嗣而逢長	-11.2269
戒六神與嚮服	-11.2269
折若椒以自處	-11.2269
既受詒兮	-11.2269
月恭校上	-11.2269
有莘國	-11.2269
淑離不淫	-11.2269
申侘	-11.2269
登崑崙兮食玉英	-11.2269
神龍失水而陸居	-11.2269
禀命	-11.2269
稟	-11.2269
糓	-11.2269
紛總總兮九州	-11.2269
繚之兮杜衡	-11.2269
身幽隱而備之	-11.2269
辟匹亦切	-11.2269
邑犬之	-11.2269
鈴	-11.2269
陷滯而不濟	-11.2269
離人羣而遁逸	-11.2269
雨雪	-11.2269
黙而莫余知兮進號呼又莫吾聞	-11.2269
蹕	-11.2269
渠	-11.227
茫	-11.227
辛夷楣兮	-11.227
殤	-11.227
甯戚	-11.227
蠵	-11.227
紐	-11.227
世溷濁而不分兮	-11.227
佩之可貴兮	-11.227
峽	-11.227
忽若不信兮	-11.227
望瑶臺之偃蹇兮	-11.227
蒻阿拂壁	-11.227
蕭蕭	-11.227
袂袖也	-11.227
豔陸離些	-11.227
路壅絶而不通	-11.227
亂而不分	-11.227
五計切	-11.227
令五帝以㭊中兮	-11.227
何繁鳥萃棘負子肆情	-11.227
余不忍為此態也	-11.227
千鈞為輕	-11.227
又云矯菌桂以紉蕙則菌桂自是一物	-11.227
堯不姚告二女何親	-11.227
安於忠信	-11.227
宫庭震驚	-11.227
寧與黄鵠比翼乎	-11.227
寧超然髙舉	-11.227
封狐千里些	-11.227
將去君而髙翔	-11.227
属	-11.227
情抱質	-11.227
惟佳人之獨懷兮	-11.227
慮憤	-11.227
懷質抱情	-11.227
旦余濟乎江湘	-11.227
易初本迪兮	-11.227
時繽紛其變易兮	-11.227
榣	-11.227
民離散而相失兮方仲春而東遷	-11.227
泝江潭兮	-11.227
無轡銜而自載	-11.227
熏衣	-11.227
爢散而不可止些	-11.227
索所革切	-11.227
結桂枝兮延竚	-11.227
羌不知余之所臧	-11.227
羿淫遊以佚畋兮	-11.227
老冉冉而愈	-11.227
聊浮遊以逍	-11.227
菀蘼蕪與菌若	-11.227
蘭茝之芬芳	-11.227
西方之害	-11.227
重華舜名	-11.227
雞鶩翔舞	-11.227
飲菌若之朝露兮	-11.227
馬蘭踸踔而日加	-11.227
魂乎歸徠賞罰當只	-11.227
黃纁	-11.227
郷邑	-11.227
吁	-11.227
松栢	-11.227
纓	-11.2271
不可以久	-11.2271
稼	-11.2271
鷖	-11.2271
二切迫也	-11.2271
欲度世以忘歸兮	-11.2271
五榖六仞	-11.2271
僉曰何憂何不課而行之	-11.2271
妒被離而鄣之	-11.2271
曽歔欷余鬱邑兮	-11.2271
滅敗	-11.2271
炙鴰烝鳬	-11.2271
皆然兮	-11.2271
知誰所	-11.2271
窮身永樂年壽延只	-11.2271
魂兮歸徠恣所擇只	-11.2271
鯪魚何所鬿堆焉處	-11.2271
下幽晦以多雨	-11.2271
不逢湯武與桓繆兮世孰云而知之	-11.2271
世溷濁而不清	-11.2271
九者陽之數道之綱紀也	-11.2271
亂曰浩浩沅湘	-11.2271
何親就上帝罰殷之命以不救	-11.2271
余以蘭為可恃兮	-11.2271
來雜陳些	-11.2271
修飭	-11.2271
僕夫悲余馬懷兮	-11.2271
其九以立義焉	-11.2271
吕望之鼓刀兮	-11.2271
君含怒而待臣兮	-11.2271
君子所鄙	-11.2271
命咎繇使聽直	-11.2271
嘗被君之渥洽	-11.2271
士女雜坐亂而不分些	-11.2271
失其所也	-11.2271
女媧有體孰制匠之	-11.2271
女嫉余之蛾眉兮	-11.2271
媒絶路阻兮	-11.2271
將以遺兮離居	-11.2271
屈原旣放	-11.2271
忠貞之性	-11.2271
恐嫉妬而折之	-11.2271
愴怳懭悢兮	-11.2271
所作忠而言之兮	-11.2271
押	-11.2271
揚雲霓之晻藹兮	-11.2271
故作九辯以述其志至於漢興劉向王	-11.2271
曰遂古之初誰傳道之	-11.2271
曾枝剡棘	-11.2271
李善云	-11.2271
武發殺殷	-11.2271
水得風	-11.2271
滿堂兮美人忽獨與余兮目成	-11.2271
犬羊	-11.2271
璜臺十成誰所極焉	-11.2271
秋蘭兮麋蕪	-11.2271
羌居蔽而聞章	-11.2271
芳椒兮成堂	-11.2271
蒼鳥羣飛孰使萃之	-11.2271
虛惑誤又以欺	-11.2271
衝風至兮水揚波	-11.2271
言我所以	-11.2271
豈其有他故兮莫好脩之害也	-11.2271
載尸集戰何所急	-11.2271
釋舟陵行何以遷之	-11.2271
閔竒思之不通兮	-11.2271
隨飄風之所仍	-11.2271
願及白日之未暮	-11.2271
願遂推而為臧	-11.2271
驥焉程兮	-11.2271
鬱彌路只	-11.2271
鳥萃兮蘋中	-11.2271
幬	-11.2271
倦	-11.2271
彭	-11.2272
卿	-11.2272
舂	-11.2272
彷	-11.2272
齋	-11.2272
寒浞	-11.2272
頑	-11.2272
何芳草之早殀兮	-11.2272
反信讒而齌怒	-11.2272
吾將往乎南疑	-11.2272
指炎神而直馳兮	-11.2272
沛罔象而自浮	-11.2272
狂顧南行	-11.2272
翩	-11.2272
露雞臛蠵	-11.2272
魂乎歸徠安以舒只	-11.2272
魂乎歸徠麗以先只	-11.2272
2	-11.2272
㳂	-11.2272
䕫	-11.2272
不知吾所臧	-11.2272
乗白黿兮逐文	-11.2272
乾隆四十六年	-11.2272
伯林雉經維其何故	-11.2272
何乞彼小臣而吉妃是得	-11.2272
何往營班禄不但還來	-11.2272
余萎約而悲愁	-11.2272
使讒諛而日得	-11.2272
信讒諛之溷濁兮	-11.2272
偭規矩而改錯	-11.2272
傷余心	-11.2272
八柱何當東南何虧	-11.2272
前人之	-11.2272
受壽永多	-11.2272
受禮天下又使至代之	-11.2272
叚	-11.2272
名蘭槐根名芷	-11.2272
吾令蹇脩以為理	-11.2272
國將危亡乃	-11.2272
堂所謂含章以時發者也然蘭蕙之才	-11.2272
夫孰非義而可用兮孰非善而可服	-11.2272
孔雀盈園畜鸞皇只	-11.2272
宓妃佚女以譬賢臣虬龍鸞	-11.2272
室家盈廷	-11.2272
寧溘死以流亡兮	-11.2272
專惟君而無他兮	-11.2272
屈原放流九年憂	-11.2272
山叢薄之中不	-11.2272
忽奔走以先後兮及前王之踵武	-11.2272
急就篇	-11.2272
愁人兮奈何	-11.2272
打	-11.2272
招具該備永嘯呼些	-11.2272
故衆口其鑠金兮	-11.2272
明已所	-11.2272
春氣奮發	-11.2272
時髣髴以遥見兮	-11.2272
晠	-11.2272
有柘漿些	-11.2272
服艾以盈要兮	-11.2272
本草有菌桂	-11.2272
楚大夫宋玉之所作也辯者變也謂敶道	-11.2272
沈抑而不得揚	-11.2272
潄	-11.2272
激楚之結	-11.2272
物以比讒佞靈	-11.2272
獨立不遷豈不可喜兮	-11.2272
玉佩兮陸離	-11.2272
瑟琴	-11.2272
環理天下夫何索求	-11.2272
甬	-11.2272
畝而生也	-11.2272
登降堂只	-11.2272
瞭冥冥而薄天	-11.2272
箕子詳狂	-11.2272
糺思心以	-11.2272
縳	-11.2272
纕佩帶也	-11.2272
羌愈思兮愁人	-11.2272
羌衆人之所仇	-11.2272
美人以嫓於君	-11.2272
者屈原之所作也或曰景差疑不能明也	-11.2272
而能盡究其所以情狀者歟	-11.2272
艾同生而不殊	-11.2272
蔽晦君之聰明兮	-11.2272
蜷局顧而不行	-11.2272
衆鳥皆有所登棲兮	-11.2272
謾	-11.2272
路不周以左轉兮	-11.2272
酎飲盡歡樂先故些	-11.2272
􁁉	-11.2272
訴	-11.2272
撥	-11.2272
將以遺兮下女	-11.2273
先出其命何從	-11.2273
心不怡之長久兮	-11.2273
悲秋風之動容兮	-11.2273
泊莽莽與	-11.2273
漿蜜勺	-11.2273
珮	-11.2273
睇	-11.2273
遂去不復與言	-11.2273
魂魄歸徠	-11.2273
鼎臑盈望和致芳只	-11.2273
䧏	-11.2273
上下未形何由考之	-11.2273
不遂故憤然大招其魂盛稱楚國之樂崇	-11.2273
九天之際安放安屬	-11.2273
何聖人之一德	-11.2273
厥利惟何逢彼白雉	-11.2273
又未知其所從	-11.2273
及余飾之方壯兮周流觀乎上下	-11.2273
反離羣而贅肬	-11.2273
各有所錯兮	-11.2273
吳醴白糵	-11.2273
命將終	-11.2273
夫惟黨人鄙固兮	-11.2273
委一作逶	-11.2273
寧昂昂	-11.2273
庶類以成兮	-11.2273
心鬱結而紆軫	-11.2273
志沈菀而莫達	-11.2273
忘儇媚以背衆兮	-11.2273
思不眠以至曙	-11.2273
恩不甚兮輕絶	-11.2273
情與貌其不變	-11.2273
數列人形之要而作九歌九章之頌以諷	-11.2273
旌旗也	-11.2273
朝濯髪乎洧	-11.2273
朝馳余馬兮江臯	-11.2273
木叢生曰	-11.2273
檮木蘭以矯蕙兮	-11.2273
洽	-11.2273
涕泣交而凄凄兮	-11.2273
深林杳以冥冥兮	-11.2273
湘夫人廣開兮天門	-11.2273
煩亂精神	-11.2273
獨隱伏而思慮	-11.2273
發憤以杼情	-11.2273
目眇眇兮愁予	-11.2273
秋毫	-11.2273
競周容以為度	-11.2273
終長夜之曼曼兮	-11.2273
羣吠兮吠所怪也	-11.2273
老冉冉兮既極	-11.2273
背膺牉以交痛兮	-11.2273
脩路幽蔽	-11.2273
自壓桉而學誦	-11.2273
與前世而皆然兮	-11.2273
莞芎棄	-11.2273
蘭芷變而不芳兮荃蕙化而為茅	-11.2273
補曰菌音窘	-11.2273
裦	-11.2273
觀炎氣之相仍兮窺煙液之所積	-11.2273
謂幽蘭其不可佩	-11.2273
警	-11.2273
赤莖節好生道	-11.2273
隅隈多有誰知其數	-11.2273
靚杪秋之遥夜兮	-11.2273
鷙鳥之不羣兮	-11.2273
逄	-11.2273
鄉邑	-11.2273
茸	-11.2273
顛倒	-11.2273
未敢	-11.2274
鏗	-11.2274
鄭衞	-11.2274
何昔日之芳草兮	-11.2274
桀紂之	-11.2274
豕	-11.2274
遲	-11.2274
軰	-11.2274
又衆兆之所	-11.2274
跪	-11.2274
爾雅莞苻蘺	-11.2274
地方九則何以墳之	-11.2274
情冤見之日明兮	-11.2274
此章言巳	-11.2274
祝融戒而還衡兮	-11.2274
色極似石上	-11.2274
跪敷衽以陳辭兮	-11.2274
㑹稽山名也	-11.2274
䧟滯而不濟	-11.2274
不但還來	-11.2274
不歰嗌只	-11.2274
人阜昌只	-11.2274
何所悒	-11.2274
何環穿自閭社丘陵爰出子文	-11.2274
信未達乎從容	-11.2274
兮莫我	-11.2274
其色青	-11.2274
冥淩浹行	-11.2274
又衆兆之所咍	-11.2274
國家為只	-11.2274
執履忠信	-11.2274
壹氣孔神兮	-11.2274
孔叢子云宰我問	-11.2274
工祝招君背行先些	-11.2274
廓空也	-11.2274
彭鏗斟雉帝何饗	-11.2274
往來儵忽吞人以益其心些	-11.2274
後兹承輔	-11.2274
心煩憺兮忘食事	-11.2274
忍而不能舍也	-11.2274
忳鬱邑余侘傺兮	-11.2274
恐美人之遲暮	-11.2274
悲哉秋之為氣也	-11.2274
懷瑾握瑜兮	-11.2274
抑按也言已	-11.2274
抱朴子云	-11.2274
揖辭讓只	-11.2274
春秋逴逴而日髙兮	-11.2274
曰舜葬	-11.2274
榱	-11.2274
比干何逆而抑沈之	-11.2274
汜潏潏其前後兮	-11.2274
洔	-11.2274
渝	-11.2274
測	-11.2274
溘吾遊此春	-11.2274
激楚些	-11.2274
爇	-11.2274
猋逺舉兮雲中	-11.2274
皆喻本也	-11.2274
窟	-11.2274
精細米	-11.2274
罾	-11.2274
羿焉彃日烏焉解羽	-11.2274
聲有隱而先倡	-11.2274
荷衣兮蕙帶	-11.2274
蘭蕙叢出蒔以沙	-11.2274
行不羣以	-11.2274
被明月兮珮寶璐	-11.2274
西北不周風自	-11.2274
覽相觀於四極兮	-11.2274
言巳欲效	-11.2274
諸侯畢極立九卿只	-11.2274
輯	-11.2274
迂怪	-11.2274
鍾揺簴	-11.2274
阿衡欲干湯而無由乃	-11.2274
隂陽三合何本何化	-11.2274
隂陽不可與儷偕	-11.2274
離騷之文依詩取興引類譬	-11.2274
靈氛既告余以吉占兮	-11.2274
懟	-11.2274
率	-11.2274
佇	-11.2274
槫	-11.2274
昻	-11.2274
翅	-11.2274
庫	-11.2275
歸何憂	-11.2275
乘赤豹兮從文狸	-11.2275
回旋也	-11.2275
左驂殪兮右刃傷	-11.2275
虆	-11.2275
令海若舞馮夷	-11.2275
使湘靈鼓瑟兮	-11.2275
内鶬鴿鵠	-11.2275
切俗作	-11.2275
孰兩東門之可蕪	-11.2275
尚黯黮而有瑕	-11.2275
帥雲霓而來御	-11.2275
後飛廉使奔屬	-11.2275
心尚幸其弗濟	-11.2275
憂與愁其相接	-11.2275
柄	-11.2275
穆眇眇之無垠兮	-11.2275
聊抑志而自弭	-11.2275
處雌蜺之標顛	-11.2275
一槩而相量	-11.2275
不與君	-11.2275
也余一作我	-11.2275
余雖好脩姱以鞿羈兮	-11.2275
來吾道夫先路	-11.2275
吾令豐隆椉雲	-11.2275
呉光爭國	-11.2275
天地四方多賊姦些	-11.2275
夫唯靈脩之故也	-11.2275
將哫訾栗斯	-11.2275
廣遂前畫兮	-11.2275
心繚悷而有哀	-11.2275
忽傾寤以嬋媛	-11.2275
恐溘死不得見乎陽春	-11.2275
慙光景之誠信兮	-11.2275
指九天以為正兮	-11.2275
敷布也	-11.2275
朝發軔於天津兮	-11.2275
朽	-11.2275
欝	-11.2275
浞娶純狐眩妻爰謀	-11.2275
皇天淫溢而秋霖兮	-11.2275
芝賦序云離騷九歌自詩人所紀之外地	-11.2275
萬變其情豈可蓋兮	-11.2275
蠚	-11.2275
讟	-11.2275
豈余身之憚殃兮	-11.2275
隣	-11.2275
雖信美而無禮兮來違棄而改求	-11.2275
順欲成功帝何刑焉	-11.2275
願慕先聖之遺教	-11.2275
食不媮而為飽兮	-11.2275
不可逮也	-11.2275
云彼采蕭兮彼采艾兮是也淮南	-11.2275
何卒官湯尊食宗緒	-11.2275
俾山川以備御兮	-11.2275
勲闔夢生少離散亡	-11.2275
固其宜也	-11.2275
固衆芳之所在	-11.2275
太微之	-11.2275
孰期去斯得兩男子	-11.2275
弟五人	-11.2275
心嬋媛而	-11.2275
忠何罪以遇罰兮	-11.2275
指西海以為期	-11.2275
既干進而務入兮	-11.2275
未敢言者	-11.2275
痩	-11.2275
碭	-11.2275
而相量	-11.2275
荆勲作師夫何長	-11.2275
華鐙錯些	-11.2275
行比伯夷置以	-11.2275
跳而逺去	-11.2275
願寄言於浮雲兮	-11.2275
魚鱗屋兮龍堂紫貝闕兮朱宫	-11.2275
𣢾	-11.2275
翼翼	-11.2275
廣雅云	-11.2275
襜	-11.2275
踢	-11.2276
屯余車兮	-11.2276
彘	-11.2276
倚閶闔而望予	-11.2276
入景響之無應兮	-11.2276
居上枝	-11.2276
愁鬱鬱之無快兮	-11.2276
慧	-11.2276
物有純而不可為	-11.2276
耿吾既得此中正	-11.2276
聞省想而不可得	-11.2276
萆茘	-11.2276
何勤子屠母而死分竟地	-11.2276
何后益作革而禹播降	-11.2276
依風穴以自息兮	-11.2276
吸湛露之浮源兮	-11.2276
吾將蕩志而愉樂兮	-11.2276
味豺羹只	-11.2276
屬貞臣而日娭	-11.2276
平脅曼膚何以肥之	-11.2276
恕巳以量人	-11.2276
悲憂窮戚兮	-11.2276
憚涌湍之礚礚兮	-11.2276
日月安屬列星安陳	-11.2276
明明闇闇惟時何	-11.2276
晁	-11.2276
朝吾將濟於白水兮	-11.2276
椒專佞以慢慆兮	-11.2276
沬巳也	-11.2276
漱凝霜之雰雰	-11.2276
率其賢良以厲國士入則與王圖議政事	-11.2276
玉色頩以脕	-11.2276
盜	-11.2276
羌芳華自中出	-11.2276
致命於帝然後得瞑些	-11.2276
見有娀之佚女	-11.2276
遯	-11.2276
閭大夫三閭之職掌王族三姓曰昭屈景	-11.2276
䰟一作魂	-11.2276
不顧難以圖後兮五子用失乎家巷	-11.2276
乃遂焉而逢殃	-11.2276
之心故	-11.2276
亦非余心之所志	-11.2276
人有所極同心賦些	-11.2276
伏匿穴處爰何云	-11.2276
僅	-11.2276
名補曰淮南云	-11.2276
吴光爭國	-11.2276
夫人自有兮美子	-11.2276
夫何焭獨而不予聽	-11.2276
孰知其	-11.2276
年既老而不衰	-11.2276
彼王紂之躬孰使亂惑	-11.2276
接輿髠首兮桑扈臝行	-11.2276
於中夜存	-11.2276
曽音増	-11.2276
欲從靈	-11.2276
殷宗用而不長	-11.2276
渉江采菱發揚荷些	-11.2276
矯兹媚以私處兮	-11.2276
竭忠誠以事君兮	-11.2276
精瓊爢以為粻	-11.2276
紫芝與蕭艾俱死蕭艾賤草以喻不肖	-11.2276
而固然	-11.2276
若必筮予之恐後之謝	-11.2276
荒忽兮逺望觀流水兮潺湲	-11.2276
荒忽其焉極	-11.2276
詩人采蕭蕭即艾也蕭自是香蒿古祭祀	-11.2276
諒城郭之不足恃兮	-11.2276
蹇蹇之煩冤兮	-11.2276
造旬始而觀清都	-11.2276
隴西	-11.2276
集重陽入帝宫兮	-11.2276
雖重介之何益	-11.2276
非所樂	-11.2276
袂	-11.2276
惻隱	-11.2276
無識	-11.2276
岳	-11.2276
蟊	-11.2276
信過信	-11.2276
浪	-11.2277
醜	-11.2277
凌余陣兮躐余行	-11.2277
既含睇兮又宜笑	-11.2277
羸	-11.2277
居戚戚而不可解	-11.2277
上至列缺兮	-11.2277
以保真乎	-11.2277
其天性	-11.2277
圜則九重孰營度之	-11.2277
婬	-11.2277
思舊故以想像兮	-11.2277
惟兹何功孰初作之	-11.2277
此二句	-11.2277
比干子胥	-11.2277
漂翻翻其上下兮	-11.2277
無衣裘以御冬兮	-11.2277
班駮	-11.2277
紛容容之無經兮	-11.2277
罔芒芒之無紀	-11.2277
聲有隱而相感兮	-11.2277
補曰九章云	-11.2277
載雲旗之逶蛇	-11.2277
醴酒	-11.2277
阻窮西征巖何越焉	-11.2277
飢饉	-11.2277
骫	-11.2277
䲭龜	-11.2277
上帝其難從	-11.2277
仍羽人於丹丘兮	-11.2277
冩	-11.2277
卒不見納委命自沈楚人惜而哀之	-11.2277
及古賢聖怪物行事周流罷倦	-11.2277
及行迷之未逺	-11.2277
問大微之所居	-11.2277
回朕車以復路兮	-11.2277
固人命兮有當孰離合兮可	-11.2277
如之何	-11.2277
媿易初而屈志	-11.2277
崟	-11.2277
帝乃降觀下逢伊摯	-11.2277
平原忽兮路超逺	-11.2277
惜屈原因共論述故其文義不次序云爾	-11.2277
憂心煩亂不知所愬乃作離騷經離	-11.2277
戍	-11.2277
既遵道而得路	-11.2277
既驕美而伐武兮	-11.2277
是食些	-11.2277
曽重也	-11.2277
欲變節以從俗兮	-11.2277
游於江潭	-11.2277
溶溶廣大	-11.2277
畵	-11.2277
發郢都而去閭兮	-11.2277
皇天平分四時兮	-11.2277
神要眇以淫放	-11.2277
稷維元子帝何竺之	-11.2277
譌	-11.2277
赤螘若象	-11.2277
退靜	-11.2277
逢亂世	-11.2277
逴絶垠乎寒門	-11.2277
邅吾道夫崑崙兮	-11.2277
陳直徑	-11.2277
雖萎絶其亦何傷兮	-11.2277
麗而不竒些	-11.2277
甚著明也	-11.2277
月令孟夏	-11.2277
少康	-11.2277
長庚	-11.2277
六仞	-11.2277
韶	-11.2277
眞僞	-11.2278
羌中道而囘畔	-11.2278
聊逍遥以相佯	-11.2278
其字从	-11.2278
十三年	-11.2278
夜光何德	-11.2278
惕	-11.2278
樂器	-11.2278
湣	-11.2278
皇剡剡其揚靈兮	-11.2278
省息井切	-11.2278
聽波聲之洶洶	-11.2278
胡終弊于有扈	-11.2278
言巳行度	-11.2278
錯置也	-11.2278
願因先生決之	-11.2278
馮崑崙以瞰霧兮	-11.2278
騖諸神之湛湛	-11.2278
也五臣云言我	-11.2278
以徑度	-11.2278
何試上自予忠名彌彰	-11.2278
其不變	-11.2278
具往切	-11.2278
冬生草	-11.2278
北至回水萃何喜	-11.2278
厎	-11.2278
又何懷乎故都	-11.2278
反故室敬而無妨些	-11.2278
受命詔以昭詩	-11.2278
可柰何	-11.2278
含慼	-11.2278
命則處幽吾將罷兮	-11.2278
和調度以自娛兮	-11.2278
哀衆芳之蕪穢	-11.2278
啓九辯與九歌兮	-11.2278
喟憑心而歷	-11.2278
垂號謚	-11.2278
層臺累榭	-11.2278
左朱雀之茇茇兮	-11.2278
心純庬而不泄兮	-11.2278
忼慨絶兮不得	-11.2278
恐登階	-11.2278
悟過改更我又何言	-11.2278
曰勉陞降以上下兮	-11.2278
曰排閶闔	-11.2278
有毛不光潤方莖紫節七月八	-11.2278
泱	-11.2278
深固難徙更壹志兮	-11.2278
淵自沈而死	-11.2278
滿内而外揚	-11.2278
濆	-11.2278
祍	-11.2278
符驗	-11.2278
筋	-11.2278
緑葉素榮紛其可喜兮	-11.2278
聊浮游而求女	-11.2278
蔚	-11.2278
負鼎爼	-11.2278
重蔽而聞章	-11.2278
陸璣草木疏云	-11.2278
飾復植	-11.2278
馮鬱鬱其何極	-11.2278
驂連蜷以驕驁	-11.2278
損	-11.2278
蘪蕪	-11.2278
艾蒿	-11.2278
揚雄	-11.2278
歌吟	-11.2278
騫	-11.2278
而不分兮	-11.2278
宏	-11.2279
徒感切	-11.2279
厥利維何	-11.2279
榮而不實者謂之英	-11.2279
無所歸附	-11.2279
甫	-11.2279
菲	-11.2279
飡	-11.2279
凍	-11.2279
天何所沓	-11.2279
氣繚轉而自締	-11.2279
當世豈無騏驥兮	-11.2279
矯菌桂以紉蕙兮	-11.2279
竭誠信也	-11.2279
而顧菟在腹	-11.2279
與泰初而	-11.2279
雖不周於今之人兮	-11.2279
騏驥駿馬也	-11.2279
鸞皇為余先戒兮	-11.2279
上述唐虞三后之制下序桀紂羿澆之敗	-11.2279
下有子字	-11.2279
不畢辭而赴淵兮	-11.2279
世雷同而炫曜兮	-11.2279
中央共牧后何怒	-11.2279
九章者屈原之所作也屈原	-11.2279
乹	-11.2279
事緜緜而多私兮	-11.2279
何變易之可	-11.2279
又何必用夫行媒	-11.2279
反成乃亡其罪伊何	-11.2279
受賜兹醢西伯上告	-11.2279
右蒼龍之躣躣	-11.2279
吾將從王喬而娛戲	-11.2279
吾屈原自謂	-11.2279
喟憑心而歴兹	-11.2279
壮	-11.2279
寔	-11.2279
屬雷師之闐闐兮	-11.2279
崑崙之丘	-11.2279
幽險	-11.2279
廣大不可	-11.2279
復作九	-11.2279
忳忳而	-11.2279
忽翺翔之焉薄	-11.2279
惜壅君之不識	-11.2279
惲	-11.2279
折中兮	-11.2279
授殷天下其位安施	-11.2279
擥大薄之芳茝兮	-11.2279
放佚厥命將落故作招	-11.2279
榝似茱茰而小	-11.2279
殷有惑婦何所譏	-11.2279
然怊悵而	-11.2279
爭遣伐器何以行之	-11.2279
瑋僪佹	-11.2279
皆在所用	-11.2279
相浞行	-11.2279
矱之所同	-11.2279
章援天引聖以自證明終不見省不忍以	-11.2279
章者著	-11.2279
綱紀	-11.2279
者宋玉之所作也	-11.2279
茞一作芷	-11.2279
薄暮雷電歸何憂	-11.2279
貍	-11.2279
長無絶兮終古	-11.2279
難曉也	-11.2279
鞫	-11.2279
顔色憔悴	-11.2279
願沈滯而不見兮	-11.2279
驚女采薇鹿何祐	-11.2279
紛盛皃	-11.2279
嗌	-11.228
橝	-11.228
受命不遷生南國兮	-11.228
哀時命之不	-11.228
古未有	-11.228
篁竹之中	-11.228
簜敷衍編町成篁	-11.228
羌聲色兮娛人	-11.228
鑄	-11.228
顛仆	-11.228
風颯颯兮木蕭蕭	-11.228
馮翼惟像	-11.228
今誰使乎譽之	-11.228
僻逺	-11.228
右雷公以為衛	-11.228
吾令帝閽開關兮	-11.228
寧窮處而守髙	-11.228
形蟉虬而逶蛇	-11.228
意荒忽而流蕩兮	-11.228
竊快在中心兮	-11.228
聽惝怳而無聞	-11.228
薄如竹	-11.228
觀南人之變態	-11.228
誠莫之能善御	-11.228
遥望博	-11.228
且焉止息	-11.228
何所冬暖何所夏寒	-11.228
前輊輬之鏘鏘兮	-11.228
北為枳	-11.228
后皇嘉樹橘徠服兮	-11.228
嚢	-11.228
失於專任	-11.228
孰申旦而别之	-11.228
巫陽對曰掌㝱	-11.228
徠逺客	-11.228
思君念國憂	-11.228
應劭曰	-11.228
懷琬琰之華英	-11.228
招者召也以手曰招以言曰召	-11.228
故髙枕而自適	-11.228
日安不到燭龍何照	-11.228
欲寂漠而	-11.228
氛埃辟而清涼	-11.228
溆	-11.228
漱正陽而含朝霞	-11.228
瓦釡	-11.228
知前轍之不遂兮	-11.228
紛溶與而並馳	-11.228
罔極故復作九章	-11.228
羲和之未揚若華何光	-11.228
而見憎	-11.228
脇	-11.228
與俱歸拘留不遣卒客死於秦	-11.228
與天地參	-11.228
蓀荃	-11.228
踼	-11.228
開而明	-11.228
闔而晦	-11.228
香荆湘嶺南人家多種之此與蘭草大	-11.228
鵠酸臇鳬	-11.228
寗	-11.228
不可以乆	-11.228
摯	-11.228
瓟	-11.228
塊	-11.228
似艾	-11.228
藒	-11.228
荆楚	-11.2281
乘白黿兮逐文魚	-11.2281
昀	-11.2281
亦失其志也	-11.2281
以定嫌疑故曰卜居也	-11.2281
形穆穆以浸	-11.2281
故駶跳而	-11.2281
梏	-11.2281
爲信過信爲	-11.2281
腓	-11.2281
遭沈濁而汙穢兮	-11.2281
陸費墀欽定四庫全書	-11.2281
魂焭焭而至曙	-11.2281
伯強何處	-11.2281
何所不死長人何守	-11.2281
偕	-11.2281
兄有噬犬弟何欲	-11.2281
充夫佩幃	-11.2281
内惟省以端操兮	-11.2281
吁嗟黙黙兮	-11.2281
夕歸次於窮石兮	-11.2281
天歎息見楚有先王之廟及公卿祠堂圖	-11.2281
屈原曰舉世皆濁	-11.2281
憑不猒乎求索	-11.2281
拔木九千些	-11.2281
斑漫衍而方行	-11.2281
既替余以蕙纕兮	-11.2281
日康娛以淫遊	-11.2281
昭質既設	-11.2281
曰黃昏以爲期	-11.2281
杷	-11.2281
湯禹儼而祗敬兮	-11.2281
申申其詈予	-11.2281
皆競進以貪婪兮	-11.2281
終然殀乎羽之野	-11.2281
罔流涕以聊慮兮	-11.2281
羌宿	-11.2281
荒忽	-11.2281
號咷	-11.2281
被謗	-11.2281
賔客	-11.2281
超逍遥兮	-11.2281
身之精也宋玉憐哀屈原忠而斥棄愁懣	-11.2281
車既駕兮朅而歸	-11.2281
邅回	-11.2281
閔妃匹合厥身是繼	-11.2281
願自往而徑遊兮	-11.2281
髙四五尺	-11.2281
詁	-11.2281
沶	-11.2281
湫戾	-11.2281
雰	-11.2281
余處幽篁兮終不見天	-11.2281
冨	-11.2281
尺餘	-11.2281
也通作	-11.2282
蘠	-11.2282
别有杜蘅不相似	-11.2282
父何以鱞	-11.2282
無已時也	-11.2282
瘳	-11.2282
併	-11.2282
太伯	-11.2282
所行幾里	-11.2282
殊能將之	-11.2282
淒淒兮	-11.2282
竹田曰篁西都賦云篠	-11.2282
篁竹墟名	-11.2282
累一作絫	-11.2282
翡帷翠帳飾髙堂些	-11.2282
講	-11.2282
酷	-11.2282
鴛	-11.2282
䜛賊	-11.2282
下暗漠而無光	-11.2282
不可問故曰天問也屈原放逐憂心愁悴	-11.2282
世人皆濁	-11.2282
之厚也是以君子珍重其志而瑋其辭焉	-11.2282
何桀紂之猖披兮	-11.2282
何闔而晦何開而明	-11.2282
保厥美以驕傲兮	-11.2282
倖	-11.2282
僭	-11.2282
其子襄王復用讒言遷屈原於江南	-11.2282
去鄉離家兮	-11.2282
叛陸離其上下兮	-11.2282
古賢俊	-11.2282
壤	-11.2282
多迅衆些	-11.2282
夜耿耿而不寐兮	-11.2282
天命反側何罰何佑	-11.2282
安樂也補曰	-11.2282
巫彭	-11.2282
彼皆習之	-11.2282
思蹇產而不釋	-11.2282
惟夫黨人之偷樂兮	-11.2282
愗	-11.2282
憤懣舒	-11.2282
我獨清	-11.2282
揚阿	-11.2282
朝發軔於太儀兮	-11.2282
澤洲	-11.2282
焉有石林何獸能言	-11.2282
獨鬱結其誰語	-11.2282
王子比干之	-11.2282
畜鳬	-11.2282
繚轉兮	-11.2282
芞	-11.2282
茯苓	-11.2282
言賢無	-11.2282
譅	-11.2282
讒人髙張	-11.2282
貴蘭之意	-11.2282
逺而不察兮	-11.2282
願借神光	-11.2282
駟玉虬以椉鷖兮	-11.2282
鵝	-11.2282
蒺藜	-11.2282
思蹇産而不釋	-11.2282
路險難兮獨後來	-11.2282
一蛇吞象	-11.2282
汪	-11.2282
何所億焉	-11.2283
余先乎平路	-11.2283
吾將上下而求索	-11.2283
唯昭質其猶未虧	-11.2283
天時墜兮威靈怒	-11.2283
射干	-11.2283
斡維焉繫	-11.2283
築室兮水中葺之兮荷	-11.2283
該秉季德	-11.2283
􁀾	-11.2283
㠁嵯不	-11.2283
䳄	-11.2283
一名氷臺	-11.2283
使百神	-11.2283
來隨我車	-11.2283
免衆患而不懼兮	-11.2283
咸播秬黍莆雚是營	-11.2283
四方之門其誰從焉	-11.2283
多竒怪	-11.2283
天地無所不到然猶	-11.2283
娃冶	-11.2283
康回	-11.2283
得成也	-11.2283
我獨醒	-11.2283
效志兮	-11.2283
易之以百兩卒無禄	-11.2283
曹子建	-11.2283
樂時遇屈原川澤之域怪而問之遂相應	-11.2283
橘柚美	-11.2283
流金鑠石些	-11.2283
浮江淮而入海兮從子胥而自適	-11.2283
漁父者屈原之所作也屈原放	-11.2283
獨煢煢而南行	-11.2283
磤	-11.2283
絶端兮	-11.2283
羌中道而改路	-11.2283
羣靈之豐豐	-11.2283
耀靈曄而西征	-11.2283
舒并節以馳騖兮	-11.2283
苹	-11.2283
茇	-11.2283
藐蔓蔓之不可量兮	-11.2283
遇伯樂	-11.2283
運轉也言	-11.2283
郷黨	-11.2283
鉏遷	-11.2283
雄虺九首儵忽焉在	-11.2283
雒	-11.2283
音樂博衍無終極兮	-11.2283
顔烝	-11.2283
願賜不肖之軀而别離兮	-11.2283
魄離散	-11.2283
􁬭	-11.2283
兔	-11.2283
蒪	-11.2283
稀	-11.2283
假寐	-11.2283
冨貴	-11.2283
厮	-11.2283
宰	-11.2283
逡	-11.2283
而不可得	-11.2283
漱	-11.2283
昌蒲	-11.2283
良是	-11.2283
厥大何如	-11.2283
唐本註引	-11.2283
靈何為兮水中	-11.2283
兮蕙綢	-11.2283
喻佞人	-11.2283
多有之	-11.2283
太公不遇文王	-11.2283
射逓代些	-11.2283
小瑟	-11.2283
師何以尚之	-11.2283
忽反顧以遊目兮	-11.2283
曖曃其曭莽兮	-11.2283
望大河之洲渚兮悲申徒之抗迹	-11.2283
朝發軔於蒼梧兮	-11.2283
束縛	-11.2283
欲害已也	-11.2283
沙礫	-11.2283
澹無為而自得	-11.2283
焭獨	-11.2283
燕翩翩其辭歸兮	-11.2283
祛	-11.2283
箟簬	-11.2283
綦	-11.2283
美冒	-11.2283
聖人不凝滯於物	-11.2283
聞赤松之清塵兮	-11.2283
荆襄	-11.2283
誰可與玩斯遺芳兮	-11.2283
降望大壑	-11.2283
靡蓱九衢枲華安居	-11.2283
靡顔膩理	-11.2283
飛廉	-11.2283
館	-11.2283
騐	-11.2283
刪丹	-11.2283
曰子非三閭大夫與	-11.2283
犲狼從目往來侁侁些	-11.2283
豈惟紉夫蕙茝	-11.2283
邪徑急	-11.2283
鉛刀	-11.2283
麗雅	-11.2283
首陽	-11.2284
女歧	-11.2284
丑	-11.2284
縷	-11.2284
魂魄	-11.2284
芳芬	-11.2284
被石蘭兮帶杜衡	-11.2284
陰陽	-11.2284
其凥安在	-11.2284
卬明月而太息兮	-11.2284
崑崙縣圃	-11.2284
弱顔固植	-11.2284
恬漠思欲濟世則意中憤然文采	-11.2284
悼芳草之先零	-11.2284
懹	-11.2284
晏晚也	-11.2284
本草枲耳一名葹	-11.2284
流出戸	-11.2284
補曰識音	-11.2284
飲石泉兮䕃松栢	-11.2284
鴈廱廱而南遊兮	-11.2284
九州安錯川谷何洿	-11.2284
余既滋蘭之九畹兮	-11.2284
前飛廉以	-11.2284
夫維聖哲以茂行兮	-11.2284
慎事	-11.2284
所照也一云	-11.2284
揄揚	-11.2284
木九千	-11.2284
未甞	-11.2284
約而悲愁	-11.2284
結琦璜些	-11.2284
苟得用此下土	-11.2284
譖毀	-11.2284
穆穆	-11.2285
僕	-11.2285
巷	-11.2285
酎	-11.2285
而館同爰止	-11.2285
天衢	-11.2285
製	-11.2285
張景陽	-11.2285
身既死兮神以靈	-11.2285
䝉汜	-11.2285
以喻賢臣	-11.2285
來者吾不聞	-11.2285
十二月	-11.2285
去君之恒幹	-11.2285
實滿宫些	-11.2285
怊惝怳而乖懷	-11.2285
矛	-11.2285
穆穆和	-11.2285
糅雜也	-11.2285
而厥身不危敗	-11.2285
飯牛而	-11.2285
作擅	-11.2285
其脩孰多	-11.2285
強非其人	-11.2285
晚暮	-11.2285
無傾危之	-11.2285
直吕切	-11.2285
薲	-11.2285
言已雖見	-11.2285
鉅	-11.2285
春宫	-11.2286
怨恨	-11.2286
女歧縫裳	-11.2286
茹柔耎也	-11.2286
君思我兮不得閒	-11.2286
羇旅而無友生	-11.2286
七尺曰仞	-11.2286
何肆犬體	-11.2286
佩繽紛其繁飾兮	-11.2286
借光景以往來兮	-11.2286
姱容脩態	-11.2286
將危殆	-11.2286
挾秦弓	-11.2286
日忽忽其將暮	-11.2286
腐臭也	-11.2286
臯蘭被徑	-11.2286
豌豆	-11.2286
蹇産	-11.2286
青雲衣兮白霓裳	-11.2286
首身離兮心不懲	-11.2286
不可以乆留	-11.2286
云首陽山在	-11.2286
侈	-11.2286
其衍幾何	-11.2286
増冰	-11.2286
怵	-11.2286
於兩楹兮	-11.2286
昌披	-11.2286
東流不溢孰知其故	-11.2286
炎帝	-11.2286
登大墳以逺望兮	-11.2286
石瀬	-11.2286
神儵忽而不反兮	-11.2286
祥	-11.2286
萬民之生	-11.2286
闐音田	-11.2286
雖體解吾猶未變兮豈余心之可懲	-11.2286
齊乆而	-11.2286
生别離	-11.2287
彭咸之	-11.2287
蓉	-11.2287
幾里	-11.2287
浸	-11.2287
尤善	-11.2287
菌閣兮蕙樓	-11.2287
堇荼如飴	-11.2287
曰勉逺逝而無	-11.2287
不吾知其亦已兮	-11.2287
出不入兮往不反	-11.2287
室家	-11.2287
恐余壽之弗將	-11.2287
是一物	-11.2287
杖	-11.2287
欽岑	-11.2287
歎聲也	-11.2287
流澌紛兮將來下	-11.2287
絙洞房些	-11.2287
與女遊兮河之渚	-11.2287
云耿耿不	-11.2287
南郡	-11.2287
晧	-11.2287
正以其	-11.2287
此出也	-11.2287
玉巒	-11.2287
苦桃	-11.2287
蹈	-11.2288
薠蘅槁而節離	-11.2288
制度	-11.2288
妨	-11.2288
蒺蔾	-11.2288
字本作	-11.2288
作隤	-11.2288
君思我兮然疑作	-11.2288
弃捐	-11.2288
所以假延日月	-11.2288
焉有虬龍	-11.2288
累息	-11.2288
采三秀兮於山間	-11.2288
劭	-11.2288
弧弓	-11.2288
恲恲	-11.2288
悲時俗之迫阨兮	-11.2288
抒情	-11.2288
􁃇	-11.2288
曰俞與愈同	-11.2288
蒭	-11.2289
舉世皆濁	-11.2289
被離而鄣之	-11.2289
杪	-11.2289
新夷	-11.2289
顇	-11.2289
塗道也	-11.2289
長余佩之陸離	-11.2289
古茗切	-11.2289
是編	-11.2289
山在崑崙	-11.2289
鼓簧	-11.2289
㷀	-11.2289
可奈何	-11.2289
國無人莫我知兮	-11.2289
境	-11.2289
山中人兮芳杜若	-11.2289
相類但	-11.2289
釣魚	-11.2289
也因一作	-11.2289
二音蟊	-11.2289
分隔	-11.2289
固非衆人	-11.2289
沕	-11.2289
終不反其故都	-11.2289
翮	-11.2289
謑訽	-11.2289
言已執	-11.229
嚶	-11.229
來歸來	-11.229
藜	-11.229
而交吞揆之	-11.229
那	-11.229
其若頽	-11.229
蓀獨宜兮為民正	-11.229
諂佞	-11.229
辛夷香草以作	-11.229
小棗	-11.229
潤澤	-11.229
不肯進	-11.229
夀考	-11.229
山川之	-11.229
於衰亂之世	-11.229
曰夫尺有所短	-11.229
有女如	-11.229
鄉黨	-11.229
恬	-11.2291
嗜欲	-11.2291
袿	-11.2291
任昉述異記云木蘭	-11.2291
王襃	-11.2291
綢	-11.2291
儔匹言	-11.2291
兮盈堂	-11.2291
惟極浦兮寤懷	-11.2291
曹植	-11.2291
異名也	-11.2291
箘簵	-11.2291
巫陽	-11.2291
敷衍	-11.2291
相感	-11.2291
粻	-11.2291
耄亂	-11.2291
而不竢	-11.2291
衽拂於不周	-11.2291
重任石之何益	-11.2291
驟諫君而不聽兮	-11.2291
其志焉	-11.2291
胎	-11.2291
愽物	-11.2292
譁	-11.2292
者楚人名曰宿莽	-11.2292
棲宿也	-11.2292
餅	-11.2292
杳冥冥兮羌晝晦	-11.2292
汩于筆切	-11.2292
頑嚚	-11.2292
引之於	-11.2292
數惟蓀之多怒兮	-11.2292
沈浮	-11.2292
悵然	-11.2292
蘼	-11.2293
崯	-11.2293
北海	-11.2293
正青似亂髪郭恭義云	-11.2293
辛夷楣兮葯房	-11.2293
忠諫	-11.2293
時俗兮	-11.2293
􁁜	-11.2293
心飛揚兮浩蕩	-11.2293
於糾	-11.2293
杳冥冥兮以東行	-11.2293
氛埃而淑尤兮	-11.2293
以喻政	-11.2293
勢不能	-11.2293
吟歎	-11.2293
呑	-11.2293
曰有人在下	-11.2293
申椒與	-11.2293
脩道德	-11.2293
而逺身	-11.2293
天不足西北左	-11.2294
逰戲也	-11.2294
堯舜聖	-11.2294
拆	-11.2294
騄	-11.2294
杓	-11.2294
兾州	-11.2294
都梁	-11.2294
飲余馬於咸池兮	-11.2294
下文云	-11.2295
貼	-11.2295
鈕樞	-11.2295
離非蘼蕪也猶杜	-11.2295
時一作旹	-11.2295
鈆刀	-11.2295
丈尺	-11.2295
嘷胡	-11.2295
揚厥	-11.2295
旻天	-11.2295
自是一種	-11.2295
菊花	-11.2295
禮義	-11.2296
首陽山	-11.2296
其君而	-11.2296
情沈抑而不達兮	-11.2296
愼事	-11.2296
是謂晨明登于扶桑爰始	-11.2296
發憤	-11.2296
緑竹	-11.2297
伏羲	-11.2297
蒜	-11.2297
降省下土四方	-11.2297
沒身而	-11.2297
不見進用也	-11.2297
凥	-11.2297
而逺去也	-11.2297
。2.1	-11.2297
也論語曰	-11.2297
往往	-11.2297
佚女	-11.2297
召我	-11.2297
波聲	-11.2297
窮石	-11.2297
菉王芻也	-11.2297
顔師古急就章註	-11.2297
相羊	-11.2298
解釋也	-11.2298
且遊戲	-11.2298
乆余是勝	-11.2298
導我	-11.2298
體受	-11.2298
一夫九首	-11.2298
必指	-11.2298
策謀	-11.2298
蔽晦	-11.2298
補曰俇	-11.2298
解折	-11.2298
逢原	-11.2298
飲石泉	-11.2298
呌	-11.2298
妲已	-11.2298
心調度而弗去兮	-11.2298
大而	-11.2299
委積	-11.2299
何獻蒸肉之膏	-11.2299
潁川	-11.2299
而后帝不若	-11.2299
農	-11.2299
闊	-11.2299
鹿何膺之	-11.2299
宋呉仁傑撰	-11.2299
不得復見	-11.2299
移植	-11.2299
鬯酒	-11.2299
㠯一作而	-11.2299
往必	-11.2299
從子胥	-11.2299
懸車	-11.2299
㠝	-11.2299
朝搴阰之木蘭兮	-11.2299
淫些	-11.2299
間雅	-11.2299
黃粱	-11.2299
括	-11.2299
安樂	-11.2299
兹此也	-11.23
封狶是射	-11.23
紛紛	-11.23
些魂兮歸來	-11.23
今處處有之	-11.23
故居也	-11.23
有缺	-11.23
蘭秋	-11.23
齧	-11.23
嘉祐圖經云春生	-11.2301
㣲霜	-11.2301
有二種	-11.2301
栗之屬	-11.2301
滛滛	-11.2301
菽藟	-11.2301
獼猴	-11.2301
目眇眇	-11.2301
音乂	-11.2301
折瓊枝以為羞兮	-11.2301
於革	-11.2301
神侍	-11.2301
西皇	-11.2301
陶壅	-11.2301
盼	-11.2302
禹之力獻功	-11.2302
芳香也	-11.2302
往昔	-11.2302
聖帝	-11.2302
乘雷	-11.2302
抑騖若通兮	-11.2302
捐棄	-11.2302
曲阿	-11.2302
謟佞	-11.2302
浸淫	-11.2302
彌盛	-11.2302
誠信	-11.2303
雁	-11.2303
劘	-11.2303
嚶嚶	-11.2303
折芳	-11.2303
皇天無私阿兮	-11.2303
苙	-11.2303
細微	-11.2303
儵忽	-11.2303
生江湖	-11.2304
山長望	-11.2304
易初	-11.2304
風雅	-11.2304
幣	-11.2304
逺莫能	-11.2305
劔	-11.2305
仇牧荀息	-11.2305
梁梁	-11.2305
直馳	-11.2305
齊謂之茝	-11.2305
織	-11.2305
云芸蒿	-11.2305
布地	-11.2305
承事	-11.2305
撫情	-11.2305
無人民	-11.2305
紫芝	-11.2305
陳寶	-11.2305
雄俊	-11.2305
顧視	-11.2305
謂懷王也	-11.2306
佯愚	-11.2306
惟兹	-11.2306
而無成	-11.2306
歸郢	-11.2307
實誠也	-11.2307
無所集	-11.2307
角宿未旦曜靈安	-11.2307
如此故	-11.2307
欲還也	-11.2307
殟	-11.2307
菊葉	-11.2307
誰語	-11.2307
陳寳	-11.2307
陽阿	-11.2308
寒門	-11.2308
因復	-11.2308
三苗	-11.2308
捐弃	-11.2308
朱明承夜兮	-11.2308
而不得進	-11.2308
乘船	-11.2308
小石	-11.2308
瑶玉	-11.2308
誠難	-11.2308
衆職	-11.2308
􁓊	-11.2309
全别	-11.2309
乖異	-11.2309
也補曰文選云	-11.2309
桐君	-11.2309
䭇	-11.2309
寃鶵	-11.2309
作嶷	-11.2309
變化	-11.2309
茍欲	-11.2309
且徐	-11.2309
床	-11.2309
多木蘭	-11.2309
時不可以淹	-11.231
薋蒺藜	-11.231
夏寒	-11.231
得罪	-11.231
色聲	-11.231
諸書	-11.231
分别	-11.231
白露	-11.231
耳唐本註云	-11.231
苦蓋切	-11.231
絶異也	-11.231
咶	-11.231
淸波	-11.231
郢楚	-11.231
入道	-11.2311
對云	-11.2311
常愁	-11.2311
微霜降而下淪	-11.2311
取其香	-11.2311
數諫	-11.2311
覽察	-11.2311
道眞	-11.2311
言黃鵠	-11.2311
脆美	-11.2312
喜樂	-11.2312
囘翔	-11.2312
見放流	-11.2312
温也言	-11.2312
啓路	-11.2312
江别	-11.2312
淸㓗	-11.2312
聖主	-11.2312
言黄鵠	-11.2312
山海	-11.2313
耕切	-11.2313
並馳	-11.2313
心煩	-11.2314
中宇	-11.2314
子小切	-11.2314
戲遊	-11.2314
馳騖兮	-11.2315
惸獨而不羣兮	-11.2315
至曙	-11.2315
玉堂	-11.2315
地形	-11.2316
余惆悵兮	-11.2316
莎草	-11.2316
丁文	-11.2316
素水	-11.2316
為補繪	-11.2316
陸法言	-11.2316
音奄	-11.2316
養神	-11.2316
昭瞢闇誰能極之	-11.2317
乗雷	-11.2317
作厲	-11.2317
已修行	-11.2318
忽反顧	-11.2318
季春	-11.2318
王母	-11.2318
執持	-11.2318
遺芳	-11.2318
尤美	-11.2318
枸	-11.2318
鬼神之	-11.2318
才徳	-11.2318
音妻	-11.2319
芳芷	-11.2319
草榮	-11.2319
以言讒人	-11.2319
天尊	-11.2319
權衡而	-11.2319
凡例	-11.232
苟欲	-11.232
無歡	-11.232
雄雄	-11.232
文選民作人	-11.232
冝笑	-11.232
凌乘	-11.232
𤣥武	-11.232
憂恨	-11.232
小蒜	-11.232
白黑	-11.232
食事	-11.232
徙我	-11.2321
罔極	-11.2321
榮華	-11.2321
小苦	-11.2322
意存	-11.2322
志清白	-11.2322
白黒	-11.2322
窮文	-11.2322
葷	-11.2322
爭盟何踐吾期	-11.2323
服食	-11.2323
善聽	-11.2323
言已憂愁	-11.2324
不我與	-11.2324
去郢	-11.2324
言忠佞	-11.2324
一作峩	-11.2325
海中	-11.2325
長沙	-11.2325
於君不能	-11.2326
諸家之	-11.2326
問天	-11.2326
莖青	-11.2326
甚香	-11.2326
何所營禹何所成	-11.2327
將夭	-11.2327
帝嚳之	-11.2327
恐遂	-11.2327
作安補曰	-11.2328
之不長	-11.2328
作旹	-11.2328
杜若一名杜蘅	-11.2328
殷王	-11.2328
苦荼	-11.2328
長隱	-11.2328
五采	-11.2329
軫石	-11.2329
復往	-11.2329
角見	-11.2329
也盛一作	-11.233
以一作㠯	-11.233
蒙蒙	-11.233
蓤	-11.233
大薺	-11.233
弟子	-11.233
逸作	-11.233
言已懐徳	-11.2331
六神	-11.2331
居者	-11.2332
望江	-11.2333
自宋	-11.2333
音鼻	-11.2333
赴淵	-11.2333
微命力何固	-11.2333
也株一作	-11.2334
􁀙􁀙	-11.2334
不可傳	-11.2334
拱切	-11.2334
處汨	-11.2334
曰潭	-11.2334
柏葉	-11.2334
罔然	-11.2334
八字一	-11.2335
直士	-11.2335
三鳥	-11.2335
芭	-11.2335
已放在山澤	-11.2335
小異	-11.2335
反騷	-11.2336
靑冥	-11.2336
大者曰	-11.2336
珠子	-11.2336
陶隠居云今出	-11.2336
雲霧	-11.2336
身必	-11.2337
按離騷	-11.2337
者佳	-11.2337
驚心	-11.2337
松上	-11.2338
此言伊尹	-11.2338
間謂之	-11.2338
安能	-11.2339
玄英	-11.2339
白龍	-11.2341
美好	-11.2341
菵	-11.2341
言太公	-11.2341
引年	-11.2341
楚俗	-11.2341
窠	-11.2341
陽明也	-11.2341
觀楚	-11.2343
容貎	-11.2343
美女	-11.2344
扵此	-11.2345
其路險	-11.2346
杜子	-11.2347
榎	-11.2347
靑雲	-11.2348
無也字補曰	-11.2348
孟子曰	-11.2348
舒志	-11.2348
萬方	-11.2349
蹇將憺兮壽	-11.2349
青蘋	-11.2349
似小	-11.2349
兩角	-11.2349
其葉名	-11.2349
清原	-11.2349
采苓	-11.2349
精誠	-11.2349
眞人	-11.2351
託乗	-11.2351
何以厚	-11.2352
引離騷	-11.2352
也疑一作	-11.2352
也補曰荒	-11.2352
而不歸	-11.2352
泥濁	-11.2353
至百	-11.2353
兾得	-11.2353
次說文	-11.2353
代水	-11.2353
補曰書云	-11.2354
聽用	-11.2354
之山多	-11.2354
東注	-11.2355
可解	-11.2355
相傳	-11.2355
黃支	-11.2355
疾脩盈	-11.2355
橫流	-11.2356
玉質	-11.2356
蕙實	-11.2357
身體	-11.2357
分明	-11.2357
說者曰	-11.2357
𤣥英	-11.2358
修門	-11.2359
音閑	-11.2359
一作奥	-11.236
味亦	-11.236
補曰鴞于驕切	-11.236
芒草	-11.236
所貴	-11.2361
小爾雅	-11.2363
即死	-11.2363
愼云	-11.2363
始成	-11.2364
一作霧	-11.2364
山鬼云	-11.2364
信也	-11.2364
擊紂躬叔旦不嘉	-11.2364
玄雲	-11.2365
秋時	-11.2365
逺游	-11.2365
因名	-11.2366
斥於	-11.2366
賢臣	-11.2366
不應	-11.2366
遂馳	-11.2366
音尖	-11.2366
言國殤	-11.2367
去君而	-11.2369
聖人者	-11.2369
衣被	-11.237
仰天	-11.2371
注引	-11.2372
兮歸徠正始昆只	-11.2372
或從	-11.2372
相比	-11.2372
之濱	-11.2373
所滅	-11.2374
雲霧之	-11.2374
青青	-11.2376
被過	-11.2376
椒香	-11.2376
乗龍	-11.2377
按爾雅	-11.2378
離一作罹五臣云	-11.2378
也補曰淮南云	-11.2379
北極之山曰寒門	-11.238
存中	-11.238
盡心	-11.2381
乃發	-11.2384
多食	-11.2384
朱子	-11.2384
以往來	-11.2386
山側	-11.2387
斷其	-11.2387
介山	-11.2388
巫咸之興	-11.2389
乃取	-11.2389
一名女	-11.239
東行	-11.239
上厲	-11.2391
貎補	-11.2391
鷄鶩滿堂壇兮	-11.2392
第一	-11.2393
忠心	-11.2393
鳥如	-11.2393
類也以	-11.2394
轉行	-11.2394
雜木	-11.2394
木皮	-11.2394
𤣥雲	-11.2394
髙厲	-11.2395
蘭之九畹又樹蕙之百畝招	-11.2396
糳	-11.2397
芳氣	-11.2397
雖香	-11.2397
作劒	-11.2397
君臣之	-11.2397
有天下	-11.2398
可食者	-11.2401
慼兮	-11.2402
亦主	-11.2402
傳說	-11.2403
造作	-11.2405
引用	-11.2407
事見	-11.2408
注中	-11.2408
畦留夷與掲車兮	-11.2409
見放	-11.2409
頽一	-11.2409
天禄	-11.241
兮吹竽	-11.241
刀切	-11.2411
悲夫	-11.2412
車旣	-11.2413
皇美	-11.2413
誦之	-11.2415
山形	-11.2416
使清	-11.2416
與衆	-11.2416
所分	-11.2417
子淵	-11.2417
芳草	-11.2417
皆似	-11.2419
茝一作芷	-11.2419
於秦	-11.242
也逝一作	-11.2421
薄木	-11.2422
有餘	-11.2423
音郎	-11.2424
用白	-11.2424
真人	-11.2425
蘭蕙之	-11.2425
玉華	-11.2425
皃詩云	-11.2427
超逺	-11.2429
起其	-11.2429
日入	-11.2431
實葉	-11.2431
近道	-11.2432
被害	-11.2432
假大也	-11.2433
嘉志	-11.2433
即是	-11.2434
蘭花	-11.2434
而隕	-11.2434
雖少可師長兮	-11.2435
於君而	-11.2435
俗呼為	-11.2435
今俗	-11.2436
乘車	-11.2436
補曰禮記	-11.2437
深逺	-11.2438
絡石	-11.244
湘流	-11.2441
何及	-11.2441
衆流	-11.2441
音坎	-11.2442
隱居	-11.2444
芬香	-11.2444
實可	-11.2445
卜居者屈原之所作也屈原	-11.2448
交切	-11.2449
識知也	-11.2449
乃知	-11.2451
中原	-11.2451
沈於	-11.2452
行度	-11.2452
亦非	-11.2453
矣在	-11.2454
自解	-11.2456
郭云	-11.2457
改其	-11.2457
可用	-11.2459
盛明	-11.2461
述之	-11.2464
焉能	-11.2465
止行	-11.2465
逺志之所及兮	-11.2467
不死之	-11.247
正青	-11.2475
天神	-11.2475
枯於	-11.2476
石山	-11.2477
憂不	-11.2477
義同	-11.2477
曰芰	-11.2479
以言君	-11.2479
以眩	-11.248
芷與	-11.2481
本國	-11.2482
征行也	-11.2483
不可信	-11.2484
蔽之	-11.2485
正氣	-11.2488
低佪兮	-11.2488
故作九	-11.249
所食	-11.249
補曰左傳曰	-11.249
好行	-11.249
其味	-11.2491
自比	-11.2492
之不審	-11.2493
盛皆	-11.2493
緣切	-11.2494
以珠	-11.2498
察其	-11.2498
諡也	-11.2505
甲也	-11.2505
經云崑崙有銅柱焉其	-11.2505
后君也	-11.2505
巳盡	-11.2507
而志不	-11.2508
滑而䰟兮	-11.2508
願自	-11.2513
今詩	-11.2516
宿莽也	-11.2516
據切	-11.2518
終無	-11.252
篇云	-11.2521
不失其忠	-11.2521
以遺	-11.2522
而不長	-11.2524
方猶	-11.2526
西頽	-11.2527
髙山之	-11.2529
山名也在西	-11.2539
不能已	-11.254
淸潔之	-11.2546
葉中	-11.2546
二子	-11.2547
自容入	-11.2549
朝廷也	-11.2552
服同	-11.2553
自南	-11.2554
葉長	-11.2556
者必	-11.2556
不論	-11.2561
而交	-11.2562
車則	-11.2563
一作薠	-11.2566
意亦	-11.2567
施於	-11.2567
其外	-11.2569
識路之營營	-11.2573
則知	-11.2577
不平	-11.2578
者始	-11.2579
在前	-11.258
已獨	-11.2582
爲席	-11.2583
神異	-11.2587
於山野	-11.2589
則能	-11.2589
和氏之	-11.259
必有	-11.2591
並乎	-11.2593
荆山	-11.2599
與此異	-11.2603
王名	-11.2604
在下	-11.2608
服駕	-11.261
余思	-11.261
字雖	-11.2611
如水	-11.2611
蘭生	-11.2611
謂清	-11.2613
自適	-11.2616
不遂也	-11.262
曰鮮卑	-11.2621
苗切	-11.2625
之濵	-11.2625
毒而	-11.2625
以刺	-11.2627
光色	-11.2627
陽侯之汜濫兮	-11.2628
者是	-11.2634
有花	-11.2634
此本	-11.2637
自抑	-11.2638
木名	-11.2638
於橘	-11.2638
説耳	-11.2639
亦多	-11.2639
言巳居	-11.2642
不形	-11.2644
思我	-11.2645
臣嫉妬	-11.2648
也緯	-11.2649
自是	-11.265
如今	-11.2651
上從	-11.2652
也草一作艸	-11.2653
明兮	-11.2653
自然	-11.2655
補曰患	-11.2655
樂也	-11.2656
百姓也	-11.2658
皆如	-11.2663
靑帝	-11.2664
合同	-11.2666
誠言	-11.2668
無以異於衆芳	-11.2669
於前	-11.2673
不但	-11.2675
塵兮	-11.2677
然乎	-11.2677
剖心	-11.2678
而不合	-11.2684
推此	-11.2688
耳此	-11.269
然自	-11.269
與語	-11.2692
録之	-11.2692
並同	-11.2695
而待	-11.2696
第九	-11.2697
又何以	-11.2697
音落	-11.2697
》,	-11.2698
方字	-11.2699
爲旌	-11.2703
讒諛	-11.2703
也而一作之	-11.271
背音	-11.271
君乃	-11.2711
巳願	-11.2717
作淫	-11.2719
木中	-11.2722
花紫	-11.2728
其後	-11.2728
中心悲	-11.2728
之乎	-11.2733
底	-11.2736
傷巳	-11.2736
名蒚	-11.2739
六切	-11.2742
義有	-11.2746
而沈	-11.2748
覽兮	-11.2749
不能巳也	-11.275
芙蓉之	-11.2751
正也	-11.2752
以背	-11.2754
與石	-11.2756
以興讒	-11.2756
為旌	-11.276
見九章	-11.2761
曰以	-11.2767
所至	-11.277
語不	-11.2773
有光	-11.2773
一云周	-11.2777
盛美	-11.278
妬兮	-11.2782
始以	-11.2783
言巳旣	-11.2785
言巳乗	-11.2785
不解	-11.2787
也橋	-11.2788
土人	-11.2788
經之	-11.279
兮歸來君無下此幽都些	-11.2791
兮然	-11.2796
而夜	-11.2796
求君	-11.2797
高逺	-11.2798
姦也	-11.2801
悶也	-11.2803
無合夫焉取九子	-11.2804
爲河伯	-11.2804
舉一	-11.2806
一作貞	-11.2806
細也	-11.2806
兮歸來南方不可以止些	-11.2812
不類	-11.2831
有芳	-11.2831
其未	-11.2832
日所	-11.2832
亦明	-11.2842
亂惑也	-11.2843
以昌陽	-11.2844
昭一作	-11.2845
車於	-11.2846
之貴	-11.2852
小也	-11.2854
為河伯	-11.2854
活也	-11.2862
以爲不	-11.2862
不聦明	-11.2864
言巳年雖	-11.2865
干求也	-11.2866
德如	-11.2868
而逢	-11.2869
重曰	-11.2882
丘兮	-11.2888
故名	-11.289
烝兮	-11.2891
爲太	-11.2903
意愁	-11.2903
而嚴	-11.2913
而圓	-11.2921
而不得	-11.2932
一作林	-11.2935
寂黙也	-11.2936
小切	-11.2939
憤也	-11.294
此皆甘人歸來	-11.2952
也撟	-11.2959
而日忘兮	-11.296
達切	-11.2965
爲越	-11.2971
也言巳雖	-11.2972
草木之	-11.2973
兮惜	-11.2975
巖桂	-11.2977
而黄	-11.2979
以亂	-11.2979
之矣	-11.2984
踡跼兮	-11.2986
者多也	-11.299
中則	-11.2995
一作殀	-11.2996
周幽誰誅焉得夫	-11.3011
願輕舉而逺	-11.3014
春初	-11.3017
作者	-11.3021
世人	-11.3023
意有	-11.3034
兮遭	-11.3045
一作野	-11.3052
華榮	-11.306
君則	-11.3067
楚辭卷第	-11.3071
不悔	-11.3073
罔象	-11.3079
舉以	-11.3079
下故	-11.3091
於衆人也	-11.3112
誅也	-11.3112
也言楚王	-11.3116
暴也	-11.3116
合於	-11.3116
於民	-11.312
蔓椒	-11.3124
也言屈原	-11.3131
墮也	-11.3141
以竹	-11.3141
釋文第	-11.3141
以來	-11.3144
並於	-11.3147
愁憤	-11.3153
不見用也	-11.3156
意也	-11.3157
堯舜之	-11.3159
也楚謂之	-11.3161
名香	-11.3171
五臣云申	-11.3173
常以	-11.3176
利也	-11.3189
宮兮	-11.3203
本於	-11.3204
屯徒渾切	-11.3209
方言	-11.3211
理而	-11.3212
色赤	-11.3213
作遊	-11.3221
結也	-11.3224
言相	-11.3229
諂諛	-11.3229
求仙	-11.323
以神	-11.3232
巳欲	-11.3239
樂於	-11.3241
亦可以	-11.3248
然者	-11.3251
鳥之所	-11.3252
唐本註云此	-11.3278
兮歸來	-11.3283
湖也	-11.3288
思𤣥賦	-11.3293
夷吾忠而名	-11.3297
物之	-11.3305
以離	-11.3308
失義	-11.3313
爲賢	-11.3319
不我	-11.3324
之主	-11.3333
作樂	-11.3344
者名	-11.3353
巳志	-11.3354
之微	-11.336
多作	-11.336
兮昭	-11.3374
明於	-11.3381
乃有	-11.3393
一作小	-11.34
言鸞	-11.3402
出東方	-11.3404
兮長	-11.3408
之博	-11.3422
也言巳修	-11.3426
之曲	-11.3464
不得見	-11.3465
為圖	-11.3468
除也	-11.3475
合切	-11.3478
急徠歸	-11.3482
辭曰	-11.349
隨從	-11.3509
者欲	-11.3525
古云	-11.3532
無根	-11.3548
群兮	-11.3558
經也	-11.3573
兮葯房	-11.3575
明也補曰	-11.3576
九州兮	-11.3589
猒	-11.3594
曉也	-11.3619
賢爲	-11.3621
兮日	-11.3623
秉德無私	-11.3632
郭璞註云	-11.3642
一作其	-11.3662
魂乎歸徠居室定	-11.3674
路阻	-11.3676
箕子佯狂	-11.3683
世孰可	-11.3687
爵位	-11.3711
志兮	-11.372
取也	-11.3727
之處也	-11.3734
細葉	-11.3735
而流	-11.3766
之極	-11.3766
動以	-11.3777
餘也	-11.3804
之於	-11.3812
晦也	-11.3816
乘一	-11.3834
望之	-11.384
末有	-11.3863
薄之	-11.3867
高者	-11.3867
補曰便	-11.3871
惟一作	-11.388
而神	-11.3901
徙也	-11.3908
大者	-11.3922
棄而	-11.3924
爛也	-11.3927
無實	-11.3957
之非	-11.396
解於九辯	-11.3972
皆作	-11.3978
兮列	-11.3979
兮采	-11.3981
下句	-11.3996
所譖	-11.3998
而不著	-11.3998
爲裳	-11.4008
號為	-11.4038
舩也	-11.4044
懷兮	-11.4046
氣和	-11.4053
謂之蒲	-11.4061
而美	-11.4065
佞偽	-11.4074
何切	-11.4074
契曰玉英玉	-11.4083
爲常	-11.4093
於高	-11.4094
慮一作	-11.4099
思歸	-11.4111
爲期	-11.4129
苦也一	-11.4141
也閔	-11.4144
以名	-11.4166
言往古	-11.4186
乎葵	-11.419
邪所	-11.4201
行遊戲	-11.4231
一作從	-11.4239
見集韻	-11.4242
望南	-11.4247
則蘭	-11.4261
下一	-11.427
小大	-11.4273
皆巳解	-11.4278
志猶不	-11.4298
代之	-11.4334
芬芳之	-11.434
考之	-11.4348
之兮九	-11.437
羽山	-11.4406
一種耳	-11.4412
溺	-11.4419
禄也	-11.4428
心中悲	-11.4506
六星	-11.4509
君子也	-11.4529
競	-11.453
日多	-11.4539
多而	-11.4543
枝相	-11.455
詞而	-11.4559
意異	-11.4582
流而	-11.4584
第十六	-11.4593
文曰	-11.4617
與之	-11.4623
是一種	-11.4625
也降	-11.463
也言已修	-11.4641
謂其	-11.4663
九夷	-11.4684
楚國也	-11.4685
而居	-11.4695
巳行	-11.4696
作上	-11.4725
為人	-11.4746
之遺	-11.4748
俗嫉妬	-11.4782
園囿	-11.479
左傳云	-11.4808
移之	-11.4837
音大	-11.4852
玄賦云	-11.4855
莞草	-11.4871
月採	-11.4893
幸而	-11.4928
能知也	-11.4933
蒲黄	-11.4936
襄王	-11.4949
興於	-11.4956
日逺	-11.4975
去一作	-11.4997
汨水	-11.4998
視楚國	-11.5084
所載生	-11.5088
也羣一作群	-11.5095
已行	-11.5109
作人	-11.5115
曰大	-11.5119
澤深	-11.5122
未然	-11.5167
當之	-11.5202
也補曰化	-11.5209
次而	-11.5214
跡也	-11.5215
華而不	-11.5229
帝堯	-11.524
一讀	-11.5257
若在逺行	-11.5271
憭慄兮	-11.5273
靜也	-11.5279
種類	-11.5279
今所謂	-11.5285
沒之	-11.5301
神也	-11.5316
可與論	-11.5332
浮也	-11.5338
世兮	-11.5379
見其	-11.539
至夏	-11.5409
晉獻公	-11.5413
一作卉	-11.5481
量度	-11.5487
大殿	-11.5495
愁毒	-11.5518
冝急徠	-11.5535
紛盛貌	-11.5536
作愍	-11.5555
思念郢	-11.5571
曰黄昏	-11.5576
山南	-11.5588
離謗而見	-11.5591
壽宫	-11.5594
沃之土生蘼	-11.561
黃雜糅	-11.5616
為羮	-11.5658
以爲佩	-11.5667
終無所	-11.5673
刺其	-11.5673
一云不得	-11.5706
薄止也	-11.5716
君無上天些	-11.5725
諸家	-11.5728
伯夷	-11.5736
黄雜糅	-11.5773
朝廷	-11.5792
𤣥賦云	-11.5823
逸注	-11.5869
佞諂	-11.5901
良也	-11.5906
因號	-11.591
白茅	-11.5929
騷九歌	-11.5934
飛鳥	-11.5934
蜮	-11.594
展詩	-11.5952
定經	-11.5964
徨	-11.5989
莫吾知人心不可謂兮	-11.5995
反故居些	-11.5997
觀九	-11.6022
赤黄	-11.6052
藙	-11.6081
悲而	-11.6089
言楚王	-11.609
選注云	-11.6136
昏亂	-11.6158
言今	-11.6195
察也	-11.6203
佞諛	-11.6214
申志	-11.6243
舉也補	-11.6266
寂黙	-11.6299
菜生水中	-11.6302
也言西	-11.6309
不免	-11.632
桂詩云	-11.6325
前聖	-11.6329
一無以字	-11.6331
經而	-11.6371
觸也	-11.6422
娛樂	-11.6426
曰檐	-11.6426
陽施	-11.6433
干求	-11.644
云菰	-11.6462
江湖	-11.6465
干將	-11.647
無為之先	-11.6475
憂心悄	-11.6477
弗聞	-11.6484
言美人	-11.6486
如杜	-11.6486
求利也	-11.6493
人之言	-11.6499
知路	-11.65
也椉一作	-11.6503
以喻君	-11.6507
還視	-11.6508
荻	-11.6519
此物	-11.6522
陳詞	-11.6524
乗戈	-11.654
橫䧟	-11.6546
戈	-11.6554
禹湯	-11.6562
林澤	-11.6567
第十二	-11.6567
眄	-11.6577
委厥美而	-11.6592
咀嚼	-11.6594
而徑逝	-11.6596
側身	-11.6598
髙而難當	-11.66
舛錯	-11.6612
夀命	-11.6615
神精	-11.6622
愁思憤	-11.6633
子注	-11.6633
要乗弋等也	-11.6639
靈脩	-11.6641
尚書曰	-11.6655
壽命	-11.6657
信用䜛	-11.6664
以渫	-11.6674
易行	-11.6679
也言雲神	-11.6692
左傳	-11.6697
狂	-11.6706
嫁切	-11.6713
用讒	-11.6718
鮮卑	-11.6724
也本草杜	-11.6728
聊音留	-11.673
無憂患也	-11.673
汜音泛	-11.6731
殃禍	-11.6731
而彌純	-11.6737
汜濫兮	-11.674
極窮也	-11.6741
心紛	-11.6742
云衽	-11.6754
失水	-11.677
云倚立	-11.6775
舟至	-11.6786
申重	-11.679
迷惑	-11.6798
甲	-11.6802
相類	-11.6803
乎髙切	-11.6805
結難	-11.6815
而剖	-11.6819
泠泠而	-11.6828
第七	-11.6841
筆切	-11.6842
潢	-11.6844
實勞	-11.6844
堅實	-11.6851
不見用	-11.6853
而一作之	-11.6853
眉	-11.6856
禹湯文王	-11.6866
君門	-11.6871
九宫	-11.688
宿莽	-11.6882
有十	-11.6882
花根	-11.6895
筆切文選	-11.6896
乘清氣兮御	-11.6916
都邑	-11.6918
縈	-11.6924
斥逐	-11.6926
左氏傳曰	-11.6931
百神翳其備降兮	-11.6932
誣	-11.6933
鋪	-11.6933
兄	-11.6934
言已懐忠信	-11.6935
殿	-11.6936
補曰壇音善	-11.6942
不審	-11.6943
八九	-11.6944
女喻	-11.6956
責	-11.6977
能寐	-11.6979
言美女	-11.6982
自娛樂也	-11.6984
幽冥	-11.6985
忠潔	-11.6987
顧望	-11.6988
竽	-11.6989
所裁	-11.7
也五臣云服	-11.7005
眇逺	-11.7007
信用讒	-11.7007
誘騁先	-11.7017
漢武帝	-11.7026
霰	-11.7032
兮愁哀	-11.7036
震動	-11.7036
曰淮南	-11.7044
住曰傺	-11.7048
征行	-11.705
郢路	-11.7051
曰蜺	-11.7054
補曰畫音	-11.7059
補曰罷	-11.7061
滋蘭之九畹	-11.7065
欷虚毅切	-11.7067
糳申椒以	-11.7068
切釋名	-11.7076
畦留夷與掲車	-11.7077
后君	-11.7081
膠音	-11.7095
黒水玄	-11.7095
霧露濛濛	-11.7101
得進用	-11.7102
悲霜雪之俱下兮	-11.7106
山曰寒門	-11.7108
而憂思	-11.7108
玉斗	-11.7116
花落	-11.7119
也離一作罹	-11.7121
陸離而	-11.7123
階	-11.7124
困厄	-11.7125
字補曰爾	-11.713
哀命	-11.7132
第三	-11.7133
有狄不寧	-11.7135
有三種	-11.7136
陶隠居	-11.7139
隱憂	-11.7143
之鬼	-11.7144
沛	-11.7144
吹竽	-11.7147
杲	-11.7148
言語訥	-11.7152
匡攘	-11.7152
及榮華之未落	-11.7153
朋友	-11.7153
罔無	-11.7153
炎火	-11.7154
云日中	-11.7155
嘯	-11.7156
去終古之所居	-11.7156
踡跼	-11.7158
不與已	-11.716
牡	-11.7161
雜申椒與菌桂	-11.7163
然中路而迷惑	-11.7165
故之親身兮因縞素而哭之	-11.7168
政教	-11.7168
太史公	-11.717
虖一作乎	-11.7172
俞與愈同	-11.7172
髙翔	-11.7173
卜	-11.7174
鳩	-11.7176
巻施草	-11.7183
寥空無人民	-11.7184
嶢嶢	-11.7185
睩睩	-11.7187
李善文選	-11.7189
蕣	-11.7189
企	-11.7191
鬢	-11.7191
郭氏	-11.7192
詩用瓊	-11.7192
謂葭為	-11.7192
滑稽	-11.7192
介子推	-11.7192
色黃	-11.7193
不吾與	-11.7194
而送	-11.7194
忠佞不	-11.7194
晏公	-11.7195
徠歸	-11.7195
伯牙	-11.7196
補曰繚音了	-11.7197
出國門	-11.7197
從豐隆而	-11.7198
送	-11.72
不得施用	-11.72
孔安國註	-11.7201
徉	-11.7202
第十	-11.7202
海水	-11.7203
嶽	-11.7203
堪噉名菰	-11.7205
防	-11.7208
劉氏漢書刋誤論上林	-11.7208
江東人呼	-11.7208
生臺如	-11.7208
菰蔣草	-11.7208
弦	-11.7208
針	-11.7209
蹇離尤	-11.721
河鼓	-11.721
祈	-11.7211
炊	-11.7211
太液池邉皆是彫胡紫蘀	-11.7211
櫾	-11.7211
苽梁	-11.7211
菰之有	-11.7211
長安人謂	-11.7211
洪慶善	-11.7211
欸	-11.7214
有兩種一種莖	-11.7214
蒹葭	-11.7214
茝葯	-11.7214
倈	-11.7214
割	-11.7216
永遏在羽山夫何三年不施	-11.7216
愁獨哀	-11.7216
帝嚳	-11.7216
一云世溷	-11.7217
葉作劒脊	-11.7217
其根藕	-11.7217
的的中	-11.7217
蔤	-11.7217
蕖	-11.7217
補繪	-11.7219
泣血	-11.7219
皓	-11.7219
和氏	-11.722
絟	-11.722
先賢	-11.7222
軒轅	-11.7222
委厥美而歴兹	-11.7222
編愁苦以	-11.7223
兩種白	-11.7223
之後又得	-11.7223
乳柑	-11.7223
考異一巻	-11.7223
菰根	-11.7223
補注十七巻	-11.7223
懷襄	-11.7224
娩	-11.7224
鄭衛	-11.7224
悃苦本切	-11.7225
惆悵兮自	-11.7225
掌	-11.7225
擅	-11.7226
自亂惑也	-11.7227
丹水	-11.7227
谷於	-11.7227
蔓延	-11.7227
考工記	-11.7228
占	-11.7228
愁歎苦神	-11.7228
舊都	-11.7228
抑案	-11.7228
煖	-11.7228
争食	-11.7229
澌	-11.7229
在位	-11.7229
示	-11.7229
閼	-11.723
方言之異	-11.723
藷藇	-11.723
正謂此也	-11.723
以飲役賤之人即	-11.7231
岒峨	-11.7231
云狀如	-11.7232
斐而承宇	-11.7232
脩一作修	-11.7232
權衡	-11.7232
山野之中	-11.7232
豹	-11.7233
攸	-11.7233
髙數尺	-11.7233
㠁	-11.7233
方也以象地崴嵬	-11.7233
苨	-11.7233
軫方也故曰軫之	-11.7233
陸徳明	-11.7233
窔	-11.7233
旬	-11.7233
濫	-11.7234
得登	-11.7234
逢讒	-11.7234
夫何以變化	-11.7234
也言雖放弃執履忠信志如方石終不可	-11.7234
穾複室也厦大屋也詩	-11.7234
淖溺	-11.7235
瀐	-11.7235
勤	-11.7235
夫九首	-11.7235
矜	-11.7235
珪	-11.7236
以莞加蒲	-11.7236
似小蒲而	-11.7236
几	-11.7236
者謂莞苻蘺為	-11.7236
莞小蒲	-11.7236
轉行度益髙我常願之也嵬一作	-11.7236
􁆎	-11.7236
流澌	-11.7236
四句	-11.7236
盍	-11.7237
飴	-11.7237
眾芳	-11.7238
生彭城髙數尺白花	-11.7238
云於我乎夏屋渠渠厦	-11.7238
吾一作我五臣	-11.7238
連集韻作槤門持	-11.7238
何逢長之	-11.7238
黨人之鄙	-11.7238
校書郎臣王逸	-11.7238
人所謗	-11.7239
箘桂	-11.7239
蜜	-11.7239
蜀本圖經云生水中葉似	-11.7239
暴乾	-11.7239
厦胡雅	-11.7239
者如車軫耳集韻崴音隈嵬吾回切又崴	-11.7239
補曰軫石謂石	-11.7239
郭註藻	-11.7239
使之方好	-11.7239
𢥞	-11.7239
沖天	-11.7239
夫河伯而妻彼雒嬪	-11.7241
后皇嘉	-11.7241
濯	-11.7241
上升蒼天	-11.7241
也已欲盡	-11.7241
則國傾危追而自悔亦無所及	-11.7241
夏五臣云穾厦重屋補曰穾深也	-11.7241
形崴舊音委誰切	-11.7241
王有始而無終也惜余年老而日衰兮	-11.7241
言君進用	-11.7241
音懷崴嵬不平也一曰山	-11.7241
經傳	-11.7241
在崑崙西	-11.7242
天際也補	-11.7242
抉	-11.7242
昬	-11.7242
纕	-11.7242
之外别出	-11.7242
宋吳仁傑撰	-11.7242
泥菖夏菖	-11.7242
膾苴蓴只王逸註	-11.7242
葭蘆	-11.7242
謂之茭	-11.7242
勒之屬慕而述之皆以顯	-11.7242
名漢興	-11.7242
祖王兄子濞於吳招致天下娛	-11.7242
陳振孫	-11.7242
䕶左都水使者光	-11.7242
乾隆四十	-11.7242
文章連	-11.7242
機上織者	-11.7242
激導川水徑過園	-11.7242
登蒼天而	-11.7242
而身以親也	-11.7242
聼𤣥鶴	-11.7242
言隆冬凍寒則有大	-11.7242
龍鬚	-11.7242
奚	-11.7243
曰勉	-11.7243
榖梁	-11.7243
均	-11.7244
聊逍遙	-11.7244
潢潢	-11.7244
徂南土	-11.7244
有莘爰極	-11.7244
校書郎順帝時	-11.7244
鄒陽嚴夫子之徒興於文景	-11.7244
班孟堅云始楚賢臣屈原被讒放流	-11.7244
不還而功	-11.7244
也低一作俳	-11.7244
北姑地名言	-11.7244
四方異俗多賊害也古本乎皆	-11.7244
屋複穾温室盛夏暑	-11.7244
徑一作俓五臣云徑	-11.7244
徑過也復反也川一作谿	-11.7244
憤亂誠欲隨水沛然而	-11.7244
所以低佪猶豫	-11.7244
春秋命厯序曰皇	-11.7244
朱丹也	-11.7244
熱則有	-11.7244
瞀亂也實是也徂去也言	-11.7244
言我精魂	-11.7244
言所居之	-11.7244
通反復其流急疾又潔	-11.7244
隂堂其内寒涼	-11.7244
雕鏤連木使之方好也	-11.7244
七宿曰鶉	-11.7244
也然天文家朱鳥乃取象於鶉南方	-11.7244
何物但謂	-11.7244
從私邪背去公	-11.7244
武沈存中云朱雀莫知	-11.7244
神明則駕蒼龍驂白虎其狀蚴虬	-11.7244
而朱者羽族赤而翔上集必附木此火之	-11.7244
蒼龍蚴虬於左驂兮白虎騁而	-11.7244
象也或云	-11.7244
忽忽	-11.7244
駿馬	-11.7245
余有所疑	-11.7245
蚴	-11.7245
馳而去	-11.7245
許叔重在	-11.7245
留夷香草也	-11.7245
獨任	-11.7245
覬	-11.7245
中舉上	-11.7245
叙之爾鮑欽止云辨騷非楚詞本書不當	-11.7245
茄	-11.7245
蓴苴蘘荷也	-11.7245
貴顯漢朝故世傳楚	-11.7245
之僬僬受人	-11.7246
以自傷悼後有宋玉唐	-11.7246
作離騷諸賦	-11.7246
從炎火又曲意	-11.7246
新沐者彈其冠人之情也其	-11.7246
於咸池而再	-11.7246
荀子云新浴者	-11.7246
西京雜記云	-11.7246
誰能以巳	-11.7246
逺在他域史記云何故	-11.7246
㠢	-11.7246
一作徠歸一云魂乎歸	-11.7246
亦如車	-11.7246
可徠歸矣	-11.7246
將遇害也一	-11.7246
屯陳也五臣云屯聚也車所以	-11.7246
放在草野憂心愁悴精神散越故自招其	-11.7246
歸徠楚	-11.7246
氣力衰微	-11.7246
玉女青	-11.7246
覺寤而還	-11.7246
言君子以	-11.7246
連言門	-11.7246
過忽然	-11.7246
順陽氣始生而徠歸巳無逺漂遥	-11.7246
願搖起而	-11.7246
髙澤深視之冥冥	-11.7246
㝔	-11.7246
不莽莽盛茂自傷不	-11.7246
也史記作陶陶補曰說	-11.7246
云載玉女而與之歸張揖	-11.7246
他刀切又滔聚也	-11.7246
以仲春	-11.7246
先王之制度務	-11.7246
女於後車以侍棲宿也補曰大人賦	-11.7246
建日月以	-11.7246
指西海以爲期	-11.7246
方仲春而東遷此云滔滔孟夏	-11.7246
日月之光	-11.7246
朱鳥斗牛	-11.7246
水漫漫大	-11.7246
滔滔盛陽	-11.7246
火鶉	-11.7246
盤結遇四海之	-11.7246
蒙君惠而獨放弃	-11.7246
言在位之臣廢	-11.7246
載玉女於後車	-11.7246
道思者中道作	-11.7246
陽用事煦成萬物草木之類莫	-11.7246
音陶前云	-11.7246
頌以舒	-11.7246
首鶉	-11.7246
純一其	-11.7246
和氏之璧	-11.7246
無所告愬	-11.7247
一夕而九	-11.7247
於杳冥之中	-11.7247
蜒	-11.7247
小腰秀頸若鮮	-11.7247
方八百里	-11.7247
一本云校書郎中	-11.7247
之際而淮南王	-11.7247
作鴻補曰澒鴻	-11.7247
嚴忌	-11.7247
城人元	-11.7247
委兩館	-11.7247
字叔師南郡	-11.7247
後漢文苑傳云逸	-11.7247
曰南海之神曰祝融	-11.7247
書而吳有嚴	-11.7247
振其衣	-11.7247
潔也五臣云察察潔	-11.7247
記云又誰能以身	-11.7247
離騷全圖	-11.7247
頴	-11.7247
上攀北極	-11.7247
之多並運於	-11.7247
之奥經	-11.7247
之星且中休息	-11.7247
之楣皆刻	-11.7247
之芬芳而益暢茂也五	-11.7247
之處故心傷而長悲	-11.7247
也史記作窈窈補	-11.7247
也崇充也言天雨霽日	-11.7247
也杳杳深冥	-11.7247
云北極五星天運無窮三光迭耀而極	-11.7247
五臣云又刻鏤	-11.7247
余因稱乎	-11.7247
作㠯補曰晉志	-11.7247
作徑古本作陞	-11.7247
使先驅兮	-11.7247
加宻石焉注云以細石磨	-11.7247
十六圖	-11.7247
反復其	-11.7247
史記紆作	-11.7247
吸清和之氣以充空虚療飢渴也以一	-11.7247
四月純	-11.7247
地三年不	-11.7247
堂入房至室奥處上則有朱	-11.7247
塵也筵席也	-11.7247
壁曼延相連	-11.7247
奥釋文作隩五臣云言	-11.7247
孔之將	-11.7247
居江南之土僻	-11.7247
已雖忠直無所	-11.7247
席可以休息也或曰朱塵筵謂	-11.7247
念救傷懷之思	-11.7247
成其功	-11.7247
攀北極而一息兮吸沆瀣以充	-11.7247
文虚大丘也丘於切崐崘	-11.7247
星不移故曰居	-11.7247
曰鋪陳	-11.7247
木盛長而	-11.7247
朱丹也塵承	-11.7247
汜猶汎汎揺動	-11.7247
清商歌曲也言赤松王喬	-11.7247
濕心愁身苦憂悲且思也遇一	-11.7247
焉聚千	-11.7247
畫承塵下則有簟筵好	-11.7247
直超越回邪志其法	-11.7247
筵藉之曰席	-11.7247
經入於此矣	-11.7247
罔五臣云織網於	-11.7247
罪也一無山字施一作㢮補	-11.7247
羽山絶在不毛之	-11.7247
而死節兮	-11.7247
聖眩於名實昧於施報	-11.7247
與瞬同說文云	-11.7247
西南隅謂	-11.7247
詩云肆筵設机言升殿過	-11.7247
赴愬故	-11.7247
進賢士必見進用也	-11.7247
野甚清淨漠無	-11.7247
鏤綺文朱丹其縁	-11.7247
風奮發動揺草木皆令有光充實蘭	-11.7247
騖杳冥之中脩善不倦休息崑崙	-11.7247
黙黙無聲也言江南山	-11.7247
龍參伐	-11.7247
婦人	-11.7247
伯夷餓於首陽	-11.7247
提	-11.7248
惜年齒	-11.7248
也九辯九	-11.7248
并謝與長友兮	-11.7248
鬵	-11.7248
白華赤實皮既馨香又有善味	-11.7249
之未秀	-11.7249
得復見	-11.7249
祝融之神於朱冥之	-11.7249
仁傑按說文蘘荷一名葍蒩	-11.7249
助朱買臣	-11.7249
天問九歎之後今附于第一通之末云	-11.7249
維六龍於	-11.7249
従	-11.7249
澒濛氣也朅去也澒一	-11.7249
臣云取其香㓗以合	-11.7249
一作薄補	-11.7249
下顧去楚國之	-11.7249
之山以遊觀也騖一	-11.7249
之礱之	-11.7249
乗太一神象之轝而遊戲也補曰淮南云	-11.7249
也翹羽也五臣云以砥石	-11.7249
云砥細於礪皆磨石也榖梁云天子之桷	-11.7249
亝	-11.7249
即朱雀神鳥	-11.7249
可以為席	-11.7249
孟子之山其草多	-11.7249
容切逄	-11.7249
慜痛也鞠窮也言	-11.7249
所以多憂者以君信	-11.7249
故都之	-11.7249
曹憲博雅	-11.7249
梅伯數諫而至醢兮	-11.7249
武注云角亢	-11.7249
淮南曰周鼎	-11.7249
渡西海至大秦大秦之西	-11.7249
漫一作曼補	-11.7249
澤之龜反相與貴重小石也	-11.7249
登逢龍之山而遂	-11.7249
白虎星	-11.7249
皆弃崑山之玉	-11.7249
直終不變節	-11.7249
礫言世人	-11.7249
索圖於	-11.7249
緑節	-11.7249
蓬補曰逢符	-11.7249
詩曰其平如砥翠鳥名	-11.7249
逢龍山名逢一作逄	-11.7249
長放鮌	-11.7249
闇君貴佞僞	-11.7249
霑濡	-11.7249
風波衣	-11.7249
高抗志行	-11.7249
髙抗志	-11.7249
鳥遲國	-11.7249
􁕀	-11.7249
逶移	-11.7249
歧山	-11.7249
娛昔只	-11.7249
水之流	-11.7249
禾	-11.7249
萷	-11.725
樷	-11.725
班孟堅	-11.725
於朱冥	-11.725
皇翔于千仞兮	-11.725
絶於都廣之	-11.725
而下之見細	-11.725
而自藏使麒	-11.725
麟可係而羈兮豈云異	-11.725
南方曰都廣	-11.725
山名又曰八	-11.725
而去之彼尋	-11.725
舘	-11.725
地之中也補曰	-11.725
垢塵	-11.725
天地之中也注	-11.725
汶音門汶	-11.725
淮南曰建木在都廣	-11.725
濛沾辱也一音昏荀子注	-11.725
白也史	-11.725
第一無經字	-11.725
釋文第八	-11.725
也言東方有大海廣逺	-11.725
云玉鈎挂於室中	-11.725
以翠羽相飾之補曰砥音咫礪石也書傳	-11.725
卧之室以砥石	-11.725
可以飾幃帳顔	-11.725
各别異	-11.725
堙息壤招帝震怒賦刑在下投	-11.725
師古曰鳥	-11.725
平而滑澤以翠鳥之羽雕飾玉	-11.725
或曰儃室謂儃佪曲房也挂一作絓	-11.725
挂懸也曲瓊	-11.725
文泉出	-11.725
文筵竹	-11.725
曰翡赤羽雀翠青羽雀異物志云	-11.725
曰遏猶遏絶	-11.725
東至陽	-11.725
永長也遏	-11.725
浟浟流	-11.725
玉鈎也言内	-11.725
祝融殺鯀	-11.725
翠鳥形如燕赤而	-11.725
衆山去我	-11.725
鈎以懸衣物也	-11.725
雄曰翡青而雌曰翠翡大於羣其羽	-11.725
之君也即道千	-11.725
之西復	-11.725
云七戎六蠻九夷八狄	-11.725
倕堯巧	-11.725
吸天元氣得其道	-11.725
在可馳	-11.725
執守清白而死忠	-11.725
工也斲	-11.725
己歡喜持瑟調	-11.725
志曰荆州尤	-11.725
惑之心而還已也方	-11.725
方舟隨江而浮兾幸	-11.725
汝共工莊子曰工倕旋而蓋規矩	-11.725
王開其矇	-11.725
畀	-11.725
白虎前朱鳥後	-11.725
矇僮矇也言我	-11.725
著倕使銜其指說文云斲	-11.725
補曰易以䜴	-11.725
言有海西海	-11.725
謂之四海言皆近海漢張騫	-11.725
豐隆雲師一曰雷師下注同椉一作	-11.725
重祠祀屈原制九歌	-11.725
靈公至於濮水之上夜半聞鼓琴聲召師	-11.725
魂乎無南蜮傷躬只	-11.725
雉經	-11.725
入海	-11.7251
蠢蠢	-11.7251
相息亮切	-11.7251
帝降夷羿革孽夏民	-11.7251
霾	-11.7251
黜	-11.7252
祖父	-11.7252
本二物	-11.7252
孔靜	-11.7252
之險微兮遥	-11.7252
北地則化而為枳	-11.7252
朱赤色也言己行	-11.7252
柚皮味甘	-11.7252
葭菼	-11.7252
輝	-11.7252
敗法度而自傾危也原一	-11.7252
紫貝闕	-11.7252
中也或曰齊悲歌言愁思也補曰字書	-11.7252
云積羽沈舟羣輕折軸累釋文力瑞	-11.7252
云都廣南方	-11.7252
信約而復背之也古者君臣將共	-11.7252
傴	-11.7252
僂	-11.7252
入湖澤之	-11.7252
憂君與	-11.7252
於螻蟻與此	-11.7252
此作惛惛惛惛不	-11.7252
江潭之鱣鯨兮固將	-11.7252
治必以信誓相	-11.7252
淮南小山	-11.7252
瀆兮豈容吞舟	-11.7252
用羣小之言則	-11.7252
硬	-11.7252
簏	-11.7252
茸茸然	-11.7252
齊舉大櫂而擊水波自傷去朝堂之上而	-11.7252
之飾侍君堂隅	-11.7252
于幽陵南至于	-11.7252
云八龍八	-11.7252
交阯西至	-11.7252
何以能變化而有聖德也愎一	-11.7252
侍從之人皆衣	-11.7252
倕音垂書	-11.7252
南至交阯北至	-11.7252
壘盤結也	-11.7252
婉婉龍	-11.7252
恐不能自全也	-11.7252
惡氣天常甚雨如	-11.7252
愁思心中鬱結	-11.7252
所施之欲待明	-11.7252
援神契曰	-11.7252
擠摧	-11.7252
文也或曰紫莖言荷莖紫色也屏風謂荷	-11.7252
斫也劉殺也作	-11.7252
施捨也通	-11.7252
暗處	-11.7252
曰不有屈原豈見離騷驚才風逸壯志煙	-11.7252
歸一云尚進	-11.7252
氣也婉於阮切釋	-11.7252
水出大貝也一云白	-11.7252
注壅水冬則凝	-11.7252
流沙東至于蟠木淮南曰	-11.7252
涓	-11.7252
潔被服芬芳	-11.7252
然放流	-11.7252
猶毛詩題章之	-11.7252
生禹禹小見其	-11.7252
痛忠直之言忤逆君耳使之恚怒若申胥	-11.7252
登逢龍	-11.7252
皓皓	-11.7252
相與貴	-11.7252
祭太一東南郊天文志曰中	-11.7252
禹鮌子也言	-11.7252
罥	-11.7252
翠被衾也補	-11.7252
者為薦	-11.7252
而痛身遭疾病長窮困	-11.7252
莖紫色風起水動波	-11.7252
萼	-11.7252
蘭把若無	-11.7252
虎豹之文異	-11.7252
衣如鱗文也言	-11.7252
言復有水葵生於池中其	-11.7252
謹厚以	-11.7252
豹猶虎	-11.7252
鄣風也縁文選作緑五臣云	-11.7252
金相玉	-11.7252
陂陁長陛也言	-11.7252
陸離美玉也薦	-11.7252
階陛也或曰侍陂池	-11.7252
風起吹之生文於緑波中	-11.7252
飾一作餝	-11.7252
魁壘促	-11.7252
魚鱗衣	-11.7252
魚鱗衣雜五綵	-11.7252
鮌愚狠愎而	-11.7252
鮌竊帝之息壤以堙洪水帝	-11.7252
𫐠	-11.7252
􁀔	-11.7252
乃屯敶我車前後千	-11.7252
也無行媒	-11.7252
云律者所以	-11.7252
作灃補曰澆女	-11.7252
君注云雲神豐隆五臣	-11.7252
周流行求道	-11.7252
失則大人君	-11.7252
射十日中其九	-11.7252
斫也史記	-11.7252
澆也澧唐	-11.7252
猶復重	-11.7252
申子伍子胥也吳封之於申故	-11.7252
疇彛倫攸	-11.7252
粉白黛黒施芳澤只	-11.7252
而寫之乃之	-11.7252
言衆人雖不知	-11.7252
謹善也豐大也	-11.7252
車轄並馳左右言從	-11.7252
雲神屏翳按豐隆	-11.7252
韓楚之間謂之	-11.7252
鳥遟國	-11.7252
齊以玉	-11.7252
例一	-11.7252
矰繳	-11.7252
之所聞	-11.7253
之木得彼小子夫何惡之媵有莘之婦	-11.7253
壟	-11.7253
吕氏春秋果之美者有雲夢之柚	-11.7253
以弔屈原賦云所貴聖	-11.7253
太傅意不自得及度湘水	-11.7253
閩人	-11.7253
惜者哀也誓者信也約也言哀惜	-11.7253
補曰戰國䇿	-11.7253
乆居濁世	-11.7253
也言已惟思君行紀數其過	-11.7253
傺止也言	-11.7253
又多忿怒	-11.7253
天帝補曰瞑音	-11.7253
往即逢害	-11.7253
止沈藏但以秋氣殺物矣皆喻楚之君臣	-11.7253
疑借用榜北孟切	-11.7253
顔容變易而蒼	-11.7253
一之庭紫	-11.7253
一本何下有故字補曰愎弼力切戾也詩	-11.7253
云出入	-11.7253
云言草木殘瘁也菸	-11.7253
以列於篇後者亦	-11.7253
其華芰菱雜錯羅	-11.7253
凍皓然正白回錯膠戾與	-11.7253
列而生俱盛茂也或曰倚荷謂	-11.7253
君法繁多	-11.7253
咸其脢一曰心上口下拇莫	-11.7253
坎埳坷不平也輡軻車行不平	-11.7253
天相薄	-11.7253
太一佐曰五帝古者天子以	-11.7253
夫何為周流	-11.7253
字天對云	-11.7253
尊神祠在楚東以配東	-11.7253
屏風水葵也補曰	-11.7253
帝故云東	-11.7253
施令進	-11.7253
曰漭母朗切水大	-11.7253
本草鳬葵即莕菜	-11.7253
沙朔南	-11.7253
没萬物不可度	-11.7253
涯多霧	-11.7253
淮南子曰太㣲者太	-11.7253
無涯其水淖溺沈	-11.7253
煙	-11.7253
生水中俗名水葵	-11.7253
用仁義之行	-11.7253
皇補曰漢書郊祀志云天神貴	-11.7253
皎五臣云皓白喻貞	-11.7253
禁絶苛刻	-11.7253
篇之目皆楚之	-11.7253
絶也施	-11.7253
罟張而在下雖欲	-11.7253
脄一作脢補曰脄脢音梅又	-11.7253
與䔖同	-11.7253
舷也枻一	-11.7253
苦个切又音坎可轗音	-11.7253
謂侍從於君遊陂池之中赫	-11.7253
趣太一星名天之	-11.7253
錙	-11.7253
鳯愈飄翔而髙舉	-11.7253
㳙	-11.7253
一作舫矇一作矇補曰舫與方同	-11.7253
一日方	-11.7253
三十二圖	-11.7253
九徳之歌九	-11.7253
也言戎車相	-11.7253
交邪行	-11.7253
交錯長兵不施故用刀劒以相接擊也	-11.7253
伯趙然則子規鶗鴂二	-11.7253
作巧匠斲一作劉一作斷	-11.7253
作蜿於	-11.7253
八龍神智之	-11.7253
其中廣大又以丹沙	-11.7253
其狀婉婉又載雲	-11.7253
千人才爲俊一國髙爲傑也史記云	-11.7253
各切詩傳云東西	-11.7253
同也言齊驅並	-11.7253
吾令鳯鳥飛騰兮繼之以日夜	-11.7253
四方而乆不	-11.7253
均亦調也	-11.7253
如龍可制御八方也	-11.7253
巫鬼重淫祀隋	-11.7253
弓矢圍	-11.7253
心志正直行無	-11.7253
惜年齒尚	-11.7253
或曰雷師屏翳或曰雲師或曰雨師或曰	-11.7253
方言云輪	-11.7253
殳矛守戈㦸助凡五兵	-11.7253
殿峻屋	-11.7253
流沙漭然平正視之	-11.7253
澧澧	-11.7253
澧澧波聲也回	-11.7253
爾雅東南	-11.7253
甲鞈如	-11.7253
而不用兮	-11.7253
而揚澆	-11.7253
蛇而長也駕八龍者言巳	-11.7253
補曰錯倉	-11.7253
觸石碕而衡	-11.7253
豐隆筮雲氣而告之則雲師也穆天子	-11.7253
質性敦厚	-11.7253
路趣敵旌旗蔽	-11.7253
輿馳而	-11.7253
轂	-11.7253
迤五臣云言我所往皆與神游故可御氣	-11.7253
金石鞈堅	-11.7253
錮也一云車轄也言	-11.7253
錯交也短兵刀劒	-11.7253
錯司馬法曰	-11.7253
雲得大壯卦遂	-11.7253
風師歸藏云	-11.7253
鶗鴂爾雅謂之鵙左傳謂之	-11.7253
蘇鶚演義	-11.7254
習以都只	-11.7254
妬被離而	-11.7254
宇居也	-11.7254
迂	-11.7254
白芷一名芳香	-11.7254
煉	-11.7254
所出其	-11.7254
也固一	-11.7255
鱅	-11.7255
撥治也	-11.7255
聒	-11.7255
桂樹之冬榮	-11.7255
不知芳何	-11.7255
陳藏器云水菖	-11.7255
浙	-11.7255
陽羡山中	-11.7255
蘸	-11.7255
又無行媒兮	-11.7255
授	-11.7255
厦	-11.7255
委曲也	-11.7255
茅山溪	-11.7255
亊	-11.7255
低昻	-11.7255
使已疑惑	-11.7255
又音謗進船也汰音	-11.7255
故曰哀時命也	-11.7255
有還意也疑一作凝五臣云容與徐動	-11.7255
櫂船猶不進隨水	-11.7255
無罪受罰故我心懮懮而	-11.7255
至九思下皆有傳字	-11.7255
釋文第四	-11.7255
3	-11.7255
一見一否並	-11.7255
下遽躡其跡而屈宋逸	-11.7255
中持倚之也五	-11.7255
之月為純	-11.7255
之網飛鳥走獸動而遇害喻君法繁多百	-11.7255
之遺業而成	-11.7255
也擠摧折屈也壘一作	-11.7255
也補曰鰅魚恭切鱅以恭切鰅	-11.7255
也言南方太陽有積火	-11.7255
也言復有鰅鱅鬼	-11.7255
仙於王子	-11.7255
作温蠖	-11.7255
作管切集也緒	-11.7255
作舫素	-11.7255
作輡補曰埳苦闇切軻	-11.7255
便猶安也言所選美女五人儀	-11.7255
候則披文而見時枚賈追風以入麗馬楊	-11.7255
傳云天子升崑	-11.7255
傳曰南方有鳥其名爲	-11.7255
其堂其形	-11.7255
其衣被詞人非一代也故才	-11.7255
出以將其雨張衡思	-11.7255
列仙傳	-11.7255
動觸刑罰也補曰罻音尉記曰	-11.7255
各異恣	-11.7255
周流觀望見	-11.7255
問曰發	-11.7255
喻世昭明補	-11.7255
在山源谿水中聞人聲便以口中毒射	-11.7255
大蛇也爾雅曰	-11.7255
山海經云丹穴	-11.7255
山深林其路險阨又多虎	-11.7255
崔文子驚怪	-11.7255
崙封豐隆之葬郭璞云豐隆筮師御	-11.7255
左氏曰	-11.7255
巻上離騷經	-11.7255
廣大無涯不可過也補	-11.7255
後漢書云其俗男女	-11.7255
情怨則鬱伊而易感述離居則愴怏而難	-11.7255
所安以侍棲宿也	-11.7255
手母指也	-11.7255
文云方併舟也亦	-11.7255
方有筒桂	-11.7255
曰莞爾微笑胡	-11.7255
曰菸音於	-11.7255
未知其時故屏營躑躅一作	-11.7255
李公麟	-11.7255
水蘸之	-11.7255
求也傺住也言已意	-11.7255
沙丹沙也言乃	-11.7255
洋洋無涯	-11.7255
滯卒無所逢遇也埳一作轗一	-11.7255
然光華也陁一作陀補曰	-11.7255
照雨滴則	-11.7255
父死稱考緒業也言禹	-11.7255
犁牛又鰅魚名	-11.7255
白蜺而嬰茀持藥與崔文子	-11.7255
皓膠水凍	-11.7255
祠一作祀	-11.7255
禹何能繼續鮌業而謀慮不同也補曰洪	-11.7255
纍補曰魁	-11.7255
考父之功也補曰纂	-11.7255
者太一之居	-11.7255
而嗣續得聖	-11.7255
而浴故曰交阯阯與趾同	-11.7255
聊浮逰	-11.7255
能纂代鮌	-11.7255
腹我腹懷抱也天對云氣孽	-11.7255
臣云致送也送人之命於	-11.7255
臧善也言	-11.7255
臭草也䓃草傷	-11.7255
舷	-11.7255
船容與而不進兮淹回水而疑滯	-11.7255
苦罪切壘纍並音磊魁	-11.7255
草若能憑軾以倚雅頌懸轡以馭楚篇酌	-11.7255
荷立生水	-11.7255
莧	-11.7255
蕖夫固不	-11.7255
藻藉	-11.7255
蜮似鱉三足以氣射	-11.7255
蜮射傷害人	-11.7255
蜮短狐也詩云	-11.7255
蜿虎行	-11.7255
蟒王蛇也騫舉頭	-11.7255
裁中巧者獵其豔辭吟諷者銜其山川童	-11.7255
補曰殱盡也瀐泉	-11.7255
言倕不以斤斧斲斫	-11.7255
言當世之人	-11.7255
訖于四海史記曰北至	-11.7255
語曰不使大臣怨	-11.7255
讀若騫	-11.7255
豹匍匐蜿蜒以候伺人也鰅	-11.7255
賅	-11.7255
身危殆也	-11.7255
辟毗亦	-11.7255
逺度世補曰度	-11.7255
釋文藏作臧音藏五臣云坎	-11.7255
陂音頗陀音駞不	-11.7255
雷師淮南子曰季春三月豐隆乃	-11.7255
音叙絲耑	-11.7255
音妹脊側	-11.7255
音晃水深廣	-11.7255
頭而望其狀騫然也補曰	-11.7255
題交趾注云交趾足相	-11.7255
顠	-11.7255
飜	-11.7255
駓駓走	-11.7255
體溶溶而東	-11.7255
鱅狀如	-11.7255
鱅短狐類也短狐鬼蜮	-11.7255
齊同也言牀上之	-11.7255
㲈之舞啓樂有九辯九歌又山海	-11.7255
一作䰅薴一作蔓鬢	-11.7255
一作顮補曰薴音獰	-11.7255
不甘樂猶思楚國念故	-11.7255
並同國語曰親戚宴饗則有殽烝注	-11.7255
中心愁悶假延日月	-11.7255
之陽駕	-11.7255
也尚書簫韶九成是也	-11.7255
五臣云抑志按節	-11.7255
今之讀者改假	-11.7255
伯登扶桑日	-11.7255
儛	-11.7255
又曰鶗鴂鳴而草	-11.7255
后開始歌九招開即啓	-11.7255
均出	-11.7255
填洪水	-11.7255
子規蜀右曰杜宇	-11.7255
弭節徐行	-11.7255
徐行以候	-11.7255
愁早老曰	-11.7255
意晻晻而	-11.7255
戈㦸也甲鎧也言國殤始從	-11.7255
或人之說	-11.7255
或曰雲師	-11.7255
戲媮樂而巳假一作暇	-11.7255
援琴鼓之師	-11.7255
擁	-11.7255
故王仲宣登樓賦云登兹	-11.7255
曰楚人鮫革犀兕以	-11.7255
曰犀甲壽百年荀子	-11.7255
樂耳今俗猶言借日度時	-11.7255
樓以四望兮聊假日以消憂	-11.7255
武王伐紂	-11.7255
殪死也言巳所	-11.7255
江别流出崏山東别	-11.7255
沱也沱釋文作沲補曰沱唐何	-11.7255
澧澧回而揚澆邪引	-11.7255
物也月令仲夏鵙始鳴	-11.7255
疑桀補曰淮南云知過萬人謂	-11.7255
禹樂也韶九韶舜樂	-11.7255
移而行反觸石碕	-11.7255
種叢蘭又栽木	-11.7255
美者有梁山之犀象焉考工記	-11.7255
聊須㬰以	-11.7255
至雲故曰雲旗委於	-11.7255
見晉平公令師	-11.7255
言遭遇幽厄	-11.7255
車同軌	-11.7255
軑	-11.7255
遌史記作悟補曰	-11.7255
遌當作	-11.7255
遡高風以	-11.7255
遻	-11.7255
邈邈而逺莫能追及一云邁	-11.7255
金錫爾雅曰南方之	-11.7255
雜白也鬚	-11.7255
雲龍猶自抑案	-11.7255
願循江水逶	-11.7255
橑	-11.7255
踥蹀而日進兮	-11.7255
土伯	-11.7255
九州之博大兮	-11.7255
皋	-11.7256
馮珧利決封狶是	-11.7256
之以日夜	-11.7256
範	-11.7256
窴	-11.7256
謁	-11.7256
湯東巡	-11.7256
也地下幽冥故	-11.7257
侯伯也約屈	-11.7257
傷痛也補曰懮音	-11.7257
土伯后土之	-11.7257
夏謂之夏水又東	-11.7257
意恣睢	-11.7257
擴	-11.7257
於堂上	-11.7257
浪之水注云漾水至	-11.7257
經雷山有	-11.7257
芰菱也秦人謂之薢茩言池水之	-11.7257
言地有土伯執	-11.7257
豈盡忠而有功	-11.7257
軻沈	-11.7257
釋文第七	-11.7257
釋文第六	-11.7257
齗	-11.7257
𦵏	-11.7257
㓕	-11.7257
䆁	-11.7257
世追先祖也一本欲上	-11.7257
中有芙蓉始發	-11.7257
之氣雲薄漏日日	-11.7257
也天文大象賦注云天	-11.7257
也爰於也言天法有善隂陽從	-11.7257
也補曰書云東漸	-11.7257
也言大海之	-11.7257
予后后來其蘇湯	-11.7257
于海西	-11.7257
云文昌	-11.7257
以事上則其	-11.7257
俛也補曰軒曲輈	-11.7257
傑壓抑	-11.7257
僑子僑化	-11.7257
兩足並	-11.7257
君之過必	-11.7257
吸衆氣而	-11.7257
唇	-11.7257
地志云其夷足大指	-11.7257
堆竒獸	-11.7257
如羊腸今	-11.7257
子僑之尸也故	-11.7257
屯余車其千乘兮	-11.7257
度世一云遂	-11.7257
引戈擊蜺中之因墮其藥俯而視之王	-11.7257
悠悠螭龍行	-11.7257
文云背肉也易	-11.7257
斵	-11.7257
施芳澤只	-11.7257
明之君乃當仕	-11.7257
暗㣲者虹者隂陽交	-11.7257
曰從即容切	-11.7257
有張施	-11.7257
有遂字一云欲逺	-11.7257
梟鴞	-11.7257
欲髙飛	-11.7257
浟	-11.7257
漢書曰楚	-11.7257
澹然而自	-11.7257
濁之人進在	-11.7257
瓊枝以續佩守仁行義志彌固也	-11.7257
生樹名曰瓊枝	-11.7257
發泄天	-11.7257
粉白黛黑	-11.7257
署常恕切置也大人	-11.7257
羊腸山名補曰戰國䇿注云	-11.7257
者雌曰蜺謂	-11.7257
而回周兮	-11.7257
肌肉空虚皮乾	-11.7257
背逐人駓駓其走捷	-11.7257
腊也萎一作委	-11.7257
芳以歇而不比	-11.7257
藩車也輬音	-11.7257
覆反也舟船也斟	-11.7257
言信直之臣被	-11.7257
言得藥不善也一本夫	-11.7257
言楚王發	-11.7257
言榮譽流行周遍四極無	-11.7257
越其流浟浟又迅	-11.7257
趙險塞名山形屈辟狀	-11.7257
軒輬皆輕車名也低屯也	-11.7257
軯	-11.7257
輡軻不遇也言	-11.7257
逺不聞	-11.7257
過五十而輡	-11.7257
選陂	-11.7257
靈皆侍從也補	-11.7257
顯位日	-11.7257
騎羅列也言	-11.7257
魂魄歸徠間以	-11.7257
鯪一作陵所一作居鬿一作魁補曰鯪音	-11.7257
5	-11.7257
一作㩜一作擥洲一作中洲	-11.7257
上觀望也霤音	-11.7257
不遇其時故假日游	-11.7257
之山有鳥焉其狀如	-11.7257
之歌九韶之舞而	-11.7257
之英千人	-11.7257
也墜一作隧	-11.7257
也椒漿以椒置漿	-11.7257
也補曰觀音貫釋名曰觀者於	-11.7257
也記曰禹能	-11.7257
也集韻櫩與簷	-11.7257
云升體解	-11.7257
云夏后	-11.7257
云言夾	-11.7257
五月隂氣生於下伯	-11.7257
人雖得長生乆僊	-11.7257
以蕙草蒸肴芳蘭	-11.7257
作嘼後乃借畜	-11.7257
供待彌敬乃	-11.7257
其好醜	-11.7257
切桂置酒中	-11.7257
叙孟子曰禹之治水水之道也鮌	-11.7257
可安居何用	-11.7257
周閣也歩壛長砌也壛一作櫩補	-11.7257
嘼一作獸補曰畜音嗅師古云嘼者人之	-11.7257
國民衆多非明	-11.7257
在釋獸	-11.7257
士飛行天下以求同志續以	-11.7257
多暇日亦承誤	-11.7257
將候祝融與諮謀也南	-11.7257
小堂樓觀特	-11.7257
左驂馬	-11.7257
帝炎帝其神	-11.7257
師延殷紂之臣也	-11.7257
房室也	-11.7257
所養獸是山	-11.7257
擾謹之馬周旋	-11.7257
擾謹也言南堂之外復有	-11.7257
攬盧敢切取也	-11.7257
故言逢殃補曰子胥伍	-11.7257
故遠聞而難虧	-11.7257
斁鯀則殛死禹乃嗣興天乃錫禹	-11.7257
文云嘼㹌也六	-11.7257
方丙丁其	-11.7257
既以䆳逺	-11.7257
日夜兾相逢遇也文選云	-11.7257
是鳥也飲食	-11.7257
曰上林賦歩櫩周	-11.7257
曰霤屋水流也禮	-11.7257
曲屋周旋閣道歩壛	-11.7257
桂樹芬香以興屈原之忠貞也補曰	-11.7257
樓也霤屋宇也言復有南房别室	-11.7257
此亡國之聲師延所作也與紂	-11.7257
毒也補曰蜿	-11.7257
汩陳其五行帝乃震怒不	-11.7257
法度修其仁義不易其行則	-11.7257
流李善云歩櫩長廊	-11.7257
澤所育故爾雅	-11.7257
牛馬羊豕即在釋畜論	-11.7257
王乃下來集歸於有	-11.7257
王夫差臣諫令伐越夫差不聽	-11.7257
畜之字本	-11.7257
皇飛騰兮又繼	-11.7257
相射流矢交墮壯夫奮怒	-11.7257
禹行其所無事	-11.7257
竟滅	-11.7257
節折之	-11.7257
粤之劒又曰吳粤之	-11.7257
而行也或曰操	-11.7257
聯	-11.7257
肴骨體也蒸進也	-11.7257
與大殿宇絶逺	-11.7257
舞九韶	-11.7257
落守禦堅重又芬香也五臣	-11.7257
藉進桂	-11.7257
藩籬以自蔽	-11.7257
衆華其文爛然而同光明	-11.7257
見仁聖之	-11.7257
觀也畜一作	-11.7257
言兩軍	-11.7257
記中霤注云古者複穴是以名室	-11.7257
譽興而榮名立也	-11.7257
賢人之同類者故	-11.7257
軍之時	-11.7257
遂賜劒而自殺後越	-11.7257
道則曲木直而惡木好也以言人遵先聖	-11.7257
閻	-11.7257
陳人陳雲鳥之陳左傳有魚麗之陳行陳	-11.7257
雨之神一	-11.7257
音忤與迕	-11.7257
飛於大荒之野循於四極回旋而戲	-11.7257
飾轂以金錯衡英華照燿	-11.7257
魂乎歸徠鳯皇翔只	-11.7257
鳥明智之	-11.7257
麋鹿虎豹即	-11.7257
騎羅些	-11.7257
間靜	-11.7257
揚聲后何喜	-11.7257
軻	-11.7257
沸熱	-11.7257
遂去而	-11.7257
不得進也	-11.7257
滄	-11.7257
能極	-11.7257
詒遺也	-11.7257
兮逺濁世而自藏	-11.7258
琴名號	-11.7258
吕氏春秋云菜之美者	-11.7258
幽州人謂之	-11.7258
上下悠悠只	-11.7258
作蓴非是	-11.7258
曰吾聞	-11.7258
春招	-11.7258
也水經云武當	-11.7258
云清喻明時可以	-11.7258
孟軻云有孺子	-11.7258
有乃字	-11.7258
樂也君不肯還已則復遽	-11.7258
橫四海兮焉窮	-11.7258
歳忽忽	-11.7258
水出荆山東南	-11.7258
滄浪之水在荆州	-11.7258
濯我足清斯濯纓濁斯濯足矣自取之	-11.7258
狂猶遽也	-11.7258
疑惑也滯留也言	-11.7258
縣西北漢水中有洲名滄浪洲地	-11.7258
衆雖同	-11.7258
行幽藏山谷以	-11.7258
言巳想得	-11.7258
許叔重以	-11.7258
踊躍而欣喜也補曰踸勑錦切踔勑角切	-11.7258
飾冠纓	-11.7258
?4.	-11.7258
一作矯補曰恣千咨	-11.7258
一國之髙	-11.7258
上下並行遊戲	-11.7258
不容都無復	-11.7258
不純命兮	-11.7258
丕	-11.7258
之中復有螭龍神獸隨流	-11.7258
之乎補曰書云攸徂之民室家相慶	-11.7258
之士歛節而退也以一作	-11.7258
之本志也一	-11.7258
九屈有角觺觺主觸害	-11.7258
也言泠泠清潔	-11.7258
也陛階次也壓	-11.7258
亂也補曰挐女	-11.7258
二十仞大三十圍以琳琅	-11.7258
五臣云瘀病皆	-11.7258
五臣云觺觺銛	-11.7258
人並進成	-11.7258
人面芬香流	-11.7258
今易作蹇	-11.7258
以成羣兮	-11.7258
信直退而	-11.7258
六星如匡形故史遷天官書云斗魁戴匡	-11.7258
其狀悠悠可	-11.7258
唾	-11.7258
國名也言少康滅斟	-11.7258
土伯之狀廣肩厚	-11.7258
埳	-11.7258
子胥被害則變心從俗	-11.7258
實後漢注云	-11.7258
峕亦冉冉而	-11.7258
嶷也五臣云煩	-11.7258
怪駭	-11.7258
悉徴靈圉而選之	-11.7258
或白色隂氣也郭氏云雄曰虹謂明盛	-11.7258
掌行謂掌	-11.7258
故能氣往轢古辭來切今驚采絶燄難與	-11.7258
文霓屈虹青赤	-11.7258
方恐遭罪法以	-11.7258
明故羣下好蔽忠正之士而舉邪惡之人	-11.7258
易曰王臣謇謇匪躬之	-11.7258
曰文昌宫其中六星司録	-11.7258
曰貴相四曰司録五曰司命六曰司	-11.7258
有罥繳弋射之機下	-11.7258
枝柯長而殺者櫹音蕭槮音森櫹槮	-11.7258
櫞	-11.7258
欬	-11.7258
欲徙意改操隨俗佞	-11.7258
歲曶曶其若	-11.7258
氣不應曰	-11.7258
游奄然至於	-11.7258
湏㬰	-11.7258
溢積漸也罷	-11.7258
溷湛湛	-11.7258
溷湛湛喻貪濁	-11.7258
澤也五臣云顔	-11.7258
疾以手	-11.7258
瘦無潤	-11.7258
盡棄銷滅不見論用貪	-11.7258
稱舉也再言	-11.7258
窮也脩一作悠	-11.7258
縱心肆志所願	-11.7258
署衆神	-11.7258
罻羅捕鳥網也言上	-11.7258
翼曰應龍有角曰虬龍無角曰	-11.7258
而身敗	-11.7258
能矣自九	-11.7258
華葉巳	-11.7258
萷音梢萷蔘木枝竦也釋文文選	-11.7258
落莖獨	-11.7258
螭龍郭璞	-11.7258
補曰上文隻	-11.7258
補曰此章以東皇喻君言人臣陳	-11.7258
補曰觺音	-11.7258
襲得女歧頭以	-11.7258
觀萬物始生皆出於仁	-11.7258
言貪狼之	-11.7258
豐肉微骨體便娟只	-11.7258
足出南方鬿	-11.7258
路道也言衆人同	-11.7258
遂以危殆也五臣云君謂東皇也	-11.7258
雅曰有鱗曰蛟龍有	-11.7258
音朔萷櫂木無	-11.7258
顯職	-11.7258
駓	-11.7258
魂乎無西多害傷只	-11.7258
鷹然後設罻	-11.7258
𨽻	-11.7258
㦸身被犀鎧	-11.7258
並俱補曰此言聖賢有不	-11.7258
並時而	-11.7258
之清白彼之貪濁也愉	-11.7258
也史記越王句踐	-11.7258
也孔子曰詩可以怨孟	-11.7258
也補曰煬以	-11.7258
也言已動履大水宿	-11.7258
也言西方有	-11.7258
事之也史記云	-11.7258
云桂白華叢生山峯冬常青間	-11.7258
云蕙蘭椒桂皆取芬芳	-11.7258
五十四圖	-11.7258
人所銜勒補曰鞿居依切羈居	-11.7258
人重仁襲	-11.7258
今之世願依古之賢者彭咸餘法以自率	-11.7258
以慮難	-11.7258
伍子伍子	-11.7258
低佪留待於君求其善意恐終不用	-11.7258
作庬史記朴作樸	-11.7258
作糟丘酒池長夜之飲斷斮朝	-11.7258
促急危	-11.7258
儃佪猶低佪也	-11.7258
其意矣李善注仲宣賦引荀子	-11.7258
凌犯也躐踐也言敵家來侵凌我屯陣踐	-11.7258
切湍也	-11.7258
刓方以	-11.7258
刳	-11.7258
則曲木不治誰知其工巧者乎	-11.7258
則自歌自舞見則	-11.7258
則飾以翡翠羽	-11.7258
前人之大道而	-11.7258
剔	-11.7258
勞夏至應隂而鳴詩曰七月鳴鵙	-11.7258
受命而生遭	-11.7258
可俱並事君	-11.7258
吾徐廣曰	-11.7258
吾科吾科楯之名也補曰操持也	-11.7258
命先戒百	-11.7258
哀念萬民	-11.7258
囊中	-11.7258
士竟	-11.7258
多難以隕其身申生雉經子	-11.7258
大壑海水也言	-11.7258
大帝一星在紫	-11.7258
天下大康寧上言鸞皇鸞	-11.7258
天火下覩海	-11.7258
子不居爵位衆亦莫知其賢能也史記作	-11.7258
孕	-11.7258
屮	-11.7258
工糚飾	-11.7258
巳屯止歩騎士衆	-11.7258
彼聖人之神	-11.7258
往田獵於春囿之	-11.7258
後人誤書	-11.7258
必相剋害故	-11.7258
忠佞之臣不	-11.7258
念我長生而乆僊兮不如反余之故	-11.7258
悲夷猶而冀進兮	-11.7258
我行伍也躐一作	-11.7258
所以藉飯食也易曰藉	-11.7258
所畫念其	-11.7258
承塵	-11.7258
按屈原死於頃襄之世當	-11.7258
擿此四事異乎經典者也故論其典誥則	-11.7258
放出九年君不肯反我中心愁	-11.7258
文云戈平頭	-11.7258
於知人然去乆	-11.7258
曰豈知其何故一本此與	-11.7258
有光明也假一作嘏	-11.7258
有異藝之文采也史記余作	-11.7258
杳窕徒了切方言云美	-11.7258
條直爲材壯大爲朴壯一	-11.7258
欒	-11.7258
欲自沈於水與彭咸俱	-11.7258
死右騑	-11.7258
水心愁思	-11.7258
永宜厥身保壽命只	-11.7258
浩猶浩浩蕩猶	-11.7258
湯禹乆	-11.7258
無山字	-11.7258
無散東西南	-11.7258
熲	-11.7258
爭先在	-11.7258
物而不慴是也釋文遌五各切心不欲見	-11.7258
率其衆以朝	-11.7258
王時作離騷巳云	-11.7258
珎兮摭彭咸之所遺	-11.7258
生者故重華不可	-11.7258
相對心中澹然而自欣樂俱吸衆氣而遊	-11.7258
知忠言謇謇	-11.7258
祝融炎神	-11.7258
窈注云窈幽	-11.7258
筒巻	-11.7258
箋云伯勞鳴將寒	-11.7258
紛盛多	-11.7258
纕佩帶也補曰纕息	-11.7258
義取於陳列耳俗作阜傍車非也躐	-11.7258
而利耳	-11.7258
而無所歸	-11.7258
而行水波	-11.7258
而陳竢	-11.7258
自勉修善身雖遭	-11.7258
自投於水	-11.7258
艸亂也顇	-11.7258
芳香取美潔也	-11.7258
茅也蒸一作䒱一作烝	-11.7258
蕙肴以蕙草蒸肉也藉	-11.7258
薴	-11.7258
薴亂也顠	-11.7258
藻玊	-11.7258
補曰顔之推云六	-11.7258
見用誰	-11.7258
言彼神智之鳥乃與聖	-11.7258
言洪水淵泉極	-11.7258
諌其君	-11.7258
謂之俊百人	-11.7258
躐	-11.7258
身多病長窮	-11.7258
身患然中心不	-11.7258
輔舜禹以致太平奏九	-11.7258
迃	-11.7258
酒椒漿以備五味也五臣	-11.7258
重累也襲	-11.7258
靈巫也楚人名巫	-11.7258
音悴顦顇也顠疋	-11.7258
顔師古云彭咸殷之介士不得其志投江	-11.7258
顯聞與	-11.7258
魯班則不能别	-11.7258
左傳曰	-11.7258
嘕	-11.7258
登崑崙	-11.7258
木揺落	-11.7258
乗一作椉	-11.7259
何由并投	-11.7259
晟	-11.7259
颯	-11.7259
趾	-11.7259
申徒狄	-11.7259
額	-11.7259
圖吾君	-11.726
魂乎無西	-11.726
注云國名	-11.726
不言過而言	-11.726
受罰則欲	-11.726
夷即馮夷也淮南又作馮	-11.726
夷革浮之江	-11.726
子西征至	-11.726
子釋鬼篇曰馮夷以八月上	-11.726
有文章也	-11.726
横奔兮	-11.726
溺死天帝署	-11.726
滄浪之水是近楚都故漁父歌云	-11.726
漢沔水自下有滄浪	-11.726
者明非它水	-11.726
而蒙世俗之塵埃乎	-11.726
貢言導漾水東流	-11.726
身體燋枯	-11.726
通稱耳漁父歌	-11.726
音藏瘞也顔師古	-11.726
龍蛇而	-11.726
一本余下有今字一云余奈	-11.726
下但見	-11.726
不可得心	-11.726
並讀作側聲司馬温公云約賦但	-11.726
之衆屯其相離言不與	-11.726
也一無衆字補曰言衆人見	-11.726
也觺觺猶狺狺角利	-11.726
亂結未能離於忠信也其一	-11.726
以承上	-11.726
何曾華之無實兮	-11.726
何聽焉	-11.726
何葯一作蘭衡一作蘅	-11.726
俗人競	-11.726
八舞于廊門山海	-11.726
其君去又急疾而	-11.726
冇	-11.726
取聲律便美非霓	-11.726
士當奈世人不知賢	-11.726
大或作骨補曰山海	-11.726
天之六府計集所㑹	-11.726
夫世不知芳何一云余奈	-11.726
如牛也參	-11.726
如虎而有三目身又肥大狀	-11.726
嫂也館	-11.726
容也徐一作	-11.726
容也淫	-11.726
平聲也爾雅蜺	-11.726
得注云矰弋射	-11.726
心怊悵以永思兮	-11.726
恣一音	-11.726
意若風靡草	-11.726
戾乃知逸	-11.726
按心抑意徐從	-11.726
敶鍾按	-11.726
文云踸踔行無常	-11.726
文何苗切史記師曠鼓琴有	-11.726
文昌六星在北斗魁前一曰上將二曰次	-11.726
曰彿音費	-11.726
曰於鮌哉帝曰吁咈哉方命圯	-11.726
書不親見山海經也	-11.726
曽頰倚耳	-11.726
曾頰倚耳	-11.726
本草云馬蘭	-11.726
枝煩挐而交横	-11.726
柯彷彿而萎黄	-11.726
比徳好	-11.726
比德好	-11.726
漢至江	-11.726
漫汚人也補	-11.726
澆因斷	-11.726
無常之風以興邪惡	-11.726
甘美也災害也言此物	-11.726
生澤旁	-11.726
盛廣大	-11.726
睢許鼻切恣睢自得	-11.726
美要眇兮宜脩	-11.726
美詩云舊客舟	-11.726
者戀楚國也補曰江淹賦云舟凝滯於水	-11.726
者曰太一天	-11.726
而逾邁	-11.726
聽歌譔只	-11.726
葉凋補	-11.726
蕩長無	-11.726
蕪穢而	-11.726
蛟似蛇四	-11.726
補曰便平聲	-11.726
覆舟獨以何道取之乎補曰斟	-11.726
足小頭細頸卵生子如三斛	-11.726
趾三危皆安在也書曰道黒水至	-11.726
逢遇也殆危也言少康夜	-11.726
過失上以承	-11.726
選云橚	-11.726
都賦云屠巴蛇	-11.726
開析	-11.726
陸離分散也言巳游觀天	-11.726
隨流而行水	-11.726
霆	-11.726
首遇危殆也一本	-11.726
鶴粹黒如漆其	-11.726
􁘶	-11.726
䩉	-11.726
䩉頰邊文婦人之媚也又云	-11.726
一云又申之㩜	-11.726
一生未	-11.726
不即進	-11.726
不易其	-11.726
不聽自投水	-11.726
中其神曰	-11.726
中多蜮鬼必傷害於爾躬也乎一作兮補	-11.726
乃得大雨	-11.726
之候也五月則鳴豳地晚寒左傳伯	-11.726
之態也言	-11.726
之數道之綱紀也五臣	-11.726
之精明欲以	-11.726
之蕩兮補曰今詩作湯湯蕩	-11.726
乎無敢南	-11.726
也一無謂字	-11.726
也字五臣云恐君之敗	-11.726
也愮憂也無喜	-11.726
也溘一作壒	-11.726
也留止也一本靈下有子字	-11.726
也紂惑妲	-11.726
也補曰覬音	-11.726
也言從曲閣之路可	-11.726
云九者陽數之極自謂否極取	-11.726
五臣云九數之極也以此遇害雖九死無	-11.726
五臣云靈巫何不持	-11.726
五采華衣飾以	-11.726
人欲上天而釋其階知其無	-11.726
代更也序次也言日月晝夜常行忽然不	-11.726
以事雲神乃使靈巫先浴蘭湯沐	-11.726
以馬自喻韁在口曰鞿革絡頭曰	-11.726
余帶佩衆香行以忠正之故也	-11.726
作儃補曰低佪疑	-11.726
作踈補曰内舊音訥	-11.726
使靈巫緩節而舞	-11.726
使麒麟可	-11.726
俗而多屯難補曰掩涕猶抆	-11.726
先定非一	-11.726
兩頭當中名	-11.726
公之心也然則盍行乎曰不可君謂我欲	-11.726
兮亦作閭娵	-11.726
兮孰知	-11.726
其衆以	-11.726
内勾陳口	-11.726
冤屈而自抑	-11.726
切下云解佩纕以	-11.726
南有虫名短狐谿毒亦名射工其虫無目	-11.726
又復也言君所	-11.726
同淮南曰凡鴻水淵藪自三	-11.726
吾君伯氏	-11.726
吾眼置	-11.726
咸之遺則又曰吾將從彭咸之所居	-11.726
哀民生之	-11.726
塞而平之乎補曰	-11.726
壒	-11.726
多難也五臣云太息掩涕哀此萬姓遭輕	-11.726
天乗雲伇使百神似若仙者雖身沈沒名	-11.726
太子因誤申生	-11.726
奚齊立	-11.726
奠置祭也漢	-11.726
娵一作娶補曰荀子曰閭姝子奢莫知媒	-11.726
娶後妻孋姬生子	-11.726
子也體性慈孝獻公	-11.726
子曰小弁之怨親親也親之過	-11.726
字大一作太壄一	-11.726
宗殺孝巳是也何况不智之君	-11.726
害常藏	-11.726
已欲求君	-11.726
帝謂帝履癸即桀也挑	-11.726
師共其	-11.726
平也文	-11.726
庶兄	-11.726
弑君也天	-11.726
強史記作彊	-11.726
彭咸沈身於淵乃太息長悲	-11.726
心終不徙願志行流於後	-11.726
忠良害仁賢也夫浮雲行則蔽月之光	-11.726
念其居也低一作俳一	-11.726
思慕而得	-11.726
情竭盡耳目	-11.726
慜病也遷	-11.726
應龍之狀	-11.726
我中心之所美善也雖以見過支解九死	-11.726
所係累也五臣云言我雖習	-11.726
扶桑上而升天則俳佪太息顧	-11.726
拊	-11.726
揺注云將笑故好齒	-11.726
故忍此禍患而不能止	-11.726
文寐覺而有信曰寤	-11.726
斯庸夫惡態之人也何者	-11.726
於是申生遂自殺故曰父信讒	-11.726
旌旗委蛇而	-11.726
昔夜也	-11.726
昔蚩尤	-11.726
春草始生囿中平易	-11.726
曩曏也言欲使已變節而	-11.726
曰枹房尤切擊	-11.726
槌	-11.726
樂歌曰奠桂	-11.726
歌名矣按九	-11.726
正補曰說文曰撥治	-11.726
死申生不	-11.726
殪壹計切驂見	-11.726
殺蚩尤與夸	-11.726
水用碁十二枚六	-11.726
水與天合物漂流	-11.726
注簫一作蕭補曰儀禮有笙磬笙鍾周禮	-11.726
海經圖云犂丘山有應龍者龍之有翼也	-11.726
涙沛	-11.726
深大禹何用窴	-11.726
漢以來靡麗之賦勸百而	-11.726
然吾君老矣子少國家多難伯氏不出而	-11.726
然猶復重引芳	-11.726
爲車蓋	-11.726
父不得復上故下數旱旱而	-11.726
狐突曰	-11.726
狸一作貍五臣云赤豹文貍皆	-11.726
猶曏者欲釋階登天	-11.726
獸也將以	-11.726
用施也揺一	-11.726
由登也以言我欲事君	-11.726
申生有罪不念伯氏之言也以至	-11.726
白如玉黛畫眉鬢黒而	-11.726
皇皇天也赫戲光明	-11.726
盍言子之志於公乎世子曰不可君安	-11.726
盛時顔貌未	-11.726
神高馳之邈邈	-11.726
種樹蘭蕙附於門	-11.726
立住補曰儃知然切儃佪	-11.726
笙之樂注云鍾笙與鍾聲相應之笙	-11.726
簫鍾與簫聲相應之鍾歟簴其吕切爾雅	-11.726
結束執志彌篤也	-11.726
羈而係	-11.726
習而信之蔽逺賢者言不	-11.726
老視天下賢人將持玉帛而聘遺之與俱	-11.726
者淮南小山之所作也昔淮南王安	-11.726
而不愛也補曰禮	-11.726
而多闇蔽固其	-11.726
而死遺餘也則法也言	-11.726
聴類神只	-11.726
聽賜子胥屬鏤之劒以死將死曰抉	-11.726
胡何也雒嬪水神謂宓妃也傳曰河伯化	-11.726
能文能質内以	-11.726
能覺悟善惡之情	-11.726
自傷所行不合於世	-11.726
自明智之王尚	-11.726
若之英以自潔	-11.726
若也言巳將	-11.726
荊	-11.726
萬三千五百五十里有九淵禹乃以	-11.726
著脂粉面	-11.726
處山澤無異故作招	-11.726
衆樂並㑹	-11.726
行仁義兾得同志願及年	-11.726
衣襟也言舞人廻轉衣襟相交如竿也以	-11.726
補曰山海經云應龍處南極	-11.726
見信用而身放	-11.726
言材木委積非	-11.726
言麒麟仁智之獸逺見避	-11.726
記曰晉獻公將殺其世子申生公子	-11.726
謂朝霞正陽淪隂沆瀣之氣也言	-11.726
豈有無父之國哉吾何行如之使人辭於	-11.726
賢人之全	-11.726
質補曰說文云朴	-11.726
趙氏司至也注	-11.726
踆	-11.726
連蜷巫迎神導	-11.726
遂往而不還也補曰	-11.726
遥一作愮	-11.726
重耳謂之曰子	-11.726
雅好古招	-11.726
靨輔在頰前則	-11.726
韋昭云梁王魏瞿之美女娵音鄒集	-11.726
音須人名引荀	-11.726
韻娶	-11.726
願依彭	-11.726
首九章九首皆以九	-11.726
香芷衣	-11.726
馬被刃創也補曰	-11.726
騰馳而臨平易又可歩行遂	-11.726
驪姬是我傷	-11.726
鯪魚鯉也一云鯪魚	-11.726
齊玉軑而並馳	-11.726
􁑇	-11.726
嘘吸	-11.726
沛普	-11.726
霍	-11.726
閽	-11.7261
補曰強巨	-11.7261
黄魯直	-11.7261
上林賦雜以留夷張楫曰留夷	-11.7261
登山臨水兮	-11.7261
送將歸	-11.7261
从	-11.7261
顧野王	-11.7261
東去繫六龍於扶桑	-11.7261
言遂貫出澒濛之氣而	-11.7261
何號于市	-11.7261
芰荷	-11.7261
苦薏	-11.7261
作伏補曰書云伊尹相湯	-11.7261
喜也言湯行天之罰以誅	-11.7261
橘皮味	-11.7261
歸來徃恐危身些	-11.7261
上以朱	-11.7261
中故曰死而不	-11.7261
之山河伯無夷之所都	-11.7261
云余案尚書禹	-11.7261
劒棄死故言	-11.7261
大鳥何鳴夫焉喪厥體	-11.7261
天之罰也黎謂羣	-11.7261
嫮目宜笑	-11.7261
愁歎苦神靈遥思兮	-11.7261
曰馮夷華隂	-11.7261
楚破郢	-11.7261
橘生江	-11.7261
止而慰已也補曰	-11.7261
死而不葬也補曰吳王取子胥尸盛以鴟	-11.7261
沐浴升朝廷也	-11.7261
被刑罰非獨巳身自	-11.7261
覬遇如	-11.7261
覽觀衆民多無過惡	-11.7261
言仰觀視屋之	-11.7261
訓詁	-11.7261
謀行功成後用讒言賜	-11.7261
釋文第三	-11.7261
靜以安只	-11.7261
願因三鳥寄善言	-11.7261
鳴條放之也致罰者湯誥所謂致	-11.7261
鳴條此言條放者自	-11.7261
黎百姓也湯以臣放君而黎民	-11.7261
一作三補曰參蘇甘切	-11.7261
下有隕字殆上有天	-11.7261
不先試之也曰一作	-11.7261
不可信用還詐告我言不好也五臣	-11.7261
之縫裳於是共	-11.7261
之頭其	-11.7261
也天對云條伐巢放	-11.7261
也此云路不周以左轉不周在	-11.7261
也爰於也言女歧與	-11.7261
云指居桀切橋音矯	-11.7261
五結三	-11.7261
人御迎也言巳	-11.7261
人舉鮌治水堯知其	-11.7261
人賦云掉指	-11.7261
伐有施有施人以	-11.7261
伴侣	-11.7261
使之乎淮南言	-11.7261
依保也一	-11.7261
侯相失國依於二斟	-11.7261
傾危則以忠正	-11.7261
僉衆也課試也言衆	-11.7261
億不信待其不可用然後弃之	-11.7261
其長袖周	-11.7261
冀壹反之何時	-11.7261
出亦此類也楊大年云	-11.7261
出其骨一或作靈	-11.7261
切通作蜺文選云雲旗	-11.7261
化其道平直	-11.7261
南子而劉安所引亦	-11.7261
厥疣以夷	-11.7261
又遇佞人	-11.7261
同極而異路兮又何以為此援也	-11.7261
天道蕩	-11.7261
女蘿菟絲	-11.7261
好夫鴆之不可	-11.7261
好讀如好人提提之	-11.7261
媒審矣屈原何	-11.7261
嬉女焉注	-11.7261
家建立	-11.7261
寧逝死而流亡兮	-11.7261
屯余車其千乗兮	-11.7261
山之國而得	-11.7261
山國名也言夏	-11.7261
帝曰往	-11.7261
張揖云指橋	-11.7261
往求同志之士欲與俱共	-11.7261
忠賢讒佞所疾故云不好	-11.7261
慍	-11.7261
拂霓又云俯而觀乎雲霓沈約	-11.7261
整	-11.7261
方蚺蛇亦吞鹿消盡乃自	-11.7261
族岳曰异哉試	-11.7261
日知晏隂諧知雨	-11.7261
易夏衆使之從	-11.7261
曰鴟處脂切一名鳶	-11.7261
本山海經其注巴蛇事文句頗謬	-11.7261
柯條	-11.7261
桀征伐	-11.7261
求簡狄其性讒賊	-11.7261
深切左	-11.7261
湯殷王也旅衆也言殷湯欲變	-11.7261
澆所滅然則取斟	-11.7261
澆淫佚	-11.7261
無失而言蕪穢傾危者心惑意異也以平	-11.7261
爾雅注云飄風旋	-11.7261
獨何以厚待	-11.7261
獨永歎乎增傷	-11.7261
疾在犀牛西也注云今南	-11.7261
相帥來迎欲使我變節以	-11.7261
絞於樹腹中骨皆穿鱗甲間	-11.7261
經云南方有靈蛇吞象三年然後	-11.7261
經南海内有巴蛇身長百	-11.7261
績用弗成	-11.7261
罔以喻法言	-11.7261
者代虐以寛故	-11.7261
而流没也	-11.7261
耳堯之用鯀是	-11.7261
能衆人曰何憂哉何	-11.7261
膚夫曷不	-11.7261
與屯聚謀欲離	-11.7261
蓮華天問云羲	-11.7261
補曰國語云昔夏桀	-11.7261
言美女工舞	-11.7261
訂	-11.7261
讀若迓霓五稽五	-11.7261
讒佞僔僔相聚	-11.7261
逸注楚詞多不原所出或引淮	-11.7261
過澆非少康也天對云康復舊物尋焉保	-11.7261
邪枉也詩曰周道	-11.7261
郊居賦云雌霓連蜷	-11.7261
銜而食之鮌何能復不	-11.7261
隨之也帥一作率	-11.7261
隨風指靡也担釋文云音丘列切舉	-11.7261
險戲猶言傾危也言周	-11.7261
離已心獨行忠直身無	-11.7261
雲霓惡氣以喻佞	-11.7261
靨輔竒牙宜笑嘕只	-11.7261
類小人之有智者君子不逆	-11.7261
風屯	-11.7261
馬蘭之草踸踔暴長而茂盛也以言佞	-11.7261
馮一作慿其一作之何	-11.7261
骼	-11.7261
魂乎歸徠聴歌譔只	-11.7261
鶱	-11.7261
䀜	-11.7261
䟆禦補曰山海經南	-11.7261
䶵竽列備衆樂以樂大神䶵一作	-11.7261
䶵竽樂	-11.7261
一其流至於齊梁而	-11.7261
一曰美玉也瑱壓也音鎭下文云白玉兮	-11.7261
一無陟字陞一作	-11.7261
上政迷亂則下怨父	-11.7261
下以養切補曰沛流	-11.7261
不見有聖	-11.7261
不遇明時而當暗	-11.7261
且戲觀望以	-11.7261
乃卒是以	-11.7261
乆處無成卒	-11.7261
之上以觀越之滅	-11.7261
之人無知我賢也	-11.7261
之使死於林薄之中猶言取賢	-11.7261
之善意恐重得患禍逢罪	-11.7261
之焉薄瞭杳杳而薄天並	-11.7261
之義騷經曰奏九歌而舞韶兮聊假日以	-11.7261
之行異道而殊趨也援引也言忠佞之	-11.7261
之西黒水出	-11.7261
之詞非屈原意自	-11.7261
乎歸徠以娛昔只	-11.7261
也一云撫抵也以手抵案而徐下行也	-11.7261
也五臣云憭慄	-11.7261
也反離騷	-11.7261
也方林地名言我馬	-11.7261
也補曰眐音征从目	-11.7261
也言君處宫	-11.7261
也言美女頰有靨輔口有竒牙嘕然而	-11.7261
也豫猶豫也言已雖見	-11.7261
事君也詒	-11.7261
云伯勞以夏至鳴冬至止陸佃埤雅云	-11.7261
五臣云申重也攬	-11.7261
交錯曰薄言重	-11.7261
亦有此作其詞曰沐芳莫	-11.7261
代君與之易位自傷	-11.7261
以喻堅貞下文云	-11.7261
以廢弃	-11.7261
以手循其珥也博雅曰劒珥謂之鐔鐔	-11.7261
以玉木	-11.7261
以終夜	-11.7261
以罔象兮	-11.7261
以飾劒故取以名焉	-11.7261
何故得見䠶河伯曰	-11.7261
佞權臣將	-11.7261
佞進則忠良壅也補曰猋卑遥切犬走	-11.7261
使祭其	-11.7261
信乃以酒賜小臣以肉食犬皆	-11.7261
傷人君	-11.7261
先賢執忠被	-11.7261
兩龍火神也	-11.7261
其字從手	-11.7261
其次有聖人者形	-11.7261
其罪也	-11.7261
具不敢寧處親舉枹擊	-11.7261
冐	-11.7261
冬北風愁而	-11.7261
出不忘本行則思歸物之	-11.7261
切舊本自霜	-11.7261
則屈志自抑	-11.7261
前漢志左馮翊有重泉史記曰夏桀不務	-11.7261
助君而	-11.7261
南海張揖云三危山在鳥	-11.7261
南神止我令北征也還	-11.7261
又猶補曰謂懲	-11.7261
又用魚二枚置於水中其擲采以瓊	-11.7261
古今本	-11.7261
同扶羽切頰車也左	-11.7261
名山注云息土不耗滅掘之益多故	-11.7261
名者取簫韶九成啓	-11.7261
君若紂夫差不	-11.7261
君迴翔兮以下	-11.7261
周禮玉鎭大寶器故書作瑱鄭司農云瑱	-11.7261
命而強者	-11.7261
四庫全書館進呈	-11.7261
因言曰胙從外來不可	-11.7261
國語曰夏之興也祝	-11.7261
在岸上	-11.7261
多口妄鳴以喻讒佞言楚	-11.7261
多雜引用爾雅	-11.7261
大皇之壄	-11.7261
大皇之壄大荒之藪一	-11.7261
大而不怨	-11.7261
天對云光徴夢祖憾	-11.7261
天有八維以	-11.7261
好嘕	-11.7261
如是也補曰莊子曰吾	-11.7261
妺音末嬉音喜	-11.7261
姓弗堪乃召湯而囚	-11.7261
威不軌	-11.7261
媔黠也言復	-11.7261
媮樂即其義也宋玉	-11.7261
害忠貞乃曰哀哉	-11.7261
害猶正身直行	-11.7261
察知也	-11.7261
將與雞鶩爭食乎	-11.7261
將重亂以	-11.7261
尚復論國之禍	-11.7261
尸夜切訓	-11.7261
居廟切史記作	-11.7261
屈原怨毒楚俗嫉	-11.7261
屈原放逐竄伏其域懐憂苦毒愁思	-11.7261
崑崙上有九府是	-11.7261
已所不能履行也猶有	-11.7261
巳見縣圃下緤音薛	-11.7261
帝令應龍攻	-11.7261
府有沐浴子劉次	-11.7261
度隱行	-11.7261
延長也佇立	-11.7261
得則止已留	-11.7261
御一云戒其	-11.7261
復渡丹水而馳騁顧見大	-11.7261
循四極而回周兮見盛	-11.7261
心以自強勉	-11.7261
心志無有過失	-11.7261
必彈冠新浴者必振衣又曰與	-11.7261
必死也霾一作	-11.7261
忠直而遇患害	-11.7261
忠臣之分	-11.7261
忽反顧以流涕兮哀髙丘之無女	-11.7261
忿恨按慰	-11.7261
思其麀牡	-11.7261
思子椒不能用	-11.7261
思念暴戾心自傷	-11.7261
恨靈脩	-11.7261
悽愴也補曰憭	-11.7261
情意而考	-11.7261
意中私喜想	-11.7261
意如字一音博下文忽	-11.7261
我殺羿天帝曰	-11.7261
拂拭	-11.7261
按杜蘅爾雅所謂杜土鹵者也	-11.7261
斃姬乃泣曰	-11.7261
方祝融獸身人面	-11.7261
於水旁羿見䠶之眇其左目河伯上	-11.7261
施芳澤其芳	-11.7261
旁能射人甚者至死陸機云一名射影人	-11.7261
旋屈折拂拭	-11.7261
日謂甲乙辰謂寅卯補曰沈括存	-11.7261
明君子弃之山	-11.7261
明君思慮	-11.7261
易位言君	-11.7261
曜魄寳主御羣靈秉萬	-11.7261
曰瑶音遥	-11.7261
曰鱞言舜	-11.7261
曲沃歸胙於	-11.7261
有璆琳琅玕	-11.7261
李公麟九歌圖	-11.7261
極矣皆自宋	-11.7261
欲極志事君顧忠	-11.7261
此章言已佩服殊異抗志髙逺	-11.7261
死日將至	-11.7261
殿之中其閨深	-11.7261
汝沐兮咸池晞汝髪兮	-11.7261
沛撫	-11.7261
洪範九疇彛倫攸	-11.7261
漻	-11.7261
瀁上摩朗	-11.7261
為露才揚巳	-11.7261
焉鏘佩聲也詩	-11.7261
猶思楚國念故舊欲竭忠信以	-11.7261
獸忘其國恤而	-11.7261
獻公孋姬於酒肉置鴆其中	-11.7261
王不明而曰哲王者以明望之也	-11.7261
王逸注九辯云九者陽	-11.7261
珠璣	-11.7261
珥	-11.7261
珥謂劒鐔也劒者所以	-11.7261
珥音餌鐔	-11.7261
瑱靈巫何持乎乃	-11.7261
璆琳琅皆美玉名也爾雅曰	-11.7261
瓊一作瑶	-11.7261
瓊枝玉樹	-11.7261
瓟瓠也瓥瓢也方	-11.7261
甘谷水	-11.7261
用忠信滅國亡	-11.7261
登鄂渚髙岸還望楚國嚮秋	-11.7261
白六黒	-11.7261
相援引而同也補曰	-11.7261
眐獨行寄居而	-11.7261
睨玉石	-11.7261
睫腥犬赤股而躁臊左傳曰薄而觀之薄	-11.7261
矇盲者也詩云矇瞍	-11.7261
知禹湯不可	-11.7261
禁而制之不得止也言	-11.7261
禄獨行忠直	-11.7261
禍凶	-11.7261
積辛夷露而暴	-11.7261
章句第十二楚	-11.7261
竽瑟狂會	-11.7261
笑尤媚好也	-11.7261
縣地是也隋以鄂渚	-11.7261
縣鍾磬之木也瑶簴以美玉	-11.7261
縶之維之言	-11.7261
罔薜荔兮為帷	-11.7261
羅其憂愁	-11.7261
羅田縣縣學	-11.7261
者紀時明	-11.7261
者言不通羣下之情哲王又不寤者言	-11.7261
而姱美	-11.7261
而字一本忍上有余字一無	-11.7261
而釋忠信亦知終無	-11.7261
聊逍遙以自恃	-11.7261
胥沈江	-11.7261
能自止而不言也文苑無	-11.7261
興賢臣難進	-11.7261
舜帝舜也閔憂也無妻	-11.7261
若一名杜蘅葉似薑而有文理味辛香今	-11.7261
若廣雅所謂楚蘅者也其類自别古人	-11.7261
莊云楚詞曰新沐者	-11.7261
莊子曰山有	-11.7261
菊花酒	-11.7261
華采五色	-11.7261
萬方升天	-11.7261
蒲席	-11.7261
蒻蒻	-11.7261
蓀一作荃	-11.7261
蕋	-11.7261
薄四表而	-11.7261
蘭香草也補曰	-11.7261
蘺爾雅莞	-11.7261
蜜覃	-11.7261
蜮射人者也前漢五行志云蜮生南越亂	-11.7261
行悖惑則子	-11.7261
衡一作蹕	-11.7261
補曰厲渡也大人	-11.7261
補曰國語云楚	-11.7261
補繪蕭雲從離騷全	-11.7261
西京賦云叛赫戲以	-11.7261
西海中近列姑射山有陵魚人面人手魚	-11.7261
見水中投人影則射之或謂含沙射人孫	-11.7261
觀天火之炎煬兮	-11.7261
言君施行業以失道身	-11.7261
言皇天不純一其施則萬物	-11.7261
託與俱遊周	-11.7261
設菰粱只	-11.7261
謹善	-11.7261
讒佞是以歎焉補曰欸音	-11.7261
讙譁	-11.7261
豕猪	-11.7261
貪慕	-11.7261
貴也言賢者亦以不可枉屈	-11.7261
賢使國若此但使我	-11.7261
趨走亦不足	-11.7261
蹇先儒引經多如此	-11.7261
躇丈吕	-11.7261
身念道得遇仙	-11.7261
輔一作䩉補曰靨於牒切䩉與輔	-11.7261
辯綺靡以傷情逺遊天問瓌詭而惠巧招	-11.7261
近而放逐也補曰臊音騷周禮曰豕盲視	-11.7261
連之心改其	-11.7261
逺忠言難通指語不	-11.7261
逼近之	-11.7261
道卓遠而日忘兮	-11.7261
遜之之說	-11.7261
酒今昔言可	-11.7261
采也若杜	-11.7261
釣餌於谿谷上則要	-11.7261
長歎心中憂思也五臣云秋冬之風	-11.7261
閬野者閬風之府是也	-11.7261
閬音郎又音浪道書云	-11.7261
阿曲隅也拂薄也五臣云以蒻	-11.7261
陽之阿皆潔濯之謂也李白	-11.7261
隂氣至而鵙	-11.7261
隂臣也陽君也言楚王惑蔽羣	-11.7261
雲賦云五采備而成文衣華采之衣以其	-11.7261
露慘悽而交下兮至此	-11.7261
露暴也申重也叢木曰林草木	-11.7261
青色直眉美目媔只	-11.7261
非俊疑傑兮	-11.7261
音拳南都賦云	-11.7261
順人意可以自侍	-11.7261
頭也鬤亂	-11.7261
顔色落	-11.7261
馬終不反顧示	-11.7261
騎侍從者明異於衆也	-11.7261
􁠡	-11.7261
縆	-11.7261
瞳	-11.7262
芥	-11.7262
菹一作葅	-11.7262
聊逍遥以相	-11.7262
悟	-11.7262
訣	-11.7262
邠國	-11.7262
依彭咸之遺則	-11.7262
哀故都之日遠	-11.7263
喜樂而逸豫言	-11.7263
憂懼候	-11.7263
有蟬燕之	-11.7263
澤之中思慮憤積一哀一樂故	-11.7263
無有候鴈鵾鷄之喜樂而	-11.7263
瑕	-11.7263
蟬遇秋寒將入水穴處而	-11.7263
來觀察其志欲北渡江縱恣自在也	-11.7263
大夾王母三鳥王母使也出山海	-11.7263
曽不若飛鳥也補曰	-11.7263
睢	-11.7263
經韓愈詩云浪	-11.7263
自傷不得北歸	-11.7263
也言已憂愁不能	-11.7263
亳注云鳴條在安邑之	-11.7263
於桀放之鳴條之	-11.7263
桀遂與桀戰	-11.7263
流氷也	-11.7263
爰止其女爰息其馬是謂懸車	-11.7263
秋菊之落英輔體延年莫斯之	-11.7263
西史記桀敗於有娀之	-11.7263
釋文第五	-11.7263
野又曰造攻自鳴條朕	-11.7263
野天下衆民大喜	-11.7263
黎衆也	-11.7263
䂓	-11.7263
一作幸尚	-11.7263
一作譱五臣云喻君	-11.7263
下九則劉德	-11.7263
不旋踵也歸來一云歸來歸來一作歸來	-11.7263
且欲須臾以忘憂思中心漸漸錯	-11.7263
之上也過不周者言道不合於	-11.7263
之未揚若華何光	-11.7263
九州土田上中下九等也天對云從	-11.7263
也左轉者言君行左	-11.7263
也暉與	-11.7263
事君反見邪惡之人相	-11.7263
云有施嬉姓之國	-11.7263
代秦鄭衛鳴竽張只	-11.7263
以姱麗亦復慕我有善行	-11.7263
任也以一作之五臣云讒邪之人謂我善	-11.7263
伴侣也言已見衆人易移意中	-11.7263
似鼉而短小又似鯉魚有四足吳都	-11.7263
何回極之浮浮	-11.7263
作憤補曰班孟堅云坤作地勢	-11.7263
使語衆車我所行之道當過不周山	-11.7263
傷余心之懮懮	-11.7263
兩藩正南開如門象者名閶闔門淮南	-11.7263
其卵喜而吞之因生契也一云	-11.7263
冀過不成得免	-11.7263
則鬿堆	-11.7263
化可興復也	-11.7263
厭陛一作階	-11.7263
又倚天門望而距	-11.7263
反信讒人與	-11.7263
同鬿音祈堆	-11.7263
名曰鬿雀食人天對云	-11.7263
品禹何以能分别之乎	-11.7263
墳分也謂九州之地凡有九	-11.7263
多回切山海經云北	-11.7263
天對云行鴻下隤厥丘乃	-11.7263
天式從横陽離爰死	-11.7263
太皓以右轉太皓在東方自左而之右故	-11.7263
夫冶容誨淫目	-11.7263
女歧澆	-11.7263
好姿故來見其容也善	-11.7263
如砥其直如矢	-11.7263
山之根無所連箸帝命禺強使巨	-11.7263
峻也慘一作	-11.7263
州之野女媧之時乗雷	-11.7263
巳也齌一作齊	-11.7263
巵	-11.7263
帝命而不	-11.7263
廣志云其鳥大如鴞紫	-11.7263
引陵魚曷止與逸	-11.7263
從也此言鮌違	-11.7263
心與孟子	-11.7263
懐王之世	-11.7263
我忠信之情反信	-11.7263
所謂不由其道者而以	-11.7263
敖抃音卞列子云五	-11.7263
斑亂	-11.7263
於臺上有飛燕墮遺	-11.7263
桀夏亡王也	-11.7263
毒食蛇蝮雄	-11.7263
海之外自右而之左故曰	-11.7263
溘奄也	-11.7263
潼	-11.7263
炊餔疾也釋文齊或作齎並柤	-11.7263
王不徐徐察	-11.7263
畫地導水所注當決者因而治之也	-11.7263
盛也言蓬蒿蕭艾入御房	-11.7263
石得水仙是	-11.7263
純粹而	-11.7263
絶淵然	-11.7263
纍之蛾眉此亦班孟堅顔	-11.7263
罷一作疲	-11.7263
羊皆遊也	-11.7263
義云七全切崔音孫香草可以餌魚	-11.7263
而出其骨君子服之無心腹	-11.7263
而左行俱㑹西海	-11.7263
而用之矣補曰窈音	-11.7263
耳惡去聲言可	-11.7263
聊且也逍遥	-11.7263
號山有鳥狀如雞而白首	-11.7263
衆女謂衆臣女隂也	-11.7263
衆駭遽以離心兮又何以為此伴也	-11.7263
西切五臣云齊同也	-11.7263
覆舟喻易尚或艱之承逸之誤也取此	-11.7263
見親近	-11.7263
覽民徳焉錯輔	-11.7263
言我使鴆	-11.7263
言簡狄侍帝嚳	-11.7263
言鮌治水績用不成堯乃放殺之羽山飛	-11.7263
語其作凝者傳	-11.7263
諧以其毛	-11.7263
讒佞賊害人也	-11.7263
賦云陵鯉若獸注	-11.7263
赤黒食象三	-11.7263
起天對云鯪魚人貌邇列姑射是也陶	-11.7263
蹇侘傺而含慼	-11.7263
身見則風濤	-11.7263
閶闔天門也言	-11.7263
隄首人也服八	-11.7263
險戲	-11.7263
隱居云鯪鯉形	-11.7263
雌名隂	-11.7263
音姊牀	-11.7263
魂乎歸徠静以安只	-11.7263
鳥燕也貽遺也	-11.7263
鴆直禁切	-11.7263
鼇十五舉首而戴	-11.7263
齌疾也言	-11.7263
齌音賷又	-11.7263
㸃炙	-11.7263
一作崐崘食一作飡五臣云	-11.7263
一作蔽露一作	-11.7263
一南天帝之臣也主使十六龍知	-11.7263
一飛千	-11.7263
上髙巖之峭岸兮	-11.7263
不合於俗	-11.7263
不識味者	-11.7263
不足西北故西北方	-11.7263
並甘臭惡不知人者信任讒佞故忠信之	-11.7263
中之門謂之闈	-11.7263
之士當復何望	-11.7263
之外自事之先朕所不知	-11.7263
之浩樂結激楚之遺風注云結激	-11.7263
之芳歇廣韻曰鶗鴂	-11.7263
之行不懈怠也緤一作絏	-11.7263
乗以喻賢人	-11.7263
乗登也鄂渚地	-11.7263
九宫餘	-11.7263
也一云比干紂之	-11.7263
也上上聲	-11.7263
也亦歸於	-11.7263
也以諷其君迷不	-11.7263
也周禮訓方氏誦四方	-11.7263
也圃園也言已	-11.7263
也幼少也艾長也言司命	-11.7263
也易曰天險不可升語曰猶	-11.7263
也書曰造攻自鳴條朕載	-11.7263
也竟地猶言竟天也唐	-11.7263
也虧一作虧補曰河圖言崑	-11.7263
也言川水夏濁而秋	-11.7263
也詩曰誶予不顧替廢	-11.7263
也革更也孽	-11.7263
事出帝王	-11.7263
事遭值懷王闇不	-11.7263
二宋洪興祖撰	-11.7263
云卉百草	-11.7263
云在帝夷羿	-11.7263
人之心而以伐桀誰使	-11.7263
人君無有清明之時也五臣云潦	-11.7263
仁義交錯條理成也以言才	-11.7263
仙所居而	-11.7263
令不能拘也旋一作深罔一作網補	-11.7263
以交集則豐隆雷也雲	-11.7263
以樂神也五臣云使曲節希緩而安音清	-11.7263
以泣言	-11.7263
以禹故得享備樂何以修	-11.7263
以自通也補曰釋名云階梯也	-11.7263
任也五臣云虬螭皆龍	-11.7263
何晦明之若歲	-11.7263
何氾濫之浮雲兮	-11.7263
作厥孽而誣帝以降補曰左氏	-11.7263
作濟而一作於補	-11.7263
佞相與朋黨並食重	-11.7263
值東南不足誰虧缺之	-11.7263
傳季子光當立遂	-11.7263
僊人從之受道也求	-11.7263
入天所謂天柱也素問曰天	-11.7263
八柱柱廣十萬里有三千六	-11.7263
兮擁幼艾	-11.7263
兮背繩墨	-11.7263
其小者謂之閨	-11.7263
其智謀令	-11.7263
凶豈不	-11.7263
出日補曰皓光也	-11.7263
切猶槩也淟涊垢濁也言	-11.7263
刓削補	-11.7263
刺君不明也	-11.7263
前志所傳修	-11.7263
剖其心	-11.7263
剖而産焉	-11.7263
割更后相夫孰	-11.7263
劒鼻一	-11.7263
匈奴傳	-11.7263
南渡湘水極	-11.7263
南西京	-11.7263
及星辰次	-11.7263
古之時有至人者益其	-11.7263
古太始之	-11.7263
可掩故楚	-11.7263
吉良之日齋戒恭敬以宴	-11.7263
同並音池爾雅注云	-11.7263
名也言巳願供	-11.7263
名與日月同耀一云同	-11.7263
名補曰楚子熊	-11.7263
吏切文選注	-11.7263
君亂臣貪不	-11.7263
君王親發兮憚青兕	-11.7263
哲智也寤覺	-11.7263
善惡好蔽美	-11.7263
嘏	-11.7263
四方人觀見之莫不	-11.7263
圃玉英皆美言之	-11.7263
國家累世乆長之	-11.7263
執持長劒以誅絶凶惡擁	-11.7263
壁之曲	-11.7263
壯大也言闔廬少	-11.7263
壯行於	-11.7263
夏之俗思念楚	-11.7263
多姿綽態調戲不窮	-11.7263
天之不可階而升欲釋階	-11.7263
天地無有終時中	-11.7263
天地相敝	-11.7263
天子之位荒淫田獵變更	-11.7263
天對云黒水淫淫窮	-11.7263
夫何用罪法之不審也補曰辠古罪字	-11.7263
如使可得羈係而畜之則與犬羊無異不	-11.7263
始去遂渡江湘之水言明旦	-11.7263
子日至殷今報紂矣吾甲子日不到紂必	-11.7263
子美詩云紅豆啄餘鸚鵡粒碧梧棲	-11.7263
孔上出一寸三分名翹	-11.7263
孔穴相通淮南云天有九	-11.7263
孟子所謂完廪捐階是	-11.7263
家陸終生子六人坼	-11.7263
寗戚之謳歌兮	-11.7263
察篤夭隠	-11.7263
寧國家精誠之至	-11.7263
將修祭	-11.7263
將軍而攻城	-11.7263
小門謂之閨	-11.7263
尺四寸圍三寸一	-11.7263
屢數也言已不自念	-11.7263
屯車繫馬而留止也白水	-11.7263
山茂林之上設後時	-11.7263
崇山太公金匱曰南海之	-11.7263
崙者地之中也地下	-11.7263
巳自悔恨相視事	-11.7263
帝之平圃	-11.7263
帝天帝也夷羿諸侯	-11.7263
帝謂桀	-11.7263
師屏翳也天問曰萍號起雨	-11.7263
師膠鬲問曰欲以何日至	-11.7263
帯女蘿	-11.7263
年命逝	-11.7263
弑王僚代立	-11.7263
張衡靈憲云八極之維徑二億三萬二千	-11.7263
彈瑟又搷	-11.7263
形神物未生誰傳道	-11.7263
往秋來以次相代言天時易過人年	-11.7263
後時而	-11.7263
徒了切倉頡篇云挑招呼	-11.7263
得妺嬉肆其情意故湯放之	-11.7263
得犯汝今	-11.7263
必失利而無功也	-11.7263
忠直而身放弃心迷意惑不知所	-11.7263
念楚國願得君命進道北行	-11.7263
思望聖君之聘請也	-11.7263
恐去聲重儲用切	-11.7263
恐美人之遟暮	-11.7263
情不得發用安能	-11.7263
想侍虞舜遊玉	-11.7263
愈琴操云臣罪當	-11.7263
憂也言羿弑夏家居	-11.7263
憺安也言日	-11.7263
成式云迸分竟地	-11.7263
我時化	-11.7263
我車堅牢	-11.7263
所謂兾幸君之一悟俗之一改也韓	-11.7263
撫案其節而徐行也補曰下音	-11.7263
故撫持之也	-11.7263
斁	-11.7263
文王親往問之吕望對曰	-11.7263
日以喻君詩云杲	-11.7263
日月參光吾	-11.7263
明萬類	-11.7263
星次天	-11.7263
昧冥也	-11.7263
是囚違虐立	-11.7263
時去晻晻若	-11.7263
晦冥冥	-11.7263
曰刓吾	-11.7263
曰劒口一曰劒環珥耳飾也鐔所	-11.7263
曰古初無物今惡得物自物	-11.7263
曰浪音	-11.7263
曰爾雅西北之美者有崐崘	-11.7263
曲也一本句末有兮字五	-11.7263
曲再舉	-11.7263
有美女體色	-11.7263
朱天西方成天西北方幽天北方	-11.7263
桀先挑之也挑一作祧	-11.7263
樹種也	-11.7263
機神圖也其星隱	-11.7263
櫂舟杭以	-11.7263
欲盡忠竭其所聞陳	-11.7263
欲竭忠	-11.7263
歎泣沾裳也屈	-11.7263
止息人之屋	-11.7263
此之常愁	-11.7263
此事也補曰列子殷湯	-11.7263
流于江鄒陽曰子胥	-11.7263
淨閬風清明言	-11.7263
深也一無以字	-11.7263
淵注云九	-11.7263
溝無溢濫百川	-11.7263
溷濁者甚之也屈原作此在	-11.7263
漱縮又切	-11.7263
濁則欲渡白水登神山	-11.7263
災也又曰太一一	-11.7263
煌	-11.7263
猶復顧念楚國無有賢臣心	-11.7263
猶言坐明	-11.7263
玉飾之也	-11.7263
玕金玉實惟	-11.7263
琳琅也鏘釋文作鎗	-11.7263
瑟吹鳴	-11.7263
瑶石之次玉者詩云報	-11.7263
璆渠幽切	-11.7263
瓊瑶瑱一作鎭補	-11.7263
瓥	-11.7263
畟方寸三	-11.7263
當世之人蔽美稱惡不能與之	-11.7263
疈史記楚	-11.7263
疫占不明反移	-11.7263
百軸互相牽制名山大川	-11.7263
盈北極只	-11.7263
盍何不也把持也瓊玉枝	-11.7263
相錯成文則	-11.7263
眐眩獨	-11.7263
知其形像乎補曰淮南言天	-11.7263
石次玉也補曰山	-11.7263
祀必擇	-11.7263
神曰祝融	-11.7263
祧	-11.7263
穆敬也愉樂也上皇謂東皇	-11.7263
籬言所造	-11.7263
維謂四維極謂八極也一	-11.7263
綺文	-11.7263
綽猶多也態	-11.7263
縶絆也詩曰	-11.7263
繫也言巳見中國溷	-11.7263
而不見其占以	-11.7263
而攻城	-11.7263
而欲寄處則鴟梟	-11.7263
而流故身	-11.7263
聞百里之	-11.7263
背坼而生禹簡狄	-11.7263
膠鬲以甲	-11.7263
臣云言我冠	-11.7263
自亳天對云湯行不類重泉	-11.7263
自古有	-11.7263
與草木俱	-11.7263
舉也補曰軛於革切車轅前	-11.7263
色光明旦燿	-11.7263
萬民憂患天對云夷	-11.7263
蒻音弱蒲也可以	-11.7263
蔽闇無有知	-11.7263
蕗今之箭	-11.7263
藏匿迹言	-11.7263
虬螭神獸	-11.7263
行伍怯夫反	-11.7263
補曰晉獻公虜虞君與其大夫	-11.7263
補曰爾雅宫	-11.7263
覆而勇益	-11.7263
言使韓信猛將被鎧兠鍪守於屯陣藏	-11.7263
言君近謟	-11.7263
言天有八山	-11.7263
言已幽居無事下則垂	-11.7263
言復作重層之臺累石之榭其	-11.7263
言若得值於此時而我年	-11.7263
言遂至衆	-11.7263
誅兮天王聖	-11.7263
誶	-11.7263
變天中央鈞天其際㑹何分安所繫屬乎	-11.7263
讒妒入以自代	-11.7263
象即仿像也又云罔象相求注云虚	-11.7263
負羈紲紲	-11.7263
貪亂遭君	-11.7263
賢然猶髙行抗志終不	-11.7263
賢者失時後軰亦	-11.7263
赤松王喬	-11.7263
超無爲以至	-11.7263
趾則北三危則	-11.7263
身當何	-11.7263
辟實罪德之由師	-11.7263
逶移長	-11.7263
逺曰聦言	-11.7263
遂往也初始也言往	-11.7263
遇災害	-11.7263
遇聖帝升清朝也遊一作游	-11.7263
遮	-11.7263
邪僞推排而	-11.7263
邪言坼剖而産則有之死分竟地未必	-11.7263
部八紀地有九州八柱神異	-11.7263
釋文㢮作施補曰	-11.7263
里常集	-11.7263
重泉而復出之	-11.7263
鍾毀棄	-11.7263
長笛賦	-11.7263
阯言昆明靈沼取象	-11.7263
隂也而人右耳目不如左明也地	-11.7263
雖去意	-11.7263
霜露之精以自潔也補曰	-11.7263
霠音隂雲覆日	-11.7263
靈謂巫也姱好	-11.7263
革曰古初有物乎夏革	-11.7263
韁	-11.7263
類補曰虬見騷經螭	-11.7263
風雨水旱兵革飢饉疾	-11.7263
香美張施琴	-11.7263
馬雖死傷更霾車兩輪絆四	-11.7263
魂乎無往	-11.7263
鯁	-11.7263
鳴兮顧先百草	-11.7263
鳴故百草	-11.7263
鷤䳏之將	-11.7263
鸞鳳俊	-11.7263
愽雅	-11.7263
長嘘吸	-11.7263
釋置也	-11.7263
滅規榘而	-11.7263
俎	-11.7263
記云夫	-11.7264
鵜	-11.7264
憚舉趾而緣木	-11.7264
佩玦	-11.7264
瑶象	-11.7264
太史公讀	-11.7264
迫促	-11.7264
絇	-11.7264
粟	-11.7264
不可兮再得	-11.7264
遭值	-11.7264
而變衰	-11.7264
山在此	-11.7264
啁哳聲繁細	-11.7264
憂懼也補曰鵾鷄似鶴	-11.7264
獨憤積而哀	-11.7264
鴈鵾鷄	-11.7264
中見三鳥飛從南	-11.7264
招魂傳	-11.7264
武帝有三	-11.7264
沙礫而自沈	-11.7264
淼南渡之焉如	-11.7264
莞苻蘺也	-11.7264
言已在於湖澤之	-11.7264
䊸	-11.7264
一云願自直而徑	-11.7264
一交焉五山始	-11.7264
一作命補曰海若莊	-11.7264
一作載抃釋文作拚補曰鼇音	-11.7264
一無入字補曰	-11.7264
上訴天帝使閽人開	-11.7264
並出草木焦	-11.7264
中記云即	-11.7264
之而無所不窮也或曰禹治洪	-11.7264
也一云張樂咸池	-11.7264
也方言陳楚謂之笫又阻史切	-11.7264
也罷駑也言楚國選舉	-11.7264
云知衆嫮之疾妬兮何必揚	-11.7264
云蓀荃也陶	-11.7264
云鳩鶻鵃也爾雅云	-11.7264
人君被服芬香故以香	-11.7264
以拂擊日使之還去且相羊而遊以俟君	-11.7264
作噭釋文作寂	-11.7264
作揆中一作忠	-11.7264
作鑒脩一作修	-11.7264
佻輕也巧利也言又使雄鳩銜命而往	-11.7264
使我不得入也	-11.7264
兮兾壹	-11.7264
初與己	-11.7264
北海若也	-11.7264
博物志云昔	-11.7264
坋塵也言帝顓頊	-11.7264
塡塡	-11.7264
墳厥貢藝而	-11.7264
夏禹觀河見長人魚身出曰	-11.7264
外若親	-11.7264
大招傳	-11.7264
天下也淮南子曰	-11.7264
天文大象賦曰儼閶闔以洞	-11.7264
始君與	-11.7264
字妙一作眇注云	-11.7264
居云東間溪側有名溪蓀者根形氣	-11.7264
山鵲而小短尾	-11.7264
峙而不動張衡	-11.7264
平公時	-11.7264
成化制禮樂以安黎	-11.7264
我也覽一	-11.7264
所作樂名堯	-11.7264
所出至逺應龍過	-11.7264
折取若	-11.7264
指彭咸以	-11.7264
揚靈兮未極	-11.7264
日轡恐不能制年時卒過故復轉之西極	-11.7264
昆明靈沼	-11.7264
明克讓然無故被塵翳言與帝共	-11.7264
昏昧無有明君周行	-11.7264
曰窈窕淑女言山鬼之	-11.7264
曵牽也引也	-11.7264
書曰若藥不瞑眩厥疾	-11.7264
書鴭音堆雀屬也	-11.7264
有鱗曰蛟龍有翼曰	-11.7264
橫大江兮揚靈	-11.7264
水時有神龍以尾	-11.7264
求賢不得疾	-11.7264
汚原何哉詩人稱莊姜之賢曰	-11.7264
江與夏之不可涉	-11.7264
池備矣注云	-11.7264
淪天門注云閶闔始升天之門也天門	-11.7264
淫邪也言衆女嫉妬蛾眉美好之人譖而	-11.7264
淮南言堯時十	-11.7264
無專擅之義猶	-11.7264
然心常惻	-11.7264
爾雅徒歌謂之謡謂謡言也諑竹角切方	-11.7264
疢	-11.7264
簡狄帝嚳之妃也	-11.7264
經浮山有草焉其葉	-11.7264
罷極也	-11.7264
者欲與建	-11.7264
而無極兮	-11.7264
而用之咸皆也池	-11.7264
而臣隨也故以喻臣蛾眉好	-11.7264
荃與蓀同莊子云得	-11.7264
荃香草以喻君也	-11.7264
草為喻	-11.7264
菖蒲而葉正如蒲無脊詩詠多云蘭蓀	-11.7264
蛾一作娥補曰反離騷	-11.7264
螓首蛾眉	-11.7264
被文服纖	-11.7264
補曰姱好	-11.7264
言施也言	-11.7264
讒惡佞將	-11.7264
賦云登蓬萊而容與兮鼇雖抃	-11.7264
路逺處幽又無行媒兮	-11.7264
輔惟惡是去	-11.7264
輕佻巧利多語言而無要實復不	-11.7264
辰陽亦地名也言已乃從枉陼宿	-11.7264
逝往也	-11.7264
遠遷臣而弗思	-11.7264
陽帝顓頊也委塵	-11.7264
雀王逸注誤按字	-11.7264
雅云參三	-11.7264
顓頊與共工爭	-11.7264
願自沈於江流兮	-11.7264
香草一圖	-11.7264
馬蘭惡草也踸踔暴長貌也	-11.7264
鬿雀峙北號惟人是食注云	-11.7264
魚而忘荃音	-11.7264
鳥水蟲	-11.7264
鴆運日也羽有毒可殺人以喻	-11.7264
鵾鴻羣	-11.7264
6	-11.7264
䘳	-11.7264
一作圜實摶一作槫補曰曾	-11.7264
一作欒一作鸞補曰際邊也傳曰九天	-11.7264
一作蠡補曰方言瓥陳	-11.7264
一作逢坲一作浡補	-11.7264
一作韲補曰懲戒也	-11.7264
一圖九歌九圖天問五十四圖	-11.7264
三圭謂公侯伯也公執桓圭侯執信圭	-11.7264
三百里	-11.7264
三閭大夫鄭詹尹漁父合繪	-11.7264
下國遇太子曰夷吾無禮余得請於	-11.7264
下屠屠	-11.7264
不告何也曰帝亦知告焉則不得妻也伊	-11.7264
不滿東南故東南	-11.7264
不芳顔師古云鷤䳏一	-11.7264
丘楚地名也五臣云女神女喻忠	-11.7264
丘閬風山上也無女	-11.7264
並呼漏	-11.7264
中心浩蕩罔然	-11.7264
乃臨於	-11.7264
乆逺莫足相證魏	-11.7264
之中熊羆逸踊於君之苑也以言斥逺仁	-11.7264
之中藏枯匏之瓢置於筐簏令之	-11.7264
之人正其邪	-11.7264
之以師旅其人	-11.7264
之傳道道猶	-11.7264
之傷人補	-11.7264
之國政號曰五羖大夫孟子曰	-11.7264
之圜也以象	-11.7264
之姿然以	-11.7264
之強師率之武故今伐殷合兵	-11.7264
之志以死忠直	-11.7264
之悲而流	-11.7264
之朝詩云	-11.7264
之未晏兮	-11.7264
之氣以不死也補曰沆	-11.7264
之然後玉鏘	-11.7264
之節者固乃前	-11.7264
之臣虚言浮	-11.7264
之際曰九垠九	-11.7264
乎不以	-11.7264
九十九隅	-11.7264
九天之野一野千一百一	-11.7264
九天八方中央也	-11.7264
九年之中不吾反兮思彭咸之水	-11.7264
也一作㑹晁請盟補曰	-11.7264
也一無者字一云懲於熱	-11.7264
也交鼓對擊鼓也縆一作絙	-11.7264
也動以神	-11.7264
也大人賦云紛	-11.7264
也才用切豹有數種有赤豹有	-11.7264
也竚直	-11.7264
也言巫執事肅敬奉迎導引	-11.7264
也言已雖有絶逺之	-11.7264
亂曰鸞鳥鳳皇日以逺兮	-11.7264
二名也文選注	-11.7264
云九則	-11.7264
云九辯九歌言	-11.7264
云以秋分鳴李善云臨海異物志	-11.7264
云北極天之中也	-11.7264
云徜徉	-11.7264
云懲熱於	-11.7264
云稻稌也又急就篇云稻黍	-11.7264
云藏志乎九旋之	-11.7264
互擲采行碁碁行到處即竪之名	-11.7264
五羊之皮	-11.7264
亦爛然有文章也補	-11.7264
人媵百里傒亡秦走宛楚	-11.7264
仁焉厚	-11.7264
他典切涊乃	-11.7264
令門應兆	-11.7264
以動地體	-11.7264
以甲子日膠鬲還報紂㑹天	-11.7264
以能屈案心志含	-11.7264
以訊止訊予不顧	-11.7264
以降神靈偃	-11.7264
仲春隂陽㑹時徙我東行遂	-11.7264
伊尹烹於庖廚	-11.7264
伏清白以死直兮固前聖之所厚	-11.7264
作妖服一作	-11.7264
作寥一作漻五臣云寂漻	-11.7264
作彰音如	-11.7264
作思唯一作惟	-11.7264
作昊變	-11.7264
作澒補曰澒鴻並乎孔切溶音勇水盛	-11.7264
佩服莫不盛	-11.7264
使貞臣	-11.7264
供神有	-11.7264
俛仰	-11.7264
倒思予大夫	-11.7264
偷一作愉補	-11.7264
傷痛而怫鬱也補	-11.7264
儒佳切	-11.7264
儵爍	-11.7264
儵爍疾也闇多而明少	-11.7264
公子當復誰畏懼	-11.7264
六龍以上下淮南曰雷以	-11.7264
兮驂白螭	-11.7264
其家其父頑母嚚不	-11.7264
其數乎補曰隅角也	-11.7264
其色精明内	-11.7264
凶故人	-11.7264
出下浴於湯谷上拂	-11.7264
分長寸五分	-11.7264
切乆立也眙直視也丑	-11.7264
切又古豆切禮記曰	-11.7264
初五年汝南屈雍	-11.7264
則居家之道	-11.7264
則屏翳雨師也洛神賦云	-11.7264
則是其鴞安	-11.7264
剖而生契	-11.7264
副無災無害原詩人之㫖明古之婦人	-11.7264
千仞蛟	-11.7264
南書房翰林等逐一考訂	-11.7264
去地五億萬里注云九野	-11.7264
去家室也嵺	-11.7264
又見水中流波	-11.7264
又陳列竽	-11.7264
可以逃將隨太隂下而沈	-11.7264
名也東胡好服之師古曰犀	-11.7264
名買䤥一名	-11.7264
君之道不明審	-11.7264
吴王闔廬	-11.7264
吹之小	-11.7264
吾與重華	-11.7264
吾謂日也檻楯也言東方有扶桑之	-11.7264
周一作同一云方	-11.7264
哀涕交	-11.7264
唐段安	-11.7264
善獲官爵也補曰此言以聖	-11.7264
國也補曰淮南云九州之外有八殥西	-11.7264
在女曰陳小國也攝乎大國之	-11.7264
地之時惟像無形窈窈	-11.7264
坎然恚恨以數逢憂	-11.7264
坲音佛塵	-11.7264
城十二月戊申縊	-11.7264
執守忠直終不可移	-11.7264
執躬圭故言三圭也重侯謂子男也	-11.7264
塵也無	-11.7264
墨之文居於幽冥之處則	-11.7264
壽齊光	-11.7264
多糾錯而鳴其聲	-11.7264
夜行或	-11.7264
天之外曰九陔放上聲孟子	-11.7264
天也言天帝親致紂之罪罰故殷之命不	-11.7264
天元天何所沓言與地合也左傳曰日月	-11.7264
天德明只	-11.7264
天東北方	-11.7264
天漢樂歌曰	-11.7264
天髙朗	-11.7264
天髙而氣	-11.7264
太公在市肆而屠文	-11.7264
奏大呂些	-11.7264
奏工章明也	-11.7264
女于時	-11.7264
女羅戰國	-11.7264
女英也孟子曰舜不告而娶	-11.7264
妖並音狡	-11.7264
妬欲共被離摧折而	-11.7264
妻生男從右	-11.7264
姣好也服飾也姣一	-11.7264
娶婦乃至於	-11.7264
子之禮後八公與安俱	-11.7264
子也或曰蠹囊也瓟一作匏瓥	-11.7264
子奔新	-11.7264
子無恙詩	-11.7264
孔子誅少正卯也釋文詬作訽	-11.7264
孔竽	-11.7264
字左傳云狐突適	-11.7264
安歩徐	-11.7264
室法像舊廬所在之	-11.7264
家多用白	-11.7264
小人在位而	-11.7264
小散亡	-11.7264
尤過也攘除也	-11.7264
居乎意	-11.7264
居也九歌曰長	-11.7264
屈原訟理	-11.7264
屏翳收風則風師也又周	-11.7264
山也或曰臨	-11.7264
已同心也舊	-11.7264
已有文武能方圓也	-11.7264
帝矣又曰帝許	-11.7264
常畏愼而戒	-11.7264
庭之内莫	-11.7264
張留切方言曰	-11.7264
形也言人體含隂陽之氣失之則死得之	-11.7264
徠出集	-11.7264
御之夫	-11.7264
徳澤章只	-11.7264
忍罪過而不去者欲以除去恥辱誅	-11.7264
志浩蕩而傷	-11.7264
志純一也欵一作款五臣云悃欵懃苦	-11.7264
忠直之名念君	-11.7264
恱喜	-11.7264
悽悲痛	-11.7264
惑也厥其也言象	-11.7264
惜身之放逐誠哀僕	-11.7264
感天又	-11.7264
感天抑地而誰	-11.7264
愴痛感動歎累息也五臣云	-11.7264
慶元庚申	-11.7264
懷信侘傺	-11.7264
懼也補曰詩云天鑒在下有	-11.7264
我歌其二女曰墓門有楳有鴞	-11.7264
我罰有罪矣敝於韓此	-11.7264
或黕點而汙之	-11.7264
所和細切	-11.7264
所居卓卓日	-11.7264
承天度也夕入洲澤采取宿莽下奉太隂	-11.7264
投六箸行六	-11.7264
捫	-11.7264
擇麥中先熟者也	-11.7264
政事法度浞交接國中布恩施德	-11.7264
故平以靜動以行施靜以合化堙	-11.7264
救也一云上帝之罰補曰此言紂	-11.7264
敢休息欲救賢者之死也遂以甲子日	-11.7264
數千人作	-11.7264
文公覺寤追而求之子推遂不肯出文公	-11.7264
文曰蕩口也	-11.7264
斧以斯之夫也不良國人知之知而不	-11.7264
於鄂鄂州武昌	-11.7264
旄翠	-11.7264
族親	-11.7264
旦之時	-11.7264
旦明也濟渡也	-11.7264
昌文王名也言	-11.7264
明書牧誓	-11.7264
昭昭明也	-11.7264
時亦冉冉而將至	-11.7264
曰佩玉鏘鏘言	-11.7264
曰凡草木刺人江湘之間謂之	-11.7264
曰古之君子必佩玉進則揖之退則揚	-11.7264
曰墓門有棘	-11.7264
曰橘實初	-11.7264
曰遵海	-11.7264
曰雨甚軍士苦之請且休息武王曰吾許	-11.7264
曰颯蘇合切捜捜動	-11.7264
曼姬邊讓賦云齊倡列鄭	-11.7264
曽枝剡棘	-11.7264
月也刑	-11.7264
有淮南王	-11.7264
有隱而相感者	-11.7264
朝發軔于	-11.7264
朝誅紂不失期	-11.7264
木謂之臺有木謂之榭補曰	-11.7264
未形馮馮翼翼洞	-11.7264
東南方陽天南方赤天西	-11.7264
枝葉枯槁也自傷	-11.7264
柱皆何當	-11.7264
梟楊山神名即	-11.7264
椒子蘭不肯反已魂魄	-11.7264
楚國有臣而可止乎恖古文思	-11.7264
榮華喻	-11.7264
構精時育	-11.7264
槩貪濁	-11.7264
樂天神也補	-11.7264
樂娛酒不廢沈湎日夜舉以	-11.7264
樂憺然意安而忘歸也補曰	-11.7264
欃槍彗祥	-11.7264
欲從靈氛之吉占兮心猶豫而狐疑	-11.7264
欲復去也一本忍下有而字釋文古音故	-11.7264
欷泣歎補曰	-11.7264
欸歎	-11.7264
此皆靈氛之	-11.7264
殊形能感楚人故異之而使之	-11.7264
殺之吾故不	-11.7264
毒恚也	-11.7264
比王僑而	-11.7264
氣之極耳薺麥	-11.7264
汭嬪于虞二女	-11.7264
沖天區也亢	-11.7264
注云言姣	-11.7264
泬寥兮	-11.7264
泬寥曠	-11.7264
洛帶瑞獸	-11.7264
洛神賦注云宓妃伏	-11.7264
涕也或云	-11.7264
淫泆之惡欲共危害舜也害一	-11.7264
淮南王安好書招致賔	-11.7264
渠封中子紅	-11.7264
湛厚也詩曰湛	-11.7264
湛湛江水兮上有楓	-11.7264
溷濁無相知者顧	-11.7264
漢藝文志	-11.7264
潔以瑶玉	-11.7264
澆而斷其	-11.7264
濿渡也由	-11.7264
瀞	-11.7264
灟灟故曰大昭注云馮翼無形之	-11.7264
為十三圖大招	-11.7264
為證盖	-11.7264
無後也君子以	-11.7264
然霠曀而莫達	-11.7264
爲不然今	-11.7264
爾雅厓内	-11.7264
牛上屠屠國文王喜載與俱歸也	-11.7264
牲者五羊之皮食牛以要	-11.7264
犀毗孟康曰要中大帶也張晏曰鮮卑郭	-11.7264
犧氏女溺洛水而死遂	-11.7264
猴	-11.7264
獵不恤	-11.7264
王何以識知	-11.7264
琅	-11.7264
琅糾錯也琳琅聲也謂帶劒佩衆	-11.7264
瑟大倡作	-11.7264
瑶之圃	-11.7264
生之用心善矣而不	-11.7264
用也薄附也言	-11.7264
異若以鮮卑之帶約而束之也補曰前漢	-11.7264
當以幸	-11.7264
當何所親附乎一云女何所親補曰書云	-11.7264
白龍出遊天帝曰使汝深守神靈羿何從	-11.7264
百里傒以百	-11.7264
百里奚	-11.7264
百里奚自鬻於秦養	-11.7264
皆作有聲者以聲聞有色者以色見	-11.7264
皋蘭被徑兮斯路漸	-11.7264
相如賦云宛雛孔鸞孔孔雀也顔師古曰	-11.7264
矇瞍之徒以爲不明也言持	-11.7264
矜莊形體連	-11.7264
矣又有因産而遇災害者故美其無害也	-11.7264
知之者徘徊江之上歎	-11.7264
知貪餌而近死兮不如下	-11.7264
碁即入水食魚	-11.7264
神仙傳曰八公詣門王執	-11.7264
秦繆公莊子曰秦穆公以	-11.7264
稷左太	-11.7264
穢也爾雅彗星	-11.7264
穱擇也	-11.7264
窳	-11.7264
立秋後	-11.7264
竚立悲	-11.7264
米者今之稬米耳	-11.7264
紀禹以勤勞修鯀之功故曰勤子也	-11.7264
素問云上古有	-11.7264
結蕙芷服之於身過鮑魚	-11.7264
羅綺屬	-11.7264
美加之忠信貞潔而遭	-11.7264
羣臣賦四	-11.7264
羽者曰翠周禮曰	-11.7264
者冀君	-11.7264
而南放	-11.7264
而去不顧楚國之地貪	-11.7264
而死孔子稱	-11.7264
而登天甚言	-11.7264
耳目之娛各	-11.7264
聞之而來	-11.7264
聲以發其音也	-11.7264
聲有隠而	-11.7264
胡帶之鈎亦	-11.7264
胳下水腹上出而平和自若	-11.7264
腐蠹言愛小人憎君	-11.7264
腥臊臭惡也御	-11.7264
膚變顔色也五	-11.7264
自八公之徒咸慕其	-11.7264
自割而食君	-11.7264
自適焉以喻人君	-11.7264
至兵甲	-11.7264
至於惡楚國	-11.7264
至竟陵合滄浪之水又東過三澨水觸大	-11.7264
致天討故	-11.7264
與偷同	-11.7264
與此闇亂之君終古而	-11.7264
與王者王者何不	-11.7264
與語國事繆公大說授	-11.7264
舜弟眩惑其父	-11.7264
舞賦云激楚結風陽阿之舞五臣云激急	-11.7264
芒芒然聲	-11.7264
芒莫郎切芒芒廣大	-11.7264
芳之君何必思故居而不去也	-11.7264
英華瓊若	-11.7264
菌與桂	-11.7264
萃止夫也不良歌	-11.7264
薑蒜辛物	-11.7264
蘭上事太	-11.7264
虯	-11.7264
蚗兮噍噍	-11.7264
蛟何為兮水裔	-11.7264
蜀都賦云	-11.7264
蜒長	-11.7264
蜷神則歡喜必留而止見其光容爛	-11.7264
融降	-11.7264
螭龍並流上下悠悠只	-11.7264
行之道皆羅桂樹	-11.7264
補曰古者巫	-11.7264
補曰墬即地	-11.7264
補曰擥猶	-11.7264
補曰暾他昆切	-11.7264
補曰顔師古云本草所謂稻	-11.7264
見於此賦	-11.7264
見知於君父其事有相似者	-11.7264
見赤松子與王喬也喬一作僑	-11.7264
觀厥刑于二女釐降二女于	-11.7264
言也傳道	-11.7264
言司命乃陞	-11.7264
言夏少康因田獵	-11.7264
言天地廣大隅隈衆多	-11.7264
言已放弃以明	-11.7264
言巳乃擥	-11.7264
言巳專壹忠	-11.7264
言巳思得賢	-11.7264
言我怨君法	-11.7264
言殊飾也旍一作旌一	-11.7264
言皇天集禄命而	-11.7264
言願設陳	-11.7264
設去楚國逺行	-11.7264
詞爾一作尒宇一作	-11.7264
詩曰佇立	-11.7264
詬恥也言巳所	-11.7264
語勢矯	-11.7264
誤亂將	-11.7264
誨也木蘭去皮不死宿莽遇	-11.7264
誰昔然矣又	-11.7264
謂眉也媔音綿美目	-11.7264
謇謇於	-11.7264
譎怪之談	-11.7264
譖毁	-11.7264
讒人所鞿羈而係累矣故朝	-11.7264
讒佞之人如	-11.7264
讒夫弄口也風颯颯者政煩擾也木蕭蕭	-11.7264
賢以五羖羊皮贖之釋其囚	-11.7264
賢才齊列也抗	-11.7264
賢知之士居於山谷則	-11.7264
賦云恃知巳而華予兮	-11.7264
賦云昆明靈沼黒水	-11.7264
赫戲	-11.7264
踏	-11.7264
車輪注云雷轉氣	-11.7264
軫還衡衡轅前	-11.7264
轉馮馮翼翼何	-11.7264
逐獸遂襲殺	-11.7264
通川	-11.7264
逮羅罔不能加也以言賢者	-11.7264
遂自投汨羅以死原	-11.7264
郊牧	-11.7264
鄙人執之繆公聞百里傒	-11.7264
酸蒿蔞王逸註	-11.7264
采文采也言	-11.7264
里傒爲秦繆公夫	-11.7264
重也剡音琰方言	-11.7264
鎔	-11.7264
鏘七羊切禮記	-11.7264
長立而無	-11.7264
間因之以	-11.7264
闇音暗閉門也此言幽明之理	-11.7264
阯也李善云	-11.7264
陳列也浩大也言	-11.7264
隂氣下降	-11.7264
隈淮南曰天有九野九千九百	-11.7264
隕零肥潤去也	-11.7264
隱思君兮陫側	-11.7264
集此言何所戒	-11.7264
雖昇青冥猶	-11.7264
雨道難行武王晝	-11.7264
雪先集維霰霰	-11.7264
雰雰霜	-11.7264
雰音芬詩傳雰雰雪	-11.7264
雲蒙蒙而蔽之	-11.7264
雷塡塡者君妄怒也雨冥冥者羣佞聚也	-11.7264
韓退之云春與猿吟兮秋鶴與飛皆用此	-11.7264
音常與倘同飈	-11.7264
音決一音弟桂一音殄絹反離騷云徒恐	-11.7264
音賫鄭	-11.7264
順地數	-11.7264
頗合古人左圖右書之意但今書	-11.7264
顧視僕御心皆憔悴而有	-11.7264
養貪殘之人也逸一作	-11.7264
驍	-11.7264
驚駭也蕭蕭文苑作捜捜補	-11.7264
髙馳不顧願駕	-11.7264
鮑宏	-11.7264
鯀以婞直	-11.7264
鱞也補曰鱞古頑	-11.7264
鳥赤羽者曰	-11.7264
鳴鼓以進八	-11.7264
鴟梟羣	-11.7264
鶗鴂鳴而不芳注	-11.7264
鼂騁騖兮江	-11.7264
龍藏於旋淵故矰	-11.7264
􁍞	-11.7264
一夕而九逝	-11.7264
婉	-11.7265
衡一作蘅	-11.7265
鮌功用而不就	-11.7265
供	-11.7266
遏	-11.7266
爵禄	-11.7266
默	-11.7266
歌而飯牛	-11.7266
岒	-11.7266
代秦鄭衛	-11.7266
命咎繇使	-11.7266
將從俗富貴	-11.7266
渨	-11.7266
六龍以上下	-11.7266
周流覽於四海兮志升降以	-11.7266
上竹交下陟	-11.7266
燕雀烏鵲	-11.7266
稷維元子	-11.7266
補曰馬立不常謂之	-11.7266
釋文跳徒聊切躍也	-11.7266
曾不知夏之為丘兮	-11.7266
之水士	-11.7266
則色純黒昔	-11.7266
嗷嗷	-11.7266
疾而不可得	-11.7266
角雕鏤	-11.7266
軒輬旣低	-11.7266
魂乎無徃盈北極只	-11.7266
三番六萬	-11.7266
上七到下音老一作	-11.7266
丘子遇虺毒而獲療諸有與之同疾者必	-11.7266
中㦧惻之悽愴兮	-11.7266
之義斑然散亂而不可	-11.7266
之音命之曰承雲淮南云有	-11.7266
乍離乍合上下	-11.7266
也言河海	-11.7266
云閽常以昏閉門	-11.7266
五臣云山鬼美	-11.7266
以况芬芳不一而	-11.7266
先後是之	-11.7266
分文析句	-11.7266
去國日已逺也或曰枉	-11.7266
台	-11.7266
吾令鴆	-11.7266
喉	-11.7266
基也奔走先	-11.7266
外雖彷徨	-11.7266
夫不知芳何	-11.7266
夷水仙人淮南言	-11.7266
娀音嵩李善引吕氏春秋曰有娀氏有二	-11.7266
子曰臭過椒蘭荀	-11.7266
子椒子蘭宜有	-11.7266
子謂山鬼也	-11.7266
封介山而為之禁兮	-11.7266
將去枉曲之俗而	-11.7266
將與百卉俱	-11.7266
少女建疵注云姊	-11.7266
山鬼無形其情狀難知故含睇	-11.7266
巨龜也一云	-11.7266
幽都地	-11.7266
徂落也一云	-11.7266
後四輔之職也詩曰予聿有奔走予聿有	-11.7266
徼	-11.7266
忠信不美如毒藥也一	-11.7266
念兄弟也	-11.7266
思蹇產之不釋兮	-11.7266
惜往事之不合兮	-11.7266
惡數指斥尊者故變言	-11.7266
指蒼天以爲正	-11.7266
於大川也	-11.7266
曖曖昏昧	-11.7266
曲也陼沚也辰時也	-11.7266
有志未逮	-11.7266
極不遇賢士故結芳草長	-11.7266
榆	-11.7266
樂名也九成九奏也	-11.7266
樂康	-11.7266
殷勤	-11.7266
水長嘯思念楚國而無解	-11.7266
江離皆香草不若椒蘭之盛也列	-11.7266
池承雲九韶	-11.7266
泊莽莽兮與埜草同死	-11.7266
無不施也又吕氏春秋云帝顓頊令	-11.7266
牀簀也以喻親	-11.7266
狸以譬猛烈辛夷杜衡	-11.7266
猛將	-11.7266
玩以侮	-11.7266
甯戚歌而飯牛	-11.7266
知也斑	-11.7266
窈窕好	-11.7266
笑以喻姱	-11.7266
精豈河伯也馮夷得道	-11.7266
繼續其跡而廣其	-11.7266
美堯二女助成化也韶舜	-11.7266
聞百里之為虜兮	-11.7266
興離騷之微文兮	-11.7266
苾	-11.7266
荃也察一	-11.7266
蘭之芬芳而猶若是况衆臣若	-11.7266
處出升山	-11.7266
虞氏其樂	-11.7266
補曰周禮有大咸堯樂也樂記云咸	-11.7266
詩曰巧笑倩兮美目盻兮大招曰靨䩉	-11.7266
諑愬也楚以南謂之諑言衆女競	-11.7266
謂也忽一作急補曰忽疾	-11.7266
謠諑謂余以善淫	-11.7266
謡言以	-11.7266
貰赦宥罪法也宥	-11.7266
貽一作詒喜	-11.7266
趨時明之	-11.7266
辰陽自傷	-11.7266
釋置也舟	-11.7266
閽主門者也	-11.7266
飛龍作樂	-11.7266
魂乎歸徠恣所嘗只	-11.7266
鶌鳩鶻鵃注云似	-11.7266
麻有子曰枲天對云浮山孰産赤華伊枲	-11.7266
㙁補曰方言云梅貪也亡改切其字從手	-11.7266
䤥音詭思	-11.7266
一云吾今而知其然補曰左氏云三折肱	-11.7266
一云民生	-11.7266
一作抗五臣	-11.7266
一作隿補曰矰音	-11.7266
一曰低	-11.7266
一本自此句至又何	-11.7266
一無革字補曰禮云貫革之射左傳云蹲	-11.7266
三十六	-11.7266
三畫者謂之黒一邊不	-11.7266
上指北辰訴	-11.7266
下曰虞舜此言舜孝如此	-11.7266
不慮艱難卒遭憂患	-11.7266
不清澈其然否	-11.7266
不由階次之人非惡罷	-11.7266
不畢備故	-11.7266
不至諸侯不朝	-11.7266
不見天地所以來出歸有	-11.7266
不貪今人貪而不味此言貪嗜讒	-11.7266
不足以解憂猶顧視楚國愁且思也	-11.7266
不震動驚駭復作激楚之	-11.7266
且太康不反國人立	-11.7266
世溷不吾知心不可謂兮	-11.7266
中一作心補曰瞀音	-11.7266
中結軫而增傷	-11.7266
乃使姣好之巫	-11.7266
乃更巧詞周流而往	-11.7266
乃有窮羿耳淮南云河伯溺殺	-11.7266
之䰟歸楚	-11.7266
之上撫持彗星欲掃除邪	-11.7266
之之方焉衆人	-11.7266
之也此章有少歌有	-11.7266
之屈曲再舉則知天	-11.7266
之廟注	-11.7266
之志也一云何不變此	-11.7266
之意也補曰青色	-11.7266
之欲以懷來也一云夫何	-11.7266
之盛寒	-11.7266
之竊歎	-11.7266
之終不能害舜	-11.7266
之緩急也補曰歸藏曰乾者積石風穴之	-11.7266
之肆則失其性而不芬	-11.7266
之臣斥逐忠正背先	-11.7266
之訟以好	-11.7266
之駟西	-11.7266
乗鄂渚而反顧兮	-11.7266
九天東方皡天	-11.7266
也以君治之而	-11.7266
也嚳苦篤切天對云	-11.7266
也國語曰竦善抑惡慫驚也孟子曰知好	-11.7266
也嬋媛一作	-11.7266
也宗廟之有主也示民有事也	-11.7266
也弋亦射也論語曰弋不射宿弋	-11.7266
也或曰泬寥猶蕭條蕭條	-11.7266
也或曰糾鏘鳴兮琳	-11.7266
也氣清一作氣平	-11.7266
也決䠶韝也封	-11.7266
也琨玉名箟竹名蔽集	-11.7266
也瞰視也	-11.7266
也祖迎於	-11.7266
也羿何罪歟	-11.7266
也舟釋水而陵行則	-11.7266
也補曰禮記王立七祀有	-11.7266
也補曰號大	-11.7266
也言天時運轉春生秋殺草木零	-11.7266
也言羿好䠶	-11.7266
也郭璞注爾雅	-11.7266
也霰雪紛其無垠者殘賊	-11.7266
事君而無其路也	-11.7266
二辰所	-11.7266
云不遵啓樂更作淫聲未知所據	-11.7266
云合焉者三一以統同吁炎吹泠交錯而	-11.7266
云并憾日夜	-11.7266
云被鄭國之	-11.7266
云騏驥抗軛謂與	-11.7266
五臣云九陽數謂天也	-11.7266
交趾地名補	-11.7266
亦名牽魚毎牽一魚獲二	-11.7266
亦喻原之美	-11.7266
人所䠶固其	-11.7266
人蔽賢羣起而攻之舉	-11.7266
令貪好攻伐逺征犬戎	-11.7266
以不成也屈原履行忠直	-11.7266
以其在水中也使龜釋水而陵行則何以	-11.7266
以所獲得禽獸徧施禄惠於百姓也補曰	-11.7266
以決吉	-11.7266
以舒憂意中紆	-11.7266
以言賢者亦然外有精	-11.7266
以車中軍武王自稱太子	-11.7266
以食文公文公得國	-11.7266
仲春二	-11.7266
伯勞也順隂陽氣而	-11.7266
但有勞極心	-11.7266
何所十二辰誰所分别	-11.7266
何能遷徙也言龜所以能負山	-11.7266
何逺為些	-11.7266
作忠以造怨	-11.7266
作琨一作箟補曰菎音昆香草	-11.7266
作野一注	-11.7266
作鷤五臣云鷤鴂秋分前鳴則草木凋落	-11.7266
佯有所求因與行淫亂也補曰澆堯弔	-11.7266
佻吐凋切又土了切爾雅	-11.7266
來臨疾風而大歌兾神	-11.7266
偃蹇委曲	-11.7266
傺悵然	-11.7266
僞其性不同也一云	-11.7266
先聖之法度而	-11.7266
光輝若	-11.7266
公姬毒而獻之泣曰賊由太子太	-11.7266
六宗孔子曰所宗	-11.7266
六神謂六宗之神也尚書	-11.7266
其字從竹方言簙謂	-11.7266
其山子推抱樹燒而死故言立枯也	-11.7266
其川江漢漢楚	-11.7266
其弟仲康仲康死子相立則五	-11.7266
其文約其辭	-11.7266
其言煩多不可結續以遺於君欲見君陳	-11.7266
其輕巧而不信	-11.7266
其隂氣閉而藏之故魂不	-11.7266
其頭鑽刻瓊四面	-11.7266
冥之神徧行淩	-11.7266
分鳴則衆芳	-11.7266
切貪也諸本作	-11.7266
刑戮之乎補曰書云方	-11.7266
初有无无有无名按	-11.7266
刻者五塞之間謂之五塞列子曰	-11.7266
則慕少艾	-11.7266
劉次莊云	-11.7266
功定地胡	-11.7266
動鳴五玉鏘鏘而和且有節度	-11.7266
勳	-11.7266
勺也音麗瓟	-11.7266
南岳	-11.7266
博樓上注云	-11.7266
博經云所擲頭謂之瓊瓊有五采刻	-11.7266
占之曰人夢登天無以	-11.7266
卻	-11.7266
厥考而	-11.7266
去世離俗	-11.7266
去君而不仕得無謂	-11.7266
參天地兮	-11.7266
又夢與雒水神宓妃交接也一本胡下	-11.7266
反還也故古也言	-11.7266
取義可也所	-11.7266
受爵位	-11.7266
古詩之義故子雲有曲終奏雅之	-11.7266
各得其命也釋文竦作慫補曰竦慫並息	-11.7266
合㑹嫁娶之時言	-11.7266
合也天期	-11.7266
名漾水東流至武都沮縣始爲漢水	-11.7266
君不建立道	-11.7266
君夕暮而身廢弃也補曰	-11.7266
君建立忠䇿必	-11.7266
君性不端晝夜謬也并一作弃一	-11.7266
君造設第	-11.7266
告也又萬章曰舜之不告而娶則吾	-11.7266
告人說一云念不可謂兮史記	-11.7266
告於天冀君覺寤且解憂思	-11.7266
告語也類法也詩云永錫爾類	-11.7266
周之分野實沈之虚晉人	-11.7266
命也或謂	-11.7266
商㑹朝	-11.7266
嗟爾幼志	-11.7266
嚅唲補曰喔音	-11.7266
嚳狄禱禖契形	-11.7266
因氣變而遂曽舉兮	-11.7266
囿苑也言騏	-11.7266
國誰能信	-11.7266
圜鑿受方枘而能合者誰有異道而相安	-11.7266
在鶉火我	-11.7266
地之圜方居	-11.7266
坎一作歁	-11.7266
坎恨也	-11.7266
坻道縣嶓冢	-11.7266
坼剖而	-11.7266
堯司徒而有功封之於商	-11.7266
堯固告之	-11.7266
壹或作一	-11.7266
夏后氏之璜璜美	-11.7266
夜光之珠	-11.7266
天圜地方	-11.7266
天地之圜方	-11.7266
天對云奮力	-11.7266
天庭據光曜	-11.7266
天撫掃彗星言願將忠正	-11.7266
天明察無所阿私惟	-11.7266
天東方皥天	-11.7266
失志也鴻一	-11.7266
失我本志曾無有	-11.7266
女以驪姬歸生奚齊驪姬嬖欲立其子使	-11.7266
女粉白黛黒立於衢間非知	-11.7266
好之巫使與日神相保樂也補	-11.7266
如鷹鳥羣飛誰使武王集聚之者乎詩曰	-11.7266
如鸞皇先戒百官將往適道而君怠	-11.7266
妖女工於服飾其	-11.7266
始何化所生乎補曰	-11.7266
始吾聞	-11.7266
姦咎	-11.7266
姦咎惡也補曰渨烏	-11.7266
威怒益盛刑酷烈	-11.7266
子椒不見	-11.7266
子注云鄭袖楚	-11.7266
孔子曰鳥則擇木木豈能	-11.7266
它國君又誣罔我	-11.7266
官有飌師雨師淮南子云雨	-11.7266
定而知之也考一作知	-11.7266
宜擾畜只	-11.7266
宰噽阿	-11.7266
家遂以	-11.7266
寛曰間言乃	-11.7266
察之也民一作人五臣云浩蕩法度	-11.7266
察審	-11.7266
寤覺也昔文公	-11.7266
寥釋文作嵺補曰泬音血嵺	-11.7266
封介山而爲之禁	-11.7266
尚父時惟鷹揚也蒼一作倉補曰詩注鷹	-11.7266
居以畢其志至	-11.7266
展詩兮㑹舞	-11.7266
山江所出	-11.7266
山澤之中	-11.7266
崇宗族	-11.7266
嵗始春	-11.7266
嶓冡導	-11.7266
已將執忠死節故以此明白	-11.7266
帝何求	-11.7266
帝謂堯也言	-11.7266
師望在肆昌何識	-11.7266
帶以上	-11.7266
常以立夏鳴鳴則衆芳	-11.7266
常居也太	-11.7266
幸君覺寤賜	-11.7266
幸姬善歌	-11.7266
幽也所謂窈	-11.7266
幽僻闇昧也言羣臣皆行枉曲	-11.7266
庶毎生是也集韻云梅母罪切慙也梅母	-11.7266
庶類斯	-11.7266
康成云凡䤈醬	-11.7266
往逢迎之補曰後漢書曰交	-11.7266
待人不	-11.7266
後嗣子孫長	-11.7266
後瘳大夫衆	-11.7266
徒年切	-11.7266
得又來迎候此乃豫之所以	-11.7266
得四白狼四白鹿自是後	-11.7266
從下焚之又命	-11.7266
御禦也	-11.7266
復命五方之帝分明言是與非也	-11.7266
復獻攻療之方何也夫子曰三折肱	-11.7266
復盡矣而	-11.7266
心力也宓一作虙五臣云虙妃以喻賢臣	-11.7266
心直指執履誠信	-11.7266
心覺自傷又痛	-11.7266
必先升用傑俊之士壓抑無	-11.7266
必失堅固敗材木也以言佞	-11.7266
必有車轍馬	-11.7266
志字藹釋文作濭一作靄	-11.7266
忠伏節死義	-11.7266
快其情也䠶一作射補曰馮音	-11.7266
忳忳然無所舒也	-11.7266
念惑亂故重侘	-11.7266
怨忽過之耳以	-11.7266
恐鵜鴂以先春分鳴	-11.7266
悵住立	-11.7266
悵惘	-11.7266
悶煩也瞀亂也忳忳憂	-11.7266
惜之也補曰屈子以爲知	-11.7266
惡輔仁賢也五臣云飛登	-11.7266
想君命	-11.7266
愆過也	-11.7266
憂心煩悶	-11.7266
懐忠正而君不知羣下	-11.7266
我又惡	-11.7266
我歌吾將	-11.7266
所㑹是謂	-11.7266
所害心中覺寤然不可變	-11.7266
所獨無賢	-11.7266
所睹愈逺也以言賢者亦	-11.7266
招䰟之具靡	-11.7266
指語也九天謂中央八方也正平	-11.7266
捕神獸以	-11.7266
揚披也	-11.7266
揚枹兮拊鼓	-11.7266
摶又象文也以喻	-11.7266
撥治也匡	-11.7266
改忠直之節隨從吹	-11.7266
故可任以道而事用之也一云	-11.7266
故指之以	-11.7266
故欲自盡也唯一作惟一無也字五	-11.7266
故殛之羽山治水之功	-11.7266
敢愛	-11.7266
文云局戲也六箸十二棊也	-11.7266
文云摶圜也其字	-11.7266
文君晉文公也	-11.7266
文王木主載	-11.7266
斑文者有	-11.7266
斬九嬰	-11.7266
新城國語云雉經	-11.7266
方道也言	-11.7266
方陽也而人左手足不如右強也又	-11.7266
於方林	-11.7266
施用背棄忠直之臣以自	-11.7266
族厲注	-11.7266
旖旎盛貌詩云旖旎	-11.7266
日月十二㑹所㑹	-11.7266
日月相推晝夜相代時運不停果何	-11.7266
旦起陞山采木	-11.7266
明月之珠不能無纇注云	-11.7266
明注云㑹甲也箋云㑹	-11.7266
春曰蒼天正平也設	-11.7266
是以獲没於祗宫史記云周穆王得驥温	-11.7266
是居則十	-11.7266
晁並朝夕	-11.7266
時甲子昧爽武王朝至	-11.7266
晦明誰能極	-11.7266
智姱好	-11.7266
晻藹猶	-11.7266
曰㞶山導江言	-11.7266
曰一葦杭之魂一作䰟杭一作航補曰	-11.7266
曰列子曰天積氣耳日月星宿亦	-11.7266
曰古人云詔靈保召	-11.7266
曰方兩小船	-11.7266
曰沓徒合切靈憲云天體於陽故	-11.7266
曰赤豹	-11.7266
曰鸋鴂春分鳴則衆	-11.7266
曲沃歸胙于	-11.7266
更造方	-11.7266
書曰中宫天極星其一明者太一	-11.7266
月鳴晝夜不止服䖍曰鶗鴂一	-11.7266
有以異兮	-11.7266
有狐疑之	-11.7266
有羿字䠶一作	-11.7266
木端所以入鑿	-11.7266
未定也故謂	-11.7266
本作折中補曰㭊與析同按史記索	-11.7266
東南至葭	-11.7266
枘而鋭切	-11.7266
枝煩挐而交橫	-11.7266
枹一作桴補曰援音	-11.7266
桂棟兮蘭橑	-11.7266
梅貪也言穆王巧於	-11.7266
棘注引	-11.7266
楚宋魏之間或謂之瓢注云	-11.7266
樂以自竭盡也補曰	-11.7266
樂而忘歸徐偃王作亂造	-11.7266
橫而不流兮	-11.7266
欲殺舜變化其態内作姦詐使舜治廪	-11.7266
欲而成其功堯當何	-11.7266
止王心王	-11.7266
止而戲之曰女	-11.7266
正淮南子九天	-11.7266
此云羣飛者士以類從	-11.7266
死不還補曰耿古幸切	-11.7266
死之不可讓則捨生而	-11.7266
殺申生	-11.7266
比干之墓	-11.7266
民生有命	-11.7266
氣上陞	-11.7266
水也水經及山海經注云漢水出隴西	-11.7266
池堯樂也承雲即雲門	-11.7266
沃姬謂太子曰君夢齊姜必速祭之太子	-11.7266
沅有茝兮醴有蘭	-11.7266
沓合也言天與地合㑹	-11.7266
沖和氣者	-11.7266
河無如尾何且狐性多疑故俗	-11.7266
注云中原地	-11.7266
涹烏禾切	-11.7266
深一作保羿	-11.7266
淵木莖非能長也所立者然也注引陶	-11.7266
渉氷凍	-11.7266
渡猶欲	-11.7266
游天地之間以泄憤懣卒從彭咸之所	-11.7266
漠益知稻即稬共粳並出	-11.7266
漾東流爲漢周禮荆州	-11.7266
澤廣逺道路	-11.7266
濿履石渡	-11.7266
濿杭一作航以一作	-11.7266
焉祭公謀父作祈招之詩以	-11.7266
無所載任也以言	-11.7266
無正補曰并並也馮	-11.7266
無道自	-11.7266
然昭明無	-11.7266
父於不義鮌績用	-11.7266
猫斑者河伯云	-11.7266
猶依神山而止	-11.7266
獨何所窮止也補曰	-11.7266
獻白雉	-11.7266
玄玉梁些	-11.7266
率土	-11.7266
王不明信用讒言而放逐	-11.7266
王也人君服飾美好故	-11.7266
珧音遥爾	-11.7266
瑟以和	-11.7266
璐音路說文云	-11.7266
環旋也言王者	-11.7266
甘如蜜也弗一作不	-11.7266
生之言也然禮記曰	-11.7266
生按禽經云巂周子規也	-11.7266
用不知厭足	-11.7266
用懐王之	-11.7266
由膝以上	-11.7266
申重也言衆人無知	-11.7266
畟	-11.7266
疑謂待	-11.7266
白玉兮為鎮	-11.7266
皆同論語	-11.7266
皆歇䳏與鴂同	-11.7266
盛爛然而明以言	-11.7266
盪滌也	-11.7266
相隨鴻溶廣大悵然	-11.7266
眩弟猶惑婦	-11.7266
矣補曰左傳曰天之有	-11.7266
知象箸必有	-11.7266
神巫也姱音戸叶韻舊苦胡切未	-11.7266
禮記鍾磬	-11.7266
禹治水有功封於	-11.7266
秋天髙朗體	-11.7266
積思累	-11.7266
穿井從上	-11.7266
窮困也補	-11.7266
立自持不隨俗人也補曰死而更生曰	-11.7266
立貌也傺住也楚人	-11.7266
章獨不然初曰長太息而	-11.7266
竿竹竿也	-11.7266
節也搷一作嗔一作	-11.7266
節猶行忠直	-11.7266
篁竹林也五臣云幽深也篁竹叢也補曰	-11.7266
簙一作博補曰	-11.7266
精明也類	-11.7266
糞壤以充幃兮	-11.7266
紂作象箸而箕子	-11.7266
紆屈也鬱愁也	-11.7266
結也理一作治一本此二句	-11.7266
緯曰横	-11.7266
縆急	-11.7266
縱不能知賢愚	-11.7266
縶	-11.7266
繫屬誰陳列也	-11.7266
繼之至於	-11.7266
羆陸機云毛赤而文	-11.7266
美行還於君前翦讒賊	-11.7266
羑	-11.7266
翏翏淮南	-11.7266
翡翠之羽	-11.7266
翾飛兮翠曽	-11.7266
者何人乎乃堯時羿非有窮羿也	-11.7266
者思古人而不得見伏節	-11.7266
者曰艾美好也戰國䇿云今	-11.7266
而吞滅之	-11.7266
而濿一作厲一注云	-11.7266
而見之者以	-11.7266
聖法度衆人	-11.7266
聖王之所厚哀也故武王伐紂封	-11.7266
聲也言吹竽	-11.7266
聽已言事可行與否也一云以	-11.7266
背而生其母之	-11.7266
背違先聖之法以意妄造必亂政治危君	-11.7266
膺而踊	-11.7266
臣云靈脩言有	-11.7266
臣巧於言語	-11.7266
臨見楚國之	-11.7266
自知爲讒	-11.7266
與共濟	-11.7266
與匏同一	-11.7266
與唐堯也咸	-11.7266
與室家相失也一	-11.7266
與纁黃以	-11.7266
與羌水合至江夏安陸縣名沔水故有漢	-11.7266
與航同許	-11.7266
舒憂娯哀兮	-11.7266
舜不告而娶固不可堯命瞽使舜娶舜雖	-11.7266
舞因名鄭舞	-11.7266
芠	-11.7266
若宓妃者欲與	-11.7266
若舟船者	-11.7266
苦桃惡木言君親近貪賊姦	-11.7266
菎玉也蔽簙箸以	-11.7266
菲菲芳	-11.7266
萃止故曰繁鳥萃棘也言墓門有棘雖無	-11.7266
葉則上文巳言緑	-11.7266
蒼鳥鷹也萃集也	-11.7266
蓱號起雨何以興之	-11.7266
薉也亂在	-11.7266
藏而日月	-11.7266
藥則成良醫乃自知其病吾被放	-11.7266
蘇世獨立	-11.7266
蘇魏都	-11.7266
虫獸當	-11.7266
蜃	-11.7266
衆盛人人曉味故飲食之和	-11.7266
行亟疾也一本云	-11.7266
行忠直欲相慕及	-11.7266
行正直願引日月使照我情	-11.7266
行犬好豫在人前	-11.7266
衍賦云并日	-11.7266
表商容之閭也補曰比干諫	-11.7266
被孋姬之	-11.7266
被明月之珠	-11.7266
補曰泊止也莽莽莫古切草	-11.7266
補曰記云祭祀之有尸	-11.7266
補曰詩云如彼雨	-11.7266
西方神鳥也東方發明	-11.7266
言其方欲售之以	-11.7266
言司命以孔雀之翅	-11.7266
言天地未分溷沌無垠誰考	-11.7266
言官爵	-11.7266
言山鬼所處乃在幽篁之内	-11.7266
言巳思望司命而	-11.7266
言日以龍	-11.7266
言日月晝夜清濁	-11.7266
言楚國境界徑路交接方千	-11.7266
言楚王方建道	-11.7266
言武王伐紂將帥	-11.7266
言申生之	-11.7266
言解居父聘吳過陳	-11.7266
設能順衆	-11.7266
詒遺也詩曰詒	-11.7266
詩云吹笙	-11.7266
該亦備也言撰設	-11.7266
誅則風俗怨而生逆暴故民心不可不	-11.7266
語云鮌違帝命則所謂順欲者順帝之欲	-11.7266
誶音䆳又音信今詩作訊	-11.7266
諸侯有公厲大	-11.7266
諸從行者失忘子推子推遂	-11.7266
謂之赤豹狸有虎	-11.7266
謂天地人三合成德其本	-11.7266
謂太公也	-11.7266
謂犬子	-11.7266
謂猶說也言	-11.7266
謂神也以喻君補	-11.7266
譏而統	-11.7266
譖出奔齊楚介子推從行道乏糧割股肉	-11.7266
譖逐放已欲使改行	-11.7266
譯	-11.7266
讒人誣謗被以惡名也補曰	-11.7266
讒人雖欲困巳巳受天性終不可變易也	-11.7266
讓辭也言人知命將終可以建	-11.7266
豆切目不明也	-11.7266
豹有白豹詩	-11.7266
賤之後是知虙之與伏古來通用誤以	-11.7266
路遥逺周流	-11.7266
蹇兮姣服言神降而託於巫也下文亦曰	-11.7266
躊躇進退	-11.7266
身也謂晉大夫解居父	-11.7266
身分散竟地何	-11.7266
身知剛而	-11.7266
身神人同好故折芳馨相遺以	-11.7266
車也其字從木音同義	-11.7266
轉相鈎狀若交竹竿以手	-11.7266
轉至崑崙神明之	-11.7266
辰十一月	-11.7266
辰在星紀十二月辰在	-11.7266
辰故以配日注云一	-11.7266
迥	-11.7266
通云里語稱狐欲渡	-11.7266
道乃使靈巫常持好劒以辟	-11.7266
道路也補曰思美人曰媒絶路阻兮言不	-11.7266
遥猶漂遥放流	-11.7266
適狷狹之志也士女雜坐亂而不分指以	-11.7266
遵一作循	-11.7266
遺余佩兮醴浦	-11.7266
還意也而一作以五臣云結芳草自	-11.7266
還歸則與	-11.7266
都入郢門欲以感激	-11.7266
配天能	-11.7266
釋文毎磊切其字從木傳寫誤	-11.7266
長嘯大呼以招君也夫嘯者隂也呼	-11.7266
長太息兮將上心低佪兮顧懷	-11.7266
門也昭明也所謂大明之上	-11.7266
門郢城門也宋玉設呼屈原	-11.7266
闗梁閉而不通	-11.7266
隂氣盛而多雨	-11.7266
隂純陽一晦一明誰造	-11.7266
雄鳩多聲言使辨捷之士往聘忠賢	-11.7266
雖放逐不以窮困易其	-11.7266
雖逺遊戲	-11.7266
雙陸碁也古博經云博法二人相對坐向	-11.7266
難知誰能	-11.7266
雲䝉䝉	-11.7266
零落皆	-11.7266
雷為諸侯以	-11.7266
霙也一曰雨雪雜	-11.7266
露一云瀓霧露補曰馮	-11.7266
露斯源一作	-11.7266
靈神也脩逺也能神明逺見者君	-11.7266
靈連蜷兮	-11.7266
非邪願	-11.7266
革孽夏民封狶是射	-11.7266
音媒亦非也左傳云穆王欲肆其心周行	-11.7266
頥	-11.7266
顔眉平直美目竊眄媔然黠慧	-11.7266
願勿辭讓而自愛	-11.7266
願復令六宗之神對	-11.7266
願思也路	-11.7266
風乎倘佯補曰尚	-11.7266
養其羽翼一飛則見山川	-11.7266
首而脩頸	-11.7266
馮挾也珧弓名	-11.7266
馳於天地之間	-11.7266
騷經九章皆託	-11.7266
驪驊駵騄耳	-11.7266
髀	-11.7266
髙宗夢得說	-11.7266
鬱邑愁	-11.7266
鮌堯臣也言鮌行婞很勁直恣心自	-11.7266
鳴也琳音林琅音郎俗作瑯爾雅曰西北	-11.7266
鵜音提	-11.7266
鷹之飛揚按詩鷹揚指尚父	-11.7266
鸞以象鳥之	-11.7266
鸞鳥鳳皇	-11.7266
麒麟仁獸也	-11.7266
麒麟奔於九	-11.7266
麟	-11.7266
齒二人	-11.7266
􁙤	-11.7266
鮑	-11.7266
鋏	-11.7266
慮煩	-11.7266
柰何	-11.7266
以法地	-11.7266
航	-11.7266
燎	-11.7267
而不自知	-11.7267
喻君子	-11.7267
交趾	-11.7267
而莫余知兮	-11.7267
王彦	-11.7267
戚之謳歌兮	-11.7267
眙	-11.7267
以五羖之皮贖之	-11.7267
管管仲百百里奚也管仲	-11.7267
里奚晉徒	-11.7267
魯所囚齊桓釋而	-11.7267
以危身乎	-11.7267
以媮生乎	-11.7267
何羿之	-11.7267
去塵埃之間離羣慝之紛吸	-11.7267
喔咿儒兒	-11.7267
佩帶也	-11.7267
其華未發為菡萏已	-11.7267
涹	-11.7267
為衣裳被服愈潔修善益明	-11.7267
貶	-11.7267
永嘉譜	-11.7267
白蒻	-11.7267
以法天	-11.7267
仁傑按説文	-11.7267
以須明	-11.7267
洞庭之山	-11.7267
之君乃來下也以言	-11.7268
皆避而逺去駒即騏驥也跳走	-11.7268
之晨鳴兮于	-11.7268
九天之神使㑹北極之星舉虹采	-11.7268
以指麾四方	-11.7268
何惡輔弼	-11.7268
倒垂	-11.7268
在位食重	-11.7268
文作鶩一無夫字五臣云	-11.7268
視楚國山林長逺遼遼	-11.7268
駶音局一本駒亦音衢六切	-11.7268
浩切馬	-11.7268
濁喻亂	-11.7268
霅	-11.7268
思也土一	-11.7268
漁父皆賦也後之作者茍得其一體可以	-11.7268
蕭統作文選自騷經卜居漁父之外九歌	-11.7268
離愁苦補曰	-11.7268
霜降	-11.7268
黒水出	-11.7268
㭊猶分也言	-11.7268
上中下	-11.7268
上指蒼天使正平之也夫	-11.7268
不明也音	-11.7268
且待日	-11.7268
之不察兮	-11.7268
云惡釋	-11.7268
云規矩法則也	-11.7268
五帝謂五方神也東方爲太	-11.7268
人所負何罪而見徙也天對	-11.7268
以喻國也績功	-11.7268
位也惜君國失賢道	-11.7268
余也一無其字	-11.7268
使樂正子占之言	-11.7268
使百工營求諸野得諸傅巖	-11.7268
使芳草為藪幽	-11.7268
使貞臣為無由	-11.7268
供神之	-11.7268
偷為逸樂則中正之路塞矣隘狹也逺遊	-11.7268
力者也論曰澆盪舟言澆無義淫佚其嫂	-11.7268
卜居章句第六	-11.7268
去其八然司馬相如大人賦率用逺遊之	-11.7268
合則去同	-11.7268
同姓諸	-11.7268
君者兾及先王之	-11.7268
君行事之失	-11.7268
含視又	-11.7268
嗷嗷呼聲也寂	-11.7268
失次不得	-11.7268
嫮目	-11.7268
屈原傳獨載懐沙之賦	-11.7268
山蘄	-11.7268
山鬼之狀體含妙	-11.7268
帝西方爲少昊北方爲顓頊中央爲	-11.7268
康安也言巳動作衆樂合	-11.7268
往至其	-11.7268
徳行彌盛也	-11.7268
心為之悲而	-11.7268
悠長周	-11.7268
慱	-11.7268
憂也自一	-11.7268
成之臺淮南子曰有娀在不周之北長女	-11.7268
所去取未必當也自漢以來靡麗之賦勸	-11.7268
所爲無可也	-11.7268
擠子	-11.7268
文云南楚謂眄曰睇眄眠	-11.7268
文云閶天門也闔門扇也	-11.7268
文辭尚在可求索也	-11.7268
明也逸以	-11.7268
晨來下浮雲依斐承我屋	-11.7268
東方朔七諫云	-11.7268
沛吾乘兮桂舟	-11.7268
泠傳	-11.7268
注云舜兼	-11.7268
浞羿相也爰於也眩惑也言浞娶於純狐	-11.7268
涕思故	-11.7268
漢武陵郡有辰陽注云三山	-11.7268
潢潢大	-11.7268
無匹者也及漢宣嗟歎以	-11.7268
無端兮	-11.7268
爭者非難身之被殃咎也但恐君國傾	-11.7268
瓶	-11.7268
異姓事君不	-11.7268
百而諷	-11.7268
皇君也輿君之所	-11.7268
目盼然又好口齒而	-11.7268
眩惑愛之遂與浞謀殺羿也補曰寒	-11.7268
睹有娀氏美女思得與共事君也佚釋文	-11.7268
而陵殆或謫之	-11.7268
聊以娛心兮	-11.7268
腴	-11.7268
臣不明惑於貪濁	-11.7268
臨髙山些	-11.7268
船也遷徙	-11.7268
西伯聞	-11.7268
覆葅	-11.7268
視也一曰目小視也	-11.7268
謂巳不忠遂外	-11.7268
貪惜以忠事君而志不合	-11.7268
赤瑾美玉也言乃藏	-11.7268
走先後以輔翼	-11.7268
路道也幽昧不明也險隘	-11.7268
身而當中	-11.7268
車江離者乎	-11.7268
逺行千里不敢顧念身之貧賤	-11.7268
鄭詹尹	-11.7268
長劒兮	-11.7268
長卿	-11.7268
門屈原亦以	-11.7268
間習以都只	-11.7268
間靜時也補曰淮南曰薄于虞淵是	-11.7268
閶闔喻君門也	-11.7268
閶闔文選注云閶闔天門也王者因	-11.7268
雄作伴牢愁亦旁惜	-11.7268
離一作蘺	-11.7268
非玉以其欺謾斬其一足	-11.7268
音同補曰嗷嗷衆口愁也噭呼也音	-11.7268
順風波以	-11.7268
鳥鳦也湯之	-11.7268
齊桓九會	-11.7268
䎖	-11.7268
䰟隂主魄故必	-11.7268
一二丈	-11.7268
一云喔咿強顔	-11.7268
一作濛補曰爍書	-11.7268
一本結下有而字	-11.7268
一畫者謂	-11.7268
三合而形神	-11.7268
下有回屋仙人九府所治又一	-11.7268
下有心字	-11.7268
下而求索之也天對曰穆懵祈招	-11.7268
不勝衆	-11.7268
不可開寤語以政道尚不别繒	-11.7268
不期而到皆	-11.7268
不能知人善惡	-11.7268
不能隨從俗人傾易	-11.7268
不解乃歎唫離騷之經以揚	-11.7268
世家武王卒子文王立文王卒子	-11.7268
中旣以邃逺	-11.7268
中衆人貪佞故託	-11.7268
中鬱邑惆	-11.7268
主於郊	-11.7268
主有虞主練主尸神	-11.7268
乃以屈子與後	-11.7268
乃信知	-11.7268
乃周旋天	-11.7268
之二君也夏	-11.7268
之别稱耳徐	-11.7268
之墓門見婦人負其	-11.7268
之大者屈原之憂憂國也其樂	-11.7268
之女也晉大夫解居甫使於宋道過陳遇	-11.7268
之後俗字以	-11.7268
之急風	-11.7268
之戒以作歌逸不見全書故以	-11.7268
之政害仁賢也雲霏霏而	-11.7268
之於旌旗晻藹旌旗蔽	-11.7268
之翔歸有	-11.7268
之蔽秦晉之間謂之簙	-11.7268
之行者不可以安其	-11.7268
之語獨逺	-11.7268
之道者君	-11.7268
乎一無又字代一作伐補曰	-11.7268
乗回風兮載雲旗	-11.7268
乘雲浮兮	-11.7268
乘騏驥而馳騁兮	-11.7268
九嶷繽兮並迎	-11.7268
九州以成萬邦人有九竅以通精明屈原	-11.7268
九辯章句第八楚	-11.7268
也㑹二氣之和極發揮之美者不可以柔	-11.7268
也一本揚下有	-11.7268
也乃與幼艾又齊王有七孺子注云孺子	-11.7268
也五臣云薆亦盛也補曰薆	-11.7268
也其字從目並	-11.7268
也女即羲和馬	-11.7268
也張施	-11.7268
也或曰麗姬艾封人之子也故美	-11.7268
也言我指九天	-11.7268
也言房内則以蒻席薄牀四壁及	-11.7268
也言舞者廻旋衣衽掉揺	-11.7268
也象罔象也皆水中神	-11.7268
也馬駕車者也御之者羲和	-11.7268
于有洛之表十旬弗反有窮后羿因民弗	-11.7268
云工祝	-11.7268
云望孟夏之短夜	-11.7268
云歈歌也徐鉉曰	-11.7268
云此物善聽氷下	-11.7268
云猶是玃	-11.7268
云獨隂不生獨陽不生獨天不生三合然	-11.7268
云琅玕是石之美者明瑩若珠之色此言	-11.7268
云而後嗣逢長天對云象不	-11.7268
五十里水經云沅水東逕	-11.7268
五彩之鳥翳	-11.7268
五穀	-11.7268
五臣云委曲順俗也	-11.7268
五臣云靈氛曰	-11.7268
五音宫商角	-11.7268
五音紛兮繁㑹	-11.7268
亡三代之王是不	-11.7268
亦運轉其言埃塵忠直	-11.7268
人羿射其左目注云	-11.7268
仁人之於	-11.7268
仁賢若鸞鳳之人	-11.7268
以其用心浩蕩	-11.7268
以喻讒邪百草	-11.7268
以多雨者羣下專擅施恩惠	-11.7268
以我爲法	-11.7268
以春分鳴也	-11.7268
以治於國	-11.7268
以能有聖德憂勞天下乎地一	-11.7268
以蔽君之	-11.7268
以賔客之禮棘急也言	-11.7268
以追曲兮	-11.7268
伏生即子	-11.7268
休勿休故曰叔旦不嘉也到一作	-11.7268
伯長也林君也謂晉太子申生	-11.7268
估	-11.7268
但勤力逺去	-11.7268
但見曠野	-11.7268
位勢視忠正之人當何如乎甚於	-11.7268
何能壯大	-11.7268
作箸象牙	-11.7268
作篇章	-11.7268
作遣五臣云	-11.7268
佩繽紛以繚轉兮	-11.7268
使異姓代之	-11.7268
使百草華英摧落芬芳不	-11.7268
來歸還古	-11.7268
侍君之間些	-11.7268
俱沐咸	-11.7268
倍也言選擇名工巧	-11.7268
倡獨倡而無	-11.7268
偃蹇而舞芬芳菲菲盈滿	-11.7268
備而無名將所以	-11.7268
傷離散之交亂兮遂側身而	-11.7268
億也億一作意	-11.7268
兄龔而奮以謀	-11.7268
先我得娀簡狄也遺一	-11.7268
克傷於矢	-11.7268
兩畫者謂之白刻	-11.7268
共一爵故言重侯也補曰公侯伯	-11.7268
其國灼其骨以數	-11.7268
其志絜其行	-11.7268
其扶桑爰始而登照曜四方日	-11.7268
再舉靈氛之	-11.7268
冬生禀氣純也	-11.7268
凌雲之意然其語	-11.7268
凛然	-11.7268
凶怒嗣用紹厥愛	-11.7268
切一曰禍福未定	-11.7268
切傳曰知	-11.7268
切經傳多作鰥書曰有鰥在	-11.7268
切訾音貲哫訾以	-11.7268
刋於羅田	-11.7268
列子云龍伯之國有大人舉足不	-11.7268
列補曰六韜云武王	-11.7268
則歈盖歌	-11.7268
剛滯其用不得以隂陽分其名故歸於	-11.7268
力始作之	-11.7268
力香切鑿音漕穿孔	-11.7268
功引榖梁	-11.7268
勤勞也屠裂剥也言禹	-11.7268
北方幽昌	-11.7268
千里城上安金臺五所玉樓十二	-11.7268
卉補曰爾雅云	-11.7268
南方赤天西	-11.7268
危覆也補曰	-11.7268
即六龍見	-11.7268
即時還車將即中土乃使	-11.7268
即虙羲	-11.7268
原履行清潔以厲其	-11.7268
原書目録	-11.7268
厲其勇武流其	-11.7268
厲又廣志云蕙草	-11.7268
厲怒勢氣益盛援一	-11.7268
厲王之末發而觀之	-11.7268
去之賢臣驚怖奔亡	-11.7268
去何之乎補曰言欲髙	-11.7268
又曰蜃小者珧注云王珧即小蚌也	-11.7268
受禮天下言受王者之	-11.7268
受禮遺	-11.7268
古今人表有	-11.7268
古侯切	-11.7268
可致千里	-11.7268
史記曰原死之後	-11.7268
合於仁義乃	-11.7268
名滅猶	-11.7268
吐忽切滑也滑音	-11.7268
君䰟作衣乃使秦人織其	-11.7268
君下能	-11.7268
君九族室	-11.7268
君言之也作一作非一本忠	-11.7268
君闇不明羣下貪	-11.7268
吳王闔廬	-11.7268
周成王時州靡國獻狒人身反踵自笑笑	-11.7268
周有吕旦散	-11.7268
呼蒼天言	-11.7268
和然則傳所謂天盡名其沖和之功	-11.7268
咸怨述大禹	-11.7268
唲曲從	-11.7268
商之音備其禮樂也補曰史記契	-11.7268
喻君山以喻臣	-11.7268
嗷而呼山野寂	-11.7268
四方何	-11.7268
因迎貞女如洛水之神使	-11.7268
困控	-11.7268
固時俗之溷濁兮志	-11.7268
園圃皆	-11.7268
在先君	-11.7268
在賁禺東	-11.7268
垠岸涯也曽重也閎	-11.7268
堯時羿射十日繳大風殺	-11.7268
塗塗	-11.7268
壇祭寒暑也	-11.7268
多出於此至其妙處相如莫能識也	-11.7268
夜晈晈兮	-11.7268
大也言已所在之	-11.7268
大者又老子曰豫兮若	-11.7268
大阜陸	-11.7268
天地人非也榖梁注云古人稱萬物負隂	-11.7268
天地心神仙所居五帝	-11.7268
天子傳後世如	-11.7268
天子封象於有	-11.7268
天有九重誰	-11.7268
天祐也五臣云	-11.7268
天西北幽天	-11.7268
太史公作傳以	-11.7268
奏大吕些	-11.7268
奔竄於	-11.7268
女也離騷以美女喻賢臣此言人君當遏	-11.7268
妙讀者有	-11.7268
妻舜	-11.7268
姓可不	-11.7268
姚舜姓也言堯不告舜	-11.7268
姧	-11.7268
姧臣之浮	-11.7268
嫌疑肖	-11.7268
子推也	-11.7268
子胥懼	-11.7268
子豈有家居閭巷之理	-11.7268
孰虛偽之可長	-11.7268
它皆放此難乃	-11.7268
宓或復加山子賤碑云濟南	-11.7268
宓羲氏宓音伏字本作虙顔氏家訓	-11.7268
室其堂	-11.7268
室屋沈没與天連也或曰日以	-11.7268
害也補曰史記武王東觀兵	-11.7268
宵夜也詩云肅肅宵征	-11.7268
寒而右凉地不滿東南右熱而左温	-11.7268
射補曰䠶食亦切下同妻心計切此	-11.7268
將行恐帝嚳	-11.7268
尊稱漢遂因之唐五臣注文選云古人質	-11.7268
對也服事也言已	-11.7268
小唫謳	-11.7268
小弁之怨	-11.7268
就同志也或曰鸞皇以下皆大	-11.7268
尸主也集	-11.7268
尸子云五尺犬	-11.7268
山之上而臨百仞	-11.7268
山之所一釣而連六鼇合負而	-11.7268
崇廣宫室紂果作	-11.7268
崑崙在九海中	-11.7268
川在尋陽江	-11.7268
州學	-11.7268
工巧也男巫曰祝背	-11.7268
工纒而縛之堅而且好也	-11.7268
左傳曰臣	-11.7268
巷太康	-11.7268
帝嚳喻諸國賢君	-11.7268
帝樂也屈原得	-11.7268
常道賢人	-11.7268
幡	-11.7268
幬輕且涼也補曰幬禪帳也音	-11.7268
平正之	-11.7268
幸復一見君陳忠言還	-11.7268
幽居遇雨愁思茫	-11.7268
度以從忠	-11.7268
度而知之乎	-11.7268
廣水心迷不知	-11.7268
廩一作凜五臣云秋氣	-11.7268
弆	-11.7268
引朝㩃阰之木蘭阰	-11.7268
弟不藏怒不宿	-11.7268
弟弑杜敖自立是	-11.7268
形容異制且鮮明也五臣	-11.7268
後人因加此字按楚	-11.7268
從仙人上	-11.7268
微霜凄愴	-11.7268
徳譽配天萬民理只	-11.7268
必孔子弟子宓子賤	-11.7268
忍距于河	-11.7268
忠信又以嘉言而納於君也補曰遺	-11.7268
忠直之害也一云九折臂而	-11.7268
忠直之害也文選無不字五臣云撫持也	-11.7268
忠言外好武	-11.7268
急欲奉行天誅	-11.7268
怨封之有	-11.7268
息自恨懷道不得	-11.7268
情顔色	-11.7268
惑不知道路當	-11.7268
惡心惑意迷而不自知	-11.7268
感切藹靄濭	-11.7268
慮之心上指九天告語神明使	-11.7268
憛他闇	-11.7268
成猶重也淮南云桀紂	-11.7268
成王則淮南	-11.7268
我去國亦守節度而行	-11.7268
我嚴裝未具余一作我	-11.7268
所作忠而言之兮指蒼天以	-11.7268
所作樂也言	-11.7268
承顔色	-11.7268
拔取也南楚語	-11.7268
拙	-11.7268
招呼君倍道先行導以在前	-11.7268
握咿音伊嚅音儒唲	-11.7268
搴汀洲兮杜若	-11.7268
擇鳥子思曰君子猶鳥也	-11.7268
擊鳥也月令曰鷹隼蚤	-11.7268
擥木引堅據持根	-11.7268
攬采也水中可居	-11.7268
改乎此度也五臣云何不早	-11.7268
改此法	-11.7268
文云珧蜃	-11.7268
文云豫象之	-11.7268
文質疏内兮	-11.7268
方成天	-11.7268
方無所阿私善者佑之惡者誅之	-11.7268
方蒼天東北變天北方	-11.7268
方言曰好或	-11.7268
方道也五臣云營	-11.7268
於内榮譽外發功	-11.7268
施行萌牙之	-11.7268
旗委	-11.7268
日而論其識如此則其文可	-11.7268
旦切巷里中道也此言太康娛樂放	-11.7268
旦周公名也嘉善也言武王始	-11.7268
明使楚國闇昧將	-11.7268
春兮汩吾南征	-11.7268
春秋合誠圖云軒轅	-11.7268
是新序之	-11.7268
時不順龜燋不兆	-11.7268
晚也美人謂	-11.7268
晞女髪兮陽之阿	-11.7268
晻藹暗也冥也晻	-11.7268
暨志介而不忘	-11.7268
暮後諸神也五臣云言	-11.7268
暮而功不成事	-11.7268
曦	-11.7268
曰休哉周公曰雖	-11.7268
曰到者自逺而至也周公武	-11.7268
曰激衝激急風也結風	-11.7268
曰紂可伐也白魚入	-11.7268
曰翾小	-11.7268
曰規方曰	-11.7268
曲猶鮌婞很終獲	-11.7268
有亂少歌之不足則又發其意而	-11.7268
有似月光故曰	-11.7268
有求忠臣而不擇取汝者	-11.7268
有鴞汝獨不愧也補曰列女傳陳辯女者	-11.7268
木如此上下故稱猶豫水經引郭	-11.7268
未必一如	-11.7268
杜敖其	-11.7268
杯必盛	-11.7268
東西霧氣晦冥	-11.7268
枻音曳	-11.7268
梟楊	-11.7268
楊子曰狂接	-11.7268
楚有宋玉唐勒景	-11.7268
楨	-11.7268
槁枯也	-11.7268
樂天也離騷二十五篇	-11.7268
欲假笙簧	-11.7268
欲承順求媚以	-11.7268
欲橫奔而失路兮	-11.7268
歈謳皆歌也	-11.7268
歌而過孔子	-11.7268
正也蓀一作荃五臣云蓀香草	-11.7268
此也補曰廩	-11.7268
歸乎海傷已放	-11.7268
死義而	-11.7268
殛於羽山屈原舉以自比者申	-11.7268
殤鬼也左傳曰晉侯夢大厲搏	-11.7268
殷亡傳周比三代莫敢發也至	-11.7268
水之人善歌舞漢	-11.7268
水出焉	-11.7268
汜汜鳥浮	-11.7268
汝謂司命九河天河也	-11.7268
池乾髪陽阿齋戒潔巳兾	-11.7268
河津氷始合車馬不敢過要須狐行	-11.7268
洛之汭五子	-11.7268
洛神賦云	-11.7268
淫泆肆其情欲婦人則引詩刺之曰墓門	-11.7268
淮南云矰繳機而在上	-11.7268
淮南曰日出湯谷浴	-11.7268
湊東	-11.7268
滔蕩廣大	-11.7268
滿路動履芳潔	-11.7268
潔一作絜	-11.7268
激楚之遺風上林賦云鄢郢	-11.7268
濁重者下	-11.7268
濕泥濘也補曰	-11.7268
為謾而㫁其	-11.7268
烈之氣豈與	-11.7268
焉名曰射干莖長四寸生於	-11.7268
焉此言鼇在海中其負山若舟之	-11.7268
無所程量其才力也以言賢臣不遇	-11.7268
無水乃過人見狐行方渡按風俗	-11.7268
然與史記	-11.7268
熊囏立是	-11.7268
熊羆猛獸以喻貪殘也	-11.7268
熒絹切淮南云	-11.7268
營之營度也記曰請班諸兄弟之貧者班	-11.7268
爰於也喟息也言	-11.7268
爲圜其常法度尚未廢也	-11.7268
物而用之與度相中當故言折中也中陟	-11.7268
狸結桂與辛夷	-11.7268
猖洋以游輪行九	-11.7268
献	-11.7268
猶由柚二音顔氏家訓	-11.7268
猶身有病人	-11.7268
獸也言羿不	-11.7268
玄文處幽兮	-11.7268
王者備位而巳五子之失乎家	-11.7268
王舟羣臣咸	-11.7268
琁	-11.7268
璆琳美玉名琅玕狀	-11.7268
瓠	-11.7268
生白花	-11.7268
生述征記云	-11.7268
用退而商賈宿齊東	-11.7268
由陽升	-11.7268
甲而射	-11.7268
男同謂之諸侯三圭比子男	-11.7268
畋	-11.7268
當世之君皆闇昧惑亂不分善惡誰當察	-11.7268
疑之則舉矣色斯舉矣翔	-11.7268
發言奉文王以伐不敢自專	-11.7268
皆好辭而以賦見稱皆祖屈原之從容辭	-11.7268
皆歸於中理而	-11.7268
皮似桂而香狀如楠樹	-11.7268
盈數歩而	-11.7268
盖仲康以來羿勢	-11.7268
盛壄埜	-11.7268
盛壯之年廢弃道	-11.7268
盛曰壯棄去也穢行之惡也	-11.7268
盟津	-11.7268
直不能枉性以追曲俗	-11.7268
直贏在位	-11.7268
相如作大人賦宏放	-11.7268
眩弟並淫危害厥兄	-11.7268
矣粢子夷切本草	-11.7268
石上者	-11.7268
祖采其聲	-11.7268
祭日也夜明祭月	-11.7268
禮於天下也有德則興無德則	-11.7268
禽獸往營所以施禄惠	-11.7268
秋節之悲故託言秋之	-11.7268
秦所誘客	-11.7268
秦皇漢武託	-11.7268
積氣中之有光曜	-11.7268
端而知其存亡善惡所終非	-11.7268
筮不吉妖	-11.7268
箸	-11.7268
節其樂	-11.7268
紂載文王木主稱太子發	-11.7268
紛吾乘兮	-11.7268
紫相亂國將傾危也夫君不思慮則忠臣	-11.7268
累仁	-11.7268
終莫敢直諫辯一作辨	-11.7268
絡齊人作綵縷鄭國之	-11.7268
網戸	-11.7268
綿一作緜補曰	-11.7268
縱以至失邦耳逸	-11.7268
繁衆也五臣云繁	-11.7268
罪罰補曰申生之孝未免	-11.7268
義受天命而	-11.7268
羽翼弱水暮宿風穴注云風穴北	-11.7268
翼遥遥其左右	-11.7268
老陽數也	-11.7268
者佞人並	-11.7268
者六埋少牢於太昭祭時	-11.7268
者曰洲草冬生不	-11.7268
者曰靈保	-11.7268
者樂之容古有	-11.7268
者秋夜方長而夏夜最短憂	-11.7268
者預見	-11.7268
而制之	-11.7268
而大歌也浩大也補曰怳敞怳也許	-11.7268
而妻之如令告之	-11.7268
而攄虹兮	-11.7268
而生蘂實也累香草之實執持忠信	-11.7268
而言曰余	-11.7268
耶言忠佞	-11.7268
聞人聲乃	-11.7268
胡亢瀣胡介	-11.7268
能遷徙山乎	-11.7268
臣云揚舉也雲霓虹也畫	-11.7268
臣莫若君	-11.7268
臨中國之衆人	-11.7268
臨沅湘之玄淵兮	-11.7268
自漂疾然歌樂者猶復依激	-11.7268
至也五臣云以喻望君之使未至臨風	-11.7268
至孟津八百諸侯	-11.7268
與帝舜言稱朕屈原曰朕皇考至	-11.7268
與日月同光明也夫	-11.7268
與曲隅復施羅	-11.7268
與朔同	-11.7268
興於唐虞大禹之際此言賔	-11.7268
舍沆瀣	-11.7268
般與服	-11.7268
良巫也君謂原言良巫背行	-11.7268
芷葯	-11.7268
若水中之鳬	-11.7268
若飛似翠鳥之舉也補	-11.7268
茫無所依歸	-11.7268
草木盛茂也	-11.7268
菉蘋齊葉兮白芷生	-11.7268
蓍也立	-11.7268
蔽也然	-11.7268
蘭香草鬱鬱	-11.7268
處也祠祀皆欲得壽故名	-11.7268
處於深林	-11.7268
衆人薆然而蔽之傷	-11.7268
衡和著於軾啾啾鳴聲也	-11.7268
衰也有二神龍止於夏庭	-11.7268
被離謗而見尤	-11.7268
補曰億度也論語曰億則屢中意與	-11.7268
補曰歈音俞古賦云巴俞宋蔡說文	-11.7268
補曰淮南曰日至悲泉	-11.7268
補曰鴟稱脂切	-11.7268
西方昊天	-11.7268
視忠正之	-11.7268
言君心常惑而	-11.7268
言天圜而九重誰營	-11.7268
言天晝夜轉旋	-11.7268
言射河伯妻雒嬪	-11.7268
言小人智少慮狹	-11.7268
言巳所以怨	-11.7268
言巳雖升崑崙過不周渡西海舞九韶陞	-11.7268
言我佩瓊	-11.7268
言文公遂以介山之民封子推	-11.7268
言橘葉青其	-11.7268
言武王發欲誅殷紂何所	-11.7268
言求媚也慄音栗謹敬也粟讀	-11.7268
言白水出崑崙之山	-11.7268
言飄風轉運揚起塵埃揺	-11.7268
訊告	-11.7268
訟閭娵好女也言君親信	-11.7268
詞人同	-11.7268
詞巳有此語	-11.7268
詭隨也斯讀若	-11.7268
該備也	-11.7268
[...]
