<unk>	0
<s>	0
</s>	0
/	-3.66883
(	-4.17006
)	-4.18815
之	-4.41661
)(	-4.5343
也	-4.84401
而	-5.05655
以	-5.05937
有	-5.27867
為	-5.32418
其	-5.44865
於	-5.50682
不	-5.54176
▁	-5.60203
者	-5.6231
曰	-5.6273
人	-5.68235
作	-5.6981
一	-5.81159
無	-5.85173
自	-5.98034
在	-5.98198
與	-6.00171
則	-6.01782
上	-6.02605
詩	-6.06621
公	-6.07321
言	-6.08795
時	-6.09765
如	-6.1037
中	-6.14767
行	-6.15624
爲	-6.16052
見	-6.1647
大	-6.21501
此	-6.24147
子	-6.25839
山	-6.27134
字	-6.28771
書	-6.30009
天	-6.30598
下	-6.31327
生	-6.32186
云	-6.353
是	-6.37035
故	-6.39019
王	-6.41029
得	-6.4122
至	-6.41593
日	-6.42348
事	-6.44274
所	-6.44358
出	-6.45239
水	-6.48051
道	-6.48082
又	-6.50354
去	-6.53062
文	-6.53688
長	-6.53875
傳	-6.54623
于	-6.56028
皆	-6.56084
君	-6.56503
相	-6.58094
今	-6.58154
謂	-6.58438
乃	-6.58442
心	-6.58842
多	-6.58939
一作	-6.59809
來	-6.60001
風	-6.60322
非	-6.60624
三	-6.61026
同	-6.61086
矣	-6.61894
亦	-6.62116
歸	-6.62131
名	-6.63841
切	-6.65457
音	-6.6667
入	-6.67673
後	-6.68652
若	-6.70528
我	-6.71793
可	-6.74857
使	-6.75013
方	-6.75577
當	-6.75595
將	-6.75789
雲	-6.76211
或	-6.76257
乎	-6.76583
春	-6.77753
知	-6.78528
用	-6.78893
前	-6.80545
然	-6.81881
何	-6.81981
及	-6.83313
未	-6.83488
從	-6.83979
聲	-6.84233
成	-6.84306
欲	-6.84946
地	-6.84989
聞	-6.85683
復	-6.85787
二	-6.86052
兮	-6.8617
明	-6.86413
白	-6.88697
官	-6.902
州	-6.90388
洙曰	-6.91683
髙	-6.9172
思	-6.93251
居	-6.93617
月	-6.93967
逺	-6.94523
馬	-6.94681
石	-6.94702
重	-6.94839
南	-6.95142
已	-6.98005
清	-6.98788
門	-6.99177
正	-6.99677
因	-6.99774
家	-6.99852
焉	-7.00101
花	-7.00358
本	-7.00912
即	-7.01602
臣	-7.01944
能	-7.03617
令	-7.03896
命	-7.03966
過	-7.04691
五	-7.05393
平	-7.05573
意	-7.05593
西	-7.05749
注	-7.05996
金	-7.07052
空	-7.07618
新	-7.078
盡	-7.07839
李	-7.07962
秋	-7.08475
身	-7.08706
雖	-7.08831
深	-7.09096
東	-7.09264
安	-7.10534
古	-7.11051
猶	-7.11234
四	-7.11377
神	-7.12034
年	-7.12352
漢	-7.13216
客	-7.14234
城	-7.15031
朝	-7.1555
望	-7.15685
張	-7.15703
國	-7.15739
常	-7.1646
且	-7.16531
還	-7.16843
流	-7.17422
必	-7.17718
小	-7.18298
老	-7.188
元	-7.18833
賦	-7.19372
分	-7.19478
開	-7.19948
先	-7.19953
玉	-7.20017
吾	-7.20338
遂	-7.2078
江	-7.2128
飛	-7.21443
起	-7.21789
應	-7.22266
巳	-7.2294
氣	-7.23559
初	-7.23688
送	-7.237
難	-7.24189
通	-7.24925
語	-7.25163
樂	-7.25267
經	-7.25501
問	-7.25701
師	-7.26049
歌	-7.26437
舊	-7.2675
死	-7.26785
酒	-7.26804
光	-7.27029
合	-7.27242
寄	-7.27418
獨	-7.27473
和	-7.28024
處	-7.28083
夜	-7.28841
别	-7.30084
更	-7.31024
耳	-7.31846
始	-7.32191
北	-7.3221
立	-7.32475
兵	-7.32781
少	-7.33739
周	-7.34803
樹	-7.35195
實	-7.35811
龍	-7.36273
好	-7.36837
或作	-7.37363
惟	-7.38235
遊	-7.38261
觀	-7.38785
士	-7.39209
既	-7.39243
路	-7.39522
寒	-7.3966
九	-7.39952
數	-7.39992
唐	-7.40004
兩	-7.40004
莫	-7.40169
物	-7.40292
志	-7.40899
善	-7.41
發	-7.41371
外	-7.4165
情	-7.41734
高	-7.42203
間	-7.42396
世	-7.42548
食	-7.43033
守	-7.43093
陳	-7.43473
取	-7.4361
雨	-7.44119
義	-7.44239
華	-7.44679
○	-7.44869
論	-7.4504
似	-7.45041
帝	-7.45422
色	-7.45429
贈	-7.45699
縣	-7.45798
禮	-7.46706
興	-7.47064
軍	-7.47778
黄	-7.47824
夫	-7.48129
六	-7.49163
法	-7.49199
舉	-7.49375
豈	-7.49451
草	-7.49746
尚	-7.49774
秦	-7.49834
稱	-7.49954
近	-7.50147
絶	-7.50804
等	-7.50924
陽	-7.51369
青	-7.52051
武	-7.52476
諸	-7.52485
衣	-7.52495
終	-7.52565
坐	-7.53238
郡	-7.53667
直	-7.53857
求	-7.54261
海	-7.54271
易	-7.54373
落	-7.54396
信	-7.54627
向	-7.55731
記	-7.55822
對	-7.56282
林	-7.56551
登	-7.56794
臨	-7.58242
辭	-7.58492
動	-7.58676
氏	-7.5888
曲	-7.59027
理	-7.59442
封	-7.59627
女	-7.60108
謝	-7.60383
集	-7.60515
不可	-7.61116
竹	-7.61163
亂	-7.61363
靈	-7.61762
異	-7.61892
齊	-7.62235
宜	-7.62389
表	-7.62481
學	-7.62627
車	-7.63004
内	-7.63323
楚	-7.63453
宫	-7.63622
節	-7.6397
隨	-7.64123
首	-7.6424
才	-7.64384
賢	-7.64509
德	-7.64758
徳	-7.65297
㑹	-7.65361
指	-7.65474
爾	-7.65908
足	-7.65943
愁	-7.66109
天下	-7.66502
景	-7.67216
定	-7.67309
七	-7.67338
留	-7.67426
請	-7.67756
雪	-7.68435
親	-7.68548
幽	-7.68758
引	-7.68961
鳥	-7.69187
進	-7.69314
題	-7.69342
府	-7.69719
屬	-7.69737
病	-7.70743
真	-7.70773
連	-7.70872
不能	-7.70981
悲	-7.70996
兼	-7.71156
共	-7.71483
孫曰	-7.71622
到	-7.72295
香	-7.72441
力	-7.72606
八	-7.72611
魚	-7.72981
頭	-7.73136
滿	-7.74244
田	-7.74341
十	-7.74439
衆	-7.74644
木	-7.74843
蜀	-7.74862
功	-7.75118
主	-7.75356
奉	-7.75401
百	-7.75721
載	-7.75801
晉	-7.7586
甚	-7.7628
服	-7.76285
野	-7.76405
萬	-7.77454
喜	-7.77794
任	-7.77818
都	-7.78176
度	-7.7853
劉	-7.79645
餘	-7.79776
聖	-7.79873
輕	-7.79917
仙	-7.79928
代	-7.79981
垂	-7.80074
比	-7.80653
化	-7.80686
失	-7.80715
▁(	-7.8078
卒	-7.80875
史	-7.80893
窮	-7.80967
梁	-7.81074
憂	-7.81249
葉	-7.81298
河	-7.81825
孤	-7.81855
固	-7.82143
交	-7.82202
隂	-7.82367
吏	-7.82481
星	-7.82813
趙	-7.82892
受	-7.83215
感	-7.8326
寺	-7.8345
土	-7.83852
臺	-7.83899
期	-7.83976
民	-7.84123
制	-7.84307
驚	-7.84421
句	-7.84495
轉	-7.8484
誠	-7.84935
篇	-7.84945
徒	-7.85166
貴	-7.85212
容	-7.85432
以為	-7.85463
序	-7.85708
拜	-7.85902
疑	-7.86206
極	-7.86476
夏	-7.86584
哉	-7.86766
章	-7.868
口	-7.86913
誰	-7.87099
趙曰	-7.87188
解	-7.87364
離	-7.87593
醉	-7.87656
宿	-7.88157
傷	-7.88378
苦	-7.88402
愛	-7.88536
凡	-7.88547
反	-7.88907
承	-7.8901
降	-7.89437
胡	-7.8975
加	-7.89873
休	-7.89934
彼	-7.89937
便	-7.89982
鳴	-7.89993
詞	-7.90865
塵	-7.90865
散	-7.90948
遺	-7.90959
廣	-7.91011
紅	-7.91079
哀	-7.9108
詔	-7.91243
置	-7.91872
目	-7.92053
泉	-7.92569
羣	-7.92871
勝	-7.93039
素	-7.93043
利	-7.93491
天子	-7.93836
遷	-7.93965
懐	-7.94037
致	-7.94192
美	-7.94379
乗	-7.94424
賜	-7.94506
結	-7.9465
畫	-7.94873
但	-7.94889
懷	-7.95005
右	-7.9517
永	-7.95193
照	-7.95334
池	-7.95348
願	-7.95759
幸	-7.96041
而不	-7.9621
除	-7.96545
宗	-7.96629
遇	-7.97011
修	-7.97052
著	-7.97086
火	-7.97206
按	-7.97337
益	-7.97479
不得	-7.97711
許	-7.97749
顧	-7.97829
移	-7.98074
並	-7.98082
唯	-7.9809
圖	-7.98097
鄭	-7.98173
余	-7.98205
嘗	-7.9845
千	-7.98533
斯	-7.98554
看	-7.98562
侯	-7.98632
微	-7.98878
俗	-7.99005
樓	-7.9913
溪	-7.99281
往	-7.99412
魏	-7.99629
各	-7.99696
良	-7.99788
邊	-7.99806
半	-7.99863
待	-8.00045
謂之	-8.00266
庭	-8.00276
昔	-8.0033
榮	-8.00375
位	-8.00378
改	-8.00521
卿	-8.00628
註	-8.01012
列	-8.01024
奏	-8.0107
念	-8.01738
止	-8.01744
蓋	-8.01856
仁	-8.01929
再	-8.0204
次	-8.02362
所以	-8.02466
祖	-8.02698
疾	-8.02964
不知	-8.03218
松	-8.03472
燕	-8.04019
越	-8.04157
俱	-8.04311
授	-8.04347
左	-8.04398
陵	-8.04398
獻	-8.04542
楊	-8.04687
趙云	-8.0471
太	-8.04775
盖	-8.05069
治	-8.05378
恩	-8.05736
號	-8.0574
全	-8.05836
教	-8.06178
由	-8.06622
吟	-8.06852
變	-8.06944
汝	-8.07093
旣	-8.0713
閣	-8.07316
手	-8.07396
識	-8.07485
父	-8.07555
露	-8.07909
聽	-8.07938
盛	-8.07948
乆	-8.08133
政	-8.08643
補注	-8.08862
精	-8.09146
杜	-8.09306
却	-8.09406
持	-8.09664
忽	-8.09813
夢	-8.10144
早	-8.10157
紀	-8.10219
尋	-8.10655
久	-8.10663
説	-8.10813
亡	-8.1115
予	-8.11281
恐	-8.1149
視	-8.11566
薄	-8.11648
霜	-8.1167
飲	-8.11685
適	-8.1177
室	-8.1197
戰	-8.12313
扵	-8.12453
孫	-8.12862
伏	-8.12981
堂	-8.13217
将	-8.13546
亭	-8.13586
嚴	-8.13899
皇	-8.14037
枝	-8.14039
所謂	-8.14262
波	-8.1429
笑	-8.14567
計	-8.14619
歲	-8.14838
勞	-8.14897
謀	-8.14901
罷	-8.14925
伯	-8.14997
存	-8.15124
浮	-8.15146
閒	-8.1522
閑	-8.15466
𤣥	-8.15597
就	-8.1586
朱	-8.15902
象	-8.16165
報	-8.16589
原	-8.16623
性	-8.16694
憶	-8.16783
晚	-8.16898
議	-8.17111
嵗	-8.17191
破	-8.17272
塞	-8.17592
宋	-8.17834
葢	-8.18147
竒	-8.18262
斷	-8.18412
狀	-8.18806
吳	-8.18881
廟	-8.18968
體	-8.19133
虚	-8.19269
来	-8.19568
鶴	-8.19599
選	-8.19603
惡	-8.19625
說	-8.19755
僧	-8.20023
里	-8.20312
依	-8.20402
類	-8.21064
郎	-8.21466
崔	-8.21509
烏	-8.2158
御	-8.218
建	-8.22123
闕	-8.22181
况	-8.22337
每	-8.22465
耶	-8.22475
韓	-8.22584
煙	-8.22764
愈	-8.23175
負	-8.23284
長安	-8.23566
紫	-8.23728
仍	-8.23783
雙	-8.23952
尚書	-8.24267
積	-8.24397
恨	-8.24514
折	-8.24625
司	-8.24697
如此	-8.24889
威	-8.25004
推	-8.25012
考	-8.25084
舞	-8.2514
備	-8.25224
宣	-8.2526
可以	-8.25367
游	-8.25502
須	-8.25571
逢	-8.25631
追	-8.25894
果	-8.26019
濟	-8.26021
形	-8.26034
錢	-8.26058
殺	-8.26161
簡	-8.26162
業	-8.26329
雄	-8.26407
具	-8.26432
舟	-8.26447
暮	-8.26487
逐	-8.26739
末	-8.2676
寧	-8.26881
藏	-8.26915
冠	-8.27025
徐	-8.2707
沙	-8.27311
接	-8.27356
遣	-8.27566
珠	-8.27922
尊	-8.28317
羅	-8.28524
告	-8.28817
詠	-8.2916
忠	-8.29476
州刺史	-8.29824
隱	-8.30083
要	-8.30115
宅	-8.3027
某	-8.3028
殿	-8.30539
關	-8.30658
赤	-8.3076
谷	-8.3076
敬	-8.30804
賊	-8.30885
川	-8.31114
曉	-8.31245
賞	-8.3133
殊	-8.31611
息	-8.31776
放	-8.31784
讀	-8.31896
影	-8.32143
揚	-8.32166
懸	-8.32423
累	-8.32553
雜	-8.32812
厚	-8.32901
丹	-8.33308
荒	-8.33401
回	-8.33467
千里	-8.33605
韋	-8.3378
芳	-8.33822
裏	-8.34058
施	-8.34134
收	-8.34181
投	-8.34347
養	-8.34619
惠	-8.34652
顔	-8.34707
嘉	-8.34737
丘	-8.34851
戎	-8.35056
之所	-8.35321
充	-8.35399
衰	-8.35623
急	-8.35887
緑	-8.35909
孝	-8.35934
宴	-8.35935
咸	-8.35982
職	-8.36149
延	-8.36231
昭	-8.36236
祭	-8.36268
騎	-8.36312
含	-8.36597
碑	-8.36762
君子	-8.36831
曹	-8.36964
省	-8.36995
傾	-8.3706
夷	-8.37128
澤	-8.37202
崇	-8.37733
危	-8.37831
筆	-8.38574
帶	-8.38854
呉	-8.39141
母	-8.39208
角	-8.3921
滅	-8.39275
盧	-8.39454
井	-8.39615
翠	-8.39616
順	-8.39823
執	-8.39855
最	-8.39877
運	-8.39962
勢	-8.40303
倚	-8.40462
被	-8.4054
隔	-8.40724
牛	-8.40727
虎	-8.4073
横	-8.40736
韻	-8.40769
碧	-8.41259
覺	-8.41433
邪	-8.41443
萬里	-8.42122
英	-8.4216
種	-8.42345
鎮	-8.42363
蘭	-8.42412
陛下	-8.42478
怨	-8.4249
冬	-8.42764
巻	-8.42766
細	-8.42923
赴	-8.42937
骨	-8.43071
岸	-8.43087
殘	-8.43281
蘇	-8.43353
典	-8.43532
補	-8.43575
邑	-8.43621
權	-8.43649
跡	-8.43971
羽	-8.44069
工	-8.44129
郭	-8.44184
琴	-8.44186
湖	-8.44766
不敢	-8.4487
佛	-8.45158
附	-8.45184
此詩	-8.45243
賀	-8.45368
藥	-8.4541
夕	-8.45622
三年	-8.45703
詩云	-8.45706
兹	-8.45819
闗	-8.45837
資	-8.4588
船	-8.46212
克	-8.46368
尤	-8.46518
迎	-8.46524
貧	-8.46686
誤	-8.46775
敢	-8.46789
佐	-8.46811
獲	-8.46834
先生	-8.46873
召	-8.46902
廢	-8.47009
栁	-8.47368
薦	-8.47396
試	-8.47481
陸	-8.47502
寳	-8.47598
端	-8.47706
歎	-8.47746
漢書	-8.47767
律	-8.47776
沈	-8.47852
弟	-8.48001
走	-8.48008
面	-8.48104
園	-8.48202
忘	-8.48607
爭	-8.48872
衛	-8.4895
申	-8.48993
調	-8.49031
甫	-8.49092
遠	-8.49415
兒	-8.49586
罪	-8.4991
將軍	-8.50054
逰	-8.50123
退	-8.50127
友	-8.50143
柳	-8.5041
示	-8.50463
迴	-8.50492
浪	-8.50552
蕭	-8.50651
京	-8.50788
奔	-8.50931
丗	-8.50934
達	-8.50969
器	-8.51004
卷	-8.51042
委	-8.51122
儒	-8.51188
呼	-8.51233
布	-8.51292
務	-8.51298
眼	-8.5152
逸	-8.51528
歡	-8.51581
魯	-8.51606
慶	-8.51622
貌	-8.52161
雞	-8.52244
率	-8.52438
非是	-8.52672
繼	-8.52736
夫人	-8.53053
天地	-8.53094
符	-8.5316
鄉	-8.53326
棄	-8.53745
據	-8.54052
仰	-8.54254
歳	-8.54327
妙	-8.54344
吹	-8.54478
漸	-8.54488
淚	-8.54599
桂	-8.5471
特	-8.54784
幾	-8.54837
哭	-8.54851
齊賢曰	-8.54979
隠	-8.55198
覆	-8.55278
暗	-8.55364
房	-8.55454
毛	-8.5584
福	-8.56057
商	-8.56263
銘	-8.56335
避	-8.5638
於是	-8.56458
維	-8.56462
酬	-8.56473
橋	-8.56493
駕	-8.56861
太白	-8.56894
卧	-8.57343
貞	-8.57453
嶺	-8.57513
儀	-8.57591
峯	-8.57894
智	-8.57951
質	-8.5801
玄	-8.58213
刺	-8.58374
烟	-8.58409
愚	-8.58455
洞	-8.58665
静	-8.58692
并	-8.58725
秀	-8.58793
郊	-8.58823
史記	-8.58847
免	-8.58934
設	-8.58957
造	-8.59092
鳯	-8.59124
想	-8.59213
征	-8.594
今日	-8.59741
懼	-8.59861
振	-8.60244
錦	-8.60347
寵	-8.60393
叔	-8.60394
校	-8.60403
縁	-8.60753
劒	-8.61128
壁	-8.61398
敗	-8.61548
虞	-8.61587
堪	-8.61725
雅	-8.61871
韓曰	-8.6192
以爲	-8.61989
曾	-8.62005
徴	-8.62018
聚	-8.62201
機	-8.62289
二年	-8.62307
短	-8.62355
刻	-8.62595
狂	-8.62785
市	-8.6289
惜	-8.63001
曽	-8.63094
抱	-8.63145
鏡	-8.6334
大夫	-8.63544
條	-8.6364
左傳	-8.64038
仲	-8.64084
假	-8.64091
託	-8.64198
掌	-8.64227
軒	-8.6434
私	-8.64361
后	-8.64475
領	-8.64546
苑	-8.64581
禁	-8.64583
逹	-8.64642
靜	-8.64642
射	-8.64803
者也	-8.64859
遲	-8.65094
背	-8.65254
他	-8.65368
文章	-8.65704
不見	-8.65722
絲	-8.65852
縱	-8.65905
只	-8.65973
鴈	-8.65985
險	-8.66125
巖	-8.66277
別	-8.66521
徃	-8.66633
根	-8.66658
釋	-8.6671
不足	-8.66757
兄	-8.66837
保	-8.66894
沉	-8.66931
遥	-8.6738
無所	-8.6743
席	-8.67482
偶	-8.67557
二首	-8.6768
撫	-8.67684
歩	-8.67857
族	-8.67864
廻	-8.67931
裴	-8.68201
刑	-8.68316
材	-8.68335
畢	-8.68443
慮	-8.68604
甘	-8.6863
昌	-8.68756
營	-8.6879
殷	-8.68991
泥	-8.69026
映	-8.6912
拂	-8.69145
侵	-8.69219
劍	-8.6942
候	-8.69469
僕	-8.69497
十二	-8.69591
録	-8.69704
答	-8.70103
伐	-8.70132
厥	-8.70337
籍	-8.7036
干	-8.70376
翻	-8.7042
康	-8.70436
凝	-8.70438
盤	-8.70476
没	-8.7058
衡	-8.70625
境	-8.7079
故曰	-8.70919
誅	-8.7118
屈	-8.71208
馳	-8.71505
頗	-8.71665
偏	-8.71683
盈	-8.71725
升	-8.71771
季	-8.71982
甲	-8.722
詳	-8.72515
顯	-8.72543
悉	-8.7255
勿	-8.7264
諸侯	-8.72717
招	-8.73038
勤	-8.73644
婦	-8.73751
訪	-8.73775
温	-8.73835
禪	-8.74079
屋	-8.74255
管	-8.74356
鼓	-8.74438
源	-8.74451
黃	-8.74573
晴	-8.74584
鴻	-8.74676
孟	-8.74883
害	-8.74936
壯	-8.75508
孔	-8.75673
㣲	-8.75707
博	-8.75775
泣	-8.75799
茂	-8.75844
納	-8.75855
之意	-8.75873
專	-8.76002
雷	-8.76016
麗	-8.76053
頻	-8.76301
賈	-8.76349
謹	-8.76438
當時	-8.76457
之間	-8.7669
竊	-8.76702
妻	-8.76746
齋	-8.76757
姓	-8.76837
棲	-8.77158
厯	-8.77219
旅	-8.77246
踈	-8.77419
步	-8.77481
是也	-8.77484
竟	-8.77602
蔡	-8.77663
冷	-8.77801
憐	-8.77872
訓	-8.77894
違	-8.78022
參	-8.78025
春秋	-8.78236
院	-8.78581
乾	-8.78678
怒	-8.78743
隋	-8.78763
翼	-8.78927
䝉	-8.78936
述	-8.79215
左右	-8.79241
約	-8.79552
畏	-8.79563
牧	-8.79763
祠	-8.80307
飾	-8.80366
故云	-8.80393
習	-8.80506
蒙	-8.80565
蘇曰	-8.80578
村	-8.80667
莊子	-8.8069
館	-8.80727
旁	-8.80828
徑	-8.8104
公之	-8.81196
洛	-8.81271
索	-8.81533
𥘉	-8.81569
鳳	-8.81678
敵	-8.81722
毎	-8.81756
迷	-8.81808
勸	-8.81973
慙	-8.81978
味	-8.82055
旋	-8.82143
擊	-8.82151
階	-8.82275
披	-8.82284
无	-8.8238
淸	-8.82407
士贇曰	-8.82415
之地	-8.82609
朝廷	-8.82628
擬	-8.82742
太守	-8.82909
堅	-8.8294
嗟	-8.83026
履	-8.83091
墓	-8.83142
歴	-8.83201
部	-8.83225
傍	-8.83375
魂	-8.83581
繫	-8.83617
鼎	-8.83717
侍	-8.84265
側	-8.84291
眞	-8.8435
借	-8.84359
尹	-8.84463
昏	-8.84851
繁	-8.84961
户	-8.85371
䇿	-8.85476
尉	-8.85496
住	-8.85634
驅	-8.85645
虛	-8.85741
日月	-8.85758
葬	-8.85926
不如	-8.86073
凌	-8.86135
庶	-8.862
壽	-8.86275
喻	-8.86309
京師	-8.86367
啓	-8.86442
洛陽	-8.86786
第	-8.86806
戲	-8.8681
鍾	-8.86833
鬼	-8.8703
掩	-8.87182
强	-8.87243
乘	-8.87253
血	-8.87333
略	-8.8737
泛	-8.87518
讓	-8.87568
薛	-8.87574
蒲	-8.87577
皇帝	-8.87667
扶	-8.87722
荷	-8.87937
熟	-8.88078
陶	-8.88128
童	-8.88257
暴	-8.8828
故人	-8.88284
攻	-8.88383
洪	-8.88448
富	-8.88487
夀	-8.88617
刺史	-8.8863
寶	-8.88882
編	-8.89048
寛	-8.89381
人之	-8.8941
頌	-8.89517
察	-8.89526
啟	-8.89598
慕	-8.89738
輔	-8.90039
舍	-8.90074
冝	-8.90126
豐	-8.90191
輪	-8.90319
操	-8.90439
恭	-8.90734
莊	-8.90853
眠	-8.90929
救	-8.91071
後漢	-8.91198
尾	-8.91268
辨	-8.91303
豪	-8.9175
邉	-8.91764
使君	-8.91862
之道	-8.92006
龜	-8.92051
荆	-8.92051
暫	-8.92256
太子	-8.92262
班	-8.92326
或無	-8.92452
晨	-8.92503
邦	-8.92617
翁	-8.92647
戒	-8.9265
蒼	-8.92671
貶	-8.92762
旗	-8.92823
采	-8.9301
禍	-8.93038
一日	-8.9314
曠	-8.93249
耕	-8.93298
翰	-8.93314
喪	-8.93365
司馬	-8.93455
錫	-8.93579
格	-8.93603
吐蕃	-8.93639
助	-8.93705
慈	-8.93708
賤	-8.93888
驛	-8.93944
於此	-8.94032
宰	-8.94114
宰相	-8.94142
採	-8.94262
丁	-8.94382
之後	-8.94403
逆	-8.94469
朔	-8.94492
俾	-8.94737
祀	-8.94861
巢	-8.94922
疎	-8.95061
弱	-8.95187
煩	-8.95236
程	-8.95434
叢	-8.95446
阻	-8.95549
十年	-8.95558
怪	-8.9558
宻	-8.95599
江南	-8.95653
荅	-8.95802
刀	-8.95829
困	-8.95947
均	-8.96044
途	-8.9608
郎中	-8.9624
農	-8.96245
元年	-8.96335
賔	-8.96338
宮	-8.96484
銷	-8.96498
寫	-8.96533
峽	-8.96552
峰	-8.96687
畧	-8.96816
勇	-8.9691
總	-8.96928
環	-8.97094
防	-8.97098
然後	-8.971
卑	-8.97102
恒	-8.97176
齒	-8.9718
又云	-8.97223
羊	-8.97366
鄭曰	-8.97616
責	-8.97701
朕	-8.97852
牽	-8.9797
晝	-8.98027
舜	-8.98123
燭	-8.98166
役	-8.98219
舒	-8.98312
蕩	-8.98387
二字	-8.98537
聖人	-8.98747
梅	-8.98763
辱	-8.98783
漏	-8.98868
霞	-8.98879
猿	-8.99046
激	-8.9919
嗣	-8.99227
希	-8.99256
界	-8.99288
貫	-8.99409
乞	-8.99457
増	-8.99574
何處	-8.99585
蕃	-8.99671
枯	-8.99806
禹	-8.99813
彌	-8.99828
節度使	-8.99908
植	-8.99927
歟	-8.99945
趨	-8.99948
嗚呼	-8.99988
鮮	-9.00215
堯	-9.00284
阿	-9.00473
晩	-9.00479
屢	-9.00503
銀	-9.00592
圍	-9.00913
禄	-9.00984
郷	-9.01191
巧	-9.01199
吉	-9.01468
潭	-9.0148
支	-9.01776
肅	-9.01784
節度	-9.01868
不及	-9.02012
展	-9.02017
眉	-9.02034
辟	-9.02194
斜	-9.02205
痛	-9.02297
河南	-9.02341
宇	-9.02371
貢	-9.02423
患	-9.02584
仕	-9.02585
燈	-9.02772
謁	-9.02835
其所	-9.02936
吐	-9.02995
給	-9.03198
奪	-9.03536
苟	-9.03876
黒	-9.03931
□	-9.03983
津	-9.03988
強	-9.04003
帥	-9.04063
白雲	-9.04317
古詩	-9.04875
幕	-9.05026
湘	-9.0514
牀	-9.05334
品	-9.05387
柔	-9.05408
三月	-9.05502
暖	-9.05521
渡	-9.05532
今按	-9.05559
超	-9.05622
窺	-9.05691
孔子	-9.05774
中有	-9.05805
祝曰	-9.05879
疏	-9.05914
人也	-9.05976
談	-9.05998
銜	-9.06053
吴	-9.06054
侍御	-9.06113
洗	-9.06146
犯	-9.06206
是以	-9.06217
之事	-9.06338
穿	-9.06387
掃	-9.06421
方云	-9.06664
古人	-9.0714
飢	-9.0722
烈	-9.07265
戴	-9.0739
上人	-9.07453
震	-9.07501
啼	-9.07651
稍	-9.07752
迹	-9.07986
遭	-9.08116
效	-9.08319
潮	-9.08352
弓	-9.08374
愧	-9.08551
倒	-9.08623
蓬	-9.0865
撰	-9.0884
量	-9.08984
諱	-9.09089
低	-9.09102
叙	-9.09119
群	-9.09169
躬	-9.09209
霧	-9.09351
牙	-9.09425
巴	-9.0948
密	-9.09523
稀	-9.09578
監	-9.09697
湯	-9.09725
圓	-9.09728
攀	-9.09956
二十	-9.09967
桃	-9.0997
岳	-9.10053
覩	-9.10101
至於	-9.10123
禽	-9.10173
師曰	-9.1026
柱	-9.10332
脩	-9.10463
斗	-9.10623
蟲	-9.10716
祥	-9.10946
浦	-9.11024
髪	-9.11088
言其	-9.11124
主人	-9.11129
白日	-9.1122
勲	-9.1123
觸	-9.11285
一人	-9.11388
釣	-9.11395
与	-9.11533
討	-9.11534
署	-9.11572
銅	-9.11663
秩	-9.11827
鄰	-9.11898
術	-9.12031
融	-9.12055
樊曰	-9.12061
覽	-9.12161
之以	-9.12169
沒	-9.12353
平生	-9.12583
䘮	-9.12715
會	-9.12732
擁	-9.12755
姑	-9.12793
綺	-9.12949
肉	-9.13138
崖	-9.13406
廬	-9.13502
貪	-9.13527
否	-9.13603
晏	-9.13695
鶴曰	-9.13729
俯	-9.13873
丞相	-9.14124
徙	-9.14177
閉	-9.14198
明月	-9.14335
陰	-9.1446
酌	-9.1454
成都	-9.14556
有所	-9.14663
策	-9.14687
桑	-9.14777
甞	-9.14838
少年	-9.14956
輿	-9.14969
陪	-9.14982
籠	-9.15072
峻	-9.15284
凉	-9.15528
并序	-9.15574
吕	-9.15723
如何	-9.15735
響	-9.15766
財	-9.15796
差	-9.15846
斬	-9.16176
百姓	-9.16344
㡬	-9.16485
之士	-9.16544
兄弟	-9.16641
珍	-9.16752
厭	-9.1678
擇	-9.16825
淺	-9.171
停	-9.17143
摧	-9.17241
羞	-9.17272
拔	-9.17383
虜	-9.17484
决	-9.17591
當是	-9.17615
潤	-9.17647
争	-9.17678
騰	-9.17703
墨	-9.17772
卜	-9.17877
蓮	-9.17885
輒	-9.17885
式	-9.17976
速	-9.18213
惑	-9.18258
毒	-9.18277
靡	-9.18292
唱	-9.18433
弄	-9.18545
氷	-9.18564
之心	-9.18667
壇	-9.18733
絃	-9.18753
庸	-9.19148
曰吾	-9.19224
寢	-9.19306
開元	-9.19358
而已	-9.19368
嘆	-9.19446
佳	-9.19469
佩	-9.19554
捨	-9.19574
瞻	-9.19583
爰	-9.1967
徵	-9.19686
費	-9.19702
旌	-9.19877
瑞	-9.20198
㫖	-9.20278
不復	-9.20398
藝	-9.20399
底	-9.20442
燒	-9.20521
熱	-9.20594
優	-9.20613
諫	-9.20625
杯	-9.20632
慰	-9.20667
頃	-9.20689
贊	-9.20735
況	-9.20877
循	-9.20889
泰	-9.20954
鸞	-9.20973
鹿	-9.21061
英華	-9.21079
憲	-9.21175
聴	-9.21194
詣	-9.21279
憑	-9.213
辯	-9.21306
不同	-9.21514
缺	-9.21521
鱗	-9.21793
爵	-9.21804
倫	-9.22019
契	-9.22062
飄	-9.2221
革	-9.22305
草木	-9.22347
伴	-9.22428
澄	-9.22458
繞	-9.22661
枕	-9.22669
亦有	-9.22707
何以	-9.22779
淮	-9.22845
之言	-9.2298
屏	-9.22988
戀	-9.2303
伊	-9.23103
聊	-9.23212
妄	-9.2344
蛇	-9.23472
中丞	-9.23541
蔽	-9.23631
春風	-9.23635
洞庭	-9.2365
獸	-9.238
孰	-9.23876
鐘	-9.23899
紛	-9.23976
介	-9.23999
有餘	-9.24015
允	-9.24193
網	-9.24473
人間	-9.24603
肆	-9.24631
墜	-9.24686
其後	-9.24879
竇	-9.24883
靑	-9.24939
草堂	-9.24997
旦	-9.25093
而後	-9.25179
渠	-9.25323
忍	-9.25333
妾	-9.25353
筵	-9.25379
耀	-9.2538
杖	-9.25397
塗	-9.25485
穴	-9.25614
脫	-9.25625
勉	-9.2563
菊	-9.25731
從事	-9.25806
冀	-9.2583
戸	-9.25874
進士	-9.25911
御史	-9.25926
無人	-9.26186
喧	-9.26309
災	-9.2637
頓	-9.26505
輩	-9.2652
續	-9.26575
東南	-9.26585
當作	-9.26648
之中	-9.267
寂	-9.26716
弔	-9.26935
姿	-9.27134
晉書	-9.27135
㸃	-9.27407
之下	-9.27434
渚	-9.27438
把	-9.27456
謬	-9.27503
洲	-9.27532
彈	-9.27667
為之	-9.27677
忝	-9.27821
潛	-9.27852
彩	-9.27874
副	-9.27993
帳	-9.28022
藩	-9.28201
寡	-9.28302
四海	-9.28357
印	-9.28364
賛	-9.28478
濕	-9.28508
獵	-9.28529
錯	-9.2856
隣	-9.28684
焚	-9.28742
相公	-9.28827
𢎞	-9.2885
宏	-9.28869
襲	-9.28875
鑒	-9.28942
揺	-9.2896
慎	-9.29006
足下	-9.29052
蟬	-9.29191
科	-9.29225
丞	-9.29279
統	-9.29292
奮	-9.29759
抑	-9.29915
規	-9.29953
粟	-9.2998
之人	-9.29981
茍	-9.3007
消	-9.30166
十一	-9.30246
潜	-9.30349
腸	-9.30405
鬢	-9.30519
弘	-9.30539
價	-9.30543
增	-9.30766
雁	-9.30805
舎	-9.30812
鞭	-9.30926
競	-9.30992
本作	-9.31141
澗	-9.31196
李白	-9.31284
滯	-9.31424
一名	-9.31446
扇	-9.31512
排	-9.31528
米	-9.32099
飯	-9.32211
悟	-9.32216
座	-9.32385
粉	-9.3245
層	-9.32503
瓊	-9.32557
冰	-9.32649
涼	-9.329
築	-9.32957
子美	-9.33136
之義	-9.33152
簾	-9.33252
䖍	-9.33259
十五	-9.33343
風雨	-9.33391
藻	-9.33446
段	-9.33468
未嘗	-9.33526
渾	-9.33533
厲	-9.33567
明年	-9.33589
逾	-9.33608
洙曰一	-9.33637
鬱	-9.33654
社	-9.33695
寜	-9.3377
悠悠	-9.33797
南山	-9.33868
腹	-9.33887
墮	-9.3389
遽	-9.33963
炎	-9.34
趣	-9.34031
禮記	-9.34139
巾	-9.34204
鑿	-9.3433
皮	-9.34619
而無	-9.34717
輝	-9.34759
岀	-9.34767
巨	-9.34768
弊	-9.34912
穆	-9.34952
亮	-9.34959
際	-9.34988
范	-9.35
▁趙云	-9.35082
逃	-9.35136
妃	-9.35232
纔	-9.35368
翔	-9.35531
謫	-9.35562
遐	-9.35733
隴	-9.3579
買	-9.35874
誓	-9.35996
風吹	-9.36016
催	-9.36135
繡	-9.36178
嶽	-9.36217
返	-9.36336
凶	-9.3635
蠻	-9.36416
呈	-9.36521
方作	-9.36601
判官	-9.36625
男	-9.36645
黨	-9.36774
箭	-9.36779
擢	-9.36796
冥	-9.36799
屯	-9.36893
饒	-9.36924
由是	-9.36927
樊	-9.36972
五年	-9.36995
漫	-9.37045
湏	-9.37236
提	-9.37259
鹽	-9.3729
昇	-9.37386
匪	-9.37451
肥	-9.3754
束	-9.37571
秋風	-9.3781
又曰	-9.37932
欺	-9.38261
朗	-9.38308
道士	-9.38377
戍	-9.38384
徹	-9.38391
講	-9.38538
茅	-9.38577
誌	-9.38612
裁	-9.38698
肅宗	-9.38732
仗	-9.38767
踐	-9.38785
鄙	-9.39179
衝	-9.39262
奴	-9.39274
董	-9.39292
輸	-9.39316
供	-9.39375
墳	-9.39409
髮	-9.39505
祝	-9.39536
驕	-9.39565
帆	-9.39742
脱	-9.39774
十六	-9.39775
古今	-9.39815
十月	-9.39859
晦	-9.39968
年作	-9.40046
偃	-9.401
冦	-9.40136
尺	-9.40311
属	-9.40324
蜀本	-9.40401
四年	-9.405
貽	-9.4069
肯	-9.40692
四方	-9.4076
秀才	-9.40887
知其	-9.40911
侍郎	-9.41034
鼔	-9.4108
憤	-9.4114
㸔	-9.41199
添	-9.41622
綠	-9.41666
袁	-9.41681
淵	-9.41689
獄	-9.41764
俊	-9.4177
京兆	-9.41802
而巳	-9.42127
洙	-9.42133
子孫	-9.42156
江陵	-9.42168
十八	-9.42195
一本	-9.42262
不以	-9.42301
必有	-9.42332
之時	-9.42369
員外	-9.4237
東西	-9.42449
飽	-9.42517
唐書	-9.4252
嫌	-9.42592
之上	-9.42593
遵	-9.42657
樂府	-9.42764
藉	-9.4288
岑	-9.42925
學士	-9.42941
抵	-9.4296
山水	-9.43052
楚辭	-9.43109
寓	-9.43283
旱	-9.43346
第一	-9.43424
鷹	-9.43453
公子	-9.43513
隅	-9.43951
随	-9.43964
殆	-9.43968
何人	-9.44111
天下之	-9.44124
享	-9.44169
占	-9.44208
相如	-9.44257
昧	-9.44285
削	-9.44406
河東	-9.44526
襟	-9.44549
付	-9.44605
誦	-9.44739
葛	-9.45018
東都	-9.45102
下或	-9.45261
腰	-9.45277
山川	-9.45332
祗	-9.4544
注云	-9.45553
駭	-9.45556
之際	-9.45748
彰	-9.45834
崩	-9.45896
滋	-9.45922
元和	-9.45974
寂寞	-9.46059
導	-9.4619
隆	-9.46212
㫁	-9.46227
足以	-9.46315
標	-9.46329
配	-9.46368
辰	-9.46386
恥	-9.46473
夫子	-9.46548
莫不	-9.46651
損	-9.46738
乖	-9.46783
陣	-9.46842
援	-9.46882
涕	-9.46924
四十	-9.47008
叛	-9.47207
夾	-9.47251
勒	-9.47336
儉	-9.47394
不為	-9.47412
璧	-9.47465
竭	-9.47532
雉	-9.4756
悔	-9.47574
杭	-9.47626
漁	-9.47795
賓	-9.47828
奚	-9.47857
促	-9.47943
黙	-9.47979
黄金	-9.48039
練	-9.48098
倍	-9.48119
然而	-9.48142
泊	-9.48211
駐	-9.48276
正月	-9.48325
之子	-9.48443
上有	-9.48616
秉	-9.48904
陟	-9.48918
迫	-9.48941
傅	-9.48993
上下	-9.49019
鈎	-9.49127
八月	-9.4927
神仙	-9.49391
五月	-9.49446
攝	-9.49465
丈	-9.4948
周禮	-9.49504
其人	-9.49656
錄	-9.49785
可謂	-9.49829
稽	-9.49942
未有	-9.49964
預	-9.49985
云云	-9.50049
諷	-9.50064
惆悵	-9.50189
拙	-9.50251
譏	-9.50323
那	-9.50347
絳	-9.50402
叶	-9.50607
像	-9.50691
至今	-9.50838
話	-9.50841
百年	-9.50897
織	-9.50901
羡	-9.50905
健	-9.50991
疊	-9.51222
染	-9.51225
又有	-9.51233
囊	-9.51329
睡	-9.5143
圗	-9.51446
出入	-9.51455
有司	-9.51495
踰	-9.51733
五十	-9.5197
案	-9.51977
裘	-9.52008
効	-9.5209
鐵	-9.52137
觴	-9.52281
下有	-9.52282
嬰	-9.52289
育	-9.52312
西南	-9.52324
逼	-9.52444
者皆	-9.52491
臯	-9.52532
下或有	-9.5256
緒	-9.52576
西北	-9.52597
希曰	-9.52604
勑	-9.52619
武帝	-9.52732
裂	-9.52737
茶	-9.5275
二月	-9.528
讀書	-9.52895
宵	-9.52922
雀	-9.52958
晋	-9.53013
爽	-9.53083
俟	-9.53184
江上	-9.53194
襄陽	-9.53294
矜	-9.53299
前漢	-9.53325
淮南子	-9.53347
曲江	-9.53351
荆州	-9.5338
疲	-9.53432
諭	-9.53457
彦	-9.53458
老子	-9.53471
麥	-9.53574
拾遺	-9.53594
何如	-9.53646
山中	-9.53792
馮	-9.53797
所居	-9.53955
説文	-9.53989
渉	-9.54059
至于	-9.54099
決	-9.54162
毁	-9.54181
例	-9.54187
犬	-9.54194
壑	-9.54357
麟	-9.54371
㝷	-9.54405
敏	-9.54418
黄帝	-9.54464
叟	-9.54481
暢	-9.54486
姬	-9.54606
四句	-9.54704
換	-9.54741
綿	-9.54808
前後	-9.54819
之至	-9.54867
績	-9.54965
逝	-9.55024
江湖	-9.55369
敦	-9.5539
陷	-9.55471
何時	-9.55601
𨽻	-9.55698
然則	-9.55734
旬	-9.55753
退之	-9.55768
安得	-9.5581
樵	-9.55938
尸	-9.55946
審	-9.56201
苔	-9.5627
匈奴	-9.56275
䟽	-9.5628
太原	-9.56304
相思	-9.5634
辛	-9.56459
一云	-9.56484
態	-9.56497
如是	-9.5651
夭	-9.5658
三十	-9.56597
頂	-9.56671
遍	-9.56703
禄山	-9.56768
單	-9.56854
以其	-9.56915
瓦	-9.56992
奇	-9.56998
戈	-9.57011
子曰	-9.57086
值	-9.57122
檻	-9.57153
栖	-9.5717
基	-9.57181
棹	-9.57429
牆	-9.57439
少府	-9.5754
敎	-9.57561
處士	-9.57684
巫	-9.57769
徘徊	-9.57899
三首	-9.57947
枉	-9.58045
曰此	-9.5808
混	-9.5824
寸	-9.58338
恃	-9.58361
芙蓉	-9.58484
盃	-9.58494
郢	-9.58507
懿	-9.58537
姦	-9.5857
九月	-9.58764
遶	-9.58807
孟子	-9.58848
潔	-9.5892
不相	-9.58945
杜詩	-9.59025
剪	-9.59355
乏	-9.59396
之不	-9.59402
純	-9.59418
羙	-9.59448
減	-9.59481
青山	-9.59492
匡	-9.59498
白馬	-9.59579
宋玉	-9.59687
不勝	-9.59738
庾	-9.59777
倉	-9.5978
以此	-9.59818
挂	-9.59827
磨	-9.59905
弟子	-9.59923
栢	-9.60125
探	-9.60223
也今	-9.60235
洽	-9.60255
爾雅	-9.60266
昨	-9.60288
賣	-9.60333
囚	-9.60346
後漢書	-9.6044
活	-9.605
〇趙曰	-9.6055
抗	-9.60551
祈	-9.60572
列子	-9.60774
㓜	-9.60822
小人	-9.60903
譽	-9.60918
毫	-9.61019
公卿	-9.61077
古之	-9.61085
皆有	-9.61123
埋	-9.61137
膺	-9.61371
曜	-9.61395
劔	-9.61414
拘	-9.61467
其事	-9.61481
碎	-9.61577
蒸	-9.61594
弗	-9.61619
産	-9.61622
兆	-9.61666
闢	-9.61693
公主	-9.61759
壤	-9.61781
廉	-9.61905
嵩	-9.61976
醒	-9.62011
淮南	-9.62218
相逢	-9.62239
二句	-9.62366
了	-9.62407
長沙	-9.62473
谿	-9.62521
人皆	-9.62532
綴	-9.62563
剛	-9.6261
朋	-9.62635
之句	-9.62682
壓	-9.62717
是時	-9.62717
百里	-9.62877
國家	-9.63006
歇	-9.63016
衞	-9.63046
䏻	-9.63087
壺	-9.63088
謙	-9.63181
無事	-9.63194
猛	-9.63196
㑹稽	-9.63292
訛	-9.63483
限	-9.63583
之徒	-9.63622
慿	-9.63695
突	-9.63752
陋	-9.63835
十三	-9.63848
苗	-9.64006
緣	-9.64036
邀	-9.64299
舌	-9.64445
青雲	-9.64445
灑	-9.64452
敷	-9.64483
相見	-9.64484
警	-9.64624
浮雲	-9.64672
忌	-9.64751
樽	-9.64756
風塵	-9.6476
此言	-9.64811
盗	-9.64878
三千	-9.64952
包	-9.6496
簷	-9.64961
太宗	-9.64969
綵	-9.65078
揮	-9.65111
儲	-9.65117
淪	-9.65122
巡	-9.65195
吞	-9.65195
淨	-9.65196
濤	-9.65307
欽	-9.65323
司空	-9.65372
躍	-9.65436
播	-9.6544
涉	-9.65593
乾坤	-9.6564
山在	-9.65676
一時	-9.65703
撃	-9.65752
牢	-9.65852
濁	-9.65951
十四	-9.66045
諌	-9.66062
祐	-9.66091
淫	-9.66109
宛	-9.6616
終日	-9.66203
割	-9.66242
七月	-9.66254
彭	-9.66305
亦不	-9.66311
雍	-9.66341
〇	-9.66431
縣令	-9.66479
讒	-9.66583
二人	-9.66607
数	-9.66652
䕶	-9.66683
幹	-9.66698
邕	-9.66888
状	-9.66914
誇	-9.6695
垣	-9.66964
島	-9.67088
握	-9.67094
鎭	-9.671
而去	-9.67141
七十	-9.67202
太平	-9.67402
瑶	-9.67441
五色	-9.6756
楚詞	-9.67686
此時	-9.67756
妖	-9.67771
䧟	-9.67776
浩	-9.67778
𬒳	-9.67797
囘	-9.67844
詩曰	-9.67872
紙	-9.67889
膏	-9.67917
富貴	-9.6821
區	-9.68277
之文	-9.68284
杜臆	-9.68292
妓	-9.68342
凋	-9.68392
三日	-9.68438
伏惟	-9.68447
魄	-9.68565
鄧	-9.68612
料	-9.68882
捧	-9.68901
霑	-9.69054
斥	-9.69081
桐	-9.69175
檢校	-9.69387
卽	-9.694
鶯	-9.69518
僚	-9.69577
雕	-9.69605
脚	-9.69605
陂	-9.69619
貨	-9.69644
也故	-9.69788
墻	-9.69968
言之	-9.69973
曷	-9.70002
鮑	-9.70071
司徒	-9.70076
整	-9.70132
𦵏	-9.70272
坊	-9.70277
髙祖	-9.70463
頽	-9.70478
偷	-9.70483
嘯	-9.70496
恣	-9.70505
與之	-9.70518
之外	-9.70566
師古曰	-9.70767
赦	-9.70892
淳	-9.70963
誰能	-9.71068
桓	-9.71094
邁	-9.71124
天寳	-9.71252
柏	-9.71265
無窮	-9.71324
乍	-9.71351
不忍	-9.71358
樂天	-9.71377
僕射	-9.71553
其中	-9.71566
輙	-9.71686
歛	-9.71688
而有	-9.71825
南史	-9.719
龍門	-9.71929
廷	-9.71966
熊	-9.72021
暑	-9.72026
醜	-9.72054
自然	-9.72058
塔	-9.72067
襄	-9.72111
黑	-9.72169
萬物	-9.72227
河北	-9.72236
麻	-9.72287
戯	-9.72366
左氏	-9.7239
道路	-9.72394
伏以	-9.72548
冊	-9.72585
䑓	-9.72602
淑	-9.7272
媚	-9.72724
灰	-9.72744
電	-9.72804
使人	-9.73009
臂	-9.73053
収	-9.73058
汗	-9.7317
姚	-9.73206
君之	-9.73232
春日	-9.73431
聞之	-9.73511
用之	-9.73579
恵	-9.73602
橘	-9.7361
褒	-9.73715
綱	-9.73718
榖	-9.7373
鬼神	-9.73818
歷	-9.73919
祿	-9.73936
敘	-9.74015
䖏	-9.74029
壘	-9.74045
鋒	-9.74083
歸來	-9.74113
拒	-9.74142
日暮	-9.74247
長史	-9.74318
街	-9.74321
公以	-9.74324
恱	-9.74334
父母	-9.74471
人生	-9.74581
域	-9.74593
太尉	-9.74599
阮	-9.74625
山東	-9.74713
其言	-9.74729
諸本	-9.74738
見寄	-9.74743
攜	-9.74918
不用	-9.75039
是非	-9.751
得其	-9.75184
弃	-9.75256
之名	-9.75266
乳	-9.75352
擒	-9.75386
恤	-9.75428
矢	-9.755
劇	-9.75521
顛	-9.75528
名曰	-9.7557
碩	-9.75594
銘曰	-9.7562
後人	-9.75803
緩	-9.75914
繩	-9.75915
淡	-9.75961
得之	-9.75967
囯	-9.76072
犀	-9.7615
故有	-9.76164
明皇	-9.76167
金陵	-9.76187
羸	-9.76237
灘	-9.76279
靖	-9.76325
普	-9.76462
潘	-9.76489
徽	-9.76545
嫁	-9.76604
鳬	-9.76644
曙	-9.76791
雖有	-9.76819
笛	-9.76878
也又	-9.76973
靣	-9.77094
慘	-9.77177
殁	-9.77192
溢	-9.77223
倦	-9.77238
灌	-9.77316
石本	-9.77407
娥	-9.77547
證	-9.77567
九日	-9.77646
之功	-9.77678
臣聞	-9.77716
巫山	-9.77844
堆	-9.77924
遙	-9.77927
東海	-9.78007
誕	-9.78008
桃花	-9.78015
仙人	-9.78064
将軍	-9.7807
讎	-9.78156
逕	-9.78268
茫茫	-9.78324
何所	-9.78338
儻	-9.78358
敕	-9.78471
秘	-9.78521
己	-9.78603
㝠	-9.78609
六月	-9.78687
牒	-9.78864
柄	-9.7888
衢	-9.78916
其道	-9.79037
之類	-9.79046
卓	-9.79054
誘	-9.79074
無不	-9.79197
鑄	-9.79258
河陽	-9.79384
顔色	-9.79405
臣等	-9.79448
矯	-9.7945
戚	-9.79499
南陽	-9.79526
滑	-9.79544
可憐	-9.79597
悦	-9.79609
不可以	-9.79612
圭	-9.79647
冩	-9.79651
周公	-9.79844
互	-9.79854
盜	-9.79942
豁	-9.8
者不	-9.80059
俄	-9.80126
翅	-9.80194
翰林	-9.80246
頼	-9.80395
纎	-9.80413
豈不	-9.8042
無任	-9.8047
五言	-9.80494
落日	-9.80547
徧	-9.80573
君臣	-9.80581
勁	-9.80582
畔	-9.80591
聳	-9.80604
未知	-9.80621
諒	-9.80674
袖	-9.80685
美人	-9.80686
塘	-9.80762
遮	-9.80766
爐	-9.80786
濯	-9.80826
十七	-9.80903
攸	-9.80997
暉	-9.81023
廬山	-9.81097
鵲	-9.81118
自古	-9.81172
䕫	-9.81194
見其	-9.81248
不自	-9.81325
蕪	-9.815
傑	-9.81576
朱注	-9.81579
屈原	-9.81585
艱	-9.81586
摩	-9.81656
霽	-9.8167
流水	-9.81708
伸	-9.81716
之志	-9.81776
匹	-9.818
清風	-9.8184
樞	-9.81916
妻子	-9.81925
濃	-9.81926
六年	-9.81958
咎	-9.82017
判	-9.82189
哲	-9.82258
汚	-9.82484
渭	-9.82554
閭	-9.82561
是年	-9.8266
蹇	-9.82694
黎	-9.82792
棘	-9.82862
邈	-9.8287
以自	-9.82876
岐	-9.82969
不肯	-9.82988
萍	-9.83047
疆	-9.83061
凍	-9.83083
眀	-9.83143
朽	-9.83194
製	-9.83224
咸陽	-9.83227
以來	-9.83245
踏	-9.83284
澹	-9.8331
文武	-9.83429
爛	-9.83443
縈	-9.83461
夲	-9.83471
籬	-9.83544
聨	-9.83606
併	-9.83624
帷	-9.83638
寇	-9.83656
崑崙	-9.83717
相國	-9.83731
不必	-9.83774
以下	-9.8385
謡	-9.83925
則有	-9.83952
謝靈運	-9.83979
何必	-9.84049
僻	-9.8414
之則	-9.84249
着	-9.8427
下句	-9.84402
懇	-9.84488
十九	-9.84494
賔客	-9.8457
韓愈	-9.846
淹	-9.84727
時作	-9.84734
欣	-9.84866
無以	-9.85047
狐	-9.85137
風流	-9.85163
稅	-9.85195
觧	-9.85237
畜	-9.85245
揚雄	-9.85381
抽	-9.85459
皆以	-9.85507
片	-9.85575
幼	-9.85631
之日	-9.85659
南海	-9.85768
弦	-9.85805
障	-9.85816
軌	-9.85874
刃	-9.85927
二子	-9.86
場	-9.86028
蓬萊	-9.86099
午	-9.86115
勵	-9.86141
糧	-9.86259
其文	-9.86266
使者	-9.86289
貞觀	-9.86293
人心	-9.8635
寕	-9.86451
趙曰言	-9.86536
𤣥宗	-9.86592
四時	-9.86645
故事	-9.86648
謗	-9.86665
庻	-9.86667
蕭條	-9.86689
何事	-9.86758
閤	-9.8686
擅	-9.8687
其間	-9.86925
博士	-9.86968
戮	-9.86988
檢	-9.87012
侣	-9.87041
穀	-9.87053
紹	-9.87158
蓄	-9.87236
禦	-9.87255
涯	-9.8728
今朝	-9.87376
一朝	-9.87417
黜	-9.8746
截	-9.87467
衍	-9.87519
千年	-9.87543
嬌	-9.87647
山下	-9.87794
竄	-9.87849
欽定四庫全書	-9.87854
欵	-9.8786
西山	-9.87918
明日	-9.88012
之語	-9.88105
虹	-9.88147
台	-9.88174
帛	-9.88216
菜	-9.88232
書曰	-9.88249
驗	-9.88306
東山	-9.88406
不過	-9.88419
出於	-9.88442
諧	-9.88465
皓	-9.88569
屠	-9.88651
吏部	-9.88656
貞元	-9.88686
饑	-9.88794
快	-9.88808
咏	-9.88826
鋪	-9.88861
擾	-9.88879
别離	-9.88939
詎	-9.88943
壞	-9.88953
從此	-9.89009
白頭	-9.89042
悼	-9.89055
一本作	-9.89078
不在	-9.89107
天上	-9.89182
侍中	-9.89429
暇	-9.89558
掛	-9.89718
浸	-9.89719
今年	-9.89747
逮	-9.89771
文王	-9.89843
或有	-9.89867
三百	-9.89873
/○	-9.89912
不然	-9.89925
拾	-9.89972
醫	-9.90114
遁	-9.90116
南北	-9.90216
不聞	-9.90289
訖	-9.90341
其心	-9.9043
芝	-9.90435
蹈	-9.90539
罕	-9.90568
闊	-9.90572
旨	-9.90585
舅	-9.90666
鶴曰詩云	-9.90668
罔	-9.9072
傲	-9.90755
僅	-9.90788
子之	-9.90969
析	-9.90977
不至	-9.90983
関	-9.90985
課	-9.9099
主簿	-9.90992
㓂	-9.91002
之故	-9.91027
鷗	-9.9111
翫	-9.91111
岡	-9.91123
藤	-9.9117
滴	-9.91213
輦	-9.91301
江漢	-9.91413
偽	-9.91415
舍人	-9.91422
繆本	-9.91447
未必	-9.91506
友人	-9.91517
或无	-9.91519
庾信	-9.91578
東方	-9.91581
賴	-9.91601
上四	-9.91646
擲	-9.91801
刋	-9.9182
蝶	-9.91826
韶	-9.91897
蒼蒼	-9.91953
去年	-9.91953
於人	-9.92064
其地	-9.92148
伍	-9.92224
梓州	-9.9223
㳺	-9.92255
時人	-9.92263
公自	-9.92279
國之	-9.92292
冒	-9.92298
胥	-9.92334
斂	-9.92385
十里	-9.92389
觀察使	-9.92428
範	-9.92443
不覺	-9.92491
纓	-9.92533
傳云	-9.92665
誣	-9.92731
為人	-9.9275
唐人	-9.92848
協	-9.92862
其名	-9.9287
裳	-9.92878
慢	-9.9295
眺	-9.93014
桃李	-9.93101
莖	-9.93222
睿	-9.93264
森	-9.93339
金石	-9.9335
論語	-9.93422
夙	-9.93485
此篇	-9.93543
中國	-9.93549
仁義	-9.93552
往來	-9.93598
今之	-9.93666
馭	-9.93775
春草	-9.93856
亞	-9.93895
絶句	-9.93944
従	-9.93948
餞	-9.9396
床	-9.93966
洎	-9.93996
不成	-9.94065
文字	-9.94176
稻	-9.94196
明府	-9.94262
狼	-9.94283
声	-9.94316
叅	-9.94357
㦸	-9.94417
偉	-9.9442
者以	-9.94547
翳	-9.94591
之内	-9.94596
中書	-9.94684
霸	-9.94735
▁詩	-9.94742
考之	-9.94767
自是	-9.94894
咽	-9.94922
蘿	-9.94939
未能	-9.94992
赫	-9.95003
慧	-9.95022
肩	-9.95026
化為	-9.95195
幕府	-9.95223
摘	-9.95256
臥	-9.9527
西京	-9.95297
賦詩	-9.95415
雛	-9.95439
咨	-9.95451
抛	-9.95507
貟外	-9.95521
千金	-9.95531
往往	-9.956
婦人	-9.9564
薨	-9.95661
墟	-9.95703
衣冠	-9.95775
狄	-9.95789
玩	-9.95916
一曰	-9.95948
挺	-9.95957
叨	-9.9596
白首	-9.9609
柯	-9.96152
荀	-9.9622
蕭蕭	-9.96242
南方	-9.96276
各有	-9.96406
虧	-9.96457
乙	-9.96572
眷	-9.96579
揚州	-9.96602
梟	-9.96635
羣臣	-9.96693
梓	-9.96709
城南	-9.9677
單于	-9.96787
對曰	-9.96929
人事	-9.9693
府君	-9.96957
媿	-9.97024
額	-9.97031
距	-9.97032
瓜	-9.97092
第二	-9.971
中興	-9.97268
七年	-9.97295
學者	-9.97312
參差	-9.97322
滄海	-9.97438
懶	-9.97477
諸公	-9.97542
槐	-9.97642
㪚	-9.97688
狗	-9.97692
完	-9.97708
點	-9.97786
者必	-9.97788
冕	-9.97851
堤	-9.97931
賈誼	-9.98013
湖南	-9.98014
門下	-9.9803
鳯凰	-9.98039
杳	-9.98102
栽	-9.98181
變化	-9.98183
㧞	-9.98192
齊賢	-9.98243
再拜	-9.98259
千萬	-9.98299
武陵	-9.98364
瑟	-9.984
紛紛	-9.98459
嚴武	-9.98493
濶	-9.98579
之禮	-9.98603
與君	-9.98634
鼻	-9.98642
寃	-9.9865
常侍	-9.98731
父子	-9.98744
行人	-9.98763
秋日	-9.98818
蹄	-9.98829
不應	-9.98837
參軍	-9.98847
騷	-9.98887
九年	-9.98966
姪	-9.99034
創	-9.99079
盟	-9.99094
構	-9.99095
其子	-9.9911
溺	-9.992
所作	-9.99201
子厚	-9.99271
其身	-9.99279
䕫州	-9.9932
窟	-9.99414
禱	-9.99566
取其	-9.9987
携	-9.99925
蛟龍	-9.9993
零	-10.0011
娶	-10.0022
之美	-10.0026
受命	-10.0034
有時	-10.0037
軸	-10.0038
員	-10.0038
羌	-10.0046
鯨	-10.005
公詩	-10.0071
嶺南	-10.0074
其二	-10.0079
自有	-10.0084
禪師	-10.0084
究	-10.01
薪	-10.0114
後世	-10.0114
代宗	-10.0114
天之	-10.0119
局	-10.0132
豹	-10.0136
奠	-10.0137
蹤	-10.0138
不言	-10.0141
皃	-10.0143
勃	-10.0146
東北	-10.0148
中原	-10.0163
一首	-10.0167
不爲	-10.0171
阜	-10.0183
組	-10.0188
裝	-10.0188
板	-10.0189
艶	-10.019
逈	-10.0191
佞	-10.0194
舊史	-10.0199
酣	-10.0202
螢	-10.0206
王洙曰	-10.0218
巷	-10.0219
墓誌	-10.0221
江水	-10.0233
偕	-10.0236
㤙	-10.0239
廵	-10.0248
餌	-10.0257
邵	-10.0259
四月	-10.0262
而下	-10.0262
㱕	-10.0262
干戈	-10.0263
詩人	-10.0274
鉤	-10.0274
一無	-10.0276
謝靈運詩	-10.0278
焦	-10.0279
禮樂	-10.028
珪	-10.0281
非也	-10.0286
佇	-10.0302
時有	-10.0306
舊注	-10.0311
鵬	-10.0313
兎	-10.0316
車馬	-10.0321
𤓰	-10.0322
捷	-10.0327
修可曰	-10.0328
文選	-10.0329
風俗	-10.0341
葵	-10.0348
涇	-10.0353
此地	-10.0366
唐故	-10.037
朴	-10.038
門外	-10.0381
十二月	-10.0394
圃	-10.0398
江海	-10.0398
者其	-10.0403
豫	-10.0417
篆	-10.0419
濡	-10.0425
年年	-10.0426
武王	-10.0433
千載	-10.0435
汙	-10.0451
罰	-10.0452
頑	-10.0454
轡	-10.0473
太常	-10.0514
斑	-10.0522
煥	-10.0522
濫	-10.0523
溝	-10.0523
古樂府	-10.0527
大將軍	-10.0529
入朝	-10.053
之法	-10.0539
謨	-10.0546
律詩	-10.0546
臧	-10.0549
翦	-10.055
世説	-10.0565
霄	-10.057
膳	-10.0571
訴	-10.0572
海上	-10.0573
八年	-10.0575
他日	-10.0577
也言	-10.0583
監察御史	-10.0586
竿	-10.0587
漢武帝	-10.0587
几	-10.0588
賢者	-10.0593
蒼梧	-10.0593
文帝	-10.0595
項	-10.0596
詐	-10.0597
戾	-10.0597
之作	-10.0601
其志	-10.0611
說文	-10.0617
有一	-10.064
専	-10.0644
所在	-10.0644
藍田	-10.0645
篤	-10.0645
瀟湘	-10.0646
挾	-10.0648
奔走	-10.0657
之情	-10.0659
之盛	-10.0662
陸機	-10.0665
裔	-10.0667
愆	-10.0671
噫	-10.0673
不忘	-10.068
江山	-10.0682
所見	-10.069
至此	-10.0692
膝	-10.0692
而死	-10.0694
庚	-10.0695
相與	-10.0697
寂寥	-10.0697
鄕	-10.0698
不死	-10.0706
邱	-10.0715
其餘	-10.0719
江東	-10.072
猷	-10.0728
亷	-10.0738
而為	-10.0741
何由	-10.0745
禀	-10.0746
大師	-10.0757
沃	-10.0761
百官	-10.0762
狎	-10.0763
者有	-10.0764
第三	-10.077
不合	-10.0776
衣裳	-10.079
驟	-10.0792
蔓	-10.0796
陜	-10.0801
藍	-10.0802
浴	-10.0813
轅	-10.0816
徂	-10.0816
天台	-10.0833
飲酒	-10.0833
啄	-10.0839
聘	-10.0843
校書	-10.0844
砌	-10.0845
童曰	-10.0868
𥙷	-10.0869
無復	-10.087
者亦	-10.0871
其意	-10.088
爲之	-10.0889
䆫	-10.0891
寒食	-10.0892
祚	-10.0897
飜	-10.0898
驥	-10.0899
不當	-10.0904
集作	-10.0915
馴	-10.092
嚮	-10.0921
子弟	-10.0925
帖	-10.0932
女子	-10.0941
牋	-10.0944
恠	-10.0946
詭	-10.0949
新史	-10.0949
五六	-10.0949
記云	-10.0954
北斗	-10.0954
出門	-10.0955
不堪	-10.0958
不識	-10.0959
漂	-10.0962
叚	-10.0964
刼	-10.0967
膠	-10.0968
粧	-10.0969
徼	-10.0971
䑕	-10.0975
御史中丞	-10.098
籌	-10.0989
之氣	-10.0989
纒	-10.0991
萬人	-10.0997
古者	-10.1015
悶	-10.1017
亦曰	-10.1021
控	-10.1022
王孫	-10.1022
山谷	-10.1027
縷	-10.1029
宦	-10.103
吾子	-10.1035
冶	-10.1046
㓕	-10.1047
者為	-10.1047
軫	-10.1047
蘇州	-10.1051
也夫	-10.1058
圎	-10.107
菩薩	-10.107
粹	-10.1072
耻	-10.1074
虗	-10.1078
兇	-10.1096
刪	-10.1097
豈無	-10.1098
奬	-10.11
之才	-10.1102
懲	-10.1104
或云	-10.1107
故園	-10.1111
其上	-10.1112
文苑	-10.1114
者非	-10.1117
瘴	-10.1122
漢武	-10.1127
之恩	-10.1136
人情	-10.1136
進退	-10.1136
餐	-10.114
仲尼	-10.1144
搜	-10.1144
捕	-10.1146
桞	-10.1149
呌	-10.115
巫峽	-10.115
姜	-10.115
臻	-10.1152
三字	-10.116
潘岳	-10.117
曹植	-10.1172
少陵	-10.1186
梧	-10.1194
簪	-10.1198
填	-10.12
怠	-10.1202
嗜	-10.1208
昨日	-10.1213
相望	-10.1215
簟	-10.1225
慵	-10.1226
欹	-10.1227
宥	-10.1229
輟	-10.1229
或曰	-10.1248
沼	-10.1251
以言	-10.1253
陌	-10.1254
妍	-10.1258
堯舜	-10.1261
誥	-10.127
蠶	-10.1272
分明	-10.1277
架	-10.1278
廓	-10.1281
自此	-10.1297
下文	-10.1301
慚	-10.1304
舘	-10.1307
磬	-10.131
夢得	-10.1317
蘆	-10.1319
昆	-10.1325
檄	-10.1331
者乎	-10.1332
烹	-10.1338
令人	-10.1341
袍	-10.1344
冲	-10.1349
汲	-10.1349
大臣	-10.1359
生於	-10.136
鬬	-10.1377
枚	-10.1377
替	-10.1381
即位	-10.1382
未及	-10.1388
知之	-10.1396
護	-10.1405
誡	-10.1413
措	-10.1418
鈞	-10.142
而言	-10.1423
羈	-10.1425
一篇	-10.1428
王者	-10.1429
函	-10.1431
兔	-10.1432
轍	-10.1433
隙	-10.1433
沸	-10.1436
蹙	-10.1438
愼	-10.1442
感激	-10.1458
驂	-10.1459
風雲	-10.1464
豈有	-10.1467
東坡	-10.1487
不幸	-10.1487
一年	-10.1489
十一月	-10.1504
白髪	-10.1506
两	-10.1517
春色	-10.1524
艱難	-10.1527
不遇	-10.1537
恢	-10.1546
之辭	-10.1551
天子之	-10.156
歌曰	-10.1561
豆	-10.1566
從容	-10.1568
扉	-10.1568
聖人之	-10.158
奥	-10.1585
皇甫	-10.1586
芒	-10.159
閔	-10.1593
縣有	-10.16
奈何	-10.1608
姓名	-10.1609
揖	-10.1612
通鑑	-10.1623
汴	-10.1625
即事	-10.1632
天涯	-10.1634
他人	-10.1635
唯有	-10.1644
一百	-10.1644
佳人	-10.1645
而歸	-10.165
氛	-10.1652
怯	-10.1655
朔方	-10.1666
夕陽	-10.1666
洙曰見	-10.1668
而行	-10.1669
隂陽	-10.167
軰	-10.1671
詩序	-10.1673
詶	-10.1675
宣城	-10.1676
栗	-10.1677
脂	-10.1678
閣本	-10.1687
故也	-10.1689
藴	-10.1707
儔	-10.1709
跳	-10.1713
沾	-10.1724
曰我	-10.1724
鳩	-10.1731
頸	-10.1733
窓	-10.1738
山人	-10.1741
之說	-10.1742
礼	-10.1748
文集	-10.1748
蔡曰	-10.1751
造化	-10.1755
不任	-10.1757
宗元	-10.1761
括	-10.1762
鸎	-10.1763
蒼生	-10.1764
亟	-10.1767
亦可	-10.1778
殺之	-10.1778
水中	-10.1784
貝	-10.1784
憲宗	-10.1784
訟	-10.1786
阮籍	-10.1787
壊	-10.179
未得	-10.1792
不出	-10.1792
粗	-10.1794
送李	-10.1797
之亂	-10.1798
駿	-10.1804
名也	-10.1806
萬國	-10.1811
如今	-10.1813
丈夫	-10.1818
之詞	-10.1824
褐	-10.1839
瘦	-10.1844
蟻	-10.1845
瑕	-10.1846
纂	-10.1848
豔	-10.1848
白帝	-10.1853
其家	-10.1867
月明	-10.187
株	-10.1873
童子	-10.188
指言	-10.1887
兵馬	-10.1889
方無	-10.1889
翮	-10.189
宸	-10.1892
君王	-10.1894
萬古	-10.1894
王母	-10.1894
仇	-10.1896
亦無	-10.1899
絹	-10.19
珮	-10.19
丕	-10.1901
閱	-10.1902
匿	-10.1903
布衣	-10.1909
之誠	-10.1919
扁舟	-10.193
旌旗	-10.193
級	-10.1933
不易	-10.1934
幽州	-10.1935
丹青	-10.194
湛	-10.195
廊	-10.195
司馬相如	-10.1955
誼	-10.198
衫	-10.1981
新書	-10.1983
甲子	-10.1986
覔	-10.1986
鬚	-10.1988
貯	-10.199
終不	-10.1995
微之	-10.2004
憫	-10.2012
苞	-10.2013
箋	-10.2014
萌	-10.2014
坦	-10.2015
七言	-10.2027
故以	-10.2032
督	-10.2032
可見	-10.2035
沛	-10.2036
遏	-10.2041
▁今按	-10.2042
潰	-10.2042
處處	-10.2043
故鄉	-10.2043
青天	-10.2047
海内	-10.2048
掾	-10.2055
觀其	-10.2061
池上	-10.2063
紆	-10.2068
頴	-10.2069
㠶	-10.207
艾	-10.2071
孽	-10.2073
侍御史	-10.2083
不歸	-10.2085
禮部	-10.2085
字非是	-10.2085
嵇康	-10.2092
塟	-10.2096
欄	-10.21
塵埃	-10.21
國語	-10.2101
姻	-10.2102
涵	-10.2102
猶未	-10.2107
不足以	-10.2108
乂	-10.2125
廣陵	-10.2126
簮	-10.2127
汾	-10.2127
罹	-10.2127
蜂	-10.2129
洒	-10.2131
其下	-10.2132
三十六	-10.2142
拱	-10.2147
漿	-10.2152
瓶	-10.2153
二千石	-10.2159
評	-10.2167
液	-10.2181
鴛鴦	-10.2181
閨	-10.2183
斈	-10.2191
奈	-10.2191
隴西	-10.2192
之説	-10.2199
之南	-10.2209
􁀙	-10.221
黄河	-10.2217
人以	-10.2219
塲	-10.2219
天寶	-10.2224
有大	-10.2235
闇	-10.2238
坂	-10.2239
椒	-10.2239
其一	-10.2253
堦	-10.2255
之任	-10.226
鍊	-10.2262
殿中侍御史	-10.2267
汴州	-10.2267
未詳	-10.2271
不與	-10.2277
地名	-10.2279
耆	-10.2281
王粲	-10.2282
詳見	-10.2283
琳	-10.2289
鬭	-10.2295
可汗	-10.2297
蘂	-10.2298
逍遥	-10.2299
諸將	-10.2302
平原	-10.2302
記曰	-10.2303
神明	-10.2311
太夫人	-10.2325
鳯翔	-10.2327
千古	-10.2328
楚王	-10.2339
莽	-10.2339
花落	-10.2341
雲雨	-10.2345
匠	-10.2347
杏	-10.2348
徇	-10.2363
舎人	-10.2365
一言	-10.2365
零落	-10.2368
譜	-10.2371
三四	-10.2376
氏之	-10.238
衮	-10.238
胄	-10.2382
跨	-10.2383
若是	-10.2385
炙	-10.2385
此句	-10.2387
蟠	-10.2387
演	-10.2388
榻	-10.2388
灼	-10.239
遜	-10.2392
九重	-10.2402
秪	-10.2409
此章	-10.2413
秋水	-10.2422
沮	-10.2424
一旦	-10.2435
不是	-10.2437
箴	-10.2448
宗廟	-10.2448
鸚鵡	-10.2449
郞	-10.245
撥	-10.2451
三峽	-10.2459
梵	-10.2471
滌	-10.2473
聮	-10.2476
江西	-10.2481
十二年	-10.2481
也公	-10.2485
何足	-10.2487
駒	-10.2492
夔	-10.2494
皇后	-10.2498
掖	-10.25
稜	-10.2505
荆南	-10.2513
俸	-10.2529
騁	-10.2534
本草	-10.2535
憎	-10.2535
亦云	-10.254
蛟	-10.2542
九江	-10.2543
杭本	-10.2552
喚	-10.2566
西方	-10.2568
卦	-10.2568
四字	-10.2569
山河	-10.2575
三公	-10.2579
可知	-10.2581
喬	-10.259
綬	-10.2591
寮	-10.2591
袂	-10.2592
从	-10.2593
日夜	-10.2593
黍	-10.2593
蓮花	-10.2594
數十	-10.2595
耗	-10.2599
之狀	-10.2599
殷勤	-10.2603
知音	-10.2604
泰山	-10.2604
誰家	-10.2611
扶風	-10.2618
諸生	-10.2639
嶠	-10.2643
十餘	-10.2643
給事中	-10.2646
豈非	-10.2647
又以	-10.2649
綏	-10.2654
戢	-10.2657
楓	-10.2672
從之	-10.2677
上書	-10.268
六十	-10.2683
跪	-10.2684
覧	-10.2687
詩有	-10.2689
冨	-10.269
骨肉	-10.2692
縱横	-10.2693
一字	-10.2695
也然	-10.2696
杜陵	-10.2707
虬	-10.2709
减	-10.2714
則知	-10.2714
昬	-10.2715
虐	-10.2719
見之	-10.272
公為	-10.2722
之臣	-10.2724
二十四	-10.2724
霍	-10.2732
有感	-10.2735
今則	-10.2736
猶有	-10.2746
太學	-10.2758
執事	-10.276
豈可	-10.2761
萬年	-10.2763
疇	-10.2766
之理	-10.2766
華州	-10.2767
徐州	-10.2769
牟	-10.2772
絡	-10.2772
有功	-10.2777
淮西	-10.2777
王子	-10.2787
十五年	-10.2796
蔣	-10.2797
即此	-10.2801
見前	-10.2803
有三	-10.2804
坤	-10.2806
緯	-10.2806
湍	-10.2807
較	-10.2808
無由	-10.2818
臘	-10.2823
而作	-10.2827
西京雜記	-10.2829
帯	-10.2831
飡	-10.2836
躡	-10.2836
檀	-10.2837
州司馬	-10.2837
茲	-10.2839
係	-10.2862
狹	-10.2865
奢	-10.2867
傷心	-10.2885
貳	-10.2891
朝夕	-10.2898
山林	-10.2901
闘	-10.2904
至是	-10.2909
毅	-10.2915
壯士	-10.2924
渇	-10.2925
衷	-10.2926
轂	-10.2926
棺	-10.2929
芳草	-10.2929
麾	-10.2931
三軍	-10.2932
公孫	-10.2934
是為	-10.2939
上柱國	-10.2943
峭	-10.295
斤	-10.2951
從軍	-10.2952
之詩	-10.2955
嵐	-10.2959
落花	-10.2968
一枝	-10.2972
諾	-10.2973
華山	-10.298
日出	-10.2981
恕	-10.2992
閤下	-10.2995
其時	-10.2996
幾時	-10.3015
鵝	-10.3018
衙	-10.3019
丸	-10.302
忙	-10.3021
之命	-10.3027
獨立	-10.3032
吁	-10.3033
宣州	-10.3039
謝安	-10.3044
遣使	-10.3045
當在	-10.3048
江淹	-10.3049
的	-10.3049
勅	-10.305
鏤	-10.3051
蜀本作	-10.3053
銳	-10.3056
翹	-10.3057
相去	-10.3066
之門	-10.3067
號曰	-10.3068
自謂	-10.3068
丹陽	-10.3071
凄	-10.3071
有二	-10.3072
沐	-10.3077
榆	-10.3078
揔	-10.308
斾	-10.3082
噴	-10.3083
屑	-10.3084
饋	-10.3087
梗	-10.3087
我心	-10.3092
聞道	-10.3092
社稷	-10.3092
之大	-10.3097
老人	-10.3099
多病	-10.3106
寔	-10.3117
永州	-10.3118
駢	-10.3119
五首	-10.3119
垢	-10.3135
年少	-10.3141
壮	-10.3141
縛	-10.3142
羨	-10.3143
視之	-10.3148
衡山	-10.3157
耳目	-10.3161
系	-10.317
雲臺	-10.3184
筠	-10.3192
傳曰	-10.3199
白雪	-10.3203
吾道	-10.3205
饗	-10.3205
十四年	-10.3205
版	-10.3209
闔	-10.3209
梢	-10.321
州縣	-10.321
肇	-10.3214
覇	-10.3217
大道	-10.3228
而能	-10.323
歸去	-10.3232
舊唐書	-10.3242
家貧	-10.3243
穢	-10.3245
兾	-10.3246
囬	-10.3247
賢人	-10.3247
十萬	-10.3261
五湖	-10.3262
簫	-10.3262
有此	-10.3265
庫	-10.3266
斯文	-10.3269
借問	-10.3269
漆	-10.3269
螭	-10.3277
紂	-10.3278
侈	-10.3279
不盡	-10.3283
鷺	-10.3291
太公	-10.3292
曩	-10.3309
内外	-10.3312
於斯	-10.3316
時時	-10.3318
以文	-10.3325
書云	-10.3329
九州	-10.333
其實	-10.3331
始知	-10.3333
魁	-10.3339
文學	-10.3339
漠漠	-10.3339
長者	-10.334
上天	-10.3347
城中	-10.3351
莫能	-10.3356
者曰	-10.3356
下四	-10.3356
見上	-10.3358
漲	-10.3363
豕	-10.3364
老夫	-10.3367
湧	-10.3369
離騷	-10.3369
鷰	-10.3372
皷	-10.3374
王維	-10.3379
一身	-10.3383
二百	-10.3387
一切	-10.3389
於時	-10.3391
對酒	-10.3392
之師	-10.3396
安可	-10.3399
摇	-10.3399
弩	-10.34
現	-10.34
禾	-10.3402
丈人	-10.3403
莭	-10.3404
扈	-10.3411
上或	-10.3421
因以	-10.3429
人不	-10.3435
訣	-10.3436
生死	-10.3439
畱	-10.344
潯陽	-10.3443
知已	-10.3454
相對	-10.3456
二十年	-10.3456
未可	-10.3457
雌	-10.3461
則是	-10.3465
滄洲	-10.3467
畦	-10.347
敞	-10.347
悵望	-10.3473
橫	-10.3473
而又	-10.348
二十八	-10.3481
大厯	-10.3483
同時	-10.3488
江淮	-10.349
湘水	-10.349
光武	-10.3492
岫	-10.3492
五百	-10.3492
瑩	-10.35
譬	-10.35
集中	-10.3501
道也	-10.3503
形容	-10.3506
文粹	-10.3512
剖	-10.3529
三人	-10.3535
乱	-10.3535
秦州	-10.354
五日	-10.3542
洙曰言	-10.3546
邇	-10.3557
叩	-10.356
惶	-10.3562
彫	-10.3562
劫	-10.3565
㢤	-10.3566
冤	-10.3568
嬴	-10.3571
不暇	-10.3571
秦王	-10.358
睦	-10.3581
万	-10.3593
鷄	-10.3594
鵠	-10.3595
亘	-10.3598
十三年	-10.3599
無限	-10.3606
詩書	-10.361
八句	-10.3619
明堂	-10.3623
范陽	-10.3629
捐	-10.363
上元	-10.363
晝夜	-10.363
白水	-10.3631
蟄	-10.3633
事見	-10.3641
英華作	-10.3645
之靈	-10.3647
遼	-10.3661
奉和	-10.3661
准	-10.3663
拳	-10.3664
廽	-10.3667
黷	-10.367
隴右	-10.3674
孺	-10.3675
山之	-10.3678
東方朔	-10.368
經過	-10.3683
與人	-10.3687
之難	-10.369
麒麟	-10.3695
消息	-10.3695
絕	-10.37
㪯	-10.3701
靄	-10.3702
以成	-10.3704
舊本	-10.3718
者則	-10.3724
之西	-10.3724
稷	-10.3729
滄浪	-10.3729
上句	-10.3732
峙	-10.3732
縮	-10.3736
楹	-10.3739
月令	-10.3741
門前	-10.376
煖	-10.3762
濱	-10.3762
不通	-10.3762
彊	-10.3763
囂	-10.3763
回首	-10.3766
炳	-10.3766
鮑照詩	-10.3777
班固	-10.378
挽	-10.3782
黔	-10.3785
死生	-10.3786
眇	-10.3788
猶在	-10.3789
扣	-10.3801
未盡	-10.3801
之位	-10.3802
鄴	-10.3809
天地之	-10.3811
而不能	-10.3814
御史大夫	-10.3815
闈	-10.3824
畿	-10.3828
之處	-10.3829
斧	-10.3829
穎	-10.3829
盡日	-10.3829
闌	-10.383
鶴注	-10.3831
一生	-10.3837
柴	-10.3848
匣	-10.3849
都督	-10.385
人所	-10.3861
何為	-10.3861
敝	-10.3867
飬	-10.387
于是	-10.3885
十日	-10.3886
邯鄲	-10.3894
昨夜	-10.3897
蔚	-10.3897
奕	-10.3901
而出	-10.3904
新詩	-10.3909
之術	-10.391
宫中	-10.3911
之餘	-10.3913
本傳	-10.3918
南國	-10.3925
琯	-10.3927
詰	-10.3933
䰟	-10.3936
有神	-10.3938
札	-10.3938
之徳	-10.3938
其先	-10.3939
成功	-10.3946
之風	-10.3958
功名	-10.3966
緘	-10.3966
渴	-10.3967
掘	-10.3967
宇宙	-10.3972
郎官	-10.3973
断	-10.3975
鞍	-10.3975
之勢	-10.3977
之謂	-10.398
白露	-10.3983
歌詩	-10.3993
蹉跎	-10.4003
牡丹	-10.4005
侔	-10.4005
漾	-10.4007
衘	-10.4008
杜甫	-10.4009
聖朝	-10.4012
軍中	-10.4015
飲食	-10.4018
衣食	-10.4023
流落	-10.4023
乃知	-10.4024
雨露	-10.4028
笳	-10.4031
汎	-10.4032
誄	-10.4033
竦	-10.4039
千秋	-10.4039
搏	-10.4041
奸	-10.4042
日日	-10.4045
第五	-10.4053
作詩	-10.4055
中使	-10.4057
若干	-10.4071
棊	-10.4072
暄	-10.4073
蠧	-10.4077
給事	-10.408
鮑照	-10.4082
逺近	-10.4083
謂其	-10.4085
舟中	-10.4086
齡	-10.4087
蕭本	-10.4089
楚人	-10.4091
之制	-10.4095
不朽	-10.4096
秋夜	-10.4099
粲	-10.4099
霜雪	-10.41
荘子	-10.41
道者	-10.41
舉進士	-10.4101
牕	-10.4105
鐡	-10.4105
猜	-10.4109
夔州	-10.411
鋤	-10.411
謾	-10.411
芻	-10.4114
次第	-10.4114
所云	-10.4117
題詩	-10.4129
廣韻	-10.413
皎	-10.4132
四人	-10.4136
三十里	-10.4136
婉	-10.4141
軀	-10.4142
邸	-10.4143
誨	-10.4144
之力	-10.4145
逄	-10.4147
膚	-10.4147
石門	-10.4149
所知	-10.4152
而自	-10.4152
般	-10.4168
尼	-10.4169
裕	-10.4172
出為	-10.4175
國公	-10.4178
詢	-10.4178
失其	-10.4181
搆	-10.4181
置酒	-10.4192
衆人	-10.4195
朋友	-10.4199
多少	-10.42
白玉	-10.4204
騫	-10.4205
一統志	-10.4206
劉向	-10.4208
閬州	-10.4212
愴	-10.4215
東風	-10.4217
秋月	-10.422
嗚呼哀哉	-10.4238
棟	-10.4241
野人	-10.4244
打	-10.4246
攘	-10.4247
租	-10.4247
為我	-10.425
猥	-10.425
慨	-10.4252
五里	-10.4254
三本	-10.4255
死者	-10.4261
山海經	-10.4266
不動	-10.4272
耿	-10.4273
考功	-10.4273
居易	-10.4279
在此	-10.4279
上或有	-10.4281
汀	-10.4282
萃	-10.4283
王師	-10.4288
黄鶴	-10.4291
者如	-10.4291
魏文帝	-10.4293
小兒	-10.4294
弼	-10.4304
百萬	-10.4305
東京	-10.4308
罇	-10.4314
丑	-10.4318
綸	-10.4318
若有	-10.4319
譲	-10.4319
窗	-10.432
山有	-10.4322
豫章	-10.4324
名山	-10.4336
李杜	-10.4339
笋	-10.4341
暝	-10.4348
團	-10.435
艸	-10.4351
觀之	-10.4351
樸	-10.4353
曵	-10.4356
梨	-10.436
覲	-10.4361
厄	-10.4361
者謂	-10.4368
去聲	-10.4375
無心	-10.4378
蔡邕	-10.4387
亊	-10.439
它	-10.439
不食	-10.4391
脉	-10.4391
內	-10.4394
士卒	-10.4394
武功	-10.4397
不獲	-10.4397
世間	-10.4407
青青	-10.4407
西域	-10.4408
之東	-10.4411
同年	-10.4413
鶻	-10.4418
稚	-10.4419
若此	-10.4422
出處	-10.4422
甸	-10.4423
天馬	-10.4424
明主	-10.4424
拆	-10.4425
也若	-10.443
虢	-10.4433
漁父	-10.4434
漠	-10.4434
相似	-10.4439
童云	-10.4441
英雄	-10.4442
又何	-10.4445
浄	-10.4451
李善註	-10.4454
沿	-10.4459
沂	-10.4459
酸	-10.4459
賁	-10.446
水經注	-10.4465
安能	-10.4467
君不見	-10.4474
在長安	-10.4476
是故	-10.4478
北海	-10.4479
秘書	-10.4479
君子之	-10.448
縣南	-10.4487
一二	-10.4489
上方	-10.4493
梯	-10.4493
肝	-10.4494
丹砂	-10.4497
掠	-10.45
驪山	-10.45
不知其	-10.4507
得失	-10.4515
儼	-10.4517
祇	-10.4527
▁杜臆	-10.453
懽	-10.4531
無情	-10.4532
壷	-10.4535
測	-10.4535
蠲	-10.4535
以示	-10.4539
不待	-10.4546
中外	-10.4546
媒	-10.4566
膽	-10.4567
迥	-10.4569
一巻	-10.457
噐	-10.4573
賓客	-10.458
師云	-10.4581
不免	-10.4583
離别	-10.4585
之德	-10.4587
著書	-10.459
寒暑	-10.4593
六合	-10.4594
三尺	-10.4597
亦何	-10.4598
乾元二年	-10.4601
亦以	-10.4605
末句	-10.4606
耽	-10.4607
䕃	-10.4611
矧	-10.4616
度支	-10.4617
搖	-10.4636
槎	-10.4638
而得	-10.4638
翡翠	-10.464
文公	-10.4641
故名	-10.4654
誰知	-10.4661
山南	-10.4662
歌行	-10.4663
某官	-10.4666
京兆尹	-10.4669
張籍	-10.4671
此乃	-10.4672
蔬	-10.4673
醴	-10.4677
寅	-10.4678
慷慨	-10.468
頒	-10.468
煎	-10.4681
繪	-10.4682
冡	-10.4682
庇	-10.4684
黛	-10.4685
薫	-10.4686
白髮	-10.4687
字子	-10.4705
于此	-10.4705
江夏	-10.4706
穹	-10.4711
諡	-10.4713
瀆	-10.4713
挈	-10.4717
檣	-10.4718
珊瑚	-10.472
咫尺	-10.4721
禹貢	-10.4723
毀	-10.4723
沈約	-10.4729
京兆府	-10.4732
改為	-10.4741
妨	-10.4742
礙	-10.4755
暁	-10.4756
㓗	-10.4758
道之	-10.4758
蜀都賦	-10.4759
太史	-10.476
鉞	-10.4764
李公	-10.4766
太和	-10.4774
乎其	-10.478
副使	-10.478
歌舞	-10.4787
呂	-10.4788
揆	-10.4794
迭	-10.4795
河中	-10.48
之精	-10.4802
諸道	-10.4804
翟	-10.4807
之女	-10.4821
中書舍人	-10.4825
敖	-10.4826
腐	-10.4827
棗	-10.4827
怕	-10.4829
荘	-10.483
憚	-10.4831
其義	-10.4833
羽林	-10.4833
為君	-10.4834
尚書郎	-10.4834
白帝城	-10.4845
其字	-10.4846
蕙	-10.4852
玄宗	-10.4854
貺	-10.4862
而成	-10.4864
不絶	-10.4864
癡	-10.4865
山居	-10.4866
相識	-10.4867
弭	-10.4869
厨	-10.4869
呀	-10.487
凖	-10.4873
郡王	-10.4875
二公	-10.488
意氣	-10.4888
濵	-10.489
公諱	-10.489
獨孤	-10.4894
颯	-10.4898
河西	-10.49
鑪	-10.49
渥	-10.4901
彭城	-10.4901
宣王	-10.4902
於天下	-10.4903
邢	-10.4906
詔書	-10.4906
筭	-10.4906
有道	-10.4907
粒	-10.4908
楽	-10.4908
終南	-10.4909
櫻桃	-10.4917
王公	-10.4923
荆門	-10.4923
大抵	-10.4924
杭州	-10.4928
東野	-10.493
公與	-10.493
而生	-10.4934
紗	-10.4937
毗	-10.4938
縣尉	-10.4939
盆	-10.4941
渙	-10.4944
不若	-10.4944
撲	-10.4944
悖	-10.4947
盪	-10.4947
星辰	-10.4953
萬方	-10.4968
上皇	-10.4971
不容	-10.4972
德宗	-10.4975
閩	-10.4976
政事	-10.4978
第四	-10.498
跋	-10.498
貎	-10.4982
得以	-10.4983
冐	-10.4984
江州	-10.4987
潭州	-10.4991
所得	-10.4992
帝王	-10.4993
渭水	-10.5
未足	-10.5004
閶闔	-10.5014
莎	-10.5016
潺湲	-10.5017
驪	-10.5018
痕	-10.5018
桃源	-10.5021
居士	-10.5023
廣州	-10.5024
杜公	-10.5026
菱	-10.5033
金吾	-10.5035
東川	-10.5038
本無	-10.5041
其才	-10.5045
浩浩	-10.5047
什	-10.505
賖	-10.5053
凢	-10.5056
斯人	-10.5056
抃	-10.5056
故其	-10.5057
妬	-10.5057
之聲	-10.5063
功曹	-10.5065
天意	-10.5082
麓	-10.5089
閲	-10.5089
馨	-10.5089
制勑	-10.509
璋	-10.5092
曰臣	-10.5095
脅	-10.5097
桀	-10.5099
遂以	-10.5107
二十五	-10.511
萬事	-10.5112
為文	-10.5113
之樂	-10.5124
故國	-10.5128
一句	-10.513
隷	-10.5136
通典	-10.5145
二十二	-10.5147
西京賦	-10.5151
紳	-10.5157
在今	-10.5163
歐陽	-10.5166
璞	-10.517
右丞	-10.5174
剥	-10.5174
昔者	-10.5175
汪	-10.5175
陽縣	-10.5177
祔	-10.5181
妹	-10.5187
中夜	-10.5193
山上	-10.5197
撓	-10.5205
榛	-10.5208
明經	-10.5208
李太白	-10.5209
鏁	-10.5212
郭璞	-10.5212
稼	-10.5214
不失	-10.5219
歐	-10.5221
鳥獸	-10.523
老病	-10.5231
濬	-10.5233
無可	-10.524
鑑	-10.5241
祁	-10.5244
才子	-10.5246
時事	-10.525
數百	-10.5251
羲和	-10.5253
趙次公曰	-10.5264
惕	-10.5264
亦作	-10.5265
終身	-10.5265
用兵	-10.5268
評事	-10.5269
皇太子	-10.527
知君	-10.5272
兵戈	-10.5278
甥	-10.5279
未甞	-10.5281
忩	-10.5281
自知	-10.5283
頋	-10.5284
甕	-10.5287
篁	-10.5289
涸	-10.529
裙	-10.529
序云	-10.529
江淹詩	-10.5292
皇天	-10.5297
正字	-10.5301
歎息	-10.5302
回鶻	-10.5303
以求	-10.5303
京城	-10.5305
此意	-10.5314
伎	-10.5325
大江	-10.5326
罄	-10.5327
東歸	-10.5328
惻	-10.5329
兩本	-10.5338
羽翼	-10.5353
鄒	-10.5358
永嘉	-10.5361
槩	-10.5363
逶迤	-10.5366
隘	-10.5367
悅	-10.5368
同心	-10.5377
之前	-10.5379
由來	-10.5382
嘶	-10.5392
杜補遺	-10.5395
公曰	-10.5401
以喻	-10.5403
五千	-10.5405
無遺	-10.5406
歘	-10.5408
疋	-10.5409
聮句	-10.5411
扶桑	-10.5413
州長史	-10.5416
何不	-10.5416
閬	-10.5417
不顧	-10.5425
不入	-10.5425
城西	-10.5428
何日	-10.5429
河南府	-10.5437
留别	-10.5437
相隨	-10.544
回紇	-10.5441
城東	-10.5447
薰	-10.5448
自言	-10.5448
稔	-10.5448
十一年	-10.5451
継	-10.5452
畝	-10.5458
松栢	-10.5464
梅花	-10.5481
醪	-10.5482
天寒	-10.5483
油	-10.5483
軟	-10.5484
繇	-10.5489
献	-10.549
天門	-10.5493
光輝	-10.5495
神女	-10.55
地理志	-10.5502
而來	-10.5503
之業	-10.5505
奉天	-10.5508
行營	-10.5512
未至	-10.5512
嘲	-10.552
禁中	-10.5521
上帝	-10.5521
磧	-10.5523
潦	-10.5526
覊	-10.5527
其可	-10.5527
忤	-10.5527
鍳	-10.5531
北風	-10.5534
城上	-10.5538
諸軍	-10.5545
韜	-10.5545
大小	-10.5549
元氣	-10.555
之北	-10.5555
以待	-10.5555
聖賢	-10.5557
幢	-10.5558
硯	-10.5562
寂寂	-10.5562
鳳凰	-10.5562
狩	-10.5562
饌	-10.5565
溫	-10.5565
風起	-10.5566
技	-10.5567
伺	-10.5569
今本	-10.5582
夏日	-10.5589
之屬	-10.5604
腥	-10.5607
張衡	-10.561
孤舟	-10.5615
叅軍	-10.5621
新添	-10.5623
茫	-10.5626
餓	-10.5635
旄	-10.5638
殺人	-10.564
然也	-10.5644
舊書	-10.5645
潁	-10.5647
攅	-10.565
西都賦	-10.5652
方无	-10.5653
得罪	-10.5657
此云	-10.5663
登樓	-10.5669
昭王	-10.5672
及其	-10.5676
如故	-10.5678
億	-10.5679
滛	-10.5686
風景	-10.5689
愜	-10.5689
區區	-10.5689
瀼西	-10.5689
濠	-10.569
迨	-10.5693
飛鳥	-10.5695
安西	-10.5699
雲中	-10.5703
嚴公	-10.5703
太祖	-10.5704
曰子	-10.5707
高祖	-10.5715
杜鵑	-10.5716
南宫	-10.5718
崆峒	-10.5721
自得	-10.5721
入蜀	-10.5722
花開	-10.5722
留守	-10.5723
叱	-10.5726
琵琶	-10.5726
滂	-10.5727
覓	-10.5727
㳂	-10.573
漢中	-10.5732
蘓	-10.5733
建安	-10.5734
研	-10.5734
幣	-10.5734
幽人	-10.5739
祕	-10.5746
則曰	-10.5748
之神	-10.5755
其聲	-10.5755
皆作	-10.5756
壻	-10.576
月中	-10.5762
明朝	-10.5765
隐	-10.5766
綃	-10.5766
税	-10.5767
釐	-10.5767
慟	-10.5769
羲	-10.5778
其年	-10.5781
以比	-10.5784
悽	-10.5799
恬	-10.58
若不	-10.5803
叔文	-10.5804
準	-10.5809
姊	-10.581
戦	-10.5815
之物	-10.5816
淹留	-10.5819
箕	-10.582
曹子建	-10.582
聰	-10.5828
漢陽	-10.583
復何	-10.5831
唐志	-10.584
臆	-10.5841
繆	-10.5842
不受	-10.5844
用事	-10.5848
遞	-10.5849
啇	-10.5853
朱門	-10.5854
逋	-10.5858
澆	-10.5861
此語	-10.5861
方本	-10.5862
不樂	-10.5867
之初	-10.5869
煙霞	-10.5869
棧	-10.5876
之妙	-10.5883
將士	-10.5884
閏	-10.5891
窄	-10.5892
坼	-10.5892
躋	-10.5893
挹	-10.5895
䄂	-10.5896
見贈	-10.5896
成王	-10.5902
水流	-10.5904
魏志	-10.5906
林下	-10.5912
百餘	-10.5917
縣北	-10.5921
張華	-10.5922
小子	-10.5923
韻㑹	-10.5923
縣西	-10.5932
雷霆	-10.5932
時節	-10.5936
鎻	-10.5937
趍	-10.5937
鼇	-10.5937
艷	-10.5938
相憶	-10.5938
夜深	-10.5949
靈武	-10.5956
兼御史大夫	-10.5963
至尊	-10.5965
問之	-10.5966
稚子	-10.5967
今古	-10.5971
訝	-10.5974
隕	-10.5976
西川	-10.5977
生涯	-10.5978
孚	-10.5979
華陽	-10.5984
李斯	-10.5986
蜀人	-10.5987
途中	-10.5987
尙書	-10.599
眼前	-10.5996
兵馬使	-10.5996
白石	-10.6002
以上	-10.6002
中間	-10.6003
集序	-10.6006
所為	-10.6014
衾	-10.6014
駟	-10.6015
迢迢	-10.6015
瑣	-10.6016
蔵	-10.6019
方从	-10.6019
濳	-10.602
澁	-10.602
趙曰公	-10.6021
迸	-10.6022
柰	-10.6026
叔父	-10.6031
矣故	-10.6031
心不	-10.6037
工部	-10.6037
集巻	-10.6041
至公	-10.6044
笙	-10.6044
掉	-10.6048
釵	-10.605
不解	-10.605
終始	-10.605
少尹	-10.6051
王氏	-10.6055
絮	-10.6057
人有	-10.6059
紫微	-10.6059
彦輔曰	-10.606
其有	-10.606
錬	-10.6062
祉	-10.6068
稽首	-10.6076
聖主	-10.6077
青春	-10.6087
竹林	-10.6087
見於	-10.6088
和尚	-10.6089
卭	-10.6094
又作	-10.6097
而爲	-10.6099
王之	-10.61
周旋	-10.61
甘泉	-10.6101
箇	-10.6102
茸	-10.6103
知制誥	-10.6103
知名	-10.6103
月夜	-10.6109
月日	-10.6111
雲安	-10.6111
四皓	-10.6116
唐時	-10.6117
飈	-10.6117
明矣	-10.6123
登髙	-10.6123
於外	-10.6124
所思	-10.6124
先主	-10.6129
亂離	-10.613
所宜	-10.613
嗣立案	-10.614
部郎中	-10.6141
五字	-10.6143
寘	-10.6146
算	-10.6146
風波	-10.6146
早春	-10.6147
揭	-10.6152
如來	-10.6152
五行	-10.6153
世人	-10.6162
太后	-10.6167
則不	-10.6167
欲以	-10.618
翊	-10.6185
竝	-10.6187
沴	-10.6191
男兒	-10.6194
之職	-10.6198
甿	-10.6198
豈知	-10.6225
婢	-10.6228
舂	-10.6229
飮	-10.6232
寰宇記	-10.6233
鷁	-10.6234
之數	-10.6235
畆	-10.6237
煦	-10.624
人家	-10.6244
七日	-10.6247
五馬	-10.625
章句	-10.6256
世之	-10.6257
天人	-10.6263
𦙍	-10.627
茹	-10.6277
之景	-10.6278
拓	-10.628
太山	-10.6286
孔子曰	-10.6288
先王	-10.6289
留後	-10.6295
陛	-10.6298
爲人	-10.6302
李陵	-10.6308
是謂	-10.6309
父老	-10.631
陸士衡	-10.631
椎	-10.6315
洩	-10.6318
冗	-10.6321
零陵	-10.6322
恊	-10.6323
河南尹	-10.6324
不起	-10.6332
部員外郎	-10.6333
一片	-10.6338
浩蕩	-10.6338
山隂	-10.6339
溟	-10.6342
功成	-10.6343
巻註	-10.6344
獨坐	-10.6345
蘋	-10.6354
擕	-10.6354
殯	-10.6359
道州	-10.6361
陽山	-10.6361
蘇武	-10.6362
噪	-10.6363
粤	-10.6363
裹	-10.6364
伏惟陛下	-10.637
乾元元年	-10.6379
東流	-10.639
樓上	-10.6391
求之	-10.6394
以聞	-10.6398
此皆	-10.6398
新安	-10.6401
豺狼	-10.6404
蹊	-10.6406
盜賊	-10.6408
鞠	-10.6408
忿	-10.6411
騎馬	-10.6412
貴妃	-10.6413
號為	-10.6419
别有	-10.6419
精神	-10.6421
功德	-10.6421
之矣	-10.6432
兒童	-10.6433
貂	-10.6438
之書	-10.6442
詩意	-10.6444
輕重	-10.6445
挿	-10.6447
亢	-10.6448
隄	-10.645
閟	-10.645
殄	-10.6457
泛舟	-10.6459
一曲	-10.646
思歸	-10.6461
取之	-10.6463
寐	-10.6465
空山	-10.6472
篋	-10.6474
我有	-10.648
起居	-10.6488
有異	-10.649
瑤	-10.649
稠	-10.6491
蜀中	-10.6491
師古	-10.6492
有五	-10.6509
悵	-10.6512
雞鳴	-10.6514
海賦	-10.6515
使我	-10.6518
無私	-10.652
詩注	-10.6523
碣	-10.6525
婚	-10.6528
景物	-10.6529
捉	-10.6531
而未	-10.6532
諸子	-10.6533
線	-10.6534
鬰	-10.6534
頷	-10.6534
蒼茫	-10.6535
僊	-10.6536
侮	-10.6539
始皇	-10.654
不欲	-10.654
忠孝	-10.6542
以致	-10.6548
尋常	-10.6552
先後	-10.6553
歎曰	-10.6554
送别	-10.6559
送客	-10.656
踵	-10.6572
之政	-10.6572
巴蜀	-10.6573
讃	-10.6577
鏗	-10.6577
醇	-10.6579
泯	-10.6579
戎馬	-10.6583
砧	-10.6583
掲	-10.6583
匝	-10.6584
漳	-10.6585
轄	-10.6585
緝	-10.6586
天命	-10.6589
於上	-10.6591
言語	-10.6591
誤矣	-10.6593
馬蹄	-10.6593
九天	-10.6594
暮春	-10.6604
乾元	-10.6612
相傳	-10.6614
三十年	-10.6616
蛾	-10.6618
門人	-10.6619
惟有	-10.6621
棠	-10.6622
酷	-10.6622
髯	-10.6623
箱	-10.6624
毋	-10.6625
曳	-10.6626
甄	-10.6626
聿	-10.6626
虵	-10.6626
炯	-10.6627
髙宗	-10.6628
有情	-10.663
葱	-10.6633
陸機詩	-10.6636
前有	-10.6641
自稱	-10.6643
為是	-10.6646
孔明	-10.6646
二十一	-10.6647
其説	-10.6656
中宗	-10.6658
冥冥	-10.6659
嵩山	-10.6661
埃	-10.6663
之患	-10.6664
琢	-10.6671
潁川	-10.6672
不能自	-10.6672
炊	-10.6673
行行	-10.6674
草書	-10.6675
江邊	-10.6676
襃	-10.6678
語曰	-10.6685
不宜	-10.6693
長生	-10.6693
流涕	-10.6694
揚子	-10.6695
清明	-10.6701
石上	-10.6703
虎豹	-10.6707
籙	-10.671
之衆	-10.6711
泝	-10.6715
蹋	-10.6715
屐	-10.6717
之所以	-10.6718
王室	-10.6724
韓公	-10.6726
少卿	-10.6732
東門	-10.6733
春水	-10.6734
之罪	-10.6744
駱	-10.6751
詩中	-10.6755
常有	-10.6756
其父	-10.6758
冢	-10.6759
邠	-10.6759
趾	-10.676
婆	-10.6761
至徳	-10.6766
潘云	-10.6766
不可得	-10.6772
簿	-10.678
所載	-10.6781
賦云	-10.679
坡	-10.6792
深山	-10.6793
何有	-10.6794
之利	-10.6796
于時	-10.6798
緇	-10.6804
羮	-10.6804
王褒	-10.6807
爪	-10.6807
洋	-10.6808
陽春	-10.681
此則	-10.6811
以詩	-10.6814
夸	-10.6815
人多	-10.6822
其辭	-10.6823
原注	-10.6826
方從	-10.6828
北方	-10.683
兩京	-10.6831
首尾	-10.6833
愬	-10.6838
詩話	-10.6841
此事	-10.6841
飄飄	-10.6842
藪	-10.6845
利害	-10.6849
巒	-10.6851
掇	-10.6854
顚	-10.6855
醉後	-10.6856
山名	-10.6865
水上	-10.6869
誰與	-10.687
聰明	-10.6871
㑹昌	-10.6872
歸路	-10.6873
為大	-10.688
舊居	-10.6883
平聲	-10.6884
蠻夷	-10.6886
無一	-10.6887
安知	-10.6887
閉門	-10.6888
楊柳	-10.6893
玊	-10.6893
郁	-10.6894
始終	-10.6896
臣之	-10.6896
㳟	-10.6896
老翁	-10.6897
中人	-10.6898
讌	-10.6898
胎	-10.6898
曼	-10.6899
複	-10.6904
不息	-10.6904
既而	-10.6904
針	-10.6905
迁	-10.6905
道德	-10.6914
楊子	-10.6919
甘露	-10.6921
反覆	-10.693
代之	-10.6933
數日	-10.6936
功臣	-10.694
贍	-10.6942
慄	-10.6945
飄颻	-10.6945
透	-10.6946
猗	-10.6947
譚	-10.6948
壅	-10.6951
滔	-10.696
辜	-10.6961
詹	-10.697
武昌	-10.6984
押	-10.6984
髻	-10.6989
鴉	-10.699
劣	-10.6991
肌	-10.6992
牲	-10.6992
緫	-10.6992
禽獸	-10.6993
殞	-10.6994
伊尹	-10.6999
不亦	-10.7002
鄭公	-10.7009
雨中	-10.701
三川	-10.7011
今者	-10.7016
故得	-10.7016
四首	-10.7016
不知所	-10.702
於世	-10.7024
五陵	-10.7026
則又	-10.7027
益州	-10.7031
風月	-10.7032
迅	-10.7036
白鶴	-10.7036
曛	-10.7038
貸	-10.7039
頥	-10.704
校書郎	-10.7043
嗟乎	-10.7044
大和	-10.7044
魚龍	-10.7045
某月日	-10.7046
之重	-10.7048
談笑	-10.7053
大將	-10.7053
昭君	-10.7056
直道	-10.7056
相親	-10.7058
貴賤	-10.7061
一物	-10.7062
不獨	-10.7062
唐史	-10.7063
晁	-10.7064
或以	-10.7065
衡州	-10.7069
鋭	-10.7071
浣花	-10.7071
商山	-10.7073
兢	-10.7074
是用	-10.7077
於天	-10.7077
玉女	-10.7078
臣某	-10.7079
嬉	-10.708
認	-10.7081
登臨	-10.7081
偈	-10.7081
㕔	-10.7082
挑	-10.7082
甌	-10.7087
尽	-10.7087
元和元年	-10.7089
拯	-10.709
於朝	-10.7091
隳	-10.7094
夢中	-10.7095
雲山	-10.71
波濤	-10.7101
未聞	-10.7103
霜露	-10.7108
之節	-10.7109
謝公	-10.711
正直	-10.711
走馬	-10.712
士大夫	-10.7122
怡	-10.7122
忠臣	-10.7124
紈	-10.7126
者矣	-10.7131
蜜	-10.7133
皆是	-10.7134
灾	-10.7134
挫	-10.7135
茅屋	-10.7136
一聲	-10.7136
陶潛	-10.7145
當以	-10.7155
尚有	-10.7158
流沙	-10.7164
憶昔	-10.7168
補闕	-10.717
車駕	-10.7171
緜	-10.7173
緬	-10.7174
偶然	-10.7176
燎	-10.7177
也此	-10.7177
稱其	-10.7179
長江	-10.718
太傅	-10.718
竟不	-10.7187
渤海	-10.7189
故山	-10.7193
在天	-10.7202
蕭何	-10.7203
十九年	-10.7205
漢水	-10.7218
雖不	-10.7219
浙	-10.722
萊	-10.7223
筍	-10.7223
蟾	-10.7224
婁	-10.7224
塩	-10.7226
榜	-10.7226
逵	-10.7229
辛苦	-10.7234
四面	-10.7239
閣下	-10.7239
見為	-10.7239
管仲	-10.7242
處分	-10.7242
之末	-10.7253
寥	-10.7254
集有	-10.7255
知巳	-10.7256
俠	-10.7259
書記	-10.726
相繼	-10.7261
之可	-10.7264
讚	-10.727
年五十	-10.7272
憔悴	-10.7273
弁	-10.7273
禅	-10.7274
筒	-10.7275
悍	-10.7275
圖經	-10.728
食之	-10.728
帝紀	-10.728
波瀾	-10.728
序送	-10.7281
一杯	-10.7285
行路難	-10.7287
太行	-10.729
教化	-10.7295
先輩	-10.7301
樓臺	-10.7305
沔	-10.7311
閻	-10.7316
肺	-10.7319
斉	-10.732
譴	-10.7321
繒	-10.7322
太師	-10.7323
道徳	-10.7325
祝融	-10.7326
醮	-10.7327
元帝	-10.7328
得一	-10.7331
之孫	-10.7332
西王母	-10.7334
無聲	-10.734
在位	-10.7346
兵部	-10.7349
送張	-10.7356
貧賤	-10.736
藂	-10.7363
洪曰	-10.7364
聯	-10.7365
與其	-10.7365
葦	-10.7366
庖	-10.7367
摶	-10.7367
雲氣	-10.7369
贖	-10.7369
匱	-10.737
蒿	-10.737
廐	-10.7373
南征	-10.7375
相遇	-10.7381
不到	-10.7386
舊遊	-10.7386
巔	-10.7389
水出	-10.7395
矣然	-10.7395
相知	-10.74
馬上	-10.7401
劍南	-10.7403
云爾	-10.7404
又音	-10.7407
無乃	-10.7409
兩句	-10.741
矩	-10.7413
滄	-10.7414
查	-10.7414
衣服	-10.7414
房琯	-10.7417
岩	-10.7419
藹	-10.7419
為一	-10.7421
熾	-10.7422
越王	-10.7423
石壁	-10.7424
望之	-10.7427
百代	-10.7431
玉樹	-10.7432
李氏	-10.7432
其能	-10.7437
曾祖	-10.7438
之能	-10.7438
忠信	-10.7438
不改	-10.7442
故謂之	-10.7444
徳宗	-10.7445
於今	-10.7448
矣而	-10.7449
抱朴子	-10.7459
邨	-10.746
潼闗	-10.7461
瀾	-10.7461
玉堂	-10.7464
齎	-10.7466
不疑	-10.7467
之始	-10.7467
牓	-10.7468
穩	-10.7469
欒	-10.7472
亦未	-10.7476
長卿	-10.7477
閑居	-10.7481
一方	-10.749
幾何	-10.7495
氣象	-10.7495
十首	-10.7498
方言	-10.7501
無因	-10.7503
牖	-10.7504
殿中	-10.7505
同遊	-10.7505
日夕	-10.7507
嶂	-10.7508
㨗	-10.7509
酉	-10.7511
鄂	-10.7515
泄	-10.7515
蓬蒿	-10.7516
性命	-10.7517
而復	-10.7517
坎	-10.7517
顥	-10.7518
孕	-10.752
衆生	-10.752
派	-10.7521
孤城	-10.7526
形骸	-10.7528
賢良	-10.7528
用此	-10.7532
河間	-10.7532
改元	-10.7532
公在	-10.7533
起於	-10.7534
依舊	-10.7545
元戎	-10.7553
菰	-10.7555
羇	-10.7556
嫉	-10.7561
茗	-10.7561
死而	-10.7562
齧	-10.7563
涙	-10.7563
與我	-10.7564
桂州	-10.7565
艇	-10.7565
該	-10.7566
弋	-10.7566
沖	-10.7566
桓公	-10.7568
朙	-10.7571
者何	-10.7573
閣老	-10.7574
聞其	-10.7577
名利	-10.7579
部貟外郎	-10.7583
生人	-10.7586
真人	-10.7588
致仕	-10.7589
袁州	-10.7589
千餘	-10.7592
更有	-10.7595
行者	-10.7599
自傷	-10.7602
有意	-10.7606
清秋	-10.7606
墅	-10.7607
綰	-10.761
瓌	-10.761
為正	-10.761
溜	-10.7612
斫	-10.7612
熈	-10.7613
其書	-10.7615
西江	-10.7616
註云	-10.7616
持節	-10.7616
浩然	-10.7617
蹔	-10.7617
當年	-10.762
睢	-10.7624
知我	-10.7626
雲夢	-10.763
兖州	-10.7633
其形	-10.7634
太平寰宇記	-10.765
相近	-10.7651
骸	-10.7653
更無	-10.7654
三代	-10.7655
須臾	-10.7663
笙歌	-10.7667
江頭	-10.7667
世界	-10.7668
扃	-10.7668
服之	-10.7672
龎	-10.7675
屏風	-10.7675
乆矣	-10.7679
狀如	-10.7686
綿州	-10.7687
名為	-10.7688
王命	-10.7689
隱居	-10.7696
彤	-10.77
四夷	-10.7704
敢不	-10.7705
幡	-10.7706
公爲	-10.7706
廹	-10.7707
翩翩	-10.7708
漣	-10.7712
辝	-10.7712
覃	-10.7713
模	-10.7714
嘗為	-10.7714
必以	-10.7714
躅	-10.7714
碁	-10.7715
犢	-10.7715
都尉	-10.7716
殃	-10.7717
時為	-10.7721
者多	-10.7722
之化	-10.7724
不離	-10.7726
光明	-10.7728
江流	-10.773
以是	-10.7731
不許	-10.7731
陀	-10.7744
清河	-10.7747
集賢	-10.7748
昌黎	-10.7751
帽	-10.7751
亥	-10.7752
鯉	-10.7757
瓢	-10.776
鉅	-10.7761
熙	-10.7762
卵	-10.7764
在乎	-10.7764
髣髴	-10.7764
城郭	-10.7766
羿	-10.7771
衰老	-10.7772
碧雲	-10.778
曰昔	-10.7783
何用	-10.7788
六句	-10.7789
帝子	-10.779
大雅	-10.7792
人者	-10.7792
勾	-10.7798
芬	-10.7801
者乃	-10.7807
沓	-10.7807
唐虞	-10.781
堵	-10.7811
之本	-10.7813
洄	-10.7814
舡	-10.7814
譙	-10.7815
上元二年	-10.7815
湫	-10.7815
秋色	-10.7815
今以	-10.782
趙王	-10.7822
巴陵	-10.7824
千人	-10.7825
柴門	-10.7827
一家	-10.7831
城下	-10.7832
亭亭	-10.7839
大明	-10.784
龍蛇	-10.7841
今來	-10.7851
以後	-10.7852
永泰元年	-10.7856
翠微	-10.7856
可依前件	-10.7856
二十三	-10.7857
北闕	-10.7858
臨江	-10.7858
范蠡	-10.786
舄	-10.786
先帝	-10.7861
餘慶	-10.7864
縫	-10.7865
卜居	-10.787
讐	-10.7871
宫殿	-10.7871
上文	-10.7873
獨有	-10.7879
杭蜀	-10.788
翺	-10.788
乃是	-10.7881
二千	-10.7885
謝朓詩	-10.7888
風霜	-10.7891
稹	-10.79
乎哉	-10.7901
窻	-10.7905
長嘯	-10.7906
贄	-10.7906
皆在	-10.7908
鬻	-10.7912
軒轅	-10.7912
炭	-10.7913
拖	-10.7914
經云	-10.7917
聆	-10.7917
嬪	-10.7917
公侯	-10.7924
題云	-10.7933
碑銘	-10.7935
端公	-10.7936
斛	-10.7942
長慶	-10.7942
織女	-10.7943
竟何	-10.7946
不載	-10.795
北史	-10.795
元帥	-10.7953
賈生	-10.7957
橈	-10.796
及第	-10.7961
旂	-10.7961
之貌	-10.7961
城縣	-10.7962
倡	-10.7965
相應	-10.7966
倘	-10.7967
當世	-10.7967
椘	-10.7968
眩	-10.7968
者又	-10.7969
禆	-10.797
蜀郡	-10.7971
喬木	-10.7972
盗賊	-10.7974
依依	-10.7974
三載	-10.7975
航	-10.7977
送君	-10.7979
不信	-10.7989
謳	-10.7996
籟	-10.7997
亦是	-10.7997
梳	-10.7998
不從	-10.7999
十載	-10.8002
相訪	-10.8003
老杜	-10.8003
春來	-10.8006
山寺	-10.8006
天河	-10.8007
歆	-10.8015
臭	-10.8015
鈴	-10.8016
蘚	-10.8017
葺	-10.8018
之至謹	-10.8018
蔑	-10.802
新豐	-10.8023
登山	-10.8024
遂使	-10.8025
一何	-10.8028
員外郎	-10.8028
三品	-10.8031
不行	-10.8034
復為	-10.8034
衡陽	-10.8035
諸葛	-10.804
切又	-10.8043
豈能	-10.8047
其說	-10.8051
沽	-10.8063
風雅	-10.8063
無定	-10.8065
哺	-10.8065
馮翊	-10.8066
其為	-10.8066
尔	-10.807
托	-10.8072
之官	-10.8073
校尉	-10.8073
一夜	-10.8076
連山	-10.808
伏奉	-10.8086
清光	-10.8087
茂陵	-10.8089
兖	-10.8092
二十里	-10.8093
黃金	-10.8098
數年	-10.8108
闕下	-10.8111
後來	-10.8111
曺	-10.8112
由此	-10.8113
嘆曰	-10.8113
彪	-10.8114
嵇	-10.8114
芽	-10.8116
穏	-10.8118
不逮	-10.8119
惱	-10.812
股肱	-10.812
何當	-10.8121
愉	-10.8121
墉	-10.8121
崢嶸	-10.8121
諳	-10.8121
礪	-10.8123
拍	-10.8124
浹	-10.8124
上音	-10.8127
無疑	-10.8128
官軍	-10.8129
於是乎	-10.8131
菊花	-10.8132
不違	-10.8136
帝曰	-10.8137
始以	-10.814
酒酣	-10.8143
人倫	-10.815
月下	-10.8154
裾	-10.8157
行狀	-10.8158
觀察	-10.8162
刻石	-10.8162
不克	-10.8165
燧	-10.8166
以前	-10.8168
翰林學士	-10.8169
盞	-10.8169
分司	-10.8174
之水	-10.8175
孔融	-10.8176
上林賦	-10.8177
百丈	-10.8178
胡為	-10.8178
奉詔	-10.8192
陽城	-10.8198
周之	-10.8199
未央	-10.82
右僕射	-10.8206
古來	-10.8209
瑜	-10.8216
非常	-10.822
琅玕	-10.822
郵	-10.822
聼	-10.8221
二十六	-10.8221
郡縣	-10.8222
茵	-10.8223
及此	-10.8223
店	-10.8224
瘡	-10.8224
嗤	-10.8224
天道	-10.8226
奄	-10.8226
不安	-10.8229
作者	-10.8232
渝	-10.8232
病中	-10.8234
夙夜	-10.8238
華隂	-10.8242
焚香	-10.8243
佳句	-10.8244
金玉	-10.8244
胷	-10.8245
出自	-10.8249
立功	-10.8249
吳王	-10.825
等州	-10.8251
而致	-10.8252
峴山	-10.8254
月照	-10.8259
之期	-10.8261
郴	-10.8266
但見	-10.8266
而不知	-10.8266
待詔	-10.8268
烽	-10.8268
此又	-10.827
孩	-10.8273
楼	-10.8278
佑	-10.8278
士之	-10.8278
■	-10.828
悪	-10.8283
歸心	-10.8284
浙江	-10.8287
或謂	-10.8287
年四十	-10.8289
谷口	-10.8298
民之	-10.8299
唐制	-10.8302
太陽	-10.8307
三山	-10.8307
其功	-10.8318
洙曰詩	-10.8318
上言	-10.8319
節制	-10.8321
睂	-10.8323
楊栁	-10.8323
麋鹿	-10.8326
鄉里	-10.8327
竈	-10.8329
誚	-10.8331
瀑	-10.8331
西施	-10.8338
令狐	-10.8342
岱	-10.8342
不去	-10.835
從來	-10.8352
軍事	-10.8353
漢家	-10.8371
長風	-10.8372
百尺	-10.8373
神龍	-10.8376
幻	-10.8377
金城	-10.8378
旻	-10.8378
仄	-10.8378
并州	-10.838
跼	-10.838
槍	-10.838
項羽	-10.8381
熖	-10.8383
釁	-10.8386
東平	-10.8389
南極	-10.8389
萬象	-10.8392
莫知	-10.8392
張良	-10.8394
為名	-10.8399
田家	-10.84
羣公	-10.8405
同州	-10.8405
好學	-10.8406
應制	-10.8411
子雲	-10.8411
樓船	-10.8414
武侯	-10.8414
深入	-10.8414
年正月	-10.8415
先是	-10.8418
杜預	-10.8421
人之所	-10.8426
閫	-10.8426
司馬遷	-10.8427
有名	-10.843
同谷	-10.8431
人物	-10.8431
事見前	-10.8431
廣徳元年	-10.8431
暨	-10.8434
慟哭	-10.8437
相顧	-10.844
扄	-10.844
故公	-10.8441
㤗	-10.8443
恪	-10.8443
六經	-10.845
無有	-10.8451
七里	-10.8452
世家	-10.8454
止於	-10.8456
可惜	-10.8458
夜半	-10.8461
夷狄	-10.8463
奉先	-10.8465
不止	-10.8465
洛下	-10.8466
如雲	-10.8474
久矣	-10.8477
閒居	-10.8477
毛詩	-10.8481
柰何	-10.8481
未歸	-10.8484
攬	-10.8485
百川	-10.8488
五帝	-10.8488
三千里	-10.8489
岳州	-10.8491
徃來	-10.8491
隊	-10.8491
秦始皇	-10.8492
牽牛	-10.8492
噬	-10.8493
瀑布	-10.8493
江左	-10.8503
寒山	-10.8504
古文	-10.8504
雪中	-10.8511
漢王	-10.8516
唐詩	-10.8524
則其	-10.8526
天官	-10.8526
復有	-10.8528
祿山	-10.8529
鬛	-10.8529
戊	-10.8536
楫	-10.8538
皂	-10.854
在焉	-10.8541
帙	-10.8542
椽	-10.8542
驊騮	-10.8543
雋	-10.8543
怳	-10.8544
璘	-10.8545
趂	-10.8545
燃	-10.8545
歧	-10.8546
西戎	-10.8547
鑠	-10.855
皆非是	-10.855
威儀	-10.8552
於道	-10.8553
行役	-10.8558
句法	-10.8559
庾信詩	-10.8562
長樂	-10.8568
岳陽	-10.8578
平章事	-10.8582
遊子	-10.8584
之㫖	-10.8587
雲霧	-10.8588
所能	-10.8588
頭白	-10.8593
左拾遺	-10.8594
則必	-10.8595
窅	-10.8595
吏部侍郎	-10.8597
䦨	-10.8597
矛	-10.8597
宫室	-10.86
泗	-10.8601
鈍	-10.8602
家人	-10.8603
甚矣	-10.8604
眸	-10.8605
霄漢	-10.8605
其三	-10.8609
曹植詩	-10.8616
曰今	-10.8619
而已矣	-10.862
南風	-10.8621
韓信	-10.8622
二切	-10.8622
廟碑	-10.8628
吾師	-10.8632
公有	-10.8632
逺遊	-10.8633
翠華	-10.8634
神道碑	-10.8635
下音	-10.8636
下第	-10.8636
三輔	-10.8638
法師	-10.864
郡守	-10.8641
將以	-10.8644
魏闕	-10.8647
杉	-10.8649
縑	-10.8649
登第	-10.865
其所以	-10.865
蠱	-10.8652
寤	-10.8653
帰	-10.8656
懋	-10.8657
此中	-10.866
青門	-10.8663
事業	-10.8664
淂	-10.8664
關中	-10.8667
亦非	-10.8669
臨水	-10.8669
雖然	-10.867
陽臺	-10.8671
太清	-10.8672
所由	-10.8673
曰天	-10.8682
安危	-10.869
卷之	-10.869
矣今	-10.8691
愽	-10.8695
非一	-10.8696
之使	-10.8698
鎬	-10.8698
雨雪	-10.8698
驢	-10.8704
蠟	-10.8705
諦	-10.8705
之象	-10.8707
餉	-10.8708
牎	-10.8709
南浦	-10.8709
顧注	-10.8709
𬞞	-10.8712
愍	-10.8712
輯	-10.8713
售	-10.8714
胡馬	-10.8715
人謂	-10.8715
其母	-10.8717
大中	-10.8719
奉使	-10.8724
中書令	-10.8729
劉氏	-10.8734
管絃	-10.8739
後代	-10.8741
車騎	-10.8742
平王	-10.8743
大者	-10.8745
流離	-10.8745
洙曰一云	-10.8745
中央	-10.8746
開元中	-10.8747
雪山	-10.875
於後	-10.8751
豈獨	-10.8756
在成都	-10.8758
刹	-10.8758
煑	-10.8759
桂林	-10.8761
鴛	-10.8761
楸	-10.8763
之性	-10.8763
志在	-10.8763
誤也	-10.8764
慣	-10.8764
亨	-10.8764
旒	-10.8764
坑	-10.8764
簇	-10.8764
謚	-10.8765
非所	-10.8767
羗	-10.8768
欝	-10.8768
松柏	-10.877
公嘗	-10.8773
至矣	-10.8774
胸	-10.8781
得意	-10.8782
枝葉	-10.8783
為誰	-10.8785
其他	-10.8787
方寸	-10.8788
比之	-10.879
張儀	-10.8791
當其	-10.8792
玉山	-10.8794
後魏	-10.8798
十巻	-10.8798
無此	-10.8798
飢寒	-10.8802
與此	-10.8803
桂樹	-10.8807
平地	-10.8809
劾	-10.8814
蹶	-10.8814
羽毛	-10.8814
浚	-10.8815
猒	-10.8816
縣東	-10.8817
神農	-10.8817
擔	-10.8817
確	-10.8818
册	-10.882
筐	-10.882
穫	-10.8821
王莽	-10.8822
以至	-10.8824
燼	-10.8824
議論	-10.8826
難得	-10.8828
出師	-10.8838
大如	-10.884
弛	-10.8854
滎陽	-10.8857
延年	-10.8859
河漢	-10.8859
别駕	-10.8865
宫闕	-10.8865
聞而	-10.8868
潘安仁	-10.8869
趙云言	-10.8872
鉛	-10.8873
嬾	-10.8874
侍從	-10.8874
風光	-10.8875
中和	-10.8876
豺虎	-10.8876
鼠	-10.8876
方丈	-10.8876
夣	-10.8877
此亦	-10.8879
還家	-10.888
僞	-10.888
碣石	-10.8882
𢎞農	-10.8883
梧桐	-10.8885
於前	-10.8892
失之	-10.8894
宰臣	-10.8896
八九	-10.8898
日落	-10.89
之儀	-10.8907
韶州	-10.8907
吟詩	-10.8911
而不得	-10.8912
應是	-10.892
前年	-10.8923
亦猶	-10.8924
旭	-10.8925
墀	-10.8926
歿	-10.8927
窈窕	-10.8927
親友	-10.8927
死於	-10.8929
倣	-10.8931
塢	-10.8931
壹	-10.8931
曝	-10.8931
粮	-10.8935
錦繡	-10.8937
白居易	-10.894
士贇	-10.8942
八分	-10.8942
鏡中	-10.8944
供奉	-10.8947
命之	-10.8948
新舊史	-10.8954
之兵	-10.8954
鮑曰	-10.8957
容易	-10.8962
亦然	-10.8966
孰能	-10.8967
但以	-10.8969
浮生	-10.8975
濛	-10.8977
祖宗	-10.8978
未息	-10.8978
也詩	-10.8978
男女	-10.898
宫人	-10.8982
大厯元年	-10.8982
立名按	-10.8983
諸葛亮	-10.8983
斵	-10.8985
舊注引	-10.8986
忻	-10.8987
秖	-10.899
叫	-10.8991
荆棘	-10.8992
壠	-10.8992
萬壑	-10.8998
紫氣	-10.9003
陽公	-10.9007
無異	-10.9008
湖上	-10.9008
今人	-10.9011
江賦	-10.9013
之國	-10.9015
北極	-10.9017
注見	-10.9022
自比	-10.9026
逺矣	-10.9027
寓居	-10.9029
落葉	-10.9033
蚩尤	-10.9041
識者	-10.9042
駮	-10.9044
贏	-10.9044
旃	-10.9044
楷	-10.9048
王父	-10.9048
更名	-10.9049
承恩	-10.9051
躁	-10.9054
别後	-10.9055
者謂之	-10.9062
依然	-10.9065
宿昔	-10.9068
而至	-10.9069
徃徃	-10.9072
于今	-10.9079
字某	-10.908
加以	-10.9082
吾聞	-10.9082
海中	-10.9087
戡	-10.9092
一一	-10.9092
之威	-10.9092
陶淵明	-10.9096
任昉	-10.9096
中山	-10.9097
巘	-10.9098
羯	-10.9098
磴	-10.9099
與李	-10.9099
阡	-10.9099
蹕	-10.91
編在	-10.9102
讀之	-10.9102
杜子美	-10.9103
罵	-10.9104
如玉	-10.9104
中流	-10.9105
䜛	-10.9107
我來	-10.9107
而上	-10.9112
鳳翔	-10.9119
生靈	-10.9123
大業	-10.9124
將來	-10.9126
此日	-10.9137
封侯	-10.914
而反	-10.9141
裴度	-10.9142
清晨	-10.9144
文昌	-10.9147
譯	-10.915
功業	-10.915
之家	-10.9151
之榮	-10.9154
霾	-10.9155
娘	-10.9156
此身	-10.9158
荔枝	-10.9158
麤	-10.9159
駑	-10.9161
同歸	-10.9162
巽	-10.9163
唾	-10.9164
官至	-10.9172
庶幾	-10.9176
之域	-10.9176
南岳	-10.9178
物之	-10.918
塊	-10.9181
當有	-10.9181
此生	-10.9188
四五	-10.9189
雨後	-10.9189
薊	-10.9191
霖	-10.9195
爾其	-10.9196
秋浦	-10.9197
髙堂	-10.92
於我	-10.92
孝友	-10.9201
志云	-10.9204
録事	-10.9207
窮途	-10.9209
拭	-10.9211
苖	-10.9212
攷	-10.9213
掣	-10.9214
而進	-10.9214
縣名	-10.9215
存乎	-10.9215
吼	-10.9216
欠	-10.9217
昔日	-10.9218
法度	-10.9218
疵	-10.9218
蕚	-10.9219
顏	-10.9219
豊	-10.9221
馨香	-10.9222
股	-10.9223
笑曰	-10.9224
求其	-10.9231
不逺	-10.9232
沉沉	-10.9235
涪	-10.9236
青海	-10.9237
江城	-10.9238
顔延年	-10.9239
先王之	-10.924
墓誌銘	-10.9241
宗室	-10.9242
至德	-10.9242
無他	-10.9243
世說	-10.9243
剡	-10.9245
未成	-10.9246
不知何	-10.9248
尚在	-10.9251
長子	-10.9254
自從	-10.926
以禮	-10.9262
榭	-10.9262
扶又	-10.9263
有人	-10.9263
灞	-10.9264
思明	-10.9267
而卒	-10.9269
梁王	-10.9269
北山	-10.9271
貟	-10.9271
汶	-10.9271
飱	-10.9271
所用	-10.9272
虺	-10.9273
希烈	-10.9274
烝	-10.9274
叠	-10.9274
禎	-10.9277
吾將	-10.928
此書	-10.9282
闥	-10.9284
有才	-10.9284
北齊	-10.9291
不勞	-10.9301
珠玉	-10.9306
紀綱	-10.9307
宋書	-10.9307
無極	-10.931
猶言	-10.9312
其門	-10.9313
事君	-10.9314
摹	-10.9326
卉	-10.9328
皋	-10.9328
不明	-10.933
踟蹰	-10.9331
龕	-10.9332
在東	-10.9333
秋草	-10.9334
舟楫	-10.9334
洛中	-10.934
貴人	-10.9342
漁陽	-10.9342
渡江	-10.9343
綽	-10.9343
寳應元年	-10.9352
千門	-10.9353
莫敢	-10.9354
終南山	-10.9357
田園	-10.9361
二州	-10.9361
俄而	-10.9362
〇師曰	-10.9364
十八年	-10.937
沈約詩	-10.9372
未敢	-10.9376
問曰	-10.9377
不返	-10.9378
州之	-10.9378
t	-10.9379
="33"/>	-10.9379
<	-10.938
和氣	-10.938
李廣	-10.938
冇	-10.9384
峽中	-10.9386
常以	-10.9386
哥舒翰	-10.9387
二十七	-10.9388
闡	-10.9388
而止	-10.9389
喉	-10.9391
瞰	-10.9391
盍	-10.9392
元日	-10.9392
㟁	-10.9392
特進	-10.9392
臨風	-10.9392
天帝	-10.9394
郄	-10.9394
伏惟皇帝陛下	-10.9394
德音	-10.9395
突厥	-10.9395
晞	-10.9395
抉	-10.9396
早秋	-10.9397
幅	-10.9397
殫	-10.9398
刮	-10.9399
大厯二年	-10.94
百寮	-10.94
且曰	-10.9402
見一	-10.9403
未見	-10.9405
老去	-10.9414
所聞	-10.9418
隨風	-10.942
凱	-10.9425
如此則	-10.9426
補註	-10.9427
一笑	-10.9429
存者	-10.9438
木蘭	-10.9439
居之	-10.9443
瀨	-10.9446
姑蘇	-10.9447
一行	-10.9448
有聲	-10.945
膩	-10.9451
綘	-10.9452
逞	-10.9453
敲	-10.9453
是詩	-10.9453
蕭瑟	-10.9454
猛虎	-10.9454
聖明	-10.9455
相送	-10.9456
獨酌	-10.9456
寥落	-10.9456
青蓮	-10.9457
七八	-10.9463
年六十	-10.9464
親戚	-10.9469
之㑹	-10.9472
彭澤	-10.9472
太史公	-10.9474
豎	-10.9477
疑是	-10.9478
萬乗	-10.9479
何者	-10.9479
郡國	-10.948
人謂之	-10.9482
家語	-10.9483
手足	-10.9485
巳來	-10.9487
不稱	-10.9491
國史	-10.9491
興元	-10.9492
上疏	-10.9499
浮圖	-10.9499
陳留	-10.9504
瘞	-10.9506
飛龍	-10.9506
以告	-10.9507
武徳	-10.9507
駿馬	-10.9508
文士	-10.9509
脊	-10.951
兀	-10.951
國有	-10.9511
上林	-10.9511
廼	-10.9513
鬪	-10.9514
陶潜	-10.9517
聖人之道	-10.9519
有子	-10.9521
昻	-10.9522
鞍馬	-10.9525
巴東	-10.9528
諱某	-10.9529
即今	-10.953
遲遲	-10.9532
一夕	-10.9535
洛水	-10.9537
將相	-10.9539
在於	-10.954
神仙傳	-10.954
頓首	-10.9541
文子	-10.9541
亂後	-10.9546
莫若	-10.9548
湘中	-10.9548
陰陽	-10.9549
之用	-10.955
丙	-10.9551
焉得	-10.9556
二女	-10.9559
為客	-10.9561
雙闕	-10.9562
之野	-10.9564
櫪	-10.9565
彛	-10.9565
杞	-10.9565
不生	-10.9566
鞅	-10.9567
言曰	-10.9567
之流	-10.9567
汝南	-10.9568
先生之	-10.9568
弧	-10.9569
内史	-10.9569
即是	-10.957
鴨	-10.9571
髙樓	-10.9572
其詞	-10.9572
俞	-10.9573
喙	-10.9574
捜	-10.9575
嵗月	-10.9575
虫	-10.9576
十五里	-10.9576
孟軻	-10.9577
九疑	-10.958
蛻	-10.9581
州都督	-10.9583
雖欲	-10.959
蔡州	-10.9596
金門	-10.9598
曰汝	-10.9602
汝州	-10.9603
上客	-10.9609
瀼	-10.9615
從而	-10.9618
武后	-10.9622
明珠	-10.9622
鷓鴣	-10.9623
縳	-10.9623
郭子儀	-10.9625
闗中	-10.9625
憩	-10.9625
呵	-10.9628
醖	-10.9628
嶷	-10.9629
恰	-10.9629
送人	-10.963
刈	-10.9631
訾	-10.9631
之路	-10.9633
瀬	-10.9633
使持節	-10.9635
忽然	-10.9639
元宗	-10.9639
之姿	-10.9645
縣屬	-10.9645
應劭曰	-10.9648
▁漢	-10.9649
四韻	-10.965
留滯	-10.9652
清溪	-10.9653
賜紫金魚袋	-10.9656
可為	-10.9657
以備	-10.9657
以俟	-10.966
而退	-10.966
公墓誌銘	-10.9668
譬如	-10.9669
癸	-10.9672
子規	-10.9674
秋天	-10.9675
尚未	-10.9681
交情	-10.9681
不須	-10.9682
猶存	-10.9684
子儀	-10.9684
若無	-10.9684
眄	-10.9685
褰	-10.9685
汩	-10.9687
縶	-10.9689
剽	-10.969
河朔	-10.9691
瀛	-10.9691
繡衣	-10.9691
東屯	-10.9692
宼	-10.9692
鎖	-10.9696
家有	-10.9696
陳琳	-10.9697
飄零	-10.9698
岷	-10.97
未免	-10.9701
長老	-10.9702
封禪	-10.9704
他鄉	-10.9705
大厯元	-10.9707
白蘋	-10.9708
以奉	-10.9709
春光	-10.971
歲月	-10.971
招魂	-10.9713
年譜	-10.9716
前事	-10.9716
神功	-10.9718
早晚	-10.9725
將何	-10.9728
魏晉	-10.9728
是日	-10.9729
之遺	-10.9731
朝朝	-10.9732
男子	-10.9737
㕘	-10.974
陶潛詩	-10.9744
笏	-10.9746
儋	-10.9746
豈惟	-10.9748
鬟	-10.9751
遘	-10.9757
所出	-10.9759
劉禹錫	-10.9761
第十	-10.9771
雖無	-10.9772
議者	-10.9779
之民	-10.9779
從弟	-10.9781
釋氏	-10.9782
謝朓	-10.9784
長短	-10.9786
功徳	-10.979
聞君	-10.979
入門	-10.9799
使臣	-10.9799
與公	-10.9802
矣又	-10.9803
塋	-10.9803
翕	-10.9805
已來	-10.9805
軻	-10.9807
青松	-10.9808
精誠	-10.9809
眞卿	-10.9809
琉璃	-10.981
禰衡	-10.981
焉其	-10.9811
可與	-10.9812
禹錫	-10.9815
癘	-10.9817
一見	-10.9817
莓苔	-10.9818
魏武	-10.9818
賂	-10.9818
西極	-10.9823
大聖	-10.9829
雲間	-10.9829
十七年	-10.983
司直	-10.9836
八極	-10.9836
二三	-10.9839
諸州	-10.9844
林泉	-10.9849
大人	-10.9849
楚國	-10.9858
佳期	-10.9859
知人	-10.9865
塞上	-10.9865
水旱	-10.9865
韋氏	-10.9866
太廟	-10.9868
搴	-10.9871
拊	-10.9871
鯤	-10.9873
颺	-10.9876
萬年縣	-10.9876
晷	-10.9878
窘	-10.9878
有客	-10.9878
師道	-10.9881
倐忽	-10.9884
公時	-10.9884
何能	-10.9884
矦	-10.9884
元稹	-10.9884
宛轉	-10.9886
季子	-10.9888
建章	-10.9888
此文	-10.9891
大梁	-10.99
蘇秦	-10.9903
行在	-10.9906
長歌	-10.991
悠	-10.9916
廣徳	-10.9916
渡河	-10.9918
是何	-10.992
人知	-10.9921
安定	-10.9923
再三	-10.9924
南越	-10.9925
麴	-10.9935
字或	-10.9936
髦	-10.9936
中書舎人	-10.9938
光照	-10.9939
吏部尚書	-10.9939
厠	-10.994
一舉	-10.9941
脆	-10.9942
猾	-10.9943
行軍司馬	-10.9945
葩	-10.9946
年老	-10.9949
元濟	-10.9951
者故	-10.9951
農夫	-10.9956
贈别	-10.9962
輕薄	-10.9965
許之	-10.9967
石室	-10.997
入海	-10.997
張公	-10.9971
昂	-10.9976
乃命	-10.9977
集注	-10.9977
其妻	-10.9983
夜郎	-10.9986
龍虎	-10.9988
卧病	-10.9989
行道	-10.9991
黄生曰	-10.9991
之感	-10.9992
相從	-10.9992
迴首	-10.9995
太湖	-10.9995
鱠	-10.9996
鵰	-10.9997
至若	-10.9997
出塞	-10.9997
些	-10.9998
閃	-11
畋	-11
鬱鬱	-11.0003
晉陽	-11.0004
一月	-11.0006
慝	-11.0007
文祭	-11.0007
非不	-11.0009
行樂	-11.0012
韓退之	-11.0013
則公	-11.0017
正是	-11.0019
也吾	-11.0019
連州	-11.002
漢之	-11.0022
華作	-11.0022
祕書	-11.0024
耒	-11.0026
常山	-11.0034
何年	-11.0037
隻	-11.0038
〇蘇曰	-11.004
非吾	-11.004
鄜州	-11.004
所言	-11.0042
者三	-11.0042
潤州	-11.0042
古風	-11.0043
錦江	-11.0044
尊師	-11.0045
洙曰古詩	-11.0047
荆山	-11.0047
凄凉	-11.0047
召見	-11.0047
可得	-11.0051
卒於	-11.0056
亦足	-11.0056
娛	-11.0056
猴	-11.0056
何言	-11.0057
倐	-11.0058
風騷	-11.0059
也〇	-11.0061
琛	-11.0062
攄	-11.0063
燕趙	-11.0063
侍郞	-11.0064
繇是	-11.0065
棣	-11.0065
怛	-11.0066
之資	-11.0066
隈	-11.0067
銅柱	-11.0068
風濤	-11.007
本此	-11.0074
交親	-11.0075
張騫	-11.0075
之教	-11.0081
生子	-11.0082
存亡	-11.0082
異於	-11.0086
物情	-11.0091
三十二	-11.0093
二曰	-11.0095
司業	-11.0098
飛燕	-11.01
浙東	-11.0101
無處	-11.0104
人自	-11.0105
國風	-11.0107
劒南	-11.0109
天水	-11.0111
北征	-11.0113
然其	-11.0114
瀧	-11.0119
乗興	-11.0119
朱紱	-11.012
數千	-11.0122
揺落	-11.0122
之興	-11.0123
劉琨	-11.0126
屨	-11.0126
懦	-11.0128
避亂	-11.0128
天竺	-11.0128
甲兵	-11.0129
使之	-11.0132
實録	-11.0134
臣以	-11.0134
順宗	-11.0134
𥿄	-11.0135
後生	-11.0144
將帥	-11.0144
秦地	-11.0145
今云	-11.0146
送王	-11.0147
落落	-11.0148
弟兄	-11.015
得無	-11.0152
量移	-11.0154
幽居	-11.0158
相看	-11.0161
物也	-11.0164
百家	-11.0168
兵曹	-11.0175
墨子	-11.0175
京華	-11.0175
國忠	-11.0175
凉風	-11.0179
多士	-11.0179
子産	-11.0179
來者	-11.0182
晏子	-11.0183
拈	-11.0186
讙	-11.0186
縞	-11.0186
灣	-11.0186
魑魅	-11.0187
留連	-11.0187
赭	-11.0188
顒	-11.019
晶	-11.019
菩提	-11.019
煌煌	-11.0191
蛾眉	-11.0191
償	-11.0191
縹	-11.0191
而食	-11.0192
鳶	-11.0193
侶	-11.0194
此心	-11.0194
清夜	-11.0195
腸斷	-11.0196
宣帝	-11.0205
嗜酒	-11.0206
盛德	-11.0207
至誠	-11.0207
相接	-11.0208
冬至	-11.0208
神武	-11.0209
其徒	-11.0212
崑	-11.0213
暇日	-11.0215
經年	-11.0216
趙云此	-11.022
五品	-11.022
東道	-11.0224
僖	-11.0225
鈿	-11.0231
魯曰	-11.0232
徐陵	-11.0234
能為	-11.0234
親故	-11.0236
可知矣	-11.0236
者誰	-11.0238
淮海	-11.0238
建中	-11.0238
有遺	-11.0238
方知	-11.0239
與天	-11.0243
之役	-11.0245
牛羊	-11.0246
元和郡縣志	-11.0246
盼	-11.0247
荆公	-11.0248
檐	-11.0248
瓠	-11.025
吸	-11.025
嫩	-11.0253
鹵	-11.0253
㢘	-11.0254
熊羆	-11.0254
舛	-11.0257
赤城	-11.0258
浮屠	-11.0259
錢塘	-11.0259
遼東	-11.0259
與子	-11.0262
夢符曰右按	-11.0265
而可	-11.0266
都賦	-11.0269
行也	-11.0271
陳平	-11.0272
之賢	-11.0273
未幾	-11.0275
大理	-11.0277
為政	-11.0277
其行	-11.0278
地理	-11.0278
者哉	-11.028
逺山	-11.0286
可用	-11.0286
碑文	-11.0288
不得其	-11.0288
上元元年	-11.029
長吏	-11.0292
雍州	-11.0294
伯夷	-11.0296
潮州	-11.0297
也史記	-11.0301
扈從	-11.0302
不似	-11.0303
睢陽	-11.0304
堂上	-11.0306
道源注	-11.0309
囿	-11.031
早朝	-11.0312
翩	-11.0313
贈李	-11.0313
霰	-11.0314
龔	-11.0314
躑躅	-11.0314
肘	-11.0317
菲	-11.0318
捫	-11.0319
繋	-11.0319
癖	-11.0319
自憐	-11.0319
元九	-11.032
狡	-11.0321
廪	-11.0321
交趾	-11.0321
閎	-11.0322
迂	-11.0322
史思明	-11.0323
悚	-11.0323
四十里	-11.0325
故能	-11.0325
香爐	-11.0329
犬戎	-11.033
之奠	-11.0331
貞元十九年	-11.0332
之禍	-11.0335
馬援	-11.0337
兒女	-11.0339
有四	-11.034
何哉	-11.0342
天柱	-11.0344
舊作	-11.035
公自言	-11.035
吾君	-11.0351
白樂天	-11.0351
觀者	-11.0353
府中	-11.0354
非其	-11.0358
斯言	-11.0361
盛徳	-11.0364
在兹	-11.0368
朝散大夫	-11.037
不下	-11.0373
九域志	-11.0375
後有	-11.038
其國	-11.038
砂	-11.038
元和十年	-11.0381
駟馬	-11.0381
菁	-11.0382
賽	-11.0382
捍	-11.0384
避地	-11.0384
觜	-11.0384
飛去	-11.0384
冉	-11.0385
尅	-11.0385
博物志	-11.0385
冉冉	-11.0385
摛	-11.0385
顛倒	-11.0386
蓼	-11.0387
竪	-11.0389
左思	-11.039
風動	-11.0392
途窮	-11.0392
池塘	-11.0395
孝子	-11.0396
次曰	-11.0397
河内	-11.0402
來朝	-11.0407
猶可	-11.0408
長句	-11.0409
韓子	-11.041
並見	-11.0411
而起	-11.0416
關山	-11.0423
有懷	-11.0423
山陽	-11.0425
之極	-11.0427
金谷	-11.0431
年七十	-11.0431
亦自	-11.0432
好事者	-11.0434
之由	-11.0437
後宫	-11.0438
東漢	-11.0441
六龍	-11.0445
斃	-11.0445
所至	-11.0446
祭文	-11.0447
滄江	-11.0448
迺	-11.0448
旣而	-11.0448
屍	-11.0448
瞿塘	-11.0449
勘	-11.0449
卯	-11.045
視其	-11.045
幄	-11.0451
囀	-11.0451
芳菲	-11.0451
擘	-11.0453
玲瓏	-11.0453
蚤	-11.0454
水火	-11.0455
佚	-11.0456
漫漫	-11.0458
者耶	-11.0462
相連	-11.0463
隠居	-11.0464
碧海	-11.0465
優游	-11.0468
聲聞	-11.047
終於	-11.0474
則以	-11.048
惟公	-11.0481
縉	-11.0486
曰某	-11.0487
唱和	-11.0489
之誤	-11.049
乃作	-11.0492
張翰	-11.0494
之交	-11.0495
平陽	-11.0496
近者	-11.0498
若夫	-11.0499
筋	-11.05
積雪	-11.0503
青絲	-11.0503
証	-11.0506
杼	-11.0508
舸	-11.0508
寥廓	-11.051
家家	-11.0511
詩家	-11.0513
熏	-11.0513
抜	-11.0513
泳	-11.0514
遯	-11.0514
文苑英	-11.0515
踣	-11.0515
腦	-11.0516
夘	-11.0516
四門	-11.0516
黄鵠	-11.0517
撞	-11.0519
郴州	-11.0519
僣	-11.052
官吏	-11.052
公所	-11.0522
之主	-11.0524
雷雨	-11.0529
上黨	-11.0531
鳥雀	-11.0535
▁史記	-11.054
皆非	-11.0541
青溪	-11.0544
化爲	-11.0546
少時	-11.0548
張氏	-11.0552
幾人	-11.0554
不仕	-11.0554
歸山	-11.0558
斷腸	-11.0558
不由	-11.0558
沙門	-11.0562
冬日	-11.0563
其本	-11.0565
爲文	-11.0566
至徳二載	-11.0569
語意	-11.057
卿等	-11.057
太一	-11.0571
而知	-11.0573
先君	-11.0573
庭前	-11.0574
劃	-11.0575
嗔	-11.0576
之道也	-11.0577
人無	-11.0577
躭	-11.0578
而莫	-11.0579
陬	-11.0579
王府	-11.0579
潼關	-11.0581
得人	-11.0582
躓	-11.0582
羔	-11.0583
夫人之	-11.0586
丐	-11.059
雖云	-11.059
此物	-11.0592
誰謂	-11.0594
同一	-11.0597
多矣	-11.0598
公私	-11.06
我今	-11.0606
四百	-11.0608
而入	-11.0608
飄然	-11.0611
無功	-11.0611
雜詩	-11.0612
開成	-11.0612
風煙	-11.0613
在蜀	-11.0614
檝	-11.0616
栁州	-11.0617
别業	-11.0623
云此	-11.0625
花下	-11.0629
便是	-11.0629
之望	-11.0631
直言	-11.0632
開元二十	-11.0634
依前	-11.0636
當今	-11.0642
苛	-11.0642
辦	-11.0642
不䏻	-11.0643
曰夫	-11.0644
嫂	-11.0645
刑部侍郎	-11.0646
齊人	-11.0646
其次	-11.0646
藜	-11.0646
簸	-11.0648
臣竊	-11.065
子胥	-11.065
圖畫	-11.0651
軼	-11.0651
烏鵲	-11.0653
肅肅	-11.0654
吊	-11.0654
物色	-11.0656
湖州	-11.066
而立	-11.066
即日	-11.066
以明	-11.0662
臨川	-11.0662
豈是	-11.0664
欲使	-11.0667
鼓吹	-11.0668
盧注	-11.0669
弱冠	-11.067
釣魚	-11.0675
昔年	-11.0675
之體	-11.0676
八十	-11.0681
况乃	-11.0684
雲霄	-11.0686
呼為	-11.0693
老成	-11.0694
僮	-11.0695
南有	-11.0696
則非	-11.0701
之列	-11.0701
州府	-11.0702
仞	-11.0702
不求	-11.0704
初學記	-11.0704
白衣	-11.0705
諸侯之	-11.0708
隍	-11.0708
髓	-11.071
困於	-11.071
䨇	-11.0711
鞏	-11.0712
以相	-11.0713
葭	-11.0713
澧	-11.0714
國子	-11.0715
元和四年	-11.0716
変	-11.0717
芥	-11.0717
音義	-11.0717
不來	-11.0719
忠義	-11.0719
元和五年	-11.072
者得	-11.0721
孤雲	-11.0728
今夜	-11.0729
世事	-11.0731
峴	-11.0732
城北	-11.0733
下車	-11.0736
上國	-11.0737
而求	-11.0738
單父	-11.0742
爲君	-11.0747
恐非	-11.0753
鄭氏	-11.0759
有酒	-11.0763
殺氣	-11.0763
夫婦	-11.0764
憐君	-11.0769
薤	-11.077
五更	-11.0771
不肖	-11.0772
靈臺	-11.0773
是則	-11.0776
娃	-11.0778
霓	-11.0778
心事	-11.0778
䟦	-11.0779
蟋蟀	-11.0779
同中書門下平章事	-11.0779
遟	-11.078
筮	-11.078
舩	-11.078
襦	-11.0781
巵	-11.0782
峡	-11.0783
批	-11.0783
皆言	-11.0783
前件	-11.0784
憾	-11.0784
賦得	-11.0784
刳	-11.0785
用心	-11.0785
袒	-11.0785
萎	-11.0786
昔在	-11.0786
唐本	-11.0786
窆	-11.0788
畒	-11.0788
經營	-11.0789
善惡	-11.0789
聾	-11.079
林中	-11.0792
稟	-11.0793
前日	-11.0799
諸家	-11.0804
文辭	-11.081
送韋	-11.081
新亭	-11.0813
言不	-11.0814
以報	-11.0814
瑶池	-11.0815
窮愁	-11.0816
聞於	-11.0824
其神	-11.0824
四望	-11.0828
而終	-11.0835
髙適	-11.0836
緋	-11.0843
舫	-11.0846
塵土	-11.0847
崔嵬	-11.0848
伏見	-11.0848
鴟	-11.085
幽明	-11.0851
覈	-11.0856
璜	-11.0856
謝本	-11.0857
黠	-11.0857
奏事	-11.0858
戎狄	-11.0858
又聞	-11.0859
光弼	-11.086
韵	-11.0862
大宛	-11.0864
亞之	-11.0865
知者	-11.087
損益	-11.0874
之先	-11.0876
開口	-11.0876
醉中	-11.0878
細雨	-11.0878
垠	-11.0881
伏望	-11.0883
詠懷	-11.0883
都䕶	-11.0884
紅塵	-11.0888
青城	-11.089
詩集	-11.0891
白鷗	-11.0894
之仁	-11.0895
涼風	-11.0898
幕中	-11.09
經術	-11.0906
形如	-11.091
曹公	-11.091
亦名	-11.0915
埸	-11.0918
繭	-11.0919
之境	-11.0919
瀝	-11.0919
顦顇	-11.092
霏霏	-11.092
翠羽	-11.092
杏花	-11.0922
爍	-11.0922
文詞	-11.0923
九齡	-11.0925
此二	-11.0925
夫子之	-11.0926
聲名	-11.0926
之典	-11.0927
不辭	-11.0927
安史	-11.0928
何爲	-11.0928
瞽	-11.0928
經綸	-11.0929
十人	-11.0934
絶域	-11.0936
含情	-11.0941
靈運	-11.0948
德輿	-11.0948
天王	-11.0948
焉能	-11.0948
榮枯	-11.0951
仁者	-11.0953
其位	-11.0954
太華	-11.0958
首句	-11.0961
月色	-11.098
募	-11.0983
箏	-11.0984
左丞	-11.0984
騮	-11.0986
縻	-11.0986
今公	-11.0986
痩	-11.0987
疚	-11.0987
阮籍詩	-11.0988
詆	-11.099
僑	-11.099
麋	-11.0992
繕	-11.0993
水陸	-11.0995
余曰	-11.0997
攜手	-11.0999
越州	-11.0999
蕭索	-11.1002
霓裳	-11.1002
矣夫	-11.1004
三分	-11.1009
失所	-11.101
刑部	-11.101
荀子	-11.1012
十六年	-11.1014
近臣	-11.1017
子夏	-11.102
詩句	-11.1022
三巻	-11.1025
發於	-11.1028
迄	-11.1032
師之	-11.1033
在西	-11.1034
鉢	-11.1051
嫗	-11.1051
孟浩然	-11.1052
兕	-11.1052
吕氏春秋	-11.1053
瓘	-11.1054
焉而	-11.1054
爲我	-11.1054
嘻	-11.1055
馥	-11.1055
擺	-11.1055
烽火	-11.1056
悴	-11.1056
騏驥	-11.1056
顗	-11.1056
江樓	-11.1057
不測	-11.1058
筋力	-11.1059
羅敷	-11.106
袴	-11.106
梁權道編在	-11.1061
無端	-11.1061
和平	-11.1062
𥙿	-11.1063
西園	-11.1063
廟堂	-11.1064
曽祖	-11.1065
賄	-11.1068
正義	-11.1068
孟郊	-11.1072
皆曰	-11.1072
有詔	-11.1072
東林	-11.1074
元子	-11.1075
牢落	-11.1075
金銀	-11.1079
海水	-11.1082
年八月	-11.1083
台州	-11.1084
河水	-11.1091
琴瑟	-11.1094
岐路	-11.1096
金闕	-11.1097
今按此	-11.11
天山	-11.1102
兼御史中丞	-11.1109
之年	-11.1113
南樓	-11.1113
非我	-11.1114
入于	-11.1114
得名	-11.1114
非無	-11.1115
愷	-11.1119
参	-11.1121
幃	-11.1121
多難	-11.1122
能使	-11.1122
西郊	-11.1122
杪	-11.1125
贅	-11.1127
頰	-11.1128
倩	-11.1129
事也	-11.113
中心	-11.113
今為	-11.1131
謌	-11.1131
赫赫	-11.1131
因循	-11.1131
鐸	-11.1131
通用	-11.1132
揣	-11.1132
燠	-11.1133
頭上	-11.1135
嘗有	-11.114
不才	-11.1141
白虎	-11.1142
遣興	-11.1142
大功	-11.1143
天文	-11.1149
所稱	-11.1151
指揮	-11.1152
文宗	-11.1154
王逸曰	-11.1155
者豈	-11.1158
玉壘	-11.1159
風雷	-11.1163
安南	-11.1165
數月	-11.1166
長年	-11.1166
萬一	-11.1167
明帝	-11.1168
忠州	-11.1168
可也	-11.117
易曰	-11.1173
京邑	-11.1175
之形	-11.1177
秦人	-11.118
倪	-11.1183
客有	-11.1186
瀘	-11.1186
之色	-11.1187
峩	-11.1189
郡齋	-11.119
不平	-11.1191
謔	-11.1193
其色	-11.1193
芹	-11.1193
驩	-11.1194
鐫	-11.1195
涓	-11.1197
沫	-11.1197
方士	-11.1199
鶚	-11.1199
日照	-11.1199
估	-11.12
漬	-11.1201
隼	-11.1204
固有	-11.1205
燕雀	-11.1206
瘠	-11.1206
俯仰	-11.1209
列仙傳	-11.1211
而往	-11.1212
武威	-11.1212
龍泉	-11.1213
通志	-11.1215
清江	-11.1218
六國	-11.1221
之憂	-11.1225
朝野	-11.1228
神人	-11.1229
所以為	-11.1234
制度	-11.1235
則無	-11.1235
之險	-11.1237
岷山	-11.1241
秋雨	-11.1242
皆為	-11.1242
相和	-11.1248
殊未	-11.1249
月出	-11.1255
彈琴	-11.1256
狀右	-11.1257
脈	-11.1259
崔公	-11.1262
唐六典	-11.1264
穰	-11.1267
穗	-11.1268
憇	-11.1268
刷	-11.1268
三百里	-11.1272
天長	-11.1273
也趙曰	-11.1275
可觀	-11.1275
不惜	-11.1279
何也	-11.1281
義山	-11.1285
天外	-11.1286
之謀	-11.1286
空餘	-11.1292
皆無	-11.1299
者言	-11.1305
秋來	-11.1306
祭酒	-11.1307
廣雅	-11.1308
秋毫	-11.1309
詩成	-11.131
中書門下	-11.1311
不問	-11.1313
鄒陽	-11.1315
是知	-11.1317
廣大	-11.132
此其	-11.1323
戲贈	-11.1329
㐮	-11.133
者歟	-11.1334
瞑	-11.1336
晤	-11.1336
拏	-11.1336
庠	-11.1336
道不	-11.1337
滄溟	-11.1338
張平子	-11.1338
聖德	-11.1338
僵	-11.1338
覿	-11.1339
菌	-11.1339
一有	-11.1339
渺	-11.1339
竅	-11.134
號令	-11.1341
本朝	-11.1342
不妨	-11.1344
獨行	-11.1349
杜甫詩	-11.1349
葛洪	-11.1349
五嶺	-11.1352
常州	-11.1352
薛云	-11.1356
還京	-11.1358
如水	-11.136
去國	-11.1363
何遜詩	-11.1364
此記	-11.1368
山頭	-11.1371
雲霞	-11.1381
而公	-11.1381
崔氏	-11.1382
不仁	-11.1382
七夕	-11.1383
樹下	-11.1384
豈敢	-11.1384
因而	-11.1385
睿宗	-11.1386
一心	-11.1387
青苔	-11.1392
前篇	-11.1392
▁左傳	-11.1393
必先	-11.1395
鮑明逺	-11.1396
此山	-11.1397
登高	-11.1399
我獨	-11.1399
為郎	-11.1401
寄書	-11.1402
於下	-11.1404
魯連	-11.1404
杖藜	-11.1407
無疆	-11.1408
紱	-11.1408
堞	-11.1409
羶	-11.141
前人	-11.141
以取	-11.141
縦	-11.1411
炬	-11.1411
禮部尚書	-11.1411
十餘年	-11.1412
皆不	-11.1412
花發	-11.1412
咨嗟	-11.1414
藕	-11.1414
徤	-11.1415
処	-11.1418
鄆	-11.142
而思	-11.1431
王曰	-11.1434
烟霞	-11.1434
青草	-11.1434
九霄	-11.1435
遲暮	-11.1437
縣丞	-11.1439
青冥	-11.1442
無常	-11.1443
豈徒	-11.1446
故里	-11.1448
令公	-11.145
一葉	-11.1452
四十年	-11.1452
風生	-11.1455
師曰甫	-11.1456
金華	-11.1459
思量	-11.1461
三五	-11.1462
看花	-11.1463
件	-11.1467
遺愛	-11.147
感恩	-11.1471
南嶽	-11.1472
去去	-11.1473
訊	-11.1473
連天	-11.1474
崒	-11.1474
不得不	-11.1475
者或	-11.1479
胤	-11.1479
聫	-11.148
安石	-11.148
貟外郎	-11.148
今在	-11.1481
緑水	-11.1481
擎	-11.1482
娱	-11.1482
紋	-11.1482
努力	-11.1483
魅	-11.1483
孔雀	-11.1484
殖	-11.1484
寝	-11.1486
悲風	-11.1486
也然則	-11.1486
東宫	-11.1486
王侯	-11.1488
其外	-11.1491
意不	-11.1492
洪濤	-11.1493
軍旅	-11.1493
蜃	-11.1493
朝日	-11.1497
自天	-11.1498
立為	-11.1502
李膺	-11.1503
鄜	-11.1503
思禮	-11.1506
青瑣	-11.151
有云	-11.1514
夫何	-11.1517
自由	-11.1522
水經	-11.1525
半夜	-11.1526
諸本作	-11.1529
也漢書	-11.153
光彩	-11.1531
玉壺	-11.1531
其在	-11.1532
世有	-11.1534
著作	-11.1539
小臣	-11.1542
蘭若	-11.1543
鄭𤣥	-11.1543
毬	-11.1546
錦城	-11.1546
答曰	-11.1547
鑾	-11.1548
之世	-11.1549
何其	-11.1551
貼	-11.1551
燔	-11.1551
古木	-11.1551
泓	-11.1553
茅茨	-11.1554
鵶	-11.1554
杵	-11.1556
諫議大夫	-11.1556
一去	-11.1557
棃	-11.1558
月某日	-11.1558
倖	-11.156
蹲	-11.156
烱	-11.156
撼	-11.1564
廩	-11.1565
南望	-11.1566
萬户	-11.1569
命駕	-11.1572
南陵	-11.1573
已矣	-11.1578
其弟	-11.1579
楊氏	-11.1586
往事	-11.1586
杭蜀本	-11.1588
來往	-11.1602
愛人	-11.1604
武德	-11.1605
河源	-11.1606
西河	-11.1608
詩酒	-11.1608
其力	-11.1608
苦辛	-11.1608
他時	-11.1609
三台	-11.1609
不利	-11.161
率土	-11.1612
何故	-11.1612
西望	-11.1612
不加	-11.1615
其大	-11.1617
謫仙	-11.162
悲歌	-11.1621
函谷	-11.1621
之未	-11.1622
耐	-11.1622
得不	-11.1624
釀	-11.1624
疾病	-11.1625
暎	-11.1625
馬融	-11.1625
中道	-11.1625
軾	-11.1626
蛩	-11.1627
擣	-11.1628
友生	-11.1628
珉	-11.1628
盲	-11.1629
東陽	-11.1629
藁	-11.163
頤	-11.163
牝	-11.163
逗	-11.163
脣	-11.1631
酤	-11.1631
皎皎	-11.1631
黄門	-11.1633
涎	-11.1633
爱	-11.1634
故言	-11.1636
大父	-11.1638
周穆王	-11.1638
鳥飛	-11.1638
山色	-11.164
勤勞	-11.164
平明	-11.1642
歌聲	-11.1644
彂	-11.1644
百餘里	-11.1646
臺上	-11.1648
書勑	-11.165
鮑昭	-11.1655
薄暮	-11.1655
封疆	-11.1655
諸人	-11.1657
花枝	-11.1659
周易	-11.1665
之器	-11.1677
風飄	-11.1678
六十里	-11.1679
趙曰此	-11.1681
以獻	-11.1681
不願	-11.1685
泠	-11.1686
直上	-11.169
矣其	-11.1691
二妃	-11.1693
秦川	-11.1696
智者	-11.1697
戌	-11.1698
白鹿	-11.1699
驍	-11.1699
森森	-11.1702
纍纍	-11.1702
潄	-11.1703
出守	-11.1703
芋	-11.1703
尖	-11.1703
一夫	-11.1704
蠅	-11.1706
白紵	-11.1706
債	-11.1706
坻	-11.1706
凡三	-11.1707
而不可	-11.1708
良馬	-11.1708
墊	-11.171
矣哉	-11.171
殱	-11.1713
薬	-11.1713
但恐	-11.1718
告之	-11.1719
閣本作	-11.1721
江亭	-11.1722
供養	-11.1723
小大	-11.1727
中宵	-11.1729
水清	-11.1735
無能	-11.1736
推官	-11.1738
思君	-11.1739
豈得	-11.1743
不祥	-11.1747
新秋	-11.1748
西風	-11.1748
雲水	-11.175
城門	-11.1754
席上	-11.1758
有期	-11.1759
舊宅	-11.1759
又見	-11.1761
曆	-11.1761
黄昏	-11.1761
未為	-11.1762
下馬	-11.1767
國朝	-11.177
二十九	-11.1774
蜀道	-11.1774
元和十四年	-11.1776
實有	-11.1777
氛氲	-11.1777
螺	-11.1778
紫綬	-11.1779
之要	-11.178
䘏	-11.178
見示	-11.1782
洙曰莊子	-11.1782
泠泠	-11.1783
崗	-11.1784
摽	-11.1785
企	-11.1785
為相	-11.1786
重陽	-11.1786
蛙	-11.1787
白羽	-11.1788
形勢	-11.1789
美酒	-11.1792
生成	-11.1794
杏園	-11.1794
吉甫	-11.1797
明鏡	-11.1799
濮	-11.1805
愛其	-11.1807
天漢	-11.1808
當塗	-11.181
大賢	-11.1812
戰伐	-11.1812
前賢	-11.1815
蜀志	-11.1817
天機	-11.182
楚山	-11.1821
有九	-11.1822
髙山	-11.1823
語也	-11.1826
色如	-11.1831
萬姓	-11.1831
兵革	-11.1831
送僧	-11.1838
君侯	-11.1839
五人	-11.1843
淄	-11.1843
徴君	-11.1845
孺子	-11.1847
㤀	-11.1849
顆	-11.185
退而	-11.185
往復	-11.1852
魔	-11.1853
辤	-11.1855
賜緋魚袋	-11.1855
酋	-11.1856
定功曰	-11.1857
怜	-11.1858
嵗時	-11.186
奨	-11.186
翥	-11.1861
啜	-11.1864
一種	-11.1865
陸渾	-11.1865
無言	-11.1866
歸於	-11.1868
異之	-11.1868
行路	-11.1872
臨淮	-11.1874
兼呈	-11.1875
禍福	-11.1877
宜春	-11.1879
乗輿	-11.1881
可使	-11.1882
紫芝	-11.1884
長安志	-11.1891
之明	-11.1892
盡其	-11.1893
必能	-11.1896
孫權	-11.1897
長吉	-11.1898
百憂	-11.19
玉京	-11.1903
因名	-11.1905
白蓮	-11.1906
髙下	-11.1906
穆王	-11.1908
海隅	-11.191
和之	-11.1912
年二月	-11.1913
此去	-11.1914
山北	-11.1919
后土	-11.1921
故舊	-11.1923
氊	-11.1924
其徳	-11.1925
北堂	-11.1927
霏	-11.1928
逸人	-11.1928
縹緲	-11.1929
薇	-11.193
膓	-11.1932
脯	-11.1932
本是	-11.1933
讜	-11.1933
据	-11.1933
糾	-11.1934
緡	-11.1935
此是	-11.1936
尓	-11.1936
称	-11.1937
巍巍	-11.194
漢魏	-11.1941
泣血	-11.1942
耆舊	-11.1946
南郡	-11.1948
山澤	-11.1952
遺跡	-11.1954
養生	-11.1954
然亦	-11.1954
草色	-11.1962
之澤	-11.1965
月五日	-11.1966
不善	-11.1969
平原君	-11.1973
避暑	-11.1974
何遜	-11.1977
日中	-11.1981
壚	-11.1983
無益	-11.1983
梁州	-11.1991
之甚	-11.1993
筝	-11.1994
入於	-11.1995
只是	-11.1995
在上	-11.1999
删	-11.2
行軍	-11.2
主客	-11.2001
玷	-11.2003
彚	-11.2005
身後	-11.2005
傭	-11.2006
瀛洲	-11.2006
賢愚	-11.2007
翺翔	-11.2007
陲	-11.201
湄	-11.201
扆	-11.201
法曹	-11.201
朶	-11.2011
蚊	-11.2012
不厭	-11.2013
甲乙	-11.2014
鳥道	-11.2015
長城	-11.2015
幽獨	-11.2016
吉凶	-11.2021
大厯三年	-11.2023
謝眺	-11.2024
字下	-11.2025
山僧	-11.2025
蜀州	-11.2027
三朝	-11.2031
若乃	-11.2033
不定	-11.2033
近日	-11.2041
白屋	-11.2043
八駿	-11.2045
以安	-11.2045
夜夜	-11.2045
昔人	-11.2046
林寺	-11.2049
至則	-11.2049
收復	-11.205
耒陽	-11.2052
飛揚	-11.2054
常恐	-11.2058
在人	-11.2062
大官	-11.2062
中庸	-11.2065
三光	-11.2066
其性	-11.2066
王喬	-11.2067
一氣	-11.2069
鄂州	-11.207
叔向	-11.2071
使其	-11.2072
之思	-11.2072
當從	-11.2073
空中	-11.2073
獠	-11.2074
年九月	-11.2075
其勢	-11.2077
世孫	-11.2077
猶自	-11.2077
制誥	-11.2078
幔	-11.2078
塚	-11.208
彭蠡	-11.208
天文志	-11.208
漕	-11.2081
杲	-11.2081
纛	-11.2082
芟	-11.2082
東郊	-11.2082
盂	-11.2083
寥寥	-11.2083
迢遞	-11.2084
錐	-11.2085
蔕	-11.2085
聖王	-11.2086
刑部尚書	-11.2087
孱	-11.2087
大厯二	-11.2088
稱之	-11.2088
諤	-11.2089
春雨	-11.209
自號	-11.2093
朱顔	-11.2094
浙西	-11.2095
王羲之	-11.2098
聖君	-11.2099
心中	-11.2099
宋本	-11.2101
虚空	-11.2109
洛城	-11.211
鄉人	-11.2111
論文	-11.2112
魚復	-11.2113
都官	-11.2115
雪霜	-11.2119
帝之	-11.212
之稱	-11.212
顔子	-11.2121
牛馬	-11.2121
之勞	-11.2126
之材	-11.2129
後主	-11.2129
也〇趙曰	-11.2131
璽	-11.2132
子貢	-11.2132
首章	-11.2134
烈士	-11.2139
何須	-11.214
昔時	-11.2141
蘄	-11.2142
承明	-11.2143
闗山	-11.2143
其詩	-11.2144
未嘗不	-11.2144
年十月	-11.2147
其罪	-11.2147
三章	-11.2148
形於	-11.2151
桂枝	-11.2151
雲端	-11.2152
謝校	-11.2153
不取	-11.2153
榮華	-11.2153
莒	-11.2154
櫓	-11.2155
泚	-11.2155
扼	-11.2156
某等	-11.2156
娯	-11.2156
荆軻	-11.2157
肴	-11.2157
昴	-11.2157
法華經	-11.2158
療	-11.2158
圻	-11.2158
苕	-11.2158
蠡	-11.2159
殤	-11.2159
畨	-11.2159
稼穡	-11.216
瞿唐	-11.216
可愛	-11.2161
唇	-11.2161
其君	-11.2162
嚬	-11.2164
塹	-11.2167
覬	-11.2168
㐫	-11.2168
題名	-11.2168
秦皇	-11.2169
桷	-11.2171
送崔	-11.2174
忽見	-11.2175
之勤	-11.2178
都統	-11.218
鯉魚	-11.2183
昊天	-11.2188
前代	-11.2189
北望	-11.2189
冀州	-11.2191
逆旅	-11.2193
羽儀	-11.2194
才名	-11.2195
支離	-11.2196
黄山	-11.2197
貞元十	-11.2198
本紀	-11.2198
無非	-11.22
忘機	-11.2204
離憂	-11.2206
施於	-11.2207
五雲	-11.2207
易水	-11.2212
梁簡文帝	-11.2213
詞賦	-11.2216
也莊子	-11.2217
也按	-11.2217
獻之	-11.222
文雅	-11.2222
小者	-11.2222
八首	-11.2224
之雄	-11.2225
拂衣	-11.2226
之宫	-11.2226
致君	-11.2226
光隂	-11.223
唐書地理志	-11.223
顔師古註	-11.2231
教之	-11.2231
輈	-11.2231
聦	-11.2231
少室	-11.2232
駞	-11.2233
崇文	-11.2235
鏃	-11.2235
孫綽	-11.2236
攢	-11.2236
如在	-11.2236
存焉	-11.2238
蝕	-11.2238
縣西北	-11.2239
羆	-11.2239
糓	-11.2239
欎	-11.224
飭	-11.224
䧏	-11.2241
莅	-11.2243
璫	-11.2244
枯槁	-11.2244
有石	-11.2245
去其	-11.2247
兼侍御史	-11.2249
遂為	-11.225
寒泉	-11.2252
西蜀	-11.2252
至如	-11.2252
廣德二年	-11.2253
仲舒	-11.2254
宣室	-11.2256
對雪	-11.2259
工部尚書	-11.226
國人	-11.2263
司農	-11.2266
因寄	-11.2266
野老	-11.2267
君墓誌銘	-11.2267
紫泥	-11.2269
寸心	-11.2272
五侯	-11.2272
不類	-11.2273
有志	-11.2273
行於	-11.2274
九原	-11.2277
九歌	-11.2277
永安	-11.2278
源明	-11.2281
恐懼	-11.229
黯	-11.2294
之髙	-11.2297
劭	-11.2301
登科	-11.2301
廻首	-11.2302
襄王	-11.2304
未始	-11.2305
摭	-11.2305
移居	-11.2307
白楊	-11.231
鄊	-11.2311
踴躍	-11.2312
延陵	-11.2313
之義也	-11.2314
喘	-11.2315
曰若	-11.2317
鯨鯢	-11.2317
圜	-11.2318
瘡痍	-11.2319
沽酒	-11.232
蛟螭	-11.2322
賜臣	-11.2322
百花	-11.2323
豪傑	-11.2324
軋	-11.2324
書生	-11.2324
以慰	-11.2324
泥塗	-11.2325
元和九年	-11.2327
芝蘭	-11.2328
行止	-11.233
松風	-11.2335
風俗通	-11.2335
曹操	-11.2338
為主	-11.2338
始於	-11.2339
時來	-11.2339
悠然	-11.2339
總管	-11.2341
昆弟	-11.2345
行而	-11.2345
誰言	-11.235
為國	-11.2351
承天	-11.2351
城闕	-11.2353
都邑	-11.2354
性情	-11.2357
是歲	-11.2359
清淨	-11.2361
無主	-11.2366
曰君	-11.237
終于	-11.2373
出家	-11.2376
生而	-11.2379
積水	-11.2379
榴	-11.2382
之變	-11.2382
天氣	-11.2386
為天下	-11.2386
齊梁	-11.2387
同官	-11.2387
飫	-11.2388
謂此	-11.2388
之竒	-11.2388
人主	-11.239
驃騎	-11.2391
啖	-11.2392
可考	-11.2392
家事	-11.2395
心期	-11.2395
窈	-11.2396
所引	-11.2397
缾	-11.2397
械	-11.2397
㾗	-11.2397
多故	-11.2398
杳杳	-11.2398
綂	-11.2398
礫	-11.2398
盧氏	-11.2399
籖	-11.2403
滿堂	-11.2404
晉侯	-11.2405
之異	-11.2405
誰復	-11.2406
石榴	-11.2407
呉王	-11.2407
今夕	-11.2408
太常卿	-11.2412
日斜	-11.2412
明君	-11.2412
因其	-11.2413
文苑作	-11.2414
數人	-11.2414
表裏	-11.2415
巢父	-11.242
志氣	-11.242
可否	-11.2421
隴頭	-11.2421
事而	-11.2425
名士	-11.2426
萋萋	-11.2426
而忘	-11.2429
樽酒	-11.243
鶴注此	-11.2436
松竹	-11.2437
等使	-11.2438
馮唐	-11.2439
非有	-11.244
欣然	-11.2442
河洛	-11.2444
荆楚	-11.2444
固不	-11.2444
慶雲	-11.2451
舊國	-11.2451
▁莊子	-11.2452
也漢	-11.2454
庶人	-11.2457
曰何	-11.2457
東望	-11.2458
宇文	-11.2463
多事	-11.2465
卿大夫	-11.2467
君看	-11.2469
長夜	-11.247
有六	-11.247
愿	-11.2472
椀	-11.2472
愛之	-11.2473
净	-11.2473
賀知章	-11.2473
猱	-11.2474
毳	-11.2474
塜	-11.2475
曇	-11.2476
瘳	-11.2476
漢官儀	-11.2476
濺	-11.2476
磊落	-11.2477
茨	-11.2477
斸	-11.2478
昇平	-11.2478
氓	-11.2478
不假	-11.2479
蹟	-11.2479
其始	-11.248
流年	-11.2481
上聞	-11.2481
南都賦	-11.2482
風雪	-11.2484
𥙷闕	-11.2484
秃	-11.2486
廊廟	-11.2487
光景	-11.2487
將欲	-11.2488
韓氏	-11.2489
史官	-11.249
皆得	-11.2491
以義	-11.2492
盖以	-11.2493
禹穴	-11.2494
書與	-11.2495
魴	-11.2495
在䕫州	-11.2496
文維	-11.2497
伊闕	-11.2497
梁武帝	-11.2497
西陵	-11.2498
與諸	-11.2498
故城	-11.25
尋陽	-11.2505
安禄山	-11.2506
杜牧	-11.2508
蓋以	-11.2508
得志	-11.2509
寡人	-11.2509
於中	-11.2511
杭本作	-11.2511
漢文帝	-11.2514
潞	-11.2514
對月	-11.2514
洪州	-11.2515
之耳	-11.2515
長驅	-11.2519
足矣	-11.2519
多用	-11.2522
五十里	-11.2525
所著	-11.2526
意在	-11.2535
本於	-11.2537
樂也	-11.254
▁朱注	-11.2541
其四	-11.2547
隗	-11.2549
江中	-11.255
掌書記	-11.2551
瘧	-11.2552
抄	-11.2552
如雨	-11.2553
婆娑	-11.2553
腕	-11.2555
蠢	-11.2555
六朝	-11.2558
鮑叔	-11.2559
篠	-11.2559
逓	-11.2559
攫	-11.2559
竹杖	-11.256
俘	-11.256
也且	-11.2561
祧	-11.2562
又如	-11.2563
微臣	-11.2565
塡	-11.2568
雖在	-11.2569
暮雨	-11.257
愁思	-11.2572
恩澤	-11.2574
本末	-11.2575
而見	-11.2578
賦曰	-11.2578
舟行	-11.258
悲夫	-11.258
十韻	-11.2583
四子	-11.2584
前輩	-11.2586
城外	-11.2587
愁人	-11.2587
五經	-11.2589
論曰	-11.2589
文理	-11.2589
如有	-11.2591
池中	-11.2591
方氏	-11.2591
之問	-11.2593
孫曰謂	-11.2593
西來	-11.2593
之俗	-11.2595
歸去來	-11.2596
㡬時	-11.2598
皆可	-11.2599
縣界	-11.26
人來	-11.2601
報國	-11.2603
太保	-11.2606
無名	-11.2607
當為	-11.2611
營田	-11.2612
無罪	-11.2613
謝𤣥暉	-11.2619
大名	-11.2622
今我	-11.2624
六七	-11.2625
紅葉	-11.2625
望其	-11.2628
無數	-11.2629
中郎	-11.2632
楚地	-11.2632
安平	-11.2633
侯生	-11.2634
嫋嫋	-11.2635
磯	-11.2635
有懐	-11.2635
妝	-11.2636
行舟	-11.2636
僭	-11.2637
上官	-11.2637
湮	-11.2638
偃蹇	-11.2639
嚼	-11.264
鎩	-11.264
俛	-11.2641
事皆	-11.2641
柩	-11.2641
丹墀	-11.2641
怖	-11.2642
慊	-11.2643
暍	-11.2644
古本	-11.2645
近世	-11.2646
八尺	-11.2646
朝天	-11.265
李善	-11.265
百草	-11.2651
何曾	-11.2652
短褐	-11.2652
五百里	-11.2657
金紫	-11.2663
尚存	-11.2663
五代	-11.2667
故宅	-11.2668
水精	-11.2668
京口	-11.2668
授之	-11.2668
人力	-11.267
五載	-11.2671
者衆	-11.2672
始見	-11.2672
之號	-11.2675
精舍	-11.2675
二者	-11.2677
其情	-11.2677
摩詰	-11.2678
左僕射	-11.268
只作	-11.268
有罪	-11.268
不廢	-11.2684
非常之	-11.2685
睦州	-11.269
嘆息	-11.2691
喪亂	-11.2695
▁楚辭	-11.2696
二語	-11.2698
造次	-11.2699
濟南	-11.2699
鏡湖	-11.27
莊周	-11.2701
彼此	-11.2701
故郷	-11.2702
必在	-11.2704
仲宣	-11.2705
秋夕	-11.2709
淵明	-11.2713
幸蜀	-11.2714
藿	-11.2715
㡌	-11.2716
所貴	-11.2716
貿	-11.2717
嗷嗷	-11.272
輅	-11.272
可乎	-11.272
狖	-11.2721
至道	-11.2721
璿	-11.2721
嚴曰	-11.2722
都督府	-11.2722
耿耿	-11.2722
㴱	-11.2725
轟	-11.2726
汲汲	-11.2726
太平之	-11.2727
不進	-11.2729
苦寒	-11.2731
億兆	-11.2732
名字	-11.2733
漢宫	-11.2734
分為	-11.2734
▁書	-11.274
長洲	-11.2741
不得已	-11.2745
到此	-11.2746
與王	-11.2748
不滿	-11.2756
伯樂	-11.2757
李相公	-11.2757
之首	-11.2758
邊城	-11.2764
狂歌	-11.2766
眼中	-11.2766
入秦	-11.2767
其理	-11.2768
温泉	-11.2769
隴西李	-11.277
時年	-11.277
西域傳	-11.2771
有加	-11.2772
小山	-11.2776
送友人	-11.2777
逺客	-11.2777
以疾	-11.2778
煙波	-11.2778
時危	-11.2779
以濟	-11.278
泉石	-11.278
而為之	-11.278
髙卧	-11.2782
公乃	-11.2783
名聲	-11.2784
侍臣	-11.2785
過此	-11.2785
赴任	-11.2785
同上	-11.2786
振武	-11.2787
開府	-11.2788
寄李	-11.2788
立身	-11.2789
作賦	-11.279
人或	-11.2794
中軍	-11.2795
荼	-11.2796
舊本作	-11.2796
其詞曰	-11.2796
驄馬	-11.2797
汧	-11.2798
遺風	-11.2798
莫如	-11.28
喫	-11.2801
瀉	-11.2801
㝠㝠	-11.2802
豳	-11.2802
二日	-11.2802
崔旰	-11.2802
址	-11.2803
朝宗	-11.2803
逥	-11.2804
夢寐	-11.2804
幌	-11.2805
翎	-11.2805
菽	-11.2805
㵼	-11.2805
糴	-11.2806
俎	-11.2806
琰	-11.2807
汨	-11.2807
痊	-11.2808
與時	-11.281
王道	-11.2811
跌	-11.2811
蒼苔	-11.2812
㒷	-11.2812
刘	-11.2812
醴泉	-11.2814
上都	-11.2816
清涼	-11.2816
之辰	-11.2817
憂國	-11.2819
名在	-11.2819
各自	-11.2821
無消息	-11.2821
聖徳	-11.2821
殿前	-11.2822
羅浮	-11.2828
代祖	-11.2829
聦明	-11.2829
通籍	-11.283
一里	-11.2832
參謀	-11.2834
轉蓬	-11.2836
李尚書	-11.2837
歲時	-11.2838
邦國	-11.2838
一章	-11.2839
司勲	-11.284
逺行	-11.2842
石頭	-11.2845
故老	-11.2851
胡人	-11.2851
見巻	-11.2852
善人	-11.2853
何得	-11.2856
罍	-11.2859
魏博	-11.2861
出其	-11.2864
梁園	-11.2865
流血	-11.2868
五尺	-11.2868
珥	-11.2869
其生	-11.2871
凌雲	-11.2872
春江	-11.2874
菴	-11.2875
而行之	-11.2875
待之	-11.2875
自適	-11.2876
顧我	-11.2877
禮儀	-11.2878
于天	-11.2879
戰國	-11.2879
謠	-11.2883
皐	-11.2884
扞	-11.2884
糟	-11.2884
之母	-11.2886
綾	-11.2886
圯	-11.2888
不啻	-11.2888
騐	-11.2888
澣	-11.2888
荐	-11.289
好惡	-11.289
肱	-11.2891
狙	-11.2891
矣此	-11.2891
戶	-11.2891
弈	-11.2892
三子	-11.2892
吾廬	-11.2892
苐	-11.2892
視聽	-11.2892
外集	-11.2893
蓍	-11.2893
元和六年	-11.2893
有常	-11.2894
北有	-11.2895
葬于	-11.2897
偶題	-11.2897
佛寺	-11.2899
各以	-11.2901
翰墨	-11.2905
雷電	-11.2905
縣東南	-11.2906
旦夕	-11.2906
老大	-11.2908
嘗聞	-11.2908
厥後	-11.2914
者是	-11.2915
萬丈	-11.2918
將兵	-11.2918
者無	-11.2923
園林	-11.2926
陌上	-11.293
穆公	-11.2931
下筆	-11.2931
流俗	-11.2932
以供	-11.2936
世亂	-11.2937
流而	-11.2938
水鳥	-11.2939
昊	-11.294
堯之	-11.294
成文	-11.2941
北渚	-11.2941
隂山	-11.2941
詔曰	-11.2942
將安	-11.2943
切下	-11.2944
立言	-11.2944
去矣	-11.2947
傳聞	-11.295
書懷	-11.2952
者雖	-11.2953
吹簫	-11.2955
部落	-11.2955
古道	-11.2957
巳下	-11.2957
所適	-11.2958
泌	-11.296
驅馳	-11.2961
侃	-11.2961
之尊	-11.2963
挐	-11.2965
蓴	-11.2966
禮也	-11.2967
卿士	-11.2967
腴	-11.2969
蒹葭	-11.2971
會稽	-11.2972
綦	-11.2972
銓	-11.2972
摯	-11.2972
桓温	-11.2973
顓	-11.2974
相尋	-11.2974
汗血	-11.2976
所及	-11.2976
或問	-11.2976
元氏長慶集卷第	-11.2977
夜來	-11.2977
而望	-11.2977
鬂	-11.2978
之弊	-11.2979
絲竹	-11.2984
西漢	-11.2984
年冬	-11.2985
洙曰時	-11.2985
列於	-11.2988
上聲	-11.299
秋興	-11.299
夜宿	-11.2992
行事	-11.2994
邵注	-11.2995
▁此章	-11.2996
昭昭	-11.2997
東城	-11.2999
地也	-11.3001
能言	-11.3002
陽侯	-11.3002
將歸	-11.3004
清廟	-11.3005
赤壁	-11.3007
玉泉	-11.3013
明時	-11.3014
閭里	-11.302
青鳥	-11.3021
勸君	-11.3021
北地	-11.3024
南郊	-11.3024
願得	-11.3024
雲雷	-11.3026
未安	-11.303
之意也	-11.3031
鳥鳴	-11.3032
壬	-11.3033
之善	-11.3033
能自	-11.3036
乃以	-11.3036
言者	-11.3036
立之	-11.3038
聞奏	-11.3042
防禦	-11.3044
何異	-11.3044
卿相	-11.3044
文明	-11.3046
西樓	-11.3047
廡	-11.3047
彗	-11.3049
琥珀	-11.3049
鴛鷺	-11.3053
受其	-11.3054
甍	-11.3055
嵓	-11.3055
昆明池	-11.3056
和親	-11.3056
鼉	-11.3056
櫛	-11.3057
禇	-11.3057
号	-11.3057
繳	-11.3057
櫂	-11.3057
戞	-11.3058
屹	-11.3059
八荒	-11.3059
臉	-11.3059
鏘	-11.3059
軒冕	-11.306
錡	-11.3061
謟	-11.3061
曰公	-11.3061
釋名	-11.3062
終古	-11.3064
池州	-11.3064
▁漢書	-11.3064
十數	-11.3065
神之	-11.3067
處也	-11.3068
公安	-11.3069
君平	-11.307
生民	-11.307
報恩	-11.3071
詞人	-11.3071
湘江	-11.3072
送鄭	-11.3072
第六	-11.3073
惡之	-11.3073
無聞	-11.3075
何曽	-11.3077
陳許	-11.3079
自負	-11.3079
甘心	-11.3079
以正	-11.308
曲水	-11.3082
善者	-11.3084
南斗	-11.3087
之歌	-11.3088
秋思	-11.3088
其如	-11.3089
靈山	-11.3092
嘗與	-11.3095
而還	-11.3095
因此	-11.3097
夜月	-11.3098
庭中	-11.3099
蜀王	-11.31
差池	-11.31
者蓋	-11.3103
如絲	-11.3104
周書	-11.3105
與夫	-11.3108
字見	-11.3109
入室	-11.3109
以臣	-11.311
乎吾	-11.311
三皇	-11.3111
終當	-11.3113
土木	-11.3116
商州	-11.3116
重疊	-11.3117
汜	-11.3119
病也	-11.312
成名	-11.312
滿眼	-11.3125
人世	-11.3131
州剌史	-11.3132
惜其	-11.3133
㶚	-11.3136
麄	-11.3139
秋聲	-11.3139
左太冲	-11.3139
淺深	-11.3141
仆	-11.3141
粘	-11.3141
最髙	-11.3141
北平	-11.3143
欲得	-11.3143
縠	-11.3144
黔中	-11.3145
賜之	-11.3146
在京師	-11.3146
皇極	-11.3146
衒	-11.3147
掬	-11.3147
鵷	-11.3148
郤	-11.3149
憶昨	-11.3149
栁子厚	-11.315
桑榆	-11.3153
建封	-11.3154
雞犬	-11.3154
㕘軍	-11.3155
天下之人	-11.3157
職方	-11.3157
西閣	-11.3158
萬重	-11.316
洙曰漢	-11.3161
嘗以	-11.3162
靡不	-11.3162
凄凄	-11.3162
誰人	-11.3163
周官	-11.3165
爲政	-11.3165
同姓	-11.3167
餓死	-11.3167
三十五	-11.3169
沛公	-11.3171
處置	-11.3172
原野	-11.3174
長在	-11.3174
年月日	-11.3175
知非	-11.3175
意謂	-11.3176
當代	-11.3178
槿	-11.3178
救之	-11.318
吹笛	-11.318
展轉	-11.318
之墓	-11.3181
周行	-11.3181
各一	-11.3181
其官	-11.3182
望見	-11.3182
可畏	-11.3182
自明	-11.3185
東觀	-11.3186
多情	-11.3187
不寐	-11.3189
三州	-11.3193
印綬	-11.3198
殊方	-11.3199
南遊	-11.3206
葢以	-11.3208
今又	-11.321
字或作	-11.321
郡公	-11.3211
尚可	-11.3213
大歴	-11.3213
先天	-11.3213
曽子	-11.3213
字則	-11.3214
葬於	-11.322
所欲	-11.3221
别來	-11.3221
繚	-11.3222
戰國䇿	-11.3222
燄	-11.3223
𫀆	-11.3223
拄	-11.3224
瑀	-11.3224
粱	-11.3225
蝗	-11.3225
許由	-11.3225
山簡	-11.3225
六義	-11.3226
朂	-11.3226
史云	-11.3228
謩	-11.3229
㳙	-11.3229
矚	-11.3229
堙	-11.323
能無	-11.323
慼	-11.323
君恩	-11.3231
離離	-11.3231
貞元中	-11.3232
兵部侍郎	-11.3232
經曰	-11.3232
昨者	-11.3232
砥	-11.3232
詩内	-11.3235
制書	-11.3237
六首	-11.3237
睹	-11.3238
太古	-11.324
亭午	-11.3241
洙曰一作	-11.3244
十有二	-11.3244
負薪	-11.3246
上尊號	-11.3247
道人	-11.3247
行李	-11.3248
易之	-11.3249
曰是	-11.3251
可取	-11.3254
亦不能	-11.3256
華夷	-11.3263
考其	-11.3263
咸通	-11.3264
龍池	-11.3266
之權	-11.3266
忘情	-11.3272
一雙	-11.3273
楚客	-11.3273
之學	-11.3274
莫愁	-11.3274
大怒	-11.3274
神靈	-11.3278
幽棲	-11.3284
漢祖	-11.3285
一室	-11.3285
升堂	-11.3285
出峽	-11.3285
言事	-11.3291
精靈	-11.3292
沈休文	-11.3293
在下	-11.3293
波浪	-11.3297
干將	-11.3297
尙	-11.3299
暮年	-11.3303
仰天	-11.3303
番	-11.3303
逢迎	-11.3304
紇	-11.3307
不思	-11.3307
國子祭酒	-11.3309
主將	-11.331
綜	-11.3311
愕	-11.3312
無塵	-11.3312
膾	-11.3313
絺	-11.3313
暾	-11.3313
不住	-11.3314
嬋娟	-11.3314
顓頊	-11.3314
賑	-11.3314
阡陌	-11.3314
攪	-11.3314
惹	-11.3315
日已	-11.3317
所殺	-11.3317
蒐	-11.3318
棟宇	-11.3318
斟	-11.332
大風	-11.332
尊號	-11.3322
秣	-11.3322
今兹	-11.3324
甘棠	-11.3324
維年月日	-11.3326
斡	-11.3326
百神	-11.3328
洙曰前漢	-11.3328
號爲	-11.3329
守道	-11.333
原憲	-11.3333
句句	-11.3333
一時之	-11.3334
不學	-11.3335
無量	-11.3337
築城	-11.3339
不禁	-11.3339
杭蜀同	-11.3339
世上	-11.334
請以	-11.334
承上	-11.3341
入雲	-11.3342
西征	-11.3343
孔子之	-11.3345
不可勝	-11.3349
荷花	-11.3349
殘月	-11.3349
之表	-11.335
下同	-11.3353
真卿	-11.3354
登封	-11.3359
而獨	-11.3359
不得巳	-11.3363
二毛	-11.3364
亦謂之	-11.3364
照耀	-11.3368
而猶	-11.3371
雲漢	-11.3372
魏王	-11.3372
七首	-11.3373
▁唐書	-11.3376
其語	-11.3376
公事	-11.3376
内有	-11.3378
秦漢	-11.3378
高宗	-11.3379
夏侯	-11.3379
元和二年	-11.3379
其類	-11.3383
草草	-11.339
于兹	-11.3391
峨	-11.3393
鵩	-11.3395
酈	-11.3395
長松	-11.3396
陵陽	-11.3396
哥舒	-11.3397
邑人	-11.3397
揜	-11.3398
嬖	-11.3399
既至	-11.3399
义	-11.3399
詮	-11.34
霹靂	-11.34
淒	-11.3401
紏	-11.3403
神道	-11.3403
鈆	-11.3404
檀弓	-11.3404
久之	-11.3404
未平	-11.3404
郝	-11.3405
趙云上句	-11.3406
粥	-11.3406
豐年	-11.3407
闋	-11.3407
衡門	-11.3407
南飛	-11.3407
澈	-11.3408
石橋	-11.3408
颷	-11.3409
螢火	-11.341
人望	-11.3411
朝來	-11.3413
廣徳二年	-11.3415
雲門	-11.3415
乃有	-11.3419
君諱	-11.3421
者吾	-11.3425
北門	-11.3425
比興	-11.3427
簿書	-11.343
唐興	-11.343
龍鍾	-11.3432
嗣子	-11.3435
惜哉	-11.3435
死不	-11.3436
人少	-11.3436
其首	-11.3438
者所	-11.3438
無力	-11.3439
南面	-11.344
如之何	-11.3441
諸佛	-11.3442
吾家	-11.3442
嗚	-11.3443
百辟	-11.3444
而欲	-11.3445
遥望	-11.3448
知己	-11.3449
存之	-11.3452
元元	-11.3454
注曰	-11.3456
中大夫	-11.3457
世俗	-11.346
漢使	-11.3464
授以	-11.3464
與誰	-11.3464
始得	-11.3465
所從	-11.3466
大海	-11.3466
伐木	-11.3469
道中	-11.347
王勃	-11.3472
鼎湖	-11.3473
中謝	-11.3475
木葉	-11.3475
然猶	-11.3476
歸田	-11.3478
從史	-11.3478
孰不	-11.3479
進士第	-11.348
大帝	-11.3481
東遊	-11.3482
晉公	-11.3483
巴西	-11.3483
監軍	-11.3485
盌	-11.3486
歌云	-11.3487
璣	-11.3488
駁	-11.3488
隸	-11.3489
譛	-11.349
芮	-11.349
唳	-11.349
煩惱	-11.349
鴻鵠	-11.3491
涌	-11.3492
黄牛	-11.3492
橐	-11.3492
霈	-11.3493
里閭	-11.3494
滔滔	-11.3494
玉臺	-11.3495
天威	-11.3495
物外	-11.3495
天台賦	-11.3496
之謂也	-11.3497
爼	-11.3497
黙黙	-11.35
洞庭湖	-11.35
不甚	-11.3502
愠	-11.3502
懐古	-11.3503
不可不	-11.3504
垂拱	-11.3506
殺身	-11.3508
好事	-11.3508
州有	-11.3509
西州	-11.351
白頭吟	-11.3511
無家	-11.3512
虞舜	-11.3513
聖恩	-11.3514
孔氏	-11.3515
險阻	-11.3516
州别駕	-11.3517
西征賦	-11.3518
不開	-11.3519
枕上	-11.352
其死	-11.3522
載酒	-11.3523
年四月	-11.3524
三曰	-11.3529
扵是	-11.3529
言於	-11.3533
柳州	-11.3534
無知	-11.3535
詩所謂	-11.3539
泫	-11.3544
明星	-11.3548
而天下	-11.3548
題曰	-11.355
大事	-11.3551
潯	-11.3551
其來	-11.3553
數萬	-11.3554
九首	-11.3555
夜坐	-11.3555
文苑英華	-11.3558
獻納	-11.3558
始自	-11.3559
陁	-11.356
終朝	-11.356
次山	-11.3562
空虚	-11.3563
北庭	-11.3564
昭明	-11.3564
以金	-11.3568
赤縣	-11.357
四鄰	-11.3574
髙枕	-11.3574
拳拳	-11.3575
十卷	-11.3575
暈	-11.3575
賚	-11.3576
啾啾	-11.3576
杯酒	-11.3576
漉	-11.3576
笄	-11.3576
甃	-11.3578
永貞元年	-11.3579
三萬	-11.3579
櫬	-11.3579
騃	-11.358
恂	-11.358
漁樵	-11.358
駈	-11.358
頓首頓首	-11.3581
臼	-11.3581
嵌	-11.3581
鶩	-11.3582
懷古	-11.3583
客愁	-11.3583
新月	-11.3584
齊州	-11.3585
楊國忠	-11.3585
得所	-11.3587
躰	-11.3588
吠	-11.3588
乃得	-11.3592
别墅	-11.3593
郡邑	-11.3593
諸本皆	-11.3594
王者之	-11.3595
麟閣	-11.3595
李邕	-11.3595
儒者	-11.3596
儒術	-11.3597
臣愚	-11.3597
石渠	-11.3598
甚明	-11.3598
園中	-11.3599
雙飛	-11.3599
應須	-11.36
人臣	-11.3602
大曆	-11.3603
琴操	-11.3605
少壯	-11.3607
朱輪	-11.3609
王仲宣	-11.3616
此所謂	-11.3617
開封	-11.3623
尚饗祭	-11.3626
其族	-11.3629
永言	-11.3633
却是	-11.3635
子夜	-11.3636
胷中	-11.3637
莫相	-11.3637
曰彼	-11.3638
鄴城	-11.3639
賢士	-11.364
竽	-11.3642
早發	-11.3643
月滿	-11.3644
改作	-11.3644
宗即位	-11.3644
有天下	-11.3645
無生	-11.3646
渌	-11.3647
而東	-11.3647
紫閣	-11.3647
遺文	-11.3648
土地	-11.3648
石鏡	-11.3649
見君	-11.3649
藝文志	-11.365
家之	-11.3651
梨花	-11.3651
累遷	-11.3652
伏波	-11.3653
欲盡	-11.3654
佛法	-11.3655
廣漢	-11.3657
庭樹	-11.3661
插	-11.3662
潼	-11.3663
形勝	-11.3663
之慶	-11.3664
寶應元年	-11.3664
恍	-11.3665
三輔黄圖	-11.3665
如斯	-11.3665
䋲	-11.3666
陜州	-11.3666
侑	-11.3667
牘	-11.3667
管子	-11.3668
遒	-11.3668
景帝	-11.3669
鍜	-11.367
笞	-11.367
匍匐	-11.367
夜雨	-11.3671
爪牙	-11.3672
大理評事	-11.3672
邃	-11.3673
懈	-11.3673
天寳十	-11.3675
宣武	-11.3675
開府儀同三司	-11.3675
唐之	-11.3679
稍稍	-11.3679
斗牛	-11.3681
何妨	-11.3682
欲去	-11.3682
軍使	-11.3686
大破	-11.3686
間有	-11.3687
疇昔	-11.3688
班超	-11.369
斬之	-11.3691
祭祀	-11.3691
父兄	-11.3692
所經	-11.3694
一代	-11.3695
耆老	-11.3695
二十韻	-11.3696
淮隂	-11.3696
陸賈	-11.3697
白鷺	-11.3697
北流	-11.3697
茅山	-11.3699
趙注	-11.37
焉故	-11.3701
玉帛	-11.3708
三城	-11.3708
建康	-11.3708
兵部尚書	-11.3712
父曰	-11.3713
縣西南	-11.3714
不避	-11.3714
異域	-11.3715
者爲	-11.3716
長於	-11.3718
因之	-11.3718
自我	-11.3719
方外	-11.3719
相待	-11.3721
月十五日	-11.3721
三湘	-11.3724
千百	-11.3725
垂楊	-11.3726
深處	-11.373
藏之	-11.3731
伯玉	-11.3733
女也	-11.3734
夷陵	-11.3734
濟時	-11.3735
王元	-11.3736
政之	-11.3739
而今	-11.374
分司東都	-11.3742
騖	-11.3743
乃至	-11.3743
曲有	-11.3744
黄石	-11.3745
宋人	-11.3747
三江	-11.3747
都城	-11.3748
萼	-11.3749
孰云	-11.375
楨	-11.375
馬之	-11.3752
朞	-11.3752
垂老	-11.3753
捲	-11.3753
朝陽	-11.3755
昱	-11.3755
吳郡	-11.3755
交河	-11.3756
國夫人	-11.3757
三國志	-11.3757
銑	-11.3757
壬寅	-11.3758
年間	-11.3758
螻蟻	-11.3759
擾擾	-11.376
埀	-11.376
漂泊	-11.376
最為	-11.3762
諂	-11.3762
一事	-11.3763
薜	-11.3763
輞川	-11.3764
方今	-11.3764
支遁	-11.3765
刄	-11.3765
迢	-11.3765
爇	-11.3766
好古	-11.3768
刖	-11.3768
堡	-11.3769
飲之	-11.377
以觀	-11.3771
江村	-11.3772
冨貴	-11.3773
羲之	-11.3774
二篇	-11.3776
龍鱗	-11.3777
只應	-11.3779
居人	-11.3781
君心	-11.3783
甚多	-11.3784
身世	-11.3785
誰憐	-11.3785
昆明	-11.3786
孫楚	-11.3786
汾陽	-11.3786
洞房	-11.3788
事宜	-11.3789
亳	-11.3791
逺望	-11.3792
對此	-11.3792
大王	-11.3793
巴山	-11.3794
屯田	-11.3794
邦家	-11.3796
則此	-11.38
東京賦	-11.3802
後學	-11.3804
征伐	-11.3806
大火	-11.3806
好風	-11.3806
南昌	-11.381
江河	-11.3815
京洛	-11.3816
按公	-11.3818
洞天	-11.382
生計	-11.382
山岳	-11.3823
少監	-11.3824
目前	-11.3825
庚子	-11.3831
蘭亭	-11.3834
之月	-11.3834
口號	-11.3836
凌本	-11.3837
父之	-11.3838
者即	-11.3839
爲大	-11.3842
自守	-11.3845
疫	-11.3846
戣	-11.3846
穉	-11.3848
他年	-11.3849
無忘	-11.3849
國子博士	-11.3849
鐃	-11.385
蒲萄	-11.3851
詡	-11.3851
爛熳	-11.3851
瘵	-11.3852
湊	-11.3852
石城	-11.3853
御溝	-11.3853
汀洲	-11.3854
柴扉	-11.3854
仾	-11.3854
裛	-11.3854
悄悄	-11.3855
蚌	-11.3855
元和十二年	-11.3855
伾	-11.3856
閼	-11.3856
䜟	-11.3857
有所思	-11.3858
𡨕	-11.3858
贓	-11.3858
鍔	-11.3858
䡖	-11.3861
不一	-11.3861
左遷	-11.3862
池水	-11.3862
趙曰以	-11.3862
一飯	-11.3862
頃者	-11.3862
那堪	-11.3865
武庫	-11.3865
爲國	-11.3869
其弊	-11.387
雲飛	-11.387
世傳	-11.3872
大節	-11.3874
黄雲	-11.3875
一盃	-11.3877
度使	-11.3879
伏枕	-11.3879
欲何	-11.388
亦在	-11.388
所奏	-11.3885
掃除	-11.3885
志士	-11.3885
徳之	-11.3886
▁謝	-11.3888
無時	-11.3888
林間	-11.3889
生平	-11.389
想見	-11.3894
溪水	-11.3894
嗚咽	-11.3898
先人	-11.39
能事	-11.3901
髙飛	-11.3903
知有	-11.3904
有能	-11.3907
病身	-11.3912
金印	-11.3913
於公	-11.3913
花時	-11.3919
梁元帝	-11.3922
見此	-11.3925
大同	-11.3929
遂成	-11.393
合於	-11.3931
秋江	-11.3931
玉篇	-11.3931
白龍	-11.3932
王嗣奭曰	-11.3932
胡不	-11.3933
年七月	-11.3935
犬馬	-11.3935
平盧	-11.3937
芍藥	-11.3938
火雲	-11.3938
酬樂天	-11.3938
留客	-11.3939
豚	-11.394
餅	-11.3941
汁	-11.3942
長慶元年	-11.3943
槖	-11.3943
吾所	-11.3943
李使君	-11.3943
搗	-11.3943
汰	-11.3943
然有	-11.3943
於物	-11.3944
况乎	-11.3944
薜蘿	-11.3945
之陽	-11.3946
婿	-11.3946
薔薇	-11.3946
朝議郎	-11.3947
五岳	-11.3948
漢庭	-11.3948
圉	-11.3948
矣若	-11.3949
門户	-11.3949
誅求	-11.3951
肖	-11.3951
冬十月	-11.3954
李謝	-11.3955
莫道	-11.3956
闕庭	-11.3956
作此	-11.3958
此本	-11.3965
景龍	-11.3966
諸王	-11.3968
有文	-11.3969
▁趙	-11.397
終無	-11.3971
元和三年	-11.3971
至京師	-11.3972
生事	-11.3972
側身	-11.3972
都護	-11.3974
奉寄	-11.3976
其利	-11.3977
林園	-11.3977
身在	-11.3977
莫言	-11.3979
在外	-11.3981
相呼	-11.3982
成都記	-11.3984
郞中	-11.3985
可爲	-11.3988
斯須	-11.3989
𤣥元	-11.399
不能無	-11.3993
獨往	-11.3993
三王	-11.3994
敢忘	-11.3994
吟詠	-11.3994
極目	-11.3995
軍節度使	-11.3997
虞卿	-11.4
當道	-11.4001
雜著	-11.4002
日光	-11.4003
下土	-11.4004
大義	-11.4004
甲科	-11.4005
悲鳴	-11.4007
安在	-11.4009
其德	-11.4012
哂	-11.4013
所歸	-11.4015
世所	-11.4017
以道	-11.4019
力士	-11.4021
根本	-11.4023
魏文	-11.4023
匡山	-11.4026
兩三	-11.4027
往還	-11.4028
幘	-11.4028
不可得而	-11.4029
𢎞正	-11.403
七人	-11.403
浣	-11.403
一望	-11.4033
頌曰	-11.4033
酩酊	-11.4034
驄	-11.4035
􁆁	-11.4036
悽愴	-11.4037
突兀	-11.4038
令狐相公	-11.4038
汲黯	-11.4038
済	-11.4039
紅顔	-11.404
甑	-11.404
東西南北	-11.404
穽	-11.4042
紫宸	-11.4043
忽憶	-11.4043
轅門	-11.4044
逺注	-11.4045
蒭	-11.4046
弓矢	-11.4046
畵	-11.4046
淬	-11.4048
傷時	-11.4049
無期	-11.4054
書事	-11.4055
從兄	-11.4056
諫議	-11.4056
天台山	-11.4058
林亭	-11.4058
欲知	-11.4059
晉國	-11.4061
逺方	-11.4067
孫曰詩	-11.4067
原上	-11.4067
于人	-11.4069
紫雲	-11.4069
此類	-11.4071
泥沙	-11.4071
助教	-11.4072
等皆	-11.4076
黄龍	-11.4078
垂釣	-11.4079
鴻鴈	-11.4079
秋氣	-11.4083
記室	-11.4085
不可見	-11.4085
聖慈	-11.4086
舉其	-11.4088
應物	-11.4088
置之	-11.409
瓊樹	-11.409
去就	-11.4091
天寶十	-11.4092
爽氣	-11.4092
者盖	-11.4094
無何	-11.4098
文翁	-11.4098
大國	-11.4098
無餘	-11.4101
元和初	-11.4103
何䖏	-11.4105
七百	-11.4107
千仞	-11.4107
新唐書	-11.4111
超然	-11.4111
感時	-11.4111
永貞	-11.4111
五嶽	-11.4113
秋山	-11.4116
所有	-11.4118
其用	-11.4118
之舊	-11.4118
問其	-11.4118
不倦	-11.4119
繁華	-11.4121
奏請	-11.4123
鶬	-11.4124
南州	-11.4125
釋之	-11.4126
溉	-11.4127
韓詩外傳	-11.4128
琅	-11.4128
齊魯	-11.4129
蘓曰	-11.4129
日新	-11.4129
芰	-11.413
古意	-11.413
勛	-11.413
可見矣	-11.4131
離宫	-11.4131
䆳	-11.4132
睨	-11.4133
蕉	-11.4134
休息	-11.4134
重重	-11.4135
慤	-11.4135
淇	-11.4135
涇渭	-11.4136
集韻	-11.4138
所親	-11.4138
耦	-11.4138
溪上	-11.4139
其業	-11.4141
兵法	-11.4143
康樂	-11.4143
不著	-11.4143
則天	-11.4145
後進	-11.4146
蕨	-11.4146
闻	-11.4147
如雪	-11.4148
舉世	-11.4149
遺恨	-11.4151
携手	-11.4151
太極	-11.4152
甲第	-11.4152
罔不	-11.4152
夜聞	-11.4152
詹事	-11.4157
黄雀	-11.4159
天地間	-11.416
悲秋	-11.4164
詩又云	-11.4168
歸朝	-11.4168
逆賊	-11.4169
窮通	-11.417
古有	-11.4171
忽忽	-11.4172
立於	-11.4173
安居	-11.4175
此謂	-11.4176
詩題	-11.4177
之光	-11.4177
將行	-11.4178
亦難	-11.4178
五原	-11.418
主上	-11.4182
七十里	-11.4183
意欲	-11.4185
桂陽	-11.4186
聞見	-11.4186
宗師	-11.4187
宗族	-11.4187
放逐	-11.4189
未還	-11.4194
戚戚	-11.4195
我亦	-11.4195
中年	-11.4196
以降	-11.4197
外物	-11.4198
表臣	-11.4198
不雨	-11.4209
有似	-11.4209
薦之	-11.421
閩中	-11.4212
無憂	-11.4212
諍	-11.4213
萇	-11.4214
糞	-11.4216
小吏	-11.4217
謹按	-11.422
璩	-11.4222
弹	-11.4222
江南西道	-11.4223
其爲	-11.4223
瘁	-11.4224
之什	-11.4225
荻	-11.4225
杓	-11.4225
戰國策	-11.4225
洛神賦	-11.4225
羇旅	-11.4226
涔	-11.4226
蓊	-11.4226
灃	-11.4227
搢紳	-11.4228
曦	-11.4228
磔	-11.4228
永日	-11.4228
霆	-11.4228
綻	-11.4229
瑰	-11.423
慘澹	-11.423
悒	-11.423
鑣	-11.4231
胡爲	-11.4232
肝膽	-11.4232
受之	-11.4232
路傍	-11.4232
殻	-11.4233
姧	-11.4233
綢繆	-11.4233
潢	-11.4234
張九齡	-11.4234
歙	-11.4235
獨自	-11.4236
已上	-11.4236
擯	-11.4238
鯨魚	-11.4241
嵗暮	-11.4243
霍光	-11.4245
漢髙	-11.4248
㕥	-11.4249
借用	-11.425
西海	-11.4252
琴書	-11.4254
屈平	-11.4255
光禄	-11.4257
而益	-11.4258
謹以	-11.426
盛時	-11.426
北至	-11.4263
太子賔客	-11.4263
讀者	-11.4265
奉宣	-11.4267
馬嘶	-11.4267
夜歸	-11.4268
人人	-11.4269
水部	-11.4269
留侯	-11.4269
其政	-11.427
江北	-11.427
百金	-11.4272
聚散	-11.4282
無違	-11.4285
閨門	-11.4285
北歸	-11.4286
客居	-11.4288
氣力	-11.4289
送楊	-11.429
文君	-11.4293
一别	-11.4293
時雨	-11.4294
所致	-11.4294
王屋	-11.4295
騷人	-11.4296
召為	-11.4297
致其	-11.4298
玉盤	-11.4301
則吾	-11.4301
仰視	-11.4301
大丈夫	-11.4302
得道	-11.4304
今已	-11.4306
霖雨	-11.4309
無過	-11.431
襄州	-11.4311
蔓草	-11.4313
我行	-11.4313
大鵬	-11.4314
輝光	-11.4314
廂	-11.4314
沅	-11.4315
徒以	-11.4317
之源	-11.4319
故居	-11.4319
鸞鳯	-11.4319
世系表	-11.432
棋	-11.432
篙	-11.4321
應有	-11.4321
陶侃	-11.4322
惟新	-11.4322
畬	-11.4322
箜篌	-11.4323
曄	-11.4324
春歸	-11.4324
軺	-11.4324
平津	-11.4324
裨	-11.4324
胡笳	-11.4324
揀	-11.4324
無形	-11.4326
両	-11.4326
蟾蜍	-11.4326
部曲	-11.4327
盖言	-11.4327
罘罳	-11.4327
維舟	-11.4328
鄭餘慶	-11.4328
譎	-11.4329
爻	-11.4329
杜預註	-11.433
尚饗	-11.433
諜	-11.4331
今復	-11.4331
踊躍	-11.4331
猛獸	-11.4332
醢	-11.4333
棟梁	-11.4333
穠	-11.4333
罩	-11.4334
捩	-11.4335
寡婦	-11.4336
禄山反	-11.4336
耳今	-11.4338
幕下	-11.4339
九華	-11.4339
明白	-11.4339
慨然	-11.4341
嘉州	-11.4345
末章	-11.4348
東郭	-11.4349
天際	-11.4349
注謂	-11.4351
鮫人	-11.4352
不憂	-11.4356
諸弟	-11.4357
故用	-11.4357
未到	-11.436
大澤	-11.4362
智伯	-11.4363
寒江	-11.4363
成帝	-11.4363
徳音	-11.4364
國用	-11.4366
廣武	-11.4368
渭南	-11.4369
以避	-11.4371
西岳	-11.438
自笑	-11.4383
桃林	-11.4384
太上皇	-11.4387
頗有	-11.4389
一本無	-11.4389
應劭	-11.439
只有	-11.4391
酒家	-11.4391
旅食	-11.4392
片雲	-11.4393
百鳥	-11.4394
金粟	-11.4397
洙曰晉	-11.4398
大荒	-11.4398
渭北	-11.4399
滿地	-11.4399
水邊	-11.4399
礼記	-11.4399
飛騰	-11.44
不惑	-11.44
相依	-11.4401
佛書	-11.4404
涕淚	-11.4406
▁王	-11.4408
五溪	-11.4411
致理	-11.4411
下方	-11.4412
銀青光禄大夫	-11.4412
沙漠	-11.4413
弑	-11.4416
犂	-11.4416
榼	-11.4416
鼈	-11.4417
其根	-11.4417
魏都賦	-11.4418
黄鸝	-11.4419
㝢	-11.4419
與道	-11.442
若非	-11.442
拗	-11.442
彭州	-11.4421
田曰	-11.4421
譁	-11.4422
丁酉	-11.4422
安慶緒	-11.4422
李謝校	-11.4423
文曰	-11.4423
吝	-11.4423
悸	-11.4423
倜儻	-11.4424
蝸	-11.4424
怙	-11.4425
狥	-11.4425
恨不	-11.4425
帝鄉	-11.4425
惰	-11.4427
痼	-11.4427
鷃	-11.4428
切又音	-11.4428
剗	-11.443
白沙	-11.4432
亰	-11.4432
字書	-11.4433
臨卭	-11.4433
白骨	-11.4433
石刻	-11.4435
堂前	-11.4436
如意	-11.4437
劉稹	-11.4438
舅氏	-11.4444
劉夢得	-11.4445
之側	-11.4447
紅粉	-11.4447
成敗	-11.4447
自覺	-11.4448
以死	-11.4449
茫然	-11.4449
感懷	-11.445
氣也	-11.4451
本云	-11.4451
葉落	-11.4453
青龍	-11.4454
堯舜之	-11.4455
白鳥	-11.4456
誰為	-11.4456
而歌	-11.4458
魚鳥	-11.4458
近體	-11.4462
朝雲	-11.4464
幾日	-11.4464
近來	-11.4465
雲陽	-11.4467
御批	-11.4467
匹夫	-11.447
豈謂	-11.4471
後為	-11.4471
無涯	-11.4474
句非	-11.4474
我家	-11.4475
命也	-11.448
千官	-11.4481
長吟	-11.4482
吾兄	-11.4484
官職	-11.4484
隋書	-11.4486
應無	-11.4486
勝事	-11.4487
碧樹	-11.4488
宣慰	-11.4488
不變	-11.4488
曰卿	-11.4491
按唐	-11.4491
數千里	-11.4492
太白詩	-11.4492
之具	-11.4493
道塲	-11.4493
銀河	-11.4496
金盤	-11.4496
其職	-11.4497
于公	-11.4497
之訓	-11.4505
經畧	-11.4505
湥	-11.4508
竒之	-11.4508
敬之	-11.4508
本州	-11.4509
歌詠	-11.4509
旰	-11.4509
瞳	-11.4511
岌	-11.4512
兩地	-11.4512
為太子	-11.4513
用也	-11.4513
東征	-11.4513
舊山	-11.4514
一千	-11.4514
熒	-11.4514
分憂	-11.4515
桴	-11.4515
愔	-11.4516
醅	-11.4516
貙	-11.4516
児	-11.4518
蹭蹬	-11.4519
郡治	-11.4519
儆	-11.4519
駛	-11.4519
廳	-11.4519
渝州	-11.4519
𨳩	-11.452
公孫述	-11.4521
佗	-11.4521
様	-11.4522
禮義	-11.4522
﨑嶇	-11.4522
洋洋	-11.4524
馬嵬	-11.4524
貲	-11.4526
秋霜	-11.4527
詬	-11.4528
匏	-11.4528
金波	-11.4529
歳月	-11.4531
無所不	-11.4532
餘力	-11.4533
之深	-11.4534
石崇	-11.4535
之計	-11.4535
數里	-11.4537
碧落	-11.4538
雲梯	-11.454
為博士	-11.4541
其狀	-11.4542
樂毅	-11.4543
韓文	-11.4544
先朝	-11.4545
不窮	-11.4545
固當	-11.4547
煙塵	-11.4547
峨眉	-11.4549
公言	-11.455
百蠻	-11.4552
郡太守	-11.4552
也唐	-11.4554
竹枝	-11.4555
見招	-11.4556
李白詩	-11.4565
法也	-11.4565
苦心	-11.4571
蒼龍	-11.4573
不得志	-11.4574
察其	-11.4575
清源	-11.4575
在唐	-11.4576
死矣	-11.4576
史館	-11.4577
崑崙山	-11.4579
而巳矣	-11.458
飛動	-11.458
陽郡	-11.4582
三更	-11.4584
君家	-11.4584
黄花	-11.4585
要路	-11.4588
知此	-11.4589
麾下	-11.4591
滕	-11.4594
春深	-11.4594
皆同	-11.4595
照臨	-11.4595
巳上	-11.4598
銀漢	-11.4599
魂魄	-11.4604
而不見	-11.4604
絃歌	-11.4605
時方	-11.4605
南京	-11.4606
斐	-11.4606
澄清	-11.4607
楊花	-11.4607
黄生注	-11.4608
如彼	-11.4608
青州	-11.4608
篇章	-11.4611
香山	-11.4611
贈崔	-11.4613
壯觀	-11.4614
水經註	-11.4614
跂	-11.4615
萬夫	-11.4615
居然	-11.4616
朝市	-11.4616
纍	-11.4616
玠	-11.4618
新羅	-11.4618
坰	-11.4618
灔澦	-11.4618
鴞	-11.4619
太常博士	-11.4619
默	-11.4619
溥	-11.4621
有兩	-11.4621
鴈門	-11.4621
謇	-11.4621
知所	-11.4621
荇	-11.4622
鎔	-11.4623
雌雄	-11.4623
懸車	-11.4624
淮南王	-11.4626
壌	-11.4626
蝉	-11.4626
渭橋	-11.4626
堰	-11.4627
筆硯	-11.4627
無成	-11.4628
王逸	-11.4628
麻姑	-11.4631
大厦	-11.4631
或無此	-11.4631
禮部侍郎	-11.4632
猿啼	-11.4634
羽檄	-11.4634
老君	-11.4634
皆云	-11.4637
而好	-11.4637
前件官	-11.4638
採蓮	-11.4638
心力	-11.464
一門	-11.4641
曲折	-11.4643
百千	-11.4647
董晉	-11.4647
珍重	-11.4647
楚子	-11.4647
陽和	-11.4647
詩賦	-11.4648
秦之	-11.4649
州牧	-11.4651
出于	-11.4653
於東	-11.4654
吳越	-11.4655
酒食	-11.4655
僉	-11.4656
黎元	-11.4657
沙苑	-11.4661
故號	-11.4662
惜别	-11.4664
腹心	-11.4664
萬騎	-11.4665
恙	-11.4665
皆自	-11.4667
一匹	-11.4668
生者	-11.4668
審言	-11.4668
獻賦	-11.4669
家聲	-11.4672
若何	-11.4673
無垠	-11.4675
絶壁	-11.4676
在其中	-11.4678
三省	-11.4682
皆用	-11.4682
苟有	-11.4683
蘭陵	-11.4686
鳴琴	-11.4686
齊賢曰唐	-11.4688
吹笙	-11.4689
白璧	-11.469
無愧	-11.469
春山	-11.4692
固難	-11.4698
鳴玉	-11.4701
轉運	-11.4703
王侍御	-11.4705
垍	-11.4706
履道	-11.4707
瞿	-11.4708
相州	-11.4708
衿	-11.4708
洮	-11.4709
大凡	-11.4709
言之則	-11.4712
囑	-11.4712
八公	-11.4712
團練	-11.4713
芳樹	-11.4714
湜	-11.4714
歡喜	-11.4714
忘歸	-11.4715
惋	-11.4716
纖	-11.4717
觀察處置等使	-11.4717
篇云	-11.4718
舂陵	-11.4718
貰	-11.4719
古城	-11.472
鼯	-11.472
炫	-11.472
紐	-11.472
無敵	-11.472
溧陽	-11.4721
而用之	-11.4721
樗	-11.4721
䓁	-11.4722
前驅	-11.4722
中書侍郎	-11.4723
漱	-11.4724
序曰	-11.4725
餒	-11.4725
隟	-11.4725
青樓	-11.4726
關西	-11.4727
盤石	-11.4727
羲皇	-11.4727
大君	-11.4727
猨	-11.4729
淮陽	-11.4729
長安城	-11.473
庚申	-11.4733
猶得	-11.4733
同日	-11.4733
想像	-11.4734
傅𤣥	-11.4735
乎若	-11.4737
堂堂	-11.4738
罔極	-11.4739
列宿	-11.4739
馮夷	-11.474
鳥名	-11.4741
凭	-11.4741
周流	-11.4741
年十一月	-11.4741
九十	-11.4742
故稱	-11.4743
挽歌	-11.4743
網羅	-11.4743
山路	-11.4744
如山	-11.4744
荆州記	-11.4747
造物	-11.4751
髙秋	-11.4754
委曲	-11.4754
東都留守	-11.4755
丹丘	-11.4761
月落	-11.4762
説苑	-11.4764
第七	-11.4764
我公	-11.4764
角切	-11.4765
胡騎	-11.4766
雲外	-11.4766
北辰	-11.4766
自相	-11.4768
山西	-11.4772
望雲	-11.4772
代謝	-11.4772
忠貞	-11.4773
綺羅	-11.4774
王事	-11.4774
繆本作	-11.4775
臺閣	-11.4775
雖未	-11.4778
伏乞	-11.4779
未識	-11.4779
然若	-11.4782
九廟	-11.4783
南蠻	-11.4785
壯心	-11.4785
陳蕃	-11.4787
互相	-11.4788
事有	-11.4788
闐	-11.479
而居	-11.4791
短長	-11.4797
春酒	-11.4799
日月之	-11.48
何意	-11.4801
也士贇曰	-11.4802
能以	-11.4804
穆宗	-11.4804
暦	-11.4804
奉和聖製	-11.4805
伶	-11.4806
則言	-11.4807
若使	-11.4807
上古	-11.4808
竹葉	-11.481
見髙四篇	-11.481
相期	-11.4811
仙家	-11.4811
核	-11.4812
諸詩	-11.4812
子建	-11.4812
霍去病	-11.4812
㨿	-11.4812
地下	-11.4813
煉	-11.4813
彬	-11.4814
嘘	-11.4815
華清宫	-11.4816
崔君	-11.4816
琮	-11.4817
宣子	-11.4817
妣	-11.4817
壕	-11.4817
睠	-11.4817
萬嵗	-11.4817
巉	-11.4817
煮	-11.4817
肌膚	-11.4817
列女傳	-11.4818
紺	-11.4818
絆	-11.4819
糠	-11.4819
畎	-11.4819
畤	-11.482
繚繞	-11.482
遨	-11.482
撿	-11.482
燥	-11.482
城隍	-11.4823
上表	-11.4824
譔	-11.4824
寰	-11.4827
濁醪	-11.4827
輓	-11.4827
鶱	-11.4827
千山	-11.4827
其術	-11.4828
㒺	-11.4828
门	-11.4829
遑	-11.4832
省中	-11.4836
皇太后	-11.4837
江都	-11.4838
山髙	-11.4839
燕子	-11.4841
能知	-11.4843
精舎	-11.4844
已有	-11.4845
至理	-11.4845
高下	-11.4845
無子	-11.4846
齋戒	-11.4847
文書	-11.4848
又言	-11.4849
苦熱	-11.4849
太上	-11.4849
採藥	-11.4849
輕舉	-11.485
夫以	-11.4851
野花	-11.4852
天寳中	-11.4853
顔師古曰	-11.4855
與張	-11.4856
幸得	-11.4856
相類	-11.4856
詩國風	-11.4856
伊洛	-11.4857
牧馬	-11.4858
未開	-11.4858
寒夜	-11.4859
州郡	-11.4859
七十二	-11.4863
舊章	-11.4868
吕氏	-11.4868
之悲	-11.4873
萬邦	-11.4883
寒水	-11.4883
酒醒	-11.4885
以立	-11.4886
弱水	-11.4887
吁嗟	-11.4888
仲夏	-11.4892
劒閣	-11.4892
送劉	-11.4896
買臣	-11.4896
伊水	-11.4897
其源	-11.4898
歸期	-11.4899
苦雨	-11.4899
七星	-11.4899
説文云	-11.4901
所據	-11.4904
鷗鳥	-11.4905
瀟	-11.4905
文物	-11.4906
西歸	-11.4907
寓意	-11.4907
也師曰	-11.4908
嶼	-11.4908
洙曰後漢	-11.4912
首陽	-11.4913
以通	-11.4913
之論	-11.4913
綉	-11.4915
書懐	-11.4915
寓言	-11.4915
百工	-11.4916
起草	-11.4916
沅湘	-11.4918
此公	-11.4918
錄事	-11.4918
氐	-11.4918
剰	-11.4919
用韻	-11.4919
江文通	-11.492
愷悌	-11.492
四門博士	-11.492
團團	-11.492
硎	-11.4921
頺	-11.4922
莘	-11.4922
蹴	-11.4922
紓	-11.4923
訐	-11.4923
幷序	-11.4923
縣東北	-11.4923
清水	-11.4923
人語	-11.4924
祛	-11.4927
酒泉	-11.4927
孝悌	-11.4929
銖	-11.4929
采石	-11.4929
𣣔	-11.493
次章	-11.4931
雲卿	-11.4931
悠哉	-11.4931
錮	-11.4932
方便	-11.4932
慎勿	-11.4933
交切	-11.4933
稗	-11.4935
帝城	-11.4936
不可以不	-11.4937
分别	-11.4938
某官某	-11.4938
討之	-11.4939
契丹	-11.4941
佳麗	-11.4941
延齡	-11.4942
賞罰	-11.4942
未死	-11.4945
勲業	-11.4945
何况	-11.4946
周礼	-11.4948
百越	-11.4949
堂下	-11.495
者伏以	-11.495
鼓角	-11.4954
安國	-11.4956
過也	-11.4958
杜氏	-11.4959
乃為	-11.4959
山鬼	-11.4959
向東	-11.496
初為	-11.4961
不愛	-11.4963
廵官	-11.4965
與劉	-11.4965
良工	-11.4966
誰不	-11.4966
所司	-11.4967
萬世	-11.4969
掖垣	-11.4979
豈復	-11.4981
郡有	-11.4981
豈不以	-11.4981
婺州	-11.4983
后稷	-11.4987
射之	-11.499
大水	-11.4991
玉帳	-11.4995
鄭州	-11.4996
愛君	-11.4997
惠王	-11.5001
可知也	-11.5001
郡人	-11.5001
元和中	-11.5001
八百	-11.5002
銅梁	-11.5005
朔風	-11.5007
芸	-11.5007
左氏傳	-11.5008
孟嘗君	-11.5012
廿	-11.5013
感傷	-11.5013
孝武	-11.5014
遥知	-11.5014
琴臺	-11.5015
崧	-11.5017
槃	-11.5019
駙馬	-11.5019
髀	-11.5021
柂	-11.5021
焰	-11.5021
神物	-11.5021
橘柚	-11.5022
寖	-11.5022
有唐	-11.5022
意也	-11.5023
梁孝王	-11.5024
壖	-11.5024
曁	-11.5024
抒	-11.5025
以兵	-11.5025
鸛	-11.5026
憂患	-11.5026
非獨	-11.5026
多所	-11.5027
缶	-11.5027
淩	-11.5028
州諸軍事	-11.5028
祲	-11.5029
冠冕	-11.5029
感通	-11.503
集賢殿	-11.5031
屡	-11.5031
舉手	-11.5032
可得而	-11.5033
躔	-11.5033
陳氏	-11.5033
纊	-11.5034
臨海	-11.5034
剖符	-11.5034
湖水	-11.5034
李本	-11.5036
䞇	-11.5036
可以為	-11.5036
掃地	-11.5039
髙陽	-11.5041
行至	-11.5041
斗酒	-11.5045
趙氏	-11.5045
在梓州	-11.5045
起下	-11.5046
大笑	-11.5047
南紀	-11.5047
使至	-11.5048
無虞	-11.505
以興	-11.505
揚子雲	-11.5058
火燒	-11.5059
浣花溪	-11.5059
瑶臺	-11.5059
而作也	-11.506
凡在	-11.5062
又名	-11.5062
行雲	-11.5063
開元寺	-11.5065
濆	-11.5065
蜀江	-11.5067
九載	-11.5067
及於	-11.5069
於京師	-11.507
本意	-11.507
已下	-11.5073
李生	-11.5077
年六月	-11.5077
髙帝	-11.5079
有若	-11.5081
推之	-11.5083
昭陵	-11.5086
多有	-11.5086
連帥	-11.5086
不就	-11.5088
泉聲	-11.5088
祠堂	-11.509
令名	-11.5092
管内	-11.5092
客來	-11.5093
虢州	-11.5094
舉目	-11.5096
謹奏	-11.5098
俱作	-11.5098
樹木	-11.51
旬日	-11.51
太息	-11.5103
神交	-11.5104
欲求	-11.5107
下視	-11.5108
歲暮	-11.5111
戒之	-11.5111
兩人	-11.5115
嚴陵	-11.5115
官爵	-11.5116
埤	-11.5117
筌	-11.5117
四明	-11.5121
阨	-11.5121
不聽	-11.5121
掀	-11.5123
王子猷	-11.5123
酺	-11.5124
英乂	-11.5125
峥嶸	-11.5125
絲綸	-11.5125
字皆非是	-11.5126
傷春	-11.5126
子房	-11.5127
涕泗	-11.5127
菑	-11.5127
庚寅	-11.5127
襜	-11.5128
古人之	-11.5128
之歎	-11.5129
辛勤	-11.5129
衛青	-11.5129
漪	-11.513
逡巡	-11.513
閙	-11.5131
歉	-11.5131
妖氛	-11.5131
雒	-11.5132
㸑	-11.5133
盥	-11.5133
有之字	-11.5133
汨羅	-11.5133
于朝	-11.5134
長慶二年	-11.5134
北邙	-11.5134
同志	-11.5135
芬芳	-11.5135
歡娛	-11.5136
祕書監	-11.5136
趙云公	-11.5138
勞生	-11.5139
赤甲	-11.5139
並作	-11.514
學道	-11.514
中立	-11.514
追隨	-11.5141
夏口	-11.5141
推轂	-11.5142
是嵗	-11.5142
孫子	-11.5143
窮巷	-11.5146
女蘿	-11.5146
蕩蕩	-11.5146
二十巻	-11.5147
按此	-11.5147
殘陽	-11.5148
風急	-11.5151
鄧州	-11.5153
商量	-11.5155
於内	-11.5156
複出	-11.5157
今欲	-11.5159
新年	-11.5159
無地	-11.516
平安	-11.5163
此之謂	-11.5164
於兹	-11.5165
能不	-11.5165
因成	-11.5166
和樂天	-11.517
士庶	-11.5171
庶子	-11.5171
呉郡	-11.5172
送陸	-11.5172
餘杭	-11.5172
者所以	-11.5173
贇	-11.5173
漢南	-11.5174
西有	-11.5174
城樓	-11.5175
政成	-11.5175
王右丞	-11.5176
興亡	-11.5177
逺也	-11.5178
偶作	-11.5178
近代	-11.5179
廣文	-11.5179
太康	-11.518
月上	-11.5181
其氣	-11.5184
鳥也	-11.5184
雪嶺	-11.5184
者惟	-11.5184
劉公	-11.5185
中朝	-11.5186
千丈	-11.5186
過客	-11.5188
先聖	-11.5188
分野	-11.5191
子昻	-11.5192
秋七月	-11.5192
恐是	-11.5193
東樓	-11.5195
哀哀	-11.5196
賈誼傳	-11.5198
來歸	-11.5198
棄之	-11.52
靈州	-11.52
武子	-11.52
文館	-11.52
鹿門	-11.5201
客心	-11.5202
遺我	-11.5202
與世	-11.5204
郡屬	-11.5205
不遺	-11.5208
開門	-11.5209
歸客	-11.521
委之	-11.5214
奏聞	-11.5214
峽州	-11.5217
更相	-11.522
夜泊	-11.5221
無敢	-11.5222
纜	-11.5224
伏願	-11.5224
在䕫	-11.5225
歊	-11.5225
之好	-11.5226
龍山	-11.5227
通泉	-11.5227
欲往	-11.5228
水亭	-11.5228
潏	-11.5229
藐	-11.523
鈔	-11.523
柵	-11.5231
子虚賦	-11.5231
笑語	-11.5231
諫諍	-11.5232
三昧	-11.5232
捎	-11.5232
鉏	-11.5232
裡	-11.5233
清景	-11.5234
衲	-11.5234
剋	-11.5234
前程	-11.5234
黄門侍郎	-11.5235
諸儒	-11.5235
貂裘	-11.5236
駑駘	-11.5236
補遺	-11.5236
立廟	-11.5236
曹參軍	-11.5236
環堵	-11.5237
臨洮	-11.5237
五星	-11.5237
訂	-11.5237
撑	-11.5238
洪範	-11.5238
結切	-11.5239
販	-11.5239
孝經	-11.5239
今天下	-11.5239
儕	-11.5239
銛	-11.524
張云	-11.5241
萬家	-11.5241
君親	-11.5241
纏	-11.5242
十字	-11.5242
花門	-11.5243
汗漫	-11.5245
此對天問	-11.5245
羅列	-11.5246
▁古詩	-11.5246
本道	-11.5247
百人	-11.5248
新聲	-11.5249
亦知	-11.5251
林甫	-11.5251
忘其	-11.5252
曰唐	-11.5253
望月	-11.5255
齊王	-11.5255
不常	-11.5256
也又曰	-11.5258
知是	-11.5259
不巳	-11.5259
下情	-11.526
感而	-11.5261
疑其	-11.5263
營營	-11.5264
六韻	-11.5265
擢第	-11.5266
明明	-11.5267
貞元十五年	-11.5268
八行	-11.527
皇帝陛下	-11.527
祭之	-11.5271
以利	-11.5272
清白	-11.5274
也左傳	-11.5276
良時	-11.5277
經濟	-11.5278
九衢	-11.5279
把酒	-11.5279
從古	-11.5282
安縣	-11.5283
入為	-11.5284
侯景	-11.5286
率府	-11.5286
弟妹	-11.5286
水深	-11.5287
㣲之	-11.529
雜記	-11.5292
深知	-11.5293
天衢	-11.5295
因縁	-11.5296
薨于	-11.5297
詩言	-11.5299
哀鳴	-11.53
討論	-11.53
所部	-11.5301
人君	-11.5302
分散	-11.5302
始興	-11.5303
飛來	-11.5304
向人	-11.5305
湖中	-11.5305
而况	-11.5307
清渭	-11.5308
以表	-11.5309
四座	-11.5309
守官	-11.5313
起兵	-11.5314
凡所	-11.5314
濟濟	-11.5317
襄城	-11.5318
池臺	-11.5318
星河	-11.5321
平公	-11.5321
廣平	-11.5321
况復	-11.5324
棄官	-11.5326
吾徒	-11.5327
初生	-11.5328
隱者	-11.5329
遊於	-11.5329
奐	-11.5332
寳應	-11.5332
此義	-11.5332
盩厔	-11.5333
夷吾	-11.5334
筯	-11.5334
溷	-11.5334
韓非子	-11.5335
妻孥	-11.5335
隰	-11.5335
槁	-11.5337
吳興	-11.5337
夐	-11.5339
葳蕤	-11.534
大家	-11.534
罘	-11.5341
今巳	-11.5341
鶵	-11.5341
受恩	-11.5341
平臺	-11.5342
丱	-11.5342
稻粱	-11.5342
不畏	-11.5343
敺	-11.5343
之失	-11.5343
歡娱	-11.5343
晃	-11.5344
咿	-11.5346
竟無	-11.5346
愈再拜	-11.5346
賛普	-11.5346
囷	-11.5346
䂓	-11.5348
鬐	-11.5348
韞	-11.5348
三徑	-11.5349
正色	-11.5349
羽翮	-11.535
義方	-11.535
謝上表	-11.5352
名位	-11.5352
山陵	-11.5353
不報	-11.5353
正當	-11.5353
甘泉賦	-11.5353
所傳	-11.5355
一尺	-11.5355
嬰兒	-11.5355
右一	-11.5357
鄭䖍	-11.5359
信之	-11.5359
嚚	-11.5359
漁舟	-11.536
諡曰	-11.536
五丁	-11.536
于後	-11.5362
得於	-11.5364
山濤	-11.5365
一醉	-11.5365
垂白	-11.5366
凉州	-11.537
春晚	-11.5371
以事	-11.5378
王宰	-11.5379
貞元八年	-11.538
幽燕	-11.5382
不移	-11.5382
來時	-11.5382
念此	-11.5383
▁後漢	-11.5386
避世	-11.5392
年月	-11.5392
淮水	-11.5394
無爲	-11.5396
齊名	-11.5397
童稚	-11.5399
西亭	-11.54
比干	-11.54
偃師	-11.54
子敬	-11.54
與汝	-11.5401
氷雪	-11.5401
甫自	-11.5404
因題	-11.5404
親近	-11.5404
不還	-11.5406
皆出	-11.5408
▁易	-11.5409
有鳥	-11.5412
花滿	-11.5412
之大者	-11.5414
松下	-11.5414
宗伯	-11.5417
福地	-11.542
十丈	-11.5423
狀論	-11.5424
西東	-11.5424
古之人	-11.5425
韓曰公	-11.5426
孟子曰	-11.5427
乃使	-11.5427
天明	-11.5428
且夫	-11.5429
與韓	-11.543
擊之	-11.543
趙公	-11.5432
雲母	-11.5434
唐詩紀事	-11.5436
宜乎	-11.5436
未曽	-11.5438
舶	-11.5438
漢有	-11.5439
願言	-11.5439
另	-11.544
昔遊	-11.544
俶	-11.5441
㺯	-11.5444
王逸註	-11.5444
褚	-11.5444
鼙	-11.5444
伽	-11.5445
霤	-11.5445
弇	-11.5446
盎	-11.5447
聒	-11.5447
出爲	-11.5447
六尺	-11.5448
卻	-11.5448
煬帝	-11.5449
款	-11.545
赤霄	-11.545
羊腸	-11.545
廣德元年	-11.545
鹽鐵	-11.545
秘書監	-11.5452
僃	-11.5454
帝時	-11.5454
不宣	-11.5454
撮	-11.5455
檜	-11.5456
恡	-11.5456
鷙鳥	-11.5457
四巻	-11.5457
元載	-11.5458
歸州	-11.5459
未暇	-11.5459
期於	-11.5459
不相見	-11.5459
水濵	-11.546
髠	-11.5461
二十餘	-11.5461
户部	-11.5461
千騎	-11.5462
且喜	-11.5464
大将軍	-11.5466
景下四	-11.5467
赴舉	-11.5468
中庭	-11.5469
乎天	-11.5472
弄玉	-11.5474
倉卒	-11.5476
不飲	-11.5476
太倉	-11.5477
紫塞	-11.5477
二山	-11.5478
良辰	-11.5478
中行	-11.5478
南渡	-11.5479
昔有	-11.548
黄鶴樓	-11.5483
編次	-11.5485
徒自	-11.5486
未易	-11.5486
亂世	-11.5489
羽人	-11.549
成就	-11.5491
之良	-11.5491
歡樂	-11.5491
向西	-11.5492
在朝	-11.5492
幾年	-11.5493
各異	-11.5494
發揮	-11.5494
相續	-11.5495
奉送	-11.5497
五兵	-11.5497
感動	-11.5498
此别	-11.5499
物理	-11.55
一世	-11.5501
竟日	-11.5501
隨時	-11.5502
奉酬	-11.5503
天邊	-11.5504
其或	-11.5507
不遑	-11.551
知何	-11.5511
動揺	-11.5513
於衆	-11.5514
而易	-11.5517
日色	-11.5518
之服	-11.5518
郊居	-11.5519
〇趙	-11.5523
多才	-11.5524
兵符	-11.5524
理道	-11.5525
自出	-11.5525
斷絶	-11.5527
城池	-11.5531
春寒	-11.5532
人不知	-11.5532
羣生	-11.5535
得仙	-11.5535
楚水	-11.5536
淚下	-11.554
引兵	-11.5541
蒼然	-11.5542
自代	-11.5542
不語	-11.5545
牡	-11.5545
上將	-11.5548
風物	-11.5549
上清	-11.5549
春夏	-11.555
罝	-11.5552
蝨	-11.5552
永王璘	-11.5552
劉孝標	-11.5552
笠	-11.5552
睥睨	-11.5552
騶	-11.5553
箸	-11.5553
問我	-11.5553
豈止	-11.5554
摠	-11.5555
孛	-11.5555
尚書令	-11.5555
澀	-11.5555
虱	-11.5556
羃	-11.5556
劉公幹	-11.5557
鶺鴒	-11.5557
廖	-11.5557
籜	-11.5558
楊朱	-11.5559
衰病	-11.5559
隤	-11.556
𣑽	-11.556
百王	-11.5561
笥	-11.5561
三里	-11.5561
清濁	-11.5561
忽有	-11.5562
囙	-11.5562
我身	-11.5562
老矣	-11.5563
張曰	-11.5563
艮	-11.5563
鑿齒	-11.5563
詠懐	-11.5564
其處	-11.5564
自喻	-11.5565
晁本	-11.5565
畫圖	-11.5566
虎狼	-11.5569
豈唯	-11.5569
相視	-11.5571
十洲記	-11.5571
諸郡	-11.5572
防禦使	-11.5574
嘉之	-11.5578
以文章	-11.5579
樓閣	-11.5581
然後知	-11.5582
改名	-11.5582
清浄	-11.5582
中天	-11.5588
璽書	-11.5589
孟冬	-11.5591
權知	-11.5591
葢言	-11.5592
天池	-11.5592
魯公	-11.5593
王業	-11.5594
既成	-11.5596
在野	-11.5599
斜日	-11.5599
貢士	-11.56
景陽	-11.5601
平叔	-11.5601
金錢	-11.5602
藏書	-11.5604
有佳	-11.5605
願君	-11.5605
非敢	-11.561
六軍	-11.561
伯仲	-11.5614
雨晴	-11.5615
結交	-11.5616
不道	-11.5617
自成	-11.5617
薊門	-11.5618
此道	-11.5618
髙歌	-11.5618
光華	-11.5619
王叔文	-11.5625
南亭	-11.5625
劍閣	-11.5625
別離	-11.5626
交遊	-11.563
漢制	-11.563
不異	-11.5631
夫如是	-11.5631
不修	-11.5633
小字	-11.5635
未嘗有	-11.5636
然以	-11.5637
及諸	-11.5641
而哭	-11.5642
事實	-11.5645
凡十	-11.5647
軍士	-11.5648
樓前	-11.5652
古書	-11.5652
為刺史	-11.5654
鷙	-11.5655
形影	-11.5655
閥	-11.5658
愛惜	-11.5658
苜蓿	-11.5659
而笑	-11.566
日與	-11.5661
瑾	-11.5661
柘	-11.5662
轢	-11.5662
松桂	-11.5664
犧	-11.5664
子路	-11.5665
南朝	-11.5665
董仲舒	-11.5666
户部侍郎	-11.5666
罽	-11.5667
㯶	-11.5667
以仁	-11.5667
翛然	-11.5668
薙	-11.5668
碧玉	-11.5668
螟	-11.5668
局促	-11.5668
良人	-11.5668
枿	-11.5669
姝	-11.5669
迦葉	-11.5669
鞚	-11.5669
徭	-11.5669
满	-11.567
張説	-11.5671
俚	-11.5671
訥	-11.5671
婦女	-11.5673
嗇	-11.5674
鰥	-11.5674
下流	-11.5674
滸	-11.5675
𤣥圃	-11.5675
於戲	-11.5676
天髙	-11.5676
鍼	-11.5676
斍	-11.5679
洲渚	-11.5679
長楊賦	-11.5679
征戍	-11.5679
論云	-11.568
按史	-11.5681
莫問	-11.5683
闲	-11.5684
年二十	-11.5687
亦多	-11.5687
議論見	-11.5689
名臣	-11.5689
李翰林	-11.5691
右二	-11.5692
曰吾聞	-11.5693
器用	-11.5694
也祝曰	-11.5694
新舊	-11.5694
于外	-11.5695
有年	-11.5696
旌節	-11.5698
史氏	-11.57
春華	-11.5703
者多矣	-11.5704
昭應	-11.5706
不盈	-11.5707
路逺	-11.5708
三十韻	-11.571
忠烈	-11.5711
今從	-11.5712
寧知	-11.5713
而取	-11.5719
和風	-11.5722
圖書	-11.5722
大旱	-11.5722
洛陽城	-11.5724
上第	-11.5725
非特	-11.5725
離披	-11.5729
魏武帝	-11.573
正封	-11.573
推誠	-11.5732
安陸	-11.5734
草樹	-11.5735
塗山	-11.5736
有美	-11.5739
吞聲	-11.5741
李翺	-11.5741
動植	-11.5743
忠誠	-11.5743
之跡	-11.5745
惟其	-11.5748
賢臣	-11.575
分手	-11.575
歸于	-11.575
兩字	-11.5753
本校	-11.5753
二載	-11.5756
者咸	-11.5756
渤	-11.5757
誰是	-11.5759
異也	-11.576
於君	-11.5763
搔	-11.5763
松門	-11.5764
二章	-11.5764
鄭康成	-11.5766
一半	-11.5767
右軍	-11.5768
仐	-11.5768
眥	-11.5769
時俗	-11.5769
冽	-11.577
撇	-11.577
冏	-11.577
勺	-11.5771
臠	-11.5771
嵯峨	-11.5772
鵾	-11.5772
鶉	-11.5772
入京	-11.5772
酹	-11.5773
上京	-11.5774
三世	-11.5775
吳都賦	-11.5775
禾黍	-11.5776
老僧	-11.5776
鄱陽	-11.5777
酲	-11.5777
䬃	-11.5777
正在	-11.5777
弥	-11.5778
蛮	-11.5778
敢以	-11.5778
奭	-11.5778
玉繩	-11.5779
彎	-11.5779
優劣	-11.5779
斟酌	-11.578
礎	-11.578
顙	-11.578
藹藹	-11.578
淄青	-11.5781
孜孜	-11.5781
糺	-11.5781
不休	-11.5782
臨淄	-11.5782
觥	-11.5783
徒勞	-11.5783
郊祀	-11.5785
瞬	-11.5785
野鶴	-11.5786
四方之	-11.5786
千餘里	-11.5787
吹嘘	-11.5787
多暇	-11.5788
飛泉	-11.5788
無害	-11.5789
布帛	-11.579
松江	-11.579
日觀	-11.5791
王佐	-11.5791
列侯	-11.5793
休明	-11.5794
五丈	-11.5794
佳氣	-11.5794
青袍	-11.5795
天津	-11.5795
屏營之至	-11.5796
青霄	-11.5796
指麾	-11.58
釋文	-11.58
循環	-11.5801
同平章事	-11.5802
未曾	-11.5802
八字	-11.5803
眼看	-11.5803
出則	-11.5803
望逺	-11.5804
寵辱	-11.5805
出遊	-11.5806
鴻漸	-11.5808
紫霞	-11.581
劉闢	-11.5814
歸舟	-11.5815
之舉	-11.5815
沾衣	-11.5817
得其所	-11.5818
歐公	-11.5819
情性	-11.582
哀哉	-11.5821
勞苦	-11.5822
有成	-11.5824
是爲	-11.5824
江月	-11.5826
太僕	-11.5826
夜宴	-11.5828
三巴	-11.5828
倒景	-11.583
雪夜	-11.5831
絶頂	-11.5831
日長	-11.5832
劉備	-11.5832
之曲	-11.5833
法言	-11.5833
渚宫	-11.5834
少誠	-11.5839
余亦	-11.584
三峯	-11.584
丘山	-11.5841
之宜	-11.5842
未央宫	-11.5844
朝謁	-11.5845
南楚	-11.5845
高適	-11.5847
青陽	-11.5847
博陵崔	-11.5849
征賦	-11.585
理亂	-11.5851
而走	-11.5855
之妻	-11.5855
于上	-11.5856
詔下	-11.5857
謝恩	-11.5858
歲次	-11.586
其口	-11.5862
鄆州	-11.5864
其法	-11.5864
六字	-11.5866
淮南子曰	-11.5874
木落	-11.5875
破賊	-11.5875
湓	-11.5876
聖代	-11.5876
侯伯	-11.588
蒼翠	-11.588
遂得	-11.5881
拾遺記	-11.5883
亦已	-11.5884
後作	-11.5884
蝦	-11.5884
曖	-11.5884
夤	-11.5885
装	-11.5885
皤	-11.5885
鱸魚	-11.5886
駝	-11.5887
為御史	-11.5888
購	-11.5889
木為	-11.5889
緹	-11.5889
山頂	-11.5889
蜂蠆	-11.5889
槽	-11.589
盛名	-11.589
盻	-11.589
潦倒	-11.589
踪	-11.589
捶	-11.589
三月三日	-11.589
黿鼉	-11.5891
􁁊	-11.5891
鋩	-11.5891
沬	-11.5891
釡	-11.5892
鱣	-11.5892
徒有	-11.5892
佯	-11.5893
姹女	-11.5893
繄	-11.5893
檠	-11.5893
覉	-11.5893
尭	-11.5894
滓	-11.5895
青蠅	-11.5895
杜工部	-11.5895
禋	-11.5896
百戰	-11.5897
寄劉	-11.5898
又似	-11.5899
䛕	-11.59
瞥	-11.5901
涕泣	-11.5901
召還	-11.5903
荆蠻	-11.5903
供給	-11.5905
非曰	-11.5905
文采	-11.5906
始至	-11.5908
異日	-11.591
四載	-11.5911
帝王之	-11.5911
食邑	-11.5914
伊川	-11.5914
失意	-11.5914
欲歸	-11.5915
戸部	-11.5916
謝賜	-11.5916
猿聲	-11.5916
良圖	-11.5918
但有	-11.5919
棲遲	-11.5919
南宮	-11.592
進封	-11.5923
物無	-11.5924
邵平	-11.5925
元老	-11.5925
帝命	-11.5928
二詩	-11.5931
感慨	-11.5935
都門	-11.5937
道林	-11.5938
翫月	-11.5938
離羣	-11.5939
此外	-11.594
天授	-11.594
之室	-11.594
復歸	-11.5941
楊州	-11.5941
漢中王	-11.5942
所望	-11.5943
四言	-11.5943
扶持	-11.5943
總戎	-11.5948
清流	-11.5949
無外	-11.5949
東洛	-11.5949
鄙夫	-11.5952
國中	-11.5953
懷抱	-11.5955
〇鄭曰	-11.5956
安州	-11.5956
在眼	-11.5957
千家	-11.5958
之機	-11.5959
有而字	-11.5961
二巻	-11.5962
金馬	-11.5963
主恩	-11.5965
過半	-11.5965
異同	-11.5965
流傳	-11.5966
涪江	-11.5967
一語	-11.5967
異物	-11.5967
雪滿	-11.597
房公	-11.5971
身外	-11.5972
逖	-11.5974
書札	-11.5975
于京師	-11.5976
一歲	-11.5977
親朋	-11.5979
當是大厯元年	-11.5979
盃酒	-11.598
賊中	-11.5983
復以	-11.5984
無令	-11.5985
二水	-11.5986
晦日	-11.5988
漢髙祖	-11.5991
長䇿	-11.5992
終老	-11.5992
至德二載	-11.5993
府城	-11.5995
常在	-11.5996
▁記	-11.5996
鍾山	-11.5996
欲其	-11.5997
璨	-11.5997
張銑註	-11.5997
毘	-11.5997
韝	-11.5998
古寺	-11.5999
雨過	-11.5999
悄	-11.5999
春官	-11.5999
禎卿曰	-11.6001
𤨏	-11.6001
䌫	-11.6002
金紫光禄大夫	-11.6002
黍稷	-11.6002
禰	-11.6002
庵	-11.6003
諠	-11.6003
峩峩	-11.6003
竢	-11.6004
諼	-11.6004
胃	-11.6005
目極	-11.6006
毓	-11.6006
世祖	-11.6007
繹	-11.6009
櫜	-11.6009
輻	-11.6009
𥚑	-11.601
大率	-11.601
蘭臺	-11.6011
元和八年	-11.6011
玆	-11.6012
耄	-11.6013
自非	-11.6014
絜	-11.6014
岱宗	-11.6016
實事	-11.6017
源出	-11.6017
郡中	-11.6019
褒貶	-11.6022
執誼	-11.6023
比肩	-11.6024
荀卿	-11.6028
且復	-11.6028
曾孫	-11.6028
又為	-11.6029
故吏	-11.6029
未已	-11.603
羅衣	-11.6031
取此	-11.6031
誰爲	-11.6034
嵩陽	-11.604
雜言	-11.604
孝思	-11.604
就中	-11.6041
臣伏見	-11.6043
失於	-11.6045
謝靈	-11.6046
則可	-11.6047
追贈	-11.6054
寄言	-11.6055
毛羽	-11.6057
旅人	-11.6058
地志	-11.6059
小園	-11.6059
沉吟	-11.6059
北面	-11.606
道途	-11.6061
儒生	-11.6062
盧龍	-11.6063
長河	-11.6064
大唐	-11.6065
呉興	-11.6066
水國	-11.6066
顔回	-11.6066
大魚	-11.6067
臣子	-11.6069
夢想	-11.6069
洪水	-11.607
辨之	-11.607
樊曰公	-11.6071
語言	-11.6072
刪去	-11.6074
寢疾	-11.6076
潤色	-11.6077
爾時	-11.6078
韋公	-11.6079
梁山	-11.6082
二紀	-11.6082
皇朝	-11.6083
分曹	-11.6084
遭亂	-11.6085
日下	-11.6085
三篇	-11.6086
閽	-11.6087
傾城	-11.609
終難	-11.6091
楊雄	-11.6093
起予	-11.6093
也韓曰	-11.6094
書於	-11.6096
漁人	-11.6096
風土	-11.6097
而返	-11.6098
三事	-11.6098
困窮	-11.6098
之敗	-11.6099
獨宿	-11.61
嗟嗟	-11.6101
景雲	-11.6102
鸞鳳	-11.6105
其辭曰	-11.6106
貞元十二年	-11.6106
嵬	-11.6107
七尺	-11.6107
去來	-11.6109
九流	-11.611
琨	-11.611
行藏	-11.611
公府	-11.6111
永王	-11.6111
凰	-11.6112
魍魎	-11.6112
狸	-11.6113
之序	-11.6114
淘	-11.6115
自殺	-11.6115
蔡琰	-11.6116
寺僧	-11.6116
踊	-11.6117
恍惚	-11.6117
劈	-11.6117
蜿	-11.6118
鉗	-11.6118
清凉	-11.6118
綆	-11.6118
窒	-11.6119
颯颯	-11.612
變而	-11.612
自代狀	-11.612
懾	-11.612
東郡	-11.612
燈前	-11.612
芷	-11.6121
晳	-11.6121
勣	-11.6122
岑參	-11.6122
漢書注	-11.6122
闌干	-11.6122
膠漆	-11.6122
餙	-11.6123
秉燭	-11.6124
摵	-11.6124
岳陽樓	-11.6124
泮	-11.6124
閭閻	-11.6128
大赦	-11.613
元賔	-11.6132
未審	-11.6132
動天	-11.6133
曲直	-11.6136
不省	-11.6137
論道	-11.6137
校本	-11.6138
成按	-11.6138
戮力	-11.6138
六代	-11.614
遷客	-11.614
大都	-11.6141
張掖	-11.6142
手持	-11.6143
衆多	-11.6146
荒凉	-11.6147
梁簡文帝詩	-11.6149
春雪	-11.615
二十一年	-11.6151
穆穆	-11.6151
幸甚	-11.6151
桂管	-11.6152
池邊	-11.6154
裴氏	-11.6155
其土	-11.6157
乆客	-11.6158
心知	-11.6158
人稀	-11.6159
復來	-11.616
感物	-11.616
屋壁	-11.6161
端居	-11.6162
笑之	-11.6163
三司	-11.6164
赤子	-11.6169
也選	-11.6174
果有	-11.6174
望帝	-11.6174
湛湛	-11.6176
地軸	-11.6177
孰謂	-11.6177
而愈	-11.6178
重耳	-11.6178
之貴	-11.6178
元和十	-11.618
開國	-11.6181
之祥	-11.6182
唐文粹	-11.6185
開襟	-11.6186
三千人	-11.6187
瑶草	-11.6187
勸酒	-11.6188
崑山	-11.6189
兼寄	-11.6189
日晚	-11.6191
字元	-11.6192
漢帝	-11.6193
為尚書	-11.6193
神祗	-11.6194
三百篇	-11.6194
行次	-11.6194
莊子曰	-11.6194
之事也	-11.6199
此行	-11.6199
恩波	-11.6205
地僻	-11.6206
萬石	-11.6206
焉今	-11.6207
自取	-11.6207
城隅	-11.6208
孔安國	-11.6208
齊國	-11.6209
事跡	-11.621
江寧	-11.6211
大驚	-11.6211
同宿	-11.6212
鄴中	-11.6213
成人	-11.6215
木石	-11.6216
新居	-11.6218
而西	-11.6219
離心	-11.622
也又云	-11.622
盡在	-11.622
空有	-11.6221
恩榮	-11.6223
清塵	-11.6224
褥	-11.6227
左散騎常侍	-11.6228
以禦	-11.6229
去官	-11.6229
猪	-11.6229
杜鴻漸	-11.623
懌	-11.623
飼	-11.6231
嵒	-11.6231
洙曰謝靈運詩	-11.6231
經略	-11.6231
蓬瀛	-11.6232
菅	-11.6232
罟	-11.6232
窠	-11.6232
槌	-11.6233
鍵	-11.6233
吴王	-11.6235
勾踐	-11.6235
鑰	-11.6236
朱泚	-11.6236
葷	-11.6236
澤潞	-11.6237
一丈	-11.6237
城内	-11.6238
褭	-11.6238
淅	-11.6239
元和七年	-11.6239
黿	-11.624
俄頃	-11.624
蒼鷹	-11.6241
攺	-11.6241
鎮州	-11.6242
滄波	-11.6243
湘潭	-11.6243
相問	-11.6243
珠璣	-11.6244
堕	-11.6244
玉皇	-11.6245
好音	-11.6245
吾亦	-11.6246
長慶三年	-11.6248
山一名	-11.6251
獨歩	-11.6252
塞外	-11.6252
束帶	-11.6253
舊俗	-11.6253
乃云	-11.6254
何似	-11.6255
信然	-11.6255
令尹	-11.6256
歲寒	-11.6256
墓碑	-11.6258
丘壑	-11.6258
雲物	-11.6259
承宗	-11.6259
興盡	-11.6259
大體	-11.6259
遂有	-11.6262
急於	-11.6263
於彼	-11.6263
河伯	-11.6264
吳楚	-11.6267
伯牙	-11.6267
翠㣲	-11.6273
前期	-11.6273
固無	-11.6273
六百	-11.6274
吾觀	-11.6275
俯視	-11.6276
珠簾	-11.6276
未定	-11.6277
賢而	-11.6278
行邁	-11.6278
伐之	-11.6278
衛將軍	-11.6279
老身	-11.628
空林	-11.628
鄠縣	-11.6282
武宗	-11.6283
貢舉	-11.6285
那得	-11.6287
東林寺	-11.6287
絶倫	-11.6288
天心	-11.6288
家本	-11.6291
人寰	-11.6292
方伯	-11.6294
于下	-11.6294
司録	-11.6296
三十三	-11.6297
黄鳥	-11.6297
猶勝	-11.6297
而心	-11.63
躍馬	-11.6301
之費	-11.6302
同異	-11.6302
疾苦	-11.6303
州司户	-11.6304
呼兒	-11.6304
行宫	-11.6307
月華	-11.6308
散騎常侍	-11.6308
一寸	-11.6309
不意	-11.631
性靈	-11.631
無與	-11.631
寄題	-11.6311
亦宜	-11.6311
不拘	-11.6311
醉眠	-11.6311
七發	-11.6312
千尺	-11.6313
愈孫曰	-11.6313
於義	-11.6316
贈我	-11.6317
荅曰	-11.6318
曲也	-11.6319
臣某言	-11.632
重光	-11.632
寄贈	-11.6321
誠可	-11.6321
登臺	-11.6322
懷舊	-11.6322
始為	-11.6324
五巻	-11.6324
所存	-11.6326
之端	-11.6327
殷周	-11.6328
朝發	-11.6329
不已	-11.6332
鮮于	-11.6335
宜其	-11.6336
博陵	-11.6337
經緯	-11.6338
林木	-11.6338
倚天	-11.634
承露	-11.6341
錦水	-11.6342
卧龍	-11.6343
邠州	-11.6344
茯苓	-11.6344
流光	-11.6344
欲殺	-11.6344
西都	-11.6345
蘖	-11.6346
鞋	-11.6346
懴	-11.6346
梭	-11.6347
莫辭	-11.6347
涿	-11.6348
醺	-11.6348
睫	-11.6348
鄖	-11.635
元和十五年	-11.635
隧	-11.6351
蕤	-11.6352
周南	-11.6353
痺	-11.6353
諶	-11.6354
桑柘	-11.6354
豺	-11.6354
不存	-11.6354
乙酉	-11.6354
小人之	-11.6354
狼狽	-11.6354
緗	-11.6354
謚曰	-11.6354
集賢院	-11.6355
元和十一年	-11.6355
喑	-11.6355
朝士	-11.6355
鰲	-11.6356
瑱	-11.6357
夜光	-11.6357
喟然	-11.6357
則天下	-11.6357
襄子	-11.6357
山行	-11.6359
梁宋	-11.636
巨源	-11.636
鷲	-11.6361
懵	-11.6362
神化	-11.6362
嘉祐	-11.6363
所向	-11.6364
後序	-11.6365
又加	-11.6366
年若干	-11.6367
孟氏	-11.6369
廷尉	-11.6369
深林	-11.6369
表云	-11.6371
逺去	-11.6371
中路	-11.6372
公羊傳	-11.6373
專城	-11.6375
不滅	-11.6375
王承宗	-11.6375
二十四日	-11.6376
秋冬	-11.6379
其山	-11.638
自以為	-11.6381
石笋	-11.6384
杜田	-11.6384
知命	-11.6387
遼海	-11.6389
授官	-11.6389
多言	-11.6392
婺	-11.6392
松樹	-11.6395
賦序	-11.6396
明發	-11.64
䘮亂	-11.6401
雨聲	-11.6401
安敢	-11.6401
紫陽	-11.6402
西伯	-11.6402
夢魂	-11.6403
從叔	-11.6403
不詳	-11.6403
聨句	-11.6403
世尊	-11.6406
水聲	-11.6411
悉以	-11.6411
大敗	-11.6413
贈王	-11.6413
寺碑	-11.6413
鄠	-11.6414
竹根	-11.6414
注意	-11.6416
介子	-11.6417
登壇	-11.6417
不我	-11.6419
下民	-11.642
於市	-11.642
雖多	-11.6422
千峯	-11.6423
戰于	-11.6425
此所以	-11.6429
之族	-11.6433
項王	-11.6433
春盡	-11.6434
篇中	-11.6435
紀事	-11.6435
屈指	-11.6438
實在	-11.6438
華表	-11.6439
服食	-11.644
牛渚	-11.6441
千嵗	-11.6442
驥子	-11.6443
盡力	-11.6446
吾欲	-11.6448
化成	-11.6448
尺素	-11.645
六人	-11.6451
漢朝	-11.6451
月十四日	-11.6452
我生	-11.6453
水名	-11.6454
清波	-11.6454
雨夜	-11.6458
樂府詩集	-11.6459
不然則	-11.6459
首領	-11.646
述作	-11.6461
煙火	-11.6462
朝議大夫	-11.6464
豸	-11.6466
恊律	-11.6468
榦	-11.6468
清談	-11.6469
文彩	-11.6469
璠	-11.647
洙曰左傳	-11.647
迪	-11.6471
鮒	-11.6472
皁	-11.6472
空谷	-11.6473
騘馬	-11.6473
著作郎	-11.6474
多年	-11.6474
糞土	-11.6475
某年	-11.6475
開花	-11.6475
椿	-11.6475
苑中	-11.6476
媪	-11.6476
襲羙	-11.6477
九族	-11.6477
以罪	-11.6477
縟	-11.6478
殛	-11.6478
曾不	-11.6478
八人	-11.6479
吻	-11.6479
相次	-11.648
真誥	-11.6481
丹梯	-11.6481
赤心	-11.6481
妥	-11.6482
律師	-11.6482
犬羊	-11.6483
崑崙之	-11.6483
所進	-11.6483
大府	-11.6483
鑚	-11.6484
沐浴	-11.6484
七哀	-11.6485
忽聞	-11.6485
道書	-11.6485
瞻望	-11.6486
公門	-11.6487
支使	-11.6488
敢問	-11.6489
才能	-11.649
宗武	-11.6491
酒熟	-11.6491
安樂	-11.6493
涇原	-11.6494
勤苦	-11.6497
之分	-11.6497
無聊	-11.6498
倚杖	-11.6499
劉表	-11.6504
山鳥	-11.6506
爵位	-11.6509
奏議	-11.6509
也前漢	-11.651
鐘鼓	-11.651
年十二月	-11.651
科第	-11.6511
謝病	-11.6514
三嵗	-11.6514
道術	-11.6514
州大都督	-11.6515
謳歌	-11.6517
風烟	-11.652
大司馬	-11.6521
足下之	-11.6522
憲章	-11.6522
已成	-11.6524
之規	-11.6526
三代之	-11.6528
曽不	-11.6529
作此詩	-11.6535
凡百	-11.6535
别賦	-11.6536
何益	-11.6536
巳矣	-11.6537
難為	-11.6539
公既	-11.654
閣道	-11.6541
英靈	-11.6542
乾元二	-11.6543
聽之	-11.6545
可證	-11.6545
反側	-11.6547
猶能	-11.6548
乎今	-11.655
欲問	-11.6551
三歲	-11.6553
無根	-11.6553
鮫	-11.6555
師子	-11.6555
旌斾	-11.6556
奮飛	-11.6556
臣伏以	-11.6557
任城	-11.6557
宋之問	-11.6559
召公	-11.6559
又東	-11.6561
禍亂	-11.6563
九章	-11.6563
南陌	-11.6572
此處	-11.6574
魯國	-11.6576
惲	-11.6577
孝文	-11.6578
流星	-11.6578
糶	-11.6579
手中	-11.658
諸天	-11.658
景福	-11.6581
秋雲	-11.6581
氣清	-11.6582
親賢	-11.6583
賻	-11.6585
嘔	-11.6585
吕向註	-11.6585
茱茰	-11.6586
慈恩寺	-11.6586
闔閭	-11.6586
舷	-11.6587
仲武	-11.6587
已死	-11.6588
漢紀	-11.6588
嶢	-11.6589
頓挫	-11.659
龍興寺	-11.659
紘	-11.659
辛丑	-11.659
歌送	-11.6591
乙亥	-11.6592
暠	-11.6592
孟東野	-11.6593
器也	-11.6593
▁鮑照詩	-11.6593
劉伶	-11.6593
籥	-11.6593
剔	-11.6593
袁紹	-11.6594
梁權道	-11.6594
柝	-11.6595
僮僕	-11.6596
可守	-11.6596
何物	-11.6598
漢宣帝	-11.6598
玉樓	-11.6598
金章	-11.6598
漁翁	-11.6598
張景陽	-11.66
实	-11.6601
張建封	-11.6602
唐堯	-11.6602
合沓	-11.6603
韓曰謂	-11.6604
天姥	-11.6604
蘇軾曰	-11.6604
承命	-11.6605
皆從	-11.6606
榷	-11.6606
焉知	-11.6606
芝草	-11.6608
謹具	-11.6608
酒肉	-11.6609
伏羲	-11.6609
逢人	-11.661
丹心	-11.6611
還鄉	-11.6612
相承	-11.6613
每至	-11.6613
殺其	-11.6613
李中丞	-11.6614
其民	-11.6615
南遷	-11.6615
悲傷	-11.6619
開緘	-11.6622
故林	-11.6623
亭記	-11.6625
聊以	-11.6626
無之字	-11.6626
官曹	-11.6628
一則	-11.6628
吏人	-11.6629
同列	-11.663
夢見	-11.6632
討賊	-11.6635
懷光	-11.6635
表請	-11.6635
金莖	-11.6636
之迹	-11.6637
返照	-11.6637
余以	-11.6638
四十餘	-11.6641
忘憂	-11.6643
故云云	-11.6643
不要	-11.6645
誠信	-11.6645
右臣	-11.6646
外郎	-11.6647
門下省	-11.6651
兩鬢	-11.6651
南來	-11.6654
老馬	-11.6656
陳謝	-11.6657
舊制	-11.6657
荷葉	-11.6658
叙事	-11.666
懐抱	-11.666
龍宫	-11.666
無恙	-11.666
衰年	-11.6661
公羊	-11.6661
殘春	-11.6662
才力	-11.6662
▁庾信詩	-11.6664
不減	-11.6666
無辜	-11.6667
擇木	-11.6668
一條	-11.667
碧草	-11.6671
且欲	-11.6672
嘗謂	-11.6673
孰知	-11.6673
蕭然	-11.6673
修文	-11.6674
思慮	-11.6675
鄭谷	-11.6677
之宗	-11.6678
赤松	-11.6678
此詩云	-11.6679
古詩云	-11.668
應接	-11.668
誅之	-11.6683
本皆作	-11.6684
光武紀	-11.6687
國士	-11.6687
信州	-11.6689
索居	-11.6689
横行	-11.6689
塵外	-11.669
臣請	-11.6691
吕望	-11.6692
黄屋	-11.6698
能文	-11.6699
寞	-11.6702
髙義	-11.6703
終焉	-11.6705
墖	-11.6706
莞	-11.6707
征西	-11.6708
巴州	-11.6709
河南令	-11.6709
隋煬帝	-11.671
第八	-11.6711
于世	-11.6711
糲	-11.6711
史朝義	-11.6711
央	-11.6712
崛	-11.6712
鱷魚	-11.6712
經時	-11.6713
瀍	-11.6713
㝎	-11.6713
先覺	-11.6714
何敢	-11.6714
詠歌	-11.6714
協律	-11.6714
苾	-11.6715
戊申	-11.6715
逢吉	-11.6716
規矩	-11.6717
羹	-11.6718
空城	-11.6718
三秋	-11.6719
無妨	-11.6719
州諸軍事守	-11.6719
髙士	-11.672
瀰	-11.672
峴首	-11.6721
𣏌	-11.6721
枚乗	-11.6724
氤氲	-11.6724
白起	-11.6724
王涯	-11.6725
𧖟	-11.6725
蜀道難	-11.6726
文武之	-11.6726
三十八	-11.6728
神州	-11.6729
須知	-11.673
花前	-11.6731
年號	-11.6731
重複	-11.6732
餘年	-11.6734
致身	-11.6734
通州	-11.6734
執法	-11.6734
淮夷	-11.6737
詔令	-11.6737
雙雙	-11.6738
飛鳴	-11.6739
顔延年詩	-11.6739
遂令	-11.6743
士林	-11.6743
衆鳥	-11.6743
牛斗	-11.6745
梅雨	-11.6746
此夜	-11.6748
海月	-11.6749
晚節	-11.675
之厚	-11.675
甲申	-11.6753
少陽	-11.6753
臨事	-11.6754
宦者	-11.6758
登龍	-11.6759
貧病	-11.676
野田	-11.6761
敢言	-11.6762
飲水	-11.6763
賀蘭	-11.6763
董生	-11.6765
青楓	-11.6767
越人	-11.6768
福建	-11.6769
追思	-11.6772
寄楊	-11.6773
三十四	-11.6775
爲客	-11.6775
禮法	-11.6775
能詩	-11.6777
東家	-11.6777
宫女	-11.6777
以象	-11.6778
之報	-11.6779
廣成	-11.6779
徵君	-11.678
崔羣	-11.6781
一變	-11.6784
仙傳	-11.6786
不果	-11.6787
以救	-11.6788
胸中	-11.679
仙山	-11.6794
道家	-11.6796
不喜	-11.6797
滿目	-11.6797
始覺	-11.6797
倉曹	-11.6799
苦吟	-11.6799
澗水	-11.6801
國名	-11.6802
王化	-11.6802
日入	-11.6804
前古	-11.681
繫於	-11.6811
三伏	-11.6811
不墜	-11.6812
是已	-11.6813
凡人	-11.6813
覆載	-11.6814
下峽	-11.6815
乙未	-11.6817
季布	-11.6817
但云	-11.682
之苦	-11.6821
華屋	-11.6822
朕以	-11.6822
無路	-11.6822
丹誠	-11.6826
迎風	-11.6829
永夜	-11.6829
重門	-11.6829
𣺌	-11.683
實為	-11.683
玳瑁	-11.6831
琦	-11.6832
言念	-11.6832
鶴曰按	-11.6832
汭	-11.6832
煜	-11.6833
糜	-11.6834
悞	-11.6834
荃	-11.6836
罥	-11.6837
腹中	-11.6837
屈曲	-11.6837
惟神	-11.6837
顰	-11.6838
縲	-11.6838
都團練	-11.6839
自愛	-11.6839
鶴注當是大厯	-11.6841
何幸	-11.6841
數十人	-11.6841
坌	-11.6841
禳	-11.6842
帷幄	-11.6842
仇池	-11.6842
身輕	-11.6843
亦通	-11.6843
華嚴經	-11.6844
珎	-11.6844
晡	-11.6844
酒杯	-11.6845
亾	-11.6845
百篇	-11.6848
有序	-11.6848
國門	-11.6849
涘	-11.6851
李光弼	-11.6851
自兹	-11.6852
獲麟	-11.6852
結構	-11.6852
安期	-11.6853
黜陟	-11.6853
清泠	-11.6854
尚書右丞	-11.6856
殘花	-11.6858
以諷	-11.6858
英華有	-11.686
告于	-11.686
後嗣	-11.6861
枕席	-11.6861
農事	-11.6862
户牖	-11.6865
重輕	-11.6865
甲午	-11.6866
憶舊	-11.6866
法令	-11.6867
公輔	-11.6867
往年	-11.6867
折腰	-11.6868
傷神	-11.6868
南行	-11.6869
十二首	-11.687
風伯	-11.6871
先生曰	-11.6873
地形	-11.6873
顔氏	-11.6874
宗臣	-11.6877
誰肯	-11.688
交州	-11.688
怒而	-11.688
重寄	-11.6881
八十里	-11.6881
兵甲	-11.6882
昭義	-11.6882
白駒	-11.6883
屈宋	-11.6885
事須	-11.6885
幾多	-11.6885
龍象	-11.6886
用力	-11.6887
積石	-11.6888
之工	-11.6888
潞州	-11.6891
豈易	-11.6892
柱史	-11.6894
濟世	-11.6896
仙翁	-11.6899
論衡	-11.69
舟檝	-11.6901
祖諱	-11.6902
李善注	-11.6903
夫妻	-11.6904
而名	-11.6904
長鯨	-11.6906
月光	-11.6906
長揖	-11.6908
無所用	-11.6911
黄葉	-11.6911
和州	-11.6913
不失其	-11.6919
晋書	-11.6921
公綽	-11.6922
送行	-11.6925
鍾陵	-11.6927
九卿	-11.6929
鴻名	-11.6931
難忘	-11.6931
録云	-11.6932
異乎	-11.6933
驪龍	-11.6935
江口	-11.6935
曹溪	-11.6935
伏念	-11.6935
山海	-11.6937
前漢書	-11.6937
合歡	-11.6937
忽驚	-11.6937
楊公	-11.6938
周圍	-11.6943
道里	-11.6945
晚年	-11.6945
松聲	-11.6946
百步	-11.6946
祖父	-11.6948
臨池	-11.6948
百餘人	-11.6948
此序	-11.6949
方輿勝覽	-11.695
舟人	-11.695
尚書省	-11.6951
玉墀	-11.6952
卞	-11.6952
扵此	-11.6952
能得	-11.6954
所造	-11.6956
上䟽	-11.6956
近侍	-11.6956
張載	-11.6956
先師	-11.6957
熒惑	-11.6958
水宿	-11.6959
臧玠	-11.6959
燦	-11.6959
居處	-11.6959
三十日	-11.696
如淳曰	-11.6962
苫	-11.6963
輕舟	-11.6965
客星	-11.6965
睇	-11.6965
郎署	-11.6965
筮仕	-11.6966
寰區	-11.6966
誑	-11.6967
脛	-11.6968
喜氣	-11.6968
劘	-11.6971
皇恩	-11.6972
翾	-11.6973
顧謂	-11.6974
流夜郎	-11.6975
李林甫	-11.6976
名之曰	-11.6976
舊業	-11.6977
昭陽	-11.6978
友朋	-11.6981
從兹	-11.6982
䖏士	-11.6984
知章	-11.6984
博學	-11.6984
抑揚	-11.6985
藩鎮	-11.6985
寄友人	-11.6985
羣盜	-11.6986
柴荆	-11.6988
青㝠	-11.6992
生男	-11.6993
江潭	-11.6993
鮌	-11.6994
蕩子	-11.6994
希夷	-11.6995
死後	-11.6995
秋興賦	-11.6996
氣味	-11.6998
一隅	-11.6998
金閨	-11.6999
微風	-11.7001
成章	-11.7001
般若	-11.7002
自矜	-11.7002
杳冥	-11.7002
自保	-11.7004
依稀	-11.7006
天籟	-11.7008
一株	-11.701
泗州	-11.7011
大哉	-11.7012
金剛	-11.7012
招隱	-11.7014
氣色	-11.7016
兩川	-11.7018
清泉	-11.7018
請君	-11.7025
終年	-11.7026
卒于	-11.7026
欲令	-11.7026
路岐	-11.7031
風浪	-11.7033
大禮	-11.7033
所感	-11.7035
洙曰謝靈運	-11.7036
鮮明	-11.7037
傷其	-11.704
大厯四年	-11.7041
勤王	-11.7043
也或曰	-11.7044
方說	-11.7044
霽雲	-11.7045
吉日	-11.7048
何獨	-11.705
緑楊	-11.7051
發兵	-11.7051
向日	-11.7052
車輪	-11.7052
臣伏	-11.7053
仙掌	-11.7054
曲盡	-11.7056
江陵府	-11.7056
詩篇	-11.7057
寰宇	-11.7057
竺	-11.706
之虞	-11.7061
年華	-11.7062
滻	-11.7062
謫居	-11.7063
次公	-11.7064
軒車	-11.7067
遭逢	-11.7068
故地	-11.7069
對雨	-11.7071
含章	-11.7071
中州	-11.7072
生理	-11.7072
濩	-11.7078
賃	-11.7081
龐	-11.7081
畏人	-11.7082
逍遙	-11.7083
見二巻註	-11.7083
不憚	-11.7084
山南東道	-11.7084
昌裔	-11.7084
誰道	-11.7085
笮	-11.7085
華陽國志	-11.7085
㐲	-11.7085
緊	-11.7087
蜺	-11.7088
茟	-11.7088
兀兀	-11.7089
史臣	-11.7089
凜	-11.7089
鉉	-11.7089
邴	-11.7089
公車	-11.709
艫	-11.709
苴	-11.709
勝地	-11.7091
昶	-11.7091
蟹	-11.7091
柟	-11.7092
蕩漾	-11.7093
綿綿	-11.7094
𬒮	-11.7094
鵞	-11.7095
麒麟閣	-11.7097
䲭	-11.7097
耘	-11.7097
魚鼈	-11.7098
貞元二十一年	-11.7098
餘如故	-11.7098
歩兵	-11.71
柳子厚	-11.71
無計	-11.7102
毛萇	-11.7102
韓詩	-11.7105
將吏	-11.7105
碑誌	-11.7106
惟恐	-11.7106
辛夷	-11.7108
頭陀	-11.711
賢聖	-11.711
孟康曰	-11.711
達於	-11.7111
車轍	-11.7112
數百人	-11.7113
貞元十八年	-11.7114
月十七日	-11.7115
日巳	-11.7115
野寺	-11.7117
壬子	-11.7117
非其人	-11.7119
先主廟	-11.7119
失道	-11.712
容色	-11.7122
而言之	-11.7122
陸雲	-11.7124
天后	-11.7126
居守	-11.7127
三界	-11.7129
挂席	-11.713
敢望	-11.7133
送裴	-11.7133
老臣	-11.7134
長孫	-11.7136
歴代	-11.7137
而我	-11.714
之可也	-11.7141
三本同	-11.7146
十歩	-11.7147
遺事	-11.7148
二三子	-11.715
正義曰	-11.7151
潁水	-11.7151
漢志	-11.7152
萬代	-11.7152
還應	-11.7154
人呼	-11.7155
赤色	-11.7156
並同	-11.7156
亡友	-11.7157
二里	-11.7158
山上有	-11.7158
急難	-11.7161
殿上	-11.7164
齊侯	-11.7164
哀樂	-11.7165
之歡	-11.7166
漢文	-11.7167
滔天	-11.7169
盈尺	-11.7169
名教	-11.7169
天皇	-11.717
後丗	-11.7171
而不言	-11.7174
大禹	-11.7174
二縣	-11.7175
疑當	-11.7177
已久	-11.7178
之兆	-11.7178
東亭	-11.718
華葢	-11.7181
經史	-11.7182
丘陵	-11.7184
天府	-11.7187
坐看	-11.7187
冬夜	-11.7188
兵討	-11.7188
萬頃	-11.7189
幾度	-11.7189
領軍	-11.719
之臺	-11.719
晨光	-11.7194
剌	-11.7195
人字	-11.7197
西掖	-11.7205
羽獵賦	-11.7205
未忍	-11.7207
驃	-11.7207
藝文類聚	-11.7208
濛濛	-11.7208
高樓	-11.7208
其俗	-11.7209
賈島	-11.721
鴟夷	-11.721
三丈	-11.7211
筏	-11.7212
司命	-11.7213
槳	-11.7214
天寳十四載	-11.7214
鶡	-11.7214
机	-11.7215
咸池	-11.7216
五百家注昌黎文集巻	-11.7216
躊躇	-11.7216
壁立	-11.7217
艘	-11.7217
㢮	-11.7218
不淺	-11.7218
白頭翁	-11.7218
纎纎	-11.7218
出關	-11.7218
千五百	-11.7218
其精	-11.7219
猖狂	-11.7219
礱	-11.7219
九月九日	-11.722
兢惶	-11.722
慇懃	-11.722
列仙	-11.722
文賦	-11.722
櫳	-11.7221
咆	-11.7221
官舍	-11.7222
剡溪	-11.7223
畹	-11.7223
踴	-11.7224
焯	-11.7224
京都	-11.7224
踔	-11.7225
勦	-11.7225
百靈	-11.7226
蒨	-11.7226
藥餌	-11.7226
宴集	-11.7227
黙然	-11.7227
蓬壺	-11.7228
儂	-11.7228
李錡	-11.723
雲根	-11.723
不擇	-11.723
天寳元年	-11.7231
深谷	-11.7233
問焉	-11.7234
卞和	-11.7234
山泉	-11.7234
陶令	-11.7235
無際	-11.7235
荒蕪	-11.7236
數尺	-11.7237
人民	-11.7238
上人院	-11.7239
異時	-11.7241
國家之	-11.7241
東周	-11.7243
上巳	-11.7245
流霞	-11.7247
亭在	-11.7248
端倪	-11.7249
儒行	-11.7249
天光	-11.7252
香火	-11.7253
文史	-11.7253
踞	-11.7253
教人	-11.7255
應笑	-11.7256
不義	-11.7257
保其	-11.7258
帝座	-11.7258
閬風	-11.7261
以孝	-11.7262
合符	-11.7264
乃止	-11.7265
秋晚	-11.7265
必當	-11.7267
仲春	-11.7272
論事	-11.7272
平蕪	-11.7275
次子	-11.7276
東下	-11.7276
天寳初	-11.7279
落月	-11.7279
延英	-11.7281
師友	-11.7285
櫻	-11.7285
聖祖	-11.7287
香草	-11.7292
寵榮	-11.7294
夫君	-11.7294
江路	-11.7296
自昔	-11.7296
異代	-11.7298
華陰	-11.7299
薨於	-11.73
斯在	-11.7303
相催	-11.7303
深矣	-11.7304
太𤣥	-11.7305
清露	-11.7305
宋州	-11.7305
揚雄傳	-11.7307
諺	-11.731
楚宫	-11.731
直方	-11.7311
四隣	-11.7314
今詩云	-11.7315
形似	-11.7317
諸君	-11.7317
終不能	-11.7317
殊俗	-11.7318
章華	-11.7321
盡室	-11.7323
落照	-11.7324
春秋時	-11.7325
楓樹	-11.7326
巳成	-11.7326
秦中	-11.7327
白鬚	-11.7327
盡忠	-11.7329
感戴	-11.733
四科	-11.733
麝	-11.7336
紵	-11.7336
縣官	-11.7339
就加	-11.734
聶	-11.734
蝎	-11.7341
郭璞江賦	-11.7341
北山移文	-11.7341
押衙	-11.7341
何因	-11.7342
蟬聲	-11.7342
炅	-11.7342
琅邪	-11.7342
赩	-11.7343
法苑珠林	-11.7343
祜	-11.7343
曠野	-11.7343
如練	-11.7344
尚父	-11.7344
𣲖	-11.7344
龍驤	-11.7345
蒞	-11.7345
感歎	-11.7345
鞞	-11.7345
瑗	-11.7345
髩	-11.7346
姨	-11.7348
耨	-11.7348
頎	-11.7348
疹	-11.7348
㓙	-11.7348
燿	-11.7349
恧	-11.735
友善	-11.735
詁	-11.735
壬申	-11.735
諛	-11.7352
噎	-11.7352
喧喧	-11.7352
蹀	-11.7353
顧元緯本	-11.7353
玅	-11.7354
維摩詰經	-11.7354
江浦	-11.7354
沲	-11.7354
紫陌	-11.7356
東都賦	-11.7357
慶緒	-11.7357
松筠	-11.7358
不早	-11.7359
坐見	-11.7362
今宵	-11.7363
不得意	-11.7363
招提	-11.7365
鬢毛	-11.7365
當是時	-11.7365
浮萍	-11.7367
李師道	-11.7368
萬巻	-11.7368
今陛下	-11.7368
施州	-11.737
高帝	-11.737
健兒	-11.7371
呉越	-11.7372
折衝	-11.7373
師徒	-11.7373
郡城	-11.7373
逢君	-11.7374
雙旌	-11.7374
丹穴	-11.7374
癸未	-11.7375
竹帛	-11.7375
丈餘	-11.7375
赴闕	-11.7375
何苦	-11.7376
虎牙	-11.7377
此曲	-11.7379
墓銘	-11.7379
飲啄	-11.7379
難盡	-11.7379
在秦州	-11.7381
韓魏	-11.7382
内則	-11.7382
一絶	-11.7383
南康	-11.7387
百舌	-11.7388
可稱	-11.7388
口中	-11.7388
優詔	-11.7392
下詔	-11.7396
貞元十六年	-11.7397
〇趙曰言	-11.7399
海門	-11.74
八座	-11.74
之鄉	-11.7401
進止	-11.7402
揚名	-11.7405
陳力	-11.741
裴公	-11.741
蒼天	-11.7412
靈芝	-11.7412
橋上	-11.7413
可致	-11.7413
自足	-11.7413
在何處	-11.7415
容州	-11.7415
月支	-11.7415
平沙	-11.7415
謀猷	-11.7417
六藝	-11.7418
也楚辭	-11.7418
飄風	-11.7422
建業	-11.7423
何求	-11.7424
君墓誌	-11.7426
門内	-11.7428
衆星	-11.743
關河	-11.7432
浮名	-11.7432
書堂	-11.7433
濯錦	-11.7437
淚滿	-11.7438
執政	-11.7441
漢江	-11.7443
致祭	-11.7447
重泉	-11.7447
恩光	-11.7448
未解	-11.7449
四尺	-11.7449
自致	-11.7449
萬歲	-11.7449
起舞	-11.745
軍節度	-11.7451
河南道	-11.7452
羙人	-11.7455
周孔	-11.7458
隴西公	-11.7459
皇州	-11.7462
大川	-11.7462
神器	-11.7463
不可復	-11.7463
後集	-11.7463
段各八句	-11.7465
奉表	-11.7465
信宿	-11.7467
阮瑀	-11.7469
李周翰註	-11.7469
箔	-11.747
范雲	-11.747
霑衣	-11.7471
噉	-11.7472
鑱	-11.7473
兠	-11.7473
霍山	-11.7473
鏘鏘	-11.7474
邏	-11.7475
到處	-11.7475
綖	-11.7475
下情無任	-11.7475
裒	-11.7476
掎	-11.7476
刁斗	-11.7476
所願	-11.7476
小雅	-11.7476
食貨志	-11.7476
燋	-11.7476
俻	-11.7478
痾	-11.7479
騏驎	-11.7479
肩輿	-11.7479
爕	-11.7479
鴻臚	-11.7479
服䖍	-11.748
盧諶	-11.7481
敬亭	-11.7482
㽞	-11.7482
下方有	-11.7482
遡	-11.7482
高堂	-11.7483
遨遊	-11.7483
棄捐	-11.7484
鴆	-11.7484
曬	-11.7485
白色	-11.7485
儷	-11.7485
三十一	-11.7485
此説	-11.7487
世稱	-11.7487
紊	-11.7487
詞客	-11.7487
月餘	-11.7488
旄頭	-11.7488
擠	-11.7488
㓛	-11.7489
阮咸	-11.7489
奪其	-11.749
冬夏	-11.7491
郫	-11.7491
埃塵	-11.7492
忽如	-11.7492
丘墟	-11.7492
千尋	-11.7492
躬耕	-11.7494
百二十	-11.7494
見訪	-11.7494
蹤跡	-11.7495
凡四	-11.7495
招討	-11.7495
孰與	-11.7495
於丗	-11.7496
客子	-11.7497
百日	-11.7499
詩小雅	-11.7499
中郎將	-11.7499
三蜀	-11.75
右衛	-11.75
髙僧	-11.75
梅福	-11.7502
終軍	-11.7502
連理	-11.7503
發明	-11.7503
禹湯	-11.7504
未休	-11.7505
日益	-11.7506
髙唐賦	-11.7507
閣校	-11.7508
送盧	-11.7511
落魄	-11.7514
列傳	-11.7514
帝怒	-11.7514
悵然	-11.7515
兩岸	-11.7516
三寸	-11.7516
夷齊	-11.7517
杭同	-11.7519
迎春	-11.752
公時為	-11.752
節度判官	-11.7523
飛鴻	-11.7523
君子不	-11.7524
苦節	-11.7525
字當作	-11.7525
二物	-11.7525
鳯池	-11.7525
今之人	-11.7527
伏蒙	-11.7527
清都	-11.7527
延夀	-11.7528
縉雲	-11.7528
何許	-11.753
隴山	-11.7531
獨步	-11.7532
大喜	-11.7533
一卷	-11.7533
十二句	-11.7536
少留	-11.7538
吾嘗	-11.754
匹馬	-11.7541
離居	-11.7542
錦里	-11.7545
之子也	-11.7545
皇王	-11.7546
乗馬	-11.7547
萬物之	-11.7547
酣歌	-11.7547
待罪	-11.7548
按唐書	-11.7549
儀禮	-11.755
杜云	-11.7551
俱見	-11.7552
陜西	-11.7553
曰朕	-11.7557
皆因	-11.7557
是邦	-11.7561
比屋	-11.7563
翰苑	-11.7564
不欺	-11.7568
李賀	-11.7569
衰疾	-11.7571
秋景	-11.7572
浩歌	-11.7573
唯應	-11.7577
收京	-11.7578
之瑞	-11.7579
仲冬	-11.7581
漢光武	-11.7581
文王之	-11.7582
東向	-11.7582
寄語	-11.7585
朝衣	-11.7589
炎天	-11.76
寄崔	-11.76
㑹面	-11.7601
蘇武詩	-11.7601
令節	-11.7601
幷	-11.7603
劉良註	-11.7603
月二十五日	-11.7603
牛頭	-11.7604
沗	-11.7607
廨	-11.7607
渼陂	-11.7609
蕪城賦	-11.7609
匈	-11.7609
酸辛	-11.761
烜	-11.761
唯恐	-11.7611
蕘	-11.7612
天竺寺	-11.7612
郭隗	-11.7612
寒露	-11.7612
華軒	-11.7612
狐狸	-11.7612
締	-11.7612
肢	-11.7613
埏	-11.7614
盱	-11.7615
桑麻	-11.7615
絢	-11.7615
一麾	-11.7615
褊	-11.7616
䌓	-11.7618
徯	-11.7618
尚書左丞	-11.7618
苔蘚	-11.7618
職事	-11.7619
峘	-11.7619
槊	-11.762
樛	-11.7621
之䇿	-11.7622
彞	-11.7622
塗炭	-11.7623
周瑜	-11.7626
年五月	-11.7626
嶺外	-11.7627
韓文公	-11.7628
敗績	-11.7629
成都尹	-11.7629
四岳	-11.7629
章章	-11.763
敬祭	-11.7631
靡靡	-11.7631
飄泊	-11.7632
固非	-11.7633
鴻雁	-11.7637
百官志	-11.7637
或疑	-11.7638
欣欣	-11.7638
為害	-11.764
隠於	-11.7641
恩深	-11.7643
痛飲	-11.7649
字或無	-11.765
歌吹	-11.7656
明月峽	-11.7656
逸氣	-11.7659
左相	-11.7659
澗底	-11.7659
其體	-11.766
張說	-11.7661
珠履	-11.7661
南湖	-11.7662
臣某言臣	-11.7662
八千	-11.7662
水東流	-11.7663
朝覲	-11.7663
碧山	-11.7663
圖南	-11.7664
方朔	-11.7664
林壑	-11.7667
太真	-11.7667
昔我	-11.7667
郡國志	-11.7668
薄命	-11.7669
某日	-11.7669
朱衣	-11.767
竹箭	-11.7671
徃事	-11.7672
云退之	-11.7673
制授	-11.7673
交錯	-11.7673
慕容	-11.7674
遭時	-11.7676
昌言	-11.7677
死灰	-11.7677
累日	-11.7679
三秦	-11.7682
金帛	-11.7683
省郎	-11.7687
髙齋	-11.7688
永懷	-11.7689
按舊史	-11.7691
莫知其	-11.7692
名譽	-11.7693
入仕	-11.7693
昔聞	-11.7694
手把	-11.7694
仭	-11.7695
虚名	-11.7696
東臯	-11.7696
關東	-11.7697
半年	-11.7698
言之也	-11.7698
至死	-11.7699
匡廬	-11.77
仲卿	-11.7701
外孫	-11.7702
五絃	-11.7705
合浦	-11.7705
金屋	-11.7708
以至於	-11.7708
戰士	-11.7708
溟渤	-11.771
氣候	-11.7711
客從	-11.7711
顔延之	-11.7716
客舎	-11.7716
能致	-11.7717
成德	-11.7718
為韻	-11.7719
天性	-11.7725
形神	-11.7728
亦嘗	-11.7732
仰望	-11.7733
生徒	-11.7733
虚無	-11.7733
八方	-11.7734
杜田補遺	-11.7735
哮	-11.7735
也周禮	-11.7738
㳒	-11.7739
爲誰	-11.7739
儗	-11.774
徠	-11.774
嫖姚	-11.774
中散大夫	-11.7741
荷鋤	-11.7741
靴	-11.7741
臣恐	-11.7742
吏民	-11.7743
旐	-11.7743
石勒	-11.7743
厚薄	-11.7744
揷	-11.7744
論兵	-11.7744
邛	-11.7744
盧仝	-11.7744
瀟灑	-11.7745
謐	-11.7746
耒耜	-11.7747
周宣	-11.7747
李夫人	-11.7747
屣	-11.7748
悛	-11.7748
廣德	-11.7748
道場	-11.7748
施于	-11.7749
嘉禾	-11.7749
迢逓	-11.7749
鸕鷀	-11.7749
陳後主	-11.7749
片片	-11.775
皇甫湜	-11.775
慘慘	-11.775
鄂岳	-11.7751
跣	-11.7751
潺潺	-11.7751
瘴癘	-11.7751
肺肝	-11.7751
裊	-11.7751
訶	-11.7751
鬲	-11.7752
趙郡李	-11.7753
以給	-11.7753
粛	-11.7754
某年月日	-11.7755
僂	-11.7755
規模	-11.7755
玦	-11.7755
睛	-11.7756
蝦蟇	-11.7756
垤	-11.7757
紿	-11.7757
一體	-11.7759
沈佺期詩	-11.7759
吾心	-11.7759
解嘲	-11.776
偁	-11.776
舊名	-11.776
見上巻	-11.7765
鑿井	-11.7765
徐泗	-11.7766
騰騰	-11.7766
汲引	-11.7769
休命	-11.777
校理	-11.777
玉階	-11.7772
者莫不	-11.7772
南溟	-11.7774
王戎	-11.7775
廬江	-11.7775
閑人	-11.7775
握手	-11.7777
常情	-11.7777
所以爲	-11.7778
又按	-11.7781
博雅	-11.7782
武都	-11.7783
出羣	-11.7784
字仲	-11.7785
少陵詩	-11.7786
始生	-11.779
獨孤及	-11.7791
未全	-11.7792
聊自	-11.7796
鶯啼	-11.7797
府君諱	-11.7798
王庭	-11.7798
巨靈	-11.7798
月窟	-11.7801
窮年	-11.7802
也嗚呼	-11.7802
飽食	-11.7803
寓直	-11.7804
考異	-11.7805
無一事	-11.7805
要害	-11.7805
美玉	-11.7807
舍弟	-11.7807
▁世説	-11.7807
量力	-11.7808
退居	-11.7808
晚晴	-11.7808
華嶽	-11.7808
秋八月	-11.7811
因思	-11.7812
僖公	-11.7817
當是大厯二年	-11.7818
寒空	-11.7818
賢王	-11.7818
嘉名	-11.7819
宣示	-11.782
新城	-11.782
逢時	-11.7821
孝理	-11.7821
却歸	-11.7822
黄老	-11.7822
六宫	-11.7822
池亭	-11.7826
先鋒	-11.7826
感懐	-11.7827
寢食	-11.7832
萬里橋	-11.7833
為宰相	-11.7834
星月	-11.7839
二世	-11.7841
亦巳	-11.7841
承家	-11.7842
監察	-11.7843
仁人	-11.7845
舊史云	-11.7845
濮陽	-11.7847
不可知	-11.7848
箋云	-11.785
髙情	-11.785
黄庭	-11.7852
王粲詩	-11.7854
正殿	-11.7855
漢儀	-11.7856
斜陽	-11.7858
神秀	-11.7858
怒曰	-11.786
舉頭	-11.7861
殊不知	-11.7861
未肯	-11.7863
閑吟	-11.7863
不苟	-11.7864
縱有	-11.7865
高齋	-11.7866
萬錢	-11.7869
晨起	-11.787
未甚	-11.787
自註	-11.7871
埤雅	-11.7874
公神道碑銘	-11.7874
澧州	-11.7874
𤣥元皇帝	-11.7875
髭	-11.7878
黼	-11.7879
酪	-11.7879
爨	-11.7879
萬戸	-11.7879
絛	-11.788
犖	-11.788
山海經曰	-11.788
卓然	-11.7881
襪	-11.7881
椹	-11.7881
偪	-11.7881
巨鼇	-11.7882
埽	-11.7883
夷門	-11.7884
彀	-11.7884
壼	-11.7884
嶮	-11.7886
須㬰	-11.7886
十三載	-11.7886
纈	-11.7887
笈	-11.7887
聖心	-11.7887
雕蟲	-11.7887
杜佑	-11.7887
曽孫	-11.7887
萹	-11.7887
游俠	-11.7888
盾	-11.7888
鬬雞	-11.7889
欷	-11.789
天末	-11.789
餽	-11.7891
濯纓	-11.7891
撤	-11.7891
七言律	-11.7892
水府	-11.7893
幽谷	-11.7894
畚	-11.7894
採訪	-11.7894
湼槃經	-11.7894
糗	-11.7894
蕭灑	-11.7895
突騎	-11.7896
彤庭	-11.7898
衰謝	-11.7898
衡岳	-11.7901
孟津	-11.7903
老死	-11.7903
大明宫	-11.7904
十二韻	-11.7904
内供奉	-11.7904
戚里	-11.7905
長楊	-11.7905
魯郡	-11.7906
不可曉	-11.7907
患難	-11.7908
四篇	-11.7909
髙低	-11.7909
佩玉	-11.791
無任感恩	-11.7911
朱雀	-11.7911
大駕	-11.7912
行幸	-11.7912
善政	-11.7916
十有一	-11.7917
箕山	-11.7917
愚者	-11.7917
勉之	-11.7918
相賀	-11.7918
劉沔	-11.7921
猛虎行	-11.7922
守臣	-11.7922
安得不	-11.7922
八陣	-11.7923
祀典	-11.7925
兩稅	-11.7925
鴻毛	-11.7927
複道	-11.7931
叙其	-11.7931
古今注	-11.7933
可疑	-11.7937
莊嚴	-11.7939
花間	-11.7939
此輩	-11.7941
紫㣲	-11.7942
十餘里	-11.7944
暮雲	-11.7944
歡呼	-11.7945
祔于	-11.7947
不踰	-11.7947
退朝	-11.7949
仕至	-11.795
雨師	-11.795
井邑	-11.7951
滎陽鄭	-11.7953
一道	-11.7955
絳州	-11.7959
太白山	-11.7959
雲屯	-11.7959
蓬山	-11.796
既得	-11.7963
其兄	-11.7963
驅馬	-11.7963
上台	-11.7965
市井	-11.7965
來告	-11.7965
東溪	-11.7967
素絲	-11.7967
洞門	-11.7969
夏后	-11.7969
七寳	-11.797
許國	-11.7972
鶴曰公	-11.7972
臺城	-11.7973
春遊	-11.7974
樽前	-11.7977
末云	-11.7979
駐馬	-11.7981
自歎	-11.7982
川原	-11.7983
漁者	-11.7987
路難	-11.7987
孤峯	-11.7987
進取	-11.7988
不見其	-11.7989
公神道碑	-11.799
帝力	-11.7992
學仙	-11.7996
許州	-11.7997
名實	-11.8
好鳥	-11.8003
田横	-11.8004
建武	-11.8007
惠連	-11.8011
忠良	-11.8016
楞伽	-11.8016
茭	-11.8016
曲名	-11.8017
髙臺	-11.8017
孫登	-11.8018
奴婢	-11.8019
胝	-11.802
官屬	-11.802
蔗	-11.8021
殷仲文	-11.8022
庳	-11.8023
憊	-11.8024
墾	-11.8024
荏苒	-11.8024
𤣥武	-11.8024
禺	-11.8025
鶴注此當是	-11.8025
擷	-11.8025
殂	-11.8025
蝴蝶	-11.8026
􁈍	-11.8026
腐儒	-11.8026
賫	-11.8027
鞬	-11.8027
縵	-11.8027
纉	-11.8027
蛺蝶	-11.8027
獰	-11.8028
遑遑	-11.8031
湘妃	-11.8031
皓齒	-11.8032
覲省	-11.8032
頳	-11.8033
南溪	-11.8033
驚波	-11.8034
維摩經	-11.8035
隄防	-11.8035
乗槎	-11.8035
黎庶	-11.8035
斛斯	-11.8037
孤竹	-11.8038
穆天子傳	-11.8039
揖讓	-11.8041
羽觴	-11.8041
初到	-11.8042
校獵	-11.8043
戀闕	-11.8043
各四句	-11.8043
微言	-11.8045
晉天文志	-11.8045
歸成都	-11.8046
又嘗	-11.8046
怡然	-11.8046
州界	-11.8048
而食之	-11.8048
梁國	-11.8051
百僚	-11.8051
四瀆	-11.8054
饒州	-11.8056
渌水	-11.8057
農桑	-11.8057
𤣥都	-11.8059
龜䝉	-11.8063
帝堯	-11.8063
相伴	-11.8064
求賢	-11.8064
右拾遺	-11.8065
章臺	-11.8066
爾雅曰	-11.8068
結廬	-11.8072
實封	-11.8072
日暖	-11.8073
登朝	-11.8076
呉楚	-11.8076
受賜	-11.8079
直指	-11.808
右散騎常侍	-11.808
永懐	-11.8081
秀色	-11.8082
千餘人	-11.8083
難再	-11.8084
而言也	-11.8085
除夜	-11.8086
海外	-11.8087
聖㫖	-11.8087
天降	-11.8088
六巻	-11.8088
韋昭	-11.809
開闢	-11.8091
筆端	-11.8091
豪家	-11.8092
古樹	-11.8094
列聖	-11.8095
悲哀	-11.8096
脩竹	-11.81
士贇曰此	-11.8101
溺死	-11.8101
珂	-11.8103
㡬何	-11.8103
華岳	-11.8107
云暮	-11.8108
王逸注	-11.8109
臣節	-11.8109
相招	-11.811
湘君	-11.8113
杭本無	-11.8114
東籬	-11.8116
相勸	-11.8116
空堂	-11.8118
蕭士贇曰	-11.8121
王建	-11.8123
者以其	-11.8123
院中	-11.8125
勿言	-11.8125
驛路	-11.8128
華原	-11.8132
感舊	-11.8133
廣運	-11.8133
相逐	-11.8133
伯父	-11.8135
巢由	-11.8135
皇皇	-11.8136
信矣	-11.8137
者是也	-11.8138
周室	-11.814
罪人	-11.814
金丹	-11.8142
三冬	-11.8142
必有所	-11.8143
乗舟	-11.8147
李太白集注巻	-11.8149
匭	-11.8149
鳯皇	-11.8149
崤	-11.815
髙唐	-11.8151
德行	-11.8151
第九	-11.8153
翬	-11.8154
娟娟	-11.8154
簞	-11.8154
歙州	-11.8154
閬中	-11.8155
下句言	-11.8155
外國	-11.8158
洺	-11.8158
唐㑹要	-11.8159
侯王	-11.816
釭	-11.8161
班彪	-11.8162
沱	-11.8162
天爵	-11.8162
跋扈	-11.8162
攣	-11.8165
錦袍	-11.8165
悃	-11.8166
比丘	-11.8166
青熒	-11.8166
譖	-11.8166
呉都賦	-11.8167
丁亥	-11.8167
橙	-11.8167
斁	-11.8167
鎗	-11.8167
莠	-11.8167
旟	-11.8167
慱	-11.8168
体	-11.8168
轆轤	-11.8168
勻	-11.8168
熠	-11.8169
招䰟	-11.8169
諌議大夫	-11.8169
太乙	-11.8171
問其故	-11.8171
太原王	-11.8171
庚午	-11.8171
䴡	-11.8171
霑巾	-11.8172
漭	-11.8172
郊孫曰	-11.8172
餼	-11.8173
天子命	-11.8174
匪躬	-11.8178
蘭蕙	-11.8183
平泉	-11.8184
因依	-11.8184
廣平王	-11.8185
權德輿	-11.8185
衆口	-11.8185
何太	-11.8186
越裳	-11.8187
文儒	-11.8188
唐書百官志	-11.8189
翠屏	-11.8191
晉宋	-11.8191
朱子	-11.8192
瑟瑟	-11.8193
不停	-11.8193
揮手	-11.8193
大人賦	-11.8193
巴人	-11.8195
所藏	-11.8196
魯直	-11.82
煙霧	-11.8203
刀筆	-11.8204
絲管	-11.8205
知我者	-11.8207
宫門	-11.821
張十八	-11.8213
為京兆尹	-11.8214
是歳	-11.8214
羣飛	-11.8215
郷里	-11.8216
師曰言	-11.8216
杜宇	-11.8218
巴峽	-11.8219
豈料	-11.822
孝公	-11.822
入關	-11.822
龍顔	-11.8221
虎丘	-11.8222
賛曰	-11.8222
吾友	-11.8223
羣吏	-11.8224
謝氏	-11.8227
魯陽	-11.8227
郊廟	-11.8228
桓帝	-11.8232
萬仞	-11.8233
剡中	-11.8236
山亭	-11.824
白刃	-11.8241
丹霄	-11.8241
一面	-11.8242
也舊注	-11.8242
前席	-11.8243
䕫州作	-11.8244
薛公	-11.8244
尊嚴	-11.8245
忠厚	-11.8245
三國	-11.8246
新恩	-11.8246
鈞天	-11.8246
世路	-11.8252
於有司	-11.8255
櫟	-11.8255
紛然	-11.8255
嘉樹	-11.8261
百慮	-11.8262
於其間	-11.8263
此詩乃	-11.8264
醉卧	-11.8266
不敢言	-11.8266
舜禹	-11.8269
陶然	-11.827
其㫖	-11.8273
名節	-11.8273
野客	-11.8275
遷延	-11.828
謝惠連	-11.8282
列郡	-11.8285
明徳	-11.8286
夷夏	-11.8287
龍樓	-11.8293
各有所	-11.8295
跕	-11.8295
子虛賦	-11.8296
筆力	-11.8296
人咸	-11.8297
雩	-11.8297
黒水	-11.8297
述異記	-11.8298
𢷬	-11.8299
白魚	-11.8299
酉陽雜俎	-11.8299
紗帽	-11.83
苧	-11.8302
戛	-11.8302
𪷟	-11.8302
于頔	-11.8303
泛泛	-11.8304
嶔	-11.8304
淋漓	-11.8305
山陰	-11.8305
靦	-11.8305
莾	-11.8305
蒿里	-11.8305
䔥	-11.8306
嫡	-11.8306
邅	-11.8306
睽	-11.8307
銀鞍	-11.8307
刎	-11.8307
應璩	-11.8308
產	-11.8308
兩河	-11.8308
至扵	-11.8308
澡	-11.8309
豢	-11.8309
甜	-11.831
炷	-11.8311
樹色	-11.8311
耋	-11.8311
光顔	-11.8311
豐城	-11.8311
歡娯	-11.8311
早梅	-11.8312
陴	-11.8312
簴	-11.8312
遐邇	-11.8313
醉鄉	-11.8313
師旅	-11.8313
晁錯	-11.8314
葆	-11.8315
誰敢	-11.8315
沙頭	-11.8316
壺中	-11.8316
在江陵	-11.8316
覯	-11.8316
銀鈎	-11.8317
莆	-11.8318
俸錢	-11.8318
長鳴	-11.8319
群公	-11.8319
谷中	-11.8319
所建	-11.8321
投壺	-11.8321
待我	-11.8321
咀	-11.8322
獨吟	-11.8322
東堂	-11.8322
荒服	-11.8324
鯀	-11.8324
頴川	-11.8324
鄭滑	-11.8325
休沐	-11.8325
一斗	-11.8328
夢弼曰	-11.8329
獨處	-11.833
清池	-11.833
孤燈	-11.8331
表臣某言	-11.8333
之災	-11.8333
相失	-11.8335
當路	-11.8338
曽參	-11.8341
輔佐	-11.8344
私第	-11.8345
嗣業	-11.8345
猶恐	-11.8346
吳中	-11.8346
紹興	-11.8348
伊昔	-11.8351
大塊	-11.8352
新晴	-11.8353
江樹	-11.8355
萬民	-11.8356
嗣位	-11.8357
蘆花	-11.8358
制除	-11.8359
炎方	-11.8359
詩作於	-11.8359
寒灰	-11.8361
江總	-11.8362
北樓	-11.8363
外戚	-11.8366
張徹	-11.8366
沈沈	-11.8367
震驚	-11.8367
蕭曹	-11.8368
豈伊	-11.8368
京畿	-11.837
數百里	-11.837
徐君	-11.8372
餘波	-11.8376
清商	-11.8376
獄中	-11.8376
說者	-11.8377
不煩	-11.8377
仕進	-11.8378
山海經云	-11.8379
魚目	-11.8383
顔師古	-11.8384
公卿大夫	-11.8387
靈均	-11.8387
東方朔傳	-11.8387
戲題	-11.8388
何所有	-11.8389
文粹作	-11.839
孰為	-11.8391
冠帶	-11.8392
盛衰	-11.8395
齒牙	-11.8396
金鼎	-11.8396
賢才	-11.8399
某原	-11.8406
夢裏	-11.8409
成都府	-11.841
唯見	-11.8413
十句	-11.8415
旦暮	-11.8415
元振	-11.8415
方鎮	-11.8416
萬木	-11.8416
粲然	-11.8418
二十萬	-11.842
無忌	-11.8422
與君同	-11.8424
尤甚	-11.8429
誠知	-11.8429
巨石	-11.843
劍門	-11.843
生塵	-11.8432
抃躍	-11.8432
貢賦	-11.8433
自投	-11.8437
望長安	-11.8438
京國	-11.8439
失職	-11.844
多誤	-11.844
玉燭	-11.8441
古跡	-11.8441
天井	-11.8443
詔㫖	-11.8443
貧者	-11.8443
詵	-11.8443
鸚	-11.8444
鸖	-11.8444
歔欷	-11.8445
廏	-11.8445
下邳	-11.8445
渦	-11.8446
嚢	-11.8446
倚門	-11.8446
晉灼曰	-11.8446
保大本	-11.8447
澤州	-11.8447
寒氣	-11.8447
楊子琳	-11.8447
梁甫吟	-11.8448
勞心	-11.8448
矯矯	-11.8448
氛祲	-11.8448
舞鶴賦	-11.8448
鷹隼	-11.8448
褷	-11.8449
戱	-11.845
膏腴	-11.845
副元帥	-11.8451
昵	-11.8451
興慶宫	-11.8451
尨	-11.8452
頡	-11.8453
幽蘭	-11.8453
契闊	-11.8453
片言	-11.8454
提攜	-11.8454
檉	-11.8454
硤	-11.8454
晢	-11.8455
荆扉	-11.8455
鸚鵡洲	-11.8455
丹旐	-11.8455
宣歙	-11.8455
啾	-11.8456
碌碌	-11.8456
寤寐	-11.8456
艦	-11.8456
女媧	-11.8457
皎潔	-11.8457
年三十	-11.8457
魯人	-11.8459
跛	-11.8459
陋巷	-11.8459
神光	-11.846
原隰	-11.846
熈熈	-11.846
獷	-11.8461
鍛	-11.8461
磨滅	-11.8462
惧	-11.8462
太子賓客	-11.8463
穿鑿	-11.8465
八十一	-11.8465
䖝	-11.8466
城市	-11.8467
晉人	-11.8469
陶鈞	-11.8469
茅齋	-11.8469
早起	-11.847
㡬人	-11.847
舎弟	-11.8471
黃帝	-11.8473
逺逰	-11.8473
士女	-11.8474
院長	-11.8478
太虚	-11.8479
台司	-11.848
重任	-11.848
寒松	-11.8486
儀形	-11.8487
摧折	-11.8489
蘇曰王	-11.8489
賓主	-11.8491
蘇氏	-11.8491
賞心	-11.8491
京尹	-11.8492
滑州	-11.8493
宋之問詩	-11.8494
將赴	-11.8495
疾風	-11.8497
泛江	-11.8498
公幹	-11.85
還似	-11.85
兵部郎中	-11.8501
五百人	-11.8501
鄧林	-11.8502
虛空	-11.8506
失墜	-11.8509
巻舒	-11.851
文星	-11.8513
持此	-11.8514
狼籍	-11.8517
夏雲	-11.8518
玉露	-11.8518
赤岸	-11.8518
謹狀	-11.8519
若木	-11.852
本多作	-11.852
▁謝靈運詩	-11.8523
前溪	-11.8524
文殊	-11.8524
唐太宗	-11.8526
五篇	-11.853
得其人	-11.8532
相印	-11.8533
寵光	-11.8539
乞食	-11.8541
燕石	-11.8542
髙第	-11.8544
嗟爾	-11.8551
七百里	-11.8552
丹桂	-11.8553
初起	-11.8553
蕭史	-11.8559
殊恩	-11.8561
飛蓬	-11.8561
安置	-11.8565
究其	-11.8567
離筵	-11.8569
四壁	-11.857
報主	-11.8572
〇今按	-11.8573
等語	-11.8573
簧	-11.8577
在河南	-11.8583
月八日	-11.8585
後昆	-11.8585
芙	-11.8587
烟塵	-11.8588
百嵗	-11.859
起居舍人	-11.8591
僕夫	-11.8591
顧問	-11.8591
㩀	-11.8591
蠖	-11.8592
狂夫	-11.8592
踆	-11.8592
幰	-11.8593
元龜	-11.8593
閿	-11.8593
暌	-11.8594
樟	-11.8595
靑山	-11.8595
楊升菴	-11.8596
酬恩	-11.8596
郡開國公	-11.8596
禊	-11.8597
鼃	-11.8597
或以為	-11.8598
宙	-11.8599
釋迦	-11.8599
黽	-11.8599
娑	-11.8599
紅蕖	-11.86
韁	-11.86
搔首	-11.86
澒	-11.86
趺	-11.86
藩籬	-11.8601
每年	-11.8602
颶	-11.8602
奩	-11.8603
採訪使	-11.8603
張旭	-11.8603
繢	-11.8604
鶡冠子	-11.8604
僇	-11.8605
堠	-11.8605
豋	-11.8605
謁者	-11.8605
赤墀	-11.8606
二段各	-11.8607
獺	-11.8608
驅車	-11.8608
進賢	-11.8615
李希烈	-11.8616
結實	-11.8619
臨危	-11.862
秘書省	-11.862
三河	-11.862
體物	-11.862
龍媒	-11.862
樊川	-11.8623
袁州刺史	-11.8624
烟霧	-11.8626
昏昏	-11.8627
陵谷	-11.8632
俱是	-11.8632
兄子	-11.8637
野望	-11.8639
蜀都	-11.864
五行志	-11.8642
萬死	-11.8645
太清宫	-11.8646
次句	-11.8646
胡塵	-11.8647
王澤	-11.8647
風土記	-11.8648
臺榭	-11.8648
人之心	-11.8649
寂然	-11.8649
馬援傳	-11.865
皎然	-11.865
春暮	-11.8653
曾無	-11.8655
巖下	-11.8656
太府	-11.8656
選詩	-11.8658
極浦	-11.8658
平昔	-11.866
説者	-11.8663
三十九	-11.8664
備矣	-11.8666
等並	-11.8666
一壺	-11.8668
昇天	-11.8668
大厯三	-11.8669
崔侍御	-11.867
榮辱	-11.8671
兩都	-11.8671
連城	-11.8672
若斯	-11.8672
平陸	-11.8674
召入	-11.8675
城頭	-11.8678
戰勝	-11.8681
一統	-11.8686
勿謂	-11.8686
六載	-11.8688
謹遣	-11.8688
無底	-11.8688
石泉	-11.8688
年十五	-11.8689
其人也	-11.8689
入洛	-11.8689
中堂	-11.869
二十四年	-11.869
未覺	-11.8691
碧水	-11.8692
披衣	-11.8695
湖亭	-11.8696
同舟	-11.8697
計切	-11.8698
幽深	-11.8699
秦女	-11.8699
專征	-11.8701
交歡	-11.8702
衆心	-11.8704
畫角	-11.8707
落筆	-11.8707
歸夢	-11.8708
五臺	-11.871
全身	-11.871
罷相	-11.8711
出鎮	-11.8712
有之矣	-11.8717
周公之	-11.8718
雁門	-11.8721
劉楨	-11.8727
【	-11.8729
先人之	-11.8731
雎	-11.8731
無補	-11.8732
謝莊	-11.8732
畫工	-11.8734
襄公	-11.8734
嚴霜	-11.8735
伉	-11.8738
不愧	-11.8739
吳越春秋	-11.8739
字韻	-11.874
珠翠	-11.8741
諫官	-11.8742
厓	-11.8743
八載	-11.8743
髙閣	-11.8744
淋	-11.8744
茱萸	-11.8744
丙午	-11.8744
巇	-11.8745
軍國	-11.8746
征夫	-11.8746
嗣立	-11.8746
判度支	-11.8746
泥滓	-11.8747
酆	-11.8747
蹻	-11.8748
剏	-11.8748
訃	-11.8748
郭英乂	-11.8748
嘏	-11.8748
郿	-11.8748
鳷鵲	-11.8749
羽書	-11.875
輾	-11.875
鑷	-11.8751
悌	-11.8751
叔孫通	-11.8751
大堤	-11.8752
袵	-11.8753
灧澦	-11.8753
董卓	-11.8753
鄒魯	-11.8753
寒衣	-11.8753
項籍	-11.8753
爛漫	-11.8754
切〇洙曰	-11.8754
遄	-11.8755
訕	-11.8755
渥澤	-11.8756
鮪	-11.8756
中書省	-11.8756
蕭望之	-11.8757
太子少保	-11.8758
珣	-11.8758
宝	-11.8758
杖䇿	-11.8759
團扇	-11.8759
杜若	-11.8763
七月七日	-11.8764
長亭	-11.8764
丁丁	-11.8766
斯乃	-11.8769
封建	-11.877
劉毅	-11.877
臣某等言	-11.877
謁帝	-11.8773
鼓琴	-11.8774
幸甚幸甚	-11.8774
祖考	-11.8774
昭然	-11.8774
宣尼	-11.8775
里中	-11.8776
爲御史	-11.8777
大暦	-11.8779
商洛	-11.878
今从	-11.878
㐮陽	-11.878
桐廬	-11.8782
威靈	-11.8784
久客	-11.8788
翼翼	-11.8788
交態	-11.8788
晉史	-11.8789
曰不然	-11.8792
壁上	-11.8794
别館	-11.8795
李侍御	-11.8796
尊卑	-11.8797
洪波	-11.8797
特賜	-11.8799
鹿鳴	-11.8802
于闐	-11.8802
不乏	-11.8803
表章	-11.8804
龍潭	-11.8804
典籍	-11.8806
澄江	-11.8808
紅燭	-11.8808
桑田	-11.8808
飄蓬	-11.8808
金鞍	-11.8809
萬匹	-11.881
金鏡	-11.8812
藥物	-11.8813
松雪	-11.8816
苟非	-11.8818
一杯酒	-11.8819
信陵	-11.8821
權衡	-11.8822
公自注	-11.8824
浮海	-11.8825
赤羽	-11.8825
裴相公	-11.8829
相弔	-11.8829
銀臺	-11.883
學官	-11.8831
王導	-11.8831
不敏	-11.8832
屯兵	-11.8832
相忘	-11.8833
露布	-11.8834
肉食	-11.8834
趙云此篇	-11.8835
厚地	-11.8836
武丁	-11.8838
女兒	-11.884
夫差	-11.884
孟夏	-11.8842
寵命	-11.8843
長㦸	-11.8846
持斧	-11.885
梁苑	-11.8851
里第	-11.8851
海岱	-11.8851
光耀	-11.8856
侍女	-11.886
在東都	-11.8864
詎知	-11.8865
兆人	-11.8866
乎夫	-11.8868
聖賢之	-11.887
范陽盧	-11.887
莊子云	-11.8871
南池	-11.8871
梁簡文	-11.8872
典刑	-11.8874
貧家	-11.8878
頔	-11.8878
陵寢	-11.8879
夏五月	-11.888
迦	-11.8881
流泉	-11.8883
摩訶	-11.8884
有於字	-11.8888
騘	-11.8888
江南通志	-11.8889
九里	-11.889
湼槃	-11.889
之罪也	-11.8891
洪慶善	-11.8891
姥	-11.8892
堇	-11.8892
騂	-11.8893
惨	-11.8894
飇	-11.8894
闞	-11.8894
不知其所	-11.8895
姮娥	-11.8895
北都	-11.8895
罅	-11.8896
煞	-11.8897
矗	-11.8897
蘧	-11.8897
燉煌	-11.8898
灞陵	-11.8898
鄒衍	-11.8898
悰	-11.8898
庾亮	-11.8899
百世	-11.8899
興元元年	-11.89
微雨	-11.8901
小池	-11.8901
騑	-11.8901
蚩	-11.8901
試大理評事	-11.8902
梓潼	-11.8902
炎瘴	-11.8902
漆園	-11.8902
賭	-11.8902
隲	-11.8903
黥	-11.8903
惸	-11.8903
劳	-11.8903
潨	-11.8904
嚇	-11.8904
雍王	-11.8905
拂拭	-11.8905
孀	-11.8906
少昊	-11.8908
瘼	-11.8908
安在哉	-11.8909
喁	-11.8909
杜䳌	-11.8909
縉紳	-11.8913
脉脉	-11.8913
具足	-11.8913
含蓄	-11.8916
十方	-11.8916
麗人	-11.8917
叩頭	-11.8918
臣某誠	-11.8918
呶	-11.8918
舞衣	-11.8918
弘農	-11.8918
閣杭	-11.892
宜加	-11.8923
先塋	-11.8923
隂陽之	-11.8923
詣闕	-11.8925
之裔	-11.8926
或謂之	-11.8926
榖梁	-11.8927
鎮蜀	-11.8928
哀榮	-11.8928
梁元帝詩	-11.8929
貞元十一年	-11.8931
暮宿	-11.8931
角弓	-11.8935
永泰	-11.8936
三十餘	-11.8937
愽士	-11.8938
至徳二年	-11.8938
金馬門	-11.8939
夏四月	-11.894
暮景	-11.8941
南園	-11.8941
童兒	-11.8943
北走	-11.8946
嘉賔	-11.8946
文中子	-11.8946
廬陵	-11.895
金沙	-11.895
洛川	-11.8952
臣某言伏奉	-11.8954
釣臺	-11.8956
嘉陵江	-11.8957
萬餘	-11.8958
三秦記	-11.8959
快意	-11.896
責其	-11.896
朝昏	-11.8962
征南	-11.8962
銀章	-11.8965
靈運詩	-11.8966
不竭	-11.8969
帝里	-11.8972
之奥	-11.8973
天地之間	-11.8982
園池	-11.8982
茂林	-11.8984
孫氏	-11.8986
宗閔	-11.8988
薊北	-11.8989
丗說	-11.899
鳴臯	-11.8993
紫宫	-11.8995
无所	-11.8997
門館	-11.8999
俗呼	-11.9002
㑹合	-11.9003
長纓	-11.9003
開筵	-11.9005
十五巻	-11.9007
東園	-11.9008
畏途	-11.9009
說文云	-11.901
素琴	-11.9011
首陽山	-11.9013
滎	-11.9013
明哲	-11.9015
實錄	-11.9018
二儀	-11.9019
宗社	-11.9019
勝負	-11.9021
因緣	-11.9022
白鹽	-11.9022
九折	-11.9025
叔孫	-11.9028
獸名	-11.9028
老母	-11.9028
止足	-11.903
禮數	-11.903
歡心	-11.9035
四川	-11.9035
羅池	-11.9035
應詔	-11.9035
中台	-11.9036
晚來	-11.9037
長公主	-11.9037
班行	-11.9039
𤦺按	-11.9043
宓	-11.9044
戸部侍郎	-11.9044
聖情	-11.9044
元化	-11.9044
宴坐	-11.9044
仝	-11.9045
駃	-11.9046
牛女	-11.9046
漚	-11.9047
賸	-11.9047
黄泉	-11.9048
徊	-11.9048
長相思	-11.9048
菡萏	-11.9049
鴰	-11.9049
才調集	-11.9049
疣	-11.905
蒯	-11.905
親愛	-11.9051
贈太尉	-11.9052
滉	-11.9052
泉源	-11.9052
殽	-11.9052
𣢾	-11.9052
朧	-11.9052
塤	-11.9052
饔	-11.9053
欹枕	-11.9053
惘	-11.9054
訇	-11.9054
跖	-11.9054
咄	-11.9055
楊惲	-11.9055
俳	-11.9055
苻堅	-11.9056
甓	-11.9056
虹蜺	-11.9056
羊祜	-11.9057
毗陵	-11.9057
十道志	-11.9057
滂沱	-11.9057
楓葉	-11.9057
入幕	-11.9057
鹹	-11.9058
遅	-11.9058
琱	-11.9058
天下幸甚	-11.9058
澒洞	-11.9058
促織	-11.9058
櫨	-11.9059
况今	-11.9059
蛤	-11.9059
綵衣	-11.906
㘴	-11.9061
芰荷	-11.9061
問之曰	-11.9061
蕭颯	-11.9062
日月星辰	-11.9062
韋賢	-11.9063
混沌	-11.9067
歐陽公	-11.9069
江畔	-11.9069
吏部郎中	-11.9069
里巷	-11.907
臯陶	-11.9071
其皮	-11.9073
詩話云	-11.9074
水漲	-11.9075
屈伸	-11.9075
伊人	-11.9077
真宰	-11.9077
歲晚	-11.9078
變色	-11.9078
武帝時	-11.9078
虞部	-11.9078
部尚書	-11.908
細腰	-11.9081
樹影	-11.9083
以文學	-11.9086
妖星	-11.9086
者何也	-11.9091
太初	-11.9092
童謡	-11.9094
閶門	-11.9096
囘首	-11.9097
憶君	-11.9099
季友	-11.91
元惡	-11.91
疲人	-11.91
兢兢	-11.9101
露寒	-11.9105
陳倉	-11.9107
碧色	-11.9114
入覲	-11.9115
歸順	-11.9115
新昌	-11.9116
即今之	-11.9118
城邑	-11.9118
御史臺	-11.912
大厯四	-11.9125
實惟	-11.9125
王筠	-11.9126
月十三日	-11.913
冰雪	-11.9134
汾水	-11.9137
同調	-11.9138
三十載	-11.9138
吴越	-11.9141
向晚	-11.9144
十一載	-11.9146
升降	-11.9151
紫殿	-11.9151
復何如	-11.9151
白晝	-11.9152
濟川	-11.9154
千載之	-11.9155
閑遊	-11.916
虚舟	-11.916
同舍	-11.9161
安排	-11.9167
隱士	-11.9171
紛綸	-11.9173
㡬年	-11.9173
百歩	-11.9179
雪賦	-11.918
亡國	-11.9181
喜雨	-11.9184
法制	-11.9184
狀請	-11.9185
四郊	-11.9187
猛將	-11.9188
星星	-11.9189
知之矣	-11.9189
巍	-11.919
萱	-11.919
魏文帝詩	-11.9191
月影	-11.9191
朝霞	-11.9191
地勢	-11.9192
所獲	-11.9194
惻惻	-11.9195
玄元	-11.9195
共工	-11.9196
異姓	-11.9197
四維	-11.9198
昉	-11.9198
魯靈光殿賦	-11.9199
不虧	-11.9201
呉越春秋	-11.9202
花木	-11.9202
彎弓	-11.9204
諮	-11.9204
越絶書	-11.9204
扺	-11.9204
媯	-11.9205
匃奴	-11.9206
靳	-11.9206
鋒鏑	-11.9207
神異經	-11.9207
雊	-11.9207
廸	-11.9207
湔	-11.9208
彥	-11.9208
妲	-11.9208
緱	-11.9209
緱氏	-11.9209
獬豸	-11.921
少府監	-11.921
齓	-11.921
䘚	-11.921
撝	-11.921
鋸	-11.921
稽古	-11.9211
伋	-11.9211
鄢	-11.9211
年春作	-11.9212
醉客	-11.9212
彘	-11.9212
割據	-11.9212
袤	-11.9213
寶應	-11.9213
皦	-11.9213
機杼	-11.9213
觚	-11.9214
朱文公校昌黎先生集卷之	-11.9214
度曲	-11.9214
辛亥	-11.9214
帀	-11.9215
啞	-11.9215
蓂	-11.9216
愚臣	-11.9216
六祖	-11.9217
拂雲	-11.9217
此敘	-11.9217
棹歌	-11.9218
季札	-11.9218
珩	-11.9219
邂逅	-11.9219
上昇	-11.9219
艱危	-11.922
髙力士	-11.9221
唐陸宣公集卷第	-11.9221
鑄鼎	-11.9222
青眼	-11.9223
舞袖	-11.9224
不然何	-11.9224
劉郎	-11.9225
梨園	-11.9227
墳墓	-11.9228
世系	-11.9229
英華無	-11.9231
家僮	-11.9231
老妻	-11.9232
軍司馬	-11.9232
三十七	-11.9232
湘南	-11.9233
高陽	-11.9234
朋黨	-11.9235
髙視	-11.9237
漏刻	-11.9239
六翮	-11.9241
横流	-11.9243
松州	-11.9244
萬乘	-11.9246
碧流	-11.9248
王儉	-11.9248
摧殘	-11.925
詳巻	-11.9251
長劍	-11.9252
容貌	-11.9252
華胥	-11.9252
鄰家	-11.9253
十洲	-11.9255
朝服	-11.9256
隂氣	-11.9257
那知	-11.9259
籍甚	-11.926
畫屏	-11.926
忘身	-11.9263
取士	-11.9265
義士	-11.9267
州刺史李	-11.9268
求食	-11.9269
繼之以	-11.927
大厯五年	-11.927
禄位	-11.9271
不復見	-11.9274
舊物	-11.9276
十有八	-11.9276
季冬	-11.9278
秩滿	-11.9279
魯山	-11.9279
鼓舞	-11.9281
何勞	-11.9284
棧道	-11.9285
低頭	-11.9285
相保	-11.9286
仲尼曰	-11.9289
室家	-11.9289
清輝	-11.9291
華州刺史	-11.9291
泗水	-11.9293
闗塞	-11.9295
四十五	-11.9295
四鎮	-11.9295
囯語	-11.9297
羅漢	-11.9297
庾肩吾	-11.9298
河流	-11.93
遊宴	-11.93
當塗縣	-11.9302
隂隂	-11.9304
卧疾	-11.9304
帶雨	-11.9305
即所謂	-11.9305
羽化	-11.9308
章甫	-11.9309
世網	-11.931
鄙人	-11.9312
少陵原	-11.9315
籍田	-11.9316
層城	-11.9318
平陵	-11.9319
東陵	-11.9322
舊典	-11.9324
陳陶	-11.9325
皇考	-11.9328
鼓聲	-11.9331
下或無	-11.9331
文苑同	-11.9332
詩一首	-11.9333
衢州	-11.9337
將校	-11.9339
虎符	-11.934
拜手	-11.9341
杯中	-11.9342
月二十七日	-11.9343
品物	-11.9346
方隅	-11.9346
方舟	-11.9348
蒙恩	-11.9349
累年	-11.9351
厦	-11.9352
王屋山	-11.9354
不嫌	-11.9354
祈雨	-11.9355
勿復	-11.9356
綱紀	-11.9356
苹	-11.9359
范睢	-11.936
霸王	-11.9361
捽	-11.9362
琦按	-11.9362
正議大夫	-11.9362
㮣	-11.9362
孔穎達正義	-11.9364
𬗟	-11.9364
夜夢	-11.9364
殳	-11.9365
挍	-11.9365
戈矛	-11.9366
虖	-11.9366
思𤣥賦	-11.9366
釣磯	-11.9367
扁	-11.9367
匙	-11.9367
長慶四年	-11.9367
天下之士	-11.9368
𫾣	-11.9368
聖澤	-11.9368
皥	-11.9369
玉佩	-11.9369
蠹	-11.9369
脾	-11.937
犬吠	-11.937
犒	-11.937
十餘萬	-11.937
猩猩	-11.937
淤	-11.937
柚	-11.9371
磵	-11.9371
兎絲	-11.9372
部員外郞	-11.9372
精氣	-11.9373
燕昭王	-11.9373
荑	-11.9373
終期	-11.9373
倬	-11.9373
掄	-11.9374
嫰	-11.9375
鸑鷟	-11.9375
裴冕	-11.9375
澮	-11.9375
貊	-11.9376
巴郡	-11.9376
漢皇	-11.9377
舋	-11.9377
大猷	-11.9377
勝槩	-11.9378
公自謂也	-11.9379
李輔國	-11.9379
裴迪	-11.9379
梔子	-11.938
鵉	-11.9381
骨髓	-11.9381
改葬	-11.9383
柳宗元	-11.9384
某乙	-11.9384
長歎	-11.9384
隠淪	-11.9384
雲際	-11.9385
事宜狀	-11.9386
險艱	-11.9387
佩刀	-11.9387
執事者	-11.9388
都䕶府	-11.9388
群臣	-11.9388
章奏	-11.9389
禮樂志	-11.9389
故詩云	-11.9389
恩私	-11.9389
刑罰	-11.939
永訣	-11.9392
願陛下	-11.9392
嵗寒	-11.9394
暝色	-11.9395
斧鉞	-11.9395
二丈	-11.9396
繫舟	-11.9397
有所感	-11.94
傾倒	-11.9402
美女	-11.9402
滻水	-11.9406
列星	-11.9408
落暉	-11.9409
楊墨	-11.941
十有五	-11.9411
元微之	-11.9413
激揚	-11.9417
勤勤	-11.9419
結句	-11.9421
仙遊	-11.9422
玉殿	-11.9422
而不用	-11.9423
武皇	-11.9423
宫詞	-11.9424
全篇	-11.9425
百氏	-11.9427
羣仙	-11.9427
有此作	-11.9431
李愬	-11.9431
在潭州	-11.9434
鈎陳	-11.9434
有限	-11.9434
民間	-11.9434
懐舊	-11.9435
頂上	-11.9437
海底	-11.9437
怒號	-11.9438
隠士	-11.9439
豎子	-11.9439
李侍郎	-11.9439
歸葬	-11.9439
論功	-11.9441
賤子	-11.9442
百四十	-11.9442
楊齊賢曰	-11.9444
子美詩	-11.9444
士君子	-11.9444
開顔	-11.9446
清虚	-11.9449
留題	-11.9452
衰顔	-11.9453
十四行	-11.9454
黄金臺	-11.9455
伐叛	-11.9456
典禮	-11.9456
丘園	-11.9458
上元二	-11.9459
朝露	-11.9459
女弟	-11.9462
隔年	-11.9462
歌扇	-11.9464
八韻	-11.9466
贈司空	-11.9467
以此為	-11.9471
峨眉山	-11.9474
獨醒	-11.9474
郭璞詩	-11.9475
二尺	-11.9476
黃河	-11.9476
金殿	-11.9476
未就	-11.9476
世情	-11.9477
蜀校	-11.9479
窮老	-11.948
洪氏	-11.9481
積善	-11.9485
秀發	-11.9487
大儒	-11.9487
殊異	-11.9488
奉引	-11.9488
勇士	-11.9489
而言曰	-11.949
龍朔	-11.9491
百度	-11.9492
幾處	-11.9494
社稷之	-11.9497
河梁	-11.9499
散騎	-11.95
澤畔	-11.9503
千六百	-11.9504
晉陵	-11.9506
前殿	-11.9508
子姪	-11.9513
虎頭	-11.9515
敦詩	-11.9518
滄州	-11.9518
載筆	-11.952
侍宴	-11.952
忠武	-11.9521
趙曰此言	-11.9522
邯	-11.9523
年八十	-11.9523
鷇	-11.9523
陵廟	-11.9524
婕妤	-11.9525
扎	-11.9525
踏青	-11.9525
挺生	-11.9525
轝	-11.9525
傷情	-11.9525
喝	-11.9526
惜乎	-11.9526
鈐	-11.9527
帕	-11.9528
旛	-11.9528
柑	-11.9528
華亭	-11.9529
癸丑	-11.9529
灼灼	-11.9529
燮	-11.9529
賡	-11.9529
壙	-11.9529
螫	-11.9529
綯	-11.9529
磻溪	-11.9529
逡廵	-11.9531
咄咄	-11.9531
淼	-11.9532
次年	-11.9532
蠆	-11.9532
秘書少監	-11.9532
缸	-11.9533
睒	-11.9533
洵	-11.9534
碾	-11.9534
媛	-11.9535
肅宗即位	-11.9535
今天子	-11.9536
淙	-11.9537
丹竈	-11.9537
衮衮	-11.9538
璡	-11.9538
悠揚	-11.9538
翌日	-11.9538
田父	-11.9539
師律	-11.954
廉頗	-11.954
鵩鳥	-11.954
年秋作	-11.9541
灔	-11.9542
此二句	-11.9543
閣本杭本	-11.9543
孝亷	-11.9544
經籍	-11.9545
𧺫	-11.9546
彫胡	-11.9548
四千	-11.9548
科斗	-11.9549
惴	-11.955
巢穴	-11.955
緑苔	-11.9551
雄圖	-11.9552
皇威	-11.9553
飄蕩	-11.9553
王右軍	-11.9555
匣中	-11.9555
動息	-11.9556
寰海	-11.9559
周迴	-11.9559
未獲	-11.956
以譬	-11.9561
千里馬	-11.9561
瞻仰	-11.9562
羅網	-11.9563
播遷	-11.9564
名氏	-11.9565
律吕	-11.9565
職司	-11.9567
昭穆	-11.9567
堯時	-11.9568
彈冠	-11.9569
未可知	-11.9571
不撓	-11.9571
韋昭曰	-11.9571
九陌	-11.9574
附録	-11.9574
秦淮	-11.9576
等制	-11.9576
慈惠	-11.9578
望幸	-11.9578
朱絃	-11.9579
鍊師	-11.9581
洙曰顔延年	-11.9583
宫裏	-11.9583
匈奴傳	-11.9583
反照	-11.9584
河圖	-11.9585
萬榮	-11.9585
失守	-11.9587
鄰里	-11.9588
朱旗	-11.9588
兹辰	-11.9589
相率	-11.9591
夏禹	-11.9591
倚伏	-11.9593
愈白	-11.9595
左輔	-11.9596
秋霖	-11.9597
為證	-11.9597
切説文	-11.9602
九土	-11.9603
王明府	-11.9603
市朝	-11.9604
腰間	-11.9605
露濕	-11.9608
龍舟	-11.9609
元侯	-11.9609
王衍	-11.9611
封禪書	-11.9618
馳道	-11.962
治亂	-11.9621
問罪	-11.9621
二十五里	-11.9623
大漠	-11.9626
逐客	-11.9627
雙魚	-11.963
修竹	-11.9632
不昧	-11.9632
號呼	-11.9633
含香	-11.9635
西湖	-11.9638
頌聲	-11.9642
鼔吹	-11.9648
火井	-11.9649
驛樓	-11.9653
荆衡	-11.9654
仍舊	-11.9656
澤國	-11.9657
歴官	-11.9659
臣某等	-11.9659
闗西	-11.966
交友	-11.9661
見二巻	-11.9661
元嘉	-11.9661
郭璞曰	-11.9662
嗟嘆	-11.9662
喜怒	-11.9664
表賀	-11.9665
貞元二年	-11.9666
五十年	-11.9667
洪譜	-11.9672
彰明	-11.9673
晟	-11.9679
檢校司空	-11.9681
楊慎曰	-11.9682
春申君	-11.9684
暘	-11.9685
鄯	-11.9685
菖蒲	-11.9685
孟康	-11.9686
魯仲連	-11.9686
國子司業	-11.9687
史館修撰	-11.9688
烏夜啼	-11.9688
召募	-11.9689
杭作	-11.9689
髭鬚	-11.9689
崔豹古今注	-11.969
凈	-11.969
壬辰	-11.969
癸卯	-11.9691
鴿	-11.9691
霅	-11.9692
酥	-11.9692
箠	-11.9692
琚	-11.9693
楠	-11.9694
袈裟	-11.9694
黧	-11.9694
煬	-11.9694
政令	-11.9695
咽喉	-11.9695
匀	-11.9696
庻子	-11.9696
椒房	-11.9697
卬	-11.9697
棼	-11.9697
蚓	-11.9697
户部尚書	-11.9697
岷峨	-11.9698
咸亨	-11.9698
咍	-11.9698
喣	-11.9698
舁	-11.9699
譏其	-11.9699
燾	-11.9701
大赦天下	-11.9702
醉吟	-11.9702
寒燈	-11.9702
炎蒸	-11.9703
厝	-11.9703
巖廊	-11.9705
治天下	-11.9705
居延	-11.9706
三辰	-11.9707
豪俊	-11.9709
府君之	-11.9711
江總詩	-11.9712
楯	-11.9712
官舎	-11.9713
草聖	-11.9713
入貢	-11.9713
顔延之詩	-11.9714
後之人	-11.9715
賣藥	-11.9715
陸氏	-11.9716
遠近	-11.9717
梁棟	-11.9717
潔白	-11.9719
飛閣	-11.9719
太常寺	-11.9721
問訊	-11.9721
四支	-11.9722
皇都	-11.9723
陽山令	-11.9724
東坡云	-11.9725
三百六十	-11.9726
善畫	-11.9729
臨岐	-11.973
紅樹	-11.9734
畫像	-11.9734
敎化	-11.9736
不悟	-11.9737
左傳晉	-11.9737
馮宿	-11.9737
嘉瑞	-11.9738
曹參	-11.9742
虞翻	-11.9743
帝閽	-11.9743
晚泊	-11.9746
瑯琊	-11.9748
乾符	-11.975
賈至	-11.975
深淺	-11.9752
攜酒	-11.9755
舍利	-11.9758
二百年	-11.9761
旅次	-11.9761
千歲	-11.9763
賢哉	-11.9764
李牧	-11.9766
然諾	-11.9768
石雄	-11.977
有以見	-11.9773
岐山	-11.9773
何如哉	-11.9774
星漢	-11.9778
稷契	-11.9781
竭誠	-11.9781
殺傷	-11.9782
䕫龍	-11.979
珠樹	-11.9791
▁曹植詩	-11.9795
金錯	-11.9797
悲哉	-11.9798
獻帝	-11.9799
笻	-11.98
賢豪	-11.9802
備禮	-11.9805
鄭國	-11.9806
配天	-11.9807
不可考	-11.9811
蓮華	-11.9811
未有不	-11.9812
雨霽	-11.9813
謹啓	-11.9816
對䇿	-11.9817
莫怪	-11.9818
幽都	-11.9822
感遇	-11.9823
良乆	-11.9824
衆庶	-11.9827
沈佺期	-11.9829
星斗	-11.9832
人間事	-11.9834
諸蕃	-11.9837
凛	-11.9841
思黯	-11.9841
鼓瑟	-11.9842
萬計	-11.9844
太室	-11.9847
筑	-11.9848
茘	-11.9848
桐花	-11.9849
欽定四庫全書李太白集分類補註巻	-11.9849
搜神記	-11.985
統軍	-11.985
芭蕉	-11.985
月蝕	-11.985
餧	-11.9851
諸孫	-11.9851
太平御覽	-11.9851
張晏曰	-11.9852
諲	-11.9852
藜藿	-11.9853
露滴	-11.9853
峨嵋	-11.9854
鵰鶚	-11.9855
嚴光	-11.9855
趁	-11.9855
蜩	-11.9855
趙充國	-11.9855
怵惕	-11.9855
夢澤	-11.9855
闗内	-11.9855
揉	-11.9856
醨	-11.9857
擐	-11.9857
郭景純	-11.9857
李太白文集巻	-11.9857
迕	-11.9858
烽燧	-11.9858
躄	-11.9858
江西觀察使	-11.9859
葵藿	-11.9859
緍	-11.9861
郍	-11.9861
鰥寡	-11.9861
倒屣	-11.9862
騶虞	-11.9862
不輟	-11.9863
鏞	-11.9863
嚴君平	-11.9863
明滅	-11.9864
馳騁	-11.9864
剃	-11.9864
禎卿曰此篇	-11.9864
壍	-11.9864
暗用	-11.9864
郢州	-11.9864
京兆韋	-11.9865
惬	-11.9865
筦	-11.9865
八紘	-11.9865
自江陵	-11.9865
澘然	-11.9865
薈	-11.9866
今何在	-11.9866
東南隅	-11.9867
虽	-11.9867
宸衷	-11.9868
自叙	-11.9868
蓑	-11.9868
端午	-11.9868
歳暮	-11.9869
瞪	-11.9869
濁水	-11.987
提携	-11.987
醯	-11.9872
品彚	-11.9873
攀援	-11.9874
鍤	-11.9875
未畢	-11.9875
智慧	-11.9875
舅姑	-11.9875
環珮	-11.9875
千祀	-11.9877
千鈞	-11.9878
羣情	-11.9879
猿鳥	-11.988
卑濕	-11.988
賢不肖	-11.9881
朝列	-11.9881
左補闕	-11.9881
爾雅云	-11.9882
蘄州	-11.9883
庾公	-11.9883
夢遊	-11.9884
獎	-11.9885
納凉	-11.9885
莫大於	-11.9885
宛陵	-11.9886
亞夫	-11.9887
飛翻	-11.9891
怪石	-11.9892
麗藻	-11.9892
衣巾	-11.9895
酒壚	-11.9895
祠部	-11.9896
征討	-11.9898
皇華	-11.9898
姑蘇臺	-11.9899
盛唐	-11.99
隱淪	-11.9901
小童	-11.9901
詔勑	-11.9903
酬張	-11.9907
影響	-11.9907
隴州	-11.9907
先軰	-11.9907
姑息	-11.9908
在永州	-11.9909
華省	-11.9909
阻風	-11.9911
兩省	-11.9912
公之靈	-11.9912
籠中	-11.9912
錦帳	-11.9912
林塘	-11.9913
招隠	-11.9913
殘雪	-11.9913
萬萬	-11.9914
侯喜	-11.9915
觸目	-11.9922
暮齒	-11.9923
野亭	-11.9923
洛邑	-11.9924
所撰	-11.9926
見本巻	-11.9927
華池	-11.9929
佛骨	-11.9931
某啓	-11.9931
巨海	-11.9932
洙曰曹子建	-11.9932
渡水	-11.9933
竟陵	-11.9936
玉杯	-11.9939
尤工	-11.9939
清淺	-11.9939
浮沉	-11.994
深藏	-11.994
通宵	-11.9941
制勝	-11.9942
飛走	-11.9942
託意	-11.9943
破鏡	-11.9946
劉孝	-11.9947
封章	-11.9948
李靖	-11.9949
憂勤	-11.9955
伏請	-11.9959
滿庭	-11.996
向夕	-11.9965
幾許	-11.9965
漢郊祀志	-11.9966
棄置	-11.9972
絃管	-11.9976
此邦	-11.9977
刑政	-11.9979
百餘年	-11.9981
特降	-11.9982
百斛	-11.9984
鷦鷯	-11.9985
騎射	-11.9986
中貴人	-11.9987
郭外	-11.9992
勝境	-11.9996
舊注謂	-12.0006
太行山	-12.0009
推恩	-12.001
仲尼之	-12.0014
戴安道	-12.0016
澥	-12.0018
嶲	-12.0019
精兵	-12.002
宿鳥	-12.002
奉職	-12.0021
醬	-12.0023
楞嚴經	-12.0024
琬	-12.0025
帝王世紀	-12.0025
耿介	-12.0026
熒熒	-12.0026
華州司功	-12.0026
退食	-12.0027
戰塲	-12.0027
蔟	-12.0027
劎	-12.0027
苣	-12.0028
鱉	-12.0028
戈鋋	-12.0028
激昻	-12.0028
箋舊書	-12.0028
貔	-12.0028
概	-12.0029
袐	-12.0029
搶	-12.0029
芊	-12.003
終身不	-12.003
卓犖	-12.003
忭	-12.0031
絞	-12.0031
窣	-12.0032
禘祫	-12.0032
陶唐	-12.0033
沮洳	-12.0033
罏	-12.0033
㩁	-12.0034
壟	-12.0034
㒹	-12.0034
齟齬	-12.0035
㶚陵	-12.0035
睢盱	-12.0035
蒯通	-12.0036
劉夢得文集卷第	-12.0036
最高	-12.0037
驌驦	-12.0038
孫曰貞元	-12.0038
煌	-12.0039
懔	-12.0039
齊桓	-12.0039
乙丑	-12.0039
冕旒	-12.0039
郾城	-12.0041
源流	-12.0043
法駕	-12.0043
汎舟	-12.0043
下牢	-12.0044
萬類	-12.0045
杉松	-12.0045
六品	-12.0045
屏營	-12.0046
先皇	-12.0046
萬井	-12.0046
夢符曰按	-12.0046
勲庸	-12.0046
蕭本作	-12.0047
左掖	-12.0048
名姓	-12.0048
謝惠連詩	-12.005
髙士傳	-12.0051
啼猿	-12.0051
隱几	-12.0052
諌議	-12.0052
鬱陶	-12.0054
井絡	-12.0054
鶴鳴	-12.0055
龍吟	-12.0055
文墨	-12.0055
翕然	-12.0057
贈韋	-12.0057
富春	-12.0058
安寧	-12.0059
詩大雅	-12.006
淮南子云	-12.0063
考績	-12.0063
裴均	-12.0064
戎衣	-12.0066
舟車	-12.0067
太祝	-12.0068
耿光	-12.0069
綵雲	-12.0071
分閫	-12.0073
望之如	-12.0076
貶官	-12.0078
赦書	-12.0081
博望	-12.0084
早晩	-12.0091
百八十	-12.0093
笙竽	-12.0093
李嶠	-12.0097
凌波	-12.0099
碧雞	-12.01
聲律	-12.0101
細栁	-12.0101
了無	-12.0102
至成都	-12.0107
蒼黄	-12.0108
斬首	-12.0108
異端	-12.0111
禽鳥	-12.0113
殊私	-12.0114
希聲	-12.0114
離亂	-12.0115
千巖	-12.012
者不過	-12.012
勒銘	-12.0123
徴拜	-12.0123
而不顧	-12.0124
激切	-12.0124
烟波	-12.0127
佳士	-12.0131
右補闕	-12.0133
東魯	-12.0135
終篇	-12.0135
玉座	-12.0135
房杜	-12.0136
劒門	-12.0136
也〇師曰	-12.0141
關塞	-12.0141
澹然	-12.0143
當是大厯	-12.0145
王畿	-12.0147
又一首	-12.0148
荆榛	-12.0149
宿衛	-12.015
收拾	-12.0152
叅謀	-12.0153
人之情	-12.0153
北虜	-12.0153
白茅	-12.0153
削成	-12.0172
傑出	-12.0173
造化之	-12.0174
姓氏	-12.0176
年冬作	-12.0178
驤	-12.0183
海嶠	-12.0185
玼	-12.0187
百司	-12.0187
枻	-12.0187
固辭	-12.0188
劉昫唐書	-12.0189
李太白集分類補註巻	-12.0192
璀	-12.0192
武元衡	-12.0194
賒	-12.0196
鎰	-12.0196
彷彿	-12.0196
國子監	-12.0198
芙蕖	-12.0198
磊	-12.0199
奎	-12.0199
彝	-12.0199
駙馬都尉	-12.02
枕簟	-12.02
纇	-12.02
旁求	-12.02
萬靈	-12.02
經旬	-12.0201
晰	-12.0201
承嗣	-12.0201
吿	-12.0202
鞲	-12.0202
紲	-12.0202
姒	-12.0202
渺渺	-12.0202
觀察判官	-12.0202
甖	-12.0203
鎛	-12.0203
媵	-12.0204
璟	-12.0204
詘	-12.0204
短歌行	-12.0205
矛㦸	-12.0206
榱	-12.0206
八哀詩	-12.0206
醍醐	-12.0206
淒涼	-12.0207
簫韶	-12.0207
掩扉	-12.0207
朱亥	-12.0207
衆芳	-12.0208
雁行	-12.0208
九垓	-12.0208
蘅	-12.0209
尢	-12.0209
無賴	-12.0209
蒼舒曰	-12.021
槧	-12.021
莫惜	-12.0212
顚倒	-12.0213
沍	-12.0213
銀印	-12.0214
需	-12.0214
劉歆	-12.0215
避難	-12.0217
東川節度使	-12.0219
成式	-12.0219
旰食	-12.022
戎車	-12.0221
悄然	-12.0221
有者字	-12.0222
緇衣	-12.0222
蕪没	-12.0223
太平公主	-12.0223
端拱	-12.0223
安祿山	-12.0223
炎洲	-12.0226
杭州刺史	-12.023
蟠木	-12.0231
四品	-12.0234
姦邪	-12.0235
湘夫人	-12.0236
帳殿	-12.0236
竹竿	-12.0236
門戸	-12.0238
元凱	-12.0239
天壇	-12.024
冊命	-12.0243
外甥	-12.0243
七曜	-12.0248
洪河	-12.0249
神祇	-12.0249
七歲	-12.025
李北海	-12.0254
句踐	-12.0254
佇立	-12.0257
十二載	-12.026
等閑	-12.0261
竭力	-12.0261
賦斂	-12.0262
李紳	-12.0263
竒怪	-12.0263
猛士	-12.0266
姑射	-12.0269
渡頭	-12.027
曹叅軍	-12.0271
晨興	-12.0272
孔門	-12.0273
鳥啼	-12.0274
細柳	-12.0276
左思詩	-12.0277
宦官	-12.0278
梁父	-12.0279
王司馬	-12.0282
漢明帝	-12.0283
無奈	-12.0285
簡易	-12.0285
坐卧	-12.0286
石鼓	-12.0291
楚越	-12.0295
寫真	-12.0295
夢符曰	-12.0296
羸馬	-12.0297
七十餘	-12.0299
聖功	-12.0303
歸未得	-12.0305
晋語	-12.0305
氏墓誌銘	-12.0306
月十一日	-12.0311
烏啼	-12.0312
征途	-12.0313
耕切	-12.0319
射洪	-12.032
削平	-12.032
光宅	-12.0326
伏承	-12.0328
不渝	-12.0329
市中	-12.033
經費	-12.0331
撥亂	-12.0336
固不可	-12.0337
秋風起	-12.0339
臨軒	-12.0343
龍伯	-12.0346
立碑	-12.0352
衰容	-12.0354
絶境	-12.0355
遥遥	-12.0357
貞節	-12.0359
維摩詰	-12.0362
仙郎	-12.0362
舠	-12.0365
侍讀	-12.0366
錦衣	-12.0366
蓮葉	-12.0366
黄鶴編在	-12.0367
盧照隣	-12.0369
妒	-12.0369
㽔	-12.0369
儲胥	-12.037
月十二日	-12.0371
寨	-12.0371
的的	-12.0372
溝洫	-12.0374
善屬文	-12.0374
宕	-12.0375
戊戌	-12.0375
瀕	-12.0375
鉅鹿	-12.0376
眇眇	-12.0376
伍子胥	-12.0377
偵	-12.0377
癸酉	-12.0377
帔	-12.0377
雇	-12.0378
録事參軍	-12.0378
皺	-12.0379
寒沙	-12.0379
呪	-12.0379
球	-12.0381
癭	-12.0381
瓮	-12.0381
揮毫	-12.0381
樊宗師	-12.0381
明光殿	-12.0381
欻	-12.0382
惶懼	-12.0382
傴	-12.0384
河南少尹	-12.0384
埒	-12.0384
南鄰	-12.0384
爾雅翼	-12.0384
爾曹	-12.0384
菡蓞	-12.0385
亷頗	-12.0385
頡利	-12.0386
褒斜	-12.0386
綫	-12.0387
毛遂	-12.0387
陷賊	-12.0387
骼	-12.0388
劇孟	-12.0388
麽	-12.0388
彌綸	-12.0388
雍録	-12.0388
太子太師	-12.0389
衛霍	-12.039
萱草	-12.0391
奄忽	-12.0392
征戰	-12.0393
釣竿	-12.0393
肅穆	-12.0393
蟬鳴	-12.0393
師古註	-12.0394
擊鼓	-12.0394
后妃	-12.0396
癸巳	-12.0398
奴僕	-12.0399
紛紜	-12.0401
禮部員外郎	-12.0401
月十八日	-12.0402
延頸	-12.0402
釣翁	-12.0403
無一字	-12.0404
滋味	-12.0405
片石	-12.0408
執熱	-12.041
事迹	-12.041
紫禁	-12.0413
眷屬	-12.0414
栢梁	-12.0415
溟海	-12.0416
不羈	-12.0416
刀切	-12.0417
服䖍曰	-12.0421
赤松子	-12.0422
事見前巻	-12.0426
湘川	-12.0427
五斗	-12.0427
瓊枝	-12.0429
麝香	-12.043
詔賜	-12.0432
過隙	-12.0439
火焚	-12.0439
方從閣杭	-12.0439
興廢	-12.044
帳下	-12.044
敬宗	-12.0442
匠石	-12.0442
荒城	-12.0444
舒州	-12.0447
未了	-12.0447
走筆	-12.0448
負荷	-12.0448
雕龍	-12.0449
月六日	-12.0449
王濬	-12.0451
其為人	-12.0453
巴江	-12.0453
一隻	-12.0455
燈火	-12.0456
左司	-12.0457
黄鍾	-12.0458
儼然	-12.046
雅頌	-12.0464
登樓賦	-12.0464
潮本	-12.0472
栁氏	-12.0476
人呼為	-12.0477
注見前	-12.0477
月十九日	-12.0478
州刺史充	-12.0483
㡬日	-12.0484
望鄉	-12.0484
億萬	-12.0485
秦嶺	-12.0487
嵩丘	-12.0488
沈吟	-12.0488
臣謬	-12.0489
炎帝	-12.0493
永叔	-12.0494
将士	-12.0495
爾雅釋	-12.0496
予嘗	-12.05
坐禪	-12.05
龎公	-12.0502
孝敬	-12.0502
省試	-12.0504
未見其	-12.0504
百頃	-12.0506
但覺	-12.0507
垂淚	-12.0507
惠帝	-12.051
臣妾	-12.0511
千牛	-12.0512
區中	-12.0512
布政	-12.0512
湖廣	-12.0513
烏孫	-12.0513
漳水	-12.0517
操舟	-12.0517
方輿	-12.052
嵗次	-12.0521
見底	-12.0521
詩有云	-12.0522
戰功	-12.053
廣川	-12.053
貂蟬	-12.0532
月四日	-12.0534
甘州	-12.0535
李陵書	-12.0536
酒旗	-12.0539
集目録	-12.054
鸚鵡賦	-12.054
朱瀚曰	-12.0543
裋	-12.0544
網罟	-12.0545
騄	-12.0545
朱夏	-12.0545
自敘	-12.0546
薄俗	-12.0546
郃	-12.0547
壬午	-12.0547
颭	-12.0547
荣	-12.0548
鐙	-12.055
抹	-12.055
㪅	-12.055
鮐	-12.0551
緼	-12.0552
寗	-12.0552
廣絶交論	-12.0552
娉婷	-12.0553
嗅	-12.0553
鄜坊	-12.0553
阮嗣宗	-12.0553
陞	-12.0554
寗戚	-12.0555
王右丞集箋注巻	-12.0555
謹録奏聞	-12.0555
漢武故事	-12.0556
徐知道	-12.0556
墠	-12.0556
秔	-12.0557
髫	-12.0558
剸	-12.0558
司議郎	-12.0558
滇	-12.0558
麏	-12.0559
蚊蚋	-12.0559
箆	-12.0559
客舍	-12.0559
莢	-12.0559
掞	-12.056
踉	-12.056
捐軀	-12.056
顧盻	-12.0561
羈旅	-12.0562
河西尉	-12.0562
鯿	-12.0562
嫓	-12.0562
連珠	-12.0563
桉	-12.0563
蜻蜓	-12.0563
筴	-12.0563
權載之文集卷	-12.0564
下邽	-12.0564
蚕	-12.0565
女嫁	-12.0565
特異	-12.0565
党項	-12.0567
趄	-12.0569
採桑	-12.0569
西川節度使	-12.0571
惣	-12.0571
湛盧	-12.0572
區宇	-12.0573
銀燭	-12.0573
渭川	-12.0578
甲辰	-12.0578
鴻飛	-12.0579
綺麗	-12.0582
楚辝	-12.0583
斥逐	-12.0583
牛相公	-12.0585
西南夷	-12.0586
所冝	-12.0588
吕后	-12.0588
歴歴	-12.059
庶㡬	-12.0592
郭璞註	-12.0592
入冦	-12.0593
著述	-12.0597
将何	-12.0597
芝田	-12.0599
貞元十四年	-12.06
康莊	-12.0601
横吹	-12.0602
堯典	-12.0602
柳氏	-12.0603
渭陽	-12.0606
江岸	-12.0609
哀傷	-12.061
泫然	-12.0611
金罍	-12.0614
栁枝	-12.0622
王摩詰	-12.0623
辛未	-12.0626
超越	-12.0628
昌運	-12.0629
圖經云	-12.0629
州刺史兼御史中丞	-12.063
百一十	-12.0632
憲府	-12.0633
篋中	-12.0635
東岳	-12.0635
權勢	-12.0639
貞元二十年	-12.0652
九州之	-12.0659
虎溪	-12.0662
叔卿	-12.0662
緑珠	-12.0663
兩崖	-12.0664
旬月	-12.0664
烟火	-12.0664
精微	-12.0665
伯禽	-12.0668
王昭君	-12.067
九疑山	-12.0678
寳應元	-12.0678
陸士	-12.0684
黒色	-12.0684
蘇州刺史	-12.0686
鮑明逺詩	-12.0687
無咎	-12.0692
百九十	-12.0694
萬機	-12.0694
神䇿	-12.0694
主司	-12.0694
脫身	-12.0696
月十日	-12.0704
呼韓	-12.0705
季秋	-12.0709
駿奔	-12.0712
失勢	-12.0715
萬福	-12.0718
將何以	-12.0721
郊外	-12.0721
適越	-12.0721
陳子昻	-12.0722
朓	-12.0722
胡夏客曰	-12.0726
座上	-12.0727
睆	-12.0728
輜	-12.0729
五松山	-12.073
闍	-12.073
吕延濟註	-12.0731
玳	-12.0731
秣陵	-12.0731
酎	-12.0731
醑	-12.0732
魚袋	-12.0733
宛然	-12.0733
杇	-12.0734
赫然	-12.0734
鞘	-12.0734
縊	-12.0735
四愁詩	-12.0735
嘉蔬	-12.0735
摐	-12.0735
謂此也	-12.0735
纚	-12.0735
蔭	-12.0736
裵	-12.0736
嬙	-12.0736
惚	-12.0736
工部侍郎	-12.0737
娟	-12.0737
崟	-12.0738
駸駸	-12.0738
繻	-12.0738
漂蕩	-12.0738
篋笥	-12.0739
橡	-12.0739
懣	-12.0739
渤澥	-12.0739
芊芊	-12.0739
棨	-12.074
咤	-12.074
肌骨	-12.074
元丹丘	-12.074
郄詵	-12.0741
値	-12.0741
蓁	-12.0741
沄沄	-12.0742
湎	-12.0742
廵狩	-12.0742
建中元年	-12.0743
毫髪	-12.0743
婚嫁	-12.0743
太子少傅	-12.0743
熨	-12.0743
萋	-12.0744
袪	-12.0744
促促	-12.0744
豗	-12.0744
祕書省	-12.0744
粃	-12.0745
遁逃	-12.0746
束縛	-12.0746
洶	-12.0749
橘洲	-12.075
月七日	-12.0752
捧日	-12.0757
異物志	-12.0758
金華山	-12.076
匡衡	-12.076
徳裕	-12.0761
仰觀	-12.0762
忘筌	-12.0762
宣力	-12.0763
拜監察御史	-12.0763
秉筆	-12.0765
塞垣	-12.0766
貝葉	-12.0768
裴令公	-12.0769
傅說	-12.0769
鷹揚	-12.077
支體	-12.0774
松蘿	-12.0775
酌酒	-12.0777
曹子建詩	-12.0778
何以知	-12.0779
灌口	-12.0781
壯夫	-12.0783
倒懸	-12.0785
黄霸	-12.0785
季安	-12.0786
桐葉	-12.0787
楊妃	-12.0788
變態	-12.079
摭言	-12.0792
貞元元年	-12.0794
齊桓公	-12.0794
釣舟	-12.0795
二十餘年	-12.0796
湛然	-12.0804
域中	-12.0804
西齋	-12.0806
孫曰禮記	-12.0809
秦昭王	-12.081
恬然	-12.0811
丁未	-12.082
嘉魚	-12.0821
為人所	-12.0826
懇誠	-12.0827
臘月	-12.0829
鍾離	-12.083
庫部	-12.0832
晉文公	-12.0834
臺省	-12.0836
手詔	-12.0838
道不行	-12.0839
導江	-12.0842
牧羊	-12.0844
閣本無	-12.0845
㝷常	-12.0848
兒孫	-12.0849
汗馬	-12.085
刻畫	-12.0853
▁謝朓詩	-12.0862
叔度	-12.0875
洗耳	-12.088
閈	-12.0889
余嘗	-12.0892
當从	-12.0893
舟航	-12.0895
再造	-12.0896
楓林	-12.0897
船頭	-12.0898
金湯	-12.0899
請罪	-12.0899
裁成	-12.0902
臣子之	-12.0904
北户	-12.0907
二百里	-12.0909
宣武軍	-12.091
家住	-12.0913
陌上桑	-12.0914
鋏	-12.0914
表臣某言臣	-12.0914
佺	-12.0916
犍	-12.0916
班固西都賦	-12.0917
㝛	-12.0917
盧思道	-12.0918
喉舌	-12.0918
讋	-12.0919
枹	-12.092
撾	-12.092
薺	-12.0921
忖	-12.0921
接䍦	-12.0921
厺	-12.0922
秦穆公	-12.0923
貞元十七年	-12.0923
鵷鷺	-12.0923
▁師云	-12.0924
瞀	-12.0924
勍	-12.0924
鬯	-12.0924
衽	-12.0925
滑稽	-12.0925
殉	-12.0925
勗	-12.0926
聀	-12.0926
拘束	-12.0926
段子璋	-12.0927
天寳十五載	-12.0927
褁	-12.0927
崔光逺	-12.0928
毉	-12.0928
嗜慾	-12.0928
御史府	-12.0928
甲寅	-12.0929
綈	-12.0929
貞元初	-12.093
落第	-12.093
樊籠	-12.093
孤嶼	-12.0931
爼豆	-12.0931
离	-12.0931
搦	-12.0931
杓直	-12.0932
澹蕩	-12.0933
馹	-12.0933
罪戾	-12.0934
誠懇	-12.0935
坳	-12.0935
之類是也	-12.0939
庭闈	-12.0941
泰階	-12.0941
門之外	-12.0943
朱邸	-12.0945
瑤池	-12.0946
宸極	-12.0947
盤桓	-12.0947
田疇	-12.0948
本根	-12.0948
氣衝	-12.0948
湯湯	-12.0948
東流水	-12.095
虎穴	-12.0951
鄉黨	-12.0952
末段	-12.0952
諷諭	-12.0952
備物	-12.0955
悲辛	-12.0956
曰寡人	-12.0956
苑粹	-12.0959
羽林軍	-12.0959
頃刻	-12.096
洙曰天台賦	-12.0963
涼州	-12.0963
禁掖	-12.0963
鴻私	-12.0965
何患	-12.0966
莫測	-12.0968
韓吏部	-12.0969
倒影	-12.0971
宿松	-12.0972
悽然	-12.0975
寓目	-12.0976
翻覆	-12.0977
丁寧	-12.098
槐花	-12.0981
第宅	-12.0983
江濵	-12.0985
梁冀	-12.0986
之生也	-12.0986
宰輔	-12.0995
一百二十	-12.0996
漸漸	-12.0996
白兎	-12.1
儀曹	-12.1
朱鳥	-12.1005
光芒	-12.1007
鴻業	-12.1007
漸覺	-12.1008
投筆	-12.1009
箕子	-12.1015
府庫	-12.1017
揮金	-12.1019
沈宋	-12.102
遇害	-12.1023
時所作	-12.1023
▁陶潛詩	-12.1026
敬亭山	-12.1027
哀號	-12.1028
題壁	-12.1029
南塘	-12.1031
岐陽	-12.1032
盛貌	-12.1034
帝京	-12.1037
脱身	-12.1037
壁記	-12.1042
司户	-12.1042
伏誅	-12.1051
徽音	-12.1053
踰年	-12.1057
濁酒	-12.1064
森然	-12.1064
乘興	-12.1064
金縷	-12.1069
不自知	-12.1071
䧟賊	-12.1075
嘉陵	-12.1077
急管	-12.1087
數千人	-12.1088
晦明	-12.1088
青泥	-12.109
无之字	-12.1097
王子喬	-12.1099
古今註	-12.1099
動靜	-12.11
考工記	-12.11
左金吾衛	-12.1101
張公子	-12.1101
墓志	-12.1101
短衣	-12.1102
張正見詩	-12.1103
此詩當是	-12.1103
鵜	-12.1104
顧愷之	-12.1104
菰米	-12.1105
阪	-12.1106
過秦論	-12.1106
杜氏通典	-12.1106
磷緇	-12.1107
金鑾殿	-12.1107
龜龍	-12.1107
五言律詩	-12.1108
張孟陽	-12.1108
栝	-12.1108
孔叢子	-12.1108
搥	-12.1109
㣧	-12.1109
婉孌	-12.1109
穹廬	-12.1109
公孫𢎞	-12.111
涅	-12.111
竟誰	-12.111
鏑	-12.111
壃	-12.111
鱸	-12.1111
祁連	-12.1111
俛仰	-12.1112
郇	-12.1112
渥洼	-12.1112
簣	-12.1113
都知兵馬使	-12.1113
酒肆	-12.1115
蝥	-12.1115
廣德元	-12.1115
衛玠	-12.1115
戸部尚書	-12.1116
肸蠁	-12.1116
鐘聲	-12.1116
丙申	-12.1117
太常少卿	-12.1117
齕	-12.1117
茆	-12.1119
栱	-12.1119
狠	-12.1121
徙居	-12.1121
緑蘿	-12.1123
辛酉	-12.1124
元和十三年	-12.1124
緌	-12.1126
丙辰	-12.1126
織錦	-12.1129
枉渚	-12.113
劉楨詩	-12.1133
愁殺人	-12.1133
炎凉	-12.1135
玄圃	-12.1135
無媿	-12.1136
清芬	-12.1136
府君墓誌銘	-12.1136
微茫	-12.1138
十八里	-12.1138
六韜	-12.1138
月二十日	-12.1138
捕魚	-12.114
重譯	-12.1142
封豕	-12.1143
燈燭	-12.1146
流鶯	-12.1146
筆墨	-12.1148
形體	-12.1149
隴水	-12.1149
臣等商量	-12.1149
巨川	-12.115
黄綬	-12.1152
傅説	-12.1153
鹽井	-12.1154
天寶中	-12.1155
自哂	-12.1155
成績	-12.1157
鸞鶴	-12.1157
彭祖	-12.1158
月十六日	-12.1159
可檢校	-12.1164
衛尉	-12.1166
櫟陽	-12.1171
滎陽公	-12.1172
單車	-12.1175
庾肩吾詩	-12.1175
園陵	-12.1175
北伐	-12.1176
季弟	-12.1177
醉飽	-12.1177
輔國	-12.1181
遥想	-12.1182
㑹稽山	-12.1183
曹劉	-12.1184
趙云上句言	-12.1187
三十餘年	-12.1187
赴行在	-12.1188
饑寒	-12.1189
夷險	-12.119
▁何遜詩	-12.1199
離恨	-12.12
揚波	-12.12
橋陵	-12.1202
莫嫌	-12.1204
藏器	-12.121
不可攀	-12.1214
等制勑	-12.1216
雍容	-12.1217
溝水	-12.1225
生羽翼	-12.1226
百執事	-12.1226
太微	-12.1226
霧雨	-12.1227
循良	-12.1227
華髪	-12.1232
仁夀	-12.1233
檢校工部尚書	-12.1234
竟未	-12.1236
手筆	-12.1239
湘浦	-12.1241
管寧	-12.1247
每歲	-12.1251
引領	-12.1255
種種	-12.1256
徐孺	-12.1258
抑亦	-12.1258
勵精	-12.1259
因以名	-12.1263
宦情	-12.1269
根源	-12.127
服藥	-12.1276
在雲安	-12.1276
千里之外	-12.1278
劌	-12.1278
山南西道	-12.1281
向秀	-12.1284
無人知	-12.1285
陳蔡	-12.1286
胡沙	-12.1288
李員外	-12.129
浣紗	-12.129
習池	-12.129
申涵光曰	-12.1292
辛卯	-12.1292
去声	-12.1293
十二里	-12.1293
木華海賦	-12.1294
風帆	-12.1295
蝦蟆	-12.1296
漢武内傳	-12.1296
葅	-12.1296
括地志	-12.1297
巴渝	-12.1297
亹亹	-12.1297
魚鱗	-12.1298
高唐賦	-12.1299
簷前	-12.1299
琅琊	-12.1299
崿	-12.13
憬	-12.13
婉婉	-12.13
鑊	-12.1301
婚姻	-12.1301
靚	-12.1301
凑	-12.1301
丙寅	-12.1301
縣開國男	-12.1302
聊城	-12.1302
噭	-12.1302
忱	-12.1302
銅雀臺	-12.1303
蠻貊	-12.1303
嶄	-12.1303
蝮蛇	-12.1303
悱	-12.1303
良久	-12.1303
迓	-12.1303
㩦	-12.1303
匕首	-12.1303
沁	-12.1303
蓉	-12.1303
傚	-12.1304
潘岳詩	-12.1304
嫦娥	-12.1304
白鷴	-12.1305
噓	-12.1305
淅瀝	-12.1305
窳	-12.1305
狼藉	-12.1305
嵇叔夜	-12.1305
昌黎韓愈	-12.1306
襯	-12.1306
沚	-12.1307
騕褭	-12.1307
甸服	-12.1307
蜚	-12.1308
昩	-12.1308
浮蟻	-12.1309
恚	-12.1309
起居郎	-12.1309
賜緋	-12.1309
闔廬	-12.1309
虎賁	-12.1309
君子之道	-12.131
呻	-12.131
杌	-12.131
孝孫	-12.1311
熊虎	-12.1312
禎祥	-12.1312
膻	-12.1313
隂鏗	-12.1313
漢地理志	-12.1313
河湟	-12.1314
滲	-12.1314
炁	-12.1314
斚	-12.1314
丹陛	-12.1315
梏	-12.1316
壬戌	-12.1316
竇憲	-12.1317
永泰元	-12.1317
問津	-12.1318
擊柝	-12.1319
運籌	-12.1319
赬	-12.1319
冬十一月	-12.1322
金鑾	-12.1323
迴頭	-12.1324
教授	-12.1325
俊逸	-12.1328
洪崖	-12.1329
爵禄	-12.133
鴟夷子	-12.1331
冲天	-12.1331
斐然	-12.1333
趙飛燕	-12.1336
彼蒼	-12.1339
天寳末	-12.1342
所從來	-12.1342
迷津	-12.1343
巨細	-12.1344
干謁	-12.1345
孔安國傳	-12.1349
解脱	-12.135
金貂	-12.1351
韓𢎞	-12.1353
崖谷	-12.1354
斧斤	-12.1354
羣盗	-12.1357
商賈	-12.1362
諺曰	-12.1363
延壽	-12.1365
丹鳳	-12.1365
逺邇	-12.137
黯然	-12.1373
委質	-12.1378
寳劒	-12.1379
忌諱	-12.1379
昆吾	-12.1381
月二十二日	-12.1382
九品	-12.1385
儒服	-12.1385
和九年	-12.1388
携酒	-12.139
發憤	-12.1397
賔主	-12.1399
成一家	-12.1403
丁香	-12.1406
寳刀	-12.1407
斷續	-12.1407
郊園	-12.1407
陽翟	-12.1411
九華山	-12.1412
精衛	-12.1417
湛露	-12.1418
風飈	-12.1419
聖哲	-12.1422
精魂	-12.1426
謫仙人	-12.1427
四十韻	-12.1427
陸沉	-12.1428
次韻	-12.1437
牙齒	-12.1439
取捨	-12.1441
染翰	-12.1442
之謂乎	-12.1448
僉曰	-12.1448
西嶽	-12.1451
寒蟬	-12.1454
開元初	-12.1455
范氏	-12.1457
寒食日	-12.1457
孫曰史記	-12.1457
博物	-12.1467
渭城	-12.1473
洛師	-12.1474
閒吟	-12.1477
維摩	-12.148
裔孫	-12.148
漲海	-12.1482
旭日	-12.1482
嵩髙	-12.1487
吐谷渾	-12.1489
汸	-12.1489
溼	-12.1489
碧澗	-12.1489
撐	-12.149
章懐太子註	-12.1491
涿鹿	-12.1491
鏟	-12.1492
琖	-12.1493
陸倕	-12.1493
町	-12.1493
畯	-12.1493
若耶溪	-12.1494
氛埃	-12.1495
州大都督府長史	-12.1496
輶軒	-12.1496
傖	-12.1497
葑	-12.1497
猿狖	-12.1497
溶溶	-12.1497
孔戣	-12.1497
崪	-12.1497
哦	-12.1497
廷湊	-12.1498
畀	-12.1498
𫝊	-12.1498
韋執誼	-12.1498
癸亥	-12.1498
腆	-12.1498
𦦨	-12.1498
魯訔	-12.1499
㙜	-12.1499
琢磨	-12.1499
輿服志	-12.1499
糝	-12.1499
許孟容	-12.1499
挽歌詞	-12.1499
瀚海	-12.15
契濶	-12.15
崔宗之	-12.15
粢盛	-12.15
閴	-12.15
悽惻	-12.15
塌	-12.15
戊辰	-12.15
祟	-12.1501
黏	-12.1501
䙝	-12.1501
崙	-12.1501
鯢	-12.1501
鞦韆	-12.1502
赧	-12.1502
開元十三年	-12.1502
鐘磬	-12.1502
燀	-12.1502
莧	-12.1502
彷徨	-12.1502
長門賦	-12.1502
縢	-12.1503
裴延齡	-12.1503
熬	-12.1503
栁絮	-12.1503
勳	-12.1504
闉	-12.1504
邠寧	-12.1504
歈	-12.1505
凍餒	-12.1505
俎豆	-12.1505
淚痕	-12.1505
枸	-12.1505
倔	-12.1505
篡	-12.1505
厎	-12.1505
溝壑	-12.1505
騅	-12.1506
鄣	-12.1506
喔	-12.1506
雙燕	-12.1507
廣厦	-12.1507
培塿	-12.1507
鳬鷖	-12.1507
仡	-12.1508
耕桑	-12.1508
笠澤	-12.1508
嶁	-12.1509
縱橫	-12.1509
上林苑	-12.1509
楚襄王	-12.1509
譊	-12.151
雹	-12.1511
柘枝	-12.1511
袁宏	-12.1511
青嶂	-12.1511
竸	-12.1512
磁	-12.1513
陶冶	-12.1515
陷京師	-12.1516
楣	-12.1517
繩墨	-12.1517
為賊所	-12.1518
山之陽	-12.1519
二十八年	-12.152
毛氏	-12.152
殷浩	-12.152
遊俠	-12.1521
慶忌	-12.1522
窟宅	-12.1527
貞元末	-12.153
息機	-12.153
掩抑	-12.1532
蹈舞	-12.1532
紹述	-12.1532
歌謡	-12.1534
重陽日	-12.154
往来	-12.1544
許靖	-12.1545
薤露	-12.1545
原註	-12.1547
貞元九年	-12.1551
月二十八日	-12.1552
襲美	-12.1553
衰翁	-12.1554
童謡曰	-12.1554
賜紫	-12.1555
宗元白	-12.1556
青娥	-12.1557
哭泣	-12.1559
巖巖	-12.156
曙色	-12.1561
要津	-12.1562
金羈	-12.1565
孤帆	-12.1567
顯慶	-12.1569
天寶初	-12.157
玉輦	-12.1571
淮右	-12.1574
玉珂	-12.1575
舊注云	-12.1576
節鉞	-12.158
忠勤	-12.158
少傅	-12.1582
召試	-12.1582
王逸曰言	-12.1585
梁鴻	-12.1585
▁謝校	-12.1588
漢成帝	-12.1589
母儀	-12.159
趙曰指言	-12.159
上柱國賜紫金魚袋	-12.1591
啼鳥	-12.1593
千株	-12.1594
裴中丞	-12.1598
商旅	-12.1598
三十萬	-12.1599
同谷縣	-12.1602
宏詞	-12.161
流寓	-12.1616
寫景	-12.162
巡官	-12.1626
按唐史	-12.1638
昌期	-12.1642
馬相如	-12.1643
何以報	-12.1644
汴河	-12.1647
乾元元	-12.1648
韓曰選	-12.1652
音徽	-12.1655
紫燕	-12.1658
旌麾	-12.1659
鳯闕	-12.166
沛然	-12.1669
月二十一日	-12.167
愚溪	-12.1676
縣主簿	-12.1677
從此去	-12.1682
拾得	-12.1684
虯	-12.169
苓	-12.169
率由	-12.1691
逶	-12.1691
剝	-12.1691
蟪蛄	-12.1691
孳	-12.1692
朱滔	-12.1692
夏侯湛	-12.1692
榔	-12.1692
鞶	-12.1693
隩	-12.1693
彖	-12.1693
鄠杜	-12.1694
見螢火賦	-12.1694
未知孰是	-12.1695
蒼頡	-12.1695
𦂳	-12.1695
蹴踏	-12.1695
伶俜	-12.1695
乎對曰	-12.1695
蜘蛛	-12.1695
擿	-12.1697
簪纓	-12.1697
桺	-12.1698
犁	-12.1698
瑚璉	-12.1698
沾巾	-12.1698
暘谷	-12.1698
靨	-12.1699
幟	-12.1699
朱買臣	-12.1699
换	-12.1699
戰場	-12.1701
國史補	-12.1701
郅	-12.1701
蔥	-12.1701
豪俠	-12.1701
哲匠	-12.1702
蓬蓽	-12.1702
賾	-12.1703
沆	-12.1703
啁	-12.1703
灕	-12.1703
贊普	-12.1703
迤	-12.1703
蓬莱	-12.1703
璉	-12.1704
暑氣	-12.1704
受降城	-12.1704
纘	-12.1705
束帛	-12.1705
𥜗	-12.1705
孑	-12.1706
畊	-12.1706
霊	-12.1706
薜荔	-12.1707
𫐠	-12.1708
纆	-12.1708
嚴綬	-12.1708
版築	-12.1708
涕零	-12.1709
郯子	-12.1712
煩促	-12.1715
捐館	-12.1716
巍然	-12.1718
無礙	-12.1718
天寶末	-12.172
河中府	-12.172
螽	-12.172
霜霰	-12.1721
葛巾	-12.1722
殺戮	-12.1723
徔	-12.1724
乾元初	-12.1725
乘輿	-12.1726
粉署	-12.1727
宸嚴	-12.1727
循吏	-12.1732
十有七	-12.1732
鵾雞	-12.1732
英俊	-12.1734
鷄鳴	-12.1735
温湯	-12.1736
顔師古注	-12.1737
李勉	-12.1737
凌晨	-12.1738
紅袖	-12.1738
逝川	-12.174
銷魂	-12.1741
荒涼	-12.1743
典謨	-12.1744
尉遲	-12.1745
他郷	-12.1746
三黜	-12.1746
希逸	-12.1748
贈工部尚書	-12.1749
初筵	-12.1751
掉頭	-12.1751
趨走	-12.1751
蕙草	-12.1752
盤根	-12.1755
太原府	-12.1757
許慎	-12.1758
節度副使	-12.1759
結束	-12.176
忠勇	-12.1763
孟母	-12.1763
輕肥	-12.1764
贇曰	-12.177
子昂	-12.1772
盤谷	-12.1773
文苑英華作	-12.1774
胡虜	-12.1774
丹鳯	-12.1775
棲息	-12.1778
鄒陽傳	-12.1778
披沙	-12.1782
龍蟠	-12.1782
置驛	-12.1787
儒冠	-12.1793
嗜欲	-12.1794
涇水	-12.1795
二年正月	-12.1796
赴京	-12.1796
翰林院	-12.1808
河隴	-12.1809
衣襟	-12.181
漢書武帝	-12.1811
稀少	-12.1815
道中作	-12.1815
辟易	-12.1817
靈龜	-12.182
温良	-12.1823
[...]
