<unk>	0
<s>	0
</s>	0
/	-3.68974
也	-4.05914
之	-4.10772
(	-4.33391
而	-4.37042
)	-4.37913
)(	-4.42909
以	-4.56347
者	-4.95615
為	-5.02713
則	-5.14334
其	-5.14862
故	-5.25054
曰	-5.28643
有	-5.36799
不	-5.38106
於	-5.45026
矣	-5.68162
于	-5.68923
公	-5.77697
是	-5.80056
與	-5.80508
子	-5.81238
無	-5.88181
言	-5.93838
人	-5.96861
書	-5.97051
此	-5.97611
晉	-5.97897
自	-5.99501
使	-6.00806
皆	-6.02163
大	-6.03243
非	-6.0387
在	-6.04483
齊	-6.04597
諸侯	-6.08702
乎	-6.09001
楚	-6.10732
魯	-6.15619
▁	-6.19407
反	-6.20973
傳	-6.21428
至	-6.22655
亦	-6.23005
又	-6.23666
鄭	-6.23787
,	-6.2475
及	-6.25377
一	-6.26364
君	-6.26594
謂	-6.28503
注	-6.29051
王	-6.29633
見	-6.32317
國	-6.35541
宋	-6.35609
事	-6.40203
焉	-6.40397
今	-6.43224
如	-6.44563
乃	-6.46055
○	-6.47789
春秋	-6.48155
卒	-6.5131
三	-6.53487
大夫	-6.54426
已	-6.54858
所	-6.56184
然	-6.56909
同	-6.58288
云	-6.58564
將	-6.59106
㑹	-6.60104
爲	-6.60258
必	-6.6047
得	-6.61009
盟	-6.61022
二	-6.63788
禮	-6.65048
立	-6.65484
若	-6.65574
雖	-6.66315
遂	-6.66972
何	-6.679
從	-6.69415
名	-6.69653
經	-6.69653
成	-6.70092
氏	-6.72239
復	-6.73069
師	-6.73475
欲	-6.74192
時	-6.74472
。	-6.74598
出	-6.74643
正	-6.75071
下	-6.77577
上	-6.78299
陳	-6.78435
行	-6.78648
入	-6.78776
殺	-6.80097
始	-6.8024
歸	-6.8071
城	-6.82222
以為	-6.8279
文	-6.82945
夏	-6.83347
當	-6.84665
既	-6.86033
衛	-6.86327
即	-6.8697
取	-6.89048
知	-6.90798
作	-6.91677
後	-6.91865
猶	-6.92785
未	-6.92871
地	-6.92984
臣	-6.93329
稱	-6.93955
夫	-6.94049
四	-6.94795
伐	-6.94968
用	-6.9515
音	-6.97006
義	-6.98588
周	-6.99663
杜	-6.99772
年	-7.00228
五	-7.00508
明	-7.01674
耳	-7.01765
或	-7.02114
我	-7.02755
先	-7.03159
相	-7.03266
日	-7.04237
小	-7.0475
命	-7.04987
秋	-7.07131
不書	-7.07272
所以	-7.08364
可	-7.08368
伯	-7.08642
且	-7.09027
冬	-7.09124
不能	-7.09629
惡	-7.09986
外	-7.10377
本	-7.11029
生	-7.11151
執	-7.12326
諸	-7.1351
因	-7.13573
實	-7.13628
來	-7.13745
哉	-7.14136
請	-7.14474
葬	-7.15454
秦	-7.17807
能	-7.18498
中	-7.19587
不可	-7.19645
六	-7.19973
内	-7.2012
主	-7.20187
而不	-7.2065
罪	-7.21629
民	-7.21703
凡	-7.2265
死	-7.2273
天子	-7.22858
服	-7.22895
吳	-7.23211
朝	-7.244
亂	-7.2444
天	-7.24917
音義	-7.25271
縣	-7.25614
疏	-7.2634
邑	-7.26342
公子	-7.28022
重	-7.30456
兵	-7.31074
辭	-7.31594
蓋	-7.31965
平	-7.32406
父	-7.32872
固	-7.33098
字	-7.33313
蔡	-7.33445
衞	-7.33471
夫人	-7.34068
謀	-7.34121
切	-7.34396
道	-7.34593
去	-7.34774
吾	-7.35057
世	-7.35256
滅	-7.35858
桓公	-7.36157
左氏	-7.36324
失	-7.36603
會	-7.36686
左傳	-7.368
定	-7.37388
居	-7.3805
爾	-7.38331
多	-7.38468
月	-7.39927
紀	-7.40126
戰	-7.40614
許	-7.40715
曹	-7.41884
合	-7.4198
九	-7.41987
方	-7.42433
齊侯	-7.43645
七	-7.43856
敗	-7.4563
告	-7.45988
心	-7.46369
是也	-7.46611
晉侯	-7.46625
志	-7.46645
/)	-7.46689
致	-7.47192
春	-7.48115
者也	-7.49084
桓	-7.49203
陽	-7.49813
受	-7.50069
初	-7.50697
終	-7.51336
十	-7.52399
親	-7.53372
侯	-7.54217
盖	-7.54373
意	-7.55185
八	-7.55188
而後	-7.5537
逆	-7.55465
過	-7.56005
善	-7.56319
呉	-7.56324
)○	-7.56994
鄭伯	-7.57173
水	-7.57796
弑	-7.58376
前	-7.58722
求	-7.58869
通	-7.5954
討	-7.60404
納	-7.61059
衆	-7.61366
難	-7.61464
不得	-7.61913
邾	-7.62126
易	-7.62203
聖人	-7.62246
例	-7.62356
分	-7.62393
舉	-7.62426
祭	-7.62506
公羊	-7.62992
門	-7.63652
楚子	-7.63863
惟	-7.64147
州	-7.64541
不言	-7.65404
食	-7.65537
葢	-7.65999
亡	-7.66129
▁(	-7.66382
屬	-7.66434
長	-7.66974
樂	-7.66994
安	-7.67008
女	-7.67238
信	-7.6728
奔	-7.68367
謂之	-7.68729
田	-7.68777
盡	-7.69089
東	-7.69375
山	-7.69582
莊公	-7.69686
數	-7.69806
狄	-7.6995
之後	-7.70039
南	-7.7023
戎	-7.7061
異	-7.70716
文公	-7.71182
次	-7.71804
正義曰	-7.72097
令	-7.72131
林	-7.72329
救	-7.72704
士	-7.73005
獨	-7.73192
彼	-7.73808
比	-7.7394
甚	-7.74145
中國	-7.74146
兩	-7.7522
所謂	-7.75514
之事	-7.75589
喪	-7.76319
豈	-7.76636
昭公	-7.76986
官	-7.76999
説	-7.77059
說	-7.77138
卿	-7.77477
止	-7.77491
近	-7.77594
車	-7.77756
徳	-7.78156
位	-7.78599
古	-7.78612
圍	-7.78845
法	-7.78937
常	-7.79303
據	-7.79741
朔	-7.79987
家	-7.80387
莒	-7.80605
制	-7.80702
力	-7.80745
按	-7.80828
而已	-7.80877
逺	-7.81765
共	-7.82292
直	-7.82455
三年	-7.8319
聘	-7.83385
但	-7.83397
獲	-7.83624
守	-7.83907
史	-7.83971
元	-7.84101
宜	-7.84334
叔	-7.84629
僖公	-7.84769
齊人	-7.8477
伐鄭	-7.85752
昭	-7.85808
将	-7.85826
越	-7.86202
治	-7.86286
政	-7.86416
觀	-7.86505
疑	-7.86599
貶	-7.86802
軍	-7.87403
尊	-7.87429
武	-7.87545
案	-7.87687
夷	-7.87713
起	-7.8828
是以	-7.88812
問	-7.88906
不知	-7.89967
懼	-7.90111
天下	-7.90171
廢	-7.90842
還	-7.90863
聞	-7.90938
嘗	-7.91039
著	-7.91048
處	-7.91053
孫	-7.91245
别	-7.91452
之罪	-7.9152
、	-7.91978
備	-7.9215
遷	-7.92483
楚人	-7.92623
封	-7.9274
左	-7.93358
西	-7.93991
於是	-7.94208
由	-7.94388
何也	-7.9449
加	-7.94756
叛	-7.95171
物	-7.95319
諱	-7.9544
即位	-7.95653
不敢	-7.95817
齊桓	-7.96217
德	-7.96237
序	-7.9741
好	-7.97438
襄公	-7.98047
再	-7.98131
召	-7.98498
扵	-7.99001
侵	-7.9901
衛侯	-7.99097
譏	-7.99365
適	-7.99727
唯	-7.99743
北	-7.99836
克	-7.99953
專	-8.0069
强	-8.00754
利	-8.01143
之禮	-8.02063
元年	-8.02064
不以	-8.02304
世子	-8.02391
弟	-8.02568
災	-8.02666
孔子	-8.03154
存	-8.0355
間	-8.03905
往	-8.03925
身	-8.04002
變	-8.04187
興	-8.04369
少	-8.0468
己	-8.04856
之義	-8.04967
母	-8.05065
解	-8.05166
敵	-8.06153
晉人	-8.06372
可以	-8.0641
季	-8.07067
三月	-8.07327
絶	-8.07736
季氏	-8.07801
出奔	-8.07813
責	-8.07963
深	-8.08075
誅	-8.08349
郊	-8.08406
益	-8.08802
怨	-8.08809
改	-8.08944
之意	-8.08966
之子	-8.09093
𫝊	-8.09143
晋	-8.09511
馬	-8.09819
故曰	-8.10147
其君	-8.10268
十年	-8.10434
五年	-8.1074
功	-8.10914
疾	-8.10952
舍	-8.10957
漢	-8.11255
首	-8.11616
二年	-8.11923
正月	-8.12173
廟	-8.12633
棄	-8.12685
帥師	-8.12851
釋	-8.13124
闕	-8.13267
降	-8.13456
勝	-8.13508
新	-8.1357
如此	-8.13748
者何	-8.13824
論	-8.13891
何以	-8.13909
宣公	-8.14396
杞	-8.14473
虞	-8.14503
更	-8.14928
𦵏	-8.1502
殺之	-8.15273
詩	-8.15629
報	-8.15966
遇	-8.15985
为	-8.16202
弗	-8.16539
哀	-8.16633
交	-8.16742
聲	-8.16851
然則	-8.16993
故也	-8.1793
爵	-8.17935
特	-8.18184
至於	-8.18423
不與	-8.18428
也故	-8.19172
理	-8.1941
宣	-8.19504
成公	-8.19564
俱	-8.19742
仲	-8.19795
杜注	-8.19805
弱	-8.19887
申	-8.19926
盟于	-8.19979
奉	-8.20284
諸侯之	-8.2051
宋公	-8.20798
襄	-8.20806
君子	-8.21121
其事	-8.21283
八年	-8.21409
火	-8.21639
十二	-8.21747
〇	-8.21773
小國	-8.21836
應	-8.21922
賢	-8.21969
列	-8.22452
都	-8.23343
人之	-8.23881
獻	-8.2397
並	-8.24002
禮也	-8.24196
旣	-8.24585
祀	-8.24615
尚	-8.24933
書曰	-8.24975
来	-8.25235
視	-8.25307
四年	-8.25814
七年	-8.25907
私	-8.25937
宗	-8.26088
舊	-8.26303
他	-8.26413
禍	-8.26528
然後	-8.26537
發	-8.26681
考	-8.26816
彊	-8.2698
輕	-8.27527
貴	-8.27578
乗	-8.27673
姓	-8.27722
向	-8.27829
怒	-8.28038
隠	-8.28045
故書	-8.28368
乘	-8.28378
盛	-8.28901
假	-8.29073
傳曰	-8.29113
周公	-8.29212
髙	-8.29477
代	-8.29697
僖	-8.30005
卑	-8.30123
逐	-8.30139
權	-8.30312
進	-8.30381
卜	-8.30494
莊	-8.30582
黨	-8.30645
語	-8.30857
弑君	-8.30892
之言	-8.31196
甲	-8.31205
各	-8.31715
宫	-8.31872
:「	-8.32048
繼	-8.32334
䘮	-8.32397
望	-8.32497
修	-8.32647
爭	-8.32707
享	-8.32776
公孫	-8.32803
原	-8.33004
刑	-8.33081
霸	-8.33244
也注	-8.3325
畏	-8.33581
以其	-8.33586
示	-8.33612
帥	-8.33775
記	-8.33927
非也	-8.34155
未有	-8.34307
九年	-8.34321
餘	-8.34361
九月	-8.34461
十一	-8.34588
隱	-8.34702
臨	-8.34825
六年	-8.3505
賦	-8.35226
稱人	-8.35236
之盟	-8.35255
吴	-8.35838
太子	-8.36225
陵	-8.36348
要	-8.36356
恐	-8.3641
敢	-8.3675
土	-8.36829
誤	-8.37378
而書	-8.37593
丘	-8.37668
五月	-8.37719
賊	-8.37913
莫	-8.38062
計	-8.38075
張	-8.38096
害	-8.38193
和	-8.38283
敬	-8.3833
之間	-8.3841
憂	-8.385
國人	-8.38619
榖梁	-8.38679
等	-8.38792
傷	-8.38892
患	-8.3915
之所	-8.39239
天王	-8.39304
承	-8.39763
徒	-8.39842
未嘗	-8.39843
族	-8.39866
微	-8.39905
詳	-8.40036
同盟	-8.40213
度	-8.40271
置	-8.40416
危	-8.40566
禘	-8.41014
大國	-8.41704
司馬	-8.41733
順	-8.42119
左氏曰	-8.42164
祖	-8.42222
御	-8.42333
結	-8.42553
喜	-8.42747
苟	-8.42945
任	-8.43038
風	-8.4343
六月	-8.43863
待	-8.43892
役	-8.4417
神	-8.44321
濟	-8.44701
息	-8.44704
其罪	-8.44813
魯之	-8.44822
略	-8.44847
胡氏	-8.44923
嵗	-8.4499
也今	-8.45034
載	-8.45053
賜	-8.45228
徐	-8.45447
杜氏曰	-8.45535
章	-8.45715
梁	-8.45802
薨	-8.45814
非禮也	-8.46434
甚矣	-8.46459
姑	-8.4657
退	-8.46656
美	-8.46715
辟	-8.46765
似	-8.46895
忽	-8.46912
卷	-8.47131
之心	-8.47272
之辭	-8.47284
唐	-8.47401
來聘	-8.47434
黄	-8.47509
助	-8.4755
隂	-8.47711
免	-8.4778
隨	-8.4781
商	-8.47982
足	-8.48012
對曰	-8.48023
耶	-8.4832
附	-8.48394
不復	-8.49117
防	-8.49334
如晉	-8.49399
屈	-8.49467
二月	-8.49506
節	-8.4955
從之	-8.49644
况	-8.4972
左氏傳	-8.49744
十二月	-8.49756
威	-8.49809
季孫	-8.49825
衰	-8.5011
石	-8.50188
不當	-8.50206
河	-8.50324
星	-8.50641
氣	-8.51671
老	-8.51697
厚	-8.51766
動	-8.5178
之説	-8.51942
無所	-8.52304
惠	-8.52402
秋七月	-8.52457
光	-8.52477
推	-8.52609
帝	-8.52697
衞侯	-8.52701
夫子	-8.52717
之道	-8.52775
至于	-8.52967
之役	-8.53226
華	-8.53627
以見	-8.5363
思	-8.53759
期	-8.54152
引	-8.54343
不足	-8.54379
榖	-8.54382
穀梁	-8.54546
右	-8.54617
十一年	-8.54629
君之	-8.55014
勞	-8.55176
伐之	-8.55198
言之	-8.55315
雨	-8.5599
之師	-8.56029
寧	-8.56044
強	-8.56549
指	-8.56778
宋人	-8.56938
燕	-8.56941
定公	-8.57194
攻	-8.57272
來朝	-8.57298
經書	-8.574
萬	-8.5748
之時	-8.57516
當時	-8.5755
辱	-8.57724
設	-8.57789
室	-8.58102
冬十月	-8.58125
其國	-8.58133
為之	-8.58181
仲尼	-8.58362
寵	-8.5852
巳	-8.58532
戒	-8.58874
施	-8.59222
二十	-8.59413
木	-8.59459
把	-8.59483
不同	-8.59546
具	-8.59619
八月	-8.5973
背	-8.60107
之名	-8.60139
介	-8.6017
就	-8.60293
尤	-8.60301
流	-8.60347
穀	-8.60476
江	-8.60502
久	-8.60742
射	-8.61086
吉	-8.61114
鄭人	-8.6128
以爲	-8.61604
全	-8.61615
病	-8.61761
太	-8.6181
慶父	-8.62009
王命	-8.62229
教	-8.62479
於此	-8.62492
閏	-8.6252
府	-8.62703
先君	-8.62767
王室	-8.62866
鄫	-8.62887
暴	-8.62956
玉	-8.62969
其言	-8.63
必有	-8.63137
簡	-8.63232
象	-8.63267
之故	-8.63368
専	-8.63511
離	-8.63533
季子	-8.63693
宿	-8.6386
孟	-8.63933
兼	-8.64237
淫	-8.64415
斯	-8.64724
至是	-8.64879
辰	-8.65133
類	-8.65175
不可以	-8.65199
其後	-8.65364
職	-8.65463
者皆	-8.6593
辨	-8.65949
里	-8.6601
違	-8.66014
路	-8.66044
二子	-8.6609
百	-8.66102
竟	-8.66113
其所	-8.66142
愛	-8.66184
之㑹	-8.66975
則是	-8.66978
器	-8.67016
也然	-8.67031
伐齊	-8.67133
魯人	-8.67231
建	-8.67295
可也	-8.67304
澤	-8.67592
貳	-8.6791
十五年	-8.68274
廣	-8.68425
者以	-8.685
逃	-8.688
趙	-8.68825
極	-8.69098
晉之	-8.69199
嗣	-8.69281
春秋書	-8.69325
臣子	-8.695
與之	-8.69531
周禮	-8.6964
於齊	-8.6967
勢	-8.697
野	-8.69761
皇	-8.69981
後世	-8.69994
赴	-8.70047
取之	-8.70282
仁	-8.70403
十一月	-8.70528
也夫	-8.70584
邪	-8.70599
號	-8.70834
徃	-8.70839
如齊	-8.71005
保	-8.7113
弔	-8.71176
厯	-8.71197
宰	-8.71269
劉	-8.7128
靈公	-8.71304
十四年	-8.71407
争	-8.71442
歟	-8.7181
不然	-8.71929
諡	-8.72022
自是	-8.72304
氏曰	-8.72367
国	-8.72395
書之	-8.72464
十三年	-8.72607
高	-8.72754
圖	-8.72943
戍	-8.73022
之文	-8.73357
僭	-8.73482
十六年	-8.73622
并	-8.73673
于齊	-8.73938
A	-8.74141
娶	-8.74238
兄	-8.74255
孔	-8.74309
不及	-8.74347
賤	-8.74533
趙盾	-8.74594
果	-8.74654
國之	-8.74738
速	-8.74771
也其	-8.74789
牛	-8.7483
犯	-8.74934
鄉	-8.74942
謹	-8.75019
夏四月	-8.75064
楚之	-8.75084
雩	-8.75461
大子	-8.75489
須	-8.75591
惠公	-8.75638
明年	-8.75729
故以	-8.75768
又曰	-8.75829
除	-8.75969
魏	-8.76034
夷狄	-8.76221
十二年	-8.76228
薄	-8.76273
魚	-8.76352
鼓	-8.76408
知其	-8.7647
奪	-8.76616
曹伯	-8.7675
連	-8.7675
此年	-8.77124
伐楚	-8.77206
之類	-8.77308
誠	-8.77333
不見	-8.77398
於魯	-8.77462
良	-8.77505
弑其君	-8.77516
率	-8.77609
邢	-8.7778
姬	-8.7802
公羊傳	-8.782
上下	-8.78279
伐宋	-8.78345
滕	-8.78412
殷	-8.7856
抑	-8.78584
。」	-8.78601
讎	-8.78919
目	-8.79046
突	-8.79546
嘉	-8.7955
其子	-8.79568
訓	-8.79634
依	-8.79719
緩	-8.79917
貪	-8.79943
曲	-8.80035
掌	-8.80096
也若	-8.80167
虢	-8.8025
齊師	-8.80301
叔孫	-8.80424
對	-8.80716
妄	-8.8072
胡	-8.80824
恃	-8.80921
君臣	-8.80987
鄆	-8.8107
郡	-8.81224
兄弟	-8.81401
悼公	-8.81717
誰	-8.82189
昏	-8.82303
繫	-8.82348
體	-8.82385
畧	-8.82393
舎	-8.82481
楚師	-8.82676
文王	-8.8278
蔡侯	-8.83076
B	-8.83193
脩	-8.83515
之說	-8.8355
學	-8.83908
之法	-8.83947
賂	-8.84026
崩	-8.84179
斷	-8.84191
后	-8.84675
冠	-8.84856
无	-8.84999
忠	-8.85184
許之	-8.8521
子産	-8.8524
尸	-8.85249
費	-8.85355
傳云	-8.85474
列國	-8.85611
庸	-8.85744
讓	-8.8578
盾	-8.85883
不名	-8.85897
聽	-8.85932
或曰	-8.86042
急	-8.86459
放	-8.86528
婦	-8.86751
姜	-8.86778
衣	-8.86842
境	-8.86964
非禮	-8.87025
孰	-8.87082
十月	-8.87156
公羊曰	-8.87471
於晉	-8.87544
亭	-8.87584
竊	-8.8785
狩	-8.8799
典	-8.87997
七月	-8.88167
司	-8.88207
戚	-8.88539
某	-8.88638
不至	-8.88659
塟	-8.88695
王者	-8.8885
約	-8.88853
宗廟	-8.88873
陳侯	-8.88874
曷為	-8.88875
遺	-8.89111
丁	-8.89163
刺	-8.89177
十八年	-8.89216
班	-8.8931
援	-8.89386
接	-8.89493
歴	-8.89704
聚	-8.8975
妾	-8.89766
荘	-8.89768
佐	-8.89883
口	-8.899
顧	-8.90144
天下之	-8.90359
而立	-8.90482
追	-8.90536
天子之	-8.90792
金	-8.90798
不在	-8.90903
也此	-8.90939
㣲	-8.90962
容	-8.91084
也然則	-8.9113
余	-8.91247
杜氏	-8.91252
積	-8.91838
㑹于	-8.91879
養	-8.92132
靈	-8.92145
張氏曰	-8.92168
恤	-8.92382
救鄭	-8.92391
仍	-8.9262
哀公	-8.92645
以來	-8.92719
十五	-8.92802
其實	-8.93062
与	-8.93502
公之	-8.93543
閔	-8.93628
于晉	-8.93841
社	-8.93852
矣故	-8.93865
是時	-8.93894
四月	-8.93909
十七年	-8.94047
明矣	-8.94081
尹	-8.94263
幸	-8.94287
牲	-8.9441
虎	-8.94455
蒐	-8.94461
不如	-8.94472
拜	-8.94632
議	-8.94799
務	-8.94912
韓	-8.95136
注云	-8.95173
婦人	-8.95183
妻	-8.95275
獻公	-8.95317
予	-8.95632
蒲	-8.95668
諫	-8.95691
則書	-8.95697
攝	-8.95716
恥	-8.95816
髙氏曰	-8.95953
有所	-8.96158
忘	-8.96317
之辭也	-8.96527
授	-8.96688
也春秋	-8.96708
孟子	-8.96717
懐	-8.96736
幾	-8.96755
可謂	-8.96757
習	-8.96908
於楚	-8.96943
春王正月	-8.9704
侵伐	-8.97071
崇	-8.97111
厲	-8.97216
傳言	-8.97298
而言	-8.97318
正也	-8.97339
賔	-8.97457
之地	-8.9756
有罪	-8.9758
來奔	-8.97628
其義	-8.97657
赤	-8.97757
衛人	-8.97925
築	-8.98007
避	-8.98104
被	-8.9813
不正	-8.9813
征	-8.9826
而無	-8.98333
三國	-8.98341
讀	-8.98361
㑹盟	-8.98442
為君	-8.98472
二國	-8.98491
晉師	-8.98545
胡氏曰	-8.98633
胡傳	-8.98664
荆	-8.98673
皆以	-8.98939
襲	-8.99035
可知	-8.99369
叔姬	-8.99408
一人	-8.99435
媵	-8.99533
亦不	-8.99548
不從	-8.99691
其地	-9.00063
情	-9.00295
儀	-9.00331
厲公	-9.00406
恩	-9.00422
虚	-9.00436
遣	-9.00467
公作	-9.00467
以示	-9.0083
不為	-9.00834
嫡	-9.00916
見其	-9.0102
詞	-9.01042
縱	-9.01061
朱	-9.01078
史記	-9.01117
烝	-9.01365
亦有	-9.01499
周之	-9.01532
文姜	-9.01568
稱子	-9.01614
之功	-9.01751
白	-9.01883
簒	-9.02061
下同	-9.02232
賞	-9.02415
盈	-9.02462
而還	-9.0248
陳蔡	-9.02538
嫌	-9.02589
故云	-9.02628
足以	-9.02832
尋	-9.02997
登	-9.0323
肆	-9.03296
末	-9.03395
震	-9.03405
三家	-9.03408
便	-9.03421
管仲	-9.03533
公㑹	-9.03589
穆	-9.03629
以歸	-9.03655
十三	-9.03678
四國	-9.03709
録	-9.03717
邦	-9.03833
之世	-9.04037
質	-9.04221
顯	-9.04366
最	-9.04397
毁	-9.04427
京師	-9.04578
盜	-9.0468
禦	-9.04721
隱公	-9.04981
畢	-9.05027
隠公	-9.05116
不過	-9.05253
輒	-9.05284
送	-9.05392
雍	-9.05418
而不能	-9.0552
脅	-9.05531
龍	-9.05825
伯姬	-9.06004
垂	-9.06178
篇	-9.06378
古者	-9.06406
而歸	-9.06466
嫁	-9.06495
疆	-9.06533
舞	-9.06626
襄王	-9.06677
日食	-9.06999
閔公	-9.07021
瑕	-9.07032
可知矣	-9.07263
每	-9.07266
之始	-9.07311
不忍	-9.07349
孝	-9.07351
魯地	-9.07421
書名	-9.07423
慮	-9.07465
范	-9.07621
勤	-9.07722
寡君	-9.07835
榖梁曰	-9.08038
而又	-9.08039
忌	-9.08255
之禍	-9.08331
執之	-9.08435
省	-9.08563
礼	-9.08778
遽	-9.08924
無罪	-9.09142
称	-9.09171
温	-9.09281
晉文	-9.09296
干	-9.0942
先王	-9.09572
何為	-9.09595
辛	-9.09597
徴	-9.09606
曰吾	-9.09635
昔	-9.10048
仇	-9.10162
景公	-9.103
開	-9.1031
愚謂	-9.10357
歲	-9.10835
討賊	-9.10988
句	-9.11013
戮	-9.11023
猶有	-9.11071
宮	-9.11094
咎	-9.11113
至此	-9.11178
負	-9.11181
賈	-9.11225
夜	-9.11426
仲子	-9.11618
之例	-9.11671
從楚	-9.11727
安得	-9.11809
清	-9.12006
國君	-9.1202
移	-9.12214
同姓	-9.12347
之亂	-9.12424
穆公	-9.12603
三十	-9.12618
公曰	-9.12618
差	-9.12807
小白	-9.12932
姦	-9.13013
覆	-9.13031
伐衛	-9.13162
為政	-9.13295
羣	-9.133
此言	-9.13305
委	-9.13379
亦曰	-9.13379
悉	-9.13877
禄	-9.14169
勿	-9.14258
不稱	-9.14275
則知	-9.14326
陳氏	-9.1433
輔	-9.14458
之惡	-9.14459
故不書	-9.14487
于楚	-9.14538
不日	-9.14693
于是	-9.14866
端	-9.14939
㑹諸侯	-9.14955
成風	-9.15005
色	-9.15049
之中	-9.15067
羊	-9.15072
滑	-9.1509
配	-9.15108
遠	-9.15114
辭也	-9.15213
意如	-9.15304
禁	-9.15627
十四	-9.15725
招	-9.15725
凶	-9.15904
坐	-9.16082
子曰	-9.16221
散	-9.16398
邾人	-9.16424
以上	-9.16457
客	-9.16465
舒	-9.16596
也言	-9.16631
愚按	-9.16752
不成	-9.16904
素	-9.17048
愈	-9.17084
矣然	-9.17151
滅之	-9.17456
手	-9.17477
成王	-9.17529
旱	-9.17608
不應	-9.1764
也音義	-9.177
為主	-9.17761
誣	-9.17865
偃	-9.17898
不足以	-9.179
秦伯	-9.17944
留	-9.18088
言其	-9.18096
詐	-9.18264
革	-9.1833
傅	-9.18401
聖	-9.18661
迎	-9.18898
榖梁傳	-9.18964
藏	-9.1897
單伯	-9.18994
之下	-9.19098
於諸侯	-9.19353
昌	-9.19362
造	-9.19415
窮	-9.19422
季友	-9.19493
景	-9.19573
君命	-9.19747
潰	-9.19905
糾	-9.1997
王子	-9.20015
社稷	-9.20021
故言	-9.20027
豹	-9.20141
前年	-9.20169
行人	-9.20217
子朝	-9.20252
囚	-9.20337
十六	-9.20419
而出	-9.20422
誘	-9.20471
姜氏	-9.20502
哀姜	-9.20743
平公	-9.21
孤	-9.21073
不義	-9.21157
以明	-9.21339
歌	-9.2136
況	-9.21384
合諸侯	-9.21548
表	-9.21738
虐	-9.21765
蕭	-9.21908
殊	-9.22001
公榖	-9.22052
諸國	-9.22115
以後	-9.2214
行父	-9.22159
音註	-9.22203
他國	-9.22292
則其	-9.22375
愚	-9.22471
而殺之	-9.22586
預	-9.22666
懷	-9.22688
尹氏	-9.22723
無道	-9.22853
其意	-9.23072
其名	-9.23219
者非	-9.23264
角	-9.233
擇	-9.23306
晦	-9.23403
託	-9.23537
邾子	-9.23668
乆	-9.23672
拒	-9.23704
不必	-9.23931
劉氏曰	-9.23933
禹	-9.24101
之命	-9.24152
欲以	-9.24168
業	-9.24371
日月	-9.24389
削	-9.24538
齊之	-9.24556
偏	-9.24634
則有	-9.24651
鄧	-9.24662
伐晉	-9.24826
而不書	-9.24829
公如晉	-9.24949
挾	-9.25043
左右	-9.25295
千	-9.25338
達	-9.25444
奈何	-9.25498
祭仲	-9.25702
友	-9.25752
汪氏曰	-9.25806
而復	-9.2583
林父	-9.25898
紀侯	-9.26001
用之	-9.26071
者謂	-9.26105
武公	-9.2627
先儒	-9.26455
是年	-9.26543
形	-9.26808
總	-9.26865
否	-9.26925
陽虎	-9.27003
庶	-9.2705
武王	-9.27162
毛	-9.27177
歸之	-9.27188
之國	-9.27206
貢	-9.27282
大臣	-9.27451
之君	-9.27516
饑	-9.27594
感	-9.27626
巢	-9.27707
皆有	-9.27735
堅	-9.27774
京	-9.27855
嬖	-9.28101
揚	-9.28206
郭	-9.28254
參	-9.28266
俘	-9.28363
故不	-9.2844
集	-9.28442
以下	-9.2845
其身	-9.28636
敖	-9.28702
注正義曰	-9.28779
戴	-9.28829
叔向	-9.28862
才	-9.29002
不告	-9.29015
累	-9.29053
乞	-9.29061
升	-9.29147
十八	-9.29182
》	-9.29305
而行	-9.29388
讐	-9.29436
謝湜曰	-9.29464
飾	-9.29524
王臣	-9.2953
界	-9.2957
入于	-9.29611
臺	-9.29653
事也	-9.2982
精	-9.29825
慎	-9.29834
伏	-9.29889
而不知	-9.29903
市	-9.2996
啓	-9.30048
出於	-9.30077
驕	-9.30223
据	-9.30262
歸父	-9.3045
之會	-9.30699
啟	-9.30739
取其	-9.30779
受命	-9.30856
之志	-9.3087
又云	-9.30902
華元	-9.30957
僕	-9.30981
令尹	-9.31073
惡之	-9.31084
冝	-9.31151
受之	-9.31211
僣	-9.31255
均	-9.31319
程子曰	-9.31338
歳	-9.31442
于此	-9.31456
之臣	-9.31642
侵鄭	-9.3197
盟主	-9.31979
?	-9.32045
吳子	-9.32063
註	-9.32074
化	-9.32156
杜註	-9.3216
郕	-9.32297
故知	-9.32336
庭	-9.32345
及其	-9.32467
復歸	-9.3252
著其	-9.32568
徵	-9.32579
悼	-9.3266
傳稱	-9.32672
將以	-9.32683
解云	-9.32693
王之	-9.32824
十九年	-9.32845
公室	-9.32875
使人	-9.32938
微者	-9.33183
舜	-9.33298
救之	-9.33312
以此	-9.33317
鳥	-9.33346
布	-9.33375
徙	-9.33406
却	-9.33432
經文	-9.33442
其惡	-9.33594
釁	-9.336
忍	-9.33687
折	-9.33771
慶	-9.33821
學者	-9.33828
吕	-9.33892
幣	-9.34016
俗	-9.34073
輿	-9.34148
久矣	-9.3417
武子	-9.34199
淮	-9.34222
諸大夫	-9.34314
之難	-9.34335
十七	-9.34399
屢	-9.34524
中國之	-9.34536
其位	-9.34585
勇	-9.34619
三十年	-9.34643
莒人	-9.34727
螽	-9.34765
豈有	-9.34856
夢	-9.34874
之人	-9.34949
如是	-9.35039
附庸	-9.352
蒯聵	-9.35252
于魯	-9.35285
奚	-9.3538
之喪	-9.35499
齊魯	-9.35539
其説	-9.35862
邱	-9.3587
郎	-9.35928
魯史	-9.35954
不行	-9.35959
納幣	-9.36026
者亦	-9.36162
沈	-9.36165
豐	-9.36206
殯	-9.36238
旅	-9.36244
薛	-9.36327
殆	-9.36327
翬	-9.36398
寢	-9.36402
擅	-9.36433
寒	-9.36442
文子	-9.36475
伐陳	-9.36558
其曰	-9.36578
平王	-9.36679
也曷為	-9.367
户	-9.3689
漸	-9.36895
證	-9.36927
於是乎	-9.37027
編	-9.37314
之不	-9.3742
收	-9.37633
忿	-9.37693
福	-9.3774
大事	-9.3777
扶	-9.3789
羽	-9.3799
趙氏	-9.38249
戰于	-9.38373
恵	-9.38397
集說	-9.38398
詩曰	-9.38627
公子遂	-9.38634
而死	-9.38697
黜	-9.3878
困	-9.38835
之罪也	-9.38911
盟㑹	-9.3893
魯國	-9.38942
人君	-9.39093
不待	-9.39266
盗	-9.39271
采	-9.39309
敬王	-9.39317
國也	-9.39393
皮	-9.39424
事之	-9.39462
因其	-9.39492
亦無	-9.3962
工	-9.3965
乾	-9.39772
寡	-9.39869
萊	-9.39966
半	-9.40009
掩	-9.40038
伐邾	-9.40189
伐我	-9.40317
魯君	-9.40336
没	-9.40459
有事	-9.4049
茍	-9.40494
飲	-9.40495
祝	-9.40513
誓	-9.40622
抗	-9.40639
之謀	-9.40755
聞之	-9.40846
陽生	-9.40976
成周	-9.41037
悔	-9.41044
統	-9.41171
哭	-9.41213
者有	-9.41226
而卒	-9.41252
險	-9.41258
商人	-9.4126
兹	-9.41388
其民	-9.41482
蔑	-9.41488
其父	-9.41568
母弟	-9.41874
嚴	-9.41993
亟	-9.42034
莒子	-9.42048
之上	-9.42064
失禮	-9.42097
横	-9.42378
嬰齊	-9.42382
雖有	-9.42387
偽	-9.42428
衞人	-9.4243
持	-9.42595
惑	-9.42627
晉楚	-9.42824
在外	-9.42959
草	-9.43127
何以書	-9.43281
曲沃	-9.43345
以自	-9.43379
堯	-9.43385
擊	-9.43446
午	-9.43476
知之	-9.43519
齊地	-9.43826
荘公	-9.43847
以正	-9.43862
廬	-9.43868
欽定四庫全書	-9.4387
王人	-9.43981
戌	-9.43989
鄙	-9.44083
僅	-9.44266
勸	-9.44267
怠	-9.44275
寳	-9.44293
苦	-9.44382
伐秦	-9.44476
今按	-9.44718
側	-9.44728
不克	-9.4481
子孫	-9.4484
錫	-9.44846
稷	-9.44923
謝	-9.44968
春秋之	-9.44976
正傳曰書	-9.45016
財	-9.45034
寡人	-9.45067
是故	-9.45117
之所以	-9.4527
王使	-9.45318
人心	-9.45353
小人	-9.45391
二十四年	-9.45448
里克	-9.4552
藉	-9.45534
宣子	-9.45605
走	-9.4567
靈王	-9.45928
逆女	-9.4594
海	-9.45994
父母	-9.46088
何故	-9.46141
麟	-9.46207
二十年	-9.46279
識	-9.46291
䇿	-9.46304
縁	-9.46347
慢	-9.46387
棄疾	-9.46533
之道也	-9.46543
在位	-9.46581
井	-9.46668
不相	-9.46856
夏五月	-9.46932
納之	-9.46975
仲孫	-9.4702
二君	-9.47169
桓子	-9.47193
焚	-9.47299
罷	-9.47334
幽	-9.47341
一年	-9.47374
而反	-9.47436
其為	-9.4745
呼	-9.47455
真	-9.47538
諸夏	-9.47543
従	-9.47608
矣而	-9.47696
補	-9.4772
不受	-9.47782
鄰	-9.47802
酒	-9.47878
直書	-9.47897
陳氏曰	-9.4792
扈	-9.47932
龜	-9.47981
為文	-9.47998
不服	-9.48025
侵宋	-9.48028
幼	-9.48065
書法	-9.48323
也凡	-9.48357
討之	-9.4836
佗	-9.48579
侈	-9.48614
州吁	-9.48717
諸侯之大夫	-9.48826
此時	-9.48863
與楚	-9.4887
早	-9.48908
甸	-9.48984
二十八年	-9.49035
也且	-9.49052
杜氏注	-9.49057
者三	-9.49076
蔡人	-9.49106
荀	-9.49145
以求	-9.4917
闗	-9.49371
塞	-9.49399
智	-9.49448
棘	-9.49498
蔽	-9.49527
得之	-9.4956
敝邑	-9.49579
鄭之	-9.49604
榮	-9.49665
在今	-9.49854
范氏	-9.49979
公至自㑹	-9.50005
鼎	-9.50104
薦	-9.50117
馮	-9.50315
征伐	-9.50448
無君	-9.50693
沒	-9.5087
墮	-9.50873
未必	-9.50929
書人	-9.50949
兆	-9.50967
三軍	-9.50978
泉	-9.51003
宋襄	-9.51006
鞅	-9.51032
考之	-9.51094
可乎	-9.51233
君也	-9.51233
鄭地	-9.51241
其餘	-9.51261
之弟	-9.51289
二十五年	-9.51516
眀	-9.51554
奔齊	-9.5156
撫	-9.51577
褒貶	-9.51616
大惡	-9.51727
為國	-9.51749
般	-9.51956
不合	-9.51992
特書	-9.52047
願	-9.52095
之徒	-9.52151
周室	-9.52171
斥	-9.52185
李	-9.52208
蒙	-9.52213
則以	-9.52286
牧	-9.5236
來盟	-9.52366
川	-9.52498
甘	-9.52499
觧	-9.52651
而有	-9.52798
札	-9.52878
則非	-9.52947
單	-9.52997
皆書	-9.5303
以告	-9.53061
赦	-9.53136
其母	-9.53162
天地	-9.53172
二人	-9.53175
逼	-9.53192
大義	-9.5329
偪	-9.53384
察	-9.53481
之際	-9.53538
陳人	-9.53605
按左氏	-9.53638
祥	-9.53764
猶未	-9.53773
卦	-9.53799
關	-9.53837
曰子	-9.54101
不信	-9.54141
寅	-9.54198
踰年	-9.54272
見殺	-9.54288
二十三年	-9.54354
析	-9.54585
游	-9.54613
褒	-9.54757
而使	-9.54847
有疾	-9.55009
元咺	-9.55168
不出	-9.55251
興師	-9.55253
如楚	-9.55305
可知也	-9.55366
春秋之義	-9.55367
康	-9.55382
己丑	-9.55401
荒	-9.55422
此書	-9.55458
欒	-9.5547
踰	-9.55488
衡	-9.55552
譏其	-9.55566
失國	-9.5557
二十七年	-9.557
矢	-9.55786
非正也	-9.55802
汝	-9.55855
尺	-9.55947
展	-9.56108
亦以	-9.56256
頓	-9.56341
荀息	-9.56383
十九	-9.56407
之類是也	-9.56452
可見	-9.56484
是為	-9.56488
帶	-9.56548
衎	-9.56598
夏六月	-9.56612
俟	-9.56723
前此	-9.56729
滅國	-9.56838
非常	-9.56956
叛晉	-9.56961
無事	-9.56976
劉子	-9.56978
富	-9.57033
多矣	-9.57153
左傳曰	-9.57159
壬申	-9.5718
有功	-9.572
稱名	-9.57221
鍾	-9.5727
又有	-9.57275
借	-9.57275
皆不	-9.57276
吏	-9.5729
洩	-9.57321
乎曰	-9.57328
昬	-9.57533
璧	-9.57603
其臣	-9.5765
國而	-9.5775
不勝	-9.57773
陰	-9.57793
猛	-9.57881
其文	-9.57984
段	-9.58025
不欲	-9.58101
召陵	-9.58134
親迎	-9.58136
弓	-9.58184
郢	-9.58198
縣南	-9.58293
不朝	-9.5835
惠王	-9.58421
公會	-9.58443
農	-9.58449
講	-9.58473
不肯	-9.58509
大雩	-9.58528
公與	-9.58705
故春秋	-9.58795
以待	-9.58797
河南	-9.58864
謬	-9.58951
剽	-9.58955
櫟	-9.58957
春秋之法	-9.59058
損	-9.59175
之意也	-9.59186
而已矣	-9.59188
司徒	-9.59201
駕	-9.59252
公穀	-9.59273
洛	-9.59328
錯	-9.59378
效	-9.59393
攘	-9.59398
不月	-9.59462
王城	-9.59478
繹	-9.59497
命之	-9.59497
烏	-9.59524
錄	-9.59703
者則	-9.59849
面	-9.5996
是非	-9.60011
鉏	-9.60024
而魯	-9.60078
之日	-9.60124
三傳	-9.60174
戊辰	-9.60262
饗	-9.60264
來歸	-9.60344
次于	-9.60349
恒	-9.60533
伐莒	-9.6061
諸儒	-9.60682
秦人	-9.6079
淺	-9.60792
悖	-9.60878
孝公	-9.60899
而春秋	-9.60922
艾	-9.60926
咸	-9.60955
書日	-9.60997
巫	-9.61015
不雨	-9.61042
未可	-9.61043
不書葬	-9.61055
伯主	-9.61157
主人	-9.6117
于宋	-9.61179
以禮	-9.61262
地名	-9.61264
曰君	-9.61271
圉	-9.614
葉	-9.61599
郜	-9.61665
也按	-9.61675
乞師	-9.61748
一也	-9.61945
臯	-9.61972
舟	-9.6198
襄仲	-9.62
出入	-9.62021
屈完	-9.62146
絳	-9.62156
魚石	-9.62202
種	-9.62355
壊	-9.62434
彭城	-9.62482
審	-9.62544
臧	-9.62569
惡其	-9.62595
觀之	-9.62606
振	-9.62702
其人	-9.62755
聴	-9.62773
係	-9.62777
道也	-9.62845
之變	-9.62884
失其	-9.6301
則不	-9.63031
張氏	-9.63045
如字	-9.63091
有二	-9.631
朝聘	-9.63105
虛	-9.63264
歸于	-9.63336
郑	-9.63356
與盟	-9.63415
規	-9.63452
禽	-9.63461
與齊	-9.63489
諸侯之師	-9.63678
斉	-9.63702
賓	-9.63711
父子	-9.63767
郈	-9.63781
一日	-9.63789
重耳	-9.63816
㑹而	-9.63819
閏月	-9.63824
罪也	-9.63834
恭	-9.63839
崔杼	-9.63878
殺大夫	-9.63954
又以	-9.64051
躬	-9.64073
用兵	-9.6408
於宋	-9.64164
冬至	-9.64176
何休	-9.64345
陳鄭	-9.64392
念	-9.6442
戸	-9.64459
主之	-9.64469
亦非	-9.64571
煩	-9.64688
陸	-9.64691
房	-9.64743
於鄭	-9.6476
柔	-9.6477
此其	-9.64825
而曰	-9.64842
隕	-9.64847
其不	-9.64875
之理	-9.64883
名也	-9.64903
之田	-9.64906
經傳	-9.64909
見矣	-9.65064
四時	-9.65073
當國	-9.65152
鄰國	-9.65162
鬭	-9.6524
曽	-9.65357
其心	-9.65405
律	-9.65442
匡	-9.65556
狐	-9.65567
捷	-9.65567
増	-9.65713
博	-9.65792
焉爾	-9.65796
履	-9.65828
䖍	-9.65836
伐魯	-9.65851
貨	-9.65851
輕重	-9.65869
豈不	-9.65931
貫	-9.66017
子家	-9.66032
救陳	-9.66047
二十六年	-9.66091
者矣	-9.66109
泰山	-9.66122
晉侯使	-9.66128
謙	-9.66173
孔父	-9.66212
來告	-9.66328
趙鞅	-9.66339
厥	-9.66475
慶封	-9.66545
則曰	-9.66545
之黨	-9.66564
王法	-9.66591
水經注	-9.66653
?」	-9.66654
處父	-9.6671
辠	-9.66717
夀	-9.6673
夷儀	-9.66817
椘	-9.66822
呉子	-9.66823
術	-9.66852
孫氏	-9.66899
鼔	-9.66902
稍	-9.66904
未至	-9.66911
豫	-9.66967
而書之	-9.66972
詳見	-9.67001
以著	-9.67003
齊晉	-9.67044
得臣	-9.67062
杜預	-9.6708
賵	-9.67118
不敬	-9.67132
亥	-9.67135
孫氏曰	-9.67191
其辭	-9.673
皆不書	-9.67329
述	-9.67488
以報	-9.67495
穀梁傳	-9.67519
之屬	-9.67613
督	-9.67633
殺其大夫	-9.67681
大水	-9.67684
昭子	-9.67716
肥	-9.67892
子般	-9.68039
壽	-9.68104
即此	-9.68163
三日	-9.68191
仲遂	-9.6823
尾	-9.68239
為卿	-9.68329
決	-9.68349
延	-9.68361
譖	-9.68385
卿大夫	-9.68399
孟氏	-9.68401
嬴	-9.68483
必書	-9.68486
杜云	-9.68532
於王	-9.68599
茅	-9.68613
寜	-9.68617
雜	-9.68664
旦	-9.68705
以前	-9.68706
之前	-9.69024
休	-9.69151
故特	-9.69207
密	-9.69382
國家	-9.6952
校	-9.69536
不明	-9.69555
甲戌	-9.69555
此亦	-9.69576
睦	-9.69658
止之	-9.69696
與魯	-9.69725
遏	-9.6982
于鄭	-9.69913
書卒	-9.69992
孔子曰	-9.7014
甫	-9.7014
故不言	-9.70178
中軍	-9.70264
怪	-9.70444
己巳	-9.70541
為魯	-9.70611
東南	-9.70662
之義也	-9.70681
宋地	-9.70731
霸主	-9.70767
第	-9.70794
皆是	-9.70834
欺	-9.70868
匹	-9.70902
占	-9.70938
羣臣	-9.71004
許男	-9.71012
管	-9.71028
大夫之	-9.71092
蟲	-9.711
盧	-9.71164
子叔姬	-9.71232
麇	-9.71305
方伯	-9.71375
山川	-9.7141
主兵	-9.71487
十有二月	-9.71581
熊	-9.71636
以致	-9.71817
曰我	-9.71889
叔弓	-9.71896
於外	-9.7193
城縣	-9.71979
繁	-9.72045
魯侯	-9.72074
輙	-9.72075
靖	-9.7212
赤狄	-9.72203
僚	-9.72275
矣今	-9.72281
仕	-9.72319
貶之	-9.72331
名之	-9.72374
其志	-9.7241
者必	-9.726
以國	-9.72621
或以	-9.72676
之位	-9.72705
庚	-9.72845
下文	-9.72876
景王	-9.72881
辛巳	-9.72924
桓王	-9.72964
懲	-9.7298
瀆	-9.72988
前後	-9.73053
毋	-9.73126
奔晉	-9.73141
又何	-9.73145
不使	-9.73396
只	-9.7341
内外	-9.73515
與晉	-9.73765
逸	-9.73773
性	-9.73844
祭祀	-9.73924
見之	-9.73943
子西	-9.73973
左師	-9.73988
谷	-9.73991
淂	-9.7406
先君之	-9.74063
侵蔡	-9.74367
使之	-9.74379
趙孟	-9.74488
潁	-9.74579
當在	-9.74609
蕩	-9.74648
撰	-9.74664
𤼵	-9.7467
無禮	-9.747
愬	-9.74761
毒	-9.74773
衛地	-9.74822
不免	-9.74834
湯	-9.74855
義也	-9.74878
答	-9.7491
丗	-9.74917
常事	-9.74947
則亦	-9.74982
百里	-9.75063
無王	-9.75122
非有	-9.7514
逐之	-9.75181
去之	-9.75215
公使	-9.75217
二十二年	-9.75247
縣東南	-9.75268
新城	-9.75327
翼	-9.75364
趙氏曰	-9.75379
亳	-9.75392
司空	-9.75477
未能	-9.7549
責之	-9.75574
細	-9.75662
隐	-9.75698
鮑	-9.75859
書者	-9.75883
熟	-9.75901
庚辰	-9.75918
祫	-9.75958
破	-9.75967
之外	-9.7601
壬午	-9.76077
之制	-9.76185
憤	-9.76245
六卿	-9.76256
其說	-9.76295
以兵	-9.76301
正傳曰	-9.76463
壞	-9.76473
敝	-9.76531
秋八月	-9.76659
告廟	-9.7669
公族	-9.76702
盂	-9.7674
欒盈	-9.7674
齊宋	-9.7676
各有	-9.76764
劉氏	-9.76821
叔孫豹	-9.76905
家氏曰	-9.76932
不致	-9.76987
圍之	-9.77092
也書	-9.77109
婚	-9.77135
師于	-9.77262
侵齊	-9.77365
癸	-9.77406
不能救	-9.77409
策	-9.77437
賴	-9.77443
城之	-9.77496
之邑	-9.77523
涉	-9.77556
貞	-9.77584
短	-9.77596
桑	-9.776
桓公之	-9.77633
篡	-9.77647
主盟	-9.77654
踐土	-9.77805
郤	-9.77955
之戰	-9.78055
齊桓公	-9.78062
拘	-9.78078
之勢	-9.78097
何哉	-9.78123
晉地	-9.78123
子展	-9.78148
天道	-9.78156
空	-9.78157
候	-9.78177
之大	-9.78249
憾	-9.78273
作亂	-9.78348
賄	-9.78458
儒	-9.78482
内女	-9.78525
與其	-9.78532
妃	-9.78546
亦是	-9.78591
必以	-9.78694
敗績	-9.78855
公及	-9.78863
妾母	-9.78868
堂	-9.78899
所當	-9.78954
從晉	-9.78996
公薨	-9.79028
得以	-9.79072
一國	-9.79074
稱公	-9.7908
逹	-9.79141
稱爵	-9.79155
人臣	-9.79175
館	-9.79182
迫	-9.79235
附録	-9.79243
㑹之	-9.79277
其禮	-9.79296
不用	-9.79367
吳人	-9.79384
此皆	-9.79387
立之	-9.79388
以義	-9.79419
椒	-9.79431
稱字	-9.79449
冦	-9.7946
天之	-9.79483
其間	-9.79498
求之	-9.79516
宣王	-9.79564
見執	-9.7959
笑	-9.79592
受其	-9.79627
之母	-9.79666
完	-9.79667
覇	-9.79708
事而	-9.79743
人也	-9.79819
三卿	-9.79835
公孫敖	-9.79894
僑如	-9.79907
為重	-9.79923
渉	-9.80095
以成	-9.80179
之孫	-9.80239
寛	-9.80242
營	-9.80341
為一	-9.80371
縣西南	-9.80373
聖人之	-9.80402
顔	-9.80459
祈	-9.80483
亦可	-9.80501
霍	-9.80509
條	-9.80513
牢	-9.80558
無以	-9.8057
莊王	-9.8067
之情	-9.80681
而不敢	-9.8069
逆之	-9.80733
不宜	-9.80739
邾婁	-9.80742
晉人執	-9.80751
純	-9.80805
書葬	-9.8081
𤣥	-9.80894
二十一年	-9.8096
一稱	-9.81014
舊史	-9.81098
之卒	-9.81136
洮	-9.8121
為夫人	-9.81263
不容	-9.81295
之失	-9.81309
之詞	-9.81333
正義	-9.81355
斂	-9.81558
上卿	-9.8167
彚纂	-9.81689
穿	-9.81717
尚書	-9.81743
何以不	-9.81757
夲	-9.81774
宛	-9.81783
盟者	-9.81795
行之	-9.81829
肉	-9.81863
斬	-9.81881
之常	-9.81891
鬼神	-9.8192
見於	-9.81977
與鄭	-9.82013
為大夫	-9.82046
又不	-9.82049
讒	-9.82067
彌	-9.82167
失之	-9.82292
縣北	-9.82303
齊鄭	-9.82314
子糾	-9.82375
邑也	-9.82459
㡬	-9.82473
左氏以為	-9.82553
索	-9.82559
有司	-9.82589
伐衞	-9.82599
癸亥	-9.8265
若是	-9.82681
池	-9.82744
滿	-9.82857
樹	-9.8287
喻	-9.82936
注言	-9.82968
稱君	-9.83035
大夫盟	-9.83061
四十	-9.83115
不亦	-9.83139
在魯	-9.83172
不通	-9.83174
晋侯	-9.83183
子玉	-9.83231
襄陵許氏曰	-9.83236
繫之	-9.83251
剛	-9.8327
使大夫	-9.83316
罰	-9.83391
注同	-9.83438
甥	-9.83458
者蓋	-9.83466
甲子	-9.83467
祔	-9.83575
牟	-9.83691
反又	-9.83692
轉	-9.83735
資	-9.83755
鬬	-9.8376
宋之	-9.83785
量	-9.83803
稱師	-9.83907
與諸侯	-9.83969
朝王	-9.83999
男	-9.84115
荆楚	-9.84146
之内	-9.84214
稱王	-9.84252
取邑	-9.84268
大夫也	-9.84283
澶淵	-9.84322
者一	-9.84322
祁	-9.84348
吾子	-9.84437
奸	-9.84456
乙亥	-9.84482
季孫宿	-9.84505
宴	-9.84536
如京師	-9.84578
盟而	-9.84583
云爾	-9.84593
東北	-9.84671
若此	-9.84712
白狄	-9.84724
冰	-9.84755
治兵	-9.84765
州來	-9.84787
之甚	-9.84797
殽	-9.84862
屋	-9.84867
無駭	-9.8488
投	-9.84908
書爵	-9.85007
故稱	-9.85109
楚莊	-9.85152
義見	-9.85157
其大夫	-9.85166
是謂	-9.85176
師敗績	-9.85207
庻	-9.85332
溺	-9.8546
恕	-9.85485
之弑	-9.8549
祊	-9.85526
驅	-9.85562
云云	-9.85616
未知	-9.85704
之月	-9.85782
賜之	-9.85798
之權	-9.85811
楚丘	-9.85844
閒	-9.8585
則當	-9.85874
環	-9.85881
癸酉	-9.85903
創	-9.85916
西南	-9.85939
罕	-9.85988
董	-9.86029
庚午	-9.86065
恵公	-9.86078
而不言	-9.86179
于周	-9.86254
来聘	-9.86265
晉大夫	-9.86347
苗	-9.86367
無傳	-9.86416
周人	-9.86439
相與	-9.86514
二傳	-9.86546
虽	-9.86586
痛	-9.86633
遂以	-9.86634
旗	-9.8668
其可	-9.86686
也又	-9.86795
暨	-9.86798
矣此	-9.86799
昧	-9.86853
也或曰	-9.86854
辛亥	-9.86864
死而	-9.86972
未得	-9.87004
雅	-9.87041
禮記	-9.87073
距	-9.87112
宋衛	-9.87207
運	-9.87223
則無	-9.87346
是其	-9.87385
朱子	-9.87405
以叛	-9.87483
黎	-9.87483
戊申	-9.87512
會于	-9.8754
而去	-9.87543
羈	-9.87582
釋例	-9.87633
嗚呼	-9.87673
圭	-9.87954
雲	-9.88004
逮	-9.88013
魯大夫	-9.88023
曾	-9.88077
鹹	-9.88103
酅	-9.88141
晉國	-9.88189
甞	-9.88206
不曰	-9.88228
公至自晉	-9.88385
敎	-9.88385
鞌	-9.88404
先後	-9.88495
牽	-9.8855
其弟	-9.88551
春秋時	-9.88617
虎牢	-9.88627
之官	-9.88631
季文子	-9.88668
鐘	-9.88669
然而	-9.88752
異也	-9.88754
隧	-9.88809
選	-9.8883
之初	-9.88832
進退	-9.88857
併	-9.88863
小邾	-9.88889
㐮	-9.88952
事君	-9.89054
四方	-9.89128
復入	-9.89139
冬十有二月	-9.89283
卒子	-9.89294
豈非	-9.89315
孔氏	-9.89324
獄	-9.89371
與國	-9.89375
郯	-9.89455
寗	-9.89536
國之君	-9.89551
小君	-9.89552
而遂	-9.89589
奔楚	-9.89721
鄫子	-9.89725
竝	-9.89764
滕子	-9.89785
而下	-9.89838
為正	-9.90031
侮	-9.90067
先書	-9.90194
㑹葬	-9.90258
三公	-9.90277
源	-9.90341
為義	-9.90366
伐許	-9.90374
公羊作	-9.90448
姬姓	-9.9051
乎此	-9.90531
得國	-9.90561
竭	-9.90642
曹人	-9.90646
箕	-9.90651
謚	-9.90764
盟於	-9.90787
丹	-9.90822
秦穆	-9.90826
甲午	-9.90875
夏之	-9.90895
去年	-9.90942
齒	-9.91142
此則	-9.91218
魯衛	-9.91249
丙	-9.91351
不仁	-9.91416
隋	-9.91443
之力	-9.91513
為善	-9.91542
沙	-9.91551
軌	-9.91554
子儀	-9.91559
不自	-9.91589
者為	-9.91635
晉悼	-9.91635
但書	-9.91654
諸侯皆	-9.91658
尊卑	-9.91701
見弑	-9.91705
伐而	-9.91722
;	-9.91736
公侯	-9.91747
今年	-9.91756
月者	-9.91763
逐君	-9.9177
而自	-9.918
而得	-9.91839
鄖	-9.91892
永	-9.92014
羙	-9.92031
未聞	-9.92059
可見矣	-9.92065
弑君之賊	-9.92126
死於	-9.92184
猶可	-9.92195
傳文	-9.92226
當是時	-9.92251
渠	-9.92285
耕	-9.92344
徧	-9.92354
有三	-9.92386
自此	-9.92399
雖不	-9.92401
於廟	-9.92409
不㑹	-9.92426
而為之	-9.92444
支	-9.92466
縣有	-9.92524
而弗	-9.92554
伍	-9.92592
脱	-9.9267
之廟	-9.92675
戊寅	-9.92693
書及	-9.92729
使卿	-9.92748
成子	-9.92754
由是	-9.92756
其情	-9.92773
禦之	-9.92814
倚	-9.92824
縣東北	-9.92924
二十九年	-9.92924
事晉	-9.93022
戾	-9.93037
瑞	-9.93098
麥	-9.93121
古之	-9.93228
材	-9.93253
墓	-9.93276
稱公子	-9.93359
者乎	-9.93402
周公之	-9.93441
士匄	-9.93458
聽命	-9.93611
一時	-9.93627
釋曰	-9.93629
曰不可	-9.93687
名氏	-9.93737
鄢陵	-9.93751
也杜氏曰	-9.93761
家臣	-9.93875
階	-9.93903
縣西	-9.93918
戲	-9.93919
與之盟	-9.93987
㣲者	-9.94015
棺	-9.94024
之餘	-9.94028
于外	-9.94035
靡	-9.9404
集説	-9.94073
賢者	-9.9412
駟	-9.94136
不諱	-9.94142
出而	-9.9418
壬	-9.94186
使若	-9.94188
何也曰	-9.94189
而入	-9.94225
寘	-9.94232
崔氏	-9.94309
今又	-9.94341
弑之	-9.94431
黃	-9.94526
惡也	-9.94579
必不	-9.94657
為是	-9.94686
得其	-9.94697
郳	-9.94711
鄭莊	-9.94758
狄人	-9.94807
不臣	-9.94808
以伐	-9.94863
陽縣	-9.94894
不失	-9.94927
者二	-9.94982
俾	-9.95024
詩云	-9.95041
懼而	-9.95086
寇	-9.95087
趙子曰	-9.95089
人以	-9.95297
此義	-9.95307
筆削	-9.95312
不時	-9.95316
粟	-9.95362
待之	-9.95367
其一	-9.95454
蘇	-9.95459
縣東	-9.95477
諸侯而	-9.95496
不若	-9.955
當以	-9.95517
程子	-9.9559
天理	-9.95645
不備	-9.95667
百官	-9.95687
不書即位	-9.95743
孔氏曰	-9.95851
二卿	-9.95907
整	-9.95959
江黄	-9.95973
許田	-9.95975
戕	-9.95976
濫	-9.96002
胥	-9.96015
此事	-9.96043
畜	-9.96065
歸生	-9.96143
祿	-9.96152
圍宋	-9.96163
藥	-9.96256
訟	-9.96296
决	-9.96308
不地	-9.96373
驗	-9.96383
辯	-9.96455
棠	-9.96456
衍	-9.96528
之使	-9.9655
而立之	-9.96645
而非	-9.96664
異於	-9.96719
而止	-9.96737
也左氏曰	-9.96746
趨	-9.96789
本又作	-9.96804
未葬	-9.96823
冀	-9.96856
叙	-9.9694
改元	-9.96971
書王	-9.97015
以事	-9.97017
禮之	-9.97034
斃	-9.97099
敗之	-9.97131
君而	-9.97135
有常	-9.9714
之立	-9.9719
畫	-9.97203
奏	-9.97225
卋	-9.97228
之私	-9.97261
所在	-9.97305
何得	-9.97324
宰周公	-9.97365
以行	-9.97414
誤矣	-9.97458
國名	-9.97466
筮	-9.97493
公即位	-9.97505
意也	-9.9758
丑	-9.97581
敬嬴	-9.97638
書至	-9.97693
歩	-9.97734
盍	-9.97764
不能討	-9.97833
舍之	-9.97844
杜言	-9.97887
子駟	-9.9789
含	-9.97908
羅	-9.97915
欒書	-9.97995
其功	-9.98049
佐之	-9.98069
弗許	-9.98208
子反	-9.98231
周官	-9.98287
陪臣	-9.98335
練	-9.98391
欲立	-9.98394
國都	-9.98404
左氏云	-9.98516
或謂	-9.98537
勲	-9.9854
沙隨	-9.98642
丈	-9.98693
旁	-9.98699
訴	-9.98758
㨗	-9.98764
而來	-9.98798
或問	-9.98876
烈	-9.98932
鮮虞	-9.98995
豈可	-9.99023
申生	-9.99085
土地	-9.99091
稅	-9.99213
國語	-9.99248
而求	-9.99272
陳乞	-9.9942
單子	-9.99451
簡公	-9.99459
牙	-9.9946
一事	-9.9954
王猛	-9.99631
千里	-9.99674
而退	-9.99679
而致	-9.99757
鄭𤣥云	-9.99785
臣之	-9.99812
雄	-9.99883
民之	-9.99887
竒	-9.9993
攷	-9.99983
書字	-10.0002
杞伯	-10.0004
為名	-10.0006
殘	-10.0016
何如	-10.0018
西北	-10.0019
邊	-10.0023
以罪	-10.0026
塗	-10.0027
辭曰	-10.0031
而稱	-10.0038
矣春秋	-10.0043
則又	-10.0044
亂臣賊子	-10.0045
鄄	-10.0053
啖氏曰	-10.0054
之賢	-10.0056
逢	-10.0057
諱之	-10.0059
獲麟	-10.0065
歸而	-10.0068
自立	-10.0074
己未	-10.0083
善惡	-10.0094
赴告	-10.0096
程	-10.0098
楊	-10.0102
逞	-10.0109
桓之	-10.0114
蜀	-10.0114
籍	-10.0119
王制	-10.012
而楚	-10.012
一月	-10.0122
墨	-10.013
甯喜	-10.0131
於周	-10.0133
荼	-10.0135
何氏	-10.0136
縣屬	-10.0142
𣣔	-10.0149
先王之	-10.0152
渝	-10.0155
氷	-10.0158
濮	-10.0158
刻	-10.0158
推之	-10.0164
不知其	-10.0166
冕	-10.0168
穆姜	-10.0168
之書	-10.0179
地也	-10.0187
允	-10.0188
匄	-10.0189
與焉	-10.0193
陷	-10.0196
得志	-10.0199
秦師	-10.0201
一名	-10.0211
入於	-10.0214
不競	-10.0215
為右	-10.0222
頃公	-10.0229
也非也	-10.0231
若之何	-10.0237
闕文	-10.0239
宋之盟	-10.0239
戈	-10.0247
為大	-10.0248
獻子	-10.026
叔武	-10.0261
頗	-10.0262
非正	-10.0271
伯有	-10.0271
猶曰	-10.0272
不正其	-10.0272
出師	-10.0275
属	-10.0279
其時	-10.028
不忘	-10.0281
其私	-10.0283
三十一年	-10.0285
一字	-10.0289
髙子	-10.029
狄之	-10.0291
也是故	-10.0292
之行	-10.0292
者不	-10.0295
大叔	-10.0297
皆在	-10.0298
青	-10.0302
向戌	-10.0302
内大夫	-10.0305
作三軍	-10.0306
既而	-10.0307
大國之	-10.0307
昭穆	-10.0309
供	-10.0312
血	-10.0313
貶也	-10.0314
凡書	-10.0315
齊桓之	-10.0318
異姓	-10.032
若曰	-10.0321
则	-10.0321
如何	-10.0322
丁未	-10.0322
頃	-10.0322
紂	-10.0329
死者	-10.0334
受盟	-10.0336
公羊以為	-10.0338
己亥	-10.034
不能自	-10.034
鳴	-10.0342
鍼	-10.0347
絶之	-10.0347
圍許	-10.0352
先生	-10.0356
城濮	-10.0356
日有食之	-10.0358
快	-10.0367
聼	-10.037
鑿	-10.0376
冬十有一月	-10.0382
故特書	-10.0387
恨	-10.0396
三桓	-10.0403
戎狄	-10.0426
未及	-10.0429
猶在	-10.0435
矜	-10.0436
来朝	-10.0442
宻	-10.0447
臣召南	-10.0454
者明	-10.0454
叔孫氏	-10.0459
肅	-10.0472
其能	-10.0474
秦晉	-10.0482
子皮	-10.0482
獸	-10.0484
鮮	-10.0493
所以為	-10.0496
三子	-10.0501
世家	-10.0508
君父	-10.0512
厭	-10.0514
乎且	-10.0514
何氏曰	-10.0515
明其	-10.0517
此説	-10.0521
欒氏	-10.0525
雉	-10.0527
有大	-10.053
不立	-10.0535
二十五	-10.0537
麋	-10.0539
較	-10.054
固有	-10.0542
其失	-10.0544
乙	-10.0544
書入	-10.0544
亦當	-10.0547
著矣	-10.0547
戊	-10.055
趙武	-10.0552
公羊傳曰	-10.0552
春正月	-10.0552
稱國	-10.0556
莫之	-10.0558
操	-10.056
庚戌	-10.056
也諸侯	-10.0561
殿	-10.0572
禱	-10.0576
襃	-10.0585
輸	-10.0585
高氏曰	-10.059
頌	-10.0603
在晉	-10.061
伯禽	-10.061
隙	-10.0619
葵丘	-10.062
雞澤	-10.0625
歎	-10.0627
鱄	-10.063
左氏謂	-10.0635
魯公	-10.0636
去其	-10.0638
獵	-10.0642
不得不	-10.0645
遜	-10.0647
之計	-10.0653
桃	-10.0655
丙午	-10.066
反下同	-10.0661
窺	-10.0666
卒于	-10.0668
責其	-10.0673
卽	-10.0676
遣使	-10.0677
夫人之	-10.0686
倍	-10.0703
寓	-10.0703
迹	-10.0704
帛	-10.0705
當是	-10.0706
不葬	-10.0709
不道	-10.0715
文定	-10.0731
之論	-10.0731
同盟于	-10.0731
之死	-10.0734
鹿	-10.0743
祭公	-10.0746
十有二年	-10.075
公如齊	-10.0753
泰	-10.0762
婁	-10.0765
伐吳	-10.0765
其本	-10.0765
兵車	-10.0775
看	-10.0776
貶之也	-10.0779
庇	-10.0781
斗	-10.0782
言於	-10.0787
回	-10.079
機	-10.0796
出奔楚	-10.0796
亦非也	-10.0796
不郊	-10.0797
以是為	-10.0798
乎故	-10.0802
落	-10.0807
大抵	-10.0815
缺	-10.0824
平陽	-10.0824
循	-10.0828
出也	-10.083
注据	-10.0836
在齊	-10.084
無功	-10.0841
注解云	-10.0846
齊景	-10.0846
汲汲	-10.0849
隂陽	-10.0853
辛酉	-10.0853
東門	-10.0854
甯	-10.0857
非卿	-10.0858
無知	-10.0862
充	-10.0864
皆同	-10.0869
以討	-10.0871
乾侯	-10.0873
因之	-10.0876
娣	-10.0877
為諸侯	-10.0881
步	-10.0898
皆非	-10.0902
朝歌	-10.0905
君子曰	-10.0906
弑逆	-10.0913
書取	-10.0917
自為	-10.0922
君臣之義	-10.0924
誤也	-10.0928
齊侯使	-10.0929
於其	-10.093
溝	-10.0936
區區	-10.094
肯	-10.0946
古人	-10.0947
其族	-10.0949
王姬	-10.0949
陘	-10.0965
大小	-10.0965
貌	-10.0967
淮夷	-10.0967
魯以	-10.0977
相見	-10.0984
于戚	-10.0989
正朔	-10.0991
之主	-10.1001
不入	-10.1003
作春秋	-10.1003
綱	-10.1005
津	-10.1006
無異	-10.1013
嗣君	-10.1015
于諸侯	-10.1016
鳩	-10.1024
去國	-10.1027
丁巳	-10.1037
坤	-10.1041
明日	-10.1042
在上	-10.1046
不修	-10.1046
滛	-10.1046
而晉	-10.105
丙戌	-10.105
此傳	-10.1056
稱侯	-10.1068
國政	-10.1069
於朝	-10.107
旌	-10.1076
子臧	-10.1079
姒	-10.1081
治之	-10.1089
成二年	-10.1091
于王	-10.1091
妖	-10.1097
薳	-10.1103
五十	-10.1105
所為	-10.1116
莊子	-10.1117
汭	-10.1119
三人	-10.1138
而欲	-10.1141
夕	-10.1144
其有	-10.1145
不救	-10.1152
競	-10.1155
東方	-10.1159
杜氏預曰	-10.1167
二十四	-10.1172
逃歸	-10.1173
圍鄭	-10.1173
了	-10.1174
所得	-10.1175
秩	-10.1177
螟	-10.1178
縊	-10.1197
尊王	-10.1203
上帝	-10.1204
矣其	-10.1205
吳楚	-10.1211
綏	-10.1211
飲酒	-10.1215
周制	-10.1216
加之	-10.1217
之患	-10.1223
後人	-10.1224
《	-10.1233
其稱	-10.1237
從而	-10.124
楚地	-10.1241
牆	-10.1241
譏之	-10.1244
伯業	-10.1245
平子	-10.1254
憚	-10.1254
所云	-10.1269
晉平	-10.1269
奚齊	-10.1271
紀季	-10.1274
轅	-10.1282
去疾	-10.1282
錫命	-10.1293
有禮	-10.1293
孟子曰	-10.1294
於我	-10.1298
今此	-10.1301
晉文公	-10.1303
倫	-10.1306
也魯	-10.1308
買	-10.1309
季姬	-10.1312
滋	-10.1312
癸丑	-10.1313
穀梁曰	-10.1315
執政	-10.1322
當立	-10.1323
葛	-10.1323
曰春秋	-10.1327
饋	-10.1328
非義	-10.1329
之好	-10.1331
惜	-10.1332
霸業	-10.1335
城在	-10.1345
秉	-10.1346
遲	-10.1347
盟也	-10.1347
善之	-10.1353
若以	-10.1355
郤克	-10.1356
稱國以殺	-10.1358
則曷為	-10.1363
詞也	-10.1367
不討	-10.1371
逺矣	-10.1374
親親	-10.1378
正其	-10.1381
於人	-10.1385
隆	-10.139
稱弟	-10.1391
行事	-10.1396
昭王	-10.1397
為王	-10.14
鬼	-10.1402
非是	-10.1404
基	-10.1406
諌	-10.1413
羞	-10.1422
名者	-10.1426
寶	-10.1427
賀	-10.1428
脫	-10.1429
故使	-10.1432
殺其	-10.1432
焉故	-10.1435
㑹伐	-10.1435
亦云	-10.1438
太史	-10.1439
平丘	-10.144
蠻夷	-10.1443
囿	-10.1444
州府	-10.1456
亢	-10.1466
季孫行父	-10.1467
人倫	-10.1468
用牲	-10.1474
諸侯不	-10.1483
於天子	-10.1485
韓厥	-10.1487
不舉	-10.1493
黒	-10.1494
子男	-10.1497
叚	-10.15
咺	-10.1507
二十八	-10.1507
也胡氏曰	-10.1513
之詩	-10.1515
變文	-10.1516
曷	-10.1516
天王使	-10.1523
呂	-10.1525
傾	-10.1525
而葬	-10.1536
也又曰	-10.154
乃以	-10.1545
丘明	-10.1547
者即	-10.1547
國在	-10.1548
之族	-10.1555
也何	-10.1556
侵陳	-10.1556
孫林父	-10.1557
不繫	-10.1561
庚寅	-10.1562
辛丑	-10.1564
不善	-10.1565
以見其	-10.1566
閉	-10.1572
师	-10.1575
不稱公子	-10.1576
卻	-10.1579
弃	-10.1582
桓文	-10.1584
而盟	-10.1585
十里	-10.1604
魯桓	-10.1611
士㑹	-10.1614
始終	-10.1617
徹	-10.1619
國佐	-10.1636
而齊	-10.1642
華氏	-10.1646
矣又	-10.1655
穆叔	-10.1656
人情	-10.1657
人者	-10.1658
所言	-10.1665
宋鄭	-10.1666
右師	-10.1666
為此	-10.1671
不聽	-10.1684
來者	-10.1684
欲使	-10.169
不共	-10.1691
文也	-10.1697
僖二十八年	-10.1699
矯	-10.17
之兵	-10.1701
○(	-10.1701
庶子	-10.1711
不親	-10.1712
犂	-10.1716
又謂	-10.1718
以從	-10.1719
召之	-10.172
伸	-10.1721
鄢	-10.1725
為亂	-10.1729
之妻	-10.1733
陶	-10.1734
監	-10.1736
雷	-10.1741
欽定四庫全書春秋	-10.1741
不獲	-10.1742
王子虎	-10.1745
於春秋	-10.1751
凡諸侯	-10.1761
詹	-10.1762
而諸侯	-10.1763
驪姬	-10.1764
柄	-10.1765
又書	-10.1767
其上	-10.1768
侯伯	-10.1768
返	-10.1781
定四年	-10.1785
悪	-10.1786
者是	-10.1786
命也	-10.1791
司城	-10.1792
遭	-10.1794
削之	-10.18
志也	-10.1805
癸巳	-10.1806
𫝊云	-10.1806
録之	-10.1808
百姓	-10.1813
亦書	-10.1814
協	-10.1817
邦國	-10.182
戰而	-10.1821
旋	-10.1826
卓	-10.1828
之正	-10.1831
諸樊	-10.1831
同心	-10.1834
繇	-10.1837
陋	-10.1841
中國諸侯	-10.1845
為災	-10.1845
不順	-10.1848
召伯	-10.1854
縣西北	-10.1855
祗	-10.1858
包	-10.1859
偶	-10.1859
三十二年	-10.186
羣公子	-10.1863
論之	-10.1867
徇	-10.1869
童	-10.1871
豆	-10.1876
也其曰	-10.1879
也案	-10.1881
頼	-10.1882
趙穿	-10.1882
矣夫	-10.1884
王曰	-10.1884
入者	-10.1887
司寇	-10.1889
無名	-10.1891
宋華元	-10.1893
於天下	-10.1896
閑	-10.1897
限	-10.1898
偕	-10.1901
之末	-10.1911
屏	-10.1916
伐徐	-10.1916
浸	-10.1922
禽獸	-10.1925
阿	-10.1935
雖欲	-10.1936
朱子曰	-10.1939
為之也	-10.1941
激	-10.1941
彭	-10.1943
出于	-10.1944
㑹晉	-10.1947
陸氏曰	-10.1951
後至	-10.1951
而能	-10.1951
與宋	-10.1953
而獨	-10.1955
郤至	-10.1957
閽	-10.1962
寄	-10.1963
公羊云	-10.1965
復讎	-10.1972
以定	-10.1977
竹	-10.1978
天王崩	-10.1979
則為	-10.1981
亡矣	-10.1985
曷為不言	-10.199
互	-10.1995
常事不書	-10.1998
晉君	-10.2009
為晉	-10.2014
符	-10.2018
兮	-10.2022
彰	-10.2025
懿	-10.2026
進之	-10.2029
也蓋	-10.2031
癸未	-10.2033
潞	-10.2034
圃	-10.2034
季氏之	-10.2035
水出	-10.2036
二十一	-10.2037
伐國	-10.2041
有此	-10.2042
汾	-10.2043
王道	-10.2043
者盖	-10.2044
晏子	-10.2051
弗克	-10.2056
侍	-10.206
王師	-10.2061
者以其	-10.2076
禾	-10.2079
於君	-10.208
績	-10.2085
復命	-10.2086
季武子	-10.2089
冢宰	-10.2089
丁丑	-10.2095
共公	-10.2099
奄	-10.2101
為貶	-10.2101
之敗	-10.2104
告之	-10.2104
公㑹齊侯	-10.2106
其爵	-10.2109
展輿	-10.2112
雒	-10.2116
國史	-10.2121
訾	-10.2121
税	-10.2121
弗聽	-10.2124
陸渾	-10.2125
下云	-10.2126
卒而	-10.2132
本無	-10.2132
今日	-10.2133
乆矣	-10.2136
者四	-10.2137
桐	-10.2138
五日	-10.2147
天子諸侯	-10.2152
孟孫	-10.2152
歛	-10.2159
卿士	-10.2165
入郢	-10.2173
注無傳	-10.2177
数	-10.2179
武城	-10.2187
跡	-10.2188
罪其	-10.2194
春王三月	-10.2198
邾莒	-10.2206
闞	-10.2212
不加	-10.2215
域	-10.2219
中夏	-10.2221
邵	-10.223
之實	-10.223
毛伯	-10.2232
于陳	-10.2234
子罕	-10.2236
犬	-10.2236
良霄	-10.2239
用師	-10.2245
壹	-10.2247
耦	-10.2249
路寢	-10.225
毎	-10.225
二邑	-10.2251
譎	-10.2252
伉	-10.2254
禮樂	-10.2254
照	-10.226
夷狄之	-10.2262
禮義	-10.2263
㫖	-10.2266
外之	-10.2268
子孔	-10.2268
滕薛	-10.2271
乙酉	-10.2272
諸侯無	-10.2273
圍成	-10.2275
以为	-10.2277
他人	-10.2283
然也	-10.2284
是知	-10.2284
媚	-10.2288
書伐	-10.2289
韓宣子	-10.229
消	-10.2293
也其言	-10.2298
但言	-10.2301
入國	-10.2302
莘	-10.2306
潛	-10.2309
爲之	-10.2311
衷	-10.2311
從者	-10.2311
世卿	-10.2313
患之	-10.2316
匹夫	-10.2319
在焉	-10.2327
露	-10.2331
爻	-10.235
救邢	-10.2357
泥	-10.2357
不稱使	-10.2364
故聖人	-10.2367
而先	-10.2368
筆	-10.2376
荀偃	-10.2377
托	-10.2379
季札	-10.2383
非所	-10.2389
之分	-10.2393
出奔晉	-10.2402
之大夫	-10.2402
晉以	-10.2403
深矣	-10.2408
反覆	-10.241
公㑹晉侯	-10.2416
行也	-10.2416
或者	-10.2417
鎮	-10.2418
乖	-10.2419
經不書	-10.2419
故謂之	-10.2427
稱人者	-10.2428
之可也	-10.2429
親之	-10.243
子重	-10.2434
始於	-10.2436
覺	-10.2437
湖	-10.2439
釋之	-10.2445
於禮	-10.2445
而後書	-10.2448
襃貶	-10.2453
信也	-10.2462
遷于	-10.2466
其書	-10.2468
繆	-10.247
味	-10.2471
其次	-10.2473
夷吾	-10.2475
宥	-10.2478
王世子	-10.2478
今乃	-10.2479
師還	-10.2481
許叔	-10.2483
驟	-10.2483
惡而	-10.2486
男女	-10.2492
讙	-10.2495
隣	-10.2498
庚申	-10.2499
罪之	-10.25
夾	-10.2505
之女	-10.2506
文公之	-10.251
乃止	-10.2512
帥師伐	-10.2519
未踰年	-10.2521
不書者	-10.2522
士鞅	-10.2525
奔喪	-10.2525
父之	-10.2527
嗣子	-10.2528
沂	-10.2528
而歸之	-10.2529
到	-10.253
之䘮	-10.253
胡氏傳	-10.2531
胡安國曰	-10.2533
項	-10.2536
其官	-10.2537
蠻	-10.2541
副	-10.2544
故城	-10.2545
夫婦	-10.2549
己酉	-10.2549
定姒	-10.2551
則不書	-10.2554
何必	-10.2557
傳見	-10.2563
而不得	-10.2565
之象	-10.2565
救徐	-10.2566
不序	-10.257
其死	-10.257
愆	-10.2573
婚姻	-10.2578
如㑹	-10.2579
故書曰	-10.2588
春秋之所	-10.2593
故因	-10.2595
崔	-10.2596
圖之	-10.2598
二事	-10.2598
晉襄	-10.2607
公以	-10.2608
夫人姜氏	-10.2609
得失	-10.261
楚子伐鄭	-10.261
二十三	-10.261
警	-10.2614
而伐之	-10.2615
免牲	-10.2616
夫差	-10.2619
有餘	-10.2625
公會齊侯	-10.2626
再書	-10.2627
甲寅	-10.2634
河陽	-10.2634
荀罃	-10.2634
譛	-10.2634
杜以	-10.2637
而未	-10.2637
微弱	-10.2638
存之	-10.2641
所生	-10.2642
蒯	-10.2646
優	-10.2649
無大夫	-10.2651
馳	-10.2652
此與	-10.2652
書歸	-10.2654
孟獻子	-10.2655
納公	-10.2658
黑	-10.2668
君薨	-10.2669
㓜	-10.2673
䟽	-10.2675
雪	-10.2676
不書公	-10.2678
春秋之時	-10.2679
舉其	-10.2682
之政	-10.2683
首惡	-10.2684
酉	-10.2689
秋九月	-10.2689
不許	-10.2689
首止	-10.269
不聞	-10.2693
也盖	-10.2696
之次	-10.2696
涖	-10.2696
叔向曰	-10.2697
不廢	-10.2699
須句	-10.27
也古者	-10.2701
釋例曰	-10.2702
于廟	-10.2702
子常	-10.2705
入陳	-10.2708
子產	-10.2709
春王二月	-10.2714
豈得	-10.2722
此盟	-10.2726
相去	-10.2729
裘	-10.2739
南北	-10.274
亡國	-10.2756
者正以	-10.2764
在此	-10.2766
氏之	-10.2769
之節	-10.277
弭	-10.2793
不顧	-10.2793
范氏曰	-10.2798
王后	-10.2801
或以為	-10.2806
無復	-10.2807
不死	-10.2808
頭	-10.281
匿	-10.281
此春秋	-10.281
莫不	-10.2811
致之	-10.2812
父兄	-10.2821
自取	-10.2826
慝	-10.2832
鄭國	-10.2832
乙未	-10.2835
伐曹	-10.2836
難也	-10.2837
蛇	-10.2838
復國	-10.2845
不可不	-10.2854
底	-10.2855
君將	-10.2856
弑也	-10.2856
二者	-10.2857
立君	-10.2859
嬰	-10.2859
論語	-10.286
與中國	-10.2867
射姑	-10.2868
奔莒	-10.2869
而往	-10.2876
于朝	-10.2877
括	-10.288
耻	-10.2881
為齊	-10.2881
書月	-10.2887
鄭忽	-10.289
唁	-10.2892
有年	-10.2896
軒	-10.2896
未見	-10.2897
將中軍	-10.29
寗喜	-10.2905
之士	-10.2908
三代	-10.2908
壬戌	-10.291
執事	-10.2914
辛卯	-10.2914
王朝	-10.2914
愧	-10.2915
既葬	-10.2918
誅之	-10.2923
而執	-10.2929
齊襄	-10.293
孔達	-10.2931
亂也	-10.2935
助之	-10.2935
不可謂	-10.2935
使其	-10.294
畿内	-10.294
必先	-10.2941
何罪	-10.2943
外大夫	-10.2943
而與之	-10.2949
予之	-10.2955
林言	-10.2956
孛	-10.2962
鄣	-10.2963
史官	-10.2964
試	-10.2965
仲孫蔑	-10.2971
所書	-10.2972
為楚	-10.2973
上文	-10.2975
會盟	-10.2976
虢公	-10.2979
所載	-10.2979
也於是	-10.2979
凡伯	-10.298
稱夫人	-10.298
屯	-10.2986
以救	-10.299
南蒯	-10.299
大司馬	-10.3
至今	-10.3005
於經	-10.3009
故為	-10.3013
之由	-10.3018
以備	-10.3021
告于	-10.3023
一國之	-10.3029
用事	-10.3031
伐者	-10.3032
悦	-10.3036
楚人伐鄭	-10.3037
夏時	-10.3041
城成周	-10.3041
以利	-10.3041
也愚謂	-10.3041
二十二	-10.3043
為盟主	-10.3052
續	-10.3057
罪在	-10.306
存亡	-10.3061
不得已而	-10.3072
天子之命	-10.3074
可矣	-10.3075
覿	-10.3079
韋	-10.3089
稽	-10.3089
成之	-10.3089
臧孫	-10.3092
丙子	-10.3093
范宣子	-10.3095
王崩	-10.3097
㑹吳	-10.3102
淵	-10.3102
卯	-10.3114
事齊	-10.3116
故先	-10.3116
巴	-10.3116
春秋所	-10.3116
道之	-10.3117
二十六	-10.312
刃	-10.3122
䝉	-10.3125
不能正	-10.3128
災異	-10.313
佚	-10.3132
亡也	-10.3134
縣東南有	-10.3137
諱也	-10.314
過也	-10.3144
下書	-10.3144
緣	-10.3144
此乃	-10.3145
莫能	-10.316
恣	-10.316
之職	-10.3162
式	-10.317
亦然	-10.3172
其中	-10.3173
者所以	-10.3176
之耳	-10.318
東遷	-10.3181
者葢	-10.3183
呉人	-10.3187
聲子	-10.3188
闔廬	-10.3189
覲	-10.3189
變例	-10.3191
乎春秋	-10.3191
歸寧	-10.3191
荅	-10.3194
公不	-10.3194
以相	-10.3195
萌	-10.3195
之來	-10.3201
以著其	-10.3208
漢書	-10.321
王正月	-10.3211
鐸	-10.3211
自齊	-10.3212
藩	-10.3219
普	-10.322
之物	-10.3228
而奔	-10.3228
柤	-10.3232
乙丑	-10.3233
契	-10.3234
春秋之初	-10.3238
諸侯伐鄭	-10.324
之子也	-10.3242
宇	-10.3253
朝夕	-10.3258
請命	-10.326
溫	-10.3261
何所	-10.3262
要之	-10.3265
左𫝊	-10.327
下軍	-10.3272
部	-10.3272
領	-10.3278
麻	-10.3283
弦	-10.3284
於是始	-10.3287
其家	-10.3289
繼之	-10.329
商臣	-10.3292
世本	-10.3295
不志	-10.3295
已甚	-10.3296
樊	-10.3301
直言	-10.3307
而况	-10.331
遷之	-10.3311
而朝	-10.3311
志在	-10.3312
伊	-10.3324
天王之	-10.3327
之怨	-10.333
詔	-10.3333
女子	-10.3335
遇于	-10.3336
守之	-10.3338
袁僑	-10.3346
本末	-10.3349
㑹者	-10.3352
之盛	-10.3353
此說	-10.3353
陽處父	-10.3359
王子朝	-10.3364
夏正	-10.3371
長厯	-10.3375
自外	-10.3378
於國	-10.3379
士縠	-10.3381
公自	-10.3381
之長	-10.3386
於衛	-10.3388
則必	-10.3396
惰	-10.3402
沮	-10.3403
乃還	-10.3411
根	-10.3415
隰	-10.3421
宋師	-10.3422
徼	-10.3426
廹	-10.3429
而殺	-10.3433
壬辰	-10.3433
正之	-10.3438
此非	-10.3439
晉悼公	-10.3441
自相	-10.3448
耳非	-10.3449
之善	-10.3451
朝而	-10.3452
之事也	-10.3456
不食	-10.3457
為質	-10.3457
戊午	-10.346
不易	-10.3461
姻	-10.3465
如之何	-10.3467
取鄆	-10.3469
翟泉	-10.3469
篤	-10.3472
自見	-10.3473
之歸	-10.3475
后稷	-10.3475
無有	-10.3482
之數	-10.3483
譜	-10.3484
鍾離	-10.3492
晚	-10.3496
辭以	-10.3499
有寵	-10.3503
子大叔	-10.3503
失政	-10.3505
為公	-10.351
邲	-10.3511
而不名	-10.3513
伐戎	-10.3526
大蒐	-10.3528
寸	-10.3528
之過	-10.3532
中牟	-10.3534
在喪	-10.3535
蓼	-10.3539
儀父	-10.3542
罪之也	-10.3545
曷爲	-10.3548
負芻	-10.3548
五行	-10.3551
皆曰	-10.3551
在楚	-10.3552
一旦	-10.3552
諸侯有	-10.3552
不絶	-10.3553
淳于	-10.3556
為異	-10.3556
申侯	-10.3556
举	-10.3558
壤	-10.356
挈	-10.3568
為宋	-10.3568
討其	-10.3569
失道	-10.3576
康叔	-10.3584
叔牙	-10.3585
國無	-10.3587
辞	-10.3587
羔	-10.3589
訖	-10.3589
丙辰	-10.359
與人	-10.3591
楚公子	-10.3592
敢不	-10.3592
問於	-10.3597
公至自會	-10.3603
攻之	-10.3612
一書	-10.3612
維	-10.3617
不君	-10.3622
知此	-10.3623
孺子	-10.3624
廬陵李氏曰	-10.3625
者見	-10.3627
而莫之	-10.3628
爾雅	-10.3628
不言及	-10.3629
謂其	-10.3635
為令尹	-10.3635
懿公	-10.3635
於前	-10.3636
臧文仲	-10.3637
辛夘	-10.3638
以是	-10.3639
皆以為	-10.364
勉	-10.365
狀	-10.3655
天子之禮	-10.3655
也聖人	-10.3664
𢎞	-10.3666
非時	-10.3672
同上	-10.3675
雞	-10.3675
事實	-10.3679
髙厚	-10.3681
霜	-10.3683
詭	-10.3684
吁	-10.3684
非特	-10.3685
視之	-10.3688
六十	-10.3694
得罪於	-10.37
之禮也	-10.3705
子弟	-10.3707
春秋之世	-10.3707
▁左氏傳	-10.3711
繋	-10.3711
及齊	-10.3714
稱世子	-10.3718
莊公之	-10.3727
見經	-10.3728
所能	-10.3728
飛	-10.373
從其	-10.3737
狂	-10.3738
施於	-10.3738
鞏	-10.3739
討也	-10.374
先公	-10.3741
定王	-10.3746
不言公	-10.3747
浮	-10.3752
辛未	-10.3761
稱伯	-10.3766
臣子之	-10.3773
簒弑	-10.3775
畝	-10.3781
也髙氏曰	-10.3782
者多矣	-10.3783
增	-10.3785
當為	-10.3787
服䖍云	-10.3793
稽首	-10.3795
敦	-10.3804
天地之	-10.3806
人皆	-10.3829
城楚丘	-10.3834
家語	-10.3835
為惡	-10.3837
罔	-10.3839
五十里	-10.384
不氏	-10.3842
文武	-10.3847
播	-10.3857
謀之	-10.386
今屬	-10.3861
荆蠻	-10.3862
衆也	-10.3863
于天子	-10.3867
賈逵	-10.387
不與其	-10.3874
之語	-10.3878
下有	-10.3885
又音	-10.3892
諸家	-10.3897
慕	-10.3897
也榖梁傳	-10.3898
春秋所書	-10.3899
未成	-10.3899
胙	-10.3908
或作	-10.3909
亦未	-10.3913
無貶	-10.3913
河東	-10.3916
書即位	-10.3917
之迹	-10.3921
以師	-10.3922
享之	-10.3923
襄十	-10.3931
始也	-10.3932
揖	-10.3933
纔	-10.3934
尋盟	-10.3935
之援	-10.3937
祭之	-10.3939
昭元年	-10.3941
月令	-10.3943
在下	-10.3944
城父	-10.3945
東夷	-10.3948
祠	-10.3952
㑹齊侯	-10.3952
十有五年	-10.3957
之應	-10.3957
佩	-10.3957
槩	-10.396
案他本	-10.396
則可	-10.3961
魯邑	-10.3966
宋平	-10.3974
戰國	-10.3976
今在	-10.3976
醜	-10.3979
旬	-10.3982
以王命	-10.3987
故得	-10.3988
君子之	-10.3988
亦不書	-10.399
猶不	-10.3991
不恤	-10.3991
凌	-10.3993
會諸侯	-10.3999
霸者	-10.4
翟	-10.4001
涖盟	-10.4003
張本	-10.4013
君若	-10.4014
旨	-10.4022
於後	-10.4024
其日	-10.4026
踐	-10.4028
非其	-10.4029
者言	-10.4035
蕭魚	-10.4035
載書	-10.4036
荀躒	-10.4038
柯	-10.4039
戍之	-10.404
王氏曰	-10.404
叛臣	-10.4044
朔日有食之	-10.4044
韓起	-10.4045
壇	-10.4046
上公	-10.4047
陳留	-10.4052
而鄭	-10.4053
滎陽	-10.4054
何獨	-10.4056
儉	-10.4058
不終	-10.4066
北方	-10.4068
外交	-10.4069
輸平	-10.4072
齊衛	-10.4073
邇	-10.4078
何足	-10.4078
曲直	-10.4081
子赤	-10.4082
滅陳	-10.4085
叔仲	-10.4091
聘問	-10.4098
也疏	-10.4098
桓二年	-10.4098
皈	-10.41
七十	-10.4108
皆無	-10.411
兩國	-10.4111
焉則	-10.4111
其衆	-10.4115
汜	-10.4121
者此	-10.4122
叔孫僑如	-10.4122
不得與	-10.4123
又使	-10.4128
於上	-10.413
無乃	-10.4131
屨	-10.4133
鄭師	-10.4133
迭	-10.4135
黄帝	-10.4136
未盡	-10.4142
女也	-10.4145
救宋	-10.4146
未命	-10.4148
肸	-10.4151
胡子	-10.4152
𨽻	-10.4154
□	-10.4154
從君	-10.4155
殤公	-10.4156
之深	-10.4156
子突	-10.4157
鄭𤣥	-10.4159
焉耳	-10.4162
倉	-10.4162
昭公之	-10.4163
無冰	-10.4165
故杜	-10.417
其師	-10.4171
曺	-10.4172
再見	-10.4187
能無	-10.4188
大宰	-10.4188
之邑也	-10.4189
侵楚	-10.4197
以諸侯	-10.42
殖	-10.4202
祧	-10.4206
北杏	-10.421
而從	-10.421
春秋書之	-10.4216
伯爵	-10.4217
裔	-10.422
出奔齊	-10.4223
冬十二月	-10.4229
沛	-10.4234
受賂	-10.424
郤缺	-10.4242
報怨	-10.4243
公命	-10.4246
坎	-10.4253
有國	-10.4255
代之	-10.4256
初立	-10.4256
两	-10.426
請於	-10.4262
大矣	-10.4265
何謂	-10.4269
服楚	-10.4273
:『	-10.4278
贄	-10.4283
見于	-10.4286
晏	-10.4287
冬十一月	-10.4287
又不能	-10.4289
非一	-10.429
故傳	-10.4295
公子友	-10.4298
於陳	-10.4299
蒍	-10.4304
區	-10.4305
以出	-10.4308
者惟	-10.431
斾	-10.431
偃師	-10.4313
疎	-10.4313
往㑹	-10.4314
鑒	-10.4316
其兄	-10.4317
故雖	-10.4318
彭生	-10.4318
十有三年	-10.432
軫	-10.4326
十有一年	-10.4327
于衛	-10.4332
無可	-10.4336
之大者	-10.4337
變而	-10.4341
子産曰	-10.4344
大辰	-10.4345
所不	-10.4351
春秋不書	-10.4352
弑而	-10.4355
畀	-10.4357
於義	-10.436
曹衛	-10.4366
此云	-10.4369
其親	-10.437
甲兵	-10.4371
其歸	-10.4372
楚成	-10.4373
滅同姓	-10.4375
政事	-10.4378
在於	-10.4383
國有	-10.4388
終始	-10.4389
即是	-10.4392
君不	-10.4392
詰	-10.4393
文王之	-10.4395
其道	-10.4396
皆為	-10.4401
門之外	-10.4402
故復	-10.4405
殺人	-10.441
侵衛	-10.4422
見伐	-10.4425
隊	-10.4435
弑君之罪	-10.4437
燮	-10.4437
幕	-10.4439
辨之	-10.4439
鑄	-10.4441
冒	-10.4442
周正	-10.445
魯有	-10.4452
蔡季	-10.4456
豈能	-10.4458
之稱	-10.4458
未敢	-10.4459
討罪	-10.4462
或有	-10.4462
詩小雅	-10.4464
謗	-10.4469
弗與	-10.4473
不得為	-10.4476
不已	-10.4477
服也	-10.4481
二字	-10.4484
顓頊	-10.4485
子良	-10.449
之漸	-10.4492
例也	-10.4495
諱之也	-10.4509
得禮	-10.4511
一音	-10.4512
於越	-10.4514
天討	-10.4519
因以	-10.452
繒	-10.4521
世室	-10.4524
二十七	-10.453
寺人	-10.4531
君其	-10.4533
有事於	-10.4534
人之所	-10.4534
榖梁傳曰	-10.4536
伯者	-10.4537
他日	-10.4539
倒	-10.4543
乏	-10.4545
替	-10.4547
雖然	-10.4558
獨書	-10.4562
孟明	-10.4562
緡	-10.4563
以存	-10.4564
食之	-10.4564
大史	-10.4565
歸者	-10.4567
入許	-10.4567
公羊謂	-10.457
其始	-10.4572
蕃	-10.4572
可得	-10.4573
也故曰	-10.4574
我也	-10.4574
亦如之	-10.4579
本非	-10.4582
前日	-10.4583
而去之	-10.4586
不惟	-10.4589
子爵	-10.4589
亂賊	-10.4589
▁臣謹按	-10.4599
楚而	-10.46
檉	-10.4602
格	-10.4602
戊子	-10.4612
始封	-10.4614
不得已	-10.4617
無疑	-10.4618
叛也	-10.4619
胄	-10.4626
鳯	-10.4626
羿	-10.4629
以取	-10.4629
朝廷	-10.4637
定哀	-10.4638
不吉	-10.4639
岳	-10.4641
鄭突	-10.4645
當從	-10.4646
特以	-10.4647
襚	-10.4648
言之則	-10.4648
墜	-10.4655
榖梁云	-10.4655
諡法	-10.4655
季氏私考	-10.4657
壬寅	-10.4657
元年春王正月	-10.4659
罪人	-10.466
社稷之	-10.4663
弁	-10.4666
追之	-10.4671
裳	-10.4675
致其	-10.4677
迂	-10.4677
不祥	-10.4679
矣若	-10.468
楚滅	-10.4689
丁亥	-10.4694
之比	-10.4701
芳	-10.4701
之誤	-10.4703
之甚也	-10.4706
泣	-10.4706
敵也	-10.4708
而知	-10.4709
冢	-10.4709
之謂也	-10.4711
所由	-10.4711
春秋於	-10.4714
是矣	-10.4717
自見矣	-10.4719
楚子使	-10.4722
失位	-10.4722
宋襄公	-10.4724
公至自	-10.4724
外諸侯	-10.4726
壘	-10.4727
幸而	-10.4727
宼	-10.4728
驚	-10.473
將死	-10.4734
司冦	-10.4737
是亦	-10.474
止書	-10.4741
不可言	-10.4748
祖廟	-10.4748
不堪	-10.4749
元年春王正月公即位	-10.4749
之賊	-10.4752
以重	-10.4756
減	-10.4757
栗	-10.4758
其他	-10.4761
臨川吳氏曰	-10.4762
劒	-10.4763
先祖	-10.4764
繩	-10.4768
所以見	-10.4769
告於	-10.4769
知有	-10.4773
閱	-10.4774
服䖍	-10.4774
而實	-10.4779
豎	-10.478
善其	-10.478
栁	-10.4784
醉	-10.4785
麗	-10.4786
裁	-10.4787
漆	-10.4788
髪	-10.4789
乃使	-10.479
圗	-10.479
入春秋	-10.4791
庶幾	-10.4796
馬陵	-10.4799
悲	-10.4802
籥	-10.4805
越境	-10.4809
非謂	-10.4813
荀寅	-10.4814
封之	-10.4814
娶于	-10.4814
立而	-10.4821
其來	-10.4828
齊侯宋公	-10.4833
枝	-10.4835
於時	-10.4836
慈	-10.4837
山東	-10.4838
人道	-10.4838
良夫	-10.4839
叔孫得臣	-10.4845
不改	-10.4846
救患	-10.4847
王官	-10.4848
之先	-10.4849
君臣之	-10.4852
莫如	-10.4861
其職	-10.4861
一朝	-10.4866
侵之	-10.4867
曠	-10.4874
死之	-10.4878
子木	-10.488
乙巳	-10.4882
之威	-10.4883
次於	-10.4883
不與盟	-10.4886
者正	-10.4892
石碏	-10.4895
同日	-10.4911
雖無	-10.4916
五人	-10.4918
婼	-10.4921
晉陽	-10.4926
無信	-10.4926
叔肸	-10.4927
將卑師少	-10.4927
也張氏曰	-10.4931
無虧	-10.4932
不幸	-10.4936
齊國	-10.4938
重丘	-10.4938
其邑	-10.4938
虞公	-10.4942
吳師	-10.4942
成十六年	-10.4943
遁	-10.4948
不見公	-10.4948
瓦	-10.4951
遊	-10.4952
與公	-10.4953
蓋以	-10.4956
其勢	-10.4956
郛	-10.4961
觀其	-10.4963
前書	-10.4969
外裔	-10.4969
前定	-10.4976
㓕	-10.498
志之	-10.4984
今河南	-10.4987
之重	-10.4987
當書	-10.4988
而云	-10.4993
不取	-10.4994
出姜	-10.4994
王事	-10.4998
行成	-10.4998
不問	-10.5002
中國而	-10.5002
成十	-10.5006
善也	-10.5012
髙氏	-10.5016
言及	-10.5017
卞	-10.5022
以大夫	-10.5022
紀之	-10.5025
書同盟	-10.5027
康王	-10.5028
南陽	-10.503
吴子	-10.5032
廉	-10.5033
究	-10.5035
禍亂	-10.5042
百四十	-10.5043
弟也	-10.5044
者若	-10.5045
變也	-10.505
公行	-10.5052
𥘉	-10.5055
一等	-10.5055
即楚	-10.5061
把伯	-10.5061
蠱	-10.5062
之始也	-10.5064
也况	-10.5066
此二	-10.5067
一見	-10.5069
令狐	-10.5071
天下之大	-10.5072
公如晉至河乃復	-10.5073
送葬	-10.5077
未絶	-10.5085
相繼	-10.5085
請盟	-10.5088
已見	-10.5091
凢	-10.5091
齊大夫	-10.5092
不書至	-10.5102
公至自齊	-10.5103
免於	-10.5109
三十里	-10.5111
所見	-10.5115
荀林父	-10.5116
則不可	-10.5122
不盡	-10.5128
古今	-10.5129
此其言	-10.513
衛之	-10.513
巡	-10.5133
卜郊	-10.5138
此以	-10.5139
産	-10.5141
鄀	-10.5144
植	-10.5144
也彼	-10.5151
未之	-10.5164
晉伯	-10.5164
授之	-10.5171
不去	-10.5172
蘇子	-10.5174
河内	-10.5175
盟于扈	-10.5175
武夷胡氏傳	-10.518
三世	-10.518
濟西	-10.5185
鲁	-10.5186
程氏	-10.5187
之宫	-10.5191
九年春	-10.5193
者罪	-10.5193
僞	-10.5194
從齊	-10.5199
自有	-10.52
記事	-10.52
所聞	-10.5201
在㑹	-10.5202
𣏌	-10.5202
行而	-10.5204
而用	-10.5208
師出	-10.521
之奔	-10.522
之篇	-10.5222
之氣	-10.5223
南門	-10.5225
王所	-10.5226
不暇	-10.5227
巧	-10.523
專殺	-10.523
無咎	-10.5236
上有	-10.5238
據傳	-10.5241
先軫	-10.5242
六年春	-10.5246
晉趙盾	-10.5248
也左氏	-10.5251
何以不言	-10.5252
天命	-10.5254
紹	-10.5256
拔	-10.5259
附㑹	-10.5266
無譏	-10.5267
致討	-10.5268
陳佗	-10.5268
簡子	-10.5269
據左氏	-10.5271
庶人	-10.5272
縶	-10.5276
許氏曰	-10.5276
三命	-10.5279
書其	-10.528
二年春	-10.5285
導	-10.5285
不嫌	-10.5286
刼	-10.5288
之舉	-10.5294
事在	-10.5295
已而	-10.5297
軍旅	-10.5298
書時	-10.53
賢也	-10.53
左氏作	-10.5301
㑹呉	-10.5303
萬物	-10.5309
本或作	-10.5313
遂伐	-10.5315
邾子來朝	-10.5315
何其	-10.532
不孝	-10.5324
安在	-10.5326
以别	-10.533
日者	-10.5332
又作	-10.5334
所宜	-10.5336
卿也	-10.5337
亦何	-10.5338
時而	-10.5341
鈞	-10.5343
函	-10.5343
糧	-10.5343
為後	-10.5349
克之	-10.5351
齊僖	-10.5353
諸侯㑹	-10.5353
畏齊	-10.5353
未有不	-10.5356
曰此	-10.5358
法也	-10.5358
何忌	-10.5359
束	-10.5364
睢	-10.5364
書公	-10.5365
日中	-10.5367
聘魯	-10.5368
聘而	-10.5373
魯自	-10.5374
賞罰	-10.5376
絶其	-10.5376
反注同	-10.5377
宋向戌	-10.5378
𫝊曰	-10.538
徒以	-10.538
卒葬	-10.5381
殤	-10.5382
偪陽	-10.5384
所出	-10.5385
齊以	-10.5389
牡	-10.539
弗能	-10.5394
郷	-10.5396
渭	-10.5397
而可	-10.5397
所欲	-10.5402
棄之	-10.5403
入而	-10.5403
自此始	-10.5406
國中	-10.5411
者乃	-10.5421
以弑	-10.5422
女叔	-10.5425
汪氏克寛曰	-10.5425
轍	-10.5428
欒黶	-10.543
五伯	-10.5433
太宰	-10.5433
聘禮	-10.5436
已有	-10.5443
而取之	-10.5444
後漢	-10.5445
閲	-10.5446
義同	-10.545
晋人	-10.5451
土功	-10.5454
絰	-10.5456
汶陽之田	-10.5461
而成	-10.5463
汶陽	-10.5466
也不言	-10.547
之戒	-10.5473
之民	-10.5473
齊歸	-10.5475
報之	-10.5479
而見	-10.548
共王	-10.5481
異矣	-10.5483
君者	-10.5485
用幣	-10.5486
也葢	-10.549
見於經	-10.5496
趙衰	-10.5498
定之	-10.5499
告朔	-10.5503
相似	-10.5503
幽王	-10.5507
又案	-10.5508
為臣	-10.5514
擾	-10.5514
倡	-10.5515
夾谷	-10.5515
案左氏	-10.5515
正名	-10.5516
王室亂	-10.5519
不討賊	-10.5519
不赴	-10.552
堯舜	-10.552
弑君者	-10.5522
其禍	-10.5525
救齊	-10.5527
過矣	-10.5527
不務	-10.5531
之體	-10.5531
!	-10.5532
伯討	-10.5533
戦	-10.5535
曰昔	-10.5537
為㑹	-10.5545
苟有	-10.5546
戰也	-10.5552
上國	-10.5554
淳	-10.5558
之異	-10.5558
糴	-10.5559
于是乎	-10.5562
又與	-10.5565
春秋以	-10.5565
盟會	-10.5566
偷	-10.5572
命大夫	-10.5572
内史	-10.5573
信之	-10.5575
舒鳩	-10.5576
若不	-10.5579
易曰	-10.5584
說者	-10.5589
公羊榖梁	-10.5594
鹽	-10.5597
貴賤	-10.56
見逐	-10.56
兩君	-10.56
黔牟	-10.5602
之入	-10.5604
莫敢	-10.5607
曰諸侯	-10.5609
不果	-10.5611
新宫	-10.5614
庶其	-10.5619
末年	-10.562
宣十	-10.5623
數年	-10.5626
也程子曰	-10.5626
由此	-10.5629
昭十	-10.5632
先蔑	-10.5635
以名	-10.564
丁酉	-10.5641
不由	-10.5641
之恩	-10.5642
反下	-10.5642
楚國	-10.5642
於中國	-10.5644
狄侵齊	-10.5648
致女	-10.5653
災也	-10.5653
媯	-10.5656
得鄭	-10.5658
為附庸	-10.5658
居之	-10.5659
再命	-10.5661
奮	-10.5662
杼	-10.5663
以私	-10.5663
國亂	-10.5668
諫曰	-10.567
大敗	-10.5677
嗣位	-10.5677
安能	-10.5679
一嵗	-10.5683
帷	-10.5686
文十	-10.5691
魏絳	-10.5693
宫室	-10.5696
一軍	-10.5697
先縠	-10.57
妹	-10.5704
州公	-10.5707
八年春	-10.5707
聲姜	-10.5707
餼	-10.5714
丙申	-10.5721
非聖人	-10.5721
也何以	-10.5722
賢而	-10.5722
義不	-10.5732
懼其	-10.5733
悼子	-10.5736
!」	-10.5738
其所以	-10.5738
難而	-10.5742
贈	-10.5748
壺	-10.5748
翦	-10.575
不言戰	-10.575
桀	-10.5752
與此	-10.5753
求成	-10.5755
師敗	-10.5756
季孫意如	-10.5756
不察	-10.576
叔服	-10.5762
其喪	-10.5764
盟之	-10.5766
不淂	-10.5769
因事	-10.5769
阻	-10.5779
魋	-10.5781
之舊	-10.5781
畔	-10.5781
壽夢	-10.5782
或言	-10.5788
之利	-10.579
此何以書	-10.5793
問之	-10.5793
悼公之	-10.5795
省文	-10.5796
䇿書	-10.5796
不名者	-10.5797
下陽	-10.58
今復	-10.5802
小邾子	-10.5803
退而	-10.5806
莒慶	-10.5808
之辱	-10.5809
縣東有	-10.5813
二軍	-10.5817
昭伯	-10.5817
亦不得	-10.5821
萬世	-10.5821
妨	-10.5823
而謂之	-10.5827
既不	-10.5827
子元	-10.5829
子哀	-10.5832
若何	-10.5832
緯	-10.5838
齊姜	-10.5842
於民	-10.5846
特筆	-10.5848
後書	-10.5848
皆云	-10.5853
臧氏	-10.5853
弑君而	-10.5854
晉趙鞅	-10.5855
玄	-10.5858
侯爵	-10.5858
啖子曰	-10.5859
十有四年	-10.5859
大變	-10.5861
柩	-10.5863
豈以	-10.5863
弟子	-10.5864
紇	-10.5864
􁊋	-10.5865
劫	-10.5866
二十里	-10.5866
冶	-10.5867
所封	-10.5868
無不	-10.587
干戈	-10.5872
髙郵孫氏曰	-10.5873
吉凶	-10.5877
民力	-10.5887
不爲	-10.5888
於下	-10.5889
臣下	-10.5889
二三子	-10.5895
何以名	-10.5895
君親	-10.59
不卒	-10.5901
邴	-10.5901
共姬	-10.5904
山戎	-10.5905
簒立	-10.5913
注釋曰	-10.5916
者或	-10.5921
以謀	-10.5925
捨	-10.5929
如陳	-10.5931
不稱夫人	-10.5936
侵曹	-10.5941
是月	-10.5942
舅	-10.5942
送之	-10.5944
義而	-10.5947
小國之	-10.5948
餘祭	-10.5949
死于	-10.5951
本亦作	-10.5954
席	-10.5955
垣	-10.5956
緜	-10.5957
解云即	-10.596
為司馬	-10.596
柏舉	-10.5962
紛	-10.5964
次之	-10.5964
二十九	-10.5968
朝于	-10.5968
公如	-10.5969
若夫	-10.597
城邢	-10.5971
本作	-10.5974
二三	-10.5974
仇牧	-10.5977
以徳	-10.5983
號令	-10.5984
大衍厯	-10.5985
不書名	-10.5985
入鄭	-10.5986
之過也	-10.5989
壅	-10.5989
酌	-10.5989
其力	-10.5992
救江	-10.5993
中行	-10.5996
比事	-10.5998
不利	-10.6001
不安	-10.6004
丙寅	-10.6006
南里	-10.6007
芮	-10.6009
今之	-10.6015
虧	-10.6015
未嘗有	-10.6018
怙	-10.602
狼	-10.602
僑	-10.6021
愼	-10.6022
成君	-10.6023
置閏	-10.6024
自然	-10.6025
10.	-10.6028
别有	-10.6029
異乎	-10.603
嶽	-10.6031
二百	-10.6032
封疆	-10.6034
于我	-10.6035
切又	-10.6039
止於	-10.6041
交兵	-10.6042
汲	-10.6046
洽	-10.605
吞	-10.6052
漏	-10.6052
其黨	-10.6055
叔父	-10.6057
樂祁	-10.6063
七日	-10.6074
而經	-10.6074
殺子	-10.6075
于社	-10.6079
王孫	-10.6081
儆	-10.6081
5.2	-10.6081
則魯	-10.6083
頒	-10.6083
天災	-10.6084
傳称	-10.6086
武宫	-10.6092
六國	-10.6095
告糴	-10.6095
奔陳	-10.6096
諸侯盟	-10.6097
周書	-10.6097
其下	-10.6099
尊周	-10.6105
此又	-10.6107
從公	-10.6107
米	-10.6107
蓄	-10.6109
而不可	-10.6109
父母之	-10.6113
楚靈	-10.6114
婉	-10.6116
原註	-10.6121
洛陽	-10.6123
堪	-10.6124
其先	-10.6124
未甞	-10.6124
宋殤	-10.6128
入鄆	-10.6129
衆人	-10.613
十有六年	-10.6137
也榖梁曰	-10.6137
皆從	-10.6138
而後可	-10.6143
聖人之意	-10.6149
書大夫	-10.6153
不一	-10.6158
不以禮	-10.6163
於秦	-10.6166
吕氏曰	-10.6167
五國	-10.617
貴之	-10.6172
茲	-10.6173
甲辰	-10.6176
請以	-10.6179
者也故	-10.6179
宣伯	-10.6181
於邾	-10.6184
而終	-10.6186
穆子	-10.6188
崔子	-10.6188
閔二年	-10.6191
知伯	-10.6191
宋萬	-10.6194
其妻	-10.6195
國者	-10.6196
必死	-10.6199
同於	-10.62
帑	-10.6202
兩觀	-10.6203
調	-10.6204
蘭	-10.6205
傲	-10.6205
君子謂	-10.6211
以来	-10.6212
書滅	-10.6212
檀弓	-10.6213
僖公之	-10.6214
季孫行父如晉	-10.6214
朝廟	-10.6217
服鄭	-10.622
十有八年	-10.6221
哉故	-10.6222
朝也	-10.6222
公子翬	-10.6224
僖二	-10.6226
攜	-10.6233
主㑹	-10.6233
宋景	-10.6234
曰歸	-10.6237
訛	-10.6237
出自	-10.6238
来奔	-10.6239
乃是	-10.624
比年	-10.6246
不振	-10.6247
弗及	-10.6248
也愚按	-10.625
歸于京師	-10.6261
臨之	-10.6262
不得入	-10.6262
啇	-10.6263
宗國	-10.6266
以賂	-10.6267
在内	-10.6267
囊瓦	-10.6267
謁	-10.6269
三十一	-10.6271
猶以	-10.6272
新立	-10.6278
至自齊	-10.6279
相近	-10.6283
爽	-10.6287
滅也	-10.6293
二日	-10.6294
膳	-10.6294
其卒	-10.6294
晉文之	-10.6296
出㑹	-10.6301
公親	-10.6301
閭	-10.6309
此所以	-10.6311
自安	-10.6312
無子	-10.6312
葬之	-10.6321
旃	-10.6321
二百四十二年	-10.6322
無常	-10.6324
蔡景	-10.6324
悟	-10.6327
譽	-10.6328
鄭氏	-10.6332
國内	-10.6333
虜	-10.6334
也是以	-10.6334
至魯	-10.6336
越禮	-10.6337
於公	-10.6338
也穀梁傳	-10.6339
奪其	-10.634
惠伯	-10.6341
舍中軍	-10.6342
五年春	-10.6342
丗子	-10.6344
皆謂	-10.6345
國事	-10.6348
公不與	-10.6351
卒哭	-10.6351
既立	-10.6352
日以	-10.6352
逾年	-10.6354
奢	-10.636
服之	-10.636
所滅	-10.6362
犧	-10.6362
宵	-10.6362
苖	-10.6364
人事	-10.6364
䘚	-10.6365
以安	-10.6365
劉炫	-10.6366
惠公之	-10.6366
作丘甲	-10.6366
在國	-10.6369
人欲	-10.6369
立於	-10.637
弑君之	-10.6371
北面	-10.6372
伐人	-10.6379
急於	-10.6379
何有	-10.6379
之衰	-10.638
威儀	-10.6385
实	-10.6387
所有	-10.6387
㑹於	-10.6387
給	-10.6387
殱	-10.639
狡	-10.6392
宅	-10.6392
昭四年	-10.6393
日之	-10.6394
灾	-10.6395
何用	-10.6397
免之	-10.6398
子干	-10.64
相接	-10.6402
乎若	-10.6402
盟諸侯	-10.6404
外内	-10.6404
城虎牢	-10.6407
出境	-10.6409
名分	-10.6411
乎對曰	-10.6418
岀	-10.6419
則何以	-10.6422
皋	-10.6423
善之也	-10.6423
事畢	-10.6427
固已	-10.6431
列國之	-10.6433
太原	-10.6435
審矣	-10.6435
滅而	-10.6436
敬仲	-10.6438
9.2	-10.6441
盛衰	-10.6441
南面	-10.6441
東國	-10.6444
10.1	-10.6446
冬公如晉	-10.645
不可得	-10.6451
陂	-10.6456
失信	-10.6457
襄二	-10.6457
壯	-10.6458
上軍	-10.6461
周易	-10.6462
子貢	-10.6463
不解	-10.6465
復扶又反	-10.6466
戰於	-10.6468
也但	-10.6472
祭伯	-10.6473
亂臣	-10.6473
百人	-10.6482
以譏之	-10.6482
中國也	-10.6483
黄池	-10.6483
雹	-10.6487
滅蔡	-10.6488
新作	-10.6489
救而	-10.649
戍陳	-10.649
圍陳	-10.649
不貶	-10.6491
權臣	-10.6491
典禮	-10.6492
非獨	-10.6492
誰敢	-10.6495
也公羊曰	-10.6497
不書日	-10.6497
之服	-10.6499
義例	-10.6503
之衆	-10.6508
臣謹按	-10.6509
滅亡	-10.6519
敗也	-10.652
同義	-10.6523
以制	-10.6523
不亦可乎	-10.6525
所以明	-10.6525
國滅	-10.6527
殺世子	-10.6529
背盟	-10.6531
二名	-10.6534
十五里	-10.6534
敗狄	-10.6535
未定	-10.6538
以奉	-10.6542
奪之	-10.6542
之尊	-10.6544
子叔	-10.6547
賤者	-10.6547
及齊平	-10.6548
焦	-10.6548
。』	-10.6548
爰	-10.6549
焉用	-10.655
郟	-10.6551
狎	-10.6552
北燕	-10.6552
華孫	-10.6553
失地	-10.6553
聞其	-10.6554
無人	-10.6554
叛楚	-10.6555
孔疏	-10.6556
庚子	-10.6557
陸氏	-10.6557
與㑹	-10.6558
公田	-10.6564
二家	-10.6568
比之	-10.657
諸侯大夫	-10.6577
當有	-10.6578
歸於	-10.6578
例在	-10.658
洧	-10.658
必無	-10.6583
盟則	-10.6587
何不	-10.6589
棐林	-10.659
去聲	-10.6595
大無麥禾	-10.6598
服而	-10.66
5.1	-10.66
于京師	-10.6602
十餘年	-10.6604
寔	-10.6604
有事于	-10.6606
篡弑	-10.6606
菽	-10.6607
召公	-10.6609
死則	-10.6609
人為	-10.661
宜其	-10.6612
僖元年	-10.6612
潘	-10.6613
湏	-10.6614
愛之	-10.6616
至矣	-10.6616
付	-10.6617
再言	-10.6619
方城	-10.662
郤犫	-10.6621
所記	-10.6622
之家	-10.6623
春秋所以	-10.6625
成也	-10.6625
救許	-10.6626
大夫皆	-10.6632
平隂	-10.6634
宋以	-10.6635
之㫖	-10.6635
皆稱	-10.6644
地震	-10.6646
叛者	-10.6649
薛氏曰	-10.6657
以王	-10.6662
未足	-10.6665
卒於	-10.6666
胡氏謂	-10.667
以尊	-10.6671
廵	-10.6672
殊㑹	-10.668
隔	-10.6681
泓	-10.6682
終也	-10.6683
迄	-10.6684
加於	-10.6684
則諸侯	-10.669
8.1	-10.6691
國之大夫	-10.6691
亦猶	-10.6692
故名	-10.6693
百年	-10.6696
三邑	-10.6698
㑹同	-10.6698
曰寡君	-10.6702
程氏曰	-10.6704
舉重	-10.6708
如周	-10.6708
作主	-10.671
溴梁	-10.6712
醫	-10.6714
弛	-10.6715
暫	-10.6715
郤犨	-10.6718
杞桓	-10.6719
天子之事	-10.672
危之	-10.672
子晳	-10.6722
不虞	-10.6722
有罪也	-10.6724
柯陵	-10.6728
者五	-10.6728
圖伯	-10.6731
曰請	-10.6731
十日	-10.6733
皆得	-10.6734
其誰	-10.6735
之業	-10.6736
晉景	-10.6736
逾	-10.6738
乃復	-10.6742
也惟	-10.6747
强弱	-10.6747
疾之	-10.6748
危之也	-10.6748
一戰	-10.6748
立是為	-10.6749
文元年	-10.6752
洩冶	-10.6754
劉氏敞曰	-10.6754
言伐	-10.6756
僖五年	-10.6757
踐土之盟	-10.6759
用田賦	-10.6759
齊桓晉文	-10.676
古文	-10.6764
而猶	-10.6771
以入	-10.6771
齊靈	-10.6771
渾	-10.6772
晉靈	-10.6775
昭十三年	-10.6775
君子不	-10.6778
朝覲	-10.6778
執其	-10.678
宋衞	-10.6781
於天	-10.6781
請師	-10.6783
濟北	-10.6793
齊豹	-10.6794
則稱	-10.68
豈無	-10.6803
誰能	-10.6806
劍	-10.681
逆婦	-10.6814
刪	-10.6817
禭	-10.6817
嘉之	-10.6822
夫以	-10.6825
叔孫婼	-10.6829
失正	-10.683
未詳	-10.683
興兵	-10.6832
廷	-10.6834
公宫	-10.6839
擊之	-10.684
之詞也	-10.6841
直書其事	-10.6844
己夘	-10.6844
一百	-10.6844
經無	-10.6845
安有	-10.6849
垂隴	-10.6849
歃	-10.685
先言	-10.6852
封人	-10.6852
范獻子	-10.6853
同時	-10.6868
勞民	-10.6871
暇	-10.6874
錡	-10.6877
應之	-10.6878
亷	-10.688
闇	-10.6882
匱	-10.6882
比於	-10.6883
壬子	-10.6889
止此	-10.6892
若有	-10.6892
曰余	-10.6892
鄭服	-10.6899
太廟	-10.6899
不盟	-10.69
欲去	-10.6901
以俟	-10.6903
略之	-10.6903
與夷	-10.6909
賁	-10.6911
而請	-10.6913
又如字	-10.6914
以地	-10.6915
齊崔杼	-10.6915
兩書	-10.6915
兵權	-10.6917
昭二十	-10.6919
于邾	-10.6921
之母也	-10.6921
其常	-10.6923
之本	-10.6924
而執之	-10.6926
經意	-10.6929
夫豈	-10.6933
受命於	-10.6933
不害	-10.6934
三百	-10.6937
子野	-10.694
閻	-10.6942
育	-10.6942
之出	-10.6944
旧	-10.6944
出奔宋	-10.6944
趙孟曰	-10.6946
下士	-10.6946
者猶	-10.6949
羽父	-10.6954
甲申	-10.6955
肆其	-10.6957
宗婦	-10.6961
敏	-10.6962
亦甚矣	-10.6964
之辠	-10.6966
天下諸侯	-10.6968
無足	-10.6977
貶而	-10.6977
衝	-10.6979
合禮	-10.698
今案	-10.698
之辨	-10.6981
如字又	-10.6981
公子結	-10.6982
禮而	-10.6985
彚纂今	-10.6985
亳社	-10.6986
之正也	-10.6987
岐	-10.6992
行乎	-10.6994
秋冬	-10.6996
畏楚	-10.6997
卒之	-10.6998
濟水	-10.6998
不詳	-10.7003
夫人也	-10.7004
只是	-10.7004
以君命	-10.7005
唐叔	-10.7005
不書𦵏	-10.7007
楚䖍	-10.7009
成而	-10.701
曹共	-10.7011
測	-10.7012
背晉	-10.7013
蟲牢	-10.7013
割	-10.7013
邯鄲	-10.7014
書次	-10.7014
又見	-10.7014
故君子	-10.7014
南有	-10.7019
魯衞	-10.7022
10.2	-10.7023
郭公	-10.7026
故有	-10.703
榖作	-10.7033
豈其	-10.7034
▁胡氏傳	-10.7035
朝之	-10.7035
譚	-10.7039
彄	-10.7039
入朔	-10.7042
子魚	-10.7046
于秦	-10.7047
殁	-10.705
聊	-10.705
敗宋師	-10.7054
人所	-10.7056
滕子來朝	-10.7056
鄭詹	-10.7058
公孫歸父	-10.706
而遽	-10.7061
獻捷	-10.7062
長子	-10.7063
國今	-10.7063
大火	-10.7064
皆言	-10.7064
不止	-10.7066
周礼	-10.7067
之義故	-10.7075
也家氏曰	-10.7076
東西	-10.7077
絞	-10.7077
敵國	-10.7078
執其君	-10.7078
宋公使	-10.7079
黒肱	-10.7089
子服	-10.709
地理志	-10.7092
能以	-10.7093
言歸	-10.7094
獻舞	-10.7097
公至	-10.7098
始有	-10.71
君弑	-10.7108
腹	-10.7109
昭二	-10.7111
也故書	-10.7112
當日	-10.7113
搆	-10.7113
蜚	-10.7117
駒	-10.7117
參盟	-10.7117
紊	-10.7117
無他	-10.7118
郑玄云	-10.7118
為禮	-10.7118
而經不書	-10.712
何以為	-10.7126
車馬	-10.7133
各自	-10.7133
伯姬之	-10.7134
詩人	-10.7134
請之	-10.7135
太叔	-10.714
奔衛	-10.7146
通於	-10.7148
執曹伯	-10.7148
水旱	-10.715
書㑹	-10.715
伊川	-10.7152
雉門	-10.7152
浩	-10.7154
而告	-10.7156
疑於	-10.7157
康侯胡氏曰	-10.7158
未有書	-10.716
以立	-10.7161
來逆	-10.7166
之號	-10.7168
纓	-10.7173
三十六	-10.7175
其不言	-10.7177
乎其	-10.7178
三十二	-10.7178
以惡	-10.7179
重於	-10.7181
黶	-10.7181
書薨	-10.7181
教之	-10.7182
孽	-10.7184
攸	-10.7185
劉夏	-10.7186
股肱	-10.7189
而輕	-10.7189
袁婁	-10.719
十二公	-10.719
爲君	-10.7191
者彼	-10.7193
正以	-10.7194
公榖作	-10.7195
如宋	-10.7195
不可得而	-10.72
將有	-10.7203
曰魯	-10.7209
其難	-10.7211
昔者	-10.7212
入楚	-10.7212
泯	-10.7218
仁義	-10.7222
例時	-10.7222
景伯	-10.7224
或稱	-10.7227
飲至	-10.7229
未可以	-10.7229
内辭也	-10.723
周大夫	-10.7236
東平	-10.7237
皆稱人	-10.7239
大旱	-10.7243
矣乃	-10.7247
刀	-10.7251
加兵於	-10.7253
采地	-10.7255
汪氏	-10.7255
國乎	-10.7256
穿鑿	-10.7258
蠻荆	-10.7258
從王	-10.7259
晉獻公	-10.7261
嫁女	-10.7262
歸也	-10.7264
田獵	-10.7266
傳例曰	-10.7267
四鄰	-10.7268
若敖	-10.727
數之	-10.727
與謀	-10.7271
髙固	-10.7272
魯國之	-10.7279
説者	-10.728
弑父	-10.7281
黍	-10.7284
聘于	-10.729
踈	-10.7291
諭	-10.7291
不係	-10.73
仇讎	-10.73
來討	-10.7301
若其	-10.7302
宋魯	-10.7303
亦不可	-10.7303
曰無	-10.7304
天時	-10.7305
叛人	-10.7307
備矣	-10.731
戒也	-10.731
蔡般	-10.7313
宋災	-10.7313
乙夘	-10.7315
諸公	-10.7316
繼書	-10.7316
幹	-10.7319
姚	-10.7319
為下	-10.7319
掠	-10.7319
談	-10.732
連兵	-10.7322
也桓公	-10.7323
遵	-10.7323
伐呉	-10.7327
者多	-10.7335
異辭	-10.7336
不以為	-10.7336
伐鄭而	-10.7337
救蔡	-10.7337
駭	-10.7337
率諸侯	-10.734
廢之	-10.7341
通于	-10.7342
命卿	-10.7344
娶於	-10.7346
元年春	-10.7349
楚王	-10.7349
勑	-10.7353
復見	-10.7363
之别	-10.7365
東周	-10.7366
姜戎	-10.7368
何言乎	-10.7369
者如	-10.7369
弑者	-10.737
謂春秋	-10.7377
但以	-10.7377
舉國	-10.7386
郊禘	-10.7386
正卿	-10.7389
畆	-10.7391
随	-10.7392
矣然則	-10.7392
玉帛	-10.7394
微矣	-10.7394
黒壤	-10.7395
蔡叔	-10.7396
此是	-10.7397
辭焉	-10.7399
見公	-10.7401
安知	-10.741
傳例	-10.741
祭也	-10.7411
此類	-10.7414
公子遂如齊	-10.7415
一時之	-10.7419
徵舒	-10.7421
必欲	-10.7422
同也	-10.7425
施之	-10.7427
子卒	-10.7439
謝氏曰	-10.744
榭	-10.7444
之罪而	-10.7445
自楚	-10.7446
之心而	-10.7447
終身	-10.7447
邦交	-10.7448
入齊	-10.7448
先儒謂	-10.7449
不可以不	-10.745
十有四年春	-10.7451
元公	-10.7457
則書之	-10.7458
大路	-10.7462
之美	-10.7464
適子	-10.7465
不特	-10.7467
汪	-10.7468
結好	-10.7468
子羽	-10.747
貢賦	-10.7476
趙文子	-10.7479
而納	-10.748
器用	-10.7481
終於	-10.7483
私意	-10.7484
為人臣	-10.7489
宰咺	-10.7491
也陳氏曰	-10.7494
9.1	-10.7497
覊	-10.7497
燠	-10.7497
在前	-10.7497
勝負	-10.7499
何以不名	-10.7499
盟誓	-10.7499
公在	-10.75
或云	-10.7505
未賜族	-10.7509
楚自	-10.7513
來㑹	-10.7514
故書之	-10.7514
所逐	-10.7517
無惡	-10.7518
而始	-10.7519
其賢	-10.752
滅項	-10.7525
廢置	-10.7528
公及齊侯	-10.7529
之類皆	-10.7529
子頽	-10.7532
撓	-10.7535
未有言	-10.7535
山在	-10.7536
髙傒	-10.7537
晉楚之	-10.754
酖	-10.754
文二年	-10.7541
伐鮮虞	-10.7543
人君之	-10.7544
其終	-10.7547
志其	-10.7549
元帥	-10.7549
袁	-10.7549
孔子之	-10.7556
不疑	-10.7556
公子牙	-10.7561
汶	-10.7563
板	-10.7565
仰	-10.7567
豫章	-10.7567
四年春	-10.7567
觀社	-10.7569
姪	-10.7569
姜姓	-10.757
溢	-10.757
不書王	-10.7572
所惡	-10.7573
夀夢	-10.7573
之文也	-10.7574
濤塗	-10.7574
人之國	-10.758
同惡	-10.7582
而作	-10.7583
晉獻	-10.7585
不當立	-10.7586
也既	-10.7589
諸夏之	-10.7593
所立	-10.7594
哀侯	-10.7595
上大夫	-10.7598
本意	-10.7599
名曰	-10.7601
未幾	-10.7602
匡王	-10.7602
三十三年	-10.7604
姊妹	-10.7605
禹貢	-10.7606
廢立	-10.7607
而名之	-10.7611
非所以	-10.7611
遂行	-10.7616
自晉	-10.7616
名而	-10.7617
為首	-10.7617
曽孫	-10.7619
者當	-10.7624
城下	-10.763
往來	-10.7632
命而	-10.7634
如莒	-10.7635
堵	-10.7636
臣也	-10.7636
其社稷	-10.7638
其理	-10.764
侵衞	-10.764
髠	-10.764
墟	-10.7641
河曲	-10.7643
以君	-10.7643
確	-10.7643
何以不書	-10.7645
無一	-10.7646
東海	-10.7647
公不與盟	-10.7648
噫	-10.7649
射之	-10.765
不言使	-10.7651
稱國以弑	-10.7652
乎夫	-10.7656
之所為	-10.7656
侯犯	-10.7657
而從之	-10.7658
譏之也	-10.7659
繼世	-10.766
一曰	-10.7661
縣東北有	-10.7665
婦姜	-10.7666
冥	-10.767
不可為	-10.7671
7.1	-10.7676
中山	-10.7677
駁	-10.7677
例書	-10.7678
.7	-10.7679
隠元年	-10.7686
不弔	-10.7687
公卿	-10.7688
衞地	-10.7688
閔之	-10.7688
得立	-10.7691
庫	-10.7692
數也	-10.7696
坐視	-10.7696
勝之	-10.7698
有四	-10.7699
圍郕	-10.7699
成十五年	-10.7703
假道	-10.7704
薨于	-10.7704
為于偽反	-10.7705
所以别	-10.7706
輯	-10.7709
懦	-10.7709
亦作	-10.771
叔老	-10.7711
也周禮	-10.7712
迨	-10.7713
匪	-10.7714
王畿	-10.7714
􁋎	-10.7714
書其名	-10.7716
鞌之戰	-10.7716
同文	-10.7717
不忠	-10.7717
昏姻	-10.7718
常禮	-10.7724
納王	-10.7727
殺之也	-10.7727
自當	-10.7727
者豈	-10.773
其室	-10.773
此之謂	-10.7732
戊戌	-10.7735
不與楚	-10.7738
大夫而	-10.7739
有命	-10.7741
縣西有	-10.7741
逆祀	-10.7747
毗	-10.7747
蘇氏曰	-10.7749
長勺	-10.7749
呉師	-10.7749
彭衙	-10.7749
寝	-10.775
不得以	-10.7752
之端	-10.7752
我者	-10.7753
附楚	-10.7755
以國氏	-10.7756
逆后	-10.7758
車服	-10.7763
固請	-10.7763
乙卯	-10.7771
事有	-10.7771
其謀	-10.7772
之徳	-10.778
漷	-10.7782
菑	-10.7784
▁榖梁傳	-10.7789
伐喪	-10.7791
佞夫	-10.7792
紓	-10.7792
賢君	-10.7794
嵗首	-10.7797
師徒	-10.7798
相類	-10.7798
有寵於	-10.7799
亦同	-10.78
卑者	-10.7801
從赴	-10.7802
石門	-10.7803
楚大夫	-10.7805
之本也	-10.7807
之神	-10.7807
不殺	-10.7808
所取	-10.7809
胥童	-10.7809
襄二十	-10.781
鄭鄭	-10.781
極矣	-10.7813
知禮	-10.7815
僖十	-10.7816
哀十	-10.7816
檢	-10.7816
超	-10.782
而哭	-10.782
英	-10.7822
地而	-10.7822
門外	-10.7833
不待貶絶而	-10.7834
晉厲	-10.7836
先至	-10.784
弊	-10.7844
古者諸侯	-10.7846
陳宣	-10.7847
十有二	-10.785
亦必	-10.7853
四十里	-10.7854
封内	-10.7855
義又見	-10.7856
使魯	-10.7856
説文	-10.7856
宋督	-10.7858
少姜	-10.7861
献	-10.7863
公至自伐鄭	-10.7874
縣故城	-10.7877
既不能	-10.7878
徐子	-10.7878
其主	-10.7879
也觀	-10.788
義理	-10.7881
來伐	-10.7883
伯也	-10.7884
之後也	-10.7885
公伐邾	-10.7888
文侯	-10.7888
縣境	-10.7889
也正義曰	-10.7889
歸魯	-10.7892
也豈	-10.7897
湨梁	-10.7898
迷	-10.7899
士魴	-10.7901
同而	-10.7901
之境	-10.7901
謀也	-10.7902
之處	-10.7906
之伐	-10.7909
因而	-10.791
曹伯來朝	-10.7915
之學	-10.7915
不可復	-10.7917
為太子	-10.7918
嫡子	-10.7924
朝魯	-10.7925
雍丘	-10.7927
字也	-10.793
小大	-10.7931
為此盟	-10.7937
也劉氏曰	-10.7938
三時	-10.7944
文伯	-10.7944
朝晉	-10.7945
得罪	-10.7946
有加	-10.7948
所以正	-10.7949
以㑹	-10.795
彘	-10.7952
使我	-10.7953
諱公	-10.7954
而遷	-10.7955
奔走	-10.7957
乃歸	-10.7965
夭	-10.7965
蒯瞶	-10.7966
水名	-10.7967
泄	-10.7967
亦與	-10.797
之災	-10.7972
會晉	-10.7975
是已	-10.7979
三家之	-10.798
泰山孫氏曰	-10.798
今君	-10.7981
而自立	-10.7986
而再	-10.7987
者是也	-10.799
存焉	-10.7994
3.2	-10.7994
繫於	-10.7996
二慶	-10.7999
髙祖	-10.8
身為	-10.8
晉霸	-10.8001
祝融	-10.8002
悔過	-10.8003
貧	-10.8003
然亦	-10.8003
何以知其	-10.8004
樂大心	-10.8012
楚令尹	-10.8016
為利	-10.8017
聖王	-10.8017
清丘	-10.8019
宣十二年	-10.8022
月而	-10.8023
無厭	-10.8025
以爵	-10.8033
背之	-10.8034
四日	-10.8036
齊侯衛侯	-10.8038
送女	-10.8038
蟄	-10.8041
為之諱	-10.8042
報反	-10.8048
為非禮	-10.8051
愚案	-10.8051
宣十年	-10.8054
實有	-10.8055
此所謂	-10.8056
賤之	-10.8058
雞父	-10.8058
書侵	-10.8059
僖四年	-10.8064
意在	-10.8064
四人	-10.8069
戰者	-10.807
劉單	-10.8072
之聘	-10.8074
瑗	-10.8077
艮	-10.8077
後來	-10.8079
稻	-10.808
藝	-10.8081
判	-10.8081
期而	-10.8082
竄	-10.8082
徑	-10.8082
劉敞曰	-10.8083
髠頑	-10.8083
絀	-10.8086
振旅	-10.8091
城縁陵	-10.8091
之不可	-10.8092
葉氏曰	-10.8093
遂滅	-10.8096
為鄭	-10.8098
隣國	-10.8099
夔	-10.8103
魯亦	-10.8107
所殺	-10.811
惟其	-10.811
胥命	-10.8111
乱	-10.8111
弭兵	-10.8111
刘	-10.8112
歷	-10.8113
公會晉侯	-10.8113
知是	-10.8115
當然	-10.8117
穴	-10.812
城中城	-10.812
解之	-10.812
無氷	-10.8121
狥	-10.8121
入蔡	-10.8121
事楚	-10.8122
顛	-10.8123
公羊穀梁	-10.8123
者哉	-10.8125
憑陵	-10.8127
妻之	-10.8127
而出奔	-10.8128
語云	-10.8132
救衛	-10.8133
大廟	-10.8135
執宋公	-10.8135
兩事	-10.8139
梁亡	-10.814
矣且	-10.8142
十有三年春	-10.8145
城門	-10.8145
鄭子	-10.8145
名為	-10.8147
有罪矣	-10.8149
六年春王正月	-10.815
12.	-10.8151
丁夘	-10.8153
蒼	-10.8153
曰伐	-10.8153
正大	-10.8156
億	-10.8156
徳而	-10.8156
物也	-10.816
杖	-10.816
則春秋	-10.8161
安得不	-10.8162
為己	-10.8164
不可知	-10.8165
呉楚	-10.8168
自稱	-10.8169
僭王	-10.8169
則此	-10.8172
詛	-10.8172
釈	-10.8178
私邑	-10.8179
邿	-10.818
縠	-10.8181
先歸	-10.8181
其田	-10.8182
治也	-10.8183
又非	-10.8183
衣服	-10.8184
而不服	-10.8187
芒	-10.8188
為中國	-10.8189
公子棄疾	-10.8189
誦	-10.8194
瑣	-10.8194
十有一月	-10.8195
曉	-10.8202
大閲	-10.8208
羣公	-10.8208
修好	-10.8208
與戰	-10.821
宗社	-10.8213
康公	-10.8214
權衡	-10.822
6.1	-10.8222
亂故	-10.8223
縣西北有	-10.8224
子胥	-10.8224
亂之	-10.8224
冡	-10.8226
時事	-10.8227
癸夘	-10.8228
㳺	-10.8229
吾君	-10.8229
人人	-10.823
此文	-10.823
薪	-10.8231
訪	-10.8232
正義曰此	-10.8232
熙	-10.8233
遂事	-10.8234
荀庚	-10.8235
憫	-10.8237
帥諸侯	-10.8238
而外	-10.824
畧之	-10.8243
殺公子	-10.8244
命於天子	-10.8244
莒子邾子	-10.8245
也春秋書	-10.8252
可得而	-10.8254
無私	-10.8254
曼	-10.8254
足矣	-10.8254
忠信	-10.8258
什一	-10.8264
眚	-10.8265
穀作	-10.8266
內	-10.8267
遍	-10.8268
者春秋	-10.8269
四夷	-10.827
之所在	-10.8272
鞭	-10.8272
賛	-10.8273
相朝	-10.8276
位而	-10.8284
佞	-10.8287
强大	-10.8291
微子	-10.8294
日至	-10.8294
不言出	-10.8295
於内	-10.8297
慶氏	-10.8298
知非	-10.83
宣元年	-10.8301
穆王	-10.8303
子華	-10.8303
在所	-10.8304
戢	-10.8305
大都	-10.8306
鋒	-10.8311
之首	-10.8313
來戰	-10.8314
已絶	-10.8316
此一	-10.8316
秦人伐晉	-10.8317
此㑹	-10.8321
亦不能	-10.8322
衛靈	-10.8322
之名也	-10.8323
生子	-10.8323
大有年	-10.8324
尚未	-10.8325
不知何	-10.8327
魯為	-10.8328
利害	-10.833
魯不	-10.8333
制也	-10.8333
叛而	-10.8333
常也	-10.8334
當其	-10.8335
毁之	-10.8339
翬帥師	-10.834
旂	-10.8342
伯父	-10.8345
之西	-10.8346
臆	-10.8347
嘆	-10.8348
田賦	-10.8348
諸臣	-10.8348
暱	-10.835
曰天	-10.8353
時王	-10.8356
南鄙	-10.8359
僖二十	-10.8363
凡例	-10.8373
所以著	-10.8373
能為	-10.8376
桓十五年	-10.8377
宣八年	-10.8379
之黨也	-10.8379
隘	-10.8382
繕	-10.8382
大夫專	-10.8384
凡三	-10.8385
子蟜	-10.8386
贊	-10.8388
之言曰	-10.839
無二	-10.8392
范鞅	-10.8392
在春秋	-10.8392
世變	-10.8393
齊衞	-10.8394
用其	-10.8399
及此	-10.8399
後同	-10.8401
其事而	-10.8403
周地	-10.8405
仲尼曰	-10.8408
桓五年	-10.8408
知之矣	-10.841
圍蔡	-10.8411
家氏鉉翁曰	-10.8413
百乗	-10.8418
國子	-10.8421
鄅	-10.8422
揜	-10.8423
舛	-10.8426
北門	-10.8429
長葛	-10.8433
孫氏復曰	-10.8433
則已	-10.8434
又反	-10.8436
而巳	-10.8436
出奔陳	-10.8443
法度	-10.8447
喪而	-10.8455
曰凡	-10.8458
聖人所	-10.846
頃王	-10.846
隱之	-10.8463
禚	-10.8463
亾	-10.8463
政在	-10.8467
可不	-10.847
欵	-10.847
祝柯	-10.8477
當誅	-10.8483
伐郯	-10.8489
免牛	-10.8489
所用	-10.8493
姒氏	-10.8494
有辭	-10.8494
違命	-10.8495
以殺	-10.8497
天變	-10.8497
奔命	-10.8499
楚雖	-10.8499
楚邑	-10.8499
苑	-10.85
而加	-10.8501
者非也	-10.8501
志於	-10.8501
太公	-10.8501
發傳	-10.8503
溪	-10.8504
其詞	-10.8508
被弑	-10.8516
淮南	-10.8518
千乘	-10.852
杞子	-10.8521
齊慶封	-10.8522
此意	-10.8525
異者	-10.8526
成十八年	-10.8529
杜氏云	-10.8529
陽穀	-10.853
伯子男	-10.8531
簡王	-10.8532
大亂	-10.8535
鄭以	-10.8539
越竟	-10.854
公㑹宋公	-10.854
稔	-10.854
六日	-10.8543
文七年	-10.8543
三綱	-10.8543
樵	-10.8544
秦之	-10.8546
猾夏	-10.8547
徐州	-10.8551
之請	-10.8552
建子	-10.8552
陽氣	-10.8557
以字	-10.8558
文九年	-10.8559
故經	-10.8561
彼注云	-10.8564
其女	-10.8565
與我	-10.8565
言之也	-10.8566
求金	-10.8568
処	-10.8568
齊難	-10.8568
者欲	-10.857
渡	-10.8573
踰時	-10.8574
沃	-10.8575
桓十	-10.8576
卒于師	-10.8579
陽州	-10.858
时	-10.858
易之	-10.8581
做	-10.8583
滅紀	-10.8583
盡矣	-10.8587
李氏	-10.8588
縣西南有	-10.8588
南子	-10.8588
此春秋所以	-10.8589
大倫	-10.8589
聴命	-10.8589
會而	-10.8589
逆者	-10.8591
不思	-10.8593
范文子	-10.8594
榖梁以為	-10.8595
納者	-10.8598
君死	-10.8599
宜矣	-10.86
貶而稱人	-10.86
而逃	-10.8602
明王	-10.8602
子路	-10.8603
伯宗	-10.8604
之門	-10.8608
至自	-10.8612
以志	-10.8612
箴	-10.8616
深罪	-10.8617
▁汪氏克寛曰	-10.8618
抱	-10.8622
柳	-10.8622
3.1	-10.8624
所稱	-10.8624
許嫁	-10.8625
之為言	-10.8628
國之大事	-10.863
宣公之	-10.8631
致伐	-10.8635
君臣之分	-10.8635
斷道	-10.8636
今山東	-10.8637
賜族	-10.8637
而用之	-10.8638
武氏	-10.8638
救也	-10.8643
不識	-10.8644
十有七年	-10.8645
張氏洽曰	-10.8647
政刑	-10.865
印	-10.865
亦可以	-10.8652
讓國	-10.8653
晉自	-10.8654
使者	-10.8654
骨	-10.8656
岸	-10.8656
也天子	-10.8656
記其	-10.8658
賣	-10.8659
内臣	-10.8661
百二十	-10.8663
則可以	-10.8664
南方	-10.8665
遂與	-10.8665
故貶	-10.8667
有君	-10.8667
矣何	-10.8667
今考	-10.8667
者衆	-10.8674
集解	-10.8676
外之也	-10.8678
乞盟	-10.868
2.1	-10.8682
譏也	-10.8682
定矣	-10.8684
雖曰	-10.8684
近之	-10.8685
四海	-10.8686
脤	-10.8694
長而	-10.8695
藏之	-10.8697
鷁	-10.8698
豕	-10.87
止也	-10.87
曰若	-10.8703
來赴	-10.8706
上辛	-10.8709
盖以	-10.8709
莫敖	-10.8712
納朔	-10.8714
歸祊	-10.8714
敗而	-10.8715
子尾	-10.8715
而況	-10.8718
此條	-10.8721
公圍成	-10.8722
自以為	-10.8723
不能制	-10.8725
欲求	-10.873
之常也	-10.8732
扈之盟	-10.8733
但曰	-10.8734
現	-10.8734
天下後世	-10.8734
晉平公	-10.8736
憖	-10.8736
左氏載	-10.8737
始見	-10.8738
蹈	-10.8739
禍也	-10.874
㫁	-10.8741
錦	-10.8742
死生	-10.8742
鄬	-10.8742
牟婁	-10.8744
何以書記異也	-10.8745
姓氏	-10.8746
月也	-10.8752
之憂	-10.8752
逺也	-10.8753
猶言	-10.8754
始書	-10.8758
㔻鄭	-10.8762
圍齊	-10.8763
成禮	-10.8765
魯卿	-10.8767
肩	-10.877
修徳	-10.877
鄭大夫	-10.8773
想	-10.8773
築臺	-10.8776
於吳	-10.8777
絕	-10.8781
明堂位	-10.8781
八佾	-10.8782
恐其	-10.8791
也是時	-10.8793
殺太子	-10.8794
以説	-10.8796
亂而	-10.8797
子國	-10.8804
十年春	-10.8807
為子	-10.8809
藻	-10.881
己卯	-10.8811
纂	-10.8812
以伐之	-10.8813
强暴	-10.8815
弒	-10.8815
湫	-10.8817
臼	-10.8819
以威	-10.8819
寕	-10.882
弋	-10.8821
屬辭	-10.8822
杜氏謂	-10.8823
王者之	-10.8823
貶稱人	-10.8825
意恢	-10.8825
禀	-10.8826
疑其	-10.8828
孝子	-10.883
里有	-10.8831
以濟	-10.8831
美之	-10.8833
本國	-10.8834
合而	-10.8834
不亡	-10.8835
朝禮	-10.8835
宣子曰	-10.8838
公穀作	-10.884
絶之也	-10.8842
唁公	-10.8842
公羊以	-10.8843
之賂	-10.8844
宜申	-10.8844
止公	-10.8845
帝丘	-10.8845
廩	-10.8845
是無	-10.8847
喪服	-10.8847
曰某	-10.8848
以别之	-10.8849
爭國	-10.8851
異故	-10.8851
融	-10.8852
頻	-10.8852
炎	-10.8854
為罪	-10.8858
膏	-10.8858
千乗	-10.8859
遄	-10.886
子囊	-10.8862
長狄	-10.8863
踵	-10.8863
不須	-10.8863
欲與	-10.8869
不毁	-10.8869
厲王	-10.887
也雖然	-10.8871
為人	-10.8871
而食	-10.8872
而取	-10.8877
文十二年	-10.8881
以觀	-10.8885
齊侯伐我北鄙	-10.8885
别種	-10.8887
有異	-10.8889
故城在	-10.8891
華向	-10.8893
尽	-10.8894
而廢	-10.8895
秋大水	-10.8897
題	-10.8898
不知所	-10.89
潁川	-10.8901
周衰	-10.8909
沈子	-10.8909
不時也	-10.8909
名實	-10.8911
非王命	-10.8911
不日者	-10.8914
為之請	-10.8914
弗受	-10.8914
怒而	-10.8919
郤氏	-10.8919
以至	-10.892
矣何以	-10.8923
三望	-10.8923
師而	-10.8923
自謂	-10.8923
城北	-10.8925
文十四年	-10.8927
山林	-10.8933
刺之	-10.8933
以死	-10.8934
記曰	-10.8939
犫	-10.8939
焉得	-10.8943
見討	-10.8946
諸侯相	-10.8948
修春秋	-10.8949
大師	-10.895
可考	-10.8953
泗	-10.8953
敗楚	-10.8954
薛伯	-10.8956
譬	-10.8963
成功	-10.8964
報復	-10.8964
北宫	-10.8966
成其	-10.8967
昆	-10.897
而專	-10.8972
不貳	-10.8973
之大者也	-10.8973
未嘗不	-10.8974
令諸侯	-10.8975
為天子	-10.8978
政在大夫	-10.898
憑	-10.8982
釐	-10.8982
殄	-10.8982
品	-10.8984
陳哀	-10.8987
天子大夫	-10.8988
無政	-10.8988
斥言	-10.8989
欲殺	-10.8989
其所為	-10.8991
守國	-10.8991
王卿士	-10.8993
如此則	-10.8993
謂此	-10.8995
也汪氏曰	-10.8996
近楚	-10.8997
觧云	-10.8998
祝史	-10.8999
禮諸侯	-10.9001
政令	-10.9002
賻	-10.9002
楚共	-10.9005
此聖人	-10.901
字林	-10.9012
兄弟之	-10.9013
禰	-10.9018
阪	-10.9019
一例	-10.9019
披	-10.9019
公榖皆	-10.902
書救	-10.902
巨	-10.9023
穎	-10.9024
慼	-10.9025
者凡	-10.9026
恱	-10.9026
男子	-10.9027
䕫	-10.9028
濼	-10.9028
不可通	-10.9029
戴公	-10.9029
發明	-10.903
昆吾	-10.9032
魯郊	-10.9034
反又音	-10.9036
不忌	-10.9036
賈逵云	-10.9039
欲立之	-10.9041
未陳	-10.9041
劉向	-10.9042
賈季	-10.9042
公孟	-10.9043
宋災故	-10.9047
公朝	-10.9047
然後知	-10.9047
不能保	-10.9048
以起	-10.905
録其	-10.9053
納糾	-10.9055
而與之盟	-10.9057
河上	-10.9059
則名	-10.9059
之妾	-10.9059
合諸侯以	-10.9061
得書	-10.9062
髮	-10.9063
亞	-10.9064
叔帶	-10.9066
堕	-10.9067
下大夫	-10.9067
恥也	-10.9067
所以深	-10.9067
虞虢	-10.9071
遂入	-10.9074
以為君	-10.9075
也吾	-10.9081
以伐鄭	-10.9082
文十五年	-10.9082
之側	-10.9087
放之	-10.9087
不畏	-10.9088
齊景公	-10.9088
夏陽	-10.9088
加兵	-10.9091
西戎	-10.9093
鄟	-10.9093
如齊逆女	-10.9095
於季氏	-10.9097
攷之	-10.9099
實為	-10.9101
畏其	-10.9106
扞	-10.9106
江南	-10.9107
後之	-10.9109
城邑	-10.911
大蒐于比蒲	-10.9111
人主	-10.9112
魏舒	-10.9114
公㑹諸侯	-10.9115
時有	-10.9118
不勝其	-10.9119
宗廟之	-10.9119
獻㨗	-10.9119
非我	-10.9121
改為	-10.9121
其國家	-10.9123
其國都	-10.9124
非伯討	-10.9127
使臣	-10.9128
以大義	-10.9128
公怒	-10.9129
焉是	-10.913
分為	-10.9136
按此	-10.9137
之所由	-10.9138
遷於	-10.9138
子南	-10.9139
伐山戎	-10.9141
解經	-10.9142
見得	-10.9142
衰矣	-10.9146
袒	-10.9147
有五	-10.9148
鶉火	-10.9148
以表	-10.9149
于天下	-10.915
宏	-10.915
僻	-10.915
微者也	-10.915
屬之	-10.9151
措	-10.9151
事者	-10.9152
縮	-10.9152
始祖	-10.9152
華臣	-10.9153
誇	-10.9153
師衆	-10.9158
攘夷狄	-10.9161
尊者	-10.9161
以逞	-10.9162
獨不	-10.9165
之父	-10.9168
北戎	-10.917
城杞	-10.917
昭五年	-10.9171
以德	-10.9171
亦自	-10.9174
上書	-10.9179
以往	-10.9179
如晋	-10.9181
夷末	-10.9182
御戎	-10.9183
當作	-10.9186
受命而	-10.9188
月日	-10.9189
寘諸	-10.919
稱婦	-10.919
豕韋	-10.9194
吿	-10.9194
銜	-10.9196
一句	-10.9197
義者	-10.9198
反國	-10.9203
之術	-10.9206
畿	-10.9209
共仲	-10.921
無罪也	-10.9211
西鄙	-10.9216
襄二十九年	-10.9221
拠	-10.9226
注謂	-10.9226
奠	-10.9226
揆	-10.9227
制之	-10.923
鄭厲	-10.923
洪	-10.923
專封	-10.9232
晉定	-10.9233
必有所	-10.9233
歆	-10.9234
刋	-10.9236
難之	-10.9237
見義	-10.9241
受命于	-10.9241
荀首	-10.9243
非魯	-10.9244
非其所	-10.9245
則雖	-10.9247
五世	-10.9247
傳謂	-10.9252
陳氏傳曰	-10.9254
載之	-10.9255
畏晉	-10.926
僖十五年	-10.9262
魯宋	-10.9263
信義	-10.9265
南郡	-10.9273
息民	-10.9274
同盟于幽	-10.9276
記異也	-10.9278
衮	-10.9278
錮	-10.928
君子以	-10.928
三卜	-10.9282
子鮮	-10.9284
司宼	-10.9288
逆王后	-10.9292
尹子	-10.9293
左氏以	-10.9293
吕氏	-10.9293
之祀	-10.9294
縣今	-10.9298
先入	-10.93
稱人以殺	-10.9303
曰取	-10.9304
執而	-10.9306
與公盟	-10.9306
舎之	-10.9309
十有一年春王正月	-10.9311
鯀	-10.9311
貸	-10.9316
姪娣	-10.9316
㓂	-10.9317
主名	-10.9319
北有	-10.9319
小寢	-10.932
搏	-10.9321
仍叔之子	-10.9325
討而	-10.9328
復之	-10.9334
見于經	-10.9334
家父	-10.9337
猶存	-10.934
在後	-10.9342
棄其	-10.9343
修之	-10.9343
不得有	-10.9343
取濟西田	-10.9345
徃㑹	-10.9346
難故	-10.9348
此見	-10.935
僂	-10.9351
者雖	-10.9352
以聽	-10.9356
鄭公子	-10.9356
弗敢	-10.9356
誥	-10.9357
逵	-10.9357
尚有	-10.9358
未畢	-10.9358
鄭伐宋	-10.9359
棼	-10.9359
觀魚	-10.9359
齊國夏	-10.936
掃	-10.9363
懸	-10.9364
邀	-10.9365
之交	-10.9365
魯故	-10.9366
公㑹晉侯齊侯宋公	-10.9367
楚伐鄭	-10.9369
紀叔姬	-10.9369
乃謂	-10.9371
適晉	-10.9371
于柤	-10.9373
始此	-10.9374
必亡	-10.9375
為長	-10.9375
此例	-10.9376
何以書譏何譏爾	-10.9376
晉命	-10.938
民不	-10.9382
為天下	-10.9384
列於	-10.9391
分别	-10.9391
公卒	-10.9392
食邑	-10.9394
于太廟	-10.9395
来盟	-10.9398
用民力	-10.9398
與音預	-10.9399
故執不知問	-10.9401
妄也	-10.9402
周王	-10.9402
晉將	-10.9406
先王之制	-10.941
曰天子	-10.941
以禦	-10.9411
終不	-10.9412
正其罪	-10.9413
非為	-10.9413
紏	-10.9413
嗣是為	-10.9415
能自	-10.9415
来歸	-10.942
次國	-10.9421
曰諾	-10.9422
也胡安國曰	-10.9422
朔日	-10.9424
世之	-10.9424
勤王	-10.9427
癸卯	-10.9432
奔者	-10.9433
冊	-10.9435
啖氏	-10.9435
也不書	-10.9439
采邑	-10.9446
又無	-10.9446
聲伯	-10.9448
菅	-10.9448
縛	-10.9449
成三年	-10.9449
無乃不可乎	-10.9449
費無極	-10.9449
子亹	-10.9449
列于	-10.9451
史之	-10.9453
誤作	-10.9454
蔡昭	-10.9457
以示貶	-10.9457
故不得	-10.9459
禮有	-10.9459
僭天子	-10.9459
哉且	-10.946
而動	-10.9462
中有	-10.9462
强楚	-10.9467
不重	-10.9468
周旋	-10.9469
曰侵	-10.9471
亡乎	-10.9473
未入	-10.9473
不得其	-10.9473
雖以	-10.9476
之祖	-10.9477
或書	-10.9479
不予	-10.948
城南	-10.9482
遂殺	-10.9483
用也	-10.9483
晝	-10.9484
夙	-10.9485
取向	-10.9485
而民	-10.9488
其徳	-10.9489
此為	-10.949
而天下	-10.949
淹	-10.9491
河北	-10.9491
不和	-10.9491
十五日	-10.9492
黷	-10.9493
致死	-10.9494
亮	-10.9496
卜之	-10.9497
以守	-10.9497
釋怨	-10.9502
狐偃	-10.9502
蘇氏	-10.9502
桓三年	-10.9503
不登	-10.9503
公在楚	-10.9505
根牟	-10.951
滅人之國	-10.9512
氏者	-10.9512
予奪	-10.9513
滅黄	-10.9513
氏族	-10.9516
之師也	-10.9516
傷之	-10.952
又言	-10.952
人民	-10.9521
非其罪	-10.9522
之强	-10.9523
雖未	-10.9524
無備	-10.9525
歸國	-10.9526
諸侯不得	-10.953
潜	-10.9532
穆伯	-10.9536
居于鄆	-10.9538
且曰	-10.9539
以免	-10.9539
于温	-10.9539
有所不	-10.954
朝正	-10.9548
聞之曰	-10.9549
旅見	-10.9549
假令	-10.9556
今以	-10.9558
在鄭	-10.9561
往往	-10.9561
羊舌	-10.9564
書于䇿	-10.9566
闕文也	-10.9571
春分	-10.9572
無忌	-10.9573
譙	-10.9573
闢	-10.9573
文子曰	-10.9573
吳越	-10.9575
黄父	-10.9576
酈	-10.9576
巷	-10.9576
毫	-10.9579
西宫	-10.958
晉郤缺	-10.9582
東陽	-10.9584
之葬	-10.9585
南宫	-10.9585
其稱人何	-10.9586
公子比	-10.9586
内則	-10.9589
僖三十三年	-10.9592
不復見	-10.9593
内有	-10.9599
甘心	-10.9601
己之	-10.9604
群	-10.9604
不責	-10.9604
釋文	-10.9605
公欲	-10.9606
髙氏閌曰	-10.9607
十二日	-10.9609
而相	-10.9609
鄭伯突	-10.9611
境内	-10.9613
稱及	-10.9614
州蒲	-10.9615
逕	-10.9616
祚	-10.9617
譴	-10.9618
世族譜	-10.9618
臧武仲	-10.9618
婦道	-10.962
閔僖	-10.962
韋昭	-10.9621
大饑	-10.9622
能救	-10.9623
紀侯大去其國	-10.9626
侯國	-10.9628
以臨	-10.9629
曲禮	-10.9629
讓之	-10.9633
.6	-10.9638
又東經	-10.9639
喪娶	-10.964
皆可	-10.9641
桓文之	-10.9642
有闕	-10.9642
禮天子	-10.9646
公孫嬰齊	-10.9649
三十三	-10.9655
錫之	-10.9655
必待	-10.9655
始得	-10.9656
秋大雩	-10.9658
未知其	-10.9658
亨	-10.966
怯	-10.9661
然春秋	-10.9663
主諸侯	-10.9663
壓	-10.9663
暗	-10.9664
賂齊	-10.9665
此何以	-10.9667
城郭	-10.967
以示義	-10.9673
晉殺其大夫	-10.9676
服䖍曰	-10.9676
冡宰	-10.9676
未成君	-10.9677
而亡	-10.9681
二國之	-10.9681
不書此何以書	-10.9683
五百	-10.9688
病矣	-10.9691
紀事	-10.9694
敗諸	-10.9695
者何疏	-10.9697
縣北有	-10.97
鴻	-10.9701
焉注	-10.9701
事見	-10.9701
臘	-10.9703
翩	-10.9704
是嵗	-10.9705
出居	-10.9706
庀	-10.971
莱	-10.9711
欲得	-10.9712
郤錡	-10.9712
而復之	-10.9715
傳注	-10.9718
蒐狩	-10.972
道路	-10.9723
王室之	-10.9724
不達	-10.9731
之南	-10.9732
郊公	-10.9735
復讐	-10.9736
赴以名	-10.9736
何以知	-10.9739
不歸	-10.9739
故從	-10.9743
隠之	-10.9745
所從	-10.9745
裂	-10.9748
璋	-10.9748
之祭	-10.9749
逺近	-10.9752
則皆	-10.9753
而不見	-10.9753
據經	-10.9753
百五十	-10.9753
杜預注	-10.9759
孟春	-10.9759
十年春王正月	-10.976
成宋亂	-10.9762
以此知	-10.9765
以疾	-10.9765
百一十	-10.9766
貴之也	-10.9767
新軍	-10.977
來媵	-10.9771
易也	-10.9771
奔宋	-10.9774
于春秋	-10.9775
欲戰	-10.9777
爵命	-10.9777
備書	-10.978
又以為	-10.9783
從中國	-10.9788
共音恭	-10.9789
於京師	-10.979
之序	-10.979
屬詞	-10.9791
父命	-10.9791
熾	-10.9797
責魯	-10.9797
壻	-10.9798
陣	-10.9799
左氏傳曰	-10.9799
說文云	-10.98
子瑕	-10.98
自古	-10.9803
尤甚	-10.9805
知其為	-10.9807
誤以	-10.9809
為氏	-10.9809
按經	-10.9809
三國之	-10.981
一邑	-10.981
十四年春	-10.9811
盟于洮	-10.9812
入之	-10.9814
尉	-10.9814
五廟	-10.9815
子帶	-10.9818
用人	-10.9818
何益	-10.9819
既以	-10.982
陽城	-10.9822
無極	-10.9823
9.	-10.9825
將殺	-10.983
徴舒	-10.9831
探	-10.9831
其利	-10.9831
婢	-10.9834
旄	-10.9837
暮	-10.9838
哀元年	-10.9839
伺	-10.9839
歜	-10.984
沿	-10.984
者固	-10.9841
䧟	-10.9842
日月之	-10.9842
皆非也	-10.9844
先晉	-10.9846
置之	-10.9847
奕	-10.9848
兩下相殺	-10.9848
漢儒	-10.9853
不知有	-10.9853
乾時	-10.9855
召王	-10.9855
未可知也	-10.9855
雖非	-10.9856
鄒	-10.9858
士伯	-10.9859
焉其	-10.9864
為辭	-10.9871
之屬是也	-10.9872
之東	-10.9872
地闕	-10.9874
無别	-10.9876
言取	-10.9876
殺也	-10.9878
也昭公	-10.9878
與君	-10.9878
故春秋書	-10.988
楹	-10.988
而稱人	-10.9883
誌	-10.9885
使民	-10.9885
明徳	-10.9886
五大	-10.9886
水經	-10.9886
地在	-10.9886
太伯	-10.9887
甯殖	-10.9889
其君者	-10.9891
曁	-10.9891
族也	-10.9895
也然而	-10.99
新君	-10.9908
著例	-10.9909
禮以	-10.9909
徳之	-10.9911
不度	-10.9913
邢丘	-10.9916
陳侯鄭伯	-10.9919
知所	-10.9921
固當	-10.9922
桓宣	-10.9924
曰晉	-10.9925
略之也	-10.9926
稱之	-10.9928
各以	-10.9929
重也	-10.993
叢	-10.9931
希	-10.9931
伋	-10.9932
失諸侯	-10.9933
後言	-10.9937
有變	-10.9938
彘子	-10.9939
榖梁子曰	-10.994
惡乎	-10.9942
以封	-10.9944
違禮	-10.9947
不作	-10.995
三十五	-10.9951
反徐	-10.9956
常法	-10.9959
五霸	-10.9959
武父	-10.996
茅戎	-10.9963
魯女	-10.9963
尊王室	-10.9965
潞氏	-10.9967
正而	-10.9967
而誅之	-10.9968
狗	-10.9971
絲	-10.9971
鮒	-10.9972
梁山	-10.9972
言于	-10.9972
春秋之書	-10.9973
于大廟	-10.9974
収	-10.9975
橋	-10.9976
楚方	-10.9977
以結	-10.9979
奔鄭	-10.998
齊東野人之	-10.9983
復為	-10.9983
漢水	-10.9984
之婦	-10.9985
義取	-10.9985
必至	-10.9986
不獨	-10.9986
齊威	-10.9987
兵力	-10.9989
百八十	-10.999
亮反	-10.9991
高固	-10.9993
去其國	-10.9993
之極	-10.9994
以著其罪	-10.9995
曰然則	-10.9996
巫臣	-11.0006
陪	-11.0006
大功	-11.001
靳	-11.0012
銘	-11.0013
是爲	-11.0014
何能	-11.0016
竈	-11.0017
曰楚	-11.0017
聃	-11.0017
昭十二年	-11.0018
隱元年	-11.0018
可以為	-11.0021
為賊	-11.0022
曷為不	-11.0023
汰	-11.0023
拯	-11.0023
既書	-11.0024
魯既	-11.0026
定六年	-11.003
鄭莊公	-11.0032
晉為	-11.0034
元妃	-11.0035
小事	-11.0035
史氏	-11.0036
乃與	-11.0038
觀從	-11.0044
居于	-11.0046
衛孫林父	-11.0047
致者	-11.0048
二公	-11.005
盟故	-11.0051
制度	-11.0051
受封	-11.0051
㑹公	-11.0053
榖梁謂	-11.0055
制於	-11.0056
柏	-11.0061
跪	-11.0063
趙子	-11.0067
取之也	-11.007
滅者	-11.007
巻	-11.007
秘	-11.0071
向魋	-11.0072
來乞師	-11.0073
殺者	-11.0073
其徒	-11.0074
太祖	-11.0076
昏禮	-11.0079
将以	-11.008
以亂	-11.0081
而行之	-11.0082
而後言	-11.0083
當時諸侯	-11.0086
主夏盟	-11.0086
公徒	-11.0087
城内	-11.0088
之親	-11.0088
猶能	-11.0092
直云	-11.0092
百世	-11.0095
合於	-11.01
隠桓	-11.0101
視朔	-11.0102
及者	-11.0103
自出	-11.0104
王政	-11.0106
公子雍	-11.0107
其祖	-11.0108
也以其	-11.011
以此見	-11.011
臧紇	-11.011
子蕩	-11.011
春秋有	-11.0111
圻	-11.0112
鋭	-11.0112
瘠	-11.0113
附錄	-11.0114
氾	-11.0114
考其	-11.0115
而私	-11.0116
升陘	-11.0119
則否	-11.0121
日而	-11.0122
西方	-11.0123
取於	-11.0124
士燮	-11.0125
夷之	-11.0127
有可	-11.013
我先君	-11.0131
報聘	-11.0132
得意	-11.0132
天子命	-11.0134
爲政	-11.0134
取國	-11.0135
家氏	-11.0138
同者	-11.0139
往而	-11.0139
内難	-11.0139
於㑹	-11.0144
書地	-11.0145
楚平	-11.0146
不言滅	-11.0147
昭七年	-11.0156
叔還	-11.0156
員	-11.0157
痤	-11.0158
什	-11.0158
相攻	-11.0159
權在	-11.0159
黨惡	-11.0159
于國	-11.016
紛紛	-11.016
鄟陵	-11.0162
殉	-11.0162
甗	-11.0163
晉趙鞅謂邯鄲午曰歸我衞貢五百家	-11.0166
則無以	-11.0167
衰世	-11.0167
求諸侯	-11.017
外域	-11.0174
王父	-11.0175
縣南有	-11.0177
與子	-11.0177
曰王	-11.0177
詩大雅	-11.0177
楚伐	-11.0179
之急	-11.018
毁其	-11.0182
貴者	-11.0182
于曹	-11.0183
生於	-11.0191
所居	-11.0191
司馬法	-11.0194
知其不可	-11.0195
好也	-11.0196
於是有	-11.0196
三𫝊	-11.0197
何以言	-11.0197
也公羊傳	-11.0198
居喪	-11.0201
鳳	-11.0201
來魯	-11.0202
刖	-11.0204
侵魯	-11.0205
鐵	-11.0206
五等	-11.0207
復有	-11.0207
于某	-11.021
秋八月大雩	-11.0212
失也	-11.0213
齊人宋人	-11.0214
不往	-11.0215
榮叔	-11.0216
力以	-11.0216
無義	-11.0216
而受	-11.0219
襄之	-11.0224
既已	-11.0228
十有六年春王正月	-11.023
而使之	-11.0231
成人	-11.0235
屈建	-11.0236
之法也	-11.0237
澄曰	-11.0237
子旗	-11.0238
者唯	-11.0239
毀	-11.024
公子宋	-11.0242
阜	-11.0242
進而	-11.0242
詳矣	-11.0243
頑	-11.0244
亊	-11.0245
之微	-11.0246
吳之	-11.0247
書卒者	-11.0247
可以見	-11.0247
之母弟	-11.0247
飬	-11.0247
問其	-11.0249
使諸侯	-11.0249
匠	-11.025
騐	-11.0253
而經書	-11.0255
以請	-11.0259
以待之	-11.026
士蒍	-11.026
秦伯卒	-11.026
王季子	-11.0261
雜記	-11.0261
自墮之	-11.0261
名字	-11.0263
不來	-11.0266
微之	-11.0266
附錄左傳	-11.0266
以是知	-11.0267
猶三望	-11.0268
稱人以執	-11.0268
公若	-11.0269
自殺	-11.027
身死	-11.027
也桓	-11.0273
氏以為	-11.0273
何爲	-11.0274
高厚	-11.0274
莒邑	-11.0277
魯濟	-11.0279
其舊	-11.028
驂	-11.0281
師於	-11.0283
案傳	-11.029
不納	-11.0297
銳	-11.0297
貺	-11.0298
寵愛	-11.0298
訃	-11.0299
不共戴天	-11.0301
郜鼎	-11.0302
償	-11.0303
之爭	-11.0303
偽不知我將不墮冬十二月公圍成弗克	-11.0306
其月	-11.0307
直𨽻	-11.0307
胡氏以為	-11.0307
文十八年	-11.0308
未踰年之君	-11.031
不繫之	-11.0312
盜殺	-11.0312
季孫宿如晉	-11.0322
非仲由	-11.0323
君大夫	-11.0324
為楚所	-11.0327
各一	-11.0329
征之	-11.0332
齊侯衞侯	-11.0333
義曰	-11.0334
彼此	-11.0337
又東	-11.0337
褒之	-11.034
丁卯	-11.0342
滯	-11.0342
乃云	-11.0343
重言	-11.0344
潔	-11.0349
孫州仇	-11.035
無罪而	-11.035
而罪	-11.0352
父兄皆曰不可衞是以為邯鄲	-11.0353
同欲	-11.0353
滕侯	-11.0354
未服	-11.0356
突之	-11.0358
解云正以	-11.0362
日在	-11.0363
北燕伯	-11.0363
為之主	-11.0364
善者	-11.0366
弗克納	-11.0366
書至者	-11.0366
夷昧	-11.0367
為可	-11.037
之朝	-11.037
翰	-11.0372
何耶	-11.0373
臣弑君	-11.0373
甚之也	-11.0376
亡人	-11.0376
春秋之例	-11.0379
父也	-11.038
世世	-11.0381
過時	-11.0381
神明	-11.0381
秦景	-11.0381
十四日	-11.0382
如是則	-11.0383
之讎	-11.0383
.10	-11.0385
二公子	-11.0385
難乃旦反	-11.0385
茷	-11.0386
楚鄭	-11.0387
鸜鵒	-11.0388
來求	-11.0389
非其罪也	-11.0389
後漢志	-11.0389
疾也	-11.0389
此經	-11.0391
告急	-11.0391
大雨雪	-11.0392
笄	-11.0394
四十年	-11.0394
奬	-11.0394
九月大雩	-11.0395
帥師圍	-11.0395
成六年	-11.0395
歃血	-11.0396
恥之	-11.0397
則楚	-11.0398
要盟	-11.0398
石買	-11.0399
此戰	-11.0399
襲魯之事	-11.0399
去其險爾	-11.04
郈公山不狃	-11.04
耳若	-11.0402
卿不書	-11.0403
審矣按	-11.0406
制故因	-11.041
有罪而	-11.0411
嚴矣	-11.0411
攘楚	-11.0411
去族	-11.0412
此蓋	-11.0413
錄之	-11.0413
以官	-11.0414
以夫人	-11.0415
然猶	-11.0418
耳目	-11.0421
程子傳	-11.0426
台	-11.0428
兵革	-11.043
成敗	-11.0434
榆	-11.0436
埋	-11.0438
睽	-11.0439
踊	-11.0439
所以不	-11.0443
即今	-11.0443
成齊人必至于北門且成孟氏之保障	-11.0444
牡丘	-11.0446
武氏子	-11.0446
吾舍諸晉陽午許諾歸告其父兄	-11.0447
此正所謂	-11.0448
之心也	-11.0449
三年之喪	-11.0449
是何	-11.045
孔子言于	-11.0452
稱氏	-11.0452
懐公	-11.0453
其初	-11.0455
祖父	-11.0455
而失	-11.0457
别為	-11.0457
于吳	-11.0459
邳	-11.0461
公子瑕	-11.0462
朝天子	-11.0469
一事也	-11.0472
五鹿	-11.0476
戰勝	-11.0479
乃得	-11.0482
相親	-11.0482
彗	-11.0482
頡	-11.0484
洪範	-11.0486
羯	-11.0487
子欲正	-11.0487
恤民	-11.0488
從祀先公	-11.049
晉不	-11.049
廏	-11.0491
愛其	-11.0492
用郊	-11.0494
定公曰臣無	-11.0495
藏甲大夫無百雉之城	-11.0495
有力	-11.0495
而即	-11.0496
臣民	-11.0496
仲由季氏	-11.0496
問焉	-11.0499
待人	-11.0501
未可知	-11.0501
效死	-11.0502
不恭	-11.0504
成九年	-11.0504
利而	-11.0504
賢之	-11.0506
此三	-11.0507
内外之	-11.0508
杜氏以為	-11.051
削而不書	-11.051
文之	-11.0512
韓子	-11.0514
秋公至自㑹	-11.0515
則晉	-11.0516
舊好	-11.0517
尊之	-11.0518
疾而	-11.0521
一二	-11.0523
見獲	-11.0523
有一	-11.0524
変	-11.0524
驩	-11.053
彦	-11.0531
酬	-11.0531
弑立	-11.0532
曹南	-11.0532
犀	-11.0535
擬	-11.0536
蜃	-11.0537
儲	-11.0538
擁	-11.0539
楚既	-11.0539
􁇦	-11.0541
帥師墮郈季孫斯仲孫何忌帥師墮費則	-11.0543
言欲歸美孔子而不知其義者使孔	-11.0543
三家必有其道矣何至使仲由為之况墮	-11.0543
幾危其君而成又卒以叛雖妄人不為也	-11.0543
宰爾何與魯事而併得毁三都經書叔	-11.0543
有也十有三年秋晉趙鞅入于晉陽以叛	-11.0543
叛費家臣之彊反恃其邑而主不能	-11.0543
使仲由為季氏宰墮三都此蓋	-11.0543
孔子行乎季孫三月不違者蓋侯犯叛	-11.0543
幸其	-11.0549
爲主	-11.055
於衞	-11.0559
諸侯莫	-11.056
九年春王正月	-11.056
國之政	-11.0561
以責	-11.0561
大率	-11.0562
縣界	-11.0563
位也	-11.0563
與弑	-11.0564
命以	-11.0566
不反	-11.0567
何待	-11.0568
逆而	-11.0569
不與焉	-11.0571
與聞	-11.0572
卓子	-11.0573
之用	-11.0576
齊侯之	-11.0578
拱	-11.058
譲	-11.0581
汝南	-11.0584
勃	-11.0584
規模	-11.0588
行禮	-11.0589
及鄭平	-11.0589
杞伯來朝	-11.0594
其將	-11.0594
先是	-11.0596
把桓	-11.0602
百九十	-11.0603
定十五年	-11.0603
求援	-11.0603
也胡氏	-11.0605
中原	-11.0605
.8	-11.0607
九日	-11.0611
也故以	-11.0611
風俗	-11.0611
觀兵	-11.0614
漢志	-11.0615
非復	-11.0615
鄭伯使	-11.0616
明堂	-11.0616
求賻	-11.0617
也無成是無孟氏也子	-11.0618
公子地	-11.0619
使來	-11.0619
也故春秋	-11.0621
魄	-11.0621
鄔	-11.0622
北鄙	-11.0623
有六	-11.0625
也解云	-11.0627
而謀	-11.0628
㝷	-11.063
書敗	-11.063
欲令	-11.063
徐邈	-11.0632
証	-11.0632
此獨	-11.0632
齋	-11.0633
灌	-11.0633
寒暑	-11.0634
郚	-11.0634
玩	-11.0636
事皆	-11.0637
聶北	-11.0638
諸侯之卿	-11.0639
齊頃	-11.0639
華督	-11.0639
少師	-11.064
庚輿	-11.064
入其國	-11.0643
歟曰	-11.0643
一則	-11.0647
官也	-11.0648
大雨雹	-11.065
公至自伐齊	-11.0651
襄三十年	-11.0651
昭二十五年	-11.0653
祀之	-11.0658
其事則	-11.0669
蔵	-11.0669
專政	-11.067
荀吳	-11.0671
甲士	-11.0672
晨	-11.0673
之事而	-11.0674
伯主之	-11.0676
害也	-11.0677
與否	-11.0677
故亦	-11.0678
成季	-11.0679
民無	-11.068
混	-11.0681
沙鹿	-11.0681
諂	-11.0684
不設備	-11.0684
粢盛	-11.0685
科	-11.0685
陸淳	-11.0687
昭二十三年	-11.0687
謀楚	-11.0687
出竟	-11.0689
非常也	-11.069
三年春王正月	-11.0692
公子慶父	-11.0694
自來	-11.0694
以抗	-11.0695
春秋之㫖	-11.0695
乗其	-11.0699
其君而	-11.0699
叛君	-11.07
至是始	-11.0702
絶矣	-11.0705
惟此	-11.0707
罃	-11.0708
將下軍	-11.0709
繼室	-11.0711
子太叔	-11.0711
不敵	-11.0713
申息	-11.0714
鑑	-11.0718
百乘	-11.0718
公子馮	-11.0719
公鉏	-11.0719
策書	-11.0719
趙子常曰	-11.0721
衛侯朔	-11.0725
隐公	-11.0725
故能	-11.0725
檇李	-11.0726
而徒	-11.0726
而走	-11.0726
不失其	-11.0727
所據	-11.0728
馭	-11.0728
縁陵	-11.0729
憲	-11.073
宣四年	-11.073
也嗚呼	-11.0732
料	-11.0732
不可使	-11.0733
好惡	-11.0733
貽	-11.0734
宋元	-11.0734
以此為	-11.0735
衰絰	-11.0737
無主	-11.0737
以次	-11.0738
筮之	-11.0739
晉襄公	-11.0739
遥	-11.0739
皆所以	-11.074
公元年	-11.074
倣此	-11.0741
韓魏	-11.0742
夏姬	-11.0742
絶也	-11.0747
他事	-11.075
有天下	-11.0752
待於	-11.0753
而討之	-11.0755
為賢	-11.0757
也經書	-11.0758
既無	-11.0759
既𦵏	-11.0762
伐其	-11.0762
難以	-11.0762
於大夫	-11.0766
天人	-11.0768
喪事	-11.0768
邾邑	-11.0768
職貢	-11.0769
可畏	-11.0771
會之	-11.0772
躋	-11.0774
吐	-11.0774
裂繻	-11.0775
此春秋之	-11.0776
稱兵	-11.0776
趙簡子	-11.0777
近於	-11.0778
曰彼	-11.0779
荐	-11.0779
菟	-11.0779
宋邑	-11.078
何休云	-11.078
謀國	-11.0781
於先君	-11.0782
後為	-11.0783
公子偃	-11.0785
不悟	-11.0788
臣聞之	-11.0789
書不時也	-11.0791
雨雪	-11.0792
内諱	-11.0792
鄭棄其師	-11.0792
三傳皆	-11.0797
自京師	-11.0798
舉之	-11.0798
不赦	-11.0802
以賜	-11.0803
天之所	-11.0803
祭叔	-11.0805
釈例曰	-11.0806
歸之于	-11.0808
受盟于	-11.0808
治亂	-11.0808
於齊而	-11.081
曹羈	-11.081
皆出	-11.0811
書子	-11.0812
其亂	-11.0812
因此	-11.0813
小雅	-11.0815
為盟	-11.0816
十三年春	-11.0817
其二	-11.0817
罪惡	-11.0819
長也	-11.0819
祀周公	-11.082
于首止	-11.082
當云	-11.0822
8.	-11.0825
孚	-11.0826
疲	-11.0827
大心	-11.0827
者不與	-11.0828
甥舅	-11.0828
善道	-11.0828
衛成	-11.0829
姫	-11.083
甚多	-11.0831
帥師救	-11.0832
襄十一年	-11.0833
之甚者	-11.0834
縣也	-11.0837
强而	-11.0839
據此	-11.0841
所執	-11.0846
未為	-11.0847
糓	-11.0847
不得言	-11.0848
簡書	-11.0848
會吳	-11.0848
垂戒	-11.0849
衛國	-11.0849
改過	-11.085
滅弦	-11.0851
順也	-11.0851
宣十五年	-11.0853
惡之也	-11.0854
㔻	-11.0855
宜有	-11.0858
之事則	-11.0858
明是	-11.0858
子犯	-11.086
大去	-11.0867
間有	-11.0867
所自出	-11.0869
此役	-11.0872
伯夷	-11.0872
惡曹	-11.0874
藪	-11.0874
不可廢	-11.0874
可為	-11.0878
以號舉	-11.0882
生而	-11.0884
其葬	-11.0884
子伯	-11.0887
梁山崩	-11.0889
過我	-11.0891
不肖	-11.0891
萬民	-11.0891
知武子	-11.0896
主乎	-11.0896
失時	-11.0898
將上軍	-11.09
1	-11.0903
必敗	-11.0903
成七年	-11.0905
隂氣	-11.0907
▁公羊傳	-11.0909
王者之後	-11.0911
而不顧	-11.0913
起於	-11.0916
鄂	-11.0916
㑹齊	-11.0916
莊元年	-11.0917
秦楚	-11.0918
並無	-11.0918
恐非	-11.0921
箋	-11.0922
闈	-11.0922
楯	-11.0924
姊	-11.0925
蔇	-11.0928
大音泰	-11.0928
天王狩于河陽	-11.0929
三分	-11.0931
子氏	-11.0933
大夫帥師	-11.0942
今為	-11.0942
既死	-11.0943
何休曰	-11.0946
案此	-11.0946
齊人來歸	-11.0947
之北	-11.0948
伯石	-11.0949
丹陽	-11.0951
既衰	-11.0954
得之矣	-11.0954
大夫將	-11.0956
復書	-11.0957
齊世子光	-11.0959
把子	-11.096
則固	-11.096
以時	-11.0963
稼	-11.0966
之遺	-11.0966
貝	-11.0968
襄十年	-11.0968
僖之	-11.097
臯陶	-11.0972
放此	-11.0973
使告	-11.0973
初獻六羽	-11.0974
君子以為	-11.0975
為君也	-11.0976
廐	-11.0976
周道	-11.0976
復封	-11.0977
莽	-11.0977
慶鄭	-11.0977
言我	-11.0978
俠	-11.098
伐虢	-11.0981
圍邑	-11.0986
衛獻	-11.0987
子惡	-11.0992
書圍	-11.0992
其數	-11.0993
奔也	-11.0997
小邾子來朝	-11.1001
服從	-11.1002
怠於	-11.1004
霸國	-11.1006
鄭良霄	-11.1006
魯莊公	-11.101
未逾年	-11.1011
天所	-11.1011
有子	-11.1011
先大夫	-11.1012
㑹𦵏	-11.1017
三年春	-11.1017
莫大焉	-11.1019
之力也	-11.1021
静	-11.1021
琴	-11.1023
子文	-11.1024
郇	-11.1024
鄘	-11.1026
劉氏傳	-11.1026
舒蓼	-11.1027
夸	-11.1027
鼻	-11.1027
歸京師	-11.1028
宋桓	-11.1029
當如	-11.103
途	-11.103
誼	-11.1032
春秋凡	-11.1034
不直	-11.1035
梁國	-11.1036
八國	-11.1037
至河	-11.104
扵是	-11.1041
之誅	-11.1041
穀梁云	-11.1043
公弟	-11.1046
許人	-11.1047
往朝	-11.1049
莊之	-11.1049
以說	-11.105
賤之也	-11.1052
僖二十四年	-11.1052
襄二十五年	-11.1052
相遇	-11.1054
非君命	-11.1059
曰滅	-11.106
所引	-11.1062
専殺	-11.1064
至尊	-11.1066
納賂	-11.1066
之久	-11.1069
春秋書法	-11.1069
下聘	-11.1069
擅興	-11.1071
万	-11.1071
紅	-11.1072
柴	-11.1073
鬷	-11.1073
不能守	-11.1073
邾之	-11.1075
不称	-11.1076
正是	-11.1076
汙	-11.1076
狹	-11.1077
弓矢	-11.1077
憗	-11.1077
濵	-11.1079
盤	-11.1079
公子公孫	-11.1079
凖	-11.1079
而逺	-11.1079
惡烏路反	-11.1083
五氏	-11.1084
此等	-11.1084
復扶	-11.1085
當言	-11.1085
庶孽	-11.1087
無伯	-11.1087
其類	-11.1088
晉執	-11.1093
燕人	-11.1096
則不得	-11.1101
俱是	-11.1103
音同	-11.1108
且告	-11.111
東郡	-11.1111
意者	-11.1117
彪	-11.1123
賊不討	-11.1124
瓜	-11.1124
開封府	-11.1124
奔而	-11.1124
若實	-11.1124
能用	-11.1125
疑之	-11.1127
晩	-11.1129
6.	-11.113
蘓	-11.1131
不脩	-11.1131
吕祖謙曰	-11.1132
其首	-11.1133
見前	-11.1133
楚公子嬰齊	-11.1137
非也若	-11.1139
在宋	-11.114
則民	-11.1141
其德	-11.1144
取鄟	-11.1145
通㫖	-11.1148
七十里	-11.1149
有國者	-11.1149
為伯	-11.1152
矣况	-11.1153
其政	-11.1155
善善	-11.1158
不能用	-11.1158
見滅	-11.1161
不可勝	-11.1162
魯莊	-11.1162
鄭邑	-11.1162
衰而	-11.1163
微國	-11.1165
桷	-11.117
越人	-11.117
諜	-11.117
魯與	-11.1173
涇	-11.1173
樓	-11.1176
孫良夫	-11.1177
𦙍	-11.1177
已久	-11.1178
所以尊	-11.1181
為明年	-11.1184
春秋之作	-11.1185
禮乎	-11.1186
官名	-11.1187
平宋	-11.1187
劉文公	-11.1187
東都	-11.1188
簒弑之	-11.1189
襄七年	-11.119
之身	-11.1194
失其所	-11.1194
私行	-11.1199
與此同	-11.1201
戰則	-11.1202
無故而	-11.1202
同辭	-11.1203
廣平	-11.1205
之字	-11.1205
往㑹之	-11.1207
以譏	-11.1208
何以得	-11.121
宗廟社稷	-11.1213
小子	-11.1214
是後	-11.1217
其或	-11.1217
其子孫	-11.1219
文仲	-11.1223
汶陽田	-11.1227
為三	-11.1227
為之辭	-11.1229
一言	-11.123
祭天	-11.123
撃	-11.123
之主也	-11.1231
之賜	-11.1232
隱桓	-11.1232
毅	-11.1232
宋公陳侯	-11.1232
城西郛	-11.1233
莒魯	-11.1233
蕪	-11.1234
諒	-11.1235
頵	-11.1235
在此月	-11.1236
吉禘	-11.1236
失職	-11.1236
曲阜	-11.1237
而左氏	-11.1237
其㫖	-11.1237
心不	-11.1238
以見義	-11.1238
伊尹	-11.1238
時祭	-11.1239
未𦵏	-11.1239
納諸	-11.1239
襄十四年	-11.124
申之㑹	-11.124
舒庸	-11.124
城濮之戰	-11.124
肆行	-11.1246
哀二年	-11.1246
可疑	-11.1254
名之曰	-11.1255
夏五	-11.1256
始於此	-11.1257
丈反	-11.1258
不敢以	-11.1259
與秦	-11.126
申叔	-11.1267
過於	-11.1269
不親迎	-11.1277
先都	-11.1277
愎	-11.1278
準	-11.1278
闔	-11.128
闡	-11.128
濡	-11.1281
郉	-11.1281
再娶	-11.1281
趙氏鵬飛曰	-11.1283
韓獻子	-11.1283
被殺	-11.1284
熊過氏曰	-11.1285
騑	-11.1287
薳罷	-11.1288
常山劉氏曰	-11.1288
新築	-11.1288
夫人姜氏至自齊	-11.1288
記云	-11.1289
邾婁子	-11.129
緩也	-11.129
于㑹	-11.1291
討亂	-11.1291
之器	-11.1292
待命	-11.1294
是言	-11.1294
怨之	-11.1295
既有	-11.1295
書奔	-11.1297
紀綱	-11.1299
定元年	-11.13
因是	-11.1303
王都	-11.1304
無正	-11.1305
儒者	-11.1306
襄夫人	-11.131
圖霸	-11.131
霸也	-11.1311
西周	-11.1313
今兹	-11.1313
掩其	-11.1316
高子	-11.1317
▁家氏鉉翁曰	-11.1318
而有之	-11.1319
許靈公	-11.1319
可通	-11.1319
比蒲	-11.1321
必非	-11.1323
内之	-11.1324
而聖人	-11.1327
晉伐鮮虞	-11.1328
不先	-11.1329
臯鼬	-11.133
者不以	-11.133
以自固	-11.1336
抽	-11.1336
汲郡	-11.1337
觸	-11.1337
也何以不言	-11.1338
恃其	-11.1338
生事	-11.1338
已成	-11.1343
其年	-11.1344
與之戰	-11.1344
伊川先生解	-11.1345
是以有	-11.1348
善人	-11.1348
又如	-11.1348
鄆潰	-11.135
髙克	-11.135
非君	-11.1351
㑹稽	-11.1351
夏徴舒	-11.1354
之叛	-11.1359
詐戰	-11.1359
遂以為	-11.1361
分明	-11.1361
桓莊	-11.1362
際	-11.1362
於是乎有	-11.1363
定八年	-11.1363
次于陘	-11.1364
凡四	-11.1364
不以名	-11.1365
又從而	-11.1366
聖賢	-11.1366
五大夫	-11.1368
於大國	-11.1369
上言	-11.137
華亥	-11.1371
齊人歸	-11.1371
大棘	-11.1374
乎然則	-11.1378
其過	-11.1379
不見於經	-11.1379
婦人之	-11.138
管子	-11.138
臭	-11.1381
辭之	-11.1382
昔陽	-11.1383
磬	-11.1383
竇	-11.1384
宋莊	-11.1385
晉侯伐鄭	-11.1385
而不復	-11.1385
苐	-11.1386
杵臼	-11.1387
鄭康成	-11.1388
改卜牛	-11.139
大法	-11.139
鄭既	-11.139
不可信	-11.139
公之廟	-11.1394
書遂	-11.1395
未有以	-11.1397
不至於	-11.1398
保其	-11.14
無辭	-11.1401
其國而	-11.1403
聖人因	-11.1404
而起	-11.1406
鄭有	-11.1407
地以	-11.1407
唯有	-11.1407
七國	-11.1416
言非	-11.1418
不會	-11.1418
朝者	-11.1421
偽反	-11.1421
義不可	-11.1422
八人	-11.1424
子游	-11.1424
夘	-11.1426
趣	-11.1428
于公	-11.143
于扈	-11.143
谿	-11.1431
瞻	-11.1432
而易	-11.1435
骨肉	-11.1437
股	-11.1438
蘧	-11.1439
仲孫何忌	-11.1439
郟敖	-11.1439
弱而	-11.144
暑	-11.144
不逺	-11.1441
成十七年	-11.1442
㐮公	-11.1442
于前	-11.1443
㑹吴	-11.1443
程頥曰	-11.1447
傳記	-11.145
新城之盟	-11.1452
而進	-11.1452
季子來歸	-11.1452
暴虐	-11.1454
求婦	-11.1456
取邿	-11.1459
之所得	-11.1463
厚薄	-11.1463
伐邢	-11.1465
結盟	-11.1466
乗車	-11.1467
以貶之	-11.1467
春秋因	-11.1468
平州	-11.147
之子孫	-11.147
武王封	-11.1476
而更	-11.1478
亦因	-11.148
救衞	-11.1481
非公	-11.1482
為周	-11.1482
女音汝	-11.1483
曰入	-11.1486
公在外	-11.1488
何敢	-11.1489
可言	-11.149
頴	-11.149
卬	-11.1491
天下無	-11.1492
故不稱	-11.1493
逆叔姬	-11.1494
夷伯	-11.1495
于河	-11.1496
仲幾	-11.1496
黑壤	-11.1496
沂水	-11.1497
哉此	-11.1497
不專	-11.1497
郯子	-11.1498
不言來	-11.1499
季平子	-11.15
如彼	-11.1503
辟之	-11.1504
發之	-11.1504
之德	-11.1504
之宜	-11.1505
事大國	-11.1507
文襄之	-11.1507
大夫㑹	-11.1511
公朝于王所	-11.1511
重故	-11.1512
後此	-11.1513
亦得	-11.1515
對曰臣	-11.1521
僖公成風	-11.1521
之閒	-11.1525
五百里	-11.1526
先儒以為	-11.1528
身之	-11.1529
葢以	-11.153
削其	-11.153
三十四	-11.1532
濟西田	-11.1532
于中國	-11.1532
大夫者	-11.1532
九世	-11.1532
福也	-11.1533
不禮焉	-11.1533
旱也	-11.1534
專之	-11.1534
豈敢	-11.1535
伐郳	-11.1536
功也	-11.1537
相命	-11.1538
定十年	-11.1539
季姜	-11.1543
有徳	-11.1544
俎	-11.1544
桓叔	-11.1544
輦	-11.1544
俯	-11.1545
既成	-11.1547
有道	-11.1547
挫	-11.1548
赦之	-11.1549
託於	-11.1552
失所	-11.1552
何賢乎	-11.1554
子同生	-11.1554
爵而	-11.1557
者譏	-11.1558
世為	-11.1558
撥亂	-11.156
1.	-11.156
是之謂	-11.156
爾非	-11.1564
其盟	-11.1564
觀春秋	-11.1565
耳然	-11.1566
乾谿	-11.157
襄二十六年	-11.1572
文宣	-11.1572
百七十	-11.1573
偏師	-11.1574
待其	-11.1574
正始	-11.1581
甚明	-11.1583
所主	-11.1587
晉有	-11.159
謹於	-11.159
笙	-11.159
晉使	-11.1591
吴人	-11.1592
鬻	-11.1594
鴈	-11.1596
恊	-11.1598
皷	-11.1598
其法	-11.1598
水火	-11.1598
見春秋	-11.16
如雨	-11.1601
醢	-11.1603
大夫之三命者也	-11.1603
中丘	-11.1604
郤宛	-11.1604
拒之	-11.1605
齊國書	-11.1606
賢之也	-11.1608
書弑	-11.1609
傳載	-11.161
仗義	-11.1611
石惡	-11.1613
曰師	-11.1617
故以為	-11.1621
孔丘	-11.1622
不殊	-11.1623
丘縣	-11.1625
東鄙	-11.1625
不具	-11.1629
使告于	-11.1632
遇弑	-11.1632
晉為盟主	-11.1633
月之	-11.1637
城西	-11.1637
聖經	-11.1637
足以見	-11.1641
眾	-11.1641
魴	-11.1642
城把	-11.1643
不及事	-11.1644
巽	-11.1646
本義	-11.1646
者因	-11.1646
乃立	-11.1647
非吾	-11.1647
雖在	-11.1648
覽	-11.1649
妙	-11.1651
叔齊	-11.1651
朔日食	-11.1654
則罪	-11.1654
公懼	-11.1655
通嗣君也	-11.1655
䜛	-11.1656
諸卿	-11.1658
黑肱	-11.1662
之礼	-11.1664
本紀	-11.1665
次于郎	-11.1666
殺叔武	-11.1667
秦伐晉	-11.1668
史䇿	-11.1668
曰夫子	-11.1669
中氣	-11.1671
至扵	-11.1671
之事故	-11.1675
言諸侯	-11.1676
及於	-11.1676
尚何	-11.1677
伯國	-11.1679
為近	-11.168
八日	-11.168
亦已	-11.1681
穀梁以為	-11.1681
兄弟之國	-11.1684
朝齊	-11.1685
遷許	-11.1686
而可以	-11.1686
澆	-11.1687
過則	-11.169
數十	-11.1691
齊楚	-11.1691
注解云即	-11.1691
動而	-11.1696
國之人	-11.1697
也不曰	-11.17
也何以書	-11.1703
與大夫	-11.1704
歡	-11.1705
躍	-11.1705
正寢	-11.1706
盟于宋	-11.1706
臣聞	-11.1706
隳	-11.1706
嗣立	-11.1708
救者	-11.1709
寳玉大弓	-11.1709
襄三年	-11.1714
便是	-11.1719
仲嬰齊	-11.1719
卜筮	-11.172
以正其	-11.1722
宋仲幾	-11.1722
而𦵏	-11.1723
不著	-11.1725
其罪大矣	-11.1726
重矣	-11.1726
言及者	-11.1727
魯使	-11.1727
王子猛	-11.1729
改葬	-11.1729
而後入	-11.173
相殺	-11.1732
此其所以	-11.1735
告也	-11.1736
漢置	-11.1736
不載	-11.1736
不告朔	-11.1737
不書葬者	-11.1738
善矣	-11.1738
管蔡	-11.1738
爭鄭	-11.174
諸侯之上	-11.1741
被執	-11.1744
同好	-11.1744
皆用	-11.1744
反馬	-11.1745
歸我	-11.1746
之制也	-11.1747
一體	-11.1749
六軍	-11.1751
既歸	-11.1751
人臣之	-11.1751
邁	-11.1751
揮	-11.1752
蠆	-11.1753
頓子	-11.1753
揔	-11.1754
憎	-11.1756
虢叔	-11.1757
雙	-11.1758
於餘丘	-11.176
異同	-11.1761
宣榭	-11.1761
太平	-11.1762
入州來	-11.1762
公㑹晉侯宋公衛侯鄭伯曹伯	-11.1765
楚兵	-11.1765
得免	-11.1765
主於	-11.1765
成事	-11.1765
之願也	-11.1766
竜	-11.1767
可信	-11.1768
怒曰	-11.1768
苕丘	-11.177
野井	-11.177
未之有也	-11.1772
侵我	-11.1774
次年	-11.1774
城今	-11.1778
大室	-11.1779
心也	-11.1788
不云	-11.1788
並書	-11.1788
凡言	-11.1789
不繫國	-11.179
一事而	-11.179
殘民	-11.179
鹿上	-11.1791
明言	-11.1791
二十五人	-11.1793
多少	-11.1796
得志於	-11.1801
無益	-11.1803
潦	-11.1803
于莒	-11.1804
民事	-11.1806
周語	-11.181
泗水	-11.1811
公既	-11.1812
示威	-11.1812
括地志	-11.1813
乃書	-11.1813
其國也	-11.1815
公如京師	-11.1815
鄑	-11.1816
昆弟	-11.1816
月朔	-11.1817
成於	-11.1817
暨齊平	-11.1818
而後伐	-11.1823
庶兄	-11.1823
亦稱	-11.1823
言語	-11.1825
安民	-11.1826
莊十	-11.1828
初年	-11.1829
天子三公	-11.183
亦為	-11.1834
會齊侯	-11.1834
不能治	-11.1835
盟于召陵	-11.1836
矣是故	-11.1837
君之子	-11.184
曰寡人	-11.1843
春夏	-11.1843
按春秋	-11.1843
所以示	-11.1846
信矣	-11.1847
所感	-11.185
礼也	-11.1852
難乃	-11.1852
皆作	-11.1853
服虔云	-11.1854
死亡	-11.1855
是皆	-11.1856
子庚	-11.1857
深惡	-11.1859
淫亂	-11.1859
私怨	-11.1863
屠	-11.1864
以治	-11.1865
經於	-11.1865
阨	-11.1866
累上	-11.1868
國亡	-11.1869
于夷	-11.1871
遲速	-11.1873
所及	-11.1875
其責	-11.1884
昭侯	-11.1884
講武	-11.1885
異而	-11.1888
顯然	-11.1888
成八年	-11.1891
一切	-11.1892
去氏	-11.1893
莅	-11.1894
5.3	-11.1895
專行	-11.1898
康子	-11.1898
始于	-11.1899
反一音	-11.1899
不書卒	-11.1902
軍政	-11.1904
原仲	-11.1905
不幸而	-11.1908
衛君	-11.1908
之弊	-11.191
晉士鞅	-11.191
安之	-11.1912
好呼報反	-11.1915
該	-11.1916
滅虢	-11.1917
戎蠻子	-11.1919
茂	-11.1919
耀	-11.1921
所以致	-11.1922
㧞	-11.1922
召諸侯	-11.1923
則失	-11.1924
豎牛	-11.1925
喪禮	-11.1925
子上	-11.1926
疆埸	-11.1926
北杏之㑹	-11.1927
巡狩	-11.1928
國逆	-11.1933
專也	-11.1933
穀梁謂	-11.1936
七年春	-11.1936
城費	-11.1937
王氏	-11.1941
當時之	-11.1942
嫡庶	-11.1942
無與	-11.1943
類也	-11.1945
不言敗	-11.1947
夏后	-11.1947
除喪	-11.1951
王叔	-11.1951
改月	-11.1953
宋殺其大夫	-11.1956
北海	-11.1958
於齊也	-11.1958
安可	-11.1958
深切著明	-11.1961
襄城	-11.1961
討貳	-11.1963
晦朔	-11.1964
而不與	-11.1965
穀梁傳曰	-11.1966
伐鼓	-11.1966
或問曰	-11.1968
案春秋	-11.1969
李氏曰	-11.1969
冉	-11.1973
固不可	-11.1974
惟恐	-11.1975
固非	-11.1975
及楚平	-11.1976
媒	-11.1976
敘	-11.1978
責賂	-11.1979
不亦難乎	-11.1979
稱天王	-11.1979
陟	-11.1979
肄	-11.1981
惡自見	-11.1981
䕶	-11.1981
討賊之義	-11.1982
叔孫昭子	-11.1983
賂以	-11.1983
固可	-11.1985
也其不言	-11.1986
亦謂之	-11.1987
士會	-11.1988
晉邑	-11.199
僖二年	-11.1993
不與也	-11.1996
一舉而	-11.1999
所獲	-11.1999
莊十年	-11.2
王子帶	-11.2001
其意也	-11.2001
取其地	-11.2001
衛侯衎	-11.2003
其權	-11.2006
肆夏	-11.2007
而不以	-11.2008
而妄	-11.2009
安中國	-11.201
公出	-11.2011
未易	-11.2012
蔡穆	-11.2012
所以罪	-11.2013
人掌	-11.2014
諸子	-11.2014
為二	-11.2015
以攻	-11.2017
焉用之	-11.2018
已立	-11.2022
衆仲	-11.2023
祖也	-11.2024
爲于僞切	-11.2025
少皥	-11.2025
荷	-11.203
厠	-11.2031
于洮	-11.2032
亦謂	-11.2032
其行	-11.2032
遙	-11.2032
𫝊言	-11.2034
排	-11.2035
正義曰言	-11.2036
公在乾侯	-11.2037
之故而	-11.2038
而忘	-11.2038
蔡人殺陳佗	-11.2039
庶長	-11.204
懿子	-11.2041
食者	-11.2041
莫知	-11.2042
之志也	-11.2043
桓六年	-11.2044
之可	-11.2048
為世子	-11.2048
孫蒯	-11.2049
三者	-11.2051
以避	-11.2052
考證	-11.2053
同伐	-11.2053
于師	-11.2058
僖三十一年	-11.2058
將行	-11.2058
出疆	-11.206
北宮	-11.206
懼楚	-11.2062
辜	-11.2063
之哉	-11.2065
國之卿	-11.2065
其字	-11.2066
同圍齊	-11.2067
宣二年	-11.2067
以解	-11.2069
行即位之禮	-11.207
于向	-11.2071
將帥	-11.2071
六十里	-11.2072
故不名	-11.2072
何至	-11.2074
聘之	-11.2076
百六十	-11.2079
不譏	-11.208
君與	-11.208
芻	-11.2083
建國	-11.2085
說文	-11.2085
别封	-11.2085
鉞	-11.2085
▁傳	-11.2085
女樂	-11.2086
紀伯姬	-11.2087
矣或曰	-11.2088
以先	-11.2089
不違	-11.209
平王東遷	-11.2091
瑣澤	-11.2094
莒人滅鄫	-11.2094
朝楚	-11.2097
陜西	-11.2099
旦反	-11.2099
逃來	-11.21
澄	-11.2101
侵地	-11.2102
衛子	-11.2103
腹心	-11.2107
門人	-11.2107
也穀梁曰	-11.2108
也若夫	-11.2108
書楚子	-11.2111
少康	-11.2111
頽	-11.2115
襄二十七年	-11.2117
㑹于戚	-11.2118
尊天子	-11.212
朝桓	-11.2122
昭八年	-11.2126
哀八年	-11.2129
者歟	-11.213
滅下陽	-11.2135
之典	-11.2137
以見譏	-11.2138
取貨	-11.2138
君乎	-11.2139
豈復	-11.2139
䖏	-11.2139
正當	-11.214
氛	-11.2141
十人	-11.2141
郵	-11.2142
不書氏	-11.2142
安定	-11.2142
不再	-11.2143
董仲舒	-11.2143
握	-11.2144
巾	-11.2144
十五年春	-11.2144
君必	-11.2144
飢	-11.2144
盟不日	-11.2145
宋為	-11.2145
大伯	-11.2146
再伐	-11.2146
未終	-11.2149
孔奐	-11.215
當絶	-11.2152
數月	-11.2153
見止	-11.2154
又為	-11.2154
趙匡	-11.2155
以諸侯之師	-11.2155
諸侯之禮	-11.2155
逞其	-11.2156
渠丘	-11.2157
漷水	-11.2157
出奔而	-11.2157
主也	-11.2158
互相	-11.2159
敗楚師	-11.2159
武功	-11.2164
請討	-11.2165
稱名氏	-11.2165
而特	-11.2165
者吾	-11.2166
此理	-11.2166
11.	-11.2168
輅	-11.217
十一年春	-11.217
以謹	-11.2173
同母	-11.2174
許其	-11.2174
莒之	-11.2174
女為	-11.2176
得入	-11.2179
濟南	-11.2179
不念	-11.2182
商任	-11.2183
昭九年	-11.2185
於楚而	-11.2188
失之矣	-11.2188
没公	-11.2189
當討	-11.219
鮑叔	-11.2192
晉國之	-11.2196
書此	-11.2197
今改正	-11.2197
狄泉	-11.2199
臂	-11.2199
相傳	-11.2199
有過	-11.22
孔穎達	-11.22
定位	-11.2201
偹	-11.2201
異文	-11.2204
辨疑	-11.2206
善於	-11.2206
不憚	-11.2206
為之説	-11.2206
為説	-11.2208
終春秋	-11.2211
曾孫	-11.2212
封建	-11.2213
修怨	-11.2216
之恥	-11.2216
之至也	-11.2217
委曲	-11.2221
衛州吁	-11.2221
據事直書	-11.2222
皆當	-11.2224
絶句	-11.2225
惡惡	-11.2227
亡之	-11.223
辰陵	-11.2233
上士	-11.2234
而言之	-11.2234
聖筆	-11.2234
貳於	-11.2235
所受	-11.2243
莫大於	-11.2247
非矣	-11.2248
左傳春	-11.2249
晉語	-11.2249
圍戚	-11.2251
史書之	-11.2252
仲氏	-11.2253
今始	-11.2253
忠臣	-11.2253
事迹	-11.2253
澨	-11.2254
禳	-11.2254
韻	-11.2254
無以異	-11.2255
無文	-11.2256
得行	-11.2257
宫之竒	-11.2259
有何	-11.2259
霣	-11.226
伯州犂	-11.226
强盛	-11.2261
騁	-11.2261
輩	-11.2261
夫人至	-11.2262
德之	-11.2263
公子買	-11.2263
人之心	-11.2263
懷公	-11.2263
伐我西鄙	-11.2264
荆州	-11.2265
求成于	-11.2266
其處	-11.2266
從祀	-11.2268
陳無宇	-11.2271
諸侯朝	-11.2272
母弟也	-11.2273
郕伯	-11.2274
譏世卿	-11.2278
特書之	-11.2281
沂州	-11.2281
叔鞅	-11.2281
而懼	-11.2283
自文公	-11.2283
能使	-11.2284
逆王姬	-11.2285
新意	-11.2285
悉書	-11.2287
退師	-11.229
為不義	-11.2291
始霸	-11.2291
戰敗	-11.2293
之虚	-11.2294
故詳	-11.2297
君臣父子	-11.2297
强臣	-11.2299
乘其	-11.2299
逺國	-11.2299
言戰	-11.23
晉主夏盟	-11.23
而敗	-11.2301
失民	-11.2302
書於經	-11.2303
工尹	-11.2303
之謂乎	-11.2305
春秋不以	-11.2306
始通	-11.2306
取鄫	-11.2308
以幣	-11.2309
衛鄭	-11.231
園	-11.2311
齊欲	-11.2311
宫廟	-11.2311
主婚	-11.2311
蔓	-11.2312
以信	-11.2312
不月者	-11.2312
曹地	-11.2313
四分	-11.2313
哲	-11.2314
京兆	-11.2316
國卿	-11.2316
珠	-11.2317
書葬者	-11.2319
祝丘	-11.2319
徐音	-11.232
並同	-11.232
亡而	-11.2323
陳侯逃歸	-11.2324
墮費	-11.2327
於蔡	-11.2328
享國	-11.2328
季孫曰	-11.2328
境上	-11.2329
莊十六年	-11.233
與衛	-11.233
欲言	-11.233
亦明矣	-11.2334
同一	-11.2336
列序	-11.2338
無君也	-11.2339
奔魯	-11.234
其物	-11.234
下邳	-11.2341
太王	-11.2347
大閱	-11.2348
公子黄	-11.2348
所以重	-11.235
昭三年	-11.2351
襄二十三年	-11.2353
閔元年	-11.2355
注觧云	-11.2355
欲因	-11.2356
宣姜	-11.2357
服故	-11.2357
文十六年	-11.2358
五里	-11.2359
稱行人	-11.2359
也趙氏曰	-11.236
爵也	-11.236
求盟	-11.236
䝨	-11.2361
用夏正	-11.2365
國之大	-11.2368
複	-11.2368
朱方	-11.2369
忽之	-11.237
亳城北	-11.2371
秦穆公	-11.2371
沓	-11.2372
爼	-11.2372
概	-11.2373
夫人與	-11.2373
鄩	-11.2373
墻	-11.2374
以授	-11.2376
寗殖	-11.2378
信乎	-11.2378
如秦	-11.2379
貳於楚	-11.2379
以我	-11.238
高氏閌曰	-11.2382
晉荀林父	-11.2382
齊小白	-11.2382
胥甲	-11.2383
故云爾	-11.2383
范寗	-11.2383
以名見	-11.2386
漳	-11.2387
襄昭	-11.2387
豈特	-11.2389
之室	-11.239
于後	-11.239
中間	-11.2392
棣	-11.2393
之義矣	-11.2393
君無道	-11.2394
為例	-11.2398
矣書	-11.2398
僖二十五年	-11.2399
與吳	-11.24
于經	-11.24
恪	-11.2404
禍福	-11.2408
討陳	-11.241
自亡	-11.2411
者又	-11.2411
不誅	-11.2412
矣聖人	-11.2416
定十四年	-11.242
杞伯姬來	-11.242
史失之	-11.2421
石尚	-11.2422
蔿	-11.2422
必是	-11.2423
嘗為	-11.2424
冐	-11.2427
壁	-11.2427
伯者之	-11.2427
生民	-11.2428
塵	-11.2428
未必然	-11.2428
㝠	-11.243
則稱人	-11.2431
耳故	-11.2432
構	-11.2433
朝宿之邑	-11.2433
尹氏立王子朝	-11.2435
於郊	-11.2436
齊侯使其弟年來聘	-11.2439
責晉	-11.244
許男曹伯	-11.2443
請戰	-11.2445
以懲	-11.2445
文六年	-11.2445
死節	-11.2445
大節	-11.2446
往會	-11.2448
盛時	-11.2448
弗從	-11.2449
可與	-11.245
不及此	-11.2452
入滑	-11.2453
邾儀父	-11.2455
所恃	-11.2456
楚武王	-11.2456
暴横	-11.2457
有兩	-11.2457
之功也	-11.2459
非春秋	-11.2459
守節	-11.2463
十有五年春	-11.2463
荀呉	-11.2463
言次	-11.2467
再㑹	-11.2471
曰爾	-11.2475
殺而	-11.2475
此何	-11.2477
而擅	-11.2477
文三年	-11.248
伐其國	-11.248
醴	-11.2483
斧	-11.2484
「	-11.2484
值	-11.2485
出則	-11.2486
而返	-11.2486
礿	-11.2486
旌旗	-11.2487
濕	-11.2487
採	-11.249
靣	-11.2491
餘子	-11.2494
楚使	-11.25
落姑	-11.25
帝王	-11.2503
侵晉	-11.2504
于郊	-11.2509
之國也	-11.2509
以示譏	-11.251
也不然	-11.251
世孫	-11.2511
傳聞	-11.2512
慶克	-11.2513
莊二	-11.2516
桓僖	-11.2521
從告	-11.2522
問諸	-11.2522
論其	-11.2522
此舉	-11.2526
於社	-11.2533
嚚	-11.2533
4	-11.2534
縣治	-11.2536
大祭	-11.2539
咨	-11.254
于申	-11.2541
犒	-11.2541
幄	-11.2541
奔亡	-11.2542
以朝	-11.2544
與經	-11.2545
棐	-11.2545
踰竟	-11.2545
詣	-11.2546
祏	-11.2546
䑕	-11.2547
假之	-11.2547
訊	-11.2547
大夫卒	-11.2547
邉	-11.2547
𦵏我小君	-11.2548
後期	-11.2552
存耕趙氏曰	-11.2554
鳥獸	-11.2554
定十	-11.2557
失地之君	-11.2557
左司馬	-11.2557
年表	-11.2559
如鄭	-11.256
天子之大夫也	-11.256
於莒	-11.2561
且言	-11.2563
適齊	-11.2564
故稱人	-11.2568
示後世	-11.2568
其善	-11.2568
書於䇿	-11.257
齊惠	-11.2571
勝楚	-11.2572
既滅	-11.2572
夫子之	-11.2574
私事	-11.2576
諼	-11.2577
貶曷為貶	-11.2577
諸侯皆在	-11.2578
貞子	-11.2579
通好	-11.2584
將兵	-11.2586
皆然	-11.2587
而敗之	-11.2591
夫音扶	-11.2599
祐	-11.2602
邶	-11.2602
簡牘	-11.2602
求車	-11.2604
隸	-11.2606
猜	-11.2607
殃	-11.2607
拂	-11.2607
祇	-11.2607
書戰	-11.2607
仁者	-11.2608
書法如此	-11.2608
諸侯不生名	-11.2608
朽	-11.2609
釋經	-11.2609
不去其官	-11.261
也其後	-11.2612
狄滅	-11.2613
列於諸侯	-11.2615
其手	-11.2616
中外	-11.2617
不祀	-11.2617
孫子	-11.2619
義與	-11.2619
其非	-11.262
之時而	-11.262
再舉	-11.262
之精	-11.262
百三十	-11.2621
救晉	-11.2629
諸大夫皆	-11.2629
所自	-11.263
大衍	-11.263
入邾	-11.2632
僖九年	-11.2632
以臣	-11.2633
以病	-11.2636
系	-11.2639
大原	-11.2643
恐懼	-11.2645
晉頃	-11.2646
楚昭	-11.2646
合諸侯而	-11.2648
二伯	-11.2649
其宫	-11.265
死焉	-11.2651
常例	-11.2651
亂世	-11.2654
取邾田	-11.2654
一命	-11.2654
知其非	-11.2656
烝嘗	-11.2656
之遇	-11.2656
明德	-11.2658
何以不稱使	-11.2659
奐	-11.266
大行人	-11.266
瓦屋	-11.2661
宋盟	-11.2661
吕反	-11.2662
扼	-11.2662
駢	-11.2662
宦	-11.2663
緦	-11.2663
弧	-11.2664
命于天子	-11.2664
佳	-11.2665
乎又曰	-11.2666
那	-11.2667
何氏云	-11.2668
春秋之始	-11.2669
欒書中行偃	-11.2669
忠也	-11.267
白羽	-11.2671
追命	-11.2671
會葬	-11.2672
衞侯鄭伯曹伯	-11.2674
髙國	-11.2674
君父之	-11.2674
𨼆	-11.2674
齊侯曰	-11.2675
而南	-11.2675
猶為	-11.2676
其生	-11.2676
魯鄭	-11.268
宋元公	-11.268
襄元年	-11.2682
以討賊	-11.2682
於晉也	-11.2683
昭二十二年	-11.2686
今魯	-11.2686
卜偃	-11.2688
寫	-11.2688
者實	-11.2694
非其時	-11.2697
圍衛	-11.2698
私欲	-11.2699
曰古者	-11.2702
晉不能	-11.2703
明白	-11.2704
二説	-11.2706
哀四年	-11.2708
11.1	-11.2709
之以禮	-11.271
南燕	-11.2712
請王命	-11.2713
凡此皆	-11.2713
特書曰	-11.2713
重發	-11.2714
執諸侯	-11.2714
陳恒	-11.2714
義之	-11.2715
華定	-11.2717
著於	-11.2719
之臣子	-11.272
大罪	-11.272
住	-11.272
廖	-11.272
疾病	-11.2723
犨	-11.2724
茅堂胡氏曰	-11.2725
遂謂	-11.2727
不同故	-11.2728
儕	-11.2728
討有罪	-11.2729
入于王城	-11.2729
躋僖公	-11.2729
潤	-11.2729
貜且	-11.2731
于上	-11.2733
而滅	-11.2734
益師	-11.2737
羮	-11.2739
晉故也	-11.274
又欲	-11.2741
僭禮	-11.2742
之兄	-11.2744
經言	-11.2745
何異	-11.2747
書師	-11.2749
分之	-11.2752
聽其	-11.2752
成十三年	-11.2755
莫有	-11.2757
荘王	-11.2759
列反	-11.276
後嗣	-11.2762
强國	-11.2762
拒父	-11.2767
壬夫	-11.2768
不足信	-11.277
六羽	-11.277
陳大夫	-11.2773
有言曰	-11.2774
愷	-11.2775
襄十九年	-11.2775
莊伯	-11.2775
曹邾	-11.2779
殪	-11.2779
秀	-11.2782
外災	-11.2783
隅	-11.2784
加以	-11.2786
鼠	-11.2787
夜中	-11.2788
寪氏	-11.2788
則宜	-11.2789
見賢	-11.279
伐戴	-11.2791
以者不以者也	-11.2791
背楚	-11.2792
罪大矣	-11.2793
自陳	-11.2794
未立	-11.2794
四不視朔	-11.2795
之害	-11.2798
下言	-11.2799
草木	-11.28
秋九月大雩	-11.2803
莒邾	-11.2804
叔術	-11.2804
某人	-11.2812
哀十三年	-11.2814
書𦵏	-11.2814
故欲	-11.2815
多有	-11.2818
交譏之	-11.2819
方睦	-11.282
之兆	-11.2821
繆公	-11.2822
蝝	-11.2824
進之也	-11.2826
不同者	-11.2829
非大夫	-11.2833
四方之	-11.2835
濟隂	-11.2836
奉王命	-11.2837
成二	-11.284
甚矣故	-11.284
聖人之心	-11.2844
明非	-11.2844
藐	-11.2845
蠶	-11.2845
正義云	-11.2845
宣三年	-11.2846
氏之族	-11.2846
劉歆	-11.2848
前事	-11.2849
臧宣叔	-11.2849
立其子	-11.2849
黨氏	-11.2849
邾人伐我南鄙	-11.2851
不聴	-11.2852
記異	-11.2853
可勝	-11.2853
臨淄	-11.2854
此之謂也	-11.2857
屢盟	-11.2858
廵守	-11.286
告喪	-11.286
異于	-11.286
於呉	-11.2861
莒無大夫	-11.2865
國家之	-11.2866
沈尹	-11.2872
恵王	-11.2872
以拒	-11.2875
處之	-11.2877
煬公	-11.288
得罪于	-11.288
深入	-11.2881
父字	-11.2882
其害	-11.2885
執人	-11.2887
不動	-11.2888
無成	-11.289
稱子者	-11.2892
糓梁	-11.2892
小國也	-11.2896
不待貶而	-11.2896
而强	-11.2899
耆	-11.2899
求貨	-11.29
䜴	-11.29
亦所以	-11.2901
如此其	-11.2903
之大義	-11.2904
萇𢎞	-11.2905
王綱	-11.2905
算	-11.2906
弼	-11.2906
譟	-11.2906
莘老孫氏曰	-11.2908
慘	-11.2908
奚齊卓子	-11.2909
綂	-11.2909
江人黄人	-11.2909
含賵	-11.2909
不謹	-11.291
之貴	-11.291
所加	-11.2911
彤弓	-11.2911
取郠	-11.2911
火災	-11.2914
遣大夫	-11.2915
葬我君	-11.2918
謀王室	-11.2918
卽位	-11.292
不佞	-11.2921
勝而	-11.2922
因以為	-11.2922
縣陳	-11.2927
滅鄫	-11.2928
而特書	-11.2929
滕侯卒	-11.293
我則	-11.2931
改卜	-11.2931
往年	-11.2932
案此條	-11.2932
鄭穆	-11.2933
彫	-11.2933
亦未嘗	-11.2934
叔孫豹如晉	-11.2935
魯不㑹	-11.2937
寔來	-11.2941
舊説	-11.2942
昭十一年	-11.2943
居於	-11.2943
者可以	-11.2944
以道	-11.2944
出奔鄭	-11.2945
閼	-11.2945
武叔	-11.2945
有災	-11.2949
而代之	-11.2951
所致	-11.2952
發例	-11.2953
四卿	-11.2953
屬晉	-11.2954
晉雖	-11.2957
不亦宜乎	-11.2957
亹	-11.2957
無後	-11.2958
長歴	-11.2959
固無	-11.296
鄰國之	-11.2962
公子騑	-11.2962
子仲	-11.2962
自遷	-11.2962
南氏	-11.2964
靜	-11.2965
噐	-11.2966
戯	-11.2966
昵	-11.2968
鄾	-11.2969
衛文公	-11.2971
款	-11.2972
于鄫	-11.2972
尚在	-11.2973
嬴姓	-11.2974
也武夷胡氏傳	-11.2974
書于策	-11.2976
季孫行父如齊	-11.2976
謀於	-11.2977
志云	-11.2977
將命	-11.2977
踰月	-11.2979
也傳言	-11.2984
之罪著矣	-11.2989
不悛	-11.2991
公子圍	-11.2992
魯事	-11.2992
杞桓公	-11.2994
萃	-11.2994
氣也	-11.2996
二十有八年	-11.2998
不稱爵	-11.2999
諸姬	-11.3001
宋魚石	-11.3003
不治	-11.3004
申豐	-11.3004
若能	-11.3004
杜無傳	-11.3005
矣故曰	-11.3011
天王下	-11.3013
还	-11.3014
為諱	-11.3015
甚惡	-11.3018
吾聞	-11.302
僖八年	-11.3021
侯反	-11.3021
摯	-11.3022
專國	-11.3023
内邑	-11.3024
不得稱	-11.3025
與邾	-11.3026
見賢遍反	-11.3026
組	-11.3027
纍	-11.3027
漫	-11.3029
履緰	-11.303
畏之	-11.303
㑹晉師	-11.303
即世	-11.303
漁	-11.3031
得其所	-11.3032
不狃	-11.3032
刘炫云	-11.3033
㰱	-11.3034
襄五年	-11.3037
夏殷	-11.3039
古之制也	-11.3039
以戈	-11.3043
尚存	-11.3045
以夫人之禮	-11.3045
于夷儀	-11.3045
王宫	-11.3047
陽榖	-11.3048
因舊史	-11.3048
志乎	-11.3051
所忌	-11.3051
白公	-11.3053
有罪則	-11.3054
邢侯	-11.3054
惜乎	-11.3059
十一日	-11.306
凡此	-11.3065
詳録	-11.3066
郑伯	-11.3067
鞶	-11.3067
事神	-11.3067
貶絶	-11.3068
今山西	-11.3073
晉景公	-11.3073
衡雍	-11.3074
為此㑹	-11.3076
桓十四年	-11.3076
幅	-11.3077
之賦	-11.3077
獨言	-11.308
且以	-11.3081
誘殺	-11.3081
既卒	-11.3081
詢	-11.3082
頸	-11.3083
㦸	-11.3084
墠	-11.3084
自我	-11.3086
在我	-11.3086
躒	-11.3087
論者	-11.3087
夏商	-11.3087
乘車	-11.3087
歂	-11.3089
孟懿子	-11.309
入曹	-11.309
故魯	-11.3091
入其郛	-11.3091
故加	-11.3091
獲晉侯	-11.3092
蕭叔朝公	-11.3092
5.	-11.3093
梧	-11.3093
不告月	-11.3094
杜元凱	-11.3094
救災	-11.3095
箕鄭父	-11.3095
不預	-11.3097
何注据	-11.3097
萬世之	-11.3098
得衆	-11.3099
難矣	-11.3103
中士	-11.3103
舊有	-11.3105
秦桓	-11.3106
春秋之意	-11.3109
不書諱之也	-11.3113
斉侯	-11.3115
察其	-11.3116
修其	-11.3118
楚始	-11.3118
子餘	-11.3121
歸賵	-11.3122
蔡莊	-11.3122
不足與	-11.3122
井田	-11.3123
無父	-11.3123
動衆	-11.3124
廟見	-11.3126
朝㑹	-11.3127
制楚	-11.3127
衛獻公	-11.313
舉兵	-11.313
12.1	-11.3131
亂矣	-11.3133
築之	-11.3133
孟任	-11.3134
師曠	-11.3135
桓十一年	-11.3136
公會宋公	-11.3137
体	-11.314
為主而	-11.3141
為春	-11.3142
3.	-11.3143
不可從	-11.3145
杜預謂	-11.3145
霄	-11.3145
愚謂此	-11.3147
書不雨	-11.3147
監本	-11.3148
6	-11.3149
三軍之	-11.3152
舟師	-11.3153
翔	-11.3153
囊	-11.3153
為後世	-11.3154
申公巫臣	-11.3156
効	-11.3156
眷	-11.3156
歸寜	-11.3156
邲之戰	-11.3156
傳以為	-11.3157
為火	-11.3157
宋人圍曹	-11.3158
詩書	-11.3158
非公命	-11.3162
不協	-11.3164
子辛	-11.3167
宣九年	-11.3167
私相	-11.3167
渡河	-11.3167
三千	-11.3169
襄二十八年	-11.3173
逋逃	-11.3173
始至	-11.3173
歸于楚	-11.3174
公子光	-11.3174
有大功	-11.3176
又何以	-11.3177
不報	-11.3177
之道矣	-11.3178
王法所	-11.3179
鄫人	-11.318
陰陽	-11.3183
穀梁氏曰	-11.3185
之教	-11.3186
治國	-11.3186
吉祭	-11.3188
魯頌	-11.3189
引此	-11.3189
杜謂	-11.319
於戚	-11.319
内辭	-11.3191
襄二年	-11.3193
宗周	-11.3195
鄶	-11.3196
陳靈	-11.3198
所命	-11.3199
雖死	-11.3203
法當	-11.3205
餘見	-11.3206
且請	-11.3206
夫鍾	-11.3207
之性	-11.3207
告命	-11.321
禪	-11.3211
輪	-11.3212
諸人	-11.3212
亦知	-11.3214
截	-11.3214
禜	-11.3215
不言所	-11.3215
帖	-11.3215
殞	-11.3217
無宇	-11.3218
而已故	-11.3218
眞	-11.3219
狐突	-11.3221
是盟也	-11.3222
戍鄭虎牢	-11.3222
蜀杜氏曰	-11.3223
晉既	-11.3229
邾庶其	-11.323
罪已	-11.323
事大	-11.3231
襄十五年	-11.3233
曲為	-11.3234
例皆	-11.3236
公羊之説	-11.3237
公孫剽	-11.3238
滅蕭	-11.3241
之時也	-11.3241
不服也	-11.3242
之意故	-11.3244
齊邑	-11.3244
得歸	-11.3244
虢仲	-11.3245
為春秋	-11.3251
有難	-11.3252
至於此	-11.3254
納子糾	-11.3256
飲食	-11.3259
以歸者	-11.3261
宗族	-11.3262
有其地	-11.3262
實非	-11.3262
不請命	-11.3263
之柄	-11.3263
當先	-11.3266
無據	-11.3267
史文	-11.3267
其末	-11.3267
以偪	-11.3269
有功於	-11.3269
連年	-11.3271
襲鄭	-11.3272
而不知其	-11.3273
問罪	-11.3274
衢	-11.3275
閨	-11.3275
諸侯既	-11.3278
覘	-11.3279
他國之	-11.3279
秋齊侯	-11.3281
鉉翁	-11.3282
以圖	-11.3285
黄池之㑹	-11.3287
不卒戍	-11.3287
赤棘	-11.3287
欲其	-11.329
自大夫出	-11.329
此月	-11.3291
𤣥孫	-11.3291
夷也	-11.3295
喪至	-11.3296
告至	-11.3296
莊叔	-11.3299
公子友如齊	-11.3299
季桓子	-11.33
蔡公	-11.3302
入廟	-11.3303
以伐楚	-11.3311
不免於	-11.3317
僖子	-11.3318
也公羊傳曰	-11.3318
之惡也	-11.3318
諾	-11.332
國討	-11.3321
之謀也	-11.3324
八十	-11.3326
專權	-11.3326
齊女	-11.3327
兒	-11.3328
賜命	-11.3329
由是觀之	-11.3329
十二年春	-11.333
尚可	-11.333
隠二年	-11.333
五榖	-11.333
所繫	-11.3331
繼事	-11.3333
一卿	-11.3336
畚	-11.3336
武王克商	-11.3336
朋	-11.3337
桓無王	-11.3338
䑓	-11.3338
濁	-11.3338
盡也	-11.3341
梅	-11.3342
十二國	-11.3342
奇	-11.3342
朞	-11.3342
趙企明	-11.3343
遷都	-11.3344
故不復	-11.3344
鄭子産	-11.3344
十三日	-11.3345
無親	-11.3346
故不曰	-11.3346
力不能	-11.3346
其祀	-11.3347
莒人伐我東鄙	-11.3347
胡文定	-11.3348
山名	-11.3349
世官	-11.3351
中國無伯	-11.3351
國風	-11.3352
仲雍	-11.3352
則以為	-11.3352
.9	-11.3355
可取	-11.3356
記之	-11.3356
度也	-11.3357
者以為	-11.3357
今既	-11.3357
公將	-11.3358
是也若	-11.3361
弗聴	-11.3363
故謹而日之	-11.3363
知罃	-11.3364
見賢徧反	-11.3365
行朝禮	-11.3366
風雨	-11.3367
畀我	-11.3368
否則	-11.3368
十八日	-11.3368
有定	-11.337
不敏	-11.3373
宣成	-11.3373
于鍾離	-11.3373
甚於	-11.3374
而不改	-11.3374
書首月	-11.3377
畿内諸侯	-11.3379
得專	-11.3379
加兵于	-11.3385
或是	-11.3387
以定其位	-11.3387
美惡	-11.3391
城陽	-11.3392
為伯討	-11.3392
冉有	-11.3392
首月	-11.3392
在河南	-11.3393
為患	-11.3395
之謂矣	-11.3397
独	-11.3398
于郎	-11.3398
無能	-11.3398
取田	-11.3398
為大子	-11.3398
以為非	-11.3399
以力	-11.3399
惑於	-11.3399
啖	-11.34
十餘	-11.3401
匹夫之	-11.3402
不數	-11.3404
則嫌	-11.3404
黙	-11.3405
句踐	-11.3408
得雨	-11.3408
附庸國	-11.3408
為中國患	-11.341
華耦	-11.3411
趙旃	-11.3411
曰朝	-11.3413
後㑹	-11.3415
蓋有	-11.3417
結怨	-11.3417
為後世戒	-11.3417
屢書	-11.3421
孔子作春秋	-11.3422
深責	-11.3423
聽於	-11.3423
十六日	-11.3423
咸丘	-11.3425
乎哉	-11.3426
幼弱	-11.3427
高氏	-11.3428
四世	-11.3428
為功	-11.3428
戰伐	-11.3432
改正	-11.3434
厥後	-11.3434
不書伐	-11.3435
屬楚	-11.3436
其亡乎	-11.3437
盜賊	-11.3437
鄭伯如晉	-11.3438
為已	-11.344
濟河	-11.3441
能討	-11.3443
不為災	-11.3444
私交	-11.3445
國夏	-11.3447
欲速	-11.3447
僖二十六年	-11.345
既得	-11.345
以卿	-11.3451
常在	-11.3451
以紓	-11.3452
非義也	-11.3453
未免	-11.3453
及楚	-11.3454
卑而	-11.3454
亦多	-11.3454
夫人薨	-11.3455
歸田	-11.3456
黻	-11.3457
乎然	-11.3457
桓八年	-11.3458
之象也	-11.3458
居正	-11.3461
聖人之所	-11.3462
人理	-11.3462
珪	-11.3462
公問	-11.3464
聽政	-11.3464
不可與	-11.3465
祓	-11.3466
袲	-11.3466
耏	-11.3468
而逐之	-11.3469
耳今	-11.3469
無寵	-11.347
注疏卷	-11.3473
邢遷于夷儀	-11.3477
履霜	-11.3478
事勢	-11.348
公羊氏曰	-11.348
是以春秋	-11.3481
不更	-11.3481
一閏	-11.3483
城是也	-11.3484
牟夷	-11.3484
不穀	-11.3485
單伯如齊	-11.3487
以詐	-11.3488
杜注在	-11.3489
欲殺之	-11.349
小國之君	-11.3491
相為	-11.3494
遂奔齊	-11.3496
文十年	-11.3496
而徃	-11.35
將若之何	-11.3501
為介	-11.3502
不視朔	-11.3504
嘗有	-11.3505
三十七	-11.3508
自强	-11.3508
不書地	-11.3508
而無所	-11.3509
▁張氏洽曰	-11.351
必不然	-11.351
䘮而	-11.3511
齊侯將	-11.3512
自後	-11.3513
守備	-11.3521
垂法	-11.3521
變為	-11.3522
為齊所	-11.3524
實以	-11.3525
築城	-11.3526
兵威	-11.3526
南季	-11.3526
晳	-11.3526
子猶	-11.3527
騶	-11.3528
𤣥枵	-11.3528
穢	-11.3528
彤	-11.3529
堙	-11.353
蓋亦	-11.3532
从	-11.3532
卧	-11.3532
胥臣	-11.3533
齊小白入于齊	-11.3533
書公及	-11.3534
控	-11.3534
閏十二月	-11.3536
隕石	-11.3537
仲佗石彄	-11.354
冉求	-11.354
齊秦	-11.3541
晉欒盈	-11.3541
九族	-11.3541
終身不	-11.3542
春秋傳卷	-11.3544
杜元凱曰	-11.3544
秦伯伐晉	-11.3545
蠻氏	-11.3548
叔弓如晉	-11.3548
府治	-11.3552
郊祀	-11.3554
君位	-11.3556
則似	-11.3557
陳人蔡人	-11.3559
嵗星	-11.3559
其義也	-11.3561
衰微	-11.3561
叛之	-11.3562
王不稱天	-11.3562
平陽府	-11.3564
為之歌	-11.3565
㣲弱	-11.3569
説見	-11.3575
之属	-11.3576
于鄢	-11.3576
何患	-11.3577
佾	-11.358
稟	-11.3581
叔孫舍	-11.3582
之失也	-11.3582
顧命	-11.3584
在䘮	-11.3587
討衛	-11.3588
戚之㑹	-11.3591
書公子	-11.3591
第一	-11.3592
二師	-11.3592
狃	-11.3593
秋螽	-11.3593
不當書	-11.3593
迁	-11.3594
大雅	-11.3594
姞	-11.3594
大事也	-11.3596
觀之則	-11.3597
山西	-11.3599
三國之師	-11.3599
叔仲惠伯	-11.3599
乎蓋	-11.3599
十有二年春	-11.3599
禮文	-11.36
楚子囊	-11.3601
聲其罪	-11.3601
伊戾	-11.3602
所無	-11.3602
去樂卒事	-11.3603
祖考	-11.3604
集傳	-11.3604
其辠	-11.3605
公子燮	-11.3605
謹之也	-11.3606
病楚	-11.3606
非禮矣	-11.361
親往	-11.3612
昭十七年	-11.3614
得政	-11.3615
宰孔	-11.3617
夏書	-11.3617
在殯	-11.3623
莊二十三年	-11.3623
為無道	-11.3625
也曷爲	-11.3626
畧之也	-11.3626
其君臣	-11.3626
親行	-11.3628
軍帥	-11.3628
正終	-11.3631
世有	-11.3634
以啓	-11.3634
比事以觀	-11.3634
不可考	-11.3635
一段	-11.3635
都邑	-11.3636
戴氏	-11.3638
存乎	-11.3638
火正	-11.3639
之䇿	-11.364
夫婦之	-11.364
之形	-11.3649
驅之	-11.3651
戒之	-11.3651
狄師	-11.3651
土田	-11.3651
二十九日	-11.3652
愛民	-11.3652
帰	-11.3653
仲冬	-11.3654
叔段	-11.3654
用此	-11.3656
若言	-11.3657
自明	-11.3658
愍	-11.3659
䏻	-11.366
宣七年	-11.3662
無終	-11.3662
杞侯	-11.3664
宰渠伯糾	-11.3664
悅	-11.3664
襄九年	-11.3664
贅	-11.3665
直以	-11.3665
本文	-11.3666
及晉侯盟	-11.3666
不類	-11.3667
夫人姜氏歸于齊	-11.3668
倪	-11.3668
宋人遷宿	-11.367
亦足	-11.3671
7	-11.3672
曲棘	-11.3674
之忠	-11.3675
矣故春秋	-11.3675
蔡侯般	-11.3676
宗伯	-11.3676
納突	-11.3677
二十有四年	-11.3677
圍曹	-11.3678
百工	-11.3679
之言而	-11.368
之亂也	-11.3682
巡守	-11.3683
又按	-11.3683
宋公衛侯	-11.3685
衞獻	-11.3686
葉氏	-11.3686
陵弱	-11.3689
取汶陽田	-11.3689
䘮服	-11.3689
九國	-11.3691
鄭穆公	-11.3691
伐厲	-11.3695
于乾谿	-11.3697
亦不敢	-11.3697
書之以見	-11.3698
伐我北鄙	-11.3699
慢也	-11.3699
陜	-11.3702
平也	-11.3703
越國	-11.3704
傳寫	-11.3704
忘親	-11.3705
以為常	-11.3706
晉侯伐秦	-11.3706
所敗	-11.3706
而不及	-11.3712
二十有九年	-11.3712
微辭	-11.3712
成列	-11.3715
稱公者	-11.3715
制作	-11.3716
於太廟	-11.3718
范中行	-11.3719
緇	-11.3721
即以	-11.3722
復扶又切	-11.3723
立武宫	-11.3724
耿	-11.3725
晉侯將	-11.3725
織	-11.3726
僖二十三年	-11.3726
燒	-11.3726
岡	-11.3729
抶	-11.3729
欽	-11.373
以誘	-11.3733
主王姬	-11.3733
復興	-11.3734
王氏經世	-11.3734
枕	-11.3734
沈尹戌	-11.3734
不厭	-11.3736
將戰	-11.3736
啓之	-11.3737
下皆同	-11.3738
諸戎	-11.3739
陸氏纂例	-11.3739
未詳信否	-11.3741
之手	-11.3742
賊臣	-11.3744
昭二十年	-11.3748
九州之	-11.3752
三恪	-11.3752
以證	-11.3753
亡國之	-11.3754
以成其	-11.3754
十有一	-11.3756
而不在	-11.3759
于召陵	-11.376
㑹其葬	-11.376
書帥師	-11.3763
之驗	-11.3764
莊姬	-11.3764
僖十九年	-11.3765
以與之	-11.3767
歸齊	-11.3769
在周	-11.3772
東南有	-11.3772
2.	-11.3772
正其本	-11.3774
史墨	-11.3775
前有	-11.3775
中興	-11.3777
成十年	-11.3779
後儒	-11.3785
殺州吁	-11.3785
不稱天	-11.3786
西狩獲麟	-11.3789
曹劌	-11.3792
豳	-11.3792
岱	-11.3792
誨	-11.3792
腆	-11.3792
誄	-11.3793
三代之	-11.3793
膠	-11.3793
彌牟	-11.3793
衣裳	-11.3793
慙	-11.3796
逭	-11.3796
沙鹿崩	-11.3797
淪	-11.3797
帥師㑹	-11.3797
繡	-11.3801
何氏休曰	-11.3804
而滅之	-11.3805
有時而	-11.3808
過宋	-11.3809
君母	-11.381
童子	-11.3811
仇讐	-11.3811
亦可謂	-11.3811
齊髙固	-11.3812
歴反	-11.3814
其變	-11.3817
之險	-11.3818
出聘	-11.3821
成公卒	-11.3822
而進之	-11.3822
附庸之君	-11.3823
三駕	-11.3824
不奔	-11.3824
請諡	-11.3825
除之	-11.3825
封於	-11.3832
五帝	-11.3838
邾滕	-11.384
既没	-11.3841
五年春王正月	-11.3841
7.	-11.3841
及郊	-11.3843
三統	-11.3844
易世	-11.3844
死社稷	-11.3844
則止	-11.3846
以罪之	-11.3847
為重也	-11.3849
稷門	-11.3851
曰吾聞	-11.3851
恒稱	-11.3853
大敗之	-11.3857
康誥	-11.3858
勾踐	-11.3858
史闕文	-11.386
惡烏	-11.386
障	-11.386
覩	-11.3861
歸于齊	-11.3861
不書其人	-11.3862
囘	-11.3862
永嘉吕氏曰	-11.3862
以求成	-11.3864
公如晉次于乾侯	-11.3866
再拜稽首	-11.3866
乍	-11.3867
姑姊妹	-11.3868
這	-11.3869
皆貶	-11.387
鐘鼓	-11.387
子車	-11.387
翟泉之盟	-11.3871
爲文	-11.3873
晉方	-11.3874
通乎	-11.3875
詳書	-11.3875
狄侵衛	-11.3875
已去	-11.3877
自歸	-11.3877
其母弟	-11.3878
賊殺	-11.3878
狄救齊	-11.3878
二十有七年春	-11.388
五卜	-11.388
故經書	-11.3881
師少	-11.3882
次第	-11.389
正同	-11.3892
邾文公	-11.3894
之稱也	-11.3897
而生	-11.3897
北郭	-11.3897
蕭叔	-11.3898
師旅	-11.3898
祖母	-11.3899
奪正	-11.3899
入于齊	-11.3902
老矣	-11.3903
平日	-11.3904
墮成	-11.3906
宋南里	-11.3908
黜之	-11.3908
刘炫	-11.3909
一身	-11.391
同括	-11.3911
序諸侯	-11.3915
以著其惡	-11.3915
不敗	-11.3918
則知其	-11.3918
何害	-11.392
譏何譏爾	-11.3921
若使	-11.3922
駘	-11.3922
結反	-11.3922
而後有	-11.3922
非卿也	-11.3923
羸	-11.3923
惎	-11.3923
拾	-11.3923
弘	-11.3925
下卿	-11.3926
尼	-11.3927
雲夢	-11.3927
不發	-11.3928
介葛盧來	-11.3928
淄	-11.3929
為人君	-11.3929
裏	-11.393
之聲	-11.3932
㛰	-11.3933
于門	-11.3934
所重	-11.3934
劉康公	-11.3935
一乗	-11.3936
莊四年	-11.3938
疇	-11.3939
司㓂	-11.3939
三日哭	-11.394
文義	-11.3943
江漢	-11.3944
降服	-11.3946
嘉其	-11.3946
孟獻子曰	-11.3946
亦可知矣	-11.3946
同力	-11.3946
昭十五年	-11.3947
對曰君	-11.3949
與之同	-11.395
至遇	-11.3951
丑父	-11.3952
為信	-11.3952
而城之	-11.3955
所以責	-11.3956
官失之	-11.3956
亦豈	-11.396
皆死	-11.3961
東宫	-11.3963
王肅	-11.3963
自責	-11.3963
哉然	-11.3964
又㑹	-11.3967
為衛	-11.3968
首止之盟	-11.3968
屬鄫	-11.397
為不道	-11.397
僖三十年	-11.3971
用鄫子	-11.3973
無義例	-11.3973
二大夫	-11.3975
衞之	-11.3976
孫于齊	-11.3977
爱	-11.3981
目之	-11.3982
女嫁	-11.3983
之君也	-11.3984
斟	-11.3985
『	-11.3985
号	-11.3986
以成宋亂	-11.3987
稱女	-11.3987
鶉	-11.3988
父在	-11.3988
瞽	-11.3989
櫬	-11.3991
菜	-11.3992
周廟	-11.3992
子家子曰	-11.3992
犁	-11.3995
汚	-11.3995
琅邪	-11.3995
楚靈王	-11.3996
浦	-11.3996
奴	-11.3997
君子是以知	-11.3997
綿	-11.3998
炭	-11.3999
軍中	-11.4
盧蒲嫳	-11.4
所不容	-11.4
狐射姑	-11.4004
黎侯	-11.4008
官師	-11.4008
稱盜	-11.4008
之期	-11.4009
魏子	-11.401
伍舉	-11.401
江陵	-11.4011
趙陽	-11.4013
及其大夫	-11.4013
不稱子	-11.4013
宋皇瑗	-11.4013
無能為	-11.4014
垂訓	-11.4015
㑹伐鄭	-11.4015
衞孫林父	-11.4015
猶繹	-11.4017
夫家	-11.4021
於宗廟	-11.4021
有德	-11.4021
春秋二百四十二年	-11.4024
於列國	-11.4024
於王室	-11.4024
不戰	-11.4025
使召伯	-11.4025
為證	-11.4027
子家子	-11.4028
凡此類	-11.4028
鄭聲	-11.403
以警	-11.4032
扶又	-11.4036
靖公	-11.4039
此禮	-11.4039
長幼	-11.404
彊弱	-11.4044
喪師	-11.4044
二十六日	-11.4044
終事	-11.4044
疑于	-11.4046
無窮	-11.4047
之類也	-11.4048
為謀	-11.4049
檮杌	-11.4053
不異	-11.4055
乘馬	-11.4055
未改	-11.406
苫	-11.406
沐	-11.406
禀命	-11.4061
柱	-11.4061
親也	-11.4062
不能修	-11.4064
珍	-11.4064
後魏	-11.4064
牂	-11.4065
何邪	-11.4066
介葛盧	-11.4066
雍榆	-11.4067
洙	-11.4067
盗殺	-11.4067
先且居	-11.4068
者衆矣	-11.4068
冇	-11.4068
空言	-11.407
突歸于鄭	-11.407
五聲	-11.407
亦應	-11.407
時月	-11.4071
建丑	-11.4072
孔逹	-11.4074
孫文子	-11.4074
爲國	-11.4075
納頓子	-11.4077
立煬宫	-11.4077
者獨	-11.4078
矣曷為	-11.4079
成五年	-11.4079
二氏	-11.408
宋人殺其大夫	-11.4081
筆之	-11.4081
祝宗	-11.4082
襃之	-11.4082
洮之盟	-11.4084
春秋天子之事	-11.4084
興作	-11.4086
莊二十	-11.4087
郊勞	-11.4087
入河	-11.4087
立義	-11.4089
斯言	-11.4092
夫人姜氏如齊	-11.4094
討鄭	-11.4094
大夫不名	-11.4096
祭法	-11.4096
鄭厲公	-11.4099
五千	-11.4104
還自	-11.4104
内事	-11.4105
莅盟	-11.4105
大合諸侯	-11.4108
次者	-11.4115
廪	-11.4116
先君之命	-11.4119
穀梁作	-11.412
必將	-11.4122
鬪	-11.4122
公子鮑	-11.4123
不稱名	-11.4123
正義曰周禮	-11.4123
常事也	-11.4124
之機	-11.4126
安危	-11.4126
專命	-11.4127
名號	-11.4131
噬	-11.4132
惻	-11.4132
膰	-11.4133
滌	-11.4133
孰大焉	-11.4134
淑	-11.4135
熄	-11.4135
承筐	-11.4137
定其位	-11.4137
不稱行人	-11.4137
窒	-11.4138
劉氏意林	-11.4139
在蔡	-11.414
不期而	-11.4143
不吉則	-11.4147
雒戎	-11.4148
何知	-11.4151
附左傳	-11.4154
以興	-11.4154
非一日	-11.4154
竊取	-11.4154
接我	-11.4155
稱國以	-11.4155
稱使	-11.4156
僖王	-11.4157
次陘	-11.4157
大宗	-11.4158
不書歸	-11.4159
大鹵	-11.416
不臣也	-11.4161
遂從	-11.4162
二十有六年	-11.4163
周卿士	-11.4163
改正朔	-11.4164
于濮	-11.4165
左氏之説	-11.4167
十有三	-11.4167
商丘	-11.4168
晉惠	-11.4171
致命	-11.4176
也釋例曰	-11.4179
梁丘	-11.4181
鄭伐許	-11.4184
之謬	-11.4187
懼齊	-11.4187
子革	-11.4188
把伯姬	-11.4188
失國也	-11.4189
服虔	-11.4189
于稷	-11.4189
經營	-11.4192
不能行	-11.4192
自敗	-11.4196
南至	-11.4197
十七年春	-11.4197
昭明	-11.4199
之恥也	-11.4199
於晉而	-11.42
當世	-11.42
廧咎如	-11.4201
𤯝	-11.4202
曼姑	-11.4202
跛	-11.4202
陸渾之戎	-11.4204
行夏之時	-11.4205
于鄄	-11.4205
荆人來聘	-11.4205
杜厯	-11.4206
星隕如雨	-11.4208
誕	-11.4208
大意	-11.4209
陸氏淳曰	-11.421
羣舒	-11.4212
齊侯鄭伯	-11.4212
褚師	-11.4212
墮郈	-11.4212
隂縣	-11.4214
則月	-11.4215
楚圍	-11.4216
史書	-11.4218
城濮之	-11.4219
蕩氏	-11.422
待放	-11.4221
襄二十四年	-11.4221
相對	-11.4221
澄按	-11.4221
衛侯鄭伯	-11.4223
終春秋之世	-11.4225
延陵	-11.4227
不能服	-11.4228
稱公孫	-11.4229
將何以	-11.4229
僖十年	-11.423
與之言	-11.4234
賂之	-11.4234
即古	-11.4234
哀十四年	-11.4241
無求	-11.4241
可責	-11.4244
十有五年春王正月	-11.4244
鄸	-11.4246
南遺	-11.4246
修德	-11.4247
劉炫云	-11.4247
十有九年	-11.4248
始禍	-11.4249
大之也	-11.425
千載	-11.425
無過	-11.4254
不足為	-11.4255
外援	-11.4256
仗	-11.4256
賴之	-11.4256
仍叔	-11.4257
失節	-11.4259
文四年	-11.426
此即	-11.4262
既敗	-11.4262
改作	-11.4262
孫于邾	-11.4263
莊九年	-11.4264
陳靈公	-11.4264
㝎	-11.4266
燬	-11.4266
之諸侯也	-11.4267
版	-11.4267
牼	-11.4268
公孟彄	-11.4269
殛	-11.4269
鶴	-11.4269
浚	-11.427
偏戰	-11.427
枉	-11.4271
紼	-11.4271
鬻拳	-11.4272
未得志	-11.4272
凟	-11.4273
不早	-11.4275
用夷禮	-11.4275
毁泉臺	-11.4275
王札子	-11.4275
立廟	-11.4277
齊昭	-11.4278
展氏	-11.4278
神農	-11.4278
叔孫得臣如京師	-11.4278
執宋公以伐宋	-11.4278
馘	-11.4278
嘻	-11.428
斬衰	-11.4285
犬戎	-11.4289
伯姬歸	-11.429
大體	-11.4291
為說	-11.4291
唯君	-11.4291
國本	-11.4294
公孫蠆	-11.4297
三族	-11.4301
七里	-11.4303
月數	-11.4303
弑閔公	-11.4304
而義自見	-11.4304
大野	-11.4304
十七日	-11.4306
伐沈	-11.4306
不能復	-11.4307
之不暇	-11.4308
安靖	-11.4308
所欲也	-11.4311
晉厲公	-11.4311
蠻子	-11.4312
國之衆	-11.4312
之賊也	-11.4312
失刑	-11.4313
議論	-11.4315
辱也	-11.4316
一本作	-11.4318
同姓也	-11.4319
邾子益	-11.4323
臧孫許	-11.4326
因魯史	-11.4327
趙宣子	-11.4332
曹文	-11.4335
彛	-11.4336
濱	-11.4337
賈氏	-11.4338
提	-11.4338
朝吳	-11.434
改易	-11.434
枝江	-11.434
玦	-11.4341
電	-11.4341
不平	-11.4342
冬楚子	-11.4342
斵	-11.4343
譜云	-11.4344
楚敗	-11.4345
9	-11.4346
忠於	-11.4347
而亟	-11.4348
有二義	-11.4348
武氏子來求賻	-11.4348
寶玉大弓	-11.4349
始末	-11.4352
武帝	-11.4353
五父	-11.4354
奔衞	-11.4356
陵縣	-11.4357
公也在位	-11.4358
而後能	-11.4358
平宋亂	-11.436
婁林	-11.436
隠四年	-11.436
絶筆	-11.4365
為之服	-11.4365
自知	-11.4366
惠后	-11.4367
為中國諱	-11.4368
吳王	-11.4369
晉欒書	-11.4372
悛	-11.4373
皆非禮也	-11.4378
弑二君	-11.4379
免于	-11.4384
六畜	-11.4385
梓慎	-11.4389
入櫟	-11.4389
秦康	-11.439
旣葬	-11.4391
忘君	-11.4392
徐人	-11.4399
飱	-11.4402
唐虞	-11.4403
洞	-11.4405
燎	-11.4406
玉藻	-11.4406
湛	-11.4409
敢告	-11.441
喪歸	-11.4411
於越入吳	-11.4411
宜立	-11.4411
為君者	-11.4412
騎	-11.4413
先代之後	-11.4413
解云欲言	-11.4414
何以書記災也	-11.4415
凝	-11.4415
齮	-11.4415
兇	-11.4416
聲罪致討	-11.4416
黼	-11.4417
也葉子曰	-11.4417
緫	-11.4417
任之	-11.4418
乗馬	-11.4419
城緣陵	-11.442
要言	-11.4421
杞叔姬	-11.4424
葵丘之㑹	-11.4427
蔡鄭	-11.4427
桓元年	-11.4428
葵丘之盟	-11.4428
遭喪	-11.4431
某國	-11.4431
執衛侯	-11.4433
説文云	-11.4433
烏得	-11.4435
一役	-11.4436
象魏	-11.4445
安用	-11.4447
將焉用之	-11.4449
寺	-11.445
勉之	-11.4452
則異	-11.4453
之狀	-11.4454
後日	-11.4458
髙下	-11.4458
曹宣公	-11.446
夏書曰	-11.4463
誤耳	-11.4465
異其文	-11.447
来告	-11.4471
不稱氏	-11.4472
長丁丈反	-11.4472
尨	-11.4472
陳公子招	-11.4474
舊制	-11.4475
正陽之月	-11.4475
正法	-11.4476
徽	-11.4477
游吉	-11.4477
並見	-11.4477
公子申	-11.4478
皁	-11.4478
顓	-11.4479
膝	-11.4479
脯	-11.4479
而擊之	-11.4479
丕	-11.4479
使世子	-11.4482
思之	-11.4482
公山不狃	-11.4483
饒	-11.4483
盡力	-11.4484
寖	-11.4484
廵狩	-11.4485
倖	-11.4485
渚	-11.4485
欲討	-11.4485
逆婦姜于齊	-11.4486
然後書	-11.4486
泮	-11.4486
栢舉	-11.4487
註云	-11.4488
于平丘	-11.4489
劉敞	-11.449
淳聞於師曰	-11.449
見魯之	-11.4493
又甚焉	-11.4494
制禮	-11.4495
中立	-11.4495
舊矣	-11.4497
薨葬	-11.4499
申叔時	-11.4501
宜乎	-11.4507
以求諸侯	-11.4511
不榖	-11.4512
以見之	-11.4515
不論	-11.4522
歸獄	-11.4522
幾何	-11.4523
親盡	-11.4524
境外	-11.4525
僖二十一年	-11.4525
者何也曰	-11.4526
未暇	-11.4528
荆人	-11.4531
四卜	-11.4531
外事	-11.4534
公羊以謂	-11.4536
迫於	-11.4537
是役也	-11.4538
不濟	-11.4538
晉悼之	-11.454
亦不知	-11.4541
平莒	-11.4542
滅其國	-11.4544
魯昭公	-11.4544
文襄	-11.4547
隴	-11.4547
實録	-11.4548
邘	-11.455
鄋瞞	-11.455
子期	-11.455
称人	-11.4551
厥憖	-11.4552
兾	-11.4552
之所欲	-11.4553
朐	-11.4553
永樂大典	-11.4555
而胡氏	-11.4556
册	-11.4557
哀三年	-11.4557
摟	-11.4557
外楚	-11.4558
公如齊公至自齊	-11.4559
犖	-11.456
郱鄑郚	-11.456
餒	-11.456
來㑹葬	-11.4561
其曰人何也	-11.4562
滅邢	-11.4566
仲孫速	-11.4567
始見經	-11.457
且拜	-11.457
▁子	-11.4571
從政	-11.4571
叛盟	-11.4571
幽之盟	-11.4573
不可易	-11.4574
盟于向	-11.4576
公在晉	-11.4577
煬	-11.4578
于僞反	-11.4579
小惡	-11.458
與諸侯盟	-11.4583
為譏	-11.4585
母家	-11.4586
伐邾取須句	-11.4587
山崩	-11.4591
大宗伯	-11.4592
致夫人	-11.4593
向戍	-11.4593
異義	-11.4593
賢人	-11.4595
豈獨	-11.4596
宣十七年	-11.4596
之旨	-11.4597
詳畧	-11.4598
侵小	-11.46
郑玄	-11.46
所知也	-11.4601
繼故	-11.4604
恩禮	-11.4605
工正	-11.4606
髙平	-11.4607
杜洩	-11.4611
何也以其	-11.4613
與桓	-11.4615
是棄	-11.4615
邾婁人	-11.4616
國在今	-11.4616
方明	-11.4617
武軍	-11.4617
豬	-11.4617
分野	-11.4618
厥貉	-11.4618
始生	-11.4618
兮反	-11.4619
得天下	-11.462
以不義	-11.462
一節	-11.4621
遂如晉	-11.4621
某氏	-11.4623
巖	-11.4624
垂葭	-11.4624
膚	-11.4626
公子遂如晉	-11.4626
粗	-11.4626
葬我小君	-11.4627
閎	-11.4627
季秋	-11.4629
啖助	-11.463
貟	-11.463
于葵丘	-11.463
特相盟	-11.463
季康子	-11.4631
之為人	-11.4632
三王之罪人	-11.4634
宗諸侯	-11.4637
二世	-11.464
殺其君	-11.464
之辭言之	-11.4641
復其位	-11.4642
無明文	-11.4643
自逆	-11.4645
直書曰	-11.4645
非徒	-11.4646
縣地	-11.4647
是時晉	-11.4647
閉門	-11.465
曹衞	-11.4651
側室	-11.4652
有罪焉	-11.4652
叛王	-11.4654
證反	-11.4654
悲夫	-11.4654
焚之	-11.4659
請成	-11.466
不貴	-11.466
率諸侯以	-11.4663
雍子	-11.4671
升降	-11.4671
私諡	-11.4672
舊怨	-11.4673
所作	-11.4675
君之命	-11.4676
舄	-11.4676
輕於	-11.4682
先王之禮	-11.4685
栢	-11.4688
不逮	-11.4689
聼命	-11.469
儀禮	-11.469
矛	-11.4693
敗其師	-11.4693
胡公	-11.4695
泠	-11.4697
嵩	-11.4697
熈	-11.4697
諷	-11.4698
3.3	-11.4698
顚	-11.47
尫	-11.47
文八年	-11.4702
滅江	-11.4703
𦵏我君	-11.4704
非其地	-11.4705
是也然	-11.4708
自諸侯出	-11.4711
與鄭人	-11.4711
㑹晉侯	-11.4712
宰夫	-11.4714
不得已也	-11.4714
西北有	-11.4718
以明之	-11.4719
哀七年	-11.4721
禘祭	-11.4724
擅權	-11.4724
聘于齊	-11.4725
9.3	-11.4725
交好	-11.4726
如今	-11.4726
隨侯	-11.4731
東北有	-11.4731
無所逃	-11.4732
2	-11.4733
此三者	-11.4733
晉楚爭	-11.4734
於君父	-11.4736
魯隱公	-11.4736
子馮	-11.4736
伐吴	-11.4738
復伐鄭	-11.4739
所都	-11.474
汝隂	-11.474
蔡桓	-11.4743
當祭	-11.4743
國人皆	-11.4744
孰謂	-11.4747
攝行	-11.4747
也廬陵李氏曰	-11.475
書時也	-11.475
某侯	-11.4752
者何也	-11.4753
▁劉氏敞曰	-11.4753
吾聞之	-11.4755
闕疑	-11.4755
星隕	-11.4756
以王法	-11.4758
以生	-11.476
甯氏	-11.4761
梏	-11.4761
官司	-11.4765
俊	-11.4766
緒	-11.4766
未必皆	-11.4767
立宫	-11.4768
使所吏反	-11.4769
敕	-11.4769
郊特牲	-11.477
不得書	-11.4771
文帝	-11.4772
胥靡	-11.4773
東有	-11.4773
顆	-11.4773
牀	-11.4774
簒國	-11.4775
之大小	-11.4775
陳蔡鄭許	-11.4777
獮	-11.4777
實弑	-11.4778
所以存	-11.478
祈榖	-11.4783
長岸	-11.4784
三郤	-11.4786
能制	-11.4786
此盖	-11.4789
之仇	-11.4789
又東北經	-11.479
悉書之	-11.4791
僣王	-11.4792
返國	-11.4793
立法	-11.4793
桑林	-11.4795
叛故	-11.4796
有罪無罪	-11.4796
楚康	-11.48
矣又曰	-11.4801
季孫斯	-11.4809
楚與國	-11.4811
晉陽處父	-11.4811
出其君	-11.4817
矣至是	-11.482
勤民	-11.4822
非也春秋	-11.4823
其迹	-11.4825
後之人	-11.4827
富辰	-11.4827
𫝊稱	-11.4827
東萊	-11.4833
在其中	-11.4835
衛朔	-11.4835
禮之變	-11.4836
經云	-11.4836
也或謂	-11.4837
薛侯	-11.4838
此論	-11.484
伯姬卒	-11.484
彖	-11.4841
熒	-11.4842
薛人	-11.4842
鷄	-11.4844
臾駢	-11.4845
几	-11.4846
灼	-11.4846
弑剽	-11.4846
葵邱	-11.4846
艱	-11.4846
趡	-11.4846
楚伐宋	-11.4846
粉	-11.4847
臧孫辰	-11.4849
奥	-11.4849
二王後	-11.485
詩序	-11.4851
漕	-11.4851
六月雨	-11.4853
李氏亷曰	-11.4853
之倫	-11.4855
狄伐邢	-11.4856
晉人執虞公	-11.4856
建寅	-11.4856
于鄬	-11.4857
平丘之㑹	-11.4857
歸于酅	-11.4857
隕霜	-11.486
四時之	-11.4861
8	-11.4864
則謂之	-11.4865
将中軍	-11.4865
高祖	-11.4865
貶而人之	-11.4865
晉侯許之	-11.4866
張公室	-11.4868
繫于	-11.4868
君臣同	-11.487
於大廟	-11.4874
財用	-11.4877
秦漢	-11.4877
桓十七年	-11.4877
已死	-11.4881
亭今	-11.4883
例月	-11.4883
典刑	-11.4887
古制	-11.4894
擅命	-11.4895
不冝	-11.4896
歲首	-11.4897
封衛	-11.4898
明知	-11.4899
所求	-11.49
魯哀公	-11.4903
圍彭城	-11.4906
君之罪	-11.4906
為君而	-11.4907
之聘也	-11.4911
狠	-11.4912
宗子	-11.4913
附録左傳	-11.4913
:	-11.4913
取賂	-11.4914
藍	-11.4914
苟免	-11.4915
成婦	-11.4916
諸侯之事	-11.4916
異耳	-11.4917
仲孫貜	-11.4918
建寅之月	-11.492
可以免	-11.492
書名氏	-11.492
經世之	-11.4921
不録	-11.4922
在彼	-11.4922
衛人立晉	-11.4924
公孫翩	-11.4924
意欲	-11.4925
于蜀	-11.4927
青州府	-11.4927
僖三	-11.4929
非夫人	-11.493
告于諸侯	-11.4934
而後已	-11.4934
廩丘	-11.4935
不足恃	-11.4936
昭十年	-11.4938
注引	-11.4939
衛侯鄭	-11.4941
失閏	-11.4942
始平	-11.4942
在軍	-11.4943
之嫌	-11.4947
五年夏	-11.4948
號曰	-11.495
請於王	-11.4951
西河	-11.4954
反又如字	-11.4955
以救之	-11.4956
許止	-11.4956
失國出奔	-11.4956
各異	-11.4957
不書正月	-11.4958
至此始	-11.4959
大衍厯正月	-11.4961
同列	-11.4963
無害	-11.4963
晉趙武	-11.4963
齊商人	-11.4967
不與諸侯	-11.4968
困於	-11.4969
其稱人	-11.4971
申公	-11.4971
宗魯	-11.4973
宣十一年	-11.4976
縣今屬	-11.4977
不可解	-11.4979
可否	-11.4979
讀者	-11.4982
舊文	-11.4983
師氏曰	-11.4983
孔叔	-11.4984
讞曰	-11.4985
戍周	-11.4987
兊	-11.4989
髽	-11.4992
同謀	-11.4992
芈	-11.4992
聘于晉	-11.4992
蕕	-11.4993
七十二	-11.4993
裕	-11.4994
豚	-11.4995
考仲子之宫	-11.4995
彞	-11.4996
製	-11.4997
碎	-11.4997
與聞乎弑	-11.4998
末減	-11.4998
程氏學曰	-11.5
勇反	-11.5001
善哉	-11.5002
許氏翰曰	-11.5002
北斗	-11.5004
五經	-11.5004
祔廟	-11.501
子雅	-11.501
濟南府	-11.5011
何疑	-11.5013
自是而後	-11.5016
書其事	-11.5018
聞命矣	-11.5018
不才	-11.5019
僅能	-11.5019
辨其	-11.502
者必有	-11.502
服罪	-11.502
夏徵舒	-11.5022
莒去疾	-11.5023
此一事	-11.5025
五色	-11.5031
戎車	-11.5032
4.1	-11.5032
切徐	-11.5035
盟扈	-11.5035
若今	-11.5035
河海	-11.5038
慕義	-11.5038
八月螽	-11.5039
髙唐	-11.5042
不書朔	-11.5044
書公㑹	-11.5044
沒公	-11.5045
襄二十一年	-11.5045
諸侯相見	-11.5045
不与	-11.5045
相率	-11.5047
言易也	-11.5047
天子之使	-11.5047
故書名	-11.5048
言之矣	-11.505
不審	-11.5051
文十一年	-11.5052
之别名	-11.5053
燕伯	-11.5055
之辞	-11.5055
亂之道也	-11.5056
刀反	-11.5056
宋共姬	-11.5058
陳鮑	-11.5058
不言即位	-11.5059
隠三年	-11.5062
髙宗	-11.5063
文十三年	-11.5065
方是時	-11.5066
顓臾	-11.5067
樞	-11.5067
遑	-11.507
別	-11.5071
舘	-11.5071
祁奚	-11.5072
蕩意諸	-11.5072
疆場	-11.5072
豺狼	-11.5074
終不能	-11.5074
而書名	-11.5074
國弱	-11.5075
城諸及防	-11.5075
無怨	-11.5076
紀侯去國	-11.5076
杞伯姬	-11.5079
然乎曰不然也	-11.508
歸脤	-11.508
臣之罪也	-11.5084
莊閔僖	-11.5084
句繹	-11.5084
㣲國	-11.5085
火出	-11.5086
其意言	-11.5087
齊師敗績	-11.5087
厯法	-11.5088
請先	-11.5089
出兵	-11.5089
一夫	-11.5089
魯與齊	-11.509
喪未	-11.509
不言帥師	-11.5092
莊二十二年	-11.5092
荘子	-11.5093
喪紀	-11.5093
不書月	-11.5094
無能為也	-11.5095
以作亂	-11.5096
襄十八年	-11.5098
歸罪於	-11.5099
鄭州	-11.5103
不宜立	-11.5103
吳入郢	-11.5106
于汜	-11.5106
左氏所載	-11.5107
譏公	-11.5108
我君	-11.5109
公子朝	-11.5112
同欲也	-11.5113
所共	-11.5114
二十餘年	-11.5114
公及諸侯	-11.5116
卒在位	-11.5117
駟赤	-11.5118
隨人	-11.5119
交相	-11.5122
公爵	-11.5123
經所書	-11.5124
道理	-11.5125
同上年	-11.5128
妄動	-11.5129
不以其罪	-11.513
卿佐	-11.513
李氏廉曰	-11.5132
再拜	-11.5133
之罪亦	-11.5133
蓐	-11.5136
病之	-11.5137
蒐于紅	-11.5139
期年	-11.514
所賜	-11.5141
牖	-11.5141
朋友	-11.5141
孟僖子	-11.5144
洗	-11.5145
祲祥	-11.5145
月食	-11.5147
橫	-11.5147
叔孫穆子	-11.5147
有無君之心	-11.5147
枚	-11.5148
跋	-11.5148
蹇叔	-11.5148
慾	-11.5149
不繋	-11.515
劉原父	-11.5151
晏嬰	-11.5153
防閑	-11.5154
舎中軍	-11.5154
從王伐鄭	-11.5155
季氏本曰	-11.5156
士文伯	-11.5157
優施	-11.5157
方且	-11.5157
謚法	-11.516
帥師伐莒	-11.5161
畢萬	-11.5166
常祀	-11.5168
父子兄弟	-11.5169
如會	-11.5169
出使	-11.517
非所當	-11.5171
即上	-11.5172
九鼎	-11.5172
蜀之盟	-11.5178
將軍	-11.5179
平縣	-11.5179
尊君	-11.5179
莊姜	-11.5182
嫌於	-11.5182
博士	-11.5183
天倫	-11.5183
未誓	-11.5183
卜日	-11.5183
至其	-11.5186
鹵	-11.519
之變也	-11.5191
扈之㑹	-11.5193
此豈	-11.5198
吾大夫	-11.5199
卒不能	-11.5201
扵此	-11.5202
凡六	-11.5203
私家	-11.5204
衛宣	-11.5205
自守	-11.5205
觀此則	-11.5207
報切	-11.5208
軍吏	-11.521
親逆	-11.5213
需	-11.5215
無諡	-11.5216
唯此	-11.5217
不恥	-11.5219
受之於	-11.5219
吹	-11.522
嚮	-11.522
蹇	-11.522
捐	-11.5221
膺	-11.5221
鎬	-11.5222
薊	-11.5222
一里	-11.5222
趾	-11.5223
鱗	-11.5223
賜姓	-11.5224
天王居于狄泉	-11.5224
蕞爾	-11.5225
酆舒	-11.5225
訾婁	-11.5225
它	-11.5225
懈	-11.5226
鉅野	-11.5226
公子糾	-11.5226
畱	-11.5228
齊人歸讙及闡	-11.5228
范氏甯曰	-11.5229
稱臣	-11.523
取邾田自漷水	-11.523
單伯至自齊	-11.523
凡五	-11.5231
楚滅陳	-11.5232
尉止	-11.5232
故略	-11.5234
以為己	-11.5234
兵法	-11.5236
之所致	-11.5237
荆山	-11.5238
詳内	-11.524
罪莫大焉	-11.5241
有之矣	-11.5247
見於經者	-11.5249
㑹王人	-11.5249
去三桓	-11.5252
密州	-11.5253
無遺	-11.5255
此語	-11.5255
謀納公	-11.5257
加禮	-11.5257
入人之國	-11.5258
諱乎	-11.5261
問其故	-11.5262
曹殺其大夫	-11.5263
與之㑹	-11.5263
以伐宋	-11.5266
以徇	-11.5268
已定	-11.5272
舉動	-11.5276
悼王	-11.5277
隗	-11.528
未見諸侯	-11.5281
所存	-11.5285
風氏	-11.5289
兕	-11.5289
轡	-11.5289
謫	-11.5293
翁	-11.5294
莊二十七年	-11.5294
溷	-11.5295
伐萊	-11.5295
不急	-11.5297
𫉬	-11.5297
諸侯各	-11.5299
旒	-11.5299
天王殺其弟佞夫	-11.53
鄭伯以璧假許田	-11.5301
長樗	-11.5302
秋荆伐鄭	-11.5302
而加之	-11.5302
兗州府	-11.5303
楊氏	-11.5304
鎮撫	-11.5304
四百	-11.5306
次于匡	-11.5307
不得專	-11.5308
城濮之役	-11.5309
謬矣	-11.5312
將亡	-11.5315
潛師	-11.5316
公孫段	-11.5317
入于夷儀	-11.5319
人倫之本	-11.5321
若然則	-11.5323
能改	-11.5326
順祀	-11.5328
又明年	-11.533
若果	-11.533
繫國	-11.5332
鄭及楚平	-11.5334
蔡仲	-11.5334
稱鄭伯	-11.5337
不繫乎	-11.5338
費人	-11.5338
因晉	-11.534
切下同	-11.5341
祖禰	-11.5342
而我	-11.5343
得位	-11.5343
虞仲	-11.5345
莊十四年	-11.5347
之隙	-11.5347
叔氏	-11.5353
不言伐	-11.5355
中大夫	-11.5356
山縣	-11.5359
㑹齊侯宋公陳侯	-11.5359
無他義	-11.5361
責人	-11.5361
可殺	-11.5363
九命	-11.5365
王姬之	-11.5366
榖梁作	-11.5367
翳	-11.5367
劉卷	-11.5367
三君	-11.5368
話	-11.5369
銅鞮	-11.5369
隨事	-11.537
禮法	-11.537
更無	-11.5371
何由	-11.5372
不踰	-11.5372
姓名	-11.5372
鄗	-11.5373
挑	-11.5374
槖	-11.5375
謟	-11.5376
係之	-11.5376
為害	-11.5376
蝗	-11.5376
大名府	-11.5377
及河	-11.5378
墮三都	-11.5379
變異	-11.5384
有疾乃復	-11.5384
圍宋彭城	-11.5384
于黄池	-11.5384
不得意	-11.5385
天王出居于鄭	-11.5385
降婁	-11.5386
不辨	-11.5388
偃然	-11.5388
國勢	-11.5389
澶淵之㑹	-11.5391
賔客	-11.5392
背殯	-11.5395
左傳秋	-11.5396
曺伯	-11.5397
嫡妾	-11.54
諸侯之㑹	-11.5402
在今河南	-11.5404
秦景公	-11.5406
之中又	-11.5407
故先書	-11.5407
攘夷	-11.541
星孛	-11.5412
為壇	-11.5415
欲弑	-11.5419
師大敗	-11.5422
事情	-11.5425
也杜以	-11.5426
必速	-11.5427
私情	-11.5428
嫡母	-11.543
所制	-11.5431
於此矣	-11.5433
未踰年而	-11.5435
入食限	-11.5435
少子	-11.5436
以逼	-11.5436
不能誅	-11.5436
踰年即位	-11.5438
蒙上	-11.5438
相息亮反	-11.5444
今日之	-11.5445
鬻熊	-11.5446
取須句	-11.5446
不能去	-11.5447
日講春秋解義卷	-11.5448
蔡潰	-11.5448
韶	-11.5448
苛	-11.5448
詘	-11.5449
書弟	-11.545
暢	-11.545
泄冶	-11.5454
聘且	-11.5456
正義曰周礼	-11.5457
冺	-11.5457
蚤	-11.5458
脾	-11.5458
弃疾	-11.5458
㨗菑	-11.5459
𤓰	-11.546
孫明復	-11.546
東阿縣	-11.5461
苴	-11.5462
虞人	-11.5463
非其人	-11.5463
是以君子	-11.5464
來戰于郎	-11.5467
入海	-11.5469
此年及	-11.5472
正其名	-11.5472
無赦	-11.5473
車千乘	-11.5473
劉氏曰非也	-11.5474
公如楚	-11.5476
刑書	-11.5478
其境	-11.5479
必告	-11.5481
天下之事	-11.5483
于城濮	-11.5486
邪正	-11.5486
鄭伯伐許	-11.5488
俱在	-11.5489
所貴	-11.549
其義則	-11.5493
未即位	-11.5493
宣十八年	-11.5493
不地者	-11.5495
弦子	-11.5496
圍郊	-11.5496
命之卿	-11.5501
莊六年	-11.5502
史佚	-11.5502
三帥	-11.5505
鄒縣	-11.5507
不繫於	-11.5508
向背	-11.5508
春秋書此	-11.5514
取其邑	-11.5517
𬒳	-11.5518
民心	-11.5522
東門氏	-11.5522
西南有	-11.5523
去樂	-11.5523
劣	-11.5527
俞	-11.5528
也讞曰	-11.5529
慰	-11.5529
􁉸	-11.5529
用心	-11.553
闔閭	-11.5531
郿	-11.5531
漢東	-11.5532
藴	-11.5532
前日之	-11.5533
熊繹	-11.5534
昉	-11.5534
懾	-11.5536
入于戚以叛	-11.5536
爲卿	-11.5537
聰	-11.5537
惇	-11.5538
仲孫羯如晉	-11.554
公子喜時	-11.5541
序云	-11.5546
衞孫良夫	-11.5549
然則曷為不	-11.5551
唐侯	-11.5553
釋憾	-11.5555
開州	-11.5555
魯政	-11.5556
禮義之	-11.5557
杜注鄭地	-11.5557
改名	-11.5559
椒舉	-11.5562
㑹于扈	-11.5562
▁李氏廉曰	-11.5563
成四年	-11.5565
韓原	-11.5568
既沒	-11.5571
歸妹	-11.5571
可據	-11.5571
私屬	-11.5572
黄氏曰	-11.5572
殺里克	-11.5574
亦宜	-11.5574
。《	-11.5575
太甲	-11.5575
謀定	-11.5575
先克	-11.5576
四章	-11.5578
一歲	-11.5579
其名氏	-11.558
禰廟	-11.5581
有星孛	-11.5583
志不在	-11.5586
崩薨	-11.5586
存公	-11.5592
陳惠	-11.5592
子產曰	-11.5596
邑名	-11.5599
君之母	-11.5599
陳氏傅良曰	-11.5599
常情	-11.5601
有辠	-11.5601
貶詞	-11.5604
秦伯曰	-11.5606
時史	-11.5606
涕	-11.5608
汴	-11.5608
蔡靈	-11.5608
雎	-11.561
勅	-11.5611
見諸行事	-11.5615
仲孫湫	-11.5615
入者内弗受也	-11.5616
汋	-11.5618
戎伐	-11.5619
賈服	-11.5619
哀十一年	-11.5619
欒武子	-11.5619
麤	-11.5619
前目後凡	-11.5619
書日者	-11.5619
大夫士	-11.5621
魯宣	-11.5622
危不得	-11.5622
于禚	-11.5622
鄫季姬	-11.5624
二年春王二月	-11.5624
夏四月丁巳	-11.5624
書名者	-11.5626
百牢	-11.5627
其氣	-11.563
衞侯衎	-11.563
第二	-11.5632
管叔	-11.5636
逆王命	-11.5636
念母	-11.5637
文五年	-11.564
武仲	-11.5642
是行也	-11.5642
薨不地	-11.5642
渝平	-11.5643
襄十三年	-11.5644
而戮之	-11.5645
不序諸侯	-11.5649
㑹于蕭魚	-11.565
榖梁子	-11.5652
邦君	-11.5653
殺申生	-11.5656
父之讎	-11.5657
而不討	-11.5657
諸侯之尊	-11.5658
復古	-11.5661
屈辱	-11.5664
椘子	-11.5665
榖城	-11.5667
之大夫也	-11.5668
衛孫良夫	-11.5669
没其	-11.5671
不在諸侯	-11.5671
聞喪	-11.5672
不書爵	-11.5674
天意	-11.5674
十有四	-11.5674
千五百	-11.5674
入于晉	-11.5675
髙張	-11.5675
二十有五年	-11.5678
滕子薛伯	-11.568
莊僖	-11.5682
炎帝	-11.5683
損益	-11.5683
周公之廟	-11.5683
或疑	-11.5686
滅人	-11.5687
竟音境	-11.5687
繞	-11.5688
稠	-11.5689
者嫌	-11.5689
滔	-11.5691
惠叔	-11.5691
欒枝	-11.5692
沐浴	-11.5692
悍	-11.5693
弱小	-11.5693
尊之也	-11.5694
郯伯姬來歸	-11.5694
時王所黜	-11.5695
束帛	-11.5695
閌	-11.5695
郲	-11.5695
周邑	-11.5697
之憾	-11.5698
讒慝	-11.5699
許諾	-11.57
􁂧	-11.5701
遇于垂	-11.5701
刑罰	-11.5701
允姓	-11.5702
配天	-11.5702
古者天子	-11.5702
寳玉	-11.5704
不稱君	-11.5705
朔餘	-11.5706
國危	-11.5706
愛人	-11.5709
代父	-11.5712
鮑國	-11.5713
為司徒	-11.5713
君之惡	-11.5713
相通	-11.5718
故夫子	-11.5721
書於策	-11.5721
閔雨	-11.5722
不可以訓	-11.5726
莊八年	-11.5727
無所容	-11.5728
四裔	-11.5731
子般卒	-11.5732
不容誅	-11.5733
三百人	-11.5735
不以道	-11.5736
適諸侯	-11.5736
告於諸侯	-11.5739
小弱	-11.5739
所以然者	-11.5739
其始也	-11.5741
者謂之	-11.5743
至此極	-11.5748
告則書	-11.5752
背叛	-11.5753
譏不在	-11.5753
不睦	-11.5755
使後世	-11.5756
皆譏也	-11.5757
趙朔	-11.5759
把叔姬	-11.5761
殺有罪	-11.5761
篡立	-11.5762
近世	-11.5762
隠七年	-11.5765
公子招	-11.5765
而後得	-11.5767
阮	-11.5768
箴尹	-11.5769
樂王鮒	-11.577
滎澤	-11.5772
塹	-11.5773
魁	-11.5773
君前臣名	-11.5774
耄	-11.5774
密邇	-11.5774
無忌憚	-11.5775
董狐	-11.5775
奨	-11.5775
緱氏	-11.5775
築囿	-11.5776
農隙	-11.5777
追書	-11.5778
樂器	-11.5779
莊二十五年	-11.578
而不克	-11.5781
州西	-11.5781
莫甚於	-11.5781
帝乙	-11.5781
數世	-11.5783
天下莫	-11.5783
欒施	-11.5783
軍行	-11.5788
亦可見矣	-11.5789
大國之間	-11.579
之裔	-11.5792
盟于蜀	-11.5793
襄陵	-11.5795
東山	-11.5795
穀梁子曰	-11.58
楚子圍鄭	-11.5801
文章	-11.5802
公孫兹	-11.5805
以為討	-11.5808
啖子	-11.5811
莒亂	-11.5811
其卒也	-11.5814
以喻	-11.5815
施于	-11.5815
還自晉	-11.5815
論語云	-11.5821
牛馬	-11.5828
後丗	-11.5829
之大故也	-11.583
於其國	-11.5835
地理	-11.5835
反哭	-11.5836
是也今	-11.5837
成元年	-11.5838
故明年	-11.5839
此類也	-11.5839
成文	-11.5839
不遺	-11.5841
者也夫	-11.5841
吝	-11.5843
不書滅	-11.5844
之所同	-11.5845
武王克殷	-11.5846
柯之盟	-11.5847
移於	-11.5849
亦名	-11.5849
縷	-11.585
剪	-11.585
田狩	-11.585
敞	-11.5851
麾	-11.5852
湯沐之邑	-11.5853
禆竈	-11.5853
叟	-11.5853
未足以	-11.5854
薨于夷	-11.5854
揣	-11.5854
魏獻子	-11.5855
邠	-11.5855
櫜	-11.5856
右一著例	-11.5857
䘏	-11.5857
赤歸于曹	-11.5857
寤生	-11.5859
取成而還	-11.5859
尊賢	-11.5859
公至自齊居于鄆	-11.586
豈惟	-11.5861
或日或不日	-11.5861
來盟于師	-11.5861
僣天子	-11.5867
中華	-11.5868
于邲	-11.5868
羊傳	-11.5872
威力	-11.5874
共工	-11.5875
威公	-11.5875
郊天	-11.5875
有異志	-11.5876
乙亥嘗	-11.5876
公子憖	-11.5877
招殺	-11.5878
無勇	-11.5878
周禮司	-11.5878
何以獨	-11.5879
自處	-11.5881
聘晉	-11.5882
自晉歸	-11.5882
逐其君	-11.5883
第三	-11.5883
弑昭公	-11.5884
可也今	-11.5885
竟内	-11.5885
見經者	-11.5886
生亂	-11.5891
尊周室	-11.5891
爭伯	-11.5892
親戚	-11.5894
逆賊	-11.5901
楚公子圍	-11.5901
滅庸	-11.5903
3	-11.5904
昭然	-11.5905
不欲戰	-11.5905
未見其	-11.5907
於寢	-11.5908
主兵者	-11.5908
治民	-11.591
教民	-11.5914
考工記	-11.5924
無貶辭	-11.5925
奉天	-11.5925
莭	-11.5926
盬	-11.5927
継	-11.5928
断	-11.5928
服於楚	-11.5931
主兵而	-11.5932
孫炎曰	-11.5932
澗	-11.5932
羇	-11.5934
浴	-11.5935
徂	-11.5935
佐下軍	-11.5935
不得見	-11.5936
眉	-11.5937
一矢	-11.5937
衛邑	-11.5938
之望也	-11.5938
御廩	-11.5939
鄆讙龜隂	-11.594
孟津	-11.594
鄢陵之戰	-11.594
楚公子嬰齊帥師伐鄭	-11.5941
喜怒	-11.5942
趙氏匡曰	-11.5943
季友仲遂	-11.5944
存陳	-11.5945
入祊	-11.5947
霸討	-11.5948
殽之役	-11.595
至自晉	-11.5951
滅巢	-11.5953
一歳	-11.5954
惠公仲子	-11.5954
殺身	-11.5956
出亡	-11.5958
青州	-11.5959
王道之	-11.596
夏季孫宿如晉	-11.596
嬴氏	-11.5962
外臣	-11.5964
安甫	-11.5968
諱而不書	-11.597
汝州	-11.5971
吏反	-11.5977
封國	-11.5979
日誤	-11.5982
周家	-11.5986
助祭	-11.5986
及之也	-11.5988
滕人	-11.5988
襄十六年	-11.5988
殊不知	-11.5989
史策	-11.5992
其子弟	-11.5992
使微者	-11.5994
蝝生	-11.5995
執虞公	-11.5995
齊孝	-11.5996
急子	-11.6001
隠十一年	-11.6002
鴆	-11.6005
二十有三年	-11.6006
不能君	-11.6006
活	-11.6007
甯子	-11.6008
鬲	-11.6009
虔	-11.6012
奉使	-11.6013
得其實	-11.6013
汶水	-11.6014
幾亡	-11.6014
殺子糾	-11.6015
妘姓	-11.6016
諸侯自相	-11.6017
取其田	-11.6017
王樵氏曰	-11.6019
顛倒	-11.602
郟鄏	-11.602
甯俞	-11.6021
孟孝伯	-11.6022
禫	-11.6023
敗某師	-11.6025
聵	-11.6025
碩	-11.6026
然後能	-11.6026
諱國惡	-11.6029
文異	-11.6029
若以為	-11.6029
横行	-11.6036
詩稱	-11.6036
曽不	-11.6037
犬丘	-11.604
徙都	-11.6041
來會葬	-11.6041
之實也	-11.6041
僖二十二年	-11.6043
亦足以	-11.6043
僭號	-11.6046
而後行	-11.605
曲梁	-11.6053
通吳	-11.6057
何獨於	-11.6059
一物	-11.6061
戍衛	-11.6063
各以其	-11.6064
于淮	-11.6064
不復能	-11.6065
蠻夷之	-11.6065
入郕	-11.6067
尊尊	-11.6068
安豐	-11.6068
者之戒	-11.6068
神主	-11.6068
難知	-11.6068
州来	-11.607
屬辭比事	-11.6071
不書敗	-11.6072
同宗	-11.6075
政教	-11.6075
相土	-11.6076
不書奔	-11.6077
亦未必	-11.6078
為司城	-11.6079
微國也	-11.6081
不告廟	-11.6082
為得禮	-11.6085
胡𫝊	-11.6088
不以正	-11.609
熱	-11.6091
乃不郊	-11.6092
于泓	-11.6092
勾	-11.6093
踣	-11.6094
秦晉之	-11.6094
乘丘	-11.6095
蹶	-11.6096
斤	-11.6097
輿人	-11.6097
斐	-11.6099
鰌	-11.61
兩君相見	-11.6101
自省	-11.6101
許叔入于許	-11.6102
級	-11.6102
嬪	-11.6103
僖二十七年	-11.6103
歉	-11.6104
鵲	-11.6104
表裏	-11.6104
宗祀	-11.6104
趙伯循	-11.6105
從其恒稱	-11.6105
朴	-11.6106
歸邾子	-11.6106
而奪之	-11.6106
宋人伐鄭圍長葛	-11.6107
穆侯	-11.6107
啓蟄	-11.6107
立乎其位	-11.6108
嬖人	-11.6108
捷菑	-11.6109
仲虺	-11.6109
孔氏穎達曰	-11.6109
城下之盟	-11.611
少牢	-11.6112
嗣立明年	-11.6112
每月	-11.6113
奉命	-11.6114
呉越	-11.6116
邲之役	-11.6117
不覺	-11.6117
杜意	-11.612
蔡桓侯	-11.612
世相朝	-11.612
不登於	-11.6122
蔡侯朱	-11.6123
嗟	-11.6123
之卒章	-11.6125
下注云	-11.6125
齊國佐	-11.6127
懼晉	-11.6127
救台	-11.6128
自入春秋	-11.6129
又引	-11.6131
謹嚴	-11.6132
四邑	-11.6132
啖趙	-11.6133
抑亦	-11.6133
獻俘	-11.6136
與之俱	-11.6137
交質	-11.614
一語	-11.614
于讙	-11.6144
而忘其	-11.6147
無益也	-11.6148
來會	-11.6149
如晉拜	-11.6149
故略之	-11.615
專罪	-11.6153
肱	-11.6154
司盟	-11.6155
襄四年	-11.6156
汾水	-11.6159
其自取	-11.6159
齊襄公	-11.616
勇力	-11.6161
桓侯	-11.6168
晉人許之	-11.6169
然乎曰	-11.6173
旐	-11.6177
蔣	-11.6179
將殺之	-11.6181
染	-11.6181
盟于齊	-11.6183
郪丘	-11.6185
望國	-11.6187
盤庚	-11.6188
虒祁	-11.6189
不然則否	-11.619
纁	-11.619
而不為	-11.6191
齊侯唁公于野井	-11.6192
若是則	-11.6192
叔孫州仇	-11.6192
日月星辰	-11.6194
為賢者諱	-11.6194
黻冕	-11.6195
覇主	-11.6196
解云謂	-11.6196
鹿上之盟	-11.6197
晉覇	-11.6197
入王城	-11.6198
於鄰國	-11.6206
怠慢	-11.6206
屬國	-11.6206
齊孝公	-11.6207
如齊納幣	-11.6209
未同盟	-11.621
仲由	-11.6212
于狄泉	-11.6213
師期	-11.6216
所以譏	-11.6217
王者之事	-11.6219
相殘	-11.622
襄陽	-11.6224
本爵	-11.6228
去冬	-11.6232
禮廢	-11.6232
章華	-11.6233
朝于晉	-11.6235
於此見	-11.6237
文武之	-11.6238
入郛	-11.6239
向寧	-11.624
為正卿	-11.6241
而不恤	-11.6241
十世	-11.6242
丘賦	-11.6242
也劉炫云	-11.6243
周頌	-11.6245
再按	-11.6246
無益於	-11.6247
陽郡	-11.6248
鄭玄云	-11.625
戎右	-11.625
子靈	-11.6255
各有所	-11.6256
一施之	-11.6259
不以告	-11.6259
轘	-11.6263
伯輿	-11.6263
軋	-11.6264
肆大眚	-11.6264
貙	-11.6265
無徳	-11.6267
劔	-11.6267
剥	-11.6268
陳侯之弟	-11.6269
不煩	-11.6269
畀宋人	-11.627
作樂	-11.6271
其土地	-11.6272
母以子貴	-11.6272
陶唐	-11.6272
建子之月	-11.6273
諒闇	-11.6275
高傒	-11.6275
將卑師衆	-11.6276
新作南門	-11.6277
豐年	-11.6279
清丘之盟	-11.6281
曰美哉	-11.6283
諸兒	-11.6287
叔魚	-11.6287
敵君	-11.6292
孟縶	-11.6295
滅譚	-11.6296
未嫁	-11.6296
子朝之亂	-11.6301
甲氏	-11.6301
南蠻	-11.6307
著其罪	-11.6307
但云	-11.6307
是故春秋	-11.6307
毛詩	-11.6308
受兵	-11.631
向巢	-11.6311
滅天理	-11.6315
西門	-11.6316
隂地	-11.6324
率師	-11.6327
弑子赤	-11.6328
卒于㑹	-11.6332
入見	-11.6332
隱二年	-11.6336
結魯	-11.6336
必不免	-11.6339
晉里克	-11.634
事理	-11.634
鸞	-11.6341
假道于	-11.6341
弑賊	-11.6342
何足以	-11.6343
火田	-11.6343
于偽反	-11.6349
輝	-11.6349
具見	-11.635
聽命於	-11.6352
晉荀偃	-11.6352
中央	-11.6353
宋公之弟辰	-11.6354
驛	-11.6355
个	-11.6356
彝	-11.6358
車徒	-11.6359
殺適立庶	-11.636
辦	-11.636
臧孫辰告糴于齊	-11.636
郥	-11.636
曹伯歸自京師	-11.6361
退舍	-11.6361
蒲圃	-11.6361
息肩	-11.6362
著丘公	-11.6363
申包胥	-11.6364
孫氏覺曰	-11.6364
召忽	-11.6364
北宫喜	-11.6365
黒背	-11.6365
殺其君之子	-11.6365
晉人止公	-11.6366
補入	-11.6368
藉口	-11.6369
祭叔來聘	-11.637
无咎	-11.6372
杜説	-11.6373
稱諡	-11.6375
春秋謹	-11.6377
但見	-11.6378
衞靈	-11.6378
定十三年	-11.6383
入向	-11.6383
自恣	-11.6383
以下皆	-11.6387
計反	-11.6388
旦日	-11.6388
畏天	-11.6388
承命	-11.6391
于東方	-11.6393
罪之在	-11.6395
大夫専	-11.6399
莊三十二年	-11.64
用大師	-11.6402
稱師者	-11.6402
取勝	-11.6404
君存	-11.6405
量力	-11.6413
克段	-11.6416
蒙上文	-11.6417
不能討而	-11.6417
自正月不雨至于秋七月	-11.6422
不羮	-11.6423
齊無知	-11.6423
二者皆	-11.6425
瘧	-11.6425
公羊傳其言	-11.6426
孟子卒	-11.6427
士卒	-11.6429
四年春王二月	-11.6432
汝水	-11.6433
貪利	-11.6434
孔悝	-11.6434
庾	-11.6436
箭	-11.6438
芉	-11.6438
車右	-11.6438
筭	-11.6439
絜	-11.644
經㫖	-11.6441
贖	-11.6441
取敗	-11.6442
縳	-11.6442
烹	-11.6442
世紀	-11.6442
朕	-11.6443
徐人取舒	-11.6443
不嘗藥	-11.6444
盛徳	-11.6444
黜陟	-11.6444
捍	-11.6444
不可掩矣	-11.6446
桓四年	-11.6447
宋公使華元來聘	-11.6449
卜郊不從	-11.6453
靈臺	-11.6453
路反	-11.6455
喪畢	-11.6455
侵掠	-11.6455
守臣	-11.6458
二年春王正月	-11.6458
齊人以歸	-11.6461
王二月	-11.6462
争國	-11.6464
婚禮	-11.6467
然後可以	-11.647
無敢	-11.6472
校官	-11.6473
𫝊文	-11.6474
三王之	-11.6476
郭璞	-11.6477
十八年春	-11.648
於召陵	-11.6483
詩大雅言	-11.6483
孝經	-11.6492
天下國家	-11.6498
何以謂之	-11.6498
新田	-11.6501
髙梁	-11.6502
伐隨	-11.6503
首時	-11.6504
有二心	-11.6506
諌曰	-11.6508
諸侯嫁女	-11.651
浞	-11.651
莒潰	-11.6512
公羊子曰	-11.6515
莊二十八年	-11.6521
舌	-11.6521
求賂	-11.6523
豭	-11.6523
齧	-11.6523
寤	-11.6523
東莞	-11.6525
背音佩	-11.6525
鬯	-11.6525
詩所謂	-11.6525
京相璠曰	-11.6526
椽	-11.6527
方伯連帥	-11.6528
泉臺	-11.6529
九伐之法	-11.6529
𠂻	-11.653
慧	-11.653
馬牛	-11.653
殳	-11.6532
雋	-11.6533
故但書	-11.6533
齊人執子叔姬	-11.6533
鄭公子歸生	-11.6533
何以不稱	-11.6534
稱國以殺而不去其官	-11.6534
繻葛	-11.6534
飽	-11.6534
貍	-11.6535
齊人取	-11.6535
嵒	-11.6535
叔孫州仇仲孫何忌帥師圍郈	-11.6536
崔慶	-11.6536
5	-11.6536
劉子單子	-11.6539
入于櫟	-11.654
説者謂	-11.6545
趙鞅帥師	-11.6545
典籍	-11.6546
讓桓	-11.6548
二十五里	-11.6552
端本	-11.6552
漢初	-11.6553
列於㑹	-11.6555
昭二十六年	-11.6555
為萬世	-11.6561
先君之好	-11.6562
辨見	-11.6564
桓母	-11.6565
不然則	-11.657
乗丘	-11.657
適夫人	-11.6574
書偃	-11.6575
請遷于	-11.6577
雖不同	-11.6578
春秋詳	-11.6578
葉公	-11.6583
修舊	-11.6584
書其卒	-11.6587
蛇丘	-11.659
請平	-11.6596
滅沈	-11.6601
至于今	-11.6607
紫	-11.6607
趙汸曰	-11.6613
襄六年	-11.6614
騂	-11.6614
去起吕反	-11.6614
之姊	-11.6615
孤卿	-11.6615
遼	-11.6617
一變	-11.6621
印段	-11.6622
羊舌氏	-11.6622
方伯連帥之職	-11.6622
齊人執單伯	-11.6622
新延廐	-11.6623
次于五氏	-11.6623
禮樂征伐	-11.6624
當坐	-11.6624
恒星不見	-11.6624
刑人	-11.6624
曲沃武公	-11.6625
晉郤克	-11.6626
莒挐	-11.6627
其行事	-11.6628
艾陵	-11.6628
舊史之文	-11.6629
而葬之	-11.663
之不競	-11.6631
無損	-11.6632
宋共公	-11.6632
敗晉師	-11.6632
州南	-11.6632
桃丘	-11.6633
尉氏	-11.6634
春秋魯史	-11.6635
矣何必	-11.6636
蔡景公	-11.6636
登臺	-11.6638
案經書	-11.6638
城武城	-11.6638
首尾	-11.664
夜姑	-11.664
遷怒	-11.6641
有寵于	-11.6642
都城	-11.6643
之罪人也	-11.6643
四岳	-11.6643
置君	-11.6644
僖三十	-11.6645
楚莊王	-11.6646
所弑	-11.6648
而知之	-11.6655
于偽	-11.6657
邢人	-11.6658
公會諸侯	-11.6661
高張	-11.6662
戰于宋	-11.6666
丘出	-11.6667
郊牛	-11.6667
鑿矣	-11.6669
又何求	-11.667
祭名	-11.6672
可不謹	-11.6677
城平陽	-11.6677
城築	-11.6682
善辭	-11.6682
交政	-11.6683
涖事	-11.6688
皥	-11.6689
賢臣	-11.669
爻辭	-11.6691
將為亂	-11.6694
十有七年春	-11.6695
人之情	-11.6695
别邑	-11.6697
河水	-11.6698
旆	-11.6699
不用命	-11.6699
竊疑	-11.67
炫	-11.6701
鉤	-11.6702
春秋所惡	-11.6702
栽	-11.6703
其是之謂乎	-11.6703
沼	-11.6703
南征	-11.6704
曲在	-11.6705
輈	-11.6705
貉	-11.6705
土地名	-11.6706
陸費墀	-11.6707
綴	-11.6707
冬仲孫何忌帥師伐邾	-11.6708
慊	-11.6709
淇	-11.6711
侵曹伐衛	-11.6711
于是始	-11.6713
千乗之國	-11.6713
鄭伯逃歸不盟	-11.6713
公羊傳此	-11.6715
告于廟	-11.6716
烏餘	-11.6717
陳穆	-11.6717
而致之	-11.6719
皆書人	-11.6719
政治	-11.6721
太傅	-11.6721
可謂深切著明矣	-11.6722
殺其弟	-11.6722
㑹盟侵伐	-11.6726
方嶽	-11.6726
御説	-11.6728
則曷為謂之	-11.6738
相連	-11.674
攝君	-11.6745
桓十六年	-11.6749
奔䘮	-11.675
白馬	-11.6756
釋例云	-11.6759
可疑者	-11.676
晏子曰	-11.676
宣十六年	-11.6761
衆多	-11.6777
列國之君	-11.6778
倉卒	-11.6779
服義	-11.678
成十四年	-11.6785
陴	-11.6787
詁	-11.6787
瓘	-11.6787
松	-11.6789
籍談	-11.679
貴卿	-11.679
邰	-11.6792
嗜	-11.6793
軾	-11.6795
宫中	-11.6796
饑饉	-11.6796
坂	-11.6796
孫士毅	-11.6796
陸錫熊	-11.6796
杞孝	-11.6797
詎	-11.6797
震電	-11.6798
蠲	-11.6798
鄂侯	-11.6798
丹桓宫楹	-11.6799
編年	-11.6799
齊侯鄭伯如紀	-11.6801
之筆	-11.6802
羽翼	-11.6802
韓不信	-11.6803
郯伯姬	-11.6803
歸之于京師	-11.6803
朝聘之數	-11.6804
范甯	-11.6805
陜州	-11.6807
兵車之㑹	-11.6809
修禮	-11.6809
頻食	-11.6809
楚人救衛	-11.6809
魯之臣子	-11.681
韓穿	-11.681
二千	-11.6812
交聘	-11.6814
臨川	-11.6815
小異	-11.6816
為人子	-11.6818
公子彄	-11.6819
也是言	-11.6819
哀十二年	-11.6823
邾悼公	-11.6828
帝王之	-11.683
為公諱	-11.6831
五味	-11.6833
見諸侯之	-11.6833
用禘	-11.6834
為人所	-11.6834
公穀皆	-11.6835
無辜	-11.6839
秋師還	-11.684
邢衛	-11.6844
滅萊	-11.6847
賢大夫	-11.6848
楚文王	-11.6852
西狩	-11.6855
國之兵	-11.6859
故杜云	-11.6859
不悉書	-11.686
強弱	-11.686
請於天子	-11.686
春秋大義	-11.6861
郤子	-11.6868
見賢遍切	-11.6876
世家云	-11.6878
純門	-11.6879
築郿	-11.6879
不言取	-11.6879
賜氏	-11.688
歩卒	-11.6881
天子之大夫	-11.6881
鬱	-11.6883
欒髙	-11.6884
嚳	-11.6884
濰	-11.6884
鈎	-11.6884
抄	-11.6886
月而葬速	-11.6887
㤀	-11.6887
于楚丘	-11.6888
藪澤	-11.6889
悼公卒	-11.689
鄵	-11.689
始朝公也	-11.6891
輕重之權衡	-11.6892
齊人侵我西鄙	-11.6894
以名赴	-11.6894
』,	-11.6894
傅瑕	-11.6895
一條	-11.6895
莒牟夷	-11.6895
鄭師伐宋	-11.6897
百雉	-11.6898
大典	-11.6899
承匡	-11.6902
叔彭生	-11.6903
中行伯	-11.6905
嬖寵	-11.6906
獻功	-11.6906
不能以禮	-11.6907
昌邑	-11.6908
魏郡	-11.6909
易牙	-11.6911
兵柄	-11.6912
楚人侵鄭	-11.6913
天王之命	-11.6916
浮來	-11.692
其目	-11.6922
鄭師敗績	-11.6925
塗山	-11.6927
曰來歸	-11.6932
衰弱	-11.6932
雖微	-11.6932
治其罪	-11.6933
成湯	-11.6934
天子崩	-11.6936
庶弟	-11.6937
安得為	-11.6939
㑹戚	-11.6943
季孟	-11.6944
族類	-11.6946
葬景王	-11.6948
屈服	-11.695
隂盛	-11.6954
小斂	-11.6954
責其不	-11.6955
引詩	-11.6956
為王卿士	-11.6958
子帛	-11.6959
分器	-11.696
穆叔曰	-11.6963
諸侯相朝	-11.6968
詒	-11.6968
哀六年	-11.6969
囂	-11.6973
子服惠伯	-11.6973
燔	-11.6974
虚朾	-11.6974
妣	-11.6974
沔	-11.6975
瓠	-11.6975
二十有一年	-11.6975
公叔戍	-11.6976
子服景伯	-11.6976
鞍	-11.6978
月恭校上總纂官	-11.6979
城郢	-11.6979
一百七十	-11.698
相救	-11.6981
震夷伯之廟	-11.6981
士爕	-11.6982
㑹王世子于首止	-11.6982
天王入于成周	-11.6982
㰱血	-11.6982
虎賁	-11.6983
楚子鄭伯伐宋	-11.6983
大一統	-11.6985
何以稱人	-11.6986
不可掩	-11.6986
方百里	-11.6986
邦衡胡氏曰	-11.6987
賊未討	-11.6989
危亡	-11.699
擅殺	-11.6992
齊人伐山戎	-11.6992
内弗受	-11.6994
姑蔑	-11.6995
奉之以	-11.6996
大陸	-11.6997
甯母	-11.6999
去天	-11.7
于公宫	-11.7001
奚仲	-11.7005
于衡雍	-11.7007
州東南	-11.7012
力不足	-11.7014
甚哉	-11.7016
巴人	-11.7018
河西	-11.7018
譬如	-11.7019
不出於	-11.7028
書敗績	-11.7028
不愆	-11.7029
班爵	-11.7029
制命	-11.7033
遥反	-11.7042
桓魋	-11.7044
后土	-11.705
伐中國	-11.705
被兵	-11.705
滅夔	-11.705
昏亂	-11.7054
立庶	-11.7056
于陽榖	-11.7056
為此説	-11.7056
不量力	-11.7057
柏人	-11.7059
酆	-11.7061
冬不雨	-11.7061
洲	-11.7061
寰宇記	-11.7063
濳	-11.7063
為中軍	-11.7064
波	-11.7065
滎	-11.7065
閣	-11.7065
曷不	-11.7066
歐陽	-11.7066
椑	-11.7067
爭立	-11.7068
公子目夷	-11.7068
春秋左氏傳注疏卷	-11.7068
王姬歸于齊	-11.7069
飯	-11.7069
狐壤	-11.7069
岌	-11.7069
木訥	-11.7069
襄十二年	-11.707
弄	-11.707
公子翬如齊逆女	-11.707
伍員	-11.707
柰何	-11.7071
故城在今	-11.7072
専封	-11.7072
雁	-11.7072
乾隆	-11.7073
公會晉侯齊侯宋公	-11.7073
叔弓如宋	-11.7074
鄭荘	-11.7074
紿	-11.7075
諸侯之國	-11.7077
搆怨	-11.7081
次于滑	-11.7082
切又音	-11.7084
在縣東	-11.7087
襄三十一年	-11.7088
范中行氏	-11.7088
矣雖然	-11.7089
滅陳蔡	-11.7089
何暇	-11.7094
梓慎曰	-11.7094
緩急	-11.7095
華登	-11.7095
以别於	-11.71
杞靖	-11.7103
官守	-11.7105
頓丘	-11.7105
魚府	-11.7107
杜注魯地	-11.711
謀弑	-11.7112
私盟	-11.7116
何以書譏	-11.7117
州治	-11.7122
庶乎	-11.7123
館于	-11.7123
未亡	-11.7125
戎蠻	-11.7127
至河乃復	-11.713
之所能	-11.7131
中庸	-11.7132
公宮	-11.7133
武備	-11.714
未可信	-11.7141
義自見矣	-11.7142
桓十二年	-11.7144
雨水	-11.7144
曰寡君使	-11.7144
我師敗績	-11.7146
季梁	-11.7148
蠡	-11.7148
轅濤塗	-11.7151
厭於	-11.7153
斿	-11.7154
萇	-11.7155
媿	-11.7155
霖	-11.7157
鶂	-11.7158
跳	-11.7158
孔晁	-11.7159
築鹿囿	-11.716
潼	-11.7161
飲之酒	-11.7161
中行穆子	-11.7162
河曲之戰	-11.7162
荀寅士吉射	-11.7164
綱領	-11.7164
斁	-11.7164
敗頓胡沈蔡陳許之師	-11.7165
卒于曲棘	-11.7165
聳	-11.7166
伐䘮	-11.7166
公子遂如楚乞師	-11.7167
大祫	-11.7168
六月公㑹	-11.7168
公子遂如京師遂如晉	-11.7168
祭公來遂逆王后于紀	-11.7168
尊卑之	-11.7169
逆亂	-11.7169
髙止	-11.717
誑	-11.717
必須	-11.717
陵遲	-11.7171
弑逆之賊	-11.7171
惠公卒	-11.7172
濮州	-11.7174
以王事	-11.7174
尚能	-11.7175
乎榖梁曰	-11.7175
敗秦師	-11.7175
桃林	-11.7175
君賜	-11.7177
要結	-11.7177
伐麇	-11.7179
器物	-11.7182
城在今	-11.7185
性命	-11.7186
祭社	-11.7187
春秋詳書	-11.7189
子猛	-11.7191
臨羣臣	-11.7192
軍實	-11.7193
立華氏	-11.7194
胡安國曰按左氏	-11.7196
同外楚	-11.7198
八十里	-11.7198
祊田	-11.7199
往弔	-11.7202
陽樊	-11.7203
原情	-11.7204
不致者	-11.7204
曽子	-11.7206
杜解	-11.7208
實沈	-11.721
祭伯來	-11.7211
▁程子曰	-11.7212
社稷宗廟	-11.7213
執辱	-11.7213
侯伯之	-11.7214
洛邑	-11.7215
下句	-11.7217
仇敵	-11.7219
滕成公	-11.722
子圉	-11.722
隱七年	-11.7221
私忿	-11.7224
僖二十九年	-11.7228
髦	-11.723
疥	-11.7243
挽	-11.7244
第十	-11.7245
也若然	-11.7245
洫	-11.7246
少長	-11.7248
徃來	-11.7249
峻	-11.725
眇	-11.725
翕	-11.7251
亀	-11.7252
齊人殱于遂	-11.7252
呈	-11.7253
之大法	-11.7254
寰内諸侯	-11.7254
裹	-11.7254
黃池	-11.7254
錮欒氏	-11.7255
吞噬	-11.7257
齊師宋師曹師城邢	-11.7257
蒞	-11.7258
蒍賈	-11.7258
君其圖之	-11.7259
公及齊大夫盟于蔇	-11.7259
蹙	-11.7259
黍稷	-11.726
衣裳之㑹	-11.726
恃强	-11.726
頺	-11.726
此獨書	-11.7261
息媯	-11.7261
亡國之社	-11.7261
孔氏穎逹曰	-11.7262
次于陽州	-11.7262
一言而	-11.7263
四鄙	-11.7267
胡沈	-11.7268
百畝	-11.7268
黷武	-11.7269
滅虞	-11.727
恒星	-11.7275
莒展輿	-11.7277
有輕重	-11.728
司敗	-11.728
嬖妾	-11.7284
侍人	-11.7285
繼絶	-11.7289
伐鄭之役	-11.7293
召陵侵楚	-11.7293
歸咎	-11.7293
士服	-11.7294
丈夫	-11.7299
莒僕	-11.7301
簒逆	-11.7303
何以致	-11.7304
大輅	-11.7305
公孫夏	-11.7305
保其國	-11.7307
弑逆之罪	-11.7308
不待貶	-11.7309
百餘年	-11.7309
義引釋例	-11.7313
世祖	-11.7314
殺無知	-11.7316
見於春秋	-11.7316
于乾侯	-11.7318
夜食	-11.7318
牛死	-11.7322
貶責	-11.7323
中軍佐	-11.7329
檀	-11.733
以㑹致	-11.733
何有於	-11.7331
楽	-11.7335
歇	-11.7336
同母弟	-11.7337
隷	-11.7337
手足	-11.7338
掖	-11.734
香	-11.7341
客死	-11.7342
古之人	-11.7344
祼	-11.7344
禴	-11.7345
孔穎逹	-11.7346
穪	-11.7347
謝過	-11.7348
的	-11.7348
祝佗	-11.7349
疵	-11.7349
鞮	-11.735
開封	-11.735
二王之後	-11.735
讙闡	-11.7353
不稱公	-11.7355
四嶽	-11.7357
頹	-11.7357
紀季以酅入于齊	-11.7358
禇師	-11.7358
釋宋公	-11.7359
聖人之情見矣	-11.736
天下有道	-11.7361
鞏朔	-11.7361
降鄣	-11.7362
叔姬歸	-11.7364
禘祫	-11.7364
舜典	-11.7364
卻克	-11.7365
甲乙	-11.7365
盡取	-11.7367
八百乗	-11.7368
先儒或	-11.737
所建	-11.7374
舊典	-11.7375
日光	-11.7376
所以誅	-11.7376
十九日	-11.7376
未必不	-11.7377
仕於	-11.7378
隱十一年	-11.7378
去起	-11.7379
父老	-11.7384
安知其	-11.7385
二里	-11.7386
惜哉	-11.7392
疆理	-11.7392
復伐之	-11.7394
書其官	-11.7397
侵崇	-11.74
不稱姜氏	-11.7405
情事	-11.7406
劉卷卒	-11.7408
周公之後	-11.741
爲于僞反	-11.7413
奔秦	-11.7415
君臣上下	-11.7424
苟能	-11.7433
笠	-11.7436
臺駘	-11.7437
繻	-11.7438
郔	-11.7438
衽	-11.7438
皮弁	-11.7439
滅徐	-11.7439
鉅	-11.7439
盱	-11.744
僨	-11.7441
2.2	-11.7441
王室之亂	-11.7442
闘	-11.7443
膏肓	-11.7444
不見于經	-11.7444
諸侯放恣	-11.7444
枯	-11.7444
八百	-11.7445
挐	-11.7445
公子益師卒	-11.7446
稚	-11.7446
一夕	-11.7446
單伯㑹伐宋	-11.7446
弒其君	-11.7447
嶧	-11.7447
王師敗績于茅戎	-11.7449
即位之禮	-11.745
政在季氏	-11.7453
孟莊子	-11.7453
居于皇	-11.7454
三年喪畢	-11.7455
皆書名	-11.7457
扶風	-11.7461
公㑹鄭伯	-11.7462
居鄆	-11.7463
盂之㑹	-11.7466
鄭伯乞盟	-11.7466
10.3	-11.7466
犯上	-11.7467
有志於	-11.7471
為首惡	-11.7476
鄭伯逃歸	-11.7476
記災也	-11.7476
不以王命	-11.7479
此行也	-11.7482
僖三年	-11.7485
授甲	-11.7485
魯境	-11.7485
圍鄆	-11.7487
冬楚子伐鄭	-11.749
無聞焉	-11.7498
盟幽	-11.7499
1.1	-11.7507
衞朔	-11.7508
事同而	-11.751
經誤	-11.7511
熊氏	-11.7516
何以異	-11.7518
呂氏	-11.7521
被伐	-11.7524
蘇忿生	-11.7533
厨	-11.7534
饌	-11.7534
兖州	-11.7534
存天理	-11.7535
遒	-11.7535
不稱弟	-11.7535
湖廣	-11.7536
巾車	-11.7537
觴	-11.7538
餓	-11.7539
肘	-11.7539
響	-11.7539
生而賜氏	-11.754
王孫蘇	-11.7541
捕	-11.7541
鼷鼠	-11.7542
恬	-11.7542
幷	-11.7544
書其重者	-11.7546
從同同	-11.7547
慿陵	-11.7547
甲午治兵	-11.7549
潘黨	-11.7552
不言叛	-11.7552
陳轅濤塗	-11.7556
義見隠	-11.7558
抑揚	-11.7562
秉政	-11.7563
丘輿	-11.7564
榖鄧	-11.7565
書及者	-11.7565
凶年	-11.7569
因之以	-11.757
魯之君臣	-11.7573
地譜	-11.7579
僭亂	-11.7581
石氏曰	-11.7581
非其道	-11.7582
春秋特書	-11.7583
分為二	-11.7584
殺胥童	-11.7588
程鄭	-11.7594
用周正	-11.7595
未踰年君	-11.7596
於其間	-11.7596
無譏焉	-11.7598
不可勝誅	-11.7598
原伯	-11.7599
威令	-11.7599
姑息	-11.7603
龍見	-11.7604
功徳	-11.7605
其弊	-11.7609
湯武	-11.7615
武宮	-11.7621
上雒	-11.7622
囲	-11.7625
虺	-11.7626
附庸之國	-11.7626
天之道也	-11.7627
少梁	-11.7628
赴于	-11.7628
檟	-11.7629
伏甲	-11.763
而不書者	-11.7632
雖有罪	-11.7633
立剽	-11.7633
顕	-11.7634
史法	-11.7634
瑶	-11.7634
俄而	-11.7635
葺	-11.7636
郡國志	-11.7636
華容	-11.7636
黔	-11.7637
以自遷為文	-11.7637
可誅	-11.7637
濬	-11.7637
八月庚辰	-11.7639
屋壊	-11.764
以無忘	-11.764
晉侯執曹伯	-11.764
翼戴	-11.7642
不可不察也	-11.7642
狄入衛	-11.7643
誅亂臣討賊子	-11.7643
晉侯使士匄來聘	-11.7643
力爭	-11.765
兖州府	-11.7654
濮陽	-11.7655
攜貳	-11.7657
楚人伐徐	-11.7658
為宋討	-11.7659
推尋	-11.7665
司馬子反	-11.7665
單襄公	-11.7671
以諸侯伐	-11.7672
夏后氏	-11.7676
原本	-11.7677
弱公室	-11.7678
夏狄侵齊	-11.7679
鮑氏	-11.768
廬江	-11.7682
忘父	-11.7683
淺深	-11.7689
陵暴	-11.7695
有諸侯之事	-11.7698
刑政	-11.7699
所以著其	-11.7699
朝于楚	-11.7699
稱之曰	-11.7707
義又見隱	-11.7708
應劭曰	-11.771
昭十八年	-11.7711
果何	-11.7714
以諸侯之師伐	-11.7714
以兵加	-11.7717
薨于乾侯	-11.7719
祲	-11.7721
君臣之禮	-11.7721
能保	-11.7722
貜	-11.7724
斛	-11.7725
茀	-11.7726
陈	-11.7726
叔姬來歸	-11.7727
河南府	-11.7728
跨	-11.7728
叔虞	-11.7728
五穀	-11.7729
有詳略	-11.7729
獒	-11.7731
駮	-11.7731
桓宫僖宫	-11.7731
邢遷	-11.7732
演	-11.7733
諉	-11.7734
莊十八年	-11.7734
緣陵	-11.7734
孰甚焉	-11.7734
注及下同	-11.7736
澠	-11.7736
取讙及闡	-11.7737
韙	-11.7737
懟	-11.7739
歴三時	-11.7739
戎伐凡伯	-11.7739
禘于太廟用致夫人	-11.7739
擕	-11.774
閏三月	-11.774
託始	-11.774
先蔑奔秦	-11.7743
庶㡬	-11.7745
晝夜	-11.7746
已滅矣	-11.7747
通鑑	-11.7748
次厥貉	-11.7748
取其國	-11.7748
舉爵	-11.7749
群臣	-11.7749
今江南	-11.775
夾谷之㑹	-11.775
隗氏	-11.7751
遷就	-11.7751
述職	-11.7752
邪説	-11.7754
葬陳哀公	-11.7755
泓之戰	-11.7755
不給	-11.7759
異於他	-11.7759
三命大夫	-11.776
一家之	-11.776
何須	-11.7762
立其弟	-11.7768
春秋備書	-11.777
去籥	-11.777
盟于蔑	-11.777
適嗣	-11.7771
。9.2	-11.7773
公子留	-11.7773
非一人	-11.7776
有所見	-11.7777
變禮	-11.7777
南鄉	-11.7778
得其正	-11.7785
昌府	-11.7787
㑹王世子	-11.7791
非其有	-11.7793
義見隱	-11.7793
此説是也	-11.7794
哀十年	-11.7796
相距	-11.7796
天王之喪	-11.7798
納采	-11.78
則曷爲	-11.78
無貶乎	-11.7804
此類是也	-11.7806
啼	-11.7808
猶足以	-11.7808
正月朔	-11.781
世守	-11.7812
告人曰	-11.7812
寗氏	-11.7815
數十年	-11.7817
忠孝	-11.7818
違天	-11.7822
厯家	-11.7822
焉於䖍反	-11.7822
主書者	-11.7823
棟	-11.7824
葵	-11.7824
郫	-11.7825
馹	-11.7825
祉	-11.7827
綺	-11.7829
廿	-11.7829
四年春王正月公	-11.7829
杏	-11.7829
雨不克葬	-11.7831
弑君而立	-11.7831
虗	-11.7831
春秋之季	-11.7832
不能容	-11.7832
帝嚳	-11.7834
肇	-11.7834
不曉	-11.7834
雉門兩觀	-11.7834
慨	-11.7835
示天下	-11.7836
王札子殺召伯毛伯	-11.7837
彼善於此	-11.7838
𫝑	-11.7838
興滅國繼絶世	-11.7839
口血未乾	-11.7839
蠧	-11.784
取賂而還	-11.7841
㑹于澶淵	-11.7844
范匄	-11.7844
及者内為志	-11.7845
戍虎牢	-11.7845
趙盾弑其君	-11.7846
而不革	-11.7847
甸服	-11.7849
左丘明	-11.7849
分其室	-11.7855
廪丘	-11.7856
勝敗	-11.7858
中國之君	-11.7858
災害	-11.7863
𣏌伯	-11.7866
鞠	-11.7867
二十三日	-11.7869
他本	-11.7873
僣亂	-11.7874
椘人	-11.7874
自鄸	-11.7874
豈肯	-11.7875
.4	-11.7875
在縣西	-11.7876
楚子䖍	-11.788
水土	-11.7881
脩春秋	-11.7881
使大夫盟	-11.7886
楚之與國	-11.7888
言之耳	-11.7891
卿大夫士	-11.7896
趙子曰按	-11.7896
煩諸侯	-11.79
州仇	-11.7903
卿共	-11.7904
楚公子貞	-11.7909
梗	-11.791
矣又何	-11.791
相違	-11.7918
鯈	-11.7924
隠公元年	-11.7924
檜	-11.7925
䋲	-11.7926
日南至	-11.7928
傒	-11.7928
為公族大夫	-11.7928
公卿大夫	-11.7929
贛	-11.7929
夙沙衛	-11.7929
影	-11.7933
從才用反	-11.7933
顙	-11.7935
花	-11.7935
出居于鄭	-11.7935
鉅鹿	-11.7936
至黄乃復	-11.7937
御廩災	-11.7937
書之所以	-11.7939
侵陵	-11.7939
歸粟于蔡	-11.7939
取闞	-11.794
所以抑	-11.794
怵	-11.7941
焚咸丘	-11.7941
藏冰	-11.7942
晉人圍郊	-11.7942
無功而還	-11.7944
不能辨	-11.7944
夫人孫于齊	-11.7945
无所	-11.7946
商頌	-11.7947
弑逆之人	-11.7947
八百乘	-11.7947
永嘉	-11.7948
圍長葛	-11.7949
荀盈	-11.795
修政	-11.795
則不得不	-11.7953
寗母	-11.7956
曰某人	-11.7963
舉號	-11.7963
九月公至自㑹	-11.7963
次止也	-11.7963
宻州	-11.7965
鄭游吉	-11.7966
竊邑	-11.7969
長厯推	-11.7972
丸	-11.7975
春秋之終	-11.7975
適他國	-11.7977
陳哀公	-11.7978
切注同	-11.7978
郭璞曰	-11.7982
曷為或言	-11.7985
』	-11.7991
亂倫	-11.7992
晉侯有疾	-11.7995
書王正月	-11.7996
氣餘	-11.7998
與齊戰	-11.7999
逋	-11.8002
謹始	-11.8002
諸侯不序	-11.8008
迫逐	-11.8009
烏路反	-11.801
祫祭	-11.8013
鄭虎牢	-11.8016
饔	-11.8016
周之正月	-11.8018
曹人邾人	-11.802
好呼報切	-11.8021
芟	-11.8026
即位之初	-11.8026
天下之大惡	-11.8027
韓氏	-11.8029
詬	-11.8029
益衰	-11.803
星辰	-11.803
氐	-11.8031
褐	-11.8032
梓	-11.8032
朔旦冬至	-11.8033
遐	-11.8034
訂	-11.8035
莊三年	-11.8036
摧	-11.8036
既而悔之	-11.8037
舟之僑	-11.8037
㤙	-11.8037
妬	-11.8039
恩義	-11.8039
脇	-11.8041
儼然	-11.8041
戎伐凡伯于楚丘以歸	-11.8041
瓚	-11.8041
降而稱子	-11.8041
亞旅	-11.8041
母兄	-11.8041
齊人殺無知	-11.8042
動大衆	-11.8042
舅姑	-11.8042
欒郤	-11.8042
粢	-11.8044
御廪	-11.8044
同姓之國	-11.8045
不敢違	-11.8045
督揚	-11.8046
及楚人戰	-11.8046
莊十九年	-11.8046
稱族	-11.8048
盟于牡丘	-11.8048
四時之祭	-11.8049
許翰	-11.8049
儀行父	-11.8052
築館	-11.8062
齊侯取鄆	-11.8062
越椒	-11.8067
晉侯問	-11.8068
重輕	-11.8071
周之衰	-11.8072
無愧	-11.8072
見矣左氏曰	-11.8073
之策	-11.8075
容城	-11.8084
諺曰	-11.8087
春無冰	-11.809
殺菽	-11.8094
葬定姒	-11.8106
患難	-11.8107
節制	-11.8107
夫人姜氏㑹齊侯	-11.8109
以伐致	-11.8112
終其身	-11.8113
書其爵	-11.8116
春秋之文	-11.8118
楚邱	-11.812
牛傷	-11.8123
書以示譏	-11.8124
易象	-11.8126
諮	-11.8128
不假道	-11.8129
訥	-11.8129
路史	-11.8129
公孫黒	-11.8129
取二邑	-11.8131
晉荀吳	-11.8132
咮	-11.8132
齊人滅遂	-11.8133
逰	-11.8133
澮	-11.8133
護	-11.8133
介音界	-11.8133
诸侯	-11.8134
囬	-11.8134
榦	-11.8136
𤨏	-11.8136
饜	-11.8136
涼	-11.8136
狐駘	-11.8136
挟	-11.8136
戕鄫子于鄫	-11.8137
隱三年	-11.8138
召伯毛伯	-11.8139
蚡泉	-11.8139
伐楚以救江	-11.8139
棫林	-11.8139
民之所	-11.8139
公羊之說	-11.8139
仲孫羯	-11.814
公子慶父出奔莒	-11.814
以日月為例	-11.814
大雨震電	-11.8141
劉夏逆王后于齊	-11.8142
汸	-11.8142
.5	-11.8142
僖十四年	-11.8142
各不同	-11.8142
敗徐	-11.8142
橐	-11.8142
城小榖	-11.8143
宋公陳侯蔡人衛人伐鄭	-11.8143
應門	-11.8144
雨木冰	-11.8144
于陽穀	-11.8144
杜預以為	-11.8146
有不得已	-11.815
累數	-11.8153
將作亂	-11.8155
王叔桓公	-11.8155
曹伯襄	-11.8156
盟于柯	-11.8157
王僚	-11.8158
蕩澤	-11.8158
其大者	-11.8159
徐戎	-11.8159
負瑕	-11.8161
音泰	-11.8162
變文書	-11.8166
立奚齊	-11.8173
今河南府	-11.8175
三尺	-11.8176
羣廟	-11.8178
降爵	-11.8179
蔑之盟	-11.8179
遷延	-11.818
召陵之㑹	-11.8186
圍費	-11.8188
隠五年	-11.8194
繩證	-11.8195
鞏縣	-11.8196
王政不行	-11.8197
趙嬰	-11.8197
為諼	-11.82
來錫命	-11.8202
潞子	-11.8203
按史記	-11.8203
典命	-11.8203
到得	-11.8207
望祭	-11.8207
夏公至自晉	-11.8214
定五年	-11.822
書于經	-11.8224
杜佑通典	-11.8227
僖七年	-11.8229
敷	-11.8229
驪	-11.8233
嗇	-11.8234
公子嘉	-11.8234
讒人	-11.8235
勁	-11.8235
孑	-11.8235
棟案	-11.8236
絻	-11.8238
扇	-11.8239
葬宋穆公	-11.824
瑜	-11.8241
沴	-11.8241
晏平仲	-11.8242
以妾為妻	-11.8242
大夫無遂事	-11.8242
悌	-11.8243
宋子哀來奔	-11.8245
曹南之盟	-11.8246
秦伯之弟鍼	-11.8246
浹	-11.8246
展禽	-11.8246
有自來矣	-11.8247
晉侯使士鞅來聘	-11.8248
無麥苗	-11.8248
秦師伐晉	-11.8249
留吁	-11.8249
義已見	-11.825
蕭魚之㑹	-11.825
奬王室	-11.8251
以公為	-11.8251
為桓公諱	-11.8253
載馳	-11.8254
屈蕩	-11.8254
賵仲子	-11.8255
君與大夫	-11.8255
圍郈	-11.8258
分公室	-11.8263
九合諸侯	-11.8264
世系	-11.8264
4.2	-11.8265
公孫夀	-11.8266
清原	-11.8272
南逕	-11.8275
誓於天子	-11.8276
有鸜鵒來巢	-11.8277
無棣	-11.8279
百餘里	-11.828
問鼎	-11.8281
國人之所	-11.8281
司厯	-11.8289
交相見	-11.8292
淮水	-11.8293
殺其子	-11.8297
孔父仇牧	-11.8306
故書侵	-11.8306
立叔武	-11.8308
諸侯之兵	-11.831
穆公卒	-11.8314
齊侯伐萊	-11.8317
魯史之舊	-11.8317
魂	-11.832
絳州	-11.8325
為魯諱	-11.8327
又東北	-11.8327
苗裔	-11.8331
歸粟	-11.8333
馴	-11.8333
末流	-11.8334
盡廢	-11.8335
蜮	-11.8337
趙汸補注曰	-11.834
好呼	-11.8343
無麥禾	-11.8343
𢎞農	-11.8344
鄎	-11.8344
襄陽府	-11.8345
包茅	-11.8346
平莒及郯	-11.8346
今開封府	-11.8348
齊侯伐北燕	-11.8348
壬申公朝于王所	-11.8348
叩	-11.835
夫人姜氏會齊侯于	-11.835
用者不宜用也	-11.835
猶朝于廟	-11.835
公子慶父如齊	-11.8351
水逕	-11.8351
息浪	-11.8351
春秋集義卷	-11.8352
陳君舉	-11.8352
陳氏曰傳言	-11.8353
仲子之賵	-11.8355
貨財	-11.8356
詐謀	-11.8357
下注同	-11.8359
冬築郿	-11.8361
戰不言伐	-11.8363
盧蒲	-11.8364
行㑹禮	-11.8365
陽關	-11.8367
都鄙	-11.8369
桓十八年	-11.837
威福	-11.8374
不以其道	-11.8377
史冊	-11.8377
三百六十	-11.8384
宋華亥	-11.8389
太室	-11.8393
與齊平	-11.8395
荀卿	-11.8396
祭公來	-11.8405
浪反	-11.8405
黑背	-11.8406
雖無道	-11.8408
敵體	-11.8414
光州	-11.8433
在乾侯	-11.8434
樂音洛	-11.8438
堇	-11.8438
興衰	-11.8438
蘩	-11.8439
左傳杜林合注卷	-11.844
蚡冒	-11.8441
械	-11.8442
可謂知	-11.8442
慆	-11.8444
非諸侯所	-11.8444
讟	-11.8445
槐	-11.8446
瘳	-11.8446
按周禮	-11.8446
燼	-11.8447
参	-11.8448
羹	-11.8448
冩	-11.8448
瓊	-11.8449
憐	-11.8449
㳂	-11.8449
嚭	-11.845
丹楹刻桷	-11.845
椁	-11.845
縗	-11.8451
主社稷	-11.8451
申無宇	-11.8452
状	-11.8452
不没其實	-11.8453
柏舉之戰	-11.8453
臧孫紇	-11.8453
御叔	-11.8453
卒于鄵	-11.8453
立者不宜立也	-11.8453
遂繼事也	-11.8454
為尊者諱	-11.8454
伐鄭圍新城	-11.8455
内大惡諱	-11.8455
冬蝝生	-11.8456
無駭帥師入極	-11.8456
尊中國	-11.8457
縊而死	-11.8457
初稅畝	-11.8458
詳略	-11.8458
把伯來朝	-11.846
叔詣	-11.8461
宗祧	-11.8463
季歴	-11.8464
魯史舊文	-11.8464
城中丘	-11.8466
蔡侯廬	-11.8467
交剛	-11.8468
魚臺縣	-11.8469
意如至自晉	-11.8469
假借	-11.8469
其言入何	-11.8472
告於廟	-11.8472
緩辭也	-11.8474
三年之䘮	-11.8475
及於難	-11.8477
莫重於	-11.8478
楚公子比	-11.8482
萬舞	-11.8482
十有五	-11.8483
今沂州	-11.8484
讞	-11.8486
形勢	-11.8489
兄弟相	-11.8493
病中國	-11.8496
劉氏敞	-11.8498
乙反	-11.8498
帥師伐鄭	-11.8502
五采	-11.8516
之良也	-11.852
定十二年	-11.8524
爭長	-11.8525
弗遇	-11.8526
莊宫	-11.8531
江北	-11.8536
學士	-11.8537
與楚戰	-11.8544
8.3	-11.8546
十有二年春王正月	-11.8547
元凱	-11.8548
彚	-11.8549
陳氏曰傳見	-11.855
生二子曰	-11.8553
拏	-11.8553
豔	-11.8554
今知不然者	-11.8554
邾子克卒	-11.8556
甲士三人	-11.8557
汴梁路	-11.8557
長轂	-11.8558
華貙	-11.8558
寮	-11.8558
王賜之	-11.8559
鼓用牲于社	-11.8559
汨	-11.8559
公子友如陳葬原仲	-11.8559
再失閏	-11.856
稱國以殺罪累上也	-11.856
豊	-11.856
序齊上	-11.8561
諛	-11.8561
歸邾子益于邾	-11.8562
黿	-11.8564
不郊猶三望	-11.8564
蘇氏轍曰	-11.8564
寶玉	-11.8566
殺之不以其罪	-11.8568
父之命	-11.8573
叔孫輒	-11.8582
8.2	-11.8584
弑殤公	-11.8589
弑兄	-11.859
徃徃	-11.8602
昭二十一年	-11.8612
四國之君	-11.8612
請于王	-11.8616
威權	-11.8622
父子君臣	-11.8626
所傳聞	-11.863
自為盟	-11.8631
孟子所謂	-11.8635
無婁	-11.8637
再赴	-11.8641
恒辭	-11.8646
太宗	-11.8653
情實	-11.8654
奎	-11.8655
涸	-11.8655
執牛耳	-11.8656
孫叔敖	-11.8656
游夏	-11.8657
停	-11.8658
春秋類提要	-11.8659
莵	-11.8659
税畝	-11.8659
戀	-11.866
竪	-11.8662
沉	-11.8663
二句	-11.8663
諸侯遂圍許	-11.8664
臧僖伯	-11.8665
鄍	-11.8666
季姬歸于鄫	-11.8666
猥	-11.8666
繼弑君不言即位	-11.8666
許遷于葉	-11.8666
寰	-11.8666
陛	-11.8666
秦人入鄀	-11.8666
劉蚠	-11.8666
迋	-11.8667
室屋壞	-11.8667
罪累上也	-11.8667
厄	-11.8668
今湖廣	-11.8668
魏錡	-11.867
貫道王氏曰	-11.867
梁丘據	-11.867
雍廩	-11.867
百濮	-11.867
為後戒也	-11.8671
圖婚	-11.8672
長垣縣	-11.8672
布政	-11.8672
臆説	-11.8676
入于曲沃	-11.8678
冕服	-11.8681
原屏	-11.8681
用致夫人	-11.8683
探其	-11.8686
第五	-11.8689
商賈	-11.8691
分入食限	-11.8691
奪嫡	-11.8695
熊通	-11.8696
次于鄫	-11.87
考叔	-11.8702
不得志於	-11.8702
鄭人伐衛	-11.8706
泰伯	-11.8713
夔子	-11.872
公孫黑	-11.8724
不能自立	-11.8725
風姓	-11.8732
㑹于洮	-11.8733
比干	-11.8736
伐盟主	-11.8741
每嵗	-11.8742
豐氏	-11.8743
施舍	-11.8743
脩好	-11.8744
不戰而	-11.8746
明大義	-11.8749
嫡夫人	-11.8752
不返	-11.8753
許悼公	-11.8755
筐	-11.876
器備	-11.8761
中國之衰	-11.8763
㸃	-11.8768
以此言之	-11.8769
凉	-11.8771
攝位	-11.8771
無所據	-11.8771
髙渠彌	-11.8772
于袲伐鄭	-11.8773
恐懼修省	-11.8773
伊雒之戎	-11.8773
羣廟之主	-11.8773
姬姓侯爵	-11.8774
襄八年	-11.8774
孔安國云	-11.8775
雨螽于宋	-11.8775
公與夫人姜氏遂如齊	-11.8776
楚子伐陸渾之戎	-11.8776
莫重乎	-11.8776
晉趙盾帥師救陳	-11.8776
楚之强	-11.8777
添	-11.8777
北宫結	-11.8778
討賊之詞	-11.8778
受脤	-11.8778
不志此其志何也	-11.8778
約束	-11.8779
啖氏助曰	-11.878
嫌疑	-11.8782
某地	-11.8782
齊人來媵	-11.8783
隱四年	-11.879
歳星	-11.8792
四卿並	-11.8794
覲禮	-11.8794
土地人民	-11.8797
穆后	-11.8797
召陵之師	-11.8798
可免	-11.8798
既言之矣	-11.8801
入夷儀	-11.8801
請于天子	-11.8801
潁水	-11.8804
宴樂	-11.8807
懿親	-11.8808
深切著明矣	-11.8809
吳闔廬	-11.881
夏大旱	-11.8813
既盟而	-11.8819
首戴	-11.8819
為國人所	-11.882
大㫖	-11.8823
不言其人	-11.8828
有甚於	-11.883
孫甯	-11.8837
不能庇	-11.884
敗王師	-11.8841
郡治	-11.8844
郭氏	-11.8845
昭十九年	-11.8848
漳水	-11.8856
地在今	-11.8857
尊君命	-11.8859
何以不稱公子	-11.8859
离	-11.8861
鹿鳴	-11.8862
跗	-11.8866
榖梁之説	-11.8866
力足以	-11.8866
沈氏云	-11.8867
癘	-11.8873
欽定四庫全書經部五春秋	-11.8877
縦	-11.8878
炊	-11.8879
逄	-11.888
頥	-11.888
伉儷	-11.8881
閟	-11.8881
譌	-11.8881
與聞乎故	-11.8882
弇	-11.8882
啖氏曰凡	-11.8882
古人有言曰	-11.8882
睔	-11.8883
檀伯	-11.8883
叅	-11.8883
公伐齊納子糾	-11.8884
蒢	-11.8884
齊國夏帥師伐我西鄙	-11.8884
乙未楚子昭卒	-11.8884
乃克葬	-11.8885
佑	-11.8885
令狐之役	-11.8886
莊十二年	-11.8887
方城之外	-11.8887
上無天子下無方伯	-11.8887
君之惠也	-11.8887
㦲	-11.8887
衛人殺州吁	-11.8888
晉人殺欒盈	-11.8888
伊闕	-11.8889
端委	-11.8889
不待貶絶而罪惡見	-11.889
劉氏曰公羊云	-11.8891
新延廏	-11.8891
建亥	-11.8892
孔圉	-11.8892
綱目	-11.8893
暴骨	-11.8894
四時之田	-11.8895
再雩	-11.8895
馴致	-11.8896
倒置	-11.8898
我主之	-11.8899
齊之强	-11.89
詹父	-11.8904
不倦	-11.8905
劉累	-11.8906
皇皇	-11.8914
稟命	-11.8914
小歛	-11.8919
佐上軍	-11.892
吳夫差	-11.8922
至之日	-11.8927
吾先君	-11.8927
邑姜	-11.8931
▁趙氏鵬飛曰	-11.8934
公子遂如齊逆女	-11.8935
而不葬者	-11.8939
▁髙氏閌曰	-11.8943
東虢	-11.8947
適歴	-11.8953
楚商臣	-11.8958
二十有七年	-11.8966
國柄	-11.8967
龍門	-11.8967
吳伐我	-11.8977
今兖州府	-11.898
詩頌	-11.898
堂阜	-11.8983
弑靈公	-11.8984
匠慶	-11.8985
西界	-11.8986
以王父字為氏	-11.8986
春秋分記卷	-11.8991
成周宣榭火	-11.8991
霤	-11.8991
郜大鼎	-11.8992
鄧曼	-11.8992
西安府	-11.8992
核	-11.8992
瞞	-11.8992
濟河焚舟	-11.8993
趙同趙括	-11.8993
草莽	-11.8993
日冬至	-11.8995
韋龜	-11.8996
儋翩	-11.8996
螽螟	-11.8997
歸徳府	-11.8997
王者無外	-11.8998
崤	-11.8999
晉殺其大夫里克	-11.9
五等諸侯	-11.9001
千乘之國	-11.9002
鄭殺其大夫申侯	-11.9002
曲池	-11.9003
有國家者	-11.9008
楚共王	-11.9009
僣號	-11.901
朱毛	-11.9011
公孫無知	-11.9013
三塗	-11.9015
為内諱也	-11.9015
能左右之	-11.9017
退飛	-11.9017
昭六年	-11.9017
追舒	-11.9017
朝王所	-11.9022
千六百	-11.9026
及之者	-11.9026
丘甲	-11.903
郕降	-11.9033
奉君命	-11.9035
晉伐秦	-11.9036
釈例	-11.9037
司宫	-11.9043
在今山東	-11.9045
有奉焉	-11.9045
季辛	-11.9046
駟氏	-11.905
前驅	-11.9053
聖人書之	-11.9055
公至自伐	-11.9056
不能保其	-11.9061
昭二十七年	-11.9063
自絶於	-11.9065
伐同姓	-11.9074
康侯	-11.9081
曲沃伯	-11.9082
笏	-11.9084
追戎	-11.9085
天下無王	-11.9085
煬宫	-11.9087
灵	-11.909
知音智	-11.9094
翣	-11.9095
誅絶	-11.9096
錢	-11.9097
天子方伯	-11.9097
高克	-11.9097
嬀	-11.9098
謀伐宋	-11.9099
櫝	-11.91
爇	-11.9102
熊摯	-11.9102
泝	-11.9102
减	-11.9104
謳	-11.9104
劇	-11.9105
芥	-11.9105
傍	-11.9106
事未畢	-11.9107
窺伺	-11.9107
枝葉	-11.9107
㨿	-11.9108
莒人入向	-11.9108
匹夫匹婦	-11.9108
以地正國	-11.9108
村	-11.9109
以赴書也	-11.9109
晉侯執曹伯歸于京師	-11.911
公孫兹如牟	-11.911
號召	-11.911
專殺大夫	-11.9111
潘崇	-11.9111
鞫居	-11.9112
外取邑不書此何以書	-11.9112
齊師滅譚	-11.9112
程氏端學曰	-11.9113
公㑹晉侯宋公衞侯鄭伯曹伯	-11.9113
辰陵之盟	-11.9114
之總名	-11.9115
三月公如楚	-11.9115
蕩伯姬	-11.9116
張洽	-11.9116
于邢丘	-11.9117
梗陽	-11.9117
月辛丑大	-11.9118
四分公室	-11.9119
圍巢	-11.912
例書名	-11.9126
微㫖	-11.9129
駟帶	-11.913
商密	-11.913
圍其邑	-11.9131
録伯姬	-11.9132
音現	-11.9133
其言歸何	-11.9137
1.2	-11.9137
重之以	-11.9137
齊桓之伯	-11.9139
楚子重伐	-11.915
削弱	-11.9154
前乎此	-11.9159
趙子常	-11.916
及齊師戰	-11.9162
擅相	-11.9173
師及齊師戰	-11.9174
漸進	-11.9182
王之崩	-11.9192
勸善	-11.9193
豈容	-11.9197
駐	-11.9197
紐	-11.9206
牝	-11.9208
釋詁文	-11.921
閠	-11.921
虞師晉師滅下陽	-11.9212
矦	-11.9213
任音壬	-11.9214
父音甫	-11.9216
骸	-11.9218
首章	-11.9219
粲	-11.922
横逆	-11.9221
閒暇	-11.9221
羣蠻	-11.9221
鄠縣	-11.9222
不旋踵	-11.9223
將尊師衆	-11.9223
禹湯	-11.9223
鐡	-11.9223
高郵孫氏曰	-11.9223
趙括	-11.9224
叔孫豹鄫世子巫如晉	-11.9224
田孟諸	-11.9225
尹氏召伯毛伯以王子朝奔楚	-11.9225
壬午猶繹萬入去籥	-11.9225
黍離	-11.9226
求名而不得	-11.9226
以閏數	-11.9227
公伐邾取訾婁	-11.9228
同盟于蟲牢	-11.9228
齊師遷紀郱鄑郚	-11.9229
一分入	-11.9229
如楚乞師	-11.923
妾媵	-11.9231
胷	-11.9232
公孫茲	-11.9232
自此以後	-11.9233
以其君歸	-11.9233
和睦	-11.9242
睢州	-11.9244
閼伯	-11.9249
會于扈	-11.9249
三十有一年	-11.925
之通稱	-11.9252
亟戰	-11.9261
至自乾侯	-11.9268
卷第	-11.9271
檀弓云	-11.9275
杜氏註	-11.9276
三叛人	-11.928
孺	-11.928
未遷也	-11.9281
則無以見	-11.9281
公㑹晉侯宋公	-11.9283
説者以為	-11.9284
㑹于稷	-11.929
而立宣公	-11.9294
十二里	-11.9295
2.3	-11.9297
閭丘	-11.93
夏夫人姜氏如齊	-11.9301
僖十八年	-11.9303
糾合諸侯	-11.9304
本㫖	-11.9309
礼記	-11.9313
蝕	-11.9315
繅	-11.9318
益姑	-11.9319
祈死	-11.9321
場	-11.9322
以討賊之辭	-11.9323
墳	-11.9327
州公如曹	-11.9327
仆	-11.9328
鎭	-11.9328
厉	-11.9332
用夏時	-11.9332
洛誥	-11.9333
燭之武	-11.9333
陸粲曰	-11.9333
别彼列反	-11.9334
曹羈出奔陳	-11.9335
輯睦	-11.9335
王子瑕奔晉	-11.9337
大宰嚭	-11.9337
義又見隠	-11.9337
汰侈	-11.9338
六鷁退飛	-11.9338
髙抑崇曰	-11.9338
公孫敖帥師及諸侯之大夫救徐	-11.9339
蘇轍	-11.9339
伐宋圍緡	-11.9339
遂城郚	-11.9341
宋衛陳鄭	-11.9342
又東南經	-11.9343
陳侯如㑹	-11.9343
故曰春秋成而亂臣賊子懼	-11.9343
冬十月朔日有食之	-11.9344
言於齊侯曰	-11.9344
晉人來媵	-11.9344
所由來	-11.9345
賦詩	-11.9345
月壬寅大	-11.9346
貳于楚	-11.9347
鄭公孫蠆	-11.9348
魯以周公	-11.9354
公監之	-11.9355
衛北宫括	-11.9355
以邑叛	-11.9356
抗衡	-11.9359
士喪禮	-11.9362
如字又音	-11.9363
桐門	-11.9363
弁冕	-11.9373
僭竊	-11.9374
有以致之	-11.9379
送𦵏	-11.9381
月戊寅大	-11.9384
繼弑君	-11.9389
多僚	-11.9392
蔡侯申	-11.9394
不反哭	-11.9395
朝如字	-11.9404
石隕	-11.9404
」	-11.9408
害物	-11.9424
後漢書	-11.9427
孔安國	-11.9436
釡	-11.9441
宣宫	-11.9441
蚡	-11.9441
郁	-11.9443
姆	-11.9443
禆	-11.9444
春秋之末	-11.9444
褊	-11.9445
牒	-11.9445
燭	-11.9445
学	-11.9446
掎	-11.9446
鈹	-11.9446
武王伐紂	-11.9447
儋括	-11.9447
伐英氏	-11.9447
蠢	-11.9447
欽定四庫全書春秋分記卷	-11.9448
圉人犖	-11.9448
貎	-11.945
公歛處父	-11.945
邯鄲午	-11.945
啓蟄而郊	-11.945
闚	-11.945
舊章	-11.9451
逆數至	-11.9451
兌	-11.9451
執齊慶封殺之	-11.9452
男女之别	-11.9452
摩	-11.9453
不足責	-11.9453
楚子鄭人侵陳遂侵宋	-11.9453
鄭世子忽復歸于鄭	-11.9454
詞繁而不殺	-11.9454
初税畝	-11.9454
姒姓	-11.9455
同惡相濟	-11.9455
娶妻	-11.9456
劉子單子以王猛居于皇	-11.9456
單旗	-11.9456
疚	-11.9456
佐中軍	-11.9456
受其咎	-11.9457
孔成子	-11.9458
韓侯	-11.9459
忮	-11.9459
夜半	-11.946
近刑人	-11.9461
不可一日	-11.9461
春秋闕疑卷	-11.9462
褊小	-11.9462
封殖	-11.9464
閨門	-11.9466
照臨	-11.9466
滅偪陽	-11.9473
定無正	-11.9474
曼伯	-11.9477
傾覆	-11.9477
不啻	-11.9478
齊人救邢	-11.9479
二十七日	-11.9481
二十五月	-11.9481
鄭罕達	-11.9482
月庚午大	-11.9485
劉炫以為	-11.9486
東界	-11.9488
中行氏	-11.9493
諸國之大夫	-11.9495
有間矣	-11.9504
冀州	-11.951
戰國時	-11.951
陽闗	-11.9524
滅頓	-11.9528
是㑹也	-11.9529
8.4	-11.9536
僖十七年	-11.9542
罕達	-11.9545
轂	-11.9554
申池	-11.9555
凱	-11.9561
難乃旦切	-11.9561
遞	-11.9563
涑	-11.9564
垢	-11.9564
葭	-11.9564
彈	-11.9565
侔	-11.9565
壞隤	-11.9567
埀	-11.9568
籩豆	-11.9568
揺	-11.9568
鄭滅許	-11.9568
東昌府	-11.9569
嶺	-11.9569
鼷	-11.9569
仲孫何忌及邾子盟	-11.957
龍見而雩	-11.957
鄭伯使其弟語來盟	-11.957
秦人白狄伐晉	-11.957
燧	-11.9571
鄭伯使宛來歸祊	-11.9572
姞姓	-11.9572
楚公子棄疾殺公子比	-11.9573
晉魏曼多帥師侵衛	-11.9573
楚殺其大夫公子壬夫	-11.9573
邾人牟人葛人來朝	-11.9573
鄭及晉平	-11.9575
㓙	-11.9575
桃丘弗遇	-11.9575
其弟云者	-11.9575
濟西之田	-11.9576
單靖公	-11.9577
東萊吕氏曰	-11.9578
江黃	-11.958
師不出	-11.9583
哀十七年	-11.9583
血氣	-11.9586
穀鄧	-11.959
復振	-11.9595
荀偃士匄	-11.9596
無異文	-11.9601
秋公伐邾	-11.9603
強暴	-11.9606
天子之宰	-11.9607
何以不日	-11.9612
十有六	-11.962
恥辱	-11.9621
參譏之	-11.9624
僖二十年	-11.9624
趙鵬飛	-11.9626
.3	-11.9633
岐山	-11.9637
啖子曰凡	-11.9645
簒奪	-11.9649
東逕	-11.9649
殺偃師	-11.965
逞志	-11.9652
倣	-11.9655
與民同	-11.9658
6.2	-11.9672
皇瑗	-11.9674
漢書地理志	-11.9677
適庶	-11.9678
薰	-11.9679
姨	-11.9679
去其族	-11.968
舍音捨	-11.9684
憝	-11.9685
他皆放此	-11.9685
飭	-11.9685
帳	-11.9685
夏時冠周月	-11.9686
番	-11.9686
墉	-11.9688
伍奢	-11.9688
漆閭丘	-11.9688
斧鉞	-11.9688
乳	-11.9688
子結媵陳人之婦于鄄遂及齊侯宋公盟	-11.9688
冬有星孛于大辰	-11.9688
汝寧府	-11.9688
郳黎來	-11.9689
楚殺其大夫得臣	-11.9689
宋師圍曹	-11.9689
澂	-11.9689
八月丁丑夫人姜氏入	-11.969
徼福	-11.969
邾人鄭人伐宋	-11.9691
慶虎慶寅	-11.9692
夏五月丁丑烝	-11.9692
閟宫	-11.9692
公子遂如齊納幣	-11.9693
㑹吳于柤	-11.9693
及陳袁僑盟	-11.9693
撥亂反正	-11.9694
納公孫寧儀行父于陳	-11.9694
齊侯襲莒	-11.9694
槖臯	-11.9694
路寝	-11.9695
一事再見	-11.9695
用大衆	-11.9696
圭璧	-11.9697
蟲牢之盟	-11.9701
支離	-11.9704
秋取根牟	-11.9707
有常度	-11.9709
歸含且賵	-11.971
發喪	-11.9713
一箇	-11.9716
異端	-11.9716
十有八	-11.9717
專恣	-11.9718
長㓜	-11.9723
等差	-11.9724
夷夏之	-11.9725
夏滅項	-11.9726
在其中矣	-11.9727
雞澤之㑹	-11.9727
娶同姓	-11.9727
勸戒	-11.9728
與君同	-11.9729
海内	-11.9736
庫門	-11.9737
至自㑹	-11.9739
從史文	-11.9741
長短	-11.9745
未肯	-11.9749
諺	-11.9749
祭統	-11.9751
三百乘	-11.9752
太子申生	-11.9753
義利之	-11.9758
莊三十一年	-11.9762
晏然	-11.9765
稱疾不	-11.9768
母喪	-11.9769
申吕	-11.9775
趙氏曰凡	-11.978
歸自京師	-11.9786
陳直覲	-11.9795
紆	-11.9795
掘	-11.9797
尔	-11.9798
縢	-11.9798
少詩照反	-11.9799
蘋	-11.9799
蕰	-11.98
貍脤	-11.98
堞	-11.9801
延廐	-11.9801
殲	-11.9802
疢	-11.9803
酸棗	-11.9803
簞	-11.9803
公孫揮	-11.9805
溱	-11.9805
夫人姜氏如莒	-11.9805
優劣	-11.9806
𩔖	-11.9806
䇿勲	-11.9807
隕霜不殺草李梅實	-11.9808
以楚師伐齊	-11.9808
泰誓	-11.9809
㸔	-11.9809
華合比	-11.9809
翠	-11.981
擒	-11.981
次于雍榆	-11.981
鄭忽出奔衛	-11.981
犂彌	-11.981
陳人圍頓	-11.981
翫	-11.981
冬城向	-11.9811
邲之敗	-11.9811
王人子突救衛	-11.9811
綜	-11.9811
吉禘于莊公	-11.9811
僥倖	-11.9812
弋陽	-11.9812
掉	-11.9812
儻	-11.9812
莒弑其君庶其	-11.9813
藏氷	-11.9813
王氏樵曰	-11.9813
邾庶其以漆閭丘來奔	-11.9814
郕降于齊師	-11.9814
昊天	-11.9814
楚人執鄭行人良霄	-11.9815
王氏葆曰	-11.9815
晉陽處父帥師伐楚以救江	-11.9816
郤獻子	-11.9817
尹子單子	-11.9817
三月夫人孫于齊	-11.9817
慈惠	-11.9817
賈佗	-11.9819
内外之辨	-11.982
」,	-11.9823
遂滅偪陽	-11.9824
宿男	-11.9825
謀伐鄭也	-11.9826
目其人	-11.9826
㑹諸侯伐鄭	-11.9832
侯于郕	-11.9833
私愛	-11.9835
十有八年春王正月	-11.9836
度量	-11.9839
楚子入陳	-11.985
月癸酉大	-11.9853
取卞	-11.9854
僅存	-11.9856
月癸丑大	-11.9856
私恩	-11.9857
.1	-11.9857
稱子某	-11.9859
樂豫	-11.986
及公子瑕	-11.9865
畏威	-11.9867
營丘	-11.9869
江淮	-11.9876
何妨	-11.9884
言敗績	-11.9889
婼至自晉	-11.9892
月壬子大	-11.9901
6.3	-11.9903
月庚子大	-11.9906
嘖	-11.9908
𣸪	-11.991
蔡人衛人	-11.9917
隄	-11.9917
捘	-11.9918
䢵	-11.9922
月戊申大	-11.9922
劓	-11.9922
二千五百人	-11.9923
綘	-11.9923
泛	-11.9924
雌	-11.9924
疫	-11.9925
僻陋	-11.9926
之尤者	-11.9928
大衍歴正月	-11.9929
冬城防	-11.993
司馬子魚	-11.993
薛弑其君比	-11.993
聾	-11.9931
錫桓公命	-11.9931
筆削之㫖	-11.9931
曹伯襄復歸于曹	-11.9932
合晉楚之成	-11.9932
天理滅矣	-11.9933
侯犯以郈叛	-11.9934
納頓子于頓	-11.9934
齊人執鄭詹	-11.9934
丁亥楚子入陳	-11.9935
公如齊公至自齊居于鄆	-11.9935
臨川呉氏曰	-11.9936
榖伯綏	-11.9937
杜氏諤曰	-11.9937
衛侯鄭伯曹伯	-11.9938
内為志	-11.9938
險阻	-11.9938
程滑	-11.9939
狄侵我西鄙	-11.9939
瓦屋之盟	-11.9939
洛陽縣	-11.9939
公孫歸父如晉	-11.994
右司馬	-11.994
師于豫章	-11.9941
楚人圍蔡	-11.9944
。8.1	-11.9944
月丙辰大	-11.9945
纂例	-11.9947
嗟夫	-11.9948
祠兵	-11.9955
盗賊	-11.9957
月己酉大	-11.9958
曲禮云	-11.9958
傅氏曰	-11.9963
罪戾	-11.9963
。6.1	-11.9965
州西南	-11.9967
伐莒取鄆	-11.997
歲星	-11.997
單劉	-11.9971
根本	-11.9971
諫曰不可	-11.9973
四寸	-11.9976
月丙子大	-11.9976
有以取之	-11.9977
今改正傳	-11.9977
坊	-11.998
獳	-11.9986
遂城虎牢	-11.9989
月甲戌大	-11.9991
踰境	-11.9994
九月取鄫	-12.0002
功罪	-12.0009
奈	-12.001
胡氏傳案左氏	-12.0014
歸之京師	-12.0021
爕	-12.0031
月丁酉大	-12.0031
尊王命	-12.0032
魂魄	-12.0037
長丁丈切	-12.0038
尹單	-12.0039
懿伯	-12.004
箾	-12.0043
千古	-12.0044
貂	-12.0046
淖	-12.0047
徯	-12.0047
袂	-12.0048
諦	-12.0051
圓	-12.0051
嫳	-12.0052
頻月	-12.0052
齊人來歸子叔姬	-12.0053
潁考叔	-12.0053
府庫	-12.0053
宋蕩伯姬來逆婦	-12.0053
涌	-12.0053
柝	-12.0054
罹	-12.0054
夏公如齊觀社	-12.0055
楚子蔡侯次于厥貉	-12.0055
苗賁皇	-12.0055
公㑹齊侯于濼	-12.0055
衛侯燬	-12.0056
晉楚之從交相見	-12.0057
将卑師少	-12.0057
衛公孟彄帥師伐曹	-12.0057
冬紀侯來朝	-12.0058
以尊及卑	-12.0058
莒慶來逆叔姬	-12.0059
八月甲戌同盟于平丘	-12.0059
不日此何以日	-12.0059
公弟叔肸	-12.006
陳殺其大夫洩冶	-12.006
僖十六年	-12.006
拱手	-12.0061
公至自唐	-12.0062
鄧侯吾離來朝	-12.0062
陽榖之㑹	-12.0062
者鮮矣	-12.0062
驪戎	-12.0062
何以不書葬	-12.0065
恤鄰	-12.0065
曷爲不言	-12.0066
斷道之盟	-12.0067
以賂免	-12.0068
秋蒐于紅	-12.007
㑹盟征伐	-12.007
月辛未大	-12.0072
月癸巳大	-12.0072
戰于郎	-12.0073
公子爕	-12.0075
女栗	-12.0077
誅亂賊	-12.0082
鹿門	-12.0082
應劭	-12.0083
武庚	-12.0088
來㑹𦵏	-12.009
▁陳氏傅良曰	-12.0093
昭二十八年	-12.0095
各為一	-12.0097
宋及楚平	-12.0097
有取焉	-12.01
召陵之盟	-12.0102
討賊之辭也	-12.0105
月丁丑大	-12.0106
侵蔡蔡潰遂伐楚	-12.0106
執戈	-12.011
立子頽	-12.0115
取根牟	-12.0115
京城	-12.0134
盟詛	-12.0135
新鄭縣	-12.0142
麥禾	-12.0149
1.4	-12.0151
局	-12.0167
5.4	-12.0169
綽	-12.017
溠	-12.017
軼	-12.0171
東郭書	-12.0171
莬	-12.0171
厎	-12.0173
饘	-12.0174
擯	-12.0174
扳	-12.0174
蓍	-12.0175
許遷于夷	-12.0176
両	-12.0176
公及戎盟于唐	-12.0177
関	-12.0177
沾	-12.0177
。11.	-12.0178
昬姻	-12.0178
襄二十年	-12.0178
讀舊書	-12.0178
晉趙鞅歸于晉	-12.0178
謨	-12.0178
丁丑作僖公主	-12.0179
䘙	-12.0179
寗俞	-12.018
餌	-12.018
惕	-12.018
秦人來歸僖公成風之襚	-12.018
晉侯夷吾卒	-12.018
楚人敗徐于婁林	-12.018
琮	-12.0181
澶	-12.0181
月乙未大	-12.0181
莊二十九年	-12.0182
紀叔姬歸于酅	-12.0182
肆眚	-12.0182
丙午及荀庚盟丁未及孫良夫盟	-12.0182
衛人伐邢	-12.0182
尊君抑臣	-12.0182
迯	-12.0182
公㑹晉師于瓦	-12.0183
慿	-12.0183
按本例云	-12.0183
邾子來奔喪	-12.0183
為後世鑒	-12.0184
秋有蜚	-12.0185
齊人降鄣	-12.0187
憊	-12.0188
木訥趙氏曰	-12.0188
驂乘	-12.019
放其大夫	-12.019
泗州	-12.019
内史過	-12.0192
夏城中丘	-12.0195
獲罪於	-12.0195
逺邇	-12.0197
1.3	-12.0197
冬十月不雨	-12.0199
袁克	-12.02
朱子語	-12.0204
夫子作春秋	-12.0206
龜隂	-12.0207
盜竊	-12.0208
月己亥大	-12.0221
。9.1	-12.0224
月甲寅大	-12.0225
起文也	-12.0227
精神	-12.023
尊王之義	-12.0235
舅氏	-12.0244
慶舍	-12.0249
嗟乎	-12.0253
褚	-12.0269
嫡嗣	-12.0285
。7.	-12.0287
列國之卿	-12.0287
謹而書之	-12.0288
萑	-12.0294
欣	-12.0296
若此類	-12.0296
7.3	-12.0297
兩楹之間	-12.0298
庖	-12.0298
敗吳師	-12.0299
鏤	-12.03
贈賄	-12.03
餞	-12.03
齡	-12.03
除害	-12.03
隰朋	-12.0301
渴	-12.0301
公伐齊納糾	-12.0302
秣	-12.0303
勵	-12.0303
賑	-12.0305
楚子誘戎蠻子殺之	-12.0305
苞	-12.0305
寐	-12.0305
狐毛	-12.0305
秬鬯	-12.0306
公㑹齊侯于平州	-12.0306
佹	-12.0307
糴茷	-12.0307
鱄設諸	-12.0308
矧	-12.0308
歸父還自晉	-12.0308
豈一朝一夕之故哉	-12.0308
疆戚田	-12.0308
避其號	-12.0309
蕭同姪子	-12.031
祁午	-12.031
切又如字	-12.031
晉人敗狄于箕	-12.0311
6.4	-12.0311
楚人陳侯蔡侯鄭伯許男圍宋	-12.0311
比事而觀	-12.0312
鄭人入滑	-12.0316
秋宋大水	-12.0316
浪	-12.0316
晉人執邾子	-12.0317
敗莒師	-12.0317
月丙申大	-12.0318
不克而還	-12.0318
未適人	-12.032
亮切	-12.0321
敬姒	-12.0323
溴梁之㑹	-12.0323
祈穀	-12.0326
效尤	-12.0327
叔詹	-12.033
吳伐郯	-12.0332
蠻荒	-12.0336
詭諸	-12.0339
金路	-12.0339
養牲	-12.034
月壬辰大	-12.0341
月丁巳大	-12.0346
穆陵	-12.0347
莫大于	-12.0347
州吁無知	-12.0348
之情見矣	-12.0352
天子在是	-12.0352
足恃	-12.0353
太后	-12.0354
月庚寅大	-12.036
經當書	-12.0362
存中國也	-12.0365
盟于辰陵	-12.0376
入泗	-12.039
殘賊	-12.0391
引釋例	-12.0394
豉反	-12.0416
頰	-12.0421
以夫人禮	-12.0424
鈇	-12.0425
穡	-12.0428
鑄刑書	-12.0429
鬛	-12.043
几筵	-12.043
作僖公主	-12.0431
勢益張	-12.0431
罸	-12.0432
用幣于社	-12.0432
㪚	-12.0432
攅	-12.0432
黒臀	-12.0432
敗狄于鹹	-12.0432
維持	-12.0433
玊	-12.0433
網	-12.0433
躡	-12.0433
譎而不正	-12.0434
宋人及楚人平	-12.0434
衛侯燬滅邢	-12.0434
邜	-12.0434
季孫行父帥師城諸及鄆	-12.0435
齊人遷陽	-12.0435
棋	-12.0435
晉荀吳帥師	-12.0435
蔡世子般	-12.0436
齊殺其大夫國佐	-12.0437
天火曰災	-12.0437
世衰道微	-12.0437
外相如	-12.0437
郤芮	-12.0437
弑父與君	-12.0438
餱	-12.0438
九月辛丑用郊	-12.0438
成肅公	-12.0439
宋人衛人入鄭	-12.0439
賓客	-12.044
孟孺子	-12.044
不亦甚乎	-12.044
君氏卒	-12.044
蒲隧	-12.0441
齊人歸公孫敖之喪	-12.0441
鄭世子華	-12.0444
麗姬	-12.0444
門于巢卒	-12.0445
甲辰朔	-12.0447
九月及宋人盟于宿	-12.0447
貫澤	-12.045
鄭人圍許	-12.045
冬州公如曹	-12.045
以建子為	-12.0452
郎之戰	-12.0455
昭三十二年	-12.0455
害稼	-12.0456
晋語	-12.0457
貫之盟	-12.0459
原繁	-12.0461
不至而復	-12.0462
駐師	-12.0464
八寸	-12.0469
鄭之從楚	-12.0472
弑荼	-12.048
葬原仲	-12.0483
諸侯㑹于扈	-12.0486
築宫	-12.0487
逸詩	-12.0491
月庚戌大	-12.0494
朝聘之禮	-12.0507
我欲之	-12.0511
天下之勢	-12.0525
説春秋者	-12.0532
冨	-12.055
月庚申大	-12.055
尓	-12.0551
秬	-12.0554
謡	-12.0556
熸	-12.0556
棄其師	-12.0556
忒	-12.0558
桀紂	-12.0558
抉	-12.0559
曩	-12.0559
东	-12.056
銓	-12.056
叔振鐸	-12.0561
顏	-12.0563
荆敗蔡師于莘	-12.0563
凍	-12.0563
倘	-12.0564
衛師入郕	-12.0564
罄	-12.0565
晉師白狄伐秦	-12.0565
介人侵蕭	-12.0566
師夜遁	-12.0566
城莒父及霄	-12.0566
齊人陳人曹人伐宋	-12.0567
簡車徒	-12.0567
氣餘一千	-12.0567
王使榮叔歸含且賵	-12.0567
昩	-12.0567
司農	-12.0567
楚公子貞帥師救鄭	-12.0567
宻邇	-12.0568
城小穀	-12.0568
元咺訟	-12.0569
豈禮也哉	-12.057
聘且涖盟	-12.057
楚殺其大夫公子申	-12.0571
自天子出	-12.0572
㑹于鄄	-12.0573
方伯之職	-12.058
簒弑之禍	-12.0582
侵我西鄙	-12.0582
容貌	-12.0582
修舊好	-12.0589
虢鄶	-12.0591
雞澤之盟	-12.0594
君臣同辭	-12.0595
芮伯	-12.0597
月戊子大	-12.0598
鄭人侵宋	-12.0599
宋向戍	-12.0601
胡安國	-12.0623
不務徳	-12.0624
月辛丑小	-12.0625
禘于太廟	-12.065
九分入	-12.0652
院	-12.0653
赴於諸侯	-12.0657
及蘇子盟于女栗	-12.0665
抵	-12.0667
5.5	-12.0667
守手又反	-12.0686
北宫括	-12.0689
叱	-12.0689
鸛	-12.0691
温之㑹	-12.0691
管夷吾	-12.0692
綦	-12.0693
未知孰是	-12.0693
儁	-12.0694
輜	-12.0694
琅琊	-12.0695
於越入呉	-12.0695
以蔡侯獻舞歸	-12.0695
不下堂	-12.0696
譚子奔莒	-12.0696
麻隧	-12.0696
獲陳夏齧	-12.0696
魏犫	-12.0696
㒺	-12.0696
陳侯鮑卒	-12.0697
愾	-12.0697
不善之積	-12.0697
季孫斯仲孫何忌	-12.0698
凛	-12.0698
郹	-12.0698
叔孫婼如晉	-12.0699
次于垂葭	-12.0699
阼階	-12.0699
公孫歸父㑹楚子于宋	-12.0699
夏五月日有食之	-12.0699
㛰姻	-12.0699
有王者作	-12.0699
月甲辰大	-12.0699
楚人殺陳夏徴舒	-12.0699
叔弓帥師疆鄆田	-12.07
以自奔為文	-12.07
月甲申大	-12.07
齊侯伐我北鄙圍成	-12.07
自周無出	-12.0701
聲罪致討曰伐	-12.0701
食肉	-12.0701
築臺于薛	-12.0702
執國命	-12.0703
貴戚之卿	-12.0703
志不敬也	-12.0704
月癸酉小	-12.0704
以亂易亂	-12.0705
夏公及宋公遇于清	-12.0706
宋人圍滕	-12.0706
不知自反	-12.0707
覇業	-12.0707
冬十月子卒	-12.071
大夫之專	-12.0711
三之一	-12.0713
司馬司城	-12.0715
盟于翟泉	-12.0716
榮辱	-12.072
人子之	-12.0721
城祝丘	-12.0724
五年一朝	-12.0727
紀鄣	-12.073
召陵之役	-12.0731
不稱小君	-12.074
殺徴舒	-12.074
以示戒	-12.0745
東平州	-12.0746
自是以後	-12.0747
平王崩	-12.0753
如字徐	-12.0763
為鄭所	-12.0776
六分入	-12.0799
箇	-12.0802
五分入	-12.0804
之效也	-12.0807
紘	-12.0807
與楚爭	-12.0811
以璧假	-12.0815
簿	-12.0816
恢	-12.0816
李廵曰	-12.0818
方言云	-12.0818
劌	-12.0819
如字一音	-12.082
殖綽	-12.082
二分入	-12.0821
標	-12.0822
何常之有	-12.0822
監本訛作	-12.0823
寃	-12.0824
舂	-12.0824
十月之交	-12.0826
九月僑如以夫人婦姜氏至自齊	-12.0826
堵敖	-12.0826
畒	-12.0826
秦伯罃卒	-12.0826
四丘為甸	-12.0827
冬城漆	-12.0827
公侯伯子男	-12.0827
城諸及鄆	-12.0828
楚人執徐子	-12.0829
夏五月公四不視朔	-12.0829
公至自圍許	-12.0829
雷電	-12.083
不鼓不成列	-12.083
胡氏安國	-12.083
鮑牽	-12.0831
春秋無義戰	-12.0831
春秋辯義卷	-12.0831
冬宋人取長葛	-12.0831
及晉處父盟	-12.0832
豪	-12.0833
以二事出	-12.0834
葛盧	-12.0834
歸襚	-12.0834
鄆讙龜陰	-12.0834
丹楹	-12.0835
者孰謂謂	-12.0835
華閲	-12.0838
7.2	-12.0839
冬十月雨雪	-12.0842
惡内也	-12.0843
僭稱王	-12.0848
入于蕭	-12.085
鼓于社	-12.0852
陳侯之弟招	-12.0861
蔡昭侯	-12.0862
郈孫	-12.0866
與戎盟	-12.0877
勦民	-12.0878
莊二十六年	-12.0883
車千乗	-12.0892
何益哉	-12.0898
月乙亥大	-12.0904
千八百	-12.0914
七分入	-12.0928
雨螽	-12.0929
國幾亡	-12.0932
凌弱	-12.0933
韠	-12.0933
月丙寅大	-12.0941
.2	-12.0941
掫	-12.0947
胸	-12.0948
使所吏切	-12.0949
不可曉	-12.095
踞	-12.095
畤	-12.0952
労	-12.0955
窋	-12.0955
下及注同	-12.0957
拊	-12.0957
糞	-12.0957
太宰嚭	-12.0959
廬陵李	-12.0959
蔓成然	-12.096
媾	-12.0961
鰥寡	-12.0961
常棣	-12.0961
令力呈反	-12.0962
評	-12.0962
陳人殺其大夫公子過	-12.0963
翻	-12.0963
灑	-12.0963
毁廟之主	-12.0964
璣	-12.0964
欒魴	-12.0965
蔡侯鄭伯㑹于鄧	-12.0965
次于聶北	-12.0965
公狩于郎	-12.0965
卻缺	-12.0965
曽子問	-12.0966
馮翊	-12.0966
秦伯使術來聘	-12.0966
晉人執季孫意如以歸	-12.0967
内無所承上不請命	-12.0967
若贅旒	-12.0967
頓胡沈	-12.0967
薳啟疆	-12.0967
耗	-12.0967
公㑹晉侯齊侯宋公衛侯鄭伯曹伯	-12.0968
冬築郎囿	-12.0969
齊人歸我濟西田	-12.097
三國來媵	-12.097
太皥	-12.097
亡無日矣	-12.097
公以楚師伐齊取榖	-12.0971
戊寅叔孫豹及諸侯之大夫及陳袁僑盟	-12.0971
公至自侵齊	-12.0972
矢魚于棠	-12.0972
欣時	-12.0974
為襄公諱	-12.0975
衛侯入于夷儀	-12.0975
角亢	-12.0975
陳侯之弟黄出奔楚	-12.0976
鴆反	-12.0977
長歴推	-12.0978
進藥	-12.0981
交綏	-12.0982
夏楚人侵鄭	-12.0982
孔父嘉	-12.0983
費誓	-12.0984
公孫敖如齊	-12.0985
散辭也	-12.0988
伐廧咎如	-12.0989
内女嫁	-12.0992
貨賄	-12.0994
人者衆辭	-12.0995
戾氣	-12.0998
夏之正月	-12.1002
顔師古	-12.1009
車一乗	-12.1009
月丁未大	-12.101
今仍之	-12.103
而罪自見	-12.1034
侯獳	-12.1036
月壬午大	-12.1039
月丁酉小	-12.1047
為楚所滅	-12.105
八分入	-12.1055
7.4	-12.1057
苕	-12.1079
是其事也	-12.1079
跣	-12.1082
相息亮切	-12.1083
炙	-12.1088
喚	-12.1091
孕	-12.1092
臨淄縣	-12.1093
貿	-12.1093
大衍厯是年閏	-12.1093
裨	-12.1094
鎛	-12.1094
蝥	-12.1094
食采於	-12.1095
贏	-12.1096
許世子止	-12.1096
自十有二月不雨至于秋七月	-12.1096
魏犨	-12.1097
飴甥	-12.1097
伊洛	-12.1097
夏后氏之璜	-12.1097
僮	-12.1098
羌	-12.1098
坻	-12.1099
壑	-12.1099
塊	-12.1099
鄱陽	-12.11
喬	-12.11
禾稼	-12.11
渠蒢	-12.11
堤	-12.1101
稅畝	-12.1101
春秋集註卷	-12.1101
氣餘二千	-12.1101
馬融	-12.1101
夣	-12.1101
公斂處父	-12.1102
夏六月甲戌朔日有食之	-12.1102
存而不削	-12.1102
伏羲	-12.1102
及齊侯平莒及郯莒人不肯公伐莒取向	-12.1103
夏城郎	-12.1103
講信修睦	-12.1103
丙申公及楚人秦人宋人陳人	-12.1104
三月甲戌取須句	-12.1104
胡子髠沈子逞滅獲陳夏齧	-12.1105
經書月三書日	-12.1105
申繻	-12.1105
公叔戌	-12.1105
日食三十六	-12.1105
雍澨	-12.1106
鄫衍	-12.1106
齊侯使國佐如師	-12.1106
來錫公命	-12.1107
荀庚來聘	-12.1108
赫然	-12.111
春秋正傳卷	-12.1111
祁盈	-12.1114
六佾	-12.1115
月丁亥小	-12.1116
公孫叚	-12.1116
冬王姬歸于齊	-12.1116
晉侯入曹	-12.1118
賦稅	-12.1118
正義曰服虔云	-12.1119
天子之三公	-12.1122
月庚申小	-12.1123
誘而殺之	-12.1124
没而不書	-12.1126
月己未小	-12.1126
王使榮叔	-12.1128
楚師伐陳	-12.1131
3.4	-12.1134
殺三郤	-12.1138
陘庭	-12.114
扶又反	-12.1146
私憾	-12.1147
月丙午大	-12.1154
月癸未小	-12.1168
不能自强	-12.1169
叔孫豹及諸侯之大夫	-12.1172
不行於天下	-12.1173
春王正月公在乾侯	-12.1181
子朝奔楚	-12.1186
仝	-12.1214
七輿大夫	-12.1223
皐	-12.1224
詠	-12.1233
汎	-12.1233
月乙酉大	-12.1235
勘	-12.1236
杵	-12.1236
僃	-12.1236
左袵	-12.1237
蕭叔大心	-12.1238
用天子禮樂	-12.1239
餬	-12.1239
宋公殺其世子痤	-12.124
廢長立少	-12.124
諸侯之義不得專	-12.1241
莒牟夷以牟婁及防兹來奔	-12.1241
叔仲彭生	-12.1242
不近人情	-12.1242
二月伯姬歸于宋	-12.1242
折衷	-12.1243
虎狼	-12.1243
傑	-12.1243
睢陽	-12.1243
曹伯負芻卒于師	-12.1243
不可不慎也	-12.1244
将上軍	-12.1244
晉人殺其大夫先都	-12.1244
勒	-12.1245
秋宋公楚子陳侯蔡侯鄭伯許男曹伯	-12.1246
見上杜註	-12.1247
諸侯之尊弟兄不得以屬通	-12.1247
逆叔姬之喪以歸	-12.1247
刳首	-12.1247
叔孫豹如京師	-12.1251
孝子之心	-12.1251
賦税	-12.1255
把孝	-12.1261
某某	-12.1264
月癸亥大	-12.1265
景王崩	-12.1265
華椒	-12.1266
太原府	-12.1274
月壬戌小	-12.1281
月甲申小	-12.1285
接壤	-12.1289
曷嘗	-12.129
月丙寅小	-12.1294
月丙戌小	-12.1306
2.4	-12.131
可以已矣	-12.1321
春王正月公即位	-12.1345
曷為先言	-12.1346
饔餼	-12.1363
司馬督	-12.1367
樸	-12.1367
月乙巳小	-12.1368
篳	-12.1371
絏	-12.1372
租	-12.1374
甲氏留吁	-12.1376
說春秋者	-12.1377
楚人秦人巴人滅庸	-12.1378
少昊	-12.1378
粥	-12.1379
霆	-12.1379
銅	-12.1379
晉人執戎蠻子赤歸于楚	-12.138
入于北斗	-12.138
月戊戌大	-12.138
不沒其實	-12.138
張趯	-12.1381
内無所承	-12.1381
冄	-12.1381
閏月不告月猶朝于廟	-12.1382
歸父還自晉至笙遂奔齊	-12.1382
昨	-12.1382
月戊午大	-12.1382
討不庭	-12.1382
仲由為季氏宰	-12.1382
陪臣執國命	-12.1382
豳風	-12.1382
鄭游速	-12.1382
天王使仍叔之子來聘	-12.1382
宋衞陳鄭	-12.1383
柔溺	-12.1384
平者成也	-12.1385
夏五月乙未朔日有食之	-12.1385
非本義不録	-12.1385
瑯琊	-12.1385
六月辛未朔日有食之鼓用牲于社	-12.1385
七年春公伐邾	-12.1385
以㑹書也	-12.1386
陳殺其大夫慶虎及慶寅	-12.1386
薳啓彊	-12.1386
月戊辰小	-12.1386
冬十月隕霜殺菽	-12.1387
沈尹戍	-12.1387
夏季孫行父如宋致女	-12.1387
州綽	-12.1388
一娶九女	-12.1388
中行獻子	-12.1388
一年不二君	-12.1389
夏六月庚申	-12.1389
月乙丑大	-12.139
潞子嬰兒	-12.139
郎臺	-12.1392
踐土之㑹	-12.1401
月庚寅小	-12.1403
次于乾侯	-12.1406
由此觀之	-12.1411
月辛亥小	-12.1412
執曹伯畀宋人	-12.1413
于大宫	-12.1436
楚武三十	-12.1442
族譜	-12.1472
而不自知	-12.1507
畛	-12.1508
䢴	-12.151
隤	-12.1513
㧾	-12.1513
堇父	-12.1514
額	-12.1516
耼	-12.1516
囯	-12.1516
仙	-12.1516
櫓	-12.1517
㤗	-12.1517
愁	-12.1518
陳傅良	-12.1519
季隗	-12.152
戱	-12.152
悞	-12.152
銷	-12.1521
行下孟反	-12.1521
乘繩證反	-12.1521
魏曼多	-12.1522
繞角	-12.1522
隈	-12.1522
皇頡	-12.1523
瀦	-12.1523
雕	-12.1523
窕	-12.1523
8《	-12.1523
兗	-12.1524
欑	-12.1524
軹	-12.1524
袝	-12.1524
逃歸不盟	-12.1524
叔肹	-12.1525
褚師圃	-12.1525
皆陳曰戰	-12.1525
人道之大倫	-12.1525
言於晉侯曰	-12.1525
戊寅大夫宗婦覿用幣	-12.1526
夏公追戎于濟西	-12.1526
塞井夷竈	-12.1526
拙	-12.1526
夏師及齊師圍郕郕降于齊師	-12.1526
陳侯之弟招殺陳世子偃師	-12.1527
庭實旅百	-12.1527
其言取之何	-12.1527
陳侯使袁僑如㑹	-12.1527
秋築王姬之館于外	-12.1527
楚屈完來盟于師盟于召陵	-12.1528
壊隤	-12.1528
來省難	-12.1528
叔弓㑹楚子于陳	-12.1528
跖	-12.1528
秋九月楚子圍宋	-12.1529
舉大衆	-12.1529
公孫嬰齊如莒	-12.1529
聖人書此	-12.1529
毛伯來求金	-12.1529
湏句	-12.153
黄氏仲炎曰	-12.153
郕伯來奔	-12.153
漢武帝	-12.1531
俛首	-12.1533
學春秋者	-12.1533
佚賊	-12.1534
甲午晦	-12.1535
楚師滅陳	-12.1535
原圃	-12.1536
接界	-12.1537
鍾儀	-12.1538
亦已甚矣	-12.1539
鄄之㑹	-12.1541
居狄泉	-12.1558
月壬午小	-12.1559
説見前	-12.156
9.5	-12.1562
月乙巳大	-12.1572
月壬寅小	-12.1573
月甲午大	-12.1589
9.4	-12.159
如齊涖盟	-12.1591
疆界	-12.1616
8.5	-12.1618
朝于王所	-12.1631
蘧伯玉	-12.1638
月甲辰小	-12.1647
軍尉	-12.1652
氏别祖	-12.1653
建亥之月	-12.1656
射食亦反	-12.1658
很	-12.1659
蟹	-12.166
第二十	-12.1661
璽	-12.1662
縞	-12.1662
克寛曰	-12.1662
梓愼	-12.1662
墊隘	-12.1664
月戊申小	-12.1664
句瀆之丘	-12.1665
儷	-12.1665
穰	-12.1665
鰥	-12.1665
楚武四十	-12.1665
瞑	-12.1666
胥命于蒲	-12.1666
邯	-12.1666
養由基	-12.1667
鍇	-12.1667
秋晉人敗狄于交剛	-12.1667
駸駸	-12.1667
其能久乎	-12.1667
祟	-12.1668
圜丘	-12.1668
鵒	-12.1668
莒人伐杞取牟婁	-12.1668
敢不承命	-12.1669
蒲騷	-12.1669
可不戒哉	-12.1669
魯秉周禮	-12.167
公㑹齊侯于讙	-12.167
坫	-12.167
胡侍講曰	-12.167
秋大水鼓用牲于社于門	-12.167
九月公至自楚	-12.167
秋七月辛巳豹及諸侯之大夫盟于宋	-12.167
陳留襄邑縣	-12.167
公㑹吳伐齊	-12.1671
冬公如齊納幣	-12.1671
郝仲輿曰	-12.1671
楚人滅舒蓼	-12.1671
齊公子商人弑其君舍	-12.1672
遯	-12.1672
夏六月齊人滅遂	-12.1672
請復季友	-12.1672
蔡衛陳	-12.1673
猶可言也	-12.1673
楚人滅弦弦子奔黄	-12.1674
公孫寧儀行父	-12.1674
爰婁	-12.1674
曹伯莒子邾子頓子胡子滕子薛伯	-12.1674
戰國䇿	-12.1674
未詳是否	-12.1674
姑姊	-12.1675
弑君簒國	-12.1675
三月紀伯姬卒	-12.1675
殺世子母弟	-12.1676
子蔡侯陳侯鄭伯許男徐子滕子頓子胡	-12.1676
二十年春新作南門	-12.1677
秋七月公至自伐鄭	-12.1677
鮑文子	-12.1677
復歸于衛	-12.1677
始封之君	-12.1678
春秋集解卷	-12.1679
七月而葬	-12.1679
7《	-12.1681
8.6	-12.1688
承上文	-12.1688
范武子	-12.1689
朔餘一千	-12.1694
月辛酉大	-12.1697
諸侯之邦交	-12.1704
月癸未大	-12.1708
月甲子大	-12.171
月庚辰大	-12.171
首止之㑹	-12.1717
是興師而	-12.1726
臺榭	-12.1729
幣帛	-12.1735
月己亥小	-12.1759
服大功	-12.1775
月庚午小	-12.1775
月壬申小	-12.1802
覯	-12.1802
傅遜曰	-12.1803
郰	-12.1805
碏	-12.1807
曾子問	-12.181
芋尹	-12.1811
蒿	-12.1811
廼	-12.1811
頂	-12.1812
冬公子友如陳	-12.1812
仲山甫	-12.1812
臧哀伯	-12.1813
近附近之近	-12.1813
興滅繼絶	-12.1813
焦瑕	-12.1813
綸	-12.1814
曹公孫㑹自鄸出奔宋	-12.1814
嬰兒	-12.1814
不腆先君之	-12.1814
彗星	-12.1815
徐吾氏	-12.1815
士吉射	-12.1815
衞人立晉	-12.1815
熹	-12.1815
文之昭也	-12.1815
槁	-12.1816
冬叔弓如楚	-12.1816
宗婦覿用幣	-12.1816
仲遂卒于垂	-12.1817
聨	-12.1817
八月公至自伐楚	-12.1817
月下辛卜	-12.1817
義形於色	-12.1817
公孫敖如莒涖盟	-12.1817
冬徐伐莒	-12.1818
微而顯	-12.1818
禮樂征伐自諸侯出	-12.1818
忤	-12.1819
一時不雨	-12.1819
晉人宋人齊人陳人蔡人秦人盟于翟泉	-12.1819
易樹子	-12.1819
月己巳小	-12.182
何以書記異也何異爾	-12.182
斲	-12.182
薳啓疆	-12.1821
孔頴達	-12.1821
晉荀林父帥師伐陳	-12.1821
頰谷	-12.1821
黒肱以濫來奔	-12.1821
請平于晉	-12.1822
以累上之辭言之	-12.1822
乾時之戰	-12.1822
技	-12.1822
公子遂如宋	-12.1823
夏鄭人侵許	-12.1823
驂乗	-12.1823
垂戒後世	-12.1823
六月宋師伐滕	-12.1824
秋公子遂叔孫得臣如齊	-12.1824
夏許男新臣卒	-12.1826
殽之戰	-12.1828
曲濮	-12.1828
叔老如齊	-12.1829
周公出奔晉	-12.1835
月戊午小	-12.1836
晉師伐秦	-12.1841
公子弃疾	-12.1842
外為志	-12.1869
繼事之辭	-12.1904
北三十里	-12.1931
雨雹	-12.1933
月乙酉小	-12.1938
月甲戌小	-12.1941
月丙戌大	-12.1942
入春秋以來	-12.1951
建酉之月	-12.1951
平畤	-12.1952
説音悦	-12.1953
喪息浪反	-12.1954
月壬戌大	-12.1955
儋	-12.1956
醇	-12.1957
鼈	-12.1957
寅吉射	-12.1957
刲	-12.1958
蠭	-12.1958
斝	-12.1958
豢	-12.196
嫉	-12.196
腐	-12.196
蘄	-12.196
牛羊豕	-12.1961
躁	-12.1961
禋	-12.1962
言日不言朔	-12.1962
拓	-12.1962
裨竈	-12.1962
救台遂入鄆	-12.1963
玉帛之使	-12.1963
豫凶事	-12.1963
湛露	-12.1963
翹	-12.1963
晉侯使郤錡來乞師	-12.1964
駿	-12.1964
鄭衆云	-12.1965
日至而畢	-12.1965
訓詁	-12.1966
曹伯廬卒于師	-12.1967
延州來季子	-12.1967
以費叛	-12.1967
月癸亥小	-12.1967
方岳之	-12.1967
雞鳴	-12.1967
夫槩王	-12.1968
禮樂征伐自天子出	-12.1968
朔餘二千	-12.1968
傎	-12.1968
四年春正月公狩于郎	-12.1968
夏五月甲午遂滅偪陽	-12.1968
宋人齊人楚人盟于鹿上	-12.1969
昃	-12.1969
掇	-12.1969
兆域	-12.1969
父子之親	-12.197
滕子來㑹葬	-12.197
遂滅賴	-12.197
夏五月宋人及楚人平	-12.1971
齊成故也	-12.1971
欒鍼	-12.1971
禦寇	-12.1973
祸	-12.1974
夾輔	-12.1974
冬浚洙	-12.1974
二月公侵宋	-12.1974
三月公如京師	-12.1975
敗蔡師	-12.1977
莘老	-12.1978
三月作丘甲	-12.198
頫	-12.1981
扶持	-12.1983
為天下記異	-12.1983
楚武二十	-12.1987
師之梁	-12.1987
月己丑小	-12.2007
1.5	-12.2032
月己酉小	-12.204
月戊子小	-12.208
斟灌	-12.2086
月庚辰小	-12.2089
釜	-12.2094
馬一匹牛三頭	-12.2098
食音嗣	-12.2103
而規杜氏非也	-12.2104
悝	-12.2105
月甲午小	-12.2106
俑	-12.2107
邈	-12.2111
聿	-12.2111
治直吏	-12.2111
扄	-12.2111
焞	-12.2112
棘櫟麻	-12.2112
爛	-12.2113
歸諸京師	-12.2113
偉	-12.2113
恠	-12.2113
絡	-12.2113
輓	-12.2114
公叔文子	-12.2114
晉人執我行人叔孫婼	-12.2114
闊	-12.2114
汗	-12.2114
冲	-12.2115
犆	-12.2115
虛朾	-12.2115
婺女	-12.2115
皋鼬	-12.2116
㢘	-12.2116
不能防閑其母	-12.2116
遫	-12.2116
耽	-12.2116
丞相	-12.2116
冬十月壬午楚師滅陳	-12.2117
冬戎侵曹	-12.2117
夏四月陳災	-12.2118
存亡繼絶	-12.2118
鬷戾	-12.2119
秦伯稻卒	-12.2119
酷	-12.2119
不與諸侯專封也	-12.2119
灋	-12.2119
滅赤狄潞氏	-12.2119
八月庚辰宋公和卒	-12.2119
鄐	-12.212
茨	-12.212
晉人執莒子邾子以歸	-12.212
㑹吳于鍾離	-12.212
犧牲玉帛	-12.212
蔡陳許	-12.2121
暌	-12.2121
紀裂繻來逆女	-12.2121
齊侯使國佐來聘	-12.2121
君漏言	-12.2121
冬十月王子猛卒	-12.2122
仲孫蔑如宋	-12.2123
夏師救齊	-12.2123
犧牲	-12.2126
獄訟	-12.2126
以酅入齊	-12.2128
其文則史	-12.2128
臯鼬之盟	-12.213
武夷胡氏傳案左氏	-12.2133
郊而望	-12.2135
士蔿	-12.2136
中國無霸	-12.2137
月丁亥大	-12.2137
十二月癸亥	-12.2149
此四者	-12.2153
王朝公卿	-12.2155
不足書也	-12.2181
齊景四十	-12.2189
月甲子小	-12.219
封丘縣	-12.2192
月甲寅小	-12.2196
月庚子小	-12.2224
鄭文二十	-12.2237
千二百	-12.224
月丁丑小	-12.2242
㱕	-12.2245
月之朔	-12.2249
蔀	-12.2249
齊侯侵我西鄙遂伐曹入其郛	-12.2253
阡	-12.2254
公壻池	-12.2261
一統志	-12.2261
未同盟而赴以名	-12.2262
塴	-12.2262
蚠	-12.2263
郾	-12.2263
摘	-12.2264
頷	-12.2264
訽	-12.2265
高渠彌	-12.2266
旰	-12.2266
子産相鄭伯	-12.2266
苻	-12.2267
黽	-12.2267
縋	-12.2269
楊士勛	-12.227
或名或不名	-12.227
辛未季孫行父卒	-12.227
公孫敖如京師不至而復丙戌奔莒	-12.227
卒哭而祔	-12.2271
正月己卯烝	-12.2271
有虞氏	-12.2271
九年春紀季姜歸于京師	-12.2271
公孫敖㑹晉侯于戚	-12.2271
荆敗蔡師	-12.2271
夏四月丁未公及鄭伯盟于越	-12.2272
祕	-12.2272
廄	-12.2272
猶愈於	-12.2272
徒人費	-12.2272
又南經	-12.2272
特相㑹	-12.2273
聖人作經	-12.2273
冬十月伯姬歸于紀	-12.2273
夏宋華弱來奔	-12.2273
既盟之後	-12.2273
楚殺其大夫公子追舒	-12.2273
夏五月王子虎卒	-12.2274
茇	-12.2274
以邾子益來	-12.2274
八月戊辰同盟于馬陵	-12.2274
諸侯不再娶	-12.2274
秋七月壬午公及齊侯鄭伯入許	-12.2274
二十有八年春王三月	-12.2275
唯君圖之	-12.2275
仲孫速帥師伐邾	-12.2275
餙	-12.2275
三月庚戌天王崩	-12.2276
滕侯薛侯來朝	-12.2276
刻桓宫桷	-12.2277
㑹于北杏	-12.2277
十有三年春王正月	-12.2277
叔孫州仇如齊	-12.2277
八月叔孫豹帥師救晉次于雍榆	-12.2277
臼季	-12.2278
秋八月公及齊侯盟于落姑	-12.2278
不可曠年無君	-12.2278
無麥苖	-12.2278
采桑	-12.2279
已而不已	-12.228
缺文也	-12.2282
[...]
