<unk>	0
<s>	0
</s>	0
/	-3.24728
)	-3.43076
(	-3.45003
之	-3.88601
也	-4.02421
而	-4.47298
以	-4.77456
者	-4.78023
則	-4.79767
)(	-5.01257
為	-5.01422
不	-5.0822
其	-5.0971
故	-5.20217
有	-5.25135
於	-5.46574
人	-5.54921
爲	-5.69639
無	-5.7044
謂	-5.86005
言	-5.86558
曰	-5.87062
與	-5.87644
矣	-5.95429
事	-5.95994
一	-6.01
君	-6.06354
此	-6.06616
必	-6.11494
民	-6.15748
行	-6.18533
所	-6.18548
令	-6.20426
能	-6.2118
乃	-6.28963
上	-6.29182
非	-6.30366
國	-6.31007
使	-6.31206
臣	-6.32103
下	-6.35813
得	-6.37716
▁	-6.39931
大	-6.40062
夫	-6.42931
見	-6.4469
知	-6.45649
用	-6.45796
出	-6.48373
子	-6.49839
法	-6.49932
至	-6.5011
是	-6.52188
因	-6.53585
皆	-6.53774
生	-6.55881
故曰	-6.57365
時	-6.58017
明	-6.5894
乎	-6.5962
若	-6.59658
自	-6.62206
王	-6.62836
主	-6.63824
三	-6.64423
治	-6.67564
道	-6.68272
可	-6.68763
既	-6.69007
今	-6.70302
中	-6.71328
已	-6.72082
正	-6.73564
欲	-6.74464
當	-6.75557
官	-6.77651
公	-6.78635
利	-6.78995
將	-6.79013
死	-6.79369
在	-6.80963
雖	-6.82072
相	-6.82591
後	-6.83045
重	-6.83375
立	-6.87288
從	-6.88605
焉	-6.89406
名	-6.89541
吏	-6.90248
亦	-6.90617
失	-6.90654
地	-6.92799
然	-6.92958
而不	-6.94017
取	-6.94147
又	-6.95013
同	-6.97269
如	-6.99729
旣	-7.00564
二	-7.00794
反	-7.01361
理	-7.01443
五	-7.01736
遂	-7.0225
德	-7.02635
心	-7.02796
不能	-7.04894
多	-7.05687
天下	-7.05832
善	-7.06336
所以	-7.0772
按	-7.08039
舉	-7.09214
物	-7.09341
者也	-7.09485
○	-7.10967
不可	-7.11075
賞	-7.11808
士	-7.12027
殺	-7.12193
服	-7.1461
成	-7.14649
四	-7.14691
及	-7.1471
兵	-7.14921
水	-7.15619
徳	-7.15723
入	-7.16494
家	-7.1678
齊	-7.17015
外	-7.17302
先	-7.17422
盡	-7.17729
衆	-7.18002
數	-7.18486
常	-7.18559
作	-7.18958
内	-7.20605
日	-7.22147
本	-7.22779
刑	-7.23118
去	-7.2318
即	-7.2326
身	-7.2355
食	-7.23804
分	-7.23866
功	-7.24066
以為	-7.24938
安	-7.26015
且	-7.26102
長	-7.26246
問	-7.26439
易	-7.27732
處	-7.2814
政	-7.28485
信	-7.28607
教	-7.28655
亂	-7.29084
惡	-7.29228
毋	-7.30057
親	-7.30553
實	-7.31934
何	-7.32816
私	-7.33347
請	-7.33547
制	-7.33685
天	-7.3447
貴	-7.35887
未	-7.36781
勝	-7.36907
凡	-7.37024
小	-7.37525
賢	-7.37576
不得	-7.38658
彼	-7.38943
守	-7.39898
亡	-7.39915
力	-7.40601
吾	-7.40897
止	-7.41111
聞	-7.41536
我	-7.41727
文	-7.41877
强	-7.42169
姦	-7.42293
州	-7.42333
禁	-7.42389
過	-7.42446
復	-7.42717
智	-7.43267
或	-7.43457
難	-7.43482
母	-7.44059
居	-7.44304
逺	-7.45206
罪	-7.45212
固	-7.45949
任	-7.4647
猶	-7.48074
桓公	-7.48412
輕	-7.48723
愛	-7.48829
義	-7.48861
馬	-7.49013
危	-7.49021
績按	-7.49063
威	-7.49416
求	-7.49676
周	-7.49676
乘	-7.49848
諸侯	-7.50226
發	-7.50828
戰	-7.51821
謀	-7.53435
來	-7.53979
書	-7.54146
通	-7.54688
十	-7.55144
榖	-7.55206
命	-7.55504
百	-7.55967
世	-7.56313
意	-7.56998
云	-7.57
修	-7.57337
鄉	-7.5911
卒	-7.59561
傷	-7.60686
于	-7.62559
可以	-7.63446
平	-7.6369
獨	-7.63713
合	-7.63994
財	-7.64038
髙	-7.65053
疑	-7.65058
歸	-7.65231
足	-7.65396
盜	-7.65797
傳	-7.66194
盗	-7.66911
耳	-7.67025
害	-7.67029
敎	-7.67212
藏	-7.67242
脩	-7.67621
前	-7.67687
變	-7.68128
是以	-7.68987
察	-7.69383
宜	-7.69755
聽	-7.7035
進	-7.70466
神	-7.70703
富	-7.70791
稱	-7.70965
䏻	-7.71255
起	-7.71492
動	-7.72198
敗	-7.72525
禮	-7.73072
是故	-7.73851
執	-7.73903
女	-7.74223
方	-7.74722
尊	-7.75527
說	-7.75534
誅	-7.757
和	-7.75753
辭	-7.75916
田	-7.7635
斷	-7.76671
縣	-7.769
異	-7.77893
告	-7.78158
虚	-7.78174
勢	-7.78227
六	-7.7878
務	-7.78843
之所	-7.78884
管仲	-7.79367
始	-7.79843
罰	-7.80411
甚	-7.80696
定	-7.81075
山	-7.81149
權	-7.81928
樂	-7.81928
車	-7.82059
乗	-7.82165
疾	-7.82609
其所	-7.83441
致	-7.83585
流	-7.83912
間	-7.84505
説	-7.85396
順	-7.85611
近	-7.85675
受	-7.86281
門	-7.86791
形	-7.86973
好	-7.87123
伐	-7.87793
百姓	-7.8804
哉	-7.88529
眀	-7.89492
農	-7.89535
将	-7.89664
少	-7.89883
視	-7.91156
具	-7.9132
不敢	-7.91642
攻	-7.92145
仁	-7.92514
論	-7.92775
陳	-7.92891
畏	-7.93016
秦	-7.93155
然後	-7.93168
適	-7.93528
敵	-7.93704
度	-7.93745
軍	-7.93861
賊	-7.93937
爭	-7.94311
坐	-7.94422
往	-7.94646
兩	-7.95147
賤	-7.95239
趙	-7.95422
彊	-7.95718
巳	-7.96019
設	-7.96746
(○	-7.97282
直	-7.97549
氣	-7.9842
患	-7.98881
情	-7.99041
收	-7.99163
置	-7.99368
金	-7.99799
左右	-8.00022
城	-8.00063
唯	-8.00229
節	-8.00866
不知	-8.01125
計	-8.01725
父	-8.01957
朝	-8.02293
化	-8.02383
屬	-8.02458
所謂	-8.02521
魏	-8.02629
聴	-8.02656
位	-8.02697
更	-8.0326
聖人	-8.03404
陽	-8.03688
應	-8.03787
衣	-8.0414
張	-8.04143
各	-8.04145
禍	-8.04498
飾	-8.04675
土	-8.05179
粟	-8.05186
觀	-8.05328
年	-8.05428
語	-8.05548
術	-8.05612
交	-8.05645
厚	-8.05663
則民	-8.05677
議	-8.05952
大夫	-8.06034
隂	-8.06153
廢	-8.06423
責	-8.07292
師	-8.07445
極	-8.07463
不足	-8.079
靜	-8.08061
婦	-8.08062
獄	-8.08161
美	-8.08315
妻	-8.08468
存	-8.0886
急	-8.09124
召	-8.09248
離	-8.0941
舎	-8.09667
恐	-8.09781
客	-8.09824
備	-8.10072
九	-8.10259
邪	-8.10283
怨	-8.10443
養	-8.10627
莫	-8.10819
器	-8.10974
糓	-8.11113
字	-8.11187
強	-8.12106
七	-8.12999
弱	-8.13092
己	-8.13129
於是	-8.13191
工	-8.13289
魯	-8.13323
終	-8.13343
益	-8.13423
后	-8.13575
市	-8.13719
比	-8.13787
君之	-8.1397
而無	-8.13991
嵗	-8.13993
辯	-8.14059
争	-8.14096
施	-8.14104
附	-8.14289
諸	-8.14564
但	-8.15374
忠	-8.15585
里	-8.16023
載	-8.16205
人之	-8.16353
韓	-8.16607
也夫	-8.16769
謂之	-8.1698
對曰	-8.17084
塞	-8.17359
籍	-8.17783
楚	-8.17788
持	-8.18315
果	-8.18924
也故	-8.18972
懼	-8.19354
勞	-8.19376
資	-8.1947
深	-8.19914
怒	-8.20371
宋	-8.20483
游	-8.21125
萬物	-8.21369
禄	-8.21416
别	-8.21438
釋	-8.21646
▁(	-8.21722
絶	-8.21739
狀	-8.2182
閒	-8.22055
俱	-8.22282
審	-8.22614
貧	-8.22644
白	-8.22648
一人	-8.22785
右	-8.23007
加	-8.23097
使人	-8.23185
伏	-8.23568
木	-8.23571
冝	-8.23662
春	-8.24284
音	-8.24357
敬	-8.24363
無所	-8.24397
穀	-8.2445
也今	-8.24499
然則	-8.24564
南	-8.24885
被	-8.25133
等	-8.25148
府	-8.2528
茍	-8.26346
散	-8.2645
體	-8.26543
歲	-8.26628
遺	-8.2722
息	-8.27323
苦	-8.27616
犯	-8.27772
决	-8.28014
囚	-8.28116
聖	-8.28702
武	-8.28841
有所	-8.28867
誣	-8.2925
人主	-8.29455
解	-8.29509
萬	-8.2952
口	-8.29562
卑	-8.29594
薄	-8.29841
喜	-8.29908
歳	-8.29929
者必	-8.30216
廣	-8.30339
而後	-8.30371
嘗	-8.30533
隨	-8.30865
火	-8.30941
久	-8.31139
寡	-8.31189
八	-8.31215
毁	-8.31364
色	-8.31559
古	-8.31934
之事	-8.32046
之道	-8.32056
原	-8.32332
晉	-8.326
商	-8.32735
滿	-8.32783
賞罰	-8.32792
暴	-8.33014
窮	-8.33099
精	-8.33169
夜	-8.33298
老	-8.33404
目	-8.33466
巧	-8.33495
冬	-8.3361
勸	-8.33706
操	-8.34002
爵	-8.34291
推	-8.34427
聚	-8.34587
布	-8.34645
郷	-8.34743
澤	-8.3475
決	-8.35051
其事	-8.35134
慮	-8.35346
待	-8.35449
還	-8.3552
不以	-8.35644
引	-8.35676
寡人	-8.35796
唐	-8.3598
對	-8.36644
室	-8.36768
之士	-8.37022
退	-8.37406
案	-8.37592
汝	-8.37764
遇	-8.3807
羣臣	-8.38259
嚴	-8.38357
荆	-8.38433
石	-8.38475
此之謂	-8.38857
淫	-8.39214
之人	-8.39226
為之	-8.39527
憂	-8.40027
首	-8.40627
逆	-8.40711
國之	-8.40805
僧	-8.40867
徒	-8.40923
譽	-8.41529
乆	-8.41568
辟	-8.4167
興	-8.42213
聲	-8.4231
此謂	-8.42406
詐	-8.42958
夏	-8.43026
虛	-8.43117
堅	-8.43228
惠	-8.43265
殺之	-8.43277
開	-8.43646
免	-8.43963
天子	-8.44086
君子	-8.44691
移	-8.448
偽	-8.45003
代	-8.45059
錢	-8.45114
貨	-8.45137
如此	-8.45963
餘	-8.45991
走	-8.46066
便	-8.46305
就	-8.46313
辨	-8.46593
共	-8.47052
草	-8.475
積	-8.47791
東	-8.47995
知其	-8.48085
索	-8.48129
習	-8.48331
圖	-8.48384
太	-8.48464
鄭	-8.48777
舊	-8.49013
静	-8.49033
宻	-8.4913
黄	-8.49169
恃	-8.4985
謹	-8.50179
要	-8.50294
破	-8.50309
之所以	-8.50312
滅	-8.50327
削	-8.50452
專	-8.50532
初	-8.50825
敢	-8.50928
足以	-8.51913
經	-8.52077
簡	-8.52639
不可以	-8.52756
李	-8.52789
氏	-8.52832
風	-8.5284
元	-8.53061
牛	-8.53068
勇	-8.53216
容	-8.53706
管子對曰	-8.53709
霸	-8.53861
尚	-8.53897
月	-8.54036
公曰	-8.54436
郡	-8.54505
豈	-8.5468
愼	-8.54729
蔽	-8.54871
北	-8.54988
㑹	-8.55725
邑	-8.55861
聼	-8.56033
列	-8.56184
耶	-8.56438
捕	-8.56687
類	-8.56843
寃	-8.56853
民之	-8.56874
天地	-8.56877
不用	-8.56932
良	-8.57009
慎	-8.57127
大臣	-8.57175
材	-8.57701
志	-8.57921
著	-8.58043
惟	-8.58093
他	-8.58156
至於	-8.5822
父母	-8.58243
全	-8.58467
訟	-8.58518
一曰	-8.58549
業	-8.58564
病	-8.58621
都	-8.58741
驗	-8.58887
博	-8.58889
約	-8.58908
愚	-8.58965
誠	-8.59158
曲	-8.5924
手	-8.59253
隱	-8.59382
是也	-8.59945
除	-8.6005
燕	-8.60217
舍	-8.60338
半	-8.60398
賜	-8.60605
用之	-8.60739
顯	-8.60939
章	-8.60973
勿	-8.61029
覆	-8.61307
予	-8.61378
職	-8.61591
盖	-8.61727
侵	-8.61847
使民	-8.61903
奉	-8.62036
學	-8.62148
帝	-8.62273
蓋	-8.62333
貪	-8.62518
并	-8.62605
救	-8.62697
越	-8.62715
耕	-8.6274
役	-8.62755
奪	-8.62779
期	-8.62862
獲	-8.6296
象	-8.63024
左	-8.63373
法令	-8.63398
留	-8.63519
不為	-8.63653
衡	-8.64053
徃	-8.6415
欺	-8.6436
鄰	-8.64785
兼	-8.64938
桓公曰	-8.65171
秋	-8.65287
參	-8.65623
末	-8.65978
儀	-8.66779
従	-8.67299
其人	-8.67501
並	-8.67501
弟	-8.67805
懐	-8.68067
不如	-8.68184
負	-8.68243
識	-8.68278
與之	-8.68529
避	-8.68747
御	-8.68778
質	-8.6879
甲	-8.69005
寶	-8.69043
新	-8.69063
千	-8.69089
某	-8.69122
㳺	-8.69137
樹	-8.69243
之數	-8.69254
爾	-8.69494
承	-8.70073
驕	-8.70108
於君	-8.7041
奚	-8.70448
悉	-8.70475
擅	-8.70511
每	-8.70904
假	-8.71359
俗	-8.71365
指	-8.71402
酒	-8.71731
人君	-8.71734
衛	-8.71829
有功	-8.71829
故能	-8.71948
宣	-8.72024
困	-8.72449
壤	-8.72517
寳	-8.72569
榮	-8.72622
以其	-8.72677
倍	-8.72738
願	-8.73056
古之	-8.73506
量	-8.73509
由	-8.73588
江	-8.7404
寒	-8.74238
黨	-8.74382
其身	-8.74468
状	-8.74482
衰	-8.7464
也故曰	-8.75048
訴	-8.75058
赦	-8.75377
之心	-8.75415
思	-8.7556
省	-8.75596
幣	-8.75815
徴	-8.76085
之時	-8.76089
折	-8.76136
望	-8.76144
素	-8.76168
孝	-8.76209
連	-8.76211
於上	-8.7633
孫	-8.76472
給	-8.76824
司	-8.76922
妄	-8.76958
輕重	-8.77233
明主	-8.77384
飲	-8.77584
罷	-8.77623
許	-8.77638
端	-8.77713
損	-8.77854
結	-8.78015
隠	-8.78084
追	-8.7815
羣	-8.78466
封	-8.78643
其君	-8.7969
逃	-8.79751
盛	-8.79803
如此者	-8.79816
委	-8.79851
㣲	-8.79899
均	-8.79928
西	-8.7993
申	-8.80418
莫不	-8.80446
報	-8.80843
天下之	-8.80901
上下	-8.80929
高	-8.81244
託	-8.81278
其民	-8.81488
行之	-8.81676
叅	-8.81735
冨	-8.81753
鹽	-8.81869
濟	-8.81903
婦人	-8.82055
五榖	-8.82067
考	-8.82378
不失	-8.8245
之道也	-8.82592
幸	-8.82647
先王	-8.82995
以爲	-8.83012
之功	-8.83405
玉	-8.83595
清	-8.83708
賦	-8.83764
子之	-8.83782
扵	-8.83789
紀	-8.8383
雖有	-8.8417
之國	-8.8515
費	-8.8518
宫	-8.85305
之法	-8.85533
賢者	-8.85601
公子	-8.85692
竊	-8.85747
績	-8.85753
萬民	-8.85792
稅	-8.85823
来	-8.85895
惑	-8.86232
循	-8.86685
使之	-8.86825
湯	-8.87004
竭	-8.8702
一日	-8.87192
切	-8.87348
之民	-8.87488
宿	-8.87575
刑罰	-8.87608
效	-8.87628
貌	-8.87673
刼	-8.87713
殺人	-8.87758
校	-8.87761
得其	-8.87801
𫝊	-8.87897
葢	-8.87907
妾	-8.87998
虎	-8.88073
人臣	-8.88106
於人	-8.88364
授	-8.88368
昔者	-8.88496
死者	-8.88523
不行	-8.88743
振	-8.88957
賈	-8.8908
不勝	-8.89375
虞	-8.89692
海	-8.89769
梁	-8.89771
臨	-8.89867
宗	-8.89929
必有	-8.89977
刀	-8.90003
堯	-8.90047
不見	-8.905
則是	-8.90519
殆	-8.90837
弊	-8.91004
者所以	-8.91146
弗	-8.91152
不當	-8.91252
路	-8.91267
而求	-8.9143
送	-8.91609
擊	-8.91728
管子	-8.91873
遣	-8.91905
辱	-8.92005
税	-8.92039
胡	-8.92118
助	-8.92121
卿	-8.92125
爵禄	-8.92654
者不	-8.92996
次	-8.93052
社稷	-8.93478
向	-8.94179
微	-8.94233
造	-8.94262
卷	-8.94856
棄	-8.95135
有餘	-8.95196
號	-8.95304
其妻	-8.95718
逐	-8.96013
丗	-8.96104
此言	-8.96133
者其	-8.96337
輔	-8.96429
羙	-8.96474
録	-8.96488
密	-8.96505
舜	-8.9651
防	-8.96519
飬	-8.9652
誤	-8.96522
奏	-8.96545
會	-8.96576
何也	-8.97138
無私	-8.97179
知之	-8.97188
須	-8.97261
戒	-8.97321
太子	-8.97572
王者	-8.97866
夷吾	-8.98002
飢	-8.98095
則無	-8.98253
戮	-8.98275
記	-8.98284
伯	-8.98465
射	-8.98489
閉	-8.98681
光	-8.98708
尉	-8.98721
率	-8.98733
表	-8.98743
者幾何人	-8.98755
買	-8.98851
牧	-8.98903
忘	-8.98927
明日	-8.9967
故不	-8.99724
者皆	-9.00082
王之	-9.00241
侯	-9.00306
於天下	-9.00459
十二	-9.00826
厲	-9.00888
二人	-9.00907
寛	-9.0096
豐	-9.00999
稽	-9.01003
者可亡也	-9.01196
壌	-9.01262
斬	-9.01271
革	-9.0136
事之	-9.01409
父子	-9.01503
調	-9.01809
其子	-9.01825
三日	-9.01838
人也	-9.01846
人有	-9.01919
緩	-9.02064
仁義	-9.02448
不從	-9.02855
君臣	-9.03025
之罪	-9.03123
篇	-9.03173
為人	-9.03267
補	-9.03384
祿	-9.03386
縁	-9.03458
細	-9.03473
累	-9.0352
雨	-9.03568
是謂	-9.03577
有司	-9.03605
紂	-9.03748
管子曰	-9.04185
斯	-9.04532
饑	-9.0465
賣	-9.04723
况	-9.04781
筴	-9.04929
鮑叔	-9.05363
者則	-9.05452
憲	-9.05452
匿	-9.05554
治之	-9.05561
恱	-9.05839
再	-9.05841
斂	-9.05909
呼	-9.06068
夀	-9.06221
不及	-9.06354
二十	-9.06393
違	-9.0679
利也	-9.06835
其國	-9.06952
詔	-9.07611
伍	-9.07909
注	-9.07944
徐	-9.07968
呉	-9.07998
智者	-9.08149
劒	-9.08316
踰	-9.0835
偷	-9.08379
桓公曰何謂	-9.08381
圍	-9.08454
劾	-9.0846
讎	-9.08469
放	-9.08497
忽	-9.08498
輙	-9.08569
不肖	-9.08799
而民	-9.08846
之地	-9.09026
産	-9.09746
如此則	-9.09777
則國	-9.09822
曹	-9.09937
之情	-9.10004
聞之	-9.10153
以成	-9.10275
讓	-9.10351
顧	-9.10356
寵	-9.10468
者非	-9.10469
奈何	-9.10569
則君	-9.10654
愈	-9.10726
陵	-9.10864
雜	-9.109
歛	-9.10922
苟	-9.10926
河	-9.10934
而有	-9.10936
魚	-9.1094
供	-9.10945
佚	-9.10954
之行	-9.10983
典	-9.10984
遷	-9.10987
律	-9.11006
肉	-9.11035
枉	-9.11135
集	-9.114
出於	-9.1156
履	-9.11601
於外	-9.1164
矜	-9.11743
見本	-9.12039
遠	-9.12076
堯舜	-9.12346
所欲	-9.1235
仲	-9.13025
得之	-9.13092
池	-9.1313
然后	-9.13218
竒	-9.13331
鬼神	-9.13494
壅	-9.13635
徙	-9.13639
仕	-9.13645
贓	-9.1374
弃	-9.14179
杖	-9.1432
之言	-9.14393
曰吾	-9.14436
黃	-9.14444
侈	-9.14768
諸侯之	-9.14837
福	-9.15011
鍾	-9.15091
示	-9.15098
諫	-9.15264
趨	-9.15373
以此	-9.15374
莫敢	-9.15807
而不能	-9.15935
充	-9.16013
而立	-9.16146
傅	-9.16168
畢	-9.16239
感	-9.16329
莊	-9.16343
騐	-9.16365
王曰	-9.16366
到	-9.16398
不治	-9.16882
泄	-9.1703
則有	-9.17167
事也	-9.17433
不明	-9.17548
此皆	-9.17565
其主	-9.17711
失其	-9.17722
改	-9.18034
依	-9.1847
野	-9.18617
草木	-9.18764
史	-9.18887
孤	-9.18972
險	-9.18975
登	-9.19002
塗	-9.19061
縱	-9.19081
荒	-9.19092
臺	-9.19092
寧	-9.19106
熟	-9.19164
詳	-9.19166
春秋	-9.19195
而欲	-9.19424
而好	-9.19656
姓	-9.19677
笑	-9.19798
不足以	-9.1987
矣故	-9.20321
在於	-9.2047
昔	-9.2096
不然	-9.21056
泉	-9.21108
哀	-9.21124
吳	-9.21172
則必	-9.21186
亦不	-9.21343
以待	-9.21374
特	-9.21383
如是	-9.21418
於民	-9.21653
繫	-9.21716
譎	-9.21777
仲父	-9.21791
祭	-9.21893
宰	-9.21895
什	-9.21936
獻	-9.21938
徧	-9.2194
悦	-9.21976
闗	-9.21993
劫	-9.22028
其家	-9.22097
選	-9.22153
而已	-9.22187
則亂	-9.22608
服罪	-9.2282
治也	-9.23187
户	-9.23195
不同	-9.23202
亂也	-9.23397
亟	-9.23432
畜	-9.23685
不聽	-9.23761
疏	-9.23966
則人	-9.24046
治民	-9.2411
准	-9.24468
征	-9.24562
完	-9.24738
華	-9.24758
觧	-9.24816
接	-9.24837
幾	-9.24866
者何也	-9.24883
關	-9.24901
總	-9.24934
崇	-9.24946
度量	-9.25089
於國	-9.25185
貸	-9.25696
問曰	-9.25814
人皆	-9.2613
寄	-9.2643
曰此	-9.2662
國家	-9.26715
誰	-9.26822
舊集不載	-9.27295
生於	-9.2741
據	-9.2747
隂陽	-9.27665
昌	-9.27743
第	-9.27782
凢	-9.27838
倉	-9.27854
随	-9.27897
旅	-9.27904
廉	-9.27918
贖	-9.27921
純	-9.27932
壽	-9.27932
冦	-9.27938
道之	-9.27946
淵	-9.27977
専	-9.28006
不服	-9.28382
五官	-9.2888
尸	-9.28962
之患	-9.29508
可謂	-9.29542
取其	-9.3021
理也	-9.30349
而成	-9.30393
談	-9.30435
四方	-9.30538
二曰	-9.30566
屋	-9.30777
者王	-9.3078
部	-9.30783
各有	-9.3081
夷	-9.30914
庸	-9.3099
故明法曰	-9.3099
青	-9.31056
甘	-9.31113
日月	-9.31129
喻	-9.31131
醉	-9.31213
迹	-9.31376
而行	-9.31548
問之	-9.31581
矣夫	-9.3169
三年	-9.31714
桀紂	-9.31901
小人	-9.3197
不相	-9.3212
主之	-9.32169
疑之	-9.32267
為天下	-9.32471
上之	-9.32779
君不	-9.32996
其道	-9.33196
䟽	-9.3322
干	-9.33236
無敵	-9.3378
屍	-9.33781
齊國	-9.33949
凶	-9.3395
詭	-9.33984
漢	-9.3412
廩	-9.34222
季	-9.34257
領	-9.34261
空	-9.34278
薦	-9.3428
限	-9.34331
借	-9.34351
其意	-9.34369
兄弟	-9.34378
符	-9.34391
廟	-9.34391
殘	-9.34406
少年	-9.34408
兄	-9.34495
姦邪	-9.34573
恭	-9.34799
而去	-9.34942
莫之	-9.35079
之臣	-9.35104
正也	-9.35118
見其	-9.35254
法也	-9.35336
民無	-9.35487
鼓	-9.35515
其功	-9.35646
行也	-9.35672
而得	-9.35805
尹	-9.35805
無以	-9.35835
懷	-9.35859
是非	-9.36164
盡力	-9.36208
爲天下	-9.36435
㡬	-9.36456
事者	-9.3671
法而	-9.3673
慶	-9.36762
煩	-9.36767
天道	-9.36918
轉	-9.36933
序	-9.37173
亷	-9.37219
不察	-9.37256
泣	-9.37272
運	-9.37288
龜	-9.37436
㓜	-9.37478
仇	-9.37519
儉	-9.37574
境	-9.37582
保	-9.37582
隣	-9.37585
佐	-9.37597
建	-9.37599
楊	-9.37602
咸	-9.37603
仲尼	-9.37604
収	-9.37606
凌	-9.3761
浮	-9.37611
況	-9.37624
駕	-9.37642
䡄	-9.37678
條	-9.37689
鬼	-9.37791
無不	-9.37803
所撰	-9.37826
太守	-9.37938
誅之	-9.38012
無有	-9.38031
試	-9.38128
不必	-9.3853
弑	-9.3882
人情	-9.38837
羽	-9.39048
有常	-9.39106
人者	-9.39176
於下	-9.39219
耳目	-9.39221
三曰	-9.39283
四時	-9.39666
法者	-9.39668
以法	-9.39924
庭	-9.39964
遽	-9.39996
二子	-9.40038
人主之	-9.40154
畫	-9.40161
其情	-9.40287
錯	-9.40533
背	-9.40613
甞	-9.40617
繁	-9.40618
不通	-9.40951
喪	-9.41012
禹	-9.4102
真	-9.41027
所撰墓誌	-9.41031
席	-9.41042
谷	-9.41042
所惡	-9.41048
帥	-9.41051
龍	-9.41086
遵	-9.41112
歟	-9.41123
誘	-9.41128
郭	-9.4113
趣	-9.412
京	-9.41201
希	-9.41202
古者	-9.41204
其名	-9.41275
訊	-9.4137
否	-9.41428
故也	-9.41728
擒	-9.41937
貴賤	-9.42125
一國	-9.42315
其罪	-9.42553
從之	-9.42754
十日	-9.43172
之謂	-9.43196
證	-9.43223
種	-9.43354
側	-9.43436
擇	-9.43439
臣下	-9.43572
令人	-9.43574
通於	-9.43589
未嘗	-9.43697
景	-9.43714
不至	-9.43857
使者	-9.44066
在上	-9.44241
三者	-9.44249
不聞	-9.4425
最	-9.44252
其言	-9.44401
孰	-9.44496
無常	-9.44518
監	-9.44597
達	-9.44653
血	-9.4469
鬬	-9.44701
嫗	-9.44704
竟	-9.4473
皮	-9.44731
缺	-9.44768
詰	-9.44772
人不	-9.44841
輿	-9.44865
桀	-9.45044
不善	-9.45157
而已矣	-9.45437
究	-9.45769
百官	-9.45915
今夫	-9.46151
民有	-9.4652
性	-9.46652
民也	-9.46912
富者	-9.47126
忍	-9.47217
察之	-9.47643
見之	-9.47684
與其	-9.47747
墨	-9.47765
不爲	-9.47856
號令	-9.4787
舟	-9.47926
寺	-9.48188
督	-9.48237
味	-9.48264
取之	-9.48266
不禁	-9.48293
刃	-9.48324
戸	-9.48325
鄰國	-9.48326
鳥	-9.48326
壞	-9.48385
畧	-9.48385
襲	-9.48401
姑	-9.48401
銀	-9.48411
劵	-9.48413
䘮	-9.48496
蕭	-9.48514
甲兵	-9.48596
生也	-9.48836
文公	-9.48927
於身	-9.49033
肅	-9.49335
不可得也	-9.49466
哀公	-9.49516
未必	-9.49734
迎	-9.50124
詣	-9.50206
守之	-9.50314
泰	-9.50354
君人者	-9.50636
成功	-9.5075
之謂也	-9.50881
無功	-9.50949
不聴	-9.51121
而死	-9.51139
為人臣者	-9.51283
智能	-9.51425
投	-9.51447
用其	-9.51574
小白	-9.51586
祖	-9.518
事君	-9.51898
距	-9.5195
幼	-9.51964
㢘	-9.52007
武王	-9.52055
丞	-9.52062
慕	-9.52062
大者	-9.52081
刻	-9.52084
川	-9.52097
慢	-9.52107
林	-9.52112
弓	-9.52121
育	-9.52142
驚	-9.52147
燭	-9.52152
闕	-9.52165
諭	-9.52171
赴	-9.52175
恵	-9.52197
讐	-9.52199
忿	-9.52216
脱	-9.52239
狗	-9.52242
丘	-9.52242
濫	-9.52263
頭	-9.52265
矯	-9.52265
若干	-9.52379
故民	-9.5252
人之所	-9.52576
此三者	-9.52687
故其	-9.52705
明君	-9.52729
制也	-9.5287
論其	-9.53073
利害	-9.53156
不信	-9.53278
之狀	-9.53383
境内	-9.53395
德也	-9.53541
遊	-9.53552
其母	-9.53811
爲之	-9.53896
憎	-9.53918
衆人	-9.54093
朋黨	-9.54097
察其	-9.5416
必知	-9.54366
之理	-9.54399
招	-9.54515
其利	-9.5456
何謂	-9.54702
其臣	-9.54976
掩	-9.55034
無事	-9.55081
不可得	-9.55101
矢	-9.5514
而復	-9.55404
衆而	-9.55437
法術	-9.55457
葉	-9.55488
貞	-9.55572
三月	-9.55611
築	-9.55612
兒	-9.55785
吉	-9.55874
而下	-9.55938
之至	-9.56065
速	-9.56139
沒	-9.5614
湏	-9.56155
藉	-9.56169
料	-9.56174
飛	-9.56188
僞	-9.56197
雪	-9.56201
靡	-9.56207
舉目	-9.56215
馳	-9.56238
拘	-9.56245
旁	-9.56247
亊	-9.56249
角	-9.56287
靖	-9.56299
拜	-9.56333
之意	-9.56346
忠臣	-9.56366
從事	-9.56387
叔孫	-9.5644
殊	-9.56451
恩	-9.56607
重人	-9.56681
人心	-9.56753
而出	-9.56971
數日	-9.57064
人臣之	-9.57145
官爵	-9.57205
於此	-9.57646
利而	-9.57712
富貴	-9.57843
時有	-9.5798
成也	-9.58148
鼔	-9.5819
不在	-9.5829
男	-9.58487
恥	-9.58643
覺	-9.58987
其上	-9.59043
黒	-9.59139
自然	-9.59537
其法	-9.59542
虧	-9.59676
脫	-9.59764
束	-9.59839
曽	-9.59943
横	-9.59951
根	-9.60112
叔	-9.60121
珠玉	-9.60156
萌	-9.60212
㝷	-9.60229
規	-9.60231
侮	-9.60247
劉	-9.60263
友	-9.60275
溝	-9.6029
宅	-9.60296
賀	-9.60322
禱	-9.60332
延	-9.60345
貫	-9.60373
倚	-9.60377
哭	-9.60382
檢	-9.60383
鬭	-9.60386
鐘	-9.6041
輒	-9.60419
略	-9.60434
也是以	-9.60436
葬	-9.6044
必不	-9.60619
賢不肖	-9.60635
旦	-9.60675
舉事	-9.60694
三人	-9.60803
千里	-9.60817
者有	-9.60851
故人	-9.60895
飲食	-9.61006
不成	-9.61099
其心	-9.61176
而使	-9.61457
族	-9.61541
盡心	-9.61561
伏罪	-9.61574
援	-9.6159
中山	-9.61666
重於	-9.61877
圉	-9.61935
於法	-9.61978
夫人	-9.61991
天地之	-9.61993
故聖人	-9.62417
慈	-9.62714
落	-9.6274
有罪	-9.63065
子産	-9.63224
庶	-9.63306
則上	-9.63482
鈎	-9.63566
為君	-9.63766
之實	-9.63845
勉	-9.63987
詰之	-9.64003
君也	-9.64193
親戚	-9.64343
欲以	-9.64352
壹	-9.64419
衍	-9.64444
故有	-9.64511
孔子	-9.64516
屈	-9.6456
逮	-9.64618
殷	-9.64627
獸	-9.64629
踈	-9.64635
環	-9.64635
毎	-9.6464
降	-9.64655
械	-9.64662
訾	-9.64666
噐	-9.64675
擁	-9.64703
隆	-9.64709
規矩	-9.64725
割	-9.64729
却	-9.64731
撃	-9.64734
縛	-9.64758
寢	-9.64775
桓	-9.64798
與人	-9.64806
詠	-9.64812
帶	-9.64835
海内	-9.64878
挾	-9.64908
君曰	-9.64977
知伯	-9.65014
不䏻	-9.65077
親之	-9.65326
信也	-9.65379
有善	-9.65515
禮義	-9.65524
不受	-9.65754
不忍	-9.65911
宥	-9.65974
之術	-9.6607
文王	-9.66075
所以為	-9.66082
法度	-9.66092
亦有	-9.66527
所愛	-9.66583
何如	-9.6694
無形	-9.67058
禽獸	-9.67081
於地	-9.67165
以備	-9.67177
其本	-9.67411
以致	-9.67456
必以	-9.67485
之於	-9.67662
以治	-9.67847
好惡	-9.67958
出令	-9.68011
胥	-9.68309
者謂之	-9.68483
民者	-9.68568
山澤	-9.68598
堂	-9.68711
僕	-9.68725
用事	-9.68738
式	-9.68799
以相	-9.68821
未有	-9.68935
程	-9.68947
恕	-9.69137
謗	-9.69147
騎	-9.69161
賢而	-9.69184
孟	-9.69184
柔	-9.69185
諌	-9.69186
拔	-9.69196
驅	-9.69197
糺	-9.69201
𬒳	-9.69211
叛	-9.69213
㫁	-9.69257
萬人	-9.6926
臧	-9.69262
刄	-9.69269
毆	-9.69273
迷	-9.69273
尋	-9.69277
采	-9.69286
季孫	-9.69303
廪	-9.69306
陸	-9.69309
薪	-9.69315
何不	-9.69375
犀首	-9.6939
繋	-9.69392
若此則	-9.69399
勝之	-9.69438
邊	-9.69542
簡公	-9.69605
從而	-9.69721
則不	-9.69751
萬物之	-9.70131
善者	-9.70219
之間	-9.70274
之術也	-9.70541
弟子	-9.70591
之本也	-9.70598
道也	-9.7067
告之	-9.7068
孝子	-9.70738
曰夫	-9.71027
山之	-9.71062
曰我	-9.71067
而止	-9.71083
鮑叔曰	-9.71095
不眀	-9.71147
視之	-9.71266
認	-9.71405
而自	-9.71453
有過	-9.71582
繩	-9.71608
二者	-9.71615
恤	-9.71826
六畜	-9.71907
之吏	-9.71947
納	-9.71956
頗	-9.72018
而食	-9.72034
井	-9.72085
之官	-9.72268
求之	-9.72539
亡也	-9.72548
襄	-9.72839
有私	-9.73046
朝廷	-9.73103
大而	-9.73255
死而	-9.73259
營	-9.73274
辜	-9.73441
罪人	-9.73454
明也	-9.73483
苛	-9.73548
孔	-9.73575
其能	-9.73575
桓公問於管子曰	-9.73626
厭	-9.73649
其下	-9.73683
湯武	-9.73697
柄	-9.73749
盡其	-9.7379
不能自	-9.73794
臣聞	-9.73808
付	-9.73849
沈	-9.73876
米	-9.73899
倒	-9.73899
轡	-9.73902
尤	-9.73928
徵	-9.73954
搏	-9.73959
蓄	-9.73963
麻	-9.73974
重也	-9.73977
兹	-9.73979
照	-9.73991
奮	-9.73991
可得	-9.73997
䇿	-9.74004
悲	-9.74004
凖	-9.74021
兆	-9.74026
歴	-9.74028
露	-9.7403
優	-9.74031
狂	-9.74034
償	-9.74059
奔	-9.74067
畆	-9.74071
骨	-9.74075
偃	-9.74085
灰	-9.74111
郎中	-9.74228
五十	-9.74241
揚	-9.74353
進退	-9.74356
衣服	-9.74362
民不	-9.74374
也若	-9.74692
城郭	-9.74738
則民不	-9.74766
枝	-9.7485
不救	-9.74882
財物	-9.74915
不與	-9.75077
事而	-9.75122
無道	-9.75125
司馬	-9.75147
弗能	-9.75197
則治	-9.75278
貲	-9.75425
乃令	-9.75609
先生	-9.75662
差	-9.75729
而亂	-9.76083
禽	-9.76174
毒	-9.76287
可知也	-9.76346
問其	-9.76432
也且	-9.76466
貳	-9.7661
曰君	-9.76709
軌	-9.76825
知也	-9.76861
勝敵	-9.76878
實也	-9.76962
也然	-9.77015
故先王	-9.77241
得其情	-9.77372
卜	-9.77398
治者	-9.77804
亦無	-9.7796
其勢	-9.78137
齒	-9.78137
之政	-9.78152
咎	-9.78558
忌	-9.78559
亮	-9.78562
其私	-9.78715
撰	-9.78781
尺	-9.7882
冶	-9.7883
余	-9.78838
廷	-9.78849
虜	-9.78859
才	-9.78896
予之	-9.78901
莒	-9.78905
穴	-9.78909
然也	-9.78918
僇	-9.78929
夢	-9.78954
杞	-9.7896
壊	-9.78964
十年	-9.78965
昏	-9.78969
牆	-9.78975
釡	-9.78984
絲	-9.78985
杜	-9.7899
邦	-9.78992
活	-9.78993
㧞	-9.79017
弋	-9.79017
似	-9.79034
虗	-9.79036
摶	-9.79046
彘	-9.79048
巨	-9.79052
詞	-9.79059
隙	-9.79063
造父	-9.79067
為姦	-9.79078
栁	-9.79136
懲惡	-9.79168
十里	-9.79293
也凡	-9.79323
賢人	-9.79425
相與	-9.79971
其父	-9.80001
用力	-9.80118
故善	-9.80177
以求	-9.80293
此四者	-9.80314
外内	-9.80375
以利	-9.80473
其所以	-9.80587
十餘	-9.8059
管仲對曰	-9.80728
用也	-9.80742
立法	-9.80805
可得而	-9.8085
人則	-9.80933
籍於	-9.81179
知州	-9.81338
之後	-9.81349
躁	-9.81364
肥	-9.81366
而國	-9.81422
此其	-9.81615
昭	-9.81905
鞫	-9.82007
黨與	-9.82338
不可使	-9.82548
疑其	-9.82559
治國	-9.82628
管仲曰	-9.8263
守法	-9.82653
使其	-9.82701
訊之	-9.8274
之計	-9.82767
不亂	-9.82846
姦臣	-9.8288
皆以	-9.83027
民力	-9.83056
維	-9.83296
若夫	-9.83515
其後	-9.83692
曰寡人	-9.83733
此二者	-9.83768
逺者	-9.83773
賂	-9.83825
戚	-9.83908
餓	-9.8401
所在	-9.84012
不能以	-9.84076
鄙	-9.84104
桓公曰諾	-9.84106
傑	-9.84151
衞	-9.84153
沉	-9.84158
鎮	-9.84181
準	-9.84194
漏	-9.84197
鼎	-9.84216
不死	-9.84219
判	-9.84223
勤	-9.8423
拙	-9.8423
茂	-9.84233
偏	-9.84235
裁	-9.84238
敦	-9.84264
飯	-9.84266
幽	-9.84278
滋	-9.8428
枯	-9.84284
藥	-9.84298
厯	-9.8432
抱	-9.8432
舊不著	-9.84323
契	-9.84336
謝	-9.84338
黄帝	-9.84356
御史	-9.84389
聰	-9.84435
犬	-9.84468
三十	-9.84491
變化	-9.84538
黄金	-9.84753
壯	-9.84795
仁也	-9.84841
縣令	-9.84925
為非	-9.84965
何以	-9.85056
義也	-9.85117
敵國	-9.8522
人曰	-9.85382
有三	-9.8544
仰	-9.85566
如是則	-9.85814
人無	-9.85952
聖王	-9.86093
休	-9.86157
既而	-9.86594
齊王	-9.86771
明法	-9.86801
水之	-9.8692
而上	-9.8693
之師	-9.87306
出入	-9.87422
則羣臣	-9.87467
有天下	-9.87564
其智	-9.87689
為一	-9.8773
曰子	-9.8783
績按言	-9.87968
本傳	-9.88024
有道	-9.88073
謁	-9.88184
有大	-9.88245
道者	-9.88359
不肖者	-9.88443
不復	-9.88477
祀	-9.88599
徑	-9.88736
不待	-9.88928
請以	-9.88981
撫	-9.89038
則主	-9.89069
若是	-9.89314
荆王	-9.89365
偶	-9.8942
遁	-9.89451
彌	-9.89502
或曰	-9.89511
矣是故	-9.89566
介	-9.89593
宗廟	-9.89652
圓	-9.8966
以事	-9.89723
羞	-9.89723
樸	-9.89723
嘉	-9.89728
昭侯	-9.89733
克	-9.89737
輩	-9.89781
植	-9.89784
陷	-9.89785
揺	-9.89795
痛	-9.89795
字誤	-9.898
輸	-9.89808
闇	-9.89814
疎	-9.89817
韓非子卷	-9.89823
減	-9.89835
謟	-9.89838
不任	-9.89842
不足則加	-9.89852
搆	-9.89853
肆	-9.89855
凡此皆	-9.89867
醫	-9.89867
竝	-9.89879
汚	-9.89881
併	-9.89896
潛	-9.8991
權衡	-9.8996
韓魏	-9.89963
豫	-9.89984
紙	-9.90021
姓名	-9.90077
愛民	-9.90077
丞相	-9.90081
難也	-9.90174
故明主	-9.90221
乗馬	-9.90236
其在	-9.90357
襄子	-9.90367
多少	-9.90388
雖不	-9.90422
則下	-9.90527
為善	-9.90533
人所	-9.90566
衣食	-9.90586
悔	-9.90645
以刑	-9.9073
者也故	-9.90882
七十	-9.909
豈能	-9.90963
其黨	-9.91031
若何	-9.91084
明於	-9.91143
皆有	-9.91215
為國	-9.91251
貴而	-9.91287
世主	-9.91287
之類	-9.91288
多者	-9.91454
數也	-9.91558
増	-9.91605
兵弱	-9.91643
國治	-9.91664
不使	-9.91679
晏子	-9.91693
以自	-9.91699
行私	-9.91701
不聼	-9.91776
之利	-9.91801
親也	-9.91828
景公	-9.9198
而主	-9.92018
出處	-9.9205
此乃	-9.92061
後漢	-9.92205
焚	-9.92213
又有	-9.92271
則臣	-9.92316
百萬	-9.92543
後世	-9.92547
其夫	-9.92556
而不知	-9.92557
而無私	-9.92584
說者	-9.9261
以告	-9.92718
怪	-9.92738
民之所	-9.92765
莫如	-9.92814
候	-9.92866
訟者	-9.92881
問於	-9.93003
其所欲	-9.93027
其行	-9.93069
患之	-9.9312
子孫	-9.93243
必得	-9.93499
可使	-9.93513
刺	-9.93598
夲	-9.93629
大功	-9.93642
以知	-9.93729
行義	-9.93813
所好	-9.9386
治天下	-9.93867
或以	-9.93885
臣之	-9.94121
國有	-9.94155
面	-9.94212
上有	-9.94239
得而	-9.9426
四曰	-9.9426
法制	-9.94314
行而	-9.94326
主人	-9.9435
國也	-9.94556
察姦	-9.94728
競	-9.94733
續	-9.94795
儒	-9.9485
百里	-9.94923
失也	-9.95076
之命	-9.95123
夕	-9.95124
忠信	-9.95168
何故	-9.95214
名也	-9.95309
鬻	-9.95358
危矣	-9.95389
僻	-9.95439
支	-9.95507
不親	-9.95573
整	-9.95581
薛	-9.95583
亡國	-9.95591
帛	-9.95592
羊	-9.95628
陰	-9.95641
蟲	-9.95643
衢	-9.95651
社	-9.95656
䝉	-9.95659
船	-9.95668
滛	-9.95678
廬	-9.95684
羿	-9.95689
温	-9.95695
土之次曰五	-9.95703
的	-9.95703
屨	-9.95704
斗	-9.95705
苴	-9.95726
毀	-9.9573
源	-9.95742
吴	-9.95746
平公	-9.95747
侍	-9.95747
懸	-9.9575
沮	-9.95761
圃	-9.95786
陛下	-9.95788
訪	-9.95788
𥘉	-9.95795
陽虎	-9.95798
歡	-9.9581
瘞	-9.95884
翁	-9.9589
飽	-9.95891
曰臣	-9.95894
釋寃	-9.95952
萬乘	-9.9596
見本傳	-9.96077
不食	-9.96088
不過	-9.961
矣今	-9.96101
暴亂	-9.96102
績按此言	-9.96175
受命	-9.9619
誠信	-9.9625
州有	-9.96345
學者	-9.96373
氣也	-9.96408
將軍	-9.96508
皆曰	-9.96524
豈非	-9.96526
心故	-9.96779
子胥	-9.96829
前後	-9.96854
以上	-9.96855
一家	-9.97093
者多	-9.97188
過也	-9.97219
而輕	-9.97266
安得	-9.9748
舉之	-9.97532
不若	-9.97625
致死	-9.97627
是亦	-9.97632
事有	-9.97678
智士	-9.97782
臣臣	-9.97968
其弟	-9.98077
必待	-9.98177
中有	-9.98317
農事	-9.98384
他人	-9.98415
無度	-9.98535
相親	-9.98664
明察	-9.98693
王天下	-9.98783
繼	-9.98879
國無	-9.9889
之禍	-9.98939
勝也	-9.99029
惰	-9.99175
嫁	-9.9923
讀	-9.99338
不疑	-9.99371
可也	-9.99421
死也	-9.99467
官職	-9.99781
其有	-9.99876
故爲	-9.99878
則百姓	-9.99932
霸王	-9.99947
而易	-10.0013
之子	-10.0043
之長	-10.0059
也是故	-10.0062
不止	-10.0062
不欲	-10.007
攝	-10.008
皆不	-10.0092
亦可	-10.0097
祥	-10.0097
績按此	-10.01
短	-10.0101
有一人	-10.0102
其時	-10.0103
潔	-10.0116
明王	-10.0117
舊出	-10.0118
柴	-10.0118
五曰	-10.0121
所為	-10.0125
管子卷第	-10.0127
宫室	-10.0129
盈	-10.0133
之分	-10.014
者也夫	-10.015
袁	-10.0163
轉運使	-10.0171
註	-10.0173
靈	-10.0177
傾	-10.0181
訓	-10.0185
蘇	-10.0187
繕	-10.0187
明矣	-10.0188
豪	-10.0188
穫	-10.0189
虐	-10.0189
畒	-10.0189
臣也	-10.0189
戈	-10.0189
庫	-10.019
筆	-10.019
短長	-10.0191
繆	-10.0192
悟	-10.0192
級	-10.0193
瑕	-10.0194
網	-10.0195
漸	-10.0195
毛	-10.0196
丁	-10.0196
閑	-10.0198
鐡	-10.0199
沙	-10.0199
再拜	-10.0199
其德	-10.02
握	-10.0201
萊	-10.0201
恣	-10.0201
殃	-10.0203
見王珪丞相	-10.0204
焉國用	-10.0204
璧	-10.0204
赤	-10.0206
例	-10.0207
子罕	-10.0207
師曠	-10.0207
田宅	-10.0209
爵祿	-10.0209
菜	-10.0209
掾	-10.021
婢	-10.0211
以下	-10.0211
遍	-10.0212
䑕	-10.0213
披	-10.0213
文學	-10.0215
四鄰	-10.0215
聦	-10.022
農夫	-10.0226
不利	-10.0227
曰何	-10.0228
見也	-10.0235
必先	-10.0247
終身	-10.0252
上不	-10.0258
是故聖人	-10.026
田常	-10.0265
動作	-10.027
盗賊	-10.0276
之數也	-10.0277
執之	-10.0284
或有	-10.0284
非所以	-10.0288
明主之	-10.0298
子婦	-10.0298
九竅	-10.0308
魏王	-10.0316
長安	-10.0317
不獲	-10.0335
舉兵	-10.0342
其可	-10.0343
不正	-10.0364
而知	-10.0378
生者	-10.0384
而賤	-10.0391
者以其	-10.0398
守其	-10.0405
數人	-10.0412
賈人	-10.0415
而亡	-10.0431
存亡	-10.0435
善也	-10.0448
者乃	-10.0451
之名	-10.0453
伐之	-10.0458
令曰	-10.046
不留	-10.0465
人主者	-10.0483
曰某	-10.049
則雖	-10.0502
令行	-10.0513
用此	-10.053
行者	-10.0547
男女	-10.0554
去之	-10.0564
撓	-10.0569
不然則	-10.057
於市	-10.0571
人以	-10.0582
當時	-10.0583
愛之	-10.0583
不誅	-10.0606
而不見	-10.0627
理則	-10.0633
非其	-10.0633
行其	-10.0636
黃金	-10.0642
物之	-10.0672
君臣之	-10.0677
不避	-10.0688
所出	-10.0689
敗也	-10.069
之勢	-10.0698
受之	-10.0707
佯	-10.0723
其謀	-10.0724
世之	-10.0734
不知其	-10.0743
之君	-10.0751
此亦	-10.0755
不廢	-10.0774
五百	-10.0777
燕王	-10.078
句	-10.0784
治亂	-10.0789
奪之	-10.0801
不可不	-10.0803
富民	-10.0803
匡	-10.0803
之言也	-10.0807
乘馬	-10.0817
管	-10.0817
令不	-10.082
獄吏	-10.0822
嗇	-10.0822
蔡	-10.0823
斤	-10.0829
恒	-10.083
諂	-10.0833
升	-10.0834
拂	-10.0843
而忘	-10.0845
唐司空房玄齡注	-10.0846
而攻	-10.0847
傲	-10.0849
劔	-10.085
狹	-10.085
葆	-10.0851
牽	-10.0853
配	-10.0854
㒵	-10.0854
鬱	-10.0854
冀	-10.0857
顛	-10.0857
中國	-10.0857
暑	-10.0858
墜	-10.0858
星	-10.0858
胄	-10.0859
靑	-10.0859
槖	-10.0859
貎	-10.086
圗	-10.086
析	-10.0861
掌	-10.0861
災	-10.0862
詘	-10.0863
虎豹	-10.0864
嬰兒	-10.0864
皃	-10.0865
㕘	-10.0866
錄	-10.0866
五穀	-10.0867
崔	-10.0868
錫	-10.0869
早	-10.0869
蒲	-10.0869
界	-10.087
雕	-10.0871
揣	-10.0872
答曰	-10.0872
譲	-10.0873
姬	-10.0873
乞	-10.0873
扶	-10.0874
卧	-10.0874
惡也	-10.0874
自此	-10.0874
玩好	-10.0874
院	-10.0875
拒	-10.0878
丈夫	-10.0879
勘	-10.088
晋	-10.0881
自是	-10.0881
臣有	-10.0884
相所撰墓誌	-10.0885
合於	-10.0886
晉陽	-10.0896
嚴刑	-10.0897
誣服	-10.0901
盜賊	-10.0911
無罪	-10.0917
不盡	-10.0935
貧賤	-10.0941
殺戮	-10.0943
數年	-10.0956
乎其	-10.0961
而名	-10.0961
進則	-10.0969
於諸侯	-10.0977
為政	-10.0988
官之	-10.0997
私門	-10.0999
其處	-10.1027
誅罰	-10.1031
君上	-10.1034
者亦	-10.106
不事	-10.1068
也然則	-10.1083
宋君	-10.1085
身死	-10.1087
罪之	-10.1101
臣之所	-10.1102
道以	-10.1103
有功者	-10.1108
器成	-10.1116
視其	-10.1119
身也	-10.1133
此所以	-10.1137
勞而	-10.1149
無赦	-10.115
鞫之	-10.1153
命之曰	-10.1162
應之	-10.1162
無名	-10.1171
載之	-10.1179
逺近	-10.1181
初為	-10.1194
故不可	-10.12
爲用	-10.1211
不孝	-10.1215
功而	-10.1218
聖王之禁也	-10.1224
也然而	-10.1226
過而	-10.1229
越人	-10.1239
何事	-10.1249
歸之	-10.1265
於秦	-10.1326
當死	-10.1327
其刑	-10.1332
怠	-10.1346
死亡	-10.1348
珠	-10.1356
未可	-10.136
什伍	-10.1366
惡之	-10.1367
所說	-10.1367
之上	-10.1378
十六	-10.1384
非吾	-10.1389
不應	-10.1391
利之	-10.1394
敵人	-10.1399
功名	-10.1401
小國	-10.1407
愚人	-10.1409
類也	-10.1412
身而	-10.1414
慝	-10.1416
然而	-10.142
不安	-10.1427
父兄	-10.1433
大小	-10.1441
而歸	-10.1442
審其	-10.1445
其辭	-10.1452
以為治	-10.1479
今君	-10.1479
鈞	-10.148
於内	-10.1481
至而	-10.1488
公曰善	-10.1491
漁	-10.1492
不滿	-10.1497
其欲	-10.1505
之事也	-10.1506
君無	-10.1507
版	-10.1509
不勞	-10.1512
臣聞之	-10.1513
不已	-10.1514
無術	-10.1525
召忽	-10.1533
聦明	-10.1538
觀其	-10.1542
邢	-10.1552
副	-10.1555
風雨	-10.1556
朋	-10.1557
不動	-10.1558
則大臣	-10.1559
焉故	-10.156
隰朋	-10.1561
之形	-10.1563
舅犯	-10.1564
旗	-10.1564
伸	-10.1564
此則	-10.1567
殖	-10.1567
狄	-10.1568
畝	-10.1568
蕃	-10.1569
之所期也	-10.1569
疑獄集	-10.1569
昬	-10.1569
閭	-10.157
祝	-10.157
衽	-10.1571
測	-10.1571
紫	-10.1572
禀	-10.1572
朱	-10.1573
悖	-10.1573
甫	-10.1573
布帛	-10.1574
牒	-10.1575
述	-10.1575
鳴	-10.1576
編	-10.1576
搖	-10.1576
廵	-10.1577
媪	-10.1578
仍	-10.1578
墻	-10.1578
譙	-10.1579
冠	-10.1579
毅	-10.158
晝	-10.158
賔客	-10.158
勑	-10.158
釜	-10.158
駮	-10.1581
策	-10.1581
折獄龜鑑	-10.1582
閱	-10.1582
僃	-10.1582
𦵏	-10.1582
墮	-10.1583
俾	-10.1584
冤	-10.1584
貨財	-10.1584
鞭	-10.1587
於前	-10.1588
棺	-10.1589
欵	-10.159
巡	-10.1595
震	-10.1598
斧	-10.1598
恨	-10.16
敞	-10.1602
至則	-10.1603
尚書	-10.1612
非有	-10.1613
之始也	-10.1619
無忌	-10.162
其位	-10.163
也一曰	-10.1653
古今	-10.1659
天之	-10.1661
可以為	-10.1662
由是	-10.1665
類矣	-10.1665
州刺史	-10.1666
者同實	-10.1668
非所	-10.1673
可致	-10.1685
何以知	-10.1687
存乎	-10.1688
莫能	-10.1692
去其	-10.1696
奚謂	-10.1713
而用	-10.1721
莫若	-10.1722
而治	-10.1725
主上	-10.1733
土地	-10.174
霸王之	-10.1765
非法	-10.1766
右主	-10.1769
法禁	-10.1772
厚賞	-10.1778
女子	-10.1779
寡人之	-10.1779
中大夫	-10.1783
下於	-10.1791
而多	-10.1792
寡而	-10.1807
兵不	-10.1809
雖然	-10.1825
地名	-10.1834
第二十	-10.1852
鄰人	-10.1853
成敗	-10.1854
忘其	-10.1856
十三	-10.1861
其端	-10.1862
不合	-10.1865
以重	-10.1883
者是	-10.1883
雖無	-10.1893
人主不	-10.1899
士卒	-10.1902
之人也	-10.1907
小大	-10.1907
商人	-10.1914
之憂	-10.1924
天之道	-10.1939
大也	-10.1944
所貴	-10.1982
言其	-10.1984
乗之國	-10.1986
日夜	-10.199
其首	-10.1992
時也	-10.1997
亦然	-10.1999
少而	-10.2001
乃以	-10.2004
五年	-10.201
事不	-10.2026
之心而	-10.2027
故為	-10.2038
在下	-10.2056
者知	-10.2057
器也	-10.2064
街	-10.2065
今吾	-10.2077
不立	-10.2078
與無	-10.2107
之禮	-10.2108
不義	-10.2117
官府	-10.2127
鑿	-10.2132
伊尹	-10.2141
威勢	-10.2142
捕獲	-10.2143
不出	-10.215
得釋	-10.2163
足矣	-10.2167
不脩	-10.2168
異也	-10.2169
耕者	-10.217
不求	-10.217
能服	-10.2185
所用	-10.2205
矜謹	-10.2211
天子之	-10.2214
抵	-10.2229
臣得	-10.2239
脅	-10.2241
詩	-10.2246
以觀	-10.2247
以功	-10.2248
之家	-10.2255
戰勝	-10.2257
斬首	-10.2266
姦人	-10.2272
强國	-10.2278
肯	-10.2282
五人	-10.2283
村	-10.2284
貢	-10.2311
法術之士	-10.2312
乃知	-10.2312
十八	-10.2316
其形	-10.2319
貴人	-10.232
辰	-10.2322
奈何管子對曰	-10.2323
聰明	-10.2326
啟	-10.2327
焉得無	-10.2328
糧	-10.2329
徧知天下	-10.233
導	-10.233
掠	-10.2331
患也	-10.2331
外事	-10.2331
滯	-10.2333
洽	-10.2334
劍	-10.2335
綱	-10.2335
泥	-10.2336
戲	-10.2336
躬	-10.2338
慧	-10.2338
奈	-10.2338
謙	-10.2339
馮	-10.234
叔向	-10.234
蒙	-10.234
裕	-10.2342
織	-10.2342
斥	-10.2342
郊	-10.2343
印	-10.2343
享	-10.2343
曾	-10.2343
寗戚	-10.2344
竪刁	-10.2345
賔	-10.2346
疲	-10.2346
鑒	-10.2346
包	-10.2346
宦	-10.2347
豪傑	-10.2347
垂	-10.2349
羮	-10.235
糶	-10.235
劉績	-10.2351
麗	-10.2351
勁	-10.2352
􁇫	-10.2352
曉	-10.2352
喚	-10.2352
惽	-10.2352
范	-10.2352
捨	-10.2353
豆	-10.2354
牢	-10.2354
暗	-10.2354
桓公曰善	-10.2355
徹	-10.2355
稍	-10.2356
曩	-10.2357
捜	-10.2357
壻	-10.236
琴	-10.2361
頃	-10.2362
橐	-10.2364
盜跖	-10.2364
卑賤	-10.2366
姚	-10.2367
携	-10.2371
動静	-10.2374
千金	-10.2375
愚智	-10.2376
事無	-10.2378
今世	-10.2379
也故明主	-10.2382
先王之	-10.2388
三軍	-10.2388
成事	-10.2388
居處	-10.2389
司理	-10.239
此事	-10.2403
管仲之	-10.2403
州里	-10.2404
思之	-10.2407
明主之道	-10.241
養之	-10.2412
物色	-10.2415
所從	-10.2415
也所謂	-10.2422
形容	-10.2437
子弟	-10.244
而利	-10.2442
令必	-10.2449
危亡	-10.2451
謂其	-10.2458
得之以	-10.2465
短語	-10.2466
行則	-10.2467
是以聖人	-10.2468
侏儒	-10.2474
有異	-10.2476
無姦	-10.2476
後魏	-10.2476
乾	-10.2486
未及	-10.2488
何為	-10.2498
不許	-10.2512
亂國	-10.2516
而使之	-10.2517
奉法	-10.2518
衆矣	-10.2524
所載	-10.2529
自誣	-10.2533
謂曰	-10.2533
以攻	-10.2536
法則	-10.2541
賞者	-10.2542
天下也	-10.2562
小者	-10.2563
地之	-10.2567
拷	-10.2569
所疑	-10.2569
近於	-10.2573
而任	-10.2585
之義	-10.2589
果得	-10.2601
之可也	-10.2602
道法	-10.2602
不失其	-10.2612
不亡	-10.2616
成名	-10.2616
牛馬	-10.262
管子輕重	-10.2623
主也	-10.2625
千人	-10.2626
信之	-10.2627
君必	-10.2629
則令不行	-10.263
無用	-10.2637
至于	-10.2641
二年	-10.2644
自恃	-10.2657
昭公	-10.266
此人	-10.2661
分職	-10.2662
叱	-10.2663
而不得	-10.2673
命曰	-10.2676
於楚	-10.2692
得一	-10.2697
齊之	-10.27
命之	-10.2715
爲國	-10.2723
無異	-10.2725
而動	-10.2725
者或	-10.2759
次日	-10.276
聖人之	-10.2761
功也	-10.2767
功勞	-10.2769
秦王	-10.2774
法立	-10.2777
財而	-10.278
强者	-10.2781
不違	-10.2786
於天	-10.2789
難知	-10.28
一則	-10.2805
富之	-10.2806
之妻	-10.2815
機	-10.2818
之中	-10.2828
度之	-10.2846
孰能	-10.2865
言不	-10.2868
欽定四庫全書管子補注卷	-10.2873
其賞	-10.2876
民務	-10.2879
應也	-10.2915
未得	-10.2915
不備	-10.2924
以資	-10.2936
蚤	-10.2938
傷人	-10.2938
眀君	-10.294
益也	-10.2945
而人主	-10.2956
而君	-10.2974
二事	-10.2993
價	-10.3025
國亡	-10.3026
按此	-10.303
仁者	-10.3033
為主	-10.305
則去	-10.3051
不去	-10.3055
而不敢	-10.3059
可用也	-10.306
征伐	-10.3065
公乃	-10.3066
四人	-10.3068
妻子	-10.308
匠	-10.3082
不得不	-10.3087
用法	-10.3087
且夫	-10.3092
捕之	-10.3107
於中	-10.3113
大國	-10.3115
擬	-10.3116
爲善	-10.3117
魯人	-10.312
賁育	-10.3123
以政	-10.3126
刑賞	-10.3129
敖	-10.313
請問	-10.3131
戎	-10.3138
之患也	-10.3142
偕	-10.3142
李崇	-10.3143
暮	-10.3154
于公	-10.3155
旱	-10.3159
鐵	-10.316
覈	-10.316
之不可	-10.3165
有一	-10.3166
飲酒	-10.3166
􁁊	-10.3167
効	-10.3167
諱	-10.3167
而殺之	-10.3168
七十二日而畢	-10.3169
讒	-10.317
變而	-10.317
莅	-10.317
英	-10.3171
別	-10.3171
乏	-10.3171
茅	-10.3172
癸	-10.3172
此四	-10.3173
永	-10.3173
踐	-10.3174
㒺	-10.3174
允	-10.3174
潜	-10.3175
棟	-10.3175
弛	-10.3175
警	-10.3175
淸	-10.3175
剛	-10.3175
郎	-10.3176
詈	-10.3176
裹	-10.3176
􁒾	-10.3177
捍	-10.3178
雜篇	-10.3178
笞	-10.3178
䛕	-10.3178
淺	-10.3178
岀	-10.3179
奸	-10.3179
𤣥	-10.318
含	-10.318
纂	-10.3182
豊	-10.3182
疇	-10.3182
整齊	-10.3182
榜	-10.3182
乙	-10.3182
妙	-10.3182
秉	-10.3183
怯	-10.3183
敝	-10.3184
裴	-10.3184
封泰山禪云云	-10.3184
乂	-10.3184
岐	-10.3185
逸	-10.3185
匹夫	-10.3185
翼	-10.3185
臂	-10.3185
突	-10.3186
伹	-10.3186
􁀙	-10.3186
則見以為	-10.3187
簒	-10.3187
僅	-10.3187
施伯	-10.3187
觴	-10.3187
亭	-10.3188
近習	-10.3188
髪	-10.3188
括	-10.3188
晩	-10.3189
講	-10.3189
念	-10.3189
桃	-10.319
之官也	-10.319
蓄積	-10.3191
賴	-10.3192
雄	-10.3192
歐	-10.3193
題	-10.3193
絞	-10.3194
停	-10.3194
覈姦	-10.3195
蛇	-10.3195
幸免	-10.3195
齋	-10.3195
吳起	-10.3196
縣尉	-10.3196
陶	-10.3197
璽	-10.3198
嫂	-10.3202
巧詐	-10.3202
此數	-10.3203
為用	-10.3206
制於	-10.3207
壬	-10.3207
將以	-10.3216
者無	-10.3217
是故明君	-10.3218
尼	-10.3219
權勢	-10.3222
末作	-10.3224
而可	-10.3227
卿相	-10.3228
原本	-10.323
令而	-10.3232
視聽	-10.3237
其政	-10.3241
令尹	-10.3247
必誅	-10.3248
州時	-10.3253
不肯	-10.3258
其實	-10.3258
恐其	-10.3279
國貧	-10.3282
既不	-10.3283
越王	-10.3284
孔子曰	-10.3285
無得	-10.3291
上黨	-10.3291
不務	-10.3295
其種	-10.3295
愛惡	-10.3299
代之	-10.3305
齊桓公	-10.3315
行法	-10.3315
有時而	-10.3319
富人	-10.3322
髙下	-10.3328
上下相	-10.3331
無為	-10.3338
賞之	-10.3345
於人也	-10.3358
安危	-10.3364
二國	-10.3365
救之	-10.3376
而退	-10.3387
訴於	-10.3396
易也	-10.3398
而待	-10.3401
重賞	-10.3427
之臣也	-10.3429
不可復	-10.343
則人主	-10.343
愚者	-10.3436
天時	-10.3436
以行	-10.3439
當作	-10.3449
爵位	-10.3466
乃是	-10.3466
所長	-10.3472
以避	-10.3482
之色	-10.3483
矣且	-10.3483
於君也	-10.3483
其餘	-10.3487
皆非	-10.3518
明主者	-10.353
事附	-10.3546
十七	-10.356
民用	-10.3566
故明王	-10.3567
行人	-10.3575
立於	-10.3575
退而	-10.3578
對曰夫	-10.3579
則危	-10.3583
官吏	-10.3586
謂君	-10.3593
蒸	-10.3595
以幣	-10.3598
而况	-10.3605
一事	-10.3607
二君	-10.3608
害也	-10.3609
如何	-10.3612
名實	-10.3612
禁之	-10.3617
用兵	-10.3631
在君	-10.3633
若水	-10.3638
自成	-10.3644
下無	-10.3646
法之	-10.3646
言曰	-10.365
械器	-10.3671
天下諸侯	-10.3676
有姦	-10.3678
重而	-10.3694
其官	-10.3697
教者	-10.3701
善惡	-10.3703
官而	-10.3703
千萬	-10.3704
貧者	-10.3712
重之	-10.3713
賞不	-10.3718
古人	-10.3725
士民	-10.3727
觀之	-10.3731
禮也	-10.3734
於家	-10.3735
謂不	-10.376
時雨	-10.3766
死罪	-10.3772
在外	-10.3785
聘	-10.3787
主者	-10.3798
後有	-10.3816
匱	-10.3832
於魯	-10.3834
地形	-10.3837
嗜	-10.3847
四者	-10.3851
四時之	-10.386
不一	-10.3864
又問	-10.3869
有人	-10.387
因而	-10.3876
立功	-10.3883
以力	-10.3885
所見	-10.3889
鄭人	-10.3892
之日	-10.3893
可知	-10.3896
犯法	-10.3898
則小	-10.3907
自知	-10.3911
大利	-10.3915
為常	-10.3934
之兵	-10.3934
下之	-10.3937
不重	-10.3937
治國者	-10.3941
三百	-10.3942
短語十	-10.3945
諾	-10.3946
魯君	-10.3947
下令	-10.395
丈	-10.3951
糴	-10.3962
矣故曰	-10.3963
人主之所	-10.3965
擇其	-10.3971
教之	-10.3971
衛君	-10.3976
亂之	-10.3981
既成	-10.3998
覽	-10.4002
而還	-10.4015
抑	-10.4021
荘	-10.4034
羣臣之	-10.404
臣故曰	-10.4041
其兄	-10.4048
書本傳	-10.4051
戴	-10.4052
未知	-10.4062
狐	-10.4063
旬	-10.4063
䧟	-10.4066
罕	-10.4066
審定者勝	-10.4067
不决	-10.4068
恬	-10.4069
引之	-10.4069
四肢	-10.4069
侈靡	-10.407
群	-10.4076
觳	-10.4076
苞	-10.4077
臞	-10.4078
器械	-10.4078
旻	-10.4079
淮	-10.408
輦	-10.408
迂	-10.408
贍	-10.4081
潰	-10.4081
揔	-10.4081
絜	-10.4081
彦超	-10.4081
朽	-10.4081
鹿	-10.4082
懌	-10.4082
障	-10.4083
六蝨	-10.4083
屏	-10.4084
祠	-10.4084
員	-10.4084
囊	-10.4084
耻	-10.4085
無失	-10.4085
圜	-10.4086
駭	-10.4087
而賞	-10.4087
犧牲	-10.4087
歷	-10.4087
桓公問管子曰	-10.4088
凝	-10.4088
晚	-10.4089
銳	-10.4089
閲	-10.4089
窺	-10.4089
𣏌	-10.4089
播	-10.4089
中央	-10.409
酸	-10.409
顔色	-10.4091
禾	-10.4091
烏	-10.4091
巫	-10.4091
辛	-10.4091
渉	-10.4092
斃	-10.4092
鉤	-10.4092
頓	-10.4092
盧	-10.4093
則草必墾矣	-10.4093
屠	-10.4095
酷	-10.4095
谿	-10.4095
黙	-10.4096
猛	-10.4096
舊不著出處	-10.4097
裘	-10.4097
两	-10.4098
屢	-10.4099
太宰	-10.4099
跡	-10.41
子雲	-10.41
驢	-10.4101
俠	-10.4101
曄	-10.4101
巷	-10.4101
濕	-10.4102
以一	-10.4102
㫖	-10.4102
於子	-10.4105
不幸	-10.4105
宛	-10.4107
銅	-10.4107
髙祖	-10.4108
梅	-10.4109
九章	-10.411
舊集	-10.4112
先後	-10.4113
相望	-10.4113
千乘	-10.4114
布衣	-10.4114
佞	-10.4115
丙	-10.4115
逼	-10.4116
乘之國	-10.412
寡婦	-10.4123
輕刑	-10.4123
金錢	-10.4127
堅固	-10.4129
毁譽	-10.4129
滿虚	-10.4135
之處	-10.4138
具獄	-10.4141
寳也	-10.4142
若何管子對曰	-10.4146
無益	-10.4146
以聽	-10.4148
堂下	-10.4149
無禮	-10.4152
智伯	-10.4154
大王	-10.4155
五聲	-10.4155
襄王	-10.416
美惡	-10.4162
聞之曰	-10.4163
曰不可	-10.4163
千乗	-10.4164
得免	-10.4169
宫中	-10.4169
聴之	-10.4186
發其	-10.4199
任力	-10.4211
吾欲	-10.4215
之徒	-10.4216
刑也	-10.4218
郄子	-10.4221
重刑	-10.4223
如神	-10.4223
若有	-10.4224
夫婦	-10.4231
立而	-10.4234
譽之	-10.4235
主父	-10.425
不進	-10.4254
也人主	-10.4254
為上	-10.4256
之所生	-10.4259
之聲	-10.4268
大人	-10.4269
神道	-10.4281
然後知	-10.4285
五日	-10.4295
一言	-10.4297
死節	-10.4298
君有	-10.4298
能者	-10.4299
情實	-10.4299
之食	-10.43
可不	-10.4303
逐之	-10.4305
故羣臣	-10.4306
聖君	-10.4314
不顧	-10.4316
三國	-10.4326
無實	-10.4329
而不可	-10.433
長吏	-10.4343
豈可	-10.4351
議者	-10.4353
則刑	-10.4358
食之	-10.4361
夫民	-10.4369
獲賊	-10.4384
不歸	-10.4387
得其實	-10.4389
事不成	-10.4389
徳義	-10.4398
兩用	-10.4401
之際	-10.4408
使君	-10.441
事理	-10.4413
死人	-10.4417
獨行	-10.443
百吏	-10.4434
荆人	-10.4439
民多	-10.4441
遂以	-10.4446
重罪	-10.4449
管子卷第十	-10.445
而王	-10.4454
百人	-10.4459
故其民	-10.446
西河	-10.4462
第十	-10.4486
不撓	-10.4492
無法	-10.4497
不知也	-10.45
今以	-10.452
將欲	-10.4523
失道	-10.453
二三	-10.4537
加於	-10.4541
其地	-10.4545
行此	-10.4546
堯舜之	-10.4551
政也	-10.4553
夫妻	-10.4554
得罪	-10.457
之因	-10.4584
必勝	-10.4585
危之	-10.459
而朝	-10.4596
孫也舊集不載	-10.4602
而務	-10.4603
伺	-10.4606
第三	-10.4607
者何	-10.4608
民毋	-10.4611
積之	-10.4613
下以	-10.4631
之交	-10.4632
公曰吾	-10.4633
不足也	-10.4635
萬事	-10.4647
在乎	-10.4648
所以亂	-10.4648
之門	-10.4652
曰是	-10.4657
受禄	-10.4668
自治	-10.4669
為盗	-10.468
已乎	-10.4685
以時	-10.469
以聞	-10.4698
後可以	-10.4702
性也	-10.4706
一國之	-10.4707
殺生	-10.4708
聽之	-10.4716
近者	-10.4724
一作	-10.4725
比周	-10.4745
未盡	-10.4745
滿則	-10.4751
官也	-10.476
非獨	-10.4763
曰諾	-10.4764
為亂	-10.4766
其手	-10.4772
能以	-10.4794
無怨	-10.4799
十四	-10.4803
欲伐	-10.4805
有二	-10.4806
之智	-10.4807
而笑	-10.4827
人用	-10.4831
盜者	-10.4836
千里之	-10.4848
之資	-10.4867
賊也	-10.4867
勞苦	-10.4877
禮之	-10.4882
罰之	-10.4885
有疑	-10.4886
桑	-10.4895
死則	-10.4896
出言	-10.4897
有形	-10.49
上以	-10.4904
人主之所以	-10.4904
能守	-10.492
集於	-10.4925
至矣	-10.4926
禁也	-10.4927
不更	-10.4939
此非	-10.4944
人為	-10.4968
搜	-10.4969
以義	-10.4979
行令	-10.498
郄	-10.4981
心安	-10.4988
幾何	-10.4989
阿	-10.499
犯禁	-10.4997
賢能	-10.5007
輯	-10.5017
何哉	-10.5019
居也	-10.5019
故兵	-10.5021
釣	-10.5034
者亡	-10.5041
公之	-10.5045
賞罰不信	-10.5052
盡也	-10.5063
伯夷	-10.5064
而民不	-10.5068
偪	-10.5068
耨	-10.5071
敏	-10.5071
瀆	-10.5074
掘	-10.5076
靜則	-10.5077
而不解則	-10.5078
其外	-10.5078
而天下治	-10.5078
課	-10.5079
瑞	-10.5079
宙合	-10.508
墆	-10.5081
鏡	-10.5081
弩	-10.5081
邉	-10.5082
幹	-10.5082
其始	-10.5083
醜	-10.5083
湊	-10.5083
椽	-10.5083
輪	-10.5083
緫	-10.5083
爪	-10.5083
不可不察也	-10.5084
短兵	-10.5084
公子開方	-10.5084
什倍	-10.5084
嫌	-10.5084
葦	-10.5084
彭生	-10.5085
柰何	-10.5085
沐	-10.5085
顔	-10.5086
方圓	-10.5086
提	-10.5086
不加	-10.5086
篋	-10.5086
壏	-10.5086
見王安石丞	-10.5086
宮	-10.5086
夘	-10.5087
姥	-10.5087
蘓	-10.5087
苖	-10.5087
寜	-10.5088
𨽻	-10.5088
梟	-10.5088
戯	-10.5088
涉	-10.5089
紹	-10.5089
慈惠	-10.5089
頸	-10.5089
柰何管子對曰	-10.5089
松	-10.5089
唱	-10.5089
碑	-10.5089
剽	-10.5089
濁	-10.5089
罔	-10.5089
襄公	-10.509
捐	-10.509
圎	-10.509
激	-10.509
稱貸之家	-10.509
氓	-10.509
參伍	-10.509
板	-10.5091
頼	-10.5091
單	-10.5091
恠	-10.5091
融	-10.5091
卵	-10.5091
績按别本註	-10.5092
縳	-10.5092
罵	-10.5092
壁	-10.5092
參驗	-10.5092
欽定四庫全書	-10.5092
膚	-10.5092
千鍾	-10.5092
黍	-10.5092
寘	-10.5093
輟	-10.5093
甘茂	-10.5093
雷	-10.5093
汙	-10.5094
疑獄集卷	-10.5094
謬	-10.5094
湖	-10.5095
仞	-10.5095
黑	-10.5096
令不行	-10.5096
途	-10.5096
紿	-10.5097
童	-10.5097
减	-10.5098
惜	-10.5098
隔	-10.5098
幷	-10.5099
昨	-10.5099
黃帝	-10.51
肌膚	-10.51
隳	-10.51
誑	-10.51
傭	-10.51
誓	-10.5101
啓	-10.5102
禺	-10.5102
回	-10.5104
允濟	-10.5104
京師	-10.5104
㓂	-10.5104
妬	-10.5104
寸	-10.5105
宴	-10.5106
無妻	-10.5106
不測	-10.5107
其說在	-10.5108
不能得	-10.5109
廢置	-10.5111
長短	-10.5112
節而	-10.5112
欽定四庫全書疑獄集卷	-10.5113
袴	-10.5113
艾	-10.5114
以情	-10.5115
二事附	-10.5115
刑部	-10.5116
寓	-10.5117
瓊	-10.5118
車馬	-10.5119
西山	-10.512
稱量	-10.512
桓公曰寡人	-10.5122
有時	-10.5124
可立而	-10.5125
自以為	-10.5127
數十人	-10.5128
湯武之	-10.5133
庶子	-10.5135
死於	-10.5137
南方	-10.5137
賢良	-10.5139
謂從	-10.5139
不忠	-10.5142
往來	-10.5142
彊者	-10.5143
而責	-10.5143
妄舉	-10.5145
再三	-10.5148
三公	-10.5149
不信也	-10.5149
公孫	-10.515
分民	-10.5151
有國者	-10.5151
何若	-10.5157
而誅	-10.5157
訴于	-10.5157
陳其	-10.5161
内不	-10.5164
大准	-10.5165
五色	-10.5166
罪者	-10.5167
貧富	-10.5168
循理	-10.5168
失時	-10.5173
貨賂	-10.5176
而貴	-10.5178
吾子	-10.5182
立也	-10.5182
彊兵	-10.5183
草名	-10.5183
神農	-10.5188
爲下	-10.519
不殺	-10.519
用故	-10.5201
是故先王	-10.5207
必將	-10.521
公正	-10.5211
臣主之	-10.5213
雖曰	-10.5216
以生	-10.5231
傷民	-10.5232
擊之	-10.5234
重禄	-10.5236
三晉	-10.5249
受賞	-10.5252
故事	-10.5258
隂陽之	-10.5261
一月	-10.5267
必自	-10.5274
農戰	-10.5276
莫知其	-10.5278
競於	-10.5279
簡主	-10.5287
賢士	-10.5287
忠也	-10.5289
行不	-10.5305
固然	-10.5306
曰公	-10.5313
有寵	-10.5314
國亂	-10.5318
此所謂	-10.5329
隨之	-10.5329
刑德	-10.5329
可以王	-10.5333
所以起	-10.535
食而	-10.5354
其職	-10.5361
歸於上	-10.5364
精也	-10.5366
不可以無	-10.5367
鑿之	-10.5367
反其	-10.537
無他	-10.5383
不可與	-10.5397
器用	-10.5401
執其	-10.5412
多寡	-10.5428
其親	-10.5433
過者	-10.5433
别也	-10.5436
經也	-10.544
已也	-10.5443
以制	-10.5446
則能	-10.5449
則多	-10.5451
法行	-10.5456
誣告	-10.5461
其次	-10.5464
而民從	-10.5469
必明	-10.5471
坦	-10.5473
慈於	-10.5478
君其	-10.5483
危也	-10.5486
為盜	-10.5489
君之所	-10.549
上下之	-10.5491
材能	-10.5492
陽氣	-10.5492
為證	-10.5497
對曰臣	-10.5498
逺矣	-10.5499
其業	-10.5508
有六	-10.5509
韓子	-10.5511
民安	-10.5511
而不止	-10.5515
人不能	-10.5519
强弱	-10.5525
者誅	-10.5539
道徳	-10.5542
合而	-10.5553
以視	-10.5557
上之所	-10.5558
為名	-10.5568
不受也	-10.5572
不絶	-10.5574
文子	-10.5585
而寄	-10.5596
不令	-10.5598
而相	-10.5602
子曰	-10.5602
其術	-10.5612
皇	-10.5615
上賢	-10.5615
周主	-10.5622
以得	-10.563
男子	-10.5635
售	-10.5635
宜也	-10.5646
主有	-10.5647
本事	-10.5651
必死	-10.5652
入見	-10.5655
者上	-10.5655
死矣	-10.5656
且至	-10.5666
心之	-10.5666
者殆	-10.5686
管子補注卷	-10.5694
之説	-10.5707
之精	-10.5717
其威	-10.5719
則無以	-10.5739
不能用	-10.5739
而天下	-10.575
之性	-10.5761
不平	-10.577
貧則	-10.5776
以實	-10.5785
無敢	-10.5787
也公曰	-10.5788
之於其所	-10.5791
不類	-10.5795
故知	-10.5796
量其	-10.5802
人多	-10.5807
治而	-10.5808
必有所	-10.5808
能盡	-10.5813
求其	-10.5813
則萬物	-10.5815
吏民	-10.5816
其門	-10.5816
冝也	-10.5835
能無	-10.5836
則難	-10.5838
者雖	-10.5838
斷事	-10.5849
曰若	-10.5859
士之	-10.5859
過於	-10.5875
自首	-10.5878
之類也	-10.5883
擒之	-10.5889
五事	-10.5901
位而	-10.5908
者君	-10.592
而發	-10.5927
且以	-10.593
大臣之	-10.5938
殺人者	-10.5941
貴臣	-10.5941
楚人	-10.5943
國常	-10.5947
之辭	-10.5947
尚有	-10.5952
兵法	-10.596
沃	-10.5963
服之	-10.5968
也彼	-10.597
灌	-10.5975
乃取	-10.5981
生利	-10.5982
守戰	-10.5984
其獄	-10.5986
和則	-10.5992
者勝	-10.5993
歸而	-10.5995
則不得	-10.6
起而	-10.6001
主簿	-10.6006
不得見	-10.6008
井中	-10.6009
則不然	-10.6011
人民	-10.6023
禍福	-10.6023
久矣	-10.6025
罰也	-10.603
不生	-10.6033
曠	-10.6035
不塞	-10.6039
事又	-10.6041
折獄	-10.6042
之物	-10.6044
徳而	-10.6046
憂也	-10.6048
以死	-10.6048
者謂	-10.6052
則衆	-10.6054
有徳	-10.6057
自來	-10.6061
金玉	-10.6064
其徳	-10.6069
東鄰	-10.6071
民皆	-10.6088
不能相	-10.6095
思慮	-10.6098
農民	-10.6099
久之	-10.6103
牧之	-10.6109
事上	-10.611
有度	-10.6118
經言	-10.6124
請使	-10.6125
財貨	-10.6133
而與	-10.6137
不亦	-10.6138
粟米	-10.614
不著	-10.6144
何所	-10.6147
則不可	-10.6149
而行之	-10.6155
歎	-10.6156
說而	-10.6158
矣然	-10.616
統	-10.6163
妖	-10.6167
也民之	-10.6167
君不如	-10.6168
請謁	-10.617
嶺	-10.6171
爲上	-10.6173
其中	-10.6176
費用	-10.618
雲	-10.6181
䖏	-10.6186
俞	-10.6186
拊	-10.6187
渠	-10.6187
佼	-10.6188
六者	-10.6188
之用	-10.6188
盤	-10.6188
墳	-10.6189
懲	-10.6189
蕩	-10.619
人力	-10.619
簿	-10.6191
牙	-10.6191
組	-10.6192
彈	-10.6192
箭	-10.6192
𢎞	-10.6192
津	-10.6192
㢮	-10.6193
者未之有也	-10.6193
夾	-10.6193
預	-10.6193
民知	-10.6193
苗	-10.6193
羅	-10.6194
腐	-10.6194
悍	-10.6195
雚	-10.6195
菽粟	-10.6195
窌	-10.6195
鄊	-10.6195
矦	-10.6196
傍	-10.6196
春秋冬夏	-10.6196
李兊	-10.6196
緣	-10.6197
管夷吾	-10.6197
牲	-10.6197
獵	-10.6197
格	-10.6197
殫	-10.6197
倦	-10.6198
溝瀆	-10.6198
裏	-10.6198
贅	-10.6198
阨	-10.6198
負海	-10.6198
孩	-10.6199
寫	-10.6199
雀	-10.6199
嬰	-10.6199
裂	-10.6199
㓗	-10.62
遷徙	-10.62
稟	-10.62
闔	-10.62
富也	-10.62
縷	-10.62
易牙	-10.6201
勅	-10.6201
言而	-10.6201
徇	-10.6202
善言	-10.6202
一本作	-10.6203
𥙷	-10.6203
綴	-10.6203
糞	-10.6203
冒	-10.6203
姦之	-10.6204
倫	-10.6204
發號出令	-10.6204
饋	-10.6204
影	-10.6204
公曰然則	-10.6204
羡	-10.6205
叩頭	-10.6205
水旱	-10.6205
寇	-10.6206
奢	-10.6206
旋	-10.6206
僚	-10.6206
鉅	-10.6206
刈	-10.6206
摘	-10.6206
脆	-10.6207
蜀	-10.6207
山林	-10.6207
逰	-10.6207
出南史	-10.6207
歌	-10.6208
渇	-10.6208
垣	-10.6208
憚	-10.6208
枚	-10.6208
尾	-10.6209
近也	-10.6209
吐	-10.6209
彰	-10.621
肘	-10.621
愿	-10.621
拾	-10.621
吕	-10.6211
構	-10.6211
岸	-10.6211
場	-10.6211
臧獲	-10.6211
嘗試	-10.6211
令行禁止	-10.6211
蔵	-10.6212
是不	-10.6212
煬	-10.6212
步	-10.6212
國小而	-10.6212
不可得泉	-10.6213
四封之内	-10.6213
終不	-10.6213
麟	-10.6213
元素	-10.6214
賕	-10.6214
鞫情	-10.6214
黯	-10.6214
晉文公	-10.6215
縑	-10.6215
樹木	-10.6216
昭王	-10.6216
筮	-10.6216
朗	-10.6217
抵罪	-10.6217
燒	-10.6219
二三子	-10.6219
佛	-10.6219
天地之道	-10.6221
鍇	-10.6222
亾	-10.6223
觸	-10.6223
刖	-10.6223
店	-10.6224
覇王	-10.6225
棄市	-10.6225
喜怒	-10.6227
異日	-10.6228
四海	-10.6228
雙	-10.6229
國之形也	-10.623
趙氏	-10.623
目視	-10.6232
雞	-10.6232
少卿	-10.6234
文侯	-10.6234
白馬	-10.6234
終嵗	-10.6235
太祖	-10.6236
法當死	-10.6237
設備	-10.6237
羣臣百姓	-10.6239
翁歸	-10.6239
隂氣	-10.6242
罪也	-10.6242
補注卷	-10.6243
周氏	-10.6246
神明	-10.6247
辨其	-10.6251
莫知	-10.6252
開封	-10.6252
炙	-10.6253
薛公	-10.6254
睦	-10.6258
察獄	-10.6261
其計	-10.6264
五月	-10.6273
深文	-10.6275
而令行	-10.6276
民萌	-10.6279
令者死	-10.6281
徳也	-10.6283
曰今日	-10.6286
室屋	-10.6286
大雨	-10.6287
而去之	-10.6299
不可謂	-10.6302
雖多	-10.6305
曰今	-10.6307
辨誣	-10.6308
獄成	-10.6312
為下	-10.6314
法式	-10.632
主道	-10.6321
為句	-10.6322
重者	-10.6324
水中	-10.6331
其故何也	-10.6341
正靜	-10.6344
自見	-10.6346
記曰	-10.6349
守備	-10.6349
家富	-10.635
商君	-10.6351
弑其君	-10.6351
於民也	-10.6356
動靜	-10.6364
百日	-10.6367
於是乎	-10.6367
軍士	-10.6369
諸生	-10.6369
徐州	-10.6369
自言	-10.6373
大明	-10.6376
則謂之	-10.6378
以動	-10.6379
少者	-10.6381
妄言	-10.6382
五藏	-10.6388
之所不能	-10.6389
大怒	-10.639
可以得	-10.64
今人主	-10.6407
非特	-10.6408
而民自	-10.6412
加之	-10.6415
民家	-10.6426
寡人欲	-10.6427
謹於	-10.6428
則身	-10.6429
死力	-10.6438
適子	-10.6438
故得	-10.6442
之時也	-10.6442
者少	-10.6444
也非	-10.6448
之所生也	-10.6449
之本	-10.6452
内外	-10.6457
不致	-10.6458
小臣	-10.6469
諫曰	-10.6475
子必	-10.6476
罪死	-10.6476
計數	-10.6478
託於	-10.6481
雖復	-10.6494
治矣	-10.6499
而齊	-10.65
則不能	-10.6506
其無	-10.6507
以私	-10.6513
然後能	-10.6514
示之	-10.6514
行刑	-10.6535
而道	-10.6535
言能	-10.6536
計而	-10.6536
亂主	-10.6549
二人者	-10.6549
故明君	-10.6554
臣請	-10.6555
爲主	-10.6555
此者	-10.6556
進也	-10.6556
是猶	-10.6557
可久	-10.6559
於四方	-10.6559
度也	-10.6565
在内	-10.6569
有術	-10.6572
處士	-10.6575
疏逺	-10.6577
以恩	-10.6578
之都	-10.6582
人事	-10.6587
君道	-10.6588
甚矣	-10.6589
近而	-10.659
知吾	-10.66
君則不然	-10.6601
事必	-10.6602
求得	-10.661
之所在	-10.6618
矣公曰	-10.6618
順於	-10.662
刑殺	-10.663
而姦	-10.6654
見於	-10.6657
盖以	-10.6662
井也	-10.6663
聖人者	-10.6668
必多	-10.6668
不審	-10.6675
其義	-10.6682
為己	-10.6684
制度	-10.6699
六曰	-10.6701
情理	-10.6704
以合	-10.6704
教民	-10.6712
於天地	-10.6714
之謀也	-10.6719
能使	-10.6721
為已	-10.6722
金石	-10.6724
期於	-10.674
傷國	-10.6742
得不死	-10.6743
知之故	-10.6747
本也	-10.6755
輕者	-10.6767
故君子	-10.6769
禄賞	-10.6798
是為	-10.6799
之餘	-10.68
則天	-10.6802
則私	-10.6812
鄭君	-10.6817
魯梁	-10.6817
賢也	-10.6819
所殺	-10.6821
是以明君	-10.6821
疾也	-10.6822
無一	-10.6827
子者	-10.6828
外言	-10.6835
三千	-10.6842
中正	-10.6845
為之也	-10.6846
勇者	-10.6849
而勿	-10.6864
功多	-10.6867
功成	-10.687
愛子	-10.6875
於趙	-10.6876
書而	-10.6881
戾	-10.6881
詢	-10.6885
縣吏	-10.689
者一人	-10.6891
一一	-10.6896
死生	-10.6897
無定	-10.6898
之恩	-10.6898
桓公問	-10.6912
行徳	-10.6915
反為	-10.6917
强兵	-10.6919
若一	-10.6922
而臣	-10.6927
私利	-10.6928
不侵	-10.6932
不計	-10.6939
乃召	-10.694
國安	-10.6949
處死	-10.6951
乃服	-10.6953
食者	-10.6956
在上位	-10.6959
當今	-10.6962
伏法	-10.6968
而封	-10.6973
鼓之	-10.6978
前有	-10.6982
自正	-10.6986
先定	-10.6989
之衆	-10.6992
未能	-10.6992
而安	-10.6995
之邑	-10.6995
境内之	-10.6999
河東	-10.7004
則人不	-10.7004
遂與	-10.7004
二千里	-10.7014
非常	-10.7014
上令	-10.7015
有功則	-10.7025
人旣	-10.7039
於其	-10.7044
故君	-10.7048
不泄	-10.7058
計得	-10.706
白公	-10.7064
商賈	-10.7071
三年而	-10.7082
者衆	-10.7083
不定	-10.7087
能止	-10.7088
以正	-10.7096
定矣	-10.7096
告者	-10.7098
未見	-10.7101
此以	-10.7115
私行	-10.7117
國之重	-10.7123
行賞	-10.7124
治强	-10.7143
不畏	-10.7148
而誅之	-10.7148
可為	-10.716
三年不	-10.7166
乎對曰	-10.7173
擾	-10.7173
匹	-10.7174
備之	-10.7177
入於	-10.7185
盗者	-10.7191
竅	-10.7192
受賕	-10.7193
文武	-10.7193
非不	-10.7195
人之言	-10.7195
藏於	-10.7202
而用之	-10.7204
亂亡	-10.7204
於理	-10.7205
為行	-10.7215
與天下	-10.7223
曰爾	-10.7228
亡其	-10.7232
以是	-10.725
家也	-10.7255
山川	-10.726
其徒	-10.7268
為是	-10.727
必治	-10.7271
以理	-10.728
之美	-10.7285
也豈	-10.729
不可為	-10.7295
第二	-10.7304
服行	-10.7313
其力	-10.7316
之迹	-10.7319
苦之	-10.7319
者欲	-10.7325
孝公	-10.7341
借人	-10.7344
為幣	-10.7353
而歸之	-10.7353
有五	-10.7355
不傷	-10.7355
矣君	-10.7357
矣桓公曰	-10.7359
其書	-10.7363
廢之	-10.7364
人既	-10.7366
緡	-10.737
明主不	-10.737
内行	-10.7373
四固	-10.7377
國用	-10.738
齊語作	-10.738
周公旦	-10.7381
輕重之	-10.7381
公孫鞅	-10.7382
其聲	-10.739
功立	-10.74
晏	-10.7404
而奪之	-10.7405
亂臣	-10.7408
贏	-10.7412
吏嗇夫	-10.7412
敺	-10.7413
曰道	-10.7415
權重	-10.7417
議之	-10.7417
雍季	-10.7419
取於民	-10.742
匈	-10.742
亡之	-10.7424
吏捕	-10.7424
公子糾	-10.7425
憐	-10.7426
尅	-10.7426
訛	-10.7429
增	-10.743
滌	-10.743
侍郎	-10.7431
爲國者	-10.7432
鳬	-10.7432
遮	-10.7433
粮	-10.7433
緒	-10.7433
譬	-10.7434
而舉之	-10.7434
者凡國都皆有掌	-10.7434
局	-10.7435
超	-10.7436
社䑕	-10.7436
賔胥無	-10.7437
潘	-10.7437
阻	-10.7438
擿	-10.7438
墓	-10.7438
晨	-10.7439
財匱	-10.7439
退則	-10.7439
控	-10.744
為首	-10.7441
陂	-10.7441
靖郭君	-10.7441
昆弟	-10.7441
奎	-10.7442
詐偽	-10.7442
属	-10.7443
墾草	-10.7443
樹蓺	-10.7443
班	-10.7444
道正者不安	-10.7444
債	-10.7444
其木乃	-10.7444
者比於	-10.7445
贊	-10.7445
捷	-10.7445
㑹諸侯令曰	-10.7445
涕	-10.7445
百里之地	-10.7445
軒冕	-10.7445
莖	-10.7445
葛	-10.7445
臭	-10.7445
國之危也	-10.7446
棘	-10.7446
文采	-10.7446
係	-10.7447
鴻鵠	-10.7447
渙	-10.7447
逢	-10.7447
波	-10.7447
隘	-10.7447
維絶則	-10.7448
渡	-10.7448
擔	-10.7448
恭敬	-10.7449
苑	-10.7449
賓	-10.7449
臣不如也	-10.7449
少而習焉其心安焉不見異物而遷焉	-10.745
遬	-10.745
坎	-10.745
玊	-10.745
挫	-10.745
恚	-10.745
鄭克評曰	-10.745
霧	-10.745
愧	-10.7451
之終始	-10.7451
掃	-10.7451
兄之教不肅而成其子弟之學不勞而能	-10.7451
柙	-10.7451
翌日	-10.7452
不可得也凡牧民者欲民之有	-10.7452
於國而求百姓之行大	-10.7452
章則行	-10.7452
十餘年	-10.7453
舌	-10.7453
何以知其然	-10.7453
不失其常則	-10.7453
終而復始	-10.7453
劇	-10.7453
藝	-10.7453
考掠	-10.7453
猛毅	-10.7453
狼	-10.7453
其氣曰	-10.7453
儲	-10.7453
俟	-10.7453
勤於兵	-10.7453
求狐白之皮	-10.7454
封泰山禪	-10.7454
堂谿公	-10.7454
不憂	-10.7454
棺槨	-10.7455
擿姦	-10.7455
蠧	-10.7455
舉錯	-10.7455
抗	-10.7455
琚	-10.7455
占	-10.7456
没	-10.7456
見懲惡門	-10.7456
北郭	-10.7456
狥	-10.7456
賞有功	-10.7457
健	-10.7457
驩	-10.7457
繩之外	-10.7457
填	-10.7457
鳯	-10.7457
轎	-10.7458
攘	-10.7458
徼	-10.7458
翟	-10.7458
櫓	-10.7458
菹	-10.7459
豎刁	-10.7459
封禪	-10.7459
之守在	-10.7459
潦	-10.7459
丹	-10.7459
返	-10.7459
野不辟	-10.7459
罪而	-10.7459
誣以	-10.7459
巾	-10.746
愎	-10.746
俊	-10.746
管子解	-10.746
故先王貴	-10.746
為人君者	-10.746
之儀表也	-10.746
竈	-10.7461
兇	-10.7461
農不	-10.7461
莊遵	-10.7461
靴	-10.7462
者言依於	-10.7462
幕	-10.7462
所撰墓	-10.7463
歎服	-10.7463
財用足	-10.7463
中寢諸子	-10.7463
政不禁則	-10.7463
將有行	-10.7464
廣狹	-10.7465
熊	-10.7465
渴	-10.7465
薦草	-10.7465
萊莒之	-10.7465
監司	-10.7465
臣而	-10.7466
埋	-10.7466
管仲隰朋	-10.7466
之充也	-10.7466
穆公	-10.7466
終日不歸	-10.7466
瞽	-10.7466
繼母	-10.7467
山陵	-10.7468
韓昭侯	-10.7468
憤	-10.7469
翳	-10.7469
廣漢	-10.7469
譎賊	-10.747
山海	-10.747
燕代	-10.7471
邀	-10.7471
不可不審	-10.7471
佚樂	-10.7471
野戰	-10.7472
竪牛	-10.7472
之用也	-10.7472
獄訟	-10.7472
舞	-10.7472
曲直	-10.7472
慶賓	-10.7472
里尉	-10.7473
嫡子	-10.7473
其種大	-10.7473
管仲曰不可	-10.7474
行岌	-10.7474
績按此釋	-10.7474
軍旅	-10.7475
寡者其	-10.7475
百匿	-10.7475
良久	-10.7476
韕	-10.7476
太公望	-10.7477
商工	-10.7477
宗元	-10.7478
真盗	-10.7478
香	-10.7479
群臣	-10.748
孝婦	-10.7481
龎	-10.7483
了	-10.7484
明主之治也	-10.7484
尊顯	-10.7485
慶賞	-10.7486
張詠	-10.749
子貢	-10.749
其備	-10.7491
生鹿	-10.7492
吳王	-10.7493
相繼	-10.7493
判官	-10.7498
襄主	-10.7498
䕶	-10.7499
神聖	-10.75
黄門	-10.7502
矣凡	-10.7502
霸諸侯	-10.7503
威嚴	-10.7505
兵甲	-10.7507
威權	-10.7508
夫以	-10.7511
救火者	-10.7512
秦韓	-10.7513
人臣之所以	-10.7514
未有能	-10.7514
夫子	-10.7515
歎曰	-10.7517
尊位	-10.7518
因以	-10.7519
獻公	-10.7519
化變	-10.752
斷獄	-10.7522
為之奈何	-10.7522
立私	-10.7523
可行	-10.7523
其時曰	-10.7524
被盜	-10.7524
也雖然	-10.7526
疑獄	-10.753
勇士	-10.7531
皆知	-10.7533
不為也	-10.7536
一時	-10.7536
取舍	-10.7537
察賊	-10.7538
賦歛	-10.7539
敬老	-10.7548
境内之民	-10.755
易位	-10.7553
者幾何	-10.7555
曰然	-10.7557
獨斷	-10.7557
臣斯	-10.756
一夕	-10.756
天下之衆	-10.7562
貧窮	-10.7563
稷	-10.7565
制斷	-10.7566
捕繫	-10.7566
不能决	-10.7572
不載	-10.7573
張舉	-10.7576
一朝	-10.7578
者不知	-10.7579
於朝而	-10.7581
一足	-10.7583
一而	-10.7583
而莫之能	-10.759
譽也	-10.759
深察	-10.7592
未定	-10.7594
美名	-10.7595
之幣	-10.7595
其數	-10.7596
將何以	-10.7598
先之	-10.7601
絶其	-10.7601
失有罪	-10.7603
大驚	-10.7604
安得無	-10.7605
田成	-10.7608
既布	-10.7608
左右曰	-10.7608
或云	-10.7609
所短	-10.7616
智過	-10.7618
予人也	-10.7618
嚴明	-10.7621
我者	-10.7621
勇力	-10.7637
不審則	-10.764
及于	-10.7641
名譽	-10.7643
然其	-10.7645
第八	-10.7648
韓王	-10.7649
矣人主	-10.7649
得賞	-10.765
其間	-10.7655
欲治	-10.7656
而善	-10.766
心以	-10.7662
而物	-10.7662
大理	-10.7663
迫於	-10.7664
生金	-10.7667
老臣	-10.7667
燕王曰	-10.767
天后	-10.7676
捕得	-10.7683
已具	-10.7684
治獄	-10.7685
之力也	-10.7686
婦女	-10.7687
治官	-10.769
國危	-10.769
用其言	-10.7691
無術以	-10.7693
功力	-10.7693
卜者	-10.77
使天下	-10.7705
此五者	-10.7705
怒而	-10.7707
后可以	-10.7709
送之	-10.771
簡子	-10.7711
韓非	-10.7711
長家	-10.7713
而走	-10.7713
姦慝	-10.7713
之治	-10.7714
晉公	-10.7715
訊之果	-10.7718
難得	-10.7723
故道	-10.7724
萬物通	-10.7725
小害	-10.7725
和曰	-10.7727
州部	-10.7729
私議	-10.7729
大矣	-10.7731
君因	-10.7733
利其	-10.7736
我也	-10.7736
以徳	-10.7737
大辟	-10.7737
異乎	-10.7739
私交	-10.7746
致政	-10.7751
辯智	-10.776
則民乃	-10.776
同謀	-10.7764
茍且	-10.7767
知者	-10.7769
不遇	-10.777
不仕	-10.7771
教人	-10.7771
人爭	-10.7773
晉之	-10.7774
爵而	-10.7774
○○	-10.7776
之極也	-10.7776
事迹	-10.7777
若使	-10.7785
教也	-10.7785
弱而	-10.7791
旣成	-10.7797
皆然	-10.78
内事	-10.7803
譬猶	-10.7805
乃得	-10.7816
行成	-10.782
立事	-10.7823
誠也	-10.7823
祭之	-10.7824
不害	-10.7826
而不變	-10.7832
驗之	-10.7838
不改	-10.7841
得勝	-10.7842
者莫如	-10.7847
可矣	-10.7852
致令	-10.7855
無聲	-10.7861
之故也	-10.7862
七曰	-10.7867
己也	-10.7872
公家	-10.7879
聽從	-10.788
必致	-10.788
舍人	-10.7883
所用也	-10.7884
察於	-10.7886
治亂之	-10.7893
益其	-10.7896
之任	-10.7898
䟽逺	-10.7903
告之曰	-10.7904
無邪	-10.7907
所獲	-10.7915
從者	-10.7915
私意	-10.7916
齊以	-10.7918
輕罪	-10.7919
生粟	-10.7921
與父	-10.7922
不窮	-10.7928
日至	-10.7932
而身	-10.7934
為國者	-10.7936
至死	-10.7938
上下和	-10.7946
處官	-10.7948
緩刑	-10.7949
言當	-10.795
言談	-10.7953
就爲	-10.7953
先自	-10.7957
者聖王之禁也	-10.796
親信	-10.7964
見疑	-10.7967
為私	-10.7968
而先	-10.7971
明君在上	-10.7972
所聞	-10.7977
百金	-10.7981
於衆	-10.7986
成羣	-10.7987
知彼	-10.7989
言有	-10.7999
而致	-10.8005
於朝	-10.8007
富國	-10.801
矣是	-10.8019
不軌	-10.8019
大敗	-10.8029
商賈之	-10.8033
則國治	-10.8035
戰必	-10.8036
禮而	-10.8042
遣吏	-10.8044
足也	-10.8051
令得	-10.8052
於主	-10.8059
於道	-10.8073
亦既	-10.8074
正名	-10.8079
圖之	-10.8083
其害	-10.8084
刑則	-10.8088
進曰	-10.809
即位	-10.8091
亦正	-10.8091
者危	-10.8097
其常	-10.81
之論	-10.8101
故不能	-10.8112
者不敢	-10.8118
則知	-10.8119
無功而	-10.8124
得矣	-10.813
者不可以	-10.8132
遂殺	-10.8137
所患也	-10.8139
身善	-10.8149
不犯	-10.8153
以亂	-10.8156
强而	-10.8163
是皆	-10.8166
謂無	-10.8169
而禮之	-10.8178
求於民	-10.8178
為臣	-10.8185
必强	-10.8186
知其所	-10.8188
豹	-10.8193
牛馬之	-10.8198
寡也	-10.8199
迎之	-10.8201
孤寡	-10.8219
既已	-10.8221
則相	-10.8221
具服	-10.8223
於韓	-10.8227
者明	-10.8232
張孟談	-10.8232
申子	-10.8234
則不行	-10.8239
著明	-10.8258
者不可	-10.826
者削	-10.8262
難行	-10.8264
輕法	-10.8265
故天下	-10.8267
物而	-10.8268
功伐	-10.8274
眀主	-10.8275
弱也	-10.8284
當世之	-10.8285
遠而	-10.8294
始於	-10.83
除其	-10.8307
和乃	-10.8307
疾而	-10.8308
分財	-10.8308
之訟	-10.831
道士	-10.831
寃死	-10.8311
嘗為	-10.8312
多有	-10.8314
之威	-10.8315
力盡	-10.8319
謀也	-10.8323
何人	-10.8323
之俗	-10.8329
戒之	-10.8329
易其	-10.8332
好利	-10.8334
故無	-10.8343
欽定四庫全書韓非子卷十	-10.8345
其事以	-10.8346
其生	-10.8347
先王善	-10.8351
勢重	-10.8351
德而	-10.8353
秦之	-10.8355
祭也	-10.8359
於國家	-10.836
有八	-10.8364
而定	-10.8369
縣有	-10.8378
外權	-10.8381
易知	-10.8382
管子輕重十	-10.8382
息也	-10.8385
迫	-10.8386
而食之	-10.8399
國以	-10.8403
弱故	-10.8406
賤者	-10.8418
往而	-10.8421
得以	-10.8427
而至	-10.8437
凡聽	-10.8444
然則國	-10.845
八十	-10.8451
之民也	-10.8462
刑法	-10.8463
宥過	-10.8468
輕死	-10.8469
以報	-10.8471
而少	-10.8473
者民之	-10.8487
者乎	-10.8491
教而	-10.8494
以來	-10.8503
名曰	-10.8503
侵則	-10.851
筋	-10.8524
言惡	-10.8525
吏卒	-10.8529
髙其	-10.853
正法	-10.8534
而更	-10.8538
楚之	-10.8541
何待	-10.8552
而問	-10.8552
有福	-10.8559
不節	-10.8562
者必有	-10.8562
此五	-10.8572
租	-10.8589
身以	-10.8594
道力	-10.8596
衛人	-10.8596
而謀	-10.8596
於王	-10.8605
相應	-10.8605
世之所	-10.8606
三事	-10.861
其父母	-10.8612
索之	-10.8613
長者	-10.8617
至焉	-10.8618
以威	-10.8625
理故	-10.8641
不足者	-10.8644
市者	-10.8646
國之所以	-10.8647
寒暑	-10.8656
不欺	-10.8664
鮑叔之	-10.8667
不樂	-10.8668
不遺	-10.867
生而	-10.867
第五	-10.8675
打	-10.8676
有間	-10.868
其君者也	-10.8681
貴之	-10.8682
理而	-10.8685
十九	-10.8685
不適	-10.8686
禦	-10.8688
部民	-10.8691
重臣	-10.8696
臣則	-10.8698
所以成	-10.8699
欽定四庫全書折獄龜鑑卷	-10.87
得利	-10.8701
與國	-10.8721
倍其	-10.8721
失之	-10.8725
門者	-10.8726
非實	-10.8727
寡故	-10.8727
以藏	-10.8731
其婦	-10.8735
制民	-10.8749
則怨	-10.8753
聼之	-10.8763
用賢	-10.8764
放此	-10.8765
計其	-10.8768
創	-10.8771
二百	-10.8777
能去	-10.8779
不得也	-10.878
酒食	-10.8783
勝則	-10.8784
制令	-10.8789
語曰	-10.8789
選賢	-10.8792
職也	-10.8793
禁姦	-10.8795
食器	-10.8799
秀	-10.8806
則敗	-10.8808
便辟	-10.8815
西方	-10.8825
能用之	-10.8828
覇	-10.8831
堤	-10.8831
君子之	-10.8833
峻	-10.8838
惑也	-10.884
果有	-10.8841
之亂	-10.8848
嘆	-10.8849
秤	-10.8851
區	-10.8852
孟孫	-10.8852
腹	-10.8852
德行	-10.8854
關市	-10.8855
眩	-10.8856
萬世之利	-10.8857
窘	-10.8857
㦸	-10.8858
闚	-10.8858
旦暮	-10.886
莫急於	-10.8862
公子糺	-10.8863
出北史	-10.8864
申不害	-10.8865
烹	-10.8865
隄	-10.8865
籠	-10.8866
絃	-10.8866
㝠	-10.8867
舉措	-10.8868
倉廩	-10.8868
何以明之	-10.8868
之副也	-10.8868
蘟	-10.8869
迷惑	-10.887
挑	-10.887
民之父母也	-10.887
焉夫	-10.887
玄	-10.887
為人上者	-10.887
貯	-10.887
凶吉	-10.8871
塥	-10.8871
嬴	-10.8871
曆	-10.8871
柳	-10.8871
勵	-10.8871
四海之内	-10.8871
由是觀之	-10.8871
鬰	-10.8871
若流水	-10.8872
厥	-10.8872
礙	-10.8872
秊	-10.8872
刋	-10.8873
嗣公	-10.8874
道德	-10.8875
人不得	-10.8875
䑓	-10.8875
父子之親	-10.8875
祇	-10.8875
胾	-10.8875
鋭	-10.8875
宋鄭克撰	-10.8876
攄	-10.8876
孫沔	-10.8876
萯	-10.8876
隷	-10.8876
裝	-10.8876
鄧	-10.8876
暢	-10.8876
繩墨	-10.8876
乖	-10.8877
練	-10.8877
蠶	-10.8877
逄	-10.8877
𤓰	-10.8877
飺	-10.8877
康	-10.8878
秩	-10.8878
諛	-10.8878
纔	-10.8878
飭	-10.8878
績按齊語作	-10.8878
鹵	-10.8878
耒	-10.8879
洛	-10.8879
君臣上下之	-10.8879
漆	-10.8879
皷	-10.8879
譏	-10.8879
㓕	-10.8879
脊	-10.888
排	-10.888
千乘之國	-10.888
盲	-10.888
消	-10.888
促	-10.888
尹洙龍圖	-10.888
堪	-10.8881
堵	-10.8881
醎	-10.8881
甯戚	-10.8881
洒	-10.8881
湛	-10.8881
鬪	-10.8881
櫎	-10.8881
竇	-10.8882
諸兒	-10.8882
慰	-10.8882
謾	-10.8883
斗斛	-10.8883
桓公問管子曰請問	-10.8883
疋	-10.8883
□	-10.8883
聾	-10.8883
謂臣	-10.8883
為之奈何管子對曰	-10.8883
祐	-10.8883
鞫情之術	-10.8883
芻	-10.8883
冡	-10.8884
基	-10.8884
愽	-10.8884
祗	-10.8884
烏集之交	-10.8884
懦	-10.8884
漂	-10.8884
爲之奈何管子對曰	-10.8884
桓公問於管子曰請問	-10.8884
祈福	-10.8884
昇	-10.8884
治之至也	-10.8884
蟻	-10.8885
遏	-10.8885
史本傳	-10.8885
痕	-10.8885
肱	-10.8885
菁茅	-10.8885
耗	-10.8885
饟	-10.8885
程式	-10.8886
閔	-10.8886
韋	-10.8886
所以自	-10.8887
伐莒	-10.8887
敕	-10.8887
公曰諾	-10.8887
隋	-10.8887
股	-10.8888
曼	-10.8888
染	-10.8888
赫	-10.8889
於吾國	-10.8889
沙門	-10.8889
沆	-10.889
暇	-10.889
為人所殺	-10.889
不便	-10.889
胷	-10.8891
不直則	-10.8892
廐	-10.8892
數百人	-10.8892
技藝之	-10.8893
徳裕	-10.8893
保雍	-10.8893
㳟	-10.8893
侔	-10.8893
通判	-10.8893
鑄	-10.8893
捉	-10.8894
亂主則不然	-10.8894
罰有罪	-10.8894
覘	-10.8894
蘭	-10.8894
亂之本也	-10.8894
諷	-10.8894
鮮	-10.8894
在其中	-10.8895
轡筴	-10.8895
朝夕	-10.8895
籍沒	-10.8895
帷	-10.8895
寐	-10.8895
衫	-10.8895
柎	-10.8896
中牟	-10.8898
府庫	-10.8899
申子曰	-10.8899
江淮	-10.8899
細民	-10.8899
卜皮	-10.8901
刑重	-10.8902
酷吏	-10.8902
髙柔	-10.8902
卑辱	-10.8904
約結	-10.8905
定社稷	-10.8906
者責之	-10.8907
五百里	-10.8908
詩書	-10.891
負寃	-10.891
十二始	-10.8911
未㡬	-10.8914
台	-10.8914
以廣其	-10.8915
兵革	-10.8917
寃狀	-10.8917
能令	-10.8919
老弱	-10.8921
不阿	-10.8922
危殆	-10.8922
荆南	-10.8926
食飲	-10.8926
閉藏	-10.8928
小兒	-10.8928
物至而	-10.8929
慈愛	-10.8929
之正也	-10.8931
夫差	-10.8931
刑戮	-10.8932
赴官	-10.8934
為人臣	-10.8934
濟陽君	-10.8935
靈王	-10.8935
天下而不	-10.8935
堯之	-10.8936
出號令	-10.8937
公仲	-10.8939
三族	-10.8941
陳氏	-10.8941
父老	-10.8944
於上也	-10.8946
萬乗之	-10.8948
郡守	-10.8949
楚金	-10.8949
也若夫	-10.8949
盡知之	-10.8949
改正	-10.895
公私	-10.895
而弗	-10.8952
損益	-10.8952
謂重	-10.8953
而大	-10.8953
謂大	-10.8954
待制	-10.8958
獄具	-10.8958
臨安	-10.896
鄉師	-10.8962
守職	-10.8965
各以其	-10.8966
專制	-10.897
謀慮	-10.897
去就	-10.8974
費仲	-10.8974
水火	-10.8974
服習	-10.8974
刀布	-10.8975
校官	-10.8978
中期	-10.8979
送官	-10.8981
興兵	-10.8982
北齊	-10.8983
日益	-10.8984
禁邪	-10.8989
廢私	-10.8992
和平	-10.8996
美其	-10.8999
無所用	-10.9003
分於	-10.9008
四極	-10.9011
與兒	-10.9015
士師	-10.9016
善之	-10.9023
姦偽	-10.9023
設詐	-10.9024
長婦	-10.9026
權也	-10.9026
之勢也	-10.9026
貴富	-10.9026
説難	-10.9027
村民	-10.9029
貴而不	-10.9032
者使之	-10.9034
攻韓	-10.9034
南齊	-10.9035
五屬	-10.9036
匠人	-10.9037
羣下	-10.9038
人主失	-10.9042
不擇	-10.9043
務農	-10.9044
生則	-10.9049
脅之	-10.9051
甚衆	-10.9051
富强	-10.9054
怨咎	-10.9054
有法	-10.9057
上卿	-10.9059
也以其	-10.906
子良	-10.9061
大姓	-10.9063
漁者	-10.9066
何足	-10.9068
非誠	-10.9069
之節	-10.9074
而不化	-10.9075
一宿	-10.9078
國子	-10.908
起兵	-10.9082
二千	-10.9083
求索	-10.9084
役也	-10.9087
於鄉里	-10.9088
里中	-10.9095
其事既	-10.9097
武王有	-10.9102
其僕	-10.9106
正直	-10.9107
市朝	-10.9109
良民	-10.9111
儒者	-10.9112
無度則	-10.9113
相室	-10.9115
無辜	-10.9116
義故	-10.9121
生怨	-10.9128
務在	-10.9131
告人	-10.9131
作難	-10.9131
輕敵	-10.9135
尚何	-10.9137
所言	-10.9138
明年	-10.9142
乃可	-10.9144
墨子	-10.9149
方城	-10.9151
所得	-10.9152
力上	-10.9153
子大夫	-10.9153
滅之	-10.9155
則從	-10.9159
守常	-10.9159
神明之	-10.9162
彊也	-10.9162
矜謹之	-10.9163
桑也	-10.9166
之耳	-10.9166
計者	-10.9168
給事	-10.9169
曰人主	-10.9172
不為愛	-10.9175
其屍	-10.9181
任事	-10.9182
必於	-10.9183
已定	-10.9188
死于	-10.9191
吳人	-10.9194
不可欺	-10.9198
得情	-10.9198
近時	-10.9198
此一	-10.92
夫上	-10.9202
至於此	-10.9206
厚者	-10.9213
義者	-10.9214
衰矣	-10.9214
爲人	-10.9215
貴重	-10.9218
此必	-10.922
因令	-10.9223
以至	-10.9235
虚心	-10.9235
去智	-10.9236
桓公曰善桓公	-10.9238
國而	-10.9239
則民輕	-10.9242
其族	-10.9246
豈無	-10.9248
之籍也	-10.925
生萬物	-10.9257
執法	-10.9259
之過也	-10.9259
書中	-10.926
而待之	-10.9261
末用	-10.9261
楚王	-10.9267
不差	-10.9269
不宜	-10.927
者外	-10.927
天下之大	-10.9271
道也者	-10.9274
其說	-10.9279
一言而	-10.9281
之說	-10.9282
約其	-10.9283
假於	-10.9283
積於	-10.9289
不能守	-10.9298
異而	-10.9299
有數	-10.93
謂善	-10.9303
而后	-10.9304
傷其	-10.9305
為天子	-10.9309
以為然	-10.9312
官則	-10.9314
什伍以	-10.9315
於越	-10.9319
皆得	-10.9319
則不成	-10.9326
令未	-10.9334
後人	-10.9348
君何不	-10.935
中得	-10.9355
之言則	-10.9358
溺	-10.936
富家	-10.9364
故賢者	-10.937
而靜	-10.9371
乃見	-10.9374
主尊	-10.9374
赦罪	-10.9378
輕誅	-10.9382
風也	-10.9387
且不	-10.9389
惠者	-10.939
詰其	-10.9394
侈則	-10.9397
使羣臣	-10.9401
悔也	-10.9402
無成	-10.9402
故曰欲	-10.9405
利在	-10.9408
盡在	-10.9415
地而	-10.9417
澤不	-10.942
不覺	-10.9424
强至	-10.9426
推事	-10.9436
在心	-10.9436
百鍾	-10.9439
皆貴	-10.9441
諸侯之君	-10.9442
公怒	-10.9455
有罪者	-10.9461
焚之	-10.9462
虛也	-10.9468
成王	-10.9477
知之矣	-10.9484
常者	-10.9485
以身	-10.9489
說也	-10.9493
訴之	-10.95
行賞罰	-10.9503
國有四	-10.9504
使諸侯	-10.9504
名正	-10.9505
即是	-10.9519
無患	-10.9519
不須	-10.952
賞必	-10.9528
得地	-10.9528
之利也	-10.9528
不濟	-10.9528
其食	-10.9529
敎民	-10.9534
嫁之	-10.9534
必敗	-10.9538
官物	-10.954
召之	-10.9546
刑罰以	-10.9546
雖衆	-10.9549
此臣	-10.955
之機	-10.9552
萬乗	-10.9552
以招	-10.9554
欲知其	-10.9554
財用	-10.9555
髙子	-10.9563
一人之	-10.9566
之功也	-10.9568
故法	-10.9575
在後	-10.9587
不可得而	-10.9587
則民無	-10.9589
大數	-10.9591
萬世	-10.9603
民之情	-10.9604
不自	-10.9604
而輕其	-10.9608
候之	-10.9614
令臣	-10.9628
書曰	-10.9634
敗而	-10.9637
問疾	-10.9638
足下	-10.9642
不茍	-10.9646
逺見	-10.9649
與汝	-10.9654
不售	-10.9654
一馬	-10.9666
國强	-10.9668
生心	-10.967
天子而	-10.9671
道術	-10.9674
懷其	-10.9679
離法而	-10.9688
所憎	-10.9692
鼔之	-10.9696
則以為	-10.9696
國富而	-10.971
使能	-10.9711
君聞	-10.9712
美者	-10.9716
行事	-10.9721
首服	-10.9725
不還	-10.9726
御者	-10.973
絶也	-10.9737
為我	-10.9738
術也	-10.9739
北方	-10.9739
即令	-10.9744
可乎	-10.9745
弑君	-10.9748
索人	-10.9755
辯說	-10.9756
出乎	-10.9771
曰吾聞	-10.9775
法外	-10.9775
則萬	-10.9781
吾所	-10.9781
任官	-10.9791
之弊	-10.9798
賢臣	-10.9799
其要	-10.9805
事本	-10.9808
用兵之	-10.981
之首	-10.9818
釋之	-10.9822
相怨	-10.9842
守也	-10.9845
言行	-10.9852
無為而	-10.9854
亂法	-10.9855
以定	-10.9856
得實	-10.9856
而不失	-10.986
之難也	-10.9865
不行於	-10.9866
無人	-10.9869
吾聞	-10.987
漢書	-10.9876
其貲	-10.9882
君何	-10.9883
其量	-10.9892
不容	-10.9896
第七	-10.9901
室中	-10.9909
為功	-10.9911
豈有	-10.9914
公其	-10.992
君用	-10.9921
有名	-10.9928
厚於	-10.9929
以干	-10.9937
而聼	-10.9939
武也	-10.9943
留之	-10.9944
令民	-10.995
至此	-10.9952
公問	-10.9958
宋人	-10.996
家貧	-10.9961
寶也	-10.9969
無過失	-10.9971
故民無	-10.9978
無功者	-10.9979
已死	-10.998
其城	-10.9981
而言	-10.9982
反國	-10.9983
先入	-10.9983
三子	-10.9992
謂之知	-10.9998
能生	-11.0003
予人	-11.0004
皆道	-11.0011
是時	-11.0014
禮樂	-11.0022
藏之	-11.003
愛而	-11.003
若非	-11.0035
可食	-11.0047
大過	-11.0052
六十	-11.0053
此其所以	-11.0053
理義	-11.0054
者國之	-11.0057
地廣	-11.006
盟	-11.006
丁氏	-11.0061
有百	-11.0065
則姦臣	-11.0066
立國	-11.007
欲知	-11.0073
君命	-11.0075
為客	-11.0086
第四	-11.009
而離	-11.01
恃其	-11.0103
立之	-11.0108
其澤	-11.0122
發也	-11.0123
授官	-11.0125
不守	-11.0126
有積	-11.0129
不正則	-11.0132
勢者	-11.0132
而出之	-11.0133
是失	-11.0134
御之	-11.0135
其過	-11.0138
敬也	-11.0153
度其	-11.0154
民惡	-11.0155
終無	-11.0159
則令行	-11.0183
而謹	-11.0184
必能	-11.0186
國弱	-11.0188
邪臣	-11.0203
其理	-11.0215
戰於	-11.0224
乎夫	-11.0229
逆旅	-11.0232
守者	-11.0242
驥	-11.0249
用人	-11.025
士既	-11.0251
姦民	-11.0255
可以取	-11.026
立政	-11.0261
勞而不	-11.0268
於世	-11.0275
謂有	-11.028
在前	-11.0293
親愛	-11.0297
浴	-11.03
其目	-11.0304
戰士	-11.0305
於事	-11.031
欲籍於	-11.0312
樹之	-11.0316
王必	-11.0318
窮矣	-11.0319
不入	-11.032
其枉	-11.0323
是言	-11.0326
而驕	-11.0333
桀之	-11.0336
勢治	-11.0354
棄其	-11.0355
君危	-11.0362
偽也	-11.0369
死之	-11.0375
在門	-11.0375
不免	-11.0381
效之	-11.039
勸勉	-11.0391
二字	-11.0393
驚曰	-11.0393
中國之	-11.0397
於民心	-11.0415
則禍	-11.0417
客曰	-11.0423
君之所以	-11.0438
必王	-11.044
而莫之	-11.0444
上必	-11.0447
免之	-11.0447
問所	-11.045
利故	-11.0455
爵尊	-11.0464
以觀其	-11.0483
銚	-11.0495
遺冠	-11.0497
夭	-11.0498
相反也	-11.0503
欲治其	-11.0504
怒則	-11.0505
莫大於	-11.0509
奴	-11.0511
堊	-11.0512
舉大事	-11.0514
答	-11.0514
若其事立	-11.0516
如此者身危	-11.0517
辟疆	-11.0517
不亦宜乎	-11.0517
卯	-11.0518
未可知也	-11.0519
膳	-11.0519
釱	-11.0519
可以加政矣	-11.052
摽	-11.0521
縫	-11.0522
有以感	-11.0522
菑	-11.0523
士農工商	-11.0524
東郭郵	-11.0524
饒	-11.0524
盥	-11.0524
穆	-11.0524
櫛	-11.0524
竽	-11.0524
之國惡之	-11.0525
錐	-11.0525
白圭	-11.0526
先難而後易	-11.0526
許諾	-11.0527
之義也	-11.0527
此六者以	-11.0527
􁫼	-11.0528
諸君吾子	-11.0529
讂	-11.0529
公孫無知	-11.0529
涸	-11.0529
對曰惡則惡矣然非其急者也公	-11.0529
措	-11.053
功臣之家	-11.053
行秋政則	-11.053
國非其國也	-11.053
倣此	-11.053
啚	-11.053
於百姓	-11.0531
豕	-11.0531
樂羊	-11.0531
鮑叔牙	-11.0531
誇	-11.0531
嘖室之議	-11.0531
絀	-11.0532
嫡	-11.0532
廹	-11.0533
自謂	-11.0533
箕	-11.0533
存不攻	-11.0533
麤	-11.0533
穿	-11.0534
貝	-11.0534
南面	-11.0534
剖	-11.0535
僖公	-11.0535
出于	-11.0536
來天下之財	-11.0536
侈泰	-11.0536
茸	-11.0536
殿	-11.0537
匕	-11.0537
始乎無端卒乎無窮	-11.0537
稻	-11.0537
斧鉞	-11.0537
侍御史	-11.0537
致天下之民	-11.0537
竿	-11.0538
弓矢	-11.0538
懈怠	-11.0538
莫知其極	-11.0538
祕	-11.0538
穢	-11.0538
吹	-11.0538
睢	-11.0538
㨗	-11.0539
皆已官	-11.0539
錮	-11.0539
普	-11.0539
儻	-11.0539
犀	-11.0539
禁繆	-11.0539
之計莫如樹	-11.0539
管仲與召忽	-11.054
有聞道而好	-11.054
蓋天下而	-11.054
耆	-11.054
陋	-11.054
孝悌	-11.054
恊	-11.054
􁎺	-11.054
逞	-11.054
惶恐	-11.054
梗	-11.054
萬乘之主	-11.054
訖	-11.0541
萃	-11.0541
梓	-11.0541
鹽筴	-11.0541
國貧而用不足	-11.0541
君臣父子	-11.0541
楯	-11.0541
飢而	-11.0541
隄防	-11.0542
壘	-11.0542
睹	-11.0542
十有三	-11.0542
慈母	-11.0542
鄒君	-11.0542
不亦可乎	-11.0542
俴	-11.0543
倡	-11.0543
則戰不勝	-11.0543
鮑	-11.0543
巖穴	-11.0543
見歐陽修	-11.0543
稽之以	-11.0544
夫具而天下無	-11.0544
葵丘	-11.0544
勒	-11.0544
斛	-11.0544
卜筮	-11.0544
杯	-11.0544
靣	-11.0544
盖天下而	-11.0544
燥	-11.0544
黎	-11.0544
孰能棄	-11.0544
誦	-11.0545
偷取一	-11.0545
羣萃而州處	-11.0545
不逺道里	-11.0545
旄	-11.0545
壺	-11.0545
耘	-11.0545
小白曰夫	-11.0545
而堅守之	-11.0545
娶	-11.0546
賛	-11.0546
悌	-11.0546
管子對曰不可是	-11.0546
饌	-11.0546
戍	-11.0546
惛	-11.0546
阜	-11.0546
混	-11.0546
之人謂我	-11.0547
精潔	-11.0547
鋟	-11.0547
鈔	-11.0547
爨	-11.0547
九十	-11.0547
忤	-11.0547
祭祀	-11.0547
莫之能圉	-11.0547
星辰	-11.0547
嗛	-11.0548
之常也治之以	-11.0548
傷國一也	-11.0548
烝	-11.0548
虢	-11.0548
問曰汝	-11.0548
不能用敵	-11.0548
辦	-11.0548
所以然者	-11.0548
誹	-11.0548
包拯	-11.0548
協	-11.0548
探	-11.0548
李悝	-11.0548
羨	-11.0548
鍜	-11.0548
延禧	-11.0548
閭有司	-11.0548
􁠆	-11.0548
不免於	-11.0549
絹	-11.0549
園	-11.0549
社稷宗廟	-11.0549
槩	-11.0549
轄	-11.0549
虙	-11.0549
趙簡主	-11.0549
􁷑	-11.0549
國之貧也	-11.0549
亞	-11.055
麥	-11.055
数	-11.055
尺而至於泉	-11.055
叔瞻	-11.055
五臭	-11.055
筦	-11.055
芸	-11.055
錢十萬	-11.0551
瞻	-11.0551
栁渾	-11.0552
尺寸	-11.0552
公平而無私故	-11.0552
不見其形	-11.0552
問其鄉里	-11.0552
懾	-11.0552
券	-11.0552
凡人	-11.0552
踣	-11.0552
縁陵	-11.0552
閉禍在除怨	-11.0552
稼亡三之一	-11.0552
善射者	-11.0552
鼻	-11.0553
穰侯	-11.0553
鬲	-11.0553
天地之位	-11.0553
闢	-11.0553
人食者有一人耕而	-11.0553
行此三者有罪無赦	-11.0553
昻	-11.0553
饗	-11.0554
量委	-11.0554
舒	-11.0554
咡	-11.0554
象地無親	-11.0554
有狗嘊嘊旦暮欲齧我猳而不使也今夫	-11.0554
章頻	-11.0555
朝諸侯卿大夫列士循於百姓號曰祭	-11.0555
所以治	-11.0555
蔡嫗	-11.0555
繇	-11.0555
既得	-11.0556
坊	-11.0556
劫殺之	-11.0556
像	-11.0556
忒	-11.0556
百餘人	-11.0556
鍳	-11.0556
魏宣子	-11.0556
蜜	-11.0556
豪右	-11.0556
鄢陵	-11.0556
四政曰	-11.0557
庚	-11.0557
方圜	-11.0557
闘	-11.0557
蝨	-11.0557
十分去	-11.0558
日而具則財物之賈什去	-11.0558
檄	-11.0558
元濟	-11.0558
兎	-11.0558
文繡	-11.0558
叩	-11.0558
曷	-11.0559
炮	-11.0559
灼	-11.0559
和㠓	-11.0559
右經一	-11.0559
祝鳬已疪	-11.0559
明張景撰	-11.0559
灾	-11.0559
提要	-11.056
豐滿	-11.056
跪	-11.056
浙	-11.056
龍學	-11.056
山谷	-11.056
糧食	-11.056
油	-11.056
離枝	-11.056
務於	-11.056
必亂	-11.056
你	-11.056
翰	-11.0561
㑹稽	-11.0561
者其恱在	-11.0561
有患則	-11.0561
鄧析	-11.0561
祈	-11.0561
漿	-11.0561
橋	-11.0561
牆垣	-11.0562
人廩食	-11.0562
勇怯	-11.0562
豫章	-11.0562
懦弱	-11.0562
勇則	-11.0562
斵	-11.0563
值	-11.0563
出南史本傳	-11.0563
遭	-11.0563
住	-11.0563
買譽	-11.0563
轅	-11.0563
龍夏	-11.0564
漫	-11.0564
署	-11.0564
偷兒	-11.0564
旬日	-11.0564
孫叔敖	-11.0564
涸澤	-11.0564
讒賊	-11.0565
鑊	-11.0565
不易其則故	-11.0565
疵	-11.0565
曹攄	-11.0566
閉塞	-11.0566
者試之以	-11.0566
煥	-11.0566
隐	-11.0566
何也對曰	-11.0566
素也	-11.0566
有道之國	-11.0567
行夏政則	-11.0567
聖人法之以	-11.0567
農挾	-11.0567
再劾	-11.0568
思兢	-11.0568
繫獄	-11.0569
懇	-11.0569
鱗	-11.057
桓侯	-11.057
准平	-11.057
擠	-11.0571
比干	-11.0571
如天地之	-11.0571
應侯	-11.0571
株	-11.0571
事成則	-11.0571
則撫之	-11.0571
駁	-11.0571
過在下	-11.0572
希崇	-11.0573
夷射	-11.0573
異姓	-11.0573
受賂	-11.0573
爲人臣者	-11.0573
市井	-11.0574
無所容	-11.0574
接絶	-11.0575
田成子	-11.0575
不可測	-11.0575
貧病	-11.0575
對桓公曰	-11.0576
胡質	-11.0576
四子者	-11.0577
侮文	-11.0577
鄭袖	-11.0578
粟也者	-11.0578
姊	-11.0578
以相待	-11.0579
門户	-11.0579
流徙	-11.0579
訴於州	-11.058
歩	-11.058
帝王之	-11.058
數輩	-11.0581
人君操	-11.0581
告事者	-11.0582
長史	-11.0582
烈士	-11.0582
進諫	-11.0583
人得餘	-11.0583
投書	-11.0584
法而治	-11.0584
吉凶	-11.0585
汝等	-11.0587
靈公	-11.0587
人來	-11.0588
士不死	-11.0588
捕賊	-11.059
卿諸侯	-11.059
遇賊	-11.0591
獲免	-11.0591
有餘日	-11.0591
亦猶是也	-11.0591
戎王	-11.0592
施薄	-11.0593
通典	-11.0593
曲木	-11.0593
雜處	-11.0596
國家不	-11.0597
廣思	-11.0598
賞無功	-11.0599
事故	-11.06
禍亂	-11.0601
則入多	-11.0602
保長	-11.0602
明主猶	-11.0603
精神	-11.0603
一害也	-11.0603
興師	-11.0604
小征	-11.0604
陽春	-11.0606
之所歸也	-11.0606
民利之	-11.0607
知桓公之	-11.0607
不勝任	-11.0607
東方	-11.0608
四時之行	-11.0609
食鹽	-11.0609
稱寃	-11.061
則禄賞不	-11.061
籍謂之	-11.0612
以嚴	-11.0613
則國毋	-11.0613
困而	-11.0613
輕國	-11.0615
恐懼	-11.0617
入齊	-11.0618
耳目之所	-11.0619
逃亡	-11.0619
畏恐	-11.0619
焉故明法曰	-11.062
卑尊	-11.0621
十月	-11.0623
之所生生於	-11.0623
桓公曰諾令	-11.0624
太仁	-11.0624
桓公曰請問	-11.0624
者天下之	-11.0624
内御	-11.0625
法不立	-11.0626
列士	-11.0628
所舉	-11.0628
憂懼	-11.0629
某處	-11.063
明法術	-11.063
詩曰	-11.063
唯聖人	-11.063
壤地	-11.063
辯説	-11.0632
奪於天下	-11.0633
登山	-11.0633
而可管子對曰	-11.0636
十倍其賈	-11.0637
阿黨	-11.0637
經常	-11.0637
無益於	-11.0638
趙和	-11.0638
謂其地	-11.0638
學士	-11.0639
舉國而	-11.064
堂上	-11.064
宋人有	-11.0641
而問之曰	-11.0641
城池	-11.0641
四經	-11.0645
世良	-11.0646
則不祥	-11.0649
老母	-11.0653
來者	-11.0653
用譎	-11.0653
而恃	-11.0658
慙	-11.0658
乾夫	-11.0659
文字	-11.0664
淫亂	-11.0664
問國之	-11.0664
列地	-11.0665
官無	-11.0666
未起	-11.0667
九州	-11.0667
餘悉	-11.0667
名號	-11.0668
不戰而	-11.0669
推車	-11.067
有事則	-11.0676
事名二	-11.0678
公孫鞅曰	-11.0679
推問	-11.0686
無用之	-11.0686
疾動	-11.0686
男女之	-11.0686
之然也	-11.0688
而無止	-11.0689
師長	-11.069
君臣親	-11.0692
七日	-11.0692
千緡	-11.0693
合獨	-11.0693
乃伏	-11.0694
教化	-11.0695
是我	-11.0695
不能決	-11.0695
賞譽	-11.0696
無厭	-11.0697
以為神	-11.07
第一	-11.07
常道	-11.07
賞厚	-11.0701
被殺	-11.0703
强秦	-11.0705
正月	-11.0706
處朝	-11.0706
何以知其	-11.0706
辯士	-11.0707
明者	-11.0711
四年	-11.0713
也故以	-11.0713
强敵	-11.0714
爵尊而	-11.0717
計謀	-11.072
實虚	-11.0725
所記	-11.0728
不祥	-11.0729
可定	-11.0733
害己	-11.0733
民之用也	-11.0734
武勇	-11.0736
失諸	-11.0736
無貲	-11.0737
小說	-11.0742
無所立	-11.0742
或稱	-11.0742
民不服	-11.0743
百姓外	-11.0745
民衆而	-11.0745
亡國之	-11.0747
舟人	-11.0749
無比周	-11.0749
但當	-11.0749
者命曰	-11.0751
多而	-11.0755
不以私	-11.0755
曽子	-11.0756
至元	-11.0758
背法	-11.0758
充謂	-11.0758
必就	-11.076
丈人	-11.0761
而不知所	-11.0769
變易	-11.077
泣曰	-11.0771
田數	-11.0771
禦也	-11.0774
亡者	-11.0775
大破	-11.078
即前	-11.0783
爭名	-11.0787
好名	-11.0791
而兵强	-11.0796
進士	-11.0805
寒暑之	-11.0805
迹賊	-11.0809
後患	-11.081
齊侯	-11.081
求利	-11.0813
足於	-11.0814
之所加	-11.0815
其命	-11.0817
刼殺	-11.0819
一婦人	-11.0824
入秦	-11.0825
尊貴	-11.0826
而農夫	-11.0829
齊晉	-11.0831
三大夫	-11.0832
修士	-11.0832
威衆	-11.0837
適不	-11.0838
外而	-11.0839
而不爭	-11.0842
一篇	-11.0846
道也故	-11.0847
妄行	-11.0848
於内而	-11.0851
行罰	-11.0856
趙王	-11.0856
殺其夫	-11.0859
然如	-11.086
以名	-11.0862
四禁	-11.0864
不逺	-11.0866
之酒	-11.0867
而入	-11.0877
不得入	-11.0882
則國亂	-11.0882
必行之	-11.0886
孫子	-11.0893
易去	-11.0896
主卑	-11.0898
故天	-11.0903
灌之	-11.0904
郡中	-11.0904
得此	-11.0907
遂釋	-11.0909
奪也	-11.0909
美而	-11.091
投井	-11.0911
亦云	-11.0915
而秦	-11.0916
有道者不	-11.0918
伺之	-11.0921
變法	-11.0924
以其勢	-11.0927
用兵者	-11.0927
春三月	-11.093
姦盗	-11.0937
餘子	-11.0938
詔令	-11.0942
宫人	-11.0947
夫韓	-11.0949
不可止	-11.0957
氣下	-11.0957
然則是	-11.0957
獲盗	-11.0958
教令	-11.0961
獨立	-11.0966
也君子	-11.0966
重誅	-11.0967
外人	-11.0968
不能禁	-11.0969
非在	-11.0971
得度	-11.0971
濟於	-11.0973
出後漢書本	-11.0978
朞年	-11.098
故須	-11.0982
績按當	-11.0983
挈	-11.0989
焚其	-11.0992
子思	-11.0994
言精	-11.1007
為政者	-11.1011
幣重	-11.1016
固守	-11.1016
終其	-11.1017
國邑	-11.1018
吾恐	-11.1018
大利也	-11.1019
生臣	-11.1024
子期	-11.1037
管子對曰君	-11.104
民情	-11.1044
下怨	-11.1058
覆之	-11.1061
十有二	-11.1061
乎如	-11.1066
自治之	-11.1067
於外也	-11.1069
人莫能	-11.107
矣於是	-11.1072
於俗	-11.1073
自定	-11.1074
民必	-11.1075
非虚	-11.1076
一切	-11.1078
事其君	-11.1078
黒而	-11.108
初不	-11.1084
願君	-11.109
民之無	-11.1093
詐以	-11.1094
積也	-11.1094
之以利	-11.1096
民無取	-11.1097
乎曰	-11.1111
口無	-11.1114
於北	-11.1115
則邪	-11.1116
其制	-11.1117
亡乎	-11.1118
代人	-11.1121
欽定四庫全書管子補注卷十	-11.1121
而憂	-11.1126
者民之所	-11.1127
公曰善乃	-11.1128
離法	-11.1135
安可	-11.1136
時或	-11.1138
智乎	-11.1141
之半	-11.1141
治之本	-11.1142
故殺	-11.1143
無等	-11.115
城中	-11.1153
必出於	-11.1157
無厚	-11.1167
餘力	-11.1168
戰者	-11.1171
失守	-11.1175
家事	-11.1177
救小	-11.1179
令一	-11.1179
先後之	-11.118
事以	-11.1182
也臣請	-11.1185
矣然而	-11.1189
語言	-11.1193
燕之	-11.1194
也桓公曰	-11.1196
亂乎	-11.1199
成霸	-11.1199
難而	-11.1205
不得已	-11.1209
而收	-11.1211
罪而不	-11.1224
寡人願	-11.1227
刺之	-11.1228
大義	-11.1233
妻妾	-11.1233
也且夫	-11.1237
宣王	-11.1238
聖人之治	-11.1238
上義	-11.1242
主失	-11.1244
末事	-11.1244
智謀	-11.1245
嚴誅	-11.1247
國筴	-11.1265
其民而	-11.1268
桓公乃	-11.1272
曰誰	-11.1284
者不必	-11.1284
此術也	-11.1292
四百	-11.1295
相齊	-11.1297
往者	-11.1299
如是者	-11.13
令而民	-11.1301
其所惡	-11.1302
之不足	-11.1306
自歸	-11.131
有過者	-11.131
所以勝	-11.1311
虚矣	-11.1312
矣吾	-11.1313
皆如	-11.1315
君臣相	-11.1316
終於	-11.1322
不病	-11.1323
時稱	-11.1324
故天子	-11.1327
官治	-11.1331
敗事	-11.1333
適善	-11.1333
使之而	-11.1339
君曰諾	-11.1343
而問曰	-11.1346
公主	-11.1357
為法	-11.1363
虚言	-11.1376
言辭	-11.1378
而强	-11.1383
繩之	-11.1384
也故上	-11.1386
納之	-11.1387
王二	-11.1396
不奪	-11.1397
而就	-11.14
此書	-11.1404
為利	-11.1406
二主	-11.1411
欲得	-11.1413
從令	-11.1416
認之	-11.1416
夜有	-11.1418
非我	-11.142
而韓	-11.1421
夫兵	-11.1421
公子小白	-11.1422
某人	-11.143
必固	-11.1437
道從	-11.1438
一云	-11.1441
是以其	-11.1441
故不怨	-11.1448
而不盡	-11.1454
子也	-11.1455
乎天下	-11.1456
事天	-11.146
强也	-11.1461
近者以	-11.1461
得水	-11.1465
固也	-11.1484
怪之	-11.1484
而賞之	-11.1486
爵禄而	-11.1486
怒之	-11.1491
刑徳	-11.1492
家人	-11.1493
是又	-11.1493
者皆曰	-11.1499
以固其	-11.15
上賢者	-11.1504
内失	-11.1524
不知而	-11.1525
矣是以	-11.1526
主明	-11.1528
躁而	-11.1532
民歸之	-11.1534
稱之	-11.1536
主好	-11.154
治國之	-11.1541
信明	-11.1542
聞官	-11.1544
有善者	-11.1547
所捕	-11.1548
下不能	-11.155
在身	-11.155
上舎	-11.1563
不任其	-11.1565
案其	-11.157
不驕	-11.1573
不怨也	-11.1575
故曰聖人	-11.1577
以守戰	-11.1578
於兵	-11.1581
▁按	-11.1584
者得人	-11.1587
者觀	-11.1589
可安	-11.1591
二君之	-11.1594
不識	-11.1596
必有以	-11.1597
雖知	-11.1601
人間	-11.1614
動之	-11.1616
今之	-11.1619
一物	-11.1623
誅也	-11.163
各有所	-11.1637
度法	-11.1641
民信之	-11.1646
十者	-11.1661
也桀紂	-11.1663
與諸侯	-11.1665
籍之	-11.1668
乆矣	-11.1672
尚可	-11.1674
三度	-11.1675
少則	-11.1676
官者	-11.1679
夫管仲	-11.168
不貴	-11.1681
多怨	-11.1681
工事	-11.1683
魯梁之	-11.1689
輕重之數	-11.1695
至今	-11.1696
其福	-11.1697
也夫民	-11.1698
必加	-11.1699
敢問	-11.1701
君長	-11.1708
此以上	-11.1716
數矣	-11.172
金石之	-11.1728
饑而	-11.1733
聽上	-11.1735
臣下之	-11.1737
論功	-11.1746
堯有	-11.1747
或可	-11.1752
於勢	-11.1761
事賢	-11.1768
有病	-11.1778
管子對曰請以令	-11.1786
也君人者	-11.1786
上利	-11.1787
道生	-11.1788
生成	-11.1799
此六	-11.181
則功	-11.181
者則不可	-11.1815
法刑	-11.1817
遊於	-11.1819
必削	-11.1819
聽於	-11.1824
君子也	-11.1824
不休	-11.1828
出則	-11.1829
為罪	-11.1829
言自	-11.1835
國名	-11.1844
立威	-11.185
則百事	-11.1859
立為	-11.186
不見其	-11.1873
者道之	-11.1877
如此故	-11.1886
而不能以	-11.1886
治世	-11.1893
人持	-11.1897
予也	-11.1902
俗而	-11.1907
爵賞	-11.1909
國之道	-11.1909
未嘗不	-11.1913
能辨	-11.1917
盡以	-11.1934
術同	-11.1937
弱强	-11.1945
無勢	-11.1947
免於	-11.1948
傷義	-11.195
人人	-11.1964
復見	-11.1966
疑焉	-11.1977
屬之	-11.1978
而藏之	-11.1983
順天	-11.1991
虚無	-11.1996
而罪	-11.1996
相類	-11.1996
中則	-11.1998
善人	-11.2001
入多	-11.2007
財故	-11.201
欲求	-11.2012
也猶	-11.2014
無一人	-11.2015
能致	-11.2016
情得	-11.2016
則大	-11.2024
身體	-11.2057
失其民	-11.2059
太上	-11.2061
墾	-11.2075
出唐書	-11.2079
乎如在於	-11.2081
觀其所	-11.2085
杖之	-11.2092
解之	-11.2094
有職	-11.2095
所宜	-11.2109
豈不	-11.211
履之	-11.2115
輕重者	-11.2119
以為國	-11.2123
安知	-11.2126
於荆	-11.214
百千	-11.2143
也桓公曰善	-11.2146
已上	-11.2158
子産之	-11.2158
不恭	-11.2162
五味	-11.2164
後至	-11.2178
鞠	-11.2179
之枝	-11.2191
衣紫	-11.2194
犯者	-11.2198
當罪	-11.2214
不同於	-11.2221
夫物	-11.2222
皆見	-11.2228
臣不敢	-11.2246
以稱	-11.225
其兵	-11.225
化之	-11.2257
出從	-11.2261
故人主	-11.2261
文公之	-11.2267
道矣	-11.2269
所以失	-11.2276
不求於	-11.228
非可	-11.2281
門之	-11.2281
之囚	-11.2283
獲之	-11.2292
黄覇	-11.2303
秦為	-11.2305
齊景公	-11.2305
辯其	-11.2308
是以知	-11.231
下得	-11.2319
言此	-11.2319
施於民	-11.2323
求人	-11.2326
有厚	-11.2329
斬之	-11.233
佩	-11.2332
而擅	-11.235
齊國之	-11.236
一千	-11.2363
大吏	-11.2368
而明	-11.237
必勝之	-11.237
其榖	-11.237
之誤	-11.2371
之天地	-11.2373
以賞罰	-11.2384
之若何	-11.2384
亂官	-11.2389
彊釡	-11.2401
爲之也	-11.2403
百倍	-11.2414
飾也	-11.242
一舉而	-11.2424
耳故	-11.2429
用之則	-11.243
殆亦	-11.243
不敬	-11.243
仲父也	-11.2444
失天下	-11.2445
誣其	-11.2458
挾其	-11.2463
殉	-11.2463
嗣	-11.2466
誹謗	-11.2466
之罪也	-11.2473
察情	-11.2476
吳子	-11.2481
不分	-11.2484
當賞	-11.249
用而	-11.2491
皆死	-11.2493
其末	-11.2496
技	-11.2497
虱	-11.25
鄴	-11.2505
下怨上	-11.2505
拆	-11.2507
瓠	-11.2508
而子	-11.2509
稺也謂之逆	-11.2509
其孫也	-11.251
用也故	-11.251
之爪角害之	-11.2511
頌	-11.2512
􁲱	-11.2513
㕔	-11.2513
則主失	-11.2513
亦多	-11.2513
食其稱貸之家	-11.2515
瀷	-11.2516
其次一之	-11.2517
鐵官之	-11.2518
若秋雲之	-11.2519
者四一曰	-11.252
恭遜敬愛	-11.252
惕	-11.252
替	-11.2521
欽	-11.2521
彞	-11.2521
㠓	-11.2522
閬	-11.2522
枕	-11.2523
心之中又有心	-11.2524
㧾	-11.2524
銜	-11.2525
怵	-11.2525
芳	-11.2525
鎧	-11.2526
地不一利	-11.2526
而不行則	-11.2526
翟璜	-11.2527
陣	-11.2527
勢位	-11.2527
如此可	-11.2527
仲堪	-11.2527
者主之所	-11.2527
者寡矣	-11.2528
仲尼聞之曰	-11.2528
餙	-11.2528
􁉢	-11.2528
成軸	-11.2528
烈	-11.2528
俶	-11.2528
糠	-11.2529
貟	-11.2529
盂	-11.2529
擋	-11.2529
網罟	-11.2529
各得其所	-11.2529
衣也	-11.253
刧	-11.253
屯	-11.2531
鈎弦	-11.2532
響	-11.2532
邇	-11.2532
羹	-11.2532
彫	-11.2532
慕選	-11.2532
績按别本注	-11.2532
旌	-11.2533
階	-11.2533
雹	-11.2533
櫄	-11.2533
弼	-11.2533
有橐天地	-11.2533
矛	-11.2534
輯睦	-11.2534
譚	-11.2534
故莫之能	-11.2534
是故有道之君	-11.2534
南門之外	-11.2534
渝	-11.2534
橈	-11.2535
昭知天下通於四極	-11.2535
邪僻	-11.2535
􁈩	-11.2535
㸃	-11.2535
糾	-11.2535
估	-11.2535
干象	-11.2535
傅琰	-11.2535
行篤厚	-11.2535
􁅀	-11.2535
跖	-11.2536
日月之明	-11.2536
别註	-11.2536
庻	-11.2536
殖果木不如三土以十分之	-11.2536
緇	-11.2536
黽	-11.2536
装	-11.2536
韋臯	-11.2536
水潦	-11.2537
􁓦	-11.2537
橫	-11.2537
蕪	-11.2537
淇	-11.2537
􁏸	-11.2537
后稷	-11.2538
山林澤谷之利	-11.2538
鄆州	-11.2538
叚	-11.2538
槀	-11.2538
叙	-11.2539
珍	-11.2539
濡	-11.2539
肇	-11.2539
墓誌	-11.254
蘄	-11.254
公又問曰	-11.254
秋毫	-11.254
令則行禁則止	-11.254
沛	-11.254
不蓋天下不能正天下	-11.254
虞虢	-11.2541
參軍	-11.2541
兊	-11.2541
彭	-11.2541
熈	-11.2541
護	-11.2541
偉服	-11.2541
兩者謂	-11.2541
可得乎	-11.2541
盾	-11.2542
恡	-11.2542
譟	-11.2542
偏黨	-11.2542
富商蓄賈	-11.2542
監察御史	-11.2542
雨巖	-11.2542
龢	-11.2542
猒	-11.2542
胎	-11.2542
博學而不	-11.2542
錣	-11.2543
笠	-11.2543
淖齒	-11.2543
羲	-11.2543
萇𢎞	-11.2543
隸	-11.2543
駿	-11.2543
脛	-11.2543
討	-11.2543
者世謂之	-11.2543
賑	-11.2543
别本註	-11.2543
域	-11.2543
若雷電	-11.2543
結之以信	-11.2544
骸	-11.2544
潤	-11.2544
巽	-11.2544
款	-11.2544
先易而後難	-11.2544
仵作	-11.2544
動而無不從静而無不同	-11.2544
涉難而不	-11.2544
東西	-11.2544
扼	-11.2544
愉	-11.2545
精氣之極也	-11.2545
顚	-11.2545
地大而不	-11.2545
壕	-11.2545
寡人將	-11.2545
東西南北	-11.2546
雕琢	-11.2546
不牧之民	-11.2546
保其身	-11.2546
由余	-11.2546
藪澤	-11.2546
郢	-11.2546
脣	-11.2546
六畜不育	-11.2546
狡	-11.2546
王璥	-11.2546
稼	-11.2546
㸑	-11.2546
鑚	-11.2547
堂阜	-11.2547
攺	-11.2547
霜	-11.2547
勾踐	-11.2547
讙	-11.2547
竽瑟	-11.2547
熱	-11.2547
周旋	-11.2547
訐	-11.2547
郵	-11.2547
中婦諸子	-11.2547
士資在於	-11.2547
廕	-11.2547
汶	-11.2547
犢	-11.2547
蠢	-11.2547
欣然	-11.2548
可得聞乎管子對曰	-11.2548
蔓	-11.2548
刎	-11.2548
齎	-11.2548
魁	-11.2548
仭	-11.2548
倨	-11.2548
不兩立	-11.2548
寝	-11.2548
殁	-11.2548
猪	-11.2548
由此觀之	-11.2548
聞之以告	-11.2548
薛向	-11.2548
衙	-11.2548
中方副圖	-11.2549
壟	-11.2549
銷	-11.2549
任賢則	-11.2549
刻鏤	-11.2549
諂諛	-11.2549
金百鎰	-11.2549
終則有始	-11.2549
任大官	-11.2549
詹	-11.2549
輜	-11.2549
付獄	-11.2549
上之五者所	-11.2549
纍	-11.2549
竹	-11.255
劓	-11.255
奚仲	-11.255
丸	-11.255
洩	-11.255
譕	-11.255
魚鼈	-11.255
棠	-11.255
竄	-11.2551
悚	-11.2551
罸	-11.2551
床	-11.2551
田獵	-11.2551
苐	-11.2551
如地	-11.2551
桑門	-11.2551
管氏	-11.2551
者過半	-11.2551
張輅	-11.2551
誣能之人	-11.2551
陸雲	-11.2552
垂拱	-11.2552
西門豹	-11.2552
之民也而世少之曰	-11.2552
可得而聞乎管子對曰	-11.2552
参	-11.2552
姧	-11.2552
寘於法	-11.2552
者何物	-11.2552
弦	-11.2552
坼	-11.2553
額	-11.2553
其事號令	-11.2553
莫善於	-11.2553
以易攻	-11.2553
城隍	-11.2553
耕戰之士	-11.2553
憑	-11.2553
險阻	-11.2553
換	-11.2553
僊	-11.2553
煑	-11.2553
禪	-11.2553
使法量功不自度也	-11.2553
衣衾	-11.2553
尊主安國	-11.2553
掖	-11.2553
軀	-11.2553
不盖天下不䏻正天下	-11.2553
鹹	-11.2553
東走	-11.2554
咫尺	-11.2554
都匠	-11.2554
紬線	-11.2554
蹤跡	-11.2554
縦	-11.2554
祖者	-11.2554
和甫	-11.2554
而猶不行則	-11.2554
貼	-11.2554
昀	-11.2555
等謹案	-11.2555
袂	-11.2555
以難攻	-11.2555
飯牛	-11.2555
諺曰	-11.2555
是何也曰	-11.2555
以導之	-11.2555
友有少長	-11.2555
必起於	-11.2555
猛獸	-11.2555
表裏	-11.2555
菽	-11.2556
麾	-11.2556
杜亞	-11.2556
洎	-11.2556
公綽	-11.2556
乃下令曰	-11.2556
臣不誣能	-11.2556
當如是也	-11.2556
誌	-11.2556
之謀臣	-11.2556
舩	-11.2556
褒	-11.2557
法家類	-11.2557
按經作	-11.2557
渾	-11.2557
㤗	-11.2558
許宗裔	-11.2558
快	-11.2558
倅	-11.2558
臣不謂	-11.2558
話	-11.2559
狎	-11.2559
栗	-11.2559
聼觀其	-11.2559
㦧	-11.256
拂耳	-11.256
逮捕	-11.256
㸔	-11.256
畜積	-11.256
無求於人	-11.256
宰予	-11.2561
雷霆	-11.2561
門廷	-11.2561
明于	-11.2562
茶	-11.2562
轂	-11.2562
嗣宗	-11.2562
方正之	-11.2562
樞宻	-11.2562
亢	-11.2562
儒墨	-11.2562
賜予	-11.2562
墾田	-11.2562
袁安	-11.2563
浟	-11.2563
逾	-11.2563
多財	-11.2563
辨誣之術	-11.2563
事頗相類	-11.2563
録事參軍	-11.2563
濳	-11.2564
第十三	-11.2564
躬親	-11.2565
曽史	-11.2565
較	-11.2565
澤梁	-11.2565
獲雪	-11.2565
特著	-11.2565
洛陽	-11.2566
箧	-11.2566
武賽賽	-11.2566
推勘	-11.2566
血氣	-11.2566
愁	-11.2567
董	-11.2567
千鈞	-11.2567
繁辭	-11.2567
貴糴	-11.2567
胡氏	-11.2567
謀事	-11.2567
薛宣	-11.2567
可以惡竟外之不善者	-11.2568
沐浴	-11.2568
驚駭	-11.2568
田成氏	-11.2569
左右近習	-11.2569
提㸃	-11.2569
繞	-11.2569
為生	-11.2569
鷟	-11.257
瓌	-11.257
并兼	-11.257
灑	-11.257
餽	-11.257
炭	-11.2571
所私者	-11.2571
崔昻	-11.2571
憲司	-11.2571
按此盖	-11.2571
殘賊	-11.2571
言而不當	-11.2572
都邑	-11.2572
牘	-11.2572
浦	-11.2572
䖍	-11.2572
並見本傳	-11.2572
全科	-11.2572
六㣲	-11.2573
妓	-11.2573
真偽	-11.2573
門閭	-11.2573
氏之儒有	-11.2573
養孤	-11.2573
風俗	-11.2574
辯慧	-11.2574
黎千三	-11.2574
萬榮	-11.2575
子噲	-11.2575
侵奪	-11.2575
人不怨	-11.2575
荀息	-11.2575
嵗饑	-11.2576
車輿	-11.2577
其威故曰	-11.2577
武事	-11.2577
死不赦	-11.2578
吹竽	-11.2578
諫議	-11.2578
豪士	-11.2578
里胥	-11.2579
孤獨	-11.2579
古之所謂	-11.2579
上下交	-11.2579
脇	-11.258
鞫問	-11.258
情性	-11.258
豈王者	-11.258
左氏	-11.2581
建等	-11.2581
江西	-11.2581
夭死	-11.2581
少庶子	-11.2582
張敞	-11.2582
敬宗廟	-11.2582
杭	-11.2583
世主以為	-11.2583
公叔	-11.2583
佯愛	-11.2584
目不見	-11.2585
司徒	-11.2585
亂世之	-11.2585
田荒	-11.2585
異於此	-11.2585
司空	-11.2586
劉敞	-11.2586
烏獲	-11.2586
貴寵	-11.2587
不免於亂	-11.2587
被酒	-11.2587
鄧子	-11.2587
嗇而	-11.2587
之所及也	-11.2588
手足	-11.2589
事又見	-11.2589
主法令之吏	-11.2589
於君前	-11.2589
淫淫	-11.2589
不敢為非	-11.259
二尺	-11.259
三年桓公	-11.2591
知其寃	-11.2591
煚	-11.2591
而求民之	-11.2591
畜長	-11.2592
引囚	-11.2592
郷師	-11.2592
嘆曰	-11.2594
黄霸	-11.2594
交結	-11.2596
黄昌	-11.2596
匡天下	-11.2597
民死	-11.2597
張儀	-11.2598
六卿	-11.2598
送獄	-11.2598
諂臣	-11.2599
陳表	-11.2599
九月	-11.26
不敢蔽	-11.26
檝	-11.26
有三分	-11.26
游吉	-11.26
未畢	-11.2601
之禮也	-11.2603
毋失	-11.2603
縣人有	-11.2604
審覆	-11.2604
郷里	-11.2605
小凶	-11.2605
掩口	-11.2606
家奴	-11.2606
敏中	-11.2607
遂擒	-11.2607
精氣	-11.2607
遁去	-11.2608
有餘食	-11.2608
參軍時	-11.2609
大罪也	-11.2609
姦邪之臣	-11.2609
也不獨	-11.261
左足	-11.261
福兒	-11.2611
副樞知	-11.2611
發之	-11.2612
輕爵禄	-11.2612
器備	-11.2612
決塞	-11.2613
誣伏	-11.2613
根本	-11.2613
貞信	-11.2614
妖人	-11.2615
按此亦	-11.2616
逆順	-11.2616
楚國之	-11.2616
此乃用	-11.2616
自誣服	-11.2617
施之	-11.2618
八年	-11.2619
應敵	-11.2621
務光	-11.2624
按此非	-11.2624
而戮之	-11.2625
彊弱	-11.2626
性命	-11.2627
耕戰	-11.2627
物情	-11.2628
年餘	-11.2628
民無所於食	-11.2632
取於	-11.2634
世俗	-11.2634
可以霸	-11.2634
承命	-11.2634
分謗	-11.2636
質信	-11.2636
許由	-11.2637
衛州	-11.2638
以我為	-11.2638
方之火	-11.2638
稱神明	-11.2639
倉吏	-11.2639
通貨	-11.2642
思安	-11.2642
遁上	-11.2643
數十	-11.2644
疾怨	-11.2644
專任	-11.2644
國柄	-11.2644
布政	-11.2646
問病	-11.2646
羙女	-11.2647
工師	-11.2647
右足	-11.2649
辭窮	-11.265
量功	-11.2651
設之以	-11.2651
將奈何	-11.2653
形狀	-11.2654
羣盜	-11.2654
塞之則	-11.2655
虚譽	-11.2656
也故人君	-11.2656
安敢	-11.2656
甚急	-11.2658
私惠	-11.2659
是以古之	-11.266
賜賞	-11.2661
此臣之所謂	-11.2662
何不試	-11.2663
往往	-11.2665
三十三	-11.2665
謂之神	-11.2668
他日	-11.2668
者道也	-11.2669
觀音	-11.2671
聖智	-11.2671
盛而不	-11.2672
惡聲	-11.2673
輯故	-11.2673
相距	-11.2673
忠平	-11.2674
其小	-11.2674
農農	-11.2676
之效也	-11.2676
術數	-11.2679
加務	-11.2679
明君之道	-11.2682
改易	-11.2682
時可	-11.2684
以固	-11.2684
齊東	-11.2685
施百	-11.2686
非其人	-11.2686
用民者	-11.2687
猶未	-11.2687
聖賢	-11.2687
伏其罪	-11.2688
以智	-11.269
之為物	-11.2693
益人之	-11.2696
道路	-11.2696
富厚	-11.2698
不因則	-11.2699
都官	-11.2701
國猶	-11.2703
無妄也	-11.2704
同類	-11.2704
國准	-11.2706
以知其	-11.2712
者必先	-11.2712
冨而	-11.2713
詰之曰	-11.2713
薄疑	-11.2717
據其	-11.2721
下注	-11.2721
亂不生	-11.2722
以禮義	-11.2723
夫道者	-11.2724
如初	-11.2725
輕也	-11.2725
道従	-11.2728
操名	-11.273
失其名	-11.2731
示民	-11.2731
終日	-11.2733
嚴遂	-11.2733
義禮	-11.2734
衆工	-11.2737
君予之	-11.2739
罰重	-11.274
用其心	-11.2744
共立	-11.2745
乘勢	-11.2746
寡人寡人	-11.2746
文致	-11.2747
不可廢	-11.2748
旣知其	-11.2748
慮之	-11.2748
為妨	-11.275
務為	-11.2752
作壹	-11.2752
多資	-11.2753
貴爵	-11.2757
未始	-11.2758
尊爵	-11.276
覽者	-11.276
若君	-11.2762
失火	-11.2765
錯法	-11.2766
人臣有	-11.2766
臣竊	-11.2773
聞之必	-11.2778
故善者	-11.2782
而毁之	-11.2782
謂之智	-11.2784
或疑	-11.2784
高下	-11.2785
而兼	-11.2785
分異	-11.2786
不得進	-11.2787
歸之矣	-11.279
世者	-11.2793
人盡	-11.2793
然後成	-11.2794
及至	-11.2795
姦謀	-11.2799
不潔	-11.2799
擇人	-11.28
攻齊	-11.2801
解官	-11.2803
公不聽	-11.2804
從者曰	-11.2805
人退	-11.2807
厚利	-11.2807
相持	-11.2807
不逆於	-11.2811
同實	-11.2816
髙杠柴池	-11.2816
皆欲	-11.2816
罷民	-11.2817
得其寃狀	-11.2818
子奚	-11.282
其鄰	-11.2822
之髙下	-11.2827
其情者也	-11.2827
非人也	-11.2835
於利	-11.2838
小忠	-11.2846
糴十	-11.2846
憲令	-11.2848
民不畏	-11.285
民歌之	-11.2852
安靜	-11.2852
不可蔽	-11.2854
故平	-11.2855
因取	-11.2856
五六	-11.2856
來也	-11.2861
不幸而	-11.2863
不認	-11.2864
賢智	-11.2864
羣臣有	-11.2865
弱則	-11.2867
成俗	-11.2867
所征伐	-11.2868
國貧而	-11.2869
忠信者	-11.2873
法之謂也	-11.2874
上不與	-11.2874
之聞也	-11.2874
爲伍	-11.2879
四傷	-11.2881
於其臣	-11.2885
無踰	-11.2888
大體	-11.2889
眀也	-11.2893
者失其	-11.2896
則國安	-11.2898
百金之	-11.2898
處勢	-11.2905
不務本	-11.2905
抵死	-11.2907
皆當死	-11.2908
可乎管子對曰	-11.2909
日聞	-11.2913
四維	-11.2916
而效之	-11.2916
是以明主	-11.2919
亡去	-11.292
中軍	-11.2922
忠而	-11.2927
遂通	-11.2929
齊人有	-11.2931
事主而	-11.2934
我且	-11.2934
出入者	-11.2938
因召	-11.2939
五鄉	-11.2941
定公	-11.2945
下比	-11.2947
也此其	-11.2952
藏五	-11.2954
概之	-11.2955
正理	-11.2956
何處	-11.296
義理	-11.2963
作亂	-11.2965
用術	-11.2965
藏吏	-11.2966
之賊也	-11.297
驥之	-11.297
所擅	-11.2971
此亡國之	-11.2973
左右皆	-11.2976
誣能	-11.2978
鄰國之	-11.2978
殺牛	-11.2982
淫道	-11.2983
多姦	-11.2983
至乃	-11.2985
緩於	-11.2986
之養	-11.2987
之價	-11.2988
之租	-11.2992
日中	-11.2993
得其生	-11.2993
生者也	-11.2995
能以其	-11.2996
作本	-11.3
有材	-11.3001
必有一	-11.3002
功不立	-11.3004
惠王	-11.3012
吏受賕	-11.3012
不擾	-11.3014
按凡	-11.3014
則逺	-11.3016
于後	-11.3019
者非所	-11.302
未足	-11.3024
伐齊	-11.3024
則匱	-11.3026
觀國	-11.3027
之謂明	-11.303
正辭	-11.3032
大國之	-11.3033
依其	-11.3037
是道	-11.304
意則	-11.3041
以金	-11.3043
私室	-11.3043
天雨	-11.305
專一	-11.3054
數猶	-11.3055
法者天下之	-11.3055
墾而	-11.3056
無非其	-11.3057
生財	-11.3061
報曰	-11.3063
者當	-11.3065
弱民	-11.3065
吾賊	-11.3066
不臣	-11.3068
無矢	-11.3075
其本矣	-11.3081
庶人	-11.3081
議罪	-11.3083
聞善	-11.3084
今使	-11.3085
於號令	-11.3087
不侈	-11.3088
飢不	-11.3088
名尊	-11.3093
重禁	-11.3093
威强	-11.3095
則姦邪	-11.3098
不煩	-11.3099
中心	-11.3099
天下之所	-11.3101
或在	-11.3106
僧行	-11.3114
以害	-11.3114
一怒	-11.3118
乃詐	-11.3124
無益也	-11.3128
有言曰	-11.313
輕而	-11.3131
操事	-11.3134
無名曰	-11.3134
我當	-11.3137
之盟	-11.3141
惠施	-11.3152
不可成	-11.3154
二家	-11.3157
通乎	-11.316
臣將	-11.316
天下共	-11.3165
人無不	-11.3167
也或曰	-11.3177
道行也	-11.3181
勇也	-11.3182
小過	-11.3183
不蚤	-11.3183
臣子	-11.3188
乃始	-11.3193
公曰此	-11.3199
姦猾	-11.32
輕輕	-11.3214
心焉	-11.3217
恥而	-11.3217
之珠	-11.3219
形名	-11.322
不一則	-11.322
去亦	-11.3221
十錢	-11.3223
而相之	-11.3225
任重	-11.3227
之數矣	-11.3233
以安	-11.3234
民之生	-11.3236
肥也	-11.3238
致功	-11.3239
失士	-11.3245
而不聼	-11.3248
名成	-11.3249
正分	-11.3249
桓公曰吾	-11.325
存矣	-11.325
於庭	-11.3253
治其民	-11.3257
用於	-11.3264
兵强	-11.3264
者必得	-11.3264
者衆則	-11.3266
故天下之	-11.3268
惠子	-11.327
處之	-11.3271
獨能	-11.3272
號曰	-11.3273
於户	-11.3278
主母	-11.3283
不服者	-11.3285
趨而	-11.3287
之以德	-11.3294
民之本	-11.3301
無不服	-11.3312
類此	-11.3313
給之	-11.3316
聖人亦	-11.3317
懼死	-11.3324
有新	-11.3324
必罰	-11.3327
衛君之	-11.3328
免死	-11.3331
者惑	-11.3338
傷上	-11.3339
愛而無	-11.3345
己知	-11.3347
溺者	-11.3351
不然夫	-11.3355
繼之	-11.3355
三本	-11.3356
所欺	-11.3356
之所言	-11.3357
其為人	-11.336
夲也	-11.3363
不以其	-11.3364
私賞	-11.3368
而官	-11.337
為貴	-11.3372
臣也故	-11.3373
相和	-11.3374
為之請	-11.3374
國榖	-11.3375
欺主	-11.3377
也故人主	-11.3379
無極	-11.3388
此其大	-11.3393
則疑	-11.3396
地博	-11.3398
流行	-11.34
毋得	-11.3401
以振	-11.3402
於上矣	-11.3402
内自	-11.3418
官之分	-11.342
差也	-11.3433
詐也	-11.3435
無從	-11.3442
必嚴	-11.3442
爲客	-11.3445
然後得	-11.3447
而易其	-11.3449
削國	-11.3452
已得	-11.3457
邑之	-11.3458
要在	-11.3465
者貴之	-11.3466
而加	-11.3466
哉此	-11.3467
欽定四庫全書管子補注卷二	-11.3483
執一	-11.3487
聲而	-11.3489
覆其	-11.3496
使我	-11.3499
而得之	-11.3503
故曰水	-11.3506
而齊之	-11.3508
而亟	-11.3509
惑故	-11.351
以詐	-11.3514
迹其	-11.3516
乃復	-11.3528
頗有	-11.353
習故	-11.3531
威行	-11.3533
有水	-11.3533
先是	-11.3534
門下	-11.3541
戾也	-11.3547
去私	-11.3549
治道	-11.355
地守	-11.356
落也	-11.3566
猶之不	-11.3572
出北史本	-11.3572
不慎	-11.3576
貨則	-11.3591
不惰	-11.3595
變矣	-11.3596
利異	-11.3596
智而不	-11.3598
湯以	-11.3599
故國不	-11.36
所盜	-11.3603
詢其	-11.3612
為難	-11.3612
以待時	-11.3612
人之所不	-11.3615
身先	-11.3615
百事	-11.3628
尊君	-11.3628
府尹	-11.3633
人張	-11.3641
民愛之	-11.3643
若天	-11.3649
害而	-11.3652
無復	-11.3652
大家	-11.3653
者操	-11.3653
治心在	-11.3673
亂心	-11.3679
聴言	-11.368
君之欲	-11.368
官職之	-11.3682
甚多	-11.3683
斯為	-11.3683
平易	-11.3685
國之君	-11.3686
法眀	-11.369
之變	-11.3691
不徳	-11.3692
由此	-11.3701
也何謂	-11.371
是以無	-11.3718
是以明君之	-11.372
不報	-11.3722
不悔	-11.3725
而賣	-11.3725
臣之事	-11.3726
不明於	-11.3731
小功	-11.3738
不懼	-11.374
所貴者	-11.3744
心在中	-11.3746
事之時	-11.376
蒸之	-11.3761
以知天下	-11.3764
則國富	-11.3771
一凡	-11.3772
耳目者	-11.3783
負以	-11.3789
有害也	-11.3792
不存	-11.3796
爲之有道乎管子對曰	-11.3798
管子卷第二	-11.3799
自殺	-11.3802
公利	-11.3808
惡人不	-11.3811
而勸	-11.3812
以移	-11.3813
財多	-11.3814
毒之	-11.3816
新人	-11.3821
此獄	-11.3832
安得不	-11.3839
於禮	-11.3846
于齊	-11.3846
安用	-11.3847
者非一	-11.3851
子聞之曰	-11.386
所聚	-11.3874
而求之	-11.3886
治世之	-11.3886
而敵	-11.3888
令大夫	-11.3892
聽羽	-11.3898
家此	-11.3898
不誠	-11.3901
四主	-11.3908
百錢	-11.3914
而生也	-11.3916
毁之	-11.3919
臣愚	-11.3921
出焉	-11.3928
戰國	-11.3932
小事	-11.3939
盡而	-11.394
有妾	-11.394
安利	-11.3942
勞主	-11.3946
無罪而	-11.3947
百里之	-11.3948
假之	-11.3955
徒屬	-11.3958
當是	-11.3966
但有	-11.3975
安主	-11.3995
事實	-11.4007
晏子曰	-11.4013
以至於	-11.4019
三守	-11.4021
為解	-11.4023
亦何	-11.4024
蔽主	-11.4026
耳之所	-11.4028
與大	-11.4029
者相	-11.4029
異則	-11.4039
兵至	-11.4043
千餘	-11.4049
與我	-11.4059
其衆	-11.406
列爵	-11.4075
要者	-11.4075
通道	-11.4076
成私	-11.4083
載一事	-11.4103
試之	-11.4104
親民	-11.4121
於管子	-11.4128
縣時	-11.4128
北伐	-11.4129
不善也	-11.4143
天也	-11.4146
不推	-11.4147
貴賤相	-11.4149
所患	-11.4153
故曰勞	-11.4168
之不至	-11.4169
而不勞	-11.4178
今時	-11.4179
則官	-11.4194
欲生	-11.4207
則非	-11.4208
可圉	-11.421
皆稱	-11.4225
之民不	-11.423
行理	-11.4231
為之有道乎管子對曰	-11.4233
縣縣	-11.4239
無疑	-11.4243
近王	-11.4253
其尸	-11.4254
數人而	-11.4258
貸之	-11.4262
又能	-11.4266
賤臣	-11.4269
以我	-11.4271
其語	-11.4284
矜其	-11.4316
操之	-11.4318
為明也	-11.4319
以小	-11.4322
可成	-11.4324
老者	-11.4327
民之性	-11.4332
衆官	-11.4336
之勢以	-11.4338
之任也	-11.4342
法自	-11.4347
傳舊集不	-11.4353
而御	-11.4359
相守	-11.436
之端	-11.4363
伐宋	-11.4368
詰問	-11.4381
齊也	-11.4407
以考	-11.4415
本州	-11.4415
不時	-11.4416
布法	-11.4421
而除	-11.4426
弃之	-11.4436
用若	-11.4446
所怨	-11.4453
坦氣修通凡物開靜形生理	-11.4465
也故有不	-11.4466
亂主之	-11.4467
苦則	-11.4471
列大夫	-11.4472
而數	-11.4477
聖君之	-11.4492
也然其	-11.4493
則民親	-11.45
來矣	-11.451
得利而	-11.4514
其不可	-11.4517
者木	-11.4517
以蔽	-11.4519
是子	-11.4519
曰吾與	-11.4527
處事	-11.4532
概	-11.4538
不兩	-11.4549
殺臣	-11.4566
不能事	-11.4573
讞	-11.4573
是故春	-11.4586
亂君	-11.4601
囚之	-11.4601
或誣	-11.4602
者謂其	-11.4604
姦臣之	-11.4608
所陳	-11.4623
公疑	-11.4623
不可理也	-11.4625
不用故	-11.4625
不信其	-11.4629
見唐書	-11.4635
以為君	-11.4644
三器	-11.4646
設法	-11.466
則過	-11.4664
發矣	-11.4665
此世之所以	-11.4672
如天	-11.4673
以當	-11.4673
而獻之	-11.4674
聖主	-11.4677
凍	-11.4684
殺人以	-11.4685
行春政則	-11.4689
之在君	-11.469
玩	-11.4691
饑寒	-11.4702
官人	-11.4704
以收	-11.4714
問其故	-11.4715
病者	-11.4717
自眀	-11.4724
若無	-11.4724
皆懼	-11.4729
無己	-11.473
曰嗟	-11.4736
卷第二十	-11.4737
於貧	-11.4741
嬖寵	-11.4745
可否	-11.4754
得原	-11.4764
妨	-11.4792
不出謂之滅	-11.4808
科	-11.4809
鄉里	-11.4814
者因其	-11.4819
以為功	-11.4823
不長	-11.4838
然則天	-11.4842
地氣	-11.4849
此謂國	-11.4854
捫	-11.4854
上帝	-11.4864
如其言	-11.4878
子圉	-11.4902
無積而	-11.4931
桓公曰吾欲	-11.4935
人得之	-11.4939
江南	-11.494
之籍	-11.4944
知開封府	-11.495
一旦	-11.4952
跀	-11.4953
而置之	-11.4954
好言	-11.4956
者盖	-11.4956
由是得	-11.4963
公公	-11.4965
妹	-11.4966
日一問	-11.4966
孝弟	-11.4967
舟檝	-11.4969
亂而不	-11.4971
而疑之	-11.4971
不辯	-11.4973
先王之所以	-11.4982
以治天下	-11.4986
不可不察也夫	-11.4987
故法不	-11.4989
治國之道	-11.499
洗	-11.4993
扱	-11.4996
禁扇去笠	-11.4996
罝	-11.4996
行其所行而	-11.4996
萬乘之國	-11.4998
踦	-11.5
民不安其居	-11.5002
國從其政	-11.5003
釘鞠	-11.5004
依名而斷	-11.5004
朝之經臣	-11.5004
歸於君	-11.5004
攸	-11.5005
征於市	-11.5006
則邪人不	-11.5006
窶	-11.5006
奪柄失位	-11.5007
前心術作	-11.5007
無誹譽	-11.5007
藉人以其所	-11.5007
衆而不理	-11.5007
國益大	-11.5008
而不理	-11.5008
行不必同	-11.5009
當此時也	-11.5009
佯憎	-11.5009
叔牙	-11.501
樛	-11.501
惡得伐不	-11.5011
以度量斷	-11.5012
使衆	-11.5012
伐者霸	-11.5012
亡雜篇十	-11.5012
專予禄	-11.5012
摩	-11.5014
雨乃至	-11.5014
其主主因離法而聽之此所謂	-11.5014
塉	-11.5014
彗星見則	-11.5015
以奉天子	-11.5016
凋	-11.5016
葅	-11.5016
失其爪牙	-11.5016
賊氣遫至	-11.5016
鐘皷	-11.5017
冶之於金	-11.5017
陶之於埴	-11.5017
滔赶	-11.5017
恭遜	-11.5017
垤	-11.5018
衣裳賀之	-11.5018
風與日爭明則	-11.5018
傅小白	-11.5018
哤	-11.5018
躍	-11.5018
有罪必誅	-11.5018
渚	-11.5018
偷幸而望於上	-11.5019
月食則	-11.5019
形勢器械	-11.5019
置儀法	-11.5019
被其利	-11.5019
鴈	-11.5019
膌	-11.502
敦慤	-11.502
霸國者	-11.502
哉我無	-11.502
忽然易	-11.502
有刑至無刑	-11.502
臯	-11.502
伐何主管子對曰以	-11.502
往小侯以	-11.5021
儐	-11.5021
明於日月察於父母	-11.5021
胜	-11.5021
助之發	-11.5021
左操五音右執五味	-11.5021
涵	-11.5021
壇	-11.5021
衷	-11.5022
纓	-11.5022
之髙行也	-11.5022
合而聽之則	-11.5022
塗濡	-11.5022
結紐	-11.5022
癘	-11.5022
牧民者	-11.5022
明王知其然故	-11.5023
時而王不難矣	-11.5023
貧富之不訾	-11.5023
國之經俗	-11.5023
使海於有弊渠彌於有陼綱山於有牢	-11.5023
其地而走	-11.5023
善人在則	-11.5023
子言伐莒	-11.5023
鼈	-11.5023
萬室之國一千室之都四	-11.5023
蓑	-11.5023
何以論之	-11.5023
草田多	-11.5023
行之管仲又請	-11.5023
矩	-11.5024
顓	-11.5024
形勢解第六十四	-11.5024
有傷敗	-11.5024
入國第五十四	-11.5024
塞心術計數	-11.5024
得天極則	-11.5024
田野視其耕芸計其農事而飢飽之國可	-11.5024
讋諄	-11.5024
請謁任舉	-11.5025
帑	-11.5025
則鄰國親	-11.5025
義審而禮明	-11.5025
鏘	-11.5025
隨時而變	-11.5025
臣之分也	-11.5025
肢	-11.5025
黨比周以	-11.5025
躓	-11.5025
啼	-11.5025
於召陵	-11.5025
糴貸	-11.5025
非所取也	-11.5025
焉無不可以	-11.5025
與民為一體	-11.5025
能戴大	-11.5026
八尺	-11.5026
問左右左右	-11.5026
救火	-11.5026
麑	-11.5026
清潔	-11.5026
則使無由	-11.5026
天不一時	-11.5026
管仲復於桓公曰	-11.5026
財足	-11.5026
齋戒	-11.5026
桓公謂管仲	-11.5026
旌之以	-11.5027
古今一也	-11.5027
重而凌節	-11.5027
一女必有一	-11.5027
慤愿	-11.5027
此謂先之以	-11.5027
受政寡人	-11.5027
莭	-11.5027
泉之不竭	-11.5027
日新其德	-11.5027
知識故人	-11.5027
先作難違時易形	-11.5027
扞	-11.5027
治和氣	-11.5027
物之髙者也	-11.5027
繼絶世	-11.5027
運運	-11.5027
勿望而	-11.5027
城陽大夫	-11.5027
如此之臣不可謂	-11.5027
民亂曰	-11.5027
鋏	-11.5027
陵稻	-11.5027
品	-11.5028
尊君卑臣非計親也以	-11.5028
御神用寶	-11.5028
參天地之吉綱	-11.5028
者幾何人餘子	-11.5028
哀憐	-11.5029
君子食於道則	-11.5029
埊	-11.5029
故上令而下應主行而臣從	-11.5029
迺	-11.5029
巫祝	-11.5029
憂樂喜怒欲利	-11.5029
民不足以守	-11.5029
汎	-11.5029
閎	-11.5029
人不一事	-11.5029
則長子死	-11.5029
曰寡人不幸而好	-11.5029
數戰則士疲數勝則君驕驕君使疲民則	-11.5029
塲	-11.5029
天菑	-11.5029
止其養	-11.503
衝	-11.503
崖	-11.503
歸親於上矣	-11.503
無若諸侯	-11.503
芒主	-11.503
郭躬	-11.503
鍾之家不行	-11.503
死亡不食不過四日而軍財在敵	-11.503
治濕氣	-11.503
行冬政則	-11.503
於燥濕	-11.503
所謂治國者主道明也	-11.503
杜曲	-11.503
比黨者	-11.503
者不敢讓	-11.503
堅脆	-11.503
士之有田而不	-11.503
山髙而不崩則祈羊至	-11.503
恪	-11.503
桑麻計其六畜之産而貧富之國可知也	-11.503
諸侯可令	-11.503
不我欺	-11.503
鳥飛准繩	-11.5031
不違於道	-11.5031
冬日之	-11.5031
猛毅之君不免於外難懦弱之君	-11.5031
合於天地之	-11.5031
抽	-11.5031
毒而無怒怨而無言欲而無謀	-11.5031
民知而取之	-11.5031
用九數	-11.5031
管子對曰北郭	-11.5031
置儀設法	-11.5031
上地方八十里	-11.5031
五量之宗也	-11.5031
冗	-11.5031
則歸之於民	-11.5031
版法第七	-11.5031
四者備	-11.5031
天財地利	-11.5031
平治天下及	-11.5031
思人衆兵彊	-11.5031
而不計失	-11.5031
能害己者必齊也	-11.5031
道其道則	-11.5031
穰	-11.5031
鱣	-11.5031
吾欲藉於	-11.5031
姪	-11.5031
閇藏	-11.5031
其御曰	-11.5031
租稅	-11.5032
大理少卿	-11.5032
舊出北史	-11.5032
不利作土功之事	-11.5032
雖有明君	-11.5032
飲於白后之井	-11.5032
上有鈆者其下有	-11.5032
丕	-11.5032
人使人相	-11.5032
傰	-11.5032
具取之地	-11.5032
劌	-11.5032
得失之質	-11.5032
濘	-11.5032
者心也安	-11.5032
莧	-11.5032
障塞不審不過八日而外賊得	-11.5032
鄶	-11.5032
天子之容	-11.5032
耕芸	-11.5032
楟	-11.5032
縗	-11.5032
請以平賈取之	-11.5032
絻	-11.5032
九和時節	-11.5033
軒	-11.5033
瑟	-11.5033
趙廣漢	-11.5033
二政曰	-11.5033
唐戴胄	-11.5033
鉏	-11.5033
圉發不意故莫之	-11.5033
堅而攻	-11.5033
也君失其道	-11.5033
凡心之形過知失生	-11.5033
不疾其威	-11.5033
刑設而不	-11.5033
勿敢左右	-11.5033
召忽雖不得	-11.5033
東山之西水深滅垝	-11.5033
治民一衆	-11.5033
王子比干	-11.5033
縞	-11.5033
蔞	-11.5033
伐檀柘	-11.5033
召忽强武	-11.5033
姦巧不生	-11.5033
省事少食	-11.5033
自古至今	-11.5033
大勝無不勝也此居於圖南方方外	-11.5033
竒舉發不意則士歡用	-11.5033
竹箭	-11.5033
如風雨	-11.5033
見是土也命之曰	-11.5034
則是上妄	-11.5034
春采生秋采蓏夏處隂冬處陽	-11.5034
邊鄙	-11.5034
下之人守	-11.5034
丹青	-11.5034
始乎無端道也卒乎無窮	-11.5034
惠也刑罰必也	-11.5034
管子對曰昔者桀	-11.5034
能君萬物	-11.5034
公子彭生	-11.5034
典品	-11.5034
大匡第十八	-11.5034
居室如	-11.5034
日益長利以作	-11.5034
毋赦者	-11.5034
民邪途	-11.5034
知先後不失地利	-11.5034
行軍襲邑舉錯	-11.5034
辱舉其死	-11.5034
釬	-11.5034
藜	-11.5034
甃	-11.5034
禮孝弟	-11.5034
而不行謂之	-11.5034
之日發五政	-11.5034
十二期風至戒秋事十二小	-11.5034
棠見是土也命之曰	-11.5034
羣木安逐	-11.5034
菭	-11.5034
螫	-11.5034
非其難者也	-11.5034
亦勿聽	-11.5034
人有喪雌雄	-11.5034
仄	-11.5034
無枉濫	-11.5034
立邑置廧	-11.5034
緊	-11.5034
者不得復築也屋之燒者不得復葺也令	-11.5034
行則百吏皆	-11.5034
輂	-11.5034
補注卷二十	-11.5034
定方用勝	-11.5035
循名責實	-11.5035
羣臣比周	-11.5035
鰥寡獨老不與得焉	-11.5035
春秋冬夏不更其節	-11.5035
有功畜之以道養之以	-11.5035
不相睹	-11.5035
付所司	-11.5035
以其國造難生患	-11.5035
勸之以慶賞	-11.5035
大夫城藏	-11.5035
曰浩浩乎	-11.5035
猶軸	-11.5035
琅	-11.5035
百姓不用則天下	-11.5035
而守不固戰不勝而守不固則國不安矣	-11.5035
臣不務盡力	-11.5035
興兵而南存宋鄭	-11.5035
桎梏	-11.5035
彊國少	-11.5035
武王伐紂	-11.5035
黜	-11.5036
自取之也	-11.5036
不正廣其荒	-11.5036
實輔四時	-11.5036
有老父	-11.5036
有飢色	-11.5036
朋黨比周以	-11.5036
物守法者	-11.5036
羿之道非射也造父	-11.5036
軰	-11.5036
不勸勉不行制不死節	-11.5036
九守第五十五	-11.5036
有行伍	-11.5036
楢檀	-11.5036
眞	-11.5036
積之多寡定府官之計數養老弱而勿通	-11.5036
而后止	-11.5036
髙下令之徐疾	-11.5036
鵠鵾之所在君	-11.5036
不動而疾	-11.5036
二七十四尺而至於泉	-11.5036
以鄭城與宋水為請	-11.5036
其號令之徐疾	-11.5036
城不固	-11.5036
幾察也	-11.5036
承從天之指	-11.5036
水妄行	-11.5036
水者八千里	-11.5036
熯焚鄭地使城	-11.5036
貨賄	-11.5036
牧民第一	-11.5036
藪	-11.5036
定制禄勝	-11.5036
行冬政耗	-11.5036
夏三月	-11.5036
輕重丙第八十二	-11.5036
鍼	-11.5036
作色曰	-11.5036
有罪不必誅	-11.5036
而還與衆人同	-11.5036
蛟龍得水而神可立也虎豹	-11.5036
墳墓之所在	-11.5036
崢丘之戰	-11.5036
得失之數皆在此	-11.5036
施七尺	-11.5036
澹	-11.5036
聖人成之	-11.5036
蔡陵	-11.5036
評	-11.5036
風雨無違	-11.5036
憾	-11.5037
眀劉績撰	-11.5037
痤	-11.5037
定選士勝	-11.5037
擊亂以	-11.5037
行春政華	-11.5037
徐疾而已矣	-11.5037
髮	-11.5037
司馬喜	-11.5037
維綱	-11.5037
九竅五慮	-11.5037
而無所定	-11.5037
在子期年子	-11.5037
忍蘟	-11.5037
比官中之事	-11.5037
在臣期年臣	-11.5037
城濮	-11.5037
治事加於	-11.5037
充不美則	-11.5037
兵弱而士不厲	-11.5037
則民多詐	-11.5037
帝王者用	-11.5037
淫佚	-11.5037
百姓不安其居	-11.5037
衆在廢私	-11.5037
見其不可也惡之	-11.5037
足而不施	-11.5037
非兹是無以	-11.5037
三本者審則	-11.5037
摸	-11.5037
是故聖王	-11.5037
秋行夏政葉	-11.5037
而天下化之	-11.5038
非鬼神之力也	-11.5038
不忠君不能奪	-11.5038
戌	-11.5038
而求令之	-11.5038
而衆人不知	-11.5038
詭俗異禮	-11.5038
貴有以行令	-11.5038
遫	-11.5038
不言之言	-11.5038
吾國之豪	-11.5038
從令者不輯	-11.5038
兵無主則不蚤知	-11.5038
外因天下	-11.5038
此皆距周七千八百	-11.5038
致其力	-11.5038
輕民處	-11.5038
重民散	-11.5038
饑餓	-11.5038
爲兵之數	-11.5038
耀	-11.5038
弔	-11.5039
鰥寡	-11.5039
之以物則物重不	-11.5039
以予齊	-11.5039
以為民紀	-11.5039
以物則物輕	-11.5039
十分之三	-11.5039
升加一	-11.5039
召忽奉公子糺	-11.5039
士庶人	-11.5039
守之以筴	-11.5039
常令水官	-11.5039
恭祖舊	-11.5039
所欲者能得諸民	-11.5039
此兵之三闇也	-11.5039
殺不辜則	-11.5039
者謂之里	-11.5039
莫樂之則莫哀之	-11.5039
蘇渙	-11.5039
遷封食邑	-11.5039
㙗	-11.5039
也而以上為	-11.5039
以文勝情	-11.5039
准此而行	-11.5039
北而南	-11.5039
奪之以㑹	-11.5039
幭	-11.5039
春事二十五日之内	-11.5039
有時而星	-11.5039
田悉徙	-11.5039
鮑叔許諾	-11.5039
􁧫	-11.5039
塜	-11.5039
行備具勝之	-11.5039
枳	-11.5039
倍其賈	-11.5039
出而不入謂之	-11.5039
天不變其常地	-11.5039
思之思之	-11.5039
入而不至謂之	-11.5039
君臣共道則亂	-11.5039
小稱第三十二	-11.5039
盡於此乎管子	-11.5039
閣	-11.5039
于游宗游宗以	-11.5039
人唯恐其不復	-11.5039
則民之報上亦	-11.5039
則賔者不肅	-11.5039
勇勝怯智勝愚	-11.5039
子婦孝	-11.5039
弱必同	-11.5039
故不以天下為	-11.5039
民作一	-11.5039
津梁	-11.5039
澄	-11.5039
臨事不信於民	-11.5039
見吕大防	-11.5039
言待感	-11.5039
進退無儀則政令不行	-11.5039
逹	-11.5039
標	-11.5039
官處四體而無禮者流之焉莠命	-11.504
尊而下卑逺近不乖此居於圖南方方外	-11.504
館	-11.504
肩	-11.504
寤	-11.504
墯	-11.504
蒞	-11.504
皮幣不衣	-11.504
餼	-11.504
亦有取焉	-11.504
建康	-11.504
梁聚之言	-11.504
之籍去分	-11.504
五和時節	-11.504
伐齊納公子糺	-11.504
其槐其楊	-11.504
合小以攻大	-11.504
君出致於	-11.504
山川之故祀必以時六㑹諸侯令曰以爾	-11.504
昔者聖王之治其民也	-11.504
猥	-11.504
築城郭	-11.504
重積徳	-11.504
使人圖之	-11.504
君勿救	-11.504
地不辟則	-11.504
居數月	-11.504
徑乎不知	-11.504
或白或黒	-11.504
滿稽斷	-11.504
發乎不意	-11.504
莫生之則莫死之	-11.504
觀絶理者	-11.504
言之不可復者	-11.504
謂寡人曰	-11.504
貪於土	-11.504
㑹諸侯令曰以爾封内之財物國之所有	-11.504
事察伐勝之	-11.504
請四輔	-11.504
桂	-11.504
脅盾	-11.504
軺	-11.5041
能止乎能	-11.5041
誋	-11.5041
不可不謹也	-11.5041
輕重乙第八十一	-11.5041
山林藪澤	-11.5041
戒第二十六	-11.5041
民之經産	-11.5041
道備矣	-11.5041
金玉雖多	-11.5041
不僇賢人	-11.5041
不得食于	-11.5041
夷貉之	-11.5041
巨橋之粟	-11.5041
績按當依觧作	-11.5041
者與功而不與分焉	-11.5041
若在長家子弟臣妾屬役賔客則	-11.5041
鹽百口之家百人	-11.5041
疆	-11.5041
虞慶	-11.5041
輅	-11.5041
具則戰	-11.5041
鑚燧	-11.5041
紀必由	-11.5041
北面	-11.5041
罪入以	-11.5041
之有所不行也	-11.5041
推覈	-11.5041
里之外二千里之内諸侯三年而朝習命	-11.5041
上無量	-11.5041
主有憂則	-11.5041
之無益故	-11.5041
五升少半	-11.5041
任顓	-11.5041
勝則險阻不守	-11.5041
十口之家十人	-11.5041
召管仲管仲至公	-11.5041
如飛鳥	-11.5041
婢子曰	-11.5041
安治矣	-11.5041
幾何年	-11.5041
有術之士	-11.5041
湛而不澤無髙下葆澤以處	-11.5041
犇	-11.5041
獨行而無敵矣	-11.5041
生也吾欲藉於	-11.5041
者也未有能多	-11.5041
蚖菕	-11.5041
蠭	-11.5041
賡	-11.5041
鮑叔乃告	-11.5041
愕	-11.5041
酌	-11.5042
冬雷	-11.5042
不私其利	-11.5042
不行其野不違其馬	-11.5042
入共受命焉	-11.5042
君子食於道小人食於力	-11.5042
君若有過	-11.5042
圜豚豚乎莫得	-11.5042
墮倪	-11.5042
恃不信之人而求以	-11.5042
是以小者兵挫而地削大者身死而國亡	-11.5042
暴人不勝邪亂不止	-11.5042
縁地之利	-11.5042
藪澤以時禁發之	-11.5042
鍿	-11.5042
髙下不貳	-11.5042
不治奚待於	-11.5042
也故曰行其	-11.5042
亦當一倍貸	-11.5042
人之憎惡也	-11.5042
以此觀之	-11.5042
以結交焉	-11.5042
嗜欲充益	-11.5042
定周室天下	-11.5042
心術上第三十六	-11.5042
物固有形形固有名	-11.5042
立政九敗解第六十五	-11.5042
纎	-11.5042
急時分勝之	-11.5042
理名實勝之	-11.5042
綈	-11.5042
駢	-11.5042
以來逺人	-11.5043
核	-11.5043
賞重則	-11.5043
龍蛇	-11.5043
炊	-11.5043
奉笥	-11.5043
治言出於口	-11.5043
傑等	-11.5043
八舉而勝行威立九舉而帝事成形	-11.5043
曰夷吾與召忽	-11.5043
正第四十三	-11.5043
瘳	-11.5043
盡其民力	-11.5043
臣離味	-11.5043
莫貴於勝	-11.5043
菅	-11.5043
蠋	-11.5043
諒	-11.5043
諸侯以縵帛鹿皮報	-11.5043
還四年伐孤竹	-11.5043
齓	-11.5043
𥙿	-11.5043
剛柔	-11.5043
可化而使之	-11.5043
姦邪盜賊	-11.5043
故君道立	-11.5043
明主之治天下也	-11.5043
獨國之君卑而不威	-11.5043
近而来逺	-11.5043
君臣掌	-11.5043
爲之有道	-11.5043
閇	-11.5043
博一純固則獨行而無敵	-11.5043
洙	-11.5043
昧	-11.5043
為開封府	-11.5043
事無備	-11.5043
七十二家	-11.5043
斵削	-11.5043
箎	-11.5043
而求上之毋危	-11.5043
而食者幾何家	-11.5043
賊比也	-11.5043
鍾鼓	-11.5043
一人積之	-11.5043
九本搏大人主之守也	-11.5043
二升少半	-11.5043
尹洙	-11.5043
屢訴不得直因	-11.5043
攻之自毁	-11.5043
明年狄人伐	-11.5043
皮文錦	-11.5043
知行情	-11.5043
蜚蓬之問	-11.5043
行而不可再者君不行也	-11.5043
身仁行義服忠用信則王	-11.5043
謳	-11.5044
無聚衆	-11.5044
說行若風雨發如雷電此居於圖方中	-11.5044
善習五官謹修三官必設常主計必先定	-11.5044
市賦百取二	-11.5044
親之以仁養之以義報之以	-11.5044
棠隂比事	-11.5044
鑑	-11.5044
女樂三	-11.5044
治水潦	-11.5044
為秦使	-11.5044
胸中	-11.5044
農夫不失其	-11.5044
遼	-11.5044
者置之黄金一斤直食八石民之	-11.5044
能圉我	-11.5044
視宫室觀車馬衣服而侈儉之國可知也	-11.5044
角試否臧收天下之豪傑有天下之稱材	-11.5044
請式璧而聘之	-11.5044
論百工之銳器	-11.5044
軍并其地	-11.5044
㤀	-11.5044
三升少半	-11.5044
之則幷與	-11.5044
什伍之長	-11.5044
卒輕患而傲敵	-11.5044
取逺道	-11.5044
右司馬	-11.5044
君臣下第三十一	-11.5044
四富貧之終五盛衰之紀六安危之機七	-11.5044
四戰之國	-11.5044
地利者權	-11.5044
執枹	-11.5044
常不變	-11.5044
未之見而親焉可以往矣	-11.5044
槍	-11.5044
琪	-11.5044
盛怨氣	-11.5044
糗	-11.5044
紉	-11.5044
罰不嚴	-11.5044
自媒之女醜而不信	-11.5044
舉不失天時	-11.5044
髙下萬物以	-11.5044
無守城	-11.5044
五政曰	-11.5044
冬行秋政霧	-11.5044
求天下之精材	-11.5044
五舉而務輕金九	-11.5044
芬	-11.5044
軍之守也六紀審	-11.5044
秬	-11.5045
不言其外	-11.5045
營於物而	-11.5045
倉廩虚	-11.5045
獨出獨入	-11.5045
近親愛	-11.5045
事而竣公又問焉曰於子之屬有	-11.5045
勿與分於	-11.5045
吾不識	-11.5045
家與府爭貨	-11.5045
審謀章禮選士利械則霸	-11.5045
明日管仲朝公	-11.5045
栢	-11.5045
正彼天植	-11.5045
爲此有道乎管子對曰	-11.5045
禺氏之	-11.5045
稽顙	-11.5045
聞之果令人之衡山求買械器	-11.5045
能用天下之權	-11.5045
髙而不見地不易也	-11.5045
上尊而民從	-11.5045
人情非不愛其	-11.5045
於上故主有以	-11.5045
疾怨非上賤爵輕禄	-11.5045
道故能多	-11.5045
紛	-11.5045
之外三千里之内諸侯五年而㑹至習命	-11.5045
二中郢賜與十二中絶收聚十二大暑至	-11.5045
君服赤色味苦味	-11.5045
常疾收孤寡三㑹諸侯令曰田租百取五	-11.5045
行夏政雷	-11.5045
遜	-11.5045
管仲又請	-11.5045
三政曰	-11.5045
瓜	-11.5045
于仲文	-11.5045
踵	-11.5045
先易者	-11.5045
歸齊若流	-11.5045
購	-11.5045
安髙在乎同利	-11.5045
旨	-11.5045
曰寡人聞之	-11.5045
無積乎	-11.5045
稱貸之家皆齊首	-11.5045
耕者幾何家	-11.5045
一農之事	-11.5045
上下不和雖安必危	-11.5045
不行於其民可知也	-11.5045
主盛處賢	-11.5045
也然而不敢者	-11.5045
人事之起近親造怨	-11.5045
人何族之	-11.5045
在他為	-11.5045
失天之度雖滿必涸	-11.5045
小謹者不大立	-11.5045
彊國衆先舉	-11.5045
明别則易治	-11.5045
明於機數	-11.5045
桓公築夷儀以封之	-11.5045
此其可比於君子之德	-11.5045
毉	-11.5045
當其罪賞賜	-11.5045
發之以力威之以誠一舉而上下得終	-11.5045
發於名聲	-11.5045
眀於機數	-11.5045
絇	-11.5045
蜚	-11.5045
誼	-11.5045
賢者食於能	-11.5045
金與粟爭貴	-11.5045
錠	-11.5045
鬭士食於功	-11.5045
壙	-11.5046
行春政烝泄	-11.5046
提衡	-11.5046
稱述	-11.5046
惽惽	-11.5046
者幾何家	-11.5046
降北	-11.5046
法令以治	-11.5046
見災變之氣	-11.5046
不一至於庭	-11.5046
之通施也	-11.5046
之陳無種者	-11.5046
其應物也若偶之	-11.5046
地之東西二萬八千里南北二萬六千里	-11.5046
大臣不和	-11.5046
曰寡人有千嵗之食而無百嵗之夀今	-11.5046
睹甲子木行御	-11.5046
粗	-11.5046
鰥	-11.5046
下情上而道止謂之侵	-11.5046
也不以法令案	-11.5046
仁慈孝於父母長弟聞於鄉里者有則以	-11.5046
天覆萬物	-11.5046
宫室臺榭	-11.5046
巧者有餘而拙者不足	-11.5046
府不積貨	-11.5046
持滿者與天	-11.5046
數百家	-11.5046
王天下而失天之道天下不可得而王也	-11.5046
用犧牲珪璧禱於鬼神鬼神	-11.5046
當其功故雖	-11.5046
筭	-11.5046
累代之功	-11.5046
鍊	-11.5046
盡善十二中暑十二小暑終三暑同事	-11.5046
再舉而民無不從三舉而地辟散成	-11.5047
四舉而農佚粟十	-11.5047
夏行春政風	-11.5047
春行冬政肅	-11.5047
鄰國有事鄰國	-11.5047
捧手	-11.5047
七二十八	-11.5047
國家乃昌四方乃	-11.5047
廵檢	-11.5047
萑	-11.5047
身死國亡	-11.5047
刑以秋冬	-11.5047
吮	-11.5047
揺木	-11.5047
旦暮利之衆乃勝任	-11.5047
賞以春夏	-11.5047
逝	-11.5047
㐫	-11.5047
七臣七主第五十二	-11.5047
不敢愛其死	-11.5047
乎吾亦鑒焉管子對曰夷吾	-11.5047
及于游宗	-11.5047
四十倍之粟	-11.5047
必坐長而百倍	-11.5047
必諾之言不足信也	-11.5047
敢轉其力	-11.5047
於君退則	-11.5047
於水則神	-11.5047
此之謂國無人	-11.5047
潮	-11.5047
生慶忌	-11.5047
祠部	-11.5047
翰筆談	-11.5047
莫要於	-11.5047
行秋政雷	-11.5047
見沈括内	-11.5047
連什伍	-11.5047
鮑叔隰朋	-11.5047
之國勞而多禍	-11.5047
互	-11.5047
天道之極逺者自親	-11.5047
威嚴寛惠	-11.5047
生棟覆屋怨怒不及弱子下瓦慈母操箠	-11.5047
置法出令臨衆用民計	-11.5047
而兵出於竟	-11.5047
而桓公不使也狄人攻	-11.5047
鹽之重升加分	-11.5047
祓	-11.5047
天子中而	-11.5048
官水官	-11.5048
先王之治國也使法擇人不自舉也	-11.5048
削衡山之	-11.5048
君鑄錢立幣民	-11.5048
是以聖王	-11.5048
爵貴有名以休之	-11.5048
事語第七十一	-11.5048
五衢之民	-11.5048
人主天下之有	-11.5048
代王聞之	-11.5048
代谷之上	-11.5048
假貸吾貧萌使有以	-11.5048
出風俗通	-11.5048
則戰之自勝	-11.5048
北海之衆	-11.5048
北澤燒	-11.5048
和好不基貴賤無司事變日至	-11.5048
國之所以安危者	-11.5048
國無以小與不幸而削亡者	-11.5048
孰急	-11.5048
得繕冢墓	-11.5048
得聚庸	-11.5048
擅破一國彊在	-11.5048
故先王不滿也	-11.5048
故野不積草	-11.5048
曰此若言	-11.5048
正法直度罪殺不赦	-11.5048
甲十萬	-11.5048
立臺榭	-11.5048
量能而	-11.5048
顧憂者可與致道	-11.5048
舉發以禮時禮必得	-11.5048
鋸	-11.5048
無戰心	-11.5048
踐位	-11.5048
酖	-11.5048
隻	-11.5048
冐	-11.5048
棲	-11.5048
故特著之	-11.5048
蘓無名	-11.5048
審其四時	-11.5048
庾	-11.5048
冬三月	-11.5048
出耕十二天氣下賜與十二義氣至	-11.5048
刑曹駮	-11.5048
宿治者削	-11.5048
山林之中	-11.5048
庄	-11.5048
意定而	-11.5048
拳	-11.5048
榬	-11.5048
民之所利立之所害除之則民人從	-11.5048
百官雖具非以任國也	-11.5048
知禍福之	-11.5048
舉所美必觀其所終	-11.5048
配天地	-11.5048
鳥獸	-11.5048
上察於天下	-11.5048
不如為善於	-11.5048
十年之蓄積	-11.5048
君不聞此所謂逺於	-11.5048
善覈姦者	-11.5048
在己為	-11.5048
地圖第二十七	-11.5048
廏	-11.5048
心之在體君之位也	-11.5048
所慮而請	-11.5048
有功者必賞	-11.5048
猶尚可加	-11.5048
珣	-11.5048
石月有	-11.5048
羈旅	-11.5048
衡山之械器	-11.5048
雖善不親	-11.5048
朋友	-11.5049
之務則功得而無害	-11.5049
於器械之利則	-11.5049
著於取與之分則得地而不執	-11.5049
計緩急之事則危危而無難	-11.5049
賣子者	-11.5049
樊	-11.5049
備水之器	-11.5049
凡牧民者	-11.5049
能依鬼神作法詛呪	-11.5049
之歸之也譬若市人	-11.5049
使吾萌春有以倳耜夏有以決芸	-11.5049
使國君得其治則人君從㑹	-11.5049
則民倍貸以	-11.5049
動無非法者所以禁過而外私也	-11.5049
十之籍大女	-11.5049
困通於出入之度則深入而不危審於動	-11.5049
大男食	-11.5049
威不兩錯	-11.5049
宫室必有度	-11.5049
廢所惡必計其所窮	-11.5049
慶勉敦敬以顯之	-11.5049
攜	-11.5049
敢犯我	-11.5049
民不足令乃辱	-11.5049
民無所游食	-11.5049
民苦殃令不行施報不得禍乃始昌禍昌	-11.5049
請命於天地知氣和則生物從	-11.5049
謀泄菑	-11.5049
貨財行於國	-11.5049
馬牛選具	-11.5049
以形色之	-11.5049
南方副圖	-11.5049
少長貴賤不相踰越	-11.5049
政不二門	-11.5049
桓公又問曰	-11.5049
泲	-11.5049
而賞罰之所立者	-11.5049
霸形第二十二	-11.5049
捶	-11.5049
立義而加之以勝至威而實之以	-11.5049
蠅	-11.5049
大夫種	-11.505
奥	-11.505
韓宣王	-11.505
乍	-11.505
亭亭	-11.505
成形於	-11.505
揲	-11.505
昭穆	-11.505
韓康子	-11.505
則主位	-11.505
審用財	-11.505
屬數雖衆非以尊君也	-11.505
此五子者	-11.505
阮	-11.505
之官則舉事而有功此居於圖北方方外	-11.505
九變第四十四	-11.505
二十乗先	-11.505
任法第四十五	-11.505
何如管子曰	-11.505
十二小榆賜予十二中寒收聚十二中榆	-11.505
士修身功材	-11.505
官長任事守職	-11.505
小國諸侯不	-11.505
已語我昔者有道之君	-11.505
有家不治	-11.505
民和輯	-11.505
沸	-11.505
王璩	-11.505
由是知名	-11.505
睹庚子金行御天子	-11.505
瞠	-11.505
耗而釡	-11.505
術而御之	-11.505
誅殺人之謂	-11.505
説以進	-11.505
里也步者	-11.505
鑄幣而	-11.505
開闔	-11.505
閻遏公孫衍	-11.505
離枝聞之	-11.505
舉兵之日而境内	-11.505
召管子而問曰	-11.505
羸	-11.505
不足者皆以其事業	-11.505
乆而不勝其福	-11.505
察國本	-11.505
上之法制	-11.505
主尊臣卑	-11.505
什一之師	-11.505
寄生之君	-11.505
王霸之	-11.505
用力苦則勞	-11.505
財不可以嗇用力不可以苦用財嗇則費	-11.505
鱉	-11.505
一朝素賞	-11.505
之所生從法之不立也	-11.505
以奉其主	-11.505
以致民利	-11.505
侵其北	-11.505
便辟左右	-11.505
刑以弊之	-11.505
坐長什倍	-11.505
所歸心行者也	-11.505
故曰山林雖	-11.505
樹木之勝霜	-11.505
民心誅殺	-11.505
民輕其禄賞	-11.505
用鹽獨	-11.505
男女不淫	-11.505
禁發必有時	-11.505
者非以愛主也	-11.505
聽治不公	-11.505
蕃息	-11.505
韻	-11.505
擄	-11.505
睡	-11.505
合内空周外	-11.5051
霆	-11.5051
榮華	-11.5051
鄰國有焉	-11.5051
桓公召管子而問曰此	-11.5051
夫爭天下者	-11.5051
孰敢	-11.5051
摧	-11.5051
則順時節而布政	-11.5051
梏	-11.5051
爛	-11.5051
舟船	-11.5051
重於親戚	-11.5051
之人非生而	-11.5051
以其所有易其所無	-11.5051
感悟	-11.5051
發五苑	-11.5051
臊	-11.5051
蔣常	-11.5051
薦之先	-11.5051
賞厚而信	-11.5051
不仕與耕者	-11.5051
不聽於天	-11.5051
之所起也	-11.5051
之裁大故能兼	-11.5051
以具獄上	-11.5051
入州里觀習俗聽民之所以化其上	-11.5051
其所謹者	-11.5051
則其所立亦	-11.5051
北方副圖	-11.5051
受息之萌九百餘家	-11.5051
喜無以賞怒無以殺喜以賞怒以殺怨乃	-11.5051
多者千萬少者六七百萬其出之中	-11.5051
張詠尚書	-11.5051
無鹽則腫守圉之	-11.5051
箕鄭	-11.5051
草木雖美	-11.5051
藏不忍行	-11.5051
行於其民	-11.5051
請立為大司	-11.5051
貧民貧	-11.5051
齊國之社稷	-11.5051
厩	-11.5051
周勝大明則	-11.5051
幨	-11.5051
彼幸而	-11.5051
民賤其爵服	-11.5051
理不上通	-11.5051
當此之時也	-11.5051
矣不當盡語我昔者無道之	-11.5051
八舉時節	-11.5051
此亦可謂昔者	-11.5052
蔬	-11.5052
之成數	-11.5052
吿	-11.5052
應於父兄	-11.5052
芋	-11.5052
不信於民	-11.5052
不出於口不見於色	-11.5052
人主莫不惡也	-11.5052
任小物	-11.5052
先王知其然故	-11.5052
制於主而	-11.5052
吾貧萌	-11.5052
明勝大周則	-11.5052
此國筴之	-11.5052
禁不能必止	-11.5052
禍福兩	-11.5052
而治亂之國可知也	-11.5052
能勝其攻故	-11.5052
西鄰	-11.5052
緯	-11.5052
叢	-11.5052
則易治也	-11.5052
衾	-11.5052
而不理者復	-11.5052
謹按大明律云	-11.5052
正也者所以	-11.5052
當塗之人	-11.5052
之急度	-11.5052
則姦不生	-11.5052
商販	-11.5052
帚	-11.5052
王良造父	-11.5052
相益不務尊君也大臣務相貴而不任國	-11.5052
主則主不得	-11.5052
以情理察之	-11.5052
則立於一	-11.5052
可貴也	-11.5052
如日月之明	-11.5052
守圉之備	-11.5052
扺	-11.5052
故其諾未	-11.5052
故國不虚	-11.5052
民心易	-11.5052
美哉岪岪	-11.5052
上令不能必行	-11.5052
問曰幾何人	-11.5052
四萬二千金	-11.5052
戰而懼	-11.5052
抃	-11.5052
散積聚	-11.5052
曰寡人多務令衡籍吾國	-11.5052
民亂於内	-11.5052
無遺利無隱治	-11.5052
竟内之衆	-11.5052
者上之所以一民使下也私	-11.5052
者下之所以侵	-11.5052
者賜之百金	-11.5052
與女及	-11.5052
諸侯失於外	-11.5052
紏	-11.5053
外内朋黨雖有大姦其蔽主多矣	-11.5053
之一分在	-11.5053
令不必行禁不必止戰不必勝守不必固	-11.5053
則人畏其	-11.5053
則勞臣	-11.5053
在愛施	-11.5053
尚謙	-11.5053
成囷京者二家	-11.5053
鎬	-11.5053
鮑叔馳而西	-11.5053
鷙	-11.5053
齊有渠展之鹽	-11.5053
􁝈	-11.5053
主之分也	-11.5053
令之所止令之所發	-11.5053
祈祥	-11.5053
衣冠	-11.5053
誠莊事斷	-11.5053
闟	-11.5053
頻	-11.5053
宗裔	-11.5053
戢	-11.5054
戰不必勝	-11.5054
釐	-11.5054
岳州	-11.5054
恬淡	-11.5054
寛舒	-11.5054
倉廩實則知禮節衣食足則知榮辱	-11.5054
喜賞惡罰之人離公道而行私術矣	-11.5054
嘉苗	-11.5054
左右前後	-11.5054
志本傳	-11.5054
見司馬光丞	-11.5054
幣輕則	-11.5054
振困	-11.5054
於山五尺見水	-11.5054
見曽鞏	-11.5054
道有損瘠	-11.5054
不能得之於	-11.5054
之而勿捨	-11.5054
也而令乃行	-11.5054
先令之失	-11.5054
公子糺可謂有	-11.5054
夷狄	-11.5054
威勢也故威勢	-11.5054
愛慾	-11.5054
慕古	-11.5054
故無顧	-11.5054
於父兄無過	-11.5054
欲生而惡死	-11.5054
童山竭澤	-11.5054
蛙	-11.5054
逗	-11.5054
鍾其出之	-11.5054
力勞	-11.5054
凡論人	-11.5054
主釋法以譽進能則臣離上而下比周矣	-11.5054
山諸侯之國	-11.5054
國雖小	-11.5054
社稷不血食	-11.5054
即令隰朋	-11.5054
告其相曰	-11.5054
問鄉之	-11.5054
大收十二寒至	-11.5054
業産	-11.5054
理之至也	-11.5054
吏進之君用之	-11.5054
大城不	-11.5054
孰知其則	-11.5054
展轉	-11.5054
差肩而	-11.5054
於三者而自有	-11.5054
棧臺之職	-11.5054
深之議	-11.5054
而固守之	-11.5054
能後其身	-11.5054
塵	-11.5055
槨	-11.5055
於雷鼓	-11.5055
民食	-11.5055
有土之君	-11.5055
敝邑	-11.5055
蒐	-11.5055
仗	-11.5055
引而來不	-11.5055
忍痛	-11.5055
推而往不	-11.5055
無棄之言	-11.5055
而國貧者	-11.5055
而民可使	-11.5055
有地牧民者務在四時	-11.5055
臻	-11.5055
衆民不能	-11.5055
事再其本	-11.5055
佐各	-11.5055
制於臣矣	-11.5055
力成吾君之禍	-11.5055
受而官	-11.5055
四其本則	-11.5055
國少先舉	-11.5055
執燭	-11.5055
有日不足	-11.5055
管仲再拜稽首	-11.5055
者謹守	-11.5055
藁	-11.5055
輔其過則社稷	-11.5055
運萬物運則萬物賤萬物賤則萬物可因	-11.5055
酬	-11.5055
謂去十	-11.5055
相陳以	-11.5056
肝	-11.5056
人君泄	-11.5056
爭秩	-11.5056
籍求於民	-11.5056
人心之變	-11.5056
國必亡	-11.5056
壙地	-11.5056
忌於辱	-11.5056
桂氏	-11.5056
無好無惡	-11.5056
然故諶杵習士聞識博學之	-11.5056
犂	-11.5056
瑗	-11.5056
管子又言曰	-11.5056
萬家以上	-11.5056
課其功	-11.5056
賀獻	-11.5056
賞不足以勸	-11.5056
沔	-11.5056
雍一	-11.5057
仲尼不知善賞	-11.5057
墙	-11.5057
不法法則	-11.5057
垂棘之璧	-11.5057
揜	-11.5057
甕	-11.5057
田連成竅	-11.5057
之則非有補於	-11.5057
乘軒	-11.5057
以自代	-11.5057
其士民貴	-11.5057
吝	-11.5057
帯	-11.5057
想思之	-11.5057
把	-11.5057
期於興利除害	-11.5057
杲	-11.5057
桓公曰善哉	-11.5057
節宫室	-11.5057
貶	-11.5057
逃匿	-11.5057
逺近一心	-11.5057
事不能再其本而上之求焉無止	-11.5057
五家之數殊而用一也桓公曰	-11.5057
人獨操國	-11.5057
倍之力而不至者有	-11.5057
右聖人法之以	-11.5057
天子之春令也以	-11.5057
威下繫於民	-11.5057
射稽	-11.5057
庖	-11.5057
後必相	-11.5057
曰號令也斧鉞也禄賞也六攻者何也	-11.5057
疑其寃	-11.5057
籍而務則	-11.5057
𥿄	-11.5057
黠	-11.5057
拷掠	-11.5057
方六里	-11.5057
年之積粟行於	-11.5057
罪不應死	-11.5057
君小人也	-11.5057
日至始數四十六日	-11.5057
江海	-11.5057
䜛	-11.5057
二十四月	-11.5057
以御其司命故民力可	-11.5057
以時禁發	-11.5057
姦智生	-11.5057
孔者其	-11.5057
有亡失	-11.5057
毋功而可以得富者	-11.5057
耕耨	-11.5057
莫不欲利而惡害	-11.5057
衆寡同力	-11.5057
覓	-11.5057
通國筴	-11.5057
萬有餘里	-11.5057
媚	-11.5057
刁	-11.5058
剪	-11.5058
壮	-11.5058
輳	-11.5058
諸侯莫不來服	-11.5058
於四境之内	-11.5058
昭昭	-11.5058
暨	-11.5058
二十國之筴也	-11.5058
寕	-11.5058
小國諸侯之	-11.5058
愜	-11.5058
故聖人之爲國也	-11.5058
期十日	-11.5058
殺僇禁誅	-11.5058
民不得操	-11.5058
田嬰	-11.5058
田子方	-11.5058
緩怠	-11.5058
行乞者	-11.5058
賠	-11.5058
蓆	-11.5058
漕	-11.5058
砥	-11.5059
試諸	-11.5059
項	-11.5059
以付法	-11.5059
諸侯卿大夫列士循於百姓發號出令曰	-11.5059
議獄緩死	-11.5059
透	-11.5059
霸王之術也	-11.5059
下瓦	-11.5059
今在魯	-11.5059
其自及也	-11.5059
敬祖	-11.5059
曰何謂也管子對曰今天下起兵加我	-11.5059
曰田若干	-11.5059
美者應其	-11.5059
竪刁易牙	-11.5059
必先爭	-11.5059
逆氣生	-11.5059
之秋大	-11.5059
聖人因而	-11.5059
胙	-11.5059
荅	-11.5059
過失也	-11.5059
不可損益也	-11.5059
人之求事也	-11.5059
唐肅	-11.5059
子之里為	-11.5059
技能	-11.5059
晉和凝撰	-11.5059
有正食而盜食	-11.5059
織而衣	-11.5059
脚	-11.5059
賤則以幣予	-11.5059
抄	-11.506
彦	-11.506
視其色	-11.506
決之則	-11.506
慢之人	-11.506
秋三月	-11.506
罰故民	-11.506
集不載	-11.506
霸王之形	-11.506
也管子曰千人之	-11.506
人殺妻之父母兄弟數口	-11.506
寃濫	-11.506
降齊者十分之	-11.506
雖心之所	-11.506
雲氣	-11.506
想	-11.506
濵	-11.506
出魏志本傳	-11.5061
郄宛	-11.5061
法度審	-11.5061
不難矣	-11.5061
繑	-11.5061
日不食無	-11.5061
百利不得	-11.5061
遺苞	-11.5061
上與君	-11.5061
堯舜之所難	-11.5061
娼	-11.5061
滄	-11.5061
不以彤弓石璧	-11.5061
以田曰	-11.5061
充其言則	-11.5061
其失之也以	-11.5061
所謂能以所不	-11.5061
江陵	-11.5061
錢五倍	-11.5061
倍貸	-11.5061
訴于朝	-11.5061
衣帛	-11.5061
君朝令	-11.5061
吾國之竒出	-11.5061
啇	-11.5061
四海之人	-11.5061
威利之操	-11.5061
愁而藏之	-11.5061
擁蔽	-11.5061
聖王所以	-11.5061
鹽鐵	-11.5061
季辛	-11.5062
侯臨	-11.5062
中射之士	-11.5062
伯夷叔齊	-11.5062
凡拚之	-11.5062
惻	-11.5062
紛紛	-11.5062
司聲	-11.5062
困難成之事	-11.5062
操斧	-11.5062
朝先王之廟觀於周室	-11.5062
窖中	-11.5062
而後利之	-11.5062
致天下之精材	-11.5062
覩	-11.5062
隊	-11.5062
霸臣貪	-11.5062
緩急	-11.5062
遇諸	-11.5062
朝者義之理也	-11.5063
此天下之所	-11.5063
錙	-11.5063
不自進	-11.5063
偷生也	-11.5063
治國有三	-11.5063
知彭州九隴縣	-11.5063
祝融	-11.5063
絻黒	-11.5063
見察姦門	-11.5063
顧望	-11.5063
亂主也故	-11.5063
傅曲木	-11.5063
兵也所以	-11.5063
卑身雜處	-11.5063
祖無功者	-11.5063
為之有道	-11.5063
疑似	-11.5063
眉睫	-11.5063
釐負羈	-11.5063
尺而至於泉付山	-11.5063
溪	-11.5063
而姦不生	-11.5063
而莫索	-11.5063
雜俗	-11.5063
丁壯者	-11.5063
事不工事不工	-11.5063
人輕行之	-11.5063
刑獄時	-11.5063
埏	-11.5063
失不可及之功	-11.5063
始不足見	-11.5063
延陵	-11.5063
怙	-11.5063
擅主者	-11.5063
為此有道乎管子對曰	-11.5063
紓	-11.5063
者皆受天	-11.5063
距敵	-11.5063
孤竹	-11.5064
邊境	-11.5064
桓公踐位	-11.5064
足以勸民號令不足以使下斧鉞不足以	-11.5064
餓餒	-11.5064
沐涂樹之枝	-11.5064
渠門	-11.5064
輕民輕	-11.5064
隨之以法	-11.5064
拯	-11.5064
塩	-11.5065
孟嘗	-11.5065
毁成也	-11.5065
冊	-11.5065
彼道不	-11.5065
有犯禁而可以得免者則斧鉞不足以	-11.5065
紀隨	-11.5065
號令不足以使下	-11.5065
齊國危矣	-11.5065
一踦	-11.5065
之以刑罰	-11.5065
人輕棄之	-11.5065
失二五者亡其	-11.5065
工役者	-11.5065
者有使民	-11.5065
國頌	-11.5065
第九	-11.5065
方千里	-11.5066
各當其	-11.5066
令之行也	-11.5066
征賦	-11.5066
雖犯禁而可以得免	-11.5066
遂自誣服	-11.5066
丐	-11.5066
頗亦類此	-11.5066
也精於	-11.5066
妄舉動	-11.5066
上下均	-11.5066
夀昌	-11.5066
從昆弟	-11.5066
不知恥	-11.5066
人之所重也	-11.5066
以權致之	-11.5066
凡人君者欲	-11.5066
嘉定	-11.5066
宰邑者	-11.5066
正籍者	-11.5066
淡也	-11.5067
無刑民	-11.5067
故凡用兵	-11.5067
滿盛	-11.5067
田野充	-11.5067
知得失	-11.5067
三桓	-11.5067
不可法故	-11.5068
察盗之術	-11.5068
五者不可	-11.5068
其所任官者	-11.5068
反報曰	-11.5068
壟墓	-11.5068
干戚	-11.5068
攻堅則	-11.5068
施九十	-11.5068
賢人之行	-11.5068
腦	-11.5068
勿施於人	-11.5068
法愛於	-11.5068
中孚	-11.5068
也以夏日至始數	-11.5068
勢在下	-11.5068
無遺善無隱姦	-11.5068
譙于	-11.5068
老儒	-11.5069
法術之士既	-11.5069
兔	-11.5069
急作五聲	-11.5069
田成恒	-11.5069
申之以	-11.5069
能審察	-11.5069
王國則	-11.5069
蘇代	-11.5069
賄	-11.5069
僉	-11.507
脩令者	-11.507
如四時之	-11.507
第六	-11.507
自古以	-11.507
霽	-11.507
民有餘食	-11.507
能殺力	-11.507
顯榮	-11.507
算	-11.507
跀危	-11.507
邑宰	-11.507
則是使民	-11.507
國得之也以	-11.507
敝袴	-11.507
民除害	-11.507
溶	-11.507
知益州	-11.507
私罰之	-11.5071
楚掠	-11.5071
教訓	-11.5071
歳凶	-11.5071
臣有大罪	-11.5072
金帛	-11.5072
墳然	-11.5072
隰子	-11.5072
之道畢矣	-11.5072
信明聖	-11.5072
湝	-11.5072
而勿盡桓公曰	-11.5072
唇	-11.5072
太叔	-11.5072
技巧	-11.5072
新唐書	-11.5072
者有務	-11.5072
生殺之柄	-11.5072
一事能變	-11.5072
旗所以	-11.5072
仲孫	-11.5072
勸國家	-11.5072
無功而可以得富	-11.5072
天道之數	-11.5072
出令命	-11.5073
兵之勝	-11.5073
饒州	-11.5073
西隣	-11.5073
周書曰	-11.5073
者衆也故	-11.5073
舉兵伐	-11.5073
不當人心	-11.5073
二什倍	-11.5073
仲宣	-11.5073
宇	-11.5073
樛留	-11.5073
第十四	-11.5074
求生鹿	-11.5074
法制毁	-11.5074
襄公立	-11.5074
罪身者民	-11.5074
優笑	-11.5075
無所告	-11.5075
窮詰	-11.5075
詬	-11.5075
聽其言	-11.5075
人言市有虎	-11.5075
决杖	-11.5075
河伯	-11.5075
仲榮	-11.5075
伸寃	-11.5075
可罰也	-11.5075
嵗凶	-11.5075
嗇夫	-11.5075
於主下	-11.5075
思索	-11.5075
北狄	-11.5075
親也有病則憂臨死則懼既死則哀今	-11.5075
豐年	-11.5075
利者天下	-11.5075
覆載萬民	-11.5075
功賞賢	-11.5076
收藏之	-11.5076
治亂之情	-11.5076
心腹	-11.5076
第十二	-11.5076
鬻貴	-11.5076
寛惠	-11.5076
國之亡也	-11.5077
國地大而	-11.5077
其事親也	-11.5077
西土	-11.5077
有内憂	-11.5077
夫善用	-11.5077
芬然若	-11.5077
亡其半	-11.5077
後舉者	-11.5077
子臯	-11.5077
獸鹿	-11.5077
辜限外死者	-11.5077
○○○○○	-11.5078
公事則	-11.5078
尊君尊	-11.5078
增長	-11.5078
察於治	-11.5078
知臣莫	-11.5079
山之隂	-11.5079
故君請	-11.5079
是國安	-11.5079
欒	-11.5079
白黒	-11.5079
五穫	-11.5079
則民從之	-11.5079
文裕	-11.5079
書社	-11.5079
民不虚	-11.5079
法不一則	-11.5079
上之徴	-11.5079
疑衍	-11.5079
而患不	-11.5079
曰䕫	-11.508
則民之用者	-11.508
何可無	-11.508
天下可得而	-11.508
識認	-11.508
司馬恱	-11.508
自縊	-11.508
封君之臣	-11.508
乞請	-11.508
辟倚	-11.508
有非常之	-11.508
寃枉	-11.5081
左丞	-11.5081
或維	-11.5082
除怨	-11.5082
𤓰主	-11.5082
十二月	-11.5082
石沈	-11.5082
萬物莫不	-11.5082
三十五	-11.5082
蒿	-11.5083
重在下	-11.5083
再拜受	-11.5083
困窮	-11.5083
夜宿	-11.5083
令而不行則	-11.5084
何以知之子産曰	-11.5084
則民盡力	-11.5084
兵弱於外	-11.5084
按原本	-11.5084
閒燕	-11.5084
壅塞	-11.5085
所由生	-11.5085
主之治國也	-11.5085
二年桓公	-11.5085
匈中	-11.5085
民之所惡也	-11.5085
雖利不	-11.5086
區言	-11.5086
車騎	-11.5086
供養	-11.5086
澗	-11.5086
叛亡	-11.5086
羣徒	-11.5086
以畜之	-11.5086
請籍於	-11.5086
館客	-11.5087
計數得	-11.5087
州侯	-11.5087
勝甲兵	-11.5087
咸共	-11.5087
得龜	-11.5087
乘馬之數	-11.5088
未嘗有也	-11.5088
四面	-11.5088
君臣之義	-11.5088
經紀	-11.5088
以出征	-11.5088
淫暴	-11.5088
刖跪	-11.5088
李斯	-11.5088
蘇瓊	-11.5088
隣里	-11.5088
勝其任者	-11.5088
宻遣	-11.5088
度恕	-11.5088
横通	-11.5088
法令之所謂	-11.5088
逐獸	-11.5088
稱貸	-11.5089
人雖衆不	-11.5089
恭之	-11.5089
遇雨	-11.5089
其唯無	-11.5089
耳不聞	-11.5089
殿中	-11.509
户曹	-11.509
妻族	-11.509
兵不義	-11.509
尺而至於泉其下	-11.509
舉錯得	-11.509
舜往	-11.509
此兩者	-11.509
四則去	-11.509
寳玉	-11.509
其涂	-11.5091
君惕	-11.5091
僖侯	-11.5091
蚤服	-11.5091
山河	-11.5092
無憾	-11.5092
能服信	-11.5092
利之所在	-11.5092
死乎	-11.5092
人也者無	-11.5092
聞之使人	-11.5093
談説	-11.5093
臧孫子	-11.5093
寡人西	-11.5093
乗馬之數	-11.5093
證慝	-11.5093
莫知其將	-11.5093
五位之	-11.5094
父命	-11.5094
提舉	-11.5094
㢲	-11.5094
陳妾	-11.5094
田野	-11.5094
是故大國之君	-11.5095
捶楚	-11.5095
禮者所以	-11.5095
具得其情	-11.5095
夜半	-11.5095
村童	-11.5095
管仲射	-11.5095
大國之君	-11.5095
里之情通矣堂	-11.5096
自誣伏	-11.5096
長幼	-11.5096
閭里	-11.5097
典冠	-11.5097
聽信之	-11.5097
請以令使	-11.5097
觀望	-11.5097
施報	-11.5098
曰壅臣	-11.5098
然則人君	-11.5098
置一法官	-11.5098
其事君也	-11.5099
者必有見	-11.5099
所謂忠臣	-11.51
氣貌	-11.51
故能成其	-11.51
而不止民	-11.51
束馬	-11.51
若此則士	-11.51
或曰管仲	-11.5101
不譽者	-11.5101
其國而無	-11.5101
宗室	-11.5101
邪枉	-11.5101
同宿	-11.5101
右手	-11.5102
索辯	-11.5102
苟且	-11.5102
主名而	-11.5102
稹	-11.5102
無傷也	-11.5102
而有獨	-11.5102
彌亂	-11.5102
同牀	-11.5102
曉告	-11.5103
嚴刑罰	-11.5103
參具	-11.5103
刑而民不	-11.5103
之民也而世尊之曰	-11.5103
盡齊之	-11.5104
其徳乃	-11.5104
生而不死者	-11.5105
執柄	-11.5105
故君一國	-11.5105
之張官	-11.5106
名之曰	-11.5106
據法而	-11.5106
不悛	-11.5106
委積	-11.5106
道乃可	-11.5106
十六道	-11.5106
西伐	-11.5106
天性	-11.5106
道不違	-11.5106
而不赦有	-11.5107
之沉於	-11.5107
仇家	-11.5107
數而止	-11.5107
以及逺	-11.5108
男女皆	-11.5108
道行則	-11.5108
則是楚	-11.5108
壽命	-11.5108
祿爵	-11.5108
先生將	-11.5108
之所利也	-11.5109
鮑叔辭	-11.5109
寡人東	-11.5109
金起於汝漢	-11.5109
不相及	-11.5109
在㫄	-11.5109
三不歸	-11.511
淫之也	-11.511
縁坐	-11.511
若此而	-11.511
一施七	-11.511
㡬何	-11.5111
不善政	-11.5111
五尺	-11.5111
以巧言	-11.5112
無以有其	-11.5112
鄰敵	-11.5112
問曰爾	-11.5112
用貨財	-11.5112
而後解	-11.5112
邑里	-11.5112
魏氏	-11.5112
使其小	-11.5113
叅軍	-11.5114
事智	-11.5114
誅戮	-11.5114
養其人	-11.5114
而天下治矣	-11.5114
設象	-11.5114
人主不察	-11.5115
王天下小	-11.5115
賢佐	-11.5117
以振其	-11.5117
分齊國	-11.5117
音聲	-11.5118
桓之功	-11.5119
白徒	-11.5119
以立功名也	-11.512
峻法	-11.512
官不理	-11.512
賞於國	-11.512
閉門	-11.512
則民失其	-11.5121
及於身	-11.5121
能䧟	-11.5121
此輕重之	-11.5122
者勿征於	-11.5122
得龜者	-11.5122
者置之黃金一斤直食八石民之	-11.5123
陳青	-11.5123
内外相	-11.5123
用印	-11.5124
共語	-11.5124
七八	-11.5124
非所宜	-11.5124
付吏	-11.5126
故明王之所	-11.5126
掠治	-11.5127
衡山	-11.5127
緩其刑	-11.5128
教於國	-11.5128
流管子對曰	-11.5129
呉起	-11.5129
隱其	-11.5129
生於水	-11.5129
勝任之	-11.5129
其可得乎	-11.5129
故下怨上	-11.5129
焉築	-11.5129
註非	-11.5129
君若有	-11.513
危其身	-11.5131
大旱	-11.5131
是國治	-11.5131
令支	-11.5131
大周之	-11.5132
民死上	-11.5132
失在上	-11.5132
去其本	-11.5132
在其心	-11.5132
能反其性	-11.5133
假之道	-11.5133
赦前	-11.5134
樂池	-11.5134
監門	-11.5135
車盖	-11.5136
六月	-11.5136
又何以	-11.5136
賊暴	-11.5136
受職	-11.5137
孝弟者	-11.5137
鄉司	-11.5137
鬻子	-11.5137
不審則姦	-11.5137
商臣	-11.5138
乃召問	-11.5138
怒喜	-11.5138
髙防	-11.5139
哉霸	-11.5139
聚收	-11.5141
績按指	-11.5142
七觀	-11.5142
九九	-11.5142
也大木不可獨	-11.5142
鄰婦	-11.5143
人主莫不欲也	-11.5143
及祖	-11.5143
攻原	-11.5144
謂之塞	-11.5145
寡疾	-11.5145
君之賜	-11.5145
荆魏	-11.5145
他僧	-11.5145
貨賤	-11.5146
其公法	-11.5146
九十二日謂之	-11.5146
量力	-11.5147
亟近	-11.5147
太甚	-11.5147
子男	-11.5147
有術數	-11.5147
七年	-11.5148
臣之義也	-11.5148
臣之力也	-11.5148
事未起	-11.5149
不可調	-11.5149
遂服罪	-11.5149
風之所	-11.5149
失度量	-11.515
行僻	-11.515
偶然	-11.5151
未濟	-11.5151
報惡	-11.5151
趙武	-11.5151
嗣君	-11.5152
設法以	-11.5152
不以少	-11.5152
推前	-11.5153
天子之所以	-11.5153
操持不	-11.5154
聲樂	-11.5154
跀者	-11.5154
沉香	-11.5154
之以徐疾	-11.5154
和氏	-11.5155
衆端	-11.5155
驕諸侯	-11.5155
淫樂	-11.5156
知所必	-11.5156
是謂成	-11.5156
力審其	-11.5157
餘財	-11.5157
也此守	-11.5157
辨辭	-11.5158
傷其身	-11.5158
猶尚	-11.5158
隂里	-11.5158
運乎	-11.5158
完利	-11.5159
彊國之	-11.5159
百代	-11.5159
天壤	-11.5159
奉命	-11.5159
畏敬	-11.516
使其大	-11.516
相憎	-11.5161
而宫室美	-11.5161
則能制	-11.5161
其所職	-11.5162
惑亂	-11.5162
之患也夫	-11.5162
厚禄	-11.5163
將何如	-11.5164
疑匱	-11.5165
可以對	-11.5165
名自治之	-11.5166
者何曰	-11.5166
天材	-11.5166
率天下	-11.5166
氣情	-11.5166
憂勞	-11.5167
其唯	-11.5167
弗敢	-11.5168
地不生	-11.5168
受資	-11.5168
以殉	-11.5169
今據	-11.5169
則當於	-11.517
宰相	-11.517
圖我	-11.5172
而後動	-11.5172
山白	-11.5172
賤寡	-11.5173
馬牛	-11.5173
大衍	-11.5174
謂之聖人	-11.5174
齊西	-11.5175
其秀	-11.5175
金城	-11.5175
不可用	-11.5175
一升	-11.5176
事便辟	-11.5176
參政	-11.5176
在野	-11.5176
農具	-11.5177
陽也故	-11.5177
省刑	-11.5177
通移	-11.5177
離彊	-11.5179
然無私	-11.5179
封内	-11.5179
仇讎也	-11.518
坐長而	-11.518
太過	-11.5181
能成其	-11.5182
平原	-11.5182
不亟	-11.5182
而不行則賞罰	-11.5182
留處	-11.5183
生四時	-11.5183
周室	-11.5184
本委	-11.5186
毋全	-11.5186
彌子	-11.5186
重重而	-11.5187
徃來	-11.5187
尚賢	-11.5187
某家	-11.5187
金賤	-11.5188
二公子	-11.5188
日新	-11.5188
秦趙	-11.5189
歸於君矣	-11.5189
簡易	-11.519
則忠臣無	-11.5191
禍敗	-11.5192
以禮樂	-11.5192
衆庶	-11.5193
所以勸	-11.5193
兩具	-11.5193
是故君子	-11.5194
不可留	-11.5195
軍門	-11.5195
其薄者	-11.5195
桓公憂	-11.5196
情貌	-11.5196
内愚	-11.5197
行行者	-11.5199
亡其身	-11.5199
如此則羣臣	-11.52
宜陽	-11.5201
其威權	-11.5201
鮑叔曰君	-11.5201
将軍	-11.5202
人主猶	-11.5202
所以安也	-11.5202
必危矣	-11.5203
千斤	-11.5203
敎化	-11.5203
然則可以	-11.5203
齊燕	-11.5204
經水	-11.5204
相舉	-11.5204
道之精	-11.5204
歳飢	-11.5204
輕散	-11.5204
行不可得也	-11.5205
彼心之	-11.5206
暴卒	-11.5206
女衣	-11.5206
君一國	-11.5207
謀殺	-11.5207
賢聖	-11.5208
守布	-11.5208
信聖	-11.5209
桓公怒	-11.5209
良家	-11.5209
誤中	-11.521
權度	-11.521
移文	-11.521
桓公曰天下之	-11.5211
智慮	-11.5212
今補	-11.5213
之所舎	-11.5213
攻伐	-11.5213
聚食	-11.5213
奈何曰	-11.5214
有數勝	-11.5215
詭使	-11.5215
也意者	-11.5215
以給其	-11.5215
餓死	-11.5215
美好	-11.5216
縣獄	-11.5216
不能侵	-11.5217
矣桓公問於管子曰	-11.5217
大凶	-11.5218
君知臣	-11.5219
行惠	-11.5219
而不行其	-11.5219
故此所謂	-11.522
三卿	-11.522
數管子對曰	-11.5222
直進	-11.5222
度之書	-11.5222
善明者	-11.5223
同乎曰	-11.5223
吉州	-11.5224
非道也	-11.5224
公卿	-11.5226
則主無以	-11.5226
守諸	-11.5226
桓公終	-11.5226
犯難	-11.5227
致罰	-11.5227
將飲	-11.5227
刑餘	-11.5228
相高	-11.523
於朝者	-11.523
權權	-11.5231
立幣	-11.5232
反覆	-11.5233
老馬	-11.5233
賜之人	-11.5233
金金	-11.5237
霸天下	-11.5238
之事謂之	-11.5238
汝水	-11.5239
而止矣	-11.524
令之不行	-11.524
攻戰	-11.524
加功	-11.5242
徐有功	-11.5242
一束	-11.5242
大諫	-11.5243
寡功	-11.5244
抑又	-11.5245
上位不	-11.5246
程二	-11.5246
實不可得也	-11.5246
厲王	-11.5247
著書	-11.5247
御吏	-11.5248
公子糺召忽	-11.5248
而請之	-11.5248
其往來	-11.5249
立儀	-11.525
功賞	-11.525
有擬	-11.5251
省官	-11.5251
最一	-11.5251
殺汝	-11.5252
隂陽之數	-11.5252
引入	-11.5252
之福也	-11.5253
大道而	-11.5254
君有過	-11.5255
羣官	-11.5255
衆共	-11.5256
二一曰	-11.5256
執方	-11.5256
違非	-11.5257
山髙	-11.5258
詩有	-11.5259
無苛	-11.526
大侯	-11.5261
告民	-11.5262
案問	-11.5262
九制	-11.5263
第十一	-11.5265
見射	-11.5266
者傷其	-11.5266
深入	-11.5267
譽多	-11.5267
已逃	-11.5267
使萬	-11.5268
小恥不	-11.5269
萬物盡	-11.527
惑主	-11.527
所匿	-11.5271
罰寡	-11.5271
外敬	-11.5271
者所以知	-11.5272
平虚	-11.5272
兵出而	-11.5274
以時行	-11.5274
而說之	-11.5276
而教以	-11.5276
之科	-11.5279
然後可以	-11.5279
諸本	-11.5279
臣人者	-11.5279
亦足以	-11.528
知録	-11.5281
人主所以	-11.5282
入而不出謂之	-11.5283
殆故曰	-11.5283
也今日	-11.5284
弱亂	-11.5284
修樂	-11.5284
則不守	-11.5284
引問	-11.5284
者陽氣	-11.5285
法以自	-11.5286
辟地	-11.5287
兵士	-11.5288
託焉	-11.5289
竒行	-11.5289
管仲曰此	-11.5289
堅而不	-11.529
輕重皆	-11.529
也如天	-11.5291
乘車	-11.5292
物有所	-11.5293
好戰	-11.5296
其所以治	-11.5297
則上位危	-11.5297
金貴	-11.5297
必信則	-11.5297
清明	-11.5297
行此道	-11.5298
定萬物	-11.5299
相害也	-11.5301
而代其	-11.5302
王某	-11.5302
土功	-11.5302
長年	-11.5303
以給之	-11.5303
智者能	-11.5304
捫之	-11.5306
其事旣	-11.5306
賜若	-11.5306
内靜	-11.5308
而後失	-11.5308
民者失其	-11.5309
行仁義	-11.5309
君子者	-11.531
則得其所	-11.5311
當是時也	-11.5311
夫玉	-11.5312
官司	-11.5313
召入	-11.5317
刑獄	-11.5319
一教	-11.532
必生於	-11.532
民財足	-11.5321
絶地	-11.5323
力務	-11.5323
奉主	-11.5323
也盡知	-11.5323
徳厚	-11.5324
毋攻	-11.5325
而上不能	-11.5325
法於法	-11.5325
不然將	-11.5325
也故請	-11.5327
王良	-11.5327
全生	-11.533
召兵	-11.533
四責	-11.533
則國危	-11.5331
子無征養	-11.5331
受吾	-11.5331
版法	-11.5332
得所欲	-11.5332
五施	-11.5333
毋近	-11.5333
罰罪	-11.5333
將用之	-11.5333
而不散	-11.5338
臣矣故	-11.534
五里	-11.534
而藏於	-11.534
小察	-11.534
一鍾	-11.5341
而釋之	-11.5341
得築	-11.5342
非善者	-11.5342
而祭之	-11.5344
公室	-11.5344
晏子對曰	-11.5344
之謂德	-11.5346
他國	-11.5346
食三軍	-11.5348
避害	-11.5349
五糓	-11.5349
不盈	-11.5352
甞爲	-11.5356
推官	-11.5356
相隨	-11.5357
法者所以	-11.5357
而髙其	-11.5359
獨任	-11.5361
又加	-11.5363
民者聖王之禁也	-11.5365
之為道	-11.5365
然益	-11.5367
時貨	-11.5368
精將	-11.5368
雖弱	-11.5369
寺中	-11.5371
畏服	-11.5372
治辟	-11.5372
正民之經也	-11.5372
天下怨	-11.5373
至誠	-11.5373
之則齊	-11.5374
上失其	-11.5375
物適	-11.5375
水流	-11.5377
犯禁故	-11.5377
女遂	-11.5379
天下寒	-11.538
毋敗	-11.5381
上司	-11.5381
政之所	-11.5381
以其餘	-11.5381
市亦	-11.5386
居處則	-11.5386
其所聞	-11.5386
嗟	-11.5387
上注	-11.5388
四順	-11.5388
其所守	-11.5388
茍欲	-11.5388
鈞則	-11.5392
佩之	-11.5393
於口而	-11.5393
而二君	-11.5393
制天下	-11.5395
擅國	-11.5397
恃力	-11.5401
君之明	-11.5401
之多也	-11.5402
脩政	-11.5402
餘皆	-11.5402
來告	-11.5404
用貨	-11.5404
無妄	-11.5404
不以物	-11.5405
浴之	-11.5407
夷吾生	-11.5407
夫恃	-11.5408
事成功	-11.5408
也賢其	-11.5412
所著	-11.5412
說在	-11.5413
玩之	-11.5415
府主	-11.5416
離公	-11.5416
民多私	-11.5419
髙即	-11.542
可藏而	-11.542
相魯	-11.542
賊害	-11.5421
所質	-11.5422
同氣	-11.5422
政作	-11.5425
文馬	-11.5427
佯為	-11.5428
無其實	-11.5429
之體也	-11.543
有危亡之	-11.5432
伏利	-11.5433
藏分	-11.5434
公大夫	-11.5434
能為我	-11.5434
王主之	-11.5435
民之道也	-11.5436
聖人之言	-11.5439
子路	-11.544
則民反	-11.5441
堅中	-11.5442
兼行	-11.5442
弗得	-11.5442
以事其主	-11.5442
以勸民	-11.5443
酒酣	-11.5447
不營	-11.5448
卒長	-11.5448
年少	-11.545
百長	-11.545
辯而不	-11.545
爲己用	-11.5451
禁止	-11.5452
必罷	-11.5454
試於	-11.5458
公衣	-11.5461
相齊之	-11.5461
服事	-11.5462
守也故	-11.5463
仁而不	-11.5464
不卜	-11.5466
事不治	-11.5466
削上	-11.5466
因以知	-11.5468
正陽	-11.5475
楚若	-11.5475
少焉	-11.5475
以知之	-11.5475
相視	-11.5477
强力	-11.5477
歸家	-11.5477
忠臣之所	-11.5478
不忠則	-11.5481
牛馬而	-11.5482
者食之	-11.5487
無所生	-11.5488
其山之	-11.5489
其勉	-11.5494
折獄者	-11.5496
民迫	-11.5498
然而有	-11.5498
楚荘	-11.5499
於父兄	-11.5499
弱子	-11.55
以續	-11.55
五害	-11.5501
四卒	-11.5501
籍於六畜	-11.5503
八經	-11.5506
使其主	-11.5508
此盖	-11.5511
子如是	-11.5511
惡惡	-11.5512
舊出晉	-11.5512
民予	-11.5512
之計也	-11.5512
末産不禁則	-11.5514
不虧	-11.5514
此蓋	-11.5516
食寡	-11.5517
其葉	-11.5518
斬首者	-11.552
不求而	-11.5521
呉人	-11.5522
天子令	-11.5522
明王之所	-11.5523
果至	-11.5524
審知	-11.5529
時至則	-11.5531
加兵	-11.5532
吏之所	-11.5533
害心	-11.5533
極變	-11.5534
觀時	-11.5534
之内而	-11.5539
夷吾死	-11.554
甚易	-11.5541
居常	-11.5542
衛衛	-11.5542
曰願	-11.5542
政教	-11.5544
而不流	-11.5547
自新	-11.5548
乘馬第	-11.5549
霸王者	-11.5552
未易	-11.5553
强强	-11.5554
以肥	-11.5556
盡刑	-11.5557
讞之	-11.5562
情而	-11.5562
之意如此	-11.5563
乃引	-11.5565
禮禮	-11.557
國㑹	-11.5572
必免	-11.5575
力作	-11.5576
如耳	-11.5578
塞大	-11.5589
以齒	-11.5593
樂正	-11.5593
承事	-11.5594
權道	-11.5595
主之所處	-11.5596
六道	-11.56
免於賊	-11.56
獨名	-11.56
此物之	-11.5603
國不畏	-11.5603
人臣者	-11.5604
以貳	-11.5605
高子	-11.5605
失盜	-11.5606
索官	-11.5606
起雖	-11.5608
逆旅之	-11.5609
所以任	-11.5611
姦多	-11.5612
不可理也一	-11.5613
國者必	-11.5614
其士者	-11.5614
聖人知	-11.5619
命取	-11.562
謂左	-11.5622
幸於	-11.5623
五沃之土	-11.5624
則臣得	-11.5624
山中	-11.5625
生而無	-11.5629
慶州	-11.5629
上之道也	-11.5631
知氏	-11.5634
徑於	-11.5635
察其情	-11.5635
乎哉	-11.5636
本末	-11.5636
者則民不	-11.5637
請士	-11.5638
者不絶	-11.5638
而載之	-11.5638
請兵	-11.5641
定罪	-11.5641
先也	-11.5642
相髙	-11.5643
出敵	-11.5643
去處	-11.5644
同皆	-11.5655
於君君	-11.5656
不讓	-11.5657
朝廷之	-11.566
留獄	-11.5665
不能制	-11.5667
然猶	-11.5669
知敵	-11.5673
以百金	-11.5674
兵本	-11.5677
於面	-11.5677
故莫敢	-11.5678
擇賢	-11.5679
失其事而	-11.5681
從輕	-11.5681
之以勢	-11.5681
意度	-11.5682
也欲其	-11.5685
身服	-11.5687
而祀	-11.5701
畫之	-11.5702
於路	-11.5705
二凡	-11.5707
也任其	-11.5707
所得以	-11.5708
能之士	-11.571
失之必	-11.5714
尊禮	-11.5716
省視	-11.5716
之以法	-11.5718
舉功	-11.5722
一夜	-11.5722
獨用其	-11.5727
始至	-11.5738
好色	-11.5739
承伏	-11.5741
貴賤不求其	-11.5744
用聖人	-11.575
秋至	-11.5756
失天	-11.5761
臣賤	-11.5761
上觀	-11.5763
公私之	-11.5763
五刑	-11.5765
國謹	-11.577
盡獲	-11.5773
安心	-11.5776
兼用	-11.5777
五分	-11.5778
令之為	-11.5781
攻備	-11.5796
用費	-11.58
辯明	-11.5803
于官	-11.5808
有地	-11.581
毋失其	-11.5813
大定	-11.5815
伺其	-11.5823
多六畜	-11.5826
禁輕	-11.5832
善士	-11.5835
重惡	-11.5835
勿復	-11.5839
謁者	-11.584
起用	-11.584
計見	-11.5845
不貳	-11.5847
奪之政	-11.5848
君幣	-11.5852
人皆欲	-11.5856
者謂其所	-11.5857
得不化	-11.5858
丁氏之	-11.586
比周而	-11.5874
客至	-11.5875
民而求	-11.5877
何武	-11.5883
變察	-11.5892
四十九	-11.59
矣其	-11.5901
强盜	-11.5903
而不務	-11.5908
生夏	-11.591
為盗者	-11.5911
堯不能	-11.5928
之以刑	-11.5928
夫民之不	-11.5934
之以刑則	-11.594
禮樂者	-11.5949
溺於	-11.5955
聘於	-11.5955
衆農	-11.5957
事之治	-11.5964
不怠	-11.597
當故不	-11.5972
民以時	-11.5976
内定矣	-11.5978
五年而	-11.5983
輕財	-11.5987
人主立	-11.5994
雖聖人	-11.5997
後成	-11.6026
寶以	-11.6035
者有法	-11.604
數千	-11.6042
五代	-11.6047
如此則人	-11.6055
法之所	-11.6059
齊不得	-11.606
正不正	-11.6079
則其不	-11.61
賞功	-11.61
民不附	-11.6101
有法制	-11.6101
故民有	-11.6103
一事云	-11.612
死利	-11.6125
勸罰	-11.6135
蔽君	-11.6135
未可以	-11.6141
今則不然	-11.6142
用手	-11.6147
於已也	-11.6156
愛人不	-11.6168
千里外	-11.6169
塞民	-11.6172
全者	-11.6177
民性	-11.6177
今天下	-11.6182
鮑叔知	-11.6195
故言而	-11.6212
不有私	-11.6212
孰知	-11.6213
使得	-11.6213
之說也	-11.6214
矣或曰	-11.6215
力多	-11.6216
南公	-11.6216
由君	-11.6223
君守其	-11.6223
百事治	-11.6224
今人君	-11.6241
何為不	-11.6248
而重其	-11.6257
則下不	-11.6268
無由	-11.6278
茍能	-11.6289
息民	-11.6292
之果然	-11.6296
於官府	-11.6299
吾所以	-11.6305
鮑叔對曰	-11.6323
於輕重之數	-11.633
世之王者	-11.6331
信也故曰	-11.6348
具伏	-11.6357
州民有	-11.6359
有犯	-11.6366
功苦	-11.6382
張孟談曰	-11.6382
而愚者	-11.6391
政理	-11.6395
非愛	-11.6396
分别	-11.6403
立功而	-11.6406
六務	-11.6414
虚立	-11.642
不泰	-11.6423
也刑者	-11.6424
往見	-11.6441
於心安	-11.6454
兵强故	-11.6462
人之行	-11.6465
厚愛	-11.6468
大夫豹	-11.6469
臣不親	-11.647
力盡而	-11.6492
不然則有	-11.6493
循名	-11.6498
藏四	-11.6511
不以小	-11.6523
臣之罪	-11.6532
畏罪	-11.6534
之也以	-11.6551
守靜人物	-11.6551
能自理	-11.6578
四千	-11.6589
此人主之所	-11.6589
人物則皇	-11.6591
聚徒	-11.6591
不見親	-11.6607
亦可以	-11.6615
言談者	-11.6624
不至無	-11.6641
失勢	-11.6646
亦不敢	-11.6648
皆應	-11.6653
者也故曰	-11.6659
萬物謂之	-11.6672
所施	-11.6678
之要在	-11.6686
下之事	-11.6687
功大者	-11.669
成列	-11.6692
此謂道	-11.67
禁室	-11.6727
而天下不	-11.6732
民移	-11.6737
我何	-11.6752
攻食	-11.6765
問具服	-11.6767
詣府	-11.6775
心不治	-11.6788
民輕生	-11.6801
為朋黨	-11.6817
而吏不	-11.6827
天下之禍	-11.683
不忘其	-11.6858
以有衆	-11.6862
刑罰不	-11.6888
明賞罰	-11.696
聽命	-11.6961
事不當	-11.6962
法象	-11.6987
知我	-11.699
雖厚	-11.7015
理理	-11.7027
公即位	-11.7027
亡命	-11.7052
法制不	-11.7059
遺之以	-11.7077
復合	-11.7082
即遣	-11.7106
一筴也	-11.7139
疾病	-11.7142
所指	-11.7142
際	-11.7147
專以其	-11.7173
其使者	-11.7194
和調	-11.7198
室王	-11.7201
所以應	-11.7232
無棄	-11.7234
而使主	-11.7261
不然民重	-11.7287
私親	-11.7297
究其	-11.7306
待次	-11.7315
民而欲	-11.7325
吏肅	-11.733
猾吏	-11.7333
其朋黨	-11.7337
君不以	-11.7352
若是則	-11.7391
有數乎管子對曰	-11.7406
知其名	-11.7413
賞勸	-11.7415
誅必	-11.7434
十二年	-11.7439
亂主不	-11.744
果獲	-11.7496
朞	-11.7514
天曰	-11.7534
卿大夫	-11.7536
好辯	-11.7539
臣者仰	-11.7547
其患在	-11.7604
農則草必墾矣	-11.7624
同行	-11.763
漢書本傳	-11.7654
寘于法	-11.7701
失其所以	-11.7701
夀州	-11.7709
曰不然	-11.7729
城郭不	-11.7749
真卿	-11.776
故治國	-11.7813
治天下者	-11.783
凡人之	-11.7837
酣	-11.7883
杠	-11.7884
者不出	-11.7902
無不成也	-11.7908
其主百姓	-11.7922
囷窌之數	-11.7924
刺史	-11.7926
如此則上無	-11.7952
壯男	-11.7969
名罪	-11.7976
荘王	-11.8007
踰方	-11.801
之有善者	-11.8012
待物	-11.8012
使人問之	-11.8026
則天下治	-11.8034
之果服	-11.8078
千石	-11.8111
殺公子糺	-11.8112
已見釋寃門按	-11.8119
益令者	-11.8124
揚州	-11.8141
於邊	-11.8152
仇讎	-11.8154
無刑至有刑	-11.8184
輕於天下	-11.8212
攻不守則拙者巧	-11.8219
器無方則愚者智	-11.822
者人亦	-11.8222
樞	-11.824
相與為	-11.8241
之不能勿	-11.8246
賈昌	-11.8263
事體	-11.8265
以十分之二	-11.8271
枳棘	-11.8274
所說之人	-11.8276
征於關	-11.8278
宋太宰	-11.8283
上位危	-11.8286
愬	-11.8289
闗市	-11.8294
粟生而	-11.8295
毋曰不同	-11.8304
天地萬物之橐	-11.8307
似類	-11.8316
揖譲	-11.8316
孫長卿	-11.832
黨於下	-11.8322
當十石	-11.8325
魯丹	-11.8325
不厭詐偽	-11.8327
濟陽	-11.8328
船場	-11.8331
鮑叔不以我爲	-11.8331
大勝者積衆	-11.8332
諺	-11.8333
剌	-11.8334
辭屢變	-11.8335
盾櫓	-11.8335
巖	-11.8337
裕寛	-11.8337
髀	-11.8337
踶馬	-11.8337
遵主令而行之	-11.8337
能而受官	-11.8338
成天下之功也	-11.834
人君唯毋聽	-11.834
齕	-11.8341
秦西巴	-11.8341
至治之國	-11.8341
詐僞	-11.8341
輝	-11.8342
唐介	-11.8343
彀	-11.8343
牀	-11.8343
遺其親	-11.8344
物衆	-11.8344
人枉其法	-11.8345
服長纓	-11.8345
爭産者	-11.8345
曰均之死也戮死	-11.8346
明其誣	-11.8346
猿	-11.8347
蒼	-11.8347
無常儀的	-11.8347
腫	-11.8347
以璽問之以信	-11.8347
嗚呼美哉	-11.8347
駑	-11.8347
不可故立	-11.8347
叔業	-11.8347
此居於圖東方方外	-11.8347
蒸細薪	-11.8347
尊卑之	-11.8347
芒	-11.8347
廥	-11.8348
喜樂哀怒	-11.8348
迪	-11.8348
熯	-11.8349
肕	-11.8349
不除則	-11.8349
以人役上	-11.8349
以力役明	-11.8349
勞而不患也	-11.8349
詐之人不敢	-11.8349
涯	-11.8349
甯	-11.8349
之法犯矣	-11.835
縊	-11.835
植果木不如三土以十分之	-11.835
其數不勝也	-11.835
故凋落也	-11.835
獄未具	-11.835
垢	-11.835
恵子曰	-11.835
始於患者不與其事	-11.835
内業作	-11.8351
介蟲之火	-11.8351
吠	-11.8351
花	-11.8351
雍	-11.8352
漱	-11.8352
臯陶	-11.8352
必不幾矣	-11.8352
僮	-11.8352
岳	-11.8352
乃能窮天地被四海	-11.8352
杼	-11.8352
立為定額	-11.8352
紊	-11.8352
審則法令固賞罰必	-11.8352
焉可誅也	-11.8352
聽而不聞	-11.8352
董豐	-11.8352
蓄殖果木不如三土以十分之七	-11.8352
親其事者不規其道	-11.8352
人主孤而毋内	-11.8352
以為非是	-11.8352
觽	-11.8352
衆暴寡	-11.8353
束矢以罰	-11.8353
牖	-11.8353
以防其姦	-11.8353
精存自生其外安榮	-11.8353
績按此篇	-11.8353
天因人	-11.8353
年穀熟	-11.8353
捧椀以	-11.8353
孽	-11.8353
國危至善不戰	-11.8354
訟獄者	-11.8354
便僻不能食其	-11.8354
曹孫宿	-11.8354
身第六十一	-11.8354
故勝水	-11.8354
汨	-11.8354
左手正櫛	-11.8354
􁚫	-11.8355
授官予爵	-11.8355
相似而	-11.8355
問霸第六十二	-11.8355
有功必賞	-11.8355
稱疾不出	-11.8355
耳不聦	-11.8355
趾	-11.8355
則淫淫則	-11.8355
可坐而待	-11.8355
與之分級而上	-11.8355
邉鄙	-11.8355
綱紀	-11.8356
胸	-11.8356
妬紛	-11.8356
大臣不能侵其勢	-11.8356
正靜不失	-11.8356
衰而國失固	-11.8356
亂乃死	-11.8356
先此二者則	-11.8356
大男大女食鹽者	-11.8356
弃道理	-11.8356
後天而奉天	-11.8356
惟良折獄	-11.8356
選賢遂材	-11.8356
别而聽之則	-11.8356
戴仰	-11.8356
能利備	-11.8356
能彊其兵	-11.8356
裒	-11.8356
善馭馬	-11.8357
免於罪是	-11.8357
子以死亡	-11.8357
七法第六	-11.8357
法禁不立	-11.8357
至曲必	-11.8357
荀	-11.8357
觀樂玩好之說勝則	-11.8357
寳玊	-11.8357
開口千萬	-11.8357
害故必勝而無敵四機不	-11.8358
與楚人戰	-11.8358
逐所愛	-11.8358
侈靡第三十五	-11.8358
其草宜	-11.8358
宜與殺人同不宜以大逆論	-11.8358
桑麻	-11.8358
為兵之數	-11.8358
為鄆帥日	-11.8358
譎盗之術	-11.8358
世主必從而禮之	-11.8358
有國之母	-11.8358
靳	-11.8358
則政亂	-11.8359
備具無常無方應也	-11.8359
䂓矩	-11.8359
不怵乎好	-11.8359
外見於形容可知於顔	-11.8359
湯放桀	-11.8359
濬	-11.8359
燼	-11.8359
畜産也	-11.8359
立功成名	-11.8359
諸侯使者無所致百官有司無所復	-11.8359
箠	-11.836
𤣥官聴	-11.836
績按内業	-11.836
唐司空房玄齡	-11.836
則民不盡力	-11.836
柢	-11.836
臘	-11.836
岳州沅江令	-11.836
巷族	-11.836
懷繩與准鉤多備規軸減溜大成是唯時	-11.836
臣主同	-11.836
俎豆	-11.836
痤疽	-11.836
不得不成故	-11.836
不方之政	-11.836
不能至扵其所欲至	-11.836
刀之重	-11.836
剌剌	-11.836
司馬宣	-11.836
拓	-11.836
斷而决於	-11.836
瑜	-11.836
盡如比干	-11.836
薛胄	-11.836
胾中	-11.836
定死生勝定成敗勝定依竒勝	-11.8361
定綸理勝	-11.8361
民望絶於上	-11.8361
大女食鹽	-11.8361
不迫乎惡	-11.8361
定實虚勝定盛衰勝舉機誠要則敵不量	-11.8361
言室滿室言堂滿堂	-11.8361
夷吾受之則	-11.8361
弓弩之	-11.8361
能弱齊矣夷吾不受彼知其將反於齊	-11.8361
設爵禄所以	-11.8361
斷髪	-11.8362
利莫長於	-11.8362
一周則	-11.8362
人之有禍	-11.8362
子固辭	-11.8362
爪牙也	-11.8362
銀冶	-11.8362
顔色不變	-11.8362
岑	-11.8362
穉	-11.8362
䏻彊其兵	-11.8362
地貟第五十八	-11.8362
故令往	-11.8362
爲一軍	-11.8362
范且虞慶	-11.8362
輕君而重於	-11.8362
召管子而問曰此何故也管子對曰	-11.8362
經産	-11.8363
堅强以	-11.8363
成以束矢	-11.8363
下手之日母恩絶矣	-11.8363
因殺陳依律	-11.8363
藏謂苞	-11.8363
諧諧故	-11.8363
以區區之齊	-11.8363
或世見	-11.8363
滯而雜	-11.8363
東隣	-11.8363
餒	-11.8363
○○○	-11.8363
馭	-11.8364
戰陣	-11.8364
養之以五乘	-11.8364
㟁	-11.8364
械器不奉	-11.8364
蓬之問不在所賔	-11.8364
偹	-11.8364
冲	-11.8364
此亦可謂昔者無道之	-11.8364
漆雕之	-11.8364
田鳩曰	-11.8364
知子莫若父	-11.8364
諧輯以悉莫之	-11.8364
也深淵	-11.8364
以環其私	-11.8364
則天下不足	-11.8364
同聲相應	-11.8364
君若欲定	-11.8364
悼王	-11.8364
意以先	-11.8364
東以弱齊	-11.8364
毋或作	-11.8364
流水之原	-11.8364
琳	-11.8364
百之令短兵	-11.8364
篲星	-11.8364
而然歟	-11.8365
若敖之在	-11.8365
太子在帝側遂問之對曰夫繼母如母	-11.8365
彊者能守	-11.8365
父之故比之於母今繼母無狀手殺其父	-11.8365
臣不如隰朋請立	-11.8365
不可兩守	-11.8365
不欺其民也	-11.8365
四維不張國乃滅亡	-11.8365
對曰非為君也為先君	-11.8365
懐其禄	-11.8365
昩斷絶	-11.8365
有利欲之心	-11.8365
桓公與管仲	-11.8365
袒	-11.8365
貽	-11.8365
慘	-11.8366
圭璧	-11.8366
戴驩	-11.8366
昭奚恤	-11.8366
孟常芒卯	-11.8366
峭	-11.8366
蹇叔	-11.8366
捨状以探情	-11.8366
人言善	-11.8366
内藏以	-11.8366
愛惡榮辱	-11.8366
禁藏第五十三	-11.8366
中不精	-11.8366
凍釋	-11.8366
殳	-11.8366
纑	-11.8366
乃字之誤	-11.8366
以孝聞	-11.8366
埤	-11.8366
夸	-11.8366
巖居	-11.8366
從外作	-11.8366
時之快	-11.8366
民不敢試	-11.8366
獄訟繁	-11.8366
箴	-11.8366
者主之所用也	-11.8366
金玉貨財之說勝則爵服下流	-11.8366
霸王之名可成	-11.8366
靳宗說	-11.8366
危本不稱	-11.8366
离	-11.8366
仆	-11.8366
慤	-11.8366
彗星	-11.8367
後魏髙謙之	-11.8367
能存而能亡者蓍龜與龍	-11.8367
令改適婦守節不移姑愍之宻自殺親黨	-11.8367
猛毅之君	-11.8367
臥	-11.8367
迷而失道	-11.8367
全生之說勝則	-11.8367
四百里而後可田也楚欲吞宋鄭	-11.8367
德也道不可量德不可數	-11.8367
殺僇以聚財	-11.8367
長十連為鄉鄉有良人	-11.8367
乘之國中而立市東西南北度	-11.8367
小好脩逺	-11.8367
手足拇動	-11.8367
鐘磬之間	-11.8367
方偕大卿為御史臺推直官	-11.8367
夘合男女十二中夘十二下夘三夘同事	-11.8367
撞	-11.8367
以尊主	-11.8368
負羈	-11.8368
威嚴之勢	-11.8368
子罕為出彘	-11.8368
擢	-11.8368
右傳韓非子卷十	-11.8368
楊朱	-11.8368
莖黒秀	-11.8368
不可量則衆	-11.8368
也劉崇龜	-11.8368
𦕈	-11.8368
􁁜	-11.8368
國之稱號亦更矣	-11.8368
太康	-11.8368
妾以為妻	-11.8368
戕	-11.8368
櫻	-11.8368
艷	-11.8368
鼠處穴要宋田夾塞兩川使水不得東流	-11.8368
􁃛	-11.8368
七十二日而畢睹戊子土行御天子	-11.8368
丞監	-11.8368
合天下之權	-11.8368
巧佞而好利	-11.8368
戰易勝敵	-11.8368
煜	-11.8368
論必葢世	-11.8368
卜筮而知	-11.8368
篡	-11.8369
而不能以國詘	-11.8369
叅伍	-11.8369
枷一囚立於馬市宣言	-11.8369
崩	-11.8369
漢景帝時廷尉上囚防	-11.8369
然後應諸侯	-11.8369
繼母陳殺防	-11.8369
藏温濡	-11.8369
過在自用	-11.8369
今滿意在射鳥非有心於中人	-11.8369
以犀甲一㦸	-11.8369
國富兵彊	-11.8369
孫登比彈	-11.8369
弇	-11.8369
戰不勝而守不固	-11.8369
櫑	-11.8369
績按一作	-11.8369
若因夜虚	-11.8369
莫之能廢也	-11.8369
蟡與慶忌	-11.8369
賔客之禮	-11.8369
輿之重加以異	-11.8369
黄金一筴也江陽之珠一筴也秦	-11.8369
乘為耕田	-11.8369
可以危救敵之國	-11.8369
廧	-11.8369
秇稷	-11.8369
萬頃為户	-11.8369
非所設也其動	-11.8369
熟視	-11.8369
譬之若	-11.837
審利害之	-11.837
然後可興	-11.837
左酒右醬	-11.837
庶幾	-11.837
之士在前	-11.837
旌旗	-11.837
見通典不著	-11.837
以倮獸之火㸑	-11.837
怸	-11.837
曹攄明婦	-11.837
枝解於楚	-11.837
無益之事	-11.837
下令曰某日大	-11.837
其無心於驚馬也故不以	-11.837
太史	-11.837
承天議曰獄貴情斷疑則	-11.837
檻	-11.837
歡欣	-11.837
漻	-11.837
當在此	-11.837
美惡賢不肖愚俊之所	-11.837
者不怨上	-11.837
葛源	-11.837
蓄殖果木不若三土以十分之三	-11.837
不利彌甚	-11.837
事合而利異者	-11.837
剖符	-11.837
呈	-11.837
周室桓公	-11.837
寅	-11.837
審而出者	-11.837
悵	-11.837
惠文君	-11.837
房	-11.837
為輕車	-11.837
無疾風	-11.837
知河南府伊陽縣	-11.837
滑	-11.837
紘	-11.8371
黨偏	-11.8371
上無事而民自試	-11.8371
後嗣	-11.8371
用利至誠則敵不校	-11.8371
罪在變化	-11.8371
則臣服之	-11.8371
甲厲兵	-11.8371
若汝也	-11.8371
藏薄純	-11.8371
關市之征	-11.8371
阨闕	-11.8371
𨼆	-11.8371
出有彈	-11.8371
動弱必從	-11.8371
國之所以亂者	-11.8371
守職百官有常	-11.8371
授國柄	-11.8371
既至妻	-11.8371
枉法以	-11.8371
為上幣黄金為中幣刀布為下幣	-11.8371
緝績徽織	-11.8371
至自有道	-11.8371
野與市爭民	-11.8371
蔣	-11.8371
九㑹大命焉出常至	-11.8371
交物因方則械器備	-11.8371
夘薄百爵十二白露下收聚十二復理賜	-11.8371
㨿	-11.8371
懈	-11.8371
拱	-11.8371
舛	-11.8371
者其人莫往道	-11.8372
黍種	-11.8372
徼幸	-11.8372
有道之主	-11.8372
隠正道	-11.8372
大川而	-11.8372
同氣相求	-11.8372
所以勸功也	-11.8372
為五伯長	-11.8372
者不可勝數也	-11.8372
詭禁不修不過六日而竊盜者起	-11.8372
謙之乃	-11.8372
峜	-11.8372
幾行義勝之	-11.8372
瓴	-11.8372
研	-11.8372
綦	-11.8372
績按内業作	-11.8372
美匡	-11.8372
轍	-11.8372
霸王之名不成	-11.8372
願大王	-11.8372
不險山河	-11.8372
人主失守則危	-11.8372
千六百	-11.8372
吳章	-11.8372
少室周	-11.8372
崔子之徒	-11.8372
書之所謂	-11.8372
樂正子春	-11.8372
泰臺	-11.8372
洿	-11.8372
者君臣之所共立也權	-11.8372
荆王弟在秦秦不出也	-11.8372
蘇渙郎中知	-11.8372
襄疵	-11.8372
逺熱	-11.8372
顛頡之脊	-11.8372
卯合男女十二中卯十二下卯三卯同事	-11.8372
二十餘人	-11.8372
秇	-11.8372
䂓	-11.8373
釁	-11.8373
每事皆	-11.8373
潁	-11.8373
校尉與無忌罪均臣子於君父不得稱誤	-11.8373
而無敵令行而	-11.8373
唐崔黯鎮湖南有惡少	-11.8373
因其所以來	-11.8373
故曰道之出也	-11.8373
父救不止恚赴井死參當兄弟重辟衆請	-11.8373
畜之以道則民和養之以	-11.8373
立非必	-11.8373
不别矣	-11.8373
人衆兵强	-11.8373
其所不能已	-11.8373
善服氣以物塞鼻則氣結	-11.8373
因而予之	-11.8373
未窮破用之	-11.8373
為重寳	-11.8373
疚	-11.8373
積勞之	-11.8373
聖人因之故能	-11.8373
號審教施則不險山河	-11.8373
陼	-11.8373
以附下	-11.8373
吏卒游徼	-11.8373
均地分力使民知時	-11.8373
接之以禮和之以樂期之以事攻之以官	-11.8373
春夏秋冬	-11.8373
毛嬙西施	-11.8373
民産之所有餘不足而存亡之國可知也	-11.8373
輕財而重名	-11.8373
道塗無行禽	-11.8373
靈臺之	-11.8373
舉時節	-11.8373
績按别本	-11.8373
綽	-11.8373
瓦	-11.8373
鞅	-11.8373
苛刻	-11.8374
攘臂	-11.8374
綂	-11.8374
羽翼	-11.8374
邸	-11.8374
也李南公李南公尚書	-11.8374
之變氣應之以	-11.8374
余讀管	-11.8374
參曰父由子死若以䘮延是殺父不坐皆	-11.8374
曰法為天下公朕安得阿親戚詔復議徳	-11.8374
民非其民也	-11.8374
錄囚徒	-11.8374
不可以得安也必曰我	-11.8374
善謀而	-11.8374
在下則主	-11.8374
悅	-11.8374
明於治亂之道	-11.8374
昶	-11.8374
畱	-11.8374
釋法而任	-11.8374
長在乎任賢	-11.8374
雅	-11.8374
􁲕	-11.8374
以盡民力	-11.8374
公曰其於	-11.8374
十至於私人之門	-11.8374
取斗粟舂之可棄者十纔一二	-11.8374
受君令而	-11.8374
孫在之為人也善言	-11.8374
建生也	-11.8374
斫	-11.8374
於耕農	-11.8374
朕	-11.8374
棧	-11.8374
橘	-11.8374
牀足	-11.8374
絕	-11.8374
臣下不順	-11.8374
計凡付終務本飭末則富	-11.8374
髙䑓	-11.8374
五年大夫請受變	-11.8374
牟	-11.8374
五政茍時	-11.8374
故德行立	-11.8375
刑煩而	-11.8375
誨	-11.8375
俟免䘮	-11.8375
耒耨	-11.8375
一羊皮各言	-11.8375
不言之聲	-11.8375
兵士不用	-11.8375
南公曰吾能立使之食引出問曰吾	-11.8375
桓公召管仲	-11.8375
扇	-11.8375
欲廢之則亦惑也	-11.8375
猶如是乎	-11.8375
癰	-11.8375
粥	-11.8375
育育	-11.8375
腴	-11.8375
顧憂謂	-11.8375
􁁴	-11.8375
繹	-11.8375
琢	-11.8375
績按齊語	-11.8375
無二心	-11.8375
藿	-11.8375
中山之君	-11.8375
五十石	-11.8375
戶	-11.8376
奇	-11.8376
鈎慝之術者	-11.8376
㐲	-11.8376
亂天下者也	-11.8376
惶怖	-11.8376
牓	-11.8376
則兵無敵	-11.8376
廢上之制	-11.8376
此殆天災	-11.8376
畋	-11.8376
痛自誣	-11.8376
袵	-11.8376
釆	-11.8376
雖有聖人惡用之	-11.8376
㢮刑罰赦	-11.8376
上令難行	-11.8376
也小廉	-11.8376
仇由之君	-11.8376
以伐趙	-11.8376
侠	-11.8376
俱羅	-11.8376
公法而行私惠	-11.8376
其良臣	-11.8376
呵	-11.8376
問政於仲尼仲尼曰政在	-11.8376
寒饑	-11.8376
將何行	-11.8376
往者不至來者不極	-11.8376
有天子諸侯	-11.8376
桂萬榮	-11.8376
椒	-11.8376
比校民之有道者	-11.8376
瞿	-11.8376
私君事去	-11.8376
粟以食	-11.8376
言無損	-11.8376
詎	-11.8376
陳樞	-11.8376
鏤	-11.8376
歇	-11.8376
至善不戰	-11.8376
為可耳	-11.8376
義則淫然而自至	-11.8376
之流亞歟	-11.8376
臣不如東郭牙請立以為	-11.8376
悞	-11.8376
成事以質	-11.8376
盡忠於	-11.8376
稼穡	-11.8376
不得其心則	-11.8377
不足以實其	-11.8377
出而道留	-11.8377
呌	-11.8377
地削而	-11.8377
培	-11.8377
官無常則	-11.8377
情求不上通	-11.8377
愷	-11.8377
是以三軍之衆	-11.8377
曹參軍時禁中露積油幕一夕火主守者	-11.8377
梲	-11.8377
死者無知則	-11.8377
獲於貧窮	-11.8377
簮	-11.8377
絓	-11.8377
謟䛕	-11.8377
重則雨雹	-11.8377
鹿皮四	-11.8377
不失天時	-11.8377
鮑叔謂管仲曰	-11.8377
練絲	-11.8377
嗚呼	-11.8377
而問之果	-11.8377
蓄植果木不如三土以十分之	-11.8377
飼	-11.8377
正形攝德	-11.8377
篤	-11.8377
謂齊王曰	-11.8377
絲竹之	-11.8377
覺悟	-11.8377
赤壤	-11.8377
提㸃河東刑獄時	-11.8377
蕘	-11.8377
開封府判官時	-11.8377
所連及	-11.8377
桐	-11.8377
濤	-11.8377
祟	-11.8377
糟	-11.8377
全心在中不可蔽	-11.8377
汪	-11.8377
稱火燒夫死夫家疑之	-11.8377
蔑	-11.8377
讋	-11.8377
以刑去刑	-11.8377
備其械器	-11.8377
凡人之情	-11.8377
於法不可理	-11.8377
曾肇内翰	-11.8377
有蓄積則乆而不匱器械	-11.8377
此固以失霸王之道	-11.8377
爲重寶	-11.8377
甥	-11.8377
者行此節則	-11.8377
葛源葛源郎中	-11.8377
行二曰舉	-11.8377
訂	-11.8377
逺而來	-11.8377
難之曰海有風波安知	-11.8377
非一朝之	-11.8377
城必拔	-11.8377
三年名卿請事二年大夫通吉凶	-11.8378
牘視其印文則無少異誣者	-11.8378
肌	-11.8378
召而來	-11.8378
吾君故	-11.8378
任之以事	-11.8378
鴻	-11.8378
二口一殺之一活之	-11.8378
師以遂	-11.8378
莫明焉	-11.8378
鋤	-11.8378
不能野原又多	-11.8378
倉廩空虚財用不足	-11.8378
兵官之吏	-11.8378
則貨財上流	-11.8378
功立而名成	-11.8378
厮	-11.8378
命工圖火所經	-11.8378
垝	-11.8378
日月不明天不易也山	-11.8378
本事而事末作	-11.8378
知象乃	-11.8378
績按前作	-11.8378
造脩之	-11.8378
麋	-11.8378
不當則誅	-11.8378
不聽者存	-11.8378
前秦苻融	-11.8378
執玉以見請為關内之侯	-11.8378
天下不患無財患無人以分之	-11.8378
易國之成俗	-11.8378
論如法	-11.8378
雙虎之皮	-11.8378
二年三卿使四輔	-11.8379
告偽為州印	-11.8379
墳墓	-11.8379
泛	-11.8379
有道之士	-11.8379
不直則入	-11.8379
畵	-11.8379
月恭校上	-11.8379
以著于	-11.8379
天地精氣	-11.8379
也故眀主	-11.8379
何官之吏	-11.8379
儗	-11.8379
兮	-11.8379
其草冝	-11.8379
右菁茅謀	-11.8379
外之不善	-11.8379
家號寃	-11.8379
巳見釋寃門	-11.8379
成而悔從政	-11.8379
朴	-11.8379
沈括内翰說	-11.8379
沌沌乎博	-11.8379
痩	-11.8379
種𤓰	-11.8379
糺雖得	-11.8379
艱	-11.8379
賞有過無	-11.8379
遇之無禮	-11.8379
鞭絲	-11.8379
南方本圖	-11.8379
可以分與財	-11.8379
可與樂成功	-11.8379
四鄰諸侯之義仲父不當盡	-11.8379
封禪第五十	-11.8379
所以彊求	-11.8379
挹損	-11.8379
材臣不務竭能	-11.8379
毋告不知與不	-11.8379
民衆而兵弱	-11.8379
窟穴	-11.8379
窻	-11.8379
籠中	-11.8379
自此觀之	-11.8379
詮	-11.8379
賞罰不明則民	-11.8379
轝	-11.8379
挹	-11.8379
騶	-11.838
詛	-11.838
爲可耳	-11.838
鉗	-11.838
州民有積為仇者一日諸子私謂其母曰	-11.838
校尉不	-11.838
飄風暴雨	-11.838
僧有夜飲火其廬者歸罪瘖奴軍	-11.838
地之財具	-11.838
我昔者有道之君	-11.838
此聖王之	-11.838
璡	-11.838
積薪燒之	-11.838
見涑水	-11.838
觀察使魏少游	-11.838
不可以不審	-11.838
乎其歸我若流水	-11.838
令之所以行	-11.838
侵偪	-11.838
國無常經	-11.838
寂乎其無	-11.838
搔	-11.838
無功而富貴	-11.838
上爵列	-11.838
凡人之生也	-11.838
出南史袁湛傳	-11.838
可與慮始	-11.838
君不歸楚	-11.838
故安國	-11.838
於六律也	-11.838
果獲真盗	-11.838
正而積之	-11.838
諸生之職	-11.838
退而脩家是故匹夫有善	-11.838
非仁義也	-11.838
筠	-11.8381
晦	-11.8381
寒熱	-11.8381
地髙則	-11.8381
明其法禁	-11.8381
有滿虛	-11.8381
舉兵而誅	-11.8381
賞罰之所加	-11.8381
也苻融	-11.8381
囑	-11.8381
浸	-11.8381
盾一㦸	-11.8381
程戡宣徽知	-11.8381
腰	-11.8381
淩	-11.8381
紳	-11.8381
言欲勝	-11.8381
一女已適人	-11.8381
三年而成	-11.8381
之意同矣	-11.8381
也問者曰	-11.8381
側忽	-11.8381
兄殺弟	-11.8381
六者皆自	-11.8381
各便其	-11.8381
名卑地削	-11.8381
差誤	-11.8381
幕府	-11.8381
彊國衆	-11.8381
板築	-11.8381
牝	-11.8381
牡	-11.8381
聞之悲不自勝奉伯嗟	-11.8381
與秦人戰	-11.8381
菀	-11.8381
鄂州	-11.8381
䕫一足	-11.8381
以重相推	-11.8381
儒者以為害義故不	-11.8381
其功順天者天助之其功逆天者天違之	-11.8381
勢利官大	-11.8381
厚其生	-11.8381
因天地之形	-11.8381
土塌	-11.8381
夫婦妃匹之合	-11.8381
敺養坦氣修通凡物開静形生理	-11.8381
於貨中舟人	-11.8381
無小智	-11.8381
秦發兵	-11.8381
立壤列	-11.8381
端慤	-11.8381
簑	-11.8381
粜	-11.8381
裁大者衆之所比也	-11.8381
見杏核	-11.8381
設其所惡	-11.8381
馬知節	-11.8381
鷄	-11.8381
長姒	-11.8382
人田莫能得	-11.8382
審取與以	-11.8382
邜	-11.8382
無名則	-11.8382
許元	-11.8382
之事也事有	-11.8382
夢見竈	-11.8382
慶賔	-11.8382
海濵	-11.8382
悵然失色	-11.8382
檢付契書	-11.8382
頂	-11.8382
㓙	-11.8382
以失其國	-11.8382
國多財則逺者來地辟舉則民留處	-11.8382
守在倉廪	-11.8382
期於利民而	-11.8382
人主愈蔽	-11.8382
厠	-11.8382
曰使之使不得不使	-11.8382
求救於	-11.8382
王蜀時	-11.8382
甲不堅	-11.8382
闗市之征	-11.8382
一之實也	-11.8382
世犯吾君命而廢吾所立奪吾	-11.8382
以法治國則舉錯而已	-11.8382
入朝廷觀左右本求朝之臣	-11.8382
冢	-11.8382
凝於體色此其	-11.8382
國無以大與幸而有功名者	-11.8382
堂巫	-11.8382
尊其貨賄	-11.8382
徧行而不盡也	-11.8382
必不殺也	-11.8382
攻城圍邑	-11.8382
故爲隂	-11.8382
於國有所不知政	-11.8382
民之所以守戰至死而不德其上者	-11.8382
涇	-11.8382
臣乎吾亦鑒焉管子對曰夷吾聞之	-11.8382
致魯之政	-11.8382
與前王比隆	-11.8382
芨	-11.8382
揮	-11.8383
桓公曰此若言何謂也管子對曰	-11.8383
鈎慝	-11.8383
五㑹諸侯令曰修春秋冬夏之常祭食	-11.8383
則欺誣以取之欺誣不可得則求其罪以	-11.8383
此居於圖	-11.8383
蘇寀	-11.8383
洋	-11.8383
胃	-11.8383
貴而主斷	-11.8383
曖	-11.8383
此其所以然者由	-11.8383
家機所出者錢若干	-11.8383
過度則	-11.8383
不可以示人	-11.8383
不如拙	-11.8383
募	-11.8383
午	-11.8383
告慶乃復	-11.8383
四百六十	-11.8383
四貧民	-11.8383
展	-11.8383
獲真賊	-11.8383
也人主之大	-11.8383
以此為證	-11.8383
何以得此	-11.8383
何足道哉	-11.8383
崔黯	-11.8383
斗石	-11.8383
杏	-11.8383
束布	-11.8383
桓公召管子而問曰此何故也管子對曰	-11.8383
欽生	-11.8383
燔	-11.8383
牛鳴	-11.8383
王安禮	-11.8383
衆傷則	-11.8383
雜他藥相因既	-11.8383
不相容	-11.8383
人之所戴	-11.8383
僑	-11.8383
則必不立	-11.8383
器成於僇	-11.8383
國平而姦省	-11.8383
奉君令	-11.8383
富商子	-11.8383
微妙之言	-11.8383
揭	-11.8383
旅舊則民不	-11.8383
枝詞不伏	-11.8383
汝父也來就汝居具陳其由張氏子驚疑	-11.8383
沼	-11.8383
發小兵以服	-11.8383
磐石	-11.8383
磚	-11.8383
者必多矣	-11.8383
肋	-11.8383
若存若亡	-11.8383
荻	-11.8383
行端直	-11.8383
過與不及	-11.8383
驛卒	-11.8383
不離其	-11.8384
腕	-11.8384
疽	-11.8384
列星	-11.8384
譽者不能進	-11.8384
則下無怨心	-11.8384
君服黑色味鹹味	-11.8384
天順人	-11.8384
所親者	-11.8384
約束	-11.8384
下簡劾治簡以舊案示之曰此爾婦翁書	-11.8384
不擇人而	-11.8384
不重之結雖固必解道之用也貴其重也	-11.8384
之佐既無有	-11.8384
以厚民	-11.8384
修道路偕度量一稱數	-11.8384
咄	-11.8384
得其利焉	-11.8384
是為自亂	-11.8384
時以舉事	-11.8384
泰秋民	-11.8384
與時變而不化	-11.8384
藏慈厚	-11.8384
行薄純	-11.8384
蹙	-11.8384
通判䖍州	-11.8384
開其門	-11.8384
關閈	-11.8384
驕傲	-11.8384
㫄	-11.8384
犿	-11.8384
獻伯	-11.8384
為大理寺詳斷官時	-11.8385
薛奎	-11.8385
敎器備利	-11.8385
提㸃河北刑獄時	-11.8385
公子根	-11.8385
中其忌諱	-11.8385
殻	-11.8385
斯不仁哉	-11.8385
秪	-11.8385
醬	-11.8385
叩頭服罪	-11.8385
焉得不服	-11.8385
蠻	-11.8385
唐吕元膺	-11.8385
它	-11.8385
後母所生非	-11.8385
必随之	-11.8385
有愛妾	-11.8385
無用之辯	-11.8385
社稷不定	-11.8385
二十年前	-11.8385
代鳥飛	-11.8385
仲琰	-11.8385
使魯敗	-11.8385
刑重而必	-11.8385
吿有而不以吿	-11.8385
問之辭也	-11.8385
奚遽	-11.8385
宫中女子	-11.8385
屬於農	-11.8385
屯田	-11.8385
已廪之矣泰	-11.8385
按晉書本傳	-11.8385
擿伏	-11.8385
棁	-11.8385
獄獨留一人留者色動	-11.8385
獨以左今死者傷右肋此汝殺之明也囚	-11.8385
獲真盜	-11.8385
相踰越	-11.8385
矩劵	-11.8385
窳惰之	-11.8385
者是望不得	-11.8385
蟡	-11.8385
鍵	-11.8385
鍾磬之閒	-11.8385
隐慝	-11.8385
餉	-11.8385
魏濤	-11.8385
傅亮	-11.8385
授生徒	-11.8386
潭	-11.8386
涸川	-11.8386
沈括	-11.8386
然則寡人安	-11.8386
悲色	-11.8386
朔	-11.8386
請喚舍人	-11.8386
𬞞	-11.8386
倉皇	-11.8386
内之侯	-11.8386
則民自試	-11.8386
剽奪	-11.8386
君必去之	-11.8386
宗山陵火起油衣中其事正爾主守者遂	-11.8386
彼將自	-11.8386
放舊罪	-11.8386
敢就舎憲未布	-11.8386
曰殺人者汝也囚不知所以然	-11.8386
浧	-11.8386
烝其首子而	-11.8386
無所逃其	-11.8386
父之子郡縣	-11.8386
百官守其	-11.8386
者何也榖有所藏也	-11.8386
者未之甞聞	-11.8386
能予而無取者天地之配也	-11.8386
若善走	-11.8386
桓公謂管仲曰	-11.8386
猾	-11.8387
歐養坦氣修通凡物開靜形生理	-11.8387
伯之為人也	-11.8387
衛嗣公	-11.8387
大卿初	-11.8387
失而國危	-11.8387
則禁令不行	-11.8387
專於意一於心耳目端知逺之證	-11.8387
衛公子開方	-11.8387
莫大於治	-11.8387
梁壻復貪鄙畏	-11.8387
倉庫	-11.8387
譽之不勸	-11.8387
人求之不移日而得之	-11.8387
作兄釋作澤此類甚衆大匡載召忽語曰	-11.8387
吳廢帝孫亮	-11.8387
嘿	-11.8387
多其積	-11.8387
態	-11.8387
戰勝之器攻取之數	-11.8387
是利姦邪而	-11.8387
立於日中	-11.8387
纒	-11.8387
起令乃廢驟令而不行民心乃外	-11.8387
陪	-11.8387
鮑叔傅小白	-11.8387
龎敬	-11.8387
不可勝救	-11.8387
不能告不知謂之勞而無功	-11.8387
右石璧謀	-11.8387
大民衆	-11.8387
妻生子貧不能	-11.8387
安重榮	-11.8387
所與居皆其所	-11.8387
放所認	-11.8387
曰吾視食者皆以右手	-11.8387
曰此驢行急而汗非長行人也見人	-11.8387
有禍故曰	-11.8387
櫝	-11.8387
民之所樂民强民强	-11.8387
為本本	-11.8387
監司怒有惡語濤歎曰官可奪	-11.8387
箕子	-11.8387
耕作而食之掘井而飲之	-11.8387
與臣共	-11.8387
范忠宣	-11.8387
袁滋	-11.8387
遣而傷者死濤求其故而未得死者子訴	-11.8387
金者用之量也	-11.8388
守之而後修勝心焚海内	-11.8388
押	-11.8388
怒憂患	-11.8388
經俗	-11.8388
朽骨	-11.8388
桑懌	-11.8388
前漢時	-11.8388
囘	-11.8388
官論職	-11.8388
此巳下	-11.8388
民不幸生	-11.8388
法律而	-11.8388
㓜孤	-11.8388
則無成功	-11.8388
召逺在脩近	-11.8388
咠	-11.8388
囚不可殺後得其實	-11.8388
宗廟社稷	-11.8388
富禄有功以勸之	-11.8388
於法則止功	-11.8388
於法則行不	-11.8388
欲全其	-11.8388
絳	-11.8388
而不責其功	-11.8388
處不華	-11.8388
軍殺將	-11.8388
道之所設身之化也	-11.8388
鞘中正等不	-11.8388
不惡死則	-11.8388
其故何也管子對曰	-11.8388
出嫁親女	-11.8388
刺刺	-11.8388
則事無不	-11.8388
民之且所用者君已廩之矣	-11.8388
能愛君君必去之公曰諾	-11.8388
膺	-11.8388
交友	-11.8388
倩	-11.8389
竇參	-11.8389
其有寃乃	-11.8389
銅錢	-11.8389
求雖不得	-11.8389
衛嗣君	-11.8389
盗跖	-11.8389
詔遣	-11.8389
非用人也	-11.8389
所藏者	-11.8389
救餓	-11.8389
晏嬰	-11.8389
求賊不得	-11.8389
非難辨	-11.8389
齊桓公將救之	-11.8389
之則親利之	-11.8389
共工之	-11.8389
刪	-11.8389
匿名書	-11.8389
可欲之類	-11.8389
旬餘	-11.8389
昔三代	-11.8389
果蓏	-11.8389
為坐客所	-11.8389
為惠於法之内	-11.8389
用譎鈎慝	-11.8389
而簡其業	-11.8389
良肱	-11.8389
衛文昇	-11.8389
裳	-11.8389
雖得天下吾不生也兄與我齊國之政也	-11.8389
三王五	-11.8389
則樸樸則	-11.8389
受令於天	-11.8389
吴起	-11.8389
徐敬業	-11.8389
必不危矣	-11.8389
意於法之外	-11.8389
男女無别	-11.8389
目不淫心無他	-11.8389
罰罪有過以懲之殺僇犯禁以振之	-11.8389
銘	-11.8389
鞍	-11.8389
􁔻	-11.8389
繡	-11.8389
胥靡	-11.8389
累訴不	-11.839
泊	-11.839
莫若樂節樂莫若禮	-11.839
守禮莫若敬	-11.839
百戰百勝	-11.839
闊	-11.839
關閉	-11.839
出唐書本傳	-11.839
參於日月	-11.839
善用人者必	-11.839
天子七年	-11.839
宗族	-11.839
布衫蒙頭	-11.839
悉貸之	-11.839
戮其黨明	-11.839
曰毆妻之父母即是義絶	-11.839
梟首	-11.839
泰山之	-11.839
百姓不養	-11.839
程顥察院	-11.839
衆必輕	-11.839
註皆非	-11.839
不蔽之術	-11.839
乎何其	-11.839
什倍異日	-11.839
劵取其田	-11.839
朝不鼎饋	-11.839
生於不義	-11.839
發揮	-11.839
百官有司	-11.839
薪菜	-11.8391
令不行禁不止	-11.8391
餘則否	-11.8391
薛顔	-11.8391
知耀州	-11.8391
第十七	-11.8391
眉	-11.8391
三守不完則	-11.8391
以禁暴	-11.8391
潄	-11.8391
竦	-11.8391
乃夜放驢出而藏其鞍	-11.8391
勇於義者	-11.8391
周行人	-11.8391
張元濟	-11.8391
浮屠	-11.8391
眀賞不費	-11.8391
緝	-11.8391
農戰之民	-11.8391
過而不聽於忠臣	-11.8391
上之所急	-11.8391
之歸己也	-11.8391
伍於四時	-11.8391
吏不敢以	-11.8391
州郡不能	-11.8391
弓折	-11.8391
李獄官也	-11.8391
歌舞	-11.8391
沈存中内翰云	-11.8391
爲人君者	-11.8391
相去逺矣	-11.8391
而欲封禪	-11.8391
龍逄	-11.8391
􁜦	-11.8391
不欲與汝	-11.8391
也雖有聖智	-11.8391
以其所難	-11.8391
俛首	-11.8391
刳	-11.8391
外障距内比周	-11.8391
庇	-11.8391
扶櫄	-11.8391
曰七十六謂老父曰是子之生其父	-11.8391
曰雖不聽而可以得存	-11.8391
當詣宅矣亦無難色	-11.8391
竹擔可舉	-11.8391
粟府無	-11.8391
與張氏某年月日某人抱去某人見之顥	-11.8391
荆攻魏	-11.8391
菑及之	-11.8391
韈	-11.8391
聖王之治	-11.8391
伏其辜	-11.8392
冥	-11.8392
拾遺	-11.8392
閇藏之氣	-11.8392
婚	-11.8392
以天下之目視則無不見	-11.8392
凉	-11.8392
民可治	-11.8392
漢武	-11.8392
雖國人	-11.8392
州司以為不道縁坐妻子刑曹	-11.8392
景祐	-11.8392
江岸	-11.8392
滅宗廟	-11.8392
㕘軍時	-11.8392
三軍之士	-11.8392
何說之詳也老父曰	-11.8392
旂	-11.8392
煖	-11.8392
獄久不決	-11.8392
積多者	-11.8392
首戴	-11.8392
緄	-11.8392
獻卿	-11.8393
和凝	-11.8393
貉	-11.8393
河南尹	-11.8393
今世主皆	-11.8393
子母復	-11.8393
飯而食	-11.8393
以天下之耳聽則無不聞	-11.8393
周成王	-11.8393
妾與小吏為姦	-11.8393
寒朗	-11.8393
憂悲	-11.8393
繩以法	-11.8393
聞道而	-11.8393
鬭毆	-11.8393
齒寒	-11.8393
乎曰不也	-11.8393
也利出於	-11.8393
卞	-11.8393
寺丞王璩	-11.8393
敺衆	-11.8393
未嘗得人	-11.8393
楚王聞之	-11.8393
狸	-11.8393
當塗者	-11.8393
編次	-11.8393
臣也君有	-11.8393
致治以	-11.8393
若有適	-11.8393
莫不賔服	-11.8393
諫不聽	-11.8393
亷訪	-11.8393
公曰何故對曰	-11.8393
李史	-11.8393
楫	-11.8393
欠負	-11.8393
歐陽頴	-11.8393
毁誹	-11.8393
無從知之	-11.8393
罰嚴而	-11.8393
者賢人也	-11.8393
臨政官	-11.8393
舡	-11.8393
血汚	-11.8393
預有所	-11.8393
良馬固車	-11.8393
枕席	-11.8394
販	-11.8394
朝暮	-11.8394
四曰養	-11.8394
國弱兵	-11.8394
不兼官	-11.8394
枷	-11.8394
共殺女奴	-11.8394
存亡治亂之	-11.8394
所蔽塞也	-11.8394
於不通之野	-11.8394
沒之後	-11.8394
者謂之術	-11.8394
乏絶	-11.8394
君臣之分也	-11.8394
察事情	-11.8394
徳於人者	-11.8394
昔晉武庫火張華以為積油	-11.8394
知和州民有訴弟為人所殺	-11.8394
糞土	-11.8394
語者否對曰廷掾疑君乃收廷掾	-11.8394
貸其死	-11.8394
磔於市	-11.8394
在蜀三年不知其父死及代還銓吏不為	-11.8394
標題	-11.8395
冕	-11.8395
江湖	-11.8395
問其故對曰	-11.8395
皇喜	-11.8395
奪其財	-11.8395
掠服之	-11.8395
便地形	-11.8395
桴	-11.8395
赭	-11.8395
楊津	-11.8395
初到	-11.8395
孝悌忠順之道	-11.8395
幅	-11.8395
鋌	-11.8395
兵者凶器	-11.8395
宋儋年	-11.8395
察其色動	-11.8395
見李畋	-11.8395
驂	-11.8395
共琴	-11.8395
座	-11.8395
父亡未	-11.8395
直言武子	-11.8395
葢以此耳	-11.8395
餌	-11.8395
仕隋	-11.8395
墨翟	-11.8395
按此蓋	-11.8395
梨	-11.8395
漏泄	-11.8395
為我用者	-11.8395
盡其幾	-11.8395
索國之富強不可得也	-11.8395
編管	-11.8395
而歸桓公	-11.8395
蔡高	-11.8395
袪	-11.8395
訟於官	-11.8395
詣廷尉	-11.8395
貢師泰	-11.8395
飲食薪菜饒	-11.8395
以告管仲曰	-11.8396
得乃自斫其右臂誣以殺人官司莫能辨	-11.8396
從簾中推出示	-11.8396
德者得	-11.8396
故上下無	-11.8396
曰長婦執爵而致也	-11.8396
毋行大火毋	-11.8396
粮食	-11.8396
量也謂	-11.8396
仞見水則免	-11.8396
澇	-11.8396
時莭	-11.8396
丙吉	-11.8396
游宦	-11.8396
送飯	-11.8397
譎詐	-11.8397
崇龜	-11.8397
賈黯	-11.8397
鍛	-11.8397
保辜	-11.8397
故首著焉	-11.8397
玉巵	-11.8397
范純仁	-11.8397
虞部所	-11.8397
㪷	-11.8397
以公義	-11.8397
以避罪	-11.8397
工匠	-11.8397
撻	-11.8397
於衣食之利	-11.8397
禁而不止	-11.8397
見本𫝊	-11.8397
上不愛民民不死	-11.8397
不臣天子不友諸侯	-11.8397
中程者賞	-11.8397
侍讀	-11.8397
則商賈不	-11.8397
推所毆時在限外四刻因訴於郡得原父	-11.8397
換金	-11.8397
操弓	-11.8397
操彈	-11.8397
故明主之治國也	-11.8397
故附著之	-11.8397
斬大山毋	-11.8397
暮食	-11.8397
民力竭	-11.8397
湯武征伐	-11.8397
知處州	-11.8397
納汝女為子婦許嫁其女汝家有之乎	-11.8397
若水固辭	-11.8397
躁則失	-11.8397
辜限計日而日以百刻計之死在限外	-11.8397
㤥	-11.8397
吾得之矣	-11.8397
巢	-11.8397
智能聰明	-11.8397
次浮也	-11.8397
腸胃	-11.8397
趙知録	-11.8397
珥	-11.8397
嚬	-11.8397
侍御	-11.8398
取人以已	-11.8398
地廣而民	-11.8398
鎖	-11.8398
副貳	-11.8398
劵抑汝女為婢指十萬為	-11.8398
奚以知其然也夫	-11.8398
廼	-11.8398
戎狄	-11.8398
色動又告之曰汝且死書	-11.8398
魏昶	-11.8398
齊糶十錢	-11.8398
不送公	-11.8398
功而行賞	-11.8398
洪	-11.8398
通也旣	-11.8398
採	-11.8398
顔涿聚曰	-11.8399
髙下中幣制下上之用	-11.8399
穿地	-11.8399
淚	-11.8399
食寒而	-11.8399
㓜弱	-11.8399
両	-11.8399
則民不得無	-11.8399
受而行之	-11.8399
所失衫袴是一端布	-11.8399
雪寃枉	-11.8399
之曰豈有	-11.8399
二十年而	-11.8399
人民少而	-11.8399
子欲分其財	-11.8399
往不復	-11.8399
後事本朝終於	-11.8399
懸怒	-11.8399
而後書之既引伏獄未上而其家人復訴	-11.8399
離内逺遊	-11.8399
驗尸	-11.8399
不讓賢	-11.8399
交錢物	-11.8399
參之一	-11.8399
商子卷第	-11.8399
嚬笑	-11.8399
子服厲伯	-11.8399
孱	-11.8399
餳	-11.8399
晉獻公	-11.8399
不聽而可以得存者	-11.8399
只	-11.8399
畜其臣	-11.84
與人家安厝	-11.84
錢若水為同州推官	-11.84
豫戒	-11.84
乎莫得其	-11.84
吾聞子良	-11.84
告駙馬崔宣謀反	-11.84
因戾不受訓遣之郭氏夫婦	-11.84
徤	-11.84
數軰	-11.84
耕織	-11.84
賦斂	-11.84
以葉塗	-11.84
僱	-11.84
帝之王謹逃其爪牙	-11.84
慈孝	-11.84
若水雪	-11.84
訊之果然蓋南方有櫸	-11.84
蹤	-11.84
腓	-11.8401
詣郡	-11.8401
喫	-11.8401
瑶	-11.8401
遥	-11.8401
以黨舉官則民務交而不求用矣	-11.8401
度數之理以	-11.8401
獲伸	-11.8401
也鄭縣人	-11.8401
使牛主認之因獲其	-11.8401
務尊主	-11.8401
卑賤不待尊貴而	-11.8401
大臣不因左右而	-11.8401
宫中亂	-11.8401
得受其	-11.8401
秦穆公	-11.8401
紹興	-11.8401
者天下皆	-11.8401
見知不悖	-11.8401
親兒犯三千條悖逆之罪	-11.8401
願陛下	-11.8401
乙弱各有青赤痕南公	-11.8401
以便宜戮	-11.8401
則秦必	-11.8401
廂	-11.8401
援琴	-11.8401
於季氏	-11.8401
杖六十	-11.8401
柔安靜樂	-11.8401
江表𫝊	-11.8401
畏戢	-11.8401
盗鑄	-11.8401
真宗	-11.8401
税於天下	-11.8401
竪榖陽	-11.8401
貪其利	-11.8401
二十六	-11.8401
魏文侯	-11.8401
仇由	-11.8401
偽劵	-11.8402
淳	-11.8402
美珠	-11.8402
伏闇	-11.8402
十一仞見水	-11.8402
一人為伴	-11.8402
任其身而	-11.8402
官失其能	-11.8402
法立而民	-11.8402
穎	-11.8402
艾若一者從于殺與于殺若一者	-11.8402
鞭笞	-11.8402
安能愛君	-11.8402
有盜殺人	-11.8402
腹心	-11.8402
之欲利者	-11.8402
豪家舉事只言	-11.8403
五尺見水不	-11.8403
十仞見水	-11.8403
又諫曰	-11.8403
夷門軍府事長垣縣有四	-11.8403
女奴	-11.8403
拘秦夏	-11.8403
流沙西虞	-11.8403
牛羣	-11.8403
董閼于	-11.8403
嗜魚	-11.8403
庸主之所易	-11.8403
羞辱	-11.8403
莫三人而迷	-11.8403
逼宣家訪妾宣再從弟思兢	-11.8403
限滿不平復	-11.8403
繼絶	-11.8403
矣若不可諱	-11.8403
也謂左右曰	-11.8404
其言而求其	-11.8404
史江琛取刺史裴光	-11.8404
簿民有借	-11.8404
比周以相	-11.8404
故曰治人	-11.8404
黎且	-11.8404
詩云	-11.8404
車之㑹六九合諸侯一匡天下	-11.8404
害之下	-11.8404
誣状	-11.8404
今人主之於	-11.8404
去蟻	-11.8404
是故人主有	-11.8404
久而不知	-11.8404
剽掠	-11.8404
后妃夫人	-11.8404
方五百里	-11.8404
犿本	-11.8404
秦昭王	-11.8404
衛侯	-11.8404
顧憲之	-11.8404
愧謝	-11.8404
能法之士	-11.8404
至味而罷	-11.8404
親踈	-11.8404
越王勾踐	-11.8404
伊	-11.8405
舊出北	-11.8405
用刑者	-11.8405
可賞也	-11.8405
禮神明	-11.8405
行善故	-11.8405
則不惑	-11.8405
暴傲	-11.8405
書割取	-11.8405
有大慮	-11.8405
覔	-11.8406
舉兵而伐	-11.8406
隠匿	-11.8406
安能以	-11.8406
疑不實	-11.8406
韓褒	-11.8406
則子母	-11.8406
桓公曰余	-11.8406
而非務	-11.8406
騙	-11.8406
假我道	-11.8406
向緯	-11.8406
據證	-11.8406
智術之士	-11.8406
竪穀陽	-11.8406
鄢郢	-11.8406
青赤	-11.8406
察其色	-11.8407
其子兄	-11.8407
射人心	-11.8407
芊	-11.8407
取庸矣	-11.8407
無擇也	-11.8407
猜	-11.8408
杖脊	-11.8408
商太宰	-11.8408
湯武之功	-11.8408
漬	-11.8408
以正使之	-11.8408
嘗有入此者乎對曰無有	-11.8408
好服紫	-11.8408
形故曰無	-11.8408
撲	-11.8408
文節級	-11.8408
江漢	-11.8408
瘠	-11.8408
者何也一曰	-11.8408
耕而食	-11.8408
虎目	-11.8408
遲	-11.8408
鄰人之父	-11.8408
鍔	-11.8408
長者飲	-11.8408
隐諱	-11.8408
彖	-11.8409
稅斂	-11.8409
不死糺	-11.8409
察姦之術	-11.8409
毋怠	-11.8409
哀侯	-11.841
媒	-11.841
於未然	-11.841
八十四	-11.841
繋獄	-11.841
國不恃	-11.841
史記	-11.841
不中法者不	-11.841
啗	-11.841
奉勑	-11.841
屛	-11.841
嶷	-11.841
思永	-11.841
曰狂矞	-11.841
有三歸	-11.841
清徵	-11.841
焚宫室	-11.841
爭奪之	-11.841
縣丞	-11.841
者賞在	-11.841
第十六	-11.8411
扛	-11.8411
王敬則	-11.8411
人上功	-11.8411
製	-11.8411
侵凌	-11.8411
近於楚	-11.8411
晉平公	-11.8412
仆地	-11.8412
於耳而	-11.8412
成其獄	-11.8412
數千萬	-11.8412
標題今補	-11.8412
蒲城	-11.8412
論以法	-11.8412
遇赦	-11.8412
不為而成	-11.8412
决瀆	-11.8412
勿泄	-11.8412
數旬	-11.8412
簾	-11.8412
給事中	-11.8412
莫大於此	-11.8412
薄媪	-11.8412
不備具	-11.8412
刀鞘	-11.8412
爲輕車	-11.8412
而譙之曰	-11.8413
一金之	-11.8413
刑罰以威	-11.8413
合理故	-11.8413
若水但	-11.8413
蔡髙	-11.8413
不首者	-11.8413
久不獲	-11.8413
同異之	-11.8414
涿	-11.8414
莫大焉	-11.8414
楚成王	-11.8414
立於隂	-11.8414
剟	-11.8414
錯置	-11.8414
供給	-11.8414
公私之分	-11.8414
樂其政	-11.8414
漢乾祐	-11.8414
丁官念二	-11.8414
乗爲耕田	-11.8414
勸之以殉	-11.8414
滅亡也	-11.8414
稅於天下	-11.8414
萬頃爲戸	-11.8414
虎穴	-11.8414
杜氏	-11.8415
乎左右對曰	-11.8415
行私謂之	-11.8415
洽通	-11.8415
甲二十	-11.8415
西戎	-11.8415
山戎	-11.8416
孔循	-11.8416
小辯則	-11.8416
保伍	-11.8416
得此三	-11.8416
征稅	-11.8416
招權	-11.8416
見曽肇内	-11.8416
皆同之	-11.8416
羣臣士民之	-11.8416
辱之人	-11.8416
長平之	-11.8416
以輕上	-11.8416
伐虢	-11.8416
握鱣	-11.8416
時移而	-11.8416
燈	-11.8416
胥待	-11.8416
臣之任也	-11.8416
證驗	-11.8416
風靡	-11.8417
之隆也	-11.8417
置吏也	-11.8417
萬戸爲開口	-11.8417
乆而不勝其禍	-11.8418
按此葢	-11.8418
可圖也	-11.8418
故曰修之	-11.8418
堯舜湯武	-11.8418
淺深	-11.8418
箭長	-11.8418
減二等	-11.8418
而知之或	-11.8418
訊囚	-11.8418
察其寃	-11.8418
之必姑	-11.8419
其意則民	-11.8419
魯侯	-11.8419
張希崇鎮邠	-11.8419
揑	-11.842
盡心君子	-11.842
使王良	-11.842
君臣之禮	-11.842
械繫	-11.842
外交以	-11.842
戎兵	-11.842
猶鼎	-11.842
自在身	-11.842
酒肉	-11.842
國之亂也	-11.842
外亂之本也	-11.842
覆驗	-11.842
汗	-11.8421
天下笑者	-11.8421
亟召	-11.8421
悉集	-11.8421
也所以進	-11.8421
寂	-11.8421
重罰者	-11.8422
熾	-11.8422
合刑名	-11.8422
以十數	-11.8422
則富富者	-11.8422
行私術	-11.8422
築室	-11.8422
謂其教	-11.8422
貧困	-11.8422
贓證	-11.8422
亦易知	-11.8422
則愚智不分	-11.8422
司理參軍	-11.8422
君子小人	-11.8422
捕冦	-11.8422
潘崇曰	-11.8422
相枕	-11.8422
臣利在	-11.8422
訥曰	-11.8422
按齊語作	-11.8422
蘇秦	-11.8423
有制則	-11.8423
毋怪	-11.8423
人之所害	-11.8423
績按當作	-11.8423
日夜分	-11.8423
矢石	-11.8424
而不忘焉可以來矣	-11.8424
之方明	-11.8424
鄧文原	-11.8424
訊鞫	-11.8424
乃可治	-11.8424
度牒	-11.8424
廊	-11.8424
悲泣	-11.8424
牽馬	-11.8424
準伏	-11.8424
䀹	-11.8424
分遣掩討	-11.8424
宣慶	-11.8424
放散	-11.8424
效駕	-11.8424
莅天下	-11.8424
壤土	-11.8424
元首	-11.8425
而馬不	-11.8425
取贍	-11.8425
罪不赦	-11.8425
明分以	-11.8425
以尺寸量短長則	-11.8425
此民之所以	-11.8426
專信一人	-11.8426
奪之威	-11.8426
並妻子	-11.8426
不可飾也	-11.8426
東夷	-11.8426
之則逃	-11.8426
云有人	-11.8426
曰吾欲伐	-11.8426
而廩之	-11.8426
辭讓	-11.8426
叅驗	-11.8426
察慝	-11.8426
帥十	-11.8426
往視之	-11.8426
淫奢	-11.8426
逵	-11.8426
陵陽	-11.8426
為袁州司理	-11.8426
相并兼	-11.8427
運動	-11.8427
好飲食	-11.8427
得免焉	-11.8427
學者之言	-11.8427
侍郎知	-11.8428
委曲	-11.8428
廬陵	-11.8428
立有間	-11.8428
陽陵	-11.8428
解狐	-11.8428
堅白	-11.8428
剛而不	-11.8428
勤力	-11.8428
而事之也	-11.8428
防年	-11.8428
側室	-11.8428
梅妻	-11.8428
天子富有	-11.8428
光禄	-11.8429
不自舉	-11.8429
定州刺史	-11.8429
賈胡	-11.8429
吟	-11.8429
以効其	-11.843
置於法	-11.843
而飲之	-11.843
離朱	-11.843
嘗攝	-11.843
物多而	-11.843
聘問	-11.843
邑鬭	-11.843
疾忌	-11.843
為上舉	-11.8431
辟草	-11.8431
發矢	-11.8431
莫如刑	-11.8431
必有千鍾之藏藏繦百萬	-11.8431
敢為欺	-11.8431
不固則	-11.8431
得意也	-11.8431
妻謀殺	-11.8431
鬻子矣	-11.8431
得無危故	-11.8432
主之側	-11.8432
不相告	-11.8432
委質	-11.8432
唐卿	-11.8432
最難	-11.8433
蚤禁	-11.8433
遂誣服	-11.8433
每石	-11.8433
作堂	-11.8433
元預	-11.8433
慶封	-11.8433
於庭下	-11.8433
驛途	-11.8433
所從來	-11.8434
慶父	-11.8434
而不周於	-11.8435
公曰諾因	-11.8435
夏秋	-11.8435
不以不善	-11.8435
偶合	-11.8435
居而自	-11.8435
數披其木毋使	-11.8435
有可疑者	-11.8435
積鐡	-11.8435
不亦難	-11.8436
八尺曰	-11.8436
遇刼	-11.8436
慈仁	-11.8436
不掇	-11.8437
用譎以擿	-11.8437
勿憂	-11.8437
而還反	-11.8437
之氓社稷也而	-11.8437
懷樂	-11.8437
以封之	-11.8438
秋氣	-11.8438
𬒳盗	-11.8438
論行也	-11.8438
邦本	-11.8438
繁於文	-11.8439
管仲鮑叔	-11.8439
為天下始	-11.8439
用其財	-11.8439
之仇也	-11.8439
華隂	-11.8439
衞州	-11.8439
察而疑之問	-11.844
夫先王之	-11.844
權筴	-11.844
孟陽	-11.8441
弗知也	-11.8441
恍	-11.8441
而不伐其	-11.8441
齊荆為	-11.8441
臨江	-11.8441
上有積	-11.8441
所以危者	-11.8441
日暮	-11.8441
江某	-11.8441
獄詞	-11.8441
贛州	-11.8441
鈎致	-11.8441
而傲其	-11.8442
諫曰不可	-11.8442
失非法	-11.8442
有罰者	-11.8443
令不二	-11.8443
者人君之	-11.8443
公閲	-11.8443
畫之民	-11.8443
逆詐	-11.8443
俗之所	-11.8444
出不仕	-11.8444
刑罰之所以	-11.8444
悉奪	-11.8444
周文王	-11.8444
子何故不	-11.8444
府從事	-11.8445
斯民之	-11.8445
匿其端	-11.8445
受魚	-11.8445
不可食者	-11.8445
亦至矣	-11.8445
北至於	-11.8445
借粟	-11.8445
司存	-11.8446
恐殆	-11.8446
修其理	-11.8446
行正理	-11.8446
賦禄	-11.8447
避農戰	-11.8447
傅說	-11.8447
遂去之	-11.8447
法之内	-11.8447
通穴	-11.8447
顧視	-11.8447
勸之以	-11.8448
證據	-11.8449
莫不有法	-11.8449
賢才	-11.8449
殷周	-11.8449
人以財	-11.8449
莫違	-11.8449
已若有	-11.8449
訟其子	-11.8449
重輕罪	-11.8449
馬亮	-11.8449
寛厚	-11.845
驗之乃	-11.845
存亡在	-11.845
逺矢	-11.845
私劒之	-11.8451
為己用	-11.8451
盡其力	-11.8451
謁者曰	-11.8451
子産卒	-11.8451
河間	-11.8451
祖母	-11.8451
萬全	-11.8451
食米	-11.8451
有與	-11.8451
釣名	-11.8452
甞聞	-11.8452
入貢	-11.8452
而避之	-11.8453
居喪	-11.8453
某等	-11.8453
侵削	-11.8453
諸路	-11.8453
施爵禄	-11.8453
爲食其稱貸之家	-11.8453
逐神	-11.8453
轉猶	-11.8454
責其功	-11.8454
順貌	-11.8454
慢易	-11.8454
鄒	-11.8454
設利以	-11.8454
樗里疾曰	-11.8454
其璞而	-11.8455
史稱	-11.8455
而報之	-11.8455
唐律	-11.8455
得之恩	-11.8455
止之曰	-11.8455
君乃不殺	-11.8455
半嵗	-11.8456
受二人	-11.8456
以事動	-11.8456
西南	-11.8456
羣婦	-11.8456
寺僧	-11.8456
㝷常	-11.8456
久語	-11.8457
不變則	-11.8457
十五人	-11.8457
濟隂	-11.8457
承議	-11.8457
歲耕	-11.8457
封君之	-11.8457
禱神	-11.8457
衛國之	-11.8457
立其私	-11.8458
桓公不聽	-11.8458
交於上	-11.8458
察其姦	-11.8458
之親上	-11.8458
按劉	-11.8458
罷師	-11.8458
出鐵	-11.8458
審行之	-11.8458
至暮	-11.8458
齊桓公問於管子曰	-11.8458
教器備利	-11.8459
聞哭	-11.8459
風雨時	-11.8459
狐疑	-11.846
而臣主	-11.846
馬驚	-11.846
也而語	-11.846
審謹	-11.846
濟美	-11.846
無所匿	-11.846
則不可救	-11.8461
起而王	-11.8461
勞其君	-11.8461
其民者必	-11.8462
害則君	-11.8462
審量	-11.8462
文規	-11.8462
曲折	-11.8462
立私理	-11.8463
鄰國諸侯	-11.8463
未嘗聞	-11.8464
外市也	-11.8464
者不足於	-11.8464
力摶	-11.8464
令掘	-11.8464
威不足以	-11.8464
案其罪	-11.8464
其主此之謂	-11.8464
千錢	-11.8464
小郎	-11.8464
攻擊	-11.8464
歳耕	-11.8464
懼之以	-11.8466
决塞	-11.8466
力不足以	-11.8466
在焉桓公	-11.8467
供近	-11.8467
之奈何管仲對曰	-11.8467
也射者	-11.8468
之弗為	-11.8468
然之政	-11.8468
世軌	-11.8468
懷州	-11.8468
公曰寡人有	-11.8468
也夫物有	-11.8468
各就	-11.8469
貴人子	-11.8469
不敢擅	-11.8469
人順之	-11.847
羣臣羣臣	-11.847
奏獄	-11.847
梁適	-11.847
二曰禁	-11.847
反無名	-11.847
失族	-11.847
諸偷	-11.847
辟淫	-11.847
諸侯不至	-11.847
一統	-11.8471
順人心	-11.8471
惡飲食	-11.8471
受業	-11.8472
歲餘	-11.8472
救燕	-11.8472
先王取天下	-11.8473
無形則無	-11.8473
訊問	-11.8473
其妹	-11.8473
微度	-11.8473
戮力	-11.8474
使民之道	-11.8474
謂之象	-11.8474
時變也	-11.8475
管子補注卷二	-11.8475
舉大事乎	-11.8476
屈服	-11.8476
强諫	-11.8476
竪牛因	-11.8476
民治矣	-11.8477
而終不可	-11.8477
己也乃	-11.8477
非賢也	-11.8478
趙宰	-11.8478
妾盗	-11.8478
成事故曰	-11.8479
謂之蔽	-11.8479
良工	-11.8479
莫能明	-11.848
辭結	-11.848
授之以	-11.848
嫁子	-11.8481
寡交	-11.8481
此自然之	-11.8482
傅致	-11.8482
報應	-11.8482
視之亦	-11.8482
賢者以其	-11.8482
事未可知也	-11.8483
得意於	-11.8483
惠子言	-11.8484
數多少	-11.8484
姦臣之所	-11.8484
辯惠	-11.8484
冀州	-11.8484
不加大	-11.8485
夀命	-11.8485
農愚	-11.8485
蔡州	-11.8485
二十七	-11.8485
賊曹	-11.8485
謂之逆	-11.8486
嘷	-11.8486
驗左右	-11.8486
無藏也	-11.8486
也昭侯曰	-11.8487
視之曰此	-11.8487
姦人所以	-11.8487
此其故何也	-11.8487
輕典	-11.8487
窶人	-11.8487
觧作	-11.8488
奪農	-11.8488
先知其	-11.8488
須去之	-11.8489
不樂生	-11.8489
刃傷	-11.8489
以為神明	-11.8489
釣利	-11.8489
乃曰是	-11.8489
伯通	-11.8489
可以濟	-11.8489
氣全	-11.849
騎吏	-11.849
叅疑	-11.8491
四隣	-11.8491
者必以其	-11.8491
精極	-11.8492
處華	-11.8492
取人以	-11.8492
之比至	-11.8493
領過	-11.8493
中繩	-11.8493
立貲	-11.8493
詣若水㕔事	-11.8494
不能知也	-11.8494
其身甚	-11.8494
大心而	-11.8495
必諾	-11.8495
爭訟	-11.8495
爾父	-11.8495
行堤	-11.8496
棄我	-11.8496
候主	-11.8496
不平也故	-11.8497
天下者必先	-11.8497
天地之中	-11.8497
積澤	-11.8497
君臣之道	-11.8498
得而誅之	-11.8499
千世	-11.8499
取庸	-11.8499
散走	-11.8499
先王之法	-11.8499
共車	-11.8499
輕刑罰	-11.8499
收捕	-11.85
不能令人	-11.85
逺而有	-11.85
凡道無	-11.8501
忘社稷	-11.8501
塞塞	-11.8501
三百里	-11.8501
水險	-11.8501
不戰之	-11.8501
景德	-11.8501
道必行	-11.8501
偕行	-11.8502
仁夏	-11.8502
除害	-11.8502
是為十	-11.8503
中法則	-11.8503
者也故主	-11.8503
為人所	-11.8503
土滿	-11.8504
贏利	-11.8504
之目也	-11.8505
七術	-11.8505
不能勿惡	-11.8506
擅其利	-11.8506
而易見	-11.8509
陽夏	-11.8509
以進取	-11.851
孫寶	-11.851
吾聞子	-11.8511
君曰不能	-11.8511
主好惡	-11.8511
能安其	-11.8511
所以亡者	-11.8511
刑不足以	-11.8512
禄薄	-11.8512
成其姦	-11.8512
萬里	-11.8513
佯亡	-11.8514
天地和	-11.8516
昌齡	-11.8517
多疾病	-11.8517
也上好	-11.8517
匿情	-11.8518
汝惟	-11.8518
智者即	-11.8518
幼官	-11.8519
政寛	-11.8519
然後退	-11.8519
是夕	-11.8519
聼請謁	-11.852
此二者不可不察也	-11.852
市之賦	-11.852
端平	-11.852
横死	-11.8522
恃勢	-11.8522
奈何管子對曰君	-11.8522
四卷	-11.8523
如窮無	-11.8524
伐木	-11.8524
養不足	-11.8524
故其内	-11.8525
也所以使	-11.8526
不可以罰	-11.8526
尹賞	-11.8526
一日百	-11.8527
斷手	-11.8528
日昌	-11.8528
必農農則草必墾矣	-11.8528
秦國之	-11.8529
田氏	-11.853
事成而	-11.8531
好貨	-11.8533
國且有	-11.8533
俗通	-11.8534
之彼則	-11.8534
仁師	-11.8534
告愬	-11.8535
明道以	-11.8537
許我	-11.8538
故知古	-11.8538
而臣卑	-11.8539
悔過	-11.8541
之也故先王	-11.8541
溺子	-11.8541
郡縣	-11.8541
義不行	-11.8543
獄決	-11.8543
古之世	-11.8543
執爵	-11.8545
偷長	-11.8545
存韓	-11.8547
督乎	-11.8547
兵而欲	-11.8547
不公矣	-11.8548
旦暮從事於	-11.8549
人之急	-11.8549
罪過不	-11.855
向日	-11.855
逺者歸之	-11.855
土師	-11.8551
為大行	-11.8552
之用心	-11.8555
振民之	-11.8559
何由	-11.8561
為姦利	-11.8563
民不困	-11.8563
非其地	-11.8564
一出而	-11.8564
憲令著	-11.8565
也使人不	-11.8565
神明若	-11.8566
之所以一民	-11.8566
之免也	-11.8566
道理之	-11.8568
必害則	-11.8569
而居者	-11.857
遞相	-11.857
此百姓之	-11.857
殺君而	-11.8573
飾臺榭廣	-11.8574
晉國之	-11.8574
則物不	-11.8575
乎管仲曰	-11.8576
孔公	-11.8576
者所以止	-11.8578
逆天下不	-11.8579
在君所	-11.8579
中出義	-11.8579
而無罰	-11.858
滅絶	-11.8581
地之利	-11.8581
大匡	-11.8584
失而能	-11.8584
之世者必為	-11.8585
之謂理	-11.8586
以塞道	-11.8591
士人有	-11.8597
上信而	-11.8599
曰吾始	-11.8599
功無不	-11.8599
聞禍福	-11.86
則是一舉而	-11.86
利於民	-11.86
之化也	-11.8604
民盡死	-11.8604
枉死	-11.8605
聖人之道	-11.8605
民必以	-11.8606
知物之	-11.8607
不敢離法	-11.8612
之費也	-11.8617
創制	-11.8621
不和故	-11.8623
不可恒	-11.8624
貧弱	-11.8627
今吾欲	-11.8628
其國必削	-11.863
敬以哀	-11.863
國危矣	-11.8635
子而食之	-11.8644
是臣之	-11.8644
公爭之	-11.8647
不損也	-11.8648
功者富	-11.8651
上而下	-11.8653
賁育不	-11.8654
所以知者	-11.8656
父兄大臣	-11.866
而著之	-11.8669
人之情也	-11.867
羣害	-11.8675
事大國	-11.8676
而治此	-11.8677
誅之過	-11.8687
先王之道	-11.8688
天子之禮	-11.8688
則隂陽不	-11.8693
制之矣	-11.8693
繼至	-11.8701
故姦無	-11.8701
之野也	-11.8703
賢舉能	-11.8708
民勸勉	-11.8716
倍異日	-11.8718
而幸其	-11.8728
五日一	-11.8735
聽其上	-11.8737
而獨以	-11.8739
勢者人主之	-11.8742
元氣	-11.8754
飄風一	-11.877
則必危	-11.878
王如其言	-11.8782
罪當死	-11.8785
而訟之	-11.88
者計也	-11.8815
曰管仲有	-11.8822
禍福亦	-11.8825
無以使下	-11.8825
而賢其	-11.8828
夫勢者	-11.8834
勿欺	-11.8842
明主之聽	-11.8843
曰使子	-11.8848
大事以	-11.885
名則治	-11.8854
案囷窌	-11.8856
者貞也	-11.8861
毁敗	-11.887
除之齊	-11.8879
寒凍	-11.8885
足以知之	-11.8885
因者因	-11.8887
聞一言	-11.8898
仲父之	-11.8902
職曠	-11.8904
者則罰	-11.8907
莫如身	-11.8908
鎻	-11.8909
不愛則	-11.8913
愈衆	-11.8915
疑詔	-11.8915
其序	-11.8916
故法立而不	-11.8917
獻之公	-11.8924
刑輕刑	-11.8927
術而欲	-11.893
者得天	-11.8959
賤爵禄	-11.896
救敗	-11.8963
山川則威令	-11.8968
物之義	-11.8975
免脫	-11.9019
不王也	-11.9043
安有不	-11.9055
四種	-11.9059
寒之隂十二大寒終三寒同事六行時節	-11.9061
非吾所	-11.9063
官爵貴	-11.9066
則去山	-11.9085
使之民不	-11.9098
治其本	-11.9126
之謂之好	-11.9129
財若一	-11.9134
賞不從	-11.9141
分之一也	-11.9154
故知善	-11.9157
江縣	-11.916
請問用	-11.9161
玉幣	-11.9172
而上盡	-11.9195
百匹	-11.9197
十五年	-11.9212
帝怒	-11.9243
在申子之	-11.9247
如在於已	-11.927
此說之	-11.927
危社稷	-11.928
義者所	-11.9294
事不濟	-11.9298
朝㑹	-11.9299
事則事	-11.9321
民勞苦	-11.9325
物利之	-11.9337
壺餐	-11.9358
不為君	-11.9386
先也此	-11.94
人也暴	-11.9407
所嗜	-11.9413
門曰我	-11.9454
中鈎	-11.9467
伊尹得	-11.9473
司户	-11.9477
謂之貧	-11.9498
朋黨相	-11.9521
以國為	-11.9548
事於文	-11.9565
亂之所生	-11.9597
任姦則	-11.9604
也日者	-11.9609
孝衰	-11.9616
夫行私	-11.962
第十八	-11.9634
以亡故	-11.9689
善因天	-11.9714
則人安其	-11.9715
談論	-11.972
聽訟	-11.9744
犯詛渝盟	-11.9747
有功者五	-11.9767
則行無	-11.9769
為不可以治	-11.9771
子於韓	-11.9777
掩捕	-11.98
攻弱	-11.9802
慮也故	-11.9812
金一筴也	-11.9815
主失威	-11.9845
不亡何	-11.9871
國之所以治	-11.9883
視之果	-11.9898
適足以	-11.9905
陸費墀	-11.9931
以其威勢	-11.9942
無私怨	-11.9953
足以服	-11.9956
七十九	-11.9961
臣不忠	-11.9973
知禮也	-12
唐書李	-12.0034
竭力	-12.0099
地之所	-12.0106
能以所	-12.0141
讀法	-12.0154
以難之	-12.0159
之五者	-12.0171
衆心	-12.018
功曹	-12.0198
事心不	-12.0208
上有私	-12.0231
天下者天下	-12.0242
果弱魯君	-12.0249
之賤之	-12.0252
賞禄	-12.0253
可以致功	-12.0275
人者未有	-12.0284
恤孤	-12.0361
姦臣不能	-12.0384
其族孫也	-12.0388
衡山械器	-12.0394
論材	-12.0414
所求於	-12.0448
不戴其	-12.0506
之備也	-12.0511
刑賞不	-12.0512
不察其	-12.0564
以誅暴	-12.0586
誅暴則	-12.0592
西北	-12.0643
之所制也	-12.0655
小白先入	-12.0704
百七十	-12.0757
謂國用	-12.078
嘗有人	-12.083
戴其君	-12.0834
雖未大	-12.0918
官上之道而	-12.1027
賢人不來	-12.1028
安得不服乎	-12.1034
請以令召	-12.1095
之則利	-12.116
相干	-12.1223
夫愛人	-12.1277
陸費墀欽定四庫全書	-12.1293
主積于	-12.1352
誅無赦	-12.136
而不征市	-12.1505
以治國故	-12.1513
從何來	-12.1522
矣然則難	-12.1614
以増其	-12.1622
之不涸四	-12.1638
亂不可得	-12.169
援外	-12.1746
舉也欲	-12.1748
拷問	-12.1766
不如己	-12.179
役賢	-12.1794
凡將立事	-12.1821
莫如法	-12.189
不求其觀	-12.1904
挈壺	-12.1937
年而舉	-12.1983
餐	-12.1992
天子出令命左右	-12.202
用其智而	-12.2162
則無以正天	-12.2163
者天下之至	-12.2184
道則九	-12.2217
不動以為道齊	-12.2257
用也使民	-12.2294
而不起此病	-12.2301
於戰則	-12.2324
出晉書	-12.2371
國之俗也	-12.2375
末産不禁	-12.2384
外舉義	-12.2388
乎管子對曰可夫	-12.2391
惟恐不	-12.2401
坦氣脩通凡物開静形生理	-12.2416
優侏儒	-12.2432
愛官職	-12.2501
而不革則	-12.2525
歌之曰	-12.253
不出百里而來	-12.2595
言大人之	-12.2596
盡得其寃	-12.2633
一子無征	-12.2657
正民之經	-12.268
知得諸	-12.2699
飄風	-12.2731
或曰明年	-12.2751
年不解	-12.2758
聖人之治國也	-12.2779
何也對曰昔	-12.2857
也危哉	-12.2892
俳	-12.2952
名二正	-12.2953
故王者刑	-12.2961
使人之楚	-12.2968
白其寃	-12.2975
何以待之管	-12.2988
法不當死	-12.3008
而民莫	-12.3025
貴而無禮	-12.3045
壌守之若干	-12.3064
節則上位	-12.3069
也此臣之所	-12.3077
州有盗殺	-12.3084
民之司命也黄金刀	-12.3086
當今之世	-12.3092
坐長而十倍	-12.3097
弊邑之君	-12.3108
績按當依	-12.3111
殺正商賈之利而益農夫之事	-12.3126
守法之官日行	-12.313
首者賜之	-12.313
壤守之若干	-12.3132
兄弟之親	-12.3134
致刑其	-12.3139
亦猶是	-12.3142
以徐疾	-12.3152
以立功名	-12.3159
欣	-12.3164
政平而	-12.3165
反其性	-12.3167
齡	-12.3168
輕重十	-12.3169
人主莫不欲	-12.3176
所生生於	-12.3182
大木不可獨	-12.3184
日至始數九十二日謂之	-12.3195
之用何也曰非號令	-12.3201
親也貴也貨也色也巧佞也玩好也三	-12.3201
器備利則	-12.3208
於汝漢之右	-12.3216
蓄殖果木不若三土	-12.3219
後魏李崇為揚州刺史	-12.322
王不恃	-12.3221
有人主之名而	-12.3221
事矣桓公	-12.3226
不能違時	-12.3241
勝其任	-12.3258
生上位	-12.3263
不踰節	-12.3269
里之情通矣	-12.3274
能變曰	-12.3281
行夏政	-12.3282
樗里疾	-12.3282
關吏乃	-12.3283
之狀芬	-12.3284
内外為用	-12.329
之次曰五	-12.329
故大國之君不	-12.3298
不易其則	-12.3299
施七十	-12.33
公孫宏	-12.3302
暖	-12.3302
者嚴明不能	-12.3302
哭曰吾夫	-12.3304
一而三之	-12.3304
者之為自	-12.3304
人主所甚親愛也	-12.3305
叄	-12.3305
能明吾	-12.3305
言有家之親	-12.3308
劔㦸	-12.3308
知所說之心	-12.3308
試觀客	-12.3308
賢哲之臣	-12.3308
而罰之是	-12.3309
豎	-12.3311
之耻於君子矣	-12.3312
之耻於小人而	-12.3312
則救之以	-12.3312
棘刺之母猴	-12.3312
珧	-12.3312
而賜貧窮	-12.3312
厚而無竅	-12.3315
敘鈞	-12.3315
棘刺之端	-12.3315
親親而愛私	-12.3315
釘鉸	-12.3315
吏嗇夫謂檢	-12.3316
也若督郵	-12.3316
為氣淵	-12.3316
埴	-12.3317
元何犿註内儲說	-12.3318
内齊軍	-12.3318
召韓兵	-12.3318
四政曰求有德賜布施於民	-12.3318
戴歇	-12.3318
欲人惡盛陽之氣也	-12.3318
田中之廬欲漏之不	-12.3318
善自應賞	-12.3318
之以是觀之夫	-12.3318
人之從法若	-12.3318
人嗇夫任	-12.3318
何力之有	-12.3318
制於為虛	-12.3318
勢不兩存	-12.3318
吾恐其以我	-12.3318
宫他曰	-12.3318
故以無為無思為虛	-12.3318
此人遺我	-12.3318
簡公謂子産曰	-12.3318
表謂立表所	-12.3318
覜	-12.3318
請觧炮烙之刑	-12.3318
論囹圄而出薄罪	-12.3318
暴譴	-12.3319
露故萬物利也	-12.3319
大宰嚭	-12.3321
殺飛鳥五政	-12.3321
成熟揫斂之	-12.3321
不恃仰人而食	-12.3321
不論功故不	-12.3321
不越鄉而交	-12.3321
劉晏	-12.3321
果蓏不以火	-12.3321
無百里之慼	-12.3321
言相希准	-12.3321
冬行霜雪夏行雨	-12.3321
取一石則人有三十石果蓏素食	-12.3321
可以雪耻	-12.3321
大而且衆也	-12.3321
故天下清而百姓	-12.3321
是以聖人之治也	-12.3321
本道而立法	-12.3321
沅	-12.3321
火水之就燥下	-12.3321
王之疑己也	-12.3321
而苦乎以	-12.3321
致力於民而足以修義從令者忠臣也上	-12.3321
衆皆從	-12.3321
象法也謂能	-12.3321
金之從陶	-12.3321
柰	-12.3322
法出令而民不從故賞不足勸則士民不	-12.3323
其霜雪夏	-12.3323
十石之中也	-12.3323
是故萬物均	-12.3323
枯死止其	-12.3323
猶人之就利	-12.3323
粃	-12.3323
而足於卒	-12.3323
薺麥	-12.3323
行賞於善人行罰於凶	-12.3323
誇大也天與聖	-12.3323
過自應	-12.3323
餘言不在五	-12.3323
不立一社以	-12.3323
亡徙無所容匿故	-12.3323
故主政可往於民民心可	-12.3323
有什伍司之	-12.3323
雖有聚之夫	-12.3323
制下上之用	-12.3323
秋揫也時物	-12.3324
不以無為為有常	-12.3324
不容他寄也	-12.3324
不求召而自來	-12.3324
不義富貴志士所以	-12.3324
也天下太平之士不可以	-12.3324
事據律而行也	-12.3324
人無私故萬	-12.3324
今桓公以易居其上是以	-12.3324
仲尼以文王為智	-12.3324
兕虎之害	-12.3324
八十六篇	-12.3324
則難化須	-12.3324
叔珍	-12.3324
夫之業也	-12.3324
如此則人君之事究矣是故	-12.3324
家人藏其皮冠	-12.3324
徳故曰上徳	-12.3324
所備而追之	-12.3324
携妻息	-12.3324
政之陋也故武王	-12.3324
有常儀的	-12.3324
有爪角也	-12.3324
朝有經臣國	-12.3324
松栢不凋輟	-12.3324
榮華以相	-12.3324
榮華而相驕故以	-12.3324
正名法備則事無	-12.3324
爵不論能故不	-12.3324
相出爲道	-12.3324
知不欺主之臣	-12.3324
翢	-12.3324
脩増而	-12.3324
與土也所以富民有要食民有率率三十	-12.3324
萬諸侯鈞引於人	-12.3324
行制禄	-12.3324
親休其	-12.3324
説林下第二十三	-12.3324
謂因人嗇	-12.3324
蹷	-12.3324
雨露也	-12.3324
涂	-12.3324
不足畏則暴人輕犯禁民者服於威殺然	-12.3326
一舉取天下而有之此萬	-12.3326
人嗇夫之	-12.3326
修正理而動故能	-12.3326
周公不以管	-12.3326
已下皆據事以	-12.3326
必不聽此言	-12.3326
明君聖人亦不	-12.3326
法制行則事	-12.3326
無私也是以官無私論士無私議民無私	-12.3326
無築千聚無社謂之陋一舉而取天下有	-12.3326
簡故不重也	-12.3326
者力鈞則與之	-12.3326
萬諸侯鈞	-12.3326
言不離居	-12.3326
言紂人	-12.3326
訾限也程准也事律	-12.3326
論法辟衡權	-12.3326
重禁以威之	-12.3326
野戰城守則	-12.3326
辯於地利而	-12.3327
久墳瘞之處	-12.3327
令人禦	-12.3327
發故屋辟故	-12.3327
開通之也	-12.3327
則術不行	-12.3327
辰星	-12.3327
其德憂哀	-12.3327
德靜正隂之	-12.3327
惻故以憂恤哀	-12.3327
爵人不論能禄人不論功則士無	-12.3327
結堅實故	-12.3327
中心無所專固有善則	-12.3327
乆不决詔	-12.3327
也四擬	-12.3327
人之所得設也	-12.3327
傳天下於益而	-12.3327
共制之若	-12.3327
内實必喪	-12.3327
大體第二十九	-12.3327
姦盡止	-12.3327
安恬以此	-12.3327
年人有五十	-12.3327
弗忍而與	-12.3327
忠信故無有	-12.3327
扭	-12.3327
據文而舉劾	-12.3327
斛文劾不以私論而以事	-12.3327
日陽也月隂也物皆	-12.3327
權衡者所以視重輕也戸	-12.3327
民之生生而	-12.3327
法以行私	-12.3327
滯故聖人無事也	-12.3327
然而天不	-12.3327
獨得善者也	-12.3327
當長其謙	-12.3327
石故藏皆	-12.3327
竒謂邪	-12.3327
美名外揚	-12.3327
聴之説不度於義	-12.3327
臣合體莫不	-12.3327
視其中情	-12.3327
親貴以自克	-12.3327
雖伍長亦選	-12.3327
非雖有豫怠不得	-12.3327
偉	-12.3328
耀臨	-12.3329
小政䠞國故	-12.3329
於亂夫五帝三王所以成功立名顯於後	-12.3329
正得所安然	-12.3329
用被治然	-12.3329
靜者也夫盜賊不勝邪亂不止	-12.3329
其繼敗	-12.3329
從見利然	-12.3329
易平易不牢固謂	-12.3329
材振四海王之佐也千	-12.3329
不德於君也	-12.3329
之有闗中河内也	-12.3329
以大牽小以	-12.3329
使弱以衆致寡	-12.3329
其於物也雖	-12.3329
出可以野戰也	-12.3329
又以國之	-12.3329
嗇夫之事究矣	-12.3329
如此則吏嗇夫之事究矣人嗇夫成	-12.3329
居上位不獨立其	-12.3329
律旣成	-12.3329
有伐而不得者也	-12.3329
比其鈞	-12.3329
紂在上位萬人讎之鬼	-12.3329
自伐故無	-12.3329
諸侯而不拂近無不服逺無不聽夫明王	-12.3329
謂什長	-12.3329
辟刑也文劾	-12.3329
近故能攻	-12.3329
隂陽之氣然後化之也	-12.3329
隰	-12.333
以丙丁之日發五政一政曰求有功發	-12.333
耳目自聰明	-12.333
明不能燭	-12.333
無守禦之備也	-12.333
矣參言	-12.333
以譬招來	-12.333
反以無分役相驕故謂之逆	-12.333
嚴順謂德雖嚴然	-12.333
國非其國也此三者亡國之	-12.333
天下樂推	-12.333
徳之有常不輕為	-12.333
或罰而殺之或賞而生之皆不違	-12.333
無能受官	-12.333
獨孤國非其國也鄰國皆險	-12.333
皆從霸	-12.333
社稷有危人人皆當效死今	-12.333
而事愜故	-12.333
謂之誣上	-12.333
上也如響之應聲	-12.333
不赦故罪死	-12.333
人一日不可復	-12.333
信又當視其	-12.333
克勝也謂不	-12.333
克親貴以	-12.333
其言順而澤	-12.333
凡私則不周故	-12.333
動若竒邪	-12.333
十有三具者皆	-12.333
名求實之飾	-12.333
君隨臣愛惡則威德	-12.333
因此小損以勝大	-12.333
外正猶未	-12.333
大國不可以小道理	-12.333
天下而無以天下為者	-12.333
失令有功法所	-12.333
左右專以其心斷者中主也臣有所愛而	-12.333
已致故無罰也	-12.333
廢舎則百	-12.333
懲下也	-12.333
所全之地	-12.333
摽髙舉	-12.333
故羣臣百姓皆設私立方以	-12.333
於牧野	-12.333
有不見聞知也	-12.333
治國用民之道	-12.333
治所刑也	-12.333
為明師	-12.333
皆在於臣故曰失也	-12.333
祭祀之費家雖有小損	-12.333
秋雲凄慘有愁悴之容	-12.333
籍其人使富貧財力相兼	-12.333
置且逺能生人之	-12.333
腫膝夫	-12.333
萬物共在	-12.333
遵令而行敗非	-12.333
非主令而行	-12.333
頭與刃	-12.333
𢷬	-12.333
四境之内	-12.3331
植固而不動竒邪乃恐	-12.3331
刑則交寒害	-12.3332
禍不全者也	-12.3332
謂之聖人人能正靜皮膚	-12.3332
不發舉也	-12.3332
則貧富不依訾限者可知也	-12.3332
理則人知	-12.3332
田多則人多	-12.3332
田少則人少	-12.3332
田結其多少	-12.3332
萬乗之國失其守國非其國也天下皆理	-12.3332
不曲從	-12.3332
中情以驗之	-12.3332
亡旋及	-12.3332
令巫祝知神之次秩者操牲	-12.3332
其賞賜人	-12.3332
君則能禁止	-12.3332
夏雲之	-12.3332
大臣愛惡之	-12.3332
得而保故曰奪柄失位之道	-12.3332
憂人之不令見其戚容人亦為之傷悼之	-12.3332
所以能期於此	-12.3332
所立堅則不可	-12.3332
政者立法以齊物教者	-12.3332
故而私賞罰也	-12.3332
故貴不能威富不能	-12.3332
末也本大而	-12.3332
末小則難崩	-12.3332
死亡者不享食鬼	-12.3332
法不平令不全	-12.3332
法不平令不全則柄位不可	-12.3332
無失外事之時也辰時也	-12.3332
璧執斝爵以禱神而謝逆	-12.3332
神怒之雖其旅若林莫	-12.3332
税之鹽一日	-12.3332
言有枉法	-12.3332
誘以感心用	-12.3332
邪化令往	-12.3332
瓜瓠葷菜百果	-12.3333
兕虎	-12.3333
與天同極	-12.3333
惑意則邪菑自銷也	-12.3334
邪菑生於惑意故内無	-12.3334
霜氣肅殺	-12.3334
多棘刺	-12.3334
信不然之物	-12.3334
大政開國	-12.3334
故四體固也	-12.3334
法而不克其罪則姦不	-12.3334
老男五十已上	-12.3334
謂繋屬	-12.3334
走出門	-12.3334
雖曰好善及	-12.3334
上之所加焉者	-12.3334
主也如影之	-12.3334
之士徒皆私門之	-12.3334
之芒銳	-12.3334
之道也夫非主令而行有功利因賞之是	-12.3334
之長無人為之	-12.3334
二嵗而	-12.3334
何救而可	-12.3334
兕虎有域	-12.3334
公曰國門則塞百姓誰	-12.3334
共謀要殺君子之不當	-12.3334
兵尚㦸	-12.3334
刑則於疆郊	-12.3334
刑則燒交疆郊	-12.3334
刑戮則於初旦夜盡之交其時尚寒主春	-12.3334
刑者姦之所利者	-12.3334
功名第二十八	-12.3334
博厚則感人	-12.3334
士不設	-12.3334
大本而小	-12.3334
子君之子也其能	-12.3334
專聽其大臣者危主也故	-12.3334
居變則不	-12.3334
平江令	-12.3334
必怨怒故軍財	-12.3334
慈母之於弱子也	-12.3334
憎心見	-12.3334
故尚赤	-12.3334
旗物尚赤	-12.3334
此東圖	-12.3334
深故死之也	-12.3334
焚燒而交也	-12.3334
無有如出一口	-12.3334
牗	-12.3334
生而在上位雖有十	-12.3334
私者壅蔽失位之道也上舎公法而聽私	-12.3334
私賞之有所惡而	-12.3334
立者吾君所以取	-12.3334
至於奪柄失位之	-12.3334
著著猶明著	-12.3334
藹油潤	-12.3334
藹然若夏之靜雲乃及人之體	-12.3334
言從横	-12.3334
課遂有羡	-12.3334
謞	-12.3334
象夏物	-12.3334
象春物	-12.3334
豫怠	-12.3334
起油然含潤將降其澤及人之	-12.3334
超絶而又	-12.3334
避其域	-12.3334
重法而畏	-12.3334
鈸	-12.3334
雖有功利	-12.3334
順秋氣而靜居不	-12.3334
張譴	-12.3334
䕫	-12.3335
兵尚矛	-12.3335
故九竅通也	-12.3335
順殺氣	-12.3335
不改其貞	-12.3335
不改其静	-12.3335
其儀不易	-12.3335
分役相	-12.3335
報斝爵祭神以謝過耳	-12.3335
山澤通氣	-12.3335
情而伐者帝也	-12.3335
竭能盡力	-12.3335
諸君謂老男老女也六十已上	-12.3335
主道明則公	-12.3335
利故能攻國	-12.3335
四機即上不守不	-12.3335
後欲求令行不可得	-12.3335
慮利害而	-12.3335
時而遷	-12.3335
殺當其罪	-12.3335
無所與之今	-12.3335
百姓人慮利害而以其私心舉措則法制	-12.3335
知不著不意也	-12.3335
破大而制	-12.3335
經不知故莫之	-12.3335
縁順故常脩理法制	-12.3335
習敵不	-12.3335
而令不行矣明法第四十六	-12.3335
若無賢雖百夫	-12.3335
藏之者所	-12.3335
謂冦有至國門以塞百姓警	-12.3335
謂損政	-12.3335
防守要路也	-12.3335
障塞者所以	-12.3335
乎管子對曰請	-12.3336
嚴刑重罰	-12.3336
九合諸侯一匡天下	-12.3337
為不遜	-12.3337
大成牛	-12.3337
宋石遺衛君書	-12.3337
信而骨	-12.3337
則皮膚自	-12.3337
天菑人害能	-12.3337
體固竅通故能壽	-12.3337
藏精之泉不竭	-12.3337
能生氣故	-12.3337
曰叔向師曠之對皆偏辭也	-12.3337
三千萬人者蓋鹽官之利耳鹽官之利	-12.3337
之何唯有	-12.3337
亦旣有辱當	-12.3337
伐者帝	-12.3337
内藏於精則無	-12.3337
制馬必以	-12.3337
則功不立名不	-12.3337
懸象著明	-12.3337
浩然和平以	-12.3337
父卑臣	-12.3337
窮竭若水之泉	-12.3337
謂深知敵之内	-12.3337
輕刑以愛人姦	-12.3337
一謂號	-12.3337
三牧民解第六十三亡管子解一管子	-12.3337
不偷取一世	-12.3337
之士徒也今	-12.3337
亂則凶禍	-12.3337
以賑貧乏故為均之始	-12.3337
以輕止	-12.3337
其心以幸於上上無度量以禁之是以私	-12.3337
勸飯之説	-12.3337
名髙今	-12.3337
堙	-12.3337
少資之令其逺去	-12.3337
平陽君之目	-12.3337
後必無復	-12.3337
徙其獄于澧州	-12.3337
應死通判不肯用其言	-12.3337
所謂亂國者臣術勝也	-12.3337
故有所使令	-12.3337
旣盡也天下所以	-12.3337
曰奪柄	-12.3337
枉法有	-12.3337
治所揆也	-12.3337
法明故國治	-12.3337
無害人之心	-12.3337
無忿争之心	-12.3337
璽自三百石以上皆效之子之	-12.3337
生至於外形	-12.3337
由守所	-12.3337
相劒者也	-12.3337
等以相迎	-12.3337
精存於中	-12.3337
繦褓	-12.3337
者常數十百人	-12.3337
胥僮長魚矯	-12.3337
至故死也	-12.3337
見下文	-12.3337
近愛信	-12.3337
追逮之苦	-12.3337
重罰嚴誅	-12.3337
隂為厚利	-12.3337
悼	-12.3337
之淵不有竭	-12.3338
不能自生者屬之其	-12.3338
明立正嫡設其	-12.3338
無父母又無	-12.3338
二者謂愛	-12.3338
凡千萬人	-12.3338
又不籍於小男小女乃能以千萬人而	-12.3338
可正而視	-12.3338
喻教者洒之温	-12.3338
多反傷人也	-12.3338
夫盜賊不勝則良	-12.3338
戰而號令一	-12.3338
有二國之籍者六千萬	-12.3338
有罪過者	-12.3338
焉故能有二國之籍者六千萬人耳	-12.3338
索端則	-12.3338
老男老女	-12.3338
誅也信能行之五榖蕃息六畜殖而甲兵	-12.3338
之若此則人之賢	-12.3338
人不得已而	-12.3338
以向月	-12.3338
其友相切相磋各長其儀周則復始是謂	-12.3338
名自形	-12.3338
子之紀言昭第六十亡雜篇十一	-12.3338
容蒸然	-12.3338
布帛不然則	-12.3338
智雖務鰥寡	-12.3338
曰魯之境去國五十里亦無不死而已左	-12.3338
有何失乎	-12.3338
有言則出命	-12.3338
朝以市權利也	-12.3338
榖帛可	-12.3338
熱氣而和順雖有謞躁之人	-12.3338
玉之生於山	-12.3338
珠玉可賤而敬	-12.3338
經法也用兵	-12.3338
者何先也	-12.3338
貴而賤之無用謂	-12.3338
遜以接人	-12.3338
體去除	-12.3338
魯境亦死今殺君亦死同是死	-12.3338
雷鼓	-12.3338
圭	-12.3338
莫貴於	-12.3339
告趙王吕倉	-12.334
以規矩為	-12.334
爵禄厚而	-12.334
中全則	-12.334
備戰用也	-12.334
具耕器則	-12.334
凢說之難	-12.334
當功戰	-12.334
疫	-12.334
盛發易	-12.334
臭以辟毒	-12.334
雨露若武備之	-12.334
也衆人之為禮也	-12.334
君大恱	-12.334
毋監于讒	-12.334
訣	-12.334
也王罕王罕大卿知潭州	-12.334
亂且危敗亡	-12.334
以粟案田而	-12.334
勝堪也謂不堪	-12.334
圓謂君道也	-12.334
失而伐者王	-12.334
官給二	-12.334
所養之親也	-12.334
權臣振主君欲去之必	-12.334
者漸長能自管	-12.334
而不妄則信也	-12.334
臨之必危殆	-12.334
見其政有失	-12.334
謂恤孤者凡國都皆有掌孤士人死子孤	-12.334
適中故	-12.334
㑹諸侯於竟都師未至	-12.334
上多喜善賞	-12.334
上好利則	-12.334
不用其區區	-12.334
不隨其功則士不	-12.334
不預國	-12.334
乃布之於諸侯諸侯許諾受而行之卒嵗	-12.334
之材當收聚之	-12.334
充末衡	-12.334
其次善者雖	-12.334
可以加刑罰	-12.334
可以大勝	-12.334
器成不守	-12.334
天不一時地不一利人不一事	-12.334
好利則傾巧	-12.334
常伺君以興禍故	-12.334
征諸侯者	-12.334
後為貞	-12.334
得貴寵今忽淪賤	-12.334
故音先言	-12.334
救危國	-12.334
旗物尚白	-12.334
易政利民	-12.334
月有饋肉	-12.334
材謂可以充兵器	-12.334
桓公以車千	-12.334
桓公告諸侯	-12.334
殺君次自殺	-12.334
毋訪于佞毋蓄于	-12.334
然則兄弟無	-12.334
然賤者必思貴	-12.334
生理或	-12.334
百物乃收使民	-12.334
老女也	-12.334
聚而收之也	-12.334
能以待君命	-12.334
謂官饋	-12.334
謂百吏之官各論	-12.334
謂順時理軍	-12.334
象金性	-12.334
賞其所善則	-12.334
赶	-12.334
鄭長者有言	-12.334
鄰國之君俱不賢然	-12.334
錢三萬萬矣以	-12.334
不夭麑䴠	-12.334
不與同服者	-12.334
且以右手自承	-12.334
事不給故本事不得立	-12.334
五殖五殖之狀甚澤以䟽離	-12.334
人在位	-12.334
人貴之賢人賤之今則賢者之好禮樂如	-12.334
動於君故君亦聽之	-12.334
勸而不怠故能起本也	-12.334
同族者共家	-12.334
君之竒邪能有革化	-12.334
國富財故	-12.334
士庶人毋專棄妻	-12.334
天下故天下可	-12.334
威制共	-12.334
崇侯惡來知	-12.334
必苞苴財貨好遺	-12.334
愛刑之不足以	-12.334
故曰生之徒	-12.334
於國無勞者	-12.334
於家故國貧	-12.334
於父母知子	-12.334
曽從子	-12.334
毋貯粟毋	-12.334
比干子胥知	-12.334
為言勢者	-12.334
無不耀無不知故明於日月察	-12.334
無若於父母故以言焉	-12.334
王之惡天下故天下可離故貨之不足以	-12.334
發不意	-12.334
百夫無長	-12.334
粟常人賤之賢者貴之如常人之敬珠玉	-12.334
罪故姦	-12.334
若此者可	-12.334
若能行上事春則	-12.334
虞慶曰不然	-12.334
見其可說之	-12.334
言夭傷之	-12.334
言美者能以言色淫	-12.334
言近者恃	-12.334
謂置掌	-12.334
證見其不可惡之	-12.334
趾若有常處則不請也	-12.334
鄙輸貨故貧	-12.334
隨母食者	-12.334
饒若此者	-12.334
鷇	-12.334
麑鹿子也	-12.334
爲可耳桓公曰行事奈何管子對曰請	-12.3341
隍	-12.3341
頴	-12.3341
禮許私愛雖驩之	-12.3341
言嫡子爵位雖	-12.3341
事其所利則	-12.3341
去之而亂臨之而殆則後	-12.3341
圓而不滯必	-12.3341
娣	-12.3341
居其所樂則	-12.3341
必陳而請之也	-12.3341
禮私愛驩勢不	-12.3341
臣主同勢則俱奮威權故刑罰大	-12.3341
一曰視其所愛以分其威	-12.3341
上唯受要	-12.3341
又當量	-12.3341
所爲旣不合理	-12.3341
所與臣為信	-12.3341
方而有常故	-12.3341
方謂臣道也	-12.3341
此之謂老老所謂慈	-12.3341
深而迹	-12.3341
珪璧之屬也又必合其瑞以考之也	-12.3341
者必暢故和	-12.3341
謂備具	-12.3341
謂計謀可	-12.3341
一耜一銚	-12.3341
上二子無征月有饋肉九十	-12.3341
上盡家無征日有酒肉死上共棺	-12.3341
主之髙行也慈者父母之髙行也忠者臣	-12.3341
之鹽一日二百鍾十日二千鍾一月六	-12.3341
事非其時	-12.3341
人籍錢三十	-12.3341
以心藏心故	-12.3341
以養老之	-12.3341
公曰㑹之道奈何曰諸侯無專立妾以	-12.3341
兵曹劌之	-12.3341
其將盡之	-12.3341
句如前燭之法矩法也	-12.3341
囂	-12.3341
大鋤謂之	-12.3341
席則當問其	-12.3341
德則神歆也	-12.3341
心中又有心	-12.3341
心則度量可	-12.3341
承取火也	-12.3341
方行而施九惠之	-12.3341
曹劌亦懐	-12.3341
果與之遇莊公自懐	-12.3341
水故治濕	-12.3341
治積則昌暴虐積則亡	-12.3341
禮養老者	-12.3341
稺	-12.3341
立故國亂	-12.3341
統百吏之	-12.3341
罰其所惡則	-12.3341
者無婦征四	-12.3341
聖王本厚民生審知禍福之所生是故	-12.3341
若俱賢則不可得	-12.3341
謂心中所	-12.3341
謂設祭以顯	-12.3341
銚羊昭反	-12.3341
開國以納之也	-12.3341
主不能然故以	-12.3341
主危主也	-12.3341
以市人不	-12.3341
侈謂饒多也末事不饒多	-12.3341
供上之役也	-12.3341
保全其生	-12.3341
其明而理	-12.3341
凡民之生也必以正	-12.3341
刑止刑以	-12.3341
則不然不知親	-12.3341
取故鄙人不虚與故也	-12.3341
叙鈞	-12.3341
善農者能多致市利則自	-12.3341
左手舉	-12.3341
必勝殘息誅然	-12.3341
所害故危	-12.3341
故人皆反於朴素今	-12.3341
故貨刑	-12.3341
日則火烽故勝火	-12.3341
時不一半星辰序言其星	-12.3341
本事不得立	-12.3341
營而伐	-12.3341
珠生於水	-12.3341
百姓百姓勞	-12.3341
知盡入於市	-12.3341
繁茂而不凋枯也	-12.3341
苗當以	-12.3341
謂上主中	-12.3341
謂臣勤力役用	-12.3341
敘	-12.3343
奚時得	-12.3343
至誠哀矜	-12.3343
以棘刺之端為母猴	-12.3343
天下於益	-12.3343
為發運判官患官舟多	-12.3343
破釘鞠之數	-12.3343
筋骨	-12.3343
之火春時之井又	-12.3343
周身若褐炙故曰鑐	-12.3343
四時易火至春則取榆	-12.3343
復杼之以易其水凡此皆去時滋長之毒	-12.3343
所以屬親戚也	-12.3343
推引銚耨以當	-12.3343
殺畜生毋拊	-12.3343
熯謂以火乾也	-12.3343
燒之於新造之室以禳祓	-12.3343
相召謂因此	-12.3343
習農則	-12.3343
耨者必推引	-12.3343
舉春祭塞乆禱以魚	-12.3343
異必須行	-12.3343
䕃	-12.3343
不得與之並倫也	-12.3343
内則本務外則	-12.3343
可也餘子之勢終	-12.3343
敦土而不遷	-12.3343
日損故復小	-12.3343
未出境	-12.3343
民亦務本而去	-12.3343
且豐多刑豐而又妄振非刻	-12.3343
人太流蕩	-12.3343
兼而一之	-12.3343
四正謂君臣	-12.3343
有四竅下	-12.3343
群吏之	-12.3343
言失任臣之理	-12.3343
上尊而民順財厚而	-12.3343
也是以中外不通讒慝不生婦言不及官	-12.3343
人篤於農君子行於禮則上尊而民順小	-12.3343
便僻者不能諂君以得	-12.3343
問老者何所欲求訪	-12.3343
士事也官各謀其職事	-12.3343
妖蠱人主遂行	-12.3343
守道第二十六	-12.3343
意故曰不能食其意也	-12.3343
所請旣從外資	-12.3343
明法故曰明府之法瑞君	-12.3343
未及此論也	-12.3343
疑得民之道也	-12.3343
篤於農	-12.3343
襲入也謂狡	-12.3343
觀行第二十四	-12.3343
謀之泄也狡婦襲主之請而資	-12.3343
財厚而備足	-12.3343
足四者備體	-12.3343
霸國率諸侯	-12.3343
㑹謂考合其	-12.3343
一一攝	-12.3343
一國而有三千萬人矣	-12.3343
下以焚也	-12.3343
主得制者	-12.3343
五千四百鍾之鹽而籍	-12.3343
人之道脩古而	-12.3343
人君無官兼統衆	-12.3343
令容蒸然燭者	-12.3343
以貪名加	-12.3343
伸謂放恣也	-12.3343
入為王泣曰	-12.3343
入而行化	-12.3343
出常見半至於次序有司以	-12.3343
刑兹無赦人不敢犯故曰以有	-12.3343
刑則繼晝之	-12.3343
又諌曰	-12.3343
句謂著燭處言居燭於	-12.3343
名故皆設備	-12.3343
君之力也又	-12.3343
君卑臣者其計	-12.3343
君心進退所	-12.3343
君必不去魯	-12.3343
君臣之義而官論其	-12.3343
士民有子子有	-12.3343
大邪不生	-12.3343
天地之行唯	-12.3343
夫天地一險一易若鼓之有揨	-12.3343
如以予人	-12.3343
嫡威重則兄弟	-12.3343
子之大重	-12.3343
季月十八日屬土位	-12.3343
得不及時也	-12.3343
御製讀韓非子	-12.3343
提衡而立	-12.3343
日掌陽月掌隂星掌和陽	-12.3343
明設上四法	-12.3343
有善言可玩故	-12.3343
服白味辛	-12.3343
枉法行事	-12.3343
櫛謂燭盡察	-12.3343
殿中侍御史時	-12.3343
無刑若此者其法簡易而	-12.3343
無愛敬	-12.3343
犀車良馬	-12.3343
百官識非	-12.3343
筴以計所	-12.3343
管仲走君曹劌抽	-12.3343
考由為政	-12.3343
者盡家無征五	-12.3343
而制難以王矣	-12.3343
而言曰齊	-12.3343
聞故同於雷	-12.3343
至仁感物	-12.3343
芒謂芒然不曉識	-12.3343
言心亦藏	-12.3343
計度而知之也	-12.3343
設法有當	-12.3343
詭禁所	-12.3343
謂有違非	-12.3343
財者不如無奪時如以予人食者不如	-12.3343
近乃更以燭	-12.3343
非欲使親君也但令	-12.3343
非齊國之利也桓公不	-12.3343
驗伍偶相與俱得其	-12.3343
黒實朱跗	-12.3343
䏻制人人亦不䏻制	-12.3343
一視牘而辨之	-12.3343
下尚校	-12.3343
不求茍生	-12.3343
不難奪子而行天下者必不	-12.3343
中無主	-12.3343
之本則士	-12.3343
之物因方	-12.3343
之穿渠	-12.3343
之陽以向	-12.3343
事無常而法令申不	-12.3343
備之則所求必得	-12.3343
傷損也	-12.3343
免減等	-12.3343
入朝馬蹄踐霤	-12.3343
其所備具	-12.3343
刑法也君則役	-12.3343
則令纔	-12.3343
則器械備具也	-12.3343
則民傷其所惡	-12.3343
則民安其所樂	-12.3343
反也其物莫	-12.3343
取人乎失之	-12.3343
可謂務本之始	-12.3343
君人者莫不有餘財	-12.3343
執所營之	-12.3343
士則死節	-12.3343
大事必慕和其衆天地	-12.3343
學不學	-12.3343
廷理斬其輈戮其御	-12.3343
引其綱	-12.3343
徳無舍	-12.3343
心以出法制也	-12.3343
忠義之名	-12.3343
意則士樂	-12.3343
慕和其衆以修天地之從人先生之天地	-12.3343
所惡皆反於法故自傷	-12.3343
推已以議物	-12.3343
昬將舉火執燭隅坐錯	-12.3343
是心天地又見其	-12.3343
有此道也	-12.3343
業若此者	-12.3343
榮諲	-12.3343
狙	-12.3343
狙伺也謂	-12.3343
玉為寳	-12.3343
癘殺也	-12.3343
知一時之權又	-12.3343
福助者也	-12.3343
立言非而不	-12.3343
竒謀之舉發彼不	-12.3343
章功勞之	-12.3343
筋力也	-12.3343
經言六言是而不	-12.3343
者衆物之	-12.3343
而不為變者可謂	-12.3343
背死君而事其讎	-12.3343
見必行之道	-12.3343
誠則敵不敢校也	-12.3343
賤有實敬無用則人可刑	-12.3343
越法行事謂之侵所好	-12.3343
足猶擁也春	-12.3343
陽收其身	-12.3343
順之形聖人則發	-12.3343
饋運	-12.3343
高而不崩	-12.3343
􁃅	-12.3343
别本注	-12.3343
葱	-12.3344
雕文刻鏤	-12.3344
與地同極	-12.3344
鑒於大	-12.3345
而後彼官亦	-12.3345
三孤者盡家無征掌孤數行問之必知其	-12.3345
不勸而自勵	-12.3345
之下則堤之命之曰金城樹以荆棘上相	-12.3345
之交此先王所以明德圉姦昭公威私也	-12.3345
人太迂曲不	-12.3345
則迂屈之	-12.3345
反其侵地正其封	-12.3345
吾親也公曰親之奈何管子對曰審吾疆	-12.3345
子不令逐	-12.3345
界毋受其貨財而美為皮幣以極聘	-12.3345
紀亂故復	-12.3345
不成術而餘	-12.3345
十日二千萬一月六千萬萬	-12.3345
各理其職	-12.3345
君子行於禮	-12.3345
和故讒人無所	-12.3345
官曹也立府必有	-12.3345
州州十	-12.3345
故惡還及身	-12.3345
故能勝任	-12.3345
方有圓也	-12.3345
明乃哲哲乃明奮乃苓明哲乃大行	-12.3345
葆今之	-12.3345
術術十	-12.3345
計二百萬合	-12.3345
謂以何國為	-12.3345
路寢前有三階要	-12.3345
都都十	-12.3345
里里十	-12.3345
介蟲北方	-12.3345
使之延譽故	-12.3345
其錢計一月	-12.3345
則臣下恣行而國權大傾不	-12.3345
前後相排則	-12.3345
善猶入芝蘭之室不知	-12.3345
官故曰兼而一之	-12.3345
尚未至	-12.3345
巡曲也	-12.3345
故誅不息也	-12.3345
數以千萬人如九百萬人之數則	-12.3345
既有貪忌之	-12.3345
春當耕闢無	-12.3345
末以殺之反以雕	-12.3345
比其常籍則當	-12.3345
秋多霖雨	-12.3345
籍之數而	-12.3345
緩誅宥死人則	-12.3345
習俗而善不知善之	-12.3345
者其何如而可管仲對曰夷吾之所聞能	-12.3345
而女以美衣錦繡綦組相稺也謂之逆萬	-12.3345
行善持名	-12.3345
誅若是而	-12.3345
謂始有國	-12.3345
輕而犯之故曰	-12.3345
雜篇五入國四旬五行九惠之	-12.3345
三百六十	-12.3345
不因天時而	-12.3345
乃違之故其事不	-12.3345
之形此則先天而政天	-12.3345
之說又恐	-12.3345
也謂用此	-12.3345
人事不起勿	-12.3345
又知一事不足以兼衆事故	-12.3345
同故取也	-12.3345
天時不作勿	-12.3345
心任九竅	-12.3345
必問於賢者而後行之	-12.3345
必從而伺之	-12.3345
必有一斤一鋸一	-12.3345
恐衆怨而殺之	-12.3345
成則被誅戮受其刑罪也	-12.3345
故明塞也	-12.3345
敵不能量	-12.3345
日而今七十二日而畢者則	-12.3345
期賞而必故曰信	-12.3345
欘	-12.3345
法備則	-12.3345
用兵便利又	-12.3345
當兩階之	-12.3345
知一言不可	-12.3345
私智則營	-12.3345
綱山於有牢	-12.3345
繈	-12.3345
能親與大	-12.3345
言三才之道幽䆳深	-12.3345
謂合考書義也	-12.3345
鈔深逺也所	-12.3345
慕容彦超	-12.3345
之尊勢而明信之	-12.3346
隕	-12.3346
則力多力多	-12.3346
乆禱而未報	-12.3346
之初生也	-12.3346
平陽君	-12.3346
患而不勞也	-12.3346
掌和和	-12.3346
時召親賔	-12.3346
楊氏與	-12.3346
耕農之不怠若	-12.3346
饕	-12.3346
怍謂變	-12.3346
攻戰之不退也	-12.3346
鬼魅	-12.3346
之郭郭外	-12.3346
以號召收求天下之賢士飾玩好使出周	-12.3346
伐何主	-12.3346
傷事而妨	-12.3346
可乎管子對曰未可	-12.3346
大臣兩重	-12.3346
謂手足也六	-12.3346
財幣足之使出周	-12.3346
趮	-12.3346
歸地之利内	-12.3346
穡鈎也謂荆棘	-12.3346
謂之窕貨	-12.3346
何行管仲對曰君教諸侯	-12.3346
動發威嚴	-12.3346
古者有二言牆有耳伏冦在側牆有耳者	-12.3346
各權則其威	-12.3346
地數充	-12.3346
情故理	-12.3346
承瀷而	-12.3346
敵國之所愛	-12.3346
桓公曰甲兵大足矣吾欲	-12.3346
民愚則智可以	-12.3346
行則流通之	-12.3346
謀外泄之謂也伏冦在側者	-12.3346
不疑不疑之謂勇	-12.3346
乃分别其地	-12.3346
之以涯其	-12.3346
之宜故湏問之	-12.3346
也皆早春而生也	-12.3346
以順年之四時	-12.3346
俈帝俈也言二帝之	-12.3346
倚排也	-12.3346
全其素質	-12.3346
凡諸侯之臣有	-12.3346
制之斷之	-12.3346
刼江賊	-12.3346
則始可以	-12.3346
功誅罪	-12.3346
動人意	-12.3346
博於糧	-12.3346
又問管仲曰何行管仲	-12.3346
司聲之官隨君所好不	-12.3346
孤竹國名	-12.3346
尊敬社稷者	-12.3346
張友仁	-12.3346
得意於天下在	-12.3346
恃人之為吾善也	-12.3346
或遇水灾	-12.3346
戚親也貴	-12.3346
故士莫敢	-12.3346
斂出師	-12.3346
昔者桓公問管仲曰寡人請問度地形而	-12.3346
時比屋可封美俱在	-12.3346
曰雍季之對不當文公之問	-12.3346
本無妖	-12.3346
杜猶衝也	-12.3346
桓公曰善哉正言第三十四	-12.3346
楯之堅	-12.3346
欲而供	-12.3346
混同也	-12.3346
渠彌於有陼	-12.3346
滔謂充也赶謂	-12.3346
為其所長	-12.3346
為天子伐楚	-12.3346
為長夜	-12.3346
無報明厚	-12.3346
用事者過矣	-12.3346
異方所用各有不	-12.3346
疾疫當此時也民富且驕牧民者厚收善	-12.3346
發舉兵機誠得其	-12.3346
百八十鍾十日	-12.3346
監押	-12.3346
矣今則不然其	-12.3346
神不淫於外	-12.3346
管子對曰以魯為主反其侵地常	-12.3346
細過不失	-12.3346
經綸之理	-12.3346
而况借於	-12.3346
聖王之禁也聖王之身治	-12.3346
聽其理亂之音也	-12.3346
能若此亦言非有出	-12.3346
臨其位危亡可	-12.3346
荆魏不能獨立	-12.3346
蘇其兵中原	-12.3346
蠻夷之人不敢犯賞慶信必則有功者勸	-12.3346
行事善者以重幣賀之從列士以下有善	-12.3346
補之費	-12.3346
觸也言水行	-12.3346
諸侯兵之不足當引其事之闕	-12.3346
贖猶去也	-12.3346
逰肇	-12.3346
逺事情	-12.3346
㕘驗而	-12.3346
不戰乎	-12.3346
不遜身尚	-12.3346
之人但辯一言察一理攻一事如	-12.3346
之立國城必依山	-12.3346
以救中國	-12.3346
以為綱紀而有牢固	-12.3346
兼羣言故博	-12.3346
則象法化決	-12.3346
古伍字謂偶合也言雖	-12.3346
合也稽考也	-12.3346
國故得勝	-12.3346
大臣太重	-12.3346
子常用	-12.3346
度時興化莫若重珠玉以	-12.3346
廢非賞	-12.3346
撿	-12.3346
敵不䏻量	-12.3346
有謀慮之患無别	-12.3346
為魏將而攻中山	-12.3346
無所留者	-12.3346
睹丙子火行御天子	-12.3346
紂為象箸	-12.3346
者唯可以示一曲之說未足以廣	-12.3346
者在新故見未形也	-12.3346
聖人由此知言之不可兼也故博	-12.3346
背公故多亂	-12.3346
見象箸	-12.3346
言之意以告	-12.3346
謂上患而不勞也	-12.3346
貨而匱民	-12.3346
錦衣九重	-12.3346
雛	-12.3346
菱	-12.3347
兵車之㑹六	-12.3348
濫謂泛冰於水以	-12.3348
士八千人奉之以車馬衣裘多其資	-12.3348
上下之所貴	-12.3348
上下無邪矣故曰君人者制仁臣人者守	-12.3348
之城城外	-12.3348
二十三地數第七十七揆度第七十八國	-12.3348
君所保全而守	-12.3348
無窮之利人君之	-12.3348
福及孫子此謂人命萬	-12.3348
謂之振也	-12.3348
凍寒	-12.3348
山戎顧問管仲曰	-12.3348
征伐之主也	-12.3348
控謂頓也言	-12.3348
水頓挫而却	-12.3348
為人君者能逺讒諂廢比黨	-12.3348
貨交則人	-12.3348
通人情以	-12.3348
下皆服其法度也	-12.3348
之子其狀類龜假言此龜東海	-12.3348
也商計也對其	-12.3348
也故失生之國惡也	-12.3348
事令人為之而不自	-12.3348
事奉職而不忘	-12.3348
事旣周	-12.3348
五帝三王俱曰	-12.3348
人淫放	-12.3348
人能因時來輔成	-12.3348
以主為制令	-12.3348
使海於有弊	-12.3348
偶偶對	-12.3348
兩引證前數	-12.3348
其謂國相則功	-12.3348
具下事故	-12.3348
功不有桀紂之	-12.3348
勁銳搏	-12.3348
動則自怨而蕩	-12.3348
勞法獲美	-12.3348
千八百鍾	-12.3348
千萬人而	-12.3348
君利謂之漁利因	-12.3348
善可稱故弱也	-12.3348
善氣迎人親如弟兄惡氣迎人害於戈兵	-12.3348
因天時而植者也	-12.3348
因彼所	-12.3348
在山左或	-12.3348
天下之人皆歸其	-12.3348
天材謂五榖之屬	-12.3348
失則當受罰故	-12.3348
子耳東海之子者海神之子也	-12.3348
度地第五十七	-12.3348
待其享祭鬼神之	-12.3348
得其所故無怨望也	-12.3348
復壯者謂之	-12.3348
必令百官識非公之惠而不敢受	-12.3348
悴矣此失生德	-12.3348
或在顔色	-12.3348
所利而以	-12.3348
操名從人無不	-12.3348
於不傾之地	-12.3348
於海使有弊	-12.3348
日惡風且熱旱	-12.3348
是故聖王日食則	-12.3348
此嘖室之事也請以東郭牙	-12.3348
漫而姦人多	-12.3348
物皆枯	-12.3348
皆還相交割文籍在焉	-12.3348
相也陳功而加之以德論勞而昭之以法	-12.3348
知事之不可兼也故名	-12.3348
禮又不能明也	-12.3348
立其志	-12.3348
落渠之	-12.3348
行搏銳	-12.3348
行藏五變	-12.3348
衛為主反其侵地吉臺原姑與	-12.3348
言其處深厚岡	-12.3348
鳬菱	-12.3348
不行所以失勢也	-12.3348
人事而起	-12.3348
伏利謂貨利	-12.3348
右主問心不	-12.3348
天地有尊卑	-12.3348
天星有虧敗也	-12.3348
彀謂射質棲皮者也感謂	-12.3348
徴應無	-12.3348
必辨於天地之道然	-12.3348
恩威之序故	-12.3348
所思在	-12.3348
於事不合法	-12.3348
有俗國有法食飲不同味衣服異采	-12.3348
未形者新事将起所視	-12.3348
深得其妙有應於心者也	-12.3348
無有今鍼之重加一也三十鍼一人之籍	-12.3348
簒殺凶逆之節	-12.3348
而制法言能	-12.3348
言初始謀慮而憂患者乃	-12.3348
謂復朝	-12.3348
邊竟安	-12.3348
金成數九金氣和君	-12.3348
鍼之重每十分加一分	-12.3348
盥漱	-12.3348
鯀	-12.3348
而不自知也	-12.3349
蟲有蚘	-12.3349
不可不慎也	-12.3349
人從上之	-12.3349
内搆黨與外	-12.3349
怍	-12.3349
熱熱故	-12.3349
其傷於本事而妨於	-12.3349
冬之冰夏之火皆	-12.3349
夏日之不煬非愛火也	-12.3349
夫明王不美宫室非喜小也不聽	-12.3349
姑待之	-12.3349
嫡子者所以	-12.3349
情故姦謀	-12.3349
我於魏	-12.3349
比所破纔十	-12.3349
處楚商容處宋季勞處魯	-12.3349
非惡樂也	-12.3349
戒慎之心	-12.3349
百姓化於下	-12.3349
耳聽有	-12.3349
酤	-12.3349
人散故復寡	-12.3349
八元何犿註	-12.3349
十二明劉績撰	-12.3349
大揆度儀若覺卧若晦明	-12.3349
汎拚謂汎	-12.3349
能致功名者	-12.3349
陷於刑	-12.3349
公既行之又問管仲曰何行管仲曰隰朋	-12.3349
又譽其矛曰吾矛之利	-12.3349
向背是其	-12.3349
心有向背	-12.3349
怖	-12.3349
戒來故禍不萌通而民無患咎桓公曰請	-12.3349
於其君慮殺其主謂之公過諸公過之家	-12.3349
時也利也出	-12.3349
為内應	-12.3349
用之尊勢而明信之也	-12.3349
齊西之土令胥	-12.3349
䣑	-12.3349
上五者皆生財之術故	-12.3349
上尊而不侵	-12.3349
不如止而不盟也	-12.3349
不敢以貴	-12.3349
不為己者必害	-12.3349
不能易故聖也	-12.3349
主不好本	-12.3349
之則一女之籍得三十鍼	-12.3349
之此人能以正事	-12.3349
之渠以注	-12.3349
之發故愚	-12.3349
之迹莫不掩	-12.3349
之雖有冦賊	-12.3349
九竅自治	-12.3349
事安處蔑	-12.3349
事除其禍	-12.3349
亦猛狗也	-12.3349
人之動必闇知	-12.3349
人之所從出故非在人	-12.3349
人臣黨而成羣	-12.3349
以少喻多	-12.3349
以成新道定國安家然後可	-12.3349
以斷是非	-12.3349
佼謂佷	-12.3349
使匠石	-12.3349
偏故内怨起之	-12.3349
傳天下於舜	-12.3349
先王不約束不結紐約束則	-12.3349
公乗無正	-12.3349
公子於四隣	-12.3349
其君若父	-12.3349
其國都或	-12.3349
其路無由也	-12.3349
况於人乎	-12.3349
制禄亦與	-12.3349
動人意人意旣	-12.3349
匿如此則自然端直欲	-12.3349
去府主乃	-12.3349
又施其	-12.3349
古之聽獄者求所以生之	-12.3349
古淳而今澆古質	-12.3349
可食寒不可衣然時共貴之君若	-12.3349
君今請不盟從此即退可也	-12.3349
君而泣曰	-12.3349
君臣上下貴賤皆從法此謂	-12.3349
告齊齊	-12.3349
問管仲曰將何行管仲	-12.3349
善下小國則取小國	-12.3349
國自有其本	-12.3349
塗阤此	-12.3349
夙興夜寐衣帶必	-12.3349
多謂之蘇功蘇生息也	-12.3349
大臣為猛狗	-12.3349
失相輔可	-12.3349
奉身自	-12.3349
姓生也言道立人之生	-12.3349
孟獻伯	-12.3349
孰以天下而傳之於匹夫乎堯不聴	-12.3349
安能䝉死亡	-12.3349
宋榮之	-12.3349
左右出則為勢重	-12.3349
巧而㨗	-12.3349
彌亘於河	-12.3349
彌精心之	-12.3349
往重報輕所謂大國	-12.3349
待古之王良	-12.3349
待粱肉	-12.3349
後可以加之政也	-12.3349
忌怨也諸侯欲以結盟致怨於	-12.3349
愚者之所易	-12.3349
成大勝	-12.3349
按此註多非當依後	-12.3349
提裝	-12.3349
搖自怨而	-12.3349
擅禁明為己者必利	-12.3349
收利於民入則比周	-12.3349
改先者之所圖今不當有進	-12.3349
故可以加之政	-12.3349
教歌者	-12.3349
新道謂度時	-12.3349
方至可以出	-12.3349
施功而不	-12.3349
明之然後可	-12.3349
明君故曰非一	-12.3349
春申君	-12.3349
是果知	-12.3349
時云收	-12.3349
智者之所難	-12.3349
曰教住莫住	-12.3349
曰輸財所以納財於民	-12.3349
曲則衝而觸有所毁傷	-12.3349
月人三十錢之籍	-12.3349
有司執事者咸以厥	-12.3349
有束故可	-12.3349
有盛衰	-12.3349
有紐故可	-12.3349
有馬軛家車	-12.3349
朝益暮習小心翼翼一此不	-12.3349
末生謂以末	-12.3349
本謂道	-12.3349
東海之子	-12.3349
柯	-12.3349
桓公許諾魯人請盟曰魯小國也固不帶	-12.3349
椀	-12.3349
椽燥	-12.3349
樂主和	-12.3349
樹之即生	-12.3349
此謂先之以政飄風暴雨	-12.3349
民傳妖法	-12.3349
民害涸旱	-12.3349
求於報也	-12.3349
泉逾而前瀷隨而後欲其流不	-12.3349
溉灌者	-12.3349
漢慕容彦超	-12.3349
災成矣方生之	-12.3349
無境外之交	-12.3349
無若我何	-12.3349
爲人致利除害	-12.3349
片言可以折獄	-12.3349
狗猛	-12.3349
璞玉	-12.3349
用彌明故比心於金中	-12.3349
男女之畜有内外	-12.3349
異託外深附於諸侯	-12.3349
當慰問之	-12.3349
皆以時代為次	-12.3349
盡至溪谷小	-12.3349
相凌故亂也	-12.3349
社䑕也故人臣執柄	-12.3349
私交則不公而	-12.3349
空若環之中所謂齊	-12.3349
立仁賢	-12.3349
箕子怖以為象箸	-12.3349
納正士之言著	-12.3349
罪也明君者閉其門塞其塗弇其迹使民	-12.3349
罰必行無妄求免罪也	-12.3349
義者將立民之所	-12.3349
者以告齊齊當發卒以助之也	-12.3349
而復計度所	-12.3349
而擇地形之肥饒者	-12.3349
而食者代人入役因得察君今	-12.3349
而養足	-12.3349
而齕之此	-12.3349
臣乘君	-12.3349
臣有病者君	-12.3349
與十二始節賦事十二始	-12.3349
苖賁皇	-12.3349
若以交兵聞於諸侯	-12.3349
茆門廷理曰	-12.3349
蕘之言賢聖	-12.3349
蛇喻人行藏	-12.3349
要而詳	-12.3349
見有失度量則	-12.3349
覺已必當來也	-12.3349
請以為大	-12.3349
諸侯服從如此	-12.3349
諸侯足食足兵	-12.3349
謂度時興化	-12.3349
謂於都内	-12.3349
財貨足用	-12.3349
贊茅	-12.3349
身務歸於上而心	-12.3349
辛祥	-12.3349
逆天舉事故	-12.3349
金性勁銳時	-12.3349
銀山及溝瀆	-12.3349
閉出非之門又塞生過之塗成罪	-12.3349
間主之情	-12.3349
雖萌芽而生然天地	-12.3349
髙下肥墝物有所	-12.3349
鹿皮報	-12.3349
謂順時	-12.335
淫非之地	-12.335
𤓰瓠葷菜百果	-12.335
為天下致利除害也	-12.3351
冰	-12.3351
證逮數百人獄連年不决詔取付御史臺	-12.3351
敬愼無忒	-12.3351
於身體不適便	-12.3351
求寒所謂濫	-12.3351
美衣麗服	-12.3351
藏於胷脅姦藏禍息故逺避	-12.3351
霜雪	-12.3351
無諫死之	-12.3351
者所以諷動之令歸齊也	-12.3351
見天聖	-12.3351
令此諸賢各處諸侯之國	-12.3351
後德明	-12.3351
二則力不齊故内衰也	-12.3351
其徳如此則九	-12.3351
明禮義倫等不踰雖有大夫	-12.3351
為泉原	-12.3351
獨出伏罪而怨不敢有幸亂心	-12.3351
信皆自任胷	-12.3351
君明相賢必從説	-12.3351
得天時下盡地利	-12.3351
改也改謂分别	-12.3351
故百家	-12.3351
斬孤竹	-12.3351
方肅殺故曰	-12.3351
曰宙也所陳之道既	-12.3351
樵	-12.3351
欲理荒人無得苛虐但使盡	-12.3351
毁譽必當	-12.3351
流故無諫死之	-12.3351
無思不服	-12.3351
給可令	-12.3351
通往古又合	-12.3351
非時利雖目視有餘不用	-12.3351
㭍	-12.3351
一方暗莫	-12.3351
不令相代彼亦知	-12.3351
不審察者常	-12.3351
不滿之流也	-12.3351
不脩其兵革故出入自	-12.3351
之可謂正士	-12.3351
之心則徴見於外不可隱匿之也	-12.3351
也牽家馬軛家車者幾何	-12.3351
也致所愛非民也致所重非爵禄也故不	-12.3351
交於驕暴則	-12.3351
人以惡氣懼己目見	-12.3351
令其次代之也	-12.3351
令諸侯親附	-12.3351
以知也其耕之不深芸之不謹地	-12.3351
伇	-12.3351
住什物	-12.3351
使人思之人所生	-12.3351
使臣不能受命	-12.3351
倍尊者乃取厥櫛遂出是去	-12.3351
儛	-12.3351
其報所以明厚	-12.3351
其理若何也	-12.3351
卒謂所當治水	-12.3351
又知刑	-12.3351
古字同	-12.3351
問一民有幾年之食也問兵車之計幾何	-12.3351
問焉賔胥無	-12.3351
寂泊不見	-12.3351
對曰公當召	-12.3351
山右及縁	-12.3351
州謂北	-12.3351
平盤者大盤也	-12.3351
幽州營州等	-12.3351
必刑賞信必	-12.3351
憎必害	-12.3351
懼而輸	-12.3351
政所行也遵而勿失故可以王也	-12.3351
故推令問	-12.3351
故敬能守禮也	-12.3351
故曰五化	-12.3351
故虚耗也	-12.3351
救齊北	-12.3351
教若流水也	-12.3351
桓公夫人文姜齊女也公將如齊與夫人	-12.3351
此五者謀功之道也管子	-12.3351
歸而脩於政不脩於兵革自圉辟人以過	-12.3351
氣反時	-12.3351
涵激也	-12.3351
深附於諸侯	-12.3351
潘溢者	-12.3351
澤然後建	-12.3351
為主反其侵地	-12.3351
無不由心	-12.3351
燒燭者有墮即	-12.3351
獨舉擅功	-12.3351
申謂陳	-12.3351
發舉可驚故	-12.3351
皆持其名而去於人則過惡日	-12.3351
知則理不	-12.3351
窮極矣	-12.3351
管仲曰君與地以汶	-12.3351
緒然燭	-12.3351
者至危不知禍	-12.3351
而感則身不敢造惡	-12.3351
聞人共畏之故	-12.3351
能審定者勝也	-12.3351
能操女工之事	-12.3351
能行正靜	-12.3351
至尚有慢易之辭	-12.3351
與失人同也	-12.3351
莫不闇化矣誠暢乎天地通於神明見姦	-12.3351
萌牙區别	-12.3351
葆謂所恃	-12.3351
蕩搖則	-12.3351
衆所驚也	-12.3351
行此五年可	-12.3351
裸	-12.3351
見上有過而非	-12.3351
見若銅	-12.3351
諸物由	-12.3351
謂綺繡之屬也	-12.3351
賊殺之曰非君也不類見公之足	-12.3351
賦税重	-12.3351
質主也能通於天	-12.3351
進公又問焉賔胥無對曰古之王者其君	-12.3351
道人情者可以為	-12.3351
遺人不求	-12.3351
𬒳兵之數	-12.3351
偕習以悉	-12.3351
坐長而百倍	-12.3351
託幽而威可載也	-12.3352
十六尺而至於泉	-12.3352
交兵聞於諸侯	-12.3352
執販茅	-12.3352
失生之國惡	-12.3352
不躬不親庶民不信	-12.3352
博聞多見	-12.3352
必先中和	-12.3352
思合中和	-12.3352
桀黠	-12.3352
狹坐之人見後	-12.3352
至者則當起	-12.3352
迅	-12.3352
俈堯	-12.3352
一匡天下九合諸侯	-12.3352
之章表旗幟旌異	-12.3352
以察彼則無	-12.3352
以通使諸侯	-12.3352
先從長	-12.3352
將與楚人戰彼衆我寡為之奈何	-12.3352
所以生息	-12.3352
故内得也	-12.3352
日掌賞賞	-12.3352
樸陋	-12.3352
歳之德也	-12.3352
發倉囷	-12.3352
百物之長	-12.3352
笋	-12.3352
能制之凡此皆以	-12.3352
謂繫屬	-12.3352
中秋毫為拙	-12.3352
五寸之的引十歩之逺非羿逄䝉不能必	-12.3352
先生乃坐出入恭敬如見賔客危坐	-12.3352
則以妄發	-12.3352
十四山權數第七十五山至數第七十六	-12.3352
水而拚之	-12.3352
而惡刑罰	-12.3352
謂陬隅	-12.3352
陬	-12.3352
隧	-12.3352
以盡忠於君君體有之以臨天下故能	-12.3352
好本則	-12.3352
植果木不若三土以十分之四	-12.3352
瘦	-12.3352
齊民食於力	-12.3352
下可平載行也	-12.3352
不可改也	-12.3352
不崩淵不	-12.3352
世智則力可以	-12.3352
人各懷二心心	-12.3352
今之天地即古	-12.3352
倫等不踰雖有	-12.3352
其用師必	-12.3352
其異者彼	-12.3352
則民富令順民心則威令行使民各	-12.3352
勢焉夫勢必因形而立	-12.3352
古往今	-12.3352
各主異位毋使讒人亂普而	-12.3352
國令隰朋理之	-12.3352
宙合第十一樞言第十二	-12.3352
寃更加辯究具得	-12.3352
岱	-12.3352
張式郎中	-12.3352
德者賢人所	-12.3352
徹盥器也	-12.3352
故形端者勢必	-12.3352
晉厲公	-12.3352
異當各	-12.3352
砥礪殺矢	-12.3352
肄	-12.3352
臆以理其事人人	-12.3352
自君以下其位	-12.3352
自天地以及萬物	-12.3352
處盛位天	-12.3352
諸人事莫不有形	-12.3352
謀始受其傭而中道被脅以行卒得免死	-12.3352
謂供先生	-12.3352
賔胥無堅强以良可	-12.3352
道者自然能	-12.3352
養桑麻育六畜	-12.3352
上之畜下不妄	-12.3352
不自曉故下通人情以問所	-12.3352
中宫徐	-12.3352
之是也是龜至寶而	-12.3352
之終不踐其國以侵之	-12.3352
也仲尼幾而取之與處乆而	-12.3352
争其數不勝也以	-12.3352
人之云亡邦國殄	-12.3352
今而帶	-12.3352
以其自養之餘應天子之	-12.3352
以察君也必是人者知吾謀也	-12.3352
以有餘補不足	-12.3352
侯諸侯許諾	-12.3352
制五家為軌軌有長	-12.3352
則事平理均也	-12.3352
則循義從令者審也上明下審上下同	-12.3352
則謀議審	-12.3352
前乃有執席而食	-12.3352
可知則其形可索也	-12.3352
各有其分也	-12.3352
[...]
