<unk>	0
<s>	0
</s>	0
。	-2.25574
,	-3.85401
故	-4.36988
者	-4.82662
▁	-4.8362
(	-4.93677
)	-4.96913
二	-5.01867
*	-5.12776
以	-5.24784
也	-5.29874
、	-5.33431
為	-5.34321
三	-5.34329
即	-5.42648
一	-5.44067
中	-5.49182
是	-5.5329
;	-5.64803
下	-5.65115
等	-5.65974
有	-5.66608
名	-5.688
之	-5.72086
謂	-5.77435
心	-5.77771
四	-5.81191
行	-5.81401
法	-5.81485
此	-5.82159
如	-5.82756
菩薩	-5.83484
於	-5.83875
無	-5.91166
明	-5.9942
而	-5.99919
說	-6.04609
言	-6.06544
佛	-6.0745
相	-6.11123
不	-6.11974
義	-6.15097
一切	-6.15144
若	-6.18398
得	-6.18848
。】「	-6.20502
生	-6.21188
後	-6.21318
。」【	-6.21526
智	-6.25405
皆	-6.27535
五	-6.27695
身	-6.28151
及	-6.28314
則	-6.32146
非	-6.33344
入	-6.33835
如來	-6.37668
眾生	-6.37941
時	-6.4132
成	-6.4141
見	-6.41743
亦	-6.42664
其	-6.43537
云	-6.43694
至	-6.45749
彼	-6.4741
初	-6.47836
因	-6.48458
又	-6.51101
如是	-6.55573
十	-6.56837
住	-6.57481
知	-6.59278
大	-6.60466
同	-6.62558
六	-6.62974
諸	-6.64998
上	-6.66138
自	-6.67666
起	-6.6796
觀	-6.70221
前	-6.72379
依	-6.73354
處	-6.7337
門	-6.73432
人	-6.73539
與	-6.74776
疏	-6.74831
能	-6.75114
經	-6.75966
所	-6.76093
然	-6.76422
令	-6.78741
或	-6.78785
清淨	-6.79104
七	-6.79295
現	-6.79774
分	-6.80184
事	-6.8134
從	-6.8137
果	-6.81442
顯	-6.81694
今	-6.83981
意	-6.84386
通	-6.85236
佛子	-6.85256
修	-6.87419
多	-6.8794
無量	-6.88479
問	-6.88652
八	-6.8908
次	-6.90575
道	-6.91042
淨	-6.92419
善	-6.93452
釋	-6.94683
由	-6.94913
!	-6.95535
即是	-6.95779
在	-6.95804
喻	-6.95989
法界	-6.96169
離	-6.9741
出	-6.98215
眾	-7.00483
自在	-7.00653
常	-7.01112
體	-7.01624
性	-7.019
業	-7.01911
具	-7.0205
教	-7.02274
故云	-7.03369
願	-7.03479
地	-7.03583
我	-7.037
應	-7.05631
九	-7.06476
種種	-7.06978
別	-7.07406
德	-7.07719
作	-7.08244
答	-7.08704
方便	-7.09274
諸佛	-7.09369
欲	-7.11065
巳	-7.11075
▁二	-7.115
海	-7.11903
攝	-7.11907
莊嚴	-7.12681
定	-7.14235
隨	-7.14423
用	-7.15316
廣	-7.15819
空	-7.16372
已	-7.16594
第二	-7.17277
本	-7.17472
勝	-7.17843
緣	-7.17953
論	-7.1825
名為	-7.19133
力	-7.20066
色	-7.2018
先	-7.20831
解	-7.22137
盡	-7.22261
三昧	-7.23113
但	-7.23206
證	-7.23603
念	-7.23612
當	-7.23627
約	-7.23672
唯	-7.23819
功德	-7.24202
雖	-7.24882
成就	-7.25007
悉	-7.26075
。「	-7.26716
▁初	-7.26788
分別	-7.28228
無礙	-7.28378
受	-7.28509
世界	-7.29044
乃至	-7.30052
:	-7.30917
差別	-7.31223
世間	-7.31958
理	-7.32061
普	-7.32063
既	-7.32723
文	-7.32769
聞	-7.32954
智慧	-7.33146
正	-7.33362
難	-7.33719
滅	-7.34144
樂	-7.35416
光	-7.35532
是故	-7.36163
餘	-7.36548
天	-7.36706
境	-7.38526
總	-7.39969
慧	-7.40032
光明	-7.40032
過	-7.40419
化	-7.40467
王	-7.40532
法門	-7.41186
苦	-7.41662
所謂	-7.42154
無盡	-7.42192
平等	-7.42571
涅槃	-7.42873
內	-7.43608
一切眾生	-7.43808
?	-7.4389
第三	-7.44079
施	-7.44264
解脫	-7.45063
耳	-7.45319
迴向	-7.45604
復	-7.45684
異	-7.46016
耶	-7.46091
善男子	-7.46206
求	-7.46394
會	-7.46998
具足	-7.47066
取	-7.47082
示	-7.4744
修行	-7.48089
廣大	-7.48392
位	-7.49023
合	-7.49114
想	-7.5111
爾時	-7.51357
對	-7.51408
藏	-7.51554
信	-7.52954
境界	-7.53812
究竟	-7.55047
發	-7.55431
斷	-7.56129
善根	-7.56158
真	-7.56533
煩惱	-7.5681
不同	-7.5694
立	-7.57055
數	-7.57263
一一	-7.57374
識	-7.5739
無有	-7.57712
轉	-7.57878
曰	-7.58296
寶	-7.58723
持	-7.58956
等者	-7.60556
可	-7.61205
障	-7.62062
根	-7.62141
無邊	-7.62929
云何	-7.63201
各	-7.64356
可知	-7.64384
益	-7.65788
方	-7.66691
外	-7.66949
覺	-7.67033
深	-7.67401
雲	-7.67685
捨	-7.67822
切	-7.6853
實	-7.69083
因果	-7.69124
表	-7.69878
▁三	-7.7039
語	-7.70621
十方	-7.70923
就	-7.71546
普賢	-7.71869
音	-7.72083
來	-7.72104
照	-7.72603
俱	-7.73375
不可說	-7.73464
圓滿	-7.73567
順	-7.73711
水	-7.74276
遍	-7.75074
辨	-7.75873
第四	-7.76333
舉	-7.7642
」	-7.76652
引	-7.77346
因緣	-7.77647
種	-7.7766
劫	-7.7766
開	-7.78361
所有	-7.79713
滿	-7.79794
戒	-7.81126
菩提	-7.81375
未	-7.818
妙	-7.82175
故名	-7.82416
生死	-7.82421
世	-7.82789
他	-7.8381
十地	-7.84062
示現	-7.84152
經云	-7.8468
聲	-7.84911
或名	-7.85218
法身	-7.85466
字	-7.85498
結	-7.85673
諸法	-7.85676
第一	-7.864
圓	-7.86584
除	-7.86858
於中	-7.87677
界	-7.87845
小	-7.88501
華	-7.88512
何	-7.88903
今初	-7.89346
鈔	-7.90466
說法	-7.90833
一切諸佛	-7.91282
集	-7.91619
無明	-7.91978
三乘	-7.92188
:「	-7.92291
隨順	-7.92413
供養	-7.92438
安住	-7.92629
惡	-7.92937
主	-7.92939
剎	-7.93219
破	-7.93299
了	-7.93364
神	-7.94637
何以故	-7.94804
加	-7.94983
次第	-7.95019
三世	-7.95662
所以	-7.95758
釋曰	-7.95916
乃	-7.95941
重	-7.96006
大悲	-7.9628
報	-7.97211
宗	-7.97363
不能	-7.97516
山	-7.98798
矣	-7.99657
香	-7.999
物	-8.0018
▁南無	-8.00604
大乘	-8.00963
品	-8.01043
便	-8.01243
一切法	-8.01321
忍	-8.01413
乘	-8.01595
一乘	-8.01993
不思議	-8.02365
稱	-8.02567
觀察	-8.02585
略	-8.03048
恒	-8.04001
二乘	-8.04856
共	-8.05636
徧	-8.05805
趣	-8.06268
十種	-8.06325
必	-8.0633
善財	-8.06664
菩薩摩訶薩	-8.07115
論云	-8.07559
發心	-8.078
真如	-8.08092
此中	-8.08356
。△	-8.08419
嚴	-8.08673
以為	-8.08741
向	-8.08848
不可	-8.0892
類	-8.09542
惑	-8.10184
悲	-8.10768
神通	-8.10997
第五	-8.11581
最勝	-8.12141
下明	-8.12412
學	-8.12855
度	-8.13118
之中	-8.13195
將	-8.13451
緣起	-8.13719
治	-8.13782
師	-8.14243
使	-8.14616
佛法	-8.1497
思	-8.15073
聲聞	-8.1527
於此	-8.1539
金剛	-8.15658
頌	-8.15673
執	-8.15694
流	-8.15727
法性	-8.16289
請	-8.16567
極	-8.1727
甚深	-8.17651
輪	-8.17675
眼	-8.17851
汝	-8.18136
不離	-8.18417
小乘	-8.18578
不見	-8.1921
。」【△	-8.20089
終	-8.2096
歎	-8.21021
譬如	-8.22168
並	-8.22262
之義	-8.22364
讚	-8.22657
不生	-8.23576
要	-8.24206
。」	-8.24602
「	-8.24918
失	-8.25261
形	-8.25674
之法	-8.26054
諸菩薩	-8.26388
迷	-8.26396
第六	-8.26547
竟	-8.26655
利	-8.26772
妄	-8.27144
著	-8.27155
不壞	-8.27167
更	-8.27204
國	-8.27229
一念	-8.27705
皆悉	-8.27828
般若	-8.27837
指	-8.2818
皆是	-8.28251
愛	-8.28294
以此	-8.28605
有二	-8.29165
辯	-8.29202
習	-8.29286
精進	-8.2945
修習	-8.29864
決定	-8.30121
少	-8.30193
二者	-8.30793
日	-8.30924
自性	-8.31974
無生	-8.32048
所說	-8.32149
全	-8.32465
歸	-8.3258
出生	-8.3275
遠	-8.32763
染	-8.33071
。▲	-8.33266
斯	-8.3362
塵	-8.33646
去	-8.338
無相	-8.33876
土	-8.33968
安	-8.34211
止	-8.34323
無性	-8.34425
所依	-8.34473
子	-8.34476
增長	-8.3449
過去	-8.34711
喜	-8.34846
一切智	-8.35257
還	-8.35574
動	-8.35629
之所	-8.359
疑	-8.35939
不動	-8.36003
此是	-8.36122
悟	-8.36186
雨	-8.36433
堅固	-8.37203
】	-8.37257
聖	-8.37308
幢	-8.37313
達	-8.37326
第七	-8.37329
彰	-8.37339
家	-8.37363
亦是	-8.37684
此云	-8.37702
虛空	-8.37861
▁四	-8.38017
猶	-8.3815
始	-8.3825
月	-8.38341
世尊	-8.38434
兩	-8.3854
音聲	-8.38797
不得	-8.38937
增	-8.38952
況	-8.39051
第八	-8.39379
情	-8.39415
長	-8.40005
見佛	-8.40128
量	-8.40621
風	-8.41215
兼	-8.41602
不可思議	-8.41652
百	-8.41995
壞	-8.42109
一者	-8.42122
足	-8.4235
一切菩薩	-8.42355
利益	-8.42883
解脫門	-8.42913
一切世間	-8.43788
勸	-8.43902
猶如	-8.43999
何故	-8.44214
成佛	-8.44518
三界	-8.4465
往	-8.44668
無常	-8.44758
亦不	-8.44909
國土	-8.45127
城	-8.45384
須	-8.45449
第十	-8.4618
坐	-8.46304
文殊	-8.46404
亦復如是	-8.47164
標	-8.47443
不捨	-8.47473
福	-8.47555
居	-8.476
齊	-8.47605
寄	-8.47714
屬	-8.4786
無不	-8.48202
歡喜	-8.48248
真實	-8.48409
所行	-8.48477
偈	-8.48571
無上	-8.48613
第九	-8.48984
思惟	-8.49124
食	-8.49177
火	-8.49526
遠離	-8.49778
四句	-8.49873
目	-8.49894
樹	-8.50008
之相	-8.50075
邪	-8.5024
佛果	-8.50288
華嚴	-8.50314
善知識	-8.50952
漸	-8.51355
對治	-8.51722
機	-8.51867
病	-8.51921
大願	-8.52037
望	-8.52134
此經	-8.52411
而不	-8.5247
者即	-8.52629
蓮華	-8.53114
近	-8.53172
不知	-8.53344
令其	-8.53575
)。】「	-8.53779
阿僧祇	-8.53799
現在	-8.539
寂靜	-8.54471
寂	-8.54583
雙	-8.54741
無畏	-8.54778
相應	-8.5511
佛號	-8.55326
願一切眾生	-8.55713
絕	-8.55808
復次	-8.56096
無所	-8.56106
似	-8.56289
出世	-8.56442
龍	-8.57004
含	-8.57052
且	-8.5721
復有	-8.57268
超	-8.57341
所作	-8.57578
寂滅	-8.58779
善巧	-8.58803
天王	-8.59112
現前	-8.59243
眷屬	-8.59336
命	-8.59341
一切世界	-8.59678
大智	-8.59681
僧	-8.59682
座	-8.5973
圓融	-8.6036
假	-8.60546
金	-8.60548
故名為	-8.60594
昔	-8.60678
如經	-8.60763
滿足	-8.60963
權	-8.61096
末	-8.61604
死	-8.61877
摩尼	-8.61906
咸	-8.61963
之行	-8.62033
頓	-8.62047
出現	-8.6215
悉能	-8.62503
護	-8.62543
口	-8.62739
放	-8.62744
亦無	-8.62788
正法	-8.62915
其心	-8.63324
融	-8.63359
無二	-8.6351
計	-8.63628
道場	-8.63736
若約	-8.64072
亦名	-8.64226
後一	-8.64226
若有	-8.64293
十一	-8.64467
無數	-8.64495
後二	-8.64499
皆有	-8.64529
獲	-8.64758
凡夫	-8.64974
是名	-8.6505
百萬億	-8.65077
不退	-8.65083
自然	-8.65356
於彼	-8.65368
高	-8.65502
今此	-8.65989
興	-8.6621
又云	-8.66264
未來	-8.66278
為一	-8.66336
令一切眾生	-8.665
禪	-8.66691
印	-8.66692
像	-8.66741
造	-8.66833
無著	-8.66972
句	-8.67282
息	-8.67481
敬	-8.67667
初地	-8.67692
菩薩行	-8.67698
不異	-8.67709
細	-8.6783
三業	-8.67948
調伏	-8.6885
染淨	-8.69185
慈	-8.69301
已下	-8.69443
:『	-8.69486
出家	-8.69514
設	-8.69573
豈	-8.69574
不斷	-8.6959
罪	-8.69611
萬行	-8.70048
前中	-8.70052
觸	-8.70053
十住	-8.7007
前後	-8.70244
直	-8.70434
色身	-8.70576
虗空	-8.70628
名曰	-8.70837
不著	-8.70924
一切如來	-8.70951
由此	-8.70969
影	-8.71189
凡	-8.71322
宮殿	-8.71329
中有	-8.7133
女	-8.71355
分齊	-8.72079
菩提心	-8.72133
佛智	-8.72194
大海	-8.72296
變化	-8.72826
經文	-8.73127
上來	-8.73127
一心	-8.7317
或有	-8.73174
無我	-8.73205
能知	-8.7323
有三	-8.73359
一時	-8.73367
者謂	-8.73487
體用	-8.73587
同時	-8.73633
幻	-8.73873
了知	-8.74136
器	-8.74173
爾	-8.74202
業用	-8.743
非是	-8.74594
人天	-8.75286
何等為十	-8.75303
諸眾生	-8.75411
邪見	-8.75414
如是等	-8.75647
燈	-8.75741
所知	-8.76018
乎	-8.76111
殊勝	-8.7614
千	-8.76254
演說	-8.76429
尊	-8.76528
存	-8.76604
初一	-8.76711
法故	-8.76901
為體	-8.77147
微細	-8.77389
貪	-8.77468
揀	-8.77532
林	-8.77575
諸佛子	-8.7782
周	-8.77919
有十	-8.7796
亦有	-8.78221
覆	-8.78272
佛身	-8.78442
白	-8.78455
俗	-8.78484
違	-8.78598
此菩薩	-8.78986
何以	-8.79494
進	-8.80165
諸根	-8.80189
供	-8.80206
念念	-8.80342
慢	-8.80694
網	-8.80711
下釋	-8.80972
生滅	-8.80992
無為	-8.81083
慈悲	-8.812
際	-8.81238
各有	-8.81442
根本	-8.81606
到	-8.81614
諦	-8.81789
禮	-8.81846
蓋	-8.82125
自體	-8.82247
是菩薩	-8.82355
首	-8.83388
收	-8.83526
變	-8.83582
利他	-8.83642
比丘	-8.83716
法輪	-8.83805
文殊師利	-8.83964
窮	-8.83986
外道	-8.84243
建立	-8.84318
之言	-8.84602
巳下	-8.84728
為欲	-8.84761
自他	-8.84803
好	-8.84968
遣	-8.85053
尚	-8.85073
然此	-8.85119
莫	-8.85159
初句	-8.85189
佛剎	-8.854
如此	-8.85591
亦如是	-8.86167
手	-8.86247
此約	-8.86332
次二	-8.86747
所成	-8.86808
夫	-8.8684
一句	-8.86841
聚	-8.87026
淨土	-8.87066
十二	-8.8715
之心	-8.87199
名之為	-8.87419
散	-8.87733
普賢菩薩	-8.87741
何等為	-8.87783
一切諸	-8.87975
例	-8.8798
微	-8.88014
受生	-8.88047
故曰	-8.88084
隱	-8.88166
亦爾	-8.88296
支	-8.88482
有無	-8.8851
無分別	-8.88523
行相	-8.88593
瑜伽	-8.8912
并	-8.89343
無作	-8.89475
勝進	-8.89558
難思	-8.89583
諸天	-8.89663
衣	-8.89674
內外	-8.89717
無量無邊	-8.89961
顛倒	-8.90261
亡	-8.90326
互	-8.90342
此二	-8.9052
迴	-8.906
所得	-8.90685
先明	-8.90717
獨	-8.90881
所見	-8.91131
義故	-8.91515
章	-8.91594
種性	-8.91823
據	-8.91853
萬	-8.92206
身心	-8.92224
能生	-8.92335
雜	-8.92809
者是	-8.92851
相續	-8.93098
無差別	-8.935
邊	-8.93621
財	-8.93626
不住	-8.93826
年	-8.94259
中二	-8.94277
不應	-8.94413
所生	-8.94595
二種	-8.94682
救	-8.94878
信解	-8.94928
種子	-8.94985
記	-8.94988
無漏	-8.95165
三種	-8.95261
感	-8.95519
十力	-8.95592
初二	-8.95756
羅	-8.9587
此即	-8.9592
諸行	-8.96086
其身	-8.96105
法華	-8.96255
大眾	-8.9627
所攝	-8.96348
善知	-8.96389
顯示	-8.96564
問答	-8.96777
古	-8.96831
發起	-8.96843
住於	-8.96881
易	-8.97003
和合	-8.97062
伏	-8.97093
恭敬	-8.97236
亦然	-8.97237
一切佛	-8.97722
佛性	-8.97787
初明	-8.97791
味	-8.97907
列	-8.98099
二約	-8.98104
正念	-8.98282
教化眾生	-8.98338
頭	-8.98352
悉皆	-8.98441
行故	-8.98522
守護	-8.9857
顯現	-8.9865
善友	-8.98732
不定	-8.98816
加行	-8.98887
堅	-8.98962
不為	-8.99025
魔	-8.99076
體性	-8.99106
號	-8.9913
許	-8.99211
一切佛法	-8.99219
受持	-8.99274
半	-8.99475
充滿	-8.99822
頂	-8.9989
二義	-9.00301
夢	-9.00335
習氣	-9.00345
不起	-9.0037
百千	-9.00434
。』	-9.00452
唯識	-9.00548
縛	-9.00557
二門	-9.0062
能入	-9.00777
教化	-9.0083
南	-9.00831
有情	-9.00903
遊	-9.01334
為因	-9.01377
十門	-9.0153
福德	-9.01607
十句	-9.01684
卷	-9.01716
願一切眾生得	-9.01825
而為	-9.0183
巧	-9.01845
都	-9.01875
備	-9.02162
廣說	-9.0226
配	-9.0235
地獄	-9.02424
三者	-9.02432
演	-9.02436
殊	-9.02618
反	-9.0278
增上	-9.03052
有四	-9.03078
科	-9.03241
經中	-9.03275
於中二	-9.03431
成正覺	-9.03452
如前	-9.03566
辯才	-9.03658
當知	-9.03682
理事	-9.03766
大小	-9.03902
欲界	-9.04367
容	-9.04425
劣	-9.04662
後三	-9.04738
安立	-9.04782
五位	-9.04856
傳	-9.04928
被	-9.0498
令得	-9.0505
親	-9.05089
偏	-9.05091
是為十	-9.05149
玄	-9.05455
翻	-9.05572
契	-9.05729
和	-9.05995
眾會	-9.06063
住處	-9.06479
神力	-9.06573
相即	-9.06762
普現	-9.0716
最	-9.07429
▁五	-9.07535
轉法輪	-9.07632
不礙	-9.07676
性相	-9.079
陀羅尼門	-9.07949
以明	-9.08302
師子	-9.08373
各各	-9.0839
如幻	-9.08414
能所	-9.08444
始終	-9.08693
告	-9.08819
非有	-9.09124
遮	-9.09199
通達	-9.09219
文中	-9.0923
應知	-9.09308
而無	-9.09401
蘊	-9.09424
遂	-9.09543
陰	-9.09596
隨緣	-9.09802
悲智	-9.10185
所現	-9.10232
為說	-9.10266
陀羅尼	-9.10391
重重	-9.10418
主伴	-9.1061
入於	-9.10785
志	-9.10856
波羅蜜	-9.10945
正覺	-9.10972
癡	-9.11146
有為	-9.11178
發菩提心	-9.11195
墮	-9.11247
賢首	-9.11265
遇	-9.11437
普照	-9.11524
尋	-9.11584
覩	-9.11588
一切諸法	-9.11633
或見	-9.11668
害	-9.11856
授	-9.11877
法師	-9.11987
深廣	-9.11994
無障礙	-9.1204
所起	-9.12061
珠	-9.12134
己	-9.12137
於一切	-9.12183
永	-9.12232
依止	-9.12243
布施	-9.12317
能令	-9.12353
○	-9.12371
如實	-9.12412
十信	-9.12554
若不	-9.12589
十八	-9.12615
言說	-9.1265
部	-9.1271
釋云	-9.12821
垢	-9.1288
梵	-9.12898
自心	-9.13001
波	-9.13198
。】「▲	-9.13236
若依	-9.13294
十行	-9.13353
不出	-9.13392
我當	-9.13429
.	-9.13639
藥	-9.13686
象	-9.13962
而有	-9.13985
密	-9.14087
即前	-9.1417
如來藏	-9.14193
總持	-9.14194
見聞	-9.14203
以是	-9.14226
憶念	-9.14341
展轉	-9.14409
放光	-9.14462
安樂	-9.14678
其中	-9.14817
【	-9.14901
述	-9.15061
妄想	-9.15127
徵	-9.15166
聞法	-9.15289
十身	-9.15564
智者	-9.15663
致	-9.1567
親近	-9.15785
推	-9.15968
事理	-9.16049
深心	-9.1651
常住	-9.16605
四諦	-9.16606
次一	-9.16783
無異	-9.16856
初中	-9.16908
詮	-9.17142
微妙	-9.17149
不說	-9.17244
沒	-9.17248
深入	-9.17314
自利	-9.17361
比	-9.17465
但是	-9.17546
河	-9.17591
是為	-9.17721
前三	-9.17889
麤	-9.17934
十六	-9.17978
東	-9.17988
色相	-9.18279
我今	-9.1849
百萬	-9.18603
序	-9.18631
愚	-9.18666
闕	-9.18706
無間	-9.18816
三寶	-9.18848
法中	-9.18891
那	-9.18913
不可得	-9.19011
勤	-9.19155
中道	-9.19243
不失	-9.1935
有十種	-9.19432
威儀	-9.19515
入定	-9.19726
聽	-9.19782
賢	-9.19795
脩	-9.1985
八地	-9.19866
而能	-9.20269
宜	-9.20307
一法	-9.20359
須彌	-9.20387
之處	-9.20487
理智	-9.20524
別顯	-9.20532
開示	-9.20543
善財童子	-9.2065
摩尼寶	-9.20709
亦非	-9.20798
勤修	-9.20805
無住	-9.20841
勇猛	-9.21013
脫	-9.21112
是則	-9.21208
不成	-9.21261
相故	-9.21302
亦可	-9.21326
化身	-9.21522
前二	-9.21567
佛土	-9.21676
却	-9.21751
間	-9.22004
離垢	-9.22062
饒益	-9.22085
解釋	-9.22221
攝受	-9.2236
隨其	-9.22495
不淨	-9.22525
所化	-9.22533
或以	-9.22909
太子	-9.23003
皆得	-9.23014
長者	-9.23101
行者	-9.23147
無別	-9.23231
嚴淨	-9.23263
善法	-9.23295
氣	-9.23339
又此	-9.23424
熏	-9.23557
地前	-9.23741
於一	-9.2378
無能	-9.23802
無垢	-9.23951
清涼	-9.24072
不空	-9.24105
眾寶	-9.24206
四種	-9.24246
自分	-9.24319
無限	-9.24714
若以	-9.25053
但有	-9.25065
▁二釋	-9.25132
及以	-9.25236
諸地	-9.25402
所證	-9.25446
此上	-9.25497
總結	-9.25579
該	-9.25714
於諸	-9.25835
龍王	-9.26193
互相	-9.26477
之人	-9.2649
巳下至	-9.26711
以成	-9.26803
鏡	-9.26871
虛	-9.26916
此地	-9.27096
出離	-9.27253
置	-9.27277
宮	-9.27472
殺	-9.27504
中間	-9.27535
此明	-9.2755
修菩薩行	-9.27566
退	-9.27594
證入	-9.27815
意業	-9.27831
微塵	-9.27907
倒	-9.27938
佛子菩薩摩訶薩	-9.28018
徹	-9.28291
下文	-9.28466
詣	-9.28481
答曰	-9.28515
愚癡	-9.28645
法者	-9.28789
久	-9.289
安隱	-9.28957
十方世界	-9.29197
云云	-9.29198
導	-9.29237
權實	-9.29366
圓教	-9.29509
故知	-9.29538
身業	-9.2956
十四	-9.29568
二十	-9.29611
次句	-9.2969
本末	-9.29779
威德	-9.29847
速	-9.30053
亦云	-9.30128
阿	-9.30175
是佛	-9.30199
厭	-9.30358
資	-9.30376
最上	-9.30529
夜	-9.30529
願力	-9.30617
怖	-9.30645
之時	-9.30779
一身	-9.30803
曾	-9.30859
之果	-9.3092
持戒	-9.31081
不違	-9.31115
冥	-9.31169
輕	-9.31264
信心	-9.31361
甚	-9.31434
禪定	-9.31592
梵行	-9.31613
長行	-9.31674
面	-9.31713
知一切法	-9.3174
一約	-9.31842
緣生	-9.31856
能成	-9.3186
則為	-9.32166
鬼	-9.32168
世界海	-9.32188
佛所	-9.32282
摩	-9.32451
偈云	-9.32461
積	-9.3255
善惡	-9.32572
闇	-9.32597
依此	-9.3261
正明	-9.32642
虗	-9.3266
出世間	-9.32785
路	-9.32848
畢竟	-9.32891
池	-9.32902
義也	-9.3295
心境	-9.33128
但以	-9.33191
離諸	-9.33242
西	-9.33303
積集	-9.33339
明了	-9.33342
智力	-9.33396
則能	-9.33502
大方廣佛華嚴經	-9.33578
眾生界	-9.33683
迹	-9.33737
名色	-9.33819
有二種	-9.33896
別明	-9.33908
當願眾生	-9.33956
緣覺	-9.34034
准	-9.34099
見者	-9.34205
所修	-9.34237
現行	-9.3432
實際	-9.34334
現身	-9.34338
一向	-9.34358
覺悟	-9.34477
同教	-9.34478
行願	-9.34489
恐	-9.34559
十三	-9.34655
利生	-9.34733
見道	-9.34851
普賢行	-9.35042
無依	-9.35048
我等	-9.35166
普入	-9.35187
成熟	-9.35293
不可說不可說	-9.35421
于	-9.35472
者明	-9.35662
三藏	-9.3567
放大光明	-9.35868
是也	-9.3598
?」	-9.35992
潤	-9.36098
不善	-9.36101
非一	-9.3641
是以	-9.36448
父母	-9.36455
陳	-9.3648
布	-9.36513
諸如來	-9.36633
真空	-9.3676
舌	-9.36801
功	-9.36827
法相	-9.37185
所入	-9.37224
果報	-9.37355
根本智	-9.37487
疾	-9.37537
故得	-9.37625
剎海	-9.37671
以智	-9.37674
讚歎	-9.37687
此則	-9.37758
各別	-9.37788
妙法	-9.37794
釋迦	-9.37828
了達	-9.37836
起行	-9.37922
東方	-9.38033
知見	-9.38116
是其	-9.38216
之智	-9.38306
無染	-9.38321
不退轉	-9.38344
此品	-9.38357
簡	-9.3842
相好	-9.38509
相似	-9.38534
諸佛法	-9.3862
十五	-9.38762
下句	-9.38843
之德	-9.38848
此三	-9.38863
橫	-9.39111
舍	-9.39164
三世諸佛	-9.39224
純	-9.39386
金剛藏	-9.39532
調	-9.39672
唯一	-9.39701
菩薩如是	-9.39721
菩薩摩訶薩亦復如是	-9.39878
成益	-9.4003
分二	-9.40041
自身	-9.40057
所緣	-9.40067
之意	-9.40072
殿	-9.40089
力故	-9.40105
雖有	-9.40122
穢	-9.40231
樓閣	-9.4024
為首	-9.40269
縱	-9.40725
若無	-9.40795
之因	-9.4112
二句	-9.41131
母	-9.41146
剎那	-9.41314
儀	-9.41334
依正	-9.41337
瓔珞	-9.41379
大慈	-9.41458
奪	-9.41623
此十	-9.41687
一分	-9.41776
新	-9.41787
此文	-9.41815
一人	-9.4185
而生	-9.41953
若爾	-9.42062
修多羅	-9.42083
從此	-9.42184
得名	-9.4225
實相	-9.42275
一切佛剎	-9.42326
二明	-9.4251
妙寶	-9.42727
能持	-9.42826
但云	-9.42834
一相	-9.42858
有漏	-9.42878
捨離	-9.43013
五蘊	-9.43072
▁初標	-9.43087
友	-9.4324
則無	-9.43275
盛	-9.43388
總明	-9.43543
普遍	-9.43564
或現	-9.43583
牒	-9.43609
於一切法	-9.4366
如何	-9.4369
以顯	-9.43809
譯	-9.43831
得法	-9.43966
別教	-9.43969
而得	-9.44078
忘	-9.44214
三千大千世界	-9.44275
化眾生	-9.44296
判	-9.44356
說者	-9.4478
未曾	-9.4493
靜	-9.44936
惱	-9.44963
思之	-9.4501
妙音	-9.45149
即以	-9.4522
不取	-9.45327
敘	-9.45556
熟	-9.45949
百億	-9.45961
住持	-9.45989
正顯	-9.46029
此法	-9.46129
婆羅門	-9.46418
第一義	-9.46621
同體	-9.46762
書	-9.46818
一多	-9.46891
意云	-9.47056
─	-9.471
此義	-9.47309
。】	-9.47314
性故	-9.47376
壽命	-9.47404
下結	-9.47472
宣	-9.47475
問曰	-9.47555
同前	-9.47558
一味	-9.4767
甚微細	-9.47853
如空	-9.4791
無所有	-9.48094
有二義	-9.48138
瞋	-9.48181
彌勒	-9.48218
昇	-9.48292
第	-9.48314
靡不	-9.48359
言音	-9.48372
於佛	-9.48574
不共	-9.48598
也言	-9.48611
為令一切眾生	-9.48676
之門	-9.48692
亦如	-9.48723
畏	-9.48797
能現	-9.48891
所為	-9.48964
在於	-9.48967
頓教	-9.49169
廻向	-9.49173
一切皆	-9.49221
總別	-9.49223
聖者	-9.49352
真理	-9.49357
於中三	-9.4945
次三	-9.4945
二諦	-9.49453
礙	-9.49612
有一	-9.49723
欲令	-9.49784
節	-9.49823
總相	-9.50054
性空	-9.5015
作意	-9.50152
一切法界	-9.50173
即為	-9.50195
懺悔	-9.50199
七地	-9.5031
夜神	-9.50328
相違	-9.50437
吾	-9.50503
等覺	-9.50522
立名	-9.50536
隨所	-9.50553
周遍	-9.50678
故言	-9.50743
一切剎	-9.50752
相者	-9.50756
局	-9.50774
》	-9.50801
相入	-9.50891
之身	-9.50941
四者	-9.50991
如虛空	-9.51011
及諸	-9.5126
流轉	-9.51284
令諸眾生	-9.51394
大用	-9.51419
繫	-9.51452
無色	-9.51506
歷	-9.51511
焰	-9.51696
極樂淨土	-9.51933
▁初明	-9.52364
本來	-9.52473
唯有	-9.52588
真性	-9.52652
為性	-9.52733
名號	-9.52741
田	-9.52768
對前	-9.52842
無量劫	-9.5286
論釋	-9.52878
何者	-9.52895
壽	-9.5297
制	-9.5302
暗	-9.53094
然後	-9.53215
等故	-9.53332
進修	-9.53369
一生	-9.5338
大意	-9.53387
毗盧遮那	-9.53509
亂	-9.53704
北	-9.5371
毒	-9.53723
焉	-9.53796
離相	-9.53827
不可壞	-9.5414
前四	-9.54149
如上	-9.54244
明淨	-9.5434
二釋	-9.54403
臺	-9.54423
為主	-9.54463
故此	-9.54512
一切處	-9.54542
相對	-9.54549
車	-9.5455
熱	-9.54694
之境	-9.54724
清	-9.54733
華藏	-9.54829
燒	-9.54844
濟	-9.54862
今經	-9.54996
日月	-9.55001
語業	-9.55022
𦦨	-9.55083
仰	-9.55451
為本	-9.55466
助	-9.55535
此位	-9.55615
陀	-9.5562
解行	-9.55633
有五	-9.56006
得見	-9.56052
帝釋	-9.56103
福智	-9.56213
業報	-9.56249
正見	-9.56259
誰	-9.56291
靈	-9.56324
不作	-9.56335
無體	-9.56391
何等	-9.56395
唱	-9.56588
泯	-9.56833
奉	-9.56859
依他	-9.5687
一塵	-9.56894
是時	-9.57063
十七	-9.57086
知識	-9.57107
雜染	-9.57119
空有	-9.57325
童子	-9.57383
智光	-9.57455
▁六	-9.57567
於一念中	-9.57614
弟子	-9.57618
迦	-9.57696
決	-9.57737
十九	-9.57999
門中	-9.58015
無始	-9.58374
不信	-9.58489
方能	-9.58512
中三	-9.58713
不求	-9.58718
般若波羅蜜	-9.58771
婆	-9.58957
影像	-9.59035
運	-9.59035
若有眾生	-9.59109
九地	-9.59135
皆以	-9.59143
名字	-9.59249
如彼	-9.59256
漸次	-9.59277
逆	-9.59328
廢	-9.59332
眾生心	-9.59378
攝取	-9.59381
未得	-9.5946
不變	-9.59531
地中	-9.59668
五百	-9.59811
而言	-9.59904
終教	-9.59916
本有	-9.60007
▁○	-9.60014
纏	-9.60073
無餘	-9.60153
寺	-9.60193
別中	-9.60212
勝德	-9.60312
念佛	-9.60349
此下	-9.6037
今以	-9.60414
」【	-9.60477
佛境界	-9.60561
何況	-9.60672
初標	-9.60755
三句	-9.60804
承	-9.60939
智論	-9.61074
曲	-9.61088
得佛	-9.61202
大地	-9.61218
十法	-9.6123
哉	-9.61306
不二	-9.61388
自在力	-9.61418
佛力	-9.61431
疏云	-9.61495
聖人	-9.61532
本願	-9.61621
無比	-9.61673
行成	-9.61719
最後	-9.61735
葉	-9.61777
成滿	-9.61782
通於	-9.61812
之理	-9.61977
成壞	-9.61983
往詣	-9.62022
之內	-9.62024
勝解	-9.62067
攝生	-9.6207
巳上	-9.62073
堪	-9.62421
光照	-9.62426
帶	-9.62433
懷	-9.62491
花	-9.62566
不滅	-9.62927
本無	-9.62935
辭	-9.62966
即得	-9.62985
三昧門	-9.631
質	-9.63158
於法	-9.63193
表法	-9.632
謂此	-9.63216
別釋	-9.63515
真諦	-9.63595
化生	-9.63692
阿僧祇寶	-9.63732
文云	-9.63744
愛樂	-9.6377
尊重	-9.6378
結成	-9.63802
無礙智	-9.63855
本性	-9.63873
準	-9.6391
稠林	-9.63936
而說	-9.63943
但為	-9.63955
勝行	-9.64021
。」【【	-9.64036
十方諸佛	-9.64079
往昔	-9.64084
吉祥	-9.64101
一切善根	-9.64133
人法	-9.64207
元	-9.64232
不了	-9.64262
知一切	-9.64298
諸功德	-9.64343
故有	-9.64364
四大	-9.64437
略說	-9.64454
跡	-9.64475
待	-9.64594
皆令	-9.6474
強	-9.64745
神變	-9.64816
審	-9.64884
宿	-9.64898
論文	-9.64937
除滅	-9.64964
趣入	-9.65092
上二	-9.65155
之事	-9.65215
無所著	-9.65251
所詮	-9.65339
舊	-9.65347
則得	-9.6538
種種莊嚴	-9.65383
一性	-9.6543
非無	-9.65495
閻浮提	-9.6552
無等	-9.65603
則有	-9.65825
悉令	-9.65862
故今	-9.65904
融通	-9.66006
修道	-9.66057
注	-9.66137
之名	-9.66186
法王	-9.66211
論中	-9.6629
周徧	-9.66317
明其	-9.66458
祕密	-9.66524
宣說	-9.66601
法雨	-9.66604
具德	-9.66615
同一	-9.6668
所由	-9.66802
阿含	-9.66821
謂於	-9.66827
故非	-9.66842
頌前	-9.66877
惡道	-9.6696
相望	-9.66997
善能	-9.67067
常樂	-9.67175
後四	-9.67214
一門	-9.67399
威力	-9.67473
所引	-9.67705
䟽	-9.68104
於念念中	-9.68249
有異	-9.68298
億	-9.683
室	-9.68378
談	-9.68383
一云	-9.68384
如來身	-9.68395
故說	-9.68443
無際	-9.68504
阿難	-9.68509
犯	-9.68518
隨機	-9.68527
少分	-9.68573
佛剎微塵數	-9.6858
悅	-9.6868
福田	-9.68682
蒙	-9.68756
麁	-9.68767
多聞	-9.68844
差別智	-9.68883
下半	-9.68891
梵王	-9.69008
是知	-9.69016
三地	-9.69056
如是一切	-9.69073
上句	-9.6915
心無	-9.69249
悉得	-9.69261
得入	-9.69288
老	-9.69293
三明	-9.693
菩薩摩訶薩有十種	-9.69342
同異	-9.69344
即此	-9.6937
證得	-9.69378
德用	-9.69445
旨	-9.69459
降	-9.69545
總顯	-9.69627
畧	-9.69637
體相	-9.69647
沙門	-9.69746
三約	-9.69889
平	-9.69903
料揀	-9.69912
生故	-9.69935
意樂	-9.69945
聖教	-9.69958
功用	-9.70001
初三	-9.70002
上下	-9.70239
色界	-9.70337
者以	-9.70349
智故	-9.70416
答言	-9.7052
任	-9.70577
無量眾生	-9.70763
普門	-9.70802
木	-9.70816
最初	-9.70817
善哉	-9.70903
教法	-9.70915
導師	-9.70963
乖	-9.71101
所住	-9.71143
垂	-9.71156
法體	-9.71233
初總	-9.7127
性起	-9.71306
放逸	-9.7132
所持	-9.71328
作用	-9.71375
無邊際	-9.71412
已下至	-9.71587
而起	-9.71656
拔	-9.71678
無所依	-9.71725
理實	-9.7178
成等正覺	-9.71874
怖畏	-9.71898
源	-9.71901
毀	-9.71917
之體	-9.71928
謗	-9.71972
佛境	-9.72032
所以者何	-9.72036
入法界	-9.72126
寧	-9.72329
為宗	-9.72419
別相	-9.72442
開悟	-9.72487
畜生	-9.72646
佛地	-9.72668
又以	-9.72704
即無	-9.72786
令他	-9.72906
地上	-9.72945
十度	-9.7307
憂	-9.73209
毛	-9.73286
差	-9.73292
患	-9.73296
正道	-9.73395
鼻	-9.73417
止觀	-9.7344
恭敬供養	-9.73473
解云	-9.73514
懺	-9.73594
法爾	-9.73671
無礙用	-9.73706
惡業	-9.73768
悔	-9.73837
教義	-9.73887
生起	-9.74039
即入	-9.74051
中說	-9.74057
園	-9.74074
或說	-9.7415
七日	-9.74258
令入	-9.74302
之道	-9.74308
精	-9.7433
隨逐	-9.74411
釋成	-9.74412
一佛	-9.74497
多劫	-9.74501
無厭	-9.74564
善根迴向	-9.74662
不染	-9.7478
永離	-9.74816
加持	-9.75026
由前	-9.75035
法藏	-9.75078
如下	-9.75133
行門	-9.75134
損	-9.75253
領	-9.75488
其所	-9.75605
馬	-9.75614
自行	-9.75631
恩	-9.75664
越	-9.75729
後釋	-9.75931
一對	-9.75995
意識	-9.76001
金色	-9.76126
皆為	-9.76228
無厭足	-9.76268
於世間	-9.76336
十善	-9.76337
提	-9.76348
如實知	-9.76354
明知	-9.76376
如意	-9.76396
申	-9.76412
普眼	-9.76432
一切智智	-9.76504
何有	-9.76552
始教	-9.76638
五陰	-9.76724
難得	-9.76816
二地	-9.76825
仍	-9.76857
受用	-9.76863
參	-9.76872
守	-9.76913
而說頌言	-9.77055
悉知	-9.77114
一明	-9.77183
承佛神力	-9.77203
父	-9.77309
如夢	-9.77321
隨心	-9.77395
終不	-9.77418
唯是	-9.7742
嚴飾	-9.77461
代	-9.7751
有世界名	-9.77518
輪王	-9.77584
四地	-9.77722
四天下	-9.77757
慈心	-9.77758
皆云	-9.77832
諸天子	-9.77834
我慢	-9.77883
諸位	-9.77885
童女	-9.77893
大聖	-9.77898
下顯	-9.77901
諸業	-9.77925
列名	-9.78
事故	-9.78032
勢	-9.78065
行體	-9.78123
度眾生	-9.78148
作業	-9.78235
處處	-9.78353
何等為十所謂	-9.78371
諸教	-9.78478
得果	-9.78587
難知	-9.78595
皆從	-9.78597
草	-9.78609
佛子菩薩摩訶薩有十種	-9.78611
一品	-9.78659
一毛	-9.78663
護持	-9.7871
又前	-9.78797
不盡	-9.78821
五種	-9.7887
飲食	-9.78906
以彼	-9.78952
真俗	-9.79015
之本	-9.79048
然其	-9.79056
有六	-9.79127
舍利弗	-9.79141
餘皆	-9.79164
執著	-9.79243
石	-9.79246
祖	-9.79257
妙行	-9.79265
果故	-9.79275
生於	-9.7937
又如	-9.79378
故迴向	-9.79381
牛	-9.79407
衣服	-9.79452
全同	-9.79479
佛道	-9.79488
能作	-9.79576
經論	-9.79602
能說	-9.79676
背	-9.7972
離障	-9.79762
▁「	-9.79877
不與	-9.79901
上半	-9.79934
諸世界	-9.80021
大慈悲	-9.802
三性	-9.80202
身雲	-9.80247
人中	-9.80408
隨眾生心	-9.8041
我所	-9.80503
五者	-9.80538
六度	-9.80632
諸有	-9.80633
亦得	-9.8064
異故	-9.80721
智悲	-9.80725
若能	-9.80807
廣如	-9.80869
若見	-9.80913
下辨	-9.80919
即空	-9.80988
超過	-9.81042
十千	-9.81112
鳥	-9.81172
彼岸	-9.81268
心不	-9.81338
釋文	-9.8137
有三種	-9.81446
熏習	-9.81517
誓	-9.81537
建	-9.81603
如虗空	-9.8161
諸惡	-9.81625
偈頌	-9.81653
俱舍	-9.81693
速疾	-9.8172
起信	-9.81946
得解脫	-9.81966
怨	-9.8197
虛妄	-9.81981
公	-9.82003
行位	-9.82356
誦	-9.82389
乳	-9.82403
彌	-9.82415
二障	-9.82417
不依	-9.82471
長養	-9.82508
於中初	-9.82512
隨意	-9.82552
發阿耨多羅三藐三菩提心	-9.82591
無窮	-9.82625
勢力	-9.82675
隱顯	-9.82717
總是	-9.82773
諸趣	-9.82801
天子	-9.82846
此句	-9.82988
在家	-9.82997
神足	-9.83003
謂一	-9.83005
諸菩薩眾	-9.83023
能見	-9.83071
分三	-9.83189
沙	-9.83192
一切種智	-9.83198
何得	-9.83208
二字	-9.83264
灌頂	-9.83297
人間	-9.83308
假名	-9.83367
所求	-9.83384
四禪	-9.83398
淨心	-9.83484
諸善根	-9.8358
不從	-9.83605
▁三結	-9.83642
淺	-9.83666
餓鬼	-9.83718
語言	-9.83745
本覺	-9.83769
救護	-9.83778
位中	-9.83823
三時	-9.83857
五欲	-9.83867
留	-9.83878
十義	-9.83887
原	-9.8391
欲樂	-9.8393
求法	-9.83938
▁二明	-9.8394
一處	-9.83976
熾然	-9.84038
一切煩惱	-9.84159
不及	-9.84161
斷惑	-9.842
何不	-9.84217
棄	-9.8423
倍	-9.84265
梵天	-9.84274
亦通	-9.84358
歎佛	-9.84406
四門	-9.84491
肉	-9.8455
分明	-9.84598
諸佛如來	-9.84608
隨時	-9.84634
底	-9.84704
六地	-9.84709
歲	-9.84736
不以	-9.8475
隨喜	-9.84789
同於	-9.84916
一切功德	-9.84979
勝義	-9.85111
法空	-9.85128
六根	-9.85219
美	-9.85289
慚愧	-9.85357
不爾	-9.85381
中初	-9.85389
而成	-9.85449
無差	-9.85498
智海	-9.85538
懈怠	-9.85542
三有	-9.85549
可見	-9.85591
岸	-9.85599
不可盡	-9.85704
盡未來際	-9.85716
妙德	-9.85763
於前	-9.85912
知眾生	-9.85975
律	-9.85979
承事	-9.85982
畢	-9.86044
報身	-9.86113
爾時善財童子	-9.86118
之性	-9.86229
或為	-9.8623
消	-9.86306
論主	-9.86339
若人	-9.86345
修學	-9.86347
初發心	-9.86417
三身	-9.86421
隨相	-9.86436
尼	-9.86573
毛孔	-9.86712
異熟	-9.86767
不聞	-9.86793
自相	-9.8683
是人	-9.86968
正說	-9.86987
妙色	-9.87001
或云	-9.8703
視	-9.87035
成立	-9.87073
無違	-9.87086
今明	-9.87247
如海	-9.87308
諸煩惱	-9.87359
若干	-9.87407
經說	-9.87508
無㝵	-9.8755
靜慮	-9.87567
及與	-9.87611
為緣	-9.87642
法海	-9.87646
助道	-9.87658
此之	-9.87661
天眼	-9.8772
伴	-9.8773
定慧	-9.87745
果德	-9.87751
今云	-9.87782
園林	-9.87795
已上	-9.8787
十迴向	-9.87871
勝故	-9.87908
值	-9.87924
弘	-9.87954
所居	-9.87974
亦同	-9.87984
能起	-9.88029
遊戲	-9.88041
勿	-9.88046
不名	-9.88068
皆由	-9.88095
而行	-9.88103
淨名	-9.88168
文義	-9.88232
佛德	-9.88255
道理	-9.88303
呼	-9.88332
蔽	-9.88335
三結	-9.88365
不言	-9.88401
西方	-9.88412
誓願	-9.88433
仁	-9.88468
菩提心者	-9.88549
離過	-9.88606
非實	-9.88615
前五	-9.88617
初心	-9.88642
塔	-9.88661
心故	-9.88787
別有	-9.88841
因故	-9.88848
約法	-9.88955
顯法	-9.89078
普見	-9.891
直心	-9.89366
詞	-9.89431
成道	-9.89437
言辭	-9.89529
悉見	-9.89703
服	-9.89796
能治	-9.89807
前中二	-9.89808
遍法界	-9.89876
佛言	-9.89944
震動	-9.90011
帳	-9.90178
此上過佛剎微塵數世界	-9.90197
正行	-9.90281
略無	-9.9032
充滿法界	-9.90359
說故	-9.90393
則是	-9.90425
改	-9.90493
菩薩道	-9.90653
登	-9.90656
初禪	-9.90714
偈中	-9.9072
▁七	-9.90743
後偈	-9.90786
不行	-9.90857
喜樂	-9.90871
創	-9.90878
皆能	-9.90897
文字	-9.90902
大同	-9.90952
非唯	-9.90952
答云	-9.91033
日光	-9.91054
香水海	-9.91099
耶答	-9.91236
我為	-9.91261
夜叉	-9.91275
可得	-9.91283
故不	-9.91354
自有	-9.91423
宅	-9.91454
戲論	-9.91526
莊嚴具	-9.91531
智慧光明	-9.91592
深密	-9.91612
包	-9.91672
恐怖	-9.91722
不分別	-9.91755
萬法	-9.91777
專	-9.91917
十佛	-9.91992
行法	-9.92064
成行	-9.92291
又復	-9.92295
威	-9.92312
憍慢	-9.92364
無念	-9.92419
正是	-9.92465
自在故	-9.9249
乃是	-9.92543
曉	-9.9259
所言	-9.92628
惡趣	-9.92683
▁初釋	-9.92689
流通	-9.92948
稱讚	-9.93026
信樂	-9.93111
得聞	-9.93172
苦行	-9.9318
苦惱	-9.93223
下別顯	-9.93229
障礙	-9.93281
唯約	-9.93326
前十	-9.93466
寶華	-9.93637
作是念	-9.93652
一偈	-9.93762
無有休息	-9.93791
翳	-9.93824
不受	-9.93886
意明	-9.93929
二合	-9.93929
大智慧	-9.93935
堂	-9.93977
此釋	-9.93993
論經	-9.94037
牒前	-9.94133
懸	-9.94166
段	-9.94307
佛菩提	-9.94338
徒	-9.94345
得益	-9.94363
圓覺	-9.94363
普光明	-9.94384
非真	-9.94447
神通力	-9.94476
離欲	-9.94523
以其	-9.94574
智光明	-9.94606
二利	-9.94659
世界種	-9.94772
聖道	-9.94821
廣釋	-9.94833
時分	-9.94839
智身	-9.94853
返	-9.94864
圓明	-9.94952
善知識者	-9.94959
能以	-9.95005
無功用	-9.95017
苦樂	-9.95054
之文	-9.95059
微塵數	-9.95091
故無	-9.95124
同名	-9.95222
世俗	-9.95289
調伏眾生	-9.95294
諸世間	-9.953
不入	-9.95323
唐	-9.95328
如一	-9.9534
五句	-9.95342
託	-9.95359
故須	-9.95492
諸波羅蜜	-9.95524
交	-9.95598
無記	-9.95644
供養諸佛	-9.95757
利樂	-9.95765
天人	-9.95816
限	-9.95828
譬如真如	-9.95843
帝	-9.95852
滯	-9.95968
下二	-9.95977
更有	-9.96011
舍那	-9.96083
姓	-9.96089
初二句	-9.96098
滅度	-9.96105
無上菩提	-9.96128
只	-9.96181
初會	-9.96237
慶	-9.96332
冠	-9.96385
稱性	-9.96395
行菩薩行	-9.96432
即於	-9.96446
羅漢	-9.9646
一行	-9.9661
不具	-9.96625
三毒	-9.96698
賢聖	-9.9674
不忘	-9.96745
離世間品	-9.96784
無心	-9.96788
塵數	-9.968
如來智	-9.96903
見彼	-9.96925
圓成	-9.96955
海中	-9.96974
同行	-9.96997
娑婆	-9.97041
大心	-9.97121
校量	-9.97126
二行	-9.97169
甘露	-9.97173
希	-9.97177
心常	-9.97203
期	-9.97206
空中	-9.97246
善業	-9.97309
上三	-9.97363
境故	-9.97399
眾生故	-9.9743
寬	-9.97432
減	-9.97438
濁	-9.97441
無可	-9.97459
其義	-9.97606
鬘	-9.97705
三際	-9.97708
於法界	-9.97748
答前	-9.97773
深信	-9.97787
寶莊嚴	-9.97816
竝	-9.9787
勸修	-9.97904
說此	-9.97906
此人	-9.97939
俱生	-9.97961
能詮	-9.98008
後明	-9.98012
入一切	-9.98018
六句	-9.98034
普入一切	-9.98061
後際	-9.98073
利益眾生	-9.98154
解了	-9.98177
淨穢	-9.98221
如佛	-9.98322
此上過佛剎微塵數世界有世界名	-9.9833
攝化	-9.98347
空寂	-9.98357
寶藏	-9.98493
明此	-9.98532
願行	-9.98637
一事	-9.98676
方為	-9.98772
凡聖	-9.98773
正釋	-9.98782
十二因緣	-9.98835
供佛	-9.98895
黑	-9.98911
如理	-9.98912
敷	-9.98927
今疏	-9.98929
任運	-9.98972
結前	-9.99123
佛功德	-9.99135
而作佛事	-9.99149
離於	-9.99162
楞伽	-9.99273
佛教	-9.99282
大涅槃	-9.99385
以法	-9.99413
得此	-9.9946
此亦	-9.99558
後句	-9.99713
妙智	-9.99848
徃	-9.99856
希有	-9.9991
如人	-9.99981
眾中	-10.0001
應云	-10.0008
施行	-10.0012
略舉	-10.0014
有世界	-10.0018
皆名	-10.0024
證智	-10.0027
能證	-10.0029
不在	-10.0035
為一切眾生	-10.0035
能化	-10.0043
義理	-10.0047
法施	-10.0051
萬物	-10.0053
知法	-10.0058
師子座	-10.0059
士	-10.006
若言	-10.0064
良以	-10.0064
世法	-10.0068
鐵	-10.0068
求一切智	-10.0072
晉經	-10.0079
風輪	-10.008
無因	-10.0082
方得	-10.0083
飾	-10.0093
憶	-10.0094
會通	-10.0095
青	-10.0097
誠	-10.0107
知其	-10.0111
梵本	-10.0113
次四	-10.0115
不亂	-10.0123
趣向	-10.0123
悉以	-10.0124
步	-10.0127
一劫	-10.0129
端	-10.0139
逆順	-10.014
華嚴經	-10.0147
招	-10.0154
連	-10.0158
而非	-10.0162
所因	-10.0165
佛說	-10.017
此四	-10.0173
即有	-10.0174
貪欲	-10.0176
狹	-10.019
善男子我	-10.0196
因行	-10.0204
轉變	-10.0209
有四種	-10.0213
於他	-10.0213
所觀	-10.0213
皆同	-10.0214
多少	-10.0218
至於	-10.0219
一義	-10.0219
有人	-10.022
慮	-10.023
昇進	-10.0233
亦應	-10.0234
之力	-10.0239
八萬四千	-10.0243
為令	-10.0246
有此	-10.0248
真心	-10.0264
下總結	-10.0265
從緣	-10.0266
唯心	-10.0275
白言	-10.028
普徧	-10.0284
諸相	-10.0286
獲益	-10.0287
諍	-10.0301
聲聞緣覺	-10.0303
餘義	-10.0308
單	-10.0313
此會	-10.0323
成德	-10.0349
特	-10.0354
太	-10.0355
」「	-10.0358
皮	-10.0362
不樂	-10.0363
令眾生	-10.0365
故能	-10.0366
不可量	-10.0368
命終	-10.0368
為顯	-10.0375
同相	-10.0381
受苦	-10.0383
不自	-10.04
長短	-10.0401
下別	-10.0408
智眼	-10.0416
每	-10.0423
具云	-10.0426
普能	-10.0426
悉亦如是	-10.0429
獲得	-10.0441
三品	-10.0443
三觀	-10.045
聚落	-10.0452
如如	-10.0454
五教	-10.0455
貴	-10.0456
入涅槃	-10.046
眾苦	-10.0463
空故	-10.0471
髮	-10.0471
調柔	-10.0479
▁後	-10.0484
所受	-10.0487
不覺	-10.0491
為明	-10.0492
等也	-10.0492
獨覺	-10.0493
腹	-10.05
並是	-10.0502
廣明	-10.0508
功德海	-10.051
不雜	-10.0521
臨	-10.0522
迴心	-10.0526
若得	-10.0528
初偈	-10.0532
會釋	-10.0535
身相	-10.0535
心行	-10.0536
皆具	-10.0537
如影	-10.0547
中有二	-10.0552
為眾生	-10.0555
以為莊嚴	-10.0561
一種	-10.0562
▁二別	-10.0563
以無	-10.0564
汝等	-10.0564
五地	-10.0564
十一地	-10.0565
彼經	-10.0567
無所障礙	-10.0569
無量無數	-10.057
因緣故	-10.0575
賊	-10.0576
女人	-10.0578
缺	-10.059
之用	-10.0592
結云	-10.0595
續	-10.06
隔	-10.0604
道品	-10.0607
天女	-10.0607
上妙	-10.0609
依報	-10.061
遍計	-10.0625
而現	-10.0627
妙莊嚴	-10.0631
初門	-10.0634
柔軟	-10.0639
則知	-10.0655
須彌山	-10.0657
中云	-10.0657
經意	-10.0658
以一	-10.0658
論曰	-10.0666
四義	-10.0683
朝	-10.0686
法也	-10.0689
漏	-10.069
明見	-10.0691
上之	-10.0696
交徹	-10.07
伽	-10.0703
後結	-10.0709
正報	-10.0717
得清淨	-10.0725
此乃	-10.0727
既爾	-10.0728
虛空界	-10.0732
行德	-10.0735
落	-10.0735
佛事	-10.076
令知	-10.0761
欣	-10.0769
三十二	-10.0781
後五	-10.0785
諸佛世尊	-10.0785
髻	-10.0785
古德	-10.0786
身中	-10.0787
虗妄	-10.0788
今當	-10.0792
彼諸	-10.0794
展	-10.0795
迦葉	-10.0797
見如來	-10.081
功能	-10.0819
心所	-10.0819
何所	-10.0826
智地	-10.0826
貧窮	-10.083
以前	-10.083
有多	-10.083
復作是念	-10.0832
德相	-10.0844
前七	-10.0845
心念	-10.0846
一一皆	-10.0859
善行	-10.0863
地法	-10.087
講	-10.0873
瑠璃	-10.0874
法雲	-10.0876
能受	-10.0876
喻中	-10.0883
後得	-10.0892
唯願	-10.0898
永斷	-10.0898
同類	-10.0898
爾時世尊	-10.0903
律儀	-10.0903
四十	-10.0903
大王	-10.0909
何謂	-10.091
六道	-10.0915
體故	-10.0922
仙	-10.0922
清淨故	-10.0923
今言	-10.0925
能攝	-10.093
無量功德	-10.093
不放逸	-10.0931
無所得	-10.0933
為令眾生	-10.0937
性淨	-10.0939
差別相	-10.0942
無實	-10.0944
後後	-10.0952
亦復	-10.0959
大法	-10.0962
罪報懺悔	-10.0974
剎土	-10.0978
中有三	-10.098
菩薩住此	-10.0986
於我	-10.0987
泥	-10.099
第三句	-10.0991
一百	-10.0991
十中	-10.0998
不即	-10.1006
生處	-10.1011
大師	-10.1012
假使	-10.1016
普光	-10.1023
三釋	-10.1024
即彼	-10.1025
三世佛	-10.1025
時處	-10.1026
若欲	-10.1027
此處	-10.1027
證成	-10.1035
前六	-10.105
令一切眾生得	-10.1058
劫數	-10.1062
慧眼	-10.1067
二空	-10.1069
六位	-10.107
一音	-10.1072
晝夜	-10.1073
具十	-10.1074
丈夫	-10.1075
茲	-10.1075
七寶	-10.1076
智體	-10.1078
毘盧遮那	-10.1087
▁八	-10.1088
囉	-10.1089
六十	-10.1104
常行	-10.1105
良	-10.1106
圓音	-10.1107
呪	-10.111
徧法界	-10.1112
載	-10.1112
化作	-10.1118
而得自在	-10.1122
飲	-10.1126
離一切	-10.1128
斯則	-10.113
暫	-10.1131
為其	-10.1132
餘九	-10.1134
臣	-10.1134
《	-10.1139
見一切佛	-10.1146
起用	-10.1148
所問	-10.1155
善住	-10.1177
作佛	-10.1178
成故	-10.1179
剎塵	-10.1182
行布	-10.1184
臥	-10.1185
般涅槃	-10.1191
益物	-10.1192
故經云	-10.1196
非法	-10.1198
兩句	-10.1202
薩婆若	-10.1203
南方	-10.1205
大菩提	-10.1208
淨治	-10.1211
威光	-10.1212
妙慧	-10.1225
第四句	-10.1228
謂由	-10.1245
開合	-10.1247
遠近	-10.1259
生如來家	-10.1264
往來	-10.1265
諸剎	-10.1267
我皆	-10.127
之一	-10.1276
一切寶	-10.1279
男女	-10.1283
星	-10.1292
圍遶	-10.1296
此為	-10.1297
責	-10.1301
嘆	-10.1305
所應	-10.1309
優婆夷	-10.131
不生不滅	-10.131
謂以	-10.1311
眾行	-10.1314
今文	-10.1314
旋	-10.1321
今約	-10.1323
雜集	-10.1325
義者	-10.1327
四智	-10.1328
十箇	-10.1343
於如來	-10.1344
法說	-10.1345
承佛威力	-10.1346
得自在	-10.135
譬喻	-10.1353
▁二別釋	-10.1354
統	-10.1356
所治	-10.1359
無非	-10.1361
生華藏海	-10.1363
隨宜	-10.1368
古今	-10.1369
隨根	-10.1372
辟支佛	-10.1379
不令	-10.1397
一切劫	-10.1405
隨應	-10.1411
我見	-10.1416
於世	-10.1417
仙人	-10.1422
默	-10.143
三輪	-10.143
次名	-10.1434
一萬	-10.1438
當來	-10.1445
天地	-10.1448
處所	-10.146
攝論	-10.1469
分中	-10.147
說為	-10.147
擊	-10.1481
無力	-10.1482
▁初正明	-10.1485
此門	-10.1489
諸大菩薩	-10.1501
境智	-10.1502
善男	-10.1506
骨	-10.1507
前文	-10.151
八識	-10.1515
典	-10.1518
毘	-10.1519
有力	-10.1521
入三昧	-10.1525
謂前	-10.1531
謝	-10.1534
勇	-10.1539
亦即	-10.1539
即當	-10.1555
我身	-10.156
是法	-10.1563
非不	-10.1568
栴檀	-10.1569
善巧方便	-10.1569
是中	-10.1571
下正顯	-10.1574
業果	-10.1576
其相	-10.1582
十者	-10.1589
此等	-10.159
過失	-10.1592
閻浮	-10.16
十重	-10.1605
從初	-10.1608
妙覺	-10.1609
顯勝	-10.161
依前	-10.1619
〔	-10.162
竭	-10.1623
貪著	-10.1629
普照一切	-10.1631
此方	-10.1635
遊行	-10.1641
如次	-10.1642
更無	-10.1645
寶樹	-10.1653
是謂	-10.1655
塵勞	-10.1658
能依	-10.1659
一一毛孔	-10.1663
實有	-10.1663
可以	-10.1669
如來智慧	-10.167
六者	-10.1671
頌云	-10.1672
阿羅漢	-10.1677
既云	-10.168
入佛	-10.1681
繞	-10.1684
逐	-10.1685
異類	-10.1687
種種差別	-10.169
王子	-10.1691
包含	-10.1692
拂	-10.1694
引證	-10.1699
為趣	-10.1699
毗	-10.1702
有二十	-10.1703
而住	-10.1707
異名	-10.1709
智用	-10.1724
善根迴向亦復如是	-10.1726
次云	-10.1729
於十方	-10.1731
老死	-10.1734
不待	-10.1735
菩提樹	-10.1735
濕	-10.1741
等是	-10.1742
應機	-10.1743
真妄	-10.1754
譬	-10.176
未知	-10.1764
之後	-10.1766
州	-10.1773
諸佛菩薩	-10.1777
於眾生	-10.1779
為果	-10.178
一類	-10.1795
疑惑	-10.1797
繁	-10.1798
一頌	-10.18
我於	-10.1801
九十	-10.1801
實教	-10.1809
故論云	-10.1811
升	-10.1811
次二句	-10.1812
遮那	-10.1815
忍辱	-10.1817
無生忍	-10.1818
所聞	-10.1824
釋名	-10.1828
令彼	-10.1831
場	-10.1837
隨眠	-10.1842
知之	-10.1843
欲顯	-10.1846
隨好	-10.1846
八十	-10.1847
信等	-10.1848
所知障	-10.1853
行中	-10.1857
入此	-10.1862
端正	-10.1865
迷惑	-10.1867
品云	-10.187
摧	-10.187
聞者	-10.1871
能破	-10.1871
居士	-10.1873
此言	-10.1874
正義	-10.1883
勞	-10.1883
此一	-10.1884
得成	-10.1887
題	-10.189
頌中	-10.1896
未曾有	-10.1897
變易	-10.1899
無極	-10.1904
廣狹	-10.1906
幽	-10.1907
學者	-10.1911
而來	-10.1911
種種色	-10.1913
適	-10.1913
本識	-10.1914
涉	-10.1918
為大	-10.1918
生安隱心	-10.1918
昧	-10.1919
震	-10.1921
尸羅	-10.1927
充	-10.1927
即真	-10.1931
無自性	-10.1932
防	-10.1942
燄	-10.1949
三世間	-10.195
而作	-10.1951
下第二	-10.1953
所明	-10.1954
恒沙	-10.1963
之教	-10.1964
歸依	-10.1964
三十	-10.1965
淨戒	-10.1965
總名	-10.1967
不可以	-10.1973
無分別智	-10.1995
觀行	-10.1999
阿耨多羅三藐三菩提	-10.2003
下三	-10.2003
二禪	-10.2004
總攝	-10.2012
然上	-10.2013
響	-10.2015
妙華	-10.2017
至此	-10.2019
天下	-10.2023
聽聞	-10.2024
分為二	-10.2025
生長	-10.2027
別故	-10.2028
果法	-10.2028
門者	-10.203
如說	-10.203
照耀	-10.2035
有大人相	-10.2037
事業	-10.2041
正智	-10.205
應當	-10.2051
一體	-10.2055
當得	-10.2062
畫	-10.2062
百千億那由他	-10.2065
修成	-10.2066
起安慰心	-10.2069
妨	-10.2071
授記	-10.2081
合掌	-10.2083
釋經	-10.209
得菩提	-10.2091
重重無盡	-10.2092
別義	-10.2101
事理無礙	-10.2107
無涯	-10.2115
佛國土	-10.2116
世界中	-10.2119
▁九	-10.212
又釋	-10.2121
我已得住	-10.2132
云何為	-10.2132
如來所	-10.2132
圍繞	-10.2135
施設	-10.214
心性	-10.2142
不相	-10.2152
▁【	-10.2153
知一切眾生	-10.2154
法寶	-10.2155
同事	-10.2156
是前	-10.2158
果海	-10.2161
為令他住	-10.2163
無想	-10.2164
金剛藏菩薩	-10.2169
博	-10.2172
無盡故	-10.2173
慳	-10.2181
所說法	-10.2181
寂然	-10.2183
十波羅蜜	-10.2185
解脫月	-10.2193
疏文	-10.2194
唯除	-10.22
心生	-10.2201
雙行	-10.2203
煩惱障	-10.2204
事事無礙	-10.2205
貫	-10.2209
會中	-10.2209
愍	-10.2212
慈氏	-10.2214
說也	-10.2218
接	-10.2229
𤼵	-10.2235
是總	-10.2236
論意	-10.2247
隨諸眾生	-10.2248
辦	-10.2255
端嚴	-10.2257
慧菩薩	-10.2259
因此	-10.2265
後得智	-10.2265
於一切眾生	-10.228
修菩薩道	-10.2281
示其	-10.2281
遠公	-10.2288
餘三	-10.2302
攬	-10.2303
因中	-10.2303
回向	-10.2306
亦為	-10.2308
與前	-10.2308
生信	-10.231
豈不	-10.2317
逮	-10.2321
亦能	-10.2324
三義	-10.2329
依於	-10.2333
普周	-10.2335
偈讚	-10.2336
種種方便	-10.2336
無失	-10.2344
次有香水海名	-10.2344
有所	-10.2348
無二故	-10.2368
固	-10.2369
非異	-10.237
精勤	-10.2372
法眼	-10.2374
▁初正釋	-10.2376
融攝	-10.2377
三摩地	-10.2385
釋之	-10.239
鈔云	-10.239
帝網	-10.2391
獄	-10.2392
無有邊	-10.2397
智境	-10.2401
三千	-10.2408
滅故	-10.2417
養	-10.2421
檀	-10.2424
手足	-10.2425
不實	-10.2428
無知	-10.2429
法慧	-10.2433
二相	-10.2434
或復	-10.2437
釋中	-10.244
斷滅	-10.2441
鼓	-10.245
雙非	-10.245
名義	-10.2459
諸三昧	-10.2459
劫中	-10.246
思量	-10.2461
二依	-10.2462
法義	-10.2469
甚深法	-10.2472
六種	-10.2472
辭退而去	-10.2493
修治	-10.2499
應化	-10.25
由旬	-10.2504
見此	-10.2505
三德	-10.2506
從其	-10.2507
十佛剎微塵數	-10.252
各異	-10.2522
剎種	-10.2525
累	-10.2534
智波羅蜜	-10.2534
初十	-10.2541
一日	-10.2545
亦以	-10.2552
因位	-10.2552
惠	-10.2553
所顯	-10.2558
四攝	-10.2558
傍	-10.2565
有八	-10.2569
有餘	-10.2572
必有	-10.2574
廣顯	-10.2579
深法	-10.2589
顯其	-10.2594
層	-10.2597
誤	-10.2599
來意	-10.2603
種類	-10.2604
於中先	-10.2607
作佛事	-10.261
或時	-10.2622
不隨	-10.2628
口業	-10.2629
乾闥婆	-10.2632
草木	-10.2633
能觀	-10.2639
梵音	-10.2646
酬	-10.2647
異相	-10.265
普應	-10.2653
常在	-10.2655
上首	-10.2657
有二一	-10.2659
成上	-10.2662
但約	-10.2664
十方盡歸命滅罪增淨信願	-10.2664
即同	-10.2664
阿僧祇劫	-10.2665
御	-10.2667
令住	-10.2676
嗔	-10.2686
則不	-10.2688
關	-10.2691
無性故	-10.2693
十願	-10.2694
訶	-10.2695
復以	-10.2699
惟	-10.2701
以為其	-10.2703
不可見	-10.2704
正受	-10.2704
彼論	-10.2706
令生	-10.2707
所立	-10.2712
未有	-10.2712
無所畏	-10.2717
明菩薩	-10.2718
浮	-10.2719
九會	-10.272
拘	-10.2726
勝劣	-10.2726
。』「	-10.2726
一一塵中	-10.2729
心者	-10.2729
有言	-10.2733
十方一切世界	-10.2733
離言	-10.2733
於中四	-10.2736
五門	-10.2738
三賢	-10.2738
依彼	-10.2741
諸乘	-10.275
無有盡	-10.2752
離世間	-10.2753
問若	-10.2754
案	-10.2757
炎	-10.2758
於其	-10.2764
乾	-10.2765
枝	-10.2767
彼此	-10.277
初教	-10.2776
難思議	-10.2782
權教	-10.2786
出體	-10.2788
菩薩住	-10.2795
牙	-10.2797
表之	-10.2801
菩提場	-10.2807
證理	-10.2809
而恒	-10.281
知足	-10.2811
天宮	-10.2812
攝一切	-10.2816
成菩提	-10.2818
三段	-10.2819
豈非	-10.2829
不現	-10.2831
與眾生	-10.2836
歎德	-10.2839
大士	-10.284
報得	-10.2842
種種諸	-10.2842
設有	-10.2842
無有障礙	-10.2849
一會	-10.2853
實義	-10.2854
薄	-10.2854
思議	-10.2854
現相	-10.2858
形像	-10.2858
此名	-10.2866
摩尼王	-10.2882
相成	-10.2888
一切行	-10.2889
普照十方	-10.2893
有大	-10.2894
諸度	-10.2894
周法界	-10.2897
澤	-10.2898
染著	-10.29
之業	-10.2909
彼佛	-10.2911
此身	-10.2912
羅剎	-10.2922
彼云	-10.2923
興供	-10.2925
世界種名	-10.2926
諸經	-10.2928
常見	-10.2932
君	-10.2933
非有非無	-10.2934
已得	-10.2936
十心	-10.2939
餘二	-10.2939
心淨	-10.2941
略釋	-10.2942
供養佛	-10.2943
五根	-10.2943
他方	-10.2944
分四	-10.2951
七者	-10.2952
天台	-10.2957
下即	-10.296
發生	-10.2961
徵釋	-10.2964
護念	-10.2965
謂佛	-10.2967
發願	-10.2969
珍寶	-10.297
不能知	-10.2972
隨眾生	-10.2973
常為	-10.2975
釋上	-10.2976
能為	-10.2978
所造	-10.2978
諸佛所	-10.2982
為說法	-10.2982
湛然	-10.2987
爾時善財	-10.2988
於是	-10.299
等皆	-10.2997
瞋恚	-10.2997
是一	-10.2997
次有佛興名	-10.2999
阿脩羅	-10.3
約位	-10.3005
佛名	-10.3005
資糧	-10.301
能淨	-10.3012
願得	-10.3014
頂禮	-10.3017
傷	-10.302
師子吼	-10.3024
不移	-10.3024
一切種	-10.3024
法合	-10.3026
顯理	-10.3037
隨行	-10.3037
後十	-10.3039
無有餘	-10.3045
檀波羅蜜	-10.3045
如其	-10.3049
▁十	-10.3055
一切眾	-10.3061
不分	-10.3061
合為一	-10.3062
忽	-10.3064
既無	-10.3069
願共諸眾生往生華藏海	-10.3069
闡提	-10.3073
遍滿	-10.3077
二智	-10.3082
在此	-10.3083
其意	-10.3085
無形	-10.3086
行也	-10.309
俱有	-10.309
演法	-10.3091
之位	-10.3097
總句	-10.3097
但言	-10.3098
悟入	-10.3105
三事	-10.3106
無障	-10.3113
塗	-10.3115
同佛	-10.3118
為真	-10.3125
貪愛	-10.3125
妙香	-10.3125
塗香	-10.3126
〕	-10.3127
錯	-10.3133
海印	-10.3139
品中	-10.3144
大慧	-10.3153
足下	-10.3153
廣多	-10.3154
開發	-10.3154
亦復然	-10.316
者如	-10.3165
移	-10.3174
饒益眾生	-10.3179
總為	-10.318
懼	-10.318
現故	-10.3181
有為法	-10.3182
為物	-10.3183
無有量	-10.3192
八者	-10.3197
鑒	-10.3202
劫海	-10.3206
如日	-10.321
先標	-10.321
淺深	-10.322
為總	-10.3224
樂欲	-10.3226
前之	-10.3228
諸群生	-10.3228
是事	-10.3229
一部	-10.323
免	-10.3234
義通	-10.3234
以佛	-10.3235
具有	-10.3237
真金	-10.3239
濫	-10.3243
妙光	-10.3244
輪迴	-10.3253
以智慧	-10.3264
降伏	-10.3264
二教	-10.3265
竪	-10.3265
雖復	-10.3275
悟解	-10.3275
名稱	-10.3278
諸苦	-10.3283
難見	-10.3292
邊際	-10.3293
理故	-10.3294
遍十方	-10.3296
一以	-10.3299
西域	-10.3302
文中二	-10.3308
。」「	-10.3316
復現十種	-10.332
藏菩薩	-10.3321
又問	-10.3321
說偈	-10.3327
俗諦	-10.3327
二十一	-10.3331
利眾生	-10.3334
身見	-10.3335
實性	-10.3336
遍周	-10.3337
方廣	-10.3337
三十二相	-10.3337
十頌	-10.3338
沈	-10.3341
聽受	-10.3341
則以	-10.3342
於理	-10.336
但說	-10.336
三門	-10.3361
菩薩地	-10.3361
差別故	-10.3361
未能	-10.3364
唯佛	-10.3365
於一切世界	-10.3367
諸有情	-10.3368
乃至云	-10.3368
智行	-10.3373
明佛	-10.3375
衰	-10.3377
有支	-10.3384
方所	-10.3385
能得	-10.3387
得道	-10.3388
方成	-10.3388
快樂	-10.339
令我	-10.3391
不息	-10.3392
為方便	-10.3393
法光明	-10.3393
圓通	-10.3402
幾	-10.3402
末後	-10.3411
但明	-10.3412
前中三	-10.3415
非但	-10.3415
哀	-10.3416
今日	-10.3416
其體	-10.3418
影略	-10.3424
無斷	-10.3435
幢菩薩	-10.3436
隨其所應	-10.3437
通明	-10.344
徧周	-10.3445
莫不	-10.3445
之上	-10.3447
▁初正	-10.3451
魚	-10.3451
無功	-10.3452
以何	-10.3454
二顯	-10.3457
是為菩薩摩訶薩	-10.3458
雲雨	-10.3459
盡未來劫	-10.3462
不立	-10.3463
十方佛	-10.3465
性自	-10.3465
小異	-10.3469
胎	-10.3474
王位	-10.3479
詳	-10.348
勝妙	-10.3481
諸會	-10.3486
富	-10.3495
摩耶夫人	-10.3496
真智	-10.3497
出現品	-10.35
下正	-10.35
開敷	-10.3501
徧十方	-10.351
眠	-10.3511
六相	-10.3511
法喻	-10.3512
十億	-10.3512
勸請	-10.3517
黃	-10.352
故成	-10.3523
映	-10.3523
逢	-10.3524
照明	-10.3526
器世間	-10.3526
菩薩所行	-10.3536
到彼岸	-10.3537
無緣	-10.3544
一段	-10.3551
有三義	-10.3553
佛剎微塵數世界	-10.3556
無色界	-10.3557
角	-10.3559
第二會	-10.3566
同別	-10.357
如來境界	-10.357
佛國	-10.357
前中亦二	-10.3573
通顯	-10.3574
為正	-10.3575
摩耶	-10.358
無方	-10.3581
信受	-10.3584
二十五	-10.3584
生者	-10.359
稟	-10.3594
滅除	-10.3596
洲	-10.3598
▁二別顯	-10.3604
不可說佛剎微塵數	-10.3607
無生滅	-10.3608
謬	-10.3608
一切國土	-10.3611
言教	-10.3611
但取	-10.3614
如金剛	-10.3617
於一切處	-10.3619
八相	-10.3622
▁初約	-10.3624
增勝	-10.3625
雖無	-10.3627
阿修羅	-10.363
妻	-10.3633
三禪	-10.3635
乞	-10.3636
分段	-10.3643
▁初揔	-10.3647
知諸法	-10.3652
索	-10.3654
苦集	-10.3655
生時	-10.3655
比丘尼	-10.3659
普觀一切	-10.3661
有七	-10.3663
文有三	-10.3665
投	-10.3665
再	-10.367
纔	-10.3671
城名	-10.3682
此教	-10.3684
委	-10.3685
露	-10.3687
後義	-10.3689
為此	-10.3693
堪受	-10.3704
生死涅槃	-10.3708
道故	-10.3711
瞻	-10.3711
能捨	-10.3712
長時	-10.3714
色像	-10.3721
暢	-10.3722
共相	-10.3724
般若波羅蜜門	-10.3728
皆言	-10.3729
樓	-10.373
聲聞乘	-10.373
僧祇	-10.3732
道者	-10.3733
救護一切眾生	-10.3743
妻子	-10.3749
熱惱	-10.3759
善入	-10.3762
等法	-10.3767
聞持	-10.3771
諸佛剎	-10.3772
初四	-10.3778
相攝	-10.3778
見其	-10.3778
地位	-10.378
舒	-10.3785
諸見	-10.3788
雪山	-10.379
氏	-10.3793
自在神力	-10.3794
稱歎	-10.3795
法華經	-10.3796
六處	-10.3799
等十	-10.3803
又初	-10.3804
字時	-10.3806
總標	-10.3808
均	-10.3809
哀愍	-10.3813
不如	-10.3815
摩尼寶王	-10.3816
眼等	-10.3817
業障	-10.3819
釋義	-10.3826
親近供養	-10.3827
度脫	-10.3828
之眾	-10.383
今取	-10.3834
無滅	-10.3836
作如是念	-10.3839
如諸菩薩摩訶薩	-10.384
非謂	-10.3841
難可	-10.3847
轉勝	-10.3849
藉	-10.385
事中	-10.3853
合前	-10.3855
非如	-10.3857
今但	-10.3858
無行	-10.386
覺觀	-10.3861
初舉	-10.3861
汝今	-10.3861
諸德	-10.3863
先舉	-10.3863
二法	-10.3866
雙融	-10.3866
入法	-10.3867
不虛	-10.387
第二句	-10.3871
說有	-10.3881
不相知	-10.3896
本事	-10.3896
於無量劫	-10.3897
群	-10.3898
別教一乘	-10.3903
護法	-10.3904
譬如有人	-10.3906
十智	-10.3911
——	-10.3913
都無	-10.3916
菩提樹下	-10.3916
散亂	-10.3918
作如是言	-10.392
之首	-10.3922
以自	-10.3924
別說	-10.3925
伹	-10.3927
用故	-10.3928
今依	-10.3928
春	-10.3929
謙	-10.3931
初生	-10.3934
不識	-10.3935
眾生身	-10.3936
淨行	-10.3937
請問	-10.3942
謂有	-10.3944
不復	-10.3948
諸比丘	-10.395
珍	-10.3955
即涅槃	-10.396
初總標	-10.3961
知根	-10.3963
箇	-10.3965
而於	-10.3966
九者	-10.3966
有相	-10.3969
所執	-10.397
淨光	-10.3972
右	-10.3972
化現	-10.3974
不貪	-10.3978
俱是	-10.3981
釋前	-10.3985
則得如來無上	-10.3988
諸善知識	-10.3995
恒河沙	-10.3999
能斷	-10.4002
修諸行	-10.4007
啟	-10.4007
就初	-10.4011
順理	-10.4013
大力	-10.4015
結跏趺坐	-10.4015
徧照	-10.4019
皆依	-10.4023
所行道	-10.4028
已說	-10.4028
貧	-10.4031
七識	-10.4031
揀異	-10.4035
依果	-10.4036
勤求	-10.4036
修善	-10.4037
後二句	-10.4041
普觀	-10.4041
或施	-10.4042
取著	-10.4045
鉢	-10.4045
帖	-10.4054
▁初問	-10.4056
無窮盡	-10.4059
由是	-10.406
海住	-10.4066
汝當	-10.4066
按	-10.4068
無智	-10.4069
准之	-10.4071
他人	-10.4074
符	-10.4076
張	-10.4081
誑	-10.4084
奏	-10.4086
能引	-10.409
若諸菩薩安住此法	-10.4095
法器	-10.4098
亦說	-10.41
體即	-10.4102
飛	-10.4105
入如來	-10.4107
增益	-10.4114
上品	-10.412
山王	-10.4128
漸漸	-10.4128
三聚	-10.4131
空義	-10.4132
一異	-10.4133
那由他	-10.4135
察	-10.4136
法雲地	-10.4136
十事	-10.4136
為勝	-10.4139
兜率	-10.4141
補	-10.4141
里	-10.4141
其性	-10.4142
佛為	-10.4143
施與	-10.4145
明以	-10.4149
遠離一切	-10.4149
緊那羅	-10.4159
因陀羅	-10.416
此通	-10.4161
所信	-10.4162
九門	-10.4162
愛語	-10.4163
令人	-10.4165
前明	-10.4172
所修行	-10.4179
是非	-10.4179
承事供養	-10.4182
攝持	-10.4183
明此位菩薩	-10.4184
偽	-10.4186
得菩薩	-10.4189
借	-10.4192
與佛	-10.4192
大光明	-10.4193
是所	-10.4197
不畏	-10.4198
▁初總	-10.42
普攝	-10.4203
二十八	-10.4203
為佛	-10.4208
下二句	-10.4215
正教	-10.4216
梵云	-10.4217
為諸眾生	-10.4237
佛道場一切海眾	-10.4244
住此	-10.4248
盡故	-10.4248
即上	-10.4248
問此	-10.4249
第一義諦	-10.4251
▁二顯	-10.4251
高下	-10.4263
塵中	-10.4271
志樂	-10.4276
九句	-10.4279
二品	-10.4282
唐于闐國三藏沙門實叉難陀譯	-10.4285
群生	-10.4285
染污	-10.429
觀者	-10.4293
龍樹	-10.4298
相也	-10.4299
為實	-10.4306
四約	-10.4308
見諸佛	-10.4308
破壞	-10.431
有何	-10.4311
體也	-10.4312
如化	-10.4314
與彼	-10.4317
徧滿	-10.432
可說	-10.432
此天	-10.4332
繫縛	-10.4333
過患	-10.4335
等事	-10.4339
破戒	-10.4341
了因	-10.4344
生歡喜	-10.4344
齒	-10.4346
無學	-10.4346
之初	-10.4348
寶網	-10.4353
證法	-10.4354
何處	-10.436
契理	-10.436
一切菩薩行	-10.4372
當位	-10.4378
寂照	-10.4378
百川	-10.4384
後顯	-10.4386
錢	-10.4386
心中	-10.4387
階	-10.4388
淨故	-10.439
雷	-10.4392
究	-10.4399
等正覺	-10.4408
修證	-10.4411
眾生世間	-10.4411
險	-10.4411
障故	-10.4413
有四句	-10.442
看	-10.4422
結歸	-10.4422
即如	-10.4423
於諸眾生	-10.4424
身土	-10.4426
能於	-10.4436
清淨心	-10.4439
與此	-10.4442
記云	-10.4444
沉	-10.4445
利物	-10.4446
之益	-10.4448
說分	-10.4448
而為上首	-10.4453
約事	-10.4455
即能	-10.4455
初住	-10.4455
意也	-10.4456
觀智	-10.4458
窟	-10.4461
對上	-10.4467
逮得	-10.4468
誘	-10.4471
意在	-10.4478
或作	-10.448
於諸佛所	-10.448
北方	-10.4484
光普照	-10.4488
總釋	-10.4494
尚不	-10.4495
不足	-10.4498
所住處	-10.45
顧	-10.4507
有為無為	-10.4507
離染	-10.4508
名言	-10.4509
准此	-10.451
法忍	-10.4517
能照	-10.4521
如雲	-10.4522
嚴具	-10.4523
妄語	-10.4528
方是	-10.4532
有云	-10.4533
般	-10.4534
一切智道	-10.4535
理性	-10.4538
訖	-10.4538
無量諸	-10.454
世諦	-10.454
前際	-10.4541
俱非	-10.4543
柱	-10.4546
益生	-10.4548
畜	-10.4553
就前	-10.4562
中論	-10.4563
不同故	-10.4566
隨一	-10.4569
令眾	-10.457
及餘	-10.4572
是為菩薩	-10.4572
鄣	-10.4577
無言	-10.4578
▁南無得	-10.4584
時善財童子	-10.4586
▁二約	-10.4589
謂若	-10.4596
▁初示義	-10.4596
諸菩薩行	-10.46
善說	-10.46
生佛	-10.4601
約理	-10.4605
本行	-10.4607
餘如	-10.4616
遷	-10.4623
厚	-10.4624
者之所住處	-10.4625
五十	-10.4631
生大歡喜	-10.4631
因圓	-10.4633
智論云	-10.4634
具如	-10.4636
轉正法輪	-10.4636
疏中	-10.4644
勝智	-10.4645
寶光明	-10.4645
離惡	-10.4648
也又	-10.4656
荅	-10.4662
雲集	-10.4667
示現一切	-10.4669
根性	-10.4673
非我	-10.4677
逝多林	-10.4679
自說	-10.4682
此智	-10.4682
一位	-10.4684
屈	-10.4684
淨眼	-10.4689
難測	-10.4691
諸劫	-10.4696
揔	-10.4696
力持	-10.4698
行滿	-10.4703
對法	-10.4708
驗	-10.4708
欲得	-10.4712
令離	-10.4714
修因	-10.4715
法慧菩薩	-10.4716
任持	-10.4716
不殊	-10.4717
應以	-10.4718
無過	-10.4718
一切境界	-10.4719
成其	-10.4722
無有窮盡	-10.4722
者表	-10.4724
二俱	-10.4726
普賢行願	-10.4727
供具	-10.4728
是為菩薩摩訶薩十種	-10.4729
停	-10.4731
如世	-10.4731
悲心	-10.4732
造作	-10.4745
降魔	-10.4746
椽	-10.4748
於生死	-10.4748
一依	-10.475
結歎	-10.475
智通	-10.4752
箭	-10.4752
不思	-10.4757
所願	-10.4757
猶如虛空	-10.4758
轉輪王	-10.4761
而為說法	-10.4763
亦具	-10.4764
起於	-10.4767
無增減	-10.4768
歡喜地	-10.4769
圓滿故	-10.477
皆通	-10.4777
稱法界	-10.4778
法智	-10.4782
多佛	-10.4784
舍利	-10.4785
同也	-10.4786
經典	-10.4792
泉	-10.4792
為彼	-10.4799
眾德	-10.4812
各隨	-10.4813
聞此	-10.4821
是彼	-10.4821
若就	-10.4823
超出	-10.4824
曉了	-10.4832
不有	-10.4834
樂說	-10.4834
多同	-10.4836
若取	-10.4837
不共法	-10.4841
未來世	-10.4842
之外	-10.4855
納	-10.4858
之與	-10.4858
寒	-10.4861
陽	-10.4868
等取	-10.4879
勇健	-10.488
以是義故	-10.4886
如來應正等覺	-10.4891
二別	-10.4893
實德	-10.4895
諸佛國土	-10.4896
者此云	-10.4899
如來出現	-10.4901
始成正覺	-10.4904
證道	-10.4905
多門	-10.4913
盜	-10.4914
樹下	-10.4915
即知	-10.4919
宗趣	-10.4922
悲願	-10.4925
略明	-10.4929
下答	-10.4933
大菩薩	-10.4937
隨類	-10.4937
名相	-10.4942
三十七	-10.4943
若是	-10.4947
之異	-10.4949
於諸法	-10.4949
以義	-10.495
夜叉王	-10.495
且約	-10.4951
錄	-10.4956
軍	-10.4961
利他行	-10.4963
主夜神	-10.4967
悉現	-10.4967
有二義一	-10.4977
前地	-10.4978
應現	-10.4983
門也	-10.4984
教中	-10.4984
因陀羅網	-10.4984
心王	-10.4985
未盡	-10.499
皆如	-10.4991
聞巳	-10.4993
意生身	-10.5
脩行	-10.5001
念念中	-10.5009
了義	-10.5009
菩薩身	-10.501
前九	-10.5011
巳得	-10.5011
短	-10.5013
若見眾生	-10.5014
大方廣	-10.5025
日輪	-10.5026
生死海	-10.5026
百千億	-10.5029
淨信	-10.5029
無所住	-10.5031
玉	-10.5034
答中	-10.5037
深妙	-10.5038
正定	-10.504
於上	-10.5042
其數	-10.5043
色等	-10.5044
爾所	-10.5048
鬼神	-10.5058
無礙故	-10.506
於中有二	-10.506
佛神力	-10.5063
異體	-10.5065
去來	-10.5067
禮敬	-10.5069
能隨	-10.5072
令物	-10.5073
實無	-10.5073
彰其	-10.5078
無數劫	-10.5078
此五	-10.5089
二段	-10.5089
方名	-10.5089
涅槃云	-10.509
作是	-10.5094
果中	-10.5096
二十二	-10.5097
曜	-10.5105
惡行	-10.5105
光明雲	-10.5105
佛告	-10.5107
位故	-10.5108
二十四	-10.5108
巧方便	-10.5114
業惑	-10.5117
昏	-10.5119
事法	-10.512
豎	-10.5123
遍一切	-10.5127
自知	-10.5132
軌	-10.5133
莖	-10.5136
智德	-10.5137
途	-10.5147
方便智	-10.5154
▁二辨	-10.5158
婆沙	-10.5161
蜜	-10.5164
示現種種	-10.5168
佛智慧	-10.5169
攀緣	-10.5173
常以	-10.5176
無疑	-10.5177
化佛	-10.5181
義當	-10.5181
先釋	-10.5182
六波羅蜜	-10.5185
正理	-10.5186
自下	-10.5186
寄位	-10.5186
增減	-10.5187
定有	-10.5196
以諸	-10.5196
不可說不可說佛剎微塵數	-10.5201
百年	-10.5201
時有	-10.5201
分五	-10.5202
方便故	-10.5203
分位	-10.5205
禪波羅蜜	-10.5209
遵	-10.5219
種智	-10.5221
瑜伽云	-10.5222
眾妙	-10.5222
殊特	-10.5223
謂之	-10.5223
或唯	-10.5223
於一念頃	-10.5225
宿命	-10.5226
▁三釋	-10.5229
推求	-10.5232
此意	-10.5232
果位	-10.5233
猶未	-10.5234
乃能	-10.5235
多身	-10.5235
時彼	-10.5238
其名	-10.5239
中無	-10.524
受者	-10.5242
超勝	-10.5242
而常	-10.5247
諸緣	-10.5248
身口	-10.5251
道場眾會	-10.5252
離分別	-10.5255
収	-10.5255
通局	-10.5256
清淨光明	-10.5258
無得	-10.5259
遺	-10.5266
將欲	-10.5269
具足一切	-10.5269
泥洹	-10.5272
說經	-10.5279
難云	-10.5292
一方	-10.5293
無遺	-10.5294
第七地	-10.5299
十方一切	-10.5307
令成	-10.5311
不相應	-10.5311
芽	-10.5311
皆無	-10.5312
即事	-10.5319
觀一切法	-10.5324
廣大心	-10.5325
蛇	-10.5327
憂惱	-10.5328
因也	-10.533
善解	-10.5332
別者	-10.5334
既言	-10.5335
明達	-10.5335
讀	-10.5335
貪等	-10.5337
約人	-10.534
為名	-10.5345
充滿十方	-10.5346
決擇	-10.5347
普使	-10.5348
正證	-10.5351
不生滅	-10.5351
奇特	-10.5353
問云	-10.5354
香華	-10.5355
妙用	-10.5362
理事無礙	-10.5363
某	-10.5365
總中	-10.5365
法界無量	-10.5365
若諸菩薩	-10.5365
香雲	-10.5371
諸國土	-10.5373
以理	-10.538
汝應	-10.5382
以上	-10.5384
又見	-10.5384
不可窮盡	-10.5387
下正明	-10.5388
專求	-10.539
上皆	-10.539
猛	-10.5397
施心	-10.5397
其有	-10.5398
一念中	-10.5399
有體	-10.5399
修生	-10.54
菩薩眾	-10.5401
攝故	-10.5404
所在	-10.5408
所斷	-10.5412
果也	-10.5418
胡	-10.5421
依處	-10.5423
八部	-10.5424
船	-10.5427
億劫	-10.5428
異者	-10.5431
言無	-10.5436
造業	-10.5438
令心	-10.5438
一切三世	-10.5441
五明	-10.5442
例然	-10.5442
者即是	-10.5444
上云	-10.5448
四方	-10.545
於三世	-10.5452
凡小	-10.5458
善分別	-10.5461
自見	-10.5462
閣	-10.5464
所樂	-10.5466
經曰	-10.5468
執持	-10.5469
流出	-10.5469
即成	-10.5479
阿脩羅王	-10.5486
處故	-10.5488
可愛樂	-10.5489
寶珠	-10.549
側	-10.549
恚	-10.5494
普智	-10.5495
出入	-10.5497
七種	-10.5502
如法	-10.5503
寶衣	-10.5503
所念	-10.5505
舉其	-10.5508
反顯	-10.5508
以喻	-10.5509
偈文	-10.551
而實	-10.551
。】△	-10.551
伊	-10.551
佛種	-10.5511
上上	-10.5518
真實義	-10.5519
謂初	-10.5527
寶光	-10.5528
集眾	-10.553
如水	-10.5534
何名	-10.5535
同教一乘	-10.5536
蓮華藏	-10.5542
聽法	-10.5544
喻喻	-10.5544
世主	-10.5546
一切眾生心	-10.5548
厭離	-10.5548
釋此	-10.5552
智自在	-10.5553
又上	-10.5558
菩提分	-10.5558
今更	-10.5563
初辨	-10.5567
毗盧遮那如來	-10.5574
眾寶莊嚴	-10.5585
真珠	-10.5596
菩薩得	-10.5598
四相	-10.5598
形色	-10.5598
即時	-10.5601
法行	-10.5602
聞慧	-10.5611
能除	-10.5612
緊那羅王	-10.5615
若云	-10.5616
彌勒菩薩	-10.5616
大行	-10.5619
三十三天	-10.562
得一切智	-10.5622
其餘	-10.5623
一世界	-10.5623
欲求	-10.5624
有其	-10.5624
契經	-10.5625
所流	-10.5625
有無量	-10.5626
威神	-10.5628
文有二	-10.5632
世間法	-10.5632
得大	-10.5632
寶蓮華	-10.5636
諸門	-10.5638
緣成	-10.5642
其事	-10.5644
告善財言	-10.5648
合中	-10.5649
上四	-10.565
二人	-10.565
入位	-10.5653
一字	-10.5654
聞說	-10.5662
諸佛境界	-10.5664
三重	-10.5667
地智	-10.5668
問中	-10.5668
殊妙	-10.5669
百萬阿僧祇	-10.5679
閻浮檀金	-10.5682
若離	-10.5684
十段	-10.5685
消滅	-10.5687
六識	-10.5692
次明	-10.5693
想念	-10.5694
盧舍那	-10.5697
能令眾生	-10.5698
相資	-10.5712
謂依	-10.5712
惠施	-10.5712
瞻仰	-10.5712
天上	-10.5715
初中二	-10.5724
蟲	-10.5725
作者	-10.5729
無上道	-10.5741
入正定	-10.5746
有五種	-10.5747
苦果	-10.5749
二云	-10.575
中具	-10.5753
族	-10.5757
開演	-10.5757
覺知	-10.576
夫人	-10.5762
天鼓	-10.5765
善根故	-10.5766
能行	-10.5767
世親	-10.5774
十萬	-10.5775
信位	-10.5782
從初發心	-10.579
五性	-10.5793
盲	-10.5796
仁王	-10.5803
左	-10.5804
既有	-10.5804
斷煩惱	-10.5812
色心	-10.5815
一切法門	-10.5817
殺生	-10.5817
不念	-10.5819
攝眾生	-10.5822
若聞	-10.5824
▁二引證	-10.5824
延	-10.5825
蘇	-10.5825
六通	-10.5828
來集	-10.5831
以法界	-10.5831
□	-10.5832
下約	-10.5834
安置	-10.5842
受生藏	-10.5842
之數	-10.5843
依教	-10.5843
上文	-10.5843
餘四	-10.5846
潔	-10.5848
說名	-10.585
定性	-10.5853
白佛言	-10.5855
初後	-10.586
大般若	-10.5864
呵	-10.5868
非色	-10.5874
愛欲	-10.5884
廣博	-10.5886
為伴	-10.5886
五法	-10.589
但隨	-10.5892
大品	-10.5894
一剎	-10.5895
眾善	-10.5896
遍照	-10.5899
下云	-10.59
果滿	-10.5902
何謂為十	-10.5906
海雲	-10.5913
吉	-10.5913
洞	-10.5914
結通	-10.5915
何別	-10.5916
斷疑	-10.5918
琉璃	-10.592
授法	-10.5923
而知	-10.5924
稱揚	-10.5924
莫能	-10.5926
無來去	-10.5927
以大悲	-10.5929
不解	-10.5933
佛眼	-10.5943
難說	-10.5946
或於	-10.5951
和尚	-10.5953
何用	-10.5955
所用	-10.5955
說言	-10.5955
頌曰	-10.5957
以辨	-10.5961
附	-10.5962
知三世	-10.5966
有四義	-10.5967
為他	-10.5968
取相	-10.597
之地	-10.5976
重釋	-10.5977
蓮	-10.5978
巳下明	-10.5978
隨業	-10.5984
聞已	-10.5986
增廣	-10.5987
理無	-10.5988
教門	-10.5989
若菩薩	-10.599
所有眾生	-10.599
男	-10.599
幻有	-10.6
不可得故	-10.6006
自覺	-10.6008
▁二科經	-10.6009
海水	-10.6011
大功德	-10.6011
那羅延	-10.6011
更不	-10.6013
下別釋	-10.6015
勇猛精進	-10.602
次釋	-10.6026
第十地	-10.6029
果分	-10.6029
同此	-10.6036
正因	-10.6037
問也	-10.6037
次偈	-10.6039
由上	-10.6041
十方國土	-10.6042
常勤	-10.6045
兒	-10.6047
曠	-10.6048
無動	-10.6051
以為眷屬	-10.6052
召	-10.6052
菩薩爾時	-10.6062
淨修	-10.6062
不轉	-10.6063
須臾	-10.6063
不動智佛	-10.6068
身語意業	-10.6069
斷除	-10.6073
放光明	-10.6073
又於	-10.6074
未生	-10.6077
差別者	-10.6082
痛	-10.6085
生天	-10.6086
所熏	-10.6087
刀	-10.609
大莊嚴	-10.6096
諸願	-10.6099
瑞	-10.6099
▁初總標	-10.6099
初義	-10.61
內證	-10.6101
疑云	-10.6102
有二意	-10.6103
下文云	-10.6107
二邊	-10.6107
非一非異	-10.6107
城邑	-10.6111
退失	-10.6113
無量世界	-10.6113
顯實	-10.6118
能滅	-10.6121
眾多	-10.6122
有九	-10.6123
為諸	-10.6124
無諍	-10.6125
無盡藏	-10.6129
十海	-10.6134
五對	-10.6135
三十六	-10.6136
永不	-10.6139
是有	-10.6141
相待	-10.6142
無前後	-10.6143
競	-10.6143
此心	-10.615
釋曰此	-10.6155
成熟眾生	-10.6156
品類	-10.6157
摧伏	-10.6161
而巳	-10.6162
入理	-10.6162
二會	-10.6162
如斯	-10.6163
令諸菩薩	-10.6169
實報	-10.6173
十地中	-10.6174
一一各	-10.6176
以有	-10.6177
大慈大悲	-10.618
言語	-10.618
侍	-10.6181
者此	-10.6181
義同	-10.6182
二位	-10.6183
功德藏	-10.6184
夏	-10.6185
血	-10.6188
鹿	-10.6188
能信	-10.619
同彼	-10.6191
務	-10.6191
葢	-10.6191
極微	-10.6193
摩睺羅伽	-10.6196
無定	-10.6198
不攝	-10.6203
地地	-10.6203
應供	-10.6207
即攝	-10.6208
法相宗	-10.6211
空無	-10.6211
迦樓羅王	-10.6214
亦知	-10.6214
敗	-10.6218
普法	-10.622
婬	-10.622
末香	-10.6223
報恩	-10.6223
此法門	-10.6224
和會	-10.6226
空觀	-10.6228
當成	-10.6229
𣗳	-10.6234
種善根	-10.6234
六七	-10.6235
為依	-10.6235
初約	-10.6235
迦樓羅	-10.6236
孤	-10.6237
寶王	-10.624
滿故	-10.624
量等	-10.6241
二事	-10.6242
碎	-10.6244
諂曲	-10.6246
業力	-10.6247
生後	-10.6247
法界故	-10.6248
除滅一切	-10.6248
不遷	-10.6249
緣故	-10.625
能了	-10.6256
正解	-10.6258
教化調伏	-10.6264
平等心	-10.6264
神通變化	-10.6266
求菩提	-10.6267
又由	-10.6269
釋論	-10.627
夜摩	-10.6272
順行	-10.6276
七八	-10.6281
普光明殿	-10.6283
否	-10.6285
於空	-10.6285
一切諸如來	-10.6288
臂	-10.6296
如響	-10.6302
希求	-10.6305
所取	-10.6305
四天王	-10.6306
喻顯	-10.6306
慕	-10.6307
半月	-10.6315
悉入	-10.632
淨法	-10.6322
第二明	-10.633
事相	-10.6332
具一切	-10.6332
圖	-10.6334
既不	-10.6335
隨煩惱	-10.6338
序分	-10.6342
香海	-10.6345
用也	-10.6354
算數	-10.6354
日夜	-10.6356
實法	-10.6357
論經云	-10.6359
皆如實知	-10.6359
揚	-10.6361
其光	-10.6363
滅盡	-10.6364
大威德	-10.6364
即顯	-10.6365
大會	-10.6368
迷悟	-10.6369
即非	-10.6372
初總明	-10.6373
諸大	-10.6378
三乘教	-10.6381
蓮花	-10.6384
梵本云	-10.6386
善決定	-10.639
於中有三	-10.639
轉輪聖王	-10.6392
繒	-10.6393
非常	-10.6393
觀心	-10.6398
勝用	-10.6399
定體	-10.6401
知佛	-10.6404
先總	-10.6407
以此善根	-10.6408
入此三昧	-10.6412
稱理	-10.6414
十定品	-10.6418
起故	-10.6419
諸龍	-10.6421
受樂	-10.6422
隨義	-10.6423
令修	-10.6424
終頓	-10.6425
窮盡	-10.6426
心意	-10.6426
尋伺	-10.6428
夷	-10.6428
殘	-10.643
具足成就	-10.6431
文有十句	-10.6432
生疑	-10.6435
耀	-10.6436
見有	-10.6438
右旋	-10.644
行業	-10.6441
順忍	-10.6442
遭	-10.6442
四重	-10.6444
有十句	-10.6449
眉間	-10.6449
善來	-10.6449
法樂	-10.6452
心地	-10.6454
現見	-10.6455
於一一	-10.6457
助成	-10.6458
迴轉	-10.6461
影現	-10.6464
為業	-10.6465
寂用	-10.6466
現在前	-10.6468
電光	-10.6471
有三一	-10.6471
次有佛興	-10.6477
策	-10.6479
所出	-10.6484
後七	-10.6484
掌	-10.6484
一名	-10.6491
有佛	-10.6493
次一頌	-10.6496
如大	-10.6496
告言	-10.6498
不可數	-10.6501
先問	-10.6507
閉	-10.6509
聖智	-10.6511
有二門	-10.6515
種姓	-10.6517
前中初	-10.6521
唐清涼山大華嚴寺沙門澄觀撰述	-10.6523
得定	-10.6524
十偈	-10.6524
崇	-10.6529
尊者	-10.6533
相應故	-10.6534
論說	-10.6535
云何得	-10.6536
本智	-10.6536
不妨	-10.654
上方	-10.6542
利行	-10.6545
請說	-10.6545
乾闥婆王	-10.6548
意趣	-10.6548
讚佛	-10.6552
即是佛	-10.6554
定意	-10.6554
財物	-10.6559
其文	-10.6559
三昧者	-10.656
彌覆其上	-10.6565
入地	-10.6567
問何故	-10.6568
阿僧祇世界	-10.657
幸	-10.6571
】【	-10.6574
頻	-10.6574
此菩薩摩訶薩	-10.6575
望前	-10.6576
算	-10.6582
夢中	-10.6584
希望	-10.6585
我唯知此	-10.6585
為能	-10.6586
▁南無此上過佛剎微塵數世界	-10.6587
狀	-10.6587
是真	-10.6587
世界海微塵數	-10.6587
諸惑	-10.6591
相融	-10.6597
一切悉	-10.6598
體空	-10.6602
大方廣佛華嚴經疏卷第	-10.6603
為別	-10.6603
以佛神力	-10.6606
月光	-10.6607
本自	-10.6608
答此	-10.6609
二偈	-10.6609
彼人	-10.661
頂上	-10.6611
菩提心者猶如	-10.6611
履	-10.6612
下結成	-10.6612
當體	-10.6616
善修	-10.6618
法則	-10.6621
淨妙	-10.6622
憐愍	-10.6622
或住	-10.6624
智入	-10.6627
測	-10.6627
油	-10.6631
無染著	-10.6631
略示	-10.6631
明利	-10.6631
常隨	-10.6632
去來今	-10.6634
名同	-10.6634
訓	-10.6636
正知	-10.6637
無有是處	-10.6638
其地	-10.664
善逝	-10.664
別名	-10.664
如法界	-10.6641
一地	-10.6644
驚	-10.6645
▁初徵	-10.6647
中亦	-10.6648
恨	-10.665
經言	-10.6651
文並可知	-10.6653
即佛	-10.6653
因分	-10.6654
略顯	-10.6656
其猶	-10.6657
願海	-10.6664
約行	-10.6665
凡所	-10.6666
白淨法	-10.6667
嫉	-10.6671
此頌	-10.6672
心清淨	-10.6677
無壞	-10.6679
標名	-10.6681
以無著無縛解脫心	-10.6682
峯	-10.6688
十住中	-10.6689
並如	-10.6689
己身	-10.669
番	-10.6693
生解	-10.6695
別也	-10.6696
自力	-10.6697
心起	-10.6701
百萬億菩薩	-10.6702
問言	-10.6704
即明	-10.6707
成阿耨多羅三藐三菩提	-10.6708
斷常	-10.6708
為證	-10.6708
水中	-10.6709
求佛	-10.6709
客	-10.6713
鈍	-10.6714
法界品	-10.6721
妙音聲	-10.6722
下劣	-10.6724
大神通	-10.6727
游	-10.6731
慚	-10.6731
究竟清淨	-10.6732
百劫	-10.6736
後有	-10.6738
善哉善哉	-10.6738
若據	-10.6739
尺	-10.6743
下方	-10.6745
四明	-10.6748
了法	-10.6749
合為	-10.6752
二分	-10.6755
成於	-10.6762
此說	-10.6765
左右	-10.6767
能緣	-10.6767
中現	-10.6768
萬德	-10.6774
域	-10.6774
似有	-10.6775
本分	-10.6775
謂如	-10.6776
孔	-10.6776
以表	-10.6782
奮迅	-10.6784
我執	-10.6784
智明	-10.6786
是因	-10.6791
不然	-10.6795
此解脫	-10.6796
初一頌	-10.6797
兜率天	-10.6803
上中下	-10.6806
令無量眾生	-10.6807
種族	-10.6807
斥	-10.6807
況於	-10.6811
他心	-10.6813
力用	-10.6814
相顯	-10.6821
混	-10.6823
初一總	-10.6824
文有	-10.6826
其行	-10.6826
智障	-10.6828
延促	-10.683
全收	-10.683
是別	-10.684
五識	-10.6843
大劫	-10.6843
如我	-10.6845
人民	-10.6845
俱胝	-10.6858
微細智	-10.6861
淨業	-10.6865
樂著	-10.6867
出興	-10.6872
預	-10.6872
十玄	-10.6874
不可言說	-10.6875
此諸	-10.6877
我法	-10.6877
羣生	-10.6879
便成	-10.6881
不相違	-10.6884
淨智	-10.6888
何法	-10.6892
是智	-10.6895
依持	-10.6897
受報	-10.69
所照	-10.6901
險道	-10.6902
普莊嚴	-10.6903
雖知	-10.6904
中所有	-10.6905
所行處	-10.6916
束	-10.6916
頂禮其足	-10.6921
二十三	-10.6922
音樂	-10.6922
入一	-10.6922
剎中	-10.6922
成前	-10.6923
如是思惟	-10.6925
如是觀	-10.6926
No	-10.6928
炬	-10.6931
逼迫	-10.6932
慈愍	-10.6934
亦不見	-10.6934
豈得	-10.6935
遙	-10.6936
全體	-10.6936
黑闇	-10.6937
積聚	-10.6943
依法	-10.6948
梵語	-10.6949
二喻	-10.6951
住菩薩	-10.6953
正等覺	-10.6954
許說	-10.6958
佛出現	-10.696
普覆	-10.696
此顯	-10.6963
勤精進	-10.6966
後之	-10.6968
凖	-10.6971
為眾	-10.6976
入出	-10.6977
至一切處	-10.698
過未	-10.698
此界	-10.6981
三空	-10.6983
亦見	-10.6983
普光明智	-10.6985
無退轉	-10.6989
出生一切	-10.6991
純淨	-10.6993
薩	-10.6994
有邊	-10.6999
根欲	-10.7002
善慧	-10.7003
常得	-10.7005
性離	-10.7005
睡	-10.7007
第一義空	-10.7016
國王	-10.7022
誡	-10.7024
體無	-10.7029
隨文釋義者	-10.7031
▁初舉	-10.7031
前八	-10.7032
今且	-10.7036
資具	-10.7038
一卷	-10.7038
今䟽	-10.7045
各不同	-10.705
不可思	-10.7052
妄念	-10.7052
摩頂	-10.7058
引例	-10.7059
如來力	-10.7062
義門	-10.7065
證真	-10.7067
得如是	-10.7069
無量諸佛	-10.7072
折	-10.7072
為四	-10.7074
蕩	-10.7075
大悲心	-10.7076
之類	-10.708
數量	-10.7081
觀佛	-10.7081
不動地	-10.7088
明智	-10.7099
一切佛所	-10.7099
無有邊際	-10.71
合上	-10.7102
此偈	-10.7103
一毛孔	-10.7109
次十	-10.7111
朗	-10.7114
等為	-10.7117
闍	-10.7121
分為	-10.7123
一眾生	-10.7125
復有無量	-10.7126
酪	-10.7128
睡眠	-10.7129
卑	-10.7131
怛	-10.7133
中生	-10.7137
應時	-10.714
久遠	-10.7141
滅惑	-10.7141
是心	-10.7143
緣集	-10.7144
經於	-10.7146
世界名	-10.7147
夜天	-10.7148
八句	-10.7148
不滯	-10.7153
十對	-10.7154
苦諦	-10.7155
涅槃經	-10.7156
六塵	-10.716
恒以	-10.7163
術	-10.7163
並皆	-10.7164
又曰	-10.7164
內心	-10.7165
注云	-10.7171
從彼	-10.7171
或見佛身	-10.7172
現量	-10.7176
相中	-10.7176
即便	-10.7176
儒	-10.7177
決定解	-10.718
棄捨	-10.718
豈有	-10.7184
救護眾生	-10.7184
巳來	-10.7188
得一切	-10.7191
身等	-10.7194
潛	-10.7196
形奪	-10.7198
三學	-10.7198
出生無量	-10.7199
育	-10.7201
下引證	-10.7204
默然	-10.7206
八種	-10.7216
空空	-10.7218
六義	-10.722
佛名號	-10.7224
為人	-10.7225
知諸	-10.7227
盈	-10.7228
就此	-10.7231
下合	-10.7236
危	-10.7239
須菩提	-10.7245
過前	-10.725
無貪	-10.725
而自	-10.7252
所歸	-10.7256
無與等	-10.7258
鍊	-10.7259
上約	-10.726
牒經	-10.7265
又知	-10.7267
悉了知	-10.727
百門	-10.7271
牽	-10.7276
不許	-10.7281
點	-10.7282
心無所著	-10.7282
鎔融	-10.7284
摩訶衍	-10.7287
筆	-10.7287
弱	-10.7289
佛海	-10.7289
戰	-10.7289
光影	-10.729
利養	-10.7291
下出	-10.7293
刺	-10.7295
定心	-10.7303
身語	-10.7303
幢幡	-10.7305
五戒	-10.7306
是實	-10.7307
無不盡	-10.7309
妄心	-10.7314
善知識教	-10.7315
之說	-10.7316
第二十	-10.7316
成就一切	-10.7323
一切時	-10.7324
之藏	-10.7333
愛著	-10.7335
溺	-10.7336
之際	-10.7336
中先	-10.7339
一切有情	-10.7339
貌	-10.7344
為我	-10.7352
是我	-10.7355
顯德	-10.7357
智門	-10.7359
二因	-10.736
分量	-10.7363
坐道場	-10.7369
二見	-10.737
法力	-10.7372
此土	-10.7374
立教	-10.7375
具說	-10.7376
為求	-10.7381
敵	-10.7381
二對	-10.7382
廓	-10.7387
隣	-10.7388
澄	-10.7389
洗	-10.7389
天眾	-10.7393
大雲	-10.7394
四法	-10.7396
二千	-10.7397
淵	-10.7398
二偈頌	-10.7398
稱揚讚歎	-10.74
青蓮華	-10.7401
總云	-10.7401
二就	-10.7411
佛子此菩薩	-10.7411
九世	-10.7413
有性	-10.7414
合成	-10.7415
說頌	-10.7417
下第三	-10.7422
▁初長行	-10.7423
所作業	-10.7425
心城	-10.7429
此事	-10.7433
軟	-10.7434
盧	-10.7436
妄計	-10.7438
練	-10.7438
佛子此菩薩摩訶薩	-10.7439
遍行	-10.7439
叉	-10.7439
果行	-10.7443
皆爾	-10.7446
大臣	-10.7446
十惡	-10.7451
無量阿僧祇	-10.7453
然彼	-10.7455
第六地	-10.7456
勝法	-10.7458
二徵	-10.7459
心意識	-10.7464
功德莊嚴	-10.7474
寶蓋	-10.7477
六入	-10.7482
成一	-10.7483
其人	-10.7485
娑	-10.7486
引發	-10.7487
出過	-10.7488
形相	-10.7489
生因	-10.7494
烏	-10.7496
住地	-10.7496
龍女	-10.7496
智照	-10.7497
古人	-10.75
愛取	-10.75
則非	-10.7501
能熏	-10.7501
之始	-10.7506
性無	-10.7506
後說	-10.7511
初發心住	-10.7511
觀門	-10.7513
出興於世	-10.7516
彼菩薩	-10.7517
三十句	-10.7517
一切眾生界	-10.752
可樂	-10.7522
中亦二	-10.7522
能變	-10.7524
具四	-10.7525
時善根迴向	-10.7526
所欲	-10.7526
化儀	-10.7529
修集	-10.7532
十一句	-10.7532
八門	-10.7532
一剎那	-10.7532
現佛	-10.7532
方便善巧	-10.7533
本空	-10.754
次下	-10.754
愚法	-10.754
互為	-10.7541
已去	-10.7542
不通	-10.7543
出三界	-10.7543
中有四	-10.7547
過去世	-10.7556
妄取	-10.7562
眾海	-10.7562
七十	-10.7564
同說	-10.7573
方便波羅蜜	-10.758
藏識	-10.7581
起信論	-10.7596
清淨行	-10.7598
佛出興	-10.7602
侵	-10.7603
德中	-10.7605
有佛性	-10.7606
何須	-10.7606
亦當	-10.7608
性海	-10.7608
之間	-10.7608
大道	-10.7609
故次來也	-10.7609
二宗	-10.7611
餘處	-10.7611
彌伽	-10.7612
幡	-10.7616
攝善	-10.7623
永滅	-10.7626
常能	-10.7626
不壞相	-10.7628
不可稱	-10.7629
遍一切處	-10.7629
皆成	-10.7631
寶幢	-10.7631
不別	-10.7632
堪能	-10.7638
是常	-10.7639
不可說劫	-10.7641
請分	-10.7642
唯識論	-10.7646
我為說法	-10.7647
莊嚴藏	-10.7648
約教	-10.7649
真應	-10.765
雙結	-10.7654
無量法	-10.7656
狂	-10.7658
普皆	-10.766
如來十力	-10.766
二頌	-10.7661
資生	-10.7664
潤澤	-10.7668
覩見	-10.767
非餘	-10.7673
同住	-10.7677
能轉	-10.7678
心識	-10.7679
以釋	-10.768
自業	-10.7682
一緣	-10.7683
所變	-10.7683
諸論	-10.7684
十向	-10.7689
多約	-10.769
道諦	-10.7691
直至	-10.7692
必當	-10.7695
世界微塵數	-10.7699
評曰	-10.7702
急	-10.7702
第十一	-10.7704
為十	-10.7705
難量	-10.7711
抑	-10.7712
言不	-10.7715
官	-10.7716
甲	-10.7718
四段	-10.772
變現	-10.7722
若於	-10.7723
望於	-10.7727
於無量	-10.7729
文殊普賢	-10.7734
聲聞獨覺	-10.7737
各差別	-10.7738
無上法	-10.774
教也	-10.7741
普雨	-10.7741
觀法	-10.7743
如有	-10.7745
聽者	-10.7745
造修	-10.7746
總舉	-10.7748
說之	-10.7748
現一切	-10.7749
以是因緣	-10.775
佛出世	-10.7751
諸力	-10.7752
百千萬億	-10.7758
自利利他	-10.7759
救度	-10.7761
敬禮	-10.7761
佛慧	-10.7763
大城	-10.7763
財寶	-10.7763
深玄	-10.777
稍	-10.7772
就法	-10.7774
第八地	-10.7778
果用	-10.7779
書寫	-10.7779
不絕	-10.7785
又有	-10.7789
我以	-10.7792
地相	-10.7792
王佛	-10.7793
正觀	-10.7794
薪	-10.7794
詐	-10.7796
十方各	-10.7796
雙照	-10.7798
不修	-10.7802
先後	-10.7803
佛興	-10.7804
隨位	-10.7805
分之	-10.7805
隨其所	-10.7808
境界故	-10.7811
人也	-10.7811
得三昧	-10.7814
盡法界	-10.7814
中十句	-10.7814
忿	-10.7816
煩	-10.7817
普現一切	-10.7819
德本	-10.7819
一切諸眾生	-10.7821
擬	-10.7823
析	-10.7824
豈可	-10.7825
剋	-10.7826
白淨	-10.7828
修行者	-10.7829
純熟	-10.7829
分為四	-10.7829
是苦	-10.7829
麤細	-10.7834
能發	-10.784
玄妙	-10.7843
使令	-10.7845
是故此	-10.7845
方便力	-10.7845
滅定	-10.7849
諸莊嚴具	-10.7857
入般若波羅蜜門	-10.7861
義兼	-10.7863
磨	-10.7863
相分	-10.7864
性即	-10.7868
之境界	-10.787
為門	-10.7871
化度	-10.7871
是無常	-10.7872
一百一十	-10.7874
共生	-10.7875
其音	-10.7878
亦無所	-10.7881
非想	-10.7882
騰	-10.7882
成就眾生	-10.7883
生佛家	-10.7886
數數	-10.7888
假立	-10.7891
說一切法	-10.7891
此有	-10.7891
行處	-10.7892
有十事	-10.7897
一箇	-10.7899
華鬘	-10.79
雖在	-10.7906
應言	-10.791
以偈頌曰	-10.791
斷故	-10.7916
等經	-10.7919
名也	-10.7919
雜亂	-10.7921
後六	-10.7921
百萬億天	-10.7924
此地菩薩	-10.7924
觀諸法	-10.7925
方便行	-10.7927
愧	-10.7934
既是	-10.7935
疎	-10.7935
上明	-10.7935
滅道	-10.7936
發意	-10.7937
諦觀	-10.7938
所宜	-10.7942
餘九為伴	-10.7943
為成	-10.7943
願我	-10.7949
采女	-10.7956
業行	-10.7958
趣寂	-10.7958
諸外道	-10.7959
無量剎	-10.7959
喻況	-10.7964
通釋	-10.7968
此三昧	-10.797
五乘	-10.7971
之由	-10.7973
無所礙	-10.7973
緣生故	-10.7977
及彼	-10.7978
巳去	-10.7978
各具	-10.7979
多作	-10.7979
決了	-10.7979
穿	-10.7987
幻化	-10.7987
前來	-10.7995
彼諸菩薩	-10.7995
如來出現品	-10.7998
便為	-10.7999
不論	-10.8
善見	-10.8
三分	-10.8004
佛菩薩	-10.8004
生老病死	-10.8006
揀非	-10.8016
下舉	-10.8016
六趣	-10.8017
賴耶	-10.8018
常念	-10.8019
之色	-10.8019
教行	-10.802
義利	-10.8021
有十一句	-10.8021
十定	-10.8024
引論	-10.8026
教道	-10.8027
文意	-10.8029
謂彼	-10.803
一道	-10.8031
世出世	-10.8032
解說	-10.8032
有十一	-10.8035
奇	-10.8036
其形	-10.8036
膝	-10.8042
三乘中	-10.8042
結集	-10.8043
本意	-10.8043
舟	-10.8044
卦	-10.8044
法句	-10.8044
文殊師利菩薩	-10.8045
為現	-10.8045
叚	-10.8047
自性清淨	-10.805
所不能	-10.805
亦有二種	-10.8051
是行	-10.8051
五六	-10.8054
妙好	-10.8055
隨彼	-10.8055
七字	-10.8056
離苦	-10.8057
▁二偈頌	-10.8057
即具	-10.8061
身者	-10.8061
始從	-10.8064
彌覆	-10.8065
兵	-10.8065
身子	-10.8068
出生死	-10.8068
出沒	-10.8068
多種	-10.8069
本故	-10.8069
得生	-10.807
才	-10.8074
俱存	-10.8078
無能勝	-10.8082
易了	-10.8084
中陰	-10.8085
諸法門	-10.8085
金剛幢	-10.8092
雙明	-10.8093
由於	-10.8093
後半	-10.8094
世間出世間	-10.8098
上有	-10.8098
闡	-10.81
出纏	-10.8101
報化	-10.8101
平等故	-10.8104
二果	-10.8105
一實	-10.8105
偈半	-10.8106
不動智	-10.8107
來者	-10.8109
三諦	-10.811
或見處座	-10.8112
怨敵	-10.812
遶無數匝	-10.8125
摩睺羅伽王	-10.8126
無所不	-10.8128
寶瓔珞	-10.8131
解脫者	-10.8133
但名	-10.8133
用之	-10.8135
毗盧	-10.8143
現觀	-10.8144
引經	-10.8147
一切莊嚴	-10.8149
五頌	-10.8153
故受之以	-10.816
四偈	-10.8169
道法	-10.8173
之極	-10.8176
此一段	-10.8182
得淨	-10.8182
自證	-10.8183
下疏云	-10.8183
標舉	-10.8184
不合	-10.8185
調伏一切眾生	-10.8186
有緣	-10.8188
天耳	-10.8189
眾生海	-10.8189
已來	-10.8195
感應	-10.8196
於境	-10.8196
理趣	-10.8197
外無	-10.8198
王宮	-10.82
爾時普賢菩薩	-10.8202
江	-10.8203
斯即	-10.8204
此依	-10.8208
光明普照	-10.8209
歷然	-10.8209
修羅	-10.8213
約智	-10.8217
云何菩薩	-10.8219
無量百千	-10.822
光明覺品	-10.822
輩	-10.8221
乃至不可說不可說	-10.8223
以一切	-10.8223
須陀洹	-10.8224
覺者	-10.8224
塵垢	-10.8225
正答	-10.8225
性也	-10.8225
輕重	-10.8227
故稱	-10.8227
未至	-10.8229
不可計	-10.8231
結上	-10.8233
為有	-10.8234
所集	-10.8236
四結	-10.8242
自在神通	-10.8243
無時	-10.8244
諸世界中	-10.8245
並可知	-10.8247
論師	-10.8247
下經云	-10.8249
無人	-10.8251
前偈	-10.8254
海故	-10.8255
於自	-10.8262
若在	-10.8264
勝相	-10.8264
佛地論	-10.8266
不捨眾生	-10.8269
無願	-10.827
破相	-10.8271
說十地	-10.8275
匝	-10.8275
六門	-10.8277
負	-10.8278
攝法	-10.8278
與其	-10.8279
前義	-10.8281
非情	-10.8283
一際	-10.8294
諸魔	-10.8296
險難	-10.8296
而修	-10.8299
止息	-10.8301
佛心	-10.8302
教化一切眾生	-10.8303
妓樂	-10.8303
此段	-10.8304
眾人	-10.8309
結勸	-10.8309
而不捨	-10.8309
識支	-10.8311
修諸	-10.8313
光明照	-10.8317
因者	-10.8322
定不定	-10.8323
頓現	-10.8323
勝音	-10.8324
寤	-10.8326
打	-10.8329
不忘失	-10.833
未必	-10.833
皆空	-10.8332
無救	-10.8334
觀察十方	-10.8336
慧光	-10.8337
依主	-10.8343
後位	-10.8345
可解	-10.8345
十方界	-10.8345
休	-10.8348
喻於	-10.8351
座上	-10.8356
舉體	-10.8358
難遇	-10.836
無為法	-10.8361
所覆	-10.8363
修慧	-10.8363
奉行	-10.8364
已生	-10.8368
義如前	-10.8378
相見	-10.8382
餘文	-10.8382
所發	-10.8383
金剛幢菩薩	-10.8384
房	-10.8389
即第三	-10.8389
營	-10.8391
榮	-10.8391
。】【	-10.8394
衛	-10.8395
正宗	-10.8396
踊	-10.8401
東北方	-10.8405
業道	-10.8406
喻佛	-10.8412
我已先發阿耨多羅三藐三菩提心	-10.8414
動地	-10.8416
晉	-10.8417
法性宗	-10.8417
身命	-10.8417
願波羅蜜	-10.8418
眾會道場	-10.842
趣求	-10.8422
念請	-10.8424
百一十	-10.8426
無量智慧	-10.8427
現生	-10.8427
三大	-10.8428
釋意云	-10.8429
所施	-10.8431
名體	-10.8432
智知	-10.8437
位滿	-10.8438
聚集	-10.8441
二處	-10.8447
無思	-10.8448
三法	-10.8449
罵	-10.8449
三慧	-10.8451
肉眼	-10.8457
能壞	-10.8458
魔業	-10.8459
隨物	-10.8462
攝益	-10.8465
𥁞	-10.8465
船師	-10.8467
華雲	-10.8469
於自身	-10.8471
諸善	-10.8471
中四	-10.8473
迴向菩提	-10.8476
摩訶	-10.8482
下四	-10.8489
污	-10.8495
取其	-10.8495
二十七	-10.8495
自在天	-10.8497
偈言	-10.8498
三教	-10.8503
緫	-10.8504
佛乘	-10.8509
漂	-10.8509
答以	-10.851
等言	-10.8511
▁南無十方三世盡虗空界微塵剎土中	-10.8516
多有	-10.8517
時節	-10.8517
無諸	-10.852
金銀	-10.8521
總收	-10.8521
難勝地	-10.8525
心體	-10.8525
度生	-10.8529
十地菩薩	-10.853
誕生	-10.8534
結示	-10.8534
分布	-10.8536
令此	-10.8537
菩薩藏	-10.8538
我心	-10.8538
上二界	-10.8539
或有眾生	-10.8541
皆明	-10.8542
由斯	-10.8544
餘經	-10.8544
內有	-10.8545
十通	-10.8546
多一	-10.8547
中出	-10.8548
先總明	-10.8552
此有二義	-10.8552
生死苦	-10.8554
半偈	-10.8557
覺分	-10.8557
力波羅蜜	-10.8558
能障	-10.8561
承力	-10.8561
為是	-10.8562
無起	-10.8564
漸頓	-10.8566
尤	-10.8568
難行	-10.8569
自利行	-10.8571
之妙	-10.8572
依本	-10.8572
慣習	-10.8573
吐	-10.8573
說十	-10.8575
末那	-10.8576
無體性	-10.8577
等者即	-10.8581
次有	-10.8583
一標	-10.8584
為所	-10.8585
各以	-10.8586
忽然	-10.8597
兜率天宮	-10.8598
之慧	-10.8598
方始	-10.8599
照了	-10.8602
上二句	-10.8603
此地中	-10.8603
本業	-10.8604
得證	-10.8604
於彼一一	-10.8609
外有	-10.8611
相盡	-10.8612
取意	-10.8621
繩	-10.8624
取捨	-10.8625
樂故	-10.8627
離垢地	-10.8629
孝	-10.8632
佛子菩薩	-10.864
海幢比丘	-10.8642
惡口	-10.8644
一切智地	-10.8644
又作是念	-10.8646
香氣	-10.8646
入道	-10.8653
是無	-10.8653
以能	-10.8654
三世一切諸佛	-10.8656
五義	-10.8657
三會	-10.8658
諂	-10.866
令汝	-10.8662
議	-10.8664
雖不	-10.8664
問明品	-10.8664
見諸眾生	-10.8668
柔	-10.8668
僧寶	-10.8669
出妙音聲	-10.8671
有法	-10.8671
如是乃至	-10.8673
一舉	-10.8674
如來地	-10.8676
廣辨	-10.8683
佛剎塵數	-10.8684
及佛	-10.8684
方顯	-10.8684
裏	-10.8686
喪	-10.8688
機感	-10.8689
不欲	-10.8689
迴向行	-10.869
滅者	-10.8693
眾會中	-10.8695
解脫故	-10.8696
脚	-10.8696
順釋	-10.8697
華藏世界	-10.8704
雖是	-10.8705
十世	-10.8705
無眾生	-10.8707
為上	-10.8709
彼諸如來	-10.8712
此十種	-10.8712
不須	-10.8714
能遍	-10.8717
有作	-10.8718
猒	-10.8722
絕言	-10.8724
探玄	-10.8725
非空	-10.8726
所不能及	-10.8726
有德	-10.8727
幻智	-10.8729
毛端	-10.8733
及一切	-10.8733
不堪	-10.8735
空者	-10.8739
眾色	-10.8741
象王	-10.8742
異也	-10.8742
大師子吼	-10.8742
其上	-10.8745
言我	-10.8746
仁者	-10.875
等說	-10.8753
嫌	-10.8754
善財見	-10.8754
陵	-10.8755
六頌	-10.8756
見我	-10.8758
誹謗	-10.8758
菩提分法	-10.8759
不墮	-10.876
教授	-10.8762
通相	-10.8767
不厭	-10.8767
了一切法	-10.8768
佛出	-10.877
總以	-10.8772
是能	-10.8774
無主	-10.8775
願智	-10.8775
法如是故	-10.8776
入胎	-10.8777
名等	-10.8778
正位	-10.878
而去	-10.8781
從前	-10.8784
令見	-10.8786
所有善根	-10.8793
隨樂	-10.8795
舉一	-10.8797
過惡	-10.8797
五道	-10.8798
如是無量	-10.88
諸如來所	-10.8801
甘	-10.8803
觀空	-10.8804
說此法	-10.8805
」【【	-10.8808
不順	-10.8808
恃	-10.8809
谷	-10.881
初對	-10.8813
素	-10.8813
踰	-10.8816
為作	-10.8817
揀濫	-10.8819
即為十段	-10.8823
徵意云	-10.8824
惱害	-10.8824
天神	-10.8826
猗	-10.883
得一切佛	-10.8831
妄見	-10.8834
不唯	-10.8835
如來神力	-10.8835
過於	-10.8835
薩埵	-10.8836
出於	-10.8837
眾緣	-10.8838
隨事	-10.8838
為淨	-10.8839
依論	-10.8842
能普	-10.8845
觀身	-10.8847
此娑婆世界	-10.8849
尋求	-10.885
善慧地	-10.885
卒	-10.8852
今既	-10.8853
不住道	-10.8854
多端	-10.8854
於佛法中	-10.8858
善財白言	-10.8861
皆約	-10.8864
休息	-10.8867
所行之行	-10.8867
一如	-10.8867
前半	-10.8871
銅	-10.8871
電	-10.8872
且依	-10.8872
麗	-10.8873
塞	-10.8874
十眼	-10.8874
廣大智	-10.8875
為先	-10.8875
歡	-10.8876
是名菩薩摩訶薩第	-10.8877
普令	-10.8877
戀	-10.8877
具此	-10.888
能取	-10.8881
第九地	-10.8881
麁重	-10.8881
種種相	-10.8881
處說	-10.8884
教說	-10.8884
前云	-10.8884
在彼	-10.8887
惑障	-10.8888
念處	-10.8889
過此	-10.8895
前約	-10.8898
十善道	-10.8899
下三句	-10.8899
過故	-10.89
號曰	-10.8902
合云	-10.8903
欲知	-10.8904
海藏	-10.8904
賢首品	-10.8908
應是	-10.891
難信	-10.8912
第八會	-10.8913
躡前	-10.8914
尸	-10.8923
況復	-10.8923
凝	-10.8924
各自	-10.8924
智境界	-10.8925
屈曲	-10.8926
自巳	-10.8928
佛加	-10.8929
又彼	-10.8929
本質	-10.893
六品	-10.8932
變異	-10.8933
信行	-10.8933
便能	-10.8937
得十種	-10.8938
不相捨離	-10.8941
阿賴耶識	-10.8944
相海	-10.8944
二辨	-10.8945
今辨	-10.8945
志願	-10.8947
之緣	-10.895
一境	-10.8953
回	-10.8953
梁	-10.8959
能伏	-10.8961
攝取眾生	-10.8963
中初句	-10.8964
皆具足	-10.8966
中分二	-10.8969
開顯	-10.8971
無憂	-10.8973
方便門	-10.8973
憶持	-10.8974
而立	-10.8974
多分	-10.8977
之樂	-10.8979
赤	-10.8979
悲愍	-10.8983
各得	-10.8984
在其中	-10.8986
異耳	-10.8986
更無別	-10.8987
何能	-10.8987
則顯	-10.8989
羊	-10.8991
充滿一切	-10.8993
又善男子	-10.8994
去來現在	-10.8997
無有分別	-10.8998
成一切智	-10.9
徧一切	-10.9
身為	-10.9001
悅樂	-10.9001
反此	-10.9001
觀之	-10.9005
寶冠	-10.9006
指前	-10.9007
方便海	-10.9013
令捨	-10.9014
性本	-10.9019
下經	-10.902
瞿波	-10.902
悉清淨	-10.9021
香水	-10.9021
作大	-10.9022
唯取	-10.9022
相作	-10.9023
如說修行	-10.9024
所有一切	-10.9025
八難	-10.9027
無休息	-10.9028
亦二	-10.903
法執	-10.903
十方無量	-10.9034
智契	-10.9042
根器	-10.9043
業者	-10.9046
普賢行品	-10.9048
獸	-10.905
癡闇	-10.9051
成果	-10.9051
道中	-10.9052
白法	-10.9055
多人	-10.9055
各一	-10.9056
見法	-10.9056
佛剎微塵數劫	-10.9057
專念	-10.9059
欺	-10.9059
菩	-10.906
菩提涅槃	-10.906
於諸佛	-10.9062
讀誦	-10.9062
十年	-10.9064
形狀	-10.9065
渴	-10.9066
十二有支	-10.9068
身口意	-10.9069
到於彼岸	-10.9071
名普	-10.9071
一切諸世間	-10.9079
精進波羅蜜	-10.9087
別辨	-10.909
體是	-10.909
諸經論	-10.9091
無障礙故	-10.9099
總歎	-10.9101
所學	-10.9106
善心	-10.9107
諸羣生	-10.911
安處	-10.9115
男子	-10.9119
地體	-10.912
勒	-10.9121
異生	-10.9121
心得	-10.9121
􂐔	-10.9123
浪	-10.9123
忻	-10.9124
活	-10.9126
常見諸佛	-10.9128
中之	-10.913
處於	-10.9131
宋	-10.9132
發趣	-10.9136
無所染著	-10.9137
是果	-10.9138
處世	-10.9139
之前	-10.914
諸事	-10.9142
令歡喜	-10.9144
前品	-10.9147
故下經云	-10.915
菩薩大士	-10.9152
教證	-10.9154
住中	-10.9154
歡喜踊躍	-10.9157
非理	-10.9157
悟一切法	-10.9158
永離一切	-10.9158
而為莊嚴	-10.916
頗	-10.9162
思慧	-10.9166
受化	-10.9166
清淨法界	-10.9168
思之可見	-10.9168
教誨	-10.9171
以行	-10.9171
三果	-10.9175
不住涅槃	-10.9176
一總	-10.9178
地者	-10.9178
憍	-10.9183
身智	-10.9184
猶有	-10.9185
皆令歡喜	-10.9185
知是	-10.9187
諦聽	-10.9189
全是	-10.919
後佛子	-10.9191
何故不	-10.9193
說大	-10.9193
餘文可知	-10.9194
皆清淨	-10.9196
俱泯	-10.9197
入一切法	-10.9204
著我	-10.9204
智業	-10.9205
後時	-10.9206
三十八	-10.9206
一智	-10.9213
清淨戒	-10.9213
相續不斷	-10.9216
如山	-10.9217
以大	-10.9218
離念	-10.9219
▁二答	-10.922
隨智	-10.922
三偈	-10.9221
無量差別	-10.9221
能顯	-10.9223
智日	-10.9223
而論	-10.9223
五趣	-10.9224
又亦	-10.9228
逈	-10.9237
▁二合	-10.9238
四事	-10.9245
不迷	-10.9247
况	-10.9247
必定	-10.9248
晝	-10.925
避	-10.925
割	-10.9251
通教	-10.9252
優婆塞	-10.9253
契合	-10.9253
三塗	-10.9254
撰	-10.9254
初地中	-10.9255
等流	-10.9256
是故得成此光明	-10.9258
度無極	-10.9259
舉數	-10.9262
兩舌	-10.9262
心恒	-10.9262
二十六	-10.9262
非一故	-10.9262
增上慢	-10.9263
佛種性	-10.9264
無邊世界	-10.9266
世人	-10.9266
發光地	-10.9271
逆觀	-10.9273
貪瞋癡	-10.9273
醫	-10.9274
悅意	-10.9275
准知	-10.9277
二文	-10.928
互有	-10.9282
利益一切眾生	-10.9283
中亦三	-10.9284
益眾生	-10.9287
因成	-10.9287
在後	-10.9288
隨世	-10.9288
皆然	-10.9289
為得	-10.9289
解妨	-10.929
時劫	-10.9292
化他	-10.9293
穀	-10.9294
無此	-10.9294
▁三雙結	-10.9295
菩提行	-10.9296
一切毛孔	-10.9296
三昧名	-10.9297
心念言	-10.9297
刊定	-10.93
久近	-10.93
雖殊	-10.9303
同歸	-10.9305
若準	-10.9307
不來	-10.9311
妙有	-10.9312
瓶	-10.9313
二別顯	-10.9316
內德	-10.9317
娑婆世界	-10.9317
位也	-10.9319
相用	-10.9322
所有功德	-10.9325
堪任	-10.9326
供養如來	-10.9327
舊經	-10.9327
一由	-10.9327
餘句	-10.9327
兩亡	-10.9329
十二緣	-10.9337
。《	-10.9338
地行	-10.9339
居然	-10.934
總有	-10.9341
莊	-10.9343
寶𦦨	-10.9344
中文	-10.9344
牟尼	-10.9344
照曜	-10.9345
喻菩薩	-10.9348
同處	-10.9352
弘誓	-10.9354
德行	-10.9355
初即	-10.9356
真實法	-10.9359
如來音聲	-10.936
二從	-10.936
得阿耨多羅三藐三菩提	-10.9361
禪師	-10.9362
根境	-10.9365
吼	-10.9367
觀照	-10.9369
引文	-10.9369
十種法	-10.9373
則成	-10.9376
四洲	-10.9378
憑	-10.9379
緣境	-10.9379
次六	-10.9381
諸剎海	-10.9381
可思	-10.9381
善觀察	-10.9381
武	-10.9382
入證	-10.9383
眾生煩惱	-10.9387
無礙解脫	-10.9392
林中	-10.9392
類顯	-10.9393
命根	-10.9394
▁初總明	-10.9396
辨相	-10.9397
其本	-10.94
化用	-10.9401
即離	-10.9407
一重	-10.9408
斷障	-10.9408
成最正覺	-10.9409
同號	-10.9409
別示	-10.941
心樂	-10.9411
之功	-10.9414
清淨莊嚴	-10.9416
初句總	-10.9419
通論	-10.9426
為難	-10.9426
調順	-10.9426
乞者	-10.9427
四生	-10.9432
初十句	-10.9438
扶	-10.9439
善巧智	-10.9439
增上心	-10.944
正直	-10.9442
紙	-10.9442
篇	-10.9443
受記	-10.9443
迎	-10.9445
三苦	-10.9446
離生	-10.9446
四教	-10.9447
羣	-10.9447
怪	-10.9447
器界	-10.9447
指示後友	-10.9448
方知	-10.9449
乏	-10.9451
徧計	-10.9452
多故	-10.9455
文有四	-10.9456
宿因	-10.9459
三昧力	-10.946
菩薩於	-10.9461
智度	-10.9464
唯說	-10.9465
驚怖	-10.9466
現在世	-10.9467
隨順世間	-10.9468
拔濟	-10.9468
禮拜	-10.947
隨文	-10.947
向菩提	-10.9473
八九	-10.9474
生熟	-10.9476
虗空界	-10.9478
明如來	-10.9478
七覺	-10.9479
自在無礙	-10.9481
夜摩天	-10.9481
先辨	-10.9482
定者	-10.9484
第四禪	-10.9489
眾相	-10.9489
成佛道	-10.949
大蓮華	-10.9491
徧入	-10.9492
漸教	-10.9494
令其得	-10.9494
毛孔中	-10.9495
法無我	-10.9497
所聞法	-10.9498
諸妙	-10.9499
實語	-10.9502
民	-10.9507
故令	-10.9508
次二頌	-10.9509
願為我說	-10.951
真故	-10.9512
▁四結	-10.9512
受職	-10.9512
亦皆	-10.9513
排	-10.9516
高出	-10.9519
幢佛	-10.9519
執我	-10.9521
熾盛	-10.9521
信者	-10.9521
諂誑	-10.9522
此諸菩薩	-10.9524
四果	-10.9525
轉妙法輪	-10.9526
捨離一切	-10.9527
方有	-10.9528
長夜	-10.953
文也	-10.9538
與一切眾生	-10.9538
亦無有	-10.9538
惡法	-10.9539
無數世界	-10.9542
等觀	-10.9545
玄門	-10.9547
幻師	-10.955
無量菩薩	-10.9552
於諸世間	-10.9553
而以	-10.9557
如前說	-10.9559
不虗	-10.956
勝功德	-10.9562
佛及	-10.9562
何者為十	-10.9567
四依	-10.9567
小乘教	-10.9568
菩薩以此初發心	-10.9571
秋	-10.9574
而復	-10.9575
裂	-10.9576
藏者	-10.9576
不輕	-10.9576
等持	-10.9578
柔和	-10.9584
一言	-10.9586
大者	-10.9589
▁二結	-10.9589
其一	-10.959
十喻	-10.9591
於虛空中	-10.9592
求善知識	-10.9594
教體	-10.9594
得涅槃	-10.9595
今略	-10.9596
雜寶	-10.9598
大千	-10.9599
摩訶薩	-10.96
於身	-10.9602
等法界	-10.9607
燒香	-10.9608
設教	-10.9609
亦有亦無	-10.961
不必	-10.9611
無疲厭	-10.9613
不去	-10.9618
通結	-10.9619
下地	-10.9619
五中	-10.962
第二釋	-10.9621
明鏡	-10.9624
義中	-10.9628
於善知識	-10.963
餘可知	-10.9633
忍波羅蜜	-10.9634
如華嚴經	-10.9635
與智	-10.9639
開覺	-10.9643
禁	-10.9644
念佛門	-10.9644
眾魔	-10.9647
進趣	-10.9647
奧	-10.9648
解脫道	-10.9649
抱	-10.9649
頭陀	-10.9649
心不動	-10.9649
通別	-10.9651
不能壞	-10.9652
塔廟	-10.9657
淨光明	-10.9661
龍宮	-10.9664
超越	-10.9664
種種身	-10.9665
流注	-10.9667
證如	-10.9668
▁二喻	-10.9669
示現無量	-10.967
共成	-10.9672
根熟	-10.9672
法本	-10.9673
為喻	-10.9673
莊嚴雲	-10.9673
普攝一切	-10.9674
處生死	-10.9675
諸識	-10.9675
唯就	-10.9676
屬於	-10.9683
然則	-10.9685
煩惱業	-10.9685
信滿	-10.9686
本會	-10.9687
以如是等	-10.9687
大悲行	-10.9689
報生	-10.9691
增進	-10.9691
文中三	-10.9695
三顯	-10.9695
文二	-10.9696
如是次第	-10.9701
或是	-10.9702
證知	-10.9702
互融	-10.9704
色空	-10.9704
不假	-10.9704
勵	-10.9706
之流	-10.9707
淨名云	-10.9712
因圓果滿	-10.9713
不斷絕	-10.9713
即第二	-10.9715
雖同	-10.9715
無法	-10.9717
盧舍那佛	-10.9719
此位菩薩	-10.9719
此與	-10.9723
攝入	-10.9724
諸方	-10.9728
作是念言	-10.9732
深遠	-10.9733
諸法性	-10.9734
次說	-10.9736
第二佛子	-10.9737
式	-10.9737
如是法	-10.974
尊貴	-10.974
立理	-10.9746
無情	-10.9747
為義	-10.9748
但舉	-10.9749
重頌	-10.975
大施	-10.975
無來	-10.9751
雖說	-10.9754
受身	-10.9755
本淨	-10.9757
無礙行	-10.9758
五塵	-10.9759
銷	-10.976
實故	-10.9761
悉使	-10.9762
二由	-10.9763
等即	-10.9764
三字	-10.9766
所能	-10.9766
前會	-10.9771
笑	-10.9773
次五	-10.9778
交絡	-10.978
雄	-10.978
餘人	-10.9781
三依	-10.9783
▁初揔明	-10.9785
馳	-10.9786
滅諦	-10.9787
勝緣	-10.9788
遍入	-10.9789
恒住	-10.979
擇	-10.9791
願令	-10.9791
欄楯	-10.9792
何者是	-10.9795
思惟觀察	-10.9796
準之	-10.9798
充徧	-10.9798
流布	-10.98
䟽文	-10.9801
餘八	-10.9809
若望	-10.981
我聞	-10.981
當相	-10.9811
秦	-10.9812
或可	-10.9812
八萬	-10.9815
初釋	-10.9816
救眾生	-10.9816
輪轉	-10.9818
彼經云	-10.982
三無性	-10.9823
自作	-10.9824
自具	-10.9825
攝前	-10.9826
念力	-10.9832
無雜	-10.9835
一乘教	-10.9837
野	-10.9837
其狀	-10.9838
同上	-10.9838
周帀	-10.9842
▁三明	-10.9842
其名曰	-10.9843
皆亦如是	-10.9846
所成故	-10.9846
無障礙智	-10.9848
墜	-10.9848
初見	-10.985
禁戒	-10.985
出定	-10.9852
第二時	-10.9853
自在天王	-10.9857
文分為二	-10.9858
佛以	-10.9859
行果	-10.986
平等清淨	-10.9863
王菩薩	-10.9864
▁二迴向	-10.9867
聞是	-10.9868
行列	-10.9868
歸於	-10.9869
令諸	-10.9871
欣樂	-10.9872
海會	-10.9873
親近善知識	-10.9873
同法界	-10.9874
起滅	-10.9876
道場神	-10.9879
第三時	-10.9879
彼有	-10.9879
佛昔	-10.9882
調生	-10.9887
攝末歸本	-10.9887
色者	-10.989
報相	-10.9894
實智	-10.9895
行海	-10.9896
是此	-10.9898
則巳	-10.9898
毫	-10.9898
久住	-10.9899
條	-10.99
如上說	-10.9901
不云	-10.9904
認	-10.9905
法界門	-10.9905
所表	-10.9906
瑩	-10.9908
天竺	-10.9912
隨念	-10.9912
若謂	-10.9913
先問後答	-10.9914
娛樂	-10.9914
怒	-10.9915
小相	-10.9915
菩薩以此	-10.9916
通說	-10.9916
因緣生	-10.9917
不增不減	-10.992
其量	-10.9927
據此	-10.9927
成就如是	-10.9928
瞋恨	-10.9933
色聲	-10.9933
四五	-10.9933
行苦	-10.9934
果者	-10.994
雖知諸法	-10.994
後別	-10.9942
準此	-10.9944
相貌	-10.9944
受諸	-10.9946
前巳	-10.995
深故	-10.9952
漏盡	-10.9953
忉利天	-10.9953
無缺	-10.9953
善現	-10.9954
我我所	-10.9957
巳前	-10.9957
別舉	-10.996
罪人	-10.9964
現神通	-10.9965
初發心時	-10.9966
三千界	-10.9966
二十九	-10.9967
巳後	-10.9967
演義	-10.9967
樂音	-10.9968
豐	-10.9973
具引	-10.9976
阿賴耶	-10.9977
顏	-10.9979
定故	-10.9981
及其	-10.9982
清淨功德	-10.9983
譬如大海	-10.9988
入俗	-10.9988
充足	-10.9993
清淨身	-10.9993
非一異	-10.9994
明是	-11
始覺	-11.0001
中亦有	-11.0002
正辨	-11.0003
由有	-11.0006
清淨智	-11.0008
曠野	-11.0009
普為	-11.001
結前生後	-11.0012
說三乘	-11.0012
倣	-11.0014
金色世界	-11.0016
菩薩所	-11.0017
雷音	-11.0017
三對	-11.0018
後門	-11.0019
亦猶	-11.0024
師子之座	-11.0026
言詞	-11.0027
動靜	-11.0027
者釋	-11.0028
當念	-11.003
戲	-11.0031
義引	-11.0033
三祇	-11.0033
遠行地	-11.0036
思念	-11.0039
一闡提	-11.0041
多義	-11.0041
懃	-11.0042
妙理	-11.0046
二經	-11.0047
披	-11.0047
四面	-11.0048
菩薩戒	-11.0048
初總餘別	-11.0048
後學	-11.005
優劣	-11.0051
應有	-11.0052
巾	-11.0052
何為	-11.0056
取之	-11.006
故以為名	-11.0062
猶如虗空	-11.0064
所感	-11.0068
三十三	-11.0068
惑業	-11.0069
生空	-11.0075
忉利	-11.0076
地論	-11.0078
堪忍	-11.008
菩薩三昧	-11.008
知諸眾生	-11.0081
行施	-11.0082
二我	-11.0083
惡心	-11.0085
知無量如來	-11.0085
我是	-11.0088
眷屬圍遶	-11.009
若具	-11.0091
會前	-11.0095
二正	-11.0095
相順	-11.0096
二十重	-11.0098
前前	-11.0099
生老死	-11.0099
大般涅槃	-11.01
今就	-11.0102
諸句	-11.0103
以論	-11.0105
▁二依	-11.011
喻合	-11.0112
智性	-11.0116
無量相	-11.0117
十地品	-11.0119
依身	-11.0121
主城神	-11.0121
柔輭	-11.0122
酥	-11.0124
銀	-11.0126
業故	-11.0132
各各差別	-11.0137
如下文	-11.0137
以為嚴飾	-11.0141
亦顯	-11.0142
分別說	-11.0145
餘七	-11.0146
光中	-11.0146
▁南無大方廣佛華嚴經中	-11.0146
閑	-11.0149
雖未	-11.0152
舉經	-11.0155
大千世界	-11.0155
一切世界海	-11.0155
一理	-11.0156
前位	-11.0156
意者	-11.0158
其實	-11.016
句義	-11.0162
前後際	-11.0166
智慧境界	-11.0166
何異	-11.0169
樂見	-11.0169
法性身	-11.017
分為五	-11.017
一切諸佛法	-11.0171
蔭	-11.0173
得出離	-11.0174
不思議解脫	-11.0176
是故菩薩	-11.018
總說	-11.0182
菩薩云何	-11.0182
普照法界	-11.0182
非佛	-11.0183
爪	-11.0183
京	-11.0186
常樂我淨	-11.0187
初言	-11.0188
要須	-11.0188
總該	-11.0188
壽量	-11.0189
本不	-11.0193
說十住	-11.0193
為用	-11.0195
如來法身	-11.0198
即見	-11.02
乞食	-11.0204
第三會	-11.0205
之物	-11.0205
觀察眾生	-11.0209
全在	-11.0209
妙光明	-11.0211
復現	-11.0214
出聲	-11.0215
是空	-11.0215
西北方	-11.0216
實則	-11.0217
顯了	-11.0217
知彼	-11.0217
顯此	-11.0218
有說	-11.0219
經部	-11.0224
咎	-11.0233
緣起法	-11.0237
四即	-11.0238
三宗趣者	-11.0239
為眾生故	-11.024
此十地	-11.0241
▁二引	-11.0241
初中後	-11.0246
論名	-11.0247
不明	-11.0247
發大心	-11.0248
今初分二	-11.0249
威勢	-11.0249
形如	-11.0249
饒益一切眾生	-11.0251
約相	-11.0259
亦不離	-11.0265
現其身	-11.0266
四字	-11.0266
生界	-11.0267
城中	-11.0268
之別	-11.0271
生盲	-11.0271
初成	-11.0273
滴	-11.0273
集成	-11.0275
一毛端	-11.0277
人王	-11.0277
今為	-11.028
上味	-11.028
自得	-11.0281
地神	-11.0281
智慧力	-11.0281
一切諸佛國土	-11.0284
受名	-11.0285
但見	-11.0286
第三地	-11.0288
與樂	-11.0288
方便者	-11.0291
別立	-11.0291
有一百	-11.0292
文三	-11.0296
我悉	-11.0296
於中亦二	-11.0299
之海	-11.03
本法	-11.03
美妙	-11.03
遶	-11.0303
湛	-11.0305
諸佛世界	-11.0306
譬如虛空	-11.031
智慧門	-11.031
以方便	-11.0312
十藏	-11.0313
事也	-11.0314
菩提之心	-11.0315
是諸眾生	-11.0319
得此解脫	-11.032
欲明	-11.0323
壁	-11.0326
初云	-11.0326
字即	-11.0329
臭	-11.0331
所依處	-11.0331
七句	-11.0331
四分	-11.0332
快	-11.0332
理行	-11.0337
持一切	-11.034
辨其	-11.0341
未滿	-11.0342
初五	-11.0345
常寂	-11.0347
即體	-11.0349
復更	-11.0351
無量方便	-11.0352
未成	-11.0352
我應	-11.0354
見分	-11.0354
分身	-11.0357
後一句	-11.0357
淨法界	-11.0359
口中	-11.0359
增上緣	-11.0362
一即一切	-11.0362
下別明	-11.0362
三位	-11.0363
第七會	-11.0365
本師	-11.0367
如是知	-11.0368
意取	-11.037
當生	-11.037
在前	-11.0372
次前	-11.0373
十卷	-11.0375
成就菩薩	-11.0375
佛所說	-11.0376
次有佛出	-11.0377
含攝	-11.0377
離二邊	-11.0377
教理	-11.0379
俱時	-11.0388
然有	-11.0389
之主	-11.039
十住十行	-11.039
是一乘	-11.0391
如是等而為上首	-11.0393
了知一切	-11.0396
渡	-11.0396
覺首	-11.0397
初一句	-11.0398
詰	-11.04
普行	-11.0401
輝	-11.0402
初長行	-11.0404
證菩提	-11.0405
本源	-11.0407
今顯	-11.0407
者約	-11.0408
三十四	-11.0408
如是等事	-11.0409
音菩薩	-11.041
二十句	-11.0412
辨才	-11.0412
令善財	-11.0413
無有二	-11.0417
聲聞辟支佛	-11.042
猛利	-11.0421
一乘三乘	-11.0422
中二先	-11.0423
常修	-11.0425
萬像	-11.0426
向上	-11.0427
如來無上	-11.0428
其心清淨	-11.043
聖慧	-11.0431
現形	-11.0432
叵	-11.0432
輕安	-11.0435
為五	-11.044
名聞	-11.0442
皆入	-11.0442
眾生及	-11.0443
疏文有二	-11.0443
謂諸	-11.0444
?「	-11.0445
分教	-11.0446
邪道	-11.0447
遍於	-11.0455
顯前	-11.0455
位位	-11.0458
宿住	-11.046
無處所	-11.0462
應身	-11.0463
加分	-11.0463
深義	-11.0463
一切語言	-11.0466
其間	-11.047
臍	-11.0471
大自在	-11.0471
法華云	-11.0471
亦復不	-11.0471
身眾神	-11.0473
多者	-11.0474
折伏	-11.0478
滋	-11.0479
見修	-11.0481
六千比丘	-11.0482
不可沮壞	-11.0483
正取	-11.0484
以顯無盡	-11.0485
大覺	-11.0486
賢劫	-11.0487
真源	-11.049
從定出	-11.049
稱為	-11.049
難解	-11.0496
攝論云	-11.0497
四頌	-11.0498
方便慧	-11.0504
如是種種	-11.0505
明入	-11.0505
見性	-11.0506
轉故	-11.0511
無有一法	-11.0513
心也	-11.0513
中十波羅蜜	-11.0518
一切十方	-11.0518
法界中	-11.052
下十句	-11.052
依住	-11.0521
重顯	-11.0522
所餘	-11.0525
善趣	-11.0527
母胎	-11.0527
來詣佛所	-11.0527
▁二別明	-11.0531
發言	-11.0532
心無疲厭	-11.0534
而昇	-11.0535
樂聞	-11.0536
廣略	-11.0536
是諸	-11.0537
眼見	-11.0537
事法界	-11.0538
業煩惱	-11.0538
▁初法	-11.0538
為道	-11.0543
逾	-11.0546
所趣	-11.0546
證此	-11.0547
而云	-11.0547
下生	-11.0547
愛見	-11.0548
三道	-11.0549
即理	-11.055
言之	-11.0554
彼果	-11.0554
如須彌山	-11.0554
下九	-11.0556
本際	-11.0556
心無厭足	-11.0558
犯戒	-11.0559
無量莊嚴	-11.0559
文句	-11.056
之有	-11.056
迴向眾生	-11.0562
調御	-11.0563
東南方	-11.0564
等覺位	-11.0565
悉是	-11.0565
見善知識	-11.0566
有三句	-11.0566
正信	-11.0567
寶座	-11.0568
諸境界	-11.057
所莊嚴	-11.057
餘之	-11.0571
▁二釋名	-11.0575
於人	-11.0575
又放光明名	-11.058
不存	-11.058
十德	-11.0581
自分行	-11.0587
之機	-11.0589
無流	-11.0591
行修	-11.0594
先總標	-11.0595
皆悉現前	-11.0596
善道	-11.0598
照十方	-11.0598
今則	-11.06
大寶	-11.0602
財施	-11.0604
無量身	-11.0604
如是下	-11.0606
貪瞋	-11.0607
追	-11.0608
化法	-11.0608
吒	-11.0613
聖眾	-11.0614
無礙門	-11.0614
十方所有	-11.0615
大種	-11.0615
廣容	-11.0617
暴	-11.0617
早	-11.062
佛世尊	-11.062
如今	-11.0621
麻	-11.0622
寫	-11.0623
輔	-11.0624
轉增	-11.0625
上二義	-11.0626
分為三	-11.0627
一一毛孔中	-11.0628
其類	-11.0628
具明	-11.0632
忍行	-11.0634
開化	-11.0637
初發心菩薩	-11.064
麤重	-11.0642
依空	-11.0643
現前故	-11.0646
作禮	-11.0646
人者	-11.0648
應物	-11.0653
最為	-11.0653
至真	-11.0656
菩薩無量	-11.0656
樓閣雲	-11.0658
上求	-11.0662
十二緣生	-11.0662
名大	-11.0664
今何	-11.0665
執有	-11.0666
廻	-11.0667
已引	-11.0668
不可取	-11.0669
多羅	-11.0672
憎	-11.0674
梁攝論	-11.0675
及諸菩薩	-11.0676
且如	-11.0677
起信云	-11.0679
本願力故	-11.0679
精進力	-11.0681
如地	-11.0681
汎	-11.0684
合之	-11.0686
質直	-11.0688
虎	-11.0688
明徹	-11.0688
設敬	-11.069
一經	-11.0691
與諸菩薩	-11.0692
抄	-11.0693
酒	-11.0694
所乘	-11.0694
聖諦	-11.0696
所屬	-11.0699
說此經	-11.07
為上首	-11.0701
勤行	-11.0701
雨大法雨	-11.0701
卷第十	-11.0702
菩提心者如	-11.0703
以身	-11.0706
虛空法界	-11.0707
不成佛	-11.0707
吹	-11.0707
時中	-11.0711
心歡喜	-11.0715
不散	-11.0716
以十	-11.0716
佛之	-11.0718
別行	-11.072
大歡喜	-11.0722
法界性	-11.0723
菩薩解脫	-11.0725
含容	-11.0725
得不退轉	-11.0725
不是	-11.0725
能與	-11.0726
自在王	-11.0726
無去來	-11.0727
說諸法	-11.0728
行於	-11.073
智也	-11.073
罪業	-11.0734
下引	-11.0735
本迹	-11.0735
不失時	-11.0738
非定	-11.0739
引之	-11.0739
無生故	-11.0739
三世一切佛	-11.0742
通妨難	-11.0743
大小乘	-11.0744
有三十	-11.0748
無量種	-11.0749
如是迴向	-11.0753
末句	-11.0757
起定	-11.0758
所覺	-11.076
不融	-11.076
凡有	-11.0761
皆屬	-11.0762
別異	-11.0763
歸本	-11.0763
永無	-11.0764
倫	-11.0764
嘿	-11.0764
觀也	-11.0765
真身	-11.0768
難處	-11.0768
儀式	-11.0768
本生	-11.077
徑	-11.077
清淨法身	-11.0771
七處	-11.0772
若唯	-11.0773
戒定慧	-11.0774
百千萬	-11.0778
十住初心	-11.0779
此之謂也	-11.0779
此行	-11.0781
無邊劫	-11.0781
祇	-11.0782
如善財	-11.0782
已成	-11.0788
起大悲	-11.0788
雙泯	-11.0789
不能動	-11.0789
誨	-11.079
通妨	-11.0795
大德	-11.0798
上言	-11.0798
問難	-11.0799
無作者	-11.0801
准前	-11.0802
王都	-11.0804
性者	-11.0805
踊躍	-11.081
論釋云	-11.081
何緣	-11.0811
行人	-11.0812
十明	-11.0815
前已	-11.0816
種種業	-11.0816
菩薩眾會	-11.0824
不次	-11.0825
而未知菩薩云何學菩薩行	-11.0826
狗	-11.0826
隨入	-11.083
降雨	-11.0833
墮地獄	-11.0833
䇿	-11.0834
所無	-11.0835
於後	-11.0837
剌	-11.0839
鏡像	-11.0841
截	-11.0842
工巧	-11.0846
通二	-11.0847
灌	-11.0848
師云	-11.0849
周旋	-11.0849
等處	-11.0851
處中	-11.0851
千歲	-11.0852
兼顯	-11.0853
主藥神	-11.0854
戒波羅蜜	-11.0854
四十二	-11.0855
菩薩修行	-11.0856
為教體	-11.0856
空三昧	-11.0857
九種	-11.0858
定用	-11.0859
諸惡趣	-11.086
專心	-11.0861
阿修羅王	-11.0862
輒	-11.0864
殊勝行	-11.0864
本論	-11.0866
一佛剎	-11.0867
初六	-11.0868
說聽	-11.0869
住一切智	-11.0874
初問	-11.0876
觀眾生	-11.0877
無限量	-11.0879
一切善法	-11.0879
遠公云	-11.0879
四德	-11.088
淨居天	-11.0882
自己	-11.0884
有六種	-11.0884
無有差別	-11.0884
五十三	-11.0885
憂苦	-11.0885
俱舍云	-11.0889
別列	-11.0889
事事	-11.0891
相差別	-11.0893
魔王	-11.0894
列中	-11.0895
受法	-11.0895
何因	-11.0895
樓觀	-11.0897
。●	-11.0898
釋也	-11.0901
是故經云	-11.0903
自因	-11.0903
惜	-11.0905
得無礙	-11.0905
隨有	-11.0908
漢	-11.0912
得普	-11.0913
別配	-11.0913
身口意業	-11.0915
倣此	-11.0916
第三十	-11.0917
為異	-11.0919
瘡	-11.0919
有法喻合	-11.092
不休息	-11.092
滅煩惱	-11.0921
第八識	-11.0922
而不壞	-11.0922
滅一切	-11.0924
道路	-11.0926
第一句	-11.0926
第九會	-11.0927
漸次遊行	-11.0931
千億	-11.0931
得無量	-11.0931
成事	-11.0932
▁初通	-11.0933
諸法實相	-11.0935
如前釋	-11.0935
佛所行	-11.0936
長壽	-11.0938
本願力	-11.0939
以斯	-11.0942
雜類	-11.0943
為所依	-11.0944
進入	-11.0946
始成	-11.0946
對治離	-11.0948
第十三	-11.095
先正	-11.0951
大經	-11.0952
所纏	-11.0955
赴	-11.0955
諸大眾	-11.0958
不怖	-11.0959
復生	-11.096
復於	-11.0962
大河	-11.0962
軌則	-11.0962
該攝	-11.0962
大威光	-11.0964
頃	-11.0965
邪定	-11.0965
法喜	-11.0969
不無	-11.0973
孔目	-11.0975
慳嫉	-11.0975
不可言	-11.0976
略不	-11.0978
身出	-11.0979
普攝眾生	-11.0982
集因	-11.0983
植	-11.0983
中行	-11.0988
付	-11.099
作惡	-11.0991
眉	-11.0991
生淨信	-11.0993
是諸菩薩	-11.0995
體非	-11.0996
非處	-11.0997
勝鬘	-11.1
紹	-11.1003
無生無滅	-11.1003
過也	-11.1003
不由他悟	-11.1003
證分	-11.1007
等心	-11.1007
光明照耀	-11.1007
義說	-11.1009
諮問	-11.101
度脫眾生	-11.1011
千世界	-11.1012
法明	-11.1012
佛世界	-11.1012
勝者	-11.1013
教化調伏一切眾生	-11.1014
十方天下人皆使	-11.1014
高勝	-11.1015
一切香	-11.1015
斷德	-11.1015
也然	-11.1017
異門	-11.1017
如意寶王	-11.1018
向下	-11.1018
諸邪見	-11.102
善財言	-11.1022
住者	-11.1023
無生法忍	-11.1023
為身	-11.1023
智光照	-11.1023
業海	-11.1026
以立	-11.1027
多剎	-11.1028
何等為菩薩摩訶薩	-11.1032
功德智慧	-11.1032
此眾	-11.1035
智為	-11.1036
諸大願	-11.1038
常現	-11.1038
辨十	-11.1039
▁二正	-11.1041
問若爾	-11.1042
從緣生	-11.1045
約體	-11.1047
通因果	-11.1047
現前地	-11.1048
下至	-11.1052
心生歡喜	-11.1053
聲者	-11.1058
是故當知	-11.1058
四十八	-11.106
故偏	-11.1061
智隨	-11.1066
果相	-11.1066
人所	-11.1067
籌量	-11.1068
佛法僧	-11.1069
必須	-11.1071
當說	-11.1071
垢故	-11.1074
伸	-11.1075
舉喻	-11.1077
善思惟	-11.1079
略辨	-11.1082
星宿	-11.1085
如文	-11.1086
以無量	-11.1086
攝於	-11.109
後方	-11.1095
是有為	-11.1097
能了知	-11.11
纓絡	-11.1103
不顛倒	-11.1112
為究竟	-11.1113
甚難	-11.1114
即第一	-11.1116
成大	-11.1116
亡言	-11.1116
神力自在	-11.1117
生公	-11.1117
大事	-11.1118
不自在	-11.1122
於餘	-11.1124
觀音	-11.1125
佛神力故	-11.1126
變化身	-11.1126
無自性故	-11.1127
生身	-11.1127
起後	-11.113
諸眾生故	-11.1132
作如是	-11.1134
明前	-11.1134
義相	-11.1137
歸命	-11.1139
顯深	-11.114
梨	-11.1143
咸令	-11.1145
寶髻	-11.1145
光𦦨	-11.1149
所依故	-11.1151
能離	-11.1151
有色	-11.1154
以偈	-11.1154
牒釋	-11.1157
以彰	-11.1158
良由	-11.1158
彼疏云	-11.1158
不能見	-11.1161
難聞	-11.1161
雨一切	-11.1162
過者	-11.1162
法非	-11.1163
二執	-11.1163
雙存	-11.1164
往生	-11.1165
三十五	-11.1169
漸增	-11.1171
心外	-11.1171
內身	-11.1171
即與	-11.1171
一切剎海	-11.1174
周匝	-11.1174
初之	-11.1176
疾得	-11.1177
會之	-11.1179
一見	-11.1183
不善業	-11.1183
於中有四	-11.1184
展轉相	-11.1184
不由	-11.1188
所有諸	-11.1188
父王	-11.119
莫不皆	-11.119
一一世界	-11.119
轉依	-11.1191
灰	-11.1191
無常等	-11.1192
滅障	-11.1193
自見身	-11.1193
位行	-11.1193
▁初喻	-11.1199
於一切智	-11.1199
清淨法	-11.1204
諸佛土	-11.1209
十名	-11.121
防護	-11.1211
的	-11.1212
今謂	-11.1212
二愚	-11.1216
傾	-11.1218
樹林	-11.122
就實	-11.122
德故	-11.1222
助道法	-11.1224
來入	-11.1224
入者	-11.1226
來詣	-11.1226
窮未來際	-11.1228
此童子	-11.1229
無有厭足	-11.123
大方便	-11.1231
入一切眾生	-11.1231
言有	-11.1232
二嚴	-11.1232
安慰	-11.1234
經中說	-11.1235
解曰	-11.1237
謂菩薩生如是心	-11.1238
無過失	-11.1238
敢	-11.1238
一即多	-11.1239
反釋	-11.1239
得大無畏安隱之處	-11.124
𤼵心	-11.124
明照	-11.1242
問既	-11.1245
說其	-11.1246
隨一一	-11.1246
戶	-11.1246
邪行	-11.1246
讚德	-11.1247
於中二先	-11.125
眼根	-11.1251
顯揚	-11.1253
共法	-11.1254
念慧	-11.1254
所不能壞	-11.1255
敘昔	-11.1256
常說	-11.1256
皆隨	-11.1257
計我	-11.1259
具足莊嚴	-11.1259
菩薩摩訶薩以	-11.126
離貪	-11.126
第二七日	-11.1261
九品	-11.1261
自念	-11.1263
不相離	-11.1264
但依	-11.1264
淨佛國土	-11.1264
塵剎	-11.1265
而取	-11.1265
中際	-11.1267
上根	-11.1268
含於	-11.1268
亦攝	-11.127
諸菩薩摩訶薩	-11.127
貪求	-11.1271
如文自具	-11.1273
空界	-11.1275
將此	-11.1276
能度	-11.1277
諸義	-11.1277
八地已上	-11.1278
又言	-11.1279
第四地	-11.128
勝益	-11.1283
陸	-11.1286
一真	-11.1286
無名	-11.1287
菩薩見	-11.1287
在初	-11.1288
我此	-11.1289
佛華嚴	-11.129
處也	-11.129
前段	-11.1291
驅	-11.1292
義耳	-11.1292
徵起	-11.1293
門故	-11.1296
尅	-11.1297
體者	-11.1301
嚴剎	-11.1301
定力	-11.1301
法界緣起	-11.1301
所得法門	-11.1302
隨於	-11.1308
惡人	-11.1309
歌	-11.1311
若非	-11.1312
百千劫	-11.1319
一釋名	-11.132
下以經帖	-11.132
今有	-11.1321
墮惡道	-11.1322
無相故	-11.1322
衣雲	-11.1322
利根	-11.1326
是身	-11.1327
現通	-11.1327
一切寶莊嚴	-11.1329
為行	-11.133
徃昔	-11.1331
最下	-11.1333
無外	-11.1334
成佛果	-11.1337
顯故	-11.1338
梵行品	-11.1338
之真	-11.1339
結名	-11.1339
楞伽云	-11.1342
其法	-11.1343
初二頌	-11.1345
適悅	-11.1347
不正	-11.1347
緣中	-11.1348
童	-11.1349
帝網重重	-11.1349
光焰	-11.135
▁初揔標	-11.135
無依處	-11.135
含多	-11.135
汝觀	-11.1351
指示	-11.1351
高廣	-11.1353
降神	-11.1355
等法界無量	-11.1355
五約	-11.1355
住世	-11.1358
智慧方便	-11.1359
緣因	-11.1361
雅	-11.1363
不壞信	-11.1364
成辦	-11.1365
國土身	-11.1368
通能所	-11.1369
但觀	-11.1369
無能壞	-11.137
五重	-11.1371
聞佛	-11.1372
不能自	-11.1372
肩	-11.1372
能住	-11.1373
諸文	-11.1373
天中	-11.1375
下品	-11.1376
謂有問言	-11.1377
得位	-11.1378
胸	-11.1379
疏釋	-11.1379
知時	-11.138
直就	-11.138
飢	-11.1381
中分三	-11.1381
周圓	-11.1381
義亦	-11.1383
威神力	-11.1384
於其中	-11.1385
戒取	-11.1386
正意	-11.1386
法界體	-11.1387
鬚	-11.1387
嚴身	-11.1389
又表	-11.1389
商主	-11.1389
約時	-11.139
若菩薩摩訶薩安住此	-11.1391
三世平等	-11.1393
右遶	-11.1394
一切下	-11.1398
俱無	-11.1399
普賢菩薩摩訶薩	-11.14
國名	-11.1402
功德林	-11.1403
集會	-11.1403
直進	-11.1403
千佛	-11.1404
無障礙法界	-11.1404
有六行經	-11.1404
是為十若諸菩薩安住此法	-11.1406
供養一切諸佛	-11.1409
文亦	-11.1413
十大	-11.1414
雖多	-11.1418
無所作	-11.1423
欲令眾生	-11.1425
名目	-11.1425
與我	-11.1425
順觀	-11.1425
智滿	-11.1426
今釋	-11.1429
一切眾生身	-11.1429
心大歡喜	-11.143
無所分別	-11.143
恱	-11.1439
相容	-11.144
依真	-11.144
約佛	-11.1442
說佛	-11.1443
復應	-11.1444
外緣	-11.1445
心心所	-11.1446
廣引	-11.1447
故稱為	-11.1447
有二意一	-11.1447
大旨	-11.1447
善覺	-11.1452
一切佛法故	-11.1452
純雜	-11.1453
十十	-11.1453
集起	-11.1453
識種	-11.1454
稽首	-11.1455
第三禪	-11.1457
世界眾生	-11.1457
明燈	-11.1457
盤	-11.1459
身入	-11.1459
世智	-11.1459
佛位	-11.1461
一一眾生	-11.1461
四位	-11.1462
非彼	-11.1463
現起	-11.1463
平等性	-11.1463
為末	-11.1464
一切聲聞	-11.1467
後世	-11.1468
一切智心	-11.1469
醫王	-11.147
加被	-11.1473
或一	-11.1473
西南方	-11.1475
重明	-11.1475
觀其	-11.1476
不住生死	-11.1476
如是我聞	-11.1477
斯為	-11.148
既非	-11.1481
異因	-11.1484
▁二徵	-11.1485
復為	-11.1487
佛在	-11.1489
之苦	-11.1493
成智	-11.1496
不可說世界	-11.1497
三昧分	-11.1498
頓漸	-11.1498
劫名	-11.15
五果	-11.1502
光雲	-11.1504
於無	-11.1504
云何修菩薩道	-11.1507
唯識云	-11.151
先有	-11.1513
金剛智	-11.1513
億那由他	-11.1513
周徧法界	-11.1518
雪	-11.1519
一一身	-11.1521
異於	-11.1522
斫	-11.1524
覺了	-11.1525
執取	-11.1525
通前	-11.1527
此光	-11.153
圍	-11.1533
賜	-11.1535
我人	-11.1538
宛然	-11.1538
苟	-11.1538
來處	-11.1538
皆現	-11.1539
苦故	-11.1541
可以意得	-11.1542
慰	-11.1543
即今	-11.1545
十住品	-11.1545
黨	-11.1546
普救	-11.1548
既得	-11.1548
右繞	-11.1548
▁二會	-11.1549
出要	-11.1551
旃檀	-11.1551
大天	-11.1554
智慧故	-11.1554
所護	-11.1555
無邊法界	-11.1555
之佛	-11.1556
無央數	-11.1556
不死	-11.1557
汝見	-11.1558
是為諸佛第	-11.156
有義	-11.1561
鈴	-11.1562
受行	-11.1562
智斷	-11.1566
佛子譬如	-11.1566
謂離	-11.1567
妄法	-11.1568
梁論	-11.1568
隨所應	-11.157
卷第三	-11.1571
躡	-11.1571
小教	-11.1578
光色	-11.1578
摧破	-11.1587
正思惟	-11.1589
入無邊	-11.159
他化自在天	-11.159
下明其	-11.1591
空理	-11.1593
是權	-11.1594
亦名為	-11.1594
染法	-11.1595
萬有	-11.1596
心海	-11.1597
是定	-11.1603
說法者	-11.1604
三車	-11.1609
菩薩名	-11.1611
今說	-11.1614
欠	-11.1615
乍	-11.1615
佛知見	-11.1616
怠	-11.1616
魔境界	-11.1618
聞聲	-11.1618
大性	-11.1621
克	-11.1621
有差別	-11.1621
則一	-11.1621
鬪諍	-11.1623
聞思修	-11.1623
帀	-11.1624
茶	-11.1624
以種種	-11.1624
無量佛	-11.1624
情有	-11.1626
不懷	-11.1627
私	-11.1635
勤苦	-11.1636
第六會	-11.1636
無退	-11.1638
地滿	-11.164
金剛藏菩薩言	-11.164
寄顯	-11.164
滿十方	-11.164
定中	-11.1641
云何是諸佛	-11.1642
本是	-11.1642
便得	-11.1645
能盡	-11.1645
三宗	-11.1647
▁二正顯	-11.1647
教令	-11.1648
華香	-11.1654
迷真	-11.1656
是何	-11.1656
彼眾生	-11.1657
無礙解	-11.1657
而見	-11.1658
便有	-11.166
不似	-11.166
又約	-11.1664
之剎	-11.1666
等殊	-11.1667
親證	-11.1668
幹	-11.1669
無障無礙	-11.167
大精進	-11.1672
阿僧祇品	-11.1674
但得	-11.1677
第二地	-11.168
如月	-11.1684
祕	-11.1686
海潮	-11.1688
余	-11.169
本位	-11.169
入菩薩	-11.1691
以法身	-11.1697
枯	-11.1697
此解脫門	-11.1699
二解	-11.1699
審諦	-11.17
先正明	-11.1701
逸	-11.1702
觀相	-11.1702
大果	-11.1705
相依	-11.1705
釋經文	-11.1706
所共圍遶	-11.1707
有四一	-11.1707
曷	-11.1709
自在智	-11.171
世界成就品	-11.171
死此生彼	-11.1711
現世	-11.1713
三昧起	-11.1716
莊嚴幢	-11.1719
從佛	-11.1719
不破	-11.172
妄也	-11.172
云何名	-11.1723
天親	-11.1723
授與	-11.1724
次一句	-11.1726
解故	-11.1726
諸蘊	-11.1726
不久	-11.1728
念眾生	-11.1729
具三	-11.1729
故說為	-11.1732
巳說	-11.1737
大仙	-11.174
無明住地	-11.174
法界智	-11.174
離癡	-11.174
無物	-11.174
得清涼	-11.1741
未證	-11.1744
等諸	-11.1746
無礙自在	-11.1747
形貌	-11.1748
為嚴	-11.1749
相從	-11.1749
於三界	-11.175
起心	-11.175
斷見	-11.175
諸人	-11.175
名句	-11.1754
而轉	-11.1754
此定	-11.1754
俱空	-11.1754
住佛	-11.1757
成實	-11.1757
重會	-11.1759
乃至廣說	-11.1759
救濟	-11.1763
於一念	-11.1763
廣破	-11.1765
嚴好	-11.1765
而為供養	-11.1766
菩薩功德	-11.177
警	-11.1771
龜	-11.1776
稱真	-11.1777
炷	-11.1777
吞	-11.1778
例餘	-11.1778
教者	-11.1778
冷	-11.1779
神通自在	-11.1779
眾生等	-11.1782
刃	-11.1783
如來出世	-11.1785
之殊	-11.1786
無由	-11.1786
譽	-11.1788
愈	-11.1788
▁初牒	-11.179
追求	-11.1793
無明緣行	-11.1795
假說	-11.1797
地水火風	-11.1797
示成正覺	-11.18
徧一切處	-11.1803
出世間法	-11.1803
人身	-11.1804
疏文有三	-11.1806
損減	-11.1807
諸善法	-11.1807
類通	-11.1807
後偈頌	-11.1808
無佛	-11.1809
各有十	-11.181
見普賢	-11.1813
卷第二	-11.1814
佛十力	-11.1816
非獨	-11.1817
於地	-11.182
應真	-11.1821
教海	-11.1822
寶帳	-11.1823
為相	-11.1824
六中	-11.1827
十忍	-11.1828
妄情	-11.183
別別	-11.1834
四無量	-11.1837
生苦	-11.1838
方明	-11.1841
了別	-11.1848
大龍王	-11.185
不離此	-11.1853
道塲	-11.1853
孫	-11.1855
中邊	-11.1856
尾	-11.1859
佛果故	-11.186
浩	-11.1861
輪圍山	-11.1862
後九	-11.1863
四辯	-11.1864
故為此通	-11.1864
雖異	-11.1865
出處	-11.1865
約用	-11.1865
市	-11.1867
多生	-11.1867
癡愛	-11.1867
自餘	-11.1868
段中	-11.1868
獻	-11.1869
三心	-11.1872
付囑	-11.1873
意顯	-11.1873
覲	-11.1874
波浪	-11.1874
童蒙	-11.1874
所緣境	-11.1874
鳴	-11.1875
高顯	-11.1875
法自在	-11.1877
願力故	-11.1877
顯發	-11.1877
志求	-11.1878
普熏	-11.1878
能動	-11.188
實體	-11.1882
若自	-11.1884
光明輪	-11.1886
他受用	-11.1888
聞經	-11.1888
下位	-11.1891
起悲	-11.1892
隨方	-11.1892
比量	-11.1897
易解	-11.1899
智慧觀察	-11.19
▁三結成	-11.1901
依何	-11.1906
決斷	-11.1907
隨他	-11.1907
所加	-11.1908
昇天	-11.1909
見一一毛孔	-11.1909
違順	-11.1909
幢王	-11.1911
生生	-11.1912
方說	-11.1912
佛是	-11.1914
不異前	-11.1915
作證	-11.1915
成佛故	-11.1915
修普賢行	-11.1916
自成	-11.1919
淨覺	-11.192
佛智故	-11.1922
令信	-11.1934
盡無餘	-11.1939
三昧海	-11.1939
如是菩薩	-11.194
蓋雲	-11.194
一一佛所	-11.1942
經唐太原方山長者李通玄造論唐	-11.1945
陰陽	-11.1945
真實行	-11.1946
振	-11.1947
不至	-11.1947
標章	-11.1948
若不爾者	-11.1949
十迴向中	-11.1949
三千世界	-11.1951
三處	-11.1952
杖	-11.1953
床	-11.1953
普於十方	-11.1954
如是見	-11.1954
村	-11.1955
有我	-11.1957
隨其心樂	-11.1958
所離	-11.1958
諸聲聞	-11.1958
寶嚴	-11.1959
種種行	-11.196
問佛	-11.1961
寶山	-11.1961
又為	-11.1962
心想	-11.1963
山頂	-11.1963
自乘	-11.1964
作此	-11.1964
偈讚品	-11.1965
成此	-11.1965
優	-11.1965
盈滿	-11.1966
前句	-11.1969
▁二荅	-11.197
無以	-11.1975
宿世	-11.1975
八中	-11.1977
生法	-11.1977
見敬諮問	-11.1978
無依住	-11.1981
其數無量	-11.1982
名數	-11.1982
度世	-11.1982
得無生忍	-11.1983
煩惱故	-11.1984
諸師	-11.1985
二百	-11.1985
賤	-11.1986
皆非	-11.1986
地持	-11.1987
現於	-11.1991
逼	-11.1993
全別	-11.1995
向前	-11.1999
勘	-11.1999
此但	-11.2006
子曰	-11.2007
前門	-11.2008
亦表	-11.201
滿月	-11.201
正念思惟	-11.2011
飯	-11.2013
而為其	-11.2015
能示	-11.2017
出妙音	-11.2018
之要	-11.2019
香普熏	-11.2019
學佛	-11.2024
無不現	-11.2028
福州開元寺沙門志寧釐經合論	-11.2029
動轉	-11.203
剎那際	-11.203
以一切法	-11.2032
正當	-11.2032
皆悉清淨	-11.2035
薰	-11.2035
出現品云	-11.2036
邪婬	-11.2036
不惜身命	-11.2039
吉凶	-11.2039
離有無	-11.204
無法不	-11.2041
顯佛	-11.2043
記別	-11.2045
師子奮迅	-11.2045
常有	-11.2045
中初一	-11.2049
集諦	-11.2049
而覆其上	-11.205
千萬	-11.2051
身體	-11.2052
餘並可知	-11.2052
有生滅	-11.2053
之空	-11.2054
化物	-11.2054
三類	-11.2056
復云	-11.2058
離妄	-11.2058
大雨	-11.2059
轉識	-11.206
▁初施行	-11.2061
佛子是為	-11.2062
皆悉成就	-11.2063
智慧海	-11.2064
望後	-11.2064
無上智	-11.2066
而自莊嚴	-11.2066
智正覺	-11.2069
常無常	-11.2071
無身	-11.2073
一切諸行	-11.2073
進退	-11.2075
愛敬	-11.2077
無間道	-11.2078
先長行	-11.2078
引接	-11.2078
生也	-11.2079
斷證	-11.2083
知一切佛	-11.2083
前說	-11.2085
知過去	-11.2086
佛音聲	-11.2087
本經	-11.209
依根	-11.2091
遲	-11.2091
微塵等	-11.2094
品名	-11.2094
護世	-11.2095
先顯	-11.2098
我觀	-11.2098
以信	-11.2105
滅除一切	-11.2106
大神通力	-11.2107
發大願	-11.2108
通為	-11.2108
藝	-11.211
皆歡喜	-11.2112
保	-11.2113
隨俗	-11.2114
離此	-11.2115
隨順一切眾生	-11.2116
罪福	-11.2117
共教	-11.2117
西域記	-11.2118
有五百	-11.212
偈半頌	-11.212
福德智慧	-11.2121
不俱	-11.2121
邊見	-11.2124
平坦	-11.2124
由得	-11.2124
善不善	-11.2124
容有	-11.2128
良醫	-11.2129
入無量	-11.2129
不偏	-11.213
百萬億那由他	-11.2131
化主	-11.2131
至相	-11.2131
出所以	-11.2132
結使	-11.2132
異說	-11.2133
虛無	-11.2135
亦不可	-11.2136
畔	-11.2136
世間所有	-11.2137
治之	-11.2138
四中	-11.2139
智觀	-11.214
所具	-11.2143
初一偈	-11.2143
具足清淨	-11.2144
頭目	-11.2145
諸凡夫	-11.2146
第五地	-11.2148
攝他	-11.2149
於善知識生	-11.2149
邪正	-11.215
真實性	-11.2151
影響	-11.2151
菩薩所住	-11.2154
又依	-11.2155
彼論云	-11.2157
為一切	-11.2157
亦約	-11.2157
託事	-11.2158
一切惡	-11.2161
經行	-11.2162
初三句	-11.2163
彼諸眾生	-11.2167
全攝	-11.2167
如此世界	-11.2168
之方便	-11.2174
不廢	-11.2175
光明網	-11.2177
諸王	-11.2178
斷一切	-11.2178
災	-11.218
大人	-11.2181
真法	-11.2182
以慧	-11.2183
成就普賢	-11.2184
行用	-11.2187
德藏菩薩	-11.2188
法名	-11.2189
一千	-11.219
是故說	-11.2194
智慧光	-11.2194
理法界	-11.2196
位極	-11.2197
詩	-11.22
境也	-11.22
宗中	-11.2202
得成就	-11.2203
敵對	-11.2204
醜	-11.2205
光天	-11.2207
為表	-11.2209
靡	-11.2211
增上果	-11.2213
麁細	-11.2215
月佛	-11.2215
不曉	-11.2216
初中三	-11.2216
真體	-11.2217
過去諸佛	-11.2218
演暢	-11.2218
故論	-11.2219
藥草	-11.222
無量義	-11.2221
不相離故	-11.2221
中初二句	-11.2221
刀山	-11.2222
亦有二	-11.2222
智度論	-11.2227
無碍	-11.2227
自無	-11.2228
超過一切	-11.223
大義	-11.2232
第一云	-11.2234
並為	-11.2236
淨剎	-11.2236
請佛	-11.2236
界外	-11.2237
莊子	-11.2237
同義	-11.224
義則	-11.2241
所須	-11.2244
一切佛土	-11.2245
圓融無礙	-11.2246
此宗	-11.2246
充遍	-11.225
入海	-11.225
會主	-11.225
恭	-11.2254
得授記	-11.2258
欲見	-11.2258
證信	-11.2258
第十二	-11.226
有苦	-11.226
請法	-11.2262
分別者	-11.2263
為世	-11.2263
我想	-11.2266
結說	-11.227
餘一切	-11.2272
鮮	-11.2276
二業	-11.2282
時即	-11.2284
約義	-11.2284
十類	-11.2285
會三歸一	-11.2285
戒者	-11.2285
陀羅	-11.2286
此理	-11.2287
圓淨	-11.2287
化故	-11.2288
津	-11.2288
邑	-11.229
冀	-11.229
毒蛇	-11.2291
世界種中諸佛道場一切海眾	-11.2292
南西北方四維上下亦復如是	-11.2295
餘門	-11.2298
五通	-11.23
六種震動	-11.2302
如諸菩薩	-11.2304
寶輪	-11.2306
以願力	-11.2308
最極	-11.2313
起願	-11.2313
巳成	-11.2314
從三昧起	-11.2314
清淨道	-11.2315
寂用無礙	-11.2318
於阿耨多羅三藐三菩提	-11.2319
三惡道	-11.2319
滅壞	-11.2319
頓證	-11.232
體同	-11.2321
無相觀	-11.2321
生在	-11.2321
兩重	-11.2323
十使	-11.2325
文分為三	-11.2327
皆見	-11.2328
義大	-11.2329
於一切佛	-11.2331
海印三昧	-11.2331
佛剎微塵	-11.2332
先列	-11.2334
▁初引	-11.2335
園中	-11.2335
無邊故	-11.2336
人之	-11.2337
名淨	-11.234
深淺	-11.234
顯說	-11.2341
見取	-11.2354
例知	-11.2355
當機	-11.2356
有二句	-11.2358
無彼	-11.2358
又若	-11.236
忘失	-11.2361
解脫長者	-11.2363
諸佛菩提	-11.2363
而出	-11.2363
彼文	-11.2365
稱實	-11.2366
隋	-11.2366
順違	-11.2366
是化	-11.2368
入佛境界	-11.2369
破闇	-11.237
分別知	-11.2372
冤	-11.2372
無不在	-11.2373
憙	-11.2373
別則	-11.2374
一切所有	-11.2374
疏釋論	-11.2375
始末	-11.2375
外境	-11.2376
成就故	-11.2377
遏	-11.2377
明現	-11.2379
眾生數等	-11.2379
面門	-11.2381
下當	-11.2383
得安樂	-11.2383
奢摩他	-11.2383
四對	-11.2386
法身故	-11.2386
伐	-11.2388
非心	-11.2389
不證	-11.2391
開示演說	-11.2396
信根	-11.2399
此位中	-11.2401
真常	-11.2402
悉檀	-11.2403
五字	-11.2405
世出世間	-11.2407
人眾	-11.2407
現色	-11.2408
之終	-11.2408
族姓子	-11.2408
無間斷	-11.2408
真法界	-11.2409
不揀	-11.241
華果	-11.241
色無色	-11.2414
此論	-11.2415
三十七品	-11.2416
一時頓	-11.2417
業種	-11.2417
眼識	-11.2417
彼彼	-11.2419
廣大無量	-11.242
集善根	-11.2422
謂隨	-11.2424
復次善男子	-11.2426
疑網	-11.2427
理法	-11.2427
於心	-11.2433
三總結	-11.2434
若此	-11.2434
第十六	-11.2437
諸宗	-11.2438
智正覺世間	-11.244
心之	-11.244
多所	-11.244
通名	-11.244
難者	-11.2442
解脫月菩薩	-11.2443
自此	-11.2444
真佛子	-11.2447
初徵	-11.2447
其王	-11.2448
體相用	-11.2448
號之為	-11.2448
後正	-11.2451
十佛剎微塵數世界	-11.2452
恣	-11.2453
促	-11.2456
賴	-11.2458
為眾生說	-11.2458
墨	-11.2459
能忍	-11.2459
舉果	-11.246
變易生死	-11.246
醉	-11.2461
紺	-11.2461
三十一	-11.2461
動故	-11.2464
禍	-11.2465
三千大千	-11.2466
一切世	-11.2467
霔	-11.2468
見諸	-11.2471
兔	-11.2472
相即故	-11.2472
維摩	-11.2473
普觀十方而說頌言	-11.2473
頌上	-11.2473
唯是一	-11.2474
一切諸佛皆	-11.2475
法是	-11.2475
尊勝	-11.2476
簡擇	-11.2477
大願力	-11.2478
約境	-11.2479
性相無礙	-11.2485
四行	-11.2488
脇	-11.249
菩薩亦如是	-11.249
常生	-11.249
。」《	-11.2491
觀見	-11.2491
因是	-11.2492
先見	-11.2493
清淨眼	-11.2493
此當	-11.2495
一一光明	-11.2496
緣起相由	-11.2497
所宗	-11.2498
給	-11.2503
如帝網	-11.2503
善達	-11.2505
隨文釋義	-11.2505
號為	-11.2505
以此法	-11.2508
是故我	-11.2508
住一切	-11.2508
隨所應化	-11.2509
如本	-11.251
佛性者	-11.2511
現種種	-11.2514
一切世界中	-11.252
離塵	-11.2526
五段	-11.2529
所可	-11.253
十忍品	-11.2531
已有	-11.2535
功德林菩薩	-11.2541
長劫	-11.2541
塵沙	-11.2542
小乘中	-11.2542
寶焰	-11.2547
於如來所	-11.2547
引生	-11.2547
詺	-11.2549
平等法	-11.2552
婇女	-11.2553
主佛	-11.2554
總辨	-11.2555
如是觀察	-11.256
一切三昧	-11.2561
五體投地	-11.2561
成就如來	-11.2562
是為菩薩摩訶薩布施	-11.2562
牛車	-11.2564
種種性	-11.2566
鏡中	-11.2567
觀察一切	-11.257
不善法	-11.2571
同者	-11.2572
中有十	-11.2573
信力	-11.2574
無量百千億那由他	-11.2578
悉巳	-11.2579
第二門	-11.258
所依止	-11.2581
不離念	-11.2582
從定起	-11.2584
寂故	-11.2584
為法	-11.2584
真實相	-11.2587
故䟽	-11.259
起信論云	-11.2592
廣分別	-11.2593
不過	-11.2595
後總結	-11.2597
與一切	-11.2598
諸菩薩等	-11.2599
非器	-11.2599
十二句	-11.2599
天之	-11.2601
皆盡	-11.2601
先以	-11.2605
三十九	-11.2605
力士	-11.2606
正在	-11.2609
頓悟	-11.261
十方一切諸佛	-11.2611
之過	-11.2611
一切二乘	-11.2611
次有如來	-11.2611
之旨	-11.2612
所及	-11.2612
一切施	-11.2612
已見	-11.2613
成佛者	-11.2613
隱覆	-11.2615
須彌山王	-11.2619
論經名	-11.2619
一微塵	-11.262
十八界	-11.262
尋思	-11.2622
庶	-11.2622
現報	-11.2622
初發	-11.2622
佛前	-11.2623
性德	-11.2623
彩	-11.2627
今欲	-11.2629
顯多	-11.2631
大威力	-11.2631
有量	-11.2632
四念處	-11.2632
圭峯	-11.2634
乃得	-11.2635
率	-11.2636
餘亦如是	-11.2641
火燒	-11.2641
齊等	-11.2642
具前	-11.2642
牢獄	-11.2644
又是	-11.2644
而求	-11.2646
可愛	-11.2647
起大	-11.2648
有六句	-11.2649
欲以	-11.2649
茂	-11.2652
得成佛	-11.2652
堪聞	-11.2653
宣揚	-11.2653
義類	-11.2654
慧者	-11.2657
恭敬尊重	-11.2658
則得一切諸佛無上	-11.2659
等相	-11.2662
復次佛子	-11.2662
令不	-11.2662
失壞	-11.2662
第二云	-11.2662
婆羅	-11.2662
正陳	-11.2663
即通	-11.2665
之想	-11.2666
釋疑	-11.2666
言非	-11.267
地故	-11.2673
合故	-11.2677
如上所說	-11.2677
眾生類	-11.2677
更相	-11.2679
顯其相	-11.2679
灌頂住	-11.268
餘可	-11.2682
問何	-11.2682
淨也	-11.2684
轉更	-11.2684
菩薩摩訶薩住此	-11.2686
引導	-11.2686
信入	-11.2689
章門	-11.2692
樂求	-11.2693
化益	-11.2698
藥王	-11.2698
功德故	-11.27
謙下	-11.27
意加	-11.2701
願求	-11.2701
憂喜	-11.2701
退轉	-11.2704
同生	-11.2707
深觀	-11.2708
得勝	-11.2709
除斷	-11.2711
從於	-11.2712
皆是如來	-11.2714
得至	-11.2715
此喻	-11.2716
生喜	-11.2716
䟽釋	-11.2717
諸佛功德	-11.2719
是為菩薩摩訶薩施	-11.2719
其德	-11.2719
亦兼	-11.2719
能感	-11.2725
速得	-11.2726
冬	-11.2726
楚	-11.2727
補特伽羅	-11.2729
為順	-11.2731
鑽	-11.2731
初正明	-11.2732
後報	-11.2733
剖	-11.2733
無罣礙	-11.2733
走	-11.2734
有一頌	-11.2734
即說頌言	-11.2735
是故此處最吉祥	-11.2735
初發心時便成正覺	-11.2737
涯	-11.2737
已前	-11.2737
會融	-11.2739
一月	-11.2739
十自在	-11.2739
攝在	-11.2739
過去未來	-11.2741
一生補處	-11.2741
佛自	-11.2742
於有	-11.2743
慳貪	-11.2743
於菩薩	-11.2746
後一偈	-11.2746
法界之	-11.2747
能成就	-11.2747
他心智	-11.2747
恩德	-11.2748
狹劣	-11.2748
故號	-11.2748
大名稱	-11.2749
聞之	-11.2751
劫住	-11.2753
佛現	-11.2754
語其	-11.2756
佛等	-11.2756
天冠	-11.2758
感果	-11.2758
佛家	-11.2759
此忍	-11.276
合掌恭敬	-11.2761
何義	-11.2761
人心	-11.2762
科文	-11.2762
於諸法中	-11.2763
方等	-11.2766
同法	-11.2766
殺害	-11.2767
有別	-11.277
悅豫	-11.277
虗無	-11.2771
引攝	-11.2772
依佛	-11.2775
聖賢	-11.2776
讚說	-11.2776
能示現	-11.2777
皆與	-11.2778
知此	-11.2778
未見	-11.278
八正	-11.2781
因起	-11.2782
離垢三昧	-11.2782
真如隨緣	-11.2784
故發菩提心	-11.2784
勝處	-11.2785
出其	-11.2785
半滿	-11.2788
淨行品	-11.2793
空也	-11.2794
無惑	-11.2794
會經	-11.2796
初果	-11.2798
是如來	-11.2802
十地論	-11.2802
靡不周	-11.2805
中論云	-11.2805
約機	-11.2806
入法界品	-11.2806
全無	-11.2807
歡喜心	-11.2808
十住位	-11.2809
噉	-11.2811
離眾	-11.2813
所喻	-11.2817
緣相	-11.282
皇	-11.282
法味	-11.2821
辛	-11.2822
主方神	-11.2824
孰	-11.2824
屋宅	-11.2825
汝詣彼問菩薩云何學菩薩行修菩薩道	-11.2825
採	-11.2826
洪	-11.2826
顯證	-11.2826
悋	-11.2828
最清淨	-11.2831
綺語	-11.2832
及眾生	-11.2835
由心	-11.2837
不殺	-11.2838
能救	-11.2838
語言道	-11.2838
十二部經	-11.284
隨何	-11.2841
有殊	-11.2841
我時	-11.2844
無量智	-11.2848
八會	-11.2848
所被	-11.2848
但由	-11.2849
隨器	-11.285
淨慧	-11.2852
覺心	-11.2853
中皆有	-11.2854
通辨	-11.2854
亦同此說	-11.2854
一偈頌	-11.2855
義如	-11.2856
如蓮華	-11.2858
女身	-11.2858
但顯	-11.286
佛說法	-11.286
斷空	-11.2862
各現	-11.2863
於中分二	-11.2863
如此經	-11.2864
於一切時	-11.2871
熾	-11.2872
以況	-11.2873
不動搖	-11.2873
第三明	-11.2873
由彼	-11.2876
不愛	-11.2877
一偈半	-11.2883
妬	-11.2884
一一法	-11.2885
現相品	-11.2885
八頌	-11.2886
分成	-11.2889
十平等	-11.2898
見已	-11.2898
該於	-11.2904
得自在故	-11.2904
性戒	-11.2905
清凉	-11.2907
𢌞向	-11.2907
說時	-11.2909
綺	-11.2909
二性	-11.291
若別	-11.2911
巖	-11.2911
踐	-11.2912
一切法皆	-11.2913
為戒體	-11.2913
英	-11.2915
等佛	-11.2916
一毛端處	-11.2917
五位中	-11.2921
如法華	-11.2922
頓成	-11.2923
依他起	-11.2923
相狀	-11.2924
事者	-11.2925
求覓	-11.2927
摩尼王雲	-11.2928
留惑	-11.293
果行離	-11.2931
生貴住	-11.2932
大光	-11.2933
具二	-11.2933
百佛	-11.2934
共有	-11.2934
懺除	-11.2934
m	-11.2939
<	-11.2939
g	-11.2939
i	-11.2939
示現受生	-11.2944
先徵	-11.2945
若知	-11.2945
向佛	-11.2945
明因果	-11.2946
照現	-11.2948
謂觀	-11.2949
彼說	-11.295
見理	-11.2953
方處	-11.2954
與理	-11.2956
諸神	-11.2956
定無	-11.2957
修觀	-11.2957
中辨	-11.2957
有斯	-11.2958
仁王經	-11.2959
彈	-11.296
從何	-11.296
穢土	-11.2963
瑜伽論	-11.2964
普詣	-11.2965
開導	-11.2965
異前	-11.2969
華葉	-11.297
不犯	-11.2971
是世間	-11.2971
難勝	-11.2972
離煩惱	-11.2973
不同前	-11.2976
生善	-11.2977
梵天王	-11.2977
不思議法	-11.2978
來去	-11.2979
具矣	-11.2979
善人	-11.298
第二對	-11.2981
眾生見者	-11.2982
不一	-11.2982
皆應	-11.2983
後三句	-11.2984
彼不思議	-11.2986
後一頌	-11.2986
王所	-11.2988
上界	-11.2991
爛	-11.2996
佉	-11.2997
正釋文	-11.2997
奴	-11.2998
便是	-11.3001
生彼	-11.3001
相收	-11.3001
心有	-11.3002
得一切法	-11.3002
得知	-11.3002
環	-11.3002
五品	-11.3004
覽	-11.3009
一釋	-11.3009
歡喜行	-11.3009
層級	-11.301
法音	-11.301
遍至	-11.301
理也	-11.3011
五偈	-11.3011
十住位中	-11.3011
主空神	-11.3013
生滅門	-11.3013
各攝	-11.3013
還以	-11.3015
舍宅	-11.3015
念法	-11.3016
倚	-11.3019
欣慶	-11.302
調和	-11.302
垂布	-11.3021
雙釋	-11.3024
音聲為體	-11.3025
度者	-11.3025
我說	-11.3025
於色	-11.3025
現瑞	-11.3026
娑羅	-11.3028
所以然者	-11.3028
四蘊	-11.303
計有	-11.3032
能造	-11.3035
究竟故	-11.3036
萬類	-11.3036
或俱	-11.3037
無有異	-11.3037
我知	-11.3038
所迷	-11.304
別歎	-11.304
以諸善根如是迴向	-11.3041
無著行	-11.3043
不見有	-11.3044
法界自在	-11.3044
自在法	-11.3046
悔過	-11.3048
證真如	-11.3048
以用	-11.3053
摩尼珠	-11.3056
法堂	-11.3056
十方三世	-11.3057
權小	-11.3058
幻術	-11.3059
化導	-11.3061
業果報	-11.3061
自然而	-11.3062
一切業	-11.3062
明此位	-11.3067
大願海	-11.3069
作是言	-11.3071
當為汝說	-11.3072
欲解	-11.3072
初一句總	-11.3073
法性土	-11.3074
之音	-11.3075
現證	-11.3076
嚴土	-11.3078
於佛法	-11.3079
一切諸佛於一念中	-11.308
從本	-11.308
之報	-11.3081
自下第二	-11.3081
眾生心中	-11.3083
即經	-11.3085
四聖諦	-11.3085
無盡功德	-11.3086
空而	-11.3091
受想行識	-11.3092
表示	-11.3093
觸境	-11.3095
此國	-11.3096
為自	-11.3096
利鈍	-11.3097
之曰	-11.3099
彼王	-11.31
堅牢	-11.31
涌	-11.31
料簡	-11.31
童真	-11.3102
俱融	-11.3102
君子	-11.3104
下彰	-11.3104
意可知	-11.3104
先牒前	-11.3105
不沒	-11.3107
顯義	-11.3107
應受	-11.3107
經書	-11.3109
於虗空中	-11.311
諸法界	-11.3111
勤行精進	-11.3112
分六	-11.3114
以之為	-11.3114
侍衛	-11.3115
何言	-11.3117
養育	-11.3117
師子頻申	-11.3117
待緣	-11.3117
邏	-11.312
給施	-11.312
定也	-11.3121
一百二十	-11.3124
優鉢羅華	-11.3125
通用	-11.3125
未入	-11.3125
如金	-11.3129
如初	-11.313
多類	-11.313
值佛	-11.3131
四倒	-11.3134
爾時如來	-11.3135
後辨	-11.3135
畢竟空	-11.3136
身光	-11.3136
應作	-11.3137
顯於	-11.314
薩婆多	-11.3144
見之	-11.3144
泯二	-11.3148
教誡	-11.315
一大	-11.3151
最勝智	-11.3151
初始	-11.3151
焚	-11.3154
一切莊嚴具	-11.3154
周徧十方	-11.3156
便生	-11.3157
佛剎極微塵數	-11.3158
普觀十方	-11.316
教化成熟	-11.316
次辨	-11.3161
普賢身	-11.3163
明之	-11.3166
正住	-11.3168
使其	-11.317
饒益行	-11.317
綱	-11.3171
至誠	-11.3171
諸諦	-11.3172
施者	-11.3173
在纏	-11.3174
願成	-11.3176
結文	-11.3178
一真法界	-11.3179
漂溺	-11.3181
破彼	-11.3181
之所以	-11.3181
者顯	-11.3181
麼	-11.3187
療	-11.3187
垢淨	-11.3188
旦	-11.3188
伯	-11.319
儼	-11.3191
今亦	-11.3192
所染	-11.3192
校	-11.3192
十不可說	-11.3193
之罪	-11.3194
是經	-11.3194
方可	-11.3195
字時入般若波羅蜜門名	-11.3195
無所取	-11.3195
自明	-11.3195
菩薩法	-11.3195
。】「△	-11.3196
壞相	-11.3198
復說	-11.3198
滿中	-11.3198
耆	-11.3199
妙相	-11.32
猶如大海	-11.3201
奔	-11.3202
心無所	-11.3202
健	-11.3202
遐	-11.3204
對現色身	-11.3205
器仗	-11.3206
無減	-11.3206
等眾生	-11.3208
字是	-11.3208
夜摩天宮	-11.3209
猶是	-11.3209
承佛力	-11.3211
光明幢	-11.3211
作是思惟	-11.3212
理而	-11.3213
約實	-11.3216
他化	-11.3216
則通	-11.3217
正趣	-11.3217
菩薩乘	-11.3218
於法自在	-11.3219
大梵天王	-11.3223
中流	-11.3224
說之為	-11.3224
一切音聲	-11.3227
一切諸魔	-11.3228
不屬	-11.3229
無表	-11.3231
解脫月菩薩言	-11.3231
佛於	-11.3231
於大	-11.3231
雖通	-11.3235
願樂	-11.3235
依之	-11.3236
長行中	-11.3236
盡理	-11.3237
波羅蜜多	-11.3243
▁三合	-11.3244
由善知識	-11.3245
得意	-11.3245
入生死	-11.3247
諸色	-11.3248
持淨戒	-11.3248
十問	-11.3248
如是說	-11.3251
不捨菩薩	-11.3252
悉具足	-11.3259
淨相	-11.3262
或因	-11.3268
無盡無盡	-11.3269
知者	-11.3272
耳根	-11.3273
大捨	-11.3274
沙彌	-11.3275
速證	-11.3276
朱	-11.328
齋	-11.3281
拏	-11.3283
行本	-11.3283
則見	-11.3284
而用	-11.3284
製	-11.3285
大集	-11.3285
無數眾生	-11.3285
餘十	-11.3285
之實	-11.3286
明善財	-11.3287
開闡	-11.3287
不減	-11.3291
籍	-11.3291
以空	-11.3291
如大海	-11.3292
勸令	-11.3292
同時具足	-11.3294
阿鼻地獄	-11.3295
勉	-11.3296
權實雙行	-11.3296
生心	-11.3297
鑑	-11.3297
輔翼	-11.3298
觀察十方而說頌言	-11.3298
報應	-11.3299
毘盧遮那如來	-11.3299
眾集	-11.3301
雙運	-11.3302
之大	-11.3303
四乘	-11.3304
既知	-11.3307
不妄	-11.3309
大乘法	-11.331
初總顯	-11.3312
而未	-11.3313
一切眾生皆	-11.3313
而入	-11.3314
如意珠	-11.3314
說彼	-11.3315
一定	-11.3316
摩竭提國	-11.3317
兜率天王	-11.3317
華光	-11.3317
所示現	-11.3319
身淨	-11.3319
問前	-11.3321
智大	-11.3321
一億	-11.3324
界內	-11.3325
入正受	-11.3325
說四諦	-11.3328
眾生行	-11.3328
則前	-11.3333
自在行	-11.3333
而無所著	-11.334
天樂	-11.3343
有世界海微塵數	-11.3343
古佛	-11.3344
歿	-11.3345
懈	-11.3347
釋者	-11.3347
菩薩境界	-11.3348
異釋	-11.335
無能所	-11.335
離我	-11.3352
欲成	-11.3352
成佛時	-11.3353
成相	-11.3353
▁二正明	-11.3354
莊嚴道	-11.3354
壞苦	-11.3355
伏藏	-11.3365
願故	-11.3365
菩薩諸行	-11.3365
乃至一切	-11.3366
四十一	-11.3367
有生	-11.3369
助菩提	-11.337
一毛孔中	-11.3371
佛果位	-11.3372
起大悲心	-11.3372
十二支	-11.3373
初喻	-11.3374
等者謂	-11.3374
輕慢	-11.3375
求佛道	-11.3377
佛意	-11.3378
圭山	-11.3379
大品云	-11.3379
即無性	-11.3383
為根本	-11.3384
間錯	-11.3385
先正釋	-11.3386
能覺	-11.3386
加相	-11.3386
蘊界處	-11.3386
用心	-11.3387
唯明	-11.3388
引彼	-11.3388
試	-11.3389
䟦	-11.339
以普賢	-11.3391
自生	-11.3391
莊嚴身	-11.3391
而我云何能知能說彼功德行	-11.3393
同會	-11.3393
不增減	-11.3396
唯在	-11.3396
餘方	-11.3396
亦由	-11.3396
因相	-11.3398
無有疲厭	-11.3399
無始終	-11.3399
聰慧	-11.3402
其源	-11.3404
下釋成	-11.3405
用大	-11.3407
不相似	-11.3407
一切障	-11.3407
心法	-11.3408
得智慧	-11.3409
之光	-11.341
如來功德	-11.341
墮於	-11.3414
法住	-11.3415
勝慧	-11.3416
相在	-11.3417
因義	-11.3418
妄分別	-11.3418
信佛	-11.3419
之聲	-11.3419
如出現品	-11.3421
皆大歡喜	-11.3421
終歸	-11.3422
來生	-11.3423
海岸	-11.3424
無礙者	-11.3424
閻浮提中	-11.3425
動搖	-11.3425
為生	-11.3425
善學	-11.3427
須知	-11.3427
五相	-11.3428
揀於	-11.3428
一一皆有	-11.3431
之士	-11.3432
日天子	-11.3436
爾時金剛藏菩薩	-11.3436
平等性智	-11.3436
迦羅	-11.3437
淨身	-11.3438
五十五	-11.3439
不可說不可說世界	-11.3441
大導師	-11.3442
能以一	-11.3442
垂下	-11.3444
千劫	-11.3445
若從	-11.3445
法身智身	-11.3446
圓備	-11.3447
心佛	-11.3449
止住	-11.345
已入	-11.345
別喻	-11.3453
先牒	-11.3456
波羅蜜海	-11.3456
拜	-11.3456
四住	-11.3458
對於	-11.3458
不能盡	-11.3459
多即一	-11.3464
佛自說	-11.3467
亦不能	-11.3469
毗尼	-11.347
餘別	-11.3471
水輪	-11.3472
傳云	-11.3472
種種不同	-11.3474
二釋名者	-11.3475
超情	-11.3475
一切如來所	-11.3476
之見	-11.3476
無厭倦	-11.3476
洛	-11.3477
有所得	-11.3478
令清淨	-11.348
執金剛神	-11.3481
具顯	-11.3482
淪	-11.3482
行菩薩道	-11.3482
之水	-11.3483
大圓鏡智	-11.3484
約其	-11.3485
煙	-11.3485
入一乘	-11.3486
悞	-11.3486
不害	-11.3486
鳩槃茶王	-11.3486
辨釋	-11.3487
通收	-11.3487
阿僧祗	-11.3487
三百	-11.3489
肇公	-11.3492
開章	-11.3494
二問	-11.3494
劍	-11.3495
得失	-11.3499
之義也	-11.3501
現無量	-11.3501
分別俱生	-11.3502
於過去	-11.3503
▁四所為	-11.3504
住佛所住	-11.3505
而得成就	-11.3505
兜率陀天	-11.3506
資財	-11.3508
衣食	-11.3509
或入	-11.3511
如風	-11.3512
光音天	-11.3513
釋言	-11.3515
知一切世界	-11.3516
配之	-11.3516
三乘等	-11.3517
無功用行	-11.3519
難度	-11.3519
智慧藏	-11.352
菩薩成就	-11.3521
世界成壞	-11.3522
如於	-11.3526
下對	-11.3527
斷諸	-11.3527
先牒前起後	-11.3527
深重	-11.3527
一攝	-11.3532
義云	-11.3532
遞	-11.3532
十因	-11.3533
不思議品	-11.3538
有盡	-11.3538
普眼菩薩	-11.3538
無差別故	-11.354
終無	-11.3542
法報	-11.3546
福慧	-11.3547
捨念	-11.3552
劣故	-11.3554
此有二意	-11.3557
雲音	-11.3557
而與	-11.3558
略列	-11.3559
次有香水海	-11.3559
此識	-11.356
增明	-11.3563
發明	-11.3565
想者	-11.3569
光幢	-11.357
燈明	-11.3571
慎	-11.3572
未說	-11.3574
漫	-11.3574
第一會	-11.3575
善根廻向亦復如是	-11.3576
三千大千世界微塵數	-11.3576
長科	-11.3577
福德藏	-11.3578
照理	-11.3578
善能分別	-11.3578
羸	-11.3579
窺	-11.358
不毀	-11.358
青黃	-11.3581
其諸	-11.3581
雨寶	-11.3583
令使	-11.3583
李	-11.3584
爾時文殊師利菩薩	-11.3585
貞	-11.3586
圓宗	-11.3587
金山	-11.3587
主火神	-11.3588
目之為	-11.3589
二論	-11.3589
無底	-11.3591
主海神	-11.3591
妙峯山	-11.3591
以得	-11.3593
揀擇	-11.3595
廣如經說	-11.3596
金網	-11.3598
天龍	-11.3599
對辨	-11.36
五蓋	-11.36
三僧祇	-11.3602
共為	-11.3602
江河	-11.3602
種諸善根	-11.3602
此就	-11.3603
善現行	-11.3603
諸眷屬	-11.3605
彼天	-11.3605
諸境	-11.3606
顯性	-11.3609
佛光明	-11.3609
現作	-11.3615
具多	-11.3617
自在者	-11.3617
致敬	-11.3617
念善知識	-11.3618
入深	-11.362
福業	-11.3623
無分別故	-11.3624
觀世間	-11.3625
作利益	-11.3625
三世所有	-11.3627
智印	-11.3628
非斷	-11.3628
今復	-11.3632
此經中	-11.3636
一教	-11.3638
依主釋	-11.3639
大數	-11.364
假實	-11.3641
六千	-11.3641
同在	-11.3644
自受用	-11.3644
所有莊嚴	-11.3647
巨	-11.3648
化樂天	-11.3649
多說	-11.3651
直顯	-11.3652
等者等取	-11.3653
後約	-11.3653
異道	-11.3653
現法	-11.3656
本一	-11.3657
有三義一	-11.3659
巧說	-11.3659
遍覆	-11.366
譬如虗空	-11.3661
動念	-11.3662
同是	-11.3664
對境	-11.3665
十數	-11.3665
一切神通	-11.3667
牀	-11.3669
上釋	-11.3669
或從	-11.367
十地十一地	-11.367
善根力	-11.3674
染心	-11.3674
異熟果	-11.3679
善法行	-11.368
餘五	-11.3681
東西	-11.3682
彼福德	-11.3683
菩薩住此地	-11.3683
嚩	-11.3684
諸佛智慧	-11.3684
性不	-11.3684
吾我	-11.3685
無益	-11.3685
省	-11.3686
即第四	-11.3686
園苑	-11.3687
以三昧力	-11.3688
大菩提心	-11.3688
不計	-11.3688
大樹	-11.3689
為母	-11.3689
易知	-11.369
亦曰	-11.369
尊敬	-11.369
是理	-11.3693
非直	-11.3695
結加趺坐	-11.3695
嬰	-11.3696
光統	-11.37
大光王	-11.37
如經自具	-11.3701
十地位	-11.3702
觀中	-11.3702
上十	-11.3703
念佛三昧	-11.3703
支節	-11.3705
聰	-11.3705
普示	-11.3705
上所引	-11.3706
不達	-11.3708
嫉妬	-11.3708
是為第六	-11.3711
現有	-11.3711
一切法海	-11.3711
其諸菩薩	-11.3711
體事	-11.3714
與諸	-11.3716
雜華	-11.3717
心等	-11.3718
其華	-11.3719
安得	-11.372
無量色	-11.3721
廣大智慧	-11.3722
至果	-11.3722
法界等	-11.3723
俱成	-11.3723
於此南方	-11.3724
所釋	-11.3725
▁初顯	-11.3725
智神通	-11.3727
剎塵數	-11.3728
所從	-11.3728
文分三	-11.3733
五見	-11.3733
他作	-11.3736
若將	-11.3737
無住涅槃	-11.3739
由業	-11.374
不動心	-11.374
梵世	-11.374
以經	-11.3741
涅槃經云	-11.3741
金輪	-11.3743
常求	-11.3743
若說	-11.3746
常觀	-11.3746
知一切眾生心	-11.3748
無我故	-11.3748
寶雲	-11.375
可斷	-11.3753
大山	-11.3753
能含	-11.3754
判為	-11.3754
我亦	-11.3755
受眾苦	-11.3755
滿足故	-11.3756
藏三昧	-11.3757
住在	-11.3757
聞思	-11.376
妄執	-11.376
佛語	-11.3761
何等為四	-11.3763
一切凡夫	-11.3764
造立	-11.3764
所疑	-11.3765
商	-11.3765
愁	-11.3766
無亂	-11.3767
維摩經	-11.3767
遊戲神通	-11.3768
故但	-11.377
剛	-11.3771
荷	-11.3773
軀	-11.3773
淫	-11.3773
三乘一乘	-11.3775
甞	-11.3776
井	-11.3777
夕	-11.3778
後地	-11.378
毛孔出	-11.3781
復何	-11.3782
役	-11.3782
有難云	-11.3783
瓦	-11.3783
希奇	-11.3784
主林神	-11.3784
溢	-11.3785
所益	-11.3786
所共圍繞	-11.3786
無能壞者	-11.3786
周易	-11.3786
基	-11.3787
具上	-11.3787
發露懺悔	-11.3788
種種寶	-11.3788
慇懃瞻仰	-11.3791
意菩薩	-11.3791
或現不可說佛剎微塵數	-11.3791
兆	-11.3792
上即	-11.3793
為樂	-11.3793
菩提身	-11.3795
二意	-11.3795
方見	-11.3796
我得菩薩解脫	-11.3798
疲倦	-11.3799
正修	-11.38
佛會	-11.38
際故	-11.3801
得十地	-11.3801
刊定記	-11.3805
廣大如法界	-11.3806
燈光	-11.3807
十方各過	-11.3807
思擇	-11.3809
離間	-11.381
總科	-11.381
生起因	-11.3811
互望	-11.3814
正使	-11.3815
無取	-11.3815
有三偈	-11.3816
不增	-11.3817
大喜	-11.3818
首菩薩	-11.3819
事而	-11.382
無能測	-11.3823
得出世	-11.3825
為利眾生	-11.3825
含藏	-11.3826
即法界	-11.3827
無礙辯	-11.3829
如是下結	-11.3835
證也	-11.3836
無礙慧	-11.3836
體不異	-11.3836
此解	-11.3837
無對	-11.3837
不動故	-11.3838
皆已	-11.3839
加所為	-11.3839
證故	-11.3839
諦理	-11.384
牙齒	-11.3841
已後	-11.3842
大悲為首	-11.3843
菩薩心	-11.3844
無體故	-11.3844
上三義	-11.3844
領受	-11.3845
富貴	-11.3847
有想	-11.3848
有實	-11.3849
字母	-11.3851
三生	-11.3852
說不可盡	-11.3857
於往昔	-11.3861
八正道	-11.3861
大海水	-11.3861
願他	-11.3864
不可說不可說劫	-11.3864
上聲	-11.3865
巳還	-11.3865
佛興世	-11.3866
故立	-11.3867
明了法	-11.3869
渴仰	-11.3869
線	-11.387
意欲	-11.3871
無慚	-11.3871
勸發	-11.3874
修此	-11.3876
初分	-11.3879
噐	-11.388
開解	-11.388
囊	-11.3881
寬狹	-11.3882
目連	-11.3882
弟	-11.3882
諸難	-11.3883
主山神	-11.3884
一切智性	-11.3884
是體	-11.3885
正示	-11.3888
因門	-11.3888
能問	-11.3889
坑	-11.3889
城邑聚落	-11.3891
出世法	-11.3891
文顯可知	-11.3892
我者	-11.3895
言論	-11.3896
渴愛	-11.3898
凡愚	-11.3899
亦成	-11.3899
與其眷屬	-11.3901
前後圍遶	-11.3902
網羅覆其上	-11.3902
無倒	-11.3904
巍巍	-11.3905
世所	-11.3905
三世一切	-11.3906
六段	-11.3907
無別體	-11.3908
不可破壞	-11.3909
說法故	-11.3909
容受	-11.391
此總持者	-11.3911
不乖	-11.3911
色蘊	-11.3912
家故	-11.3912
廣大行	-11.3913
乃成	-11.3913
然今	-11.3913
光明王	-11.3915
功勳	-11.3915
若順	-11.392
攝彼	-11.3922
即真如	-11.3923
十善業道	-11.3924
平等迴向	-11.3924
性宗	-11.3926
悉為	-11.3927
善根亦爾	-11.3927
空門	-11.3928
行等	-11.393
說名為	-11.3931
深智	-11.3931
餘教	-11.3934
第四會	-11.3934
金剛山	-11.3935
不遠	-11.3935
中各有	-11.3938
而可	-11.394
題中	-11.394
▁初依教趣求	-11.3941
重請	-11.3944
以法性	-11.3945
釋名分	-11.3946
自位	-11.3953
故結云	-11.3957
猶若	-11.3958
處非處	-11.396
樂受	-11.3962
現果	-11.3963
當於	-11.3965
無礙眼	-11.3966
身行	-11.3966
無有能	-11.3971
不成故	-11.3972
戴	-11.3976
在文	-11.3976
弊	-11.3977
前法	-11.398
光網	-11.398
文顯	-11.3982
瞋心	-11.3982
菩提道	-11.3982
右手	-11.3982
飢渴	-11.3982
恒沙性德	-11.3983
泰	-11.3983
障盡	-11.3983
繼	-11.3984
佗	-11.3985
不常	-11.3986
鬪	-11.3986
樂法	-11.3987
彼時	-11.3988
不可盡故	-11.399
德雲	-11.3992
捺	-11.3992
初牒前	-11.3992
識等	-11.3992
一因	-11.3993
為重	-11.3993
槃	-11.3994
時也	-11.3995
諭	-11.3996
我唯得此	-11.3997
無有退轉	-11.3998
俱行	-11.4002
眾僧	-11.4002
散滅	-11.4003
佛也	-11.4005
所了	-11.4007
今得	-11.4008
不名為	-11.4008
之子	-11.4009
廣大法	-11.4011
感動	-11.4011
一切智人	-11.4013
是為第十	-11.4013
之難	-11.4015
數法	-11.4018
若未	-11.4019
持法	-11.402
善根力故	-11.402
欲入	-11.4022
更無餘	-11.4023
法界藏	-11.4023
如實覺	-11.4024
四河	-11.4024
相宗	-11.4025
能令一切	-11.4032
口加	-11.4032
不肯	-11.4033
大法雨	-11.4034
無盡智	-11.4034
不現前	-11.4035
以喻顯	-11.4039
常等	-11.4039
極微塵數	-11.4039
昔有	-11.4041
)。▲	-11.4043
轉法	-11.4043
演說一切	-11.4044
有一偈	-11.4044
應如是	-11.4045
今是	-11.4045
念智	-11.4046
為無為	-11.4046
如空中	-11.4046
隨緣成	-11.4047
耳鼻	-11.4049
體大	-11.405
有二偈	-11.405
三世法	-11.405
堅實	-11.405
無求	-11.4052
水火	-11.4052
即生	-11.4053
喻明	-11.4058
解知	-11.4059
住壽	-11.4061
即名為	-11.4066
周行	-11.4066
何時	-11.4067
答上	-11.4068
諸餘	-11.4069
無真實	-11.407
修惑	-11.4071
勝進行	-11.4072
當會	-11.4075
無癡亂	-11.4075
悉能示現	-11.4076
能聞	-11.4076
蜂	-11.4076
十方法界	-11.4078
生淨土	-11.4079
汝等應	-11.4081
三根	-11.4082
所生故	-11.4082
普見十方	-11.4083
前中四	-11.4083
入佛法	-11.4084
夭	-11.4084
灾	-11.4084
即性	-11.4085
送	-11.4085
亦未	-11.4085
終成	-11.4087
他化天	-11.4087
一切大願	-11.4088
階降	-11.4088
兼於	-11.4088
普施	-11.4088
滌	-11.4089
射	-11.4089
詔	-11.4089
現佛身	-11.409
一切有為	-11.4091
師長	-11.4091
於中初二	-11.4095
終至	-11.4095
巳入	-11.4095
發心者	-11.4096
謙巳推勝	-11.4096
剛藏	-11.4097
猶豫	-11.4097
不易	-11.4097
無等等	-11.4098
不可知	-11.4098
依善知識	-11.4099
可化眾生	-11.4099
常聞	-11.4101
絕待	-11.4102
說如來	-11.4102
初正	-11.4103
能出生	-11.4105
常勤修習	-11.4106
非世間	-11.4107
外事	-11.4108
三昧境界	-11.4108
是正	-11.4109
無罪	-11.4109
彼如來	-11.411
聞正法	-11.4111
無用	-11.4111
虛空等	-11.4112
不捨離	-11.4112
滅諸	-11.4112
苑	-11.4116
聞名	-11.4117
是為第八	-11.4117
經歷	-11.4117
空定	-11.4118
實非	-11.4118
得究竟	-11.4118
法師位	-11.4119
見一	-11.4119
如說行	-11.4121
勝能	-11.4121
川	-11.4122
五類	-11.4126
普現十方	-11.4127
空性	-11.4127
拔苦	-11.4128
前有	-11.4129
日藏	-11.4129
普雨一切	-11.4129
定起	-11.4129
不能得	-11.4129
能同	-11.413
如涅槃	-11.4131
皆說	-11.4131
三辨	-11.4135
下皆	-11.4135
來求	-11.4136
能加	-11.4136
切音	-11.4136
以嚴	-11.4137
無復	-11.4138
徧往	-11.414
皆可	-11.4141
理觀	-11.4141
明從	-11.4143
所作事	-11.4143
無去	-11.4145
廣大願	-11.4145
有不可說	-11.4148
初有	-11.4149
無有我	-11.415
更互	-11.4153
覺樹	-11.4153
教章	-11.4155
前釋	-11.4157
普覆一切	-11.4157
多法	-11.4157
苦苦	-11.4158
無分	-11.4159
一乘中	-11.4159
餘六	-11.416
無斷絕	-11.4161
中有五	-11.4161
亦三	-11.4161
求佛智	-11.4162
發光	-11.4163
演出	-11.4164
而興	-11.4165
則具	-11.4167
波羅蜜行	-11.4172
今世	-11.4174
所轉	-11.4174
以諸善根	-11.4176
以事	-11.4177
盡未來	-11.4178
智能	-11.4178
攝報	-11.4178
有剎	-11.4179
等虛空	-11.418
真正	-11.418
十解	-11.4181
而說頌曰	-11.4182
無量無數劫	-11.4182
為智	-11.4182
一文	-11.4182
如下說	-11.4183
奢	-11.4185
不顯	-11.4185
先世	-11.4186
本無今有	-11.4187
醍醐	-11.4189
未顯	-11.4189
悕	-11.419
丘	-11.4191
智首	-11.4191
研	-11.4192
故不可	-11.4193
用此	-11.4198
亦同此	-11.4199
無住處	-11.42
)。】	-11.4201
本尊毗盧遮那佛	-11.4201
所演	-11.4202
身語意	-11.4202
不自生	-11.4203
標中	-11.4203
地名	-11.4203
一法界	-11.4204
壯	-11.4204
遮救	-11.4205
智燈	-11.4205
未甞	-11.4205
我不	-11.4208
是為第一	-11.4208
約因	-11.421
所列	-11.421
可爾	-11.421
者由	-11.4211
恭敬禮拜	-11.4211
施物	-11.4213
必得	-11.4213
堪為	-11.4213
新舊	-11.4214
不釋	-11.4215
深厚	-11.4215
=	-11.4215
毀犯	-11.4216
應名	-11.4216
魔事	-11.4217
重罪	-11.4218
第五會	-11.4218
已知	-11.4219
俱通	-11.4221
永出	-11.4222
從事	-11.4223
象馬	-11.4223
學無學	-11.4223
一行經	-11.4226
一剎那中	-11.4227
五事	-11.4229
觸受	-11.423
如火	-11.423
迷理	-11.423
是為第五	-11.423
敗壞	-11.4231
雨法雨	-11.4232
雖現	-11.4232
種種神通	-11.4232
遍知	-11.4232
無癡	-11.4233
怯	-11.4235
攝餘	-11.4239
或依	-11.424
相好莊嚴	-11.424
其中有	-11.4241
無勝	-11.4243
是處	-11.4245
智微細	-11.4248
四緣	-11.4248
不造	-11.4249
後答	-11.4249
真見道	-11.4249
現在諸佛	-11.425
觀世音	-11.425
為妙	-11.4251
義別	-11.4251
南行	-11.4253
皆悉具足	-11.4255
四無所畏	-11.4257
云何知	-11.4257
能求	-11.4257
善淨	-11.4258
千年	-11.4258
不見佛	-11.4261
教主	-11.4261
初說	-11.4264
如意寶	-11.4266
皆在	-11.4266
度脫一切眾生	-11.4266
法化	-11.4266
問其	-11.4267
處者	-11.4268
智寶	-11.4268
爾許	-11.4269
眾生心行	-11.4271
一光	-11.4274
此岸	-11.4275
祐	-11.4277
所嚴	-11.4278
即唯識	-11.4279
依止厭	-11.428
於中初一	-11.4281
十千億	-11.4282
無中邊	-11.4283
佛住	-11.4284
初會中	-11.4287
無有生	-11.4287
合有	-11.4288
即屬	-11.4289
紅	-11.4291
種種色相	-11.4292
成信	-11.4292
復過	-11.4293
下會	-11.4293
成四句	-11.4296
為汝	-11.4296
正心住	-11.4296
苦眾生	-11.4297
祥	-11.4297
迭	-11.4298
初七	-11.4298
三種世間	-11.4299
大悲故	-11.4299
微塵中	-11.4299
身遍	-11.4299
無始無終	-11.43
善光	-11.4301
只為	-11.4302
阿那含	-11.4302
證涅槃	-11.4302
光照十方	-11.4303
於中現	-11.4303
五分法身	-11.4303
未嘗	-11.4304
雜穢	-11.4305
愚夫	-11.4305
於意云何	-11.4309
翻譯	-11.4309
不由他教	-11.431
永不退轉	-11.4311
放眉間光	-11.4311
十信心	-11.4311
清涼山大華嚴寺沙門澄觀	-11.4312
終無有	-11.4314
不唐捐	-11.4314
依人	-11.4315
初時	-11.4316
來至此	-11.4319
準思	-11.4321
一切大眾	-11.4322
▁初依	-11.4323
云我	-11.4324
得其	-11.4324
入一切智	-11.4326
遍故	-11.4326
可貴	-11.4327
常現在前	-11.4328
生成	-11.4328
揀定	-11.433
一剎那際	-11.4332
管	-11.4334
智幻	-11.4335
一多無礙	-11.4336
勤修習	-11.4337
初句為總	-11.4337
不懈	-11.434
序云	-11.4341
相似故	-11.4341
以根本智	-11.4341
凡是	-11.4343
巳知	-11.4344
行道	-11.4345
見佛身	-11.4349
所解	-11.4349
宮中	-11.435
是為第四	-11.435
於外	-11.4352
十中初	-11.4352
竝是	-11.4352
有三重	-11.4353
此難	-11.4353
六明	-11.4353
業自在	-11.4354
應生	-11.4354
智藏	-11.4355
而轉法輪	-11.4356
會者	-11.4357
齊限	-11.4358
經宗	-11.436
此大	-11.4361
則同	-11.4361
四名	-11.4364
化者	-11.4366
明有	-11.4367
稱曰	-11.4367
發於	-11.4368
請中	-11.4368
以為供養	-11.4369
小大	-11.4369
親光	-11.437
如天	-11.437
初段	-11.4371
宗者	-11.4372
今時	-11.4375
權教菩薩	-11.4376
淨月	-11.4376
喻云	-11.4377
色無色界	-11.4382
十種智	-11.4382
苦海	-11.4382
今將	-11.4383
遷流	-11.4383
攝報果	-11.4386
四眾	-11.4387
能如是	-11.4387
多是	-11.4388
我於彼	-11.4391
覺性	-11.4391
見巳	-11.4394
依經	-11.4394
於一切世間	-11.4395
神通智	-11.4395
無惡	-11.4396
生大	-11.4396
何由	-11.4397
苦因	-11.4398
相與	-11.44
眾妙寶	-11.44
治地住	-11.44
文可知	-11.4402
五即	-11.4402
能徧	-11.4402
非別	-11.4403
如來家	-11.4404
故今答云	-11.4405
成也	-11.4406
菩薩摩訶薩應如是知	-11.4407
預流	-11.4407
嘉	-11.4408
困	-11.441
黑暗	-11.441
行斯道	-11.441
之器	-11.4411
即體之用	-11.4411
貪恚癡	-11.4411
不生故	-11.4411
八地巳上	-11.4412
無有斷絕	-11.4412
所迴善根	-11.4413
上文云	-11.4413
慈行童女	-11.4413
明矣	-11.4414
諸吉祥中最無上	-11.4415
大文第	-11.4415
是三乘	-11.4416
▁二見敬諮問	-11.4417
阿彌陀佛	-11.4417
所得法	-11.4417
有愛	-11.4417
十力智	-11.442
嶮	-11.4421
之解	-11.4421
至彼	-11.4421
能滿	-11.4421
菩薩云何學菩薩行	-11.4421
華藏世界海	-11.4422
為苦	-11.4422
總無	-11.4423
不等	-11.4423
深密經	-11.4424
有種種	-11.4424
此觀	-11.4425
如瑜伽	-11.4425
法印	-11.4425
空不空	-11.4425
答若	-11.4425
諸天眾	-11.4428
無一	-11.4432
禪體	-11.4434
第二義	-11.4434
我從	-11.4435
妙用自在	-11.4435
是為第九	-11.4436
所行無礙	-11.4438
則唯	-11.4439
必依	-11.444
有幾	-11.444
能施	-11.4441
是凡夫	-11.4441
以神通力	-11.4442
相稱	-11.4443
通喻	-11.4443
為三乘	-11.4444
不壞迴向	-11.4444
總持門	-11.4445
奉施	-11.4445
如來往昔	-11.4445
六十二見	-11.4445
覆藏	-11.4447
能容	-11.4447
既以	-11.445
道地	-11.445
不捨一切眾生	-11.4451
所來	-11.4451
光明遍照	-11.4453
龍神	-11.4455
佛性論	-11.4455
之失	-11.4456
表行	-11.4457
涅槃者	-11.4457
不疑	-11.4459
即法身	-11.4459
初列	-11.446
多時	-11.446
或號	-11.4461
歎勝	-11.4461
有頂	-11.4462
流故	-11.4464
佛法故	-11.4464
聞此法	-11.4464
即應	-11.4465
白毫	-11.4466
無戲論	-11.4468
如文可知	-11.4468
契真	-11.4469
妨難	-11.4469
金剛寶	-11.447
空華	-11.4471
寶洲	-11.4473
說一乘	-11.4475
我常	-11.4476
大智光明	-11.4476
一切佛事	-11.4477
說教	-11.4477
謂信	-11.4479
無分齊	-11.448
說三世	-11.4481
形類	-11.4482
佛光	-11.4482
唯此	-11.4483
圓極	-11.4483
是為第三	-11.4484
七門	-11.4485
菩薩神通	-11.4486
中千	-11.4486
慈悲心	-11.4487
令一切	-11.4489
或有世界	-11.449
科判	-11.4491
▁初辨	-11.4491
不可分	-11.4492
罪報	-11.4493
光明徧照	-11.4495
天魔	-11.4497
是方便	-11.4497
先別明	-11.4498
我有	-11.4499
諸佛海	-11.4502
德雲比丘	-11.4503
貫穿	-11.4503
圓寂	-11.4503
工	-11.4503
低	-11.4504
蹔	-11.4508
純陀	-11.451
▁二頌	-11.451
史	-11.451
暎	-11.4511
即合	-11.4511
忠	-11.4512
令除	-11.4513
善攝	-11.4513
義釋	-11.4515
難陀	-11.4515
阿閦	-11.4516
髓	-11.4517
舒光	-11.4517
善男子譬如	-11.4517
隨文解釋	-11.4518
不即不離	-11.452
五眼	-11.4522
無滯	-11.4523
周匝圍遶	-11.4523
鐵圍山	-11.4524
盡法界虗空界	-11.4526
普為眾生	-11.4527
願身	-11.453
伽陀	-11.4532
等虗空	-11.4532
摩羅	-11.4534
因事	-11.4535
巳有	-11.4536
百千萬億那由他	-11.4536
輪圍	-11.4536
小劫	-11.4537
雖能	-11.4537
平等無二	-11.4537
同修	-11.454
力者	-11.454
如法華經	-11.4541
第三門	-11.4542
隨順眾生	-11.4543
功成	-11.4543
然皆	-11.4543
立義	-11.4544
即空故	-11.4545
不退住	-11.4546
因生	-11.4546
是為第七	-11.4546
雙絕	-11.4547
悉平等	-11.4547
佛所說法	-11.4548
而此	-11.4549
謂上	-11.4549
有二十句	-11.455
無所入	-11.4551
......。	-11.4552
反上	-11.4553
證法界	-11.4553
緣成故	-11.4555
雜色	-11.4556
雙標	-11.4557
超絕	-11.4558
真佛	-11.4559
孤獨	-11.4561
十方菩薩	-11.4561
題目	-11.4562
此菩	-11.4563
業因	-11.4563
得度	-11.4563
智慧自在	-11.4566
成就清淨	-11.4566
不往	-11.4567
如王	-11.4567
彼諸佛	-11.4567
世界微塵等	-11.4567
以此為	-11.4568
有多義	-11.4569
見於	-11.457
處來	-11.457
觀自在	-11.4571
所成德	-11.4571
得彼	-11.4571
下疏	-11.4571
明珠	-11.4572
行因	-11.4573
因善知識	-11.4574
四品	-11.4574
施戒	-11.4577
入火	-11.4578
心變	-11.4578
有劫名	-11.4579
無盡法	-11.4579
是為十若諸菩薩安住此法則得	-11.4581
終始	-11.4582
以本	-11.4584
十二年	-11.4584
推德昇進	-11.4585
門外	-11.4586
若作	-11.4586
已具	-11.4586
【△	-11.4588
境中	-11.4588
惡見	-11.4588
宮殿中	-11.4591
眾聖	-11.4591
常光	-11.4592
欲聞	-11.4594
三舉	-11.4595
正同	-11.4595
不覩	-11.4596
▁初結前生後	-11.4596
身即	-11.4596
者經云	-11.4597
【【	-11.4597
一切眾生心行	-11.4601
及所	-11.4601
相現	-11.4602
有二種一	-11.4602
色法	-11.4603
章云	-11.4603
善安住	-11.4604
唯以	-11.4605
是為如來	-11.4606
充滿一切法界	-11.4608
第三云	-11.4609
復作	-11.461
循	-11.461
賣	-11.4612
諸禪	-11.4613
爭	-11.4614
栴檀香	-11.4614
而其	-11.4616
擾	-11.4616
因緣集	-11.4616
後段	-11.4618
足行神	-11.4619
後善男子	-11.4621
互為主伴	-11.4621
脩多羅	-11.4621
普放	-11.4622
大緣起	-11.4622
)「	-11.4622
辭退	-11.4624
弓	-11.4625
所生處	-11.4625
三途	-11.4625
斯義	-11.4625
入大	-11.4626
不安	-11.4628
攝德	-11.4628
中攝	-11.463
半明	-11.463
十方眾生	-11.463
大乘者	-11.463
勸說	-11.4631
可畏	-11.4631
先說	-11.4631
並通	-11.4633
平等智	-11.4634
現影	-11.4636
合說	-11.4637
形體	-11.4638
若諸菩薩安住其中	-11.4638
護持正法	-11.4638
初牒	-11.4639
主地神	-11.4639
深也	-11.464
化之	-11.4641
一切色	-11.4641
出世間智	-11.4644
除諸	-11.4644
最勝法	-11.4644
!」	-11.4644
登地	-11.4645
聲聞法	-11.4646
種種眾生	-11.4647
出興于世	-11.4648
還生	-11.4648
一切諸菩薩	-11.465
我得	-11.465
無倦	-11.465
是故名為	-11.4651
大身	-11.4653
令行	-11.4654
二藏	-11.4655
之形	-11.4656
無礙法界	-11.4657
四句者	-11.4658
勸學	-11.4658
周遍法界	-11.4658
因果俱	-11.4659
種種妙	-11.4659
大乘中	-11.4662
淨者	-11.4662
世間故	-11.4662
不用	-11.4663
於中五	-11.4668
或言	-11.4668
此同	-11.4668
餘法	-11.467
如是等無量	-11.4671
真如門	-11.4672
等虛空界	-11.4672
法之	-11.4673
但用	-11.4675
下化	-11.4676
無數香	-11.4676
遍在	-11.4679
處在	-11.4679
無疲厭心	-11.468
成就佛法	-11.468
七頌	-11.4681
二別釋	-11.4681
內淨	-11.4682
▁初別明	-11.4683
發心住	-11.4683
親屬	-11.4685
聖言	-11.4685
婦	-11.4686
經等	-11.4686
妙高	-11.4687
▁初釋名	-11.4688
其處	-11.4688
廣也	-11.4689
實理	-11.469
疲	-11.469
等義	-11.4691
謂雖	-11.4691
偈說	-11.4692
即用	-11.4693
若入	-11.4696
稱量	-11.4699
果智	-11.4706
本業經	-11.4707
未斷	-11.4707
說種種法	-11.4708
悉共	-11.4708
句中	-11.4708
離世	-11.4709
之辭	-11.4711
總在	-11.4711
因緣者	-11.4712
愛等	-11.4712
二示	-11.4713
徧故	-11.4714
遍往	-11.4716
覺慧	-11.4717
列十	-11.4719
堅住	-11.472
隅	-11.4722
楞伽經	-11.4723
括	-11.4723
迫	-11.4723
藏教	-11.4725
義成	-11.4726
眾生有	-11.4727
豈能	-11.4728
隆	-11.4728
人皆	-11.4729
主稼神	-11.4729
無來無去	-11.4731
乃見	-11.4731
香王	-11.4731
不開	-11.4733
刑	-11.4736
常懷	-11.4736
曇	-11.4737
仗	-11.4737
初來意者	-11.4737
斷也	-11.4739
共同	-11.4739
不泯	-11.474
還歸	-11.474
之頂	-11.4741
亦復無	-11.4742
所成行	-11.4743
舉法	-11.4744
之一字	-11.4745
香𦦨	-11.4746
雖得	-11.4746
本文	-11.4747
當知此	-11.4748
出現於世	-11.4749
苦滅	-11.4749
今從	-11.475
正云	-11.475
聲聞眾	-11.475
硨磲	-11.475
難也	-11.4754
戒行	-11.4754
行六波羅蜜	-11.4754
無量佛剎	-11.4755
入巳	-11.4756
證實	-11.4757
下列	-11.476
見自身	-11.4762
入一切佛	-11.4763
佛神通	-11.4767
普賢文殊	-11.4767
示法	-11.4768
就人	-11.4768
此願	-11.477
品說	-11.4771
是三昧	-11.4771
是名菩薩	-11.4772
密意	-11.4774
如來清淨	-11.4776
常恒	-11.4776
佛剎微塵等	-11.4777
準知	-11.4777
菩薩摩訶薩又作是念	-11.4778
生死中	-11.4781
了了	-11.4781
四念	-11.4783
慧日	-11.4783
大相	-11.4783
所目	-11.4783
於一微塵中	-11.4783
皆稱	-11.4783
益故	-11.4784
大段	-11.4785
於一切剎	-11.4787
菩薩住處	-11.4788
一願	-11.4788
文有五	-11.479
不喜	-11.479
名句文	-11.4793
不斷佛種	-11.4795
中道義	-11.4795
垢穢	-11.4795
故彼經云	-11.4796
一曰	-11.4797
無煩惱	-11.4798
無餘涅槃	-11.4799
王者	-11.48
空無我	-11.4801
解脫法門	-11.4802
皆共	-11.4802
四結數	-11.4803
大文第三	-11.4803
明信	-11.4804
疏鈔	-11.4805
近善知識	-11.4806
佛塔	-11.4807
菩薩成就如是	-11.4807
天帝	-11.4809
乃至第十	-11.4809
自高	-11.4811
為一切眾生作	-11.4812
即一切	-11.4813
化處	-11.4814
受戒	-11.4815
巧便	-11.4815
不定性	-11.4815
法如是	-11.4815
干	-11.4816
熏修	-11.4817
佛界	-11.482
一代	-11.4822
惡眾生	-11.4824
羅網	-11.4826
無忘失	-11.4826
情識	-11.4827
糞	-11.4827
器中	-11.4828
嘗	-11.4829
諸法空	-11.4829
句數	-11.4831
泛	-11.4832
轉生	-11.4832
應修	-11.4834
分為十	-11.4834
承佛威神	-11.4835
位果	-11.4835
第二重	-11.4835
正釋經文	-11.4837
深解	-11.4838
盖	-11.4838
弗	-11.484
無功智	-11.4841
教網	-11.4842
於事	-11.4842
阿蘭若	-11.4842
恥	-11.4843
匿	-11.4843
以示	-11.4844
三乘同	-11.4844
冲	-11.4844
甚可愛樂	-11.4845
即其義也	-11.4846
二聖	-11.4847
景	-11.4848
無疑惑	-11.4849
能過	-11.4849
波羅	-11.485
主晝神	-11.485
▁二通	-11.485
重頌分	-11.4853
客塵	-11.4855
各見	-11.4856
肢節	-11.4857
二觀	-11.4858
二利行	-11.4859
之中有	-11.4862
所辨	-11.4863
令觀	-11.4869
恒河沙等	-11.4869
菩提故	-11.4869
規	-11.487
興供養	-11.4871
二佛子下	-11.4872
詣佛	-11.4874
天宮殿	-11.4875
曼殊尸利	-11.4875
漏無漏	-11.4879
行淨	-11.4881
變為	-11.4882
結彈	-11.4883
塵毛	-11.4884
次別	-11.4884
眾會說法	-11.4885
▁初頌	-11.4885
重疊	-11.4886
通則	-11.4886
晉本	-11.4887
往復	-11.4889
智中	-11.4892
道也	-11.4892
習行	-11.4896
此非	-11.4897
威神力故	-11.4899
散動	-11.49
亦乃	-11.49
求正法	-11.4902
則可	-11.4903
消除	-11.4903
相續次第	-11.4903
巳具	-11.4903
大誓願	-11.4903
今乃	-11.4904
不同也	-11.4905
若能如是	-11.4906
其聲	-11.4906
初總舉	-11.4907
句句	-11.4911
須彌山微塵數	-11.4912
翻前	-11.4912
供養恭敬	-11.4913
不測	-11.4915
說因	-11.4915
各各不同	-11.4917
𦦨雲	-11.492
普賢願	-11.492
無二相	-11.4923
通一切	-11.4923
不懼	-11.4923
使得	-11.4928
菩薩大眾	-11.4928
寶積	-11.4929
業相	-11.493
寶鈴	-11.4937
觀彼	-11.4938
受其	-11.4938
身分	-11.4939
持業	-11.4941
無盡法門	-11.4942
▁南無大方廣佛華嚴經	-11.4943
伺	-11.4944
於諸境界	-11.4945
菩薩力	-11.4945
皎	-11.4945
相好莊嚴身	-11.4946
伽羅	-11.4948
並顯可知	-11.4949
莊嚴世界	-11.4949
為諸菩薩	-11.4949
五受	-11.495
禮佛	-11.4952
者論云	-11.4952
深行	-11.4953
得有	-11.4953
二萬一千	-11.4954
佛寶	-11.4955
駕	-11.4955
見諸如來	-11.4956
四魔	-11.4957
歎眾	-11.4957
怨親	-11.4957
有國土	-11.4958
毀謗	-11.4958
八方	-11.4958
或稱	-11.4959
釋其	-11.496
聖位	-11.4961
百福	-11.4961
經卷	-11.4961
撫	-11.4962
而不失	-11.4963
諸處	-11.4963
出生智慧	-11.4965
悉周徧	-11.4965
日照	-11.4965
無定性	-11.4965
例此	-11.4967
定門	-11.4967
攝十	-11.4967
淨修梵行	-11.4968
人空	-11.4968
所化眾生	-11.4968
疲懈	-11.497
而說偈言	-11.4971
歡悅	-11.4972
經明	-11.4972
佛功德海	-11.4976
一切智海	-11.4976
只是	-11.4976
不還	-11.4977
具五	-11.4978
得見佛	-11.4978
根深	-11.4979
種植	-11.4979
菩薩位	-11.4981
雙遮	-11.4981
寂然不動	-11.4982
空慧	-11.4983
微妙音聲	-11.4983
皆不可得	-11.4984
毗盧遮那佛	-11.4984
一一微塵中	-11.4985
正為	-11.4987
無分量	-11.4987
外別有	-11.4988
文雖	-11.4989
器盛	-11.499
有五行半經	-11.4992
加故	-11.4993
勝上	-11.4996
於中三初	-11.4996
三節	-11.4997
閻羅王	-11.4999
此語	-11.4999
又經云	-11.5001
下八	-11.5003
寶所成	-11.5003
有處	-11.5005
稱根	-11.5006
能觀察	-11.5006
別開	-11.5007
兩門	-11.5009
中明	-11.5011
惱亂	-11.5011
而起大悲	-11.5012
四無量心	-11.5012
此類	-11.5013
不思議故	-11.5014
非時	-11.5014
現多	-11.5017
非世	-11.5019
至于	-11.502
並同	-11.502
無邊色相	-11.502
以證	-11.5021
後人	-11.5023
權智	-11.5024
普化	-11.5024
而不能	-11.5026
可盡	-11.5026
涉有	-11.5026
大體	-11.5028
一切法平等	-11.5029
怯弱	-11.503
無量壽	-11.503
該通	-11.5031
普賢等	-11.5032
次八	-11.5033
天主	-11.5035
能修	-11.5035
四辨	-11.5035
依定	-11.5035
此比丘尼為說法門名	-11.5036
執為	-11.5038
礙故	-11.5039
第三段	-11.5039
亦隨	-11.504
作如是說	-11.504
俱來	-11.504
為涅槃	-11.5041
智現	-11.5042
無信	-11.5043
第十五	-11.5043
眾生根	-11.5045
心無障礙	-11.5045
互嚴	-11.5048
相遍	-11.5051
劒	-11.5053
嚴淨佛剎	-11.5053
佛種不斷	-11.5055
名號品	-11.5056
標云	-11.5057
跋	-11.506
鄙	-11.506
頸	-11.506
以從	-11.5062
於何	-11.5062
一切所作	-11.5063
大方廣佛華嚴經疏鈔會本第	-11.5063
五十二	-11.5064
帖前	-11.5064
下䟽	-11.5064
六字	-11.5065
有八種	-11.5068
者是其	-11.5068
荷負	-11.5068
根未熟	-11.5069
智淨	-11.507
文分	-11.5071
得之	-11.5072
可愍	-11.5072
一顯	-11.5074
圓融具德	-11.5075
能出	-11.5075
豪	-11.5076
所愛	-11.5077
不住道行勝	-11.5077
德圓	-11.5077
無量眾	-11.5077
白銀	-11.5078
假使有人	-11.5078
水月	-11.5079
苦事	-11.5079
不動優婆夷	-11.508
修行勝	-11.5081
紫	-11.5082
儒道	-11.5084
一部經	-11.5085
尸波羅蜜	-11.5088
獨覺乘	-11.5088
但可	-11.5088
分限	-11.5089
妙眼	-11.5091
應發如	-11.5092
圓光	-11.5092
求解脫	-11.5094
實諦	-11.5095
十二分教	-11.5097
眾惡	-11.5098
惑亂	-11.5101
外相	-11.5102
▁五指示後友	-11.5105
道樹	-11.5106
說儀	-11.5106
所知境	-11.5106
具斯	-11.5107
印印	-11.5107
至佛所	-11.5109
▁二徵釋	-11.5111
如是展轉	-11.5111
之經	-11.5111
十號	-11.5112
經初	-11.5112
幻法	-11.5114
推功	-11.5117
諸法故	-11.5118
成敗	-11.5118
約果	-11.5119
一切諸佛所	-11.5124
於東方	-11.5125
別境	-11.5126
五十四	-11.5126
此問	-11.5127
無瞋	-11.5128
見眾生	-11.5129
若法	-11.5131
妙衣	-11.5132
從喻	-11.5134
於生死中	-11.5136
▁四釋文	-11.5137
法界海	-11.5137
阿耨菩提	-11.5138
四釋	-11.514
利益故	-11.514
當時	-11.5142
意根	-11.5143
菩薩善根	-11.5143
處胎	-11.5144
四十四	-11.5144
具釋	-11.5147
惡知識	-11.5147
諸障	-11.5147
心不亂	-11.5148
以十種	-11.5149
集者	-11.5149
又明	-11.515
令得解脫	-11.515
第六識	-11.5151
▁二正釋	-11.5152
聖凡	-11.5153
一問	-11.5154
調柔果	-11.5154
道場一切海眾	-11.5154
四會	-11.5158
如影像	-11.5159
或復見為	-11.5159
依義	-11.516
定名	-11.516
報果	-11.516
淳	-11.516
世界差別	-11.5161
明觀	-11.5163
所悟	-11.5163
除障	-11.5164
普照三世	-11.5164
不壞相故	-11.5166
擇滅	-11.5166
遙見	-11.5168
謂從	-11.5169
掩	-11.5169
問意	-11.517
有四十	-11.517
厄	-11.5171
無量光	-11.5172
離我我所	-11.5172
作諸	-11.5172
在虛空	-11.5174
高大	-11.5174
此四天下	-11.5175
其首	-11.5176
種種法門	-11.5176
斯乃	-11.5177
欲生	-11.5178
以一音	-11.5178
肘	-11.5178
亦空	-11.5178
唐三藏	-11.5179
與識	-11.5179
亦二義	-11.5181
精氣	-11.5182
虧盈	-11.5183
如是等而為上首其數無量	-11.5183
2	-11.5183
喻前	-11.5184
某甲	-11.5185
普至	-11.5186
此能	-11.5186
選擇	-11.5187
政	-11.5187
見無量佛	-11.5188
說空	-11.5188
各說	-11.519
梵本中	-11.5191
有智	-11.5193
文殊師利童子	-11.5193
兼明	-11.5193
不真	-11.5193
如經云	-11.5193
迷於	-11.5194
淨分	-11.5194
成就無量	-11.5195
語言法	-11.5196
當有	-11.5196
歎其	-11.5196
統收	-11.5196
眾香	-11.5198
無所罣礙	-11.5199
供給	-11.52
此師	-11.52
超諸世間	-11.52
盡虗空界	-11.5201
皆如是	-11.5202
往詣道場	-11.5203
親友	-11.5203
世界海中	-11.5204
傾動	-11.5204
無縛	-11.5204
二通	-11.5207
離心	-11.5209
故涅槃云	-11.521
信自心	-11.5211
愛取有	-11.5211
坐於	-11.5211
謂見	-11.5213
志性	-11.5214
至極	-11.5215
淨德	-11.5215
坐禪	-11.5215
行時	-11.5219
八禪	-11.5219
是菩提	-11.5219
異解	-11.522
極果	-11.5221
常作	-11.5222
斯由	-11.5227
十地經	-11.5227
表此	-11.5229
眾數	-11.523
臥具	-11.523
三合	-11.5231
為初	-11.5231
百法	-11.5233
三由	-11.5234
功行	-11.5234
如須彌	-11.5237
互參	-11.5237
天衣	-11.5239
意言	-11.5239
蓮華光	-11.524
十度行	-11.524
令增長	-11.5242
解法	-11.5245
無德	-11.5246
生死流	-11.5246
遞相	-11.5248
深定	-11.5249
遍應	-11.5252
亦無盡	-11.5253
眾生數	-11.5253
昔因	-11.5255
兩段	-11.5259
唯屬	-11.526
大也	-11.526
入於涅槃	-11.5261
違理	-11.5263
智證	-11.5264
四卷	-11.5268
治障	-11.5273
有二頌	-11.5274
邪因	-11.5275
性起品	-11.5276
更加	-11.5277
所共	-11.5277
至一切處迴向	-11.5277
無所有處	-11.5277
此據	-11.5278
表十地	-11.528
等類	-11.528
覓	-11.5283
此後	-11.5283
列其名	-11.5283
人見	-11.5284
掉	-11.5285
深理	-11.5286
無怯	-11.5287
充滿虛空	-11.529
甚深三昧	-11.5291
伎	-11.5291
故淨名云	-11.5292
席	-11.5293
章曰	-11.5293
徃詣	-11.5293
煥	-11.5293
日光明	-11.5294
轍	-11.5294
生家	-11.5295
捉	-11.5295
辰	-11.5295
旨趣	-11.5296
交參	-11.5296
竹	-11.5297
普入法界	-11.5299
檢	-11.5301
說法時	-11.5301
名不思議	-11.5302
敬重	-11.5303
灑	-11.5304
昭然	-11.5304
樣	-11.5304
諸三昧門	-11.5306
其中所有	-11.5306
如文具明	-11.5308
受持讀誦	-11.5308
無上大	-11.5309
重法	-11.5309
豈異人乎	-11.5309
勝也	-11.5309
通攝	-11.531
知眾生心	-11.5311
空無相	-11.5312
告諸菩薩言	-11.5312
法會	-11.5313
與之	-11.5314
不但	-11.5314
發如是心	-11.5314
汝詣彼問	-11.5314
現神變	-11.5316
眾藝	-11.5316
之源	-11.5317
紺青	-11.5317
二十種	-11.5318
鬘雲	-11.5318
在佛	-11.532
鎧	-11.5322
其國	-11.5322
具足圓滿	-11.5323
捨諸	-11.5324
碼碯	-11.5324
病苦	-11.5326
亦令他	-11.5327
▁三總結	-11.5327
智生	-11.5327
諸菩薩摩訶薩應如是知	-11.5328
滅苦	-11.5334
思益	-11.5334
此復	-11.5334
露地	-11.5334
偏多	-11.5335
故疏云	-11.5335
耳識	-11.5336
三爾時	-11.5338
釋相	-11.5338
城東	-11.5338
相傳	-11.534
豈是	-11.5342
前則	-11.5344
諸供養具	-11.5344
三科	-11.5346
樂具	-11.5346
心王菩薩	-11.5347
二類	-11.5354
自宗	-11.5354
上辨	-11.5354
等是也	-11.5356
方便三昧	-11.5357
此唯	-11.5358
並在	-11.536
如幻化	-11.5362
為第一	-11.5362
此二無礙	-11.5363
之能	-11.5364
丈	-11.5365
平等因果	-11.5365
若更	-11.5366
我於爾時	-11.5368
能摧	-11.5368
教起	-11.5369
如是智慧	-11.537
六決定	-11.5372
諸佛正法	-11.5372
夜摩天王	-11.5374
出生菩薩	-11.5375
由無	-11.5376
令喜	-11.5377
成唯識	-11.5377
十方剎	-11.5378
掉舉	-11.5378
文相	-11.5378
隨諸眾生心	-11.5378
不活	-11.5384
如智	-11.5385
有兩重	-11.5385
之問	-11.5388
疑悔	-11.5388
性常	-11.5388
金光明	-11.5389
偈意	-11.5389
解深密經	-11.5393
海幢	-11.5394
無聲	-11.5395
敬心	-11.5396
卷第五	-11.5397
緩	-11.5398
風吹	-11.5399
次二約	-11.5402
蒲	-11.5403
而示	-11.5403
喜悅	-11.5403
念者	-11.5405
起智	-11.5405
罔	-11.5407
不同者	-11.5407
諸物	-11.5407
勝前	-11.5408
丑	-11.5409
非他	-11.5409
正命	-11.5411
渠	-11.5412
摽	-11.5412
府	-11.5412
空處	-11.5412
封	-11.5412
僕	-11.5413
悉能受持	-11.5415
一切諸菩薩行	-11.5416
所請	-11.5419
一日一夜	-11.542
非小	-11.542
於汝意云何	-11.5421
論之	-11.5422
縷	-11.5422
佛子住於此	-11.5423
依體起用	-11.5423
有七行經	-11.5427
今由	-11.5427
德備	-11.5428
技藝	-11.5429
末會	-11.543
橫竪	-11.5431
還源	-11.5431
修行故	-11.5431
類例	-11.5432
資生之具	-11.5433
商人	-11.5434
海雲比丘	-11.5434
下疏釋	-11.5437
稱之為	-11.5441
非約	-11.5442
及三乘	-11.5443
虧	-11.5444
寶色	-11.5445
一總標	-11.5446
皆因	-11.5447
可謂	-11.5448
重故	-11.5448
見佛性	-11.545
悉以迴向	-11.545
魔軍	-11.5452
初成正覺	-11.5453
演說諸法	-11.5454
未久	-11.5456
報業	-11.5458
往因	-11.5458
身起	-11.5459
如來自在	-11.546
決定信	-11.546
無分限	-11.546
未作	-11.5462
如十地	-11.5463
緣性	-11.5466
要由	-11.5467
燭	-11.5468
非究竟	-11.5468
不共佛法	-11.5469
正慧	-11.547
義含	-11.547
而為眷屬	-11.547
等耶	-11.547
不惱	-11.5471
求之	-11.5472
有二義故	-11.5474
增故	-11.5475
欲悉知	-11.5475
以定	-11.5476
後品	-11.5476
徧行	-11.5477
文分二	-11.5477
如因陀羅網	-11.5478
如云	-11.5479
起諸	-11.5479
得不壞信	-11.5481
一切眾會	-11.5482
意謂	-11.5483
為菩薩時	-11.5484
俱名	-11.5485
無處	-11.5486
文有十	-11.5487
不濁	-11.5488
相參	-11.5489
翻為	-11.5489
大文第二	-11.5489
餘者	-11.549
世界性	-11.549
如來自在力	-11.5492
雨百萬億天	-11.5494
得此三昧	-11.5497
義謂	-11.5497
聲聞藏	-11.5497
濟度	-11.5498
前是	-11.5499
見諦	-11.5501
世樂	-11.5502
歷位	-11.5503
勝藏	-11.5504
塵塵	-11.5504
十方諸國土	-11.5505
乃至涅槃	-11.5506
略有三義	-11.5508
其城	-11.5508
文殊師利菩薩摩訶薩	-11.551
悉充滿	-11.5511
明於	-11.5511
來眾	-11.5513
正立	-11.5513
盡滅	-11.5513
有見	-11.5514
開出	-11.5514
入般涅槃	-11.5514
神天	-11.5516
後二頌	-11.5517
必具	-11.5522
立稱	-11.5523
行行	-11.5524
修相	-11.5524
明處	-11.5524
配屬	-11.5525
▁三顯	-11.5527
甚多	-11.5529
被甲	-11.5529
示相	-11.5529
身長	-11.553
遠離諸	-11.553
以手	-11.5531
之法門	-11.5533
問明	-11.5534
畢竟無	-11.5534
從空	-11.5534
空無所有	-11.5535
陁	-11.5535
菩薩大願	-11.5535
以淨	-11.5535
諸含識	-11.5535
助伴	-11.5535
袈裟	-11.5535
至心歸命禮	-11.5536
名為佛	-11.5536
多明	-11.5537
宣暢	-11.5537
斯陀含	-11.5537
嗟	-11.5539
竊	-11.5539
空無相無願	-11.5541
答彼	-11.5541
外化	-11.5543
是菩薩生處	-11.5543
存亡	-11.5544
但釋	-11.5544
炳然	-11.5545
眾法	-11.5546
施主	-11.5546
色性	-11.5548
至究竟	-11.555
十頌分二	-11.555
目首	-11.5551
入三世	-11.5551
脫門	-11.5551
?』	-11.5552
益相	-11.5552
有對	-11.5553
乳母	-11.5554
得此法門	-11.5557
字義	-11.5557
五濁	-11.5558
墮在	-11.5561
應非	-11.5562
梵志	-11.5563
隨好品	-11.5563
大丈夫	-11.5564
車乘	-11.5564
念念相續	-11.5565
而演說法	-11.5565
故生歡喜	-11.5566
故復	-11.5567
廣大佛事	-11.5569
異見	-11.5569
安隱處	-11.557
為眷屬	-11.557
諸佛法如是	-11.5571
最尊	-11.5572
體即是	-11.5573
是誰	-11.5573
即寂	-11.5573
一切眾生海	-11.5577
財首	-11.5577
一切魔	-11.5579
生厭離	-11.5579
拔出	-11.5579
能解	-11.558
攝盡	-11.558
令起	-11.5581
見正報	-11.5581
譬如金剛	-11.5582
互入	-11.5582
名普照	-11.5584
於大乘	-11.5586
枝葉	-11.5587
本寂	-11.5588
因何	-11.5589
說耶	-11.5591
為師	-11.5592
智慧燈	-11.5593
微密	-11.5596
通難	-11.5596
䟽云	-11.5596
牒上	-11.5596
時非時	-11.5597
汝應觀	-11.56
由佛	-11.5602
能招	-11.5602
因性	-11.5602
一觀	-11.5605
一年	-11.5605
老病死	-11.5607
縱廣	-11.5609
為菩提	-11.561
譯者	-11.561
諮	-11.5613
一由旬	-11.5613
脩習	-11.5614
共相應	-11.5614
唯局	-11.5616
各二	-11.5619
為王	-11.5619
隨諸	-11.5621
本身	-11.5621
三昧自在	-11.5622
益中	-11.5622
正修行	-11.5623
二支	-11.5625
辨異	-11.5625
應用	-11.5625
後十句	-11.5628
惡友	-11.5628
本非	-11.5628
▁初見	-11.5628
悉已	-11.5629
皆生歡喜	-11.5631
以菩提心	-11.5631
了諸法	-11.5631
普令眾生	-11.5634
一切智慧	-11.5634
來乞	-11.5634
初佛	-11.5635
種種解	-11.5635
圓教中	-11.5636
四結勸	-11.5637
▁三約	-11.5639
中品	-11.5639
故云一切	-11.5639
諸禪定	-11.5641
前二句	-11.5642
散壞	-11.5642
隨化	-11.5643
故云平等	-11.5644
一切塵中	-11.5644
見普賢菩薩	-11.5644
為了	-11.5645
行緣	-11.5646
丹	-11.5647
併	-11.5648
仰推	-11.565
王之	-11.565
汝於	-11.5651
乃至十地	-11.5651
隨願	-11.5652
出一切佛剎微塵數	-11.5652
前人	-11.5653
緒	-11.5653
氷	-11.5653
於一世界	-11.5654
脣	-11.5655
涅槃界	-11.5655
施為	-11.5655
是為第二	-11.5656
寶住	-11.5656
擔	-11.5656
同一緣起	-11.5656
諸法自性	-11.5657
四攝法	-11.5657
下別辨	-11.5657
妙觀察智	-11.5657
結會古今	-11.5658
將釋此品	-11.5658
曩	-11.5658
何事	-11.5658
洽	-11.566
所離障	-11.566
種種法	-11.5661
頂禮佛足	-11.5662
頓斷	-11.5664
元氣	-11.5664
鄰	-11.5664
二知	-11.5666
近佛	-11.5666
爾時佛神力故	-11.5668
縣	-11.5669
諍訟	-11.567
為體故	-11.5673
還復	-11.5674
施等	-11.5675
覆蔭	-11.5676
此解脫者猶如	-11.5676
正示法界	-11.5677
空相	-11.5678
以性	-11.568
忍受	-11.5681
梁攝論云	-11.5681
黃色	-11.5682
相有	-11.5682
不可稱量	-11.5682
解心	-11.5683
依如來藏	-11.5684
釋梵	-11.5685
童真住	-11.5685
光音	-11.5686
甚深廣大	-11.5686
初結前生後	-11.5687
立為	-11.5687
如常	-11.5688
度人	-11.5689
揀之	-11.5689
邪命	-11.5689
不縛	-11.5689
一切波羅蜜	-11.5692
惡道苦	-11.5693
為引	-11.5694
現未	-11.5699
有五十	-11.57
共不共	-11.5705
初信	-11.5705
何等為五	-11.5707
隨舉一	-11.5709
亦明	-11.571
具一切智	-11.5712
無量劫中	-11.5712
十玄門	-11.5714
二世	-11.5715
彼中	-11.5718
長子	-11.5718
於道	-11.5718
慧明	-11.5719
寂滅故	-11.5722
於佛身	-11.5724
分齊境	-11.5724
現神通力	-11.5726
德成	-11.5726
非劫	-11.5726
第十四	-11.5727
言念	-11.5728
善男子我唯知此	-11.5732
頌歎	-11.5733
如是十方	-11.5734
大風	-11.5734
為境	-11.5734
分別演說	-11.5737
上諸	-11.5737
其理	-11.5738
修得	-11.5738
釋迦牟尼佛	-11.5739
菩薩所修	-11.5739
不可動	-11.5741
芥子	-11.5747
妙寶莊嚴	-11.5748
心迴向	-11.5748
臆	-11.5748
所證法	-11.5748
而不礙	-11.5751
以大慈悲	-11.5752
半頌	-11.5752
自在王菩薩	-11.5752
十中一	-11.5755
心喜	-11.5756
復能	-11.5757
名離垢	-11.5758
一切趣	-11.5759
經有	-11.5759
觀機	-11.5759
火坑	-11.576
之稱	-11.5761
少欲	-11.5764
諸天宮殿	-11.5767
有三種一	-11.5767
妙樂	-11.5769
其教	-11.5769
為法身	-11.5769
廁	-11.577
維摩詰	-11.577
評	-11.577
所觀境	-11.577
亦無量	-11.5771
先約	-11.5771
無邊功德	-11.5771
現受生	-11.5772
等文	-11.5772
然論	-11.5772
後八	-11.5772
菩薩摩訶薩如是	-11.5772
非人	-11.5772
進善	-11.5774
正入	-11.5775
所依之	-11.5776
遍計所執	-11.5777
佛子諸佛世尊有十種	-11.5777
捨於	-11.5777
間斷	-11.5777
略有二種	-11.5777
房舍	-11.5778
法性故	-11.5779
口言	-11.5779
寢	-11.5779
佛子云何為菩薩摩訶薩	-11.5779
微薄	-11.578
主風神	-11.5781
淨法身	-11.5781
明解	-11.5783
相同	-11.5783
慈悲喜捨	-11.5783
出家學道	-11.5784
第三重	-11.5785
慇懃	-11.5785
趣求後友	-11.5787
大神變	-11.5787
相續不絕	-11.579
大苦	-11.5791
坐於道場	-11.5791
虛空身	-11.5791
欲說	-11.5791
義分	-11.5792
先當	-11.5792
聽聞正法	-11.5793
轉轉	-11.5793
高山	-11.5794
顯之	-11.5795
至心	-11.5796
魔所攝持	-11.5797
大水	-11.58
二十行頌	-11.5801
七重	-11.5801
以一切智	-11.5802
玻瓈	-11.5803
根本無明	-11.5804
我昔	-11.5805
觀解	-11.5805
令諸眾生各別知見	-11.5806
禮懺	-11.5807
動寂	-11.5808
常清淨	-11.581
百論	-11.5811
寂定	-11.5813
疑故	-11.5813
應如是知	-11.5814
無悔	-11.5815
居家	-11.5815
▁初列	-11.5815
人非人等	-11.5817
中開出	-11.5818
法藥	-11.582
情亡	-11.5823
為救	-11.5823
大音	-11.5823
毀壞	-11.5824
歷事	-11.5827
此十法	-11.5829
解義	-11.5829
諸友	-11.5831
即般若	-11.5832
智成就	-11.5832
顯因	-11.5832
四十六	-11.5833
身內	-11.5833
更無異	-11.5833
法華經云	-11.5834
歸真	-11.5834
實色	-11.5836
甚深義	-11.5837
能分別	-11.5838
示同	-11.5841
無明闇	-11.5843
迴向實際	-11.5844
普淨	-11.5845
眼耳	-11.5847
財法	-11.5848
雖則	-11.5852
妙色身	-11.5852
後一結	-11.5852
救苦	-11.5853
十迴向位	-11.5854
總有四	-11.5856
從緣起	-11.5857
雖行	-11.5857
則與	-11.5859
示入	-11.5859
帝青	-11.586
得樂	-11.5861
有十二句	-11.5862
善知識所	-11.5862
廣說乃至	-11.5862
因緣法	-11.5867
則不能	-11.5868
善了	-11.587
以分	-11.5874
為能治	-11.5876
無病	-11.5877
普賢位	-11.5878
卵	-11.5879
不曾	-11.5879
約三乘	-11.588
助化	-11.5881
▁初敘	-11.5881
誰為	-11.5882
寶性論	-11.5882
於中普現	-11.5884
身加	-11.5885
於一毛孔	-11.5887
斬	-11.5888
十行品	-11.5888
舊云	-11.589
圓鏡	-11.589
無所依止	-11.5891
受苦樂	-11.5892
淚	-11.5895
奉事	-11.5895
有二可知	-11.5895
峰	-11.5895
皆名為	-11.5896
亦有二義	-11.5897
略為	-11.5898
着	-11.5898
今舉	-11.5899
職	-11.5899
檀越	-11.5899
鎮	-11.59
廣大清淨	-11.59
猛火	-11.59
獵	-11.5901
還令	-11.5901
本處	-11.5901
故不同也	-11.5905
沮壞	-11.5906
加因	-11.5907
血肉	-11.5907
餘義如別章	-11.5907
所縛	-11.5908
十層	-11.5908
世親釋云	-11.5909
相奪	-11.5909
▁二釋文	-11.591
隨文釋	-11.591
至文當知	-11.5911
種種異	-11.5913
章中	-11.5914
種現	-11.5914
結請	-11.5914
字為	-11.5919
解脫知見	-11.5921
心得自在	-11.5923
彼國	-11.5925
諸佛神力	-11.5925
總觀	-11.5926
皆圓滿	-11.5926
靈山	-11.5926
如來滅後	-11.5926
蓮華座	-11.593
曾無	-11.593
第三佛子	-11.5931
向實際	-11.5932
答中二	-11.5933
若先	-11.5935
者是也	-11.5936
出離道	-11.594
詣彼	-11.5941
忍可	-11.5942
立宗	-11.5942
不可說百千億那由他	-11.5943
並非	-11.5944
先際	-11.5945
明業用	-11.5945
為化	-11.5946
一切相	-11.5946
欲貪	-11.5948
總題	-11.5949
後對	-11.595
於彼佛所	-11.595
而彼	-11.5953
來至	-11.5953
九中	-11.5954
中有一	-11.5955
染汙	-11.5955
修起	-11.5956
一一劫中	-11.5958
眾生想	-11.5958
一切法中	-11.5959
將迴向	-11.5962
約性	-11.5965
不以為	-11.5969
以離	-11.597
慈行	-11.597
垢濁	-11.597
令一切眾生悉得	-11.5971
悉圓滿	-11.5971
而已	-11.5971
二三四	-11.5973
略有四	-11.5973
約此	-11.5975
一切剎土	-11.5977
眾華	-11.5977
彼約	-11.5978
通取	-11.5979
行布施	-11.598
勝心	-11.5981
能到	-11.5983
手執	-11.5984
淨居	-11.5986
無果	-11.5986
大慈悲心	-11.5988
初品	-11.5988
於無相	-11.599
念言	-11.5991
令於	-11.5991
堅固力	-11.5992
捨心	-11.5993
生信解	-11.5994
全身	-11.5995
國師	-11.5995
煩惱垢	-11.5996
譬如幻師	-11.5996
無依止	-11.5996
蘊等	-11.5999
無量清淨	-11.6
都結	-11.6001
故不說	-11.6005
旛	-11.6006
心施	-11.6006
普入三世	-11.6007
反成	-11.6007
約寄位	-11.6007
善女人	-11.6007
出過諸天	-11.6009
多事	-11.6009
今並	-11.601
行支	-11.6011
辱	-11.6011
皆遍	-11.6013
筭	-11.6014
分別了知	-11.6015
杜	-11.6015
不敬	-11.6017
非有無	-11.6017
渾	-11.6018
又令	-11.6019
萬境	-11.6019
化人	-11.602
莊嚴論	-11.6021
餓	-11.6022
教理行果	-11.6022
無懈倦	-11.6024
激	-11.6024
趣一切智	-11.6025
殄	-11.6025
稱讚授法	-11.6026
苦者	-11.6026
南北	-11.6027
轉復	-11.6027
勝妙心	-11.6027
煩惱染	-11.6027
撿	-11.6028
暮	-11.6028
未免	-11.603
受佛	-11.6031
互奪	-11.6031
廣行	-11.6032
終頓二教	-11.6033
多依	-11.6033
色想	-11.6033
說十行	-11.6034
而告之言	-11.6034
王城	-11.6036
如來藏性	-11.6037
亂想	-11.6038
法流	-11.6038
辭退南行	-11.6039
莎	-11.604
慈念	-11.604
此中最下方	-11.604
前後圍繞	-11.6041
什	-11.6043
疏義明匡山法雲寺憨山沙門德清提挈	-11.6043
布列	-11.6045
捨身	-11.6045
二而不二	-11.6046
芬陀利華	-11.6046
顯示如來	-11.6046
萬象	-11.6047
一界	-11.6048
入城	-11.6049
住此地	-11.6049
恒河	-11.605
答前問	-11.6051
一切物	-11.6052
不驚	-11.6053
而觀	-11.6053
所謂下別	-11.6053
就機	-11.6055
也問	-11.6056
果證	-11.6058
直說	-11.6058
推勝	-11.606
非即	-11.6062
一乘法	-11.6062
而亦不	-11.6064
非道	-11.6066
諸聖	-11.6067
十方剎海	-11.6071
初二偈	-11.6071
一物	-11.6071
開曉	-11.6071
今皆	-11.6074
幻住	-11.6074
善觀	-11.6074
又能	-11.6075
見一切法	-11.6077
彼宗	-11.6078
然有二義	-11.6078
第二段	-11.6079
火聚	-11.6081
然約	-11.6082
皆平等	-11.6082
具攝	-11.6082
次一偈	-11.6084
上三句	-11.6087
不思議法品	-11.6087
歸向	-11.6088
勝樂	-11.6088
退屈	-11.6089
但從	-11.6089
種種光明	-11.609
入見道	-11.609
內法	-11.6092
▁二釋相	-11.6092
十里	-11.6092
香味	-11.6092
生報	-11.6093
十二入	-11.6093
或聞	-11.6094
成實論	-11.6094
心懷	-11.6095
等一切眾生	-11.6095
次第者	-11.6095
成就一切智	-11.6097
攝義	-11.6098
後文殊	-11.6099
此辨	-11.61
以因	-11.61
初位	-11.61
疾病	-11.6101
五依	-11.6101
癡惑	-11.6106
類別	-11.6106
證教	-11.6106
對之	-11.6107
廣修	-11.6107
普見一切	-11.6108
惡名	-11.6108
一眾生身	-11.6108
無疲	-11.611
三頌	-11.6114
攝也	-11.6115
月輪	-11.6117
復云何	-11.6118
體無二	-11.6119
準前	-11.6121
略標	-11.6122
隨一切眾生	-11.6123
演說法	-11.6126
同虛空	-11.613
中最	-11.6131
下示	-11.6131
經無量劫	-11.6133
如淨名	-11.6135
悉無餘	-11.6137
滿願	-11.6137
永寂	-11.6139
結通十方	-11.614
起業	-11.6141
若我	-11.6141
不住故	-11.6144
解脫力	-11.6145
聳	-11.6146
價	-11.6148
決定心	-11.615
復次佛子譬如	-11.6151
編	-11.6151
妙月	-11.6151
盡者	-11.6151
瑞相	-11.6151
同真	-11.6152
霧	-11.6152
結略顯廣	-11.6153
此會中	-11.6153
苗	-11.6153
随	-11.6154
初標數辨類	-11.6154
故智論云	-11.6156
乃有	-11.6156
歇	-11.6157
成所作智	-11.6157
廣長舌	-11.6158
悉能了知	-11.6158
密嚴	-11.6159
之香	-11.6159
敕	-11.6159
為始	-11.6159
如燈	-11.616
善權	-11.6161
不二而二	-11.6162
發菩提心者	-11.6163
此有二種	-11.6163
九頌	-11.6163
後即	-11.6163
初三頌	-11.6164
暫時	-11.6164
無懈	-11.6164
清淨光	-11.6165
加者	-11.6165
同一法界	-11.6166
未曾失時	-11.6166
無有間斷	-11.6166
十人	-11.6167
初起	-11.6167
漸次南行	-11.6168
樂修	-11.6169
頻申	-11.6169
菩薩十地	-11.6169
重閣	-11.617
五大	-11.6171
頭面禮足	-11.6172
五逆	-11.6173
薩羅	-11.6173
如鏡	-11.6175
三人	-11.6175
次正釋文	-11.6175
精勤修習	-11.6176
隨流	-11.6176
同居	-11.6177
利益安樂	-11.6178
諸世界海	-11.6178
三昧正受	-11.6179
幢旛	-11.618
一切生死	-11.618
豈無	-11.6181
速成	-11.6181
心量	-11.6182
名藏	-11.6182
是梵行	-11.6183
重舉	-11.6184
行解	-11.6184
譯人	-11.6184
深入法界	-11.6185
天身	-11.6185
無性釋云	-11.6187
到於	-11.619
大方廣佛新華嚴經合論卷第	-11.6191
文殊問	-11.6193
六相圓融	-11.6193
深勝	-11.6194
舉佛	-11.6195
今始	-11.6195
現世間	-11.6195
章句	-11.6196
唯智	-11.6196
通答	-11.6197
分別諸法	-11.6198
初歎	-11.6201
廣大力	-11.6201
一切妙寶	-11.6202
善利	-11.6202
謂要	-11.6202
無根	-11.6203
住位	-11.6203
假設	-11.6204
此一乘	-11.6204
例釋	-11.6204
少時	-11.6205
有六行半經	-11.6205
已滅	-11.6206
死生	-11.6207
體用無礙	-11.6207
寬廣	-11.6209
戒定	-11.6209
威神之力	-11.621
終極	-11.6211
不改	-11.6211
下諸句	-11.6211
報土	-11.6213
受想	-11.6213
重現	-11.6215
頓具	-11.6215
未聞	-11.6215
機緣	-11.6216
滿十	-11.6217
告眾	-11.6221
根塵	-11.6221
假有	-11.6223
成位	-11.6223
大乘法師	-11.6224
成如來力	-11.6225
如次配	-11.6225
在世	-11.6225
法幢	-11.6227
普於一切	-11.6227
無量寶	-11.6228
一就	-11.6228
普照世間	-11.6229
稱法性	-11.623
侶	-11.6233
若佛	-11.6233
光耀	-11.6234
一切諸天	-11.6234
思修	-11.6234
合釋	-11.6236
鞞	-11.624
廣前	-11.6242
結其	-11.6248
調伏者	-11.6248
除疑	-11.625
上諸義	-11.6252
表智	-11.6253
因前	-11.6254
焰雲	-11.6256
前三句	-11.6256
初顯	-11.626
除一切	-11.626
有漏無漏	-11.6262
施諸	-11.6262
見在	-11.6263
悉從	-11.6263
但知	-11.6264
後二偈	-11.6265
十方人	-11.6265
棲	-11.6269
聞其	-11.6271
滅也	-11.6273
明此地	-11.6273
悲行	-11.6273
鉤	-11.6273
羯	-11.6273
郎	-11.6274
力持身	-11.6275
坎	-11.6275
躬	-11.6277
輭	-11.6277
三障	-11.6277
若諸眾生	-11.6278
迴向於捨	-11.6278
無妄	-11.6279
拒	-11.6281
諸惡道	-11.6281
寶聚	-11.6282
等虗空界	-11.6282
▁三揔結	-11.6282
尸棄	-11.6283
相由	-11.6284
為惡	-11.6284
相諦	-11.6284
玅	-11.6285
谷響	-11.6285
明十地	-11.6285
生在佛家	-11.6285
釋提桓因	-11.6286
於佛所	-11.6286
六重	-11.6286
如是如是	-11.6287
念知	-11.6287
遍觀	-11.6287
寐	-11.6288
貝	-11.6288
發無畏心	-11.6288
十二行半經	-11.6289
▁三辨	-11.6289
釋以	-11.629
受變易	-11.629
之華	-11.629
絕相	-11.629
本心	-11.629
理則	-11.629
出因	-11.6292
前起後	-11.6293
巴	-11.6293
即華嚴	-11.6293
生果	-11.6293
渧	-11.6293
誰能	-11.6296
無相法	-11.6297
調御師	-11.6298
于闐國三藏沙門實叉難陀譯經	-11.6298
海印道場十重行願常徧禮懺儀卷第	-11.6298
今皆懺悔	-11.6298
無量力	-11.6299
捨身命	-11.6301
為一乘	-11.6301
寂寞	-11.6301
染分	-11.6302
值遇	-11.6304
名利	-11.6305
所計	-11.6306
諍論	-11.6306
世第一	-11.6308
舉體全	-11.6309
有三意	-11.631
如真金	-11.6311
屬前	-11.6313
本云	-11.6313
智勝	-11.6313
頓實	-11.6314
此是如來	-11.6316
依行	-11.6317
滅後	-11.6317
苦聚	-11.6317
於一切佛法	-11.6319
莫能測	-11.6322
顯業用	-11.6323
焚燒	-11.6324
等餘	-11.6325
識等五	-11.6325
總成	-11.6326
說十迴向	-11.6326
令淨	-11.6328
有三門	-11.6329
妨云	-11.6329
今現在	-11.633
於大海	-11.6331
能具	-11.6333
臨終	-11.6334
從因	-11.6335
充法界	-11.6335
髻菩薩	-11.6336
就其	-11.6337
▁南無次	-11.6338
胎生	-11.6339
如是供養	-11.6343
剎網	-11.6343
因緣和合	-11.6344
以此義故	-11.6348
懺悔巳	-11.6353
三昧中	-11.6353
百歲	-11.6355
此女	-11.6357
潛入	-11.6358
無明行	-11.6358
損惱	-11.636
為斷	-11.636
有其二	-11.636
善男子善女人	-11.6361
諸子	-11.6361
禪定解脫	-11.6362
淨水	-11.6363
下文中	-11.6363
解脫海	-11.6365
一切菩提分法	-11.6368
何者為	-11.6368
人壽	-11.6369
推之	-11.6369
離垢光明	-11.637
菴	-11.6371
圓頓	-11.6378
所種善根	-11.6379
離斷常	-11.638
起分	-11.6382
華莊嚴	-11.6382
虗空法界	-11.6382
剎等	-11.6383
同真性	-11.6384
立意	-11.6386
故但云	-11.6387
真實智	-11.6389
心不退轉	-11.6389
有千	-11.6391
丸	-11.6393
於三寶	-11.6393
不出此	-11.6394
慧光明	-11.6396
得無盡	-11.6397
二界	-11.6397
深奧	-11.6398
稽	-11.6398
宏	-11.64
說意	-11.6403
唯見	-11.6403
孟	-11.6403
填	-11.6403
具於	-11.6404
因地	-11.6406
上至	-11.6406
現成正覺	-11.6407
同時具足相應門	-11.6408
運載	-11.6409
無始時來	-11.641
即攝一切	-11.641
無疲倦	-11.6411
秘密	-11.6411
涼	-11.6412
大人相	-11.6412
日出	-11.6413
整	-11.6413
順法	-11.6414
陜	-11.6415
勅	-11.6415
影喻	-11.6415
漩澓	-11.6416
所遍	-11.6417
嬈	-11.6418
何者為十所謂	-11.6421
城郭	-11.6421
此有二	-11.6422
破諸	-11.6423
大字	-11.6423
善惡業	-11.6423
發心久近	-11.6424
爾時普賢菩薩摩訶薩	-11.6425
我聞聖者善能誘誨	-11.6426
不遍	-11.6426
極清淨	-11.6426
辟支	-11.6427
所得果	-11.6428
妃	-11.6429
勝力	-11.6429
巧分別	-11.6432
離相故	-11.6433
加請	-11.6434
差別門	-11.6434
有九種	-11.6435
於諸佛法	-11.6435
四流	-11.6436
含識	-11.6436
無明滅	-11.6437
充滿其中	-11.6437
分齊者	-11.6438
下釋文	-11.6439
無惱	-11.6441
一切眾生悉	-11.6441
與法	-11.6441
以大悲心	-11.6443
護小乘行	-11.6444
相徹	-11.6445
盡虛空	-11.6447
但能	-11.6447
初名	-11.645
唯識論云	-11.6452
十一頌	-11.6453
令成熟	-11.6453
八即	-11.6453
安坐	-11.6454
見佛聞法	-11.6458
昔日	-11.6459
光明藏	-11.646
深入一切	-11.646
唯除如來	-11.646
長養善根	-11.6461
五千	-11.6462
覆護	-11.6464
覺故	-11.6465
配釋	-11.6466
以大願	-11.6466
在其	-11.6466
通云	-11.6466
如華嚴	-11.6467
得平等	-11.6467
是同	-11.647
乃至示現	-11.6471
一則	-11.6472
光明普照十方	-11.6473
大願力故	-11.6475
明地	-11.6475
好惡	-11.6475
一質	-11.6477
無損	-11.6478
融故	-11.6478
第十七	-11.648
亦不得	-11.648
名句文身	-11.648
化境	-11.6483
凝然	-11.6483
體本	-11.6484
所動	-11.6485
十二分	-11.6486
天道	-11.6486
十一種	-11.6487
方面	-11.6487
疏又	-11.6487
難壞	-11.6489
第四門	-11.649
此城	-11.6491
有本	-11.6493
無休息故	-11.6495
無變易	-11.6495
相隨	-11.6497
厭苦	-11.6497
目前	-11.6497
喜見	-11.6498
菩薩摩訶薩住	-11.6498
別譯	-11.6501
無量法門	-11.6502
業性	-11.6505
種種境界	-11.6505
不可壞故	-11.6506
是菩薩道	-11.6508
相濫	-11.6509
若無此	-11.651
通三乘	-11.651
於一切劫	-11.6514
諸道	-11.6514
成多	-11.6515
有間	-11.6517
漸修	-11.6518
寶性	-11.652
菩薩受生	-11.652
乃云	-11.6523
無有實	-11.6525
無師	-11.6526
今於	-11.6527
雖然	-11.6527
示導	-11.6527
本為	-11.6528
難捨	-11.6535
菩提體	-11.6536
周普	-11.6536
則已	-11.6536
籠	-11.6538
旁	-11.654
治前	-11.654
聖王	-11.6541
明相	-11.6542
古釋	-11.6543
華藏世界海本尊毗盧遮那佛	-11.6543
難得行	-11.6546
亦見眾會	-11.6546
羼提波羅蜜	-11.6548
已能	-11.6549
二乘人	-11.6549
戒故	-11.6549
又欲令一切眾生	-11.6549
一切菩薩地	-11.655
差殊	-11.655
一四天下	-11.655
探玄記	-11.655
刻	-11.6551
陀羅尼光明	-11.6551
四時	-11.6551
文勢	-11.6552
有佛世界微塵數	-11.6552
因力	-11.6552
非緣	-11.6557
彈指	-11.6557
次三句	-11.6557
實也	-11.6557
六品經	-11.6558
趣菩提	-11.6558
之宗	-11.6561
堅密	-11.6561
得十	-11.6564
足輪	-11.6564
性不可得	-11.6566
佛與	-11.6566
搖	-11.6566
所有微塵	-11.6566
雙亡	-11.657
故屬	-11.6571
後佛子下	-11.6572
純一清淨	-11.6573
十行中	-11.6574
真善知識	-11.6574
例前	-11.6576
毛道	-11.6577
妙吉祥	-11.6578
遣之	-11.6579
為大法師	-11.6579
文中先	-11.6579
觀修	-11.658
前却	-11.6581
普現其身	-11.6584
倍倍	-11.6585
普知	-11.6585
舊來	-11.6586
已還	-11.6588
十五行經	-11.6588
大龍	-11.6588
福聚	-11.6588
貪心	-11.6588
當果	-11.6588
遍遊	-11.659
合掌而立	-11.659
光照耀	-11.6591
修行住	-11.6593
進止	-11.6595
無苦	-11.6595
因果交徹	-11.6596
藏師子之座	-11.6597
積集善根	-11.6599
之徒	-11.6604
當作佛	-11.6607
理應	-11.6607
順於	-11.6608
障對治	-11.6608
白言聖者	-11.661
圓成實	-11.6611
供養於佛	-11.6611
十八不共	-11.6611
現化	-11.6613
復是	-11.6614
破云	-11.6616
別答	-11.6617
一塵中	-11.6618
即智論	-11.6619
最妙	-11.6623
為教	-11.6624
而不證	-11.6625
普賢之行	-11.6626
聞見	-11.6628
自證分	-11.6628
諸佛子此	-11.6628
月天子	-11.663
得不退	-11.663
皆同此	-11.6632
無不皆	-11.6632
般若現前	-11.6633
應云何	-11.6633
雷震	-11.6634
有多種	-11.6635
受教	-11.6636
散華	-11.6637
寂滅法	-11.6637
為治	-11.6638
名智	-11.664
正斷	-11.664
▁四釋	-11.6642
成普賢行	-11.6642
法界身	-11.6644
下論云	-11.6645
下釋其相	-11.6646
合空	-11.6647
故唯	-11.6647
斷者	-11.6647
佛母	-11.6648
於三乘	-11.6648
各三	-11.6649
超世	-11.6649
前教	-11.6649
次有大人相	-11.6649
結數	-11.6651
對緣	-11.6651
因人	-11.6651
十千劫	-11.6651
▁三會	-11.6653
□□	-11.6653
為我說	-11.6655
非無因	-11.6656
旨歸	-11.6657
能燒	-11.6658
若干種	-11.666
二攝	-11.666
如實觀	-11.6661
繫屬	-11.6662
三世智	-11.6662
晦	-11.6663
然依	-11.6665
死時	-11.6665
異熟識	-11.6665
后	-11.6667
正以	-11.6668
考	-11.6668
隨說	-11.667
貪嗔癡	-11.667
撥無因果	-11.667
須彌頂	-11.6671
三俱	-11.6671
呈	-11.6672
人多	-11.6673
分三初	-11.6673
入實	-11.6674
後當	-11.6674
匠	-11.6674
爽	-11.6676
喜足	-11.6676
即第六	-11.6677
救生	-11.6678
菩薩一切海眾	-11.6678
寶手	-11.6679
通力	-11.668
無著無縛	-11.668
未熟	-11.668
憂悲	-11.668
有八行經	-11.6681
以辯	-11.6681
自德	-11.6681
詢	-11.6682
十句中	-11.6682
大用無涯	-11.6683
明白	-11.6684
若廣說者	-11.6686
因離	-11.6686
并其眷屬	-11.6687
既具	-11.6688
此翻	-11.6688
蘊積	-11.669
略引	-11.669
兩足尊	-11.6691
依瑜伽	-11.6691
菩提薩埵	-11.6692
狀如	-11.6692
亦令	-11.6692
後合	-11.6693
開宗	-11.6694
未明	-11.6694
為家	-11.6697
悉能往詣	-11.6697
喻上	-11.6697
見人	-11.6698
歌詠讚歎	-11.6699
群萌	-11.6699
之末	-11.67
二徵數	-11.67
則常	-11.6701
五分	-11.6702
諸大聲聞	-11.6704
生疑惑	-11.6704
日日	-11.6705
所證故	-11.6705
亦在	-11.6709
療治	-11.671
帝青寶	-11.671
皆使	-11.671
譬如日出	-11.6711
大品經	-11.6711
▁初正顯	-11.6712
戒為	-11.6712
四維	-11.6712
顯色	-11.6712
說相	-11.6712
無漏智	-11.6712
如是十種	-11.6713
一攝一切	-11.6714
瓔珞經	-11.6715
以人	-11.6715
慧力	-11.6715
亦須	-11.6719
物機	-11.672
隨順修行	-11.672
未足	-11.6723
無所從來	-11.6723
▁四謙巳推勝	-11.6723
方為真	-11.6724
汝可	-11.6725
疲勞	-11.6727
大福	-11.6728
是根本	-11.6729
欲悉	-11.6732
丈六	-11.6732
行普賢行	-11.6733
於諸如來	-11.6734
義顯	-11.6734
一切道場	-11.6735
五會	-11.6735
無空過	-11.6737
如虛空故	-11.6737
發心功德	-11.6737
生萬物	-11.6738
間列	-11.6738
五時	-11.674
作因	-11.6741
大明	-11.6742
正念觀察	-11.6742
瑕	-11.6742
力無所畏	-11.6743
約一乘	-11.6744
皆幻住	-11.6744
常當	-11.6746
財位	-11.6747
宗也	-11.6748
之所成就	-11.675
死後	-11.6751
菩提場中	-11.6751
汝能	-11.6752
聞此經	-11.6752
如來大智	-11.6753
業因緣	-11.6753
一切劫中	-11.6754
皷	-11.6758
善因	-11.6758
似彼	-11.6759
細尋	-11.6759
十種心	-11.6759
是識	-11.6759
如是之人	-11.6759
窮其	-11.6759
大乘經	-11.676
是所依	-11.676
之總	-11.676
空等	-11.6761
盡於	-11.6762
所破	-11.6765
自住	-11.6766
一切諸眾生故	-11.6766
所從來	-11.6766
香樹	-11.6767
如見	-11.6769
互無	-11.6771
同一體性	-11.6771
依他性	-11.6774
其智	-11.6774
類智	-11.6783
邪法	-11.6784
已釋	-11.6785
深細	-11.6789
十由旬	-11.679
有二釋	-11.6791
皆得成就	-11.6791
害心	-11.6793
所以名	-11.6794
初住地	-11.6795
翅	-11.6796
多含	-11.6797
群黎	-11.6798
如是等下	-11.68
不容	-11.68
陿	-11.6801
一切諸法皆	-11.6803
照法界	-11.6803
欺誑	-11.6804
無說	-11.6804
令悟	-11.6804
故下文云	-11.6805
不淨觀	-11.6805
如來所說	-11.6806
添	-11.6806
𦟛	-11.6807
牒舉	-11.6808
餘皆是	-11.6809
怨賊	-11.6809
前解	-11.6809
院	-11.681
跪	-11.681
衰惱	-11.681
三偈頌	-11.681
徐	-11.6811
無所有盡	-11.6812
普照十方一切世界	-11.6812
一斷一切斷	-11.6812
給侍	-11.6812
隨好光明功德品	-11.6813
舉一全收	-11.6813
先總後別	-11.6814
幼	-11.6814
周帀圍繞	-11.6814
于法界	-11.6815
地獄畜生餓鬼	-11.6815
逃	-11.6816
末世	-11.6816
接引	-11.6817
然燈	-11.682
下歎	-11.6822
若隨	-11.6822
死屍	-11.6823
有十門	-11.6824
地獄中	-11.6825
淨天	-11.6825
法身根本智	-11.6825
以善方便	-11.6826
法界觀	-11.6828
鈍根	-11.683
解一切法	-11.683
起慈悲	-11.6831
所被機	-11.6831
今初言	-11.6832
千門	-11.6832
生兜率天	-11.6832
助道之法	-11.6834
為對	-11.6835
孔目云	-11.6835
群品	-11.6835
無盡德	-11.6836
念前	-11.6836
根力	-11.6836
蓮華藏師子之座	-11.6837
所淨	-11.6837
無量光明	-11.6841
初則	-11.6843
於所說法	-11.6843
始起	-11.6845
供養一切佛	-11.6845
菩薩摩訶薩布施	-11.6846
錯謬	-11.6848
須彌山雲	-11.6849
見普雨一切	-11.6849
論議	-11.6852
一步	-11.6853
二正明	-11.6854
有功用	-11.6856
演說正法	-11.6857
惟願	-11.6857
具足菩薩	-11.6857
解深密	-11.6857
恒常	-11.6858
住普賢行	-11.6858
初句標	-11.6858
福德身	-11.686
攝物	-11.6862
通有	-11.6862
功用行	-11.6863
品初	-11.6865
佛滅後	-11.6868
奇妙	-11.6869
為此釋	-11.687
當學	-11.6873
答難	-11.6873
後一是	-11.6875
見惑	-11.6875
隨轉	-11.6876
黎庶	-11.6876
大勇猛	-11.6877
其心廣大	-11.6877
結例	-11.6879
壽量品	-11.6879
三知	-11.6879
密雲	-11.6879
俱舍論	-11.688
諸病	-11.6881
餘並	-11.6881
所含	-11.6882
咸來	-11.6882
安立海	-11.6882
能詮教	-11.6882
顯佛德	-11.6884
蘭	-11.6884
正性	-11.6886
▁南無如是等	-11.6886
離生死	-11.6886
為種	-11.6887
多緣	-11.6888
清淨如虛空	-11.6889
如是下總結	-11.6889
有百	-11.6892
百非	-11.6893
於生死海	-11.6894
天帝釋	-11.6898
親因	-11.6898
遠行	-11.6898
隨分	-11.6899
論其	-11.6901
攝之	-11.6902
及涅槃	-11.6903
發聲	-11.6903
善根如是迴向	-11.6903
順佛	-11.6903
分段身	-11.6904
開悟一切眾生	-11.6904
惡慧	-11.6909
幻色	-11.691
無所行	-11.6911
菩薩有十事	-11.6911
所獲	-11.6915
轉淨法輪	-11.6917
一極	-11.6917
自性清淨心	-11.6919
入不思議	-11.6922
不敢	-11.6924
寶車	-11.6925
見文殊	-11.6926
之所行	-11.693
而至	-11.693
嚴事	-11.6931
此彼	-11.6932
精進行	-11.6933
眾生諸根	-11.6933
機故	-11.6933
眾生善根	-11.6933
穴	-11.6936
自知受記	-11.6936
身形	-11.6936
鋒	-11.6939
次列	-11.694
筋	-11.694
爰	-11.6942
有如是等	-11.6943
峻	-11.6943
失於	-11.6944
結會	-11.6944
皆歸	-11.6944
司	-11.6945
鳩	-11.6945
居處	-11.6945
此二句	-11.6946
牀座	-11.6947
見多佛	-11.6947
混融	-11.6947
謀	-11.6948
玄旨	-11.6948
心一境性	-11.6948
模	-11.695
不污	-11.695
攝善法戒	-11.695
芳	-11.6951
恕	-11.6951
飜	-11.6951
大那羅延幢勇健法	-11.6952
好醜	-11.6952
焰慧地	-11.6954
故次明之	-11.6954
若小乘	-11.6954
亂心	-11.6955
各有三	-11.6955
欲使	-11.6956
所行境	-11.6956
舉要言之	-11.6956
奘	-11.6957
成熟一切眾生	-11.6957
大山王	-11.6957
楚毒	-11.6958
法界無差別	-11.6958
祇洹	-11.6958
第三總結	-11.6959
不同三乘	-11.696
何要	-11.6961
相違故	-11.6963
非量	-11.6963
二離	-11.6963
大疏	-11.6965
無性攝論	-11.6967
佛剎海	-11.6968
殊勝功德	-11.6968
即云	-11.697
亦順	-11.697
顯真	-11.697
無性即	-11.6971
無量心	-11.6971
千里	-11.6971
故云清淨	-11.6972
積行	-11.6974
欲盡	-11.6976
所讚	-11.6977
而正受	-11.6977
如波	-11.6977
復見	-11.6978
巳見	-11.6978
具修	-11.698
今初也	-11.6981
放淨光明	-11.6981
修福	-11.6982
限量	-11.6983
說耳	-11.6983
清涼山	-11.6983
佛化	-11.6983
覺支	-11.6985
能至	-11.6985
已斷	-11.6985
若菩薩摩訶薩	-11.6985
聖法	-11.6987
若住	-11.6988
黑白	-11.6989
通者	-11.6991
之所能	-11.6994
諸神通	-11.6996
焰光	-11.6996
徒眾	-11.6998
現緣	-11.6998
應根	-11.7001
諸佛本	-11.7002
由智	-11.7004
舌根	-11.7005
明記	-11.7008
眾像	-11.7008
威勢身	-11.7008
八聖道	-11.7009
於斯	-11.701
本義	-11.7011
徵問	-11.7012
了達諸法	-11.7012
萬里	-11.7013
或在	-11.7014
四十句	-11.7015
讚言	-11.7015
釋中二	-11.7019
如大地	-11.7019
受稱	-11.7019
迴向心	-11.7019
有智慧	-11.7021
十相	-11.7021
亦得名	-11.7022
救攝	-11.7023
剎塵劫	-11.7024
之則	-11.7025
此由	-11.7025
隨門	-11.7026
十行頌	-11.7028
於一切菩薩	-11.7028
以方便力	-11.7028
倣之	-11.7029
寶女	-11.703
能開	-11.7032
觀世音菩薩	-11.7033
善化	-11.7034
易故	-11.7035
利益心	-11.7035
▁初讚	-11.7036
興雲	-11.7037
所不及	-11.7039
但引	-11.7039
未曾暫	-11.7039
眾寶為	-11.7039
更以	-11.7041
何必	-11.7041
此法門者	-11.7042
諸法相	-11.7042
無漏法	-11.7042
異論	-11.7043
本分中	-11.7043
謂既	-11.7043
則應	-11.7044
皆充滿	-11.7045
說妙法	-11.7045
生等	-11.7045
此三法	-11.7047
自地	-11.705
莊嚴之事	-11.7051
豫	-11.7051
乃為	-11.7051
對顯	-11.7052
皆巳	-11.7052
愍念	-11.7054
淨識	-11.7054
一切佛平等	-11.7055
住一切劫	-11.7057
將何	-11.7057
復有十	-11.7059
是謂菩薩	-11.7059
神識	-11.7059
亦有三	-11.7059
色心等	-11.7059
歎德中	-11.706
於此段中	-11.7061
故舉	-11.7061
所著	-11.7062
故出現品云	-11.7063
三眼	-11.7063
十方下	-11.7063
▁初總顯	-11.7063
常定	-11.7065
即是一乘	-11.7065
明法	-11.7068
不調	-11.7068
一切諸佛如來	-11.7069
▁初揔顯	-11.7072
鈔文	-11.7074
遊於	-11.7077
妄惑	-11.7078
後因	-11.708
種種音聲	-11.708
無不周	-11.7081
荼	-11.7082
屋	-11.7083
含生	-11.7083
即論	-11.7083
無見	-11.7084
文殊為	-11.7084
緣會	-11.7084
矚	-11.7084
三賢十聖	-11.7085
文理	-11.7086
崖	-11.7086
欽	-11.7086
淳熟	-11.7087
言語道斷	-11.7087
項	-11.7087
訪	-11.7088
一切諸劫	-11.7089
偶	-11.7089
總有三	-11.709
法光	-11.7091
先照	-11.7091
于闐	-11.7091
降伏眾魔	-11.7091
飄	-11.7092
主水神	-11.7092
太極	-11.7093
風畫	-11.7094
真淨	-11.7095
定散	-11.7095
寄言	-11.7096
四五六地	-11.7097
守護一切眾生	-11.7097
欲重宣其義	-11.7098
敏	-11.7098
無怯弱	-11.7098
舉此	-11.7099
無上覺	-11.7099
則已能	-11.71
初地已上	-11.71
得法久近	-11.71
三轉	-11.7101
無處不至	-11.7101
造惡	-11.7101
一半	-11.7102
議曰	-11.7103
義理分齊	-11.7103
故中論云	-11.7103
貢高	-11.7105
不離於	-11.7108
天寶	-11.7108
口出	-11.711
有形	-11.711
往返	-11.7112
比智	-11.7112
智了	-11.7113
火災	-11.7115
爾時已下	-11.7115
無量自在	-11.7116
二所謂下	-11.7116
涉入	-11.7118
如是等種種	-11.7119
彼世界中	-11.7119
滅盡定	-11.7121
眾生之類	-11.7122
菩薩亦爾	-11.7123
無差別無	-11.7123
魔怨	-11.7123
戒等	-11.7124
若定	-11.7124
會同	-11.7125
▁初標章	-11.7125
從緣無性	-11.7126
以覆其上	-11.7127
一切世間境界	-11.7127
深淨心	-11.7128
幻事	-11.7129
毛光	-11.7129
心生尊重	-11.7129
戒賢	-11.713
令我得	-11.713
證行	-11.713
▁二彰	-11.7132
王眾	-11.7133
將說	-11.7136
而作是言	-11.7138
五臺	-11.7138
六十二	-11.7139
正趣菩薩	-11.7143
有十義	-11.7146
後彰	-11.7146
所得功德	-11.7147
攝者	-11.7151
足指	-11.7152
俱離	-11.7152
讚曰	-11.7152
普散	-11.7153
第十九	-11.7154
厭生死	-11.7154
以來	-11.7156
將護	-11.7156
莊嚴法門	-11.7157
三支	-11.7158
智慧地	-11.7158
但於	-11.7159
一切眾生語言	-11.716
一切即一	-11.7162
義意	-11.7164
相去	-11.7164
法師云	-11.7164
以法為	-11.7165
了世	-11.7169
微妙法	-11.7169
以三乘	-11.717
損益	-11.717
經多劫	-11.717
業緣	-11.717
為外	-11.7171
所成果	-11.7175
無暫	-11.7175
梵網經	-11.7177
而令	-11.7177
菩薩曰	-11.7177
不久當	-11.7178
不得名	-11.7179
皆悉歡喜	-11.7179
二引證	-11.718
大神力	-11.7183
無樂	-11.7183
息滅	-11.7184
又說	-11.7184
不二故	-11.7186
先解	-11.7186
他化自在天王	-11.7189
百二十	-11.7191
普告	-11.7193
前中先	-11.7193
一珠	-11.7194
繞無數帀	-11.7194
妄生	-11.7194
三佛子下	-11.7195
七十二	-11.7197
十住十行十迴向	-11.7199
纖	-11.72
無覺	-11.7201
事事無礙法界	-11.7201
逝	-11.7201
此十句	-11.7211
三受	-11.7211
心品	-11.7211
不可作	-11.7213
愛憎	-11.7214
黃金	-11.7215
壇	-11.7215
自在主	-11.7216
僻	-11.7218
歟	-11.7218
或曰	-11.7219
忌	-11.7219
清淨無礙	-11.722
照世	-11.722
本具	-11.722
賢首品云	-11.7221
俯	-11.7221
庭	-11.7221
選	-11.7223
顛	-11.7224
怡	-11.7224
鹹	-11.7224
革	-11.7224
魂	-11.7226
癈	-11.7226
五人	-11.7227
湯	-11.7227
位中行	-11.7228
荒	-11.7228
申今	-11.7229
方便道	-11.723
一切法空	-11.723
巳成就	-11.723
法要	-11.723
譏	-11.723
遽	-11.7231
洛叉	-11.7231
心垢	-11.7231
四從	-11.7232
贍	-11.7232
之語	-11.7232
一切諸佛悉	-11.7233
數之	-11.7233
諷誦	-11.7233
如是自在	-11.7233
淨土菩薩	-11.7234
顯圓	-11.7234
炤	-11.7234
飽	-11.7234
此大樓閣	-11.7235
是名為	-11.7237
纖塵	-11.7237
諸苦惱	-11.7238
無功用智	-11.7239
雜集論	-11.724
所從來國	-11.724
遠法師	-11.7241
小果	-11.7243
如經具明	-11.7243
文皆	-11.7244
互攝	-11.7245
還成	-11.7247
所繫	-11.7247
無相智	-11.7248
日月星宿	-11.7248
違逆	-11.7249
發露	-11.725
有分限	-11.725
除其	-11.725
聖旨	-11.725
此皆	-11.725
同喻	-11.7252
離殺	-11.7252
永絕	-11.7253
剎利	-11.7255
發大誓願	-11.7255
無偏	-11.7255
恒河沙數	-11.7256
第一門	-11.7256
隨其所樂	-11.7257
所作皆	-11.7258
四無畏	-11.726
我於彼時	-11.726
一總明	-11.7261
垢染	-11.7263
性淨涅槃	-11.7263
千由旬	-11.7264
非同	-11.7264
果體	-11.7265
後解	-11.7266
融會	-11.7266
香積	-11.7266
無患	-11.727
山林	-11.727
執受	-11.727
四釋文者	-11.7271
六約	-11.7272
陀羅尼輪	-11.7272
止惡	-11.7272
通達無礙	-11.7274
滅諸煩惱	-11.7276
普見諸佛	-11.7277
周遍十方	-11.7277
異處	-11.7281
位相	-11.7281
一切智門	-11.7283
願以	-11.7285
分十	-11.7285
修行時	-11.7285
正結	-11.7286
重言	-11.7287
普現身	-11.7288
亦現	-11.729
性非	-11.7291
入佛智	-11.7291
普勝	-11.7291
不同二乘	-11.7292
光曜	-11.7293
然後乃	-11.7294
益者	-11.7295
徧至	-11.7296
眾生性	-11.7297
為遮	-11.7299
究竟如虛空	-11.7299
是故名	-11.7299
若有人	-11.73
大菩薩眾	-11.73
全遍	-11.7301
忍力	-11.7302
百千那由他	-11.7302
餘九別	-11.7307
空宗	-11.7307
約喻	-11.7308
深旨	-11.7308
依主釋也	-11.7309
無邊無盡	-11.731
方堪	-11.7311
受無量苦	-11.7312
徵釋所由	-11.7313
諸香	-11.7314
文言	-11.7315
壞散	-11.7317
之座	-11.7317
有六義	-11.7321
會普光明殿	-11.7322
此華藏世界海	-11.7322
如焰	-11.7323
普周法界	-11.7323
纏縛	-11.7325
引瑜伽	-11.7325
無空過者	-11.7326
諸緣起	-11.7326
一錢	-11.7329
思惟大海	-11.7329
顯然	-11.733
無自體	-11.733
一世	-11.7332
華樹	-11.7333
量故	-11.7333
別對	-11.7334
善清淨	-11.7336
無所見	-11.7336
為汝說	-11.7337
略有五	-11.734
不怯弱	-11.7341
同證	-11.7341
樂行	-11.7341
教義等	-11.7341
更有一	-11.7342
深廣故	-11.7342
恒出	-11.7346
總為一	-11.7347
剝	-11.7348
准思	-11.7352
諸佛身	-11.7353
初正釋	-11.7354
光所照	-11.7354
離慢	-11.7355
勝過	-11.7355
略有三	-11.7356
一切天人	-11.7356
海中有	-11.7357
摩醯首羅	-11.7358
已下明	-11.7359
鑛	-11.736
浴	-11.7361
有勝	-11.7361
第四云	-11.7361
韻	-11.7361
毘尼	-11.7364
別觀	-11.7364
大同小異	-11.7365
十種力	-11.7365
捨受	-11.7366
若有眾生遇斯光者	-11.7366
究竟大事	-11.7367
一切諸佛菩薩	-11.7368
地經	-11.7368
故致	-11.7369
一多相容不同門	-11.737
迦旃延	-11.737
躍	-11.737
雞	-11.737
涅	-11.737
捧	-11.7371
初文有三	-11.7371
非一非	-11.7371
唐言	-11.7371
疏主	-11.7372
勝慢對治	-11.7372
功終	-11.7373
瞬	-11.7374
總指	-11.7374
寶繒	-11.7376
金剛輪	-11.7376
慈父	-11.7376
寶香	-11.7377
繁興	-11.7377
有兩行經	-11.7378
無盡功德藏迴向	-11.7378
貧乏	-11.7379
坐蓮華藏師子之座	-11.7379
所以不	-11.7379
問訊	-11.738
十方諸世界	-11.738
說處	-11.7382
所收	-11.7382
又放光明	-11.7383
過去未來現在	-11.7383
香焰	-11.7383
如是等一切	-11.7384
垣牆	-11.7384
依地	-11.7385
貪恚	-11.7385
一一各有	-11.7387
殊異	-11.7388
遊步	-11.7389
明足	-11.7389
所遊	-11.739
不可稱計	-11.739
本性清淨	-11.7391
增上深心	-11.7392
復有十千	-11.7393
測量	-11.7394
後友	-11.7396
有五義	-11.7396
安布	-11.7397
不因	-11.7397
等分	-11.7399
又發大願	-11.7399
動亂	-11.74
伎樂	-11.74
為最勝	-11.7401
護煩惱行	-11.7402
相即相入	-11.7405
功德幢	-11.7409
願智果	-11.7409
大哀	-11.7411
正直心	-11.7411
極樂	-11.7412
亦不生	-11.7413
未出	-11.7413
兜率宮	-11.7415
大集經	-11.7417
繪	-11.742
猶在	-11.7421
微塵數世界	-11.7422
常出	-11.7423
集助道	-11.7424
善眼	-11.7424
無盡法界	-11.7424
力無畏	-11.7425
甚微	-11.7425
與法界	-11.7426
後意	-11.7426
皆無所著	-11.7426
無不見	-11.7426
範	-11.7427
海印定	-11.7428
我得菩薩	-11.7429
貴賤	-11.7429
開義	-11.743
此文有二	-11.7432
互不相	-11.7433
一諦	-11.7434
即第五	-11.7435
無變	-11.7435
無明支	-11.7435
凡情	-11.7436
一微塵中	-11.7436
▁二料揀	-11.7439
同如	-11.744
今古	-11.7441
五百歲	-11.7443
但就	-11.7444
一切諸佛剎	-11.7446
所知故	-11.7446
起時	-11.7446
從此生	-11.7447
以此善根如是迴向	-11.7448
億百千	-11.7449
別彰	-11.745
二來意者	-11.745
相別	-11.7452
巳引	-11.7452
八解脫	-11.7452
便成正覺	-11.7453
之會	-11.7453
諸剎土	-11.7454
有能所	-11.7455
又應	-11.7458
之量	-11.7459
十住十行十迴向十地十一地	-11.746
標釋	-11.7461
戒善	-11.7462
敷演	-11.7462
勝熱	-11.7465
量智	-11.7465
如電	-11.7466
先觀	-11.7468
分為六	-11.7468
入無量諸佛	-11.7468
在母胎中	-11.7469
離垢清淨	-11.747
寄法	-11.7471
生歡喜心	-11.7471
一門中	-11.7472
各有二義	-11.7474
種種煩惱	-11.7476
大悲海	-11.7476
常放	-11.7477
非妄	-11.7477
互舉	-11.7477
如應	-11.7477
無熱	-11.7477
自顯	-11.7478
十二種	-11.748
是假	-11.748
無不照	-11.7481
後文	-11.7484
昔人	-11.7485
眾病	-11.7485
苦受	-11.7487
異時	-11.7488
魏	-11.7489
先成	-11.749
一切眾魔	-11.7492
普音	-11.7492
下中上	-11.7492
香摩尼	-11.7494
引涅槃	-11.7494
開章別釋	-11.7495
於諸菩薩	-11.7495
銖	-11.7496
結益	-11.7496
為善財童子	-11.7497
衍	-11.7498
而坐	-11.7498
光徧照	-11.7498
肇	-11.7499
自在德	-11.7499
先敘	-11.7499
群生類	-11.7499
四天	-11.75
鐵圍	-11.7503
起因	-11.7503
有四重	-11.7505
舉經對顯	-11.7506
艮	-11.7506
如是方便	-11.7506
智慧眼	-11.7507
鹽	-11.7509
所依住	-11.7509
偷	-11.7509
無量乘	-11.7509
諸所有	-11.7509
流轉生死	-11.751
之土	-11.751
廣如彼說	-11.7511
不全	-11.7512
兔角	-11.7513
寂靜光	-11.7513
殃	-11.7514
阿彌陀	-11.7514
莊嚴其身	-11.7514
寡	-11.7514
凶	-11.7516
卍字	-11.7518
共集	-11.7519
羞	-11.7519
輪三昧	-11.7519
綱要	-11.752
新新	-11.752
萬差	-11.752
沙門婆羅門	-11.752
修慈	-11.7521
不約	-11.7522
一文一句	-11.7523
譯為	-11.7525
呪術	-11.7526
二義者	-11.7526
于闐國三藏實叉難陀奉制譯	-11.7526
入大乘	-11.7527
思慮	-11.7528
有十二	-11.7528
方入	-11.7529
為權	-11.753
吝	-11.753
佛日	-11.753
菩提願	-11.7531
普遊	-11.7531
於其中間	-11.7532
由迷	-11.7533
念持	-11.7535
欲言其	-11.7536
了俗	-11.754
有所表	-11.7541
九十六	-11.7541
能自	-11.7542
清淨慧	-11.7544
妙嚴	-11.7544
相大	-11.7545
總報	-11.7545
有一百一十	-11.7546
音響	-11.7546
微妙音	-11.7547
功力	-11.7547
上加	-11.755
我願	-11.7551
能益	-11.7553
天地之	-11.7557
六觀	-11.7557
何謂為	-11.7557
菩薩大悲	-11.7557
巳滿	-11.7558
他身	-11.7558
一期	-11.7559
童男	-11.7561
宗教	-11.7562
▁二列名結數	-11.7563
一切微塵	-11.7564
波利	-11.7564
巨海	-11.7565
而覺悟	-11.7566
下九句	-11.7567
定其	-11.7568
甚深微妙	-11.7568
未具	-11.7569
發心品	-11.7571
了達一切	-11.7571
假言	-11.7571
下通妨	-11.7573
雨法	-11.7577
受生自在	-11.7578
得無上	-11.758
第五十	-11.7581
相離	-11.7582
引此	-11.7583
令彼眾生	-11.7584
十行位	-11.7584
如實智	-11.7585
▁三宗趣	-11.7585
信一切法	-11.7585
幾時	-11.7586
契實	-11.7587
下䟽釋	-11.7589
謗法	-11.7589
而能出生	-11.7589
正真	-11.7589
如光影	-11.7589
發行	-11.759
悉分別知	-11.7591
賢善	-11.7592
彌勒菩薩摩訶薩	-11.7594
即淨名	-11.7595
發業	-11.7598
德無盡	-11.7598
久如	-11.7602
明潔	-11.7604
人畜	-11.7604
十住菩薩	-11.7605
無知者	-11.7605
維	-11.7606
無瑕	-11.7606
名生	-11.7607
菩薩諸地	-11.761
眼菩薩	-11.7613
轉離	-11.7614
果之因	-11.7616
卷舒	-11.7617
破邪	-11.7619
如東方	-11.7619
義邊	-11.762
示現涅槃	-11.762
先須	-11.7621
寶燈	-11.7621
闇冥	-11.7621
入此定	-11.7622
答意云	-11.7622
增長善根	-11.7623
取前	-11.7624
因由	-11.7625
斷盡	-11.7625
平等清淨心	-11.7629
亂意	-11.7634
来	-11.7634
一一世界中	-11.7636
修止觀	-11.7636
煩惱習氣	-11.7639
得無生法忍	-11.764
迦葉佛時	-11.7641
非因	-11.7642
念念出生	-11.7645
六偈	-11.7645
寸	-11.7647
得十力	-11.7649
萬億	-11.765
結屬	-11.7652
諸寶	-11.7654
恐繁不	-11.7654
法供養	-11.7654
眾福	-11.7655
紛	-11.7657
教他	-11.7658
次後	-11.7658
襍	-11.7659
贊	-11.7659
唯有一	-11.7659
恡	-11.7659
願佛	-11.7659
聾	-11.7661
寂寥	-11.7661
大位	-11.7662
之母	-11.7663
眷	-11.7663
依他起性	-11.7663
瓔	-11.7664
煖	-11.7664
領納	-11.7664
拯	-11.7664
奮	-11.7665
指文	-11.7665
圓滿清淨	-11.7666
自修	-11.7666
香幢	-11.7667
婆珊婆演底	-11.7668
摩竭	-11.7669
外用	-11.767
囑	-11.767
十佛剎塵	-11.7671
真如相迴向	-11.7671
所持故	-11.7671
制伏	-11.7671
鐸	-11.7672
安危	-11.7672
念念常	-11.7672
闇障	-11.7675
明慧	-11.7677
恒不捨離	-11.7677
十地法門	-11.7678
定亂	-11.7679
我當云何	-11.768
近友	-11.7681
利人	-11.7681
非擇滅	-11.7683
逼惱	-11.7685
侍者	-11.7686
喜目	-11.7686
當知是人	-11.7687
王女	-11.7688
有五行經	-11.7688
其心平等	-11.769
見網	-11.7691
四無色定	-11.7694
波頭摩華	-11.7694
無違逆行	-11.7694
非不有	-11.7696
諸不善	-11.77
諸仁者	-11.7702
所向	-11.7704
繁廣	-11.7705
情非情	-11.7705
一切聲聞辟支佛	-11.771
師子王	-11.771
願常	-11.7712
得增上	-11.7712
之方	-11.7713
諸法皆	-11.7717
若了	-11.7717
三倒	-11.7719
菩薩住是地	-11.772
一切塵	-11.772
亦不住	-11.772
六七八	-11.7721
安能	-11.7723
】「	-11.7724
十藏品	-11.7725
流入	-11.7725
指此	-11.7726
之福	-11.7727
常居	-11.7727
不斷菩薩行	-11.7728
常自	-11.7728
心數	-11.7729
破之	-11.7734
䟽中	-11.7734
前念	-11.7735
證滅	-11.7736
清淨業	-11.7737
文別	-11.7739
宇	-11.7739
撮	-11.774
令聞	-11.7743
異色	-11.7743
如世間	-11.7744
自度	-11.7745
善護	-11.7745
一往	-11.7745
爾時太子	-11.7746
者即前	-11.7748
前問	-11.7748
六十四	-11.7749
聞法受持	-11.775
遊入	-11.7751
菩薩摩訶薩復作是念	-11.7752
清淨善根	-11.7752
能演	-11.7753
世世	-11.7754
如來右	-11.7755
初一是	-11.7755
釋名者	-11.7756
新經	-11.7757
能說彼功德行	-11.7763
音聲忍	-11.7764
華藏品	-11.7765
之號	-11.7766
如初會	-11.7767
地動	-11.7768
徵列	-11.7769
差別因果	-11.7769
因深	-11.7771
廣大剎	-11.7771
具此三	-11.7774
標也	-11.7775
且舉	-11.7776
一念悉	-11.7776
由住	-11.7777
無私	-11.7778
生貴	-11.7779
此華	-11.778
還是	-11.778
金翅鳥	-11.778
學道	-11.7781
出生無盡	-11.7781
雜心	-11.7783
興世	-11.7783
原人	-11.7786
互現	-11.7787
微少	-11.7788
莊嚴之具	-11.7788
一乘義	-11.7788
神通境界	-11.7789
飛行	-11.779
無愧	-11.779
處俗	-11.779
而示現	-11.7791
破暗	-11.7791
菩提心故	-11.7795
樹王	-11.7796
無等住	-11.7797
重說	-11.7798
相盡故	-11.78
昨	-11.7803
亦不可得	-11.7805
喧	-11.7805
行住坐臥	-11.7805
曼	-11.7806
起慈心	-11.7807
如前引	-11.7808
俟	-11.7808
言象	-11.7809
常起	-11.7809
唯依	-11.7809
主河神	-11.7809
逕	-11.7809
暇	-11.7811
非即離	-11.7811
甚可	-11.7812
念劫圓融	-11.7813
暖	-11.7814
發無疑心	-11.7814
可度	-11.7815
軸	-11.7816
此品須來	-11.7816
所對	-11.7817
色類	-11.7817
又放光名	-11.7818
交映	-11.7818
授巳法界	-11.7819
潛流	-11.7819
有菩薩名	-11.7819
前雖	-11.782
􂗲	-11.782
受用身	-11.7821
佛所攝持	-11.7822
出無數百千億	-11.7822
示滅	-11.7823
列眾	-11.7824
所成益	-11.7824
􂘢	-11.7826
節節	-11.7826
能清淨初歡喜地	-11.7827
趣果	-11.7827
無出	-11.783
修諸善根	-11.7832
其內	-11.7834
之師	-11.7835
南無	-11.7835
那含	-11.7836
有滅	-11.7836
此時	-11.7838
四弘	-11.7839
眾患	-11.7841
一切智乘	-11.7842
有其二義	-11.7845
三忍	-11.7845
為令一切眾生皆得	-11.7845
得不壞	-11.7846
方終	-11.7847
復言	-11.7848
佛成道	-11.7849
向眾生	-11.785
攝位	-11.785
疏文有四	-11.7851
心平等	-11.7854
宜應	-11.7855
佛陀	-11.7856
相即門	-11.7857
千二百	-11.7859
何獨	-11.7861
相承	-11.7862
標列	-11.7864
答意	-11.7865
功德雲	-11.7866
三結成	-11.7867
謹	-11.7867
於一塵中	-11.7867
圓教攝	-11.7868
波羅蜜門	-11.7868
陀羅尼力	-11.7869
令解	-11.787
在定	-11.787
圓滿光明	-11.7872
皆自在故	-11.7873
相入門	-11.7873
堅固不動	-11.7874
各出	-11.7876
說華嚴	-11.7876
諸佛平等	-11.7876
普聞	-11.7879
不會	-11.7881
生厭	-11.7885
四諦品	-11.7885
菩薩種性	-11.7885
唯證	-11.7885
是名下結	-11.7886
若常	-11.7888
其道	-11.7888
能嚴	-11.7889
者帖	-11.7891
夢者	-11.7892
我知法界	-11.7896
不退輪	-11.7899
流類	-11.7901
受請	-11.7901
本自無	-11.7902
心造	-11.7902
俱不可得	-11.7902
有十三	-11.7903
闕一	-11.7903
心源	-11.7904
源底	-11.7905
初依教趣求	-11.7906
愛念	-11.7909
損害	-11.7909
三七日	-11.7911
自大	-11.7913
結可知	-11.7913
所壞	-11.7913
不窮	-11.7916
無有自性	-11.7916
所安立	-11.7916
諸善友	-11.7917
瞿	-11.7919
法燈	-11.792
准上	-11.792
眼目	-11.7921
所有境界	-11.7922
一鏡	-11.7922
離諸分別	-11.7923
亦唯	-11.7923
情計	-11.7923
喜心	-11.7924
法主	-11.7925
彼障	-11.7928
長科為	-11.793
盡無有餘	-11.793
對問	-11.7932
第三對	-11.7933
苦報	-11.7934
於戒	-11.7935
十剎	-11.7935
一行半經	-11.7937
骨髓	-11.7937
何故名為	-11.7942
遍周法界	-11.7943
三月	-11.7943
說一切佛	-11.7945
咽	-11.7945
諸障礙	-11.7946
明法品	-11.7947
念念示現	-11.7951
遠離於	-11.7951
在心	-11.7953
成忍	-11.7953
總具	-11.7955
離憂	-11.7956
宿善	-11.7956
搜	-11.7957
矯	-11.7958
覈	-11.7958
世主妙嚴品	-11.7959
福德力	-11.7959
𡨋	-11.7959
影取	-11.796
不異故	-11.796
達磨	-11.7962
是為十若諸菩薩安住其中	-11.7962
歎深	-11.7962
七卷	-11.7962
占	-11.7963
紀	-11.7964
現受	-11.7964
皆顯	-11.7966
無礙辯才	-11.7966
休捨優婆夷	-11.7966
士夫	-11.7966
覺法自性	-11.7966
頑	-11.7967
粗	-11.7967
捨離魔業	-11.7968
因德	-11.7968
故唯識云	-11.7969
別地行相	-11.7969
筌	-11.7969
觀察諸法	-11.7969
無與等者	-11.797
有罪	-11.797
疲厭	-11.7971
百分不及一	-11.7971
生芽	-11.7971
有四行經	-11.7972
庫藏	-11.7972
百千億那由他劫	-11.7972
為眾生作佛事	-11.7972
圓妙	-11.7972
映奪	-11.7972
金鈴	-11.7973
諸佛道場一切海眾	-11.7974
有十行經	-11.7974
正遍知	-11.7974
或有見	-11.7977
無殊	-11.7977
通染淨	-11.7978
成滿一切	-11.798
瀑流	-11.798
加行位	-11.7981
十二住	-11.7982
失本	-11.7983
引起	-11.7984
等字	-11.7984
佛所住	-11.7985
嚴淨一切佛剎	-11.7986
譬諭	-11.7986
徧知	-11.7986
結成正義	-11.7987
阿練若處	-11.7987
不疲	-11.7987
大火	-11.7988
無濁	-11.7989
科釋	-11.7989
若實	-11.799
下二頌	-11.7992
歎佛功德	-11.7994
此二種	-11.7994
略也	-11.7995
天主光	-11.7996
何以不	-11.7996
普見三世	-11.7998
本因	-11.7998
皆無所有	-11.7999
後二約	-11.7999
菩薩地盡	-11.8
有少	-11.8003
寶器	-11.8004
成前義	-11.8004
周迴	-11.8004
又於佛所	-11.8006
究竟彼岸	-11.8008
攝方便	-11.8008
次文	-11.8009
化樂	-11.801
生緣	-11.8011
一百四十	-11.8011
釋其相	-11.8013
國城	-11.8013
▁三攝德圓滿	-11.8013
在母胎中示現	-11.8015
示現出家	-11.8015
現事	-11.8017
總取	-11.8018
圓滿光	-11.8019
演妙音	-11.8019
假觀	-11.8019
劫火	-11.8019
次七	-11.802
二正顯	-11.8021
是為十事	-11.8021
正業	-11.8021
讚歎如來	-11.8022
大悲門	-11.8022
釋迦牟尼	-11.8023
卷經	-11.8025
皆無障礙	-11.8025
我巳	-11.8026
之情	-11.8027
於此處	-11.8027
一切菩薩功德	-11.803
助道具	-11.8031
任性	-11.8033
置於	-11.8035
得其名	-11.8036
▁薩	-11.8037
總融	-11.8039
然此十	-11.8041
初標名	-11.8041
樂觀	-11.8041
緣修	-11.8044
為增上緣	-11.8046
所揀	-11.8048
寶鬘	-11.8049
含在	-11.8051
此世界中	-11.8051
修習善根	-11.8052
十蓮華藏	-11.8053
真際	-11.8053
間錯莊嚴	-11.8054
波羅蜜道	-11.8054
事即理	-11.8056
愛染	-11.8058
賢勝	-11.8059
猶如金剛	-11.8059
如實相	-11.8059
教分	-11.806
信順	-11.806
如來藏身	-11.8061
如大雲	-11.8062
寶燄	-11.8062
圓因	-11.8062
同虗空	-11.8065
雖非	-11.8068
備矣	-11.8071
復問	-11.8073
佛子一切諸佛	-11.8073
為欲成就	-11.8074
集福德	-11.8074
能證智	-11.8075
三乘人	-11.8075
能增長	-11.8077
無依無	-11.8077
憎愛	-11.8078
別中一	-11.8078
聲聞人	-11.8079
能以方便	-11.8081
魔境	-11.8081
住此三昧	-11.8082
癡暗	-11.8084
染相	-11.8085
佛威神力	-11.8086
寶以為莊嚴	-11.8086
諸漏	-11.8087
就佛	-11.8088
求其	-11.8088
一切恭敬	-11.809
入此門	-11.809
亦各	-11.809
與一切法	-11.809
諸土	-11.809
勝鬘經	-11.8091
是佛果	-11.8091
不得自在	-11.8094
時善財下	-11.8097
有益	-11.8099
第二意	-11.8101
戒淨	-11.8103
除去	-11.8106
祖師	-11.8108
綿	-11.8108
嶺	-11.8111
啟蒙	-11.8116
今我	-11.8116
技	-11.8117
具足方便住	-11.8117
諸法相即自在門	-11.8117
奚	-11.8118
霑	-11.8118
戒體	-11.8119
真如觀	-11.8119
法所攝持	-11.812
即其事也	-11.8121
前中又二	-11.8121
其文非一	-11.8122
香山	-11.8123
莊飾	-11.8123
於中分三	-11.8123
總屬	-11.8124
▁初捴	-11.8124
如鏡中像	-11.8126
無功之智	-11.8128
能發起	-11.8129
墮落	-11.8129
光嚴	-11.8129
有一住處	-11.813
出入息	-11.813
嚴麗	-11.813
寶多羅樹	-11.8131
東南	-11.8133
妙聲	-11.8134
清淨佛剎	-11.8135
脩羅	-11.8136
是為魔業	-11.8136
軌持	-11.8136
下四頌	-11.8137
有增減	-11.8138
汝所問	-11.814
無等倫	-11.8142
四頓教	-11.8142
普賢行法	-11.8144
釋可知	-11.8145
廣演	-11.8145
法王子住	-11.8146
用成	-11.8146
聾盲	-11.815
始自	-11.8152
乃名	-11.8153
徵云	-11.8154
無染淨	-11.8158
勝定	-11.8158
妙身	-11.8159
智度論云	-11.8159
恩愛	-11.816
各有二	-11.8161
五十一	-11.8162
說十信	-11.8162
自果	-11.8162
相見道	-11.8163
根等	-11.8164
▁六戀德禮辭	-11.8168
方便說	-11.8168
而說法	-11.8169
從自	-11.8169
長養一切	-11.8171
十大願	-11.8172
佛剎微塵數世界圍繞	-11.8174
不出三	-11.8174
別解	-11.8178
餘佛	-11.8179
我已	-11.8179
菩薩初發心	-11.818
徧世間	-11.818
中三初	-11.818
習種性	-11.8182
揀別	-11.8183
從地	-11.8183
醫方	-11.8183
和悅	-11.8184
各有四	-11.8185
妙嚴品	-11.8185
如來種	-11.8187
而未知菩薩云何學菩薩行云何修菩薩	-11.8192
今正	-11.8192
一佛身	-11.8194
常轉法輪	-11.8195
諸眾	-11.8198
不謗	-11.8199
度量	-11.82
此舉	-11.8201
所招	-11.8205
此閻浮提	-11.8205
端坐	-11.8206
淨源	-11.8207
有人言	-11.8208
焰地	-11.8209
見實	-11.821
都舉	-11.8212
中別義	-11.8213
不亡	-11.8215
離別	-11.8215
牒前起後	-11.8217
聖果	-11.8219
用而	-11.822
一謂菩薩生如是心	-11.822
為人說	-11.8221
空閑	-11.8223
證成分	-11.8224
厭捨	-11.8225
此娑婆	-11.8226
不可稱說	-11.8226
廣剎	-11.8226
正體	-11.8227
集論	-11.823
果果	-11.8231
不觀	-11.8234
無𥁞	-11.8234
施時	-11.8234
寶物	-11.8236
所說法門	-11.8237
說如是法	-11.8241
次有大人相名	-11.8242
品來	-11.8242
爾所劫中	-11.8244
頓演	-11.8244
其門	-11.8244
文中有三	-11.8245
檀度	-11.8246
由內	-11.8246
境界云何	-11.825
沸	-11.8253
現大神通	-11.8256
今初先	-11.8257
十六心	-11.8261
如師子	-11.8262
之家	-11.8262
菩薩摩訶薩坐道場時	-11.8263
攝大乘	-11.8263
變壞	-11.8263
諸山	-11.8263
豆	-11.8264
為現身	-11.8265
照世間	-11.8265
康	-11.8265
老子	-11.8266
刀杖	-11.8266
屠	-11.8266
躡前起後	-11.8268
廟	-11.8269
偏舉	-11.8271
先舉論	-11.8271
阜	-11.8271
寅	-11.8272
地果	-11.8272
八萬四千煩惱	-11.8273
巡	-11.8274
周帀圍遶	-11.8275
亦不成	-11.8276
陰界入	-11.8277
大文第四	-11.8277
缺減	-11.8277
二空所顯	-11.8278
主宰	-11.8278
遙見佛來	-11.8278
嚕	-11.8279
決志	-11.828
本所事佛	-11.8282
行七步	-11.8282
無所取著	-11.8283
知一切法即心自性	-11.8284
因緣生滅	-11.8285
寂滅相	-11.8285
▁初雙標	-11.8285
珊瑚	-11.8286
恐懼	-11.8286
轉大法輪	-11.8286
見一切佛剎清淨	-11.8286
甚深智慧	-11.8288
𤼵菩提心	-11.8288
寂靜音	-11.829
摩那	-11.829
八相成道	-11.8291
表位	-11.8295
智圓	-11.8295
無量三昧	-11.8295
何故唯	-11.8297
事如理	-11.8297
受位	-11.8298
自述	-11.8298
十一偈	-11.8298
赤色	-11.83
教化一切	-11.83
會歸	-11.8301
無礙力	-11.8303
廣大光明	-11.8304
如善財童子	-11.8304
亦不壞	-11.8305
體實	-11.8306
利益眾生故	-11.8309
結德	-11.8311
律儀戒	-11.8313
決定了知	-11.8314
體性平等	-11.8314
道德	-11.8314
破其	-11.8314
能廣	-11.8315
有八萬四千	-11.8315
非淨	-11.8317
至涅槃	-11.8318
具含	-11.832
大千界	-11.832
為何義	-11.8322
億千	-11.8323
篤信	-11.8324
知眾生根	-11.8325
又解	-11.8326
有四行半經	-11.8327
就第二	-11.8328
別報	-11.8328
劫盡	-11.8329
潮	-11.8331
悉能分別知	-11.8332
愚癡闇	-11.8332
後所謂下	-11.8333
總合	-11.8334
迴向阿耨多羅三藐三菩提	-11.8334
讚其	-11.8335
無妨	-11.8335
能為眾生	-11.8335
執手	-11.8337
福力	-11.8337
莊嚴道場	-11.8337
斷結	-11.8338
二別明	-11.834
種種功德	-11.834
攝取一切	-11.8341
咸共	-11.8342
然有二意	-11.8343
偏語	-11.8345
不辨	-11.8345
體絕	-11.8347
又此四	-11.8349
此三種	-11.835
頓修	-11.8351
十二門	-11.8352
隨力	-11.8352
餘習	-11.8354
異異	-11.8354
不定故	-11.8356
之頃	-11.8358
橫計	-11.8359
他因	-11.836
坐道場時	-11.8362
昔曾	-11.8363
修方便	-11.8364
從初地	-11.8364
為度眾生	-11.8365
逈異	-11.8365
所修善根	-11.8367
自慶	-11.8367
未來諸佛	-11.8367
聲聞等	-11.8368
以定慧	-11.8368
若准	-11.8368
能受持	-11.8368
緣覺乘	-11.8369
先出	-11.8369
無寄	-11.8371
通二利	-11.8371
別句	-11.8371
勸物	-11.8374
得至一切處	-11.8375
五藏	-11.8376
示現成佛	-11.8377
悔除	-11.8377
以大願力	-11.8379
聰明	-11.838
佛壽	-11.8381
持業釋	-11.8381
出世智	-11.8381
不怯	-11.8382
一有體	-11.8383
有無等	-11.8384
我空	-11.8385
之病	-11.8385
證位	-11.8385
三謂菩薩生如是心	-11.8387
晉經云	-11.8387
諸有海	-11.8388
亦復不見	-11.8388
相生	-11.8389
人物	-11.8389
俱起	-11.839
如像	-11.839
依正無礙	-11.8392
真宗	-11.8392
長安	-11.8393
以偈讚	-11.8393
須彌山頂	-11.8395
盲人	-11.8396
未了	-11.8398
座體	-11.8399
悉皆平等	-11.84
為細	-11.8401
真界	-11.8401
心得安隱	-11.8402
而不捨離	-11.8403
會師	-11.8404
興大	-11.8406
於阿耨多羅三藐三菩提得不退轉	-11.8407
空即色	-11.8407
能開示	-11.8407
忍位	-11.8408
不護	-11.8409
未亡	-11.8411
治於	-11.8413
說四聖諦	-11.8413
供事	-11.8415
摩尼寶光明	-11.8417
得人身	-11.8417
飲酒	-11.8417
撥	-11.8418
派	-11.842
此一句	-11.842
吠	-11.8421
兮	-11.8421
岳	-11.8422
熟教	-11.8423
善財見巳	-11.8423
痴	-11.8423
耕	-11.8423
貞元	-11.8424
喚	-11.8424
二謂菩薩生如是心	-11.8424
明離障	-11.8425
匪	-11.8426
丁	-11.8426
額	-11.8426
諠	-11.8427
列十名	-11.8427
迥	-11.8428
隨何等	-11.8428
勝道	-11.8428
次二偈	-11.8428
二釋名	-11.8429
身受心法	-11.843
名為解脫	-11.8431
鬱	-11.8432
無下劣心	-11.8432
種種供養	-11.8432
普賢三昧品	-11.8432
惰	-11.8433
八十種好	-11.8434
易簡	-11.8434
勞倦	-11.8435
大悲隨順觀	-11.8435
資生之物	-11.8436
何以得知	-11.8436
色究竟天	-11.8436
轉於法輪	-11.8437
弗沙	-11.8438
無上正等菩提	-11.844
一即十	-11.844
初牒前起後	-11.844
來此	-11.844
妻妾	-11.844
詠	-11.844
所現故	-11.844
即成其佛	-11.8442
醜陋	-11.8442
未曾休息	-11.8443
無屈撓行	-11.8443
習種	-11.8444
剎海塵數	-11.8446
云何為菩薩摩訶薩	-11.8449
現其前	-11.845
對彼	-11.8451
十二部	-11.8453
親近善友	-11.8455
億佛	-11.8455
雨華	-11.8455
生天上	-11.8456
正助	-11.8458
十通品	-11.846
玄文	-11.846
難知故	-11.8461
無性為性	-11.8462
小千	-11.8462
上二皆	-11.8463
是念	-11.8464
不堅	-11.8466
四攝四無量	-11.8466
無休	-11.8468
塵境	-11.8468
離垢藏	-11.8468
無色定	-11.8468
之乘	-11.847
此菩薩成就	-11.8472
起化	-11.8474
盡未來際劫	-11.8476
一切諸趣	-11.8476
第十八	-11.8477
愚人	-11.8481
▁初標舉	-11.8481
窮法界	-11.8486
前世	-11.8487
別章	-11.8487
斷二障	-11.8488
金師	-11.8491
於中有二先	-11.8491
不離本	-11.8492
普眼法門	-11.8492
善男子譬如有人	-11.8492
無障礙住	-11.8492
往彼	-11.8495
或有國土	-11.8495
聖性	-11.8497
示諸眾生	-11.8497
四天下微塵數	-11.8499
變化土	-11.85
欲色	-11.85
惡作	-11.85
故略不	-11.8501
不可說不可說佛剎微塵數劫	-11.8505
講說	-11.8509
諸有趣	-11.851
會解	-11.851
云何名為	-11.8511
可化	-11.8511
故法華云	-11.8512
諸佛力	-11.8512
正揀	-11.8513
得安隱	-11.8514
梵住	-11.8514
物我	-11.8514
有五句	-11.8515
悉皆清淨	-11.8515
者有二義	-11.8516
記曰	-11.852
次偈頌	-11.8521
所說之法	-11.8521
更樂	-11.8521
收之	-11.8522
上地	-11.8524
三災	-11.8524
捨施	-11.8525
直語	-11.8525
時善	-11.853
通三世間	-11.8531
苦難	-11.8534
無來處	-11.8535
地獄苦	-11.8536
分析	-11.8537
入正位	-11.8538
生滅相	-11.8539
堅固身	-11.854
開悟眾生	-11.854
巳證	-11.8541
辯才門	-11.8541
次復	-11.8542
一切樂具	-11.8543
六行半經	-11.8545
乃至成佛	-11.8547
分竟	-11.8548
妄行	-11.8548
明法身	-11.8548
智慧大海	-11.8549
相屬	-11.855
無他	-11.8551
悉能分別	-11.8552
汙	-11.8552
劫轉變	-11.8552
▁二出	-11.8552
門戶	-11.8553
而言等者	-11.8557
但合	-11.8559
成上義	-11.856
縛解	-11.856
此二不二	-11.856
經家	-11.8561
無上勝	-11.8561
四威儀	-11.8562
隨染	-11.8564
亦令眾生	-11.8564
答言善男子	-11.8564
總意	-11.8565
令歸	-11.8565
雙舉	-11.8567
世間燈	-11.8568
始得	-11.8569
第六住	-11.857
大教	-11.8574
▁初示	-11.8574
一部之	-11.8575
性種	-11.8576
恭敬合掌	-11.8576
放大	-11.8577
頓說	-11.8578
不傾動	-11.8578
大方廣佛華嚴經隨疏演義鈔卷第	-11.8578
後正顯	-11.858
菩薩之行	-11.8582
躭	-11.8582
嶽	-11.8582
自然智	-11.8582
不苦不樂	-11.8584
亦合	-11.8586
枉	-11.8587
文有六	-11.8587
不重	-11.8588
魯	-11.8589
祈	-11.8589
漉	-11.859
死畏	-11.8591
無邊量	-11.8591
托	-11.8591
始終俱	-11.8592
馱	-11.8592
是根本智	-11.8592
如華	-11.8593
德業	-11.8594
有五一	-11.8594
八定	-11.8594
自在神變	-11.8594
故名為藏	-11.8595
焦	-11.8596
級	-11.8596
探	-11.8596
踈	-11.8596
嗅	-11.8596
奇哉	-11.8597
離癡亂行	-11.8597
軌範	-11.8597
隨順堅固一切善根	-11.8598
壞滅	-11.8598
寶蓮華藏師子之座	-11.8598
入劫	-11.8599
染而不染	-11.8599
􂘡	-11.8599
九次第定	-11.86
梵眾	-11.8601
湯藥	-11.8602
止觀雙運	-11.8602
悕望	-11.8602
有淺深	-11.8602
在家則	-11.8603
十佛世界微塵數	-11.8603
彩畫	-11.8603
伏忍	-11.8604
隨諸眾生心之所樂	-11.8604
祇夜	-11.8604
一心瞻仰	-11.8605
十月	-11.8605
終不能	-11.8606
一一世界海中	-11.8606
計切	-11.8607
故今釋云	-11.8607
是總相	-11.8607
啟請	-11.8607
升進	-11.8607
次有世界海	-11.8608
羣品	-11.8608
餘頌	-11.8608
大勝	-11.8609
由了	-11.8611
器中盛滿	-11.8611
舍利弗等	-11.8611
他力	-11.8611
就彼	-11.8612
安樂心	-11.8613
從多	-11.8614
廣大善根	-11.8615
至十地	-11.8616
可取	-11.8616
譯經	-11.8616
攝諸位	-11.8618
歎善財	-11.8618
大方	-11.8619
諸部	-11.8619
玄微	-11.8621
偈頌前	-11.8622
班宣	-11.8622
有六十	-11.8623
遍處	-11.8623
莫作	-11.8624
應頌	-11.8625
由親近善知識	-11.8625
九鏡	-11.8626
轉輪王位	-11.8627
興顯	-11.8629
普運	-11.8629
自分勝進	-11.8631
菩薩眷屬	-11.8634
三一偈	-11.8635
准梵本	-11.8636
何等為十所謂一切諸佛	-11.8636
了知眾生	-11.8637
受持正法	-11.8637
▁二列	-11.8641
婬欲	-11.8642
堅持	-11.8642
牛王	-11.8643
總言	-11.8644
清淨慈	-11.8644
無量善根	-11.8647
善能觀察	-11.8647
存泯	-11.8647
永盡	-11.865
即第八	-11.865
如師子王	-11.865
萬二千	-11.8652
以去	-11.8653
無量門	-11.8653
入佛境	-11.8654
自陳	-11.8655
真如性	-11.8657
樂果	-11.8658
密語	-11.8658
通舉	-11.8661
起惑	-11.8662
佛剎微塵數世界圍遶	-11.8663
非安立	-11.8663
釋曰上	-11.8664
少異	-11.8664
佛地論云	-11.8664
大智慧寶	-11.8669
體上	-11.8669
興起	-11.867
祕密藏	-11.867
世界一劫	-11.8672
餘如文自具	-11.8674
學人	-11.8675
攝護	-11.8676
雜集云	-11.8677
我唯知此菩薩	-11.8678
初結前	-11.8678
善財問	-11.868
終日	-11.868
目覩	-11.8681
義旨	-11.8682
淨身口意	-11.8684
百四十	-11.8684
直云	-11.8685
舉後	-11.8686
今鈔	-11.8686
兼通	-11.8688
不瞋	-11.8692
二際	-11.8693
前四教	-11.8693
有眾多	-11.8698
大摩尼寶	-11.8698
思想	-11.87
平正	-11.8702
法華涅槃	-11.8704
化令	-11.8708
佛加持	-11.8708
已滿	-11.8708
永斷一切	-11.8709
集果	-11.8709
義如前說	-11.871
不可說不可說佛剎極微塵數	-11.871
華嚴經云	-11.8711
仁慈	-11.8712
後一總結	-11.8715
無作智	-11.8717
兼前	-11.872
有四偈	-11.872
安住不動	-11.8721
二善男子我	-11.8721
一相無相	-11.8723
久修	-11.8724
種種名號	-11.8724
七約	-11.8724
無錯謬	-11.8726
下三門	-11.8727
誕	-11.8728
普賢廣大	-11.8728
智慧清淨	-11.8729
華嚴云	-11.873
舉身	-11.873
身恒	-11.8732
次下當	-11.8732
念劫	-11.8732
瑠璃寶	-11.8734
下句結	-11.8734
欲天	-11.8735
轉相	-11.8736
以何為	-11.8737
離繫	-11.874
其功	-11.8741
無性故空	-11.8741
同頓同實	-11.8743
兩字	-11.8744
有八句	-11.8745
禽獸	-11.8746
讚請	-11.8746
鶴	-11.8748
五圓教	-11.875
錦	-11.8751
離言說	-11.8752
人俱	-11.8753
憐	-11.8754
於中又二	-11.8754
殷重	-11.8755
鷲	-11.8755
輙	-11.8755
臭穢	-11.8755
願說	-11.8755
且就	-11.8756
彌綸	-11.8757
法界身雲	-11.8757
法日	-11.8757
牛頭	-11.8757
周匝圍繞諸佛道場一切海眾	-11.8759
無去無來	-11.8759
成就大願	-11.8759
梨耶	-11.8759
悲智相導	-11.876
三世劫	-11.876
從兜率天	-11.876
▁二正說偈	-11.876
1	-11.876
普印	-11.8761
微笑	-11.8761
不守自性	-11.8761
經本	-11.8761
橋	-11.8762
彌陀	-11.8762
憶持不忘	-11.8763
枝末	-11.8763
應知如來音聲	-11.8764
敬養	-11.8764
真諦三藏	-11.8765
灌其頂	-11.8765
此有三	-11.8766
之相也	-11.8766
色聲香味觸	-11.8767
諸惡業	-11.8767
如賢首品	-11.8767
緣滅	-11.8768
等覺位中	-11.8768
郡	-11.8768
塵內	-11.877
化樂天王	-11.877
視聽	-11.877
輪字	-11.8772
搖動	-11.8772
僮僕	-11.8773
句別	-11.8773
有五種法則能清淨初歡喜地	-11.8773
第四明	-11.8774
總彰	-11.8775
得無上菩提	-11.8776
故作是說	-11.8778
次有世界	-11.8778
幻相	-11.8778
濡首	-11.8778
涌出	-11.8779
便入	-11.8782
豈唯	-11.8782
等眾生數	-11.8783
故不相違	-11.8784
以種種方便	-11.8785
其根	-11.8787
為宣說	-11.8788
為最	-11.8788
立此名	-11.8788
鳥跡	-11.8789
所轉法輪	-11.8789
演說海	-11.8789
蒙光	-11.879
智慈	-11.8791
善根所生	-11.8791
殺盜	-11.8791
於一身	-11.8792
妄謂	-11.8793
現眾色	-11.8793
先讚	-11.8793
二不二	-11.8794
作舍	-11.8795
未離	-11.8796
良藥	-11.8798
常存	-11.88
慧觀	-11.8803
徧覆	-11.8804
有流	-11.8804
直往	-11.8806
雲網	-11.8806
始終二教	-11.8807
寶首	-11.8808
不住於	-11.8809
勝事	-11.881
此比丘尼為說法門	-11.881
道俗	-11.8813
一切眾生煩惱	-11.8814
一切智願	-11.8814
華嚴懸談會玄記卷第	-11.8814
正邪	-11.8815
毛端處	-11.8815
之塵	-11.8817
清淨國土	-11.8818
謬解	-11.882
理融	-11.8821
迴向所為	-11.8821
中但有	-11.8822
能忍受	-11.8822
觀待	-11.8824
虛誑	-11.8824
不相應行	-11.8825
妙道	-11.8825
略有二	-11.8825
乃至十	-11.8827
更求	-11.8828
隨生	-11.8829
禪門	-11.8829
新華嚴經論卷第	-11.8829
通事理	-11.8831
人天乘	-11.8832
不免	-11.8834
繫念	-11.8837
諸佛法身	-11.8841
十五日	-11.8843
為其母	-11.8844
頌文	-11.8846
離性	-11.8846
入初地	-11.8847
諸善業	-11.8848
虗空身	-11.8849
兩處	-11.8849
改易	-11.885
不自在故	-11.885
四周	-11.8851
如是等類	-11.8852
令生歡喜	-11.8852
大悲方便	-11.8859
華上	-11.8861
准例	-11.8861
諸行海	-11.8861
三有一偈	-11.8864
求不得	-11.8865
此翻為	-11.8867
惡魔	-11.8868
頓圓	-11.8868
亦復非	-11.8868
海喻	-11.8869
初歡喜地	-11.8869
莫能知	-11.8871
為一眾生	-11.8872
以普賢行	-11.8872
世事	-11.8872
見如來身	-11.8872
超一切	-11.8872
開化眾生	-11.8872
非外	-11.8876
實證	-11.8877
五力	-11.8877
天人師	-11.8879
敬順	-11.888
後徵釋	-11.8883
天眼見	-11.8884
七支	-11.8885
二世樂	-11.8885
入如來地	-11.8886
觀境	-11.8888
無欲	-11.8888
例同	-11.8889
約同教	-11.8889
說主	-11.8889
普演	-11.889
直明	-11.8891
段文	-11.8896
四十七	-11.8897
魔道	-11.8899
於現在	-11.89
數息	-11.8901
一切智法	-11.8902
何位	-11.8904
金體	-11.8905
初一是總	-11.8906
時善財童子頂禮其足	-11.8909
屏	-11.8911
炳	-11.8911
前意	-11.8914
隨難	-11.8916
如是所作	-11.8916
滑	-11.8918
片	-11.8918
暨	-11.8918
諸佛神通	-11.8918
羯磨	-11.8918
總示	-11.8918
正舉	-11.8919
晚	-11.8919
各從	-11.892
見聞覺知	-11.892
註	-11.892
胷	-11.8921
𦦨慧地	-11.8921
訛	-11.8921
經帖可知	-11.8921
蹈	-11.8922
捐	-11.8922
晉譯	-11.8922
出現世間	-11.8922
種種神變	-11.8924
方便攝行	-11.8924
不謬	-11.8924
閱	-11.8925
淤泥	-11.8925
緣慮	-11.8925
▁一心頂禮	-11.8926
三摩鉢底	-11.8926
釋總名	-11.8926
春秋	-11.8926
溫	-11.8926
經來未盡	-11.8927
增數	-11.8928
牟	-11.8929
大梵王	-11.893
未起	-11.8931
諸佛剎土	-11.8931
以法無礙智	-11.8933
產	-11.8933
三昧光明	-11.8933
咸在其中	-11.8934
七地中	-11.8935
普賢願行	-11.8935
如響忍	-11.8936
澍	-11.8937
有體無體	-11.8937
皆不離念佛	-11.8938
醫藥	-11.8939
諸菩薩摩訶薩得此五法	-11.8939
窮究	-11.8939
講堂	-11.894
攝眷屬	-11.8942
諸莊嚴	-11.8944
觀察一切法	-11.8945
而亦不捨	-11.8946
歡喜無量	-11.8946
山間	-11.8947
▁初說偈儀	-11.8949
神仙	-11.8949
得旨	-11.895
即瑜伽	-11.8952
奉持	-11.8953
令解脫	-11.8953
如來於彼或名	-11.8953
年歲	-11.8953
出生佛法道	-11.8953
觀自在菩薩	-11.8953
而不動	-11.8954
佛神變	-11.8955
三終教	-11.8955
覺道	-11.8956
圓智	-11.8958
轉深	-11.8958
初文有二	-11.8959
▁初結	-11.896
行向	-11.896
五六七	-11.8961
▁初來意	-11.8962
得一分	-11.8964
一切罪	-11.8966
蘂	-11.8966
心得清淨	-11.8967
於中初句	-11.8967
遮詮	-11.8967
羅剎王	-11.8968
無不知	-11.8972
甚清淨	-11.8972
即是法身	-11.8973
卷第一	-11.8973
以法施	-11.8973
來詣其所	-11.8973
捨命	-11.8974
教智淨	-11.8974
略有十	-11.8975
又能如是	-11.8977
因感	-11.8979
天龍夜叉	-11.8982
深思	-11.8982
不倦	-11.8986
光宅	-11.8986
留難	-11.8988
寄對	-11.8988
六會	-11.899
能悟	-11.899
約圓融	-11.8993
二列名	-11.8993
契會	-11.8994
梵網	-11.8996
合文	-11.8997
依攝論	-11.8998
門竟	-11.8999
萬劫	-11.9003
種種形	-11.9005
力無礙用	-11.9006
無相行	-11.9006
釋妨	-11.901
一念相應	-11.9013
離眾生相	-11.9015
圓機	-11.9015
▁初總釋	-11.9018
理顯	-11.9019
釋曰此即	-11.9021
次句即	-11.9021
業報身	-11.9022
大利	-11.9022
圓融自在	-11.9023
出微妙音	-11.9027
且初	-11.9028
斯等	-11.903
共住	-11.9031
逆行	-11.9035
金剛三昧	-11.9035
有力能	-11.9037
▁三結名	-11.9037
所管	-11.9038
決定知	-11.9039
貧苦	-11.904
皆須	-11.904
重敘	-11.9045
融前	-11.9049
據實	-11.9049
正約	-11.9052
不染著	-11.9052
合論	-11.9053
五行半經	-11.9053
金色光	-11.9054
有五重	-11.9054
以六相	-11.9055
法悅	-11.9058
而不得	-11.906
佛正法	-11.9062
煩惱熱	-11.9064
普賢菩薩言	-11.9068
至七地	-11.9069
得佛平等	-11.9071
若有聞	-11.9071
恒相續	-11.9073
喻喻佛	-11.9073
不局	-11.9077
何等是佛境界	-11.9078
一切諸世界	-11.9078
約終教	-11.9081
普集	-11.9081
伽藍	-11.9082
覺時	-11.9082
腸	-11.9082
攀	-11.9083
掃	-11.9084
放捨	-11.9084
肅	-11.9085
一切佛境界	-11.9086
淨無垢	-11.9087
爾時巳下	-11.9089
寒熱	-11.9089
隙	-11.909
有五偈	-11.909
必能	-11.9091
十八種	-11.9092
𦂶	-11.9093
大方廣佛華嚴經䟽鈔會本第十	-11.9093
依文	-11.9093
多用	-11.9094
撓	-11.9094
真證	-11.9094
涕	-11.9094
扇	-11.9094
覺照	-11.9094
燃	-11.9095
前際後際	-11.9095
以性融相	-11.9096
諸國	-11.9097
無礙法門	-11.9097
異類界	-11.9098
唐清涼山大華嚴寺沙門澄觀撰	-11.9098
食肉	-11.9098
准釋可知	-11.9098
祿	-11.9099
歌舞	-11.9099
天龍八部	-11.91
恬	-11.91
區分	-11.9101
作此說	-11.9102
在會	-11.9103
▁初舉論	-11.9103
善集	-11.9103
愛水	-11.9104
因成果	-11.9105
修習菩提行	-11.9106
戀慕	-11.9106
善見比丘	-11.9106
合會	-11.9106
或復施與	-11.9107
第四段	-11.9107
門闥	-11.9107
不求果報	-11.9108
誠願語	-11.9108
大盡分	-11.911
只由	-11.911
妄識	-11.9111
義語	-11.9112
總有十	-11.9114
流水	-11.9115
諸定	-11.9115
頭面敬禮	-11.9115
調達	-11.9116
寶地	-11.9117
地界	-11.9118
▁南無西方	-11.912
辨益	-11.9122
救云	-11.9122
會釋經文	-11.9123
宮殿樓閣	-11.9123
寧有	-11.9123
出家則	-11.9124
治病	-11.9124
佛告最勝	-11.9126
迷倒	-11.9127
第二禪	-11.9128
廣大自在	-11.9129
其中眾生	-11.9131
法性融通	-11.9131
長者子	-11.9132
具普賢行	-11.9132
勇猛力	-11.9133
按定	-11.9134
堅心	-11.9134
懷疑	-11.9134
不能了	-11.9134
有限	-11.9135
部類	-11.9135
恭敬供養一切諸佛	-11.9135
藏師云	-11.9138
有學	-11.914
毒害	-11.914
乖違	-11.9141
冥性	-11.9143
佛剎微塵數諸佛	-11.9145
誡勸	-11.9147
性融	-11.9148
善士	-11.9151
過咎	-11.9156
除滅一切眾生	-11.9156
即是真如	-11.9158
大法明	-11.916
徧周法界	-11.9162
住止	-11.9163
十波羅蜜中	-11.9163
總名為	-11.9163
經行處	-11.9165
下結通	-11.9168
法明門	-11.917
七勸	-11.917
斯言	-11.9173
足趺	-11.9176
以四攝	-11.9178
有七種	-11.9184
緣起無性	-11.9185
城內	-11.9186
不思議乘	-11.9187
麤相	-11.9188
復次菩薩	-11.9188
離相迴向	-11.919
解脫境界	-11.919
一毫	-11.9191
悉明見	-11.9191
南經	-11.9194
我愛	-11.9198
救護一切	-11.9199
所詮義	-11.9202
▁初會	-11.9202
初釋名者	-11.9204
無所起	-11.9207
度諸眾生	-11.9208
現種種身	-11.9208
作是說	-11.921
十一段	-11.9212
等無差別	-11.9215
先合	-11.9215
諸塵	-11.9215
無邊剎海	-11.9216
退還	-11.9228
於欲界	-11.9229
惑盡	-11.9229
或執	-11.923
一一塵	-11.9231
而升	-11.9234
各是一	-11.9237
望上	-11.9238
為網	-11.9238
遊觀	-11.9239
色根	-11.9239
至聖	-11.924
不動而	-11.9242
百世界	-11.9242
頓彰	-11.9242
無記法	-11.9244
如實法	-11.9245
針	-11.9245
一切諸國土	-11.9247
從來	-11.9249
帝王	-11.925
妙法輪	-11.925
婆須	-11.9253
攞	-11.9254
上卷	-11.9254
跛	-11.9255
鎔	-11.9255
變化海	-11.9255
八段	-11.9257
釋文中	-11.9258
嗔恚	-11.9259
藍	-11.926
踊悅	-11.926
所緣緣	-11.926
佛及菩薩	-11.9261
轂	-11.9262
如法供養	-11.9262
四衢	-11.9262
十世隔法異成門	-11.9263
麥	-11.9263
哲	-11.9263
遲速	-11.9263
貨	-11.9264
肝	-11.9264
芬	-11.9265
諸難處	-11.9266
卷中	-11.9266
受我供養	-11.9269
第一依教趣求	-11.9269
廣大解	-11.927
不來不去	-11.927
何以下徵釋	-11.927
不染而染	-11.927
活命	-11.9271
床座	-11.9271
祭	-11.9271
微言	-11.9271
欣厭	-11.9272
牢固	-11.9272
假施設	-11.9273
一切處文殊師利	-11.9274
雖具	-11.9274
唐清涼山大華嚴寺沙門澄觀述疏	-11.9275
不敢覆藏	-11.9275
無明因緣	-11.9276
若生人中	-11.9276
具菩薩行	-11.9276
始教中	-11.9277
工業	-11.9278
叢林	-11.9278
惡止	-11.9278
即觀察如來	-11.9278
此章	-11.9278
三道不斷	-11.9278
乃至百億色究竟天	-11.9279
饒益有情	-11.9279
一切菩薩諸行	-11.928
金剛圍山	-11.928
無有數	-11.9281
總結多門	-11.9283
卵生	-11.9284
該羅	-11.9285
入是三昧	-11.9286
有二分	-11.9287
巧妙方便	-11.9289
玉女	-11.9289
在家出家	-11.929
魔眾	-11.9291
善伏	-11.9293
屬佛	-11.9293
第八云	-11.9294
所行清淨	-11.9295
誦持	-11.9298
生不生	-11.9298
十住十行十迴向十地	-11.9298
閻浮提內	-11.9298
所救	-11.9299
此揀	-11.9299
無不遍	-11.9302
德深廣	-11.9302
生死大海	-11.9303
普賢法界	-11.9304
滯寂	-11.9305
以願力故	-11.9306
宣布	-11.9306
雙遣	-11.9308
無畏施	-11.9309
當地	-11.931
又此十	-11.9313
往古	-11.9315
彼此相	-11.9315
等流果	-11.9316
滅罪	-11.9317
冥加	-11.9317
寂而	-11.9318
海神	-11.9318
不可斷	-11.9319
猶存	-11.9321
十力無畏	-11.9321
眾生業報	-11.9322
與一切諸佛	-11.9324
諸佛家	-11.9326
獨立	-11.9326
始於	-11.9326
王家	-11.9328
如幻忍	-11.9328
但是一	-11.933
國人	-11.933
與佛同	-11.933
不興	-11.9331
愍傷	-11.9331
善變化	-11.9332
大勢力	-11.9333
准可知	-11.9334
十種清淨	-11.9336
中分四	-11.9336
寄同	-11.9336
合集	-11.9337
樓閣中	-11.9337
為因故	-11.934
修止	-11.9343
燈王	-11.9344
莊嚴虛空	-11.9345
一切眾寶	-11.9347
雙證	-11.9352
毫光	-11.9352
遂求	-11.9352
大分為二	-11.9353
香象	-11.9353
殷勤瞻仰辭退而	-11.9354
若有菩薩	-11.9357
何云	-11.9357
學處	-11.9357
下經文	-11.936
攝末	-11.936
十錢	-11.9361
代苦	-11.9361
攝受一切眾生	-11.9361
為眾說法	-11.9362
住持佛	-11.9363
故名大	-11.9363
所度	-11.9363
十二頌	-11.9365
自類	-11.9366
與法界等	-11.937
淨國	-11.9372
日中	-11.9373
其體性	-11.9374
普徧十方	-11.9375
六行經	-11.9375
五結	-11.9377
要當	-11.9378
廣大境界	-11.9378
讚述	-11.9378
境界善根	-11.9379
共行	-11.938
所致	-11.9382
護小乘	-11.9384
二正說	-11.9384
得往生	-11.9387
恐有	-11.9388
無熱惱	-11.9389
一一剎中	-11.9391
遠聞	-11.9391
滅眾生苦	-11.9391
我巳先發阿耨多羅三藐三菩提心	-11.9394
度脫一切	-11.9394
初地菩薩	-11.9396
緣起法界	-11.9397
所證理	-11.9402
無雜亂	-11.9405
無虧	-11.9405
信向	-11.9407
無依無作	-11.9407
究竟涅槃	-11.9407
一多相即	-11.9407
映蔽一切	-11.9409
頌前文	-11.941
人師子	-11.941
淨日	-11.9411
靜法	-11.9412
修短	-11.9414
不可思議劫	-11.9414
七十七	-11.9415
易見	-11.9416
倒惑	-11.9417
無所生	-11.9417
師子幢	-11.9417
楞嚴	-11.9417
七段	-11.9418
四輪	-11.9418
願垂	-11.942
恐人	-11.9422
無量億	-11.9423
翼	-11.9424
善了知	-11.9426
其水	-11.9426
相無相	-11.9427
疑難	-11.9428
獨存	-11.9429
除滅眾生	-11.9429
炭	-11.9429
有本云	-11.9431
較	-11.9432
年後佛當出現	-11.9432
蝶	-11.9433
賓	-11.9433
不悔	-11.9433
砂	-11.9434
悉除	-11.9435
應度者	-11.9435
安穩	-11.9436
羊鹿	-11.9436
大地獄	-11.9436
農	-11.9439
▁二解妨	-11.9439
顛倒見	-11.944
肥	-11.9441
廣如別章	-11.9441
總別同異成壞	-11.9441
華幢	-11.9441
去此	-11.9441
一成一切成	-11.9441
而有差別	-11.9442
▁至心歸命禮大方廣佛華嚴經	-11.9442
消文	-11.9442
專意	-11.9444
微細相容安立門	-11.9445
我唯下結	-11.9446
圓明具德	-11.9446
佛告阿難	-11.9446
彼世界種中	-11.9447
予	-11.9447
縱奪	-11.9447
校量顯勝	-11.9447
光明色	-11.9448
了境	-11.945
月十五日	-11.945
虛偽	-11.9451
不繫	-11.9451
得菩提心	-11.9451
地獄天子	-11.9452
剎海中	-11.9452
勝境	-11.9452
群機	-11.9452
錄疏注經	-11.9452
事善知識	-11.9453
清涼山沙門澄觀述晉水沙門	-11.9453
隨智慧行	-11.9453
摩善財頂	-11.9454
攝伏	-11.9454
華藏世界品	-11.9454
有何相	-11.9455
實行	-11.9455
何故復	-11.9456
善順	-11.9456
燈雲	-11.9461
有四門	-11.9462
欲重明此義	-11.9463
迴向行中	-11.9464
報境	-11.9464
汝等當知	-11.9464
苦患	-11.9465
或為眾生說	-11.9467
無想天	-11.9468
無量無盡	-11.9468
哀哉眾生	-11.947
乃至究竟	-11.947
隱現	-11.9473
見他	-11.9473
重擔	-11.9475
四衢道	-11.9475
可知邊際	-11.9476
別讚	-11.9477
論具云	-11.9477
一切珠	-11.9478
▁初牒前	-11.9481
無盡功德藏	-11.9482
正順	-11.9482
求索	-11.9482
色雲出	-11.9483
惡不善法	-11.9484
施作佛事	-11.9485
悉除滅	-11.9485
自從無始	-11.9485
次徵	-11.9486
能護	-11.9486
遊居	-11.9488
兩義	-11.9488
所雨	-11.9489
有三行經	-11.949
方盡	-11.9491
佛地經	-11.9492
今據	-11.9492
于時	-11.9492
有兩行半經	-11.9492
斯經	-11.9495
第二會初	-11.9495
遍友	-11.9495
淨不淨	-11.9498
故名迴向	-11.9499
想著	-11.95
永除	-11.9504
能趣入	-11.9505
守護正法	-11.9505
不思議境界	-11.9506
後善男子我	-11.9507
水精	-11.9509
無二體	-11.951
十義者	-11.9511
不休	-11.9511
而不知	-11.9511
前中初二	-11.9512
內熏	-11.9513
同生眾	-11.9516
三種意生身	-11.9517
最正覺	-11.9517
近遠	-11.952
苦痛	-11.9521
觀察法界	-11.9528
五位因果	-11.9529
喜目觀察	-11.953
此有三義	-11.953
勤方便	-11.9534
第二大段	-11.9538
觀察智	-11.9538
生住滅	-11.9543
無數品	-11.9545
諸佛剎海	-11.9547
三列釋	-11.9547
山河	-11.9553
無量神通	-11.9555
嚴淨一切世界	-11.9556
疊	-11.9557
山上	-11.9559
第二爾時	-11.9559
聞香	-11.9561
最寂靜	-11.9562
毗舍	-11.9562
經題	-11.9564
義味	-11.9565
頌半頌	-11.9565
深入如來	-11.9566
非異故	-11.9567
四句皆	-11.9568
教光	-11.9568
此十行	-11.9569
一切諸根	-11.957
無量境界	-11.957
靜處	-11.9573
至今不	-11.9575
牒名	-11.9575
迷之	-11.9576
所證法界	-11.9578
如上所	-11.9579
語言音聲	-11.9581
身量	-11.9581
千億佛	-11.9581
潤益	-11.9581
皆得自在	-11.9582
十王	-11.9582
無恚	-11.9585
我不見	-11.9585
知諸世間	-11.9585
略舉十	-11.9586
略言	-11.9587
空無邊處	-11.9589
歌讚	-11.9589
波頭摩	-11.959
論攝為	-11.959
各切	-11.959
緣生無性	-11.9592
以四攝法	-11.9592
攝諸眾生	-11.9594
威德力	-11.9595
造罪	-11.9595
結德無盡	-11.9596
若爾何	-11.9597
歎佛德	-11.9598
▁二揔	-11.9598
力勝	-11.9603
摩訶般若	-11.9603
真如相	-11.9604
非染	-11.9604
供養巳	-11.9604
列釋	-11.9605
誥	-11.9605
燄雲	-11.9606
照寂	-11.9607
短劫	-11.9608
是則名為	-11.9609
穿鑿	-11.9611
羅睺	-11.9612
凡夫二乘	-11.9612
悉周遍	-11.9612
於中十句	-11.9613
金光明經	-11.9613
故今通云	-11.9614
離一切相	-11.9615
業報佛	-11.9615
墻	-11.9617
玄談	-11.9618
首楞嚴	-11.9619
替	-11.962
曠劫	-11.962
美音	-11.9621
欲界色界無色界	-11.9621
計度	-11.9621
滿足大願	-11.9622
至心歸命	-11.9622
一長科經意	-11.9622
偈歎	-11.9622
五百聲聞	-11.9623
技術	-11.9624
此上十	-11.9624
顯現如來	-11.9624
貧賤	-11.9624
成矣	-11.9624
三十二相八十種好	-11.9625
不相雜亂	-11.9625
眼所見	-11.9625
乾竭	-11.9626
巧密語	-11.9626
大悲力	-11.9627
奉獻	-11.9628
過現未來	-11.9629
下解釋	-11.9629
令知親近善知識	-11.9629
兜率天子	-11.963
增損	-11.9631
至於彼岸	-11.9631
說華嚴經	-11.9631
消息	-11.9632
妙藏	-11.9632
三句明	-11.9632
亦不違	-11.9632
當會答	-11.9632
作加	-11.9633
轉更明淨	-11.9633
第二地中	-11.9634
業性亦如是	-11.9634
增上意樂	-11.9634
終南	-11.9635
映徹	-11.9636
▁二勝進	-11.9636
憒	-11.9637
如鳥	-11.9639
由致	-11.9639
現像	-11.964
家家	-11.9641
義同前	-11.9641
後所謂下正顯	-11.9641
一切菩薩所行	-11.9641
有求眾生	-11.9643
自立	-11.9643
引淨名	-11.9643
得無盡善根	-11.9643
千萬億	-11.9644
休捨	-11.9645
汝可往問	-11.9645
莊嚴具雲	-11.9646
但欲	-11.9646
蠲除	-11.9646
為他說	-11.9646
觀四諦	-11.9647
捨家	-11.9648
如來成正覺時	-11.9648
證實際	-11.9649
成壞劫	-11.9649
同類異類	-11.965
品內	-11.965
鈔然	-11.965
能領受	-11.9654
一乘三乘小乘	-11.9657
彼土	-11.9658
而現其前	-11.9659
障治	-11.966
具足功德	-11.9662
離邊	-11.9664
頗有	-11.9665
奉敬	-11.9666
異生性	-11.9666
故說一心	-11.9667
蒙佛	-11.9667
厭患	-11.9671
如經說	-11.9673
謂此真如	-11.9674
無作用	-11.9674
事訖	-11.9677
自性差別	-11.9677
銷滅	-11.9679
說分中	-11.9681
下三品	-11.9683
尊重心	-11.9684
處其中	-11.9686
次四頌	-11.9687
正勤	-11.9687
得法因緣	-11.9687
修六度	-11.9688
未悟	-11.969
此世界海	-11.9692
此間	-11.9692
善根廻向	-11.9695
善巧智明	-11.9695
方圓	-11.9696
中自有	-11.9697
▁初別釋	-11.97
十八不共法	-11.9701
他物	-11.9701
離憍慢	-11.9704
報佛	-11.9705
菩薩行海	-11.9708
無漏界	-11.9708
如象王	-11.9708
破惑	-11.9709
三十九品	-11.9711
引經證	-11.9711
光淨	-11.9713
天華	-11.9717
六師	-11.9717
難證	-11.9718
增修	-11.9719
起塔	-11.9721
福城	-11.9723
非虛	-11.9725
增盛	-11.9726
墮惡趣	-11.9726
何故不說	-11.9726
第二偈	-11.9727
物施	-11.9729
今初可知	-11.9729
佛弟子	-11.9729
辯相	-11.9732
復當	-11.9732
智慧神通	-11.9735
離過清淨	-11.9735
具列	-11.9736
有王名	-11.9736
下見敬諮問	-11.9738
瞋惱	-11.9741
作是念時	-11.9742
涅槃經中	-11.9747
貫之	-11.9747
就初中	-11.9748
樂說無礙智	-11.9749
義次第故	-11.9749
真實智慧	-11.9751
會上	-11.9756
微細門	-11.9757
昭	-11.9758
故上云	-11.976
師弟	-11.976
如涅槃經	-11.9761
略舉其	-11.9762
擁	-11.9762
自悟	-11.9764
邪論	-11.9764
諸界	-11.9764
散心	-11.9766
一滴	-11.9769
迷事	-11.9769
諸地功德	-11.977
清淨精進	-11.9772
既爾餘	-11.9772
愚迷	-11.9772
依止離	-11.9772
世界塵數	-11.9773
初二可知	-11.9776
名色共	-11.9776
出胎	-11.9781
類此	-11.9784
花嚴	-11.9784
陶	-11.9785
十首菩薩	-11.9787
削	-11.9788
安樂行	-11.9788
尚未	-11.979
離著	-11.9792
漩	-11.9793
神通之力	-11.9793
阿練若	-11.9794
於一切佛剎	-11.9795
略指	-11.9796
杌	-11.9796
▁二示	-11.9796
於此中	-11.9796
皆得清淨	-11.9797
謂有難言	-11.9798
腨	-11.9798
腰	-11.9798
剛強	-11.9798
參而不雜	-11.9799
䭾	-11.9799
叩	-11.9799
抑揚	-11.9799
耆婆	-11.9799
泣	-11.98
訓釋	-11.98
放大光	-11.98
窮來際	-11.98
餘可思準	-11.98
是僧耶	-11.98
漿	-11.9801
螺	-11.9801
鷄	-11.9801
瞿曇	-11.9802
不由他	-11.9803
秀	-11.9803
因陀羅網境界門	-11.9803
夫子	-11.9804
鈎	-11.9804
甘露法	-11.9804
狂亂	-11.9805
饑	-11.9805
鳥獸	-11.9805
同一體	-11.9805
擎	-11.9805
鳳	-11.9806
橋梁	-11.9806
▁􂗇	-11.9807
先標名	-11.9807
稟氣	-11.9807
燋	-11.9808
▁初合	-11.9809
迅疾	-11.9809
品末	-11.9809
求佛果	-11.9809
十日	-11.981
彼二依止	-11.981
繒綵	-11.9811
無量阿僧祇劫	-11.9811
而來集會	-11.9811
四維上下	-11.9812
鍊真金	-11.9812
最為殊勝	-11.9813
信解力	-11.9814
而我云何能知	-11.9815
七日七夜	-11.9816
亦見彼佛	-11.9817
無上尊	-11.9817
悉皆明見	-11.9818
厭惡	-11.982
於此世界	-11.9821
不知不覺	-11.9823
莫知	-11.9823
一切國土中	-11.9824
四十九	-11.9824
除惑	-11.9826
為求法故	-11.9826
三惡趣	-11.9826
所興	-11.9827
無上正真之道	-11.9827
有何差別	-11.9829
敬問	-11.983
此猶	-11.9832
習學	-11.9832
狐疑	-11.9832
演說妙法	-11.9834
乞求	-11.9834
諸佛出世	-11.9839
如夢忍	-11.984
斷絕	-11.9841
難窮	-11.9841
巧妙	-11.9841
得此法	-11.9843
教化成熟一切眾生	-11.9844
瑞應	-11.9845
諸聖教	-11.9845
人無我	-11.9846
乃至八萬四千	-11.9847
與授記	-11.9848
放無量光	-11.9848
如幻夢	-11.9851
一切外道	-11.9852
校量勝	-11.9854
各不相知	-11.9855
如是等文	-11.9856
始修	-11.9856
味著	-11.9857
出生一切諸	-11.9857
離喜	-11.9857
至佛果	-11.986
供養具	-11.9861
大智風輪	-11.9864
善財童子見	-11.9864
初釋名	-11.9866
周徧一切	-11.9866
初發菩提心	-11.9871
餘會	-11.9871
寶月	-11.9872
權教中	-11.9873
後別顯	-11.9874
眾首	-11.9875
永離世間	-11.9876
▁南無普	-11.9877
如來名號	-11.9877
[...]
