<unk>	0
<s>	0
</s>	0
。	-1.73551
故	-4.23542
者	-4.41605
謂	-5.23351
名	-5.25989
也	-5.29114
即	-5.3935
二	-5.39393
有	-5.39923
是	-5.40902
此	-5.42803
等	-5.4558
若	-5.50723
中	-5.55255
以	-5.55743
為	-5.59117
(	-5.62302
)	-5.62724
一	-5.65388
至	-5.66315
如	-5.71768
非	-5.73589
說	-5.75457
三	-5.76218
及	-5.7672
於	-5.78139
無	-5.8031
義	-5.86781
言	-5.87019
心	-5.92048
.	-5.93773
法	-5.96112
生	-5.96541
。】「	-5.9705
論	-5.97792
▁	-5.97943
相	-5.98721
。」【	-6.01515
由	-6.02059
彼	-6.02265
不	-6.04106
依	-6.09722
之	-6.10744
得	-6.14617
四	-6.14757
又	-6.21595
下	-6.21968
因	-6.23223
時	-6.25901
而	-6.28556
亦	-6.28695
或	-6.30284
起	-6.30502
問	-6.31345
行	-6.31728
與	-6.35323
答	-6.39426
唯	-6.44011
緣	-6.44575
後	-6.47508
五	-6.4831
攝	-6.50347
云	-6.53237
見	-6.54045
明	-6.54695
性	-6.55752
一切	-6.57064
其	-6.5731
如是	-6.58061
識	-6.58258
疏	-6.60409
名為	-6.61244
分別	-6.61552
菩薩	-6.65114
定	-6.65454
果	-6.66838
皆	-6.6857
受	-6.69081
體	-6.711
然	-6.72047
即是	-6.72467
通	-6.72885
初	-6.74644
所	-6.78118
智	-6.78613
雖	-6.80404
事	-6.80881
乃至	-6.80994
境	-6.81018
自	-6.81688
釋	-6.81945
色	-6.82332
處	-6.82401
身	-6.82419
餘	-6.83296
別	-6.83425
六	-6.83828
業	-6.83862
斷	-6.84611
修	-6.84746
成	-6.85689
應	-6.87674
人	-6.87701
前	-6.8809
云何	-6.8891
種子	-6.89813
煩惱	-6.90083
觀	-6.90389
能	-6.90596
意	-6.90735
差別	-6.90946
諸	-6.91407
解	-6.91821
住	-6.92559
俱	-6.94296
同	-6.94303
種	-6.96833
】	-6.97691
離	-6.98575
上	-6.98694
善	-6.99048
我	-6.99531
立	-6.99665
苦	-6.99873
已	-7.01308
作	-7.02047
取	-7.0307
則	-7.03693
滅	-7.03822
述曰	-7.0604
隨	-7.06791
相應	-7.07626
今	-7.08439
。【	-7.08586
耶	-7.09146
七	-7.09252
佛	-7.10567
令	-7.11223
現	-7.12377
從	-7.12668
故名	-7.12678
知	-7.14018
多	-7.14321
顯	-7.14504
*	-7.14813
既	-7.16376
障	-7.1669
位	-7.17538
八	-7.18975
道	-7.19084
捨	-7.19803
在	-7.2034
門	-7.20437
難	-7.20555
大	-7.21596
用	-7.21805
欲	-7.21931
入	-7.22934
無漏	-7.23474
轉	-7.23514
正	-7.25073
根	-7.25951
,	-7.26086
自性	-7.26712
分	-7.26775
證	-7.27037
此中	-7.27064
實	-7.27382
執	-7.27597
樂	-7.2788
地	-7.27926
等者	-7.28233
但	-7.2853
除	-7.29234
方便	-7.29564
文	-7.30504
第二	-7.31623
次	-7.33519
勝	-7.35231
想	-7.35336
清淨	-7.35342
具	-7.35423
由此	-7.3603
異	-7.36921
先	-7.37541
十	-7.37726
淨	-7.38055
常	-7.39047
理	-7.39548
不同	-7.39734
解脫	-7.40106
眾生	-7.40114
現行	-7.41392
空	-7.41776
巳	-7.41823
破	-7.4331
第三	-7.4342
他	-7.44579
約	-7.45419
慧	-7.45791
大乘	-7.4597
因緣	-7.46069
涅槃	-7.46836
論曰	-7.48261
可	-7.49165
分二	-7.4949
無明	-7.50227
所依	-7.51023
教	-7.51253
如來	-7.51514
有情	-7.52819
力	-7.53698
戒	-7.54244
引	-7.54622
第八	-7.54727
合	-7.54959
觸	-7.55297
思	-7.55403
有漏	-7.55665
所緣	-7.56213
釋曰	-7.56236
是名	-7.56351
過	-7.56522
外	-7.573
真如	-7.57835
愛	-7.58105
復	-7.58514
本	-7.59749
作意	-7.59787
是故	-7.60061
經	-7.60437
聲	-7.60574
總	-7.61755
意識	-7.63396
所攝	-7.63482
五識	-7.63759
世間	-7.63804
求	-7.64256
念	-7.64591
何故	-7.64678
所有	-7.64908
出	-7.65003
喻	-7.65864
施	-7.66527
界	-7.66972
一者	-7.6862
不能	-7.68703
第七	-7.69119
當	-7.69179
二者	-7.69429
次第	-7.69778
數	-7.69953
染	-7.70286
何	-7.70786
未	-7.71488
亦有	-7.72042
方	-7.72435
心所	-7.72492
對	-7.7265
異熟	-7.74096
決定	-7.74132
第四	-7.74178
九	-7.74256
諸法	-7.75639
建立	-7.76609
二種	-7.76902
成就	-7.77736
無有	-7.77825
類	-7.78196
」	-7.78889
內	-7.7904
語	-7.79269
如何	-7.79559
假	-7.79718
功德	-7.80272
第六	-7.80373
唯識	-7.80993
便	-7.81246
許	-7.81327
信	-7.81532
亦名	-7.81781
應知	-7.82489
計	-7.82492
真	-7.82516
所以	-7.82685
似	-7.82697
加行	-7.82756
辨	-7.8367
故云	-7.85199
品	-7.86132
種種	-7.86862
無量	-7.86927
欲界	-7.87013
惑	-7.88567
不得	-7.89436
因果	-7.89541
發	-7.89768
盡	-7.90196
持	-7.90197
德	-7.90211
無為	-7.9061
二明	-7.90614
共	-7.90716
相續	-7.91138
亦爾	-7.91276
現在	-7.91591
行相	-7.91705
第一	-7.91937
貪	-7.92311
當知	-7.92728
對治	-7.93855
各	-7.93914
惡	-7.9407
結	-7.94287
。△	-7.94592
順	-7.94637
相分	-7.94738
生死	-7.95084
不定	-7.9521
遠離	-7.95228
。「	-7.96749
三種	-7.97241
二乘	-7.97858
必	-7.98411
宗	-7.98649
覺	-7.98988
望	-7.99221
簡	-7.9929
有二	-7.99413
故知	-7.9952
聞	-7.9972
依止	-7.99729
能生	-8.00403
變	-8.00943
就	-8.01434
廣	-8.01679
自在	-8.01776
境界	-8.01978
據	-8.02104
章	-8.02255
圓滿	-8.02801
無記	-8.02818
重	-8.03294
為因	-8.03478
字	-8.04196
六識	-8.04274
瑜伽	-8.0442
疑	-8.04455
修習	-8.05134
增	-8.05202
天	-8.05225
一分	-8.05437
解云	-8.05585
精進	-8.06032
舉	-8.06065
遍	-8.06353
一明	-8.06981
增上	-8.07182
忍	-8.07373
趣	-8.07895
物	-8.08497
無常	-8.08621
問曰	-8.09206
依他	-8.09345
不說	-8.09617
四種	-8.09672
極微	-8.10347
極	-8.10446
復次	-8.10699
根本	-8.10773
於彼	-8.10802
頌	-8.11294
眼	-8.11463
失	-8.1152
真實	-8.11786
不生	-8.1209
三者	-8.12268
見道	-8.12407
何以故	-8.12575
亦是	-8.13115
眾	-8.13281
皆是	-8.13442
集	-8.13509
見分	-8.13544
所作	-8.14522
無間	-8.14985
平等	-8.15171
疏云	-8.15384
屬	-8.15519
不可	-8.1552
食	-8.15997
乃	-8.16851
之中	-8.17083
世	-8.17439
更	-8.17634
小	-8.17727
量	-8.17816
和合	-8.17987
為體	-8.18193
化	-8.18224
論云	-8.18412
略	-8.18602
於此	-8.18953
且	-8.18954
造	-8.19256
願	-8.19577
二釋	-8.19648
一標	-8.19818
師	-8.1994
唯有	-8.20012
蘊	-8.20157
並	-8.20255
聲聞	-8.20341
曰	-8.20399
道理	-8.21265
報	-8.21386
以為	-8.21679
思惟	-8.2189
分三	-8.22858
學	-8.23067
不善	-8.23259
要	-8.2496
究竟	-8.25219
謂於	-8.25484
所說	-8.25597
小乘	-8.25794
有義	-8.25956
此二	-8.26161
恒	-8.26257
色等	-8.26613
汝	-8.26618
觀察	-8.2665
少	-8.26954
三界	-8.27084
非是	-8.27267
法身	-8.27386
受用	-8.27489
自體	-8.27748
王	-8.27979
三性	-8.28091
所謂	-8.28186
如前	-8.28408
第五	-8.28974
伏	-8.29151
諸行	-8.29253
死	-8.29547
支	-8.29684
過去	-8.29925
五根	-8.30247
中有	-8.30287
隨順	-8.30291
句	-8.30562
十一	-8.3086
違	-8.31001
所生	-8.31321
本識	-8.31357
俱生	-8.31495
具足	-8.32479
之義	-8.32599
喜	-8.33084
故言	-8.33091
未來	-8.33718
水	-8.33996
外道	-8.34381
可知	-8.35493
相違	-8.35494
我見	-8.35733
故名為	-8.3592
自相	-8.36027
故說	-8.36327
相似	-8.36623
第八識	-8.3668
生起	-8.36948
菩提	-8.37448
、	-8.37813
安立	-8.38175
壞	-8.3822
竟	-8.38274
亦不	-8.38337
將	-8.38426
諦	-8.38534
勝解	-8.38726
細	-8.38773
三明	-8.38945
火	-8.39108
來	-8.39237
有三	-8.39314
隨眠	-8.39498
功能	-8.39727
熏習	-8.39754
聖	-8.40217
不應	-8.40369
邪見	-8.40411
若言	-8.40472
無相	-8.41207
雜染	-8.41229
不爾	-8.4148
并	-8.41746
此識	-8.4178
若爾	-8.41862
無色	-8.4224
了	-8.42348
說為	-8.42474
不成	-8.42706
色界	-8.42963
若有	-8.43138
前後	-8.4332
為性	-8.43427
亦無	-8.43516
遮	-8.43531
聚	-8.43591
寂靜	-8.43609
慢	-8.44045
尋伺	-8.4434
現前	-8.44349
設	-8.44465
麁	-8.4449
是其	-8.44505
一問	-8.44536
攝受	-8.4473
所得	-8.45141
或有	-8.45221
家	-8.45499
習	-8.45964
熏	-8.46053
還	-8.46873
名之為	-8.4719
會	-8.4868
利	-8.48967
而不	-8.49144
緣起	-8.49168
諸佛	-8.49275
同時	-8.49589
耳	-8.49635
不起	-8.50108
縛	-8.50963
稱	-8.50973
皆有	-8.51193
迷	-8.51274
全	-8.51315
亦非	-8.5148
所起	-8.51489
無別	-8.51649
藏	-8.51854
實有	-8.51923
即此	-8.5205
四者	-8.52223
遠	-8.52306
邪	-8.52475
眼識	-8.5262
作用	-8.52861
證得	-8.52921
而生	-8.52929
亦得	-8.52939
所知	-8.53213
無性	-8.53404
辯	-8.53628
一云	-8.53999
亦應	-8.54183
退	-8.54521
善法	-8.54522
八識	-8.54605
法界	-8.54926
雖有	-8.55002
親	-8.5504
無我	-8.55178
深	-8.55227
尋思	-8.55385
須	-8.55426
各別	-8.5558
過失	-8.55698
能緣	-8.55864
度	-8.56098
向	-8.56455
勝義	-8.56717
瞋	-8.56892
安住	-8.57357
乘	-8.57608
善根	-8.58313
滿	-8.58607
修道	-8.58699
增長	-8.5871
例	-8.58811
若無	-8.58868
愚	-8.59025
不言	-8.59322
尋	-8.59489
妄	-8.59534
此初也	-8.59592
於中	-8.59661
癡	-8.60034
十二	-8.60123
妙	-8.60137
說名	-8.60157
者即	-8.60169
犯	-8.60219
五種	-8.60231
猶	-8.60293
邊	-8.60344
非有	-8.60403
劣	-8.60689
兩	-8.61085
治	-8.61619
所引	-8.61664
一切法	-8.61787
出離	-8.61934
凡夫	-8.62151
最勝	-8.62445
宣說	-8.62458
有四	-8.62536
此即	-8.6266
世尊	-8.62854
豈	-8.62988
補特伽羅	-8.63012
者謂	-8.63983
一依	-8.63984
二依	-8.64133
表	-8.64554
少分	-8.64673
修行	-8.64683
異生	-8.64998
心心所	-8.65098
義故	-8.65118
猶如	-8.65796
法執	-8.65922
命	-8.66163
假立	-8.66305
一向	-8.66756
准	-8.66792
無分別智	-8.67004
三乘	-8.67484
之法	-8.6758
成熟	-8.6793
無學	-8.68287
近	-8.68434
指	-8.68515
習氣	-8.68667
止	-8.68747
為緣	-8.68873
塵	-8.69003
流	-8.69085
顛倒	-8.6931
悔	-8.69523
染淨	-8.69924
施設	-8.70363
所執	-8.70758
生故	-8.70845
變異	-8.71209
基云	-8.71209
所知障	-8.71341
顯示	-8.71484
出世	-8.71636
有無	-8.71947
子	-8.71959
十地	-8.71975
使	-8.72105
依處	-8.72206
獨	-8.72461
等流	-8.72768
之所	-8.72809
不共	-8.73024
有為	-8.73138
阿賴耶識	-8.73312
此論	-8.7333
三世	-8.73338
供養	-8.73504
世俗	-8.73896
體性	-8.74351
未得	-8.74561
有二種	-8.74569
開	-8.74778
唯是	-8.74942
善惡	-8.75064
雜	-8.75096
言說	-8.7571
不淨	-8.76048
不離	-8.76063
性故	-8.7616
影	-8.76353
共相	-8.76376
可得	-8.77033
著	-8.77079
而有	-8.77189
靜慮	-8.77197
微	-8.77238
福	-8.77271
意樂	-8.77819
三結	-8.77944
正法	-8.78067
動	-8.78112
六種	-8.78153
了知	-8.78468
離欲	-8.78473
我執	-8.78517
記	-8.78575
皆名	-8.78588
僧	-8.78653
律儀	-8.78695
譬如	-8.78798
若依	-8.79084
感	-8.7943
殊勝	-8.79447
能引	-8.79698
由彼	-8.79845
比量	-8.80015
善巧	-8.80205
流轉	-8.80231
貪等	-8.8027
漸	-8.80433
謂由	-8.80584
如此	-8.80834
五蘊	-8.8093
法故	-8.81543
無分別	-8.81645
通達	-8.81716
又云	-8.81873
兼	-8.82423
轉依	-8.82455
三摩地	-8.82518
麁重	-8.82643
不然	-8.82737
發心	-8.82746
發起	-8.83057
矣	-8.83082
不見	-8.83195
示	-8.8324
害	-8.83382
而起	-8.83409
展轉	-8.83435
遂	-8.83519
智慧	-8.83765
此是	-8.8401
罪	-8.84098
法性	-8.84154
不名	-8.84163
一一	-8.84264
味	-8.84315
影像	-8.8461
今此	-8.84721
凡	-8.85077
十種	-8.85607
能取	-8.85721
爾	-8.85766
正智	-8.85847
心王	-8.85859
風	-8.85884
初禪	-8.85947
光	-8.86171
漏	-8.86301
廣大	-8.86327
情	-8.86613
聖道	-8.86652
長	-8.86844
初地	-8.87005
一立因	-8.87324
之時	-8.87524
所以者何	-8.87544
香	-8.87666
但是	-8.87689
者意云	-8.87774
微細	-8.87889
大悲	-8.879
第七識	-8.88138
不知	-8.88165
此三	-8.88336
所餘	-8.88423
為依	-8.88893
自他	-8.89621
土	-8.90373
我法	-8.90412
現觀	-8.90427
本質	-8.90455
命根	-8.90456
息	-8.90677
現量	-8.90916
厭	-8.91186
麤	-8.91386
所變	-8.91459
安	-8.91525
若不	-8.91601
生滅	-8.91613
復有	-8.91762
轉識	-8.91934
助	-8.92004
假說	-8.92037
甚深	-8.92121
能令	-8.92153
悉	-8.92174
四大	-8.92203
不斷	-8.92278
末	-8.92369
遍計	-8.92614
此文	-8.92695
不緣	-8.92754
既無	-8.9276
染污	-8.9282
斯	-8.92881
不與	-8.93008
剎那	-8.93025
對法	-8.93333
意云	-8.9338
加	-8.93564
末那	-8.93633
任運	-8.94097
詮	-8.94318
相故	-8.94383
故曰	-8.9453
正行	-8.94609
四諦	-8.94636
標	-8.9474
俗	-8.95065
變化	-8.95087
名色	-8.95476
第六識	-8.95551
而得	-8.95592
前三	-8.95908
纏	-8.9602
諸識	-8.96021
但有	-8.96051
量云	-8.96082
所行	-8.96172
覆	-8.96188
答曰	-8.96613
諸根	-8.96617
耶答	-8.96628
種類	-8.96679
分位	-8.96819
不動	-8.96905
形	-8.96923
無礙	-8.96995
彰	-8.97003
此義	-8.97044
被	-8.97045
聖教	-8.97215
種姓	-8.97614
利益	-8.97615
往	-8.97633
以此	-8.97736
不應道理	-8.9837
一種	-8.98545
不為	-8.98545
出家	-8.98757
悲	-8.98868
益	-8.98988
十六	-8.99181
依此	-8.99205
決擇	-8.99234
於諸	-8.99318
去	-8.99368
頌曰	-8.99372
相者	-8.99563
質	-8.99743
資糧	-8.99765
各有	-8.99799
此云	-8.99811
二障	-9.00043
不取	-9.00248
又解	-9.00249
雙	-9.00341
說法	-9.00401
此說	-9.0086
諸菩薩	-9.00861
滅定	-9.00905
內外	-9.01021
無上	-9.01061
成立	-9.01101
收	-9.01125
繫	-9.01326
所言	-9.0133
地獄	-9.0136
非無	-9.01506
不許	-9.01849
釋言	-9.01889
遍計所執	-9.01916
超	-9.02136
足	-9.02236
後得智	-9.02479
主	-9.02508
般若	-9.02552
同分	-9.02578
但說	-9.02636
亦然	-9.02678
論文	-9.03094
釋云	-9.03349
即名	-9.03489
所取	-9.03582
又復	-9.03721
不依	-9.03943
上品	-9.04
何等	-9.04284
上界	-9.045
所成	-9.04808
四明	-9.04912
了別	-9.04912
熟	-9.04914
二顯果	-9.05296
歸	-9.05429
論說	-9.05475
上地	-9.05649
轉變	-9.05703
之心	-9.05884
初明	-9.06071
五者	-9.06243
十四	-9.06288
闕	-9.06294
有三種	-9.06368
散亂	-9.06403
為一	-9.06506
劫	-9.06575
不退	-9.06646
一切眾生	-9.06817
已得	-9.06882
悟	-9.06889
佛性	-9.06899
遣	-9.06913
種性	-9.0694
能熏	-9.07051
財	-9.07329
幾	-9.07378
互	-9.07448
無倒	-9.07533
不相應	-9.07601
禪	-9.07642
神通	-9.07691
得生	-9.0774
二法	-9.07745
演曰二	-9.07748
後明	-9.07995
器	-9.08044
受生	-9.08082
偏	-9.08187
阿羅漢	-9.08512
何者	-9.08525
別故	-9.08542
放逸	-9.08628
無邊	-9.08759
好	-9.08851
憂	-9.09109
音義	-9.09253
後二	-9.09263
日	-9.09304
始	-9.09323
位中	-9.09332
誰	-9.09442
本有	-9.09578
即有	-9.09631
景云	-9.09772
喜樂	-9.09828
無表	-9.09951
隨煩惱	-9.10153
謂此	-9.10229
終	-9.10405
相攝	-9.10512
自證分	-9.10609
顯現	-9.1079
前二	-9.10873
為業	-9.11099
判	-9.11106
分四	-9.11131
二答	-9.11309
必有	-9.11396
此等	-9.1154
徧	-9.11599
不捨	-9.11727
齊	-9.11849
有異	-9.1189
照	-9.11973
一切種	-9.12002
自身	-9.12134
雖無	-9.12228
別有	-9.12296
翻	-9.12339
假名	-9.12359
或復	-9.12695
然此	-9.12701
後三	-9.12803
自證	-9.12828
修慧	-9.12919
次明	-9.12991
法中	-9.13028
眼等	-9.13119
調伏	-9.13166
因中	-9.13204
總名	-9.13373
現起	-9.13479
直	-9.13694
二分	-9.13801
燈	-9.13849
有五	-9.13875
異熟果	-9.13947
思量	-9.13998
易	-9.14046
俱起	-9.14086
又此	-9.14247
執受	-9.14499
無色界	-9.14594
能斷	-9.14692
居	-9.14815
及與	-9.14897
畢竟	-9.14938
散	-9.15073
訖	-9.15077
四句	-9.15101
能障	-9.15126
第十	-9.15501
第九	-9.15807
如實	-9.15809
之相	-9.1584
寶	-9.16121
自然	-9.16237
其心	-9.16278
亦通	-9.16302
損	-9.16491
惠	-9.16664
三依	-9.16719
大種	-9.16739
進	-9.16886
彼論	-9.16892
且如	-9.16943
以彼	-9.17057
問答	-9.1721
能起	-9.17282
護	-9.17305
能持	-9.17338
唯說	-9.17403
行者	-9.17406
正見	-9.17414
樂受	-9.17524
常住	-9.17527
苦諦	-9.17687
俱有	-9.17795
利他	-9.17936
緣生	-9.17997
墮	-9.18139
六處	-9.18363
遍知	-9.18412
意說	-9.18464
與彼	-9.18482
病	-9.18485
中間	-9.18536
論云何	-9.18985
作業	-9.19088
反	-9.19162
俱時	-9.1932
不作	-9.19346
亦能	-9.1936
經說	-9.19364
地前	-9.19506
非實	-9.19899
爾時	-9.19977
後得	-9.20022
苦樂	-9.20208
永斷	-9.20251
威儀	-9.20281
輕	-9.20611
得名	-9.20662
心法	-9.20715
多分	-9.20798
有別	-9.20802
同類	-9.20888
諸煩惱	-9.20918
列	-9.20935
百	-9.21099
應非	-9.2123
二十	-9.21317
攝論	-9.21513
下地	-9.21516
無想	-9.21764
皆得	-9.21804
隱	-9.21908
應無	-9.21996
色心	-9.21998
三業	-9.22256
曾	-9.22368
亦可	-9.22472
難云	-9.22522
勢力	-9.22548
略說	-9.22561
唯取	-9.22598
救	-9.2298
一類	-9.22991
解釋	-9.23404
攝故	-9.23451
者意說	-9.23488
經中	-9.235
睡眠	-9.23534
一切煩惱	-9.23638
惡趣	-9.23666
但言	-9.23705
惱	-9.23865
體相	-9.23948
引發	-9.23998
今言	-9.24049
有學	-9.24051
上來	-9.24058
為欲	-9.24146
人天	-9.24362
勤	-9.24479
安樂	-9.24626
乎	-9.24759
生時	-9.24837
如彼	-9.24915
而無	-9.2507
增上緣	-9.25264
引生	-9.25266
佛法	-9.25271
潤	-9.25321
舊	-9.25337
初二	-9.25352
十八	-9.25499
不異	-9.2551
莊嚴	-9.25643
果報	-9.25656
煩惱障	-9.2591
三藏	-9.25952
示現	-9.2597
二云	-9.25994
能治	-9.26184
生者	-9.26237
目	-9.26256
無所	-9.26534
如是等	-9.2662
待	-9.26621
尚	-9.26687
因故	-9.26821
意根	-9.26832
七識	-9.2696
有法	-9.26987
心等	-9.26999
無心	-9.27052
偈曰	-9.27156
己	-9.27241
此四	-9.27322
處所	-9.27327
前五	-9.27424
三昧	-9.2751
當來	-9.27516
令心	-9.27542
嗔	-9.27586
過患	-9.27685
說有	-9.27839
所治	-9.27852
聖者	-9.27935
光明	-9.28094
名言	-9.28149
最後	-9.28284
後時	-9.28321
牒	-9.28436
波羅蜜	-9.28608
如次	-9.28852
十三	-9.28863
義者	-9.28953
二義	-9.28987
虛空	-9.29142
二取	-9.29238
頓	-9.29323
能為	-9.29412
能作	-9.29461
最	-9.29467
不是	-9.29658
無餘	-9.29796
此言	-9.29876
化身	-9.29988
圓	-9.30006
不信	-9.30141
所證	-9.30288
方得	-9.30489
壽	-9.30599
而非	-9.30696
護法	-9.30875
尸羅	-9.3088
勝利	-9.30885
眠	-9.30921
果故	-9.31026
能得	-9.31096
遍行	-9.31104
尋求	-9.31141
捨受	-9.31156
色法	-9.31211
而為	-9.31212
》	-9.31398
論主	-9.31423
輕安	-9.31465
為勝	-9.31689
聖人	-9.31763
達	-9.31952
即以	-9.32152
于	-9.32177
恐	-9.32452
上下	-9.32542
別相	-9.32614
次釋	-9.32762
不放逸	-9.32797
苦受	-9.32844
一時	-9.32981
獲得	-9.33194
為境	-9.33211
有餘	-9.33245
資	-9.33322
善心	-9.33366
一念	-9.33366
十五	-9.33389
況	-9.33428
得果	-9.33472
羅漢	-9.33554
愚癡	-9.33627
礙	-9.33692
能詮	-9.33837
下品	-9.33855
明知	-9.33856
外境	-9.33879
三品	-9.33901
有四種	-9.3393
惡作	-9.34019
於他	-9.34313
沒	-9.34431
無間道	-9.34579
老	-9.34904
比	-9.35258
一總標	-9.35367
不行	-9.35388
依他起	-9.35442
即無	-9.35562
長時	-9.35658
佛果	-9.35744
故非	-9.35905
述	-9.36073
最初	-9.36096
強	-9.36319
我慢	-9.36336
▁初	-9.36473
蓋	-9.36546
正義	-9.3656
之因	-9.36571
而說	-9.3675
山	-9.37032
此約	-9.37112
能變	-9.37164
頌中	-9.37193
又如	-9.37337
賴耶	-9.37346
敘	-9.3735
者即是	-9.37455
生因	-9.3746
倒	-9.37477
三釋	-9.37477
四相	-9.3756
藏識	-9.37575
通三性	-9.37599
不可得	-9.37608
者是	-9.378
定心	-9.37849
白	-9.37953
七種	-9.37992
是有法	-9.38091
而言	-9.38209
自類	-9.38445
徵	-9.38509
一法	-9.38749
敬	-9.3886
懈怠	-9.38903
為我	-9.39002
五塵	-9.39129
隨其所應	-9.39218
後有	-9.3924
所緣緣	-9.39252
擇滅	-9.39312
身心	-9.39376
四法	-9.39552
起故	-9.39574
有支	-9.39677
八種	-9.39797
執著	-9.3983
新	-9.39969
勝進	-9.39981
方能	-9.40015
皆悉	-9.40132
掉舉	-9.40142
法空	-9.40323
謂諸菩薩	-9.40691
此智	-9.40766
無體	-9.40808
非一	-9.40867
依他性	-9.40887
一切有情	-9.41008
妄想	-9.41033
伺	-9.41068
行支	-9.41134
若於	-9.41335
此定	-9.41454
造作	-9.41475
老死	-9.41489
謗	-9.41545
無知	-9.41752
一總問	-9.41775
斷惑	-9.41783
品類	-9.41842
即前	-9.41846
所顯	-9.41978
增益	-9.41984
殺	-9.42084
脫	-9.42124
非如	-9.42127
任持	-9.42402
一心	-9.42423
高	-9.42476
若約	-9.42641
領受	-9.42767
此意	-9.42782
間	-9.42911
令其	-9.42969
虛妄	-9.43002
法者	-9.43008
所詮	-9.43035
法體	-9.43061
四依	-9.43081
此名	-9.43145
純	-9.43198
由斯	-9.43215
俱行	-9.43464
輪	-9.43465
六度	-9.43623
唯一	-9.43698
解脫道	-9.43708
容	-9.43758
三寶	-9.43862
所斷	-9.4403
陰	-9.44089
眷屬	-9.44113
有體	-9.44122
所受	-9.44143
我所	-9.44164
執我	-9.4418
中說	-9.44187
殊	-9.44193
麤重	-9.44199
為果	-9.44238
乃至廣說	-9.44328
二性	-9.44336
所立	-9.44358
寬	-9.44407
即彼	-9.4445
力故	-9.44474
中品	-9.44555
經部	-9.44592
耳識	-9.44642
異熟識	-9.44654
依於	-9.44661
獨覺	-9.44689
是假	-9.44843
變易	-9.4485
慈	-9.4489
有六	-9.44945
圓成	-9.45099
測云	-9.45178
饒益	-9.45179
定有	-9.45188
惡行	-9.45331
五明	-9.45354
積集	-9.45374
世界	-9.45406
趣入	-9.45679
託	-9.45769
有說	-9.45776
伹	-9.4586
有色	-9.45995
波羅蜜多	-9.46045
惡業	-9.46139
衣	-9.4617
已下	-9.46286
彼說	-9.46331
廣說	-9.46338
戲論	-9.4634
既有	-9.46695
別釋	-9.46789
無差別	-9.46854
問何故	-9.46891
此解	-9.47043
仍	-9.47047
思擇	-9.47295
不立	-9.47317
之人	-9.47337
隨轉	-9.47355
准此	-9.47357
金	-9.47413
之言	-9.4752
大小	-9.47588
長養	-9.47622
如說	-9.47718
地中	-9.47854
不可說	-9.47985
身中	-9.48007
月	-9.48024
亂	-9.48066
脩	-9.48178
三相	-9.4818
雖復	-9.483
所造	-9.48335
寂	-9.48357
所見	-9.48429
論中	-9.4844
都無	-9.48485
令彼	-9.48501
是有	-9.48556
諸有情	-9.4874
二相	-9.48742
唯依	-9.48765
相望	-9.48878
□	-9.49039
能發	-9.4912
是實	-9.49121
道諦	-9.49129
此亦	-9.49314
本性	-9.49316
慳	-9.49448
歡喜	-9.49452
不由	-9.49454
教授	-9.49455
總結	-9.49487
不違	-9.49704
如是名為	-9.49717
棄捨	-9.49743
等無間緣	-9.4977
名曰	-9.4982
年	-9.50048
色蘊	-9.50109
業果	-9.50157
制	-9.50185
眼根	-9.50376
無異	-9.50653
青	-9.50815
寂滅	-9.50835
障礙	-9.5097
得有	-9.51025
起時	-9.51039
此釋	-9.51103
若以	-9.51314
謂諸	-9.51466
終不	-9.51495
差別者	-9.51498
部	-9.5155
得成	-9.516
明了	-9.51747
於境	-9.5182
說名為	-9.51923
門中	-9.51924
二智	-9.51963
於一切	-9.52024
身見	-9.52187
無染	-9.52205
文中	-9.52278
圓成實	-9.52283
漸次	-9.52329
讚	-9.52343
禪定	-9.52424
譬	-9.52475
千	-9.52679
業道	-9.52696
永	-9.52723
樹	-9.52857
已生	-9.52902
其義	-9.53062
於其	-9.53202
國	-9.53315
善業	-9.53328
集諦	-9.53342
無二	-9.53408
未生	-9.53642
身語	-9.53786
怖畏	-9.53814
所熏	-9.53834
能證	-9.53847
五法	-9.53967
之境	-9.53995
決	-9.54195
一處	-9.54213
招	-9.54311
謂有	-9.54507
善等	-9.54527
經云	-9.54543
自利	-9.54546
謂依	-9.54641
智者	-9.54682
斷煩惱	-9.54686
故得	-9.54729
成佛	-9.54738
請	-9.54747
初句	-9.5479
自地	-9.54856
依彼	-9.54902
能感	-9.54933
現見	-9.54942
定中	-9.54955
薩婆多	-9.54956
。」【△	-9.54977
四禪	-9.55001
總別	-9.55118
下明	-9.55243
却	-9.55499
差別故	-9.55592
云何為	-9.55809
不攝	-9.55888
若謂	-9.55931
無故	-9.56065
見取	-9.56076
三受	-9.56078
推	-9.56085
二諦	-9.56152
此依	-9.56217
三法	-9.56242
自心	-9.56242
無畏	-9.56291
堅固	-9.56354
既是	-9.56362
像	-9.56363
無所有	-9.56401
弟子	-9.56525
於前	-9.56824
為先	-9.56841
口	-9.56856
心故	-9.57187
功用	-9.57245
譬喻	-9.57504
即於	-9.57569
名等	-9.57623
有相	-9.57638
命終	-9.57662
四緣	-9.57684
唯在	-9.57696
佛地	-9.57795
斷故	-9.57812
多少	-9.57869
神	-9.57927
垢	-9.57945
六根	-9.57955
九地	-9.5798
非餘	-9.57998
數數	-9.58061
聞思	-9.58086
真諦	-9.58127
滅諦	-9.58133
勝故	-9.58301
名字	-9.58323
其相	-9.58365
信解	-9.58408
有此	-9.58453
無盡	-9.58481
和	-9.58485
緣境	-9.58583
等持	-9.58776
正理	-9.58897
傳	-9.58922
同前	-9.59023
何名	-9.59034
此明	-9.59081
皆無	-9.59211
又於	-9.59213
不了	-9.59243
音	-9.59298
迴向	-9.59327
二因	-9.59363
斷滅	-9.59391
及以	-9.59555
八地	-9.59594
不以	-9.59611
異類	-9.59636
如是一切	-9.59664
下劣	-9.59682
印	-9.59785
而住	-9.59839
性者	-9.59907
前說	-9.59909
布施	-9.59943
菩薩摩訶薩	-9.59948
前念	-9.60111
眾苦	-9.60148
理實	-9.60244
眾多	-9.60266
簡擇	-9.60281
有多	-9.6032
若是	-9.60375
演曰三	-9.60489
初解	-9.605
華	-9.60568
互相	-9.60716
緣故	-9.60881
亦如	-9.60972
段	-9.61072
演曰二明	-9.61089
前六	-9.61264
顯揚	-9.61453
有性	-9.6151
等事	-9.61588
泰云	-9.61666
半	-9.61667
又若	-9.6174
則無	-9.62269
夢	-9.62336
諍	-9.62349
亦復如是	-9.62375
由有	-9.62462
前四	-9.62483
顯了	-9.62514
闇	-9.62517
初釋	-9.62697
此人	-9.629
存	-9.62906
六者	-9.62909
如前說	-9.62935
與前	-9.62944
之體	-9.63019
無生	-9.63082
又說	-9.63083
謂彼	-9.63223
能依	-9.63339
無始	-9.63345
恭敬	-9.63402
滅故	-9.63535
▁次	-9.63587
妄執	-9.63587
沙門	-9.63602
別境	-9.63664
坐	-9.63679
諸眾生	-9.63704
父母	-9.63727
而轉	-9.63733
何得	-9.64159
能成	-9.64332
或時	-9.64343
皆能	-9.64435
餘三	-9.64487
下文	-9.64497
已說	-9.64569
狹	-9.64721
止觀	-9.64766
餘識	-9.64811
羅	-9.6483
海	-9.64905
久	-9.65014
無因	-9.65029
所緣境	-9.65118
極成	-9.65203
相見	-9.65295
應說	-9.65338
受者	-9.65381
堅	-9.65752
為相	-9.65768
體是	-9.65814
欣	-9.66004
亦如是	-9.66005
未斷	-9.66024
不通	-9.66109
云何菩薩	-9.66123
計我	-9.66162
為名	-9.66174
離繫	-9.66287
彼宗	-9.66362
更無	-9.66373
有漏無漏	-9.66441
不住	-9.66494
二答分二	-9.66692
苦集	-9.66712
夫	-9.66715
三身	-9.66719
不受	-9.66775
亦名為	-9.66787
到	-9.66793
是則	-9.66864
是彼	-9.66971
徧計	-9.6698
業種	-9.66995
此初	-9.67002
談	-9.67095
靜	-9.67102
為正	-9.67312
體用	-9.67454
故無	-9.67501
減	-9.67591
如文	-9.67619
速	-9.67624
緣彼	-9.67645
縱	-9.67732
有五種	-9.6775
演曰二釋	-9.67869
無想定	-9.67912
立名	-9.67937
非唯	-9.67976
各各	-9.68032
續	-9.68124
若離	-9.6813
般涅槃	-9.68378
或說	-9.68398
相對	-9.68481
無漏心	-9.68505
演曰後	-9.6858
等故	-9.68588
金剛	-9.6865
諸色	-9.6869
是常	-9.68705
分段	-9.68746
二地	-9.68803
奢摩他	-9.68837
四義	-9.69191
邪行	-9.69244
後釋	-9.69249
第一義	-9.6945
據實	-9.69685
貪欲	-9.69759
三學	-9.69782
怨	-9.69796
別解	-9.69864
成滿	-9.69887
契經	-9.69935
淨土	-9.69969
非彼	-9.70026
意業	-9.70067
變壞	-9.70101
俱轉	-9.70158
偈	-9.70195
普	-9.70315
念念	-9.70366
異故	-9.70408
貪愛	-9.70469
九種	-9.70477
審	-9.70488
如下	-9.70508
受持	-9.70548
如理	-9.70707
信等	-9.70734
七地	-9.7079
未能	-9.7094
憶念	-9.71011
配	-9.71099
為令	-9.71134
淨心	-9.71161
或由	-9.71178
十九	-9.7136
諸蘊	-9.71367
我今	-9.71439
法處	-9.71462
猛利	-9.71589
上二界	-9.7164
天眼	-9.71657
中有二	-9.71691
所發	-9.71718
色根	-9.71751
無罪	-9.71751
有一	-9.71792
隨應	-9.71874
勸	-9.71928
勢	-9.72011
生等	-9.72016
為二	-9.72038
為彼	-9.72072
雖不	-9.72125
此五	-9.72186
後一	-9.722
悟入	-9.7223
而能	-9.72285
今者	-9.72323
應有	-9.72336
因者	-9.72338
實無	-9.72388
所修	-9.72434
因云	-9.72449
如實知	-9.72449
三事	-9.72474
於法	-9.7253
損減	-9.72559
持戒	-9.7261
怖	-9.72651
能所	-9.72685
此顯	-9.72744
二空	-9.72841
假實	-9.7287
有十	-9.72927
境故	-9.72947
能知	-9.72974
飲食	-9.73044
《	-9.73115
從此	-9.73138
此位	-9.73266
答云	-9.73313
不變	-9.73333
唯除	-9.7336
有覆	-9.73389
方名	-9.73422
勿	-9.73431
手	-9.73439
應言	-9.73477
許有	-9.73487
不害	-9.73538
念住	-9.73586
路	-9.73588
愛樂	-9.73668
九品	-9.73776
無作	-9.73868
虗空	-9.74
體即	-9.7417
諸地	-9.74212
揔	-9.7427
能入	-9.74311
同一	-9.74317
以無	-9.74347
非想	-9.74393
?	-9.74481
無所有處	-9.74493
名義	-9.74528
有其	-9.74701
不染	-9.74746
▁【	-9.74759
廣釋	-9.74789
二果	-9.74796
比丘	-9.74799
有所	-9.74845
聞慧	-9.75001
增上果	-9.75057
二解	-9.75128
潤生	-9.75144
施等	-9.75294
大師	-9.75313
阿	-9.75342
三慧	-9.75437
有為無為	-9.75494
五陰	-9.75513
安慧	-9.75521
問云	-9.75543
此之	-9.75734
不壞	-9.75781
又彼	-9.75855
疎	-9.75868
根境	-9.7591
愛語	-9.75958
段食	-9.76029
若許	-9.76036
返	-9.76057
遇	-9.7606
女	-9.76077
發生	-9.76173
後念	-9.76195
之果	-9.76228
▁二	-9.76413
異相	-9.76413
為顯	-9.76427
皆通	-9.76496
生得善	-9.76497
一乘	-9.76531
熱	-9.76598
二執	-9.76654
愛味	-9.76722
引證	-9.76819
藥	-9.76863
忿	-9.76886
即約	-9.76965
他心智	-9.77096
五趣	-9.77122
一切皆	-9.77139
初標	-9.77145
邊際	-9.7728
身業	-9.77325
十七	-9.77334
助伴	-9.77348
四智	-9.77394
之識	-9.77396
心心所法	-9.7746
苦根	-9.77536
教法	-9.77669
觸等	-9.77679
此據	-9.77679
成實	-9.77717
穢	-9.77845
暫	-9.77908
入見道	-9.77945
異門	-9.7796
亦說	-9.77963
隨逐	-9.7797
如實了知	-9.77992
現法	-9.78022
云何名為	-9.78119
若說	-9.78215
同異	-9.78263
事業	-9.78322
即說	-9.78343
無漏種	-9.78353
業用	-9.78393
生得	-9.78442
下釋	-9.78561
地等	-9.78657
無法	-9.78797
相狀	-9.78854
法爾	-9.7886
正念	-9.7906
識等	-9.79093
行苦	-9.79129
間斷	-9.79153
等法	-9.79154
古	-9.79247
諸欲	-9.7933
分五	-9.79392
法門	-9.79435
防	-9.79471
不可思議	-9.79535
或於	-9.79634
阿賴耶	-9.79663
何不	-9.7969
瞋恚	-9.79739
此法	-9.79763
謂如有一	-9.79811
含	-9.79825
機	-9.79955
法師	-9.80071
處中	-9.80086
頌云	-9.80203
性相	-9.80213
謂即	-9.80225
義分二	-9.80319
不相應行	-9.80499
三心	-9.80604
卷	-9.80919
慚	-9.81189
受等	-9.81213
後解	-9.81291
授	-9.81322
置	-9.81366
佛說	-9.81369
意趣	-9.81409
頭	-9.8141
染法	-9.81416
偈言	-9.81433
秘	-9.8153
又有	-9.81554
昔	-9.81578
是名菩薩	-9.81598
心不	-9.81667
前七	-9.81779
法相	-9.818
隨一	-9.81818
獲	-9.81853
根本智	-9.81859
何別	-9.81868
母	-9.81898
受苦	-9.81944
煖	-9.81954
首	-9.81972
俱非	-9.82059
更不	-9.82119
串習	-9.82237
有人	-9.82272
面	-9.82293
二緣	-9.82355
不失	-9.8236
後起	-9.82402
總相	-9.82438
行故	-9.82443
他人	-9.82482
事故	-9.82513
思慧	-9.82533
婆羅門	-9.8261
同體	-9.82657
善男子	-9.82864
憍	-9.82878
致	-9.82912
染心	-9.82978
已上	-9.83098
五地	-9.83102
於現法中	-9.8317
當知亦爾	-9.83215
窮	-9.83283
申	-9.83286
應名	-9.83387
在於	-9.83394
能造	-9.83432
備	-9.83511
餘法	-9.83629
餘二	-9.83679
亦同	-9.83691
當生	-9.83694
散動	-9.83797
虛	-9.83805
見所斷	-9.83808
聽	-9.83824
之處	-9.83858
前師	-9.83858
故今	-9.83891
也言	-9.83896
他心	-9.84024
不還	-9.84173
先明	-9.84229
善趣	-9.84249
損害	-9.84299
說之為	-9.84313
興	-9.8434
分齊	-9.84343
頂	-9.84343
波	-9.84388
一切諸法	-9.84712
更有	-9.84909
領	-9.84912
不盡	-9.84924
有心	-9.85004
摩	-9.8502
第六意識	-9.85078
攝者	-9.85145
巳上	-9.85227
如法	-9.8523
憂根	-9.85278
揀	-9.85516
養	-9.85536
三地	-9.85603
勝義諦	-9.85674
正思惟	-9.85748
既言	-9.85756
諸佛菩薩	-9.85775
魔	-9.8579
梵行	-9.8582
士用	-9.85827
餘處	-9.8584
□□	-9.85896
義也	-9.85961
論言	-9.85996
退失	-9.8605
那	-9.8605
執有	-9.86273
絕	-9.86326
別說	-9.86421
出世間	-9.86477
斷除	-9.86514
見諦	-9.86533
隔	-9.86553
二略答	-9.86563
執持	-9.86567
真見道	-9.86656
有頂	-9.8667
無癡	-9.867
慚愧	-9.86824
一切時	-9.86833
增上力故	-9.86883
喻如	-9.86894
非謂	-9.86906
除遣	-9.86946
如人	-9.86993
以明	-9.87015
何以	-9.87025
分別性	-9.8718
出體	-9.87209
詞	-9.87279
論又	-9.87285
不滅	-9.87324
其實	-9.87401
令他	-9.87411
迴心	-9.87437
修學	-9.87472
轉故	-9.87524
身根	-9.87532
心生	-9.87568
定慧	-9.87572
淨信	-9.8767
異熟生	-9.87674
十八界	-9.87683
後後	-9.87712
無功用	-9.87791
有為法	-9.87819
亦緣	-9.87826
業者	-9.87897
無貪	-9.87992
滿足	-9.88029
有二義	-9.88153
如來藏	-9.88163
自下	-9.88188
率爾	-9.88205
若菩薩	-9.88268
如其次第	-9.88418
梵	-9.88446
因相	-9.88515
工巧	-9.88566
壞苦	-9.8859
既不	-9.88594
三義	-9.88659
即得	-9.88683
語言	-9.88758
憂苦	-9.88764
諸天	-9.88777
此則	-9.8878
所觀	-9.88905
得起	-9.88944
無顛倒	-9.88957
不遍	-9.88964
苾芻	-9.89006
准知	-9.89021
樂欲	-9.89101
別立	-9.89102
修集	-9.89161
今初	-9.89264
若在	-9.89481
又由	-9.89503
十二支	-9.89526
相分二	-9.89647
於中有二	-9.89717
等至	-9.89791
心中	-9.89791
生長	-9.89791
實法	-9.89805
希求	-9.89824
色身	-9.89863
則是	-9.89885
以辨	-9.90005
然後	-9.90034
分別者	-9.90089
荅	-9.90102
是實有	-9.90122
藉	-9.90134
第二解	-9.90136
五位	-9.9036
所明	-9.90395
雖是	-9.90561
若諸菩薩	-9.90584
鬼	-9.9075
之智	-9.90785
勇猛	-9.90912
下界	-9.90992
十地菩薩	-9.91064
種生	-9.91096
號	-9.91189
一句	-9.91202
利根	-9.91279
謂若	-9.91295
學處	-9.91389
論復次	-9.91403
畏	-9.91426
其體	-9.91549
推求	-9.91554
親近	-9.9167
以是	-9.91731
謬	-9.91804
漏盡	-9.92005
記別	-9.92117
此下	-9.92142
既爾	-9.92174
憶	-9.92265
故說為	-9.923
果者	-9.92484
雜集	-9.92562
豈不	-9.92563
初靜慮	-9.92623
共許	-9.92626
不約	-9.92672
得定	-9.92699
為三	-9.92725
全無	-9.92753
但以	-9.92892
故不	-9.92935
四蘊	-9.92947
梵王	-9.93023
迦	-9.93024
別義	-9.93066
諸論	-9.931
薩迦耶見	-9.93117
滅道	-9.93162
無想天	-9.93169
亦不相違	-9.93224
只	-9.93241
世諦	-9.93442
不具	-9.93455
前中	-9.93519
長行	-9.93523
以有	-9.93588
俱舍	-9.93662
住處	-9.93697
計度	-9.93723
善友	-9.93851
一由	-9.93856
單	-9.93863
諸有	-9.93893
姓	-9.94034
或可	-9.94052
有對	-9.94055
正釋	-9.94113
善不善	-9.94135
實性	-9.94186
燒	-9.94188
二禪	-9.9422
虗	-9.94222
中道	-9.94239
別名	-9.94243
染汙	-9.94247
之名	-9.94257
是何	-9.94308
能除	-9.9434
一味	-9.94374
防護	-9.94451
帶	-9.9452
一立	-9.94561
體故	-9.9458
廣明	-9.94616
方生	-9.94699
及餘	-9.94787
五相	-9.94788
甚	-9.9479
滅盡定	-9.94874
欲貪	-9.94953
歸依	-9.95015
宜	-9.95164
次辨	-9.95192
睡	-9.95329
調	-9.95365
毀	-9.95421
若據	-9.95422
非常	-9.95426
本無	-9.95476
於餘	-9.95509
滅盡	-9.95587
了義	-9.95623
當知此中	-9.95633
希望	-9.95653
諸相	-9.95769
皆依	-9.95847
相見道	-9.95867
無著	-9.95962
方起	-9.95974
在家	-9.96002
問若	-9.96021
一切行	-9.96032
此地	-9.96032
陳	-9.96099
三位	-9.96271
識體	-9.9634
無瞋	-9.96455
大眾	-9.96479
十因	-9.96516
外人	-9.9654
不如	-9.96549
責	-9.96659
為所依	-9.967
越	-9.96714
隨所	-9.96852
田	-9.96856
伴	-9.96876
第四靜慮	-9.96881
慮	-9.97008
菩提分法	-9.97107
通名	-9.97119
用故	-9.97218
不俱	-9.97235
之上	-9.97309
無記性	-9.97342
應不	-9.97388
過未	-9.97456
哉	-9.97485
清	-9.97511
但名	-9.97512
超越	-9.97548
幻	-9.97557
皆同	-9.97563
尊	-9.97585
是善	-9.97596
為他	-9.97709
人中	-9.97782
如上	-9.97842
異生性	-9.97873
五色根	-9.9788
一剎那	-9.98061
第	-9.98085
不成就	-9.98257
百法	-9.9826
一切處	-9.9831
以其	-9.98348
說言	-9.98373
為證	-9.98378
所現	-9.98399
如是如是	-9.98436
前解	-9.98447
作者	-9.98479
石	-9.9858
生老死	-9.98628
諸業	-9.98632
四地	-9.98649
之業	-9.98718
阿梨耶識	-9.98724
不相違	-9.98752
等無間	-9.98812
非真	-9.98831
由前	-9.98861
諸見	-9.98874
六波羅蜜	-9.98908
引起	-9.98966
離染	-9.99016
唯緣	-9.99051
苦苦	-9.99192
」【	-9.99198
等流果	-9.99221
生處	-9.99317
餘四	-9.99334
滅相	-9.99491
邊見	-9.99517
律	-9.99529
黑	-9.99533
多聞	-9.99549
殺生	-9.9957
凡聖	-9.99577
懷	-9.99608
於一	-9.99622
初果	-9.99691
忿等	-9.99737
是無	-9.99781
或依	-9.9982
然彼	-9.99897
鼻	-9.99916
前際	-9.99918
識支	-9.99962
能伏	-9.99963
由此因緣	-10.0005
界地	-10.0005
修多羅	-10.0012
麁細	-10.0012
即顯	-10.0014
受戒	-10.0015
為難	-10.0021
菩薩地	-10.003
由是	-10.0039
體非	-10.0042
故立	-10.0043
於自	-10.0044
為主	-10.005
總說	-10.005
捨離	-10.0052
發業	-10.0061
所計	-10.0061
平等性智	-10.0067
止息	-10.0078
十六心	-10.008
瑜伽論	-10.0081
增減	-10.0082
財物	-10.0095
此十	-10.0096
不思議	-10.0111
何須	-10.0127
及彼	-10.0138
天親	-10.0138
後結	-10.014
妨	-10.0142
相貌	-10.0143
即應	-10.0147
俱是	-10.0154
羯磨	-10.0157
變化身	-10.0157
留	-10.0165
即便	-10.017
際	-10.017
二釋分二	-10.0184
修斷	-10.0185
根塵	-10.0186
生空	-10.0199
能了	-10.0205
謂從	-10.0209
開示	-10.0209
勝處	-10.0211
二字	-10.0212
後際	-10.0214
破壞	-10.022
當知此	-10.0225
離識	-10.023
無實	-10.0231
不正知	-10.0235
又諸菩薩	-10.0236
眼等識	-10.0274
勝劣	-10.0275
愛取	-10.0275
解了	-10.0284
近分	-10.0288
非理	-10.0291
唯有漏	-10.0292
或為	-10.0293
當言	-10.0294
非色	-10.0297
即如	-10.0301
異名	-10.0305
非法	-10.0322
一體	-10.0327
亦云	-10.0332
世親	-10.0333
真俗	-10.0334
受想	-10.0334
從彼	-10.0336
故須	-10.0341
未有	-10.0345
遍滿	-10.0346
中有三	-10.0347
失念	-10.0348
立量云	-10.0351
無用	-10.0359
掉	-10.0378
以上	-10.0381
有云	-10.0388
實義	-10.0396
棄	-10.0404
摽	-10.0405
第四句	-10.0411
一切智	-10.0413
本來	-10.0417
相應故	-10.0419
今說	-10.0421
導	-10.0427
患	-10.0443
內身	-10.0451
持種	-10.0451
所由	-10.0452
釋中	-10.0455
傍	-10.0458
復說	-10.0471
論解	-10.0479
不相離	-10.0483
生彼	-10.0484
十力	-10.0486
非不	-10.05
父	-10.0509
三分	-10.0517
同事	-10.0521
即能	-10.0523
未必	-10.0532
為論	-10.0533
之理	-10.0536
內心	-10.0539
修惑	-10.0547
法智	-10.055
以下	-10.0551
奪	-10.0552
平	-10.0558
惟	-10.0561
七者	-10.0562
▁三	-10.0563
次說	-10.0566
妄語	-10.0569
唯識性	-10.0577
不可得故	-10.0582
初起	-10.0587
愧	-10.0605
詳曰	-10.0608
牛	-10.0609
背	-10.0612
俗諦	-10.0613
相縛	-10.0615
精	-10.0619
實我	-10.0619
斥	-10.062
無願	-10.062
;	-10.0622
為說	-10.0628
於諸有情	-10.0631
亡	-10.0633
法也	-10.0634
又問	-10.0646
由如	-10.0658
無上菩提	-10.066
如是等類	-10.0665
有八	-10.0671
城	-10.0683
所化	-10.0697
所依止	-10.0699
隨其	-10.0701
法無我	-10.0703
音聲	-10.0707
聲聞乘	-10.0711
准前	-10.0718
彼云	-10.0718
差	-10.072
大論	-10.072
因位	-10.0722
常見	-10.0733
已斷	-10.0734
非量	-10.0762
取境	-10.0777
因也	-10.0784
今解	-10.0789
守	-10.0795
智障	-10.0795
故成	-10.0804
二定	-10.0804
瓶	-10.081
事者	-10.0813
別報	-10.0818
等是	-10.082
皆具	-10.0826
緣覺	-10.0829
是一	-10.0831
不解	-10.0833
慈悲	-10.0836
是菩薩	-10.0839
不障	-10.0845
而行	-10.0847
何況	-10.0848
貪瞋癡	-10.0849
一義	-10.0862
之事	-10.0866
五見	-10.0875
見等	-10.0876
等相	-10.0898
出生	-10.0907
等三	-10.0908
五支	-10.091
受樂	-10.0912
二句	-10.0923
名身	-10.0927
二位	-10.0928
濁	-10.093
隨念	-10.0932
頓斷	-10.0934
是我	-10.0935
超過	-10.0937
六地	-10.0938
最上	-10.0938
第三句	-10.0939
按	-10.0939
恩	-10.0942
誑	-10.0944
菩薩戒	-10.0945
四釋	-10.0947
若彼	-10.0952
入定	-10.0957
何故不	-10.0962
如理作意	-10.0966
勤修	-10.098
生起因	-10.0981
見斷	-10.0984
欲等	-10.0986
後生	-10.0988
毘鉢舍那	-10.0989
不別	-10.0989
無失	-10.0992
譯	-10.0993
世第一法	-10.0994
有差別	-10.0997
象	-10.0998
無為法	-10.1001
覺支	-10.1002
平等智	-10.1003
密	-10.1005
六明	-10.1005
空性	-10.1006
既非	-10.1018
寧	-10.1018
大菩提	-10.102
專	-10.1021
欲樂	-10.1021
受用身	-10.1029
悔眠	-10.1029
此事	-10.103
二俱	-10.1032
造色	-10.1033
難行	-10.1047
是有漏	-10.1047
分明	-10.1049
第二明	-10.1049
若不爾者	-10.1054
何所	-10.1056
補遺	-10.1057
可說	-10.1062
方便善巧	-10.1063
逆	-10.1067
大地	-10.1069
觀待	-10.1072
蘊等	-10.1072
趣向	-10.1076
以前	-10.1081
果相	-10.1087
真實性	-10.1091
依他起性	-10.1098
聽聞	-10.1104
相好	-10.1108
十方	-10.1109
生於	-10.1115
永滅	-10.112
但由	-10.1122
意言	-10.1122
有七	-10.1127
其餘	-10.1131
三句	-10.1132
嫉	-10.1137
與果	-10.1138
心外	-10.1152
能正	-10.1155
起者	-10.1157
現識	-10.1161
散心	-10.1166
前六識	-10.1169
呪	-10.117
立為	-10.1172
一識	-10.1173
八者	-10.1174
有執	-10.1176
無漏種子	-10.1177
不須	-10.1183
盡故	-10.1186
既云	-10.1187
為有	-10.119
萬	-10.1194
四分	-10.1194
亦復	-10.1196
無垢	-10.1203
生相	-10.1204
巳下	-10.1204
增上慢	-10.1206
濫	-10.1207
前文	-10.1223
迴	-10.1225
初三	-10.123
依持	-10.1233
見者	-10.1234
唯言	-10.1239
即取	-10.1243
彼果	-10.1244
聚集	-10.1244
未起	-10.1246
巳後	-10.1256
七八	-10.126
基	-10.1262
加行道	-10.1262
法義	-10.127
經言	-10.1273
識變	-10.1275
善染	-10.1277
廣解	-10.1278
之性	-10.1279
他身	-10.1287
等起	-10.1288
繫縛	-10.1289
親生	-10.1307
餘人	-10.1309
善知	-10.1312
二見	-10.1313
堪能	-10.1322
唯無記	-10.1331
形色	-10.1334
雖非	-10.1336
不可言	-10.1336
舌	-10.1348
能對治	-10.1349
雨	-10.1356
擇	-10.1358
三苦	-10.136
文義	-10.136
或是	-10.1363
如餘	-10.1364
諸惑	-10.1365
周	-10.1366
利行	-10.1382
何妨	-10.1382
受熏	-10.1383
未盡	-10.1386
淺	-10.1391
言論	-10.1397
生已	-10.1398
果位	-10.14
局	-10.1403
不實	-10.1408
於內	-10.1409
漏無漏	-10.1414
鈍	-10.1416
三禪	-10.1424
破云	-10.1432
乖	-10.1435
色無色界	-10.1439
得入	-10.1441
有分別	-10.1443
為義	-10.1445
心所法	-10.1455
合為	-10.1458
詳	-10.1464
此師	-10.1465
料簡	-10.1466
皆由	-10.1469
變為	-10.147
密意	-10.1476
毒	-10.1476
彼彼	-10.1476
前五識	-10.1484
住持	-10.1485
合說	-10.1485
惡見	-10.1486
無漏智	-10.1487
一生	-10.1491
識種	-10.1491
為增上緣	-10.1494
正明	-10.1496
體者	-10.1499
夜	-10.1502
無義	-10.1505
義說	-10.1505
短	-10.1513
有何	-10.1516
餘如前說	-10.152
經部師	-10.1521
相中	-10.1525
若緣	-10.1525
西方	-10.153
新熏	-10.1533
二由	-10.1535
一釋	-10.1537
演曰四	-10.1541
識所變	-10.1545
演曰後明	-10.1545
不樂	-10.1552
若人	-10.1558
五果	-10.1559
三時	-10.1578
繫屬	-10.1578
唯心	-10.1583
假法	-10.1586
意地	-10.1587
正知	-10.1595
出定	-10.1601
第二句	-10.1603
衰	-10.1608
障故	-10.1617
彼計	-10.1621
若生	-10.1626
因緣故	-10.1626
瑜伽云	-10.1627
毀犯	-10.1628
作法	-10.1633
領納	-10.1637
楞伽	-10.1641
書	-10.1646
守護	-10.1654
有三義	-10.1663
不隨	-10.1671
南	-10.1677
實等	-10.1677
不著	-10.1682
具有	-10.1684
虛妄分別	-10.1686
六行	-10.1688
器世間	-10.1688
事中	-10.1695
義別	-10.1698
悉皆	-10.1706
如文可知	-10.1708
資具	-10.171
略有二種	-10.1712
有覆無記	-10.1716
化生	-10.1719
既許	-10.1726
開導	-10.1728
苦行	-10.1729
之身	-10.1732
有六種	-10.1736
能見	-10.1744
豈非	-10.1748
即為	-10.175
定無	-10.1752
欲令	-10.1756
依何	-10.1758
猶有	-10.1766
外緣	-10.1768
肉	-10.1771
智故	-10.1772
可愛	-10.1779
方成	-10.1783
戒取	-10.1787
鏡	-10.1796
五欲	-10.1801
應是	-10.1808
三根	-10.1809
斷障	-10.1815
故不說	-10.182
五因	-10.1821
第四禪	-10.1826
皆不	-10.1831
勇	-10.1838
餘皆	-10.1852
善性	-10.1852
不正	-10.186
初一	-10.1861
由是因緣	-10.1861
為四	-10.1862
此心	-10.1871
而作	-10.1871
無記法	-10.1872
非得	-10.1879
愚夫	-10.188
中云	-10.1885
為其	-10.1889
焰	-10.1892
不共無明	-10.1897
任	-10.1898
男女	-10.1898
猶豫	-10.1908
等四	-10.1908
徧計所執	-10.1911
林	-10.1914
五依	-10.1917
禮	-10.192
言無	-10.1932
次就	-10.1933
中初	-10.1941
後說	-10.1945
正解	-10.1962
三緣	-10.1962
此難	-10.1966
五門	-10.1968
犯戒	-10.1973
心起	-10.1975
疾	-10.1977
那落迦	-10.198
心者	-10.1983
妄計	-10.1988
可解	-10.1992
後方	-10.1997
何義	-10.1999
猒	-10.2002
欲界中	-10.2002
隨惑	-10.2004
有力	-10.2007
六識中	-10.2007
說彼	-10.201
行蘊	-10.2014
誠	-10.2015
正斷	-10.2022
後四	-10.2027
云何名	-10.2029
是無漏	-10.2036
等取	-10.2046
修所斷	-10.2047
果也	-10.205
真實義	-10.2051
義曰	-10.2052
虗妄	-10.2054
即通	-10.2055
若云	-10.206
世俗智	-10.2062
如前所說	-10.2068
不假	-10.2078
不待	-10.2079
最極	-10.2082
正因	-10.2082
引經	-10.2083
一異	-10.2085
一身	-10.2094
未知	-10.2097
而立	-10.2098
造論	-10.2113
梵云	-10.2116
抄	-10.2121
此上	-10.2122
眾同分	-10.2124
但為	-10.2125
出世道	-10.2128
非情	-10.2138
勘	-10.2139
經論	-10.2139
非擇滅	-10.214
福德	-10.2142
語業	-10.2152
所為	-10.2154
客	-10.2157
第三明	-10.2157
二門	-10.2158
曲	-10.216
則應	-10.216
▁「	-10.2163
不還果	-10.2164
色相	-10.2179
三門	-10.2182
去來	-10.2185
死生	-10.2186
若唯	-10.2186
中亦有	-10.2189
不轉	-10.2192
一相	-10.221
明其	-10.2218
緣者	-10.2219
第十一	-10.2224
持業	-10.223
自有	-10.2233
容有	-10.2236
大等	-10.2241
世出世	-10.2243
身土	-10.2244
王所	-10.2249
種現	-10.2262
十法	-10.2262
惛沉	-10.2263
等說	-10.227
準	-10.227
發菩提心	-10.2273
身等	-10.2276
有差別故	-10.2277
彼地	-10.2278
菩薩藏	-10.2279
芽	-10.2279
旨	-10.2285
業力	-10.2288
心無	-10.2294
乃是	-10.2295
通二	-10.2296
自性身	-10.2299
令不	-10.2299
多種	-10.2305
定力	-10.2316
以顯	-10.2318
二識	-10.2319
合響	-10.2326
入滅定	-10.2327
於欲界	-10.2329
應云	-10.233
一人	-10.2332
無常等	-10.234
熏成	-10.2343
未至	-10.2351
別緣	-10.2365
定異	-10.2367
演曰	-10.237
斷見	-10.238
論師	-10.2381
不論	-10.2382
是無常	-10.2386
有時	-10.2403
不復	-10.2404
非定	-10.2406
何緣	-10.2409
生果	-10.2414
不從	-10.2416
為斷	-10.2421
何法	-10.2422
諸惡	-10.2426
善惡業	-10.2429
貪著	-10.2439
已去	-10.2442
順決擇分	-10.2445
聖諦	-10.2453
得自在	-10.2454
可見	-10.2463
作證	-10.2466
但依	-10.2476
異地	-10.2477
恚	-10.2482
同緣	-10.2488
及諸	-10.2489
誦	-10.249
忘	-10.2491
言教	-10.2493
法華	-10.2494
我當	-10.2497
彼經	-10.2503
應當	-10.2506
應如	-10.251
識蘊	-10.251
演曰三明	-10.2514
不得名	-10.2518
五事	-10.2524
結成	-10.253
盛	-10.2532
功	-10.2536
如其所應	-10.255
所求	-10.2551
即依	-10.2552
苦果	-10.2556
疏中	-10.2564
是苦	-10.2567
此處	-10.2568
唯無漏	-10.257
說此	-10.2571
覺觀	-10.2582
類智	-10.2587
此身	-10.259
如意	-10.2591
大乘法中	-10.2593
分二如論	-10.2598
一期	-10.2598
因此	-10.2605
麤細	-10.2607
經中說	-10.2616
花	-10.262
二別	-10.2621
速疾	-10.2628
方有	-10.2632
河	-10.2644
第六識中	-10.2651
科	-10.2655
婆	-10.2657
境相	-10.266
雲	-10.2662
地上	-10.2671
為此	-10.2675
淨法	-10.2675
運	-10.2682
同故	-10.2686
但約	-10.2688
頌言	-10.2693
是也	-10.2694
中無	-10.2695
一切世間	-10.2696
無慚	-10.2698
變似	-10.2703
當知是名	-10.2707
十二處	-10.2708
則有	-10.2726
得清淨	-10.2727
但取	-10.2732
內法	-10.2732
因明	-10.2732
無明支	-10.2741
釋成	-10.2744
離諸	-10.2745
竝	-10.2748
廣分別	-10.2748
理趣	-10.2754
亦依	-10.2755
瑜伽師地論	-10.2755
圓成實性	-10.2756
釋論	-10.2756
總聚	-10.2758
二十二	-10.2759
令得	-10.2762
厭離	-10.2766
觀心	-10.2772
是為	-10.2773
四行	-10.2789
問此	-10.279
利養	-10.2794
結前	-10.2795
有我	-10.2803
莫	-10.2803
隨彼	-10.2804
之行	-10.2811
復言	-10.2815
於我	-10.2816
亦為	-10.2818
巧	-10.282
尼	-10.2825
六塵	-10.2825
金剛心	-10.2827
寄	-10.2828
能受	-10.2829
共有	-10.2831
四果	-10.2834
色處	-10.2839
成辦	-10.284
諸受	-10.2843
為所緣	-10.2843
能與	-10.2845
救云	-10.2846
巳得	-10.2846
三處	-10.2849
諸善	-10.2852
美	-10.2866
中攝	-10.2866
攝持	-10.2868
隨義	-10.2868
稍	-10.2873
有因	-10.2877
自利利他	-10.288
我愛	-10.2894
為對治	-10.2901
士夫	-10.2901
佛身	-10.2903
別明	-10.2908
若由	-10.2914
似彼	-10.2919
離言	-10.2921
聞熏習	-10.2929
廣說乃至	-10.2937
空處	-10.2946
此因	-10.2948
士用果	-10.2952
骨	-10.2952
滅時	-10.2958
種故	-10.2959
陀	-10.2961
薄	-10.2962
都	-10.2968
如論	-10.2968
廢立	-10.2968
聲聞緣覺	-10.2969
惡法	-10.297
如言	-10.2971
應成	-10.2978
疑惑	-10.2986
一品	-10.2987
初正釋	-10.299
欲界繫	-10.2995
之意	-10.2998
勝進道	-10.2998
為喻	-10.3004
各異	-10.3013
自下第二	-10.3016
有漏心	-10.3017
餘乘	-10.3022
更互	-10.3029
云何應知	-10.303
積聚	-10.303
律儀戒	-10.303
惡道	-10.3037
緣義	-10.3047
不可知	-10.3048
即於此	-10.3056
鈍根	-10.306
定地	-10.3065
木	-10.3076
列名	-10.3081
難陀	-10.3086
一切種子	-10.3089
哀愍	-10.3089
氣	-10.3089
男	-10.3093
偏說	-10.3101
義中	-10.3102
集論	-10.3106
無漏法	-10.3122
端	-10.3123
飲	-10.3124
俱有依	-10.3127
能顯	-10.3129
見惑	-10.3131
為本	-10.3132
論如是	-10.3134
憍慢	-10.3134
中所有	-10.3136
二辯	-10.3136
不順	-10.3141
作意思惟	-10.3144
並是	-10.3146
淨戒	-10.3148
今以	-10.3153
一个	-10.316
倍	-10.3161
唯約	-10.3162
彼法	-10.3166
無漏道	-10.3167
成唯識論	-10.3171
心一境性	-10.3177
合為一	-10.3184
已後	-10.3193
聖智	-10.3196
與此相違	-10.32
了達	-10.3206
利樂	-10.3206
恒行	-10.3208
等智	-10.3208
世間道	-10.3213
杖	-10.3213
攝論云	-10.3214
錯	-10.3218
分為二	-10.3222
必無	-10.3222
四事	-10.3223
別也	-10.3225
初中	-10.323
如如	-10.3237
壽命	-10.3241
何處	-10.3247
現有	-10.325
俱無	-10.3255
惣	-10.3274
微妙	-10.3276
若取	-10.3281
見相	-10.3281
於一切法	-10.3291
那含	-10.3293
總是	-10.33
堪	-10.3306
即與	-10.331
此乃	-10.3321
徧行	-10.3323
煩𢙉	-10.3328
應身	-10.3328
不求	-10.3333
為因緣	-10.3341
五識中	-10.3341
以理	-10.3344
已滅	-10.3357
遊	-10.3359
諂	-10.3365
生苦	-10.3368
還滅	-10.3374
○	-10.3377
我等	-10.338
:「	-10.3383
白法	-10.3385
之用	-10.3386
加行智	-10.3389
大乘中	-10.339
七日	-10.3393
定故	-10.3394
今依	-10.3396
如實智	-10.3399
時分	-10.34
六釋	-10.3402
無覆無記	-10.342
不及	-10.3422
於所	-10.3425
後果	-10.3426
通三界	-10.3427
非正	-10.3431
不現	-10.3433
而成	-10.3434
現法樂住	-10.3442
難曰	-10.3444
此二種	-10.3448
下結	-10.3449
行中	-10.3449
其性	-10.3449
皆以	-10.3451
可言	-10.3453
一因	-10.3454
通無漏	-10.3455
立量	-10.3465
人執	-10.3476
必依	-10.3483
熏種	-10.3484
成所作智	-10.3486
三德	-10.3489
是果	-10.3494
別者	-10.3496
為是	-10.3496
可爾	-10.3501
伽	-10.3502
非我	-10.3502
自宗	-10.3507
先說	-10.3509
異性	-10.351
皆應	-10.3512
改	-10.3513
成唯識	-10.3518
唯有識	-10.3526
演曰後釋	-10.353
所收	-10.3531
於後	-10.3535
龍	-10.3539
□□□	-10.3541
彼執	-10.355
後智	-10.355
初問	-10.3553
馬	-10.3558
於心	-10.3572
遍計所執自性	-10.3573
起於	-10.3574
次約	-10.3588
希	-10.3592
不過	-10.3592
故不相違	-10.3593
欣樂	-10.3597
之道	-10.3599
安隱	-10.36
十信	-10.36
二約	-10.3603
當果	-10.3606
現在前	-10.3612
無違	-10.3612
猶未	-10.3613
葉	-10.3617
逼	-10.3621
青等	-10.3622
能現	-10.363
此為	-10.3632
由於	-10.3634
軌	-10.3636
權	-10.3638
一名	-10.3642
所應	-10.3643
士	-10.3647
無自性	-10.365
迷理	-10.3651
臥	-10.3651
能攝	-10.3655
言之	-10.3658
憐愍	-10.3659
也問	-10.3666
往來	-10.3678
有漏法	-10.3685
顯色	-10.3686
覺知	-10.3689
未證	-10.3693
契	-10.3694
體也	-10.3694
初生	-10.3695
若起	-10.3709
四塵	-10.3713
壽量	-10.3716
二品	-10.3722
得涅槃	-10.3724
非實有	-10.3725
初定	-10.3726
覺悟	-10.3729
乞	-10.3741
歷	-10.3743
三無性	-10.3749
初師	-10.3751
義利	-10.3753
於身	-10.3756
謂前	-10.376
我我所	-10.376
大造	-10.3767
亦由	-10.3767
賢	-10.377
總標	-10.3771
撥無	-10.3778
得解脫	-10.3783
六七	-10.3801
有想	-10.3811
執為	-10.3812
所學	-10.382
悅	-10.3822
無別體	-10.3825
今取	-10.3829
依主	-10.383
毘曇	-10.3831
假有	-10.3831
持業釋	-10.3837
蛇	-10.3839
不遮	-10.384
尊重	-10.3842
避	-10.3842
有實	-10.3844
薪	-10.3847
實相	-10.3847
何為	-10.3867
前之	-10.3868
宗中	-10.3869
所持	-10.3873
自分	-10.3875
不空	-10.3876
提	-10.3876
意顯	-10.3886
此一門竟	-10.3887
演曰三釋	-10.3888
身命	-10.3889
為食	-10.389
是名為	-10.3897
教理	-10.3898
滅壞	-10.3902
狀	-10.3902
暗	-10.3907
預流	-10.3909
斷彼	-10.3909
相從	-10.3909
無餘涅槃	-10.3909
恨	-10.391
行等	-10.3911
濕	-10.3917
計所執	-10.3917
趣生	-10.3923
如唯識	-10.393
之與	-10.3935
若依成實	-10.3935
廢	-10.3938
三識	-10.3942
身口	-10.3946
能招	-10.3951
無此	-10.3956
二說	-10.3961
謂能	-10.3964
不律儀	-10.3968
數論	-10.3968
法施	-10.3971
煩	-10.3973
隨緣	-10.3975
等覺	-10.3977
簡別	-10.3978
第二師	-10.398
論謂	-10.3985
相應者	-10.3989
此性	-10.3993
聲等	-10.3997
自性差別	-10.3998
由此道理	-10.4
妙智	-10.4012
種子生	-10.4013
能觀	-10.4014
同處	-10.4017
供	-10.4018
名無	-10.4018
陀羅尼	-10.4019
如疏	-10.4021
根本煩惱	-10.4023
之色	-10.4026
三由	-10.403
聞法	-10.4031
一境	-10.4033
性境	-10.4037
二界	-10.4039
三類	-10.4042
依義	-10.4043
比知	-10.4048
識住	-10.4053
彼文	-10.4053
即不	-10.4056
舍	-10.4065
義分三	-10.4066
相雜	-10.4066
第三解	-10.4069
三十	-10.4072
自知	-10.4078
到彼岸	-10.4079
顯此	-10.408
生無色界	-10.4086
別破	-10.4086
撥	-10.4099
相分三	-10.41
能破	-10.4104
分六	-10.4108
修定	-10.411
不自	-10.4118
轉者	-10.4121
六因	-10.4123
便成	-10.4124
修治	-10.4142
異熟心	-10.4147
有苦	-10.4148
積	-10.4149
總緣	-10.415
勝定	-10.4151
菩薩於	-10.4152
冥	-10.4156
觀行	-10.4157
不出	-10.416
我故	-10.4162
幾是	-10.4163
名句文	-10.4163
皮	-10.4167
相屬	-10.4172
識中	-10.4173
宮	-10.418
缺	-10.4181
但緣	-10.4188
斷盡	-10.4196
菩提心	-10.4199
二乘人	-10.4201
便有	-10.4204
是前	-10.4204
儀	-10.4208
如前應知	-10.4209
等也	-10.421
為除	-10.4219
次解	-10.4221
惠施	-10.4226
造業	-10.4227
猛	-10.4235
聽法	-10.4236
前言	-10.4238
拔	-10.4238
此破	-10.4239
相現	-10.4245
五取蘊	-10.4247
勝行	-10.4255
所繫	-10.4256
決擇分	-10.4258
名有	-10.426
入涅槃	-10.4267
訶	-10.427
牽引	-10.427
能執受	-10.4274
有用	-10.4277
涅槃經	-10.4279
身者	-10.428
禁戒	-10.4291
設有	-10.4293
外色	-10.4293
四善根	-10.4294
眾緣	-10.4297
不唯	-10.4302
三總結	-10.4303
黃	-10.4315
世俗有	-10.4318
有九	-10.432
與此	-10.4321
舍利弗	-10.4321
相違因	-10.4322
如所	-10.4323
第四定	-10.433
七支	-10.433
正定	-10.433
良以	-10.4345
離於	-10.4345
二支	-10.4348
節	-10.435
後別	-10.4352
攝取	-10.4356
不平等	-10.4362
善行	-10.437
不自在	-10.4371
珠	-10.4378
三和	-10.438
毘奈耶	-10.4381
初總	-10.4381
鏡智	-10.4383
夢中	-10.4384
識者	-10.4385
之者	-10.4385
以之為	-10.4387
九者	-10.4389
演曰二辯	-10.4394
通漏無漏	-10.4397
於苦	-10.4398
今時	-10.44
廣辨	-10.44
數習	-10.44
若諸	-10.4405
)。△	-10.4413
根等	-10.4415
業感	-10.4419
威德	-10.4423
勝者	-10.4427
與識	-10.443
是心	-10.4437
說云	-10.4443
沙	-10.4443
無所得	-10.4446
集起	-10.4446
遍處	-10.4449
別體	-10.4451
其身	-10.4455
暫時	-10.4455
次下	-10.446
誹謗	-10.4461
序	-10.4468
若執	-10.4472
真智	-10.4473
過去未來	-10.448
諸佛如來	-10.4483
是無記	-10.4492
次句	-10.4498
▁次釋	-10.4498
逼迫	-10.4507
無始時來	-10.4508
便無	-10.4508
總報	-10.4512
為得	-10.4522
可名	-10.4524
不相	-10.4533
隨心	-10.4534
方始	-10.4535
苦故	-10.4535
見有	-10.4539
緣真如	-10.454
牒前	-10.4543
為首	-10.4549
二十四	-10.4549
無記心	-10.455
行施	-10.455
唯善	-10.4554
餓鬼	-10.4555
華嚴	-10.4556
二乘無學	-10.4557
初發心	-10.4564
便能	-10.4566
生上	-10.4569
等言	-10.4574
雖說	-10.4578
別起	-10.4581
二邊	-10.4583
無動	-10.4583
正受	-10.4585
執取	-10.4588
初約	-10.4596
聞思修	-10.4597
即非	-10.4599
染著	-10.4599
但云	-10.46
為根	-10.4605
若見	-10.4605
思之	-10.4608
加行善	-10.4609
無心位	-10.4613
因生	-10.4617
諸有情類	-10.4625
佛菩薩	-10.4626
生天	-10.4627
施與	-10.4631
不離識	-10.4632
未來世	-10.4635
此頌	-10.4637
身故	-10.4638
真理	-10.4644
染污心	-10.4649
迦葉	-10.4651
非斷	-10.4655
未曾	-10.466
依如毘曇	-10.466
毘	-10.4661
智力	-10.4661
苦惱	-10.4663
覺了	-10.4664
等名	-10.4667
逼惱	-10.467
界繫	-10.4671
阿含	-10.4685
微塵	-10.4687
之過	-10.4692
三因	-10.4692
親所緣緣	-10.4693
引攝	-10.4697
玄	-10.47
邪執	-10.4701
心意識	-10.4705
生死涅槃	-10.4707
所分別	-10.4709
能緣心	-10.4712
:	-10.4715
測	-10.4716
難可	-10.4719
作此	-10.4723
佛土	-10.4724
第十地	-10.4724
不苦不樂	-10.473
疏主	-10.4741
外法	-10.4743
鄣	-10.4744
是識	-10.4746
加行位	-10.4751
因義	-10.4752
此亦如是	-10.4754
善修	-10.4758
恒常	-10.4762
始從	-10.4771
見相二分	-10.4771
百千	-10.4784
不寂靜	-10.4789
然非	-10.4792
斷者	-10.4793
二道	-10.4794
實體	-10.4812
修善	-10.4818
利益安樂	-10.4826
彼天	-10.4826
心住	-10.483
錄	-10.4834
大願	-10.4835
不染污	-10.4843
實事	-10.4844
六法	-10.4844
源	-10.4865
無明住地	-10.4871
若欲	-10.4872
四道	-10.4873
彼處	-10.4876
又言	-10.4881
皆非	-10.4881
取蘊	-10.4883
與餘	-10.4883
辭	-10.4884
俱名	-10.4887
為所緣緣	-10.4887
定障	-10.4897
若非	-10.4897
表色	-10.4899
。《	-10.4899
種子故	-10.49
福智	-10.4903
番	-10.491
便生	-10.4912
僧祇	-10.4915
世俗諦	-10.4916
熾然	-10.4919
有漏善	-10.492
緣縛	-10.4925
可有	-10.4925
說也	-10.4926
從他	-10.4935
此亦不然	-10.4937
善十一	-10.4938
略有三種	-10.4941
不清淨	-10.4941
善品	-10.4941
沈	-10.4946
二別釋	-10.4948
無過	-10.495
空無我	-10.4957
四無量	-10.4966
諸外道	-10.4966
是總	-10.4967
眼等根	-10.497
學者	-10.4971
元	-10.4972
巳前	-10.4977
是因	-10.4979
不能緣	-10.4984
諸苦	-10.4985
色心等	-10.4989
引因	-10.499
諸師	-10.4992
二十一	-10.4994
分位差別	-10.4995
同異性	-10.4995
非但	-10.5001
令生	-10.5002
清涼	-10.5005
何故不說	-10.5007
有宗	-10.501
實非	-10.5011
諸句	-10.5011
相違故	-10.5012
麁相	-10.5013
餘七	-10.5014
根性	-10.5016
有漏種	-10.5019
於佛	-10.5022
三藏云	-10.5024
是慧	-10.5025
一是	-10.5026
能滅	-10.5029
解行	-10.5032
未離	-10.5033
後辯	-10.5033
觀待因	-10.5034
住者	-10.5043
不合	-10.5047
內識	-10.5048
故不名	-10.5049
證真如	-10.5054
他世	-10.5055
威力	-10.5057
初後	-10.5063
一切菩薩	-10.5065
相依	-10.5067
他所	-10.5071
又依	-10.5072
各自	-10.5083
相應法	-10.509
眾具	-10.5092
般	-10.5095
行捨	-10.5096
身識	-10.5097
生識	-10.5097
四處	-10.5103
名不	-10.5104
受果	-10.5105
二事	-10.5106
意處	-10.5109
立宗	-10.5111
無窮	-10.5112
他宗	-10.5113
或以	-10.5116
胎	-10.5117
如來法身	-10.5119
無不	-10.5122
上立	-10.5123
浪	-10.5127
呼	-10.5128
十地中	-10.5129
通相	-10.513
隨意	-10.5131
咸	-10.5131
有方分	-10.5141
是無分別智	-10.5142
名分別	-10.5143
二列名	-10.5145
惡友	-10.5146
攝一切	-10.5146
識生	-10.5157
者意云此	-10.5159
不善業	-10.5159
謂我	-10.5159
是第二	-10.517
俱有因	-10.5174
不生故	-10.5176
過故	-10.5177
國土	-10.5177
異熟無記	-10.5178
所感	-10.5179
攝善法戒	-10.5179
以是義故	-10.5182
義同	-10.5184
何謂	-10.5189
五十一	-10.5193
果中	-10.52
繁	-10.5207
聞聲	-10.5209
釋前	-10.5211
之力	-10.5213
緣此	-10.5213
輪王	-10.522
至名	-10.5223
巳去	-10.5239
一切地	-10.524
如是菩薩	-10.5244
色無色	-10.5246
必由	-10.5247
六依	-10.5248
依身	-10.5248
不在	-10.5249
之外	-10.5251
有染	-10.5258
唯此	-10.5268
諸心心所	-10.528
外器	-10.5288
一物	-10.529
身受	-10.5291
論之	-10.5292
所依故	-10.5294
四惑	-10.5297
七明	-10.5302
久住	-10.5307
即成	-10.5316
能說	-10.5317
斷常	-10.5318
般若波羅蜜	-10.5319
一性	-10.5322
法寶	-10.5322
若就	-10.5325
何用	-10.5327
世法	-10.5331
次破	-10.5334
巳斷	-10.5334
報身	-10.5337
如何說	-10.5337
其相云何	-10.534
無諍	-10.5344
福田	-10.5345
體即是	-10.5346
不死	-10.5348
是所緣	-10.5352
通於	-10.5353
妄情	-10.5355
時有	-10.5358
癡分	-10.5358
增盛	-10.5362
諸波羅蜜	-10.5364
無智	-10.5373
俱者	-10.5375
徒	-10.5377
於中有三	-10.538
巧便	-10.5382
阿難	-10.5391
惛沈	-10.5391
執故	-10.5394
焉	-10.5396
色聲	-10.5399
座	-10.5399
三界九地	-10.5401
皆成	-10.5407
相生	-10.541
應得	-10.5411
四念住	-10.5419
想者	-10.5419
不如實知	-10.542
損惱	-10.5423
方便道	-10.5424
變現	-10.5427
二世	-10.5442
打	-10.5444
經文	-10.5445
復云	-10.5447
彼此	-10.5449
若得	-10.5453
教誡	-10.5456
且說	-10.5457
數滅	-10.546
婆沙	-10.546
增勝	-10.5463
隣近	-10.5463
一解	-10.5466
軟	-10.5467
俱故	-10.5468
宿	-10.547
室	-10.5474
因性	-10.5475
神力	-10.5479
四位	-10.5484
正勤	-10.5488
聞正法	-10.5489
種生現	-10.549
切	-10.549
正說	-10.5493
體無	-10.5499
有能	-10.5501
繩	-10.5505
眼識等	-10.5506
變起	-10.5506
等諸	-10.5509
別別	-10.5514
諸功德	-10.5515
復由	-10.5516
無嗔	-10.5516
初門	-10.552
擊	-10.5521
心行	-10.5527
預流果	-10.5529
厭患	-10.553
神足	-10.5532
正是	-10.5532
悶絕	-10.5538
品中	-10.554
是假有	-10.5543
如水	-10.5547
為障	-10.5548
二十六	-10.5549
修者	-10.5551
作事	-10.5556
在定	-10.5559
六句	-10.5566
處者	-10.5569
是因緣	-10.557
謂一切	-10.5571
有十種	-10.5579
其名	-10.5584
處非處	-10.5585
必定	-10.5589
五境	-10.559
前七識	-10.5592
彌勒	-10.5597
為因故	-10.5599
於上	-10.5602
攝大乘	-10.5604
此三種	-10.5606
定非	-10.5607
空理	-10.5615
〔	-10.5615
非染	-10.5618
諸部	-10.5619
現在世	-10.562
文字	-10.5622
今約	-10.5624
亦得名	-10.5628
所緣故	-10.5629
是所	-10.563
諦理	-10.5632
問也	-10.5634
亦以	-10.5647
教化	-10.5647
大海	-10.5651
為俱有依	-10.5651
當得	-10.5654
若爾何故	-10.5656
勝論	-10.5664
開合	-10.5667
鉢	-10.5669
究	-10.5669
為自	-10.567
六通	-10.5673
三智	-10.5674
論釋	-10.5674
文分為二初	-10.5676
明無犯	-10.5679
何有	-10.5682
亦成	-10.5687
性淨	-10.5689
迹	-10.569
復以	-10.5694
必不	-10.5696
二結	-10.5696
是色	-10.5699
淨故	-10.5701
行時	-10.5703
為宗	-10.5703
根識	-10.5708
時節	-10.5708
諸餘	-10.5711
大眾部	-10.5719
所愛	-10.5722
道故	-10.5726
一地	-10.5727
境者	-10.5727
我體	-10.5727
然有	-10.5727
一切佛法	-10.5728
如對法	-10.5733
故稱	-10.5735
得與	-10.5735
宣	-10.5738
聲聞獨覺	-10.5743
斷結	-10.5747
現身	-10.5747
四大種	-10.5747
音義謂	-10.5748
漸漸	-10.5749
五受	-10.575
深密	-10.5752
二心	-10.5758
地獄中	-10.5758
不令	-10.5758
相也	-10.5765
自受用	-10.5765
不明了	-10.5766
廣如	-10.5767
行解	-10.5767
諸種子	-10.5768
然今	-10.5768
臣	-10.5769
善知識	-10.5771
限	-10.5774
非異熟	-10.5774
眼耳	-10.5774
心境	-10.5775
悶	-10.5778
得大	-10.5779
不徧	-10.5786
且約	-10.5787
一切善法	-10.5787
賊	-10.5788
大涅槃	-10.5791
隨喜	-10.5793
難知	-10.5797
謝	-10.5798
所依為業	-10.5803
佗	-10.5811
乳	-10.5812
寬狹	-10.5812
演曰五	-10.5815
根本定	-10.582
為後	-10.5825
異時	-10.5826
能立	-10.5826
名相	-10.583
此唯	-10.5834
阿僧祇	-10.5838
頓悟	-10.5838
總攝	-10.5839
舊云	-10.5841
阿耨多羅三藐三菩提	-10.5846
亦言	-10.5848
皆名為	-10.585
損益	-10.5851
上有	-10.5853
撿	-10.5855
安立諦	-10.5855
假者	-10.5856
不繫	-10.5872
起愛	-10.5878
有邊	-10.5884
不善性	-10.5884
於現在	-10.5887
從初	-10.5887
所樂	-10.5888
謂除	-10.5888
不定性	-10.5891
四十	-10.5892
破之	-10.5897
苦者	-10.5899
能有	-10.5899
作是念	-10.5904
法輪	-10.5905
二十五	-10.5905
二師	-10.5906
業煩惱	-10.5912
何等名為	-10.5913
是故名為	-10.5915
不執	-10.5921
或立	-10.5925
財施	-10.5934
期	-10.5936
親緣	-10.5937
師云	-10.5938
方廣	-10.594
真見	-10.5945
答由	-10.5949
則不	-10.5951
此二門竟	-10.5954
雜亂	-10.5955
有境	-10.5956
勝妙	-10.5956
相顯	-10.5956
地地	-10.5958
必須	-10.5959
且依	-10.5965
等皆	-10.5966
隨說因	-10.597
即名為	-10.5974
餘九	-10.5976
二名	-10.5979
差別相	-10.5981
【	-10.5982
前所說	-10.5987
為求	-10.5987
二十八	-10.599
聖法	-10.6009
如幻	-10.601
折	-10.6014
世人	-10.6019
現世	-10.602
亦許	-10.6021
三境	-10.6023
四食	-10.6024
非有非無	-10.6025
道品	-10.6028
不簡	-10.6028
二處	-10.6032
無漏業	-10.6032
違理	-10.6035
答言	-10.6042
西	-10.6043
友	-10.6043
不相似	-10.6053
不欲	-10.6055
所緣境界	-10.6059
自許	-10.6062
已入	-10.6065
常無常	-10.6066
東	-10.6069
自種	-10.6074
隨行	-10.6074
以何義故	-10.6075
無緣	-10.6077
皆言	-10.6079
佛世尊	-10.608
是現量	-10.6082
果法	-10.6087
聽聞正法	-10.6089
神變	-10.6092
長等	-10.6093
草	-10.6095
三支	-10.61
心心法	-10.6103
既說	-10.6106
汝等	-10.611
六位	-10.6111
覩	-10.6113
污	-10.6114
復生	-10.6115
以後	-10.6117
不決定	-10.6118
依前	-10.612
非安立諦	-10.6125
太	-10.6127
成實法中	-10.6129
追求	-10.613
無妨	-10.6131
略釋	-10.6137
苦等	-10.6141
暴流	-10.6143
放	-10.6144
自識	-10.6146
今大乘	-10.615
欲求	-10.6156
變易身	-10.6157
無學位	-10.6158
一切相	-10.6163
無力	-10.6166
恒有	-10.6169
念處	-10.617
相離	-10.6174
是真	-10.618
而於	-10.6181
無覆	-10.6184
自說	-10.6184
有大	-10.6187
多生	-10.6189
恃	-10.6198
名言種子	-10.6202
意者	-10.6202
於外	-10.6209
迷事	-10.6211
財寶	-10.6217
以不	-10.6224
餘者	-10.6226
由他	-10.6226
第四明	-10.6228
深生	-10.623
能於	-10.6232
滅者	-10.6236
依主釋	-10.6239
不妨	-10.6239
於理	-10.6239
耽著	-10.624
染污意	-10.6243
遭	-10.6245
景師云	-10.6246
疎所緣緣	-10.6248
離繫果	-10.6248
戲	-10.6252
無分別故	-10.6252
若此	-10.6256
彼二	-10.6258
躰	-10.6259
信樂	-10.6263
諸如來	-10.6263
永無	-10.6266
三科	-10.6266
染故	-10.6268
豈有	-10.627
誓	-10.6271
生後	-10.6271
違犯	-10.6272
無礙解	-10.6275
不必	-10.6278
今云	-10.6279
取支	-10.6282
無漏定	-10.6285
十者	-10.629
所住	-10.6299
不犯	-10.63
專注	-10.6301
唯得	-10.6301
明淨	-10.6304
三摩提	-10.6305
不有	-10.6306
之類	-10.6306
向前	-10.6308
勝鬘	-10.6309
然由	-10.6312
有見	-10.6315
四靜慮	-10.6316
赤	-10.6319
別解脫	-10.632
有何差別	-10.6321
何等為五	-10.6323
五十五	-10.6327
是人	-10.6328
分四如論	-10.6339
三聚	-10.6341
願力	-10.6344
冷	-10.6345
有礙	-10.6346
菩薩行	-10.6346
毘尼	-10.6353
餘五	-10.6355
恒時	-10.6358
刀	-10.6359
重釋	-10.6359
他受用	-10.6359
彼無	-10.6361
不能生	-10.6365
唯識論	-10.6365
又能	-10.6366
識性	-10.6366
樂住	-10.6369
此即初也	-10.6374
無餘依	-10.6383
末後	-10.6383
不分別	-10.6385
理故	-10.6385
覺分	-10.6387
餘一切	-10.6387
三量	-10.6389
識故	-10.6391
巳生	-10.6393
為所依止	-10.6396
但於	-10.6397
名緣	-10.6401
功力	-10.6401
為五	-10.6406
未離欲	-10.6412
不忘	-10.6418
諸界	-10.6422
代	-10.6424
色者	-10.6433
真性	-10.6437
而未	-10.6441
眾生界	-10.6443
衰損	-10.6443
即用	-10.6444
此經	-10.6448
異熟因	-10.645
傍生	-10.645
攝受因	-10.645
故亦名	-10.645
所障	-10.6453
相順	-10.6454
如其	-10.6458
是故說名	-10.6462
曾習	-10.6463
慈心	-10.6465
正道	-10.6469
所隨	-10.6474
無愧	-10.6474
無明等	-10.6482
名捨	-10.6487
賢聖	-10.649
第三靜慮	-10.6494
信等五根	-10.6497
色界繫	-10.6504
非心	-10.6505
通取	-10.651
初辨	-10.6513
諸教	-10.6513
承	-10.6515
若望	-10.6519
起煩惱	-10.6527
依之	-10.6535
無生忍	-10.6535
妄心	-10.6536
瑜伽論說	-10.6536
定性	-10.6537
融	-10.6538
為依止故	-10.6541
感得	-10.6544
適悅	-10.6546
了境	-10.6546
真異熟	-10.6546
四德	-10.6555
如經中說	-10.6555
別異	-10.6556
初破	-10.6558
名句文身	-10.6559
眼等五根	-10.656
順解脫分	-10.656
殘	-10.6564
等引	-10.6566
內境	-10.6566
一一皆	-10.6568
唯以	-10.6568
識處	-10.6569
真心	-10.6576
防修	-10.6576
能善	-10.6577
本論	-10.6579
何因	-10.6582
五義	-10.6591
釋頌	-10.6593
雖同	-10.6594
正教	-10.6599
香味	-10.66
奢摩他毘鉢舍那	-10.66
謂欲	-10.6601
逐	-10.6601
讀	-10.6604
亦起	-10.6605
取相	-10.6607
巳來	-10.6608
謂如	-10.661
不明	-10.6613
第八地	-10.6619
望於	-10.662
有部	-10.6621
設許	-10.6621
牽	-10.6627
境也	-10.6629
理事	-10.6631
生有	-10.6635
諸趣	-10.6637
住故	-10.6639
八法	-10.6645
四因	-10.6646
無情	-10.6648
附	-10.6648
又釋	-10.6659
高舉	-10.666
我相	-10.6661
牽引因	-10.667
忘念	-10.6671
與樂	-10.6672
慧解脫	-10.6673
發願	-10.6681
釋上	-10.6682
又契經說	-10.6682
於一切時	-10.6684
為善	-10.6687
能捨	-10.6688
淨不淨	-10.6701
二人	-10.6707
非處	-10.6708
二行	-10.6709
生支	-10.671
緣於	-10.671
四倒	-10.671
阿毘達磨	-10.6713
為開導依	-10.6713
非也	-10.6714
眼等五識	-10.6718
持業釋也	-10.672
妙觀察智	-10.6727
志	-10.673
師說	-10.673
無堪任性	-10.6736
非愛	-10.6748
分別故	-10.6755
所許	-10.676
欲顯	-10.6762
處故	-10.6766
總明	-10.6769
始終	-10.677
離過	-10.6772
嚴	-10.6774
無表色	-10.6775
現種	-10.6777
先後	-10.6779
離此	-10.6783
化眾生	-10.6784
三諦	-10.6785
為實	-10.6785
以來	-10.6785
穀	-10.6786
第二靜慮	-10.6786
論本	-10.6788
視	-10.6792
有餘依	-10.6795
精勤	-10.6802
無心定	-10.6803
清淨者	-10.6806
不修	-10.6815
十住	-10.6817
若能	-10.6819
固	-10.6819
釋義	-10.682
所緣之境	-10.6821
非異	-10.683
唯屬	-10.6832
變易生死	-10.6835
同彼	-10.6837
非想地	-10.6844
底	-10.6845
橫	-10.6846
至非	-10.6847
吉祥	-10.6847
非所斷	-10.6848
狂	-10.685
一頌	-10.6851
修得	-10.6851
無能	-10.6851
為例	-10.6854
無色界中	-10.6855
觸處	-10.6856
二頌	-10.6858
二境	-10.6862
貪瞋	-10.6863
隨所應	-10.6874
空等	-10.6875
證智	-10.6876
圓滿故	-10.6879
僧寶	-10.688
即真如	-10.6882
先釋	-10.6883
唯有一	-10.6883
同類因	-10.6885
對法云	-10.6889
惡不善法	-10.6891
根身	-10.6893
周遍	-10.6895
二身	-10.6897
北	-10.6901
破戒	-10.6902
果生	-10.6904
無量無邊	-10.6907
地持	-10.6908
樂者	-10.6911
證知	-10.6913
〕	-10.6915
自受用身	-10.6916
自性清淨	-10.6917
處處	-10.6922
梵語	-10.6922
漸斷	-10.6924
勝相	-10.6924
自性故	-10.6925
欲解	-10.6926
非離	-10.6927
三輪	-10.6927
所犯	-10.6929
合成	-10.693
並生	-10.6931
分者	-10.6931
心體	-10.6938
等義	-10.6939
後五	-10.695
修證	-10.695
一字	-10.6954
二業	-10.6954
實句	-10.6961
昧	-10.6964
能引發	-10.6965
正願	-10.6969
此相	-10.6974
有處	-10.6975
見修	-10.6977
浮	-10.6978
有德	-10.6978
憎	-10.6979
依根	-10.6983
所欲	-10.6984
資粮	-10.6985
第七識中	-10.6988
微劣	-10.6989
見道中	-10.6989
酬	-10.699
言有	-10.6991
五百	-10.6992
不得自在	-10.6999
大圓鏡智	-10.7001
實智	-10.7003
能修	-10.7007
或云	-10.7009
學無學	-10.701
住中	-10.7021
八解脫	-10.7022
具四	-10.7028
適	-10.7031
已前	-10.7031
非想非非想處	-10.7032
之教	-10.7041
祕密	-10.7042
創	-10.7043
即生	-10.7044
除滅	-10.7045
頌文	-10.7046
前云	-10.705
異者	-10.705
若知	-10.7055
六義	-10.7057
此六	-10.7059
俱舍云	-10.7062
後世	-10.7063
因緣者	-10.7066
是有為	-10.7068
十相	-10.7073
有樂	-10.7077
此理	-10.7077
如眼識	-10.7078
策	-10.7091
此與	-10.7094
得阿耨多羅三藐三菩提	-10.7095
此通	-10.7095
綺語	-10.7096
報恩	-10.7097
總釋	-10.7098
內證	-10.7098
觀空	-10.7106
徵釋	-10.7108
逢	-10.711
自下第三	-10.7113
薰	-10.7115
過去世	-10.7121
釋名	-10.7123
種種相	-10.7124
知見	-10.7129
其中	-10.7136
三果	-10.7137
本末	-10.7139
有眾多	-10.7142
復有二種	-10.7143
皆為	-10.715
證自證分	-10.7153
或唯	-10.7157
色境	-10.7157
演曰三結	-10.7157
三師	-10.7162
生也	-10.7164
制立	-10.7165
痴	-10.7167
所作事	-10.7168
總持	-10.7169
羸劣	-10.717
否	-10.7173
容受	-10.7176
此中意說	-10.7178
一行	-10.7179
一切皆是	-10.7181
十一種	-10.7183
意取	-10.7183
伏斷	-10.7184
無想異熟	-10.7188
又以	-10.719
十善	-10.7191
隨觀	-10.7192
車	-10.7202
慢等	-10.7203
二顯	-10.7203
見彼	-10.7204
第一師	-10.7208
大義	-10.7208
斷欲界	-10.7209
戒等	-10.7214
論問	-10.7215
有二解	-10.7215
汎	-10.7216
不如理	-10.7216
纔	-10.7219
清淨故	-10.7221
薩	-10.7222
法為	-10.7227
多時	-10.7229
闡提	-10.7235
自在者	-10.7239
堅住	-10.7242
別解脫戒	-10.7242
簡非	-10.7242
體一	-10.7244
所造色	-10.7244
實際	-10.7244
斷善根	-10.7245
類別	-10.7258
後之	-10.7259
稱讚	-10.7261
心也	-10.7261
所取能取	-10.7263
但可	-10.7265
住心	-10.7266
恒相續	-10.7266
畢竟無	-10.7268
然於	-10.7272
諸聲聞	-10.7272
在欲界	-10.7278
不和合	-10.7279
三有	-10.7281
亦不能	-10.7284
四由	-10.7284
其人	-10.7286
善清淨	-10.7286
法師云	-10.7288
即由	-10.7289
閏	-10.729
解脫分	-10.729
所化有情	-10.7292
所生果	-10.7298
非學非無學	-10.7299
非安立	-10.7301
是故此	-10.7302
五釋	-10.7302
差別分二	-10.7308
地水火風	-10.7308
練根	-10.7311
於義	-10.7312
不觀	-10.7315
分三如論	-10.7315
善能	-10.7316
中邊	-10.7317
果時	-10.7318
六識身	-10.7321
長者	-10.7321
增故	-10.7323
初修	-10.7325
如於	-10.7327
菩提分	-10.7328
通說	-10.7328
為方便	-10.7329
失壞	-10.733
諸心	-10.733
轉計	-10.7333
無常性	-10.7334
依他起自性	-10.7336
心淨	-10.7342
受變易身	-10.7342
五句	-10.7343
獨行	-10.7345
有義下	-10.7349
是增上緣	-10.735
流布	-10.7355
此諸	-10.7359
不覺	-10.736
若為	-10.7361
宿命	-10.7365
偽	-10.7367
三性心	-10.737
上座部	-10.7371
因力	-10.7376
三十二	-10.7382
不施	-10.7383
餘地	-10.7386
毛	-10.7388
謂無	-10.739
無斷	-10.7392
自作	-10.7396
蔽	-10.7396
所顯故	-10.7396
如經說	-10.7402
賢善	-10.741
即於彼	-10.741
無事	-10.7411
第三禪	-10.7415
此非	-10.7416
無尋伺	-10.7418
如是已說	-10.7418
隨身	-10.7419
巳滅	-10.7421
死後	-10.7422
是義不然	-10.7425
四重	-10.7425
鐵	-10.7425
定是	-10.7428
大劫	-10.7436
無生無滅	-10.7438
此業	-10.7446
大乘經	-10.7448
皆說	-10.745
演曰後荅	-10.7454
依法	-10.7458
所依者	-10.7459
應知其相	-10.7464
身語意	-10.7466
奉	-10.7467
多法	-10.7472
與他	-10.7478
了相	-10.7479
應斷	-10.7481
麤相	-10.7484
受變易	-10.7486
三解脫門	-10.7486
此中意	-10.7493
翳	-10.7499
仗	-10.75
忍辱	-10.7501
十行	-10.7502
鳥	-10.7502
所因	-10.7503
此能	-10.7505
惑業	-10.7506
若准	-10.7507
而行惠施	-10.7507
緣過去	-10.7509
於識	-10.7512
若斷	-10.7512
以能	-10.7517
不名為	-10.7517
彼相	-10.7519
令入	-10.7519
中有四	-10.752
望彼	-10.7522
巳說	-10.7526
假施設	-10.7527
證真	-10.7528
彼既	-10.7529
結生	-10.753
是以	-10.7535
分別煩惱	-10.7535
屈	-10.754
中言	-10.7541
翻此	-10.7543
後法	-10.7544
能藏	-10.7544
非一切	-10.7547
有三品	-10.7547
得此	-10.7551
沉	-10.7553
無障	-10.7563
釋迦	-10.7565
福業	-10.7566
何失	-10.7569
總言	-10.757
蘊界處	-10.7572
生色界	-10.7575
畜	-10.7582
麥	-10.7585
別境五	-10.7586
隨他	-10.7588
相差別	-10.7588
應立量云	-10.759
識上	-10.7591
若論	-10.7592
歎	-10.7593
聞思慧	-10.7595
大苦	-10.7598
三毒	-10.7599
此但	-10.7599
同於	-10.76
標舉	-10.7601
又諸	-10.7602
請問	-10.761
立一	-10.7618
豈可	-10.7624
於己	-10.7628
所依處	-10.7628
多住	-10.7628
即知	-10.7628
後師	-10.763
方斷	-10.7631
活命	-10.7633
增上故	-10.7639
三惡趣	-10.764
人法	-10.7645
羞	-10.7649
五識身	-10.765
生現	-10.765
外難	-10.7651
樞要	-10.7651
根力	-10.7655
一明正義	-10.7656
通攝	-10.7662
別顯	-10.7669
文也	-10.7672
最為	-10.7677
本識中	-10.7677
即同	-10.7678
無色定	-10.7681
捨根	-10.7682
九門	-10.7688
仙	-10.769
當有	-10.7693
道者	-10.7694
不現前	-10.7694
句義	-10.7698
成熟有情	-10.77
十卷	-10.7701
恐怖	-10.7702
鼓	-10.7702
通前	-10.7705
身語業	-10.7714
得菩提	-10.7716
不淨觀	-10.7716
本事	-10.7719
聲聞等	-10.7723
堪忍	-10.7734
論此中	-10.7734
此問	-10.7735
同性	-10.7739
此總	-10.774
▁初正釋	-10.7743
通妨	-10.7747
證成	-10.7749
無差別故	-10.7751
四聖諦	-10.7753
國王	-10.7757
授記	-10.7758
不造	-10.7759
顯揚論	-10.776
對治道	-10.7766
亦與	-10.7766
陀那	-10.7766
為依止	-10.7767
無間滅	-10.7768
有罪	-10.777
業故	-10.7771
追悔	-10.7772
心緣	-10.7773
演曰十	-10.7773
二愚	-10.7776
教導	-10.7777
色界中	-10.7781
關	-10.7784
文分為二	-10.7785
隨法	-10.7785
之文	-10.7792
三十頌	-10.7792
執藏	-10.7794
此文意說	-10.7797
由業	-10.78
合有	-10.78
相例	-10.7801
云何得	-10.7806
是處	-10.7806
自果	-10.7806
說正法	-10.7811
分中	-10.7813
隱顯	-10.7814
故者意云	-10.7815
資糧位	-10.7817
十處	-10.782
受報	-10.7823
希有	-10.7829
樂故	-10.7829
非此	-10.783
熏成種	-10.7831
想受	-10.7833
後辨	-10.7836
題	-10.7837
魚	-10.7838
拘	-10.784
飢	-10.784
補	-10.7842
無根	-10.7843
此緣	-10.7847
增上慧	-10.7848
相見二分	-10.785
猶在	-10.7854
事相	-10.7854
亦爾者	-10.7855
如涅槃說	-10.7856
擇滅無為	-10.7858
白品	-10.7858
所攝故	-10.7866
復有四種	-10.7868
何等為四	-10.7869
有多種	-10.787
生在	-10.7882
前因	-10.7889
有識	-10.79
一於	-10.79
特	-10.7904
此障	-10.7905
可意	-10.7906
無對	-10.7909
二類	-10.7909
角	-10.791
理亦不然	-10.7912
取捨	-10.7913
前八	-10.7915
見佛	-10.7915
而是	-10.7918
易知	-10.7919
汝執	-10.7919
辦	-10.7926
次二	-10.7926
一答	-10.7928
有生滅	-10.7929
相續不斷	-10.7931
界者	-10.7932
六道	-10.7935
不善法	-10.7936
廣略	-10.7942
妄分別	-10.7944
前明	-10.7944
定體	-10.7947
一切諸	-10.7949
總破	-10.795
彼於	-10.795
所變相分	-10.7951
生歡喜	-10.7956
𢙣	-10.7958
文分為二一	-10.7959
第一句	-10.796
正覺	-10.7965
如虛空	-10.7969
餘義	-10.7972
三行	-10.7973
跡	-10.7977
下二句	-10.7979
悲心	-10.798
先有	-10.7981
堪任	-10.7981
自性者	-10.7982
無上正等菩提	-10.7982
隨相	-10.7984
不絕	-10.7985
從因	-10.7987
第九品	-10.799
若自	-10.7992
雜心	-10.7992
業招	-10.7994
初地已上	-10.7994
實色	-10.7996
餘之	-10.7997
非無漏	-10.7999
作是說	-10.8001
無明為緣	-10.8004
差別義	-10.8008
妙行	-10.8014
借	-10.8022
有尋伺	-10.8023
雜染清淨	-10.8026
通果	-10.8027
生無色	-10.8035
他地	-10.8037
師子	-10.8038
十使	-10.8043
三約	-10.8043
於諸眾生	-10.8048
能執	-10.8049
如佛	-10.805
蘇	-10.805
為質	-10.8051
原	-10.8052
覺時	-10.8055
清辨	-10.8058
小分	-10.8063
前行	-10.8064
即起	-10.8065
性也	-10.8066
唯於	-10.8067
化心	-10.8067
無漏界	-10.807
此方	-10.8072
遠近	-10.8073
定生	-10.8073
嘆	-10.8074
三云	-10.8074
盡智	-10.8074
四門	-10.808
不稱	-10.8082
梵天	-10.8083
取彼	-10.8084
畜生	-10.809
定果色	-10.8092
異於	-10.8093
定者	-10.8096
阿羅漢果	-10.8097
謂佛	-10.8098
有間斷	-10.8099
五蓋	-10.8099
知法	-10.8101
由得	-10.8105
不增	-10.8106
已離	-10.8116
急	-10.8116
如何得	-10.8117
是此	-10.8122
今謂	-10.8124
所緣者	-10.8126
是別	-10.8127
麤色	-10.8129
何非	-10.8135
更生	-10.8137
順益	-10.8143
釋之	-10.8144
香等	-10.8149
深心	-10.8154
五業	-10.8155
云云	-10.8158
諸所有	-10.8159
如前已說	-10.8161
佛地論	-10.8161
能分別	-10.8163
釋論曰	-10.8163
望後	-10.8164
多人	-10.8166
未滅	-10.8166
同是	-10.8167
即第八識	-10.8168
識食	-10.8168
七作意	-10.8169
能取所取	-10.8171
亦不得	-10.8172
為本質	-10.8172
彼所執	-10.8172
無依	-10.8174
伏惑	-10.8174
如何言	-10.8175
成有漏	-10.8177
邪教	-10.8177
聞說	-10.8177
無障礙	-10.8179
二就	-10.818
不相應故	-10.8183
罵	-10.8185
同此	-10.8186
炎	-10.8188
更無別	-10.8189
喚	-10.8191
何者為	-10.8191
注	-10.8191
小隨	-10.8192
諦現觀	-10.8192
我法二執	-10.8194
是異熟	-10.8199
而緣	-10.82
各一	-10.82
言顯	-10.82
攀緣	-10.8201
正破	-10.8202
有四句	-10.8202
不伏	-10.8204
即滅	-10.8211
論議	-10.8211
下三	-10.8214
兩句	-10.8214
菩提涅槃	-10.8219
所以不說	-10.823
二徵	-10.823
生現行	-10.8231
四中	-10.8232
問何	-10.8237
應同	-10.8238
二利	-10.8245
不忍	-10.8245
能生因	-10.8249
成故	-10.8251
二破	-10.826
一劫	-10.826
現量所得	-10.8261
所知境	-10.8262
於善	-10.8264
讚歎	-10.8268
受俱	-10.8269
言我	-10.827
於世間	-10.827
如地持說	-10.8271
若法	-10.8273
善者	-10.8273
集成	-10.8274
從前	-10.8275
安惠	-10.8276
家家	-10.828
剎那剎那	-10.8283
所除	-10.8284
必同	-10.8287
景	-10.8292
空者	-10.8297
離心	-10.8302
唯見	-10.8306
謂欲界	-10.8307
例破	-10.8311
消	-10.8312
不得起	-10.8315
別有體	-10.8322
丈夫	-10.8325
不定故	-10.8325
解深密經	-10.8326
天上	-10.8327
▁○	-10.8328
即唯	-10.8328
不得生	-10.8329
五心	-10.8333
何故如是	-10.8334
第二釋	-10.8336
敵	-10.8337
名色支	-10.8338
長夜	-10.834
證理	-10.8342
有十一	-10.8346
界處	-10.8348
黑品	-10.8357
悲愍	-10.8357
劣故	-10.8359
餘六	-10.8362
一切有漏	-10.8363
三解	-10.8364
種子識	-10.8365
智見	-10.8366
為人	-10.8367
雖亦	-10.8369
如是乃至	-10.837
何異	-10.8374
自義	-10.838
永害	-10.8391
三列名	-10.8391
復次云何	-10.8391
不用	-10.8394
起行	-10.8397
諸義	-10.8397
緣之	-10.8398
五十八	-10.84
一緣	-10.8401
先辨	-10.8402
初二句	-10.8406
遺	-10.8407
彼人	-10.841
▁四	-10.8412
是無記性	-10.8412
之失	-10.8413
無有差別	-10.8414
無住涅槃	-10.8416
自在故	-10.8419
愛等	-10.8421
心及心所	-10.8425
一事	-10.843
應作	-10.8433
不發	-10.8434
實物	-10.8435
皆從	-10.8438
耳根	-10.8439
方所	-10.8442
天中	-10.8445
相似故	-10.8449
前義	-10.8453
一門	-10.8454
察	-10.8454
雖未	-10.8457
所對治	-10.846
瓶等	-10.8463
學人	-10.8463
今據	-10.8466
即簡	-10.8469
而自	-10.847
炷	-10.8471
後報	-10.8481
故能	-10.8482
諸門	-10.8483
圓鏡智	-10.8485
非他	-10.8486
證淨	-10.8491
十門	-10.8493
依定	-10.8494
未見	-10.8497
捨故	-10.8498
有間	-10.8504
實是	-10.8507
能通達	-10.851
西明	-10.8511
出觀	-10.8513
初文	-10.8513
髮	-10.8517
二釋分三	-10.8519
通一切	-10.8523
眼見	-10.8524
便違	-10.8525
小乘中	-10.8525
神我	-10.8525
入地	-10.853
相待	-10.8531
誰為	-10.8533
言語	-10.8534
一聚	-10.8534
有為相	-10.8539
預	-10.8545
色故	-10.8545
落	-10.8547
不亂	-10.8548
驗	-10.855
於所緣境	-10.8551
識之	-10.8552
有分	-10.8555
於色	-10.8555
於未來	-10.8555
服	-10.8558
續生	-10.8558
究竟位	-10.8562
全分	-10.8563
表業	-10.8564
此界	-10.8566
舉喻	-10.8568
見故	-10.8569
名言熏習	-10.857
與五識	-10.8571
思等	-10.8571
而復	-10.8576
得勝	-10.8579
無變異	-10.8582
十二因緣	-10.8583
汝宗	-10.8589
名大	-10.859
同喻	-10.859
輕重	-10.8591
身在欲界	-10.8591
如眼	-10.8592
七生	-10.8602
乞食	-10.8602
演曰四釋	-10.8603
一切諸佛	-10.8604
體是一	-10.8609
一切功德	-10.861
無實用	-10.8612
弘	-10.8612
善人	-10.8612
出世心	-10.8613
佛智	-10.8615
令住	-10.8617
此復	-10.8618
尚不	-10.862
諸極微	-10.8621
是事	-10.8625
此四種	-10.8628
盡未來際	-10.8628
金剛喻定	-10.8629
莊嚴論	-10.8631
是義云何	-10.8632
該	-10.8639
身分	-10.864
亦唯	-10.8643
軌則	-10.8643
以何為	-10.8643
門者	-10.8645
及於	-10.8647
勝用	-10.8648
言詞	-10.8648
威儀工巧	-10.8649
令起	-10.8649
淨者	-10.8655
佛位	-10.8656
願樂	-10.8661
現果	-10.8662
執為我	-10.8663
利益眾生	-10.8665
出現	-10.8667
六十二見	-10.8668
即從	-10.8671
此後	-10.8671
勝德	-10.8677
喜受	-10.8677
初地菩薩	-10.8682
合名	-10.8684
謂觀	-10.8688
二十唯識	-10.8688
問言	-10.8688
有實體	-10.8689
實德	-10.869
分為	-10.8691
聲聞地	-10.8695
中陰	-10.8696
名意	-10.8697
未至定	-10.8697
要須	-10.8704
錯亂	-10.8705
善中	-10.8708
住於	-10.8708
問若爾	-10.8709
免	-10.871
假設	-10.8718
親所緣	-10.8725
先起	-10.8726
果體	-10.8726
不得成	-10.8727
本生	-10.8729
二根	-10.8732
說以為	-10.8735
受菩薩戒	-10.8737
名斷	-10.8739
大小乘	-10.874
身證	-10.8744
轉時	-10.8752
所行境	-10.8757
先業	-10.8757
亦應爾	-10.8761
令增長	-10.8766
顧	-10.8771
有果	-10.8772
觀彼	-10.8774
軍	-10.8776
意界	-10.8777
擬	-10.8778
交	-10.8781
為治	-10.8781
常樂我淨	-10.8783
顧戀	-10.8784
三十七品	-10.8788
質礙	-10.8788
上上	-10.8789
入聖	-10.879
熏修	-10.879
緣他	-10.8791
長短	-10.8792
法隨法行	-10.8792
遍一切	-10.8793
離垢	-10.8793
通緣	-10.8793
一來果	-10.8796
立量破	-10.8801
不顛倒	-10.8803
煗	-10.8805
三塗	-10.8806
為苦	-10.8806
受支	-10.8812
歲	-10.8813
於彼彼	-10.8813
攝事	-10.8813
欲者	-10.8813
攝益	-10.8817
第二月	-10.8819
二於	-10.8819
自他利	-10.8822
連	-10.8825
諸佛法	-10.8826
相用	-10.8829
此論文	-10.8835
第二第三	-10.8835
諦觀	-10.8836
四取	-10.8837
實德業	-10.8838
知其	-10.884
無雜	-10.8842
非因緣	-10.8844
第十三	-10.8846
種種差別	-10.8856
後心	-10.8858
若作	-10.8858
公	-10.8858
毘曇法中	-10.8859
憑	-10.8859
未知當知根	-10.8861
災	-10.8873
或執	-10.8877
一切障	-10.8879
惑障	-10.8883
應思	-10.8885
制伏	-10.8887
本頌	-10.8889
遠離一切	-10.8891
退屈	-10.8892
正命	-10.8893
身智	-10.8893
不許有	-10.8897
識為	-10.8903
雜集論	-10.8903
者何	-10.8905
性是	-10.8907
我於	-10.8908
十度	-10.8911
第十二	-10.8913
法是	-10.8914
有十二	-10.8917
等中	-10.8918
是智	-10.8919
意明	-10.8919
彼定	-10.8922
思議	-10.8923
聖言	-10.8924
為自性	-10.893
能離	-10.8932
第五明	-10.8933
下文云	-10.8937
釋此初也	-10.8937
隣虛	-10.8937
均	-10.8938
我宗	-10.8939
如經言	-10.8939
別離	-10.8944
思業	-10.8949
十六行	-10.8953
一師言	-10.8955
生中	-10.8956
緣起支	-10.8959
能所取	-10.8961
彼言	-10.8962
雖言	-10.8967
體義	-10.8968
行人	-10.8968
修道煩惱	-10.8968
不可見	-10.8969
次答	-10.897
和上	-10.8971
六轉識	-10.8973
惡慧	-10.8973
支分	-10.8978
非福	-10.8981
二受	-10.8982
反顯	-10.8986
演曰四明	-10.8991
比度	-10.8992
空故	-10.9003
對法論	-10.9003
緣事	-10.9004
練	-10.9004
故經說言	-10.9007
妙法	-10.9008
知彼	-10.9009
身行	-10.9011
形相	-10.9012
戒禁取	-10.9012
如有	-10.9014
三見	-10.9014
無住	-10.9015
現境	-10.9018
對治故	-10.9018
故論云	-10.9019
阿笈摩	-10.9019
告	-10.9023
遠行	-10.9023
蘊處界	-10.9025
可欣	-10.9026
禁	-10.9027
略有五種	-10.9029
四住	-10.9032
於生死	-10.9033
即許	-10.9035
頓悟菩薩	-10.9035
為初	-10.904
淨色	-10.9046
不定地	-10.905
梵本	-10.9052
薩迦耶	-10.9053
基師	-10.9054
知有	-10.9056
俱生煩惱	-10.9058
互為	-10.9058
斷所知障	-10.906
日月	-10.9061
愛著	-10.9063
而論	-10.9065
忽	-10.907
名法	-10.907
正直	-10.9072
判為	-10.9074
總舉	-10.9074
作如是	-10.9077
易解	-10.9079
熱惱	-10.9079
我有	-10.908
識相	-10.9081
破彼	-10.9082
說無	-10.9082
昏	-10.9084
明利	-10.9085
鹿	-10.9087
應更	-10.9087
懺悔	-10.9091
爾者	-10.9092
二初	-10.9093
茲	-10.9093
緣慮	-10.9094
依緣	-10.9101
大生	-10.9109
准此應知	-10.9111
施者	-10.9112
入無餘	-10.9115
離蘊	-10.9117
亦攝	-10.9119
不同分	-10.9121
瑜伽等	-10.9122
瑜伽說	-10.9122
現行識	-10.9123
修果	-10.9125
論善男子至	-10.9126
大乘法	-10.9127
必是	-10.9127
言音	-10.9128
煩惱種子	-10.9133
死時	-10.9133
品類差別	-10.9134
二十七	-10.9136
密意說	-10.9141
不善心	-10.9143
真妄	-10.9149
作意者	-10.9149
此以	-10.9149
顯彼	-10.915
所藏	-10.915
有八種	-10.9153
報果	-10.9153
親相分	-10.9154
欲色界	-10.9154
緣色	-10.9155
獨頭	-10.9158
呵	-10.9159
色中	-10.9163
懃	-10.9167
箭	-10.9168
猶是	-10.9169
日夜	-10.9173
真如理	-10.9174
差別門	-10.9175
二十三	-10.9176
復有三種	-10.9176
要集云	-10.9178
開導依	-10.9179
第一義諦	-10.9181
降伏	-10.9183
天人	-10.9184
樂等	-10.9187
雜染法	-10.9188
布	-10.9189
心所有法	-10.9189
是第三	-10.9191
所聞	-10.9191
佛眼	-10.9193
見聞	-10.9194
演	-10.9197
有處說	-10.9197
空中	-10.9199
除此	-10.9199
心王心所	-10.92
引發因	-10.9201
諸諦	-10.9202
八禪	-10.9203
在未來	-10.9203
略攝	-10.9204
楞伽經	-10.9205
次後	-10.9206
亦取	-10.9209
心識	-10.921
遍智	-10.9213
淨妙	-10.9213
阿陀那識	-10.9214
結上	-10.9217
何以得知	-10.9219
慧故	-10.9221
作意故	-10.9227
通上	-10.9229
次一	-10.923
是故菩薩	-10.923
所作業	-10.9233
三十六	-10.9235
增上意樂	-10.924
結顯	-10.9241
戒者	-10.9243
初總標	-10.9245
不定者	-10.9246
八地巳上	-10.9246
酪	-10.9247
務	-10.9247
六門	-10.9247
此種	-10.9247
油	-10.9248
諸漏	-10.9251
勢用	-10.9255
苦具	-10.9255
弱	-10.9259
應知亦爾	-10.9259
還生	-10.9261
化作	-10.9266
比智	-10.9268
成熟眾生	-10.927
緣現在	-10.9274
有作用	-10.9283
但舉	-10.9287
百年	-10.9291
不聞	-10.9293
於未來世	-10.9294
證法	-10.9294
知足	-10.9297
求菩提	-10.93
分別起	-10.93
果色	-10.9301
此論中	-10.9306
一有情	-10.9308
苦樂等	-10.9309
當知即是	-10.9317
仰	-10.9318
大智	-10.9321
疲	-10.9322
觸受	-10.9322
從何	-10.9323
上座	-10.9325
宗鏡	-10.9325
下中上	-10.9326
貧窮	-10.9327
剎那滅	-10.933
加行故	-10.9335
其理	-10.934
善不善無記	-10.9343
前境	-10.9344
文意	-10.9344
修道斷	-10.9349
由見	-10.9352
諸心所	-10.9355
所無	-10.9359
如空	-10.9365
為簡	-10.9366
勝智	-10.9367
已還	-10.9367
二十二根	-10.9368
法處色	-10.9368
不無	-10.9369
今既	-10.9371
施設建立	-10.9376
貫	-10.9377
名言種	-10.9378
六品	-10.938
極重	-10.9382
二無我	-10.9384
色識	-10.9384
四支	-10.9385
勞	-10.9386
不苦不樂受	-10.9388
自乘	-10.9388
一切種智	-10.9389
如世	-10.9394
轉釋	-10.9394
身在	-10.9396
鄙	-10.9396
觸食	-10.9398
入見道時	-10.9401
違教	-10.9403
應化	-10.9404
此類	-10.9406
酒	-10.9409
隔越	-10.9411
不入	-10.9413
能淨	-10.9414
由依	-10.9418
為何義故觀	-10.9418
例餘	-10.9422
殺害	-10.9423
住時	-10.9426
前方便	-10.9427
實境	-10.9431
釋此	-10.9432
計為	-10.9434
起執	-10.944
佛所說	-10.9442
肉眼	-10.9444
所攝受	-10.9444
辨其	-10.9444
佛寶	-10.945
問既	-10.9453
女人	-10.9455
此第八識	-10.9455
屈曲	-10.9457
正觀	-10.9458
名苦	-10.9458
近事	-10.9459
永離	-10.9464
無增減	-10.9465
空有	-10.9467
護法等	-10.947
能持種	-10.9474
觸等五	-10.9475
檀	-10.9477
能順	-10.9477
於所緣	-10.9478
諸異生	-10.9479
解脫者	-10.9482
五力	-10.9483
四尋思	-10.9486
見道斷	-10.9486
拔濟	-10.9491
何者是	-10.9491
目之為	-10.9491
無慚無愧	-10.9491
呪術	-10.9492
有漏定	-10.9492
非要	-10.9493
似有	-10.9493
見分緣	-10.9493
此三門竟	-10.9493
利養恭敬	-10.9494
今謂不爾	-10.9494
證菩提	-10.9494
轉法輪	-10.9495
名不共	-10.9496
令成	-10.9496
為捨執著	-10.9497
已來	-10.9498
攝大乘論	-10.95
得滅定	-10.9501
若與	-10.9503
互為緣	-10.9509
此執	-10.9509
戒學	-10.951
無執	-10.9511
愛支	-10.9511
無悔	-10.9511
正量部	-10.9514
等位	-10.9514
如一	-10.9515
亦有二	-10.9516
及果	-10.9518
八十	-10.9518
誤	-10.952
隨增	-10.952
總名為	-10.952
聲者	-10.9521
心性	-10.9523
若未	-10.9533
是善性	-10.9534
見相分	-10.9535
智也	-10.9536
謂真如	-10.9536
何等為	-10.9541
為異	-10.9543
諸世間	-10.9549
一百	-10.955
第四解	-10.9551
證云	-10.9551
入於	-10.9552
煞	-10.9556
文句	-10.9563
有殊	-10.9565
說之	-10.9567
着	-10.9567
要由	-10.957
自釋言	-10.9573
具三	-10.9574
三名	-10.9575
應爾	-10.9577
妄識	-10.9577
無明發	-10.958
參	-10.9581
沙門婆羅門	-10.9583
所攝者	-10.9586
率爾心	-10.9589
常樂	-10.9606
此中有	-10.9609
煩惱相應	-10.961
四境	-10.9611
諸定	-10.9612
五大	-10.9619
所得果	-10.9623
等文	-10.9625
不可以	-10.9626
總有	-10.9626
見道所斷	-10.9627
伺察	-10.9628
有無量	-10.963
證涅槃	-10.963
黑白	-10.9637
薩婆多等	-10.9638
能了知	-10.9638
如聲聞地	-10.9644
文云	-10.9647
如是次第	-10.9651
階	-10.9652
自體故	-10.9654
懼	-10.9656
羞恥	-10.9657
分成	-10.9658
此遮	-10.9658
心上	-10.9659
所以不	-10.966
於是	-10.9661
次別釋	-10.9662
廣說如前	-10.9666
不安	-10.9667
會通	-10.9668
唯佛	-10.9674
由心	-10.9674
如何名	-10.9675
別開	-10.9681
契經說	-10.9683
即當	-10.9683
心解脫	-10.9685
為破	-10.9689
如契經說	-10.9689
離合	-10.9691
四空	-10.9693
見色	-10.9693
方便者	-10.9694
應許	-10.9694
入息	-10.9695
演說	-10.97
不散	-10.9704
唯立	-10.9705
途	-10.9705
論意	-10.9709
外餘	-10.9709
人趣	-10.9711
方乃	-10.9716
於涅槃	-10.9717
一約	-10.9717
八明	-10.9718
可以	-10.9718
二彰	-10.9719
未成	-10.972
真識	-10.972
永盡	-10.9721
緣起經	-10.9722
多修習	-10.9723
可悉	-10.9724
染意	-10.9725
盜	-10.9726
引業	-10.9727
不現行	-10.9727
緣也	-10.9731
緣緣	-10.9732
以成	-10.9732
所說法	-10.9734
見聞覺知	-10.9734
於諸法中	-10.9736
之我	-10.9736
無流	-10.9737
為量	-10.9737
菩薩住	-10.9738
謂緣	-10.9742
依主釋也	-10.9743
本疏	-10.9743
畢	-10.9744
結生相續	-10.9744
苦因	-10.9744
如理應思	-10.9745
慈愍	-10.9748
第三果	-10.9749
復能	-10.9752
所遍計	-10.9753
熏生	-10.9756
應生	-10.9757
四攝	-10.9759
有七種	-10.9759
法行	-10.9764
心所相應	-10.9764
總顯	-10.9766
義成	-10.977
己身	-10.9771
名見	-10.9772
復於	-10.9773
師義	-10.9776
無退	-10.9777
解者	-10.978
慧為體	-10.978
更加	-10.9785
復次若	-10.9785
安處	-10.9786
生緣	-10.9787
善士	-10.9792
離彼	-10.9794
不現見	-10.9795
前已	-10.9797
三無漏根	-10.9799
有釋	-10.9799
不相違故	-10.9803
因緣變	-10.9803
默	-10.9809
陳那	-10.981
高下	-10.9811
之物	-10.9814
形量	-10.9814
響	-10.9815
毗	-10.9816
清淨法	-10.9817
泥	-10.9818
答此	-10.9819
妻子	-10.982
六入	-10.9821
結集	-10.9822
增上心	-10.9823
所依根	-10.9823
三歸	-10.9823
色等法	-10.9826
半擇迦	-10.9829
非恒	-10.9833
惡心	-10.9835
言非	-10.9838
雖知	-10.9841
詰	-10.9845
如大論	-10.9846
更無餘	-10.9846
生上地	-10.9846
聖弟子	-10.985
善說	-10.985
半頌	-10.9851
道果	-10.9854
不顯	-10.9855
前前	-10.9855
空行	-10.9855
行德	-10.9856
空無	-10.9858
方可	-10.9861
第一卷	-10.9863
不答	-10.9863
自行	-10.9869
後依	-10.9871
所了	-10.9871
體雖	-10.9874
喜足	-10.9874
似色	-10.9876
能發業	-10.9879
戒禁	-10.9879
無漏故	-10.9879
脩習	-10.9879
舊論	-10.988
先標	-10.9885
一就	-10.9887
下破	-10.9888
雖多	-10.9888
大有	-10.9888
既同	-10.9889
通論	-10.9889
依他圓成	-10.9891
入初地	-10.9895
若不許	-10.9896
此中言	-10.9898
濟	-10.9901
其所	-10.9901
無彼	-10.9901
又解云	-10.9903
彼所	-10.9903
故不可	-10.9905
為作	-10.9907
彌	-10.9907
信心	-10.9909
弊	-10.9909
親證	-10.9909
先世	-10.9911
之後	-10.9911
悕望	-10.9912
主宰	-10.9912
得彼	-10.9914
七依	-10.9915
生身	-10.9923
便起	-10.9923
第一解	-10.9925
為常	-10.9927
自緣	-10.9928
彼由	-10.9929
生欲界	-10.9935
我說	-10.9936
上假立	-10.9936
無其	-10.9937
地前菩薩	-10.994
又非	-10.9943
無量功德	-10.9945
覺慧	-10.9948
下一句	-10.9948
說一乘	-10.9948
一總	-10.9954
中際	-10.9962
令諸有情	-10.9962
且據	-10.9966
下解	-10.9969
先時	-10.9972
或名	-10.9975
內種	-10.9976
彼非	-10.9982
族	-10.9983
通達位	-10.9985
遍染心	-10.9985
納	-10.9986
唯欲界	-10.9986
諸聖	-10.9987
扶塵	-10.9988
「	-10.9988
疏文	-10.9989
無間解脫	-10.9989
施物	-10.999
又前	-10.999
佛所	-10.9992
問意	-10.9992
之位	-10.9992
牟尼	-10.9993
或緣	-10.9994
求者	-10.9996
清淨法界	-10.9999
邊執見	-10.9999
他方	-11.0001
作如是說	-11.0001
分析	-11.0001
分為四	-11.0001
所緣相	-11.0005
利樂有情	-11.0007
斷煩惱障	-11.0009
他故	-11.0011
由此故知	-11.0013
中間禪	-11.0015
界中	-11.0022
如經	-11.0022
難破	-11.0023
無方分	-11.0023
恒隨轉	-11.0023
自受	-11.0024
一界	-11.0033
便非	-11.0034
緣相	-11.0038
五戒	-11.0039
不二	-11.004
亦隨	-11.004
更相	-11.0046
計有	-11.0046
身表	-11.0046
所須	-11.0048
忘失	-11.0051
彼岸	-11.0053
分七	-11.0054
第三卷	-11.0056
復為	-11.0058
能自	-11.006
妙慧	-11.0061
久遠	-11.0062
立因	-11.0065
諸處	-11.0065
有幾種	-11.0065
貧	-11.0067
修起	-11.0067
隨事	-11.0072
根者	-11.0073
難得	-11.0073
廣辯	-11.0075
牙	-11.0076
富貴	-11.008
無間斷	-11.008
強盛	-11.0081
處起	-11.0083
彼依	-11.0084
未審	-11.0087
器世界	-11.0087
無差	-11.0089
依識	-11.009
略有四種	-11.0093
壽煖	-11.0095
世道	-11.0096
同品	-11.0097
既然	-11.0097
同境	-11.01
行也	-11.0107
生巳	-11.0108
無礙智	-11.0114
損伏	-11.0115
當體	-11.0117
得自在故	-11.0122
同也	-11.0126
平等平等	-11.0128
利生	-11.0128
由先	-11.0131
即言	-11.0132
為根本	-11.0134
於其中	-11.0134
思擇力	-11.0134
增上者	-11.0134
增上戒	-11.0139
由自	-11.014
法空智	-11.0146
應修	-11.0149
謂住	-11.015
行法	-11.0152
前來	-11.0152
如夢	-11.0152
聖性	-11.0153
共不共	-11.0154
正加行	-11.0156
典	-11.0157
識等五	-11.0158
俱舍論	-11.0161
粗	-11.0162
營	-11.0164
諸經	-11.0166
引教	-11.0166
我為	-11.0168
圓寂	-11.0175
又應	-11.0176
二量	-11.0176
淨定	-11.0178
▁初標	-11.0179
略義	-11.0182
苾蒭	-11.0183
論文中	-11.0184
教授教誡	-11.0184
五處	-11.0187
諸障	-11.0188
因緣種	-11.0189
外塵	-11.0192
此皆	-11.0194
八地已上	-11.0195
仙人	-11.0196
推度	-11.0199
五數	-11.0202
自在轉	-11.0206
說一切法	-11.0206
若無此識	-11.0208
出世法	-11.0209
備云	-11.0211
卷云	-11.0212
於定	-11.0212
宗鏡云	-11.0213
方是	-11.0213
先已	-11.0216
諍論	-11.0218
此色	-11.0221
有緣	-11.0223
妄見	-11.0223
即緣	-11.0225
悲願	-11.0228
是不善	-11.0228
諸善法	-11.023
舉數	-11.0231
相應心所	-11.0232
惑種	-11.0234
增上義故	-11.0239
婬	-11.024
於下	-11.024
降	-11.0242
文分為二先	-11.0246
道中	-11.0249
飢渴	-11.0251
妻	-11.0253
幽	-11.0253
勸導	-11.0258
大法	-11.026
見道前	-11.026
如所說	-11.0261
晝夜	-11.0261
迷亂	-11.0262
十二部經	-11.0265
轉易	-11.0265
善無記	-11.0266
具知根	-11.0267
此中說	-11.0267
為大	-11.0267
一邊	-11.0269
愛非愛	-11.0269
為種子	-11.0271
十煩惱	-11.0272
小乘法中	-11.0273
演曰六	-11.0282
通二種	-11.0282
不相違因	-11.0282
若復	-11.0282
聲聞藏	-11.0287
入出息	-11.029
定果	-11.029
橫計	-11.0294
此菩薩	-11.0295
捨者	-11.0296
堅執	-11.03
有愛	-11.0302
受學	-11.0302
法名	-11.031
恒與	-11.0311
汝言	-11.0317
各別故	-11.0317
尸	-11.0318
習近	-11.0319
非執受	-11.0326
初念	-11.0328
六十二	-11.0329
四生	-11.0329
何故說	-11.033
分別門	-11.033
俱得	-11.0334
悉是	-11.0338
諸惡行	-11.0339
彼識	-11.0342
狗	-11.0342
身邊二見	-11.0345
柔軟	-11.0347
墮在	-11.0348
有兩	-11.0348
三字	-11.0348
便為	-11.0349
於理無違	-11.0352
如所有性	-11.0355
鬼畜	-11.0356
定道	-11.0356
初中有二	-11.0357
生下	-11.0358
一實	-11.0358
眼界	-11.0361
此文即	-11.0361
施主	-11.0361
想受滅	-11.0362
由二因緣	-11.0362
相符	-11.0367
破他	-11.037
業所感	-11.0373
演曰後辯	-11.0373
初二果	-11.0373
器界	-11.0374
四總結	-11.0375
是諸菩薩	-11.0376
身上	-11.0379
前十	-11.0384
世出世間	-11.0385
凡所	-11.0386
至得	-11.0386
品說	-11.0391
即將	-11.0391
須陀洹	-11.0394
佛性論	-11.0395
其因	-11.0395
若已	-11.04
相稱	-11.04
定不定	-11.0402
彼心	-11.0404
並名	-11.0406
亦不成	-11.0408
了因	-11.0408
七八二識	-11.0409
初說	-11.0413
非數滅	-11.0414
此時	-11.0415
亦令	-11.0415
第三師	-11.0416
未了	-11.0417
初云	-11.0418
厚	-11.0425
永不	-11.0427
事理	-11.0428
後得智中	-11.0429
每	-11.0431
廣說如經	-11.0432
醉	-11.0432
成事智	-11.0433
不愛	-11.0433
謂初	-11.0435
疎遠	-11.0437
無性云	-11.0439
由此義故	-11.0441
修所成	-11.0442
先所	-11.0442
諸法種子	-11.0442
貪嗔癡	-11.0444
義門	-11.0446
此舉	-11.0448
此句	-11.0449
相應無明	-11.0451
如來地	-11.0454
中文	-11.0457
解脫身	-11.0462
種子生現行	-11.0463
樂著	-11.0463
有執受	-11.0467
成實論	-11.047
云何知	-11.047
別報業	-11.0471
至心	-11.0472
現在前時	-11.0473
為六	-11.0474
云何可見	-11.0478
此間	-11.048
依士釋	-11.0482
非擇	-11.0484
現故	-11.0484
七地巳前	-11.0484
以何	-11.0486
非一異	-11.0486
利益事	-11.0487
問如	-11.0487
他受用身	-11.0488
現前故	-11.0488
有過	-11.049
能了別	-11.0491
此根	-11.0491
無體故	-11.0495
異說	-11.0496
遷	-11.05
所染	-11.0502
前生	-11.0504
所依身	-11.0504
攝也	-11.0505
妄念	-11.0505
又無	-11.0508
可為	-11.0509
未入	-11.0511
慧者	-11.0512
𦦨	-11.0512
略明	-11.0514
火等	-11.0515
即離	-11.0515
常有	-11.0515
曉	-11.0516
四業	-11.0517
為當	-11.0519
宅	-11.0522
義顯	-11.0522
有根	-11.0523
端嚴	-11.0523
化地部	-11.0525
發露	-11.0526
正顯	-11.0526
證入	-11.0527
寺	-11.0527
離生喜樂	-11.0528
出入息	-11.0531
業障	-11.0532
不證	-11.0534
十智	-11.0535
發勤精進	-11.0535
觀察作意	-11.0535
餘心所	-11.0539
何因緣故	-11.054
涅盤	-11.0543
攝在	-11.0545
亦具	-11.0546
諸門分別	-11.0547
唯與	-11.0548
五逆	-11.055
定也	-11.0552
有實用	-11.0554
上生	-11.0558
中隨	-11.0561
難解	-11.0567
即攝	-11.0571
雖得	-11.0571
今當	-11.0572
差別應知	-11.0572
箇	-11.0573
離言說	-11.0574
於中初	-11.0574
寒	-11.0575
語者	-11.0575
慧眼	-11.0578
委	-11.0581
感果	-11.0588
斷道	-11.0596
八根	-11.0597
或分為	-11.0598
羊	-11.0601
通有	-11.0603
難也	-11.0605
識類	-11.0606
自性無記	-11.0607
名非	-11.0608
洲	-11.0609
界攝	-11.0609
作因	-11.061
功能差別	-11.061
殷重	-11.0613
胎藏	-11.0615
後彰	-11.0617
轉成	-11.0618
善不善業	-11.0619
傷	-11.062
五通	-11.062
成無漏	-11.062
義不成	-11.0622
由其	-11.0623
獄	-11.0623
萬物	-11.0624
可成	-11.0625
不增不減	-11.0626
同利	-11.0626
增上慧學	-11.0628
二立	-11.063
影顯	-11.0637
擇法	-11.0637
勝解行地	-11.0638
增上心學	-11.0639
或因	-11.0641
上文	-11.0641
移轉	-11.0642
以自	-11.0642
初列	-11.0643
陵	-11.0644
外無別	-11.0645
出息	-11.0648
能照	-11.0649
無學道	-11.0649
所招	-11.0649
五十六	-11.0651
二辨	-11.0652
性罪	-11.0652
攝入	-11.066
方便故	-11.0663
苦法智	-11.0663
皆空	-11.0666
追	-11.0667
問云何	-11.0668
所破	-11.0668
為有情	-11.0669
法眼	-11.067
決了	-11.067
等為	-11.0671
薄伽梵	-11.0672
是法	-11.0673
通力	-11.0673
識等五種	-11.0675
愍	-11.0678
說如是言	-11.0678
能行	-11.0678
有質礙	-11.0678
能住	-11.0681
名生	-11.0684
若別	-11.0685
則為	-11.0686
謂諸如來	-11.0687
即入	-11.0688
不與取	-11.0689
此即是	-11.0689
於現在世	-11.0689
五品	-11.0692
永伏	-11.0692
除其	-11.0693
前解為勝	-11.0704
虛偽	-11.0704
無常者	-11.0705
伽他	-11.0705
無礙道	-11.0706
數取趣	-11.0707
具五	-11.0707
有功能	-11.0708
為空	-11.071
義准	-11.0711
有上	-11.0712
不淨品	-11.0713
假想	-11.0714
染者	-11.0715
如燈	-11.0715
第七卷	-11.0716
淺深	-11.0716
同一所緣	-11.0716
光影	-11.0717
俱不成	-11.0717
理門	-11.0718
隨自	-11.0718
為緣生	-11.0718
是主	-11.072
一自性	-11.0722
三十四	-11.0723
邪命	-11.073
何理	-11.0732
自餘	-11.0736
中解	-11.0738
論荅至	-11.0738
釋中有二	-11.0739
前難	-11.074
除之	-11.074
必與	-11.074
等云	-11.0742
今明	-11.0742
唯能	-11.0743
相應門	-11.0744
或於一時	-11.0745
名樂	-11.0745
真如是	-11.0751
假相	-11.0751
種子依	-11.0753
慳悋	-11.0753
是佛	-11.0755
命者	-11.0756
諸佛世尊	-11.0757
是故說言	-11.0758
類故	-11.0758
自境	-11.0759
貪嗔	-11.0759
此品	-11.0762
是空	-11.0763
法空觀	-11.0771
本意	-11.0776
修方便	-11.0781
盲	-11.0784
望前	-11.0786
流出	-11.0789
瑜伽師	-11.0789
於諸法	-11.079
収	-11.0793
罰	-11.0795
衣服	-11.0796
方便因	-11.0797
受想行識	-11.0801
十二分教	-11.0801
狹小	-11.0802
慧學	-11.0802
有二一	-11.0803
餘部	-11.0805
愛取有	-11.0805
展轉相	-11.0806
苦法智忍	-11.0807
運轉	-11.0808
水等	-11.0808
法華經	-11.0809
展轉相望	-11.0809
】【	-11.081
名句	-11.0811
分十	-11.0816
西明云	-11.0818
有幾	-11.0819
具明	-11.0819
通依	-11.082
不應理	-11.0823
發趣	-11.0823
寂靜故	-11.0827
佛無	-11.083
簡異	-11.0831
幻事	-11.0831
由何	-11.0832
相等	-11.0834
親疎	-11.0834
法住	-11.0841
能憶	-11.0843
宗法	-11.0844
違順	-11.0847
總合	-11.0848
名心	-11.0849
是第一	-11.0853
通別	-11.0855
七分別	-11.0858
成辨	-11.0859
時方	-11.0863
為所	-11.0865
法合	-11.0866
三自性	-11.0869
則能	-11.087
大乘宗	-11.0871
第二卷	-11.0872
法上	-11.0873
翻前	-11.0874
標列	-11.0877
斷對治	-11.0878
便得	-11.0882
斷善	-11.0882
義邊	-11.0884
顯其	-11.0887
迷諦	-11.0888
是業	-11.0889
外別有	-11.0893
或無	-11.0894
人等	-11.0895
二問	-11.0896
念慧	-11.0896
八萬劫	-11.0898
法處攝	-11.0899
至下當知	-11.0899
如色	-11.0902
俱相違	-11.0902
難意	-11.0904
本地	-11.0904
當說	-11.0909
是所熏	-11.0909
小乘說	-11.091
若無此	-11.0911
為別	-11.0912
二徵問	-11.0913
有九種	-11.0914
三十二相	-11.0914
不惱	-11.0916
决定	-11.0921
間雜	-11.0921
能化	-11.0923
總答	-11.0925
為生	-11.0926
要集	-11.0927
觀真如	-11.0927
小十	-11.0928
無所緣	-11.0929
未熟	-11.093
貪分	-11.0931
有生	-11.0932
道支	-11.0934
有功用	-11.0934
內有	-11.0938
般若波羅蜜多	-11.094
了義經	-11.094
傍修	-11.0947
初得	-11.0948
詮表	-11.095
可斷	-11.0952
名成	-11.0955
現在法	-11.0957
障者	-11.0958
觀見	-11.0958
同時意識	-11.0963
非由	-11.0963
一部	-11.0966
空華	-11.0966
因體	-11.0974
及無	-11.0977
兒	-11.0978
攬	-11.0979
崇	-11.098
俱通	-11.0981
乃得	-11.0982
貴	-11.0982
資生	-11.0982
為助伴	-11.0984
於事	-11.0988
不善根	-11.0988
安置	-11.0989
無始來	-11.099
住異	-11.0992
是能	-11.0992
趣寂	-11.0995
了相作意	-11.0998
修道中	-11.1002
具二	-11.1005
勝功德	-11.1005
獨名	-11.1007
地大	-11.1009
煩惱現行	-11.1009
教者	-11.1011
折伏	-11.1012
帝釋	-11.1012
不肯	-11.1014
臥具	-11.1016
饒益有情	-11.1017
之種	-11.1017
十地論	-11.102
漸悟	-11.1021
為因緣故	-11.1025
一切門	-11.1026
於眾生	-11.1027
非因	-11.1027
離煩惱	-11.1029
名阿賴耶	-11.103
中第一	-11.1033
次以	-11.1033
攝彼	-11.1034
菩薩如是	-11.1039
心變	-11.1042
之惑	-11.1043
亦斷	-11.1049
緣無	-11.105
釋也	-11.1053
對法論說	-11.1059
梵住	-11.106
過者	-11.1061
懸	-11.1061
中上	-11.1062
二生	-11.1062
銅	-11.1063
教體	-11.1063
所不攝	-11.1064
由無明	-11.1064
有其二種	-11.1065
佛言	-11.1067
八依	-11.1068
皆可	-11.107
慶	-11.1071
任運起	-11.1074
壞滅	-11.1075
若異	-11.1079
良	-11.1079
如前釋	-11.108
苦無常等	-11.108
為十	-11.1082
六十	-11.1083
沙彌	-11.1083
三破	-11.1084
是時	-11.1085
出過	-11.1085
無減	-11.1086
再	-11.1088
聚中	-11.1089
策勵	-11.1089
外有	-11.1089
第二念	-11.1091
信等五	-11.1094
無定	-11.1096
法之	-11.1096
遇緣	-11.1097
無復	-11.1098
知故	-11.11
莊嚴具	-11.1104
成唯識說	-11.1105
勝果	-11.1106
諸隨煩惱	-11.1107
所觸	-11.1107
先於	-11.1108
淨相	-11.1114
豈無	-11.1115
解也	-11.1115
夢境	-11.1118
對前	-11.1118
此種子	-11.112
厭心	-11.112
智品	-11.1121
此由	-11.1123
析	-11.1127
是染	-11.1131
彼亦	-11.1132
指前	-11.1133
一切如來	-11.1134
執者	-11.1137
圓成實自性	-11.1138
世間出世間	-11.1138
須陀	-11.1139
四結	-11.1141
即是此中	-11.1145
聖說	-11.1146
大意	-11.1147
為道	-11.1149
離惡	-11.1154
易脫	-11.1155
於世	-11.1155
一切佛	-11.1155
欲繫	-11.1157
下上	-11.1159
非現	-11.1159
識緣	-11.116
受身	-11.116
於四	-11.1164
地界	-11.1167
與心相應	-11.1171
不定四	-11.1172
緣自	-11.1174
或應	-11.1175
祖	-11.1177
增進	-11.1179
如世間	-11.1179
或現	-11.1179
宮殿	-11.1179
下云	-11.1181
顯理	-11.1182
既通	-11.1182
非時	-11.1185
無量眾生	-11.1185
文中有二初	-11.1186
分限	-11.1192
輕微	-11.1201
為淨	-11.1202
以立	-11.1202
修行者	-11.1204
六支	-11.1204
愚者	-11.1205
所縛	-11.1207
何言	-11.1207
問荅	-11.1208
無畏施	-11.1212
含藏	-11.1212
解脫門	-11.1214
在家出家	-11.1215
不相違也	-11.1216
者意云若	-11.1217
第二義	-11.1217
心心所等	-11.1218
不定過	-11.122
為無	-11.1221
為自性故	-11.1222
七法	-11.1222
一分攝	-11.1223
惱亂	-11.1223
惜	-11.1225
義釋	-11.1227
生法	-11.1227
相同	-11.1227
中收	-11.123
相及	-11.1231
真義	-11.1232
無垢識	-11.1234
親屬	-11.1234
大隨	-11.1238
進趣	-11.1241
修習位	-11.1242
是宗	-11.1243
百劫	-11.1245
破經部	-11.1245
八句	-11.1247
初位	-11.1248
詐	-11.1248
五識俱	-11.1249
建	-11.125
兩門	-11.1253
從本	-11.1255
唯識義	-11.1255
得成佛	-11.1257
餘可知	-11.126
率	-11.1268
有間斷故	-11.127
池	-11.1271
糞	-11.1271
諸纏	-11.1273
徹	-11.1273
托	-11.1274
知者	-11.1274
觀智	-11.1274
無過失	-11.1278
義理	-11.1278
嫉妬	-11.1279
說十	-11.1281
是世間	-11.1282
無相行	-11.1283
難言	-11.1283
富樂	-11.1284
此亦不爾	-11.1286
善逝	-11.1286
疾病	-11.1287
先以	-11.1288
色聲香味觸	-11.129
三於	-11.129
依色根	-11.1295
六界	-11.1296
不息	-11.13
無相觀	-11.1301
體同	-11.1302
答以	-11.1303
增上力	-11.1305
亦尒	-11.1307
故但	-11.1307
現生	-11.1311
彼種	-11.1314
熏發	-11.1314
就此	-11.1317
假色	-11.1321
深信	-11.1322
二障種	-11.1325
於諸行中	-11.1329
據此	-11.1332
所滅	-11.1336
圓明	-11.1338
彼障	-11.134
上忍	-11.1341
染淨法	-11.1341
登	-11.1344
無疑	-11.1345
二障種子	-11.1346
轉根	-11.1351
十五界	-11.1352
者解云	-11.1353
非想非非想	-11.1354
與心	-11.1357
境界故	-11.1359
於勝	-11.1363
惛	-11.1367
色塵	-11.1367
劬勞	-11.1368
猗	-11.1369
於人	-11.1371
薩婆多師	-11.1373
扶根塵	-11.1374
暴惡	-11.1376
佛出世	-11.1376
不如理作意	-11.1377
十六種	-11.1379
於有	-11.1379
是定	-11.138
獨影	-11.138
作是思惟	-11.1382
進修	-11.1387
思慮	-11.1388
得戒	-11.1388
勤精進	-11.1391
生上界	-11.1391
生解	-11.1397
五識緣	-11.1398
生死苦	-11.1398
佛教	-11.1401
上無	-11.1403
人身	-11.1404
能斷惑	-11.1404
此量	-11.1405
波羅	-11.1407
惡戒	-11.1407
逈色	-11.1407
餘非	-11.1409
利鈍	-11.1409
成壞	-11.141
歸敬	-11.1411
龍樹	-11.1411
想等	-11.1412
界等	-11.1414
亦別	-11.1414
論復次至	-11.1415
趣生體	-11.1417
何相	-11.143
就前	-11.1433
不能伏	-11.1433
細分	-11.1433
空門	-11.1435
可生	-11.1436
覆藏	-11.1438
此偈	-11.144
名異熟	-11.1441
臨	-11.1442
前人	-11.1444
始起	-11.1446
時中	-11.1446
是名第二	-11.1449
同地	-11.145
者據	-11.145
等五	-11.145
無勝	-11.145
初徵	-11.145
善淨	-11.1451
第七地	-11.1452
十二種	-11.1452
依實	-11.1456
諸靜慮	-11.1456
護月	-11.1459
異生位	-11.1459
表無表	-11.146
善方便	-11.146
次別	-11.146
勝解作意	-11.1461
煩惱斷	-11.1462
生雜染	-11.1465
名無相	-11.1465
此結	-11.1465
既得	-11.1467
自相共相	-11.1467
身見等	-11.1469
投	-11.1469
受之	-11.147
色性	-11.1472
有輕安	-11.1473
而取	-11.1474
色名	-11.1478
見疑	-11.148
緣上	-11.1481
一切有為	-11.1483
利他行	-11.1483
緣如	-11.1485
不堪	-11.1486
為增上	-11.1488
虗空等	-11.1488
不屬	-11.1492
軛	-11.1494
可然	-11.1494
盡無生智	-11.1495
活	-11.1496
為所依故	-11.1498
大般若	-11.15
復起	-11.1502
次起	-11.1502
二答分三	-11.1503
易了	-11.1503
正修	-11.1504
共住	-11.1504
前九	-11.1505
總略	-11.1505
作具	-11.1505
增語	-11.1508
領解	-11.1509
何別答	-11.1514
忿等十	-11.1515
下三無色	-11.1517
十句	-11.1519
識有	-11.1521
微薄	-11.1521
但明	-11.1524
所詮義	-11.1525
觀此	-11.1525
無漏善	-11.1528
境起	-11.1529
富	-11.153
若如是者	-11.1531
非佛	-11.1534
故者意說	-11.1535
未滿	-11.154
甞	-11.1543
力者	-11.1545
不足	-11.1546
廣破	-11.1547
現緣	-11.1548
略由	-11.1549
種子也	-11.1551
一來	-11.1555
慈氏	-11.156
所執我	-11.1564
憂喜	-11.1564
識依	-11.1565
發言	-11.1566
觀色	-11.1567
接	-11.1568
答若	-11.1568
非必	-11.1568
彌勒菩薩說三藏法師玄奘奉詔譯	-11.1572
初頌	-11.1572
生死相續	-11.1572
三十七	-11.1574
非煩惱	-11.1575
受蘊	-11.1577
辯才	-11.1579
欲行	-11.158
略為	-11.1581
名識	-11.1583
皆盡	-11.1583
先破	-11.1585
令離	-11.1585
根及	-11.1588
現行故	-11.1589
是煩惱	-11.1593
謂離	-11.1598
餘因	-11.1598
於色等	-11.1598
尊者	-11.16
如來住	-11.16
得修	-11.16
七寶	-11.1602
無間緣	-11.1604
故此不說	-11.1606
生喜	-11.1611
時無	-11.1612
四定	-11.1614
色聚	-11.1614
護持	-11.1614
身語意業	-11.1615
生惡趣	-11.1616
住地	-11.1617
諸法自性	-11.1618
唯觀	-11.1618
覺者	-11.162
解脫果	-11.162
於現法	-11.1623
起欲	-11.1624
漏盡通	-11.1625
自業	-11.1627
進退	-11.1627
乃名	-11.1631
然依	-11.1633
不雜	-11.1637
欲得	-11.1638
善法欲	-11.164
親因緣	-11.1644
六境	-11.1644
非於	-11.1648
就彼	-11.1649
得住	-11.165
四正斷	-11.165
妨難	-11.1651
非食	-11.1651
恒沙	-11.1659
二乘等	-11.1661
同事因	-11.1664
八苦	-11.1665
喪	-11.1669
唯二	-11.167
暴	-11.167
證滅	-11.1671
初四	-11.1671
是諸	-11.1672
不退菩薩	-11.1676
因名	-11.1679
為能	-11.168
究竟道	-11.168
境界受	-11.1686
盡所有性	-11.1687
蓮華	-11.1688
阿黎耶識	-11.1688
資助	-11.169
是無為	-11.169
資粮位	-11.1692
有勝	-11.1694
所能	-11.1697
不應說	-11.1699
今且	-11.1699
上流	-11.17
熏習種子	-11.1707
尒	-11.1708
事境	-11.1709
種識	-11.1709
時時	-11.1712
得見	-11.1718
不虛	-11.1718
伏除	-11.1719
無漏現行	-11.1722
華嚴經	-11.1723
以釋	-11.1724
無境	-11.1724
正語	-11.1727
又為	-11.1733
有無不定	-11.1733
空相	-11.1733
依心	-11.1738
無等	-11.174
分段身	-11.174
通明	-11.1741
色種	-11.1742
無記者	-11.1743
我應	-11.1749
等字	-11.1751
有心無心	-11.1751
人空	-11.1751
次第緣	-11.1752
餘時	-11.1752
成不成	-11.1753
▁初明	-11.1754
此第二	-11.1757
四心	-11.1757
犯重	-11.1758
不念	-11.1763
世第一	-11.1764
法喻	-11.1765
隨說	-11.1767
五法中	-11.1768
不一不異	-11.177
水火	-11.1771
血	-11.1772
露	-11.1772
為他說	-11.1773
經生	-11.1773
體既	-11.1773
非色非心	-11.1774
眾中	-11.1777
余	-11.1778
九根	-11.1778
風輪	-11.178
天住	-11.1783
次前	-11.1784
分為三	-11.1785
心外法	-11.1785
於無相	-11.1786
義意	-11.1788
方便善	-11.1793
及佛	-11.1795
雖於	-11.1796
或見	-11.1797
算數	-11.1802
等心	-11.1802
滅法	-11.1805
理教	-11.1806
非所緣	-11.1806
非遍行	-11.1806
二十句	-11.1807
欣厭	-11.1808
皆云	-11.181
自相故	-11.181
名善	-11.1812
九明	-11.1813
三和合	-11.1813
所行境界	-11.1813
所集	-11.1813
不離心	-11.1815
此無明	-11.1816
諸有漏	-11.1816
名同	-11.1818
此見	-11.1818
合釋	-11.1821
網	-11.1821
相應義	-11.1822
已離欲	-11.1823
當地	-11.1825
處說	-11.1828
文言	-11.1832
得緣	-11.1836
頌意	-11.1838
謂隨	-11.1839
破僧	-11.184
或說為	-11.1842
緣實	-11.1842
行住	-11.1842
通三	-11.1848
能緣見分	-11.185
如來所說	-11.1851
能生果	-11.1852
十二支中	-11.1853
離相	-11.1853
作惡	-11.1854
能以	-11.1855
所依止故	-11.1856
之門	-11.186
此就	-11.1861
聲明	-11.1863
名想	-11.1863
學等	-11.1864
隨生	-11.1865
無執受	-11.1869
十障	-11.187
一闡提	-11.1871
但隨	-11.1871
意也	-11.1871
虫	-11.1872
離縛	-11.1872
共成	-11.1873
喜根	-11.1873
矯	-11.1873
地上菩薩	-11.1874
非真實	-11.1874
五所	-11.1876
正思	-11.1877
異不異	-11.1878
澁	-11.1878
正知而住	-11.1878
俱生分別	-11.1879
立理	-11.1879
三際	-11.188
無自性性	-11.1882
名稱	-11.1882
若對	-11.1889
為第一	-11.189
無作用	-11.189
攝善	-11.1892
菩提資糧	-11.1896
次依	-11.1896
所有諸	-11.1896
印持	-11.1899
何故此中	-11.1901
智生	-11.1905
顯揚云	-11.1907
自見	-11.1909
不離身	-11.1909
二體	-11.1909
初心	-11.1911
可通	-11.1913
忍可	-11.1915
即除	-11.1915
色陰	-11.1918
勝法	-11.192
生信	-11.1921
簡之	-11.1922
未潤	-11.1923
識是	-11.1924
行處	-11.1925
之相分	-11.1927
法忍	-11.1927
或總	-11.1929
虗妄分別	-11.193
理應	-11.193
觀四諦	-11.1932
第二云	-11.1933
略標	-11.1935
四見	-11.1935
疎緣	-11.1936
辟支佛	-11.1937
不同小乘	-11.194
無果	-11.1944
漸增	-11.1947
所識	-11.1947
和集	-11.1955
例明	-11.1955
以定	-11.1956
煩惱雜染	-11.1957
亦有二種	-11.1957
起上	-11.1958
斷之	-11.1959
便是	-11.196
大德	-11.1965
觀者	-11.1966
有九品	-11.1969
起諸	-11.1971
鈔	-11.1971
不退轉	-11.1972
無處	-11.1976
六十三	-11.1979
乾	-11.198
慧根	-11.198
青黃赤白	-11.198
是依他	-11.198
俱生俱滅	-11.1982
非道	-11.1983
人無我	-11.1984
億	-11.1986
分故	-11.199
是正	-11.1992
盖	-11.1993
能忍	-11.1993
延	-11.1995
先問	-11.1998
在後	-11.2
名滅	-11.2
忍受	-11.2
遮止	-11.2002
諸轉識	-11.2003
明唯識	-11.2004
承事	-11.2004
資養	-11.2006
明之	-11.2009
得失	-11.201
如汝	-11.201
若如	-11.2011
改轉	-11.2014
但能	-11.2016
無質礙	-11.2017
境智	-11.2018
色想	-11.202
謂之	-11.202
此第二解	-11.2022
無實體	-11.2026
前巳	-11.2026
處轉	-11.2029
則此	-11.203
能趣	-11.2032
則知	-11.2032
即由此	-11.2033
若第六識	-11.2034
離一切	-11.2036
時即	-11.2037
不可意	-11.2037
未曾得	-11.2038
若大乘	-11.2039
皆滅	-11.2041
能發起	-11.2044
所厭	-11.2045
以解	-11.2045
恒起	-11.2046
我能	-11.2047
而修	-11.2049
空觀	-11.2049
身口意	-11.2051
餘八	-11.2056
前約	-11.2056
自能	-11.2059
不等	-11.2059
唯識論云	-11.206
能遍計	-11.2061
外種	-11.2062
遍計所執性	-11.2071
蜜	-11.2072
會云	-11.2073
除彼	-11.2079
無漏慧	-11.2081
四念處	-11.2082
讀誦	-11.2082
見他	-11.2082
釋難	-11.2082
中起	-11.2083
彈	-11.2083
意識相應	-11.2085
意謂	-11.2086
遊戲	-11.2086
灰	-11.2086
相見分	-11.2088
園	-11.2089
滋潤	-11.209
是名下結	-11.209
約對	-11.209
此簡	-11.2091
據實而言	-11.2092
具攝	-11.2092
若依毘曇	-11.2092
優劣	-11.2092
猛赤	-11.2094
有二說	-11.2096
演曰九	-11.2097
第四卷	-11.2098
緣智	-11.2098
断	-11.2099
之別	-11.2099
通有漏無漏	-11.2099
無比	-11.21
不增減	-11.2103
隨好	-11.2106
故涅槃云	-11.2107
兩重	-11.2107
理亦	-11.2114
得增長	-11.2115
八聖道	-11.2117
亦作	-11.2117
如前已	-11.2118
意生身	-11.2121
斷二障	-11.2122
斷所知	-11.2124
即令	-11.2125
加行心	-11.213
以去	-11.2131
堅等	-11.2131
其果	-11.2133
境中	-11.2134
現相	-11.2134
為樂	-11.2137
其事	-11.2137
愛故	-11.2139
入出	-11.2139
有堪能	-11.214
初中後	-11.2143
心得	-11.2143
最勝故	-11.2143
有對色	-11.2145
不久	-11.2146
苦樂受	-11.2148
有異熟	-11.2148
通善惡	-11.2149
位別	-11.215
第十四	-11.2151
是依他起	-11.2154
等者意云	-11.2156
此七	-11.2158
何意	-11.2159
應受	-11.2164
為利益	-11.2164
解行地	-11.2166
共生	-11.2168
眾色	-11.2172
正障	-11.2173
二廣答分二	-11.2174
相傳	-11.2175
第八緣	-11.2175
如是所說	-11.2177
佛為	-11.2179
解深密	-11.2181
名住	-11.2182
亦應有	-11.2186
阿梨耶	-11.2186
譏	-11.2188
卷第十	-11.2188
嗢拕南曰	-11.2189
位次	-11.2191
靈	-11.2191
三能變	-11.2193
能徧計	-11.2193
六事	-11.2194
或此	-11.2194
可厭	-11.2195
變者	-11.2196
擯	-11.2196
復有差別	-11.2197
立三	-11.2199
勝義無性	-11.22
□□□□	-11.2201
不同故	-11.2202
轉輪王	-11.2203
內法異生	-11.2203
佛子	-11.2204
正體智	-11.2204
名隨煩惱	-11.2208
如我	-11.2212
麤動	-11.2212
彼諸	-11.2212
麁色	-11.2212
令知	-11.2214
寂止	-11.2217
初言	-11.2218
於過去	-11.2219
常無	-11.2221
已成	-11.2222
答意	-11.2223
子微	-11.2224
非緣	-11.2224
上妙	-11.2226
諸有學	-11.2227
何因緣	-11.2228
第二依	-11.2228
天耳	-11.2229
喜樂捨	-11.2229
能攝受	-11.2229
涅槃界	-11.2235
具分	-11.2236
男根	-11.2237
依他起相	-11.2238
苦集諦	-11.2239
立二	-11.224
界差別	-11.2245
五俱意識	-11.2247
死者	-11.2248
曾無	-11.2248
於一時	-11.2249
本願	-11.2249
為滅	-11.2252
俱解脫	-11.2252
法教	-11.2253
資財	-11.2254
三障	-11.2255
是故說	-11.2256
眾相	-11.2257
彼因	-11.2258
無識	-11.226
善說法	-11.2267
即蘊	-11.2269
無明行	-11.2277
三人	-11.2278
頓生	-11.2281
若爾如何	-11.2282
七眾	-11.2284
我是	-11.2287
中除	-11.2288
影像相	-11.2289
中之	-11.229
此應	-11.2293
名異熟生	-11.2293
作是言	-11.2293
遲	-11.2294
從緣	-11.2295
稠林	-11.2297
十支	-11.2297
善修習	-11.2297
呵責	-11.2298
脚	-11.2298
涉	-11.2298
不正思惟	-11.2298
准下	-11.2299
初依	-11.2302
如世尊言	-11.2303
顯前	-11.2307
饒益有情戒	-11.231
隨欲	-11.231
二別釋分二	-11.2311
若隨	-11.2312
乃至有頂	-11.2312
若定	-11.2313
三辯	-11.2313
定等	-11.2314
無有是處	-11.2316
餘煩惱	-11.2317
為生因	-11.2318
五十三	-11.2319
得法	-11.232
已有	-11.2321
心品	-11.2321
有情界	-11.2323
名外	-11.2324
隣	-11.2325
生厭	-11.2326
自利行	-11.2326
已作	-11.2327
會釋	-11.2329
變化心	-11.2329
判屬	-11.2333
但與	-11.2334
長壽	-11.2335
得無漏	-11.2337
第四禪中	-11.2338
謂阿羅漢	-11.234
成佛時	-11.2342
至皆	-11.2343
第二禪	-11.2345
亦應無	-11.2347
無因緣	-11.2348
初義	-11.2349
無用故	-11.2349
我亦	-11.235
計執	-11.235
得無上菩提	-11.2351
假建立	-11.2353
不熏	-11.2354
對法第十	-11.2357
別法	-11.2361
受想等	-11.2361
誓願	-11.2364
得之	-11.2364
初中有三	-11.2365
處生	-11.2367
謂餘	-11.2368
信者	-11.2368
類同	-11.237
退轉	-11.2371
能壞	-11.2373
二無心定	-11.2374
助成	-11.2376
不顧	-11.2378
能變識	-11.2381
耳等	-11.2382
行修	-11.2382
不了義	-11.2383
由如是	-11.2383
智斷	-11.2384
彼論云	-11.2385
諸事	-11.2385
第五解	-11.2392
凝	-11.2392
彼種子	-11.2392
𤏙	-11.2393
如似	-11.2394
文中分二初	-11.2397
耎	-11.2398
更互相	-11.2399
空識	-11.2399
此果	-11.24
過現	-11.2402
揚	-11.2402
大同	-11.2402
研	-11.2404
顯揚第一	-11.2404
合明	-11.2405
報佛	-11.2406
熾盛	-11.2406
八萬四千	-11.2407
彼雖	-11.2407
性空	-11.241
憤發	-11.2412
受熏持種	-11.2412
不善無記	-11.2416
隱沒	-11.2417
不達	-11.2419
不能知	-11.2421
觀中	-11.2422
中亦	-11.2423
無性釋云	-11.2424
顯果	-11.2424
起盡	-11.2424
觀時	-11.2426
上心	-11.2426
而現	-11.2429
果上	-11.243
在前	-11.243
第十六心	-11.2431
先斷	-11.2438
往還	-11.2438
為我所	-11.2439
厭背	-11.2439
都無所有	-11.2441
於一切處	-11.2441
由五種相	-11.2442
寬故	-11.2444
此疏文	-11.2446
觀品	-11.2448
之慧	-11.2449
天魔	-11.245
為第二	-11.2455
佛法僧	-11.2455
五十九	-11.2455
四句分別	-11.246
攝大乘論釋	-11.246
總報業	-11.2461
文分為三	-11.2466
彼許	-11.2468
邪分別	-11.2468
能轉	-11.2468
於三世	-11.247
信受	-11.2471
諸有情所	-11.2474
名內	-11.2475
識外	-11.2476
諸苾芻	-11.2481
地者	-11.2482
一對	-11.2482
阿陀那	-11.2483
貪瞋等	-11.2485
十七地	-11.2485
何等為三	-11.2485
慧為性	-11.2486
束	-11.2488
諸行無常	-11.2491
申正義	-11.2493
能遍	-11.2493
巳成	-11.2496
十因中	-11.2497
乃至非想	-11.2498
▁論	-11.2498
四無色	-11.2498
及有	-11.25
問如何	-11.25
一果	-11.25
明記	-11.2501
聖位	-11.2507
行相所緣	-11.2508
步	-11.251
為眾生	-11.2511
定知	-11.2512
是名第三	-11.2512
侵	-11.2513
州	-11.2514
痛	-11.2514
自相續	-11.2517
有漏位	-11.2518
常等	-11.2518
分十一	-11.252
惑故	-11.252
註	-11.252
故說名	-11.252
次第者	-11.2521
二十九	-11.2523
現量得	-11.2523
自性涅槃	-11.2524
論當知	-11.2526
約就	-11.2528
不動業	-11.2528
動搖	-11.253
圓成實攝	-11.2534
審決	-11.2534
巳知根	-11.2535
無學果	-11.2536
明修	-11.2538
無別故	-11.254
一切世界	-11.2542
如緣	-11.2543
有因緣	-11.2543
普於一切	-11.2543
決定心	-11.2545
假說為	-11.2546
亦在	-11.2546
教化眾生	-11.2547
即於如是	-11.2547
此師意說	-11.2548
同聚	-11.2551
次有	-11.2551
命終時	-11.2552
斯乃	-11.2555
第六明	-11.2557
起現行	-11.2557
厭惡	-11.2557
轉勝	-11.256
諸聖者	-11.256
相隨	-11.256
大性	-11.2563
定時	-11.2565
何地	-11.2567
不極成	-11.2569
損壞	-11.2569
會違	-11.2569
之聲	-11.2569
三十三	-11.257
諸位	-11.2573
將欲	-11.2576
六十四	-11.2576
別分	-11.2576
迷苦	-11.2576
彼有	-11.2577
無戲論	-11.2578
正方便	-11.258
起下	-11.2582
八地巳去	-11.2582
強故	-11.2584
七覺支	-11.2584
彼由如是	-11.2584
相合	-11.2585
喻中	-11.2588
工巧處	-11.2589
御	-11.259
各具	-11.259
相用故	-11.259
離障	-11.2591
要期	-11.2591
由有此	-11.2591
摧	-11.2592
離欲界	-11.2592
如斯	-11.2593
即依此	-11.26
彼復	-11.26
亦生	-11.2603
真如性	-11.2604
無貪等	-11.2605
無堪任	-11.2608
戒中	-11.2612
內色	-11.2612
薩埵	-11.2614
俱生我執	-11.2618
今論	-11.2619
音義先	-11.2619
懺	-11.2621
如次配	-11.2624
分五如論	-11.2624
刺	-11.2626
甘	-11.2627
修善法	-11.2627
聚落	-11.263
今當顯示	-11.263
蘊處界等	-11.2631
生善	-11.2631
披	-11.2631
此若無者	-11.2633
極清淨	-11.2635
證成道理	-11.2637
重解	-11.2641
推尋	-11.2642
一時頓斷	-11.2643
待眾緣	-11.2644
文勢	-11.2645
能斷煩惱	-11.2646
大門	-11.2653
有情數	-11.266
諸弟子	-11.2662
梵音	-11.2663
▁初釋	-11.2663
遍緣	-11.2663
法住智	-11.2664
究竟者	-11.2666
略無	-11.2671
諸境	-11.2671
緣種	-11.2675
相應縛	-11.2676
具四義	-11.2678
有餘涅槃	-11.268
令我	-11.2684
緣闕	-11.2684
不墮	-11.2688
雖異	-11.2689
引故	-11.269
於一切種	-11.2691
二藏	-11.2691
以離	-11.2692
至教	-11.2694
非直	-11.2695
離欲者	-11.2695
色非色	-11.27
不但	-11.2701
自己	-11.2707
意言分別	-11.2707
通局	-11.2711
影像相分	-11.2713
遍行五	-11.2713
條	-11.2713
聚色	-11.2717
此何	-11.2717
他利	-11.2718
大乘教	-11.272
於果	-11.2727
演曰七	-11.2727
即識	-11.2728
則非	-11.2729
緣前	-11.2731
不應理故	-11.2731
法自相相違	-11.2732
滅已	-11.2732
餘生	-11.2734
無數	-11.2734
後義	-11.2736
答中	-11.2736
智境	-11.2737
若我	-11.2737
瑜伽論云	-11.2739
及後	-11.2739
無所依	-11.2743
五由	-11.2743
親友	-11.2743
飛	-11.2744
名法身	-11.2744
有為無漏	-11.2745
於大乘中	-11.2746
義類	-11.2748
及無漏	-11.2749
無住處涅槃	-11.275
惡人	-11.2751
增上戒學	-11.2755
身口意業	-11.2756
隱密	-11.2756
三千界	-11.2756
即因	-11.2758
為第三	-11.2758
不顯現	-11.2758
聞已	-11.276
阿僧祇劫	-11.2763
能生識	-11.2764
不相離故	-11.2765
執心	-11.2767
衣食	-11.2767
大段	-11.2768
無本質	-11.2769
伽陀	-11.2772
與後	-11.2775
文分為二初明	-11.2778
得非擇滅	-11.2779
為門	-11.2782
次二句	-11.2783
執彼	-11.2784
轉得	-11.2784
驚	-11.2785
彼界	-11.2785
緣未來	-11.2789
謂諸菩薩於	-11.2789
迷於	-11.279
唯修所斷	-11.2791
得相應	-11.2792
皆不離識	-11.2796
問幾	-11.2797
中下	-11.2801
通二性	-11.2802
一切法皆	-11.2803
十地經	-11.2806
自力	-11.2807
二形	-11.2807
論中說	-11.2807
曾有	-11.2809
第三第四	-11.281
而實	-11.2811
逸	-11.2812
事等	-11.2814
第四果	-11.2815
具三義	-11.2818
入此定	-11.2819
五分	-11.2819
非所	-11.282
通有漏	-11.2822
唱	-11.2822
引後	-11.2823
淨行	-11.2828
應理	-11.2832
但得	-11.2835
起滅	-11.2836
果名	-11.2836
求法	-11.2839
種子為	-11.2841
他作	-11.2842
為涅槃	-11.2844
外無	-11.2844
加行位中	-11.2845
泰師	-11.2847
幾種	-11.2851
齒	-11.2852
是俱生	-11.2852
隨眠故	-11.2853
何假	-11.2854
本地分	-11.2855
若正	-11.2855
謂一切法	-11.2856
能作因	-11.2856
實我法	-11.2857
有財	-11.2857
順生	-11.2859
二文	-11.2859
即第八	-11.2859
稽首	-11.286
門也	-11.2861
怯弱	-11.2862
但遮	-11.2869
且舉	-11.2869
空智	-11.287
入見	-11.2876
無明愛取	-11.2877
無慚愧	-11.2881
盡處	-11.2882
能施	-11.2882
於當來世	-11.2885
未轉依位	-11.2886
今觀	-11.2886
故所以	-11.2886
人所	-11.2887
十義	-11.2889
不云	-11.289
亦不應理	-11.2891
外凡	-11.2891
菩薩得	-11.2891
無漏位	-11.2892
繫念	-11.2892
隨業	-11.2894
盡理	-11.2894
空空	-11.2895
演曰二彰	-11.29
有前後	-11.2902
初性	-11.2903
是誰	-11.2904
有無漏	-11.2905
忍者	-11.2906
憶持	-11.2908
名異	-11.2908
皆約	-11.291
品惑	-11.2912
三性中	-11.2913
輪轉	-11.2914
業雜染	-11.2914
若從	-11.2915
十三種	-11.2916
有分別故	-11.2916
屬於	-11.2917
何故名	-11.2918
文中分二一	-11.2918
總為	-11.2919
依真	-11.292
顯現故	-11.2922
我已	-11.2926
由此下	-11.2926
未捨	-11.2927
種子成就	-11.2928
為法	-11.293
為行相	-11.293
處攝	-11.2936
次三	-11.2937
兔角	-11.2938
能隨順	-11.2939
為識	-11.2939
等業	-11.294
擔	-11.294
吐	-11.294
可許	-11.294
境生	-11.294
謂先	-11.2943
唯不善	-11.2944
便應	-11.2944
相增	-11.2944
空義	-11.2945
無間生	-11.2945
取之	-11.2945
上之	-11.2949
正信	-11.295
所生故	-11.2951
易可	-11.2951
為最勝	-11.2952
即於此中	-11.2952
假智	-11.2953
七門	-11.2954
染污法	-11.2955
得初果	-11.2959
修梵行	-11.2959
相緣	-11.296
有退	-11.2961
三千大千世界	-11.2962
一切苦	-11.2963
識俱	-11.2964
而巳	-11.2965
客塵	-11.2966
一略釋	-11.2966
恒審思量	-11.2966
滑	-11.2966
保	-11.2968
隨轉理門	-11.2969
應可	-11.2969
腹	-11.2969
生報	-11.297
色像	-11.297
我語取	-11.2971
最為殊勝	-11.2972
八地以上	-11.2973
從種生	-11.2974
斯陀	-11.2974
不相續	-11.2974
猶預	-11.2975
諸漏永盡	-11.2975
名色等	-11.2975
種子名	-11.2978
一觀	-11.2978
苦滅	-11.2979
第十五	-11.2979
無亂	-11.2983
意俱	-11.2984
不續	-11.2984
人也	-11.2985
境等	-11.2986
隨所欲	-11.2988
拘礙	-11.2989
諸心心法	-11.299
中復二	-11.2993
性攝	-11.2995
然不	-11.3
唯染	-11.3001
十明	-11.3002
無生智	-11.3006
無漏後得智	-11.3006
得道	-11.3007
鼻舌	-11.3008
慢類	-11.3009
於三界	-11.301
一切異生	-11.301
相識	-11.3015
是名略說	-11.3015
成種	-11.3019
云何建立	-11.3019
名得	-11.302
法觀	-11.3021
為定	-11.3021
但據	-11.3023
作是	-11.3023
後身	-11.3027
染淨心	-11.3028
重障	-11.3032
於有情	-11.3034
第五卷	-11.3039
是思	-11.3045
經所說	-11.3047
識所緣	-11.3048
兩釋	-11.3048
五心所	-11.3049
一色	-11.305
智等	-11.305
佛語	-11.3052
是名第一	-11.3053
有種種	-11.3053
善事	-11.3053
好惡	-11.3056
通三乘	-11.3057
果俱有	-11.3059
即是前	-11.3059
第八卷	-11.306
謂眼	-11.3061
帶質	-11.3061
有學無學	-11.3063
分別變	-11.3065
自性分別	-11.3067
噉	-11.3068
四無礙	-11.307
遍行別境	-11.3071
非空	-11.3071
不成故	-11.3073
能隨	-11.3073
耽	-11.3073
事差別	-11.3074
起貪	-11.3075
而知	-11.3076
有行	-11.3077
何勞	-11.3077
為成	-11.3078
此土	-11.3078
理也	-11.3079
遍計所執相	-11.3081
從因生	-11.3081
滯	-11.3081
有所緣	-11.3082
所宜	-11.3082
戀	-11.3083
佛法身	-11.3085
阿毘曇	-11.3085
唯自	-11.3085
一辯	-11.3085
孔	-11.3086
五十一心所	-11.3087
影略	-11.3087
心與心所	-11.3089
尺	-11.3089
應以	-11.309
葢	-11.309
善惡等	-11.3092
無塵	-11.3093
省	-11.3093
非徧行	-11.3094
生生	-11.3095
後隨別釋	-11.3098
平等故	-11.3099
大力	-11.3101
諸佛法身	-11.3102
敬禮	-11.3103
色香味觸	-11.3104
為所緣境	-11.3109
不共佛法	-11.3111
內緣	-11.3114
本計	-11.3115
發語	-11.3115
有之	-11.3117
以說	-11.3118
時得	-11.3123
貪等煩惱	-11.3124
諸度	-11.3125
苦集滅道	-11.3129
財法	-11.3129
憂受	-11.313
如世尊說	-11.3131
應起	-11.3132
緣力	-11.3132
處時	-11.3133
入大乘	-11.3136
此復云何	-11.3137
願求	-11.3139
然而	-11.314
一剎那中	-11.3141
辨相	-11.3141
分別所起	-11.3142
是能緣	-11.3142
見慢	-11.3142
所依處故	-11.3143
頓漸	-11.3145
無病	-11.3146
所問	-11.3147
口業	-11.3149
縱許	-11.3149
若使	-11.3152
第十卷	-11.3159
四神足	-11.3159
不能自	-11.316
一切色	-11.3161
應為	-11.3161
者不然	-11.3161
攝法	-11.3161
演曰八	-11.3162
無記故	-11.3162
金銀	-11.3162
或作	-11.3163
體實	-11.3163
停	-11.3166
名取	-11.3166
大種所造	-11.3167
不護	-11.3168
靜慮者	-11.3168
起言說	-11.3168
為解脫	-11.3169
如瑜伽	-11.3172
何以故以	-11.3173
平等心	-11.3173
雖依	-11.3173
此位中	-11.3176
差別建立	-11.3177
與一切	-11.3177
惱害	-11.3178
復更	-11.3179
心受	-11.3179
有十六	-11.318
名體	-11.3182
或分為二	-11.3187
學道	-11.3187
定位	-11.3189
在現在	-11.319
正辨	-11.3192
藤	-11.3194
淨不淨業	-11.3197
有非有	-11.3197
分別惑	-11.32
攝義	-11.3201
祠祀	-11.3202
吾	-11.3204
行於	-11.3204
無厭	-11.3205
想蘊	-11.3207
流注	-11.3207
餘十	-11.3207
本無今有	-11.3208
諂誑	-11.3208
西國	-11.3208
一標經句	-11.321
唯是有漏	-11.321
起此	-11.3211
緣下	-11.3211
謟	-11.3211
隨何	-11.3213
起慢	-11.3214
此所	-11.3214
無容	-11.3215
珍寶	-11.3216
名句等	-11.3218
煩惱隨煩惱	-11.3218
無有我	-11.322
善道	-11.322
當起	-11.3221
餘位	-11.3222
能證得	-11.3226
破執	-11.3228
染分	-11.3229
即在	-11.323
香味觸	-11.3232
所知事	-11.3232
違自宗	-11.3234
四字	-11.3234
退還	-11.3235
感生	-11.3236
自共相	-11.3237
名不成	-11.3239
立義	-11.324
對法說	-11.3241
佛事	-11.3243
其境	-11.3243
隣次	-11.3243
願智	-11.3245
有漏故	-11.3246
略不說	-11.3248
有頂地	-11.3249
名一切種	-11.325
五根五塵	-11.3251
泰	-11.3253
到究竟	-11.3255
為問	-11.3256
等亦	-11.3258
如是諸	-11.3259
議	-11.3261
真空	-11.3262
我空	-11.3262
喜捨	-11.3264
種望	-11.3264
有兩釋	-11.3264
如大	-11.3265
如前廣說	-11.3265
忍位	-11.3266
淨天	-11.3268
緣所生	-11.3269
共依	-11.327
起用	-11.3272
三十八	-11.3274
唯識觀	-11.3274
思現觀	-11.3274
中有二初	-11.3274
非諸	-11.3275
事識	-11.3276
八相	-11.3276
彼名	-11.3277
能斷道	-11.3279
名義如是	-11.3282
財位	-11.3284
無漏有為	-11.3287
修成	-11.3289
乃至於	-11.3292
種名	-11.3294
摧伏	-11.3295
大果	-11.3302
外道執	-11.3303
不能得	-11.3304
由此應知	-11.3304
何識	-11.3305
辨體	-11.3307
間起	-11.3307
亦不可	-11.3309
一支	-11.3311
第一釋名	-11.3312
相續中	-11.3312
自在天	-11.3312
對彼	-11.3314
中有五	-11.3316
取果	-11.3317
第三云	-11.3319
是能熏	-11.3319
唯攝	-11.332
中唯	-11.332
名利	-11.332
勝品	-11.3321
性非	-11.3322
漂	-11.3322
違背	-11.3322
異見	-11.3323
非有故	-11.3324
笑	-11.3324
無犯	-11.3324
聖教說	-11.3324
踈	-11.3324
之樂	-11.3326
舉頌	-11.3326
非自	-11.3326
何也	-11.3327
不俱起	-11.3327
至教量	-11.3329
文中有二	-11.3332
我者	-11.3333
雜修	-11.3334
我無	-11.3334
萬法	-11.3336
經典	-11.3338
從此無間	-11.334
外道等	-11.3343
所入	-11.3343
無漏識	-11.3344
就初	-11.3345
不恒	-11.3347
邪正	-11.3347
亦無失	-11.3349
從緣生	-11.3351
正起	-11.3352
若汝	-11.3353
或在	-11.3355
窮盡	-11.3357
聖行	-11.3357
若略說	-11.3359
總觀	-11.3359
未知根	-11.3359
世尊說	-11.336
後別釋	-11.3361
文分三段	-11.3361
若他	-11.3362
例同	-11.3363
識名	-11.3364
中般	-11.3365
个	-11.3365
俱句	-11.3366
則不如是	-11.3368
意在	-11.3369
滅心	-11.337
定俱	-11.3371
此卷	-11.3371
雖斷	-11.3372
不同前	-11.3374
修加行	-11.3374
說一切	-11.3375
自無	-11.3377
次引證	-11.3378
不動地	-11.3379
等行	-11.3379
有四義	-11.3385
體上	-11.3386
或不	-11.3387
知諸法	-11.3387
是故名	-11.339
立有	-11.339
中先	-11.3394
上中下	-11.3394
境名	-11.3396
章中	-11.3397
為同喻	-11.3398
極善	-11.3398
威	-11.34
餘根	-11.3402
和合故	-11.3403
五乘	-11.3404
染不染	-11.3414
伏煩惱	-11.3417
所量	-11.3419
是故當知	-11.3419
分位建立	-11.3419
並皆	-11.3419
值	-11.3422
不得言	-11.3423
有其二	-11.3426
異論	-11.3426
瑜伽處	-11.3429
待緣	-11.343
若時	-11.3431
應知此中	-11.3431
皆用	-11.3432
無餘依涅槃界	-11.3432
六相	-11.3433
穢污	-11.3435
文分為二一明	-11.3435
遊觀	-11.3438
違越	-11.3439
識無邊處	-11.3439
競	-11.3442
充	-11.3442
後二句	-11.3442
可熏	-11.3443
看	-11.3444
新生	-11.3445
無欲	-11.3445
充滿	-11.3446
世事	-11.3448
緣他心	-11.3448
翻譯	-11.3449
淨品	-11.345
此偈明何義	-11.345
煩惱種	-11.3453
轉增	-11.3454
智自在	-11.3454
不恒行	-11.3455
不生不滅	-11.3458
識等五支	-11.3458
他性	-11.346
界內	-11.3461
彼於爾時	-11.3461
具說	-11.3463
氣力	-11.3463
移	-11.3464
隨其次第	-11.3465
欲愛	-11.3466
帝	-11.3468
先舉	-11.3471
索	-11.3471
修正行	-11.3471
中分三	-11.3474
未曾有	-11.3474
本母	-11.3474
違害	-11.3475
彼對治	-11.3477
善慧	-11.3483
顯勝	-11.3484
為真	-11.3486
於何	-11.3488
在見道	-11.349
最清淨	-11.349
二時	-11.3491
初標列	-11.3491
依教	-11.3494
諸文	-11.3502
初正明	-11.3502
調柔	-11.3503
種子現行	-11.3503
外門	-11.3503
之本	-11.3503
無生滅	-11.3505
根本識	-11.3508
覆障	-11.3509
唯斷	-11.351
據勝	-11.3511
為煩惱	-11.3513
自在力	-11.3516
義不同	-11.352
唯見所斷	-11.3521
演曰次	-11.3522
德句	-11.3522
被他	-11.3524
更有餘	-11.3525
習種	-11.3526
是真實	-11.3527
多諸	-11.3528
流類	-11.3529
自內	-11.353
義如前說	-11.353
如是說	-11.3532
從多	-11.3533
次論	-11.3533
諂曲	-11.3535
草木	-11.3536
歡	-11.3536
能永斷	-11.3539
▁次明	-11.3541
今更	-11.3541
表示	-11.3541
分段生死	-11.3542
非遍	-11.3547
意解	-11.3553
不堅	-11.3554
所辨	-11.3554
漏俱	-11.3557
有增減	-11.3557
循	-11.3559
五俱	-11.3559
俱不俱	-11.3561
故者此	-11.3562
亦有三種	-11.3562
鬪諍	-11.3562
翻為	-11.3562
濕生	-11.3562
乏	-11.3562
如其所	-11.3562
暢	-11.3563
所觀境	-11.3564
道共戒	-11.3565
邪欲	-11.3565
互為因	-11.3566
達師云	-11.3566
二廣答	-11.3567
頃	-11.3567
所覆	-11.3569
煩惱業	-11.357
此物	-11.3573
如地	-11.3573
或有或無	-11.3574
白淨	-11.3577
日輪	-11.3578
總說為	-11.3579
近住	-11.3579
若無下	-11.358
有一分	-11.3581
匱乏	-11.3581
是第四	-11.3582
小乘宗	-11.3583
成大	-11.3586
有十八	-11.3586
三心見道	-11.3587
論又諸菩薩至	-11.3587
無見	-11.3589
文分為	-11.359
下別釋	-11.359
所食	-11.3592
如前解	-11.3593
維摩	-11.3594
見道煩惱	-11.3594
何以然者	-11.3594
初地中	-11.3595
等類	-11.3595
出入	-11.3595
於大乘	-11.3597
之餘	-11.3597
義說為	-11.3601
非聖	-11.3606
所不能	-11.3608
無染污	-11.3608
聖住	-11.3609
善惡無記	-11.3609
此境	-11.3609
業等	-11.3609
攝屬	-11.361
符	-11.3611
十中	-11.3612
常相續	-11.3613
細故	-11.3617
是身	-11.3619
地經	-11.3622
地法	-11.3624
謂即於彼	-11.3625
番釋	-11.3625
非為	-11.3626
非見	-11.3628
先觀	-11.3629
異也	-11.363
十方世界	-11.3631
下三禪	-11.3631
退墮	-11.3633
貪心	-11.3633
亦不得成	-11.3633
今為	-11.3634
三界繫	-11.3635
五十二	-11.3635
有自性	-11.3637
亦皆	-11.3637
以別	-11.3638
行位	-11.3638
即以此	-11.364
演曰二徵	-11.364
而彼	-11.3641
光明想	-11.3643
惑業苦	-11.3643
定散	-11.3645
入過去	-11.3646
俗智	-11.3648
名無分別	-11.3649
無形	-11.365
在此	-11.3652
三徵	-11.3655
復有五種	-11.3655
若餘	-11.3656
一分者	-11.3656
相違者	-11.3656
因緣依	-11.3659
過惡	-11.366
明得	-11.3661
稱量	-11.3663
唐	-11.3668
內六處	-11.367
雜染故	-11.3671
薀	-11.3673
大梵	-11.3678
發識	-11.3681
觀之	-11.3683
亦知	-11.3685
孤	-11.3686
常故	-11.3688
故偏說之	-11.3689
卒爾	-11.3689
負	-11.369
餘心	-11.3691
無熏習	-11.3692
獸	-11.3693
筆	-11.3694
點	-11.3695
若有眾生	-11.3695
為加行	-11.3695
此五種	-11.3695
他受用土	-11.3696
煖等	-11.3698
略有六種	-11.3701
亦不可說	-11.3701
不倒	-11.3702
貫穿	-11.3703
如阿羅漢	-11.3704
廣百論	-11.3704
修對治	-11.3705
從無始來	-11.3708
略答	-11.3709
不應有故	-11.3711
欲邪行	-11.3716
是本	-11.3716
依附	-11.3717
身邊	-11.3719
名自性	-11.3719
第八見分	-11.3719
攝因	-11.372
彼所依	-11.3722
新舊	-11.3724
以分	-11.3725
復次頌曰	-11.3725
初中有二先	-11.3727
果報識	-11.3727
說法者	-11.3728
由無	-11.3728
有體法	-11.3728
色及	-11.3728
即違	-11.3729
天趣	-11.373
果義	-11.3731
欲取	-11.3735
岸	-11.3735
瑜伽第十	-11.3739
無住處	-11.3739
縛故	-11.374
未名	-11.3741
遊觀無漏	-11.3742
身語二業	-11.3744
同喻如	-11.3746
違逆	-11.3747
青黃等	-11.3747
及緣	-11.3749
如常	-11.3752
為上首	-11.3755
勝生	-11.3758
之下	-11.3758
生起識	-11.3759
學勝利	-11.3759
若於此	-11.376
此亦應爾	-11.376
不盡理	-11.3761
不生斷	-11.3761
如來說	-11.3761
獄卒	-11.3762
獄卒等	-11.3763
聞者	-11.3763
煗等	-11.3765
二廣解	-11.3765
等用	-11.3766
有何別	-11.377
譽	-11.3774
用者	-11.3777
二月	-11.3778
不放逸者	-11.3778
還復	-11.3779
總立	-11.3779
隨護	-11.378
緣過未	-11.378
略有二	-11.3784
所對	-11.3791
異熟生心	-11.3792
昇	-11.3799
廣前	-11.3799
因起	-11.38
多念	-11.3803
修道所斷	-11.3803
欲為	-11.3803
熏成種子	-11.3805
是唯識	-11.3806
修道位	-11.3806
映	-11.3808
所執性	-11.381
分出	-11.3811
調善	-11.3811
信根	-11.3812
星	-11.3813
奴	-11.3813
遍一切處	-11.3814
諦實	-11.3814
於如是	-11.3815
破小乘	-11.3818
快樂	-11.3818
樹下	-11.3819
所待	-11.3821
怨敵	-11.3821
那洛迦	-11.3822
梁	-11.3822
何位	-11.3823
化佛	-11.3823
勝義無自性性	-11.3827
此偈顯示	-11.3829
縛者	-11.3831
法身故	-11.3831
促	-11.3832
說諸法	-11.3839
所伏	-11.384
令無	-11.3841
怨家	-11.3842
後約	-11.3842
聽者	-11.3842
無漏者	-11.3844
支節	-11.3845
生空智	-11.3847
四名	-11.385
逆次	-11.385
滅因	-11.3853
樂果	-11.3857
謂得	-11.3857
不計	-11.3858
一切境	-11.386
曾得	-11.386
挾帶	-11.3861
自界	-11.3861
俱依	-11.3862
餘緣	-11.3863
內處	-11.3865
令修	-11.3866
所云	-11.3866
體事	-11.3869
無我性	-11.3869
薩婆多宗	-11.387
有何所以	-11.387
此中所說	-11.387
超過一切	-11.3871
義分	-11.3872
名事	-11.3873
勸他	-11.3873
故彼論云	-11.3877
四顛倒	-11.3879
身也	-11.3883
已成熟	-11.3884
無染心	-11.3884
色等諸法	-11.3884
持心	-11.3884
句身	-11.3885
第二解云	-11.3888
亦異	-11.3892
更起	-11.3893
報心	-11.3893
四門竟	-11.3894
根本故	-11.3896
散位	-11.3898
謂諸有情	-11.3898
斷也	-11.3899
稱曰	-11.39
此前	-11.3901
證果	-11.3906
解說	-11.3908
論宗	-11.391
小大	-11.3911
凡夫二乘	-11.3912
所依所緣	-11.3913
變故	-11.3914
憤	-11.3916
頌明	-11.3924
能遮	-11.3924
開蒙	-11.3929
徧染心	-11.3931
因緣生	-11.3931
無異熟	-11.3932
馳	-11.3933
愛非愛果	-11.3937
演曰五明	-11.3939
亦未	-11.3939
斯陀含	-11.394
六七二識	-11.394
所受用	-11.394
渴	-11.394
胎生	-11.3941
婬欲	-11.3942
生位	-11.3942
十二緣	-11.3943
以法	-11.3943
非根	-11.3944
顯說	-11.3946
是所依	-11.3946
難斷	-11.3947
能詮名	-11.3948
攝藏	-11.3948
決斷	-11.3948
具戒	-11.3949
又不	-11.3951
分六如論	-11.3951
能燒	-11.3952
及自	-11.3955
中第二	-11.3956
空也	-11.396
相應心品	-11.3961
相應之	-11.3962
八門	-11.3962
慳貪	-11.3963
真中	-11.3965
滅巳	-11.3965
不究竟	-11.3965
四根	-11.3966
能緣之心	-11.3966
業也	-11.3967
定學	-11.3969
應撿	-11.397
合故	-11.397
境體	-11.3971
後更	-11.3971
以五識	-11.3972
或通	-11.3972
如是展轉	-11.3973
演曰三辯	-11.3973
豈得	-11.3973
亦立	-11.3974
遊行	-11.3974
作佛	-11.3974
亦變	-11.3974
下忍	-11.3976
一說	-11.3976
或生	-11.3977
憂惱	-11.3979
死有	-11.3981
念定慧	-11.3982
無缺	-11.3984
為緣故	-11.3984
功能故	-11.3985
心散亂	-11.3985
於內外	-11.3987
今應	-11.3987
聽受	-11.399
或言	-11.3992
無厭倦	-11.3993
先敘	-11.3993
答依	-11.3994
具二義	-11.3996
親種	-11.4003
初略	-11.4005
有如是	-11.4005
故但說	-11.401
初牒	-11.4011
第一云	-11.4013
或彼	-11.4014
忍智	-11.4015
於所觀境	-11.4015
文中分	-11.4016
勸修	-11.4017
二解釋	-11.4018
後破	-11.4018
能盡	-11.4018
人我	-11.4021
逈	-11.4023
相資	-11.4024
制多	-11.4025
生愛	-11.4028
威勢	-11.4029
五八	-11.403
皆屬	-11.4032
正生	-11.4034
擾	-11.4034
方便中	-11.4036
此觀	-11.4037
果性	-11.4039
後有愛	-11.404
先無	-11.4043
阿那含	-11.4044
重故	-11.4046
聖果	-11.4046
第二門	-11.4046
中初一	-11.4049
等流心	-11.405
異品	-11.405
滿業	-11.4051
之德	-11.4054
餘文	-11.4055
大王	-11.4055
名勝	-11.4057
伏滅	-11.4058
極果	-11.4058
瑜伽等說	-11.4059
為能熏	-11.4059
問前	-11.4059
皆與	-11.406
心倒	-11.406
八萬	-11.4064
非人	-11.4066
純熟	-11.4066
泯	-11.4067
軟語	-11.4067
不敬	-11.4068
哀	-11.4068
旋	-11.4069
包	-11.407
緩	-11.407
族姓	-11.407
滋	-11.407
講	-11.4072
資糧道	-11.4072
同種	-11.4072
復依	-11.4072
十一根	-11.4072
一師	-11.4072
起信	-11.4072
艱難	-11.4074
決定故	-11.4074
此世他世樂	-11.4074
非一非異	-11.4075
釋文	-11.4076
之曰	-11.4077
攝樂作意	-11.4077
法塵	-11.4078
應是無常	-11.408
青色	-11.4082
汝今	-11.4083
諸聖弟子	-11.4083
而不能	-11.4086
思可知	-11.4088
能聞	-11.4088
應時	-11.409
立支	-11.4091
施波羅蜜多	-11.4092
勝鬘經	-11.4094
善果	-11.4095
業中	-11.4098
雖與	-11.4099
三彰	-11.41
出體者	-11.4102
未轉依	-11.4103
菩薩種性	-11.4103
第三時	-11.4104
除佛	-11.4105
無退轉	-11.4106
化他	-11.4106
由轉	-11.4108
山河等	-11.4108
下論文	-11.4112
解行住	-11.4113
非主	-11.4114
迴轉	-11.4114
二顯果分二	-11.4118
正取	-11.4119
沈掉	-11.4122
同世	-11.4122
答彼	-11.4124
五性	-11.4126
怨親	-11.4126
世俗智種子	-11.4127
與諸	-11.4128
亂心	-11.4128
如應	-11.4129
增廣	-11.4131
由智	-11.4135
重觀	-11.4135
第八識中	-11.4136
若於是處	-11.4137
非前	-11.4138
三乘人	-11.414
唯起	-11.4146
盡滅	-11.4151
初能變	-11.4155
初以	-11.4156
得圓滿	-11.4158
二差別	-11.416
令身	-11.416
文中有	-11.4161
各有二	-11.4161
謂於一切	-11.4162
於十方	-11.4162
身器	-11.4162
有尋有伺	-11.4164
第七八識	-11.4166
二念	-11.4167
通釋	-11.4167
果德	-11.417
宿住	-11.4171
而發	-11.4171
淨穢	-11.4172
盡壽	-11.4173
萬行	-11.4173
三說	-11.4175
應不得成	-11.418
與見	-11.418
貪癡	-11.4184
柱	-11.4186
且第一	-11.4187
合響宗鏡	-11.4191
意識中	-11.4191
之苦	-11.4192
未說	-11.4192
麻	-11.4194
奇	-11.4194
調暢	-11.4195
爛	-11.4196
不分	-11.4197
名別	-11.4198
彼生	-11.42
迫	-11.42
捨相	-11.42
竭	-11.4201
災橫	-11.4202
擾亂	-11.4203
本智	-11.4204
所趣	-11.4205
是初	-11.4206
略舉	-11.4207
寶性論	-11.4208
不作意	-11.4208
七轉識	-11.4212
三無漏	-11.4213
息滅	-11.4213
先得	-11.4215
此二法	-11.4215
用彼	-11.4216
餘文可知	-11.4218
道智	-11.4218
此義不然	-11.4221
修慈	-11.4222
真如體	-11.4226
此中顯示	-11.4227
者所謂	-11.4228
若有漏	-11.4229
教行	-11.4229
翻對	-11.4229
證二空	-11.4231
如是四種	-11.4232
日光	-11.4232
論世尊至	-11.4233
出世智	-11.4235
所立不成	-11.4236
生無想天	-11.4236
業報	-11.4238
世智	-11.4238
者約	-11.424
中說偈	-11.4241
即屬	-11.4243
羅漢果	-11.4243
入胎	-11.4243
故唯識云	-11.4244
得知	-11.4247
所知境界	-11.4249
妙善	-11.4249
本法	-11.425
生空觀	-11.4252
世親攝論	-11.4252
第二能變	-11.4253
五六	-11.4257
手足	-11.4257
略不	-11.4257
不迷	-11.4261
語表	-11.4262
多名	-11.4265
求解脫	-11.4265
離質	-11.4266
有種	-11.4267
名淨	-11.4268
入觀	-11.4268
餘趣	-11.4268
常起	-11.4271
現證	-11.4271
各各別	-11.4275
不越	-11.4277
方處	-11.4278
受想思	-11.428
三乘無學	-11.4282
後識	-11.4282
法同分	-11.4285
和雜	-11.4285
老死支	-11.4286
常行	-11.4287
是徧行	-11.4289
常恒	-11.4289
能潤	-11.429
十五種	-11.4291
非色心	-11.4291
是知	-11.4292
作善	-11.4293
前二句	-11.4296
九心	-11.4296
簡去	-11.4297
割	-11.4297
於三界中	-11.4302
三分別	-11.4302
必應	-11.4303
稱為	-11.4303
等者意說	-11.4304
外處	-11.4311
故作是說	-11.4313
三性門	-11.4314
論由	-11.4314
佛地論云	-11.4316
如涅槃	-11.4316
可依	-11.4319
所託	-11.432
無明與	-11.4321
故不與	-11.4322
則不得	-11.4322
雖緣	-11.4323
大論第十	-11.4326
搆	-11.4326
戒行	-11.4326
險	-11.4326
雖通	-11.4327
斥前	-11.4329
忿恨	-11.4329
證有	-11.433
因果俱	-11.4331
知之	-11.4331
婦	-11.4331
朝	-11.4331
衣鉢	-11.4332
分八	-11.4332
此復三種	-11.4332
威儀路	-11.4332
諸聖教	-11.4332
謂有國王	-11.4334
博	-11.4334
三摩鉢底	-11.4335
不犯者	-11.4336
無人	-11.4337
扇	-11.4337
轉捨	-11.4338
隨時	-11.4342
而行布施	-11.4343
若佛	-11.4343
法藏	-11.4343
能成辦	-11.4345
入息出息	-11.4345
諸德	-11.4346
教中	-11.4348
六中	-11.4351
有依	-11.4352
諸善根	-11.4352
一切雜染	-11.4352
㸦	-11.4352
其量	-11.4353
亦兼	-11.4355
隨情	-11.4355
五十	-11.4355
為識支	-11.4357
相異	-11.4357
先徵	-11.4358
智人	-11.4359
有漏業	-11.4359
無相故	-11.4361
章云	-11.4362
遮罪	-11.4363
招感	-11.4363
妄生	-11.4364
所慮	-11.4365
景師	-11.4366
輪迴	-11.4367
若大乘中	-11.4369
滅定等	-11.4371
一大	-11.4371
心不相應行	-11.4371
由因	-11.4373
分也	-11.4374
一日	-11.4374
各有三	-11.4377
扶	-11.4377
第十地菩薩	-11.4378
不動行	-11.4378
頓起	-11.4379
為遮	-11.4386
並起	-11.4388
親依	-11.4388
恒轉	-11.439
授與	-11.4391
所熏習	-11.4391
力用	-11.4391
別脫	-11.4392
諸阿羅漢	-11.4392
已盡	-11.4394
及見	-11.4394
十波羅蜜	-11.4395
五緣	-11.4395
不了義經	-11.4397
自稱	-11.4398
壽盡	-11.4399
通無記	-11.4401
類忍	-11.4404
五人	-11.4404
語聲	-11.4405
期心	-11.4405
異生性障	-11.4405
無常想	-11.4406
我見等	-11.4406
少欲	-11.4409
究竟故	-11.4411
生疑	-11.4412
入唯識	-11.4416
過慢	-11.4417
七十八	-11.4417
不淨等	-11.4417
能令心	-11.4419
亦有三	-11.4421
還淨	-11.4422
別境中	-11.4422
究竟現觀	-11.4423
此世	-11.4423
我所見	-11.4425
有諸	-11.4425
治道	-11.4426
滅心定	-11.443
具縛	-11.4432
以慧	-11.4433
為上	-11.4433
謂無明	-11.4434
順逆	-11.4434
佛道	-11.4435
四人	-11.4441
天等	-11.4442
現報	-11.4442
趣中	-11.4445
八正	-11.4445
互用	-11.4449
於中有	-11.445
名空	-11.445
實我實法	-11.445
樞要云	-11.4453
具足住	-11.4453
如是下	-11.4456
如龍樹	-11.4461
神通等	-11.4462
履	-11.4463
禮拜	-11.4463
亦得有	-11.4465
治罰	-11.4466
純無漏	-11.4466
故論說言	-11.4467
若住	-11.4467
疏云此	-11.447
非全	-11.4471
所作者	-11.4472
餘支	-11.4473
怨害	-11.4474
隨其所欲	-11.4475
何要	-11.4477
下之	-11.4477
違損	-11.4478
精進三根	-11.4479
者顯	-11.4479
淨識	-11.448
巳伏	-11.448
護法師	-11.4481
所覺	-11.4482
三惡道	-11.4482
總解	-11.4482
後所得	-11.4483
增明	-11.4486
不散亂	-11.4487
所防	-11.4491
略有三	-11.4492
則名	-11.4492
未成熟	-11.4493
細者	-11.4493
寧知	-11.45
中分二	-11.4502
名果	-11.4508
闕一	-11.451
起惑	-11.4512
愛果	-11.4513
見道已前	-11.4513
重言	-11.4513
此慧	-11.4513
隨覺	-11.4514
各三	-11.4515
皆不離	-11.4515
分別俱生	-11.4517
苦依	-11.4517
定起	-11.4519
意同	-11.4521
地繫	-11.4522
圓證	-11.4524
正量	-11.4524
唯識理	-11.4526
何以知	-11.4526
四如實智	-11.4527
不相應法	-11.4529
定成	-11.4529
出家者	-11.4531
意言境	-11.4531
結示	-11.4531
見道位	-11.4532
說六	-11.4533
過去未來現在	-11.4535
意思	-11.4536
以欲界	-11.4538
千世界	-11.4538
一根	-11.4539
一業	-11.4541
留身	-11.4545
能生現行	-11.4546
邪定	-11.4546
蘊中	-11.4547
性種	-11.4549
亦從	-11.4551
名為苦	-11.4551
雖別	-11.4552
不自在故	-11.4555
有所得	-11.4557
中夭	-11.456
行緣識	-11.4562
遍染	-11.4562
畫	-11.4565
無量無數	-11.4566
有漏道	-11.4566
後句	-11.4568
天親菩薩	-11.4568
所生之	-11.4568
而後	-11.457
恩德	-11.457
初難	-11.4571
障定	-11.4573
文說	-11.4574
境時	-11.4575
邪解	-11.4576
而般涅槃	-11.4577
善處	-11.4577
第二段	-11.4578
有三解	-11.4578
不思	-11.4579
雖具	-11.4579
三大	-11.458
資益	-11.4581
然諸	-11.4581
隨境	-11.4582
大自在	-11.4583
護法菩薩	-11.4584
經意	-11.4584
何獨	-11.4585
故不得	-11.4585
處定	-11.4587
名喜	-11.4588
不能斷	-11.4588
正證	-11.459
計常	-11.459
垂	-11.4592
所歸	-11.4592
後位	-11.4594
如火	-11.4594
洗	-11.4594
有漏善法	-11.4595
同處不相離	-11.4596
觸境	-11.4596
受相應	-11.4596
名是何	-11.4597
於時時間	-11.4597
男女二根	-11.4597
蕩	-11.4597
不即不離	-11.4598
滋長	-11.4599
隨根	-11.4599
唯捨受	-11.46
某甲	-11.4601
無明緣行	-11.4602
以證	-11.4602
略而不說	-11.4602
柔和	-11.4603
臭	-11.4603
問答辨	-11.4603
滅除	-11.4604
不爾如何	-11.4605
不由功用	-11.4605
按彼論云	-11.4605
業所招	-11.4608
若唯有識	-11.4608
勝軍	-11.4608
此第七識	-11.461
毀謗	-11.461
惡事	-11.4611
可得故	-11.4612
具如	-11.4612
此文意	-11.4613
已熟	-11.4613
身邊見	-11.4613
鏡像	-11.4614
除斷	-11.4614
多起	-11.4615
無輕安	-11.4616
於是處	-11.4616
冷觸	-11.4616
謂貪	-11.4617
知一切	-11.4621
軌持	-11.4622
離色	-11.4624
為實有	-11.4624
亦不說	-11.4624
正業	-11.4625
結云	-11.4626
自體分	-11.4627
大慧	-11.4627
化現	-11.4627
苦相	-11.4627
依自	-11.4628
色為	-11.4628
相攝門	-11.4628
念佛	-11.4629
能助	-11.4629
四識住	-11.463
不疑	-11.463
大自在天	-11.4631
六現觀	-11.4631
嗔恚	-11.4632
大空	-11.4633
不正義	-11.4635
增上生	-11.4635
牒上	-11.4638
纏縛	-11.4641
八地已去	-11.4643
勝於	-11.4645
謂要	-11.4646
天王	-11.4646
先牒	-11.4647
初學	-11.4648
鼻識	-11.4648
卑慢	-11.4651
自變	-11.4651
演曰後別	-11.4652
方顯	-11.4653
復引	-11.4656
本有種	-11.4659
無上乘	-11.466
種子義	-11.4661
苦下	-11.4661
意生	-11.4664
轉變故	-11.4664
應信	-11.4665
繫心	-11.4666
俱滅	-11.4668
同法	-11.467
隨法行	-11.4671
今當說	-11.4671
不同也	-11.4671
以有漏	-11.4672
同一處	-11.4673
二趣	-11.4673
畢竟不生	-11.4673
得淨	-11.4675
不為說	-11.4678
二禪巳上	-11.4683
貪恚	-11.4685
先解	-11.4685
火燒	-11.4687
別觀	-11.4687
所知障種	-11.4688
釋經	-11.4688
有智	-11.4688
定非實有	-11.4688
相起	-11.4691
文略	-11.4693
前釋	-11.4693
發光	-11.4694
已捨	-11.4699
定異因	-11.47
七方便	-11.47
五無	-11.4702
優	-11.4702
為正因	-11.4702
涅槃故	-11.4704
中唯有	-11.4704
問答分別	-11.4704
慢疑	-11.4706
發身語	-11.471
第三總結	-11.4712
涅槃者	-11.4712
一類相續	-11.4714
有諍	-11.4716
極淨	-11.4716
為假	-11.4718
一重	-11.472
復有二	-11.4724
由此智	-11.4728
又約	-11.4729
與此同	-11.473
二苦	-11.473
去來今	-11.4732
斫	-11.4734
唯用	-11.4734
尤重	-11.4735
知此	-11.4736
截	-11.4737
同名	-11.4738
大自在宮	-11.4738
沈沒	-11.4739
非一向	-11.474
五十七	-11.474
應當了知	-11.4741
飾	-11.4744
禪支	-11.4745
取性	-11.4748
教他	-11.4748
觸對	-11.4749
本來寂靜	-11.4749
亂識	-11.4752
無漏根	-11.4753
極喜地	-11.4753
理通	-11.4754
云何名王	-11.4755
舉例	-11.4756
應作四句	-11.4757
乃至未	-11.4757
此既	-11.4758
之想	-11.476
真如名	-11.4762
差別功能	-11.4762
斷分別	-11.4766
因果性	-11.4769
依現	-11.4769
及法	-11.4769
皆不得成	-11.4769
不能熏	-11.477
諸緣	-11.4773
五識種	-11.4775
如次應知	-11.4775
得成就	-11.4777
體常	-11.4777
證故	-11.4778
轉生	-11.4778
相扶	-11.4779
正理師	-11.4781
大者	-11.4781
五受根	-11.4781
是信	-11.4782
相近	-11.4784
上三句	-11.4785
於十地中	-11.4788
除去	-11.4788
已證得	-11.479
拔苦	-11.479
無加行	-11.4792
所建立	-11.4793
諸經論	-11.4793
此行	-11.4794
今顯	-11.4794
名解脫	-11.4799
緣第八	-11.48
性自	-11.4801
名唯識	-11.4801
定名	-11.4802
眾生心	-11.4802
心相續	-11.4803
水月	-11.4803
波若	-11.4805
二空所顯	-11.4806
三住	-11.4807
外道計	-11.4808
於自身	-11.4811
若入	-11.4811
一切境界	-11.4811
求涅槃	-11.4814
第九地	-11.4816
猶起	-11.4816
本淨	-11.4818
或分為三	-11.4818
無相住	-11.4822
不離識故	-11.4822
俱生者	-11.4823
行迹	-11.4826
第九卷	-11.4827
不信等	-11.4828
此正	-11.4828
相當	-11.4829
瑜伽第三	-11.4829
種類故	-11.4829
群	-11.483
何等為二	-11.4831
初句牒	-11.4835
安穩	-11.4835
照了	-11.4838
迷四諦	-11.4839
財利	-11.484
已知	-11.484
正答	-11.484
有色界	-11.4845
雖殊	-11.4847
皆不成	-11.4847
有漏種子	-11.4847
苦俱	-11.4847
惡趣業	-11.4851
遍計執	-11.4854
非染污	-11.4855
下乘	-11.4858
依識變	-11.4859
就行	-11.4861
語行	-11.4864
如是二種	-11.4865
相宗	-11.4866
警	-11.4867
成就故	-11.4867
嗅	-11.4867
唯量	-11.4868
作四句	-11.4869
亦不應	-11.4869
三道	-11.4871
善順	-11.4871
悋	-11.4872
聰叡	-11.4873
如瑜伽論	-11.4874
略也	-11.4874
於欲界中	-11.4874
威儀等	-11.4875
皆共	-11.4875
抑	-11.4876
加行究竟作意	-11.4878
欲色二界	-11.4879
閻浮提	-11.4879
唯明	-11.488
淨智	-11.4881
阿羅耶識	-11.4882
九十三	-11.4882
死屍	-11.4884
聖慧	-11.4884
分分	-11.4884
漂溺	-11.4887
有色無色	-11.4887
五識無	-11.4887
以無漏	-11.4887
不相障礙	-11.4888
能詮所詮	-11.489
生住滅	-11.489
雖在	-11.489
同行	-11.489
應知即是	-11.4891
灾	-11.4893
本有種子	-11.4894
翻彼	-11.4894
可了知	-11.4894
獨影境	-11.4895
有恩	-11.4895
相狀如何	-11.4895
言依	-11.4895
若爾即	-11.4897
無漏緣	-11.4898
所有善法	-11.4901
法花	-11.4901
安住其心	-11.4903
有財釋	-11.4903
見趣	-11.4903
無分別慧	-11.4904
亦約	-11.4906
捨戒	-11.4911
著我	-11.4911
集論說	-11.4912
因果故	-11.4912
相續而轉	-11.4914
隨其所	-11.4921
後無	-11.4922
毘婆沙	-11.4923
計度分別	-11.4926
實無所有	-11.4926
牽引生起	-11.4926
長短等	-11.4927
有二十	-11.4927
得俱起	-11.4928
迴趣	-11.4931
若其	-11.4931
如幻事等	-11.4933
由五相	-11.4933
貪行	-11.4934
三別釋	-11.4935
釋第三句	-11.4936
有漏者	-11.4938
建立者	-11.4939
不能起	-11.494
開為	-11.4945
隨機	-11.4946
若先	-11.4947
亦即	-11.4948
由加行	-11.4948
八戒	-11.4949
就實	-11.495
此初也謂	-11.4951
具不具	-11.4952
不應言	-11.4953
所礙	-11.4956
次對	-11.4957
五淨居	-11.4958
能障礙	-11.4959
分別心	-11.4959
自釋	-11.496
演曰二別	-11.496
今釋	-11.4961
若汝說	-11.4961
識起	-11.4962
愛念	-11.4962
知義	-11.4963
心平等	-11.4964
極微細	-11.4966
欲天	-11.4967
信有	-11.4969
餘惑	-11.4969
德業	-11.4969
不齊	-11.4973
類同故	-11.4975
與佛	-11.4976
阿含經	-11.4977
用增	-11.4977
是貪分	-11.4977
緣外	-11.4978
顯揚等	-11.4978
順違	-11.4979
各二	-11.498
如小乘	-11.4981
至彼	-11.4982
凡有	-11.4984
空界	-11.4985
悉能	-11.4985
前三種	-11.4986
上首	-11.4989
攝論等	-11.4989
住劫	-11.499
自下第四	-11.4993
所相	-11.4996
無苦	-11.4997
隱覆	-11.4998
似於	-11.4998
死後有想	-11.5
過失故	-11.5
用也	-11.5002
由四種	-11.5002
依世俗	-11.5003
即自	-11.5003
劫中	-11.5003
斷疑	-11.5006
可樂	-11.5007
三無為	-11.5009
還起	-11.5009
行差別	-11.501
瞻	-11.5011
聚義	-11.5011
本地分中	-11.5012
後以	-11.5012
今此中	-11.5012
若心	-11.5012
能量	-11.5013
如是三種	-11.5013
七釋	-11.5014
矯亂	-11.5015
緣諦	-11.5015
波浪	-11.5015
惑盡	-11.5016
不饒益	-11.5016
於後時	-11.5016
但應	-11.5017
無學人	-11.5017
破分二	-11.5019
定屬	-11.5019
為離	-11.502
依圓	-11.5021
有所作	-11.5021
令不生	-11.5022
流蕩	-11.5023
和合相	-11.5024
骨鎖	-11.5025
窟	-11.5026
等三法	-11.5026
唯望	-11.5029
起邪行	-11.5029
是常住	-11.5031
離增上慢	-11.5032
有情世間	-11.5032
趣涅槃	-11.5033
有斯	-11.5034
及能	-11.5036
引經證	-11.5036
未來法	-11.5037
聰慧	-11.5039
心清淨	-11.5039
無想定等	-11.504
身得	-11.5044
於一一	-11.5046
皆緣	-11.5047
相形	-11.5047
業種子	-11.5047
諸智	-11.5048
攝大乘云	-11.5049
四煩惱	-11.5049
變帶	-11.5051
無我理	-11.5051
似我法	-11.5051
心心所滅	-11.5052
獨覺乘	-11.5053
相觀	-11.5054
復有別	-11.5054
七十三	-11.5059
總攝一切	-11.5059
修道惑	-11.506
若不爾	-11.5061
思為	-11.5063
緣色等	-11.5066
一切法中	-11.5068
後當	-11.5068
智名	-11.5069
知一切法	-11.5069
轉滅	-11.507
楞伽云	-11.5071
此文即是	-11.5071
廣如彼	-11.5072
不能見	-11.5074
任運分別	-11.5075
最後身	-11.5075
罪人	-11.5076
之中有	-11.5076
智為體	-11.5078
若諸有情	-11.5079
第二門中	-11.5079
以何為體	-11.508
八地以去	-11.508
眼所見	-11.5082
聞思修慧	-11.5082
涅槃經云	-11.5083
有十一種	-11.5084
所餘諸	-11.5085
唯應	-11.5085
三善根	-11.5085
現無	-11.5086
諸蓋	-11.509
二惑	-11.5091
言簡	-11.5092
未圓滿	-11.5094
大覺	-11.5097
二種俱	-11.5099
今此論	-11.51
解中	-11.5101
性別	-11.5101
差別中	-11.5102
捨俱	-11.5102
正觀察	-11.5102
名真	-11.5104
佛菩提	-11.5108
而非是	-11.5109
▁三結	-11.5109
種體	-11.5109
答雖	-11.511
等時	-11.511
戒體	-11.511
六無為	-11.5113
即由如是	-11.5114
數量	-11.5118
故偏	-11.5118
因所生	-11.512
廣慧	-11.512
餘色	-11.512
無色無	-11.5121
內門	-11.5121
已能	-11.5122
智殊勝	-11.5123
廣說應知	-11.5125
二正釋	-11.5126
煩惱隨眠	-11.5133
住相	-11.5134
有犯	-11.5139
住此	-11.514
勝也	-11.5143
修習者	-11.5143
佛乘	-11.5143
別配	-11.5144
妙欲	-11.5145
滿故	-11.5146
瑜伽第一	-11.5147
五種相	-11.5147
剋	-11.5149
下別顯之	-11.515
現量境	-11.5152
惛沈睡眠	-11.5154
所有功德	-11.5154
謂修	-11.5155
隨識	-11.5155
別論	-11.5157
舌識	-11.5157
四天下	-11.5158
相分是	-11.5159
世間智	-11.5159
順世	-11.5159
夏	-11.5162
無厭足	-11.5162
飜	-11.5162
各隨	-11.5163
何時	-11.5165
不安隱	-11.5165
北洲	-11.5166
為取	-11.5166
欺	-11.5166
訶責	-11.5167
不死矯亂	-11.5167
得轉依	-11.5168
正發	-11.517
假故	-11.5172
稱之為	-11.5172
興盛	-11.5173
今於此中	-11.5174
青瘀	-11.5179
得非得	-11.518
便能永斷	-11.518
處等	-11.5183
三性分別	-11.5183
漸悟菩薩	-11.5184
今此文中	-11.5186
𠛴那	-11.5188
不破	-11.519
宗也	-11.519
立四	-11.519
以真如	-11.5191
獨一	-11.5192
趣求	-11.5194
眼處	-11.5195
圓成實相	-11.5196
此有二種	-11.5196
非梵行	-11.5197
至究竟	-11.5198
斷見惑	-11.5199
鏡中	-11.5199
無性攝論	-11.52
皆然	-11.5201
彰其	-11.5202
七八識	-11.5203
各分	-11.5204
緣五塵	-11.5205
慈恩	-11.5205
多說	-11.5206
唯聖	-11.5207
思察	-11.5207
是假非實	-11.5208
巧方便	-11.5208
三就	-11.5209
謂三界	-11.5212
成道	-11.5212
揔結	-11.5214
愛恚	-11.5216
故地持云	-11.5217
引果	-11.5219
二觀	-11.522
等種種	-11.5221
四無礙解	-11.5222
品云	-11.5223
如理思	-11.5225
利眾生	-11.5225
復有四	-11.5227
以外	-11.5231
為自內我	-11.5231
徧計性	-11.5232
卑	-11.5234
隨入	-11.5242
隨類	-11.5243
穴	-11.5243
待因	-11.5243
境無	-11.5244
圓滿者	-11.5245
與二乘	-11.5247
入滅盡定	-11.5247
住法	-11.5248
於真	-11.525
但見	-11.525
起分別	-11.5254
緣無漏	-11.5254
五別境	-11.5261
修習力	-11.5262
釋第二句	-11.5262
此雖	-11.5263
諸如是等	-11.5264
地故	-11.5264
此等皆	-11.5264
非勝	-11.5265
初中二	-11.5265
一段	-11.5266
六十五	-11.5268
今世	-11.5268
眾德	-11.5268
名行	-11.5269
二各二	-11.5269
論主答	-11.527
此即第一	-11.5275
不殊	-11.5275
修作	-11.5279
名勝義	-11.5279
斷果	-11.5279
非假	-11.5279
若具	-11.5279
事成	-11.5281
此復有二	-11.5281
寬通	-11.5282
品麁重	-11.5283
無質	-11.5284
訓	-11.5286
而今	-11.5288
三千	-11.5288
一切智智	-11.5288
無量劫	-11.5288
初禪中	-11.5288
一見	-11.5289
耳鼻舌身	-11.5289
勢速	-11.529
寧不	-11.5291
七十二	-11.5291
所簡	-11.5291
空寂	-11.5292
云何得知	-11.5292
重明	-11.5292
暖	-11.5293
自巳	-11.5293
隨分	-11.5294
綱	-11.5295
業生	-11.5296
諸菩薩等	-11.5296
善護	-11.5297
舍宅	-11.5297
總以標舉	-11.5298
後十	-11.5299
累	-11.5299
毫	-11.53
淵	-11.53
一佛	-11.53
淳	-11.5301
修觀	-11.5302
少時	-11.5302
蒙	-11.5303
烏	-11.5305
素	-11.5306
纂	-11.5307
所出	-11.5309
非現量	-11.5309
速證	-11.531
甘露	-11.5311
𢢔	-11.5312
其第七識	-11.5313
此受	-11.5315
見已	-11.5315
明也	-11.5318
道斷	-11.5318
於巳	-11.532
復有一類	-11.5321
法我	-11.5321
四卷	-11.5321
識境	-11.5323
乞求	-11.5324
四別釋	-11.5324
而言之	-11.5325
手等	-11.5325
如經廣說	-11.5327
復次於	-11.5328
若汝言	-11.5328
互相違	-11.5329
引喻	-11.5329
略解	-11.533
菩薩以	-11.533
不具足	-11.5332
往彼	-11.5334
三界唯心	-11.5334
家之	-11.5335
無忘失	-11.5336
由二種	-11.5337
男女根	-11.5338
是染污	-11.534
法分二	-11.5343
依耽嗜	-11.5343
將為	-11.5343
受用故	-11.5344
未伏	-11.5347
明了意識	-11.5347
不減	-11.5348
復次菩薩	-11.5349
非有漏	-11.535
修戒	-11.5351
迷悟	-11.5353
三解脫	-11.5354
人說	-11.5355
五識相應	-11.5355
三不善根	-11.5355
由能	-11.5357
如理思惟	-11.5357
種立	-11.5357
多依	-11.5358
依他起攝	-11.5358
教誨	-11.5359
近遠	-11.536
因時	-11.536
彼約	-11.5362
五十四	-11.5362
生老病死	-11.5363
一極微	-11.5363
空閑	-11.5364
入無餘依	-11.5364
唯現量	-11.5364
善生	-11.5365
諸所	-11.5366
威儀心	-11.5367
空三昧	-11.5367
來求者	-11.5367
所顯真如	-11.5367
至於	-11.5371
速得	-11.5371
決擇分善	-11.5373
通不善	-11.5374
令眾生	-11.5375
即種子	-11.5377
證自證	-11.5381
彼論說	-11.5383
莖	-11.5384
餘門	-11.5385
異界	-11.5385
生彼天	-11.5387
不能動	-11.5388
五度	-11.5388
九結	-11.5391
三定	-11.5392
句者	-11.5394
具足中	-11.5394
如何得有	-11.5396
取像	-11.5397
恥	-11.5399
鬘	-11.54
如夢中	-11.5402
三辨	-11.5402
第七末那	-11.5404
非一切時	-11.5404
相攝者	-11.5407
如鏡	-11.5407
不容	-11.5409
何必	-11.541
帶質境	-11.5411
四於	-11.5412
常義	-11.5415
永斷故	-11.5417
由慧	-11.542
計為我	-11.542
安心	-11.542
世界中	-11.5423
期願	-11.5424
變相	-11.5424
執我我所	-11.5425
緣理	-11.5425
計云	-11.5425
衣服等	-11.5432
有法執	-11.5432
因能變	-11.5433
里	-11.5434
無時	-11.5435
自性空	-11.5436
四十九	-11.5438
修道位中	-11.5439
無我故	-11.5439
義應知	-11.544
神通力	-11.544
現等覺	-11.5442
彼意	-11.5442
心學	-11.5443
童	-11.5443
二十二法	-11.5443
第二果	-11.5444
唯就	-11.5444
根依處	-11.5445
分別意識	-11.5445
慕	-11.5445
補闕云	-11.5447
明闇	-11.5449
辛	-11.5451
七心界	-11.5452
釋中有三	-11.5452
唐捐	-11.5453
個	-11.5455
愛敬	-11.5455
辨之	-11.5455
如是名王	-11.5456
取所緣	-11.5456
是欲界	-11.5458
篇	-11.5458
斷此	-11.5459
往生	-11.5459
智體	-11.546
身及	-11.5461
僧佉	-11.5464
於中先	-11.5466
我癡	-11.5467
所生得	-11.5467
不忘失	-11.5467
合前	-11.5468
煩惱及隨煩惱	-11.5468
文中分二一釋	-11.5469
天眼耳	-11.547
文顯可知	-11.547
便作是念	-11.5471
福分善	-11.5472
此中問意	-11.5472
十二有支	-11.5472
於此門中	-11.5473
得大菩提	-11.5473
思之可知	-11.5473
依斯	-11.5474
不共法	-11.5474
解脫道中	-11.5476
無染淨	-11.5476
有心定	-11.5477
古師	-11.5477
如是於	-11.5478
以慧為體	-11.5482
或時起	-11.5482
陀羅尼門	-11.5483
離散	-11.5485
依初	-11.5486
當知亦尒	-11.5488
從初地	-11.5491
非能熏	-11.5492
引論	-11.5495
如攝論	-11.5497
解心	-11.5498
識與	-11.55
無樂	-11.5502
返顯	-11.5503
冥性	-11.5503
自我	-11.5503
一辨	-11.5505
無我見	-11.5505
由煩惱	-11.5505
上二句	-11.5506
故瑜伽云	-11.5507
能相	-11.5508
依果	-11.5508
十三住	-11.5509
舊論云	-11.551
識亦	-11.5511
分取	-11.5511
汝應	-11.5512
有心位	-11.5513
乃至云	-11.5516
我有色	-11.5518
明非	-11.5518
悉名	-11.5518
永不行	-11.552
佛告	-11.5522
佛弟子	-11.5525
有觸	-11.5525
應供	-11.5526
心得解脫	-11.5526
二十種	-11.5528
彼事	-11.5528
彰名	-11.5529
遍淨	-11.5531
是大	-11.5536
以論	-11.5538
三體	-11.5539
初發	-11.554
來至	-11.5542
顯非	-11.5543
阿賴耶名	-11.5546
劣無漏	-11.5546
名假	-11.5548
應別有	-11.5548
分之	-11.5549
顯揚論說	-11.555
真金	-11.5552
第四云	-11.5552
初是	-11.5553
既與	-11.5553
聲聞人	-11.5554
下辨	-11.5555
聲聞辟支佛	-11.5556
外質	-11.5557
難思	-11.5557
於空	-11.5559
故置	-11.5564
善等三性	-11.5564
破斥	-11.5566
三蘊	-11.5566
為建立	-11.5566
因果相	-11.5566
今破	-11.5567
無多	-11.5567
梵世	-11.5569
斷諸	-11.5573
復應	-11.5576
工	-11.558
初業	-11.5582
仁王	-11.5583
麤顯	-11.5583
別執	-11.5584
非善	-11.5585
一一別	-11.5585
若薩婆多	-11.5588
證實	-11.559
悕	-11.559
已復	-11.5591
之異名	-11.5593
欲生	-11.5594
自解	-11.5595
輩	-11.5597
所計我	-11.5599
如此等	-11.5599
菩薩見道	-11.5599
紛	-11.56
官	-11.5602
犢子部	-11.5603
無為等	-11.5603
所潤	-11.5603
玅	-11.5604
如應當知	-11.5605
用別	-11.5606
二斷	-11.5607
其文	-11.5608
宿世	-11.5608
諸字	-11.5608
正修行	-11.561
被損	-11.561
別有自性	-11.5611
寧有	-11.5612
不饒益事	-11.5612
普照	-11.5612
根熟	-11.5613
次四	-11.5613
亦有亦無	-11.5613
受所引色	-11.5613
邪見等	-11.5615
學法	-11.5615
壞故	-11.5615
欲色	-11.5616
等物	-11.5617
巳有	-11.5618
有求	-11.5618
眼等轉識	-11.5619
若實	-11.562
身起	-11.5621
於此中	-11.5621
俱能	-11.5622
雖見	-11.5623
要先	-11.5623
受苦樂	-11.5624
方說	-11.5625
退者	-11.5626
故得有	-11.5626
者意云如	-11.5627
五中	-11.5628
即合	-11.5629
不說有	-11.5635
智果	-11.5636
由三種相	-11.5636
諸煩惱故	-11.5638
所依之	-11.5639
於樂	-11.5641
思種	-11.5641
▁次破	-11.5643
無因生	-11.5646
方知	-11.5648
心數	-11.5648
相似法	-11.5651
有取	-11.5653
於一切眾生	-11.5653
總以	-11.5657
入定時	-11.5658
而入	-11.5659
生受	-11.5659
未自在	-11.5661
觀法	-11.5663
惡因	-11.5666
八品	-11.5666
遂求	-11.5667
然說	-11.5668
於現	-11.567
離貪	-11.5671
菩	-11.5671
作緣	-11.5671
一思	-11.5672
知他心	-11.5672
斷諸煩惱	-11.5672
剎	-11.5674
斷三界	-11.5676
心種	-11.5676
大文	-11.5676
此空	-11.568
實用	-11.5682
五十五說	-11.5682
苦報	-11.5683
非親	-11.5684
無惑	-11.5684
虛空等	-11.5687
沙門果	-11.5688
受用境界	-11.5689
佛果位	-11.5689
四緣中	-11.5689
甚深義	-11.5691
自法	-11.5692
執實	-11.5692
於中有四	-11.5692
前所	-11.5695
則不能	-11.5695
三食	-11.5695
初之二	-11.5695
九句	-11.5695
此門	-11.5697
文雖	-11.5698
即見	-11.57
能執持	-11.57
勝能	-11.5702
障斷	-11.5703
定當	-11.5704
之見	-11.5709
此翻	-11.5709
對法第二	-11.571
有作	-11.5711
慧俱	-11.5712
捨彼	-11.5714
亦非實有	-11.5716
三災	-11.5717
阿耨菩提	-11.5721
煩惱等	-11.5722
真事	-11.5722
無益	-11.5725
合時	-11.5728
於此處	-11.5731
捨心	-11.5733
無心所	-11.5733
心想	-11.5733
門竟	-11.5733
緣聲	-11.5734
不曾	-11.5736
如兔角等	-11.5737
初一頌	-11.5738
業異熟	-11.5741
他界	-11.5741
賴	-11.5742
下別	-11.5743
聞等	-11.5743
皆不可得	-11.5744
羸	-11.5745
便於	-11.5748
驅擯	-11.5749
準此	-11.5749
墜	-11.5749
九依	-11.575
西域	-11.575
諸法差別	-11.575
彼論中	-11.5751
書寫	-11.5751
與上相違	-11.5752
美妙	-11.5752
八支聖道	-11.5753
製	-11.5754
或從	-11.5754
敷	-11.5755
稟	-11.5756
翼	-11.5759
一切種妙智	-11.5761
忻	-11.5761
昇進	-11.5762
助發	-11.5762
悕求	-11.5763
三觀	-11.5765
識不離身	-11.5766
我今當說	-11.5766
精勤修習	-11.5767
初總明	-11.5767
名圓成實	-11.5768
十一善	-11.5768
於菩薩	-11.577
又汝何所欲	-11.577
生死時	-11.5771
已說菩薩	-11.5772
以心	-11.5772
大菩薩	-11.5772
前引	-11.5772
除障	-11.5773
位也	-11.5774
果差別	-11.5775
已知根	-11.5776
護法正義	-11.5778
菩薩所	-11.578
極遠	-11.5781
如理應知	-11.5782
處也	-11.5782
語依處	-11.5783
初敘	-11.5784
緣生法	-11.5786
違於	-11.5786
未正	-11.5786
可得者	-11.5787
亦得起	-11.5788
配屬	-11.5792
今生	-11.5792
況復	-11.5792
樂根	-11.5793
滅道諦	-11.5794
果因	-11.5798
過此	-11.5799
所緣相分	-11.5799
定相	-11.58
金銀等	-11.58
般涅槃法	-11.58
教令	-11.58
於所樂	-11.5801
名為善	-11.5801
約義	-11.5802
我我所執	-11.5804
方得生故	-11.5804
唯意識	-11.5806
地論	-11.5806
謂色	-11.5808
作此說	-11.5809
不隨順	-11.5811
更互為因	-11.5812
所解	-11.5813
二宗	-11.5814
斷時	-11.5814
於正法	-11.5817
於真如	-11.5817
約詮	-11.5818
煩惱障種	-11.5819
名為解脫	-11.582
有其三	-11.582
自在菩薩	-11.5821
非有者	-11.5823
貪者	-11.5824
此八	-11.5825
能任持	-11.5825
當知一切	-11.5829
幻化	-11.583
正等覺	-11.5831
等所有	-11.5831
得解脫故	-11.5832
位者	-11.5832
或隨	-11.5834
釋初句	-11.5835
三攝	-11.5836
慼	-11.5837
於諸諦	-11.5839
壞時	-11.584
塗	-11.5841
則不成	-11.5842
識生時	-11.5843
初劫	-11.5847
似義	-11.5847
有一類	-11.5849
緣四諦	-11.585
成實說	-11.5852
論其	-11.5853
大菩提心	-11.5854
世俗勝義	-11.5855
之緣	-11.5856
驚怖	-11.5858
或觀	-11.586
似法	-11.5863
不得解脫	-11.5863
結縛	-11.5864
二列	-11.5865
尚無	-11.5867
十八界中	-11.5868
名離	-11.5869
證此	-11.5872
何故唯	-11.5872
一眼識	-11.5873
根本後得	-11.5875
動轉	-11.5875
教也	-11.5876
故稱為	-11.5877
二滅	-11.5879
不別說	-11.588
文中有二一	-11.5882
識等五果	-11.5883
行為緣	-11.5888
青瘀等	-11.5888
自生	-11.5889
成正覺	-11.5891
等境	-11.5892
體類	-11.5893
𨷂	-11.5895
別解脫律儀	-11.5896
一向是	-11.5897
出三界	-11.5897
斷德	-11.5898
對法第五	-11.5898
釋頌中	-11.5901
文有二	-11.5901
諫	-11.5901
空無邊處	-11.5902
然其	-11.5902
為第六	-11.5903
烈	-11.5903
鷄	-11.5905
若謂下	-11.5906
麟角	-11.5906
樓	-11.5906
不決	-11.5907
現化	-11.5907
三答所以	-11.5908
望自	-11.5908
現受	-11.5908
善根力	-11.591
依處中	-11.591
由佛	-11.591
六識俱	-11.591
入無餘涅槃	-11.5911
宿習	-11.5911
能得清淨	-11.5913
勝義故	-11.5914
能為障礙	-11.5915
利物	-11.5915
唯據	-11.5915
諸禪	-11.5916
等者此	-11.5916
有空	-11.5917
三受相應	-11.5917
真實義愚	-11.5917
智度論	-11.5917
無明望行	-11.5918
善解	-11.5919
入滅	-11.5919
若立	-11.5919
八中	-11.592
六方	-11.5922
印順	-11.5924
滅度	-11.5925
因何	-11.5925
恒住	-11.5926
迷謬	-11.5928
非擇滅攝	-11.593
上定	-11.5931
思食	-11.5932
作受	-11.5932
淨修	-11.5932
染無記	-11.5932
徵起	-11.5933
如樞要說	-11.5933
厭逆	-11.5934
無我等	-11.5934
五十八云	-11.5936
餘七識	-11.5936
種種異	-11.5936
一切所知	-11.5936
德等	-11.5938
善觀察	-11.5938
問何因緣故	-11.5938
施戒	-11.594
斷已	-11.5941
緣一切法	-11.5944
摩訶	-11.5944
閏生	-11.5944
非約	-11.5944
不說餘	-11.5945
皆爾	-11.5946
俱分	-11.5946
居家	-11.5947
如日	-11.5948
尋求心	-11.595
乃能	-11.5952
現行煩惱	-11.5952
放光	-11.5953
起說	-11.5953
入母胎	-11.5954
相續者	-11.5954
正翻	-11.5955
修止	-11.5956
不礙	-11.5957
」「	-11.5958
諸菩薩眾	-11.5958
無恚	-11.596
欲界人天	-11.596
定性二乘	-11.5961
亦說為	-11.5963
病苦	-11.5965
何知	-11.5965
耶荅	-11.5966
剎帝利	-11.5966
本釋	-11.5967
有餘無餘	-11.5968
如外	-11.5968
斷智	-11.5969
方便說	-11.597
自種子	-11.5973
通障	-11.5974
欲界煩惱	-11.5974
而與	-11.5975
專心	-11.5975
無相界	-11.5975
出世間道	-11.5977
如先	-11.5977
汝若	-11.5978
後剎那	-11.5978
名阿羅漢	-11.598
二例餘	-11.598
明處	-11.598
次於	-11.598
同相	-11.598
無文	-11.598
大般涅槃	-11.5981
作如是言	-11.5981
諸法皆	-11.5982
種種想	-11.5982
如金	-11.5986
報生	-11.5987
諸塵	-11.5988
定境	-11.599
緣性	-11.5992
差別之相	-11.5992
直至	-11.5993
不厭	-11.5993
息除	-11.5993
成唯識云	-11.5994
釋中有四	-11.5995
而未能	-11.5997
是能依	-11.5997
有三句	-11.5997
後廣	-11.5997
次師	-11.5999
所緣緣義	-11.6
攝相	-11.6002
自然生	-11.6002
諸比丘	-11.6003
欲界有	-11.6005
無心時	-11.6005
心所也	-11.6006
後顯	-11.6008
七覺	-11.6008
害者	-11.6011
瞋癡	-11.6011
純苦	-11.6013
攝盡	-11.6015
及不	-11.6016
清淨智	-11.6016
統	-11.602
習氣依處	-11.6021
因成	-11.6021
中生	-11.6021
性戒	-11.6023
退法	-11.6023
無漏觀	-11.6023
不動無為	-11.6024
還是	-11.6026
東西	-11.6027
道諦攝	-11.6027
得擇滅	-11.603
慧行	-11.603
謂諸異生	-11.6034
墮於	-11.6036
非智	-11.6037
無同喻	-11.604
引彼	-11.6041
愁	-11.6041
能出	-11.6042
無字	-11.6044
謂與	-11.6045
為體故	-11.6045
唯從	-11.6046
後文	-11.6048
時捨	-11.6048
二縛	-11.6049
亦得說	-11.6049
補特伽羅無我	-11.605
解義	-11.605
釋第四句	-11.6052
環	-11.6053
初時	-11.6053
一間	-11.6054
名無心	-11.6055
生義	-11.6055
境義	-11.6056
下四	-11.6056
電	-11.6057
體應	-11.6058
枯	-11.6059
願我	-11.6059
竪	-11.6059
故彼論言	-11.6059
即是真如	-11.6059
拒	-11.6061
團	-11.6061
成其	-11.6061
我若	-11.6062
齋	-11.6063
卷舒	-11.6063
果能變	-11.6063
定自在	-11.6065
脩道	-11.6067
應正	-11.6071
能礙	-11.6071
此義應思	-11.6072
所屬	-11.6072
擇滅攝	-11.6072
行緣	-11.6075
囀	-11.6075
第八云	-11.6075
遠分對治	-11.6078
斷絕	-11.6078
然無	-11.6079
貪慢	-11.6079
在定中	-11.608
更立	-11.6081
未至定中	-11.6081
性同	-11.6082
法皆	-11.6082
彼境	-11.6082
滅定中	-11.6083
碍	-11.6084
一顯	-11.6085
因樂	-11.6086
後邊	-11.6086
黑闇	-11.6086
四辨	-11.6087
問其	-11.6087
有一人	-11.6087
默然	-11.6088
所取境	-11.6089
合響開蒙	-11.6092
聖凡	-11.6094
能薰	-11.6096
聲性	-11.6096
真觀	-11.6097
觸塵	-11.6097
自在成就	-11.6097
勤修習	-11.6099
前二種	-11.6099
名憂	-11.6099
不能執受	-11.6101
深細	-11.6101
內淨	-11.6102
獨頭意識	-11.6103
即隨	-11.6108
兩種	-11.6108
第七明	-11.611
五住	-11.611
謂第八識	-11.6114
亦無妨	-11.612
現在前故	-11.612
現法涅槃	-11.612
如後	-11.612
是癡分	-11.612
論一者	-11.6121
自在位	-11.6122
攝餘	-11.6122
之所依止	-11.6123
體異	-11.6124
發行	-11.6124
四無畏	-11.6125
善住	-11.6127
第一明	-11.6128
根本惑	-11.6128
等四種	-11.6129
誰能	-11.6129
來求	-11.613
意名	-11.6132
離喜	-11.6132
乃至老死	-11.6134
三不護	-11.6135
習種姓	-11.6135
假使	-11.6137
身相	-11.6137
倍增	-11.6138
緣見	-11.6138
是分別	-11.6141
可愛樂	-11.6143
乖離	-11.6143
覺等	-11.6144
不重	-11.6145
非真異熟	-11.6146
無漏五識	-11.6146
謂即此	-11.6149
一門說	-11.6149
四受	-11.615
十一明	-11.615
相分種	-11.6151
諸無為	-11.6152
二我	-11.6154
眾會	-11.6155
未來禪	-11.6157
觸生	-11.6158
依處者	-11.6159
出世淨	-11.6159
異熟者	-11.6162
種種法	-11.6164
常者	-11.6165
二乘有學	-11.6166
顯發	-11.6167
諸有情故	-11.6167
妙觀	-11.6167
卒	-11.6172
淨心地	-11.6174
雖皆	-11.6176
色無色繫	-11.6176
惣結	-11.6177
在地前	-11.618
非可	-11.618
七十四	-11.6181
以諸	-11.6181
無作用故	-11.6181
以喻	-11.6183
所隨逐	-11.6185
自性清淨心	-11.6185
邪法	-11.6186
有漏善心	-11.6189
善巧方便	-11.6192
樂淨	-11.6192
非所緣緣	-11.6194
自在等	-11.6195
約此	-11.6196
云何下	-11.6196
先約	-11.6198
初家	-11.6198
所在	-11.6199
未定	-11.62
分九	-11.6202
等計	-11.6205
行相者	-11.6205
不一	-11.6206
得捨	-11.6207
苦忍	-11.6208
障於	-11.6208
要待	-11.6209
過也	-11.621
屬當	-11.6211
即五識	-11.6212
以體	-11.6214
潛	-11.6216
鼻舌二識	-11.6217
枝	-11.6218
彼師	-11.6218
漢	-11.6219
非有想非無想	-11.622
叵	-11.622
夷	-11.622
之一	-11.622
螺	-11.6221
受心法	-11.6221
評	-11.6222
▁初約	-11.6223
嬰兒	-11.6224
慢過慢	-11.6224
放大光明	-11.6224
人分三	-11.6224
若定若慧	-11.6225
未轉	-11.6225
為第四	-11.6225
齊等	-11.6226
映奪	-11.6227
二舉頌總答	-11.6228
阿犁耶識	-11.6229
因緣相	-11.6229
舍利	-11.6229
於施	-11.623
天眼耳根	-11.623
復有三	-11.6232
属	-11.6233
文分為五一	-11.6234
父母極微	-11.6234
依聲	-11.6235
何不說	-11.6236
然此中	-11.6236
唯第六	-11.6238
有貪	-11.6239
如別抄	-11.624
心念	-11.624
三顯	-11.624
文分三分	-11.6241
法處所攝色	-11.6241
下生	-11.6242
淨分	-11.6242
印可	-11.6244
令於	-11.6246
亦通無漏	-11.6246
虛誑	-11.6247
輕慢	-11.6247
我及我所	-11.6248
三念住	-11.6249
四十八	-11.625
顯揚十八	-11.6251
一趣	-11.6251
不易	-11.6252
治斷	-11.6252
謂在	-11.6252
離欲界欲	-11.6254
標宗	-11.6254
三答	-11.6256
八十九	-11.6257
得聖	-11.6259
麥等	-11.6263
一立所治	-11.6263
不俱起故	-11.6265
種生種	-11.6267
得證	-11.6267
三菩提	-11.6268
方名為	-11.6269
初句標名	-11.627
菩薩道	-11.627
舌根	-11.627
不識	-11.6275
容起	-11.6276
異計	-11.6277
常委	-11.6278
隨所依	-11.6279
相顯現	-11.6281
帶相	-11.6281
二所依	-11.6281
觀諦	-11.6282
識種子	-11.6283
至所有	-11.6284
前第一	-11.6285
自相者	-11.6285
五結	-11.6286
無常行	-11.6286
後有業	-11.6286
不平等因	-11.6287
據理	-11.6288
滅離	-11.6289
作意等	-11.6289
俱名為	-11.6289
頗	-11.6293
八難	-11.6293
摽列	-11.6294
悅意	-11.6294
十解	-11.6294
清淨相	-11.6295
眼根等	-11.6301
皆容	-11.6303
所熏成種	-11.6305
今但	-11.6305
無尋	-11.6305
名智	-11.6305
身有	-11.6308
如來智	-11.6308
謂佛菩薩	-11.6312
唯第八識	-11.6313
次復	-11.6314
攝得	-11.6314
四大所造	-11.6316
唯內	-11.6318
處界	-11.6318
種子體	-11.6319
第三義	-11.632
品數	-11.6321
答如	-11.6321
無學身中	-11.6322
聞持	-11.6322
故名涅槃	-11.6323
此體	-11.6323
人有	-11.6323
老病死	-11.6323
有何過	-11.6324
欲起	-11.6324
為同類因	-11.6325
云何言	-11.6325
界外	-11.6327
正為	-11.633
唯無記性	-11.6331
謂如前說	-11.6334
失戒	-11.6341
想心	-11.6342
外空	-11.6342
根本地	-11.6342
常遍	-11.6343
廣義	-11.6343
難了	-11.6343
而為自性	-11.6344
捨念	-11.6347
衰變	-11.6348
從無始	-11.6349
隨滅	-11.635
誡	-11.6351
意化	-11.6353
觀行人	-11.6356
局在	-11.6357
障道	-11.6357
中明	-11.6358
身量	-11.6358
唯種	-11.6359
彼見	-11.636
若有人	-11.6361
顯揚第二	-11.6361
有覆無記性	-11.6363
磨	-11.6363
亦得名為	-11.6364
常法	-11.6365
及所	-11.6367
者此釋	-11.6369
若爾云何	-11.637
真實功德	-11.6372
杌	-11.6373
外相	-11.6374
掌	-11.6375
菩薩見	-11.6377
愈	-11.6378
青黃	-11.6379
轉因	-11.6379
不能持種	-11.6379
曾受	-11.638
宰	-11.638
依他起上	-11.6381
無上依經	-11.6381
倣	-11.6382
迴心向大	-11.6382
見道時	-11.6382
持用	-11.6383
卷中	-11.6383
展轉相續	-11.6384
壯	-11.6384
而求	-11.6384
役	-11.6385
早	-11.6385
麁重縛	-11.6386
亦應然	-11.6386
拏	-11.6387
盧	-11.6388
爛壞	-11.6388
現行種子	-11.6388
皆起	-11.6389
演曰後結	-11.6389
善決定	-11.6389
苦類智忍	-11.6389
正精進	-11.639
決定義	-11.6391
因行	-11.6392
所知依	-11.6394
救護	-11.6394
謂貪瞋癡	-11.6394
眼耳等	-11.6395
皆如	-11.6396
應與	-11.6396
雖實	-11.6399
第二地	-11.6399
是內	-11.64
六七識	-11.6401
他人心	-11.6403
隨人	-11.6404
如實觀	-11.6404
實性故	-11.6404
安樂住	-11.6404
善取	-11.6404
大八	-11.6405
文分三段一	-11.6406
三種自性	-11.6406
無違犯	-11.6407
勸令	-11.6408
縱有	-11.6412
即初	-11.6414
菩薩等	-11.6414
非徧	-11.6414
成就者	-11.6416
安慧師	-11.6416
無身	-11.6417
徃	-11.6417
通因果	-11.6417
僧伽	-11.6417
命根等	-11.6417
無想報	-11.6418
報因	-11.6418
何不許	-11.6419
名為不共	-11.642
是能詮	-11.642
謂身	-11.642
現業	-11.6422
若遇	-11.6423
身中有	-11.6423
▁次答	-11.6423
諸根大種	-11.6424
初中有	-11.6427
必不生	-11.6427
分別起者	-11.6427
生無自性性	-11.6429
等乃至	-11.643
通慧	-11.643
先修	-11.643
略辨	-11.6433
中庸	-11.6437
不由他	-11.6444
無慚等	-11.6444
依出離	-11.6444
恐彼	-11.6444
後報業	-11.6445
心所變	-11.6445
此證	-11.6446
有滅	-11.6446
遍善心	-11.6448
之功能	-11.6448
今略	-11.6449
為種	-11.6449
為之	-11.645
通五蘊	-11.645
是增上果	-11.645
唯在欲界	-11.645
法雲	-11.6451
煩惱中	-11.6451
調順	-11.6451
云何說言	-11.6452
如心心所	-11.6453
諸結	-11.6455
有二師	-11.6455
大功德	-11.6456
前加行	-11.6458
菩薩所行	-11.6458
定數	-11.646
三無色	-11.646
極大	-11.6462
於見	-11.6462
依內	-11.6462
四攝事	-11.6462
無分別影像	-11.6465
極少	-11.6465
心之所	-11.6469
福行	-11.647
貪瞋癡等	-11.647
偈云	-11.6472
都不	-11.6474
名等流果	-11.6475
聲體	-11.6475
即慧	-11.6477
善惡性	-11.6478
色有	-11.6479
親迷	-11.6481
持義	-11.6484
亦滅	-11.6485
本師	-11.6486
中忍	-11.6487
無覺	-11.6488
之自性	-11.6489
則成	-11.6489
飲食等	-11.6492
有十二種	-11.6493
言辭	-11.6494
希奇	-11.6495
聲處	-11.6496
定前	-11.6496
十歲	-11.6497
有兩解	-11.6497
雙斷	-11.6499
不持	-11.6499
以見	-11.6499
辨差別	-11.65
不如是	-11.6502
為身	-11.6502
修所成慧	-11.6505
欲塵	-11.6505
受名	-11.6508
則不爾	-11.6509
生善趣	-11.6509
四念	-11.6511
入住出	-11.6511
無記性攝	-11.6511
修因	-11.6511
性等	-11.6512
無變	-11.6513
能覺	-11.6514
為第五	-11.6515
不分明	-11.6517
名雜	-11.6517
欲界身	-11.6519
生死流轉	-11.6519
斷欲	-11.6519
所知障中	-11.6519
如上所說	-11.6522
持身	-11.6524
修相	-11.6531
令人	-11.6533
麁顯	-11.6534
分位假立	-11.6534
不改	-11.6535
俱生惑	-11.6537
膚	-11.6537
穢土	-11.6538
軌範	-11.6539
雪山	-11.6539
為等無間緣	-11.6539
三斷	-11.654
約人	-11.654
五分法身	-11.654
三空	-11.6541
左	-11.6541
烟	-11.6541
大乘說	-11.6541
付	-11.6542
出離者	-11.6542
燒然	-11.6542
揔標列	-11.6543
村	-11.6543
知根	-11.6543
如何通	-11.6544
諦察法忍	-11.6544
飽	-11.6544
炭	-11.6545
前相	-11.6545
雜穢	-11.6545
五塵境	-11.6546
玉	-11.6546
謗無	-11.6546
根本靜慮	-11.6546
靜相	-11.6547
案	-11.6548
三別	-11.6548
害伴	-11.6548
啟	-11.6548
堂	-11.6549
瑜伽師地	-11.655
小生	-11.6552
文中有二先	-11.6553
羯	-11.6553
於諸欲	-11.6553
相異故	-11.6553
無色界繫	-11.6554
理者	-11.6554
救濟	-11.6555
次顯	-11.6555
一立正義	-11.6555
居士	-11.6556
似火	-11.6556
當知建立	-11.6558
故思	-11.6558
窮生死蘊	-11.6559
人間	-11.656
論若諸菩薩至	-11.6561
支者	-11.6561
解脫知見	-11.6562
或取	-11.6562
歡喜地	-11.6562
七地以前	-11.6564
攝樂	-11.6566
門義	-11.6567
所應作	-11.6568
妙理	-11.6569
通假實	-11.6569
勤求	-11.657
前地	-11.657
實理	-11.657
為量果	-11.6572
所轉得	-11.6572
謂菩薩	-11.6573
心所等	-11.6573
檀波羅蜜	-11.6574
以此為	-11.6576
偏執	-11.6577
答第二問	-11.6577
彼類	-11.6579
二破分二	-11.6579
既知	-11.6579
相順故	-11.658
說唯識	-11.658
由緣	-11.658
頌釋	-11.658
不多	-11.6581
而體	-11.6582
正慧	-11.6582
瑜伽下	-11.6584
是道	-11.6584
善因	-11.6585
合觀	-11.6585
彼自	-11.6586
為受	-11.6587
相分四	-11.6589
生欲	-11.659
從自	-11.659
清淨意樂	-11.6592
非天	-11.6593
攝事分	-11.6594
入住	-11.6595
如論中說	-11.66
伹說	-11.6604
修位	-11.6605
文可知	-11.6606
一偈	-11.6607
十一者	-11.6608
見諦者	-11.6608
時應	-11.6609
外人問	-11.6609
相分中	-11.661
寒熱	-11.6611
遍故	-11.6612
七處	-11.6612
第三段	-11.6612
尚不能	-11.6612
根隨	-11.6613
福慧	-11.6613
如上說	-11.6614
無有一法	-11.6615
是依他性	-11.6616
諸有為法	-11.6616
貫通	-11.6616
三段	-11.6617
位名	-11.6617
久習	-11.6618
第八所變	-11.6619
答有	-11.662
隨一攝故	-11.6622
違經	-11.6622
非有性	-11.6624
文分為二先明	-11.6624
等同	-11.6625
若小乘	-11.6628
執我法	-11.6628
淨尸羅	-11.6628
皆許	-11.6629
戒定慧	-11.6631
總義	-11.6632
其意	-11.6636
但斷	-11.6636
至極	-11.6636
相續住	-11.6637
持種心	-11.6639
遍於一切	-11.6639
此俱	-11.6643
所學處	-11.6644
名目	-11.6644
業盡	-11.6648
成劫	-11.665
已起	-11.6651
本為	-11.6653
自他身	-11.6654
見倒	-11.6654
在彼	-11.6654
清淨道	-11.6656
三賢	-11.6659
言詮	-11.666
四諦理	-11.6661
無前後	-11.6663
念定	-11.6663
非同	-11.6664
中前二	-11.6667
方便修	-11.6669
依士	-11.6669
清淨真如	-11.667
不可言說	-11.667
二部	-11.667
淨居	-11.667
次說菩薩	-11.667
依託	-11.667
如幻事	-11.667
出離故	-11.6673
攝大乘說	-11.6674
一切皆有	-11.6675
如見	-11.6678
何容	-11.668
起已	-11.6682
同念	-11.6683
好樂	-11.6683
舒	-11.6683
如有人	-11.6684
兼取	-11.6684
現得	-11.6689
穀麥等	-11.669
對法論云	-11.6692
對法等	-11.6693
所居	-11.6694
尋伺地	-11.6695
如欲界	-11.6696
菩薩於此	-11.6696
一破	-11.6696
利有情	-11.6697
意趣分二	-11.6697
亦不可得	-11.6697
故說此	-11.6697
與第八識	-11.6698
聖教中	-11.6701
乃至十地	-11.6703
第八識體	-11.6704
變相分	-11.6705
商	-11.6705
仁	-11.6706
性中	-11.6707
坑	-11.6708
雪	-11.6708
從欲界	-11.6708
祕	-11.6709
捨命	-11.6709
而便	-11.6709
現熏種	-11.6709
飯	-11.6713
天竺	-11.6713
庶	-11.6713
眾名	-11.6713
善通達	-11.6715
榮	-11.6716
毘柰耶	-11.6716
以要言之	-11.6716
寫	-11.6717
遷流	-11.6717
鑒	-11.6717
諸雜染	-11.6718
蟲	-11.6718
識緣名色	-11.6719
九十	-11.672
真如非	-11.672
是故如來	-11.6721
惡取空	-11.6721
大神通	-11.6725
相應因	-11.6725
大慈悲	-11.6726
色界心	-11.6727
知世間	-11.6727
劫初	-11.6728
不例	-11.6729
法爾道理	-11.6729
流轉還滅	-11.673
細相	-11.673
行別	-11.673
何等為十	-11.6731
未為	-11.6731
更受	-11.6732
佛經	-11.6733
眼等諸識	-11.6733
同依	-11.6736
未明	-11.6737
其第八識	-11.6737
隨文	-11.6738
即明	-11.6739
謝滅	-11.674
通三世	-11.674
或離	-11.6741
不復現行	-11.6742
伹是	-11.6743
所望	-11.6744
別迷	-11.6747
此第三	-11.6749
諸惡趣	-11.675
似我	-11.6751
不同時	-11.6751
誑諂	-11.6751
宣說正法	-11.6751
無常故	-11.6752
由具	-11.6753
無想等	-11.6753
麁動	-11.6754
毀壞	-11.6754
等色	-11.6755
第三地	-11.6755
緣起善巧	-11.6757
並無	-11.6757
一音	-11.6759
既唯	-11.676
是無漏故	-11.6761
之內	-11.6763
合有十	-11.6763
唯生	-11.6765
八智	-11.6766
往趣	-11.677
易故	-11.6774
果圓滿	-11.6777
眾善	-11.6777
行施等	-11.6777
此疑	-11.6779
張	-11.6781
▁初問	-11.6781
所變相	-11.6782
流轉生死	-11.6783
轉智	-11.6786
嫌	-11.6786
故不說之	-11.6787
彼經中	-11.679
又字	-11.6791
於無量	-11.6792
有不定過	-11.6792
意欲	-11.6793
木石	-11.6793
隨宜	-11.6795
已具	-11.6797
三摩呬多地	-11.6797
思惑	-11.68
得異熟果	-11.68
本際	-11.68
有解	-11.6803
別依	-11.6805
有三相	-11.6805
有盡	-11.6806
則於	-11.6806
龜毛	-11.6806
諸果	-11.6807
無因論	-11.6808
所有一切	-11.6809
之所依	-11.681
事也	-11.681
如是諸法	-11.6811
初惣	-11.6813
第十六	-11.6815
寤	-11.6817
清淨品	-11.6817
虛假	-11.6819
故次明	-11.682
苦諦下	-11.6821
卵	-11.6822
歸趣	-11.6823
智性	-11.6825
不爾便	-11.6825
出心	-11.6827
皆令	-11.6829
終成	-11.6833
歡喜住	-11.6835
第二復次	-11.6836
起化	-11.6839
唯修	-11.6839
五蘊等	-11.684
等經	-11.6841
依空	-11.6842
如本	-11.6842
由斷	-11.6842
攝受故	-11.6845
第二頌	-11.6847
現觀者	-11.6848
若更	-11.6849
已伏	-11.685
云何得有	-11.685
常修	-11.6851
宿作	-11.6854
次列	-11.6854
而亦	-11.6855
算	-11.6857
名為樂	-11.6857
六種波羅蜜多	-11.686
迷悟依	-11.6861
殊勝故	-11.6861
也意說	-11.6862
真見道中	-11.6864
有三釋	-11.6868
居處	-11.6869
先來	-11.687
由貪	-11.687
十二部	-11.6872
四大造	-11.6873
為所緣故	-11.6873
不增長	-11.6873
此愛	-11.6873
染愛	-11.6873
蘊善巧	-11.6873
更問	-11.6874
文殊師利	-11.6875
設遮	-11.6876
認	-11.6876
於戒	-11.6878
伊	-11.6878
心定	-11.6879
終無	-11.6879
三十五	-11.6879
故得名	-11.6879
床	-11.688
謙	-11.688
思所成慧	-11.6881
前位	-11.6881
瞿	-11.6882
衛	-11.6883
之云	-11.6883
籍	-11.6883
心及心法	-11.6884
至處道	-11.6884
悟解	-11.6885
謂見	-11.6885
即捨	-11.6886
三別釋分二	-11.6886
慶慰	-11.6886
乃有	-11.6889
勇悍	-11.6889
自成	-11.6891
是用	-11.6891
勞倦	-11.6892
非現量得	-11.6894
爾所	-11.6894
一切一分是	-11.6894
於如來所	-11.6895
但除	-11.6897
六欲天	-11.6899
理非有故	-11.6899
照境	-11.6899
說斷	-11.6901
微微心	-11.6901
輕毀	-11.6903
意成天	-11.6906
六趣	-11.6906
此喻	-11.6908
及不繫	-11.6908
不要	-11.691
四部	-11.6911
增上戒住	-11.6912
本是	-11.6914
共為	-11.6914
別辨	-11.6915
種性已上	-11.6916
見分種	-11.6916
以第八	-11.6916
七句	-11.6917
轉名	-11.6918
同法者	-11.6919
六位心所	-11.6919
文身	-11.6921
貌	-11.6922
是種子	-11.6922
不發業	-11.6922
即斷	-11.6925
諸色根	-11.6925
受用法樂	-11.6925
欲勝解	-11.6928
五道	-11.693
是共相	-11.693
更不別	-11.6931
及識	-11.6931
得上	-11.6934
善染等	-11.6934
順樂受	-11.6934
造惡	-11.6936
通能所	-11.6936
唯有心	-11.6936
本性清淨	-11.6937
此中但說	-11.6939
作因緣	-11.6939
緣我	-11.694
是故偏說	-11.6941
他心通	-11.6944
愛結	-11.6946
懈	-11.6947
轉為	-11.6949
智為	-11.695
中不說	-11.695
可愛果	-11.6953
隨眾生	-11.6954
亦除	-11.6956
與善	-11.6956
相引	-11.6957
少有	-11.696
逆觀	-11.6962
因緣義	-11.6962
此有二義	-11.6963
受數	-11.6965
燈光	-11.6966
獨得	-11.6966
異法	-11.6966
故攝論云	-11.6966
各有四	-11.6967
受業	-11.6968
所表	-11.6968
相應心	-11.6969
風界	-11.6969
命終心	-11.697
法類	-11.697
無生法忍	-11.697
論又於	-11.6972
塔	-11.6974
斷種	-11.6975
果滿	-11.6976
演曰二列	-11.6977
現行者	-11.6977
上義	-11.698
從勝	-11.698
相通	-11.6981
色不相應	-11.6982
非理作意	-11.6982
等四法	-11.6984
壞劫	-11.6984
於初地	-11.6985
有勢力	-11.6987
相違也	-11.6989
此之二	-11.699
不被	-11.699
諸支	-11.6992
有勝用	-11.6992
開發	-11.6993
由諸	-11.6995
復是	-11.6997
業體	-11.6999
此真如	-11.7001
能縛	-11.7003
是佛說	-11.7003
於諦	-11.7007
應頌	-11.7009
世間法	-11.7015
入現觀	-11.7016
受記	-11.7018
佛身中	-11.702
總非	-11.7022
真如相	-11.7023
種上	-11.7027
有過失	-11.7027
有事	-11.7028
但觀	-11.7029
以為本質	-11.703
所說義	-11.7031
靜慮等	-11.7032
非究竟	-11.7032
相續故	-11.7033
唯名	-11.7035
斷壞	-11.7035
在過去	-11.7036
先總標	-11.7037
二十二根中	-11.7039
得無學果	-11.7039
癈	-11.7039
䇿	-11.704
於諸善法	-11.7041
即不得	-11.7042
所治障	-11.7042
緣三界	-11.7043
因依處	-11.7044
十年	-11.7045
是意識	-11.7046
破薩婆多	-11.7046
行體	-11.7047
併	-11.7049
如論應知	-11.705
敗	-11.705
妬	-11.7051
唯是善	-11.7051
唯第六識	-11.7051
混	-11.7052
邪見者	-11.7052
有似	-11.7052
虧	-11.7052
有障	-11.7052
今此文	-11.7052
第七解	-11.7052
實諦	-11.7053
所取義	-11.7053
峯	-11.7053
得名為	-11.7054
慚等	-11.7054
為除此疑	-11.7055
方便智	-11.7055
加行究竟果作意	-11.7056
復如何知	-11.7056
廣顯	-11.7056
此意說云	-11.7056
四智心品	-11.7057
癰	-11.7057
人心	-11.7057
沐浴	-11.7057
耆	-11.7057
能生後	-11.7058
等者等取	-11.7058
若聞	-11.7059
四解	-11.7059
外難云	-11.7059
疑網	-11.706
羞耻	-11.706
躁擾	-11.706
同小乘	-11.7062
萬劫	-11.7063
米	-11.7063
諸愚夫	-11.7064
分七如論	-11.7065
退不退	-11.7068
唯識論中	-11.7068
二立能治	-11.7068
法苑	-11.7069
觸證	-11.7069
或自	-11.707
業性	-11.7072
法處所攝	-11.7074
資生具	-11.7074
論云何菩薩至	-11.7075
大慈	-11.7075
生死法	-11.7075
中邊論	-11.7075
多識	-11.7075
無異故	-11.7078
退分	-11.708
地名	-11.7084
愛重	-11.7085
根義	-11.7085
義如前	-11.7087
如前巳說	-11.7087
欲知	-11.7087
嗔等	-11.7088
初二果人	-11.7089
不壞淨	-11.7091
味著	-11.7092
轉義	-11.7093
有十四	-11.7093
除苦	-11.7093
求欲	-11.7095
今日	-11.7096
眾僧	-11.7097
更說	-11.7097
自覺	-11.7097
為欲對治	-11.7098
父母等	-11.7098
平等性故	-11.7099
外人難	-11.7099
餘有情	-11.7101
愛憎	-11.7102
知他	-11.7102
不望	-11.7103
又佛	-11.7104
所思	-11.7105
不爾者	-11.7107
無忘失法	-11.7107
正了知	-11.7108
音義此	-11.711
今就	-11.7112
離苦	-11.7113
契經等	-11.7113
不起故	-11.7114
分別論者	-11.7114
阿羅漢等	-11.712
極喜	-11.712
將死	-11.7123
有情類	-11.7123
不引	-11.7123
奉行	-11.7123
第一義空	-11.7123
若將	-11.7124
不斷故	-11.7125
非謂一切	-11.7126
斷義	-11.7128
老死位中	-11.713
與欲俱	-11.713
未可	-11.713
與定	-11.7132
是滅諦	-11.7132
應無別	-11.7132
更不生	-11.7133
次云	-11.7135
則得	-11.7137
必得	-11.7139
犯罪	-11.7142
無為非	-11.7142
四不定	-11.7145
重病	-11.7146
指廣	-11.7146
現思	-11.7146
所生起	-11.7147
略不論	-11.7148
六因中	-11.7149
親愛	-11.7149
起邪見	-11.7149
同種生	-11.7149
如虗空	-11.7151
品者	-11.7152
理無	-11.7152
在因	-11.7154
又即此	-11.7154
苦生	-11.7154
逐難	-11.7154
奢摩他品	-11.7156
文是	-11.7156
無能緣	-11.7156
下引證	-11.7156
一明因	-11.7158
誨	-11.7158
謂諸法	-11.7159
如初	-11.7159
隨轉門	-11.7159
彼同分	-11.7159
從他受	-11.7159
與力	-11.716
心便	-11.7161
唯分別	-11.7164
釋論云	-11.7164
彼據	-11.7166
業及	-11.7167
師長	-11.7168
故瑜伽說	-11.7168
本質境	-11.7168
但顯	-11.7169
三性俱	-11.717
不俱生	-11.717
諸心所法	-11.7175
有覆性	-11.7176
其猶	-11.7177
境色	-11.7177
閑	-11.7177
遍計性	-11.7178
是現行	-11.7178
此中不說	-11.7178
一信	-11.7179
平等性	-11.7182
若無漏	-11.7182
八十八	-11.7183
何乃	-11.7183
為諸眾生	-11.7183
此同	-11.7186
一分為體	-11.7188
能往	-11.7188
信現觀	-11.719
兩解	-11.719
等亦爾	-11.7196
觸為緣	-11.7196
二通	-11.7197
疏云然	-11.7201
依地	-11.7204
事起	-11.7204
毗鉢舍那	-11.7207
集論云	-11.7208
電光	-11.7208
自他俱	-11.7209
略不言	-11.7209
相違釋	-11.7209
菩薩所有	-11.721
一意識	-11.7211
苣	-11.7217
諸法空	-11.7217
非別	-11.7217
然未	-11.7218
前三句	-11.722
五遍行	-11.7222
無可	-11.7225
召	-11.7226
胡	-11.7226
雖無實	-11.7226
問訊	-11.7227
侍	-11.7229
詣	-11.7229
六行伏惑	-11.723
糞穢	-11.723
欲界天	-11.7231
一說部	-11.7231
所緣行相	-11.7231
五識所緣	-11.7232
勇健	-11.7232
此頌顯示	-11.7233
諸染法	-11.7233
一卷	-11.7234
遍通	-11.7234
委細	-11.7234
修差別	-11.7235
入道	-11.7235
危	-11.7235
所作因	-11.7236
誘	-11.7236
師等	-11.7237
安布	-11.7238
發大心	-11.7238
非依	-11.7238
以智	-11.7239
第二俗	-11.7239
復次嗢拕南曰	-11.7239
異義	-11.7239
所顯得	-11.724
各據一義	-11.724
觀待道理	-11.7241
由思	-11.7241
有俱有依	-11.7242
若前	-11.7245
下約	-11.7245
前五轉識	-11.7245
真覺	-11.7246
祈願	-11.7247
通染淨	-11.7248
巳知	-11.725
8	-11.7254
回心	-11.7256
未證得	-11.7257
有失	-11.7257
如文可解	-11.7257
第八識見分	-11.7258
諸法體	-11.726
及二乘	-11.726
得彼定	-11.726
與第六	-11.7262
受法	-11.7263
善心所	-11.7263
相似者	-11.7265
取著	-11.7265
發動	-11.7266
取其	-11.7266
能成極微	-11.7267
出世間智	-11.7267
新新	-11.7269
勝餘	-11.7272
等流性故	-11.7272
極略	-11.7273
無散亂	-11.7273
及諸菩薩	-11.7274
一受	-11.7276
識界	-11.7277
惣結之	-11.7278
離言自性	-11.7282
有具	-11.7282
各各自	-11.7283
或起	-11.7283
法為因	-11.7284
可分析	-11.7285
無二相	-11.7286
即是慧	-11.7286
似外境	-11.7287
識自體	-11.7288
通達真如	-11.7288
門說	-11.7288
生耶	-11.7289
種智	-11.729
唯識相	-11.7291
論主云	-11.7291
五識有	-11.7292
互相熏	-11.7293
一切善	-11.7293
往惡趣	-11.7294
苦類智	-11.7294
身財	-11.7296
百五十	-11.7296
證得涅槃	-11.7297
隨用	-11.7299
不現行故	-11.73
於初	-11.7301
觀也	-11.7301
無實境	-11.7302
若第八識	-11.7302
若修	-11.7303
中劫	-11.7303
斷隨眠	-11.7304
出體性	-11.7304
初文有二	-11.7305
一切事	-11.7311
不似	-11.7313
於過去世	-11.7314
引論證	-11.7315
引瑜伽	-11.7316
業自在	-11.7317
顯相	-11.7319
喜心	-11.7319
解此	-11.732
境識	-11.7321
防非	-11.7321
二轉依果	-11.7321
等三種	-11.7322
方便究竟	-11.7323
無別體故	-11.7324
以理推	-11.7326
圓鏡	-11.7327
染污故	-11.7329
身念住	-11.733
斷修惑	-11.733
上位	-11.7331
應無差別	-11.7333
得通	-11.7336
菩薩性	-11.7337
有因緣義	-11.7337
不思惟	-11.7338
是等流果	-11.7339
有三一	-11.7339
於色界	-11.7339
故不可說	-11.734
中隨一攝故	-11.7342
通善	-11.7342
有別體	-11.7342
魔王	-11.7343
有二分	-11.7343
則以	-11.7343
所攝受故	-11.7344
瞋等	-11.7345
於修道中	-11.7347
能令眾生	-11.7349
謂第七識	-11.735
三劫	-11.735
四道理	-11.7351
釋外難	-11.7351
故說一乘	-11.7353
而可	-11.7353
無實作用	-11.7353
即空	-11.7355
世間離欲	-11.7356
為此難	-11.7357
是異熟生	-11.7359
謂有漏	-11.736
分別二障	-11.7362
身表業	-11.7362
別種	-11.7363
悲智	-11.7364
無因而生	-11.7364
勤勇	-11.7365
天眼通	-11.7366
事邊際	-11.7369
殺生等	-11.7369
謂如有一於	-11.7371
聞熏	-11.7373
此實	-11.7373
相名分別	-11.7375
眼等六識	-11.7375
自體者	-11.7376
九法	-11.7378
上二界中	-11.7378
破前	-11.7379
作等無間緣	-11.7379
根依	-11.738
不障礙	-11.738
論問至	-11.738
經論中	-11.7381
痴分	-11.7381
多小	-11.7383
別生	-11.7384
七十	-11.7384
如虛空等	-11.7384
上半	-11.7384
現法中	-11.7385
成立唯識	-11.7385
涅槃法	-11.7388
舉罪	-11.7389
因喻	-11.739
故略不說	-11.7391
憙	-11.7391
四無記	-11.7391
當知是	-11.7392
應如是	-11.7394
藏義	-11.7395
想受滅無為	-11.7396
此覺	-11.7397
答當言	-11.7397
非盡理	-11.7398
後是	-11.7399
魔事	-11.74
怒	-11.74
對法第一	-11.7401
禾	-11.7401
驅	-11.7402
曠	-11.7403
真如無為	-11.7403
善戒經	-11.7404
能除遣	-11.7405
通前為	-11.7406
疲倦	-11.7406
著處	-11.7406
野	-11.7407
現法樂	-11.7407
初未至	-11.7407
勝因	-11.7407
安足處	-11.7407
有根身	-11.7408
第八變	-11.7409
漫	-11.7409
虎	-11.7409
成業道	-11.7409
君	-11.741
此翻為	-11.7411
無餘心所	-11.7413
一切有	-11.7413
初二禪	-11.7413
恐濫	-11.7414
決定有	-11.7415
外五塵	-11.7415
眩翳	-11.7415
兔	-11.7416
然則	-11.7416
梵志	-11.7417
應不成	-11.7417
長老	-11.7418
徒眾	-11.7418
諸法相	-11.7418
尓	-11.7418
迷惑	-11.7419
惡說	-11.7419
人天等	-11.7419
生喜樂	-11.7419
似外境現	-11.742
量果	-11.7421
如來身	-11.7421
第六解	-11.7421
法樂	-11.7421
九想	-11.7422
異熟果故	-11.7422
如何可說	-11.7423
名身等	-11.7424
起無漏	-11.7426
龍王	-11.7426
亦攝心所	-11.7429
被潤	-11.7429
愁憂	-11.743
通八識	-11.7431
能正了知	-11.7432
論謂諸菩薩至	-11.7432
解頌	-11.7434
文易可知	-11.7434
廣果天	-11.7435
八定	-11.7435
第一第二	-11.7436
現行法	-11.7436
離垢地	-11.7436
後三種	-11.7436
不據	-11.7437
之定	-11.7438
緣縛斷	-11.7439
得無分別智	-11.7439
為依處	-11.7439
亦能緣	-11.7441
有喜	-11.7442
色等五塵	-11.7443
為住	-11.7443
功德相應	-11.7444
論當知此中至	-11.7444
對法藏	-11.7445
不行故	-11.7446
大梵天	-11.7447
若但	-11.7449
帶數	-11.7452
以為依止	-11.7453
在纏	-11.7454
捨身	-11.7455
四大種所造	-11.7456
云何得成	-11.7456
廣如彼說	-11.7456
卵生	-11.7462
不住涅槃	-11.7465
悉無	-11.7465
一切物	-11.7465
是體	-11.7466
六波羅蜜多	-11.7466
承上	-11.7467
覆蔽	-11.7468
與彼相違	-11.7468
異熟生無記	-11.7469
為他說法	-11.7469
中有六	-11.747
七返	-11.7473
依因	-11.7474
與前別	-11.7475
此師意	-11.7477
名相見道	-11.748
多身	-11.7481
文證	-11.7482
夜分	-11.7486
遮彼	-11.7486
顛倒故	-11.7486
攝前	-11.7487
十三卷	-11.7488
由與	-11.749
遍諸	-11.7493
愛為緣	-11.7493
法愛	-11.7495
末那識	-11.7495
妙色	-11.7495
之解	-11.7496
何故但說	-11.7496
卷第三	-11.7496
開為二	-11.75
非福業	-11.7501
涅槃寂靜	-11.7501
不可依	-11.7501
應須	-11.7501
有情故	-11.7503
第一有	-11.7506
及他	-11.7507
理即	-11.7507
後總結	-11.7508
未解	-11.7509
增一	-11.751
為是不	-11.7511
前中初	-11.7511
所引發	-11.7514
無間業	-11.7515
此轉依	-11.7516
少年	-11.7516
緣藏識	-11.7517
是同	-11.7517
是因義	-11.7517
苦無常	-11.7517
無體法	-11.7518
總為一	-11.752
下半	-11.7521
作功用	-11.7523
六十九	-11.7524
亦違	-11.7524
善見	-11.7525
對境	-11.7526
出其	-11.7526
後得智攝	-11.7526
合會	-11.7527
聰明	-11.7527
共相應	-11.7528
略廣	-11.7528
汝之	-11.7528
大種造	-11.7529
智緣	-11.753
戒律儀	-11.7531
四諦智	-11.7533
能遠	-11.7533
亦常	-11.7535
無量種	-11.7536
色也	-11.7536
四約	-11.7536
一切種子識	-11.7536
根攝	-11.7537
勵	-11.7538
分三一明	-11.7539
正宗	-11.754
於聲	-11.7543
聲上	-11.7544
第六地	-11.7545
四辯	-11.7549
緣境時	-11.755
記憶	-11.755
所修行	-11.7551
准上	-11.7552
何過	-11.7553
中皆有	-11.7553
尊勝	-11.7553
有加行	-11.7554
不慳	-11.7555
故不別說	-11.7555
熏故	-11.7556
互為因緣	-11.7556
於此位中	-11.7557
是故世尊	-11.7559
幾根	-11.7559
戒定	-11.756
業所引	-11.7561
對法第七	-11.7562
今舉	-11.7562
謂已	-11.7563
鼻根	-11.7563
得般涅槃	-11.7564
勝解故	-11.7564
熏禪	-11.7564
能受用	-11.7564
當情	-11.7566
其力	-11.7566
雖能	-11.7569
所緣縛	-11.7571
勤方便	-11.7571
希法	-11.7573
何則	-11.7575
初禪地	-11.7576
得三摩地	-11.7577
相分色	-11.7578
為究竟	-11.7579
吹	-11.7579
今難	-11.758
决擇	-11.7581
無對色	-11.7583
弟	-11.7584
定通	-11.7586
檀越	-11.7586
中又二	-11.7586
健	-11.7587
憂俱	-11.7587
塞	-11.7587
慢緩	-11.7588
所徧計	-11.7588
功德者	-11.7588
走	-11.7588
歌舞	-11.7589
麁惡語	-11.7589
朋	-11.759
二釋分三如論	-11.759
艱辛	-11.7591
依思	-11.7591
梨耶	-11.7591
在初	-11.7592
意識所緣	-11.7592
金剛喻定現在前時	-11.7592
淨分依他	-11.7594
苦集二諦	-11.7595
新種	-11.7597
生如來家	-11.7597
復次由	-11.7597
當來世	-11.7597
初二靜慮	-11.7598
􂎫	-11.7598
出纏	-11.7599
法王	-11.76
清淨分	-11.76
總無	-11.76
有佛性	-11.7602
瞋心	-11.7604
又於此中	-11.7604
無雜染	-11.7605
隨信行	-11.7605
救言	-11.7606
支攝	-11.7607
具此三義	-11.7608
恒相應故	-11.7608
異熟色	-11.7609
滿心	-11.761
師釋	-11.761
破外道	-11.761
由三因緣	-11.7614
𤗊	-11.7617
思惟真如	-11.7618
為第八	-11.7618
純淨	-11.7619
其識	-11.7619
四十七	-11.762
得聞	-11.7621
所行處	-11.7621
九品惑	-11.7622
不斷絕	-11.7623
及彼心所	-11.7623
他引	-11.7624
作此解	-11.7625
對法論中	-11.7626
若善	-11.7627
六種轉識	-11.7627
色究竟天	-11.7628
八地巳上菩薩	-11.7628
巳捨	-11.7628
大士	-11.7629
一切皆無	-11.7629
隨一不成	-11.7629
淨業	-11.763
解之	-11.7633
苦中	-11.7633
尚有	-11.7634
如是應知	-11.7634
此宗	-11.7636
佛地論說	-11.7636
意緣	-11.7636
論本云	-11.7637
五部	-11.7638
若無第八	-11.7639
證見	-11.7639
今有	-11.764
以教	-11.7641
調伏方便	-11.7644
因緣所生	-11.7647
勝性	-11.7651
變礙	-11.7652
根律儀	-11.7652
互有	-11.7653
初靜慮中	-11.7654
智能	-11.7654
為用	-11.7655
變影	-11.7655
身受心法	-11.7656
還生欲界	-11.7661
何成	-11.7661
植	-11.7664
欲界地中	-11.7669
熏時	-11.7672
用之	-11.7672
聲界	-11.7674
名類	-11.7675
極多	-11.7678
有心地	-11.7679
八事	-11.768
鼻舌身	-11.768
後總	-11.7683
相應作意	-11.7684
前法	-11.7685
心常	-11.7686
本宗	-11.7687
愛染	-11.7689
方為	-11.769
為化	-11.7691
能依所依	-11.7693
相似相續	-11.7693
亦於	-11.7693
第三能變	-11.7695
勝義有	-11.7695
亦不定	-11.7698
神境	-11.7699
變他根	-11.7701
身口業	-11.7702
不生果	-11.7704
常沒	-11.7704
相續生	-11.7704
是不善性	-11.7705
不勞	-11.7705
非所熏	-11.7705
但從	-11.7706
隨煩惱中	-11.7708
尅	-11.7708
卷說	-11.771
第三心	-11.7711
同梵行者	-11.7711
立稱	-11.7714
中景云	-11.7715
由此二種	-11.7715
於何處	-11.7715
覺天	-11.7717
速能	-11.7718
窮生死	-11.7718
不善故	-11.7722
體性者	-11.7723
為自體	-11.7724
之語	-11.7724
勤修學	-11.7725
未至地	-11.7725
有本質	-11.7725
乃言	-11.7726
善現	-11.7726
心俱	-11.7728
所成立	-11.7728
學果	-11.773
未得定	-11.7732
能引生	-11.7734
名為共	-11.7734
六十六	-11.7736
緣內	-11.7736
前後際	-11.7738
由定	-11.7739
三十三天	-11.774
不緣下	-11.7742
動作	-11.7743
即解	-11.7743
皆隨	-11.7745
得士用果	-11.7748
是故下	-11.7749
有力能	-11.775
然是	-11.775
四淨	-11.775
所依緣	-11.7751
大地法	-11.7751
嘗	-11.7752
喜樂受	-11.7753
外物	-11.7759
異世	-11.776
就人	-11.7762
與念	-11.7762
無姓	-11.7762
此計	-11.7763
有漏識	-11.7765
頌答	-11.7766
作何業	-11.7766
何能	-11.7767
任運緣	-11.7767
一念中	-11.7768
真實智	-11.777
白佛言	-11.777
歌	-11.7771
如愚意	-11.7771
狼	-11.7771
兵	-11.7772
陽	-11.7772
難見	-11.7773
閉	-11.7773
法無我性	-11.7773
次轉釋	-11.7774
瞖	-11.7774
某	-11.7777
是戒	-11.7777
得已	-11.7777
雞	-11.7777
清凉	-11.7778
皮肉	-11.7778
騰	-11.7778
屋	-11.7779
惛昧	-11.778
羯邏藍	-11.778
奧	-11.778
觀諸法	-11.7781
精血	-11.7782
作如是計	-11.7782
縷	-11.7783
是故彼	-11.7783
校量	-11.7786
慶喜	-11.7786
反覆	-11.7787
此復二種	-11.7789
一切菩提分法	-11.779
八識中	-11.7791
隨別	-11.7791
離色界欲	-11.7792
空解脫門	-11.7793
能速	-11.7794
方分	-11.7794
轉相	-11.7794
為證不成	-11.7794
決不	-11.7795
及無為法	-11.7795
無邊際	-11.7796
勇猛精進	-11.7798
論主答云	-11.7798
引生無漏	-11.7799
快淨	-11.78
軟中上	-11.7801
此等皆是	-11.7804
念者	-11.7805
闇昧	-11.7806
法界中	-11.7806
流散	-11.7808
信行	-11.781
即總	-11.781
一切善根	-11.7812
應皆	-11.7814
現法後法	-11.7815
文中分二初問後荅此初問	-11.7815
義用	-11.7816
一少分	-11.7817
真法界	-11.7817
陀羅	-11.7817
斷法執	-11.7818
云何成	-11.7818
復次此	-11.782
空見	-11.7821
初略釋	-11.7821
由迷	-11.7821
資粮加行	-11.7822
從上	-11.7823
所敬	-11.7824
登地	-11.7826
謂阿賴耶識	-11.7827
演曰後彰	-11.7828
修止觀	-11.7829
皆不應理	-11.783
由斯下	-11.7831
離生	-11.7831
緣俗	-11.7834
必俱	-11.7834
食者	-11.7834
分別我見	-11.7835
三摩地者	-11.7835
牒計	-11.7837
何事	-11.7838
無間道時	-11.7838
後之三	-11.784
作諸	-11.784
要依	-11.7841
往昔	-11.7842
演曰二依	-11.7843
離分別	-11.7843
希望故	-11.7843
多羅	-11.7843
當時	-11.7845
得大自在	-11.7847
天授	-11.7848
勝道	-11.7849
無想有情	-11.785
初舉	-11.785
雖生	-11.7851
之思	-11.7852
得自相	-11.7852
契經等法	-11.7854
若不言	-11.7855
勝緣	-11.7856
觸所生	-11.7857
理必	-11.7858
結文	-11.786
名為斷	-11.786
本體	-11.7861
真證	-11.7862
名士用果	-11.7863
諸大	-11.7865
無自體	-11.7865
思為體	-11.7865
而受	-11.7866
轉異	-11.7867
上說	-11.7868
遠離作意	-11.7869
義得成	-11.787
偏言	-11.7871
不相應者	-11.7871
至果	-11.7872
未聞	-11.7872
親因	-11.7873
佛地經	-11.7874
多剎那	-11.7875
一一皆有	-11.7876
其義云何	-11.7877
五觀	-11.7877
捨念清淨	-11.7879
解脫一切障	-11.7879
法差別	-11.7879
煩惱纏	-11.7879
智德	-11.788
對法文	-11.788
結歸	-11.788
無種	-11.7881
等流者	-11.7881
體是無	-11.7881
佛果位中	-11.7882
為令眾生	-11.7883
未作	-11.7887
無足	-11.7888
謂自	-11.7888
▁二釋	-11.7889
略有五	-11.7889
漸頓	-11.7889
故不重	-11.789
文中有三	-11.7891
除前	-11.7892
亦捨	-11.7893
聲論	-11.7898
非佛語	-11.7898
緣起法	-11.7899
廣大轉	-11.7899
謂世間	-11.79
共知	-11.7901
種種界	-11.7901
與根	-11.7903
故名不共	-11.7903
文中分三一	-11.7903
中釋	-11.7904
互相違故	-11.7904
間斷故	-11.7905
嗢拕南	-11.7907
心作	-11.7908
無尋無伺	-11.7908
怖畏故	-11.7909
唯現	-11.7909
出世間法	-11.7909
非報	-11.791
一諦	-11.7912
厭生死	-11.7912
文分有	-11.7913
加行道中	-11.7914
觀境	-11.7915
要具	-11.7919
無所取	-11.792
賴耶識	-11.792
於此地中	-11.7921
異分	-11.7922
須彌	-11.7922
作意修	-11.7922
伏故	-11.7923
體實有	-11.7924
先未	-11.7925
俱也	-11.7926
令不起	-11.7926
作所依	-11.7928
應隨	-11.7928
順理	-11.7928
不斷煩惱	-11.7929
如俱舍	-11.7929
別不同	-11.793
若捨	-11.7931
受諸苦	-11.7932
善來	-11.7933
迷執	-11.7933
生起故	-11.7934
若欲界	-11.7934
能遠離	-11.7936
故對法云	-11.7936
聖諦現觀	-11.7938
第三釋	-11.7938
故不立	-11.7939
種種分別	-11.794
天子	-11.7944
八釋	-11.7944
即上	-11.7946
前十五心	-11.7946
復名	-11.7947
第八現行	-11.7948
約位	-11.7949
於應	-11.7949
二答其數	-11.795
如顯揚	-11.7951
一切義	-11.7951
乍	-11.7952
盡智無生智	-11.7953
順決擇	-11.7953
答不然	-11.7954
娑	-11.7955
黑黑	-11.7956
業習氣	-11.7956
離間語	-11.7956
緣中	-11.7957
起如是見立如是論	-11.7957
已證	-11.7958
=	-11.7958
縱逸	-11.7959
弄	-11.796
為過	-11.7961
辯釋	-11.7961
臺	-11.7962
最極清淨	-11.7963
雷	-11.7964
鑽	-11.7964
溫	-11.7966
糅	-11.7966
戾	-11.7966
憎恚	-11.7967
於生死中	-11.7969
因中有果	-11.7969
能資	-11.797
法處收	-11.797
瑜	-11.7971
窮未來際	-11.7971
境行果	-11.7971
我非我	-11.7972
初開	-11.7972
部行	-11.7973
和尚	-11.7973
即第七識	-11.7973
謗因	-11.7974
意許	-11.7975
不捨生死	-11.7975
無記業	-11.7975
通餘	-11.7977
所化生	-11.7977
界義	-11.7978
起下地	-11.7978
衰退	-11.7978
我及世間	-11.7978
無能取	-11.7978
未自在位	-11.7979
帶彼相起	-11.7979
是諸有情	-11.798
觸者	-11.798
遠分	-11.7981
假我	-11.7981
如實義者	-11.7982
俱有所依	-11.7984
亦同此	-11.7984
世間清淨	-11.7984
f	-11.7986
c	-11.7986
名無尋無伺地	-11.7987
復云何	-11.7988
皆是唯識	-11.7989
相熏	-11.7989
法非法	-11.7989
周徧	-11.7989
如何有	-11.7989
殊妙	-11.799
不信者	-11.7991
空教	-11.7992
損他	-11.7994
遍因	-11.7995
非實有故	-11.7996
審諦	-11.7997
佛地經云	-11.7997
由依止	-11.7998
不當	-11.8
而為上首	-11.8
通三性故	-11.8002
受得	-11.8002
破我	-11.8002
相續轉	-11.8007
諸大乘經	-11.8008
能生於	-11.8009
迷苦諦	-11.801
鏡面	-11.801
唯識教	-11.8013
受欲	-11.8014
以一切法	-11.8014
諸染	-11.8016
能緣所緣	-11.8017
處非處善巧	-11.8019
恒無	-11.802
夢心	-11.802
極苦	-11.8023
佛心	-11.8025
不乖	-11.8029
成所作	-11.8029
順正理	-11.8031
深義	-11.8032
多體	-11.8032
唯是善性	-11.8033
據其	-11.8034
謂此識	-11.8034
作意力	-11.8034
漸伏	-11.8035
種位	-11.8036
不一異	-11.8036
於諸諦中	-11.804
有欲	-11.804
與捨受相應	-11.8041
何唯	-11.8041
為顯示	-11.8042
九十四	-11.8042
癡一分攝	-11.8043
無心地	-11.8044
此等諸	-11.8045
於根	-11.8045
第七云	-11.8045
得樂	-11.8045
應然	-11.8046
尋之	-11.8051
自下第五	-11.8053
趣行	-11.8053
即第六識	-11.8055
異解	-11.8057
水界	-11.8057
當彼	-11.8058
舊名	-11.8058
即欲界	-11.8059
永不生	-11.8061
字身	-11.8061
有何意	-11.8062
第四地	-11.8063
同生	-11.8063
生厭離	-11.8063
已方	-11.8063
不定姓	-11.8063
攝眾生	-11.8064
為支	-11.8065
始得	-11.8065
次引	-11.8066
下引	-11.8068
對法第四	-11.8068
明略義	-11.8069
如雲	-11.807
不可取	-11.8072
可意等	-11.8074
互無	-11.8074
依第四禪	-11.8075
清淨因	-11.8076
未究竟	-11.8076
緣十八界	-11.8076
十一識	-11.8077
論復有	-11.8077
因緣法	-11.8077
意行	-11.8079
所應作事	-11.808
不辨	-11.8081
以實	-11.8083
第二說	-11.8083
無為相	-11.8084
轉齊	-11.8085
修禪	-11.8085
定不成	-11.8086
造惡業	-11.8087
二對	-11.8087
水中	-11.8088
不藉	-11.8088
觀外色	-11.8088
前三果	-11.8089
擊發	-11.809
總句	-11.809
八地中	-11.8092
身生	-11.8093
遠行地	-11.8094
為己	-11.8097
說為空	-11.8098
十二者	-11.8101
有差別者	-11.8101
同梵行	-11.8102
緣何	-11.8106
解脫等	-11.8107
名為意	-11.811
俱生我見	-11.8111
分為五	-11.8114
傍論	-11.8115
善惡趣	-11.8119
自誓	-11.8119
卷第四	-11.8119
如是六種	-11.812
諸境界	-11.8121
是後得智	-11.8121
不喜	-11.8122
不並生	-11.8122
定根	-11.8122
光明相	-11.8124
㝡	-11.8126
第二定	-11.8127
兩宗	-11.8128
具足成就	-11.8128
壽行	-11.813
唯識等	-11.813
有流	-11.8131
外事	-11.8131
今得	-11.8131
望餘	-11.8132
散意	-11.8133
相空	-11.8135
異生等	-11.8135
乃至涅槃	-11.8137
或約	-11.8137
普為	-11.8138
二廣釋	-11.814
有二十四	-11.8142
自得	-11.8143
六念	-11.8144
耐	-11.8147
泉	-11.8148
一欲	-11.8149
潔	-11.8149
無外境	-11.815
馬鳴	-11.8153
已永斷	-11.8154
生人中	-11.8155
能生諸法	-11.8155
分八如論	-11.8155
極難	-11.8155
於中分別	-11.8156
往善趣	-11.8156
是持業釋	-11.8157
百億	-11.8157
從此已後	-11.8157
各不同	-11.8158
容俱	-11.8159
摩訶衍	-11.8159
能造四大	-11.8159
輭	-11.8159
定難	-11.816
卷第二	-11.816
吉	-11.816
為自相	-11.816
第三門	-11.816
雅	-11.816
匱	-11.816
喻顯	-11.8161
誤犯	-11.8162
邊無邊	-11.8162
憂慼	-11.8163
兄	-11.8164
見之	-11.8164
香味等	-11.8164
亂相	-11.8165
實無有	-11.8166
有色根身	-11.8166
專注一境	-11.8167
不可為例	-11.8168
任運而轉	-11.8168
此明何義	-11.8169
思慕	-11.8169
要有	-11.8169
而出	-11.817
秘密	-11.8171
答准	-11.8172
能治所治	-11.8173
觀所緣緣論	-11.8173
無言說	-11.8173
方便攝	-11.8174
度眾生	-11.8175
修靜慮	-11.8175
潤生愛	-11.8176
依體	-11.8178
貧苦	-11.818
加行等	-11.818
共變	-11.8181
必當	-11.8181
梵眾天	-11.8182
義顯現	-11.8183
時教	-11.8183
勸請	-11.8183
在下地	-11.8184
根塵等	-11.8184
演曰三彰	-11.8186
十二處中	-11.8187
謂若有法	-11.8187
或他	-11.8188
相應思	-11.8188
數也	-11.8188
第六卷	-11.819
初分	-11.8191
方得起	-11.8193
受想行	-11.8196
次言	-11.8196
此三義	-11.8197
一切施	-11.8199
復有餘	-11.8199
見法	-11.82
能引所引	-11.8201
如實見	-11.8201
有教	-11.8201
心起時	-11.8203
四天王	-11.8204
煩𢚰	-11.8206
此牒	-11.8206
如眼等識	-11.8207
有何相	-11.8207
汝說	-11.821
論文云	-11.8211
起染	-11.8213
第二廣解	-11.8216
十界	-11.8217
開解	-11.8217
顯揚論云	-11.8218
唐言	-11.822
何故不言	-11.822
亦用	-11.822
不現起	-11.8221
厭下	-11.8223
無明地	-11.8227
後頌	-11.8227
以為體性	-11.8227
成前	-11.8228
是第六	-11.8229
唯欲界繫	-11.8229
非識	-11.8231
似事	-11.8233
證也	-11.8235
出現於世	-11.8237
釋妨	-11.8237
分異	-11.8238
疏文中	-11.8239
各別依	-11.8239
說三乘	-11.824
斷上	-11.8242
集會	-11.8243
廣大甚深	-11.8243
善戒	-11.8245
集滅道	-11.8246
水火風	-11.8247
所照	-11.8247
彼所生	-11.8247
內聲	-11.8248
簡彼	-11.8248
第八是	-11.8249
而顯	-11.8249
不相似故	-11.8249
無變易	-11.825
未來生	-11.8251
性決定	-11.8253
假非實	-11.8255
勤苦	-11.8255
一切法無我	-11.8255
他識	-11.8255
分量	-11.8256
凡時	-11.8258
品所攝	-11.8259
之戒	-11.826
樂俱	-11.8261
八正道	-11.8262
能增長	-11.8263
是故不說	-11.8265
隨世	-11.8267
無分	-11.8268
等名為	-11.8269
若用	-11.827
欣上	-11.8271
為伴	-11.8271
欲與	-11.8274
隙	-11.8275
僻執	-11.8275
非本	-11.8277
第二師說	-11.8278
此位菩薩	-11.8282
不敢	-11.8284
豆	-11.8284
於四諦	-11.8286
然准	-11.8286
何性	-11.8287
即一切	-11.8288
雜染者	-11.8289
誰言	-11.8289
現居	-11.829
法數	-11.8291
功德故	-11.8293
難前師	-11.8294
一時俱	-11.8294
意樂故	-11.8294
長行中	-11.8294
六神通	-11.8294
不受熏	-11.8295
學觀	-11.8297
人天中	-11.8298
有少	-11.8298
一釋名	-11.8299
成阿羅漢	-11.8299
但無	-11.8299
第四真	-11.83
所引生故	-11.8301
治障	-11.8301
無師	-11.8301
熟變	-11.8302
究竟涅槃	-11.8304
佛說法	-11.8305
以施	-11.8306
恒續	-11.8306
方便行	-11.8307
結勸	-11.8307
是相分	-11.8307
位分	-11.8307
發惡	-11.8307
微細故	-11.8308
他勝	-11.8308
勝分	-11.8308
身通	-11.8309
非有情	-11.8313
可起	-11.8313
無放逸	-11.8313
本故	-11.8314
是有情	-11.8315
上分	-11.8316
由離	-11.8316
諸經中	-11.8316
語故	-11.8316
疎所緣	-11.8316
與我	-11.8317
過失者	-11.8318
支體	-11.832
配之	-11.832
大有性	-11.832
厭壞	-11.8321
演曰第三	-11.8323
珍	-11.8324
不怖	-11.8324
次第說	-11.8325
深生信解	-11.8328
住分	-11.8328
惑者	-11.8328
起心	-11.833
闍	-11.833
是遍行	-11.8331
於當來	-11.8331
生死故	-11.8331
極樂	-11.8331
俱空	-11.8332
善心起時	-11.8336
十二分	-11.8336
體無別故	-11.8337
惡者	-11.8337
民	-11.834
懶惰	-11.8341
問如是五事	-11.8341
佛性者	-11.8343
貪瞋慢	-11.8345
有情事	-11.8345
既殊	-11.8346
根境等	-11.8346
四答所以	-11.8346
不如實	-11.8347
體無差別	-11.8348
非異非不異	-11.8348
人法二	-11.8348
琉璃	-11.8348
工巧業處	-11.8349
其數	-11.8349
從果	-11.835
題目	-11.8352
定共戒	-11.8352
五行	-11.8353
屠	-11.8353
五事中	-11.8353
審察	-11.8354
具足故	-11.8356
合掌	-11.8356
的	-11.8356
外境界	-11.8356
良醫	-11.8356
憎嫉	-11.8356
有色諸根	-11.8356
愛取二支	-11.8356
闡	-11.8357
聞所成慧	-11.8358
如有頌言	-11.8358
初出	-11.8358
如地經說	-11.8359
彼說非理	-11.8359
式	-11.836
不受後有	-11.8361
生淨信	-11.8361
顯之	-11.8364
是根	-11.8368
極逈色	-11.8368
能動	-11.8369
諸人	-11.8369
中根	-11.837
遍計所起	-11.837
此頌中	-11.8371
善攝	-11.8371
即執	-11.8375
等苦	-11.8375
後六	-11.8376
離二邊	-11.8376
工業	-11.8376
苦法忍	-11.8377
盡無生	-11.8378
依識所變	-11.8379
是故說彼	-11.8379
順樂	-11.838
亦非有	-11.8381
色究竟	-11.8383
進斷	-11.8383
能生一切	-11.8384
種果	-11.8384
攝之	-11.8385
唯本有	-11.8387
直往	-11.8388
合離	-11.8388
經等	-11.8389
即相分	-11.8389
東方	-11.8389
如本地分	-11.8391
誠證	-11.8392
今依大乘	-11.8392
王子	-11.8393
起信論	-11.8394
偏舉	-11.8395
預流等	-11.8397
此二義	-11.8397
引導	-11.8398
內空	-11.8399
所宗	-11.8399
復有所餘	-11.8399
初品	-11.8399
第八不緣	-11.84
兩義	-11.84
迴向菩提	-11.8401
基測	-11.8401
開顯	-11.8402
念言	-11.8403
既別	-11.8404
第二十	-11.8405
相續義	-11.8405
四根本	-11.8406
八勝處	-11.8406
寂靜解脫	-11.8411
分位假	-11.8418
施時	-11.8419
器故	-11.8421
是貪	-11.8421
貪信等	-11.8422
但總	-11.8422
清淨色	-11.8422
已度	-11.8422
十惡	-11.8425
五十三說	-11.8425
唯是無漏	-11.8426
初正釋頌文	-11.8427
四門分別	-11.8428
不放逸行	-11.8428
前三是	-11.8429
解脫堅固	-11.8429
涅槃經中	-11.8429
無失壞	-11.8432
亦合	-11.8434
觀行者	-11.8435
謂由此故	-11.8435
無力能	-11.8442
從他聞	-11.8443
更須	-11.8443
假合	-11.8443
依上	-11.8446
是名第四	-11.8447
憂悔	-11.8449
所緣境故	-11.8451
揀擇	-11.8453
果利	-11.8453
莊嚴論說	-11.8453
謂依止	-11.8454
無滅	-11.8454
但破	-11.8456
為對	-11.8458
中有其	-11.8459
止品	-11.8459
香味觸三	-11.8461
剎帝利等	-11.8462
假名為	-11.8463
文有三	-11.8463
伏難	-11.8464
邪願	-11.8464
順後	-11.8465
是菩提	-11.8467
前據	-11.8467
正性	-11.8469
今復	-11.8469
四無量心	-11.8469
無間道中	-11.847
義別說	-11.8471
於因	-11.8471
二釋分四	-11.8471
如樞要	-11.8472
向下	-11.8474
畢竟不	-11.8475
如暴流	-11.8475
念念滅	-11.8476
福利	-11.8476
捨之	-11.8477
正死	-11.8477
與一切法	-11.8478
宿業	-11.8478
既成	-11.848
不調	-11.8483
依文	-11.8484
似根	-11.8484
具辨	-11.8484
諸聖教中	-11.8485
於欲	-11.8485
因於	-11.8487
最勝義	-11.8488
煩惱及	-11.8489
相翻	-11.849
正意	-11.849
及意	-11.849
能害	-11.8491
開許	-11.8493
簡餘	-11.8494
四清淨	-11.8497
超度	-11.8498
初對	-11.8498
緣成	-11.85
不能染	-11.85
我常	-11.85
作如此	-11.8502
斷其	-11.8503
毘曇說	-11.8505
酬因	-11.8505
卷第五	-11.8506
起作	-11.8509
色等境	-11.851
近生	-11.8512
更復	-11.8515
貪痴	-11.8517
出道	-11.8517
日出	-11.8518
唯異熟心	-11.8519
當作	-11.852
少故	-11.8521
五十八說	-11.8523
度量	-11.8523
阿練若	-11.8525
怯	-11.8527
本文	-11.8528
有尋	-11.8529
戒淨	-11.8529
惡果	-11.853
而不得	-11.8532
化人	-11.8533
三解釋分	-11.8535
種子等	-11.8536
佉	-11.8536
示相	-11.8537
持對治	-11.8537
所下	-11.8539
揀異	-11.8539
拔除	-11.8541
倚	-11.8543
囂動	-11.8543
侶	-11.8543
十方諸佛	-11.8543
給	-11.8544
處生死	-11.8544
不釋	-11.8545
為利	-11.8545
擁	-11.8546
如本母釋	-11.8546
不悟	-11.8546
唯第八	-11.8546
遙	-11.8547
所施	-11.8548
辨之麁爾	-11.8548
八支	-11.8548
見苦所斷	-11.8548
如實通達	-11.8549
優婆塞	-11.855
謂執	-11.855
裂	-11.8551
須臾	-11.8551
輔	-11.8551
有為功德	-11.8552
汎爾	-11.8552
軸	-11.8552
或先	-11.8552
仍是	-11.8552
鉢羅	-11.8553
弓	-11.8553
贅	-11.8553
堅牢	-11.8554
慰喻	-11.8554
之障	-11.8554
於理為勝	-11.8554
申難	-11.8556
依止者	-11.8556
非有無	-11.8557
第三依	-11.8557
識身	-11.8557
何無	-11.8557
中無有	-11.8558
春	-11.8558
大集	-11.8559
於一時間	-11.8559
潤業	-11.8559
二分別	-11.856
正感	-11.8562
同在一處	-11.8562
昧略	-11.8563
內凡	-11.8563
是諸法	-11.8564
踰繕那	-11.8564
五修	-11.8568
餘事	-11.857
憙樂	-11.857
故名無記	-11.857
▁初徵	-11.857
定色	-11.857
從於	-11.8572
力勵	-11.8572
引教證	-11.8573
慢者	-11.8576
香氣	-11.8577
現般	-11.8577
故言一分	-11.8578
九次第定	-11.8578
煩惱所知二障	-11.858
門差別	-11.858
列其名	-11.8581
修諸善	-11.8581
與眾生	-11.8583
七義	-11.8583
知量	-11.8584
設難	-11.8585
四難	-11.8585
徧行別境	-11.8585
自體相	-11.8585
色之	-11.8586
辟支	-11.8587
會之	-11.8588
義分四	-11.8589
三界中	-11.8589
薰習	-11.8589
五頌	-11.8589
未具	-11.8591
自性等	-11.8593
諸聲聞等	-11.8593
欲明	-11.8594
端正	-11.8596
善不善等	-11.8596
生般	-11.8596
汝所執	-11.8596
設不	-11.8597
相應也	-11.8598
憤恚	-11.8598
助力	-11.86
現時	-11.86
次觀	-11.86
彼智	-11.8601
菩薩乘	-11.8601
中容	-11.8602
共相種	-11.8602
七種作意	-11.8604
詐現	-11.8605
故偏說	-11.8607
三位無	-11.8609
餘方	-11.861
除瞋	-11.8611
其次	-11.8612
明入	-11.8613
准義	-11.8613
於諸行	-11.8617
一世界	-11.8618
初中有二一	-11.8618
五根及	-11.8621
永捨	-11.8622
不決定故	-11.8622
緣第八見分	-11.8625
名上士	-11.8626
無常苦	-11.8629
邪思惟	-11.863
助伴者	-11.8631
為顯此義	-11.8631
樂具	-11.8632
復分為二	-11.8636
真實見	-11.8636
是理	-11.8637
和合句	-11.8637
為惡	-11.8638
暫起	-11.864
女身	-11.864
難意云	-11.8643
四真諦	-11.8643
演曰五釋	-11.8643
未圓	-11.8644
散壞	-11.8646
極微體	-11.8646
所對治法	-11.8646
隨學	-11.8647
是無學	-11.8648
貪憂	-11.8648
大罪	-11.8649
從所依	-11.865
心相	-11.8651
勝利分二	-11.8653
外門轉	-11.8653
之差別	-11.8654
准彼	-11.8654
所變色	-11.8655
煩惱所知	-11.8655
修心	-11.8656
執有我	-11.8657
證量	-11.8658
非有為	-11.8659
違緣	-11.8661
但伏	-11.8661
證大菩提	-11.8661
變作	-11.8662
所安立	-11.8663
問詞	-11.8664
純善	-11.8666
勝意樂	-11.8667
隨前	-11.8669
亦顯	-11.8669
如佛地論	-11.8669
然以	-11.8672
毛孔	-11.8673
任運生	-11.8673
出胎	-11.8674
種子與	-11.8674
正住	-11.8675
蘊為我	-11.8676
能治道	-11.8678
一我	-11.8678
如菩薩地	-11.868
性宗	-11.868
象馬	-11.8681
滅智	-11.8682
雖然	-11.8684
唯是一	-11.8686
能集	-11.8686
多劫	-11.8688
之義也	-11.869
四諦下	-11.8693
或多	-11.8695
三頌	-11.8695
金等	-11.8697
顯義	-11.8697
第十八	-11.8697
屬我	-11.8699
初生時	-11.8701
法花經	-11.8702
串習力	-11.8703
無種姓	-11.8706
等餘	-11.8707
一想	-11.8708
二个	-11.8708
種生現行	-11.871
之罪	-11.871
前心	-11.871
安忍	-11.871
所緣事	-11.8711
不更	-11.8712
此所知障	-11.8713
等之所	-11.8713
此語	-11.8714
通二斷	-11.8716
行蘊中	-11.8716
同時起	-11.872
由諸菩薩	-11.872
緣青	-11.8721
得阿羅漢果	-11.8721
聞所成	-11.8721
所不攝故	-11.8722
滅界	-11.8722
有兩義	-11.8723
隨此	-11.8725
離斷常	-11.8725
彼部	-11.8727
從師	-11.8727
有疑	-11.8729
能所緣	-11.8729
非執	-11.8731
除惱	-11.8731
之一分	-11.8732
能生彼	-11.8732
祈	-11.8733
皆是無常	-11.8733
彼所緣	-11.8733
資身	-11.8734
則與	-11.8735
生觸	-11.8736
第七地中	-11.8736
四障	-11.8737
無餘依涅槃	-11.8737
近分定	-11.8737
向說	-11.8738
色心等法	-11.8738
善思	-11.8739
比量相違	-11.874
俱有根	-11.8742
謂此真如	-11.8743
唯有內識	-11.8744
常在	-11.8745
上來第一	-11.8746
壽暖	-11.8747
重說	-11.875
慧數	-11.875
素呾纜	-11.8752
謂外	-11.8752
問若爾何故	-11.8753
尤	-11.8753
作所緣緣	-11.8754
頻	-11.8754
醫	-11.8754
一數	-11.8755
非空非有	-11.8755
煙	-11.8755
括	-11.8755
八部	-11.8757
裏	-11.8757
膝	-11.8757
輕蔑	-11.8757
即不定	-11.8758
群臣	-11.8758
深見	-11.8758
有病	-11.8758
槃	-11.8759
淨禪	-11.8759
引聖教	-11.876
約境	-11.876
化生有情	-11.876
𢙉	-11.876
是名有犯有所違越	-11.876
與彼同	-11.8761
毘鉢舍那品	-11.8761
十隨	-11.8762
依眼	-11.8763
迴向無上菩提	-11.8763
無常苦空無我	-11.8763
戰	-11.8763
浮塵根	-11.8764
安得	-11.8764
屈申	-11.8764
般若經	-11.8766
無實我	-11.8766
慶悅	-11.8768
與本識	-11.8768
續善根	-11.8768
執色為我	-11.877
習行	-11.8771
思量名意	-11.8772
不感	-11.8773
與第八	-11.8773
若總	-11.8773
等四句	-11.8774
名聞	-11.8774
欲界修惑	-11.8774
此中有頌	-11.8774
之根	-11.8775
有分別影像	-11.8775
供養三寶	-11.8775
王宮	-11.8775
依禪	-11.8775
八處	-11.8776
先業所引	-11.8776
觀一切法	-11.8777
放逸者	-11.8777
修生	-11.8779
為真實	-11.8779
歸禮	-11.878
劫盜	-11.8781
現起分位	-11.8781
變他	-11.8782
受生故	-11.8782
作者受者	-11.8784
而為體性	-11.8784
二取習氣	-11.8785
從其	-11.8785
住時決定	-11.8786
審觀察	-11.8786
心心數法	-11.8787
有三心	-11.8787
等引地	-11.8788
六七八識	-11.8789
不有故	-11.8789
故言無	-11.879
無五識	-11.879
鼻舌身三	-11.8791
能厭	-11.8791
入無心定	-11.8791
同依一	-11.8791
麁故	-11.8791
勝解行住	-11.8792
因果差別	-11.8793
實也	-11.8793
共相應故	-11.8794
三千世界	-11.8795
如依	-11.8795
空花	-11.8796
今身	-11.8796
以本	-11.8797
現量智	-11.8797
汝許	-11.8797
亦不緣	-11.8797
於餘處	-11.8798
俱舍頌云	-11.8798
自顯	-11.8798
增上義	-11.8798
四眾	-11.8798
得無為	-11.8799
凡位	-11.88
間隔	-11.88
句也	-11.8801
所顯真理	-11.8801
上明	-11.8801
寬廣	-11.8801
為有法	-11.8802
永拔	-11.8803
見理	-11.8804
初中有三一	-11.8805
招集	-11.8806
二空理	-11.8806
大丈夫	-11.8806
謂善	-11.8807
下出	-11.8807
導引	-11.8807
虗空無為	-11.8807
非五識	-11.8809
是無記故	-11.8809
斷證	-11.881
蘊所攝	-11.8811
十地位中	-11.8812
宿因	-11.8812
善根故	-11.8813
六識界	-11.8814
無我行	-11.8814
此中據	-11.8814
無有愛	-11.8815
皆斷	-11.8817
亦不離	-11.8819
為劣	-11.8819
總斥	-11.882
應捨	-11.8822
摩尼	-11.8824
執受處	-11.8824
懈怠者	-11.8827
十方佛	-11.8828
而施	-11.8829
證會	-11.8832
不應作	-11.8836
無見無對	-11.8836
善了知	-11.8838
齊此	-11.8838
受想滅	-11.8838
根本無分別智	-11.8839
更無異	-11.8839
不會	-11.884
廣引	-11.8841
了相勝解	-11.8841
明盛	-11.8843
云何無義	-11.8844
不親緣	-11.8845
字也	-11.8846
等聲	-11.8847
九緣	-11.8848
作佛事	-11.8849
於諸境界	-11.885
分別隨眠	-11.885
前二師	-11.8852
喜愛	-11.8853
劫數	-11.8853
為轉依	-11.8854
名號	-11.8854
別性	-11.8855
不損惱	-11.8855
類差別	-11.8856
非無為	-11.8856
知眾生	-11.8857
通有無漏	-11.8858
後七	-11.8858
知苦	-11.8859
名變	-11.8859
答初問	-11.8861
長因	-11.8863
經義	-11.8865
行惡行	-11.8867
業所感者	-11.8868
分攝	-11.8868
非了義	-11.8868
何人	-11.8869
亦無過失	-11.887
則不然	-11.8872
昔所	-11.8874
為諸有情	-11.8875
自害	-11.8876
前剎那	-11.8876
通內外	-11.8877
經行	-11.8877
喜悅	-11.8878
勝修	-11.8879
變易死	-11.8879
無量差別	-11.8879
四句中	-11.888
又按	-11.8881
法無礙解	-11.8882
異色心等	-11.8882
可取	-11.8883
現比	-11.8885
能熏種	-11.8886
無間斷故	-11.8888
佛出	-11.8891
執為實	-11.8894
此中約	-11.8895
得等流果	-11.8896
未合	-11.8898
增上緣依	-11.8899
隨起	-11.8903
更無別體	-11.8903
第五云	-11.8903
我身	-11.8904
本業	-11.8904
威德定	-11.8905
身形	-11.8905
假施設有	-11.8906
四破	-11.8907
將生	-11.8908
見道修道	-11.8909
如龜毛等	-11.8909
與無明	-11.891
復次明	-11.891
依外	-11.8912
初中分二初	-11.8913
此三法	-11.8914
總辨	-11.8916
為開導	-11.8916
失念者	-11.892
得方便	-11.892
下二界	-11.8921
為因生	-11.8922
聖財	-11.8922
如是行者	-11.8923
五唯	-11.8924
依類	-11.8924
學心	-11.8926
定業	-11.8926
無色界定	-11.8928
有勝劣	-11.893
七色	-11.893
顯於	-11.8932
根種	-11.8933
九地中	-11.8933
假也	-11.8935
引自果	-11.8937
徧計執	-11.8937
十一支	-11.8937
又諸菩薩於	-11.8938
真解脫	-11.894
與諸法	-11.8941
力強	-11.8942
障體	-11.8942
咎	-11.8943
正難	-11.8945
以見分	-11.8947
無限	-11.8949
名麁重	-11.895
術	-11.8954
諸識相應	-11.8955
令有情	-11.8956
宿命智	-11.8956
左右	-11.8957
安受苦忍	-11.8958
昏沉	-11.8958
試	-11.8959
此世他世	-11.8959
中前三	-11.896
以根	-11.896
此字	-11.8961
有難言	-11.8962
三世法	-11.8962
來生此間	-11.8964
起如是見	-11.8964
佛德	-11.8964
捉	-11.8964
規矩	-11.8964
有見無見	-11.8965
饒	-11.8966
大天	-11.8967
𨳝	-11.8967
若因若果	-11.8967
梵眾	-11.8967
狹故	-11.8967
怛	-11.8967
載	-11.8967
迎	-11.8968
休	-11.8968
謗法	-11.8969
釋名者	-11.8969
正念正定	-11.8971
章中具廣分別	-11.8973
讚美	-11.8973
諸根互用	-11.8973
慧分	-11.8973
行道	-11.8975
八種識	-11.8976
內我	-11.8977
等無間依	-11.8977
思准	-11.8977
釋其名	-11.8977
正念正知	-11.8977
三問	-11.8978
思願	-11.8978
伹言	-11.8978
嗢	-11.8978
福德資糧	-11.8978
未來有	-11.8979
有二句	-11.898
部中	-11.8981
由二種相	-11.8981
或餘	-11.8982
釋頌意	-11.8982
不淨想	-11.8982
故無有失	-11.8982
對礙	-11.8982
顯揚十六	-11.8983
為近	-11.8983
緣上地	-11.8985
5	-11.8987
種起	-11.8988
通三種	-11.8989
由四因緣	-11.8991
菩薩十地	-11.8991
只是	-11.8992
共有因	-11.8993
第三門中	-11.8994
是涅槃	-11.8994
非作	-11.8995
勝上	-11.8995
計有我	-11.8995
熏得	-11.8997
鬼趣	-11.8997
缺減	-11.8997
猶如虛空	-11.8999
豈不相違	-11.9
四品	-11.9003
依第七	-11.9003
本寂	-11.9004
演曰後釋之中	-11.9004
論云何名為至	-11.9005
不謬	-11.9006
先巳	-11.9007
順彼	-11.9008
亦無有	-11.9008
惑得	-11.901
第七識俱	-11.901
是故說為	-11.9012
眾寶	-11.9012
非世	-11.9012
大眾部等	-11.9013
三天	-11.9013
名引因	-11.9013
稱理	-11.9013
慼行	-11.9014
從此生	-11.9014
為教體	-11.9015
無常義	-11.9018
六處支	-11.9019
能悟入	-11.902
成於	-11.9021
二空真如	-11.9022
不愚	-11.9022
於菩薩藏	-11.9023
九相	-11.9024
簡略	-11.9025
盡時	-11.9026
雜染品	-11.9026
由內	-11.9027
皆是假有	-11.9027
鬼神	-11.9028
於他所	-11.9029
或前	-11.9029
方便得	-11.9031
不執著	-11.9031
能成就	-11.9032
二空所顯真如	-11.9033
由三種	-11.9034
類也	-11.9034
二攝	-11.9035
決擇分說	-11.9036
邪勝解	-11.9037
戲樂	-11.9037
▁初正明	-11.9037
不招	-11.9037
士夫用	-11.9038
如所應	-11.9038
即涅槃	-11.9042
相違過	-11.9044
無勞	-11.9045
緣種子	-11.9045
隨義分別	-11.9046
邪慢	-11.9046
作用道理	-11.9047
有真	-11.9048
因果相續	-11.9049
自所證	-11.905
顯得	-11.9052
得初禪	-11.9054
二世樂	-11.9056
但就	-11.9057
對治者	-11.9057
恐有	-11.9058
實等性	-11.906
見修所斷	-11.9061
三乘通	-11.9063
滅後	-11.9064
二千	-11.9065
非顯	-11.9065
依本	-11.9068
是過去	-11.907
所習	-11.907
謂內	-11.9071
則彼	-11.9071
等解	-11.9072
當觀	-11.9072
亦見	-11.9073
觸思	-11.9073
大悲心	-11.9077
亦得緣	-11.9077
非無學	-11.9077
緣欲界	-11.9078
觸支	-11.9078
於今	-11.9078
苦諦攝	-11.908
結破	-11.9081
化為	-11.9081
而由	-11.9082
二十隨煩惱	-11.9083
無盡故	-11.9083
乃至七地	-11.9085
色是我	-11.9087
對治修	-11.9087
難測	-11.9087
所獲	-11.9087
無間解脫道	-11.9088
他處	-11.9089
所有煩惱	-11.9089
地水	-11.909
所犯罪	-11.9091
相返	-11.9091
有尋有伺地	-11.9092
聖種	-11.9093
自性斷	-11.9094
必以	-11.9096
意可知	-11.9096
理法	-11.9097
力無畏等	-11.9098
且就	-11.9098
者意說此	-11.9098
釋別名	-11.9099
色界有	-11.91
資粮加行位	-11.91
二十劫	-11.91
不真	-11.9101
緣此境	-11.9101
緣第八識	-11.9102
決定相違	-11.9102
前卷	-11.9103
說為假	-11.9104
以為涅槃	-11.9104
非顛倒	-11.9105
已趣入	-11.9105
不滿	-11.9106
不殺	-11.9108
可愛境	-11.9109
思覺	-11.911
外更無	-11.9113
皆得自在	-11.9116
五段	-11.9116
能引起	-11.9117
釋妨難	-11.9118
一向記	-11.912
得不還果	-11.912
唯善性	-11.9122
是無覆無記	-11.9122
是觸	-11.9123
無堪能	-11.9123
眾生緣	-11.9123
頌分二	-11.9124
自在義	-11.9127
差別假立	-11.9127
法僧	-11.913
皆實	-11.9131
成熟者	-11.9131
現可得故	-11.9132
分六中第	-11.9133
滅盡定者	-11.9136
有十三	-11.9137
五十六云	-11.9137
汝何所欲	-11.9139
在色界	-11.914
力能	-11.914
得無上	-11.9141
見分等	-11.9141
二聚	-11.9144
諸學	-11.9146
供事	-11.9146
於無色界	-11.9146
約三性	-11.9146
成就如是	-11.915
五字	-11.9151
共立	-11.9153
隨心轉	-11.9154
泥洹	-11.9154
中初二	-11.9155
受滅	-11.9158
現可得	-11.9159
此兩	-11.9159
戒品	-11.9161
範	-11.9161
巳證	-11.9162
亦不違	-11.9164
初果人	-11.9165
意識緣	-11.9165
十釋	-11.9165
證義	-11.9165
一切種識	-11.9167
仍名	-11.9167
無分別者	-11.9167
故思造業	-11.9167
瑟	-11.9172
政	-11.9172
此十種	-11.9172
紙	-11.9172
十善業道	-11.9173
模	-11.9174
謂信	-11.9174
何以知者	-11.9174
通而論之	-11.9175
猪	-11.9175
不越因量	-11.9175
幢	-11.9175
尊貴	-11.9176
度生	-11.9176
僮僕	-11.9177
未知欲知根	-11.9177
輒	-11.9177
七地已前	-11.9178
說斷二愚	-11.9178
執著相	-11.9179
用何	-11.918
攝相歸性	-11.918
現前供養	-11.918
聊簡	-11.918
穿	-11.9181
死後斷滅	-11.9182
後解為勝	-11.9182
論主破云	-11.9183
霜	-11.9183
竹	-11.9183
百四十	-11.9184
怠	-11.9184
辨才	-11.9184
必藉	-11.9184
平等法性	-11.9185
不並	-11.9185
舊種	-11.9186
彼經云	-11.9187
意成身	-11.9187
㝵	-11.9187
扙	-11.9187
色攝	-11.9188
仁王經	-11.919
以此二	-11.919
先就	-11.919
非斷非常	-11.9191
通六識	-11.9192
是故一切	-11.9192
則便	-11.9192
難詞	-11.9192
苣勝	-11.9193
無記攝	-11.9193
猶存	-11.9193
湛然	-11.9193
兩舌	-11.9193
行圓滿	-11.9193
攝論中	-11.9193
通見修斷	-11.9194
能引義利	-11.9194
有隨眠	-11.9195
為定量	-11.9195
重顯	-11.9197
鈔云	-11.9198
福非福不動	-11.9198
大梵王	-11.9198
疲極	-11.9199
初中分二一	-11.92
天眼耳通	-11.9201
來世	-11.9202
世間心	-11.9203
帶數釋	-11.9204
諍事	-11.9204
謂五色根	-11.9205
就勝	-11.9205
餘果	-11.9207
一切煩惱皆	-11.9207
而方	-11.9208
無常法	-11.9209
勝力	-11.9209
以從	-11.921
謂所餘	-11.9213
諸大種	-11.9213
相應慧	-11.9214
積聚義	-11.9214
是佛所說	-11.9214
極略色	-11.9215
在識	-11.9215
通在	-11.9216
不深	-11.9216
即是菩薩	-11.9216
迷闇	-11.9217
徧知	-11.9217
道力	-11.9218
不染汙	-11.922
異前	-11.922
辨其相	-11.9223
出家眾	-11.9224
喻於	-11.9224
習修	-11.9224
分之為二	-11.9225
由四種相	-11.9225
轉更	-11.9226
第十云	-11.9226
淨意樂	-11.9227
善慧地	-11.9228
扶根	-11.9228
三徵問	-11.9228
五眼	-11.9232
是第五	-11.9233
依彼轉	-11.9233
一世	-11.9233
忍中	-11.9233
一執	-11.9234
亦復不	-11.9235
勝善	-11.9235
然前	-11.9238
對法等說	-11.9238
初句標	-11.9239
智諦	-11.924
未解脫	-11.9242
種現俱	-11.9243
隨勝	-11.9243
能緣慮	-11.9243
具足安住	-11.9243
敢	-11.9245
一切無漏	-11.9247
瑜伽論中	-11.9247
外國	-11.9248
間生	-11.9248
染淨依	-11.9249
堅持	-11.9251
心外境	-11.9252
體非是	-11.9252
變也	-11.9253
應立	-11.9253
無相分	-11.9255
第二破	-11.9256
所資	-11.9256
塗染	-11.9258
頓得	-11.9258
二引經	-11.9259
無漏聖道	-11.926
三途	-11.926
生染	-11.926
受行	-11.9261
麁重者	-11.9261
愛著處	-11.9262
壁	-11.9264
望他	-11.9265
釋第二	-11.9265
此疏中	-11.9266
隣近釋	-11.9266
若行	-11.9267
瑜伽第五	-11.9267
能解	-11.9268
我無我	-11.927
剎那生滅	-11.9271
前六轉識	-11.9271
上言	-11.9272
大財	-11.9274
經句	-11.9274
▁次別釋	-11.9275
有為之法	-11.9276
改易	-11.9277
法佛	-11.9278
恃巳	-11.9279
五總結	-11.9279
同見	-11.928
得增上果	-11.9281
不攝者	-11.9281
調伏眾生	-11.9281
諦智	-11.9283
而用	-11.9284
次別解	-11.9284
後隨	-11.9284
令諸眾生	-11.9285
大那落迦	-11.9285
緣合	-11.9286
非別有體	-11.9288
起勝解	-11.9288
並有	-11.9288
五明處	-11.9289
於眼等識	-11.9289
應知是	-11.9289
心慧	-11.929
專精	-11.929
供養如來	-11.929
是外	-11.9291
殺等	-11.9291
觀身	-11.9292
第九云	-11.9293
數修習	-11.9294
法爾種	-11.9295
修習對治	-11.9295
依士釋也	-11.9296
二別釋分四	-11.9297
無種性	-11.9298
利根者	-11.9298
天眾	-11.9299
今此論中	-11.9299
卷下	-11.93
先所受	-11.93
故有差別	-11.93
所生現行	-11.9301
金輪	-11.9301
正體	-11.9302
能辦	-11.9302
得無學	-11.9304
菩提道	-11.9304
現行時	-11.9304
明暗	-11.9305
發正願	-11.9307
經部等	-11.9314
不圓滿	-11.9314
觀諸色	-11.9315
何故但	-11.9317
所施物	-11.9318
別斷	-11.9319
不除	-11.9319
引之	-11.9319
前門	-11.932
第八地中	-11.9321
真如為體	-11.9325
不可記	-11.9325
善位	-11.9325
三業為性	-11.9326
乖返	-11.9326
既名	-11.9326
招異熟	-11.9327
如實知故	-11.9327
無心睡眠	-11.9327
發智	-11.9329
初結前生後	-11.9329
名近	-11.9329
謂諸外道	-11.933
有質	-11.9333
內識所變	-11.9334
地地中	-11.9335
法外	-11.9335
定相應故	-11.9335
其色	-11.9336
難知故	-11.9336
影現	-11.9339
與癡	-11.934
與轉識	-11.9341
二乘位	-11.9343
熏習義	-11.9343
不輕	-11.9344
證無為	-11.9346
變異受	-11.9346
不記	-11.9347
善達	-11.9348
失也	-11.9351
斷得	-11.9352
理成	-11.9353
能所詮	-11.9353
證彼	-11.9353
一依止	-11.9353
無不皆	-11.9353
苦事	-11.9354
產	-11.9355
所有善根	-11.9355
配釋	-11.9356
久修	-11.9356
心自在	-11.9359
六識相應	-11.9359
緣上界	-11.9359
體無別	-11.936
共中不共	-11.9361
短長	-11.9362
退起	-11.9363
幻等	-11.9364
敬事	-11.9367
別處	-11.9367
逢緣	-11.937
事欲	-11.937
名數	-11.9371
差別分三	-11.9371
能生起	-11.9371
由不了	-11.9372
復次依	-11.9373
慧波羅蜜多	-11.9373
脩行	-11.9374
各為一	-11.9375
無緣義	-11.9376
病者	-11.9377
一切悉	-11.9377
湛	-11.9378
標名	-11.9379
無行般	-11.938
或俱	-11.938
銀	-11.9381
遊履	-11.9382
轉救	-11.9383
毘那耶	-11.9383
醜	-11.9384
第四第五	-11.9384
如是十種	-11.9384
一分無記	-11.9385
假實門	-11.9386
皆假	-11.9386
如薩婆多	-11.9386
義門差別	-11.9386
明勝利	-11.9388
本性住	-11.9388
灌	-11.9389
於自他	-11.9389
債	-11.939
?」	-11.939
躭	-11.9391
周圓	-11.9391
洞	-11.9391
邪婬	-11.9392
不帶	-11.9392
就初段中	-11.9392
喜樂俱	-11.9393
船	-11.9393
棄背	-11.9393
擲	-11.9393
澄清	-11.9394
竊	-11.9394
醒	-11.9394
根身器界	-11.9395
甲	-11.9395
和會	-11.9395
門有一問答	-11.9395
菓	-11.9395
堅性	-11.9396
六觸	-11.9396
無間修	-11.9396
不數	-11.9396
出苦	-11.9396
違宗	-11.9396
三十七菩提分法	-11.9397
正實趣生	-11.9397
諸雜染法	-11.9397
燒惱	-11.9398
有所堪能	-11.9398
心外有法	-11.9398
太狹	-11.9398
第二辨	-11.9399
阿修羅	-11.94
不造新業	-11.9401
重生	-11.9402
鎖	-11.9403
舍利子	-11.9404
堅密	-11.9404
俱生身邊二見	-11.9404
府	-11.9406
令心高舉	-11.9406
掉動	-11.9407
歸命	-11.9408
上來已	-11.9409
亦當	-11.941
有事無事	-11.9411
下言	-11.9412
料揀	-11.9414
法律	-11.9415
大乘所說	-11.9415
難可了知	-11.9416
眼等諸根	-11.9416
則生	-11.9416
究竟地	-11.9418
9	-11.9419
勝鬘經云	-11.9419
由如是等	-11.9419
見清淨	-11.9419
無功用行	-11.9419
五十九云	-11.942
聖教我法	-11.942
法念住	-11.942
無滯	-11.9421
菩薩地說	-11.9421
一切法空	-11.9421
五十五云	-11.9422
嫉等	-11.9422
此十煩惱	-11.9423
山等	-11.9425
生盲	-11.9425
法性土	-11.9426
相無性	-11.9427
正現在前	-11.9427
而為說法	-11.9428
眼境	-11.9431
念念生滅	-11.9431
如是廣說	-11.9431
感異熟果	-11.9431
大義曰	-11.9432
水輪	-11.9433
一字所成名	-11.9434
與憂相應	-11.9434
之主	-11.9435
與此不同	-11.9435
阿毗達磨	-11.9435
到究竟地	-11.9436
之所隨逐	-11.9437
惡色	-11.9438
決定性	-11.9438
五十四說	-11.9438
蓋乃	-11.9438
內等淨	-11.9439
無慙	-11.944
能證涅槃	-11.9441
八十七	-11.9441
氣分	-11.9442
行成	-11.9444
後半	-11.9444
百由旬	-11.9444
所造作	-11.9446
名覺	-11.9446
主義	-11.9447
體性業用	-11.9448
生住異滅	-11.9449
是故偈言	-11.9449
不能入	-11.945
加行時	-11.9451
無憂	-11.9452
無數大劫	-11.9453
疏云若	-11.9454
觀察諸法	-11.9458
現行果	-11.946
或有一類	-11.9462
加功	-11.9462
有其四	-11.9462
風等	-11.9463
文分三叚一	-11.9463
廣說如	-11.9464
境上	-11.9465
本自	-11.9465
心行滅	-11.9466
各各不同	-11.9466
起見	-11.9467
遍了知	-11.9467
非因緣故	-11.9469
感生死	-11.947
種望現	-11.947
色聲等	-11.9471
本來無	-11.9471
名無覆	-11.9472
辨釋	-11.9472
不能引	-11.9477
不慢	-11.9478
是所緣緣	-11.9481
借識	-11.9481
所緣境者	-11.9484
此聲	-11.9484
下三句	-11.9484
色等相	-11.9485
舉其	-11.9485
答據	-11.9485
次辯	-11.9486
亦定	-11.9486
古人	-11.9489
德失	-11.949
二十三諦	-11.949
之初	-11.949
修多羅中	-11.9491
能受熏	-11.9491
離間	-11.9492
為四句	-11.9493
眾行	-11.9494
邪智	-11.9495
生怖畏	-11.9496
隨煩惱故	-11.9498
法印	-11.9498
之旨	-11.9499
三別釋分三	-11.9501
實為	-11.9501
共同	-11.9502
髮等	-11.9503
三種意生身	-11.9504
中容境	-11.9504
法自相	-11.9504
通凡聖	-11.9505
五根等	-11.9506
多聞熏習	-11.9506
性不同	-11.9507
相無自性性	-11.9508
欲等五	-11.9509
涅槃經說	-11.951
共法	-11.9512
十二緣生	-11.9512
令此	-11.9514
餘句	-11.9514
二知	-11.9515
雖巳	-11.9516
助道	-11.9516
眾人	-11.9517
攝一切法	-11.952
作所緣	-11.952
有所緣緣	-11.9521
▁次約	-11.9522
有癡	-11.9523
會前	-11.9523
順苦受	-11.9524
為眾生故	-11.9525
發業潤生	-11.9525
非所依	-11.9526
福分	-11.9526
識為緣	-11.9526
隨順依處	-11.9526
離別	-11.9527
百歲	-11.9527
後還	-11.9529
應分別	-11.953
說偈	-11.9532
然後方	-11.9532
無相修	-11.9532
手足等	-11.9533
攝論說	-11.9533
此出	-11.9534
自分因	-11.9535
數為體	-11.9535
堅著	-11.9536
對治作意	-11.9537
引文	-11.9538
照明	-11.9538
難修	-11.9538
別障	-11.9539
想倒	-11.9539
由熏習	-11.9542
相對分別	-11.9542
乃至無所有處	-11.9542
具知	-11.9542
是苦諦	-11.9543
者此解	-11.9543
生覺受	-11.9545
識等五果種子	-11.9545
示其	-11.9545
又准	-11.9546
福不動行	-11.9547
所聞法	-11.9548
兩頭	-11.955
散意識	-11.955
雜業	-11.955
仍有	-11.9551
離尋伺	-11.9555
能領受	-11.9555
辯其相	-11.9558
不變異	-11.956
地持論	-11.956
草木等	-11.9562
十五心	-11.9564
成染	-11.9567
若夫	-11.9568
八十一品	-11.9568
而有差別	-11.957
不全	-11.9571
由愛	-11.9571
無實體故	-11.9571
總執	-11.9572
不同彼	-11.9573
上品煩惱	-11.9574
或經	-11.9574
根本位	-11.9575
有智者	-11.9575
錯也	-11.9578
章句	-11.9578
而執	-11.9579
誓受	-11.958
▁初師	-11.958
祇	-11.958
一貪	-11.9581
外執	-11.9586
敬重	-11.9586
彼聞	-11.9586
色受等	-11.9587
南無	-11.9588
亦空	-11.9588
名無上	-11.9588
初根	-11.9589
前中先	-11.9589
捨前	-11.9589
來生	-11.959
四無色定	-11.959
即自證分	-11.9592
故詳曰	-11.9593
是遍計所執	-11.9593
一往	-11.9594
若二乘人	-11.9595
雜染相	-11.9595
等也言	-11.9596
似一	-11.9596
垢淨	-11.9597
未除	-11.9597
所有種子	-11.9598
在初地	-11.96
行性	-11.9601
深密經	-11.9604
不捨離	-11.9605
為能生因	-11.9605
即具	-11.9607
以為自性	-11.9608
耻	-11.9608
後三句	-11.961
波羅夷	-11.961
脩羅	-11.961
低	-11.9611
徧諸染心	-11.9612
第三辨	-11.9612
喻上	-11.9612
緣安立諦	-11.9613
信戒	-11.9614
集起名心	-11.9614
獨影唯從見	-11.9614
量破	-11.9615
於中別分	-11.9615
僕	-11.9616
是實物有	-11.9616
花嚴	-11.9617
以立其名	-11.9617
他化自在天	-11.9617
憐	-11.9617
拆	-11.9618
諮	-11.9618
稱揚	-11.9619
別種生	-11.9619
圓淨	-11.962
調御	-11.962
像似正法	-11.962
舞	-11.962
曉了	-11.9622
若諸菩薩安住菩薩淨戒	-11.9622
品別	-11.9622
釋有兩義	-11.9623
非即非離	-11.9623
幾支	-11.9623
為能相	-11.9623
體業	-11.9624
鍊	-11.9624
謂佛世尊	-11.9626
初問後答	-11.9628
讚嘆	-11.9629
勝解行	-11.9629
眼等六根	-11.9629
餘文可解	-11.9629
半月	-11.9629
感總報	-11.963
自在依止義	-11.963
獨行無明	-11.963
昧劣	-11.9631
起我執	-11.9632
去來世	-11.9633
永害隨眠	-11.9634
諸有智者	-11.9634
俱時而轉	-11.9634
汝大乘	-11.9634
行布施	-11.9635
聚集顯現	-11.9635
待餘	-11.9636
故別立	-11.9636
心所與心	-11.9636
略有十種	-11.9637
分別我執	-11.9637
若第七識	-11.9638
淨無記	-11.9639
合成一	-11.9639
攝取眾生	-11.9639
他教	-11.9639
隨起言說	-11.9639
不應正理	-11.964
味等	-11.964
運轉作意	-11.964
自識所變	-11.964
車乘	-11.9641
名細	-11.9641
修作意	-11.9641
仍未	-11.9642
依靜慮	-11.9642
於所知境	-11.9643
在因位	-11.9643
此中有義	-11.9644
名一切智	-11.9645
雖有多	-11.9646
次簡	-11.9647
准此文	-11.9647
須彌山	-11.9649
演曰後荅之中	-11.9649
諸物	-11.9652
所起煩惱	-11.9652
離實等	-11.9652
四方	-11.9652
苦受俱	-11.9652
無上者	-11.9654
三乘聖道	-11.9654
生死因	-11.9654
上緣	-11.9656
增上慧住	-11.9657
又顯	-11.9657
若復說言	-11.9657
煞生	-11.9659
具斯	-11.9659
數數修習	-11.966
三受俱	-11.9661
得出離	-11.9661
有一頌	-11.9663
風大	-11.9667
更互為緣	-11.9667
出生死	-11.9667
觀苦	-11.9668
非福行	-11.9668
頂位	-11.9668
諸惡業	-11.967
初正破	-11.9672
三聚戒	-11.9672
別句	-11.9673
既盡	-11.9673
得此定	-11.9674
為業用	-11.9674
報盡	-11.9675
所引發故	-11.9675
曾未	-11.9676
正理論	-11.9676
引得	-11.9677
於父母	-11.9679
演曰十一	-11.968
俗諦中	-11.9682
十二句	-11.9682
皆如實知	-11.9682
惑苦	-11.9684
不可樂	-11.9685
二善	-11.9685
餘智	-11.9686
餘蘊	-11.9686
對除	-11.9687
現行思	-11.9688
招引	-11.9689
一切聲聞獨覺	-11.9689
得報	-11.9691
略示	-11.9693
所發業	-11.9694
卷第一	-11.9695
種引種	-11.9695
得圓滿故	-11.9695
轉識等	-11.9698
思惠	-11.9698
既滅	-11.9699
燈焰	-11.9699
別有自體	-11.9702
無量想	-11.9703
第三十	-11.9704
三結二明	-11.9705
新起	-11.9705
應非有	-11.9705
十二明	-11.9707
互相依	-11.9707
麁物	-11.9713
所迷	-11.9714
豈以	-11.9716
此即總	-11.9716
有表	-11.972
次結	-11.9721
此例	-11.9724
不見有	-11.9724
有五頌	-11.9725
滅定位	-11.9726
布施等	-11.9726
又難云	-11.9726
能益	-11.9727
而依	-11.9729
過去業	-11.9729
及諸心所	-11.9731
問准	-11.9733
位地	-11.9733
亦須	-11.9733
也詳曰	-11.9734
假合生	-11.9734
以初	-11.9735
及顯	-11.9735
能計	-11.9737
清淨所緣	-11.9737
斷緣縛	-11.9738
無明漏	-11.9738
德中	-11.9738
雖現	-11.9738
上來有二	-11.974
諸凡夫	-11.9741
牒救	-11.9742
因果同時	-11.9744
現量者	-11.9746
無礙解脫	-11.9746
染種	-11.9747
惑亂	-11.9748
能成立	-11.9748
必先	-11.9751
未出	-11.9753
小乘人	-11.9754
此中下	-11.9754
謂若略說	-11.9754
色類	-11.9755
死位	-11.9759
之所攝受	-11.9759
合之	-11.9759
死巳	-11.9759
初剎那	-11.976
四正勤	-11.9762
則不定	-11.9762
化事	-11.9762
已生者	-11.9764
下文說	-11.9766
金剛定	-11.9767
十四種	-11.9768
種子在	-11.9769
起增上慢	-11.9769
起善心	-11.9772
染慧	-11.9773
種種業	-11.9774
火辨	-11.9775
四記	-11.978
至金剛心	-11.9781
最勝者	-11.9783
種子及	-11.9784
已下明	-11.9785
菩薩地中	-11.9786
真淨	-11.9787
慙	-11.9788
邪論	-11.9789
天身	-11.9789
對法第六	-11.979
動故	-11.9791
四智品	-11.9793
五蘊論	-11.9793
為境界故	-11.9794
外別	-11.9794
夫言	-11.9794
後一是	-11.9794
即攝得	-11.9795
不損	-11.9795
我執習氣	-11.9795
殖	-11.9797
如聲	-11.9797
雖作	-11.9797
依慧	-11.9798
寧說	-11.9798
苦想	-11.9798
復得	-11.9799
卷上	-11.98
名異熟果	-11.9801
世間淨	-11.9802
為不定	-11.9805
有五義	-11.9811
加行究竟	-11.9811
答前問	-11.9811
伹有	-11.9812
覓	-11.9814
有一種	-11.9814
新熏種	-11.9814
別受	-11.9816
所依事	-11.9817
自心變	-11.9818
等流色	-11.9821
何得有	-11.9824
尋等	-11.9824
方得生	-11.9825
貪嗔等	-11.9827
歸本	-11.9831
所取故	-11.9831
能忍受	-11.9832
恣	-11.9833
有如是相	-11.9835
鼠	-11.9835
顯揚聖教論	-11.9836
後八	-11.9838
剌	-11.9839
明善知世間	-11.9839
羯羅藍	-11.9841
佛僧	-11.9841
起處	-11.9842
言總意別	-11.9842
傲	-11.9843
意解思惟	-11.9844
非有邊非無邊	-11.9844
讚勵	-11.9844
多識俱轉	-11.9845
萎	-11.9845
異熟愚	-11.9845
法忍法智	-11.9845
親近善士	-11.9846
而證	-11.9847
分九如論	-11.9847
願於當來	-11.9847
旦	-11.9848
朗	-11.9848
讚佛	-11.9849
非學	-11.985
秋	-11.985
迦旃延	-11.9851
䨱	-11.9851
眼耳身三識	-11.9851
哲	-11.9852
受持讀誦	-11.9852
置記	-11.9853
無慧	-11.9853
三性法	-11.9855
四十二	-11.9857
正義也	-11.9857
不生喜足	-11.986
禪波羅蜜	-11.986
將得	-11.986
堪受	-11.9861
調適	-11.9861
非倒	-11.9861
顯現似	-11.9862
根不壞	-11.9862
第十地中	-11.9863
有學位	-11.9863
成種子	-11.9864
業用者	-11.9864
大地法故	-11.9864
遍行因	-11.9865
初引	-11.9866
非現在	-11.9867
標釋	-11.9867
多門	-11.9867
最初發心	-11.9868
色根所取	-11.9869
念為增上	-11.987
從喻	-11.987
常寂	-11.987
知識	-11.9871
唯自利	-11.9872
能有所	-11.9872
假人	-11.9874
行苦性	-11.9875
准此釋	-11.9876
得上定	-11.9876
究竟果	-11.9877
金剛道後	-11.9877
休息	-11.9878
持法	-11.988
觸生受	-11.988
此第一解	-11.9881
聲名句文	-11.9882
希願	-11.9882
隨聞	-11.9885
佛國	-11.9885
詰問	-11.9887
如先所說	-11.9888
既斷	-11.9888
下中上品	-11.9889
入真觀	-11.9889
第八現行識	-11.9892
心懷	-11.9892
邊際定	-11.9893
名依他起	-11.9893
名色識	-11.9893
雙非	-11.9893
此即顯示	-11.9894
相分境	-11.9895
於三寶	-11.9896
法雲地	-11.9896
初地巳上	-11.9896
佛滅後	-11.9897
即第六	-11.9897
第四門中	-11.9897
前已說	-11.9898
果熟	-11.9899
蘊攝	-11.9899
極細	-11.9899
三性種子	-11.99
等分行	-11.9901
離名言	-11.9901
入於涅槃	-11.9901
見諸眾生	-11.9901
空無相	-11.9902
善無記心	-11.9904
四十四	-11.9905
動身	-11.9906
彌勒菩薩	-11.9907
有三師	-11.9908
名自性受	-11.9909
非實有體	-11.991
定不相應	-11.991
報土	-11.9911
尋伺二法	-11.9911
正滅	-11.9911
易緣	-11.9912
第三頌	-11.9913
起諸煩惱	-11.9913
無餘斷	-11.9915
不還果人	-11.9915
名世俗有	-11.9915
一千	-11.9916
自思惟	-11.9917
妙音	-11.992
八時	-11.9925
六觸處	-11.9926
如來性	-11.9926
護戒	-11.9926
兩處	-11.9927
則違	-11.9927
是等流	-11.9928
答難	-11.9929
心善解脫	-11.9929
邪行障	-11.993
發無表	-11.9932
即指	-11.9933
就體	-11.9935
見道位中	-11.9935
異蘊	-11.9935
唯通	-11.9935
苦蘊	-11.9936
不能發	-11.9936
如王	-11.9936
分四一明	-11.9936
二行相	-11.9938
如第六識	-11.9938
易入	-11.9939
所恃	-11.9941
過患相	-11.9942
因緣力	-11.9943
如涅槃經	-11.9944
復從	-11.9945
十八空	-11.9945
對緣	-11.9946
真無漏	-11.9948
▁次師	-11.9949
住一境	-11.9949
正學	-11.9949
內二分	-11.9951
脩所斷	-11.9952
第八明	-11.9952
名為清淨	-11.9952
十一相	-11.9955
外諸色	-11.9957
一形	-11.9958
功德品	-11.9958
未受	-11.9961
十勝行	-11.9963
如第八識	-11.9963
第三結	-11.9965
有心時	-11.9969
十一法	-11.997
曾聞	-11.997
真勝義	-11.9971
不依於	-11.9971
復說言	-11.9974
後結成	-11.9975
後觀	-11.9977
相助	-11.9978
各有異	-11.998
莖等	-11.9981
為能依	-11.9981
大智度論	-11.9982
是行苦	-11.9982
不宜	-11.9985
太寬	-11.9986
至究竟位	-11.999
謂信等五	-11.9991
陰界入	-11.9991
苦憂	-11.9993
相濫	-11.9994
情非情	-11.9994
刀杖	-11.9995
有二意	-11.9995
並用	-11.9996
辨定	-11.9997
不共依	-11.9997
求財	-11.9999
能學	-11.9999
二數	-11.9999
第二重	-12
四蘊名	-12
非先	-12
無由	-12.0002
現覺	-12.0002
第二難	-12.0002
汝若言	-12.0002
不嫉	-12.0002
此聞熏習	-12.0004
如病	-12.0004
大寶	-12.0008
表義	-12.0008
此義不成	-12.0008
不貪	-12.0009
在生死	-12.001
名為異熟	-12.0011
勢分	-12.0013
中初問	-12.0013
法空理	-12.0013
等五法	-12.0014
有何失	-12.0014
重辨	-12.0015
二明果	-12.0017
似帶質	-12.0017
違聖教	-12.0019
六句義	-12.0019
無間轉	-12.002
覺心	-12.002
制戒	-12.0022
念力	-12.0025
得無量	-12.0025
八大	-12.0027
前後次第	-12.0028
可愛事	-12.003
合解	-12.003
次修	-12.0032
與慢	-12.0033
非無記	-12.0034
嫌恨	-12.0034
閒	-12.0034
惠捨	-12.0036
內明	-12.0038
若諸菩薩於	-12.0038
從緣生故	-12.0039
▁初破	-12.004
諸宗	-12.004
初入	-12.004
無異相	-12.0042
說假部	-12.0042
惡口	-12.0042
戚	-12.0042
獨覺地	-12.0045
有爾所	-12.0047
徵列	-12.0047
次結示	-12.0047
賤	-12.0048
心為體	-12.0048
無差別相	-12.0049
以是因緣	-12.005
徵也	-12.005
先摽後釋	-12.005
略義中	-12.0051
皆在	-12.0053
不對	-12.0054
亦無違	-12.0054
所熏種	-12.0054
餘三緣	-12.0055
蹔	-12.0056
其過	-12.0056
究竟清淨	-12.0056
萬億	-12.0056
三結示	-12.0057
不覆	-12.0057
籌	-12.0057
施眾生	-12.0057
之極	-12.0058
師計	-12.0058
清淨戒	-12.0058
了別境	-12.0059
家解	-12.006
何界	-12.0062
修捨	-12.0062
次舉	-12.0062
法真見道	-12.0063
共相者	-12.0063
名有所依	-12.0063
他有情	-12.0063
謂第六識	-12.0063
是名為犯眾多犯	-12.0065
共中共	-12.0066
如海	-12.0066
七根	-12.0069
開覺	-12.0071
陸	-12.0072
分段變易	-12.0072
淚	-12.0073
有轉易	-12.0073
名中士	-12.0073
肩	-12.0073
採	-12.0073
之功	-12.0073
燭	-12.0073
於母胎中	-12.0074
諷誦	-12.0074
貝	-12.0074
後地	-12.0075
朋友	-12.0076
二別釋分四十四中第	-12.0076
我語	-12.0076
無尋唯伺地	-12.0076
幸	-12.0077
贍部洲	-12.0077
不解我意	-12.0077
於實德能	-12.0077
泛	-12.0077
宋	-12.0078
封	-12.008
紹	-12.008
所取相	-12.008
中二大八	-12.008
略而不論	-12.008
轉復	-12.008
分之為三	-12.008
彩	-12.0081
疲厭	-12.0081
不能了	-12.0081
其理極成	-12.0082
焚燒	-12.0082
末底	-12.0083
如夢所見	-12.0083
摩醯首羅	-12.0083
戒現觀	-12.0083
不相捨離	-12.0084
二別釋分三	-12.0085
升	-12.0085
所以然者	-12.0086
會玄	-12.0087
為欲斷除	-12.0088
是遍計	-12.0088
道場	-12.0089
不能明記	-12.0091
極寂靜	-12.0092
不可轉	-12.0093
引生故	-12.0093
始業	-12.0093
略辨如是	-12.0093
前世	-12.0094
四十四智	-12.0095
光等	-12.0096
不謗	-12.0097
瞋與	-12.0097
遠離二邊	-12.0097
訓釋	-12.0097
現樂	-12.0098
互起	-12.0099
次釋後結	-12.0102
偷	-12.0102
法分三	-12.0104
親附	-12.0105
唯修斷	-12.0105
叚	-12.0106
不別立	-12.0106
而為其	-12.0106
分得	-12.0108
現因	-12.0108
都無所得	-12.0109
唯一剎那	-12.0109
初一頌半	-12.0109
尸羅律儀	-12.011
不住生死	-12.0111
智度	-12.0111
變化土	-12.0111
大論云	-12.0112
弘誓	-12.0112
初顯	-12.0113
開悟	-12.0114
故有別也	-12.0115
四惑相應	-12.0115
依五根	-12.0115
五淨居天	-12.0117
能生現	-12.0118
為二緣	-12.0118
既能	-12.0119
▁1	-12.0122
為欲證得	-12.0122
十八不共法	-12.0123
佛功德	-12.0125
正思量	-12.0125
發身	-12.0125
牒執	-12.0126
破其	-12.0127
勝境	-12.013
一切麁重	-12.0131
不願	-12.0132
月藏	-12.0134
緣他地	-12.0135
生老	-12.0136
種姓相	-12.0136
現行第八識	-12.0137
理性	-12.0138
文同	-12.0138
如次配之	-12.0139
正潤	-12.0139
下文言	-12.014
引他	-12.0142
一子	-12.0143
四無記中	-12.0144
初二位	-12.0145
此不應理	-12.0146
能攝持	-12.0146
修悲	-12.0147
即不爾	-12.0147
靜慮波羅蜜多	-12.0149
從他生	-12.0149
擾惱	-12.0149
金剛般若	-12.0149
強思	-12.0149
結使	-12.015
二十部	-12.015
堅實	-12.0151
即見分	-12.0151
十个	-12.0152
欲界心	-12.0153
諸法無我	-12.0153
初略明	-12.0154
曾見	-12.0156
現神通	-12.0156
畢竟斷	-12.0157
空界色	-12.016
牒釋	-12.0161
聖慧眼	-12.0161
他許	-12.0163
止相	-12.0164
其第六識	-12.0165
生慚愧	-12.0165
得離欲	-12.0167
一切言說	-12.0168
隨樂	-12.0168
闕故	-12.0169
魔怨	-12.0169
之始	-12.0171
晝	-12.0172
離縛斷	-12.0173
有三門	-12.0173
於一剎那	-12.0173
獲大	-12.0174
得不退	-12.0174
舉頌答	-12.0174
無損	-12.0175
心亂	-12.0175
為止	-12.0176
第三因	-12.0177
即說此	-12.0177
不定性人	-12.0178
不熏成種	-12.0179
一箇	-12.0179
淨佛土	-12.018
似境	-12.0184
佛化	-12.0184
還有	-12.0185
第四地中	-12.0185
世親云	-12.0185
寶藏	-12.0185
惡性	-12.0186
樂捨	-12.0187
不執著相	-12.0188
生五淨居	-12.0188
緣外境	-12.0189
義有別	-12.0189
得根本定	-12.0189
種上立	-12.019
方立	-12.019
應觀	-12.0191
光淨	-12.0192
捨相應	-12.0192
從果為名	-12.0194
流至	-12.0194
轉依位	-12.0195
等三句	-12.0196
不收	-12.0196
滿善	-12.0201
煩惱障中	-12.0203
變時	-12.0203
名為雜	-12.0204
方捨	-12.0205
如幻等	-12.0205
行忍	-12.0206
下分	-12.0206
之所依處	-12.0207
種種性	-12.0209
說彼為	-12.0209
名之差別	-12.0212
已顯	-12.0212
而食	-12.0213
癡為體	-12.0214
准瑜伽	-12.0216
皆不得	-12.0217
後重	-12.0218
未顯	-12.0218
何不名	-12.0219
覆護	-12.0219
五十三云	-12.022
造修	-12.022
無痴	-12.0222
文分為二一辯	-12.0223
之分	-12.0224
意成	-12.0224
未來世中	-12.0225
而興	-12.0225
問何名	-12.0226
於境界	-12.0227
出定時	-12.0228
異喻	-12.0228
正知住	-12.0228
淨法界	-12.0229
種子隨逐	-12.0234
為不定過	-12.0234
緣依處	-12.0235
不舉	-12.0235
義如上	-12.0235
妄謂	-12.0237
化有情	-12.0238
許緣	-12.0239
八識心王	-12.0241
婆沙論	-12.0242
不推度	-12.0245
大般若經	-12.0246
言說名	-12.0246
文別	-12.0246
無間而生	-12.0247
勝前	-12.0247
數論師	-12.0249
無損害	-12.025
行相門	-12.0252
幻師	-12.0254
故非能熏	-12.0255
之種子	-12.0257
不可說為	-12.0259
無相智	-12.026
取為緣	-12.026
身繫	-12.0261
夢覺	-12.0262
寧非	-12.0264
引後念	-12.0265
所用	-12.0266
入初靜慮	-12.0266
受稱	-12.0266
四受俱	-12.0268
所證法	-12.0268
染依他	-12.027
現纏	-12.0272
沙門若婆羅門	-12.0274
初受生	-12.0274
當生處	-12.0274
諸過	-12.0275
尋伺等	-12.0277
燈明	-12.0278
念根	-12.0278
不妄	-12.028
隨所樂	-12.0281
相應發心	-12.0282
所變之	-12.0283
所得法	-12.0284
十自在	-12.0286
飲酒	-12.0289
於斯	-12.029
善種	-12.029
不開	-12.0293
文復	-12.0294
習所成	-12.0295
內自	-12.0296
若有成就	-12.0296
發潤	-12.0296
為無間緣	-12.0296
柔	-12.0297
愛取有三	-12.0298
賣	-12.0299
此三皆	-12.0299
有十五	-12.03
遍染心故	-12.0302
初引經	-12.0302
十二緣起	-12.0302
在佛	-12.0303
無染著	-12.0303
彼諸有情	-12.0303
得離繫果	-12.0304
論釋成	-12.0306
屍	-12.0306
謂異熟識	-12.0306
巨	-12.0307
略有四	-12.0308
奴婢	-12.031
梁攝論	-12.031
溺	-12.031
而死	-12.031
悞	-12.0311
氏	-12.0311
何得言	-12.0311
尾	-12.0311
現觀智諦現觀	-12.0311
覩史多天	-12.0311
五位百法	-12.0311
性境不隨心	-12.0312
前滅後生	-12.0313
聲上屈曲	-12.0313
如師子	-12.0313
吒	-12.0313
令法久住	-12.0313
父母妻子	-12.0313
剎利	-12.0314
矯詐	-12.0315
共相收攝	-12.0315
靜息	-12.0316
存活	-12.0316
不親緣離自	-12.0316
闇鈍	-12.0316
皷	-12.0316
殺盜	-12.0317
纏及隨眠	-12.0317
染污意識	-12.0317
憚	-12.0318
有五事	-12.0318
次辨其相	-12.0318
赴	-12.0318
外種子	-12.0318
此翻名	-12.0318
蓮花	-12.0318
脇	-12.0319
相違法	-12.0319
崇重	-12.0319
不相雜亂	-12.0319
同前釋	-12.0319
欺誑	-12.0319
遍在	-12.0319
二禪已上	-12.0319
由斯理趣	-12.032
顯實	-12.032
觸緣受	-12.032
能緣識	-12.0321
唯有為	-12.0321
尊卑	-12.0321
遞	-12.0321
分為六	-12.0321
疑心	-12.0321
搆畫	-12.0321
生類	-12.0321
不如正理	-12.0322
奢	-12.0322
隨緣何境	-12.0322
更增	-12.0322
和合似一	-12.0323
實不可得	-12.0323
論主釋	-12.0323
不執為外	-12.0323
故不為例	-12.0323
亦非是	-12.0323
肉團	-12.0324
謂能引發	-12.0324
相見道中	-12.0324
煗頂	-12.0324
何故此滅復名	-12.0324
觀照	-12.0325
福德智慧	-12.0326
少別	-12.0326
彼作是思	-12.0326
相似相對法	-12.0326
他勝處法	-12.0327
能超	-12.0327
瑜伽第九	-12.0328
院	-12.0328
總報主	-12.033
觀緣起	-12.033
一切法皆無自性	-12.0331
有識身	-12.0331
常能	-12.0332
皆准此知	-12.0333
以此為依	-12.0334
練磨心	-12.0335
貪瞋痴	-12.0336
無諸	-12.0337
唯假	-12.0337
有情眾	-12.0338
實通	-12.0338
離欲得	-12.0339
初地初心	-12.0339
非遮	-12.0339
都盡	-12.0339
薄伽梵說	-12.034
異處	-12.034
又難	-12.0341
獨有	-12.0342
無我執	-12.0343
差別而轉	-12.0343
既在	-12.0344
譬如虛空	-12.0344
無色繫	-12.0344
生緣老死	-12.0344
智清淨	-12.0345
及涅槃	-12.0345
便能證得	-12.0346
甚深廣大	-12.0347
而不說	-12.0347
雖滅	-12.0348
在家品	-12.0349
名為共相	-12.0349
清淨行	-12.0349
今此頌中	-12.035
相應不相應	-12.035
亦無過	-12.0351
從定起	-12.0352
根本真實	-12.0353
卑下	-12.0353
短命	-12.0353
入法空	-12.0353
緣起正理	-12.0356
領受依處	-12.0356
緣餘境	-12.0357
緣真俗	-12.0358
妄起	-12.0358
依此義	-12.0359
以頌	-12.0359
所染污	-12.0361
欲入	-12.0361
新業	-12.0361
此之三	-12.0362
但令	-12.0362
四緣生	-12.0362
染淨因果	-12.0362
諸煩惱纏	-12.0362
是假法	-12.0365
化益	-12.0365
此句明	-12.0368
觸所生受	-12.037
漏盡力	-12.0371
色為我	-12.0371
慧力	-12.0372
一切凡夫	-12.0372
障礙依處	-12.0372
利樂他	-12.0373
愛我故	-12.0375
第七第八	-12.0376
一真法界	-12.0376
所成之	-12.0376
無餘依地	-12.0378
如牛	-12.0378
極微細故	-12.0378
無相定	-12.0379
邪師	-12.0379
福業事	-12.0379
地體	-12.0379
後二是	-12.0381
一切諸行	-12.0387
得作佛	-12.0389
語化	-12.039
為助	-12.039
由尋伺	-12.039
有二復次	-12.039
觀無常	-12.0395
菩薩聲聞	-12.0396
尋伺俱	-12.0396
遍三界	-12.0397
雖俱	-12.0399
薄塵	-12.0399
談論	-12.0401
同毘曇	-12.0401
故雜心云	-12.0401
審慮	-12.0401
之執	-12.0401
捨受俱	-12.0402
復有六種	-12.0402
以為我	-12.0402
恒在	-12.0403
長大	-12.0404
唯願	-12.0405
諸婆羅門	-12.0405
支提	-12.0406
義同前	-12.0406
愛生	-12.041
化用	-12.0412
隨縛	-12.0412
初中分三一	-12.0415
聲名等	-12.0417
不施與	-12.0419
巳入	-12.0421
皆通三性	-12.0421
此六種	-12.0422
善無記法	-12.0424
未來果	-12.0424
所逼	-12.0424
漸減	-12.0425
具德	-12.0427
乃名為	-12.0429
與無明俱	-12.043
餘四蘊	-12.043
經律	-12.0433
卷第六	-12.0435
金剛心時	-12.0436
總相說	-12.0438
貪瞋癡慢	-12.044
極難勝	-12.044
所變現	-12.0442
麁惡	-12.0442
類亦同	-12.0442
樂修	-12.0443
和集相	-12.0443
或曰	-12.0444
故知別有	-12.0444
之見分	-12.0446
敘之	-12.0448
雜彼煩惱	-12.045
一者自性	-12.0452
別總	-12.0452
互為因果	-12.0454
相似義	-12.0455
唯是無覆無記	-12.0458
如來藏中	-12.0458
七慢	-12.0459
事用	-12.0461
不往	-12.0464
與涅槃	-12.0465
如是名為由	-12.0467
上建立	-12.0467
作是思	-12.0467
受所攝	-12.0467
不善業道	-12.0469
欲纏	-12.047
二門分別	-12.0472
時處	-12.0472
受法樂	-12.0473
然約	-12.0473
起定	-12.0473
如下文	-12.0475
非擇滅無為	-12.0477
諸緣起	-12.0478
十色處	-12.0478
宗計	-12.0478
法尒	-12.0479
造善	-12.048
所執我法	-12.048
染汙意	-12.0483
恒行不共	-12.0484
列名分四如論	-12.0484
能防	-12.0484
餘障	-12.0486
傳說	-12.0487
無為功德	-12.0487
能詮表	-12.0489
種性住	-12.049
思所成	-12.0492
四十心	-12.0493
隨緣現	-12.0495
內道	-12.0495
縛所縛	-12.0495
若諸異生	-12.0496
靜慮無色	-12.0499
百一十二	-12.05
多緣	-12.0501
深法	-12.0502
七地中	-12.0502
入唯識觀	-12.0504
增強	-12.0505
演曰第二	-12.0506
乃至命終	-12.0512
於苦諦	-12.0513
先徵後釋	-12.0514
此下第二	-12.0516
墮惡趣	-12.0517
三衣	-12.0517
餘結	-12.0518
聲聞菩薩	-12.0519
惡不善	-12.0519
色界無色界	-12.052
第五第六	-12.052
在外	-12.0523
菩薩智	-12.0524
所斷煩惱	-12.0524
於十地	-12.0524
及疑	-12.0525
識蘊攝	-12.0525
具受	-12.0525
皆無自性	-12.0527
不畢竟	-12.0527
真實相	-12.0528
能詮教	-12.053
謂已得	-12.0531
所生法	-12.0531
警覺	-12.0532
但知	-12.0532
三合成	-12.0532
止舉捨	-12.0533
唯識云	-12.0534
澄	-12.0535
滅受想	-12.0535
宗要	-12.0535
對辨	-12.0536
但起	-12.0538
為對治此	-12.054
通見修	-12.0544
何物	-12.0544
最大	-12.0545
簡前	-12.0546
事不成	-12.0547
被甲	-12.0547
丈	-12.0548
無他	-12.0549
且初	-12.0549
我生已盡	-12.055
相隨順	-12.0551
隨順世間	-12.0551
恭	-12.0551
定判	-12.0552
名下士	-12.0553
膿	-12.0553
欝	-12.0553
勒	-12.0553
獎	-12.0555
初觀	-12.0555
道德	-12.0556
堅猛	-12.0556
厭捨	-12.0556
正語業命	-12.0557
儉	-12.0557
右	-12.0558
貪欲瞋恚	-12.0559
窮生死際	-12.0559
頭數	-12.0559
稍難	-12.0559
妙用	-12.0559
攝法不盡	-12.0559
無爽	-12.056
慈悲喜捨	-12.056
伐	-12.056
當知菩薩	-12.056
身業語業	-12.0561
正道理	-12.0561
假智詮	-12.0561
所作成辨	-12.0562
獨行不共	-12.0562
寢	-12.0563
故次說言	-12.0564
教觀	-12.0564
乱	-12.0564
成壞劫	-12.0564
罪過	-12.0564
喜貪俱行愛	-12.0565
大智論	-12.0566
同分彼同分	-12.0566
演秘	-12.0567
鄔波	-12.0567
愚昧	-12.0567
按瑜伽論	-12.0567
谷響	-12.0568
我愛執藏	-12.0568
親近善友	-12.0568
雙印	-12.0568
此義云何	-12.0568
苦樂二受	-12.0568
羣	-12.057
依多分說	-12.057
未信	-12.057
淨道	-12.057
為所熏	-12.0571
心外無法	-12.0571
菩薩不爾	-12.0571
云何菩薩於	-12.0571
等持等至	-12.0572
釋中有二一	-12.0572
緣三世	-12.0573
者得罪	-12.0573
身語表	-12.0575
所流	-12.0575
根塵識	-12.0576
士用依處	-12.0577
淨種	-12.0577
遲鈍	-12.0577
觸等亦如是	-12.0578
自餘一切	-12.0578
夢見	-12.0579
▁三釋	-12.058
能執心	-12.058
思惟諸法	-12.058
王臣	-12.0582
修觀行者	-12.0582
五無間業	-12.0582
應非是	-12.0583
修福	-12.0584
十八種	-12.0585
古德	-12.0585
如餘處說	-12.0587
無有異	-12.0587
是識性故	-12.0588
譬如有人	-12.0588
難分	-12.0588
勸信	-12.059
無暇	-12.059
聲聞戒	-12.0591
清淨佛土	-12.0591
八行	-12.0591
如有問言	-12.0591
演曰六明	-12.0591
淨行所緣	-12.0593
必假	-12.0593
真如境	-12.0594
攝為自體	-12.0594
智淨	-12.0595
無惱	-12.0595
十迴向	-12.0596
欣求	-12.0597
文分為四一	-12.0598
如是五種	-12.0599
自相分	-12.06
內外空	-12.06
中有身	-12.06
慧為上首	-12.0601
大威德	-12.0601
須陀洹果	-12.0602
不共中共	-12.0602
一切智者	-12.0602
有漏五識	-12.0602
雜染品法	-12.0603
初番	-12.0604
種子所生	-12.0604
勞慮	-12.0605
緣見分	-12.0606
前後相望	-12.0607
生第四禪	-12.061
樂事	-12.061
疏云又	-12.0611
既自	-12.0612
凡愚	-12.0613
十平等	-12.0615
第三果人	-12.0616
名為不動	-12.0617
第四勝義	-12.0617
見道惑	-12.0617
下別解	-12.0618
清白	-12.0618
文復有二	-12.0619
心外實有	-12.0619
亦同此說	-12.062
及彼相應	-12.062
有垢	-12.0623
初中復二先	-12.0623
十無明	-12.0623
四沙門果	-12.0626
妄取	-12.0628
出障	-12.0629
之空	-12.063
縛義	-12.0631
唯是識	-12.0632
雜集論云	-12.0632
有此文	-12.0633
苦樂捨	-12.0633
便捨	-12.0636
修忍	-12.0636
無過也	-12.0637
無漏定願	-12.064
成上	-12.064
為有為無	-12.0641
思度	-12.0643
方成種子	-12.0644
頓捨	-12.0645
以有因	-12.0645
極微和合	-12.0645
即前念	-12.0645
變成	-12.0646
必不俱	-12.0646
名為勝義	-12.0648
入聖道	-12.0648
從自種生	-12.0651
由信	-12.0651
於爾時	-12.0652
十依	-12.0652
說一切有部	-12.0652
正入	-12.0653
然對法	-12.0653
真如觀	-12.0654
四對	-12.0654
識中種子	-12.0655
兩番	-12.0657
亦能斷	-12.0658
餘處說	-12.0658
諸天人	-12.0658
猶未盡	-12.066
卷第七	-12.066
兼破	-12.0663
見道所斷煩惱	-12.0665
不取餘	-12.0665
影略說	-12.0667
測師	-12.0668
能生長	-12.0669
若所知障	-12.067
爾所時	-12.067
一向無漏	-12.0671
處善巧	-12.0671
無數劫	-12.0673
佛體	-12.0673
伏難云	-12.0674
五受俱	-12.0675
成就性	-12.0678
雜集云	-12.068
六十劫	-12.0684
變似我法	-12.0685
於夢中	-12.0685
變壞故	-12.0686
墮地獄	-12.0687
形別	-12.0687
就他宗	-12.0688
不可說言	-12.0688
為境故	-12.0688
意樂清淨	-12.0689
靜住	-12.0689
猶若	-12.069
智行	-12.0692
那含果	-12.0692
初一句	-12.0693
俱舍論云	-12.0693
於所應	-12.0694
道路	-12.0696
從彼生	-12.0698
無性人	-12.0701
七物	-12.0701
一切皆空	-12.0702
頓變	-12.0702
小果	-12.0705
以第七識	-12.0705
亦能生	-12.0709
悔惱	-12.0712
宿住通	-12.0714
明得定	-12.0715
入正性離生	-12.0717
自高	-12.0717
離聲	-12.0718
是故應知	-12.0722
親取	-12.0722
善心等	-12.0723
無怨	-12.0723
亦屬	-12.0724
禪戒	-12.0726
十二心	-12.0729
而為所緣	-12.0729
大莊嚴論	-12.0729
長養色	-12.073
釋頌文	-12.073
對法第九	-12.0732
一切波羅蜜多	-12.0733
能成熟	-12.0733
罪福	-12.0734
大乘阿毘達磨	-12.0735
佛果上	-12.0736
名色為緣	-12.0736
不得擇滅	-12.0736
互相生	-12.0739
餘界	-12.074
五神通	-12.0741
第三定	-12.0745
不任	-12.0746
有何義	-12.0747
界性	-12.0747
上所說義	-12.0748
見縛	-12.075
不正見	-12.0751
上加	-12.0751
不能作	-12.0751
雜藏	-12.0751
有為空	-12.0755
無不定過	-12.0756
復次釋	-12.0756
能取相	-12.0756
種所生	-12.0757
正懃	-12.0757
訛	-12.0759
[...]
