<unk>	0
<s>	0
</s>	0
。	-2.30681
,	-3.18567
、	-4.60865
者	-4.72461
▁	-4.82418
故	-4.87509
也	-4.9639
*	-5.17017
為	-5.40757
以	-5.41381
(	-5.44781
)	-5.47465
是	-5.52107
之	-5.52772
;	-5.55034
二	-5.55709
佛	-5.60922
有	-5.62065
於	-5.70801
如	-5.72961
即	-5.7411
無	-5.74492
而	-5.77383
此	-5.77861
若	-5.79555
法	-5.8106
不	-5.84426
中	-5.84662
!	-5.86518
心	-5.89644
名	-5.94356
一	-5.95226
:「	-5.96476
等	-5.97181
行	-5.98059
生	-6.00497
謂	-6.01708
相	-6.02695
三	-6.07184
菩薩	-6.08207
說	-6.11888
言	-6.1278
非	-6.12953
見	-6.13508
得	-6.15252
?	-6.16786
則	-6.17221
如是	-6.2016
彼	-6.24702
及	-6.28412
其	-6.28585
人	-6.28826
一切	-6.32521
如來	-6.33127
時	-6.34427
身	-6.35607
。」	-6.36493
明	-6.37341
下	-6.45977
。】「	-6.462
經	-6.47332
眾生	-6.48318
我	-6.50608
義	-6.50695
因	-6.53077
四	-6.53128
皆	-6.53813
大	-6.56868
。「	-6.57674
▁南无	-6.58138
云	-6.58937
觀	-6.60194
亦	-6.61585
諸	-6.61859
至	-6.6263
世尊	-6.64384
自	-6.64581
智	-6.65096
從	-6.66612
已	-6.67833
又	-6.67842
意	-6.67926
。」【	-6.68958
所	-6.71044
起	-6.71059
常	-6.72676
處	-6.73166
作	-6.74004
與	-6.74052
初	-6.75994
問	-6.78448
上	-6.78462
今	-6.7916
入	-6.79382
空	-6.79719
知	-6.80265
或	-6.82315
事	-6.83606
成	-6.84035
道	-6.85329
後	-6.85374
􂏥	-6.86569
善	-6.88864
離	-6.89034
在	-6.90536
能	-6.9068
住	-6.9119
欲	-6.92595
依	-6.94117
受	-6.9426
大慧	-6.94632
出	-6.94785
云何	-6.94861
即是	-6.94993
前	-6.9514
當	-6.95303
五	-6.95701
分別	-6.96258
修	-6.96916
性	-6.97887
多	-6.98341
令	-6.99197
然	-6.99263
本	-7.00186
曰	-7.00519
滅	-7.01332
天	-7.02623
眾	-7.03463
樂	-7.0349
由	-7.05365
通	-7.0582
清淨	-7.06364
應	-7.06798
王	-7.07332
既	-7.08058
淨	-7.10132
色	-7.12647
識	-7.13025
果	-7.13106
緣	-7.13415
教	-7.13577
同	-7.13995
但	-7.1402
爾時	-7.14749
名為	-7.15145
雖	-7.15268
解	-7.15339
釋	-7.15385
耶	-7.15961
用	-7.16379
現	-7.17238
地	-7.19649
覺	-7.1987
念	-7.2136
?」	-7.22186
無量	-7.22362
定	-7.22565
疏	-7.2261
答	-7.22618
勝	-7.23489
涅槃	-7.2377
方便	-7.24414
是故	-7.25043
復	-7.25188
善男子	-7.25569
無有	-7.25803
種種	-7.26612
次	-7.26659
聞	-7.26669
體	-7.26856
乃至	-7.28651
盡	-7.28664
諸法	-7.29105
正	-7.29169
隨	-7.29233
功德	-7.2934
斷	-7.29632
巳	-7.29695
具	-7.30091
顯	-7.30255
唯	-7.30494
】	-7.31018
取	-7.32667
故云	-7.33356
苦	-7.33531
世間	-7.34114
難	-7.34135
想	-7.34164
:『	-7.3423
破	-7.35039
乃	-7.35805
業	-7.36191
來	-7.36945
證	-7.36957
論	-7.37762
可	-7.38353
理	-7.38441
別	-7.38658
耳	-7.38729
文	-7.39033
解脫	-7.39283
菩	-7.39525
過	-7.39982
因緣	-7.40539
求	-7.40737
分	-7.41394
實	-7.42494
喻	-7.43063
便	-7.44389
願	-7.44887
門	-7.45002
六	-7.4654
生死	-7.4669
慧	-7.46736
捨	-7.46988
異	-7.47411
煩惱	-7.487
是名	-7.49479
先	-7.49863
對	-7.49953
不能	-7.50289
俱	-7.50313
境	-7.50338
南無	-7.50492
轉	-7.50681
惡	-7.52654
無明	-7.52807
合	-7.53281
語	-7.53454
汝	-7.53595
七	-7.53729
力	-7.54081
持	-7.54144
德	-7.5452
聲	-7.54734
妄想	-7.55789
所謂	-7.55862
真	-7.559
施	-7.56139
佛南無	-7.56395
境界	-7.57195
約	-7.57216
水	-7.57323
食	-7.57469
攝	-7.5795
具足	-7.58024
悉	-7.58542
:	-7.58617
除	-7.59012
供養	-7.59617
智慧	-7.59701
戒	-7.60063
諸佛	-7.60112
法身	-7.60376
化	-7.61086
餘	-7.61266
外	-7.6134
愛	-7.61345
立	-7.61425
示	-7.61488
成就	-7.62097
寶	-7.63553
矣	-7.6357
數	-7.651
信	-7.65285
去	-7.66973
不生	-7.67381
內	-7.68305
不得	-7.68761
八	-7.68909
記	-7.69012
十	-7.69095
妙	-7.69272
報	-7.69824
何	-7.6986
光	-7.70001
平等	-7.7018
所以	-7.70228
廣	-7.70261
修行	-7.7122
句	-7.71544
華	-7.72134
佛言	-7.73369
發	-7.7343
他	-7.73601
小	-7.74205
方	-7.75082
光明	-7.75152
聲聞	-7.75452
子	-7.75615
世	-7.75838
菩提	-7.75892
未	-7.76062
大乘	-7.77016
著	-7.78018
病	-7.78931
不可	-7.79101
外道	-7.79283
根	-7.7955
火	-7.79796
世界	-7.80521
無常	-7.81177
圓	-7.81195
深	-7.81327
不知	-7.81371
乎	-7.8138
三昧	-7.81489
比丘	-7.82356
字	-7.83565
度	-7.83769
說法	-7.83774
二乘	-7.84274
復次	-7.85347
譬如	-7.85636
執	-7.85734
師	-7.85741
共	-7.86225
各	-7.86415
重	-7.86709
指	-7.86768
照	-7.8731
莊嚴	-7.87856
種	-7.87886
自在	-7.88279
法性	-7.88595
等者	-7.88759
結	-7.8895
。』	-7.89641
第一	-7.89829
宗	-7.9005
會	-7.9022
二者	-7.90424
物	-7.90494
稱	-7.90645
命	-7.91264
一切法	-7.91775
不見	-7.92076
利	-7.92112
聖	-7.92687
還	-7.93413
亦不	-7.93643
一切眾生	-7.9372
自性	-7.94106
止	-7.94375
藏	-7.94482
極	-7.94612
邪	-7.94689
不同	-7.95026
精進	-7.95249
開	-7.9531
一者	-7.95417
順	-7.95514
眼	-7.95666
此經	-7.95731
日	-7.95732
必	-7.95996
。【	-7.97704
故名	-7.97768
位	-7.98501
第二	-7.99137
皆是	-7.99264
凡夫	-7.99707
妄	-7.9998
死	-8.00007
障	-8.00141
使	-8.01004
山	-8.01039
亦無	-8.01336
須	-8.01358
失	-8.01799
何以故	-8.02167
香	-8.03039
菩薩摩訶薩	-8.03159
無生	-8.03325
總	-8.03826
將	-8.03827
計	-8.0418
法界	-8.04205
)。】「	-8.04508
究竟	-8.04583
滿	-8.04986
就	-8.05591
辨	-8.05626
舉	-8.05793
向	-8.06214
學	-8.06316
集	-8.06368
之法	-8.06497
真如	-8.07693
安	-8.07766
神	-8.07767
國	-8.0789
品	-8.08083
斯	-8.08429
普	-8.08833
界	-8.09315
悟	-8.09618
一一	-8.0968
引	-8.09804
少	-8.09936
好	-8.0997
金	-8.10225
罪	-8.10311
差別	-8.1051
真實	-8.10729
壞	-8.10841
遠離	-8.1112
疑	-8.11167
更	-8.12193
月	-8.1242
迷	-8.12598
第三	-8.12601
舍利弗	-8.1275
思惟	-8.13236
坐	-8.13634
形	-8.14005
。」【(	-8.14649
無相	-8.14668
動	-8.1478
而不	-8.14841
猶	-8.14854
以為	-8.15238
風	-8.15389
了	-8.15411
若有	-8.15884
請	-8.16194
趣	-8.16291
所以者何	-8.16619
無所	-8.16763
長	-8.16777
歸	-8.1731
之所	-8.17392
三界	-8.17438
故曰	-8.17528
主	-8.17541
惑	-8.17666
兩	-8.17697
所說	-8.17822
生滅	-8.17966
略	-8.17979
福	-8.18056
於此	-8.18412
海	-8.18622
▁初	-8.18925
阿難	-8.19104
所有	-8.19436
復有	-8.19507
屬	-8.20298
益	-8.20303
猶如	-8.20446
習	-8.20666
寂	-8.20765
音	-8.20973
九	-8.21186
女	-8.21259
土	-8.21299
法門	-8.21311
乘	-8.21464
墮	-8.21652
是為	-8.2174
要	-8.21995
次第	-8.22087
般若	-8.22229
文殊師利	-8.22298
四大	-8.22503
慈	-8.22965
樹	-8.23199
禪	-8.23345
蓋	-8.23435
表	-8.23925
。○	-8.2408
幻	-8.243
口	-8.24705
遠	-8.25037
魔	-8.25038
目	-8.25163
忍	-8.25344
諸天	-8.25763
此是	-8.25902
輪	-8.25978
遍	-8.26053
尊者	-8.26142
類	-8.26467
家	-8.26661
造	-8.27069
當知	-8.27395
自然	-8.27421
相應	-8.27649
凡	-8.27843
思	-8.28204
讚	-8.28219
亦復如是	-8.28558
因果	-8.28598
天子	-8.28892
尊	-8.29063
實相	-8.29322
且	-8.29358
言說	-8.29495
夫	-8.29824
寂滅	-8.2986
出家	-8.29885
觀察	-8.29899
護	-8.30231
往	-8.30404
贊曰	-8.3081
正法	-8.30978
如此	-8.31147
三種	-8.3115
劫	-8.31279
彌勒	-8.31445
歡喜	-8.31508
似	-8.31627
喜	-8.3163
歎	-8.31637
豈	-8.31972
高	-8.32074
三者	-8.32102
寂靜	-8.32122
。△	-8.32216
不可思議	-8.32335
僧	-8.32618
流	-8.32889
相續	-8.33293
不思議	-8.33538
經云	-8.33676
譬	-8.33981
無為	-8.3404
▁二	-8.3406
無我	-8.3433
塵	-8.34443
淨名	-8.34498
一心	-8.34971
無礙	-8.35458
建立	-8.35549
故言	-8.35618
竟	-8.36113
假	-8.36128
達	-8.36509
龍	-8.36556
頭	-8.3678
縛	-8.38216
虛空	-8.3866
直	-8.38725
恒	-8.39117
到	-8.39463
貪	-8.3956
足	-8.39664
十方	-8.40004
二種	-8.40377
親	-8.40552
所作	-8.41136
羅	-8.41409
過去	-8.41837
我今	-8.41952
之人	-8.42008
圓覺	-8.42087
佛說	-8.42282
吾	-8.42429
答曰	-8.42463
近	-8.42648
增長	-8.42722
有情	-8.43217
有無	-8.4381
息	-8.43859
白	-8.43912
和合	-8.43961
兼	-8.4397
小乘	-8.4413
味	-8.44143
疾	-8.44223
之相	-8.4426
始	-8.44398
決定	-8.44935
不應	-8.44952
父母	-8.45019
觸	-8.45144
情	-8.45386
.	-8.45492
如來南無	-8.45615
無邊	-8.45662
名曰	-8.45675
居	-8.45698
反	-8.46185
號	-8.46293
百	-8.46573
染	-8.4663
何故	-8.46712
勸	-8.47283
花	-8.47343
五陰	-8.48363
況	-8.48414
莫	-8.48767
本無	-8.48865
第四	-8.49155
之中	-8.4921
設	-8.49317
此云	-8.49407
肇曰	-8.4953
不動	-8.49865
爾	-8.503
終	-8.50731
陰	-8.50805
之義	-8.50888
金剛	-8.50957
於彼	-8.51059
地獄	-8.51108
圓滿	-8.51109
獲	-8.51304
隨順	-8.51456
〕」【	-8.51581
修習	-8.51636
一切諸法	-8.52041
皆悉	-8.52345
像	-8.52727
不淨	-8.54051
之心	-8.54058
唐云	-8.54118
佛法	-8.54204
文句	-8.54236
俗	-8.54285
致	-8.54321
脫	-8.54498
增	-8.54537
現在	-8.547
機	-8.54722
絕	-8.55093
不離	-8.55944
文殊	-8.5614
于	-8.56173
聚	-8.56315
諦	-8.56406
並	-8.56475
治	-8.56501
量	-8.56542
禮	-8.56771
而生	-8.569
無上	-8.56994
弟子	-8.57282
散	-8.57567
母	-8.57842
四者	-8.57919
。」【【	-8.58143
漸	-8.582
緣起	-8.58237
發心	-8.58734
利益	-8.59169
於是	-8.59231
癡	-8.59567
。】「〔	-8.60214
未來	-8.60282
神通	-8.60364
頓	-8.60976
那	-8.61035
不為	-8.6158
不起	-8.61795
真諦	-8.61928
邪見	-8.62047
全	-8.6224
標	-8.62339
殺	-8.62474
興	-8.62936
三乘	-8.62946
大悲	-8.63032
變	-8.63041
身心	-8.63275
是人	-8.6334
》	-8.63375
持戒	-8.63515
其心	-8.6391
財	-8.63945
可知	-8.64138
進	-8.64326
布施	-8.6435
權	-8.64352
獨	-8.64379
諸菩薩	-8.64436
悲	-8.64583
亦非	-8.64656
虗空	-8.647
林	-8.64853
而為	-8.64946
此中	-8.65184
迦葉	-8.65195
加	-8.65431
成佛	-8.65474
衣	-8.65608
如幻	-8.65687
雲	-8.65698
被	-8.65913
故知	-8.65953
我等	-8.66315
昔	-8.66419
遂	-8.66551
最勝	-8.66727
存	-8.67014
志	-8.67437
四句	-8.67492
顛倒	-8.67512
超	-8.67654
若人	-8.67689
沙門	-8.67961
有二	-8.67991
而有	-8.6833
千	-8.68789
不可得	-8.68873
智者	-8.68981
無漏	-8.69044
答言	-8.69084
不住	-8.69134
不覺	-8.69216
手	-8.69431
何者	-8.69439
首	-8.69513
脩	-8.6954
以此	-8.69745
告	-8.70216
摩	-8.7078
國土	-8.70825
無性	-8.7097
王佛	-8.71006
恐	-8.7101
伏	-8.71053
於中	-8.71302
中道	-8.71443
善根	-8.7164
注	-8.71655
亦如是	-8.71826
亦名	-8.7213
聽	-8.72482
四種	-8.72487
惟	-8.72487
又云	-8.72763
邊	-8.72803
藥	-8.72886
遣	-8.73056
亦是	-8.73176
何謂	-8.7343
所見	-8.73499
行者	-8.73637
垢	-8.73695
辯	-8.73782
一時	-8.73787
尚	-8.73857
果報	-8.74609
甚	-8.75152
「	-8.75227
——	-8.75227
誰	-8.75319
不二	-8.75324
是則	-8.75523
三世	-8.75796
雜	-8.7594
遮	-8.76025
釋曰	-8.76083
放逸	-8.76152
哉	-8.76313
城	-8.76501
末	-8.76589
計著	-8.7674
述	-8.76972
有三	-8.77113
示現	-8.77133
淨土	-8.77213
雙	-8.77334
敬	-8.77412
種子	-8.77678
梵天	-8.77707
章	-8.77786
齊	-8.78106
鬼	-8.78165
童子	-8.7831
亦爾	-8.78318
內外	-8.78403
自心	-8.78907
久	-8.78928
密	-8.79504
并	-8.79549
十二	-8.79713
懺悔	-8.79901
夢	-8.80076
奉	-8.80188
波	-8.80207
所行	-8.80234
經文	-8.80315
和	-8.80547
名字	-8.80571
珠	-8.80656
根本	-8.81218
華嚴	-8.81229
善哉	-8.81475
眷屬	-8.81559
安住	-8.81632
註	-8.81733
飲食	-8.81944
婆羅門	-8.82045
則無	-8.82108
易	-8.82201
不斷	-8.82252
呵	-8.82565
翻	-8.82673
器	-8.82907
禪定	-8.83582
頌	-8.83591
尋	-8.83609
云云	-8.83705
年	-8.83708
無盡	-8.83894
三寶	-8.84178
冥	-8.84324
愚癡	-8.8435
靜	-8.84635
傳	-8.84639
〕	-8.84737
遊	-8.8477
大眾	-8.84774
燒	-8.84874
彰	-8.8504
了知	-8.85052
雨	-8.8539
阿	-8.85456
堅	-8.85509
面	-8.85949
音聲	-8.86066
細	-8.86079
攝受	-8.8614
有為	-8.8635
不異	-8.86381
象	-8.86424
所生	-8.86815
堅固	-8.86897
調伏	-8.86926
覆	-8.86946
却	-8.87182
蓮華	-8.87272
是時	-8.8772
光佛	-8.87987
懷	-8.88065
白佛言	-8.88081
宜	-8.88127
序	-8.88306
偈	-8.88306
佛告	-8.88509
偏	-8.88624
若不	-8.8889
汝等	-8.8913
安樂	-8.89269
愚	-8.89274
婆	-8.89312
甚深	-8.89657
微妙	-8.89932
毒	-8.89962
無所有	-8.90007
壽	-8.90128
退	-8.9077
不壞	-8.90813
所依	-8.90869
如來藏	-8.90981
長者	-8.91154
違	-8.91205
畏	-8.91383
非有	-8.91551
悉皆	-8.9197
簡	-8.91984
徧	-8.92066
然後	-8.92174
福德	-8.92245
而起	-8.92327
者即	-8.92367
迦	-8.92368
百千	-8.92387
執著	-8.92459
影	-8.92462
法華	-8.92478
嚴	-8.92483
」	-8.92556
例	-8.9258
安隱	-8.92595
燈	-8.92948
畢竟	-8.92951
氣	-8.93201
又復	-8.93303
永	-8.93312
一念	-8.93363
佛告大慧	-8.93624
▁南無	-8.93828
速	-8.93956
聖人	-8.93969
害	-8.94095
梵	-8.9419
舍	-8.94286
遇	-8.943
據	-8.94332
對治	-8.94333
鳥	-8.94355
切	-8.94417
父	-8.94644
印	-8.94735
望	-8.94759
餓鬼	-8.94945
又問	-8.95134
能生	-8.9524
列	-8.9526
不生不滅	-8.95736
肉	-8.95761
最	-8.95852
感	-8.96068
棄	-8.96213
所得	-8.96239
比	-8.96254
路	-8.96504
謂之	-8.96509
陀	-8.96789
常住	-8.96917
忘	-8.97009
善法	-8.97023
制	-8.97155
天女	-8.9718
此即	-8.97302
不著	-8.97312
通達	-8.97373
沒	-8.97481
含	-8.97603
第五	-8.9763
微	-8.97786
備	-8.97799
受持	-8.98089
之時	-8.98592
視	-8.98663
若能	-8.98732
橫	-8.99211
愚夫	-8.99422
亦有	-8.99475
熱	-8.99682
《	-8.99683
見佛	-8.99685
無畏	-9.00142
宮	-9.00153
間	-9.00176
不善	-9.00314
都	-9.00394
不捨	-9.00478
可得	-9.00496
人天	-9.0054
種性	-9.00582
現前	-9.00651
無數	-9.00726
壽命	-9.00751
不滅	-9.00754
座	-9.00833
三觀	-9.00963
如何	-9.01049
萬	-9.01051
非是	-9.01185
如實	-9.0128
之處	-9.01316
及以	-9.01634
廣大	-9.01705
?』	-9.0172
積	-9.0194
及諸	-9.01941
出世	-9.01953
畜生	-9.02104
大士	-9.02287
如是等	-9.02382
大小	-9.02389
亡	-9.02439
放	-9.02444
師子	-9.02447
助	-9.02805
文字	-9.02816
無不	-9.0298
不定	-9.03006
三身	-9.0312
亦然	-9.03392
沙	-9.03403
由此	-9.03449
半	-9.03498
於諸	-9.03663
推	-9.03896
諸根	-9.03942
習氣	-9.04009
慈悲	-9.04016
或有	-9.04034
救	-9.04043
懺	-9.04088
瞋	-9.04123
恭敬	-9.04295
頂	-9.04334
節	-9.04436
三藏	-9.04454
之事	-9.0447
無異	-9.04499
勿	-9.04547
中有	-9.04665
無間	-9.04799
不受	-9.04967
迹	-9.05072
支	-9.05253
名之為	-9.05263
骨	-9.05537
滿足	-9.05806
五者	-9.05889
圓教	-9.05935
相似	-9.0597
維摩	-9.05976
而得	-9.0614
道場	-9.06296
平	-9.06301
輕	-9.06343
消	-9.06352
老	-9.06512
部	-9.06536
礙	-9.06665
意識	-9.06785
輪迴	-9.06822
惱	-9.06849
己	-9.07001
其身	-9.07035
慢	-9.07114
此二	-9.07153
憂	-9.07379
故名為	-9.0758
虛妄	-9.07727
不了	-9.07783
無垢	-9.07844
一切智	-9.08048
木	-9.08169
不以	-9.08175
而無	-9.08417
不說	-9.08682
十地	-9.088
亂	-9.0888
蟲	-9.08922
佛土	-9.08979
不取	-9.09199
敘	-9.09288
最上	-9.09337
守	-9.09436
離於	-9.09469
▁後	-9.09873
五百	-9.09892
三德	-9.09969
惡業	-9.10137
若無	-9.10206
宿	-9.10269
待	-9.10279
窮	-9.10281
雖有	-9.10378
詣	-9.10508
釋迦	-9.10651
賢	-9.10798
此法	-9.10811
善惡	-9.10866
但是	-9.10883
行相	-9.1102
。〔	-9.1106
剎那	-9.11221
無分別	-9.11241
終不	-9.11306
▁南无寶	-9.11425
藏識	-9.11725
下明	-9.11828
帝釋	-9.11834
之行	-9.11909
恩	-9.1193
應知	-9.12073
天王	-9.12115
置	-9.12143
悔	-9.12193
日月	-9.12267
濟	-9.12279
提	-9.12384
牛	-9.12796
法中	-9.12799
帝	-9.12957
怨	-9.12988
有所	-9.12989
不退	-9.13129
初明	-9.13129
威德	-9.13219
訶	-9.13653
佛性	-9.1386
顯示	-9.13865
爾時世尊	-9.13873
四諦	-9.13949
威儀	-9.14046
各有	-9.14048
犯	-9.14182
若以	-9.14212
應當	-9.14454
強	-9.14463
逆	-9.14492
何況	-9.14541
前後	-9.14565
二明	-9.14576
假名	-9.14594
身子	-9.14616
十六	-9.14796
劣	-9.14813
不出	-9.1486
隱	-9.14897
復次大慧	-9.15071
各各	-9.15128
大海	-9.15136
患	-9.15146
展轉	-9.15153
無作	-9.1546
覩	-9.15462
河	-9.1547
有四	-9.15513
苦惱	-9.15738
皆有	-9.15765
法相	-9.15794
陀羅尼	-9.15853
何等	-9.15965
決	-9.16069
離諸	-9.16094
第一義	-9.16196
倒	-9.1642
女人	-9.16455
破壞	-9.16501
夜	-9.16676
元	-9.16727
菩薩南無	-9.16753
。』「	-9.16831
亦如	-9.16987
舊	-9.17032
所證	-9.17159
今此	-9.17176
善知	-9.17212
而說	-9.17302
度無極	-9.17326
龍王	-9.17499
授	-9.17535
遊戲	-9.17551
盛	-9.17558
一句	-9.17618
第六	-9.17725
許	-9.17728
故有	-9.17749
論云	-9.17771
周	-9.17792
能知	-9.17825
。」「	-9.18206
流轉	-9.1827
咸	-9.18295
捨離	-9.18321
殊	-9.1851
八識	-9.18522
馬	-9.18534
第八	-9.1881
讚歎	-9.18816
貪欲	-9.19018
之理	-9.19024
則有	-9.19036
之言	-9.19111
法者	-9.19244
一法	-9.19696
辭	-9.1975
科	-9.19802
諸行	-9.1984
故說	-9.2
供	-9.20107
則為	-9.205
三諦	-9.20543
如前	-9.2056
變化	-9.20723
乃是	-9.20745
所言	-9.20793
瞋恚	-9.20886
相者	-9.20968
闇	-9.20976
緣覺	-9.20981
!」	-9.20998
蘊	-9.21416
一乘	-9.21434
總持	-9.21724
厭	-9.21727
穢	-9.21738
能所	-9.21941
譯	-9.22156
演說	-9.22195
別教	-9.22248
虗	-9.22259
為說	-9.2226
自他	-9.22272
虗妄	-9.22554
一切諸	-9.22686
記曰	-9.2269
焉	-9.23113
能令	-9.2339
善女人	-9.23405
不實	-9.23458
唯識	-9.23673
判	-9.2378
者謂	-9.23794
目連	-9.23913
第七	-9.2398
得道	-9.24084
王佛南無	-9.24189
觀心	-9.24534
精	-9.24647
十一	-9.24681
鉢	-9.24754
善業	-9.24761
此則	-9.24933
何所	-9.25023
縱	-9.25032
諸眾生	-9.25296
六度	-9.25342
鬼神	-9.25352
不作	-9.2542
二諦	-9.25487
亦云	-9.25585
功	-9.26012
七寶	-9.26096
無二	-9.26283
相故	-9.26528
收	-9.26569
東方	-9.26703
瓔珞	-9.26725
中間	-9.26833
所知	-9.269
只	-9.27034
古	-9.27059
忍辱	-9.27118
底	-9.27152
其義	-9.2719
住於	-9.27273
梵王	-9.27314
互	-9.27384
自相	-9.27468
生於	-9.27561
宣說	-9.27586
是以	-9.27695
寧	-9.27781
須菩提	-9.27822
唯有	-9.27916
尼	-9.27924
留	-9.2794
我見	-9.28118
此明	-9.2813
法師	-9.28201
在於	-9.28287
舌	-9.28363
皆得	-9.28628
降	-9.28645
毀	-9.28853
痛	-9.28855
為二	-9.29169
不信	-9.29267
多聞	-9.29274
▁南无大	-9.29289
義也	-9.29587
美	-9.29721
金光明	-9.29739
殊勝	-9.2979
▁三	-9.29809
調	-9.30014
佛道	-9.30428
得名	-9.30428
為因	-9.30519
飯	-9.30684
怖畏	-9.30897
親近	-9.30939
室	-9.30939
故也	-9.31005
自身	-9.3106
四教	-9.31114
然此	-9.31204
正見	-9.31258
無因	-9.31535
天人	-9.31538
舍利	-9.31632
新	-9.31927
所攝	-9.32087
廣說	-9.32115
權實	-9.32287
通教	-9.3233
斥	-9.32371
剎	-9.32456
不復	-9.32541
其人	-9.32816
發菩提心	-9.32869
所成	-9.32957
觀行	-9.33003
契	-9.33171
曾	-9.33317
令其	-9.33357
十八	-9.33361
草	-9.33399
網	-9.33442
法故	-9.33472
其所	-9.33484
如如	-9.33803
泥	-9.33869
有二種	-9.33953
車	-9.34062
詮	-9.34197
不成	-9.34199
資	-9.34206
皆由	-9.34328
怖	-9.34461
何得	-9.34507
波羅蜜	-9.34509
覺性	-9.34661
神力	-9.347
勝佛南無	-9.34701
書	-9.34705
卷	-9.34765
熟	-9.34869
焰	-9.34876
不可說	-9.3488
蓮花	-9.35198
受用	-9.35266
容	-9.35297
亦復	-9.35303
鐵	-9.35338
不失	-9.35518
旨	-9.35699
賊	-9.35713
依止	-9.35725
名相	-9.35756
鏡	-9.35791
問曰	-9.358
攀緣	-9.35879
今日	-9.36119
性相	-9.36137
一切皆	-9.36231
而言	-9.36247
微塵	-9.3626
有漏	-9.36368
陳	-9.36389
體性	-9.3645
妄計	-9.36515
轉變	-9.36824
發起	-9.36922
阿羅漢	-9.37198
之性	-9.37259
。「『	-9.37422
運	-9.37459
解釋	-9.37575
鼻	-9.37734
微細	-9.37752
懈怠	-9.37893
心不	-9.37899
相好	-9.37913
威	-9.38122
七識	-9.38147
辟支佛	-9.38183
拔	-9.38225
賢聖	-9.38389
孝	-9.38412
辯才	-9.38432
是法	-9.38544
我當	-9.38678
信解	-9.38714
念念	-9.38812
一向	-9.38822
謗	-9.38851
南	-9.38857
六者	-9.38972
汝今	-9.39073
有一	-9.39092
居士	-9.39095
未曾	-9.39125
三業	-9.39348
此義	-9.39361
葉	-9.39395
若見	-9.39441
什曰	-9.39624
欲界	-9.39676
何以	-9.39731
彼人	-9.39734
是謂	-9.39824
魚	-9.39901
甘露	-9.39932
損	-9.39946
七日	-9.39962
不行	-9.40019
不樂	-9.40117
熏	-9.40181
誠	-9.40257
虛	-9.40329
五欲	-9.40427
訖	-9.40545
飲	-9.40586
增上	-9.40699
所緣	-9.40805
十二因緣	-9.40984
守護	-9.41043
勝佛	-9.41085
承	-9.41156
無始	-9.41518
以是	-9.4162
正念	-9.41635
我說	-9.4174
勤	-9.41823
如彼	-9.421
為體	-9.42136
可見	-9.42195
玄	-9.42249
臣	-9.4226
律	-9.42337
揀	-9.42378
荊溪云	-9.42384
六根	-9.42501
幢	-9.42547
則是	-9.42558
準	-9.42648
但以	-9.4267
此三	-9.42743
諸比丘	-9.43079
色相	-9.43357
池	-9.43443
豈非	-9.4363
無別	-9.43739
靈	-9.43962
及與	-9.4397
知見	-9.44122
服	-9.44122
二釋	-9.44163
石	-9.44181
彌	-9.44276
一人	-9.44383
之意	-9.44535
須彌	-9.44678
斷滅	-9.44686
闕	-9.44796
有人	-9.44815
諸惡	-9.44817
而能	-9.44937
入於	-9.4499
愛樂	-9.45324
逮	-9.45489
貪著	-9.45638
誦	-9.45679
巧	-9.4582
無自性	-9.4599
領	-9.46056
初地	-9.46076
未得	-9.4614
六識	-9.46367
神足	-9.46401
亦可	-9.46437
法也	-9.46454
導	-9.46704
既無	-9.46848
背	-9.46848
是也	-9.46935
際	-9.4715
無量無邊	-9.47235
以其	-9.47278
即得	-9.47287
專	-9.47296
寄	-9.47303
講	-9.47385
至於	-9.47465
自體	-9.4753
見有	-9.47682
族姓子	-9.47722
妄見	-9.47799
欲令	-9.47863
垂	-9.47958
歷	-9.48008
本來	-9.48057
大王	-9.48269
宣	-9.48281
於法	-9.48432
現行	-9.48644
他人	-9.48738
住持	-9.48765
止觀	-9.48794
之本	-9.48805
清	-9.48892
二邊	-9.48949
聖智	-9.48979
配	-9.48997
養	-9.49105
德佛	-9.49201
非法	-9.49213
之名	-9.49267
億	-9.4929
傷	-9.49299
徹	-9.49432
談	-9.49489
之身	-9.49537
光明佛	-9.49548
行人	-9.49566
實有	-9.49696
上來	-9.49713
翳	-9.4995
五種	-9.49951
教化	-9.50005
畢	-9.50055
漸次	-9.50079
佛國	-9.50118
力故	-9.50176
憶念	-9.50203
酒	-9.50281
潤	-9.50295
染淨	-9.50298
公	-9.50378
融	-9.50448
三毒	-9.50454
其中	-9.50586
顯現	-9.50613
有三種	-9.50627
譬喻	-9.50676
大師	-9.50753
令得	-9.50759
義故	-9.50819
呪	-9.50832
淺	-9.50911
摩尼	-9.50956
即空	-9.50976
聞法	-9.51035
折	-9.51047
弘	-9.51055
仙	-9.51104
仍	-9.51166
嘆	-9.51456
世諦	-9.5147
羅漢	-9.51548
若依	-9.51653
▁南无善	-9.51799
云何菩薩	-9.51869
勇猛	-9.51873
轉法輪	-9.51901
阿修羅	-9.52101
無色	-9.52212
不墮	-9.52292
今現在	-9.52325
正道	-9.52328
梵行	-9.52445
徵	-9.52553
十力	-9.5276
雖復	-9.52907
徒	-9.5294
跡	-9.52978
麤	-9.52988
塔	-9.53004
三明	-9.5304
見者	-9.53088
言語	-9.53154
葢	-9.5317
責	-9.53205
有五	-9.53306
王子	-9.53324
殿	-9.53418
減	-9.53438
迴	-9.53483
適	-9.53594
呼	-9.53605
善知識	-9.53657
東	-9.53717
聲聞緣覺	-9.53748
泥洹	-9.53813
無能	-9.53932
為欲	-9.53943
自行	-9.54089
生曰	-9.54147
此下	-9.54224
化身	-9.54236
佛身	-9.54258
姓	-9.54305
欲得	-9.54377
貴	-9.54748
乖	-9.54766
此人	-9.54781
是名菩薩	-9.54823
一切有情	-9.5487
○	-9.54905
囉	-9.55062
我所	-9.55091
固	-9.55179
為本	-9.55255
惠	-9.55281
落	-9.55337
則不	-9.5538
不如	-9.55449
星	-9.5558
之體	-9.5562
所起	-9.55634
青	-9.55661
二法	-9.55741
之道	-9.55846
夜叉	-9.56252
憍慢	-9.56276
原	-9.56301
太子	-9.56319
空中	-9.56353
忽	-9.56359
善巧	-9.56462
一切世間	-9.56489
炎	-9.56556
二約	-9.56571
此句	-9.56599
此之	-9.56653
鈔	-9.56676
緣生	-9.56718
本覺	-9.56845
今明	-9.56986
得解脫	-9.57023
慈心	-9.57057
次名	-9.5712
繫	-9.57149
此言	-9.57151
唐譯	-9.57152
乳	-9.57206
希有	-9.57207
五蘊	-9.57269
該	-9.57297
迴向	-9.57328
苦樂	-9.57345
生起	-9.57497
無著	-9.57764
凡愚	-9.57772
下文	-9.57816
是菩薩	-9.57883
魏云	-9.57895
拘	-9.57967
宮殿	-9.57987
隨喜	-9.57989
不依	-9.58133
所修	-9.58185
經南無	-9.58465
心生	-9.58492
竝	-9.58511
為一	-9.58675
悅	-9.58706
以彼	-9.58756
哀	-9.58769
戲論	-9.59015
正覺	-9.59134
期	-9.59156
十種	-9.59258
此乃	-9.5926
不在	-9.59332
當得	-9.59355
六塵	-9.5942
不空	-9.59459
默	-9.59477
所現	-9.59675
四相	-9.59679
亦應	-9.59785
施設	-9.59855
於一切	-9.59943
隨緣	-9.60007
問答	-9.60013
暫	-9.60053
柔軟	-9.6012
􂛳	-9.60123
仁	-9.60143
凡聖	-9.6015
男	-9.60165
若約	-9.60415
笑	-9.60509
天眾	-9.6051
演	-9.60608
無住	-9.60668
二十	-9.60751
諸經	-9.6076
世俗	-9.60846
分明	-9.60851
非無	-9.6087
伽	-9.60915
出生	-9.61019
不現	-9.61203
何因	-9.61224
光明佛南無	-9.6129
之文	-9.61322
以明	-9.61375
乾	-9.61431
交	-9.61504
發願	-9.61523
蒙	-9.61712
滅度	-9.61758
不與	-9.61796
布	-9.61935
審	-9.61951
命終	-9.61982
妄語	-9.61998
恒沙	-9.62043
典	-9.6208
之智	-9.62085
修學	-9.62094
快樂	-9.62116
讀誦	-9.62168
天下	-9.6219
幢佛	-9.62459
故須	-9.62469
降伏	-9.62601
夏	-9.62693
人民	-9.62798
語言	-9.62808
寺	-9.62886
正明	-9.62892
祖	-9.6295
差	-9.62987
不盡	-9.63001
仰	-9.63033
菩提心	-9.63079
正觀	-9.63132
解云	-9.63173
流通	-9.63227
質	-9.63374
吉祥	-9.63393
等正覺	-9.63408
純	-9.63605
實際	-9.63687
勞	-9.63815
是經	-9.63973
受苦	-9.63985
越	-9.63995
田	-9.6401
有異	-9.64075
而行	-9.64096
鼓	-9.64142
塵勞	-9.64157
文中	-9.64197
七者	-9.64247
勇	-9.64323
之境	-9.64345
依此	-9.64349
法施	-9.64366
魏譯	-9.64415
兒	-9.64436
護持	-9.64445
住處	-9.64503
富	-9.64516
諸有	-9.64531
男女	-9.64588
▁「	-9.64613
化佛	-9.64692
一切諸佛	-9.64888
畫	-9.64898
應身	-9.65008
十四	-9.65132
奪	-9.65183
漏	-9.65407
作如是言	-9.65456
臥	-9.65512
題	-9.6558
從此	-9.65605
利他	-9.65646
世論	-9.65667
急	-9.65668
佛地	-9.6567
樓	-9.65673
至真	-9.65752
受生	-9.65773
修多羅	-9.658
牒	-9.65803
之因	-9.65891
黑	-9.65895
三法	-9.66029
懸	-9.66072
金色	-9.66079
三有	-9.6613
血	-9.66146
無非	-9.66184
諸識	-9.66245
無知	-9.66255
故以	-9.66272
為人	-9.66273
三千大千世界	-9.66323
非真	-9.66341
正智	-9.66559
接	-9.66567
累	-9.66639
疏曰	-9.66682
大智	-9.66784
隨其	-9.66883
有世界名	-9.66892
如人	-9.66915
熏習	-9.66921
如實知	-9.66935
天眼	-9.67035
國王	-9.67236
法輪	-9.67255
園林	-9.67256
妙法	-9.67301
短	-9.67308
黃	-9.67403
自覺	-9.67433
儀	-9.67438
人中	-9.67591
若於	-9.67606
相違	-9.67631
改	-9.67683
心量	-9.67715
此文	-9.67763
二合	-9.67797
障礙	-9.67801
道理	-9.6782
唯心	-9.6784
」【	-9.67885
非有非無	-9.67943
受樂	-9.68017
寂然	-9.68183
福田	-9.68229
如上	-9.68243
皆為	-9.68245
今經	-9.68381
本有	-9.68412
修道	-9.68616
授記	-9.68735
而巳	-9.68788
毘	-9.68792
此身	-9.68806
經中	-9.68807
此意	-9.68842
單	-9.68849
不念	-9.68857
無智	-9.68873
西	-9.68956
其有	-9.69009
有餘	-9.69116
誓	-9.6915
自有	-9.69364
由是	-9.69369
刀	-9.6943
彼處	-9.69497
本性	-9.69593
於佛	-9.69725
事理	-9.69757
誡	-9.69775
作意	-9.69775
貧	-9.69801
不入	-9.69877
諸相	-9.69946
故不	-9.70127
真心	-9.70182
四門	-9.70199
方等	-9.70307
互相	-9.70327
財物	-9.70415
任	-9.70444
應供	-9.70447
大地	-9.70467
經曰	-9.70475
開示	-9.70544
愛欲	-9.70548
瑜伽	-9.70623
奢摩他	-9.70627
能作	-9.70638
則能	-9.7064
依於	-9.70716
彼佛	-9.70718
曲	-9.70728
或云	-9.70927
佛語	-9.71094
以顯	-9.71098
名色	-9.71392
髮	-9.71395
赤	-9.71528
何處	-9.71541
始終	-9.71587
文云	-9.71651
此品	-9.71664
逐	-9.71753
申	-9.71833
勢	-9.7188
可愛	-9.71985
清涼	-9.72057
不求	-9.72059
曉	-9.72073
作者	-9.72099
云云一句	-9.72148
閻浮提	-9.72153
假使	-9.72161
常樂	-9.72172
修行者	-9.72189
園	-9.72239
任運	-9.72289
說言	-9.72323
不識	-9.72333
覺知	-9.72463
角	-9.72535
皮	-9.72575
迷惑	-9.72681
珍寶	-9.72688
天地	-9.72731
末世	-9.72735
【	-9.72782
造作	-9.72795
有何	-9.72831
其意	-9.72835
若爾	-9.7291
衣服	-9.72918
即能	-9.72933
諸佛如來	-9.72945
有四種	-9.72982
勝義	-9.72988
影像	-9.73021
佛所	-9.73127
二義	-9.73272
泯	-9.73292
諍	-9.73347
多有	-9.73373
八萬四千	-9.73377
特	-9.73382
濁	-9.73392
衰	-9.73425
詳	-9.73518
佛剎	-9.73518
恐怖	-9.73554
晝夜	-9.73556
普賢	-9.73649
士	-9.73657
出世間	-9.7379
八者	-9.73815
麁	-9.73915
心無	-9.73946
今云	-9.73963
心念	-9.74134
永斷	-9.74146
若言	-9.74254
此土	-9.74318
端正	-9.74331
下釋	-9.74383
證得	-9.74458
作佛	-9.74495
讀	-9.74513
而作	-9.74524
端	-9.74666
▁南无智	-9.74689
二障	-9.74841
十界	-9.74847
楞伽	-9.74848
即時	-9.7492
薄	-9.74963
者即是	-9.75
俱生	-9.75124
此等	-9.75143
吼	-9.75153
所問	-9.752
但有	-9.7527
又如	-9.75296
無所得	-9.75307
不然	-9.75331
故得	-9.75368
所詮	-9.75379
過患	-9.75386
即便	-9.75597
驗	-9.75669
唐譯云	-9.75687
何等為十	-9.75742
菩薩行	-9.75822
人間	-9.75864
太	-9.75905
身相	-9.75918
若欲	-9.75965
立名	-9.75977
言之	-9.76091
故能	-9.76096
請問	-9.76143
暗	-9.76153
諸煩惱	-9.76188
遺	-9.76218
善逝	-9.76228
免	-9.76251
婬	-9.76308
勅	-9.76364
二初	-9.76414
樹下	-9.76473
成熟	-9.76511
而說偈言	-9.76689
是菩提	-9.76698
佛子	-9.76708
五根	-9.76713
勝妙	-9.76949
惡趣	-9.76953
瓶	-9.7698
十五	-9.77036
亦得	-9.77055
察	-9.77172
疏云	-9.77226
貧窮	-9.77259
實無	-9.77277
色身	-9.77408
▁南无普	-9.77474
走	-9.77492
索	-9.77603
第九	-9.77623
四德	-9.77662
羅剎	-9.77699
即為	-9.77788
眼識	-9.77981
法體	-9.78031
萬物	-9.78095
於其	-9.78101
源	-9.78202
是佛	-9.78205
三千	-9.78235
報身	-9.78262
歲	-9.78367
五法	-9.78574
六道	-9.78627
不變	-9.7865
無實	-9.78693
一相	-9.78764
性空	-9.78806
幾	-9.79007
再	-9.79021
於我	-9.79071
十三	-9.79091
投	-9.79094
臨	-9.79101
三摩地	-9.79138
當來	-9.79198
蛇	-9.79218
身中	-9.79275
惑亂	-9.79289
大德	-9.79376
及餘	-9.7947
二句	-9.79521
云何為	-9.79533
光佛南無	-9.79636
載	-9.79849
之教	-9.79879
群	-9.79929
北	-9.79939
代	-9.79961
安立	-9.80004
未能	-9.80134
化他	-9.80204
豈不	-9.80299
昇	-9.80401
毛	-9.80429
總結	-9.80521
。▲	-9.80534
妙覺	-9.80591
今文	-9.80636
招	-9.80698
眾人	-9.80805
至心	-9.8094
民	-9.80947
一云	-9.80992
慮	-9.81009
非我	-9.81029
頌曰	-9.81038
即以	-9.8112
開二	-9.81177
十善	-9.81201
摩訶	-9.81224
無記	-9.81358
勤修	-9.81473
乞	-9.81532
皆從	-9.81533
說有	-9.81636
能斷	-9.81675
能得	-9.81686
官	-9.81843
繫縛	-9.81881
法空	-9.81927
檀	-9.81967
飛	-9.82007
若干	-9.82012
返	-9.82079
實法	-9.82174
經論	-9.82199
入涅槃	-9.82229
得聞	-9.82333
傍	-9.82407
略說	-9.82513
相也	-9.82605
非實	-9.82624
稽首	-9.82758
出離	-9.82814
打	-9.82815
分齊	-9.82999
連	-9.83009
深心	-9.83028
等也	-9.83065
五道	-9.83101
若有眾生	-9.8311
成道	-9.83131
天上	-9.8315
師子吼	-9.83178
合掌	-9.83188
皆名	-9.8325
作是	-9.83294
唯是	-9.83318
正受	-9.83472
幻化	-9.83492
於一切法	-9.83509
如意	-9.83514
了達	-9.83551
續	-9.83622
九者	-9.83654
若菩薩	-9.83663
本末	-9.83664
非性	-9.83748
步	-9.83967
所聞	-9.84
侵	-9.84003
如虛空	-9.84069
豈有	-9.84095
有大	-9.84142
老死	-9.84215
得果	-9.84294
八地	-9.84426
佛告阿難	-9.84462
今初	-9.8455
玅	-9.84569
一味	-9.84615
過失	-9.84671
我法	-9.84857
此四	-9.84881
無形	-9.84905
是其	-9.84908
不達	-9.84974
知識	-9.85095
七地	-9.85125
真空	-9.8534
界外	-9.85411
即無	-9.85439
不解	-9.85485
託	-9.85678
不言	-9.85736
段	-9.85773
謬	-9.85821
看	-9.85825
三十二	-9.85881
正行	-9.86036
初心	-9.861
異相	-9.86142
今以	-9.86172
菩薩曰	-9.86174
智力	-9.86211
念處	-9.86237
虎	-9.86239
長短	-9.86247
心中	-9.8638
說者	-9.86382
快	-9.8641
驚	-9.8649
其實	-9.86494
一切人	-9.86512
皆以	-9.86538
妄心	-9.86592
自覺聖智	-9.86601
聖道	-9.86634
於空	-9.86639
不自	-9.8676
可以	-9.86792
眾會	-9.86803
所執	-9.86822
有此	-9.86843
善哉善哉	-9.86866
真性	-9.86912
貪愛	-9.87067
喜樂	-9.87133
是名為	-9.87154
俗諦	-9.87229
故今	-9.87321
諸菩薩摩訶薩	-9.87345
彼岸	-9.87352
萬行	-9.87411
▁四	-9.87418
故非	-9.87438
不聞	-9.87556
琉璃	-9.8757
亦無所	-9.87597
為我	-9.87616
侍	-9.87674
值	-9.87709
無比	-9.8772
靜慮	-9.87802
世人	-9.87805
銷	-9.87831
諸地	-9.87832
▁南无金剛	-9.8792
諦聽	-9.87933
二字	-9.88103
生死涅槃	-9.88107
我身	-9.8813
意佛	-9.88141
處處	-9.88174
能破	-9.88226
之類	-9.88284
西方	-9.88302
寶積	-9.88321
即有	-9.88322
當為汝說	-9.8833
吉	-9.88332
大慈	-9.88404
成正覺	-9.88412
不名	-9.88476
各別	-9.8851
業障	-9.88544
相對	-9.88562
離欲	-9.88606
勢力	-9.88696
。」【○	-9.88718
是我	-9.88739
乞食	-9.88805
同時	-9.88805
明佛	-9.88829
滯	-9.88838
須陀洹	-9.88852
如法	-9.88884
堂	-9.88885
無餘	-9.88887
是中有佛	-9.88944
無想	-9.89154
諸見	-9.89297
即此	-9.89319
心意	-9.89428
妻子	-9.89477
隔	-9.89481
身見	-9.89604
色界	-9.89637
究	-9.89688
三教	-9.8972
氏	-9.89721
茲	-9.89748
不須	-9.8976
釋云	-9.89835
當體	-9.89838
▁南无無邊	-9.89839
學者	-9.89869
▁南无一切	-9.90017
無障礙	-9.90026
大道	-9.90068
亦同	-9.90102
往來	-9.90135
正說	-9.902
白言	-9.90214
入道	-9.90284
所化	-9.903
信心	-9.90524
界內	-9.9053
諸如來	-9.90544
無差別	-9.90661
之果	-9.9084
經說	-9.90842
無緣	-9.90943
直心	-9.91008
身體	-9.9105
莫不	-9.91111
聲佛南無	-9.91111
不相	-9.91114
)。」【	-9.91117
稟	-9.91157
導師	-9.91193
正遍知	-9.91252
君	-9.91254
建	-9.913
十者	-9.91367
八十	-9.9143
牽	-9.91482
能見	-9.91487
都無	-9.91677
等覺	-9.91701
倍	-9.91709
未盡	-9.91712
則知	-9.91774
起於	-9.91786
所造	-9.91826
良	-9.91832
既云	-9.91898
的	-9.9191
更有	-9.91927
是事	-9.91941
流布	-9.91948
▁南无法	-9.92017
最後	-9.92087
錯	-9.92093
明了	-9.92234
奉行	-9.92235
良由	-9.92237
所明	-9.92238
隨所	-9.9225
欲求	-9.92258
一分	-9.92291
擁護	-9.92401
登	-9.92473
加行	-9.9251
無心	-9.92529
慚愧	-9.92633
經典	-9.92649
空無	-9.92665
初約	-9.92669
妨	-9.92669
梵志	-9.92699
除滅	-9.92789
州	-9.92848
十方諸佛	-9.92848
罪人	-9.92936
以是因緣	-9.92957
三道	-9.92996
活	-9.93018
:「『	-9.93056
慳	-9.93064
其相	-9.93084
境智	-9.93108
既是	-9.93207
修證	-9.93231
維摩詰	-9.93248
長行	-9.93289
王菩	-9.9337
初釋	-9.93372
滅盡	-9.93375
而復	-9.9339
也若	-9.93429
見道	-9.93461
□	-9.9349
皆空	-9.93498
同一	-9.93519
能證	-9.93543
諸有情	-9.93578
蜜	-9.93598
天台	-9.93657
梵語	-9.93735
之德	-9.93741
往昔	-9.93753
了義	-9.93835
充滿	-9.93887
陰界入	-9.93949
義者	-9.9396
持世	-9.94175
一劫	-9.94195
佗	-9.94223
前文	-9.94264
故無	-9.9429
依正	-9.9434
或復	-9.94355
未曾有	-9.9444
誓願	-9.94447
離有無	-9.94508
聞已	-9.94535
尊重	-9.94546
正是	-9.94563
餘如上說	-9.94628
惡道	-9.94643
第一義諦	-9.94649
若得	-9.94655
曉了	-9.94681
四禪	-9.94694
帶	-9.94701
百億	-9.94719
不及	-9.94721
散亂	-9.94721
得見	-9.94757
欣	-9.94786
問疾	-9.94831
根塵	-9.94938
次釋	-9.94951
上下	-9.94986
能說	-9.94988
醫	-9.95044
是身	-9.9506
陽	-9.95077
一名	-9.95089
誹謗	-9.95122
浮	-9.95145
四天王	-9.95211
依他	-9.95305
所為	-9.9532
次明	-9.95336
未有	-9.95356
聞是	-9.95462
頓教	-9.95499
更無	-9.95568
因緣故	-9.95572
獄	-9.95608
塗	-9.95648
周遍	-9.95669
而住	-9.95669
授無上道記	-9.95697
苦行	-9.95708
即知	-9.95743
憶	-9.95757
非常	-9.95772
竪	-9.95845
心者	-9.95896
離垢	-9.95918
非謂	-9.95962
移	-9.95971
善行	-9.95977
此名	-9.95991
唐	-9.96138
聚落	-9.96187
四方	-9.962
纏	-9.96228
▁南无勝	-9.96274
非不	-9.96383
能為	-9.96456
心性	-9.96532
三十	-9.96588
醉	-9.96612
開悟	-9.96724
內心	-9.96748
同名	-9.96772
舍利弗言	-9.9685
聲佛	-9.96873
之說	-9.96875
白佛	-9.9689
般涅槃	-9.96928
軍	-9.96934
自共相	-9.96941
教化眾生	-9.96946
此約	-9.96946
唱	-9.96974
鳴	-9.97035
饒益	-9.97193
注云	-9.97229
丈夫	-9.97255
厭離	-9.97321
墮於	-9.97333
我於	-9.97403
隨意	-9.97631
不從	-9.97689
而成	-9.9771
令人	-9.97756
敷	-9.97781
有知	-9.97787
何有	-9.97811
避	-9.97842
若在	-9.97855
啟	-9.97901
御	-9.9796
彼天	-9.97996
默然	-9.98096
堪	-9.98117
如夢	-9.98134
聞說	-9.98139
之者	-9.98208
說之	-9.9821
邪正	-9.9828
無量百千	-9.98294
自心現量	-9.98298
但云	-9.98338
諸外道	-9.98404
為緣	-9.98438
而自	-9.98453
云何名	-9.98467
若是	-9.98584
句非	-9.98639
為眾生	-9.98662
出入	-9.98701
六入	-9.98833
擊	-9.98883
化生	-9.9897
利根	-9.99037
不妨	-9.99053
一生	-9.99054
驚怖	-9.99068
道者	-9.99109
借	-9.99139
必有	-9.99157
而去	-9.99157
流注	-9.99166
涉	-9.99176
科竟	-9.99209
廢	-9.99291
之力	-9.99314
說名	-9.99364
無復	-9.9938
北方	-9.99389
不退轉	-9.99428
比丘尼	-9.99432
貫	-9.99479
何者是	-9.99507
一切煩惱	-9.99615
每	-9.99641
〔	-9.99654
眾苦	-9.99779
希	-9.99841
於一	-9.99884
怒	-9.9996
自利	-9.99988
人法	-10.0003
問言	-10.0005
牙	-10.0011
三十二相	-10.0025
聽受	-10.0026
薩	-10.0029
煩惱障	-10.0032
謝	-10.0033
何不	-10.0034
佛果	-10.0036
法王	-10.0037
大慧白佛言	-10.006
法行	-10.0061
文殊師利言	-10.0087
心識	-10.0089
遍滿	-10.0097
大涅槃	-10.0102
生處	-10.0103
六十	-10.0105
已得	-10.0107
變易	-10.0107
無上菩提	-10.0113
食肉	-10.0113
大臣	-10.0122
豈可	-10.0126
佛教	-10.0132
當知是人	-10.0134
少分	-10.0138
等法	-10.0138
故此	-10.0146
虫	-10.0148
非但	-10.0153
定慧	-10.0157
四明	-10.0158
昧	-10.0161
不堪	-10.0163
真理	-10.0176
多少	-10.0182
盲	-10.0183
非一	-10.0184
響	-10.0185
見其	-10.0196
我相	-10.0197
諸天子	-10.02
令彼	-10.0236
於諸法	-10.0238
性自性	-10.0247
一往	-10.0253
不共	-10.0256
洗	-10.0261
如我	-10.027
錄	-10.0278
一切性	-10.0281
寒	-10.0282
眾多	-10.0284
無得	-10.0285
▁南无師子	-10.0294
法寶	-10.0299
仁者	-10.03
善解	-10.031
說此	-10.031
殺生	-10.0321
眾僧	-10.0324
菩薩言	-10.0327
不爾	-10.0339
二見	-10.0346
見之	-10.0346
前三	-10.0352
不久	-10.0355
求法	-10.0361
淨穢	-10.0361
脚	-10.0361
積集	-10.0364
愈	-10.0364
臂	-10.0376
一身	-10.0377
若諸菩薩	-10.038
朝	-10.0381
空寂	-10.0381
通別	-10.0384
此翻	-10.039
如是如是	-10.0394
共相	-10.0409
而現	-10.0414
行道	-10.042
六種	-10.0425
旋	-10.0445
一日	-10.0449
生天	-10.0456
竭	-10.0463
一切種智	-10.0463
復以	-10.0466
▁南无無量	-10.0469
聖教	-10.0469
諸天眾	-10.047
結成	-10.047
異名	-10.0478
憎	-10.0489
優婆塞	-10.0491
禁	-10.0496
況復	-10.0514
大願	-10.0535
無窮	-10.0537
乃能	-10.0537
無念	-10.0543
解曰	-10.0543
得生	-10.0547
第	-10.0549
聞此	-10.056
名稱	-10.0564
不具	-10.0566
一切菩薩	-10.0574
不忘	-10.0588
壽量	-10.0588
意云	-10.0592
三結	-10.0597
亦能	-10.0599
四天下	-10.0599
色心	-10.06
正因	-10.06
增減	-10.0608
知其	-10.0609
無人	-10.0611
覺悟	-10.0615
今言	-10.0615
不染	-10.062
舍利子	-10.0624
化眾生	-10.0626
得入	-10.0629
若知	-10.0634
為宗	-10.0635
隨機	-10.0637
幢佛南無	-10.0644
准	-10.0646
岸	-10.0649
無極	-10.0651
之後	-10.0655
種姓	-10.0658
眾中	-10.066
之業	-10.066
此心	-10.0661
復言	-10.0663
如來法身	-10.0666
威神	-10.0666
或以	-10.0667
輪轉	-10.0669
脩行	-10.0671
所受	-10.0677
二相	-10.068
生故	-10.068
斷煩惱	-10.068
十七	-10.0681
第十	-10.0682
爾時世尊欲重宣此義而說偈言	-10.0687
生法	-10.0698
烏	-10.0698
歸依	-10.0698
而非	-10.0702
逢	-10.0706
自知	-10.0706
諸佛菩薩	-10.071
善友	-10.0712
鬘	-10.0712
淨心	-10.0716
此中間	-10.0717
如佛	-10.0725
妻	-10.0737
輩	-10.0737
心境	-10.0742
杖	-10.0744
復白佛言	-10.075
空有	-10.0754
誤	-10.0756
無染	-10.0758
夫人	-10.076
於中有二	-10.0766
為彼	-10.0767
慶	-10.0777
常無常	-10.0778
此釋	-10.078
則非	-10.078
現身	-10.0789
局	-10.079
愛見	-10.0793
火燒	-10.0801
喪	-10.0803
剎至	-10.0804
付	-10.0806
割	-10.0806
十九	-10.0809
不可以	-10.0813
三性	-10.0818
殃	-10.082
觀之	-10.0822
二空	-10.0823
本空	-10.0824
本願	-10.0827
文二	-10.0829
唯願	-10.083
露	-10.0838
以法	-10.0841
放光	-10.0842
或可	-10.0847
萬法	-10.0849
妄執	-10.0861
孔	-10.088
梨	-10.0882
腹	-10.0884
左	-10.089
不生滅	-10.0891
最初	-10.0893
三十三天	-10.0898
既有	-10.0908
因此	-10.0912
齒	-10.0914
名號	-10.0916
為是	-10.0918
發阿耨多羅三藐三菩提心	-10.0925
滅故	-10.0928
枝	-10.0928
謂於	-10.0933
有相	-10.0933
功德佛	-10.0936
初標	-10.0936
號曰	-10.0942
保	-10.0942
破戒	-10.0943
覺心	-10.0945
得此	-10.0955
善能	-10.0958
覺了	-10.0963
空華	-10.0963
博	-10.0965
普照	-10.0965
『	-10.0966
仙人	-10.0966
召	-10.0967
三義	-10.0969
大鈔	-10.0969
妄想自性	-10.0973
而白佛言	-10.0976
見聞	-10.0978
惡見	-10.0985
我為	-10.0987
棄捨	-10.0988
自下	-10.0996
歸命	-10.1003
統	-10.1004
地前	-10.1008
增益	-10.1013
作是念	-10.102
盜	-10.102
取相	-10.1022
應云	-10.1027
相見	-10.1035
不隨	-10.1037
救護	-10.1042
無量功德	-10.1045
天人師	-10.1073
獸	-10.108
鹿	-10.1084
能除	-10.1085
飢渴	-10.1086
不敢	-10.1091
受記	-10.1094
報恩	-10.1097
業報	-10.1098
大聖	-10.1107
不畏	-10.1111
慕	-10.1125
剎土	-10.1126
生者	-10.1126
二智	-10.1127
永離	-10.1129
攝取	-10.1142
般若波羅蜜	-10.115
外境	-10.1155
以無	-10.1163
前二	-10.1177
宋	-10.1187
信受	-10.1192
非道	-10.12
斷除	-10.1209
者是	-10.1238
一處	-10.1241
世間解	-10.1242
三句	-10.1249
具如	-10.125
屈	-10.1252
端嚴	-10.1253
法無我	-10.1253
得無生法忍	-10.1254
飢	-10.1261
入定	-10.1268
一明	-10.1269
之上	-10.1269
蔽	-10.1271
濕	-10.1272
或時	-10.1272
漏盡	-10.128
離相	-10.1281
神名	-10.1287
詞	-10.1288
懼	-10.1294
是道場	-10.1302
亦為	-10.1308
沈	-10.1311
我執	-10.1313
卿	-10.1315
彼諸	-10.1317
弟	-10.1323
厚	-10.133
甚多	-10.1332
床	-10.1333
說是	-10.1334
時節	-10.1335
林中	-10.1345
觀於	-10.1347
是真	-10.1351
後世	-10.1351
大法	-10.1368
真俗	-10.1368
罪福	-10.1369
實性	-10.1383
所應	-10.1385
別有	-10.1389
闍	-10.1391
能詮	-10.1392
藏佛	-10.1395
前云	-10.1395
不放逸	-10.1395
慧眼	-10.1396
寶藏	-10.14
若復	-10.1402
得菩提	-10.1403
天中	-10.1403
獲得	-10.1406
蘇	-10.1417
也又	-10.143
私	-10.1453
誑	-10.1458
亦當	-10.1464
狂	-10.1467
眾寶	-10.1469
如水	-10.1474
漸漸	-10.1483
歌	-10.1486
附	-10.1489
是諸	-10.1493
胎	-10.1493
分段	-10.1495
超越	-10.1496
而彼	-10.15
鈍	-10.1506
根性	-10.1512
所住	-10.1515
七種	-10.1516
諦觀	-10.1517
於他	-10.1521
一切佛法	-10.1521
為正	-10.1531
為作	-10.1536
客	-10.1536
繁	-10.1537
所求	-10.1538
唯一	-10.154
初中	-10.1542
心常	-10.1546
諸世間	-10.1553
天帝	-10.1556
四王	-10.1557
上佛	-10.1563
形相	-10.1565
擬	-10.1585
參	-10.1586
不違	-10.1587
觀法	-10.1588
狗	-10.1589
報應	-10.1596
灌頂	-10.1599
財寶	-10.16
意樂	-10.1604
譬如有人	-10.162
逮得	-10.162
波浪	-10.1628
關	-10.163
心所	-10.1631
覺觀	-10.1634
繩	-10.1645
能持	-10.1647
八難	-10.1662
▁【	-10.1662
色等	-10.1663
里	-10.1665
既不	-10.1666
苾芻	-10.1667
行於	-10.1669
欲樂	-10.1679
自證	-10.168
憎愛	-10.1681
空也	-10.1682
同體	-10.1686
災	-10.1687
手足	-10.1691
復問	-10.1693
嫉妬	-10.1696
佛南無寶	-10.1698
所觀	-10.1706
長者子	-10.1711
充	-10.1713
本際	-10.1715
三事	-10.1721
飾	-10.1722
釋迦牟尼佛	-10.173
有生	-10.1732
空觀	-10.1734
臺	-10.1739
思議	-10.174
明其	-10.1744
斷見	-10.1752
諸業	-10.1753
一異	-10.1754
議	-10.1755
法藏	-10.1756
渴	-10.1761
自心所現	-10.1766
無央數	-10.1772
此亦	-10.1775
毗	-10.1783
聞者	-10.1786
無所著	-10.1786
限	-10.1786
亦無有	-10.1796
以下	-10.18
皆云	-10.1805
積聚	-10.1806
在家	-10.181
丹	-10.1816
道品	-10.1821
施與	-10.1827
身口意	-10.1832
無言	-10.1836
聞佛	-10.1846
兵	-10.1854
愍	-10.1857
阿僧祇	-10.1867
染污	-10.187
聲聞乘	-10.1871
履	-10.1887
大力	-10.189
南方	-10.1892
謂有	-10.1904
本自	-10.1909
見已	-10.1909
拂	-10.191
何法	-10.1911
皆同	-10.1912
某	-10.1917
為實	-10.1927
即名	-10.1929
聽法	-10.193
或見	-10.1936
是心	-10.1938
捨身	-10.1938
。《	-10.194
雜染	-10.1942
男子	-10.195
豈得	-10.1964
邊際	-10.1967
未斷	-10.1968
不絕	-10.1969
音佛	-10.1974
慳貪	-10.1974
別圓	-10.1976
】【	-10.1983
無厭	-10.1984
體相	-10.1989
無願	-10.1989
亦不見	-10.199
。』」「	-10.1993
▁南无妙	-10.1995
是為六	-10.1999
自下第二	-10.2002
波頭摩	-10.2004
如經	-10.2006
無諸	-10.2011
不可見	-10.2022
廣釋	-10.2022
諸佛世尊	-10.2025
行處	-10.2028
化作	-10.2031
術	-10.2032
他方	-10.2032
定意	-10.2034
相即	-10.2037
經言	-10.2043
尸	-10.2043
常為	-10.2048
稍	-10.2054
供養佛	-10.2065
金光明經	-10.2066
摧	-10.2074
戲	-10.2082
四眾	-10.2083
塞	-10.2083
迷悟	-10.2084
阿耨多羅三藐三菩提	-10.2085
不令	-10.2089
苟	-10.2089
即於	-10.2093
處所	-10.2098
自心現	-10.2105
訓	-10.2106
汝當	-10.2107
當有	-10.2109
念佛	-10.2115
不殺	-10.2118
信相	-10.2121
於如來	-10.2124
法樂	-10.2127
乾闥婆	-10.2131
四十	-10.2132
見思	-10.2133
一類	-10.2142
睡	-10.2146
其餘	-10.2148
始覺	-10.2152
是為菩薩	-10.2154
威力	-10.2156
意在	-10.2161
裏	-10.2163
可解	-10.2165
無所畏	-10.2169
遭	-10.217
大品	-10.2171
皆無	-10.2182
幽	-10.2189
料簡	-10.219
然則	-10.2196
務	-10.2201
方名	-10.2205
大種	-10.2206
▁南无月	-10.221
深法	-10.2211
善不善	-10.2217
無上士	-10.2227
知足	-10.2228
初問	-10.2235
輪王	-10.2236
若離	-10.2248
敬禮	-10.225
必須	-10.2253
嚴飾	-10.2258
日光	-10.2258
圓頓	-10.2267
稱佛	-10.2267
意謂	-10.2269
信樂	-10.2271
常樂我淨	-10.2271
下劣	-10.2274
從是	-10.2274
吐	-10.2277
圓融	-10.2279
邪行	-10.2279
同於	-10.2282
通曰	-10.2285
大經	-10.2292
若此	-10.2294
春	-10.2295
出現	-10.2296
能觀	-10.2299
寶蓋	-10.2302
納	-10.2303
我聞	-10.2312
上方	-10.2313
別釋	-10.2313
頓漸	-10.2327
酬	-10.2327
圍遶	-10.2328
右	-10.2332
廣明	-10.2336
追	-10.2336
不思議解脫	-10.2338
度脫	-10.2338
但說	-10.234
污	-10.2344
教法	-10.2345
如理	-10.2346
▁二釋	-10.2356
梵音	-10.2365
妄想不生	-10.2366
得阿耨多羅三藐三菩提	-10.2367
流水	-10.2368
妄念	-10.2371
草木	-10.2374
恚	-10.2379
圓明	-10.238
本淨	-10.2385
謂此	-10.2388
以成	-10.239
無諍	-10.2394
度眾生	-10.2395
暢	-10.2397
淨戒	-10.2401
婦	-10.2402
妄想分別	-10.2405
如虗空	-10.2408
銀	-10.2413
不能得	-10.2415
何等為四	-10.2416
由彼	-10.2417
防	-10.2426
宛然	-10.2426
性故	-10.2433
如空	-10.2436
賢者	-10.2443
復更	-10.2444
諸功德	-10.2446
言無	-10.2451
意菩	-10.2453
我我所	-10.2456
認	-10.2463
別相	-10.2465
一切法不生	-10.2466
吹	-10.2468
方得	-10.2468
頂禮佛足	-10.247
言教	-10.2471
六通	-10.2473
下二	-10.2474
如是我聞	-10.248
耶答	-10.2481
見此	-10.2491
須彌山	-10.2491
身命	-10.2494
得佛	-10.2494
利物	-10.2494
其性	-10.2495
無定	-10.2501
與彼	-10.2505
不當	-10.2508
能現	-10.2513
天宮	-10.2513
所引	-10.2518
偈云	-10.2525
分二	-10.2528
麤重	-10.2529
勝解	-10.2533
法執	-10.2534
此事	-10.2535
良以	-10.2539
應化	-10.2551
圓成	-10.2554
諸聲聞	-10.2557
不貪	-10.2561
優婆夷	-10.2565
禁戒	-10.2566
染著	-10.2566
忽然	-10.2568
輒	-10.2573
瘡	-10.2579
便得	-10.2582
流出	-10.2587
不有	-10.2593
於是頌曰	-10.2594
名義	-10.2601
愚人	-10.2603
齋	-10.2603
眼佛	-10.2605
薪	-10.2606
逼	-10.2606
宿命	-10.261
途	-10.2619
自巳	-10.2623
負	-10.2627
起滅	-10.2629
護法	-10.2632
藉	-10.2632
濫	-10.2637
不見有	-10.2639
惡人	-10.2642
伎樂	-10.2643
離一切	-10.2646
藏菩	-10.2646
牟尼	-10.2659
佛智	-10.266
但為	-10.266
名聞	-10.2661
心故	-10.2662
擇	-10.2665
威德佛南無	-10.2667
身口	-10.267
深密	-10.2671
波羅	-10.2671
此方	-10.2671
取著	-10.2672
而來	-10.2673
往詣	-10.2673
苦諦	-10.2673
是為四	-10.2674
睡眠	-10.269
思念	-10.2696
其體	-10.2698
意業	-10.2698
修行菩薩	-10.27
人所	-10.2712
虗妄分別	-10.2714
之外	-10.2722
贊	-10.2725
門中	-10.2734
八萬	-10.2736
皆依	-10.2737
道法	-10.2738
不必	-10.2738
若聞	-10.274
善吉	-10.2744
生身	-10.275
意者	-10.2756
去來	-10.2759
無體	-10.2761
遊行	-10.2762
難可	-10.2766
中無	-10.2767
得失	-10.2768
張	-10.277
一種	-10.2771
一約	-10.2772
由旬	-10.278
菩薩得	-10.2781
思量	-10.2782
正定	-10.2782
事業	-10.2783
澄	-10.2786
漢	-10.2786
讚佛	-10.2789
二十五	-10.2791
現見	-10.2792
何謂菩薩	-10.2798
自在佛	-10.2799
友	-10.2807
所說法	-10.2809
不虛	-10.2814
一切外道	-10.2816
佛南無善	-10.2816
佛所說	-10.2821
於世間	-10.2822
摩訶衍	-10.2829
雖無	-10.2833
之地	-10.2834
得涅槃	-10.2836
正釋	-10.284
於人	-10.2842
婦女	-10.2847
心意意識	-10.2849
夜摩天	-10.2855
為三	-10.2856
所居	-10.2863
下至	-10.2866
畜	-10.2869
常在	-10.2874
依報	-10.2875
希望	-10.2883
不分別	-10.2886
利養	-10.2888
心行	-10.2891
不假	-10.29
多羅	-10.2911
缺	-10.2912
生時	-10.2915
真常	-10.2922
有幾種	-10.2923
為大	-10.2924
王如來	-10.2925
檢	-10.2926
智斷	-10.2927
閉	-10.2929
以何	-10.2929
馳	-10.2932
以有	-10.2937
得脫	-10.2945
熾盛	-10.2945
知是	-10.2948
人王	-10.2954
能滅	-10.2955
熾然	-10.2956
一百	-10.2962
即前	-10.2972
後二	-10.298
或說	-10.2981
王舍城	-10.299
答云	-10.2993
觀門	-10.2995
人無我	-10.3
又曰	-10.3002
昏	-10.3003
善思念之	-10.3007
生住滅	-10.3007
六波羅蜜	-10.3009
娑	-10.3012
三釋	-10.3015
欺	-10.3018
番	-10.3018
爛	-10.3021
之門	-10.3025
五性	-10.3025
心淨	-10.3026
甘	-10.3028
所在	-10.3031
有十	-10.3033
不足	-10.3034
磨	-10.3035
析	-10.3042
此菩薩者	-10.3042
有為法	-10.3045
三字	-10.3059
▁南无功德	-10.3063
儒	-10.3067
野	-10.3072
度無極有六事	-10.3073
而修	-10.3078
十信	-10.3081
稱讚	-10.3087
密嚴	-10.309
不死	-10.3092
委	-10.3094
無見	-10.31
於意云何	-10.3101
十住	-10.3101
思想	-10.3102
皆能	-10.3102
作用	-10.3116
彌勒菩薩	-10.3117
若作	-10.3118
之樂	-10.312
是菩薩行	-10.3126
四念處	-10.313
?」「	-10.3133
覺者	-10.3133
喚	-10.3135
慈氏	-10.3138
述成	-10.3139
得自在	-10.3141
皆令	-10.3143
所立	-10.3145
弊	-10.3149
聖諦	-10.3152
二無我	-10.3166
卑	-10.3166
敢	-10.3167
或為	-10.317
否	-10.3176
刺	-10.3179
令他	-10.3186
所縛	-10.3189
冬	-10.3192
斷惑	-10.3196
計有	-10.3198
作如是說	-10.321
須臾	-10.3213
消滅	-10.3219
所念	-10.3221
所願	-10.3222
色像	-10.3227
文義	-10.323
而入	-10.3231
同居	-10.3233
是一	-10.3236
二名	-10.3238
不是	-10.3239
心也	-10.324
五識	-10.3243
事相	-10.3245
者荊溪云	-10.3247
不待	-10.3251
炬	-10.3258
取捨	-10.3258
彼法	-10.3262
時彼	-10.3265
諸聖	-10.3265
之物	-10.3266
所取	-10.3267
十方世界	-10.3268
說法者	-10.3269
為義	-10.3269
有六	-10.3271
三塗	-10.3274
初禪	-10.3282
方能	-10.3286
善人	-10.3292
穀	-10.3295
得益	-10.3297
飲酒	-10.3299
悉能	-10.3299
兩句	-10.3302
怪	-10.3304
初二	-10.3304
諸大	-10.3306
是知	-10.3308
非彼	-10.3312
種類	-10.332
有所得	-10.3324
成佛道	-10.3328
無可	-10.333
為首	-10.3344
若善男子	-10.3347
電	-10.3348
受者	-10.3349
顧	-10.3352
出於	-10.3352
而出	-10.3354
洲	-10.3361
聖眾	-10.3364
曜	-10.3372
而見	-10.3372
瑠璃	-10.3375
起信	-10.3382
赴	-10.3389
人也	-10.3397
云何名為	-10.3399
受持讀誦	-10.3402
不也	-10.3408
常行	-10.3413
菩薩如是	-10.3414
卒	-10.3415
偽	-10.3416
修善	-10.3416
灰	-10.3417
淺深	-10.3417
圍繞	-10.3418
□□	-10.3423
意也	-10.3426
有其	-10.3426
章句	-10.3429
油	-10.3432
為他	-10.3443
為名	-10.3443
一切功德	-10.3444
能起	-10.3445
塵垢	-10.3447
可說	-10.3449
彼此	-10.3456
燈佛	-10.3457
噉	-10.3457
震	-10.3459
自在佛南無	-10.346
名為涅槃	-10.3463
說經	-10.347
無生滅	-10.3477
諸弟子	-10.3484
一切如來	-10.3484
預	-10.3494
因故	-10.3498
超過	-10.3505
轉輪聖王	-10.3506
今謂	-10.3514
潛	-10.3534
異熟	-10.3536
陀羅	-10.3542
已下	-10.3544
步佛	-10.3545
樂欲	-10.355
無生忍	-10.355
地中	-10.3552
光照	-10.3553
羊	-10.3556
祕密	-10.3556
如斯	-10.3557
維摩詰言	-10.356
用心	-10.3561
之過	-10.3564
佛為	-10.3569
宅	-10.357
三時	-10.3574
奮迅	-10.3579
不修	-10.3585
不用	-10.3587
貪瞋癡	-10.3589
下結	-10.359
補	-10.3605
掌	-10.3613
榮	-10.3619
相待	-10.3621
四法	-10.3623
場	-10.3626
蕩	-10.3627
大論	-10.363
柱	-10.3632
自相共相	-10.3635
中說	-10.3636
無為法	-10.3638
夷	-10.3639
麼	-10.3642
稱佛南無	-10.3645
佛事	-10.3649
相分	-10.3658
翻為	-10.366
遍知	-10.3661
勇健	-10.3661
點	-10.3662
神我	-10.3662
真妄	-10.3662
佛眼	-10.3664
誰為	-10.3664
之用	-10.3666
枯	-10.3672
能入	-10.3673
八種	-10.3675
無色界	-10.3676
臭	-10.3681
無學	-10.3685
猶有	-10.3685
如大	-10.3685
以自	-10.3686
肉眼	-10.3687
諸法實相	-10.3688
安居	-10.3689
星宿	-10.3689
孤	-10.3691
禮拜	-10.3691
轉識	-10.3692
長養	-10.3695
佛南無大	-10.3696
軌	-10.3698
群生	-10.3699
離我我所	-10.37
有我	-10.3708
生善	-10.3709
執持	-10.3712
我慢	-10.3713
法義	-10.3716
行法	-10.3721
憂惱	-10.3722
豐	-10.3729
疎	-10.3733
無滅	-10.3735
封	-10.3738
空故	-10.3744
為性	-10.3747
契經	-10.375
只是	-10.3751
波羅蜜多	-10.3759
便是	-10.3763
三約	-10.3765
眾德	-10.377
遙	-10.3771
法供養	-10.3772
三藏教	-10.3778
無法	-10.3781
於生死	-10.3783
軟	-10.3783
功用	-10.3789
為有	-10.3789
滅諦	-10.379
渡	-10.3793
皆當	-10.3796
有性	-10.3797
文為二	-10.3807
二俱	-10.3809
▁初明	-10.3809
有見	-10.3817
敗	-10.3817
若復有人	-10.3819
復見	-10.382
不食	-10.3821
壁	-10.3826
不善業	-10.3833
數息	-10.384
何名	-10.3841
狀	-10.3842
佛名	-10.3844
過於	-10.3846
此諸	-10.3857
按	-10.3861
栴檀	-10.3865
亦說	-10.3867
寂光	-10.387
斷常	-10.3879
嚴淨	-10.388
種種相	-10.388
如來所說	-10.389
不相應	-10.3893
高下	-10.3896
末世眾生	-10.3898
疑惑	-10.39
亦不得	-10.3902
應以	-10.3907
五戒	-10.3916
是非	-10.3916
病者	-10.3928
纔	-10.3928
虛妄分別	-10.3928
至此	-10.3931
金銀	-10.3941
墮落	-10.3942
眾行	-10.3946
珍	-10.3949
勸請	-10.3969
能成	-10.3972
結集	-10.3973
▁一	-10.3973
釋成	-10.3974
見彼	-10.3975
相現	-10.3976
不疑	-10.3984
自恣	-10.3985
氷	-10.3985
增上慢	-10.3986
難得	-10.3987
涅槃者	-10.3993
如文	-10.3994
空者	-10.4001
入空	-10.4006
實智	-10.4009
常得	-10.4013
一闡提	-10.4019
當為	-10.402
知一切法	-10.4026
我亦	-10.4028
變異	-10.4032
心意識	-10.4033
實語	-10.4036
之異	-10.4037
發意	-10.404
悟入	-10.4043
於諸眾生	-10.4046
來生	-10.4046
四佛	-10.4048
彼經	-10.4052
梁	-10.4054
無所不	-10.4056
熱惱	-10.4056
初句	-10.4058
吾我	-10.4059
其事	-10.406
是為入不二法門	-10.4062
具云	-10.4063
會中	-10.4067
衣食	-10.4073
速疾	-10.4085
般	-10.4086
不可盡	-10.4092
以是義故	-10.4094
神變	-10.4097
降魔	-10.4111
楞嚴	-10.4114
諸苦	-10.4122
無疑	-10.4122
頂禮	-10.4122
無處	-10.4126
船	-10.4131
戰	-10.4133
上妙	-10.4137
亦空	-10.4139
吒	-10.4139
到彼岸	-10.4142
下方	-10.4153
取證	-10.4153
秋	-10.4157
頓悟	-10.4159
富貴	-10.4159
哩	-10.4161
冷	-10.4168
大千	-10.417
熾	-10.4172
聞佛所說	-10.4179
者則	-10.4181
尊特	-10.4182
未知	-10.4183
三禪	-10.4183
之見	-10.4186
幡	-10.4189
復生	-10.4193
▁二明	-10.4197
又有	-10.4201
穿	-10.4201
上文	-10.4201
觀眾生	-10.4206
揚	-10.421
我心	-10.421
所不能	-10.4214
禍	-10.4214
便生	-10.4214
知諸法	-10.422
資生	-10.422
秪	-10.4222
或現	-10.4231
前白佛言	-10.4237
二人	-10.4239
道人	-10.424
實叉云	-10.4241
五義	-10.4241
不能知	-10.4246
品云	-10.4246
鑒	-10.4249
彈	-10.425
同異	-10.425
之有	-10.4253
時有	-10.4257
閑	-10.4263
南無寶	-10.4263
或作	-10.4268
遵	-10.427
無所生	-10.4271
曠野	-10.4275
觀也	-10.4282
𦦨	-10.4285
論中	-10.4288
己身	-10.4289
九地	-10.4291
何異	-10.4291
作如是	-10.4295
轉輪王	-10.4297
餘人	-10.4304
上明	-10.4305
娑婆	-10.4306
隣	-10.4308
聚集	-10.4311
塵沙	-10.4314
箇	-10.4317
一品	-10.4325
惡心	-10.4327
更不	-10.4332
所知障	-10.4333
所顯	-10.4339
藏佛南無	-10.4342
撿	-10.4342
如來所	-10.4349
而為說法	-10.435
四事	-10.4351
悉令	-10.4351
又解	-10.4352
觀佛	-10.4353
諸人	-10.436
澤	-10.4366
大慈悲	-10.4369
亦以	-10.4372
常見	-10.4373
四果	-10.4378
樂說	-10.4381
上上	-10.4381
後三	-10.4383
二教	-10.4384
此皆	-10.4386
度生	-10.4389
我是	-10.4389
□□□	-10.4389
則以	-10.439
業果	-10.4393
皆不	-10.4394
今當	-10.4397
前說	-10.4398
賤	-10.44
即非	-10.4402
形色	-10.4409
觀身	-10.4413
巍巍	-10.4414
往生	-10.4415
文為二初	-10.4415
總別	-10.4422
之與	-10.4422
如日	-10.4426
正等覺	-10.4428
恃	-10.4431
若有善男子	-10.4437
能於	-10.4446
今既	-10.445
金光	-10.4452
聞經	-10.4452
沉	-10.4459
無行	-10.4463
形像	-10.4466
初住	-10.448
即從座起	-10.4488
記云	-10.4489
非常非無常	-10.4493
唯然	-10.4494
如幻夢	-10.4496
正報	-10.4498
嫉	-10.4498
即彼	-10.4504
空義	-10.4505
即成	-10.4507
釋提桓因	-10.4508
數數	-10.451
是曰智慧	-10.451
有為無為	-10.451
通相	-10.4513
愚癡凡夫	-10.452
佛答	-10.4526
現世	-10.4531
崇	-10.4533
依彼	-10.4535
悉是	-10.4545
作業	-10.4545
文三	-10.4548
誘	-10.455
月佛	-10.455
隨心	-10.4561
左右	-10.4564
肇公曰	-10.4565
作法	-10.4566
無分別智	-10.4566
無失	-10.4568
隨時	-10.4568
勤苦	-10.4568
彼以聞慧或以天眼見	-10.4569
亦不能	-10.4574
具有	-10.4575
猶未	-10.4576
是曰布施	-10.4582
二事	-10.4583
香積	-10.4584
才	-10.4585
當於	-10.4586
十萬	-10.4586
不轉	-10.4586
開化	-10.4593
尋思	-10.4596
試	-10.4598
域	-10.4598
抱	-10.4601
南無無量	-10.4609
便能	-10.4623
瞿曇	-10.4624
!』	-10.4624
亦不可得	-10.4627
化人	-10.4634
無量眾生	-10.4637
能壞	-10.4639
親友	-10.4643
病苦	-10.4644
其名	-10.4644
斷德	-10.4645
其地	-10.4646
巳上	-10.4646
是曰精進	-10.4655
一體	-10.4662
眠	-10.4663
是無常	-10.4671
實慧	-10.4672
云何得	-10.4673
惡行	-10.4674
是實	-10.4678
嗔	-10.4681
辦	-10.4683
曼殊尸利	-10.4683
劫中	-10.4684
怨家	-10.4684
證入	-10.4688
徵釋	-10.469
是曰一心	-10.4691
是曰持戒	-10.4691
敵	-10.4693
妄分別	-10.4693
八部	-10.4696
未來世	-10.4698
非異非不異	-10.4699
我者	-10.47
亦皆	-10.4702
省	-10.4704
身業	-10.4708
所趣	-10.4712
能以	-10.4716
因中	-10.4722
芽	-10.4729
所以然者	-10.473
猛	-10.4735
佛南無勝	-10.4741
此初也	-10.4747
大迦葉	-10.4747
法眼	-10.4748
下三	-10.475
女身	-10.4755
為諸眾生	-10.4756
也經言	-10.477
悲心	-10.4776
受大苦惱	-10.4778
伐	-10.4784
堅意	-10.4786
憐愍	-10.4791
江	-10.4795
一一皆	-10.4796
悉檀	-10.4803
南無大	-10.4804
通於	-10.4809
奇	-10.4811
勝劣	-10.4811
三障	-10.4816
彼云	-10.4817
慰喻	-10.4822
智德	-10.4822
乃為	-10.4825
諸法無	-10.4829
即當	-10.4832
縱廣	-10.4838
是曰忍辱	-10.4839
諸波羅蜜	-10.4842
而此	-10.4843
回	-10.4844
無等	-10.4853
其本	-10.4855
諸趣	-10.4861
是常	-10.4861
無名	-10.4861
因也	-10.4863
因地	-10.4867
諍訟	-10.4867
於餘	-10.4871
聞之	-10.4871
初發心	-10.4873
惟願	-10.4873
行也	-10.4874
聖者	-10.4874
鈍根	-10.4879
何為	-10.4879
性者	-10.4884
營	-10.4887
升	-10.4888
無憂	-10.489
作涅槃想	-10.4895
不能自	-10.4896
其文	-10.4896
悕望	-10.4904
異者	-10.4904
族	-10.4909
常念	-10.4917
畢竟空	-10.4925
釋也	-10.4925
學道	-10.4926
素	-10.4929
隨逐	-10.493
因緣生	-10.493
長壽	-10.4931
踰	-10.4932
人身	-10.4935
符	-10.4939
天曰	-10.4942
無有異	-10.495
奉持	-10.4951
善住	-10.4957
妄法	-10.4958
釋名	-10.4958
跋	-10.4959
故稱	-10.496
經意	-10.4961
樹神	-10.4963
於前	-10.4968
光菩	-10.4971
▁初釋	-10.4978
妙色	-10.4979
扶	-10.4985
上品	-10.4986
聲聞辟支佛	-10.4988
譏	-10.4989
不肯	-10.4991
溺	-10.4994
行佛	-10.5001
哀愍	-10.5008
殺害	-10.5009
二十四	-10.5014
應時	-10.5016
水中	-10.5016
斷諸	-10.502
未生	-10.5022
此問	-10.5026
善修	-10.5028
說一切法	-10.5031
滅者	-10.5032
言辭	-10.5032
緊那羅	-10.5033
書寫	-10.5037
如來身	-10.5039
妙香	-10.5039
莖	-10.5041
妙吉祥	-10.5041
祇	-10.5041
尺	-10.5046
毒蛇	-10.505
須知	-10.5052
五力	-10.5053
闡提	-10.5054
而取	-10.5055
即真	-10.5057
如前所說	-10.5059
性非性	-10.5063
資糧	-10.5064
三惡道	-10.5068
皆大歡喜	-10.5069
夢中	-10.5073
罵	-10.5074
四土	-10.5075
惡口	-10.5076
偷盜	-10.5076
坐禪	-10.5079
墜	-10.5084
善心	-10.5084
▁南无無垢	-10.5086
法華經	-10.5086
三月	-10.5087
▁南无淨	-10.509
恨	-10.5091
故問	-10.5092
此說	-10.5095
諸幻	-10.5101
何等為	-10.5106
諸教	-10.5108
後明	-10.511
不過	-10.5113
剋	-10.5115
護世	-10.5122
得成	-10.5122
恭敬供養	-10.5136
休	-10.5137
䟽	-10.5145
均	-10.5149
從何	-10.5149
延	-10.515
觀此	-10.5157
不明	-10.5159
雙非	-10.516
盖	-10.5162
三品	-10.5167
如今	-10.5171
三十六	-10.5171
魏	-10.5173
所出	-10.5175
碎	-10.5183
別明	-10.5184
為涅槃	-10.5184
淵	-10.5186
聖賢	-10.5188
糞	-10.5189
山中	-10.5193
無有是處	-10.5193
圖	-10.5194
有七	-10.5194
能取	-10.5197
之想	-10.5199
一行	-10.5209
終教	-10.5217
後一	-10.522
山峯	-10.5221
踊	-10.5224
神呪	-10.5226
勝法	-10.5231
為其	-10.5232
六地	-10.5236
理事	-10.5236
九十	-10.5239
利樂	-10.5245
無主	-10.5249
娛樂	-10.5252
我所說	-10.5256
二門	-10.5258
嫌	-10.5264
令我	-10.5268
解說	-10.5268
無限	-10.5271
於未來世	-10.5272
知此	-10.5274
各異	-10.5278
句義	-10.528
漂	-10.5282
於眾生	-10.5284
計我	-10.5286
世尊告	-10.5286
二答	-10.5291
和尚	-10.5294
至誠	-10.5301
開發	-10.5307
癡愛	-10.5308
即入	-10.5312
之曰	-10.5313
絕待	-10.5316
諸師	-10.5316
遷	-10.5322
正宗	-10.5326
五逆	-10.5328
不亂	-10.5329
歡	-10.5335
空性	-10.5337
助道	-10.5338
問佛	-10.5338
精勤	-10.5339
所覆	-10.534
生也	-10.5341
法無	-10.5342
包	-10.5345
身者	-10.5349
阿含	-10.5353
今約	-10.5356
為我說	-10.5359
禪那	-10.5359
非時	-10.5361
出體	-10.5364
體是	-10.537
不來	-10.5377
業相	-10.5382
論師	-10.5387
解脫者	-10.5388
外法	-10.5388
甲	-10.5388
叉	-10.5389
阿僧祇劫	-10.539
若說	-10.5393
轉依	-10.5393
峯	-10.5394
不觀	-10.5396
如海	-10.5397
即滅	-10.5402
所入	-10.5402
何能	-10.5406
則生	-10.5422
攬	-10.5425
無病	-10.5426
之病	-10.5428
煩	-10.5429
現量	-10.5431
窟	-10.5433
如下	-10.5435
則得	-10.5436
勸修	-10.5437
而作是言	-10.5438
然燈	-10.5439
總相	-10.5439
無眾生	-10.5442
別名	-10.5449
欲見	-10.5449
乏	-10.5449
口業	-10.5461
佛慧	-10.5463
玉	-10.5463
之間	-10.5465
佛出世	-10.5469
愁	-10.5479
普遍	-10.5496
聽聞	-10.5497
智佛南無	-10.5499
率	-10.55
功德佛南無	-10.5501
危	-10.5505
中生	-10.5507
當生	-10.5508
三十七品	-10.5508
與諸	-10.5508
奇特	-10.5509
游	-10.5515
毫	-10.5516
眾緣	-10.5518
述曰	-10.5519
然彼	-10.5525
婬欲	-10.5528
不應食肉	-10.5531
獨覺	-10.5532
十方佛	-10.5532
五色	-10.5532
舊云	-10.5534
地上	-10.5536
意生身	-10.5538
抑	-10.554
非唯	-10.5541
威德佛	-10.5542
真法	-10.5545
而立	-10.5547
佛南無智	-10.5548
但約	-10.555
稱歎	-10.555
實義	-10.555
狐疑	-10.555
阿那含	-10.5551
束	-10.5559
無動	-10.556
或言	-10.556
當以	-10.5561
常以	-10.5562
之旨	-10.5566
心即	-10.5568
你	-10.5569
諸魔	-10.557
願力	-10.557
不但	-10.5575
與此	-10.5581
起行	-10.5581
三世諸佛	-10.5582
彼等	-10.5586
體用	-10.5588
▁五	-10.5596
有疾	-10.56
彼土	-10.5606
天帝釋	-10.5609
此即初也	-10.5612
說也	-10.5612
此五	-10.5618
精舍	-10.563
恣	-10.563
說為	-10.5631
無方	-10.5632
為令	-10.5634
不息	-10.5636
常不思議	-10.5637
釋之	-10.5637
等事	-10.5638
穢土	-10.5644
通名	-10.5645
行故	-10.5645
謂彼	-10.5647
而後	-10.5649
有法	-10.5653
觀智	-10.5654
伴	-10.5658
顯理	-10.566
百千萬億	-10.566
英	-10.5661
謙	-10.5662
不合	-10.5664
胡	-10.5666
輕安	-10.5668
種種諸	-10.5668
未甞	-10.5669
染法	-10.5673
有無量	-10.5675
最為	-10.5675
之苦	-10.5681
令諸眾生	-10.5682
凡有	-10.5685
造業	-10.5691
亦復然	-10.5695
此非	-10.5696
彼時	-10.5701
無數劫	-10.5702
異於	-10.5705
香氣	-10.5708
修羅	-10.5708
上根	-10.5709
得大	-10.5718
能行	-10.572
如是之人	-10.5721
所照	-10.5723
採	-10.5731
功能	-10.5734
雖是	-10.5737
▁○	-10.5738
兔角	-10.5739
雷	-10.574
業識	-10.574
復說	-10.5742
我以	-10.5748
稱為	-10.5753
是三昧	-10.5758
一部	-10.5761
應當修學	-10.5763
清淨故	-10.5773
是空	-10.5775
在前	-10.5777
煙	-10.5781
所由	-10.5787
大鈔云	-10.579
殘	-10.5793
不可量	-10.5798
無過	-10.5799
是故我說	-10.5799
趣向	-10.5803
無益	-10.5804
法爾	-10.5804
悉知	-10.5805
侍者	-10.5808
復為	-10.5808
於後	-10.5814
觀者	-10.5815
此為	-10.5816
無垢稱	-10.5818
華佛	-10.5819
截	-10.5826
盧	-10.5826
有二義	-10.5827
佛南無無邊	-10.5827
難思	-10.5829
天主	-10.583
受報	-10.5836
金剛藏	-10.5838
永滅	-10.584
自見	-10.5842
五塵	-10.5846
為種	-10.5848
捉	-10.5852
涅槃經	-10.5853
四等	-10.5853
風吹	-10.5854
有緣	-10.5855
婬怒癡	-10.5856
得清淨	-10.5859
護念	-10.5864
披	-10.5866
請佛	-10.5869
煖	-10.5869
祭	-10.587
禮敬	-10.5876
即生	-10.5878
中有二	-10.5879
執有	-10.588
言說妄想	-10.5885
淨覺	-10.5885
未見	-10.5895
說偈	-10.5896
輕重	-10.5897
能離	-10.59
能捨	-10.59
發明	-10.5902
十惡	-10.5902
弘誓	-10.5902
生佛	-10.5904
悉見	-10.5905
賜	-10.5906
為諸	-10.5908
真珠	-10.591
大城	-10.5917
利益眾生	-10.5918
深入	-10.5921
六十二見	-10.5924
出家者	-10.5932
智也	-10.5934
三智	-10.594
不別	-10.5943
作禮	-10.5945
村	-10.5946
證涅槃	-10.5949
禪師	-10.5949
憑	-10.595
聰明	-10.595
雖不	-10.5962
令知	-10.597
隨宜	-10.5978
皆因	-10.5978
箭	-10.5982
心相	-10.5985
誨	-10.599
以智慧	-10.5991
是故大慧	-10.5993
與佛	-10.5996
早	-10.5999
乃得	-10.5999
皆非	-10.6005
無物	-10.6007
自業	-10.6009
生生	-10.6014
不顛倒	-10.6016
深淺	-10.6019
泉	-10.602
合成	-10.6021
惜	-10.6027
若心	-10.6027
大德須菩提	-10.6028
止息	-10.6029
無差	-10.6031
異生	-10.6032
不曾	-10.6034
眾生心	-10.6039
又言	-10.604
補處	-10.6042
種善根	-10.6046
怛	-10.6047
外性非性	-10.6047
知法	-10.6049
自謂	-10.6051
餘處	-10.606
而常	-10.6062
五眼	-10.6065
如實修行	-10.6068
門也	-10.607
得無生忍	-10.6071
唯佛	-10.6075
俱舍	-10.6075
真金	-10.6077
唯說	-10.6078
給	-10.6079
錢	-10.6087
其福	-10.6105
願佛	-10.6111
士夫	-10.6112
諸大菩薩	-10.6114
健	-10.6115
性淨	-10.6117
弱	-10.6117
權智	-10.6118
二問	-10.612
佛世尊	-10.6128
倚	-10.6143
來者	-10.6149
王如來南無	-10.615
玄義	-10.615
猶是	-10.6152
瞻	-10.6154
有八	-10.6154
一偈	-10.6156
滅除	-10.6157
魔王	-10.6159
釋義	-10.6159
作是思惟	-10.616
有說	-10.616
性也	-10.6162
皆具	-10.6163
溫	-10.617
法華云	-10.6172
髻	-10.6175
迎	-10.6176
稻	-10.6176
差別相	-10.6178
若其	-10.618
雖行	-10.619
為之	-10.619
對曰	-10.6193
何由	-10.6195
偈頌	-10.6198
由前	-10.62
應有	-10.6202
苦集	-10.6202
淨行	-10.6202
悉得	-10.6203
佉	-10.6205
諸佛法	-10.6208
六處	-10.621
堪任	-10.6212
其國	-10.6215
當作	-10.6216
師子座	-10.6217
諦聽諦聽	-10.6218
疾病	-10.6221
二地	-10.6223
大意	-10.6224
大疏	-10.6225
眾惡	-10.6225
不立	-10.6226
一事	-10.6226
佛弟子	-10.6226
上句	-10.6227
龍樹	-10.623
稱性	-10.6237
我言	-10.6237
思之	-10.6243
淚	-10.6246
諸菩薩等	-10.6248
惱亂	-10.6256
心體	-10.6257
果也	-10.6261
所斷	-10.6262
▁南无無	-10.6263
此喻	-10.6269
因相	-10.6269
不通	-10.627
。』」	-10.6272
廣如	-10.6274
覓	-10.6277
所持	-10.6277
迦旃延	-10.6279
湯	-10.6279
暴	-10.6281
今時	-10.6283
又以	-10.6284
海中	-10.6284
擔	-10.6285
今者	-10.6287
似有	-10.629
全體	-10.6292
心數	-10.6294
聚佛	-10.6297
經王	-10.6297
道中	-10.6302
與我	-10.6302
所愛	-10.6303
二十一	-10.6304
毘琉璃	-10.6305
今欲	-10.6307
之語	-10.6309
大苦	-10.6309
必定	-10.631
三門	-10.631
遠離諸	-10.6314
初分科	-10.6315
於三界	-10.6315
集諦	-10.6316
兄弟	-10.6316
鑛	-10.6319
湛然	-10.6323
之子	-10.6323
三相	-10.6328
新說云	-10.6335
所樂	-10.6336
五句	-10.6339
異故	-10.6341
自念	-10.6344
後有	-10.6344
賴耶	-10.6347
既知	-10.6348
門者	-10.6348
所可	-10.6351
佛界	-10.6362
困	-10.6363
與之	-10.6365
映	-10.6371
陵	-10.6373
憙	-10.6375
菩提涅槃	-10.6376
之別	-10.638
舒	-10.6382
則成	-10.6382
依法	-10.6382
於心	-10.6382
自生	-10.6387
徑	-10.6392
眾生界	-10.6392
能發	-10.6394
之辭	-10.6397
正顯	-10.6399
羅網	-10.64
推求	-10.6401
萬歲	-10.6401
香華	-10.6401
是智	-10.6402
能與	-10.6403
何緣	-10.6404
曼殊室利	-10.6408
逼迫	-10.641
諸方	-10.6412
用之	-10.6412
后	-10.6413
事故	-10.6413
善巧方便	-10.6413
競	-10.6414
騰	-10.6415
菩薩白佛言	-10.6416
不可言	-10.6418
故成	-10.6423
如來說	-10.6426
鏡像	-10.6427
諸欲	-10.6428
為法	-10.6441
成立	-10.6444
那羅延	-10.6444
別說	-10.6445
疾得	-10.6449
生疑	-10.6453
俱是	-10.6453
如實了知	-10.6454
離自性	-10.6454
▁南无香	-10.6455
見諦	-10.6455
淨信	-10.6459
無起	-10.6461
冠	-10.6469
摩羅	-10.6474
攝一切	-10.6477
得度	-10.6477
愧	-10.6478
五無間	-10.6479
釋論	-10.6481
道諦	-10.6485
恩愛	-10.6488
辟支佛南無	-10.6495
作此	-10.6499
正使	-10.65
欲知	-10.6504
麥	-10.6505
兩舌	-10.6505
以諸	-10.6508
前世	-10.651
勤精進	-10.651
復於	-10.6511
皆應	-10.6513
也然	-10.6513
非色	-10.6517
為道	-10.6518
疏中	-10.6526
食之	-10.6527
二百	-10.6527
之位	-10.653
悔過	-10.6531
歸於	-10.6535
麻	-10.6536
自性清淨	-10.6536
狹	-10.6536
體也	-10.6539
令心	-10.6539
頻	-10.654
三昧樂	-10.654
停	-10.6541
頗	-10.6547
篇	-10.655
諂曲	-10.655
送	-10.655
之功	-10.655
何須	-10.6551
財施	-10.6551
相隨	-10.6553
無減	-10.6554
餘三	-10.6556
內身	-10.656
佛陀	-10.656
有差別	-10.6561
生彼	-10.6563
若使	-10.6563
如火	-10.6564
遍照	-10.6566
四智	-10.6569
我已	-10.657
如是說	-10.6572
巳下	-10.6574
放光明	-10.6574
如是名為	-10.6578
之患	-10.6579
相貌	-10.6582
唯除	-10.6582
發生	-10.6582
無取	-10.6587
正理	-10.6592
魏譯云	-10.66
諸菩薩眾	-10.6602
百劫	-10.6603
在此	-10.6605
結使	-10.6605
無受	-10.6605
佛南無普	-10.6607
智佛	-10.6615
毛孔	-10.6618
貢高	-10.662
一生補處	-10.6624
不可得故	-10.6626
所能	-10.6627
為證	-10.6629
諸苾芻	-10.663
從於	-10.663
其數	-10.6631
無際	-10.6636
教授	-10.6637
性德	-10.6637
妙吉祥菩薩	-10.6638
為求	-10.664
見諸	-10.6643
中云	-10.6645
唯然受教	-10.6649
斷疑	-10.6649
可畏	-10.6652
不欲	-10.6656
五十	-10.6658
照明	-10.6665
佛之	-10.6668
憍	-10.6672
纏縛	-10.6675
音樂	-10.6676
以釋	-10.6677
幸	-10.6678
化物	-10.6681
膝	-10.6681
尸羅	-10.6683
浪	-10.6688
德本	-10.6698
丈六	-10.67
出生死	-10.6704
了別	-10.6705
有種種	-10.671
解了	-10.6711
惠施	-10.6711
抄	-10.6711
起諸	-10.6712
爾時世尊告	-10.6718
下約	-10.672
八千	-10.6721
遊戲受樂	-10.6724
分別說	-10.6727
甞	-10.6727
無所住	-10.6728
鬪	-10.673
心生歡喜	-10.6731
眾魔	-10.6737
有生滅	-10.6737
法忍	-10.6745
自作	-10.6746
為說法	-10.6748
可謂	-10.6753
虗偽	-10.6755
是何	-10.6756
變現	-10.676
肩	-10.6765
諸緣	-10.6766
一切處	-10.677
作是說	-10.6771
九界	-10.6771
羣	-10.6772
藥叉	-10.6772
滿中	-10.6772
是故名為	-10.6774
側	-10.6776
罪業	-10.6776
及諸菩薩	-10.6778
月光	-10.6779
此初	-10.6782
上中下	-10.6783
亦滅	-10.6785
從彼	-10.6786
見分	-10.679
繫念	-10.6795
豎	-10.6795
之宗	-10.6796
莊嚴佛	-10.6799
療	-10.6804
十法	-10.6807
但言	-10.681
福慧	-10.6811
孔雀	-10.6813
佛像	-10.6814
十八界	-10.6816
現相	-10.6818
結云	-10.6821
四明聰講師	-10.6822
世界名	-10.6824
藏通	-10.6825
宴坐	-10.6825
註云	-10.6826
所覺	-10.6828
其光	-10.6828
因生	-10.6833
恭	-10.6834
初示	-10.6842
異也	-10.6843
圭峯	-10.6844
既爾	-10.6846
便有	-10.6847
實非	-10.6851
寶莊嚴	-10.6851
除去	-10.6854
令諸	-10.6858
逸	-10.6859
圍	-10.6859
隨眠	-10.6861
擲	-10.6861
晝	-10.6863
菩薩亦爾	-10.687
地水火風	-10.688
三藐三佛陀	-10.6885
秦	-10.6887
恒河沙	-10.6896
深妙	-10.6897
惡法	-10.6898
厄	-10.6899
上首	-10.6905
詐	-10.6912
瑞	-10.6913
下句	-10.6916
法說	-10.6917
正答	-10.6918
自性相	-10.6919
植	-10.6922
何謂為	-10.6922
有因	-10.6923
柔	-10.6928
此上	-10.6929
報佛	-10.6931
成就眾生	-10.6933
身佛	-10.6935
子曰	-10.6935
五體投地	-10.6937
孝順	-10.6937
。」《	-10.6944
與其	-10.6946
佛種	-10.6949
眉	-10.6949
總標	-10.6951
手執	-10.6955
損減	-10.6956
政	-10.6958
帝王	-10.6958
序分	-10.6958
來意	-10.696
空室	-10.6961
鄙	-10.6968
了因	-10.6971
十千	-10.6976
永無	-10.6979
又此	-10.698
諸物	-10.6986
盈	-10.6989
彼論	-10.6992
擾	-10.6994
為樂	-10.6998
空慧	-10.7
空空	-10.7003
晉	-10.7005
生死之	-10.7007
此理	-10.7009
雖然	-10.7009
二示	-10.7012
階	-10.702
妙音	-10.702
求佛	-10.7023
叉手	-10.7031
皆如	-10.7031
密意	-10.7031
大經云	-10.7033
令眾生	-10.7035
修因	-10.7038
辨才	-10.7039
作惡	-10.704
所須	-10.7045
世法	-10.7053
因是	-10.7054
救濟	-10.7061
至于	-10.7061
愚者	-10.7064
權教	-10.7065
法本	-10.7065
什公	-10.7065
尊貴	-10.7075
眼佛南無	-10.7076
天神	-10.7076
髓	-10.7084
奴	-10.7088
即法身	-10.7089
佛菩提	-10.709
伊	-10.7091
等故	-10.7092
衰惱	-10.7095
之殊	-10.7097
所熏	-10.7101
離幻	-10.7104
久近	-10.7104
剎利	-10.7104
薩婆若	-10.7106
相生	-10.7106
千歲	-10.7108
女言	-10.7108
聞如是	-10.711
莫能	-10.7114
第八識	-10.7115
因者	-10.7116
俱胝	-10.7118
隨其所	-10.7119
與眾生	-10.7123
三土	-10.7125
無此	-10.7128
酪	-10.713
一切法無	-10.713
佛復告	-10.7131
詰	-10.7134
寬	-10.7135
寤	-10.7135
西域	-10.7135
咎	-10.7139
諸論	-10.7139
自說	-10.714
那由他	-10.714
心起	-10.7143
無罪	-10.7144
若生人中	-10.7147
自得	-10.7148
眾善	-10.7148
故先	-10.7149
內證	-10.715
體空	-10.7154
諸善	-10.7158
蘭	-10.7158
一切境界	-10.716
復能	-10.7166
之聲	-10.7169
迦羅	-10.7171
見如來	-10.7174
顏	-10.7175
若論	-10.7176
能造	-10.7176
優波離	-10.718
本具	-10.7185
作諸	-10.7188
四生	-10.7188
得樂	-10.719
諸大眾	-10.7195
法合	-10.7205
生空	-10.7206
一切大眾	-10.7208
然而	-10.7209
正教	-10.7213
對待	-10.7214
自在王佛	-10.7219
勝義諦	-10.722
尚不	-10.722
應是	-10.7221
緩	-10.7224
嬰兒	-10.7227
產	-10.7227
余	-10.7229
怨賊	-10.7233
道也	-10.7242
妙智	-10.7246
我人	-10.7249
而求	-10.7249
五通	-10.726
初果	-10.7263
生厭離	-10.7264
考	-10.7265
不犯	-10.7269
六師	-10.727
終日	-10.7273
象馬	-10.7273
宰	-10.7274
見法	-10.7274
三名	-10.7274
斯經	-10.7275
是如來	-10.7276
閻浮	-10.7282
六事	-10.7287
之色	-10.7293
律儀	-10.7296
故經云	-10.7297
位中	-10.7297
小兒	-10.73
非作	-10.73
娑婆世界	-10.7304
頗梨	-10.7306
▁初約	-10.731
饒	-10.7312
非人	-10.7315
若非	-10.7317
問訊	-10.7317
中之	-10.7318
屋	-10.7321
空假	-10.7322
周匝	-10.7324
佛意	-10.7328
久住	-10.7332
寂照	-10.7333
以大悲	-10.7335
非身	-10.7335
欲使	-10.7336
彼有	-10.7338
如金	-10.7343
為勝	-10.7345
即見	-10.7346
能解	-10.7348
解者	-10.7352
滅定	-10.7357
教人	-10.7357
荷	-10.7358
忉利天	-10.7358
等心	-10.7361
工	-10.7362
合掌恭敬	-10.7365
武	-10.7366
胸	-10.7371
犯戒	-10.7371
苦果	-10.7371
所歸	-10.7372
於世	-10.7373
▁次	-10.7376
總名	-10.7377
行願	-10.7379
如是種種	-10.7383
善來	-10.7387
▁初標	-10.7389
一音	-10.7396
城中	-10.74
無以	-10.7402
二身	-10.7402
之一	-10.7404
或在	-10.7409
高廣	-10.7411
前明	-10.7412
三解脫	-10.7414
刻	-10.7415
而不知	-10.7415
焦	-10.7417
寫	-10.7417
忻	-10.7426
變為	-10.7429
一千	-10.7434
為真	-10.7437
如水中月	-10.7438
國中	-10.7442
生長	-10.7443
為四	-10.7445
無厭足	-10.7446
天龍	-10.7452
疏二	-10.7452
誰能	-10.7455
善得	-10.7455
一切世界	-10.7462
是故如來	-10.7464
根本無明	-10.7469
更相	-10.747
天魔	-10.7471
主宰	-10.7472
而不能	-10.7473
後生	-10.7474
威佛	-10.7476
示其	-10.7479
僧寶	-10.7482
豈能	-10.7484
隨彼	-10.7485
常當	-10.7485
從初	-10.7485
護國	-10.7487
雙照	-10.7489
藥師	-10.7494
聞名	-10.7498
而以	-10.7504
如次	-10.751
沒生	-10.7512
優劣	-10.7512
▁南无日	-10.7512
未嘗	-10.7516
四時	-10.7517
分三	-10.7517
付囑	-10.7519
大論云	-10.752
頌云	-10.7522
史	-10.7523
飯食	-10.7523
筋	-10.7528
有時	-10.7535
華香	-10.7536
今我	-10.7537
如風	-10.7539
本迹	-10.754
此智	-10.7542
便為	-10.7545
針	-10.7545
問也	-10.755
慚	-10.7556
蜂	-10.7557
無上道	-10.7557
是故菩薩	-10.7562
而說頌曰	-10.7563
出現於世	-10.7563
斫	-10.7569
下品	-10.7572
為佛事	-10.7578
令住	-10.7579
入不二法門	-10.758
恒常	-10.7581
圓照	-10.7584
為難	-10.7587
能照	-10.7587
久遠	-10.7588
無障	-10.7589
於大眾中	-10.7599
如月	-10.7599
逈	-10.76
正為	-10.7602
雞	-10.7603
優	-10.7609
普現	-10.7613
正意	-10.7616
瞋恨	-10.7616
應作	-10.7617
初總	-10.7618
證真	-10.7624
佛國土	-10.7628
身分	-10.763
不許	-10.7632
世間法	-10.7633
長夜	-10.7634
枝葉	-10.7635
地大	-10.7638
六句	-10.7639
彼諸菩薩	-10.7642
之慧	-10.7644
彼則	-10.7645
若生	-10.7647
皇	-10.765
難陀	-10.7652
見色	-10.7653
現識	-10.7656
策	-10.7657
虛偽	-10.7657
融通	-10.7657
利鈍	-10.7662
以上	-10.7662
四義	-10.7666
不分	-10.7666
貌	-10.7667
臥具	-10.7669
此謂	-10.7673
汁	-10.7675
如其	-10.7677
是有	-10.7678
此一	-10.7678
婆沙	-10.7681
嬈	-10.7683
大悲世尊	-10.7684
▁南无蓮花	-10.7684
隨類	-10.7685
不愛	-10.7686
一切善法	-10.7686
二從	-10.7686
若彼	-10.7696
華嚴經	-10.7697
既得	-10.7703
能使	-10.7703
顯說	-10.7706
慧菩	-10.7707
是即	-10.7707
名言	-10.7708
雖知	-10.7709
燈明	-10.7709
尤	-10.771
皆言	-10.7711
歡喜踊躍	-10.7718
其德	-10.7718
脈	-10.7718
無生法忍	-10.7719
一切悉	-10.772
為喻	-10.7723
由斯	-10.7724
未必	-10.7726
斷絕	-10.7729
遠離一切	-10.7733
觀成	-10.7734
恥	-10.7738
弟子等	-10.7743
見聞覺知	-10.775
陀羅尼門	-10.7751
開敷	-10.7754
義同	-10.7758
功德如來南無	-10.7759
徧滿	-10.7763
海水	-10.7764
此第二	-10.7764
占	-10.7766
意根	-10.7769
正解	-10.777
不順	-10.7779
不計	-10.778
是法身	-10.7781
休息	-10.7782
四聖諦	-10.7784
緣故	-10.7792
此識	-10.7794
廟	-10.7794
教門	-10.7795
行施	-10.7799
即假	-10.78
餘經	-10.7802
醍醐	-10.7806
與人	-10.7809
假說	-10.7809
謀	-10.7811
四魔	-10.7814
弓	-10.7815
三重	-10.7816
猶如虗空	-10.7819
由於	-10.7819
或因	-10.7823
寶珠	-10.7823
佛告文殊師利	-10.7827
則無有	-10.7828
猗	-10.7829
見非	-10.783
4	-10.7832
為主	-10.7833
墮於地獄	-10.7833
大乘法	-10.7838
意生	-10.7838
五品	-10.784
義理	-10.7847
摩睺羅伽	-10.7849
右膝著地	-10.7849
有作	-10.7851
離念	-10.7852
之義也	-10.7855
教他	-10.7858
知之	-10.7858
一門	-10.7858
嘉	-10.786
正當	-10.7862
福報	-10.7863
▁南无虛空	-10.7864
耀	-10.7867
豆	-10.7867
山頂	-10.7868
謂是	-10.7869
必當	-10.7873
多人	-10.7874
四分	-10.7874
如是法	-10.7877
斯陀含	-10.7879
正思惟	-10.788
梵天言	-10.7883
喻如	-10.7884
生相	-10.7885
數量	-10.7887
踊躍	-10.7889
所計	-10.7889
謂諸菩薩	-10.7896
作是言	-10.7899
有佛	-10.7901
值佛	-10.7901
還復	-10.7907
鄉	-10.7908
一佛	-10.791
遍計	-10.7913
呪術	-10.7915
約教	-10.7915
丘	-10.7916
寶華	-10.792
以為莊嚴	-10.7921
一切佛	-10.7923
生天上	-10.7926
以理	-10.7929
亦通	-10.7931
恒河	-10.7935
若有人	-10.7936
若行	-10.7939
我之	-10.7941
所施	-10.7943
不證	-10.7945
眼根	-10.7948
三識	-10.7949
醜	-10.795
四緣	-10.7951
坑	-10.7951
被呵	-10.7953
弗	-10.7955
若有菩薩	-10.7956
勸助	-10.7956
各自	-10.7958
不殊	-10.7958
而論	-10.796
麗	-10.7962
偏真	-10.7963
深廣	-10.7964
拜	-10.7964
以喻	-10.7967
調御	-10.7967
中初	-10.7984
楞伽王	-10.7984
不以為	-10.7986
一義	-10.7987
智度	-10.7989
阿賴耶識	-10.799
二十八	-10.7994
報障	-10.7995
威光	-10.8
雪	-10.8001
度人	-10.8001
之機	-10.8002
無生無滅	-10.8003
循	-10.8004
薄伽梵	-10.8005
不盜	-10.8006
具三	-10.8006
不由	-10.8006
不等	-10.8007
冤	-10.8007
冀	-10.801
殖	-10.8011
於一切眾生	-10.8016
育	-10.8018
丈	-10.8019
大會	-10.802
爭	-10.8021
諸善根	-10.8021
不正	-10.8022
一問	-10.8024
天中天	-10.8024
薰	-10.8025
終無	-10.8028
能了	-10.8028
通釋	-10.803
講說	-10.8033
餘皆	-10.8034
無滯	-10.8035
之下	-10.8038
空理	-10.8042
口中	-10.8049
行善	-10.8053
道行	-10.8054
併	-10.8054
兔	-10.8058
感應	-10.806
勝利	-10.8061
頭陀	-10.8063
非因	-10.8064
及其	-10.8066
腦	-10.8071
承事	-10.8071
人見	-10.8073
所欲	-10.8075
黠慧	-10.8076
從佛	-10.8081
為佛作禮	-10.809
池中	-10.809
為自	-10.8096
是大	-10.8098
善說	-10.8098
悅樂	-10.8099
深遠	-10.8099
長跪叉手	-10.8102
是苦	-10.8107
時眾	-10.8107
下次	-10.8108
未悟	-10.8111
諷誦	-10.8111
灌	-10.8112
閻魔羅人	-10.8113
中觀	-10.8113
當觀	-10.8115
紙	-10.8116
心懷	-10.8118
佛南無師子	-10.8118
井	-10.8119
六情	-10.812
千萬	-10.8123
出三界	-10.8124
諸凡夫	-10.8124
道德	-10.8128
十法界	-10.8131
天竺	-10.8131
比丘𡰱	-10.8138
五趣	-10.8148
南無善	-10.8149
何者為	-10.8151
行菩薩	-10.8152
為佛	-10.8156
動搖	-10.8159
自下第三	-10.8159
諸佛所	-10.816
所著	-10.816
大同	-10.8161
愛心	-10.8162
假觀	-10.8164
世世	-10.8164
經行	-10.8165
明淨	-10.8168
二觀	-10.8168
百八	-10.8172
以是故	-10.8173
三昧正受	-10.8174
右手	-10.8175
得不退轉	-10.8175
二別	-10.8176
內有	-10.8177
兄	-10.8183
幢幡	-10.8183
四重	-10.8184
種種莊嚴	-10.8187
頃	-10.8192
之報	-10.8192
劫數	-10.8193
禮佛	-10.8194
箋	-10.8197
對於	-10.8198
繞	-10.8202
業果報	-10.8202
審諦	-10.8202
色陰	-10.8203
雖殊	-10.8203
慎	-10.8204
筆	-10.8205
識藏	-10.821
誑惑	-10.8211
外緣	-10.8214
安慰	-10.8215
見是	-10.8219
乃以	-10.8219
欺誑	-10.8222
胎藏	-10.8223
不至	-10.8224
深信	-10.8226
精進佛	-10.8228
若能如是	-10.8229
憂苦	-10.8233
為王	-10.8235
業故	-10.8237
阿賴耶	-10.8237
比丘僧	-10.8244
於其中	-10.8245
首楞嚴	-10.8249
初生	-10.825
教中	-10.825
而受	-10.8251
不礙	-10.8252
不遠	-10.8256
眾色	-10.8256
在彼	-10.8257
是無	-10.8259
迦樓羅	-10.8259
克	-10.8263
四病	-10.8263
死屍	-10.8263
怨敵	-10.8265
彼外道	-10.8265
袈裟	-10.8267
而於	-10.8267
浴	-10.8269
如華嚴	-10.827
畢竟無	-10.8275
生老病死	-10.8275
乃有	-10.8278
之眾	-10.8278
結勸	-10.8279
普眼	-10.8281
水月	-10.8282
將欲	-10.8282
神通力	-10.8286
安置	-10.8287
竹	-10.8291
圓覺性	-10.8291
而可	-10.83
三會	-10.8303
諸禪	-10.8306
發行	-10.8306
訛	-10.8307
槃	-10.831
後時	-10.8311
頂上	-10.8314
真實義	-10.8315
獻	-10.8318
能緣	-10.8319
墮地獄	-10.8319
四陰	-10.832
爪	-10.832
開合	-10.8321
善道	-10.8321
妄生	-10.8321
為無	-10.8323
雖說	-10.8324
何時	-10.8325
二禪	-10.8328
渠	-10.8329
始教	-10.8331
拔苦	-10.8334
愚夫妄想	-10.8337
其子	-10.8337
若我	-10.8339
速得	-10.834
此以	-10.8343
婆羅	-10.8347
一性	-10.8347
但見	-10.8347
常寂	-10.835
對法	-10.835
智論	-10.8352
猶如虛空	-10.8354
九種	-10.8354
則墮	-10.8355
世尊說	-10.8359
裂	-10.8364
不一	-10.8364
愛著	-10.8364
之要	-10.8365
多種	-10.8368
滋	-10.837
富樓那	-10.8372
尋伺	-10.8374
奴婢	-10.8375
不喜	-10.8376
賓	-10.8378
不可計	-10.8379
以神力	-10.8383
前五	-10.8383
結示	-10.8384
壞滅	-10.8385
取其	-10.8385
成一	-10.8386
又彼	-10.8386
水火	-10.8388
供養諸佛	-10.8389
是等	-10.8393
見故	-10.8394
此菩薩	-10.8396
終始	-10.8399
與前	-10.8399
次云	-10.8402
動轉	-10.8408
網明	-10.8408
婆伽婆	-10.841
三摩鉢提	-10.8411
一章	-10.8411
之流	-10.8413
聞慧	-10.8414
百年	-10.8415
力佛	-10.8416
外有	-10.8416
此正	-10.8417
彼比丘	-10.8417
顯真	-10.842
羅睺羅	-10.842
創	-10.8421
為所	-10.8422
彼見聞知	-10.8424
本行	-10.8424
諸天人	-10.8424
遶	-10.8425
見於	-10.8427
震動	-10.8427
佛一百	-10.8428
百千萬	-10.8428
學人	-10.8428
示之	-10.8429
步佛南無	-10.843
綺語	-10.8432
說此經	-10.8432
舟	-10.8432
首楞嚴三昧	-10.8435
咽	-10.8436
無事	-10.844
二十七	-10.844
而作佛事	-10.8441
極微	-10.8441
百由旬	-10.8441
佛告舍利弗	-10.8447
九品	-10.8448
除諸	-10.8448
所感	-10.845
菩薩阿耨多羅三藐三菩提記	-10.8456
諸乘	-10.8462
有五種	-10.8464
若入	-10.8464
之罪	-10.8464
之內	-10.8464
身為	-10.8467
未至	-10.8467
之數	-10.847
勒	-10.8476
篋	-10.8478
是則名為	-10.8478
傾	-10.8482
明義	-10.8482
射	-10.8483
疏文	-10.8485
已來	-10.849
卷第四	-10.8492
天佛	-10.8493
南無普	-10.8495
淨妙	-10.8496
善見	-10.8497
受身	-10.8497
空閑	-10.8499
故使	-10.8507
皆共	-10.851
宗通	-10.851
非實有	-10.8512
商	-10.8512
非如	-10.8512
月佛南無	-10.8513
逝	-10.8513
所云	-10.8514
道心	-10.8517
破無明	-10.8519
欲顯	-10.852
心法	-10.8523
二分	-10.8524
▁南无華	-10.8526
亦名為	-10.8528
德菩	-10.8528
先後	-10.8529
總明	-10.8531
有量	-10.8531
諸色	-10.8532
灑	-10.8534
如說修行	-10.8535
初正明	-10.8535
化為	-10.8537
實體	-10.8538
臭穢	-10.854
分析	-10.8541
鎧	-10.8542
俱有	-10.8544
寸	-10.8544
施主	-10.8547
悉為	-10.8549
卷第三	-10.8551
願我	-10.8551
心王	-10.8554
種種色	-10.8556
三百	-10.8558
牛角	-10.8559
通明	-10.8559
爾時大慧菩薩摩訶薩	-10.856
以智	-10.8566
顯揚	-10.8566
有義	-10.8567
淨國	-10.8567
離言	-10.8568
不安	-10.8572
種種異	-10.8573
用此	-10.8573
巳得	-10.8574
大用	-10.8577
勉	-10.8579
瑜伽論	-10.858
經者	-10.858
喜王	-10.8586
薩埵	-10.8587
此頌	-10.8587
▁南无梵	-10.8588
日日	-10.8588
心外	-10.8589
等皆	-10.8589
於佛法中	-10.8589
寶樹	-10.8593
如是知	-10.8595
此法門者	-10.8595
樂著	-10.8595
五行	-10.8598
示行	-10.86
如來應供等正覺	-10.8601
尚無	-10.8601
有如是	-10.8601
本心	-10.8605
猶若	-10.8606
依他起	-10.8606
悲智	-10.8612
幢菩	-10.8618
當念	-10.862
不容	-10.8625
有身	-10.8628
如汝所說	-10.8629
而今	-10.863
冰	-10.8631
不攝	-10.8632
空相	-10.8637
靡不	-10.8641
則曰	-10.8641
拏	-10.8646
雪山	-10.8648
何故不	-10.8651
芥子	-10.8651
摩尼珠	-10.8654
華嚴云	-10.8654
滅罪	-10.8655
隨入	-10.8657
任持	-10.8658
若諸眾生	-10.8662
能轉	-10.8664
何用	-10.8665
末那	-10.8673
離過	-10.8676
滅也	-10.8676
於外	-10.8677
正士	-10.8678
如是一切	-10.8678
文也	-10.8679
檀波羅蜜	-10.8681
之由	-10.8684
湛	-10.8684
能修	-10.8688
方為	-10.8688
就中	-10.8688
爾乃	-10.8689
若了	-10.869
復當	-10.8692
離此	-10.8695
自在王佛南無	-10.8699
劍	-10.8703
欲心	-10.8704
於道	-10.8707
條	-10.8711
而實	-10.8713
註曰	-10.8715
明行成	-10.8715
汝見	-10.8717
賢劫	-10.8718
魔事	-10.8718
萬二千	-10.8721
為果	-10.8722
坐道場	-10.8723
雖現	-10.8724
相佛	-10.8728
攝大乘	-10.873
眾鳥	-10.873
今且	-10.8733
得阿羅漢	-10.8735
釋迦牟尼	-10.8735
不思	-10.8736
真智	-10.8737
生歡喜	-10.8739
一切眾	-10.8739
眼見	-10.8739
孰	-10.874
在大眾中	-10.8744
二乘人	-10.8746
乍	-10.8747
智故	-10.8747
這	-10.8749
若法	-10.8749
舉喻	-10.8749
常有	-10.8752
後釋	-10.8755
▁後釋	-10.8755
菩薩藏	-10.8758
供給	-10.8759
等諸	-10.8759
餘二	-10.8765
諸所	-10.8766
甚深法	-10.8766
意佛南無	-10.8769
前四	-10.8769
盡故	-10.8774
光嚴	-10.8774
如何是	-10.8775
非餘	-10.8777
等持	-10.878
令生	-10.8783
初二句	-10.8786
或於	-10.8788
覺支	-10.879
商主	-10.8791
八解脫	-10.8794
喻顯	-10.8794
所集	-10.8794
成等正覺	-10.8795
辛	-10.8795
伸	-10.8796
山林	-10.8797
所發	-10.8799
本不生	-10.8799
所學	-10.8801
為此	-10.8802
或是	-10.8804
白衣	-10.8804
五事	-10.8804
達磨	-10.8804
身壞命終	-10.8808
皆屬	-10.881
為空	-10.8813
酥	-10.8819
永不	-10.8819
非有無	-10.8822
彈呵	-10.8822
徒眾	-10.8823
有心	-10.8826
性自性相	-10.8826
權疾	-10.8827
』,	-10.8831
如是思惟	-10.8834
斷結	-10.8838
出過	-10.8838
先世	-10.8838
算	-10.884
得無	-10.8841
勝處	-10.8843
師云	-10.8845
二十二	-10.8847
彼彼	-10.8847
設使	-10.885
所治	-10.885
設有	-10.8851
後答	-10.8853
本非	-10.8856
說名為	-10.8857
探	-10.8863
證者	-10.8863
方是	-10.8864
壇	-10.8864
食者	-10.8864
淫	-10.8867
同歸	-10.8868
而問	-10.8869
觀解者	-10.8871
遠近	-10.8872
三地	-10.8873
於自	-10.8873
今就	-10.8874
奔	-10.8877
王言	-10.8879
此處	-10.8879
等四	-10.8879
▁南无須	-10.8881
照了	-10.8883
唎	-10.8886
大神通	-10.8889
諸病	-10.889
性本	-10.889
常生	-10.8891
求之	-10.8893
用也	-10.8893
此室	-10.8893
四攝	-10.8894
辱	-10.8897
意趣	-10.8897
而得解脫	-10.8898
而知	-10.8902
此語	-10.8904
如世	-10.8907
隨相	-10.8907
智光	-10.8907
本是	-10.8908
電光	-10.8911
林樹	-10.8912
一切時	-10.8912
定者	-10.8916
問云	-10.8917
庶	-10.8919
二喻	-10.892
告言	-10.8931
然其	-10.8934
能治	-10.8934
又說	-10.8934
說一乘	-10.8936
斯等	-10.8938
如是乃至	-10.8942
序品	-10.8943
戒行	-10.8947
彼如來授名	-10.8947
鬪諍	-10.8949
有幾	-10.895
婇女	-10.8953
掉	-10.8959
謂由	-10.896
名大	-10.8961
戶	-10.8963
於身	-10.8966
即指	-10.8968
縷	-10.8969
羸	-10.8971
波旬	-10.8972
諸佛子	-10.8975
乃名	-10.8979
之大	-10.8981
邪婬	-10.8981
紫	-10.8982
陰陽	-10.8983
席	-10.8984
惑業	-10.8986
過故	-10.8986
淨佛國土	-10.8986
初正釋	-10.8987
銅	-10.8989
緣因	-10.8989
無有差別	-10.899
進退	-10.8993
普光	-10.8993
所因	-10.8997
7	-10.8999
為眾	-10.9
業道	-10.9003
十行	-10.9004
應受	-10.9009
多所	-10.9009
若諸有情	-10.901
下地	-10.9011
觀音	-10.9011
自歸	-10.9012
理性	-10.9013
如來說法	-10.9014
釋梵	-10.9015
法佛	-10.9015
若不爾者	-10.9016
於時	-10.9023
不懷	-10.9023
根緣	-10.9024
管	-10.9024
得勝	-10.9026
作大	-10.9027
受諸	-10.9027
八法	-10.9028
雜色	-10.9028
練	-10.9029
其理	-10.9029
二果	-10.9029
世尊告曰	-10.9035
尾	-10.9036
三昧門	-10.9038
意同	-10.9039
境也	-10.9039
並是	-10.904
之意也	-10.9049
一實	-10.9051
若謂	-10.9053
住世	-10.9054
3	-10.9055
而坐	-10.9058
親屬	-10.9061
無有生	-10.9062
開導	-10.9062
諸過	-10.9064
一塵	-10.9065
有病	-10.907
羅睺	-10.9071
如前說	-10.9072
悞	-10.9073
彩	-10.9075
天樂	-10.9075
嘗	-10.9075
因行	-10.9076
雖同	-10.9077
顯發	-10.9078
我時	-10.9079
重罪	-10.9079
教令	-10.908
乃可	-10.908
雖在	-10.9081
龜	-10.9085
逆順	-10.9088
當云	-10.9089
今之	-10.9092
智障	-10.9092
能令眾生	-10.9094
經法	-10.9095
聖慧	-10.9096
獲益	-10.9097
如幻化	-10.9097
慧佛	-10.91
約理	-10.9101
世界中	-10.9108
耆	-10.9111
寶山	-10.9113
就此	-10.9114
能取所取	-10.9115
有諸	-10.9116
正信	-10.9116
受於	-10.9117
淨法	-10.9117
白佛言世尊	-10.9118
大雲	-10.9124
諸天女	-10.9125
離苦	-10.9126
離言說	-10.9127
竊	-10.9128
深經	-10.9129
行業	-10.913
修集	-10.913
甚難	-10.9131
求菩提	-10.9132
汝應	-10.9133
斯則	-10.9134
虛空界	-10.9136
無情	-10.9137
珊瑚	-10.9143
楞嚴云	-10.9143
以示	-10.9144
烟	-10.9145
讚嘆	-10.9145
云何是	-10.9145
皆成	-10.9146
莊	-10.9146
菓	-10.9147
為身	-10.9147
僧祇	-10.9149
不二法門	-10.9149
廣博	-10.9153
賣	-10.9157
搖	-10.9159
為淨	-10.9161
日夜	-10.9162
無所受	-10.9164
大菩薩	-10.9166
凡人	-10.9167
受此	-10.9171
貪恚癡	-10.9174
伽陀	-10.9175
輕慢	-10.9178
以不	-10.9178
一經	-10.918
百萬	-10.9182
見相	-10.9187
混	-10.9189
得受記	-10.919
遙見	-10.9193
佛南無無垢	-10.9198
也問	-10.9198
覺想	-10.9199
伹	-10.92
百歲	-10.9202
山曰	-10.9202
隨情	-10.9203
人相	-10.9204
戒定慧	-10.9204
所緣境	-10.9204
常修	-10.9211
作種種	-10.9211
聞聲	-10.9213
眾生故	-10.9224
轉相	-10.9225
心地	-10.9226
五時	-10.9226
業盡	-10.9229
孫	-10.9233
之初	-10.9235
也次	-10.9235
難知	-10.9237
視之	-10.9238
祕	-10.9239
妙寶	-10.9241
能障	-10.9242
無言說	-10.9242
音菩	-10.9243
釋經	-10.9246
先明	-10.9247
於涅槃	-10.9254
須菩提言	-10.9256
德也	-10.9258
忿	-10.9259
輸	-10.9259
今但	-10.9262
如來地	-10.9263
執我	-10.9263
證於	-10.9263
貪等	-10.9266
如佛所說	-10.9268
因陀羅	-10.927
殊妙	-10.9272
出假	-10.9273
而云	-10.9273
即中	-10.9274
神王	-10.9275
於色	-10.9283
從其	-10.9286
了悟	-10.9288
受教	-10.9288
度世	-10.9292
於無	-10.9293
見他	-10.9294
分之	-10.9297
計度	-10.93
重擔	-10.9301
二正	-10.9303
聞正法	-10.9303
不敬	-10.9307
現在前	-10.9309
非智	-10.931
垢淨	-10.931
捨於	-10.9312
懃	-10.9314
兜率	-10.9317
喜悅	-10.9317
黨	-10.9317
相續不斷	-10.932
性具	-10.9321
後後	-10.9321
想念	-10.9322
諸佛國土	-10.9325
敷演	-10.9328
覺自心現量	-10.933
外道說	-10.9331
行佛南無	-10.9331
苦痛	-10.9333
法御	-10.9334
根境	-10.9337
然燈佛南無	-10.9337
假立	-10.9338
無所依	-10.9338
爾時世尊欲重宣此義	-10.9343
迦葉佛	-10.9344
識陰	-10.9352
心得	-10.9352
圭峰	-10.9353
消除	-10.9353
衍	-10.9356
觀見	-10.9358
牢	-10.9358
眾生來生其國	-10.9361
三初	-10.9363
卷第二	-10.9365
來至	-10.9366
若就	-10.9368
瞻仰	-10.9368
金山	-10.9369
祠	-10.9371
因緣法	-10.9372
倫	-10.9374
奏	-10.9374
樹木	-10.9375
啼哭	-10.9376
妄想者	-10.9378
正等正覺	-10.9379
後得	-10.9383
以能	-10.9383
分為二	-10.9383
滅時	-10.9385
此觀	-10.9386
我能	-10.9387
弘經	-10.9387
勸令	-10.9387
壯	-10.9388
邪道	-10.9389
上至	-10.9391
古人	-10.9394
初會	-10.9394
入假	-10.9394
能顯	-10.9395
山佛	-10.94
其法	-10.9402
勝行	-10.9405
猛火	-10.9406
於諸法中	-10.9406
且約	-10.9409
異見	-10.9412
真身	-10.9414
合為一	-10.9414
觀空	-10.9419
盆	-10.9422
疲	-10.9423
則滅	-10.9425
歌舞	-10.9426
三年	-10.9428
躡	-10.9428
如雲	-10.9431
輔	-10.9432
生信	-10.9434
大覺	-10.9436
不厭	-10.9436
七十	-10.9437
寂定	-10.9438
受想行識	-10.9441
買	-10.9441
二執	-10.9442
唵	-10.9442
善思	-10.9444
聽者	-10.9447
二十三	-10.9447
大威德	-10.9451
實報	-10.9451
父王	-10.9453
入城	-10.9454
非為	-10.9454
佛在	-10.9456
破之	-10.9459
業力	-10.9467
遠離於	-10.9467
僧伽	-10.9467
破其	-10.9467
過惡	-10.9467
品中	-10.9469
▁南无德	-10.947
刼	-10.9471
菩薩住	-10.9474
其色	-10.9481
賴	-10.9483
有智	-10.9485
令離	-10.9486
房	-10.9486
振	-10.9488
此三種	-10.9488
中尊	-10.9488
以是之故	-10.9488
妙行	-10.9489
善財	-10.9489
不云	-10.949
老病死	-10.9492
堅牢	-10.9492
比丘知業果報	-10.9493
妬	-10.9493
理即	-10.9494
算數	-10.9496
枉	-10.9497
眼等	-10.95
當說	-10.9502
依教	-10.9505
令入	-10.9506
聖凡	-10.9507
美妙	-10.9508
迴轉	-10.951
香象	-10.9512
眾相	-10.9515
定性	-10.9516
住此	-10.9516
慧者	-10.9516
當知此	-10.9518
阿鼻	-10.9518
前七	-10.9518
四倒	-10.9522
到此	-10.9522
人心	-10.9522
□□□□	-10.9525
既非	-10.9525
不覺知	-10.9527
功德莊嚴	-10.9527
怯弱	-10.9528
非非	-10.9529
終不能	-10.9531
何等四	-10.9532
為得	-10.9535
有實	-10.9539
能了知	-10.9539
能依	-10.9542
花佛	-10.9544
於十方	-10.9546
諸文	-10.9549
某甲	-10.955
之始	-10.955
秖	-10.9551
摩訶迦葉	-10.9551
十二年	-10.9552
揭	-10.9555
雲佛	-10.9556
福智	-10.9557
維	-10.9557
如法華	-10.9559
伺	-10.956
頸	-10.9562
假實	-10.9563
是中	-10.9563
果故	-10.9565
法喻	-10.9567
焚燒	-10.9569
皆不可得	-10.957
法王子	-10.9572
三萬二千	-10.9579
但名	-10.9579
在後	-10.9579
必得	-10.9584
聽經	-10.9586
少欲	-10.9587
即涅槃	-10.9587
果位	-10.9591
未離	-10.9592
分別諸法	-10.9593
卷上	-10.9594
但取	-10.9594
四無量	-10.9594
偏袒右肩	-10.9595
但依	-10.9595
如地	-10.9599
別異	-10.9601
飽	-10.9602
彼國	-10.9602
罔	-10.9603
捐	-10.9603
朗	-10.9604
研	-10.9607
第十一	-10.9609
無量種	-10.9611
雖云	-10.9611
渴愛	-10.9618
迷真	-10.962
菩薩道	-10.9625
三問	-10.9627
或謂	-10.9633
香佛	-10.9634
四無量心	-10.9637
是故說	-10.9639
道意	-10.9639
樹林	-10.9639
此教	-10.964
生因	-10.9641
引證	-10.9644
非一非異	-10.965
不可知	-10.9653
妙用	-10.9654
此顯	-10.9654
即同	-10.9655
身土	-10.9657
若樂	-10.9657
鑑	-10.9658
衛	-10.9663
對前	-10.9664
諦理	-10.9665
輪相	-10.9666
決擇	-10.9669
不盡有為	-10.967
論曰	-10.9671
以得	-10.9673
有德	-10.9674
而已	-10.9675
富樂	-10.9678
二行	-10.9679
愛敬	-10.9682
雜集	-10.9683
有住	-10.9684
見惑	-10.9687
證理	-10.9688
有愛	-10.9689
一切行	-10.9689
大智慧	-10.969
未證	-10.9693
信者	-10.9693
如說	-10.9702
更生	-10.9702
不相違	-10.9702
耽	-10.9703
其母	-10.9703
我即	-10.9706
三十七	-10.9707
放大光明	-10.9708
言有	-10.9717
佛乘	-10.9718
毘尼	-10.9722
亦復不	-10.9723
長老	-10.9724
二空觀	-10.9726
諸餘	-10.9726
四十九	-10.9727
何必	-10.9728
促	-10.9729
有色	-10.9729
脂	-10.973
斷故	-10.9734
君子	-10.9737
摧伏	-10.9737
總釋	-10.9738
本起	-10.9741
不增不減	-10.9744
及彼	-10.9746
鮮	-10.9747
來去	-10.9751
二十五有	-10.9754
千佛	-10.9755
▁南无天	-10.9757
善權	-10.9758
中邊	-10.9764
失壞	-10.9765
聖果	-10.9769
住地	-10.9771
汝今諦聽	-10.9772
依何	-10.9772
實教	-10.9773
斷盡	-10.9774
姊	-10.9774
諍論	-10.9775
方便品	-10.9777
敬重	-10.9778
疏然	-10.9779
當學	-10.978
曹	-10.978
從緣	-10.9785
無量無數	-10.9786
以來	-10.9787
撰	-10.9787
繼	-10.9788
能攝	-10.9788
痛痒	-10.979
先問	-10.9791
除病	-10.9791
莊嚴佛南無	-10.9792
下文云	-10.9792
所用	-10.9792
驅	-10.9795
若為	-10.9798
資財	-10.98
如鏡	-10.9801
妙樂	-10.9811
淨命	-10.9815
十二部經	-10.9816
未成	-10.9819
第二明	-10.9823
三輪	-10.9825
將來	-10.9827
益物	-10.9831
補特伽羅	-10.9832
直指	-10.9832
灾	-10.9834
希求	-10.9835
剛	-10.9837
即現	-10.984
之難	-10.9841
地神	-10.9842
毗尼	-10.9842
拳	-10.9842
浴池	-10.9851
無本	-10.9851
外無	-10.9853
洗浴	-10.9854
聾	-10.9854
樂見	-10.9855
功勳	-10.9856
娑羅	-10.9856
下生	-10.9857
南謨	-10.9859
菩薩所行	-10.9859
惡知識	-10.986
四名	-10.986
刑	-10.9863
勝故	-10.9865
智人	-10.9867
指前	-10.987
所破	-10.9871
歎德	-10.9871
有三義	-10.9872
何因緣	-10.9873
菩薩成佛時	-10.9875
不免	-10.9876
於佛法	-10.9879
能覺	-10.9879
徧計	-10.9881
顯其	-10.9882
此門	-10.9882
後結	-10.9882
言我	-10.9883
以一	-10.9885
汝於	-10.9885
別故	-10.9886
重釋	-10.989
滿月	-10.9893
校	-10.9895
賢首	-10.9896
不住無為	-10.9898
大富	-10.99
苦報	-10.99
成於	-10.99
無常者	-10.9903
然燈佛	-10.9904
真正	-10.9906
說如來藏	-10.9907
微笑	-10.9907
深義	-10.9908
了了	-10.9908
修福	-10.991
大圓鏡智	-10.9911
天親	-10.9912
崖	-10.9914
實是	-10.9916
之謂也	-10.9918
下二句	-10.9918
地獄中	-10.9918
得法眼淨	-10.992
著於	-10.9921
二月	-10.9922
今取	-10.9922
諸善男子	-10.993
以依	-10.9934
證成	-10.9935
唯願世尊	-10.9938
是故當知	-10.9942
巖	-10.9947
瑞應	-10.9947
離分別	-10.995
忘失	-10.995
勝進	-10.9955
足下	-10.9958
同彼	-10.996
之所說	-10.996
除遣	-10.9963
如是觀	-10.9966
為能	-10.9967
戀	-10.9969
法報	-10.9969
波若	-10.9969
頌上	-10.997
雖見	-10.997
自性涅槃	-10.9973
若據	-10.9974
見諸法	-10.9975
壞者	-10.9975
一對	-10.9976
城邑	-10.9977
方所	-10.9978
曠	-10.9979
地位	-10.9982
即應	-10.9985
前合	-10.9986
文略	-10.9987
到已	-10.9989
發問	-10.9992
平等心	-10.9993
業因	-10.9993
室內	-10.9996
已上	-10.9997
如恒河沙	-11
無罣礙	-11
險	-11
所讚	-11.0003
苾芻當知	-11.0003
凡夫二乘	-11.0005
以離	-11.0006
堪忍	-11.001
以此為	-11.001
而觀	-11.0021
是菩薩淨土	-11.0022
我今當	-11.0023
義釋	-11.0023
古今	-11.0026
今世	-11.0027
謂以	-11.0027
無貪	-11.0027
凝	-11.0028
豫	-11.003
優鉢羅	-11.0031
性惡	-11.0032
赫	-11.0033
修行者內身循身觀	-11.0033
當知是	-11.0035
鳩	-11.0036
卷云	-11.0037
慈愍	-11.0038
燒香	-11.0039
以求	-11.0039
超出	-11.004
所度	-11.0041
之一字	-11.0043
其間	-11.0044
諸龍	-11.0045
不減	-11.0045
如云	-11.0047
論說	-11.0047
翻譯	-11.0048
文為三	-11.0048
無增減	-11.0049
不實妄想	-11.005
圓成實	-11.0051
隨念	-11.0052
諸女	-11.0052
以何因緣	-11.0054
所表	-11.0054
果上	-11.0054
是識	-11.0058
王者	-11.0059
修於	-11.0062
初門	-11.0067
諸子	-11.0067
阿難陀	-11.0069
願求	-11.007
他心	-11.007
因緣和合	-11.0072
以空	-11.0073
事者	-11.0075
所致	-11.0076
歎未曾有	-11.0078
分別心	-11.0083
侶	-11.0083
盧舍那	-11.009
分文	-11.009
持此	-11.0092
說於	-11.0092
五蓋	-11.0096
證悟	-11.0096
▁六	-11.0098
晦	-11.0099
心則	-11.01
證知	-11.0101
三空	-11.0102
吞	-11.0102
三惑	-11.0103
今釋	-11.0103
集會	-11.0107
三處	-11.0108
一曰	-11.0109
能度	-11.011
作如是念	-11.011
登地	-11.0111
於理	-11.0111
施者	-11.0115
德佛南無	-11.0116
貪瞋	-11.0121
且如	-11.0124
開解	-11.0131
微塵數	-11.0133
若取	-11.0133
三分	-11.0133
一切法空	-11.0135
名為解脫	-11.0135
墮在	-11.0139
證法	-11.0142
應生	-11.0142
盡滅	-11.0143
調御丈夫	-11.0147
離妄想	-11.0152
佛南無一切同名	-11.0152
佛號	-11.0153
形處	-11.0156
利益安樂	-11.0157
謂諸	-11.0157
慧佛南無	-11.0158
案	-11.0158
如金剛	-11.0159
問疾品	-11.016
光如來南無	-11.0164
則不能	-11.0165
忌	-11.0167
格	-11.0169
無欲	-11.017
見一切法	-11.0172
大火	-11.0173
下第二	-11.0173
眼目	-11.0176
愁憂	-11.0179
一字	-11.018
東西	-11.0181
言其	-11.0187
俱空	-11.0189
受其	-11.019
惟心	-11.019
有形	-11.0192
耳識	-11.0195
雖得	-11.0195
世出世間	-11.0196
什	-11.0197
王曰	-11.0203
見一	-11.0204
進趣	-11.0204
於過去	-11.0204
癡人	-11.0209
請說	-11.0209
後際	-11.021
妄想生	-11.0211
一日一夜	-11.0218
至靜	-11.0219
論者	-11.022
妄想故	-11.022
分別事識	-11.0221
今家	-11.0225
哭	-11.0226
臍	-11.0229
放逸行	-11.023
眾生相	-11.023
求道	-11.0231
不善法	-11.0234
司	-11.0234
南無德	-11.0236
幻滅	-11.0237
沙彌	-11.0237
能忍	-11.0239
一切種	-11.0243
歡喜奉行	-11.0243
堪能	-11.0248
斷一切	-11.0249
現起	-11.0249
緣慮	-11.025
散華	-11.0257
又前	-11.0258
▁南无光	-11.0259
從心	-11.026
此岸	-11.0262
諸仁者	-11.0264
此經云	-11.0265
我從	-11.0265
▁二約	-11.0266
自在力	-11.0268
空法	-11.0269
菩薩及	-11.027
當願眾生	-11.027
修慧	-11.0271
眾香	-11.0278
折伏	-11.0279
相宗	-11.0282
藥王	-11.0282
初文	-11.0285
鵝	-11.0285
貞	-11.0289
作佛事	-11.0289
為苦	-11.029
彼宗	-11.029
無邊際	-11.029
得福	-11.029
苦道	-11.029
廁	-11.0292
個	-11.0292
緣起自性	-11.0295
若天	-11.0296
善女天	-11.0297
之徒	-11.0298
卷第一	-11.0301
低	-11.0303
行慈	-11.0305
覺智	-11.0307
謂一切法	-11.0307
淨業	-11.0309
彼我	-11.031
慧命	-11.0311
見真	-11.0311
有十種	-11.0315
爾所	-11.0315
吾等	-11.0316
理故	-11.0318
解脫門	-11.0319
入地獄	-11.032
治病	-11.0326
實疾	-11.0326
無作者	-11.0326
王等	-11.0326
是誰	-11.0327
禽獸	-11.0331
文殊問	-11.0332
師曰	-11.0332
大山	-11.0335
三菩提	-11.0337
智照	-11.0339
今則	-11.0341
菩薩眾	-11.0343
三途	-11.0345
未聞	-11.0346
大劫	-11.0348
離心	-11.0351
囊	-11.0351
不毀	-11.0357
西蜀復庵暉禪師曰	-11.0357
凡所	-11.0358
是名菩薩摩訶薩	-11.0359
是涅槃	-11.036
肝	-11.0361
府	-11.0362
膩	-11.0366
外人	-11.0366
刃	-11.0368
上生	-11.0368
願為	-11.037
迷悶	-11.0374
性即	-11.0376
世親	-11.0377
所誑	-11.0378
初正	-11.0379
其言	-11.0381
准此	-11.0381
二初明	-11.0384
如上所說	-11.0388
智度論	-11.0388
明之	-11.0389
卷下	-11.039
及於	-11.0391
偈言	-11.0391
私註	-11.0393
修觀	-11.0393
不聽	-11.0394
聲聞眾	-11.0395
全同	-11.0397
以心	-11.0398
通論	-11.0399
依前	-11.04
復有菩薩名曰	-11.0404
雄	-11.0406
方成	-11.0407
菩提分法	-11.0407
一切聲聞	-11.0407
證果	-11.0408
如是比丘	-11.0413
依因	-11.0413
漫	-11.0415
歇	-11.0416
猪	-11.0416
貪心	-11.0417
大光明	-11.0417
眾聖	-11.0419
儞	-11.042
不除	-11.042
二會	-11.0421
此病	-11.0421
四大種	-11.0424
釋疑	-11.0425
毛輪	-11.0426
不停	-11.0427
亦不離	-11.0428
佛南無妙	-11.0428
六萬	-11.0429
應同	-11.0429
第七識	-11.0429
論議	-11.0429
得離	-11.0431
靡	-11.0432
正論	-11.0432
有兩	-11.0434
言音	-11.0436
兜率天	-11.0436
別立	-11.0439
為智	-11.0444
曇	-11.0445
佛南無法	-11.0447
無餘涅槃	-11.0448
會通	-11.0448
善現	-11.0448
遊於	-11.0452
得安樂	-11.0452
復云	-11.0452
之益	-11.0453
奮迅佛南無	-11.0458
所住處	-11.0462
所釋	-11.0463
諸漏	-11.0466
等相	-11.0467
外道計	-11.0469
大慈大悲	-11.0473
俱無	-11.0473
頑	-11.0473
毀謗	-11.0473
死時	-11.0474
三千大千	-11.0474
傍生	-11.0476
縱橫	-11.0477
化菩薩	-11.0477
舞	-11.048
養育	-11.0481
大地獄	-11.0482
淳	-11.0482
翅	-11.0485
有多	-11.0486
周徧	-11.0487
肅	-11.0488
界內外	-11.0489
亦不生	-11.0489
不止	-11.0491
叵得	-11.0492
鈔云	-11.0493
我常	-11.0495
若起	-11.0495
京	-11.0497
欲境	-11.0498
無所見	-11.05
諸法相	-11.05
雅	-11.0506
之念	-11.0508
增進	-11.0509
現在說法	-11.051
正問	-11.0511
為五	-11.0512
洞	-11.0514
此結	-11.0518
不墮邪見	-11.0518
中有三	-11.0518
提婆	-11.0519
諸陰	-11.0522
法器	-11.0523
為顯	-11.0523
▁南无無㝵	-11.0523
大哀	-11.0524
謂依	-11.0525
佛塔	-11.0527
起時	-11.0528
等三	-11.0529
三自性	-11.053
次下	-11.0533
故復	-11.0537
疾得阿耨多羅三藐三菩提	-11.0543
四面	-11.0547
佛心	-11.055
自妄想	-11.0551
荒	-11.0551
寶幢	-11.0553
定力	-11.0557
如實見	-11.0557
如實知身	-11.0557
分證	-11.056
涅槃經云	-11.056
無由	-11.0566
山佛南無	-11.0567
知彼	-11.0569
覩見	-11.0571
應物	-11.0572
合會	-11.0573
善哉世尊	-11.0573
作是念已	-11.0575
為一切	-11.0576
為善	-11.0579
二頌	-11.0581
能伏	-11.0586
火輪	-11.0587
等觀	-11.0588
此諸菩薩	-11.0593
方廣	-11.0598
難解	-11.06
同事	-11.0604
青黃赤白	-11.0604
未免	-11.0606
樓閣	-11.0608
怛薩阿竭	-11.0609
掃	-11.061
黎	-11.0611
能救	-11.0612
愛語	-11.0612
有過	-11.0613
最大	-11.0615
何等為六	-11.0615
為斷	-11.0616
是義	-11.0623
唾	-11.0629
諂	-11.0629
如上說	-11.063
河沙	-11.0631
焚	-11.0631
聞此經	-11.0637
本生	-11.0638
結前	-11.064
測	-11.0641
與樂	-11.0642
虛誑	-11.0644
智度論云	-11.0645
不近	-11.065
淨故	-11.0651
能善	-11.0651
一面	-11.0653
合文上科共成	-11.0655
奉教歡喜	-11.0655
若觀	-11.066
自證聖智	-11.0662
引發	-11.0664
覈	-11.0664
若云	-11.0664
=	-11.067
叫	-11.067
世間人	-11.0671
成滿	-11.0672
正以	-11.0676
淤泥	-11.0677
為除	-11.0677
如影	-11.0677
恒河沙等	-11.068
擎	-11.0682
今依	-11.0684
常自	-11.0685
大段	-11.0685
離四句	-11.069
啞	-11.0694
前問	-11.0694
化導	-11.0694
心之	-11.0695
染心	-11.0696
過去諸佛	-11.0697
人皆	-11.0698
華果	-11.0699
十由旬	-11.0701
從因緣生	-11.0703
白淨	-11.0705
悟解	-11.0705
生已	-11.0707
習近	-11.0707
良醫	-11.0712
秘密	-11.0712
眾經	-11.0714
善思惟	-11.0716
下示	-11.0716
人壽	-11.072
不瞋	-11.0724
妄想計著	-11.0725
加持	-11.0727
行菩	-11.073
王宮	-11.0732
梵云	-11.0733
瞖	-11.0734
淨除	-11.0734
彌留	-11.0734
極果	-11.0736
豪	-11.0736
之妙	-11.0737
所轉	-11.074
難見	-11.0741
之相也	-11.0742
猶豫	-11.0742
無常性	-11.0742
大精進	-11.0744
非異	-11.0744
受戒	-11.0745
評曰	-11.0745
之失	-11.0748
外塵	-11.0749
斬	-11.0752
不忍	-11.0752
一切諸法皆	-11.0753
稱揚	-11.0754
遍計所執	-11.0754
西蜀復菴暉禪師	-11.0755
得於	-11.0756
雖異	-11.0757
同前	-11.0759
罪垢	-11.0761
顏色	-11.0763
不獨	-11.0763
縛解	-11.0765
中無有	-11.0765
得記	-11.0766
菩薩以	-11.0768
涅槃云	-11.0772
諸所有	-11.0772
五明	-11.0774
佛功德	-11.0777
摩訶薩	-11.0778
波離	-11.0779
垢穢	-11.0783
也問曰	-11.0785
其聲	-11.0785
度者	-11.0785
成辦	-11.0787
病人	-11.0797
譽	-11.0799
斯乃	-11.0802
論文	-11.0804
添	-11.0805
於一切處	-11.0805
攝心	-11.0807
驢	-11.0807
血肉	-11.0808
米	-11.0812
佛法僧	-11.0812
今疏	-11.0813
谷	-11.0814
幻師	-11.0814
山王	-11.0816
於阿耨多羅三藐三菩提	-11.0817
現疾	-11.0819
又二	-11.0819
忠	-11.082
佛說法	-11.0821
彼地獄人	-11.0822
為惡	-11.0822
可取	-11.0823
夭	-11.0825
不還	-11.0826
紹	-11.0828
生死苦	-11.083
二十九	-11.083
光明照	-11.083
調達	-11.0831
千億	-11.0832
未入	-11.0834
三因	-11.0834
四卷	-11.0837
卵	-11.0838
能受	-11.0842
宿世	-11.0843
化現	-11.0843
魔軍	-11.0845
後之	-11.085
5	-11.085
謂佛	-11.0851
判教	-11.0853
無說	-11.0853
恐畏	-11.0854
信佛	-11.0859
諸句	-11.0862
識者	-11.0863
從座而起	-11.0864
例前	-11.0865
性宗	-11.0866
不可壞	-11.0871
粗	-11.0873
儀式	-11.0874
修治	-11.0877
削	-11.0879
從空	-11.0882
隨煩惱	-11.0885
令此	-11.0888
從本	-11.0888
色空	-11.0891
巳來	-11.0893
其上	-11.0899
一標	-11.0902
起用	-11.0902
義利	-11.0904
如是大慧	-11.0905
舉一	-11.091
無因生	-11.0911
秦言	-11.092
即說	-11.0923
來入	-11.0924
亦有亦無	-11.0925
四大造色	-11.0926
苦哉	-11.0928
復何	-11.0931
能自	-11.0931
有能	-11.0932
無功用	-11.0932
空門	-11.0934
正位	-11.0938
如是觀察	-11.0939
從生	-11.0939
略明	-11.094
下云	-11.094
正義	-11.0942
轉生	-11.0943
三脫	-11.0943
命根	-11.0945
實諦	-11.0945
欝	-11.0946
盤	-11.0946
鎮	-11.0947
漿	-11.0951
種種差別	-11.0952
城名	-11.0953
異處	-11.0954
所變	-11.0954
若住	-11.0954
哆	-11.0955
不會	-11.0955
四釋	-11.0957
金鼓	-11.0959
當復	-11.096
已後	-11.0961
明見	-11.0967
滴	-11.0967
百八句	-11.0969
鞞	-11.0972
屬於	-11.0978
此第三	-11.0978
月上	-11.0983
爾時大慧菩薩	-11.0986
叵	-11.0988
滅壞	-11.099
大仙	-11.099
▁南无上	-11.0991
二子	-11.0993
在世	-11.0994
▁南无無畏	-11.1002
幻觀	-11.1003
不屬	-11.1005
五濁	-11.1007
互為	-11.1009
校量	-11.1012
餓	-11.1016
排	-11.1017
尋求	-11.102
五地	-11.1021
孛	-11.1021
洪	-11.1022
國人	-11.1024
品類	-11.1027
六趣	-11.1028
福聚	-11.1028
為諸菩薩	-11.1029
空處	-11.1032
乃知	-11.1034
能成就	-11.1034
大悲心	-11.1039
念住	-11.1045
朽	-11.1046
欣樂	-11.1046
等分	-11.1049
退失	-11.105
云何名菩薩	-11.105
一卷	-11.1051
無處所	-11.1054
6	-11.1054
滅則	-11.1055
長時	-11.1056
不可數	-11.1056
欲重宣此義	-11.1058
梵本	-11.1059
大利	-11.1061
皆悉具足	-11.1061
空見	-11.1062
式	-11.1062
有無二見	-11.1066
邑	-11.1067
而轉	-11.107
是經典	-11.1071
為破	-11.1072
於內	-11.1076
愛念	-11.1076
汎	-11.1076
專心	-11.1077
父名	-11.1077
作證	-11.1077
逼惱	-11.1077
撥	-11.108
千由旬	-11.1081
執取	-11.1081
不自在	-11.1082
但於	-11.1082
心源	-11.1084
全是	-11.1086
繒	-11.1087
醫王	-11.1088
正法念處經	-11.1089
藍	-11.109
佛前	-11.1091
是眾生	-11.1091
尅	-11.1091
自在天	-11.1094
諸入	-11.1097
觀世音	-11.1099
離煩惱	-11.1099
此十	-11.1101
欲為	-11.1102
欲行	-11.1102
不能見	-11.1105
五法自性	-11.1106
眾生病	-11.1106
照曜	-11.1107
多諸	-11.1108
三學	-11.1112
性無性	-11.1113
佛地論	-11.1114
力士	-11.1115
奢	-11.1117
亦成	-11.1119
若從	-11.1119
為物	-11.112
差別之相	-11.1121
今復	-11.1122
垂髮	-11.1126
為業	-11.1126
可樂	-11.1128
修之	-11.113
四洲	-11.1131
將此	-11.1132
所食	-11.1133
解脫知見	-11.1135
難勝	-11.1136
十方界	-11.1141
彼所	-11.1143
亦須	-11.1143
憒閙	-11.1144
塗香	-11.1145
皷	-11.1147
一實諦	-11.1147
後得智	-11.1147
一剎那	-11.1149
智境	-11.115
次有	-11.115
說空	-11.115
▁南无光明	-11.1151
智慧者	-11.1152
二曰	-11.1153
啼	-11.1153
住在	-11.1153
領受	-11.1162
無二無別	-11.1163
相應故	-11.1167
難也	-11.1168
善權方便	-11.1169
之前	-11.117
彼世界	-11.1173
觀解	-11.1174
巧方便	-11.1174
疏主	-11.1174
其水	-11.1175
得解	-11.1177
無法可	-11.1181
結業	-11.1184
此法門	-11.1186
如世尊說	-11.1186
今為	-11.1187
滅相	-11.1188
黠	-11.1188
楞伽阿䟦多羅寶經	-11.119
喻於	-11.119
繫屬	-11.1191
釋文	-11.1191
四十二	-11.1191
諸王	-11.1191
三人	-11.1191
中陰	-11.1195
空宗	-11.1199
非究竟	-11.12
諸受	-11.12
毗盧遮那	-11.1203
有苦	-11.1203
能化	-11.1208
假有	-11.1212
始得	-11.1213
乃可取食	-11.1217
得安隱	-11.1218
憍尸迦	-11.1218
今說	-11.122
已說	-11.1224
徐	-11.1225
六法	-11.1227
得至	-11.1229
以偈	-11.123
複	-11.1233
無有我	-11.1234
果德	-11.1235
其猶	-11.1236
何意	-11.1236
定心	-11.1237
見佛性	-11.1239
法住	-11.1243
勝鬘	-11.1243
六即	-11.1245
菩提道	-11.1247
義當	-11.1248
得悟	-11.1251
還是	-11.1254
我等今者	-11.1254
法自在	-11.126
黃金	-11.1261
有疾菩薩	-11.1261
雜亂	-11.1263
將護	-11.1267
心為	-11.1267
舉身	-11.1275
是故說言	-11.1278
明行足	-11.1279
即用	-11.128
不淨觀	-11.1281
諸善法	-11.1282
多生	-11.1283
種智	-11.1284
豈是	-11.1284
識滅	-11.1286
為相	-11.1287
從來	-11.1288
永盡	-11.1288
唯在	-11.1289
答中	-11.1291
綱	-11.1291
樂行多作	-11.1292
入中	-11.1292
帛	-11.1293
瞿	-11.1293
好醜	-11.1294
檀越	-11.1294
津	-11.1295
下中上	-11.1295
壓	-11.1296
脣	-11.1298
捨諸	-11.1301
求於	-11.1304
應修	-11.1304
佛寶	-11.1308
億劫	-11.131
邏	-11.1313
成上	-11.1316
伯	-11.1317
何等為二	-11.132
及末世眾生	-11.1325
應用	-11.1331
如來種	-11.1331
樂行	-11.1332
亦知	-11.1333
疊	-11.1337
耳根	-11.1339
根識	-11.1339
地處	-11.1341
云何菩薩得	-11.1342
上云	-11.1343
外道二乘	-11.1344
蓮	-11.1344
無身	-11.1346
青色	-11.1348
緣集	-11.1351
八正道	-11.1352
照耀	-11.1353
一家	-11.1354
童真	-11.1355
是總	-11.1356
隨眾生	-11.1357
展	-11.1358
如如智	-11.136
十二緣	-11.1365
庭	-11.1365
野干	-11.1365
甜	-11.1368
阿修羅王	-11.1368
不斷絕	-11.1368
杜	-11.1369
地持	-11.137
斗	-11.1372
泰	-11.1376
經卷	-11.1376
謂我	-11.1378
人有	-11.1379
不稱	-11.1381
又為二初	-11.1382
除斷	-11.1384
大樹	-11.1384
出時	-11.1387
攝論	-11.139
以手	-11.1391
同也	-11.1392
受決	-11.1392
生諸	-11.1392
執受	-11.1392
柔和	-11.1394
多劫	-11.1395
於斯	-11.1396
前之	-11.1396
實理	-11.1397
尊者阿難	-11.1398
華佛南無	-11.1398
不相似	-11.1398
第十地	-11.1398
滅惡	-11.1402
起故	-11.1403
是彼	-11.1403
供具	-11.1403
此偈	-11.1403
知眾生	-11.1406
後說	-11.1406
何義	-11.1407
說聽	-11.1407
文殊師利菩薩	-11.1409
是身如	-11.1411
我不	-11.1413
爾𦦨	-11.1415
理也	-11.1415
地界	-11.1417
調順	-11.1418
脇	-11.1419
釋迦文佛	-11.1419
十地菩薩	-11.142
也今	-11.142
中疏	-11.1422
非想	-11.1423
拔濟	-11.1424
難測	-11.1425
正命	-11.1426
所染	-11.1429
聞持	-11.143
初後	-11.1431
鷄	-11.1434
亦不可	-11.1436
楚	-11.1436
法教	-11.1437
平等性智	-11.1437
顯德	-11.1438
一切法如幻	-11.1438
諫	-11.1442
法雲	-11.1442
所至	-11.1446
莎訶	-11.1448
南無師子	-11.1451
名利	-11.1451
或有眾生	-11.1456
業因緣	-11.1456
惡鬼	-11.1457
除其	-11.1458
為他說	-11.1458
修此	-11.1459
乃成	-11.1462
三一	-11.1464
安心	-11.1467
二千	-11.1467
使人	-11.1468
諸眾生等	-11.1469
其罪	-11.147
以知	-11.1471
方可	-11.1474
復過	-11.1474
故下文云	-11.1475
▁南无清淨	-11.1477
本也	-11.1477
法味	-11.1479
攝持	-11.148
現於	-11.1482
觀世自在	-11.1483
女色	-11.1484
一如	-11.149
之恩	-11.149
身內	-11.1492
取之	-11.1492
妄想相	-11.1492
入滅	-11.1493
是處	-11.1494
皆見	-11.1497
若干種	-11.15
從世尊聞如是	-11.1501
所迷	-11.1501
此答	-11.1501
祈	-11.1502
眾所	-11.1503
略舉	-11.1503
觀彼	-11.1504
明菩薩	-11.1504
叢林	-11.1505
肥	-11.1506
二別釋	-11.1506
聖行	-11.1508
潔	-11.1508
他受用	-11.1509
籠	-11.1509
百千億	-11.151
福業	-11.151
別示	-11.1511
日輪	-11.1513
明知	-11.1515
最尊	-11.1516
諭	-11.1517
正知	-11.1518
如空中	-11.1519
麤細	-11.1519
中下	-11.1521
值遇	-11.1522
得之	-11.1522
香飯	-11.1523
無一	-11.1526
膿血	-11.1527
戒者	-11.1528
得意	-11.1529
真修	-11.153
覺意	-11.153
於上	-11.1538
進修	-11.1539
捨心	-11.1541
諸佛所說	-11.1541
空無我	-11.1544
現有	-11.1546
四無所畏	-11.1551
世間出世間	-11.1552
天子復問	-11.1555
大神	-11.1556
法智	-11.1556
外國	-11.1558
如一	-11.1559
是能	-11.1561
本為	-11.1561
聞是法	-11.1564
本來寂靜	-11.1564
當如	-11.1568
汝行詣維摩詰問疾	-11.157
四地	-11.1571
三十五	-11.1571
敗壞	-11.1577
一切相	-11.1578
絲	-11.1578
紛	-11.158
之食	-11.1581
勵	-11.1581
彼說	-11.1581
眾生何業生於彼	-11.1581
略釋	-11.1584
汗	-11.1585
了無	-11.1586
偶	-11.1587
於大	-11.1588
當行	-11.1588
在其中	-11.1591
眾病	-11.1592
一心三觀	-11.1592
二偈頌	-11.1593
遲	-11.1594
初牒	-11.1595
滅盡定	-11.1595
過諸	-11.1596
其道	-11.1602
由心	-11.1602
壽者	-11.1603
思惑	-11.1606
說諸法	-11.1607
彌陀	-11.1607
橫竪	-11.1608
醯	-11.1612
令不	-11.1614
之緣	-11.1616
軌則	-11.1621
先以	-11.1621
行空	-11.1623
伎	-11.1624
▁初科	-11.1624
今略	-11.1626
五分	-11.1626
塵境	-11.1626
如是菩薩	-11.1627
取食	-11.163
何人	-11.1631
成自性	-11.1631
毀禁	-11.1632
是諸菩薩	-11.1633
諸法皆	-11.1633
於義	-11.1633
妙喜	-11.1636
願生	-11.1638
結名	-11.1638
可度	-11.164
者何	-11.1641
流入	-11.1649
始從	-11.165
善惡業	-11.165
▁南无常	-11.165
本處	-11.1654
於有	-11.1656
二依	-11.1657
穴	-11.1658
謹	-11.1659
一切法皆	-11.166
卜	-11.1664
鋒	-11.1664
隱覆	-11.1665
獨處	-11.1666
度人無量	-11.1666
故立	-11.1667
無難	-11.1668
慰	-11.1669
有何等	-11.167
廣略	-11.167
魔界	-11.1673
音響	-11.1675
三十一	-11.1675
大乘者	-11.1676
展轉相	-11.1679
後二句	-11.168
意顯	-11.1684
二就	-11.1685
如是次第	-11.1686
寒熱	-11.1688
不造	-11.169
諸部	-11.1692
於佛前	-11.1692
呵責	-11.1694
質直	-11.1695
器界	-11.1696
所牽	-11.1697
此但	-11.1698
境故	-11.1699
名稱佛	-11.1701
寶蓮華	-11.1703
應須	-11.1704
菩薩大士	-11.1704
初三	-11.1704
當文二句	-11.1706
▁二示	-11.1709
於地	-11.1711
躡前	-11.1712
從緣生	-11.1714
之實	-11.1714
性無常	-11.1717
此初文	-11.1718
十號	-11.1718
▁南无龍	-11.1719
境界故	-11.1719
人道	-11.172
作所作	-11.172
因性	-11.172
不乖	-11.1721
仁王	-11.1722
離性非性	-11.1722
鷲	-11.1723
十度	-11.1726
稱名	-11.1731
末法	-11.1731
涼	-11.1733
佛滅度後	-11.1734
為第一	-11.1735
有六種	-11.1735
閻浮提人	-11.1735
人非人等	-11.1735
破惡	-11.1736
聖法	-11.1736
文四	-11.1737
項	-11.1737
當自	-11.1738
舍宅	-11.1739
自思惟	-11.1742
三番	-11.1744
知覺	-11.1745
而死	-11.1745
二性	-11.1745
云何為四	-11.1746
環	-11.1746
識相	-11.1748
菩提之心	-11.1749
虛空中	-11.175
對境	-11.1751
樂於	-11.1751
百二十	-11.1751
亂心	-11.1753
千子	-11.1767
一釋	-11.1772
第二十	-11.1773
2	-11.1774
之耳	-11.1774
既以	-11.1775
菩薩亦復如是	-11.1779
當云何	-11.178
正智如如	-11.1782
華鬘	-11.1782
化成	-11.1784
尚有	-11.1785
故法華云	-11.1787
大人	-11.1788
理智	-11.1788
成熟眾生	-11.1788
觀世音菩薩	-11.1793
既見	-11.1795
攝諸	-11.1795
說是語已	-11.1798
伽羅	-11.1798
圓修	-11.1798
慳悋	-11.1801
琴	-11.1801
應機	-11.1801
童	-11.1801
重說	-11.1803
周旋	-11.1804
棄捐	-11.1804
巳還	-11.1806
一切眾生皆	-11.1806
以餘業故	-11.1807
膏	-11.1807
阿難言	-11.1807
成唯識	-11.1807
我有	-11.1808
大般若	-11.1808
充足	-11.1808
見我	-11.1809
悲愍	-11.1811
之情	-11.1812
如實觀	-11.1812
方丈	-11.1813
此經典	-11.1814
感動	-11.1819
入室	-11.1822
破相	-11.1823
業用	-11.1824
卦	-11.1825
而言之	-11.1826
聞佛說	-11.1829
下賤	-11.183
比量	-11.183
本無生	-11.183
其形	-11.1831
轉勝	-11.1831
▁南无樂	-11.1838
焰佛	-11.1838
於諸佛	-11.1843
頗有	-11.1844
自覺聖趣	-11.1844
弄	-11.1846
事也	-11.1847
具說	-11.1849
楞伽經	-11.1858
紅	-11.1859
信受奉行	-11.1859
不成就	-11.1861
自行化他	-11.1866
說是語時	-11.1868
欲以	-11.1869
如化	-11.1871
之空	-11.1875
慇懃	-11.1877
法要	-11.1878
扇	-11.1878
經中說	-11.1879
讓	-11.1879
鼠	-11.1885
聞其	-11.1887
約觀心	-11.1888
於無量	-11.1889
軍眾	-11.1889
初舉	-11.1891
無邊功德	-11.1891
五千	-11.1891
施戒	-11.1893
可斷	-11.1894
直至	-11.1895
求那	-11.1898
和上	-11.1898
利生	-11.1901
能分別	-11.1901
巳說	-11.1901
而悉	-11.1904
等無有異	-11.1905
所及	-11.1906
亦令	-11.1907
障故	-11.1913
飛行	-11.1913
之家	-11.1915
巳斷	-11.1917
毒藥	-11.1917
經明	-11.1919
方便善巧	-11.1921
準此	-11.1927
一期	-11.1927
菩提者	-11.1927
得成佛	-11.1928
俱名	-11.1928
不調	-11.1928
不能盡	-11.1934
經體	-11.1937
合掌向佛	-11.194
城邑聚落	-11.1941
二十五輪	-11.1941
淨名云	-11.1943
較	-11.1943
乃云	-11.1944
二十六	-11.1945
何妨	-11.1945
何因緣故	-11.1946
不惜身命	-11.1947
共住	-11.1947
然非	-11.1948
覽	-11.1948
中現	-11.1949
囑	-11.195
有四句	-11.195
』「	-11.195
異因	-11.195
成前	-11.1951
心清淨	-11.1953
死者	-11.1954
般泥洹	-11.1955
虎狼	-11.1958
意欲	-11.1959
青黃	-11.1959
法財	-11.1959
軀	-11.1959
餘天	-11.196
非正	-11.196
皆可	-11.1961
炭	-11.1961
我子	-11.1961
道路	-11.1962
釋題	-11.1962
奉事	-11.1963
所得功德	-11.1964
一切凡夫	-11.1965
彌樓	-11.1968
大菩提	-11.197
便成	-11.1973
如來南無善	-11.1973
具四	-11.1973
無所分別	-11.1974
無所起	-11.1974
墮惡道	-11.1976
下正	-11.1976
本意	-11.1979
自受用	-11.1981
根本智	-11.1982
文為四	-11.1983
亦隨	-11.1985
如有	-11.1986
不改	-11.1988
大小乘	-11.1991
位也	-11.1991
識性	-11.1992
幻事	-11.1993
安處	-11.1993
作因	-11.1995
末香	-11.1996
無礙智	-11.1997
善本	-11.2001
殊特	-11.2002
之士	-11.2002
今觀	-11.2003
不學	-11.2005
栴檀香	-11.2005
白象	-11.2008
上有	-11.2008
積佛	-11.201
同佛	-11.2011
永寂	-11.2015
幻法	-11.2017
以種種	-11.2024
其行	-11.2025
以何為	-11.2026
虧	-11.2026
逾	-11.2026
三佛	-11.203
出其	-11.203
第八地	-11.203
▁初舉經	-11.2031
菩提樹	-11.2032
佛南無波頭摩	-11.2033
黑闇	-11.2034
惟願世尊	-11.2036
輕賤	-11.2036
佛國因果	-11.2037
苦海	-11.2038
三脫門	-11.2039
市	-11.204
則不生	-11.2042
成就如是	-11.2043
死人	-11.2046
諸境界	-11.2051
文意	-11.2051
時維摩詰	-11.2052
行布施	-11.2052
列名	-11.2053
悉以	-11.2053
見諸佛	-11.2053
為眾生故	-11.2053
三慧	-11.2054
但由	-11.2054
道果	-11.2054
宗趣	-11.2058
是相	-11.2058
雷音	-11.2062
今從	-11.2068
不妄	-11.2068
大弟子	-11.207
爾時大慧菩薩摩訶薩復白佛言	-11.2074
要當	-11.2077
因何	-11.2078
各隨	-11.2079
觀照	-11.2086
持經	-11.2086
今鈔	-11.2089
作是語已	-11.2091
無明緣行	-11.2092
相從	-11.2092
螺	-11.2095
可意	-11.2095
憐	-11.21
報化	-11.2102
今得	-11.2105
塚間	-11.2106
無有能	-11.2108
所疑	-11.2111
說是法時	-11.2111
暖	-11.2112
光中	-11.2113
十億	-11.2114
是有為	-11.2114
妙理	-11.2114
縣	-11.2114
基	-11.2115
)。(	-11.2118
卷第十	-11.2118
不去	-11.2119
當時	-11.2121
清淨心	-11.2125
善者	-11.2129
若有比丘	-11.213
不得言	-11.2134
此即第二	-11.2136
燈佛南無	-11.214
真相	-11.2142
是正	-11.2143
意明	-11.215
空即	-11.215
所宜	-11.2155
意念	-11.2156
總攝	-11.2164
諸蘊	-11.2164
莊嚴其身	-11.2164
異不異	-11.2166
堅實	-11.2167
無依	-11.2168
泥犁	-11.2168
祖師	-11.2171
所依止	-11.2172
稱量	-11.2172
來世	-11.2172
菩薩乘	-11.2172
嚩	-11.2176
倒懸	-11.2177
安得	-11.2178
奉上	-11.218
不因	-11.218
間錯	-11.2181
求佛道	-11.2181
甘蔗	-11.2183
恐懼	-11.2183
損害	-11.2189
不破	-11.219
各以	-11.2191
有佛性	-11.2191
隨順覺性	-11.2193
清淨法	-11.2196
非也	-11.2196
其國有佛	-11.2198
叔	-11.2199
圓通	-11.2203
之日	-11.2208
無所有處	-11.2208
後人	-11.2208
五住	-11.221
空而	-11.2212
不生故	-11.2212
菩薩地	-11.2215
是所	-11.2216
財富	-11.2216
日出	-11.2216
正直	-11.2217
不悟	-11.2219
皆生	-11.2222
火所燒	-11.2225
離生滅	-11.2227
獵	-11.223
學處	-11.2231
觀如來	-11.2231
鉤	-11.2231
執為	-11.2231
為識	-11.2232
三千世界	-11.2236
下別	-11.2239
菴	-11.2241
經題	-11.2243
捨此	-11.2246
鬚	-11.2246
一頌	-11.2247
譯人	-11.2248
財利	-11.2249
是果	-11.225
句釋	-11.225
禪思	-11.2254
妙慧	-11.2255
下根	-11.2257
普光明	-11.2265
自利利他	-11.2265
空聚	-11.2266
毀犯	-11.2267
若諸	-11.2271
行行	-11.2274
猛利	-11.2275
千劫	-11.2276
魅鬼	-11.2277
必具	-11.2278
為常	-11.2278
緣覺乘	-11.228
悟道	-11.2284
以大	-11.2285
諸法性	-11.2285
我欲	-11.2288
信根	-11.2289
劇	-11.2292
去取	-11.2294
▁南无金	-11.2295
復有二	-11.2296
故令	-11.2296
憂愁	-11.2298
常懷	-11.2298
平等故	-11.2298
若但	-11.2302
食噉	-11.2304
如來智	-11.2304
妄起	-11.2305
不易	-11.2309
絕言	-11.2314
有二意	-11.2315
於正法	-11.2316
能仁	-11.2318
解行	-11.232
於欲	-11.2324
治之	-11.2325
長大	-11.2325
就初	-11.2328
諸因緣	-11.233
不得自在	-11.233
云何知	-11.233
四悉	-11.2331
甚大	-11.2332
於一切時	-11.2334
阿彌陀	-11.2336
七十二	-11.2337
求涅槃	-11.2339
無生死	-11.2339
獄卒	-11.2339
掩	-11.234
與汝	-11.2341
貨	-11.2341
皆同一	-11.2342
▁南无大雲	-11.2343
宗密	-11.2344
未明	-11.2345
其土	-11.2348
時天帝釋	-11.2349
據此	-11.2349
功成	-11.235
四約	-11.2352
罰	-11.2353
幢王佛	-11.2354
受諸苦惱	-11.2355
供養如來	-11.2356
自覺聖	-11.2357
此定	-11.2364
莎呵	-11.2367
饒益眾生	-11.2368
自分	-11.2368
俱離	-11.237
過去世	-11.2372
度脫眾生	-11.2376
同業	-11.2377
機緣	-11.2377
樂受	-11.2378
即理	-11.2378
妄有	-11.238
得其	-11.2381
四神足	-11.2383
一地	-11.2385
先有	-11.2388
我空	-11.2388
相中	-11.2389
爾時世尊重說頌言	-11.239
高山	-11.2391
謂若菩薩	-11.2392
動念	-11.2392
新學	-11.2394
諸妄想	-11.2394
捺	-11.2394
得成就	-11.2397
變易生死	-11.2399
但明	-11.24
之源	-11.2402
即是法身	-11.2405
有餘土	-11.2407
等文	-11.2408
三心	-11.2408
茶	-11.2408
前際	-11.2411
流通分	-11.2411
初分文	-11.2412
八十種好	-11.2416
偷	-11.2416
心心所	-11.2416
方法	-11.2418
形狀	-11.2419
陁	-11.242
方便者	-11.2422
正示	-11.2422
床座	-11.2423
)。】「〔	-11.2428
群臣	-11.2428
不懈	-11.2437
羅云	-11.244
分真	-11.2441
法名	-11.2442
亦未	-11.2445
臨終	-11.2447
耽著	-11.2447
以見	-11.2449
聲聞人	-11.2451
真我	-11.2453
一切所有	-11.2453
八聖道	-11.2455
當機	-11.2455
有九	-11.2456
断	-11.246
諸事	-11.2463
入此	-11.2463
過也	-11.2464
性自	-11.2464
以破	-11.2465
祥	-11.2466
「『	-11.2467
善寂	-11.2469
所逼	-11.247
法相宗	-11.247
佛境界	-11.2471
力用	-11.2472
一月	-11.2472
所宗	-11.2477
彼諸眾生	-11.2478
之可	-11.2479
那得	-11.2479
無所知	-11.248
即上	-11.2482
過此	-11.2482
。」【△	-11.2484
慈悲心	-11.2484
醜陋	-11.2487
江河	-11.2488
以辨	-11.2489
世尊所	-11.2489
鈎	-11.249
菴羅	-11.249
不同也	-11.249
正勤	-11.2492
膿	-11.2493
受法	-11.2494
今所	-11.2495
方有	-11.2495
比丘白佛	-11.2495
即與	-11.2496
非定	-11.2497
流轉生死	-11.2499
堅住	-11.25
識心	-11.2501
香花	-11.2501
地地	-11.2502
為師	-11.2506
性常	-11.2506
高座	-11.2506
郡	-11.2507
妙華	-11.2507
禪波羅蜜	-11.2507
斯由	-11.2509
如前釋	-11.2514
略示	-11.2516
出入息	-11.2518
極苦	-11.2518
為解脫	-11.252
別者	-11.2522
涌	-11.2522
奉施	-11.2523
世有	-11.2527
其處	-11.2527
無缺	-11.2528
皆然	-11.2529
問其	-11.2533
一真	-11.2534
又於	-11.2536
修梵行	-11.2536
人之	-11.2537
不即	-11.2537
者是也	-11.2539
是別	-11.2541
菩提分	-11.2542
生法二空	-11.2542
9	-11.2544
離彼	-11.2544
惟願為說	-11.2545
花鬘	-11.2546
邪命	-11.2547
善利	-11.2549
涅槃也	-11.2551
鈎鎻	-11.2552
曷	-11.2555
妙德	-11.2557
既盡	-11.2557
眼色	-11.2557
之土	-11.2561
第十二	-11.2564
六凡	-11.2565
四結	-11.2566
白毫	-11.2567
辭不堪	-11.257
承上	-11.2571
慧力	-11.2572
世事	-11.2573
俱非	-11.2573
罪報	-11.2574
大辯	-11.2575
化度	-11.2576
垢染	-11.2577
心如	-11.2577
為何等	-11.2578
嚕	-11.2578
此三千大千世界	-11.2579
知我	-11.258
座上	-11.2581
當令	-11.2582
大明	-11.2585
成就佛	-11.2591
不曉	-11.2594
性起	-11.2601
三根	-11.2602
秖是	-11.2604
尚書	-11.2604
即離	-11.2604
無所有故	-11.2604
決了	-11.2605
善分別	-11.2607
以至	-11.2609
摩耶	-11.2609
觀中	-11.261
巳前	-11.261
調伏其心	-11.2613
尚不能	-11.2614
」【(	-11.2614
兩種	-11.2616
二因	-11.2619
邪答	-11.262
中論	-11.262
泣	-11.262
厭患	-11.262
燒煮	-11.2621
如幻三昧	-11.2623
像法	-11.2625
想者	-11.2625
雖多	-11.2631
無漏法	-11.2632
葛	-11.2632
廣為	-11.2633
何等法	-11.2636
三曰	-11.2636
例此	-11.2636
三惡	-11.2638
色法	-11.2639
六七	-11.2639
彼諸外道	-11.2642
慈悲喜捨	-11.2642
疲厭	-11.2643
首菩	-11.2643
世尊所說	-11.2643
觀諸法	-11.2644
無數百千	-11.2645
四月	-11.2645
世尊重攝此義而說	-11.2649
不受後有	-11.2649
依經	-11.2651
其旨	-11.2652
知有	-11.2653
團	-11.2654
釋中	-11.2654
頒宣	-11.2655
圓人	-11.2655
心既	-11.2656
茂	-11.2657
明智	-11.2657
有物	-11.2657
王位	-11.266
五人	-11.2662
醫方	-11.2663
逃	-11.2664
牛王	-11.2664
亦即	-11.2665
蠲除	-11.2666
非所作	-11.2667
顯出	-11.2668
祇域	-11.2671
於戒	-11.2671
不論	-11.2671
欲明	-11.2674
卷第五	-11.2676
還歸	-11.2678
即起	-11.2679
欲入	-11.2682
本來無	-11.2682
說三乘	-11.2687
旦	-11.2688
偈曰	-11.2689
法藥	-11.269
真體	-11.269
勿令	-11.2693
觀諸	-11.2697
七覺	-11.2697
有罪	-11.2701
著我	-11.2703
盡其	-11.2708
難云	-11.2709
亦具	-11.2711
動靜	-11.2714
精氣	-11.2715
樂聞	-11.2716
方乃	-11.2721
故論云	-11.2721
此即第一	-11.2721
本源	-11.2722
十里	-11.2723
幾種	-11.2725
自心妄想	-11.2726
體即	-11.2726
業者	-11.2726
有得	-11.2726
阿那律	-11.273
皆發阿耨多羅三藐三菩提心	-11.273
即真如	-11.273
橋	-11.273
初一行	-11.2731
一大	-11.2732
險難	-11.2733
拙	-11.2733
常隨	-11.2736
旃陀羅	-11.2736
醒	-11.2737
宣揚	-11.2737
是則為	-11.2739
受食	-11.2739
理實	-11.274
肘	-11.274
五識身	-11.2741
已見	-11.2742
一實境界	-11.2743
佛南無月	-11.2744
釋論云	-11.2748
三細	-11.275
指示	-11.2751
是同	-11.2753
緣了	-11.2754
疑悔	-11.2756
佛滅後	-11.2757
三際	-11.2757
則一切	-11.2757
彼菩薩	-11.2758
如須彌山	-11.2759
)。】	-11.276
相望	-11.2761
爾時佛告	-11.2763
通妨	-11.2764
之異名	-11.2765
樂音	-11.2765
三十三	-11.2766
發露	-11.2768
自稱	-11.2768
報言	-11.2769
作沙門	-11.277
故前	-11.2771
文殊師利白佛言	-11.2774
果者	-11.2774
如是見	-11.2774
名佛	-11.2775
喻也	-11.2775
置於	-11.2775
行步	-11.2776
增上緣	-11.2778
念言	-11.2779
知者	-11.278
善趣	-11.278
煮	-11.278
於境	-11.2782
一正	-11.2782
十事	-11.2783
骨人	-11.2784
俱時	-11.2784
▁南无甘露	-11.2784
若自	-11.2787
大莊嚴	-11.279
無義	-11.279
空無所有	-11.279
出息	-11.2791
百千劫	-11.2791
述云	-11.2794
彼眾生	-11.2796
幻心	-11.2796
造惡業	-11.2798
在生死	-11.2798
不移	-11.2798
之師	-11.2799
識生	-11.28
相空	-11.28
身光	-11.2801
發大心	-11.2801
可證	-11.2801
幻夢	-11.2801
辟支	-11.2802
據實	-11.2805
妄識	-11.2807
舉體	-11.281
修菩薩行	-11.2811
便自	-11.2811
非滅	-11.2812
西北方	-11.2813
如其所	-11.2815
下顯	-11.2815
隨轉	-11.2818
定中	-11.2819
發真	-11.282
涅	-11.2821
聞是語已	-11.2822
四字	-11.2822
逕	-11.2823
製	-11.2823
燋	-11.2823
無量光	-11.2826
寢	-11.2827
毀壞	-11.2828
未審	-11.2829
無性故	-11.2831
汝可	-11.2832
命終之後	-11.2832
非離	-11.2833
不動地	-11.2834
信行	-11.2834
多分	-11.2835
彼以聞慧見	-11.2839
得出	-11.284
若斷	-11.2841
發大	-11.2842
或計	-11.2844
悲泣	-11.2846
之具	-11.2846
等行	-11.2847
時分	-11.2849
有眾生	-11.2852
兜率陀天	-11.2852
大圓覺	-11.2853
住佛	-11.2853
欲貪	-11.2854
極樂	-11.2854
之則	-11.2854
不輕	-11.2858
氣力	-11.2859
遵修	-11.286
皆通	-11.2861
同類	-11.2861
人物	-11.2862
是道	-11.2864
夢見	-11.2865
有所說	-11.2865
由是因緣	-11.2867
往彼	-11.2868
六十二	-11.2869
依之	-11.2873
樂住	-11.2874
墮惡趣	-11.2874
是世間	-11.2874
諸三昧	-11.2874
蓮花池	-11.2875
於虛空中	-11.2877
證菩提	-11.2879
退轉	-11.288
謂若	-11.288
以前	-11.2882
阿彌陀佛	-11.2884
為異	-11.2884
未忘	-11.2887
無戲論	-11.2887
一切有為	-11.2887
毘鉢舍那	-11.2889
生大	-11.2891
身長	-11.2894
七八	-11.2895
文殊章	-11.2896
又能	-11.2897
千里	-11.2898
所有諸	-11.2898
眴	-11.2898
領解	-11.2898
唯此	-11.2899
戾	-11.29
色者	-11.2902
朋友	-11.2902
四無畏	-11.2903
六義	-11.2905
片	-11.2906
種諸善根	-11.2908
如意珠	-11.2909
節節	-11.291
苗	-11.291
能如是	-11.291
疑念	-11.291
所分別	-11.2912
祀	-11.2912
無違	-11.2912
得人身	-11.2913
欲度	-11.2913
官屬	-11.2915
南無月	-11.2915
耶解云	-11.2918
身也	-11.2919
十八不共法	-11.292
無彼	-11.2921
問之	-11.2922
汙	-11.2924
一念心	-11.2924
順法	-11.2925
設教	-11.2925
應如是	-11.2926
劫初	-11.2927
滿願	-11.2929
標指	-11.2932
時諸	-11.2932
非無性	-11.2934
演義	-11.2935
梵世	-11.2936
即具	-11.2937
白法	-11.2937
偏圓	-11.2937
隨從	-11.2938
初中二	-11.2938
諸佛剎	-11.2941
次觀	-11.2942
是因	-11.2942
皈	-11.2943
如電	-11.2943
▁南无離	-11.2946
雖未	-11.2947
諸性	-11.295
共成	-11.2953
幻智	-11.2956
隨行	-11.2956
智相	-11.2957
彼見	-11.2959
名善	-11.296
三摩	-11.2961
得是	-11.2963
善德	-11.2963
初學	-11.2964
趨	-11.2967
三摩提	-11.2967
五果	-11.2969
無起滅	-11.2971
但得	-11.2971
稽首佛足	-11.2975
受苦惱	-11.2975
須彌山王	-11.2977
峰	-11.2978
燭	-11.298
正真	-11.298
修成	-11.2981
無有實	-11.2983
兆	-11.2983
於中有三	-11.2985
瑩	-11.2987
無所罣礙	-11.2987
妄情	-11.2988
把	-11.299
異熟果	-11.2991
遍行	-11.2991
理無	-11.2992
持淨戒	-11.2992
二慧	-11.2993
各說	-11.2994
法想	-11.3
法性身	-11.3002
五名	-11.3006
唯見	-11.3007
齋戒	-11.3009
沙門婆羅門	-11.301
其王	-11.301
及一切	-11.3012
若有若無	-11.3012
故說為	-11.3018
脩習	-11.3018
甚麼	-11.3019
不增	-11.302
復作是念	-11.3022
難信	-11.3024
三解脫門	-11.3024
無有二	-11.3025
明矣	-11.3026
外現	-11.3027
萬億	-11.3028
山王佛	-11.3034
嗜	-11.3038
二土	-11.3042
自宗	-11.3045
同此	-11.3049
證智	-11.3049
中出	-11.3052
巨	-11.3053
現瑞	-11.3054
七百	-11.3056
普賢菩薩	-11.3056
阿蘭若	-11.3057
外性	-11.3057
飄	-11.306
自性清淨心	-11.3061
法緣	-11.3061
奢利弗	-11.3062
願行	-11.3064
無住處	-11.3064
贍部洲	-11.3065
耆年	-11.3066
駕	-11.3066
宗旨	-11.3067
鍊	-11.3068
定有	-11.3071
文殊師利童子	-11.3073
釋此	-11.3073
厥	-11.3075
散動	-11.3075
羯	-11.3075
規	-11.3076
名無	-11.3076
眾生見	-11.3077
無上正真之道	-11.3077
不復更	-11.3078
顯勝	-11.3078
顯體	-11.3078
異說	-11.308
通教菩薩	-11.308
中具	-11.3081
道教	-11.3084
究盡	-11.3084
而為上首	-11.3085
斷障	-11.3087
但能	-11.3088
於此中	-11.3089
歡樂	-11.309
鵝王	-11.3092
阿難白佛言	-11.3092
千年	-11.3093
白骨	-11.3095
有行	-11.3095
淨潔	-11.3097
常寂光	-11.31
不雜	-11.3103
耆婆	-11.3104
等經	-11.3105
即是涅槃	-11.3107
眾生之類	-11.3113
約法	-11.3114
因成	-11.3114
解脫也	-11.3114
救度	-11.3118
非自	-11.3118
無塵	-11.3119
▁南无堅	-11.3119
當受	-11.312
真佛	-11.3121
夜摩	-11.3123
醫藥	-11.3125
來至此	-11.3125
已斷	-11.3126
此間	-11.3126
8	-11.3126
發言	-11.3129
到彼	-11.3129
客塵	-11.3131
無我所	-11.3132
及諸大眾默然而聽	-11.3133
雲集	-11.3134
諷	-11.3135
教誨	-11.3137
我昔	-11.3138
毘婆舍那	-11.3139
繫心	-11.314
惱害	-11.314
若準	-11.314
窮盡	-11.314
泛	-11.314
所解	-11.3141
苦因	-11.3142
勤行精進	-11.3142
母胎	-11.3143
勝相	-11.3145
妙聲	-11.3146
性中	-11.3147
綺	-11.3149
懇	-11.315
水精	-11.3151
殊勝功德	-11.3151
欲聞	-11.3151
言說者	-11.3154
方知	-11.3158
定也	-11.3159
犁	-11.3163
端坐	-11.3163
受之	-11.3164
圓淨	-11.3166
𧗪	-11.3166
不唯	-11.3167
愍念	-11.3168
大般涅槃	-11.3169
體同	-11.3172
我想	-11.3174
療治	-11.3174
不清淨	-11.3175
本識	-11.3175
魔業	-11.3176
說偈言	-11.3183
皆說	-11.3184
之疾	-11.3185
因彼	-11.3186
疏鈔	-11.3189
文殊師利法王子	-11.3189
八解	-11.3189
前中	-11.3191
次二句	-11.3191
今乃	-11.3191
行門	-11.3192
眾具	-11.3192
入三昧	-11.3193
位者	-11.3198
入佛	-11.3199
國名	-11.3201
別也	-11.3202
有人言	-11.3202
清白	-11.3202
當教	-11.3204
是諸眾生	-11.3204
惡魔	-11.3206
五乘	-11.3206
其功德	-11.3206
道俗	-11.3207
從他	-11.3208
汝身	-11.3209
謂如來	-11.321
是凡夫	-11.3212
逗	-11.3212
慈恩	-11.3213
亦常	-11.3213
百倍	-11.3213
得住	-11.3214
菩提樹下	-11.3215
不來不去	-11.3216
無縛	-11.3218
圓妙	-11.3224
故我不任詣彼問疾	-11.3224
不執	-11.3225
菩薩於	-11.3226
僧問	-11.3226
空品	-11.3226
不被	-11.3229
證此	-11.323
起煩惱	-11.323
共生	-11.3231
妙好	-11.3233
阿須倫	-11.3233
他化自在天	-11.3233
無自性性	-11.3233
次約	-11.3234
自通	-11.3235
非四大	-11.3236
▁南无持	-11.3237
償	-11.3237
魔波旬	-11.3238
一子	-11.3238
而心	-11.3238
所有一切	-11.3238
覆藏	-11.3239
依主釋	-11.324
大方廣	-11.3242
貝	-11.3245
所餘	-11.3245
譯云	-11.3246
出定	-11.3247
萎	-11.3248
匿	-11.3248
若斯	-11.3248
頓證	-11.3248
▁初正	-11.3249
李	-11.3249
滅道	-11.3251
一總	-11.3251
道之	-11.3251
思益	-11.3252
我無我	-11.3252
各得	-11.3253
相資	-11.3253
▁南无波頭摩	-11.3253
序云	-11.3254
器世間	-11.3256
分為	-11.3257
相與	-11.3258
東北方	-11.3258
美味	-11.3258
如響	-11.3263
經教	-11.3265
放捨	-11.3267
文相	-11.3267
有無量種	-11.3267
依真	-11.3269
▁初示	-11.327
不復生	-11.3272
體故	-11.3272
能信	-11.3277
退沒	-11.3278
資具	-11.3284
一道	-11.3285
所作業	-11.3289
執着	-11.329
釋者	-11.3291
觀其	-11.3291
十二入	-11.3293
來生其國	-11.3293
無閡	-11.3295
其女	-11.3296
解義	-11.3297
以證	-11.3298
觀境	-11.3299
愛佛	-11.3299
不般涅槃	-11.33
施佛	-11.33
四句者	-11.3301
影現	-11.3301
前巳	-11.3303
從何所來	-11.3305
進止	-11.3305
夢幻	-11.3305
與外道	-11.3305
一切天眾	-11.3309
閣	-11.3311
八邪	-11.3313
真識	-11.3313
造惡	-11.3313
目前	-11.3314
撮	-11.3315
本文	-11.3317
無等等	-11.3318
亦見	-11.3319
此會	-11.332
剛藏	-11.3321
疑網	-11.3322
又彼比丘知業果報	-11.3322
然後乃	-11.3322
此章	-11.3323
鑽	-11.3323
無煩惱	-11.3324
法律	-11.3324
此當	-11.3324
說其	-11.3328
入初地	-11.3328
野馬	-11.333
遍一切處	-11.333
普觀	-11.3331
立宗	-11.3331
復觀	-11.3331
受五欲樂	-11.3331
我及	-11.3333
而用	-11.3334
搏	-11.3335
而無所	-11.3336
以何等	-11.334
所建立	-11.3342
五教	-11.3342
當得作佛	-11.3344
菩薩心	-11.3344
能引	-11.3345
芭蕉	-11.3346
行陰	-11.3348
求索	-11.3348
唯以	-11.3349
不散	-11.3349
全無	-11.3353
加被	-11.3357
身色	-11.3359
真性解脫	-11.336
三昧起	-11.3362
所獲	-11.3363
願樂	-11.3364
魔怨	-11.3365
息滅	-11.3365
)「	-11.3366
此女	-11.3369
一雙	-11.3369
攝所攝	-11.337
順行	-11.3372
空界	-11.3373
鐵圍山	-11.3373
之法也	-11.3374
遷流	-11.3374
引之	-11.3375
三無性	-11.3376
語業	-11.3376
或名	-11.3377
如鏡中像	-11.3379
肇	-11.3379
等是	-11.3381
為上	-11.3385
界中	-11.3389
下有	-11.339
二處	-11.3391
復還	-11.3391
山河	-11.3393
上二句	-11.3393
泥團	-11.3395
顯了	-11.3395
所護	-11.3396
滅後	-11.3397
成所作智	-11.3402
屠	-11.3402
康	-11.3403
不常	-11.3404
整	-11.3406
志願	-11.341
天衣	-11.3411
資粮	-11.3415
或生	-11.3415
剛強	-11.3415
甚可愛樂	-11.3416
陣	-11.3416
霜	-11.3417
第四禪	-11.3418
得未曾有	-11.3419
散壞	-11.3421
通達佛道	-11.3422
阿閦	-11.3422
凶	-11.3423
四依	-11.3424
不加	-11.3424
厄難	-11.3425
不無	-11.3427
那羅	-11.3427
心想	-11.3432
論義	-11.3434
開顯	-11.3436
勝性	-11.3437
所從	-11.3437
後文	-11.3437
濟度	-11.3439
離心意意識	-11.3439
五百人	-11.3439
諸禪定	-11.344
染汙	-11.3443
無上正真道	-11.3445
譬如大海	-11.3445
何謂為四	-11.3446
得如是	-11.345
去聲	-11.3451
赤色	-11.3451
說彼	-11.3452
眼菩	-11.3453
真實法	-11.3454
風雨	-11.3454
非數	-11.3454
對機	-11.3459
國界	-11.346
諸山	-11.346
東方去此	-11.3461
別顯	-11.3466
助成	-11.3467
迭相	-11.3469
實不	-11.3469
同是	-11.347
雖通	-11.347
爾時世尊重說偈言	-11.3472
何物	-11.3474
之極	-11.3475
八十億	-11.3479
謂能	-11.3484
覺相	-11.3484
稱理	-11.3485
異類	-11.3485
屎	-11.3487
緒	-11.3488
亦不知	-11.3488
此段	-11.3491
無常等	-11.3494
所作已辦	-11.3494
闡	-11.3495
脩行者	-11.3496
如天	-11.3497
奮迅佛	-11.3498
常與	-11.3498
章安	-11.3498
入不二	-11.35
思慧	-11.3501
故次	-11.3501
教也	-11.3501
』	-11.3501
謂離	-11.3502
羂	-11.3503
普見	-11.3503
線	-11.3503
聽許	-11.3504
其一	-11.3504
教之	-11.3507
法花	-11.3507
夕	-11.3507
變壞	-11.3508
通序	-11.3509
餘文	-11.3511
不可稱	-11.3512
勝王佛南無	-11.3516
增損	-11.3517
異道	-11.3518
皆爾	-11.3518
自致	-11.353
集眾	-11.3532
▁南无雲	-11.3534
彼人如是	-11.3536
已還	-11.3536
行放逸	-11.3537
分四	-11.3538
西南方	-11.3541
之惑	-11.3541
之論	-11.3542
法身也	-11.3543
求其	-11.3545
無實體	-11.3545
相成	-11.3547
趣入	-11.3548
覺體	-11.3551
亦曰	-11.3552
而未	-11.3554
應離	-11.3554
即性	-11.3555
非聖	-11.3555
即解脫	-11.3556
發業	-11.3557
1	-11.356
今是	-11.356
得證	-11.3561
上味	-11.3564
次一行	-11.3565
於虛空	-11.3567
之水	-11.3568
了不可得	-11.3568
眾華	-11.3569
所生之處	-11.3572
常寂光土	-11.3574
諸寶	-11.3575
無斷	-11.3576
清淨無垢	-11.3576
之音	-11.3577
函	-11.3577
身無	-11.3577
非相	-11.3577
三賢	-11.3578
教行	-11.358
體無	-11.358
伽藍	-11.3581
却住一面	-11.3581
圓覺妙心	-11.3581
活命	-11.3582
之藏	-11.3586
如來出世	-11.3586
三果	-11.3586
舊經	-11.3587
怠	-11.3588
五門	-11.3588
生在	-11.3588
瘦	-11.3588
見淨	-11.3589
無力	-11.359
以善業故	-11.3592
此地	-11.3592
既生	-11.3593
教以	-11.3594
經書	-11.3596
有十二	-11.3596
施食	-11.3597
無他	-11.3597
縮	-11.3597
彼於	-11.3598
毘羅	-11.3599
寂寞	-11.36
度之	-11.3601
有分別	-11.3602
先說	-11.3602
自在王	-11.3604
寶光	-11.3605
專精	-11.3605
有千	-11.3605
不如法	-11.3605
天耳	-11.3608
卷第六	-11.3609
聚沫	-11.361
愛取	-11.3611
願得	-11.3611
善意	-11.3615
淨佛	-11.3618
差別故	-11.3618
後四	-11.3619
天佛南無	-11.3619
不應說	-11.3622
相稱	-11.3622
長跪	-11.3624
唯取	-11.3624
次一頌	-11.3625
魔外	-11.3625
次句	-11.3625
曰眾祐	-11.3627
法生	-11.3627
嗅	-11.3628
非空	-11.3628
能到	-11.3629
得定	-11.363
應現	-11.3636
釋二	-11.3637
答也	-11.3637
二顯	-11.3637
毒害	-11.3639
志求	-11.364
章中	-11.364
受用身	-11.3641
食人	-11.3641
隨俗	-11.3643
雜寶	-11.3646
流支云	-11.3652
敘述	-11.3653
如空華	-11.3654
八相	-11.3658
常能	-11.3658
覺佛	-11.3659
無量諸佛	-11.3661
楊	-11.3662
法音	-11.3662
月蓋	-11.3663
愍傷	-11.3664
魂	-11.3665
入如來地	-11.3666
旁	-11.3671
以譬	-11.3671
非諸	-11.3672
其名曰	-11.3673
眾祐	-11.3675
筏	-11.3676
壽終	-11.3676
受行	-11.3677
盂蘭盆	-11.3678
紹隆	-11.3679
飢饉	-11.3679
敬田	-11.3679
曾聞	-11.368
授決	-11.368
寶佛	-11.3681
剝	-11.3682
肺	-11.3682
大河	-11.3686
貴賤	-11.3687
腸	-11.3689
狐	-11.369
增勝	-11.369
此經文	-11.3691
無妨	-11.3692
果地	-11.3692
阿闍世王	-11.3693
白色	-11.3693
山谷	-11.3694
一切惡	-11.3696
身意	-11.3696
若執	-11.3697
心得解脫	-11.3697
大德舍利弗	-11.37
吾今	-11.3701
名相妄想	-11.3702
故不可	-11.3703
從初發心	-11.3705
各具	-11.3708
不了義	-11.3709
為眾生說	-11.3709
獲大	-11.371
利眾生	-11.371
入諸	-11.3711
十歲	-11.3713
其音	-11.3717
為根本	-11.3717
釋上	-11.3718
欲說	-11.3718
鄰	-11.3721
然有	-11.3722
始知	-11.3725
闇冥	-11.3726
還成	-11.3726
初云	-11.3728
依於一異俱不俱有無非有非無常無常	-11.3728
之識	-11.3729
佛與	-11.3729
故偏	-11.3729
四品	-11.3732
只為	-11.3733
勤行	-11.3735
如來名號	-11.3736
之稱	-11.3738
三日	-11.3739
諸難	-11.3744
少時	-11.3745
在地	-11.3746
寧有	-11.3746
集註云	-11.3746
宮中	-11.3747
外物	-11.3748
諸經論	-11.3748
題目	-11.3751
佛名經	-11.3751
大菩薩眾	-11.3752
詳之	-11.3754
今何	-11.3757
佛菩薩	-11.376
牀	-11.3763
此陀羅尼	-11.3763
無覺	-11.3764
無遺	-11.3764
喜見	-11.3764
渾	-11.3765
得值	-11.3766
迷於	-11.3766
鸚鵡	-11.3766
陷	-11.3767
名如來藏	-11.3768
扣	-11.3769
羯磨	-11.3769
分散	-11.3769
?「	-11.3769
歌詠	-11.377
先當	-11.3771
如燈	-11.3771
勝智	-11.3772
二結	-11.3773
嬉戲	-11.3773
殘害	-11.3774
變成	-11.3774
非生	-11.3775
教主	-11.3776
澡浴	-11.3778
幡蓋	-11.3778
都不	-11.378
日月光	-11.3781
則見	-11.3781
以一切法	-11.3781
即色	-11.3782
應說	-11.3783
即空假中	-11.3783
漸頓	-11.3785
馱	-11.3786
?』「	-11.3786
燃	-11.379
此難	-11.3791
覺巳	-11.3791
戲樂	-11.3793
八正	-11.3797
邪法	-11.3799
圓覺者	-11.38
漸教	-11.38
別惑	-11.38
彌勒佛	-11.3803
所有功德	-11.3806
違順	-11.3809
大藏	-11.3809
分別故	-11.3811
受想	-11.3812
名句	-11.3814
為先	-11.3814
次復	-11.3814
於三	-11.3817
初一	-11.3817
有殊	-11.3818
所纏	-11.3819
既然	-11.382
一切諸眾生	-11.3821
猶在	-11.3821
不定性	-11.3822
熱病	-11.3823
精進力	-11.3826
悉無	-11.3826
亦離	-11.3827
如蓮華	-11.3827
三尊	-11.3828
我愛	-11.3829
佛知	-11.3832
等義	-11.3833
我此	-11.3833
不偏	-11.3835
而得自在	-11.3836
一由旬	-11.3837
虛假	-11.3838
若不異者	-11.384
室空	-11.384
問如來	-11.384
四天王天	-11.3841
淨法界	-11.3842
是幻	-11.3842
此依	-11.3847
障道	-11.3847
死生	-11.3848
示現如是	-11.3849
識浪	-11.3849
寂靜故	-11.385
彼王	-11.3852
得忍	-11.3852
頭上	-11.3853
重重	-11.3853
溥首	-11.3854
結加趺坐	-11.3854
▁初正釋	-11.3856
勝功德	-11.3856
荼	-11.3857
別序	-11.3858
▁初解	-11.386
半偈	-11.3861
為天	-11.3861
食時	-11.3862
所壞	-11.3864
此六	-11.3867
盲者	-11.3869
何別	-11.3869
無染著	-11.3869
毀戒	-11.3871
魯	-11.3871
諸眾生故	-11.3872
終歸	-11.3874
則於	-11.3874
夜摩天王	-11.3876
勸化	-11.3877
已盡	-11.3877
惡事	-11.3877
別離	-11.3878
漸修	-11.3878
而欲	-11.3879
六百	-11.3885
骨髓	-11.3885
無涅槃	-11.3886
問此	-11.3889
一億	-11.3891
不發	-11.3892
祐	-11.3897
受陰	-11.3898
無有障礙	-11.3898
未詳	-11.3898
囑累	-11.3899
百味	-11.3899
外境界	-11.3902
外道邪見	-11.3906
重頌	-11.3909
時無垢稱	-11.3912
當為汝	-11.3915
功德海	-11.3918
下答	-11.3919
易見	-11.3921
上座	-11.3926
彼文	-11.3926
三千界	-11.3933
二品	-11.3933
泡	-11.3933
六度無極	-11.3937
菩薩戒	-11.3937
問何故	-11.3939
舌相	-11.3939
總有	-11.3939
嶮	-11.3939
中品	-11.394
有滅	-11.3941
無量劫	-11.3942
隋	-11.3948
一切賢聖	-11.3948
毛竪	-11.3948
成實	-11.3948
兩字	-11.3949
祿	-11.395
上地	-11.395
王菩薩	-11.395
義通	-11.3951
饑	-11.3953
思惟佛	-11.3953
功德智慧	-11.3953
十句	-11.3953
勘	-11.3954
掘	-11.3956
一切苦	-11.3957
皆約	-11.3957
色中	-11.3958
境觀	-11.3959
入地	-11.3959
樂處	-11.396
道故	-11.396
六十四	-11.396
雞兜	-11.396
中根	-11.3962
滅諸	-11.3963
淨德	-11.3963
承佛威神	-11.3965
佛出	-11.3965
疾疫	-11.3966
尊長	-11.3966
服藥	-11.3967
修禪	-11.397
▁南无稱	-11.3972
能通	-11.3976
六品	-11.3977
來會	-11.3978
色蘊	-11.3979
約義	-11.3979
問我	-11.3981
多緻他	-11.3982
發誓	-11.3982
識知	-11.3983
自體相	-11.3984
藥草	-11.3985
舉手	-11.3986
亦由	-11.3988
離生死	-11.3989
三大	-11.399
諸界	-11.399
何等為三	-11.3991
背捨	-11.3992
心心	-11.3993
最極	-11.3993
王及	-11.3995
有力	-11.3996
因上	-11.3996
於此經	-11.3997
到佛所	-11.3998
之觀	-11.4
見法無我	-11.4001
法海	-11.4001
勝菩	-11.4002
來集	-11.4002
係	-11.4003
非汝	-11.4004
貪求	-11.4005
青寶	-11.4006
色聲	-11.4006
造立	-11.4007
無所從來	-11.4008
▁南无成就	-11.4009
人眾	-11.401
為護	-11.401
無二相	-11.4012
出聲	-11.4013
𢙣	-11.4013
能造所造	-11.4014
本住法	-11.4015
於苦	-11.4016
正語	-11.4017
以神通力	-11.4018
說通	-11.4019
德如來	-11.4019
菩薩雖	-11.4019
▁初總	-11.4022
濡首	-11.4025
經宗	-11.4025
母字	-11.4025
勿生	-11.4025
合為	-11.4026
行菩薩道	-11.4027
攀	-11.4028
▁初問	-11.403
有一人	-11.403
虛無	-11.4031
授與	-11.4031
圓鏡	-11.4033
願令	-11.4035
極惡	-11.4035
非理	-11.4038
鴿	-11.4041
蟻	-11.4041
同處	-11.4043
方便教	-11.4043
佛德	-11.4044
畔	-11.4044
阿閦佛	-11.4045
我若	-11.4045
細滑	-11.4046
耐	-11.4047
區	-11.4047
伽他	-11.4048
勝德	-11.4048
化佗	-11.4051
此苦	-11.4053
隨應	-11.4054
成就佛南無	-11.4055
八百	-11.4055
諸佛剎土	-11.4056
大梵天王	-11.4056
於生死中	-11.4056
果實	-11.4057
飛鳥	-11.4058
即從坐起	-11.4059
諸法自性	-11.4059
時長者子	-11.406
四正勤	-11.4061
此通	-11.4061
極大	-11.4062
身等	-11.4063
火中	-11.4066
下別釋	-11.4066
處生	-11.4067
非斷	-11.4068
此四句	-11.4069
為六	-11.407
二初約	-11.407
若遇	-11.4072
此二種	-11.4072
且置	-11.4073
此由	-11.4073
故舉	-11.4074
未除	-11.4074
其父	-11.4074
靜觀	-11.4075
如山	-11.4078
而顯	-11.4081
已過	-11.4082
天華	-11.4082
之矣	-11.4083
陀那	-11.4084
諸國	-11.4084
必由	-11.4086
之喻	-11.4089
當勤	-11.4089
兩重	-11.4089
起妄想	-11.409
奈	-11.409
所列	-11.4095
為行	-11.4096
常說	-11.4099
三疑	-11.41
鮮白	-11.4101
化城	-11.4101
結縛	-11.4102
結也	-11.4103
復得	-11.4103
後方	-11.4103
能住	-11.4104
正性	-11.4105
疑者	-11.4105
昔有	-11.4106
滅已	-11.4108
同學	-11.4109
別義	-11.4111
餘義	-11.4112
與大比丘眾	-11.4114
推之	-11.4115
於今	-11.4118
屍	-11.4118
千二百五十	-11.412
依義	-11.4121
無惡	-11.4125
諸通慧	-11.4126
阿羅訶	-11.4128
轍	-11.4129
以何義故	-11.413
王所	-11.4131
淪	-11.4133
令修	-11.4133
無所取	-11.4136
人法無我	-11.4137
諾	-11.4137
習學	-11.4138
深密經云	-11.4139
普令	-11.4139
行住坐臥	-11.4139
▁南无寂	-11.414
生酥	-11.4141
邊地	-11.4143
光如來	-11.4143
發菩提心者	-11.4144
毘曇	-11.4144
阿鼻地獄	-11.4145
出妙音聲	-11.4145
孟	-11.4145
邪因	-11.4147
此即是	-11.4147
一切眾生心	-11.4149
三假	-11.415
疑佛	-11.415
了義經	-11.4154
諸小	-11.4156
至彼	-11.4156
巳去	-11.4156
天之	-11.4157
之覺	-11.4158
教相	-11.4159
巳盡	-11.4159
超度	-11.416
閡	-11.4161
於菩提	-11.4162
善護	-11.4162
權方便	-11.4162
是行	-11.4163
能正	-11.4165
今亦	-11.4166
巳竟	-11.4166
刀杖	-11.4167
不能了	-11.4167
過咎	-11.4168
教者	-11.4168
貧人	-11.4169
無始虗偽	-11.417
見妄想	-11.4171
而不捨	-11.4172
違背	-11.4172
標名	-11.4173
大乘經	-11.4174
智論云	-11.4174
嚴身	-11.4175
如來南無無邊	-11.4176
磨滅	-11.4177
聲聞弟子	-11.4178
法愛	-11.4178
七月	-11.418
於大乘	-11.418
孝子	-11.4181
善男子善女人	-11.4181
有世界名曰	-11.4184
種種妄想	-11.4184
以身	-11.4185
頭面	-11.4185
食已	-11.4185
今更	-11.4185
佛南無甘露	-11.4186
發趣	-11.4186
順理	-11.4188
侯	-11.4188
破彼	-11.4189
四悉檀	-11.4191
次文	-11.4192
壽量品	-11.4192
結上	-11.4193
解之	-11.4193
亦作	-11.4197
隱顯	-11.4198
差別者	-11.4198
計為	-11.4198
為化	-11.4199
發無上正真道意	-11.42
今生	-11.42
重明	-11.42
獨步	-11.4203
假合	-11.4203
所從來	-11.4207
入於涅槃	-11.4207
在心	-11.4209
一切所作	-11.4211
聰	-11.4211
諸苦惱	-11.4212
大光	-11.4213
其前	-11.4216
佛南無香	-11.4218
入理	-11.4219
頭面禮足	-11.4219
評	-11.4219
隨業	-11.422
起信論	-11.4222
一境	-11.4222
兜	-11.4222
法喜	-11.4223
輪佛	-11.4223
大寶	-11.4224
初徵	-11.4224
生苦	-11.4224
二辨	-11.4224
韻	-11.4225
作善	-11.4225
安穩	-11.4226
臨命終時	-11.4227
意令	-11.4228
益也	-11.4228
貪嗔癡	-11.4228
▁南无花	-11.423
廣分別	-11.423
至佛所	-11.423
天尊	-11.4231
無果	-11.4232
隨法行	-11.4232
羅什	-11.4233
妙幢	-11.4233
犢子	-11.4234
霧	-11.4235
斧	-11.4238
是故我今	-11.4239
圓成實性	-11.4239
有所作	-11.4242
亦不念	-11.4243
非他	-11.4243
得陀羅尼	-11.4244
更無餘	-11.4247
亂意	-11.4247
發道心	-11.4248
所使	-11.4248
凡小	-11.4249
是諸佛	-11.4251
有門	-11.4252
故當	-11.4253
炙	-11.4258
南無淨	-11.4261
須達	-11.4261
種種方便	-11.4261
南山	-11.4263
承佛	-11.4263
性是	-11.4263
機宜	-11.4265
生不生	-11.4265
次答	-11.4269
速證	-11.4271
三佛性	-11.4272
於緣起	-11.4274
其家	-11.4275
得神通	-11.4275
若唯	-11.4276
彼山	-11.4277
十月	-11.4279
無始來	-11.428
發道意	-11.4281
便謂	-11.4283
常作	-11.4285
自悟	-11.4286
詔	-11.4286
干	-11.4286
過去未來現在	-11.4287
斯為	-11.4288
梵天王	-11.4288
慢心	-11.4289
罪報懺悔	-11.4292
無去來	-11.4292
皆盡	-11.4292
好惡	-11.4293
悲哀	-11.4297
為滅	-11.4297
墮二邊	-11.4298
淨佛土	-11.4298
竺	-11.4298
分別者	-11.43
多欲	-11.4303
生怖畏	-11.4303
喜心	-11.4303
之所以	-11.4303
前釋	-11.4306
故起	-11.4308
而反	-11.4309
生住異滅	-11.431
化之	-11.4311
所離	-11.4315
甚為希有	-11.4318
院	-11.4318
諸罪	-11.4318
愛佛南無	-11.4319
橋梁	-11.4319
祗	-11.4319
法施之會	-11.432
喧	-11.4323
名不思議	-11.4324
外道所計	-11.4325
鎖	-11.4327
病本	-11.4328
為生	-11.4329
四百	-11.433
非真實	-11.4331
一行半	-11.4331
選	-11.4332
景	-11.4332
嚴佛	-11.4337
說無	-11.4337
第六識	-11.4337
火坑	-11.4338
云何言	-11.4339
無漏界	-11.4341
光相	-11.4342
戒取	-11.4342
奚	-11.4344
前章	-11.4345
雙遮	-11.4345
道種智	-11.4345
水大	-11.4346
花池	-11.4348
究竟覺	-11.4349
不害	-11.4349
合有	-11.4352
反覆	-11.4353
無識	-11.4354
皆在	-11.4354
謂一切	-11.4356
俱舍云	-11.4358
以斯	-11.4359
寶勝	-11.436
命者	-11.4361
極重	-11.4362
所聞法	-11.4368
由有	-11.4368
諸境	-11.437
離惡	-11.4371
佛住	-11.4372
是應	-11.4372
即自	-11.4378
能通達	-11.4379
應捨	-11.4379
于時	-11.4382
科云	-11.4383
方處	-11.4386
惡報	-11.4391
紺	-11.4393
有七種	-11.4393
身如	-11.4393
三聚	-11.4394
諸道	-11.4394
深達	-11.4396
之首	-11.4399
諸蟲	-11.4402
二初分文	-11.4402
久如	-11.4402
居家	-11.4403
梵網	-11.4404
當處	-11.4404
文為二初釋	-11.4404
天龍八部	-11.4407
相傳	-11.4409
經初	-11.441
外道見	-11.441
義相	-11.4412
無惱	-11.4414
墨	-11.4415
中求	-11.4416
長行中	-11.4416
坐於	-11.4416
三科	-11.4416
貢	-11.4417
瓦	-11.4418
填	-11.4418
於未來	-11.4419
億那由他	-11.442
戒定	-11.442
諸賢聖	-11.442
㲲	-11.442
二死	-11.442
罵詈	-11.442
本宿命時	-11.4421
見眾生	-11.4424
具說如彼	-11.4425
第一義心	-11.4426
自覺境界	-11.4427
展轉相因	-11.4428
菴園	-11.4428
但用	-11.4429
春秋	-11.4429
摩那	-11.443
世出世	-11.4431
!」「	-11.4431
不消	-11.4433
師長	-11.4434
祕密藏	-11.4434
能護	-11.4434
示人	-11.4435
大喜	-11.4436
利故	-11.4436
童女	-11.4438
此世界	-11.444
之主	-11.4441
相及	-11.4442
諸法空	-11.4445
大義	-11.4446
牛羊	-11.4447
若未	-11.4448
謂言	-11.4452
孔子	-11.4453
不思議事	-11.4453
為利	-11.4454
巴	-11.4456
所有眾生	-11.4456
解脫故	-11.4457
諸沙門	-11.4457
為汝	-11.4458
諸佛世界	-11.4459
如本	-11.4459
千世界	-11.446
略疏	-11.4461
愛憎	-11.4462
蓮華池	-11.4462
若如是者	-11.4465
若王	-11.4465
問若爾	-11.4465
無殊	-11.4465
解脫道	-11.4466
欲往	-11.4467
惡處	-11.4469
二通	-11.447
五章	-11.4472
甚可	-11.4472
青蓮	-11.4474
及諸大眾	-11.4475
生緣	-11.4476
萬德	-11.4477
口出	-11.4484
靜處	-11.4485
次命	-11.4485
令斷	-11.4485
四住	-11.4487
是謂菩薩	-11.4487
之所能	-11.4488
為利益	-11.4491
入正位	-11.4491
之頃	-11.4491
三意	-11.4493
孤山	-11.4493
善神	-11.4497
十劫	-11.4497
識宿命	-11.4498
調柔	-11.4499
真淨	-11.4502
初正示	-11.4502
說經法	-11.4504
皆入	-11.4504
蘊界處	-11.4506
惡友	-11.4506
即其義也	-11.4507
三從	-11.4507
百六十	-11.4508
教理	-11.4508
所請	-11.4508
是理	-11.4508
二乘外道	-11.4508
輔行云	-11.4509
憂悲	-11.4509
本事	-11.451
義意	-11.4511
我亦如是	-11.4512
非器	-11.4513
揵	-11.4513
為境	-11.4514
假使有人	-11.4515
慧行	-11.4516
我本	-11.4517
痴	-11.4519
作利益	-11.452
無瞋	-11.452
十善業道	-11.4521
寂滅相	-11.4521
不同者	-11.4522
初讚	-11.4522
唯依	-11.4522
剎帝利	-11.4523
役	-11.4523
朋	-11.4525
復告	-11.4526
寡	-11.4526
所不及	-11.4527
前六	-11.4528
知一切	-11.4529
隨處	-11.4529
皆空不可思議	-11.453
四不可說	-11.4531
住者	-11.4534
觀一切法	-11.4535
半月	-11.4536
小大	-11.4536
第三句	-11.4537
迫	-11.4538
智者所	-11.4541
元是	-11.4541
更互	-11.4542
分中	-11.4544
八地菩薩	-11.4544
所共	-11.4545
去此	-11.4545
人空	-11.4546
見愛	-11.4548
火焰	-11.4548
由昔	-11.4549
閱	-11.4552
▁二結	-11.4554
或從	-11.4556
如來南無寶	-11.4557
以為涅槃	-11.4558
供養於佛	-11.4559
心樂	-11.4559
無足	-11.456
而發	-11.456
相耶	-11.4564
厭惡	-11.4565
斯人	-11.4569
欲令眾生	-11.457
作是觀	-11.4571
苦者	-11.4571
相狀	-11.4571
奈何	-11.4572
修定	-11.4572
大歡喜	-11.4573
為最	-11.4575
而證	-11.4578
有名	-11.4582
隨其所應	-11.4585
已離	-11.4587
化主	-11.4587
六時	-11.4588
無明住地	-11.4588
皆來	-11.4592
供佛	-11.4593
出世間上上	-11.4593
科攝屬	-11.4594
自壞	-11.4594
成論	-11.4597
燈王	-11.4597
▁南无不空	-11.4598
菩薩摩訶薩具足十法	-11.4598
名真	-11.4598
持鉢	-11.4599
有漏無漏	-11.46
巳滅	-11.46
一時俱	-11.4601
然今	-11.4602
出世間法	-11.4602
耆闍崛山	-11.4602
梵眾	-11.4605
嗟	-11.4606
念力	-11.4606
自立	-11.4607
予	-11.4608
世中	-11.4608
之問	-11.4609
昭	-11.4611
報曰	-11.4612
瑜伽云	-11.4612
渴仰	-11.4615
及涅槃	-11.4615
妖	-11.4617
瓦礫	-11.4617
討	-11.4618
容受	-11.462
咽喉	-11.462
非剎那	-11.4621
摩竭	-11.4621
齊修	-11.4621
牢獄	-11.4623
矜	-11.4624
不燒	-11.4625
皆離	-11.4625
其次	-11.4625
十二部	-11.4626
前念	-11.4628
風大	-11.4631
其志	-11.4632
南無華	-11.4633
法食	-11.4634
明照	-11.4636
如來藏性	-11.4636
肯	-11.4637
緣修	-11.4642
已能	-11.4642
悅意	-11.4644
明空	-11.4644
不生分別	-11.4644
告諸	-11.4648
古云	-11.4648
求善知識	-11.4648
普眼章	-11.4651
離妄	-11.4651
者如來南無	-11.4655
尊敬	-11.4655
相滅	-11.4656
體法	-11.4656
乃爾	-11.4656
漸生	-11.4659
攝屬	-11.466
留佛	-11.466
悉滅	-11.4662
於菩薩	-11.4666
奢摩	-11.4667
法利	-11.4668
顛	-11.4668
從空入假	-11.4668
不能壞	-11.4669
當何所	-11.467
金剛般若	-11.4674
非佛	-11.4677
能感	-11.4677
智體	-11.4681
信法	-11.4681
略也	-11.4682
淨無垢	-11.4682
世所	-11.4686
為何	-11.4686
加護	-11.4686
其因	-11.4687
幼	-11.4688
本自不生	-11.4688
之方	-11.4689
因位	-11.4689
在內	-11.469
若生若滅	-11.469
神仙	-11.4693
能受持	-11.4694
行乞	-11.4696
一切智智	-11.4696
遊步	-11.4697
愚痴	-11.4697
非我所	-11.4697
無量諸	-11.4699
由此因緣	-11.47
纂	-11.47
共有	-11.4701
中明	-11.4701
懷疑	-11.4701
幻相	-11.4703
度諸眾生	-11.4705
▁南无栴檀	-11.4706
變化身	-11.4707
假入空	-11.4707
圓光	-11.471
又若	-11.4711
彼人以是惡業因	-11.4712
第三十	-11.4712
於其中間	-11.4713
波羅密	-11.4713
五重	-11.4714
外別有	-11.4714
警	-11.4714
邦	-11.4716
隙	-11.4717
話	-11.4718
軟首	-11.4718
從佛聞	-11.4718
止住	-11.4718
則曾不說	-11.4719
只此	-11.472
吠	-11.4721
佛即	-11.4722
實無有	-11.4722
捕	-11.4723
遊戲神通	-11.4725
紀	-11.4726
是第二	-11.4726
斷其	-11.4726
釋迦如來	-11.4726
別答	-11.4729
決斷	-11.473
事中	-11.473
賒	-11.473
諸有情故	-11.4731
苑	-11.4732
一邊	-11.4732
所行處	-11.4733
有礙	-11.4734
善觀	-11.4735
讚許	-11.4735
繇	-11.4735
可滅	-11.4735
內外法	-11.4736
還本	-11.4736
入生死	-11.4736
命盡	-11.474
譬如虛空	-11.4741
無量億	-11.4741
▁初敘	-11.4742
巳成	-11.4742
要須	-11.4743
歸依佛	-11.4744
安詳	-11.4745
微塵等	-11.4751
末後	-11.4752
明鏡	-11.4754
五百億	-11.4755
無患	-11.4757
三四	-11.4759
上天	-11.4762
今淨名	-11.4764
妙觀察智	-11.4764
瑕	-11.4764
十二支	-11.4766
後顯	-11.4766
眾生類	-11.4766
得食	-11.4767
分位	-11.4769
火大	-11.4771
懈	-11.4771
本體	-11.4772
引經	-11.4772
別處	-11.4773
隨於	-11.4775
大旨	-11.4776
現觀	-11.4777
無量壽	-11.4778
▁南无慧	-11.478
所生處	-11.4781
一段	-11.4781
少有	-11.4781
得其便	-11.4782
願欲	-11.4782
倒見	-11.4783
非聖賢也	-11.4783
生巳	-11.4784
杵	-11.4785
作何	-11.4786
火然	-11.4788
無漏智	-11.4789
第四句	-11.4789
悋	-11.479
習行	-11.4796
自非	-11.4797
方便慧	-11.4797
不缺	-11.4799
有支	-11.4801
羞	-11.4801
輙	-11.4802
更加	-11.4804
生愛	-11.4805
大象	-11.4805
無若干	-11.4805
無疾	-11.4806
上界	-11.4806
傳云	-11.4807
如來藏心	-11.4807
所行境界	-11.4808
大導師	-11.4809
言語道斷	-11.4809
吸	-11.481
彰其	-11.4811
詩	-11.4812
漚	-11.4813
曼	-11.4814
簡異	-11.4815
恬	-11.4816
監	-11.4816
斤	-11.4816
丁	-11.4817
見人	-11.4817
牛馬	-11.4818
不可稱計	-11.4819
現生	-11.482
犬	-11.4821
離染	-11.4822
是故說名	-11.4825
臣民	-11.4826
一為	-11.4826
我與	-11.4827
心海	-11.4827
凡外	-11.4827
防護	-11.4827
墮地	-11.4828
離見	-11.4829
▁南无阿	-11.483
說空法	-11.483
二萬	-11.4831
復起	-11.4831
有二句	-11.4832
念念生滅	-11.4833
對上	-11.4834
於境界	-11.4834
瑟	-11.4834
彼有情	-11.4835
但當	-11.4836
未曾見	-11.4837
體非	-11.4838
諸眾生界	-11.4839
雖觀	-11.4842
四十里	-11.4844
日佛	-11.4844
不真	-11.4847
自他俱	-11.4847
譯經	-11.4848
猶尚	-11.4848
今有	-11.4849
不生妄想	-11.4849
第一義空	-11.485
初先	-11.485
劫名	-11.485
三段	-11.4851
下去	-11.4852
妙莊嚴	-11.4852
不脫	-11.4852
大果	-11.4852
而往	-11.4854
心大歡喜	-11.4854
依文	-11.4854
既離	-11.4855
腹中	-11.4856
皆名為	-11.4857
十二處	-11.4857
普集	-11.4857
價	-11.4858
我於爾時	-11.4858
無證	-11.4859
來到	-11.4859
餘四	-11.4861
則便	-11.4864
此眾生	-11.4865
無勝	-11.4868
如所說	-11.4868
燈光	-11.4869
持禁戒	-11.4869
好樂	-11.4871
寶器	-11.4873
未曾聞	-11.4873
專念	-11.4874
今此經	-11.4877
六衰	-11.4879
因其	-11.488
降伏魔	-11.4882
燄	-11.4884
魅	-11.4884
疏釋	-11.4885
非處	-11.4885
令諸有情	-11.4885
為用	-11.4886
荅	-11.4887
云何有	-11.4887
所被	-11.4887
名等	-11.4889
不入涅槃	-11.4889
鉤鎖	-11.4892
崩	-11.4894
清淨者	-11.4894
供養恭敬	-11.4897
二隨釋二	-11.4901
諸障	-11.4902
菩薩若修十種法者	-11.4904
菩薩若修如是十種法者	-11.4904
大施	-11.4905
帳	-11.4907
僻	-11.4907
從本巳來	-11.4907
初總示	-11.4909
法雨	-11.4909
十方無量世界	-11.491
但隨	-11.491
攝一切法	-11.4911
是為六種	-11.4911
老子	-11.4912
毘舍佉	-11.4912
而眾生	-11.4912
譚	-11.4912
右繞	-11.4913
有別	-11.4914
妨礙	-11.4915
總指	-11.4916
俾	-11.4916
性離	-11.4916
秉	-11.4918
透	-11.4918
醫師	-11.4919
初對	-11.4919
勝上	-11.4919
維摩經	-11.492
來詣佛所	-11.492
除此	-11.4921
暮	-11.4922
正法存立	-11.4922
外色	-11.4922
澁	-11.4923
滑	-11.4925
腰	-11.4926
於空中	-11.4926
湯藥	-11.4929
生人中	-11.4931
已生	-11.4931
閻浮提中	-11.4931
園中	-11.4932
其有得聞	-11.4933
能淨	-11.4935
形貌	-11.4936
歿	-11.4937
二文	-11.4939
初觀	-11.494
既空	-11.494
薩婆	-11.4943
淨也	-11.4944
此疑	-11.4948
▁南无火	-11.4948
罪過	-11.495
如實法	-11.495
不可譬喻	-11.495
恐人	-11.4951
閻浮檀金	-11.4952
總舉	-11.4955
是為四事	-11.4955
惡獸	-11.4958
分限	-11.4961
涅槃城	-11.4962
白銀	-11.4962
則同	-11.4963
真實相	-11.4965
四無礙	-11.4966
二利	-11.4967
一切皆是	-11.4967
離文字	-11.4968
天子言	-11.4969
明顯	-11.4972
能施	-11.4973
七重	-11.4975
而致	-11.4977
讖	-11.4977
不食肉	-11.4978
即是如來	-11.4982
淨居	-11.4984
平正	-11.4985
菩薩摩訶薩復有六種	-11.4985
未滿	-11.4985
等言	-11.4986
得是三昧	-11.4987
無作相	-11.4989
後分	-11.499
就前	-11.4991
悕	-11.4992
金剛三昧	-11.4992
復有二種	-11.4994
行位	-11.4998
示有	-11.4999
真如理	-11.4999
妃	-11.4999
生滅四諦	-11.4999
隨文	-11.5001
菩薩成就十種法	-11.5003
今即	-11.5004
翼	-11.5005
即是菩提	-11.5007
離障	-11.5007
為令眾生	-11.5008
如來境界	-11.5009
不怖	-11.5009
汝當知	-11.501
分為三	-11.5012
何也	-11.5014
若因	-11.5015
何益	-11.5015
盡未來際	-11.5015
阿逸多	-11.5015
眉間	-11.5015
眾生有	-11.5015
拒	-11.5016
籍	-11.5016
初敘	-11.5017
嗣	-11.5019
以偈頌曰	-11.5019
成佛時	-11.502
生解	-11.5021
分身	-11.5022
塊	-11.5022
中有四	-11.5022
辟	-11.5022
不知厭足	-11.5025
所生土地	-11.5025
外道所說	-11.5025
匠	-11.5028
此示	-11.5029
勝者	-11.503
癈	-11.503
法幢	-11.5031
斷無明	-11.5032
從前	-11.5032
慎勿	-11.5034
中所有	-11.5034
不可取	-11.5036
□□□□□□□□□□□□□□□□	-11.5036
分段生死	-11.5036
當下	-11.504
境中	-11.5041
唯約	-11.5041
則離	-11.5043
理趣	-11.5043
欲來	-11.5043
殺人	-11.5044
其量	-11.5045
侍者曰	-11.5046
去來今	-11.5048
三十四	-11.5049
悟者	-11.5051
不能生	-11.5052
自度	-11.5053
唯然世尊	-11.5054
四曰	-11.5054
廣長	-11.5056
影響	-11.5056
聖位	-11.5058
流行	-11.5059
氣未盡	-11.5059
補註	-11.5061
瞋心	-11.5061
月輪	-11.5061
常定	-11.5064
盜賊	-11.5066
空理義	-11.5066
之所由	-11.5067
去是	-11.5069
器中	-11.507
然亦	-11.507
於法界	-11.5071
如來智慧	-11.5075
因地法行	-11.5077
七生	-11.5079
陽焰	-11.508
此與	-11.5084
真如性	-11.5085
教道	-11.5087
云何說	-11.5088
已去	-11.5089
菩薩摩訶薩亦復如是	-11.5089
不存	-11.509
一會	-11.5091
品明	-11.5093
未始	-11.5093
但聞	-11.5096
一世	-11.5097
此舉	-11.5098
入息	-11.5098
當文三句	-11.5099
於事	-11.51
現證	-11.51
彼以聞慧	-11.5102
不孝	-11.5104
先所	-11.5106
義亦	-11.5109
身行	-11.511
於何	-11.511
裹	-11.5111
是金光明	-11.5112
大疏云	-11.5112
不問	-11.5113
四聖	-11.5113
安能	-11.5113
▁南无喜	-11.5113
云何如來	-11.5113
清淨慧	-11.5114
各各自	-11.5114
踐	-11.5114
開佛知見	-11.5115
犍	-11.5116
尊特身	-11.5116
彊	-11.5116
涅盤	-11.5116
晚	-11.5118
流支	-11.5118
諸佛土	-11.5118
說伽陀曰	-11.5119
愚癡人	-11.512
不少	-11.5121
於汝意云何	-11.5122
拾	-11.5122
為上首	-11.5123
詣佛所	-11.5123
教示	-11.5123
樂法	-11.5124
味著	-11.5125
儻	-11.5125
惡世	-11.5126
鬪戰	-11.5126
隨有	-11.5128
為成	-11.5128
佛法中	-11.5129
如是人	-11.513
億歲	-11.513
星宿王	-11.5131
箜篌	-11.5131
清淨戒	-11.5136
著欲	-11.5136
何等是	-11.5136
從初地	-11.5137
狀如	-11.5138
應理義	-11.5138
誦持	-11.514
使我	-11.5145
佛神力	-11.5146
令無	-11.5149
當作佛	-11.5151
網明言	-11.5151
王城	-11.5152
得生天	-11.5152
法耶	-11.5152
堪受	-11.5153
唱言	-11.5156
反顯	-11.5159
如是如來	-11.5161
在佛	-11.5163
已曾	-11.5164
妄說	-11.5165
使其	-11.5166
喻中	-11.5167
故我說	-11.5167
同聞	-11.5168
除蓋障菩薩	-11.5168
離於有無	-11.5169
色聲香味觸	-11.5171
必無	-11.5172
有如是等	-11.5175
不護	-11.5175
造色	-11.5175
失於	-11.5175
與眾	-11.5175
妄想無性	-11.5176
最勝子	-11.5177
貪婬	-11.5178
有想	-11.5178
怨親	-11.5178
未曾有也	-11.5179
果人	-11.5179
十地論	-11.5181
風起	-11.5183
色性	-11.5184
毘婆尸佛	-11.5187
兔無角	-11.5187
順忍	-11.5188
聞巳	-11.5188
億百千	-11.5189
智識	-11.5189
達摩	-11.5189
更無別	-11.519
還來	-11.519
無自體	-11.519
行惡	-11.519
和會	-11.519
捨身命	-11.5192
乃至云	-11.5194
南無法	-11.5195
生老死	-11.5195
靈心	-11.5196
尸棄	-11.5197
各有所	-11.5197
得真	-11.5198
那含	-11.52
盡時	-11.5203
體本	-11.5204
分衛	-11.5205
前世時	-11.5205
自然而	-11.5206
大樹緊那羅王	-11.5207
又為	-11.5207
大心	-11.5211
非求法也	-11.5211
行精進	-11.5212
且從	-11.5212
謗法	-11.5214
之迹	-11.5214
勝如來南無	-11.5214
瓦石	-11.5214
願我來世得菩提時	-11.5215
覺分	-11.5215
鹽	-11.5216
寧可	-11.5217
十種三法	-11.5218
其佛	-11.5218
朱	-11.5219
剖	-11.5219
凡夫外道	-11.522
即告	-11.5221
辰	-11.5223
如幻如夢	-11.5223
之屬	-11.5223
三點	-11.5224
殞	-11.5224
鐘	-11.5224
如須彌	-11.5224
豪貴	-11.5225
語者	-11.5228
失念	-11.5229
歟	-11.5229
三昧力	-11.5234
依佛	-11.5234
千二百	-11.5234
甚為	-11.5234
支節	-11.5235
能出	-11.5235
顏貌	-11.5235
魔眾	-11.5236
未爛	-11.5237
當遠離	-11.5238
慶喜	-11.5239
為一切眾生	-11.524
赴機	-11.5241
取於	-11.5241
自覺聖智境界	-11.5241
唯識論	-11.5241
自觀	-11.5242
約事	-11.5243
行中	-11.5245
勤求	-11.5246
名身	-11.5248
離合	-11.5249
於諸有情	-11.5251
河池	-11.5252
無有量	-11.5253
是謂菩薩摩訶薩	-11.5254
奧	-11.5254
不妄語	-11.5254
惡夢	-11.5257
不覺不知	-11.5257
暴惡	-11.5259
是色	-11.5261
有云	-11.5262
圓觀	-11.5262
五穀	-11.5263
修得	-11.5265
輪迴根本	-11.5265
香佛南無	-11.5267
相承	-11.5268
金寶	-11.5269
大慧白佛言世尊	-11.5269
從一	-11.5269
讚言	-11.527
究竟涅槃	-11.527
諸度	-11.5271
應斷	-11.5272
明達	-11.5272
亦自	-11.5273
南無慧	-11.5274
受罪	-11.5274
入胎	-11.5275
為誰	-11.5282
是意	-11.5283
之國	-11.5283
定相	-11.5284
□□□□□	-11.5285
惡意	-11.5286
五味	-11.5288
樂故	-11.5289
增廣	-11.5289
忉利	-11.5289
大將	-11.5291
識也	-11.5292
不堅	-11.5295
見空	-11.5295
身根	-11.5295
果性	-11.5299
如是修行	-11.5301
轉增	-11.5304
不同二乘	-11.5304
持是	-11.5306
不驚	-11.5306
摩尼寶	-11.5307
門外	-11.5307
俱蘇摩	-11.5309
即覺	-11.531
圭山	-11.5311
當文一句	-11.5313
名同	-11.5313
慳嫉	-11.5314
恩德	-11.5316
旃	-11.5316
是第一義	-11.5316
緣滅	-11.5319
不縱不橫	-11.5319
迷亂	-11.5319
穢惡	-11.5319
聞我名	-11.5324
眾罪	-11.5324
額	-11.5328
無量甚深	-11.533
淨眼	-11.533
尸利	-11.5331
忽然不現	-11.5332
伅真陀羅	-11.5333
宇	-11.5333
栖	-11.5333
故華嚴	-11.5333
擇法	-11.5333
候	-11.5334
出家學道	-11.5336
末代	-11.5336
職	-11.5336
叡	-11.5336
澡	-11.5336
五分法身	-11.5339
遍覆	-11.5341
修者	-11.5342
果證	-11.5342
涕	-11.5344
所遊	-11.5344
皆不能	-11.5346
賞	-11.5346
非別有	-11.5346
不迷	-11.5346
出家人	-11.5347
分別相	-11.5348
心外無法	-11.5349
是大乘	-11.535
善聽	-11.5352
方便也	-11.5352
牒前	-11.5353
既成	-11.5353
法性土	-11.5354
契理	-11.5358
門入	-11.5358
清淨法界	-11.5364
但知	-11.5364
無上尊	-11.5364
故下文	-11.5367
瞋怒	-11.5367
未了	-11.5369
皆作	-11.5373
室中	-11.5374
東南方	-11.5376
乘者	-11.5377
對辨	-11.5377
勝應	-11.5378
次辨	-11.5379
如恒沙	-11.5379
無熱	-11.5383
室外	-11.5386
訟	-11.5389
家中	-11.539
入者	-11.5391
斯法	-11.5391
幾時	-11.5391
者必	-11.5392
無量世界	-11.5392
無因緣	-11.5392
不顧	-11.5395
更無有	-11.5399
境界也	-11.5399
大丈夫	-11.5401
兩行	-11.5402
若如來	-11.5403
二行半	-11.5403
慰問	-11.5404
起心	-11.5405
從假入空	-11.5407
例如	-11.5407
即心	-11.5407
標舉	-11.5409
圓寂	-11.5409
入楞伽云	-11.5414
食肉者	-11.5415
不同外道	-11.5415
盲人	-11.5416
然於	-11.5417
於彼處	-11.5419
▁初分文	-11.5419
兩教	-11.542
七千	-11.5421
六年	-11.5421
現種種	-11.5421
無因論	-11.5421
於三世	-11.5422
已滅	-11.5425
阿脩羅	-11.5427
軸	-11.5428
憂喜	-11.5429
久時	-11.543
已復	-11.543
種種寶	-11.5431
牟	-11.5431
獼猴	-11.5433
隱蔽	-11.5433
無上正等菩提	-11.5434
具釋	-11.5435
身壞命終墮於惡處	-11.5435
如所	-11.5435
迭	-11.5435
此相	-11.5436
無放逸	-11.5436
花果	-11.5437
外道妄計	-11.5438
欲愛	-11.5439
嘴	-11.5439
四十八	-11.544
二世	-11.544
法已	-11.544
度一切	-11.544
葬	-11.5441
已知	-11.5441
吾當	-11.5441
歡悅	-11.5443
其佛光明照	-11.5443
弟子品	-11.5444
淨慧	-11.5444
非同	-11.5447
歷別	-11.5449
煞	-11.5449
摩醯首羅	-11.545
初列	-11.545
不得解脫	-11.5451
見理	-11.5451
四輩	-11.5451
是病	-11.5453
經歷	-11.5455
真實性	-11.5456
理外	-11.5456
無盡燈	-11.5459
鈴	-11.5461
憶持	-11.5461
約就	-11.5461
一年	-11.5461
福行	-11.5462
彼彼空	-11.5463
至涅槃	-11.5464
且舉	-11.5464
因而	-11.5464
第三明	-11.5464
法上	-11.5466
頞	-11.5467
寶網	-11.5467
門戶	-11.5467
趣寂	-11.5468
演說法	-11.5468
印定	-11.5469
佛國品	-11.5472
無字	-11.5472
曾無	-11.5474
之所依	-11.5475
施等	-11.5475
定是	-11.5477
皆稱	-11.5477
不忘失	-11.5478
三期	-11.5479
憶想	-11.548
其果	-11.5481
勝定	-11.5483
人中尊	-11.5485
珠寶	-11.5487
三乘同	-11.5488
得如幻三昧	-11.5488
堅強	-11.5491
見性	-11.5492
見巳	-11.5493
如是眾生	-11.5495
無求	-11.5495
彼之	-11.5499
釋言	-11.55
相因	-11.5503
本經	-11.5503
眾妙	-11.5503
他物	-11.5503
▁三結	-11.5506
無退	-11.5507
後心	-11.5508
復有異	-11.5508
聲聞獨覺	-11.5509
直說	-11.551
不如實	-11.551
有自性	-11.5511
住家者	-11.5511
欝單越	-11.5512
外計	-11.5514
亦不住	-11.5514
此計	-11.5514
復作	-11.5515
究竟清淨	-11.5515
諸法如幻	-11.5516
s	-11.5518
魔羅	-11.552
九月	-11.5523
旨趣	-11.5523
文二初	-11.5524
跪	-11.5525
於中初	-11.5526
緣者	-11.5527
不成佛	-11.5528
正斷	-11.5529
菩薩成就此十種法	-11.5529
起幻	-11.553
識界	-11.5531
摶	-11.5534
自莊嚴	-11.5534
緣而生	-11.5534
攝念	-11.5536
說是經	-11.5536
第十三	-11.5537
解知	-11.5538
無慧	-11.554
須陀	-11.5541
傳法	-11.5542
自爾	-11.5542
毀呰	-11.5542
與一切眾生	-11.5542
常求	-11.5544
藝	-11.5544
諸數	-11.5545
譬如恒沙	-11.5546
模	-11.5547
之福	-11.5547
吏	-11.5548
勳	-11.555
旛	-11.5551
籌量	-11.5551
妓樂	-11.5551
貧富	-11.5553
最妙	-11.5553
向佛	-11.5553
怛姪他	-11.5554
故屬	-11.5554
寶光明	-11.5554
皮肉	-11.5555
歌舞戲笑	-11.5555
羽	-11.5555
姿	-11.5555
▁南无廣	-11.5557
勝於	-11.5557
生滅門	-11.5557
鑊	-11.5558
先舉	-11.556
為世	-11.556
此有	-11.556
為他人說	-11.5561
愚迷	-11.5565
四顛倒	-11.5566
等流	-11.5567
得免	-11.5568
悟之	-11.5571
密行	-11.5571
既言	-11.5572
先須	-11.5572
易解	-11.5573
妄謂	-11.5573
▁南无善住	-11.5573
謂初	-11.5574
歎佛	-11.5575
怯	-11.5576
皆發無上正真道意	-11.5578
相連	-11.558
實為	-11.5582
前五識	-11.5582
所悟	-11.5583
願者	-11.5583
故但	-11.5583
是真實	-11.5583
乞人	-11.5585
不住涅槃	-11.5585
一切法性	-11.5586
萬人	-11.5588
其說	-11.5588
邪智	-11.5588
面門	-11.5588
無解脫	-11.5589
妄言	-11.5589
不同故	-11.5589
一切身分	-11.5589
一切善根	-11.559
不虗	-11.5591
入海	-11.5592
自無	-11.5593
則應	-11.5593
又何	-11.5595
前境	-11.5596
出要	-11.5596
十年	-11.5597
悉無所有	-11.5599
七佛	-11.56
自守	-11.5602
往至	-11.5604
妄想習氣	-11.5605
不能動	-11.5606
不習	-11.5606
五百比丘	-11.5608
千萬億	-11.5609
皆已	-11.5609
雖非	-11.5611
證道	-11.5612
悉無有	-11.5613
大功德	-11.5614
何等為五	-11.5615
暇	-11.5615
世時	-11.5615
勝慧	-11.5618
相當	-11.5621
故稱為	-11.5625
亦屬	-11.5625
荷負	-11.5626
無底	-11.5626
􂛱	-11.5626
雖曰	-11.5628
轉身	-11.5628
悟理	-11.563
方便智	-11.563
四意止	-11.5631
五法三自性	-11.5631
之量	-11.5631
善觀察	-11.5632
禮佛足	-11.5634
王三昧	-11.5636
具此十事是名菩薩	-11.5637
計着	-11.5639
漸次增進	-11.5641
未解	-11.5641
如說行	-11.5641
無常苦空無我	-11.5641
毗曇	-11.5643
令汝	-11.5643
不惱	-11.5643
在人	-11.5644
拘翼	-11.5644
出沒	-11.5645
隆	-11.5645
萬八千	-11.5645
是淨	-11.5646
都盡	-11.5646
欲滅	-11.565
下結示	-11.5651
證圓覺	-11.5651
欽	-11.5653
說是法	-11.5653
我知	-11.5653
若惡業盡	-11.5653
造一切罪	-11.5653
蔭	-11.5653
阿闍世	-11.5655
上說	-11.5656
芥	-11.5656
何事	-11.5657
伴侶	-11.5657
雙遊	-11.5657
除煩惱	-11.5658
皆得道證	-11.5659
佛在世時人壽	-11.5659
疑云	-11.566
戴	-11.5661
五樂音聲	-11.5662
處也	-11.5663
馳走	-11.5663
廣說如彼	-11.5663
圓別	-11.5664
普門	-11.5665
疲極	-11.5669
行之	-11.5669
是無明	-11.567
不可分別	-11.567
塔廟	-11.5671
如是分別	-11.5673
玉女	-11.5674
行乞食	-11.5674
之器	-11.5675
為權	-11.5675
業煩惱	-11.5677
二種無我	-11.5678
不能了知	-11.5678
心有	-11.568
第一義中	-11.5681
之形	-11.5682
具明	-11.5683
本自無	-11.5684
能盡	-11.5684
本無所有	-11.5685
心心數法	-11.5686
身口意業	-11.5688
想故	-11.5689
可為	-11.5689
四邊	-11.569
內無	-11.569
大梵	-11.5693
傾動	-11.5695
▁南无愛	-11.5695
堅持	-11.5698
以佛神力	-11.5698
閑居	-11.5699
聖王	-11.5699
得天眼	-11.57
歸敬	-11.5701
了此	-11.5702
約此	-11.5703
指上	-11.5706
初總標	-11.5707
詣佛	-11.5709
命問疾	-11.5709
取土	-11.571
聞斯	-11.571
不可往	-11.5711
度量	-11.5715
身有	-11.5716
非乘	-11.5716
應言	-11.572
聞是經	-11.572
誰當	-11.572
義別	-11.5721
修禪定	-11.5722
有二種一	-11.5722
愁惱	-11.5722
躭	-11.5722
一異俱不俱	-11.5725
深生	-11.5729
方便說	-11.5731
攝法	-11.5733
不應立宗	-11.5734
宛	-11.5737
云何修行	-11.5737
可知也	-11.5738
不解脫	-11.5743
釋迦牟尼如來	-11.5743
所習	-11.5745
宜應	-11.5746
四蘊	-11.5748
自觀身	-11.5748
既巳	-11.5748
色力	-11.5749
破外道	-11.5749
令眾	-11.575
方始	-11.575
剎那不住	-11.5752
無法不	-11.5753
至道	-11.5754
上人	-11.5754
浩	-11.5757
所害	-11.5757
處在	-11.5758
復有一	-11.576
一物	-11.576
於一切時與苦不止	-11.5761
作罪	-11.5761
匪	-11.5763
彼地獄處爾乃得脫	-11.5763
著有	-11.5765
鷹	-11.5766
八戒	-11.5766
及諸外道	-11.5766
荊溪	-11.5766
渧	-11.5767
嶽	-11.5767
神足弟子曰	-11.5768
求覓	-11.5769
棲	-11.5771
從無始來	-11.5771
憎嫉	-11.5772
沸	-11.5772
憍陳如	-11.5773
怙	-11.5775
三歸	-11.5775
鄭	-11.5775
作佛形像	-11.5776
所止	-11.5776
擾亂	-11.5777
得法	-11.5777
藏中	-11.5777
隱沒	-11.5777
支分	-11.5779
大人相	-11.5781
以對	-11.5782
牟修樓陀夜摩天王	-11.5782
王即	-11.5782
合云	-11.5786
論也	-11.5786
能熏	-11.5787
往復	-11.5787
於我法中	-11.5789
坐臥	-11.579
佛自	-11.579
為現	-11.579
普覺	-11.5792
譬顯	-11.5794
香味	-11.5794
於五陰	-11.5794
亦與	-11.5796
四人	-11.5799
說如是言	-11.5799
華上	-11.5799
水流	-11.58
蓋是	-11.58
上之	-11.58
沫	-11.5801
互融	-11.5802
悲願	-11.5802
行菩薩行	-11.5803
諸塵	-11.5804
有諸眾生	-11.5805
開章	-11.5805
十德	-11.5807
▁南无賢	-11.5809
名智	-11.5809
空則	-11.5809
可信	-11.5812
不知自心現量	-11.5812
於真	-11.5814
入滅定	-11.5814
一切法中	-11.5815
此空	-11.5816
藥病	-11.582
身上	-11.5821
生彼天	-11.5821
無窮盡	-11.5821
即顯	-11.5823
於欲界	-11.5824
俗人	-11.5826
所得法	-11.5829
正業	-11.5829
意如來南無	-11.583
並皆	-11.583
發無上	-11.5832
得佛道	-11.5834
重問	-11.5834
普明	-11.5834
以是因緣故	-11.5836
此天	-11.5838
取意	-11.5841
觀慧	-11.5841
力者	-11.5841
靈明	-11.5841
橫死	-11.5842
既入	-11.5842
光明王佛	-11.5843
恱	-11.5845
不宜	-11.5847
教觀	-11.5848
四見	-11.5849
未顯	-11.5849
自受用身	-11.585
總示	-11.585
多時	-11.585
右旋	-11.5851
復是	-11.5851
上半	-11.5852
摩訶般若	-11.5854
淨不淨	-11.5855
無增無減	-11.5856
因有	-11.5857
咒	-11.5858
其華	-11.5858
令一切眾生	-11.5859
若至	-11.586
有對	-11.5861
垂迹	-11.5863
之慈	-11.5864
往到	-11.5864
括	-11.5864
四恩	-11.5866
在外	-11.5866
若著	-11.5867
昔日	-11.5867
範	-11.5868
曩	-11.5869
我病	-11.5869
何罪所致	-11.5871
隨世間習俗而入	-11.5871
隨事	-11.5871
羸瘦	-11.5872
此總	-11.5872
還生	-11.5873
綵	-11.5874
海佛	-11.5874
往詣佛所	-11.5874
疆	-11.5874
消文	-11.5876
攻	-11.5876
今佛	-11.5876
理障	-11.5876
欄楯	-11.5879
裁	-11.5879
四攝法	-11.5881
金色童子	-11.5881
非二乘	-11.5881
不思議品	-11.5882
六行	-11.5882
邪師	-11.5883
貧賤	-11.5884
十五日	-11.5886
揀擇	-11.5888
不自知	-11.589
善方便	-11.589
不二門	-11.5896
徵起	-11.5897
云何見	-11.5897
疑也	-11.5899
薩婆多	-11.59
不難	-11.59
幻人	-11.5901
▁南无海	-11.5906
法界觀	-11.5906
》(	-11.5906
起大悲心	-11.5906
糞穢	-11.5908
罣礙	-11.5908
唯心所現	-11.591
一萬	-11.591
十方無量	-11.5919
離言說相	-11.5919
下第三	-11.5919
初一頌	-11.592
二取	-11.592
誠諦	-11.5924
未度	-11.5925
菩薩知	-11.5927
皆歸	-11.5927
第十五	-11.5929
是名如來	-11.593
以為實	-11.5932
生淨土	-11.5932
之聚	-11.5932
縛脫	-11.5934
在纏	-11.5934
明日	-11.5935
方圓	-11.5935
是我所	-11.5939
百法	-11.594
七寶莊嚴	-11.5942
破執	-11.5942
調和	-11.5945
說教	-11.5949
假施設	-11.595
事用	-11.5951
與諸菩薩	-11.5951
俱舍論	-11.5952
侍從	-11.5955
後約	-11.5955
示入	-11.5955
是故我	-11.5956
大集	-11.5957
諸邪見	-11.5958
▁初辨	-11.5958
積佛南無	-11.596
下是	-11.5961
大也	-11.5963
過未	-11.5963
發於	-11.5964
巳身	-11.5965
無有餘	-11.5965
根身器界	-11.5965
三七日	-11.5971
常淨	-11.5972
除一切	-11.5973
如世尊所說	-11.5973
如常	-11.5974
三十心	-11.5975
身得	-11.5975
其後	-11.5975
槩	-11.5976
鍠	-11.5978
齎	-11.5981
此之三	-11.5981
得知	-11.5982
有大力	-11.5984
鹿苑	-11.5985
無為緣集	-11.5985
在下	-11.5985
十號具足	-11.5986
為外	-11.5986
得利	-11.5986
自言	-11.5987
少欲知足	-11.5987
一切法相	-11.5987
辨其	-11.5989
工巧	-11.5989
如此等	-11.5989
牢固	-11.599
餘者	-11.599
跛	-11.599
空行	-11.5991
非無因	-11.5991
蹔	-11.5991
具此	-11.5991
緊	-11.5992
復令	-11.5992
柰	-11.5993
一會說經	-11.5993
燒然	-11.5994
本清淨	-11.5994
本無生滅	-11.5995
斷也	-11.5995
所障	-11.5995
無有分別	-11.5996
慈室	-11.5996
革	-11.5997
那律	-11.5999
復有四事	-11.5999
總是	-11.6
入大	-11.6003
心歡喜	-11.6003
明慧	-11.6004
中先	-11.6004
受斯	-11.6004
勇猛精進	-11.6006
大王當知	-11.6006
亦在	-11.6006
尚不可得	-11.6008
現在諸佛	-11.6009
麁重	-11.6009
馳騁	-11.601
真中	-11.6011
中國	-11.6011
諸法不生	-11.6011
三般若	-11.6014
半滿	-11.6019
明觀	-11.602
欲生	-11.6023
命終時	-11.6024
依他起性	-11.6024
乃應	-11.6027
故彼論云	-11.6028
此復	-11.603
無常義	-11.603
無聞	-11.6033
耳聞	-11.6033
不高	-11.6035
採集	-11.6035
通義	-11.6037
說法要	-11.6039
趣菩提	-11.6039
之真	-11.604
亦復無	-11.604
阿羅漢果	-11.6041
伽耶	-11.6042
而不為	-11.6043
持五戒	-11.6044
業行	-11.6044
但舉	-11.6046
顛倒見	-11.6048
終身	-11.6049
依空	-11.605
▁南无福德	-11.605
應念	-11.6051
護佛	-11.6054
行列	-11.6054
一教	-11.6055
作惡業	-11.6055
後念	-11.6055
不起分別	-11.6056
妙相	-11.6057
得授記	-11.6057
正宗分	-11.6059
轉成	-11.6059
譬若	-11.606
乃至廣說	-11.6062
不測	-11.6062
彼因	-11.6066
男子女人	-11.6067
疑難	-11.6067
無我相	-11.6068
得羅漢	-11.6068
多說	-11.6071
明菩	-11.6071
]	-11.6072
國內	-11.6072
因緣生法	-11.6072
無水	-11.6076
畫師	-11.6077
溢	-11.6078
莊嚴具	-11.6081
復現	-11.6082
於地獄	-11.6083
火光	-11.6083
自大	-11.6084
散滅	-11.6085
示以	-11.6085
謗佛	-11.6086
即是佛	-11.6086
為方便	-11.6087
湧	-11.6088
多是	-11.6088
花香	-11.609
仗	-11.6091
一言	-11.6094
孰為本	-11.6095
聲菩	-11.6095
經家	-11.6095
字也	-11.6095
賢善	-11.6095
經義	-11.6095
之境界	-11.6097
故大經云	-11.6098
憶念我昔	-11.6099
飽滿	-11.6099
隨義	-11.6099
必依	-11.6101
覲	-11.6102
具諸	-11.6103
踏	-11.6103
膚	-11.6104
質礙	-11.6104
▁南无眾	-11.6104
豁然	-11.6104
若果	-11.6105
翫	-11.6105
中論云	-11.6105
宣暢	-11.6106
諛諂	-11.6106
無量阿僧祇	-11.6106
金剛藏菩薩	-11.6107
迷之	-11.6107
昔時	-11.6108
喉	-11.6108
掠	-11.6108
共諸天女	-11.6109
佛境	-11.6109
鏡中	-11.6109
而共	-11.611
別對	-11.6113
若不得	-11.6114
為害	-11.6115
舍衛	-11.6115
同行	-11.6115
引喻	-11.6115
向前	-11.6119
常應	-11.6119
婬女	-11.612
桃	-11.612
不滯	-11.612
勝意	-11.6121
所益	-11.6123
年少	-11.6123
動作	-11.6123
隨世	-11.6123
謂前	-11.6125
樹王	-11.6126
向於	-11.6127
除却	-11.6127
攝故	-11.6127
河中	-11.6128
調適	-11.6129
舍那	-11.613
平等性	-11.6131
入觀	-11.6132
所游	-11.6132
無所得故	-11.6134
▁南无自在	-11.6135
不應作	-11.6138
二親	-11.6141
汝能	-11.6142
▁後科	-11.6142
消息	-11.6143
十二緣起	-11.6143
光普照	-11.6143
即說偈言	-11.6145
明不思議	-11.6146
瞿那	-11.6146
而食	-11.6146
今已	-11.615
轉女身	-11.6151
知時	-11.6152
般若云	-11.6152
支佛	-11.6155
善丈夫	-11.6156
遍觀	-11.6157
境相	-11.6158
骨肉	-11.6158
附文	-11.6158
次別	-11.616
敬愛	-11.6162
執心	-11.6163
豈同	-11.6164
建立誹謗	-11.6165
十相	-11.6165
處中	-11.6165
一世界	-11.6167
而辨	-11.6167
計常	-11.6169
與二乘	-11.6169
甘露味	-11.6169
金剛經	-11.6171
念念相續	-11.6171
永除	-11.6171
皆無自性	-11.6175
然雖	-11.6177
以立	-11.6177
南北	-11.6178
十門	-11.6178
諸結	-11.6181
萬善	-11.6183
之經	-11.6183
無取捨	-11.6187
通利	-11.6188
一毛孔	-11.6189
入法性	-11.6191
因滅	-11.6192
總說	-11.6194
金華	-11.6195
而與	-11.6196
是定	-11.6196
焰如來南無	-11.6196
持律	-11.6198
祖曰	-11.62
文為三初	-11.62
廣宣流布	-11.62
無始以來	-11.62
現此	-11.62
以善	-11.62
諸義	-11.6202
以淨覺心	-11.6202
尚爾	-11.6204
莎	-11.6205
自能	-11.6207
根身	-11.6207
尊佛	-11.6207
悶	-11.621
未可	-11.6211
此三昧	-11.6211
賀	-11.6211
季	-11.6211
吳	-11.6213
自是	-11.6214
淡	-11.6214
降伏眾魔	-11.6215
嗚呼	-11.6215
結習	-11.6215
請法	-11.6216
涅槃樂	-11.6218
幢如來南無	-11.6218
黑暗	-11.6219
申日	-11.6219
作何等業	-11.622
躬	-11.6222
禪者	-11.6223
宛轉	-11.6223
和悅	-11.6224
法會	-11.6224
諸聖人	-11.6224
不謗	-11.6227
斛	-11.6229
仁和	-11.623
此破	-11.623
還自	-11.6231
知諸	-11.6232
諸根不具	-11.6232
涯	-11.6233
開演	-11.6233
暉	-11.6233
無利	-11.6235
非凡夫	-11.6235
能燒	-11.6238
功德具足	-11.6238
三昧者	-11.6241
遍至	-11.6242
種種變化	-11.6243
出世法	-11.6243
義中	-11.6244
出過一切	-11.6247
離憂	-11.6248
小異	-11.6249
亦難	-11.6251
人生	-11.6252
則不然	-11.6252
梨耶	-11.6253
謂從	-11.6253
舌根	-11.6254
色究竟天	-11.6255
十日	-11.6255
最為第一	-11.6257
果報土	-11.6258
啟請	-11.6261
從無明	-11.6261
意行	-11.6261
清淨行	-11.6266
是汝	-11.6266
我於此	-11.6267
商人	-11.6269
演法	-11.627
阿羅	-11.627
覺也	-11.627
識處	-11.627
若修	-11.6272
莎羅	-11.6273
巧便	-11.6276
不縛	-11.6277
陰入	-11.6277
悶絕	-11.628
便見	-11.6282
如是等無量	-11.6282
無量福	-11.6283
不可思	-11.6284
可捨	-11.6284
聖默然	-11.6287
生心	-11.6287
云何生	-11.6288
龍神	-11.6293
從座起	-11.6294
斡	-11.6297
向者	-11.6297
地藏	-11.6304
故約	-11.6304
一意	-11.6305
惡念	-11.6306
中有一	-11.6306
又非	-11.6307
惣	-11.6307
自此	-11.6307
更復	-11.6309
後修三摩鉢提	-11.631
成也	-11.6312
成菩提	-11.6314
天身	-11.6317
其室	-11.6318
第七地	-11.6318
無所行	-11.6318
住相	-11.6318
〕-【	-11.632
秘	-11.6323
深重	-11.6323
十二月	-11.6323
馬鳴	-11.6325
紫金	-11.6326
異口同音	-11.6328
悉有	-11.6328
若夫	-11.6328
謂色	-11.6328
樂器	-11.6329
天道	-11.6329
願為我說	-11.6329
倣	-11.6329
宴	-11.633
也所以然者	-11.6331
別教菩薩	-11.6332
秤	-11.6332
欲求圓覺	-11.6334
▁南无山	-11.6335
非幻	-11.6336
舜	-11.6337
手菩	-11.6338
必是	-11.6339
隷	-11.634
眾流	-11.634
三乘人	-11.634
若與	-11.634
一切眾會	-11.6341
所謂苦者	-11.6341
在所	-11.6342
音聲佛	-11.6343
道士	-11.6344
毘舍	-11.6344
斷者	-11.6344
舉其	-11.6345
訪	-11.6345
今現	-11.6347
吉凶	-11.6349
剌	-11.635
眾蜂	-11.635
十一者	-11.6353
引導	-11.6353
法雲地	-11.6354
所動	-11.6355
亦乃	-11.6356
十方如來	-11.6357
選擇	-11.6357
為女	-11.6358
鶖子	-11.636
見身	-11.636
厭生死	-11.6361
亦兼	-11.6361
引例	-11.6361
妄取	-11.6362
常恒	-11.6362
適悅	-11.6363
四枯	-11.6364
外道惡見	-11.6365
四位	-11.6366
攝眾生	-11.6366
聖明	-11.6369
所想	-11.6369
總為	-11.6369
色香	-11.637
故不能	-11.637
菩提行	-11.637
稱我	-11.6373
元無	-11.6374
次說	-11.6375
釋前	-11.6376
以為眷屬	-11.6376
且依	-11.6378
如盲	-11.6378
從緣起	-11.6379
即名為	-11.638
五大	-11.638
一乘道	-11.6381
大怖畏	-11.6382
自當	-11.6383
同分	-11.6383
非獨	-11.6384
準前	-11.6386
▁南无離垢	-11.6386
三總結	-11.6387
過去未來	-11.6387
鐵輪	-11.6387
眼中	-11.639
迦葉佛時	-11.6391
受快樂	-11.6392
俱泯	-11.6392
慧也	-11.6393
行時	-11.6395
意解	-11.6396
水界	-11.6398
光曜	-11.6398
根熟	-11.6398
又不	-11.6401
不可思議解脫	-11.6403
有四事	-11.6404
何曾	-11.6404
照佛南無	-11.6405
他性	-11.6406
證覺	-11.6406
不惜	-11.6408
不相離	-11.6408
偈中	-11.6409
中最	-11.6411
万	-11.6412
赴緣	-11.6412
入真	-11.6412
含藏	-11.6412
教所明	-11.6414
初引	-11.6415
秪是	-11.6418
念慧	-11.6419
莫不皆	-11.6419
我時報言	-11.6419
舉足	-11.642
嘿	-11.6422
初發心住	-11.6422
文勢	-11.6422
但空	-11.6423
有若干	-11.6424
能變	-11.6424
藏教	-11.6425
以此因緣	-11.6426
喻之	-11.6427
及眾生	-11.6431
云何菩薩摩訶薩	-11.6432
一毛	-11.6434
著身	-11.6435
妄計性	-11.6435
佛南無成就	-11.6436
雙照二諦	-11.6436
種種分別	-11.6437
先釋	-11.6437
吉祥佛	-11.6437
皆與	-11.6438
我不堪任詣彼問疾	-11.6439
後修禪那	-11.644
所當	-11.6441
三合	-11.6441
若修行菩薩	-11.6445
本願力	-11.6446
意在此也	-11.6446
如鳥	-11.6447
水性	-11.6448
普智	-11.6449
尋即	-11.6449
師子之座	-11.6449
我等四王	-11.645
持業釋	-11.645
同入	-11.645
躁動	-11.645
證滅	-11.6451
諸佛國	-11.6452
唯是自心	-11.6454
醎	-11.6454
此位	-11.6455
此是第二	-11.6456
經疏	-11.6457
不休息	-11.6458
輝	-11.6458
晨	-11.6458
得為人	-11.6458
刀兵	-11.6459
身壞命終生於善道	-11.6459
測度	-11.646
巳後	-11.6461
擇滅	-11.6461
未達	-11.6462
淨居天	-11.6463
暫時	-11.6464
表發	-11.6465
未足	-11.6465
今在	-11.6465
掉舉	-11.6465
領納	-11.6466
五受陰	-11.6466
忍者	-11.6467
歸趣	-11.6468
餘法	-11.6468
無所從生	-11.6469
佛南無金剛	-11.6469
悅豫	-11.647
異耳	-11.6473
二乘之人	-11.6474
即取	-11.6474
教誡	-11.6475
心自念言	-11.6475
輔行	-11.6476
一切聲聞緣覺	-11.6476
護戒	-11.6477
如別卷	-11.6477
六界	-11.6477
連合	-11.6477
迭共	-11.6481
力能	-11.6482
百分	-11.6485
八萬四千諸	-11.6486
以表	-11.6487
上皆	-11.6487
隨力	-11.649
惡者	-11.6491
離病	-11.6492
注曰	-11.6492
具引	-11.6492
為依	-11.6493
生人間	-11.6493
是則名曰	-11.6493
雖生	-11.6494
融攝	-11.6494
有餘涅槃	-11.6495
八種識	-11.6495
着	-11.6497
非有為	-11.6497
何則	-11.65
文可知	-11.65
十卷	-11.6501
癡心	-11.6502
自在故	-11.6502
不障	-11.6506
文別有	-11.6507
大夫	-11.6513
無雜	-11.6514
向上	-11.6514
始生	-11.6514
聞說是	-11.6515
汝若	-11.6515
於無量劫	-11.6515
法供	-11.6516
隨諸眾生	-11.6517
不知足	-11.6518
有四大	-11.6518
家之	-11.652
妄覺	-11.652
中來	-11.6521
於佛道	-11.6523
不名為	-11.6524
以為實有	-11.6524
不如實知	-11.6525
不怯弱	-11.6527
共為	-11.6528
妙觀	-11.6529
初喻	-11.6529
無不盡	-11.6531
離塵	-11.6532
正修行	-11.6533
愚癡者	-11.6534
既能	-11.6534
斷彼	-11.6535
尋常	-11.6537
使者	-11.6537
印可	-11.6538
眾像	-11.6538
无	-11.6539
不興	-11.6539
彼非	-11.654
但可	-11.6541
乃至菩提	-11.6542
本性清淨	-11.6544
去者	-11.6545
不思議也	-11.6547
成壞	-11.6547
勸發	-11.6549
諸鬼神	-11.6549
羼提波羅蜜	-11.655
光王佛	-11.6551
散花	-11.6551
智輪童子	-11.6551
何處有	-11.6552
佛經	-11.6554
樂報	-11.6557
問意	-11.6558
歎曰	-11.6559
欠	-11.656
明珠	-11.6562
諸神	-11.6562
於自身	-11.6563
不一不異	-11.6565
無有一法	-11.6565
八地巳上	-11.6565
為如來種	-11.6566
劫盡	-11.6566
一真法界	-11.6566
尊勝	-11.6569
蠅	-11.6569
臘	-11.6569
有生死	-11.6569
速成	-11.657
債	-11.657
如我所說	-11.6572
我念	-11.6572
爾炎	-11.6572
分別見	-11.6573
信順	-11.6573
何以知之	-11.6573
覆心	-11.6574
奇哉	-11.6574
入深	-11.6575
貧苦	-11.6575
成實論	-11.6576
親族	-11.6576
喇	-11.6577
無作四諦	-11.6577
弊惡	-11.6577
光明遍照	-11.6577
踰繕那	-11.6578
庫藏	-11.6579
孤獨	-11.6581
無修	-11.6582
智眼	-11.6582
若不調順	-11.6583
我及諸佛	-11.6584
發聲	-11.6584
蹈	-11.6585
棺	-11.6585
本願功德	-11.6586
閒	-11.6587
種種義	-11.6587
相離	-11.6589
聲聞法	-11.6594
之香	-11.6595
稽首禮	-11.6597
淨相	-11.66
願說	-11.66
設供	-11.6602
雖處	-11.6602
非我所說	-11.6603
分為四	-11.6604
起念	-11.6604
一切言說	-11.6604
如是則	-11.6604
少病	-11.6605
除疑	-11.6605
衣鉢	-11.6607
結歎	-11.6608
▁後解	-11.6608
有頂	-11.661
二支	-11.6613
諸鬼	-11.6613
受天	-11.6614
圓證	-11.6615
一示	-11.6615
而滅	-11.6616
亦非無	-11.6617
被服	-11.6617
寶月	-11.6618
言詞	-11.6624
四天	-11.6625
破云	-11.6625
損益	-11.6625
者令得	-11.6625
心喜	-11.6626
觀眾生品	-11.6626
妄認	-11.6626
▁七	-11.6629
當修	-11.6632
若實	-11.6633
彼業	-11.6637
此有二	-11.664
科文	-11.664
王阿闍世	-11.6641
在定	-11.6642
緊那羅王	-11.6644
色佛	-11.6644
章云	-11.6645
苦受	-11.6646
至理	-11.6646
俱起	-11.6646
轉為	-11.665
善女	-11.6651
能隨	-11.6652
離一切相	-11.6652
驗知	-11.6655
聲聞菩薩	-11.6655
廣辨	-11.6656
論其	-11.6659
如毒	-11.6659
之際	-11.6661
所犯	-11.6661
龍象	-11.6661
我體	-11.6663
智境界	-11.6664
網明菩薩	-11.6664
文可見	-11.6666
石女兒	-11.6668
誰是	-11.6668
佛道品	-11.6668
根鈍	-11.6668
雜心	-11.6668
等類	-11.6669
譬如明鏡	-11.667
不誑	-11.667
金剛慧	-11.6672
甘露法	-11.6672
還滅	-11.6673
利人	-11.6673
過一切	-11.6674
第二句	-11.6675
化者	-11.6675
可厭	-11.6675
諸修行者	-11.6679
遍於	-11.6679
二經	-11.6679
大自在天	-11.668
境界者	-11.668
寂而常照	-11.6681
與心	-11.6681
莫測	-11.6682
大醫王	-11.6682
復說偈言	-11.6683
煥	-11.6683
農	-11.6684
過去佛	-11.6685
修奢摩他	-11.6686
胞胎	-11.6688
巷	-11.6688
天處	-11.6688
相所相	-11.6688
修德	-11.669
不獲	-11.669
邪念	-11.6691
意亦	-11.6691
不任	-11.6692
無間斷	-11.6693
修觀行	-11.6693
剩	-11.6693
署	-11.6693
所生功德	-11.6693
瞿陀尼	-11.6694
善因	-11.6695
一切人民	-11.6697
秀	-11.6698
現諸	-11.67
▁南无高	-11.6702
亦不從	-11.6703
劉	-11.6703
狼	-11.6704
一國	-11.6705
八苦	-11.6707
尊卑	-11.6708
性非	-11.6708
下次明	-11.6708
偏空	-11.6709
初四	-11.6709
諸經中	-11.6709
毘耶離	-11.6711
廂	-11.6712
權實二智	-11.6713
亦猶	-11.6716
真如門	-11.6716
諮問	-11.6716
汝何	-11.6718
謨	-11.6718
來下	-11.6718
云何是菩薩	-11.6719
與理	-11.6719
未滅	-11.6719
為食	-11.6719
痰	-11.672
為無常	-11.672
事識	-11.6721
所化眾生	-11.6722
受化	-11.6725
成大	-11.6725
其所說	-11.6726
色有	-11.6726
邪定	-11.6727
今用	-11.6729
內法	-11.6731
漸次生	-11.6731
河流	-11.6731
傷害	-11.6732
凡情	-11.6734
喚作	-11.6734
此二法	-11.6735
此性	-11.6736
無犯	-11.6736
一切清淨	-11.6737
地獄人	-11.6738
識等	-11.6738
無生者	-11.674
著地	-11.6743
除愈	-11.6745
子孫	-11.6746
巳見	-11.6747
白世尊	-11.6748
一切法趣	-11.6753
道慧	-11.6754
是無為	-11.6755
論之	-11.6756
其命	-11.6756
合部	-11.6757
五神通	-11.6757
增上慢人	-11.6758
離二邊	-11.676
智慧力	-11.6762
今問	-11.6762
魔宮	-11.6763
梵王言	-11.6763
下引	-11.6763
超過一切	-11.6764
明於	-11.6768
黃色	-11.6768
智自在	-11.6768
我悉	-11.6768
求解脫	-11.6768
吼佛	-11.6769
方便力	-11.6773
空無相無作	-11.6775
蒙佛	-11.6777
則失	-11.678
▁南无不動	-11.6781
光明世界	-11.6781
0	-11.6781
相攝	-11.6785
其疾	-11.6787
止止	-11.679
故華嚴云	-11.679
調伏心	-11.679
諸佛及	-11.679
樂修	-11.6791
多陀阿伽度	-11.6792
不退轉地	-11.6793
法乎	-11.6796
階級	-11.6799
治世	-11.6799
即墮	-11.68
非因非果	-11.6802
即般若	-11.6806
咸皆	-11.6806
在在處處	-11.6807
但有名字	-11.6808
纖	-11.681
肇云	-11.6813
無自	-11.6814
號哭	-11.6815
弗婆提	-11.6815
捷	-11.6816
依處	-11.6816
四章	-11.6817
損壞	-11.6819
淨名答	-11.6819
巨海	-11.6819
道樹	-11.682
▁南无不	-11.682
即是空	-11.6821
甄	-11.6821
阿梨耶識	-11.6822
愆	-11.6822
必不	-11.6823
既滅	-11.6826
彌留佛南無	-11.6826
此宗	-11.6826
生盲	-11.6827
是則為寶	-11.6828
現作	-11.6829
即今	-11.6829
福利	-11.683
例餘	-11.683
於汝	-11.683
寐	-11.683
妄相	-11.6831
可食	-11.6831
親近供養	-11.6833
并餘	-11.6833
慧明	-11.6835
顯法	-11.6835
故引	-11.6836
二正釋	-11.6836
處非處	-11.6842
巳知	-11.6843
忽有	-11.6844
為生死	-11.6845
下四	-11.6845
豐樂	-11.6846
四榮	-11.6846
何但	-11.6846
無明滅	-11.6847
有識	-11.6847
八月	-11.6848
初長行	-11.6848
南無金剛	-11.6851
離性	-11.6851
聞香	-11.6852
謂一	-11.6854
蓋以	-11.6854
妄境	-11.6855
示同	-11.6855
種種不同	-11.6857
心不生	-11.6858
▁二別釋	-11.6858
觀世間	-11.686
疲倦	-11.6861
合喻	-11.6861
冥諦	-11.6861
致敬	-11.6861
以眾生	-11.6863
兩足	-11.6866
種族	-11.6866
兩品	-11.6867
向下	-11.6867
所敬	-11.6868
同外道	-11.6868
新本	-11.6869
別列	-11.6869
根源	-11.6869
遣使	-11.687
何等人	-11.6871
相續相	-11.6872
自在神通	-11.6872
身力	-11.6873
皆須	-11.6874
鬼趣	-11.6874
即是真	-11.6875
二業	-11.6876
所覩	-11.6876
遂成	-11.6877
入中道	-11.6878
幻身	-11.6879
根力	-11.6879
正助	-11.688
不生也	-11.6882
無常故	-11.6882
前來	-11.6882
懅	-11.6883
如應	-11.6885
如是等法	-11.6885
倦	-11.6886
自恃	-11.6888
又三	-11.6889
前品	-11.689
等四句	-11.6891
正慧	-11.6892
志性	-11.6892
治國	-11.6892
如是說者	-11.6893
南無虛空	-11.6894
於來世	-11.6894
令悟	-11.6896
中疏二一	-11.6898
如大海	-11.69
寶性	-11.6901
法法	-11.6901
智證	-11.6901
歌音	-11.6901
無道	-11.6902
煩惱業	-11.6903
形聲	-11.6903
便入	-11.6903
四海	-11.6903
大慧言	-11.6903
至七地	-11.6904
答前問	-11.6906
解悟	-11.6907
教義	-11.6909
煩𢙉	-11.691
作是語巳	-11.691
身量	-11.6911
非心	-11.6913
如幻等	-11.6913
拈	-11.6913
自性空	-11.6915
我法二執	-11.6915
之寶	-11.6916
名數	-11.6919
解空	-11.692
二年	-11.692
色無色界	-11.6921
佛問	-11.6921
只如	-11.6921
殆	-11.6921
豁	-11.6922
調心	-11.6922
此解	-11.6923
從地	-11.6923
遍身	-11.6923
舍利子言	-11.6924
從坐而起	-11.6924
貪嫉	-11.6924
遠塵離垢	-11.6924
下正明	-11.6925
愜	-11.6925
霑	-11.6926
散脂	-11.6928
或一	-11.6929
窮源	-11.6929
殷重	-11.693
佐	-11.693
陰界	-11.693
激	-11.693
現法樂住	-11.693
顛倒想	-11.6933
方顯	-11.6934
苦苦	-11.6935
天雨	-11.6936
知心	-11.6936
生天中	-11.6936
萌	-11.6936
搆	-11.6936
能遠離	-11.6937
生地獄中	-11.6938
)。△	-11.6939
入水	-11.6939
三十八	-11.6942
昭然	-11.6942
無別體	-11.6945
攝受正法	-11.6946
熱鐵	-11.6946
橫計	-11.6947
佛威神	-11.6947
轉者	-11.6948
薦	-11.6949
通者	-11.6949
五無間業	-11.6949
不饒益	-11.695
自在無礙	-11.695
篤信	-11.6951
大慧復白佛言	-11.6952
如向	-11.6953
所修行	-11.6953
惡覺	-11.6955
如來藏者	-11.6956
為沙門	-11.6957
惟是	-11.6958
髻菩	-11.6959
師資	-11.696
不顯	-11.696
所說事	-11.6961
地住	-11.6961
入滅盡定	-11.6961
念佛三昧	-11.6962
不見其	-11.6963
釋經文	-11.6965
永息	-11.6966
驚畏	-11.6967
諸惡趣	-11.6968
海浪	-11.6969
皆知	-11.6971
俱致	-11.6971
覆障	-11.6971
到於	-11.6972
勸人	-11.6973
非世論	-11.6975
所思	-11.6976
寶聚	-11.6976
隨人	-11.6976
有四義	-11.6977
海龍王	-11.698
因緣有	-11.698
所辨	-11.6983
往返	-11.6984
身外	-11.6985
有無相	-11.6985
住立	-11.6985
因由	-11.6987
有佛名	-11.6988
說妙法	-11.6989
無妄	-11.6991
侍衛	-11.6992
歲數	-11.6993
衛護	-11.6994
知根	-11.6996
見種種	-11.6997
眾寶莊嚴	-11.6998
入一切法	-11.6999
修三觀	-11.6999
然上	-11.7002
法印	-11.7002
於食	-11.7004
廣歎	-11.7005
本來成佛	-11.7007
勝王佛	-11.7008
空假中	-11.701
藥樹	-11.7011
離貪	-11.7013
即於此	-11.7014
幻境	-11.7015
彌勒菩薩言	-11.7016
內觀	-11.7019
忘言	-11.702
爾時大慧菩薩復白佛言	-11.7022
觀色	-11.7022
小教	-11.7023
能執	-11.7023
領上	-11.7027
不謬	-11.7029
廣慧	-11.7032
因疾	-11.7032
從人	-11.7033
智具足	-11.7034
不說一字	-11.7035
盖佛	-11.7036
無對	-11.7037
用是故	-11.7038
自心所見	-11.7039
短命	-11.704
如來名者	-11.7041
二別明	-11.7042
異耶	-11.7043
尚未	-11.7045
姟	-11.7046
華池	-11.7047
種種境界	-11.7047
圓覺經	-11.7048
自滅	-11.7048
願樂欲聞	-11.7052
散佛上	-11.7053
欲言	-11.7053
四部眾	-11.7053
是權	-11.7055
如是天子	-11.7055
父子	-11.7056
晨朝	-11.7056
咄	-11.7057
第二從	-11.7057
喝	-11.7058
攝於	-11.7058
疫	-11.7058
鶴	-11.7058
如夢幻	-11.7059
四教明	-11.7059
泊	-11.706
至下	-11.706
從事	-11.706
從因	-11.706
教導	-11.7061
自致正覺度脫一切	-11.7061
大龍	-11.7062
何可	-11.7062
聞思	-11.7063
刪	-11.7063
嗔恚	-11.7063
疏又	-11.7064
破法	-11.7065
阿耨達	-11.7065
明暗	-11.7065
饒益有情	-11.7065
懸談	-11.7066
實也	-11.7066
土地	-11.7067
郎	-11.7067
良藥	-11.7068
四弘	-11.7068
本無自性	-11.7068
無方便	-11.7068
大品經	-11.7068
是初	-11.7069
筌	-11.7072
諮	-11.7072
本自無生	-11.7072
為病	-11.7072
煎	-11.7073
正辨	-11.7074
四威儀中	-11.7076
叫喚	-11.7077
本寂	-11.7077
眾圍遶	-11.708
若存	-11.7081
出火	-11.7083
能讚	-11.7083
諸天人民	-11.7084
諸有情類	-11.7084
理觀	-11.7085
光影	-11.7085
七覺支	-11.7086
生死海	-11.7087
雜集論	-11.7089
譯者	-11.709
好色	-11.7092
盈滿	-11.7093
思慮	-11.7094
施為	-11.7095
利刀	-11.7096
苦盡	-11.7097
彼圓覺性	-11.7098
惟有	-11.7098
已復生	-11.7099
人人	-11.71
乞求	-11.7102
迴心	-11.7102
證之	-11.7103
還入	-11.7103
是諸如來	-11.7105
是王	-11.7105
三正	-11.7107
之樹	-11.7108
雞兜佛南無	-11.7109
則名	-11.711
有百千	-11.7113
約行	-11.7115
豈況	-11.7117
四性	-11.7117
十重	-11.7118
皆明	-11.7119
為趣	-11.712
論釋	-11.712
是業	-11.7124
呪願	-11.7124
若菩薩摩訶薩	-11.7127
前三教	-11.7127
如母	-11.7127
實故	-11.7127
心外無	-11.7127
不覩	-11.7128
就法	-11.7129
潤生	-11.7129
現病	-11.713
治生	-11.7131
佛所說法	-11.7131
無礙辯	-11.7132
大梵王	-11.7133
在何處	-11.7135
佛母	-11.7137
止論	-11.7139
義趣	-11.7141
第十四	-11.7141
師子奮迅	-11.7141
號為	-11.7141
本從	-11.7142
相可得	-11.7144
時王	-11.7144
風界	-11.7145
既其	-11.7145
他受用身	-11.7146
大利益	-11.7147
而為莊嚴	-11.7147
畏生死	-11.7148
現故	-11.7148
因起	-11.7149
起見	-11.7149
違逆	-11.7151
惑盡	-11.7151
破於	-11.7154
乾闥婆等	-11.7155
無量壽佛	-11.7155
離我	-11.7158
洋	-11.7158
有二意一	-11.716
有其三	-11.716
陽𦦨	-11.7162
無涯	-11.7162
即於彼	-11.7162
空無相無願	-11.7164
但觀	-11.7164
為菩提	-11.7164
假令	-11.7164
右繞三匝	-11.7167
覺道	-11.7168
理合	-11.7168
不越	-11.7169
飢餓	-11.7172
無量百千萬億	-11.7173
如來禪	-11.7173
所惑	-11.7173
清淨佛土	-11.7174
引文	-11.7174
此二句	-11.7174
經部	-11.7174
從我	-11.7175
壤	-11.7175
一異俱不俱有無非有非無常無常	-11.7175
揀非	-11.7176
戒為	-11.7177
內發	-11.7178
族姓	-11.7178
病也	-11.7178
說此法	-11.7178
挍	-11.7179
何等名為	-11.718
此謂之	-11.7181
逼切	-11.7182
鍾	-11.7183
托	-11.7183
劒	-11.7184
資於	-11.7185
智行	-11.7186
祕藏	-11.7187
施眾生	-11.7188
觀因緣	-11.7189
虔	-11.7193
騎	-11.7195
來此	-11.7195
斷證	-11.7196
相縛	-11.7196
為最勝	-11.7196
譬如大地	-11.7197
覺義	-11.7197
絃	-11.7197
一鬼	-11.7198
淨天	-11.7198
▁三明	-11.7199
修惡	-11.7199
現在世	-11.7201
後學	-11.7202
大海中	-11.7202
無有邊	-11.7203
化樂天	-11.7204
彼經云	-11.7204
此標	-11.7205
佛力	-11.7206
勝樂	-11.7206
法之供養	-11.7207
主伴	-11.7209
樓至	-11.7209
無明為因	-11.7209
境界相	-11.721
果中	-11.7211
若不如是	-11.7211
緣於	-11.7211
何故說	-11.7212
異學	-11.7213
一喻	-11.7217
具於	-11.7219
間雜	-11.722
了心	-11.7221
敘意	-11.7223
悟淨圓覺	-11.7223
永絕	-11.7223
令捨	-11.7224
是性	-11.7225
日用	-11.7226
四問	-11.7228
無外	-11.7228
畢定	-11.7229
且止	-11.7232
是為四種	-11.7233
為內	-11.7234
具德	-11.7236
猶存	-11.7237
黑白	-11.7237
大千世界	-11.7237
真偽	-11.7238
作此說	-11.7239
不到	-11.724
之儀	-11.7241
於何處	-11.7242
作師子吼	-11.7242
破一切	-11.7242
為化眾生	-11.7243
㝡	-11.7244
無差別故	-11.7245
同居土	-11.7246
住三昧	-11.7248
合前	-11.7249
斷常二見	-11.7251
弟子眾	-11.7251
卷中	-11.7252
旃檀	-11.7254
釋種	-11.7254
同上	-11.7256
地水	-11.7256
百丈	-11.7257
即云	-11.7258
許可	-11.7259
無垢稱言	-11.726
故謂之	-11.7262
菩薩品	-11.7265
又舍利子	-11.7267
厭足	-11.7269
地者	-11.7269
亦不有	-11.727
大名稱	-11.727
自心分別	-11.7271
歡喜地	-11.7272
法界性	-11.7272
十一種	-11.7275
無救	-11.7275
無用	-11.7276
易得	-11.7277
在上	-11.7278
心滅	-11.7278
他身	-11.7279
得一	-11.7279
賢者阿難	-11.7279
四大及造色	-11.7279
是法性	-11.7279
光明莊嚴	-11.728
自相同相	-11.728
此一句	-11.7281
生識	-11.7282
測量	-11.7283
唯自心	-11.7284
緣合	-11.7284
能生諸法	-11.7287
勤心	-11.7288
他世	-11.7292
先斷	-11.7294
持正法	-11.7294
諸世界	-11.7294
閻羅	-11.7295
菩薩復有十法名	-11.7295
證真如	-11.7296
以別	-11.7297
三惡趣	-11.73
事事無礙	-11.73
自顯	-11.73
火起	-11.7302
得念	-11.7302
是假	-11.7302
化化	-11.7303
諸漏已盡	-11.7303
為眾生說法	-11.7304
前約	-11.7304
不可說不可說	-11.7306
調伏眾生	-11.7306
述其	-11.7306
以天	-11.7307
上佛南無	-11.7308
敏	-11.7308
若悟	-11.7308
天龍鬼神	-11.7309
深觀	-11.731
思益梵天	-11.731
在會	-11.7311
聽我	-11.7312
共相娛樂	-11.7312
挽	-11.7312
有邊	-11.7313
於王	-11.7313
主人	-11.7314
寶所	-11.7314
善事	-11.7316
月光童子	-11.7316
耕	-11.7316
并諸	-11.7316
肌	-11.7317
錯亂	-11.7317
純熟	-11.7317
知已	-11.7317
金性	-11.7317
此國	-11.7317
享	-11.7318
機關	-11.7319
諸定	-11.7319
喻明	-11.732
轉故	-11.732
悲田	-11.732
我及諸菩薩	-11.732
疏三	-11.732
九十六種	-11.7322
衡	-11.7322
以惡業故	-11.7323
生死即涅槃	-11.7324
酸	-11.7325
髀	-11.7326
弗沙	-11.7326
兮	-11.7327
數論	-11.7328
啼泣	-11.7329
梵聲	-11.733
無壞	-11.733
七地菩薩	-11.733
阿那	-11.733
也若約	-11.733
▁後別	-11.7331
無我法	-11.7332
川	-11.7334
使之	-11.7335
諸家	-11.7335
有何差別	-11.7336
重顯	-11.7336
經旨	-11.7339
善念	-11.734
入五法	-11.7341
於閻浮提	-11.7341
稱譽	-11.7342
觀想	-11.7343
所惱	-11.7344
意止	-11.7344
死苦	-11.7346
眾事	-11.7346
盡不盡	-11.7347
諸外道等	-11.7347
復入	-11.7347
故應	-11.7349
諸眷屬	-11.735
前生	-11.7352
▁南无明	-11.7352
二藏	-11.7352
人師子	-11.7352
那伽	-11.7357
各各差別	-11.7358
不婬	-11.7358
佛頂	-11.7359
戒律	-11.736
應當遠離	-11.736
依倚	-11.7361
非常無常	-11.7361
止觀云	-11.7361
五百由旬	-11.7362
法如如	-11.7362
八事	-11.7363
所傳	-11.7367
自調	-11.7367
小乘教	-11.7371
無生故	-11.7371
無怨	-11.7372
聲者	-11.7372
初出	-11.7372
真應	-11.7373
依他性	-11.7373
使得	-11.7375
聲聞藏	-11.7376
體達	-11.7377
約人	-11.7377
無所有菩薩	-11.7378
一異等	-11.7379
有無明	-11.7381
後身	-11.7381
既同	-11.7382
與諸佛	-11.7385
初依	-11.7388
流動	-11.7388
無疑惑	-11.7389
入門	-11.7389
二宗	-11.7389
得一切智	-11.739
譬如人	-11.739
無樂	-11.739
不能令	-11.7391
無明等	-11.7392
將軍	-11.7393
之善	-11.7393
殺者	-11.7393
二乘及	-11.7394
遍法界	-11.7397
志在	-11.7398
一代	-11.7399
錢財	-11.7399
寂滅忍	-11.7399
亦何	-11.74
乃名為	-11.7401
業緣	-11.7401
淨解	-11.7402
作是念言	-11.7404
何耶	-11.7404
自現	-11.7404
愛涅槃	-11.7404
至極	-11.7406
真覺	-11.7406
王菩薩南無	-11.7406
空智	-11.7407
定實	-11.7408
頓生	-11.7409
長遠	-11.7409
六祖	-11.7409
憙樂	-11.7411
也答曰	-11.7411
更樂	-11.7411
之甚	-11.7411
陸	-11.7412
池水	-11.7413
人命	-11.7413
無緣慈	-11.7414
智生	-11.7415
為生因	-11.7417
詣彼	-11.7417
得聞如是	-11.7417
正住	-11.7417
畢竟滅	-11.7417
答前	-11.7417
不辨	-11.7419
爾時大慧菩薩復白佛言世尊	-11.742
不作是念	-11.7423
二德	-11.7424
覺慧	-11.7424
諸餓鬼	-11.7425
風火	-11.7425
俱不俱	-11.7425
皆悉成就	-11.7426
尸波羅蜜	-11.7426
正徧知	-11.7427
起發	-11.7428
實事	-11.743
奉辭不堪	-11.7431
無濁	-11.7431
然後乃消	-11.7433
如是展轉	-11.7434
亦非有	-11.7435
普現色身	-11.7436
後修奢摩他	-11.7437
寶色	-11.7437
是如來異名	-11.7437
次三	-11.7438
諱	-11.7439
若望	-11.7439
舊解	-11.7441
智菩	-11.7441
月十五日	-11.7441
專一	-11.7441
之根	-11.7442
棒	-11.7442
三結成	-11.7443
三對	-11.7443
樹枝	-11.7443
縣官	-11.7443
如應說法	-11.7445
婁	-11.7445
致問	-11.7446
閙	-11.7446
零	-11.7447
吉祥菩	-11.7447
緣生無性	-11.7448
允	-11.7448
上首智慧弟子曰	-11.7449
神通變化	-11.7449
䇿	-11.745
所對	-11.745
上二界	-11.7451
功德寶	-11.7451
能招	-11.7452
唱喚	-11.7452
諸凡愚	-11.7452
辨之	-11.7453
諸樹	-11.7453
略答	-11.7454
言論	-11.7454
稍稍	-11.7455
有佛號	-11.7456
愛染	-11.7457
巳證	-11.7458
抵	-11.7458
初歎	-11.7458
義說	-11.7459
聞彼	-11.7461
不可具說	-11.7462
敕	-11.7465
汝今當知	-11.7466
所有福德	-11.7466
注中	-11.7468
正修	-11.7469
<	-11.747
g	-11.747
i	-11.747
m	-11.747
鏡智	-11.7471
亦從	-11.7473
此四種	-11.7474
想陰	-11.7476
▁一心敬禮	-11.7476
旋轉	-11.7477
有淺深	-11.7477
而明	-11.7483
禪宗	-11.7484
智明	-11.7485
之利	-11.7485
不惑	-11.7486
成就第一義	-11.7487
教體	-11.7489
十八空	-11.7492
南無蓮華	-11.7492
隨智	-11.7493
諸人等	-11.7493
我不說	-11.7493
心心所法	-11.7496
為別	-11.7496
為人所	-11.7497
得淨	-11.7499
金輪	-11.7501
譬之	-11.7502
死後	-11.7502
六欲	-11.7504
會者	-11.7507
如下文	-11.7507
退屈	-11.7509
情欲	-11.7509
慈氏菩薩	-11.751
合明	-11.7511
人之所	-11.7512
為對	-11.7513
迷惑法	-11.7514
離繫	-11.7515
必先	-11.7515
寂觀	-11.7516
二意	-11.7517
尊經	-11.7518
應佛	-11.7518
三示	-11.7518
諸德	-11.752
合於	-11.7522
下正釋	-11.7522
次從	-11.7523
莊嚴身	-11.7523
被彈	-11.7524
▁初舉	-11.7525
螢火	-11.7528
直示	-11.7529
惑者	-11.7531
釋通	-11.7531
金翅鳥	-11.7532
莂	-11.7535
圓覺清淨	-11.7536
不施	-11.7536
往古	-11.7536
重病	-11.7541
正約	-11.7541
阿僧祇界	-11.7542
▁二答	-11.7544
諸有為法	-11.7545
陳如	-11.7545
妙花	-11.7545
制伏	-11.7545
惑障	-11.7546
愚夫所行禪	-11.7547
威勢	-11.7547
無能勝	-11.7549
有佛名曰	-11.755
度生死	-11.7552
在大眾中即從座起	-11.7552
地味	-11.7553
無有相	-11.7556
所證法	-11.7557
墮餓鬼	-11.7558
雜穢	-11.7559
□□□□□□□	-11.7561
南無善住	-11.7561
總歎	-11.7561
云云者	-11.7562
感得	-11.7563
蔓	-11.7563
唯識論云	-11.7565
根塵識	-11.7565
時維摩詰來謂我言	-11.7566
瞻視	-11.7567
有言	-11.7568
故不得	-11.7568
埵	-11.7569
一切事	-11.7569
潤澤	-11.757
鉢頭摩	-11.7571
乙	-11.7571
單複	-11.7571
十千天子	-11.7571
轉復	-11.7572
脩多羅	-11.7572
即屬	-11.7573
亘	-11.7573
是彼惡業餘殘果報	-11.7573
應先	-11.7574
之詞	-11.7575
離異不異	-11.7576
歸命懺悔	-11.7576
是有法	-11.7576
如來世尊	-11.7577
大仙人	-11.7578
生希有心	-11.7578
幻有	-11.7578
有二義一	-11.7578
此圓覺	-11.7578
豐足	-11.7578
離散	-11.7579
第二時	-11.7579
稚	-11.7579
懊惱	-11.758
法身菩薩	-11.758
陶	-11.758
常起	-11.758
稽	-11.7581
簡擇	-11.7582
得往生	-11.7582
踈	-11.7583
貪嗔	-11.7584
嬰	-11.7584
脾	-11.7585
下隨文釋義	-11.7586
佛告比丘	-11.7586
國邑	-11.7587
求利	-11.7587
在中	-11.7588
是為宴坐	-11.759
而還	-11.7591
比丘言	-11.7592
害心	-11.7594
等是也	-11.7595
與諸天女	-11.7597
相依	-11.7598
目之為	-11.7599
或約	-11.7602
曼陀羅華	-11.7602
有情界	-11.7603
愚冥	-11.7604
佛現	-11.7605
▁南无法界	-11.7608
十二者	-11.7608
正知見	-11.7609
宮室	-11.7609
後當	-11.761
三和合	-11.7611
衣被	-11.7611
心住	-11.7614
輪轉生死	-11.7617
喜根	-11.7618
十迴向	-11.7618
精神	-11.7621
曾見	-11.7621
心境界	-11.7622
因緣者	-11.7622
阿難問	-11.7628
也所以	-11.7628
稱實	-11.7629
宣布	-11.7629
共行	-11.763
恒時	-11.7631
攝大乘論	-11.7632
無有自性	-11.7633
四段	-11.7634
誦經	-11.7635
妙境	-11.7637
他化	-11.7639
退散	-11.7639
善調	-11.764
如是事	-11.7641
道眼	-11.7641
瓶等	-11.7641
正體	-11.7642
威如來南無	-11.7643
入出	-11.7643
久習	-11.7645
標云	-11.7645
與授記	-11.7646
歡喜心	-11.7648
十方佛土	-11.7648
門下	-11.7649
正月	-11.7649
直以	-11.765
終頓	-11.7653
衣服飲食	-11.7654
有多種	-11.7654
燈明佛	-11.7655
知苦	-11.7658
分分	-11.7658
普入	-11.7659
大惡	-11.7661
春時	-11.7662
願聞	-11.7663
寶臺	-11.7664
當起	-11.7664
若離於	-11.7665
大海水	-11.7666
無與等	-11.7667
申請	-11.7668
安眾生	-11.767
修諸	-11.7671
文亦	-11.7671
罪滅	-11.7672
悉當	-11.7674
釋迦文	-11.7674
生滅法	-11.7676
所流	-11.7677
遇善知識	-11.7678
心緣	-11.7678
如芭蕉	-11.7679
善根力	-11.7681
與他	-11.7682
堅濕煖動	-11.7682
能隨順	-11.7684
玄文	-11.7684
觀察義禪	-11.7684
迷時	-11.7684
一切地	-11.7686
一百二十	-11.7687
▁初引	-11.7687
文言	-11.7688
一一分別	-11.769
毘盧遮那	-11.7694
準知	-11.7698
挾	-11.7699
燈王佛	-11.7699
是慧	-11.7699
編	-11.77
一切國土	-11.7702
峻	-11.7702
實行	-11.7702
有限	-11.7703
沾	-11.7704
七世父母	-11.7706
不可限量	-11.7706
乃至惡業未	-11.7706
隨智慧行	-11.7707
祭祀	-11.7708
巡	-11.7708
是有漏	-11.7708
陀隣尼	-11.7708
說法時	-11.7709
車𤦲	-11.7711
暫停	-11.7712
自娛	-11.7712
如來之藏	-11.7713
念念不住	-11.7713
埋	-11.7714
齊限	-11.7715
洛	-11.7715
入佛慧	-11.7716
南無日	-11.7719
禱	-11.7719
閉目	-11.7721
歡喜信樂	-11.7722
婢	-11.7723
皇帝	-11.7724
二不二	-11.7725
麁細	-11.7725
以何為本	-11.7725
不願	-11.7725
色究竟	-11.7726
資助	-11.7727
憂慼	-11.7727
起信論云	-11.7727
不落	-11.7728
苦空	-11.7728
種種法	-11.7728
皈依	-11.7729
具壽	-11.7729
未久	-11.7729
妙高山	-11.773
不自生	-11.7732
如夢中	-11.7732
平等智	-11.7733
如實行	-11.7734
眾患	-11.7735
悉已	-11.7735
稱之為	-11.7735
識體	-11.7735
可爾	-11.7736
一切諸法悉	-11.7737
即是真如	-11.7737
周易	-11.7739
色佛南無	-11.774
諸佛解脫	-11.7741
大自在	-11.7743
次問	-11.7743
故淨名	-11.7744
太虗	-11.7746
正路	-11.7748
取彼	-11.775
即悟	-11.7751
持法	-11.7754
脩羅	-11.7754
安止	-11.7757
由愛	-11.776
俱通	-11.7761
一條	-11.7763
所未聞	-11.7764
分布	-11.7764
色欲	-11.7764
蓮華上	-11.7764
觀十二因緣	-11.7766
下二釋	-11.7766
具四德	-11.7769
縱使	-11.7769
答問	-11.777
博聞	-11.7774
物機	-11.7774
不離於	-11.7775
護正法	-11.7775
則可	-11.7775
煩惱生死	-11.7775
佛讚	-11.7778
觀行成就	-11.7778
報土	-11.7778
則唯	-11.7778
即通	-11.778
如師子王	-11.778
三頌	-11.7781
而不說	-11.7782
成其	-11.7782
資身	-11.7782
寶花	-11.7783
作事	-11.7784
即是解脫	-11.7784
䟦	-11.7785
成阿羅漢	-11.7786
心印	-11.7789
雖聞	-11.779
尚不見	-11.7791
行六波羅蜜	-11.7796
南無香	-11.7797
與記	-11.7797
在地獄	-11.7797
非今	-11.7797
位在	-11.7798
苦患	-11.7801
我今為汝	-11.7801
星宿劫	-11.7802
孝道	-11.7802
即智	-11.7803
無悔	-11.7805
所向	-11.7805
如師子	-11.7806
牒釋	-11.7807
更求	-11.7807
於無相	-11.7807
風之所殺害	-11.7809
故特	-11.7809
應如是知	-11.7809
有益	-11.781
諸種	-11.7811
普皆	-11.7813
九十一劫	-11.7813
匝	-11.7813
東方過	-11.7814
心動	-11.7814
彼亦	-11.7815
實叉	-11.7815
合之	-11.7816
不重	-11.7817
終至	-11.7818
火界	-11.7819
阿耨多羅三藐三菩提心	-11.7819
智聚	-11.782
圓極	-11.782
呵責有為	-11.782
為解說	-11.7822
大身	-11.7825
自有眾生樂觀如來	-11.7827
非此	-11.783
普眼菩薩	-11.783
一方	-11.7833
心自在	-11.7833
至到	-11.7834
證信	-11.7836
復有眾生	-11.7837
此飯	-11.7839
大乘教	-11.7839
一時佛在	-11.784
若眾生	-11.7842
即法性	-11.7842
機感	-11.7842
第一義者	-11.7842
雹	-11.7843
得寂靜	-11.7843
敘之	-11.7844
咨	-11.7845
繒綵	-11.7846
迅速	-11.7847
現法樂	-11.7847
城郭	-11.7849
如乾闥婆城	-11.7849
輿	-11.785
凌	-11.785
上勝	-11.785
是樂	-11.7851
馳散	-11.7852
法化	-11.7852
但從	-11.7852
喫	-11.7853
與天	-11.7854
得便	-11.7855
戟	-11.7855
空不空	-11.7856
懈廢	-11.7858
乞士	-11.7858
態	-11.7858
影略	-11.7859
却後	-11.786
卷第七	-11.786
鳥獸	-11.7863
若沙門	-11.7865
之座	-11.7865
成最正覺	-11.7865
先標	-11.7867
覺已	-11.7868
而獨	-11.7872
淨光	-11.7872
應得	-11.7873
種種色相	-11.7873
法炬	-11.7873
第十六	-11.7874
障難	-11.7877
前前	-11.7878
義立	-11.7878
于今	-11.7879
無常想	-11.788
如來南無大	-11.788
如轉輪王	-11.7881
將何	-11.7882
古師	-11.7882
日月光明	-11.7882
有通別	-11.7882
無所作	-11.7882
愚惑	-11.7882
智能	-11.7883
王聞	-11.7883
迷者	-11.7888
歸本	-11.7888
報得	-11.7889
等苦	-11.7889
於五欲	-11.789
將至	-11.7891
如文可知	-11.7891
亦言	-11.7892
覆蔽	-11.7893
眼所見	-11.7893
遍十方	-11.7894
聞此法	-11.7894
有為相	-11.7895
別解	-11.7896
寶物	-11.7897
不動行	-11.7897
當其	-11.7897
何獨	-11.7898
聖德	-11.7899
不貪著	-11.79
未起	-11.7901
瑕穢	-11.7903
天子天女	-11.7905
惡星	-11.7908
答之	-11.7908
無侍	-11.7908
由迷	-11.791
雖具	-11.791
美食	-11.7912
諸惑	-11.7912
雖能	-11.7913
有分	-11.7913
兩手	-11.7914
重言	-11.7915
與上	-11.7915
同聲	-11.7915
非有相	-11.7916
依理	-11.7917
說示	-11.7917
見地	-11.7919
於父母	-11.792
之惡	-11.7921
見諸眾生	-11.7923
山精	-11.7923
義推	-11.7923
彼計	-11.7925
平聲	-11.7928
語義	-11.7928
是無漏	-11.7929
類也	-11.7931
十方一切	-11.7933
下總結	-11.7933
辭也	-11.7934
無表	-11.7937
事法	-11.7937
德行	-11.7938
他國	-11.7941
深奧	-11.7943
斷集	-11.7944
亦唯	-11.7945
明師	-11.7949
菩薩摩訶薩復有四種	-11.7949
普賢章	-11.795
▁二正釋	-11.7951
平等無二	-11.7951
此類	-11.7953
無慚愧	-11.7953
汝及餘菩薩摩訶薩	-11.7954
幾何	-11.7955
擁	-11.7955
此亦如是	-11.7956
得無所畏	-11.7957
心之所	-11.7958
親光	-11.7958
大品云	-11.7959
種種幻相	-11.7959
成無上正真之道	-11.796
生愛樂	-11.7961
都無所	-11.7961
文有三	-11.7962
我人眾生壽者	-11.7963
聞知	-11.7964
終而復始	-11.7964
不懼	-11.7964
佛土淨	-11.7965
皆歡喜	-11.7967
以偈問曰	-11.7967
惡名	-11.7969
旬	-11.797
勝也	-11.7971
敬心	-11.7971
秘藏	-11.7971
水上	-11.7971
了一切法	-11.7972
聽是經	-11.7974
不可謂	-11.7974
動亂	-11.7976
佛體	-11.7976
諸土	-11.7977
占察	-11.7977
高遠	-11.7977
含容	-11.7978
當爾之時	-11.7978
啄	-11.7979
無有法	-11.7979
不定種性	-11.7979
六位	-11.7979
中第一	-11.798
波羅提木叉	-11.798
四中	-11.7981
界內界外	-11.7981
維耶離	-11.7982
南無勝	-11.7983
祠祀	-11.7983
前所說	-11.7983
隅	-11.7984
不勤	-11.7984
法非法	-11.7984
釆	-11.7984
假想	-11.7985
搖動	-11.7985
上文云	-11.7985
證明	-11.7986
炳然	-11.7987
蒼	-11.7988
方便淨	-11.7988
有學	-11.7989
非顛倒	-11.7989
聰慧	-11.7989
一理	-11.7989
列眾	-11.7989
喻說	-11.7989
置之	-11.7989
讚說	-11.7989
不勞	-11.799
無像	-11.7991
於法性	-11.7992
邊見	-11.7993
是故名	-11.7994
始於	-11.7994
隨物	-11.7994
樹提	-11.7994
若受	-11.7996
盧至	-11.7996
淨土因	-11.7997
何如	-11.7997
三苦	-11.7998
皆使	-11.7998
能悟	-11.8
又彼比丘	-11.8001
蒲	-11.8001
之華	-11.8001
轉滅	-11.8002
解脫相	-11.8005
枳	-11.8006
爾許	-11.8007
一多	-11.8008
守意	-11.8009
相應者	-11.801
夢中見	-11.801
若善男子善女人	-11.8011
不能染	-11.8011
斥之	-11.8012
分得	-11.8012
之餘	-11.8012
無倒	-11.8013
三難	-11.8014
寶手	-11.8015
寂也	-11.8016
四微	-11.8017
菩薩得此	-11.8017
注云云者	-11.8019
乃至老死	-11.8019
小果	-11.8019
妙玄	-11.802
彼林	-11.802
一定	-11.8021
上智	-11.8022
一切諸法亦復如是	-11.8026
能摧	-11.8027
無想天	-11.8027
決疑	-11.8027
欲去	-11.8028
竹林	-11.8029
其林	-11.803
有菩薩名	-11.8033
奉佛	-11.8034
猶如幻	-11.8034
盛滿	-11.8036
共同	-11.8036
禪門	-11.8037
悉不可得	-11.8037
之像	-11.8038
輕毀	-11.8038
巳具	-11.8038
名解脫	-11.8039
即於佛前	-11.8039
利他行	-11.8039
淨意	-11.8041
於是世尊	-11.8041
雜華	-11.8042
光明如來	-11.8042
是第三	-11.8044
覺他	-11.8046
身形	-11.8046
壅	-11.8047
化儀	-11.8047
來集會	-11.8048
云何奉持	-11.8048
寂止	-11.805
彼既	-11.8051
悟心	-11.8051
法力	-11.8051
親承	-11.8052
何故名	-11.8052
別求	-11.8055
明法身	-11.8056
不乎	-11.8057
何業	-11.8058
更說	-11.806
色聲香味觸法	-11.806
俱滅	-11.8063
人非人	-11.8064
菩提相	-11.8064
道滅	-11.8065
智燈	-11.8067
圓中	-11.8069
幾許	-11.8069
有八種	-11.8071
得滅度	-11.8072
□□□□□□	-11.8074
汝為	-11.8076
當離	-11.8078
道前	-11.8078
非止	-11.808
趣於	-11.8083
不請	-11.8083
諸長者子	-11.8084
成事	-11.8084
不緣	-11.8085
無垢光	-11.8085
所以云	-11.8085
麁惡	-11.8087
施之	-11.8088
斷諸煩惱	-11.809
肇公	-11.809
湏	-11.809
六根清淨	-11.8091
心垢	-11.8091
丸	-11.8091
難思議	-11.8092
上生經	-11.8095
諦聽諦聽善思念之	-11.8096
隨分	-11.8097
毗鉢舍那	-11.8097
火宅	-11.81
惡不善法	-11.81
飲之	-11.8101
正在	-11.8101
外道常不思議	-11.8101
皆用	-11.8102
有三乘	-11.8102
不可復	-11.8103
是即為寶	-11.8103
常所	-11.8106
螺髻	-11.8108
此因	-11.8108
覺自心現	-11.8109
般涅槃後	-11.811
之世	-11.811
識智	-11.8111
世尊復告	-11.8111
而乃	-11.8112
鬼王	-11.8113
窺	-11.8114
嚴菩	-11.8115
成唯識論	-11.8115
籌	-11.8116
苾芻眾	-11.8117
凍	-11.8117
幹	-11.8118
僧佉	-11.812
灌頂章句	-11.8121
劬勞	-11.8121
智慧佛	-11.8121
一體三寶	-11.8121
齧	-11.8121
誣	-11.8121
躍	-11.8121
料揀	-11.8122
腋	-11.8122
執此	-11.8122
近遠	-11.8123
比丘眾	-11.8124
破諸	-11.8124
而且	-11.8124
屏	-11.8125
此三摩地	-11.8125
佛世	-11.8125
十一品	-11.8125
膽	-11.8126
雀	-11.8127
呬	-11.8127
出水	-11.8127
為弟子	-11.8128
一切物	-11.8129
巳生	-11.8129
先修	-11.813
略不	-11.8132
無分	-11.8132
不可忍	-11.8132
不差	-11.8134
親里	-11.8136
便起	-11.8136
初地菩薩	-11.8137
精血	-11.8138
其修行者	-11.8138
罪障	-11.8139
光明威德	-11.814
勇佛	-11.814
無苦	-11.814
諸法無我	-11.8141
前文云	-11.8142
圓教菩薩	-11.8144
日光明	-11.8145
記別	-11.8145
借座	-11.8145
兩足尊	-11.8145
三轉	-11.8146
自己	-11.8148
車乘	-11.8149
信施	-11.8149
至果	-11.8149
云何為三	-11.8149
間斷	-11.8151
但有言說	-11.8152
呼為	-11.8153
法華文句	-11.8153
如實處	-11.8154
難量	-11.8154
孝行	-11.8154
婦人	-11.8155
不壞身	-11.8156
尸棄佛	-11.8158
無我義	-11.8158
如明鏡	-11.8158
天魔外道	-11.8158
百千萬億那由他	-11.8159
平等者	-11.8159
之疑	-11.816
天堂	-11.8161
三涅槃	-11.8161
漏無漏	-11.8162
集起	-11.8163
得意生身	-11.8163
殺之	-11.8164
於三寶	-11.8164
普能	-11.8165
佛形像	-11.8165
醜惡	-11.8168
若廣分別	-11.817
彌勒章	-11.817
大國	-11.8174
汝等當知	-11.8174
有其二	-11.8174
迴施	-11.8175
是為十	-11.8175
以用	-11.8176
種種性	-11.8177
會中有	-11.8178
直顯	-11.8179
下引證	-11.8179
堪為	-11.818
勝果	-11.818
光焰	-11.8181
受安樂	-11.8182
不想	-11.8182
其舍	-11.8182
無惑	-11.8183
為尊	-11.8183
所醉	-11.8184
展轉相生	-11.8185
諸國土	-11.8186
於三有	-11.8187
佛知見	-11.8187
二引證	-11.8188
無歸	-11.8189
說如是法	-11.819
非非想	-11.8192
天子又問	-11.8195
劫生死之罪	-11.8196
十三者	-11.8196
能降伏	-11.8197
幻術	-11.8199
我應	-11.8199
如日月	-11.82
同相	-11.8202
大菩提心	-11.8203
呵其	-11.8204
經首	-11.8204
初標示	-11.8206
咸共	-11.8207
後合	-11.8209
龍女	-11.8209
同生	-11.821
妙明	-11.8212
上言	-11.8212
山上	-11.8213
二正明	-11.8214
別論	-11.8217
還至	-11.8218
果樹	-11.8218
如實智	-11.8219
悉由	-11.8219
眾星	-11.822
諸法門	-11.822
空如來藏	-11.822
從坐起	-11.8222
樹上	-11.8223
唐譯作	-11.8223
火聚	-11.8224
能聞	-11.8225
止於	-11.8227
根原	-11.8227
功德天	-11.8229
圓具	-11.823
當勤修學	-11.823
異異	-11.8234
髻佛	-11.8234
所制	-11.8235
有如是過	-11.8236
圓攝	-11.8237
大捨	-11.8237
正述	-11.8237
常想	-11.8238
此有故彼有	-11.8238
觀中道	-11.8238
有為緣集	-11.824
有無二邊	-11.8241
生念	-11.8241
有斯	-11.8241
刼一切諸佛諸	-11.8241
汝今諦聽當為汝說	-11.8242
阿羅呵	-11.8242
程	-11.8244
謂此菩薩	-11.8244
廓	-11.8246
南無梵	-11.8246
時方	-11.8246
所作功德	-11.8246
聚佛南無	-11.8247
大福	-11.8247
淨飯王	-11.8248
則妄想	-11.8248
世間所有	-11.8249
粟	-11.8249
面目	-11.825
從因生	-11.8251
循環	-11.8251
比丘比丘尼	-11.8252
豈知	-11.8254
菩薩不爾	-11.8254
以觀	-11.8254
墮三惡道	-11.8255
嚮	-11.8255
微玅	-11.8255
天冠	-11.8256
而解	-11.8256
爐	-11.8257
淨智	-11.8257
煩惱即菩提	-11.8258
圓覺自性	-11.8259
長者維摩詰	-11.8261
復名	-11.8261
此後	-11.8261
完具	-11.8261
智慧觀察	-11.8261
回向	-11.8263
大光明藏	-11.8263
一依	-11.8264
佛所初發道心	-11.8264
陰等	-11.8264
當得阿耨多羅三藐三菩提	-11.8265
危厄	-11.8266
綠	-11.8266
有盡	-11.8266
冠菩	-11.8267
姦	-11.8268
斯經典	-11.8268
無有窮盡	-11.8269
竅	-11.8269
理本	-11.827
善業熟	-11.827
鑄	-11.827
如夢所見	-11.8271
偃	-11.8273
栗	-11.8274
為序	-11.8275
覺菩	-11.8278
訶責	-11.8279
死墮	-11.828
不久當	-11.828
於圓覺	-11.828
還得	-11.828
華蓋	-11.8281
隨生	-11.8282
計著相續	-11.8285
隨意所	-11.8285
開覺	-11.8287
塔寺	-11.8287
▁南无無憂	-11.8291
清淨佛南無	-11.8291
盡形	-11.8292
於父	-11.8292
所興	-11.8294
真解脫	-11.8294
生如是心	-11.8294
所說之法	-11.8295
而實無	-11.8295
可入	-11.8295
梵住	-11.8296
唐言	-11.8296
被燒	-11.8297
乃曰	-11.8298
去佛南無	-11.83
聚會	-11.83
常存	-11.8301
法式	-11.8302
縱有	-11.8303
教呵	-11.8303
成唯識云	-11.8304
所作事	-11.8304
繫著	-11.8305
戒品	-11.8307
若施	-11.8307
於佛所	-11.8307
我巳	-11.8308
右脇	-11.831
故唯	-11.831
菩薩修行	-11.8311
力菩	-11.8311
及諸天	-11.8312
其慧	-11.8313
種種幻化	-11.8313
由其	-11.8314
嚧	-11.8314
訛也	-11.8317
數者	-11.8318
即受	-11.8318
於定	-11.8321
照見	-11.8322
一就	-11.8322
燒身	-11.8327
戒也	-11.8328
正觀察	-11.8331
此經者	-11.8333
▁後結	-11.8334
佛地經	-11.8335
現在未來	-11.8335
諸法無性	-11.8336
之定	-11.8336
無價	-11.8337
入覺	-11.8338
是故汝等	-11.8338
百福	-11.8339
三大乘	-11.8343
迴向菩提	-11.8343
無少	-11.8344
攝取眾生	-11.8344
愛子	-11.8346
南無尊	-11.8349
詠	-11.8349
欣然	-11.8351
隨根	-11.8353
悉來	-11.8354
生喜	-11.8354
在因	-11.8356
事障	-11.8357
具在	-11.8359
歌頌	-11.8359
正憶念	-11.8359
亦二	-11.836
以論	-11.8361
令彼眾生	-11.8362
莊嚴菩	-11.8362
自惟	-11.8363
因緣而生	-11.8363
無顛倒	-11.8364
生歡喜心	-11.8366
佛壽	-11.8366
真天眼	-11.8366
慧解脫	-11.8366
此等皆	-11.8367
大患	-11.8368
口言	-11.8368
諸天及	-11.8369
諸愚夫	-11.837
羣生	-11.8371
覆蓋	-11.8371
乃至涅槃	-11.8372
緣起法	-11.8373
其要	-11.8374
圓教明	-11.8374
韋	-11.8374
之所生	-11.8376
若諸菩薩以寂滅力	-11.8377
為問	-11.8378
澄清	-11.8383
可惡	-11.8383
合說	-11.8384
憎惡	-11.8387
由無明	-11.8387
因緣所生	-11.8387
如實觀察	-11.8387
狂亂	-11.839
邪執	-11.839
行於非道	-11.8391
歷劫	-11.8392
毗舍	-11.8393
多病	-11.8394
眾所知識	-11.8394
佛以一音演說法	-11.8395
王舍大城	-11.8395
所乘	-11.8396
換	-11.8397
果滿	-11.8397
總答	-11.8397
對破	-11.8398
延促	-11.8398
親疎	-11.8399
供事	-11.84
羅大將	-11.8401
多作	-11.8402
喘息	-11.8402
單修	-11.8402
復有四法	-11.8403
四輩弟子	-11.8403
真際	-11.8403
巾	-11.8403
六十億	-11.8404
摸	-11.8404
數千	-11.8404
不即不離	-11.8405
貢上其佛	-11.8405
十二分教	-11.8405
無智慧	-11.8405
具一切智	-11.8405
即其事也	-11.8405
是假名	-11.8406
斷之	-11.8406
優波	-11.8407
受天快樂	-11.8408
法界眾生	-11.841
合故	-11.841
初總釋	-11.841
盲冥	-11.841
今意	-11.841
庸	-11.841
靜慧	-11.841
阿修羅軍	-11.8412
銜	-11.8412
▁南无名稱	-11.8413
賓主	-11.8413
當於何求	-11.8414
得最上	-11.8414
第六意識	-11.8416
織	-11.8416
當用	-11.8416
栽	-11.8416
法本無	-11.8418
不漏	-11.8418
七支	-11.8419
令諸菩薩	-11.8422
全性	-11.8422
云爾	-11.8424
快說	-11.8424
第一義悉檀	-11.8426
如來功德	-11.8426
外相	-11.8426
三無為	-11.8428
外化	-11.8429
其所以	-11.8429
道非道	-11.843
閻浮提內	-11.8431
色想	-11.8433
如法華經	-11.8434
順正理	-11.8434
至竟	-11.8434
色無色	-11.8436
永斷無明	-11.8436
真如法	-11.8437
此之二	-11.8437
經律	-11.8438
流泉	-11.8438
欲斷	-11.8438
此下第二	-11.8439
親證	-11.844
如畫	-11.8441
滅正受	-11.8441
正言	-11.8442
後五	-11.8443
合集	-11.8444
而興	-11.8444
如法修行	-11.8444
南無無垢	-11.8444
發動	-11.8444
殊不知	-11.8444
華嚴經云	-11.8445
名句文身	-11.8448
善集	-11.8449
炎佛南無	-11.8449
無來	-11.8449
佛地論云	-11.8451
地獄苦	-11.8452
令身	-11.8453
自娛樂	-11.8453
自餘	-11.8454
種現	-11.8455
恭敬禮拜	-11.8457
是為五	-11.8458
華莊嚴	-11.846
意言	-11.846
香山	-11.846
大菩	-11.8463
引論	-11.8463
不與取	-11.8463
禮記	-11.8465
諸法平等	-11.8466
空無相	-11.8466
十使	-11.8467
我在	-11.8468
淨者	-11.8469
於人中	-11.847
寂滅一心	-11.8471
無動搖	-11.8472
所譯	-11.8472
此界	-11.8474
無二故	-11.8475
首佛	-11.8475
讚歎品	-11.8476
破邪	-11.8477
獄中	-11.8478
道後	-11.8478
最清淨	-11.8479
如是等種種	-11.8479
輔相	-11.848
有三句	-11.8481
諸惡業	-11.8481
悉除	-11.8482
四辯	-11.8484
美惡	-11.8485
義門	-11.8485
根量	-11.8485
佛告諸比丘	-11.8486
前言	-11.8487
入無餘涅槃	-11.8488
得自覺聖智	-11.8489
聞法故	-11.8491
又舍利弗	-11.8491
業生	-11.8492
非分	-11.8495
罪故	-11.8495
無動如來	-11.8496
秋時	-11.8498
此之謂也	-11.8498
從法	-11.8499
何得言	-11.8501
弗沙佛	-11.8503
常現	-11.8506
二歎	-11.851
地上菩薩	-11.8511
世間諸法	-11.8512
了也	-11.8513
之端	-11.8513
可觀	-11.8513
以譬擬法	-11.8514
簡非	-11.8516
清水	-11.8516
心心法	-11.8518
無德	-11.8518
度脫一切	-11.8518
之因也	-11.8519
親愛	-11.852
十數	-11.852
德鎧	-11.8522
牒上	-11.8523
即法作譬	-11.8525
初中後	-11.8526
初敘意	-11.8526
三界中	-11.8527
▁南无世	-11.8527
分科	-11.8528
半頌	-11.8532
若諸菩薩以變化力	-11.8532
樂說辯才	-11.8533
三位	-11.8533
八句	-11.8534
後乃	-11.8534
安在	-11.8534
一氣	-11.8535
見塵	-11.8537
鉤鏁	-11.8537
得不起法忍	-11.8538
理事無礙	-11.8539
八相成道	-11.854
▁初總標	-11.854
能知之	-11.854
新發意	-11.8543
不可窮盡	-11.8543
身出	-11.8543
稠林	-11.8543
岐	-11.8545
是謂無行	-11.8545
手中	-11.8546
誤也	-11.8546
牟修樓陀	-11.8546
槌	-11.8546
虹	-11.8547
在我	-11.8547
突	-11.8548
非無相	-11.8548
僮僕	-11.8548
五百歲	-11.8548
綿	-11.8548
諸處	-11.855
修淨土	-11.855
利益一切眾生	-11.8551
七名	-11.8551
墮有無見	-11.8552
發揮	-11.8553
七匝	-11.8554
何等為八	-11.8555
無有盡	-11.8556
彈指	-11.8557
飡	-11.8557
俯	-11.8558
雙亡	-11.8558
持心	-11.8558
韋陀	-11.8558
各三	-11.8559
下隨釋	-11.8559
悉現	-11.856
善惡業報	-11.856
今將	-11.8561
三三昧	-11.8563
神通自在	-11.8564
竹園	-11.8565
寶炎	-11.8565
七住	-11.8566
和同	-11.8567
例之	-11.8567
次有一行	-11.8568
破戒比丘	-11.8568
能信解	-11.8569
復欲	-11.857
了之	-11.857
自地	-11.8571
頓斷	-11.8574
自念言	-11.8574
外道亦說	-11.8574
光明勝	-11.8576
亦依	-11.8577
得聞此	-11.8578
寶髻	-11.858
立一切法	-11.8581
現土	-11.8582
備足	-11.8583
事事	-11.8583
真出家	-11.8584
戲笑	-11.8584
隨方	-11.8585
無根	-11.8585
之明	-11.8586
靈山	-11.8587
無變異	-11.8587
中央	-11.8587
寶心	-11.8588
於是中	-11.8591
胎中	-11.8591
風力	-11.8592
義耳	-11.8593
不休	-11.8595
說此偈已	-11.8596
之根本	-11.8597
應作是念	-11.8597
既聞	-11.8599
光明普照	-11.8599
勃	-11.86
身語	-11.86
相菩	-11.86
云何為二	-11.8602
入于	-11.8602
之道也	-11.8603
形體	-11.8603
此山	-11.8608
廣示	-11.8609
入圓覺	-11.8609
於己	-11.8611
約四教	-11.8612
如瑜伽	-11.8613
前段	-11.8615
見中道	-11.8616
同心	-11.8618
今聞	-11.8621
轉輪	-11.8624
即發	-11.8625
本無有	-11.8625
非頓	-11.8626
光色	-11.8626
無功	-11.863
家業	-11.863
今當說	-11.8631
不著於	-11.8631
於中道	-11.8632
乃謂	-11.8633
所不能及	-11.8633
既至	-11.8633
亦墮	-11.8633
用四悉檀	-11.8633
能示	-11.8635
初分	-11.8635
入處	-11.8637
滅巳	-11.8638
無損	-11.8638
適意	-11.8642
何得有	-11.8642
老病	-11.8643
理體	-11.8644
現化	-11.8644
內緣	-11.8648
非愛	-11.865
死魔	-11.865
現報	-11.865
依持	-11.8652
為人說	-11.8653
權現	-11.8656
莊嚴王佛	-11.8657
在彼地獄	-11.8659
光耀	-11.866
餘事	-11.8663
諸婆羅門	-11.8666
諸品	-11.8667
勝因	-11.8669
身識	-11.8669
樂具	-11.867
知一切眾生	-11.8672
於小	-11.8673
字義	-11.8674
結歸	-11.8674
計著妄想	-11.8675
復宗	-11.8675
藥師琉璃光如來	-11.8677
離生住滅見	-11.8678
偈讚	-11.8678
彼佛世尊	-11.8678
富伽羅	-11.8678
而度脫之	-11.8678
為礙	-11.868
本質	-11.868
一切法門	-11.868
不惟	-11.8681
行六度	-11.8683
恒河沙數	-11.8683
板	-11.8683
無行空	-11.8684
若達	-11.8684
日佛南無	-11.8684
相謂言	-11.8684
退坐一面	-11.8684
不共法	-11.8685
楔	-11.8686
觀一念心	-11.8686
挺	-11.8686
▁二隨釋	-11.8687
得生天上	-11.8687
無始時來	-11.8687
不出不入	-11.8688
行苦	-11.8688
不親	-11.8688
惶	-11.8688
徧滿法界	-11.8688
臆	-11.8689
此就	-11.869
弦	-11.8691
那庾多	-11.8691
昌	-11.8692
諸梵	-11.8693
迦陵頻伽	-11.8693
熏修	-11.8693
初總明	-11.8694
諸天女眾	-11.8694
大水	-11.8694
蝕	-11.8696
慼	-11.8696
剃除鬚髮	-11.8697
荷澤	-11.8697
畢竟清淨	-11.8697
量也	-11.8697
鮮潔	-11.8699
風住在身中	-11.8701
矛	-11.8701
為二一	-11.8703
罽賓	-11.8703
四如意足	-11.8703
之光	-11.8704
錦	-11.8704
有性無性	-11.8704
闊	-11.8705
之解	-11.8705
惛	-11.8705
墳	-11.8705
今雖	-11.8705
皆如幻	-11.8706
方盡	-11.8706
奢摩他毗鉢舍那	-11.8706
緣境	-11.8707
軟語	-11.8708
社	-11.8708
以之為	-11.8709
高顯	-11.8709
五十三	-11.8711
是精進	-11.8711
明不二	-11.8711
多饒	-11.8713
釘	-11.8714
菩薩行品	-11.8715
諮受	-11.8715
菩提薩埵	-11.8718
三類	-11.872
舍衛國	-11.872
如是比	-11.872
妄計有	-11.872
理同	-11.8721
七處	-11.8723
有五百	-11.8724
肇公云	-11.8724
不開	-11.8725
與菩薩	-11.8727
乃見	-11.8727
八行	-11.8729
師友	-11.8734
大慧問	-11.8735
後漢	-11.8736
莊嚴世界	-11.8737
大方廣圓覺	-11.8737
一切智者	-11.8739
可忍	-11.8739
種種不實	-11.874
秘密藏	-11.8741
無盡功德	-11.8742
覩其	-11.8744
衰損	-11.8745
所演	-11.8746
結益	-11.8747
智用	-11.8749
唯有一	-11.8752
等種種	-11.8753
自陳	-11.8753
後來	-11.8755
生悔	-11.8757
謂外道	-11.8757
彼惑亂	-11.8758
性體	-11.8758
隨所應	-11.8758
如是無量	-11.8759
以例	-11.876
汝所	-11.8761
舍利弗白佛言	-11.8761
之氣	-11.8761
未發心	-11.8764
趣涅槃	-11.8764
無我我所	-11.8764
云何世尊	-11.8764
正同	-11.8765
若分別	-11.8767
壞時	-11.8767
禮事	-11.877
學問	-11.8771
無吾我	-11.8772
之分	-11.8772
聞不聞	-11.8774
琰魔	-11.8776
皆出	-11.8778
甚深微妙	-11.8778
迷心	-11.8778
以由	-11.878
知義	-11.878
而退	-11.8781
八十四	-11.8781
此樹	-11.8782
妙吉祥言	-11.8783
歷然	-11.8785
大龍王	-11.8785
自性妄想	-11.8786
梵釋	-11.8786
其類	-11.8792
母名	-11.8792
無不具足	-11.8793
令成	-11.8795
成佛果	-11.8796
阿含經	-11.8796
無上正真	-11.8797
聖旨	-11.88
殷	-11.8801
性不壞	-11.8801
義不成	-11.8801
水波	-11.8802
身子問	-11.8802
二答二	-11.8803
自見身	-11.8803
變似	-11.8803
癡惑	-11.8805
何因有	-11.8806
厭捨	-11.8806
自燒	-11.8808
能觀察	-11.881
得自覺聖智善樂	-11.881
即事	-11.8811
師說	-11.8811
此是第三	-11.8815
全在	-11.8817
以為其	-11.8819
釋名者	-11.8819
棃	-11.882
出觀	-11.882
聖智境界	-11.8823
妄現	-11.8823
必能	-11.8826
必至	-11.8828
缾	-11.8829
菩薩有四法	-11.8829
散心	-11.883
念已	-11.883
鄣	-11.8831
示教利喜	-11.8831
悟修	-11.8832
赤白	-11.8833
道力	-11.8835
若有善男子善女人	-11.8835
質多	-11.8836
相不可得	-11.8836
令使	-11.8837
隻	-11.8837
幻垢	-11.8837
岳	-11.8838
善清淨慧	-11.8838
加之	-11.8838
前進	-11.8839
迴向阿耨多羅三藐三菩提	-11.8839
枝末	-11.884
阿素洛	-11.8841
忿怒	-11.8842
勝藏	-11.8842
九法	-11.8842
是謂有行	-11.8843
苦難	-11.8843
爽	-11.8844
人中上	-11.8845
藤	-11.8845
蹤	-11.8846
七日七夜	-11.8847
東西南北	-11.8847
而建立	-11.8849
陋	-11.8849
炷	-11.8849
波羅奈	-11.8849
踞	-11.885
風所吹	-11.885
拭	-11.885
說名為病	-11.8851
不污	-11.8854
唯是一心	-11.8856
阻	-11.8856
不平等	-11.8857
甘美	-11.8857
論語	-11.8857
見此事已	-11.8858
著樂	-11.8859
妹	-11.886
閉塞	-11.8861
沈沒	-11.8865
慎莫	-11.8866
遊觀	-11.8867
有念	-11.8867
內心思惟	-11.887
善語義	-11.887
獨行	-11.887
文理	-11.8873
於現在	-11.8874
聞彼佛名	-11.8875
持戒者	-11.8875
無所求	-11.8878
諸宗	-11.8882
樂果	-11.8883
信力	-11.8883
思擇	-11.8883
婆羅門言	-11.8884
一切有為法	-11.8886
何言	-11.8888
等取	-11.8888
而不得	-11.8888
法服	-11.8889
檀度	-11.889
羅婆	-11.889
變起	-11.8891
必然	-11.8892
新學菩薩	-11.8896
自性差別	-11.8896
為欲利益	-11.8897
嚴好	-11.8897
縛著	-11.8899
五藏	-11.8904
成男子	-11.8904
懺法	-11.8906
▁南无降伏	-11.8906
斷三界	-11.8906
離諸過	-11.8908
斯義	-11.8909
大體	-11.8911
何以不	-11.8913
深妙法	-11.8916
障蔽	-11.8916
以慈	-11.8916
一切諸天	-11.8917
不約	-11.8919
惟其	-11.892
方見	-11.8921
緣念	-11.8924
立義	-11.8924
為母	-11.8925
觀無常	-11.8927
化事	-11.8927
皆現	-11.8928
微妙經典	-11.8928
諸佛說法	-11.8932
▁二別	-11.8933
妄習	-11.8934
縱令	-11.8936
不生無常	-11.8936
佛為說	-11.8939
風病	-11.894
世俗諦	-11.8941
受天樂	-11.8942
一百五十	-11.8942
漢書	-11.8943
不可作	-11.8943
又修行者	-11.8945
之味	-11.8945
照空	-11.8945
復有無量	-11.8945
現神通	-11.8947
乎此	-11.8948
除障	-11.8948
本來清淨	-11.8951
無體相	-11.8952
喜佛	-11.8954
略為	-11.8954
生驚怖	-11.8955
尊者舍利弗	-11.8956
退時	-11.8957
已竟	-11.8959
與眷屬	-11.896
與水	-11.896
」】「	-11.896
阿黎耶識	-11.8962
萬由旬	-11.8962
淨名經	-11.8962
摧滅	-11.8965
名句形身	-11.8965
徃	-11.8965
來詣	-11.8967
分攝	-11.8968
梁論	-11.8969
因緣力故	-11.897
陁羅	-11.897
不能測	-11.8971
多求	-11.8971
三種解脫	-11.8971
皆隨	-11.8972
普覺菩薩	-11.8972
輕躁	-11.8973
佛之知覺	-11.8974
其根	-11.8975
利智	-11.8975
始本	-11.8976
引經證	-11.8977
教勅	-11.8977
腐	-11.8978
無穢	-11.8979
竝是	-11.898
唯願為說	-11.898
三世佛	-11.8981
南無彌留	-11.8981
百種	-11.8981
不如飯一	-11.8983
無生相	-11.8983
如是功德	-11.8984
中初言	-11.8985
十方三世	-11.8986
未圓	-11.8987
七世	-11.8988
遽	-11.8988
自樂	-11.8988
石蜜	-11.8988
不損	-11.8989
善調伏	-11.8989
止行	-11.8989
能正了知	-11.8989
今正是時	-11.899
百日	-11.899
銖	-11.899
執藏	-11.899
山河大地	-11.8992
大事	-11.8993
空無相願	-11.8993
如是無量百千年歲	-11.8994
隨滅	-11.8994
無上覺	-11.8995
椎	-11.8996
撫	-11.8998
識種	-11.8998
松	-11.8999
信位	-11.9
莊飾	-11.9
胃	-11.9001
無量劫來	-11.9001
善學	-11.9001
効	-11.9003
衍門	-11.9003
髑髏	-11.9003
禽	-11.9004
乾城	-11.9005
爾雅云	-11.9006
天王牟修樓陀	-11.9007
遏	-11.9008
藥王如來	-11.9009
非真非有	-11.9009
無量種種	-11.901
從三昧起	-11.9011
慘	-11.9011
而便	-11.9012
莊嚴佛土	-11.9014
抂	-11.9014
如琉璃	-11.9014
三衣	-11.9014
賢劫千佛	-11.9014
語其	-11.9015
若更	-11.9015
朗然	-11.9017
拘留孫佛	-11.9018
困苦	-11.9018
見佛身	-11.9018
力佛南無	-11.9021
無命	-11.9022
立法	-11.9022
微少	-11.9023
其口	-11.9024
同住	-11.9024
枝條	-11.9024
擊鼓	-11.9027
佛語阿難	-11.9028
直下	-11.9028
三辨	-11.9028
不更	-11.9029
息念	-11.9029
生人天	-11.9031
六天	-11.9032
紺青	-11.9033
第三時	-11.9033
▁南无照	-11.9033
增上果	-11.9035
上王佛	-11.9035
當成	-11.9036
對佛	-11.9036
顯義	-11.9039
持呪	-11.9039
報法	-11.904
破煩惱	-11.9041
於一一	-11.9043
二章	-11.9045
不見佛	-11.9046
三行半	-11.9047
眼耳	-11.9049
人執	-11.9049
法寶者	-11.9049
我今當說	-11.9051
除幻	-11.9053
之化	-11.9056
面佛南無	-11.9056
學習	-11.9057
所觀境	-11.9058
不捨離	-11.9058
鼻識	-11.9058
毘耶	-11.9061
不可極	-11.9061
在虛空中	-11.9061
不飲酒	-11.9063
出纏	-11.9064
來處	-11.9066
俱來	-11.9066
一切智心	-11.9067
遮惡	-11.9067
中道第一義諦	-11.9068
害人	-11.9068
自在王菩	-11.9069
聖智事	-11.907
初文者	-11.907
生貪	-11.9071
聲王佛南無	-11.9072
非情	-11.9073
相無相	-11.9074
不知何	-11.9078
以正法	-11.908
仁王經	-11.908
壞敗	-11.9081
六麤	-11.9081
釋義二	-11.9084
此第四	-11.9085
唐作	-11.9086
達多	-11.9086
此業	-11.9087
大教	-11.9088
生兜率天	-11.9091
三支	-11.9092
廣答	-11.9092
七十五	-11.9093
於此處	-11.9093
生於人中	-11.9093
龍尊	-11.9093
舍中	-11.9094
未來世中	-11.9094
世尊而說偈言	-11.9095
大迦葉言	-11.9097
著相	-11.9099
死王	-11.9101
讚曰	-11.9101
翻名	-11.9106
何等為七	-11.9106
▁南无堅固	-11.9106
攝入	-11.9108
變動	-11.9108
所緣緣	-11.9108
離攀緣	-11.9108
其城	-11.911
具足功德	-11.911
我先	-11.9113
當依	-11.9114
即如來藏	-11.9115
大千界	-11.9117
見菩	-11.9117
功力	-11.9118
同於兔角	-11.9118
虗假	-11.9118
分教	-11.9118
如大品	-11.912
彼復問言	-11.912
總顯	-11.912
南無上	-11.9124
乾闥婆城	-11.9126
橫豎	-11.9127
覩佛	-11.9127
七句	-11.9128
不可言說	-11.9129
五相	-11.913
不有不無	-11.913
唯心識觀	-11.9136
如來南無普	-11.9136
授阿耨多羅三藐三菩提記	-11.9137
伎術	-11.9138
墓	-11.914
坐於道場	-11.9141
觀察覺	-11.9141
翹	-11.9141
浮雲	-11.9143
如是見已	-11.9144
金光明最勝王經	-11.9146
臻	-11.9147
五六	-11.9149
憒	-11.9149
諸大菩薩摩訶薩	-11.9151
修供養	-11.9151
卑賤	-11.9152
碧	-11.9152
一切智慧	-11.9152
侵奪	-11.9153
日月星宿	-11.9153
彈指頃	-11.9153
直云	-11.9154
毀辱	-11.9155
非想非非想處	-11.9155
樂求	-11.9156
交徹	-11.9157
風殺	-11.9157
波斯匿王	-11.9157
五百世	-11.9158
傅	-11.9158
施作佛事	-11.9159
徧法界	-11.9159
如其次第	-11.916
雌	-11.916
一食	-11.9161
釋迦佛	-11.9161
相師	-11.9162
勤修習	-11.9162
嫁	-11.9163
眾集	-11.9164
貪惜	-11.9164
應觀	-11.9164
無毀	-11.9167
鬚髮	-11.9167
金色光	-11.9169
限量	-11.9169
曳	-11.917
也經云	-11.917
常坐	-11.9171
▁南无最勝	-11.9172
入不二門	-11.9173
問我言	-11.9174
生淨信	-11.9174
顯然	-11.9174
垣	-11.9175
照物	-11.9176
乳母	-11.9177
出城	-11.9178
追求	-11.9178
無角	-11.918
亦多	-11.918
報佛恩	-11.9181
既具	-11.9182
性清淨	-11.9183
國城	-11.9184
自下第四	-11.9184
法華經云	-11.9191
無亂	-11.9192
修心	-11.9193
灰斷	-11.9193
是垢	-11.9194
一蓋	-11.9194
有非有	-11.9196
而般涅槃	-11.9197
受諸苦	-11.9198
與無量	-11.9199
如來藏中	-11.92
唯除如來	-11.92
身心相	-11.9202
邪魔	-11.9202
善眼	-11.9203
鬼畜	-11.9207
正破	-11.9208
悲喜	-11.9208
慧根	-11.9209
▁三釋	-11.9209
外道邪	-11.9211
近於	-11.9216
古德	-11.9217
分部	-11.9219
當墮地獄	-11.9219
▁南无威德	-11.922
鼓音	-11.9223
有所見	-11.9226
懺悔品	-11.9227
由來	-11.9227
勸學	-11.9228
雙明	-11.9228
淨土因果	-11.9228
九百	-11.9229
六日	-11.9231
整衣服	-11.9232
四辨	-11.9233
能生一切	-11.9233
心所行	-11.9239
十六日	-11.9244
四大和合	-11.9244
如來南無智	-11.9244
方等經	-11.9245
百萬億	-11.9247
莊嚴王佛南無	-11.9247
四支	-11.9247
聞法功德	-11.9248
諸念	-11.9251
不思議熏	-11.9251
種種業	-11.9254
受大苦	-11.9257
皆除	-11.9257
自食	-11.9257
前起後	-11.9263
煩惱道	-11.9265
內身證	-11.9266
十二億	-11.9269
慈母	-11.9271
五位	-11.9272
尚可	-11.9273
赤銅	-11.9274
不知其	-11.9275
萬劫	-11.9275
後段	-11.9276
生大歡喜	-11.9277
悲號	-11.9278
有三意	-11.928
故名菩薩	-11.928
當求	-11.928
功德山	-11.9281
復思惟	-11.9282
我證彼定得不還果	-11.9282
如來於此而起大悲	-11.9283
唯是心	-11.9287
云何為五	-11.9288
人死	-11.929
▁初別	-11.929
十人	-11.9291
而興大悲心	-11.9291
思覺	-11.9291
臨濟	-11.9292
如是等罪無量無邊	-11.9293
本業	-11.9294
屈曲	-11.9295
恁麼	-11.9296
涉有	-11.9297
無量甚深法性	-11.9297
聖心	-11.9297
種生	-11.9297
未出	-11.9298
判為	-11.93
不逮	-11.93
生死流轉	-11.9301
以明中道	-11.9301
從外	-11.9302
成德	-11.9302
龍宮	-11.9304
諸說不同	-11.9305
搜	-11.9305
妙喜世界	-11.9305
之所以也	-11.9306
宣示	-11.9306
得道者	-11.9307
次一句	-11.9307
措	-11.9307
低頭	-11.9308
誼	-11.9308
阿練若	-11.9309
百分不及一	-11.9311
蝶	-11.9311
復有劫中	-11.9311
福寧為多不	-11.9311
見是事已	-11.9313
僕	-11.9314
自心現境界	-11.9314
善法堂	-11.9314
表示	-11.9316
鹹	-11.9316
穆	-11.9318
誠實	-11.932
若行者	-11.932
聖境界	-11.932
取我	-11.9321
生滅相	-11.9321
今悉懺悔	-11.9321
不齊	-11.9322
化益	-11.9322
我依	-11.9322
初標章	-11.9322
為貴	-11.9323
二種神力	-11.9326
認我	-11.9326
佛在世時	-11.9326
無恚	-11.9326
得罪	-11.9327
種種計著	-11.9328
是虗妄	-11.9329
眾生心行	-11.9329
十八不共	-11.933
廣長舌	-11.9331
為何所作	-11.9332
蒸	-11.9332
凝然	-11.9335
其樹	-11.9336
行菩薩道時	-11.9337
未來現在	-11.9337
寶冠	-11.9337
如是等無量無邊	-11.9337
安隱快樂	-11.9339
出於世	-11.934
果智	-11.934
如是所說	-11.9341
無礙解	-11.9342
就座	-11.9343
能縛	-11.9343
仁義	-11.9345
妙藥	-11.9346
地次第相續	-11.9347
善師	-11.9348
法門也	-11.9349
無所發菩薩	-11.935
妄立	-11.9351
不能入	-11.9353
熾火	-11.9354
而行乞食	-11.9356
十乘	-11.9356
且說	-11.9356
不可破壞	-11.9356
下第四	-11.9358
西天	-11.9359
其山	-11.936
靜室	-11.936
得安	-11.936
一問答	-11.9362
力勢	-11.9363
大梵天	-11.9364
形量	-11.9365
正精進	-11.9365
無差別相	-11.9366
造諸惡業	-11.9366
求食	-11.9367
心無所著	-11.9368
他力	-11.9368
妙高	-11.937
所重	-11.937
雖斷	-11.937
況餘	-11.937
三十四心	-11.9372
我弟子	-11.9373
經所說	-11.9375
悉清淨	-11.9375
生疑惑	-11.9378
財法	-11.9379
菩薩發心	-11.938
曇摩	-11.9382
中諦	-11.9383
惡習	-11.9384
波利	-11.9385
易可	-11.9385
如舍利弗	-11.9385
了諸法	-11.9386
我說是	-11.9388
世親釋	-11.9388
陰蓋	-11.9389
絕於	-11.9389
豈可以	-11.9389
一箇	-11.9391
非陰	-11.9392
出家功德	-11.9392
疑情	-11.9393
河水	-11.9394
一切法無我	-11.9394
德用	-11.9394
於三界中	-11.9395
是實有	-11.9396
非一非	-11.9396
文有四	-11.9399
心平等	-11.94
諸地相	-11.94
次前	-11.9402
四等心	-11.9405
損惱	-11.9408
五百弟子	-11.9409
為己	-11.9409
顛倒心	-11.9412
師教	-11.9414
著衣	-11.9415
減少	-11.9417
乘此	-11.9418
中亦有	-11.9419
故亦名	-11.9419
名句文	-11.9421
一百八十	-11.9422
展轉因	-11.9422
觀五陰	-11.9423
窟中	-11.9423
光明菩	-11.9423
修慈	-11.9424
學法	-11.9425
初長文	-11.9428
定判	-11.9428
後句	-11.9432
寶蓮花	-11.9432
一切佛剎	-11.9434
雖明	-11.9439
非種	-11.9439
菩薩僧	-11.9441
而諸眾生	-11.9443
生妄想	-11.9446
色非色	-11.9446
四十一	-11.9446
不煩	-11.9447
科共成	-11.9448
異法	-11.9449
俟	-11.9449
如來於此	-11.945
罪性	-11.9451
身心轉變	-11.9452
銷文	-11.9452
溪	-11.9452
彼愚夫	-11.9452
毗耶離	-11.9453
艱	-11.9453
跋陀婆羅	-11.9453
敬信	-11.9454
覔	-11.9454
濕性	-11.9454
自活	-11.9457
無能所	-11.9458
必假	-11.9458
文字性離	-11.9458
世尊欲重宣此義而說偈言	-11.9459
預流	-11.9459
聲聞緣覺菩薩	-11.946
八萬四千由旬	-11.9461
不和合	-11.9461
如來藏識藏	-11.9461
尼揵	-11.9462
獲福	-11.9462
來向	-11.9463
胞	-11.9463
朔	-11.9463
衣裳	-11.9463
由妄想	-11.9464
通指	-11.9464
三垢	-11.9464
不可轉	-11.9465
別約	-11.9465
化用	-11.9465
蓋由	-11.9466
無性攝論	-11.9467
擯	-11.9467
羸劣	-11.9467
族姓女	-11.9468
憚	-11.9468
什麼	-11.9468
造種種業	-11.9469
沃	-11.9469
陰入界	-11.9469
無盡藏	-11.947
赦	-11.947
次第相續	-11.9471
相符	-11.9471
有無見	-11.9472
姊妹	-11.9473
頓現	-11.9473
熏成種	-11.9474
所攝受	-11.9474
大集經	-11.9474
如是行者	-11.9474
於物	-11.9474
羅睺阿修羅王	-11.9475
淨修梵行	-11.9475
菜	-11.9477
此翻為	-11.9478
誥	-11.9478
厨	-11.9478
劈	-11.9479
大雨	-11.9479
三十九	-11.9479
是即寶	-11.9479
惡果	-11.948
修智	-11.948
拍	-11.9481
又從	-11.9482
下四句	-11.9483
修行者隨順觀外身	-11.9484
非擇滅	-11.9484
還依	-11.9484
至尊	-11.9486
八千菩薩	-11.9486
假設	-11.9486
操	-11.9487
在別卷	-11.9488
佛南無降伏	-11.9489
求大乘者	-11.9489
不能分別	-11.9489
九部	-11.949
第一義也	-11.949
聖性	-11.9493
其香	-11.9494
已下明	-11.9495
智箋	-11.9497
何殊	-11.9497
洞然	-11.9498
翼從	-11.9499
第二段	-11.9499
一標行	-11.9501
頭痛	-11.9502
述歎	-11.9504
龍主	-11.9504
無異相	-11.9504
諸法性相	-11.9505
有漏法	-11.9505
柯	-11.9506
善達	-11.9507
斷見思	-11.9507
取境	-11.9507
雙標	-11.9507
內空	-11.9509
能遮	-11.951
普覆	-11.9512
普濟	-11.9512
修六度	-11.9514
俱轉	-11.9514
五月	-11.9515
為何所	-11.9516
饒益一切眾生	-11.9518
顯示世尊	-11.9518
神識	-11.9519
真言	-11.9521
可有	-11.9521
金剛山	-11.9522
是水	-11.9522
辟支佛乘	-11.9522
謙下	-11.9523
墮有無	-11.9523
無暇	-11.9524
無明業識	-11.9525
外道妄想	-11.9526
流散	-11.9528
柳	-11.9529
其功	-11.953
違失	-11.953
曾於	-11.953
獨存	-11.9531
怨結	-11.9533
棄之	-11.9535
伏忍	-11.9535
之所能知	-11.9535
徵問	-11.9535
入禪	-11.9538
汝等應當	-11.9539
此世	-11.954
初中三	-11.9542
不可定	-11.9542
慈哀	-11.9543
迷理	-11.9544
香潔	-11.9545
四明云	-11.9545
真宴坐	-11.9546
約位	-11.955
聖見	-11.955
例知	-11.955
四住地	-11.9551
總名為	-11.9551
所宣	-11.9551
凡有三	-11.9552
運心	-11.9552
疑問	-11.9553
心口	-11.9554
汝欲	-11.9555
音王佛	-11.9558
說一切法不生	-11.9558
如我所	-11.956
所奉	-11.956
當來世	-11.9561
見自心	-11.9562
姓也	-11.9564
三卷	-11.9564
卷第二十	-11.9565
大段第二	-11.9568
漸增	-11.957
▁南无普照	-11.9571
復有異處名	-11.9573
多用	-11.9573
一滴	-11.9577
不昧	-11.9577
於百千劫	-11.9579
法華疏	-11.9582
有大威德	-11.9583
此屬	-11.9584
恒河沙劫	-11.9585
皆蒙	-11.9588
我是眾生	-11.9589
諸罪人	-11.959
復由	-11.959
楞伽云	-11.9591
惡露	-11.9591
當往	-11.9593
寶衣	-11.9594
初段	-11.9594
無智者	-11.9597
作功德	-11.96
神用	-11.9601
偏舉	-11.9601
甚深義	-11.9603
譯如是我聞	-11.9604
德相	-11.9604
汝等乃能為諸菩薩及末世眾生	-11.9605
加於	-11.9606
更受	-11.9607
能作所作	-11.9608
人情	-11.9611
異二乘	-11.9611
不厭足	-11.9611
等輩	-11.9611
刊	-11.9612
住止	-11.9614
蟲已	-11.9615
六月	-11.9615
▁二正	-11.9615
棘	-11.9615
無壞無雜	-11.9615
隨形	-11.9615
結釋	-11.9616
誕	-11.9616
不來相而來	-11.9616
此指	-11.9617
無明愛業	-11.9619
夙	-11.962
魄	-11.962
耨	-11.962
貶	-11.9622
金剛藏菩薩摩訶薩	-11.9622
因聞	-11.9623
集業	-11.9623
入山	-11.9624
七萬	-11.9624
常與無常	-11.9625
牆	-11.9625
隨眾生心	-11.9625
耗	-11.9626
餘九	-11.9626
癩	-11.9626
祝	-11.9626
皮膚	-11.9627
▁南无断	-11.9628
屋宅	-11.9628
梯	-11.9628
堅執	-11.9629
阿惟越致	-11.963
雷震	-11.9631
奉獻	-11.9632
退墮	-11.9633
無咎	-11.9633
裸形	-11.9634
薩婆多宗	-11.9636
仲	-11.9636
賦	-11.9636
三種意生身	-11.9637
顧戀	-11.9637
五性差別	-11.9638
觀視	-11.9639
聲色	-11.9639
村落	-11.964
皆得解脫	-11.964
興發	-11.9642
。】【△	-11.9642
內懷	-11.9643
我法中	-11.9643
孩	-11.9643
諸佛境界	-11.9643
非水	-11.9643
一切障	-11.9643
即華嚴	-11.9644
智性	-11.9645
埿	-11.9645
能所取	-11.9646
錠	-11.9648
餘乘	-11.9648
不得脫	-11.9648
無知者	-11.965
分別境界	-11.9651
翻云	-11.9651
印度	-11.9651
不釋	-11.9651
▁南无那羅延	-11.9651
護持正法	-11.9654
法界常住	-11.9655
胎生	-11.9657
變作	-11.9658
智輪	-11.9661
無說無示	-11.9662
因緣所生法	-11.9662
利有情	-11.9662
難易	-11.9663
空種	-11.9664
階差	-11.9665
未到	-11.9665
五行半	-11.9667
有十事	-11.9669
過量	-11.967
猶屬	-11.9672
當墮	-11.9672
十義	-11.9673
念食	-11.9674
我等亦	-11.9674
承事供養	-11.9674
能消	-11.9676
欲染	-11.9677
所示	-11.9679
第一卷	-11.9679
性命	-11.9681
面像	-11.9681
自心量	-11.9682
無有邊際	-11.9683
猶可	-11.9683
百川	-11.9684
三藏云	-11.9685
唯識云	-11.9686
顯淨名	-11.9688
得作佛	-11.9688
顯法身	-11.9689
畢竟不可得	-11.9691
悉具足	-11.9692
十方國土	-11.9694
能動	-11.9696
故名如來	-11.9698
今現在說法	-11.9698
更作	-11.9698
先示	-11.9699
華相	-11.9699
同凡	-11.97
兩段	-11.9701
而行布施	-11.9704
起信云	-11.9704
大乘菩薩	-11.9704
始末	-11.9705
俱不可得	-11.9713
未覺	-11.9715
欲取	-11.9715
知宿命	-11.9717
頌半	-11.9719
緣會	-11.972
譬如虗空	-11.9721
無瑕	-11.9723
契合	-11.9723
城門	-11.9725
增上慢者	-11.9725
後代	-11.9725
七段	-11.9727
妨難	-11.9727
心亂	-11.9728
▁二引	-11.9728
和集	-11.9729
亦不滅	-11.9731
長行云	-11.9736
父母恩	-11.9736
天竺三藏	-11.9737
正習	-11.9741
四種四諦	-11.9742
緣彼	-11.9747
七覺意	-11.9748
曷為	-11.9748
無前後	-11.9751
天台云	-11.9751
火焚	-11.9752
更起	-11.9752
增上力	-11.9753
緣塵	-11.9753
外空	-11.9754
必獲	-11.9754
如來淨除一切眾生自心現流	-11.9755
多約	-11.9755
許說	-11.9756
諸正士	-11.9758
漸淨非頓	-11.9758
攀緣如禪	-11.9759
便可	-11.9759
塗身	-11.9759
互具	-11.9759
散失	-11.976
小乘人	-11.976
彈訶	-11.9761
明徹	-11.9763
願滿	-11.9763
因妄想	-11.9763
捨一切善根	-11.9764
常勤	-11.9765
小人	-11.9765
妄想自性計著	-11.9767
等無差別	-11.9767
豈容	-11.9768
了法	-11.9768
至法華	-11.977
導成	-11.977
內自	-11.9771
無所緣	-11.9771
諸位	-11.9773
▁後辨	-11.9773
中陰有	-11.9774
阿㝹	-11.9774
頭面著地	-11.9774
眾生心中所念	-11.9775
讐	-11.9775
得無上菩提	-11.9775
所以道	-11.9776
南無光	-11.9776
從理	-11.9776
瑞相	-11.9777
今謂不然	-11.9777
品說	-11.978
噉食	-11.9781
廓然	-11.9782
晃耀	-11.9782
故名為大	-11.9782
䭾	-11.9782
運載	-11.9783
二述不堪之由	-11.9784
諸門	-11.9784
開出	-11.9785
格箋	-11.9786
開示悟入	-11.9787
何足	-11.9787
怕	-11.9787
二隨文釋義	-11.9787
群萌	-11.9787
爰	-11.9787
今即第一	-11.9787
初四句	-11.9788
長劫	-11.9788
若於前世過去久遠	-11.9788
摘	-11.9788
進求	-11.9789
告曰	-11.9789
晝夜六時	-11.9789
無常苦空	-11.9789
四弘誓願	-11.979
饍	-11.979
十方人	-11.9791
凡夫人	-11.9791
屎尿	-11.9791
結文	-11.9792
力王佛	-11.9792
濡	-11.9792
莫令	-11.9793
孤山云	-11.9793
汝等四王	-11.9794
所住之處	-11.9795
跳	-11.9795
乃至愛善業盡	-11.9796
三萬	-11.9796
先王	-11.9796
隨順正法觀察法行	-11.9797
祇陀	-11.9797
護身	-11.9797
未發	-11.9798
眾疑	-11.9798
級	-11.9799
猶如空華	-11.9799
不相捨離	-11.9799
牛跡	-11.9799
百千種	-11.98
二簡	-11.98
饌	-11.9801
與色	-11.9802
亦有二	-11.9803
恐是	-11.9804
六欲天	-11.9806
淨諸業障菩薩	-11.9807
即除	-11.9807
結斥	-11.9807
午	-11.9808
深坑	-11.9809
其數無量	-11.9809
圓理	-11.9811
章門	-11.9811
跋陀	-11.9811
爛壞	-11.9812
鉢囉	-11.9812
下半	-11.9812
惡龍	-11.9814
例然	-11.9814
文為二初正釋	-11.9814
愁苦	-11.9815
智光明	-11.9815
法界次第	-11.9815
百里	-11.9817
阿蘭若處	-11.9818
慧光	-11.9822
斯言	-11.9823
感果	-11.9823
水泡	-11.9823
今品	-11.9825
無我性	-11.9825
風動	-11.9825
千人	-11.9825
了境	-11.9826
餘眾	-11.9827
性自性空	-11.9827
焰光	-11.983
老母	-11.9831
所尊	-11.9831
二譯	-11.9833
吼聲	-11.9834
假中	-11.9834
下次釋	-11.9835
大智論云	-11.9835
則不成	-11.9839
厭苦	-11.9841
覆其上	-11.9841
文殊師利曰	-11.9842
!「	-11.9843
肺病	-11.9843
諸佛法身	-11.9844
序中	-11.9845
敷具	-11.9846
即為二	-11.9847
如之何	-11.9848
捨家	-11.9849
發起序	-11.9851
其力	-11.9855
入法界	-11.9855
今據	-11.9857
八萬四千人	-11.9858
圓音	-11.986
四維	-11.9861
義例	-11.9862
本性空寂	-11.9863
心鏡	-11.9867
之路	-11.9867
閑靜	-11.9868
從是得	-11.9872
蘊中	-11.9873
空過	-11.9874
持來	-11.9876
其頭	-11.9876
法華涅槃	-11.9879
作善業	-11.988
斯皆	-11.988
心病	-11.988
互顯	-11.9882
邊事	-11.9882
月如來南無	-11.9882
發現	-11.9882
如來南無師子	-11.9883
善哉大慧	-11.9884
分量	-11.9885
木石	-11.9885
深解	-11.9886
明佛南無	-11.9887
故文云	-11.9888
變滅	-11.9889
劣應	-11.989
脩證	-11.9896
云何而得	-11.9897
所歎	-11.9899
苦厄	-11.9902
菩薩所修	-11.9902
無所歸	-11.9906
密語	-11.9907
亂想	-11.9907
孰能	-11.991
剎中	-11.991
藥師瑠璃光如來	-11.9912
無量阿僧祇劫	-11.9914
三藏教明	-11.9915
雙結	-11.9915
不思議境	-11.9916
不望	-11.9916
讚佛品	-11.9918
緣氣	-11.9918
處胎	-11.992
便宜	-11.9921
位次	-11.9921
不顯示第一義	-11.9923
菩薩復白佛言	-11.9923
不遷	-11.9924
當捨	-11.9925
證阿羅漢	-11.9925
法性宗	-11.9925
我及餘菩薩摩訶薩	-11.9926
十二分	-11.9927
無色定	-11.9927
篤	-11.9929
庫曹官姓	-11.993
剃	-11.993
小道	-11.9931
無始虛偽	-11.9931
下一行	-11.9931
可比	-11.9932
能覺了	-11.9933
則易	-11.9933
樹提伽	-11.9935
退還	-11.9935
亦不在	-11.9935
第一明	-11.9935
如是三請終而復始	-11.9937
初簡	-11.9938
富饒	-11.9939
愍哀	-11.994
合上	-11.9941
猶如大海	-11.9942
轉大法輪	-11.9946
具足莊嚴	-11.9946
志意	-11.9946
拂迹	-11.9949
修大乘	-11.995
眾邪	-11.9951
鞭	-11.9951
燿	-11.9951
淨水	-11.9952
如來應正等覺	-11.9953
月氏	-11.9953
安處徒眾	-11.9953
體上	-11.9955
滅惡生善	-11.9955
恢	-11.9956
奮	-11.9957
應如是學	-11.9957
嗟歎	-11.9958
葱	-11.9958
大目乾連	-11.9958
臨欲	-11.9958
砂	-11.9958
鎧佛	-11.996
頻婆娑羅王	-11.996
亦不作念	-11.9961
持諷誦念	-11.9961
揣	-11.9962
正請	-11.9963
四百四病	-11.9964
生於天中	-11.9965
升進	-11.9966
恕	-11.9969
號叫	-11.9969
萬端	-11.9969
地前菩薩	-11.9969
伊字	-11.997
不起法忍	-11.9971
分別之心	-11.9971
無別有	-11.9972
十方菩薩	-11.9972
是報身	-11.9972
腎	-11.9972
故唐譯云	-11.9973
受稱	-11.9974
指歸	-11.9974
猫	-11.9975
變怪	-11.9976
法塵	-11.9977
不可稱量	-11.9978
蟒	-11.9978
如珠	-11.9978
無性釋云	-11.9978
悔恨	-11.9979
所受用	-11.9979
尊法	-11.998
一界	-11.998
水中月	-11.9984
具戒	-11.9985
亦不作是念	-11.9985
少年	-11.9986
善分別自心現	-11.9986
遮那	-11.9986
百穀	-11.9986
次半頌	-11.9986
受學	-11.9987
二勸	-11.9988
劫奪	-11.9989
勝益	-11.999
不隨他	-11.9992
普應	-11.9993
發大願	-11.9994
寶冥	-11.9996
智慧光明	-11.9996
悕求	-11.9997
方便門	-11.9998
廣解	-12
造罪	-12
賢善首菩薩	-12
俱盡	-12
福力	-12.0001
無實事	-12.0002
四大天王	-12.0002
隨他	-12.0002
清明	-12.0003
悅佛	-12.0003
能破壞	-12.0005
現形	-12.0005
理教	-12.0008
□□□□□□□□□	-12.0008
一法界	-12.0008
香水	-12.0008
會坐	-12.0009
善不善業	-12.0009
諸聖者	-12.0011
不能救	-12.0012
為善知識	-12.0017
如上所	-12.002
)【	-12.0021
轉轉	-12.0023
染欲	-12.0025
千倍	-12.0026
來聽法	-12.0026
會歸	-12.0026
穢濁	-12.0026
離所作	-12.0028
今解	-12.0028
論主	-12.0028
天趣	-12.0029
諸大乘經	-12.0031
生死流	-12.0034
五度	-12.0036
入聚落	-12.0037
不倦	-12.0038
最正覺	-12.0038
無所礙	-12.0038
次第說	-12.0039
名目	-12.0042
若在家	-12.0047
諸根具足	-12.0048
數法	-12.005
難調	-12.005
患厭	-12.0052
畜生道	-12.0052
使令	-12.0053
往往	-12.0054
復次善男子	-12.0055
汝等比丘	-12.0056
說般若	-12.0057
南無堅	-12.0057
出胎	-12.0058
王舍	-12.0058
出世間智	-12.0058
未分	-12.0059
餘地	-12.0062
故大論云	-12.0066
讀之	-12.0067
科釋	-12.0067
八萬歲	-12.0071
苦切	-12.0073
非一異	-12.0074
九十九	-12.0076
說此偈	-12.0078
大數	-12.0079
無高下	-12.008
壽盡	-12.0081
淨土行	-12.0081
之理也	-12.0084
入無餘	-12.0084
互有	-12.0085
諸臣	-12.0086
六親	-12.0086
連持	-12.0087
世界悉檀	-12.0087
虗無	-12.009
色香味觸	-12.0091
輕微	-12.0094
可知矣	-12.0094
圓覺菩薩	-12.0094
形質	-12.0097
純一	-12.0097
行忍辱	-12.01
决定	-12.0102
虗幻	-12.0102
會上	-12.0103
有佛國土	-12.0104
攝所攝計著	-12.0104
一切天人	-12.0105
轉識成智	-12.0106
第十七	-12.0106
經字	-12.0107
此罪	-12.0107
勝鬘經	-12.0108
無所復	-12.0108
最第一	-12.0108
施具足	-12.0109
不同凡夫	-12.0109
天住	-12.0111
無言無說	-12.0111
有生有滅	-12.0111
眾圍繞	-12.0113
行於非道通達佛道	-12.0113
止此室	-12.0113
永嘉云	-12.0113
身財	-12.0113
却坐一面	-12.0115
承佛神力	-12.0115
略言	-12.0115
毘毘產	-12.0116
膳	-12.0117
而起大悲	-12.0118
豈異人乎	-12.0119
甚多甚多	-12.012
身毛孔	-12.012
八道	-12.012
麁獷	-12.012
始自	-12.0122
而不能知	-12.0122
晃	-12.0123
善報	-12.0123
六親眷屬	-12.0124
不鼓自鳴	-12.0124
攝受計著	-12.0127
而不見	-12.0128
是為忍辱不可極	-12.0129
不廢	-12.013
荊棘	-12.013
齊此	-12.0131
交絡	-12.0131
肉髻	-12.0131
以彰	-12.0131
左手	-12.0132
筋脈	-12.0132
吟	-12.0132
請觀音	-12.0133
與諸眷屬	-12.0136
戮	-12.0136
託疾	-12.0136
觀心釋	-12.0137
賈	-12.0138
緯	-12.0138
染愛	-12.0139
瞋癡	-12.0139
悋惜	-12.014
如汝所言	-12.014
提舍	-12.014
斷惡	-12.014
飜	-12.0142
罷	-12.0143
萬里	-12.0143
亭	-12.0144
白光	-12.0145
無癡	-12.0145
如幻如化	-12.0146
陸地	-12.0148
哲	-12.0148
青赤	-12.0148
賢劫中	-12.0149
能害	-12.015
怨憎	-12.0151
聞佛名	-12.0152
雲雨	-12.0153
融即	-12.0155
修圓覺者	-12.0155
四趣	-12.0156
真如實際	-12.0158
法清淨瓔珞	-12.0159
前中有二	-12.0159
金剛心	-12.0159
與拔	-12.0159
優曇鉢	-12.016
論語云	-12.0161
計執	-12.0162
通約	-12.0163
世間智	-12.0163
猶如幻化	-12.0169
雙樹	-12.0169
勸捨	-12.0172
自投	-12.0172
修諸善	-12.0173
第一義相	-12.0173
焰燃	-12.0174
辛苦	-12.0174
少惱	-12.0175
敵對	-12.0177
兩間	-12.0177
威德自在菩薩	-12.0178
遍計所執相	-12.0179
豈以	-12.0179
伏斷	-12.018
法無我智	-12.0182
內識	-12.0183
得阿羅漢果	-12.0185
久修	-12.0188
一切怖畏	-12.0189
欝單越人	-12.0195
不覺自心現量	-12.0195
觀自在菩薩	-12.0195
一番	-12.0196
夜夢	-12.0196
一切法亦如是	-12.0197
顯益	-12.0197
卷第八	-12.0198
寶嚴	-12.0198
聖智三相	-12.0199
一切佛土	-12.0199
以慈心	-12.02
標數	-12.0203
法身常住	-12.0204
阿修羅等	-12.0207
自在王如來	-12.0207
其眼	-12.0208
應捨離	-12.0208
六度萬行	-12.0209
高聲	-12.021
是地獄人	-12.0213
和合而有	-12.0214
其味	-12.0214
自護	-12.0215
年歲	-12.0217
華梵	-12.0218
亦各	-12.0219
甚善	-12.0221
姝	-12.0223
手指	-12.0223
善宿	-12.0226
根器	-12.0226
略有二種	-12.0227
無堅	-12.0227
顯實	-12.0229
無瑕穢	-12.0229
一毫	-12.023
六字	-12.023
年月	-12.0231
聲王佛	-12.0234
實有自性	-12.0234
於放逸	-12.0235
卵生	-12.0235
一室	-12.0236
月菩	-12.0236
佛說如是	-12.0237
五十一	-12.0237
內外諸法	-12.0238
吼聲佛南無	-12.0238
修禪那	-12.0238
一時佛	-12.024
問維摩詰	-12.024
五日	-12.024
之母	-12.024
證無生	-12.0241
自然生	-12.0241
故但云	-12.0241
偏小	-12.0242
受福	-12.0242
其舌	-12.0242
婆伽	-12.0243
生於天上	-12.0244
欲除	-12.0244
而生妄想	-12.0245
性地	-12.0248
應爾	-12.025
惡聲	-12.0251
可壞	-12.0252
梵音聲	-12.0252
故說名	-12.0256
高幢	-12.0256
又復問	-12.0257
甚深難	-12.0259
佛昔	-12.026
八日	-12.0262
▁初正明	-12.0263
空無生無二離自性相	-12.0265
怛薩阿竭署	-12.0265
含於	-12.0265
向彼	-12.0265
五十六	-12.0266
為他所	-12.0268
骨節	-12.0269
菩薩作是思惟	-12.0271
藏菩薩南無	-12.0274
名先修禪那	-12.0274
遣人	-12.0275
超諸	-12.0277
待緣	-12.0277
行十善	-12.0277
智慧方便	-12.0278
住不可思議解脫菩薩	-12.0279
作麼生	-12.0279
帀	-12.028
自覺覺他	-12.028
手捉	-12.0282
諸惡道	-12.0282
▁南无世閒	-12.0284
起精進	-12.0284
名為不二	-12.0284
完	-12.0285
偏袒右肩右膝著地	-12.0286
徧一切處	-12.0286
拘隣	-12.0286
四大洲	-12.0287
羅閱祇	-12.0289
阿闍梨	-12.0289
五十二	-12.0292
佛告觀自在菩薩曰	-12.0292
身觸	-12.0293
法華文句云	-12.0294
如來為上首	-12.0294
鳳	-12.0294
阿難白佛	-12.0295
月天子	-12.0295
一歲	-12.0295
含攝	-12.0295
纖毫	-12.0295
受諸快樂	-12.0296
示現種種	-12.0297
能為眾生	-12.0297
一切女人	-12.0297
鎻	-12.0297
旃延	-12.0298
儉	-12.0299
悴	-12.0299
楞	-12.0299
觀他	-12.0301
所問經	-12.0301
已度	-12.0302
佛時頌曰	-12.0302
▁南无普光	-12.0302
純淨	-12.0303
捧	-12.0304
幽冥	-12.0305
▁南无求那	-12.0305
受苦樂	-12.0305
真道	-12.0306
坦然	-12.0307
重重無盡	-12.0308
癡冥	-12.0309
頂受	-12.031
莫不歡喜	-12.0311
清潔	-12.0311
大目揵連	-12.0312
照境	-12.0312
善思童子	-12.0312
勝餘	-12.0313
雕	-12.0313
費	-12.0313
遐	-12.0313
種種諸法	-12.0316
妄生分別	-12.0316
息諸	-12.0316
別體	-12.0317
初地已上	-12.0317
佛南無愛	-12.0318
所歸趣	-12.0318
三劫	-12.0319
香味觸	-12.032
拈云	-12.032
邪惡	-12.0321
智度無極	-12.0323
可修	-12.0325
光遍照	-12.0328
於如來所	-12.0328
以己	-12.033
有一比丘	-12.0331
引導眾生	-12.0331
而作是念	-12.0331
亦異	-12.0332
舉聲	-12.0333
破散	-12.0334
寶塔	-12.0334
初發意	-12.0335
分段變易	-12.0335
聽之	-12.0337
復有幾種	-12.0337
夫子	-12.0339
亦使	-12.034
善語	-12.034
遍入	-12.0341
妄即真	-12.0342
忘情	-12.0343
八萬劫	-12.0345
若不出世	-12.0347
有二一	-12.0349
豈復	-12.0349
自證分	-12.0349
帝釋王	-12.0351
渴乏	-12.0351
說何等法	-12.0356
下歎	-12.0358
受旨	-12.0358
既得脫	-12.0358
世智	-12.036
願諸眾生	-12.0361
趣求	-12.0364
有所求	-12.0364
信相菩薩	-12.0365
無壽	-12.0365
初文復	-12.0366
▁薩	-12.0366
▁南无最上	-12.0367
十二種	-12.0367
一諦	-12.037
也就此	-12.0371
扶成	-12.0372
此句示	-12.0373
佛南無堅固	-12.0373
聞是語	-12.0374
如何得	-12.0375
自利行	-12.0376
文為五	-12.0376
諸使	-12.0379
慧命舍利弗	-12.0382
後報	-12.0383
涅槃生死	-12.0383
欲學	-12.0383
第二釋	-12.0385
七覺分	-12.0388
得阿羅漢道	-12.0388
三億	-12.0388
威德自在	-12.0392
八倒	-12.0392
慈念	-12.0393
無憎愛	-12.0395
威神力故	-12.0397
將去	-12.0398
次引	-12.0399
婆羅門等	-12.04
不可動	-12.0401
禪定智慧	-12.0403
優陀	-12.0405
阿鼻獄	-12.0405
法體相	-12.0406
更有餘	-12.0407
王領	-12.041
三祇	-12.0411
性自空	-12.0416
汝等當	-12.0416
說文云	-12.0418
賴耶識	-12.0418
滿字	-12.0419
自責	-12.0419
結會	-12.0423
可尋	-12.0424
唯願如來	-12.0425
乃至微塵	-12.0426
可往	-12.0426
九十八	-12.0427
甚奇	-12.0429
今為汝說	-12.043
通別二	-12.0432
謗毀	-12.0433
力強	-12.0434
攝化	-12.0436
得不退	-12.0437
如蠶作繭	-12.0437
頂髻	-12.0438
[...]
