<unk>	0
<s>	0
</s>	0
之	-4.37996
(	-4.5675
)	-4.57907
/	-4.92631
以	-5.26125
於	-5.42682
也	-5.5279
而	-5.55609
爲	-5.55791
有	-5.56618
者	-5.62594
一	-5.63346
上	-5.66511
神	-5.73548
天	-5.73831
不	-5.73858
中	-5.77344
其	-5.90923
人	-5.93526
則	-5.93811
)(	-5.9467
符	-5.95783
生	-5.96352
大	-6.00794
行	-6.04341
下	-6.07641
三	-6.07765
無	-6.07835
如	-6.12982
道	-6.13937
某	-6.17762
自	-6.18255
心	-6.19607
日	-6.25415
法	-6.26661
臣	-6.27545
至	-6.29521
用	-6.3025
子	-6.30598
或	-6.33363
在	-6.3378
此	-6.34807
入	-6.36311
出	-6.37818
五	-6.40497
靈	-6.44115
明	-6.44351
令	-6.44778
眞	-6.4488
水	-6.46377
▁	-6.47069
得	-6.47535
時	-6.49512
身	-6.50973
與	-6.51119
九	-6.52911
二	-6.53195
見	-6.53204
文	-6.5425
所	-6.54563
名	-6.55554
玄	-6.5623
炁	-6.56255
君	-6.56339
四	-6.57211
若	-6.57742
經	-6.58048
曰	-6.58491
即	-6.59194
方	-6.60024
右	-6.61465
乃	-6.61831
内	-6.62026
書	-6.62661
存	-6.6335
地	-6.64231
及	-6.64688
當	-6.6532
皆	-6.66194
氣	-6.66796
元	-6.67302
同	-6.67447
真	-6.68129
後	-6.69259
火	-6.7063
合	-6.71944
成	-6.72153
又	-6.74277
言	-6.75262
山	-6.7566
宫	-6.75827
諸	-6.76958
事	-6.77085
非	-6.77297
玉	-6.77382
將	-6.77424
金	-6.77577
是	-6.77616
師	-6.78624
精	-6.8125
相	-6.81539
從	-6.81765
呪	-6.82711
主	-6.82772
通	-6.82825
風	-6.83856
仙	-6.84551
雲	-6.85728
來	-6.8581
故	-6.8591
取	-6.87003
命	-6.87543
王	-6.88152
先	-6.88375
作	-6.88869
使	-6.88961
字	-6.89758
受	-6.89777
應	-6.90022
正	-6.90082
形	-6.90092
可	-6.90393
次	-6.90752
化	-6.90796
前	-6.9136
立	-6.91662
太上	-6.9189
鬼	-6.91942
治	-6.94193
陽	-6.94474
我	-6.94948
分	-6.95126
念	-6.95465
降	-6.96697
七	-6.9694
八	-6.97533
光	-6.97602
六	-6.98076
飛	-6.9813
矣	-6.98351
今	-6.98959
亦	-6.99043
章	-7.00584
星	-7.0067
度	-7.01601
召	-7.02067
起	-7.02786
常	-7.03737
去	-7.04121
開	-7.04279
攝	-7.04928
雷	-7.04953
運	-7.04968
凡	-7.05119
各	-7.06057
帝	-7.06373
月	-7.06813
長	-7.07083
白	-7.07134
未	-7.07412
清	-7.09747
安	-7.10859
發	-7.10972
左	-7.11843
使者	-7.13326
能	-7.13513
龍	-7.13992
欲	-7.14088
門	-7.1694
外	-7.17066
居	-7.17162
服	-7.17313
流	-7.17407
黄	-7.18224
訣	-7.18405
九天	-7.18721
知	-7.19204
青	-7.19621
云	-7.20316
過	-7.20932
上清	-7.20994
重	-7.21529
傳	-7.21548
不得	-7.2178
處	-7.22377
空	-7.22433
无	-7.22815
華	-7.22963
已	-7.23427
多	-7.23499
等	-7.23769
吾	-7.24756
卷	-7.2513
復	-7.25884
萬	-7.25892
請	-7.26453
定	-7.26453
丹	-7.26511
天地	-7.26757
死	-7.27389
年	-7.27598
十	-7.27889
巳	-7.2809
和	-7.28697
結	-7.29381
壇	-7.2984
本	-7.29892
歸	-7.30558
善	-7.31064
乎	-7.31106
解	-7.31306
畢	-7.31322
散	-7.32279
隨	-7.32355
聞	-7.3271
景	-7.32804
病	-7.32878
食	-7.33037
物	-7.33113
頭	-7.33681
然	-7.34773
並	-7.34881
公	-7.35854
官	-7.35994
聖	-7.36554
自然	-7.36794
天尊	-7.38149
數	-7.38592
妙	-7.39983
盡	-7.40373
眞人	-7.40481
世	-7.41374
寳	-7.41504
口	-7.42304
雨	-7.42495
陰	-7.42998
石	-7.43137
司	-7.43152
德	-7.43625
不可	-7.43866
求	-7.44147
洞	-7.44407
邪	-7.44801
印	-7.45531
香	-7.45582
便	-7.45622
府	-7.45681
虚	-7.46068
因	-7.46426
品	-7.46451
願	-7.47008
告	-7.47127
難	-7.47148
何	-7.47385
家	-7.47586
還	-7.48593
體	-7.48886
惡	-7.49912
隂	-7.50023
奏	-7.50653
斗	-7.51029
關	-7.51105
衆	-7.51232
位	-7.51837
必	-7.51924
修	-7.52233
意	-7.52352
小	-7.52408
信	-7.52431
滅	-7.52541
觀	-7.52559
奉	-7.52672
目	-7.53054
都	-7.53143
除	-7.53448
向	-7.5357
紫	-7.53928
魂	-7.54534
變	-7.54565
太一	-7.54578
罪	-7.54648
東	-7.54699
土	-7.54781
加	-7.55307
動	-7.55518
木	-7.55691
朝	-7.55914
急	-7.56245
為	-7.56265
離	-7.56324
致	-7.56478
高	-7.5666
遂	-7.56781
坐	-7.57023
赤	-7.57091
録	-7.57256
功	-7.5738
圖	-7.57578
張	-7.58487
更	-7.58697
一切	-7.60054
之中	-7.60324
布	-7.60348
耳	-7.60539
焉	-7.61005
福	-7.61415
收	-7.61619
將軍	-7.62171
□	-7.62329
雖	-7.6239
色	-7.62723
蓋	-7.62757
始	-7.62903
于	-7.63144
保	-7.63471
衣	-7.6354
教	-7.6379
根	-7.64128
俱	-7.64184
南	-7.6452
止	-7.646
理	-7.6467
速	-7.6488
思	-7.65102
號	-7.65705
齋	-7.65904
深	-7.65984
申	-7.66157
伏	-7.66755
遊	-7.66925
具	-7.67079
守	-7.67158
玉清	-7.67162
疾	-7.6729
絶	-7.67323
却	-7.67326
平	-7.67811
真人	-7.68035
再	-7.68061
西	-7.68154
北	-7.68273
執	-7.68317
幽	-7.68371
素	-7.68455
交	-7.68536
初	-7.69413
實	-7.69446
女	-7.69569
宜	-7.6969
姓	-7.69924
極	-7.70261
照	-7.7107
宣	-7.71244
列	-7.71322
籙	-7.71547
微	-7.7168
依	-7.71783
陳	-7.71825
儀	-7.72242
狀	-7.72374
敕	-7.72627
節	-7.72685
夫	-7.73087
隱	-7.73511
三界	-7.73795
仰	-7.7421
指	-7.74342
太	-7.74349
聲	-7.74612
宿	-7.74786
集	-7.74816
雷霆	-7.75096
要	-7.75721
帝君	-7.76404
面	-7.76624
惟	-7.76734
但	-7.76986
不能	-7.77237
須	-7.77265
轉	-7.77436
失	-7.77506
大神	-7.77894
兩	-7.7821
日月	-7.78265
玉女	-7.78433
勑	-7.78737
周	-7.78896
引	-7.79209
破	-7.79331
馬	-7.79491
遇	-7.79649
說	-7.79729
莫	-7.79899
舉	-7.80154
禮	-7.80424
論	-7.80951
諱	-7.81003
鬼神	-7.81252
靈寳	-7.81463
十二	-7.81761
神仙	-7.82021
汝	-7.82027
百	-7.82062
著	-7.82066
朱	-7.8216
到	-7.82743
謂	-7.8277
持	-7.8299
授	-7.83041
進	-7.83281
直	-7.83301
少	-7.83352
眞君	-7.83464
問	-7.83584
永	-7.83617
對	-7.83646
廣	-7.83829
兵	-7.83922
黑	-7.83951
音	-7.84255
夜	-7.8431
謹	-7.84461
牒	-7.85124
威	-7.85151
之道	-7.85362
易	-7.85374
好	-7.85636
共	-7.85718
想	-7.85964
啓	-7.86496
性	-7.86667
藥	-7.86687
誦	-7.86959
回	-7.87117
/)(	-7.8717
十方	-7.87234
臨	-7.87541
煞	-7.87723
利	-7.88487
備	-7.88533
乾	-7.88755
元始	-7.88784
注	-7.88863
民	-7.89149
齊	-7.89543
乗	-7.89652
考	-7.89682
羅	-7.89709
首	-7.8971
簡	-7.89726
建	-7.89863
稱	-7.89996
震	-7.90458
足	-7.907
戒	-7.90834
息	-7.91229
會	-7.91766
禁	-7.92144
志	-7.92151
學	-7.92199
異	-7.92236
吉	-7.92378
旣	-7.92494
全	-7.92781
語	-7.92993
式	-7.93402
悉	-7.93614
千	-7.93615
宗	-7.93692
國	-7.93936
三元	-7.9447
呪曰	-7.94982
間	-7.95276
兆	-7.95499
北斗	-7.9599
藏	-7.96105
望	-7.9635
制	-7.96358
部	-7.97275
酒	-7.97497
手	-7.97541
樂	-7.97674
斷	-7.98088
登	-7.98235
興	-7.98349
情	-7.98479
乘	-7.98625
就	-7.99255
領	-7.99412
大道	-7.99622
辰	-7.99635
感	-7.99856
靜	-7.99942
積	-8.00009
誠	-8.00194
滿	-8.00503
順	-8.00531
室	-8.00935
冠	-8.01167
屬	-8.01308
髙	-8.01357
上帝	-8.0201
午	-8.02712
差	-8.02769
落	-8.03129
老	-8.03133
㑹	-8.03423
塵	-8.03628
林	-8.03725
逆	-8.04172
拜	-8.04205
五方	-8.04553
殺	-8.04606
左右	-8.04629
昇	-8.04792
終	-8.04832
消	-8.04893
星君	-8.05096
弟子	-8.05346
花	-8.05377
承	-8.05481
苦	-8.05533
親	-8.05535
象	-8.05582
毒	-8.0572
并	-8.06186
力	-8.0647
皇	-8.0672
燒	-8.06799
聽	-8.0691
别	-8.07208
勿	-8.07344
急急如	-8.07515
遣	-8.0761
亡	-8.07677
升	-8.07731
罡	-8.07781
吏	-8.0792
達	-8.07998
諸天	-8.0819
之炁	-8.08684
呼	-8.08687
謝	-8.08793
濟	-8.08814
咸	-8.08863
之法	-8.09112
記	-8.09439
崇	-8.09538
功曹	-8.09599
延	-8.09717
然後	-8.1029
養	-8.10496
顯	-8.10562
付	-8.10708
急急如律令	-8.10778
燈	-8.10822
被	-8.10942
五帝	-8.10972
魔	-8.11095
且	-8.11573
災	-8.12086
按	-8.12465
士	-8.12492
妄	-8.12586
由	-8.12785
帶	-8.12985
元帥	-8.12988
施	-8.13062
科	-8.13135
雷神	-8.13157
尊	-8.13183
筆	-8.13215
奉行	-8.13375
天下	-8.13381
御	-8.13472
犯	-8.13599
冥	-8.13912
太極	-8.1399
道士	-8.142
童子	-8.14239
甚	-8.14421
海	-8.14472
總	-8.14608
垂	-8.15045
獄	-8.1529
識	-8.15425
五嶽	-8.1597
堂	-8.16056
萬神	-8.16408
庭	-8.16591
甲	-8.16646
報	-8.16761
胎	-8.16878
律令	-8.16911
霹靂	-8.1721
掌	-8.17345
晨	-8.17509
篇	-8.1751
春	-8.17864
仍	-8.17954
造	-8.18089
爾	-8.18163
反	-8.18177
臺	-8.18564
先生	-8.18605
卯	-8.18724
既	-8.18849
切	-8.18891
車	-8.19162
義	-8.19181
放	-8.19222
祝	-8.19327
靈官	-8.19558
三天	-8.19572
駕	-8.19866
不知	-8.20009
封	-8.20219
酆都	-8.20274
路	-8.20585
覺	-8.20672
佩	-8.20735
了	-8.21163
劫	-8.21257
許	-8.21479
唵	-8.21483
普	-8.21493
長生	-8.21711
古	-8.2174
血	-8.21777
嚴	-8.22014
投	-8.22046
固	-8.22194
乞	-8.22683
母	-8.22695
末	-8.22834
而不	-8.22845
輪	-8.22919
法師	-8.23049
期	-8.23273
貴	-8.23299
虎	-8.23452
亂	-8.23511
神將	-8.23541
害	-8.2363
休	-8.23636
可以	-8.23879
傷	-8.23901
大將軍	-8.24051
鍊	-8.24207
恩	-8.24581
骨	-8.24599
穢	-8.24696
輕	-8.2515
鎮	-8.25242
獲	-8.25424
蒙	-8.2543
設	-8.25532
業	-8.25779
李	-8.26008
猶	-8.26032
寒	-8.2605
久	-8.26256
專	-8.26363
凝	-8.26653
詣	-8.26655
職	-8.26683
遠	-8.26886
違	-8.26891
坤	-8.27023
右符	-8.27247
淨	-8.27489
詞	-8.27554
誓	-8.27619
醮	-8.27999
五行	-8.28047
慶	-8.28144
報應	-8.2822
謂之	-8.28233
中有	-8.28353
容	-8.28555
内外	-8.28574
露	-8.28755
送	-8.28954
步	-8.29298
之上	-8.29591
一卷	-8.29724
曲	-8.29754
焚	-8.29818
隂陽	-8.29952
東方	-8.30101
浮	-8.30305
尚	-8.3044
禍	-8.30676
益	-8.30767
住	-8.30836
州	-8.30841
哉	-8.30975
三十六	-8.30984
凶	-8.3103
忘	-8.31127
獨	-8.31418
餘	-8.31563
北帝	-8.31689
所以	-8.31732
盟	-8.32138
新	-8.32307
妖	-8.32351
勝	-8.32666
昔	-8.32711
留	-8.32799
太清	-8.32823
如此	-8.33028
覆	-8.33226
徒	-8.33233
恐	-8.33268
視	-8.33317
累	-8.33368
聚	-8.33394
南方	-8.33665
果	-8.3368
房	-8.33754
五雷	-8.33801
辭	-8.33894
變化	-8.34116
遍	-8.34562
壽	-8.34838
退	-8.34978
每	-8.3518
劉	-8.35465
煙	-8.35575
侍	-8.35924
衛	-8.35985
近	-8.36009
縁	-8.36198
霞	-8.36315
瓊	-8.3638
祕	-8.36682
救	-8.36772
之後	-8.36898
悟	-8.37219
城	-8.37401
塗	-8.37545
陰陽	-8.37626
賜	-8.37628
坎	-8.37714
河	-8.37715
之時	-8.38096
曜	-8.3813
己	-8.38337
驅	-8.3843
表	-8.38527
祖	-8.38667
北方	-8.38952
金闕	-8.38966
慈	-8.39143
監	-8.3916
連	-8.39181
魄	-8.39383
太陽	-8.39561
鳴	-8.39874
役	-8.40185
敬	-8.40296
尋	-8.40316
質	-8.40373
歌	-8.40447
天罡	-8.40572
金光	-8.40609
彼	-8.41063
混	-8.41096
虛	-8.4129
忽	-8.4134
之所	-8.41489
境	-8.41588
置	-8.41663
大將	-8.41901
機	-8.41951
水火	-8.42474
返	-8.4253
斯	-8.42799
條	-8.42877
斬	-8.42931
錬	-8.42952
任	-8.43027
源	-8.43038
鐵	-8.43244
遷	-8.43275
驚	-8.43277
符命	-8.43305
只	-8.43368
祈	-8.43372
施行	-8.43544
廻	-8.43572
中央	-8.4371
紅	-8.43771
奔	-8.44052
神霄	-8.44382
宻	-8.44672
恭	-8.44716
輔	-8.44775
二十四	-8.44989
豈	-8.45112
巽	-8.45202
吐	-8.45306
寅	-8.45442
律	-8.45445
五色	-8.45534
半	-8.45652
契	-8.45881
遺	-8.46532
賢	-8.46585
歩	-8.46815
光明	-8.4682
候	-8.46908
吸	-8.47128
鎭	-8.47167
眼	-8.47277
追	-8.47595
唯	-8.47607
喜	-8.47622
似	-8.47648
迷	-8.47663
真君	-8.47713
草	-8.47839
昌	-8.47993
漢	-8.48088
將吏	-8.48106
負	-8.48107
詳	-8.48222
田	-8.4867
珠	-8.48691
英	-8.49002
履	-8.49141
閉	-8.49264
混合	-8.49317
俗	-8.49394
吒	-8.4964
秋	-8.49648
劒	-8.4977
示	-8.49818
澤	-8.49865
護	-8.4987
一日	-8.49871
籍	-8.50055
書符	-8.50123
種	-8.50211
具位	-8.50249
飲	-8.50339
披	-8.5042
超	-8.50429
羽	-8.50485
耀	-8.50934
江	-8.51031
招	-8.51039
驗	-8.51053
芝	-8.51128
一炁	-8.51168
代	-8.51176
格	-8.51314
現	-8.51442
行持	-8.5149
愈	-8.51528
玉帝	-8.51651
上元	-8.51663
童	-8.51719
背	-8.51895
干	-8.52252
待	-8.52292
原	-8.52317
天帝	-8.52557
證	-8.52675
第三	-8.52741
資	-8.52908
吹	-8.52989
緑	-8.53018
圓	-8.53067
看	-8.53218
雜	-8.53221
嘗	-8.53281
黃	-8.53285
捉	-8.5336
紀	-8.53508
津	-8.53579
萬物	-8.53644
他	-8.53787
暉	-8.54248
郷	-8.54313
夢	-8.54395
西方	-8.54508
司命	-8.54578
之精	-8.54667
泉	-8.54716
良	-8.54727
第一	-8.54802
典	-8.54837
尸	-8.54912
往	-8.55075
參	-8.55235
丁	-8.55277
歲	-8.55404
盛	-8.55421
逺	-8.55504
釋	-8.55553
載	-8.55559
天門	-8.557
熱	-8.55814
敢	-8.55852
男女	-8.56008
正一	-8.56092
逢	-8.56225
酉	-8.56266
闕	-8.56293
愛	-8.56381
伯	-8.56472
祭	-8.56483
含	-8.56639
移	-8.56865
漸	-8.56945
訖	-8.57149
傾	-8.57176
寧	-8.57243
元君	-8.57453
跡	-8.57502
緫	-8.57672
左手	-8.5768
曹	-8.57729
第二	-8.57805
術	-8.57866
映	-8.58004
憂	-8.58113
歷	-8.58245
身中	-8.58252
雷公	-8.5849
案	-8.58808
懷	-8.58814
䰟	-8.58854
界	-8.58957
三官	-8.59064
逐	-8.59139
祖師	-8.59157
早	-8.59731
北極	-8.59761
碧	-8.59803
火鈴	-8.59821
㫖	-8.59906
唐	-8.59958
夫人	-8.60275
係	-8.60287
炎	-8.60333
以爲	-8.60348
疑	-8.60842
電	-8.60983
端	-8.6105
宅	-8.61244
之人	-8.6129
波	-8.61312
亥	-8.61449
殿	-8.61627
扶	-8.61962
窮	-8.62053
財	-8.62061
乾坤	-8.62356
輝	-8.62483
揚	-8.62754
勞	-8.62859
朗	-8.63024
魚	-8.63524
患	-8.63618
不敢	-8.63804
於是	-8.63812
刑	-8.63816
昭	-8.63879
徹	-8.63892
騎	-8.641
滯	-8.64271
擊	-8.64273
充	-8.64492
三五	-8.6463
吏兵	-8.64632
卿	-8.64714
危	-8.64767
氏	-8.64902
上下	-8.65469
越	-8.6547
天師	-8.65476
服之	-8.65591
座	-8.65797
助	-8.6584
之日	-8.65846
霄	-8.65906
太玄	-8.66052
之内	-8.66213
騰	-8.66269
之神	-8.6642
生死	-8.66462
鳳	-8.66468
停	-8.66538
迎	-8.6664
角	-8.66752
押	-8.66802
庶	-8.66874
走	-8.66956
禄	-8.67037
廟	-8.67233
勤	-8.67572
察	-8.67596
夏	-8.6765
下降	-8.67661
天蓬	-8.67694
朱書	-8.67967
計	-8.6804
三洞	-8.6809
營	-8.68104
肝	-8.6813
習	-8.68235
育	-8.68268
舊	-8.68274
限	-8.68306
卒	-8.68356
横	-8.68478
谷	-8.68505
玉皇	-8.68855
統	-8.6886
智	-8.68896
肉	-8.69075
/)	-8.69188
之間	-8.6924
推	-8.69242
惠	-8.69345
耶	-8.69365
灾	-8.69663
附	-8.69715
丑	-8.69789
寫	-8.69851
本命	-8.69898
旛	-8.70232
野	-8.70372
梵	-8.70437
接	-8.70446
强	-8.70518
雪	-8.70655
掐	-8.70704
牛	-8.7075
煉	-8.70776
刀	-8.70803
肺	-8.70973
父	-8.71059
道君	-8.71107
仙官	-8.71172
大法	-8.71262
省	-8.71413
序	-8.71415
畫	-8.71417
毋	-8.71476
衝	-8.71563
地獄	-8.7167
絳	-8.71816
沉	-8.71821
尺	-8.71946
髙上	-8.72327
太乙	-8.72566
卧	-8.7274
仁	-8.72784
補	-8.7287
檄	-8.72934
紙	-8.73234
納	-8.73331
痛	-8.73422
帥	-8.73448
昏	-8.73462
三日	-8.73585
殃	-8.73616
伐	-8.73645
幸	-8.73755
調	-8.738
三清	-8.73892
錢	-8.73972
榮	-8.74092
烈	-8.74165
兹	-8.74232
損	-8.74274
淵	-8.74763
舍	-8.74879
堅	-8.75181
刻	-8.75756
疾速	-8.75794
趙	-8.75895
又曰	-8.75905
四方	-8.76087
姓名	-8.76375
腎	-8.76493
大帝	-8.7654
泥丸	-8.76583
再拜	-8.76592
潜	-8.76606
赴	-8.76675
一名	-8.76685
鼓	-8.76819
蟲	-8.77167
赦	-8.7724
摧	-8.77269
出入	-8.77434
禀	-8.77511
群	-8.77572
寂	-8.77608
洞玄	-8.77669
温	-8.77697
功德	-8.77899
黒	-8.77953
户	-8.7796
愆	-8.77985
萬里	-8.78212
魁	-8.78234
美	-8.78362
塞	-8.78383
比	-8.78617
階	-8.78663
稽首	-8.78667
慮	-8.78669
行道	-8.78728
三光	-8.78749
兊	-8.78766
希	-8.78826
武	-8.7884
樹	-8.78912
伸	-8.79057
湯	-8.79098
殊	-8.79178
修行	-8.79304
據	-8.79434
天丁	-8.79846
免	-8.79983
蕩	-8.80013
鼻	-8.8021
艮	-8.80224
秀	-8.80296
灌	-8.80506
宇	-8.8068
貪	-8.8104
所謂	-8.81094
生人	-8.81109
獻	-8.81236
得道	-8.8124
丘	-8.81428
師曰	-8.81553
神虎	-8.81599
風雨	-8.81612
院	-8.81654
客	-8.8197
裏	-8.8203
仙人	-8.82125
主者	-8.82505
瘟	-8.82561
敷	-8.82657
法官	-8.8277
大聖	-8.82803
檢	-8.82883
八景	-8.83
梁	-8.83109
葉	-8.83167
味	-8.83233
遲	-8.83309
急急	-8.83374
一人	-8.83493
冀	-8.83525
一身	-8.83605
告下	-8.83757
煥	-8.83807
里	-8.8405
入意	-8.84422
孫	-8.84467
述	-8.84598
若有	-8.8463
厚	-8.84691
兼	-8.84831
嶽	-8.84844
今日	-8.84952
讀	-8.85062
約	-8.85232
蛇	-8.85367
慧	-8.85386
遵	-8.85486
澄	-8.85495
造化	-8.85576
詩	-8.85657
細	-8.85657
謁	-8.85714
俾	-8.85746
髙功	-8.85831
無窮	-8.86102
泰	-8.86392
類	-8.86406
唱	-8.8647
之士	-8.86508
特	-8.86559
倒	-8.86686
紫微	-8.86809
像	-8.86847
暗	-8.86876
響	-8.87329
三炁	-8.87483
務	-8.87659
父母	-8.87695
篆	-8.87724
吞	-8.87726
禳	-8.87809
伏願	-8.87825
劵	-8.879
脫	-8.88132
誅	-8.88151
供養	-8.88271
羣	-8.88497
六甲	-8.88754
男	-8.88863
管	-8.88888
七星	-8.88907
旋	-8.88963
邊	-8.89036
改	-8.89056
徃	-8.89079
委	-8.89108
謹請	-8.89184
霧	-8.89192
濁	-8.89317
剔	-8.89376
灰	-8.89384
化爲	-8.89389
盤	-8.89391
神明	-8.89452
效	-8.89727
沐浴	-8.89761
辛	-8.89917
井	-8.90044
巨	-8.90197
幾	-8.90212
大洞	-8.90271
徧	-8.90401
假	-8.90403
兮	-8.90453
是也	-8.90549
行之	-8.90666
衆生	-8.90736
爾時	-8.90755
笑	-8.90828
亦可	-8.9093
戌	-8.90972
試	-8.91086
晴	-8.91117
閑	-8.91129
池	-8.91338
丸	-8.9153
三年	-8.91895
眞炁	-8.92076
卦	-8.92094
行事	-8.92233
誤	-8.92275
給	-8.92316
烏	-8.92333
速降	-8.92417
洪	-8.92428
愚	-8.92467
默	-8.925
竹	-8.92515
厄	-8.92605
人間	-8.9261
徑	-8.92806
無極	-8.92879
搯	-8.92937
鑒	-8.93149
神王	-8.93234
器	-8.93324
盈	-8.93392
名曰	-8.93569
第五	-8.93577
九幽	-8.93724
怪	-8.93964
打	-8.9419
祥	-8.94234
冷	-8.94286
振	-8.94313
編	-8.9433
懸	-8.94556
冬	-8.94605
抱	-8.94606
洗	-8.94614
剛	-8.94748
土地	-8.94765
訟	-8.94994
五炁	-8.95198
鬱	-8.95227
神君	-8.9526
二十	-8.95346
楊	-8.95435
軒	-8.95657
之氣	-8.9571
芒	-8.95723
⬤	-8.9579
脾	-8.95802
縱	-8.95835
敗	-8.95861
縛	-8.96351
分明	-8.96483
竟	-8.96535
一時	-8.96719
雷火	-8.96867
呵	-8.96926
綱	-8.96941
催	-8.97083
薄	-8.97209
蒼	-8.9741
髮	-8.97671
第四	-8.97713
逹	-8.97859
謀	-8.97941
顧	-8.98002
天君	-8.98063
錦	-8.98267
五星	-8.98345
忠	-8.98458
之妙	-8.98531
六天	-8.98537
𤣥	-8.98611
折	-8.98666
治病	-8.98708
曾	-8.98759
怒	-8.98785
薦	-8.98878
秘	-8.98925
又方	-8.99014
着	-8.99029
先天	-8.99273
無上	-8.99382
開度	-8.99417
適	-8.99533
克	-8.99569
責	-8.9957
飛仙	-8.99621
眞文	-8.99846
鏡	-8.99914
用之	-8.99955
上眞	-9
盖	-9.00002
竒	-9.00136
迴	-9.00342
寶	-9.00402
之鬼	-9.00483
太虚	-9.00509
玄都	-9.00608
量	-9.0076
罰	-9.01035
靖	-9.01144
演	-9.01166
頂	-9.01297
清微	-9.01353
尤	-9.01374
採	-9.01442
燭	-9.01667
萬靈	-9.01669
仲	-9.01672
怨	-9.01677
上昇	-9.01717
捧	-9.0172
夷	-9.01823
老君	-9.01849
官將	-9.01905
上天	-9.01985
舟	-9.02039
罩	-9.02048
七祖	-9.02165
汁	-9.02217
肅	-9.02239
乆	-9.02305
各有	-9.02348
宋	-9.02794
雙	-9.02857
皮	-9.02966
鶴	-9.03095
忌	-9.03206
席	-9.03385
之事	-9.03462
邪鬼	-9.03702
潔	-9.03702
九宫	-9.03892
影	-9.04034
七元	-9.04126
才	-9.04327
依法	-9.04359
令人	-9.04373
上聖	-9.04461
無爲	-9.04506
逸	-9.04553
是以	-9.04622
之下	-9.04697
火急	-9.04718
貫	-9.04763
叅	-9.04868
縣	-9.05076
句	-9.05111
況	-9.05227
下元	-9.05228
手執	-9.05392
九炁	-9.05393
不見	-9.05432
御前	-9.05744
昧	-9.05838
作用	-9.05845
而爲	-9.05855
悲	-9.0613
隆	-9.06456
世間	-9.06474
預	-9.06526
太素	-9.06692
泄	-9.0682
康	-9.0688
八卦	-9.06927
巾	-9.06937
旨	-9.07016
道法	-9.07268
一如	-9.07353
孝	-9.07369
魂魄	-9.07466
魔王	-9.07526
松	-9.07566
把	-9.07571
鳥	-9.07669
哀	-9.07691
馳	-9.07732
拘	-9.0776
激	-9.07883
局	-9.08115
度人	-9.08226
三寳	-9.08654
沈	-9.08739
阿	-9.08786
東南	-9.08837
史	-9.09006
墨	-9.09067
權	-9.09168
撰	-9.09336
掃	-9.09401
辟	-9.09478
際	-9.09617
提	-9.09667
六合	-9.09884
顔	-9.10023
棄	-9.10083
覩	-9.10209
三十	-9.10493
厭	-9.1058
无上	-9.10742
天中	-9.10762
南極	-9.10792
上有	-9.1085
鳯	-9.10885
無所	-9.10892
豐	-9.11
右手	-9.1111
號令	-9.11213
咽	-9.11685
某人	-9.11843
中元	-9.1202
防	-9.12096
穴	-9.12132
衰	-9.12155
祈禱	-9.12239
直符	-9.12337
潤	-9.12411
雄	-9.12502
山川	-9.12619
焚香	-9.12685
輿	-9.12781
五老	-9.1293
二人	-9.12945
七日	-9.12972
如是	-9.1306
脚	-9.13218
第六	-9.13421
那	-9.13463
侯	-9.13521
化生	-9.13656
沙	-9.13865
嘉	-9.13929
舌	-9.13967
甲子	-9.14078
余	-9.14272
密	-9.14356
雷電	-9.14427
曉	-9.14524
逍遥	-9.14543
煎	-9.14589
溪	-9.14599
川	-9.1484
題	-9.14998
沖	-9.15132
導	-9.15144
千里	-9.15163
門下	-9.15194
摩	-9.15214
第	-9.15273
祈雨	-9.15394
十一	-9.15424
叩	-9.15497
翼	-9.1551
誦經	-9.15612
拔	-9.15874
避	-9.15875
暎	-9.16047
精神	-9.16058
孔	-9.16098
陵	-9.16151
太微	-9.16215
黄帝	-9.16293
軍	-9.16302
夕	-9.16346
索	-9.16379
頌	-9.16587
洞天	-9.16616
齒	-9.16742
泥	-9.16747
太空	-9.16803
毎	-9.17066
瘡	-9.171
繫	-9.17112
指揮	-9.17128
液	-9.17354
膽	-9.17475
白虎	-9.17739
斗中	-9.1776
病人	-9.17914
供	-9.18106
苟	-9.1814
鼎	-9.18225
旬	-9.18229
略	-9.18295
戴	-9.18499
友	-9.18528
戰	-9.18532
胡	-9.18549
禱	-9.18551
班	-9.18605
兇	-9.18721
産	-9.18927
於此	-9.18936
羊	-9.18954
判	-9.18964
祝曰	-9.19055
兵馬	-9.19246
蘇	-9.19286
兩手	-9.19474
究	-9.19491
爽	-9.19502
瑞	-9.19592
冝	-9.19664
操	-9.19745
燒香	-9.19769
聖前	-9.19792
威神	-9.19888
齎	-9.19917
毛	-9.19924
聖人	-9.20069
環	-9.2011
西北	-9.20201
陸	-9.20221
學者	-9.20246
眞靈	-9.20306
五藏	-9.2032
混沌	-9.20411
詔	-9.20417
陶	-9.20435
京	-9.20532
政	-9.20697
續	-9.20829
烟	-9.20918
神光	-9.21037
煑	-9.2104
叩齒	-9.21107
樞	-9.21218
丈人	-9.21264
無不	-9.21311
是時	-9.21313
金甲	-9.2134
太平	-9.21394
竅	-9.2147
吾奉	-9.21481
仗	-9.21498
増	-9.21523
正炁	-9.21665
説	-9.21814
貼	-9.21821
佐	-9.21906
俯	-9.21908
獸	-9.22006
頓	-9.22014
杖	-9.22015
筭	-9.22022
占	-9.22073
十四	-9.22124
否	-9.22281
率	-9.22303
屋	-9.22322
函	-9.22462
存思	-9.22481
眞符	-9.22489
策	-9.22578
黙	-9.22604
呪畢	-9.22627
水府	-9.22649
我身	-9.22674
蘭	-9.22686
併	-9.22693
均	-9.22711
字號計十卷	-9.22831
旦	-9.22887
季	-9.22957
腦	-9.23058
火輪	-9.23167
祐	-9.23208
天皇	-9.23249
也若	-9.23313
徐	-9.23354
熟	-9.23533
甘	-9.23544
捨	-9.23587
三台	-9.23598
彰	-9.23613
道德	-9.23781
智慧	-9.23856
黄庭	-9.24039
漏	-9.24066
霜	-9.2409
經云	-9.24155
託	-9.24252
不同	-9.24459
天人	-9.24467
迹	-9.24482
亡魂	-9.24578
之功	-9.24601
𩔖	-9.24662
弘	-9.24926
徳	-9.24969
二十八宿	-9.24996
學道	-9.25
九玄	-9.25124
享	-9.25141
四時	-9.25192
九霄	-9.25227
有所	-9.25248
侍衛	-9.25315
腹	-9.25325
念呪	-9.25389
爲之	-9.25444
静	-9.2554
賊	-9.2559
威儀	-9.2563
風火	-9.2564
秦	-9.25805
點	-9.25808
至眞	-9.26009
憑	-9.26047
辯	-9.2616
□□	-9.26278
觸	-9.26335
長存	-9.26473
玉文	-9.26484
喪	-9.26563
市	-9.26585
校	-9.26717
註	-9.26728
夀	-9.26836
和合	-9.2689
八方	-9.26908
私	-9.26922
如法	-9.26952
裂	-9.26995
療	-9.27046
心中	-9.27141
九年	-9.27205
太上老君	-9.27235
彌	-9.27263
邪精	-9.27299
世人	-9.27325
龍虎	-9.27332
吴	-9.27404
上真	-9.2742
狂	-9.27578
人身	-9.27651
純	-9.27685
内有	-9.2769
疾病	-9.2771
沐	-9.27787
衞	-9.27892
準	-9.27984
逰	-9.28132
隔	-9.28153
天上	-9.28216
而去	-9.28275
元始天尊	-9.28302
遭	-9.284
不用	-9.28526
翻	-9.28535
貧	-9.28577
墮	-9.28581
遐	-9.28633
慕	-9.28817
翳	-9.28897
鍾	-9.28911
十六	-9.28959
孤	-9.28995
遥	-9.29012
寢	-9.29016
浩	-9.29029
翁	-9.29033
祈晴	-9.291
神吏	-9.29145
百神	-9.29209
搗	-9.29248
壁	-9.29327
通靈	-9.29484
金丹	-9.29567
佳	-9.29733
宴	-9.29768
輙	-9.29837
至於	-9.29958
威靈	-9.3
弟子某	-9.30023
)□(	-9.3007
萬劫	-9.30087
宫中	-9.30093
翠	-9.3013
傍	-9.30217
本司	-9.30299
龜	-9.30357
神靈	-9.30576
浪	-9.30583
南斗	-9.3063
繞	-9.30646
值	-9.3069
例	-9.3085
上奏	-9.30868
杜	-9.31086
旗	-9.31169
最	-9.31388
膏	-9.31484
未能	-9.31549
副	-9.31607
射	-9.3163
東嶽	-9.31745
勢	-9.31871
混元	-9.31905
力士	-9.3196
没	-9.32034
歳	-9.32267
整	-9.32291
荷	-9.32312
上香	-9.32337
枝	-9.3234
練	-9.32341
議	-9.32359
靈文	-9.32365
天關	-9.32449
上仙	-9.32454
雷部	-9.32592
唎	-9.32623
嬰	-9.32647
十五	-9.32679
工	-9.32719
剪	-9.3273
天曹	-9.32905
不祥	-9.32968
東華	-9.33299
訓	-9.33388
兒	-9.33389
已上	-9.33439
第七	-9.33483
設醮	-9.33486
壯	-9.33557
寄	-9.33587
懼	-9.33587
名山	-9.33675
祠	-9.33683
玉符	-9.3381
億	-9.33814
玉童	-9.33943
風雷	-9.33982
染	-9.33984
至道	-9.34171
嗣	-9.34184
善惡	-9.34211
人之	-9.34308
五神	-9.34314
侵	-9.34367
飛天	-9.34414
米	-9.34427
讃	-9.34458
常以	-9.34485
者也	-9.34528
途	-9.34586
勒	-9.34621
玉京	-9.34695
生於	-9.34824
繁	-9.34892
北向	-9.35251
玄元	-9.35257
郭	-9.35274
誥	-9.35287
奪	-9.3529
乖	-9.35324
而生	-9.35483
而後	-9.3552
一道	-9.35565
擇	-9.35579
眉	-9.35641
囉	-9.35662
芳	-9.35694
基	-9.35754
无極	-9.3576
握	-9.35881
神呪	-9.35933
束	-9.35997
維	-9.36149
莫不	-9.36187
因縁	-9.36366
兆身	-9.36393
咎	-9.36613
上皇	-9.36627
存神	-9.36632
入室	-9.36714
食之	-9.3673
壞	-9.36936
爐	-9.36999
桃	-9.37017
法中	-9.37059
紫雲	-9.37179
一兩	-9.37209
大小	-9.37328
丹田	-9.37341
淺	-9.37349
單	-9.37457
博	-9.37538
吽	-9.3763
吟	-9.37661
臣某	-9.37691
欽	-9.37724
無量	-9.3778
劄	-9.37797
答	-9.37815
批	-9.37838
殘	-9.37878
尅	-9.38298
惑	-9.38351
煩	-9.38367
岀	-9.38381
研	-9.38389
錫	-9.38417
度師	-9.38537
欺	-9.38664
鑑	-9.38808
臻	-9.38817
亦不	-9.3886
神祇	-9.39041
不生	-9.39127
慢	-9.39192
玉晨	-9.39194
晦	-9.39196
依科	-9.39225
某處	-9.39497
訪	-9.3971
慈悲	-9.39769
晝夜	-9.39792
神兵	-9.39802
裙	-9.39878
增	-9.40196
誰	-9.40221
其中	-9.40248
旱	-9.40402
當以	-9.4047
繼	-9.40501
短	-9.4054
决	-9.40547
袍	-9.40548
▲	-9.40582
舒	-9.40603
萬鬼	-9.40612
貞	-9.40617
攻	-9.40659
茂	-9.40723
火車	-9.40805
淫	-9.41004
不必	-9.41037
正法	-9.41093
竊	-9.41138
空洞	-9.41183
五十	-9.41302
懇	-9.4144
葛	-9.41499
生民	-9.41578
而行	-9.41597
神符	-9.41606
銀	-9.41617
纒	-9.42017
底	-9.42026
緣	-9.42042
之文	-9.42051
胃	-9.4245
須臾	-9.42479
妙經	-9.42555
天眞	-9.42563
火光	-9.42651
戸	-9.42681
竭	-9.42878
口中	-9.42905
飛行	-9.42939
身心	-9.42945
𥘉	-9.42958
傳授	-9.42985
所在	-9.43029
娑訶	-9.43035
或有	-9.431
部領	-9.43154
不死	-9.43255
遁	-9.43346
奇	-9.4336
此法	-9.43363
號曰	-9.43381
爭	-9.4345
城隍	-9.4349
所有	-9.43703
以來	-9.43837
救苦	-9.43905
風雲	-9.44036
効	-9.44088
丙丁	-9.44201
之門	-9.44255
故曰	-9.44263
亦有	-9.44288
審	-9.44352
翔	-9.44364
融	-9.44371
霆	-9.44374
此是	-9.44385
如何	-9.44436
又有	-9.44458
東北	-9.44552
眞形	-9.44748
暢	-9.44851
幽冥	-9.44873
䖏	-9.44875
躬	-9.44893
而成	-9.45016
金剛	-9.45145
懴	-9.45198
尾	-9.45211
同前	-9.45219
五道	-9.4525
七寳	-9.45259
登壇	-9.4526
詠	-9.45269
㣲	-9.45286
鮮	-9.45339
暮	-9.45384
太隂	-9.45539
主宰	-9.45552
洞眞	-9.45577
黄籙	-9.4568
第八	-9.45744
活	-9.45761
墜	-9.45817
醉	-9.45831
旺	-9.45836
扇	-9.45836
轟	-9.45884
經曰	-9.45914
元炁	-9.45935
此符	-9.45976
㧞	-9.46066
促	-9.46089
鍊度	-9.46111
截	-9.46258
側	-9.46287
中宫	-9.46307
如前	-9.46533
一年	-9.46572
稍	-9.46639
氷	-9.46715
南宫	-9.46776
絳宫	-9.46815
減	-9.46824
祟	-9.46869
三師	-9.4688
水中	-9.46886
太陰	-9.47031
洞神	-9.47107
歡	-9.47153
劔	-9.47166
自有	-9.47236
魏	-9.47242
上詣	-9.47264
腫	-9.47265
祛	-9.47275
社	-9.47278
感通	-9.47281
棲	-9.47282
祖炁	-9.47282
三宫	-9.47397
上上	-9.47415
天官	-9.47506
郎	-9.4756
汗	-9.47593
右法	-9.47689
山林	-9.47707
俟	-9.47717
晝	-9.47722
社令	-9.48118
孟	-9.48225
缺	-9.48245
青龍	-9.48284
日中	-9.48396
世界	-9.48433
乙	-9.48559
妙道	-9.4874
四海	-9.48803
吉凶	-9.48851
道場	-9.48924
穀	-9.48968
醫	-9.48978
佑	-9.4909
呈	-9.49124
姓某	-9.49177
牙	-9.49254
茅	-9.49399
生成	-9.49407
以此	-9.49453
同卷	-9.4956
無形	-9.49728
柳	-9.49795
一念	-9.49886
老子	-9.4989
圎	-9.49954
濟度	-9.49992
抑	-9.49996
之宫	-9.50159
䇿	-9.5016
尊神	-9.50235
而已	-9.50273
九色	-9.50373
性命	-9.50401
㸃	-9.50461
崑崙	-9.5065
富	-9.50669
元皇	-9.50725
肆	-9.50757
猛	-9.50932
頭戴	-9.50989
須至	-9.51055
陣	-9.51074
傅	-9.51086
勘	-9.51102
䟽	-9.51201
愼	-9.51222
符右符	-9.51225
熏	-9.51256
地户	-9.51376
十月	-9.51486
正月	-9.51518
炁入	-9.51522
清淨	-9.51537
橋	-9.51539
犬	-9.5155
桂	-9.51596
腰	-9.51721
巳上	-9.51765
規	-9.51767
肇	-9.51785
六丁	-9.51879
之心	-9.5205
爛	-9.52127
冲	-9.52149
瞻	-9.52195
銜	-9.52205
臣等	-9.52214
碎	-9.52243
纏	-9.5226
撫	-9.52285
嬰兒	-9.52296
太眞	-9.52392
飲食	-9.52488
役使	-9.52494
請降	-9.52596
程	-9.52608
偶	-9.5271
攝召	-9.52758
宰	-9.52782
儒	-9.52792
丈	-9.52802
廢	-9.52802
淳	-9.52807
賔	-9.52809
游	-9.52847
域	-9.52899
出於	-9.52913
上道	-9.52975
次存	-9.52982
青帝	-9.53015
西南	-9.53112
慎	-9.53216
鄧	-9.53262
額	-9.53268
暴	-9.53341
青炁	-9.53502
允	-9.53508
赫	-9.53561
銅	-9.53634
十三	-9.53761
其所	-9.53765
分别	-9.53839
桑	-9.53845
蹤	-9.53865
躡	-9.53883
楚	-9.53888
障	-9.5401
後學	-9.54056
寸	-9.54166
棗	-9.5425
皇君	-9.54272
天醫	-9.54325
拂	-9.54351
君官將一百二十人治	-9.5437
亭	-9.54408
樓	-9.54428
弗	-9.54429
僞	-9.54443
子孫	-9.545
十八	-9.54536
生神	-9.54621
不復	-9.54702
不動	-9.54732
祀	-9.54809
闊	-9.54872
五臟	-9.5488
也故	-9.54908
擁	-9.54931
眞王	-9.55091
員	-9.55242
凡有	-9.55328
輒	-9.55402
亨	-9.55413
爰	-9.55448
吕	-9.55457
召將	-9.55459
方可	-9.55475
擲	-9.55567
解曰	-9.55741
配	-9.55743
之至	-9.55795
人民	-9.55867
龍神	-9.55875
玄壇	-9.55891
飄	-9.55935
辨	-9.55936
鸞	-9.55958
標	-9.5597
考召	-9.55973
精思	-9.55982
徘徊	-9.55982
曰吾	-9.5603
流光	-9.56087
吿	-9.5612
地祇	-9.56129
二炁	-9.56316
困	-9.56441
峯	-9.56449
添	-9.5645
畏	-9.56474
,	-9.56487
趣	-9.56549
凝神	-9.56569
符使	-9.56591
而無	-9.56802
前後	-9.56844
受度	-9.56908
姑	-9.56986
三境	-9.57023
穿	-9.57054
支	-9.57131
亡人	-9.5716
有一	-9.57181
斧	-9.57202
三十二	-9.57258
也其	-9.57263
郡	-9.57315
毫	-9.57333
之前	-9.57363
館	-9.57401
保命	-9.57435
生炁	-9.57447
此經	-9.57451
中指	-9.57472
暫	-9.57476
彈	-9.57527
巖	-9.5757
凈	-9.57606
上啓	-9.57668
百日	-9.57674
高上	-9.57796
四十	-9.57903
三魂	-9.57924
錯	-9.58063
磨	-9.58071
皂	-9.58076
禽	-9.58113
削	-9.58124
𨽻	-9.58344
捕	-9.58425
則有	-9.58449
悔	-9.58503
罔	-9.58549
者皆	-9.58558
攺	-9.5858
洒	-9.58604
毀	-9.58648
来	-9.58662
珍	-9.58677
堪	-9.58695
汝等	-9.5874
庚	-9.58755
不正	-9.58846
十七	-9.59159
胞	-9.59168
賦	-9.59219
云云	-9.59412
中平	-9.59424
生靈	-9.59561
玉虚	-9.59689
賞	-9.59723
璧	-9.59784
舞	-9.59824
宮	-9.59861
某等	-9.59934
之際	-9.59945
白炁	-9.59962
赤書	-9.5997
自己	-9.60031
答曰	-9.60037
之境	-9.60081
妖精	-9.60116
君子	-9.602
人也	-9.60295
莖	-9.60316
猪	-9.60322
賤	-9.60324
三十二天	-9.60343
閣	-9.60466
下下	-9.60499
陛下	-9.60603
彩	-9.60619
洞真	-9.60624
屍	-9.60791
叨	-9.6086
一升	-9.60959
上清靈寳大法卷之	-9.61013
准	-9.6118
範	-9.61246
瀆	-9.61287
頒	-9.61299
現形	-9.61361
上聞	-9.61379
夙	-9.61412
五靈	-9.61452
不利	-9.61457
黑雲	-9.61473
真文	-9.61514
逮	-9.61546
雷雨	-9.61615
上宫	-9.61693
諸司	-9.61736
之外	-9.61807
喝	-9.61846
剋	-9.61898
所屬	-9.61957
弱	-9.61958
柔	-9.61968
之始	-9.61971
帝王	-9.62054
炁吹	-9.62085
神化	-9.62087
眞仙	-9.62129
萬人	-9.62352
二字	-9.6236
竈	-9.62365
乳	-9.62377
韓	-9.62393
无量	-9.62471
感應	-9.62498
的	-9.62514
之數	-9.62546
偏	-9.62566
其人	-9.62619
謹召	-9.6277
滅形	-9.6279
萬丈	-9.62799
脉	-9.62903
爲禍	-9.62906
度厄	-9.62923
三卷	-9.62924
太歲	-9.62933
天地之	-9.62949
壓	-9.62986
粉	-9.63007
靈寶	-9.63054
叱	-9.63068
商	-9.63144
謬	-9.63146
况	-9.63168
叔	-9.63179
傳度	-9.63207
叙	-9.63208
再念	-9.63239
安寧	-9.63242
三皇	-9.63349
虚皇	-9.63428
貌	-9.63571
冒	-9.63573
凌	-9.63608
戮	-9.63649
叩齒九通	-9.6371
此乃	-9.63838
頭上	-9.6386
中黄	-9.63987
妻	-9.64087
金華	-9.64097
埋	-9.64099
鷄	-9.64111
幕	-9.64173
道人	-9.6421
踈	-9.64253
割	-9.64263
神人	-9.64281
真炁	-9.64316
談	-9.64332
文字	-9.6442
錬度	-9.64453
生天	-9.64563
其神	-9.64661
蔽	-9.64698
欣	-9.64821
透	-9.64835
字號計九卷	-9.64838
秉	-9.64871
祗	-9.64926
長跪	-9.64927
之地	-9.64932
玉札	-9.64985
箇	-9.65002
主之	-9.65077
囊	-9.65158
之初	-9.65179
赤帝	-9.65297
蒸	-9.65434
浴	-9.65448
文昌	-9.65478
神炁	-9.65481
勸	-9.65489
宗師	-9.65515
洞明	-9.65575
宸	-9.65659
判官	-9.65692
中天	-9.6574
皓	-9.65749
東向	-9.6579
皆是	-9.65964
互	-9.65979
咒	-9.66057
歴	-9.66077
飢	-9.66092
追攝	-9.66127
𩲸	-9.66243
三千	-9.66425
章奏	-9.66446
法籙	-9.66549
輕泄	-9.66554
経	-9.66632
厥	-9.66653
三景	-9.66659
是爲	-9.66709
不過	-9.66799
掩	-9.66833
上相	-9.66887
是故	-9.66942
箕	-9.66959
弟	-9.66988
知其	-9.67028
皈	-9.67048
荒	-9.67098
包	-9.67179
以今	-9.67183
蕭	-9.672
髪	-9.67206
普度	-9.67209
滌	-9.67295
之言	-9.67341
存想	-9.67452
前去	-9.67501
妃	-9.67551
赤炁	-9.67568
飛雲	-9.67588
地府	-9.67648
香火	-9.67661
絲	-9.67683
枯	-9.67723
婦	-9.67727
競	-9.67772
帔	-9.67805
龍王	-9.67821
飾	-9.67887
良久	-9.67932
魁罡	-9.67982
焦	-9.68178
而出	-9.68184
者乃	-9.68205
符呪曰	-9.68223
患人	-9.68316
驛	-9.68334
十二月	-9.68358
墓	-9.6836
去處	-9.6837
鄭	-9.68391
垢	-9.68402
超度	-9.68408
宏	-9.68446
眞官	-9.68447
溺	-9.68447
良乆	-9.68456
紫虚	-9.68495
金書	-9.68668
三月	-9.68799
排	-9.68893
九靈	-9.6898
大指	-9.69019
七月	-9.69068
照應	-9.69159
天之	-9.69176
後世	-9.69176
敕命	-9.69181
書之	-9.69211
空中	-9.6941
一百	-9.69447
飯	-9.69573
白雲	-9.69625
臭	-9.6965
予	-9.69653
旁	-9.69654
綵	-9.6966
藉	-9.69694
一一	-9.69786
在前	-9.69835
紫炁	-9.69836
不爲	-9.69836
一寸	-9.69876
紫庭	-9.699
得之	-9.69926
盞	-9.69926
圍	-9.70119
鞭	-9.70208
結成	-9.7021
飛昇	-9.703
朱雀	-9.70315
不須	-9.70426
告文	-9.70551
賛	-9.70634
柱	-9.70652
馘	-9.7067
虧	-9.70707
好生	-9.70798
曰此	-9.70847
麗	-9.70849
不足	-9.7092
其心	-9.70989
元神	-9.7099
伏魔	-9.71046
甘露	-9.71164
在天	-9.71167
梵炁	-9.71205
佩之	-9.71234
延年	-9.71259
神通	-9.71409
必有	-9.71418
韻	-9.71494
夭	-9.71536
真仙	-9.71607
星辰	-9.71656
欻火	-9.71666
之恩	-9.71706
斷絶	-9.71744
絡	-9.71859
如意	-9.71921
未嘗	-9.71938
鹿	-9.72025
玄武	-9.72038
植	-9.72057
孕	-9.72109
呼吸	-9.72221
修齋	-9.72285
之者	-9.72312
法事	-9.72392
𡨚	-9.72613
眀	-9.72702
雞	-9.7272
后	-9.72743
又存	-9.72826
穹	-9.72857
此道	-9.72977
逃	-9.73004
𡨋	-9.73019
六十	-9.73227
庸	-9.73268
盧	-9.73299
昇天	-9.73308
亡䰟	-9.73331
蜀	-9.73379
豋	-9.73398
虹	-9.73407
漠	-9.73458
河圖	-9.73491
三素	-9.73513
黑炁	-9.73557
元陽	-9.73582
▁(	-9.73634
行用	-9.73666
四大	-9.73683
拜章	-9.73878
軀	-9.73944
卑	-9.74
髙眞	-9.74014
覽	-9.74015
幻	-9.74042
齋戒	-9.74151
之理	-9.74167
更生	-9.74461
功成	-9.74482
之名	-9.74511
劍	-9.74556
借	-9.7456
網	-9.74862
伏以	-9.75019
閉目	-9.75158
八極	-9.75205
符呪	-9.75217
戎	-9.75225
賴	-9.75296
岸	-9.75299
牀	-9.75305
壇場	-9.75307
繩	-9.75327
盜	-9.75354
投詞	-9.75391
而巳	-9.75453
洞淵	-9.75481
開明	-9.75594
除已	-9.75599
不成	-9.75618
上章	-9.75646
三一	-9.75729
崖	-9.75736
簿	-9.75767
又云	-9.75799
之章	-9.75818
虔	-9.75913
刺	-9.75978
言功	-9.76076
口訣	-9.76077
右符治	-9.76091
以聞	-9.76134
邪魔	-9.76151
上升	-9.76159
女子	-9.7622
三塗	-9.76244
天真	-9.76376
搜	-9.76435
拱	-9.76516
層	-9.76544
卓	-9.76579
上生	-9.76591
滋	-9.76596
針	-9.76612
燕	-9.76625
之方	-9.76628
陽明	-9.76633
茶	-9.76692
幽顯	-9.76918
項	-9.76923
湖	-9.7695
大羅	-9.76957
具位姓	-9.76978
隨事	-9.77118
牢	-9.77124
僧	-9.77194
奥	-9.77234
之則	-9.77245
誕	-9.77288
禦	-9.77304
存亡	-9.77521
無有	-9.77573
使人	-9.77628
天道	-9.77636
叉	-9.77687
守一	-9.77715
九州	-9.77806
倚	-9.77851
成就	-9.77869
萌	-9.77922
迅	-9.77941
七魄	-9.7798
之罪	-9.78051
遊行	-9.7806
之要	-9.78076
馭	-9.78169
之身	-9.78199
者不	-9.78208
問曰	-9.78214
八十一	-9.7831
君召	-9.78312
稽	-9.78378
元氣	-9.78489
憲	-9.78524
晉	-9.78588
寡	-9.78592
官吏	-9.78593
孰	-9.78662
分形	-9.78674
爲人	-9.78686
延生	-9.78686
朱陵	-9.78739
嘯	-9.78889
上品	-9.78939
四字	-9.78948
赴壇	-9.78963
變形	-9.79066
等神	-9.79104
丙	-9.79127
牌	-9.79214
天心	-9.79221
以致	-9.79253
誡	-9.79258
之類	-9.79259
脩	-9.79261
沾	-9.79266
冰	-9.79296
鉛	-9.79306
剌	-9.79308
閉炁	-9.79323
名爲	-9.79323
怠	-9.79425
六畜	-9.79552
降臨	-9.79605
電光	-9.79679
嚥	-9.79729
而有	-9.79775
十日	-9.79857
鈴	-9.79877
巧	-9.7992
船	-9.79921
灸	-9.79947
聖衆	-9.79969
九祖	-9.80034
九地	-9.80092
玉華	-9.8011
甲乙	-9.80124
合屬	-9.80155
九眞	-9.80247
真靈	-9.80273
次第	-9.80426
揮	-9.80486
廬	-9.80594
虚空	-9.80595
勾	-9.80618
叩齒三通	-9.8062
片	-9.80701
陽光	-9.80735
一分	-9.80745
潭	-9.8076
入符	-9.81005
若能	-9.81013
瑶	-9.81094
二兩	-9.81105
測	-9.8114
大有	-9.81157
功行	-9.81194
不行	-9.8128
三遍	-9.81283
靈章	-9.81324
白日	-9.81333
寳經	-9.81367
道者	-9.81385
度命	-9.81388
雷局	-9.81465
皆有	-9.8151
有符	-9.81522
幽明	-9.81613
泰山	-9.81614
洞陽	-9.8172
華蓋	-9.8176
軿	-9.81884
玉字	-9.81926
罷	-9.81955
篤	-9.81992
若不	-9.8201
屈	-9.82019
栖	-9.82031
之府	-9.82117
老人	-9.82123
恠	-9.82193
斬鬼	-9.82193
草木	-9.82279
向來	-9.82393
起雷	-9.82421
衆眞	-9.825
等衆	-9.82554
慾	-9.82592
矜	-9.82656
科曰	-9.82716
則爲	-9.82737
魯	-9.82752
黄素	-9.82927
箋	-9.83061
惡鬼	-9.83073
疫	-9.83092
大夫	-9.83127
中間	-9.83139
醜	-9.83187
速至	-9.832
漿	-9.83255
解釋	-9.83259
齡	-9.83275
齋壇	-9.8336
園	-9.83438
符籙	-9.83462
修之	-9.8349
清靜	-9.83513
之術	-9.83725
經法	-9.83737
帛	-9.83744
天雷	-9.83888
素靈	-9.8393
立功	-9.83984
大慈	-9.84044
之儀	-9.84084
講	-9.84092
豁落	-9.84101
選	-9.84101
灑	-9.8412
吞之	-9.84166
富貴	-9.84186
火急奉行	-9.84489
上方	-9.84695
盗	-9.84726
版	-9.84801
焰	-9.84824
緋	-9.84843
子時	-9.84867
齋法	-9.84877
七轉	-9.8489
榜	-9.8493
元始符命	-9.8499
山嶽	-9.85005
奏聞	-9.85066
不應	-9.85082
衡	-9.85096
三寸	-9.85106
不出	-9.85181
清虚	-9.8522
伺	-9.85307
上玄	-9.85358
族	-9.85392
白帝	-9.85431
派	-9.85445
事畢	-9.85482
消災	-9.85491
姦	-9.85515
天機	-9.85515
峰	-9.85526
清齋	-9.85535
飛空	-9.8554
長夜	-9.85578
建壇	-9.85617
靈符	-9.85641
也夫	-9.85668
玄冥	-9.8569
年月日時	-9.85691
蓬	-9.85712
消魔	-9.85727
口舌	-9.85788
使我	-9.85821
農	-9.85922
主帥	-9.85936
畜	-9.85941
仙道	-9.86008
衆聖	-9.86049
與吾	-9.86081
有功	-9.86099
合同	-9.86102
次念	-9.8616
頑	-9.86176
第九	-9.86191
濯	-9.86217
正神	-9.86227
之狀	-9.86229
恨	-9.86242
天兵	-9.86253
小兒	-9.86425
焚之	-9.86431
道言	-9.86492
三百	-9.86505
擒	-9.86536
速起	-9.86593
洞玄靈寳	-9.86598
受生	-9.86652
周天	-9.8667
倉	-9.86691
安鎮	-9.86777
曆	-9.86823
妙用	-9.86887
三升	-9.86905
闡	-9.86919
前來	-9.87002
微妙	-9.87196
官屬	-9.87348
悃	-9.87374
其文	-9.87406
陽日	-9.87407
得此	-9.87441
爲一	-9.87447
枉	-9.87492
其身	-9.87524
巡	-9.87538
快	-9.87576
急速	-9.87636
捉鬼	-9.87656
殺鬼	-9.87674
壺	-9.87674
纂	-9.87677
紫房	-9.87697
泛	-9.8771
駐	-9.87725
無邊	-9.87795
眷	-9.87816
亡者	-9.87872
金龍	-9.87964
何以	-9.87983
未有	-9.87995
五日	-9.87998
形神	-9.88086
道化	-9.88091
解厄	-9.88137
洲	-9.88162
入靖	-9.88224
大梵	-9.88224
憫	-9.88227
朔	-9.88281
携	-9.88305
得其	-9.88315
人家	-9.88338
與之	-9.88371
奴	-9.8839
鎖	-9.88394
輩	-9.88407
蓬萊	-9.88439
飈	-9.88443
里域	-9.88519
之誠	-9.88578
存見	-9.88597
天元	-9.88619
裳	-9.88651
二十五	-9.8866
壇前	-9.88691
倍	-9.88783
十二人	-9.88871
東極	-9.88905
玄妙	-9.88928
太帝	-9.88979
其法	-9.89023
循	-9.89105
橫	-9.89136
帳	-9.89141
盻	-9.8917
䕶	-9.89176
即是	-9.89186
帖	-9.89201
豈不	-9.8925
朝禮	-9.89279
雷聲	-9.89292
洞章	-9.89339
鋒	-9.89389
之靈	-9.89469
符中	-9.89471
轄	-9.8953
天寳	-9.89578
至誠	-9.89613
入道	-9.8979
輦	-9.89793
八門	-9.898
禹	-9.8986
嶺	-9.89861
呪詛	-9.89877
歛	-9.89878
虚無	-9.89879
一字	-9.89881
廓	-9.89883
贈	-9.89898
䖍	-9.89908
崔	-9.89921
雷王	-9.89927
之本	-9.89942
惜	-9.89948
寓	-9.89953
是非	-9.89975
七遍	-9.89989
晶	-9.90112
道炁	-9.90116
枷	-9.90123
解脫	-9.9016
符檄	-9.90198
宣告	-9.902
不及	-9.90239
所行	-9.90288
執法	-9.90322
下有	-9.90327
油	-9.90384
五符	-9.90438
真經	-9.90443
訶	-9.90519
奏狀	-9.90531
之宗	-9.90541
不受	-9.90554
餌	-9.90585
淪	-9.90588
婦人	-9.90599
庵	-9.90637
黨	-9.90668
徴	-9.90669
拔度	-9.90687
探	-9.90704
繒	-9.90716
人皆	-9.90763
太和	-9.90858
明堂	-9.90969
消滅	-9.91134
三拜	-9.91143
人道	-9.91192
迸	-9.91265
震動	-9.91314
睡	-9.91362
璇璣	-9.91414
辱	-9.91433
囚	-9.91438
炙	-9.91438
奸	-9.91442
歎	-9.91448
藴	-9.91482
億萬	-9.91492
南昌	-9.91611
肅清	-9.91643
緊	-9.91796
吾今	-9.91836
三兩	-9.91906
靡	-9.9199
星宿	-9.92067
流金	-9.92086
丐	-9.92128
恒	-9.92152
天宫	-9.92153
字號計八卷	-9.92178
啼	-9.92181
恊	-9.92183
逝	-9.92205
收捉	-9.92246
至真	-9.92287
玄靈	-9.9234
眷屬	-9.92384
七十二	-9.92406
蓮	-9.92428
之先	-9.92594
宥	-9.92623
王母	-9.929
遏	-9.92911
廉	-9.92913
皆得	-9.92923
肩	-9.92939
靑	-9.92958
塗之	-9.92982
各各	-9.92994
某家	-9.9302
天丁力士	-9.93093
之冠	-9.93259
者則	-9.93398
不勝	-9.93406
神功	-9.93419
板	-9.9344
隨意	-9.93461
婆	-9.93595
古今	-9.93599
蔵	-9.93605
展	-9.9369
完	-9.93694
某乙	-9.93694
𩀱	-9.93726
九轉	-9.93737
雅	-9.9378
道衆	-9.93882
大衆	-9.94018
悉皆	-9.9403
以成	-9.94052
靈光	-9.94065
拯	-9.94132
九十	-9.94146
神名	-9.94236
消除	-9.94265
又請	-9.94299
七十	-9.9436
聖位	-9.94391
窺	-9.9451
汞	-9.94551
強	-9.94552
諸法	-9.9463
黄炁	-9.94652
一枚	-9.94742
太上道君	-9.94816
二月	-9.94917
元降	-9.9515
溢	-9.95189
變神	-9.95206
風伯	-9.95217
之謂	-9.95238
渡	-9.95261
午文	-9.95267
出離	-9.95288
九月	-9.95301
曠	-9.95323
收攝	-9.95351
旌	-9.95358
曹僊官	-9.95374
下令	-9.95381
夜半	-9.95403
其間	-9.95463
當知	-9.95505
啓告	-9.95507
自在	-9.95533
山中	-9.95579
𡻕	-9.95621
家書	-9.95756
太歳	-9.95765
爻	-9.96028
沸	-9.96081
瓦	-9.96084
二卷	-9.96103
敢有	-9.96104
頗	-9.96106
鐘	-9.96138
膺	-9.9614
下界	-9.96143
署	-9.96146
以傳	-9.96243
三氣	-9.96307
存念	-9.9631
之厄	-9.96352
可謂	-9.96475
唵吽吽	-9.96532
十天	-9.9657
上朝	-9.96779
流行	-9.9679
天獄	-9.96802
梅	-9.96838
分野	-9.96843
牽	-9.9685
紛	-9.96856
二十七	-9.96879
浸	-9.9689
儻	-9.96894
屏	-9.96902
扶桑	-9.96906
逐一	-9.96907
萬民	-9.96926
化形	-9.96962
工夫	-9.96989
五斗	-9.97025
歩虚	-9.9705
經中	-9.97152
所受	-9.97319
赤子	-9.97385
無所不	-9.97417
八月	-9.9746
莊	-9.97464
飛騰	-9.97503
八節	-9.97536
左足	-9.9755
閉氣	-9.97566
二百	-9.97591
罪福	-9.97605
纔	-9.97621
覃	-9.97673
賈	-9.9769
膝	-9.97698
霑	-9.97699
恍惚	-9.97719
忍	-9.97731
皈依	-9.97747
三分	-9.97768
托	-9.97813
衆真	-9.97931
皇帝	-9.98088
㝠	-9.98124
不欲	-9.9813
應感	-9.98174
流火	-9.98186
所治	-9.98206
阻	-9.98211
壘	-9.98243
雹	-9.98297
蜜	-9.98382
真符	-9.98383
也又	-9.98405
官君	-9.98432
一合	-9.9844
鼠	-9.98452
幡	-9.9847
謙	-9.9848
括	-9.98493
費	-9.98509
也今	-9.98511
毁	-9.98512
酌	-9.98528
晩	-9.98544
臍	-9.98569
金精	-9.98569
齋功	-9.98586
化成	-9.98595
太上大道君	-9.98607
司馬	-9.98693
世之	-9.9873
金液	-9.98829
其事	-9.98852
者必	-9.98862
之音	-9.98928
身形	-9.98942
道學不得	-9.98975
開通	-9.9903
飛龍	-9.99116
興雲	-9.9918
玉童玉女	-9.99195
四聖	-9.99239
悅	-9.99269
其道	-9.99295
以水	-9.99295
至尊	-9.9934
挺	-9.99363
之意	-9.99367
致雨	-9.99377
巍巍	-9.99382
洞房	-9.99443
天將	-9.9945
之衆	-9.99489
水官	-9.99538
不許	-9.99572
晚	-9.99632
上靈官	-9.99752
上登	-9.99759
勿令	-9.99858
合干	-9.99902
誦之	-9.99927
動靜	-9.99929
人物	-9.99975
溟	-9.99978
見之	-9.99994
煞文	-9.99999
開天	-10.0001
之尊	-10.0005
宛	-10.0009
心存	-10.0009
頂門	-10.001
一月	-10.0014
屯	-10.0015
彭	-10.0017
琴	-10.0017
附體	-10.0019
倫	-10.0023
生化	-10.0031
不明	-10.0036
萬化	-10.0042
死生	-10.0043
太白	-10.0046
昇度	-10.0051
事理	-10.006
寳珠	-10.0067
丹書	-10.007
火候	-10.008
岳	-10.008
寃	-10.0081
勇	-10.0082
祕訣	-10.0085
耗	-10.0087
玉訣	-10.0087
斤	-10.0091
不以	-10.0092
天仙	-10.0096
瑩	-10.0099
諧	-10.0101
熬	-10.0102
濕	-10.0105
朝元	-10.0111
六道	-10.0111
所啓	-10.0111
出家	-10.0113
髓	-10.0124
統領	-10.0134
衆神	-10.0138
坎離	-10.0144
與道	-10.0145
青書	-10.0149
上法	-10.0152
六月	-10.0157
治之	-10.0174
札	-10.0177
俓	-10.0182
認	-10.0182
床	-10.0186
懴悔	-10.019
三人	-10.02
以左手	-10.0201
威光	-10.0205
雨師	-10.0205
山神	-10.0206
四極	-10.0211
道之	-10.0224
之機	-10.0231
諸神	-10.0236
三才	-10.0243
不如	-10.0247
二升	-10.025
九日	-10.0252
病者	-10.0257
默念	-10.0258
東西	-10.0261
險	-10.0266
濃	-10.0267
鴻	-10.0269
戀	-10.0272
二年	-10.0272
愧	-10.0276
禁忌	-10.0283
癸	-10.0295
帥將	-10.0303
督	-10.0305
胷	-10.0305
湧	-10.032
來臨	-10.0327
今有	-10.033
功曹使者	-10.0338
萬法	-10.0343
所見	-10.0347
渉	-10.0353
爪	-10.0355
度世	-10.0356
趨	-10.0357
仙靈	-10.0358
巢	-10.0358
四十九	-10.0363
聞之	-10.0363
神威	-10.0371
而下	-10.0371
甲午	-10.0374
端坐	-10.0374
三界十方	-10.0375
叩頭	-10.0375
雙手	-10.0377
不容	-10.0378
消息	-10.0381
多少	-10.0381
玉陛下	-10.0385
輪轉	-10.0391
此文	-10.0392
者是	-10.0396
二景	-10.0398
行下	-10.0399
爲我	-10.0401
昊天	-10.0401
一百二十	-10.0401
呼召	-10.0412
天子	-10.0416
具法位	-10.0416
也凡	-10.0416
捲	-10.0417
律令敕	-10.043
自生	-10.0435
愁	-10.0435
旡	-10.0439
戲	-10.0439
臂	-10.0439
邑	-10.044
年月日	-10.0446
齋官	-10.0446
銘	-10.0447
之光	-10.0453
𠃔中	-10.0454
天河	-10.0454
言之	-10.046
九皇	-10.0463
善功	-10.0465
應時	-10.0466
萬象	-10.0467
玉府	-10.0472
刃	-10.0474
元精	-10.0475
青衣	-10.0479
不在	-10.0486
兵士	-10.049
後聖	-10.0495
通神	-10.05
煞炁	-10.05
眞經	-10.0502
八十	-10.0502
疊	-10.0504
三尸	-10.0507
爲末	-10.0516
翊	-10.0516
太真	-10.0519
四指	-10.0523
卜	-10.0525
縳	-10.0526
他人	-10.0526
軫	-10.0527
爵	-10.0532
臨壇	-10.0533
曷	-10.0533
軄	-10.0535
九壘	-10.0547
天神	-10.0548
行雨	-10.055
虞	-10.0555
青宫	-10.0563
得見	-10.0573
骸	-10.0574
三過	-10.0576
青華	-10.058
於人	-10.0583
聖賢	-10.0584
九州社令	-10.0588
玉光	-10.0589
視之	-10.0591
也此	-10.0597
羅列	-10.0603
冤	-10.0607
狗	-10.0615
董	-10.0616
歘火	-10.0617
一如告命	-10.0617
枕	-10.062
拷	-10.0627
鬼賊	-10.0632
入符中	-10.0636
下丹田	-10.0636
一聲	-10.0645
爲吾	-10.0665
學士	-10.0676
壬癸	-10.0685
建齋	-10.0686
雨澤	-10.0693
金門	-10.0696
斬邪	-10.0697
一遍	-10.0698
猛吏	-10.0699
道前	-10.0703
奠	-10.0703
受命	-10.0708
告行	-10.0709
某甲	-10.0729
破獄	-10.0736
臣聞	-10.0736
天魔	-10.0737
百姓	-10.0745
奉命	-10.0746
四天	-10.0747
煩惱	-10.0758
之物	-10.0759
方便	-10.0763
麻	-10.0763
耳目	-10.0767
人有	-10.0769
不信	-10.0778
元命	-10.0778
嗔	-10.0779
急急奉	-10.078
用此	-10.0781
請進	-10.0787
䘮	-10.0788
淡	-10.0789
大吉	-10.079
逼	-10.0792
佛	-10.0793
日夜	-10.0794
警	-10.0795
奮	-10.0795
仕	-10.0797
攀	-10.0797
譴	-10.0809
正道	-10.0813
徃來	-10.0817
心章	-10.0824
玄科	-10.0828
瓶	-10.0828
八天	-10.0835
元年	-10.0835
子文	-10.0842
太元	-10.0847
告盟	-10.0847
之位	-10.0847
雷令	-10.085
一點	-10.0854
上經	-10.0857
當先	-10.0865
微祝曰	-10.0869
禪	-10.0877
躍	-10.088
帝庭	-10.0883
一心	-10.0884
渾	-10.0885
天闕	-10.0886
寳籙	-10.0887
三百六十	-10.0887
雖有	-10.0891
一旦	-10.0892
奉道	-10.09
一條	-10.0903
直日	-10.0907
乃是	-10.091
朝謁	-10.0914
鑪	-10.0919
忽然	-10.0921
三尊	-10.0928
口吐	-10.0933
宣行	-10.0934
君吏	-10.0936
神丹	-10.0943
千萬	-10.0961
朽	-10.0962
不識	-10.0964
三字	-10.0967
黄書	-10.0967
成眞	-10.0967
擾	-10.0967
厲	-10.097
脱	-10.0974
九氣	-10.0975
婚	-10.0975
漱	-10.0976
寬	-10.098
我今	-10.0985
凡人	-10.0985
賀	-10.0986
南嶽	-10.0987
孔子	-10.0988
到壇	-10.0993
帝敕	-10.0994
十一月	-10.0998
玉清訣	-10.0998
師父	-10.1
五苦	-10.1005
如有	-10.1007
之處	-10.101
虚无	-10.1012
蓮花	-10.1013
地司	-10.1014
群生	-10.1015
復有	-10.1016
心拜	-10.1017
建立	-10.1021
圭	-10.1024
由是	-10.1027
關告	-10.1044
下方	-10.1046
發遣	-10.1049
一百二十人	-10.1051
拒	-10.1063
杵	-10.1063
勉	-10.1064
噀	-10.1064
涉	-10.1065
元始天王	-10.1067
禍福	-10.1073
貴人	-10.1078
時刻	-10.1079
布炁	-10.1082
億劫	-10.1085
依前	-10.1087
雲霧	-10.1089
謹據	-10.1089
雌一	-10.1092
者當	-10.1093
流金火鈴	-10.1095
二十八	-10.1096
无窮	-10.11
與人	-10.1107
礙	-10.1108
般	-10.1114
皆當	-10.1123
九元	-10.1124
一斤	-10.113
腸	-10.1132
祈恩	-10.1135
輕重	-10.1142
伽	-10.1148
曽	-10.1152
婁	-10.1153
升降	-10.1156
叩齒三十六通	-10.1157
大師	-10.1158
愍	-10.1159
緩	-10.1161
翹	-10.1162
萬衆	-10.1165
上界	-10.1169
七玄	-10.1171
皆可	-10.1185
取炁	-10.1186
戊	-10.1189
四季	-10.1194
中出	-10.1201
追魂	-10.1201
百二十	-10.1203
學仙	-10.1208
注生	-10.121
呢	-10.1211
浄	-10.1211
刼	-10.1234
天文	-10.1235
三十六天	-10.1238
噉	-10.1241
萬魔	-10.1244
兩目	-10.1245
觧	-10.1249
㐫	-10.1249
遮	-10.125
即時	-10.1251
蔣	-10.1252
乏	-10.1252
堯	-10.1254
弊	-10.1256
諸將	-10.1262
亦無	-10.1268
合形	-10.1274
召請	-10.1278
甲申	-10.1288
昨	-10.1295
五月	-10.1301
受事	-10.1304
幽魂	-10.1307
不通	-10.131
自此	-10.1313
無礙	-10.1314
太皇	-10.1314
紫清	-10.1318
氛	-10.1333
上達	-10.1335
諭	-10.1339
鹽	-10.1342
歟	-10.1343
陋	-10.1344
跨	-10.1344
褐	-10.1346
轡	-10.1349
炭	-10.1349
喻	-10.135
薪	-10.1352
邈	-10.1353
控	-10.1353
黄金	-10.1355
譬如	-10.1355
丹砂	-10.1359
不相	-10.1359
伏聞	-10.136
歡喜	-10.1361
可得	-10.1364
死者	-10.137
精誠	-10.1372
三道	-10.1374
人心	-10.1377
其形	-10.1377
者以	-10.1383
陽精	-10.1394
風刀	-10.1395
手把	-10.14
丹元	-10.1402
兄	-10.1405
九陽	-10.1409
玉樞	-10.1416
之說	-10.1419
卷一	-10.1422
魒	-10.1423
天樞院	-10.1427
銷	-10.1438
元始一炁萬神雷司	-10.1439
争	-10.1439
散花	-10.1441
擬	-10.1441
紋	-10.1443
無道	-10.1443
攪	-10.1443
嶽瀆	-10.1444
詐	-10.1444
暖	-10.1444
所居	-10.1444
之根	-10.1444
四月	-10.1448
醋	-10.1448
該	-10.1449
妖氛	-10.145
將來	-10.145
真形	-10.1451
勑命	-10.1452
還丹	-10.1455
古人	-10.1456
日用	-10.1458
見其	-10.1463
千二百人	-10.1464
華池	-10.1467
漬	-10.147
玉經	-10.1473
今則	-10.1477
流精	-10.1478
入山	-10.1481
玄天	-10.1482
寳章	-10.1484
陽神	-10.149
甲寅	-10.1492
不覺	-10.1494
九龍	-10.1496
大力	-10.1503
文書	-10.1503
上仙都	-10.1505
之祖	-10.151
二日	-10.1511
玉簡	-10.1521
火獄	-10.1521
不離	-10.1522
召雷	-10.1533
暑	-10.1534
噴	-10.1534
敵	-10.1536
僕	-10.1538
靈書	-10.1539
袋	-10.154
墨書	-10.1541
有人	-10.1541
逥	-10.1544
其餘	-10.1548
玉宸	-10.1554
之主	-10.1559
城隍社令	-10.1563
天王	-10.1565
保舉	-10.1569
伏乞	-10.157
心不	-10.157
九江	-10.1573
神力	-10.1576
章表	-10.1579
芽	-10.1589
盆	-10.1598
洛	-10.1599
者亦	-10.16
眞火	-10.1602
子午	-10.1603
跪	-10.1618
擎	-10.162
九星	-10.1629
便是	-10.1629
恃	-10.1632
卯文	-10.1635
酬	-10.1638
不聞	-10.1638
室主	-10.164
九重	-10.1648
不問	-10.165
頓首	-10.165
)(/)	-10.165
行人	-10.1653
陽雷	-10.1659
以自	-10.166
光芒	-10.1666
焚符	-10.1668
姚	-10.1674
眞司	-10.1683
猷	-10.1685
丹天	-10.1694
南向	-10.1696
九寸	-10.1697
匝	-10.1702
從官	-10.1704
本無	-10.1705
奏告	-10.1715
陞	-10.1722
星斗	-10.1726
𨼆	-10.1727
綿	-10.1729
慈尊	-10.173
騫	-10.1731
无所	-10.1732
恬	-10.1732
三萬六千	-10.1734
寒暑	-10.1739
陟	-10.1741
種種	-10.1744
奚	-10.1748
受持	-10.1748
三關	-10.1753
帝一	-10.1755
符召	-10.1761
東井	-10.1764
不宜	-10.1764
妖邪	-10.1777
北酆	-10.1779
四明	-10.1784
及諸	-10.1791
緯	-10.1799
神氣	-10.1803
四面	-10.1812
捷疾	-10.1815
都天	-10.1818
吾身	-10.182
丹陽	-10.182
未得	-10.1822
湛	-10.1823
陀	-10.1824
妖魔	-10.1824
月孛	-10.1826
焕	-10.1827
郊	-10.1828
天恩	-10.1828
頻	-10.1828
尹	-10.1829
恣	-10.1829
鄉	-10.183
孚	-10.1831
鋪	-10.1831
須㬰	-10.1832
𢘆	-10.1833
匪	-10.1835
弼	-10.1836
仙都	-10.1838
耕	-10.1838
蠻雷	-10.1843
三途	-10.1848
即日	-10.1849
天章	-10.185
殺伐	-10.185
有餘	-10.1851
急捉	-10.1852
丁巳	-10.1856
壬	-10.1867
天台	-10.1869
外道	-10.1874
冠衣	-10.1889
治在	-10.189
而至	-10.1899
咽液	-10.19
而來	-10.1905
枚	-10.1909
磬	-10.1916
十極	-10.1919
禮拜	-10.192
入水	-10.1924
逕	-10.1927
不止	-10.1927
以手	-10.1928
澗	-10.1931
與道合眞	-10.1932
別	-10.1933
之書	-10.1933
儲	-10.1934
材	-10.1935
修真	-10.1935
黄衣	-10.1939
血湖	-10.1941
教主	-10.1943
炁一口	-10.1944
之科	-10.1944
香花	-10.1945
清明	-10.1945
九府	-10.1962
仙童	-10.1963
佩帶	-10.1963
然燈	-10.1974
受經	-10.1978
自非	-10.1985
五氣	-10.1986
日光	-10.199
垣	-10.1991
其上	-10.1993
絹	-10.2009
捷	-10.2011
燥	-10.2014
惱	-10.202
每日	-10.2022
仙公	-10.2023
○	-10.2028
牧	-10.2028
秩	-10.2029
字號計十一卷	-10.203
之家	-10.203
常存	-10.2032
周流	-10.2038
團	-10.2041
應化	-10.2041
魅	-10.2051
四象	-10.2056
天帝君	-10.2057
門户	-10.2057
進退	-10.2065
一曰	-10.2067
十九	-10.2067
雲中	-10.2069
來迎	-10.207
合行	-10.2074
葬	-10.2079
七年	-10.2083
庶使	-10.2085
若干	-10.2088
真誥	-10.2088
出行	-10.2088
喧	-10.209
又以	-10.2097
喉	-10.2103
出筆	-10.2103
昇入	-10.2104
與我	-10.2108
上靈	-10.2113
火雷	-10.2118
魔鬼	-10.2119
大魔	-10.2122
地上	-10.2123
别有	-10.2124
衍	-10.213
身長	-10.213
安鎭	-10.2131
减	-10.2134
㝷	-10.2135
甫	-10.2135
脂	-10.2136
壤	-10.2137
鄕	-10.2139
修眞	-10.2142
以至	-10.2145
巫	-10.2155
境界	-10.216
隨吾	-10.216
上中下	-10.2161
雷祖	-10.2163
立至	-10.2167
上告	-10.2169
泉曲	-10.2174
上通	-10.2174
一二	-10.2176
煉度	-10.218
尸解	-10.2183
煑取	-10.2192
大王	-10.2192
天樞	-10.2194
玉闕	-10.2196
金簡	-10.2197
此爲	-10.2205
妨	-10.2206
得仙	-10.2213
金虎	-10.2214
雄黄	-10.2216
明日	-10.2221
隅	-10.2222
尖	-10.2222
火燒	-10.2227
成仙	-10.2228
低	-10.2228
幢	-10.2229
麽	-10.2231
抽	-10.2238
驅除	-10.2238
通天	-10.224
金木	-10.2241
五寸	-10.2242
芬	-10.2242
敕煞攝	-10.2246
五年	-10.2253
皈命	-10.2255
百病	-10.2261
名書	-10.2265
原赦	-10.2266
神水	-10.2266
今據	-10.2267
亢	-10.2273
功過	-10.2276
踏	-10.2278
碧玉	-10.2279
道成	-10.2281
神鬼	-10.2283
飲之	-10.2289
往來	-10.2294
太華	-10.2295
受法	-10.2296
玄黄	-10.2302
第十	-10.2303
伏望	-10.2304
火雲	-10.2309
萬邪	-10.231
之徒	-10.2311
青詞	-10.2314
一通	-10.2314
圓光	-10.2317
不從	-10.2328
揺	-10.2333
吁	-10.2334
玄玄	-10.2337
月華	-10.2337
降靈	-10.2337
特賜	-10.2338
哭	-10.2338
而退	-10.2339
零	-10.234
下情無任	-10.2343
泯	-10.2343
蔚	-10.2345
𩓑	-10.2347
三天門下	-10.2351
延壽	-10.2354
是謂	-10.2355
又名	-10.2355
誦呪	-10.2355
行壇	-10.2356
紫光	-10.2357
傅之	-10.2361
曰子	-10.2362
掣電	-10.2364
御史	-10.2365
頃	-10.2366
護身	-10.2367
四司	-10.2367
領兵	-10.237
四維	-10.237
白鶴	-10.2372
錢馬	-10.2377
非人	-10.2381
日月星辰	-10.2381
魂神	-10.2391
服符	-10.2398
筵	-10.2404
荆	-10.2405
其炁	-10.2418
云何	-10.2424
然而	-10.2428
玉眞	-10.2428
之司	-10.243
琅	-10.2433
訴	-10.2435
勑攝	-10.2437
飛符	-10.2439
亦得	-10.244
箭	-10.2441
㧞度	-10.2443
雀	-10.2443
腥	-10.2445
內	-10.2446
憎	-10.2446
聽令	-10.2448
掛	-10.2448
𥙷	-10.2449
辦	-10.245
衣服	-10.245
讓	-10.2452
萬炁	-10.2457
猛將	-10.2458
景霄	-10.2466
玄眞	-10.2466
命魔	-10.2468
高眞	-10.2469
祭酒	-10.2471
洞靈	-10.2472
十年	-10.2475
法服	-10.2475
人鬼	-10.2478
皆以	-10.2479
國土	-10.2485
隨時	-10.2488
符法	-10.2488
守真	-10.2488
謝恩	-10.2502
十萬人	-10.2502
九清	-10.2502
之義	-10.2504
靈飛	-10.2509
曰我	-10.2512
授以	-10.2516
咭	-10.2517
無心	-10.2531
二儀	-10.2532
闢	-10.254
祅	-10.2548
鎻	-10.2549
雍	-10.255
翅	-10.255
斥	-10.2552
阜	-10.2552
欝	-10.2552
而得	-10.2554
扣	-10.2555
匿	-10.2555
嗟	-10.2556
五嶽四瀆	-10.2557
流鈴	-10.2567
金童	-10.2574
替	-10.2576
貨	-10.2582
飛玄	-10.2585
不忘	-10.2588
一口	-10.2595
某日	-10.2602
生魂	-10.2602
更相	-10.2603
各一	-10.2607
到處	-10.2608
痊	-10.2611
之源	-10.2613
冬至	-10.2619
於天	-10.2621
與天	-10.2622
普濟	-10.2622
下部	-10.2624
之㫖	-10.2624
隱書	-10.2628
祕法	-10.263
宻呪	-10.2632
赤天	-10.2635
生氣	-10.2637
憐	-10.2637
僊	-10.2638
玄虚	-10.264
不傳	-10.264
方函	-10.2641
飽	-10.2642
第二十	-10.2643
臘	-10.2653
神仙傳	-10.2655
侍宸	-10.2655
紫府	-10.2656
偉	-10.2657
懺	-10.2658
匡	-10.2659
志心	-10.2659
勃	-10.266
仗劒	-10.266
恪	-10.2661
者右	-10.2663
殷	-10.2664
有命	-10.2664
戒者	-10.2665
至此	-10.2667
邁	-10.2668
惡人	-10.2668
匣	-10.2668
畧	-10.2669
謝過	-10.2673
百年	-10.2673
主法	-10.2674
頂上	-10.2676
衢	-10.2683
五人	-10.27
統攝	-10.2707
有心	-10.2711
符文	-10.2712
台	-10.2716
朱衣	-10.2718
右足	-10.2722
照耀	-10.2726
通明	-10.273
掃蕩	-10.2737
急召	-10.2741
帀	-10.2742
巽方	-10.2745
當境	-10.2757
九道	-10.2761
寥	-10.2765
謗	-10.2766
掃除	-10.2767
嘆	-10.2768
倘	-10.2768
鄙	-10.2769
獅子	-10.277
藍	-10.277
瓜	-10.277
罄	-10.2773
巽户	-10.2773
鑄	-10.2774
空五寸篆符	-10.2774
神眞	-10.2776
靈應	-10.2776
五通	-10.2777
撼	-10.2777
祚	-10.2782
巳身	-10.2784
主人	-10.2787
碧落	-10.2788
本法	-10.2792
任意	-10.2798
朝眞	-10.2798
甲戌	-10.2806
唵吽	-10.2807
靈寳大法	-10.2808
隨方	-10.2808
吞服	-10.2809
人能	-10.2809
名字	-10.2817
地戸	-10.282
齋主	-10.2821
邦	-10.2821
主收	-10.2822
一氣	-10.2828
咒曰	-10.2834
承誥奉行	-10.2837
不可以	-10.2838
上帝勑	-10.2847
龜山	-10.2848
八字	-10.2862
四兩	-10.2862
飲酒	-10.2865
不然	-10.287
婚姻	-10.2871
离	-10.2875
元辰	-10.2876
日時	-10.2876
瞑目	-10.2876
征	-10.2877
姿	-10.2877
忱	-10.2878
偃	-10.2879
捕盗	-10.2879
者有	-10.2879
粟	-10.2884
僣	-10.2884
蘂	-10.2887
天一	-10.2892
東海	-10.2893
接引	-10.2905
之象	-10.2905
大仙	-10.2907
昊	-10.2908
玄中	-10.2912
場	-10.2924
上至	-10.2926
五府	-10.2931
仙翁	-10.2931
乃得	-10.2932
胎息	-10.2937
厨	-10.2939
聖母	-10.2941
戾	-10.2955
崩	-10.2955
謹按	-10.2956
敕呪	-10.2958
真官	-10.2961
河海	-10.2968
之路	-10.2972
在乎	-10.2974
壇所	-10.2974
玉籙	-10.2975
符一道	-10.2975
册	-10.2977
革	-10.2981
下臨	-10.2984
足以	-10.2985
剥	-10.2985
買	-10.2989
朴	-10.2989
遽	-10.2989
甲辰	-10.299
迫	-10.299
換	-10.2991
畔	-10.2992
碑	-10.2992
襲	-10.2992
扵	-10.2993
中央黄	-10.2994
召呪	-10.3001
金玉	-10.3006
玄中大法師	-10.301
猶如	-10.3015
奎	-10.302
之教	-10.3025
三田	-10.3027
靈壇	-10.3028
水雷	-10.3031
不拘	-10.3031
爲害	-10.3052
故能	-10.3053
苦爽	-10.306
熒惑	-10.3062
若是	-10.3063
祕呪	-10.3063
帝命	-10.3066
副將	-10.307
二分	-10.3071
書名	-10.3073
砂	-10.3076
上應	-10.308
玉堂	-10.3086
行遣	-10.3088
江河	-10.3089
豁	-10.3089
哪	-10.309
淹	-10.3092
之聲	-10.3093
幼	-10.3095
禮謝	-10.3097
薩	-10.3099
醒	-10.31
地官	-10.31
粗	-10.3103
屢	-10.3104
舜	-10.3106
皆由	-10.3106
采	-10.3106
光照	-10.3106
貽	-10.3106
苗	-10.3107
有三	-10.3107
兔	-10.3109
莫測	-10.3109
雷霆都司	-10.3111
開天門	-10.3117
離宫	-10.3117
樞機	-10.3119
朱履	-10.3125
三色	-10.3131
萬福	-10.314
無間	-10.3142
何處	-10.3143
八素	-10.3144
六府	-10.3148
大德	-10.3149
居中	-10.315
午時	-10.3151
雲篆	-10.3151
仙眞	-10.3153
能知	-10.3159
於道	-10.3162
天書	-10.3164
依式	-10.3165
玉皇上帝	-10.3167
三品	-10.3167
奉爲	-10.3169
青雲	-10.318
敢不	-10.3186
得一	-10.3188
玄關	-10.3194
亞	-10.3197
蠱	-10.32
匠	-10.32
琳	-10.3203
介	-10.3208
不絶	-10.3211
鱗	-10.3212
㓕	-10.3212
徵	-10.3213
罹	-10.3214
貢	-10.3215
緘	-10.3215
菜	-10.3216
赫奕	-10.3218
淸	-10.3218
灼	-10.3219
馮	-10.3219
靄	-10.322
泰玄都省	-10.3222
出官	-10.3223
庚辛	-10.3223
寵	-10.3223
縱横	-10.3224
酉文	-10.3225
所得	-10.323
靈寳天尊	-10.3237
養生	-10.3239
赫赫	-10.3241
成真	-10.3241
幽關	-10.3242
作一	-10.3247
禹步	-10.3249
有無	-10.3251
萬道	-10.3253
符於	-10.3255
□□□	-10.3256
救度	-10.3259
受錬	-10.326
皇天	-10.3267
卷一之十	-10.3272
中文	-10.3272
東方青	-10.3272
真王	-10.3275
告命	-10.3275
上願	-10.328
萬萬	-10.3297
念呪曰	-10.3301
即與	-10.3302
解穢	-10.3306
辰文	-10.3307
祇	-10.3315
太保	-10.332
捻	-10.3326
或以	-10.3327
弄	-10.3327
析	-10.3327
狼	-10.3328
人天	-10.3331
疏	-10.3331
薰	-10.3331
邀	-10.3332
屠	-10.3333
緒	-10.3333
伊	-10.3333
斑	-10.3333
寛	-10.3334
之曰	-10.3335
乾薑	-10.3336
鬚	-10.3337
壑	-10.3337
不得妄	-10.334
帬	-10.3344
悔過	-10.3348
二符	-10.3355
神咒	-10.3363
平旦	-10.3363
妙化	-10.3366
祈求	-10.3372
紫晨	-10.3377
十餘	-10.3378
謹爲	-10.339
不停	-10.3391
終不	-10.3392
直上	-10.3398
壇中	-10.3399
運用	-10.34
河源	-10.3402
侍衞	-10.3403
邪神	-10.3408
方位	-10.3411
青玄	-10.3412
□(	-10.3417
擲火	-10.3418
服色	-10.3421
啓奏	-10.3422
乘雲	-10.3425
爲先	-10.3429
帝尊	-10.3429
在此	-10.343
咄	-10.3435
月中	-10.3442
忽見	-10.3444
右手執	-10.3445
撥	-10.3445
酸	-10.3445
債	-10.3446
换	-10.3446
髻	-10.3446
魁𩲃𩵄䰢魓𩳐魒	-10.3447
希夷	-10.3448
甦	-10.3448
炎帝	-10.3448
懽	-10.345
摽	-10.345
立便	-10.3451
鴈	-10.3451
踐	-10.3452
築	-10.3452
搏	-10.3452
宵	-10.3453
申奏	-10.3453
七炁	-10.3457
大魔王	-10.3458
呪唵	-10.3458
罡風	-10.3461
一十二	-10.3468
或爲	-10.3481
都畢	-10.3485
後人	-10.3491
從此	-10.3493
昇玄	-10.3494
百萬	-10.3496
勑召	-10.3499
百里	-10.3502
大元帥	-10.3503
所至	-10.3504
之官	-10.3506
之𩔖	-10.3509
貺	-10.3517
白衣	-10.3523
无爲	-10.3523
豆	-10.3528
施用	-10.3529
召役	-10.3532
之道也	-10.3533
玄母	-10.3535
眞一	-10.3535
真一	-10.3536
太虛	-10.3536
玉章	-10.3539
雲雨	-10.3544
經師	-10.3544
疰	-10.3558
求仙	-10.3559
廕	-10.3563
漫	-10.3565
熙	-10.3565
駭	-10.3565
去滓	-10.3566
一切衆生	-10.3566
哺	-10.3568
闔	-10.3568
化作	-10.3568
身體	-10.3569
廬山	-10.3571
鄰	-10.3573
昊天玉皇上帝	-10.3577
不息	-10.3579
所求	-10.3579
骨肉	-10.358
召之	-10.3582
救濟	-10.3584
吐納	-10.3585
雷震	-10.3588
夫妻	-10.3588
靈靈	-10.3596
仙階	-10.3599
右呪	-10.3599
不知其	-10.36
父毋	-10.36
死魂	-10.3611
色如	-10.3621
寳文	-10.3626
女人	-10.3628
天符	-10.3628
熾	-10.3629
即便	-10.3635
其有	-10.3636
丁卯	-10.3639
道路	-10.3648
勑呪	-10.3648
相合	-10.3649
帝勑	-10.3649
行法	-10.3653
一方	-10.3661
國王	-10.3671
世俗	-10.3672
寺	-10.3674
伍	-10.3675
尼	-10.3681
肥	-10.3683
頃刻	-10.3685
幹	-10.3686
制魔	-10.3686
勅	-10.3686
遞	-10.3687
靈寳大法司	-10.3687
洽	-10.3687
白日昇天	-10.3688
七宿	-10.3688
勵	-10.3688
慧光	-10.3689
濫	-10.3691
保生	-10.3691
未至	-10.3692
至今	-10.3694
臣某承誥奉行	-10.3694
黄紙	-10.3702
降下	-10.3702
今來	-10.3716
申狀	-10.372
有道	-10.3724
驅雷	-10.3727
古者	-10.3729
無方	-10.3733
歩綱	-10.3734
嘘	-10.3737
鬼魅	-10.3737
應干	-10.3738
丑時	-10.374
心無	-10.3745
步罡	-10.3747
亡過某	-10.3747
和氣	-10.3749
通玄	-10.3756
近世	-10.3769
百靈	-10.3784
羣生	-10.3786
柄	-10.3788
兩腎	-10.3794
尚書	-10.3794
踰	-10.3796
呬	-10.3801
籠	-10.3805
戊己	-10.3805
縈	-10.3806
播	-10.3807
拭	-10.3807
虎狼	-10.3807
漂	-10.3808
朱砂	-10.381
謫	-10.3811
鑿	-10.3812
廣成先生	-10.3813
益筭	-10.3815
妙法	-10.3819
如式	-10.382
之若	-10.3821
二寸	-10.3842
先存	-10.3844
過度	-10.3845
言語	-10.3846
黒帝	-10.3851
之形	-10.3853
左手掐	-10.386
青面	-10.3864
衆官	-10.3865
時有	-10.3866
炎炎	-10.3872
庚申	-10.3874
先亡	-10.388
靜坐	-10.3884
洞徹	-10.3887
開悟	-10.3888
謹狀	-10.3889
令行	-10.39
流布	-10.3902
南方赤	-10.3906
化身	-10.3906
做	-10.3918
幅	-10.3919
濛	-10.3922
餅	-10.3924
挑	-10.3928
明科	-10.3929
膠	-10.393
坦	-10.3931
諒	-10.3932
塊	-10.3933
符用	-10.3935
在上	-10.3937
侵害	-10.3939
律令勑	-10.394
道塲	-10.394
先師	-10.3942
諸仙	-10.3944
飛歩	-10.3948
所願	-10.395
司命君	-10.3952
小人	-10.3954
所用	-10.3955
手足	-10.3958
斗訣	-10.3962
命門	-10.3965
河魁	-10.3966
袖	-10.3969
十卷	-10.3971
齋事	-10.3971
上帝敕	-10.3972
炁合	-10.3972
金石	-10.3973
龍漢	-10.3978
諷	-10.3979
豉	-10.3983
北斗七星	-10.3984
二指	-10.3984
自稱	-10.3986
紫陽	-10.3999
𡄦	-10.4003
山魈	-10.4005
握固	-10.4008
青童	-10.4014
正眞	-10.4016
統兵	-10.4021
寳光	-10.4022
嵩	-10.403
章師曰	-10.4034
狐	-10.4035
謹具	-10.4037
羽衣	-10.4038
洞府	-10.4038
飛升	-10.4042
敎	-10.4043
雷君	-10.4045
三尺	-10.4045
霐	-10.4047
憶	-10.4047
麟	-10.4047
弦	-10.4048
室中	-10.4048
較	-10.4048
二十一	-10.405
謾	-10.4052
四肢	-10.4055
一物	-10.4057
聞吾	-10.4057
淩	-10.4058
經文	-10.4058
九拜	-10.4058
天蓬元帥	-10.406
騎吏	-10.4062
風雲雷雨電	-10.4063
祕之	-10.4066
降伏	-10.4068
服氣	-10.4074
懴謝	-10.4074
降眞	-10.4074
年月	-10.4077
左手執	-10.4079
甘草	-10.4079
所請	-10.4082
髙真	-10.4083
萬事	-10.4087
當時	-10.4087
而立	-10.4091
呪塗	-10.4093
西方白	-10.4093
雲宫	-10.4096
白素	-10.4097
爾時天尊	-10.4099
稽首再拜	-10.4099
陽炁	-10.4099
上部	-10.4103
修奉	-10.4105
黄華	-10.4113
斗星	-10.4114
流霞	-10.4115
承受	-10.4122
天皇大帝	-10.4123
睿	-10.4126
必須	-10.4127
具奏	-10.4133
三晨	-10.4134
如雲	-10.4136
手持	-10.4137
萬遍	-10.4138
六宫	-10.4142
無復	-10.4149
雲炁	-10.4152
常行	-10.4153
聦	-10.4155
公曰	-10.4155
吉日	-10.4156
非常	-10.4159
關啓	-10.4168
殁	-10.4172
九天之	-10.4173
𢹂	-10.4173
遶	-10.4175
賫	-10.4175
眠	-10.4177
曰汝	-10.4177
咬	-10.4177
湘	-10.4179
神室	-10.4185
聚形	-10.4185
之符	-10.4187
見形	-10.419
則不	-10.4192
錦帔	-10.4194
無名	-10.4195
日精	-10.4195
請命	-10.4197
付度	-10.4198
且如	-10.4215
上士	-10.4222
道也	-10.4224
雷兵	-10.4229
符章	-10.4232
而行之	-10.4239
滅亡	-10.424
金籙	-10.424
欲求	-10.4241
大定	-10.4242
太初	-10.4248
陰日	-10.425
允中	-10.4252
罪業	-10.4253
五百	-10.4254
於心	-10.426
不安	-10.4262
不解	-10.4274
青靈	-10.4279
並同	-10.4279
闇	-10.428
之信	-10.4285
諸靈官	-10.4286
難可	-10.4287
黑煞	-10.4291
幘	-10.4293
善男子	-10.4293
𡖖	-10.4294
奕	-10.4294
餐	-10.4298
饒	-10.4299
貯	-10.4299
訛	-10.4305
速出	-10.4305
㦸	-10.4306
譽	-10.4307
萬變	-10.4308
衮	-10.4308
丕	-10.4309
都督	-10.431
開化	-10.4313
害人	-10.4314
杳冥	-10.4314
六洞	-10.432
上徹	-10.4321
聦明	-10.4323
故也	-10.4331
道力	-10.4335
九品	-10.4338
行移	-10.434
登眞	-10.4341
五穀	-10.4343
邪巫	-10.4345
有此	-10.4349
微塵	-10.4353
永保	-10.4357
是何	-10.4362
頒行	-10.4365
引進	-10.4367
鈞	-10.4369
流水	-10.4379
東炁	-10.4381
大丹	-10.4384
家國	-10.4388
九泉	-10.4391
太上洞玄靈寳	-10.4391
此理	-10.4392
所說	-10.4392
太山	-10.4395
陛	-10.4401
眞武	-10.4403
數十	-10.4404
淮	-10.4404
驅邪	-10.442
釣	-10.4422
抛	-10.4425
衆魂	-10.4426
䕃	-10.4426
悶	-10.4429
製	-10.4431
破軍	-10.4431
轅	-10.4431
西北方	-10.4432
後有	-10.4433
符圖	-10.4436
拜上	-10.4436
祀典	-10.4437
祭祀	-10.4439
之極	-10.4439
漸漸	-10.4441
具狀	-10.4443
通達	-10.4445
一尺	-10.4447
鐵面	-10.4449
來降	-10.4452
玉音	-10.4458
火龍	-10.4462
嶽府	-10.4467
心火	-10.4468
七徧	-10.4473
有違	-10.4473
靈寳大法司牒上	-10.4478
符吏	-10.4481
東方青帝	-10.4482
此二	-10.4483
兄弟	-10.4484
五體	-10.4491
好道	-10.4491
上造	-10.4492
水池	-10.4496
之訣	-10.4497
爲天	-10.4498
火府	-10.4505
治卒	-10.4506
在心	-10.4506
此時	-10.4507
仙曹	-10.4508
嗚	-10.451
紫極	-10.451
八威	-10.4512
遵奉	-10.4513
甘雨	-10.4521
南方火	-10.4526
八道	-10.4527
昭報	-10.4529
蕃	-10.453
几	-10.4537
雷法	-10.4539
哆	-10.4544
上品妙經	-10.4545
五分	-10.4548
在我	-10.4549
冥冥	-10.4549
眞道	-10.455
魓	-10.455
遵依	-10.4551
者處斬	-10.4552
䧟	-10.4552
上宰	-10.4553
聾	-10.4554
忿	-10.4554
所向	-10.4555
釁	-10.4555
摇	-10.4556
泠	-10.4556
價	-10.4558
藹	-10.4558
紛紛	-10.4558
滴	-10.4559
耿	-10.4561
漆	-10.4561
社稷	-10.4561
𧇊	-10.4562
教法	-10.4563
勑煞攝	-10.4564
鈎	-10.4565
柯	-10.4565
畢又	-10.4566
冶	-10.4566
之師	-10.4566
誘	-10.4567
眇	-10.4567
晨夕	-10.4571
其方	-10.4575
奏申	-10.4575
鬼官	-10.4576
赤明	-10.4577
下入	-10.4579
蕩蕩	-10.4582
不至	-10.4583
復爐	-10.4583
不負	-10.4584
本壇	-10.4585
九光	-10.4588
羽蓋	-10.459
居之	-10.4592
疫癘	-10.4592
和平	-10.4594
修道	-10.4598
金水	-10.4598
符上	-10.4601
並用	-10.4601
人世	-10.4607
三部	-10.4615
冥司	-10.4622
者可	-10.4623
區	-10.4623
罪魂	-10.4628
在人	-10.4633
復連	-10.4635
自得	-10.4644
無常	-10.4646
邪崇	-10.4649
哩	-10.4649
之愆	-10.465
風吹	-10.4658
在吾	-10.4661
之化	-10.4669
今爲	-10.467
即得	-10.4671
彦	-10.4675
疾疾	-10.4677
即爲	-10.4678
與神	-10.4681
天府	-10.4685
軌	-10.4685
賓	-10.4686
符篆	-10.4687
喬	-10.4687
喫	-10.4688
驕	-10.4688
冠帶	-10.469
正中	-10.469
𫝊	-10.4691
庫	-10.4692
鬼門	-10.4692
噓	-10.4692
怡	-10.4694
古法	-10.4696
歆	-10.4696
赦宥	-10.4696
爲此	-10.4697
矧	-10.4697
頼	-10.4697
敦	-10.4698
貴賤	-10.4698
朝廷	-10.4698
而入	-10.4701
表裏	-10.4706
遊宴	-10.4706
長齋	-10.4707
天威	-10.4709
金眞	-10.4711
之力	-10.4713
四瀆	-10.4719
少陽	-10.4721
侍從	-10.4723
六通	-10.4724
策役	-10.4727
瘟疫	-10.4727
十方三界	-10.4733
立壇	-10.4739
導引	-10.4739
我之	-10.4746
追捉	-10.4756
過止	-10.4765
即以	-10.4771
於世	-10.4771
向北	-10.4782
獄中	-10.4784
超昇	-10.4793
附子	-10.4793
森	-10.4796
解除	-10.4799
豈可	-10.4799
國家	-10.4801
榖	-10.4803
超生	-10.4804
終身	-10.4805
西山	-10.4806
天魔王	-10.4808
即賜	-10.481
成道	-10.4813
腹中	-10.4814
侣	-10.4814
之學	-10.4815
災厄	-10.4816
渴	-10.4817
急急如高上神霄玉清眞王律令	-10.4818
閱	-10.4821
泣	-10.4822
醴	-10.4822
潰	-10.4823
道經	-10.4824
綿綿	-10.4825
伺候	-10.4825
夾	-10.4826
剖	-10.4828
椒	-10.4828
汪	-10.4829
靈神	-10.4832
廉貞	-10.4833
具位姓某	-10.4834
追䰟	-10.4845
諸方	-10.4848
破廟	-10.4848
萬聖	-10.4851
黒書	-10.4862
開光	-10.4866
不合	-10.4868
明皇	-10.4875
雲輿	-10.4876
燒之	-10.4877
白玉	-10.4883
煞鬼	-10.4886
經同卷	-10.4887
次以	-10.4891
兇惡	-10.4891
只今	-10.4891
三十九	-10.4896
相傳	-10.4901
百鬼	-10.4902
者不得	-10.4907
文曲	-10.4907
伏地	-10.491
色界	-10.4911
孽	-10.4911
古之	-10.4914
里社	-10.4915
而自	-10.4919
師友	-10.492
西王母	-10.4925
中篇	-10.4925
平坐	-10.4926
即愈	-10.4926
守之	-10.4927
書篆	-10.4927
莫能	-10.4931
此皆	-10.4935
急降	-10.4936
不食	-10.4937
慎之	-10.4937
肘	-10.4942
而不知	-10.4946
吼	-10.4949
下土	-10.495
戈	-10.4951
奉請	-10.4952
薛	-10.4952
釘	-10.4956
揖	-10.4958
䑓	-10.4959
年月日具位	-10.496
不測	-10.496
襟	-10.496
盲	-10.4961
馨	-10.4962
弓	-10.4962
玊	-10.4962
運動	-10.4962
決	-10.4964
䂓	-10.4968
擣	-10.4968
陞壇	-10.4971
紫微大帝	-10.4971
吽吽	-10.4973
若無	-10.4973
生薑	-10.498
三獻	-10.4981
財物	-10.4981
孤魂	-10.4982
刀兵	-10.4982
虛空	-10.4984
火令	-10.4995
掌獄靈官	-10.4998
東北方	-10.4999
三合	-10.5
赤色	-10.5
在後	-10.5013
豈能	-10.5013
者爲	-10.5014
散形	-10.5015
洞中	-10.5017
八將	-10.5019
者非	-10.5021
修身	-10.5021
所載	-10.5024
晏	-10.5024
其功	-10.5036
魔精	-10.5045
玄真	-10.5052
相生	-10.5053
黑霧	-10.5053
百關	-10.5064
黄老	-10.507
一片	-10.5071
辰星	-10.5073
圈	-10.5076
記名	-10.5079
靈驗	-10.5082
掣	-10.5087
一面	-10.5087
誇	-10.509
至人	-10.509
鑚	-10.5091
醮儀	-10.5092
北炁	-10.5093
恢	-10.5094
黄雲	-10.5094
栢	-10.51
合用	-10.5102
以其	-10.5108
誦詠	-10.5108
飮	-10.5109
之首	-10.5109
徹視	-10.5111
隂陽之	-10.5115
炁入符	-10.5118
頒降	-10.512
周旋	-10.5126
闕下	-10.5127
青絲	-10.5134
則無	-10.5135
有五	-10.5136
千人	-10.5139
嗣法	-10.5148
天猷	-10.5149
城隍主者	-10.5149
虚書	-10.5152
一大	-10.5157
福地	-10.5163
魍魎	-10.5169
勑符呪	-10.5171
浮雲	-10.5172
凡夫	-10.5173
威猛	-10.5174
七曜	-10.5174
吾道	-10.5175
此則	-10.5183
噐	-10.5185
火速	-10.5186
九獄	-10.5186
蠲	-10.5187
不肯	-10.5187
萬年	-10.5189
咽之	-10.5196
左目	-10.5198
凡遇	-10.5199
師尊	-10.5199
相應	-10.5204
靈仙	-10.5204
香爐	-10.5205
宫主	-10.521
十二時	-10.5211
要訣	-10.5217
者即	-10.5222
大如	-10.5222
鬼道	-10.5224
醮筵	-10.5225
雲車	-10.5225
有敕	-10.5226
東南方	-10.5228
霹	-10.523
如干	-10.523
其日	-10.523
閭	-10.5231
璽	-10.5233
君一人官將一百二十人治	-10.5233
洎	-10.5233
小兆	-10.5233
縫	-10.5234
袁	-10.5236
而作是言	-10.5237
通用	-10.5237
冐	-10.5238
五雷使者	-10.5239
忠孝	-10.524
不降	-10.524
綺	-10.5241
科法	-10.5248
男子	-10.5248
以次	-10.5249
斗柄	-10.5253
慎勿	-10.5253
公訟	-10.526
牛馬	-10.5261
長生不死	-10.5261
仁義	-10.5262
劒訣	-10.5266
疊書	-10.5268
四直	-10.5268
催生	-10.5269
之號	-10.5274
當日	-10.5279
俯仰	-10.5282
至期	-10.5291
伐惡	-10.5296
星宫	-10.5298
文章	-10.5302
下鬼	-10.5302
受者	-10.5305
夜光	-10.531
戟	-10.5319
縛鬼	-10.5321
忤	-10.5332
至聖	-10.5334
在内	-10.5336
天目	-10.534
不盡	-10.5343
烈火	-10.5346
塡	-10.5347
罪咎	-10.5349
火星	-10.5365
回向	-10.5366
自然之	-10.5366
鉢	-10.5366
义	-10.5367
吊	-10.5368
足躡	-10.5369
中部	-10.5371
普天	-10.5372
又方治	-10.5372
賣	-10.5373
駐劄	-10.5374
上卿	-10.5375
脊	-10.5376
乍	-10.5376
窟	-10.5376
地雷	-10.5377
纓	-10.5378
叩齒十二通	-10.5378
度人經	-10.5379
核	-10.5379
朝奏	-10.538
安樂	-10.538
汙	-10.5381
是名	-10.5382
蹈	-10.5382
廣大	-10.5384
三轉	-10.5385
驅邪院	-10.5387
法門	-10.5387
今月某日	-10.5388
孤䰟	-10.539
灌注	-10.5393
救治	-10.5394
服藥	-10.5396
則是	-10.5399
心神	-10.5401
服食	-10.5403
蕩除	-10.5406
姓某承誥奉行	-10.5406
大風	-10.5423
其名	-10.5426
重隂	-10.5431
大煞	-10.5432
倦	-10.5434
故以	-10.5438
今月	-10.5441
醮官某	-10.5441
諦	-10.5441
以道	-10.5443
急急如上帝律令	-10.5446
常當	-10.5448
有司	-10.5449
謄	-10.5449
星光	-10.5453
俄	-10.5455
其色	-10.5457
純陽	-10.546
典者	-10.5461
太守	-10.547
形體	-10.547
自身	-10.5478
洞元	-10.5482
令得	-10.5482
乗空	-10.5485
助吾	-10.5489
不自	-10.5491
丞	-10.5497
隨符	-10.5497
血食	-10.5498
皇上	-10.5498
使者符	-10.5501
不違	-10.5501
北極紫微大帝	-10.5501
狂風	-10.5501
戍	-10.5506
其實	-10.5506
欵	-10.5509
符誥	-10.5509
嵗	-10.5512
地下	-10.5513
制伏	-10.5516
等事	-10.5516
紹	-10.5517
縮	-10.5518
簫	-10.5521
惶	-10.5521
莽	-10.5521
不可思議	-10.5521
健	-10.5521
寔	-10.5523
棺	-10.5524
九隂	-10.5525
矯	-10.5526
𠔃	-10.5529
先天一炁	-10.553
喝云	-10.5531
屑	-10.5533
北斗七元	-10.5533
噀水	-10.5537
裘	-10.554
幽爽	-10.5541
飛神	-10.5542
紫元	-10.5543
攝赴	-10.5544
真師	-10.5546
五岳	-10.5551
大力天丁	-10.5555
一箇	-10.5556
二斗	-10.5556
元始上帝	-10.5556
八難	-10.5558
白簡	-10.5559
所召	-10.5561
關奏	-10.5564
金銀	-10.5564
蠻	-10.5565
太子	-10.5566
福慶	-10.5572
内觀	-10.5576
死籍	-10.5579
幽䰟	-10.5579
求之	-10.558
中國	-10.5582
願得	-10.5582
治病功曹	-10.5588
九過	-10.5592
黃帝	-10.5593
書畢	-10.5594
患家	-10.5597
壬寅	-10.56
數也	-10.5607
升天	-10.5607
濟物	-10.5616
眞宰	-10.5618
面北	-10.5619
滅魔	-10.562
南北	-10.5622
山水	-10.5623
上請	-10.5623
魈	-10.5624
酆	-10.5625
如常	-10.5633
綬	-10.5634
上三天	-10.5635
却以	-10.5637
案判官地府管	-10.5639
成形	-10.5639
生身	-10.5647
霽	-10.5648
杳	-10.5648
玄師	-10.5649
下至	-10.565
故炁	-10.5651
黎	-10.5652
仍乞	-10.5654
面東	-10.5655
簪	-10.5656
皁	-10.5657
淋	-10.5657
段	-10.5658
霖	-10.5659
氐	-10.5659
滛	-10.5661
辜	-10.5661
殟	-10.5663
痾	-10.5663
讎	-10.5663
蔡	-10.5664
一下	-10.5665
亡過某等	-10.5665
並與	-10.5666
飡	-10.5666
快樂	-10.5666
慚	-10.5667
穆	-10.5668
鼔	-10.5668
九晨	-10.5668
祈禳	-10.5671
天罡大聖	-10.5671
聊	-10.5671
羣魔	-10.5677
掌握	-10.5677
丁丑	-10.5679
長七寸	-10.5679
蛟龍	-10.568
考校	-10.5681
大明	-10.5684
若非	-10.5685
終始	-10.5688
其言	-10.5692
斗口	-10.5696
始生	-10.5697
北海	-10.5697
兩足	-10.5698
普告	-10.5701
西華	-10.5709
閃電	-10.5709
眞師	-10.5717
生門	-10.5718
敕召	-10.5719
所指	-10.5721
所出	-10.5729
明月	-10.5739
有情	-10.5742
凶惡	-10.5747
虛皇	-10.5749
齋醮	-10.5755
洞照	-10.5758
飛捷	-10.5758
運化	-10.5761
主將	-10.5763
戌時	-10.5763
所奏	-10.5764
人事	-10.5765
玄上	-10.5766
畢引	-10.577
奉受	-10.5771
無事	-10.5773
關召	-10.5774
啓白	-10.5775
相見	-10.5777
號爲	-10.5778
雷司	-10.5782
散壇	-10.5783
玉仙	-10.5784
先須	-10.5788
列位	-10.5791
蛟	-10.5797
知之	-10.5798
將兵	-10.5802
𩲃	-10.5803
三十五	-10.5803
而能	-10.5806
污	-10.5809
裝	-10.5809
渺	-10.581
叩齒七通	-10.5811
獵	-10.5812
世世	-10.5813
繡	-10.5813
中嶽	-10.5813
人人	-10.5814
福德	-10.5815
恍	-10.5815
范	-10.5816
謹牒年月日牒牒	-10.582
愼勿	-10.5821
謹具狀上申	-10.5822
太𡻕	-10.5823
行此	-10.5826
偈	-10.5827
牓	-10.5829
土府	-10.5832
青色	-10.5836
言曰	-10.5848
本宫	-10.585
神雷	-10.5851
至理	-10.5851
皆爲	-10.5853
雷府	-10.5853
伏念	-10.5853
但以	-10.5857
鬼精	-10.5862
雌	-10.5867
兆民	-10.5869
調和	-10.587
流傳	-10.588
鬼名	-10.5881
法信	-10.5888
人所	-10.5895
精邪	-10.5901
不孝	-10.5903
一應	-10.5906
思之	-10.5908
說經	-10.5911
永不	-10.5917
聖君	-10.592
内諱	-10.5922
監齋	-10.5923
真道	-10.5928
其氣	-10.5929
玄珠	-10.5931
者死	-10.5932
禳災	-10.5935
事意	-10.5935
二氣	-10.5941
妾	-10.5948
仙矣	-10.5949
採訪	-10.5949
迍	-10.5952
饑	-10.5953
無私	-10.5955
抜	-10.5956
嗜	-10.5957
敕㫖	-10.5958
變爲	-10.5958
蹇	-10.5958
所爲	-10.5958
迂	-10.5959
朋	-10.5959
蠶	-10.5959
飄飄	-10.5959
艾	-10.5959
玄宫	-10.596
求財	-10.5961
墟	-10.5961
撚	-10.5961
人生	-10.5962
麾	-10.5963
梓	-10.5963
時人	-10.5963
蓋之	-10.5963
僻	-10.5964
玄微	-10.5964
譯	-10.5964
村	-10.5964
竇	-10.5964
沉淪	-10.5966
下民	-10.5967
丹誠	-10.5973
右呪畢	-10.5974
四十二	-10.5977
之用	-10.5979
傷寒	-10.5986
歸命	-10.5989
誅斬	-10.5997
猛獸	-10.6
眞皇	-10.6006
玉液	-10.6008
無他	-10.601
神公	-10.601
之郷	-10.6012
道門科範大全集卷之	-10.6019
已身	-10.602
都統	-10.6021
九竅	-10.6022
日月之	-10.6023
白書	-10.6026
爍	-10.6026
七眞	-10.6028
丹霞	-10.603
子曰	-10.6031
靈君	-10.6031
於内	-10.6031
天堂	-10.6035
春秋	-10.6035
太上靈寳	-10.6036
紫皇	-10.6037
陰炁	-10.6041
照臨	-10.6042
頓服	-10.6042
七色	-10.6044
宿命	-10.605
如違	-10.6053
此方	-10.6054
字上	-10.6054
巽宫	-10.6055
追取	-10.6058
今人	-10.6059
威德	-10.606
曹局	-10.6064
丹霄	-10.6065
師眞	-10.6069
見一	-10.607
特爲	-10.6073
清旦	-10.6079
之餘	-10.6083
所部	-10.6084
考官	-10.6086
劈	-10.6088
香煙	-10.6088
無由	-10.6089
可用	-10.6089
人多	-10.6091
貪狼	-10.6094
騰空	-10.6094
軸	-10.6096
䰢	-10.6101
宫觀	-10.6101
十過	-10.6102
官使者	-10.6103
不堪	-10.6103
紐	-10.6104
艱	-10.6104
渠	-10.6106
未時	-10.6106
葷	-10.6107
千二百	-10.6109
狄	-10.6109
啖	-10.6109
變成	-10.611
洞清	-10.611
涵	-10.611
饌	-10.6111
仙傳拾遺	-10.6113
殆	-10.6113
溥	-10.6113
韋	-10.6114
戚	-10.6115
翰	-10.6117
肌	-10.6117
豪	-10.6117
瘥	-10.6118
作禮	-10.612
昴	-10.612
敷奏	-10.612
圈内	-10.6121
具法位姓	-10.6124
營衛	-10.6126
有生	-10.6128
槌	-10.6129
虛無	-10.613
吸入	-10.6132
九華	-10.6133
離合	-10.6134
寅時	-10.6135
須要	-10.6139
二曰	-10.6139
雲氣	-10.6141
之性	-10.6146
玄機	-10.6148
丁酉	-10.6148
蕩穢	-10.6149
如左	-10.6149
神變	-10.615
祝畢	-10.6153
教化	-10.6154
可也	-10.6157
受鍊	-10.6161
酉時	-10.6162
修造	-10.6162
十里	-10.6164
火師	-10.6167
授之	-10.6168
西向	-10.6173
受之	-10.6178
扶持	-10.6182
武帝	-10.6186
天經	-10.6187
順行	-10.6192
謹言	-10.6194
俯垂	-10.6194
降雨	-10.6195
筋	-10.6196
之災	-10.6199
太始	-10.6201
黑書	-10.6208
又日	-10.621
卷一之	-10.6214
日出	-10.6215
科儀	-10.6217
卯酉	-10.6219
幽夜	-10.6219
粒	-10.622
特與	-10.6222
運雷	-10.6223
雷轟	-10.623
明鏡	-10.623
若欲	-10.623
衆仙	-10.6236
之德	-10.6239
僚	-10.6242
爲道	-10.6242
齋修	-10.625
穩	-10.6252
道家	-10.6255
紫書	-10.6256
荀	-10.6258
顛倒	-10.6258
攸	-10.6259
烹	-10.626
系	-10.6263
刊	-10.6263
滓	-10.6265
話	-10.6265
矢	-10.6266
庇	-10.6267
討	-10.6267
髙仙	-10.6267
僃	-10.6269
叢	-10.6269
鑊湯	-10.6269
太微天帝君	-10.627
濡	-10.627
諸行法官	-10.627
檀	-10.6271
俠	-10.6272
狀如	-10.6274
公文	-10.6275
輸	-10.6275
於前	-10.6279
湛然	-10.628
丙子	-10.628
衝天	-10.6281
速去	-10.6282
黄籙院	-10.6283
祖宗	-10.6284
有形	-10.6285
發生	-10.6301
青紙	-10.6302
星中	-10.6305
有令	-10.6305
足下	-10.6305
白蛇	-10.6307
應有	-10.6307
雷符	-10.6309
一轉	-10.6309
者多	-10.6312
得者	-10.6312
持戒	-10.6314
之可	-10.6316
法曰	-10.6318
修習	-10.632
大劫	-10.6336
直至	-10.634
香燈	-10.6342
符右	-10.6343
不言	-10.6344
天廷	-10.635
天靈	-10.6351
馘魔	-10.6353
保安	-10.6357
玉樓	-10.6359
傷人	-10.6361
二十二	-10.6365
南方赤帝	-10.6366
速召	-10.6367
念念	-10.637
日宫	-10.6373
必先	-10.6374
通眞	-10.6377
其時	-10.6379
磚	-10.6385
除邪	-10.6387
玄丹	-10.6387
專行	-10.6388
不差	-10.6396
中和	-10.6399
列聖	-10.64
炳	-10.6405
玄一	-10.6405
二將	-10.6408
此日	-10.6408
癡	-10.6413
圓成	-10.6417
叶	-10.6418
俊	-10.6419
鳩	-10.6419
竿	-10.642
厄大聖北斗七元君能解	-10.642
柏	-10.6421
撒	-10.6421
覓	-10.6422
掘	-10.6422
裹	-10.6422
人爲	-10.6423
線	-10.6423
贊	-10.6425
雷光	-10.6426
償	-10.6427
儉	-10.6427
攝捉	-10.6429
至妙	-10.6429
鬱鬱	-10.6429
藻	-10.6429
糞	-10.643
仗劔	-10.6431
書一	-10.6432
薫	-10.6432
庶幾	-10.6434
光中	-10.6434
而起	-10.6435
善人	-10.6436
正直	-10.6438
此人	-10.6438
魑	-10.644
壇下	-10.6443
心爲	-10.6444
急急如律令符召	-10.6448
无有	-10.6451
煞伐	-10.6457
三省	-10.6458
四年	-10.6466
啓請	-10.6475
數日	-10.6477
聖意	-10.6478
文牒	-10.648
運轉	-10.6482
申牒	-10.6485
焦枯	-10.6487
泥丸宫	-10.6487
爲本	-10.6488
召龍	-10.6489
無生	-10.649
不起	-10.649
法身	-10.6491
黄道	-10.6492
燒鬼	-10.6499
閉塞	-10.65
急奉	-10.6502
人情	-10.6505
即使	-10.6514
未免	-10.6516
䰟𩲸	-10.652
真氣	-10.6523
三華	-10.6523
法以	-10.6527
在地	-10.6532
龍雷	-10.6533
人知	-10.6537
清濁	-10.6538
法職	-10.6541
身爲	-10.6542
玉司	-10.6542
背書	-10.6544
廣成	-10.6552
白元	-10.6553
昇仙	-10.6559
坎宫	-10.6559
寅卯	-10.6564
雷將	-10.6564
隂精	-10.6564
藏之	-10.6565
雷車	-10.6567
有二	-10.6569
上將	-10.657
罪愆	-10.657
來生	-10.6573
釜	-10.6575
𥝠	-10.6576
麄	-10.6577
巴豆	-10.6577
江州	-10.6577
字號計七卷	-10.6578
酷	-10.6578
蠟	-10.6578
貸	-10.6581
挹	-10.6582
岡	-10.6585
旱魃	-10.6586
勲	-10.6587
斗罡	-10.6587
涓	-10.6589
道法會元卷之一百	-10.659
勾陳	-10.659
武曲	-10.6595
之魂	-10.6596
群魔	-10.6596
玄老	-10.6597
合道	-10.6598
所犯	-10.6601
翊聖	-10.6602
宫室	-10.6603
丙午	-10.6606
符到奉行	-10.6607
靈童	-10.6607
祭鍊	-10.6608
遵承	-10.6608
受道	-10.6613
青天	-10.6621
月光	-10.6629
天庭	-10.663
之命	-10.6632
帝君律令	-10.6635
忽有	-10.6636
廷	-10.6636
收捕	-10.6638
中品	-10.6639
問之	-10.6641
面目	-10.6646
主管	-10.6649
衛靈	-10.6649
有爲	-10.6653
電母	-10.6653
祭之	-10.6655
投簡	-10.6656
凡受	-10.6657
不干	-10.6662
官將吏兵	-10.6662
門人	-10.6666
下世	-10.6671
存心	-10.6671
狀申	-10.6674
開壇	-10.6675
二十四炁	-10.6676
玉篇	-10.6679
附方	-10.6684
三曰	-10.6684
千年	-10.6684
華陽	-10.6688
患身	-10.6694
仙籍	-10.6696
亡靈	-10.6704
務在	-10.6704
北辰	-10.6708
道學當念	-10.6708
同志	-10.6708
神也	-10.6709
令其	-10.671
先以	-10.6712
刋	-10.6713
萬眞	-10.6714
精光	-10.6715
法用	-10.6717
火池	-10.6717
申時	-10.6723
妄傳	-10.6723
壬子	-10.6727
粥	-10.6728
月建	-10.6728
聰	-10.6734
顚	-10.6736
郁	-10.6737
請稱法位具位	-10.6739
清炁	-10.6739
陷	-10.6741
瀉	-10.6741
熖	-10.6741
瑕	-10.6741
凉	-10.6742
中皇	-10.6742
恕	-10.6743
澡	-10.6744
漁	-10.6744
撞	-10.6744
差降	-10.6746
急準	-10.6746
千金	-10.6746
一事	-10.6747
擅	-10.6748
埃	-10.6751
壬辰	-10.6751
雷使者	-10.6752
太㣲	-10.6753
雷帝	-10.6754
邵陽	-10.6755
以上	-10.6755
丹臺	-10.6755
公公	-10.6756
一十	-10.6759
行年	-10.6766
七祖父母	-10.6766
矣若	-10.6772
眞元	-10.6774
非道	-10.6775
同學	-10.6781
七政	-10.6781
某事	-10.6784
上書	-10.6785
長三寸	-10.6788
之圖	-10.6789
黄色	-10.679
章從事	-10.6794
太靈	-10.6799
靜夜	-10.68
速行	-10.6801
我形	-10.6801
金錢	-10.6805
其意	-10.6807
無以	-10.6807
爲某	-10.6809
㗶	-10.6812
青童君	-10.6815
邪師	-10.6819
徒勞	-10.6822
雲路	-10.6823
羅酆	-10.6828
亥時	-10.6829
愼之	-10.6829
正氣	-10.6829
本方	-10.6831
或曰	-10.684
欲得	-10.6843
之衣	-10.6848
靜定	-10.6851
法者	-10.6855
神真	-10.6858
始終	-10.686
▲▲	-10.6861
始青	-10.6863
刻書	-10.6864
立教	-10.6865
而傳	-10.6865
幽靈	-10.6865
玉真	-10.6866
列宿	-10.6867
此等	-10.6872
有事	-10.6874
巻	-10.6874
贖	-10.6875
抵	-10.6876
輕慢	-10.6879
抱一	-10.688
用心	-10.6884
歸依	-10.6885
心印	-10.6885
永無	-10.6886
笈	-10.6887
牒至	-10.689
九真	-10.6891
十二日	-10.6892
目前	-10.6895
月十五日	-10.6897
而作	-10.6898
逞	-10.6899
昩	-10.69
夫婦	-10.6902
儔	-10.6902
𥿄	-10.6902
慰	-10.6902
猛烈	-10.6903
嚧	-10.6904
炬	-10.6904
凢	-10.6904
木郞	-10.6905
神龍	-10.6905
嫌	-10.6906
梨	-10.6906
壅	-10.6906
也如	-10.6906
挾	-10.6907
非有	-10.6907
妬	-10.6908
腴	-10.6908
填	-10.6908
明師	-10.691
紏	-10.691
聳	-10.6911
大化	-10.6911
擢	-10.6911
秋三月	-10.6912
虬	-10.6913
未生	-10.6914
日三	-10.6915
十五日	-10.6916
曹治	-10.6919
今生	-10.6922
經典	-10.6925
監生	-10.6926
也蓋	-10.6926
救護	-10.6926
九醜	-10.6927
之綬	-10.6933
百事	-10.6937
走失	-10.6941
福禄	-10.6945
飛步	-10.6945
臣妾	-10.6945
神霄玉清	-10.6946
北帝曰	-10.6947
功徳	-10.6952
殺害	-10.6956
十分	-10.6963
侍經	-10.6964
北極驅邪院	-10.6966
大君	-10.6969
十萬	-10.6972
準此	-10.6975
又何	-10.6981
四將	-10.6982
后土	-10.6984
籤	-10.6984
白紙	-10.6985
滅度	-10.6985
爲主	-10.6986
先於	-10.6987
南炁	-10.6987
去皮	-10.6988
二星	-10.6988
金色	-10.6989
江海	-10.699
面前	-10.699
刀山	-10.6992
三司	-10.6999
可乎	-10.7003
内景	-10.7003
爲善	-10.7006
滿散	-10.7009
嚩	-10.7012
與天地	-10.7012
頭建	-10.7013
燈燭	-10.7014
垂慈	-10.7015
隨其	-10.7016
三陽	-10.7022
心上	-10.7023
二神	-10.7029
節次	-10.7029
殿下	-10.7031
消亡	-10.7037
當司	-10.7041
月朔	-10.7044
仙卿	-10.7048
以為	-10.7051
平等	-10.7053
不寧	-10.7055
歇	-10.7058
上御	-10.7059
某身	-10.7063
殄	-10.7064
罡炁	-10.7064
一法	-10.7065
皂袍	-10.7067
啞	-10.7067
符到	-10.7067
霸	-10.7067
燃	-10.7068
二十六	-10.7069
熊	-10.7069
肚	-10.7069
闘	-10.7071
苑	-10.7071
懈	-10.7071
粹	-10.7072
券	-10.7072
徊	-10.7073
金火天丁	-10.7074
躭	-10.7075
戯	-10.7075
勿以	-10.7075
太乙救苦天尊	-10.7076
遜	-10.7076
貟	-10.7076
搗篩	-10.7077
粮	-10.7078
湏	-10.7079
潮	-10.708
躋	-10.7081
庚子	-10.7081
恠異	-10.7082
沉滯	-10.7082
胞胎	-10.7083
雌雄	-10.709
皂衣	-10.709
五指	-10.7092
使其	-10.7093
之君	-10.7094
各五	-10.7095
浩劫	-10.7098
妄想	-10.7098
拜表	-10.7099
日鬼名	-10.7099
冥曹	-10.7101
華山	-10.7103
之格	-10.7104
星帥	-10.7106
寳誥	-10.7106
今以	-10.7107
大地	-10.7109
呪書	-10.7114
隱居	-10.7115
升度	-10.712
照明	-10.7121
太霞	-10.7121
自是	-10.7124
呪訣	-10.7125
青城	-10.7128
之水	-10.713
急攝	-10.7131
鷄子	-10.7132
流通	-10.7132
之情	-10.7135
星君天	-10.7136
將佐	-10.7138
故爲	-10.714
黑帝	-10.7141
之子	-10.7141
誓願	-10.7142
乞降	-10.7145
三七	-10.7149
不是	-10.7152
運行	-10.7157
師傳	-10.7161
無言	-10.7164
皇夫人	-10.7164
以是	-10.7165
之職	-10.7165
其家	-10.7165
臨目	-10.7168
通名	-10.7178
登仙	-10.7181
殺人	-10.7183
信香符	-10.7186
元景	-10.7189
流星	-10.7196
玉書	-10.7197
癘	-10.7197
請福	-10.72
佑聖	-10.7204
流入	-10.7212
靈音	-10.7215
禱祀	-10.7215
不審	-10.7216
激切	-10.7218
之澤	-10.7219
珮	-10.7221
有異	-10.7225
上帝律令	-10.7234
沼	-10.7235
叫	-10.7235
請問	-10.7237
救人	-10.7237
飛華	-10.7237
當令	-10.7238
呌	-10.7239
字號計十二卷	-10.724
躔	-10.7241
掇	-10.7242
嚮	-10.7242
酆都大帝	-10.7242
仇	-10.7244
料	-10.7244
七世	-10.7244
上符	-10.7245
藝	-10.7247
霈	-10.7248
六丁六甲	-10.7249
節度	-10.725
紅袍	-10.7252
一符	-10.7252
匹	-10.7253
上相青童君	-10.7258
三十六人	-10.7262
一卷有符	-10.7263
削除	-10.7264
五芽	-10.7266
學人	-10.7268
聰明	-10.7268
四溟	-10.7269
目光	-10.7271
飛行上清	-10.7271
發爐	-10.7272
披髮	-10.7274
乞賜	-10.7276
九老	-10.7276
自知	-10.728
六日	-10.7281
三朝	-10.7282
萬有	-10.7285
殊不知	-10.7286
樹木	-10.7287
巨門	-10.7288
行道之所自然生金液丹碧芝	-10.7289
變景	-10.729
三十六部	-10.729
不滅	-10.7292
顔色	-10.7292
生産	-10.7293
再三	-10.7294
第四十	-10.7295
靡不	-10.7297
恭惟	-10.7299
字子	-10.7303
四生	-10.7305
師資	-10.7305
利濟	-10.7305
州縣	-10.7307
皓靈	-10.7307
押赴	-10.7308
通真	-10.731
山精	-10.7312
歷劫	-10.7313
四分	-10.7316
飛火	-10.7316
謹以	-10.7317
也又曰	-10.7317
案上	-10.7327
津液	-10.7335
紫氣	-10.7342
特降	-10.7344
相逢	-10.7346
吉利	-10.7348
昨據	-10.7351
天光	-10.7357
各還	-10.7364
金房	-10.7368
我者	-10.737
火部	-10.7371
存焉	-10.7372
戒律	-10.7375
掐辰文	-10.7382
乃至	-10.7384
進拜	-10.7385
終日	-10.739
復歸	-10.7391
歘	-10.7394
帝眞	-10.7395
符水	-10.7395
教門	-10.7395
不免	-10.7397
利益	-10.7398
及其	-10.7399
四日	-10.7403
兌	-10.7407
巴	-10.7412
譚	-10.7412
猿	-10.7413
劃	-10.7414
三四	-10.7414
謹奉請	-10.7414
梯	-10.7415
誣	-10.7415
謝罪	-10.7416
誑	-10.7416
協	-10.7416
蝕	-10.7416
卵	-10.7417
偷	-10.7417
盪	-10.7417
凍	-10.7417
章文	-10.7418
躁	-10.7418
色之光	-10.7419
丁亥	-10.7419
優	-10.7419
緑靴	-10.7419
葱	-10.7419
諾	-10.742
腐	-10.742
娥	-10.742
裴	-10.742
耆	-10.7421
緋衣	-10.7422
帽	-10.7422
嚥液	-10.7422
如日	-10.7422
須至申聞者右謹具狀申	-10.7424
郷里	-10.7424
稀	-10.7425
違者	-10.7425
沓	-10.7426
此名	-10.7429
一陽	-10.7433
癸亥	-10.7434
有神	-10.7434
給付	-10.7435
慶雲	-10.7437
炎火	-10.7438
六神	-10.7439
六根	-10.7441
十戒	-10.7443
祕要	-10.7446
之期	-10.7447
丹靈	-10.7447
黄籙齋	-10.7448
絞	-10.7449
太霄	-10.7451
洞觀	-10.7454
差又方	-10.7454
謀望	-10.7455
宿啓	-10.7462
經教	-10.7464
六甲六丁	-10.7467
六十四	-10.747
答云	-10.7474
七人	-10.7475
未可	-10.7478
太極真人	-10.7479
福堂	-10.7486
恭敬	-10.7489
涯	-10.7491
髙玄	-10.7492
天尊告曰	-10.7492
急急如律令右	-10.7496
九人	-10.7497
監度	-10.7499
盟誓	-10.7502
不論	-10.7503
未見	-10.7503
經太上	-10.7504
太歳年月日	-10.7505
者斬	-10.7513
起風	-10.7515
立應	-10.752
各一兩	-10.7522
禄存	-10.7522
帝晨	-10.7523
神印	-10.7524
奉道某	-10.7528
傳之	-10.7528
法界	-10.7528
元父	-10.7534
八年	-10.7535
味甘	-10.7537
羣仙	-10.7539
至心	-10.754
山澤	-10.7542
太上正一	-10.7543
便宜	-10.7543
圓明	-10.7547
仙王	-10.7547
從心	-10.7549
之語	-10.7551
呼風	-10.7552
有犯	-10.7554
洞經	-10.7556
玉室	-10.7557
香湯	-10.7557
金火	-10.7561
十惡	-10.7564
星星君	-10.7565
無量度人	-10.7566
人倫	-10.757
土皇	-10.7579
以求	-10.758
唾	-10.7582
亦然	-10.7582
趙公明	-10.7583
揭	-10.7584
泓	-10.7584
峙	-10.7585
蟻	-10.7585
風伯雨師	-10.7586
字號計六卷	-10.7587
罕	-10.7587
綸	-10.7587
遼	-10.7588
衆人	-10.7589
辤	-10.7589
宇宙	-10.7589
忝	-10.759
无形	-10.759
執符	-10.7591
唤	-10.7591
不可不	-10.7591
棒	-10.7591
樵	-10.7591
搆	-10.7591
道徳真經	-10.7592
頰	-10.7592
纖	-10.7592
一半	-10.7593
長生久視	-10.7593
直齋功曹百二十人出	-10.7594
圍繞	-10.7595
慘	-10.7597
繪	-10.7597
雖然	-10.7597
起居	-10.7599
之禮	-10.7599
牒請	-10.76
見聞	-10.7602
生生	-10.7604
交媾	-10.7605
五湖	-10.7607
肘後	-10.7608
消灾	-10.7608
敕令	-10.761
而死	-10.761
監察	-10.761
洪恩	-10.7614
起於	-10.7615
塵勞	-10.7616
無非	-10.7617
閃	-10.7618
好事	-10.7621
九天丈人	-10.7623
二尺	-10.7623
蒙恩	-10.7627
赤文	-10.7627
附身	-10.7627
飛裙	-10.7628
小便	-10.7633
法主	-10.7633
恩光	-10.7635
混化	-10.7647
成功	-10.7656
張使者	-10.7658
邪正	-10.7664
無象	-10.7665
微呪曰	-10.7668
斬妖	-10.767
平安	-10.7671
謹謹	-10.7674
聽吾	-10.7674
行司	-10.768
形影	-10.7681
一室	-10.7685
六星	-10.7686
玉曆	-10.7688
朱宫	-10.7691
具位臣姓某	-10.7691
于前	-10.7692
大道君	-10.7695
家門	-10.7695
謹封	-10.7696
未盡	-10.7696
畢即	-10.7697
玄雲	-10.7703
五方五帝	-10.7703
奏請	-10.7704
一同	-10.7705
存之	-10.7708
修鍊	-10.7717
不散	-10.7719
水部	-10.772
畢次	-10.7722
道氣	-10.7723
立獄	-10.7724
眞科	-10.7727
心心	-10.7728
之室	-10.773
師曰凡	-10.7734
帝前	-10.7737
詩曰	-10.7739
斗府	-10.774
無停	-10.7743
師子	-10.7745
差將	-10.7748
靈風	-10.7749
我等	-10.7749
月日	-10.7753
𩵄	-10.7753
進奏	-10.7755
麥	-10.7757
番	-10.7757
柴	-10.7758
通幽	-10.7759
掠	-10.776
擔	-10.776
叟	-10.7762
本家	-10.7765
佞	-10.7765
觜	-10.7768
蒲	-10.7768
脇	-10.7768
傲	-10.7768
鬰	-10.7768
叛	-10.7768
疼	-10.7769
即差	-10.7769
叩齒二十四通	-10.7769
金木水火土	-10.7769
潛	-10.7771
佩服	-10.7772
凋	-10.7774
五老上帝	-10.7775
脯	-10.7775
五臓	-10.7776
萬神咸聽	-10.7776
官君將吏	-10.7777
法位	-10.7777
此則反	-10.7778
相隨	-10.778
祈雪	-10.778
雷門	-10.778
郷貫	-10.7782
先行	-10.7782
傑	-10.7783
某郡縣郷里	-10.7783
所言	-10.7785
苦酒	-10.7788
堅固	-10.7788
密念	-10.7789
卷一之四	-10.779
亦非	-10.7792
五師	-10.7794
一生	-10.7794
不假	-10.7801
法當	-10.7804
狀式	-10.7805
君字	-10.7806
必獲	-10.7809
一員	-10.781
藏於	-10.781
諸鬼	-10.781
高下	-10.7811
隱文	-10.7814
與諸	-10.7814
幽獄	-10.7816
符牒	-10.7817
一粒	-10.782
又方取	-10.782
畢乃	-10.7827
保護	-10.7828
夏至	-10.7833
分爲	-10.7833
紫煙	-10.7833
山下	-10.7847
速爲	-10.7847
頒下	-10.7848
無數	-10.785
章一通	-10.7851
震宫	-10.7852
衣冠	-10.7855
秋冬	-10.7857
紙上	-10.7859
文移	-10.786
地水	-10.7861
簡文	-10.7861
一盞	-10.7861
其本	-10.7861
於中	-10.7864
諸處	-10.7866
相對	-10.7867
玄門	-10.787
拳	-10.7873
野道	-10.7874
凡欲	-10.7874
道門	-10.7875
剔出	-10.7877
欻	-10.789
自巳	-10.7891
斛	-10.7892
齋科	-10.7895
以青	-10.7896
五尺	-10.7899
何必	-10.79
歸一	-10.7904
一體	-10.7907
各三	-10.7907
大雨	-10.791
無任	-10.791
不吉	-10.791
遍滿	-10.7914
一吸	-10.7915
大悲	-10.7916
玉名	-10.7916
八㑹	-10.7917
出乎	-10.7918
事竟	-10.792
主火	-10.7923
精進	-10.7923
飛奏	-10.7928
藥物	-10.7929
昆	-10.7933
玉房	-10.7933
㖿	-10.7934
鴉	-10.7934
𩳐	-10.7936
在於	-10.7937
甞	-10.7937
衘	-10.7945
膚	-10.7945
晋	-10.7947
术	-10.7949
杯	-10.7949
黄籙大齋	-10.7949
軒轅	-10.795
拙	-10.795
措	-10.795
弃	-10.7951
詰	-10.7951
鈔	-10.7952
玄化	-10.7952
麵	-10.7952
精心	-10.7952
與道合真	-10.7952
水神	-10.7953
冩	-10.7953
亮	-10.7953
眄	-10.7953
結璘	-10.7953
癸丑	-10.7954
抗	-10.7954
你	-10.7954
衷	-10.7955
渚	-10.7955
嘔	-10.7956
急急如上帝敕	-10.7957
謹外封	-10.7957
扉	-10.7958
菴	-10.7961
贍	-10.7961
之體	-10.7963
本境	-10.7964
尊卑	-10.7965
利貞	-10.797
五雲	-10.7971
玄文	-10.7975
仙吏	-10.7976
投龍	-10.7981
以應	-10.7982
太上無極大道	-10.799
千日	-10.7996
浮空	-10.8003
將帥	-10.8005
則神	-10.8015
敕下	-10.8016
制御	-10.8017
歸於	-10.8019
諸大	-10.8022
唇	-10.8025
自當	-10.8028
自新	-10.8031
病患	-10.8031
之苦	-10.8034
一座	-10.8035
成一	-10.8039
善果	-10.8039
吉祥	-10.8046
九億萬	-10.8049
咽氣	-10.8054
對曰	-10.8055
行符	-10.8058
无不	-10.8058
丹成	-10.806
八風	-10.8061
高明	-10.8062
以示	-10.8063
故有	-10.8066
立春	-10.807
年命	-10.8072
降眞炁	-10.8076
有圖	-10.8078
瓊宫	-10.8079
所作	-10.8081
一丸	-10.8082
次思	-10.8083
主雷	-10.8084
置於	-10.8092
至申	-10.8096
赤衣	-10.8106
合神	-10.8106
十枚	-10.8108
神霄眞王	-10.8109
未應	-10.8114
萬仙	-10.8114
正令	-10.8115
裁	-10.8116
人口	-10.8119
而降	-10.8121
赦罪	-10.8123
齋官某	-10.8124
郞	-10.8125
速離	-10.8125
突	-10.8127
也然	-10.8128
十遍	-10.813
馥	-10.8131
循環	-10.8131
晃	-10.8132
粘	-10.8133
一合來下	-10.8134
髣髴	-10.8136
誨	-10.8136
舘	-10.8136
亟	-10.8137
銖	-10.8137
墳	-10.8137
氤氲	-10.8137
朕	-10.8137
忙	-10.8137
暨	-10.8138
邪源	-10.8138
嫉	-10.8138
韶	-10.8139
奢	-10.814
迨	-10.814
戊癸	-10.814
皷	-10.8141
糺	-10.8143
无極大道	-10.8144
壽命	-10.8146
三帥	-10.8146
枯骨	-10.8146
遵行	-10.8147
椿	-10.8147
十五人	-10.8148
七月七日	-10.8148
運度	-10.8148
攝唵	-10.815
四轉	-10.8151
太丹	-10.8152
謹依	-10.8153
黑面	-10.8153
其後	-10.8154
西方白帝	-10.8155
謹牒年月日牒	-10.8155
方寸	-10.8155
上古	-10.8156
五龍	-10.8157
靈旛	-10.8166
啓壇	-10.8168
一夕	-10.8168
精勤	-10.8169
是諸	-10.8171
今年	-10.8172
所佩	-10.8172
降魔	-10.8173
平地	-10.8178
二者	-10.8178
玉郎	-10.8178
入口	-10.8179
二象	-10.8179
己身	-10.8182
髙聖	-10.8186
猫	-10.8188
種民	-10.8189
茅山	-10.819
斬滅	-10.8191
廣記	-10.8193
有四	-10.8193
海嶽	-10.8194
無功	-10.8196
凡修	-10.8201
却用	-10.8202
入室燒香	-10.8202
奏章	-10.8203
清静	-10.8205
觀之	-10.8206
侍香	-10.8212
水帝	-10.8215
伏尸	-10.8216
丁未	-10.8219
轟天	-10.822
始於	-10.8222
功滿	-10.823
公子	-10.823
金仙	-10.8231
存身爲	-10.8242
生前	-10.8251
五轉	-10.8255
動則	-10.8255
本將	-10.8256
五千	-10.8256
此一	-10.8257
直符使者	-10.8257
二十三	-10.826
攝魂	-10.8265
首謝	-10.8268
不與	-10.8274
依時	-10.8278
洗心	-10.8285
一本	-10.8295
其下	-10.8298
庚寅	-10.83
内視	-10.8301
立於	-10.8302
說戒	-10.831
燦	-10.8312
嗽	-10.8314
而不能	-10.8315
道徳	-10.8316
墻	-10.8319
數百	-10.8321
濟度金書	-10.8323
火犀	-10.8323
沃	-10.8323
中指中	-10.8323
驂	-10.8324
養性	-10.8325
攄	-10.8325
洩	-10.8325
潘	-10.8326
籟	-10.8326
閼伯	-10.8326
殻	-10.8328
痰	-10.8328
江湖	-10.8329
玄牝	-10.8329
鬢	-10.833
黑律	-10.8332
具申聞謹狀年月日具位姓某狀申	-10.8335
茯苓	-10.8336
苦惱	-10.8337
北都	-10.834
興隆	-10.8341
丞相	-10.8342
之色	-10.8344
常有	-10.8344
係薦	-10.8344
牘	-10.8348
嗣教	-10.835
辰時	-10.8352
無疆	-10.8352
禱祈	-10.8354
道德真經	-10.8354
合於	-10.8355
鼻中	-10.8355
未聞	-10.8356
五常	-10.8357
以意	-10.8359
侍郎	-10.8361
四門	-10.8364
黄白	-10.8368
師前	-10.8369
邪炁	-10.837
千妖	-10.8371
寂然	-10.8372
炁布	-10.8376
暘	-10.838
大震	-10.838
虛妄	-10.8385
赦原	-10.839
申聞	-10.8392
一竅	-10.8393
咸令	-10.8393
顯幽	-10.8396
火精	-10.84
念云	-10.8403
群仙	-10.8405
隱諱	-10.8408
九夜	-10.8408
其說	-10.8409
妖怪	-10.8412
肯	-10.8412
玄景	-10.8414
道合	-10.8416
以後	-10.8427
混洞	-10.8428
六轉	-10.8431
君臣	-10.8432
長春	-10.8434
崇奉	-10.8435
而止	-10.8436
少時	-10.8438
三業	-10.8438
會合	-10.8438
黄氣	-10.844
微微	-10.8443
心念	-10.8444
玉芝	-10.8445
女青	-10.8447
祕文	-10.8447
秘法	-10.8448
得長生	-10.8448
横天	-10.8449
總攝	-10.845
勑令	-10.8454
急急如律令敕	-10.8458
其理	-10.8458
轉經	-10.846
亦能	-10.8464
身得	-10.8464
得爲	-10.8466
帝皇	-10.8471
玄炁	-10.8471
以付	-10.8472
几前	-10.8472
水噀	-10.8474
何所	-10.8474
有縁	-10.8479
開張	-10.8482
父子	-10.8483
邪祟	-10.8488
先當	-10.8492
不已	-10.8492
入壇	-10.8494
大神王	-10.8495
威震	-10.8496
者自	-10.8498
臣某承誥	-10.85
不令	-10.8504
濤	-10.8505
隊	-10.8505
汲	-10.8505
娑	-10.8506
面上	-10.8508
右目	-10.8509
鎗	-10.8509
羲	-10.851
疋	-10.851
鵝	-10.851
洞微	-10.8511
擲火萬里	-10.8511
葩	-10.8512
瀝	-10.8514
佇	-10.8515
攅	-10.8516
算	-10.8516
褒	-10.8516
靈臺	-10.8517
硃	-10.8517
丁壬	-10.8517
伴	-10.8517
蠱毒	-10.8517
顛	-10.8517
庚午	-10.8517
雕	-10.8518
空三行	-10.8518
滑	-10.8518
萬劫不原	-10.8519
道法會元	-10.852
宫府	-10.8521
虐	-10.8521
竪	-10.8522
大赤天	-10.8523
浹	-10.8525
枯木	-10.8525
頸	-10.8526
受書	-10.8528
四靈	-10.853
中有一	-10.8531
三十九章	-10.8531
一合下降	-10.8535
恭準	-10.8536
鬼崇	-10.8537
應運	-10.8537
如此則	-10.8538
三時	-10.8538
玄章	-10.8539
無人	-10.8544
仙品	-10.8544
以舌	-10.8546
次用	-10.8547
陰精	-10.8547
訣曰	-10.8547
方隅	-10.8548
身神	-10.8551
齎持	-10.8551
八千	-10.8553
存爲	-10.8554
宣揚	-10.8554
無上大道	-10.8555
仍以	-10.8556
天柱	-10.8556
長短	-10.8556
衣青	-10.8558
凡書符	-10.8558
功名	-10.856
不修	-10.8563
雲臺	-10.8564
眞氣	-10.8564
之志	-10.8567
守衛	-10.8573
三目	-10.8574
無情	-10.8575
髙下	-10.8576
又呪	-10.8578
之祕	-10.8578
爲國	-10.8579
之次	-10.858
方圓	-10.858
沖和	-10.858
玄名	-10.8581
風霆	-10.8583
水銀	-10.8583
豈無	-10.8584
今之	-10.8584
當有	-10.8586
宫殿	-10.859
都天大	-10.8591
剛風	-10.8593
廣度	-10.8594
无英	-10.8594
洞視	-10.8595
陰雷	-10.8596
何如	-10.8596
黄寧	-10.8596
名利	-10.8599
爲地	-10.86
須是	-10.8601
茅君	-10.8601
思存	-10.8602
其精	-10.8606
天尊說	-10.861
仰惟	-10.861
從事	-10.8611
此呪	-10.8613
聞道	-10.8615
道祖	-10.8616
一句	-10.8617
師授	-10.8617
百二十人	-10.8617
向東	-10.8618
諦聽	-10.8618
不經	-10.8624
人不	-10.8625
三元君	-10.8627
亦如	-10.8628
以酒	-10.8629
光輝	-10.8631
二帥	-10.8632
精怪	-10.8633
速降臨	-10.8634
之因	-10.8636
壇上	-10.8637
於上	-10.864
一丈	-10.8647
合明	-10.8647
生萬物	-10.8648
上逹	-10.8648
十二萬人	-10.8652
千眞	-10.8654
正心	-10.866
地仙	-10.866
呵出	-10.8662
只用	-10.8662
皇老	-10.8663
壇庭	-10.8664
都司	-10.8665
所傳	-10.8667
心意	-10.8671
根本	-10.8671
龍潭	-10.8673
聖胎	-10.8673
說法	-10.8674
不求	-10.8675
天下之	-10.8678
鬼祟	-10.8684
清微天	-10.8686
所欲	-10.8687
奏啓	-10.8692
無極大道	-10.8692
九色之	-10.8692
去來	-10.8694
乾元	-10.8694
爲始	-10.8695
精微	-10.8696
存用	-10.8697
鷹	-10.8698
天界	-10.87
殞	-10.87
又念	-10.8701
筆書之	-10.8701
碗	-10.8701
法輪	-10.8701
腑	-10.8703
泊	-10.8705
嘍	-10.8705
不可思議功德	-10.8706
璣	-10.8707
創	-10.8707
烜赫	-10.8709
無上黄籙大齋	-10.8709
插	-10.8709
行藏	-10.871
南昌上宫	-10.871
一斗	-10.871
収	-10.871
拾	-10.8711
笙	-10.8711
於外	-10.8711
天騶甲卒	-10.8711
篩	-10.8713
復位	-10.8713
翦	-10.8713
沛	-10.8714
婬	-10.8714
樸	-10.8714
䙱	-10.8715
翫	-10.8715
悠	-10.8716
皎	-10.8716
聞見	-10.8716
撓	-10.8716
瘧	-10.8717
鼓舞	-10.8717
悮	-10.8718
廵	-10.8718
十二河源	-10.8719
者不可	-10.872
跳	-10.872
緑軿	-10.8722
國祚	-10.8722
鳥獸	-10.8723
徐徐	-10.8723
俗人	-10.8723
梵行	-10.8724
歩罡	-10.8725
法凡	-10.8726
紫㣲	-10.8728
又問	-10.8728
直下	-10.8729
具法位姓某今	-10.8729
何爲	-10.8731
所生	-10.8733
一言	-10.8736
前件	-10.8739
身入	-10.874
五合	-10.8742
公私	-10.8744
九天之上	-10.8744
將符	-10.8745
佩身	-10.8745
鬱儀	-10.8746
呪水	-10.8748
宫闕	-10.8748
出户	-10.8749
不妄	-10.8749
某押	-10.875
邪道	-10.875
以下	-10.8751
用黄紙	-10.8751
愆尤	-10.8752
之變	-10.8757
太无	-10.876
誅伐	-10.8761
交通	-10.8761
天羅	-10.8762
兩耳	-10.8763
願垂	-10.8764
寳符	-10.8766
少許	-10.8766
煥爛	-10.8767
不敬	-10.8768
玉寳	-10.8771
入地	-10.8772
謹具狀	-10.8772
乗雲	-10.8773
求道	-10.8775
有知	-10.8778
不伏	-10.8782
寳冠	-10.8783
預告	-10.8784
熒	-10.8786
輔弼	-10.8786
燈儀	-10.8787
毒龍	-10.8787
禁戒	-10.8787
光耀	-10.8788
得生	-10.8793
華盖	-10.8793
盛之	-10.8794
百邪	-10.8799
主治	-10.8799
流珠	-10.88
蓋以	-10.88
救苦天尊	-10.8803
有云	-10.8806
除巳	-10.8807
黑衣	-10.8809
入於	-10.881
本來	-10.8812
關報	-10.8813
雷城	-10.8817
本命日	-10.8817
用事	-10.8818
伏爲	-10.882
護命	-10.8823
齋直	-10.8824
所陳	-10.8825
請師	-10.8826
出戸	-10.8828
神州	-10.8829
香官使者左右龍虎君侍香諸靈官當令	-10.8831
大乘	-10.8844
或云	-10.8845
萬方	-10.8846
鬼王	-10.885
北方黑	-10.8856
每服	-10.8858
外有	-10.886
法食	-10.8863
解結	-10.8868
滅鬼	-10.8871
告齋	-10.8874
伏藏	-10.8877
衆等	-10.888
右符用	-10.8881
先生曰	-10.8882
幽隂	-10.8884
靈通	-10.8885
雷鳴	-10.8888
黄神	-10.8888
一服	-10.8889
七千	-10.8889
臣今	-10.8893
孛	-10.8893
證明	-10.8894
精靈	-10.8896
干冒聖威某下情無任惶懼之至謹	-10.8896
方得	-10.8897
保奏	-10.89
不畏	-10.89
犯者	-10.89
洞虚	-10.8902
顫	-10.8904
三十日	-10.8904
痒	-10.8905
玉陛	-10.8905
粲	-10.8906
神明君姓	-10.8906
撲	-10.8906
舎	-10.8906
也哉	-10.8907
之寳	-10.8907
七百	-10.8907
之辭	-10.8909
模	-10.8909
不順	-10.8909
玄臺	-10.891
邇	-10.891
收墳葬	-10.891
錄	-10.8912
桐	-10.8913
詮	-10.8914
援	-10.8915
三指	-10.8916
桓	-10.8917
汚	-10.8918
跣足	-10.8918
疼痛	-10.8919
正一功曹	-10.8919
福田	-10.892
劫運	-10.892
之患	-10.8921
金容	-10.8921
黜	-10.8921
一宿	-10.8923
壬午	-10.8923
火神	-10.8926
嚼	-10.8927
四目老翁	-10.8927
次書	-10.8928
某將	-10.8929
衛護	-10.8929
五帝大魔	-10.8931
之威	-10.8932
臨時	-10.8932
丹皇	-10.8932
以時	-10.8934
因而	-10.8934
不去	-10.8934
位登	-10.8936
動植	-10.8936
甲子日	-10.8937
十餘年	-10.8937
巳午	-10.8938
通傳	-10.8939
神女	-10.8941
閉口	-10.8941
長九寸	-10.8944
癸未	-10.8945
方治	-10.8948
萬氣	-10.8951
一行	-10.8951
來下	-10.8952
靈篇	-10.8955
得失	-10.8956
妖孽	-10.8957
如嬰兒	-10.8958
何須	-10.8958
次序	-10.896
淨明	-10.8962
左右手	-10.8965
呼之	-10.8965
干犯	-10.8966
雲龍	-10.8968
混成	-10.8969
焚化	-10.897
髙尊	-10.897
直符直事	-10.897
千載	-10.8971
之注	-10.8977
萬億	-10.898
五兩	-10.8983
宻念	-10.8984
神府	-10.8987
宗親	-10.8987
水旱	-10.8989
以兩手	-10.899
不著	-10.8991
安能	-10.8991
修建	-10.8994
三千六百	-10.8996
祈福	-10.9002
門外	-10.9002
道㫖	-10.9002
各執	-10.9002
隂靈	-10.9003
臣謹	-10.9004
一般	-10.9007
君諱	-10.9011
至矣	-10.9012
精兵	-10.9013
可不	-10.9013
金輪	-10.9015
執對	-10.9018
我道	-10.9019
受煉	-10.9023
眞水	-10.9024
此言	-10.9025
存至	-10.9027
聖師	-10.9031
三次	-10.9035
人命	-10.9035
有災	-10.9037
請照驗	-10.9037
下品	-10.9038
也自	-10.9038
玉格	-10.9039
乙丑	-10.904
諸人	-10.9041
明威	-10.9043
不可得而	-10.9046
毋得	-10.9046
代之	-10.9047
六年	-10.9051
地皇	-10.9051
碧霞	-10.9063
嚤	-10.9064
靈化	-10.907
罪根	-10.907
只是	-10.907
餓	-10.9073
四寸	-10.9074
鬼兵	-10.908
豈非	-10.9082
一階	-10.9082
後天	-10.9089
太上三尊	-10.9089
子午斗	-10.9092
執斧	-10.9095
九孔	-10.9095
戊子	-10.9097
之望	-10.9098
雷威	-10.9098
是其	-10.91
火炁	-10.9101
冥目	-10.9102
弔	-10.9105
生道	-10.9108
績	-10.911
劑	-10.911
僉	-10.911
九玄七祖	-10.9111
箱	-10.9113
迪	-10.9113
具法位臣姓某	-10.9114
家親	-10.9114
侮	-10.9115
產	-10.9116
紏察	-10.9116
構	-10.9116
苐	-10.9116
匀	-10.9117
颺	-10.9117
喚	-10.9117
架	-10.9118
太尉	-10.9119
抄	-10.9119
軻	-10.9119
辛天君	-10.9119
禾	-10.912
玉匱	-10.9121
豁落七元	-10.9121
靣	-10.9122
聖意云	-10.9123
㣲祝曰	-10.9123
天樂	-10.9124
可見	-10.9124
遷拔	-10.9125
逾	-10.9125
速赴	-10.9129
三將軍	-10.913
招眞	-10.913
戊午	-10.913
登齋	-10.913
誠心	-10.9133
開闢	-10.9133
束帶	-10.9133
戊辰	-10.9134
大道之	-10.9136
不入	-10.9137
常在	-10.9137
養神	-10.9142
天降	-10.9142
直入	-10.9145
驅役	-10.9145
歷代	-10.9146
黄巾	-10.9149
一元	-10.9149
必得	-10.9151
醮謝	-10.9153
普告三界	-10.9155
急急如北帝	-10.9157
明光	-10.9158
西嶽	-10.9158
無涯	-10.9161
感格	-10.9162
元洞	-10.9163
位爲	-10.9163
飛斗	-10.9164
中斗	-10.9165
黑虎	-10.9166
侍女	-10.9167
亦同	-10.9169
動雷	-10.917
則致	-10.917
六度	-10.9172
魁星	-10.9172
三匝	-10.9173
威力	-10.9174
輔星	-10.9174
之樂	-10.9175
則用	-10.9175
水盆	-10.9179
雷斧	-10.9179
尊星	-10.9179
景雲	-10.9179
投進	-10.918
泉源	-10.918
都功	-10.9182
籙中	-10.919
西南方	-10.919
不足以	-10.9193
某身中	-10.9197
雲霞	-10.92
二道	-10.92
河伯	-10.9201
五升	-10.9205
疾苦	-10.9205
末學	-10.9205
日新	-10.9207
安得	-10.9213
先用	-10.9215
王君	-10.9215
内音	-10.9218
帝闕	-10.9219
章書	-10.922
神童	-10.9221
難以	-10.9222
蝗	-10.9223
深重	-10.9223
受籙	-10.9224
人神	-10.9225
丁甲	-10.9226
起雲	-10.9226
以明	-10.9228
南上	-10.9229
丹經	-10.923
月宫	-10.9233
一云	-10.9234
法印	-10.9237
真火	-10.9238
在壇	-10.9239
七變	-10.9242
凝結	-10.9244
太一帝君	-10.9245
正真	-10.9249
玄光	-10.9251
齋意	-10.9253
内傳	-10.9253
四角	-10.9254
品格	-10.9254
黑暗	-10.9255
之又方	-10.9256
自古	-10.9259
爲首	-10.9259
已成	-10.9262
清都	-10.9264
之權	-10.9266
聖㫖	-10.927
召䰟	-10.9272
通逹	-10.9272
災殃	-10.9276
解散	-10.9278
如初	-10.9283
黄房	-10.9287
行令	-10.9289
硯	-10.9289
七尺	-10.929
天炁	-10.9292
杏	-10.9295
祥光	-10.9296
不犯	-10.93
中央黄帝	-10.9301
要在	-10.9305
如上法	-10.9306
以授	-10.9312
嘿	-10.9314
蟾	-10.9315
捧香驛龍騎吏侍香金童傳言散花	-10.9316
覔	-10.9316
日魂	-10.9316
圃	-10.9319
興雷	-10.9319
魔靈	-10.9319
恰	-10.932
對齋	-10.932
鬼魔	-10.932
坊	-10.932
四目	-10.9321
酆都山	-10.9321
隙	-10.9322
彬	-10.9323
疲	-10.9323
炓	-10.9323
廽	-10.9323
涌	-10.9324
誹謗	-10.9324
奄	-10.9325
坑	-10.9325
盗賊	-10.9325
明彰報應	-10.9326
三十萬兵	-10.9327
桃康	-10.9327
開關	-10.9327
噀水一口	-10.9328
有九	-10.9329
黙念	-10.9329
岑	-10.9331
扁鵲	-10.9332
畢便	-10.9332
九龍符命	-10.9333
來入	-10.9334
可漏式	-10.9334
掌中	-10.9334
影響	-10.9335
九千	-10.9337
經日	-10.9338
潭洞	-10.9338
成人	-10.9339
中庭	-10.934
互相	-10.9341
源流	-10.9341
之任	-10.9343
属	-10.9343
都講	-10.9344
事也	-10.9344
人以	-10.9345
乞丐	-10.9345
異香	-10.9345
中一	-10.9346
向上	-10.9347
城隍里社	-10.9347
真名	-10.9351
矣其	-10.9351
入户	-10.9352
醮祭	-10.9352
鐵甲	-10.9356
乙未	-10.9357
久久	-10.9357
輪廻	-10.9358
一隻	-10.9359
各二兩	-10.9359
七過	-10.936
天命	-10.9361
道學	-10.9362
玉漿	-10.9366
青陽	-10.937
明燈	-10.9371
最爲	-10.9376
二十四神	-10.9376
天剛	-10.9379
年月日時告下具位	-10.938
道法會元卷之	-10.9382
仰視	-10.9383
内文	-10.9383
其義	-10.9385
司録	-10.9389
訣取	-10.939
開泰	-10.9394
隱於	-10.9396
不輕	-10.9397
舌拄上腭	-10.9399
至重	-10.94
洞眞太上	-10.9402
聖號	-10.9407
章符	-10.9409
未知	-10.941
三禮	-10.9411
子母	-10.9412
至靈	-10.9412
丹法	-10.9415
澄心	-10.9416
都監	-10.9417
降致	-10.9417
印文	-10.9418
鎮星	-10.9418
自明	-10.942
朗然	-10.9426
故不	-10.9427
三呼	-10.9428
玄經	-10.9431
表白	-10.9431
以告	-10.9434
巽炁	-10.9436
邪妖	-10.9438
十八日	-10.9443
令我	-10.9444
地方	-10.9444
希有	-10.945
右腎	-10.9453
人門	-10.9453
小有	-10.9463
榮華	-10.9464
玄精	-10.9464
仙君	-10.9465
未來	-10.9466
艮宫	-10.9467
授於	-10.9473
心法	-10.9474
印印之	-10.9476
念道	-10.9477
召集	-10.948
六親	-10.9482
如遇	-10.9483
大事	-10.9487
不勞	-10.949
主張	-10.949
立誓	-10.9491
得之者	-10.9492
無令	-10.9496
教人	-10.9496
氣君召	-10.9499
傾心	-10.9502
火焰	-10.9502
道學不得教人	-10.9504
一毫	-10.9508
付授	-10.9508
君將吏	-10.951
稽延	-10.9513
逓	-10.9513
降福	-10.9515
不善	-10.9519
尉	-10.952
一筆	-10.952
祝之	-10.9521
印印	-10.9525
乃知	-10.9528
蔭	-10.953
扃	-10.9531
三者	-10.9531
直使功曹	-10.9532
毬	-10.9532
閒	-10.9532
璇	-10.9533
拍	-10.9533
之夫	-10.9534
應干合屬去處	-10.9535
金星	-10.9536
蟬	-10.9536
右有	-10.9537
於某處	-10.9538
聯	-10.9539
怖	-10.9539
頥	-10.954
噠	-10.954
丙寅	-10.9541
懃	-10.9541
慨	-10.9541
亶	-10.9542
凡事	-10.9542
随	-10.9542
峻	-10.9543
飛天神王	-10.9545
隣	-10.9546
摺	-10.9546
列仙傳	-10.9548
橘	-10.9549
主領	-10.9549
癰	-10.9549
澹	-10.955
各七	-10.955
投之	-10.9551
知者	-10.9552
玉册	-10.9554
前驅	-10.9555
炎光	-10.9557
長保	-10.9559
大指掐	-10.9559
寒熱	-10.956
依此	-10.9561
髙上玉皇	-10.9561
長一尺二寸	-10.9562
單衣	-10.9563
司額	-10.9564
衆經	-10.9564
信香	-10.9565
之庭	-10.9566
猛火	-10.9567
救民	-10.9567
靖室	-10.9569
大洞真經	-10.9569
度人上品妙經	-10.957
而言	-10.9578
家人	-10.958
聖帝	-10.9581
投於	-10.9582
以正	-10.9583
形如	-10.9589
不獲	-10.9592
無色	-10.9594
十丸	-10.9595
本院	-10.9597
幽微	-10.9598
惡根	-10.9598
澄清	-10.9601
也是	-10.9602
自號	-10.9603
有何	-10.9605
得受	-10.9609
持符	-10.9611
妙訣	-10.9611
都官	-10.9614
封之	-10.9614
禮師	-10.9617
無知	-10.9617
若人	-10.9622
矣凡	-10.9625
臨事	-10.9626
玄樞	-10.9627
京師	-10.9629
度脫	-10.9631
所化	-10.9632
長安	-10.9632
未分	-10.9633
忘形	-10.9634
巽上	-10.9634
何由	-10.964
急至	-10.9641
而未	-10.9643
五瘟	-10.9643
仙仗	-10.9646
之甚	-10.9646
奉戒	-10.9648
服方寸七	-10.9651
民間	-10.9654
亦以	-10.9655
羅天	-10.9655
衛我	-10.9657
一千	-10.9657
合眞	-10.9659
青玄上帝	-10.966
三眞	-10.9668
告曰	-10.9669
所宜	-10.9675
領仙	-10.9676
更無	-10.9678
雲雷	-10.968
合炁	-10.9681
在其中	-10.9682
神文	-10.9685
轉輪	-10.9685
靈府	-10.9686
上景	-10.9687
止於	-10.969
或見	-10.969
響應	-10.9691
或不	-10.9691
一息	-10.9696
一如律令	-10.9698
無益	-10.9699
道妙	-10.97
口傳	-10.9701
驅使	-10.9703
九土	-10.9705
表奏	-10.9705
靜室	-10.971
一小	-10.9711
明君	-10.9713
心也	-10.9714
萬精	-10.9714
一國	-10.9714
取炁吹	-10.9716
報對	-10.9719
呪三遍	-10.9719
符下	-10.9719
符吏天	-10.9721
揆	-10.9722
恩命	-10.9723
太極眞人	-10.9724
歩斗	-10.973
右手劒訣	-10.973
金符	-10.9731
今古	-10.9739
顯現	-10.9741
明道	-10.9743
形骸	-10.9744
杓	-10.9744
隨心	-10.9747
咳嗽	-10.9747
當用	-10.9748
銀牙	-10.9749
水盂	-10.9749
靴	-10.9749
沴	-10.9749
魓𩳐魒	-10.975
倏	-10.9751
凖	-10.9752
隸	-10.9752
兀	-10.9753
洋	-10.9754
禎祥	-10.9754
二使者	-10.9755
俞	-10.9756
癸酉	-10.9756
厠	-10.9756
鵠	-10.9756
夾脊	-10.9756
畫一	-10.9756
叚	-10.9756
甕	-10.9756
出出者嚴裝顯服冠帶垂纓關啓玄壇	-10.9756
太素三元君	-10.9757
鎚	-10.9757
熨	-10.9757
奴婢	-10.9758
興雲致雨	-10.9758
伏望聖慈	-10.976
綴	-10.976
虔誠	-10.976
紫虚元君	-10.9761
二百四十人	-10.9762
廼	-10.9762
高道傳	-10.9763
塩	-10.9763
戊戌	-10.9764
煮	-10.9764
斜	-10.9766
䏻	-10.9766
茫	-10.9766
小童	-10.9767
癸巳	-10.9767
屋宇	-10.9767
正音	-10.9768
劔訣	-10.9768
悖	-10.977
門庭	-10.9771
人身中	-10.9773
戊寅	-10.9775
萬天	-10.9777
召靈	-10.9777
箋狀	-10.9778
螫	-10.9778
急急如律令次	-10.9779
五卷	-10.978
五帝直符	-10.9781
丙辛	-10.9785
念天蓬呪	-10.9785
千萬丈	-10.9785
精氣	-10.9786
發奏	-10.9787
同心	-10.9787
亦爲	-10.9788
天丁冠	-10.9789
太上洞𤣥靈寶	-10.979
瓊輪	-10.979
四百	-10.9793
萬𩔖	-10.9793
聽候	-10.9793
入意臣	-10.9796
五篇	-10.9796
清風	-10.9797
此三	-10.9798
當院	-10.9798
治中	-10.98
豫	-10.9802
伯温	-10.9803
彼此	-10.9803
骨節	-10.9804
恭望	-10.9806
七寸	-10.9806
神司	-10.9807
霜雪	-10.9808
之臺	-10.9809
瓊林	-10.981
總領	-10.981
束形	-10.981
七百年	-10.9811
投誠	-10.9812
賢人	-10.9812
破穢	-10.9812
燒灰	-10.9813
提起	-10.9816
詩云	-10.9819
建獄	-10.982
擒捉	-10.9821
願賜	-10.9826
進士	-10.9826
以法	-10.9835
不可妄	-10.9839
不避	-10.9839
方諸	-10.9839
左手搯	-10.9843
以右手	-10.9846
召合	-10.9853
之印	-10.9857
聖眞	-10.9857
存元帥	-10.9858
取罡炁	-10.9861
專心	-10.9861
元老	-10.9862
積善	-10.9863
百拜	-10.9865
各依	-10.9866
身命	-10.9869
家宅	-10.987
永斷	-10.987
傳送	-10.987
但見	-10.9871
今世	-10.9872
焚修	-10.9874
威制	-10.9874
玄帝	-10.9874
爲師	-10.9879
常住	-10.988
甚多	-10.988
便得	-10.9882
府君	-10.9888
等分	-10.9892
煥明	-10.9893
赤龍	-10.9898
半兩	-10.9898
三惡	-10.9898
一家	-10.9899
主水	-10.9902
隨炁	-10.9902
男女生	-10.9902
萬國	-10.9904
文檄	-10.9907
不全	-10.9907
下士	-10.991
塞鬼路	-10.9912
咸得	-10.9913
要妙	-10.9913
奏爲	-10.9914
水調	-10.9915
詣師	-10.9918
億萬衆	-10.9918
紙筆	-10.9919
拷鬼	-10.9923
辟邪	-10.9924
辟除	-10.9924
元靈	-10.9925
惶懼	-10.9925
遣呪	-10.9926
同一	-10.9927
隻	-10.9929
盂	-10.993
不怠	-10.9932
殺生	-10.9936
煉形	-10.9936
嗣法弟子	-10.9938
各隨	-10.9938
其性	-10.9942
八百	-10.9942
故人	-10.9944
真元	-10.9954
滅邪精	-10.9955
一尺二寸	-10.9955
根源	-10.9957
南山	-10.9959
地分	-10.996
又恐	-10.9961
玄綱	-10.9962
臣某承誥奉召	-10.9962
乙卯	-10.9963
明眞	-10.9963
血刃	-10.9963
雲軿	-10.9965
庚辰	-10.9967
宫名	-10.9968
燒符	-10.9968
徽	-10.9968
語録	-10.9969
鐶	-10.997
峨	-10.9971
敢有拒逆	-10.9972
淚	-10.9973
屠割	-10.9975
不可得	-10.9975
旅	-10.9976
㓂	-10.9976
瞬	-10.9976
裔	-10.9976
洞天福地	-10.9977
儼然	-10.9977
曇	-10.9977
央	-10.9978
玉精	-10.9978
銳	-10.9978
岐	-10.998
鵲	-10.998
蘆	-10.998
整肅	-10.9981
㓜	-10.9982
些	-10.9982
扄	-10.9982
從來	-10.9982
天地水三官	-10.9983
中央黄老君	-10.9984
北玄	-10.9984
佩受	-10.9986
冒瀆	-10.9987
乙亥	-10.9989
止此	-10.999
大羅天	-10.9991
伐廟	-10.9992
飛精	-10.9994
下赴	-10.9994
罷對	-10.9995
三天正法	-10.9997
覆護	-11.0003
天王姓	-11.0004
祖天師	-11.0004
半夏	-11.0005
相似	-11.0005
道德天尊	-11.0007
朝修	-11.0008
誠惶誠恐稽首頓首再拜	-11.0009
觸犯	-11.0011
瓊臺	-11.0015
無物	-11.0015
大呪	-11.0017
禹餘天	-11.0017
何以故	-11.0017
修誦	-11.0018
受此	-11.0018
到此	-11.0019
思神	-11.0019
即命	-11.0019
長五寸	-11.002
北嶽	-11.002
一千二百	-11.0021
至神	-11.0022
應爲	-11.0022
交接	-11.0025
大帝敕	-11.0026
朝夕	-11.0028
靈根	-11.0028
五雷大法	-11.0029
當於	-11.003
普召	-11.003
急急奉行	-11.0031
召攝	-11.0033
之端	-11.0035
下情不勝	-11.0039
者杖一百	-11.004
之雲	-11.0042
中人	-11.0044
謹遣	-11.0045
苦海	-11.0046
一也	-11.0046
夢中	-11.0047
罪䰟	-11.0049
手中	-11.0053
須得	-11.0056
輪迴	-11.0057
傳受	-11.0057
神識	-11.0057
更有	-11.0058
告聞	-11.0059
霹靂震	-11.0063
所主	-11.0064
山河	-11.0064
觀其	-11.0065
欲界	-11.0068
忽聞	-11.0069
黑氣	-11.0069
知此	-11.007
其志	-11.0074
帝令	-11.0076
爲簡	-11.0082
電火	-11.0082
今者	-11.0084
求乞	-11.0084
人參	-11.0086
妙理	-11.0087
皇極	-11.0089
何不	-11.009
明珠	-11.0091
秋分	-11.0098
召雷神	-11.0099
上一	-11.0099
密呪	-11.01
數千	-11.0106
在世	-11.0108
不依	-11.0108
召魂	-11.011
斬馘	-11.0114
入事	-11.0115
當職	-11.0116
日三服	-11.0118
也乃	-11.012
飛霞	-11.0124
之異	-11.0129
枷鬼	-11.013
于後	-11.0135
太一眞君	-11.0136
自覺	-11.0136
大黄	-11.0136
玄圖	-11.0138
于今	-11.0141
合成	-11.0143
命籍	-11.0143
九變	-11.0143
神霄玉清眞王	-11.0145
火火	-11.0146
九尺	-11.0146
穢濁	-11.0147
不昧	-11.0148
異之	-11.0148
出遊	-11.0149
前有	-11.0159
死亡	-11.0162
臍下	-11.0163
上起	-11.0166
天有	-11.0168
玉臺	-11.0169
不濟	-11.0171
到來	-11.0171
耳中	-11.0174
神風	-11.0174
有罪	-11.0176
驅龍	-11.0177
故得	-11.0181
直齋	-11.0182
不退	-11.0184
七字	-11.0186
金字	-11.0186
心呪	-11.0188
大將軍眞符	-11.0189
塚	-11.019
還元	-11.019
之母	-11.019
傳法	-11.019
所聞	-11.0192
須當	-11.0193
諮	-11.0194
揈天	-11.0196
縷	-11.0198
無英	-11.0198
副帥	-11.02
上層	-11.02
吳	-11.02
嚙	-11.0201
六時	-11.0202
斫	-11.0202
絃	-11.0202
遯	-11.0202
糧	-11.0202
大洞眞經	-11.0203
陽之炁	-11.0203
羸	-11.0203
讚	-11.0203
謡	-11.0204
一作	-11.0204
秤	-11.0204
施爲	-11.0204
干冒天威	-11.0205
三魂七魄	-11.0205
叉腰	-11.0205
踵	-11.0205
𠂻	-11.0205
恱	-11.0206
款	-11.0206
脅	-11.0207
呉	-11.0207
濱	-11.0207
貧賤	-11.0207
靈書紫文	-11.0208
星火奉行	-11.0208
澆	-11.0208
頽	-11.0208
飴	-11.0208
妙行眞人	-11.0209
蘿	-11.0209
不住	-11.0209
天蓬天蓬	-11.0209
依應施行	-11.021
矣此	-11.021
升入	-11.021
元和	-11.0211
領詞虔切	-11.0212
捐	-11.0212
化作微塵	-11.0212
礬石	-11.0214
玄毋	-11.0214
𧵥	-11.0215
葛氏	-11.0215
水精	-11.0216
原宥	-11.0217
紫色	-11.0218
白光	-11.0218
槁	-11.0219
積功	-11.0219
上清靈寳大法	-11.0223
四曰	-11.0224
省府	-11.0224
火德	-11.0225
焚燒	-11.0228
靈司	-11.0228
延夀	-11.0231
庶可	-11.0234
逺近	-11.0235
魒星	-11.0237
飛走	-11.0238
吒唎	-11.0239
燥火	-11.024
主簿	-11.024
科文	-11.0241
春夏	-11.0241
紅光	-11.0249
經緯	-11.0249
宣化	-11.025
金城	-11.025
隱符	-11.0251
傷亡	-11.0252
相去	-11.0252
冬三月	-11.0255
木德	-11.0256
無異	-11.0256
居於	-11.0258
非法	-11.0258
以俟	-11.0259
四圍	-11.026
者謂	-11.026
齊臨	-11.0261
寳祕	-11.0261
亦不得	-11.0262
若夫	-11.0264
日月同	-11.0266
聞召	-11.0267
開目	-11.0267
真宰	-11.0268
切以	-11.0272
未幾	-11.0276
寒庭	-11.0277
霹靂攝	-11.0277
開元	-11.0278
日辰	-11.0279
官事	-11.0279
謹重誠上啓	-11.0286
酒果	-11.0288
心腹	-11.029
幽精	-11.0291
不仁	-11.0293
主司	-11.0294
長者	-11.0294
一天	-11.0297
一者	-11.0297
不以爲	-11.0303
大使	-11.0303
矣然	-11.0304
受之於	-11.0305
一萬人	-11.031
洞達	-11.0311
通感	-11.0312
化育	-11.0312
未敢自專	-11.0314
靈人	-11.0315
不待	-11.0317
莫非	-11.0318
其要	-11.0319
青繒	-11.0319
日日	-11.0321
以鼻引	-11.0322
學之士	-11.0325
萬病	-11.0328
方取	-11.033
黄河	-11.0331
玄風	-11.0334
祝云	-11.0337
愚人	-11.0338
上衝	-11.0338
聲色	-11.034
得遇	-11.0345
急急如律令呪畢	-11.0346
大凶	-11.0347
周行	-11.0347
治罪	-11.0349
人皇	-11.0352
太歲年月日	-11.0355
吸炁	-11.0355
爽靈	-11.0356
王侯	-11.0357
亦曰	-11.0358
以金	-11.0358
巳未	-11.0359
定志	-11.036
一朝	-11.036
五方蠻雷	-11.0363
科條	-11.0363
諸階	-11.0363
雲房	-11.0367
以生	-11.0369
不能自	-11.0371
大帝律令	-11.0372
二十四氣	-11.0377
不到	-11.0382
金母	-11.0384
濟世	-11.0385
内院	-11.0386
患者	-11.0387
凡所	-11.0388
呪七遍	-11.0388
尋常	-11.0388
腎水	-11.0389
誅滅	-11.0393
見於	-11.0393
一合下	-11.0395
勤行	-11.0396
願念	-11.0396
三十六部尊經玄中大法師	-11.0398
上境	-11.0398
諸獄	-11.0399
肝中	-11.04
二十四人	-11.0403
得神仙	-11.0403
間有	-11.0405
並無	-11.041
違科	-11.041
所授	-11.0412
之分	-11.0414
至于	-11.0414
小豆	-11.0415
上淸	-11.0415
三災	-11.0416
之屬	-11.0418
龍君	-11.0421
召神	-11.0421
煥赫	-11.0422
娘	-11.0423
伏念臣	-11.0423
島	-11.0424
魘	-11.0425
涼	-11.0425
仞	-11.0425
六氣	-11.0426
傳言	-11.0426
來日	-11.0429
胥	-11.0429
咀	-11.043
炒	-11.043
元化	-11.043
昬	-11.043
平生	-11.043
瓢	-11.0431
撤	-11.0431
三十六部尊經	-11.0432
譜	-11.0433
曩	-11.0434
惕	-11.0435
渥	-11.0436
玩	-11.0436
株	-11.0437
隂日	-11.0438
亦復如是	-11.0438
渺渺	-11.0439
霍亂	-11.0439
萬罪	-11.0439
漏泄	-11.0439
儛	-11.0439
修持	-11.0441
炮	-11.0441
嫁	-11.0441
禽獸	-11.0441
奈何	-11.0441
癸卯	-11.0442
霓	-11.0442
鏤	-11.0443
鄒	-11.0443
𣲖	-11.0443
斬勘	-11.0444
詢	-11.0445
虎豹	-11.0446
翮	-11.0446
豹	-11.0447
再加	-11.0447
入腹	-11.0447
道境	-11.0449
宗㫖曰	-11.0449
煖	-11.045
日月星宿	-11.0454
喜怒	-11.0454
不老	-11.0455
壇墠	-11.0455
盡皆	-11.0456
辛酉	-11.0457
迷魂	-11.0457
釡	-11.0457
雲錦	-11.0458
五色雲	-11.0459
魔試	-11.046
律令攝	-11.0461
也吾	-11.0462
卿從官十	-11.0463
化為	-11.0466
乙巳	-11.0467
第十二	-11.0467
當得	-11.0467
丹華	-11.0469
當爲	-11.047
下及	-11.0475
三辰	-11.0475
兩邊	-11.0476
謹奏	-11.0479
可知	-11.048
敷陳	-11.0482
子丑	-11.0483
坐卧	-11.0483
是用	-11.0484
取其	-11.0485
之山	-11.0488
唵吽吒唎	-11.0489
名號	-11.0489
則以	-11.049
金闕帝君	-11.0497
取北炁吹	-11.0499
難成	-11.0499
耳聞	-11.05
守護	-11.05
於身	-11.0501
黃籙	-11.0502
頭痛	-11.0509
三九	-11.0513
婦女	-11.0513
妙有	-11.0516
之仁	-11.0517
湧出	-11.0518
而歸	-11.0519
拘留	-11.0521
臨午	-11.0521
内丹	-11.0522
大降	-11.0522
千餘	-11.0523
三山	-11.0524
睿㫖	-11.0525
黒炁	-11.053
上合	-11.053
思念	-11.0532
乃可	-11.0533
之域	-11.0537
四神	-11.0537
小吏	-11.0538
三塗五苦	-11.0543
五六	-11.0544
紙錢	-11.0544
人中	-11.0546
無終	-11.0546
香案	-11.0548
心下	-11.0551
百千萬	-11.0552
不遵	-11.0554
來朝	-11.0557
西靈	-11.0558
方始	-11.0558
爲度	-11.0558
神道	-11.0563
士庶	-11.0564
永離	-11.0565
受苦	-11.0566
紫文	-11.0569
妖星	-11.057
啓聞	-11.0573
地界	-11.0574
然則	-11.0574
石室	-11.0577
分司	-11.0577
向外	-11.0577
守其	-11.0578
刻名	-11.058
亥子	-11.0581
申酉	-11.0581
即見	-11.0582
爲陽	-11.0583
奉法	-11.0584
素女	-11.0584
或在	-11.0585
之堂	-11.0586
安神	-11.0587
乙庚	-11.0588
不失	-11.0591
令太一	-11.0591
在上清	-11.0591
形容	-11.0595
香上	-11.0597
所管	-11.0599
香官	-11.0601
服炁	-11.0605
有志	-11.0607
眞光	-11.0608
交易	-11.061
之難	-11.0614
則可以	-11.0616
數年	-11.0618
自無	-11.0622
相交	-11.0627
帝座	-11.0629
者是也	-11.063
死䰟	-11.0631
凡情	-11.0631
眞相	-11.0632
出世	-11.0633
勿使	-11.0635
行此道	-11.064
治邪	-11.0641
天火	-11.0644
文武	-11.0645
蕩滌	-11.0646
辛未	-11.0646
左腎	-11.0647
下照	-11.0651
氏之	-11.0653
事實	-11.0654
九天生神	-11.0657
天篆	-11.0658
猴	-11.0665
麒麟	-11.0667
器中	-11.0668
蕆	-11.0669
鷹犬	-11.0669
紗	-11.067
並依	-11.067
魁𩲃𩵄䰢	-11.0671
碍	-11.0671
蓄	-11.0672
稔	-11.0672
襄	-11.0672
攘	-11.0673
抱朴子	-11.0673
九萬	-11.0673
噏	-11.0674
鉛汞	-11.0674
三五七九	-11.0674
三徧	-11.0674
傳非其人	-11.0675
占陰晴晴田蠶	-11.0675
握雷局	-11.0676
稟	-11.0676
陽宫	-11.0677
斗印	-11.0677
角亢	-11.0677
欎	-11.0677
斡旋	-11.0677
合屬眞司	-11.0677
咫尺	-11.0678
急如	-11.0678
膿	-11.0678
先凶後吉	-11.0679
禧	-11.0679
森羅	-11.0679
洞玄靈寶	-11.0679
懐	-11.0679
胤	-11.0679
喗	-11.068
紋繒	-11.068
菊	-11.0681
太無	-11.0681
稻	-11.0681
宸廷	-11.0682
摶	-11.0683
塗炭	-11.0684
五月五日	-11.0684
是經	-11.0684
康寧	-11.0685
蟲蝗	-11.0685
椎	-11.0685
夏三月	-11.0686
長生靈符	-11.0686
丙申	-11.0686
趍	-11.0687
輔佐	-11.0689
帙	-11.0689
牒合屬真司外	-11.0689
同日宫狀	-11.0689
死人	-11.069
降真	-11.0691
中指中文	-11.0691
倒海	-11.0692
太倉	-11.0692
玉冠	-11.0693
者其	-11.0694
元元	-11.0697
等法	-11.0699
道法會元卷之二百	-11.07
青城山	-11.07
衆靈	-11.0701
奔走	-11.0704
室主收	-11.0705
王甲	-11.0705
宜快	-11.0706
自從	-11.0706
臨軒	-11.0708
尚慮	-11.0708
物外	-11.0709
降聖	-11.0712
須知	-11.0713
之例	-11.0714
飢渴	-11.0716
直壇	-11.0716
三昧	-11.0716
散景	-11.0717
昇遷	-11.0717
妖魅	-11.0718
移文	-11.0723
奉迎	-11.0724
肺中	-11.0724
咭唎	-11.0725
發聲	-11.0725
十人	-11.0725
願爲	-11.0731
無疑	-11.0733
眞士	-11.0734
關牒	-11.0735
可漏	-11.0735
捲水	-11.0737
不顧	-11.0738
入水中	-11.0738
本位	-11.074
萬類	-11.074
誥命	-11.074
潤澤	-11.0742
希恩	-11.0743
嗣師	-11.0743
地煞	-11.0744
大作	-11.0747
初獻	-11.0749
上官	-11.075
非可	-11.0751
泰清	-11.0751
光華	-11.0754
相與	-11.0755
三枚	-11.0757
自天門	-11.076
吹之	-11.076
掾吏	-11.0761
玄元始	-11.0761
之典	-11.0763
不得違	-11.0763
如無	-11.0764
以備	-11.077
童君	-11.077
脾中	-11.0772
引領	-11.0772
受戒	-11.0773
宅中	-11.0773
地中	-11.0779
具足	-11.0783
火發	-11.0784
珠玉	-11.0785
真光	-11.0785
勳	-11.0787
金刀	-11.0787
乾宫	-11.0788
而用之	-11.0791
明真	-11.0794
化形爲	-11.0795
星主	-11.0795
不備	-11.0796
拜奏	-11.0797
未成	-11.0798
則可	-11.0803
爲民	-11.0804
鬼魂	-11.0807
此謂之	-11.0813
日平旦	-11.0815
立秋	-11.0817
五音	-11.0818
丘山	-11.0819
香烟	-11.082
善縁	-11.082
等無任	-11.0823
祕籙	-11.0825
駕景	-11.0826
本部	-11.0826
經籙	-11.0827
宣詞	-11.0827
掌心	-11.0827
專一	-11.083
所𨽻	-11.0831
號召	-11.0835
積年	-11.0835
身外	-11.0836
不度	-11.0836
紫微宫	-11.0837
衆妙	-11.0839
而復	-11.084
動止	-11.0842
皆從	-11.0845
虛書	-11.0847
天星	-11.0848
無盡	-11.0849
人見	-11.085
在左	-11.0851
羽服	-11.0852
五福	-11.0855
水洗	-11.086
經戒	-11.0865
斗極	-11.0865
長樂	-11.0867
東斗	-11.0867
北極大帝	-11.087
交合	-11.0872
心地	-11.0875
飲水	-11.0881
鬼路	-11.0884
左手持	-11.0886
照前	-11.0887
未悟	-11.0888
身無	-11.0888
法衆	-11.0888
右符鎭	-11.0889
圓通	-11.0894
生死之	-11.0895
玉庭	-11.0895
如或	-11.0899
吻	-11.0902
慙愧	-11.0903
其一	-11.0903
寐	-11.0904
左有	-11.0904
白石	-11.0906
在身	-11.0907
諸符	-11.0907
濛濛	-11.0909
唏	-11.0909
合同符	-11.091
劇	-11.091
岩	-11.091
臼	-11.0911
不忍	-11.0912
豈得	-11.0915
姬	-11.0915
謹謹上詣	-11.0916
驢	-11.0916
不傷	-11.0917
撮	-11.0917
合符	-11.0917
下一	-11.0917
敏	-11.0917
韜	-11.0917
皆在	-11.0918
齋主某	-11.0919
憚	-11.0919
鳳凰	-11.0919
耽	-11.092
洞玄靈寳法師南曹執法典者	-11.0921
哲	-11.0921
焚燎	-11.0921
七神	-11.0922
琉璃	-11.0922
好生之德	-11.0923
之果	-11.0923
豈有	-11.0924
干戈	-11.0924
日君	-11.0925
蕪	-11.0926
三官九府	-11.0926
言其	-11.0928
仲尼	-11.0929
朝真	-11.093
齎捧	-11.093
安穩	-11.0932
不得有違	-11.0932
丙辰	-11.0933
保佑	-11.0934
君姓	-11.0934
此身	-11.0934
即行	-11.0935
照應施行	-11.0935
謹上詣	-11.0936
彈指	-11.0936
謹奉	-11.0937
告召	-11.0938
海水	-11.0939
眞精	-11.0939
之東	-11.0939
三清上聖	-11.0942
卷一之五	-11.0945
劍訣	-11.0947
皆須	-11.095
四體	-11.0951
金磚	-11.0951
嵩山	-11.0952
大豆	-11.0952
神官	-11.0952
經註	-11.0954
護送	-11.0954
遵元降	-11.0955
天省	-11.0956
中界	-11.0957
不悟	-11.0958
六分	-11.096
心生	-11.096
飛青	-11.0962
金光炁	-11.0962
七十五	-11.0963
面南	-11.0965
左官	-11.0967
所致	-11.0967
垂光	-11.0968
書於	-11.0968
人形	-11.0969
却於	-11.0974
水上	-11.0975
矣故	-11.0975
皆悉	-11.0977
十二願	-11.0978
早朝	-11.0979
不過三	-11.098
在外	-11.098
科教	-11.098
全眞	-11.0981
足踏	-11.0983
異人	-11.0984
除去	-11.0985
矣夫	-11.0991
聻	-11.0993
二百四十	-11.0994
至大	-11.0996
師寳	-11.1
本處	-11.1
再用	-11.1001
光映	-11.1007
作福	-11.1008
無限	-11.1008
身上	-11.1009
鎭宅	-11.101
三十三	-11.101
請受	-11.1011
二七	-11.1014
自消	-11.1015
一函	-11.1016
至亥	-11.1016
降世	-11.1017
輕舉	-11.1017
胷中	-11.1019
百千	-11.1021
謁見	-11.1024
髙明	-11.1025
俱入	-11.1032
第二指	-11.1032
丹房	-11.1033
無上道	-11.1033
白色	-11.1037
見公	-11.104
風輪	-11.1043
告斗	-11.1044
無光	-11.1045
十轉	-11.1046
隨所	-11.105
曰凡	-11.105
爲上	-11.1051
引炁	-11.1052
隱隱	-11.1052
九芒	-11.1052
分位	-11.1053
諸家	-11.1054
黃素	-11.1055
六陽	-11.1056
一㸃	-11.1058
六尺	-11.1058
護國	-11.1058
常用	-11.1058
恭依	-11.106
帝真	-11.1061
入我	-11.1063
中官	-11.1064
靈山	-11.1065
正教	-11.1065
陽生	-11.1065
仙聖	-11.1067
符籍	-11.1068
萬歲	-11.1069
覆之	-11.1072
誰能	-11.1074
作善	-11.1075
六害	-11.1075
靈宫	-11.1077
邵	-11.1078
巳文	-11.1079
應驗	-11.1083
唎吽	-11.1083
體用	-11.1086
開天門閉地户留人門	-11.1086
召汝	-11.1089
行持之士	-11.1089
設教	-11.109
毋令	-11.1092
發符	-11.1098
身在	-11.1098
弼星	-11.1099
受化	-11.1101
修學	-11.1102
八分	-11.1102
王公	-11.1107
帝號	-11.1109
飛罡	-11.111
金蓮	-11.1111
書此符	-11.1111
合㑹	-11.1114
耀靈	-11.1115
酆山	-11.1115
消散	-11.1117
一靈	-11.1118
古科	-11.1119
錦衣	-11.1119
流景	-11.112
道教	-11.1121
一依	-11.1123
甲巳	-11.1124
勤苦	-11.1126
五香	-11.1126
寳訣	-11.1126
假如	-11.1127
字符	-11.1128
無故	-11.1129
言也	-11.1137
方無極飛天神王	-11.1139
大帝勑	-11.114
薑	-11.114
痢	-11.1143
二人上靈官	-11.1143
玄功	-11.1143
雷字	-11.1146
是日	-11.1151
鞫	-11.1154
奈	-11.1155
太白星	-11.1156
取天門	-11.1158
茶酒	-11.1159
溟泠	-11.116
面有	-11.1161
咨	-11.1161
出自	-11.1163
迭	-11.1163
五臟六腑	-11.1163
啄	-11.1165
東西南北	-11.1166
圗	-11.1166
玄元始三炁	-11.1166
輕泄漏慢	-11.1166
織	-11.1166
嘻	-11.1166
玄恩	-11.1167
當此之時	-11.1167
不得留停	-11.1167
者並	-11.1167
出堂頌	-11.1167
五雷使院	-11.1168
䆫	-11.1168
冥關	-11.1168
香雲	-11.1169
蓊	-11.1169
黍	-11.1169
這	-11.117
迦	-11.117
壬戌	-11.117
神寳	-11.117
濟人	-11.1171
聖惠方治	-11.1171
九州分野	-11.1171
朱陵火府	-11.1171
鮑	-11.1172
袂	-11.1173
上用	-11.1173
羞	-11.1173
祝融	-11.1173
頴	-11.1174
天心正法	-11.1174
契勘	-11.1174
某年	-11.1175
媱	-11.1175
弩	-11.1175
盜賊	-11.1176
半斤	-11.1177
混合百神	-11.1177
返生	-11.1177
拯濟	-11.1178
須至申聞者右	-11.1178
小腸	-11.1179
死鬼	-11.118
此藥	-11.1181
百骸	-11.1181
筌	-11.1184
豈知	-11.1185
高功	-11.1186
開圖	-11.1187
蜂	-11.1187
摧傾	-11.1189
監臨	-11.1191
本府	-11.1193
經營	-11.1193
待時	-11.1195
指上節	-11.1196
死後	-11.1198
求受	-11.12
寅文	-11.12
章中	-11.1201
所告	-11.1202
姓某狀	-11.1203
速令	-11.1203
死之訟	-11.1206
歸心	-11.1206
在右	-11.1207
奏事	-11.1211
精炁	-11.1213
元素	-11.1219
遠近	-11.1221
元始一炁	-11.1222
紫户	-11.1224
定位	-11.1228
妻子	-11.1228
汝身	-11.1232
辛巳	-11.1233
戌亥	-11.1233
具載	-11.1233
紫霄	-11.1237
謹録狀上奏	-11.1237
救旱	-11.124
勇猛	-11.1241
語言	-11.1243
太帝君	-11.1243
因以	-11.1245
法先	-11.1246
玉輿	-11.125
紫霞	-11.1251
採藥	-11.1252
西臺	-11.1253
太上丈人	-11.1254
降於	-11.1256
旦夕	-11.1259
事事	-11.1259
右手持	-11.1261
治國	-11.1261
徃徃	-11.1263
速速	-11.1265
急急攝	-11.1267
昭昭	-11.1269
正坐	-11.1273
紫虛	-11.1274
吾是	-11.1274
某年月日時	-11.1274
飛輿	-11.1275
之辰	-11.1276
宅舍	-11.128
登真	-11.1281
專司	-11.1282
隱語	-11.1283
告諸	-11.1284
衣食	-11.1286
何物	-11.1287
破地獄	-11.129
皆出	-11.1291
交會	-11.1292
焚於	-11.1293
方用	-11.1295
覩光明	-11.1295
喜慶	-11.1296
付之	-11.1297
老子曰	-11.1297
陽氣	-11.1299
保仙	-11.1304
落死	-11.1305
字號計十卷太上	-11.1307
未遂	-11.1312
我當	-11.1318
疾厄	-11.1323
法也	-11.1327
告下者	-11.1329
入吾	-11.133
龍文	-11.133
又當	-11.1332
庶得	-11.1335
又命	-11.1336
而欲	-11.1338
禹歩	-11.1339
稱善	-11.1341
乃止	-11.1346
而化	-11.1348
某州	-11.1349
頂中	-11.1352
方上	-11.1353
雷祖大帝	-11.1353
北府	-11.1354
天地同	-11.1355
自可	-11.1362
本身	-11.1365
目録	-11.1365
成文	-11.1365
以白	-11.1365
太上大道	-11.1365
三洞之	-11.1366
行道法事陞壇如式	-11.1367
月將	-11.1368
請雨	-11.1373
遍身	-11.1377
日直	-11.1378
見患	-11.1379
廟貌	-11.1383
隨宜	-11.1383
海瓊	-11.1385
他方	-11.1387
先念	-11.1387
君主	-11.1394
也非	-11.1395
得聞	-11.1398
受其	-11.14
拽	-11.14
九遍	-11.1403
死之訟訴其	-11.1405
木公	-11.1405
者哉	-11.1407
先後	-11.1413
眞陽	-11.1413
右符鎮	-11.1413
黄紙朱書	-11.1415
□□(	-11.1416
菲	-11.1417
俯伏	-11.1418
降炁	-11.1419
涕	-11.142
呪畢存	-11.1421
羽章	-11.1422
勦	-11.1423
庥	-11.1423
蟄	-11.1423
輟	-11.1423
敘	-11.1423
不當	-11.1423
燮	-11.1424
占陰晴雨田蠶	-11.1424
占陰晴半陰半晴田蠶	-11.1425
男左女右	-11.1425
春三月	-11.1425
之階	-11.1425
衿	-11.1425
𦍙	-11.1426
公事	-11.1426
嚴裝	-11.1427
飜	-11.1427
欠	-11.1427
飬	-11.1427
渭	-11.1427
戢	-11.1427
各三十二人	-11.1428
鬱勃	-11.1429
荐	-11.1429
赤書玉字	-11.1429
合屬去處	-11.1429
留人門	-11.1429
舄	-11.1429
侈	-11.143
猥	-11.143
駢	-11.1431
汎	-11.1432
髙靈	-11.1432
八節之日	-11.1432
非也	-11.1433
拱手	-11.1433
賞罰	-11.1433
蝶	-11.1434
仙童玉女	-11.1435
壬申	-11.1436
翊衛	-11.1437
千變萬化	-11.1437
咸令照應	-11.1437
蓬頭	-11.1439
與世	-11.1439
監生大神	-11.144
身生	-11.144
璞	-11.1441
上帝有敕	-11.1442
騰騰	-11.1444
伏屍	-11.1446
之世	-11.1452
黑風	-11.1455
淺深	-11.1455
内鍊	-11.1457
保胎	-11.1458
諸經	-11.1458
餓鬼	-11.1459
天律	-11.146
滯魄	-11.1461
學道之士	-11.1461
大抵	-11.1466
法式	-11.1466
寂寂	-11.1467
久而	-11.147
紅塵	-11.147
六幕	-11.1472
特賜聖㫖	-11.1475
入内	-11.1475
七靈	-11.1476
聖㫖下	-11.1477
者蓋	-11.148
黄繒	-11.148
厄難	-11.1483
傳於	-11.1484
呪一遍	-11.1484
示之	-11.1484
而求	-11.1485
所薦	-11.1485
搗末	-11.1486
眞風	-11.1486
世以來	-11.1486
下愚	-11.1486
逍遥上清	-11.1487
照徹	-11.1488
科戒	-11.1488
目視	-11.1489
火符	-11.1489
九宸	-11.1489
祕諱	-11.1489
三萬	-11.149
多有	-11.1492
剔入	-11.1492
同此	-11.1493
之頃	-11.1494
傳付	-11.1497
歲月	-11.15
謹牒	-11.15
反胎	-11.1506
胎生	-11.1508
霍	-11.1509
十有	-11.151
齊并	-11.151
在人間	-11.1511
奉送	-11.1512
一節	-11.1512
等伏聞	-11.1514
祝白	-11.1515
真司	-11.1516
埋之	-11.1517
錬形	-11.1517
清虛	-11.1517
臣姓	-11.1519
身中令	-11.152
何謂	-11.1521
將軍五人	-11.1521
流俗	-11.1521
汗出	-11.1522
朝上帝	-11.1522
奏上帝	-11.1525
之獄	-11.1529
其光	-11.153
一處	-11.1536
熒惑星	-11.1537
立成	-11.1538
大戒	-11.1538
安康	-11.1539
玉清上帝	-11.1544
威攝	-11.1544
六人	-11.1546
定録	-11.1547
盟天	-11.1547
黄連	-11.1548
蠻雷使者	-11.155
三十七	-11.1552
奉修	-11.1554
自天	-11.1554
事由	-11.1556
道備	-11.1557
時時	-11.1558
一通上詣	-11.1558
依律	-11.1559
方丈	-11.156
者或	-11.1563
件	-11.1563
水怪	-11.1564
㫖命	-11.1567
眞君律令	-11.1568
或是	-11.1569
隨身	-11.1571
九帝	-11.1573
形於	-11.1574
仰祈	-11.1576
真訣	-11.158
之華	-11.1581
經寳	-11.1582
右奉	-11.1583
得道者	-11.1584
俾令	-11.1586
之南	-11.1587
過此	-11.1588
亦須	-11.1588
若遇	-11.1589
相連	-11.1591
九天上帝	-11.1592
小指	-11.1593
仙經	-11.1593
澤地	-11.1594
安於	-11.1597
無外	-11.1598
如未	-11.1598
▁右	-11.1603
不任	-11.1603
三代	-11.1605
天霹靂	-11.1607
得以	-11.1608
章詞	-11.161
威嚴	-11.1611
修行人	-11.1613
分布	-11.1617
因依	-11.1619
育物	-11.162
仙家	-11.1625
釋放	-11.1627
精魅	-11.1633
狀奏	-11.1634
一徧	-11.1637
或作	-11.1637
急急如律令右符	-11.1637
皆如	-11.1638
主吏	-11.1641
正立	-11.1643
非是	-11.1646
禱雨	-11.1649
紫金	-11.165
世所	-11.165
歸根	-11.1651
北陰	-11.1651
命元	-11.1652
刀圭	-11.1654
此書	-11.1655
解禳	-11.1655
登明	-11.1656
録奏	-11.1656
吞魔食鬼	-11.1661
二章	-11.1661
兩儀	-11.1662
之福	-11.1663
世有	-11.1665
鬼滅	-11.1667
喘	-11.1668
菖蒲	-11.1671
從師	-11.1672
芥	-11.1673
炷	-11.1674
睛	-11.1674
神驗	-11.1675
塵世	-11.1675
普及	-11.1676
符書	-11.1678
水潦	-11.1679
盥	-11.1679
嫁娶	-11.168
恚	-11.168
僕射	-11.1681
塞鬼路穿鬼心破鬼肚	-11.1681
移山	-11.1681
敢忘	-11.1681
瘵	-11.1681
祼	-11.1681
驟	-11.1683
汨	-11.1683
三真	-11.1685
黏	-11.1685
靈眞	-11.1685
啄齒	-11.1686
韓君丈人	-11.1686
誌	-11.1686
羅㬋	-11.1686
神魂	-11.1686
牖	-11.1687
法銜姓九天掌雷採訪使應元保運眞君	-11.1687
鎔	-11.1687
恩惟太上	-11.1689
紛紜	-11.1689
遨	-11.169
癢	-11.169
瘦	-11.169
様	-11.169
伏羲	-11.1691
激剥	-11.1691
恥	-11.1692
弭	-11.1692
常居	-11.1692
霏	-11.1692
雷公電母風伯雨師	-11.1693
曳	-11.1693
鐡	-11.1693
太一救苦天尊	-11.1694
拆	-11.1694
阻滯	-11.1694
火鴉	-11.1694
他日	-11.1695
進賢	-11.1695
鞠	-11.1696
椀	-11.1696
騁	-11.1696
君居之	-11.1696
遏截	-11.1696
迷惑	-11.1697
不驕樂天	-11.1697
儼	-11.1698
騎各九億萬衆	-11.1698
何鬼敢	-11.1698
剛柔	-11.1698
栗	-11.1698
步斗	-11.1699
而知	-11.17
斛食	-11.1705
太上无極大道	-11.1706
修善	-11.1706
十方靈寳天尊	-11.1706
䇿杖	-11.1706
翟	-11.1707
收擒	-11.1709
與汝	-11.1709
各宜	-11.1709
不染	-11.171
究竟	-11.171
大帥	-11.171
第十一	-11.171
神烈	-11.1711
罪犯	-11.1712
至極	-11.1713
舌尖	-11.1716
命令	-11.1717
无復	-11.1717
提携	-11.1718
遣使	-11.1718
玉笈	-11.172
龜蛇	-11.1722
出門	-11.1725
合藥	-11.173
務要	-11.1731
乃命	-11.1733
圓象	-11.1735
髙皇	-11.1738
適意	-11.1741
隂符	-11.1741
佐助	-11.1741
伏冀	-11.1742
干冒	-11.1742
正一盟威	-11.1744
如此之人	-11.1745
反覆	-11.1745
日華	-11.1748
淨水	-11.1749
章法	-11.1749
靈芝	-11.1754
護持	-11.1755
半升	-11.1755
自後	-11.1756
結盟	-11.1757
二轉	-11.1759
此心	-11.1759
又如	-11.176
蒼龍	-11.1761
六賊	-11.1761
所修	-11.1764
燄	-11.1764
文彩	-11.1765
斗一座	-11.1765
義曰	-11.1768
法橋	-11.177
二十日	-11.177
惡逆	-11.1771
金鈴	-11.1772
元吉	-11.1775
本命之日	-11.1776
品第十	-11.1776
大布	-11.1776
道本	-11.1778
切宜	-11.1779
三盟	-11.1779
也是以	-11.1779
攝精	-11.1781
敢當	-11.1782
齋堂	-11.1784
亦名	-11.1785
衆邪	-11.1785
空心	-11.1786
非眞	-11.1786
後生	-11.1789
不思	-11.1789
與語	-11.1789
遣將	-11.1791
不專	-11.1791
大海	-11.1792
吾召	-11.1794
道要	-11.1798
水陸	-11.1798
靈魂	-11.1799
問道	-11.1802
取煞炁	-11.1802
等處	-11.1803
雨露	-11.1804
訣目	-11.1804
玄奥	-11.1804
白雪	-11.1805
隨人	-11.1806
玉篆	-11.1809
肉人	-11.181
雷帥	-11.1811
八海	-11.1814
合并	-11.1817
動作	-11.182
虎頭	-11.182
鎭星	-11.1821
不和	-11.1825
成子	-11.1827
惟有	-11.1828
生者	-11.183
玉局	-11.1833
入體	-11.1835
隨機	-11.1839
飛靈	-11.1841
十六日	-11.1843
長年	-11.1845
立差	-11.1845
神祠	-11.1846
是我	-11.1846
道寳	-11.1846
五戒	-11.1846
霄漢	-11.1846
七聖	-11.1848
諸司官將	-11.1849
高聲	-11.185
地神	-11.185
猶未	-11.1851
五字	-11.1854
因此	-11.1857
化應聲天	-11.1857
之憂	-11.1858
有勑	-11.1858
丹心	-11.1859
保全	-11.1861
不存	-11.1861
玉契	-11.1862
罪目	-11.1862
聚神	-11.1863
生世	-11.1866
一錢	-11.187
正陽	-11.1872
真武	-11.1873
定息	-11.1874
齋儀	-11.1877
觀身	-11.1877
五曰	-11.1878
本師	-11.1879
向南	-11.188
延長	-11.1881
者仰	-11.1884
多則	-11.1884
追鬼	-11.1886
絳雲	-11.1888
紫蓋	-11.1889
文檢	-11.189
先書	-11.1893
有聲	-11.1896
九百	-11.1904
令下	-11.1907
木星	-11.1908
百八十	-11.1909
有物	-11.1909
僊官	-11.191
斡	-11.191
奉勑	-11.1911
室主治	-11.1911
内思	-11.1912
陽斗	-11.1912
風起	-11.1919
駕龍	-11.1921
中層	-11.1921
至如	-11.1925
合景	-11.1925
本身符	-11.1927
亦當	-11.1927
殺之	-11.1928
鬼妖	-11.1928
宣示	-11.1928
火官	-11.1931
惡夢	-11.1933
想見	-11.1934
天門炁	-11.1936
靈嶽	-11.1936
爲眞人	-11.1936
並朱書	-11.1937
聽法	-11.1939
酒食	-11.1942
邪氣	-11.1942
知磬舉	-11.1944
龔	-11.1946
未始	-11.1947
此外	-11.1948
月魄	-11.1948
右法掐辰文取巽炁	-11.1949
靈明	-11.195
之表	-11.195
上帝有勑	-11.1951
閻	-11.1951
繕	-11.1951
雞犬	-11.1953
天上地下	-11.1953
未必	-11.1953
陰德	-11.1954
哥	-11.1954
八萬四千	-11.1954
稷	-11.1954
罵	-11.1954
簾	-11.1954
捻香功德歸流	-11.1954
雷霹靂	-11.1955
不知何許人	-11.1955
叩齒五通	-11.1955
同行	-11.1956
三洞羣仙録卷之	-11.1956
元亨利貞	-11.1957
黍米	-11.1957
暘谷神王	-11.1957
全形	-11.1957
溟涬	-11.1957
黍珠	-11.1957
稼	-11.1957
舛	-11.1958
酣	-11.1958
帷	-11.1958
叱咤	-11.1959
咈	-11.1959
書成	-11.1959
不靈	-11.196
萃	-11.196
寜	-11.1961
涎	-11.1961
隠	-11.1961
道經當思	-11.1961
君五人官將一百二十人治	-11.1962
吟詠	-11.1962
航	-11.1962
邉	-11.1963
其數	-11.1963
不侵	-11.1964
庚戌	-11.1964
尾閭	-11.1964
纒綿	-11.1964
大梵隱語	-11.1965
鐵索	-11.1965
天牢地獄	-11.1965
瘴	-11.1965
三部八景	-11.1966
竄	-11.1966
但有	-11.1967
悠悠	-11.1967
張元伯	-11.1969
虚生	-11.1969
顓	-11.1969
扶桑大帝	-11.1969
考勘	-11.1969
十二人上靈官右	-11.1972
者徒三年	-11.1972
篇目	-11.1973
腰帶	-11.1974
驛吏	-11.1974
不得拘留	-11.1974
賢愚	-11.1977
以濟	-11.1977
亦不可	-11.1978
塵垢	-11.1978
水水	-11.1979
盡其	-11.1981
虚無自然	-11.1982
總統	-11.1987
上學	-11.1988
洞煥	-11.199
其德	-11.1991
雷揈	-11.1991
九仙	-11.1992
各方	-11.1993
三洞法師	-11.1994
光童子	-11.1995
思慮	-11.1996
黄芽	-11.1997
爲下鬼	-11.1997
有常	-11.1997
上件	-11.1998
請頒	-11.1999
泥丸中	-11.2001
搜捉	-11.2003
丙乙	-11.2003
檢會	-11.2004
隨我	-11.2006
閉息	-11.2006
乾上	-11.2008
降生	-11.2009
腎中	-11.201
靈都	-11.201
所知	-11.2013
照破	-11.202
計都	-11.2021
調理	-11.2022
鳯文	-11.2023
亦是	-11.2027
雷公將軍	-11.2027
散髮	-11.2027
引至	-11.203
鐵板	-11.203
謹上啓	-11.2031
甲等	-11.2031
入中宫	-11.2032
未判	-11.2034
乗虚	-11.2034
三十萬人	-11.2036
詔命	-11.2038
逆順	-11.2038
唵嚩	-11.2039
洞映	-11.2042
曜明	-11.2045
吐火	-11.2048
時辰	-11.2049
行化	-11.205
傳奏	-11.205
玉門	-11.2054
郡縣	-11.2054
以黄	-11.2055
當歸	-11.2056
隱顯	-11.2057
不定	-11.2059
最靈	-11.2061
方知	-11.2062
速現	-11.2062
依按	-11.2063
取汁	-11.2063
節制	-11.2064
无色	-11.2065
之木	-11.2069
慾界	-11.207
拔罪	-11.207
一百八十	-11.2072
災害	-11.2072
十六字	-11.2075
此即	-11.2077
玄曹	-11.2078
云此	-11.208
功用	-11.2083
矣又	-11.2084
直指	-11.2084
之淵	-11.2085
體生	-11.2087
少女	-11.2088
日月五星	-11.209
二十七日	-11.2093
諸事	-11.2095
猶有	-11.2097
百節	-11.2098
爲汝	-11.2098
小吉	-11.2098
鬼户	-11.2099
也且	-11.2099
八人	-11.2099
多生	-11.2099
法令	-11.2099
同時	-11.2107
厭穢	-11.2107
丹訣	-11.2108
斗牛	-11.2111
普照	-11.2112
自相	-11.2114
桃木	-11.2115
天開	-11.2115
來赴	-11.2117
壇席	-11.2119
不可輕	-11.2123
攝伏	-11.2128
急急如太上	-11.2128
聖威	-11.2131
腎炁	-11.2131
自言	-11.2134
惟願	-11.2134
之流	-11.2135
炁聚	-11.2139
鬼邪	-11.214
竈中	-11.214
三千人	-11.2142
部下	-11.2144
青黄	-11.2147
房中	-11.2148
六國	-11.215
在手	-11.2151
午出	-11.2154
南方蠻雷	-11.2154
仙真	-11.2155
諸衆生	-11.2157
印式	-11.2158
火字	-11.2158
左眼	-11.216
鎮宅	-11.216
諸魔	-11.216
井字	-11.2165
五兵	-11.2169
有感	-11.2172
速攝	-11.2175
又豈	-11.2176
以朱書	-11.2178
分等	-11.2179
犯罪	-11.218
一手	-11.2181
無定	-11.2181
申上	-11.2186
千歲	-11.2188
有限	-11.2188
覩此	-11.2191
相通	-11.2192
六情	-11.2193
不妨	-11.2194
有時	-11.2195
所須	-11.2196
井中	-11.2199
又於	-11.2207
穢炁	-11.221
眞令	-11.2211
百人	-11.2213
廟在	-11.2215
一品	-11.2216
鍊形	-11.2216
清眞	-11.2216
正一法文	-11.2222
自成	-11.2222
修用	-11.2223
𠰢	-11.2227
浦	-11.2227
股	-11.2227
華光	-11.2228
名列	-11.2228
眩	-11.2229
蒜	-11.2229
洋洋	-11.2229
鐵棒	-11.2231
丈夫	-11.2231
課	-11.2231
不得久停	-11.2232
金籙齋	-11.2233
社廟	-11.2234
速達徑御至真無極大道昊天玉皇上帝	-11.2234
聿	-11.2234
冑	-11.2234
誠惶誠恐稽首頓首再拜上言	-11.2235
五芝	-11.2235
朱彦	-11.2235
紳	-11.2235
七真曰	-11.2235
宣傳	-11.2236
囑	-11.2236
高道傳道士	-11.2236
狩	-11.2236
其眞	-11.2236
慙	-11.2237
攷	-11.2238
狹	-11.2238
龍飛	-11.2238
壼	-11.2238
擁護	-11.2238
茫茫	-11.2238
南斗六司	-11.2238
隴	-11.2239
寥廓	-11.2239
𥨸	-11.2239
關申	-11.2239
曦	-11.2241
楹	-11.2241
障礙	-11.2241
瞳	-11.2241
巔	-11.2242
瀛	-11.2242
戰慄	-11.2242
綉	-11.2242
畢仰嚥	-11.2243
街	-11.2243
牢獄	-11.2243
土皇姓	-11.2244
繆	-11.2244
更不	-11.2244
懇禱	-11.2245
而不可	-11.2245
帝廷	-11.2245
也但	-11.2245
南海	-11.2246
軰	-11.2247
七氣	-11.2248
遇出行	-11.225
十二人上靈官左	-11.2251
鼻孔	-11.2251
虎賁	-11.2251
滯爽	-11.2252
酥	-11.2252
咽喉	-11.2254
猪脂	-11.2254
淮南	-11.2256
敞	-11.2256
六戊	-11.2256
營衞	-11.2256
葵	-11.2257
六腑	-11.2257
罔極	-11.226
正一天師	-11.226
廣濟	-11.226
丙戌	-11.2262
血脉	-11.2262
就某處	-11.2262
杏人	-11.2262
種田	-11.2262
行之九年	-11.2263
北斗九皇	-11.2264
空虚	-11.2264
乙酉	-11.2265
物物	-11.2266
讀之	-11.2267
重玄	-11.2269
不成官事	-11.2269
漢天師	-11.227
豐登	-11.2273
非我	-11.2273
直衝	-11.2274
轟雷	-11.2275
宣通	-11.2277
外合行	-11.2278
覆載	-11.2278
洗滌	-11.2278
取巽炁	-11.2279
右件	-11.2279
南陽	-11.228
合和	-11.2281
醫治	-11.2282
充滿	-11.2283
統御	-11.2283
時節	-11.2283
中盟	-11.2284
幽暗	-11.2285
獲禱祀	-11.2286
打坐	-11.2288
何用	-11.2292
深愆	-11.2293
冲和	-11.2294
鼻引	-11.2296
天地日月	-11.2297
玄女	-11.2301
各以	-11.2301
穢氣	-11.2305
道藏	-11.2306
冥心	-11.2308
煎鬼	-11.231
次運	-11.2319
法部	-11.2319
三步	-11.2321
醮禮	-11.2322
文王	-11.2326
馘滅	-11.2326
何人	-11.2327
百餘	-11.2328
晴雨	-11.233
重撰	-11.2333
立冬	-11.2334
鬼鬼	-11.2334
而致	-11.2334
乃爲	-11.2336
答言	-11.234
芝草	-11.2341
少隂	-11.2344
飛雷	-11.2347
準令	-11.2349
天輔	-11.2351
無聲	-11.2353
上極	-11.2354
都省	-11.2356
仰望	-11.2359
禮樂	-11.2362
祝香	-11.2363
非一	-11.2365
爾乃	-11.2366
急急準	-11.2366
科格	-11.2368
赤面	-11.2368
筆書	-11.2369
尚有	-11.2371
照會	-11.2371
羽裙	-11.2371
諸王	-11.2372
造物	-11.2375
神全	-11.2377
所合	-11.2378
無憂	-11.2379
精專	-11.2382
監壇	-11.2384
夜行	-11.2384
易曰	-11.239
白氣	-11.2391
不斷	-11.2391
施食	-11.2391
苗稼	-11.2395
之所以	-11.2397
承天	-11.2397
所薦亡	-11.2398
准此	-11.2399
二十四字	-11.2403
七返	-11.2404
而坐	-11.2407
暇	-11.2411
土地等神	-11.2411
晚朝	-11.2411
不使	-11.2411
玉京山	-11.2412
差使	-11.2415
務令	-11.2416
北面	-11.2418
乘空	-11.2421
海中	-11.2425
即有	-11.2427
無差	-11.2428
以劒	-11.2432
頭面	-11.2435
絶滅	-11.2435
成都	-11.2438
所當	-11.2441
施之	-11.2444
地炁	-11.2445
年限	-11.2445
謂曰	-11.2445
凡世	-11.2446
天綱	-11.2446
經書	-11.2446
此事	-11.2446
動用	-11.2447
又復	-11.2447
玉童玉女各	-11.2449
受符	-11.2449
攝䰟	-11.2449
金玄	-11.2451
珏	-11.2452
吐出	-11.2454
正行	-11.2456
不分	-11.2456
今故	-11.2457
見在	-11.2458
則曰	-11.2458
一過	-11.2461
勿食	-11.2461
級	-11.2463
春分	-11.2466
手執金	-11.2467
易之	-11.2471
攝邪	-11.2471
尊帝	-11.2471
陽間	-11.2472
遣人	-11.2472
歌曰	-11.2474
千千	-11.2478
北方黒帝	-11.248
眞誥	-11.2481
朱表	-11.2482
荅	-11.2484
取北炁	-11.2487
殿上	-11.2488
以和	-11.2489
定光	-11.2492
得度	-11.2493
子能	-11.2493
腋	-11.2495
吞下	-11.2495
俱生	-11.2497
成官事	-11.2504
聞吾呼召	-11.2509
䢖	-11.2509
王功曹僕射使者百二十人出	-11.2511
一位	-11.2512
室内	-11.2513
鞋	-11.2513
于左	-11.2514
愚癡	-11.2514
膈	-11.2515
伎	-11.2515
某年月日	-11.2516
鉤	-11.2516
忍辱	-11.2516
身中三五功曹左右官使者左右	-11.2517
龐	-11.2517
皮膚	-11.2518
鄧伯温	-11.2518
奧	-11.2518
都講舉	-11.2519
岫	-11.2519
猖	-11.2519
素車白馬	-11.2519
金名	-11.2519
浙	-11.252
當依	-11.252
簷	-11.252
饗	-11.2521
上帝訣	-11.2521
茹	-11.2521
個	-11.2521
六字	-11.2522
慇懃	-11.2523
捜	-11.2523
辛卯	-11.2523
玉女五帝直符直日香官各三十六人	-11.2524
𡄼	-11.2524
渟	-11.2524
拒逆	-11.2524
燿	-11.2525
懲	-11.2525
態	-11.2525
届	-11.2525
夢寐	-11.2526
不載	-11.2526
仗劍	-11.2526
急急如元始上帝敕	-11.2527
噫	-11.2527
㐲	-11.2527
太乙火府	-11.2527
濟生度死	-11.2528
瑛	-11.2528
媚	-11.2528
彫	-11.2529
自縊	-11.253
姜	-11.253
轍	-11.253
茲	-11.253
篋	-11.253
萊	-11.2531
飛行太空	-11.2532
販	-11.2532
殫	-11.2532
貝	-11.2533
蕭蕭	-11.2533
薤	-11.2533
有道士	-11.2533
醮主某	-11.2533
浮黎	-11.2534
道果	-11.2534
戊申	-11.2534
卷一之六	-11.2535
再以	-11.2535
浩浩	-11.2536
蟠	-11.2536
十二宫	-11.2536
流血	-11.2537
孤爽	-11.2537
地軸	-11.2538
洞景	-11.2538
丹臺新録	-11.2538
誠意	-11.2538
貧窮	-11.2539
助國	-11.2539
右符佩服	-11.2541
二十九	-11.2541
皆用	-11.2544
將班	-11.2545
立降	-11.2546
悟微子	-11.2548
麻子	-11.2548
昭鑒	-11.2548
符解	-11.2549
桃花	-11.2549
進呈	-11.255
披雲	-11.255
戊已	-11.2551
當司今據	-11.2552
特垂	-11.2553
指甲下	-11.2553
上治	-11.2557
三符	-11.2561
入宅	-11.2562
交泰	-11.2564
每一	-11.2565
火炎	-11.2565
辰巳	-11.2567
主行	-11.2567
善男子汝	-11.2568
直事	-11.2568
法官道士	-11.2568
太古	-11.2568
玄象	-11.2571
洛書	-11.2571
於物	-11.2574
仙伯	-11.2574
損傷	-11.2576
而无	-11.2579
炁訣	-11.258
天憲	-11.2582
丁立	-11.2587
洞逹	-11.2587
七分	-11.2588
翼星	-11.2591
三下	-11.2593
失其	-11.2595
字號	-11.2597
塵穢	-11.2599
錦袍	-11.2599
清水	-11.2601
落落	-11.2604
永劫	-11.2607
凡愚	-11.2608
此印	-11.2609
三世	-11.2612
此神	-11.2613
重稱法位具位	-11.2613
玄範	-11.2614
無雨	-11.2618
炁候	-11.2619
章第十	-11.2619
重重	-11.2622
十神	-11.2623
西北炁	-11.2624
中心	-11.2624
作法	-11.2628
將軍吏兵	-11.2629
坐忘	-11.2629
今在	-11.2631
㧞出	-11.2631
告之曰	-11.2631
三通	-11.2634
日直符	-11.2635
眞境	-11.2636
受吾	-11.2636
以代	-11.2637
六十人	-11.2639
降鑒	-11.264
者謂之	-11.2642
汝今	-11.2644
投符	-11.2646
栢木	-11.2646
正面	-11.2646
高上神霄	-11.2648
四直功曹	-11.2648
飛揚	-11.265
以炁	-11.2651
度亡䰟	-11.2653
各九人	-11.2653
立夏	-11.2654
求生	-11.2658
向前	-11.2659
壇外	-11.2659
未然	-11.266
日月星	-11.2662
埋於	-11.2663
億千	-11.2665
藏形	-11.2666
地紀	-11.2669
出處	-11.2672
山海	-11.2673
左轉	-11.2673
世事	-11.2673
蓮華	-11.2675
祛邪	-11.2676
除已具奏	-11.2676
侍者	-11.2678
緑字	-11.2681
平天	-11.2685
傳符	-11.2686
旣畢	-11.2686
病苦	-11.2688
等符	-11.2689
曲垂	-11.2693
具位小兆	-11.2696
驅治	-11.2698
十四日	-11.2698
謹奏爲	-11.2699
籍師	-11.2702
太上之	-11.2706
過去	-11.271
五味	-11.2711
疫毒	-11.2711
便有	-11.2711
苦趣	-11.2714
五十五	-11.2716
不衰	-11.2716
考治	-11.2718
上令	-11.272
利物	-11.272
漬之	-11.2722
轟轟	-11.2724
祕符	-11.2724
吹入	-11.2725
仙衆	-11.2725
更加	-11.2726
拜發	-11.2727
二物	-11.2729
敕攝	-11.2733
不易	-11.2733
太清大帝	-11.2733
而非	-11.2734
朗靈	-11.2736
天理	-11.2737
天氣	-11.2739
隂神	-11.2739
其源	-11.274
能生	-11.2741
者矣	-11.2742
見者	-11.2743
列於	-11.2745
次日	-11.2748
即止	-11.2748
欲知	-11.2749
用黄	-11.2755
城隍司	-11.2756
斯文	-11.2756
衣裳	-11.2758
仍用	-11.2758
境土	-11.2759
祉	-11.2761
至德	-11.2764
昭靈	-11.2766
生命	-11.2768
不計	-11.2768
速捉	-11.2768
經科	-11.2769
眞神	-11.277
周回	-11.2775
從何	-11.2778
師主	-11.2783
篆符	-11.2787
存北斗	-11.2789
德行	-11.279
安靜	-11.279
勑下	-11.279
坤宫	-11.279
降注	-11.2792
如此者	-11.2792
引導	-11.2796
辛亥	-11.2796
感動	-11.2797
亦宜	-11.2797
登山	-11.2797
元尊	-11.28
傳道	-11.28
霹靂轟轟	-11.28
聖祖	-11.28
持誦	-11.2802
雙目	-11.2802
笑曰	-11.2803
辰戌丑未	-11.2803
企	-11.2804
開啓	-11.2804
金臺	-11.2806
九老仙都	-11.2807
閩	-11.2807
蹉	-11.2808
巵	-11.2808
扁	-11.2808
太明	-11.2808
辛漢臣	-11.2808
斷除	-11.2809
暦	-11.281
嫉妬	-11.2811
轝	-11.2811
陪	-11.2811
悛	-11.2812
旭	-11.2812
廊	-11.2812
悼	-11.2812
靉	-11.2813
一性	-11.2814
慿	-11.2814
降臨醮席	-11.2814
一門	-11.2814
符到處	-11.2814
钁	-11.2815
形神俱妙	-11.2815
司命司録	-11.2815
娱	-11.2815
童初府	-11.2815
懈怠	-11.2816
樽	-11.2817
忻	-11.2818
暘谷	-11.2818
阮	-11.2818
至一	-11.2819
考掠	-11.2819
慜	-11.282
區區	-11.282
諍	-11.282
共言	-11.282
某入意	-11.282
南極上元君	-11.282
朋友	-11.2821
幃	-11.2822
宦	-11.2822
赤松子	-11.2822
蛻	-11.2823
元綱流演	-11.2823
急急如丹霄流金火鈴律令	-11.2823
驥	-11.2824
奔星	-11.2824
大怒	-11.2825
道德經	-11.2825
中斗大魁	-11.2826
元眞	-11.2826
紫微上宫	-11.2826
領詞䖍切	-11.2826
品物	-11.2827
交姤	-11.2827
某嶽先生	-11.2828
穰	-11.2829
周匝	-11.2831
十一曜	-11.2832
若見	-11.2833
檢察	-11.2833
翌日	-11.2836
何事	-11.2836
南極長生大帝	-11.2837
左耳	-11.2839
女青詔書	-11.2839
之疾	-11.2841
者處斬諸	-11.2842
欽承	-11.2842
自滅	-11.2844
鬼炁	-11.2845
青腰玉女	-11.2845
彌羅	-11.2847
帝鐘	-11.2848
煥落	-11.2849
分身	-11.2849
故牒	-11.2849
本文	-11.2852
仰祝曰	-11.2855
捉崇	-11.2855
玄都玉京	-11.2855
誦此	-11.2855
之勢	-11.2857
營護	-11.2857
祖考	-11.2859
集註	-11.2859
傳經	-11.2862
其次	-11.2862
生旺	-11.2863
敕符呪	-11.2864
沖虚	-11.2864
四十五	-11.2864
昭明	-11.2865
參差	-11.2866
一切威靈	-11.2866
用此符	-11.2867
見人	-11.2868
用印	-11.2872
雲程	-11.2875
謹當	-11.2875
前程	-11.2876
故知	-11.2877
兵將	-11.2877
如上	-11.2878
而易	-11.2878
地網	-11.2879
祕㫖	-11.288
太玄玉女	-11.2881
十斤	-11.2881
升遷	-11.2881
斯須	-11.2882
光炁	-11.2883
削罪	-11.2883
神庭	-11.2883
馬勝	-11.2885
上金	-11.2886
世上	-11.2888
千靈	-11.2889
安宅	-11.289
相尅	-11.289
刻石	-11.2891
左右侍	-11.2892
法度	-11.2893
六品	-11.2893
秘訣	-11.2896
含靈	-11.2896
生而	-11.2897
雷壇	-11.2897
想念	-11.2899
教授	-11.2899
左手雷局	-11.2899
印篆	-11.29
散華	-11.29
金口	-11.2901
髙晨	-11.2902
引魂	-11.2902
丹文	-11.2904
如人	-11.2907
帝位	-11.2907
雲飛	-11.2912
而終	-11.2912
古儀	-11.2914
煞方	-11.2915
及以	-11.2918
百魔	-11.2918
太一君	-11.2921
諸侯	-11.2924
申請	-11.2925
奉辭	-11.2925
三焦	-11.2927
智者	-11.2928
千古	-11.2929
佩籙	-11.2929
惠澤	-11.2937
本日	-11.2939
悟道	-11.294
□□□□	-11.2944
元一	-11.2944
每月	-11.2944
四炁	-11.2945
成也	-11.2945
朗明	-11.2945
服又方	-11.2945
日月之光	-11.2946
承符	-11.2947
慈仁	-11.2949
念後呪	-11.2949
經絡	-11.295
䑕	-11.2951
少微	-11.2955
上爲	-11.2955
九朝	-11.2956
會同	-11.2956
一十八	-11.2957
惟在	-11.2957
罩定	-11.2958
干冒聖威	-11.2959
有象	-11.2959
可畏	-11.296
之中有	-11.2962
典格	-11.2963
上祝	-11.2963
玄天上帝	-11.2965
衣九色	-11.2967
明明	-11.2969
皇人	-11.2969
斗眞	-11.2971
欲死	-11.2971
冥官	-11.2972
唵吽吒	-11.2972
第十三	-11.2972
金槍	-11.2973
重陽	-11.2973
諸應	-11.2974
奉承	-11.2975
九厄	-11.2975
公明	-11.2975
天童	-11.2977
有驗	-11.2985
晏子	-11.2987
布施	-11.2988
黄龍	-11.2988
龍蛇	-11.2988
存乎	-11.2993
攝鬼	-11.2993
名位	-11.2996
内錬	-11.2997
口吹	-11.2998
水土	-11.2999
二十四治	-11.2999
何異	-11.2999
未備	-11.3
再服	-11.3
外壇	-11.3001
魔障	-11.3005
常生	-11.3006
隂功	-11.3009
酉丑	-11.301
大略	-11.3016
開口	-11.3017
姓某謹封	-11.3018
遣發	-11.3018
母元君	-11.3021
思惟	-11.3022
十二年	-11.3023
玉清眞王	-11.3024
仙化成人	-11.3027
臣姓某	-11.3028
舉家	-11.3029
九字	-11.3034
百變	-11.3036
於空中	-11.3036
集神	-11.3038
隂生	-11.3041
從容	-11.3042
金真	-11.3046
言訖	-11.3048
腹内	-11.3048
形質	-11.3051
逆知	-11.3052
仙班	-11.3054
交結	-11.3057
雖未	-11.3058
本人	-11.3062
天門開	-11.3062
恭望聖慈允	-11.3064
照得	-11.3067
誠惶誠恐稽首頓首	-11.3068
三上香	-11.3071
本始	-11.3074
道恩	-11.3076
之裘	-11.3078
一篇	-11.308
起死	-11.3082
精修	-11.3082
皇上帝	-11.3084
見世	-11.3084
無比	-11.309
稱臣	-11.309
斬精	-11.309
正理	-11.3092
儀範	-11.3093
九鼎	-11.3093
攝生	-11.3094
天慈	-11.3095
眞人曰	-11.3097
一周	-11.3099
道術	-11.3099
要言	-11.31
大者	-11.3101
臟	-11.3102
三天玉童	-11.3103
雷演	-11.3104
獰	-11.3108
𡵯	-11.3109
依吾	-11.3109
午文南炁	-11.3109
𠻗	-11.311
孩	-11.3111
靂	-11.3112
命神	-11.3112
堆	-11.3112
徤	-11.3113
臯	-11.3113
烜	-11.3114
勉之	-11.3115
怛	-11.3115
英百靈衆真交㑹在此香火爐前當願	-11.3116
行住坐卧	-11.3116
修設	-11.3116
昂	-11.3117
噬	-11.3117
体	-11.3118
七品	-11.3119
劣	-11.3119
珎	-11.312
吃	-11.312
歷關諸天	-11.312
梵天	-11.312
劾	-11.312
千乘萬騎	-11.312
寰	-11.3121
南方火德	-11.3122
陁	-11.3122
)○	-11.3122
五德	-11.3122
抹	-11.3122
聴	-11.3122
天令	-11.3123
須㬰之頃	-11.3123
翼軫	-11.3123
顚倒	-11.3123
三十四	-11.3123
護法	-11.3125
事干利濟	-11.3125
暝	-11.3126
挽	-11.3126
懿	-11.3126
殄滅	-11.3126
億曽萬祖	-11.3126
本命元辰	-11.3127
刄	-11.3128
蚓	-11.3128
上元天官	-11.3128
天蓬大元帥	-11.3128
菌	-11.3129
徙	-11.3129
閉地户	-11.313
兎	-11.3131
從官十四人	-11.3131
金鈕	-11.3131
鈍	-11.3132
禾稼	-11.3132
疑惑	-11.3133
諸部	-11.3134
不由	-11.3134
滄	-11.3134
沫	-11.3134
辛丑	-11.3135
也又方	-11.3135
正月一日	-11.3135
真人曰	-11.3136
靈感	-11.3136
雞鳴	-11.3136
其國	-11.314
攸司	-11.3141
五部	-11.3143
神字	-11.3144
入門	-11.3144
又方以	-11.3145
松脂	-11.3146
呪謹請	-11.3146
細辛	-11.3146
身披	-11.3147
疾速奉行	-11.3147
清靈	-11.3147
水德	-11.3149
朗徹	-11.3149
吉疾病	-11.3149
山有	-11.3149
按摩	-11.3149
始祖	-11.3153
胞根	-11.3153
朗耀	-11.3154
大臣	-11.3154
步虚	-11.3154
其他	-11.3155
此處	-11.3155
辰上	-11.3155
氣候	-11.3156
夜府	-11.3156
髙虚	-11.3157
太微帝君	-11.3158
燒殺	-11.3158
尸鬼	-11.3159
歸身	-11.3159
三䰟	-11.316
混雜	-11.3163
有光	-11.3164
紀篇	-11.3165
靜默	-11.3165
流芳	-11.3166
下注	-11.3166
久之	-11.3166
升騰	-11.3167
玉衡	-11.317
仰冀	-11.3173
崑崙山	-11.3175
廣寒	-11.3176
普救	-11.3176
上來	-11.3177
科式	-11.3178
興行	-11.3185
凡道士	-11.3186
莫知	-11.3189
曰爾	-11.319
飛度	-11.319
莫大	-11.3192
北方蠻雷	-11.3193
薦拔	-11.3194
滅跡	-11.3199
關羽	-11.3201
無虞	-11.3202
午朝	-11.3204
十八年	-11.3207
捉邪	-11.3207
利害	-11.3209
須用	-11.3211
火煉	-11.3211
下筆	-11.3214
火帝	-11.3216
附人	-11.3217
道德之	-11.3218
知道	-11.3218
證品	-11.322
紫芝	-11.3222
之館	-11.3223
天煞	-11.3225
之説	-11.3225
女官	-11.323
含生	-11.3231
自已	-11.3232
相和	-11.3232
九天司命	-11.3233
歳星	-11.3235
七枚	-11.3237
吉慶	-11.3237
與衆	-11.3238
所能	-11.3242
土星	-11.3243
只在	-11.3244
吹出	-11.3245
散香	-11.3245
飛輪	-11.3246
大乗	-11.3247
不調	-11.3248
法書	-11.3251
攝炁	-11.3251
土主	-11.3253
問其	-11.3253
符散形	-11.3255
封皮	-11.3255
口奏	-11.3257
吿下	-11.3265
玄感	-11.3266
洞神三皇	-11.3267
只見	-11.327
飛行羽	-11.327
考鬼	-11.3272
謄奏	-11.3274
備牒	-11.3276
祕於	-11.3276
一至	-11.3284
歸去	-11.3285
必致	-11.3288
百六	-11.3288
速臨	-11.329
位列	-11.329
孝子	-11.3293
羅列左右	-11.3293
髙妙	-11.3293
土簡	-11.3294
機關	-11.3294
言辭	-11.3297
其徒	-11.3297
萬帝	-11.3301
玉虛	-11.3303
萬歳	-11.3304
鉞	-11.3305
神方	-11.3306
九天使者	-11.3306
本屬	-11.3307
賜我	-11.3308
而用	-11.331
是曰	-11.3311
亘	-11.3311
天蓬呪	-11.3314
瓊書	-11.3315
雷廣	-11.3315
不倦	-11.3316
眞實	-11.3317
三度	-11.3318
紫宫	-11.3319
故號	-11.332
保守	-11.3321
從之	-11.3321
七傷	-11.3322
置貨	-11.3322
隂炁	-11.3324
未明	-11.3325
四部	-11.3326
其妙	-11.3327
日夜半	-11.3328
公卿	-11.3331
高真	-11.3333
業報	-11.3335
平復	-11.3336
中生	-11.3338
伏惟	-11.3341
毒害	-11.3342
了然	-11.3342
石上	-11.3348
變通	-11.3349
揚州	-11.3358
青精	-11.3358
止雨	-11.3359
心腎	-11.3359
陰功	-11.3363
飛龍騎吏	-11.3365
解形	-11.3367
四輔	-11.3368
小事	-11.3369
五品	-11.337
善行	-11.3371
此非	-11.3372
吾心	-11.3373
衆諷	-11.3374
左右前後	-11.3374
火焚	-11.3376
請祈	-11.3377
皂紙	-11.3378
之慶	-11.3379
一團	-11.338
于上	-11.338
三十年	-11.338
非輕	-11.338
宗壇	-11.3382
爲佳	-11.3384
祈請	-11.3391
煥煥	-11.3392
靜念	-11.3393
火索	-11.3393
九河	-11.3393
住宅	-11.3393
神尺	-11.3396
疆	-11.3397
啓祝	-11.3397
八卦大神	-11.3397
各安	-11.3397
度化	-11.3401
又非	-11.3403
聚魂	-11.3404
𠃔	-11.3404
兵馬九億萬騎出	-11.3407
赤靈	-11.3409
行科	-11.3411
火鈴將軍	-11.3414
閬	-11.3414
法象	-11.3415
鬼爽	-11.3415
仰希	-11.3415
衫	-11.3416
者宜	-11.3417
菓	-11.3417
七壯	-11.342
谷神	-11.3421
芙蓉	-11.3421
猜	-11.3421
向本命	-11.3422
六十四卦	-11.3423
庾	-11.3424
癩	-11.3424
妍	-11.3425
剉	-11.3425
擦	-11.3425
籌	-11.3426
𨗳	-11.3426
糜	-11.3426
乾元亨利貞	-11.3427
天蓬都元帥	-11.3428
托人用事	-11.3429
𦤺	-11.3429
灾厄	-11.343
器械	-11.343
投狀	-11.343
㡬	-11.343
貪巨禄文	-11.3431
栽	-11.3431
姥	-11.3431
卯日	-11.3431
恤	-11.3432
八節日	-11.3432
皆令	-11.3433
激切之至	-11.3433
升上	-11.3433
雲起	-11.3433
惰	-11.3434
巿	-11.3434
死入	-11.3434
北帝曰下元生人	-11.3435
某月某日	-11.3435
燦然	-11.3435
刮	-11.3435
千乗萬騎	-11.3436
淘	-11.3437
墀	-11.3437
天民壽數	-11.3438
胄	-11.3438
鄧天君	-11.3438
蔓	-11.3438
塵埃	-11.3439
太㣲天帝君	-11.3439
滄海	-11.3439
囿	-11.3439
飭	-11.344
娶	-11.344
紫綬	-11.344
七十二候	-11.3441
鍚	-11.3441
蹄	-11.3442
七日七夜	-11.3442
下元水官	-11.3442
憾	-11.3442
合德	-11.3443
居山	-11.3443
安居	-11.3444
扶衰	-11.3444
經洞玄靈寳	-11.3446
此天中人壽	-11.3447
分三服	-11.3448
臍中	-11.3448
次入	-11.3451
帶之	-11.3452
百脉	-11.3452
無鞅	-11.3453
錢財	-11.3453
玉清隱書	-11.3454
明霞	-11.3454
十方無極世界	-11.3455
理難	-11.3458
謀事	-11.3458
靈寳官屬	-11.346
泄露	-11.3461
大功	-11.3461
亡爽	-11.3461
提舉	-11.3464
驅逐	-11.3464
二品	-11.3464
乾卦	-11.3465
之孫	-11.3466
當存	-11.3466
牒前	-11.3467
恭奉	-11.3468
仰荷	-11.3468
受考	-11.3469
吹炁	-11.347
灾害	-11.347
不遂	-11.347
貪著	-11.3471
聞此	-11.3472
靈祇	-11.3473
尚未	-11.3473
所患	-11.3474
結胎	-11.3476
傳令	-11.3476
結炁	-11.3476
天年	-11.3478
千生	-11.348
合干去處	-11.3481
印訣	-11.3481
五苦八難	-11.3481
發揮	-11.3481
丁罡	-11.3481
斡運	-11.3482
一見	-11.3483
儀式	-11.3485
無色界	-11.3487
希微	-11.3488
各異	-11.3488
掐煞文	-11.3489
十善	-11.3491
黄婆	-11.3491
虚靖	-11.3492
列名	-11.3493
雷文	-11.3495
則不能	-11.3496
女仙	-11.3497
大醮	-11.3497
林木	-11.3498
大齋	-11.3498
諸正神	-11.3498
金橋	-11.3498
三五將軍	-11.3499
名香	-11.3499
動天地	-11.3501
求哀	-11.3502
板上	-11.3505
急切	-11.3505
尊經	-11.3506
皆可用	-11.3507
青紙朱書	-11.3512
神神	-11.3512
離苦	-11.3514
背上	-11.3514
䰟神	-11.3515
山崩	-11.3515
流演	-11.3517
災凶	-11.3517
十字	-11.3517
弘道	-11.3518
無成	-11.3521
大腸	-11.3522
之驗	-11.3522
七竅	-11.3524
泰玄	-11.3528
念前呪	-11.353
同共	-11.3537
未敢	-11.3537
玉池	-11.354
一斛	-11.354
也兆	-11.354
爲用	-11.3542
同歸	-11.3542
會首	-11.3543
切慮	-11.3544
諸品	-11.3545
是夕	-11.3546
經㫖	-11.3547
千遍	-11.3548
民人	-11.355
▲▲▲	-11.3552
與道合	-11.3554
輔我	-11.3555
君父	-11.3556
仙名	-11.3557
速現形	-11.3558
志願	-11.3558
二枚	-11.3564
虚中	-11.3565
上昇玉清	-11.3565
清寧	-11.3565
東方蠻雷	-11.3567
八尺	-11.3567
推之	-11.3568
臣某等	-11.3568
八角	-11.3568
九鳯	-11.3569
本性	-11.3573
飛捷使者	-11.3573
兩手相	-11.3573
遷神	-11.3574
三乗	-11.3576
中外	-11.3577
帝師	-11.358
前項	-11.3581
九夷	-11.3585
長一尺	-11.3586
月直	-11.3587
光彩	-11.3589
能行	-11.359
安泰	-11.3594
所居之	-11.3595
沉沉	-11.3597
悉令	-11.3601
映照	-11.3602
飛瓊	-11.3603
赤白	-11.3604
圎光	-11.3605
開道	-11.3606
承誥奉行宗師金闕昭凝妙道保仙元君	-11.3606
稱心	-11.3606
妙果	-11.3607
神后	-11.3608
也於是	-11.3608
亦佳	-11.3611
殃及	-11.3612
花開	-11.3614
弟子某家	-11.3614
佩符	-11.3614
龍吟	-11.3616
定炁	-11.3618
並是	-11.3619
天大魔王	-11.3619
口鼻	-11.3621
月八日	-11.3622
欲使	-11.3622
捉邪精	-11.3623
浩蕩	-11.3626
此謂	-11.3627
氣訣	-11.3628
依儀	-11.3629
莫得	-11.3629
招靈	-11.363
生津	-11.3631
江南	-11.3633
六虚	-11.3635
辰戌	-11.3635
可得而	-11.3636
善事	-11.3636
昏迷	-11.3637
霖雨	-11.3638
疾患	-11.3639
以理	-11.3642
黄絹	-11.3643
是知	-11.3643
天尊告	-11.3645
盡行	-11.3645
艮上	-11.3646
九分	-11.3647
存身	-11.3649
遊魂	-11.3649
滿室	-11.3656
可爲	-11.3658
應聲	-11.3665
雷公電母	-11.3666
於人間	-11.3666
極於	-11.3667
來者	-11.3669
應物	-11.367
律令右法	-11.367
何縁	-11.3672
旺炁	-11.3674
畢再	-11.3677
金章	-11.368
不休	-11.3682
所由	-11.3682
聖慈	-11.3682
生殺	-11.3685
黃書	-11.3691
運炁	-11.3691
諸君	-11.3691
經訣	-11.3693
北方黑帝	-11.37
禀令	-11.3702
子身	-11.371
咽炁	-11.3712
平常	-11.3713
升仙	-11.3714
十絶	-11.3716
二千	-11.3718
啓運	-11.3719
昇入無形	-11.3721
森列	-11.3723
玉檢	-11.3723
青紅	-11.3724
上明	-11.3724
眞性	-11.3725
北陰酆都	-11.3726
統制	-11.3726
空同	-11.3726
赤雲	-11.3728
中來	-11.373
開建	-11.373
千萬重	-11.373
聚炁	-11.3735
有數	-11.3736
身輕	-11.3739
福壽	-11.3739
公云	-11.3741
眇眇	-11.3744
疇	-11.3745
㗭	-11.3746
醮官	-11.3746
朒	-11.3746
跪奏	-11.3746
餞	-11.3748
侍立	-11.3748
棟	-11.3748
登天	-11.3749
牋	-11.375
謀事成事	-11.375
釀	-11.3751
丹田中	-11.3751
諸君丈人	-11.3751
謨	-11.3751
閏	-11.3751
琢	-11.3752
太上大道君太上老君昊天玉皇上帝	-11.3752
㫁	-11.3753
瞽	-11.3753
各領	-11.3753
后土皇地祇	-11.3754
甑	-11.3755
三洞四輔	-11.3755
嵓	-11.3755
踢	-11.3755
諳	-11.3755
鋤	-11.3755
領詞難抑	-11.3756
脹	-11.3756
未易	-11.3756
陶鎔	-11.3756
三素元君	-11.3756
璋	-11.3757
勑㫖	-11.3757
十方天尊	-11.3757
刦	-11.3758
詎	-11.3758
暐曄	-11.3758
之精思之還反眞形修行	-11.3758
囂	-11.3758
拄	-11.3758
之精思之還反真形修行	-11.3759
辟斥	-11.3759
一杯	-11.3759
臟腑	-11.376
悴	-11.376
卉	-11.376
窈	-11.376
二十八日	-11.3761
兩眉間	-11.3761
戹	-11.3762
提挈	-11.3762
瀾	-11.3762
據詞難抑	-11.3762
熈	-11.3762
太平興國宫	-11.3762
魁𩲃	-11.3762
僅	-11.3762
滂	-11.3763
奇羅	-11.3763
翕	-11.3764
養氣	-11.3765
懋	-11.3765
詭	-11.3765
大悲天尊	-11.3766
金童玉女	-11.3766
童女	-11.3766
靈泉	-11.3766
几案	-11.3767
等身中	-11.3767
蚊	-11.3768
拘囚	-11.3769
莊嚴	-11.3769
傳記	-11.377
捻香	-11.3771
赤幘	-11.3772
包羅	-11.3772
宿世	-11.3773
子細	-11.3773
監勒	-11.3773
紫紋	-11.3774
瑞雪	-11.3774
卓劒	-11.3775
若得	-11.3776
驅馳	-11.3777
棗木	-11.3777
兩眉	-11.3777
前詣	-11.3777
洞照上清	-11.3778
㝱	-11.3779
借物	-11.3781
庶俾	-11.3781
往往	-11.3782
守常	-11.3782
佐國	-11.3783
侍座	-11.3784
三靈	-11.3785
咽止	-11.3786
符印	-11.3786
未曽	-11.3787
化爲塵	-11.3791
一顆	-11.3791
神將吏兵	-11.3793
考罰	-11.3793
昭格	-11.3794
恐有	-11.3794
九天太一	-11.3794
朝儀	-11.3794
二經同卷	-11.3796
心痛	-11.3796
洪造	-11.3798
千丈	-11.3801
陽晶	-11.3804
兩半	-11.3805
左脚	-11.3806
青黄白	-11.381
離卦	-11.3811
毒炁	-11.3813
交横	-11.3813
勤修	-11.3814
六炁	-11.3815
師云	-11.3816
仙化	-11.3816
身受	-11.3817
三級	-11.3818
黑色	-11.3818
上學之士	-11.3818
鬱絶	-11.3818
重泉	-11.382
下手	-11.382
本源	-11.3821
者如	-11.3821
吞佩	-11.3821
金魚	-11.3822
五蔵	-11.3822
先次	-11.3822
解壇	-11.3822
片時	-11.3826
死於	-11.3827
五更	-11.3829
不得過	-11.3829
出神	-11.3831
地支	-11.3832
獲罪	-11.3836
也所以	-11.3837
内妃	-11.3838
兩眼	-11.3839
神位	-11.384
畢微祝曰	-11.3843
天人相	-11.3844
格式	-11.3846
未曾	-11.3847
者乎	-11.3849
受福	-11.385
王者	-11.3854
洞門	-11.3855
必是	-11.3856
俯降	-11.3856
通章	-11.3857
二十九日	-11.3858
罡訣	-11.3859
使者張	-11.3861
之報	-11.3861
如對	-11.3861
停輪	-11.3863
仙宫	-11.3863
呪云	-11.3864
天英	-11.3865
右轉	-11.3865
三條	-11.3866
吾所	-11.3867
除凶	-11.3867
七寶	-11.3867
五百年	-11.3868
掐訣	-11.3871
六曰	-11.3874
青霄	-11.3874
厄度	-11.3875
結節	-11.3876
寳臺	-11.3877
如在	-11.388
執節	-11.3881
速達	-11.3883
以制	-11.3883
頌曰	-11.3884
尊師	-11.3884
朝拜	-11.3885
役遣	-11.3885
前行	-11.3887
至午	-11.3888
筋骨	-11.3889
素雲	-11.389
元祐	-11.3891
凝精	-11.3892
不學	-11.3892
外事	-11.3892
竈君	-11.3893
爲盟	-11.3895
案前	-11.3895
受詞	-11.3897
有識	-11.3897
罪過	-11.3897
神霄玉府	-11.39
齋誠	-11.3902
拔出	-11.3906
急急如律令右法	-11.3909
誅邪	-11.3909
賢者	-11.3913
歲星	-11.3913
爐中	-11.3916
旋行	-11.3917
相續	-11.3919
也能	-11.392
以救	-11.3925
意林	-11.3926
隱形	-11.3926
相遇	-11.3927
何時	-11.3928
獲感通	-11.3928
玉霄	-11.3929
狂邪	-11.3931
見一人	-11.3932
知有	-11.3932
不爾	-11.3932
本科	-11.3933
周將軍	-11.3934
潔淨	-11.3937
一十五	-11.3939
總監	-11.394
右耳	-11.3942
葬之	-11.3943
勿妄	-11.3946
作聲	-11.3946
中風	-11.3947
禍害	-11.3948
上吏	-11.3949
照曜	-11.3952
敕赦	-11.3953
上穹	-11.3955
真空	-11.3957
吏十二人	-11.3959
清㣲	-11.3963
勤心	-11.3963
室主收天下	-11.3965
萬世	-11.3966
血光	-11.3968
又加	-11.3969
照驗	-11.3972
於某日	-11.3974
遂成	-11.3976
不作	-11.3976
修崇	-11.3976
一部	-11.3977
五枚	-11.398
正當	-11.3981
若此	-11.3982
真帝	-11.3982
如故	-11.3984
輕傳	-11.3986
昭彰	-11.3987
難得	-11.3988
不原	-11.3989
隱藏	-11.3991
傳教	-11.3992
之病	-11.3995
二十四獄	-11.3998
赤光	-11.4
天母	-11.4005
華存	-11.4007
資於	-11.4013
青華大帝	-11.4014
之盛	-11.4014
隨行	-11.4019
昏昏	-11.4023
之念	-11.4026
周圓	-11.4027
下副	-11.4027
救苦眞符	-11.4036
清凈	-11.4038
之五十	-11.4038
玄通	-11.404
吾當	-11.4041
玄斗	-11.4041
勿得	-11.4042
九曜	-11.4043
華房	-11.4044
吉昌	-11.4048
魑魅	-11.4051
之品	-11.4052
七次	-11.4053
謹攝	-11.4056
先發	-11.4057
天中之	-11.4058
演法	-11.4061
故氣	-11.4062
敕字	-11.4065
君解謝之若犯	-11.4068
木石	-11.407
潑	-11.407
神聖	-11.4073
如梧子	-11.4073
未足	-11.4073
不窮	-11.4074
吾有	-11.4075
敲	-11.4076
夾脊雙關	-11.4077
賜以	-11.4078
玃	-11.4078
終無	-11.4079
宣讀	-11.4079
杳杳冥冥	-11.4079
牲	-11.408
圖書	-11.408
沿	-11.4081
風火無停	-11.4082
轟雷掣電	-11.4082
蹔	-11.4083
救民疾苦	-11.4083
鼈	-11.4083
倏忽	-11.4083
踞	-11.4084
洞𤣥靈寳	-11.4084
掃蕩妖氛	-11.4084
上明天尊大慈之澤下副	-11.4085
名山大川	-11.4085
燎	-11.4085
貳	-11.4085
怕	-11.4085
捺	-11.4086
萬劫一傳	-11.4086
思之還反真形	-11.4087
虫	-11.4087
梧桐	-11.4087
毎一	-11.4087
梟	-11.4087
耐	-11.4087
應元保運	-11.4088
撿	-11.4088
廉武破	-11.4088
汩	-11.4088
敢不上聞	-11.4088
家有	-11.4088
分靈	-11.4088
四極明科	-11.4089
入將名	-11.4089
樣	-11.4089
諂	-11.409
囚徒苦爽	-11.409
蔕	-11.409
内言	-11.409
姤	-11.409
絞取汁	-11.4091
許旌陽	-11.4092
會得	-11.4092
鐺	-11.4092
誠惶誠恐稽首再拜	-11.4092
真聖	-11.4093
謹上請	-11.4093
一首	-11.4094
諸大衆	-11.4094
湧泉	-11.4094
閟	-11.4094
眞之德得道之後昇入無形	-11.4094
駡	-11.4095
粤	-11.4095
舌下	-11.4095
紊	-11.4095
蠢動	-11.4095
畢仰咽	-11.4095
倣此	-11.4096
作此	-11.4096
樊	-11.4096
不達	-11.4096
咽液三過	-11.4096
譏	-11.4097
洞微髙士開光救苦眞人𡩋全眞授	-11.4097
籖	-11.4097
温服	-11.4098
此字	-11.4099
大度	-11.41
右符訣在	-11.41
鬱單	-11.4101
靈飛六甲	-11.4102
邃	-11.4102
星君門下	-11.4102
稱法位	-11.4102
瑶池	-11.4102
屎	-11.4104
龍車	-11.4104
誠悃	-11.4105
存金光	-11.4105
遷賞	-11.4105
三天大法師	-11.411
三聲	-11.411
延康	-11.4111
某人等	-11.4111
即請	-11.4111
復鑪	-11.4113
真君聖前	-11.4117
戊巳	-11.4117
主治之	-11.4117
虚无自然	-11.4119
金鐶	-11.4119
如大豆	-11.412
六寸	-11.412
威雄	-11.412
東方九炁	-11.412
五千文	-11.4122
沉迷	-11.4122
墮落	-11.4125
豈容	-11.4127
雷鼓	-11.4127
以前	-11.4127
總管	-11.4128
奉敕	-11.4128
眉間	-11.4128
昭示	-11.413
撰集	-11.4131
之禍	-11.4132
夫子	-11.4133
莊子	-11.4135
師㫖	-11.4135
丹悃	-11.4136
靈圖	-11.4136
到奉行	-11.4137
編集	-11.4137
七十二將	-11.4137
太史	-11.414
合爲	-11.414
中央土	-11.4144
解𡨚	-11.4144
北元	-11.4146
惡瘡	-11.4146
林泉	-11.4146
復命	-11.4148
陰生	-11.4148
某官	-11.4149
右二符	-11.415
玉珮	-11.4151
六趣	-11.4151
一志	-11.4151
空腹	-11.4152
住滯	-11.4153
里中	-11.4154
紀綱	-11.4154
含光	-11.4154
盛以	-11.4156
在左右	-11.416
幽沉	-11.4162
呵炁	-11.4163
筆書符	-11.4163
轟天霹靂	-11.4167
紫微垣	-11.4167
助道	-11.4168
長夜之	-11.4168
進修	-11.4171
向西	-11.4174
脚踏	-11.4175
以筆	-11.4175
七經	-11.4176
了了	-11.4178
依格	-11.4179
改過	-11.4179
在目前	-11.418
法性	-11.4182
司迎	-11.4182
胎仙	-11.4186
精感	-11.4186
列職	-11.4189
度魂	-11.419
休息	-11.4191
安和	-11.4192
丹青	-11.4196
至夜	-11.4201
配合	-11.4202
去地	-11.4202
水輪	-11.4202
以憑	-11.4203
便可	-11.4205
邪魅	-11.4211
下層	-11.4213
甲庚	-11.4216
玄洲	-11.4217
煌煌	-11.4217
左邊	-11.4217
請禱	-11.4218
炁三口	-11.422
執事	-11.4222
紅髮	-11.4222
黄泉	-11.4223
曰昔	-11.4224
注想	-11.4224
交㑹	-11.4226
起至	-11.4228
牒式	-11.4234
桂心	-11.4234
禳灾	-11.4234
己巳	-11.4235
飛霄	-11.4236
處處	-11.4237
受號	-11.4241
稽首禮	-11.4241
赤氣	-11.4241
之虞	-11.4243
天信	-11.4247
長閉	-11.4249
慕道	-11.4252
炁吹入	-11.4253
金光呪	-11.4255
必使	-11.4255
潜通	-11.4256
至精	-11.426
必應	-11.4262
靈妃	-11.4267
與物	-11.4268
在寅	-11.4268
服之又方	-11.4271
禱之	-11.4274
亦用	-11.4275
五種	-11.4275
科禁	-11.4282
无常	-11.4286
洞室	-11.4288
名諱	-11.4291
錬化	-11.4291
宋朝	-11.4291
召命	-11.4293
萬物皆	-11.4297
之奥	-11.4297
戒行	-11.4297
服御	-11.4297
遠矣	-11.4297
無遺	-11.43
魔魅	-11.4301
玉清上宫	-11.4302
出没	-11.4304
關發	-11.4305
不壞	-11.4305
别室	-11.4305
金鼎	-11.4305
午戌	-11.4306
无上三天	-11.4307
本職	-11.4308
以杖	-11.4309
朱墨	-11.431
五濁	-11.431
緫監	-11.431
於中庭	-11.4318
十二部	-11.4318
方外	-11.4323
都部	-11.4325
速來	-11.4327
三千里	-11.4327
二宫	-11.4328
飛去	-11.433
攝魔	-11.4331
常懷	-11.4331
空歌	-11.4332
邪見	-11.4334
有儀	-11.4339
又呪曰	-11.4339
乞爲	-11.4341
炁一口吹	-11.4341
守道	-11.4343
難思	-11.4345
除妖	-11.4345
音聲	-11.4345
不得輕	-11.4345
存變	-11.4345
五遍	-11.4345
三簡	-11.4346
死尸	-11.4348
癸申	-11.4348
玄祖	-11.4349
炁吹之	-11.435
湯下	-11.435
滅蹤	-11.4352
請炁	-11.4352
獄主	-11.4352
流注	-11.4352
啓道	-11.4356
兩頭	-11.4357
亦不能	-11.4363
難解	-11.4364
而言之	-11.4364
地理	-11.4365
金鐘	-11.4368
來詣	-11.4375
嚥下	-11.4376
各自	-11.4377
陰斗	-11.4377
敢有違	-11.4378
銅柱	-11.4381
自作	-11.4382
台將	-11.4383
藏經	-11.4384
祖先	-11.4385
却念	-11.4387
一枝	-11.4388
一意	-11.439
日午時	-11.4392
九章	-11.4398
雷音	-11.4403
此名爲	-11.4403
神者請	-11.4405
提魂	-11.4409
陰雲	-11.441
斷後	-11.4413
見性	-11.4416
難言	-11.4417
三角	-11.4419
塚訟	-11.442
鴨	-11.442
猖狂	-11.4422
三層	-11.4422
窒	-11.4422
笛	-11.4423
錐	-11.4423
兜鍪	-11.4424
小品	-11.4424
不思議	-11.4425
鵬	-11.4426
彗	-11.4426
是名眞人觀諸法性得决定心	-11.4426
窄	-11.4426
鬻	-11.4427
台光	-11.4427
毗	-11.4428
溝	-11.4428
夫道	-11.4428
扎	-11.4429
超凡入聖	-11.4429
灌溉	-11.4429
止風	-11.4429
彝	-11.4429
面奏	-11.443
鯨	-11.443
等皈身皈神皈命首體投地以是	-11.4431
飛沙走石	-11.4431
崑	-11.4431
掀	-11.4431
羙	-11.4431
喑	-11.4431
巒	-11.4431
曝	-11.4432
麓	-11.4432
冒犯天威	-11.4432
墉	-11.4432
誅戮	-11.4433
天真皇人	-11.4433
百歲	-11.4433
金龍驛傳	-11.4433
毓	-11.4434
藩	-11.4434
䘖	-11.4434
拈	-11.4434
棹	-11.4434
身有光明	-11.4435
淑	-11.4436
催督	-11.4436
果有	-11.4436
皂莢	-11.4436
蒿	-11.4436
无方	-11.4436
誠惶誠恐	-11.4436
中部洞玄八景自然靈寳神仙	-11.4437
灝	-11.4437
軟	-11.4437
十方飛天神王	-11.4437
上吉	-11.4438
笏	-11.4438
睹	-11.4439
上清三洞弟子靈寳領教嗣師王契眞纂	-11.4439
生天寳籙	-11.4439
錬魂	-11.4439
上部洞天八景自然靈寳神仙	-11.444
火瓢	-11.4441
亡過某等䰟	-11.4441
闌	-11.4442
寂寞	-11.4442
炷香	-11.4442
五方蠻雷使者	-11.4443
榛	-11.4443
兵吏	-11.4443
窗	-11.4443
碩	-11.4444
大慈大悲	-11.4444
伏匿	-11.4444
續仙傳	-11.4445
闗	-11.4445
隍	-11.4445
胡粉	-11.4445
即出	-11.4445
綜	-11.4446
無形無名	-11.4447
策杖	-11.4448
皂靴	-11.4449
不冝	-11.4449
鐵圍	-11.445
檢校	-11.445
排列	-11.445
己未	-11.445
下部洞靈八景自然靈寳神仙	-11.4451
甘澤	-11.4452
譴責	-11.4452
太一十神	-11.4452
謄詞	-11.4452
九幽地獄	-11.4453
睿號	-11.4453
九月九日	-11.4453
帝君元始洞空自然髙上王炁金闕上聖	-11.4453
妙在	-11.4453
艱難	-11.4453
並行	-11.4454
歡樂	-11.4455
必成	-11.4455
玄晨	-11.4456
昏暗	-11.4456
大象	-11.4457
生育	-11.4457
丸如梧子大	-11.4458
䖍誠	-11.4458
君將	-11.4459
姹女	-11.446
武夷	-11.446
哀哉	-11.4461
我身形	-11.4461
白龍	-11.4462
前後左右	-11.4463
無幽不	-11.4463
隱韻	-11.4463
盛衰	-11.4465
君也	-11.4467
碧霄	-11.4467
來詞	-11.4468
鉞斧	-11.4469
朱髮	-11.4469
飢寒	-11.447
祝呪	-11.447
靈關	-11.447
孟子	-11.4472
煎湯	-11.4474
送迎	-11.4475
衆惡	-11.4475
閉眼	-11.4476
朱明	-11.4476
解寃	-11.4477
動静	-11.4477
如小豆	-11.4479
岱嶽	-11.448
支干	-11.448
都城隍	-11.4481
幸勿	-11.4482
形軀	-11.4482
調息	-11.4483
批發	-11.4484
温酒	-11.4484
演教	-11.4485
中指中節	-11.4485
髙座	-11.4485
授與	-11.4485
不惟	-11.4487
蜜丸	-11.4488
三經同卷	-11.4489
各從	-11.4491
萬刼	-11.4495
入聖	-11.4498
五路	-11.4503
筆硯	-11.4503
斬殺	-11.4504
斬絶	-11.4504
六壬	-11.4506
各持	-11.4506
必能	-11.4506
忠信	-11.4507
元綱	-11.4509
太陽帝君	-11.451
能言	-11.451
黄精	-11.4513
將九億萬騎出无上	-11.4514
群品	-11.4514
功勤	-11.4514
帝時	-11.4515
邵子	-11.4515
亞獻	-11.4515
部衛	-11.4516
靈寳符命	-11.4516
形狀	-11.4517
墨黑	-11.4517
轉身	-11.4518
皇華	-11.4518
起土	-11.4519
北極星	-11.4519
每遇	-11.452
採訪真君	-11.452
羅浮	-11.4521
祕而	-11.4522
但當	-11.4523
承差	-11.4524
西方蠻雷	-11.4525
演說	-11.4528
周遍	-11.4528
付與	-11.4529
今時	-11.4532
前導	-11.4532
獄吏	-11.4533
衣五色	-11.4533
布衣	-11.4534
急疾	-11.4535
金堂	-11.4535
事訖	-11.4536
知委	-11.4536
異常	-11.4538
叩之	-11.4538
佐命	-11.4538
三清上帝	-11.4539
則知	-11.4541
蜜和	-11.4543
違犯	-11.4543
痛處	-11.4544
結界	-11.455
衆星	-11.4551
黄老君	-11.4552
逐處	-11.4552
死氣	-11.4554
魁神	-11.4555
散禍	-11.4556
速降攝	-11.4558
速附	-11.4559
百億	-11.4565
謹啓	-11.4565
其或	-11.4566
夜卧	-11.4566
唯願	-11.4567
常能	-11.4567
爲學	-11.4571
未解	-11.4573
西海	-11.4573
槍	-11.4577
不移	-11.4577
或因	-11.458
某州郡縣郷里	-11.4581
二七過	-11.4582
西方金	-11.4582
賛化	-11.4582
月明	-11.4582
故云	-11.4583
洞庭	-11.4583
各得	-11.4584
百二十曹	-11.4584
隨縁	-11.4585
幽𡨋	-11.4587
願請	-11.4587
火鍊	-11.4587
關節	-11.4588
讀誦	-11.4589
書云	-11.4589
究其	-11.4592
九咽	-11.4593
公孫	-11.4594
失道	-11.4595
拯救	-11.4595
或被	-11.4597
神燭	-11.4597
啓事	-11.4598
三官大帝	-11.4599
歩至	-11.4599
甚衆	-11.46
速現眞形	-11.4601
立于	-11.4607
爲丸	-11.461
本眞	-11.4614
亦隨	-11.4614
上清靈寳	-11.4616
艮方	-11.4617
入兆	-11.4623
入室東向	-11.4623
之氣更受錬	-11.4624
科典	-11.4624
之道當以	-11.4631
爲信	-11.4631
實有	-11.4634
行禮	-11.4635
聽命	-11.4636
結爲	-11.4636
下流	-11.4644
玄明	-11.4645
結氣	-11.4646
尚何	-11.4652
大哉	-11.4656
封山	-11.4656
氣象	-11.4656
兼行	-11.4657
契合	-11.4658
二子	-11.4658
州人	-11.4659
志在	-11.466
西斗	-11.4665
萬真	-11.4665
行此法	-11.4667
三百人	-11.4669
典儀	-11.4669
進云	-11.467
靈寳大法司牒	-11.4676
浮生	-11.4676
小者	-11.4676
雷炁	-11.4677
呪曰唵	-11.4677
授兆	-11.468
利六畜	-11.4684
近有	-11.4686
啓明	-11.4687
苦行	-11.4688
其父	-11.4688
髙清	-11.469
卦炁	-11.4693
聖人之	-11.4693
龍宫	-11.4694
佳又方	-11.4697
八冥	-11.4699
請光	-11.47
大施	-11.4701
六毒	-11.4704
九極	-11.4705
紙朱書	-11.4706
者可以	-11.4706
不致	-11.4707
不替	-11.4708
魂爽	-11.471
遇有	-11.4712
諸神吏符使	-11.4713
昇降	-11.4728
未安	-11.4729
大造	-11.4729
華夏	-11.473
世傳	-11.4736
生乎	-11.4736
巳上並	-11.4736
第十四	-11.4739
面赤	-11.4739
唵吒	-11.474
北方黒	-11.4743
火師曰	-11.4745
譬	-11.4749
向來所啓之誠	-11.4757
始學	-11.4757
不遇	-11.4757
岱	-11.4758
與夫	-11.4759
和與道合眞	-11.4759
所掌	-11.4759
神機	-11.4759
如儀	-11.4759
助之	-11.476
功夫	-11.4762
和與道合真	-11.4767
品目	-11.4768
識者	-11.4768
矣今	-11.4769
犀	-11.477
蚕	-11.4771
明年	-11.4772
掐子文	-11.4772
一石	-11.4772
槩	-11.4775
一例	-11.4776
喗吒唎	-11.4776
九丹	-11.4777
室之中	-11.4777
文又言敕	-11.4778
暈	-11.4779
天眞皇人	-11.4779
寤	-11.4779
一百四十	-11.478
江水帝	-11.478
凛	-11.4781
準敕	-11.4782
某日某時	-11.4782
蛟蜃	-11.4783
慊	-11.4783
浣	-11.4783
本无	-11.4783
出現	-11.4784
眥	-11.4784
哮吼	-11.4784
何能	-11.4784
倶	-11.4785
得其人	-11.4785
羈	-11.4786
唎吒	-11.4786
彤	-11.4786
各禮師存念如法宣衛靈呪	-11.4786
太清仙境	-11.4786
羡	-11.4787
藜	-11.4787
玉女五帝直符直日香官合三十六人	-11.4787
宿天華雷	-11.4787
㳙	-11.4787
𣗳	-11.4787
漲	-11.4787
膜	-11.4788
王氏神仙傳王	-11.4789
受化更生	-11.4789
隊仗	-11.4789
興販	-11.4789
玉女二十四人	-11.479
聖意訟	-11.479
驅瘟	-11.479
樞紐	-11.479
狐狸	-11.4791
舋	-11.4791
懶	-11.4791
七祖充責	-11.4791
今據入意	-11.4791
澍	-11.4791
燔	-11.4791
惹	-11.4792
合明天帝日	-11.4792
穿鬼心	-11.4792
天動地	-11.4792
以是因縁	-11.4792
一如玄科律令	-11.4793
天條	-11.4793
稚	-11.4793
𠮷	-11.4793
廖	-11.4793
方能	-11.4793
青龍白虎	-11.4793
今故燒香自皈依師尊大聖衆至	-11.4793
迓	-11.4794
瑟	-11.4794
混洞赤文	-11.4794
破鬼肚	-11.4794
疾除罪簿落滅惡根	-11.4794
四司五帝	-11.4795
珪	-11.4795
鳳文	-11.4795
真之德得道之後昇入無形	-11.4795
項負	-11.4795
㳺	-11.4795
超化	-11.4796
縻	-11.4796
駿	-11.4796
東方朔	-11.4797
混元玉札	-11.4797
嬰孩	-11.4797
跛	-11.4797
稍稍	-11.4798
貪巨禄文廉武破	-11.4798
字蓋之	-11.4798
叩齒三十二通	-11.4798
鄷都	-11.4798
怳	-11.4799
徇	-11.4799
黒簿	-11.4799
硤	-11.4799
貧富	-11.48
須至牒者右牒上	-11.48
斡旋造化	-11.48
夔	-11.48
此間土地	-11.48
不下	-11.4801
三十六將	-11.4801
安可	-11.4801
遊奕	-11.4802
復還	-11.4802
匙	-11.4803
謟	-11.4803
俓詣	-11.4803
咸與	-11.4804
月日時	-11.4805
廟神	-11.4806
尹喜	-11.4806
分眞	-11.4807
六道四生	-11.4808
開陳	-11.4808
産孕	-11.4809
繡衣	-11.4809
得解脫	-11.481
相承	-11.481
學道之人	-11.4811
前世	-11.4811
敷揚	-11.4811
妙哉	-11.4812
𡨚對	-11.4812
宿炁名	-11.4813
疾疫	-11.4813
雷動	-11.4814
師省	-11.4817
萬騎	-11.4818
各十二人	-11.4819
追薦	-11.4819
之式	-11.482
竹葉	-11.482
充盈	-11.482
横行	-11.4821
留停	-11.4822
形魂	-11.4824
韓司	-11.4825
雷神速起	-11.4826
大指搯	-11.4827
法物	-11.4828
合契	-11.4828
急急如上帝律令敕	-11.4828
極則	-11.4829
介福	-11.4829
琅書	-11.4831
保舉師	-11.4833
偶然	-11.4836
重念	-11.4837
塵濁	-11.4838
己酉	-11.4838
養育	-11.484
申東嶽	-11.484
周迴	-11.484
土木	-11.4842
謹當宣	-11.4844
之謂也	-11.4846
向日	-11.485
不曾	-11.4851
改易	-11.4854
化身爲	-11.4857
胷前	-11.4857
交并	-11.4857
治世	-11.4861
宫曹	-11.4863
寅日	-11.4866
急急如律令召	-11.4868
畜生	-11.4869
準勑	-11.487
竈神	-11.4871
緊急	-11.4871
□□□□□	-11.4874
名之爲	-11.4875
超升	-11.4876
隂氣	-11.4878
虎嘯	-11.4878
百和	-11.4879
八炁	-11.488
不逹	-11.4884
烏頭	-11.4884
住持	-11.4886
字蓋	-11.4886
子辰	-11.4886
入人家	-11.4887
發去	-11.4888
雨部	-11.4891
毒藥	-11.4892
内篇	-11.4893
宿縁	-11.4894
剔訣	-11.4894
通身	-11.4896
真妃	-11.49
難窮	-11.4902
筆墨	-11.4903
孰能	-11.4905
無際	-11.4907
青牛	-11.4907
二人天靈赤官斬邪	-11.4907
銅器	-11.491
行刑	-11.491
家先	-11.4914
下觀	-11.4914
空玄	-11.4917
第七十	-11.4919
詞稱	-11.4921
玄冠	-11.4922
飛行上昇	-11.4924
凶邪	-11.4925
遭遇	-11.4927
而己	-11.4927
右邊	-11.4927
分爲三	-11.4929
壇圖	-11.4929
流輝	-11.4929
求財利	-11.493
吽吒	-11.4931
鬼營	-11.4931
校定	-11.4936
无崖	-11.4936
學業	-11.4938
隂翳	-11.4938
二十年	-11.4943
字伯	-11.4943
國主	-11.4946
文公	-11.495
所司	-11.4952
專爲	-11.4952
捉縛	-11.4954
年月日時告下	-11.4954
公牒	-11.4955
精魂	-11.4956
頭頂	-11.4957
寅午戌	-11.4958
明了	-11.4958
道之人	-11.4961
須先	-11.4965
自今	-11.4966
扶命	-11.4966
隱元	-11.4968
庶人	-11.4969
洞案	-11.4969
家庭	-11.4969
復來	-11.4974
區分	-11.4975
大賜	-11.4978
立見	-11.498
身亡	-11.4981
上下相	-11.4982
君官將一百二十人	-11.4987
諸官	-11.4989
善神	-11.4991
凶星	-11.4992
元始天尊說	-11.4993
變易	-11.4996
金碧	-11.4997
請恩	-11.4997
不一	-11.4998
授其	-11.4999
紫華	-11.4999
瑞光	-11.5
修煉	-11.5
隨力	-11.5
掩日	-11.5
如前法	-11.5
道理	-11.5003
得此文	-11.5006
發放	-11.5007
除殃	-11.501
丹田宫	-11.5012
擇日	-11.5012
之義也	-11.5012
血氣	-11.5012
星曜	-11.5013
隨逐	-11.5013
高仙	-11.5017
各一人	-11.5017
玄教	-11.5022
大彰	-11.5023
木精	-11.5027
言我	-11.5028
宗皇帝	-11.5029
神馭	-11.5036
行其道	-11.5038
黑龍	-11.5039
玉帝訣	-11.5041
妄作	-11.5044
滿天	-11.5044
骨髓	-11.505
斗光	-11.5053
氣力	-11.5057
欲望	-11.5058
九天採訪	-11.506
經誥	-11.5062
詔書	-11.5066
方術	-11.5067
從鼻	-11.5069
離文	-11.5069
紅衣	-11.507
授子	-11.5072
八兩	-11.5075
直使	-11.5075
北方水	-11.5075
鬼面	-11.5079
始可	-11.508
千災	-11.5082
炁吹布	-11.5085
仰頭	-11.5085
爲某事	-11.5085
上接	-11.5087
精潔	-11.5093
電掣	-11.5094
龍行雨	-11.5095
飲以	-11.5096
水星	-11.5097
令熱	-11.5099
消長	-11.5101
於壇中	-11.5104
官衆	-11.5105
得免	-11.5106
瓮	-11.5107
孔中	-11.5108
未達	-11.5108
枕中	-11.5114
腹痛	-11.5115
種子	-11.5115
宗祖	-11.512
寸心	-11.513
又見	-11.5131
無蹤	-11.5133
天赦	-11.5133
千二百官	-11.5134
三毒	-11.5136
翌	-11.5138
驚人	-11.5138
澤地土皇君	-11.514
倣	-11.514
四十四	-11.5141
生滅	-11.5144
癥	-11.5145
治太上中氣	-11.5145
不滯	-11.5146
宋無忌	-11.5146
廡	-11.5147
祀之	-11.5148
獄符呪曰神霄眞王勑下九天	-11.5148
諸仙人	-11.5149
急急如太上老君律令	-11.515
潦	-11.515
二捻上香	-11.5151
獨立	-11.5151
眼中	-11.5151
輔正	-11.5151
反嬰	-11.5152
北都羅酆	-11.5153
通流	-11.5153
善哉善哉	-11.5153
凝神定息	-11.5154
驅雷役電	-11.5155
遟	-11.5155
笥	-11.5155
榆	-11.5155
二聖	-11.5155
菩	-11.5156
保舉監度度師	-11.5156
叮嚀	-11.5156
褥	-11.5156
燁	-11.5156
真道炁靈寳瑞光下降流入	-11.5156
閽	-11.5157
土地方域神真	-11.5158
澁	-11.5158
蜃	-11.5158
燃燈	-11.5158
閼	-11.5158
盼	-11.5158
裕	-11.5159
矩	-11.5159
者分形諸邪神	-11.5159
角封	-11.5159
嘯命風雷	-11.5159
玄紀	-11.5159
羹	-11.5159
與道合真鳴法鼓二十四通無上三天玄	-11.516
周而復始	-11.516
癖	-11.516
申明	-11.516
纎	-11.516
流火之庭	-11.516
憤	-11.5161
俺	-11.5161
擺	-11.5161
彊	-11.5161
蜚	-11.5161
西斗記名	-11.5161
五靈玄老	-11.5161
聮	-11.5162
终	-11.5162
閤	-11.5162
臆	-11.5162
冕	-11.5162
蓊鬱	-11.5163
東極青宫	-11.5163
感召	-11.5163
茭龍驛吏	-11.5163
雷霆九司	-11.5163
闊三寸	-11.5164
灌漑	-11.5164
寰宇	-11.5165
茭龍	-11.5165
九江水帝	-11.5165
欄	-11.5165
陰氣	-11.5165
覬	-11.5165
蛛	-11.5165
馮夷	-11.5166
斟	-11.5166
悵	-11.5166
落滅惡根	-11.5167
螣蛇	-11.5167
遨遊	-11.5167
普掠	-11.5167
哀憐	-11.5167
君之道常以	-11.5167
諸天諸地	-11.5167
南華真經	-11.5167
橋梁	-11.5168
臰	-11.5168
速發	-11.5168
不得稽停	-11.5168
鳧	-11.5168
鄷	-11.5169
彷彿	-11.5169
飛電	-11.5169
倡	-11.5169
乆乆	-11.517
北斗落死	-11.517
綱維	-11.517
麤	-11.5171
上官典者	-11.5171
南嶽夫人	-11.5171
千年仙矣	-11.5171
大將軍百二十人北極神呪勑	-11.5171
午日	-11.5172
典祀	-11.5172
綾	-11.5172
修齋行道	-11.5172
悚	-11.5173
麝香	-11.5173
五色獅子	-11.5173
細研	-11.5173
南斗上生	-11.5174
許君	-11.5174
金簡玉	-11.5175
兩脚	-11.5175
巡遊	-11.5175
不知所在	-11.5176
十四枚	-11.5176
用力	-11.5177
忠良	-11.5177
漢武帝	-11.5178
髙穹	-11.518
堯舜	-11.518
案判官	-11.518
問訊	-11.518
經一卷	-11.5181
藥叉	-11.5182
老翁	-11.5183
親踈	-11.5184
愚迷	-11.5187
鬱秀	-11.5188
瓊瑶	-11.5189
三竒	-11.5189
玉皇上帝敕	-11.5191
樓臺	-11.5192
或問	-11.5192
充塞	-11.5193
狐疑	-11.5194
己丑	-11.5195
推移	-11.5195
周遊	-11.5196
烟霞	-11.5196
庖	-11.5197
欽崇	-11.5197
緫統	-11.5198
推遷	-11.5199
紫戸	-11.5199
效職	-11.5199
十方世界	-11.52
龍頭	-11.5201
百丈	-11.5203
攝亡	-11.5203
本是	-11.5205
入事意	-11.5207
苟畢	-11.5208
瑶壇	-11.5209
邵陽雷公	-11.5209
師門	-11.5211
紅日	-11.5211
鬱羅	-11.5212
呼曰	-11.5212
寒池	-11.5212
琳宫	-11.5213
宣召	-11.5214
用白	-11.5216
皆禀	-11.5216
之時先	-11.5218
鶴林	-11.5219
上清大洞	-11.5219
結尾	-11.522
千愆	-11.522
登空	-11.5222
龍駕	-11.5222
有期	-11.5222
起例	-11.5223
八荒	-11.5223
一理	-11.5226
脾神	-11.5227
人惡星當滅復連當絶	-11.5229
二寸四分	-11.5229
顯揚	-11.523
地氣	-11.523
滅爽	-11.5231
地獄主者	-11.5231
緫領	-11.5232
苦䰟	-11.5234
翠羽	-11.5235
切須	-11.5235
其中有	-11.5237
玄穹	-11.5241
羣品	-11.5241
洞鑒	-11.5243
立成儀	-11.5243
十二時中	-11.5243
土公	-11.5248
六陰	-11.5249
慈光	-11.5251
宣布	-11.5252
白馬	-11.5252
罡星	-11.5256
虚危	-11.5256
與弟子	-11.5256
等官	-11.5256
並皆	-11.5258
列仙	-11.5261
玄録	-11.5263
清氣	-11.5267
千百	-11.5269
中丹田	-11.5272
著書	-11.5272
諸天上帝	-11.5273
吿文	-11.5275
大慈悲	-11.5275
洞耀	-11.5277
常服	-11.5282
以伺	-11.5283
禍患	-11.5283
午未	-11.5283
進道	-11.5288
邪俗	-11.5289
元伯	-11.5293
斬伐	-11.5293
幾人	-11.5294
高山	-11.5296
保固	-11.5298
取㫖	-11.5299
儀同卷	-11.5301
師恩	-11.5302
性情	-11.5303
項生	-11.5304
好樂	-11.5304
生形	-11.5307
逐日	-11.5307
一邊	-11.5308
願得長生	-11.5309
靈虚	-11.531
箕星	-11.5311
加封	-11.5311
吐氣	-11.5311
上感	-11.5312
不聽	-11.5318
誓章	-11.5318
生尸	-11.532
昇平	-11.532
得覩	-11.5323
莫知其	-11.5329
爍爍	-11.533
日益	-11.5334
隱名	-11.5335
秘要	-11.5335
惟道	-11.5337
社令雷神	-11.534
中央蠻雷	-11.5345
魈鬼	-11.5347
即差又方	-11.5348
稱意	-11.5362
宣科	-11.5364
長生大君	-11.5364
立愈	-11.5366
靈源	-11.5372
學道者	-11.5373
奉事	-11.5374
兊宫	-11.5375
恩愛	-11.5376
令患人	-11.5379
序立	-11.538
飛煙	-11.5381
八表	-11.5382
西極	-11.5383
使然	-11.5386
録籍	-11.5389
門戸	-11.5394
水火二	-11.5397
震乾坤	-11.5398
炁咽之	-11.5403
祈嗣	-11.5403
勑水	-11.5404
下徹	-11.5405
三神	-11.5405
變神爲	-11.5406
處士	-11.5408
仰觀	-11.541
不捨	-11.5412
敬信	-11.5415
在家	-11.5418
招禍	-11.5419
大法師	-11.542
金樓	-11.542
第十五	-11.5422
克成	-11.5422
罪惡	-11.5424
復生	-11.5424
瓊文	-11.5425
役召	-11.5427
仍須	-11.5428
禍滅	-11.5431
陽極	-11.5434
兆當	-11.544
六丁玉女	-11.5444
灰燼	-11.5449
羣臣	-11.5452
依舊	-11.5455
雪雹	-11.5456
靈寳度人	-11.5458
齋福	-11.5458
龍章	-11.5459
萬二千	-11.5461
山野	-11.5466
逆鬼	-11.5473
虚靈	-11.5475
宣和	-11.5477
故違	-11.5477
職位	-11.548
山源	-11.5487
不異	-11.5487
之年	-11.5488
萬姓	-11.5489
金環	-11.5489
從魁	-11.549
禮畢	-11.5491
救物	-11.5492
太上洞神	-11.5496
煞字	-11.5496
流轉	-11.5497
二人天靈赤官	-11.5499
老者	-11.5499
上表	-11.55
入口中	-11.55
第九十	-11.5501
逐時	-11.5506
入戸	-11.5506
辟惡	-11.5507
回首	-11.5512
盟約	-11.5514
給玉童玉女	-11.5517
谿	-11.5518
亦可用	-11.5518
指中節	-11.552
群鬼	-11.5521
瞤	-11.5523
内養	-11.5524
回紇	-11.5526
𡆄	-11.5526
衣帶	-11.5527
髭	-11.5528
百尺	-11.5529
感降	-11.553
小鬼	-11.553
高上神霄玉清王	-11.5531
道俗	-11.5531
挈	-11.5531
詛	-11.5534
彪	-11.5535
靈寳領教	-11.5535
天圓地方	-11.5535
咖	-11.5536
誦念	-11.5536
功曹一十五人	-11.5537
稽滯	-11.5537
道之士	-11.5537
讒	-11.5538
各二十四人出	-11.5539
眞人告童子言善見童子若諸眞人	-11.5539
請詳事理	-11.5539
飊	-11.5539
肌膚	-11.5541
緋袍	-11.5541
璇璣玉衡	-11.5541
驚怖	-11.5541
葆	-11.5541
輕清	-11.5541
八氣	-11.5542
卞	-11.5542
窠	-11.5542
惻	-11.5542
奬	-11.5542
神凝	-11.5542
聖德	-11.5543
洞微髙士開光救苦真人𡩋全	-11.5543
緬	-11.5543
屬金	-11.5544
拖	-11.5544
狡	-11.5544
噤	-11.5545
塵寰	-11.5545
炊	-11.5545
三界應感一切真靈	-11.5545
泒	-11.5545
六十甲子	-11.5546
𩲓	-11.5546
黄素朱書	-11.5546
無動無作	-11.5546
牡	-11.5547
頤	-11.5547
媒	-11.5547
鳴天鼓	-11.5547
糓	-11.5548
青赤	-11.5548
禬	-11.5548
昭然	-11.5548
觴	-11.5548
夤	-11.5548
虵	-11.5549
眞君度南昌上生	-11.5549
上十方香	-11.5549
者徒二年	-11.5549
投詞伏爲	-11.5549
兢	-11.5549
寮	-11.555
宂	-11.555
闡揚	-11.555
百福	-11.555
終南山	-11.555
峩	-11.555
巷	-11.555
元始天尊太上道君太上老君	-11.555
繳	-11.555
葢	-11.555
嬌	-11.5551
玷	-11.5551
須至奏聞者右	-11.5551
甲子庚申	-11.5551
㭒	-11.5551
礪	-11.5551
哀愍	-11.5551
瑩徹	-11.5552
冉冉	-11.5552
霹靂一聲	-11.5552
銅鐵	-11.5552
蒂	-11.5552
永保長生	-11.5552
肴	-11.5552
叱咄	-11.5553
衆等至心皈命	-11.5553
元應太皇府	-11.5554
大教	-11.5554
盃	-11.5554
鐵札	-11.5554
悦	-11.5555
查	-11.5555
失度	-11.5555
稠	-11.5555
督勒	-11.5555
湮	-11.5556
先世	-11.5556
唯有	-11.5557
琪	-11.5557
蜈蚣	-11.5557
升麻	-11.5558
北斗七元星君	-11.5558
科書	-11.5558
則不然	-11.5559
南面	-11.556
痹	-11.556
厲聲	-11.556
服方寸匕	-11.5561
滅罪	-11.5561
兵戈	-11.5561
急急如北極	-11.5562
葛仙翁	-11.5563
黑簿	-11.5563
朱陽	-11.5563
宗㫖曰兆	-11.5564
千精	-11.5564
右手劔訣	-11.5564
口衘	-11.5564
瑶臺	-11.5565
未甞	-11.5566
畝	-11.5567
從官十二人	-11.5568
明里	-11.5568
俯賜	-11.5569
超脫	-11.557
嚥炁	-11.557
下元生人	-11.5572
明朗	-11.5574
周帀	-11.5576
雌黄	-11.5577
己亥	-11.5577
夙夜	-11.5578
心目	-11.5579
作孽	-11.558
勤勞	-11.5582
於泥丸	-11.5582
遷移	-11.5582
神龜	-11.5583
預期	-11.5585
劒訣虚書	-11.5586
宻㫖	-11.5589
温瓊	-11.5589
胎嬰	-11.559
青氣	-11.5591
似此	-11.5592
丑亥	-11.5593
煞攝	-11.5593
肝炁	-11.5593
服餌	-11.5593
决定	-11.5593
良由	-11.5594
典籍	-11.5594
立要	-11.5594
養炁	-11.5595
洞玄部	-11.5595
五榖	-11.5595
知音	-11.5596
鐵城	-11.5596
瓊房	-11.5598
合乎	-11.56
昇騰	-11.56
曲映	-11.56
懴罪	-11.5601
南陵	-11.5603
驛龍	-11.5603
洛陽	-11.5603
不久	-11.5606
物命	-11.5606
呪食	-11.5606
齎信	-11.5607
紅炁	-11.5609
符掾吏	-11.5612
山簡	-11.5612
圓滿	-11.5613
玉柱	-11.5614
過咎	-11.5617
獄門	-11.5619
開晴	-11.562
謂如	-11.5625
良辰	-11.5625
年齡	-11.5628
一巻	-11.5631
寅申	-11.5632
舊典	-11.5633
所祈	-11.5633
十二月將	-11.5633
恭對	-11.5639
消禳	-11.564
逺離	-11.5643
姓某右	-11.5644
合搗	-11.5647
服三丸	-11.5648
掐定	-11.5654
三歩	-11.5654
宻室	-11.5655
二炁交	-11.5655
死户	-11.5657
桃枝	-11.5658
文狀	-11.566
浮遊	-11.566
了却	-11.566
或遇	-11.5662
諸人死鬼	-11.5664
變現	-11.5666
傳尸	-11.5666
皆應	-11.5668
貫通	-11.5668
遇至人	-11.5669
十九日	-11.567
位次	-11.567
九千萬人	-11.5671
洞曉	-11.5671
凶神	-11.5673
留心	-11.5673
西王母曰	-11.5674
使者霹靂	-11.5675
無路	-11.568
恩惟	-11.568
疑心	-11.5681
辟非	-11.5681
車馬	-11.5681
神郷	-11.5682
潄	-11.5685
章詞表	-11.5686
瑞炁	-11.5687
轟霹靂	-11.5689
光色	-11.569
其篇目	-11.5691
衆魔	-11.5691
敬奉	-11.5692
攝魄	-11.5695
交帶	-11.5695
以詩	-11.5697
照映	-11.5697
水晶	-11.5698
其辭	-11.5701
右符黄紙朱書	-11.5702
水恠	-11.5707
金晨	-11.5707
半年	-11.5709
高士	-11.5709
長一丈	-11.5714
臨壇所	-11.572
苦魂	-11.572
三丸	-11.572
真科	-11.5723
却邪	-11.5725
心力	-11.5729
不期	-11.5729
高上玉皇	-11.5729
抑亦	-11.5733
煉化	-11.5736
立現	-11.5736
收禁	-11.5736
劫數	-11.5737
斬妖精	-11.5738
一百五十	-11.5738
山谷	-11.5739
雨雪	-11.574
令熟	-11.5741
祕言	-11.5742
妙林	-11.5744
即須	-11.5744
離火	-11.5747
頭冠	-11.5747
清和	-11.5748
功勳	-11.5748
乘風	-11.5749
獄主者	-11.5752
人之所	-11.5752
乘龍	-11.5753
周備	-11.5754
萬徧	-11.5757
師訓	-11.5758
長房	-11.5759
立待	-11.576
入泥丸	-11.5762
土地正神	-11.5763
掾	-11.5772
升壇	-11.5774
齊靈	-11.5775
安國	-11.5775
母子	-11.5775
寅上	-11.5776
眼前	-11.5778
玄津	-11.5779
尸穢	-11.5779
庚亥	-11.578
先祖	-11.5783
勑字	-11.5788
進品	-11.5789
鎮海	-11.5789
當須	-11.579
讀書	-11.5791
急宜	-11.5792
要知	-11.5792
洞朗	-11.5793
斬首	-11.5796
交付	-11.5797
謹啓以聞	-11.5799
行於世	-11.5803
三五功曹	-11.5803
詞章	-11.5805
罪籍	-11.5806
收魂	-11.5807
紫素元君	-11.5809
百官	-11.5809
雨暘	-11.581
師曰此	-11.5812
火翳	-11.5818
下統	-11.5822
手掐	-11.5824
從上第	-11.5832
急急如律令攝	-11.5832
於符上	-11.5834
奉師	-11.5834
常樂	-11.5835
秘呪	-11.5837
合爲一	-11.5837
上帝敕命	-11.5839
金闕下	-11.5841
給符	-11.5842
指掐	-11.5845
正北	-11.5846
一種	-11.5847
證道	-11.5849
經籍	-11.5851
姓某狀奏	-11.5854
何故	-11.5856
理宜	-11.5856
而已矣	-11.586
年月日時告下具位姓	-11.5861
水簡	-11.5869
上資	-11.5869
陰山	-11.5869
起電	-11.587
如斯	-11.5878
汝欲	-11.5879
九過止	-11.5883
隂德	-11.5886
召到	-11.5887
立定	-11.5891
各三十六人	-11.5896
風波	-11.5897
此語	-11.5897
當思	-11.5897
金槌	-11.5906
妄泄	-11.5907
勞心	-11.5912
直須	-11.5913
收執	-11.5914
回光	-11.5917
火旺	-11.5917
開發	-11.5918
密呪曰	-11.5919
稽停	-11.5924
喏	-11.5926
嶁	-11.5926
柈	-11.5928
使者十二人仙靈官	-11.5928
正宗	-11.5929
葬埋	-11.5929
占財買賣	-11.5932
竺	-11.5932
迯	-11.5932
廬山太平興國宫	-11.5933
玄根	-11.5934
買賣	-11.5935
交映	-11.5936
沌	-11.5936
櫛	-11.5937
晅	-11.5937
直齋僕射百二十人出	-11.5938
狸	-11.5938
河水	-11.5939
大將軍十萬人玄老	-11.5939
宴景	-11.5939
弁	-11.5939
怱	-11.594
烘	-11.5941
羌	-11.5941
恡	-11.5941
啗	-11.5941
寇	-11.5942
朵	-11.5942
去失	-11.5942
廣成先生杜光庭刪定	-11.5942
重封印全	-11.5943
閫	-11.5943
𦔳	-11.5943
纛	-11.5943
雙手雷局	-11.5943
殃咎	-11.5943
耦	-11.5943
槐	-11.5944
週	-11.5944
峽	-11.5944
㓗	-11.5944
諶	-11.5944
鋸	-11.5944
亢旱	-11.5944
嚴駕夔龍	-11.5945
少頃	-11.5945
倐	-11.5945
苔	-11.5945
扈	-11.5945
坐在立亡	-11.5946
木郎呪	-11.5946
姻	-11.5947
須至關者右關	-11.5947
霶𩃱	-11.5947
如彈丸	-11.5947
掖	-11.5947
塘	-11.5947
高上神霄玉清眞王長生大帝	-11.5947
彌綸	-11.5947
九九八十一	-11.5947
芍藥	-11.5948
泉扃	-11.5948
損人	-11.5948
殖	-11.5948
疥	-11.5948
殗	-11.5948
釐	-11.5949
荼	-11.5949
踴躍	-11.5949
癲	-11.5949
痕	-11.5949
逆行	-11.5949
旋遶	-11.5949
肢體	-11.595
濳	-11.595
風刀之考	-11.5951
操捧上達	-11.5951
徼	-11.5951
自然而然	-11.5951
甄	-11.5951
黷	-11.5952
觜參	-11.5952
三河四海	-11.5952
俄頃	-11.5952
茱萸	-11.5952
黄華蕩形	-11.5953
在上清之上	-11.5953
竦	-11.5953
冨貴	-11.5953
怠慢	-11.5953
開明三景	-11.5953
青木香	-11.5953
神烈陽雷神君苟留吉陰雷神君畢宗逺	-11.5953
空三寸篆符	-11.5953
兵革	-11.5953
踊躍	-11.5953
北魁玄範府	-11.5954
辛帥	-11.5954
尤佳	-11.5954
琅函	-11.5954
毫髮	-11.5955
玉蟾	-11.5955
羲和	-11.5955
恭望聖慈允今所申	-11.5955
簮	-11.5955
闓	-11.5956
鈐	-11.5956
癰疽	-11.5957
長三尺	-11.5957
月五日	-11.5957
玉籍	-11.5958
溷	-11.5958
滋味	-11.5958
保鎮	-11.5958
喝神將	-11.5959
金匱	-11.596
疸	-11.596
哀矜	-11.596
咸遵	-11.596
耳聾	-11.5961
螟	-11.5961
蹟	-11.5962
罪由不	-11.5963
瞻望	-11.5964
默默	-11.5966
㧞罪	-11.5968
丹衷	-11.5969
毎日	-11.5969
英雄	-11.5971
無上三天	-11.5973
幽牢	-11.5973
破軍星	-11.5973
井水	-11.5974
起止	-11.5975
因循	-11.5976
鶴鳴	-11.5977
元命眞人	-11.5978
便咒曰	-11.5978
併力	-11.5979
靈官一百二十人	-11.598
火罩	-11.598
沉䰟	-11.598
變化無窮	-11.598
毒氣	-11.5981
句曲	-11.5982
爾時仙人	-11.5983
紫宸	-11.5984
禍殃	-11.5984
鬼吏	-11.5984
尚父	-11.5984
除害	-11.5985
百川	-11.5986
化僊官	-11.5986
絳闕	-11.5987
賢良	-11.5988
敷露	-11.5988
鬼怪	-11.5991
主掌	-11.5991
百怪	-11.5991
毒蛇	-11.5992
寶籙	-11.5996
無端	-11.5997
凌空	-11.5997
錬質	-11.6
摧魔	-11.6
檄文	-11.6
敷落	-11.6002
獻狀	-11.6004
三界萬靈	-11.6004
四支	-11.6007
虚無之	-11.6008
妙㫖	-11.6009
梵號	-11.6009
乳香	-11.601
撼動	-11.6012
眞機	-11.6014
緊切	-11.6014
破邪	-11.6014
廣成子	-11.6016
火錬	-11.6016
毋致	-11.6018
上帝前	-11.6018
赴吾	-11.6018
怒目	-11.602
澤被	-11.6021
年歳	-11.6023
久則	-11.6027
除穢	-11.6027
玄宗	-11.6028
良民	-11.6028
科車赤符吏	-11.603
畢竟	-11.603
保安寧	-11.6031
掐午文	-11.6032
異同	-11.6034
等皈身皈神皈命	-11.6035
本命星	-11.6036
禳度	-11.6036
豐年	-11.6037
逃形	-11.6037
氣諱	-11.6038
百世	-11.6039
超三界	-11.6039
十兩	-11.6039
斷滅	-11.6041
重樓	-11.6042
北魁	-11.6043
蠲除	-11.6045
塵劫	-11.6045
昔日	-11.6045
表章	-11.6047
萬善	-11.6047
行人至	-11.6052
五方雷神	-11.6053
穢惡	-11.6058
切恐	-11.6058
等物	-11.6064
天涯	-11.6064
八品	-11.6065
白髮	-11.6066
青黑	-11.6068
納靈	-11.6071
白銀	-11.6071
祕典	-11.6071
老少	-11.6072
惟恐	-11.6072
積感	-11.6073
三啓三禮	-11.6075
太一元君	-11.6077
九地之	-11.6083
帝簡	-11.6084
遠離	-11.6084
清齋入室	-11.6085
執職	-11.6086
萬端	-11.6087
玉帝勑	-11.6093
多端	-11.6095
丹藥	-11.6096
十干	-11.6097
受胎	-11.6098
收雲	-11.6101
每至	-11.6101
天下萬民	-11.6102
巳具	-11.6102
指甲	-11.6103
執圭	-11.6103
天池	-11.6105
縱有	-11.6108
享福	-11.6111
善能	-11.6116
入夢	-11.6116
清酒	-11.6117
重復	-11.6117
金烏	-11.6121
因果	-11.6121
最上	-11.6123
左手握	-11.6124
終不能	-11.6126
一十二人	-11.6127
造作	-11.6128
吐炁	-11.6129
燈光	-11.6132
宅宇	-11.6133
萬壽	-11.6133
災禍	-11.6133
預知	-11.6134
左右二	-11.6136
東方青炁	-11.6139
童身	-11.614
凡俗	-11.6141
向王	-11.6144
旛上	-11.6146
順逆	-11.6146
玉樹	-11.6149
一百六十	-11.615
君隨四時形影在上清	-11.6152
姚方	-11.6152
神農	-11.6153
司禁	-11.6153
開示	-11.6153
超登	-11.6157
隂之炁	-11.616
三捻上香	-11.616
顯應	-11.6161
眞師曰	-11.6164
一二升	-11.6167
奏樂	-11.6168
積德	-11.6171
受職	-11.6173
法力	-11.6177
章句	-11.6178
某承誥奉行	-11.6186
太常	-11.6188
必當	-11.6189
足矣	-11.6189
更宜	-11.6191
白絹	-11.6192
編入	-11.6193
亢陽	-11.6194
上丹田	-11.6196
朱章	-11.62
雲漢	-11.6201
不言而	-11.6202
至其日	-11.6202
居止	-11.6202
尊靈	-11.6203
所住	-11.6203
金格	-11.6203
度死	-11.6204
太玄都	-11.6207
赦除	-11.621
謹狀年月日具位	-11.6212
正一眞人	-11.6212
口誦	-11.6215
禁壇	-11.6219
催生符	-11.622
交錯	-11.6224
托生	-11.6228
一神	-11.623
亦如之	-11.6231
等謹重誠上啓	-11.6231
者分形諸	-11.6231
天譴	-11.6233
鐵符	-11.6236
瘡上	-11.6241
正南	-11.6242
反生	-11.6243
寶章	-11.6244
威烈	-11.6244
用黄紙朱書	-11.6247
命根	-11.6247
壬日	-11.6249
祈告	-11.6249
壇界	-11.6254
諷誦	-11.626
風俗	-11.626
長久	-11.6267
白帝君	-11.6269
長生大帝	-11.6272
職司	-11.6275
所制	-11.6277
苦參	-11.6279
據入意	-11.6279
餘事	-11.6283
北極紫微	-11.6283
永失	-11.6284
靖治	-11.6285
别立	-11.6286
巽風	-11.6294
方療	-11.6294
曲赦	-11.6294
焚召	-11.6296
蒼生	-11.6299
雪山	-11.63
寸斬	-11.6304
備守	-11.6305
執簡	-11.6306
八間	-11.6314
師尊大聖衆至眞之德得道之後	-11.632
以劔訣	-11.6324
愆非	-11.6333
契令	-11.6338
孰爲	-11.6338
斯言	-11.6339
雲集	-11.634
遇明師	-11.634
勿用	-11.6343
唫	-11.6346
御風註曰	-11.6347
塜	-11.6352
技	-11.6352
汝當	-11.6354
欣欣	-11.6354
橐	-11.6355
涸	-11.6355
綿裹	-11.6356
南北二斗	-11.6356
閔	-11.6356
鷄犬	-11.6356
聘	-11.6356
埜	-11.6357
陸簡寂	-11.6357
九眞妙戒	-11.6358
隋	-11.6358
苓	-11.6358
癬	-11.6359
僧尼	-11.6359
普掃不祥	-11.6359
䝉	-11.6359
張道陵	-11.6359
陂	-11.636
吾今召汝	-11.636
麻姑	-11.636
蚩尤	-11.636
曵	-11.636
據家國利亨名刋玉簡字録帝房乗	-11.636
陌	-11.6361
亦无	-11.6361
依應奉行	-11.6361
脣	-11.6361
擕	-11.6361
宴十方五雲浮蓋招神攝風	-11.6362
冗	-11.6362
始青天中	-11.6362
𩔗	-11.6362
姧	-11.6362
一如元降律令	-11.6362
無鞅數衆	-11.6363
開皇	-11.6363
攣	-11.6363
贅	-11.6364
在亥	-11.6364
何神不伏	-11.6365
旙	-11.6365
滌慮	-11.6365
咒詛	-11.6365
夣	-11.6366
禾苗	-11.6366
孜孜	-11.6366
干冒師嚴	-11.6366
揣	-11.6366
請頒恩命	-11.6367
長六寸	-11.6367
緝	-11.6367
外合行元降	-11.6367
胸	-11.6368
空玄之中	-11.6368
檻	-11.6368
經爲司舉	-11.6368
立俟昭報	-11.6368
梳	-11.6368
矅	-11.6369
鴻濛	-11.6369
金璫	-11.6369
俯垂省覽	-11.6369
祈求雨澤	-11.637
綽	-11.637
挼	-11.637
渇	-11.637
管轄	-11.6371
玉眸	-11.6371
彌天	-11.6371
團圓	-11.6371
萬惡	-11.6372
芻	-11.6372
胃管	-11.6372
濟物利人	-11.6372
老莊	-11.6372
儵	-11.6373
霓旌	-11.6373
峴泉集卷之	-11.6374
優游	-11.6374
鐘磬	-11.6374
沈淪	-11.6375
萎	-11.6375
尿	-11.6377
羅網	-11.6377
髙上虚皇	-11.6378
太嵗	-11.6378
田疇	-11.6379
絶粒	-11.6379
萬神朝禮	-11.638
白玉蟾	-11.6381
了無	-11.6381
騫林	-11.6381
不愛	-11.6381
三日三夜	-11.6381
謡歌	-11.6382
長二寸	-11.6382
元始祖炁	-11.6383
御製	-11.6384
三界眞司	-11.6385
不究	-11.6385
靈液	-11.6385
抽添	-11.6386
睫	-11.6386
休咎	-11.6389
延齡	-11.6391
餘皆	-11.6392
慶幸	-11.6392
吹布	-11.6393
綱紀	-11.6396
清浄	-11.6396
罪簿	-11.6397
立春之日	-11.6398
諸邪神	-11.6398
淨室	-11.64
芝英	-11.6402
厄符右符謹請	-11.6402
激電	-11.6402
辟兵	-11.6403
太乙元君	-11.6403
重輕	-11.6404
劈開	-11.6405
求醫	-11.6405
久矣	-11.6405
火沼	-11.6406
祭錬	-11.6406
萬禍	-11.6407
關引	-11.6408
在人身	-11.6409
天中之天	-11.6409
深淺	-11.641
香爐内	-11.6411
會稽	-11.6411
祠廟	-11.6411
列班	-11.6412
寡欲	-11.6414
不可輕用	-11.6415
成象	-11.6417
能致	-11.6418
陰翳	-11.6419
黃庭	-11.642
證果	-11.642
瑶光	-11.6421
釋氏	-11.6422
冠衣九色	-11.6423
留連	-11.6423
火鈴童子	-11.6424
嚥止	-11.6427
有阻	-11.6427
白鹿	-11.6429
回旋	-11.6429
點燈	-11.643
煙霞	-11.6431
負違	-11.6431
品九億萬諸靈官飛龍騎吏	-11.6435
許真君	-11.6437
除不祥	-11.6438
紫盖	-11.6439
己卯	-11.644
累劫	-11.6442
亨通	-11.6443
建大齋	-11.6445
異端	-11.6445
百穀	-11.6445
卷十一	-11.6446
復何	-11.6446
深慮	-11.6448
慈心	-11.6448
當司據	-11.6448
三帀	-11.6451
視聽	-11.6452
始皇	-11.6453
青巾	-11.6453
中台	-11.6454
掌管	-11.6454
面天門	-11.6454
只得	-11.6457
九族	-11.6457
姓氏	-11.6459
生神章	-11.6462
細切	-11.6462
鑒觀	-11.6463
行尸	-11.6464
感徹	-11.6465
男官	-11.6472
積累	-11.6473
右脚	-11.6473
本帥	-11.6473
先鋒	-11.6475
並須	-11.6475
始知	-11.6477
典録	-11.6479
寅午	-11.6479
夀命	-11.648
飛鳥	-11.6482
移徙	-11.6483
㣲妙	-11.6483
承領	-11.6487
金闕玉皇上帝	-11.6488
於今月	-11.6489
故謂之	-11.6491
嚥氣	-11.6492
福祐	-11.6493
炁衝	-11.6493
上白天尊	-11.6494
參斗	-11.6494
咸聽	-11.6497
正薦	-11.6506
相繼	-11.6506
大宥	-11.6509
克得	-11.6514
衡山	-11.6516
毒蟲	-11.6519
難尋	-11.652
濟拔	-11.652
遍體	-11.6522
皇圖	-11.6523
箇中	-11.6527
萬種	-11.6528
朗清	-11.6531
丙日	-11.6533
奉北帝敕	-11.6534
奏據	-11.6536
吾身中	-11.6537
大慈天尊	-11.6543
左手剔	-11.6548
之氣更受錬元	-11.656
三合成	-11.656
秋月	-11.6564
南極長生	-11.6565
吸炁吹	-11.657
於九天之上	-11.6572
吹去	-11.6575
産死	-11.6575
二十一日	-11.6577
盡力	-11.6581
應係	-11.6581
守正	-11.6581
鎮我	-11.6582
四十八	-11.6583
武當	-11.6587
仰面	-11.6588
得財	-11.6591
四十七	-11.6591
從天門	-11.6594
超然	-11.6597
羽化	-11.6598
昭應	-11.6603
坐致	-11.6603
君之道當以	-11.6604
速縛	-11.6608
一百三十	-11.6608
其職	-11.6609
禮十方	-11.6611
三五功曹左右官使者	-11.6612
甚重	-11.6617
遇貴	-11.6619
宗風	-11.6626
吸炁一口	-11.6627
皇后	-11.6629
喜事	-11.6631
採服	-11.6634
六癸	-11.6635
緫召	-11.664
相刑	-11.6641
散亂	-11.6647
三丈	-11.6648
治職	-11.6648
物我	-11.6651
古書	-11.6653
不飢	-11.6655
風澤	-11.6659
春風	-11.6661
逐方	-11.6661
令病人	-11.6663
七晨	-11.6666
井鬼柳星張翼軫	-11.6668
撼山	-11.667
入我身	-11.6675
召萬靈	-11.6683
却死	-11.6684
細微	-11.6684
遍通	-11.6685
川源	-11.6687
蝗蟲	-11.6693
癸日	-11.6693
至壇前	-11.6694
夜半時	-11.6694
勞苦	-11.6695
騰雲	-11.6698
詞誠	-11.6702
取東南炁	-11.6702
設醮儀	-11.6704
水界	-11.6709
腎宫	-11.6712
備急	-11.6716
指歸	-11.672
汝形	-11.6723
由來	-11.673
卷有圖	-11.6733
但知	-11.6735
沉魂	-11.6736
下逮	-11.6742
度衆生	-11.6748
聚散	-11.6751
並乞	-11.6756
邪食邪吏	-11.6763
靈龜	-11.6766
日暮	-11.6766
上相青童	-11.677
嘟	-11.6773
瞋	-11.6774
群靈	-11.6775
土溽	-11.6776
臓	-11.6777
萍	-11.6783
呷	-11.6784
宜守舊	-11.6784
黄錦	-11.6784
行之者	-11.6785
又方搗	-11.6785
調氣	-11.6786
天火地火	-11.6786
魁至魒	-11.6786
鏗	-11.6786
急急如北陰玄天酆都鬱絶大帝律令	-11.6786
生貴子	-11.6787
騾	-11.6787
初學	-11.6787
廚	-11.6787
雷火車	-11.6788
𠷈	-11.6788
豕	-11.6788
削去	-11.6788
恭望天慈允	-11.6789
無施不可	-11.6789
正月七日	-11.6789
白日登晨	-11.679
求官陞職	-11.679
瞿	-11.679
三篇同卷	-11.6791
鳯凰	-11.6791
東嶽泰山	-11.6791
𤓰	-11.6791
膿血	-11.6791
仔細	-11.6792
燒香然燈	-11.6792
軽	-11.6792
鯉魚	-11.6792
煒	-11.6792
王屋山	-11.6792
劎	-11.6792
九鳳破穢	-11.6792
殂	-11.6792
憇	-11.6792
纏繞	-11.6793
嗗	-11.6793
性本	-11.6793
輅	-11.6794
捩	-11.6794
閬風	-11.6794
藪	-11.6794
輔正除邪	-11.6795
醇	-11.6795
祈晴禱雨	-11.6796
憩	-11.6796
泉曲之府	-11.6796
正一道士陳葆光撰集	-11.6796
塑	-11.6796
死魂符解	-11.6796
社令正神	-11.6796
臧	-11.6797
殃及九祖	-11.6797
蠢	-11.6797
飼	-11.6797
千和萬合自然成眞	-11.6797
法十種	-11.6797
幣	-11.6797
𨇠	-11.6798
楓	-11.6798
𤑔	-11.6798
弓箭	-11.6798
三境伏魔心章	-11.6799
今故燒香自皈依經尊大聖衆至	-11.6799
㨿	-11.6799
奎婁	-11.6799
幄	-11.6799
端的	-11.6799
皺	-11.6799
霶	-11.68
玉清上元飛行混沌紫虚華景	-11.68
蔬	-11.68
漓	-11.68
膩	-11.6801
上消天灾	-11.6801
火光萬丈	-11.6801
拓	-11.6801
捍	-11.6801
國安民	-11.6801
洪濛	-11.6801
偕	-11.6801
符章經道	-11.6801
當司得此	-11.6801
粉碎	-11.6802
金眞玉光	-11.6802
梗	-11.6802
筒	-11.6802
鄉貫	-11.6802
便驚人	-11.6802
壟	-11.6802
糊	-11.6803
杳杳	-11.6803
擾擾	-11.6803
青黄白三炁	-11.6803
貪狼星	-11.6803
敕制地祇	-11.6803
三官四聖	-11.6803
瞬息	-11.6804
羨	-11.6804
須至録狀申聞者右謹具申	-11.6805
籬	-11.6805
蒼天上帝	-11.6805
春夏秋冬	-11.6805
矛	-11.6806
嶮	-11.6806
迄	-11.6806
立夏之日	-11.6806
白日上昇	-11.6806
九靈飛步	-11.6806
差撥	-11.6807
收拾	-11.6807
峩峩	-11.6807
西華玉女	-11.6808
元始一炁萬神雷司本司今據	-11.6808
混元一炁	-11.6809
混元上德皇帝	-11.6809
稅	-11.6809
渾淪	-11.6809
金睛	-11.6809
綏	-11.681
道賢者神名	-11.681
形像	-11.681
譜録	-11.6811
凡行持	-11.6812
冶錬	-11.6812
自刑	-11.6812
麻黄	-11.6812
暗曜	-11.6812
百餘年	-11.6813
絕	-11.6813
暫停	-11.6813
畢咽炁	-11.6814
鐵鞭	-11.6814
役使萬神	-11.6814
寂寥	-11.6814
臭穢	-11.6814
挂	-11.6815
缸	-11.6815
劫賊	-11.6816
召出臣身中三五功曹左右官使者	-11.6816
疾速降臨	-11.6817
清涼	-11.6818
玄元始氣	-11.6819
收歛	-11.682
持念	-11.682
冒犯	-11.682
當處土地	-11.682
所謀	-11.682
羣靈	-11.6822
九天真王	-11.6823
輔翼	-11.6824
强梁	-11.6824
合而爲一	-11.6825
展轉	-11.6827
智惠	-11.6827
西蜀	-11.6827
分明報應	-11.6828
一切邪魔	-11.6828
摇動	-11.6829
禪善	-11.6829
隂乾	-11.6831
切忌	-11.6831
坤卦	-11.6831
无礙	-11.6832
虛無自然	-11.6833
幽途	-11.6835
慶霄	-11.6835
祝遣	-11.6836
暇日	-11.6836
降炁入符解	-11.6837
三百六十五	-11.6838
難逃	-11.6839
兩手雷局	-11.684
者何也	-11.684
太清宫	-11.6841
救拔	-11.6841
葛將軍	-11.6842
此之謂也	-11.6843
徑詣	-11.6845
三十二天帝君	-11.6846
離坎	-11.6847
州社令雷神	-11.6849
卯未	-11.6852
聖力	-11.6854
校録	-11.6856
驚恐	-11.6859
𨼆書	-11.6859
方許	-11.6862
助法	-11.6862
赤帝君	-11.6863
承兹	-11.6863
隱逸	-11.6863
水盂中	-11.6864
枯朽	-11.6865
二十三日	-11.6865
注禄	-11.6866
三官五帝	-11.6866
車騎	-11.6867
浩然	-11.6867
吞符	-11.6868
接手	-11.6869
化機	-11.687
三十二天帝	-11.6871
災衰	-11.6873
梵音	-11.6873
空寂	-11.6874
具述	-11.6879
驅遣	-11.6881
深淵	-11.6882
名之曰	-11.6882
延降	-11.6885
天地萬物	-11.6885
俾遂	-11.6887
雜想	-11.6887
寳蓋	-11.6889
各一分	-11.6892
丹輿	-11.6893
凡庸	-11.6894
刀支	-11.6894
巳午未	-11.6895
五雷大神	-11.6897
統轄	-11.6898
飛軿	-11.6899
與天同	-11.69
燼	-11.69
只要	-11.6901
半夜	-11.6902
周廻	-11.6903
地脉	-11.6903
申子辰	-11.6904
天倉	-11.6905
返魂	-11.6906
流恩	-11.6909
第十八	-11.691
形貌	-11.6911
容易	-11.6912
光射	-11.6914
南曹	-11.6915
仰干	-11.6915
伏連	-11.6918
舊儀	-11.692
亥文	-11.6923
鎭貼	-11.6924
引䰟	-11.6924
鼎中	-11.6924
苦志	-11.6929
雷陣	-11.6933
閃爍	-11.6933
道友	-11.6934
金陵	-11.6938
苦樂	-11.6943
洞源	-11.6945
廟食	-11.6947
長九尺	-11.6947
違盟	-11.6951
常祝曰	-11.6951
仰謝	-11.6952
咽液九過	-11.6953
鐵筆	-11.6954
鍊炁	-11.6955
鎮守	-11.6955
太冥	-11.6958
依然	-11.6958
空浮	-11.6959
再念呪曰	-11.6962
功業	-11.6962
黑黑	-11.6962
執筆	-11.6964
和釋	-11.6965
收魔	-11.6967
久視	-11.6974
佩奉	-11.6974
以今某	-11.6975
祛除	-11.6975
無妨	-11.6976
霹靂發	-11.6982
者滅形	-11.6984
邪怪	-11.6988
照依	-11.6994
管押	-11.6996
四十年	-11.6998
禀命	-11.6998
上台	-11.6999
一丈二尺	-11.7
入斗口	-11.7003
千六百	-11.7006
俄而	-11.7012
遊名山	-11.7025
積惡	-11.7026
剔午	-11.7027
北極大帝敕	-11.7027
幽都	-11.7028
數里	-11.7028
幽谷	-11.7028
丁字	-11.7029
離羅	-11.7029
謹守	-11.7031
圖像	-11.7042
純一	-11.7045
魂攝魄	-11.7048
絳衣	-11.7049
法筵	-11.7051
騎龍	-11.7053
具列	-11.7053
九天雷祖大帝	-11.7058
礙理	-11.7058
良可	-11.706
丹室	-11.7065
靜思	-11.7067
幾何	-11.7069
火燄	-11.7072
億兆	-11.7076
十二辰	-11.7077
以舌拄上腭	-11.708
所傷	-11.7083
四序	-11.7083
全身	-11.7085
之意也	-11.7087
奉上帝敕	-11.7087
掐卯文	-11.7089
救病	-11.7102
炁化生	-11.7103
白天尊言	-11.7104
赤明開	-11.7106
法謹請	-11.7111
生身受度	-11.7115
垂恩	-11.7116
天關星	-11.712
忽遇	-11.7123
震驚	-11.7127
杜廣成	-11.7133
少年	-11.7134
長生度世	-11.7136
莫敢	-11.7137
燒滅	-11.7138
州社令	-11.7141
三十八	-11.7142
天衢	-11.7151
一百一十	-11.7152
乞恩	-11.7159
玄父	-11.7164
墨子	-11.7165
手提	-11.7171
𡻕星	-11.7173
𡨚仇	-11.7174
變形爲	-11.7175
不愈	-11.7186
金籙白簡	-11.7188
巳亥	-11.7188
顆	-11.7189
古來	-11.7192
梵寳天	-11.7205
脱貨	-11.7208
太上三五正一盟威	-11.721
宣演	-11.7212
向天門	-11.7213
法衆等	-11.7216
於壇上	-11.722
罡步	-11.7222
拘執	-11.7223
𡀎	-11.7226
禀受	-11.7227
土地眞官	-11.7229
燧	-11.7231
匱	-11.7232
無極世界	-11.7234
衝開	-11.7235
聞大道	-11.7237
蛾	-11.7237
仙靈官右	-11.7238
昱	-11.7239
獬	-11.7239
察命童子	-11.724
禾刀	-11.724
玉清聖境	-11.7241
陽九百六	-11.7241
槃	-11.7241
髯	-11.7242
戎狄	-11.7242
浚	-11.7242
天羅地網	-11.7243
睦	-11.7243
戶	-11.7243
論别本	-11.7244
蠡	-11.7244
鄧帥	-11.7245
斟酌	-11.7245
身中五體眞官	-11.7245
敢有干試	-11.7245
硬	-11.7245
急急如高上神霄	-11.7245
桃君	-11.7246
磊	-11.7246
太平興國	-11.7246
各禮師存念如法	-11.7247
以今臨午行道請法衆等運兹	-11.7247
曁	-11.7247
外臺祕要	-11.7247
棊	-11.7248
景曜	-11.7248
鐵帽	-11.7248
降祥	-11.7248
勁	-11.7249
通章印	-11.7249
那吒	-11.7249
悲泣	-11.7249
萬彚	-11.7249
抺額	-11.7249
妙行真人	-11.7249
遑	-11.725
簽	-11.725
衆妙之門	-11.725
經籍度三師	-11.725
㔶盖	-11.7251
南曹執法	-11.7251
南嶽衡山	-11.7251
藜蘆	-11.7251
以今清旦行道請法衆等運兹	-11.7251
煞貢	-11.7251
道學當念遊	-11.7251
刁	-11.7251
天神地祇	-11.7252
𥼶	-11.7252
鐄	-11.7252
靈官馬元帥	-11.7252
欻火律令大神	-11.7252
蘋蘩	-11.7252
慄	-11.7253
暝目	-11.7253
𩳐魒	-11.7253
以鼻吸	-11.7253
刪	-11.7254
鑰	-11.7254
膳	-11.7254
郝	-11.7254
殷勤	-11.7254
亡過某等及下元苦爽	-11.7254
璨	-11.7255
眸	-11.7255
出有入無	-11.7255
朔單	-11.7255
旄	-11.7255
無極神郷	-11.7255
專志	-11.7255
治病驅邪	-11.7256
腦裂	-11.7256
火急降臨	-11.7256
上生天堂	-11.7256
恐怖	-11.7256
立冬之日	-11.7257
囬	-11.7257
麈	-11.7257
嬪	-11.7257
謹内封	-11.7257
土地方域神眞臣今	-11.7258
牡蠣	-11.7258
虹蜺	-11.7258
槿	-11.7258
至于今日	-11.7258
疽	-11.7258
馴	-11.7258
登道岸	-11.7258
坡	-11.7259
誠惶誠恐稽首頓首百拜上言	-11.7259
寰區	-11.7259
鯉	-11.7259
驪	-11.7259
咀嚼	-11.7259
毅	-11.726
五藏六府	-11.726
倪	-11.726
旂	-11.726
躡紀	-11.726
钁天大斧	-11.726
柔弱	-11.726
恬淡	-11.7261
者徒九年	-11.7261
北帝伏魔	-11.7261
㰱血	-11.7261
眞道炁靈寳瑞光下降流入臣	-11.7261
統率	-11.7261
封皮式	-11.7261
寥寥	-11.7262
萬神之宗	-11.7262
敝	-11.7262
乙日	-11.7263
催促	-11.7263
領兵三十萬人北極	-11.7263
千金方治	-11.7263
囊貯	-11.7263
繡衣使者玉童玉女各九億萬人	-11.7264
蘧	-11.7264
諫	-11.7265
萬里之外	-11.7265
根刷	-11.7265
蹕	-11.7266
供給	-11.7266
人所不能	-11.7267
溪谷	-11.7268
臣妾等	-11.7268
再拜上奏	-11.7269
癰腫	-11.7269
鐵杖	-11.7269
翼翼	-11.727
天醫院	-11.7271
祿	-11.7272
恭望天慈	-11.7272
天一北祚	-11.7272
森然	-11.7274
東方木	-11.7275
遭逢	-11.7275
紅杏	-11.7275
屈伸	-11.7276
蕭條	-11.7276
紂	-11.7277
權衡	-11.7278
混融	-11.7278
鸞鳳	-11.7278
武曲星君	-11.728
冬夏	-11.7281
初捻上香	-11.7281
醮官某等	-11.7283
霑足	-11.7283
直射	-11.7283
懇切	-11.7283
不審天尊	-11.7284
雷部萬神	-11.7284
領敎	-11.7288
奔馳	-11.7288
交射	-11.7288
伐邪	-11.7289
勤勤	-11.729
性識	-11.729
鼻口	-11.7291
金紐	-11.7291
煥耀	-11.7292
是諸仙人	-11.7292
洪慈	-11.7293
瞻仰	-11.7296
奥㫖	-11.7296
莊周	-11.7298
滅迹	-11.7298
遊觀	-11.7299
拘制	-11.73
注訟	-11.73
首尾	-11.73
看詳	-11.7301
守静	-11.7304
虚皇天尊	-11.7304
雷嗔	-11.7304
飽食	-11.7305
靈跡	-11.7306
間阻	-11.7307
五雷院	-11.731
激切屏營之至	-11.731
玉磬	-11.731
太上隱書	-11.7311
精血	-11.7312
安排	-11.7312
執巾	-11.7315
良善	-11.7315
受佩	-11.7317
罔知	-11.7318
靈砂	-11.7319
都天雷公	-11.7321
惡轟	-11.7322
備衛	-11.7323
華冠	-11.7324
年月日時劄	-11.7325
靈官將吏	-11.7328
老氏	-11.7329
南方三炁	-11.7329
察其	-11.733
六十六	-11.7335
納音	-11.7339
哉然	-11.734
江西	-11.7344
脫離	-11.7346
愆期	-11.7347
香燭	-11.7348
石室中	-11.7348
如何是	-11.7352
殺傷	-11.7353
迸出	-11.7354
引接	-11.7355
祖父	-11.7356
韓君	-11.7357
堂堂	-11.736
顯化	-11.736
百草	-11.7362
灌斗	-11.7364
分判	-11.7364
道源	-11.7365
積聚	-11.7366
本草	-11.7367
張天師	-11.7367
無拘	-11.737
有道之士	-11.7377
血尸	-11.738
使清微洞	-11.738
清潔	-11.7384
誰知	-11.7385
喉中	-11.7386
枉死	-11.7387
於人世	-11.7387
鶴駕	-11.7387
各三千	-11.7388
叉手	-11.7389
龍虎山	-11.7389
欽奉	-11.7391
嚤呢	-11.7391
謹詣	-11.7392
右眼	-11.7393
不暇	-11.7395
眞僞	-11.7396
官禄	-11.7398
接物	-11.7399
違負	-11.74
所造	-11.74
尅得	-11.7403
蔽日	-11.7409
亥卯未	-11.741
保長生	-11.7414
光澤	-11.7414
賢聖	-11.7419
方諸宫	-11.7421
濁炁	-11.7427
皇民	-11.743
杜君	-11.743
照㑹	-11.7433
精嚴	-11.7436
誦持	-11.7437
喧轟	-11.7443
散煙	-11.7444
念慮	-11.7449
清泉	-11.7449
明旦	-11.7452
品第一	-11.7456
本州	-11.7456
仗此	-11.7461
盛德	-11.7461
香爐中	-11.7465
妖恠	-11.7466
元始洞玄	-11.7466
消盡	-11.7467
邪穢	-11.747
萬餘	-11.7471
衆苦	-11.7471
乘虚	-11.7478
籤中	-11.7479
典章	-11.7479
發符呪	-11.7485
虛无	-11.7485
仙境	-11.7486
假令	-11.7491
火鈴大將	-11.7493
雷電霹靂	-11.7493
廣布	-11.7494
執著	-11.7499
督發	-11.7508
盟威	-11.7515
小利	-11.7516
在空中	-11.7518
執劒	-11.7521
良又方	-11.7522
齊景	-11.7523
尊崇	-11.7525
返形	-11.7533
來徃	-11.7534
瓶中	-11.754
黑紙	-11.7542
禮敬	-11.7543
念淨天地呪	-11.7545
服方寸七日三	-11.7555
猫犬	-11.7557
於是天尊	-11.7557
深藏	-11.7559
三天金闕	-11.756
犯土	-11.7562
吐精	-11.7566
騰身	-11.7574
問何	-11.7579
背後	-11.7585
天地之大	-11.7588
色慾	-11.7588
奎婁胃昴畢觜參	-11.759
莫知所	-11.7593
斗魁	-11.7595
四枚	-11.7595
犯觸	-11.7597
色雲霞	-11.76
録狀上奏	-11.7603
序云	-11.7603
稱慶	-11.7616
陰陽斗	-11.7617
獲福	-11.7617
垂科	-11.7621
車駕	-11.7621
服一升	-11.7626
浮沉	-11.7629
昏蒙	-11.7634
雷公霹靂	-11.7641
白蜜	-11.7644
念金光呪	-11.7648
齋潔	-11.7649
飛羽	-11.765
相扶	-11.7659
風雲雷雨	-11.7663
令牌	-11.7669
王文卿	-11.767
隂曹	-11.7682
腎氣	-11.7694
櫃	-11.7706
筯	-11.7707
昊天上帝	-11.7707
哼	-11.7709
亹	-11.771
章次讀	-11.7711
亨利貞	-11.7711
洿	-11.7711
威劒神王	-11.7712
牝	-11.7712
鞅	-11.7712
爇	-11.7715
南華眞經	-11.7715
交脚幞頭	-11.7715
飛鷹走犬	-11.7715
炁食炁吏	-11.7716
墳墓	-11.7717
三昧眞火	-11.7717
猒	-11.7717
冢墓	-11.7717
身中所佩太上	-11.7718
旴	-11.7718
虜	-11.7719
鹹	-11.7719
晨華	-11.7719
符此符	-11.7719
霰	-11.772
雲笈七籖	-11.772
虚無自然元始天尊	-11.772
素梟三神	-11.7721
玉淸訣	-11.7721
璈	-11.7721
蜀郡	-11.7721
捍厄	-11.7721
綉衣	-11.7722
三洞經籙	-11.7722
承天效法后土皇地祇	-11.7722
流鈴八衝	-11.7722
郷神仙諸靈官	-11.7722
蘋	-11.7722
干冒威嚴	-11.7722
瀨	-11.7722
軫宿	-11.7722
窻	-11.7722
址	-11.7722
金龍驛吏	-11.7723
沒	-11.7723
霙	-11.7723
皎潔	-11.7723
琅玕	-11.7723
峭	-11.7723
隨順	-11.7723
謫役	-11.7723
魂神澄正	-11.7724
行法之士	-11.7724
厖	-11.7725
誚	-11.7725
天一生水	-11.7725
掬	-11.7725
啹	-11.7725
思之還反真形夏三月	-11.7725
顏	-11.7725
簇	-11.7725
尓	-11.7725
速達徑御太上無極大道昊天玉皇上帝	-11.7725
彚	-11.7725
泮	-11.7726
今故燒香自皈依道尊大聖衆至	-11.7726
延年益壽	-11.7726
葺	-11.7726
橐籥	-11.7726
灘	-11.7726
列言上清	-11.7726
犢	-11.7726
踊	-11.7727
培	-11.7727
遘	-11.7727
桔梗	-11.7727
一炁都統大將軍	-11.7727
一五七數及亥卯未年月日時方位正東	-11.7727
魁𩲃𩵄䰢魓	-11.7727
涇	-11.7727
譔	-11.7728
窈窕	-11.7728
虛耗	-11.7728
二千石	-11.7728
佗	-11.7728
禱雨祈晴	-11.7728
宿生今世	-11.7728
朦朧	-11.7728
𠰂	-11.7728
鬽	-11.7728
十一大曜	-11.7728
悽	-11.7729
㓨	-11.7729
都講舉各禮師存念如法髙功宣衞靈呪	-11.7729
沿路土地	-11.7729
恭望洪慈	-11.7729
磐	-11.7729
𡜍	-11.7729
訾	-11.7729
凟	-11.7729
凄	-11.773
儗	-11.773
里域眞官	-11.773
以爲効信	-11.773
苞	-11.7731
乹	-11.7731
孤魂滯魄	-11.7731
艷	-11.7731
痘瘡	-11.7732
湫	-11.7732
浮空而來	-11.7732
醖	-11.7732
都水使者	-11.7733
彂	-11.7733
降眞召靈	-11.7733
𩵄䰢	-11.7734
愛慾	-11.7734
俯仰之格	-11.7734
哀憫	-11.7734
十轉回靈	-11.7734
綂	-11.7734
萬年仙矣	-11.7734
黯	-11.7735
除已飛奏	-11.7735
角亢氐房心尾箕	-11.7735
阿那	-11.7735
金闕玉房	-11.7735
暘谷神君張	-11.7736
一如吿命	-11.7736
七十四方	-11.7737
赴壇受度	-11.7737
卽	-11.7738
秃	-11.7738
筠	-11.7738
衡嶽	-11.7738
禎	-11.7739
甯君	-11.7739
速降威靈	-11.7739
爵禄	-11.7739
赭	-11.7739
普施	-11.7739
中元地官	-11.7739
粧	-11.7739
五緯	-11.774
巨獸	-11.774
混淆	-11.7741
穎	-11.7741
七世父母	-11.7742
洒淨	-11.7742
鏁	-11.7743
安慰	-11.7743
俛	-11.7743
之象也	-11.7743
驚懼	-11.7744
泄漏	-11.7744
恊賛	-11.7745
從官一百二十人與吾	-11.7745
建節	-11.7746
丹陽師父	-11.7747
紹興	-11.7747
切莫	-11.7747
官各二人出	-11.7749
幽壤	-11.7749
紹聖	-11.7749
清凉	-11.7751
四天之下	-11.7752
銀河	-11.7752
元始一炁萬神雷司今據	-11.7752
且夫	-11.7753
事件	-11.7753
巨細	-11.7753
偃息	-11.7754
口授	-11.7754
若有衆生	-11.7754
蕆事	-11.7755
束首	-11.7756
增益	-11.7756
道廕	-11.7757
不肖	-11.7757
洗蕩	-11.7761
假借	-11.7761
棗湯	-11.7763
象日月星辰	-11.7763
洗手	-11.7763
姚云	-11.7764
十方衆聖	-11.7764
仰瞻	-11.7766
福利	-11.7767
如此分明	-11.7768
亘天	-11.7768
攺易	-11.7771
發鑪	-11.7771
掩耳	-11.7772
惑亂	-11.7773
禳謝	-11.7774
煥曜	-11.7776
鳯皇	-11.7776
難醫	-11.7776
元降律令	-11.7776
流晶	-11.7779
須憑	-11.7779
入丹田	-11.778
下痢	-11.7784
托化	-11.7784
迷津	-11.7785
防風	-11.7785
擒龍	-11.7786
師匠	-11.7788
管領	-11.7791
詞㫖	-11.7793
日月星斗	-11.7793
各三兩	-11.7794
剋害	-11.7795
守衞	-11.7797
晴霽	-11.7798
救苦眞人	-11.7798
太𤣥	-11.7799
嘯命	-11.7802
庚日	-11.7802
示非人	-11.7802
掌籍	-11.7803
未審	-11.7803
晨玉冠	-11.7803
舉動	-11.7804
休尋	-11.7805
代謝	-11.7807
十方大聖	-11.7809
七𩲸	-11.7814
夜夢	-11.7817
災祥	-11.7817
五臘	-11.7818
催雨	-11.782
雌黄書	-11.7822
敷宣	-11.7825
公侯	-11.7833
總御	-11.7839
有道術	-11.784
敬聽	-11.784
紫鳳	-11.7845
日清旦	-11.7845
羽毛	-11.7847
可不慎	-11.7847
莫大於	-11.7848
蕩盡	-11.785
泰定	-11.7852
斬斷	-11.7853
帝席	-11.7858
要須	-11.786
納官	-11.7865
惟新	-11.7866
愛河	-11.7867
招致	-11.7869
麻油	-11.787
寳座	-11.7874
萬殊	-11.788
眼目	-11.7884
坐視	-11.7886
兵三十萬	-11.7889
赤城	-11.789
觀道士	-11.7892
餘慶	-11.7895
四獸	-11.7907
以今焚香	-11.7908
電掃	-11.791
押發	-11.791
次讀	-11.7911
斗樞	-11.7911
不欺	-11.7913
舉手	-11.7914
吞魔	-11.7922
侍香金童	-11.7923
囊中	-11.7926
初一日	-11.7926
甘霖	-11.7927
成敗	-11.7928
佑聖眞君	-11.7929
一口吹	-11.7935
步虛	-11.7937
祥雲	-11.794
萬頃	-11.7941
福庭	-11.7942
天地之間	-11.7945
徒衆	-11.7945
宻呪曰	-11.7946
歩七星	-11.7947
全銜	-11.7952
治百病	-11.7953
玉户	-11.7955
畢埋	-11.7955
走電	-11.7956
錯亂	-11.7957
第二十四	-11.796
玉女侍	-11.7962
奏箋	-11.797
凝定	-11.7971
香鑪	-11.7972
潜消	-11.7974
南方火鈴	-11.7979
爲萬物之	-11.7979
鈞天	-11.7987
扶助	-11.7989
炁呵入	-11.799
咽津	-11.7992
田宅	-11.8
雷大將	-11.8004
誥文	-11.8007
兩曜	-11.8011
毫分	-11.8017
袖中	-11.8022
妄言	-11.8022
項上	-11.8028
牒城隍	-11.8029
霍山	-11.803
千萬衆	-11.8037
尅日	-11.8038
所奏特	-11.8038
萬古	-11.8046
百餘歲	-11.8054
害物	-11.8062
詩訣	-11.8076
枝葉	-11.808
何敢	-11.8087
能變化	-11.8092
唎娑訶	-11.8092
仙宰	-11.8109
簡易	-11.8114
滌蕩	-11.8115
聖壽	-11.8134
太易	-11.8136
太宗	-11.8139
禹餘	-11.8147
施惠	-11.815
玉階	-11.8161
九龍符	-11.8185
第十九	-11.8188
之訟訴其	-11.8191
念召呪	-11.8194
兵馬九億萬騎出无上	-11.8206
飛天神人	-11.8207
訪使清微	-11.8208
日布地支中	-11.8208
木板	-11.8208
所適	-11.8208
左右龍虎君	-11.821
右符吞服	-11.821
榴	-11.8211
訣法未降	-11.8211
詵	-11.8213
烈火焚	-11.8213
𢊍	-11.8214
揀	-11.8215
太極左宫	-11.8215
天一北獄	-11.8215
西王毋	-11.8215
嘧	-11.8216
喃	-11.8218
婢	-11.8218
新出老君	-11.8218
書竹膜	-11.8219
械	-11.8219
挫	-11.8219
㓙	-11.822
符二道	-11.822
庻	-11.822
刳	-11.8221
諌	-11.8221
吝	-11.8221
師友命過	-11.8222
庠	-11.8222
螻蟻	-11.8222
紫虛元君	-11.8222
又一鬼王姓	-11.8222
剡	-11.8223
山魈五通	-11.8223
机	-11.8223
糾察	-11.8223
北斗尊帝七元輔弼星君南極大帝	-11.8223
本命元辰洞天海嶽三界官屬一切真靈	-11.8223
悟真篇	-11.8223
吩	-11.8223
控轡	-11.8223
爲國爲民	-11.8223
出臣等身中三五功曹左右官使者左右	-11.8223
吴茱萸	-11.8224
袴	-11.8224
風雲雷電雨	-11.8224
净	-11.8224
旻	-11.8224
惚	-11.8224
西嶽華山	-11.8224
真武靈應真君	-11.8224
二四八數及寅午戌年月日時方位西南	-11.8225
門下拜受	-11.8225
中山神呪	-11.8225
孺	-11.8225
滂沱	-11.8225
趕	-11.8225
𧷤	-11.8225
攔	-11.8225
矜憐	-11.8226
乂	-11.8226
道門定制卷之	-11.8226
薩訶	-11.8226
五七數及亥卯未年月日時方位東北第	-11.8226
蟬蛻	-11.8226
炁三嚥止便讀玉經經畢又祝曰	-11.8226
雉	-11.8226
係薦亡䰟	-11.8226
優劣	-11.8227
五道三途	-11.8227
垠	-11.8227
踪	-11.8227
揩	-11.8227
中理五炁	-11.8227
謹爲上請	-11.8228
八紘	-11.8228
琳琅	-11.8228
栲	-11.8228
殯	-11.8228
𨺚	-11.8228
井竈	-11.8228
桐栢	-11.8228
伏須告報	-11.8229
隷	-11.8229
拔贖	-11.8229
娠	-11.8229
太一天章陽雷霹靂大法	-11.8229
嗜慾	-11.8229
故關年月日關	-11.8229
天猷副元帥	-11.823
井花水	-11.823
字號計十三卷	-11.823
恭望師慈	-11.823
上清紫微碧玉宫太一大天帝	-11.823
言外丹	-11.823
急急如元始上帝命	-11.823
襪	-11.823
賾	-11.823
梅師方治	-11.8231
逡巡	-11.8231
九天捷疾焚炎楊符使	-11.8231
九壘土皇	-11.8231
玉清上清太清	-11.8232
筞	-11.8232
伏候昭報	-11.8232
無拘天門	-11.8232
太上大道玉清經卷之	-11.8232
歸根復命	-11.8232
東嶽天齊仁聖帝	-11.8232
雲行雨施	-11.8232
沖和妙道心章	-11.8232
斃	-11.8232
清微宗主眞元妙化上帝	-11.8232
歸身歸神歸命	-11.8232
祖祖師金闕上保清眞紫虚元君魏	-11.8233
謹遵元降進呈	-11.8233
桉	-11.8233
糠	-11.8233
岱宗	-11.8233
姻親	-11.8233
附童	-11.8233
邸	-11.8234
法天象地	-11.8234
橘皮	-11.8234
邢	-11.8234
水府扶桑大帝	-11.8234
茆	-11.8234
長生乆視	-11.8234
蒼牙	-11.8234
柰	-11.8234
雷霆主令大神鄧	-11.8235
各持念	-11.8235
輔佐行持	-11.8235
行雨龍王	-11.8235
漑	-11.8236
蔣氏立成儀	-11.8236
頽雲髻	-11.8236
嬴	-11.8236
芙蓉冠	-11.8236
釵	-11.8236
玉司正法	-11.8236
陀羅	-11.8237
楮	-11.8237
奕奕	-11.8237
至心歸命	-11.8237
瘞	-11.8237
晻	-11.8237
竹筒	-11.8238
榻	-11.8238
圜	-11.8239
斂	-11.8239
劫掠	-11.8239
憂惶	-11.8239
金闕聖君	-11.8239
𡨚債	-11.8239
䑛	-11.824
卜木	-11.824
波濤	-11.824
懇禱之至	-11.824
依四極明科	-11.824
燒香散花	-11.824
上件亡䰟	-11.824
陞壇行道請法衆等運兹	-11.824
雷霆猛吏	-11.824
鍼	-11.8241
兇殃	-11.8241
孔竅	-11.8242
周易參同契	-11.8242
修眞之士	-11.8243
欺罔	-11.8243
沸騰	-11.8243
保命護身	-11.8244
烈焰	-11.8244
道法會元卷之一百九十	-11.8244
矜允	-11.8244
謬誤	-11.8245
殊途	-11.8245
詳審	-11.8245
天慶觀	-11.8246
幽扃	-11.8246
外臺秘要	-11.8246
提點	-11.8246
主法祖師	-11.8247
浙東	-11.8247
兵士十萬人	-11.8247
病可醫	-11.8247
仲舒	-11.8247
皈投	-11.8248
左右捧香驛龍騎吏侍香金童傳言散花	-11.8249
一切孤䰟	-11.825
甘泉	-11.825
豐盈	-11.8251
罪戾	-11.8251
頓悟	-11.8251
牢固	-11.8252
披髪	-11.8253
秀才	-11.8253
金液還丹	-11.8253
細細	-11.8254
虚耗	-11.8254
翥	-11.8254
食之令人	-11.8255
情悃	-11.8255
遵禀	-11.8256
歘火大神	-11.8256
徐州	-11.8257
向巽方	-11.8257
食頃	-11.8258
否泰	-11.8258
未央	-11.8258
道門科範大全集卷之五十	-11.8258
品秩	-11.826
道法會元卷之一百八十	-11.826
洞神部	-11.8261
丹霍	-11.8261
兩膝	-11.8262
道法會元卷之二百五十	-11.8262
城郭	-11.8262
鹿角	-11.8264
温温	-11.8266
北方五炁	-11.8267
王侍宸	-11.8267
道法會元卷之八十	-11.8268
宗㫖	-11.8268
宫又名	-11.8269
童顔	-11.8269
香油	-11.827
苦酒和	-11.827
百毒	-11.827
混康	-11.8271
道法會元卷之六十	-11.8274
混合爲一	-11.8275
所禱	-11.8276
用金錢甲馬	-11.8276
接待	-11.8277
魔王保舉	-11.8278
委曲	-11.8278
正一靈官	-11.8278
覆育	-11.8278
紅紙	-11.8279
損益	-11.8279
二斤	-11.8281
計會	-11.8284
呈進	-11.8285
仍冀	-11.8288
魁臺	-11.8288
十二條	-11.8288
豁然	-11.8288
三年之後	-11.8289
雷霆號令	-11.8289
煥照	-11.8289
各一枚	-11.829
潜藏	-11.8294
聽察	-11.8296
問不見	-11.8296
經一部	-11.8297
怪異	-11.8297
裁成	-11.8298
騰景	-11.8298
詞意	-11.8299
損害	-11.8301
玉輦	-11.8305
得道之人	-11.8305
道法會元卷之二百一十	-11.8305
金晶	-11.8306
未申時	-11.8306
長嘯	-11.8306
劄付	-11.8307
業縁	-11.8308
刑殺	-11.8308
宗廟	-11.831
崇寧	-11.8311
積功行	-11.8312
回禄	-11.8312
道法會元卷之七十	-11.8313
無所不通	-11.8313
赤髮	-11.8315
諸天大聖	-11.8316
光映十方	-11.8316
赴壇庭	-11.8316
本人家	-11.8317
種親	-11.8317
州縣城隍	-11.8324
紙粉書	-11.8326
赤脚	-11.8326
不揆	-11.8329
玉清天中	-11.833
半吉	-11.8331
百端	-11.8332
修此道	-11.8332
騎乗	-11.8333
上清靈寳大法卷之五十	-11.8334
消釋	-11.8334
夢想	-11.8338
跪受	-11.8339
震怒	-11.8339
五嶽五帝	-11.8341
棄官	-11.8342
福被	-11.8343
老祖天師六合無窮高明大帝律令	-11.8343
白繒	-11.8346
祥風	-11.8347
發文字	-11.8347
玄𡨋	-11.835
醮壇	-11.835
坤兊	-11.8352
轄呪	-11.8352
一刀圭	-11.8354
境域	-11.8356
服一丸	-11.8357
傳於世	-11.8359
指示	-11.8361
道法會元卷之一百七十	-11.8361
積劫	-11.8363
寳篆	-11.8369
道門科範大全集卷之七十	-11.8369
現眞形	-11.8371
三元八節	-11.8374
建醮	-11.8374
浄明	-11.8375
道法會元卷之二百四十	-11.8376
恐懼	-11.8376
萬慮	-11.8377
西城	-11.8378
天厨	-11.8379
九十九	-11.8379
古式	-11.8382
坎卦	-11.8383
良因	-11.8384
縣城隍	-11.8388
不虧	-11.839
印右手	-11.8395
成熟	-11.8396
執戟	-11.8402
九宫八卦	-11.8406
皇皇	-11.8411
方一寸	-11.8417
通天冠	-11.8418
三天玄元始三炁太上道君太上老君召	-11.8424
瓊闕	-11.8427
第二十三	-11.843
嘗聞	-11.8436
奏上天	-11.8436
道法會元卷之四十	-11.8438
三途五苦	-11.8438
用青紙	-11.8439
檄式	-11.844
州刺史	-11.8443
南方熒惑	-11.8445
海水帝	-11.845
侍香金童傳言玉女	-11.845
二十枚	-11.8454
修錬	-11.846
甚易	-11.8463
鬼通名	-11.8467
十丈	-11.8468
宗師金闕昭凝妙道保仙元君	-11.8473
精炁神	-11.8475
水一升	-11.8477
登金闕	-11.848
嘘出	-11.8482
尤妙	-11.85
傷害	-11.8501
道門科範大全集卷之四十	-11.8506
章函	-11.8507
嗚呼	-11.851
刺史	-11.8512
而後可	-11.8512
波羅	-11.852
士民	-11.8522
上登玉清	-11.8524
六十日	-11.8527
家眷	-11.853
擊伐	-11.8536
日中時	-11.8536
感激	-11.854
朱篆	-11.8543
丑未	-11.855
覺察	-11.8551
㫖告下	-11.8562
陳乞	-11.8569
煌	-11.8574
吠	-11.8577
無有不	-11.859
精恠	-11.8591
銜位	-11.8611
不可得也	-11.8611
於香上	-11.8619
彩雲	-11.8624
杖一百	-11.8627
妖異	-11.8637
北炁吹	-11.8641
官典	-11.8644
生生之	-11.8653
各二十四人	-11.8655
君五人	-11.8656
窮魂	-11.8659
望天門	-11.8662
禮義	-11.8663
舊格	-11.8665
清旦行道	-11.867
妙典	-11.8674
七百年中	-11.8687
奏牘	-11.8702
律令呪畢	-11.8706
以是當知	-11.8707
嘆曰	-11.8709
收神食神吏	-11.8711
寅戌	-11.872
氣以成	-11.8722
賁	-11.8725
搗蜜丸	-11.8725
三月三日	-11.8725
祛却不祥	-11.8726
堤	-11.8728
某州某	-11.8728
峨嵋	-11.8733
婆訶	-11.8738
冨	-11.874
恁	-11.874
子午卯酉	-11.874
白帝侍魄	-11.8741
左日右月	-11.8741
封山破洞	-11.8741
旱澇	-11.8741
狠	-11.8742
瀟	-11.8743
急急宻呪唵	-11.8743
咤	-11.8743
颯	-11.8744
蒿里	-11.8744
什	-11.8744
攬	-11.8744
𥬇	-11.8745
磕	-11.8746
荆棘	-11.8746
秪	-11.8747
縑	-11.8747
玲	-11.8747
天雷隱隱	-11.8747
姪	-11.8747
確	-11.8747
搗爲散	-11.8748
蹙	-11.8748
高刁北翁	-11.8748
求字公書	-11.8748
两	-11.8749
駟	-11.8749
辣	-11.8749
共四卷	-11.8749
賞善罰惡	-11.8749
怨道咎師	-11.8749
摭	-11.875
東極青華大帝	-11.875
如逆上清	-11.875
燦爛	-11.875
聚䰟	-11.875
赤帝養炁	-11.8751
腸胃	-11.8751
媿	-11.8751
壹	-11.8751
漚	-11.8752
大洞眞經三十九章	-11.8752
求謀大	-11.8752
紆	-11.8752
駁	-11.8752
疎	-11.8752
鬥	-11.8752
瓠	-11.8752
趁	-11.8752
沽	-11.8752
所薦亡䰟	-11.8752
詵詵	-11.8752
二四八數及寅午戌年月日時方位正南	-11.8753
愼之愼之	-11.8753
鍳	-11.8753
南辰北斗	-11.8753
蔑	-11.8753
𣑽	-11.8753
西方七炁	-11.8753
恙	-11.8753
岷	-11.8754
一寸二分	-11.8754
年月日時告行	-11.8754
設醮謝恩	-11.8754
韭	-11.8754
囂塵	-11.8754
騐	-11.8755
五丁都司	-11.8755
髏	-11.8755
者針决	-11.8755
摘	-11.8755
河上公	-11.8755
哭泣	-11.8755
焜電	-11.8755
售	-11.8756
茗	-11.8756
今日今時	-11.8756
等皈身皈神皈命以是功德歸流	-11.8756
得道之後昇入無形	-11.8756
八威龍文	-11.8757
瑤	-11.8757
者加一等	-11.8757
濵	-11.8757
怙	-11.8757
東華青宫	-11.8757
遲婚姻	-11.8757
陰霾	-11.8757
苕	-11.8757
十方無極太上靈寳天尊	-11.8757
睇	-11.8757
浮空而至	-11.8758
謹遣九天捷疾符使楊傑操捧	-11.8758
二官直使	-11.8758
杭	-11.8758
濮	-11.8758
積功累行	-11.8758
蕙	-11.8758
天雷地雷	-11.8758
膊	-11.8759
蚌	-11.8759
訝	-11.8759
轂	-11.8759
局中天星地煞	-11.8759
長八寸	-11.8759
嚥液三過	-11.8759
病又一鬼王姓	-11.8759
皂旗	-11.876
靈寳監齋大法師	-11.876
十方仙童玉女接侍	-11.876
髠	-11.876
急急如元始上帝律令	-11.876
始勤終怠	-11.8761
栝	-11.8761
杪	-11.8761
須至專牒者右牒	-11.8761
邦國	-11.8761
敢有小鬼	-11.8761
包巾	-11.8761
所奏特賜	-11.8761
右謹具申	-11.8761
屐	-11.8762
棋	-11.8762
謹内封方函式	-11.8762
生老病死	-11.8762
褻瀆	-11.8762
漿水	-11.8762
一點靈光	-11.8762
䄂	-11.8762
十苦八難	-11.8763
滿一室	-11.8763
曲素訣辭	-11.8763
九天採訪應元保運真君	-11.8763
雲璈	-11.8763
泔	-11.8763
樗	-11.8763
丹景道精	-11.8763
玄至眞自然靈飛隱書玉清	-11.8763
冊	-11.8764
行人遲	-11.8764
郵	-11.8764
春分之日	-11.8765
明皇道君	-11.8765
𡨚讎	-11.8765
溟泠大神	-11.8765
玉晨道君	-11.8765
琰	-11.8766
司命六神	-11.8766
白元尊神	-11.8766
城邑	-11.8766
腰帶虎	-11.8766
軍陣	-11.8767
敢有不順	-11.8767
忒	-11.8767
㘞	-11.8767
方函上詣	-11.8767
酢	-11.8767
脛	-11.8767
四十八字	-11.8768
糖	-11.8768
四明破骸	-11.8768
陶隱居	-11.8769
迷途	-11.8769
鳳翔	-11.8771
省覽	-11.8771
天騶	-11.8772
沉溺	-11.8773
飲汁	-11.8774
經太上混元上德皇帝	-11.8774
煩悶	-11.8775
道法會元卷之九十	-11.8775
昭蘇	-11.8776
具法位姓押	-11.8776
投丐	-11.8776
阻遏	-11.8777
萬籟	-11.8778
救療	-11.8778
咸臻	-11.8778
元始一炁萬神雷司封	-11.8779
四直使者	-11.8779
衣食自然	-11.8779
馭炁	-11.8779
宜緩	-11.8779
鑒映	-11.878
神虎大聖	-11.8781
漢武	-11.8781
豫章	-11.8782
圎象	-11.8783
拱辰	-11.8785
三界官屬	-11.8786
天上人間	-11.8786
獨活	-11.8786
二七枚	-11.8787
曠劫	-11.8787
寺觀	-11.8788
卷一之七	-11.8788
玄圃	-11.8789
俯察	-11.8789
昭武	-11.8791
科範	-11.8791
洪武	-11.8792
翠微	-11.8792
百壯	-11.8793
歌頌	-11.8793
昇天堂	-11.8794
圓像	-11.8794
莫不由	-11.8795
嚴潔	-11.8795
後學之士	-11.8796
宛轉	-11.8799
汝若不	-11.8799
仲禄	-11.8799
奔衝	-11.88
怒容	-11.88
翻海	-11.8801
布帛	-11.8802
資財	-11.8802
自然之章	-11.8802
資寶	-11.8803
得乗飛	-11.8803
莊列	-11.8804
宣䟽	-11.8805
一切人民	-11.8806
羽客	-11.8806
完全	-11.8807
沖科	-11.8807
手擎	-11.8808
十二溪	-11.8809
報應分明	-11.8809
押送	-11.8815
三島	-11.8816
句陳	-11.8817
榮衛	-11.8818
方寸七	-11.8822
招殃	-11.8822
黙誦	-11.8824
蹤跡	-11.8824
刑獄	-11.8825
舌根	-11.8826
五湖四海	-11.8827
謁見不	-11.8828
逓相	-11.8829
一十六字	-11.8831
端嚴	-11.8832
混混	-11.8833
青腰	-11.8835
錦囊	-11.8835
邪淫	-11.8836
胡公	-11.8836
可見矣	-11.8837
周徧	-11.8838
具位臣某	-11.8839
民庶	-11.8841
飛鷹	-11.8841
炳靈	-11.8842
私意	-11.8842
青童君曰	-11.8842
曲賜	-11.8843
祥瑞	-11.8845
四十五日	-11.8845
叩齒二七	-11.8846
昭著	-11.8847
相貌	-11.885
宿愆	-11.885
依限	-11.8854
呪唵吽吽	-11.8855
干試	-11.8863
烈煞	-11.8867
金牌	-11.8869
木客	-11.8869
太衝	-11.8872
道法會元卷之一百一十	-11.8872
玉䇿	-11.8872
修造不	-11.8877
長享	-11.8891
道法會元卷之二百三十	-11.8897
災移徙	-11.8898
果報	-11.8899
黄紙墨書	-11.8901
盤結	-11.8903
某月日時	-11.8903
隱祕	-11.8904
註解	-11.8905
以水一斗	-11.891
張珏	-11.8914
穢慢	-11.8919
太祖	-11.8919
何患	-11.8922
懇請	-11.8931
丈餘	-11.8945
違戾	-11.8948
北極四聖	-11.8951
勑旨	-11.8953
貨財	-11.8953
彰道化	-11.8957
穢觸	-11.8973
靈貺	-11.8974
社雷	-11.8976
傷損	-11.8982
道法會元卷之一百四十	-11.8983
巳得道大聖衆至眞諸君丈人	-11.8989
聞師省	-11.8991
道法會元卷之三十	-11.8995
遵守	-11.8997
機要	-11.9006
十倍	-11.9009
不失其	-11.9019
始生之	-11.9047
日爲始	-11.9048
道法會元卷之二十	-11.9049
黑犬	-11.906
年七十	-11.9062
靈場	-11.9065
獻酒	-11.9069
松栢	-11.9076
神霄玉樞	-11.9079
再拜上言	-11.9097
救焦枯	-11.9098
吹入符中	-11.9099
治萬病	-11.9104
育萬物	-11.9119
問其故	-11.9122
承恩	-11.9127
削死	-11.914
千五百	-11.9154
千歳	-11.9166
道法會元卷之一百三十	-11.9175
兼濟	-11.9183
拜跪	-11.9185
諸大地獄	-11.9194
今奉爲	-11.9196
唵嗚	-11.92
頂禮	-11.9201
道門科範大全集卷之三十	-11.9208
白素元君	-11.921
名書帝	-11.9215
教典	-11.9215
光流精	-11.9215
資薦	-11.9223
奉行年月日時批行具法位姓	-11.9223
塲	-11.9228
雲擁	-11.9242
子文北炁	-11.9254
取天罡炁	-11.9263
淨穢	-11.9264
用雷局	-11.9273
吾奉玉清敕速降元炁成發符呪	-11.9274
億億	-11.9275
道法會元卷之一百二十	-11.9275
餚	-11.9284
癆	-11.9285
黄帝隂符經	-11.9288
帚	-11.9288
狼牙	-11.929
諸天曹案吏	-11.9291
兩口訣是	-11.9292
搐	-11.9292
某州縣郷里	-11.9293
乾坎艮震	-11.9293
英百靈衆眞交㑹在此香火爐前當願	-11.9293
䥫	-11.9294
匐	-11.9295
郡邑	-11.9295
嚇	-11.9296
鵰	-11.9296
𨗳引	-11.9297
雷火速發	-11.9298
烱	-11.9298
長顱巨獸	-11.9298
三官僕射	-11.9299
立秋之日	-11.9299
上張天羅下布地網	-11.9299
嗶	-11.9299
炫	-11.9299
狼吏虎賁	-11.9299
熛	-11.93
瘻	-11.93
咳	-11.93
横金梁	-11.93
垓	-11.9301
葫蘆	-11.9301
黄泉蒿里	-11.9301
負天擔石	-11.9301
怎	-11.9301
稼穡	-11.9302
冡	-11.9302
哪吒	-11.9302
追魂攝魄	-11.9302
㔶蓋	-11.9302
大將軍十萬人太上	-11.9302
杜光庭	-11.9302
前生今世	-11.9302
通事舍人	-11.9303
嫗	-11.9303
疵癘	-11.9303
某郡縣鄉里	-11.9303
嵎	-11.9303
𠾬	-11.9303
評	-11.9303
婉	-11.9304
白玉龜臺	-11.9304
貶	-11.9304
叩齒三通咽液三過	-11.9304
驎	-11.9304
裾	-11.9304
太霄琅書	-11.9305
笠	-11.9305
獠牙	-11.9305
滄浪	-11.9305
覆取汗	-11.9305
頡	-11.9305
馳騁	-11.9305
萬始先生	-11.9305
蹊	-11.9306
訂	-11.9306
九皇上真十方巳得道大聖衆至真諸君	-11.9306
鬛	-11.9306
鰲	-11.9307
甘露法食	-11.9307
茵	-11.9307
依草附木	-11.9307
需	-11.9307
出行不順修造不利疾病難瘥走失難見	-11.9308
者流三千里	-11.9308
不得容情	-11.9308
明檢鬼營	-11.9308
絮	-11.9308
六畜有損行人阻滯求謀不成求財	-11.9308
名山福地	-11.9308
官非家宅大不安文書不遂已上全凶應	-11.9308
虹霓	-11.9308
通天徹地	-11.9308
某法籙弟子某乙命屬北斗某星君	-11.9308
鹵	-11.9308
匃	-11.9308
真君降言曰	-11.9308
無益恠異興災移徙見凶家宅不吉文書	-11.9308
屇	-11.9309
蒞	-11.9309
澄湛	-11.9309
玄之又玄	-11.9309
不宜修造不利疾病危篤走失不見生	-11.9309
求謀遂意	-11.9309
失望墳葬不吉	-11.9309
凶家宅不寧文書難得已上先吉後凶應	-11.9309
耗失行人有阻求謀不遂求財不利婚姻	-11.9309
不收墳葬敗家六畜災損行人不	-11.9309
走失難見生産難	-11.9309
齋法符篆門	-11.9309
利婚姻有	-11.9309
天關地軸	-11.931
四炁朗清	-11.931
光明奕奕	-11.931
不遂求財	-11.931
甜	-11.931
篹	-11.931
陶鑄	-11.9311
纏綿	-11.9311
猾	-11.9311
袐	-11.9311
貪愛	-11.9311
頒敕㫖	-11.9311
纒絡	-11.9311
稽遲	-11.9311
驟雨	-11.9311
玉晨君北斗	-11.9312
黄鉞	-11.9312
天清地	-11.9312
斿	-11.9312
利婚姻大	-11.9312
泗	-11.9312
祓	-11.9312
沬	-11.9313
金華洞房	-11.9313
時刻昇遷	-11.9313
禇伯秀	-11.9313
千和萬合	-11.9313
陽雷神君苟	-11.9313
蟹	-11.9313
梢	-11.9313
㩀	-11.9314
倐忽	-11.9314
黔	-11.9314
四溟四丁大神當季行雨龍雷主者紫堂	-11.9314
組	-11.9314
綃	-11.9314
桃皮	-11.9314
竚	-11.9314
聃	-11.9315
妹	-11.9315
萬炁齊仙	-11.9315
以是功德歸流	-11.9315
咸令照應特爲	-11.9315
聖前伏望聖慈俯垂省覽	-11.9315
蓆	-11.9315
朱陵度命天尊	-11.9315
旦暮	-11.9315
九泉號令	-11.9315
拾遺記	-11.9315
蓼	-11.9315
稽首頓首再拜	-11.9316
讃歎	-11.9316
燌	-11.9316
覧	-11.9316
非智慧也	-11.9316
殗穢	-11.9316
理難抑違	-11.9316
誼	-11.9316
閶闔	-11.9317
十方救苦天尊	-11.9317
田蠶	-11.9317
䖝	-11.9317
門丞户尉	-11.9317
三官五帝九府四司	-11.9317
者處斬諸神吏符使	-11.9318
萼	-11.9318
躅	-11.9318
一如告命年月日時告下具位	-11.9318
嚕	-11.9318
瞞	-11.9319
无英公子	-11.9319
消災散禍	-11.9319
三十六土皇	-11.9319
艶	-11.9319
礴	-11.9319
日出行者	-11.9319
今故燒香	-11.9319
聾盲	-11.9319
束縛	-11.9319
崐	-11.9319
天官地官水官	-11.9319
俚	-11.932
評論	-11.932
伽耶	-11.932
普度天人	-11.932
仰依太上三尊十方衆聖願以是	-11.932
右章泄自太虚流布三界	-11.932
風火驛傳	-11.932
水火刀兵	-11.9321
徽號	-11.9322
諸天内音	-11.9322
本司得此	-11.9322
杏仁	-11.9322
瀑	-11.9323
梵炁天君	-11.9323
歌詠	-11.9323
黄檗	-11.9323
階級	-11.9323
約束	-11.9323
太清玉司	-11.9324
成就善功	-11.9324
吏三百六十人度文昌三五	-11.9324
九天採訪使者	-11.9324
轉筋	-11.9324
醴泉	-11.9325
冬至之日	-11.9325
六丙	-11.9326
臣誠惶誠恐稽首頓首	-11.9326
紫度炎光	-11.9326
榮辱	-11.9326
如雞子	-11.9327
伎樂	-11.9327
超凌	-11.9327
生産難	-11.9328
徽稱	-11.9329
大彰報應	-11.933
零落	-11.933
南方丹天	-11.933
𥼶義	-11.9331
魏元君	-11.9332
峴泉	-11.9333
包含	-11.9334
元始天尊説	-11.9334
下台三青	-11.9334
唯願天尊	-11.9335
賚	-11.9335
有幸得	-11.9337
錦之囊	-11.9337
桃李	-11.9338
十惡之人	-11.9338
衣大袖	-11.9339
夏至後	-11.9339
救㧞	-11.934
衞護	-11.934
振響	-11.934
篤志	-11.934
千罪萬過	-11.9342
清泠	-11.9342
鷄鳴	-11.9343
某等謹同誠上啓	-11.9344
斷瘟	-11.9344
饑餓	-11.9345
伏丐	-11.9345
毛羽	-11.9346
告諭	-11.9346
淨供	-11.9347
斷截	-11.9347
防護	-11.9347
鑒察	-11.9348
效驗	-11.935
晨嬰	-11.935
天下太平	-11.9351
毒獸	-11.9352
八蠻	-11.9353
靜黙	-11.9353
王喬	-11.9353
大槩	-11.9353
兩乳	-11.9355
吐霧	-11.9355
奉香火	-11.9355
芥子	-11.9356
彌滿	-11.9356
天上天下	-11.9361
八緯	-11.9362
破壞	-11.9362
暫離	-11.9363
玉淸	-11.9364
失所在	-11.9364
鎭乾坤	-11.9366
本師訣	-11.9366
休祥	-11.9367
飯賢	-11.9368
握節	-11.9369
辛苦	-11.9369
飛行玉清	-11.937
誓盟	-11.937
華幡	-11.937
永享	-11.9371
荅曰	-11.9371
七千年	-11.9374
拜謁	-11.9374
違慢	-11.9375
赫然	-11.9375
亦當修齋行香誦經	-11.9376
東壁	-11.9376
道法會元卷之二百六十	-11.9376
百遍	-11.9376
典刑	-11.9378
肅煞	-11.938
瓮中	-11.9381
庚申甲子	-11.9381
左右官使者	-11.9383
赤松	-11.9386
在面前	-11.9387
皓華	-11.939
朱鳥	-11.9391
開宥	-11.9391
朔望	-11.9396
須管	-11.9399
石壁	-11.9401
考附	-11.9402
光閃爍	-11.9403
咸寧	-11.9405
頒告	-11.9405
吒哩	-11.9406
童蒙	-11.941
臣某告行	-11.9417
水五升	-11.942
師與弟子	-11.9427
籙白簡救苦眞符	-11.9428
師巫	-11.943
鍾離	-11.944
大威力	-11.9441
雷壓	-11.9441
河車	-11.9448
籙籙中	-11.9449
慈憐	-11.9451
拔亡	-11.9458
遥聞	-11.9458
度人無量	-11.9461
炁書之	-11.9461
逃亡	-11.9462
亘古	-11.947
七十二相	-11.9474
出頂門	-11.9484
觸忤	-11.9486
罪尤	-11.9501
豈敢	-11.9511
无量度人	-11.9515
斬邪滅蹤	-11.9521
荆州	-11.9538
財帛	-11.9541
畏伏	-11.9544
玉几	-11.955
占財	-11.9564
遥望	-11.9566
后妃	-11.9568
炎熾	-11.9573
□□□□□□	-11.9578
雷主者	-11.9579
監生司	-11.958
不死之道	-11.958
年八十	-11.9589
邦家	-11.9593
勑召雷神	-11.9593
炁上騰	-11.9597
紫微大帝律令	-11.96
謹重封	-11.96
千八百	-11.962
迎接	-11.963
可不愼	-11.9633
符敕符呪	-11.9644
白刃	-11.9657
邪僞	-11.9657
熒煌	-11.9681
許容	-11.9685
事移徙	-11.9687
曆旗將軍十二人	-11.9691
斬滅邪	-11.9703
壽筭	-11.9727
元亨	-11.973
上三天玄元始三炁太上道君太上老君	-11.9744
威振	-11.9748
移徙動	-11.976
黄素元君	-11.9783
祕呪唵	-11.9786
太眞科	-11.9795
不自知	-11.9798
孰知	-11.9799
官將百二十人	-11.9808
君隨四時形影在玉清	-11.9816
甘草二兩	-11.9817
媾	-11.9833
唵嚤	-11.9839
年月日牒具位姓	-11.9847
焚蕩	-11.9862
肖	-11.9869
依律治罪	-11.9869
匕	-11.9873
雷速發	-11.9876
璫	-11.9878
毫光	-11.9878
犧	-11.9879
以今焚香攝召	-11.9879
鳴法鼓二十四通	-11.9879
水三升煑取一升	-11.988
努	-11.9883
精食精吏	-11.9883
家宅人口	-11.9883
虺	-11.9883
帯	-11.9884
者處斬諸邪神	-11.9885
陽神决吏	-11.9885
哂	-11.9885
崩摧	-11.9885
薈	-11.9886
稽首皈依	-11.9886
邅	-11.9886
嗃	-11.9887
堰	-11.9887
杻	-11.9888
急急如雷祖大帝律令	-11.9888
鈕	-11.9888
右將軍九人治	-11.9888
寅申巳亥	-11.9888
釋迦	-11.9888
梵摩迦夷天	-11.9889
鱉	-11.9889
㢤	-11.9889
天清地寧	-11.9889
三百六十骨節	-11.989
悰	-11.989
萬鬼自潰	-11.989
店	-11.989
太上助國救民緫真祕要卷之	-11.989
吏三十六人中元地府定	-11.989
啾	-11.989
咜	-11.989
𦆵	-11.989
長生保命天尊	-11.989
唐葛周	-11.9891
父母兄弟	-11.9891
瑠璃	-11.9891
天台法中	-11.9891
紫微北極大帝	-11.9891
爆	-11.9891
證明修奉	-11.9891
臣某承符	-11.9891
英百靈衆眞交㑹在此香火	-11.9892
秋分之日	-11.9892
謹牒年月日時牒	-11.9892
靈書中篇	-11.9892
孳	-11.9892
砥	-11.9892
罵詈	-11.9893
跋	-11.9893
三色之雲	-11.9893
徑御太上無極大道昊天	-11.9893
正一靜應眞君	-11.9893
冢訟	-11.9893
盍	-11.9893
偷盗	-11.9893
捫	-11.9895
歘火律令大神	-11.9895
莾	-11.9895
思之還反真形春三月	-11.9895
臉	-11.9895
今故燒香自歸依師尊大聖衆至	-11.9895
半吉行人在路求謀半遂求財半利婚姻	-11.9895
三時行道	-11.9895
成官事先凶後吉謁見小阻	-11.9895
問名爲正問若人見	-11.9895
紅紙朱書	-11.9895
溟涬大梵	-11.9895
灣	-11.9895
十二重樓	-11.9895
驚蟄	-11.9896
無利婚姻有破官事累後謁見	-11.9896
參同契	-11.9896
天煞地煞年煞月煞日煞時煞	-11.9896
走失可尋生産安好捕盗得獲禱祀無應	-11.9896
思之還反眞形秋三月	-11.9896
恠異將散移徙動遲家宅向安文書遲滯	-11.9896
。	-11.9896
𦋇	-11.9897
有望墳葬小吉六畜無損行人將至求謀	-11.9897
氣大品將軍一人	-11.9897
恠異無事	-11.9897
無事謁見可許出行宜出修造宜動疾病	-11.9897
家宅終吉文書見遲已上中凶始末吉應	-11.9897
穩墳葬平穩	-11.9897
今故燒香自皈依	-11.9897
渤	-11.9898
暄	-11.9898
衒	-11.9898
嘶	-11.9898
香官使者左右龍虎君	-11.9898
醪	-11.9898
燾	-11.9898
台光幽精爽靈	-11.9898
黄神烈露臺	-11.9898
南方丹天世界	-11.9898
六畜平常	-11.9898
愕	-11.9898
下官故炁	-11.9899
稽留	-11.9899
齋官上香	-11.9899
羶	-11.9899
爾時復有	-11.9899
行神布炁	-11.9899
稚川	-11.9899
事干濟衆	-11.99
璿	-11.99
穿鬼心破鬼肚	-11.99
阻出行	-11.99
波梨答惒天	-11.99
懺悔	-11.99
紂絶隂天	-11.99
永爲身寳	-11.99
敖	-11.99
除邪輔正	-11.99
須至牒者右牒請	-11.99
煅	-11.99
喉舌	-11.99
噪	-11.99
摩尼	-11.9901
囚繫	-11.9901
屯駐	-11.9901
刷	-11.9901
旌幢	-11.9901
太一天章陽雷霹靂專司	-11.9901
一如告命太歳年月日時告下法位	-11.9901
將帶風雲電雷雨前來本	-11.9901
疾除罪簿	-11.9901
天剛大聖	-11.9901
今上皇帝	-11.9902
嬉	-11.9902
九州都仙太史	-11.9902
天猷滅類	-11.9902
驅邪治病	-11.9902
娑婆	-11.9902
郤	-11.9902
十大星帥	-11.9903
饑饉	-11.9903
違科犯	-11.9903
須至申聞者右謹具申	-11.9903
殺鬼萬千	-11.9903
思之還反真形冬三月	-11.9903
萬仞	-11.9903
願神願仙	-11.9903
穿鑿	-11.9903
青瑣	-11.9903
豎	-11.9904
萬不得仙	-11.9904
𥠖	-11.9904
冢	-11.9904
金晨玉童	-11.9904
須至移文	-11.9904
九真明科	-11.9904
鶉	-11.9904
絞去滓	-11.9905
葛洪	-11.9905
塔	-11.9905
常能行之	-11.9906
玄師幕	-11.9906
純粹	-11.9906
芎	-11.9906
何喬二	-11.9906
虧盈	-11.9906
螭	-11.9906
拊	-11.9906
巘	-11.9906
恭望聖慈允俞所	-11.9906
𣸸	-11.9907
官使者八十萬億衆洞清虚	-11.9907
天官斬神	-11.9907
姓某告行	-11.9907
汲引	-11.9907
君列紀	-11.9907
笞	-11.9907
彭祖	-11.9908
錦繡	-11.9908
生地黄	-11.9908
瀝血	-11.9908
陽燧	-11.9909
飛行玄虚	-11.9909
桀	-11.9909
瓊漿	-11.9909
萬神敬聽	-11.9909
拱俟	-11.9909
五道四生	-11.991
不知所之	-11.991
謹牒年月日時牒具位姓	-11.991
斗杓	-11.9911
修之九年	-11.9911
行此九年	-11.9911
殮	-11.9911
藤	-11.9911
近境各處山源溪谷潭湫行雨龍	-11.9911
天昏地黑	-11.9911
顚邪	-11.9911
望巽方	-11.9911
經籍度師	-11.9911
芋	-11.9911
醉飽	-11.9911
騰躍	-11.9911
黄帝隂符經註	-11.9911
齋戒沐浴	-11.9912
貪嗔	-11.9912
太上敕赦生天寳籙	-11.9912
顧盻	-11.9913
枳實	-11.9913
夏禹	-11.9913
恭望眞慈	-11.9914
楷	-11.9914
保制劫運	-11.9914
刀斧	-11.9914
科儀立成品	-11.9915
神虎攝召	-11.9915
元始一炁開天通三界玉符	-11.9915
誦天蓬呪	-11.9915
修造宜	-11.9915
過度三界	-11.9916
牽連	-11.9916
吹嘘	-11.9916
如常式	-11.9916
槎	-11.9916
鷄子白和	-11.9917
嚥津	-11.9917
活計	-11.9917
日後如遇	-11.9917
驂駕	-11.9918
奏九宸	-11.9918
擎拳	-11.9918
肝膽	-11.992
闈	-11.992
頭䢖	-11.9921
織女	-11.9921
煜	-11.9921
刑厄乞解	-11.9922
談笑	-11.9923
景貺	-11.9924
者處死	-11.9924
飽滿	-11.9925
欻火律令	-11.9925
千斤	-11.9925
幽寥	-11.9926
持幢	-11.9926
遁甲	-11.9927
東方八天	-11.9927
玄中法師	-11.9929
寳笈	-11.9929
天童經	-11.993
從兆泥丸中入下布兆	-11.993
天蓬大將	-11.9931
困苦	-11.9932
圓鏡	-11.9934
乘黑雲	-11.9934
憂懼	-11.9937
醫藥	-11.9938
紫陽真人	-11.9941
上清天樞院	-11.9942
與道合同	-11.9943
塵沙	-11.9943
長幼	-11.9944
羽盖	-11.9944
闡教	-11.9945
兩箇	-11.9945
蒼蒼	-11.9946
低頭	-11.9948
殘害	-11.9949
上眞道君	-11.9949
梵唱	-11.9949
寶耀	-11.9949
澄徹	-11.995
悔謝	-11.995
郡守	-11.9951
海陵	-11.9951
異𩔖	-11.9954
樓閣	-11.9957
樓觀	-11.9959
愚蒙	-11.996
靈寳法中	-11.996
川澤	-11.996
祖元君	-11.9963
歷歷	-11.9964
流溢	-11.9968
惡趣	-11.9971
敢祈	-11.9972
腋下	-11.9973
紛華	-11.9974
妙範	-11.998
欣然	-11.9981
莊子曰	-11.9983
千億	-11.9991
不得妄傳	-11.9992
都天大雷公	-11.9995
名刋	-11.9997
不可測	-12.0001
朗朗	-12.0003
道法會元卷之十	-12.0012
仁慈	-12.0013
贖罪	-12.0016
上帝律令勑	-12.0031
畏懼	-12.0045
方諸青童	-12.0073
者多矣	-12.0084
世網	-12.0093
卷有符	-12.0098
依玄科	-12.0105
電雹	-12.0106
傅瘡	-12.0119
安痊	-12.0122
遥禮	-12.0124
者左右龍虎君侍香諸靈官當令臣向來	-12.0144
酒一升	-12.016
玄科律令	-12.0162
苦辛	-12.0162
五色綉衣玉女五伯人執	-12.0165
凶殃	-12.0171
馘滅邪	-12.0181
嗣續	-12.0189
亥子丑	-12.0191
一日忽	-12.0194
暗昧	-12.0197
謹具狀申	-12.0211
敕勒	-12.0215
三昧火	-12.0233
五色綉衣玉女五伯人	-12.0258
升煎取	-12.0293
三天扶教輔元大法師	-12.0298
霜露	-12.0302
焚香關召	-12.0303
聻字	-12.0317
財貨	-12.0322
貪財	-12.0331
千𡻕	-12.035
書刀一口	-12.035
違背	-12.0384
違吾令	-12.04
洞𤣥靈寶	-12.0412
從官十五人	-12.0425
胡麻	-12.0425
三五邵陽	-12.043
塜訟	-12.0436
三清玉帝	-12.0438
四海龍王	-12.0442
相故見諸	-12.0462
禱祝	-12.047
渴飲	-12.0474
三炁丹天	-12.0474
嗏	-12.0487
酪	-12.0494
𡅗	-12.0494
金鉞	-12.0495
𠿼	-12.0498
執符把籙	-12.0501
慵	-12.0507
灼灼	-12.0507
弓矢	-12.0508
走火行風	-12.0509
鄂	-12.051
掣電轟雷	-12.0511
顱	-12.0511
鐸	-12.0511
迮	-12.0511
窘	-12.0511
三十代天師	-12.0511
字號計十	-12.0512
刹	-12.0512
一十五種	-12.0513
蘸	-12.0513
寘	-12.0513
孩兒	-12.0513
碎如微塵	-12.0513
上元始天尊說北帝伏魔神咒妙經卷第	-12.0513
厄童子十二人上仙官解	-12.0513
急急如靈寳大法律令	-12.0514
摧山倒嶽	-12.0514
九元煞童	-12.0515
飛翼雷公	-12.0515
青靈始老	-12.0515
扁舟	-12.0515
丈人三十六部尊經玄中大法師圓穹	-12.0515
今謹有	-12.0516
穹窿	-12.0516
牽纏	-12.0516
天煞地煞年煞月煞	-12.0516
北邙	-12.0516
以聞謹狀年月日具法位臣姓某狀奏奏	-12.0516
愽	-12.0517
鑊	-12.0517
厯	-12.0517
枷鎖	-12.0518
禰	-12.0518
勃勃	-12.0518
兵馬神衆	-12.0518
上清三洞弟子靈寳領教嗣師王契真纂	-12.0518
下情無任惶懼之至謹具狀	-12.0518
直月五將軍	-12.0518
廻骸起死	-12.0518
蓊藹	-12.0518
昊天至尊玉皇上帝	-12.0518
役使萬靈上衛仙翁	-12.0518
潼	-12.0518
一如告命風火驛傳	-12.0518
夬	-12.0518
後之學者	-12.0519
溜	-12.0519
一呼一吸	-12.0519
緜	-12.0519
執法仙宰上仙真宰	-12.0519
巳録告聞願得太上十方至	-12.0519
白日昇晨	-12.0519
九天應元雷聲普化天尊九天雷祖大帝	-12.052
代天行化	-12.052
牒具如前	-12.052
元洞玉曆	-12.052
勾陳星宫天皇大帝	-12.052
舉措	-12.052
轉經行道	-12.052
西城王君	-12.052
急急如玉皇上帝律令	-12.052
寂然不動	-12.052
家宅人口平安	-12.052
敷落五篇	-12.052
屏斥	-12.052
溉	-12.052
老叟	-12.0521
攜	-12.0521
買田宅人口頭疋	-12.0521
匹配	-12.0521
身没鬼官	-12.0521
某與合壇	-12.0521
覷	-12.0521
衛我九重	-12.0521
須至專牒者牒	-12.0522
徙守舊家宅平安文書宜求已上中平應	-12.0522
府真神道	-12.0522
應干去處	-12.0522
靈寳大法司當司據	-12.0522
鄧燮	-12.0522
濟人利物	-12.0522
蹻	-12.0523
勘合符	-12.0523
身被風刀之考	-12.0523
里中廻真下映入兆	-12.0523
流精玉光	-12.0523
八威吐毒	-12.0523
卷十一之二十	-12.0523
拏	-12.0523
删	-12.0523
迍邅	-12.0523
食鬼吞精	-12.0523
一寸五分	-12.0524
同前結尾	-12.0524
溶	-12.0524
伏候勑㫖	-12.0524
使者十二人仙靈官左	-12.0524
身生水火	-12.0524
渡河	-12.0524
𠎝	-12.0525
孩童	-12.0525
以梓木	-12.0525
二丈四尺	-12.0525
九天應元雷聲普化天尊	-12.0525
曝乾	-12.0525
愫	-12.0525
太上三尊十方衆聖	-12.0525
湊	-12.0525
滄溟	-12.0525
與天齊年	-12.0525
合行元降	-12.0525
枯竭	-12.0526
監眞度生	-12.0526
劬勞	-12.0526
仆	-12.0526
上部八景洞天飛行自然靈寳神仙	-12.0527
悞	-12.0527
摩訶	-12.0527
鬭	-12.0527
屣	-12.0527
病老少	-12.0527
者徒一年	-12.0527
吽喗噠唎	-12.0527
榑桑大帝	-12.0527
太初天君紫宸太華天帝	-12.0527
[...]
