<unk>	0
<s>	0
</s>	0
(	-3.59449
/)	-4.03446
/	-4.54552
)	-4.76786
韻	-4.84122
句	-4.99488
人	-5.58098
又	-5.5849
花	-5.71846
有	-5.72433
一	-5.75397
不	-5.77076
)(	-5.79446
之	-5.8303
春	-5.89013
香	-6.05454
無	-6.07429
也	-6.08311
為	-6.0832
詞	-6.09023
字	-6.0964
風	-6.09738
雲	-6.11295
上	-6.15832
前調	-6.16163
中	-6.19094
月	-6.19259
玉	-6.20228
作	-6.22402
▁	-6.23911
山	-6.24109
天	-6.24576
紅	-6.25314
如	-6.25542
讀	-6.2683
愁	-6.26993
下	-6.28513
自	-6.33496
空	-6.34012
是	-6.36905
時	-6.38123
與	-6.39563
去	-6.40495
得	-6.41623
小	-6.44981
更	-6.45325
似	-6.46105
水	-6.47363
來	-6.47392
清	-6.49617
見	-6.49864
酒	-6.49865
處	-6.5147
正	-6.52948
子	-6.54604
我	-6.55028
雨	-6.55837
長	-6.56175
寒	-6.56374
心	-6.5834
後	-6.59115
金	-6.59123
在	-6.61926
秋	-6.62701
聲	-6.63177
同	-6.65076
未	-6.65456
三	-6.66141
其	-6.66271
前	-6.66548
新	-6.67089
盡	-6.67924
飛	-6.68092
難	-6.69051
以	-6.69336
此	-6.69912
夢	-6.69945
看	-6.70502
兒	-6.70505
情	-6.70666
恨	-6.71122
重	-6.72035
醉	-6.7235
歌	-6.72635
又一體	-6.7323
了	-6.7365
生	-6.74319
好	-6.74582
成	-6.75557
入	-6.75721
者	-6.76141
而	-6.76263
歸	-6.76309
向	-6.76361
日	-6.77021
輕	-6.77207
和	-6.77278
行	-6.77827
初	-6.78395
雪	-6.79235
名	-6.80715
相	-6.81246
云	-6.81767
翠	-6.82084
還	-6.82405
曲	-6.82702
的	-6.83267
老	-6.83754
半	-6.84264
煙	-6.8448
道	-6.84883
来	-6.85173
過	-6.86521
把	-6.87392
逺	-6.8874
閒	-6.9018
明	-6.91272
栁	-6.91297
問	-6.91394
到	-6.91469
髙	-6.91829
滿	-6.91998
起	-6.92262
詩	-6.92991
知	-6.93184
夜	-6.93313
多	-6.93375
事	-6.93379
路	-6.9351
家	-6.94029
欲	-6.94738
開	-6.95239
平	-6.95313
意	-6.97014
誰	-6.97392
烟	-6.9825
深	-6.98571
裏	-6.98619
語	-6.99335
調	-6.99907
書	-7.00124
梅	-7.01081
他	-7.02237
影	-7.02832
客	-7.03727
青	-7.03818
出	-7.03842
笑	-7.04065
大	-7.04126
都	-7.04334
别	-7.04597
對	-7.04725
可	-7.04733
兩	-7.05177
落	-7.05647
冷	-7.05649
暗	-7.06289
頭	-7.06631
則	-7.07403
却	-7.07453
着	-7.07468
休	-7.07543
共	-7.07851
碧	-7.08304
分	-7.08952
黄	-7.09566
王	-7.1144
用	-7.12619
應	-7.12787
舞	-7.13696
望	-7.14229
江	-7.14316
君	-7.16048
便	-7.17166
西	-7.17413
南	-7.17639
舊	-7.1842
莫	-7.19491
白	-7.19493
緑	-7.20287
然	-7.20321
但	-7.20404
四	-7.21113
仙	-7.22177
已	-7.22682
送	-7.22972
樂	-7.23058
雙	-7.23178
何	-7.23444
至	-7.2359
露	-7.23746
曉	-7.24068
且	-7.24235
故	-7.25259
倚	-7.26039
文	-7.26269
記	-7.26873
想	-7.26986
東風	-7.27612
今	-7.27823
東	-7.28342
公	-7.28429
吹	-7.28474
外	-7.28517
二	-7.2855
間	-7.28597
斷	-7.28728
燕	-7.28763
亦	-7.29087
待	-7.29378
賦	-7.29556
猶	-7.30143
霜	-7.30876
地	-7.31261
思	-7.31271
傳	-7.32791
葉	-7.33242
千	-7.33279
淚	-7.33739
光	-7.33924
你	-7.35323
殘	-7.35347
那	-7.35437
綠	-7.36104
将	-7.36319
方	-7.36364
柳	-7.36533
嬌	-7.3667
衣	-7.36706
馬	-7.36874
○	-7.36879
錦	-7.3707
早	-7.3717
門	-7.37446
寄	-7.37673
流	-7.37713
竹	-7.38037
驚	-7.38455
於	-7.3866
因	-7.38882
近	-7.39172
將	-7.39187
宫	-7.395
五	-7.39624
怨	-7.39774
非	-7.39887
帶	-7.40146
草	-7.40727
怕	-7.41078
聽	-7.41205
只	-7.41232
先	-7.41288
喜	-7.41314
少	-7.4194
児	-7.4196
晚	-7.42635
留	-7.43055
波	-7.43376
細	-7.43807
照	-7.44273
若	-7.44421
張	-7.44659
題	-7.45039
朝	-7.45094
相思	-7.45351
何處	-7.4602
轉	-7.46034
萬	-7.46323
皆	-7.46496
元	-7.47067
手	-7.47343
遊	-7.47809
漸	-7.47905
集	-7.48535
回	-7.49085
令	-7.49141
年	-7.49815
暮	-7.49854
真	-7.4997
于	-7.50074
李	-7.50572
景	-7.5072
邊	-7.511
塵	-7.51329
當	-7.51508
能	-7.51521
粉	-7.51901
風流	-7.52053
破	-7.52228
這	-7.52263
淺	-7.52711
憶	-7.52744
孤	-7.53077
身	-7.53239
亂	-7.53331
眼	-7.53357
芳	-7.53584
樓	-7.53725
林	-7.53855
異	-7.54037
色	-7.5443
龍	-7.54563
女	-7.54644
甚	-7.5557
吟	-7.55661
樹	-7.55997
㑹	-7.56103
著	-7.56374
獨	-7.56614
古	-7.57058
六	-7.57702
散	-7.5817
低	-7.58946
晴	-7.59111
郎	-7.59294
世	-7.59433
信	-7.59451
矣	-7.59721
溪	-7.59724
斜	-7.59793
動	-7.59801
聞	-7.59853
晩	-7.59995
所	-7.60125
官	-7.60492
枝	-7.60571
城	-7.60728
餘	-7.61366
素	-7.61404
俱	-7.61694
言	-7.61848
閑	-7.62273
曽	-7.62383
畫	-7.62975
合	-7.63023
按	-7.6368
度	-7.63894
海	-7.64043
石	-7.6436
坐	-7.64508
曰	-7.6468
定	-7.6488
數	-7.65036
微	-7.65168
約	-7.65475
州	-7.65523
鴈	-7.65972
催	-7.66044
本	-7.66181
幾	-7.66356
從	-7.66402
氣	-7.66687
折	-7.66932
須	-7.66972
暖	-7.66985
北	-7.68121
巳	-7.68152
枕	-7.68163
珠	-7.68472
愛	-7.68613
即	-7.68651
結	-7.68974
巻	-7.69301
幽	-7.6952
隔	-7.69738
華	-7.70177
堪	-7.70354
横	-7.7049
常	-7.70978
苦	-7.71029
試	-7.71447
百	-7.71767
取	-7.71901
誤	-7.72696
紫	-7.73572
濃	-7.73744
體	-7.73849
曾	-7.73946
解	-7.74296
高	-7.75055
勝	-7.75271
此詞	-7.75512
繡	-7.75706
説	-7.75807
添	-7.75993
引	-7.76115
念	-7.76503
吳	-7.76537
垂	-7.76564
住	-7.76788
唱	-7.77221
絶	-7.77391
國	-7.77622
春風	-7.77786
使	-7.778
歡	-7.77868
面	-7.78249
安	-7.78375
被	-7.78446
簾	-7.7864
要	-7.79172
尋	-7.79343
放	-7.79385
亭	-7.7943
耳	-7.79487
消	-7.79839
說	-7.79958
凉	-7.80522
收	-7.8067
江南	-7.80918
梅花	-7.81007
人間	-7.81173
學	-7.81195
睡	-7.81279
楚	-7.81574
弄	-7.81798
偏	-7.81855
浪	-7.8195
乍	-7.82328
眉	-7.82441
箇	-7.82447
九	-7.82868
閣	-7.82909
西風	-7.83051
寫	-7.83102
飲	-7.83163
翻	-7.8318
絲	-7.83455
比	-7.83505
㸔	-7.83559
隨	-7.83936
魚	-7.84515
離	-7.84954
二首	-7.85076
教	-7.85132
粧	-7.85159
燈	-7.85234
乃	-7.85317
爭	-7.85404
短	-7.85486
迷	-7.85583
觀	-7.86209
凝	-7.86653
做	-7.86991
神	-7.87942
沙	-7.88203
星	-7.88444
伴	-7.88668
千里	-7.88774
任	-7.88841
羅	-7.89172
天涯	-7.8956
蘭	-7.89816
鳳	-7.90183
淡	-7.90188
薄	-7.90203
浮	-7.90265
移	-7.90862
七	-7.90886
連	-7.90913
再	-7.90971
宋	-7.91033
音	-7.91279
臣	-7.91454
尚	-7.91478
聴	-7.91594
興	-7.92088
頻	-7.92113
鳯	-7.92198
最	-7.92217
懐	-7.92221
透	-7.92416
映	-7.93088
明月	-7.93093
芲	-7.93117
漫	-7.93732
陳	-7.9386
賞	-7.93978
臺	-7.94053
芳草	-7.9425
陽	-7.94433
野	-7.94456
齊	-7.94599
隂	-7.95305
内	-7.95594
鴛鴦	-7.95654
瘦	-7.95673
怎	-7.95816
静	-7.95942
啼	-7.96582
㡬	-7.96612
羞	-7.97007
謝	-7.97096
易	-7.97202
爲	-7.9738
才	-7.97873
霧	-7.98348
立	-7.98817
鶯	-7.98969
慢	-7.99027
宜	-7.99401
首	-7.99487
歸去	-7.99812
叶	-8.00679
八	-8.01114
復	-8.01312
通	-8.01434
臨	-8.01444
惟	-8.01548
多少	-8.01572
不知	-8.02055
管	-8.02058
橋	-8.02406
掩	-8.02468
妝	-8.0255
居	-8.02604
雁	-8.0261
喚	-8.02716
及	-8.02763
傍	-8.03017
堂	-8.03094
舉	-8.03298
岸	-8.03319
贈	-8.03362
總	-8.03574
容	-8.0397
池	-8.04558
歸來	-8.04808
瓊	-8.0501
病	-8.05611
或	-8.05848
趙	-8.05867
朱	-8.0599
論	-8.06498
宴	-8.06715
飄	-8.06807
罷	-8.06961
字仄聲	-8.06965
霞	-8.07078
漢	-8.07168
相逢	-8.0725
覺	-8.07277
凨	-8.07327
字平聲	-8.07422
萬里	-8.07576
載	-8.07685
英	-8.07797
松	-8.08136
太	-8.08267
尾	-8.08278
倒	-8.08798
宿	-8.09169
越	-8.09211
遍	-8.09242
經	-8.09744
黄昏	-8.09839
氷	-8.10788
沈	-8.11095
十	-8.11185
歎	-8.11193
庭	-8.11322
就	-8.11393
鸞	-8.11545
寳	-8.11588
角	-8.11591
㣲	-8.11671
鏡	-8.11925
稱	-8.12171
鳴	-8.12267
劉	-8.12582
周	-8.12788
火	-8.13009
銀	-8.13698
改	-8.13984
疎	-8.14187
㸃	-8.14204
多情	-8.14297
口	-8.14328
登	-8.14671
全	-8.14741
伊	-8.14755
巧	-8.14896
染	-8.14988
換	-8.15372
謂	-8.1557
眠	-8.15882
指	-8.15921
惜	-8.1608
交	-8.16559
虚	-8.16602
直	-8.16929
游	-8.17146
拂	-8.17548
節	-8.17682
吾	-8.17824
舟	-8.17857
當時	-8.17963
足	-8.18071
醒	-8.18287
纔	-8.18448
船	-8.18648
等	-8.18662
涼	-8.18777
魂	-8.19134
夀	-8.19134
索	-8.19217
竒	-8.19306
命	-8.19348
底	-8.19362
號	-8.194
倦	-8.19639
筆	-8.19646
秀	-8.19665
痕	-8.19683
畔	-8.19768
雖	-8.19774
算	-8.1985
諸	-8.19951
唐	-8.19972
芙蓉	-8.20531
剪	-8.20564
鬢	-8.20627
譜	-8.2064
争	-8.2065
碎	-8.2069
湖	-8.20751
回首	-8.20955
靜	-8.21033
呉	-8.21038
㫁	-8.21138
擁	-8.21201
佳	-8.21246
徧	-8.21329
楊	-8.21465
妙	-8.21675
許	-8.21729
詠	-8.21776
蓮	-8.21994
願	-8.2239
鎖	-8.2256
狂	-8.22595
墜	-8.22665
窗	-8.22689
鼓	-8.22781
裡	-8.22825
仄	-8.23344
懷	-8.23348
期	-8.23454
久	-8.2364
逰	-8.23669
雅	-8.23743
濕	-8.23862
注	-8.24109
悲	-8.24193
列	-8.24366
鶴	-8.24446
親	-8.24712
村	-8.24852
車	-8.2509
恰	-8.25221
風雨	-8.25236
卿	-8.25269
院	-8.25367
揺	-8.25375
步	-8.25412
豔	-8.25862
逢	-8.25936
年年	-8.25964
歩	-8.26104
痩	-8.26307
泛	-8.2635
囘	-8.26352
守	-8.26517
秦	-8.26912
一首	-8.26951
孫	-8.27094
蝶	-8.27163
感	-8.27264
偷	-8.27277
些	-8.2741
逐	-8.27416
奈	-8.27417
籠	-8.2755
桃花	-8.27809
打	-8.27963
話	-8.28058
沉	-8.28384
西湖	-8.28528
此調	-8.28727
十二	-8.28994
憐	-8.29128
荷	-8.29365
嫩	-8.29725
殿	-8.29811
終	-8.29865
理	-8.29883
疑	-8.30113
各	-8.30196
臉	-8.30313
依舊	-8.3035
斜陽	-8.30516
次	-8.30772
寂寞	-8.31075
慵	-8.31477
牎	-8.3158
不見	-8.31736
袖	-8.31787
泉	-8.31804
里	-8.32015
丹	-8.32039
遶	-8.32091
齋	-8.32168
穿	-8.32273
錢	-8.32517
困	-8.32621
屏	-8.32738
失	-8.32748
河	-8.32817
遺	-8.32914
原	-8.33018
發	-8.33031
俺	-8.33131
繞	-8.33694
志	-8.3374
無限	-8.33777
如今	-8.33806
睂	-8.33954
故人	-8.34214
圖	-8.34359
一片	-8.34818
極	-8.34914
謾	-8.35017
捲	-8.35027
時節	-8.35477
随	-8.35786
平仄	-8.35845
琴	-8.3602
永	-8.36031
疊	-8.36608
趂	-8.36623
仲	-8.3666
窓	-8.3676
遲	-8.36983
春色	-8.37342
急	-8.37435
目	-8.37446
海棠	-8.37571
茶	-8.37635
懶	-8.3765
流水	-8.38052
軟	-8.38127
燭	-8.38427
伯	-8.38503
徑	-8.38648
主	-8.3882
桃	-8.39069
報	-8.39273
變	-8.39285
遇	-8.39526
夫	-8.39602
扇	-8.3966
佳人	-8.39666
呼	-8.39734
悶	-8.39741
必	-8.39987
慶	-8.39996
菊	-8.40044
端	-8.4007
邉	-8.4022
美	-8.4041
靈	-8.4075
荒	-8.40756
呵	-8.40789
恐	-8.41126
二字	-8.41158
點	-8.41376
士	-8.41518
悄	-8.41554
遥	-8.41663
嘆	-8.41668
鄉	-8.41679
友	-8.4169
絃	-8.41863
画	-8.41864
湘	-8.41946
並	-8.41994
展	-8.42579
梁	-8.42835
迎	-8.42888
嘗	-8.42964
青山	-8.431
柔	-8.43506
恁	-8.43808
縱	-8.43837
忽	-8.43878
翁	-8.44096
乆	-8.44223
戲	-8.44263
遂	-8.44339
占	-8.44623
死	-8.44679
識	-8.45443
桂	-8.45565
鳥	-8.45907
史	-8.46012
扶	-8.46053
不可	-8.46108
圍	-8.46162
氏	-8.46192
尾聲	-8.46351
牕	-8.46409
蒼	-8.46452
燕子	-8.46598
惹	-8.46755
無人	-8.46816
背	-8.46879
羽	-8.46958
園	-8.47013
傷	-8.4704
止	-8.47075
予	-8.47552
杜	-8.47744
盤	-8.47816
傾	-8.48048
刻	-8.48088
杯	-8.4858
遠	-8.48673
工	-8.48764
峰	-8.49119
綉	-8.49185
圓	-8.4923
麗	-8.49285
壓	-8.49339
別	-8.49355
響	-8.49591
腰	-8.496
拍	-8.49708
咲	-8.49747
藏	-8.49755
如此	-8.50027
余	-8.50162
種	-8.50172
漏	-8.50449
招	-8.50677
滴	-8.50699
陰	-8.50714
儘	-8.50824
態	-8.50828
况	-8.50834
深處	-8.5088
一枝	-8.50882
忙	-8.5124
冰	-8.51261
翆	-8.51269
封	-8.51444
繫	-8.51554
勸	-8.51608
旋	-8.51611
凄凉	-8.51626
桞	-8.51673
一聲	-8.5176
又名	-8.51869
田	-8.52018
羙	-8.52109
温	-8.52544
笛	-8.52626
楼	-8.52657
物	-8.52694
今日	-8.52696
絮	-8.52727
風月	-8.52851
關	-8.52949
壽	-8.53088
後段	-8.53136
一箇	-8.53199
𬒳	-8.5323
憔悴	-8.53317
實	-8.53599
寛	-8.53643
煞	-8.53659
註	-8.53809
乎	-8.53827
盃	-8.53855
一體	-8.53906
翦	-8.53932
縈	-8.53975
負	-8.54169
房	-8.54396
䦨干	-8.5449
市	-8.54669
寶	-8.54671
怪	-8.5472
當年	-8.54735
宗	-8.54903
渡	-8.54941
䖏	-8.55162
嵗	-8.55231
章	-8.55269
一曲	-8.55305
忍	-8.555
酔	-8.55588
斷腸	-8.55643
帳	-8.55655
户	-8.55708
掃	-8.5572
鴻	-8.55833
侵	-8.56044
無情	-8.56403
屬	-8.56408
一笑	-8.56706
思量	-8.56812
骨	-8.57132
韓	-8.57193
依	-8.57212
夏	-8.57224
洗	-8.57238
落花	-8.5737
遮	-8.57534
受	-8.57761
妓	-8.58041
段	-8.58152
㱕	-8.58175
垂楊	-8.58271
蓋	-8.58446
奏	-8.58448
恩	-8.58484
追	-8.58594
彈	-8.58626
匆匆	-8.58636
雙調	-8.58671
機	-8.58843
豈	-8.58874
歲	-8.59172
宮	-8.59181
銷	-8.59202
法	-8.59413
側	-8.59509
泥	-8.59604
偶	-8.59636
善	-8.59682
每	-8.59696
倩	-8.59846
修	-8.59905
堆	-8.60051
少年	-8.60211
闕	-8.60278
進	-8.6044
冠	-8.60596
顧	-8.60645
踈	-8.60909
娘	-8.61249
整	-8.61277
尊	-8.61404
停	-8.6148
浦	-8.61527
買	-8.61557
盈盈	-8.61615
徐	-8.6177
東坡	-8.61896
良	-8.61906
樂府	-8.61943
殺	-8.62356
選	-8.62542
艶	-8.62604
虎	-8.62639
尊前	-8.62652
怯	-8.6267
慣	-8.62726
前後	-8.62887
序	-8.63113
江上	-8.63316
省	-8.63648
瑞	-8.63866
無語	-8.6387
拜	-8.6427
仍	-8.64282
壁	-8.64619
叔	-8.64812
詞云	-8.65018
胡	-8.65069
前段	-8.65133
衾	-8.65179
盖	-8.6527
第	-8.65315
嬾	-8.65385
月明	-8.65623
六字	-8.65659
推	-8.65804
相見	-8.6597
忘	-8.6606
勞	-8.66167
綵	-8.66484
除	-8.66509
杳	-8.66565
蕊	-8.66587
木	-8.66668
楊栁	-8.6672
平生	-8.66739
東君	-8.66822
蜂	-8.67008
腸	-8.67045
時候	-8.67132
潮	-8.67277
武	-8.67427
䦨	-8.67429
梨花	-8.67576
軒	-8.67794
川	-8.67938
減	-8.67962
玊	-8.68
釵	-8.68118
腸斷	-8.68178
叢	-8.6819
様	-8.68232
徳	-8.68316
擬	-8.68334
心事	-8.68341
顔	-8.68466
禁	-8.68473
賢	-8.68495
司	-8.68632
澹	-8.68825
春光	-8.68856
蕩	-8.68875
功名	-8.68981
館	-8.69047
天氣	-8.69165
俗	-8.69219
闌干	-8.69325
三首	-8.69329
歇	-8.69458
聚	-8.69497
味	-8.69591
般	-8.70171
遣	-8.70455
求	-8.70591
根	-8.70627
今夜	-8.70636
吐	-8.70819
黃	-8.70938
峯	-8.70963
借	-8.7109
杏	-8.71101
扁舟	-8.71246
四字	-8.71526
苑	-8.71607
隠	-8.71619
彩	-8.71656
辭	-8.71754
徹	-8.71925
否	-8.72048
席	-8.72266
牡丹	-8.72285
惟有	-8.72325
何事	-8.72558
寒食	-8.72624
盛	-8.72687
不是	-8.73089
神仙	-8.73295
認	-8.73325
笙歌	-8.73341
記得	-8.73387
聖	-8.73464
屋	-8.73606
三字	-8.73638
師	-8.73669
窮	-8.73714
父	-8.73815
清明	-8.73855
福	-8.73931
訴	-8.74074
夕陽	-8.74228
么	-8.74498
賀	-8.74586
計	-8.74611
闌	-8.74648
一名	-8.74675
條	-8.74689
昏	-8.74694
惡	-8.74745
長安	-8.74776
抱	-8.74866
媚	-8.74922
切	-8.74964
十里	-8.75043
悠悠	-8.75165
始	-8.75177
損	-8.75193
烏	-8.75407
風吹	-8.75416
强	-8.75478
十年	-8.75606
棹	-8.75618
嚴	-8.75661
駕	-8.7568
無名氏	-8.75713
力	-8.75764
帝	-8.75831
凡	-8.76087
吳文英	-8.76119
雞	-8.7616
午	-8.76253
程	-8.76262
府	-8.76438
簷	-8.76507
鴉	-8.76728
蕋	-8.76777
代	-8.76897
陸	-8.76922
觴	-8.76959
鍾	-8.7707
煖	-8.7738
既	-8.77424
髻	-8.77529
尤	-8.77553
觧	-8.77611
冬	-8.77792
走	-8.77798
往	-8.77823
為誰	-8.77936
民	-8.78081
昨夜	-8.78118
末	-8.78255
渾	-8.78255
兵	-8.78292
乾	-8.783
五字	-8.78364
接	-8.7843
窺	-8.78467
戀	-8.78566
先生	-8.78575
瑶	-8.78829
裁	-8.78908
致	-8.78922
裙	-8.78949
持	-8.79093
裊	-8.79414
庭院	-8.79431
敲	-8.79445
隱	-8.79568
寧	-8.79613
存	-8.79621
御	-8.79634
盈	-8.79711
潤	-8.79819
琵琶	-8.79888
採	-8.79985
憑	-8.80015
姬	-8.80081
咱	-8.80101
斗	-8.80242
稀	-8.80368
去年	-8.8069
掛	-8.80831
攜	-8.80984
而今	-8.80989
暈	-8.81012
蘇	-8.81054
行人	-8.81131
不似	-8.8121
表	-8.81229
可憐	-8.81233
悵	-8.81328
惆悵	-8.81481
如何	-8.81552
犯	-8.81656
黄花	-8.81681
采	-8.81849
無數	-8.81888
四仄韻	-8.81941
牀	-8.81995
塞	-8.82015
第一	-8.8215
綺	-8.82379
頓	-8.82401
堤	-8.82474
毛	-8.82553
奴	-8.82848
兼	-8.82863
晝	-8.83134
牽	-8.83161
皇	-8.83226
蟬	-8.83318
簇	-8.83358
夕	-8.83398
談	-8.83605
鋪	-8.8362
商	-8.83776
義	-8.84004
軍	-8.84134
漁	-8.84362
録	-8.84405
洞	-8.84428
縁	-8.84436
㝷	-8.84474
缺	-8.84489
挂	-8.84518
秋風	-8.84682
𥘉	-8.85082
功	-8.85147
牛	-8.85311
砌	-8.85402
化	-8.85593
年少	-8.85807
會	-8.85905
熟	-8.85944
料	-8.86008
囬	-8.86027
投	-8.86124
二句	-8.8623
精	-8.86303
又一體雙調	-8.86353
今宵	-8.86445
篇	-8.86652
密	-8.86699
栁永	-8.86798
社	-8.86891
苔	-8.86899
縷	-8.86943
踏	-8.87153
片	-8.87187
五仄韻	-8.87204
月下	-8.87425
坡	-8.87488
俊	-8.87537
桃李	-8.87607
鬟	-8.87838
蕭蕭	-8.87878
土	-8.87953
鈎	-8.88268
聊	-8.88319
不如	-8.88378
不同	-8.88491
陵	-8.88498
征	-8.88527
梦	-8.88561
帆	-8.88571
迴	-8.88592
珠簾	-8.88808
䑓	-8.88832
拚	-8.8884
釣	-8.88928
格	-8.88977
金縷	-8.8921
泪	-8.89231
辛棄疾	-8.89346
何時	-8.89492
卧	-8.89556
牆	-8.89587
校	-8.89664
沒	-8.89708
竟	-8.8982
肯	-8.89824
含	-8.89861
張炎	-8.89925
梁州	-8.89956
據	-8.90061
渚	-8.90126
纎	-8.90323
侍	-8.90412
人生	-8.90561
脚	-8.90593
消息	-8.90605
堦	-8.90628
鼎	-8.90764
騎	-8.90777
賜	-8.90817
退	-8.90821
藥	-8.90871
楊花	-8.90881
嶺	-8.9098
酒醒	-8.91156
京	-8.91213
稍	-8.91281
刀	-8.91284
訪	-8.91335
付	-8.91348
㺯	-8.91557
行雲	-8.91717
漲	-8.91744
斂	-8.91836
墮	-8.91839
熏	-8.919
丁	-8.92
顰	-8.9224
況	-8.92625
杏花	-8.92662
一夜	-8.92671
續	-8.92776
闗	-8.92789
不得	-8.92831
緩	-8.9288
艷	-8.92888
梧桐	-8.92901
葢	-8.93385
塘	-8.93387
趁	-8.93399
遙	-8.93416
鐘	-8.93533
宻	-8.93567
快	-8.93641
蜀	-8.93711
断	-8.93792
一時	-8.93874
細雨	-8.93906
廣	-8.94185
一字	-8.9429
搖	-8.94333
壺	-8.94493
中秋	-8.94585
夣	-8.94713
周邦彦	-8.94726
又是	-8.94778
離愁	-8.94797
無言	-8.94815
鎻	-8.94939
勻	-8.94952
▁(	-8.94977
深院	-8.95014
甫	-8.95122
床	-8.95126
不堪	-8.95163
暫	-8.9529
排	-8.95373
洲	-8.95427
差	-8.95433
欄	-8.95455
憂	-8.95496
往事	-8.95679
黛	-8.95835
凭	-8.9586
甘	-8.96099
枉	-8.96198
捧	-8.96271
井	-8.96371
覔	-8.96518
厮	-8.96569
七字	-8.9661
人在	-8.96668
敎	-8.96674
蓬	-8.97001
拈	-8.97022
由	-8.97052
僧	-8.97248
姿	-8.97337
鬂	-8.97532
強	-8.97566
緊	-8.97583
摘	-8.97585
錯	-8.97706
避	-8.98105
食	-8.98133
傷心	-8.9826
布	-8.98312
編	-8.98667
供	-8.9869
江山	-8.98722
羣	-8.9892
抛	-8.98925
秋千	-8.98969
曹	-8.99067
無奈	-8.99071
燒	-8.99237
一㸃	-8.99357
飄零	-8.99496
十分	-8.99497
句法	-8.99651
考	-8.9974
没	-8.99742
加	-8.99743
街	-8.99796
蟾	-8.99844
虛	-8.99996
箋	-9.0003
衰	-9.00144
窻	-9.00158
忩	-9.00344
仁	-9.00447
南浦	-9.00452
施	-9.00456
敢	-9.00488
䄂	-9.00494
池塘	-9.0053
印	-9.00556
承	-9.00653
襟	-9.00662
滿地	-9.00711
嗟	-9.00718
昔	-9.00777
秋水	-9.00814
棲	-9.00858
咽	-9.00882
閙	-9.01127
靑	-9.01148
驛	-9.01149
撲	-9.01199
古今	-9.01363
幸	-9.0137
収	-9.01406
戯	-9.01412
畵	-9.01418
禮	-9.01555
豪	-9.01621
剛	-9.0168
徘徊	-9.01734
兮	-9.01937
花前	-9.01992
只有	-9.02102
無計	-9.02137
何人	-9.0215
臥	-9.02178
誰家	-9.02226
饒	-9.02294
数	-9.02316
團	-9.02374
淮	-9.02384
鷗	-9.02569
正是	-9.02571
湏	-9.02679
殊	-9.02776
降	-9.02804
暑	-9.02815
妾	-9.02824
揚州	-9.02919
此與	-9.02926
祖	-9.03095
相對	-9.03238
千古	-9.03246
容易	-9.03296
舒	-9.03386
嫌	-9.03409
獻	-9.0341
填	-9.03415
門外	-9.03596
鴛	-9.03626
性	-9.03642
品	-9.03655
簡	-9.03657
懸	-9.03689
祝	-9.03691
睡起	-9.03701
凍	-9.03737
宣	-9.03772
鞭	-9.03862
貴	-9.03937
尺	-9.03969
飛絮	-9.03974
陶	-9.0445
陣	-9.0449
吴	-9.04508
咏	-9.04559
貪	-9.04565
紗	-9.04592
花枝	-9.04603
喧	-9.04606
鈿	-9.04668
携	-9.04777
較	-9.04833
熱	-9.05391
酬	-9.0541
天上	-9.05454
褪	-9.05697
不到	-9.05738
玉人	-9.05745
鵲	-9.05902
膩	-9.05919
參差	-9.05993
鄭	-9.05998
佩	-9.06028
赴	-9.06266
請	-9.06278
融	-9.06291
撰	-9.06411
美人	-9.06555
重重	-9.06661
不盡	-9.06698
靄	-9.06732
乗	-9.06967
别後	-9.06989
凌	-9.07051
哀	-9.07109
量	-9.07113
個	-9.07178
姑	-9.07184
瀟湘	-9.07223
眞	-9.07449
血	-9.07471
撥	-9.07472
娥	-9.07555
怎生	-9.07667
利	-9.07708
欺	-9.07783
阻	-9.07868
鎮	-9.08112
風光	-9.08168
輪	-9.08193
碧雲	-9.08212
嘉	-9.08396
佳期	-9.08449
寺	-9.08477
人家	-9.08622
競	-9.0867
樽前	-9.08804
何日	-9.08864
零	-9.08866
爾	-9.08975
筵	-9.09036
果	-9.09138
声	-9.09257
環	-9.09306
際	-9.09332
夜深	-9.09471
惱	-9.09544
柱	-9.09598
洪	-9.09606
縹緲	-9.09895
靣	-9.09919
富貴	-9.09928
夢魂	-9.09983
幕	-9.10081
不成	-9.10188
閉	-9.10266
沾	-9.10551
灑	-9.1075
爐	-9.10898
席上	-9.10926
奉	-9.1107
脱	-9.11101
牋	-9.1111
酌	-9.11397
覓	-9.11406
芳菲	-9.11465
蕭	-9.11479
侯	-9.11612
花影	-9.11663
帽	-9.11672
枯	-9.11712
魏	-9.11723
衫	-9.11791
有人	-9.11856
并	-9.12004
泣	-9.1204
婦	-9.12099
戸	-9.12179
獨自	-9.12255
呀	-9.12365
髪	-9.12443
鬬	-9.12631
丘	-9.12633
妻	-9.1274
蘇軾	-9.12777
凌波	-9.12782
進士	-9.12794
墨	-9.12795
領	-9.12921
闋	-9.13022
歌舞	-9.13055
紀	-9.1309
黄金	-9.13167
簾幙	-9.13194
汝	-9.13299
胭脂	-9.133
幾度	-9.13445
夢裏	-9.13602
明朝	-9.13635
金釵	-9.13668
今朝	-9.13789
皺	-9.13917
薦	-9.13936
墻	-9.14005
舊時	-9.14084
樓上	-9.14152
檻	-9.14215
徃	-9.14256
精神	-9.14284
押	-9.14293
重陽	-9.14346
塲	-9.14429
津	-9.14547
妍	-9.14571
律	-9.14622
甲	-9.14642
一枝花	-9.14669
簾櫳	-9.14955
蝴蝶	-9.14978
昌	-9.15148
支	-9.15171
欹	-9.15175
癡	-9.15195
哉	-9.15208
依依	-9.15256
今古	-9.15271
第二句	-9.1543
畧	-9.15486
夫人	-9.15488
蛾	-9.15523
第三句	-9.15734
旅	-9.15768
赤	-9.15775
孟	-9.15789
悔	-9.15855
浸	-9.15904
巾	-9.16042
不住	-9.16089
參	-9.1612
禽	-9.16124
雷	-9.16215
阿	-9.16311
干	-9.16313
依然	-9.1632
不能	-9.16362
衆	-9.16413
磨	-9.16414
暝	-9.16434
芳心	-9.16598
春寒	-9.16699
斟	-9.16726
類	-9.16748
寂	-9.16848
調見	-9.16983
不管	-9.16986
别離	-9.17121
蠻	-9.17127
綿	-9.17352
紅塵	-9.17357
纖	-9.17373
雜	-9.174
巢	-9.17402
班	-9.17411
盟	-9.17418
酥	-9.17454
浣溪沙	-9.17464
緣	-9.17723
覷	-9.17776
簮	-9.17778
跡	-9.17878
囘首	-9.17942
落日	-9.17967
卷	-9.18084
漾	-9.18132
盻	-9.18227
繁	-9.18345
雄	-9.18394
襯	-9.18525
蒲	-9.18552
等閒	-9.18712
㳺	-9.18797
危	-9.18919
促	-9.19016
眀	-9.19043
歳	-9.19137
蓬萊	-9.19352
徒	-9.19415
忠	-9.19455
寓	-9.19512
文章	-9.19605
詞之	-9.1989
谷	-9.199
减	-9.20018
梢	-9.20098
鼔	-9.20123
毎	-9.20132
一日	-9.20176
西樓	-9.20335
鬼	-9.20442
閨	-9.20456
肥	-9.20468
歛	-9.20482
枝上	-9.20551
誇	-9.2067
耶	-9.20814
旗	-9.20889
探	-9.20902
只恐	-9.20945
層	-9.21022
呌	-9.21124
四句	-9.21301
霓裳	-9.21329
夜來	-9.21337
髮	-9.2134
綻	-9.21378
巖	-9.21399
朩	-9.21418
逸	-9.21458
遷	-9.21517
三月	-9.21567
分明	-9.21645
舍	-9.21659
人去	-9.21737
榮	-9.21778
羊	-9.21786
仄韻	-9.21789
鐙	-9.21818
溼	-9.21838
明日	-9.22013
汀	-9.22119
鐵	-9.22153
簪	-9.22177
疾	-9.22197
織	-9.22242
射	-9.22255
歌聲	-9.2236
過了	-9.22388
康	-9.22428
紛紛	-9.22455
延	-9.22461
今年	-9.22471
部	-9.22475
弱	-9.22537
四平韻	-9.2255
如許	-9.22611
製	-9.22646
政	-9.22783
侣	-9.22838
假	-9.22871
小樓	-9.22908
無端	-9.22966
園林	-9.23094
穏	-9.23528
羅衣	-9.23534
固	-9.23558
鮮	-9.23569
順	-9.23579
候	-9.23684
離恨	-9.23699
練	-9.23719
殘紅	-9.23829
張先	-9.23861
運	-9.23903
鬆	-9.23909
暗香	-9.23994
春來	-9.24007
牙	-9.24017
障	-9.24093
暮雲	-9.24103
分付	-9.24179
揚	-9.24188
頗	-9.24245
花間	-9.24288
圖譜	-9.24288
羡	-9.24345
座	-9.24578
零落	-9.24595
㬉	-9.24604
晨	-9.24611
埽	-9.2463
郡	-9.24638
殷勤	-9.24658
棃花	-9.24737
花落	-9.24849
劍	-9.24963
右	-9.24968
脫	-9.25
清香	-9.25113
菴	-9.25186
闊	-9.25203
浴	-9.25292
霽	-9.25306
翼	-9.25308
䕶	-9.25349
英雄	-9.25369
楊柳	-9.25401
陌	-9.25559
厭	-9.25576
猛	-9.25618
呈	-9.25626
俏	-9.2566
澤	-9.25682
窄	-9.25718
階	-9.2572
杖	-9.25749
簫	-9.2606
辨	-9.26183
腔	-9.2626
瑤	-9.2626
簟	-9.26307
懽	-9.26395
息	-9.26435
趙長卿	-9.26539
費	-9.2663
積	-9.26711
厭厭	-9.26777
以為	-9.26858
駐	-9.26966
德	-9.27106
畫堂	-9.27315
豆	-9.27413
沉沉	-9.27447
双	-9.27452
槐	-9.27453
盡日	-9.27591
百年	-9.27737
綴	-9.2775
増	-9.2782
附	-9.27836
叠	-9.27863
左	-9.2791
凄	-9.27948
晁補之	-9.28038
風前	-9.28179
念奴嬌	-9.28195
仗	-9.28206
詞一巻	-9.28395
花開	-9.28436
滅	-9.28462
郊	-9.28486
藍	-9.28547
晉	-9.2856
天地	-9.28583
查	-9.28601
囱	-9.2864
登臨	-9.28807
離别	-9.2884
吕	-9.28937
濟	-9.28937
澄	-9.2904
棄	-9.29302
業	-9.2936
板	-9.29475
威	-9.29487
雙燕	-9.29561
長亭	-9.29674
圗	-9.29695
巫山	-9.29763
夢中	-9.29878
雕	-9.29899
枝頭	-9.29908
年華	-9.2992
幾時	-9.29967
湯	-9.29987
焉	-9.30028
攜手	-9.30044
到如今	-9.30069
新愁	-9.30072
淸	-9.3008
慿	-9.30196
無力	-9.30223
盧	-9.30412
蘂	-9.30436
虹	-9.30768
額	-9.30778
擊	-9.3081
境	-9.30823
使君	-9.30853
笙	-9.31101
南北	-9.31132
玲瓏	-9.31182
都是	-9.3119
應是	-9.31261
朱顔	-9.3127
滿庭芳	-9.31492
江梅	-9.31493
梳	-9.3155
繁華	-9.3158
春水	-9.31581
珮	-9.31606
宵	-9.31814
托	-9.31952
母	-9.32166
縣	-9.3226
授	-9.3226
捱	-9.3226
廟	-9.32292
檀	-9.32423
淒涼	-9.32757
試問	-9.32924
銅	-9.32988
燈火	-9.33036
刺	-9.33041
富	-9.33051
黒	-9.33056
春愁	-9.33107
鞦韆	-9.33117
來時	-9.33257
束	-9.33356
慘	-9.33397
樓臺	-9.33503
象	-9.33568
詞名	-9.33593
童	-9.3374
特	-9.33777
龜	-9.3384
途	-9.33846
濤	-9.33873
辛	-9.34006
誠	-9.34134
絳	-9.34191
設	-9.34193
桐	-9.34196
彦	-9.34219
勢	-9.3425
穩	-9.3432
雙雙	-9.34468
千金	-9.34503
隊	-9.34597
貧	-9.3461
擎	-9.34643
湖上	-9.34728
教人	-9.34866
江湖	-9.34961
忒	-9.34981
乾坤	-9.34982
挽	-9.35023
江頭	-9.35046
獨倚	-9.35102
銀河	-9.35142
陳允平	-9.35215
洒	-9.35267
綃	-9.35288
披	-9.35317
儂	-9.3534
埋	-9.35344
蕙	-9.3537
反	-9.35413
筭	-9.35433
水龍吟	-9.35474
召	-9.35598
趣	-9.35802
幾許	-9.35817
殢	-9.35915
王孫	-9.35941
秋色	-9.36024
知音	-9.36054
宅	-9.36175
妬	-9.3621
萼	-9.36268
西園	-9.36496
厎	-9.3651
明年	-9.3654
雲雨	-9.3658
猜	-9.36604
肌	-9.36819
凨流	-9.36874
飛去	-9.36942
詔	-9.3698
邀	-9.36982
安排	-9.37076
二十	-9.37124
廻	-9.37191
别來	-9.37343
天香	-9.3735
顯	-9.37398
竿	-9.37407
蔡	-9.37432
夢斷	-9.37533
拖	-9.37562
裳	-9.37587
提	-9.37726
挑	-9.37729
不禁	-9.37759
權	-9.37783
撚	-9.37783
情緒	-9.37858
蠟	-9.3792
喬	-9.38046
夷	-9.38052
殘月	-9.38159
作者	-9.38166
橫	-9.3819
芭蕉	-9.38213
蕚	-9.38214
臨江仙	-9.38229
還是	-9.38233
東籬	-9.38254
又一	-9.3827
逺山	-9.38278
換頭	-9.38592
架	-9.38611
紙	-9.38634
鸎	-9.38636
畫樓	-9.38684
袂	-9.38757
豐	-9.38781
三仄韻	-9.38841
無處	-9.38841
淨	-9.38985
酸	-9.39052
以下	-9.39083
把酒	-9.39157
數聲	-9.39165
閒愁	-9.39303
銷魂	-9.39322
清風	-9.39322
傷春	-9.39323
歸路	-9.39353
馮	-9.39383
錄	-9.39392
依稀	-9.39474
當日	-9.39641
三句	-9.39792
㡌	-9.39814
鷓鴣天	-9.39818
鶯聲	-9.39866
魄	-9.39909
第五句	-9.40127
告	-9.40178
季	-9.40181
溜	-9.40213
覆	-9.40228
賀新郎	-9.40229
可惜	-9.40265
白雲	-9.40309
紋	-9.40495
丹青	-9.40546
冷落	-9.40585
鸚鵡	-9.40661
蹙	-9.4067
釀	-9.40675
拆	-9.40679
何妨	-9.40734
六仄韻	-9.40755
標	-9.40832
渺	-9.40929
諧	-9.40948
翠袖	-9.40971
賣	-9.40974
岳	-9.40992
灰	-9.4105
荅	-9.41077
卜	-9.4108
冉冉	-9.411
雨過	-9.41108
不覺	-9.41111
單	-9.4128
四首	-9.41295
雲山	-9.41378
萍	-9.41812
叅	-9.41818
適	-9.41883
鷺	-9.41984
貌	-9.41991
劉郎	-9.42108
荷花	-9.42167
線	-9.42209
紅葉	-9.42217
履	-9.42273
潜	-9.42284
光隂	-9.42295
羨	-9.42341
亡	-9.42655
恰便似	-9.42716
揮	-9.42739
㠶	-9.42795
春山	-9.42907
一枕	-9.42975
秋光	-9.43006
一句	-9.43074
千萬	-9.43129
蔵	-9.43134
潛	-9.43178
自有	-9.43187
薄倖	-9.43189
飛來	-9.4327
重來	-9.43288
青青	-9.43299
新月	-9.4346
□	-9.43499
鄰	-9.43505
另	-9.43517
逞	-9.4359
瑩	-9.43601
無聊	-9.43602
夜月	-9.4364
蒼苔	-9.43641
青春	-9.43678
煩	-9.43766
花下	-9.43778
金蓮	-9.43857
質	-9.43875
界	-9.43945
厚	-9.44049
南枝	-9.44129
平聲	-9.44142
陌上	-9.44281
春歸	-9.4429
叶韻	-9.44353
箏	-9.4443
清平樂	-9.44487
它	-9.44491
春夢	-9.44599
一作	-9.44655
描	-9.44703
風露	-9.44724
鞍	-9.44727
一百	-9.44756
臘	-9.44806
劒	-9.44868
炎	-9.45158
▁按	-9.45191
樽	-9.45242
腮	-9.45352
卒	-9.45386
首句	-9.45534
何如	-9.45625
舌	-9.45693
䡖	-9.45709
助	-9.4571
朋	-9.45733
一番	-9.45774
無心	-9.46158
痛	-9.46164
濶	-9.4618
舊遊	-9.46497
鬭	-9.46604
兩句	-9.46619
花飛	-9.46747
春去	-9.46837
賔	-9.46945
廢	-9.47003
攀	-9.47023
例	-9.47028
盞	-9.47053
起句	-9.47079
新聲	-9.47126
學士	-9.47134
夜雨	-9.47361
煙雨	-9.47493
撫	-9.47501
妖	-9.47569
第四句	-9.47736
妃	-9.47759
總是	-9.47789
幃	-9.47826
敗	-9.47859
尋芳	-9.47896
嫁	-9.47948
漠漠	-9.47963
麝	-9.4804
迢迢	-9.48055
淡月	-9.48055
澗	-9.48326
敬	-9.4835
乞	-9.48351
鹿	-9.4836
符	-9.48379
跨	-9.48396
嬋娟	-9.48405
此時	-9.48461
樵	-9.48518
輝	-9.48606
平韻	-9.4877
十三	-9.48805
桑	-9.48822
匀	-9.48829
帯	-9.48853
黯	-9.48874
櫻桃	-9.48999
世間	-9.49143
形	-9.49166
的是	-9.49189
室	-9.49225
廊	-9.49227
扵	-9.49244
主人	-9.49285
舘	-9.49321
掌	-9.49459
誰知	-9.49557
建	-9.49565
汗	-9.4962
賓	-9.49654
乘	-9.49719
妒	-9.49736
擔	-9.49739
不勝	-9.49827
源	-9.5001
不用	-9.50098
鱗	-9.50105
前腔	-9.50309
笑語	-9.50373
居士	-9.50389
不須	-9.50503
日月	-9.50534
有情	-9.50611
陪	-9.50654
保	-9.50671
健	-9.507
㸃㸃	-9.50704
韵	-9.50716
緒	-9.50733
小院	-9.5077
鴨	-9.50862
緑楊	-9.50963
效	-9.51072
滑	-9.51126
箭	-9.51129
腰肢	-9.51135
咫尺	-9.51149
知道	-9.51248
歴	-9.51251
天下	-9.51255
畨	-9.51274
害	-9.5133
免	-9.51341
贏得	-9.51469
從今	-9.51474
斑	-9.51516
㾗	-9.51579
耕	-9.51588
日暮	-9.51627
錢塘	-9.51629
蘋	-9.51683
老去	-9.51694
喚起	-9.51698
輕寒	-9.51809
枕上	-9.51837
那堪	-9.52184
此情	-9.52326
治	-9.52455
梅苑	-9.52477
怒	-9.52487
臂	-9.52516
栽	-9.52539
籬	-9.52631
冶	-9.52733
故園	-9.5275
深深	-9.52791
宇	-9.52892
郭	-9.52903
寵	-9.52958
中有	-9.52988
弹	-9.53027
弟	-9.53093
白髪	-9.53131
依約	-9.53148
行樂	-9.53185
噴	-9.53347
犀	-9.53415
夾	-9.5349
岫	-9.53491
踏青	-9.5353
春意	-9.53588
宋人	-9.53617
酣	-9.53668
毛滂	-9.53706
輕盈	-9.53712
淒	-9.53827
付與	-9.53828
恩情	-9.53832
風味	-9.53853
針	-9.53864
營	-9.53872
莊	-9.53902
服	-9.53905
䨇	-9.5392
畱	-9.53974
目斷	-9.54065
爛	-9.54154
吹簫	-9.54232
係	-9.54252
尖	-9.5428
益	-9.54339
皮	-9.54363
滿江紅	-9.5439
戴	-9.5439
黄鸝	-9.5442
䏻	-9.54429
年時	-9.54432
史達祖	-9.54432
嗔	-9.54443
雲鬟	-9.54683
草堂	-9.54777
擲	-9.5484
銜	-9.54843
欵	-9.54846
飛花	-9.54852
鬚	-9.54859
壯	-9.54895
張翥	-9.54911
簾外	-9.55021
用韻	-9.55087
山中	-9.55089
補	-9.55154
九字	-9.5519
銀燭	-9.55192
薫	-9.55223
瀟灑	-9.55245
欠	-9.55374
温柔	-9.5554
望斷	-9.55567
驚起	-9.55736
落紅	-9.55775
視	-9.55797
養	-9.55822
觸	-9.55823
無窮	-9.55899
五句	-9.55946
秋聲	-9.56045
斯	-9.56246
閤	-9.56262
剰	-9.56318
孝	-9.56367
香消	-9.56419
璧	-9.56497
珍	-9.56596
蛩	-9.56633
靨	-9.56725
詳	-9.56739
騰	-9.56785
猿	-9.56792
瓦	-9.56795
煩惱	-9.56804
冩	-9.56807
肩	-9.56945
一葉	-9.56965
去聲	-9.57048
繼	-9.57228
相識	-9.57236
崖	-9.57271
圃	-9.57274
聼	-9.57332
便是	-9.57408
青樓	-9.57452
瓶	-9.57724
圎	-9.5774
綰	-9.5779
斜日	-9.57956
仕	-9.58037
不拘	-9.58107
誰與	-9.58215
邦	-9.58255
菩薩蠻	-9.58258
窈窕	-9.58268
鮫綃	-9.5827
離情	-9.58272
誦	-9.58283
霄	-9.58316
仄聲	-9.58336
後起	-9.58346
抹	-9.58404
五更	-9.58535
次韻	-9.58566
鞋	-9.58614
不道	-9.58632
𥿄	-9.5872
浄	-9.58746
凋	-9.58782
勾	-9.58804
雙調一百	-9.58911
驟	-9.58997
嘯	-9.59004
淚眼	-9.59041
偎	-9.59056
黄庭堅	-9.59074
薰	-9.59127
翰	-9.59137
儀	-9.5917
麻	-9.59176
南山	-9.59212
茅	-9.59226
㟁	-9.5925
傲	-9.59256
三十	-9.59312
萬事	-9.59404
詞别首	-9.59506
日日	-9.59517
一年	-9.59656
筝	-9.59695
挿	-9.59699
鑑	-9.59705
篆	-9.59742
妖嬈	-9.59774
風景	-9.59794
瞻	-9.59922
鶯啼	-9.59958
夢窗	-9.6006
迥	-9.60103
鷄	-9.60255
護	-9.60287
蝶戀花	-9.60302
向人	-9.60324
獨立	-9.60532
歸期	-9.60654
膽	-9.60695
戦	-9.60778
稼軒	-9.60806
茫茫	-9.60812
泊	-9.60839
當初	-9.60974
祠	-9.61234
髙樓	-9.61301
遭	-9.61303
两	-9.61343
悞	-9.61507
瑶池	-9.61507
㡬度	-9.61544
蛾眉	-9.61629
留連	-9.61644
憑誰	-9.61712
伏	-9.61752
崇	-9.61758
麥	-9.61761
関	-9.6177
㡬時	-9.61806
西江月	-9.61845
議	-9.61849
為我	-9.61914
九日	-9.61922
辜負	-9.62046
值	-9.62151
同心	-9.62202
看花	-9.62217
太平	-9.62237
壘	-9.62283
字俱仄聲	-9.62284
帷	-9.62294
婉	-9.62298
玩	-9.62327
韶華	-9.62346
價	-9.62383
特地	-9.62395
春衫	-9.626
十五	-9.6266
叟	-9.62769
納	-9.62786
紅粉	-9.62833
馳	-9.62838
詞有	-9.629
零亂	-9.62953
端的是	-9.62961
隴	-9.63225
荆	-9.63258
判	-9.6326
䇿	-9.63294
貼	-9.63321
樣	-9.63334
煙水	-9.63344
八字	-9.63381
不斷	-9.63402
榭	-9.63437
此際	-9.63609
日長	-9.6361
擺	-9.63813
范	-9.63865
颺	-9.63903
祥	-9.64124
山谷	-9.64165
油	-9.64309
粘	-9.64329
博	-9.64401
朶	-9.64502
造	-9.64597
如水	-9.64605
菱花	-9.64626
私	-9.64671
猶在	-9.64741
君王	-9.64849
插	-9.64855
好夢	-9.64886
従	-9.64919
所謂	-9.64975
舊日	-9.65042
置	-9.65298
結句	-9.65318
岩	-9.65414
仰	-9.6544
戰	-9.65452
逕	-9.6546
後結	-9.65618
蕪	-9.65731
南樓	-9.65751
衡	-9.65927
彭	-9.6595
髩	-9.65981
疑是	-9.66094
羅綺	-9.66185
一點	-9.66189
又還	-9.66335
尚書	-9.66385
天然	-9.66442
潭	-9.66455
淹	-9.66463
灘	-9.66482
科	-9.66493
答	-9.66495
藤	-9.66499
天際	-9.66511
杜宇	-9.6654
鶯花	-9.66624
緑隂	-9.66659
藕	-9.66711
蘆	-9.66809
夢回	-9.66937
梭	-9.66959
甜	-9.66961
郷	-9.67022
玉樓	-9.67031
吞	-9.67036
宋詞	-9.67084
流鶯	-9.67145
耐	-9.67257
訛	-9.67436
騷	-9.67465
章臺	-9.67486
蒙	-9.675
兩三	-9.67513
彩雲	-9.67519
悉	-9.67522
滿院	-9.6755
略	-9.67552
塗	-9.67552
賽	-9.67572
周詞	-9.67668
悵望	-9.67703
香霧	-9.67724
畫船	-9.67805
簾捲	-9.67937
三更	-9.67953
滿眼	-9.67954
翹	-9.67999
人静	-9.68114
蟲	-9.6816
徃事	-9.68268
弓	-9.68375
柳永	-9.68379
四海	-9.68401
其詞	-9.68499
暮雨	-9.68501
悄悄	-9.68503
洛	-9.68503
一醉	-9.68572
佛	-9.68618
案	-9.68622
謀	-9.68665
託	-9.68667
灣	-9.68699
西山	-9.68705
烘	-9.68722
長生	-9.68795
花隂	-9.68842
何似	-9.68858
終日	-9.68868
配	-9.6914
吉	-9.6915
屈	-9.69189
翡翠	-9.69204
浮雲	-9.69391
猶自	-9.69407
春思	-9.69465
心情	-9.69543
或作	-9.69566
帥	-9.69681
監	-9.69687
飯	-9.69703
毫	-9.6971
沼	-9.6974
一詞	-9.69745
泰	-9.69757
涙	-9.69775
活	-9.69779
周美成	-9.69813
清曉	-9.70025
亂紅	-9.70096
楊无咎	-9.70099
乳	-9.70201
巷	-9.70258
邨	-9.70269
娉婷	-9.70294
嫰	-9.70311
覩	-9.7033
虞美人	-9.70335
詞話	-9.70347
燈前	-9.70422
衰草	-9.70457
昭	-9.70552
一半	-9.70751
未了	-9.70755
朦朧	-9.70776
一簾	-9.70777
虞	-9.7081
歸来	-9.70818
掠	-9.70828
瓜	-9.7083
叚	-9.70844
周密	-9.70869
盼	-9.7087
喫	-9.70876
洞仙歌	-9.70877
篷	-9.70894
雕鞍	-9.70919
四時	-9.70921
殘照	-9.71082
瑶臺	-9.71189
東西	-9.71207
舊事	-9.71209
院落	-9.71266
了些	-9.71323
茵	-9.71382
委	-9.71435
水調歌頭	-9.7145
敵	-9.71459
七夕	-9.71523
第八句	-9.71554
姓	-9.71596
段九句	-9.71679
此亦	-9.71793
鷗鷺	-9.71805
繡簾	-9.71914
藻	-9.71972
帰	-9.7198
檐	-9.71992
撒	-9.72003
何須	-9.72007
落梅	-9.72024
奇	-9.72029
宛轉	-9.72108
情懐	-9.72178
奩	-9.72313
庵	-9.72526
哭	-9.72545
現	-9.72569
驅	-9.7257
故國	-9.72573
網	-9.72573
㕘	-9.72574
逗	-9.72575
幙	-9.72602
月華	-9.72963
滿目	-9.73005
芽	-9.73105
巴	-9.73105
嘶	-9.73107
那更	-9.73153
鵉	-9.73162
五首	-9.73171
畫橋	-9.7319
燈花	-9.73276
載酒	-9.73368
屏山	-9.73412
新詞	-9.73413
淚痕	-9.73415
元宵	-9.73419
千載	-9.73492
隣	-9.7363
陽春	-9.73664
螺	-9.73683
薔薇	-9.7369
勒	-9.73697
亭亭	-9.7372
个	-9.73748
東風吹	-9.73883
三平韻	-9.74209
閗	-9.74284
纒	-9.7429
渠	-9.74302
沁園春	-9.74335
一般	-9.74369
紛	-9.74381
玉樓春	-9.74387
猶有	-9.74396
彎	-9.74567
五平韻	-9.74769
𣺌	-9.7487
眼前	-9.74971
宛	-9.75397
不忍	-9.75412
謳	-9.75422
和氣	-9.7546
奪	-9.75474
門前	-9.75604
一縷	-9.75638
不肯	-9.75653
今夕	-9.75713
斷魂	-9.75732
顔色	-9.75758
與此	-9.75857
白雪	-9.7589
雀	-9.75901
浪淘沙	-9.7602
覽	-9.76048
辦	-9.76081
一畨	-9.76091
春心	-9.76116
秦樓	-9.76134
二體	-9.76182
烟雨	-9.76264
春情	-9.76271
銀屏	-9.763
千年	-9.76311
疎雨	-9.76329
三年	-9.76341
厯	-9.76436
評	-9.76451
脂	-9.76505
裘	-9.76509
潘	-9.7652
蟻	-9.76579
局	-9.76587
處處	-9.76645
趙彦端	-9.76666
一闋	-9.76697
萬頃	-9.76812
管絃	-9.76834
蘭舟	-9.76847
前結	-9.76856
聲聲	-9.76912
百花	-9.76956
金陵	-9.7698
腹	-9.77009
醉裏	-9.77025
飽	-9.77204
肉	-9.77215
蘸	-9.77231
謁金門	-9.77263
祗	-9.77273
香風	-9.77297
十八	-9.77472
囊	-9.77513
楚天	-9.7763
秦觀	-9.77753
極目	-9.77781
杜安世	-9.77814
韋	-9.77831
栖	-9.77834
玄	-9.77839
荼䕷	-9.77846
芍藥	-9.77853
橘	-9.77854
壮	-9.77864
裝	-9.77883
洞庭	-9.77926
孤山	-9.77999
錦帳	-9.78093
旦	-9.7813
重門	-9.78146
)○	-9.78189
縦	-9.78396
自古	-9.78402
隻	-9.78451
米	-9.78459
逼	-9.78478
月色	-9.78498
宋玉	-9.78562
餘香	-9.78596
何在	-9.78632
春暮	-9.78673
自號	-9.78678
别有	-9.78729
辰	-9.7874
九十	-9.78865
段各四句	-9.78889
愚	-9.78896
花底	-9.78921
梧	-9.78952
霏	-9.79015
奔	-9.79035
希	-9.79043
寂寂	-9.79044
屢	-9.7905
從前	-9.79058
講	-9.79061
甌	-9.79405
晏	-9.7942
新詩	-9.79461
自是	-9.79567
懨懨	-9.79577
錫	-9.79587
前村	-9.79623
無際	-9.79628
儒	-9.79629
僕	-9.79631
醉鄉	-9.79662
三千	-9.79667
揾	-9.79676
第三	-9.79695
蹤	-9.7983
人歸	-9.79918
見了	-9.79959
水邊	-9.80072
聞道	-9.80088
心腸	-9.80104
陸游	-9.80151
春事	-9.80175
庚	-9.80205
鉛	-9.80209
世事	-9.80263
稿	-9.80276
槎	-9.80297
嫦娥	-9.80305
蔣	-9.80322
良宵	-9.80327
蕭索	-9.80347
一春	-9.80355
好事近	-9.80357
陽關	-9.80379
景物	-9.80398
韶光	-9.8041
携手	-9.80416
幾番	-9.80639
袍	-9.80656
歐陽修	-9.80689
麽	-9.80722
簾幕	-9.80728
新來	-9.80742
如夢	-9.808
述	-9.80857
險	-9.80886
籍	-9.80901
炷	-9.80927
鳯凰	-9.8093
陽闗	-9.81018
與前	-9.81082
不語	-9.81195
回頭	-9.8127
從來	-9.81362
芝	-9.81426
淡淡	-9.81433
道是	-9.81447
前後段	-9.81448
不敢	-9.81484
貫	-9.81494
相看	-9.8151
来時	-9.81604
影裏	-9.81652
小山	-9.81769
夜寒	-9.81776
七十	-9.81856
雙飛	-9.81994
跳	-9.82024
𫾣	-9.82105
具	-9.8211
壇	-9.82114
混	-9.82114
典	-9.82117
農	-9.8214
蘓	-9.82146
单	-9.82156
塢	-9.82156
後段起句	-9.82189
難忘	-9.82286
第二	-9.82389
凝竚	-9.82406
亦有	-9.82409
夢覺	-9.82563
忘了	-9.82589
燼	-9.82627
門掩	-9.82627
翫	-9.82658
臨風	-9.82689
為君	-9.82694
兄	-9.8272
示	-9.82758
窩	-9.82758
因此上	-9.82765
梯	-9.8278
相憶	-9.82818
清歌	-9.82837
風輕	-9.82857
朱户	-9.82887
塵土	-9.82997
錦字	-9.83061
音信	-9.83085
不足	-9.83103
好景	-9.83139
離人	-9.832
倦客	-9.83263
壑	-9.83319
輿	-9.83331
䰟	-9.83374
尹	-9.83385
皋	-9.83396
用平	-9.83396
惠	-9.83404
滋味	-9.83408
不必	-9.8342
冷清清	-9.83432
塵埃	-9.83444
消磨	-9.83539
累	-9.83559
一任	-9.83575
多病	-9.83577
詞同惟	-9.8367
翅	-9.83916
五湖	-9.83969
字俱平聲	-9.84009
濛濛	-9.84046
离	-9.84068
臙脂	-9.84075
淵明	-9.84078
月上	-9.84301
么篇	-9.84328
何必	-9.84351
魯	-9.84588
埀	-9.8464
踪	-9.84653
禪	-9.84668
一調	-9.84745
題詩	-9.84777
壷	-9.84787
堅	-9.84893
長是	-9.84896
消魂	-9.84897
和淚	-9.84932
幽香	-9.84979
猶未	-9.8505
賀鑄	-9.85068
紅樓	-9.8516
露華	-9.85288
獸	-9.85314
新水令	-9.85364
玉簫	-9.85479
程垓	-9.85725
周紫芝	-9.85753
一夢	-9.85826
捨	-9.85932
弦	-9.85944
顦顇	-9.85947
有誰	-9.85953
葱	-9.85957
祐	-9.85959
恣	-9.8596
曉來	-9.85962
靠	-9.85977
餞	-9.85987
超	-9.8602
𤓰	-9.86031
漁父	-9.86036
婆娑	-9.86039
端的	-9.86104
欲去	-9.86124
此意	-9.86137
司馬	-9.86146
青衫	-9.86209
一杯	-9.86213
備	-9.86413
賴	-9.86478
蓑	-9.86564
郞	-9.86575
腦	-9.86575
麟	-9.8658
賈	-9.86588
硯	-9.86601
脉脉	-9.86626
嘲	-9.86641
玉堂	-9.86646
翩翩	-9.86654
迤邐	-9.86663
玉樹	-9.86684
返	-9.86687
天外	-9.8679
旁	-9.86849
横斜	-9.86908
底事	-9.86933
杜詩	-9.86939
經年	-9.86943
紅杏	-9.86956
飛燕	-9.87026
春恨	-9.87054
誓	-9.87066
歌之	-9.87142
舜	-9.87204
惱人	-9.87222
悟	-9.87231
傅	-9.87239
酴醿	-9.87243
湧	-9.8726
踏莎行	-9.87264
㝎	-9.87271
十字	-9.87276
齒	-9.87279
藉	-9.87302
方千里	-9.87452
青鸞	-9.8748
萬種	-9.87544
重九	-9.8759
纎手	-9.87607
螢	-9.87717
阮	-9.87754
藍橋	-9.87768
穠	-9.87886
消得	-9.8793
舎	-9.87938
姮娥	-9.87997
漁家傲	-9.87999
笠	-9.88005
陽臺	-9.88008
飛瓊	-9.88036
水流	-9.88058
番	-9.88065
更那堪	-9.8819
無事	-9.88316
平沙	-9.88366
蘆花	-9.88386
撇	-9.88395
疎影	-9.88413
後段第	-9.8852
四十	-9.88568
言語	-9.8858
汚	-9.88583
亞	-9.88595
潔	-9.886
暢	-9.88617
勿	-9.88625
碩	-9.88629
沁	-9.8863
西子	-9.88641
淂	-9.88687
許多	-9.88729
心頭	-9.88852
溪山	-9.88901
廬	-9.88928
尋常	-9.88954
滿城	-9.89015
露冷	-9.89064
抵	-9.89099
樓外	-9.89204
乱	-9.89221
鐡	-9.89234
一天	-9.89245
衝	-9.89302
痴	-9.89304
罪	-9.89327
微雨	-9.89336
汀洲	-9.89338
湖山	-9.89365
不解	-9.89441
院宇	-9.89483
好事	-9.89494
煙波	-9.89597
遊人	-9.89604
一段	-9.89717
愁人	-9.89799
後段第二句	-9.89819
更有	-9.89842
人物	-9.89845
寒梅	-9.89864
白玉	-9.8987
執	-9.89921
帖	-9.89935
藝	-9.89938
喜遷鶯	-9.8994
金屋	-9.90009
姜	-9.90046
送春	-9.90055
何許	-9.90117
黃昏	-9.90137
白髮	-9.90143
不定	-9.90195
何䖏	-9.90218
老子	-9.90299
晏殊	-9.90415
葛	-9.9055
單調	-9.9057
乖	-9.90602
生日	-9.90607
誰念	-9.90623
趙師俠	-9.90631
暇	-9.90665
去也	-9.90725
未老	-9.90735
人靜	-9.90812
沈沈	-9.90867
㡬許	-9.90872
似水	-9.90919
夜夜	-9.9101
上元	-9.91028
留得	-9.91032
鶯鶯	-9.91123
羅帶	-9.9116
飄飄	-9.91161
債	-9.91224
包	-9.91251
琉璃	-9.91254
江東	-9.91262
迹	-9.91294
速	-9.9131
感皇恩	-9.91332
鄊	-9.91339
珊瑚	-9.91359
歡娛	-9.91359
閬苑	-9.91371
繩	-9.91374
寄與	-9.91486
後人	-9.91525
樓前	-9.91572
快活	-9.91691
香塵	-9.91695
沉醉	-9.9182
金風	-9.91938
焦	-9.91993
振	-9.92007
白石	-9.92007
人心	-9.92032
榻	-9.92034
無定	-9.92256
胸	-9.92332
唐人	-9.92362
傷情	-9.92389
瑟	-9.92515
耀	-9.92635
無聲	-9.92676
苞	-9.92696
寜	-9.92705
尉	-9.92709
瀉	-9.9271
字平	-9.92726
顫	-9.92732
昇平	-9.92786
兩行	-9.92837
如雪	-9.92914
是也	-9.92974
數㸃	-9.92982
青天	-9.93015
韶	-9.93026
生香	-9.93077
栁絮	-9.93109
草草	-9.9317
小桃紅	-9.93181
謫	-9.93255
又云	-9.93265
流光	-9.93304
卓	-9.9334
審	-9.93381
袁	-9.93399
千秋	-9.93416
孔	-9.93417
兔	-9.9342
攅	-9.93423
彫	-9.93439
一生	-9.93441
轡	-9.93454
寄語	-9.93483
不合	-9.93501
秋月	-9.93501
詩云	-9.93541
朝雲	-9.93542
可以	-9.93703
膏	-9.93827
南陌	-9.9393
證	-9.94041
習	-9.94056
顛	-9.94064
皎	-9.94068
乙	-9.94094
筠	-9.94108
蓬莱	-9.94132
熊	-9.94137
收拾	-9.94154
登髙	-9.94169
鏡中	-9.9422
此體	-9.94243
春睡	-9.94252
此恨	-9.94286
臨水	-9.94394
長短句	-9.94422
風波	-9.94715
幾回	-9.9475
𤣥	-9.94761
申	-9.94768
香車	-9.94773
后	-9.94775
悽	-9.9481
桃源	-9.94815
倍	-9.94825
蕉	-9.94832
几	-9.94838
流年	-9.94872
合歡	-9.9491
一朶	-9.94912
工夫	-9.94951
留春	-9.95044
夜永	-9.95154
懐古	-9.95167
晏幾道	-9.95294
不識	-9.95338
各家	-9.95358
山色	-9.95383
啓	-9.95485
黄菊	-9.95521
呂	-9.95545
葩	-9.95547
尋思	-9.95552
呉文英	-9.95556
做了	-9.95564
生涯	-9.95569
峭	-9.95722
仙子	-9.95768
幅	-9.95786
煙樹	-9.95907
猶記	-9.96009
入聲	-9.96028
竹枝	-9.96189
綠楊	-9.96191
欣	-9.96228
幹	-9.96232
吕渭老	-9.96259
心上	-9.96274
脈脈	-9.96277
𬗋	-9.96277
拗	-9.9628
團扇	-9.96407
年來	-9.96409
秋波	-9.96451
落葉	-9.96493
音書	-9.96747
臯	-9.96774
所作	-9.96823
第六句	-9.96861
歸時	-9.96876
淚珠	-9.96889
熙	-9.9693
眷	-9.96956
寢	-9.96978
生查子	-9.96996
秪	-9.97047
十載	-9.97059
人逺	-9.97162
月影	-9.97192
幾日	-9.97222
百尺	-9.97262
無多	-9.97293
字句	-9.97344
清夜	-9.97389
梨	-9.97423
早是	-9.97538
長江	-9.97557
十四	-9.97585
碧天	-9.97623
自然	-9.9764
謬	-9.97641
其餘	-9.97657
崔	-9.97696
甚時	-9.97713
第九句	-9.97836
無恙	-9.97841
得意	-9.97847
有感	-9.97865
恰似	-9.97878
相如	-9.97884
孤負	-9.97973
之句	-9.97975
是處	-9.97991
也不	-9.98007
押韻	-9.98085
人意	-9.9811
詞律	-9.98239
音律	-9.98244
從容	-9.98258
禹	-9.98342
董	-9.98364
天公	-9.98369
浥	-9.98387
蚤	-9.98401
欄干	-9.98405
春雨	-9.98414
增	-9.98435
多時	-9.98438
蟠桃	-9.98442
也是	-9.98443
狀	-9.98446
人知	-9.98469
揉	-9.9847
昨	-9.98491
無憑	-9.98504
洞房	-9.98509
惜花	-9.98585
寸	-9.98635
巷陌	-9.98664
玉容	-9.988
水雲	-9.98836
有意	-9.98838
恠	-9.98939
坊	-9.99019
弔	-9.99088
晩來	-9.99094
碾	-9.99155
兹	-9.9918
職	-9.99186
優	-9.99192
鳳凰	-9.9923
錦瑟	-9.99267
雨後	-9.99286
夭桃	-9.99288
欹枕	-9.99293
玉鈎	-9.99327
籌	-9.99343
皓月	-9.99356
魂夢	-9.99411
不曽	-9.9947
兩平韻	-9.99478
可仄	-9.99539
車馬	-9.99568
舊家	-9.99633
孫光憲	-9.99664
島	-9.99748
餘音	-9.99751
遵	-9.99868
魔	-9.99879
築	-9.99891
操	-9.99894
南鄉子	-9.99901
點絳唇	-9.99901
西廂	-9.99915
潑	-9.99919
隆	-9.99936
絡	-9.99937
肅	-9.99954
渺渺	-9.99973
張子野	-9.99982
良辰	-9.99988
屈指	-10.0001
征鴻	-10.0001
為之	-10.0026
有時	-10.0048
張元幹	-10.005
那人	-10.0051
江水	-10.0051
併	-10.006
顆	-10.0062
烟水	-10.0064
棠	-10.0066
月滿	-10.0067
蟹	-10.0069
隠隠	-10.0074
隱隱	-10.0076
樂事	-10.008
採蓮	-10.0082
落盡	-10.0082
片片	-10.0083
斷雲	-10.0085
絃管	-10.0087
休問	-10.0088
人世	-10.0098
譜内	-10.0108
頂	-10.0116
緑水	-10.0118
李白	-10.0121
凝望	-10.0126
字仄	-10.0129
紈	-10.0133
柯	-10.0136
襪	-10.0138
𫀆	-10.0142
烈	-10.0142
卜算子	-10.0143
畢竟	-10.0144
笳	-10.0144
心兒	-10.0145
頰	-10.0145
場	-10.0146
至今	-10.0147
拾	-10.0149
詞中	-10.0154
青門	-10.016
巳刻	-10.0163
長記	-10.0167
知他	-10.0168
公子	-10.0171
人情	-10.0175
幾㸃	-10.0177
洛陽	-10.018
誰能	-10.0181
舊恨	-10.0183
囀	-10.0195
些兒	-10.0203
溶溶	-10.0205
灯	-10.021
之類	-10.0213
愁腸	-10.0214
第四	-10.0216
風情	-10.0216
鳬	-10.0217
毅	-10.0218
位	-10.0219
翰林	-10.0224
黏	-10.0225
添一字	-10.0228
欽定四庫全書御選歴代詩餘巻	-10.0229
凭䦨	-10.0243
不動	-10.0245
月照	-10.0247
倚䦨干	-10.025
長相思	-10.0256
輸	-10.0256
重到	-10.0264
山河	-10.0264
古人	-10.0286
衢	-10.0287
説與	-10.029
十四字	-10.0291
棊	-10.0295
唾	-10.0295
蜜	-10.0295
寡	-10.0296
池上	-10.0296
用仄	-10.0297
颭	-10.0298
高樓	-10.0298
蔣捷	-10.0299
畫屏	-10.0299
醜	-10.03
違	-10.03
煎	-10.0303
杳杳	-10.0307
秋夜	-10.0314
關山	-10.0324
愁絶	-10.0327
樓頭	-10.0328
花梢	-10.034
去後	-10.0341
簫鼓	-10.0345
段八句	-10.0348
山川	-10.0355
雨餘	-10.0365
換頭句	-10.0371
二月	-10.0372
韋莊	-10.0373
攪	-10.0375
達	-10.0376
妨	-10.0379
輩	-10.0381
花草粹編	-10.0385
起來	-10.0391
可平	-10.0391
不應	-10.0395
著意	-10.0399
二詞	-10.0407
記取	-10.0413
鏡裏	-10.042
春日	-10.0431
重簾	-10.0433
浮生	-10.0434
逍遥	-10.044
脩	-10.0442
漿	-10.0444
重見	-10.0445
不妨	-10.0446
愈	-10.0446
激	-10.0447
雪裏	-10.045
闗山	-10.045
橙	-10.0451
瓢	-10.0453
緘	-10.0454
青玉案	-10.0454
僊	-10.0458
相同	-10.0463
伴侣	-10.0468
素娥	-10.0468
小橋	-10.0469
中原	-10.047
斷橋	-10.047
㫁腸	-10.0474
孤鴻	-10.0477
一寸	-10.0478
羅幃	-10.0479
清秋	-10.0482
今生	-10.0482
掩映	-10.0486
三體	-10.0499
柔腸	-10.0504
賊	-10.0525
堯	-10.0526
庾	-10.0526
演	-10.0527
汪	-10.053
串	-10.0531
巵	-10.0531
慰	-10.0532
幌	-10.0533
磯	-10.0533
救	-10.0534
訴衷情	-10.0534
未知	-10.0544
子野	-10.0551
一巻	-10.0563
遲遲	-10.0563
三分	-10.0565
只是	-10.0568
不來	-10.0568
兩兩	-10.0573
數枝	-10.0575
道中	-10.0579
再不	-10.0583
是非	-10.0587
朝來	-10.0589
幄	-10.0599
五十字	-10.06
摧	-10.0605
暎	-10.061
電	-10.0611
倚樓	-10.0611
蝉	-10.0613
宦	-10.0614
慳	-10.0614
未成	-10.0621
横塘	-10.0631
調名	-10.0639
醉倒	-10.0648
十一	-10.0649
寸心	-10.0653
舊曲	-10.067
削	-10.0672
旌	-10.0672
留住	-10.0673
本是	-10.0676
時時	-10.0682
嬉	-10.0683
攤破	-10.0683
菜	-10.0685
小桃	-10.0686
棋	-10.0688
舫	-10.0688
啇	-10.0689
纓	-10.0689
攬	-10.0691
净	-10.0691
嚲	-10.0693
漁樵	-10.0693
虧	-10.0693
揷	-10.0694
何限	-10.0694
綢繆	-10.0695
抽	-10.0695
瑶琴	-10.0696
蜨	-10.0696
八十	-10.0703
粟	-10.0708
平蕪	-10.0708
晁	-10.0715
若是	-10.0721
心期	-10.0727
吏	-10.0732
畫閣	-10.074
又有	-10.0746
隋	-10.0747
宰	-10.075
不比	-10.0759
粉面	-10.0762
滚綉毬	-10.0762
一似	-10.0763
對景	-10.0768
相望	-10.0769
叙	-10.077
幔	-10.077
屐	-10.0772
竝	-10.0773
王沂孫	-10.0773
小園	-10.0773
月夜	-10.0784
江城子	-10.0785
六句	-10.0785
賺	-10.0811
花外	-10.0812
說與	-10.0815
此句	-10.0824
薄情	-10.0829
渭	-10.083
奈何	-10.0831
張詞	-10.0839
毛文錫	-10.0849
店	-10.085
竊	-10.0853
五十	-10.0855
薰風	-10.0857
鵲橋仙	-10.0859
一派	-10.086
怎禁	-10.0866
江天	-10.0867
溪橋	-10.0872
太守	-10.0875
老矣	-10.0886
按此調	-10.0892
可平可仄	-10.0894
紅日	-10.0898
秋思	-10.0902
教我	-10.0903
聳	-10.0905
此亦與	-10.0907
牢	-10.0908
拙	-10.0932
蘿	-10.0933
勤	-10.0933
茸	-10.0934
未必	-10.0934
病酒	-10.0936
控	-10.0937
扉	-10.0937
别恨	-10.0939
陳迹	-10.0941
凝眸	-10.0942
鉛華	-10.0942
晝永	-10.0956
真箇	-10.0973
隨風	-10.0975
瑣	-10.0976
十九	-10.0983
暉	-10.0985
新妝	-10.0988
醉中	-10.0993
向晚	-10.0994
兎	-10.0995
尽	-10.0999
讀書	-10.1
雲間	-10.1005
水晶	-10.1005
鼻	-10.1011
裂	-10.1014
羈	-10.1015
滄浪	-10.1016
洞天	-10.1017
耿耿	-10.1017
摇	-10.1017
材	-10.1018
客裏	-10.1018
檣	-10.1019
舡	-10.1019
卸	-10.102
攘	-10.1023
閃	-10.1023
無别首可校	-10.1025
梅香	-10.1026
溪上	-10.1039
前調晏幾道	-10.1044
閒情	-10.1051
長空	-10.1054
笋	-10.1055
明珠	-10.1056
艇	-10.1059
何用	-10.1082
鶯語	-10.1082
輦	-10.1084
制	-10.1086
姚	-10.1089
仙人	-10.109
流霞	-10.1092
眺	-10.1094
森	-10.1096
躭	-10.1096
罵	-10.1097
晦	-10.1097
膓	-10.1097
佐	-10.1099
濯	-10.1099
遼	-10.1099
濺	-10.1101
策	-10.1102
媒	-10.1102
經局洗馬掌局事兼翰林院修撰加二級	-10.1106
才子	-10.1106
髯	-10.1106
維	-10.1106
人道	-10.1111
月底	-10.1111
留不住	-10.1116
情懷	-10.1128
畫角	-10.1136
看看	-10.1137
春晚	-10.1139
焚	-10.1144
眉黛	-10.1146
懐抱	-10.1149
詩人	-10.1152
兒女	-10.1156
東山	-10.1157
菊花	-10.1162
髙觀國	-10.117
慮	-10.1177
擅	-10.118
婆	-10.118
南歌子	-10.1181
檢	-10.1182
淑	-10.1182
只在	-10.1184
明皇	-10.1184
播	-10.1184
涵	-10.1184
鈴	-10.1186
模様	-10.1186
萬縷	-10.1186
扣	-10.1188
隙	-10.1188
一去	-10.1189
葦	-10.1189
不及	-10.119
尚有	-10.1201
消遣	-10.1206
銀漢	-10.121
縱有	-10.1214
從此	-10.1217
金谷	-10.1223
詩餘	-10.1233
紅袖	-10.1235
紅粧	-10.1238
光景	-10.1239
馬上	-10.1239
一雙	-10.1245
不載	-10.1249
栁絲	-10.1252
不叶	-10.1254
榴	-10.1254
闘	-10.1259
蠶	-10.1264
椒	-10.1266
器	-10.1266
逹	-10.1267
謹	-10.1267
遅	-10.1267
瘦損	-10.1268
摩	-10.1269
憶秦娥	-10.127
替	-10.1271
一帶	-10.1272
株	-10.1273
幾多	-10.1285
沽酒	-10.1286
難留	-10.1288
梅子	-10.1289
醉眼	-10.1295
幽夢	-10.1301
金尊	-10.1322
横笛	-10.1335
柴	-10.1344
留戀	-10.1346
禄	-10.1347
顧夐	-10.1347
互	-10.1347
夭	-10.1349
茂	-10.135
齡	-10.1354
不怕	-10.1354
瀾	-10.1356
千般	-10.1356
葵	-10.1358
飛過	-10.1359
葉夢得	-10.1359
專	-10.136
謂之	-10.1362
的我	-10.137
後段第三句	-10.1374
白鷺	-10.138
夜半	-10.138
簾影	-10.1385
沉吟	-10.1385
星星	-10.1389
幽恨	-10.139
次第	-10.1403
楓	-10.1405
對酒	-10.1406
作平	-10.1411
香肌	-10.1425
晋	-10.1426
詩酒	-10.1426
彼	-10.1427
纎纎	-10.1428
朱門	-10.1431
與君	-10.1432
榴花	-10.1435
某	-10.1437
餅	-10.1437
衛	-10.1439
稠	-10.144
摸魚兒	-10.144
搔首	-10.1441
㡬畨	-10.1443
貯	-10.1443
齊天樂	-10.1443
阮亭	-10.1446
柴門	-10.1451
紈扇	-10.1453
旗亭	-10.1456
二年	-10.1457
此曲	-10.1462
清溪	-10.1463
好在	-10.1465
閨情	-10.1469
山水	-10.147
句七字	-10.1479
紅牙	-10.1489
小令	-10.149
仙家	-10.149
香閨	-10.1491
字俱	-10.1495
大夫	-10.1497
爽	-10.1501
沉香	-10.1502
風清	-10.1509
拘	-10.1517
此篇	-10.1518
瓊花	-10.1519
邪	-10.152
蛇	-10.1522
又見	-10.1522
輔	-10.1523
智	-10.1524
截	-10.1527
李清照	-10.1529
冤家	-10.1532
蘭麝	-10.1534
天台	-10.1538
人人	-10.1541
佳節	-10.1553
清淺	-10.1557
凭欄	-10.1561
莫不是	-10.1568
諸公	-10.1571
帶雨	-10.1573
兀	-10.1587
素手	-10.1602
曉風	-10.1603
一霎	-10.1605
毬	-10.161
春信	-10.1612
鶯燕	-10.1612
軆	-10.1612
蜂蝶	-10.1613
澆	-10.1614
我則見	-10.1614
鄧	-10.1614
叮嚀	-10.1614
醫	-10.1615
宸	-10.1615
妄	-10.1621
旌旗	-10.1621
馬嘶	-10.1631
到處	-10.1648
五雲	-10.1663
小雨	-10.1664
欽定四庫全書	-10.1665
髙唐	-10.1666
千縷	-10.1668
莫教	-10.1669
柰	-10.1676
鷓鴣	-10.1679
空自	-10.1682
不去	-10.1685
還又	-10.17
榜	-10.1701
汴	-10.1706
鑪	-10.1707
水調	-10.1708
老人	-10.1709
花月	-10.171
小小	-10.1712
日髙	-10.1715
興亡	-10.1721
三山	-10.1724
此即	-10.1731
猶是	-10.174
萬㸃	-10.1745
清淚	-10.1746
髙歌	-10.1749
看取	-10.1754
詩話	-10.1754
橋邊	-10.1767
新晴	-10.1768
簫聲	-10.177
皓	-10.1775
之詞	-10.1778
一庭	-10.178
三徑	-10.1781
淵	-10.1782
開時	-10.1784
相遇	-10.1784
鳩	-10.1785
倘秀才	-10.1786
升	-10.179
爇	-10.1791
𦂳	-10.1793
杭	-10.1794
清光	-10.1795
俞	-10.1795
嚢	-10.1797
舊約	-10.1797
旖旎	-10.1798
賤	-10.1799
左右	-10.1799
别是	-10.1801
此去	-10.1805
忘却	-10.1806
月冷	-10.1815
頭上	-10.1817
如畫	-10.1846
餉	-10.1859
翠被	-10.1862
人有	-10.1863
孤城	-10.1865
樓閣	-10.1869
咸	-10.1871
劇	-10.1873
唇	-10.1875
楽	-10.1877
山下	-10.1877
軸	-10.1878
飬	-10.1878
軰	-10.1881
銀蟾	-10.1881
赤壁	-10.1881
脆	-10.1882
相將	-10.1884
風細	-10.1885
黑	-10.1886
驕	-10.1888
嗅	-10.1888
起舞	-10.1892
有酒	-10.1892
一陣	-10.1896
画堂	-10.1902
八句	-10.1903
藕花	-10.1903
像	-10.1905
斜月	-10.1906
兩結	-10.1907
誰共	-10.1913
他年	-10.1918
蘭堂	-10.1921
倚䦨	-10.1926
遥山	-10.1929
句名	-10.1931
紅綃	-10.1936
斧	-10.194
温庭筠	-10.1947
難禁	-10.1949
蔡伸	-10.1956
紹興	-10.1956
小閣	-10.1963
玉露	-10.1964
誰道	-10.1969
㓕	-10.197
屑	-10.1971
耍	-10.1971
充	-10.1971
閲	-10.1972
玉山	-10.1972
鞵	-10.1974
財	-10.1974
鹽	-10.1974
脣	-10.1975
氊	-10.1975
忺	-10.1976
一尊	-10.1977
飢	-10.1977
上下	-10.198
羅襪	-10.1986
懷抱	-10.1986
丁香	-10.1988
人面	-10.199
重疊	-10.1994
趙詞	-10.1996
和凝	-10.1998
望極	-10.2002
不起	-10.2004
絲絲	-10.2005
菱	-10.2008
有恨	-10.2018
堪憐	-10.2026
談笑	-10.2031
烟波	-10.2034
覺來	-10.2037
畫眉	-10.2041
男	-10.2045
丞	-10.205
諸家	-10.2053
一様	-10.2055
東流	-10.2059
樞	-10.2061
溝	-10.2063
庶	-10.2064
集賢賔	-10.2064
醑	-10.2064
兠	-10.2066
吹笛	-10.2066
驀山溪	-10.2066
海上	-10.2068
千山	-10.2069
天邊	-10.2071
斜暉	-10.2073
栁耆卿	-10.2077
蹤跡	-10.2082
痛飲	-10.2086
從頭	-10.2088
聚散	-10.2091
春草	-10.2097
詞可校	-10.2097
前段起句	-10.2101
噪	-10.2106
渾似	-10.2107
千頃	-10.2112
漸覺	-10.2115
天逺	-10.2116
西東	-10.2118
過雨	-10.2118
朔	-10.2119
照人	-10.2122
漏聲	-10.2123
石孝友	-10.2135
生怕	-10.214
襯字	-10.2144
墙	-10.2152
纏	-10.2153
鬱	-10.2153
粗	-10.2157
􁱷	-10.2157
愧	-10.2158
㪚	-10.2158
榆	-10.2158
陡	-10.2158
蒹葭	-10.216
羅袖	-10.216
前事	-10.2162
袁去華	-10.2163
禍	-10.2163
炊	-10.2166
凝佇	-10.2166
撩亂	-10.2166
丈	-10.2166
裊裊	-10.2167
羅裙	-10.2174
感舊	-10.2174
名利	-10.2177
晚來	-10.2186
啼痕	-10.2186
道人	-10.2188
傾城	-10.2189
玉肌	-10.219
因甚	-10.2201
多才	-10.2211
莫惜	-10.2218
唯	-10.222
冲	-10.2223
年光	-10.2228
六十	-10.2233
相随	-10.2236
一塲	-10.2236
滿庭	-10.2237
月落	-10.2238
亂山	-10.2239
香滿	-10.2241
白頭	-10.2243
牧	-10.2244
風起	-10.2246
慕	-10.2249
千丈	-10.2249
無據	-10.2249
孃	-10.2251
小重山	-10.2252
㫖	-10.2252
蘚	-10.2252
筍	-10.2253
翔	-10.2255
楊妃	-10.2261
輕風	-10.2277
與此同	-10.228
捲簾	-10.2282
夜長	-10.2287
粉香	-10.2295
天生	-10.2296
河漢	-10.2302
家山	-10.2305
錦繡	-10.2313
燕語	-10.2314
佳處	-10.2315
殘雪	-10.2315
人語	-10.232
月中	-10.2325
修竹	-10.2329
認得	-10.2338
寅	-10.234
樊	-10.234
敧	-10.234
握	-10.2343
沿	-10.2343
飛上	-10.2345
笻	-10.2346
嶂	-10.2346
殷	-10.2347
瑞鶴仙	-10.2347
䕃	-10.2347
礙	-10.2348
髣髴	-10.2348
碑	-10.2349
勁	-10.2349
墓	-10.2349
萊	-10.2353
隂隂	-10.2354
封侯	-10.2356
正好	-10.2357
消瘦	-10.236
角聲	-10.2365
使人	-10.2366
今日箇	-10.2374
這些時	-10.2374
風塵	-10.2382
花信	-10.2391
十六	-10.2395
悲秋	-10.2395
孤眠	-10.2396
湖光	-10.2404
雨聲	-10.2408
遊絲	-10.2409
眸	-10.241
凉生	-10.2413
丞相	-10.2413
篝	-10.2415
與後	-10.242
此日	-10.2424
凭闌	-10.2424
衮	-10.2435
彌	-10.2436
雙蛾	-10.2438
目録	-10.2438
揭	-10.2439
金錢	-10.244
谿	-10.2441
雲屏	-10.2441
傑	-10.2441
窟	-10.2442
準	-10.2443
餐	-10.2444
彷彿	-10.2444
綾	-10.2445
只怕	-10.2448
三十六	-10.2458
身在	-10.246
私語	-10.2461
廣寒宫	-10.2467
山林	-10.2477
宣和	-10.2477
段六句	-10.25
浩	-10.2503
想見	-10.2505
須信	-10.2508
嬌羞	-10.2508
風絮	-10.2514
之曰	-10.2514
簿	-10.2529
香羅	-10.2531
字字	-10.2531
掲	-10.2533
棟	-10.2533
醺醺	-10.2534
茗	-10.2535
綺羅	-10.2537
團圎	-10.2539
後段第四句	-10.2539
侯寘	-10.2539
段各十句	-10.2539
侶	-10.254
三五	-10.254
剩	-10.2541
團圓	-10.2541
己	-10.2544
行客	-10.2545
淒凉	-10.2548
如夢令	-10.2551
嬉遊	-10.2552
長恨	-10.2554
啼鳥	-10.2558
一樹	-10.2561
晴空	-10.2562
無緒	-10.2562
玉壺	-10.2565
少游	-10.2566
兒童	-10.257
不放	-10.2579
詞亦	-10.2584
華堂	-10.2587
翠屏	-10.2591
二十四	-10.2594
文君	-10.2598
一川	-10.2599
花謝	-10.2601
殘燈	-10.2604
第七句	-10.2607
畫圖	-10.2619
釋	-10.262
良夜	-10.2621
役	-10.2623
屠	-10.2627
馮延已	-10.2627
飄香	-10.2628
篁	-10.2628
貞	-10.2631
閩	-10.2632
跋	-10.2633
苗	-10.2633
屛	-10.2635
率	-10.2635
軃	-10.2635
凖	-10.2635
糢糊	-10.2636
拭	-10.2637
冝	-10.2639
滯	-10.2641
斜照	-10.2642
甚麽	-10.2645
孤另	-10.2649
上去	-10.2654
深夜	-10.2659
集中	-10.2661
梅梢	-10.2663
天寒	-10.2669
晚風	-10.2673
離思	-10.2674
爐香	-10.2675
清絶	-10.2678
州人	-10.2679
江城	-10.268
荷葉	-10.2682
滿路	-10.2683
罩	-10.2685
過盡	-10.269
何曽	-10.269
詩句	-10.2701
昨日	-10.2707
知何處	-10.2717
亮	-10.2721
慈	-10.2727
心緒	-10.2728
中興	-10.273
狐	-10.2731
縞	-10.2731
俯	-10.2731
鑿	-10.2731
鱸	-10.2731
岡	-10.2732
資	-10.2732
邁	-10.2735
檀板	-10.2736
也麽哥	-10.2737
醉後	-10.2739
風急	-10.2739
好花	-10.2745
廣陵	-10.2745
隴頭	-10.2747
陽䑓	-10.2748
書生	-10.2749
羣芳	-10.2753
倚闌	-10.2761
流蘇	-10.2763
不許	-10.2783
時有	-10.2784
黄鶴	-10.2786
襟袖	-10.2787
繡被	-10.2789
桃葉	-10.2798
務	-10.2799
殘粧	-10.2803
梅溪	-10.2804
翠羽	-10.2804
飛鴻	-10.2804
漏永	-10.2806
無此	-10.2806
東南	-10.2808
淡烟	-10.281
白蘋	-10.2812
不在	-10.2815
通用	-10.2815
正與此同	-10.2815
桂花	-10.2815
到此	-10.2819
且住	-10.2824
清真	-10.2826
雛	-10.2826
曽覿	-10.2827
均	-10.283
鏤	-10.2831
掉	-10.2834
姜夔	-10.2834
醜奴兒	-10.2835
甕	-10.2835
未有	-10.2836
望江南	-10.2837
人不見	-10.2842
幽人	-10.2845
池館	-10.2848
萬古	-10.2853
千尺	-10.2865
前調歐陽修	-10.2877
登樓	-10.2877
元夕	-10.2877
那里	-10.2878
歡笑	-10.2879
歸鴻	-10.2879
香銷	-10.2883
錦屏	-10.2884
盆	-10.2884
河橋	-10.2886
新粧	-10.2893
相宜	-10.2893
侍兒	-10.291
沽	-10.2914
人何處	-10.2914
溫	-10.2916
春来	-10.2919
甞	-10.2921
祿	-10.2924
無寐	-10.2924
秋雨	-10.2928
膝	-10.2928
荘	-10.293
訝	-10.2932
相伴	-10.2935
賸	-10.2935
峽	-10.2936
和風	-10.2937
武陵	-10.2941
蕭條	-10.2942
待得	-10.2945
比前	-10.2955
十二字	-10.296
􁀙	-10.2963
綠隂	-10.2964
踈狂	-10.2966
連天	-10.2966
春景	-10.2967
對花	-10.2969
漫漫	-10.2972
一江	-10.2975
于飛	-10.2975
阿誰	-10.2984
誰是	-10.2985
清江	-10.2985
梢頭	-10.2998
往來	-10.3006
春宵	-10.3014
初試	-10.3015
聲斷	-10.3016
証	-10.3018
栁枝	-10.3023
暁	-10.3024
玉纎	-10.3025
賖	-10.3028
莫問	-10.3028
顏	-10.3029
娃	-10.3029
剔	-10.303
端正好	-10.303
熈	-10.3031
搗	-10.3031
幻	-10.3032
項	-10.3032
介	-10.3034
觥	-10.3034
趙以夫	-10.3034
字子	-10.3035
顛倒	-10.3036
阮郎歸	-10.3037
風入松	-10.304
離了	-10.3043
昭陽	-10.3048
眉尖	-10.3049
麒麟	-10.3058
大家	-10.3064
雲外	-10.3065
子弟	-10.3067
孤舟	-10.3076
釵頭	-10.3087
不過	-10.3105
寂寥	-10.3106
目送	-10.3109
情味	-10.3111
香雪	-10.3115
兩岸	-10.3118
來去	-10.3118
兩仄韻	-10.3119
有誰知	-10.312
南唐	-10.312
貢	-10.3122
竹外	-10.3122
雲水	-10.3129
而不	-10.3129
縫	-10.313
丙	-10.313
啟	-10.3134
不由人	-10.3134
硬	-10.3134
櫓	-10.3134
蘭橈	-10.3135
之後	-10.3137
椘	-10.3137
故不	-10.3138
擢	-10.3138
麓	-10.3139
汎	-10.314
華胥	-10.314
只愁	-10.3141
貂裘	-10.3143
天下樂	-10.3147
應難	-10.3149
朱戸	-10.3149
有餘	-10.3154
末句	-10.3154
瓊枝	-10.3158
不押韻	-10.3163
寳釵	-10.317
寒輕	-10.3173
纎腰	-10.3177
千樹	-10.3177
金波	-10.318
屏風	-10.3181
不與	-10.3186
不記	-10.3189
也應	-10.3197
芳信	-10.3209
一身	-10.3209
無塵	-10.3211
九重	-10.3215
六么	-10.3215
可堪	-10.3217
亦不	-10.3219
此地	-10.3225
受用	-10.3227
歐陽炯	-10.3228
美成	-10.3229
珍珠	-10.323
克	-10.323
慇懃	-10.3234
朗	-10.3235
黍	-10.3236
肆	-10.3236
飾	-10.3236
疉	-10.3238
綘	-10.324
繋	-10.324
嫋嫋	-10.3242
得勝令	-10.3243
歸夢	-10.3244
懊惱	-10.3245
歸舟	-10.325
佳麗	-10.3259
危樓	-10.3261
斜倚	-10.3268
不負	-10.3279
依前	-10.3281
曲名	-10.3288
添字	-10.3299
于此	-10.3301
情多	-10.3302
諸詞	-10.3302
春歸去	-10.3303
廣寒	-10.3303
新恨	-10.3305
連環	-10.3305
紅雨	-10.3307
三臺	-10.331
龍山	-10.3311
春深	-10.3312
天教	-10.3314
劉基	-10.3317
魂消	-10.3318
苕	-10.3323
僅	-10.3323
牆頭	-10.3323
最是	-10.3328
春晩	-10.333
遺恨	-10.333
疎疎	-10.3335
儔	-10.3336
劣	-10.3338
群	-10.3342
彤	-10.3344
疏	-10.3346
九十九字	-10.3347
撼	-10.3347
天風	-10.3358
不相	-10.3359
又早	-10.3364
多一字	-10.337
三疊	-10.3375
金盤	-10.3386
統	-10.3386
酒旗	-10.339
倩誰	-10.3395
宫殿	-10.3396
段七句	-10.3397
不歸	-10.3402
魂銷	-10.3402
揺落	-10.3411
情意	-10.3412
誰似	-10.3414
兩箇	-10.3414
髙處	-10.3415
金杯	-10.3425
雲收	-10.3427
平安	-10.343
小異	-10.3432
戎	-10.3433
段各五句	-10.3437
廷	-10.3437
混江龍	-10.3445
於此	-10.3445
膠	-10.3446
不待	-10.3447
嗚咽	-10.3447
謙	-10.345
星斗	-10.345
兄弟	-10.3451
逝	-10.3451
㝠	-10.3453
傅粉	-10.3453
標格	-10.3454
綽約	-10.3455
幾畨	-10.3456
未足	-10.3459
字亦	-10.3461
囬首	-10.3464
以此	-10.3468
如舊	-10.3469
肌膚	-10.3469
莫放	-10.3473
烹	-10.3475
烏衣	-10.3476
瑤臺	-10.3477
玉骨	-10.3479
亦名	-10.3495
天真	-10.3496
孤村	-10.3496
露濕	-10.3497
者如	-10.3505
魚龍	-10.3506
成隂	-10.3506
間阻	-10.3511
驄	-10.3511
為主	-10.3515
竚立	-10.3518
十一字	-10.3526
鵞	-10.3529
題情	-10.3533
細看	-10.3534
此生	-10.3537
十七	-10.3543
幽獨	-10.3544
勇	-10.3544
此詞前後段	-10.3548
一㑹	-10.355
勲	-10.3551
駒	-10.3552
馨	-10.3553
兩字	-10.3553
烏夜啼	-10.3553
次周	-10.3554
我這	-10.3554
僝僽	-10.3554
醖	-10.3555
警	-10.3555
繚繞	-10.3555
奚	-10.3556
听	-10.3557
嚼	-10.3557
馬蹄	-10.3558
惜春	-10.356
不為	-10.3566
化作	-10.3566
敗葉	-10.3568
方寸	-10.3569
尊酒	-10.3579
来到	-10.3581
錦綉	-10.3581
中酒	-10.3586
芳樹	-10.3587
瀟洒	-10.3587
定格	-10.3588
金盃	-10.3588
半夜	-10.3592
展轉	-10.3592
除是	-10.3599
西風吹	-10.3602
楚江	-10.3609
望中	-10.3614
勸君	-10.3619
填詞	-10.3622
你箇	-10.3628
丹桂	-10.363
向誰	-10.3631
清影	-10.3634
笑我	-10.3635
留取	-10.364
天與	-10.3641
山隂	-10.3642
柄	-10.3647
鉄	-10.3653
殺人	-10.3653
薛	-10.3654
伸	-10.3654
徵	-10.3655
圖畫	-10.3655
鯨	-10.3655
曳	-10.3656
為伊	-10.3658
裹	-10.3658
雲散	-10.3659
蒸	-10.3659
涴	-10.3659
婢	-10.3659
倉	-10.3659
曠	-10.366
頽	-10.366
姑射	-10.3661
郎中	-10.3661
倅	-10.3662
逈	-10.3662
炙	-10.3662
妥	-10.3662
娟娟	-10.3662
馭	-10.3663
紅綉鞋	-10.3663
何曾	-10.3663
箇人	-10.3663
粲	-10.3665
頑	-10.3665
姜䕫	-10.3665
行香子	-10.3666
㴱	-10.3667
偃	-10.3668
醸	-10.3672
定風波	-10.3673
銀瓶	-10.3674
人不	-10.3674
可知	-10.3678
深閉	-10.3679
這的是	-10.368
塵世	-10.3688
明滅	-10.3693
栁色	-10.3694
則是	-10.3697
頼	-10.3702
人也	-10.3705
浙	-10.3705
黄機	-10.3708
中書	-10.371
歌者	-10.371
舊譜	-10.3713
堦前	-10.3717
從教	-10.3718
偏宜	-10.3721
杪	-10.3722
何處是	-10.3731
金爐	-10.3732
踈影	-10.3733
是箇	-10.3742
博山	-10.375
廂	-10.3752
香腮	-10.3754
綽	-10.3757
知否	-10.3757
冤	-10.3762
舟中	-10.3765
㦸	-10.3766
戒	-10.3766
鸞鏡	-10.3767
挼	-10.3767
享	-10.3768
榖	-10.3769
漬	-10.377
㕠	-10.377
一襟	-10.3771
聒	-10.3771
二煞	-10.3779
凄涼	-10.3781
一種	-10.3781
金殿	-10.3785
甘州	-10.3791
千門	-10.3792
葉底	-10.3793
休休	-10.3795
鵝	-10.3799
無意	-10.38
最苦	-10.3802
柔情	-10.3807
情人	-10.3808
烟樹	-10.3814
歌扇	-10.3822
半掩	-10.3826
徽	-10.3829
殘花	-10.3833
新凉	-10.3834
各自	-10.384
夢到	-10.3842
不的	-10.3846
腕	-10.3852
對月	-10.3854
遲留	-10.3856
十句	-10.3861
垂垂	-10.3861
雙調九	-10.3866
老來	-10.3867
春閨	-10.3871
襲	-10.3876
霑	-10.3877
剖	-10.3877
后庭花	-10.388
完	-10.388
畝	-10.388
古來	-10.3881
卦	-10.3881
空山	-10.3882
宋媛	-10.3882
徴	-10.3883
拌	-10.3884
銀缸	-10.3884
賣花聲	-10.3885
一一	-10.3885
朱唇	-10.3885
段十一句	-10.3886
愁來	-10.3889
黄鍾	-10.3889
侍郎	-10.3891
愁眉	-10.3892
攀折	-10.3893
不老	-10.3894
紫陌	-10.3894
者也	-10.3896
點點	-10.3899
羅衫	-10.3904
恩愛	-10.3905
芳意	-10.391
薄命	-10.3913
淚濕	-10.392
河傳	-10.3936
相送	-10.394
紅紫	-10.3941
豈不	-10.3942
沙鷗	-10.3942
舊歡	-10.3944
紅梅	-10.3944
可喜	-10.3946
眼底	-10.3948
歡樂	-10.3949
殘春	-10.395
香濃	-10.395
更漏	-10.3951
紅蓼	-10.3951
漸老	-10.3951
惜别	-10.3963
媛	-10.3965
探春	-10.3966
那時	-10.3969
消受	-10.3975
纖手	-10.3977
戈	-10.3977
庭户	-10.3978
目錄	-10.3979
訂	-10.3979
上聲	-10.3984
該	-10.3985
流落	-10.3986
一色	-10.3986
駐馬聴	-10.3989
近日	-10.3989
准	-10.399
槳	-10.399
鱠	-10.3991
喜孜孜	-10.3991
肻	-10.3991
沉水	-10.3992
逓	-10.3993
針線	-10.3993
京師	-10.3995
寄生草	-10.3995
菩薩鬘	-10.3996
不減	-10.3997
預	-10.3998
蘇小	-10.4
閨怨	-10.4003
鴛衾	-10.4003
三四	-10.4004
春到	-10.4005
爛漫	-10.4005
苕溪	-10.4008
夜凉	-10.4022
走馬	-10.4026
㸃綴	-10.4026
詞選	-10.4035
早梅	-10.4036
一百四字	-10.4036
林下	-10.4038
玉釵	-10.4042
鬢雲	-10.4045
不信	-10.4052
體也	-10.4054
開元	-10.4055
無那	-10.4058
芳容	-10.406
㡬箇	-10.4062
亦可	-10.4075
鯉	-10.4075
今從	-10.4076
張孝祥	-10.408
風度	-10.4081
一線	-10.4086
驀	-10.4089
一望	-10.409
整齊	-10.4091
衍	-10.4092
無消息	-10.4093
斛	-10.4097
慚	-10.4099
撞	-10.41
春曉	-10.41
楫	-10.4101
辜	-10.4102
直到	-10.4102
煮	-10.4103
張泌	-10.4103
倚遍	-10.4103
糝	-10.4104
艤	-10.4105
皆變格也	-10.4106
王奕清奉㫖校刋	-10.4107
𣺌𣺌	-10.4107
燦	-10.4108
我這里	-10.4108
斾	-10.4109
其二	-10.411
昻	-10.4112
浩然	-10.4113
作此	-10.4116
填者	-10.4117
照影	-10.4119
雲鬢	-10.4121
斷送	-10.4121
花間集	-10.4124
前段第二句	-10.4125
痩損	-10.4129
波光	-10.4132
詞同惟前	-10.4136
薫風	-10.4138
好是	-10.4139
一盃	-10.4139
一箇箇	-10.4147
周郎	-10.4149
四十六字	-10.4152
來往	-10.4155
問誰	-10.4155
成陣	-10.4156
珠箔	-10.4163
晝長	-10.4166
人似	-10.417
愁緒	-10.4172
浣	-10.4177
清和	-10.418
晩風	-10.4182
是我	-10.4183
暮景	-10.4185
七仄韻	-10.4188
飄蕩	-10.4188
舊刻	-10.4189
唯有	-10.419
後庭花	-10.4195
溪邊	-10.42
一樽	-10.42
紅妝	-10.4203
謁	-10.4206
漢宫	-10.4207
叩	-10.4212
謡	-10.4212
察	-10.4212
疼	-10.4213
穆	-10.4213
擇	-10.4213
聮	-10.4214
冥	-10.4215
揣	-10.4216
研	-10.4216
煗	-10.4217
恭	-10.4219
羇	-10.4221
彊	-10.4222
誰信	-10.4233
層樓	-10.4236
俺這	-10.4237
相連	-10.4239
歡娱	-10.424
雙眉	-10.4246
詞體	-10.4247
次句	-10.4248
頃	-10.4251
将軍	-10.4251
本意	-10.4253
近來	-10.4263
煙霞	-10.4265
新添	-10.4274
半空	-10.4274
四十九字	-10.4275
醉太平	-10.4275
香冷	-10.4285
平平仄	-10.4288
淡煙	-10.4289
鰲	-10.4293
碧玉	-10.4299
此則	-10.43
元好問	-10.4315
如雲	-10.4319
或云	-10.4323
擡	-10.4324
普天樂	-10.4325
躍	-10.4325
傍人	-10.4326
婚	-10.4327
綬	-10.4329
鬧	-10.433
漪	-10.4331
燃	-10.4331
殆	-10.4331
淋漓	-10.4332
防	-10.4333
殘夢	-10.4336
黄葉	-10.4337
檜	-10.434
臺上	-10.4341
春又	-10.4341
才郎	-10.4345
或曰	-10.4346
難得	-10.4346
笙簫	-10.4347
立春	-10.4352
花陰	-10.4355
尋春	-10.4358
木蘭花	-10.4362
家家	-10.4362
雨洗	-10.4363
将那	-10.4368
却是	-10.437
游絲	-10.4374
人散	-10.4376
往往	-10.4382
等閑	-10.4384
前詞	-10.4386
南園	-10.4388
同歡	-10.4389
閑愁	-10.4392
萬年	-10.4392
減一字	-10.4393
閉門	-10.4402
青絲	-10.4405
可謂	-10.4405
清波	-10.4408
箔	-10.4409
之間	-10.4413
殘陽	-10.4415
見他	-10.4415
詞也	-10.4416
霜天	-10.4417
套	-10.4417
暗想	-10.4419
相思病	-10.442
舊愁	-10.4424
向子諲	-10.4427
鼇	-10.4432
閱	-10.4436
恍	-10.4438
秋來	-10.444
吸	-10.4442
甃	-10.4443
刋	-10.4444
綱	-10.4444
緜	-10.4445
椿	-10.4446
鎭	-10.4446
油葫蘆	-10.4447
匳	-10.4447
啼鶯	-10.4447
邵	-10.4448
肚	-10.4448
謊	-10.4449
朱敦儒	-10.4453
詞綜	-10.4453
玻璃	-10.4454
一㑹家	-10.4455
夫妻	-10.4455
五十二字	-10.4458
弄影	-10.4458
粉蝶兒	-10.4458
丁寧	-10.446
水上	-10.4472
栁外	-10.4473
小詞	-10.4476
畫簾	-10.448
四十八字	-10.448
白鷗	-10.4481
還似	-10.4486
氷雪	-10.4487
行路	-10.4487
有此	-10.449
將軍	-10.4491
西施	-10.4491
東園	-10.4499
月轉	-10.4504
閒却	-10.451
占斷	-10.4511
雕梁	-10.4522
聲裏	-10.4522
巫	-10.4524
低垂	-10.4525
輕輕	-10.4529
朱樓	-10.4531
化工	-10.4532
長安道	-10.4534
雲飛	-10.4535
自在	-10.4539
新緑	-10.4541
兩處	-10.4543
緫	-10.4545
前調辛棄疾	-10.4546
身世	-10.4549
逄	-10.4554
沾衣	-10.4555
珠淚	-10.4556
深意	-10.4557
有箇	-10.4557
烟霞	-10.4559
橈	-10.4561
獨坐	-10.4562
埃	-10.4562
遐	-10.4563
基	-10.4564
偉	-10.4565
金井	-10.4567
蓴	-10.4568
歟	-10.4568
椽	-10.457
淚滴	-10.457
臺榭	-10.4571
闗河	-10.458
真珠	-10.4582
全無	-10.4583
華髪	-10.4583
徙	-10.4583
寒生	-10.4586
孤燈	-10.4586
利名	-10.4587
疎狂	-10.4593
紅豆	-10.4593
前歡	-10.4595
從今後	-10.4599
金鞍	-10.4602
露滴	-10.4606
諡文	-10.4607
曽見	-10.4607
竒絶	-10.4611
衣裳	-10.4618
平地	-10.4619
花朝	-10.4619
六十字	-10.462
山頭	-10.4621
九十八字	-10.4631
誰知道	-10.4638
換仄	-10.4643
一百三字	-10.4651
平湖	-10.4656
楚山	-10.4656
紅藥	-10.4658
歸後	-10.4658
晁詞	-10.4658
拾翠	-10.4661
行色	-10.4663
横波	-10.4663
珠翠	-10.4663
花草	-10.4663
細細	-10.4666
沐	-10.4669
丸	-10.4672
驂	-10.4674
欽	-10.4674
廵	-10.468
衙	-10.4681
奸	-10.4683
廉	-10.4684
確	-10.4685
股	-10.4685
垣	-10.4685
段各九句	-10.4687
擘	-10.4687
後叚	-10.4687
闘鵪鶉	-10.4687
紺	-10.4688
櫂	-10.4689
未醒	-10.4689
黄昇	-10.469
歴歴	-10.469
李易安	-10.4693
温存	-10.4695
萬斛	-10.4696
氷輪	-10.4696
雙槳	-10.4697
離騷	-10.4697
春在	-10.4698
長嘯	-10.47
單衣	-10.4703
鳳樓	-10.4704
暗度	-10.4712
一見	-10.4719
難尋	-10.4724
坐中	-10.4727
陳詞	-10.4735
葉葉	-10.474
釵横	-10.474
城南	-10.474
行行	-10.4744
絶句	-10.4745
閨思	-10.475
俱作	-10.4756
城頭	-10.4767
此夜	-10.4767
前調蘇軾	-10.4768
玉京	-10.4776
秦淮	-10.4778
霏霏	-10.4778
莫待	-10.4778
韓淲	-10.4785
飛雪	-10.4785
靖	-10.4785
紅顔	-10.4786
沸	-10.4788
空翠	-10.479
全不	-10.479
長門	-10.4791
無由	-10.4791
山前	-10.4797
稼	-10.4798
汲	-10.48
幼	-10.4801
巒	-10.4803
蟠	-10.4804
眼兒媚	-10.4804
迢遞	-10.4804
囉	-10.4805
汪莘	-10.4805
莎	-10.4806
邯鄲	-10.4807
伎	-10.4807
緯	-10.4807
菖蒲	-10.4809
邂逅	-10.4813
聨	-10.4813
嬌滴滴	-10.4814
秋意	-10.4815
雲深	-10.4817
片帆	-10.4818
垂虹	-10.4819
氷肌	-10.4819
方岳	-10.482
自憐	-10.4829
風流子	-10.483
前段第	-10.4832
髙低	-10.4834
翠幙	-10.4836
沈醉	-10.4836
環珮	-10.4837
金鴨	-10.4841
㣲雨	-10.4842
相隨	-10.4843
水面	-10.4844
樂章集	-10.4849
青鳥	-10.4853
懷古	-10.4855
須知	-10.4858
偶然	-10.4862
紅淚	-10.4864
紅燭	-10.4867
玉漏	-10.487
三弄	-10.4871
不用韻	-10.4883
未盡	-10.4892
帕	-10.4893
倒影	-10.4904
借問	-10.4907
一篇	-10.4907
歌罷	-10.4912
牛嶠	-10.4918
風物	-10.4918
嘴	-10.4919
人未	-10.492
劉過	-10.4921
濫	-10.4923
翡翆	-10.4924
震	-10.4924
醺	-10.4925
一半児	-10.4925
兩鬢	-10.4925
譽	-10.4927
昨宵	-10.4929
倫	-10.4931
幢	-10.4931
楊澤民	-10.4932
段各六句	-10.4934
鍼	-10.4934
刑	-10.4938
餘寒	-10.4938
瓊瑶	-10.4942
皆同	-10.4942
衣冠	-10.4944
一團	-10.4947
短亭	-10.4949
從他	-10.495
怎得	-10.495
相映	-10.4951
繡幃	-10.4955
不曾	-10.4956
無涉	-10.4958
秋容	-10.496
醉花隂	-10.4963
羣仙	-10.4967
燕燕	-10.4968
江西	-10.4973
淹留	-10.4978
青雲	-10.4992
送客	-10.4992
三尺	-10.4997
無路	-10.5002
眉頭	-10.5005
櫻	-10.5006
詞前段	-10.5006
朱簾	-10.5013
濃香	-10.5013
昇	-10.5022
六首	-10.5022
向晩	-10.5023
關情	-10.5023
砧	-10.5025
春早	-10.5028
可見	-10.5035
稽	-10.5041
也似	-10.5042
巨	-10.5044
未識	-10.5048
第一體	-10.5049
古道	-10.5049
不受	-10.5049
創	-10.505
翳	-10.5051
讓	-10.5051
㸃絳唇	-10.5052
諳	-10.5052
此身	-10.5053
憲	-10.5054
諡	-10.5055
志誠	-10.5055
猩	-10.5056
梨園	-10.5057
荔枝	-10.506
絕	-10.506
渡口	-10.5069
整頓	-10.5077
琴心	-10.5078
别首	-10.508
向來	-10.5084
金鳳	-10.5084
熬	-10.5085
少一字	-10.5086
縱横	-10.509
霎時	-10.509
為人	-10.5098
三生	-10.5098
限	-10.51
消痩	-10.5105
石湖	-10.5105
蘭亭	-10.5111
簌簌	-10.5113
所載	-10.5119
飛下	-10.5121
東凨	-10.5124
子瞻	-10.5128
相從	-10.5129
烏雲	-10.5136
應有	-10.5137
寐	-10.5143
前程	-10.5147
無一	-10.5149
背人	-10.5149
少年遊	-10.5155
風送	-10.5155
歸心	-10.5159
倚闌干	-10.5159
古詩	-10.516
紫燕	-10.5167
宝	-10.5168
薇	-10.517
耗	-10.5172
酉	-10.5173
偕	-10.5173
無名氏詞	-10.5173
犬	-10.5173
辟	-10.5173
又一首	-10.5173
葫蘆	-10.5174
褰	-10.5175
拏	-10.5175
塩	-10.5176
蹴	-10.5177
辱	-10.5178
飛入	-10.5179
罇	-10.5179
無盡	-10.5179
嫣然	-10.518
八聲甘州	-10.518
半晌	-10.5182
仔細	-10.5183
饑	-10.5183
斍	-10.5183
芸	-10.5184
隂晴	-10.5184
抵多少	-10.5185
一晌	-10.5186
銀箏	-10.5186
活計	-10.5187
逺水	-10.5189
莫把	-10.5191
花時	-10.5192
玉笛	-10.5195
第二體	-10.5197
上林	-10.5207
國公	-10.5209
十六字	-10.5212
金樽	-10.5214
輕衫	-10.5229
光陰	-10.523
飛雲	-10.5231
暮天	-10.5233
倚欄	-10.5233
見説	-10.524
前題	-10.5242
夜闌	-10.5248
浮名	-10.5258
五十一字	-10.5261
長調	-10.5261
曉寒	-10.5261
相照	-10.5265
消盡	-10.5269
李珣	-10.527
那裏	-10.5271
佇	-10.5271
雨細	-10.5279
曉日	-10.5284
中年	-10.5287
前度	-10.5292
芒	-10.5295
爲誰	-10.5295
孰	-10.5296
吳山	-10.5296
結子	-10.5296
曙	-10.5297
蔽	-10.5297
瞞	-10.5297
慧	-10.5298
琅	-10.5299
㡬回	-10.53
畏	-10.5301
妹	-10.5301
豊	-10.5302
佯	-10.5302
滋	-10.5302
允	-10.5302
龍涎	-10.5303
契	-10.5303
金猊	-10.5303
秘	-10.5303
罥	-10.5303
洛浦	-10.5304
鮑	-10.5305
旣	-10.5305
烏紗	-10.5306
應笑	-10.5306
両	-10.5306
溢	-10.5306
繇	-10.5307
坼	-10.531
空有	-10.5311
榮華	-10.5318
盡是	-10.5319
皆然	-10.5322
凨月	-10.5328
雨中花	-10.533
百般	-10.5333
勾引	-10.5335
謫仙	-10.5335
姑蘇	-10.5341
飄泊	-10.5341
羅帕	-10.5343
同醉	-10.5351
吳興	-10.5353
取次	-10.5353
一世	-10.5354
珍重	-10.5356
絶妙	-10.5356
女子	-10.5357
詞注	-10.5357
纖纖	-10.5359
藕絲	-10.536
故鄉	-10.5361
天髙	-10.5363
簾垂	-10.5365
也有	-10.5367
笛聲	-10.5372
花鈿	-10.5373
胸中	-10.5374
凉州	-10.5377
春隂	-10.5379
夜䦨	-10.5381
三煞	-10.539
金粟	-10.5392
一百字	-10.5394
多嬌	-10.54
東風裏	-10.5411
送别	-10.5414
畢	-10.5419
其所	-10.5423
古今詞話	-10.5428
航	-10.543
靴	-10.5431
覻	-10.5431
悠揚	-10.5432
南渡	-10.5432
蛙	-10.5432
氤氲	-10.5432
俄	-10.5433
暄	-10.5433
聲聲慢	-10.5433
皓齒	-10.5433
塔	-10.5434
芙蕖	-10.5434
絲竹	-10.5436
鸂鶒	-10.5436
悶懨懨	-10.5436
白苧	-10.5437
祇	-10.5437
是誰	-10.5438
枕簟	-10.5438
漁翁	-10.5442
更無	-10.5442
想像	-10.5444
乗興	-10.5448
酒杯	-10.5454
逢迎	-10.5455
猶帶	-10.546
花香	-10.5461
見如今	-10.5463
正與	-10.5468
第十句	-10.5469
丰	-10.5475
飄然	-10.5479
豐年	-10.5484
待要	-10.549
雲氣	-10.5492
小窗	-10.5495
芳塵	-10.5495
遥望	-10.55
照水	-10.5505
㱕去	-10.5512
之意	-10.5519
獨占	-10.5528
也曽	-10.5532
到底	-10.5535
越調	-10.5536
吳子孝	-10.5537
酒病	-10.5538
姻縁	-10.554
紅裙	-10.5541
正月	-10.5543
煙草	-10.5547
牌	-10.5551
坎	-10.5553
匹	-10.5554
吹落	-10.5554
𨳩	-10.5554
體惟	-10.5554
嵐	-10.5555
琅玕	-10.5555
隐	-10.5557
拽	-10.5559
聲中	-10.5559
姝	-10.556
劉克莊	-10.556
純	-10.556
虬	-10.556
潮平	-10.5561
􁗠	-10.5561
摸	-10.5561
羌管	-10.5562
祝英臺近	-10.5564
鵲踏枝	-10.5564
康與之	-10.5565
羌笛	-10.5565
文字	-10.5566
丹楓	-10.5566
浮萍	-10.5566
悪	-10.5567
征鞍	-10.557
繫馬	-10.5571
張輯	-10.5571
貶	-10.5571
追思	-10.5572
類列	-10.5573
酒䦨	-10.5574
銀鈎	-10.558
樂章	-10.558
輕隂	-10.5581
不思量	-10.5584
與人	-10.5587
香飄	-10.5587
詞同	-10.5591
疎簾	-10.5593
已是	-10.5594
虚名	-10.5596
嵗華	-10.5596
以備	-10.5599
和月	-10.5602
兩意	-10.5614
只為	-10.5616
撩	-10.5632
其中	-10.5637
着這	-10.5637
天子	-10.5639
殘霞	-10.5644
瀟瀟	-10.5646
醪	-10.5655
歐	-10.5657
簾鈎	-10.5659
遥想	-10.5661
行處	-10.5662
最好	-10.5663
桃杏	-10.5663
玉宇	-10.5667
清尊	-10.5669
栁隂	-10.5669
六朝	-10.5673
那裡	-10.5673
碧桃	-10.5674
羙人	-10.5677
杜鵑	-10.5677
金盞	-10.5679
而已	-10.5681
天街	-10.5681
何郎	-10.5682
花氣	-10.5683
堂前	-10.5683
宫中	-10.5684
茆	-10.5684
鎗	-10.5687
隨分	-10.5688
躡	-10.5689
綸巾	-10.5689
渾如	-10.569
永遇樂	-10.5691
遽	-10.5692
蓮花	-10.5693
檥	-10.5695
討	-10.5696
細草	-10.5697
郵亭	-10.5697
茅屋	-10.5697
拱	-10.5697
讌	-10.5698
蕩漾	-10.5701
玳筵	-10.5702
三百	-10.5704
草色	-10.5705
鬢影	-10.5706
周宻	-10.5711
霜華	-10.5711
夢囘	-10.5713
驛使	-10.5714
兩眉	-10.5714
自度曲	-10.5714
自從	-10.5719
蜂兒	-10.5722
相偎	-10.5724
押韻異	-10.5729
置酒	-10.573
吹散	-10.573
後主	-10.5731
譙	-10.5733
曰此	-10.5734
翠竹	-10.5739
誰識	-10.5739
成行	-10.574
片玉	-10.5748
葉落	-10.5753
西去	-10.5755
成雙	-10.5756
傾國	-10.5758
清霜	-10.5758
芳徑	-10.5761
自笑	-10.5761
之作	-10.5762
文園	-10.5766
夢醒	-10.5769
紗窗	-10.5775
紅蓮	-10.5775
秀才	-10.5775
無雙	-10.5779
平分	-10.5779
雨晴	-10.578
小字	-10.5788
心中	-10.5793
爭奈	-10.5797
李之儀	-10.5799
有客	-10.5806
壽陽	-10.5809
江邊	-10.5809
賞心	-10.581
胎	-10.5813
翩	-10.5819
搜	-10.5819
割	-10.5819
覇	-10.5822
挾	-10.5822
浩蕩	-10.5823
篩	-10.5823
仄韻後段十一句	-10.5823
逃	-10.5823
君家	-10.5823
鋤	-10.5823
頌	-10.5824
聴的	-10.5824
掣	-10.5825
餌	-10.5825
杜牧	-10.5825
酩酊	-10.5827
窣	-10.5827
槩	-10.5827
鄙	-10.5828
輯	-10.5828
搭	-10.5828
狗	-10.5828
誰憐	-10.5829
銅壺	-10.5829
您	-10.583
驀地	-10.583
別離	-10.5831
誕	-10.5831
迢逓	-10.5833
馥	-10.5833
縠	-10.5835
花裏	-10.5837
宿酒	-10.5837
怎肯	-10.584
仙吕	-10.5841
斗帳	-10.5843
檀郎	-10.5845
憶王孫	-10.5847
知我	-10.5849
攤破句法	-10.585
騷人	-10.5852
小庭	-10.5857
想着	-10.5857
華屋	-10.5858
詞俱	-10.5864
山青	-10.5866
冷淡	-10.5872
歲月	-10.5872
再三	-10.5878
紅雲	-10.588
一百十	-10.5881
愁多	-10.5884
闗情	-10.5886
緑樹	-10.5888
湘裙	-10.5899
舞袖	-10.5902
夜色	-10.5903
竹山	-10.5906
湘江	-10.5907
音塵	-10.5908
風和	-10.5911
如醉	-10.5927
前調周邦彦	-10.5933
涉	-10.5934
莫道	-10.5934
明媚	-10.5935
王謝	-10.5937
遞	-10.5937
甚處	-10.5945
誰為	-10.5946
伶	-10.5948
鑄	-10.5952
詩書	-10.5953
金釧	-10.5954
範	-10.5955
挨	-10.5957
畫欄	-10.5958
稳	-10.5959
狼	-10.596
盧炳	-10.596
黄鶯	-10.5961
幡	-10.5961
桒	-10.5961
誰承望	-10.5962
瘴	-10.5962
菰	-10.5964
東城	-10.5964
絆	-10.5965
虗	-10.5965
畫舸	-10.5965
趨	-10.5966
啄	-10.5966
茉莉	-10.597
以上	-10.597
潘郎	-10.5973
七句	-10.5976
春工	-10.5979
只見	-10.5984
楊桞	-10.5984
與誰同	-10.5986
睡覺	-10.5994
欲暮	-10.5996
星河	-10.5996
詞統	-10.5997
中州	-10.5997
五陵	-10.5998
此花	-10.6001
都在	-10.6002
西陵	-10.6003
青苔	-10.6005
情難	-10.6008
戍	-10.601
四十字	-10.6014
留客	-10.602
花深	-10.6021
嘯餘	-10.6021
歌金縷	-10.6026
吹盡	-10.6028
今畨	-10.603
此景	-10.603
芳叢	-10.603
其聲	-10.6036
如織	-10.604
雙鬢	-10.604
白日	-10.6042
琴書	-10.6046
立馬	-10.6052
秋娘	-10.6057
名園	-10.606
爭似	-10.6069
甚日	-10.607
紅英	-10.6073
解語	-10.6074
輕别	-10.6075
幽怨	-10.6077
十月	-10.6077
濛	-10.6082
孤鸞	-10.6083
張埜	-10.6089
知多少	-10.6091
括	-10.6091
夜行船	-10.6092
江南好	-10.6092
水晶簾	-10.6092
涎	-10.6093
佀	-10.6094
似雪	-10.6094
萬重	-10.6095
抺	-10.6096
鵠	-10.6096
啞	-10.6097
抛擲	-10.6098
㓜	-10.6099
穴	-10.61
金蕉葉	-10.6101
亥	-10.6101
折桂令	-10.6102
庄	-10.6102
五十六字	-10.6104
故山	-10.6106
楓葉	-10.6106
柳絮	-10.6106
肝	-10.6107
羅幙	-10.6107
人千里	-10.6108
知是	-10.6109
生寒	-10.6109
和羮	-10.6111
秦少游	-10.6111
九十七字	-10.6116
一分	-10.6117
不下	-10.6117
海棠花	-10.612
驚覺	-10.6123
醉眠	-10.6128
百歲	-10.6129
妙舞	-10.6132
孤館	-10.6133
稍異	-10.6133
歡㑹	-10.6133
漸漸	-10.6134
異按	-10.6134
二巻	-10.6135
千鍾	-10.6137
遊蜂	-10.6144
萋萋	-10.6146
送君	-10.6149
還有	-10.6152
翠鬟	-10.6164
家住	-10.6166
五十八字	-10.6167
夢繞	-10.6177
姓名	-10.6179
雖然	-10.6182
緑鬢	-10.6184
永夜	-10.6185
望眼	-10.6187
臨岐	-10.6195
只今	-10.6199
朝朝	-10.6203
弄晴	-10.6204
洗盡	-10.6204
小梁州	-10.6212
水仙	-10.6212
别時	-10.6212
作六字	-10.6213
離緒	-10.6218
万	-10.6218
見說	-10.6219
等謹案	-10.6222
雙調四十	-10.6223
蛟	-10.6225
无	-10.6229
熖	-10.623
姐姐	-10.623
愴	-10.623
湛	-10.6231
翠蛾	-10.6231
呆	-10.6232
邑	-10.6232
隄	-10.6232
扃	-10.6236
朝中措	-10.6236
複	-10.6236
酹	-10.6237
霜天曉角	-10.6237
扄	-10.6238
窈	-10.6238
曵	-10.6241
迅	-10.6242
悮	-10.6243
芬芳	-10.6244
吾廬	-10.6244
􁂼	-10.6245
一行	-10.6245
黯黯	-10.6247
夜来	-10.6248
有一日	-10.6248
折腰	-10.625
有一	-10.6251
喉	-10.6253
華髮	-10.6257
蒼蒼	-10.6258
商調	-10.6264
烏絲	-10.6264
酔春風	-10.6274
一叚	-10.628
與誰	-10.629
作此詞	-10.6292
可人	-10.6293
黛眉	-10.6295
舞衣	-10.6299
時見	-10.6305
鸞鳳	-10.6309
無賴	-10.6309
莫遣	-10.6311
先到	-10.6318
一聲聲	-10.6319
關河	-10.632
對此	-10.6327
字數	-10.6333
且莫	-10.6334
心似	-10.6335
天仙	-10.6341
詞以	-10.6342
可也	-10.6344
後段第五句	-10.6346
可意	-10.6354
一對	-10.6354
愁悶	-10.6356
因他	-10.636
鈞	-10.6362
摺	-10.6364
三兩	-10.6364
寰	-10.6368
那知	-10.6371
日斜	-10.6371
嶼	-10.6372
牽情	-10.6372
哥	-10.6373
鸞凰	-10.6373
塡	-10.6373
属	-10.6373
成都	-10.6375
欲寄	-10.6376
磬	-10.6376
胷	-10.6376
式	-10.6378
凄凄	-10.6379
綵雲	-10.638
飈	-10.638
霜風	-10.6381
桂枝香	-10.6381
翎	-10.6381
鋒	-10.6382
款	-10.6382
岑寂	-10.6383
薌林	-10.6384
重省	-10.6384
子規	-10.6385
樂府雅詞	-10.6386
沙頭	-10.6386
征衫	-10.6386
其實	-10.6387
迤逗	-10.6388
好似	-10.6389
感慨	-10.639
猿鶴	-10.6392
解連環	-10.6393
别作	-10.6393
不了	-10.6393
流螢	-10.6398
夏日	-10.641
喚醒	-10.6414
未歸	-10.6417
放翁	-10.6418
白首	-10.6422
誰敢	-10.6423
小舟	-10.6424
吳詞	-10.6424
醒來	-10.6426
吳江	-10.6431
紗窓	-10.6436
醉墨	-10.6438
秀色	-10.6442
雙調一	-10.6447
瓊林	-10.6449
年紀	-10.6451
長在	-10.6457
到頭	-10.6458
人皆	-10.646
綠水	-10.6466
西池	-10.6479
平章	-10.6481
東陽	-10.6484
野水	-10.6485
央	-10.649
鼓吹	-10.6492
句六字	-10.6493
如晝	-10.6498
多一	-10.6498
從来	-10.6499
俱用	-10.65
桂子	-10.6501
寒鴉	-10.6501
如雨	-10.6501
字為	-10.6502
眼波	-10.6503
毒	-10.651
作四字	-10.651
春雲	-10.6511
不出	-10.6513
癸	-10.6514
唐詞	-10.6515
蔓	-10.6515
絨	-10.6516
瀛	-10.6517
戚	-10.6517
照眼	-10.6518
矜	-10.6518
耿	-10.6519
川撥棹	-10.6519
那其間	-10.6521
瓣	-10.6521
鄕	-10.6522
颼颼	-10.6522
皂	-10.6522
自家	-10.6522
墅	-10.6523
㱕来	-10.6523
箕	-10.6523
占得	-10.6525
剗地	-10.6525
子規啼	-10.6526
簔	-10.6527
珠璣	-10.6527
翰林學士	-10.6528
致仕	-10.6529
滄海	-10.6529
忘憂	-10.653
待制	-10.653
醉落魄	-10.6532
樂章集注	-10.6532
江樓	-10.6532
一百一字	-10.6538
前生	-10.654
眉嫵	-10.6546
湖邊	-10.6546
柳絲	-10.6547
待月	-10.6547
亭上	-10.655
臨安	-10.655
清閑	-10.6552
譜圖	-10.6553
太白	-10.6555
他日	-10.6559
繡户	-10.6561
那得	-10.6563
宰相	-10.6564
西凨	-10.6564
嬌紅	-10.6565
小池	-10.6566
在否	-10.6568
塵暗	-10.657
相催	-10.6576
月斜	-10.6578
宫調	-10.6579
松風	-10.658
可是	-10.6581
風動	-10.6583
林泉	-10.6583
九月	-10.6584
連雲	-10.6586
暮寒	-10.6586
山翁	-10.6588
金鈎	-10.6599
分飛	-10.6603
青梅	-10.661
清晝	-10.6613
如洗	-10.6616
亦然	-10.6617
玉林	-10.6632
倚徧	-10.6632
翠微	-10.6632
十五字	-10.664
相守	-10.6642
離亭	-10.6647
一疊韻	-10.6649
去了	-10.6649
碧梧	-10.665
伴我	-10.6651
茫	-10.6652
一百二字	-10.6656
輕舟	-10.6657
椀	-10.6657
竭	-10.6661
嚮	-10.6661
㢤	-10.6662
誚	-10.6662
霖	-10.6662
賭	-10.6663
植	-10.6663
秉	-10.6663
形骸	-10.6664
騎鯨	-10.6664
換韻	-10.6665
葛勝仲	-10.6665
蓬瀛	-10.6666
乏	-10.6667
呢喃	-10.6667
堕	-10.6667
譏	-10.6667
閏	-10.6668
蒼茫	-10.6669
凝睇	-10.667
歐陽永叔	-10.667
䝉	-10.667
裀	-10.667
籹	-10.667
舩	-10.6672
寳馬	-10.6672
在何處	-10.6676
我将這	-10.6678
聖主	-10.6679
重尋	-10.668
釧	-10.6681
句五字	-10.6682
詞二首	-10.6685
手撚	-10.6688
更漏子	-10.6688
似這般	-10.669
自知	-10.6691
十九字	-10.6695
朱絃	-10.6697
愛惜	-10.67
燕飛	-10.6704
歲華	-10.6706
詞二巻	-10.6706
征衣	-10.671
相倚	-10.6711
醉醒	-10.6712
七言	-10.6714
前調晏殊	-10.6715
畫梁	-10.6715
尾句	-10.6717
来的	-10.672
繡閣	-10.6721
之云	-10.6725
造化	-10.6729
夢雲	-10.673
紗囱	-10.674
高唐	-10.674
香浮	-10.6744
之所	-10.6746
非也	-10.6749
煞尾	-10.6751
千㸃	-10.6755
不宜	-10.6756
塵生	-10.6761
亦是	-10.6761
江流	-10.6763
非是	-10.6767
郎君	-10.6775
狂歌	-10.6777
見之	-10.6777
斚	-10.6778
生平	-10.6778
愁難	-10.6781
贏	-10.6784
紅衣	-10.6784
早晚	-10.6788
長笛	-10.6789
漸逺	-10.6795
歐陽	-10.6801
憎	-10.6803
之子	-10.6803
匝	-10.6804
戊	-10.6805
雲中	-10.6805
域	-10.6805
逆	-10.6805
嵩	-10.6809
碧紗	-10.681
憔	-10.6811
滚	-10.6811
黙	-10.6811
洽	-10.6812
撮	-10.6812
減字木蘭花	-10.6812
協	-10.6813
閒倚	-10.6813
聖藥王	-10.6814
斷人腸	-10.6814
黨	-10.6814
収拾	-10.6815
飇	-10.6815
身軀	-10.6816
朧	-10.6816
峻	-10.6816
史逹祖	-10.6816
以入作平	-10.6816
黃花	-10.6816
洋	-10.6817
吊	-10.6819
渴	-10.682
煥	-10.682
避暑	-10.6821
瑞雪	-10.6821
欲問	-10.6822
清泉	-10.6822
多押一韻	-10.6823
都做了	-10.6824
初夏	-10.6829
腰圍	-10.683
眉山	-10.6831
乳燕	-10.6834
鴛被	-10.6837
五十五字	-10.6837
誰問	-10.6838
誰見	-10.6838
開遍	-10.684
女伴	-10.684
離魂	-10.6842
用去聲	-10.6845
元人	-10.6847
玉腕	-10.6848
一云	-10.685
更好	-10.6853
常是	-10.6854
萬家	-10.6854
莫負	-10.686
翠眉	-10.6862
衾寒	-10.6862
春殘	-10.6862
又曰	-10.6867
春已	-10.6871
黄昏後	-10.6877
幽情	-10.6878
吹徹	-10.6882
怎當	-10.6883
瓊樓	-10.689
遇着	-10.6901
栁詞	-10.6908
羅浮	-10.6908
在手	-10.6909
松江	-10.6911
紅爐	-10.6911
何况	-10.6912
誰人	-10.6918
晴晝	-10.6919
石榴花	-10.6923
未刻	-10.6924
玉女	-10.6925
難成	-10.6925
伊家	-10.6931
去上	-10.6931
新荷	-10.6934
之語	-10.6945
与	-10.6947
丢	-10.6951
規	-10.6953
珂	-10.6955
耆卿	-10.6955
缸	-10.6955
煉	-10.6957
燭影揺紅	-10.6958
攲	-10.6958
挺	-10.6958
巫峽	-10.6958
塊	-10.6959
八月	-10.696
匣	-10.696
掀	-10.696
嗣	-10.6961
渇	-10.6961
楊慎	-10.6961
襖	-10.6961
謔	-10.6962
濵	-10.6962
瀛洲	-10.6962
房櫳	-10.6963
張榘	-10.6963
茅舍	-10.6965
晏叔原	-10.6966
蕭瑟	-10.6966
悠然	-10.6966
教坊	-10.6966
滄波	-10.6967
闌珊	-10.6967
昧	-10.6968
咎	-10.6969
干戈	-10.6969
人來	-10.6972
商量	-10.6973
送人	-10.6974
南州	-10.6974
御史	-10.6974
天長	-10.6975
青霄	-10.6987
凉月	-10.6988
釣魚	-10.699
中流	-10.6996
桞永	-10.6996
隨流水	-10.6999
燭花	-10.7
蕭然	-10.7003
爭如	-10.7003
折得	-10.7005
▁此詞	-10.7009
有限	-10.701
花上	-10.7011
欄杆	-10.7012
悲歡	-10.7012
着意	-10.7012
驚飛	-10.7018
春去也	-10.7022
長橋	-10.7023
佳氣	-10.7024
更深	-10.7024
翻成	-10.7025
湖海	-10.703
三秋	-10.703
寄情	-10.703
新秋	-10.7032
驟雨	-10.7032
舞腰	-10.7035
将這	-10.7042
莫辭	-10.7043
月淡	-10.7044
幽歡	-10.7044
幃屏	-10.7047
四仄韻後段十句	-10.7047
殘雨	-10.705
庭前	-10.7051
一家	-10.7058
殘妝	-10.706
樓下	-10.7064
雲遮	-10.7066
一枝春	-10.707
二三	-10.707
水逺	-10.7076
膚	-10.7078
含情	-10.7079
緑雲	-10.7089
别名	-10.7093
賦此	-10.7093
春凨	-10.7094
娛	-10.7096
雙調五	-10.71
杏花天	-10.71
旬	-10.7102
光中	-10.7103
縷金	-10.7104
灌	-10.7104
搬	-10.7105
姻	-10.7105
亷	-10.7107
耍孩兒	-10.7107
渉	-10.7107
寕	-10.7107
禱	-10.7108
我和他	-10.7108
斬	-10.7108
詞及	-10.7108
繭	-10.7109
攔	-10.7109
韤	-10.7109
勘	-10.7111
疆	-10.7111
剥	-10.7111
邱	-10.7112
元龍	-10.7112
祭	-10.7112
篋	-10.7112
狼藉	-10.7113
棗	-10.7113
万俟雅言	-10.7113
慷慨	-10.7113
酧	-10.7114
每日家	-10.7114
皱	-10.7115
滄洲	-10.7115
坑	-10.7115
蓬島	-10.7116
未許	-10.7116
署	-10.7116
十日	-10.7116
融融	-10.7117
蕤	-10.7117
莫愁	-10.7119
大石調	-10.712
簌	-10.712
雕欄	-10.7121
桂影	-10.7122
上苑	-10.7125
鈿車	-10.7128
唐詩	-10.7134
芳酒	-10.7135
羅幕	-10.7136
費盡	-10.7141
南飛	-10.7141
想起	-10.7143
翠翹	-10.7143
碧山	-10.7143
風生	-10.7144
絃索	-10.7144
前調石孝友	-10.7144
問訊	-10.7148
花邊	-10.7148
東皇	-10.7153
立盡	-10.7153
輕雲	-10.7153
都無	-10.7154
水仙子	-10.7154
寒蛩	-10.7154
雨霽	-10.7155
墻頭	-10.7157
中間	-10.7157
夀陽	-10.716
碧樹	-10.716
安得	-10.7162
堤上	-10.7165
路杳	-10.7169
怕見	-10.717
池閣	-10.7171
常記	-10.7171
必有	-10.7172
開宴	-10.7176
多愁	-10.7176
人憔悴	-10.7178
魂飛	-10.718
得似	-10.7182
啼紅	-10.7188
永日	-10.7188
八首	-10.7189
江海	-10.7189
不知何	-10.7191
君恩	-10.7196
綠鬢	-10.7197
潮生	-10.7204
楚雲	-10.7206
㡬多	-10.7206
離歌	-10.7212
此詞前段	-10.7217
冷浸	-10.7219
這般	-10.7219
樓中	-10.7225
料得	-10.7228
低低	-10.723
杯酒	-10.7235
東閣	-10.7236
醉翁	-10.7237
詞品	-10.7239
君莫	-10.7239
訊	-10.724
遊冶	-10.724
從之	-10.7243
斷續	-10.7246
横空	-10.725
豹	-10.7255
𣣔	-10.7256
一二	-10.7258
杵	-10.7259
煑	-10.7259
狠	-10.726
濱	-10.7261
靚	-10.7262
白酒	-10.7262
女冠子	-10.7262
孤雲	-10.7263
俯仰	-10.7263
庸	-10.7264
涕	-10.7264
初見	-10.7264
淘	-10.7265
我這裡	-10.7265
侑	-10.7265
霓	-10.7266
康伯可	-10.7267
炬	-10.7267
㩦	-10.7267
宫闕	-10.7267
件	-10.7268
姻緣	-10.7268
圭	-10.7268
時人	-10.7269
箱	-10.727
美酒	-10.727
踐	-10.727
南柯	-10.7271
區區	-10.7272
疎籬	-10.7272
留春住	-10.7272
朱扉	-10.7273
窠	-10.7273
絳蠟	-10.7274
蓬山	-10.7277
裙腰	-10.7283
端午	-10.7284
傷悲	-10.7287
忘機	-10.7287
減字	-10.7288
好教我	-10.7288
怕的是	-10.7288
如昨	-10.7289
蕭郎	-10.7289
集詞一巻	-10.729
如故	-10.7292
五十四字	-10.7295
蘭房	-10.7296
鬬草	-10.7297
臨川	-10.73
井梧	-10.73
沈氏	-10.73
四體	-10.7304
無復	-10.7304
四面	-10.7305
知心	-10.7307
芳洲	-10.7307
嬌小	-10.7315
宜春	-10.7315
者有	-10.7318
何年	-10.7322
政和	-10.7323
仙姿	-10.7323
歌吹	-10.7324
小春	-10.7324
那堪更	-10.7329
相應	-10.733
此心	-10.7337
仙翁	-10.7339
天仙子	-10.7341
髙城	-10.7344
只恁	-10.7344
自製	-10.7348
三聲	-10.7356
累官	-10.7362
應念	-10.7363
新燕	-10.7364
沉酔	-10.7376
未嘗	-10.7379
陂	-10.7379
陣陣	-10.738
醉時	-10.7382
行到	-10.7382
清露	-10.7383
兩地	-10.7388
紅橋	-10.7394
清愁	-10.7394
仙音	-10.7399
処	-10.74
杜䳌	-10.7412
相似	-10.7414
玉笙	-10.7415
驢	-10.7416
劃	-10.7417
幾囘	-10.7419
稔	-10.7419
騰騰	-10.7419
闈	-10.742
淳	-10.742
飡	-10.7421
敏	-10.7421
尼	-10.7422
憨	-10.7422
奕	-10.7423
酷	-10.7423
荼	-10.7425
喝	-10.7425
拳	-10.7426
倘	-10.7426
泠泠	-10.7428
禅	-10.7428
料應	-10.7428
昭君怨	-10.7428
心如	-10.7429
鴈児落	-10.7429
栁梢青	-10.7431
金鳯	-10.7432
隨意	-10.7434
因循	-10.7435
梳粧	-10.7438
朝天子	-10.744
提舉	-10.744
寳鼎	-10.7443
執手	-10.7443
清真集	-10.7444
嵗嵗	-10.7447
狂風	-10.7447
不復	-10.7453
我亦	-10.7454
泛舟	-10.7455
烏鵲	-10.746
羅巾	-10.7467
過眼	-10.7468
千騎	-10.7468
花殘	-10.7473
何計	-10.7476
春夜	-10.7477
雲髻	-10.7486
亂雲	-10.7486
金碧	-10.7491
枕邊	-10.7493
佳景	-10.7494
也難	-10.7495
虚度	-10.7496
滿酌	-10.7514
何處去	-10.7514
驚秋	-10.7515
白蓮	-10.7517
北山	-10.7526
誰解	-10.7528
十八字	-10.7529
穿花	-10.753
酒闌	-10.7535
斗酒	-10.7536
暮春	-10.7536
武陵溪	-10.7537
酒力	-10.754
鬢邊	-10.7544
心児	-10.7544
怎不	-10.7552
更䦨	-10.7552
三春	-10.7555
范成大	-10.7555
殢酒	-10.7557
分外	-10.756
霜月	-10.756
着我	-10.7561
梧葉	-10.7562
南唐李煜	-10.7563
李詞	-10.7566
五色	-10.757
爵	-10.7572
兆	-10.7574
小窓	-10.7576
阜	-10.7576
岑	-10.7577
報道	-10.7578
睛	-10.7578
纂官	-10.7578
黎	-10.7579
蔣㨗	-10.7579
抄	-10.7579
獵	-10.758
抑	-10.7581
豫章	-10.7582
榆錢	-10.7583
暴	-10.7583
醉魂	-10.7584
呪	-10.7585
狎	-10.7585
牖	-10.7586
梧葉兒	-10.7586
香殘	-10.7587
樷	-10.7587
賀聖朝	-10.7587
李後主	-10.7589
秉燭	-10.7589
玉簮	-10.7589
塵寰	-10.759
㡬番	-10.759
雨歇	-10.7591
愚謂	-10.7593
聽得	-10.7593
塞鴻	-10.7594
未央	-10.7599
第五六句	-10.76
孫士	-10.7601
雲淡	-10.7602
西窗	-10.7605
相逄	-10.7606
一捻	-10.7608
氷壺	-10.7608
間有	-10.7609
世界	-10.7611
渡江	-10.7614
着箇	-10.7614
堪惜	-10.7615
詩詞	-10.7615
天如水	-10.7616
娜	-10.7616
令人	-10.7619
出門	-10.7621
玉手	-10.7623
相思淚	-10.7623
金獸	-10.763
微雲	-10.763
身外	-10.7633
愁思	-10.7634
勝似	-10.7636
着那	-10.7638
前調賀鑄	-10.764
得之	-10.7642
恰纔	-10.7642
太學	-10.7644
醉蓬萊	-10.7644
鬼病	-10.7645
凝情	-10.7652
野草	-10.7658
者亦	-10.766
半醉	-10.7662
兩下	-10.7662
青子	-10.7668
飲散	-10.7676
長天	-10.7676
作五字	-10.7683
金鋪	-10.7686
兩情	-10.7689
暫時	-10.7689
春光好	-10.769
一抹	-10.7695
玉指	-10.7696
未能	-10.7699
成韻	-10.77
心性	-10.7702
籟	-10.7704
曉色	-10.7704
尋花	-10.7705
添一	-10.7707
水沉	-10.7707
黯淡	-10.7709
盡成	-10.7716
與我	-10.7719
隨人	-10.7719
荷香	-10.7723
西畔	-10.7724
天意	-10.7725
秋江	-10.7727
相合	-10.7727
滿頭	-10.7728
緑暗	-10.7729
函	-10.7729
甚多	-10.773
功成	-10.773
水茫茫	-10.7731
皷	-10.7733
麈	-10.7733
舒亶	-10.7734
行舟	-10.7735
詢	-10.7735
欽定四庫全書集部十	-10.7735
悴	-10.7736
摶	-10.7737
蹋	-10.7737
鳳簫	-10.7738
昀	-10.7738
扯	-10.7738
伐	-10.7739
搊	-10.7739
區	-10.774
蹅	-10.774
淅淅	-10.774
檠	-10.774
柑	-10.774
坦	-10.774
卯	-10.7741
憤	-10.7741
敝	-10.7741
琢	-10.7741
潄	-10.7742
鵬	-10.7742
雌	-10.7743
攛	-10.7743
啼鴂	-10.7744
漆	-10.7744
㝡	-10.7744
唐教坊曲名	-10.7746
蹇	-10.7746
璚	-10.7746
嶽	-10.7746
蓉	-10.7746
二郎神	-10.7746
霰	-10.7746
粉蝶児	-10.7748
眄	-10.7748
裛	-10.775
木蘭花慢	-10.7752
紗㡡	-10.7752
他生的	-10.7753
龍蛇	-10.7754
柳耆卿	-10.7754
落霞	-10.7755
樞密	-10.7756
無主	-10.7756
應天長	-10.7757
田園	-10.7764
簾巻	-10.7766
柔條	-10.7767
滄	-10.7767
誰在	-10.7771
春江	-10.7774
老樹	-10.7777
曲屏	-10.7781
兩結句	-10.7782
幸有	-10.7787
瑞鷓鴣	-10.7789
調笑	-10.7797
即是	-10.7798
林外	-10.7798
舊游	-10.7799
欲下	-10.78
眉峯	-10.7803
吾皇	-10.7807
佳句	-10.7809
綺羅香	-10.7809
栁花	-10.781
千歲	-10.781
不奈	-10.781
千花	-10.7811
情薄	-10.7812
風力	-10.7813
南來	-10.7814
幾處	-10.7815
玉纖	-10.7822
十萬	-10.7823
望處	-10.7823
本調	-10.7824
陰陰	-10.7827
羅帳	-10.7829
銷凝	-10.783
伴人	-10.7832
連理	-10.7834
初開	-10.7836
恁時	-10.7838
不教	-10.7838
曽記	-10.7839
料峭	-10.7846
逺近	-10.7847
度曲	-10.7849
成空	-10.785
空堦	-10.7858
日暖	-10.786
為問	-10.7861
句四字	-10.7862
玉龍	-10.7866
倦遊	-10.7868
春遊	-10.7869
繡帶	-10.787
寒夜	-10.7876
其後	-10.7879
酒邊	-10.788
花徑	-10.7881
滕	-10.7881
麗日	-10.7886
得人	-10.7886
第五	-10.7887
綉簾	-10.7897
歡意	-10.7897
悲歌	-10.7899
娶	-10.7899
泠	-10.79
珮環	-10.79
字入聲	-10.7901
腴	-10.7903
誅	-10.7905
援	-10.7906
韜	-10.7907
鉤	-10.7907
何夢桂	-10.7908
歹	-10.7908
那吒令	-10.7908
如絲	-10.7908
揀	-10.7908
遏	-10.7909
墳	-10.7909
巍巍	-10.7909
膾	-10.791
□□	-10.791
鮫	-10.791
槽	-10.791
㸃絳脣	-10.7911
神女	-10.7911
椉	-10.7911
曹勛	-10.7914
後段結句	-10.7914
上三下四	-10.7914
曹組	-10.7915
渭城	-10.7916
喬木	-10.7917
那些	-10.7917
五仄韻後段十句	-10.7918
我這裏	-10.7918
落花飛絮	-10.7919
萬千	-10.792
花發	-10.7921
辛苦	-10.7927
字仄聲第四句	-10.7927
連宵	-10.793
漁舟	-10.7932
元祐	-10.7932
含羞	-10.7933
玉砌	-10.7935
天上人間	-10.7935
江亭	-10.7939
未放	-10.794
怎知	-10.7941
五字一句	-10.7943
何夕	-10.7947
者為	-10.7948
風雪	-10.7948
芳姿	-10.7952
六年	-10.7953
轉眼	-10.7953
京華	-10.7959
寒玉	-10.7963
相向	-10.7973
長沙	-10.7975
誰把	-10.7992
暗塵	-10.7993
還家	-10.7998
一旦	-10.8001
一鈎	-10.8003
棃	-10.8003
璧月	-10.8003
其名	-10.8003
憑髙	-10.8003
疎梅	-10.8004
㡬日	-10.8006
朝天	-10.8011
江村	-10.8017
婦人	-10.802
神州	-10.8028
第十	-10.8032
俱同	-10.8045
後段第一句	-10.8046
雪中	-10.8046
驚心	-10.8051
詞多	-10.8054
不入	-10.8054
魁	-10.8055
閭	-10.8057
堂深	-10.8059
醅	-10.8061
栢	-10.8063
術	-10.8066
李彭老	-10.8066
挹	-10.8068
仇	-10.8069
鈔	-10.8069
搓	-10.807
迴廊	-10.8071
郵	-10.8071
毋	-10.8071
鎮日	-10.8071
凢	-10.8072
臆	-10.8072
週	-10.8072
翠樓	-10.8072
亦無	-10.8073
㒷	-10.8074
丗	-10.8074
幾人	-10.8074
腥	-10.8074
韻後段十句	-10.8075
褒	-10.8075
燕鶯	-10.8075
攙	-10.8076
拴	-10.8076
紆	-10.8076
裴	-10.8076
飜	-10.8077
沈端節	-10.8077
象板	-10.8077
汾	-10.8078
茱茰	-10.8079
五言	-10.8079
向曉	-10.8081
咸陽	-10.8081
作也	-10.8082
西北	-10.8082
梳洗	-10.8083
提要	-10.8084
字下	-10.8084
脩竹	-10.8091
滿身	-10.8091
思君	-10.8092
韓玉	-10.8093
應制	-10.8095
觀音	-10.8096
羽扇	-10.8097
瑤池	-10.8102
這一	-10.8102
飛舞	-10.8103
卒贈	-10.8103
一舸	-10.8104
前段第一句	-10.8106
前調韓淲	-10.8107
凄然	-10.8109
風定	-10.8113
閒人	-10.8115
輕薄	-10.8125
青燈	-10.8127
月又	-10.8127
拍手	-10.8129
雙溪	-10.8132
秋宵	-10.8133
白馬	-10.8135
驚鴻	-10.8136
滿園	-10.8144
記當年	-10.8146
誤也	-10.815
喚取	-10.8151
有所	-10.8151
衣上	-10.8153
整整	-10.8156
三巻	-10.8156
樂天	-10.8158
又恐	-10.8158
如練	-10.8163
萬疊	-10.8165
漢宫春	-10.8165
白鶴	-10.8168
曲終	-10.8172
字作	-10.8175
争奈	-10.818
西樵	-10.8189
萬歲	-10.8192
處是	-10.8192
也其	-10.8194
不作	-10.8201
金鼎	-10.8205
台	-10.8205
魂斷	-10.8209
同上	-10.8211
捻	-10.8212
前後同	-10.8212
世上	-10.8214
吁	-10.8217
此本	-10.8219
普	-10.822
刪	-10.822
液	-10.822
帝城	-10.8221
歲歲	-10.8226
王詞	-10.823
好處	-10.8232
紹	-10.8234
龎	-10.8235
卉	-10.8235
循	-10.8237
刼	-10.8237
耒	-10.8239
責	-10.8239
嶠	-10.8239
雙調一百三字前	-10.8239
艾	-10.8239
諕	-10.8239
海山	-10.824
脾	-10.824
埸	-10.8241
名曰	-10.8241
翠隂	-10.8241
豪傑	-10.8241
淫	-10.8242
轆轤	-10.8242
明鏡	-10.8242
䴡	-10.8243
蹉跎	-10.8243
調咲令	-10.8243
柳外	-10.8244
葡萄	-10.8244
用前韻	-10.8244
毛詞	-10.8245
迭	-10.8245
纜	-10.8245
鱸魚	-10.8246
未得	-10.8247
旧	-10.8248
頋	-10.8248
豪氣	-10.8248
離索	-10.8248
輒	-10.825
簑	-10.825
玎璫	-10.8251
亊	-10.8254
䦨珊	-10.8255
長堤	-10.8256
燈下	-10.8258
直學士	-10.8259
凝碧	-10.8259
休教	-10.8259
門巷	-10.8261
衰翁	-10.8261
為一	-10.8263
字平聲第四句	-10.8264
字乃	-10.8267
情性	-10.8267
織女	-10.8269
前調劉基	-10.827
稱其	-10.8272
皇都	-10.8274
意中人	-10.8275
彩鳳	-10.8276
時莭	-10.8278
氷絃	-10.8282
微笑	-10.8282
嵗月	-10.8285
前人	-10.8286
籬落	-10.8292
又還是	-10.8293
詞曰	-10.8296
半面	-10.8296
元夜	-10.8297
桃源洞	-10.8299
東風惡	-10.8299
許多愁	-10.83
吹斷	-10.8302
小立	-10.8306
拘束	-10.8307
翠䄂	-10.8309
補之	-10.831
晏詞	-10.8312
傳書	-10.8315
緑陰	-10.8316
頻頻	-10.8318
詞家	-10.8318
香篆	-10.832
隔簾	-10.8322
友人	-10.833
詞同惟後段	-10.8332
曲水	-10.8333
後庭	-10.8334
雨中	-10.8335
惹得	-10.8336
影轉	-10.8338
春雪	-10.834
白衣	-10.8345
不耐	-10.8346
戲作	-10.8348
鳥啼	-10.8349
勸酒	-10.8353
烟草	-10.8353
塵滿	-10.8353
君知否	-10.8354
開盡	-10.8355
相傳	-10.8356
别酒	-10.8356
一年春	-10.8357
鬢絲	-10.8361
長嘆	-10.8366
淡黄	-10.8368
君子	-10.8373
黄金縷	-10.8374
人如玉	-10.8382
思歸	-10.8383
飛来	-10.8385
相逐	-10.8385
南國	-10.8395
荔	-10.8395
用仄韻	-10.8396
笑指	-10.8402
畫堂春	-10.8403
和之	-10.8405
謝逸	-10.8405
莽	-10.8406
不傳	-10.8406
柘	-10.8407
輕煙	-10.8407
簧	-10.8407
怜	-10.8408
便有	-10.8408
逋	-10.8408
悦	-10.8408
雲影	-10.8409
挫	-10.8409
劔	-10.841
無眠	-10.841
毛晉	-10.8412
獅	-10.8413
犢	-10.8414
寃	-10.8414
灼灼	-10.8414
月明中	-10.8414
䄄	-10.8415
無價	-10.8415
繡衾	-10.8415
毛幵	-10.8416
寮	-10.8416
晃	-10.8417
褥	-10.8417
曼	-10.8418
柬	-10.8418
深閨	-10.8418
踪跡	-10.8418
塜	-10.8419
尹鶚	-10.8419
俚	-10.842
姊妹	-10.842
鑰	-10.8421
丹砂	-10.8423
二十年	-10.8425
欝	-10.8426
雨初晴	-10.8426
粉淚	-10.8426
云云	-10.8427
王千秋	-10.8429
都門	-10.843
爽氣	-10.843
詞集之	-10.8431
一簇	-10.8436
小牎	-10.8441
閒庭	-10.8441
參横	-10.8442
鬭草	-10.8443
有此體	-10.8443
行歌	-10.8446
情濃	-10.8457
哀怨	-10.8457
酒家	-10.846
浮花	-10.8461
夏景	-10.8462
浩歌	-10.8463
紗牎	-10.8469
疎星	-10.8472
四十三字	-10.8473
㡬㸃	-10.8474
我欲	-10.8476
春晝	-10.848
海燕	-10.848
獨歩	-10.8488
北曲	-10.8489
焚香	-10.8491
四十一字	-10.8493
妙手	-10.8494
石榴	-10.8506
前調陳允平	-10.8507
同是	-10.8507
人以	-10.8507
眼看	-10.8509
為甚	-10.8512
踈雨	-10.8512
斜陽外	-10.8515
西河	-10.8515
詞調	-10.8518
為你	-10.8519
序云	-10.8523
吟詩	-10.8527
燈影	-10.8528
指望	-10.8528
相與	-10.8529
雙鸞	-10.853
開了	-10.8532
換平	-10.8536
翠簾	-10.8538
霎	-10.8541
樓髙	-10.8544
風雲	-10.8544
睡足	-10.8545
相呼	-10.8549
白露	-10.8551
者以	-10.8551
之音	-10.8553
妝樓	-10.856
本集	-10.8561
了這	-10.8573
風韻	-10.8573
雨打	-10.8573
遜	-10.8577
多麗	-10.8577
得箇	-10.8577
且休	-10.858
強如	-10.858
曉月	-10.8581
暖風	-10.8582
寨	-10.8582
隅	-10.8584
歸燕	-10.8584
曾見	-10.8584
金菊香	-10.8585
傳語	-10.8587
躱	-10.8588
宇宙	-10.8589
剡	-10.8589
秋天	-10.8589
赤緊的	-10.859
瓮	-10.859
狼籍	-10.859
壊	-10.8591
艸	-10.8592
珊珊	-10.8593
娟	-10.8593
搯	-10.8593
蘭陵王	-10.8593
平仄仄	-10.8594
羇旅	-10.8594
西泠	-10.8595
目録欽定四庫全書御選歴代詩餘巻	-10.8595
一剪梅	-10.8595
獄	-10.8595
䏻勾	-10.8596
笙簧	-10.8596
梳掠	-10.8596
程正伯	-10.8597
麾	-10.8598
鷁	-10.8599
患	-10.8599
武昌	-10.86
錯認	-10.8602
新年	-10.8603
後期	-10.8606
清幽	-10.8606
用仄聲	-10.8607
管領	-10.8607
中庭	-10.861
七首	-10.8613
朱欄	-10.8613
明眸	-10.8614
恐是	-10.8615
與前段	-10.8615
更有那	-10.8617
後段第六句	-10.8618
一輪	-10.8619
神京	-10.8621
黯然	-10.8622
盟言	-10.8622
無涯	-10.8627
唱徹	-10.8631
卿卿	-10.8632
紫府	-10.8632
人之	-10.8632
之以	-10.8633
淮南	-10.8642
滿懐	-10.8647
堂堂	-10.8647
雲鬂	-10.8649
蟾宫	-10.8651
遲日	-10.8651
何以	-10.8654
新綠	-10.8655
開徧	-10.8657
窗外	-10.8658
燕泥	-10.8658
涼生	-10.8671
憂愁	-10.8675
暮山	-10.8679
鴛帳	-10.868
成就	-10.8684
未免	-10.8685
寒香	-10.8688
詞客	-10.8688
未肯	-10.869
憶得	-10.87
分散	-10.87
将他	-10.87
女兒	-10.8706
更堪	-10.8707
我也	-10.8709
垂栁	-10.871
俺那	-10.8711
似舊	-10.8713
或謂	-10.8714
志云	-10.8721
舊逰	-10.8724
無邊	-10.8726
事業	-10.8729
歌喉	-10.8731
空碧	-10.8731
趙文	-10.8736
上馬	-10.874
羙滿	-10.8741
和詞	-10.8741
雲垂	-10.8744
鳯樓	-10.8748
未見	-10.8749
字是	-10.875
導	-10.8752
皇甫松	-10.8757
渰	-10.876
出隊子	-10.8761
共誰	-10.8761
甚的	-10.8762
不然	-10.8762
汲古	-10.8763
敞	-10.8763
有箇人	-10.8763
嗚	-10.8763
捉	-10.8764
餓	-10.8764
籖	-10.8765
晞	-10.8766
靡	-10.8766
漕	-10.8766
澁	-10.8766
丈夫	-10.8767
瞧	-10.8767
詞皆	-10.8767
欸乃	-10.8768
轍	-10.8768
吿	-10.8768
婵姢	-10.8768
苒苒	-10.8769
浮動	-10.8769
矮	-10.877
勉	-10.8771
斜風細雨	-10.8772
缾	-10.8772
酡	-10.8772
装	-10.8772
騘	-10.8773
筒	-10.8773
浣溪紗	-10.8774
銘	-10.8774
銀釭	-10.8776
團圞	-10.8777
邸	-10.8777
兀的不	-10.8777
段各八句	-10.8778
情深	-10.8778
香雲	-10.878
畫舫	-10.878
瑶堦	-10.878
第四五句	-10.8783
濁酒	-10.8784
乘興	-10.8785
隔水	-10.8787
衡陽	-10.8789
空濛	-10.8791
用平聲	-10.8791
錦囊	-10.8791
朱䦨	-10.8796
東去	-10.8797
字仄聲第三句	-10.8797
怨王孫	-10.8798
斜陽暮	-10.8799
紀聞	-10.8799
駐馬	-10.8799
跳出	-10.8803
松菊	-10.8807
空餘	-10.8807
如削	-10.8811
簫韶	-10.8812
深淺	-10.8813
梳頭	-10.8814
十三字	-10.8817
佇立	-10.8818
曉鶯	-10.8824
十首	-10.8826
滴滴	-10.8828
六十六字	-10.8829
渭水	-10.8832
即事	-10.8833
不湏	-10.8834
四方	-10.8835
前調陸游	-10.8837
傳杯	-10.884
梅影	-10.8841
千重	-10.8842
吏部	-10.8843
斗轉	-10.8844
山城	-10.8846
添二字	-10.8848
帝王	-10.8848
輕紅	-10.8849
宫裏	-10.8854
海棠開	-10.8859
終是	-10.8861
同雲	-10.8864
山光	-10.8864
鳳城	-10.8868
離腸	-10.8869
風簾	-10.8869
無疑	-10.8876
蓼	-10.8878
分離	-10.8878
莫是	-10.8881
繡衣	-10.8885
翠雲	-10.8886
堂上	-10.8888
南曲	-10.8888
兩段	-10.889
東堂	-10.8891
玉盤	-10.8894
掬	-10.8896
遺事	-10.8897
臨流	-10.8901
殘日	-10.8901
豈非	-10.8902
秋日	-10.8903
不上	-10.8908
不言	-10.8913
嬝娜	-10.8917
其間	-10.8918
月在	-10.8926
去路	-10.893
探梅	-10.8932
龍門	-10.8934
俟	-10.8936
羮	-10.8937
吹笙	-10.8937
不遇	-10.8939
三日	-10.8941
老夫	-10.8942
兩㸃	-10.8943
誰想	-10.8943
風日	-10.8944
褁	-10.8944
訣	-10.8945
雨瀟瀟	-10.8946
億	-10.8948
禾黍	-10.8948
千林	-10.8948
擕	-10.895
蘇子瞻	-10.895
漂	-10.8951
波上	-10.8952
玉郎	-10.8952
朱雍	-10.8952
攻	-10.8952
踞	-10.8953
桺	-10.8954
搦	-10.8954
捷	-10.8954
俊俏	-10.8955
畫棟	-10.8959
奠	-10.8959
玻瓈	-10.8959
羅韤	-10.8959
霎時間	-10.8961
波浪	-10.8961
黄昬	-10.8962
副使	-10.8962
稚子	-10.8963
深紅	-10.8964
夢想	-10.8965
嚴仁	-10.8966
恍然	-10.8968
春晴	-10.8968
今人	-10.8969
歸計	-10.8971
君不見	-10.8971
之餘	-10.8973
疎鐘	-10.8975
和靖	-10.8975
凌雲	-10.8976
江左	-10.8976
和衣	-10.898
後段第七句	-10.8982
彩筆	-10.8982
渡頭	-10.8983
東郊	-10.8986
能幾	-10.8988
問我	-10.899
幾年	-10.8991
四十五字	-10.8992
南吕	-10.8997
追念	-10.8997
華筵	-10.9003
所採	-10.9003
何湏	-10.9003
日影	-10.9006
鵲橋	-10.9007
腰身	-10.9008
隂陽	-10.9012
寒燈	-10.9017
成病	-10.9019
千種	-10.9023
粉牆	-10.9027
獨守	-10.9028
春波	-10.903
初醒	-10.9032
沈郎	-10.9034
國色	-10.9035
華清	-10.9036
只道	-10.9038
詞前段起句	-10.9043
憶昔	-10.9045
倚東風	-10.9048
歸去來	-10.9048
前叚	-10.905
孤鴈	-10.9051
新涼	-10.9053
南極	-10.9054
碧波	-10.9056
香暖	-10.9058
一煞	-10.906
無慿	-10.9068
風煙	-10.9068
玉蝴蝶	-10.9071
醉春風	-10.9075
未解	-10.9075
難寄	-10.9076
征塵	-10.9079
孤枕	-10.9079
栁條	-10.908
萬國	-10.908
歌詞	-10.9082
詞則	-10.9083
寶釵	-10.9087
芰荷	-10.9098
新鴈	-10.9099
四十二字	-10.9102
改之	-10.9103
與客	-10.9105
山路	-10.9112
慿誰	-10.9113
去來	-10.9114
筯	-10.9116
春秋	-10.912
白居易	-10.9123
栁葉	-10.9123
胭	-10.9124
爆	-10.9124
曲曲	-10.9125
纈	-10.9125
跌	-10.9128
字去聲	-10.9128
空江	-10.9129
楊愼	-10.913
僚	-10.913
迸	-10.9131
羊羔	-10.9132
梅雨	-10.9133
褭	-10.9133
磧	-10.9134
羲皇	-10.9134
族	-10.9135
俠	-10.9135
藹	-10.9135
逰人	-10.9137
王安中	-10.9137
微茫	-10.9137
誰伴	-10.9137
裾	-10.9138
酹江月	-10.9138
羲	-10.9138
頃刻	-10.9138
歡聲	-10.9139
第六七句	-10.9139
訟	-10.914
鏘	-10.914
鷹	-10.914
荏苒	-10.9141
㽞	-10.9141
一落索	-10.9141
范蠡	-10.9142
標致	-10.9142
驚破	-10.9143
形容	-10.9145
昔日	-10.9149
四仄韻後段八句	-10.9149
前段第三句	-10.915
清寒	-10.9153
千秋嵗	-10.9155
你那	-10.9156
采蓮	-10.9156
京口	-10.9163
尺素	-10.9166
仙呂	-10.9166
春酲	-10.9166
男兒	-10.9167
五年	-10.9167
飛盡	-10.9168
畫簷	-10.9169
新春	-10.9172
深情	-10.9175
賦詩	-10.9175
簾旌	-10.9177
除非	-10.9179
此等	-10.9182
玉笋	-10.9183
相近	-10.9186
聲價	-10.919
老盡	-10.9192
千秋歲	-10.9192
早春	-10.9193
急雨	-10.9195
前調周紫芝	-10.9195
幽徑	-10.9196
鶯囀	-10.9196
安在	-10.9197
㡬曽	-10.9199
扇底	-10.9199
倡	-10.92
栁腰	-10.9202
見前	-10.9206
君去	-10.9206
香紅	-10.921
不㫁	-10.9211
遥指	-10.9212
四壁	-10.9215
空悵望	-10.9217
清宵	-10.9221
月兒	-10.9222
眉峰	-10.9224
辜負了	-10.9225
相續	-10.9228
廬山	-10.9232
不寐	-10.9233
梅花引	-10.9234
兩體	-10.9235
宴賞	-10.9238
滿樹	-10.9238
江淹	-10.9239
西溪	-10.9242
一味	-10.9244
殘英	-10.925
念我	-10.9251
楼上	-10.9254
朝暮	-10.9256
一水	-10.9257
詞前段第三句	-10.9257
無異	-10.9258
冰雪	-10.9263
就中	-10.9267
雲錦	-10.9269
石城	-10.927
殘香	-10.9273
溪水	-10.9276
更闌	-10.9276
陽和	-10.9276
因以	-10.9276
金勒	-10.9278
紫雲	-10.9285
重来	-10.9286
濁	-10.9289
前調張炎	-10.9292
青松	-10.9294
萬般	-10.9294
清瘦	-10.9295
輕羅	-10.93
紅香	-10.9308
趙孟頫	-10.9312
竚	-10.9313
烽	-10.9314
醋葫蘆	-10.9315
劉禹錫	-10.9316
噫	-10.9318
詞體惟前段	-10.9319
瞿	-10.932
嗏	-10.9321
閬	-10.9322
不由我	-10.9323
栗	-10.9324
葛立方	-10.9324
趕	-10.9326
江神子	-10.9326
却似	-10.9326
翠鈿	-10.9326
幘	-10.9326
相投	-10.9327
相迎	-10.9327
攏	-10.9327
讃	-10.9327
有些	-10.9328
學者	-10.9328
庾嶺	-10.9328
义	-10.9328
怡	-10.933
準擬	-10.933
縛	-10.933
髭	-10.9331
遊戲	-10.9331
祕	-10.9332
灔	-10.9333
維揚	-10.9334
西州	-10.9334
興廢	-10.9335
措	-10.9335
字必	-10.9336
章䑓	-10.9336
瑶䑓	-10.9339
蕭娘	-10.9341
團團	-10.9341
澹月	-10.9341
昭君	-10.9342
征帆	-10.9343
綉幃	-10.9344
起韻	-10.9348
春衣	-10.9351
朩蘭花	-10.9352
氷姿	-10.9353
容顔	-10.9354
信息	-10.9354
啼鴉	-10.9355
彼此	-10.936
贈妓	-10.9364
可愛	-10.9369
作七字	-10.9373
舍人	-10.9375
河陽	-10.9376
鶯兒	-10.9376
粧樓	-10.9377
庭花	-10.9388
日高	-10.9389
憶舊遊	-10.939
燭影	-10.9391
鴈過	-10.9395
風飄	-10.9396
金絲	-10.9397
芳樽	-10.9397
錢唐	-10.9398
同而	-10.9399
行雨	-10.9399
為他	-10.9402
錦衣	-10.9402
半生	-10.9402
翠黛	-10.9406
分攜	-10.9407
春消息	-10.9411
厯官	-10.9412
雲霄	-10.9416
瑞靄	-10.9417
為花	-10.9417
澄江	-10.942
些箇	-10.9421
重城	-10.9422
皆以	-10.9423
落落	-10.9427
歸程	-10.9428
上小樓	-10.9429
細栁	-10.9431
而後	-10.9433
古詞	-10.9435
相㑹	-10.9437
箇中	-10.944
司空	-10.944
情思	-10.9441
黄河	-10.9441
但願	-10.9442
分段	-10.9445
天色	-10.9447
座上	-10.9447
風裏	-10.9454
萬樹	-10.9455
香徑	-10.9458
九十五字	-10.9461
雲海	-10.9462
西江	-10.9464
桃紅	-10.9467
金泥	-10.9469
難熬	-10.947
小牕	-10.9472
清凉	-10.9472
書舟	-10.9475
他時	-10.9478
淡薄	-10.9478
盃酒	-10.9481
長短	-10.9482
洞府	-10.9486
况是	-10.9488
枕畔	-10.9489
的那	-10.9492
敎人	-10.9493
誰寄	-10.9497
話兒	-10.9498
敷	-10.9504
如霧	-10.9504
綸	-10.9506
蹄	-10.9506
粧成	-10.9508
組	-10.9509
蠧	-10.951
茰	-10.9511
不知何處	-10.9511
爱	-10.9512
大江東去	-10.9513
刮	-10.9513
歪	-10.9515
陀	-10.9515
穗	-10.9516
儲	-10.9517
昆	-10.9517
㢘	-10.9517
處士	-10.9518
池沼	-10.9518
爪	-10.9518
琳	-10.9519
咲吟吟	-10.9519
此調以此詞為正體	-10.9519
罰	-10.9519
砧杵	-10.9519
醇	-10.952
􁈯	-10.9521
酒泉子	-10.9521
罕	-10.9522
鏁	-10.9522
茜	-10.9523
促織	-10.9523
閗鵪鶉	-10.9523
夢破	-10.9523
檀槽	-10.9524
軋	-10.9524
獲	-10.9525
梁間	-10.9526
押仄韻	-10.9526
太平樂府	-10.9526
煙光	-10.9529
㕍	-10.9529
則我這	-10.9529
十七字	-10.9529
壻	-10.953
簾半捲	-10.953
雕䦨	-10.9532
杭州	-10.9538
暖日	-10.9538
比翼	-10.9541
蕪城	-10.9541
與前異	-10.9542
光輝	-10.9542
還休	-10.9542
水東流	-10.9542
凄迷	-10.9542
人間天上	-10.9544
後㑹	-10.9546
啼鵑	-10.9547
孤幃	-10.9548
錦鱗	-10.9548
披衣	-10.9548
的人	-10.9548
字平聲第三句	-10.9549
東鄰	-10.955
小亭	-10.955
減二字	-10.9556
淡雲	-10.9558
皇州	-10.9559
深沉	-10.956
惱亂	-10.9561
篆烟	-10.9565
青銅	-10.9566
貂蟬	-10.9568
九十六字	-10.9568
都城	-10.9569
香醪	-10.9569
未起	-10.9571
花栁	-10.9571
嵗寒	-10.9571
詠梅	-10.9574
關心	-10.9576
難描	-10.9576
字或	-10.9578
緑窓	-10.9579
註云	-10.9583
澹澹	-10.9586
亭臺	-10.959
煙浪	-10.9597
蘭膏	-10.96
贈之	-10.96
淚滿	-10.9601
樓䑓	-10.961
落一字	-10.9611
秋霽	-10.9612
滿座	-10.9612
無地	-10.9615
家在	-10.9618
此夕	-10.9619
父老	-10.9621
連枝	-10.9621
眉顰	-10.9623
柳梢	-10.9627
空庭	-10.9628
前段結句	-10.9629
九十四字	-10.963
詞巻	-10.963
囘頭	-10.963
眼中	-10.9634
惹起	-10.9636
芳時	-10.9637
人事	-10.9638
清商	-10.9639
湘水	-10.964
堪笑	-10.964
北海	-10.9644
風暖	-10.9645
雨雲	-10.9648
鵝黄	-10.9652
西南	-10.9654
寄書	-10.9657
悄無人	-10.9659
巳是	-10.966
銅駝	-10.9663
老大	-10.9668
清痩	-10.967
厨	-10.967
櫳	-10.9677
風髙	-10.9678
紅䄂	-10.968
分付與	-10.968
之名	-10.9682
相親	-10.9683
徙倚	-10.9686
壬	-10.9689
意氣	-10.9692
黄塵	-10.9692
莖	-10.9695
岐	-10.9697
最難	-10.9698
滿袖	-10.9702
模	-10.9703
䕫	-10.9705
陳師道	-10.9705
員	-10.9706
思憶	-10.9706
他家	-10.9706
新来	-10.9706
翥	-10.9706
蚕	-10.9706
刮地風	-10.9707
騁	-10.9707
屯	-10.9707
衷腸	-10.9709
轂	-10.9709
畦	-10.971
啜	-10.971
杼	-10.971
隨處	-10.9711
㧞	-10.9711
斤	-10.9711
磊	-10.9711
攷	-10.9712
顚	-10.9713
断腸	-10.9714
畆	-10.9714
醁	-10.9715
漳	-10.9716
蛛絲	-10.9716
䑕	-10.9716
怱怱	-10.9717
短韻	-10.9717
多謝	-10.9719
翰墨	-10.9719
葛長庚	-10.972
詹正	-10.9721
恬	-10.9721
綺席	-10.9722
宫人	-10.9722
賀方回	-10.9722
豈可	-10.9722
溪頭	-10.9722
銀燈	-10.9722
望逺行	-10.9723
天低	-10.9723
别意	-10.9724
自注	-10.9724
建康	-10.9725
京洛	-10.9726
四仄韻後段九句	-10.9727
巫陽	-10.9728
半霎	-10.9729
蹙損	-10.9729
顧影	-10.973
秦箏	-10.9731
蘇卿	-10.9731
蘇堤	-10.9731
仕女	-10.9733
呉山	-10.9734
蘭湯	-10.9735
銀筝	-10.9735
雲堆	-10.9737
用之	-10.9738
梅芲	-10.9738
太平令	-10.9738
便做	-10.9738
師師	-10.974
雲路	-10.9741
霜毫	-10.9742
落花流水	-10.9742
雙眸	-10.9743
嬴得	-10.9743
凝酥	-10.9745
李白詩	-10.9749
繡戸	-10.975
小梅	-10.9754
遥天	-10.9754
傾倒	-10.9755
正宫	-10.9756
綿綿	-10.9759
風外	-10.9761
染就	-10.9765
傷離	-10.9766
嵗晩	-10.9767
雙鴛	-10.977
堪愛	-10.9773
老来	-10.9779
窗紗	-10.9782
金線	-10.9784
舞罷	-10.9786
芳春	-10.9786
駿馬	-10.979
歡娯	-10.979
徽宗	-10.9793
輕鷗	-10.9799
自度	-10.9799
六月	-10.9799
字用	-10.9802
香肩	-10.9802
上四	-10.9802
祥雲	-10.9803
此事	-10.9803
嘆息	-10.9804
七字句	-10.9812
共賞	-10.9817
羞見	-10.9821
萬花	-10.9821
楚楚	-10.9825
無他	-10.9828
鸞孤	-10.983
詞體惟前	-10.983
曾記	-10.983
日夜	-10.9839
五體	-10.984
道士	-10.984
渾不	-10.9846
不押韻異	-10.9851
耳邊	-10.9854
雲樹	-10.9854
因念	-10.9856
詩成	-10.986
連理枝	-10.9868
而以	-10.9868
舉進士	-10.9872
詞同惟前段	-10.9874
燕子樓	-10.9875
相尋	-10.9876
席上作	-10.9877
馮延巳	-10.9877
寒光	-10.9878
離離	-10.9883
易老	-10.9884
雨露	-10.9889
水驛	-10.9889
至元	-10.989
不醉	-10.989
數十	-10.9891
漁歌	-10.9891
玉皇	-10.9893
呉江	-10.9896
囑	-10.9898
哨	-10.99
裔	-10.9902
空惆悵	-10.9902
口兒	-10.9906
可便	-10.9907
楞	-10.9907
攢	-10.9907
泓	-10.9909
㵼	-10.991
擾擾	-10.991
虀	-10.9911
撐	-10.9911
帛	-10.9911
午夢	-10.9911
暗香浮動	-10.9912
恵	-10.9912
諾	-10.9912
採茶歌	-10.9913
明河	-10.9913
聘	-10.9913
盒	-10.9915
昬	-10.9915
葛郯	-10.9915
疊韻	-10.9915
秃厮児	-10.9916
經綸	-10.9916
新亭	-10.9916
滚滚	-10.9917
砑	-10.9918
七弟兄	-10.9919
啣	-10.9919
故事	-10.9919
淳熙	-10.992
醉倚	-10.992
御街行	-10.9921
驂鸞	-10.9921
澀	-10.9921
長吁	-10.9921
句法異	-10.9921
睫	-10.9922
此調以此詞為正體若	-10.9923
蕭疎	-10.9927
這其間	-10.9927
鸞簫	-10.9929
丁香結	-10.9929
粉蝶	-10.9932
捲珠簾	-10.9932
曹詞	-10.9935
遂以	-10.9935
輦路	-10.9937
帝里	-10.994
七月	-10.9942
直恁	-10.9943
一任教	-10.995
其平仄	-10.995
妝㸃	-10.9951
錦堂春	-10.9951
嬌娥	-10.9952
雲霧	-10.9954
花期	-10.9954
歌樓	-10.9959
不覺的	-10.9962
追隨	-10.9963
雪滿	-10.9963
十二時	-10.9964
金甌	-10.9965
解珮	-10.9967
都付	-10.9969
栁下	-10.9971
可奈	-10.9972
歡情	-10.9974
與他	-10.9975
他道是	-10.9975
腸㫁	-10.9975
㡬時得	-10.9975
春纎	-10.9978
二百	-10.9979
本作	-10.9979
生綃	-10.9981
誤刻	-10.9984
之外	-10.9987
玉勒	-10.9988
一自	-10.9988
有甚	-10.9989
沈水	-10.9989
水村	-10.9991
雪霽	-10.9995
桐花	-10.9995
詞正與此同	-10.9995
香囊	-10.9996
蟾光	-10.9998
霽色	-10.9998
多應	-10.9999
生春	-11
所事	-11
唐宋	-11.0002
可笑	-11.0003
半開	-11.0005
歸騎	-11.0005
甲子	-11.0005
天孫	-11.0008
白鳥	-11.0009
第六	-11.0011
山圍	-11.0012
将人	-11.0014
故里	-11.0016
頭白	-11.0017
别浦	-11.0017
辛詞	-11.0021
隔江	-11.0028
千片	-11.0033
誰㑹	-11.0033
容與	-11.0036
信杳	-11.0038
調而	-11.004
了我	-11.004
相並	-11.0043
堪題	-11.005
麝蘭	-11.0053
知其	-11.0054
不辭	-11.0055
淚流	-11.0056
病懨懨	-11.006
波心	-11.0064
之下	-11.0064
醒時	-11.0067
燈光	-11.0069
對着	-11.0071
直上	-11.0071
酲	-11.0073
人多	-11.0084
小飲	-11.0085
莭	-11.0085
二分	-11.009
勸我	-11.009
五六	-11.0096
襄	-11.01
任他	-11.01
陳子龍	-11.0101
中原音韻	-11.0103
休把	-11.0105
誥	-11.0108
恊	-11.011
弗	-11.011
皆有	-11.0111
漣	-11.0112
悼	-11.0113
熨	-11.0113
鄒	-11.0114
疇	-11.0114
賡	-11.0114
一宵	-11.0114
澄澄	-11.0116
昉	-11.0116
鑒	-11.0116
忌	-11.0117
飄蓬	-11.0118
如箭	-11.0118
嵬	-11.0118
呂渭老	-11.0118
亟	-11.0118
秋氣	-11.0118
宋史樂志	-11.0118
遲暮	-11.0119
社稷	-11.0119
灞橋	-11.0119
魏承班	-11.0119
隘	-11.0119
乃以	-11.012
蝸角	-11.012
恓惶	-11.012
碧桃花	-11.012
囗	-11.012
衷	-11.0121
鶗鴂	-11.0121
京兆	-11.0121
思想	-11.0122
筦	-11.0122
究	-11.0122
悅	-11.0124
芳草路	-11.0125
事事	-11.0125
楊基	-11.0125
繾綣	-11.0125
茸茸	-11.0125
淩波	-11.0126
偷香	-11.0126
摹	-11.0127
披襟	-11.0127
在心頭	-11.0128
曲有	-11.0131
亦以	-11.0133
如意	-11.0134
紅玉	-11.0135
窗前	-11.0136
㸃檢	-11.0136
容貌	-11.0137
聲名	-11.014
掩重門	-11.0141
鐘鼓	-11.0142
罨畫	-11.0143
寳髻	-11.0144
有何	-11.0144
莫恨	-11.0145
城郭	-11.0146
綵筆	-11.0147
簾不捲	-11.0149
歩歩	-11.0151
銀塘	-11.0152
直待	-11.0154
逍遥樂	-11.0154
一闋云	-11.0156
畫䦨	-11.0156
流傳	-11.0156
隋堤	-11.0156
珠玉	-11.016
踈籬	-11.0163
嬌姿	-11.0164
百媚	-11.0167
昔人	-11.0168
即席	-11.0169
梁園	-11.0169
的他	-11.0169
未休	-11.017
追尋	-11.0171
香泥	-11.0173
草木	-11.0179
病起	-11.0179
髙下	-11.0179
蛾睂	-11.0179
争似	-11.018
回顧	-11.018
無蹤	-11.018
玉連環	-11.0181
夢見	-11.0182
語意	-11.0182
歸家	-11.0183
前調程垓	-11.0185
未消	-11.0187
雙調六	-11.019
杜若	-11.0192
唱道	-11.0194
門下	-11.0195
翠幕	-11.0195
春潮	-11.0196
雪浪	-11.0197
停雲	-11.0199
龍舟	-11.0202
四煞	-11.0202
惜香	-11.0207
檀心	-11.0211
何物	-11.0211
生塵	-11.0212
尊前集	-11.0215
前調毛滂	-11.0217
分别	-11.0224
嫩緑	-11.0225
玉管	-11.0225
湖州	-11.0226
驚回	-11.0228
明白	-11.0231
児裡	-11.0233
蠟梅	-11.0234
低迷	-11.0238
悞了	-11.0246
斷霞	-11.0252
盃中	-11.0258
片時	-11.0259
以來	-11.0261
仄仄平平	-11.0261
玉環	-11.0262
狂客	-11.0264
頓成	-11.027
楊詞	-11.0274
便宜	-11.0274
孤芳	-11.0282
歸思	-11.0284
別後	-11.0292
開口	-11.0294
又不是	-11.0297
水亭	-11.0298
人去後	-11.0302
四十四字	-11.0304
留别	-11.0306
着你	-11.0308
五月	-11.0311
其下	-11.0311
望逺	-11.0312
玎	-11.0312
明霞	-11.0313
裕	-11.0314
兢	-11.0315
掇	-11.0315
轟	-11.0315
艱	-11.0316
梗	-11.0316
孜孜	-11.0317
淪	-11.0318
突	-11.0319
叫	-11.0319
蛛	-11.0319
㕔	-11.0319
邅	-11.032
嫋	-11.032
遡	-11.0321
祈	-11.0322
不通	-11.0322
檝	-11.0323
僻	-11.0323
㤀	-11.0323
𥙷	-11.0324
𬒮	-11.0324
盧祖皋	-11.0325
故宫	-11.0325
宴清都	-11.0326
柏	-11.0326
梓	-11.0327
銷金帳	-11.0327
朱淑真	-11.0327
東甌令	-11.0327
疇昔	-11.0327
䌫	-11.0328
日晚	-11.0328
徤	-11.0329
穣	-11.0329
嵓	-11.0329
惜分飛	-11.033
糟	-11.0331
採桑子	-11.0331
絳都春	-11.0331
滌	-11.0332
罵玉郎	-11.0332
絛	-11.0332
瓊漿	-11.0332
往常時	-11.0332
喬牌児	-11.0332
灧	-11.0333
詞詞曲類	-11.0333
揮毫	-11.0333
唐多令	-11.0333
休更	-11.0333
普天下	-11.0334
卽	-11.0335
杜陵	-11.0336
鶴冲天	-11.0336
臨行	-11.0337
段各七句	-11.0337
斑斑	-11.0339
冰輪	-11.0341
杜鵑啼	-11.0342
穠李	-11.0343
緑波	-11.0343
以詩	-11.0344
時光	-11.0346
太平時	-11.0347
詞苑	-11.0347
容光	-11.0348
寒雲	-11.0349
余曰	-11.035
暗中	-11.035
客愁	-11.0351
姚黄	-11.0353
雨濕	-11.0354
欲語	-11.0355
凄楚	-11.0356
翠幄	-11.0356
㽔	-11.036
見其	-11.0362
荆公	-11.0362
成就了	-11.0363
多感	-11.0365
水溶溶	-11.0366
天籟	-11.0366
陶令	-11.037
東方	-11.0372
字仲	-11.0375
無柰	-11.0376
蟬鬢	-11.0376
沈香	-11.0376
憶舊	-11.0385
不勝情	-11.0386
長春	-11.0388
字平聲第	-11.039
不分	-11.0391
數峰	-11.0391
臨江	-11.0394
楊栁枝	-11.0397
爲我	-11.0397
難憑	-11.0398
禁持	-11.0398
那日	-11.0398
前身	-11.0399
欲待	-11.0402
香細	-11.0405
為賦	-11.0408
絲管	-11.0411
三十六字	-11.0413
勝賞	-11.0417
各異	-11.0418
禁烟	-11.0425
歲寒	-11.0425
沈吟	-11.0427
玉殿	-11.0429
萬丈	-11.0431
語也	-11.0434
錦堂	-11.0436
瓊樹	-11.0437
者不同	-11.0438
驚散	-11.0441
老先生	-11.0442
史詞	-11.0442
詞同惟前段第	-11.0444
危欄	-11.0444
清新	-11.0446
夜飲	-11.0446
語燕	-11.0451
仄平仄	-11.0466
羣花	-11.0469
金門	-11.0478
輕絮	-11.0482
謝娘	-11.0485
柳色	-11.0487
穿簾	-11.049
雲迷	-11.049
一百五字	-11.0498
樹頭	-11.0503
世情	-11.0504
落絮	-11.0504
怎忍	-11.0505
相期	-11.0515
春酒	-11.0521
攜酒	-11.0524
娼	-11.0527
奢	-11.0527
撾	-11.0529
鵷	-11.053
四門子	-11.0531
碁	-11.0532
卑	-11.0533
櫺	-11.0534
港	-11.0534
釭	-11.0534
愽	-11.0534
桃腮	-11.0534
醆	-11.0535
恱	-11.0535
仄韻後段八句	-11.0536
者故	-11.0537
巡	-11.0537
讐	-11.0537
榮枯	-11.0538
笏	-11.0538
樁	-11.0538
銖	-11.0539
技	-11.054
炉	-11.054
搗練子	-11.0541
贊	-11.0541
縹	-11.0541
弁	-11.0541
昂	-11.0541
淋	-11.0541
蟋蟀	-11.0541
迓	-11.0542
倣	-11.0542
萸	-11.0542
旛	-11.0543
廻廊	-11.0543
緗	-11.0543
無尋處	-11.0544
揖	-11.0544
驅馳	-11.0546
驥	-11.0548
問君	-11.0548
佳辰	-11.0548
詩曰	-11.0548
羈旅	-11.0548
貟	-11.0548
杯中	-11.055
心先	-11.0551
楊炎	-11.0551
六十二字	-11.0552
楚客	-11.0553
蛩吟	-11.0554
四十七字	-11.0555
梨芲	-11.0555
棲鴉	-11.0557
日邊	-11.0558
通判	-11.0559
荆州	-11.0559
九霄	-11.0559
另列	-11.056
難到	-11.056
近逺	-11.0564
妝成	-11.057
回廊	-11.0572
黄州	-11.0574
鈞天	-11.0575
或刻	-11.0578
單于	-11.058
紅芳	-11.058
六字一句	-11.0581
湖南	-11.0585
六橋	-11.0585
漁唱	-11.0588
斷腸聲	-11.0589
荒凉	-11.0591
體態	-11.0595
玉斚	-11.0595
指㸃	-11.0596
曉粧	-11.0596
竹坡	-11.0597
枕前	-11.06
鰲山	-11.0601
九曲	-11.0602
念逺	-11.0604
丹鳳	-11.0606
深鎖	-11.0608
作平聲	-11.0609
幽期	-11.0613
春遲	-11.0614
同前	-11.0617
峭寒	-11.0618
金闕	-11.0618
眉間	-11.0619
兒曹	-11.0619
高處	-11.062
易安	-11.0623
亦用	-11.0624
花光	-11.0626
作三字	-11.0626
吳越	-11.0626
一回	-11.0627
梁燕	-11.0632
相知	-11.0632
一幅	-11.0637
從别後	-11.0637
休辭	-11.0638
終朝	-11.0638
拂面	-11.064
酒酣	-11.064
譜中	-11.0644
盛事	-11.0645
越女	-11.0646
掌上	-11.0648
與君同	-11.0649
淮海	-11.0652
空谷	-11.0653
所見	-11.0655
休說	-11.0657
魚鴈	-11.0657
八年	-11.0658
氷霜	-11.0662
春風面	-11.0663
月宫	-11.0663
秋深	-11.0668
松竹	-11.0669
漁燈	-11.067
前調趙長卿	-11.067
金魚	-11.0671
折取	-11.0672
向那	-11.0673
堪折	-11.068
夢遶	-11.0682
上林春	-11.0682
寒峭	-11.0683
莫不	-11.0684
清潤	-11.0684
長條	-11.0685
粉黛	-11.0688
鴈聲	-11.0689
宿雨	-11.0702
夜迢迢	-11.0708
燈兒	-11.0709
未覺	-11.071
百草	-11.0715
巧笑	-11.0716
羞對	-11.072
一百六字	-11.072
長歌	-11.0721
無数	-11.0724
花心	-11.0725
可校	-11.0733
貂	-11.0733
前調無名氏	-11.0735
惑	-11.0737
猷	-11.0742
漸入	-11.0743
帙	-11.0745
𢎞	-11.0745
顧敻	-11.0746
我子見	-11.0746
張大烈	-11.0747
衲	-11.0747
擾	-11.0748
漉	-11.0751
譁	-11.0752
舅	-11.0753
六州歌頭	-11.0754
蒲萄	-11.0754
凹	-11.0755
伍	-11.0755
謠	-11.0755
䘮	-11.0755
二闋	-11.0755
耆	-11.0755
茘	-11.0755
菰蒲	-11.0756
𬗋花児序	-11.0757
蔌蔌	-11.0757
渾無	-11.0758
峩	-11.0758
鵶	-11.0759
沈㑹宗	-11.0759
蒨	-11.0759
對西風	-11.076
金巵	-11.076
漂泊	-11.076
蒂	-11.076
綠陰	-11.0762
盌	-11.0762
甜水令	-11.0762
法曲獻仙音	-11.0762
配偶	-11.0763
管鑑	-11.0764
凋零	-11.0766
花心動	-11.0766
詩興	-11.0767
奔走	-11.0768
啚	-11.0768
顛狂	-11.0769
累遷	-11.0769
止不過	-11.0773
宋元人	-11.0776
明月清風	-11.0778
雙調七	-11.0778
前日	-11.078
短長亭	-11.0781
五仄韻後段九句	-11.0781
江臯	-11.0782
朝廷	-11.0783
我見他	-11.0789
太師	-11.0791
為一句	-11.0791
催花	-11.0792
王建	-11.0797
仙源	-11.0797
金船	-11.0798
再休	-11.0798
眀月	-11.0799
可証	-11.0799
一句四字一句	-11.0801
太史	-11.0803
迎風	-11.0803
細數	-11.0803
五侯	-11.0805
香馥馥	-11.0806
粧點	-11.0811
賦得	-11.0813
花菴	-11.0815
離別	-11.0815
單調二	-11.0819
金元	-11.0822
畫扇	-11.0827
長松	-11.083
布衣	-11.083
其意	-11.083
嶺頭	-11.0831
遥夜	-11.0832
的来	-11.0833
無憂	-11.0834
逺樹	-11.0835
風軟	-11.0836
一餉	-11.0841
張雨	-11.0841
纔過	-11.0845
山寺	-11.0847
繡屏	-11.0847
昏黄	-11.0851
簇簇	-11.0851
獨步	-11.0853
南宋	-11.086
秋雲	-11.0862
砧聲	-11.0865
扶頭	-11.0868
東風軟	-11.0869
玉珮	-11.087
九首	-11.088
非常	-11.0889
可用	-11.0889
艶陽	-11.089
與前詞	-11.0891
錦衾	-11.0895
嬌面	-11.0896
歡喜	-11.0896
東歸	-11.0899
乗鸞	-11.0904
佳客	-11.0906
難收	-11.0906
雖是	-11.0917
仄平平	-11.0919
錦書	-11.092
重午	-11.0921
碧海	-11.0928
晚来	-11.093
蘇詞	-11.0931
合前	-11.0932
女郎	-11.0934
雙調四	-11.0943
葉小鸞	-11.0943
晚粧	-11.0945
蹊	-11.0947
數行	-11.0947
窓外	-11.0948
酒面	-11.095
七十五字	-11.0952
何意	-11.0954
三十字	-11.0955
江空	-11.0957
寒色	-11.0958
相憐	-11.0959
臉兒	-11.096
雍	-11.0964
譌	-11.0965
䟦	-11.0967
胥	-11.0967
汪元量	-11.0968
往日	-11.0968
祁	-11.0969
漠	-11.0971
㗋	-11.0972
琥珀	-11.0974
彥	-11.0974
虜	-11.0975
愔愔	-11.0975
草堂詩餘	-11.0975
賒	-11.0976
􁬸	-11.0977
梁少白	-11.0977
囂	-11.0978
樂陶陶	-11.0978
挈	-11.0978
栁梢	-11.0978
蹬	-11.0979
儼	-11.098
木蘭	-11.098
駝	-11.098
戶	-11.098
膺	-11.098
寄相思	-11.0981
李煜	-11.0982
粒	-11.0982
爛熳	-11.0982
雁過	-11.0982
葬	-11.0983
蔥	-11.0983
皆變體也	-11.0983
穹	-11.0983
崔嵬	-11.0983
棚	-11.0983
卮	-11.0984
詞之添字	-11.0984
元和令	-11.0985
平山堂	-11.0986
晏同叔	-11.0986
起来	-11.0987
鴛幃	-11.0987
晁端禮	-11.0987
屯田	-11.0987
試把	-11.0987
黄魯直	-11.0988
瞑	-11.0988
並頭蓮	-11.0988
此與周詞同惟	-11.099
乞巧	-11.099
各添一字	-11.0993
着他	-11.0994
陽関	-11.0994
綺陌	-11.0995
九衢	-11.0995
青帘	-11.0995
歐公	-11.0996
杜鵑聲	-11.0997
可憎	-11.0997
半篙	-11.0997
秦筝	-11.0997
悉同	-11.0997
挑燈	-11.0997
最難忘	-11.0999
雙魚	-11.0999
倦尋芳	-11.1
嬌媚	-11.1
林間	-11.1001
玉液	-11.1001
十二月	-11.1003
字平聲第五句	-11.1009
獨自箇	-11.1009
彈指	-11.1015
短棹	-11.1017
詞集	-11.1018
當𥘉	-11.1018
吳姬	-11.1019
上一下四	-11.102
品令	-11.1024
玉田	-11.1024
紗厨	-11.1027
水晶宫	-11.1032
其體	-11.1038
信音	-11.1039
亂鴉	-11.104
低頭	-11.1044
最憐	-11.1044
不如歸去	-11.1045
沙上	-11.1047
百萬	-11.1047
竹裏	-11.1048
華燈	-11.1048
蕭踈	-11.105
追遊	-11.1052
悲凉	-11.1055
曲檻	-11.1057
前調秦觀	-11.106
想着那	-11.106
簷前	-11.1061
㸔㸔	-11.1062
樽酒	-11.1065
我如今	-11.1071
金閨	-11.1073
思悠悠	-11.1077
木落	-11.1078
樂工	-11.1078
獨醒	-11.1082
寒江	-11.1082
撲撲	-11.1087
緑葉	-11.1087
真堪	-11.1093
紅樹	-11.1094
疊疊	-11.1094
放浪	-11.1096
十巻	-11.1098
轉調	-11.11
人何在	-11.11
減一字異	-11.1108
青草	-11.1108
時聞	-11.1111
波面	-11.1112
雲濤	-11.1115
而巳	-11.1116
他鄉	-11.1123
向尊前	-11.1123
驪	-11.1124
宗朝	-11.1125
平原	-11.1126
不可從	-11.1129
鳳池	-11.113
輕負	-11.1136
三十三字	-11.1137
玉佩	-11.1142
料想	-11.1147
便覺	-11.1147
烹茶	-11.1152
聴得	-11.1155
花貌	-11.1155
玉階	-11.1155
酒醒時	-11.1157
朔風	-11.1158
他人	-11.1161
㸃破	-11.1163
金貂	-11.1166
殘酒	-11.1167
麗人	-11.1169
休説	-11.1174
桓	-11.1179
漢家	-11.118
姊	-11.118
書齋	-11.1182
長夜	-11.1182
之誤	-11.1183
無迹	-11.1184
無人見	-11.119
菩薩	-11.1191
至於	-11.1195
鑾	-11.1196
出水	-11.1197
祅	-11.1197
華夷	-11.1198
槃	-11.1198
嬰	-11.1198
瀟	-11.1198
船頭	-11.1199
颯颯	-11.1199
篙	-11.12
駁	-11.1201
張生	-11.1202
姨	-11.1202
慌	-11.1202
芙	-11.1202
歡咲	-11.1202
躬	-11.1203
霸	-11.1203
瀑	-11.1203
冕	-11.1204
隄防	-11.1204
逃禪	-11.1204
柴扉	-11.1204
鼕鼕	-11.1205
課	-11.1205
容我	-11.1205
瓏璁	-11.1205
墟	-11.1206
句取以為名	-11.1206
采桑子	-11.1207
豈知	-11.1207
聰明	-11.1208
体	-11.1208
七言絶句	-11.1208
仄韻後段十二句	-11.1209
李昴英	-11.1209
杓	-11.1209
碍	-11.1209
砕	-11.121
油壁	-11.1211
剔銀燈	-11.1212
瑟瑟	-11.1212
朱希真	-11.1213
枚	-11.1213
送春歸	-11.1214
矗	-11.1214
牙床	-11.1215
博士	-11.1215
林鍾商	-11.1215
烏帽	-11.1216
儒冠	-11.1217
嚬	-11.1217
上馬嬌	-11.1218
花神	-11.1218
名姓	-11.122
夲	-11.122
樵夫	-11.122
哀絃	-11.1221
無瑕	-11.1222
鱗鴻	-11.1223
冰壺	-11.1225
吳霜	-11.1226
阮郎	-11.1227
仙吕調	-11.123
冰肌	-11.1231
危亭	-11.1233
玉筯	-11.1236
離披	-11.1237
最苦是	-11.1241
牕外	-11.1242
宫詞	-11.1242
烟栁	-11.1243
二十五	-11.1244
佳致	-11.1245
碧霄	-11.1245
笑靨	-11.1247
鳳釵	-11.1248
過秦樓	-11.125
一弄	-11.1251
後起句	-11.1254
羅䄂	-11.1255
臺畔	-11.1257
煙籠	-11.1258
香噴	-11.126
名士	-11.1265
用平韻	-11.1265
者誤	-11.1265
百事	-11.1267
画閣	-11.1267
正值	-11.1269
坐客	-11.1269
不惜	-11.127
宴罷	-11.1272
魂驚	-11.1272
空相憶	-11.1273
一絲	-11.1273
窺人	-11.1274
知他是	-11.1276
尋梅	-11.128
滿斟	-11.128
錦𬒳	-11.1285
昔年	-11.1293
蝶舞	-11.1294
名韁	-11.1302
雪壓	-11.1308
晚凉	-11.1308
絶勝	-11.1311
夜涼	-11.1317
高歌	-11.1322
難老	-11.1328
争如	-11.1328
後段十句四平韻	-11.1329
首可校	-11.133
不辨	-11.133
朝霞	-11.1333
夢難成	-11.1335
語氣	-11.1337
數日	-11.1342
紅圍	-11.1343
召為	-11.1344
斷鴻	-11.1347
九十三字	-11.135
山妻	-11.1352
已成	-11.1352
蝶夢	-11.1353
園中	-11.1358
涯	-11.1362
雪意	-11.1363
小鬟	-11.1363
各有	-11.1369
燭暗	-11.1376
然則	-11.1377
愁城	-11.1379
秋香	-11.1381
雙星	-11.1383
翠華	-11.1388
嫵	-11.1388
憶少年	-11.139
乗風	-11.1391
王母	-11.1394
四平	-11.1399
幾聲	-11.1402
一洗	-11.1409
堪羡	-11.141
前溪	-11.1411
慎	-11.1415
兒孫	-11.1415
王觀	-11.1417
日落	-11.1418
以此詞為正體	-11.1419
周羙成	-11.1419
吼	-11.1425
换	-11.1426
雉	-11.1426
路轉	-11.1427
鉢	-11.1428
丑	-11.1429
諱	-11.143
恁般	-11.1431
焰	-11.1432
馥郁	-11.1433
紉	-11.1434
炭	-11.1434
鴈兒落	-11.1434
督	-11.1435
旨	-11.1435
到而今	-11.1435
状	-11.1436
麯	-11.1436
禾	-11.1436
楸	-11.1436
􁒭	-11.1436
燕歸梁	-11.1436
貔貅	-11.1437
蹈	-11.1437
坐對	-11.1438
麄	-11.1438
難逢	-11.1438
遨	-11.1438
陋	-11.1438
古水仙子	-11.1439
鴟夷	-11.1439
黄粱	-11.144
晁無咎	-11.144
諫	-11.144
砂	-11.1441
哥哥	-11.1441
撑	-11.1442
並蒂	-11.1442
照此填	-11.1442
宏	-11.1442
鴛枕	-11.1444
陳亮	-11.1445
躊躇	-11.1445
拾遺	-11.1447
王安石	-11.1448
太液	-11.1449
夫婦	-11.145
刺刺	-11.1452
早晩	-11.1452
縷金衣	-11.1455
百姓	-11.1458
鶯芲	-11.1458
觸目	-11.1458
江楓	-11.1461
曹冠	-11.1464
侍宴	-11.1468
脂粉	-11.1468
斗柄	-11.1471
㱕期	-11.1472
淡妝	-11.1475
偏照	-11.1477
六平韻	-11.1478
日遲遲	-11.1478
朱闌	-11.1479
誰教	-11.1479
段起句	-11.148
衫袖	-11.148
竹馬	-11.1482
篆香	-11.1486
生辰	-11.1487
因緣	-11.1488
心内	-11.1489
第二三句	-11.1489
玉兎	-11.1495
泪眼	-11.1496
冬景	-11.1497
買得	-11.1499
鞋兒	-11.15
髙閣	-11.1504
秦楼	-11.1505
霜雪	-11.1506
龍虎	-11.1508
作七字一句	-11.151
玉溪	-11.151
一夕	-11.1518
嵗晚	-11.1518
落英	-11.1519
青鬢	-11.152
荷衣	-11.152
忽見	-11.1526
伊州	-11.1527
爐煙	-11.1528
初綻	-11.1528
一氣	-11.1529
㡬聲	-11.1529
堪誇	-11.1529
但見	-11.153
所以	-11.153
揺動	-11.1538
池臺	-11.1539
字仄聲第	-11.1539
朱閣	-11.1539
攜手處	-11.1539
錦袍	-11.1539
草萋萋	-11.1541
禁中	-11.1542
疎枝	-11.1543
桃芲	-11.1551
枝枝	-11.1551
酒初醒	-11.1553
蘋花	-11.1554
曽經	-11.1555
秋霜	-11.1556
㝷芳	-11.1556
低唱	-11.1558
叢裏	-11.1559
離合	-11.1562
眉兒	-11.1562
誤入	-11.1563
作六字句	-11.1572
幾曲	-11.1573
粉墻	-11.1573
不觧	-11.1577
剪燭	-11.1578
輕塵	-11.1582
初度	-11.1584
金烏	-11.1586
同惟	-11.1588
弄粉	-11.1592
昏昏	-11.1592
黄蘆	-11.1593
雞聲	-11.1595
周用	-11.1599
無人問	-11.1602
長年	-11.1603
牽掛	-11.1606
池面	-11.1607
東家	-11.1609
我輩	-11.1614
微微	-11.1616
桃源路	-11.162
夜久	-11.1622
何所	-11.1623
醉卧	-11.1627
閃的	-11.1627
喜氣	-11.163
舸	-11.1634
緑野	-11.1635
飛鳥	-11.1637
梅花酒	-11.1639
鵑	-11.1641
芰	-11.1644
紗籠	-11.1646
千結	-11.1652
􁑴	-11.1653
四巻	-11.1658
對對	-11.1659
昼	-11.1664
灾	-11.1666
觀其	-11.1666
緱	-11.1667
池亭	-11.1667
决	-11.167
石上	-11.167
鶚	-11.167
驕馬	-11.1671
版	-11.1671
狹	-11.1672
缷	-11.1672
哄	-11.1673
泮	-11.1673
惶	-11.1673
擺列着	-11.1674
軫	-11.1674
薛昭藴	-11.1674
磚	-11.1675
䟎	-11.1675
前度劉郎	-11.1675
勲業	-11.1676
掖	-11.1676
宿酲	-11.1676
愜	-11.1676
栁眼	-11.1676
濟翁	-11.1676
償	-11.1677
金人捧露盤	-11.1677
蔬	-11.1677
人悄悄	-11.1677
無憀	-11.1677
灺	-11.1677
鴛瓦	-11.1679
白樸	-11.1679
蓴羮	-11.1679
涓涓	-11.1679
繊	-11.168
夕陽西下	-11.168
媿	-11.168
馬莊父	-11.168
攸攸	-11.168
冦	-11.1681
繪	-11.1683
羸	-11.1683
木犀	-11.1684
錐	-11.1684
史邦卿	-11.1684
瞰	-11.1684
襄王	-11.1684
淥	-11.1684
箜篌	-11.1685
銓	-11.1685
不顧	-11.1686
譜内可平可仄據此	-11.1687
髙陽	-11.1687
幕府	-11.1688
杜甫	-11.1689
鵰	-11.169
露洗	-11.1691
追陪	-11.1692
鴈行	-11.1692
作八字	-11.1692
簾幃	-11.1693
淒淒	-11.1694
匹馬	-11.1694
瑣窗	-11.1694
金鑾	-11.1694
飛仙	-11.1695
槐隂	-11.1696
慶元	-11.1697
平野	-11.1699
縈牽	-11.17
弔古	-11.17
永晝	-11.17
第二字	-11.1705
裁剪	-11.1706
層城	-11.1709
趙鼎	-11.171
西城	-11.1711
李甲	-11.1712
之理	-11.1716
嘉定	-11.172
平康	-11.172
倚危樓	-11.1721
過清明	-11.1721
遮斷	-11.1721
芳草渡	-11.1722
燈昏	-11.1723
蘭棹	-11.1724
征鴈	-11.1727
欲盡	-11.1731
髙㑹	-11.1732
衣襟	-11.1739
小艇	-11.174
呉興	-11.1743
因縁	-11.1746
集賢	-11.1754
武陵春	-11.1755
調詞一百	-11.1756
六出	-11.1761
露重	-11.1767
髙卧	-11.1774
風光好	-11.1775
本譜	-11.1775
最為	-11.1779
五十七字	-11.1781
不就	-11.1782
相誤	-11.1786
豈有	-11.1794
新翻	-11.1795
綠窗	-11.1796
太真	-11.1797
莫厭	-11.1798
漲緑	-11.18
劉因	-11.1802
有一箇	-11.1805
空教人	-11.1807
豔陽	-11.1811
始於	-11.1812
雙雙燕	-11.1813
未歇	-11.1818
東湖	-11.1819
慘慘	-11.1825
扶起	-11.1826
相依	-11.1828
留意	-11.183
雙調八	-11.1831
舞霓裳	-11.1831
駿	-11.1833
説道	-11.1835
聽雨	-11.1836
酒興	-11.1838
薄暮	-11.1843
官至	-11.1843
始自	-11.1845
寥	-11.1849
蒲江	-11.185
前後段第三句	-11.1851
襦	-11.1852
開懐	-11.1858
金章	-11.1863
蓼花	-11.1866
當是	-11.1866
棘	-11.1867
蘇東坡	-11.187
此詞與	-11.1871
羅襟	-11.1874
經雨	-11.1876
今世	-11.1882
水邉	-11.1884
玉簫聲	-11.1886
凍雲	-11.1886
簾前	-11.1893
黄芲	-11.1899
哈	-11.191
貨	-11.191
拐	-11.191
雙調一百四字前	-11.191
學得	-11.1911
濡	-11.1911
帘	-11.1912
墀	-11.1912
豈是	-11.1912
饞	-11.1913
只落得	-11.1914
覺来	-11.1914
囚	-11.1915
筋	-11.1915
摩挲	-11.1915
起居	-11.1916
惺	-11.1916
聰	-11.1916
畹	-11.1916
熒熒	-11.1917
矯	-11.1917
郢	-11.1917
陸務觀	-11.1917
螿	-11.1917
詫	-11.1917
碧瓦	-11.1917
當今	-11.1918
牒	-11.1918
湮	-11.1919
崢嶸	-11.1919
輙	-11.1919
孺	-11.1919
籜	-11.192
𤨏	-11.192
䟽	-11.192
薺	-11.192
􁋑	-11.1921
揺曳	-11.1921
矦	-11.1921
蝦	-11.1922
惺惺	-11.1922
沽羙酒	-11.1923
寥廓	-11.1923
崑	-11.1923
螯	-11.1923
去程	-11.1924
俎	-11.1924
藁	-11.1924
璫	-11.1924
蔕	-11.1924
泗	-11.1924
廽	-11.1926
蛻	-11.1926
詞之減字	-11.1927
吴文英	-11.1927
蔡松年	-11.1927
雜録	-11.1927
諌	-11.1928
緋	-11.1929
清江引	-11.193
人生行樂	-11.193
玉漏遲	-11.193
須臾	-11.193
㕘校	-11.193
嘱付	-11.193
爐烟	-11.193
鸞膠	-11.1932
今嵗	-11.1933
白樂天	-11.1933
抛棄	-11.1934
蘆川	-11.1934
造物	-11.1934
橋畔	-11.194
方回	-11.1942
泥金	-11.1944
字仄聲結句	-11.1945
廬陵人	-11.1945
王維	-11.1946
這些	-11.1949
水浸	-11.1951
數歸期	-11.1953
因詞有	-11.1953
永叔	-11.1955
楓林	-11.1958
相忘	-11.1959
檀口	-11.1961
稱觴	-11.1961
暝色	-11.1963
蕭散	-11.1964
千條	-11.1964
憐惜	-11.197
月朦朧	-11.1972
却笑	-11.1972
真箇是	-11.1973
漫録	-11.1974
曲欄	-11.1976
所采	-11.1978
瑶草	-11.1979
尤為	-11.1981
丹陽	-11.1984
文鴛	-11.1985
傾杯	-11.1988
武林	-11.1989
歌殘	-11.199
青溪	-11.1991
楚宫	-11.1991
鼇山	-11.1993
文選	-11.1994
竹屋	-11.1995
故名	-11.2001
搖落	-11.2004
命薄	-11.2004
髙臥	-11.2005
杯盤	-11.2011
登高	-11.2014
士女	-11.2016
溪流	-11.2019
前段第七句	-11.2021
妝臺	-11.2022
前調黄庭堅	-11.2023
愛他	-11.2033
後闋	-11.2035
搔頭	-11.2037
故友	-11.2038
平韻後段十一句	-11.2038
仙鄉	-11.204
上巳	-11.2041
些児	-11.2043
所製	-11.2043
柳枝	-11.2047
紅潮	-11.2048
小檻	-11.2048
青鏡	-11.2051
留待	-11.2051
畫燭	-11.2057
小紅樓	-11.2058
寒枝	-11.2066
記年時	-11.2072
娯	-11.2073
寸腸	-11.2075
帳底	-11.2079
嘗作	-11.2084
横枝	-11.2086
惟此	-11.2093
恰如	-11.2095
溪堂	-11.2103
夜話	-11.2112
玉井	-11.2112
詞結句	-11.2113
異鄉	-11.2115
是誰家	-11.2121
萬户	-11.2123
教他	-11.2123
五十九字	-11.2136
少年心	-11.2138
天賦	-11.2139
萬年歡	-11.2148
輕狂	-11.2152
塞上	-11.2153
扮	-11.2156
秋景	-11.2157
他他他	-11.2158
喻	-11.2159
夙	-11.216
喬牌兒	-11.2161
毛熙震	-11.2161
雙垂	-11.2162
淡泞	-11.2163
粹	-11.2163
販	-11.2164
无咎	-11.2164
戴復古	-11.2164
雍熈	-11.2164
常言道	-11.2165
褐	-11.2166
深巷	-11.2166
戌	-11.2167
恕	-11.2167
姹	-11.2167
清平調	-11.2167
軿	-11.2167
謨	-11.2168
包蔵	-11.2168
揑	-11.2169
給	-11.2169
蓴鱸	-11.2169
平平仄仄	-11.2169
扭	-11.2169
慙	-11.217
脫布衫	-11.217
懐舊	-11.217
驗	-11.217
㪅	-11.217
茱萸	-11.217
䧟	-11.2172
酥胸	-11.2172
韀	-11.2172
珥	-11.2172
芹	-11.2172
據此	-11.2173
屧	-11.2173
相屬	-11.2173
孤鶩	-11.2174
禊	-11.2174
春風吹	-11.2174
御定詞譜巻	-11.2174
拓	-11.2175
㤙	-11.2175
今歲	-11.2175
第七八句	-11.2175
掾	-11.2175
㨂	-11.2175
雙調九十八字前	-11.2175
曾覿	-11.2176
効	-11.2176
皎皎	-11.2176
蕃	-11.2177
賛	-11.2177
岀	-11.2178
并刀	-11.2178
潁	-11.2179
囪	-11.2179
㑹稽	-11.2179
洪瑹	-11.2179
春歸何處	-11.2183
蒼煙	-11.2185
翩然	-11.2186
晴嵐	-11.2186
想着他	-11.2187
簷外	-11.2187
怎能勾	-11.2188
促拍	-11.2192
做一箇	-11.2193
驪歌	-11.2194
蓑衣	-11.2197
睂黛	-11.2197
前調謝逸	-11.2198
不成眠	-11.22
汲古刻	-11.22
喜的是	-11.2202
髙寒	-11.2202
騎鶴	-11.2203
終須	-11.2203
拂拂	-11.2204
刻本	-11.2204
元豐	-11.2207
揺蕩	-11.2208
引的	-11.2209
輸他	-11.2209
一百八字	-11.2211
舞榭	-11.2212
吟鞭	-11.2216
牛女	-11.2216
四季	-11.2216
繁枝	-11.2217
他那里	-11.2217
霞觴	-11.2219
幾陣	-11.2219
余謂	-11.222
性格	-11.222
暑氣	-11.2221
分袂	-11.2226
東牆	-11.2227
天寳	-11.2227
起二句	-11.2228
急管	-11.223
飲酒	-11.223
偎人	-11.2232
楚腰	-11.2236
香篝	-11.2236
不叶韻	-11.2239
輸與	-11.2239
物華	-11.2241
想人生	-11.2242
孤衾	-11.2246
太子	-11.225
舊本	-11.226
誰料	-11.2261
西流	-11.2267
一叶韻	-11.2269
星橋	-11.2274
鸞鳯	-11.2275
恁地	-11.2278
看承	-11.228
能勾	-11.2284
蜀道	-11.2284
忍聽	-11.2287
鳯簫	-11.229
盛開	-11.2291
平仄亦	-11.2298
或是	-11.2302
山村	-11.2308
雨潤	-11.2314
畫出	-11.2328
八九	-11.2331
庭戸	-11.2335
酒盃	-11.2342
庭樹	-11.2342
雲際	-11.2347
綺羅叢	-11.2353
臨鏡	-11.2359
渾是	-11.2365
千絲	-11.237
未減	-11.2372
聽取	-11.2373
張炎詞	-11.2377
元日	-11.2381
嬴	-11.2382
萬載	-11.2382
烟籠	-11.2388
清鏡	-11.2389
四五句	-11.2389
派	-11.2395
憶故人	-11.2395
玉奴	-11.24
散了	-11.2402
清樽	-11.2405
二八	-11.2407
賞花時	-11.2409
剗	-11.2409
天顔	-11.2413
〇	-11.2415
蠅	-11.2415
趙令畤	-11.2416
撅	-11.2418
糖	-11.2418
貝	-11.2419
掂	-11.242
扳	-11.2422
江南江北	-11.2423
霅	-11.2423
糊	-11.2424
貽	-11.2424
㶑灔	-11.2424
陸費墀欽定四庫全書	-11.2424
鑚	-11.2424
斫	-11.2424
華亭	-11.2424
倪	-11.2424
哽咽	-11.2425
絮叨叨	-11.2425
垓	-11.2425
亨	-11.2425
比似	-11.2426
峨	-11.2426
林正大	-11.2426
轅	-11.2426
竄	-11.2427
蹁	-11.2427
澌	-11.2427
觜	-11.2427
州刺史	-11.2427
一壁廂	-11.2428
潦倒	-11.2428
花菴詞選	-11.2428
韈	-11.2428
纍纍	-11.2428
龍樓	-11.2428
凈	-11.2428
喒	-11.2429
績	-11.2429
十五家詞巻	-11.2429
瀰	-11.2429
釅	-11.2429
髄	-11.2429
帔	-11.2431
簟紋	-11.2432
邈	-11.2432
我則待	-11.2432
矩	-11.2432
罏	-11.2432
竹籬	-11.2432
桃源憶故人	-11.2432
負心	-11.2434
踈簾	-11.2434
潺潺	-11.2434
蓬壺	-11.2435
休要	-11.2436
無重數	-11.2436
覊	-11.2436
羯鼓	-11.2436
鶯啼序	-11.2437
銀箭	-11.2438
紫薇	-11.2438
金莖	-11.2442
絳闕	-11.2442
眷戀	-11.2444
清商怨	-11.2444
小姐	-11.2444
切切	-11.2445
除夕	-11.2445
一瞬	-11.2447
字仄聲第六句	-11.2447
疎林	-11.2451
不免	-11.2456
歎息	-11.2457
音調	-11.2459
阻隔	-11.2462
雞鳴	-11.2465
撲面	-11.2465
劉詞	-11.2465
字平聲第二句	-11.2466
江南岸	-11.2468
前調范成大	-11.2468
高陽	-11.2468
後段第一二句	-11.2472
詩文	-11.2472
恁時節	-11.2472
南澗	-11.2473
来往	-11.2475
通篇	-11.2476
宫妝	-11.2478
錦箋	-11.2486
幾時休	-11.2488
畫闌	-11.2492
紹興中	-11.2493
斜川	-11.25
瓊英	-11.2502
前調張元幹	-11.2503
玉斧	-11.2503
皆用	-11.2503
㝷思	-11.2508
空教我	-11.251
春笋	-11.251
一任他	-11.2511
桃溪	-11.2512
烟消	-11.2513
自許	-11.2515
故苑	-11.2523
日永	-11.2526
平仄異	-11.2528
薄霧	-11.253
暮靄	-11.2538
粉痕	-11.2543
八十七字	-11.2547
千疊	-11.2549
謂其	-11.2553
露桃	-11.2553
遠山	-11.2557
午夜	-11.2562
青眼	-11.2568
占了	-11.2572
交光	-11.2572
物外	-11.2573
柳隂	-11.2574
樓觀	-11.2579
林梢	-11.2583
侍女	-11.2585
憶江南	-11.2586
秦詞	-11.2589
仄平平仄	-11.2592
未幾	-11.2596
䦨干曲	-11.2607
詞第七句	-11.2608
湘簾	-11.2611
彩鸞	-11.2614
玉鞭	-11.2619
落魄	-11.2622
黄庭	-11.2622
許多時	-11.2625
八十二字	-11.2629
三字兩句	-11.2631
鴻鴈	-11.2632
雙鳯	-11.2634
音節	-11.2635
􁁊	-11.2653
華表	-11.2654
嬌鶯	-11.2655
玉壷	-11.2668
佳名	-11.2668
太上	-11.2668
詹	-11.2673
稚	-11.2673
曉起	-11.2674
軀	-11.2677
羗	-11.2677
我我我	-11.2677
猿啼	-11.2678
隔斷	-11.2679
嚥	-11.268
畫睂	-11.268
臞	-11.2683
孚	-11.2683
黙黙	-11.2683
檄	-11.2683
譚	-11.2683
糾	-11.2683
氛	-11.2684
厖	-11.2685
宫漏	-11.2686
蝶恋花	-11.2686
蜕	-11.2687
鏡臺	-11.2688
朕	-11.2688
藩	-11.2688
望海潮	-11.2688
諸葛	-11.2688
竇	-11.2688
欵欵	-11.2689
琚	-11.2689
喘	-11.2689
批	-11.2689
芭蕉雨	-11.2689
髓	-11.269
恥	-11.269
羙甘甘	-11.269
朽	-11.2691
咳	-11.2691
上小楼	-11.2691
駭	-11.2691
巘	-11.2691
京鏜	-11.2691
叱	-11.2691
朝雲暮雨	-11.2692
不注可仄	-11.2692
豁	-11.2692
糧	-11.2692
分開	-11.2693
萱草	-11.2693
産	-11.2693
泳	-11.2693
姜堯章	-11.2694
微露	-11.2694
恋	-11.2694
字之訛	-11.2695
譲	-11.2695
槿	-11.2696
曉妝	-11.2696
用尤侯韻	-11.2696
羔	-11.2696
尊罍	-11.2696
稻	-11.2696
調笑令	-11.2696
祓	-11.2698
牛希濟	-11.2698
八六子	-11.2699
三台	-11.2699
對酒當歌	-11.2699
織就	-11.2699
樹底	-11.2702
胡浩然	-11.2702
朋友	-11.2702
寳瑟	-11.2703
宜男	-11.2703
麴塵	-11.2703
青驄	-11.2704
勝葫蘆	-11.2704
全異	-11.2704
閃閃	-11.2705
律吕	-11.2706
潘鬢	-11.2706
梦裡	-11.2708
梁苑	-11.2708
林逋	-11.2709
判官	-11.2709
雍容	-11.2709
長卿	-11.2709
驀然	-11.2709
似舊時	-11.271
俊雅	-11.2713
當此際	-11.2718
紅巾	-11.2719
南柯子	-11.2719
蘭蕙	-11.2719
變化	-11.2719
新霽	-11.2721
即以	-11.2721
眞箇	-11.2722
金徽	-11.2723
百二十	-11.2726
字仄聲第二句	-11.2728
千巖	-11.2729
黄山谷	-11.273
嚦嚦	-11.2731
星稀	-11.2731
形勝	-11.2732
繡幕	-11.2733
部侍郎	-11.2734
節物	-11.2734
艇子	-11.2738
鴛鴦浦	-11.2739
市橋	-11.2745
旅思	-11.2748
芙蓉帳	-11.2748
紗牕	-11.2751
前調蔡伸	-11.2752
垂絲	-11.2753
殘暑	-11.2755
都付與	-11.276
桂華	-11.276
五代	-11.2761
近清明	-11.277
映水	-11.2771
釵分	-11.2774
繁杏	-11.2776
牢落	-11.278
飛觴	-11.2789
密意	-11.2792
堪嗟	-11.2795
楊州	-11.2795
相攜	-11.2796
清標	-11.2797
襟懐	-11.2798
淚灑	-11.2798
斜墜	-11.2799
寒侵	-11.28
宫腰	-11.2801
門半掩	-11.2803
綵鸞	-11.2805
話児	-11.2808
爛醉	-11.2809
樹杪	-11.2815
故人何處	-11.2819
功名事	-11.282
彎彎	-11.282
徃來	-11.2821
尚未	-11.2831
儘教	-11.2833
長洲	-11.2833
解語花	-11.2834
幽蘭	-11.2835
銀臺	-11.2835
緑窗	-11.2839
方纔	-11.2839
落梅風	-11.284
顧曲	-11.2842
繁紅	-11.2849
左丞	-11.2849
輕紗	-11.2852
杯行	-11.2856
夢裡	-11.2864
寒暑	-11.2872
迷離	-11.2873
雪消	-11.2873
弱水	-11.2873
餘同	-11.2879
則索	-11.2883
只合	-11.2883
字一句六字一句	-11.2887
子陵	-11.289
今照	-11.2893
輕籠	-11.2902
歸興	-11.2903
遥知	-11.2922
忍教	-11.2925
桐隂	-11.293
昏鴉	-11.293
慨	-11.2937
牆外	-11.2939
裙帶	-11.294
秃	-11.294
詣	-11.2943
孩	-11.2945
蓮歩	-11.2946
舛	-11.2949
豚	-11.295
忻	-11.2951
㝠㝠	-11.2951
􁡾	-11.2952
御選歴代詩餘	-11.2953
一輪明月	-11.2953
蘇庠	-11.2956
閻選	-11.2957
元遺山	-11.2957
銕	-11.2957
欒	-11.2957
尊俎	-11.2958
月恭校上	-11.2958
更和這	-11.2959
謎	-11.2959
嬈	-11.2959
颯	-11.2959
鄂	-11.2959
菩薩蛮	-11.296
颿	-11.296
釃	-11.296
揪	-11.296
歡宴	-11.2961
傳言玉女	-11.2961
隈	-11.2962
疎影横斜	-11.2962
迂	-11.2962
霓裳羽衣	-11.2962
穉	-11.2962
歸去來兮	-11.2962
潺湲	-11.2963
濠	-11.2963
伶俐	-11.2964
踟蹰	-11.2964
迎仙客	-11.2965
早梅芳	-11.2965
濺濺	-11.2966
急煎煎	-11.2966
李綱	-11.2966
決	-11.2967
纒綿	-11.2967
寇	-11.2967
凄切	-11.2968
賺煞	-11.2968
翰林院檢討	-11.2969
柴桑	-11.2969
銀潢	-11.2969
䓁	-11.2969
觀察	-11.297
罅	-11.297
磕	-11.2971
銷盡	-11.2971
丹墀	-11.2971
宋徽宗	-11.2971
蠅頭	-11.2972
傷懐抱	-11.2972
思前事	-11.2972
王魁	-11.2974
减字木蘭花	-11.2975
老人星	-11.2976
前調晏㡬道	-11.2977
萬籟	-11.2977
御溝	-11.2977
五仄韻後段八句	-11.2978
縈繫	-11.2978
厲	-11.2979
星辰	-11.2979
慵整	-11.2979
則聴的	-11.298
羅裳	-11.2983
害的	-11.2985
與前詞異	-11.2986
追歡	-11.2986
春將暮	-11.2988
熏籠	-11.2989
霜鬢	-11.2989
荻花	-11.299
珠履	-11.2992
種種	-11.2993
文武	-11.2994
三閭	-11.2994
句讀參差	-11.2999
前調吳子孝	-11.3
登第	-11.3
燕臺	-11.3001
評曰	-11.3001
香燼	-11.3001
梅蕊	-11.3001
画眉	-11.3002
解佩	-11.3006
三島	-11.3006
延年	-11.3009
漁陽	-11.301
前輩	-11.301
當筵	-11.301
掌中	-11.3011
四野	-11.3012
步步	-11.3012
目㫁	-11.3017
歡聚	-11.302
塞北	-11.3021
腸断	-11.3023
撇下	-11.303
鶯嬌	-11.3032
之法	-11.3033
添憔悴	-11.3033
及第	-11.3041
張良	-11.3046
傳觴	-11.3046
歲晚	-11.3049
手種	-11.3057
作三字兩句	-11.3058
五煞	-11.3059
瀟瀟雨	-11.306
蒼梧	-11.3062
翠娥	-11.3067
心堅	-11.3068
香奩	-11.3071
如此填	-11.3073
頻移	-11.3073
雙闕	-11.3073
千嵗	-11.3074
直須	-11.3075
嫩紅	-11.308
棹歌	-11.3086
踏雪	-11.3086
睂峰	-11.309
往来	-11.309
席間	-11.3095
相接	-11.3095
萬朶	-11.3099
作七字句	-11.31
淚落	-11.31
鏡裡	-11.31
珠簾捲	-11.3102
闗心	-11.3105
禁煙	-11.3106
傳消息	-11.311
弓彎	-11.3114
猶憶	-11.3121
熏爐	-11.3123
前調晁補之	-11.3125
情牽	-11.3125
重整	-11.3132
南湖	-11.3137
永嘉	-11.3137
甘露	-11.3137
無跡	-11.3141
經過	-11.3142
送行人	-11.3146
冷落了	-11.3153
爭忍	-11.3157
生受	-11.3158
澹煙	-11.3158
占㫁	-11.316
不學	-11.3176
未穩	-11.3183
含笑	-11.3183
後段第八句	-11.3186
何堪	-11.3195
痩影	-11.3195
瞥	-11.3198
聖明	-11.3206
悠	-11.3208
草窗	-11.3208
不厭	-11.3209
菱歌	-11.3213
幽思	-11.3216
四字一句	-11.3222
鏝	-11.3222
栁陌	-11.3223
䭾	-11.3224
搽	-11.3224
你㸔這	-11.3224
萱	-11.3227
眩	-11.3228
紵	-11.3228
倪瓚	-11.3229
真乃是	-11.3229
諷	-11.3229
佚	-11.3229
輟	-11.3229
瑯	-11.323
沃	-11.323
掀髯	-11.323
赶	-11.323
祀	-11.323
夘	-11.3231
婺	-11.3231
㐮王	-11.3234
篤	-11.3235
葭	-11.3235
蘄	-11.3235
灩	-11.3235
忿	-11.3236
藴	-11.3237
供奉	-11.3237
儉	-11.3237
減字朩蘭花	-11.3237
朝朝暮暮	-11.3237
李萊老	-11.3237
匈	-11.3238
秦少㳺	-11.3239
恒	-11.3239
嵌	-11.3239
羃	-11.3239
臨卭	-11.3239
璞	-11.3239
㸔了這	-11.3239
袴	-11.3239
肖	-11.324
陶潜	-11.324
跪	-11.324
人月圓	-11.3241
機謀	-11.3241
藜	-11.3241
冨	-11.3242
王惲	-11.3242
朦	-11.3243
茂陵	-11.3243
覧	-11.3244
黃鶯兒	-11.3244
雛鶯	-11.3244
鉉	-11.3244
穀	-11.3244
迢遥	-11.3244
衞	-11.3245
委實	-11.3246
王詵	-11.3246
蜻蜓	-11.3246
蹀躞	-11.3247
翛然	-11.3247
唐虞	-11.3248
劉伶	-11.3248
惜餘春	-11.3249
月上海棠	-11.325
安公子	-11.3251
冒	-11.3252
宗室	-11.3255
岐路	-11.3256
唱陽關	-11.3258
好着我	-11.3258
二十八字	-11.326
瑶觴	-11.326
睂嫵	-11.3261
寛褪	-11.3262
芳辰	-11.3264
結同心	-11.3269
楼䑓	-11.327
月姊	-11.3271
望㫁	-11.3271
朝陽	-11.3275
将一箇	-11.3275
傳訛	-11.3277
者非	-11.3277
塞管	-11.3278
尾犯	-11.3278
聖夀	-11.328
元帥	-11.3281
用平仄	-11.3281
山長水	-11.3284
野塘	-11.3288
亂紛紛	-11.3289
詞句讀	-11.329
垂釣	-11.3294
沈腰	-11.3298
鵞黄	-11.3298
山房	-11.3298
寳鏡	-11.3309
金雀	-11.3311
厎事	-11.3311
羅襦	-11.3313
七十六字	-11.3314
和諧	-11.3314
少陵	-11.3316
梧桐影	-11.3318
想着俺	-11.3322
兀自	-11.3323
香燒	-11.3324
古樂府	-11.3324
迥别	-11.3331
相惱	-11.3334
芰荷香	-11.3334
最宜	-11.3336
囬頭	-11.3337
難駐	-11.3338
微步	-11.3344
撩人	-11.3356
劉鎮	-11.3357
袖手	-11.3358
飛不到	-11.3358
字上聲	-11.3359
壚	-11.336
薄薄	-11.336
隔岸	-11.3361
睡醒	-11.3361
魚沉	-11.3365
銷魂處	-11.3365
金鞭	-11.337
愁煩	-11.3371
□□□□□	-11.3376
南楼	-11.3388
画角	-11.3393
髙興	-11.3394
梧桐樹	-11.3396
公卿	-11.3396
七十二字	-11.3398
所傳	-11.3402
每日	-11.3402
山鬼	-11.3404
丰韻	-11.3412
詩翁	-11.3414
新様	-11.3418
甘心	-11.3424
光射	-11.343
才思	-11.3441
段各	-11.3454
遙山	-11.3458
偏愛	-11.346
更籌	-11.346
髙堂	-11.3462
滿泛	-11.3463
做的	-11.3475
到黄昏	-11.3478
霜侵	-11.3479
深䖏	-11.348
東華	-11.3496
玳	-11.3497
蛺蝶	-11.3503
芬	-11.3506
嗽	-11.351
遮莫	-11.351
黔	-11.351
独	-11.3512
孔雀	-11.3512
曛	-11.3514
頴	-11.3514
揔	-11.3516
歷	-11.3516
唤	-11.3517
脯	-11.3517
心焦	-11.3518
莱	-11.3518
凛	-11.3519
屨	-11.3519
抛毬樂	-11.3521
羅扇	-11.3521
姪	-11.3521
崔徽	-11.3521
拄	-11.3522
常子是	-11.3522
雜劇	-11.3523
曺	-11.3523
王介甫	-11.3523
綫	-11.3523
湄	-11.3524
啻	-11.3524
霍	-11.3524
馮魁	-11.3525
笔	-11.3525
耍孩児	-11.3525
東風第一枝	-11.3526
㡳	-11.3526
鋼	-11.3527
欽定四庫全書十五家詞巻	-11.3527
溶	-11.3527
粼粼	-11.3527
彭澤	-11.3527
嘹喨	-11.3529
雞犬	-11.353
懊恨	-11.353
杖屨	-11.353
謝無逸	-11.3531
参差	-11.3531
殢人嬌	-11.3532
鷓鴣啼	-11.3532
端詳	-11.3532
冨貴	-11.3532
正值着	-11.3532
芦	-11.3533
呈瑞	-11.3533
百囀	-11.3534
我和你	-11.3534
杜䳌啼	-11.3534
淡竚	-11.3534
踈星	-11.3534
思佳客	-11.3534
鳯池	-11.3534
謝懋	-11.3535
叅校	-11.3537
絳綃	-11.3537
無别首宋詞可校	-11.3537
堆積	-11.3537
便有那	-11.3537
排塲	-11.3538
前調陳三聘	-11.3538
牛羊	-11.354
難續	-11.354
你道是	-11.354
黄梅雨	-11.3543
乾荷葉	-11.3544
滿懷	-11.3544
豔冶	-11.3545
面皮	-11.3545
簷牙	-11.3546
知制誥	-11.3548
洛神	-11.3548
持杯	-11.3551
前段第四句	-11.3551
字仄聲第五句	-11.3553
鸞箋	-11.3553
瑤琴	-11.3554
性命	-11.3554
新沐	-11.3555
承恩	-11.3555
擬倩	-11.3555
禁苑	-11.3556
字領句	-11.3559
詩話云	-11.3559
友古	-11.3562
暖律	-11.3565
誤認	-11.3566
苔痕	-11.3567
字仄聲譜内	-11.3569
務頭	-11.3573
前調李之儀	-11.3573
僅見	-11.3575
王炎	-11.3576
緑囱	-11.3577
賔客	-11.3578
嬌艶	-11.3579
龍洲	-11.3585
短笛	-11.3588
怕黄昏	-11.3589
檻外	-11.3589
扶疎	-11.359
前後段起句	-11.359
蜀錦	-11.3592
前調髙觀國	-11.3601
催促	-11.3606
栁綿	-11.3607
三聲叶	-11.3616
蘋洲	-11.3617
减了	-11.3619
六十七字	-11.3621
衰栁	-11.363
前調周密	-11.3642
飲罷	-11.3643
前調楊无咎	-11.3645
佳㑹	-11.365
觧語	-11.3651
仁宗	-11.3655
别館	-11.366
鎮長	-11.3663
長安路	-11.3664
作五字句	-11.3666
仙桃	-11.3668
編修	-11.3671
壁間	-11.3685
雙調九十七字前	-11.3699
注云	-11.3706
何由	-11.3738
半醒	-11.375
妝面	-11.3765
陽臺夢	-11.3765
臘梅	-11.3765
是叶韻	-11.3769
歡愛	-11.3778
追想	-11.3783
相交	-11.3786
帊	-11.3789
悠颺	-11.3792
□□□□□□□□□□□□□□□□	-11.3796
鬖	-11.3799
鶩	-11.3799
集一巻	-11.38
衫䄂	-11.3803
簸	-11.3803
池邊	-11.3805
搔	-11.3805
薪	-11.3805
袋	-11.3807
可作平	-11.3807
諭	-11.3808
䳌	-11.3808
灼	-11.3809
奎	-11.3809
涇	-11.381
歐良	-11.3811
粧束	-11.3811
辛㓜安	-11.3811
曇	-11.3812
則他那	-11.3812
太常引	-11.3813
犂	-11.3813
張鎡	-11.3813
佑	-11.3813
拒	-11.3813
弇	-11.3814
不自由	-11.3815
樨	-11.3815
彞	-11.3815
歴官	-11.3815
凛凛	-11.3815
臍	-11.3815
程珌	-11.3816
鼎鼐	-11.3816
乂	-11.3816
撃	-11.3816
榮辱	-11.3817
鼠	-11.3817
吕聖求	-11.3818
江兒水	-11.3818
焙	-11.3818
選冠子	-11.3819
玲瓏四犯	-11.3819
哨遍	-11.3819
葺	-11.3819
士大夫	-11.3819
寍	-11.382
盟誓	-11.382
漣漪	-11.382
劉一止	-11.382
鳴珂	-11.382
毛澤民	-11.3821
婿	-11.3821
天長地乆	-11.3821
不校注	-11.3822
㬠	-11.3822
耆舊	-11.3823
系	-11.3823
𦍑管	-11.3823
繚	-11.3823
総	-11.3823
潯陽	-11.3823
滕王	-11.3825
櫽括	-11.3825
琴瑟	-11.3826
頒	-11.3827
崑崙	-11.3827
阿母	-11.3828
雙調一百二字前段十句	-11.3828
垢	-11.3828
浣紗	-11.3828
芙容	-11.3828
畫橈	-11.3829
憑仗	-11.3829
堪傷	-11.3829
襄陽	-11.3829
日初長	-11.383
擡頭	-11.3831
一葉扁舟	-11.3831
陡覺	-11.3833
建章	-11.3834
歳歳	-11.3834
滴滴金	-11.3835
鳳輦	-11.3835
画閤	-11.3835
胡床	-11.384
囑付	-11.384
憑欄	-11.384
雨么	-11.3841
六幅	-11.3842
萬壑	-11.3843
慵拈	-11.3843
鄉闗	-11.3844
清濁	-11.3846
通宵	-11.3847
蒼顔	-11.3847
叢叢	-11.385
朱輪	-11.3853
前調馮延巳	-11.3854
真誠	-11.3854
澄清	-11.3855
踏遍	-11.3855
慿着	-11.3856
人散後	-11.3858
釣船	-11.3862
埋怨	-11.3866
河梁	-11.387
字用仄	-11.3872
離觴	-11.3872
嬝嬝	-11.3876
八仙	-11.3883
茶竈	-11.3898
一套	-11.3898
曉鐘	-11.3899
牽衣	-11.3903
佳音	-11.3903
太湖	-11.3904
世態	-11.3907
雙鬟	-11.3907
浣花	-11.3907
遙想	-11.3909
幾箇	-11.3909
蘇州	-11.3909
後次句	-11.391
蕭閒	-11.3912
清輝	-11.3914
移舟	-11.3915
壽陽妝	-11.3918
弟子	-11.3919
譜内可平	-11.3922
一掬	-11.3923
二字俱平聲	-11.3927
秦樓月	-11.3928
謾贏得	-11.3937
晝夜	-11.3939
金盆	-11.3941
休訴	-11.3944
一枝梅	-11.3944
四字三句	-11.3952
堪画	-11.3952
衣袂	-11.3953
八十九字	-11.3953
忽然	-11.3959
中吕	-11.3965
平川	-11.3967
鳯城	-11.3979
想當年	-11.398
歸棹	-11.3982
想當日	-11.3987
玉搔頭	-11.3988
下十字	-11.399
只管	-11.3998
前調張先	-11.4
胡蝶	-11.4001
蟬聲	-11.4005
梧桐葉	-11.4007
窓紗	-11.4009
禮部	-11.4019
屏幃	-11.402
一百十字	-11.4022
姑溪	-11.4024
謝安	-11.4028
紅箋	-11.403
溪畔	-11.4035
那時節	-11.4037
㫁魂	-11.4044
賴有	-11.4044
芳尊	-11.4044
玉簫吹	-11.4053
此時情	-11.4071
教你	-11.4072
日烘	-11.4076
踈踈	-11.4079
一紙	-11.4083
一盞	-11.4093
字用平	-11.4095
玉觴	-11.4098
織錦	-11.4099
忖	-11.4104
呉子孝	-11.4106
㸔了他	-11.4106
撏	-11.4107
晶	-11.4107
腌	-11.4109
訓	-11.4109
李元膺	-11.411
跟	-11.411
苐	-11.4111
釘	-11.4111
漚	-11.4112
丧	-11.4113
詞為正體	-11.4113
琤	-11.4113
汙	-11.4115
腿	-11.4116
榛	-11.4116
揩	-11.4116
江北江南	-11.4116
段克已	-11.4116
㶚	-11.4116
刷	-11.4117
俾	-11.4117
瞢騰	-11.4118
比目魚	-11.4118
册	-11.4118
張掄	-11.4118
恢	-11.4119
敦	-11.4119
甸	-11.4119
聡明	-11.4119
竅	-11.4119
滳	-11.4119
唐教坊	-11.4119
廿	-11.4119
絹	-11.4119
睢	-11.412
敕	-11.412
伶仃	-11.412
匹配	-11.412
﨑嶇	-11.4121
劫	-11.4121
琹	-11.4122
雙頭蓮	-11.4122
皤	-11.4122
哎	-11.4122
䖍	-11.4122
淺斟低唱	-11.4122
膽瓶	-11.4122
漱	-11.4123
雙調八十二字前	-11.4123
蹟	-11.4124
飮	-11.4124
𣲖	-11.4124
雨乍晴	-11.4125
鞚	-11.4125
主簿	-11.4125
滔滔	-11.4125
陶陶	-11.4126
多管是	-11.4126
淋浪	-11.4126
蠏	-11.4126
􁈼	-11.4126
庫	-11.4127
燭影搖紅	-11.4127
凭肩	-11.4128
䋲	-11.4128
脃	-11.4128
交頸	-11.4128
煤	-11.4129
摔	-11.4129
鼙	-11.413
弟兄	-11.413
胄	-11.413
靈均	-11.4131
趂着這	-11.4131
層層	-11.4131
凖擬	-11.4131
郊原	-11.4132
尙	-11.4132
黄叔暘云	-11.4132
丘壑	-11.4132
星眸	-11.4132
抗	-11.4133
篱	-11.4133
常則是	-11.4134
平韻後段四句三平韻	-11.4134
提壺	-11.4135
可憐宵	-11.4135
揚鞭	-11.4137
淒楚	-11.4138
龍吟	-11.4138
易感	-11.4139
簮纓	-11.4139
武夷	-11.414
纖腰	-11.4141
隴首	-11.4142
抱琵琶	-11.4143
庭院深深	-11.4143
荆楚	-11.4143
黄鍾宫	-11.4144
怯怯	-11.4144
沙汀	-11.4144
不堪回首	-11.4145
九陌	-11.4149
斜插	-11.4151
車輪	-11.4152
另格	-11.4153
張緒	-11.4154
料理	-11.4155
素質	-11.4158
怎敢	-11.4159
喜春来	-11.4159
聲律	-11.4161
中吕調	-11.4161
大抵	-11.4163
王氏	-11.4164
散髪	-11.4171
舊巢	-11.4172
虛度	-11.4175
髙陽臺	-11.4176
青蕪	-11.4176
招魂	-11.4177
沙堤	-11.4178
游戲	-11.4179
輕裘	-11.418
門户	-11.4184
平韻者	-11.4186
淡蕩	-11.4187
芳筵	-11.4188
意懶	-11.419
方壺	-11.4192
採菱	-11.4194
朩落	-11.4197
交歡	-11.42
遺音	-11.4201
盃盤	-11.4202
古木	-11.4204
寥寥	-11.4206
人未歸	-11.4208
前後段第二句	-11.4208
頂上	-11.4214
妃子	-11.4215
緑苔	-11.4218
此情誰	-11.4222
花驄	-11.4227
燒殘	-11.4231
千峰	-11.4248
楚臺	-11.4249
氣象	-11.4249
石屏	-11.4261
媚景	-11.427
幽居	-11.4273
笑殺	-11.4283
雙臉	-11.4286
二十六	-11.4296
九州	-11.4299
雕簷	-11.4312
皇帝	-11.4312
筵前	-11.4324
微吟	-11.434
有訛	-11.4355
卒諡	-11.4355
據此餘叅	-11.4367
娱	-11.4368
画橋	-11.437
荻	-11.4397
篘	-11.4409
頸	-11.4414
萬條	-11.4415
冊	-11.4416
閻	-11.4418
冐	-11.4418
弩	-11.4419
所著有	-11.4419
脉	-11.4419
爼	-11.442
淩	-11.442
誰肯	-11.4421
璇	-11.4422
懼	-11.4422
楹	-11.4423
籙	-11.4424
婁	-11.4425
鐸	-11.4425
嘈	-11.4426
綺窗	-11.4426
叨叨令	-11.4426
睇	-11.4427
饌	-11.4427
噎	-11.4427
洶	-11.4428
摭	-11.4428
穎	-11.4428
捐	-11.4428
淞	-11.4429
騶	-11.4429
詞㫖警句	-11.4429
劉儗	-11.4429
雋	-11.4429
籃	-11.443
巫山一段雲	-11.443
皎潔	-11.443
聯	-11.443
俳	-11.443
翰林院	-11.443
彭元遜	-11.443
捕	-11.4431
豓	-11.4431
莆	-11.4431
􁅘	-11.4432
燄	-11.4432
熬煎	-11.4433
螭	-11.4433
洞簫	-11.4433
拄杖	-11.4433
嘆世	-11.4433
卞	-11.4433
竦	-11.4433
三萬六千	-11.4433
哩	-11.4433
珏	-11.4434
箆	-11.4434
峙	-11.4434
僃	-11.4434
卟	-11.4434
侭	-11.4434
抖擻	-11.4434
思越人	-11.4434
貎	-11.4434
凴	-11.4434
刘	-11.4435
蓬蒿	-11.4435
百宜嬌	-11.4435
不枉了	-11.4435
劈	-11.4435
婷婷	-11.4436
酌酒	-11.4436
劉改之	-11.4437
厥	-11.4437
謝池春	-11.4437
館娃	-11.4437
漏泄	-11.4437
暘	-11.4437
擷	-11.4438
紫花児序	-11.4438
秖	-11.4438
困騰騰	-11.4438
珎	-11.4438
騐	-11.4439
芒鞋	-11.4439
夀域	-11.4439
慶春澤	-11.4439
忠孝	-11.4439
輳	-11.4439
称	-11.444
蘇幕遮	-11.444
檢㸃	-11.444
暢好是	-11.444
可平可仄悉㕘	-11.444
庭堅	-11.4441
搴	-11.4441
魯直	-11.4442
霓裳中序第一	-11.4442
堞	-11.4442
我子待	-11.4443
瓦盆	-11.4443
僧揮	-11.4444
銜杯	-11.4444
盂	-11.4445
北斗	-11.4445
牧童	-11.4445
危䦨	-11.4445
此調秖有	-11.4446
黃鸝	-11.4447
王衍	-11.4447
村醪	-11.4447
駟馬	-11.4447
口脂	-11.4447
字平聲第七句	-11.445
芝蘭	-11.445
閙蛾	-11.4451
馳驟	-11.4451
斗牛	-11.4452
參軍	-11.4452
寳鑑	-11.4453
亭臯	-11.4454
絶頂	-11.4455
鉄馬	-11.4458
漁隠	-11.4459
六么令	-11.446
字平聲譜内可平可仄據此	-11.446
建安	-11.4463
行役	-11.4465
詞為正體若	-11.4465
東臯	-11.4467
乳燕飛	-11.4467
裁翦	-11.4468
除非是	-11.4468
去年今日	-11.447
受了些	-11.4471
粉汗	-11.4472
無處著	-11.4476
寳篆	-11.4477
萬象	-11.4478
三千丈	-11.4478
緫是	-11.4481
感嘆	-11.4481
畫角聲	-11.4482
歸未得	-11.4482
烏啼	-11.4485
太平年	-11.4486
燒燈	-11.4486
鐙火	-11.4487
三寸	-11.449
珊枕	-11.449
歐詞	-11.4491
驪山	-11.4493
佳話	-11.4495
繁華地	-11.4498
未穏	-11.4503
果然	-11.4504
前調温庭筠	-11.4506
舉目	-11.4506
剪剪	-11.4509
塞鴈	-11.4513
滿腹	-11.4517
前調孫光憲	-11.4518
客舍	-11.4521
韓詩	-11.4524
波濤	-11.453
一統	-11.4532
今在否	-11.4534
三十六陂	-11.4534
由他	-11.4536
牆東	-11.4543
識破	-11.4551
下與後	-11.4551
忍負	-11.4554
寒威	-11.4558
多應是	-11.457
水闊	-11.4571
賺尾	-11.4579
莫敎	-11.4581
字起韻	-11.4589
第三四句	-11.4595
試㸔	-11.4596
二十七	-11.4607
野色	-11.4619
娘娘	-11.4621
消除	-11.463
洛陽春	-11.4649
梅苑詞	-11.465
做主	-11.466
漁村	-11.466
禎	-11.4702
那一箇	-11.4703
挑菜	-11.4712
青瑣	-11.4727
無拘	-11.4727
瑕	-11.4732
遙指	-11.4738
玳瑁	-11.4741
摟	-11.4741
葆	-11.4743
白蘋洲	-11.4743
拔	-11.4743
猊	-11.4744
周邦彥	-11.4744
瞳	-11.4744
溆	-11.4745
醴	-11.4745
逮	-11.4745
革	-11.4746
諒	-11.4748
担	-11.4748
盗	-11.4748
齊臻臻	-11.4749
苕溪漁隱	-11.4749
堯民歌	-11.4749
瓏	-11.475
衠	-11.475
踰	-11.4751
子夜歌	-11.4751
鶻	-11.4751
磴	-11.4751
無覓處	-11.4752
高觀國	-11.4752
嫂	-11.4752
踅	-11.4752
剜	-11.4752
枰	-11.4752
副	-11.4753
韭	-11.4753
濃如酒	-11.4754
腐	-11.4754
榔	-11.4754
耽	-11.4754
搶	-11.4754
鼉	-11.4755
百里	-11.4755
直喫的	-11.4755
勺	-11.4755
樂府一巻	-11.4756
珞	-11.4756
洩	-11.4756
肺腑	-11.4756
園亭	-11.4756
濁醪	-11.4756
登山臨水	-11.4756
愠	-11.4756
百字令	-11.4756
棒	-11.4757
臭	-11.4757
閶	-11.4758
徊	-11.4758
百卉	-11.4758
輭	-11.4758
泫	-11.4758
逡巡	-11.4758
冥冥	-11.4758
療	-11.4759
瑞龍吟	-11.4759
雙調五十三字	-11.4759
釵頭鳳	-11.4759
蝸	-11.4759
矢	-11.4759
𬋩	-11.4759
可仄據此	-11.476
萍梗	-11.476
麋鹿	-11.476
舞裙歌扇	-11.4761
災	-11.4761
麻姑	-11.4762
貴妃	-11.4762
頥	-11.4762
稜稜	-11.4764
賔鴻	-11.4764
俏冤家	-11.4764
玳瑁筵	-11.4764
句讀小異	-11.4765
雨中花慢	-11.4765
雙調五十字前後	-11.4765
㶑	-11.4765
址	-11.4765
鱗鱗	-11.4765
隔浦蓮	-11.4765
搆	-11.4766
閉口	-11.4766
邯郸	-11.4767
紙帳	-11.4767
駢	-11.4767
並蔕	-11.4767
辯	-11.4767
登眺	-11.4768
寝	-11.4769
字仄聲第七句	-11.477
蕭寺	-11.4771
陂塘	-11.4771
二十四橋	-11.4773
經營	-11.4773
靈犀	-11.4775
自忖	-11.4776
弱栁	-11.4779
嚴陵	-11.4781
赴闕	-11.4782
寂靜	-11.4782
氷綃	-11.4783
想當𥘉	-11.4785
光禄	-11.4787
側側	-11.4788
五十三字	-11.4789
翦翦	-11.4789
各減一字	-11.4789
睡鴨	-11.4789
堪描	-11.4792
間茅屋	-11.4792
銀牀	-11.4793
波紋	-11.4795
是何年	-11.4795
離筵	-11.4799
第三體	-11.48
銀䑓	-11.48
杏臉	-11.4801
施朱	-11.4801
黄鶯兒	-11.4801
鸞釵	-11.4802
緑蟻	-11.4802
衆芳	-11.4803
斑衣	-11.4804
金盞児	-11.4811
青蘋	-11.4811
遣興	-11.4811
中央	-11.4811
追逰	-11.4813
銀漏	-11.4817
獨酌	-11.4817
前調元好問	-11.482
吳鈎	-11.482
醉公子	-11.4821
薰爐	-11.4822
宻約	-11.4823
氣爽	-11.4823
二十七字	-11.4825
家私	-11.4825
隱約	-11.4829
傷神	-11.4833
枉費	-11.4834
寶馬	-11.4836
村居	-11.4843
輕綃	-11.4846
這塲	-11.4854
宫様	-11.4861
藍橋路	-11.4863
膩粉	-11.4866
憑高	-11.4869
閒堦	-11.4891
悒怏	-11.4893
昏慘慘	-11.4895
風細細	-11.4897
編入	-11.4902
沒箇	-11.4913
黛睂	-11.4921
八十三字	-11.4933
/)□(	-11.4938
惱殺	-11.4942
浙江	-11.4948
夜泊	-11.4954
粧㸃	-11.4964
楊柳枝	-11.4972
雙調九十六字前	-11.4975
七十九字	-11.4979
句多一字	-11.4981
用韻異	-11.4986
杏梁	-11.4999
寒砧	-11.5002
聲喧	-11.5004
前段第六句	-11.502
山盟	-11.5022
鑠	-11.5025
字平聲譜内	-11.5035
塵俗	-11.5047
右丞	-11.5053
塹	-11.5065
楷	-11.5071
癯	-11.5072
儆	-11.5073
覃	-11.5073
脱布衫	-11.5074
囯	-11.5076
扎	-11.5076
詵	-11.5077
汞	-11.5077
甥	-11.5077
懋	-11.5079
蘓軾	-11.508
無半點	-11.508
㐮	-11.5081
許棐	-11.5082
盪	-11.5082
菲	-11.5082
鎔	-11.5083
荀	-11.5083
苫	-11.5084
緜緜	-11.5085
丙午	-11.5085
此調秪有此詞	-11.5085
黄公度	-11.5085
澡	-11.5086
堯舜	-11.5086
捜	-11.5087
湛湛	-11.5087
鞏	-11.5087
憾	-11.5087
慇勤	-11.5087
辛幼安	-11.5088
献	-11.5088
漏滴	-11.5088
河滿子	-11.5088
罍	-11.5089
哲	-11.5089
挐	-11.5089
銀蒜	-11.5089
一鈎新月	-11.509
樽爼	-11.5091
沖	-11.5091
壤	-11.5091
竹籬茅舍	-11.5091
轆轤金井	-11.5091
霜葉飛	-11.5091
斥	-11.5091
蝦鬚	-11.5092
趄	-11.5092
雙調五十六字前後	-11.5092
竹西歌吹	-11.5092
掘	-11.5092
昵	-11.5093
傀儡	-11.5093
紫騮	-11.5093
勛	-11.5093
雏	-11.5093
蒋	-11.5093
鳯輦	-11.5094
銅雀	-11.5094
傾杯樂	-11.5094
惮	-11.5094
婆羅門引	-11.5094
怎奈向	-11.5095
用先天韻	-11.5095
迫	-11.5095
籤	-11.5095
䯳	-11.5095
湔	-11.5095
羅韈	-11.5096
鍼線	-11.5096
翠葆	-11.5096
欽定四庫全書詞綜巻	-11.5096
嬉逰	-11.5097
儔侣	-11.5097
山花子	-11.5097
朙	-11.5098
十頃	-11.5098
塟	-11.5098
禧	-11.5099
潘安	-11.5099
功業	-11.5099
碧雞漫志	-11.51
渌	-11.51
緖	-11.5101
寥落	-11.5102
明璫	-11.5103
曙色	-11.5105
湘浦	-11.5105
陪奉	-11.5106
蒲團	-11.5106
六仄韻後段九句	-11.5106
嗟呀	-11.5106
蠻牋	-11.5106
瓊簫	-11.5109
淨洗	-11.5109
□□□	-11.511
都只為	-11.5115
到天明	-11.5116
子猷	-11.5116
清芬	-11.5116
宗吉	-11.5117
漁笛	-11.5119
摧殘	-11.5121
漫贏得	-11.5121
蕩蕩	-11.5122
賢良	-11.5122
斜挿	-11.5122
字平聲結句	-11.5123
孤邨	-11.5129
不能勾	-11.5131
杏花村	-11.5131
鬢毛	-11.5134
渡江雲	-11.5136
短髪	-11.5137
元戎	-11.5137
金丸	-11.5137
東隣	-11.5138
訂正	-11.5138
夷堅	-11.5139
前調李珣	-11.5141
釣臺	-11.5141
箇儂	-11.5142
飛螢	-11.5145
二字俱仄聲	-11.5147
浦口	-11.5149
古寺	-11.515
醉桃源	-11.5151
註可平	-11.5152
㝷常	-11.5155
無頼	-11.5156
舉杯	-11.5156
拘管	-11.5161
渾身	-11.5164
西楼	-11.5168
夕照	-11.5169
㡬點	-11.517
六字折腰	-11.5171
憶去年	-11.5172
第二首	-11.5175
江干	-11.5181
青旗	-11.5184
此詞前段起句	-11.5195
意難忘	-11.521
人易老	-11.5211
再相逢	-11.5214
八十四字	-11.5221
章臺栁	-11.5225
樹隂	-11.5231
絳紗	-11.5257
沙際	-11.526
賣酒	-11.5264
快活三	-11.5273
仄仄平	-11.5284
詞前段第四句	-11.5291
梳妝	-11.53
尺工	-11.531
詞前段第二句	-11.533
維摩	-11.535
聞笛	-11.5372
詞曲類	-11.5393
譜註	-11.5408
画屏	-11.5412
仄韻後段九句	-11.5415
杉	-11.5415
害相思	-11.5415
矛	-11.5417
崩	-11.5419
蠢	-11.542
洪武	-11.542
贍	-11.5422
倖	-11.5422
扁	-11.5424
蔗	-11.5424
鉗	-11.5424
邵亨貞	-11.5424
䌓	-11.5425
彬	-11.5425
溟	-11.5425
鋏	-11.5425
捫	-11.5426
斈	-11.5426
醽醁	-11.5427
王世貞	-11.5427
餳	-11.5427
燕侣鶯儔	-11.5428
培	-11.5428
解三酲	-11.5429
齅	-11.5429
縐	-11.543
赭	-11.5431
奮	-11.5432
祚	-11.5432
参	-11.5433
劉圻父	-11.5433
涪	-11.5434
傚	-11.5434
蟬噪	-11.5434
顋	-11.5434
盤桓	-11.5434
太宗	-11.5434
衮衮	-11.5435
儧	-11.5435
石州慢	-11.5435
少押一韻	-11.5436
冀	-11.5436
擂	-11.5436
彚	-11.5436
荀令	-11.5436
笄	-11.5437
姨夫	-11.5437
囱囱	-11.5437
絲綸	-11.5438
榆莢	-11.5438
輞川	-11.5438
作四字兩句	-11.5438
撋	-11.5438
揮麈	-11.5438
灝	-11.5438
殿前歡	-11.5438
逰四門	-11.5439
喪	-11.5439
戀繡衾	-11.5439
詐	-11.5439
壞	-11.544
水光山色	-11.544
銅壷	-11.544
溽	-11.544
吃	-11.544
鈍	-11.544
睨	-11.544
夜行舡	-11.544
纂	-11.5441
朩犀	-11.5441
窅	-11.5441
榮貴	-11.5441
箬笠	-11.5441
辛稼軒	-11.5442
李太白	-11.5442
太尉	-11.5442
蛟龍	-11.5443
鴛甃	-11.5443
傷嗟	-11.5443
犀梳	-11.5443
太后	-11.5443
嗟吁	-11.5444
何遜	-11.5444
驪珠	-11.5445
埀楊	-11.5445
小石調	-11.5445
雙調五十五字前	-11.5446
茶飯	-11.5446
物是人非	-11.5448
悲壯	-11.5448
腸欲斷	-11.5453
一翦梅	-11.5453
紅蕖	-11.5454
儀容	-11.5456
湘妃	-11.5458
假饒	-11.5459
浴罷	-11.5461
四仄韻後段十一句	-11.5463
雨初收	-11.5463
毛氏	-11.5463
象管	-11.5464
思慮	-11.5467
敗荷	-11.5468
緑醑	-11.547
鳴禽	-11.5471
成蹊	-11.5472
田田	-11.5475
尋覓	-11.5476
㸔承	-11.5477
交加	-11.5477
金盞子	-11.5478
另收	-11.5479
朶朶	-11.5481
十四首	-11.5484
夷猶	-11.5489
我是箇	-11.5493
感懐	-11.5493
前調向子諲	-11.5494
寳帳	-11.5498
泪珠	-11.55
前調張孝祥	-11.5501
賓客	-11.5503
幾縷	-11.5503
凱歌	-11.5508
雨霏霏	-11.5527
纎指	-11.5527
石刻	-11.5538
晴暉	-11.554
其詞曰	-11.5541
停杯	-11.5541
騎驢	-11.5564
六十一字	-11.5565
倚危欄	-11.5606
板橋	-11.5611
瑣牎	-11.5611
亭榭	-11.5614
撲簌簌	-11.5636
後段第四五句	-11.564
河朔	-11.5649
水連天	-11.5657
太虚	-11.5678
戍樓	-11.5681
滄江	-11.5691
桃葉渡	-11.5706
恨綿綿	-11.5731
朩蘭	-11.5744
聲譜内可平可仄據此餘㕘	-11.5744
祥瑞	-11.576
晏㡬道	-11.5771
䆫	-11.5772
概	-11.5778
𨽻	-11.5779
酪	-11.578
寞	-11.5783
掙	-11.5783
廖	-11.5783
晧	-11.5783
蛮	-11.5784
薜	-11.5784
誌	-11.5784
隠居	-11.5785
嫣	-11.5785
尉遲杯	-11.5785
眼睜睜	-11.5786
縮	-11.5786
裵	-11.5786
幛	-11.5786
呀呀呀	-11.5787
肘	-11.5787
崦	-11.5787
竺	-11.5787
青哥兒	-11.5788
贅	-11.5788
厦	-11.5788
槁	-11.5789
郁	-11.5789
碗	-11.5789
堅牢	-11.5789
罄	-11.5789
芷	-11.5789
悽悽	-11.5789
燦爛	-11.579
猫	-11.579
飄颻	-11.579
撞着	-11.579
韋荘	-11.579
錚	-11.579
餚	-11.5791
樽罍	-11.5791
踢	-11.5791
寉	-11.5791
嬪	-11.5792
張志和	-11.5792
棧	-11.5792
傾國傾城	-11.5792
鳶	-11.5793
吻	-11.5793
臈	-11.5794
蘼	-11.5794
無覔處	-11.5794
天来大	-11.5794
靚粧	-11.5794
到大来	-11.5794
尔	-11.5794
耘	-11.5795
猗	-11.5795
鞾	-11.5795
暗香疎影	-11.5795
無可考	-11.5795
刁	-11.5795
牙籖	-11.5795
摩訶池	-11.5795
冗	-11.5796
暮雲凝碧	-11.5796
䗶	-11.5796
丫鬟	-11.5796
擦	-11.5796
孩兒	-11.5797
一句七字一句	-11.5797
忤	-11.5798
王之道	-11.5798
颸	-11.5798
茅舎	-11.5798
衘	-11.5799
眇	-11.5799
森森	-11.5799
槍	-11.5799
張敞	-11.58
艾虎	-11.58
靈芝	-11.58
桑麻	-11.58
雙調一百二字前段十一句	-11.5801
􁋍	-11.5801
也不索	-11.5801
漁蓑	-11.5801
㶚橋	-11.5801
象床	-11.5802
新篘	-11.5802
當壚	-11.5802
水雲鄉	-11.5804
前後相同	-11.5804
甲辰	-11.5804
朱顏	-11.5804
雙調五十二字前段	-11.5805
六十四字	-11.5806
陟	-11.5806
釣叟	-11.5806
佩環	-11.5806
采菱拾翠	-11.5807
茫然	-11.5808
少不的	-11.5809
他那裡	-11.581
協律	-11.5811
胸次	-11.5811
嬌娃	-11.5812
探春令	-11.5812
莊周	-11.5813
换頭	-11.5815
泛蘭舟	-11.5815
粉墙	-11.5816
繁絃	-11.5816
牽牛	-11.5817
蘭芽	-11.5817
籬邊	-11.5818
粧奩	-11.5819
互異	-11.582
黄昏院落	-11.582
寳鴨	-11.582
禎祥	-11.5822
銀甲	-11.5823
瑶席	-11.5823
狀元	-11.5823
靈鵲	-11.5823
繡簾垂	-11.5825
好姻縁	-11.5826
新醅	-11.5826
陛下	-11.5828
蠟燭	-11.583
刪去	-11.5831
縣令	-11.5834
三十五字	-11.5834
三十八字	-11.5836
大謬	-11.5838
句讀與	-11.5839
屋角	-11.5844
忽忽	-11.5846
艶質	-11.5852
七言詩	-11.5854
誰為主	-11.5857
恰恰	-11.5857
半幅	-11.5859
字平聲張詞	-11.5862
節序	-11.5863
□□□□□□□□□□	-11.5865
萬井	-11.5866
幾片	-11.5867
殘臘	-11.5868
淡掃	-11.5874
喬才	-11.589
皆七字	-11.5896
英豪	-11.5897
聳翠	-11.5908
牕紗	-11.5914
宣宗	-11.5919
細酌	-11.5924
兩結俱	-11.5939
第九	-11.5941
添一字異	-11.5977
百篇	-11.599
酒壚	-11.5998
音稀	-11.6012
旁註	-11.6041
巖桂	-11.6048
竈	-11.6054
洲渚	-11.6105
雙調五十四字	-11.6124
肝腸	-11.6128
䔥	-11.614
憩	-11.6144
誣	-11.6145
偽	-11.6146
粥	-11.6148
段各十一句	-11.6149
紬	-11.6149
夥	-11.615
搏	-11.615
苧蘿	-11.615
甍	-11.6151
訖	-11.6151
裠	-11.6151
苧	-11.6151
肇	-11.6151
輅	-11.6152
腋	-11.6152
王庭筠	-11.6153
搧	-11.6153
郤	-11.6153
醋	-11.6153
僮	-11.6153
是是是	-11.6153
攸	-11.6154
狻猊	-11.6154
攤	-11.6154
煨	-11.6155
峡	-11.6155
磵	-11.6155
北邙	-11.6156
噀	-11.6156
戛	-11.6156
割捨	-11.6156
敘	-11.6157
離亭宴煞	-11.6157
瞿塘	-11.6157
篠	-11.6157
旺	-11.6158
觥籌	-11.6158
吝	-11.6158
珪	-11.6158
瘞	-11.6159
苕溪漁隠	-11.6159
戱	-11.6159
霓旌	-11.6159
芊	-11.6159
艋	-11.6159
海角天涯	-11.6159
詎	-11.6159
張仲宗	-11.616
迎春樂	-11.616
辞	-11.616
齁	-11.616
凨入松	-11.616
趙徳麟	-11.616
琶	-11.616
悰	-11.6161
値	-11.6161
習習	-11.6161
核	-11.6161
樾	-11.6161
彛	-11.6162
叵	-11.6162
圈	-11.6162
負心的	-11.6162
匏	-11.6162
揺曵	-11.6163
江城梅花引	-11.6163
元来是	-11.6164
忡忡	-11.6164
西平樂	-11.6165
槊	-11.6165
渺茫	-11.6165
托頼着	-11.6165
魚遊春水	-11.6166
張安國	-11.6166
縈絆	-11.6166
圜	-11.6166
謗	-11.6166
蕾	-11.6166
匠	-11.6166
大晟府	-11.6167
獵獵	-11.6167
朱彛尊	-11.6167
角黍	-11.6168
簽	-11.6168
急管繁絃	-11.6168
修篁	-11.6168
棃園	-11.6168
靚妝	-11.6169
滴溜溜	-11.617
破陣子	-11.617
溟濛	-11.6171
俛仰	-11.6171
一封書	-11.6171
叨	-11.6171
鬱鬱	-11.6171
蘇武慢	-11.6171
菡蓞	-11.6171
繹	-11.6171
賢愚	-11.6172
裯	-11.6172
虎豹	-11.6172
以備一體	-11.6172
字仄聲譜内可平可仄據此	-11.6173
此與栁詞同惟	-11.6174
䆒	-11.6174
後段七句三仄韻	-11.6174
四平韻後段九句	-11.6174
皁	-11.6175
搖曳	-11.6175
龎児	-11.6176
握手	-11.6177
沂	-11.6177
弊	-11.6177
餘酲	-11.6178
重瞳	-11.6178
劇飲	-11.6179
綸竿	-11.6179
唾壺	-11.6179
翫賞	-11.618
大酺	-11.6181
畫㦸	-11.6181
夜合花	-11.6181
歐陽公	-11.6183
乘鸞	-11.6183
我為他	-11.6183
容儀	-11.6184
第十一句	-11.6185
漁歌子	-11.6186
筆墨	-11.6186
荔子	-11.6186
此詞換頭	-11.6187
太乙	-11.6188
聖徳	-11.6189
鐡馬	-11.619
畫簾垂	-11.6191
則俺這	-11.6192
宴桃源	-11.6192
鳳幃	-11.6192
天塹	-11.6193
問甚麽	-11.6194
逰戯	-11.6196
瞥見	-11.6198
叅透	-11.6199
𤣥真	-11.6199
夢驚回	-11.62
恨不的	-11.6201
教授	-11.6201
三十七字	-11.6201
五言詩	-11.6202
好女兒	-11.6203
孤標	-11.6205
桞絮	-11.6205
汗漫	-11.6205
溫柔	-11.6209
雙調五十四字前後	-11.6211
無信息	-11.6215
敧枕	-11.6216
花自落	-11.6218
韓夀	-11.6219
繫船	-11.6226
賞翫	-11.6231
雙鯉	-11.6239
員外郎	-11.6254
六十八字	-11.6265
六十五字	-11.6296
七十三字	-11.6302
押平韻	-11.6314
能有幾	-11.6326
□□□□	-11.6349
修撰	-11.636
體製	-11.6364
一百七字	-11.6374
靄靄	-11.6398
獸爐	-11.6418
這厮	-11.6423
都是些	-11.6426
凰	-11.6499
九十二字	-11.65
陛	-11.6511
陳三聘	-11.6515
瑜	-11.6525
陳振孫書録解題	-11.6528
緝	-11.6529
猱	-11.6531
儻	-11.6532
紳	-11.6533
仝	-11.6533
迢	-11.6535
璫璫	-11.6536
構	-11.6536
荳	-11.6536
娑	-11.6536
畿	-11.6536
測	-11.6537
一刻千金	-11.6537
豫	-11.6537
顱	-11.6537
鐺	-11.6537
淳祐	-11.6538
溺	-11.6538
疵	-11.6538
菡萏	-11.6538
炕	-11.6539
鏗	-11.654
鐃	-11.654
紇	-11.654
姚雲文	-11.654
庻	-11.6541
㘽	-11.6542
崕	-11.6542
朱熹	-11.6542
繍	-11.6542
稹	-11.6542
菩	-11.6542
㨗	-11.6543
騃	-11.6544
氣昻昻	-11.6544
惜香樂府	-11.6544
丙辰	-11.6544
札	-11.6544
或加慢字	-11.6544
渥	-11.6545
暌	-11.6545
蹴踘	-11.6545
甆	-11.6545
向伯恭	-11.6545
疋	-11.6545
恍惚	-11.6546
椎	-11.6546
規模	-11.6546
突兀	-11.6546
巍	-11.6546
鬰	-11.6546
馮取洽	-11.6546
浩渺	-11.6547
舄	-11.6547
紐	-11.6547
冽	-11.6547
燠	-11.6547
汲古閣本	-11.6547
藏短韻	-11.6548
鞓紅	-11.6549
雙調九十九字前	-11.6549
步步嬌	-11.6549
待月西廂	-11.6549
翮	-11.655
晝錦堂	-11.655
遅遅	-11.655
驊騮	-11.655
琪樹	-11.655
灞陵	-11.655
瑛	-11.655
烱	-11.655
筑	-11.655
帶圍寛	-11.655
袞	-11.6551
梅子黄時雨	-11.6551
詞同惟前段起句	-11.6551
蓀	-11.6551
褉	-11.6552
薬	-11.6552
襍	-11.6552
愿	-11.6552
顆顆	-11.6552
陋巷	-11.6552
探芳信	-11.6553
欄檻	-11.6553
心間事	-11.6553
尤雲殢雨	-11.6553
拜星月慢	-11.6553
第進士	-11.6553
雕輪	-11.6553
嫵媚	-11.6554
詞滙	-11.6554
荆棘	-11.6554
星毬	-11.6555
屐齒	-11.6555
升菴	-11.6555
羅敷	-11.6555
胖	-11.6555
汪汪	-11.6556
麝煤	-11.6556
㨿	-11.6556
􁦷	-11.6556
燕春臺	-11.6556
李俊民	-11.6557
准備着	-11.6557
晁无咎	-11.6558
醉扶歸	-11.6558
只落的	-11.6559
戚氏	-11.6559
與諸家不同	-11.656
奈情何	-11.656
小樓連苑	-11.656
趙善扛	-11.656
露冷風清	-11.656
可怜	-11.6562
鳴榔	-11.6562
中吕宫	-11.6563
牙牀	-11.6563
洞庭春色	-11.6566
履齋	-11.6568
高麗史樂志	-11.6568
虎丘	-11.6569
倡和	-11.6569
丁丁	-11.657
十餘年	-11.657
危楼	-11.6571
春草碧	-11.6571
聖求	-11.6572
競渡	-11.6572
好時光	-11.6573
薰籠	-11.6575
字俱仄	-11.6576
銀床	-11.6576
你與我	-11.6578
山横翠	-11.658
相思債	-11.6583
愛的是	-11.6584
寸寸	-11.6585
慘淡	-11.6585
憔悴損	-11.6588
最髙樓	-11.659
厮守	-11.6594
以下與後	-11.6595
踏碎	-11.6597
此調始自	-11.6606
後段第二	-11.6612
紋簟	-11.6629
此詞前段第二句	-11.663
能消幾	-11.6636
一葉舟	-11.6661
訛錯	-11.6714
逰蜂	-11.6765
盻殺	-11.6781
廓	-11.6793
十五年	-11.6793
譙樓	-11.683
詰	-11.6832
簾箔	-11.685
霄漢	-11.6865
懊	-11.6914
壠	-11.6927
咬	-11.6929
䖍婆	-11.6929
鸚	-11.693
准備	-11.6933
九張機	-11.6933
惻	-11.6935
頤	-11.6935
瀝	-11.6935
皐	-11.6935
徨	-11.6935
釐	-11.6935
趙君舉	-11.6935
嫉	-11.6936
錦纒道	-11.6936
禀	-11.6937
啾啾	-11.6937
喊	-11.6938
鍬	-11.6938
搂	-11.6939
杖藜	-11.6939
遯	-11.6939
春從天上來	-11.6941
赫	-11.6941
邃	-11.6941
漁艇	-11.6941
方千里楊澤民陳允平	-11.6941
雙調一百字前段十句	-11.6942
須㬰	-11.6943
將愁去	-11.6943
雙調六十字前後	-11.6943
牧羊関	-11.6943
堵	-11.6944
陳秋碧	-11.6944
闔	-11.6944
闢	-11.6944
此調秪有	-11.6945
贖	-11.6945
秣陵	-11.6945
玦	-11.6945
肱	-11.6945
葉少藴	-11.6945
肺	-11.6945
虞羙人	-11.6946
梵	-11.6946
上六下四	-11.6946
鈆	-11.6947
可平可仄據此	-11.6947
艣	-11.6947
蓄	-11.6947
孫道絢	-11.6947
䕷	-11.6948
池塘春草	-11.6948
擒	-11.6948
幺	-11.6948
茂苑	-11.6948
櫻唇	-11.6948
龕	-11.6948
婉娩	-11.6949
方千里楊澤民	-11.6949
穰	-11.6949
宋祁	-11.6949
岳陽樓	-11.6949
睡不着	-11.6949
曉風殘月	-11.695
耨	-11.695
詞俱如此填	-11.6951
琖	-11.6951
咱兩箇	-11.6951
臺城路	-11.6951
􁑶	-11.6952
髙山流水	-11.6952
盎	-11.6952
簞瓢	-11.6952
旭	-11.6953
莓苔	-11.6953
鸚哥	-11.6953
䂓	-11.6953
羊裘	-11.6953
懿	-11.6954
湓	-11.6954
瓊樓玉宇	-11.6954
修禊	-11.6954
良辰美景	-11.6954
環佩	-11.6954
張𢎞範	-11.6954
無是無非	-11.6955
􁊨	-11.6955
旡	-11.6955
雙調一百一字前	-11.6955
一叢花	-11.6956
状元	-11.6956
爍	-11.6956
太真妃	-11.6957
雙調四十八字前後	-11.6957
上五下四	-11.6957
湏臾	-11.6957
幼安	-11.6958
撿	-11.6958
淅零零	-11.6958
枕函	-11.6958
筆硯	-11.6959
仄韻後段五句三仄韻	-11.6959
銷䰟	-11.6959
怒濤	-11.696
上三下六	-11.696
遥岑	-11.696
蘭芷	-11.6961
小橋流水	-11.6961
抵死	-11.6962
後段四句兩平韻	-11.6963
朩蘭舟	-11.6963
晏詞别首	-11.6963
花落花開	-11.6965
雙調五十二字前後	-11.6965
怕甚麽	-11.6965
針指	-11.6965
那些兒	-11.6966
縦横	-11.6969
繡轂	-11.697
憑䦨	-11.6972
艶冶	-11.6973
烏巾	-11.6978
進士累官	-11.698
三段一百	-11.6982
瑣窓	-11.699
顧菴	-11.6992
立多時	-11.7
坊本	-11.7004
人正在	-11.7012
鼎沸	-11.7025
蝶翅	-11.7038
十丈	-11.7063
武帝	-11.7089
綺筵	-11.7102
籠罩	-11.7118
母親	-11.7125
屏障	-11.7141
/)􁁊(	-11.7193
孝宗	-11.726
八十六字	-11.7325
廬陵	-11.733
馮鼎位	-11.7333
呆荅孩	-11.734
沱	-11.7343
蝨	-11.7346
邴	-11.7347
逾	-11.7348
雙調一百二字前	-11.7348
伽	-11.7349
山坡羊	-11.7349
尸	-11.735
琮	-11.735
韻後段四句	-11.7351
旂	-11.7352
塑	-11.7353
糞	-11.7353
駞	-11.7354
天寒日暮	-11.7355
絡絲娘	-11.7355
徉	-11.7356
嵇	-11.7356
王易簡	-11.7356
噐	-11.7357
撓	-11.7357
明晃晃	-11.7357
鉅	-11.7357
糚	-11.7357
嗜	-11.7358
好天良夜	-11.7358
揎	-11.7359
毛熈震	-11.7359
鳷	-11.7359
閒中好	-11.7359
雪獅兒	-11.7359
浩浩	-11.736
緇	-11.736
舷	-11.736
蔭	-11.736
颩	-11.736
繒	-11.7361
圵	-11.7361
劉光祖	-11.7361
唼	-11.7362
厓	-11.7362
趙秉文	-11.7362
屍	-11.7363
撈	-11.7363
搵	-11.7363
弓鞋	-11.7363
妺	-11.7364
訕	-11.7364
禮部尚書	-11.7364
困人天氣	-11.7364
炯	-11.7364
賞心樂事	-11.7364
拊	-11.7364
党	-11.7364
滲	-11.7365
啖	-11.7365
蛛網	-11.7365
荳蔻	-11.7365
花開花謝	-11.7365
缶	-11.7365
們	-11.7365
觚稜	-11.7365
清歌妙舞	-11.7365
飲香醪	-11.7366
抖	-11.7366
馬嵬坡	-11.7366
步蟾宫	-11.7366
荷葉杯	-11.7366
峥嶸	-11.7366
蘅	-11.7366
朩蘭花慢	-11.7367
僧仲殊	-11.7367
石帚	-11.7367
藴藉	-11.7367
虎狼	-11.7367
填此調者	-11.7367
雙調五十八字前後	-11.7368
仿	-11.7368
參知政事	-11.7368
安樂窩	-11.7369
宼	-11.7369
擣	-11.7369
厺	-11.7369
蕐	-11.7369
籃輿	-11.7369
帽簷	-11.7369
虯	-11.737
羃羃	-11.737
征途	-11.737
姝麗	-11.737
讎	-11.737
王庭珪	-11.737
絲簧	-11.7371
侯鯖	-11.7371
蒿	-11.7371
篛	-11.7371
欽定四庫全書花草稡編巻	-11.7371
宕	-11.7372
茅店	-11.7372
憇	-11.7372
上四下六	-11.7372
麗譙	-11.7373
陜	-11.7373
掛玉鈎	-11.7373
漂零	-11.7373
瓊瑰	-11.7373
蒻	-11.7374
水逺山長	-11.7374
循環	-11.7374
羹	-11.7374
惜奴嬌	-11.7375
惜紅衣	-11.7375
􁍇	-11.7376
小秦王	-11.7376
奢華	-11.7376
瀲灧	-11.7376
寶瑟	-11.7377
再休題	-11.7377
鍊	-11.7377
則為他	-11.7377
秦檜	-11.7377
間入仄韻	-11.7377
父母	-11.7378
螺髻	-11.7379
綉榻	-11.738
歸田樂	-11.738
蠟炬	-11.738
忒煞	-11.7381
壬子	-11.7382
引駕行	-11.7383
徒勞	-11.7383
燒銀燭	-11.7383
銜泥	-11.7384
到晚来	-11.7385
支持	-11.7385
腹内	-11.7388
輝輝	-11.7389
何滿子	-11.7389
呼童	-11.739
簾髙捲	-11.7398
紛紜	-11.7404
羅帊	-11.741
餘㕘下	-11.7418
並肩	-11.7434
萋萋芳草	-11.7451
魚躍	-11.7453
一百十一字	-11.748
必係	-11.7505
懨懨病	-11.7508
鴈南飛	-11.7531
九十一字	-11.7551
紗窻	-11.7613
裙拖	-11.7619
韁	-11.7634
驢背	-11.7645
雙調九十四字前	-11.7647
一百十四字	-11.7653
珊	-11.767
後段第三四句	-11.7718
六十三字	-11.7725
仄仄平平仄	-11.7741
晌	-11.7747
炫	-11.7781
沫	-11.7782
公瑾	-11.7782
馮艾子	-11.7783
傘	-11.7784
鄴	-11.7785
椅	-11.7786
被花惱	-11.7786
蕨	-11.7786
炒	-11.7787
錬	-11.7787
僉	-11.7787
萌	-11.7788
踈刺刺	-11.7788
咿	-11.7789
匙	-11.7789
韉	-11.779
摻	-11.7791
仞	-11.7791
玉交枝	-11.7791
海誓山盟	-11.7791
剝	-11.7791
蹔	-11.7792
攝	-11.7792
徵招	-11.7792
孫惟信	-11.7792
陸費墀	-11.7792
鸘	-11.7792
你㸔他	-11.7792
江山如畫	-11.7792
牡	-11.7793
嘉禾	-11.7793
劉後村	-11.7794
幰	-11.7794
楝	-11.7794
桶	-11.7794
逡	-11.7794
咨嗟	-11.7794
煦	-11.7794
什	-11.7794
筐	-11.7794
攧	-11.7795
燦燦	-11.7795
莓	-11.7795
􁢡	-11.7795
躋攀	-11.7795
軾	-11.7795
稜	-11.7795
不弱如	-11.7796
泣顔回	-11.7796
白石道人歌曲	-11.7796
氷肌玉骨	-11.7796
陳與義	-11.7796
㓗	-11.7797
劉叔安	-11.7797
咤	-11.7797
秩	-11.7797
犁	-11.7797
闥	-11.7798
曈	-11.7798
全押平韻	-11.7798
到秋来	-11.7798
颷	-11.7798
揆	-11.7799
睿	-11.7799
篔	-11.7799
空閑了	-11.7799
閫	-11.7799
霹靂	-11.7799
隐隐	-11.7799
舂	-11.7799
皁羅袍	-11.78
迪	-11.78
适	-11.78
毁	-11.78
薌	-11.78
慈悲	-11.78
韓元吉	-11.78
滂	-11.78
史樂志	-11.78
廣寒宮	-11.78
隔年期	-11.78
淅瀝	-11.7801
牟	-11.7801
晦庵	-11.7801
箸	-11.7801
頺	-11.7802
遁	-11.7802
倐	-11.7802
無他首可校	-11.7802
吟哦	-11.7803
潼	-11.7803
嗟咨	-11.7803
萬萬載	-11.7804
韞	-11.7804
長吁氣	-11.7804
樗	-11.7804
歸朝歡	-11.7804
舌尖	-11.7804
抑揚	-11.7805
弓弓	-11.7805
腆	-11.7805
鵬程	-11.7805
青蚨	-11.7806
乗槎	-11.7806
鉏	-11.7806
惻惻	-11.7806
丹竈	-11.7806
縠紋	-11.7806
鶯鶯燕燕	-11.7807
曷	-11.7807
顫巍巍	-11.7807
大聖樂	-11.7807
親戚	-11.7807
枉教人	-11.7807
樽俎	-11.7808
無氣力	-11.7808
卜筭子	-11.7809
牧羊	-11.7809
嘯餘譜	-11.7809
芝田	-11.781
花草稡編巻	-11.781
平韻後段五句兩平韻	-11.781
壽域	-11.7811
鳴鳩	-11.7811
軆態	-11.7812
瑶階	-11.7812
能改齋	-11.7813
藜杖	-11.7813
桃花流水鱖魚肥	-11.7813
雕闌	-11.7817
前段第一二句	-11.7818
擕手	-11.7819
快哉	-11.782
字平聲第六句	-11.7822
字平聲後段第一句	-11.7823
雙調八十三字前	-11.7823
雙調八十四字前	-11.7823
撲蝴蝶	-11.7823
能有㡬	-11.7824
一曲清歌	-11.7828
平康巷	-11.7872
五句三平韻	-11.7878
昭宗	-11.7879
害殺	-11.7961
一百十三字	-11.7975
欽定四庫全書御定詞譜巻	-11.7996
凱	-11.8146
渝	-11.8214
肢	-11.8229
厄	-11.823
还	-11.8232
蕖	-11.8234
甄	-11.8234
晤	-11.8236
脊	-11.8238
夔	-11.8238
雙調九十七字前段十句	-11.8239
膁	-11.8239
渲	-11.824
蠡	-11.824
瀨	-11.824
荇	-11.8242
淆	-11.8242
勃	-11.8242
樺	-11.8243
辤	-11.8244
一百三十九字	-11.8245
礬	-11.8245
璈	-11.8245
金明池	-11.8245
窨	-11.8246
鴦	-11.8246
楮	-11.8246
皓腕	-11.8246
辝	-11.8247
再休将凨月擔兒	-11.8247
李彌遜	-11.8247
閧	-11.8248
喃喃	-11.8248
晁冲之	-11.8249
俸	-11.825
旱	-11.825
秫	-11.825
擲果	-11.825
赦	-11.825
枕痕一線	-11.825
坤	-11.825
詞人姓氏	-11.825
迅速	-11.825
滁	-11.825
數聲啼鳥	-11.825
匿	-11.8251
熒煌	-11.8251
小蠻腰	-11.8251
貰	-11.8251
麗春園	-11.8251
葱蒨	-11.8251
溯	-11.8252
瀲灩	-11.8252
琴趣外篇	-11.8252
呷	-11.8252
桑榆	-11.8252
㮣	-11.8253
能改齋漫録	-11.8253
滉	-11.8253
遟	-11.8253
磣可可	-11.8254
礪	-11.8254
杷	-11.8254
玉堂金馬	-11.8254
怎不教人	-11.8255
症	-11.8255
煬	-11.8256
燕語鶯啼	-11.8256
麤	-11.8256
紅日三竿	-11.8256
嘹唳	-11.8256
嗚呼	-11.8256
柔荑	-11.8256
痴呆	-11.8256
皪	-11.8257
清平楽	-11.8257
用蕭豪韻	-11.8257
琲	-11.8257
河瀆神	-11.8257
騅	-11.8257
慶宣和	-11.8257
一筆勾	-11.8258
鶼鶼	-11.8258
俺也曽	-11.8259
求凰	-11.8259
蜃	-11.8259
蝶使蜂媒	-11.8259
雙調一百八字前段十	-11.8259
􁬙	-11.8259
夜飛鵲	-11.826
壼	-11.826
有異同	-11.8261
茨	-11.8261
鳴鶴餘音	-11.8261
黄子行	-11.8261
巨源	-11.8261
悽惋	-11.8262
少離多	-11.8262
中書舎人	-11.8262
賀方囘	-11.8263
南北東西	-11.8263
鶴氅	-11.8263
岷峨	-11.8263
謟	-11.8263
青杏子	-11.8264
堯章	-11.8264
駸駸	-11.8264
紹聖	-11.8265
松栢	-11.8266
韓淲詞有	-11.8267
蔥蔥	-11.8268
人都道	-11.8269
吳禮之	-11.827
布𫀆	-11.8271
氷澌	-11.8272
寰宇	-11.8272
註可仄	-11.8274
雙調九十九字前段十句	-11.8281
八十八字	-11.8295
第九十句	-11.8313
黄鍾商	-11.8346
誓盟	-11.836
四句三平韻	-11.8463
千里和詞	-11.8494
鵲噪	-11.8516
御選歴代詩餘巻六十	-11.8542
韻後段十一句六平韻	-11.8604
綜	-11.8695
單調二十七字	-11.8703
泝	-11.8704
舵	-11.8704
沈宜修	-11.8705
帝臺春	-11.8707
陞	-11.8711
燎	-11.8711
懨	-11.8712
藳	-11.8714
磁	-11.8714
爕	-11.8715
臚	-11.8715
頦	-11.8715
李漢老	-11.8716
􁎐	-11.8716
狄	-11.8716
莢	-11.8717
醮	-11.8717
陳繼儒	-11.8718
菽	-11.8718
弼	-11.8718
鍋	-11.8719
毹	-11.872
𦍑	-11.872
薑	-11.872
張綖	-11.872
鑼	-11.8721
阡	-11.8721
尓	-11.8721
狡	-11.8721
霞散綺	-11.8721
匆	-11.8722
旒	-11.8722
站	-11.8723
姚勉	-11.8723
駛	-11.8723
秋蕊香	-11.8723
唧	-11.8724
神仗兒	-11.8724
糊突	-11.8724
短嘆長吁	-11.8724
淼淼	-11.8724
雙調七十五字前段	-11.8724
喂	-11.8725
喑	-11.8725
蹺	-11.8725
到冬来	-11.8725
湍	-11.8725
平可仄即叅	-11.8725
七娘子	-11.8726
馴	-11.8726
鶴唳	-11.8726
無消耗	-11.8726
𥚑	-11.8727
㪯	-11.8727
茶瓶兒	-11.8727
夏初臨	-11.8728
凛冽	-11.8728
盼盼	-11.8728
丁丑	-11.8728
桒麻	-11.8728
鄱陽	-11.8728
鄒枚	-11.8728
孏	-11.8729
模樣	-11.8729
潘閬	-11.8729
瀲	-11.8729
三姝媚	-11.873
瞬息	-11.8731
狨	-11.8731
惨	-11.8731
金菊對芙蓉	-11.8731
到夏来	-11.8731
衿	-11.8731
臼	-11.8731
笥	-11.8731
析	-11.8731
罳	-11.8731
玷	-11.8731
優劣	-11.8732
𥜗	-11.8732
吾儕	-11.8732
咒	-11.8732
塞垣春	-11.8732
晒	-11.8733
輾轉	-11.8733
蠒	-11.8733
淮甸	-11.8733
巫娥	-11.8733
厯厯	-11.8734
喧闐	-11.8734
幇	-11.8734
姢姢	-11.8734
彀	-11.8734
軍節度使	-11.8735
秧	-11.8735
桂殿秋	-11.8735
聫	-11.8735
変	-11.8735
雕弓	-11.8735
此調有兩體	-11.8735
樞宻	-11.8736
彝	-11.8736
一萼紅	-11.8737
送君南浦	-11.8737
醄醄	-11.8737
御選歴代詩餘巻五十	-11.8738
升庵	-11.8738
茍	-11.8739
聖無憂	-11.8739
後段五句三平韻	-11.874
集附詞	-11.874
則要你	-11.8741
大同小異	-11.8741
馿	-11.8741
夗央	-11.8741
椰	-11.8741
你㸔那	-11.8741
玉燭新	-11.8742
次膺	-11.8742
建炎	-11.8743
嘉靖	-11.8744
雍熈樂府卷之	-11.8744
六仄韻後段十句	-11.8745
縝	-11.8745
襴	-11.8746
逥	-11.8747
雙調一百一字前段九句	-11.8748
夜何其	-11.8748
鵾絃	-11.8749
後段七句四仄韻	-11.8751
熏鑪	-11.8755
卵	-11.8756
髙麗史樂志	-11.8758
夜如年	-11.8766
絳紗籠	-11.8991
□□□□□□□□	-11.9078
前段第三四句	-11.9084
馥馥	-11.9124
御選歴代詩餘巻九十	-11.9163
御選歴代詩餘巻七	-11.9174
凮	-11.9201
後段第二三句	-11.9203
碣	-11.9209
琱	-11.921
偢	-11.921
爺	-11.921
姥	-11.921
是一箇凨流	-11.9211
安陽好	-11.9211
圏	-11.9212
纛	-11.9213
捧玉鍾	-11.9213
佞	-11.9213
􁞤	-11.9214
篴	-11.9214
錢繼章	-11.9216
張可久	-11.9216
陷	-11.9217
似這等	-11.9217
鏖	-11.9218
靆	-11.9218
沆瀣	-11.9218
浯	-11.9218
凑	-11.9219
躊蹰	-11.9219
闉	-11.9219
婆羅門	-11.922
㫤	-11.922
鞘	-11.922
攄	-11.922
黎民	-11.922
曬	-11.922
雙調一百字前後	-11.922
你子待	-11.922
劉仲尹	-11.922
王錫爵	-11.922
羌	-11.9221
孕	-11.9221
舒信道	-11.9221
爻	-11.9221
箑	-11.9222
汨	-11.9222
漏洩	-11.9222
専	-11.9222
熒	-11.9222
粮	-11.9222
頷	-11.9222
璉	-11.9224
騫	-11.9224
慢慢的	-11.9224
嚇	-11.9224
湿	-11.9224
兔葵燕麥	-11.9225
庠	-11.9225
更和那	-11.9225
香噴噴	-11.9225
瓘	-11.9225
畜	-11.9226
汐	-11.9226
掐	-11.9226
䙝	-11.9226
饈	-11.9226
劉潜夫	-11.9226
砍	-11.9226
我與你	-11.9226
畣	-11.9226
沉酔東凨	-11.9227
响	-11.9227
租	-11.9227
鮫鮹	-11.9227
縑	-11.9227
龔	-11.9227
第四五六句	-11.9227
刃	-11.9227
唧唧	-11.9228
瓔	-11.9228
隕	-11.9228
宋子京	-11.9229
􁊢	-11.9229
花發沁園春	-11.9229
築室	-11.9229
慶春宫	-11.9229
鬼三台	-11.9229
蕙蘭芳引	-11.923
登進士第	-11.923
摠	-11.923
葓	-11.923
鰕	-11.9231
湯恢	-11.9231
琥珀猫兒墜	-11.9231
百媚千嬌	-11.9231
噤	-11.9231
䦰	-11.9231
柁	-11.9231
跎	-11.9231
䖝	-11.9232
沈天羽	-11.9232
邇	-11.9233
薩都拉	-11.9233
冶葉倡條	-11.9233
宻匝匝	-11.9234
乃變格也	-11.9234
自度腔	-11.9234
妆	-11.9234
王晉卿	-11.9234
平白地	-11.9235
件件	-11.9235
韓偓	-11.9235
唳	-11.9235
雙調九十三字前段	-11.9236
隂轉午	-11.9236
忪	-11.9236
䆳	-11.9237
傒	-11.9237
鬒	-11.9237
層巒	-11.9237
匡廬	-11.9237
於中好	-11.9238
䑃朧	-11.9239
霆	-11.9239
砥	-11.924
恃	-11.924
雨霖鈴	-11.924
茅廬	-11.9242
鱖	-11.9242
醖醸	-11.9243
垂絲釣	-11.9244
月如鈎	-11.9244
嗊	-11.9246
平仄全異	-11.9246
㱕塞北	-11.9247
脗	-11.9247
雙調七十六字前	-11.9248
下水船	-11.9249
憶帝京	-11.925
雙調七十七字前	-11.9254
冲霄	-11.9372
井桐	-11.9414
御選歴代詩餘巻四十	-11.9434
御選歴代詩餘巻八十	-11.9471
韻後段八句	-11.9596
三仄韻後段四句	-11.962
哽	-11.9732
哂	-11.9735
磻	-11.974
牘	-11.9741
灞	-11.9741
唫	-11.9741
皚	-11.9742
怎下的	-11.9742
禦	-11.9742
嘻	-11.9743
犬吠	-11.9743
豆蔻	-11.9744
鳳鸞交	-11.9744
瀟湘逢故人慢	-11.9744
鹿䖍扆	-11.9745
迄	-11.9745
瑰	-11.9745
韋應物	-11.9745
䔩	-11.9745
僵	-11.9745
杜韋娘	-11.9746
睜	-11.9746
蓬莱島	-11.9747
税	-11.9747
聦	-11.9747
曦	-11.9747
加一疊	-11.9747
猪	-11.9748
御選厯代詩餘巻	-11.9748
誼	-11.9748
渦	-11.9748
扈	-11.9748
泄漏	-11.9749
縉	-11.9749
媽	-11.9749
鬪	-11.9749
粳	-11.9749
雙調五十七字前	-11.9749
闇	-11.9749
璟	-11.975
褶	-11.975
鐫	-11.975
戮	-11.975
栽培	-11.975
昴	-11.975
三般兒	-11.9751
鼕	-11.9751
叧	-11.9751
觔	-11.9751
璣	-11.9751
芋	-11.9751
盧申之	-11.9751
磐	-11.9752
鈐	-11.9752
酴	-11.9752
杲	-11.9752
溥	-11.9752
薨	-11.9752
覲	-11.9752
髠	-11.9752
塞翁吟	-11.9753
萬水千山	-11.9753
我爲他	-11.9753
兜	-11.9753
沉李浮瓜	-11.9754
羯	-11.9754
窘	-11.9754
緲	-11.9754
蓓	-11.9754
轎	-11.9755
原来是	-11.9755
豆葉黄	-11.9755
眼見的	-11.9755
棣	-11.9755
赱	-11.9755
甎	-11.9755
節節髙	-11.9755
劉秉忠	-11.9756
壌	-11.9756
則為那	-11.9756
咄咄	-11.9757
尢	-11.9757
盧祖臯	-11.9757
侍香金童	-11.9758
揜	-11.9758
睃	-11.9758
萬壑千巖	-11.9758
愁春未醒	-11.9758
雙調九十一字前	-11.9758
碌碌	-11.9758
惜分釵	-11.9758
徐昌圖	-11.9758
甘草子	-11.9759
晁次膺	-11.9759
歐陽烱	-11.9759
􁂨	-11.9759
四平韻後段八句	-11.9759
㗸	-11.9759
元人小令	-11.976
蘅臯	-11.976
胡搗練	-11.976
欽定四庫全書詞律巻	-11.976
雲破月來花弄影	-11.976
誑	-11.976
李肩吾	-11.976
灩灩	-11.9761
雙調四十六字前後	-11.9761
字仄聲譜内可平可仄	-11.9761
温飛卿	-11.9761
帬	-11.9761
琦	-11.9762
魯逸仲	-11.9762
無别詞可校	-11.9762
􁁅	-11.9762
凜	-11.9762
纘	-11.9762
天機餘錦	-11.9762
給事中	-11.9763
鳯凰臺上憶吹簫	-11.9763
山明水秀	-11.9763
閶闔	-11.9763
蜜炬	-11.9763
􁵨	-11.9763
平仄互叶	-11.9763
地乆天長	-11.9763
迷神引	-11.9764
桃葉桃根	-11.9764
仄韻後段五句四仄韻	-11.9764
雙調六十八字前	-11.9764
因詞中有	-11.9764
煌	-11.9765
澑	-11.9765
石曼卿	-11.9765
碧梧金井	-11.9766
水殿風	-11.9766
雙調九十八字前段十句	-11.9766
㳙㳙	-11.9766
劎	-11.9766
劳	-11.9767
曩	-11.9768
雙調一百四字前段十句	-11.9768
洪咨夔	-11.9768
􁳊	-11.9768
芬馥	-11.9768
鸂	-11.9768
雙調四十八字前段	-11.977
天尺五	-11.9772
廕	-11.9773
後段七句五仄韻	-11.9773
雙調一百一字前段十句	-11.9774
万俟詞	-11.978
醉如泥	-11.9794
嘹	-11.984
欽定四庫全書御定詞譜巻三十	-11.9845
詞作譜	-11.9859
欽定四庫全書御定詞譜巻二十	-11.99
後段四句兩仄韻	-11.994
御選歴代詩餘巻三十	-12.0012
恙	-12.0263
崧	-12.0286
徂	-12.0287
侮	-12.0289
哏	-12.029
頳	-12.0291
砲	-12.0292
豸	-12.0293
單調二十八字	-12.0294
咨	-12.0294
無了無休	-12.0294
惆	-12.0295
骰	-12.0295
錠	-12.0295
寘	-12.0295
則願的	-12.0295
繆	-12.0296
聡	-12.0296
鸝	-12.0297
灵	-12.0298
儕	-12.0298
心猿意馬	-12.0298
悽惻	-12.0299
趋	-12.0299
躅	-12.0299
滴到明	-12.0299
闐	-12.03
筩	-12.03
鉞	-12.03
薊	-12.03
上行杯	-12.03
􁈍	-12.03
丕	-12.0301
評䟦	-12.0301
菁	-12.0301
哦	-12.0302
惇	-12.0302
內	-12.0302
榕	-12.0302
聶	-12.0302
訶	-12.0302
鍪	-12.0303
邢	-12.0303
摑	-12.0303
陳去非	-12.0304
炯炯	-12.0304
蒱	-12.0304
尭	-12.0304
捍	-12.0304
撤	-12.0305
啄木兒	-12.0305
草萋迷	-12.0305
榼	-12.0305
孽	-12.0305
癖	-12.0305
琪	-12.0305
隹	-12.0305
崗	-12.0306
淳熈	-12.0307
趺	-12.0307
凶	-12.0307
骸	-12.0307
蓂	-12.0307
荑	-12.0307
槌	-12.0307
毘	-12.0307
紅林檎近	-12.0307
雪初晴	-12.0308
怊	-12.0308
烛	-12.0309
躁	-12.0309
淙	-12.0309
嚴次山	-12.0309
鬲	-12.0309
郴	-12.0309
連雲棧	-12.0309
兩兩三三	-12.0309
蘧	-12.031
廸	-12.031
山盟海誓	-12.031
曜	-12.031
慶東原	-12.031
咭	-12.031
胆	-12.031
澘	-12.0311
穢	-12.0311
山色有無中	-12.0311
走将来	-12.0311
不另録	-12.0311
只喫的	-12.0311
娉娉	-12.0311
謌	-12.0311
張宗瑞	-12.0312
竽	-12.0312
巗	-12.0313
嘘	-12.0313
級	-12.0313
桃根桃葉	-12.0313
搥	-12.0313
則落的	-12.0313
叛	-12.0313
段成已	-12.0313
盹	-12.0313
雙調六十六字前後	-12.0313
萋	-12.0313
泄	-12.0314
髙聳聳	-12.0314
癸丑	-12.0314
炮	-12.0314
巉巉	-12.0314
弃	-12.0315
芍	-12.0315
石頭城	-12.0315
諠	-12.0315
旄	-12.0315
如魚似水	-12.0316
一觴一詠	-12.0316
監察御史	-12.0316
寬	-12.0316
蓛	-12.0316
姫	-12.0316
江州司馬	-12.0316
壬戌	-12.0317
翰林學士承㫖	-12.0317
潘元質	-12.0318
䪨	-12.0318
崙	-12.0318
鑾輿	-12.0319
䔩䔩	-12.0319
三部樂	-12.0319
曹元寵	-12.032
顔如玉	-12.032
斕斑	-12.032
駱	-12.032
劉辰翁	-12.032
穂	-12.0321
亝	-12.0321
蔲	-12.0321
藂	-12.0321
若耶溪	-12.0322
仄韻後段六句四仄韻	-12.0322
籐	-12.0322
陶元亮	-12.0323
方信道	-12.0323
騖	-12.0323
御選厯代詩餘巻一百	-12.0324
雙調七十二字前	-12.0325
雱	-12.0326
可平可仄悉叅	-12.0327
此與史詞同惟	-12.0333
􁁉	-12.0334
栂	-12.0335
雙調一百五字前	-12.0395
抃	-12.0401
欽定四庫全書御定詞譜巻十	-12.0417
摩詰	-12.0454
他每都	-12.0524
御選歴代詩餘巻二十	-12.0685
部員外郎	-12.0765
字前段十二句	-12.0822
伬	-12.084
爨	-12.0874
御選歴代詩餘巻十	-12.0876
蓺	-12.0876
猾	-12.0878
摘得新	-12.0879
吹皺一池春水	-12.088
樂府指迷	-12.0881
半星兒	-12.0881
弋	-12.0881
眠思夢想	-12.0882
爹	-12.0882
鐶	-12.0882
槖	-12.0883
葯	-12.0883
琰	-12.0884
冉	-12.0884
肴	-12.0885
蹉	-12.0886
稷	-12.0887
隼	-12.0888
似酔如痴	-12.0889
他子待	-12.0889
完顔璹	-12.0889
鑷	-12.089
瓈	-12.089
蔫	-12.089
荳蔲	-12.089
小樓吹徹玉笙寒	-12.089
下塲頭	-12.0891
呆骨朶	-12.0891
庒	-12.0891
浹	-12.0891
㓂	-12.0891
冗冗	-12.0892
瀼	-12.0892
篸	-12.0892
僝	-12.0892
准俻	-12.0892
躰	-12.0892
琴調相思引	-12.0892
程鉅夫	-12.0893
殃	-12.0893
絞	-12.0893
黠	-12.0893
粱	-12.0893
奥	-12.0893
㱔	-12.0894
䧺	-12.0894
盍	-12.0894
踼	-12.0894
七里灘	-12.0894
鯽	-12.0894
亳	-12.0895
吕居仁	-12.0895
帚	-12.0895
笑吟吟	-12.0895
􁅳	-12.0896
夗	-12.0896
儷	-12.0896
幟	-12.0896
撧	-12.0897
青梅如豆	-12.0897
詞苑叢談	-12.0897
翃	-12.0897
揶揄	-12.0897
村里迓古	-12.0897
嬋姢	-12.0898
忝	-12.0898
坵	-12.0898
瘁	-12.0898
詆	-12.0898
僥僥令	-12.0899
滄溟	-12.0899
蕭允之	-12.0899
昵昵	-12.0899
殻	-12.0899
亂花飛絮	-12.0899
糠	-12.0899
氐州第一	-12.09
纍	-12.09
陶宗儀	-12.0901
哢	-12.0901
望夫石	-12.0901
奶	-12.0901
我則道	-12.0901
淇	-12.0902
朝野新聲太平樂府卷之	-12.0902
鞠	-12.0902
夢玉人引	-12.0902
瑠璃	-12.0902
粤	-12.0902
中呂調	-12.0902
一斛珠	-12.0902
萃	-12.0902
􁢒	-12.0902
徐師川	-12.0903
肋	-12.0903
天津橋上	-12.0903
俫	-12.0903
馬頻嘶	-12.0903
浪萍風梗	-12.0904
曨	-12.0904
沙塞子	-12.0904
㩀	-12.0904
譬	-12.0904
覰	-12.0904
荃	-12.0904
五福降中天	-12.0905
軼	-12.0905
狠毒	-12.0905
端明殿學士	-12.0905
鵾鵬	-12.0905
柝	-12.0905
卓牌子	-12.0906
千山萬水	-12.0906
潞	-12.0906
撼庭竹	-12.0907
傳於世	-12.0907
無他作可校	-12.0907
本部三聲叶	-12.0908
􁁶	-12.0908
觱	-12.0908
湾	-12.0909
搃	-12.0909
憚	-12.0911
􁚐	-12.0912
傖	-12.0913
調名本此	-12.0913
押平聲韻	-12.0915
王奕清奉旨校刋	-12.0915
螳螂	-12.0916
牗	-12.0916
吠	-12.0917
万俟咏	-12.0917
㱕去来兮	-12.0917
緑暗紅稀	-12.0918
弯	-12.0919
蔣氏九宫譜	-12.0922
雙調九十二字前	-12.0922
謝家池	-12.0947
嘹嚦	-12.1419
鬻	-12.1489
瞬	-12.1493
楨	-12.1496
滹	-12.1497
桁	-12.1498
琊	-12.1499
無射宫	-12.1501
𧺫	-12.1503
𪷟	-12.1505
打疊起	-12.1505
慾	-12.1505
廢寢忘飡	-12.1505
􁮻	-12.1505
躋	-12.1506
耻	-12.1507
王伯良	-12.1507
昊	-12.1507
鏃	-12.1507
汁	-12.1508
岧	-12.1509
𦵏	-12.1509
鵪鶉	-12.151
草芊芊	-12.151
縳	-12.1511
鳯棲梧	-12.1511
感恩多	-12.1511
垜	-12.1512
潢	-12.1512
姦	-12.1512
後唐莊宗	-12.1512
節節高	-12.1513
輈	-12.1513
巉	-12.1513
沛	-12.1513
甑	-12.1513
蚊	-12.1514
遐方怨	-12.1514
夏雲峰	-12.1515
錫鬯	-12.1515
嘔	-12.1515
鞲	-12.1515
明朗朗	-12.1515
洙	-12.1516
頹	-12.1516
啾	-12.1516
畢罷了	-12.1516
蘺	-12.1516
吐虹霓	-12.1516
鎧	-12.1517
槅	-12.1517
豕	-12.1518
堠	-12.1518
髫	-12.1518
黄叔暘	-12.1518
袜	-12.1518
舠	-12.1519
鷫	-12.1519
亢	-12.1519
文徵明	-12.1519
渙	-12.1519
僽	-12.1519
緻	-12.152
滇	-12.152
􁑰	-12.152
牽牛織女	-12.152
翌	-12.152
蚓	-12.152
蟄	-12.152
刎	-12.152
閟	-12.152
軟兀刺	-12.1521
杏臉桃腮	-12.1521
澈	-12.1521
朱淑眞	-12.1521
罷罷罷	-12.1521
泖	-12.1521
荳䓻	-12.1521
稅	-12.1521
謖	-12.1522
人萬厯	-12.1522
夜遊宫	-12.1522
裒	-12.1522
𡵨	-12.1522
睦	-12.1522
祭天神	-12.1523
堯山堂	-12.1523
寔	-12.1523
皃	-12.1523
僥	-12.1523
西地錦	-12.1523
棐	-12.1523
五綵結同心	-12.1524
􁳼	-12.1524
㡬般兒	-12.1524
夾鍾商	-12.1524
汜	-12.1524
麴	-12.1525
㙜	-12.1525
長亭怨慢	-12.1525
紏	-12.1525
惜黄花慢	-12.1525
屣	-12.1525
曲水流觴	-12.1525
鶒	-12.1525
釚	-12.1525
盔	-12.1526
唐藝孫	-12.1526
擷芳詞	-12.1526
絢	-12.1526
章質夫	-12.1526
或加令字	-12.1527
䳵	-12.1527
赤欄橋	-12.1527
葳	-12.1527
調名取此	-12.1527
蒜	-12.1527
䜟	-12.1528
婉孌	-12.1528
邏	-12.1528
雙調八十五字前段	-12.1528
燕約鶯期	-12.1528
占春芳	-12.1528
趙徳莊	-12.1528
齊東野語	-12.1528
雙調八十八字前	-12.1528
畞	-12.1528
淅	-12.1528
猥	-12.1529
唐敎坊曲名	-12.1529
繊繊	-12.1529
周徳清	-12.1529
雙調五十一字前段	-12.1529
千嬌百媚	-12.1529
沈公述	-12.153
潇	-12.153
􁢤	-12.153
盱	-12.153
憫	-12.153
奪錦標	-12.153
䰅	-12.153
栩栩	-12.153
雹	-12.1531
主人情重	-12.1531
慶金枝	-12.1531
簘	-12.1532
忔	-12.1532
燻	-12.1532
百紫千紅	-12.1532
冇	-12.1532
翺翔	-12.1532
偎紅倚翠	-12.1532
李端叔	-12.1532
鴆	-12.1533
歇指調	-12.1533
奄	-12.1533
望湘人	-12.1534
罔	-12.1534
玉繩低轉	-12.1534
萧	-12.1534
泱	-12.1535
蝶粉蜂黄	-12.1535
飛雪滿羣山	-12.1535
雙調四十二字前後	-12.1536
乾隆四十四年	-12.1537
璨	-12.1537
毎日家	-12.1537
莾	-12.1538
此調有平韻仄韻	-12.1539
還京樂	-12.1541
潘牥	-12.1541
㕑	-12.1541
江月晃重山	-12.1542
趙聞禮	-12.1543
冢	-12.1543
綽然亭	-12.1545
雙調四十五字前後	-12.1549
范仲淹	-12.1555
一百三十三字	-12.1755
怏怏	-12.1907
雙調一百五字前段十	-12.2105
燧	-12.2146
嗷	-12.2164
弧	-12.2167
斉	-12.2169
陲	-12.2171
茟	-12.2171
斐	-12.2172
窖	-12.2173
􁂗	-12.2173
蜍	-12.2175
弭	-12.2175
法駕導引	-12.2176
荣	-12.2176
撇罷了	-12.2177
𢷬	-12.2177
賈似道	-12.2177
肎	-12.2177
八節長歡	-12.2177
筞	-12.2178
胯	-12.2178
榦	-12.2178
寨兒令	-12.2178
用車遮韻	-12.2178
乾隆四十六年十月恭校上	-12.2179
瀚	-12.2179
瘢	-12.2179
酔扶㱕	-12.2179
用家麻韻	-12.218
瓠	-12.218
雙調七十三字前	-12.218
歈	-12.218
姸	-12.2181
暨	-12.2181
滔	-12.2181
企	-12.2182
用魚模	-12.2182
衩	-12.2182
後段五句兩仄韻	-12.2183
亾	-12.2183
妮	-12.2183
璠	-12.2183
寤	-12.2183
懵	-12.2183
脞	-12.2183
膊	-12.2183
蜂媒蝶使	-12.2184
沮	-12.2184
湜	-12.2184
摛	-12.2184
與賀詞同惟	-12.2184
􁂬	-12.2185
蔌	-12.2185
苓	-12.2185
四仄韻後段四句	-12.2185
范希文	-12.2185
王特起	-12.2185
恤	-12.2186
李獻能	-12.2186
膳	-12.2186
猴	-12.2186
泚	-12.2186
酩	-12.2187
爰	-12.2187
沅	-12.2187
汪彦章	-12.2187
花庵詞客云	-12.2187
從天降	-12.2187
閔	-12.2187
思帝鄉	-12.2188
豳	-12.2188
鬛	-12.2188
拿	-12.2188
殢雨尤雲	-12.2188
懵懂	-12.2188
挣	-12.2189
倀	-12.2189
鹽角兒	-12.2189
全芳備祖	-12.2189
胞	-12.2189
疲	-12.2189
釂	-12.219
讒	-12.219
南枝向暖	-12.219
哺	-12.219
实	-12.219
迤	-12.219
趙介之	-12.219
丼	-12.219
膾炙人口	-12.2191
塚	-12.2191
捺	-12.2191
撥棹子	-12.2191
軺	-12.2191
打扮的	-12.2191
呸	-12.2191
蔚	-12.2192
宋黄昇撰宋詞	-12.2192
送入我門來	-12.2192
此調以此詞及	-12.2192
一氣貫下	-12.2193
聾	-12.2193
剔透玲瓏	-12.2193
萬紅千翠	-12.2193
猧	-12.2193
寒食清明都過	-12.2194
輪臺子	-12.2194
幕天席地	-12.2194
紂	-12.2194
婭姹	-12.2194
漙	-12.2194
慥	-12.2194
惜玉憐香	-12.2195
換羽移	-12.2195
薛夢桂	-12.2195
鎚	-12.2195
糓	-12.2195
攪箏琶	-12.2195
抝	-12.2196
愡	-12.2196
摵	-12.2196
和潄玉詞	-12.2196
作拗體	-12.2197
獬	-12.2197
㷼	-12.2197
晁叔用	-12.2197
籞	-12.2197
梔	-12.2197
四代好	-12.2197
剏	-12.2198
舀	-12.2198
雙調六十四字前後	-12.2199
嵯峨	-12.2199
無音耗	-12.2199
迯	-12.2199
惜秋華	-12.22
犇	-12.22
篥	-12.22
漁父家風	-12.22
貺	-12.22
戞	-12.2202
鷥	-12.2203
𠂻	-12.2203
憶餘杭	-12.2203
􁄑	-12.2203
此亦與周詞同惟	-12.2203
澠	-12.2203
呑	-12.2204
一江春水向東流	-12.2204
雙調六十七字前	-12.2205
雙調九十五字前段九句	-12.2205
此與蘇詞同惟	-12.2207
首句不起韻	-12.2207
資政殿學士	-12.2209
雙調七十一字前	-12.2213
凌波不過横塘路	-12.2214
南郷子	-12.2217
燭髙燒	-12.2226
雙調一百六字前	-12.2364
後段六句三仄韻	-12.2683
􁁜	-12.2763
作上一下	-12.2809
平韻後段十二句	-12.2863
匪	-12.2872
釁	-12.2873
薤	-12.2877
飣	-12.2879
歸自謡	-12.2881
諄	-12.2882
妳妳	-12.2883
虐	-12.2884
芥	-12.2884
莘	-12.2885
徳勝令	-12.2886
繳	-12.2886
􂀞	-12.2887
甓	-12.2887
休猜做	-12.2888
咍	-12.2889
盾	-12.2889
遑	-12.2889
䓻	-12.289
泡	-12.289
癭	-12.289
嚶	-12.2891
劾	-12.2891
𬎼	-12.2891
諦	-12.2892
襜	-12.2892
据	-12.2892
霾	-12.2893
巔	-12.2893
濮	-12.2893
迁	-12.2893
樂府補題	-12.2894
捎	-12.2894
漵	-12.2895
鎬	-12.2895
坰	-12.2895
捴	-12.2896
譯	-12.2897
琯	-12.2898
芾	-12.2898
景陽鐘	-12.2898
劉潑㡌	-12.2898
此調創自	-12.2898
綺寮怨	-12.2899
傒倖	-12.2899
袒	-12.2899
平仄當遵之	-12.2899
斕	-12.2899
奨	-12.2899
麋	-12.2899
靳	-12.2899
踵	-12.2899
曝	-12.2899
釡	-12.2899
朱希眞	-12.29
籀	-12.29
燔	-12.29
扆	-12.29
兩般児	-12.29
點綘唇	-12.29
匡	-12.2901
盜	-12.2901
睁	-12.2901
矁	-12.2901
臻	-12.2901
紫姑神	-12.2901
謝勉仲	-12.2902
袢	-12.2902
耆舊續聞云	-12.2902
畊	-12.2902
璋	-12.2902
吳頭楚尾	-12.2902
飼	-12.2902
縂	-12.2902
咄	-12.2903
嫺	-12.2903
詭	-12.2903
蘃	-12.2903
羅志仁	-12.2903
此調秪此一詞	-12.2903
意懸懸	-12.2903
屡	-12.2904
頡	-12.2904
凸	-12.2904
岷	-12.2904
襞	-12.2905
祟	-12.2905
馮延己	-12.2905
埜	-12.2905
李公擇	-12.2906
亰	-12.2906
洪咨䕫	-12.2906
肓	-12.2906
㤗	-12.2907
諢	-12.2907
天淨沙	-12.2907
婪	-12.2908
輻	-12.2908
糜	-12.2908
成何濟	-12.2908
冣	-12.2908
燭影摇紅	-12.2908
香嬌玉軟	-12.2908
变	-12.2908
民樂業	-12.2909
麻郎児	-12.2909
橊	-12.291
覈	-12.2911
鳧	-12.2911
此調始於此詞	-12.2911
摽	-12.2912
偁	-12.2912
遶佛閣	-12.2912
獻衷心	-12.2912
第八九句	-12.2913
欷	-12.2914
雙調四十九字前段四句	-12.2914
蜺	-12.2914
王通叟	-12.2915
喬夢符	-12.2915
作上三下四句法異	-12.2916
凄凄凉凉	-12.2916
嵳	-12.2917
和還知麽	-12.2917
題余氏女子	-12.2917
舖	-12.2918
撲燈蛾	-12.2918
亹	-12.2919
倬	-12.292
可平可仄㨿此	-12.292
四園竹	-12.2921
偌	-12.2921
五平韻後段九句	-12.2921
蜚	-12.2922
邕	-12.2923
鸕	-12.2924
吳虎臣	-12.2926
雙調六十六字前段	-12.2927
劉采春	-12.2929
雙調一百十字前段十	-12.2938
字平聲譜内可平可	-12.3298
譜内可平可仄據之	-12.3425
聲譜内可平可仄	-12.3426
雙調一百六字前段十	-12.3511
晻	-12.3637
嫗	-12.3638
疃	-12.3641
猒	-12.3648
貨郎兒	-12.3649
𥿄半張	-12.365
譍	-12.3651
藍采和	-12.3652
唆	-12.3652
緬	-12.3652
雩	-12.3653
毛晉所刻	-12.3653
秤	-12.3654
蜘	-12.3654
徭	-12.3655
距	-12.3656
艦	-12.3656
用齊微韻	-12.3656
敢敢敢	-12.3657
墊	-12.3659
許有壬	-12.366
璽	-12.366
摯	-12.366
四塊玉	-12.366
蝎	-12.366
颼	-12.366
施紹莘	-12.366
媪	-12.3661
醐	-12.3662
破陣樂	-12.3662
􁩉	-12.3662
剉	-12.3662
俺俺俺	-12.3662
仲宣樓	-12.3662
氲	-12.3662
彷	-12.3662
叮	-12.3663
羶	-12.3663
侃	-12.3663
騮	-12.3664
䁀	-12.3664
玉抱肚	-12.3664
崎嶇	-12.3665
磣	-12.3665
貨郎児	-12.3665
瀹	-12.3666
彰	-12.3666
育	-12.3666
飱	-12.3666
鋸	-12.3666
柚	-12.3667
嶰	-12.3667
胃	-12.3667
瓌	-12.3668
㝢	-12.3668
僑	-12.3668
吕勝已	-12.3668
牓	-12.3668
心痒難揉	-12.3668
鮑老催	-12.3668
濩	-12.3668
潦	-12.3668
濳	-12.3669
凘	-12.3669
聽風聽雨	-12.3669
巧舌頭	-12.3669
般渉調	-12.3669
匾	-12.3669
酢	-12.3669
王安禮	-12.367
驃	-12.367
芻	-12.367
醍	-12.367
曽純甫	-12.3671
苖	-12.3671
獺	-12.3671
茒	-12.3671
圉	-12.3671
刷子序	-12.3671
滛	-12.3672
薲洲漁笛譜	-12.3672
那壁廂	-12.3672
明月棹孤舟	-12.3672
侍讀學士	-12.3672
閙炒炒	-12.3672
金盞倒垂蓮	-12.3673
戢	-12.3673
衣淡飯	-12.3673
顒	-12.3673
号	-12.3673
奬	-12.3673
橛	-12.3674
屹	-12.3674
蝕	-12.3674
石橊花	-12.3675
痒	-12.3675
棺	-12.3675
嚙	-12.3675
喔	-12.3675
離多㑹少	-12.3675
醥	-12.3675
賽鴻秋	-12.3675
刑部尚書	-12.3675
購	-12.3676
俻	-12.3676
罾	-12.3676
醲	-12.3676
缺月挂疎桐	-12.3676
硃	-12.3676
糯	-12.3676
沈伯英	-12.3676
鳳凰臺上憶吹簫	-12.3677
例作上一下四句法	-12.3677
扛	-12.3677
繙	-12.3677
落鴈沉魚	-12.3677
夤	-12.3678
偎紅倚翆	-12.3678
蕣	-12.3678
豐樂樓	-12.3678
看朱成碧	-12.3678
洧	-12.3679
萬紫千紅	-12.3679
廡	-12.3679
開府儀同三司	-12.3679
賄	-12.3679
兇	-12.3679
實丕丕	-12.3679
嶮	-12.3679
晏元獻	-12.368
懃	-12.368
廖行之	-12.368
點絳脣	-12.368
轔	-12.368
枻	-12.3681
殽	-12.3681
憶真妃	-12.3681
雙調一百七字前段十	-12.3681
雙調八十一字前	-12.3682
貍	-12.3682
兊	-12.3682
懶畵睂	-12.3682
扺	-12.3682
絶代佳人	-12.3683
騙	-12.3683
尫	-12.3683
亦未可知	-12.3683
歔	-12.3683
屩	-12.3684
虚齋樂府	-12.3684
洪叔璵	-12.3684
后庭芲	-12.3685
昶	-12.3685
澱	-12.3686
此與姜詞同惟	-12.3686
鼓笛慢	-12.3686
麥秀兩岐	-12.3687
雙調九十字前	-12.3687
月當㕔	-12.3687
狩	-12.3688
此調秖此一詞	-12.3689
棉	-12.369
眼睁睁	-12.3691
此調押仄韻者	-12.3691
塌	-12.3691
雙調四十四字前後	-12.3693
謅	-12.3697
部主事	-12.372
雙調九十四字前段十	-12.3972
故此詞可平	-12.3985
仔	-12.4443
草粹編	-12.4464
盲	-12.4468
姐	-12.4469
娉	-12.4472
蒯	-12.4472
渊	-12.4476
迦	-12.4483
殉	-12.4484
徬	-12.4484
菟	-12.4485
斡	-12.4486
殄	-12.4486
罟	-12.4487
鍚	-12.4487
鬌	-12.4487
茱	-12.4488
届	-12.449
桴	-12.4491
閎	-12.4491
嚨	-12.4491
祉	-12.4492
嶔	-12.4493
譴	-12.4493
薩	-12.4493
靶	-12.4494
雨順風調	-12.4494
鏟	-12.4494
墖	-12.4494
潮生潮落	-12.4494
俶	-12.4494
鍳	-12.4495
蝣	-12.4495
茂林修竹	-12.4495
耦	-12.4495
鬲溪梅令	-12.4495
毳	-12.4496
箒	-12.4496
轆	-12.4496
戴式之	-12.4496
乩	-12.4497
雙調五十六字前段	-12.4497
溫庭筠	-12.4497
廨	-12.4498
蕃女怨	-12.4498
圑	-12.4498
遒	-12.4499
夹	-12.4499
紇那曲	-12.4499
銑	-12.45
宋謙父	-12.45
跖	-12.45
懴	-12.45
禂	-12.45
尿	-12.45
唐敎坊	-12.4501
摴	-12.4501
蘢	-12.4501
搠	-12.4501
睹	-12.4501
玫	-12.4501
樸	-12.4501
饅	-12.4502
誘	-12.4502
沔	-12.4502
珙	-12.4502
氅	-12.4502
惋	-12.4502
懇	-12.4503
翊	-12.4503
締	-12.4503
閙垓垓	-12.4503
倡條冶葉	-12.4503
五馬江兒水	-12.4503
勅	-12.4504
㸑	-12.4504
菂	-12.4504
楽府雅詞	-12.4504
俛	-12.4504
估	-12.4505
珉	-12.4505
朝野多歡	-12.4505
嵋	-12.4505
枒	-12.4506
蹀	-12.4506
紞	-12.4506
崆	-12.4507
悲悲切切	-12.4507
馗	-12.4507
櫪	-12.4507
赸	-12.4507
噱	-12.4507
磔	-12.4507
怱	-12.4508
墩	-12.4508
曖	-12.4508
雙調八十九字前	-12.4508
翰墨全書	-12.4508
十面埋伏	-12.4508
張功甫	-12.4509
礫	-12.4509
鷃	-12.4509
郭應祥	-12.4509
䜛	-12.4509
需	-12.4509
能改齋漫錄	-12.4509
鯢	-12.4509
倒鳯顛鸞	-12.4509
艮	-12.4509
訢	-12.451
鴣	-12.451
杞	-12.451
此調僅見此詞	-12.451
不茶不飯	-12.451
螻	-12.451
豉	-12.451
慟	-12.4511
程大昌	-12.4511
蝗	-12.4511
劵	-12.4511
雨淋鈴	-12.4511
天若有情天亦老	-12.4512
赤棗子	-12.4512
褃	-12.4512
囿	-12.4512
蓍	-12.4512
趾	-12.4512
前調歐陽元功	-12.4514
兩輪日月	-12.4514
筌	-12.4514
箧	-12.4515
此亦周詞體惟	-12.4515
惬	-12.4515
蘇幙遮	-12.4516
㕓	-12.4516
詞林萬選	-12.4516
峒	-12.4516
瀬	-12.4516
滾	-12.4516
咂	-12.4517
怎支吾	-12.4517
梦㫁魂勞	-12.4518
刊	-12.4518
􁏫	-12.4518
作六字折腰句法異	-12.4518
換巢鸞鳳	-12.4518
博學宏詞科	-12.4519
攴	-12.4519
覉	-12.4519
匕	-12.4519
歊	-12.452
竹屋癡語	-12.452
撼庭秋	-12.4523
茁	-12.4523
此調押平韻者	-12.4524
過澗歇	-12.4524
沌	-12.4525
頬	-12.4525
攤破四字三句作	-12.4526
嚐	-12.4527
譚宣子	-12.4527
雙調九十五字前段十	-12.4528
此與秦詞同惟	-12.4534
此與前詞同惟	-12.4538
入聲作上聲	-12.5346
【	-12.535
毯	-12.5378
劬	-12.5386
偹	-12.5387
孥	-12.5387
瀘	-12.5387
努	-12.5388
迨	-12.5388
麖	-12.5389
刳	-12.5391
脛	-12.5392
豺	-12.5392
逩	-12.5393
楠	-12.5393
袤	-12.5393
盥	-12.5394
遛	-12.5394
黼	-12.5396
竪	-12.5396
叡	-12.5396
撕	-12.5396
廢寢忘食	-12.5397
鳳友鸞交	-12.5399
雄紏紏	-12.5399
􁦸	-12.54
荄	-12.54
陬	-12.54
彪	-12.54
軻	-12.54
籪	-12.5401
扒	-12.5401
嘱	-12.5401
兕	-12.5402
删	-12.5402
琵	-12.5402
鯤	-12.5403
琬	-12.5403
擗	-12.5403
僣	-12.5404
逵	-12.5404
拙魯速	-12.5404
春夏兩相期	-12.5405
俘	-12.5405
綢	-12.5405
驩	-12.5405
猖	-12.5405
礎	-12.5406
雲破月来花弄影	-12.5406
宋黄大輿編	-12.5406
孛	-12.5406
醞	-12.5406
珀	-12.5406
氐	-12.5407
渤	-12.5407
惘	-12.5407
籮	-12.5407
毶	-12.5407
臊	-12.5407
窑	-12.5407
㸃綘唇	-12.5407
筲	-12.5408
涓	-12.5408
堰	-12.5408
濬	-12.5409
蹕	-12.5409
㢲	-12.5409
麪	-12.5409
泞	-12.541
搢	-12.541
軌	-12.541
澂	-12.541
礴	-12.541
吾愛吾廬	-12.541
玉林詞話云	-12.5411
喏	-12.5411
䁔	-12.5411
袪	-12.5411
笈	-12.5411
撁	-12.5412
橊花泣	-12.5412
洵	-12.5412
殁	-12.5413
雙調五十字前段四句	-12.5413
八犯玉交枝	-12.5413
閽	-12.5413
貸	-12.5414
糴	-12.5414
傭	-12.5414
旃	-12.5414
迱	-12.5415
佃	-12.5415
趲	-12.5415
宥	-12.5415
貔	-12.5415
洄	-12.5415
駘	-12.5415
驊	-12.5415
侔	-12.5415
弥	-12.5415
侯彦周	-12.5416
茲	-12.5416
眶	-12.5416
栞	-12.5416
圻	-12.5416
惓	-12.5416
𬞞	-12.5417
迺	-12.5417
劉子翬	-12.5417
蛆	-12.5417
薖	-12.5417
䓤	-12.5418
雙調九十六字前段十句	-12.5418
残	-12.5418
鷲	-12.5418
劉克荘	-12.5418
輾	-12.5418
欎	-12.5419
綠暗紅稀	-12.5419
蘇養直	-12.5419
溷	-12.542
段克巳	-12.542
丫	-12.542
娣	-12.542
著甚來由	-12.5421
艖	-12.5421
皴	-12.5421
捋	-12.5421
边	-12.5421
𬈑	-12.5421
詼	-12.5422
千言萬語	-12.5422
裌	-12.5422
幷	-12.5422
欽定四庫全書詞苑叢談巻	-12.5422
驤	-12.5422
蒭	-12.5422
痼	-12.5422
繅	-12.5422
獐	-12.5422
喇	-12.5422
趙磻老	-12.5422
鼂無咎	-12.5423
蜉	-12.5423
媾	-12.5423
闖	-12.5423
噥	-12.5423
耍厮児	-12.5423
墨憨齋	-12.5423
幀	-12.5423
矻	-12.5424
苟	-12.5424
晁沖之	-12.5424
字平聲譜内可平可仄據此餘叅	-12.5424
笆	-12.5424
􁬁	-12.5424
紫羅襴	-12.5424
螓	-12.5424
騏	-12.5425
葫	-12.5425
笞	-12.5425
浮𤓰沉李	-12.5425
雙調八十六字前段	-12.5425
彭泰翁	-12.5426
郝	-12.5426
上二下三	-12.5426
望雲涯引	-12.5426
沍	-12.5427
盟山誓海	-12.5427
驑	-12.5427
雙調四十六字前段四句	-12.5428
嗓	-12.5428
阿嬌金屋	-12.5429
明月逐人來	-12.5429
詞㫖屬對	-12.5429
蹲	-12.5429
閑茶浪酒	-12.5429
雙調四十一字前段五句	-12.543
腫	-12.543
党懐英	-12.543
檎	-12.5432
鸞交鳳友	-12.5432
倒枕垂床	-12.5432
􁒷	-12.5433
聶冠卿	-12.5433
一丘一壑	-12.5433
叅知政事	-12.5435
幬	-12.5435
䲭	-12.5435
塤	-12.5436
此與程詞同惟	-12.5437
此與晁詞同惟前	-12.5438
流水遶孤村	-12.5438
平仄當依之	-12.5438
嵒	-12.5439
雙調七十四字前	-12.5441
東風齊著力	-12.5448
痛煞煞	-12.5453
内可平可仄據此餘㕘	-12.5498
字平聲譜内可平可仄據	-12.5765
杆	-12.613
妤	-12.6347
廹	-12.6363
丐	-12.6372
拉	-12.6377
鶄	-12.6379
炳	-12.6382
竆	-12.6386
糲	-12.6386
喋	-12.6387
燥	-12.6387
茹	-12.6387
掿	-12.6389
雇	-12.639
􁊬	-12.639
蹌	-12.6391
醄	-12.6392
哇	-12.6392
笊	-12.6393
鞴	-12.6393
峴	-12.6393
隲	-12.6394
䧏	-12.6396
蘊	-12.6396
舶	-12.6396
嶷	-12.6397
蠆	-12.6397
嬷	-12.6397
鞦	-12.6397
泌	-12.6398
湫	-12.6398
帢	-12.6399
琨	-12.64
熾	-12.64
􁅔	-12.64
跧	-12.6401
乾隆四十六年九月恭校上	-12.6401
玠	-12.6402
朴	-12.6403
术	-12.6404
雙調四十七字前段五句	-12.6404
趍	-12.6404
庖	-12.6404
郯	-12.6404
蔔	-12.6405
䍦	-12.6405
蘖	-12.6405
垤	-12.6405
蛤	-12.6406
媸	-12.6406
袷	-12.6406
埒	-12.6406
别時容易見時難	-12.6407
轄	-12.6407
皈	-12.6407
傅巖叟	-12.6407
散誕逍遥	-12.6408
贑	-12.6408
跑	-12.6408
瞿佑望西湖	-12.6408
䢴	-12.6408
葷	-12.6408
闡	-12.6408
鶯儔燕侣	-12.6409
圯	-12.6409
澷	-12.6409
煇	-12.6409
嗤	-12.6409
嗹	-12.6409
藐	-12.6409
黜	-12.641
藎	-12.641
詮	-12.641
癢	-12.641
峥	-12.641
俙	-12.6411
酎	-12.6411
賁	-12.6411
㷔	-12.6411
啁	-12.6411
崈	-12.6411
用眞文韻	-12.6411
富貴非吾願	-12.6411
嵎	-12.6412
燾	-12.6412
璃	-12.6412
艫	-12.6412
烝	-12.6412
愰	-12.6413
坂	-12.6413
鸛	-12.6413
棍	-12.6413
緑肥紅瘦	-12.6413
戴叔倫	-12.6413
弘	-12.6414
狸	-12.6414
蟒	-12.6414
逶	-12.6415
咷	-12.6415
廢寝忘飡	-12.6415
攪筝琶	-12.6415
維舟試望故	-12.6415
夸	-12.6416
桄	-12.6416
頏	-12.6416
姢	-12.6416
艘	-12.6416
侈	-12.6417
紅藕香殘玉簟秋	-12.6417
緡	-12.6417
浪来裡煞	-12.6417
问	-12.6417
躔	-12.6418
间	-12.6418
蔓菁菜	-12.6418
黟	-12.6418
儋	-12.6418
庇	-12.6418
花自飄零水自流一種相思	-12.6418
以入替平	-12.6418
燁	-12.6419
騕	-12.6419
孜	-12.6419
歧	-12.6419
灎	-12.6419
崚	-12.6419
四犯剪梅花	-12.6419
翀	-12.642
倚翆偎紅	-12.642
艎	-12.642
欽定四庫全書花菴詞選巻	-12.642
宋元人俱如此填	-12.642
貲	-12.6421
瓶墜簮折	-12.6421
欽定四庫全書惜香樂府巻	-12.6421
前調王琪江南	-12.6421
此亦秦詞體惟	-12.6421
憶昔午橋橋上飲坐中	-12.6421
欽定四庫全書花菴詞選續集巻	-12.6422
嗑	-12.6423
狂朋恠友	-12.6423
鉦	-12.6423
糕	-12.6423
買陂塘旋栽楊柳	-12.6424
卭	-12.6424
蚌	-12.6424
用東鐘韻	-12.6424
集賢校理	-12.6425
千金縱買相如賦	-12.6426
雙調六十二字前後	-12.6426
嬢	-12.6426
明陳耀文輯小令	-12.6426
㫄	-12.6426
偈	-12.6426
陳質齋云	-12.6426
觚	-12.6426
陌上風光濃處	-12.6427
酤	-12.6427
脈	-12.6427
楚尾吳頭	-12.6427
駈	-12.6427
祜	-12.6428
鍔	-12.6428
尀	-12.6428
稲	-12.6428
怳	-12.6429
枵	-12.6429
合成愁離人心上秋縱芭蕉不雨也颼颼	-12.6429
滓	-12.6429
沬	-12.6431
楶	-12.6431
茭	-12.6432
毡	-12.6432
嬙	-12.6433
箎	-12.6433
淡粧濃抹	-12.6434
鴇	-12.6435
鶯期燕約	-12.6435
侠	-12.6435
鄞	-12.6436
雙調四十五字前段四句	-12.6439
櫛	-12.644
雙調一百十四字前段十	-12.6445
雙調七十八字前	-12.6469
内可平可仄據此餘叅	-12.67
平韻後段六句三仄韻兩	-12.6763
悒	-12.7047
嬝	-12.7316
鞓	-12.7474
䰗	-12.7477
苛	-12.7481
鴂	-12.7484
薲	-12.7487
辣	-12.7488
鼈	-12.749
跚	-12.749
塍	-12.7497
忑	-12.7497
营	-12.7498
幞	-12.7499
祬	-12.7503
姒	-12.7503
蜿	-12.7503
滸	-12.7504
庐	-12.7504
賂	-12.7505
繖	-12.7505
壟	-12.7506
殫	-12.7506
􁫣	-12.7506
廼	-12.7507
􁏏	-12.7508
憀	-12.7508
懾	-12.7509
腳	-12.7509
醃	-12.7509
烬	-12.751
裟	-12.7511
鵓	-12.7511
袈	-12.7511
枋	-12.7511
褓	-12.7511
剮	-12.7512
綂	-12.7512
鍤	-12.7512
戾	-12.7512
抓	-12.7512
跛	-12.7513
謄	-12.7513
哮	-12.7514
噉	-12.7514
鵒	-12.7514
萎	-12.7514
愇	-12.7515
儗	-12.7516
晰	-12.7516
心勞意攘	-12.7516
韝	-12.7516
𧖟	-12.7516
此恨平分取更無言語空相	-12.7517
庾郎先自吟愁賦	-12.7517
枷	-12.7517
酕	-12.7517
洺	-12.7518
湊	-12.7518
箵	-12.7518
惰	-12.7519
鈕	-12.7519
囷	-12.7519
遥天奉翠華引	-12.752
槲	-12.752
懦	-12.752
蓽	-12.7521
稗	-12.7521
刹	-12.7521
擫	-12.7521
敖	-12.7521
孱	-12.7521
幈	-12.7521
覘	-12.7522
刈	-12.7522
惧	-12.7522
鼂	-12.7523
白雪齋選訂樂府吳騷合編	-12.7523
淛	-12.7523
捏	-12.7523
小鎮西犯	-12.7523
易分難聚	-12.7525
晴嵐低楚甸	-12.7525
旎	-12.7525
齎	-12.7525
鈚	-12.7525
含羞整翠鬟得意頻相	-12.7525
型	-12.7525
燕忙鶯懶	-12.7525
笭	-12.7526
伉	-12.7526
熳	-12.7526
江淹又吟恨賦	-12.7526
髏	-12.7527
瓓	-12.7527
楊金淺遲日催花淡雲閣雨	-12.7527
欸	-12.7527
安平樂慢	-12.7527
翟	-12.7527
譔	-12.7527
涌	-12.7527
伊處哀音似訴正思婦無眠起	-12.7528
瓷	-12.7528
孀	-12.7528
琉	-12.7528
玉有翠禽小小枝上同宿客裏相逢籬角	-12.7528
訴君莫舞君不見玉環飛燕皆塵土	-12.7528
䣃	-12.7529
蘆葉滿汀洲寒沙帶淺流二十年重	-12.7529
菖	-12.7529
懣	-12.7529
勵	-12.7529
𦕈	-12.7529
小池塘風簾動碎影舞斜陽	-12.7529
歗	-12.7529
鹵	-12.7529
鷖	-12.7529
沓	-12.753
亜	-12.753
愬	-12.753
顛鸞倒鳳	-12.753
儺	-12.753
劑	-12.753
柂	-12.753
元高拭詞注	-12.753
例作拗句	-12.753
騾	-12.7531
䟱	-12.7531
沙逺但暗憶江南江北想	-12.7531
詞故不復注	-12.7531
顇	-12.7531
矟	-12.7531
輛	-12.7531
祺	-12.7532
穟	-12.7532
遹	-12.7532
攫	-12.7533
剰雨殘雲	-12.7533
饗	-12.7533
浮家泛宅	-12.7533
鶴長鳬短	-12.7534
􁈋	-12.7534
倒鳳顛鸞	-12.7534
齧	-12.7534
風裏落花誰是主	-12.7534
客去車塵漠漠	-12.7535
簞	-12.7535
墉	-12.7536
雕梁藻井又軟語商量不定飄然快拂花	-12.7536
抒	-12.7536
新晴古今多少事漁唱起三更	-12.7536
䯻	-12.7536
賃	-12.7536
罡	-12.7536
难	-12.7537
邠	-12.7537
昜	-12.7537
趙晉臣敷文	-12.7537
袱	-12.7538
雒	-12.7538
玲	-12.7538
炧	-12.7538
睚	-12.7538
輥繡毬	-12.7539
淼	-12.7539
餙	-12.7539
念多情但有當時皓月照人依舊	-12.7539
春花秋月何時了	-12.754
湟	-12.754
别後寡信輕諾	-12.754
闗河冷落殘照當樓	-12.754
忭	-12.754
靸	-12.7541
亀	-12.7541
濂	-12.7541
构	-12.7542
綠蓑衣斜風細雨不須歸	-12.7543
寒鴉數㸃流水遶	-12.7543
􁸲	-12.7543
海晏河清	-12.7544
縧	-12.7544
甬	-12.7545
圇	-12.7546
篪	-12.7547
􁐻	-12.7547
雙調一百十一字前段十	-12.7548
滿身花影倩人扶	-12.7548
雙調一百十三字前段十	-12.755
箫	-12.7551
龍圖閣直學士	-12.7552
天章閣待制	-12.7554
雙調一百十六字前段十	-12.7555
古往今來	-12.7557
諌議大夫	-12.7557
罌	-12.7559
雙調四十七字前段四句	-12.7561
豎	-12.872
覿	-12.8736
菅	-12.8741
紓	-12.8743
殯	-12.8746
貊	-12.8747
蠲	-12.875
瑚	-12.8751
暾	-12.8751
鋟	-12.8752
惲	-12.8752
銚	-12.8752
俜	-12.8752
染病躭疾	-12.8753
濘	-12.8753
瘡	-12.8753
吒	-12.8755
澧	-12.8756
鮓	-12.8756
蛉	-12.8757
鴒	-12.8757
摰	-12.8757
十八風鬟雲半	-12.8757
倭	-12.8757
萁	-12.8757
硎	-12.8758
僖	-12.8758
𡨕	-12.8758
擐	-12.8759
窵	-12.8759
醽	-12.8759
鑊	-12.8759
嶢	-12.8761
劖	-12.8761
翛	-12.8762
鉸	-12.8762
垂楊自舞漸暖靄	-12.8762
蜒	-12.8763
鱉	-12.8763
楣	-12.8763
浮瓜沉李	-12.8763
坷	-12.8764
文獻通考	-12.8764
𠻳	-12.8764
鼍	-12.8765
醤	-12.8765
珣	-12.8765
看垂楊連苑	-12.8765
景定建康志	-12.8765
■	-12.8765
媧	-12.8766
雙調五十字前段五句三	-12.8766
了忘則怎生便忘得又還問鱗鴻試重	-12.8766
亶	-12.8766
抅	-12.8766
瞋	-12.8767
聃	-12.8767
嵘	-12.8767
龍樓兩觀見銀燭星毬	-12.8768
𢾗	-12.8768
􁕖	-12.8768
芡	-12.8768
刅	-12.8768
河西六娘子	-12.8768
魅	-12.8769
眊	-12.8769
壕	-12.8769
枳	-12.8769
黦	-12.877
擣練子賦梅	-12.877
卻	-12.877
悶來彈鵲又攪碎一簾花影	-12.877
咫	-12.877
噲	-12.877
緉	-12.877
罹	-12.877
鞅	-12.8771
獪	-12.8771
棨	-12.8771
怠	-12.8772
吳城小龍女	-12.8772
離亭宴帶歇拍煞	-12.8772
縆	-12.8772
掉角兒序	-12.8772
記當時送君南浦萬里乾坤百年身世	-12.8772
輕攏慢撚	-12.8772
髼	-12.8772
嚏	-12.8772
孳	-12.8772
黥	-12.8772
自許平生意氣衣冠人笑抵死塵埃意倦	-12.8772
㘅	-12.8772
澦	-12.8772
􁎘	-12.8772
枕剰衾餘	-12.8773
樓夢好難賦深情二十四橋仍在波心蕩	-12.8773
愷	-12.8773
蟣	-12.8774
鼾	-12.8774
鯿	-12.8774
噹	-12.8774
慍	-12.8774
抬	-12.8774
容膝閉柴扉	-12.8774
馬窺江去後廢池喬	-12.8774
磈	-12.8775
翕	-12.8775
洮	-12.8775
誰不遣君歸	-12.8775
吚	-12.8776
慘結秋隂西風送絲絲雨	-12.8776
疁	-12.8776
問當時遺譜有絶藝	-12.8776
簹	-12.8776
如晝萬里乾坤清	-12.8776
􁩊	-12.8776
吾生行且休矣	-12.8777
淝	-12.8777
餽	-12.8777
古虞毛晉識	-12.8777
有三秋桂子十里荷花	-12.8777
軛	-12.8777
戴花君莫笑六么催拍盞頻傳	-12.8777
宋史藝文志載	-12.8778
晡	-12.8778
遘	-12.8778
天角孤雲縹緲	-12.8778
碧波新漲小池塘雙雙蹴水忙	-12.8778
躧	-12.8778
侗	-12.8778
媵	-12.8779
势	-12.8779
贛	-12.8779
多情却被無情惱	-12.8779
鬔	-12.8779
􁑭	-12.8779
漸困倚孤眠清熟簾外誰	-12.8779
瀛奎律髓	-12.8779
眵	-12.8779
畛	-12.8779
趷	-12.878
嬌雲容易飛夢斷知何處	-12.878
秣	-12.878
鬘	-12.878
􁏳	-12.878
諳盡孤眠滋味	-12.878
銀字笙調心字香燒	-12.878
埭	-12.878
波間還與韶光共憔悴不堪看細雨夢	-12.8781
㦲	-12.8781
冺	-12.8781
是豪英長溝流月去無聲	-12.8781
歸來化作此花幽獨猶記深	-12.8781
中興以來絶妙詞選卷之	-12.8781
宫舊事那人正睡裏飛近蛾	-12.8781
駟	-12.8781
翬	-12.8782
糁	-12.8782
螀	-12.8782
閴	-12.8782
惟有樓前流水應念我終日凝眸凝眸	-12.8782
溍	-12.8782
怯瓊梳容銷金鏡	-12.8782
元髙拭詞注	-12.8783
歙	-12.8783
蒐	-12.8783
征轡離愁漸逺漸無窮迢迢不	-12.8783
石榴半吐紅巾蹙	-12.8783
蝟	-12.8783
身在天涯亂山孤壘危樓飛觀歎春	-12.8783
虢	-12.8783
蓿	-12.8783
背西風酒旗斜矗綵舟雲淡	-12.8783
祛	-12.8783
東陽也試問花知否	-12.8784
烏飛兎走	-12.8784
茯	-12.8784
開還閉夢隨風	-12.8784
求田問舍	-12.8784
鏞	-12.8784
蹶	-12.8784
細困無力忍分散彩雲歸後何處更	-12.8784
鶉	-12.8785
僞	-12.8785
閘	-12.8785
嶒	-12.8785
王奕清奉㫖校刊	-12.8785
水調數聲持酒	-12.8786
雲想衣裳花想容	-12.8786
悌	-12.8786
東澤綺語債	-12.8786
㢠	-12.8786
譙門暫停征棹聊共	-12.8786
蝀	-12.8786
骷	-12.8786
箴	-12.8786
眨	-12.8786
闲	-12.8786
悄郊原帶郭	-12.8786
天上嫦娥人不識	-12.8786
波無雙鯉雲山萬重寸心千里	-12.8787
丨	-12.8787
雨打梨花深閉門	-12.8787
姿姿媚媚	-12.8788
徵招調中腔	-12.8788
望人在天北悽惻恨堆積漸别浦縈	-12.8788
㵄	-12.8788
宜喜宜嗔	-12.8788
鴟	-12.8788
有幾多愁恰似一江春水向東流	-12.8788
􁋆	-12.8789
落又匆匆過了清明時節剗地東風欺客	-12.8789
旻	-12.8789
愛月夜眠遲	-12.8789
煜	-12.879
唐書禮樂志	-12.879
璘	-12.879
麵	-12.879
渚山堂詞話	-12.8791
明陳耀文輯長調	-12.8791
汶	-12.8791
紱	-12.8791
雪浪齋日記	-12.8792
雙調一百字前段十一句	-12.8792
眉語不知舞錯伊州	-12.8792
筮	-12.8792
事知多少小樓昨夜又東風	-12.8792
輕憐痛惜	-12.8792
茉	-12.8792
剌	-12.8793
襶	-12.8793
凂	-12.8794
同行同坐同	-12.8794
褦	-12.8794
桿	-12.8794
復齋漫録云	-12.8794
默	-12.8795
嚎	-12.8795
蝇	-12.8796
新婦磯邊	-12.8796
苍	-12.8796
雙調四十二字前段四句	-12.8797
因詞俚不録	-12.8797
醯	-12.8798
舲	-12.8798
跗	-12.8799
袚	-12.88
殞	-12.8804
此和周詞也惟	-12.8813
刦	-12.8815
方定庭軒寂寞近清明殘花中酒又是	-12.9459
㮚	-13.0132
麐	-13.0143
瀆	-13.015
懲	-13.0159
蔑	-13.016
撦	-13.0161
盖車恁向那𡺸	-13.0164
媟	-13.0165
园	-13.0165
岏	-13.0167
琛	-13.0168
鴿	-13.0168
㛰	-13.017
鼯	-13.017
撻	-13.0171
譎	-13.0172
堊	-13.0172
棖	-13.0173
甖	-13.0173
浚	-13.0174
蝠	-13.0175
歆	-13.0175
礼	-13.0175
幫	-13.0176
鰾	-13.0176
喟	-13.0177
烙	-13.0177
倏	-13.0179
晷	-13.0179
份	-13.0179
鄜	-13.018
桷	-13.018
爬	-13.018
咀	-13.018
贋	-13.0181
㼭	-13.0182
鶘	-13.0182
螟	-13.0183
袄	-13.0183
亘	-13.0183
覯	-13.0184
誨	-13.0184
瀏	-13.0184
字領韻為一段	-13.0184
郭郎兒近拍	-13.0184
雰	-13.0184
揲	-13.0185
岱	-13.0185
鰥	-13.0185
疚	-13.0185
赬	-13.0185
􁭤	-13.0185
縟	-13.0186
槧	-13.0186
斵	-13.0186
東風起東風起海上百花	-13.0186
䔧	-13.0186
歉	-13.0188
聞一霎清明雨雨後却斜陽杏花零落香	-13.0188
廩	-13.0188
聱	-13.0188
鬃	-13.0188
砭	-13.0189
隸	-13.0189
夐	-13.0189
醿	-13.019
唏	-13.019
羝	-13.019
轓	-13.019
扢	-13.019
鯫	-13.019
脹	-13.0191
染處空有香紅尚軟料彼此魂	-13.0191
耙	-13.0191
紕	-13.0191
曄	-13.0191
急流勇退	-13.0192
一縷宿酒醒遲惱破春情緒	-13.0192
篦	-13.0192
都把一襟芳思	-13.0192
愁旋釋還似織淚暗拭又偷滴	-13.0193
伺	-13.0193
窪	-13.0193
钁	-13.0193
䛏	-13.0193
􁔡	-13.0193
蜾	-13.0194
殤	-13.0194
殖	-13.0194
㠯	-13.0194
臠	-13.0194
毗	-13.0194
飫	-13.0194
春訊飛瓊管風日薄度	-13.0195
月冷龍沙塵清虎落今年漢酺初賜新翻	-13.0195
獰	-13.0195
巽	-13.0195
愁情到不堪言處分付東流	-13.0196
吹月一簾花碎芳意婆娑	-13.0196
莫須長笛吹愁去	-13.0196
眎	-13.0196
瞢	-13.0196
陌人家相對如説興亡斜陽	-13.0196
氓	-13.0196
鷓	-13.0196
殂	-13.0196
盏	-13.0197
窰	-13.0197
畸	-13.0197
錡	-13.0197
饀	-13.0197
筴	-13.0197
隔花啼鳥喚行人日斜歸去奈何春	-13.0197
轉喜皇都舊日風光太平再見	-13.0197
饋	-13.0197
絺	-13.0197
仗義踈財	-13.0197
滿長安髙却旗亭酒價	-13.0197
瀣	-13.0198
初試騰騰春思前度桃花去年人	-13.0198
想公瑾當年小喬	-13.0198
飛還住驚粉重蝶宿西園	-13.0198
湲	-13.0198
閠	-13.0198
窊	-13.0198
不知天待雪惱江梅東郊寒色尚徘徊雙	-13.0198
㖔	-13.0199
棼	-13.0199
拶	-13.0199
照我梅邊吹笛喚起玉人不管清寒	-13.02
寒梅驚破前村雪	-13.02
睠	-13.02
青絲勒馬風流雲散羅綬分香翠綃封淚	-13.02
郜	-13.02
鏦	-13.02
死催人去上馬苦匆匆琵琶曲未終	-13.02
紅杏枝頭春意閙尚書	-13.0201
古道音塵絶音塵絶西風殘照漢家陵闕	-13.0201
璜	-13.0201
蛄	-13.0201
鴛鴦翡翠小小思珍偶	-13.0201
鎰	-13.0201
繫歸舟碧野朱橋當日事人不見水空流	-13.0201
瞥眼飛紅日長不放春醪困立盡海棠風	-13.0202
罽	-13.0202
炤	-13.0202
低聲問向誰行宿城上	-13.0202
終日望君君不至舉頭聞鵲喜	-13.0202
初帶夜月海棠半含朝雨	-13.0202
悸	-13.0203
滎	-13.0203
柵	-13.0203
為使君洗盡蠻風瘴雨作霜天	-13.0203
脰	-13.0203
袵	-13.0203
堪臨鏡重省别時	-13.0203
舞徹中原塵飛滄海風雪萬里龍庭寫	-13.0203
栱	-13.0203
宿醉離愁慢髻鬟	-13.0204
初成鶴怨猿驚稼軒未	-13.0204
厠	-13.0204
占風光呢喃清晝長	-13.0204
泛清波摘遍	-13.0204
剽	-13.0204
球	-13.0204
瞭	-13.0204
送孫無言歸黄山	-13.0204
鈎簾借月染雲為幌	-13.0204
淄	-13.0204
臉霞紅印枕	-13.0204
内苑春不禁過青門御溝漲	-13.0205
慊	-13.0205
誰念我重見冷楓紅舞喚起淡	-13.0205
㴞	-13.0205
過秋風未成歸計	-13.0205
喜泥潤燕歸南浦最妨	-13.0205
淮左名都竹西佳處解鞍少	-13.0205
觀草木欣榮幽人自感	-13.0205
憑髙念逺向南樓一聲歸	-13.0205
首江海平生漂流容易散佳	-13.0205
蕯	-13.0206
裨	-13.0206
啅	-13.0206
子還來尋舊壘餘寒猶峭紅日薄侵羅綺	-13.0206
主惆悵後期空有鱗鴻寄紈素枕前淚	-13.0206
玉漏穿花銀河垂地月上	-13.0206
駐初程過春風十里盡薺麥青青自	-13.0206
汀洲漸生杜若	-13.0206
㳽	-13.0206
鶼	-13.0207
春盡燕嬌鶯姹	-13.0207
虚閣籠寒小簾通月暮色偏	-13.0207
曉雲空不與梨花同夢	-13.0207
城不見只見亂山無數韋	-13.0207
郎去也怎忘得玉環分付第一是早早	-13.0207
潰	-13.0207
剷	-13.0207
玉笥王沂孫聖與	-13.0207
篭	-13.0207
鷴	-13.0207
禇	-13.0208
蜀江春色濃如霧	-13.0208
覺從前皆非今是	-13.0208
杴	-13.0208
僛	-13.0208
搨	-13.0208
看玉做人間素秋千頃	-13.0208
人未賞都付與鶯和燕寂寞	-13.0208
今夜山深處斷魂分付潮回去	-13.0208
㳟	-13.0208
起卧沙禽野老林泉故王臺榭呼喚登臨	-13.0208
秦鏡偷換韓香天便教人霎時厮見何妨	-13.0209
晝景方永重簾花影好夢猶酣	-13.0209
一陣狂風和驟雨碧油紅斾錦障泥斜日	-13.0209
勑	-13.0209
風老鶯雛雨肥梅子	-13.0209
榆火催寒食愁一箭風快	-13.0209
鼓瑟湘靈促哀彈似林鶯嚦嚦山	-13.0209
顕	-13.0209
梢梢新月偃午	-13.0209
萹	-13.0209
休一丘一壑也風流不知筋力衰多少但	-13.0209
雨無限樓前滄波意誰	-13.0209
玉砌空餘三十六離宫塞笳驚起	-13.021
無言獨上西樓月如	-13.021
最苦夢魂今宵不到伊行問甚時	-13.021
矱	-13.021
非干厚情易歇	-13.021
僭	-13.021
虹梁水陌魚浪吹香紅衣半狼	-13.021
毀	-13.021
葉映如簧語	-13.021
泒	-13.021
定應愁沁花骨	-13.0211
魚傳尺素砌成此恨無重數郴江幸自	-13.0211
蕢	-13.0211
天上金屋銀屏歌吹競舉青	-13.0211
雅須知此景古今無價運巧思穿	-13.0211
斷無尋處可堪孤館閉春寒杜	-13.0211
樓西角斷虹明	-13.0211
咮	-13.0212
鰣	-13.0212
柿	-13.0212
樓上女擡粉面雲鬟相亞鈿	-13.0212
樓上晴天碧四垂樓前芳草接天涯	-13.0212
潯	-13.0212
捩	-13.0212
樓上愁登臨愁登臨海棠開後望到如今	-13.0212
皂羅特髻	-13.0212
劲	-13.0212
但莫管春寒醉紅自暖	-13.0212
薗	-13.0212
縹緲孤鴻影驚起却回頭有恨無人省	-13.0212
除祕書省正	-13.0213
三十六陂人未到水佩風裳無數翠葉吹	-13.0213
飲無緒方留戀處蘭舟催發執手相看	-13.0213
春夢紅塵多少竒才不	-13.0213
庭院深深深幾許楊	-13.0214
遶郴山為誰流下瀟湘去	-13.0214
藪	-13.0214
鎪	-13.0214
􁗒	-13.0214
應是夜寒凝惱	-13.0214
簾暮捲西山雨	-13.0214
𠺕	-13.0214
擄	-13.0214
望彭城清泗與淮通寄我相思千	-13.0214
黃叔暘云	-13.0214
􁰽	-13.0215
藺	-13.0215
徇	-13.0215
暪	-13.0215
閆	-13.0215
楊依舊欹斜葵麥迷	-13.0215
暝色入髙樓有人樓上愁	-13.0215
闋長亭暮王孫去萋萋無數南北東西路	-13.0215
匆匆春又歸去惜春長怕花開早何	-13.0215
騒	-13.0215
多情自古傷離别	-13.0215
偲	-13.0215
睥	-13.0215
戧	-13.0215
鋭	-13.0215
搘	-13.0215
斗酒彘肩風雨渡江豈不快哉被香山居	-13.0216
斜陽映山落斂餘紅猶戀孤城欄角	-13.0216
便勝却人間無數	-13.0216
情切望中地逺天	-13.0216
梟	-13.0216
斜陽只送平波逺	-13.0216
魲	-13.0216
􁊭	-13.0216
透薄羅裳無限思量	-13.0216
甦	-13.0216
上馬誰扶醒眠朱閣驚飈動	-13.0216
登臨送目正故國晚秋天氣	-13.0217
涸	-13.0217
橇	-13.0218
㳙	-13.0218
􁋚	-13.0218
愍	-13.0218
梢翠尾分開紅影芳徑芹泥雨潤愛貼地	-13.0218
𦦨	-13.0218
名王宵獵騎火一川明笳	-13.0218
梢青淺梅英紅小	-13.0218
冡	-13.0218
莉	-13.0218
舊香頓歇怨歌永瓊	-13.0218
痊	-13.0218
撗	-13.0218
桔	-13.0218
虵	-13.0219
起舞弄清影何似在人間轉朱閣低綺	-13.0219
午睡香銷餘篆一枕湖山千里夢正白蘋	-13.0219
無情有思縈損柔腸困酣嬌眼	-13.0219
悠悠嵗月天涯醉一分秋一分憔悴	-13.0219
花發狀元紅慢	-13.0219
似花還似非花也無人惜從	-13.0219
想人生美景良辰堪惜向其間賞心樂事	-13.022
便忘了天涯芳信愁損翠黛雙蛾日日畫	-13.022
亂分春色到人家	-13.022
蝤	-13.022
萬里尋郎去處又還被鶯呼起不恨	-13.022
垞	-13.0221
猻	-13.0221
坳	-13.0221
彘	-13.0221
襇	-13.0221
爭飛競誇輕俊紅樓	-13.0221
礶	-13.0221
芟	-13.0222
􁐨	-13.0222
收綸罷釣	-13.0222
度簾幕中間去年塵冷差池	-13.0222
䀨	-13.0223
鶺	-13.0223
時圓人有悲歡離合月有	-13.0223
的兵校每正雄威上應着	-13.0224
韮	-13.0225
欲住試入舊巢相並還相	-13.0225
相逢不飲空㱕去	-13.0225
碪	-13.0226
南陌脂車待發	-13.0228
簏	-13.0228
􁄪	-13.0229
平岸小橋千嶂抱	-13.0229
儂家鸚鵡洲邊住	-13.023
燐	-13.0231
蔾	-13.0231
剙	-13.0235
鎡	-13.0237
此詞與周詞校前	-13.0245
騑	-13.0266
來向此花前對酒不忍觸共粉淚	-13.0275
怏	-13.0891
罨	-13.1646
句七平韻後段十	-13.1743
獻香祝壽髙又	-13.176
㡡	-13.1762
而今漸老都忘却春風詞筆但怪得竹外	-13.1784
澇	-13.1789
臧	-13.1789
膨	-13.181
矰	-13.181
摳	-13.1811
涘	-13.1812
笴	-13.1813
倥	-13.1817
矧	-13.1819
潺	-13.1822
忱	-13.1823
懆	-13.1823
稡	-13.1824
皥	-13.1826
頥堂先生文集卷第	-13.1826
酺	-13.1829
誡	-13.183
甯	-13.1831
諍	-13.1835
濾	-13.1835
唓	-13.1837
簍	-13.1838
愐	-13.1838
瓴	-13.1841
髽	-13.1841
鰍	-13.1842
擋	-13.1844
硜	-13.1844
歕	-13.1845
瘳	-13.1845
稭	-13.1845
綳	-13.1845
虽	-13.1845
輜	-13.1846
嶸	-13.1846
哿	-13.1846
鑱	-13.1847
􁝴	-13.1848
穽	-13.1848
膂	-13.1848
脇	-13.1849
􁦲	-13.1849
手捲真珠上玉鈎	-13.1849
兖	-13.1849
抹忽覺天風吹海立好似春霆初發白馬	-13.1849
淰	-13.1849
褵	-13.185
綆	-13.185
霙	-13.185
龐	-13.185
晴紅欲染逺山過雨	-13.1851
鯁	-13.1851
蟾低下林表素娥青女	-13.1851
蠃	-13.1851
餻	-13.1851
􁁻	-13.1851
䗫	-13.1851
動飛花和雨著輕綃歸路碧迢迢	-13.1852
蠱	-13.1852
咆	-13.1852
桯	-13.1852
楙	-13.1852
咶	-13.1852
勍	-13.1853
俐	-13.1853
飴	-13.1853
􁸠	-13.1853
禺	-13.1854
柩	-13.1854
龍池澄碧芳意鱗鱗清時酒聖花神	-13.1854
掄	-13.1854
戡	-13.1855
纎細雨殢東風如困縈	-13.1855
稊	-13.1855
樟	-13.1855
綏	-13.1856
黝	-13.1856
大舸翩翩何許至元是	-13.1856
陽舊友便一笑相歡	-13.1856
鄔	-13.1856
翰林院檢討朱彞尊編	-13.1856
滏	-13.1857
緼	-13.1857
潸	-13.1857
勸酒昵昵琵琶恩怨語春	-13.1857
晝喚青娥小紅樓上	-13.1857
絍	-13.1857
姆	-13.1857
􁯤	-13.1857
陌上清明近行人難借問風流何	-13.1858
前過來明月照人方寸	-13.1858
暗藏弓履偷寄香翰明	-13.1858
烟盡處紅蓼水邊頭芳草有情夕陽無語	-13.1858
唵	-13.1858
憮	-13.1858
得便宜翻做了落便宜	-13.1858
檏	-13.1858
太液波翻披香簾捲月明風細	-13.1858
狷	-13.1858
曉醉西湖兩峰日日買花	-13.1859
天涯離恨江聲咽	-13.1859
顗	-13.1859
蕕	-13.1859
影無計重見啼春細雨籠愁	-13.1859
賫	-13.1859
紡	-13.1859
㳤	-13.1859
㮄	-13.1859
桅	-13.1859
矯矯千年鶴茫茫萬里風	-13.1859
了明肌雪春殿嬪娥魚貫列	-13.1859
長憶西湖湖水上盡日	-13.186
魘	-13.186
蚪	-13.186
飩	-13.186
臉人道愁來須殢酒無奈愁	-13.186
外雨絲絲將恨和愁都織玉骨西風添痩	-13.1861
不賈種豆種桃之禍	-13.1861
嬸	-13.1861
思量人否無緒無緒生怕黄昏疎雨	-13.1861
金井嘶騎不來銀燭暗枉	-13.1861
恪	-13.1861
知否抱幽恨難語何時共漁艇莫負滄浪	-13.1861
問沉香亭北何時召心未愜鬢先老	-13.1862
夜寒垂燈春淺匆匆時事如許倦	-13.1862
馬嘶人去船逐清波東注後夜最髙樓還	-13.1862
菌	-13.1862
􁑱	-13.1862
𦙍	-13.1862
懌	-13.1862
麼	-13.1862
藕花相向野塘中暗傷亡國清露泣香紅	-13.1862
平生行處墜鞭京洛解佩瀟湘此夕何年	-13.1862
冷雲迷浦倩誰喚玉妃起舞	-13.1862
洎	-13.1863
信知暮寒較淺行天入鏡做弄出輕	-13.1863
瞎	-13.1863
氣嫩菊黄深拒霜紅淺近	-13.1863
他佳約風流鈿車不到杜陵路	-13.1863
杜若吹沙愁損未歸眼信馬青樓去	-13.1863
㟳	-13.1863
袙	-13.1864
烈火燒祅廟	-13.1864
謾試着春衫還思纎	-13.1864
崎	-13.1864
芭蕉寒雨聲碎鏡華翳	-13.1864
去盡酒徒無人問惟有玉山自倒	-13.1864
懂	-13.1864
媻	-13.1865
㽜	-13.1865
驟驚春在眼借問何時委曲到山家	-13.1865
鳯林書院元詞	-13.1865
犒	-13.1865
香泥斜沁幾行斑東風巧盡	-13.1865
罐	-13.1865
歿	-13.1865
先指花梢教看却把心期細	-13.1865
翼陣勢起平沙	-13.1865
􁶋	-13.1865
浦等行人醉擁重衾載	-13.1866
眯	-13.1866
舊客京華長偎傍	-13.1866
樹隔離宫水平馳道湖山盡入	-13.1866
匣哀絃閉了無心重理相思調念故人牽	-13.1866
遊誰信盛狂中有離情忽到心頭向	-13.1866
悱	-13.1866
灤	-13.1866
今古俯仰昔人非誰似東坡老白首忘機	-13.1866
絣	-13.1866
絳綵嬌春鉛華掩晝占	-13.1866
釵至今冷落輕棄望極藍橋但暮雲千里	-13.1867
峯翠琴書倦鷓鴣喚起南	-13.1867
行人一棹天涯酒醒處殘陽	-13.1867
馬端臨經籍考載	-13.1867
誰勸東風臘裏	-13.1867
風簾映朱户鶯能舞花	-13.1867
知辜負秋多少聞道嶺南太守後堂深	-13.1868
蓴鱸依舊可是功名從來誤撫荒	-13.1868
縢	-13.1868
盡倒瓊壺酒	-13.1868
幾聲啼鴂十里揚州三生杜牧前事休	-13.1868
斸	-13.1868
還海道願謝公雅志莫相違西州路不應	-13.1868
泛商流羽一聲雲杪	-13.1868
嫩草方抽碧玉茵	-13.1868
蜩	-13.1869
兒閉紅紅白白簇花枝恰稱	-13.1869
罍良宵勝景語邦人莫惜徘徊休	-13.1869
十里青山逺潮平路	-13.1869
宜訪戴泛小棹越溪瀟	-13.1869
閹	-13.1869
漾暖紋波颭颭吹晴絲雨	-13.1869
笑我閉門愁寂亂花過隔院芸香滿地狼	-13.1869
説到得再相逢恰經年離别	-13.1869
遇當歌對酒競留連	-13.1869
􁏠	-13.1869
宓	-13.1869
風皓月相與忘形任人笑生涯泛梗飄萍	-13.1869
嫩梢相觸潤逼琴絲寒侵枕障蟲網吹	-13.1869
肯愛千金輕一笑	-13.1869
耍江城人悄初更打問繁華誰解再向天	-13.1869
火銷處近寒食	-13.1869
翠樹芳條颭	-13.1869
驄歸去長亭路芳塵起十二屏	-13.1869
人若梅嬌正愁横	-13.1869
傷心故人去後冷落新詩微雲	-13.1869
皓鶴奪鮮白鷴失素千里廣鋪寒野須信	-13.1869
破殘寒結伴踏青去好平頭鞋子小雙鸞	-13.1869
空城曉角吹入	-13.1869
迤邐漸迷鴛瓦好是漁人披得一	-13.1869
馬雕鞍醉襟惹亂花飛絮正輕寒輕	-13.187
梅翻雪江月正茫茫	-13.187
穠李夭桃是舊日潘郎親試春	-13.187
虫	-13.187
蚿	-13.187
諺	-13.187
征夫指予歸路門前笑語喧童稚嗟	-13.187
微近處丞相嗔狂	-13.187
踽	-13.187
空在紈素待花前月下見了不教歸去	-13.187
枮	-13.187
雙盤金縷鳯憶得前春有箇人人共花裏	-13.187
閉想見東風暗消肌雪辜負枕前雲雨	-13.187
髹	-13.187
殘夜長衾枕寒梧桐樹三更雨不道離情	-13.187
継	-13.1871
靛	-13.1871
拷	-13.1871
朣	-13.1871
春風惡劣把數枝香錦和鶯吹折	-13.1871
噆	-13.1871
枣	-13.1871
鍜	-13.1871
擁雙旌歸去海棠也似别君難一	-13.1871
橋倚風融漢粉坐月怨秦簫相思因甚到	-13.1871
怕喚起魚龍三更噴作前山雨	-13.1871
無寐引盃孤酌	-13.1871
夜鶴歎當時花竹今如此枝上露濺清淚	-13.1871
出花枝紅裊怎禁他孟婆合	-13.1871
冷月無聲念橋邊紅藥年年知為誰生	-13.1871
委吾心去留誰計神仙知在何	-13.1871
駕此一輪玉寒光零亂	-13.1871
浮向風前懊惱芳心一㸃寸眉兩葉禁甚	-13.1871
鴛鴦拂破蘋花影低低	-13.1872
瀋	-13.1872
娠	-13.1872
成空落日楚天無際凭	-13.1872
􁗀	-13.1872
大江東去浪淘盡千古風流人物故壘西	-13.1872
定知我今無魂可銷	-13.1872
城人隔罨畫園林溪紺碧算重	-13.1872
佳麗地南朝盛事誰記山圍故國	-13.1872
遥夜孤光難曉多少碎人腸處空	-13.1872
夢草池塘青漸滿海棠軒檻紅相亞	-13.1872
忘我兼忘世親戚無浪語琴書中有真味	-13.1872
涓涓暗谷流春水	-13.1872
訥	-13.1872
無處問愁到而今未盡分明都是	-13.1872
上有黄鸝我欲穿花	-13.1873
厭鶯聲到枕花氣動簾醉魂愁夢相半	-13.1873
芳如許軟紅塵裏鳴鞭鐙拾翠叢中勾伴	-13.1873
霧失樓臺月迷津渡桃源望	-13.1873
鷰	-13.1873
清野人語漸無聞空帶愁歸何意重	-13.1873
無言自倚修竹昭君不慣	-13.1873
蘄州簟展雙紋浪	-13.1873
誰空自倚清香未減風流不在人知	-13.1873
箬	-13.1873
南去北來何事蕩湘雲楚水目極傷心朱	-13.1873
念寓形宇内復幾時不自覺皇皇欲何之	-13.1873
芰荷池小長夏清暑燕引雛還鳩呼婦	-13.1873
初嫁了雄姿英發羽扇綸巾談笑間	-13.1873
春風不管盈盈早與安排金屋還	-13.1873
根行客南山尚相送只	-13.1873
蛸	-13.1873
屎	-13.1873
就夢葉葉碧雲分雨芳	-13.1873
囙	-13.1873
斌	-13.1873
燕語語難通這一	-13.1873
合金釵私語處算誰在	-13.1873
失春風一半早占取韶光共追	-13.1873
樓畫簾半捲東風軟春歸翠陌平莎茸嫩	-13.1873
翩然引去浮雲安在我自愛緑香紅	-13.1873
腷	-13.1873
香最嬌軟到清明時候百紫千紅花正亂	-13.1873
鵾	-13.1874
售	-13.1874
韶華不為少年留恨悠悠	-13.1874
看梅開未重唱梅邊新度曲催發寒梢凍	-13.1874
行人歸意速最先念流潦妨車轂怎奈向	-13.1874
落花已作風前舞又送	-13.1874
㯭	-13.1874
别郎容易見郎難	-13.1874
春將半清歌妙舞從頭按等芳時開宴	-13.1874
鶼被他羞看	-13.1874
猶厭言兵漸黄昏清角吹寒都在空城	-13.1874
道風披宿霧露洗	-13.1874
堂瓊榭兩地不同栽一般開	-13.1874
热	-13.1874
蚩	-13.1874
人吹恨上瑶樹	-13.1874
冄	-13.1874
辮	-13.1874
㷱	-13.1874
五更心欲折角聲吹落梅花月	-13.1874
帝遣阜安宗社人仰雍容廊廟盡	-13.1874
期驚倦旅遥知樓倚東風凝顰暗數	-13.1874
檻重臨醉倒清	-13.1874
眤	-13.1874
輕寒輕暖恨芳菲世界	-13.1874
旋平野拂雪金鞭欺寒茸	-13.1875
捶	-13.1875
愆	-13.1875
此心與東君同意後不如今	-13.1875
纇	-13.1875
祠誰繼風流後今古恨一搔首	-13.1875
霜欺無情燕子怕春寒輕失花	-13.1875
颸動翠葆露脚斜飛雲表因嗟念	-13.1875
東山歌酒待他年整頓乾坤事了為先生	-13.1875
恰如燈下故人萬里歸	-13.1875
蓞	-13.1875
驚壯志成虚	-13.1875
乍雨乍晴輕暖輕寒漸近賞花時節	-13.1875
寒沙淺水蕭蕭暮雨孤	-13.1875
為米折腰因酒棄家口體交相累	-13.1875
阑	-13.1875
徧九陌太平簫鼓乍鶯兒百囀	-13.1875
燈市草根青發	-13.1876
去年時正愁絶過却紅杏飛沉吟杏子	-13.1876
薄似當時將軍部	-13.1876
閒依露井笑撲流螢惹破	-13.1876
噭	-13.1876
氤	-13.1876
霪	-13.1876
春蘭可佩留待先生手自栽	-13.1876
涿	-13.1876
灕	-13.1876
勳	-13.1876
物直教生死相許天南地北雙飛客老翅	-13.1876
水風輕蘋花漸老月露冷梧葉飄	-13.1876
蕭條風物正堪愁	-13.1876
倸	-13.1876
理還亂是離愁别是一般滋味在心頭	-13.1876
三之一官裏事何時畢風雨外無多日相	-13.1876
橋當門巷燕燕鶯鶯飛舞	-13.1877
睡起流鶯語掩蒼苔房櫳向	-13.1877
與笑籬落呼燈世間兒女	-13.1877
藿	-13.1877
春翠偷聚淺約挼香深盟搗月誰是	-13.1877
嘶過畫橋東畔路	-13.1877
隃	-13.1877
橰	-13.1877
禽時度月上汀洲冷中流容與	-13.1877
鏑	-13.1877
未信與鶯兒燕子俱黄土千秋萬古	-13.1877
處梅梢半籠淡月	-13.1877
楯	-13.1877
齊開秋水太守無限行歌意擁麾幢光動	-13.1877
晴空玉皇端拱彤雲	-13.1877
淡天花落天花落千林瓊玖滿空	-13.1877
嘷	-13.1877
旹	-13.1877
爭先占新亭館惆悵年華暗換黯	-13.1877
接雄蜂雌蝶豈是無情知受了多少	-13.1877
談風月醉則恣眠芳草醒後亦佳	-13.1877
饕	-13.1878
騌	-13.1878
湖水動鮮衣	-13.1878
馬出都門正潮平洲渚	-13.1878
蘭非一笑千秋事浮世危機	-13.1878
障風映袖盈盈笑語前度劉郎重到訪	-13.1878
不許愁人不起清露晨流新桐初引多少	-13.1878
更潘岳儀容子建才	-13.1878
風蕭瑟邯鄲古道傷行客傷行客	-13.1878
絰	-13.1878
嬖	-13.1879
瓤	-13.1879
薿	-13.1879
屇	-13.1879
應也恨冷落瓊樓金闕禁漏迢迢	-13.1879
狽	-13.1879
送人猶未苦苦送春	-13.1879
明朝酒醒大江流滿載一船離恨向衡州	-13.1879
處悠然寒光亭下水連天飛起沙鷗一片	-13.1879
鶵	-13.1879
小徑紅稀芳郊	-13.1879
簥	-13.1879
情川途換目頓	-13.1879
梧桐更兼細雨到黄昏	-13.1879
津堠岑寂斜陽冉冉春無極念月榭	-13.1879
搔首更醉君家酒吟詩日日待春風及至	-13.1879
湘天濃暖記小江風月佳時屢約非	-13.1879
縁生别情銷鬢霜千	-13.1879
明月幾時有把酒問青天不知天上	-13.1879
想都開不惜春衣典盡只怕春光	-13.1879
毉	-13.188
輓	-13.188
㳂	-13.188
燈火烘春樓臺浸月良宵一刻千金錦	-13.188
經年底事長負清景暝入西山漸喚我一	-13.188
醉月小紅樓錦瑟箜篌夜來風雨	-13.188
瞤	-13.188
這早晚不来呵莫不是	-13.188
菉	-13.188
照野瀰瀰淺浪横空曖曖	-13.188
燈火漸人行天外一鈎殘月帶三星	-13.188
干外小中庭雨初晴	-13.188
不夜團團月上雲霄太平官府民物共逍	-13.188
滋味征鴻過盡萬千心事難寄樓上	-13.188
纎雲弄巧飛星傳恨銀漢迢迢暗度	-13.188
金環皓腕雪藕清泉瑩誰	-13.188
伴須信鸞絃易斷奈雲和再鼓曲終人逺	-13.188
春去不與人期弄夜色空餘滿地梨花雪	-13.188
螘	-13.188
䨓	-13.188
天涯流落思無窮既相逢却匆匆	-13.188
廊影下願天上人間占得歡娛年年今夜	-13.188
鬟堆枕香雲擁翠	-13.188
不如醉還醒醒而醉	-13.188
子報君百結丁香	-13.188
更那堪冷落清秋節今宵酒醒何處楊	-13.188
限江山别時容易見時難流水落花	-13.1881
樂遊原上清秋節	-13.1881
簫聲咽秦娥夢斷秦樓月秦樓月年年	-13.1881
筆猶記燕臺句知誰伴名園露飲東城	-13.1881
外蛛絲網落花也要留春住	-13.1881
障泥未解玉驄驕我	-13.1881
年時去處年時春色清明又近也却天涯	-13.1881
洗鉛霜都盡	-13.1881
劚	-13.1881
休文頓覺春衫褪清明近杏花吹盡薄暮	-13.1881
莬	-13.1881
跐	-13.1881
此恨無人共説還立盡黄昏寸心空切	-13.1881
絮風頭寒欲盡墜粉飄	-13.1881
纚	-13.1881
翠徑頓成愁結	-13.1881
處從今又添一段新愁	-13.1881
芘	-13.1882
水村殘葉舞愁紅	-13.1882
燈縱博雕鞍馳射誰記當年豪舉酒徒一	-13.1882
翠冷搔頭燕那能語恩怨紫簫逺記桃枝	-13.1882
解羅裳獨上蘭舟雲中誰寄錦書	-13.1882
要尋紅葉留詩	-13.1882
咫尺醉中歸夢直前度蘭舟送客雙鯉	-13.1882
明月窺人人未寢欹枕釵横	-13.1882
晫	-13.1882
平林漠漠煙如織寒山一帶傷心碧	-13.1882
犖	-13.1882
薝	-13.1882
東君消息還自南枝得素衣	-13.1882
爉	-13.1882
偶失龍頭望	-13.1882
明年花更好知與誰同	-13.1882
煙處問離巢孤燕飛過誰家故人	-13.1882
淮楚曠望極千里火雲燒空	-13.1882
無汗水殿風來暗香滿繡簾開一	-13.1882
惱人春色還上枝頭	-13.1883
歸路怨春不語算只有殷勤畫簷	-13.1883
君知東溪春近好同歸	-13.1883
綯	-13.1883
仭	-13.1883
儍	-13.1883
宫腰束素只怕能輕舉好築避風臺	-13.1883
常南望翠葆霓旌使行人到此忠憤氣	-13.1883
重見鏡裏花難折也應驚問近來多少華	-13.1883
問江路梅花開也未春到也須頻寄人	-13.1883
翠陌蘭橈雙槳急欲訪莫愁何處旗亭在	-13.1884
芳思交加栁下桃蹊	-13.1884
首一銷凝望歸鴻容與	-13.1884
揝	-13.1884
倚處待得月華生燕子飛	-13.1884
幾時來又不道流年暗中偷換	-13.1884
霜送曉寒侵被無寐無寐門外馬嘶人起	-13.1884
眙	-13.1885
佻	-13.1885
波聲拍枕長淮曉隙月窺人小無情	-13.1885
幽恨盡是愁邊新句倦登	-13.1885
庿	-13.1885
鼓悲鳴遣人驚念腰間	-13.1885
桃根桃葉一樹芳相接春到江南	-13.1885
落紅鋪徑水平池弄晴小雨霏霏	-13.1885
似水佳期如夢忍顧鵲橋歸路兩情若是	-13.1885
跂	-13.1885
沙堤香軟正宿雨初	-13.1885
清明時序料理春酲情緒憶	-13.1885
魂當此際香囊暗解羅帶輕分謾	-13.1886
解繡鞍緩引春酌不記歸時早	-13.1886
隷	-13.1886
旗么這一隊向	-13.1886
􁉤	-13.1886
院宇獨自行來行去花片無聲簾外雨	-13.1886
㝛	-13.1886
施逞英鋭最當先展	-13.1887
清只有霜華伴月明	-13.1887
偓	-13.1887
笑聲喧似簫鼓太平京國多歡大酺綺羅	-13.1887
來只有楊花和恨向東風滿	-13.1887
恨開遲早又飄零近今	-13.1887
䦘	-13.1887
處東風不動照花影一天春聚	-13.1888
􁵉	-13.1888
更聞商旅相呼	-13.1888
紛紛墜葉飄香砌夜寂	-13.1888
漸老紅英落盡青梅小	-13.1888
何事又惡任流光過却猶喜洞天自樂	-13.1888
婵	-13.1888
矍	-13.1888
缕	-13.1888
年年今夜月華如練長是人千里愁腸	-13.1888
此身雖在堪驚閒登小閣	-13.1888
桐吹緑庭院暗雨乍歇無端抱影銷	-13.1889
琵琶誰撥最可惜一片江山	-13.1889
衣底一時休斜風細雨轉	-13.1889
秋漸老蛩聲正苦夜將	-13.1889
道池亭多宴掩庭花長是驚落秦謳膩粉	-13.1889
西園夜飲鳴笳有華燈礙月飛	-13.1889
􁁺	-13.1889
縚	-13.1889
洤	-13.1889
照無眠不應有恨何事長向	-13.1889
情緒蕭索一片閒愁想丹青難	-13.1889
醎	-13.189
此花飛盡恨西園落紅難綴曉來雨過遺	-13.189
而今何事又對西風離别渚寒	-13.189
柔笑顰俱有風流貪與蕭郎	-13.189
寛春無限仙郎驕馬瓊林宴待捲上珠簾	-13.189
不見又思量見了還依舊	-13.1891
攖	-13.1891
初透東籬把酒黄昏後有暗香盈	-13.1891
躞	-13.1891
觀文殿大學士	-13.1891
䬃	-13.1892
故國不堪回首月明中雕	-13.1892
慕容嵓卿妻	-13.1893
薏	-13.1894
靦	-13.1894
瘐	-13.1895
瘠	-13.1895
跣	-13.1895
朂	-13.1896
投宿駸駸征騎飛雪滿孤村酒市漸	-13.1897
欤	-13.1898
暫借歌喉招舞	-13.1899
棱	-13.19
闍	-13.1901
同中書門下平章事兼樞	-13.1902
手還重執鎮日相看未足時	-13.1903
沆	-13.1903
調有平韻仄韻兩體平韻者	-13.1903
悖	-13.1904
曚	-13.1904
􁄀	-13.1904
夢裏不知身是客一晌貪歡	-13.1906
銳	-13.1914
匱	-13.1918
丶	-13.3752
怖	-13.376
鑛	-13.3772
憊	-13.3783
饜	-13.3793
鰐	-13.38
邯	-13.3807
耑	-13.3813
􁞬	-13.3813
鋙	-13.3813
酋	-13.3818
捥	-13.3819
諵	-13.3823
瘤	-13.3827
諛	-13.3828
璵	-13.3828
喈	-13.3828
腑	-13.383
泐	-13.3832
汰	-13.3834
萏	-13.3835
闚	-13.3835
昝	-13.3835
沚	-13.3836
畎	-13.3836
胾	-13.3837
娬	-13.3838
箇人人第五程尋好夢夢難成	-13.3839
塋	-13.3839
躇	-13.384
械	-13.384
賚	-13.384
噍	-13.384
牝	-13.384
丱	-13.384
羆	-13.384
冋	-13.3841
囓	-13.3841
腎	-13.3841
籛	-13.3841
碧染長空池似鏡	-13.3841
罶	-13.3842
疥	-13.3842
譛	-13.3843
逺送瀟湘客蘆花千里霜月白傷行色	-13.3843
唉	-13.3843
一道士道士驚曰此赤城韓夫人所	-13.3844
諞	-13.3844
櫃	-13.3844
堂前應到化工不管朱門閉也暗傳音耗	-13.3844
製水府蔡真君法駕	-13.3845
寗	-13.3845
褚	-13.3845
花春復秋啼猿何必近孤舟行客自多愁	-13.3845
錦帳重重捲暮霞屏風曲曲	-13.3846
玉虹遥挂望青山	-13.3846
愕	-13.3846
靿	-13.3846
青如滴問江南池館有誰來江南客	-13.3846
微映是空舟歌罷海西流	-13.3847
鎩	-13.3847
醬	-13.3847
祼	-13.3847
寒似水纎雨如塵一陣東風縠紋	-13.3847
洼	-13.3848
肄	-13.3848
好付樂事與他年少費盡	-13.3849
牲	-13.3849
凊	-13.3849
朝罷更聞宣賜	-13.3849
耄	-13.3849
椷	-13.3849
咊	-13.3849
風奈五更愁抱想	-13.3849
閒居小曲深坊	-13.385
風光又新一部仙韶九重鸞仗天上長春	-13.385
雲浪魚鱗小見皓月相看又透入清輝半	-13.3851
祲	-13.3851
婕	-13.3851
鞶	-13.3851
爁	-13.3851
誰作桓伊三弄驚破	-13.3852
栁帶榆錢又還過清	-13.3853
訃	-13.3853
紫雲吕同老和甫	-13.3853
綍	-13.3853
虺	-13.3853
吹香雪何勞玉斧金甌千古無缺	-13.3853
闕雲海塵清山河影滿桂	-13.3853
明日落花飛絮飛絮送行舟水東流	-13.3853
芭	-13.3854
榔四起沙鷗未落怕愁沾詩句碧袖一聲	-13.3854
圞	-13.3854
漓	-13.3854
狥	-13.3854
因思人事苦縈牽	-13.3854
嬿	-13.3854
柟	-13.3854
翠水瀛壺人不到比似世間秋	-13.3854
垂下簾旌凉波不動簟紋平	-13.3855
晝永稱瀟湘竿叟爛柯仙客	-13.3855
闃	-13.3855
䰀	-13.3855
赧	-13.3855
歸燕急水揺扇影	-13.3855
繡屏羅薦粉光新	-13.3855
釦	-13.3856
㓙	-13.3856
楊風送小鶯聲殘夢不成離玉枕堪愛	-13.3856
瘦難應接許多春色	-13.3856
聞津鼓湘江上催人還解春䌫亂紅萬	-13.3856
虱	-13.3856
隨風忽報秋縱使君來豈堪折	-13.3857
膄	-13.3857
鳫	-13.3857
鹹	-13.3857
擠	-13.3857
撩客恨甚貂裘重擁愁無數霜月白照離	-13.3857
􁩰	-13.3857
拂舊東君多少韶華都借看	-13.3857
有人偷記新闋當日誰幻銀橋阿瞞兒	-13.3857
日照玉樓花似錦樓上醉和春色寢	-13.3857
孤城風檣遥度天際	-13.3857
天氣嚴凝乍寒梅數枝嶺上開	-13.3857
依舊成春痩黄昏庭院	-13.3857
窓愁對秋空翠華一去寂無蹤	-13.3857
想空山桂香懸樹三年夢冷孤吟意短屢	-13.3857
筓	-13.3857
邙	-13.3857
佗	-13.3858
􁁬	-13.3858
迍	-13.3858
􂀧	-13.3858
綈	-13.3858
面重門深閉記彩鸞别後青	-13.3858
誰與細傾春碧舊情拘未定猶自學當年	-13.3858
先報陽和信息更雪月交光一色因追念	-13.3858
可惜年華婉娩西風初弄庭菊	-13.3858
恝	-13.3859
岌	-13.3859
癩	-13.3859
蕈	-13.3859
勦	-13.3859
晀	-13.3859
樓外天寒山欲暮溪邊雪	-13.3859
􁮺	-13.3859
看日近長安近玉帳同時英俊合離無	-13.3859
憐花可可夢依依九疑雲杳	-13.3859
髙望眼更那堪芳草連天飛梅弄晚	-13.386
秋風顫燈暈冷記初見樓低不放珠簾捲	-13.386
懈	-13.386
楂	-13.386
飰	-13.386
蘭媚一曲夕陽西下沉醉罷君試	-13.386
瀕	-13.386
喬木生雲氣訪中興英雄陳	-13.386
壅	-13.386
珥拂菱花如水學妝皆道稱時	-13.386
飄薄鶯花謝清和院落樹隂	-13.386
靄生深樹隂隂淡月籠沙	-13.386
酒淺但託意焦琴紈扇莫	-13.386
試問丹青手是怎生描得	-13.386
當路遊絲縈醉客	-13.386
􁒽	-13.3861
萄	-13.3861
􁂍	-13.3861
人生誰是無情者先生歸也但	-13.3861
朓	-13.3861
一規古蟾魄瞥過宣和	-13.3861
戰艦東風慳借便夢斷神州故里旋小築	-13.3861
杰	-13.3861
儇	-13.3861
嗟清江東注畫舸西流指長安日下愁宴	-13.3861
軟是將春揉做撩亂隨風到何處自	-13.3861
崐	-13.3861
混一過唐之數不為難陳橋驛孤兒寡婦	-13.3861
帝城五夜宴遊歇	-13.3861
解語念後約頓成輕負緩雕轡獨自歸	-13.3861
鸇	-13.3862
處把酒聽歌金縷斜風輕度濃香	-13.3862
迎空有千行流淚寄幽貞舞罷魚龍雲海	-13.3862
鶿	-13.3862
卯酒一杯徑醉又别君南浦	-13.3862
春江如席照晴空大舶夾雙櫓腸	-13.3862
玉團香塗雲抹月龍章	-13.3862
亸	-13.3862
勌	-13.3862
捽	-13.3862
麦	-13.3862
曲溪流水潺潺塞上清秋早寒一聲新	-13.3862
冮	-13.3863
墻啼鳥聲亂江城次第笙歌翠合綺羅香	-13.3863
燬	-13.3863
慽	-13.3863
襠	-13.3863
噓	-13.3863
水驚問是楊花是蘆花	-13.3863
鈿重上風鬟不禁月冷霜寒	-13.3863
馳隙流年恍如一瞬星霜	-13.3863
故人何處但依前流水小橋東記	-13.3864
氊幕元戎歌吹層樓髙峙	-13.3864
驚人困教人恨待到平明海棠應盡	-13.3864
暮色漸起戍角悲吟	-13.3864
清秋笛聲依約蘆花裏白鳥成	-13.3864
見要相逢得相逢須信靈犀中自有心通	-13.3864
㧓	-13.3864
秌	-13.3864
褌	-13.3864
悍	-13.3864
對春閒也應似舊盈盈秋水淡淡	-13.3864
春易老細葉舒眉輕花吐絮漸覺	-13.3864
小浸愁漪一春幽事有誰	-13.3864
惝	-13.3864
癡銅舊畫興亡事道人知否見了也華	-13.3864
禳	-13.3864
竸	-13.3864
消盡當年豪氣夢斷故國山川隔重重	-13.3864
處小立背秋千空悵望娉婷韻度	-13.3864
時候在天涯白露收殘月清風散曉霞	-13.3864
叢倒掛緑毛么鳯	-13.3864
霞垂地都城池苑誇桃李問東風何似不	-13.3864
㑹得青青如此日暮望	-13.3865
為百代詞曲之祖	-13.3865
恨春易去甚春却向揚州住	-13.3865
月波凝滴望玉壺天近了無塵隔翠眼	-13.3865
為君持酒勸斜陽且向花間留晚照	-13.3865
詩人老去鶯鶯在公子歸来燕燕忙	-13.3865
襕	-13.3865
歸髙陽人散寂寞狂蹤跡望京國空目	-13.3865
矚	-13.3865
讖	-13.3865
㪷	-13.3865
䥏	-13.3865
手躡屐上崔嵬放目蒼崖萬仞雲	-13.3865
暗喜春紅依舊歸來紫陌東頭金釵換酒	-13.3865
隰	-13.3865
小雨菊花寒斷雲低古	-13.3866
劄	-13.3866
干三面看秋空背	-13.3866
愁自醉念此際付與何人心事縱有楚柁	-13.3866
檻曲縈紅簷牙飛翠人姝麗	-13.3866
鍍	-13.3866
疎簾裏歌餘塵拂扇舞罷風掀袂人	-13.3866
何人月下臨風處起一聲羌笛離	-13.3866
前擬問雙燕來時曽過秦樓	-13.3866
許憂愁風雨一半相妨又何	-13.3866
有一分春在今朝猶自	-13.3866
賣小院重簾燕飛礙昨宵風雨	-13.3866
泯	-13.3866
褫	-13.3866
春色深重簾未捲影沉沉倚樓	-13.3866
蹤何在一池萍碎	-13.3866
喙	-13.3866
綣	-13.3866
喳	-13.3866
知憔悴損天涯行客楚峽雲	-13.3866
先生歸也杏花春雨江南	-13.3866
海棠枝上留得嬌鶯語雙燕	-13.3866
蕳	-13.3866
山扛鼎俱烏有英雄骨朽問	-13.3866
玉尊天外去多少事不言中	-13.3866
誰記盡道錦里繁華歎官	-13.3866
又吹暗雨為誰頻斷續相和砧杵候館	-13.3866
汀棹歌聲春水無風無浪春	-13.3867
蟫	-13.3867
恨湘雲人散楚蘭魂傷身是客愁為鄉	-13.3867
翠屏深香篆裊流水落花不管劉郎到	-13.3867
散後一鈎淡月天如水	-13.3867
斝	-13.3867
廳	-13.3867
鷂	-13.3867
睞	-13.3867
儸	-13.3867
獠	-13.3867
賍	-13.3867
罣	-13.3867
斗帳春寒起未忺天氣困人梳洗	-13.3867
網寂寂飛螢來去金鋪	-13.3867
臉鮮霞透櫻小杏青寒食後衣換縷金輕	-13.3867
舞時歌處動人心	-13.3867
漸細細香風滿院一枝折寄故人雖逺	-13.3867
吭	-13.3867
尋機杼曲曲屏山夜凉獨自甚情緒西	-13.3867
是蛟饞龍怒	-13.3867
汛	-13.3867
歌金縷歌罷花如雨翠羅衫上	-13.3867
裁春衫尋芳記金刀素手同在晴	-13.3867
熹	-13.3867
廋	-13.3868
斜陽天接水芳草無情更在斜陽外黯鄉	-13.3868
緑生時是落紅帶愁流	-13.3868
偷憐不成憐傷春玉瘦慵梳掠抛擲琵琶	-13.3868
卧桂影露凉時零亂多少寒螿神京逺	-13.3868
離歌不放行人去醉中扶上	-13.3868
塢村村暗溪流處處通此間何似玉霄峰	-13.3868
凄凄更聞私語露濕銅鋪苔侵石井都是	-13.3868
城寒食到今來海角逢春天涯	-13.3868
矧清風明月非錢買	-13.3868
执	-13.3868
愫	-13.3868
塞垣秋草又報平安好	-13.3868
玉瑩月枕横釵雲墜領有情無物不雙	-13.3868
便覺韓娥價減	-13.3868
波似染山如削遶嚴陵灘畔鷺飛魚躍	-13.3868
砉	-13.3868
絲長御溝澄碧水轉池塘	-13.3868
更朦朧桃李小園空阿誰猶	-13.3868
燕臺句老難道離别小徑吹衣	-13.3868
禁街行樂暗塵香拂面皓月	-13.3868
鴃	-13.3868
幽蘭歌斷同雲收盡别有	-13.3869
忍輕諾别館清閒避炎蒸豈須河朔但	-13.3869
閬苑賣薪買酒立馬傳觴昇平重見誰識	-13.3869
禊事當時座上皆豪逸到如今	-13.3869
行行又入笙歌裏人在珠簾第幾重	-13.3869
不到書成誰與目盡青天	-13.3869
手旗亭酒香梅小向登臨長是傷春滋味	-13.3869
絲千縷池上曉光分宿霧日近羣芳易吐	-13.3869
與蕭郎别後事事俱嫌短歌新曲無心理	-13.3869
去難留話未了早促登	-13.3869
嘅	-13.387
京人去秋蕭索畫簷鵲起梧桐落	-13.387
邳	-13.387
􁋊	-13.387
啀	-13.387
展湘簟雙紋生細波	-13.387
粘簾竹郵亭無人處	-13.387
過漸燕子引教雛飛	-13.387
門外樓頭悲恨相續千古憑髙對此謾嗟	-13.387
㸃㸃啼紅雨此去馬蹄何處	-13.387
狂竊香俊雅無計拘管青絲絆馬紅	-13.387
破青萍排翠藻立蒼苔窺魚笑汝癡計不	-13.387
芃	-13.387
陽近又是搗衣秋奈愁入庾腸老侵潘鬢	-13.387
住想當年金戈鐵馬氣	-13.387
光芒十五年間真夢裏何事長庚對月獨	-13.387
恰便似黄葉落東流逝水	-13.387
洶湧三江銀濤無際	-13.387
淡處還他滋味多	-13.387
熄	-13.387
燈昏哽咽夢中語是他春帶愁	-13.387
萬里如虎元嘉草草封狼居胥	-13.387
被雨打風吹去斜陽草樹尋常巷陌人道	-13.387
贏得倉皇北顧四十三年望中猶記	-13.387
顙	-13.387
禁宿酒天涯寒食歸期莫數芳辰誤幾度	-13.387
南逺人何處鷓鴣啼破春愁長記曽陪燕	-13.387
廢沼荒丘疇昔明月清風此夜人世幾	-13.387
瑤臺曲又却是風敲竹石榴半吐紅	-13.387
㑹難尋縹緲髙城風露爽獨倚危	-13.387
問音信道徑底花隂時認鳴鑣也擬臨朱	-13.387
畤	-13.387
耎	-13.3871
苡	-13.3871
豌	-13.3871
悃	-13.3871
餔	-13.3871
要人先醉問道明朝行也未猶自記	-13.3871
謐	-13.3871
鑑新怨單衣欲試寒猶淺羞衾	-13.3871
㕙	-13.3871
問凄風愁露剗地東西留鞭換佩怕匆匆	-13.3871
媚臉籠霞芳心泣露不肯為雲雨金波影	-13.3871
弈	-13.3871
理絲簧欲説又休慮乖芳信未歌先咽愁	-13.3871
臉長嘯亦何為醉舞下山去明月逐人歸	-13.3871
霧惟見廣寒門外青無重數不知是水	-13.3871
飯溪童供筍菜	-13.3871
鱗初躍愔愔門巷桃樹紅纔約	-13.3871
喞	-13.3871
方榴花弄色萱草成窩	-13.3871
獸鐶半掩鴛甃無塵庭院瀟	-13.3871
翠當是時河朔飛觴避炎蒸想風流堪繼	-13.3871
欄玉砌應猶在只是朱顔改問君	-13.3871
竹杖更芒鞋朱朱粉粉野蒿開誰家寒食	-13.3871
遨頭小簇行春隊	-13.3871
一葉扁舟誰念我今日天涯飄泊平楚南	-13.3871
手燈夜初過早共約又爭信漂泊	-13.3871
曉空暗想衆裏飛瓊餘香冷猶在小	-13.3871
涼新浴手弄生綃白團扇扇手一時似	-13.3871
透青羅薄檣燕低飛人去後依舊湘城簾	-13.3871
灰飛煙滅故國神遊多情應	-13.3871
觶	-13.3871
難忘芳樽頻勸峭寒新退玉漏猶長	-13.3871
种	-13.3871
佾	-13.3871
紅糝鋪地門外荆桃如菽夜遊共誰秉燭	-13.3871
靧	-13.3872
弛	-13.3872
䜿	-13.3872
鷯	-13.3872
人立盡梧桐影誰伴我對鸞鏡	-13.3872
變韶景都門十二元宵三五	-13.3872
􁰵	-13.3872
今年元夜時月與燈依舊不見去年人淚	-13.3872
屜	-13.3872
月明烏鵲飛新愁知幾	-13.3872
有夜來皓月照伊自睡	-13.3872
甚矣吾衰矣悵平生交	-13.3872
餘光是處散離思最憐香靄霏霏牽衣	-13.3872
花邊近來重見身學垂楊	-13.3872
瓊苑金池青門紫陌似雪楊花滿路雲日	-13.3872
寒色戰菰蒲舊信江南好景一萬里輕	-13.3872
西風起邊城一片離索馬嘶漸逺人	-13.3872
時休飛絮落花時候一登樓便做春江都	-13.3872
緹	-13.3872
鋩	-13.3872
翠條柔弱花頭重	-13.3872
雲鬢亂未忺整江南舊事休重省	-13.3872
夜永對景那堪屈指暗想從前未名未	-13.3872
寒瑩晩空㸃青鏡斷霞孤鶩對客館深	-13.3872
滿城風雨黄花無數碧雲欲暮	-13.3872
燈照夜萬井禁城行樂春	-13.3872
[...]
