<unk>	0
<s>	0
</s>	0
之	-4.48953
以	-4.66428
為	-4.74866
/	-4.98459
(	-5.03544
)	-5.0542
也	-5.10225
而	-5.2221
者	-5.4957
有	-5.50201
其	-5.51894
曰	-5.52161
,	-5.52467
於	-5.56789
王	-5.73622
及	-5.80162
與	-5.80488
)(	-5.80585
不	-5.91296
至	-5.91992
人	-5.93566
上	-6.0358
自	-6.05415
子	-6.06768
則	-6.10142
一	-6.11613
時	-6.14017
中	-6.14871
事	-6.16317
大	-6.16546
使	-6.18641
言	-6.21482
皆	-6.24118
無	-6.26124
在	-6.26652
又	-6.26975
行	-6.27146
令	-6.29427
等	-6.30746
。	-6.32517
所	-6.32748
故	-6.35669
乃	-6.36149
▁	-6.40595
三	-6.43514
出	-6.44389
下	-6.44719
官	-6.4679
復	-6.48985
後	-6.48992
于	-6.49485
入	-6.50209
軍	-6.50765
立	-6.51104
二	-6.51629
從	-6.55219
州	-6.55489
今	-6.55561
見	-6.55965
道	-6.58392
得	-6.62056
帝	-6.62122
如	-6.63279
知	-6.64105
命	-6.66232
遂	-6.66689
將	-6.67007
用	-6.67135
相	-6.684
詔	-6.68605
公	-6.6905
文	-6.70051
此	-6.70982
兵	-6.71065
同	-6.7219
亦	-6.7246
謂	-6.73152
城	-6.74998
置	-6.76198
反	-6.77538
國	-6.77717
臣	-6.78441
四	-6.78475
當	-6.78932
生	-6.79627
初	-6.7997
日	-6.80372
師古曰	-6.8286
山	-6.8322
縣	-6.84428
因	-6.8454
欲	-6.84939
五	-6.85015
平	-6.86904
張	-6.87661
作	-6.8805
多	-6.8849
安	-6.88515
非	-6.89292
封	-6.89579
矣	-6.89754
分	-6.90117
即	-6.902
請	-6.90952
正	-6.90974
加	-6.91663
若	-6.91748
李	-6.91968
書	-6.92129
方	-6.93066
水	-6.93307
字	-6.94027
名	-6.94124
遷	-6.94421
民	-6.94678
天	-6.95182
已	-6.95584
南	-6.96128
成	-6.96261
可	-6.97273
云	-6.97986
進	-6.98011
卒	-6.98299
遣	-6.98593
齊	-6.98899
周	-6.99784
改	-7.00571
前	-7.00613
漢	-7.01229
通	-7.01842
郡	-7.03081
陳	-7.03685
長	-7.03985
諸	-7.04802
明	-7.04839
重	-7.05364
居	-7.05554
是	-7.05876
傳	-7.05892
數	-7.059
音	-7.06086
元	-7.0616
法	-7.07133
馬	-7.07331
然	-7.07943
地	-7.08071
禮	-7.08454
既	-7.08842
守	-7.08899
定	-7.08949
本	-7.09106
先	-7.09275
死	-7.09665
常	-7.12516
西	-7.12548
主	-7.12616
六	-7.13207
還	-7.13503
東	-7.13744
焉	-7.13826
侯	-7.14466
奏	-7.14499
聞	-7.14698
劉	-7.15509
取	-7.15893
歸	-7.16067
北	-7.16513
並	-7.16593
未	-7.17448
去	-7.1774
必	-7.18842
義	-7.18856
君	-7.19146
賜	-7.19486
内	-7.19663
徳	-7.19746
降	-7.21018
宜	-7.21141
或	-7.21247
兼	-7.21501
金	-7.21753
除	-7.22184
雖	-7.2246
武	-7.25075
拜	-7.25358
始	-7.26119
合	-7.26225
乎	-7.26464
秦	-7.26484
度	-7.26755
以為	-7.26848
實	-7.26855
宋	-7.27412
晉	-7.28391
殺	-7.28542
何	-7.29146
趙	-7.29173
師	-7.29423
求	-7.29947
樂	-7.30445
天下	-7.30478
發	-7.30556
舉	-7.31502
且	-7.31709
世	-7.32141
家	-7.32156
我	-7.32618
各	-7.33483
授	-7.33513
梁	-7.33669
九	-7.34156
門	-7.34335
髙	-7.35099
少	-7.35144
陽	-7.35179
外	-7.35241
路	-7.35433
起	-7.35442
服	-7.35766
屬	-7.36352
來	-7.36792
府	-7.37132
心	-7.37651
○	-7.37942
石	-7.38285
八	-7.38709
次	-7.38967
凡	-7.39127
善	-7.39241
奉	-7.39685
魏	-7.39854
能	-7.4002
稱	-7.40279
坐	-7.40413
治	-7.40674
信	-7.41095
司	-7.4204
盡	-7.42048
年	-7.42132
應	-7.42196
和	-7.42201
爲	-7.42636
賊	-7.42675
議	-7.43783
七	-7.43787
親	-7.43997
率	-7.44063
古	-7.4412
興	-7.45215
白	-7.45536
罷	-7.45581
父	-7.45856
㑹	-7.46005
小	-7.46611
制	-7.46835
都	-7.46971
食	-7.47008
廣	-7.47245
深	-7.47331
士	-7.47815
受	-7.48585
直	-7.48761
兩	-7.48897
經	-7.49031
領	-7.4917
三年	-7.4938
衆	-7.49533
十	-7.49926
朝	-7.50125
益	-7.50432
引	-7.50557
神	-7.51541
氏	-7.51975
代	-7.52628
吾	-7.52934
田	-7.53099
元年	-7.53135
論	-7.53302
思	-7.53449
光	-7.53695
召	-7.53757
|	-7.538
位	-7.54184
太祖	-7.54464
易	-7.54551
問	-7.54602
意	-7.55977
省	-7.56048
志	-7.5627
尚	-7.56581
弟	-7.56951
按	-7.56959
建	-7.57032
甚	-7.57709
錢	-7.57811
河	-7.58557
唐	-7.58928
夫	-7.59242
不可	-7.59369
表	-7.59863
逺	-7.60099
楚	-7.60534
惟	-7.60629
節	-7.60963
任	-7.612
攻	-7.61289
口	-7.61585
猶	-7.61728
廢	-7.61744
歴	-7.61892
轉	-7.62246
處	-7.62485
過	-7.62572
亡	-7.62996
宗	-7.63102
不能	-7.63151
景	-7.6324
宫	-7.63417
望	-7.64402
二年	-7.64458
計	-7.64817
餘	-7.6496
耳	-7.65305
舊	-7.66232
政	-7.66339
将	-7.66485
陵	-7.66773
清	-7.68159
卿	-7.68273
風	-7.68364
章	-7.68704
理	-7.6872
於是	-7.68781
伯	-7.68975
留	-7.69289
失	-7.69397
更	-7.69446
告	-7.70141
權	-7.70284
身	-7.70408
開	-7.70497
左	-7.7058
龍	-7.71163
月	-7.71241
止	-7.71736
功	-7.71791
朔	-7.72166
州刺史	-7.72322
鎮	-7.72681
給	-7.72719
母	-7.7273
許	-7.72736
異	-7.72744
吏	-7.73007
孫	-7.7324
難	-7.73723
新	-7.73796
辭	-7.73898
宣	-7.74
修	-7.74064
/)	-7.75084
敗	-7.75123
流	-7.75366
每	-7.75664
集	-7.75712
并	-7.76336
謀	-7.76496
土	-7.76612
物	-7.7691
氣	-7.77095
太子	-7.77229
左右	-7.77418
楊	-7.77437
仍	-7.7752
亂	-7.77553
間	-7.77811
利	-7.77937
不得	-7.78018
破	-7.78063
執	-7.78096
嘗	-7.78408
爾	-7.78694
戰	-7.78748
車	-7.78788
致	-7.78908
女	-7.79014
貴	-7.79519
充	-7.79594
幸	-7.79682
近	-7.79699
獨	-7.79771
右	-7.79903
天子	-7.80174
學	-7.8053
史	-7.80596
據	-7.80729
仁	-7.81026
終	-7.81146
徙	-7.81246
承	-7.81671
首	-7.82009
固	-7.82217
將軍	-7.82334
昭	-7.82343
往	-7.82355
圖	-7.82543
觀	-7.82762
布	-7.82826
部	-7.82938
便	-7.83055
就	-7.83332
黄	-7.83734
悉	-7.84084
德	-7.8417
疾	-7.84452
祖	-7.84921
夏	-7.85212
江	-7.85242
誅	-7.85391
監	-7.85822
嵗	-7.8615
注	-7.8622
罪	-7.86274
紀	-7.86519
設	-7.86581
獻	-7.86665
崇	-7.87047
俱	-7.8719
載	-7.87212
四年	-7.87323
星	-7.87406
好	-7.87459
免	-7.87521
掌	-7.8785
備	-7.88143
力	-7.88514
寧	-7.89001
鄭	-7.89417
后	-7.89445
比	-7.89761
共	-7.90196
保	-7.90539
賢	-7.90966
退	-7.90997
韓	-7.91077
别	-7.9115
選	-7.91307
濟	-7.91316
收	-7.92219
被	-7.92308
威	-7.92375
臨	-7.93045
延	-7.93141
高	-7.933
遇	-7.93458
皇帝	-7.9353
變	-7.93678
典	-7.94112
交	-7.94248
差	-7.94292
恐	-7.94488
擊	-7.94642
吳	-7.94772
玉	-7.94875
絶	-7.95256
解	-7.95402
職	-7.95417
朝廷	-7.95491
御	-7.95633
懐	-7.9566
衣	-7.95683
順	-7.95714
夜	-7.95722
太守	-7.95923
髙祖	-7.96286
陛下	-7.96804
胡	-7.9682
哉	-7.97487
撰	-7.97528
具	-7.98097
華	-7.98157
徐	-7.98399
列	-7.98449
户	-7.98553
忠	-7.98938
素	-7.99042
推	-7.9918
儀	-7.99243
殿	-7.99248
視	-7.9925
誠	-7.99456
衛	-7.99509
慶	-7.99578
號	-7.99594
聖	-7.99844
五年	-7.99906
納	-8.00006
靈	-8.00064
克	-8.00195
聲	-8.00271
犯	-8.00537
尋	-8.01187
説	-8.0152
由	-8.01633
敬	-8.01826
著	-8.01868
禁	-8.01922
語	-8.02279
雲	-8.02475
送	-8.02875
昌	-8.02989
所以	-8.03759
嘉	-8.04187
嚴	-8.04222
盛	-8.04357
營	-8.04452
會	-8.04484
約	-8.0459
諸侯	-8.04681
隨	-8.05031
尊	-8.05102
依	-8.05272
萬	-8.05841
皇后	-8.05856
勝	-8.05896
升	-8.06792
恩	-8.07368
薨	-8.07471
曹	-8.07479
尚書	-8.07512
廟	-8.07745
孝	-8.07773
越	-8.07915
減	-8.08152
永	-8.08189
嗣	-8.08222
蕭	-8.08596
特	-8.08778
邑	-8.09041
九月	-8.09287
伏	-8.09429
顯	-8.09464
海	-8.09499
汝	-8.09799
青	-8.10035
願	-8.10123
百	-8.10161
登	-8.10302
乞	-8.10526
業	-8.10569
私	-8.10719
性	-8.10794
一人	-8.1096
八月	-8.1099
木	-8.11071
里	-8.11099
造	-8.11099
祭	-8.11274
六年	-8.11336
宿	-8.11363
良	-8.1139
咸	-8.11702
寳	-8.1175
燕	-8.11757
謝	-8.1199
契丹	-8.12186
積	-8.12385
詣	-8.12395
三月	-8.13173
酒	-8.13218
要	-8.1326
再	-8.13278
申	-8.13413
魯	-8.13711
追	-8.13867
朕	-8.13952
朱	-8.13973
闕	-8.14056
但	-8.14189
室	-8.14441
騎	-8.14441
疑	-8.14479
斯	-8.14788
色	-8.14951
病	-8.15109
福	-8.15295
遣使	-8.15496
火	-8.15574
圍	-8.15837
對	-8.15952
畢	-8.16057
唯	-8.16115
厚	-8.16227
太后	-8.16228
獲	-8.16474
移	-8.16603
存	-8.17034
考	-8.17139
惡	-8.1738
遺	-8.17552
輕	-8.17641
皇	-8.1778
十二月	-8.17887
隂	-8.17962
臺	-8.18513
末	-8.18554
連	-8.18836
十一月	-8.19335
太宗	-8.19351
足	-8.19465
情	-8.20112
籍	-8.20271
象	-8.20454
五月	-8.20488
務	-8.206
二人	-8.20705
持	-8.20788
全	-8.21088
百姓	-8.21113
果	-8.21234
案	-8.2125
極	-8.21348
邪	-8.21392
襲	-8.21482
達	-8.218
補	-8.21967
動	-8.21975
伐	-8.21975
化	-8.22309
累	-8.22334
太	-8.22393
賞	-8.22431
、	-8.2301
仲	-8.23163
報	-8.23523
才	-8.23695
六月	-8.23838
運	-8.23975
叛	-8.24063
討	-8.24156
容	-8.24595
羅	-8.25255
頭	-8.25508
怒	-8.25872
教	-8.25898
附	-8.2615
迎	-8.26166
:「	-8.26331
榮	-8.26506
冠	-8.26658
試	-8.26678
豈	-8.26693
滅	-8.26722
戸	-8.26972
殷	-8.27075
祀	-8.27147
世祖	-8.27285
鄉	-8.27316
斬	-8.27367
屯	-8.27465
總	-8.27489
散	-8.27699
林	-8.27998
敵	-8.28035
厯	-8.28215
老	-8.28521
班	-8.28524
蓋	-8.29042
祠	-8.29047
曲	-8.29139
頗	-8.29952
懼	-8.30001
帥	-8.30004
牛	-8.30074
喜	-8.30151
簡	-8.30438
郭	-8.31058
七年	-8.31096
乘	-8.31098
參	-8.31107
薦	-8.31193
急	-8.31342
刑	-8.31349
結	-8.31887
春	-8.32599
客	-8.33029
宮	-8.33034
十二	-8.3332
傷	-8.33386
而不	-8.33441
資	-8.33471
恭	-8.33528
繼	-8.33596
蜀	-8.33701
塞	-8.33771
類	-8.33794
雜	-8.33826
格	-8.33965
斷	-8.34513
假	-8.34754
其後	-8.34785
康	-8.34806
妻	-8.34858
川	-8.35221
商	-8.35237
期	-8.35566
丞相	-8.36003
春秋	-8.3602
體	-8.36239
河南	-8.36344
走	-8.3664
久	-8.36678
記	-8.36774
密	-8.3693
虜	-8.36987
叔	-8.37151
夷	-8.37277
乗	-8.37435
隆	-8.3766
半	-8.37691
贈	-8.37826
原	-8.37836
美	-8.37874
顧	-8.37879
從之	-8.38107
向	-8.38109
彊	-8.38242
博	-8.38385
侍中	-8.38391
澤	-8.38792
徒	-8.38983
十月	-8.38984
器	-8.39153
說	-8.39204
詩	-8.39577
休	-8.39582
歲	-8.3961
闗	-8.39745
市	-8.39859
質	-8.3996
京師	-8.40017
棄	-8.40163
不敢	-8.40258
滿	-8.40843
律	-8.40884
調	-8.41019
之後	-8.41605
聽	-8.41811
。」	-8.41874
彼	-8.41955
吉	-8.42044
放	-8.42069
邊	-8.42144
郎	-8.42501
徴	-8.42617
略	-8.42688
射	-8.42755
兄	-8.43032
刻	-8.43044
豐	-8.43513
憂	-8.43528
八年	-8.43682
副	-8.43889
如此	-8.43894
決	-8.44163
以下	-8.44179
害	-8.44253
司馬	-8.44262
端	-8.44348
手	-8.44365
宰相	-8.44549
人也	-8.44617
奔	-8.44633
赤	-8.44761
昔	-8.44808
来	-8.44936
舍	-8.44985
察	-8.45147
二月	-8.45167
赴	-8.45228
高祖	-8.4524
精	-8.45622
適	-8.45681
第	-8.46074
薄	-8.46152
爵	-8.4672
太尉	-8.46951
紹	-8.47076
目	-8.47119
。|	-8.4728
憲	-8.47489
蘇	-8.47518
甲	-8.47737
統	-8.47791
獄	-8.47833
杜	-8.47962
鹽	-8.48127
眀	-8.48149
七月	-8.48219
貫	-8.48287
二十	-8.48303
孟	-8.48632
符	-8.48714
丁	-8.48944
愛	-8.49059
秋	-8.49097
役	-8.49187
大臣	-8.49212
損	-8.49369
慮	-8.49409
惠	-8.49435
指	-8.49502
是時	-8.49508
烏	-8.49564
大夫	-8.49689
真	-8.49776
負	-8.49788
草	-8.49813
逆	-8.50074
賦	-8.50201
微	-8.50267
委	-8.50744
危	-8.50765
肅	-8.50923
竝	-8.51089
匈奴	-8.51107
羣	-8.51379
候	-8.51453
莫	-8.51701
族	-8.51844
戎	-8.52133
呼	-8.52192
息	-8.52213
施	-8.52232
勿	-8.52321
待	-8.52348
習	-8.52395
葬	-8.52813
離	-8.5283
寺	-8.53011
喪	-8.53076
増	-8.53386
俗	-8.53423
阿	-8.53437
寵	-8.5364
京	-8.53801
游	-8.54259
大將軍	-8.54321
姓	-8.5443
温	-8.54482
崔	-8.54485
有司	-8.54581
角	-8.5465
英	-8.54888
懷	-8.5497
丘	-8.55014
智	-8.55048
怨	-8.55212
彦	-8.55902
勞	-8.56161
徵	-8.56227
僧	-8.56231
季	-8.56377
雄	-8.56478
輔	-8.56559
賀	-8.56745
房	-8.5682
督	-8.56848
孔	-8.56887
責	-8.5697
兒	-8.57118
關	-8.57477
𤣥	-8.57611
訓	-8.57632
謂之	-8.57717
辟	-8.58348
武帝	-8.58386
養	-8.58524
九年	-8.58531
而已	-8.58725
院	-8.58726
配	-8.59096
脩	-8.5913
蔡	-8.59336
扵	-8.59434
即位	-8.59735
鼓	-8.59815
寇	-8.60079
盧	-8.60172
遵	-8.60225
稍	-8.60297
帶	-8.60372
䇿	-8.60598
疏	-8.60752
飛	-8.60941
兮	-8.6096
禍	-8.61463
暴	-8.61647
佐	-8.6188
雅	-8.61899
聚	-8.62037
釋	-8.62251
管	-8.62265
十年	-8.62291
無所	-8.62328
勸	-8.62507
河東	-8.62516
之事	-8.62545
署	-8.62546
讓	-8.62605
感	-8.62656
接	-8.6299
衞	-8.63047
專	-8.6314
增	-8.63169
條	-8.63267
覆	-8.6339
征	-8.63996
哀	-8.64136
例	-8.6424
茂	-8.64263
玄	-8.64415
揚	-8.64442
招	-8.64637
垂	-8.64812
救	-8.64963
雍	-8.65119
遼	-8.65125
四月	-8.65175
均	-8.65245
然後	-8.65279
毋	-8.65292
富	-8.65294
司徒	-8.65491
庫	-8.65668
以上	-8.65711
明年	-8.65772
羣臣	-8.65805
振	-8.6591
逐	-8.6592
之地	-8.6605
縱	-8.66073
逹	-8.6611
奪	-8.66163
折	-8.66275
苦	-8.66492
屢	-8.66599
虚	-8.66774
節度使	-8.66811
洪	-8.66904
詳	-8.66927
竒	-8.67073
洛	-8.67146
歌	-8.67182
允	-8.67297
式	-8.67422
畧	-8.67529
尤	-8.67581
支	-8.67778
夀	-8.67818
樹	-8.67916
米	-8.67979
須	-8.6834
勢	-8.68394
謹	-8.68539
横	-8.68569
弱	-8.68606
傅	-8.68715
辰	-8.68796
工	-8.69103
避	-8.69213
不知	-8.69227
竟	-8.69266
爭	-8.69328
違	-8.6945
長史	-8.69566
量	-8.69584
出為	-8.69619
勲	-8.69695
飲	-8.70003
至於	-8.70094
兄弟	-8.70129
術	-8.70136
淮南	-8.7015
序	-8.70349
虞	-8.70416
鼎	-8.70468
寶	-8.7049
丞	-8.70647
弗	-8.70777
輒	-8.70786
刺史	-8.70794
者也	-8.71004
衡	-8.71053
泉	-8.71382
助	-8.71432
貞	-8.71471
泰	-8.71663
庶	-8.71706
革	-8.71774
太原	-8.71867
千	-8.71962
勇	-8.71976
贊	-8.72365
殺之	-8.72457
不足	-8.72739
由是	-8.72746
旗	-8.72765
崩	-8.72874
强	-8.72935
藏	-8.72936
堅	-8.72941
卷	-8.73002
秩	-8.73024
沈	-8.7329
河北	-8.73355
将軍	-8.73537
野	-8.73757
寛	-8.73808
國公	-8.7389
述	-8.73966
空	-8.74016
窮	-8.7411
勒	-8.74259
其事	-8.7427
冬	-8.74423
識	-8.74664
陸	-8.74851
他	-8.74936
誤	-8.74965
侍	-8.75032
可以	-8.75283
魚	-8.75311
患	-8.75336
銀	-8.75461
亭	-8.75462
超	-8.75584
種	-8.75738
隋	-8.75875
𢎞	-8.7603
諫	-8.76081
判	-8.76231
偽	-8.76249
撫	-8.76249
穆	-8.7632
對曰	-8.76356
翼	-8.76356
殊	-8.76432
戒	-8.7659
百官	-8.76593
亮	-8.76694
諭	-8.7693
毁	-8.77013
回	-8.77057
堂	-8.77152
虎	-8.77213
世宗	-8.77226
陷	-8.7727
費	-8.77288
宻	-8.77314
一日	-8.7739
衍	-8.77473
築	-8.77503
諸軍	-8.77578
限	-8.77602
淵	-8.77706
賈	-8.77711
宴	-8.77721
形	-8.77789
烈	-8.77832
雨	-8.77898
聞之	-8.77942
庭	-8.78004
羽	-8.78382
畫	-8.78762
都督	-8.7882
尉	-8.7905
遠	-8.79406
擢	-8.79744
蕃	-8.79916
希	-8.80008
長安	-8.80267
公主	-8.80354
戍	-8.80433
谷	-8.80608
占	-8.80664
録	-8.80695
前後	-8.80839
之所	-8.80846
到	-8.80882
篇	-8.81033
杖	-8.81087
姦	-8.81106
己	-8.81222
程	-8.81279
屈	-8.8133
蠻	-8.8136
皇太子	-8.81506
優	-8.81555
予	-8.81626
漸	-8.81869
單于	-8.82082
防	-8.82124
援	-8.82143
之間	-8.82383
牧	-8.82537
財	-8.82773
丹	-8.82896
羊	-8.82906
仕	-8.83249
預	-8.83333
讀	-8.83366
輸	-8.83381
念	-8.8339
歩	-8.83631
策	-8.83631
寜	-8.83713
司空	-8.84065
者皆	-8.84207
黨	-8.84336
曰吾	-8.84385
旱	-8.84394
敕	-8.84397
勅	-8.84612
貶	-8.84627
徃	-8.84775
貢	-8.84799
祥	-8.84817
薛	-8.84869
使人	-8.84876
郊	-8.84942
索	-8.85077
㫖	-8.85142
境	-8.85263
尹	-8.85367
賔	-8.85371
糧	-8.85413
𫝊	-8.85599
呉	-8.85726
擇	-8.85733
盖	-8.85835
是以	-8.85891
淮	-8.85908
侵	-8.85961
錄	-8.86052
階	-8.86237
衰	-8.86392
池	-8.86462
印	-8.86586
敢	-8.86655
恒	-8.86796
鈔	-8.86811
孔子	-8.8699
砦	-8.87015
儒	-8.87124
謙	-8.87156
干	-8.87567
儉	-8.87571
冀	-8.87616
馳	-8.87621
没	-8.87627
子孫	-8.87691
維	-8.87813
面	-8.87881
源	-8.87978
先是	-8.88301
科	-8.88435
斗	-8.88437
軍節度使	-8.88522
拔	-8.88551
忽	-8.88628
彌	-8.88674
三十	-8.88722
歳	-8.88727
震	-8.8877
訖	-8.8879
諸王	-8.88813
孤	-8.88907
員	-8.8899
故事	-8.89123
幽	-8.89314
内外	-8.89642
竊	-8.89661
校	-8.89826
駕	-8.89942
最	-8.90043
背	-8.90375
狀	-8.90451
冬十月	-8.90537
頃	-8.90674
驗	-8.90682
陰	-8.90692
韋	-8.90737
范	-8.90869
豫	-8.90961
凶	-8.91066
落	-8.91207
機	-8.91235
夏四月	-8.9127
邉	-8.91398
盜	-8.91444
以來	-8.91508
吕	-8.91515
一卷	-8.91682
湯	-8.91808
西南	-8.9182
東南	-8.919
夫人	-8.9195
中書	-8.92022
倉	-8.92046
乾	-8.92349
妃	-8.92491
毎	-8.92525
御史	-8.9271
隷	-8.92767
啓	-8.92791
界	-8.92975
盈	-8.92979
規	-8.93085
西北	-8.93269
所謂	-8.93384
沙	-8.93449
盗	-8.93507
渠	-8.93514
諸將	-8.93686
謁	-8.93728
馮	-8.93814
是月	-8.93841
壽	-8.93865
享	-8.93944
至是	-8.93993
慎	-8.94094
遊	-8.94117
粟	-8.94164
藥	-8.94186
廼	-8.94312
廷	-8.94386
弘	-8.94431
使者	-8.94676
奴	-8.94767
秋七月	-8.94824
况	-8.94876
禹	-8.94945
倫	-8.95065
友	-8.95117
金人	-8.95294
畏	-8.9538
詔曰	-8.95837
刺	-8.95879
鎭	-8.96009
未嘗	-8.96016
國家	-8.96048
徐廣曰	-8.9608
甲子	-8.96167
循	-8.96338
江南	-8.96416
繫	-8.96432
趨	-8.96441
割	-8.9676
四方	-8.96771
如故	-8.97057
示	-8.97095
輿	-8.9712
赦	-8.9713
所在	-8.97255
従	-8.97267
舟	-8.97453
席	-8.97464
囚	-8.97554
船	-8.97727
普	-8.97934
額	-8.98013
愈	-8.98016
;	-8.98031
舞	-8.98184
局	-8.98242
莊	-8.9863
有所	-8.98707
審	-8.98755
投	-8.99162
十五	-8.99209
不及	-8.99342
不許	-8.99388
累遷	-8.99459
欽	-8.99604
䘮	-9.00508
潛	-9.00658
文帝	-9.00682
副使	-9.00697
似	-9.00713
君子	-9.00742
逸	-9.00745
旦	-9.00791
飾	-9.00911
耶	-9.01175
既而	-9.01179
湖	-9.01621
隸	-9.01693
肆	-9.01742
險	-9.0192
伊	-9.02015
饑	-9.02124
蒙	-9.02135
妄	-9.02187
壇	-9.02313
珍	-9.0238
捕	-9.0248
判官	-9.02687
井	-9.02741
勤	-9.02827
珠	-9.02828
乆	-9.02855
融	-9.0298
基	-9.03271
藩	-9.03333
卜	-9.03378
宅	-9.03467
不同	-9.0354
覽	-9.03659
又有	-9.0375
霸	-9.03876
寒	-9.03888
履	-9.0413
綱	-9.04142
巳	-9.0423
四人	-9.04356
仰	-9.04467
山東	-9.04711
以聞	-9.04959
葢	-9.05011
荒	-9.05023
付	-9.05274
純	-9.05498
削	-9.05499
厥	-9.0561
之士	-9.05797
隊	-9.05886
洛陽	-9.0595
觧	-9.06226
是也	-9.06268
䕶	-9.06422
毛	-9.06452
宗廟	-9.06531
州縣	-9.06548
禄	-9.06575
逼	-9.06773
之禮	-9.06845
婦	-9.0693
為之	-9.06964
秀	-9.06973
桓	-9.07044
敦	-9.07096
詐	-9.07136
改為	-9.07235
旁	-9.07272
自是	-9.07303
敏	-9.07375
十一年	-9.07396
館	-9.07557
課	-9.07644
出入	-9.07658
厲	-9.07681
橋	-9.07762
䧟	-9.07816
鄧	-9.07848
輙	-9.0787
屋	-9.07992
樓	-9.08055
俊	-9.08222
不如	-9.08239
諸州	-9.08245
其子	-9.08299
宏	-9.08329
主簿	-9.08348
皇太后	-9.08534
銅	-9.08717
介	-9.08825
愚	-9.08826
諡	-9.08966
蒲	-9.09061
擅	-9.09095
十一	-9.09172
十二年	-9.09345
采	-9.0935
冊	-9.09351
幼	-9.09482
幹	-9.09566
津	-9.09715
未有	-9.09762
陣	-9.09826
五十	-9.09847
擬	-9.10071
仗	-9.10108
早	-9.10118
天地	-9.10232
董	-9.10276
錫	-9.1028
沒	-9.10288
壁	-9.10291
曰此	-9.10324
範	-9.10355
一員	-9.10394
效	-9.10485
罰	-9.10491
辨	-9.10496
公子	-9.10623
舜	-9.10915
農	-9.10927
甫	-9.11067
揚州	-9.11116
閣	-9.11146
浮	-9.11154
十卷	-9.11321
不從	-9.11344
堯	-9.1149
傾	-9.11555
莫不	-9.11613
貪	-9.11736
裴	-9.11847
有功	-9.11911
續	-9.11917
園	-9.1192
男	-9.1192
蘭	-9.12043
葉	-9.12093
鳥	-9.1225
文武	-9.12381
巴	-9.12433
博士	-9.1245
不見	-9.1246
郡王	-9.12635
岳	-9.12776
紫	-9.12989
渡	-9.13022
▁(	-9.13049
襄	-9.13181
致仕	-9.13253
十三	-9.13456
併	-9.13515
茍	-9.13584
攝	-9.1375
䝉	-9.13776
幾	-9.1378
切	-9.13815
節度	-9.1392
宋祁曰	-9.13976
之制	-9.14126
隱	-9.1457
桑	-9.1466
榖	-9.15077
抑	-9.15118
三日	-9.15362
漢王	-9.15442
車駕	-9.15474
豪	-9.15604
三人	-9.15638
随	-9.15656
太常	-9.15657
耕	-9.15817
御史大夫	-9.15819
講	-9.15822
東北	-9.15852
袁	-9.1595
徽	-9.16058
兹	-9.1618
趣	-9.16222
隠	-9.16473
匡	-9.16871
宗室	-9.16998
託	-9.17037
誕	-9.17246
也今	-9.1739
賣	-9.17446
復為	-9.17451
舒	-9.17465
奮	-9.17488
寄	-9.1752
句	-9.17554
導	-9.17715
耶律	-9.17756
社	-9.17786
虛	-9.17834
災	-9.1784
鳴	-9.17883
軌	-9.17884
不復	-9.17915
顔	-9.18009
其所	-9.18041
○(	-9.18056
太白	-9.18114
凖	-9.18124
産	-9.18372
鄴	-9.18559
品	-9.18689
俄	-9.187
以此	-9.18777
驚	-9.18819
十六	-9.18847
庸	-9.18906
檢	-9.18997
掩	-9.19006
士卒	-9.19048
二百	-9.19091
辯	-9.19108
晋	-9.19143
陜西	-9.19165
呂	-9.19256
十三年	-9.19332
寢	-9.19396
俟	-9.19437
慈	-9.19643
决	-9.19974
中國	-9.20036
叙	-9.2007
壬申	-9.20077
辛亥	-9.20081
遽	-9.20191
刀	-9.20483
徑	-9.20487
之意	-9.20489
盟	-9.2058
羌	-9.20623
何以	-9.20862
拒	-9.20979
距	-9.21048
東西	-9.21224
懿	-9.21233
戴	-9.21245
困	-9.2127
供	-9.213
停	-9.21311
公卿	-9.21508
尺	-9.21699
辛未	-9.21727
十四	-9.2178
之言	-9.218
嶺	-9.21807
裁	-9.21951
錯	-9.21993
皮	-9.22214
環	-9.22217
速	-9.2222
十四年	-9.22222
貨	-9.22378
靡	-9.22383
頓	-9.22459
靖	-9.22482
算	-9.22511
不為	-9.22541
之道	-9.22788
繁	-9.22789
開府儀同三司	-9.22821
曾	-9.22851
(○	-9.22971
入朝	-9.23002
僕	-9.23006
癸未	-9.23042
詞	-9.23057
率衆	-9.23133
甲寅	-9.23365
鍾	-9.23372
之法	-9.23421
之心	-9.235
内史	-9.23612
之人	-9.23656
忘	-9.23705
是嵗	-9.23794
而去	-9.23881
秦王	-9.23885
俾	-9.23954
恵	-9.23995
誰	-9.23999
税	-9.24118
當時	-9.24347
浩	-9.24476
以其	-9.24509
弼	-9.24553
細	-9.24633
静	-9.24692
日月	-9.24765
妾	-9.24956
踰	-9.25119
裕	-9.25246
夢	-9.2538
郡縣	-9.25401
編	-9.25418
丙申	-9.25531
雷	-9.25707
渉	-9.25776
一巻	-9.25811
柔	-9.25814
甲午	-9.25843
竹	-9.2585
彭	-9.25864
辛丑	-9.2594
買	-9.26065
操	-9.26079
暉	-9.26094
尚書令	-9.26124
晏	-9.26212
松	-9.26245
丙午	-9.26269
一百	-9.26291
専	-9.26327
南陽	-9.2633
擒	-9.26355
熙	-9.26586
莊宗	-9.26638
壬辰	-9.26646
莽	-9.26682
師古	-9.26935
是為	-9.26999
陶	-9.27006
乙酉	-9.27098
諸路	-9.27141
已下	-9.27276
壯	-9.27337
側	-9.27395
遭	-9.27447
死者	-9.27555
丁未	-9.27604
聼	-9.27747
又以	-9.27833
龜	-9.27846
祐	-9.27889
茶	-9.28012
乙丑	-9.28054
鹿	-9.28092
劾	-9.28266
鑄	-9.28283
功臣	-9.28302
材	-9.28313
而還	-9.28322
庚午	-9.28387
逃	-9.28465
子弟	-9.28496
上下	-9.28525
躬	-9.28525
癸酉	-9.28553
戊子	-9.28615
台	-9.28618
仙	-9.28623
甲申	-9.28762
不過	-9.28803
之時	-9.2887
御史中丞	-9.28876
未幾	-9.28954
戊午	-9.29061
卑	-9.29119
佛	-9.29231
癸巳	-9.29279
父子	-9.2928
掠	-9.29381
千里	-9.29392
庚子	-9.29401
姬	-9.29472
丙寅	-9.2953
尾	-9.29608
學士	-9.29637
弊	-9.29703
乙亥	-9.29822
㧞	-9.29853
邦	-9.29879
知其	-9.30081
幽州	-9.30098
宼	-9.30196
翰	-9.30392
彭城	-9.30464
苑	-9.30486
鴻	-9.30533
啟	-9.30588
擊之	-9.30621
齊王	-9.30666
齋	-9.30754
峻	-9.30789
辛巳	-9.30805
植	-9.30845
扶	-9.30875
占曰	-9.30924
募	-9.3107
悦	-9.311
壊	-9.31195
幣	-9.3126
係	-9.31326
瑞	-9.31358
甲辰	-9.31408
諱	-9.31418
戊寅	-9.31492
庚申	-9.3159
都尉	-9.31662
乙巳	-9.3173
秉	-9.31752
忌	-9.31844
不行	-9.31887
二卷	-9.3189
卒子	-9.31945
陞	-9.31995
短	-9.32055
驛	-9.32096
卓	-9.32128
明堂	-9.32146
而後	-9.32304
讀曰	-9.32322
壬戌	-9.32364
受命	-9.32427
鐵	-9.32432
久之	-9.32586
祚	-9.32695
四十	-9.32768
十五年	-9.32777
牙	-9.3304
夲	-9.33071
戊申	-9.33179
夕	-9.3322
黑	-9.33278
曰我	-9.3329
屯田	-9.3332
壬寅	-9.33331
賤	-9.33343
辱	-9.33356
倍	-9.33451
壬午	-9.3355
争	-9.33583
禽	-9.33642
庚寅	-9.3369
第一	-9.33865
遲	-9.33913
羙	-9.33937
冬至	-9.3402
戊戌	-9.34123
其家	-9.34173
州郡	-9.34175
之子	-9.34255
丁亥	-9.34283
斬之	-9.34283
校尉	-9.34315
析	-9.34402
乙未	-9.3451
嬰	-9.34643
五百	-9.34679
珪	-9.34699
帝曰	-9.34705
寡	-9.34705
驅	-9.34778
篤	-9.34908
惑	-9.35046
勑	-9.35165
許之	-9.35181
㣲	-9.35181
誣	-9.35186
十七	-9.35197
南北	-9.35304
單	-9.35332
栁	-9.35354
又曰	-9.35616
行省	-9.35705
儲	-9.35824
熒惑	-9.35907
邵	-9.35923
給事中	-9.36033
故曰	-9.36061
訪	-9.36181
三卷	-9.36245
恃	-9.363
太平	-9.36328
其年	-9.36441
社稷	-9.36465
猛	-9.36559
戊辰	-9.36584
上言	-9.3659
乃以	-9.36663
甲戌	-9.36667
正月	-9.36677
誘	-9.3668
麗	-9.36868
旋	-9.36868
貧	-9.3688
丁巳	-9.36964
覺	-9.37036
迹	-9.3713
襄陽	-9.37177
明宗	-9.37181
進士	-9.37185
創	-9.37192
姑	-9.37209
二州	-9.37432
鳳	-9.37526
熟	-9.3775
悲	-9.37766
穀	-9.37805
醫	-9.37977
其餘	-9.37981
花	-9.38074
戲	-9.38084
香	-9.3811
溪	-9.38211
屠	-9.38249
丁酉	-9.38257
本紀	-9.38277
江陵	-9.38332
絹	-9.38344
余	-9.38516
焚	-9.38585
宰臣	-9.3869
庚戌	-9.38729
甘	-9.38821
荆	-9.38851
荆州	-9.38901
癸亥	-9.39001
哭	-9.39021
六十	-9.39031
之義	-9.39038
上曰	-9.39055
訟	-9.39095
恨	-9.39108
城中	-9.39155
鬼	-9.39164
一曰	-9.3917
澄	-9.39288
罕	-9.39324
歡	-9.3933
剛	-9.39398
開元	-9.39483
之日	-9.39533
皇子	-9.39594
照	-9.39703
癸丑	-9.39706
抵	-9.39716
晦	-9.39728
武王	-9.39733
二十四	-9.39885
黜	-9.39888
整	-9.3999
吴	-9.40088
言之	-9.40286
𨽻	-9.40313
江淮	-9.40504
閉	-9.4055
答	-9.40636
聴	-9.40706
討之	-9.40805
頻	-9.40904
饗	-9.40972
璧	-9.40985
黒	-9.41014
辛酉	-9.41053
十六年	-9.4128
提舉	-9.41282
帳	-9.41284
匿	-9.4133
抗	-9.41334
朗	-9.41353
今日	-9.41355
為人	-9.41375
之數	-9.41383
諡曰	-9.41464
堡	-9.41473
姚	-9.41489
三百	-9.41518
髙宗	-9.41552
同知	-9.4161
丁丑	-9.41615
丙子	-9.41676
秒	-9.41788
丙辰	-9.41868
髙麗	-9.41933
祿	-9.42116
逢	-9.42126
至于	-9.42185
項羽	-9.42217
亟	-9.42218
露	-9.42242
倚	-9.42374
根	-9.42394
辛	-9.42501
脱	-9.42542
總管	-9.42561
曽	-9.42597
史記	-9.42613
奚	-9.42646
再拜	-9.42694
中興	-9.42755
緒	-9.42772
應劭曰	-9.42804
驕	-9.42876
神武	-9.42917
庚辰	-9.42966
乖	-9.42969
用之	-9.4308
大軍	-9.43097
太廟	-9.43162
欲以	-9.43179
翟	-9.43182
弓	-9.43333
已上	-9.43355
笑	-9.43528
沮	-9.4364
十八	-9.43644
其地	-9.43959
痛	-9.44016
偉	-9.44084
偃	-9.44089
二十五	-9.44125
宰	-9.44137
三公	-9.44257
協	-9.44282
己亥	-9.44302
匹	-9.44592
綏	-9.4466
上書	-9.44741
戮	-9.4484
徐州	-9.44915
育	-9.44947
步	-9.44999
湏	-9.45036
宛	-9.45072
賓	-9.45076
騰	-9.45122
之功	-9.45145
長子	-9.45203
與之	-9.45213
雪	-9.45287
懸	-9.45301
琳	-9.45375
海陵	-9.45405
虧	-9.4544
是日	-9.45441
復置	-9.45471
皆以	-9.45578
畜	-9.45724
壬子	-9.4576
於此	-9.45776
談	-9.45815
太傅	-9.45826
劒	-9.45914
抱	-9.45959
輦	-9.46009
令史	-9.46035
冦	-9.46077
郎中	-9.46133
趙王	-9.46166
星出	-9.46212
慕	-9.46222
況	-9.46228
晨	-9.46252
不肯	-9.46338
括	-9.46414
書曰	-9.46483
殆	-9.46514
郡國	-9.46534
採	-9.4679
軍中	-9.46976
淫	-9.47016
沛	-9.47026
也言	-9.47091
誓	-9.47154
韶	-9.47232
天下之	-9.47352
斤	-9.47355
通判	-9.47367
絳	-9.47393
己未	-9.47491
臧	-9.47593
殘	-9.47637
郡公	-9.4784
聖人	-9.48034
潰	-9.48085
毅	-9.48205
吏部尚書	-9.4823
貸	-9.48342
二員	-9.4836
勉	-9.48363
斥	-9.48436
汴	-9.48438
敎	-9.48445
中山	-9.48454
帛	-9.48485
燒	-9.48512
孰	-9.4853
嵩	-9.48552
洞	-9.48593
蔽	-9.48619
先帝	-9.48625
突厥	-9.48731
訴	-9.48769
四海	-9.48847
巧	-9.48859
丙戌	-9.49012
曉	-9.49069
沛公	-9.49073
之中	-9.49105
之上	-9.49125
誦	-9.49137
祗	-9.49159
黎	-9.49218
圗	-9.49231
垣	-9.49238
坊	-9.49345
黄帝	-9.49403
黃	-9.49452
軍士	-9.49582
十七年	-9.49649
獵	-9.49684
五千	-9.49821
墓	-9.49838
舍人	-9.49901
監察御史	-9.49953
岸	-9.50051
不以	-9.50091
婦人	-9.50134
知之	-9.5016
盤	-9.50195
先生	-9.50219
午	-9.50376
己巳	-9.50459
準	-9.50647
洽	-9.50716
縣令	-9.51013
而死	-9.51057
頌	-9.51155
諸子	-9.51228
而無	-9.51244
渾	-9.51264
平陽	-9.51323
舎	-9.51341
地震	-9.51384
已而	-9.51407
破之	-9.51451
獸	-9.51473
閒	-9.515
亷	-9.51614
西京	-9.51636
稽	-9.51641
竇	-9.51665
筆	-9.51783
不用	-9.51783
官吏	-9.5179
廉	-9.51832
彰	-9.51859
㨗	-9.51915
尚書省	-9.51991
否	-9.52012
皆有	-9.52081
歎	-9.52166
可謂	-9.5217
價	-9.52192
侍御史	-9.52278
蒼	-9.52287
字子	-9.52316
妖	-9.52328
父母	-9.52464
河西	-9.52493
簿	-9.52524
浚	-9.52771
足以	-9.52772
將兵	-9.52791
以兵	-9.52798
擾	-9.52894
租	-9.53016
有罪	-9.53106
三千	-9.53135
乙卯	-9.53149
閑	-9.53163
巨	-9.53182
緩	-9.53189
矢	-9.5319
鑒	-9.53227
不聽	-9.53276
効	-9.53296
巖	-9.53403
東宫	-9.53428
輅	-9.53472
某	-9.53478
執政	-9.53531
哲	-9.53572
却	-9.53628
己酉	-9.53678
眞	-9.53719
晉陽	-9.53748
閲	-9.53749
含	-9.53766
藉	-9.53805
周公	-9.53808
用事	-9.53859
遣人	-9.53882
辛卯	-9.53956
大王	-9.53988
悟	-9.53997
光武	-9.54028
偏	-9.54208
爽	-9.5436
構	-9.54526
鈞	-9.54528
京城	-9.54576
古今	-9.54837
纂	-9.54858
兆	-9.54868
政事	-9.54934
轉運使	-9.55103
也師古曰	-9.55303
佩	-9.55341
塗	-9.55389
黙	-9.55391
稅	-9.55465
拘	-9.55485
也音	-9.55507
己丑	-9.55558
之徒	-9.55605
瓊	-9.55619
仁宗	-9.55619
江西	-9.55668
中外	-9.55828
氐	-9.55881
骨	-9.5597
不宜	-9.56028
阻	-9.5603
丁卯	-9.56074
戚	-9.56109
毒	-9.56233
王者	-9.56245
必有	-9.56716
煩	-9.56719
成都	-9.56781
蠲	-9.56893
以前	-9.56957
參知政事	-9.57086
警	-9.57101
中書令	-9.57112
徹	-9.57156
不當	-9.57203
競	-9.57339
旣	-9.57471
五人	-9.5748
廵	-9.57533
萬户	-9.57729
護	-9.5774
堪	-9.57743
齒	-9.57777
進封	-9.57845
將士	-9.57893
小人	-9.58103
麥	-9.58121
竭	-9.58216
寕	-9.58275
之際	-9.58358
弟子	-9.58372
河中	-9.58523
不至	-9.5869
京兆	-9.58696
昏	-9.58718
隴	-9.58764
緣	-9.5882
敷	-9.58857
寃	-9.58979
濫	-9.58992
入為	-9.59063
牲	-9.59138
鄙	-9.59139
太師	-9.59335
安國	-9.59362
明帝	-9.59455
塲	-9.59535
柱	-9.59657
夾	-9.59669
叚	-9.59706
祖宗	-9.59757
遁	-9.59798
自殺	-9.59834
大将軍	-9.60026
七十	-9.60042
欺	-9.60134
鄂	-9.60321
岐	-9.6034
發兵	-9.60415
劫	-9.6043
癸卯	-9.60451
勃	-9.60476
樞	-9.60593
題	-9.60601
從事	-9.60633
績	-9.60764
之名	-9.60815
公孫	-9.60815
其父	-9.6092
沉	-9.60949
如淳曰	-9.61023
二十年	-9.61026
引兵	-9.61044
不出	-9.61092
饒	-9.61115
遜	-9.61169
血	-9.61185
縁	-9.61293
契	-9.61359
相國	-9.61418
沖	-9.61518
東都	-9.6155
輪	-9.61575
厭	-9.61577
肉	-9.61651
三十六	-9.61706
旅	-9.61785
太常卿	-9.61823
借	-9.61887
壘	-9.62043
溫	-9.62061
旬	-9.62115
侍郎	-9.62212
泣	-9.62337
廬	-9.62345
番	-9.62558
雞	-9.62572
吏部	-9.62584
絲	-9.62672
熊	-9.62702
悔	-9.62737
人皆	-9.62813
五星	-9.6282
錦	-9.63045
蕩	-9.63062
君臣	-9.63174
八十	-9.6324
肅宗	-9.63274
謬	-9.63296
東平	-9.63342
數千	-9.6336
更名	-9.63446
郡守	-9.63456
其言	-9.63465
提	-9.63476
祝	-9.63548
遼東	-9.63559
婁	-9.63677
旌	-9.63842
亦有	-9.63878
紹興	-9.6389
河間	-9.63897
州防禦使	-9.63953
行之	-9.64032
郢	-9.64093
溢	-9.64118
王子	-9.64128
翰林學士	-9.64187
漏	-9.64259
撃	-9.643
褒	-9.64458
曰臣	-9.64473
吐蕃	-9.64484
歛	-9.64505
巡	-9.64507
孝武	-9.64548
人之	-9.64562
隂陽	-9.64594
乏	-9.6488
追封	-9.64881
用兵	-9.65024
巢	-9.65048
其罪	-9.65119
喻	-9.65122
稷	-9.65332
葛	-9.6535
所殺	-9.65374
湛	-9.65381
揖	-9.65381
等處	-9.65414
二十七	-9.65497
尸	-9.65511
明日	-9.65568
持節	-9.6561
青州	-9.65642
錠	-9.65651
者以	-9.65659
雖有	-9.6567
肇	-9.65728
璋	-9.65735
詔以	-9.65763
村	-9.65817
門外	-9.65901
大司馬	-9.65941
十八年	-9.66008
以備	-9.66062
矜	-9.66111
妻子	-9.66124
壞	-9.66238
咎	-9.66493
墨	-9.66518
膺	-9.66544
文王	-9.66683
播	-9.66871
場	-9.66929
屏	-9.66936
綬	-9.66948
雙	-9.6707
淺	-9.6709
二千石	-9.67291
巻	-9.67387
淳	-9.67405
級	-9.67554
靜	-9.67605
隔	-9.67672
十九	-9.67806
河陽	-9.67843
不相	-9.67914
潤	-9.67954
第二	-9.67957
宇	-9.67987
怪	-9.67997
凝	-9.68035
三司	-9.68046
贍	-9.68108
強	-9.68109
亦不	-9.68146
跡	-9.6823
改封	-9.68277
無不	-9.68301
各一	-9.68497
一年	-9.68539
内侍	-9.68549
各一人	-9.68654
攸	-9.68697
展	-9.68719
恥	-9.68756
逮	-9.68811
跪	-9.6893
庾	-9.6899
朔方	-9.69073
翁	-9.69134
散騎常侍	-9.69188
十巻	-9.69218
伏誅	-9.69365
激	-9.69432
又言	-9.69446
奠	-9.69565
諌	-9.69626
芳	-9.69674
段	-9.69704
辦	-9.6971
渤海	-9.69812
譽	-9.69812
國除	-9.69841
來朝	-9.69886
?」	-9.69902
渭	-9.6993
十人	-9.69974
㓜	-9.70144
缺	-9.70189
状	-9.70352
乃止	-9.70459
楚王	-9.70468
不欲	-9.70469
塔	-9.70556
童	-9.70592
傳曰	-9.70647
樊	-9.70699
賜爵	-9.70992
其人	-9.7101
疎	-9.71044
墜	-9.71093
大將	-9.71113
其國	-9.71121
人主	-9.7113
爰	-9.71236
恕	-9.71381
參軍	-9.71386
其衆	-9.71393
矯	-9.71459
敗之	-9.71524
醉	-9.71607
名也	-9.71904
鳯	-9.71987
俸	-9.71999
詢	-9.72077
服䖍曰	-9.72088
二十一	-9.72097
傳云	-9.72177
不與	-9.72177
大都督	-9.72186
狂	-9.72196
率兵	-9.72206
豈可	-9.72216
練	-9.72283
紅	-9.72441
炎	-9.72508
完	-9.72613
藝	-9.7262
閭	-9.72766
㑹稽	-9.72865
南京	-9.72883
完顔	-9.72897
二十二	-9.72902
奏請	-9.7293
麟	-9.72958
滎陽	-9.73006
不應	-9.73204
千户	-9.73267
留守	-9.73274
大赦	-9.73276
之臣	-9.73297
人心	-9.73337
十萬	-9.7342
擁	-9.73422
誅之	-9.73466
數十	-9.73468
之罪	-9.73769
忍	-9.7382
綿	-9.73848
貌	-9.73877
大敗	-9.739
一時	-9.73934
漢書	-9.73943
䖍	-9.73943
二十八	-9.7402
寨	-9.74058
収	-9.74067
悼	-9.74113
文學	-9.74174
其母	-9.74206
寅	-9.74233
後世	-9.74304
製	-9.74331
子也	-9.74355
禪	-9.74374
娶	-9.7439
衝	-9.74417
三分	-9.74507
宣帝	-9.74567
四川	-9.74652
戰于	-9.74817
時年	-9.7486
詔書	-9.74899
妙	-9.75062
吏民	-9.75099
板	-9.75279
孟康曰	-9.75311
行臺	-9.75423
彪	-9.75473
元嘉	-9.75504
麻	-9.75532
臣等	-9.75572
名曰	-9.75592
二十三	-9.75616
依舊	-9.75702
不合	-9.75828
神宗	-9.75905
臯	-9.75957
都統	-9.75974
諸道	-9.75976
肥	-9.75979
御史臺	-9.75982
貴人	-9.76008
二縣	-9.76054
大小	-9.7623
鸞	-9.76241
元豐	-9.76246
昇	-9.76312
東京	-9.76364
大定	-9.76369
六人	-9.76379
曠	-9.76428
數百	-9.76488
有差	-9.76491
知制誥	-9.76503
十九年	-9.7652
冀州	-9.76734
時有	-9.76948
排	-9.77051
丕	-9.77117
冢	-9.77154
愍	-9.77166
元帝	-9.77238
家人	-9.77338
讒	-9.77349
舊制	-9.77402
濬	-9.77474
證	-9.77624
大水	-9.77631
周禮	-9.7765
當作	-9.77727
項王	-9.77793
海内	-9.77813
滋	-9.77823
進退	-9.77826
聘	-9.77899
等州	-9.7795
中書舍人	-9.77991
言其	-9.78015
夏人	-9.7806
建康	-9.78077
曰今	-9.78113
故也	-9.78121
料	-9.7819
巫	-9.78245
諷	-9.78263
暢	-9.78265
禦	-9.78265
官至	-9.78304
恤	-9.78328
泥	-9.78369
忿	-9.78391
舉兵	-9.78442
區	-9.78599
數日	-9.78636
檄	-9.78736
王師	-9.78741
之民	-9.78791
劉氏	-9.78795
挾	-9.78861
號曰	-9.78953
定州	-9.78977
《	-9.78985
太和	-9.79012
憤	-9.7907
牢	-9.79093
儼	-9.79123
廷尉	-9.7914
荀	-9.79151
平章政事	-9.79179
齎	-9.79193
邀	-9.792
輩	-9.79202
也故	-9.79231
樞密院	-9.79255
柳	-9.7929
二萬	-9.79301
霍	-9.79343
奇	-9.79393
嫁	-9.79416
之外	-9.79473
亢	-9.79513
陜	-9.79516
繡	-9.79522
邱	-9.7956
所部	-9.79595
安石	-9.79636
自今	-9.79665
數年	-9.79684
起兵	-9.79707
塵	-9.79737
譏	-9.79782
代之	-9.7982
惜	-9.80002
則天	-9.80009
剋	-9.8003
本名	-9.80101
都監	-9.80148
掾	-9.80157
昧	-9.80191
潔	-9.80251
傍	-9.80265
一作	-9.80415
斬首	-9.80424
中書侍郎	-9.80428
檢校	-9.80476
蛇	-9.80497
祈	-9.80532
之屬	-9.80582
濟南	-9.80701
晝	-9.80753
僅	-9.8076
萬人	-9.80848
黄道	-9.80848
二子	-9.80957
作亂	-9.80967
叡	-9.80976
之下	-9.80996
開府	-9.81068
押	-9.81149
所得	-9.81155
得其	-9.81177
并州	-9.81258
上柱國	-9.81443
十餘	-9.81457
不受	-9.81499
究	-9.81541
瞻	-9.81594
鮮	-9.81598
無以	-9.8162
糴	-9.81627
之計	-9.81754
脫	-9.81794
太保	-9.81834
鐘	-9.819
輕重	-9.81904
益州	-9.81965
踐	-9.82032
未能	-9.82099
元帥	-9.82186
牒	-9.8232
筠	-9.82337
舅	-9.82531
百萬	-9.82652
帝崩	-9.82772
以示	-9.82783
邁	-9.82804
之衆	-9.82815
閤	-9.82942
緯	-9.82967
軍節度	-9.8302
不勝	-9.83034
潘	-9.83125
欽定四庫全書	-9.83134
波	-9.83156
卦	-9.8317
上黨	-9.83216
行事	-9.8323
鬻	-9.83266
左丞	-9.83331
五日	-9.83339
鋭	-9.8335
未及	-9.83373
斛	-9.83455
殺人	-9.83463
國之	-9.83705
有餘	-9.83794
廣陵	-9.83848
大怒	-9.83862
侯景	-9.83879
貳	-9.83925
劍	-9.83949
旨	-9.84097
小餘	-9.84171
三巻	-9.84221
竄	-9.84231
國王	-9.84235
卒贈	-9.84269
謀反	-9.84274
㡬	-9.84291
灌	-9.84302
襃	-9.84327
領軍	-9.84332
文章	-9.84402
二十六	-9.84411
然則	-9.84435
冒	-9.84634
軍民	-9.84649
諸郡	-9.84737
浦	-9.84757
釁	-9.84771
賴	-9.84793
慰	-9.84793
僕射	-9.84855
赫	-9.84872
歎曰	-9.84949
不可以	-9.84977
賔客	-9.84985
布哈	-9.84987
人情	-9.85063
憲宗	-9.85225
訛	-9.8526
圭	-9.85271
奏事	-9.85273
捨	-9.8528
奈何	-9.85296
恪	-9.85369
師古曰言	-9.85413
數月	-9.85587
軍事	-9.85606
不然	-9.85627
禮樂	-9.8565
成王	-9.8568
昶	-9.85768
各有	-9.85806
足下	-9.85859
冕	-9.85919
指揮使	-9.85943
謁者	-9.86119
二千	-9.86163
取之	-9.86199
奏曰	-9.86214
醜	-9.86228
張晏曰	-9.86252
琅邪	-9.86281
鑿	-9.86355
不忍	-9.86399
繩	-9.86482
册	-9.8654
尼	-9.86644
曰卿	-9.86654
所居	-9.8679
膳	-9.86846
自稱	-9.86858
穿	-9.86866
耀	-9.86901
景帝	-9.86924
雲中	-9.87004
隐	-9.87116
四時	-9.87174
繇	-9.87215
挺	-9.87321
包	-9.87348
頒	-9.87359
哩	-9.87414
幕	-9.87441
邢	-9.87458
五卷	-9.8749
取其	-9.87519
長沙	-9.87538
敞	-9.87598
滯	-9.87604
..「	-9.87714
漕	-9.87731
伍	-9.87731
荷	-9.87739
弦	-9.87741
恣	-9.8776
粲	-9.87779
者為	-9.87789
縣屬	-9.87839
柵	-9.87897
敝	-9.87947
駐	-9.87986
涉	-9.88022
像	-9.88141
數萬	-9.88188
誡	-9.88278
漢中	-9.88379
戾	-9.88406
富貴	-9.88545
哈	-9.88564
中郎將	-9.8863
蝗	-9.88644
冲	-9.88699
時人	-9.8871
未至	-9.88793
枝	-9.88799
邸	-9.88819
真定	-9.88828
潁川	-9.88868
西域	-9.88897
賑	-9.88997
以獻	-9.8901
頴	-9.89035
誼	-9.89053
慙	-9.8906
七日	-9.89068
苟	-9.89075
湖南	-9.8914
圓	-9.89405
飬	-9.8945
豈不	-9.89459
聰	-9.89493
死之	-9.89519
扇	-9.89555
初為	-9.89584
之家	-9.8961
狼	-9.89615
測	-9.89671
斂	-9.89692
隴西	-9.89744
第三	-9.89817
藻	-9.8986
三萬	-9.89963
弔	-9.89963
蝕	-9.90001
施行	-9.90102
嵗星	-9.90122
檜	-9.90212
脅	-9.90243
大破之	-9.90271
閏月	-9.90325
二日	-9.90356
鼔	-9.90359
鄰	-9.90419
議者	-9.90468
巾	-9.90477
即日	-9.90477
劭	-9.90502
世子	-9.90527
東方	-9.90534
諸軍事	-9.90538
髙帝	-9.90551
胥	-9.90694
二十九	-9.90696
指揮	-9.90745
見之	-9.9076
之内	-9.90813
恢	-9.90815
千人	-9.90849
是年	-9.90883
賛	-9.90937
笞	-9.91052
攻之	-9.91063
畔	-9.91089
虐	-9.91098
暮	-9.91119
璽	-9.91146
枉	-9.91171
上表	-9.91269
凌	-9.91298
弩	-9.91333
淑	-9.91399
東海	-9.91408
濁	-9.91469
上都	-9.91521
陳留	-9.91602
徧	-9.91663
未㡬	-9.91699
左傳	-9.91747
飢	-9.9181
特進	-9.9185
贓	-9.91925
柴	-9.91936
燕王	-9.92044
𦵏	-9.92052
莫敢	-9.92116
桓公	-9.92172
巴延	-9.92229
遐	-9.9224
晚	-9.92279
千餘人	-9.92284
紂	-9.92309
乂	-9.92337
軫	-9.92355
亨	-9.92425
湘	-9.92537
制度	-9.92572
行營	-9.92582
之初	-9.92616
中丞	-9.92685
箭	-9.92729
古之	-9.92771
惡之	-9.92818
復以	-9.92927
五帝	-9.9293
陂	-9.92979
利害	-9.9299
多所	-9.92997
閏	-9.93007
去之	-9.93059
曰汝	-9.93072
卧	-9.93181
老子	-9.93364
福建	-9.93389
後漢	-9.93404
中都	-9.93405
詠	-9.93414
一千	-9.93478
遂以	-9.93497
其日	-9.93631
鋒	-9.93653
入見	-9.93683
河内	-9.93735
西方	-9.93774
較	-9.93851
咸陽	-9.93954
陛	-9.94006
諸司	-9.94022
在位	-9.94023
曜	-9.94039
夜半	-9.94186
頼	-9.94228
使持節	-9.94292
大事	-9.9434
諸将	-9.94359
風俗	-9.94392
上疏	-9.94404
以功	-9.94411
江東	-9.94445
二十三年	-9.9447
殺其	-9.94543
號為	-9.94546
之官	-9.94575
嫌	-9.9462
門下	-9.94714
宦者	-9.9474
漆	-9.94829
琛	-9.94872
為一	-9.94874
燭	-9.94913
戈	-9.94916
其意	-9.94959
廣州	-9.95001
棺	-9.95023
琰	-9.95054
涼	-9.95068
兄子	-9.95175
住	-9.95215
教授	-9.95243
糾	-9.95279
汗	-9.95321
譚	-9.95338
臣召南	-9.95401
高麗	-9.95424
城縣	-9.95444
中尉	-9.95444
玄宗	-9.95487
男女	-9.95583
婚	-9.95615
近臣	-9.95629
愧	-9.95646
閔	-9.95687
詭	-9.95741
欣	-9.95748
消	-9.9577
以待	-9.95795
後主	-9.95798
列侯	-9.95827
突	-9.95934
江州	-9.95959
請以	-9.96004
彈	-9.9603
山川	-9.96262
閻	-9.96267
一名	-9.96283
以疾	-9.96331
綜	-9.96341
為丞相	-9.96438
而下	-9.9658
迫	-9.96599
三十五	-9.96631
不在	-9.96789
好學	-9.96861
㓂	-9.97008
論語	-9.97014
萬物	-9.97014
皷	-9.97025
乃遣	-9.97029
至此	-9.97074
三州	-9.97083
裔	-9.97089
祕	-9.97124
牀	-9.97144
渡河	-9.97184
上帝	-9.97207
一度	-9.97237
自此	-9.97275
?	-9.97365
衮	-9.97381
梁王	-9.97382
文字	-9.97403
安定	-9.97417
往往	-9.97475
豆	-9.97569
晟	-9.97645
胄	-9.97701
賂	-9.97703
疆	-9.9772
祁	-9.9775
㦸	-9.97798
貞觀	-9.97803
建安	-9.97883
佞	-9.97901
大風	-9.97916
為名	-9.97925
又云	-9.97946
刃	-9.97949
贖	-9.98048
其名	-9.98071
宇文	-9.98147
晝夜	-9.98224
平原	-9.98248
俄而	-9.98264
同中書門下平章事	-9.98272
釋之	-9.98285
乙	-9.98324
改元	-9.98335
出於	-9.98354
先王	-9.98377
民間	-9.9839
貽	-9.9842
頃之	-9.98421
太史	-9.98535
不通	-9.98591
所言	-9.98596
道路	-9.98636
得失	-9.98686
也夫	-9.98844
召為	-9.98883
者亦	-9.98981
兵馬	-9.99
長吏	-9.99017
傑	-9.99022
宥	-9.99039
淮西	-9.99042
佗	-9.99058
酷	-9.99059
桂	-9.99084
儁	-9.99161
學者	-9.99275
歆	-9.99313
括地志云	-9.99404
弛	-9.99435
袍	-9.99465
士大夫	-9.99534
中有	-9.99576
韓信	-9.99645
項	-9.99658
三十二	-9.99717
曰昔	-9.9977
忠臣	-9.99781
鬬	-9.99873
摩	-9.99982
莫能	-10.0001
荆州刺史	-10.0005
托	-10.0007
甄	-10.001
狄	-10.0019
主人	-10.0022
一切	-10.0023
太學	-10.0033
曰君	-10.0043
慢	-10.0044
進號	-10.0045
檀	-10.0045
之故	-10.0052
光禄大夫	-10.0053
叅	-10.0053
忠義	-10.0054
由此	-10.0056
雍州	-10.0056
銜	-10.0062
束	-10.0063
徇	-10.0063
諒	-10.0066
見其	-10.008
陟	-10.0089
罔	-10.0092
仇	-10.0093
己卯	-10.0103
姜	-10.0104
不言	-10.0118
艱	-10.012
北面	-10.0123
魏王	-10.0126
纔	-10.0129
四十五	-10.0135
何為	-10.0141
姊	-10.0142
兩浙	-10.0144
潁	-10.0145
右丞	-10.015
畿	-10.015
酌	-10.0152
雲南	-10.0153
柄	-10.0154
損益	-10.0158
譙	-10.0158
雉	-10.0169
狗	-10.0173
溺	-10.0174
邕	-10.0176
及其	-10.0177
禮部尚書	-10.0189
集十卷	-10.0195
大名	-10.0196
睿	-10.0206
羽林	-10.0215
又遣	-10.0224
清河	-10.0229
大同	-10.0234
日行	-10.0236
酬	-10.0236
大破	-10.0236
二十一年	-10.0239
釐	-10.0242
大都	-10.0251
軰	-10.0265
相繼	-10.0265
淹	-10.0274
莽曰	-10.0275
秦州	-10.0276
大明	-10.0283
追贈	-10.0284
属	-10.0284
皆為	-10.029
諧	-10.0292
其中	-10.0293
朔日有食之	-10.0296
之文	-10.0297
耗	-10.0308
祭祀	-10.0312
牽	-10.0312
它	-10.0318
五行	-10.0318
無子	-10.0328
虢	-10.033
桃	-10.0332
捷	-10.0333
豹	-10.0336
其先	-10.0336
歟	-10.0339
之命	-10.0342
憚	-10.0351
荘	-10.0353
祭酒	-10.0356
女直	-10.0357
以爲	-10.0363
換	-10.0368
元祐	-10.0369
特穆爾	-10.0369
往來	-10.037
帝以	-10.0371
綰	-10.0371
琴	-10.0372
守之	-10.0375
二十卷	-10.0376
償	-10.0381
瓚	-10.0394
衣冠	-10.0396
駿	-10.0398
武皇	-10.04
召見	-10.0403
乃與	-10.0422
謨	-10.0423
視之	-10.0424
姓名	-10.0426
疲	-10.0428
眷	-10.0434
郤	-10.0438
披	-10.0441
郊祀	-10.0441
都指揮使	-10.0452
一旦	-10.0455
碑	-10.0457
芝	-10.0458
座	-10.0486
裂	-10.0488
古者	-10.0489
摧	-10.049
譜	-10.0496
銓	-10.0501
安得	-10.0503
隣	-10.0505
而出	-10.0507
未可	-10.0509
神主	-10.051
太白晝見	-10.0518
誨	-10.052
等皆	-10.0523
弑	-10.0538
是歲	-10.0539
帝王	-10.054
》	-10.0543
麾	-10.0544
填	-10.0545
臣聞	-10.055
逵	-10.0551
萌	-10.0557
睦	-10.056
乙夘	-10.0563
八人	-10.057
甞	-10.0573
所至	-10.0579
寫	-10.0583
冶	-10.0585
來降	-10.0595
兵部尚書	-10.0597
古人	-10.0598
欵	-10.0598
饌	-10.0605
罷之	-10.0609
衣服	-10.061
妹	-10.0612
安撫	-10.0613
逺近	-10.0614
劇	-10.0616
列傳	-10.0618
訥	-10.0622
堰	-10.0625
熈	-10.0634
邈	-10.0635
太僕	-10.0637
又為	-10.0639
僭	-10.0639
潞州	-10.0646
力戰	-10.0649
拉	-10.0652
不絶	-10.0653
栗	-10.0661
牟	-10.0664
岱	-10.0669
斌	-10.067
不便	-10.0675
鐸	-10.0676
鞭	-10.0685
永安	-10.069
織	-10.0697
孚	-10.0697
官屬	-10.0702
𦙍	-10.0705
宫中	-10.071
尚書左僕射	-10.0711
真宗	-10.0713
㸃	-10.0715
范陽	-10.0717
敖	-10.072
關中	-10.0726
瓌	-10.0726
也又	-10.0727
謗	-10.0734
丈	-10.0735
出身	-10.074
州團練使	-10.0741
潭	-10.0747
吐	-10.0762
公私	-10.0762
餉	-10.0774
者不	-10.0779
燾	-10.0782
者必	-10.0788
一萬	-10.0795
汾	-10.0797
鐡	-10.08
溝	-10.0801
活	-10.0804
泰山	-10.0807
中原	-10.0807
起居	-10.0812
賁	-10.0817
禮部	-10.0825
憑	-10.0826
宿衛	-10.0827
促	-10.0827
彥	-10.0829
天寳	-10.0833
相與	-10.0837
常山	-10.0847
墮	-10.0848
伺	-10.085
蹈	-10.0856
廹	-10.0859
吏部侍郎	-10.0859
夔	-10.0861
九十	-10.0865
不足以	-10.0866
寡人	-10.0866
得罪	-10.0873
辛夘	-10.0874
萬里	-10.0879
四分	-10.0881
苗	-10.0902
其下	-10.0915
皓	-10.0917
怠	-10.092
為大	-10.0922
禀	-10.0925
靣	-10.0927
既至	-10.0929
公事	-10.0929
州節度使	-10.0935
孝文	-10.0936
紙	-10.0938
何如	-10.0941
有大	-10.0942
悅	-10.0945
丁夘	-10.0952
北方	-10.0952
户部	-10.0952
白馬	-10.0962
豫州	-10.097
蠕蠕	-10.0974
綂	-10.0975
為政	-10.0981
文公	-10.0984
安撫使	-10.0986
後為	-10.0988
二十二年	-10.0989
禧	-10.0994
卒於	-10.1003
至京師	-10.1003
禾	-10.1008
布衣	-10.101
失其	-10.1016
之勢	-10.1023
中書省	-10.1025
常侍	-10.1028
襲爵	-10.1032
乾道	-10.1032
世家	-10.1038
奢	-10.1038
諸生	-10.1039
飲食	-10.1044
城下	-10.105
為太子	-10.1052
軒	-10.1052
朴	-10.1053
以来	-10.1056
禮記	-10.1057
卽	-10.1058
坦	-10.106
周易	-10.1066
者多	-10.1066
縣侯	-10.1069
或有	-10.1071
救之	-10.1073
隄	-10.1076
金銀	-10.1076
不報	-10.108
三十三	-10.1082
官軍	-10.1088
腹心	-10.1092
三品	-10.1094
犬	-10.1094
至今	-10.1095
監軍	-10.1099
飲酒	-10.11
||	-10.1102
三十卷	-10.1103
二曰	-10.1106
亦如之	-10.111
為亂	-10.111
慧	-10.1124
齊人	-10.1126
一百二十	-10.1129
王氏	-10.113
俘	-10.1131
值	-10.1134
兖州	-10.1143
瑜	-10.1149
不滿	-10.1149
觀察使	-10.1154
尚書左丞	-10.116
演	-10.1161
覩	-10.1163
萬餘	-10.1165
戶	-10.1166
豫章	-10.117
遏	-10.117
加時	-10.1179
通鑑	-10.1191
之亂	-10.1197
蠻夷	-10.1206
荅	-10.1207
之利	-10.1207
西河	-10.1213
亦以	-10.1217
陽縣	-10.1221
吳王	-10.1229
之類	-10.1231
寔	-10.1232
其弟	-10.1232
孔子曰	-10.1236
知名	-10.1236
焦	-10.124
勵	-10.1243
嶽	-10.1243
流涕	-10.1245
如是	-10.1247
太皇太后	-10.1254
洲	-10.1257
不下	-10.126
逰	-10.126
韻	-10.1263
泄	-10.1267
親王	-10.1275
銘	-10.1276
鳯翔	-10.1284
三十七	-10.1289
員外郎	-10.1291
狐	-10.13
晉王	-10.1302
禮部侍郎	-10.1304
宋人	-10.1304
該	-10.1306
琮	-10.131
邯鄲	-10.1312
廻	-10.1325
愆	-10.1326
墳	-10.1331
滑	-10.1333
艾	-10.1334
孝宗	-10.1334
來屬	-10.1335
天文	-10.1343
天命	-10.1343
車騎將軍	-10.1345
高宗	-10.1348
自古	-10.1349
丹陽	-10.1355
閱	-10.1356
八百	-10.1364
昭宗	-10.1367
豫州刺史	-10.1373
偶	-10.1374
途	-10.1377
堤	-10.1378
之役	-10.1379
淮南王	-10.1384
及諸	-10.1393
之國	-10.1397
遥	-10.1398
言者	-10.1405
三十年	-10.1406
侈	-10.1407
奬	-10.1411
而行	-10.1412
終不	-10.1418
讀書	-10.1418
懲	-10.1425
南郊	-10.1436
准	-10.144
曰朕	-10.1442
東至	-10.1447
五色	-10.145
數千人	-10.1454
元和	-10.1456
車騎	-10.1456
將帥	-10.1457
前代	-10.1459
而歸	-10.146
街	-10.1466
太陰	-10.1468
為相	-10.147
彧	-10.1481
闗中	-10.1488
减	-10.1493
貞元	-10.1494
五萬	-10.1494
沔	-10.1495
又詔	-10.1495
江左	-10.1497
沂	-10.15
二年正月	-10.1512
洎	-10.1523
而立	-10.1535
始皇	-10.1535
臣僚	-10.154
潜	-10.1544
不利	-10.1557
第五	-10.1559
涇	-10.1561
二世	-10.1566
奉詔	-10.1568
有司奏	-10.1569
之樂	-10.1585
新城	-10.1587
卿等	-10.1593
入城	-10.1596
拯	-10.1597
汙	-10.1605
隙	-10.1607
無復	-10.1616
乃令	-10.162
驃騎	-10.1637
觸	-10.1642
馭	-10.1646
各以	-10.1649
舉進士	-10.1656
嗟	-10.1656
部落	-10.1671
塘	-10.1676
羡	-10.1681
三縣	-10.1682
以次	-10.1682
徳宗	-10.1684
穴	-10.1687
為國	-10.1687
汝南	-10.1689
霜	-10.1689
至元	-10.169
女子	-10.1693
匪	-10.1695
徐州刺史	-10.1695
山陽	-10.1701
鮑	-10.1703
丙	-10.1705
聞其	-10.171
壤	-10.171
蟲	-10.1713
那	-10.1715
阜	-10.1715
髪	-10.1722
誥	-10.1723
太公	-10.1723
翊	-10.1724
三十一	-10.1725
水旱	-10.1725
北海	-10.1728
故云	-10.1729
瓦	-10.1739
左僕射	-10.1742
讐	-10.1742
貝	-10.1743
揆	-10.1744
囊	-10.1744
什	-10.1744
栢	-10.1745
而卒	-10.1745
讎	-10.1754
得之	-10.1757
茅	-10.1763
裝	-10.1764
君之	-10.1765
衛將軍	-10.1768
不容	-10.1769
四十八	-10.1771
王莽	-10.1777
坤	-10.1779
今年	-10.1779
不成	-10.1781
窺	-10.1782
其功	-10.1786
行至	-10.1789
僚	-10.1794
二巻	-10.1799
弓矢	-10.18
敘	-10.1801
之兵	-10.1804
淳熙	-10.1806
諸部	-10.1806
兵部侍郎	-10.1809
不死	-10.181
封禪	-10.1813
僉	-10.1813
嘉之	-10.1816
蔣	-10.1817
勁	-10.182
數百人	-10.1824
無事	-10.1827
禮畢	-10.1829
謂曰	-10.1831
忤	-10.1835
行幸	-10.1841
内附	-10.1844
史臣曰	-10.1847
平章	-10.1849
無功	-10.1853
之變	-10.1855
考證	-10.1857
翔	-10.1857
則有	-10.1858
鄉里	-10.186
內	-10.1874
紛	-10.1878
節制	-10.188
長者	-10.1888
偕	-10.1888
禱	-10.189
之師	-10.1892
鄆	-10.1892
百里	-10.1896
至自	-10.1907
大業	-10.1907
兵起	-10.1908
鑑	-10.1914
上京	-10.1914
臻	-10.1919
太康	-10.1919
建武	-10.1924
在外	-10.1926
待之	-10.1935
霧	-10.1938
昉	-10.194
昻	-10.194
人有	-10.1945
之志	-10.195
百餘	-10.1955
鄒	-10.1959
輝	-10.197
新書	-10.1976
以告	-10.1979
第四	-10.1982
唱	-10.1986
永平	-10.1992
之術	-10.1995
少府	-10.2
伎	-10.2005
七十二	-10.2016
叱	-10.2022
禁中	-10.2026
祔	-10.2036
更始	-10.2039
監司	-10.2045
北地	-10.2047
二十五年	-10.2048
譯	-10.2051
互	-10.2053
五品	-10.2055
三曰	-10.2056
汎	-10.2059
滄州	-10.2061
鴈門	-10.2063
盜賊	-10.2071
大赦天下	-10.2077
戰於	-10.2079
數十人	-10.2081
中大夫	-10.2086
治之	-10.2087
此言	-10.2087
雍州刺史	-10.2089
先朝	-10.2089
常平	-10.2094
不安	-10.2108
城内	-10.212
十日	-10.2122
網	-10.2127
度支	-10.2128
下詔	-10.2141
樞密使	-10.2141
若不	-10.2142
襄公	-10.2144
地理志	-10.2144
部曲	-10.2145
耿	-10.2146
琦	-10.2148
甚衆	-10.2148
考證欽定四庫全書	-10.2149
提㸃	-10.2152
奸	-10.2153
之位	-10.2153
俯	-10.2157
箕	-10.2157
荆南	-10.2158
二十人	-10.2161
匠	-10.2162
不就	-10.2164
廩	-10.2164
北京	-10.2166
贊曰	-10.2172
大理	-10.2177
其黨	-10.2177
夏侯	-10.218
不食	-10.2182
韋昭曰	-10.2183
蕭衍	-10.2187
其間	-10.2191
縮	-10.2196
賜死	-10.2197
臂	-10.2198
之儀	-10.2204
玩	-10.2204
飯	-10.2205
其妻	-10.2208
迷	-10.2208
奉使	-10.2208
廣平	-10.2211
瑪	-10.2212
高帝	-10.2214
笑曰	-10.2216
若此	-10.2221
一月	-10.2227
圜	-10.2232
璘	-10.2235
嚮	-10.2237
癸夘	-10.2238
四面	-10.2238
喬	-10.2251
官爵	-10.2256
雒陽	-10.2256
食邑	-10.226
捐	-10.226
左丞相	-10.2261
綽	-10.2262
奎	-10.2262
百餘人	-10.2263
泗	-10.2269
南方	-10.2284
詣闕	-10.2285
日夜	-10.2286
梅	-10.2289
以禮	-10.2291
鄭𤣥曰	-10.2295
黄門侍郎	-10.2297
之職	-10.2299
姪	-10.2299
中軍	-10.231
味	-10.2313
賜以	-10.2315
拒之	-10.2327
山陵	-10.2329
長樂	-10.2336
夏至	-10.2338
域	-10.2338
返	-10.2338
人多	-10.2339
四卷	-10.234
顥	-10.234
奕	-10.2341
殿中侍御史	-10.2343
之禍	-10.2349
楷	-10.2349
榆	-10.2352
惠王	-10.2359
桀	-10.2359
相見	-10.236
都虞候	-10.237
嫡	-10.2373
沃	-10.2379
所生	-10.2391
京畿	-10.2394
城門	-10.2401
所為	-10.2402
慕容	-10.2403
咨	-10.2415
髮	-10.242
永興	-10.2422
一分	-10.2423
駭	-10.2423
洗	-10.2424
拱	-10.2424
固辭	-10.2426
乗之	-10.2428
為侍中	-10.243
腹	-10.243
宗正	-10.2433
輔國將軍	-10.2433
之任	-10.2439
何也	-10.244
崖	-10.2444
揚州刺史	-10.2445
郁	-10.2447
二字	-10.2452
千餘	-10.2454
三軍	-10.2454
萬餘人	-10.2455
陽城	-10.2456
敇	-10.2457
函	-10.2458
開封	-10.246
乃使	-10.2475
李氏	-10.2481
進爵	-10.2484
詰	-10.2487
下邳	-10.2488
賜之	-10.2489
黍	-10.2491
招討使	-10.2493
二十八年	-10.2496
托克托	-10.2501
漢人	-10.2508
追之	-10.2511
百人	-10.2513
裳	-10.2518
混	-10.2522
雨雹	-10.2525
閤門	-10.2535
為太尉	-10.2541
首領	-10.2542
迺	-10.2543
深入	-10.2543
㢘	-10.2547
倒	-10.2548
浸	-10.2551
天之	-10.2558
石頭	-10.2561
棘	-10.2564
遂與	-10.2565
柱國	-10.2565
徼	-10.2575
豈有	-10.2576
注云	-10.2577
甚厚	-10.258
鎮州	-10.2585
賞罰	-10.2586
等路	-10.2588
孽	-10.2592
達嚕噶齊	-10.2599
而止	-10.26
起復	-10.2604
乾元	-10.2608
儀同三司	-10.261
罵	-10.2612
論曰	-10.2616
四十二	-10.2618
或曰	-10.2623
廢帝	-10.2626
昨	-10.2628
異之	-10.2631
會稽	-10.2632
太一	-10.2633
涼州	-10.2643
握	-10.2651
二十七年	-10.2652
昱	-10.2664
廓	-10.2674
蓄	-10.2674
言曰	-10.2678
替	-10.2678
侮	-10.2682
扎	-10.2683
穢	-10.2683
不已	-10.2685
夙	-10.2695
鉅鹿	-10.27
四州	-10.2701
麾下	-10.2702
他日	-10.2702
淪	-10.2703
安南	-10.2705
宣徽使	-10.2709
小分	-10.2717
幷	-10.2718
之患	-10.272
其文	-10.2721
繕	-10.2727
其民	-10.2728
數人	-10.2736
法度	-10.2737
搆	-10.274
宫室	-10.2744
各置	-10.2745
䝉古	-10.2756
朔望	-10.2756
綴	-10.2757
有詔	-10.2758
元年正月	-10.2758
國人	-10.2759
征伐	-10.2762
出兵	-10.2762
以後	-10.2763
三十四	-10.2765
翰林	-10.2769
莒	-10.2772
惇	-10.2773
之情	-10.2774
暈	-10.2782
伐宋	-10.2789
!	-10.2792
當世	-10.2795
猷	-10.2797
以自	-10.2798
諫議大夫	-10.2802
答曰	-10.281
底	-10.2811
領兵	-10.2817
制置使	-10.2818
顗	-10.2819
之節	-10.2821
縣公	-10.2826
雕	-10.283
三年正月	-10.2833
臘	-10.2834
迭	-10.2838
億	-10.2851
月食	-10.2855
熾	-10.2855
是非	-10.2859
以歸	-10.2861
衛尉	-10.2866
呈	-10.2868
之則	-10.2872
肯	-10.2873
盗賊	-10.2874
譴	-10.2876
畝	-10.288
臣下	-10.2886
汲	-10.2887
攻城	-10.2887
五分	-10.2889
分為	-10.2894
伸	-10.2896
立功	-10.2903
殿前	-10.2906
尚書右僕射	-10.2908
闢	-10.2909
三代	-10.291
吐谷渾	-10.2911
有一	-10.2913
瑾	-10.2914
不克	-10.2914
確	-10.2915
鹵簿	-10.2916
亳	-10.292
都督府	-10.292
銳	-10.2922
饋	-10.2923
也若	-10.2931
鳳翔	-10.2936
出師	-10.2936
財物	-10.2937
不盡	-10.2939
添	-10.294
二十四年	-10.2942
視事	-10.2942
酉	-10.2944
鞠	-10.2949
國子祭酒	-10.2951
乃命	-10.2954
二十六年	-10.2954
王室	-10.2955
吉凶	-10.2959
渡江	-10.296
寓	-10.2962
其實	-10.2967
為御史大夫	-10.2968
然而	-10.2969
頗有	-10.2972
以求	-10.298
浙西	-10.2981
屍	-10.2983
繆	-10.2985
鏡	-10.2987
無罪	-10.2995
耆	-10.2995
轉運司	-10.2995
綸	-10.3005
謫	-10.3012
不顧	-10.302
得免	-10.302
敗走	-10.3021
陋	-10.3028
恬	-10.3028
右丞相	-10.3028
苛	-10.3032
總管府	-10.3037
起家	-10.304
暨	-10.3042
上以	-10.3044
鮮卑	-10.3051
從征	-10.3053
死罪	-10.3055
之風	-10.3056
鬭	-10.3057
之謀	-10.3059
京西	-10.3067
張儀	-10.3068
提舉司	-10.3078
!」	-10.3083
薩	-10.3085
天道	-10.3093
與其	-10.3093
貲	-10.3096
月餘	-10.3097
南海	-10.3105
骨肉	-10.3112
嶺南	-10.3117
昴	-10.3117
又置	-10.312
碩	-10.3122
亞	-10.3125
澹	-10.3127
人君	-10.3128
瘞	-10.3129
各有差	-10.3136
權知	-10.3137
潞	-10.3143
殄	-10.3144
萬石	-10.315
吹	-10.3151
愛之	-10.3152
之北	-10.3155
其一	-10.3155
溥	-10.3157
刑部尚書	-10.3158
遣其	-10.3159
出知	-10.3159
昭王	-10.3162
二分	-10.3162
汪	-10.3165
繪	-10.3174
之重	-10.3174
集二卷	-10.3175
軒轅	-10.3181
婢	-10.3182
永嘉	-10.3182
庶人	-10.3183
問曰	-10.3185
輔政	-10.3187
蘓	-10.3188
賞賜	-10.3189
而有	-10.3194
殿下	-10.3201
居之	-10.3201
之世	-10.3201
韜	-10.3203
朝臣	-10.3205
𤼵	-10.3206
無窮	-10.3209
儀注	-10.3212
語在	-10.3212
逋	-10.3214
後魏	-10.3219
昆弟	-10.3222
之説	-10.3223
噶	-10.3227
槍	-10.3227
金帛	-10.3232
禮官	-10.3232
太中大夫	-10.3248
縛	-10.3249
中宗	-10.325
於齊	-10.3255
禮儀	-10.3256
影	-10.3265
勾	-10.3266
使臣	-10.327
南面	-10.3272
漢軍	-10.3272
三十九	-10.3273
仁義	-10.3274
郎官	-10.3278
刑部	-10.3278
曰陛下	-10.3284
健	-10.3284
蠶	-10.3288
之才	-10.3289
芒	-10.3292
晉灼曰	-10.3293
北伐	-10.3299
三十里	-10.33
訊	-10.3301
患之	-10.3304
成功	-10.3304
寘	-10.3305
十餘年	-10.3306
鬼神	-10.3307
為司徒	-10.3307
之政	-10.3311
鑄錢	-10.3313
文宗	-10.3314
帝即位	-10.3318
於天下	-10.3322
後宫	-10.3328
免官	-10.3329
卒年七十	-10.3342
問之	-10.3343
掘	-10.3344
之南	-10.3346
常以	-10.3346
為司空	-10.335
禘	-10.3351
從弟	-10.3358
侍從	-10.3358
統軍	-10.3369
水陸	-10.337
大司農	-10.3373
聞而	-10.3377
睿宗	-10.338
班師	-10.339
來貢	-10.3392
稼	-10.3393
兖	-10.3398
樂止	-10.3399
朋	-10.3401
記室	-10.3401
王公	-10.3402
衢	-10.3403
右僕射	-10.3409
之難	-10.341
仲尼	-10.3411
政和	-10.3416
佑	-10.3426
黄門	-10.3428
努	-10.343
曰夫	-10.3433
户部侍郎	-10.3435
瀆	-10.3435
竟不	-10.3439
四百	-10.344
京兆尹	-10.3442
㳺	-10.3445
行在	-10.3445
軍馬	-10.3446
耻	-10.3447
守臣	-10.345
甘泉	-10.345
奴婢	-10.3454
矩	-10.346
其心	-10.3463
:	-10.3464
龔	-10.3466
曄	-10.3468
扶風	-10.3469
兇	-10.347
從容	-10.3473
願陛下	-10.3482
討平之	-10.3487
裏	-10.3501
肩	-10.3506
萬戸	-10.3508
弄	-10.3508
冐	-10.3509
工部尚書	-10.3519
千戸	-10.3519
殿中	-10.3521
縣置	-10.3528
望之	-10.3528
大喜	-10.3529
隘	-10.353
「	-10.3536
青州刺史	-10.3537
納之	-10.3538
撥	-10.354
貎	-10.355
嘉定	-10.355
踵	-10.3551
武徳	-10.3551
噐	-10.3552
昭公	-10.3553
同州	-10.3559
大義	-10.3561
徽宗	-10.357
宣和	-10.3575
赤道	-10.3579
東郡	-10.3585
保定	-10.3587
寝	-10.3587
史官	-10.359
鎬	-10.359
乆之	-10.3591
平章事	-10.3605
賓客	-10.3607
依前	-10.3611
何不	-10.3612
大功	-10.3613
濤	-10.3617
益都	-10.3617
立於	-10.3621
東陽	-10.3625
四十七	-10.3625
阮	-10.3626
稱其	-10.3628
祉	-10.3633
本朝	-10.3633
其城	-10.3634
曰公	-10.3637
相州	-10.364
加減	-10.3642
不問	-10.3646
淮東	-10.3648
沙門	-10.3653
款	-10.3655
京東	-10.366
太山	-10.3664
眀年	-10.3666
並為	-10.3673
乳	-10.3687
疇	-10.3687
羞	-10.369
廣西	-10.3691
埋	-10.3695
為王	-10.3697
宣宗	-10.3699
杲	-10.37
黄金	-10.3701
丑	-10.3702
不免	-10.3713
裘	-10.3714
刼	-10.3716
絕	-10.3717
大人	-10.3722
稍遷	-10.3727
相如	-10.3738
明安	-10.3739
以故	-10.374
粗	-10.374
三輔	-10.3741
太子詹事	-10.3741
九州	-10.3742
六軍	-10.3743
黄鐘	-10.3743
將相	-10.3747
東向	-10.3747
惲	-10.3753
各一員	-10.3757
版	-10.3764
䕫	-10.3768
郢州	-10.3769
當有	-10.377
因以	-10.3772
嵗餘	-10.3772
是故	-10.3775
五經	-10.3777
截	-10.3779
鞫	-10.3782
撓	-10.3783
本作	-10.3786
敗績	-10.3786
宋兵	-10.3787
大餘	-10.3788
州總管	-10.3795
玠	-10.3798
號令	-10.3799
侂胄	-10.3802
光祿大夫	-10.3803
壮	-10.3814
已來	-10.382
而退	-10.3823
總領	-10.3824
大行	-10.3826
下有	-10.383
之弊	-10.3833
陪	-10.3833
淮陽	-10.3834
無忌	-10.3836
朝服	-10.3836
太隂犯	-10.384
鉤	-10.3841
閩	-10.3842
刪	-10.3843
殯	-10.3845
來歸	-10.3847
置酒	-10.3848
矟	-10.3849
王府	-10.3856
戌	-10.3856
瑀	-10.3858
開皇	-10.3862
因此	-10.3863
不悦	-10.3865
七人	-10.3865
百寮	-10.3868
燔	-10.3872
捍	-10.3874
嗣位	-10.3874
鼓吹	-10.3877
生子	-10.3878
安西	-10.3879
諸國	-10.388
成帝	-10.3884
除名	-10.3894
大兵	-10.3896
日食	-10.3902
使使	-10.3904
覇	-10.3904
暫	-10.3909
上有	-10.3911
奉表	-10.3916
孝經	-10.3917
稱之	-10.392
朔日有蝕之	-10.3926
帯	-10.393
之業	-10.3931
貧民	-10.3934
侃	-10.3937
欲令	-10.3938
其上	-10.3938
奪其	-10.394
埶	-10.3943
僻	-10.3948
城南	-10.3949
奐	-10.3955
京都	-10.3958
樞宻院	-10.396
諮	-10.3965
義陽	-10.397
為右	-10.3977
所敗	-10.3982
再遷	-10.3982
如何	-10.3986
工部侍郎	-10.3995
杜預曰	-10.3997
悍	-10.4009
賜名	-10.4009
有三	-10.401
濮	-10.401
邠	-10.401
入太微	-10.4012
脚	-10.4013
可得	-10.4013
綾	-10.4015
新安	-10.4015
字仲	-10.402
澶州	-10.402
庻	-10.4027
販	-10.4029
十二卷	-10.403
埽	-10.4032
安平	-10.4033
帷	-10.4034
昆	-10.4034
數十萬	-10.4035
子曰	-10.4035
斧	-10.4037
金紫光禄大夫	-10.4037
外戚	-10.4038
蘇林曰	-10.4039
十餘萬	-10.4042
倡	-10.4053
遞	-10.4054
受詔	-10.4059
奉朝請	-10.406
於外	-10.4063
東井	-10.4065
江浙	-10.4069
立為	-10.4085
延年	-10.4094
覃	-10.4097
䑓	-10.4099
貯	-10.4102
驃騎將軍	-10.4102
四曰	-10.4104
丹陽尹	-10.4104
贇	-10.4106
四十六	-10.4108
本無	-10.412
人父	-10.4122
受之	-10.4124
杭州	-10.413
詩曰	-10.4132
為主	-10.4133
㤗	-10.4133
南郡	-10.4133
若有	-10.4134
失之	-10.4136
五十七	-10.4146
張浚	-10.4151
諤	-10.4152
武昌	-10.4161
可汗	-10.4163
終日	-10.4168
南山	-10.4173
卯	-10.4177
於上	-10.4179
年少	-10.4183
雀	-10.4183
其數	-10.4184
少子	-10.4188
其主	-10.419
襄王	-10.4192
冠軍將軍	-10.4198
賢者	-10.4199
卞	-10.4205
詳定	-10.4205
親戚	-10.4208
槩	-10.4211
尅	-10.4211
滄	-10.4214
河朔	-10.4215
鄆州	-10.4217
觀之	-10.4218
潮	-10.4222
汴州	-10.4223
磨	-10.4225
壺	-10.4229
飭	-10.4231
月行	-10.4232
記曰	-10.4241
今案	-10.4241
繒	-10.4243
從者	-10.4244
劔	-10.4246
眉	-10.4251
熱	-10.4251
闇	-10.4252
壹	-10.4253
叔父	-10.4254
剽	-10.4254
彛	-10.4259
魁	-10.4259
使副	-10.4267
駱	-10.4268
磬	-10.4269
蓬	-10.427
喇	-10.4271
顒	-10.4271
太常博士	-10.4274
者則	-10.4275
氷	-10.4277
詆	-10.4279
寸	-10.4281
自立	-10.4281
大安	-10.4283
逾	-10.4288
自言	-10.4289
岡	-10.4289
分兵	-10.4291
南向	-10.4291
慶之	-10.4297
掃	-10.4302
秦之	-10.4302
刑獄	-10.4308
哲宗	-10.4308
章邯	-10.4311
經史	-10.4316
止之	-10.4319
冰	-10.4321
夏國	-10.4321
大雨	-10.4323
乃詔	-10.4325
三十八	-10.4328
承天	-10.4332
中下	-10.4332
陜州	-10.4337
駮	-10.4343
燎	-10.4343
陳平	-10.4345
英宗	-10.4347
州觀察使	-10.4348
桂陽	-10.4353
枯	-10.4363
給事	-10.4363
者乎	-10.4363
改正	-10.4364
皇甫	-10.4367
太常少卿	-10.4372
前書	-10.4373
金吾	-10.4374
自陳	-10.4378
譬	-10.4383
冗	-10.4386
在京	-10.4391
契丹主	-10.4393
措	-10.4396
太史公曰	-10.44
入氐	-10.4401
黄河	-10.4402
山在	-10.4402
宦	-10.4405
尤甚	-10.4408
初置	-10.4409
謐	-10.4411
渥	-10.4413
駙馬都尉	-10.4415
緡	-10.4421
方今	-10.4428
不忘	-10.4429
籌	-10.4432
父老	-10.4439
求之	-10.4443
沁	-10.4455
漂	-10.4458
慶元	-10.4459
遇害	-10.446
即以	-10.4462
久矣	-10.4463
王安石	-10.4463
輯	-10.4463
五代	-10.4464
言於	-10.4464
於秦	-10.4465
隅	-10.4471
南康	-10.4471
乃得	-10.4472
譲	-10.4472
之議	-10.4472
一百五十	-10.4473
今之	-10.4477
以給	-10.4479
河決	-10.4479
不明	-10.4484
京邑	-10.4484
安都	-10.4485
禁軍	-10.4489
夀春	-10.4492
承㫖	-10.4493
奄	-10.4497
探	-10.45
曷	-10.4501
郡太守	-10.4504
太宰	-10.4507
一百一十	-10.4509
今改正	-10.451
躍	-10.4511
召還	-10.4513
夫子	-10.4516
繞	-10.4519
穎	-10.452
道士	-10.4523
復位	-10.4531
之半	-10.4534
給之	-10.4538
二十九年	-10.4539
永昌	-10.4548
法令	-10.4552
八千	-10.4561
陽侯	-10.4563
于時	-10.4564
有異	-10.4564
械	-10.4568
百年	-10.4568
草木	-10.4571
鬱	-10.4582
華州	-10.4583
龎	-10.4587
蚤	-10.4587
者衆	-10.4593
於前	-10.4594
河南尹	-10.4598
以報	-10.4602
不改	-10.4602
四十四	-10.4603
代王	-10.4605
縣也	-10.4607
|||	-10.4608
精兵	-10.4615
諫曰	-10.4615
元史卷	-10.4618
尋陽	-10.4623
追尊	-10.4629
四品	-10.463
也且	-10.4631
四年正月	-10.4634
蔚	-10.4637
曰若	-10.4639
受禪	-10.4639
是謂	-10.464
南征	-10.4642
少卿	-10.4643
七百	-10.4644
宫人	-10.4646
薪	-10.4652
黯	-10.4652
渙	-10.4655
壻	-10.4656
之君	-10.4659
狹	-10.4661
滑州	-10.4663
遮	-10.4664
諶	-10.4664
耳目	-10.4664
所宜	-10.4664
風雨	-10.4666
人所	-10.4668
衆軍	-10.4669
朝夕	-10.4674
歙	-10.4675
景公	-10.4676
主之	-10.4677
四十九	-10.4679
水軍	-10.4682
同平章事	-10.469
四夷	-10.4692
綵	-10.4701
翦	-10.4703
隴右	-10.4706
長公主	-10.4707
蔡京	-10.4712
衙	-10.4715
軍人	-10.4716
不易	-10.472
於朝	-10.4723
侍衛	-10.4724
枚	-10.4725
愿	-10.4726
染	-10.4726
四萬	-10.4731
不若	-10.4731
所見	-10.4735
以為然	-10.4737
九江	-10.4743
一寸	-10.4745
宗族	-10.4745
簒	-10.4746
職事	-10.4749
圉	-10.4756
二十萬	-10.4757
不堪	-10.4769
西川	-10.477
朝政	-10.4774
萬國	-10.4775
夏五月	-10.4776
滛	-10.4776
宣王	-10.4776
戸部	-10.4777
宰執	-10.4781
平原君	-10.4782
昬	-10.4784
所著	-10.4787
不識	-10.4788
江州刺史	-10.4795
處分	-10.4796
迪	-10.4796
衣食	-10.4796
盈縮	-10.4796
籠	-10.4799
民田	-10.4805
四十一	-10.4806
王元	-10.4806
芻	-10.4808
列傳第	-10.4812
六十四	-10.4813
||||	-10.4814
障	-10.4822
忠孝	-10.4823
抄	-10.4826
防禦	-10.4828
百司	-10.4829
三千人	-10.4829
兵法	-10.4829
一朝	-10.483
少帝	-10.4831
張耳	-10.4835
所入	-10.4838
囂	-10.4841
澗	-10.4843
者並	-10.4845
著作郎	-10.4846
碎	-10.4846
六卷	-10.4849
彭越	-10.4854
制置	-10.4854
元昊	-10.4857
劉攽曰	-10.486
酋	-10.4865
遣使者	-10.4866
之不	-10.4868
平王	-10.487
穆宗	-10.4871
天地之	-10.4873
廂	-10.4879
除之	-10.488
起為	-10.4883
此則	-10.4888
廬江	-10.4891
鶴	-10.4892
邇	-10.4892
六日	-10.4894
天祐	-10.49
椿	-10.4901
羲	-10.4901
主管	-10.4904
二百五十	-10.4907
詩云	-10.4912
拂	-10.4912
金城	-10.4913
璠	-10.4915
魂	-10.4915
曇	-10.4917
所害	-10.4926
非也	-10.4928
雖不	-10.4931
駟	-10.4931
一子	-10.4932
武陵	-10.4937
己夘	-10.494
莊公	-10.494
儻	-10.4941
男子	-10.4941
加之	-10.4941
闊	-10.4943
之聲	-10.4943
萬世	-10.4952
匱	-10.4952
又與	-10.4954
捧	-10.4956
樞密	-10.4958
謚	-10.4962
珙	-10.4964
而不能	-10.4965
相去	-10.4967
煥	-10.4967
之盛	-10.4971
以安	-10.4977
不樂	-10.4977
有聲	-10.4978
非所以	-10.4978
曼	-10.4982
哥	-10.4982
攘	-10.4986
縣名	-10.4987
議曰	-10.4988
標	-10.4989
股	-10.499
承制	-10.4997
疋	-10.4999
武功	-10.5005
銷	-10.5005
人臣	-10.5011
㝠	-10.5013
之理	-10.5015
大旱	-10.5015
亦無	-10.5023
弁	-10.5025
和親	-10.5028
毗	-10.5028
閎	-10.5029
大梁	-10.503
豎	-10.5031
戊	-10.5042
豈非	-10.5046
江夏	-10.5049
遣將	-10.5049
措置	-10.5051
桐	-10.5051
從官	-10.5051
彬	-10.5055
印綬	-10.5057
緋	-10.5057
女為	-10.5059
都元帥	-10.5059
蒸	-10.506
朂	-10.5061
之號	-10.5061
擊破之	-10.5062
爻	-10.5063
辰星	-10.507
腰	-10.5071
之處	-10.5071
不止	-10.5072
棣	-10.5073
蘄	-10.5078
漢兵	-10.5079
上聞	-10.5082
吞	-10.5082
劵	-10.5084
筵	-10.5086
或以	-10.5087
多少	-10.5091
刋	-10.5094
瀛	-10.5094
復立	-10.5097
梟	-10.51
孺	-10.5102
軍旅	-10.5102
杞	-10.5102
位於	-10.5103
因而	-10.5105
府事	-10.5107
刑部侍郎	-10.5108
上書言	-10.511
曦	-10.511
幡	-10.5112
驟	-10.5113
中正	-10.5114
瓘	-10.5116
未知	-10.5119
七千	-10.5123
供奉官	-10.5123
旒	-10.5124
許州	-10.5128
漢使	-10.5128
庚	-10.5131
愼	-10.5133
征討	-10.5143
盎	-10.5148
不納	-10.5149
收其	-10.515
户部尚書	-10.515
譖	-10.5153
越王	-10.5153
泊	-10.5153
囘	-10.5155
一品	-10.5157
員外	-10.5158
第七	-10.516
壓	-10.5163
其義	-10.5167
所過	-10.5169
兼領	-10.5175
犀	-10.5177
臨安	-10.5178
名為	-10.5185
九卿	-10.5185
冀州刺史	-10.5186
封為	-10.519
所知	-10.52
觀其	-10.5203
曾孫	-10.5203
貴賤	-10.5208
峽	-10.5214
產	-10.522
行宫	-10.5224
鞏	-10.5224
鷹	-10.5226
帖	-10.5228
萬五千	-10.5231
穰	-10.5233
集五卷	-10.5234
甚多	-10.5234
一等	-10.5237
歸之	-10.5238
詔令	-10.5243
荆湖	-10.5245
諸侯王	-10.5249
千金	-10.5254
不疑	-10.5255
之西	-10.5256
斃	-10.5257
諾	-10.5261
改名	-10.5267
大星	-10.5269
不得已	-10.5271
沆	-10.528
数	-10.528
僧辯	-10.5282
安帝	-10.5282
親征	-10.5282
門下侍郎	-10.5291
蕭何	-10.5296
城郭	-10.5299
鈐轄	-10.5301
同列	-10.5302
眾	-10.5302
䕶軍	-10.5305
分置	-10.531
之服	-10.531
以致	-10.5311
罪人	-10.5314
四十三	-10.5315
仍以	-10.532
縣官	-10.5321
臨淮	-10.5323
江都	-10.5326
遣兵	-10.5329
奭	-10.5329
不聞	-10.533
兩淮	-10.5332
之恩	-10.5332
河上	-10.5335
六百	-10.5336
此其	-10.534
絃	-10.5343
人民	-10.5347
滕	-10.5347
臥	-10.5347
僖	-10.5352
未聞	-10.5356
琅邪王	-10.5357
儀同	-10.5359
太白犯	-10.5361
忻	-10.5363
馮翊	-10.5364
其職	-10.5364
甸	-10.5366
犢	-10.5367
第六	-10.5369
水出	-10.537
太祝	-10.5374
所用	-10.5374
無異	-10.5375
天祚	-10.5379
之用	-10.538
左傳曰	-10.5381
萬騎	-10.5382
曰臣聞	-10.5389
般	-10.5389
乗輿	-10.5394
之物	-10.5395
油	-10.5396
晷	-10.5397
卭	-10.5401
五十五	-10.5402
戢	-10.5404
乘輿	-10.5412
朝野	-10.5418
熒惑犯	-10.5418
轅	-10.5423
縣名屬	-10.5425
士庶	-10.5431
二百四十	-10.5434
一嵗	-10.5444
二年春正月	-10.5444
加以	-10.5445
枕	-10.5447
叟	-10.5448
著作佐郎	-10.5455
又令	-10.546
左將軍	-10.5462
也然	-10.5467
菜	-10.5474
登歌	-10.5477
暑	-10.5477
熙寧	-10.548
其書	-10.5482
軍使	-10.5483
炳	-10.5484
漁	-10.5485
本州	-10.5487
直言	-10.5487
服之	-10.5489
柏	-10.5493
郊廟	-10.5496
衫	-10.5497
鼠	-10.5504
赴闕	-10.5517
見殺	-10.5522
厨	-10.5524
技	-10.5524
胤	-10.5526
也其	-10.553
快	-10.553
見於	-10.553
入宫	-10.5531
祕書監	-10.5532
三王	-10.5534
憐	-10.5535
嶠	-10.5541
際	-10.5544
十里	-10.5547
頤	-10.5548
登進士第	-10.5551
所欲	-10.5553
仍令	-10.5558
縣民	-10.5559
馬軍	-10.556
鎮撫	-10.5561
府庫	-10.5562
尋除	-10.5563
燧	-10.5567
橫	-10.5567
時為	-10.5568
太史公	-10.5568
副之	-10.5568
太隂	-10.5575
先登	-10.558
翌日	-10.558
生於	-10.5583
殁	-10.5585
笛	-10.5587
漳	-10.559
秋八月	-10.5594
搜	-10.5597
之子也	-10.5598
篆	-10.56
之末	-10.56
暗	-10.5601
孝惠	-10.5604
歸國	-10.5606
扈	-10.5607
先後	-10.5609
太妃	-10.5614
興元	-10.5614
不必	-10.5616
怒曰	-10.5618
后稷	-10.5618
王后	-10.5619
棄市	-10.562
媚	-10.5623
山南	-10.5624
搏	-10.5624
寖	-10.5624
軾	-10.5627
闡	-10.5627
者悉	-10.5627
千石	-10.5637
漢興	-10.564
射之	-10.5641
榷	-10.5645
芮	-10.5649
建中	-10.5652
蔵	-10.5653
國子博士	-10.5654
曺	-10.5655
恱	-10.5656
不入	-10.5659
有二	-10.5662
自然	-10.5669
管仲	-10.567
天子之	-10.567
境内	-10.5672
兵士	-10.5674
進軍	-10.5675
監本訛	-10.5675
罹	-10.5679
為左	-10.568
六國	-10.5681
所獲	-10.5686
軍至	-10.5686
平城	-10.5687
靈公	-10.5687
孔安國曰	-10.5692
中星	-10.5692
實録	-10.5692
之前	-10.5693
其有	-10.5694
亡命	-10.5697
愔	-10.5697
旬日	-10.5698
填星	-10.5699
壯士	-10.5704
留後	-10.5709
長城	-10.5709
筭	-10.571
平州	-10.5711
涇原	-10.5718
冡	-10.572
非常	-10.5723
信都	-10.5728
故城	-10.5728
晃	-10.5729
順帝	-10.5729
贄	-10.5732
四千	-10.5733
勘	-10.5734
征虜將軍	-10.5735
鎮江	-10.5736
岑	-10.5746
因之	-10.5746
褚	-10.5748
膏	-10.5749
亳州	-10.5752
大雪	-10.5753
驢	-10.5754
遍	-10.5754
興宗	-10.5761
綺	-10.5762
神明	-10.5762
議郎	-10.5763
東門	-10.5765
金石	-10.5766
拓	-10.5771
尋遷	-10.5773
晩	-10.5773
恂	-10.5773
饑民	-10.5776
鼻	-10.5776
還京師	-10.5777
悖	-10.5778
萬年	-10.5779
右將軍	-10.578
重耳	-10.5782
五十二	-10.5782
擢為	-10.5787
攸之	-10.5789
相應	-10.5792
字伯	-10.5793
湖廣	-10.5794
中使	-10.5797
武成	-10.5797
入覲	-10.5798
上谷	-10.58
𤓰	-10.5803
屯兵	-10.5803
嶷	-10.5804
㳟	-10.5808
居民	-10.581
脈	-10.5811
中書門下	-10.5815
如此則	-10.5819
彗	-10.5821
人事	-10.5823
浙東	-10.5826
不自	-10.5826
掖	-10.5827
易之	-10.5829
暇	-10.5832
頂	-10.5834
緡錢	-10.5836
晉州	-10.5839
冉	-10.5843
諸縣	-10.5844
魏州	-10.5846
已亥	-10.5846
纓	-10.5848
涇州	-10.5851
經略	-10.5856
想	-10.5858
怯	-10.5858
扼	-10.5859
琬	-10.5859
之費	-10.586
未行	-10.5863
為上	-10.5863
懇	-10.5867
之象	-10.587
仍舊	-10.5873
親屬	-10.5877
其勢	-10.5878
流民	-10.5879
蔡州	-10.588
衆皆	-10.588
廣漢	-10.5881
大悦	-10.5885
入海	-10.5886
行軍	-10.5887
療	-10.5891
受其	-10.5891
可為	-10.5894
其能	-10.5896
延夀	-10.5901
復遣	-10.5902
其法	-10.5902
所有	-10.5902
故有	-10.5903
遁去	-10.5905
之徳	-10.5905
輟	-10.591
武安	-10.591
咸平	-10.591
梁州	-10.5913
豕	-10.5913
國子監	-10.5914
武臣	-10.5916
漁陽	-10.5918
至正	-10.5921
北向	-10.5925
言事	-10.5928
卬	-10.5929
駒	-10.593
五百人	-10.5933
映	-10.5935
不平	-10.5936
獲其	-10.5945
當以	-10.5946
相率	-10.5949
團	-10.5955
都部署	-10.596
大徳	-10.596
賑之	-10.5961
入貢	-10.5965
之東	-10.5966
之美	-10.5966
不知其	-10.5966
靈武	-10.597
事之	-10.5972
球	-10.5972
鄂州	-10.5976
少有	-10.598
鄭州	-10.5981
國用	-10.5983
苖	-10.5984
縣東	-10.5984
未盡	-10.5984
紇	-10.5987
濮陽	-10.5989
遣官	-10.599
奨	-10.5991
何所	-10.5991
榜	-10.5992
薦之	-10.5995
功曹	-10.6004
行參軍	-10.6005
俞	-10.6006
銖	-10.6018
武宗	-10.602
為天子	-10.6028
刑罰	-10.6028
謂之曰	-10.6028
三司使	-10.6029
鴈	-10.603
災異	-10.603
歴代	-10.6031
絡	-10.6032
廪	-10.6032
朝士	-10.6036
韓魏	-10.6038
宜令	-10.6039
輜重	-10.6039
挫	-10.6042
進位	-10.6047
有此	-10.6047
六十七	-10.6047
南越	-10.6048
近侍	-10.605
元帥府	-10.6051
分左右	-10.6051
奉迎	-10.6052
是夜	-10.6058
其志	-10.606
終身	-10.6065
不法	-10.6067
升殿	-10.6068
嫉	-10.6068
陰陽	-10.6071
以減	-10.6071
之始	-10.6074
舊五代史巻	-10.6074
琪	-10.6075
艱難	-10.608
州軍	-10.608
統制	-10.6082
不拜	-10.6082
從事中郎	-10.6084
響	-10.6088
鄧州	-10.6089
而入	-10.609
騶	-10.6091
家屬	-10.6092
之舞	-10.6093
少年	-10.6096
移鎮	-10.6105
瑗	-10.6111
以通	-10.6111
以供	-10.6112
鈎	-10.6115
賻	-10.6116
處之	-10.6121
邢州	-10.6124
巴蜀	-10.6128
三子	-10.6131
防禦使	-10.6132
王曰	-10.6138
沿	-10.6139
父兄	-10.614
為郎	-10.6147
轉運	-10.615
薊	-10.615
周官	-10.6153
棗	-10.6154
尚書僕射	-10.6154
不幸	-10.6155
一十	-10.6165
漢陽	-10.6165
系	-10.6167
安樂	-10.6168
狎	-10.6169
爼	-10.6169
踐阼	-10.6175
一百三十	-10.6179
三十人	-10.618
在今	-10.6185
毋得	-10.6189
胙	-10.6195
萊	-10.6197
臨江	-10.6202
眼	-10.6202
通直散騎常侍	-10.6203
上郡	-10.6204
主上	-10.6207
溉	-10.6213
霖雨	-10.6214
不允	-10.622
五度	-10.6227
項梁	-10.6228
迴	-10.623
不能自	-10.6233
膠東	-10.6235
宣撫	-10.6235
地名	-10.6242
上元	-10.6248
世隆	-10.6248
五十四	-10.6252
大中	-10.6255
日度	-10.6255
狥	-10.6255
驍	-10.6259
湖北	-10.626
應天	-10.6262
復有	-10.6263
固守	-10.6265
亭侯	-10.6266
顯祖	-10.627
熹	-10.627
六度	-10.6272
坎	-10.6279
本路	-10.628
猥	-10.6281
亶	-10.6284
職官	-10.6288
尚書郎	-10.6291
嘗為	-10.6295
自謂	-10.6297
孝王	-10.6301
皆如	-10.6302
鏤	-10.6304
鉅	-10.6308
梁有	-10.6309
有天下	-10.6311
襄城	-10.6311
之餘	-10.6311
珂	-10.6329
泗州	-10.6332
曩	-10.6335
此乃	-10.6336
濠	-10.6337
辜	-10.6338
巷	-10.6341
服闋	-10.6342
十二人	-10.6347
卒于	-10.6347
天福	-10.6348
詡	-10.6353
電	-10.6359
不失	-10.6368
参	-10.637
家貧	-10.6377
全忠	-10.6377
北邊	-10.6378
之氣	-10.6382
驩	-10.6386
為皇太子	-10.6388
狡	-10.6388
以成	-10.6389
州諸軍事	-10.6393
兵至	-10.6394
藴	-10.6394
諫官	-10.6396
應之	-10.6401
城邑	-10.6408
破賊	-10.6411
緝	-10.6413
稜	-10.6416
遂為	-10.6418
渚	-10.6419
云云	-10.642
秘書監	-10.6422
龍驤將軍	-10.6424
不信	-10.6424
濵	-10.6427
有兵	-10.6428
存亡	-10.6429
府長史	-10.6432
騫	-10.6432
知州	-10.644
不聼	-10.644
遂至	-10.6441
州都督	-10.6443
畋	-10.6444
紐	-10.6446
為文	-10.6451
太微	-10.6452
軸	-10.6462
死於	-10.6463
有竒	-10.6465
平定	-10.6469
平生	-10.6472
詔諭	-10.6474
何足	-10.6474
瓜	-10.6475
廬州	-10.648
下令	-10.6481
百僚	-10.6483
軍於	-10.6488
太清	-10.649
自號	-10.6494
賄	-10.6497
商賈	-10.65
駐蹕	-10.6501
千萬	-10.6502
八卷	-10.6513
與戰	-10.6521
舎人	-10.6522
嘉祐	-10.6523
成公	-10.6524
進攻	-10.6524
哀帝	-10.6534
招討	-10.6535
改曰	-10.6538
其利	-10.6539
陳王	-10.654
反覆	-10.6541
文書	-10.6546
貴妃	-10.6547
餘衆	-10.6548
夭	-10.6552
諸儒	-10.6552
二十里	-10.6552
毫	-10.6553
賚	-10.6554
司馬光	-10.6557
兵攻	-10.6559
劉向	-10.656
未必	-10.6561
乃還	-10.6563
後以	-10.6563
推官	-10.6564
諮議參軍	-10.6565
於天	-10.657
柩	-10.6571
人也少	-10.6572
便宜	-10.6576
部下	-10.6576
組	-10.658
紿	-10.6581
行禮	-10.6581
三省	-10.6583
漫	-10.6584
襄州	-10.6589
兵部	-10.6591
宣慰司	-10.6592
鍾離	-10.6594
冬十一月	-10.6599
札	-10.6603
盾	-10.6606
叢	-10.6607
誤也	-10.661
浪	-10.661
把	-10.6611
曰天	-10.6612
忝	-10.6613
以奉	-10.6613
粹	-10.6614
佃	-10.6614
樞宻使	-10.6614
虎賁	-10.6614
懋	-10.6614
灼	-10.6615
而復	-10.6616
北征	-10.662
五曰	-10.6621
孝景	-10.6624
安世	-10.6625
皆不	-10.6627
善騎射	-10.6627
北至	-10.6628
僣	-10.6629
嬴	-10.663
又奏	-10.6632
謂其	-10.6633
在於	-10.6635
出奔	-10.6635
開禧	-10.6637
遼陽	-10.6651
以城降	-10.6651
洋	-10.6652
亥	-10.6653
俠	-10.6655
縣南	-10.6656
璽書	-10.6659
出戰	-10.6661
是歳	-10.6663
凉	-10.6663
弭	-10.6665
五十六	-10.6666
正七品	-10.6668
秋分	-10.6671
一家	-10.6672
早卒	-10.6672
毛詩	-10.6673
從軍	-10.6678
周之	-10.6681
至徳	-10.6681
追至	-10.6682
禦之	-10.6686
州城	-10.6687
定陶	-10.6689
北斗	-10.669
妨	-10.6691
疫	-10.6692
進士第	-10.6693
必不	-10.6693
欲立	-10.6693
各二	-10.6695
稚	-10.6695
牐	-10.6697
殞	-10.67
奔走	-10.6703
棄之	-10.6707
廸	-10.6711
而進	-10.6715
舌	-10.6716
之孫	-10.6719
泰始	-10.6719
膠	-10.6722
故能	-10.6722
朝議	-10.6723
舛	-10.6724
伊喇	-10.6727
苞	-10.6729
器械	-10.673
二度	-10.6733
張氏	-10.6734
龍門	-10.6736
永寧	-10.6743
進兵	-10.6745
頸	-10.6745
軍主	-10.6746
獻公	-10.6749
十餘日	-10.675
於民	-10.6752
繹	-10.6753
只	-10.6754
志云	-10.6757
上章	-10.6762
凱	-10.6762
宣武	-10.6767
至尊	-10.6767
之主	-10.6769
西面	-10.677
旄	-10.6771
為君	-10.6771
谿	-10.6771
已酉	-10.6771
信之	-10.6773
其身	-10.6773
九分	-10.6777
泛	-10.6778
王道	-10.6779
竿	-10.6781
猜	-10.6782
朋黨	-10.6785
零	-10.6787
樂安	-10.6789
外國	-10.6794
此事	-10.6794
建徳	-10.6796
翠	-10.6797
臣請	-10.6799
始祖	-10.6799
聊	-10.6801
瑩	-10.6807
斫	-10.6808
秘	-10.6817
等並	-10.6818
永徽	-10.6818
七分	-10.6819
望見	-10.6824
渝	-10.6828
亰	-10.6831
撫軍	-10.6835
侍臣	-10.6836
郝	-10.6836
靈州	-10.6837
猶有	-10.6838
次之	-10.6838
復舊	-10.6839
四度	-10.684
抽	-10.684
寂	-10.6842
亾	-10.6847
討賊	-10.6848
入于	-10.685
緩急	-10.685
詹事	-10.6852
詔有司	-10.6853
東魏	-10.6855
太初	-10.6857
畨	-10.6865
剖	-10.6866
後周	-10.6866
春分	-10.6866
民力	-10.6868
大國	-10.6869
所司	-10.6869
烏孫	-10.687
因其	-10.687
不服	-10.6871
下獄	-10.6873
自後	-10.6873
二郡	-10.6876
不治	-10.6882
稱臣	-10.6882
廵檢	-10.6883
經義	-10.6886
晉人	-10.6891
嘉努	-10.6891
棲	-10.6891
請降	-10.6893
皆在	-10.6896
康王	-10.6897
昂	-10.6897
後人	-10.6905
儒者	-10.6906
隕	-10.6907
户口	-10.691
軍國	-10.6911
文徳	-10.6913
戰死	-10.6914
安撫司	-10.6918
安置	-10.6921
者即	-10.6922
惰	-10.6926
南安	-10.6927
始置	-10.6934
人也父	-10.6934
有才	-10.6936
三尺	-10.6936
百二十	-10.6938
以東	-10.694
勰	-10.6941
天聖	-10.6945
以進	-10.6945
定數	-10.6947
别駕	-10.6948
翻	-10.6951
佳	-10.6952
是後	-10.6954
臣竊	-10.6957
其才	-10.6962
等使	-10.6962
未得	-10.6964
萬計	-10.6965
伏兵	-10.6965
歸徳	-10.697
正八品	-10.6971
曲赦	-10.6971
土地	-10.6971
孟嘗君	-10.6978
秦檜	-10.6978
自以	-10.6981
斡	-10.6983
夏州	-10.6983
以本官	-10.6983
於人	-10.6985
已未	-10.6986
萬一	-10.6988
疑其	-10.6991
鄉侯	-10.6991
三等	-10.6991
監本	-10.6993
之象也	-10.6994
位至	-10.6997
者謂	-10.6999
代宗	-10.7
一千五百	-10.7
周天	-10.7005
北郊	-10.7007
斜	-10.7007
婆	-10.7009
鋪	-10.701
羸	-10.701
鉉	-10.7015
有疾	-10.7016
趙氏	-10.7019
學生	-10.7022
三度	-10.7024
車馬	-10.7025
上將	-10.7027
已丑	-10.7027
之學	-10.7031
金陵	-10.7034
騎兵	-10.7035
及長	-10.7035
袖	-10.7035
無益	-10.7035
日蝕	-10.7036
羣官	-10.7036
义	-10.7036
不測	-10.7037
嬖	-10.704
不聴	-10.7043
上疏曰	-10.7044
潭州	-10.7044
所出	-10.7048
為定	-10.7049
行軍司馬	-10.705
則不	-10.7053
七卷	-10.7062
几	-10.7064
姻	-10.7065
建元	-10.7069
中京	-10.7069
旻	-10.7071
此時	-10.708
百户	-10.7083
前將軍	-10.7088
六分	-10.7088
不自安	-10.7089
已後	-10.7089
每日	-10.709
不載	-10.7092
宦官	-10.7093
帝紀	-10.7094
殿上	-10.7095
之䇿	-10.7095
已死	-10.7099
即皇帝位	-10.71
别將	-10.71
有㫖	-10.7112
縣西	-10.7114
中書監	-10.7114
鎔	-10.7116
止於	-10.7117
晝見	-10.7118
姿	-10.7119
可乎	-10.7121
國事	-10.7123
今若	-10.7123
無道	-10.7124
揮	-10.7125
棟	-10.7127
阿里	-10.7129
梗	-10.713
兼侍中	-10.7131
中書舎人	-10.7132
交通	-10.7136
三年春正月	-10.7136
元中書右丞相總裁托克托等修列傳第	-10.7141
顯宗	-10.7144
将士	-10.7146
可也	-10.7148
西向	-10.715
陳州	-10.715
張良	-10.7151
揺	-10.7152
党項	-10.7154
俎	-10.7154
黥	-10.7155
藁	-10.7158
八日	-10.716
先王之	-10.7161
授以	-10.7162
干戈	-10.7162
𢎞農	-10.7164
入闗	-10.7166
終始	-10.7167
引見	-10.7168
典禮	-10.717
如前	-10.717
上將軍	-10.717
月在	-10.717
城陽	-10.7176
孟子	-10.7177
厲公	-10.7177
營田	-10.7178
犯法	-10.7179
十餘人	-10.7182
扞	-10.7182
禮義	-10.7182
䕃	-10.7186
二千人	-10.7187
冝	-10.7189
攷	-10.7191
所求	-10.7191
臨洮	-10.7191
待制	-10.7193
聿	-10.7193
跋	-10.7195
平江	-10.7201
二王	-10.7201
瑱	-10.7202
無可	-10.7203
河南府	-10.7205
從子	-10.7205
蘭陵	-10.7206
西夏	-10.7207
今陛下	-10.721
顓	-10.7213
桓帝	-10.7213
識者	-10.7213
事有	-10.7214
武定	-10.7217
一百四十	-10.7217
冠軍	-10.7217
歩騎	-10.7223
第八	-10.7227
並同	-10.7227
中常侍	-10.7229
自為	-10.7232
開封府	-10.7234
至則	-10.7236
安豐	-10.7237
文昌	-10.724
廣徳	-10.724
禮之	-10.7243
人物	-10.7243
五十三	-10.7243
大中祥符	-10.7245
鷄	-10.7247
膽	-10.7247
轄	-10.7248
牛馬	-10.7248
都城	-10.7254
以書	-10.7255
伐齊	-10.7255
大驚	-10.7255
病死	-10.7256
諸君	-10.7261
無他	-10.7261
隰	-10.7263
矣今	-10.7265
葵	-10.7268
鉞	-10.727
朞	-10.727
一百八十	-10.727
舘	-10.7272
黃帝	-10.7273
欲殺	-10.7273
坑	-10.7274
購	-10.7276
民之	-10.7277
叅軍	-10.7279
涕泣	-10.7279
安能	-10.728
以西	-10.728
州事	-10.7281
加散騎常侍	-10.7287
七十五	-10.7288
臨海	-10.7289
右諫議大夫	-10.729
九日	-10.7292
武威	-10.7295
得一	-10.7297
臣恐	-10.7297
奥	-10.7301
後復	-10.7302
殖	-10.7304
慷慨	-10.7307
㫁	-10.7307
髙陽	-10.7307
遼西	-10.7308
圍之	-10.7308
六合	-10.7309
后妃	-10.7311
者非	-10.7313
其兄	-10.7314
國史	-10.7323
韓王	-10.7324
弱冠	-10.7328
開門	-10.7329
無敢	-10.733
小兒	-10.733
踰年	-10.7331
于朝	-10.7334
所奏	-10.7335
泌	-10.7335
尋為	-10.7337
撤	-10.7339
不獲	-10.7343
八分	-10.7345
五巻	-10.7346
功徳	-10.7346
聖徳	-10.7349
浙	-10.7349
今後	-10.7355
事也	-10.7356
奏之	-10.7358
堅守	-10.7358
膝	-10.736
州别駕	-10.7362
窘	-10.7367
評	-10.7368
次子	-10.7368
白虎	-10.7376
擊破	-10.7381
自相	-10.7382
相持	-10.7386
州廢	-10.7387
臨朝	-10.7388
不取	-10.7388
迄	-10.739
十五日	-10.7391
為賊所	-10.7395
以事	-10.7395
永元	-10.7396
轍	-10.7398
煙	-10.7398
尚書右丞	-10.7402
冊寶	-10.7405
襲封	-10.7405
經一卷	-10.7407
不可不	-10.741
河水	-10.741
將校	-10.7413
扈從	-10.7416
及至	-10.7418
乃出	-10.7423
五十八	-10.7423
禎	-10.7423
糶	-10.7428
兗州	-10.7432
惠公	-10.7434
吕后	-10.7438
杭	-10.744
一也	-10.7444
八十一	-10.7445
了	-10.7455
安危	-10.7455
架	-10.746
留之	-10.7462
皂	-10.7463
欲使	-10.7471
詩書	-10.7472
然也	-10.7474
大将	-10.7475
律令	-10.7478
天寶	-10.7479
輔國	-10.748
之敗	-10.7481
觴	-10.7481
西山	-10.7483
䘏	-10.7483
禍福	-10.7484
皎	-10.7485
西魏	-10.7485
益州刺史	-10.7487
四日	-10.7488
霄	-10.749
武公	-10.7491
楚州	-10.7493
福州	-10.7493
同姓	-10.7494
立廟	-10.7497
守將	-10.7499
重誨	-10.75
語曰	-10.7501
圖克坦	-10.7503
武平	-10.7505
不加	-10.7508
槃	-10.7514
人也祖	-10.7514
稔	-10.7517
蠧	-10.7519
踈	-10.752
緊	-10.7521
晞	-10.7522
㳂	-10.7525
人馬	-10.7528
一十五	-10.7528
學官	-10.7529
延州	-10.7531
梓	-10.7533
大抵	-10.7537
必先	-10.7541
大鴻臚	-10.7544
減之	-10.7547
其次	-10.7548
交阯	-10.7548
緑	-10.7551
莫若	-10.7552
中道	-10.7552
髙平	-10.7552
則是	-10.7552
薨子	-10.7556
師古曰謂	-10.7558
泰和	-10.7566
令人	-10.7568
者言	-10.7571
初立	-10.7573
其本	-10.7574
當今	-10.7575
東道	-10.7575
覬	-10.7577
虔	-10.7579
䖏	-10.7581
元景	-10.7583
宣撫司	-10.7587
班固	-10.7596
不稱	-10.7597
還都	-10.7599
自守	-10.7599
所由	-10.7599
小字	-10.7601
州人	-10.7602
郎中令	-10.7602
八十四	-10.7602
簽	-10.7604
粥	-10.7607
的	-10.7607
賦詩	-10.7608
簫	-10.7609
紘	-10.761
莅	-10.761
之道也	-10.7611
蒼梧	-10.7611
為帝	-10.7611
有變	-10.7613
文宣	-10.7615
廣東	-10.7616
大使	-10.7617
開寳	-10.7619
之長	-10.7621
大如	-10.7621
十餘里	-10.7622
博學	-10.7628
愷	-10.7632
涓	-10.7639
十有二	-10.7641
固請	-10.7644
五十一	-10.7644
七廟	-10.7649
六十三	-10.7649
毆	-10.7652
選人	-10.7652
起居郎	-10.7652
於時	-10.7655
豈得	-10.7659
悉以	-10.7661
宗社	-10.7662
西征	-10.7667
將吏	-10.7668
建昌	-10.7668
帝命	-10.7669
還至	-10.767
又請	-10.7671
宸	-10.7671
泉州	-10.7673
太學博士	-10.7674
奉天	-10.7677
憾	-10.7678
2	-10.768
退保	-10.7683
之力	-10.7687
雒	-10.7688
輕騎	-10.7692
無遺	-10.7695
兵革	-10.7697
􁀙	-10.7699
灰	-10.7701
宋史巻	-10.7703
倉卒	-10.7705
拒戰	-10.7705
或謂	-10.7706
起於	-10.7706
叅知政事	-10.7707
嚕	-10.7708
以罪	-10.7709
成敗	-10.771
志曰	-10.7711
其軍	-10.7713
黎陽	-10.7718
南伐	-10.7718
城西	-10.7719
祧	-10.7723
餘為	-10.7724
表請	-10.7724
五車	-10.7725
一百七十	-10.7725
逞	-10.7725
李竒曰	-10.7727
二年二月	-10.773
牆	-10.7731
瑋	-10.7731
五十九	-10.7733
大禮	-10.7733
大元兵	-10.7735
豪傑	-10.7736
零陵	-10.7736
之謂	-10.7739
愬	-10.7739
4	-10.774
鹽鐵	-10.7742
故城在	-10.7744
黔	-10.7746
使還	-10.7746
作樂	-10.7746
從兄	-10.7746
中官	-10.775
張掖	-10.7751
消息	-10.7754
年老	-10.7755
若是	-10.7758
直學士	-10.7759
筮	-10.7759
珣	-10.7761
蔡邕	-10.7766
礪	-10.7769
瀛州	-10.7773
宣撫使	-10.7775
舉人	-10.7775
主者	-10.7779
為我	-10.7782
率師	-10.7783
二十餘	-10.7784
之分	-10.7787
鄉人	-10.779
都䕶	-10.779
竈	-10.7793
紀綱	-10.7795
興師	-10.7797
繋	-10.7797
善之	-10.7797
驃騎大將軍	-10.7803
建議	-10.7804
正三品	-10.7805
酈	-10.7805
字元	-10.7805
金兵	-10.7809
獨不	-10.7814
晉書	-10.7817
改授	-10.7818
楚之	-10.7818
太常寺	-10.782
乃復	-10.7825
逝	-10.7827
估	-10.7828
未詳	-10.7831
郷	-10.7831
滌	-10.7831
唐虞	-10.7832
剏	-10.7832
伐之	-10.7832
欲與	-10.7834
簾	-10.7835
九人	-10.7837
歩軍	-10.7837
如舊	-10.7838
行者	-10.7842
獠	-10.7846
模	-10.7855
壅	-10.7856
者乃	-10.7858
無常	-10.7858
皁	-10.7863
延安	-10.7863
博囉	-10.7864
當是時	-10.7865
5	-10.7866
長孫	-10.7867
后土	-10.7867
乘之	-10.7868
定襄	-10.7872
同時	-10.7875
安民	-10.7877
嘗與	-10.7879
燕京	-10.788
安州	-10.7881
堯舜	-10.7882
上流	-10.7883
商人	-10.7883
字也	-10.7884
大體	-10.789
之資	-10.789
四縣	-10.7891
前軍	-10.7894
殃	-10.7895
汝州	-10.79
紳	-10.7901
猶未	-10.7905
尊卑	-10.7906
待罪	-10.7911
酒泉	-10.7912
闕下	-10.7913
降者	-10.7914
為天下	-10.7918
還宫	-10.7919
遣使朝貢	-10.7921
僧格	-10.7922
部族	-10.7923
江北	-10.7923
幘	-10.7923
以死	-10.7925
塹	-10.7926
廐	-10.7937
年五十	-10.7938
還京	-10.7941
何必	-10.7943
洛州	-10.7946
酌獻	-10.7948
殤	-10.7948
之書	-10.795
魏博	-10.795
以身	-10.7951
䑕	-10.7954
謂人曰	-10.7955
濶	-10.7955
豳	-10.7956
訣	-10.7957
論之	-10.7958
學校	-10.7958
覘	-10.7959
邃	-10.796
南唐	-10.7963
形勢	-10.7966
九十一	-10.7968
詔曰朕	-10.7974
視其	-10.7975
執事	-10.7976
徙封	-10.7977
在州	-10.7978
稻	-10.7978
朝㑹	-10.7979
治平	-10.798
六十五	-10.7981
二年四月	-10.7981
二品	-10.7981
曰是	-10.7982
於下	-10.7988
圖之	-10.7989
寮	-10.799
年六十	-10.799
煬帝	-10.7991
恊	-10.7992
潼闗	-10.7994
起居注	-10.7994
三百人	-10.7995
與語	-10.7997
紹聖	-10.7997
興國	-10.7998
推之	-10.8003
太上皇	-10.8008
以應	-10.8009
俛	-10.8009
聰明	-10.8013
顓頊	-10.8016
萬匹	-10.8017
縣有	-10.8018
月掩	-10.8021
汚	-10.8028
唐書卷	-10.803
樂作	-10.8033
太子賔客	-10.8036
縣男	-10.8037
租賦	-10.8037
睢	-10.8041
還朝	-10.8042
萬二千	-10.8042
縣地	-10.8044
盡忠	-10.8045
元年春正月	-10.8054
餘皆	-10.8058
對曰臣	-10.8059
樂章	-10.8066
于是	-10.8067
又改	-10.807
幄	-10.8071
滅之	-10.8074
如初	-10.8076
訾	-10.8078
其議	-10.8078
皆得	-10.8079
宣慰使	-10.808
逄	-10.8081
送之	-10.8082
者其	-10.8082
禽獸	-10.8084
提控	-10.8085
大舉	-10.8087
售	-10.8087
謡	-10.8088
雋	-10.8089
萬八千	-10.8089
眇	-10.8091
暠	-10.8092
流星	-10.8093
州府	-10.8093
之路	-10.8094
國語	-10.8096
濟北	-10.8097
復入	-10.8097
月犯	-10.8097
進討	-10.81
宿衞	-10.8101
民多	-10.8101
可不	-10.8101
無疆	-10.8102
升為	-10.8104
哈喇	-10.8109
為刺史	-10.811
國有	-10.8111
下文	-10.8114
麴	-10.8115
兖州刺史	-10.812
終於	-10.8121
為民	-10.8121
擊匈奴	-10.8122
田租	-10.8123
立春	-10.8123
山谷	-10.8124
垂拱	-10.8124
吏人	-10.8124
郭璞曰	-10.8124
有隙	-10.8125
賊衆	-10.8126
寤	-10.8126
先鋒	-10.8126
轉運副使	-10.8129
湘州刺史	-10.8131
四十里	-10.8133
曰王	-10.8136
入關	-10.8136
今據	-10.8138
周室	-10.814
必欲	-10.8142
青龍	-10.8142
洺	-10.8146
在前	-10.8146
馬邑	-10.8152
梁武帝	-10.8154
貝州	-10.8156
不動	-10.8156
呉王	-10.8156
汝等	-10.8158
之行	-10.8162
。||	-10.8166
詔賜	-10.8166
表裏	-10.8167
不豫	-10.8168
鞍	-10.8169
城在	-10.8171
功名	-10.8171
控	-10.8177
墟	-10.8178
衷	-10.8179
五十人	-10.818
碧	-10.818
北軍	-10.8181
提㸃刑獄	-10.8183
章句	-10.8185
詵	-10.8188
罷兵	-10.819
3	-10.8191
奏聞	-10.8192
可用	-10.8193
入洛	-10.8196
夙夜	-10.8196
天水	-10.8199
不避	-10.8202
珥	-10.8206
瑕	-10.8206
長官	-10.821
謚曰	-10.8211
知人	-10.8212
諸公	-10.8212
三嵗	-10.8213
六萬	-10.8215
鱗	-10.8215
校書郎	-10.8217
叶	-10.8218
端明殿學士	-10.8222
濟州	-10.8222
徙居	-10.8222
六千	-10.8227
假節	-10.8227
平地	-10.8233
瑟	-10.8234
甲兵	-10.8238
長短	-10.824
楊氏	-10.8241
牽牛	-10.8243
永明	-10.8243
鹵	-10.8246
孝子	-10.8246
庇	-10.8249
田宅	-10.8249
山崩	-10.8252
諭之	-10.8252
豈能	-10.8254
其兵	-10.8255
群	-10.8255
乘勝	-10.8259
尋加	-10.8259
始興	-10.8266
城東	-10.8268
南至	-10.8268
安陽	-10.827
各二人	-10.8273
死而	-10.8273
故人	-10.8279
國朝	-10.8281
吳越	-10.8282
縦	-10.8286
之失	-10.8286
後唐	-10.8288
酋長	-10.8291
守令	-10.8291
食之	-10.8294
西至	-10.83
六十二	-10.83
士民	-10.8307
五千人	-10.8307
錡	-10.8312
疊	-10.8313
國初	-10.8313
輔臣	-10.8315
複	-10.8315
宣公	-10.8315
侔	-10.8316
宗弼	-10.8316
葺	-10.8316
洙	-10.8318
尊號	-10.8323
與俱	-10.8325
生民	-10.8326
丈夫	-10.8327
州領	-10.8328
處士	-10.8332
一軍	-10.8334
俶	-10.8335
郢州刺史	-10.8336
箱	-10.8339
萬四千	-10.8339
尋以	-10.8339
山西	-10.8341
人少	-10.8341
書云	-10.8343
又音	-10.8343
者甚衆	-10.8345
於東	-10.8345
羗	-10.8345
有五	-10.8346
叩頭	-10.8349
月令	-10.8352
皇統	-10.8352
翰林學士承㫖	-10.8355
觀察	-10.8358
庶幾	-10.8359
穆昆	-10.836
以是	-10.836
有闕	-10.8361
醫藥	-10.8363
為吏	-10.8365
悼公	-10.8366
未定	-10.8367
不善	-10.8368
城守	-10.8369
守禦	-10.8369
五等	-10.8369
手詔	-10.837
百家	-10.837
知樞密院事	-10.8374
萬緡	-10.8375
天徳	-10.8377
跨	-10.8381
戀	-10.8382
問其故	-10.8383
畆	-10.8384
僑	-10.8384
不暇	-10.8384
批	-10.8385
釋奠	-10.8386
監修國史	-10.8387
以為不可	-10.8388
卒官	-10.8389
人才	-10.839
重之	-10.8391
黄門郎	-10.8391
待詔	-10.8392
前鋒	-10.8395
廬舍	-10.8397
文武官	-10.8399
良久	-10.84
初獻	-10.84
舊典	-10.84
升降	-10.8402
御前	-10.8406
舊唐書卷一百	-10.8408
瓉	-10.8408
出自	-10.8409
聚衆	-10.8409
粤	-10.8411
戸部侍郎	-10.8413
不願	-10.8413
之望	-10.8414
其月	-10.8414
漢之	-10.8417
謝曰	-10.8417
企	-10.8418
大駕	-10.842
乃自	-10.8421
陳餘	-10.8423
察其	-10.8424
漲	-10.8426
哀王	-10.8427
東宮	-10.8428
年七十	-10.8429
之要	-10.843
交州	-10.8431
四員	-10.8432
魏晉	-10.8434
胃	-10.8439
時事	-10.8441
以問	-10.8441
本傳	-10.8443
七十三	-10.8445
勳	-10.8446
臣意	-10.8448
笙	-10.8448
兼知	-10.8448
帽	-10.8448
地理	-10.845
欠	-10.845
其門	-10.8451
為兵	-10.8451
中兵參軍	-10.8452
等以	-10.8457
唐古	-10.8458
艦	-10.8463
察之	-10.8467
五里	-10.8467
萬七千	-10.847
之辭	-10.8475
不軌	-10.8475
而上	-10.8476
倖	-10.8477
鵠	-10.8478
中郎	-10.8478
千秋	-10.848
慘	-10.8484
世忠	-10.8484
騐	-10.8484
善惡	-10.8487
五官	-10.8488
故不	-10.849
汴梁	-10.8492
為大司馬	-10.8492
人倫	-10.8493
萬户府	-10.8494
歲星	-10.8494
亦同	-10.8495
▁六	-10.8497
狩	-10.85
去官	-10.85
賊帥	-10.8502
立是為	-10.8502
魏氏	-10.8502
隆興	-10.8503
歐陽史	-10.8504
汜	-10.8506
不進	-10.851
麤	-10.8513
赴之	-10.8515
藍田	-10.8516
峯	-10.8518
歸附	-10.8518
曾祖	-10.852
盱眙	-10.852
委以	-10.852
夷狄	-10.8527
齊桓公	-10.8527
多不	-10.8527
兩省	-10.853
而反	-10.853
武陵王	-10.8532
軍校	-10.8538
其制	-10.8539
不雨	-10.8541
記云	-10.8541
使其	-10.8543
大辟	-10.8547
工部	-10.8547
泰州	-10.8548
拙	-10.8548
帳下	-10.8549
無有	-10.8549
冒頓	-10.8549
合於	-10.8551
宋史巻一百	-10.8553
少時	-10.8556
寧朔將軍	-10.8557
處置	-10.8558
檢校司空	-10.8561
開國	-10.8562
兼權	-10.8563
百餘里	-10.8564
邊事	-10.8568
八十七	-10.8568
未拜	-10.8569
字文	-10.8572
文曰	-10.8573
蠡	-10.8574
天意	-10.8575
有過	-10.8576
爛	-10.8577
者三	-10.8578
拜為	-10.8582
每嵗	-10.8582
所親	-10.8582
莭	-10.8582
列傳第三十	-10.8585
儀仗	-10.859
祫	-10.8591
聖王	-10.8592
涿	-10.8593
不肖	-10.8594
當死	-10.8594
委任	-10.8596
管内	-10.86
南平	-10.8605
參議	-10.8609
山下	-10.8614
袁盎	-10.8615
茲	-10.8617
㤙	-10.8617
繫囚	-10.8618
經畧	-10.8619
論者	-10.8619
朔以	-10.8619
從五品	-10.8624
疾病	-10.8625
上林	-10.8629
千載	-10.8632
徴為	-10.8635
五十里	-10.8637
島	-10.8639
甥	-10.8639
之憂	-10.8642
嬪	-10.8643
汾州	-10.8645
瑒	-10.8645
馬歩軍	-10.865
㝷	-10.8651
淮北	-10.8657
領軍將軍	-10.8661
行中書省	-10.8663
威儀	-10.8666
二州刺史	-10.8667
大夏	-10.8674
者或	-10.8679
文義	-10.8684
牌	-10.8685
袴	-10.8687
黜陟	-10.8687
盪	-10.8688
㪚	-10.8689
一十二	-10.8689
三十一年	-10.869
雨水	-10.8691
生擒	-10.8692
廣南	-10.8693
歎息	-10.8694
恐其	-10.8695
庶子	-10.8696
其首	-10.8697
建國	-10.8697
其弊	-10.8698
太陽	-10.8699
眀堂	-10.87
振武	-10.8701
築城	-10.8701
内有	-10.8701
而能	-10.8707
竦	-10.8714
酺	-10.8715
召拜	-10.8716
吳興	-10.8716
明昌	-10.8717
餘黨	-10.8718
挈	-10.8719
朽	-10.872
所載	-10.8721
在朝	-10.8721
列傳第二十	-10.8722
宋史巻二百	-10.8723
曹參軍	-10.8723
殂	-10.8726
有常	-10.8726
列傳第十	-10.8728
燕趙	-10.8729
崇韜	-10.873
京口	-10.873
母弟	-10.8731
豨	-10.8733
以明	-10.8735
大興	-10.8737
昭穆	-10.8739
縣北	-10.8741
蘇秦	-10.8741
醴	-10.8742
不時	-10.8743
恚	-10.8751
此人	-10.8752
置之	-10.8754
郯	-10.8756
其聲	-10.8756
以父	-10.8758
獲免	-10.8761
灾	-10.8761
巡檢	-10.8764
参軍	-10.8765
日中	-10.8765
司吏	-10.8768
數萬人	-10.8771
宗翰	-10.8772
常州	-10.8779
稱為	-10.8783
噲	-10.8785
民有	-10.8787
可否	-10.8788
以俟	-10.8788
昕	-10.8789
近代	-10.8795
者有	-10.8796
淳于	-10.8797
居中	-10.8797
元徽	-10.8797
三路	-10.8798
兵圍	-10.8798
主帥	-10.8802
朝貢	-10.8803
戰敗	-10.8803
歐陽	-10.881
北門	-10.881
又加	-10.8816
挽	-10.8817
景仁	-10.8817
冥	-10.882
氊	-10.882
二十巻	-10.882
所當	-10.8821
𣙜	-10.8821
椎	-10.8821
華陽	-10.8824
寗	-10.8825
大饑	-10.8826
馮道	-10.8827
而東	-10.8834
惠帝	-10.8835
女也	-10.8838
保甲	-10.884
以北	-10.8841
得以	-10.8843
一百六十	-10.8845
儒學	-10.8846
不書	-10.8852
領之	-10.8852
緬	-10.8853
故以	-10.8853
遙	-10.8854
嘏	-10.8854
未嘗不	-10.8854
炭	-10.8855
委之	-10.8855
崇寧	-10.8856
蹤	-10.8856
不一	-10.8856
躡	-10.8857
守貞	-10.8857
躁	-10.8857
佚	-10.8858
逢吉	-10.8859
蹙	-10.8859
召之	-10.886
两	-10.8861
之禁	-10.8861
昭帝	-10.8862
矛	-10.8862
卒年六十	-10.8862
出鎮	-10.8863
東觀記曰	-10.8868
復與	-10.8868
東路	-10.8869
騎都尉	-10.8869
嗜	-10.8869
6	-10.8871
事在	-10.8873
雇	-10.8873
楚人	-10.8874
渡淮	-10.8876
厲王	-10.8876
此皆	-10.8877
一言	-10.8883
亘	-10.8884
戰國	-10.8886
秦州刺史	-10.8888
衆心	-10.8889
去年	-10.8892
已定	-10.8893
鑾	-10.8894
祇	-10.8894
綘	-10.8896
義宣	-10.8898
同心	-10.89
與秦	-10.8901
主事	-10.8904
直長	-10.8904
師道	-10.8905
之說	-10.8907
之狀	-10.8909
左氏	-10.8912
兼中書令	-10.8913
無後	-10.8923
綠	-10.8924
考之	-10.8924
建寧	-10.8928
駙馬	-10.8929
股肱	-10.8931
京官	-10.8933
海州	-10.8933
給事黄門侍郎	-10.8933
積年	-10.8938
掌書記	-10.8941
南徐州刺史	-10.8944
攻破	-10.8946
度及分	-10.8949
稱賀	-10.895
三國	-10.8951
不屈	-10.8952
大者	-10.8952
財賦	-10.8953
倦	-10.8953
威將軍	-10.8954
食其	-10.8955
辟為	-10.8957
或作	-10.8958
安陸	-10.8963
二年五月	-10.8963
自知	-10.8966
然其	-10.8967
龜兹	-10.8971
一本	-10.8976
入内	-10.8977
宋初	-10.8978
自以為	-10.8979
兵敗	-10.8981
六十九	-10.8983
間道	-10.8983
蚡	-10.8986
出降	-10.8986
十五卷	-10.8987
司農	-10.8991
建平	-10.8995
也謂	-10.8995
第九	-10.8995
今欲	-10.8997
絜	-10.8997
相望	-10.8999
擕	-10.8999
非一	-10.9
成侯	-10.9
頽	-10.9002
遼史	-10.9003
瑶	-10.9003
膚	-10.9003
天平	-10.9008
沴	-10.9008
禮儀使	-10.9008
小國	-10.9009
延光	-10.901
在此	-10.901
朱熹	-10.9011
難以	-10.9013
開平	-10.9014
犒	-10.9014
因循	-10.9015
而成	-10.9015
三十萬	-10.9021
摯	-10.9022
祖父	-10.9024
七萬	-10.9026
盡力	-10.9026
彘	-10.9026
告急	-10.9031
勒兵	-10.9036
凡有	-10.9037
研	-10.9038
董卓	-10.9041
奉國	-10.9041
兗	-10.9041
聖人之	-10.9042
乍	-10.9043
非其	-10.9045
其將	-10.9048
五年正月	-10.9049
以濟	-10.9054
靈太后	-10.9056
州司馬	-10.9057
非有	-10.9059
偷	-10.9059
兼侍讀	-10.9063
藍	-10.9063
録事	-10.9064
也於是	-10.9068
床	-10.907
紏	-10.9071
卵	-10.9071
王琳	-10.9074
暹	-10.9075
有徳	-10.9077
宜陽	-10.908
招集	-10.9081
伏見	-10.9085
其明年	-10.9086
月蝕	-10.9086
逃亡	-10.9089
永樂	-10.9089
又設	-10.909
集二十卷	-10.9091
帝遣	-10.9091
六十六	-10.9093
一尺	-10.9096
望風	-10.9096
覈	-10.9097
倣	-10.9098
顯徳	-10.9101
綱紀	-10.9102
平之	-10.9103
店	-10.9105
非是	-10.9105
月日	-10.9107
憫	-10.9108
歴陽	-10.9109
仆	-10.9109
邠州	-10.911
郎將	-10.9112
世之	-10.9112
之所以	-10.9118
陕西	-10.9125
五原	-10.9129
舊置	-10.913
崧	-10.913
時政	-10.9131
舊唐書卷	-10.9131
大敗之	-10.9131
他人	-10.9132
芬	-10.9136
囉	-10.9137
粉	-10.9137
伐楚	-10.9139
不逮	-10.9139
配享	-10.914
定國	-10.9145
民饑	-10.9146
進賢	-10.9146
起居舍人	-10.9149
其舊	-10.9149
欒	-10.915
官司	-10.9154
名臣	-10.9159
秦漢	-10.9159
亦為	-10.9161
等議	-10.9165
七十九	-10.9168
診	-10.9169
進取	-10.917
蔑	-10.9177
巽	-10.9179
梁祖	-10.9179
曰彼	-10.9183
新蔡	-10.9185
群臣	-10.9186
凡三	-10.9189
城北	-10.9192
亦曰	-10.9195
行於世	-10.9198
不息	-10.92
七十八	-10.9204
軍吏	-10.9205
椒	-10.9206
甘露	-10.9207
萬九千	-10.9209
水溢	-10.9211
廕	-10.9213
有子	-10.9213
邏	-10.9214
皇考	-10.9216
請和	-10.9216
或言	-10.9218
三年二月	-10.9218
吏卒	-10.9219
縣西北	-10.9221
曽祖	-10.9221
澭	-10.9223
經歴	-10.9227
僮	-10.9227
7	-10.9228
異姓	-10.9231
敬則	-10.9232
過人	-10.9233
遣之	-10.9235
景宗	-10.9238
而西	-10.9238
安之	-10.924
祖母	-10.9246
甘露降	-10.9249
皆曰	-10.9251
兩人	-10.9252
纎	-10.9252
責之	-10.9252
靈帝	-10.9253
金紫光祿大夫	-10.9254
都水監	-10.9255
敦煌	-10.9257
大赦改元	-10.9257
捉	-10.9258
煜	-10.9258
墻	-10.926
選舉	-10.9261
彗星	-10.9264
屬縣	-10.9267
何得	-10.9267
童子	-10.9267
司州	-10.9269
彦超	-10.927
義兵	-10.9271
其行	-10.9271
事皆	-10.9274
自立為	-10.9274
廣武	-10.9275
而自	-10.9276
在上	-10.9278
郵	-10.9278
其俗	-10.928
衛士	-10.928
厠	-10.9283
三星	-10.9283
愉	-10.9283
婦女	-10.9285
稟	-10.9286
若以	-10.9287
以法	-10.9288
魏軍	-10.9288
徳威	-10.9288
宋州	-10.9288
轡	-10.9291
皇孫	-10.9292
初日	-10.9292
易曰	-10.9293
朝鮮	-10.9293
入對	-10.9294
神龍	-10.9294
懌	-10.9295
所稱	-10.9297
所作	-10.9299
七十七	-10.9305
詔遣	-10.9306
末帝	-10.9307
出帝	-10.9307
伯玉	-10.9308
病卒	-10.9308
人言	-10.9313
次第	-10.9313
一丈	-10.9316
諭之曰	-10.9316
荔	-10.932
國子	-10.9321
如其	-10.9321
亦當	-10.9321
峴	-10.9322
闈	-10.9326
自將	-10.9326
攜	-10.9326
吝	-10.9327
絶其	-10.9328
所執	-10.933
釗	-10.933
矦	-10.9331
慰勞	-10.9331
郡乾元元年復為	-10.9331
諡曰文	-10.9332
日益	-10.9338
乃召	-10.9341
斬其	-10.9344
正四品	-10.9347
異同	-10.935
侯劉	-10.9351
歸於	-10.9353
不知所	-10.9353
人或	-10.9355
紗	-10.9357
無此	-10.9358
帝親	-10.9358
馴	-10.9359
沐	-10.936
鳩	-10.936
愁	-10.9362
在京師	-10.9367
元初	-10.9367
兼御史大夫	-10.9367
中領軍	-10.9371
而得	-10.9373
全義	-10.9376
之應也	-10.9377
戍兵	-10.9379
虹	-10.9385
六十八	-10.9386
之本	-10.9388
分遣	-10.9394
懦	-10.9396
汰	-10.9398
翳	-10.9398
塟	-10.9399
禋	-10.94
和議	-10.94
中散大夫	-10.9401
吳郡	-10.9402
六曰	-10.9402
曹州	-10.9405
擊走之	-10.9405
矣然	-10.9407
兩京	-10.941
漢祖	-10.9411
以相	-10.9411
為變	-10.9414
大亂	-10.9415
遼主	-10.9416
怡	-10.9417
定州刺史	-10.9424
疑之	-10.9428
幅	-10.9428
為漢	-10.9431
孝友	-10.9433
董仲舒	-10.9433
占城	-10.9434
宣城	-10.9434
通事舍人	-10.9437
咸通	-10.9438
㝢	-10.9438
縣界	-10.9439
伊尹	-10.944
無禮	-10.9444
孝公	-10.9444
彰徳	-10.9448
其君	-10.9448
根本	-10.945
詩一巻	-10.9452
道徳	-10.9453
西戎	-10.9454
曅	-10.9455
十三卷	-10.9457
七十六	-10.9458
經術	-10.946
不給	-10.9461
流血	-10.9462
刑法	-10.9462
三百六十	-10.9467
景祐	-10.9467
王侯	-10.947
栖	-10.9472
命有司	-10.9472
宗望	-10.9473
今以	-10.9473
其徒	-10.9474
燈	-10.9474
槐	-10.9475
朝堂	-10.9477
常山王	-10.9477
驍騎將軍	-10.9482
尚有	-10.949
未敢	-10.949
軍敗	-10.9491
祕書郎	-10.9492
聖宗	-10.9493
熙河	-10.9496
引去	-10.9496
國夫人	-10.9497
幽王	-10.9497
得人	-10.9497
嘉其	-10.9501
送神	-10.9502
代立	-10.9503
獻帝	-10.9505
猾	-10.9506
東面	-10.9506
饒州	-10.9506
朕意	-10.951
抃	-10.9511
覲	-10.9515
正言	-10.9518
中央	-10.9518
似道	-10.9519
提刑	-10.9521
克用	-10.9528
車服	-10.9529
呂后	-10.953
山縣	-10.9531
一夕	-10.9533
梁山	-10.9533
顛	-10.9537
與弟	-10.9539
告之	-10.9539
而殺之	-10.954
千二百	-10.9542
與王	-10.9543
簡文	-10.9544
士人	-10.9546
字叔	-10.9548
事君	-10.9549
章宗	-10.9549
親信	-10.9549
廬陵王	-10.9551
稱善	-10.9552
數嵗	-10.9553
泗水	-10.9554
迨	-10.9555
獨孤	-10.9556
一篇	-10.9556
坐事	-10.9557
勃海	-10.9558
自有	-10.956
畤	-10.9562
長平	-10.9563
魏書卷	-10.9566
大歴	-10.9566
入東井	-10.9568
篚	-10.9569
天興	-10.9572
子儀	-10.9573
有言	-10.9573
山隂	-10.9573
營室	-10.9573
湘州	-10.9575
六十一	-10.9576
已有	-10.9582
傲	-10.9583
又命	-10.9584
幢	-10.9585
不解	-10.9585
擒之	-10.9585
而欲	-10.9589
資政殿學士	-10.9589
庠	-10.9591
姦邪	-10.9594
新除	-10.9594
二三	-10.9596
其説	-10.9598
去其	-10.9599
尋復	-10.9599
驍勇	-10.9601
復用	-10.9602
奏議	-10.9603
元年四月	-10.9605
大司徒	-10.9608
貌也	-10.9609
招諭	-10.9611
無過	-10.9613
素服	-10.9616
或云	-10.9616
為害	-10.9619
鵲	-10.962
濯	-10.9623
嗚呼	-10.9624
腐	-10.9625
酈生	-10.9626
轉運判官	-10.9629
恩澤	-10.963
兵馬使	-10.9631
右軍	-10.9632
三世	-10.9633
烏桓	-10.9633
嘉禾	-10.9635
積度	-10.9636
議論	-10.9637
故地	-10.964
盛徳	-10.9641
人間	-10.9642
雩	-10.9644
加侍中	-10.9651
三老	-10.9654
柰何	-10.9655
順天	-10.9656
法駕	-10.9658
子貢	-10.966
甚有	-10.966
樊噲	-10.966
貞觀元年	-10.9661
揭	-10.9662
樞宻副使	-10.9663
員外散騎常侍	-10.9663
皇天	-10.9663
知樞宻院事	-10.9665
管勾	-10.9666
萬貫	-10.9669
太子少傅	-10.967
蜀人	-10.967
集議	-10.9672
牛羊	-10.9673
與人	-10.9673
延壽	-10.9677
臣子	-10.9678
賜姓	-10.9679
不任	-10.9682
沈約	-10.9682
為郡	-10.9684
騎射	-10.9687
執中	-10.9687
鄜延	-10.9687
從行	-10.9688
靈臺	-10.9688
奉御	-10.9689
滂	-10.969
朝廷以	-10.9692
怨望	-10.9692
彤	-10.9693
世世	-10.9694
低	-10.9697
城外	-10.9698
駞	-10.9698
並以	-10.9699
而天下	-10.9701
罄	-10.9701
於市	-10.9703
稹	-10.9703
大司空	-10.9704
義熙	-10.9705
亦可	-10.9708
澧	-10.9709
義恭	-10.9713
於國	-10.9714
大統	-10.9714
孫權	-10.9715
授之	-10.9723
殿庭	-10.9724
贈太師	-10.9726
當為	-10.9728
前日	-10.9728
縣東北	-10.9731
宵	-10.9732
一千二百	-10.9732
不附	-10.9732
晉安	-10.9733
嵗時	-10.9734
尚食	-10.9734
拊	-10.9734
極言	-10.9735
而未	-10.9735
諛	-10.9735
回鶻	-10.9737
新野	-10.9737
烹	-10.9739
讞	-10.9741
天監	-10.9741
鄱陽	-10.9741
陽郡	-10.9742
袁紹	-10.9747
不立	-10.9753
六百石	-10.9757
後有	-10.9758
乾徳	-10.9759
正六品	-10.9761
羅索	-10.9762
以定	-10.9764
納言	-10.9764
阿蘇	-10.9766
孝文帝	-10.9766
四年春正月	-10.9769
弓箭	-10.9771
注曰	-10.9772
二年六月	-10.9773
緘	-10.9775
仍為	-10.9776
僖宗	-10.9776
尒朱榮	-10.978
娥	-10.9781
相承	-10.9781
登城	-10.9782
二百八十	-10.9782
見而	-10.9784
非所	-10.9784
正旦	-10.9785
臨川	-10.9787
曰善	-10.9787
數千里	-10.9788
古文	-10.9791
何者	-10.9791
其道	-10.9793
要害	-10.9798
舊臣	-10.9803
失利	-10.9804
引軍	-10.9805
其時	-10.9806
千匹	-10.9808
掖庭	-10.9812
五品以上	-10.9813
籩豆	-10.9813
訢	-10.9814
少而	-10.9815
贏	-10.9815
三郡	-10.9816
蜀郡	-10.9817
毓	-10.9818
有憂	-10.9818
覿	-10.9819
宣徳	-10.982
西平	-10.9823
之舊	-10.9823
大理卿	-10.9824
阿珠	-10.9825
詳議	-10.9826
以象	-10.9826
之次	-10.983
為本	-10.9831
金玉	-10.9836
一十三	-10.9837
道也	-10.9841
周書	-10.9841
從六品	-10.9842
五寸	-10.9842
制以	-10.9845
四門	-10.9845
竟陵	-10.9847
時論	-10.9847
鈴	-10.9849
湖州	-10.985
縳	-10.9853
亭長	-10.9853
舉哀	-10.9854
樞密副使	-10.9854
周祖	-10.9855
十數	-10.9858
催	-10.9859
何故	-10.986
之勞	-10.9863
盡心	-10.9863
乃可	-10.9864
迎之	-10.9865
一十七	-10.9866
朝官	-10.9869
七星	-10.9869
南門	-10.987
正直	-10.987
千餘里	-10.9872
召對	-10.9872
三寸	-10.9872
從三品	-10.9878
贈侍中	-10.9879
之語	-10.9879
可知	-10.988
所屬	-10.9881
休息	-10.9882
是書	-10.9885
赦之	-10.9885
一官	-10.9888
治道	-10.9888
看	-10.9891
叩	-10.9891
餽	-10.9892
三百里	-10.9894
多有	-10.9895
古曰	-10.9897
衞尉	-10.9897
長於	-10.9897
藹	-10.9898
王儉	-10.9903
被誅	-10.9903
閉門	-10.9904
而民	-10.9909
以金	-10.991
黄巢	-10.9912
以下皆	-10.9914
太醫	-10.9919
圃	-10.9924
言語	-10.9928
六州	-10.9929
恐懼	-10.9929
文集	-10.9929
莘	-10.993
貼	-10.9931
牡	-10.9931
傭	-10.9931
以充	-10.9932
死子	-10.9932
臣之	-10.9933
相公	-10.9934
擊敗之	-10.9935
巴陵	-10.9936
臺諫	-10.9938
於後	-10.9941
亦作	-10.9942
畏之	-10.9944
韓琦	-10.9944
上供	-10.9946
殺傷	-10.9948
廊	-10.9954
其氣	-10.9954
山澤	-10.9955
魏郡	-10.9955
久不	-10.996
帥府	-10.996
文襄	-10.996
侯子	-10.996
南斗	-10.9961
武侯	-10.9965
慝	-10.9965
之黨	-10.9968
宰輔	-10.9968
大懼	-10.997
怖	-10.997
寒暑	-10.9973
榻	-10.9975
所聞	-10.9975
詔從之	-10.9976
足矣	-10.9978
諸人	-10.9981
然之	-10.9985
不登	-10.9986
九卷	-10.9987
以防	-10.9988
官員	-10.9988
昭儀	-10.999
封侯	-10.9994
錄一卷	-10.9994
内官	-10.9996
而生	-10.9998
六品	-11.0001
順宗	-11.0001
示之	-11.0002
不中	-11.0003
葦	-11.0005
大雅	-11.0006
哷	-11.0009
日法	-11.0009
出納	-11.001
水災	-11.0013
中書郎	-11.0013
而至	-11.0014
遷都	-11.0015
太子太保	-11.0015
就位	-11.0017
六部	-11.0023
二年三月	-11.0024
王肅	-11.0028
小吏	-11.0028
復命	-11.0029
無名	-11.0032
涕	-11.0032
但以	-11.0035
建州	-11.0041
事不	-11.0042
汶	-11.0044
與此	-11.0044
匏	-11.0045
徵為	-11.0046
每有	-11.0046
明徳	-11.0046
株	-11.0047
淡	-11.0048
彫	-11.0048
大計	-11.0048
餓	-11.005
善射	-11.005
財用	-11.0051
十二度	-11.0052
親臨	-11.0057
部署	-11.0058
熲	-11.0058
按此	-11.0058
西門	-11.006
士馬	-11.0062
又不	-11.0063
明矣	-11.0063
同日	-11.0065
受業	-11.0067
下至	-11.0068
黙然	-11.0068
盆	-11.007
合肥	-11.0071
官給	-11.0074
未足	-11.0077
夫婦	-11.0077
弋	-11.0081
為秦	-11.0082
武庫	-11.0082
纘	-11.0083
縣東南	-11.0089
同中書門下三品	-11.0089
骸	-11.009
梁州刺史	-11.009
首尾	-11.009
遁走	-11.0091
嘉納	-11.0092
二郡太守	-11.0093
欲得	-11.0097
左遷	-11.0097
有事	-11.0097
三年三月	-11.0098
禁止	-11.0098
圜丘	-11.0099
項籍	-11.01
于闐	-11.0101
京房	-11.0106
所向	-11.0108
舊有	-11.0108
禆	-11.0108
衞將軍	-11.0109
於西	-11.011
歸順	-11.0111
開運	-11.0111
後軍	-11.0112
一十九	-11.0116
歲餘	-11.0117
復還	-11.0117
埒	-11.0117
吳楚	-11.0119
當是	-11.012
牘	-11.0122
八十三	-11.0122
倩	-11.0123
旂	-11.0124
考滿	-11.0131
同郡	-11.0133
湟	-11.0134
二百七十	-11.0135
祭天	-11.0135
與同	-11.0146
壽春	-11.0147
魏其	-11.0147
三員	-11.0148
不和	-11.0151
憐之	-11.0156
後又	-11.0157
論事	-11.0157
荘宗	-11.0158
一本作	-11.016
賢人	-11.0161
未見	-11.0168
虗	-11.0169
大戰	-11.0169
衛大將軍	-11.017
霑	-11.017
中和	-11.0171
元吉	-11.0174
殆盡	-11.0176
為治	-11.0177
大呼	-11.0178
撫軍將軍	-11.018
之典	-11.0181
累官	-11.0188
漢魏	-11.0191
皆從	-11.0191
帑	-11.0194
太建	-11.0196
轂	-11.02
棊	-11.0202
必以	-11.0207
裹	-11.0208
歸朝	-11.021
上意	-11.0212
七十一	-11.0212
員外散騎侍郎	-11.0213
列傳第四十	-11.0213
元年二月	-11.0217
竒之	-11.0218
淤	-11.0219
未易	-11.0222
安邑	-11.0223
初以	-11.0227
顔色	-11.0229
昌言	-11.0232
都事	-11.0232
興和	-11.0233
合朔	-11.0241
楯	-11.0242
之宜	-11.0242
不由	-11.0243
耽	-11.0244
之策	-11.0247
是冬	-11.0248
遘	-11.025
澤州	-11.025
喪服	-11.0252
運糧	-11.0252
雅樂	-11.0252
妓	-11.0252
為天	-11.0254
元康	-11.0254
東川	-11.0257
二千五百	-11.0257
就國	-11.026
因言	-11.026
不忠	-11.0261
不祥	-11.0262
又作	-11.0262
不以為	-11.0271
笏	-11.0271
遇之	-11.0272
配天	-11.0272
百戸	-11.0272
脉	-11.0274
反叛	-11.0276
論議	-11.0277
後漢書卷	-11.0279
不去	-11.0279
伐蜀	-11.0281
以避	-11.0281
故其	-11.0282
後改	-11.0284
梧	-11.0284
拾	-11.0284
引為	-11.0284
秦始皇	-11.0285
飾以	-11.0288
苻堅	-11.0288
將以	-11.0288
巒	-11.029
寐	-11.029
軍還	-11.029
詳衮	-11.029
箴	-11.029
需	-11.029
其在	-11.0291
憚之	-11.0291
駁	-11.0291
刁	-11.0292
犯輿鬼	-11.0293
再三	-11.0293
儔	-11.0293
仇池	-11.0294
八尺	-11.0295
捕之	-11.0295
復何	-11.0295
交趾	-11.0297
漢書音義曰	-11.0297
國主	-11.0299
召入	-11.0301
圖一卷	-11.0302
貧者	-11.0305
雲州	-11.0307
宿州	-11.0309
可見	-11.031
路總管	-11.0311
始終	-11.0312
贈太尉	-11.0312
廟庭	-11.0317
以私	-11.0317
樂工	-11.0318
陘	-11.0321
顧謂	-11.0324
峒	-11.0325
北史	-11.0326
汝愚	-11.033
少監	-11.0333
亦云	-11.0335
故得	-11.0336
幣帛	-11.0336
定公	-11.0336
衆人	-11.0337
經筵	-11.0339
二十日	-11.0339
李斯	-11.0344
子路	-11.0344
聖朝	-11.0344
又從	-11.0347
約束	-11.0348
初起	-11.0353
賜金	-11.0357
鄩	-11.0358
昭義	-11.0359
書奏	-11.0359
國政	-11.036
武徳四年	-11.036
濱	-11.0362
王僧辯	-11.0362
朕甚	-11.0363
槀	-11.0364
碭	-11.0364
哈達	-11.0366
雖無	-11.0368
有四	-11.0369
尚方	-11.037
陁	-11.037
濼	-11.0371
本部	-11.0371
戸部尚書	-11.0378
率所部	-11.0379
不果	-11.0379
上封事	-11.0379
㕔	-11.0381
一歲	-11.0382
供奉	-11.0383
悛	-11.0384
司農卿	-11.0384
貴戚	-11.0385
利州	-11.0386
平公	-11.0387
美人	-11.0389
洪州	-11.0389
單騎	-11.0393
匹夫	-11.0393
中人	-11.0394
乃拜	-11.0395
赦天下	-11.0395
孫子	-11.0398
苴	-11.0399
殿中監	-11.04
退而	-11.0401
不赴	-11.0402
褐	-11.0404
思之	-11.0405
眀帝	-11.0405
又使	-11.0407
各以其	-11.0408
後齊	-11.0409
兎	-11.041
哀公	-11.0412
閤門祗候	-11.0413
堆	-11.0413
先人	-11.0415
宋史巻三百	-11.0415
曰天下	-11.0423
之遂	-11.0432
樞宻	-11.0432
甚盛	-11.0433
帝王之	-11.0436
褥	-11.0437
從攻	-11.0438
不起	-11.0438
為御史中丞	-11.0438
侍讀	-11.0439
一十六	-11.0439
牖	-11.0444
本國	-11.0445
磐	-11.0448
布帛	-11.045
抜	-11.0451
姑洗	-11.0453
為將軍	-11.0453
攀	-11.0454
偹	-11.0455
於道	-11.0457
黥布	-11.0458
太子太傅	-11.0458
牧守	-11.0459
也臣	-11.0461
繼遷	-11.0464
賞之	-11.047
以取	-11.0478
倉庫	-11.0479
別	-11.0479
而罷	-11.048
一十八	-11.0481
越州	-11.0483
立秋	-11.0485
舊章	-11.0486
臣言	-11.049
聖明	-11.049
乃退	-11.049
据	-11.0493
禇	-11.0493
迥	-11.0494
以正	-11.0496
婉	-11.0496
淄	-11.0497
莊子	-11.05
推恩	-11.05
淑妃	-11.0501
從七品	-11.0505
錄事	-11.0508
之月	-11.0508
齊國	-11.0508
之實	-11.0514
文辭	-11.0517
為副	-11.052
得志	-11.0521
萬六千	-11.0522
滔	-11.0523
君長	-11.0523
錢帛	-11.0523
四星	-11.0525
縣三	-11.0525
漕運	-11.0528
奏言	-11.0528
丸	-11.0529
嵗月	-11.053
雲氣	-11.053
永和	-11.0531
為質	-11.0531
郃	-11.0532
彩	-11.0533
縉	-11.0535
遣中使	-11.0537
音胡	-11.0537
玉帶	-11.0538
建立	-11.0539
記一卷	-11.0541
拔之	-11.0543
致祭	-11.0543
祗候	-11.0544
來者	-11.0544
八十九	-11.0546
改作	-11.0549
一十四	-11.055
曰大	-11.055
居官	-11.0552
為尚書令	-11.0553
都下	-11.0558
音義	-11.0559
十三度	-11.056
今乃	-11.0562
服其	-11.0564
辟雍	-11.0564
犇	-11.0566
聞者	-11.0567
苦之	-11.0567
降為	-11.0567
且言	-11.0571
上問	-11.0572
増置	-11.0575
文明	-11.0575
羈	-11.0576
遺詔	-11.0579
驥	-11.0579
怙	-11.058
論其	-11.0583
數十里	-11.0583
其禮	-11.0585
屬國	-11.0585
舊法	-11.0588
若夫	-11.0589
杯	-11.059
各得	-11.0591
叔孫	-11.0591
吏部郎中	-11.0596
繆公	-11.0596
少尹	-11.0596
問其	-11.0597
今改	-11.0598
大樂	-11.0598
晉陵	-11.0598
縣人	-11.0601
蹇	-11.0603
正朔	-11.0603
生靈	-11.0604
萬機	-11.0605
為都督	-11.0605
害稼	-11.0605
平侯	-11.0605
明經	-11.0606
太子中庶子	-11.0608
在西	-11.061
閫	-11.0614
太平興國	-11.0615
蟬	-11.0615
為前鋒	-11.0616
境上	-11.0617
丐	-11.0618
兵於	-11.0619
大理評事	-11.0619
於内	-11.0619
代郡	-11.062
侍講	-11.062
都將	-11.0623
五州	-11.0625
清泰	-11.0626
長驅	-11.0629
富人	-11.063
手足	-11.0635
九十二	-11.0637
藏之	-11.0638
招之	-11.0641
黄鍾	-11.0642
任城	-11.0644
臨軒	-11.0646
字公	-11.0648
八萬	-11.0648
退走	-11.0649
左散騎常侍	-11.0651
博陵	-11.0654
詔贈	-11.0654
軍節度副使	-11.0655
雖復	-11.0656
宋史	-11.0656
京兆府	-11.0659
劾奏	-11.066
二星	-11.066
太子洗馬	-11.0661
宋祁	-11.0662
羣盗	-11.0662
禘祫	-11.0663
帝問	-11.0663
始安	-11.0663
埓	-11.0664
祖宗之	-11.0664
之稱	-11.0666
事覺	-11.0667
乗勝	-11.0668
瀘	-11.0668
陽平	-11.0668
安逺	-11.0669
順行	-11.0669
禁兵	-11.067
宣州	-11.067
乾祐	-11.067
八十六	-11.0673
慶州	-11.0674
何謂	-11.0674
此二	-11.0676
不可得	-11.0677
有名	-11.068
衮冕	-11.0682
著作	-11.0684
害之	-11.0686
别有	-11.0687
代州	-11.0688
收復	-11.069
八十五	-11.0691
鄣	-11.0694
講武	-11.0696
湊	-11.0696
十三日	-11.0697
台州	-11.0698
鳥獸	-11.0699
打	-11.07
三年七月	-11.0702
山林	-11.0703
護軍	-11.0704
一百九十	-11.0704
䓁	-11.0706
死後	-11.0706
不遜	-11.0708
梓宫	-11.0709
化為	-11.071
職事官	-11.0717
則無	-11.0717
死亡	-11.0721
箕子	-11.0723
二寸	-11.0724
善政	-11.0725
華山	-11.0726
上天	-11.0727
焚其	-11.0727
成臯	-11.073
稱制	-11.073
市易	-11.0731
珏	-11.0732
舊事	-11.0733
卻	-11.0733
濮州	-11.0735
近者	-11.0735
名士	-11.0735
所立	-11.0737
内屬	-11.0738
肝	-11.0738
子良	-11.0739
二等	-11.0741
六經	-11.0741
雅克特穆爾	-11.0741
妬	-11.0742
殿門	-11.0744
遂使	-11.0747
封爵	-11.0747
至矣	-11.0748
下馬	-11.0751
諮議	-11.0752
邊境	-11.0752
無為	-11.0756
臨安府	-11.0756
子胥	-11.0759
攻圍	-11.0761
命為	-11.0764
二百一十	-11.0765
一部	-11.0765
世為	-11.0766
軍政	-11.077
執法	-11.0771
僊	-11.0771
不協	-11.0774
本司	-11.0775
一星	-11.0775
萬民	-11.0776
搢笏	-11.0777
少傅	-11.0777
中郎将	-11.0777
無辜	-11.0778
所行	-11.0779
旃	-11.0779
忠信	-11.078
有道	-11.078
故城在今	-11.0781
註	-11.0781
天祥	-11.0784
重榮	-11.0785
周書卷	-11.0788
年表	-11.0789
嗣王	-11.079
列於	-11.0791
桂州	-11.0796
大理寺	-11.0798
既已	-11.0799
徙知	-11.08
章惇	-11.0801
拾遺	-11.0802
戰士	-11.0806
矢石	-11.0811
諜	-11.0814
肅然	-11.0814
以授	-11.0815
字景	-11.0816
也昔	-11.0816
亞獻	-11.0816
曽孫	-11.0817
疾疫	-11.0818
事見	-11.0819
曲沃	-11.082
治亂	-11.0821
不須	-11.0821
滇	-11.0824
繳	-11.0825
曵	-11.0825
奉禮郎	-11.0828
南宫	-11.0828
棄城	-11.0828
酒食	-11.0829
籥	-11.083
孕	-11.0831
在南	-11.0833
文育	-11.0836
帥臣	-11.084
革帶	-11.0844
錢塘	-11.0847
所撰	-11.0848
濟隂	-11.085
國中	-11.0852
之體	-11.0852
咸寧	-11.0853
詩賦	-11.0853
太史令	-11.086
乃立	-11.086
世充	-11.086
又於	-11.086
勔	-11.0862
遣使來	-11.0865
和帝	-11.0868
秦昭王	-11.0871
昔者	-11.0871
之期	-11.0873
吟	-11.0874
彞	-11.0874
澤潞	-11.0875
獻之	-11.0875
區區	-11.0875
十分	-11.0876
檢校太保	-11.0876
遂罷	-11.0876
聖主	-11.0876
於今	-11.0878
初封	-11.0881
公服	-11.0881
節度副使	-11.0882
櫟陽	-11.0883
一體	-11.0883
宿次	-11.0883
參政	-11.0883
有謀	-11.0883
大聖	-11.0885
將至	-11.0885
女真	-11.0885
梁軍	-11.0885
洪範	-11.0885
汝隂	-11.0886
併入	-11.0889
知祥	-11.0891
十二巻	-11.0891
郡中	-11.0896
淮隂	-11.0898
勇士	-11.0899
富察	-11.0901
志在	-11.0902
澶	-11.0906
内殿	-11.0908
譟	-11.0911
飽	-11.0911
嫂	-11.0912
敢不	-11.0915
此非	-11.0917
明主	-11.0919
無人	-11.092
懷王	-11.092
參軍事	-11.0921
髙昌	-11.0933
左光禄大夫	-11.0934
二百里	-11.0934
為宰相	-11.0935
山中	-11.0943
武城	-11.0947
距星	-11.0948
通事	-11.0949
喜曰	-11.095
闥	-11.0951
赴援	-11.0951
七里	-11.0952
㸃檢	-11.0953
戰功	-11.0953
兾	-11.0955
相距	-11.0956
而動	-11.0956
聶	-11.0957
家世	-11.0958
萬嵗	-11.0958
銅錢	-11.0958
義康	-11.0959
稽古	-11.096
釋褐	-11.0963
與兄	-11.0964
譯史	-11.0965
故道	-11.0968
其官	-11.0971
都統制	-11.0972
矣夫	-11.0973
貢舉	-11.0974
便殿	-11.0974
焚之	-11.0974
城陷	-11.0975
前導	-11.0976
同知樞密院事	-11.0976
天禧	-11.0978
上官	-11.0979
史記曰	-11.0979
為尚書	-11.0979
河隂	-11.0981
不正	-11.0985
數百里	-11.0986
幕府	-11.0989
位在	-11.099
先聖	-11.0991
魄	-11.0995
從八品	-11.0997
太白經天	-11.0998
萃	-11.0999
洩	-11.0999
鶻	-11.0999
五代史巻	-11.1
歴數	-11.1
相次	-11.1001
八十八	-11.1001
四十人	-11.1002
九十六	-11.1003
元忠	-11.1004
不亦	-11.1004
舄	-11.1004
惜之	-11.1004
九十三	-11.1005
楨	-11.1005
府州	-11.1008
圓丘	-11.1008
黼	-11.1008
直史館	-11.1008
入寇	-11.1009
三十餘	-11.1011
地也	-11.1013
如意	-11.1015
九十九	-11.1016
廣州刺史	-11.1017
人無	-11.1017
執之	-11.1018
徳之	-11.1018
使相	-11.1019
爾雅	-11.1021
文思	-11.1023
朒	-11.1024
廬陵	-11.1025
尋改	-11.1025
出征	-11.1028
為後	-11.1032
亦何	-11.1035
困於	-11.1035
行人	-11.1036
州界	-11.1036
而起	-11.1037
絀	-11.1037
之門	-11.1039
濡	-11.104
輓	-11.1041
牋	-11.1042
貂	-11.1042
之㑹	-11.1044
剪	-11.1044
散騎侍郎	-11.1045
歇	-11.1046
所造	-11.1049
尺二寸	-11.1051
五尺	-11.1056
皇弟	-11.1056
廣川	-11.1058
九十七	-11.106
鎮星	-11.1062
移治	-11.1063
白起	-11.1064
等言	-11.1068
武德	-11.1071
未之	-11.1073
長慶	-11.1076
帥師	-11.1076
食甚	-11.1077
縣西南	-11.1078
汧	-11.1078
闔	-11.1079
汭	-11.108
梁置	-11.108
□	-11.1081
駰案	-11.1082
慟	-11.1083
南齊書卷	-11.1083
海道	-11.1084
氏之	-11.1085
故謂之	-11.1086
漠	-11.1086
釣	-11.1087
餞	-11.1087
西上	-11.109
湘東王	-11.1093
帝怒	-11.1094
提領	-11.1096
茂貞	-11.1102
彦章	-11.1104
太行	-11.1105
府司馬	-11.1105
臨淄	-11.1105
其故	-11.1106
簡公	-11.1106
馬歩	-11.1107
立皇子	-11.1109
助教	-11.111
威名	-11.111
時方	-11.1112
出塞	-11.1112
不備	-11.1113
一事	-11.1114
海上	-11.1115
畿内	-11.1115
七度	-11.1115
犯房	-11.1117
西道	-11.1118
三年四月	-11.1119
石門	-11.1121
子女	-11.1122
嘗有	-11.1123
此亦	-11.1123
晉屬	-11.1124
下吏	-11.1125
建初	-11.1126
娛	-11.1128
拳	-11.1128
達實	-11.1129
鎮西	-11.1129
都官尚書	-11.1132
甲士	-11.1132
鎮軍	-11.1132
請罷	-11.1133
禁錮	-11.1135
判度支	-11.1136
太子少師	-11.1141
元光	-11.1142
令其	-11.115
建業	-11.1151
祕書	-11.1152
事者	-11.1153
施於	-11.1154
死生	-11.1156
為首	-11.1159
下車	-11.1159
音律	-11.1159
五代史	-11.1161
光禄	-11.1162
成天	-11.1162
周人	-11.1164
夀陽	-11.1164
一十一	-11.1166
光逺	-11.1166
廢立	-11.1166
罷相	-11.117
纒	-11.1172
開成	-11.1172
桞	-11.1176
辠	-11.1176
北有	-11.1176
檢校司徒	-11.1177
貿易	-11.1178
勛	-11.1179
踰月	-11.118
與我	-11.1181
正九品	-11.1181
勉之	-11.1181
太子太師	-11.1183
師中	-11.1183
略地	-11.1184
天性	-11.1186
泣曰	-11.1187
願得	-11.119
大逆	-11.1191
東京留守	-11.1192
高陽	-11.1195
淳化	-11.1195
犯東井	-11.1195
雄州	-11.1195
潤州	-11.1196
遲疾	-11.1202
千五百	-11.1202
陵侯	-11.1204
弟也	-11.1206
都轉運使	-11.1208
三川	-11.1211
教之	-11.1212
宋將	-11.1213
定制	-11.1214
耳今	-11.1214
沸	-11.1217
扆	-11.1218
廡	-11.122
新興	-11.122
舊名	-11.122
烏庫哩	-11.1222
琚	-11.1222
稠	-11.1222
武皇帝	-11.1226
徐廣	-11.1228
正交	-11.1229
人人	-11.123
年號	-11.1232
右正言	-11.1232
自若	-11.1236
與諸	-11.1238
逺方	-11.1241
無知	-11.1242
六十里	-11.1243
自非	-11.1244
存者	-11.1244
北討	-11.1245
絳州	-11.1246
乞骸骨	-11.1249
起義	-11.1249
有能	-11.1249
下詔曰	-11.125
臣愚	-11.1252
黄龍	-11.1253
元年七月	-11.1255
雲陽	-11.1256
為列侯	-11.1257
何可	-11.1258
鎮將	-11.1261
韋昭	-11.1264
懾	-11.1264
兩軍	-11.1265
太府卿	-11.1265
正始	-11.1266
無所不	-11.1266
羣牧	-11.1267
阿哈瑪特	-11.1268
諭以	-11.1269
征西將軍	-11.1269
帝幸	-11.127
兵部郎中	-11.127
及即位	-11.127
戎狄	-11.1272
相傳	-11.1272
末年	-11.1274
師還	-11.1275
伯父	-11.1276
金帶	-11.1276
白水	-11.1276
東平王	-11.1277
林邑	-11.1277
為御史	-11.1277
副都指揮使	-11.1279
白衣	-11.128
魏帝	-11.1281
失守	-11.1281
呼為	-11.1283
所致	-11.1283
見于	-11.1284
身死	-11.1285
十五里	-11.1289
官及	-11.1289
之由	-11.1293
大寒	-11.1293
軹	-11.1293
溉田	-11.1294
陳氏	-11.1294
百日	-11.1294
於地	-11.1294
野王	-11.1296
鬱林	-11.1298
荼	-11.1299
仁傑	-11.1302
陽武	-11.1302
門人	-11.1303
二十餘年	-11.1304
紀年	-11.1308
慤	-11.1308
并州刺史	-11.1311
道宗	-11.1312
無故	-11.1316
虎符	-11.1318
神人	-11.1318
太子少保	-11.1318
西南夷	-11.132
至如	-11.1321
宗正卿	-11.1322
家財	-11.1323
維翰	-11.133
百五十	-11.1332
治中	-11.1333
正五品	-11.1333
少保	-11.1334
武陽	-11.1336
平陵	-11.1337
山水	-11.1339
頡	-11.1342
洺州	-11.1342
武將軍	-11.1343
絳侯	-11.1344
木為	-11.1345
改知	-11.1346
常服	-11.1346
東萊	-11.1349
馥	-11.135
䜛	-11.1354
孝武帝	-11.1357
用其	-11.1358
遣還	-11.1361
宜加	-11.1362
宫門	-11.1363
私第	-11.1363
武藝	-11.1364
前驅	-11.1369
百匹	-11.1369
州以	-11.1371
五百里	-11.1374
劉歆	-11.1375
如太白	-11.1377
懐州	-11.1378
以實	-11.1378
呼圖克	-11.1381
不少	-11.1381
出則	-11.1383
涿州	-11.1385
騎士	-11.1386
求援	-11.1387
十五人	-11.1388
涿郡	-11.1389
駢	-11.139
衛州	-11.139
上皇	-11.1392
三年五月	-11.1392
未成	-11.1392
擲	-11.1393
既平	-11.1395
䜟	-11.1395
隗	-11.1396
之害	-11.1397
人不	-11.1398
侯國	-11.1399
楚國	-11.1401
臣所	-11.1401
軍前	-11.1403
居喪	-11.1404
不義	-11.1406
定朔	-11.1407
急攻	-11.1415
此所謂	-11.1416
於楚	-11.1416
『	-11.1417
詔罷	-11.1417
文成	-11.1418
二百三十	-11.1418
安車	-11.142
而言	-11.1421
唯有	-11.1421
在天	-11.1422
秩滿	-11.1422
景明	-11.1422
最為	-11.1423
中宫	-11.1425
酒酣	-11.1425
太常丞	-11.1427
來攻	-11.1427
孛	-11.1428
獄訟	-11.1431
合于	-11.1432
銀青光禄大夫	-11.1433
伐鄭	-11.1433
其半	-11.1434
衡山	-11.1434
濠州	-11.1435
小者	-11.1436
萬三千	-11.1436
責授	-11.1436
其可	-11.1438
發覺	-11.1438
綦	-11.144
洵	-11.1443
装	-11.1444
故言	-11.1444
凋	-11.1445
四年四月	-11.1445
軍糧	-11.1445
魏武	-11.1446
王命	-11.1446
曰爾	-11.1446
緄	-11.1447
神之	-11.145
如杯	-11.1452
聰敏	-11.1454
留侯	-11.1456
陽翟	-11.1457
一時之	-11.1458
經籍	-11.1459
七十四	-11.146
春正月	-11.1462
殿中丞	-11.1462
奪之	-11.1465
列傳第五十	-11.1465
義軍	-11.1466
乃引	-11.1467
玉牒	-11.1468
制曰	-11.1468
佛寺	-11.1468
執事者	-11.1469
凡五	-11.147
十四卷	-11.1474
樂毅	-11.1476
生而	-11.1478
八度	-11.148
蘆	-11.148
成宗	-11.1481
有識	-11.1481
百濟	-11.1481
益封	-11.1482
南渡	-11.1482
奉祠	-11.1482
樓船	-11.1482
斷其	-11.1484
惡其	-11.1485
華隂	-11.1486
弃	-11.1487
過失	-11.1488
徳裕	-11.1488
穆呼哩	-11.1489
考其	-11.1491
車師	-11.1492
弓箭手	-11.1494
鞠躬	-11.1494
其屬	-11.1495
録尚書事	-11.15
夷簡	-11.1504
修撰	-11.1504
天竺	-11.1505
繼勲	-11.1507
軍門	-11.1508
之神	-11.151
南徐州	-11.1512
西伯	-11.1515
水中	-11.1517
前一日	-11.1526
諸陵	-11.1527
之甚	-11.1528
以拒	-11.1529
髙下	-11.1529
所置	-11.153
摶	-11.1531
謂左右曰	-11.1531
真君	-11.1531
統和	-11.1531
柯	-11.1532
從四品	-11.1532
其妻子	-11.1534
徂	-11.1534
讚	-11.1534
劣	-11.1535
初即位	-11.1536
韓世忠	-11.1537
於漢	-11.1538
多寡	-11.1538
光禄卿	-11.1541
馳驛	-11.1545
國遣使朝貢	-11.1547
來奔	-11.155
其狀	-11.1554
神器	-11.1555
累年	-11.1557
和州	-11.1558
為吏部尚書	-11.1561
名位	-11.1563
侍衞	-11.1563
自入	-11.1565
年十五	-11.1565
皆是	-11.1565
霖	-11.1566
豫章王	-11.1567
為太傅	-11.1568
之於是	-11.1569
之過	-11.1569
易州	-11.157
皆出	-11.1571
更立	-11.1572
更為	-11.1572
荅曰	-11.1573
遂定	-11.1573
世祖即位	-11.1574
不待	-11.1575
為大將軍	-11.1576
羮	-11.1577
瘠	-11.1577
胎	-11.1578
九十八	-11.1578
樓煩	-11.1578
穹	-11.1579
隳	-11.158
七品	-11.158
鞾	-11.1581
」。	-11.1581
湜	-11.1582
牓	-11.1584
信州	-11.1586
晉侯	-11.1587
上殿	-11.1587
一字	-11.1588
即令	-11.159
淚	-11.159
其星	-11.159
8	-11.159
雎	-11.1592
義勇	-11.1592
乃罷	-11.1593
改易	-11.1593
初除	-11.1594
為庶人	-11.1594
有戰功	-11.1596
入汴	-11.1597
九品	-11.16
孰與	-11.16
文子	-11.1602
十四日	-11.1603
光化	-11.1603
曰天子	-11.1605
為此	-11.1605
一千一百	-11.1605
更相	-11.1606
犯者	-11.1606
儋	-11.1609
西討	-11.161
景王	-11.1611
典故	-11.1611
齊州	-11.1612
欲自	-11.1612
天門	-11.1612
義興	-11.1614
于此	-11.1618
鎧	-11.1618
縣入焉	-11.1618
其辭	-11.1619
姦臣	-11.162
皆用	-11.162
蒐	-11.1622
樵	-11.1623
駝	-11.1623
鑠	-11.1624
則可	-11.1626
莫如	-11.1629
黄初	-11.163
大名府	-11.1631
樸	-11.1631
五縣	-11.1631
農桑	-11.1631
諸弟	-11.1633
立夏	-11.1633
以病	-11.1634
實封	-11.1637
太子舍人	-11.1637
凡四	-11.1639
來獻	-11.164
岳飛	-11.1641
鐵錢	-11.1642
六尺	-11.1644
桓𤣥	-11.1645
字季	-11.1645
乗馬	-11.1647
慶厯	-11.1647
經營	-11.1649
㐮	-11.1649
孝昭	-11.165
莖	-11.1653
新豐	-11.1653
元中書右丞相總裁托克托等修	-11.1655
盧龍	-11.1655
八音	-11.1655
之精	-11.1657
公輔	-11.1659
素與	-11.1659
女主	-11.1659
搖	-11.166
親軍	-11.166
建言	-11.1662
國學	-11.1662
神靈	-11.1664
洮	-11.1664
老弱	-11.1664
四年二月	-11.1664
所破	-11.1666
瓠	-11.1666
髙后	-11.1666
三十巻	-11.167
璨	-11.167
於京師	-11.1672
苻	-11.1674
懈	-11.1674
逐之	-11.1674
州民	-11.1675
度分	-11.1675
鎮一	-11.1676
治書侍御史	-11.1677
1	-11.1677
經傳	-11.1678
逺矣	-11.1679
集三卷	-11.1681
置於	-11.1682
大河	-11.1684
孝昌	-11.1686
憂之	-11.1686
伊都	-11.1687
。|||	-11.1687
幽州刺史	-11.1689
光州	-11.169
縣尉	-11.169
良弼	-11.1691
安縣	-11.1691
勤王	-11.1691
副總管	-11.1694
司直	-11.1696
已卯	-11.1697
䟽	-11.1699
壬	-11.1701
内地	-11.1702
琨	-11.1702
嘆	-11.1703
蕃部	-11.1704
賈逵曰	-11.1704
大宛	-11.1706
軼	-11.1707
東下	-11.1707
計之	-11.1709
奔于	-11.171
凍	-11.171
人望	-11.1712
疑有	-11.1713
媯	-11.1714
尚未	-11.1714
北平	-11.1714
東府	-11.1715
囚徒	-11.1716
為尚書左僕射	-11.1717
凡十	-11.1717
猺	-11.1718
亊	-11.1719
賈誼	-11.1719
層	-11.1719
縷	-11.1719
中行	-11.172
軀	-11.172
餌	-11.172
迂	-11.1721
史記集解卷	-11.1723
稼穡	-11.1724
之極	-11.1725
公車	-11.1727
之親	-11.1732
至長安	-11.1733
團練使	-11.1737
欽若	-11.174
赴行在	-11.1741
齊神武	-11.1741
永康	-11.1741
以上者	-11.1743
十匹	-11.1744
周旋	-11.1744
並用	-11.1745
扁鵲	-11.1746
不敬	-11.1748
陽氣	-11.1748
其子孫	-11.175
許以	-11.1751
集賢	-11.1751
租税	-11.1753
統領	-11.1754
日數	-11.1755
官名	-11.1755
門内	-11.176
賜錢	-11.1761
錢穀	-11.1763
入秦	-11.1764
臣願	-11.1764
异	-11.1766
既成	-11.1768
熙宗	-11.1769
人户	-11.177
讜	-11.1771
侑	-11.1771
祁曰	-11.1772
沈攸之	-11.1776
始平	-11.1777
和平	-11.1778
第二子	-11.1778
不常	-11.1778
繼之	-11.178
重威	-11.178
灌夫	-11.1781
至於此	-11.1781
流亡	-11.1782
鏐	-11.1782
九度	-11.1783
一二	-11.1785
奉先	-11.1786
漢家	-11.179
驍騎	-11.1793
定天下	-11.1796
單衣	-11.1797
集一巻	-11.1798
司天	-11.1798
顏	-11.1801
白鹿	-11.1802
朔日	-11.1805
樂府	-11.1805
廢朝	-11.1808
二百人	-11.1808
晁	-11.181
進曰	-11.1811
靳	-11.1812
謝罪	-11.1812
都水	-11.1813
懽	-11.1814
漏刻	-11.1815
誚	-11.1817
司州刺史	-11.1817
也此	-11.182
教坊	-11.1821
東莞	-11.1823
還報	-11.1824
立法	-11.1824
門生	-11.1824
宗祀	-11.1825
官府	-11.1828
朔州	-11.1828
方略	-11.1829
還為	-11.1832
明公	-11.1833
夷吾	-11.1834
賜金紫	-11.1834
慟哭	-11.1835
者各	-11.1836
未下	-11.1837
前世	-11.1837
考課	-11.1838
道武	-11.1839
以救	-11.184
可使	-11.1842
帝乃	-11.1843
集十巻	-11.1844
祭之	-11.1845
辭以	-11.1846
為嗣	-11.1846
太武	-11.1847
四尺	-11.1848
日出	-11.1849
陕	-11.1851
祖考	-11.1852
東昏	-11.1853
陌	-11.1853
張揖曰	-11.1854
二年七月	-11.1856
赭	-11.1856
原州	-11.1857
之弟	-11.1857
羣下	-11.1859
固讓	-11.1859
卜筮	-11.1859
承嗣	-11.186
之流	-11.186
菽	-11.1861
克寧	-11.1861
遣子	-11.1864
武都	-11.1866
博囉特穆爾	-11.1868
不降	-11.1868
令丞	-11.1869
地方	-11.1871
正位	-11.1873
至城下	-11.1877
頓首	-11.1879
侯王	-11.188
為皇后	-11.188
卿大夫	-11.1881
朕以	-11.1882
濟河	-11.1883
議欲	-11.1884
端門	-11.1885
言不	-11.1886
義士	-11.1892
請罪	-11.1893
具以	-11.1893
以助	-11.1894
蕪	-11.1896
秉政	-11.1896
倪	-11.1897
實以	-11.1898
璜	-11.1899
公羊	-11.19
金塗	-11.1901
絮	-11.1901
昭徳	-11.1901
不可復	-11.1901
冇	-11.1902
光宗	-11.1904
檢校工部尚書	-11.1905
任用	-11.1906
繖	-11.1906
剝	-11.1906
一千三百	-11.1908
不來	-11.1909
太極	-11.1909
所能	-11.191
旭	-11.191
其私	-11.191
昵	-11.1912
興平	-11.1913
景福	-11.1916
未發	-11.1916
羣小	-11.1916
諸色	-11.1917
王建	-11.1917
有人	-11.1919
延慶	-11.192
輿駕	-11.192
從駕	-11.1921
歴位	-11.1922
出城	-11.1925
城置	-11.1925
田氏	-11.1927
之賢	-11.1929
千八百	-11.1929
致書	-11.1931
守光	-11.1933
懐光	-11.1935
衞大將軍	-11.1935
使持節都督	-11.1937
在郡	-11.1937
還家	-11.1939
避之	-11.194
樂平	-11.1941
不預	-11.1941
不害	-11.1942
正隆	-11.1943
縝	-11.1943
興兵	-11.1944
冊寳	-11.195
牛酒	-11.195
虖	-11.1951
五十餘	-11.1951
人士	-11.1951
龕	-11.1951
兔	-11.1952
不實	-11.1952
站	-11.1954
濳	-11.1955
不事	-11.1956
旗幟	-11.1957
餓死	-11.1958
紊	-11.1959
文侯	-11.196
朏	-11.1962
慨然	-11.1964
莊帝	-11.1965
險阻	-11.1965
節度使李	-11.1966
兩路	-11.1966
仍賜	-11.1968
五六	-11.1969
拒守	-11.197
有異志	-11.197
而巳	-11.1971
葛榮	-11.1972
所領	-11.1972
正義	-11.1973
被害	-11.1975
櫟	-11.1977
於世	-11.1977
之誅	-11.1979
西京留守	-11.1979
崔浩	-11.1981
季氏	-11.1981
延昌	-11.1983
太上	-11.1983
勣	-11.1985
之論	-11.1985
河清	-11.1985
奮擊	-11.1987
上夀	-11.1989
孝文皇帝	-11.1989
音徒	-11.1991
天保	-11.1991
騁	-11.1995
非其人	-11.1996
一千四百	-11.1998
窟	-11.2001
和尚	-11.2003
矣又	-11.2003
丁母憂	-11.2003
甘州	-11.2005
亞夫	-11.2005
迅	-11.2005
副元帥	-11.2005
謟	-11.2005
茶鹽	-11.2007
享國	-11.2009
地形	-11.2011
餘並	-11.2011
磨勘	-11.2012
抵罪	-11.2013
召公	-11.2013
秦軍	-11.2015
為姦	-11.202
年八十	-11.2022
以觀	-11.2023
可得而	-11.2024
不變	-11.2024
壝	-11.2024
相接	-11.2025
曹操	-11.2026
與齊	-11.2026
憲章	-11.2028
方士	-11.2029
孔安國	-11.2029
沿江	-11.2032
在東	-11.2032
卿士	-11.2034
犯昴	-11.2035
破其	-11.2038
經略使	-11.2042
雌	-11.2044
戸口	-11.2046
漢初	-11.2047
之機	-11.2049
涸	-11.2051
尋拜	-11.2053
餙	-11.2054
婚姻	-11.2054
飄	-11.2055
徃來	-11.206
山北	-11.206
本官	-11.2061
山有	-11.2062
牙將	-11.2062
用此	-11.2064
安可	-11.2067
不道	-11.2068
武徳元年	-11.2069
三年十月	-11.2069
之險	-11.2071
及第	-11.2072
以南	-11.2073
將來	-11.2073
性命	-11.2074
功業	-11.2076
得幸	-11.2077
魏人	-11.2078
相對	-11.208
八寸	-11.208
唐州	-11.2083
温州	-11.2085
建鄴	-11.2086
雖欲	-11.2086
病者	-11.2086
譔	-11.2087
日久	-11.2087
先入	-11.2087
伉	-11.209
檻	-11.2092
追擊	-11.2092
賢良	-11.2094
賫	-11.2096
不答	-11.2096
和氣	-11.2097
國也	-11.2097
既無	-11.2097
▁七	-11.2099
省臣	-11.2099
倨	-11.21
穰侯	-11.21
鎮南	-11.2101
擿	-11.2101
平北將軍	-11.2103
本末	-11.2103
控鶴	-11.2105
永初	-11.2106
伊遜	-11.2106
為人所	-11.2107
白金	-11.2111
宣慰	-11.2112
靈王	-11.2112
欽宗	-11.2113
主客	-11.2113
㑹元	-11.2113
旌旗	-11.212
團練	-11.2121
磁	-11.2121
等事	-11.2123
奉㫖	-11.2125
七十餘	-11.2125
在北	-11.2126
歸義	-11.2127
吏士	-11.2127
西行	-11.2128
被執	-11.2129
鄴都	-11.2129
家居	-11.2129
去就	-11.2132
于天	-11.2132
舊曰	-11.2133
以待之	-11.2136
應劭	-11.2136
之戰	-11.2137
生事	-11.2138
太官	-11.2143
心腹	-11.2145
所云	-11.2147
王業	-11.2147
灘	-11.2147
分道	-11.2149
海西	-11.2149
使至	-11.2149
江夏王義恭	-11.215
經一巻	-11.2151
其業	-11.2151
鬚	-11.2151
生辰	-11.2151
不虞	-11.2151
以賜	-11.2155
近世	-11.2155
移書	-11.2158
九十五	-11.2158
劄	-11.2158
三年六月	-11.2159
挑戰	-11.2159
列傳第六十	-11.2161
至大	-11.2162
五路	-11.2162
分滿	-11.2165
七十里	-11.2167
邦國	-11.2171
土人	-11.2172
步騎	-11.2173
武后	-11.2174
即為	-11.2179
貢獻	-11.2181
一千八百	-11.2182
十二日	-11.2183
西路	-11.2183
五嵗	-11.2184
南史	-11.2186
連年	-11.2187
縣二	-11.2188
者得	-11.2189
且夫	-11.2189
璞	-11.219
多故	-11.2191
讌	-11.2193
岷	-11.2193
燿	-11.2194
呵	-11.2194
大笑	-11.2196
禳	-11.2197
襟	-11.2198
觀文殿大學士	-11.2198
浹	-11.2198
未嘗有	-11.2198
萬一千	-11.2198
撝	-11.2199
子産	-11.2199
蚩尤	-11.22
唐末	-11.22
必死	-11.2203
二女	-11.2203
北兵	-11.2203
其族	-11.2204
不決	-11.2205
法也	-11.2205
敢言	-11.2206
以軍功	-11.2207
為宫	-11.2207
配流	-11.2208
舶	-11.2208
又按	-11.2208
相攻	-11.2208
去病	-11.221
勿復	-11.2215
異也	-11.2218
醢	-11.2221
九千	-11.2222
甚於	-11.2223
城上	-11.2223
不意	-11.2227
第十	-11.2227
遂殺	-11.2229
悉平	-11.223
人生	-11.2231
歸化	-11.2233
道濟	-11.2235
文皇帝	-11.2237
南城	-11.2237
五年春正月	-11.2239
比年	-11.2239
郴	-11.2239
臨菑	-11.2239
九百	-11.2242
詘	-11.2244
澆	-11.2245
涌	-11.2247
王孫	-11.2247
慿	-11.2247
扵是	-11.225
與賊	-11.2251
驪	-11.2252
縣為	-11.2253
安成	-11.2254
所請	-11.2255
之明	-11.2256
故屬	-11.2257
高后	-11.2259
提刑司	-11.226
正色	-11.2263
天神	-11.2263
禮記曰	-11.2265
在東宫	-11.2265
路總管府	-11.2265
車駕幸	-11.2266
逆行	-11.2267
非禮	-11.2267
殿直	-11.2268
乾寧	-11.2269
攻下	-11.2271
詹	-11.2272
其謀	-11.2272
又犯	-11.2273
禍亂	-11.2277
報曰	-11.2279
靡不	-11.2281
八十二	-11.2281
部尚書	-11.2281
近郊	-11.2281
可觀	-11.2283
郎君	-11.2285
蜚	-11.2287
官者	-11.2289
人數	-11.2291
東觀	-11.2291
已破	-11.2291
奉安	-11.2292
是其	-11.2294
日有	-11.2294
割地	-11.2294
特哩衮	-11.2294
蠱	-11.2295
人者	-11.2295
殫	-11.2295
貺	-11.2297
意欲	-11.2297
婺州	-11.2297
携	-11.2297
烟	-11.2297
十六日	-11.2298
上怒	-11.2298
大寧	-11.2298
炬	-11.2298
即得	-11.2299
事多	-11.2301
與楚	-11.2301
霽	-11.2303
莫有	-11.2303
之性	-11.2304
使司	-11.2305
家在	-11.2306
乙已	-11.2307
招撫	-11.2312
希烈	-11.2312
恒州	-11.2314
師傅	-11.2314
已巳	-11.2316
裨	-11.2316
如有	-11.2317
左衛將軍	-11.232
儒林	-11.232
儀天	-11.2321
追諡	-11.2322
餘人	-11.2323
都頭	-11.2323
則天下	-11.2324
輿鬼	-11.2325
徳明	-11.2325
王叔	-11.2326
宗崩	-11.2327
伊克	-11.233
鞅	-11.2332
將行	-11.2334
正光	-11.2334
弗能	-11.2335
號泣	-11.2337
濞	-11.2339
夸	-11.2339
臣以為	-11.2341
長沙王	-11.2342
為正	-11.2342
爪牙	-11.2343
塋	-11.2343
北極	-11.2345
東海王	-11.2346
种	-11.2346
天成	-11.2346
饑饉	-11.2346
覧	-11.2346
敬宗	-11.2348
新亭	-11.2348
水火	-11.2349
俛伏興	-11.235
不可勝計	-11.2351
過於	-11.2353
百一十	-11.2355
劉備	-11.2357
管軍	-11.2357
梓州	-11.2358
謂宜	-11.2358
俄遷	-11.2358
其直	-11.2359
秋九月	-11.2359
許昌	-11.2364
民心	-11.2364
必當	-11.2368
田榮	-11.237
入侍	-11.2372
部人	-11.2372
仙人	-11.2373
解職	-11.2374
昊	-11.2374
圖書	-11.2374
隋文帝	-11.2375
為侯	-11.2375
二年春	-11.2376
為楚	-11.2376
光世	-11.2378
日餘	-11.2378
泣下	-11.2378
過也	-11.2379
諸葛	-11.238
設官	-11.2381
來援	-11.2383
不可勝數	-11.2383
諸蠻	-11.2384
浙江	-11.2384
兹謂	-11.2385
歷	-11.2385
邯	-11.2385
戯	-11.2388
憎	-11.2389
樂器	-11.239
忠良	-11.239
稱疾	-11.2391
猶豫	-11.2392
常有	-11.2392
頑	-11.2395
孝皇帝	-11.2395
糺	-11.2396
四十卷	-11.2396
於中	-11.2397
秦兵	-11.2398
祕書丞	-11.2399
奄至	-11.24
富民	-11.2401
禮也	-11.2403
解褐	-11.2403
重進	-11.2404
胡亥	-11.2407
禮直官引	-11.2408
上尊號	-11.2409
安仁	-11.2411
徭	-11.2412
霍光	-11.2412
喪亂	-11.2413
湯武	-11.2417
河間王	-11.242
徙治	-11.242
彦威	-11.2421
宫殿	-11.2424
宣諭	-11.2425
之威	-11.2425
錢糧	-11.2426
不舉	-11.2426
傕	-11.2429
所重	-11.2429
二百六十	-11.2431
者莫不	-11.2432
院使	-11.2434
勸農	-11.2435
復出	-11.2435
和卓	-11.2439
無射	-11.2439
嫗	-11.2441
請依	-11.2441
藪	-11.2442
須臾	-11.2442
値	-11.2443
楹	-11.2444
琿	-11.2444
東阿	-11.2446
渴	-11.2446
璉	-11.2447
摭	-11.2447
煦	-11.2448
魯人	-11.2451
淮安	-11.2451
君王	-11.2452
二年八月	-11.2453
蘇軾	-11.2453
字彦	-11.2454
二百二十	-11.2454
昪	-11.2456
齊齊	-11.246
出其	-11.2462
徃徃	-11.2462
縑	-11.2464
不可用	-11.2465
賊平	-11.2466
安陵	-11.2467
其不可	-11.247
清廟	-11.2472
沛郡	-11.2477
元符	-11.2479
西陽	-11.2481
天光	-11.2483
用人	-11.2484
嘗以	-11.2485
惕	-11.2485
幸得	-11.2487
不能制	-11.2488
四年三月	-11.2488
比之	-11.249
進士及第	-11.249
萇	-11.2492
自此始	-11.2492
渭州	-11.2493
晉軍	-11.2493
諳	-11.2494
瘳	-11.2494
危亡	-11.2496
亡去	-11.2496
募民	-11.2497
咸亨	-11.2497
不恤	-11.2498
南平王	-11.2498
特黙	-11.2498
行也	-11.2499
東都留守	-11.25
與宋	-11.2501
年四十	-11.2505
累加	-11.2505
其處	-11.2505
以和	-11.2507
一郡	-11.2509
沿邊	-11.251
旦夕	-11.251
南兖州刺史	-11.2512
太僕卿	-11.2512
不親	-11.2517
入奏	-11.2518
轉輸	-11.2518
與漢	-11.2519
往者	-11.2521
器物	-11.2521
尋轉	-11.2521
十三人	-11.2522
不守	-11.2525
皆降	-11.2525
亦宜	-11.2529
少好學	-11.2529
通州	-11.2529
君父	-11.2532
為患	-11.2532
時則有	-11.2533
率府	-11.2534
契丹使	-11.2536
和糴	-11.2536
失色	-11.2538
元年三月	-11.2538
簪	-11.2539
室韋	-11.2543
何其	-11.2543
緜	-11.2543
張俊	-11.2543
茹	-11.2543
能為	-11.2545
東城	-11.2545
朝賀	-11.2546
之迹	-11.2546
擣	-11.2546
晡	-11.2547
妄言	-11.2548
遼人	-11.255
不求	-11.2553
縣四	-11.2555
其死	-11.2555
今按	-11.2556
御坐	-11.2556
孝伯	-11.2557
此文	-11.2557
七國	-11.256
掖門	-11.2563
於是上	-11.2563
入漢	-11.2569
縣伯	-11.257
始封	-11.2574
史館	-11.2575
之形	-11.2577
與李	-11.2579
太祖曰	-11.2581
孺子	-11.2583
黨與	-11.2584
犧	-11.2584
商君	-11.2584
以便	-11.2589
名山	-11.259
乏食	-11.259
柘	-11.2591
鎰	-11.2592
治民	-11.2592
崇義	-11.2593
曰吾聞	-11.2595
儀禮	-11.2597
一路	-11.2598
挹	-11.2598
龍圖閣直學士	-11.26
酣	-11.2601
赫舍哩	-11.2601
遂入	-11.2603
懐王	-11.2603
折衝	-11.2604
大寳	-11.2605
閬	-11.2605
上馬	-11.2607
省事	-11.2607
諸將皆	-11.2608
定逺	-11.2608
北向立	-11.2611
二帝	-11.2611
僚屬	-11.2613
巨源	-11.2614
才能	-11.2616
李廣	-11.2617
歸于	-11.2619
欲殺之	-11.2621
太上皇帝	-11.2623
將軍如故	-11.2623
率軍	-11.2624
廟堂	-11.2624
五丈	-11.2625
當國	-11.2627
蕃漢	-11.2629
兵討之	-11.263
年月	-11.263
公侯	-11.263
王爵	-11.2631
知政事	-11.2633
去交	-11.2634
之力也	-11.2635
二千四百	-11.2635
潼	-11.2636
之具	-11.2636
試之	-11.2637
民户	-11.2639
又欲	-11.264
在後	-11.2641
軍府	-11.2643
而弗	-11.2643
除授	-11.2643
殽	-11.2645
喝	-11.2645
莫知	-11.2646
呌	-11.2648
不可勝	-11.265
守節	-11.2653
帝謂	-11.2654
錄尚書事	-11.2655
未決	-11.2656
舉事	-11.2657
辟陽侯	-11.2657
小子	-11.2657
人員	-11.2657
典吏	-11.266
萬安	-11.2662
華州刺史	-11.2663
既立	-11.2663
鄜	-11.2665
算外	-11.2665
監門	-11.2666
社稷之	-11.2666
建隆	-11.2667
将兵	-11.2667
致之	-11.2674
為將	-11.2676
二千七百	-11.2677
蠟	-11.2678
郡邑	-11.2678
掾史	-11.268
宫縣	-11.2682
之權	-11.2682
大業初	-11.2682
繇是	-11.2682
聞奏	-11.2684
辭曰	-11.2685
興州	-11.2685
故吏	-11.2685
元年五月	-11.2686
伴	-11.2687
渭南	-11.269
伊蘇	-11.2691
始有	-11.2691
䧺	-11.2692
光禄勲	-11.2693
所賜	-11.2693
唐書	-11.2693
討論	-11.2694
遷為	-11.2694
黄州	-11.2694
灑	-11.2695
大潰	-11.2695
民皆	-11.2697
既不	-11.2697
蓮	-11.2698
而走	-11.2699
濕	-11.27
糜	-11.27
赤眉	-11.2701
百王	-11.2701
鄜州	-11.2702
平南將軍	-11.2703
揣	-11.2705
鄱陽王	-11.2705
虞卿	-11.2706
服色	-11.2706
景靈宫	-11.2706
募兵	-11.2707
寧逺	-11.271
而用之	-11.271
又徙	-11.2711
三十日	-11.2712
各自	-11.2712
二十八宿	-11.2716
劾之	-11.2718
日暈	-11.2718
武帝時	-11.2719
功封	-11.2719
都省	-11.272
即命	-11.272
著於	-11.2721
帝欲	-11.2722
宮中	-11.2723
隆之	-11.2723
遣使來貢	-11.2724
第三子	-11.2724
䕶軍將軍	-11.2729
元狩	-11.2729
吏事	-11.273
䝉古軍	-11.273
猶在	-11.2735
平涼	-11.2735
立冬	-11.2737
穆之	-11.2739
舊書	-11.2741
臨事	-11.2742
四寸	-11.2743
紆	-11.2744
不得入	-11.2744
任使	-11.2744
不孝	-11.2744
藩鎮	-11.2747
流離	-11.2747
故名	-11.2747
兵入	-11.2748
井陘	-11.2749
優劣	-11.2752
㡌	-11.2752
上音	-11.2754
江湖	-11.2754
朔詔	-11.2755
今天下	-11.2755
自隨	-11.2756
杜重威	-11.2757
亡者	-11.276
之廟	-11.276
相州刺史	-11.2761
叔孫通	-11.2765
自有傳	-11.2765
戍主	-11.2767
字下	-11.2768
渾儀	-11.2769
加開府儀同三司	-11.277
戍卒	-11.2771
晉安王	-11.2773
上表請	-11.2774
互相	-11.2776
延祐	-11.2778
威武	-11.2779
大衍	-11.2779
王妃	-11.278
七寸	-11.278
白帝	-11.2783
月氏	-11.2783
彭祖	-11.2784
三百五十	-11.2785
寧州	-11.2785
之交	-11.2785
命曰	-11.2786
刻石	-11.2792
琢	-11.2794
羔	-11.2794
潁州	-11.2795
四年七月	-11.2796
鼂錯	-11.2797
兵器	-11.2797
河橋	-11.28
昭明	-11.28
忱	-11.2803
畀	-11.2803
延之	-11.2803
沾	-11.2803
髻	-11.2804
徭役	-11.2806
凡所	-11.2806
長興	-11.2807
皇祐	-11.2808
縣子	-11.2808
不異	-11.2809
守道	-11.281
重熙	-11.281
赫連	-11.2811
閼	-11.2812
而不知	-11.2814
利用	-11.2814
托歡	-11.2815
開元中	-11.2815
民居	-11.2816
戰勝	-11.2816
供給	-11.2817
者聽	-11.2818
殺戮	-11.2819
必矣	-11.2821
戰艦	-11.2822
梁元帝	-11.2823
陳勝	-11.2824
教化	-11.2824
鴻臚	-11.2825
兩宫	-11.2826
宋書	-11.2826
珠玉	-11.2827
左諫議大夫	-11.2827
白氣	-11.2828
入官	-11.2828
天王	-11.2828
于外	-11.2829
隨時	-11.2835
以功授	-11.2835
鎮守	-11.2836
何由	-11.2836
無幾	-11.2836
惟新	-11.2836
蔚州	-11.2836
諲	-11.2837
居人	-11.2839
未安	-11.284
之色	-11.284
猶言	-11.2842
邾	-11.2843
之㫖	-11.2844
橐	-11.2844
招降	-11.2845
敗於	-11.2846
其位	-11.2846
頊	-11.285
彗星見	-11.285
佐命	-11.2851
著書	-11.2851
夏六月	-11.2851
屑	-11.2851
朓	-11.2852
燮	-11.2853
所滅	-11.2854
騷動	-11.2855
昭成	-11.2855
徴拜	-11.2856
戩	-11.2856
十七度	-11.2857
相屬	-11.2857
而遁	-11.2857
杜預	-11.2858
匣	-11.2858
遂令	-11.2858
卨	-11.2859
共王	-11.286
母子	-11.2861
億兆	-11.2861
従之	-11.2861
盍	-11.2861
宋主	-11.2863
家語	-11.2865
以加	-11.2865
罷去	-11.2866
度支尚書	-11.2866
涇陽	-11.287
大觀	-11.2871
一縣	-11.2875
南豫州刺史	-11.2876
樂也	-11.2878
揀	-11.2878
縱横	-11.2878
以為常	-11.2881
伐我	-11.2882
兵事	-11.2882
財貨	-11.2882
漢官	-11.2883
一方	-11.2883
慶歴	-11.2886
比干	-11.2889
考功	-11.2889
東歸	-11.289
越人	-11.2891
書記	-11.2891
環慶	-11.2893
之意也	-11.2893
功成	-11.2894
不廢	-11.2895
寛厚	-11.2896
蘇州	-11.2899
牧馬	-11.2899
右賢王	-11.2901
裒	-11.2901
夹	-11.2902
觜	-11.2902
伽	-11.2903
少師	-11.2904
留意	-11.2905
多難	-11.2906
後晉司空同中書門下平章事劉昫撰	-11.2906
行分	-11.2906
穗	-11.2906
謀逆	-11.2907
穂	-11.2908
横行	-11.2908
有光	-11.2908
鑰	-11.2911
池州	-11.2911
四年五月	-11.2912
勝之	-11.2912
睢陽	-11.2914
朱全忠	-11.2916
石城	-11.2916
裴度	-11.2916
草創	-11.2917
建炎	-11.2921
滑臺	-11.2922
多矣	-11.2923
為齊王	-11.2924
類此	-11.2924
曲陽	-11.2926
乃請	-11.2927
南岸	-11.2928
夜郎	-11.2929
戮力	-11.293
本姓	-11.293
表求	-11.293
思忠	-11.293
免其	-11.2931
以為言	-11.2932
品秩	-11.2932
常為	-11.2934
執金吾	-11.2935
西州	-11.2937
晉文公	-11.2938
難得	-11.2939
婺	-11.2941
誠能	-11.2941
始以	-11.2944
歐	-11.2945
實錄	-11.2946
若干	-11.2946
三歲	-11.2947
兵甲	-11.2949
園陵	-11.295
李綱	-11.2951
元元	-11.2952
神仙	-11.2953
樂陵	-11.2953
海中	-11.2954
煎	-11.2955
爾雅曰	-11.2956
趙鼎	-11.2956
盂	-11.2956
有六	-11.2957
州大中正	-11.2957
有星孛于	-11.2959
日躔	-11.2959
絢	-11.296
我我	-11.296
為樂	-11.296
濟陽	-11.2963
湖廣行省	-11.2964
褥位	-11.2964
輔國将軍	-11.2965
祥也	-11.2965
不經	-11.2967
求去	-11.2968
實為	-11.2969
廣寧	-11.2972
一石	-11.2973
仕至	-11.2973
百斤	-11.2977
太元	-11.2977
百世	-11.2977
知事	-11.2983
衛上將軍	-11.2984
安王	-11.2984
歩兵校尉	-11.2985
登第	-11.2989
半之	-11.2989
喪事	-11.2991
旗一	-11.2993
堵	-11.2993
餘以	-11.2994
無一	-11.2995
秦秦	-11.2995
兩月	-11.2997
良臣	-11.2998
為先鋒	-11.3
犂	-11.3001
九寸	-11.3002
諡文	-11.3004
上令	-11.3005
言無	-11.3006
太簇	-11.3009
皇極	-11.3011
弑其君	-11.3011
旺	-11.3012
前書曰	-11.3015
主兵	-11.3016
内臣	-11.3016
其徳	-11.3016
六七	-11.3017
累世	-11.3017
征北	-11.3018
擅權	-11.3019
違者	-11.302
伏惟	-11.302
大内	-11.3021
檢校太傅	-11.3022
變化	-11.3024
不覺	-11.3024
入交	-11.3025
書之	-11.3025
清河王	-11.3025
先儒	-11.3025
服除	-11.3025
少府監	-11.3025
是何	-11.3028
帝為	-11.303
土木	-11.303
其夜	-11.3031
散官	-11.3031
癸	-11.3034
餘如故	-11.3035
南有	-11.3035
精騎	-11.3036
因以為	-11.3036
人謂	-11.3037
事宜	-11.3038
年二十	-11.3039
春申君	-11.3041
承業	-11.3041
記室參軍	-11.3043
追及	-11.3044
李克用	-11.3045
務在	-11.3046
治兵	-11.3048
之基	-11.3048
人力	-11.3052
汴京	-11.3054
析置	-11.3059
於周	-11.3059
土貢	-11.306
又嘗	-11.3062
氂	-11.3062
霞	-11.3063
璩	-11.3065
王夫人	-11.3065
石勒	-11.3066
闌	-11.3068
黔首	-11.3069
之别	-11.3069
港	-11.3073
0	-11.3073
約分	-11.3073
集賢校理	-11.3074
諸侯之	-11.3076
荆襄	-11.3077
募人	-11.3077
亡國	-11.3079
不盡為	-11.308
發遣	-11.308
特賜	-11.3082
既得	-11.3082
涯	-11.3082
七曰	-11.3083
入焉	-11.3084
墾	-11.3084
也父	-11.3085
二至	-11.3085
三禮	-11.3085
聽之	-11.3086
鴻臚卿	-11.3086
春夏	-11.3089
居處	-11.309
因事	-11.309
郡人	-11.3091
應募	-11.3091
秦滅	-11.3093
稱㫖	-11.3095
蓺	-11.3099
摇	-11.3099
六卿	-11.31
詔可	-11.3101
雨雪	-11.3101
儒術	-11.3105
犯軒轅大星	-11.3105
注文	-11.3105
軍亂	-11.3105
之尊	-11.3105
薩哈	-11.3106
今既	-11.3107
數里	-11.3107
相連	-11.3108
恐非	-11.3108
鄭氏	-11.311
新法	-11.3111
長卿	-11.3111
歌詩	-11.3111
周太祖	-11.3112
武寧	-11.3112
蔬	-11.3113
左右皆	-11.3113
楫	-11.3114
針	-11.3114
者以為	-11.3114
安在	-11.3115
三河	-11.3115
梯	-11.3117
擯	-11.3117
醴泉	-11.3117
液	-11.3118
祜	-11.3119
遂命	-11.3122
志寧	-11.3122
瑊	-11.3122
無私	-11.3123
死傷	-11.3123
晏子	-11.3123
欣然	-11.3124
東征	-11.3125
太和中	-11.3126
昊天	-11.3126
進奉	-11.3128
今已	-11.3129
貝勒	-11.3131
右衛將軍	-11.3131
産業	-11.3131
憂懼	-11.3132
等物	-11.3133
還本	-11.3134
從九品	-11.3135
分别	-11.3135
日以	-11.3136
上親	-11.3138
簡子	-11.3138
皆無	-11.3139
分司	-11.314
平昌	-11.314
坐與	-11.3142
逆順	-11.3142
乾符	-11.3143
公田	-11.3143
皆以為	-11.3145
報之	-11.3145
書令史	-11.3148
瀕	-11.3148
羣盜	-11.315
洛水	-11.3152
司天監	-11.3155
勤勞	-11.3156
清明	-11.3156
十四人	-11.3158
衛将軍	-11.3159
衡陽	-11.3161
吉甫	-11.3162
以降	-11.3167
在官	-11.3167
等官	-11.3167
文安	-11.3168
蹕	-11.3171
於魏	-11.3172
並依	-11.3174
暐	-11.3175
復見	-11.3176
權臣	-11.3177
虡	-11.3179
乳母	-11.3182
率騎	-11.3182
墳墓	-11.3183
以伐	-11.3184
復叛	-11.3184
萬全	-11.3184
其南	-11.3185
詔諸路	-11.3186
禁之	-11.3187
五榖	-11.3188
贊者	-11.3193
僧道	-11.3197
示以	-11.3198
羣臣皆	-11.3199
等軍	-11.3199
於斯	-11.32
入門	-11.32
之境	-11.3201
創業	-11.3201
宜以	-11.3203
陛下之	-11.3203
善人	-11.3204
然猶	-11.3206
安慶	-11.3207
有兩	-11.3208
三晉	-11.3208
鞫之	-11.321
騎將	-11.3213
▁二	-11.3213
政令	-11.3214
率其	-11.3215
之序	-11.3218
師範	-11.322
以討	-11.3221
不好	-11.3221
浙本	-11.3222
屬官	-11.3222
潯	-11.3223
媪	-11.3226
廖	-11.3226
太祖以	-11.3227
國子司業	-11.3228
四子	-11.3228
通直郎	-11.323
日辰	-11.323
眚	-11.323
大用	-11.3231
脊	-11.3232
率土	-11.3232
嗣昭	-11.3233
躬自	-11.3233
金州	-11.3233
范延光	-11.3234
衆議	-11.3236
清濁	-11.3237
商旅	-11.3239
六巻	-11.3239
河渠	-11.324
不救	-11.324
是則	-11.324
十度	-11.3241
孫也	-11.3243
詰之	-11.3244
不順	-11.3245
飛龍	-11.3246
二萬人	-11.3246
鞍馬	-11.3246
六縣	-11.3247
運司	-11.3248
征之	-11.3249
已前	-11.3249
又無	-11.325
金國	-11.325
屯於	-11.3252
皇帝諱	-11.3252
天厯	-11.3253
梁國	-11.3255
保寧	-11.3255
于京師	-11.3256
所歸	-11.3256
左軍	-11.3256
隆安	-11.3257
前事	-11.3258
孔氏	-11.3259
黔中	-11.3262
懐徳	-11.3262
清水	-11.3263
本草	-11.3264
餘悉	-11.3265
所愛	-11.3265
御容	-11.3266
人以為	-11.3266
王國	-11.3266
以禦	-11.3267
時議	-11.3268
行樞密院	-11.3268
犯畢	-11.327
將有	-11.3271
諂	-11.3272
朕之	-11.3273
灌嬰	-11.3273
眩	-11.3274
别廟	-11.3274
誑	-11.3276
礬	-11.3277
|||||	-11.3277
廨	-11.3277
僰	-11.3278
蟠	-11.3279
茂陵	-11.3281
無由	-11.3281
之遺	-11.3283
儉約	-11.3284
義帝	-11.3284
貟	-11.3285
淛	-11.3285
澣	-11.3286
原本	-11.3286
河溢	-11.3287
劉光世	-11.3289
地而	-11.3289
一行	-11.329
等謀	-11.329
者又	-11.3292
者所以	-11.3293
千餘家	-11.3294
天寳元年改為	-11.3294
于太廟	-11.3297
甚急	-11.3297
按察司	-11.3298
犯太微	-11.33
援之	-11.3301
永熙	-11.3301
江漢	-11.3302
説之	-11.3303
何能	-11.3303
永州	-11.3305
二十七日	-11.3308
吾聞	-11.3311
終無	-11.3311
廣陵王	-11.3311
其過	-11.3312
韋昭云	-11.3312
在内	-11.3312
善於	-11.3314
不戰	-11.3315
意也	-11.3316
廵狩	-11.3317
國家之	-11.3317
因留	-11.3317
瀘州	-11.3319
初平	-11.3319
敵人	-11.332
新羅	-11.3324
左右衛	-11.3325
黷	-11.3325
吉州	-11.3325
任之	-11.3326
侍御	-11.3329
母曰	-11.3329
軍器	-11.3331
籍田	-11.3332
歸漢	-11.3332
城人	-11.3335
軍屯	-11.3336
改葬	-11.3337
撫之	-11.3337
絶人	-11.3337
等各	-11.3338
與民	-11.3338
簽書樞密院事	-11.3338
噬	-11.3339
戡	-11.3339
樞密直學士	-11.3339
工匠	-11.334
佯	-11.334
河洛	-11.334
昌邑	-11.3341
爵為	-11.3341
州牧	-11.3343
重兵	-11.3343
忠武	-11.3343
本軍	-11.3344
成人	-11.3346
勾當	-11.3346
左拾遺	-11.3346
萬錠	-11.3346
建元元年	-11.3349
征南	-11.3354
音樂	-11.3354
見稱	-11.3356
宗人	-11.3357
制置司	-11.3357
音子	-11.3358
南討	-11.336
為翰林學士	-11.3362
之常	-11.3363
異時	-11.3363
天武	-11.3364
觀者	-11.3364
容貌	-11.3364
山上	-11.3364
年置	-11.3367
二嵗	-11.3369
何罪	-11.3369
令尹	-11.3374
金錢	-11.3375
飲福	-11.3376
九十四	-11.3377
賜諸王	-11.3378
惻	-11.3378
太宗即位	-11.3379
籩	-11.338
犯南斗	-11.3382
為尚書右僕射	-11.3383
明州	-11.3385
入蜀	-11.3385
鞮	-11.3386
威權	-11.3387
水草	-11.3387
賦役	-11.3389
杓	-11.339
雝	-11.3392
不知所為	-11.3394
乎且	-11.3395
萬方	-11.3396
不逺	-11.3396
太極殿	-11.3396
領郡	-11.3396
劉豫	-11.3398
十五萬	-11.3398
方鎮	-11.3398
伏惟陛下	-11.3399
河東節度使	-11.3399
髙郵	-11.3402
其親	-11.3405
三鎮	-11.3407
未立	-11.3409
舞蹈	-11.3409
賈人	-11.3409
民家	-11.3411
飲之	-11.3412
平行	-11.3415
帝位	-11.3417
置左右	-11.3421
相視	-11.3422
即墨	-11.3423
存問	-11.3426
亦然	-11.3426
十八人	-11.3426
竇太后	-11.3426
曰子	-11.3426
晉髙祖	-11.3429
巴西	-11.343
宜從	-11.3431
令漢舊縣	-11.3431
劉奉世曰	-11.3433
新立	-11.3436
路轉運使	-11.3437
卒以	-11.3437
驂	-11.3438
各舉	-11.3439
六年正月	-11.344
沼	-11.344
管領	-11.344
三年八月	-11.3441
偵	-11.3443
詎	-11.3444
阬	-11.3444
置司	-11.3447
扎拉	-11.3447
南昌	-11.3448
取士	-11.3448
驃騎大將軍開府儀同三司	-11.345
系本	-11.3451
征虜	-11.3451
黄巾	-11.3453
平西將軍	-11.3453
年十三	-11.3453
弘農	-11.3454
祼	-11.3454
也一曰	-11.3456
熙寜	-11.3457
簽書	-11.3458
智者	-11.346
西有	-11.3461
聖賢	-11.3463
女弟	-11.3464
勞苦	-11.3464
手書	-11.3465
減一	-11.3466
有寵	-11.347
若使	-11.3472
林甫	-11.3473
齋郎	-11.3473
讀與	-11.3475
至元二年	-11.3475
從太祖	-11.3476
五禮	-11.3476
神農	-11.348
别置	-11.3482
然亦	-11.3483
刑部郎中	-11.3483
失道	-11.3484
入氣	-11.3486
請命	-11.3487
之吏	-11.3488
撫州	-11.3489
於是天子	-11.3492
老人	-11.3492
孝孫	-11.3493
姚興	-11.3493
之首	-11.3494
恢復	-11.3495
第一星	-11.3495
敵國	-11.3496
磔	-11.3496
郞	-11.3497
兵亂	-11.3498
氛	-11.3499
多者	-11.3499
司徒左長史	-11.35
屯軍	-11.3501
䧏	-11.3502
潼關	-11.3503
塗炭	-11.3503
幾何	-11.3503
署為	-11.3504
内侍省	-11.3505
逈	-11.3505
里南至	-11.3505
内殿崇班	-11.3505
玉帛	-11.3506
迎神	-11.3507
車騎将軍	-11.3507
大位	-11.3508
姦人	-11.3508
寳應	-11.3508
呼喇	-11.351
交結	-11.351
小大	-11.3511
復召	-11.3511
畜牧	-11.3512
京師地震	-11.3514
為盗	-11.3516
賜物	-11.3517
大學士	-11.3517
建德	-11.3517
外官	-11.3518
七曜	-11.3518
甘茂	-11.3519
諸城	-11.3519
安西將軍	-11.3519
其力	-11.352
法興	-11.352
用減	-11.352
自新	-11.3522
事發	-11.3523
皆稱	-11.3524
光宅	-11.3524
計事	-11.3525
使於	-11.3533
事平	-11.3534
大㑹	-11.3536
為臣	-11.3536
自餘	-11.3539
逆戰	-11.3539
優詔	-11.354
必能	-11.3541
代為	-11.3544
從平	-11.3547
袒	-11.3547
金山	-11.3548
十萬石	-11.3548
新附	-11.3548
䨇	-11.3549
阪	-11.355
科舉	-11.355
不修	-11.3551
為左右	-11.3552
誌	-11.3552
不思	-11.3553
佶	-11.3553
節儉	-11.3553
烝	-11.3553
杳	-11.3554
戎服	-11.3554
媵	-11.3556
盧綰	-11.3556
不能用	-11.3556
其段	-11.3557
醇	-11.3558
州安置	-11.3558
自當	-11.3558
罸	-11.3559
斟酌	-11.356
趙州	-11.356
三年詔	-11.3561
克之	-11.3561
行而	-11.3562
攻魏	-11.3563
之器	-11.3563
中流矢	-11.3564
後至	-11.3564
四字	-11.3565
雍丘	-11.3567
溺死	-11.3568
來告	-11.3572
而南	-11.3572
詔天下	-11.3574
自歸	-11.3575
始也	-11.3576
分秒	-11.3578
詔下	-11.3579
安重誨	-11.358
義隆	-11.358
皇帝廟號	-11.358
有文	-11.358
其外	-11.3581
監國	-11.3582
萬夀	-11.3584
復令	-11.3585
此書	-11.3588
部將	-11.3588
而致	-11.3588
原本作	-11.3589
信安	-11.3589
泰定	-11.359
發運使	-11.3591
既定	-11.3593
祔廟	-11.3593
設伏	-11.3595
都護	-11.3595
軍儲	-11.3598
建為	-11.36
羆	-11.3601
河中府	-11.3602
伏願	-11.3603
德宗	-11.3604
千牛	-11.3604
為中書令	-11.3605
錮	-11.3605
春二月	-11.3607
擔	-11.3608
㑹同	-11.361
諸曹	-11.361
胷	-11.3611
未平	-11.3612
孝忠	-11.3612
右北平	-11.3613
公府	-11.3614
虵	-11.3614
冩	-11.3614
卷亡	-11.3616
壕	-11.3616
沽	-11.3616
凡六	-11.3616
又謂	-11.3619
三部	-11.3621
左氏傳	-11.3621
好惡	-11.3623
本注曰	-11.3624
議事	-11.3624
虎牢	-11.3625
稽首	-11.3625
難之	-11.3626
殿内	-11.3626
增置	-11.3626
舟師	-11.3627
燕人	-11.3628
其形	-11.3628
家有	-11.3628
東夷	-11.363
守城	-11.3631
文秀	-11.3631
二府	-11.3631
嘗謂	-11.3632
東討	-11.3633
咸淳	-11.3633
建成	-11.3633
武舞	-11.3634
不作	-11.3635
濟北王	-11.3636
欲求	-11.3638
百八十	-11.364
二千六百	-11.3641
撫諭	-11.3642
史臣	-11.3644
奉法	-11.3644
服御	-11.3645
不令	-11.3646
寧宗	-11.3646
正人	-11.3646
嵗在	-11.3647
二年九月	-11.3647
疾苦	-11.3647
順陽	-11.3648
邳	-11.3648
而一為	-11.3648
皆死	-11.3649
之急	-11.3649
報國	-11.3652
魏文帝	-11.3652
所封	-11.3652
稱疾不	-11.3654
清臣	-11.3655
蒲州	-11.3655
上文	-11.3656
二十八日	-11.3656
軍次	-11.3657
方與	-11.3657
臨晉	-11.3657
之方	-11.3658
二年十月	-11.3658
之妻	-11.3659
帝御	-11.366
曰今日	-11.3663
關東	-11.3664
不能得	-11.3665
日南	-11.3665
凡諸	-11.3667
分也	-11.3668
謇	-11.3668
盡其	-11.3669
謀殺	-11.367
僥倖	-11.3672
曹參	-11.3673
天正	-11.3674
邕州	-11.3677
諸物	-11.3678
舒嚕	-11.368
梁書卷	-11.368
子元	-11.368
導引	-11.3682
一見	-11.3683
二州諸軍事	-11.3685
者矣	-11.3686
可與	-11.3686
童貫	-11.3686
所以為	-11.3691
性剛	-11.3692
於太廟	-11.3693
今者	-11.3697
金主	-11.3697
臣以	-11.3698
靖康	-11.3704
二丈	-11.3704
於長安	-11.3705
㽞	-11.3708
祏	-11.3709
臺臣	-11.3711
賊將	-11.3713
漢武帝	-11.3714
怪之	-11.3715
水上	-11.3716
縣五	-11.3716
禮文	-11.3717
以圖	-11.3717
王王	-11.3718
故稱	-11.3718
千乘	-11.3719
見任	-11.3719
是用	-11.372
世居	-11.372
居其	-11.3721
議之	-11.3721
螭	-11.3722
中山王	-11.3722
大行臺	-11.3722
慮其	-11.3722
百辟	-11.3723
汾隂	-11.3725
代還	-11.3726
冬十二月	-11.3726
親祀	-11.3728
尚之	-11.3728
▁四	-11.3729
袋	-11.3729
押班	-11.373
哭泣	-11.373
喧	-11.3731
亡歸	-11.3732
之應	-11.3733
忌之	-11.3734
前史	-11.3734
淀	-11.3735
何敢	-11.3736
列傳第一百	-11.3736
開封尹	-11.3736
恩信	-11.3737
一戰	-11.3738
不仕	-11.3738
焉其	-11.3738
兩河	-11.374
嘉興	-11.3741
可取	-11.3741
卒於家	-11.3742
衡州	-11.3743
卒年八十	-11.3743
生日	-11.3745
名馬	-11.3747
不反	-11.3747
於是乎	-11.3748
暴虐	-11.3748
之母	-11.3748
不拘	-11.3749
皆屬	-11.375
進酒	-11.3751
後屬	-11.3753
前殿	-11.3753
兼御史中丞	-11.3753
一無所	-11.3754
合從	-11.3755
穆王	-11.3756
終身不	-11.3757
何志	-11.3758
者當	-11.3759
未甞	-11.3759
且以	-11.3761
闕文	-11.3762
萬歲	-11.3762
觀察等使	-11.3764
獲罪	-11.3764
人材	-11.3767
䕶衛	-11.3767
寧國	-11.377
即今	-11.377
為樞密使	-11.377
吏部郎	-11.3771
始得	-11.3773
勸進	-11.3773
烽	-11.3778
即是	-11.3778
不倦	-11.3779
㠯	-11.3779
歴官	-11.3781
請於	-11.3781
菑川	-11.3781
十一度	-11.3781
撃之	-11.3782
皆言	-11.3782
大通	-11.3783
十六人	-11.3783
度數	-11.3784
中書右丞	-11.3784
琵琶	-11.3785
坐法	-11.3786
罷歸	-11.3786
䂓	-11.3787
聳	-11.3787
跳	-11.3789
騎軍	-11.3789
乾坤	-11.3791
淳祐	-11.3792
藩邸	-11.3793
惟陛下	-11.3796
謂侍臣曰	-11.38
康居	-11.3802
授官	-11.3802
人之所	-11.3804
稱職	-11.3804
使君	-11.3805
紹熙	-11.3805
用為	-11.3807
賜帛	-11.3807
州長史	-11.3807
殷周	-11.3809
山河	-11.3809
無主	-11.3814
生口	-11.3814
掾屬	-11.3815
聽政	-11.3817
太伯	-11.3818
出軍	-11.3819
奈	-11.382
深州	-11.3822
劉攽曰案	-11.3822
同異	-11.3826
子男	-11.3826
判三司	-11.3829
疾篤	-11.3833
鎮定	-11.3836
詔命	-11.3836
無疑	-11.3837
鷙	-11.3838
而終	-11.3838
武興	-11.384
涪	-11.384
犍為	-11.384
哈瑪爾	-11.3842
百石	-11.3842
元年十二月	-11.3843
憶	-11.3843
岀	-11.3843
詬	-11.3844
魯國	-11.3845
宿度	-11.3846
京房易傳曰	-11.3846
伯夷	-11.3847
節鉞	-11.3847
車騎大將軍	-11.3848
已久	-11.3848
存審	-11.3849
9	-11.385
中散	-11.385
尋授	-11.3856
天和	-11.3856
復歸	-11.3859
霆	-11.3859
擒其	-11.3862
皆同	-11.3862
四鎮	-11.3863
朝謁	-11.3863
義師	-11.3864
重慶	-11.3865
識其	-11.3865
符瑞	-11.3867
失職	-11.3868
梁太祖	-11.387
之女	-11.387
從祀	-11.3873
曰漢	-11.3873
甲戍	-11.3874
獄吏	-11.3876
相近	-11.3876
丹徒	-11.3876
晉國	-11.3877
先君	-11.3878
以功遷	-11.3878
慧景	-11.3878
一階	-11.388
林牙	-11.3882
刺殺	-11.3882
雹	-11.3882
勝負	-11.3882
殿最	-11.3883
以慰	-11.3883
蘭州	-11.3885
具言	-11.3887
攻戰	-11.3888
脯	-11.3888
藺	-11.3889
西海	-11.389
氏為	-11.3891
阿爾哈雅	-11.3891
北院	-11.3891
有頃	-11.3892
詔自今	-11.3892
後進	-11.3894
守忠	-11.3895
炙	-11.3895
廻紇	-11.3895
榛	-11.3895
巨萬	-11.3897
以徇	-11.3897
撒	-11.3898
冬至後	-11.3898
奢侈	-11.3898
事秦	-11.3899
歌曰	-11.3899
片	-11.39
尒朱	-11.39
叨	-11.3902
昺	-11.3905
齊獻武王	-11.3905
時年五十	-11.3908
請立	-11.3909
闗内	-11.391
何人	-11.391
既有	-11.3912
四郡	-11.3915
降神	-11.3915
晷景	-11.3916
累官至	-11.3916
鹽池	-11.3916
守宰	-11.3916
俱為	-11.3917
加恩	-11.3918
大元	-11.3919
衛大将軍	-11.3919
公曰	-11.3919
多士	-11.392
同知樞宻院事	-11.392
永定	-11.3921
乃謂	-11.3922
岐州	-11.3924
竟以	-11.3924
前漢	-11.3925
若水	-11.3927
乞降	-11.3927
軍功	-11.3928
而食	-11.393
累朝	-11.3931
三道	-11.3931
謝病	-11.3931
隨之	-11.3932
所經	-11.3933
王世充	-11.3934
高平	-11.3934
往年	-11.3935
分命	-11.3937
親自	-11.3938
安成王	-11.3939
遷侍中	-11.3941
兵討	-11.3943
凉州	-11.3943
推誠	-11.3944
巴東	-11.3945
悝	-11.3946
以文	-11.3948
千乗	-11.3949
漢武	-11.3949
侍立	-11.395
東有	-11.395
定分	-11.395
堂上	-11.3953
九尺	-11.3953
猶不	-11.3953
禕	-11.3953
厄	-11.3954
得無	-11.3954
江水	-11.3955
援兵	-11.3955
所掠	-11.3955
太倉	-11.3955
宮室	-11.3956
核	-11.3956
欄	-11.3957
擇日	-11.3958
衂	-11.3958
征東	-11.3958
遐邇	-11.3958
湮	-11.3959
比至	-11.3959
屬焉	-11.396
猛獸	-11.396
撻	-11.396
被甲	-11.3961
竊聞	-11.3961
以其子	-11.3964
平陳	-11.3964
論功	-11.3964
羣公	-11.3965
五郡	-11.3965
十五巻	-11.3968
劉毅	-11.3968
而使	-11.3969
外家	-11.397
舉秀才	-11.397
袁粲	-11.397
令民	-11.3972
揚雄	-11.3972
即此	-11.3973
南奔	-11.3974
堅壁	-11.3974
江上	-11.3975
為逆	-11.3976
左光祿大夫	-11.3978
處死	-11.3978
以威	-11.3979
特授	-11.398
其來	-11.398
良馬	-11.398
於路	-11.3982
衣裳	-11.3983
劒南	-11.3984
爭之	-11.3986
兵屯	-11.3986
不習	-11.3986
安圖	-11.3987
仲舒	-11.3988
達嚕噶齊一員	-11.3989
其任	-11.399
人吏	-11.3991
大道	-11.3991
十六卷	-11.3992
願以	-11.3994
三年春	-11.3994
希憲	-11.3995
軍于	-11.3996
機務	-11.3996
一門	-11.3997
十一日	-11.3997
征西	-11.3998
其材	-11.3999
經畧使	-11.3999
又問	-11.3999
各為	-11.3999
文舞	-11.4
以全	-11.4
者謂之	-11.4
昌黎	-11.4001
𤣥孫	-11.4002
亦皆	-11.4005
崇徳	-11.4007
漢末	-11.4008
外任	-11.4008
治天下	-11.4008
仁恭	-11.4011
養之	-11.4011
各三	-11.4014
之宿	-11.4014
鎮惡	-11.4014
人祖	-11.4015
滁州	-11.4015
稱王	-11.4018
北流	-11.4021
禹貢	-11.4022
大順	-11.4024
兵仗	-11.4025
守文	-11.4028
水利	-11.4029
闗東	-11.4031
獲之	-11.4032
字徳	-11.4033
四十餘	-11.4033
應對	-11.4037
縊	-11.4039
五世	-11.4039
帥衆	-11.4039
禄山	-11.4039
梁武	-11.4044
博索	-11.4044
聖㫖	-11.4045
襄邑	-11.4046
南鄭	-11.4047
交易	-11.4048
求其	-11.405
何事	-11.4053
都總管	-11.4055
武德四年	-11.4056
姓也	-11.4058
曲直	-11.4058
律厯	-11.4061
令有司	-11.4063
新州	-11.4065
刑名	-11.4066
瓛	-11.4066
二千户	-11.4067
此云	-11.4068
至乃	-11.4069
中庸	-11.4069
營州	-11.4069
鐘磬	-11.407
責其	-11.4071
魏書	-11.4071
太蔟	-11.4072
署令	-11.4073
國號	-11.4073
帝自	-11.4074
曙	-11.4076
貞觀中	-11.4076
荐	-11.4076
郗	-11.4076
數為	-11.4078
范仲淹	-11.4079
承聖	-11.408
有司請	-11.408
人神	-11.408
宣徽院	-11.408
兼侍講	-11.4081
亦自	-11.4082
攻陷	-11.4087
並起	-11.4087
今上	-11.4088
其計	-11.4088
楚楚	-11.4089
凡七	-11.409
非便	-11.409
乃至	-11.4092
瀛州刺史	-11.4093
者雖	-11.4093
去嵗	-11.4094
富弼	-11.4095
延英	-11.4096
士之	-11.4096
哀侯	-11.4096
武安侯	-11.4096
雖然	-11.4097
天文志	-11.4099
部内	-11.41
古制	-11.4102
世襲	-11.4102
卽位	-11.4102
李守貞	-11.4104
圍城	-11.4104
守正	-11.4104
其北	-11.4105
三代之	-11.4105
元氏	-11.4105
久而	-11.4106
定差	-11.4107
三萬人	-11.4107
公等	-11.4108
秀之	-11.4108
損益率	-11.4109
貳師	-11.4111
錢物	-11.4112
襲之	-11.4113
進至	-11.4114
大都督府	-11.4114
戰敗之	-11.4115
遂得	-11.4118
官職	-11.412
旰	-11.412
上相	-11.412
且曰	-11.412
穆穆	-11.4121
剡	-11.4126
也帝	-11.4126
三朝	-11.4126
濟濟	-11.4129
並進	-11.4129
券	-11.413
徒以	-11.413
所服	-11.4132
乘馬	-11.4133
姒	-11.4133
圯	-11.4134
長流	-11.4136
唘	-11.4136
樽	-11.4136
摘	-11.4138
中書省臣言	-11.4138
權衡	-11.4138
啖	-11.4139
撲	-11.4139
桓子	-11.414
犯左執法	-11.4141
賈似道	-11.4142
至公	-11.4143
齊之	-11.4144
晨昏	-11.4144
貴臣	-11.4146
民無	-11.4146
眞宗	-11.4147
韓侂胄	-11.4148
前廢帝	-11.4148
也遂	-11.4149
不殺	-11.415
客省使	-11.415
擁衆	-11.4152
周昌	-11.4152
者一人	-11.4155
總帥	-11.4155
受冊	-11.4156
吾所	-11.4156
大衆	-11.4157
配饗	-11.4158
謁見	-11.4159
起自	-11.4159
也陛下	-11.4159
於河	-11.4161
丁已	-11.4164
長陵	-11.4164
武定中	-11.4166
四年詔	-11.4166
子嬰	-11.4168
繫獄	-11.4168
二千一百	-11.4168
鄭玄	-11.4173
而亡	-11.4173
四年春	-11.4175
七年正月	-11.4176
之異	-11.4178
為長	-11.4179
莱	-11.4179
郡開皇初郡廢	-11.4181
行義	-11.4181
甚得	-11.4182
無得	-11.4185
庖	-11.4186
鵝	-11.4187
工人	-11.4189
舋	-11.419
以勸	-11.4193
左司郎中	-11.4194
兗州刺史	-11.4195
舁	-11.4196
汝礪	-11.4196
統軍使	-11.4197
湧	-11.4197
將作監	-11.4197
閹	-11.4199
之會	-11.4199
經典	-11.4199
頁	-11.42
威王	-11.4201
杖之	-11.4201
天威	-11.4202
昔在	-11.4202
衆庶	-11.4203
法一卷	-11.4204
昌縣	-11.4205
今嵗	-11.4205
為右丞相	-11.4206
閭里	-11.4206
朐	-11.4207
西城	-11.4208
棣州	-11.4208
志第二十	-11.4208
彦博	-11.4209
助之	-11.4211
丁壯	-11.4213
十二律	-11.4216
卒年四十	-11.4217
字士	-11.4217
西蕃	-11.4218
三州諸軍事	-11.4219
李景	-11.4222
愚謂	-11.4225
檢校太尉	-11.4227
來賀	-11.4228
景初	-11.4229
以利	-11.4229
送京師	-11.4231
文士	-11.4231
説是也	-11.4232
川陜	-11.4234
備禮	-11.4234
有流星	-11.4234
小功	-11.4237
善為	-11.4238
少陽	-11.4238
進用	-11.4239
尺寸	-11.424
識之	-11.424
夫以	-11.424
已至	-11.4242
俘獲	-11.4242
里至東都	-11.4243
悔之	-11.4246
纁	-11.4246
減半	-11.4247
翹	-11.4247
帷幄	-11.4249
芾	-11.4251
不敢言	-11.4252
黠	-11.4252
當塗	-11.4253
羈縻	-11.4253
近習	-11.4254
譌	-11.4254
齊侯	-11.4256
捶	-11.4257
鋹	-11.4257
累轉	-11.4257
并力	-11.4259
庶㡬	-11.4259
天錫	-11.4261
節度判官	-11.4262
一州	-11.4262
未遑	-11.4264
二尺	-11.4265
二國	-11.4265
階下	-11.4265
通好	-11.4266
吕氏	-11.4266
劉向以為	-11.4267
懐逺	-11.4268
文彦博	-11.4269
太社	-11.4271
字君	-11.4271
癸已	-11.4273
韓王信	-11.4274
崇文	-11.4277
經朔	-11.4278
不妄	-11.4279
並無	-11.4279
臺省	-11.428
家口	-11.4281
北齊	-11.4281
載之	-11.4282
宫觀	-11.4282
實喇	-11.4282
統元	-11.4282
光弼	-11.4284
尚父	-11.4284
在職	-11.4284
乃更	-11.4289
八十里	-11.4289
虧初	-11.429
髙祖曰	-11.429
初名	-11.429
奉行	-11.429
廣平王	-11.4293
度量	-11.4294
親親	-11.4296
占曰有	-11.4297
大小餘	-11.4298
荆王	-11.4301
一代	-11.4302
紵	-11.4302
之誠	-11.4304
餐	-11.4304
百官表	-11.4306
璟	-11.4306
棠	-11.4306
於家	-11.4307
裙	-11.4308
呉興	-11.4308
虬	-11.4308
安化	-11.431
官有	-11.431
傷人	-11.431
先至	-11.4311
鬲	-11.4311
以孝聞	-11.4312
三家	-11.4312
濛	-11.4313
炅	-11.4313
中二千石	-11.4313
兢	-11.4314
鄖	-11.4314
呼曰	-11.4315
啇	-11.4315
召試	-11.4317
為災	-11.4318
驃騎将軍	-11.4318
何用	-11.4319
蜀王	-11.4319
遂成	-11.432
有星	-11.432
璽綬	-11.432
季布	-11.432
才學	-11.4321
祥符	-11.4322
因請	-11.4322
束帶	-11.4323
歴年	-11.4323
保州	-11.4325
上自	-11.4326
之辭也	-11.4327
皆自	-11.4327
盡誅	-11.4329
何承天	-11.4332
中州	-11.4333
上謂	-11.4336
禮經	-11.4339
音弋	-11.4339
素有	-11.4339
太子賓客	-11.434
河州	-11.4341
乆矣	-11.4346
長夀	-11.4346
餘慶	-11.4347
復拜	-11.4347
萬斤	-11.4349
却之	-11.4349
軍興	-11.4349
必敗	-11.435
為尚書左丞	-11.4351
州刺史李	-11.4352
王珪	-11.4354
為魏	-11.4356
從榮	-11.4359
崔光	-11.4361
臨潢	-11.4361
異端	-11.4361
九道	-11.4362
義倉	-11.4362
亦多	-11.4363
同謀	-11.4363
平合	-11.4365
當從	-11.4366
還之	-11.4366
光明	-11.4366
政績	-11.4366
順徳	-11.4367
甘心	-11.4368
辰刻	-11.4368
鉅萬	-11.4368
音力	-11.4369
而來	-11.437
酤	-11.4372
特們徳爾	-11.4372
琯	-11.4373
中牟	-11.4373
為博士	-11.4374
勇力	-11.4374
驁	-11.4374
之務	-11.4374
風化	-11.4374
尒朱兆	-11.4375
甲仗	-11.4376
礙	-11.4376
其禍	-11.4376
兀术	-11.4378
更定	-11.4378
也按	-11.4378
水勢	-11.4379
攝提	-11.4381
一云	-11.4383
▁三	-11.4385
降之	-11.4385
葬之	-11.4387
僧尼	-11.4389
樂浪	-11.439
四部	-11.439
國寳	-11.439
留心	-11.4391
寺觀	-11.4392
歩兵	-11.4393
馳入	-11.4395
太牢	-11.4395
四年六月	-11.4395
叔文	-11.4396
存孝	-11.4396
秦人	-11.4399
貞觀八年	-11.44
有聲如雷	-11.4404
始於	-11.4404
死事	-11.4405
蒼生	-11.4407
宗子	-11.4409
又自	-11.4415
從其	-11.4417
為盜	-11.4418
仍命	-11.4418
入相	-11.4419
大農	-11.4419
文穎曰	-11.4422
陬	-11.4422
太官令	-11.4422
猗	-11.4422
其變	-11.4423
斐	-11.4423
有舊	-11.4424
苑中	-11.4425
乃有	-11.4427
而行之	-11.4427
通鑑作	-11.4427
二年十一月	-11.4427
萬斛	-11.4427
稀	-11.4428
先遣	-11.4429
讀之	-11.4429
両	-11.4432
歿	-11.4432
文仲	-11.4432
日率	-11.4432
舩	-11.4432
御座	-11.4433
開皇初	-11.4433
鵬	-11.4433
雖在	-11.4433
鐃	-11.4435
州大都督府長史	-11.4435
攢	-11.4436
自出	-11.4436
舊五代史巻一百	-11.4436
㕘知政事	-11.4437
搢紳	-11.4437
典籖	-11.4437
芻粟	-11.4437
系家	-11.4437
甕	-11.4438
冤	-11.4438
少孤	-11.4438
朱泚	-11.4439
鞏昌	-11.444
太㣲	-11.444
喚	-11.4441
圎	-11.4441
乃下	-11.4442
耆老	-11.4442
入於	-11.4442
丈餘	-11.4443
禫	-11.4445
後宮	-11.4448
曹公	-11.4448
三千餘人	-11.4449
蔀	-11.4449
追復	-11.445
中軍將軍	-11.445
陜西行省	-11.4451
申公	-11.4451
者何	-11.4453
五聲	-11.4453
事畢	-11.4454
錄事參軍	-11.4454
與魏	-11.4457
薨諡曰	-11.4458
奉職	-11.4459
為法	-11.4459
劉裕	-11.4463
立定	-11.4464
太府	-11.4464
與共	-11.4467
合浦	-11.4467
景子	-11.4468
等率	-11.4468
為便	-11.4469
兵柄	-11.4469
族子	-11.447
攻其	-11.4471
稱帝	-11.4472
元始	-11.4472
客星	-11.4473
戰國策	-11.4473
等縣	-11.4474
諡曰忠	-11.4475
承平	-11.4476
於是乃	-11.4477
輟朝	-11.4479
竒兵	-11.4479
告者	-11.448
范蠡	-11.4481
積石	-11.4482
無足	-11.4482
數十年	-11.4483
潢	-11.4483
諸處	-11.4484
髠	-11.4485
其王	-11.4485
諸鎮	-11.4485
磧	-11.4485
二千二百	-11.4487
至誠	-11.4487
立為皇后	-11.4487
辱之	-11.4488
貰	-11.4489
司隸校尉	-11.4489
丞一人	-11.4489
囿	-11.449
趾	-11.449
無厭	-11.449
七嵗	-11.449
齧	-11.449
錢榖	-11.4491
富平	-11.4491
陳豨	-11.4492
瞽	-11.4492
遯	-11.4493
悞	-11.4494
踞	-11.4495
環州	-11.4495
誄	-11.4495
臭	-11.4496
王傅	-11.4496
未知孰是	-11.4497
郭子儀	-11.4497
隻	-11.4497
二漢屬	-11.4497
袤	-11.4498
月暈	-11.4498
城破	-11.4498
攬	-11.4499
縱兵	-11.4499
朝會	-11.4499
君子之	-11.4501
右補闕	-11.4503
襖	-11.4503
㑹赦	-11.4503
海外	-11.4504
佩刀	-11.4504
賈逵	-11.4505
大次	-11.4505
書吏	-11.4507
權貴	-11.4508
豈容	-11.4508
薦為	-11.4508
翕然	-11.4509
莫之	-11.4514
懼而	-11.4516
之曲	-11.4517
君也	-11.4519
每月	-11.452
八九	-11.452
𤣥謨	-11.4524
云何	-11.4524
通天	-11.4526
田常	-11.4529
氏女	-11.4531
天皇	-11.4533
者許	-11.4534
二十一日	-11.4534
更不	-11.4535
僭號	-11.4536
禮直官	-11.4536
韋氏	-11.4537
即遣	-11.4537
弔祭	-11.4538
龍興	-11.4539
閩越	-11.454
兵馬都監	-11.4541
而前	-11.4541
蹶	-11.4544
其姦	-11.4545
明年春	-11.4546
自安	-11.4552
陀	-11.4553
下流	-11.4554
處直	-11.4555
見知	-11.4555
冠服	-11.4557
踊	-11.4557
長寧	-11.4559
堙	-11.4559
髙車	-11.4559
囬	-11.456
清白	-11.4561
第二星	-11.4563
擢拜	-11.4564
訓練	-11.4564
悚	-11.4565
晏然	-11.4565
又何	-11.4565
享太廟	-11.4566
四巻	-11.4566
十斤	-11.4567
來附	-11.4567
常數	-11.4567
嶺表	-11.4568
流人	-11.457
梁孝王	-11.4571
明詔	-11.4571
南蠻	-11.4575
與趙	-11.4575
且欲	-11.4575
之興	-11.4577
無狀	-11.4577
羊馬	-11.4578
戰不利	-11.458
者無	-11.458
以疾卒	-11.458
竊見	-11.4581
都知	-11.4582
新厯	-11.4583
免役	-11.4585
終不能	-11.4585
靈運	-11.4586
王翦	-11.4586
復起	-11.4586
中書平章政事	-11.4587
尉氏	-11.4587
邵陵王	-11.4588
名號	-11.4589
之最	-11.459
遂止	-11.459
師旅	-11.4592
漢書作	-11.4592
縣丞	-11.4592
受封	-11.4598
潦	-11.4598
銜之	-11.46
次曰	-11.4603
還軍	-11.4603
句踐	-11.4604
門之外	-11.4604
汀	-11.4605
矯詔	-11.4607
上欲	-11.4609
羣生	-11.4609
矣而	-11.461
前漢書	-11.461
與張	-11.461
濟江	-11.4611
皇甫謐	-11.4611
倍之	-11.4611
驤	-11.4612
方物	-11.4614
文頴曰	-11.4615
龍且	-11.4615
之詩	-11.4616
鯀	-11.4617
有急	-11.4619
衎	-11.462
矧	-11.4621
非常之	-11.4621
舊例	-11.4621
章武	-11.4622
年十八	-11.4623
二千餘人	-11.4623
巴圖	-11.4623
以白	-11.4624
周師	-11.4624
州兵	-11.4624
元載	-11.4625
李璮	-11.4626
一匹	-11.4627
李元	-11.4628
太常禮院	-11.4628
附之	-11.4628
話	-11.4628
嗜酒	-11.4628
庚戍	-11.4628
保全	-11.4628
按察	-11.4629
甚矣	-11.463
拜監察御史	-11.4631
録事參軍	-11.4632
應侯	-11.4632
王良	-11.4633
内職	-11.4636
遇疾	-11.4637
阿爾	-11.4637
叛逆	-11.4639
舉兵反	-11.4639
南史作	-11.464
命婦	-11.464
丁父憂	-11.4641
晉武帝	-11.4646
河陽節度使	-11.4646
三辰	-11.4647
舊儀	-11.4648
為限	-11.4648
别立	-11.4648
今日之事	-11.4649
遣其將	-11.4649
律歴	-11.4651
仁孝	-11.4653
鄭𤣥	-11.4654
春三月	-11.4654
司馬遷	-11.4655
既行	-11.4656
盥	-11.4658
之化	-11.4658
樂舞	-11.4659
懐恩	-11.4659
發喪	-11.4659
老病	-11.4659
為諸侯	-11.466
異於	-11.4661
典章	-11.4662
讖	-11.4665
歌舞	-11.4667
王友	-11.4669
誅戮	-11.4669
其說	-11.4671
後將軍	-11.4673
犯氐	-11.4673
奉世	-11.4673
乃授	-11.4675
襄子	-11.4677
若無	-11.4678
悌	-11.4678
自固	-11.4679
蓬萊	-11.468
譎	-11.4681
至孝	-11.4681
等撰	-11.4681
秃	-11.4682
鬯	-11.4682
泓	-11.4682
一身	-11.4683
剥	-11.4684
鹽法	-11.4684
諍	-11.4685
忠言	-11.4685
車騎大將軍儀同三司	-11.4686
亦非	-11.4686
歸田里	-11.4686
制書	-11.4687
三獻	-11.4689
躋	-11.4691
力辭	-11.4691
者斬	-11.4692
音工	-11.4692
閤門使	-11.4693
僚佐	-11.4693
節鎮	-11.4693
官錢	-11.4694
犯天江	-11.4695
此又	-11.4699
哈雅	-11.4701
朝見	-11.4702
歸家	-11.4704
武官	-11.4705
之族	-11.4705
申嚴	-11.4706
衛軍	-11.4706
辛已	-11.4709
二漢	-11.4709
永興軍	-11.471
有疑	-11.471
號哭	-11.4711
為廷尉	-11.4711
濟寧	-11.4712
帝從之	-11.4712
其二	-11.4713
奏曰臣	-11.4714
救趙	-11.4714
六十人	-11.4714
唐鄧	-11.4715
諡忠	-11.4715
一里	-11.4716
興復	-11.472
太室	-11.4721
擾亂	-11.4722
門入	-11.4723
共立	-11.4725
齡	-11.4727
神龜	-11.4729
世宗即位	-11.4731
弦望	-11.4731
守備	-11.4731
黎庶	-11.4733
冬至日	-11.4733
原文	-11.4734
伋	-11.4734
擊大破之	-11.4734
朝歌	-11.4734
始立	-11.4734
已降	-11.4735
天時	-11.4736
腦	-11.4738
滁	-11.4739
予之	-11.4739
疵	-11.4739
見錢	-11.474
乾封	-11.4741
邠寧	-11.4742
中國之	-11.4742
近日	-11.4743
泚	-11.4744
簽書樞宻院事	-11.4744
東流	-11.4746
澶淵	-11.4746
之閒	-11.4747
將作大匠	-11.4747
鉗	-11.4748
仙芝	-11.4751
聚兵	-11.4752
鎮東	-11.4752
爵位	-11.4753
為小	-11.4754
大官	-11.4754
今從	-11.4755
渭北	-11.4755
安侯	-11.476
五行志	-11.4762
宣徽	-11.4762
没赤黄有尾跡	-11.4762
不均	-11.4762
曲江	-11.4763
帝嘗	-11.4764
州司户	-11.4764
下獄死	-11.4767
後周置	-11.477
舞陽	-11.477
集一卷	-11.4771
膠西	-11.4772
十七日	-11.4772
臨川王	-11.4772
進止	-11.4773
去極	-11.4773
充國	-11.4774
時務	-11.4775
也漢	-11.4775
若能	-11.4775
朝獻	-11.4777
責以	-11.4779
鹽官	-11.478
所舉	-11.4781
次于	-11.4781
其役	-11.4783
事上	-11.4786
御營	-11.4787
接戰	-11.4787
臨終	-11.4787
攻秦	-11.4787
過之	-11.479
從此	-11.4792
請行	-11.4795
為先	-11.4796
以義	-11.4796
奉上	-11.4797
當在	-11.4799
郿	-11.48
府中	-11.4801
水縣	-11.4801
文臣	-11.4801
仍兼	-11.4802
牝	-11.4803
死矣	-11.4807
監本誤	-11.4807
槖	-11.4808
所制	-11.4808
雷電	-11.4808
其情	-11.4809
笑之	-11.481
逓	-11.481
吐渾	-11.481
賂遺	-11.481
子夏	-11.4811
九十月	-11.4811
伏以	-11.4811
備禦	-11.4812
皇地祗	-11.4812
權勢	-11.4812
集三十卷	-11.4813
立成	-11.4814
諌議大夫	-11.4815
通於	-11.4815
中書左丞	-11.4816
令狐	-11.4817
朝覲	-11.4817
謹按	-11.4821
秦將	-11.4821
宫闈	-11.4822
條奏	-11.4823
能自	-11.4823
耕種	-11.4823
邵武	-11.4823
衆官	-11.4824
無極	-11.4824
州大水	-11.4824
白雀	-11.4825
安南將軍	-11.4825
李茂貞	-11.4829
條侯	-11.4831
死也	-11.4832
荆軻	-11.4833
分其	-11.4834
矣且	-11.4835
大角	-11.4836
威福	-11.4836
還除	-11.4836
七八	-11.4837
河外	-11.4839
市馬	-11.4839
衞士	-11.4843
元封	-11.4844
武備	-11.4845
繼元	-11.4846
李牧	-11.4846
呂氏	-11.4847
已成	-11.4848
之義也	-11.4849
㑹昌	-11.4849
以廣	-11.4849
上疏言	-11.4851
荆門	-11.4854
復來	-11.4854
翼日	-11.4859
神龍元年	-11.4859
奏差	-11.486
雖多	-11.4862
於庭	-11.4863
嗣立	-11.4865
瘡	-11.4865
降于	-11.4866
廟號	-11.4866
數以	-11.4866
與劉	-11.4866
五國	-11.4866
笄	-11.4867
分地	-11.4867
倭	-11.4868
為憂	-11.4869
誰能	-11.4871
沂州	-11.4872
雖未	-11.4872
斾	-11.4872
湛之	-11.4873
籙	-11.4875
榖梁	-11.4875
七巻	-11.4877
啼	-11.4878
涖	-11.4878
犯右執法	-11.4878
一夫	-11.4878
壬戍	-11.4878
十一卷	-11.4879
八品	-11.4881
度餘	-11.4882
英雄	-11.4882
新都	-11.4883
知貢舉	-11.4885
民兵	-11.4886
入殿	-11.4886
晏駕	-11.4887
定日	-11.4888
州鎮	-11.4889
求見	-11.4889
官皆	-11.4889
放還	-11.4889
天心	-11.4891
革命	-11.4891
公弼	-11.4891
弩手	-11.4892
多死	-11.4892
公家	-11.4893
百七十	-11.4895
寢疾	-11.4895
六星	-11.4898
十倍	-11.4899
擾民	-11.4899
將何	-11.49
齊楚	-11.49
降詔	-11.4904
歸葬	-11.4904
精鋭	-11.4904
不悟	-11.4906
反又音	-11.4907
司馬彪	-11.4907
恒山	-11.4908
屯于	-11.491
祈雨	-11.491
周文	-11.4911
使契丹	-11.4911
先農	-11.4913
貞祐	-11.4914
何憂	-11.4915
道隆	-11.4916
之運	-11.4917
貧賤	-11.4919
氏為皇后	-11.4919
諸蕃	-11.492
害民	-11.492
廷臣	-11.4921
而一所得	-11.4923
商州	-11.4925
拜珠	-11.4926
關内侯	-11.4926
及聞	-11.4927
二千里	-11.4928
朕躬	-11.493
玉輅	-11.4931
季父	-11.4932
已得	-11.4932
百三十	-11.4933
白虹貫日	-11.4934
駑	-11.4935
不早	-11.4935
之後也	-11.4936
縠	-11.4936
諸葛亮	-11.4937
立碑	-11.4937
臨賀	-11.4937
追奔	-11.4939
季興	-11.494
三年十一月	-11.4941
鄂爾多	-11.4942
數也	-11.4942
達蘭	-11.4943
賊臣	-11.4948
屈原	-11.4948
郡開國公	-11.4948
位次	-11.4948
隂山	-11.495
復業	-11.495
項伯	-11.4951
為太師	-11.4954
起知	-11.4956
乃去	-11.4958
文史	-11.4958
桓温	-11.4959
罕之	-11.4959
升平	-11.4959
者哉	-11.496
冬夏	-11.4963
劉攽曰注	-11.4963
屬籍	-11.4966
右拾遺	-11.4967
國忠	-11.4967
羽林監	-11.4968
邀擊	-11.4968
四路	-11.4969
禮遇	-11.497
相遇	-11.4971
宋齊	-11.4973
輕車	-11.4973
初限	-11.4975
俱死	-11.4979
在斗	-11.4982
擇其	-11.4985
無患	-11.4987
有何	-11.4987
十一人	-11.4987
軍法	-11.4988
明安穆昆	-11.4988
而易	-11.4989
天眷	-11.4989
崔杼	-11.4991
不先	-11.4991
煇	-11.4991
崔氏	-11.4991
宗之	-11.4993
中流	-11.4995
宋祁曰注文	-11.4995
麓	-11.4995
徳音	-11.4997
史記作	-11.4997
朝日	-11.4998
也是以	-11.5
愛其	-11.5
身自	-11.5001
應有	-11.5001
張湯	-11.5001
寰	-11.5002
老疾	-11.5002
碣石	-11.5002
感動	-11.5002
病甚	-11.5003
擠	-11.5004
禮成	-11.5004
醮	-11.5004
等五	-11.5005
四十萬	-11.5005
千三百	-11.5006
每年	-11.5006
即時	-11.5006
楊素	-11.5007
八巻	-11.5008
沙陀	-11.5008
左手	-11.5008
便是	-11.501
甚見	-11.5011
撫慰	-11.5011
縱火	-11.5011
於鄴	-11.5012
有國	-11.5012
徳光	-11.5013
之備	-11.5014
兼散騎常侍	-11.5014
武康	-11.5014
南院	-11.5015
中間	-11.5019
晉絳	-11.5019
諡曰貞	-11.5019
二舞	-11.502
補官	-11.502
將李	-11.5021
劉鄩	-11.5022
賜宴	-11.5022
尺三寸	-11.5028
不繼	-11.5028
於北	-11.5028
副留守	-11.5031
年三十	-11.5032
前漢屬	-11.5032
當官	-11.5032
寧之曲	-11.5033
雲夢	-11.5034
昧死	-11.5036
曰某	-11.5037
日入	-11.5038
主父	-11.504
御製	-11.5042
漢髙祖	-11.5044
便可	-11.5045
永眀	-11.5045
正平	-11.5047
中置	-11.5048
漣水	-11.5048
二里	-11.5048
所治	-11.5049
班首	-11.505
政教	-11.5051
宜州	-11.5051
者如	-11.5051
遇赦	-11.5052
二漢晉屬	-11.5052
詔獄	-11.5056
中氣	-11.5056
丁謂	-11.5056
誤國	-11.5057
多以	-11.5057
菑	-11.5058
聲言	-11.5059
其色	-11.506
崇寧戸	-11.506
衛王	-11.5062
德光	-11.5063
以徳	-11.5063
本道	-11.5063
一丈二尺	-11.5064
暄	-11.5065
航	-11.5066
竊發	-11.5067
邊民	-11.5067
褘	-11.5067
入境	-11.5068
東垣	-11.5069
宕昌	-11.5069
踐祚	-11.5069
江浙行省	-11.5071
二百九十	-11.5071
直龍圖閣	-11.5071
天寳元年	-11.5072
秋冬	-11.5075
前有	-11.5076
第二十	-11.5078
莫大於	-11.5078
避地	-11.5081
昌平	-11.5081
興化	-11.5083
俊臣	-11.5084
持重	-11.5084
龍虎	-11.5085
以養	-11.5085
上下相	-11.5085
甲辰以	-11.5085
戮之	-11.5085
漢制	-11.5086
方正	-11.5088
穆公	-11.509
友善	-11.5092
艘	-11.5092
經制	-11.5092
監丞	-11.5092
臨陣	-11.5093
法律	-11.5093
後魏置	-11.5094
必無	-11.5094
潞王	-11.5096
忠節	-11.5098
大略	-11.5099
後漢書	-11.5099
光祿	-11.51
依例	-11.5105
元祐初	-11.5107
翕	-11.5109
軍食	-11.5109
誅滅	-11.511
内外官	-11.511
令長	-11.511
康叔	-11.5111
王旦	-11.5114
七尺	-11.5114
尋又	-11.5116
鴟	-11.5118
遜位	-11.5118
郡丞	-11.512
者死	-11.5121
惶	-11.5122
隂氣	-11.5122
限數	-11.5123
勺	-11.5124
王都	-11.5124
瞿	-11.5124
亡走	-11.5125
謙之	-11.5126
厮	-11.5126
永言	-11.5126
未備	-11.5127
豁	-11.5127
事聞	-11.5127
譛	-11.5128
一級	-11.5129
翅	-11.513
事已	-11.513
五方	-11.513
大掠	-11.5131
師古曰此	-11.5131
因是	-11.5132
元振	-11.5132
瑄	-11.5132
居家	-11.5133
定積	-11.5134
赤黄	-11.5135
累日	-11.5136
之祀	-11.5137
琇	-11.5138
調發	-11.5138
奉命	-11.5138
恵王	-11.514
五年二月	-11.514
仁傑按	-11.514
東壁	-11.5143
魏之	-11.5144
統天	-11.5145
原文作	-11.5145
遺之	-11.5146
都校	-11.5146
為帥	-11.5147
上尊	-11.5147
營繕	-11.5147
四年十月	-11.5148
音居	-11.5152
千騎	-11.5152
矣若	-11.5154
獨與	-11.5154
上古	-11.5154
親近	-11.5155
汝陽	-11.5156
兵少	-11.5157
在任	-11.5157
紫微	-11.5157
所據	-11.5157
意在	-11.5158
慮囚	-11.5158
據城	-11.5158
預焉	-11.5158
及分	-11.5159
仲禮	-11.5159
辭也	-11.5163
雄武	-11.5163
乃作	-11.5164
萬邦	-11.5165
聲色	-11.5166
哀宗	-11.5167
白石	-11.5167
一百卷	-11.5168
施用	-11.5169
明於	-11.517
監本作	-11.5171
毁之	-11.5172
盧循	-11.5172
成之曲	-11.5175
重於	-11.5176
方畧	-11.5176
五日一	-11.5179
東階	-11.5179
省部	-11.518
徳州	-11.518
馬牛	-11.518
作相	-11.5181
大疫	-11.5182
有大功	-11.5182
又遷	-11.5182
大厯	-11.5182
遣其子	-11.5182
各路	-11.5184
宥之	-11.5184
間有	-11.5185
伍子胥	-11.5185
十二大餘	-11.5185
固當	-11.5186
爕	-11.5186
無聞	-11.5187
九成	-11.5189
兕	-11.5191
楚兵	-11.5191
矣故	-11.5192
射殺	-11.5192
中兵	-11.5192
讙	-11.5193
刪定	-11.5193
緱氏	-11.5194
朔弦望	-11.5194
后父	-11.5195
醖	-11.5195
成紀	-11.5196
諸侯皆	-11.5196
之兆	-11.5197
釐公	-11.5198
洧	-11.5198
竣	-11.5199
日月星辰	-11.52
以制	-11.52
大象	-11.52
爪	-11.52
浴	-11.52
盥洗	-11.52
鏃	-11.5201
宣徽南院使	-11.5202
紀云	-11.5202
晙	-11.5202
送至	-11.5203
趙盾	-11.5204
鄯善	-11.5204
出使	-11.5204
車駕還宫	-11.5205
不能對	-11.5206
喜怒	-11.5208
衡山王	-11.5208
王延	-11.5209
逃歸	-11.521
匹綿	-11.5212
不喜	-11.5213
祝史	-11.5216
三品以上	-11.5217
終獻	-11.5217
明王	-11.522
總兵	-11.5221
以重	-11.5221
尚可	-11.5222
以此為	-11.5226
巴郡	-11.5226
子雲	-11.5227
開泰	-11.5228
三字	-11.5228
十有二月	-11.523
者不得	-11.523
北歸	-11.523
響應	-11.5231
表在	-11.5231
為左丞相	-11.5233
拒命	-11.5233
獻官	-11.5234
散走	-11.5235
於衆	-11.5235
顯慶	-11.5235
忠烈	-11.5236
友珪	-11.5236
等十	-11.5236
趙郡	-11.5238
屯戍	-11.5238
是夕	-11.5239
次於	-11.524
今日之	-11.524
為賊	-11.5241
六年春正月	-11.5244
遣将	-11.5245
所與	-11.5245
力士	-11.5246
國子學	-11.5246
所統	-11.5246
州縣官	-11.5246
擁兵	-11.5247
差官	-11.5247
自負	-11.5248
昊天上帝	-11.5248
典事	-11.5249
蒯	-11.5249
萬姓	-11.525
分野	-11.5251
實有	-11.5251
帝意	-11.5252
以治	-11.5254
定其	-11.5256
又别	-11.5256
行星	-11.5259
不能禁	-11.5259
樂成	-11.526
部分	-11.526
慚	-11.5261
論一卷	-11.5261
我軍	-11.5261
平盧	-11.5261
五十萬	-11.5262
壑	-11.5262
筦	-11.5262
正徳	-11.5263
不誅	-11.5264
方進	-11.5264
有司言	-11.5265
後除	-11.5266
蔓	-11.5266
大理寺丞	-11.5267
大丞相	-11.5268
繼嗣	-11.5268
自剄	-11.5269
異議	-11.527
周氏	-11.527
等奏	-11.5273
浮橋	-11.5273
自取	-11.5274
五品已上	-11.5274
新唐書	-11.5274
而更	-11.5274
建威將軍	-11.5279
饒陽	-11.5281
元年十月	-11.5282
五穀	-11.5282
章帝	-11.5282
老幼	-11.5282
契丹國志曰	-11.5282
永初郡國	-11.5283
去之餘	-11.5283
與契丹	-11.5284
若今	-11.5285
宋門下侍郎	-11.5287
侍者	-11.5287
無二	-11.5287
所定	-11.5287
兵書	-11.529
来貢	-11.529
旌節	-11.529
其秋	-11.5292
百神	-11.5292
曰不然	-11.5292
明旦	-11.5293
子羽	-11.5293
九章	-11.5294
禮制	-11.5294
付之	-11.5294
州刺史充	-11.5296
議定	-11.5297
滋甚	-11.5298
孝寛	-11.5299
梁地	-11.53
州治	-11.5302
積分	-11.5304
龍山	-11.5304
乃奏	-11.5304
以清	-11.5306
與韓	-11.5307
六寸	-11.5307
豪右	-11.5311
淮陽王	-11.5314
減死	-11.5314
㕘	-11.5314
夘	-11.5315
外黄	-11.5315
林鐘	-11.5316
其術	-11.5316
麋	-11.5317
萬乗	-11.5317
府君	-11.5317
慨	-11.5319
○/	-11.532
然自	-11.532
烏爾古	-11.5321
奏可	-11.5324
坡	-11.5324
天官	-11.5324
僞	-11.5324
相結	-11.5326
尚在	-11.5328
繼岌	-11.5328
廣陽	-11.5328
漿	-11.5329
自稱留後	-11.5329
羃	-11.5329
冠帶	-11.533
隂謀	-11.5331
翫	-11.5331
鷹揚	-11.5332
制作	-11.5333
烏丸	-11.5333
十有八	-11.5334
五十卷	-11.5334
諸臣	-11.5335
犯罪	-11.5338
冠軍将軍	-11.5338
出居	-11.5339
郭崇韜	-11.5341
天雄軍	-11.5343
神祗	-11.5343
葬於	-11.5345
毎日	-11.5345
母后	-11.5346
為京兆尹	-11.5351
江夏王	-11.5351
互異	-11.5351
四考證	-11.5352
經費	-11.5353
臣愚以為	-11.5353
加都督	-11.5353
提控案牘	-11.5354
入轉	-11.5356
所陳	-11.5356
請為	-11.5356
末為	-11.5356
曰可	-11.5358
允文	-11.5359
暴風	-11.536
全活	-11.536
夷則	-11.5361
寺監	-11.5361
召問	-11.5362
有能名	-11.5362
永年	-11.5363
縣來屬	-11.5364
庶政	-11.5364
禮部郎中	-11.5365
束帛	-11.5365
書史	-11.5365
朔日食	-11.5366
四瀆	-11.5366
元祐元年	-11.5366
愛人	-11.5366
夕見	-11.5368
大饗	-11.5368
于家	-11.5368
數歲	-11.5369
其令	-11.5369
二年詔	-11.537
副大使	-11.5371
變色	-11.5372
别為	-11.5373
盡禮	-11.5375
等第	-11.5376
日本	-11.5378
之教	-11.5379
自代	-11.538
弓弩	-11.5381
元起	-11.5384
鄗	-11.5384
為司	-11.5386
太祖遣	-11.5386
門户	-11.5387
清道	-11.5387
人衆	-11.5388
左右廂	-11.5388
詮	-11.5388
庶事	-11.5389
家事	-11.539
又復	-11.539
賢之	-11.5392
外有	-11.5392
颺	-11.5392
幟	-11.5392
敬瑭	-11.5393
傳首	-11.5394
所管	-11.5395
犯壁壘陣	-11.5395
仰視	-11.5396
絞	-11.5396
竟無	-11.5397
螟	-11.5398
皆由	-11.5398
詈	-11.54
去職	-11.5401
有成	-11.5401
無能	-11.5404
禹錫	-11.5404
泰一	-11.5406
沛國	-11.5406
恭王	-11.5407
善者	-11.541
黄白	-11.5411
建武中	-11.5411
劉崇	-11.5411
大駭	-11.5412
傳位	-11.5412
四年八月	-11.5412
於宋	-11.5413
大恐	-11.5415
工部郎中	-11.5416
與天	-11.5417
珍寳	-11.5418
臣某	-11.5418
舂	-11.5419
不畏	-11.542
侯安都	-11.542
棄疾	-11.5422
頤浩	-11.5423
月離	-11.5424
天生	-11.5425
職田	-11.5425
否則	-11.5425
岳州	-11.5425
南陽郡	-11.5427
諸吕	-11.5427
王鎔	-11.5428
兵三萬	-11.5428
不設	-11.5429
去矣	-11.5431
景和	-11.5431
有志	-11.5431
威震	-11.5431
老母	-11.5432
今復	-11.5433
服䖍	-11.5435
自保	-11.5435
應接	-11.5435
不煩	-11.5435
九鼎	-11.5437
兵出	-11.5437
使來	-11.5437
思逺	-11.5438
形如	-11.544
沅	-11.5442
遂行	-11.5442
贛	-11.5443
駰	-11.5443
南陽太守	-11.5444
北庭	-11.5445
之耳	-11.5445
彦澤	-11.5446
光祖	-11.5446
更有	-11.5446
張永	-11.5447
宋史卷四百	-11.545
将帥	-11.5451
臣雖	-11.5451
欲為	-11.5453
吾欲	-11.5453
禺	-11.5455
移文	-11.5455
淇	-11.5455
誹謗	-11.5455
天人	-11.5456
沙州	-11.5457
見在	-11.5457
開元初	-11.5458
絰	-11.5459
天授	-11.546
態	-11.5461
誇	-11.5461
鈕	-11.5461
兀	-11.5463
殱	-11.5464
皇祖	-11.5465
鈐	-11.5466
器用	-11.5467
㓕	-11.5467
州團練副使	-11.547
後遂	-11.5471
旗鼓	-11.5471
失所	-11.5471
晉灼	-11.5473
賊黨	-11.5474
智伯	-11.5476
禮云	-11.5478
三年九月	-11.5478
復言	-11.5478
以為非	-11.548
三十餘年	-11.5481
營造	-11.5481
首惡	-11.5482
封泰山	-11.5482
衢州	-11.5482
動揺	-11.5485
風雲	-11.5487
賞賚	-11.5487
乞致仕	-11.5489
星占曰	-11.5489
太后崩	-11.549
晉祖	-11.5491
尋卒	-11.5491
理宗	-11.5492
文季	-11.5493
為趙王	-11.5495
難於	-11.5496
西階	-11.5498
一考	-11.5498
入閤	-11.5499
三思	-11.5499
長廣	-11.55
張衡	-11.55
東行	-11.5501
淄青	-11.5502
是秋	-11.5502
西羌	-11.5503
必大	-11.5503
也吾	-11.5504
不即	-11.5505
為長史	-11.5505
藏於	-11.5506
可知矣	-11.5506
所忌	-11.5507
物議	-11.5507
庶長	-11.551
乾安	-11.5513
者宜	-11.5513
建義	-11.5513
之端	-11.5515
既出	-11.5515
曰聞	-11.5517
衞将軍	-11.5518
精神	-11.5519
安息	-11.5519
蹄	-11.552
三載	-11.5521
東伐	-11.5522
訐	-11.5525
曰古者	-11.5525
馨	-11.5525
厝	-11.5526
不離	-11.5527
盡得	-11.5527
羣書	-11.5527
亡入	-11.5528
鎮之	-11.5528
漢志	-11.5528
汲黯	-11.5528
摰	-11.5531
六宫	-11.5532
淨	-11.5532
咽	-11.5532
默	-11.5532
峙	-11.5532
國珍	-11.5532
䋲	-11.5533
音丁	-11.5534
所記	-11.5534
贈太傅	-11.5534
崑崙	-11.5535
鼔吹	-11.5536
孝悌	-11.5537
夜出	-11.5538
入援	-11.554
秣陵	-11.554
東西路	-11.554
王肅曰	-11.5541
赫赫	-11.5541
勝兵	-11.5542
宋王	-11.5544
呉楚	-11.5546
亷訪司	-11.5547
沙苑	-11.5547
太守劉	-11.5548
大雨雹	-11.5549
糧食	-11.5549
殺我	-11.555
畱後	-11.5551
衛尉卿	-11.5551
縣主簿	-11.5553
宜依	-11.5553
類也	-11.5561
上幸	-11.5562
師次	-11.5563
魯王	-11.5568
斷絶	-11.557
西北路	-11.5571
木連理	-11.5572
亦足	-11.5574
初定	-11.5575
太祖太祖	-11.5575
軍官	-11.5577
九族	-11.5578
既死	-11.5579
避難	-11.5579
大中大夫	-11.558
大節	-11.558
青冀	-11.5581
復取	-11.5584
疽	-11.5585
就加	-11.5585
州都督府	-11.5587
璆	-11.5587
諸夏	-11.5587
蠲其	-11.5589
漢世	-11.5592
葆	-11.5593
坦之	-11.5593
應詔	-11.5593
我師	-11.5594
侯伯	-11.5594
就第	-11.5594
元年十一月	-11.5595
無何	-11.5596
皆云	-11.5597
馳騁	-11.5597
呉越	-11.5597
來年	-11.5598
遠近	-11.5598
鞬	-11.5598
懿宗	-11.5598
午中	-11.5599
明白	-11.5599
於陳	-11.5599
右散騎常侍	-11.56
上書曰	-11.56
黎州	-11.56
菲	-11.5601
左藏庫	-11.5602
舟楫	-11.5603
令曰	-11.5603
謀反伏誅	-11.5603
敬之	-11.5604
所論	-11.5604
病免	-11.5604
所上	-11.5605
衘	-11.5606
平東將軍	-11.5606
閼氏	-11.5607
蜀漢	-11.5607
鎮南將軍	-11.5608
逕	-11.5608
所轄	-11.5608
著為令	-11.561
鎮北	-11.5613
十貫	-11.5614
隋縣	-11.5614
安東將軍	-11.5615
族人	-11.5616
為陛下	-11.5617
復請	-11.5617
思恭	-11.5619
者勿	-11.562
羡之	-11.562
從父	-11.562
仰天	-11.5621
各依	-11.5623
大政	-11.5624
為人臣	-11.5625
多為	-11.5626
燕山	-11.5626
並行	-11.5628
其失	-11.5629
以旱	-11.5629
中積	-11.5629
太后臨朝	-11.563
祭器	-11.5632
使得	-11.5633
上蔡	-11.5634
不省	-11.5635
器甲	-11.5636
少者	-11.5637
錫里	-11.5637
而遣之	-11.5639
庚午以	-11.564
仲淹	-11.5641
如其言	-11.5642
方欲	-11.5647
奏上	-11.5647
為太保	-11.5651
延廣	-11.5651
土功	-11.5652
千斤	-11.5652
忠厚	-11.5654
脩之	-11.5655
子長	-11.5656
諸門	-11.5656
市舶	-11.5657
陳倉	-11.5658
有警	-11.5658
帝與	-11.5658
之圍	-11.5659
弧	-11.566
保義	-11.5661
敎授	-11.5662
澈	-11.5663
北史卷	-11.5665
日暮	-11.5666
相謂曰	-11.5667
韈	-11.5667
托卜嘉	-11.5668
槊	-11.567
元鼎	-11.5671
蒋	-11.5672
曲阜	-11.5672
扣	-11.5673
倜儻	-11.5673
征西大將軍	-11.5673
纛	-11.5673
征東將軍	-11.5673
繼至	-11.5674
箠	-11.5674
馳至	-11.5676
偓	-11.5679
慕容垂	-11.5679
多闕	-11.5681
一道	-11.5681
合戰	-11.5683
召募	-11.5684
解去	-11.5686
復封	-11.5686
遑	-11.5688
巴勒	-11.5688
来朝	-11.569
軍都指揮使	-11.5691
數十騎	-11.5696
交㑹	-11.5697
使天下	-11.5698
翼翼	-11.5699
者輒	-11.57
世俗	-11.5702
易簡	-11.5702
使我	-11.5702
賢妃	-11.5703
歸鄉里	-11.5703
初拜	-11.5704
考試	-11.5705
焉耆	-11.5706
以代	-11.5709
八年正月	-11.5709
景崇	-11.5713
斷獄	-11.5715
此為	-11.5715
䏻	-11.5715
平帝	-11.5715
諡法	-11.5716
北行	-11.5718
五十兩	-11.5718
和好	-11.572
三十二年	-11.572
撰梁有	-11.572
軍承宣使	-11.5721
皆當	-11.5721
五刑	-11.5722
為額	-11.5723
而見	-11.5723
允恭	-11.5724
方城	-11.5725
歸心	-11.5725
匝	-11.5725
經天	-11.5728
常在	-11.5729
璣	-11.573
而自立	-11.5731
之音	-11.5731
李全	-11.5731
曹氏	-11.5733
二十四人	-11.5733
弇	-11.5734
竇氏	-11.5735
趙髙	-11.5737
鄴城	-11.5739
燉煌	-11.5739
訂	-11.5739
天下事	-11.5739
觀文殿學士	-11.574
匄	-11.5741
兵擊	-11.5741
二人掌	-11.5741
都邑	-11.5742
砲	-11.5743
義理	-11.5743
之言也	-11.5743
之年	-11.5745
朝散大夫	-11.5745
倉廩	-11.5746
祖庚	-11.5747
溺死者	-11.5748
此是	-11.5749
北道	-11.5749
法當	-11.575
狀如	-11.5751
從臣	-11.5751
城池	-11.5756
北河	-11.5758
乞罷	-11.5758
閏餘	-11.576
遥領	-11.5761
始至	-11.5761
領縣二	-11.5761
妻妾	-11.5762
不得進	-11.5762
繼忠	-11.5763
廣德	-11.5765
粟帛	-11.5765
十八日	-11.5765
遷徙	-11.5765
胥吏	-11.5767
條例	-11.5769
而輕	-11.5772
察罕	-11.5773
比者	-11.5773
善屬文	-11.5779
異日	-11.5779
小民	-11.5782
徙為	-11.5783
宋本	-11.5785
西都	-11.5789
母妻	-11.5791
不知何	-11.5796
尋而	-11.5796
御府	-11.5796
招討司	-11.5796
為中書侍郎	-11.5797
信也	-11.5797
問罪	-11.5798
受朝	-11.5798
也祖	-11.5799
以下至	-11.5801
學士院	-11.5803
以太牢	-11.5803
入河	-11.5805
居守	-11.5806
積粟	-11.5806
離散	-11.5807
懸瓠	-11.5807
頠	-11.5809
厚恩	-11.581
宇宙	-11.5811
鎖	-11.5811
先天	-11.5811
豐州	-11.5812
降漢	-11.5812
封建	-11.5812
合謀	-11.5813
匃奴	-11.5813
諤勒哲	-11.5813
上御	-11.5813
出門	-11.5814
上生	-11.5817
張蒼	-11.5817
入冦	-11.582
農夫	-11.582
三百九十	-11.5821
棄城走	-11.5821
假借	-11.5821
旗二	-11.5822
則民	-11.5824
闗西	-11.5825
北京留守	-11.5828
遂圍	-11.5829
三里	-11.583
姑息	-11.5832
七州	-11.5832
器也	-11.5832
弋陽	-11.5833
者惟	-11.5834
笑而	-11.5836
升祔	-11.5836
丁夫	-11.5837
擊楚	-11.5837
周徳威	-11.5838
尚書省奏	-11.5839
渉獵	-11.5839
流俗	-11.5841
左司	-11.5842
妻之	-11.5842
漢氏	-11.5842
十有四	-11.5842
小學	-11.5844
辰州	-11.5845
字林	-11.5846
聲也	-11.5846
太祖太宗	-11.5846
鹽課	-11.5849
塞外	-11.5851
應鐘	-11.5852
淮南節度使	-11.5854
家室	-11.5855
漳水	-11.5856
年十四	-11.5856
擊秦	-11.5857
兵力	-11.5857
文德	-11.5858
五子	-11.5859
上曰朕	-11.5859
材官	-11.5862
統軍司	-11.5862
之差	-11.5862
學問	-11.5862
而求	-11.5865
時嘗	-11.5866
詔㫖	-11.5866
太始	-11.5867
羯	-11.5867
繼母	-11.5867
鈔法	-11.5868
湼	-11.5869
為相國	-11.587
民以	-11.5871
有膽	-11.5871
加同平章事	-11.5871
歌辭	-11.5873
函谷	-11.5875
天子以	-11.5875
勇敢	-11.5876
睹	-11.5876
曹掾	-11.5877
臯陶	-11.5878
飜	-11.5878
嶺外	-11.5878
縻	-11.5878
可行	-11.5878
撞	-11.5879
更以	-11.588
中䕶軍	-11.588
蔭	-11.588
闚	-11.588
件	-11.588
佇	-11.5881
進爵為公	-11.5881
麟徳	-11.5882
膏腴	-11.5882
還鄉里	-11.5882
多爾濟	-11.5882
甲乙	-11.5882
豊	-11.5883
五采	-11.5883
鴆	-11.5884
酷吏	-11.5884
華林園	-11.5884
以母老	-11.5885
廣濟	-11.5885
史館修撰	-11.5886
安城	-11.5886
虚實	-11.5887
干寳	-11.5887
靴	-11.5888
内府	-11.5888
開寶	-11.5889
武定末	-11.589
不務	-11.589
樊城	-11.5891
傳一卷	-11.5892
用度	-11.5892
元皇帝	-11.5892
常與	-11.5893
役者	-11.5894
一星在	-11.5897
置吏	-11.5897
能否	-11.5897
爰及	-11.5898
御馬	-11.5898
者先	-11.5899
四百九十	-11.5899
来降	-11.5899
所受	-11.59
楚軍	-11.59
襴	-11.59
一舉	-11.59
郭氏	-11.59
勞問	-11.5901
必為	-11.5902
御史中尉	-11.5902
事實	-11.5902
不得行	-11.5903
大淵	-11.5904
不厭	-11.5904
因令	-11.5905
兩朝	-11.5906
欲用	-11.5906
補外	-11.5907
上公	-11.5908
親故	-11.5908
宗親	-11.5908
籍其家	-11.5908
芻糧	-11.591
神䇿	-11.5911
二千三百	-11.5912
不遣	-11.5912
宋武帝	-11.5913
晏球	-11.5914
戎馬	-11.5915
嘆曰	-11.5916
臣僚言	-11.5916
陳涉	-11.5917
魏書曰	-11.5917
乃定	-11.5919
典刑	-11.5919
日至	-11.5921
前朝	-11.5922
郡軍事	-11.5923
四十年	-11.5924
沒入	-11.5926
二年復	-11.5926
勞之	-11.5928
尚書曰	-11.5929
者唯	-11.593
論列	-11.5933
日差	-11.5933
於南	-11.5934
後徙	-11.5936
建興	-11.5936
河中節度使	-11.5937
事勢	-11.5937
肄	-11.5938
長久	-11.5938
武徳三年	-11.5938
以所部	-11.5939
敗我	-11.5939
修之	-11.594
謾	-11.5941
承宗	-11.5941
皇家	-11.5941
趙高	-11.5941
今此	-11.5941
簡易	-11.5942
竊以	-11.5942
龍朔	-11.5943
其前	-11.5943
踏	-11.5947
易以	-11.5947
奉車都尉	-11.5947
艮	-11.5947
益甚	-11.5948
安禮	-11.5948
食貨	-11.5948
垢	-11.5949
除其	-11.595
▁十	-11.595
於君	-11.595
鬰	-11.595
眞定	-11.5951
冷	-11.5951
増邑	-11.5952
兌	-11.5952
三丈	-11.5952
歔欷	-11.5952
蒲坂	-11.5954
吠	-11.5954
亦不能	-11.5954
事下	-11.5955
第進士	-11.5956
則必	-11.5956
禮物	-11.5956
宣政	-11.5957
元日	-11.5957
帝亦	-11.5957
朝儀	-11.5959
彦卿	-11.5959
上邽	-11.596
學術	-11.5961
謀曰	-11.5963
忠貞	-11.5965
於諸侯	-11.5965
百工	-11.5967
攻取	-11.5969
五百八十	-11.597
琴瑟	-11.5971
長安中	-11.5971
專權	-11.5971
伊實	-11.5972
父祖	-11.5972
為散騎常侍	-11.5974
捕虜	-11.5974
兵三千	-11.5974
簿尉	-11.5975
謀議	-11.5975
法得一	-11.5975
薦舉	-11.5976
二十餘人	-11.5976
卒於官	-11.5977
於古	-11.5978
上謂宰臣曰	-11.5978
重華	-11.598
徽號	-11.5981
百疋	-11.5982
鄭注	-11.5983
非獨	-11.5985
自漢	-11.5986
百四十	-11.5987
旬月	-11.5988
及此	-11.599
河源	-11.5993
後嗣	-11.5994
土山	-11.5994
晉寧	-11.5994
怒而	-11.5994
復得	-11.5995
為務	-11.5996
詔復	-11.5996
猶以	-11.5998
儒生	-11.5999
可任	-11.6001
此意	-11.6001
差遣	-11.6004
皇朝	-11.6006
紹興元年	-11.6006
第十二	-11.6006
落職	-11.6006
薊州	-11.6007
第十一	-11.6008
象先	-11.6008
不臣	-11.6009
遣軍	-11.601
以補	-11.6011
可令	-11.6012
星辰	-11.6014
州蠻	-11.6015
衿	-11.6016
天澤	-11.6017
東越	-11.6017
煮	-11.6017
和琳	-11.6017
巡狩	-11.6018
鯁	-11.6018
郇	-11.6019
谷口	-11.6019
埸	-11.602
掎角	-11.6021
噉	-11.6021
齊桓	-11.6021
語及	-11.6021
仲文	-11.6022
肱	-11.6023
義疏	-11.6023
有終	-11.6024
疏奏	-11.6025
景平	-11.6026
配位	-11.6026
孝明	-11.6028
胸	-11.6028
拆	-11.6028
其他	-11.603
汜水	-11.603
潛邸	-11.603
罷為	-11.603
年十二	-11.6032
貴嬪	-11.6033
十丈	-11.6034
戊戍	-11.6035
短兵	-11.6035
敬兒	-11.6037
小雅	-11.6038
宜有	-11.6039
無害	-11.604
隋開皇	-11.6041
以父任	-11.6041
與諸將	-11.6042
呉郡	-11.6044
囚之	-11.6045
恩寵	-11.6045
小事	-11.6045
部衆	-11.6046
治國	-11.6046
之限	-11.6048
容止	-11.6048
兵曹	-11.6048
三光	-11.6049
霸州	-11.605
蘄州	-11.6051
皇城	-11.6053
武俊	-11.6056
攻趙	-11.6057
三族	-11.6057
穆皇后	-11.6058
為善	-11.6058
安人	-11.6062
嘗從	-11.6062
馬融曰	-11.6062
舊恩	-11.6063
南侵	-11.6065
嵐	-11.6065
也又曰	-11.6067
貧乏	-11.6068
有功者	-11.607
給其	-11.6072
又立	-11.6073
上洛	-11.6074
州地震	-11.6074
之羙	-11.6074
皆非	-11.6074
徐氏	-11.6076
條上	-11.6076
時帝	-11.6076
遂降	-11.6077
書院	-11.6077
二考證	-11.6078
明徹	-11.6079
掌固	-11.6081
河南王	-11.6082
武士	-11.6084
擊殺	-11.6084
大半	-11.6085
議和	-11.6087
官一員	-11.6087
月給	-11.6089
郊迎	-11.6089
毬	-11.6089
金遣	-11.6089
任事	-11.609
如常儀	-11.6091
殉	-11.6093
額森特穆爾	-11.6093
觀察處置等使	-11.6094
鴨	-11.6095
今宜	-11.6095
舅姑	-11.6096
選用	-11.6097
金人犯	-11.6097
也師古	-11.6097
侍衛親軍	-11.6098
芝草	-11.6099
珽	-11.6101
蹲	-11.6101
豈敢	-11.6102
振旅	-11.6102
躬親	-11.6102
晉君	-11.6102
武子	-11.6103
延陵	-11.6103
屬之	-11.6104
行路	-11.6105
江表	-11.6105
魯陽	-11.6106
庫庫特穆爾	-11.6106
文徳殿	-11.6106
南朝	-11.6107
南頓	-11.6107
死士	-11.6107
亡也	-11.6107
生徒	-11.6108
不限	-11.6108
宫架	-11.6111
如法	-11.6111
宫闕	-11.6112
罪之	-11.6114
王仁	-11.6114
十五度	-11.6115
居外	-11.6115
詩人	-11.6118
赤氣	-11.612
官制	-11.6122
未可知	-11.6123
圖籍	-11.6124
本郡	-11.6126
虞舜	-11.6127
崩于	-11.6129
崇祖	-11.6129
安集	-11.6129
六曹	-11.613
乃使人	-11.6131
正大	-11.6132
戒之	-11.6132
法物	-11.6133
劉表	-11.6134
耳非	-11.6136
乃言	-11.6137
止也	-11.6138
行則	-11.6139
乾元元年	-11.6139
方面	-11.6142
都官	-11.6142
許其	-11.6144
皆可	-11.6144
伊洛	-11.6145
周武王	-11.6148
使者曰	-11.6152
正殿	-11.6153
丞郎	-11.6157
義真	-11.6159
地中	-11.616
帳中	-11.6162
郟	-11.6162
太原王	-11.6162
歸仁	-11.6162
汨	-11.6162
說是也	-11.6163
剌	-11.6163
秘閣	-11.6163
耄	-11.6164
龐	-11.6164
釘	-11.6164
典儀	-11.6165
正字	-11.6165
喉	-11.6165
兵部員外郎	-11.6166
死節	-11.6166
猝	-11.6167
筑	-11.6168
出其不意	-11.6168
渭橋	-11.6169
為功	-11.6169
祕書少監	-11.617
通事舎人	-11.617
謀欲	-11.617
丙戍	-11.6171
仁夀	-11.6171
重臣	-11.6172
纉	-11.6172
在下	-11.6172
八曰	-11.6172
改焉	-11.6173
因謂	-11.6176
多事	-11.6177
斛律	-11.6177
而作	-11.6177
猶可	-11.6179
西周	-11.6184
又多	-11.6184
淮泗	-11.6185
折節	-11.6185
曰皇帝	-11.6187
無餘	-11.6187
方明	-11.6188
思政	-11.6188
井中	-11.6188
申明	-11.619
徼外	-11.619
統之	-11.6191
永固	-11.6191
自効	-11.6192
内出	-11.6193
杜陵	-11.6194
車駕至	-11.6194
臣不敢	-11.6194
異物	-11.6195
日新	-11.6195
氣如	-11.6196
增邑	-11.6196
将相	-11.6198
寧陵	-11.6198
檢校右僕射	-11.6198
攻楚	-11.62
川縣	-11.6202
仲徳	-11.6202
為東	-11.6203
方伯	-11.6204
三考證	-11.6204
陽夏	-11.6205
星孛	-11.6207
納延	-11.621
索虜	-11.6211
而君	-11.6211
天長	-11.6212
邪正	-11.6213
元貞元年	-11.6213
何益	-11.6214
跪奏	-11.6216
記一巻	-11.6217
犯塞	-11.6217
曰願	-11.6217
利而	-11.6217
十六度	-11.6218
藤	-11.622
乎對曰	-11.6223
詁	-11.6225
禁衛	-11.6226
因問	-11.6227
腸	-11.6227
紬	-11.6228
書籍	-11.623
不戰而	-11.6231
畫一	-11.6232
王欽若	-11.6233
隧	-11.6233
物故	-11.6234
師厚	-11.6234
耒	-11.6235
千六百	-11.6236
改容	-11.6237
絫	-11.6238
五音	-11.6239
粮	-11.624
右司郎中	-11.624
者數十人	-11.624
下大夫	-11.6241
三千三百	-11.6241
長孫無忌	-11.6241
婿	-11.6243
鄭王	-11.6244
彝	-11.6245
亦在	-11.6246
武德元年	-11.6247
見害	-11.6248
聖皇后	-11.6248
無度	-11.6248
未明	-11.6249
秘書郎	-11.625
軍將	-11.625
不俟	-11.6252
僧䖍	-11.6252
成周	-11.6252
已夘	-11.6255
京朝官	-11.6256
此必	-11.6256
何異	-11.6259
提調	-11.6259
滅亡	-11.6259
欽明	-11.626
令天下	-11.6261
武安君	-11.6261
經書	-11.6263
宣政院	-11.6263
挺身	-11.6265
而北	-11.6265
不置	-11.6266
徙鎮	-11.6266
縣六	-11.6267
已去	-11.6269
空虚	-11.6269
老臣	-11.6269
又聞	-11.6269
使民	-11.6269
少主	-11.6271
豈宜	-11.6271
成子	-11.6272
臺閣	-11.6272
趙普	-11.6272
其要	-11.6272
經緯	-11.6273
安東	-11.6275
既誅	-11.6275
議以為	-11.6276
所及	-11.6278
而不得	-11.6278
半交	-11.6279
進秩	-11.628
夀州	-11.628
杜氏	-11.6281
等同	-11.6282
後與	-11.6285
布薩	-11.6286
彼此	-11.6288
制可	-11.629
威徳	-11.629
始為	-11.6291
二百餘	-11.6291
百餘萬	-11.6292
甌	-11.6295
素無	-11.6295
青徐	-11.6295
棄其	-11.6297
謀叛	-11.6298
數百萬	-11.6298
文炳	-11.6299
子敬	-11.63
北宫	-11.63
衆多	-11.63
宋世	-11.6302
徳順	-11.6302
部民	-11.6303
仞	-11.6303
合兵	-11.6303
樁	-11.6303
脂	-11.6304
二十九日	-11.6304
元城	-11.6304
九宫	-11.6305
炫	-11.6306
▁元年	-11.6307
邴	-11.6307
紺	-11.6307
淖	-11.6308
懼其	-11.6308
不著	-11.6308
軍司馬	-11.6308
鄭伯	-11.6308
居于	-11.6308
番禺	-11.6309
相當	-11.631
唐莊宗	-11.631
鐫	-11.6311
恭儉	-11.6311
東安	-11.6311
太子中允	-11.6312
巍巍	-11.6312
挟	-11.6314
慄	-11.6316
舸	-11.6316
夫差	-11.6317
斬獲	-11.6318
校獵	-11.6318
著述	-11.6318
吾與	-11.6319
桑維翰	-11.6319
為是	-11.6319
即拜	-11.632
投之	-11.6321
不得過	-11.6321
大暑	-11.6322
名將	-11.6322
秘書	-11.6324
罵曰	-11.6324
羣后	-11.6324
委曲	-11.6326
位于	-11.6326
甘肅	-11.6329
兵五千	-11.633
丞相御史	-11.6331
祀典	-11.6331
縣一	-11.6331
棄官	-11.6332
四百八十	-11.6332
都廵檢使	-11.6332
固已	-11.6333
迪里	-11.6333
招致	-11.6334
未息	-11.6335
互市	-11.6338
一斤	-11.6338
從九品下	-11.6339
之福	-11.6339
大呂	-11.634
中書侍郎平章事	-11.6341
躔	-11.6341
從八品下	-11.6342
九錫	-11.6342
行簡	-11.6342
年正月	-11.6342
兆民	-11.6343
閣道	-11.6344
駕部	-11.6345
聞其名	-11.6345
國亡	-11.6346
衙門	-11.6347
形於	-11.6347
罷知政事	-11.635
義渠	-11.6351
無備	-11.6351
晨見	-11.6351
烏程	-11.6351
景文	-11.6352
窮治	-11.6352
延朗	-11.6353
皆與	-11.6353
曹叅軍	-11.6353
賈生	-11.6354
必須	-11.6354
士衆	-11.6354
皆再拜	-11.6357
貫石	-11.6359
秦鳳	-11.636
賜號	-11.6361
先驅	-11.6362
家國	-11.6363
霜降	-11.6363
為留後	-11.6364
虜其	-11.6364
利也	-11.6364
導從	-11.6365
石氏	-11.6365
自來	-11.6366
道人	-11.6366
數倍	-11.6367
旱蝗	-11.6368
委質	-11.6369
諸本	-11.6369
百頃	-11.6371
卒後	-11.6371
中統鈔	-11.6372
宋氏	-11.6374
母喪	-11.6375
玘	-11.6375
來聘	-11.6375
者蓋	-11.6377
豪桀	-11.6379
熒惑守	-11.6379
其冬	-11.6379
五年五月	-11.6379
陳許	-11.638
光庭	-11.638
所劾	-11.6381
補闕	-11.6381
元妃	-11.6381
坻	-11.6381
康公	-11.6382
獻祖	-11.6382
苑囿	-11.6383
軻	-11.6383
裴駰	-11.6384
後從	-11.6384
嬉	-11.6385
宫城	-11.6386
賾	-11.6386
愛民	-11.6386
坫	-11.6387
閽	-11.6387
掲	-11.6388
失於	-11.6389
大火	-11.639
十八度	-11.6391
驃騎大将軍	-11.6391
轉為	-11.6391
冢宰	-11.6396
十有六	-11.6396
相府	-11.6397
祀事	-11.6399
右監門	-11.64
集二十巻	-11.64
切齒	-11.64
家無	-11.6403
老矣	-11.6404
之勲	-11.6405
趙魏	-11.6406
南走	-11.6406
道中	-11.6407
造作	-11.6407
按視	-11.6407
被圍	-11.6409
我何	-11.641
於義	-11.641
庚子以	-11.6411
三十餘人	-11.6411
遷給事中	-11.6414
謝晦	-11.6414
皇城使	-11.6414
天穆	-11.6418
次引	-11.6419
問以	-11.6419
晉卿	-11.6422
前王	-11.6422
厚加	-11.6422
者凡	-11.6423
萬戸府	-11.6424
百騎	-11.6424
將出	-11.6424
黎元	-11.6426
信任	-11.6426
又廢	-11.6427
家令	-11.6428
行用	-11.643
皇族	-11.6432
申錫	-11.6432
論一巻	-11.6433
餘杭	-11.6436
張晏	-11.6438
四嵗	-11.6438
銀印	-11.644
未就	-11.644
登州	-11.644
愍帝	-11.6441
一室	-11.6443
有星出	-11.6443
修徳	-11.6443
千餘級	-11.6445
致齋	-11.6447
因奏	-11.6451
肉刑	-11.6453
詞賦	-11.6453
為太常	-11.6453
訛言	-11.6454
岌	-11.6455
歳星	-11.6456
謩	-11.6456
亞終獻	-11.6456
太祖即位	-11.6458
葭	-11.6458
鰥寡	-11.6458
勍	-11.6458
桀紂	-11.6458
髦	-11.6459
裾	-11.6459
僵	-11.6459
慰諭	-11.6459
可稱	-11.6461
璵	-11.6461
聨	-11.6461
斟	-11.6462
合州	-11.6462
長貳	-11.6464
▁五年	-11.6465
日者	-11.6465
有德	-11.6465
怏怏	-11.6465
内選	-11.6466
秦時	-11.6466
征南大將軍	-11.6467
一刻	-11.6468
斡罕	-11.6468
逋負	-11.6471
處州	-11.6471
其儀	-11.6472
之俗	-11.6473
青白	-11.6473
累遷至	-11.6476
性好	-11.6477
案文	-11.6477
先皇	-11.6478
五大夫	-11.648
特加	-11.6481
為監察御史	-11.6481
入南斗	-11.6481
舒州	-11.6482
還復	-11.6483
鮮于	-11.6483
器幣	-11.6485
犯亢	-11.6485
復除	-11.6485
與日合	-11.6486
後因	-11.6487
復奏	-11.6489
山名	-11.6489
白露	-11.649
者給	-11.649
禮有	-11.6492
遥光	-11.6493
保安	-11.6493
隔絶	-11.6497
初行	-11.6498
孫氏	-11.6499
以資	-11.6499
元顯	-11.6499
劉季	-11.6501
一考證	-11.6501
沖之	-11.6502
梁氏	-11.6504
五考證	-11.6505
增損	-11.6505
宣祖	-11.6506
可疑	-11.6506
武州	-11.6507
卿言	-11.6508
梁父	-11.6508
黄老	-11.6508
二十餘萬	-11.6509
挑	-11.6509
有九	-11.6511
帝令	-11.6511
焉及	-11.6512
實哩	-11.6514
憂也	-11.6515
入居	-11.6515
可畏	-11.6517
諸呂	-11.6518
髙山	-11.6519
危急	-11.652
戒嚴	-11.6521
孟康	-11.6522
命也	-11.6522
來救	-11.6524
璹	-11.6524
犁	-11.6525
劉敞曰	-11.6526
簋	-11.6526
霸王	-11.6528
立為皇太子	-11.6528
闞	-11.653
衛青	-11.6531
蒿	-11.6533
子姪	-11.6533
坂	-11.6534
乃歸	-11.6534
廢太子	-11.6534
分軍	-11.6535
常居	-11.6537
天章閣待制	-11.6538
義之	-11.6538
能屬文	-11.6538
通用	-11.6539
一錢	-11.6539
秘書少監	-11.6539
為業	-11.654
縉紳	-11.654
忠直	-11.654
安巴堅	-11.654
鹹	-11.654
榦	-11.6542
魏國	-11.6543
剽掠	-11.6543
勿令	-11.6544
楊光逺	-11.6544
又破	-11.6544
移於	-11.6545
官田	-11.6547
飛狐	-11.6548
許諾	-11.6548
劉敬	-11.6548
欲反	-11.655
于今	-11.655
名實	-11.6551
都堂	-11.6551
偏師	-11.6552
齊魯	-11.6552
字世	-11.6554
入京師	-11.6554
請託	-11.6554
長春	-11.6555
王晏	-11.6555
李林甫	-11.6555
然無	-11.6555
平凉	-11.6556
秀才	-11.6556
失禮	-11.6556
劉義隆	-11.6556
長史司馬	-11.6556
聽其	-11.6558
之靈	-11.6559
浚儀	-11.6559
者二人	-11.6559
淄州	-11.6559
故知	-11.6561
土崩	-11.6561
求救	-11.6562
之祭	-11.6562
又分	-11.6562
行密	-11.6562
▁五	-11.6563
舊本	-11.6563
長社	-11.6564
六考證	-11.6564
壯之	-11.6564
直以	-11.6566
右扶風	-11.6566
約為	-11.6568
大率	-11.657
明年正月	-11.6572
胡騎	-11.6572
五年四月	-11.6573
敬宣	-11.6573
問疾	-11.6575
犯鬼	-11.6575
出境	-11.6576
罍	-11.6576
饑賑	-11.6576
風角	-11.6577
在焉	-11.6578
夏口	-11.6578
夏貴	-11.6578
邊郡	-11.6578
明君	-11.6579
不發	-11.658
三皇	-11.658
城父	-11.6582
王恢	-11.6582
誘之	-11.6584
梁人	-11.6586
梁兵	-11.6586
伯陽	-11.6586
正安	-11.6587
十九日	-11.6587
太安	-11.659
交州刺史	-11.659
三衙	-11.659
導之	-11.6591
餘滿	-11.6591
簿書	-11.6591
鍼	-11.6592
修武	-11.6592
積日	-11.6592
陽山	-11.6592
卿相	-11.6594
髙麗國王	-11.6596
夏秋	-11.6596
夷人	-11.6596
戊申以	-11.6597
外兵	-11.6598
質子	-11.6604
肅肅	-11.6604
小臣	-11.6604
阨	-11.6606
彖	-11.6607
正衙	-11.6608
已已	-11.6608
之德	-11.6608
二十四氣	-11.6609
並令	-11.6609
知雜	-11.661
様	-11.661
竟陵王子良	-11.661
鉏	-11.6612
不朽	-11.6612
樂者	-11.6612
為詩	-11.6613
菩薩	-11.6613
稍稍	-11.6614
粒	-11.6615
栅	-11.6615
度河	-11.6616
區宇	-11.6617
孔目官	-11.6617
字今	-11.6617
紛紛	-11.6617
命官	-11.6617
變易	-11.6618
六十餘	-11.6619
果有	-11.6619
吳起	-11.6619
嘿	-11.662
國書	-11.662
江寧	-11.6621
金輅	-11.6621
羽林軍	-11.6622
共為	-11.6622
鼓譟	-11.6623
多言	-11.6623
孝行	-11.6623
聊城	-11.6623
駕士	-11.6624
蔬食	-11.6624
觀察判官	-11.6624
封還	-11.6624
照磨	-11.6625
歐陽修	-11.6627
新平	-11.6627
邉事	-11.6629
償之	-11.6629
頓丘	-11.663
五城	-11.663
甲午以	-11.663
九原	-11.6634
大悅	-11.6634
齊髙帝	-11.6634
象也	-11.6635
相聚	-11.6635
祀南郊	-11.6636
從而	-11.6637
所犯	-11.6637
武衛	-11.6638
奉冊	-11.6639
雖小	-11.6639
制禮	-11.6639
未暇	-11.664
有勞	-11.664
遇敵	-11.664
數百騎	-11.664
力屈	-11.664
遂復	-11.664
戊寅以	-11.6641
上遣	-11.6642
物力	-11.6643
新昌	-11.6648
率歩騎	-11.6649
犯軒轅	-11.6649
從大將軍	-11.6651
髙琪	-11.6653
王太后	-11.6653
居䘮	-11.6653
以便宜	-11.6653
誅其	-11.6654
水衡	-11.6655
豈以	-11.6657
磁州	-11.6658
并前	-11.6658
厥後	-11.6658
諸家	-11.6658
至德	-11.6659
士皆	-11.6659
五嶽	-11.6662
守者	-11.6663
王徳	-11.6667
作詩	-11.6667
九萬	-11.6669
軍統制	-11.667
門下省	-11.6672
將何以	-11.6672
夏至後	-11.6672
承乾	-11.6673
就食	-11.6674
封子	-11.6674
庭中	-11.6674
租稅	-11.6676
也如淳曰	-11.6677
有事於	-11.6678
職掌	-11.6678
休仁	-11.6679
鉅野	-11.6679
都督中外諸軍事	-11.668
特爾格	-11.668
日磾	-11.6681
神州	-11.6682
縶	-11.6685
靁	-11.6685
二年置	-11.6686
深相	-11.6687
贅	-11.6688
朱异	-11.6688
唐張守節撰	-11.6688
百金	-11.6688
縫	-11.6689
既多	-11.6689
寛仁	-11.669
媿	-11.669
以紀	-11.669
秘書丞	-11.669
篋	-11.6691
紛紜	-11.6691
褊	-11.6691
游擊將軍	-11.6692
鄭𤣥注	-11.6692
大行皇帝	-11.6692
西上閤門使	-11.6692
堂下	-11.6694
傷稼	-11.6695
范雎	-11.6696
子子	-11.6697
禮部員外郎	-11.6697
袁術	-11.6698
更生	-11.6698
年十七	-11.6699
何哉	-11.67
名家	-11.6701
左監門	-11.6701
監察	-11.6703
相位	-11.6705
築長城	-11.6706
成安	-11.6706
長君	-11.6707
等攻	-11.6709
遇賊	-11.6711
其鋒	-11.6712
固執	-11.6713
文武百官	-11.6713
彭城王	-11.6716
説非也	-11.6716
寒露	-11.6717
又進	-11.6717
在長安	-11.6718
之右	-11.672
頒行	-11.6721
日月之	-11.6722
曰國家	-11.6722
秀州	-11.6722
於廟	-11.6723
春秋之義	-11.6724
殷勤	-11.6725
各得其	-11.6726
馬融	-11.6727
禆將	-11.6729
一千六百	-11.6729
上庸	-11.6731
軍營	-11.6731
無已	-11.6731
貞觀初	-11.6731
行院	-11.6732
客省	-11.6733
爵邑	-11.6734
歸罪	-11.6734
海都	-11.6734
八卦	-11.6735
青衣	-11.6736
三年遷	-11.6736
之咎	-11.6738
金水	-11.6738
言事者	-11.674
工役	-11.6742
八嵗	-11.6742
限以	-11.6743
蒙古	-11.6743
平陸	-11.6743
李固	-11.6744
進圍	-11.6744
自縊	-11.6744
持節都督	-11.6744
而可	-11.6745
崇寜	-11.6745
為寇	-11.6746
請令	-11.6746
王韶	-11.675
恭帝	-11.6751
入井	-11.6751
萬事	-11.6752
三百餘人	-11.6753
貿	-11.6753
遯甲	-11.6754
輕兵	-11.6755
月度	-11.6756
馬步	-11.6756
非吾	-11.6756
不得志	-11.6757
始自	-11.6758
千戶	-11.6758
嫣	-11.6758
吳人	-11.6759
僇	-11.6761
表曰	-11.6761
率百官	-11.6761
陸生	-11.6761
潼川	-11.6763
忠勇	-11.6763
悰	-11.6763
公議	-11.6765
十千	-11.6765
若乃	-11.6766
巫蠱	-11.6766
王陵	-11.6767
主書	-11.6767
𤓰爾佳	-11.6768
姊妹	-11.6768
鏁	-11.6768
本非	-11.6769
金史卷	-11.6769
徳行	-11.6769
蹔	-11.677
四百五十	-11.677
侯景之亂	-11.6771
都知兵馬使	-11.6771
市人	-11.6771
刷	-11.6771
十有一月	-11.6771
四川行省	-11.6771
太守王	-11.6771
中平	-11.6772
遂絶	-11.6772
彌逺	-11.6773
疆場	-11.6774
三遷	-11.6776
寺丞	-11.6776
宫掖	-11.6777
六嵗	-11.6777
從父弟	-11.6778
誰可	-11.6779
克明	-11.6779
續漢書曰	-11.6781
陽厯	-11.6781
其分	-11.6781
之責	-11.6784
寇邊	-11.6784
舊史	-11.6784
八州	-11.6785
果毅	-11.6786
兵權	-11.6788
順州	-11.6788
能言	-11.6788
自是之後	-11.6791
孟津	-11.6793
怨之	-11.68
已行	-11.68
臧質	-11.68
遷散騎常侍	-11.6801
擢用	-11.6801
大吕	-11.6803
兵勢	-11.6805
行参軍	-11.6805
為副使	-11.6805
於理	-11.6806
縱之	-11.6807
仕進	-11.6807
矣遂	-11.6809
上使	-11.6811
若欲	-11.6814
不負	-11.6814
神功	-11.6817
今請	-11.6818
▁|||	-11.6821
幷州	-11.6822
右光禄大夫	-11.6824
羌胡	-11.6825
始興王	-11.6825
長老	-11.6826
忠正	-11.6827
相善	-11.6828
發卒	-11.6829
攝事	-11.683
為援	-11.683
二部	-11.683
癸酉以	-11.683
毀	-11.6831
聖祖	-11.6831
知潭州	-11.6832
嗇	-11.6832
火燒	-11.6832
夀昌	-11.6833
削奪	-11.6833
恨之	-11.6834
失業	-11.6835
摛	-11.6836
無愧	-11.6836
憙	-11.6837
古今注曰	-11.6838
疑作	-11.6838
鮪	-11.6839
序曰	-11.6839
俱作	-11.6839
時年六十	-11.684
鼐	-11.684
宜春	-11.684
數騎	-11.6841
僧孺	-11.6841
七年春正月	-11.6841
再拜訖	-11.6842
湍	-11.6843
中庶子	-11.6843
身被	-11.6845
音扶	-11.6845
狼狽	-11.6845
領縣一	-11.6846
糞	-11.6846
刈	-11.6847
屯騎校尉	-11.6849
廉頗	-11.6849
百六十	-11.6849
姑臧	-11.6854
猜忌	-11.6854
散騎	-11.6855
漢官儀曰	-11.6855
榮祖	-11.6855
已来	-11.6857
突騎	-11.6857
虞夏	-11.6858
常從	-11.6858
乾象	-11.6859
獨有	-11.686
癸丑以	-11.6861
所須	-11.6861
羲和	-11.6862
應援	-11.6863
後悔	-11.6863
贈司空	-11.6864
於事	-11.6865
後二年	-11.6865
元禮	-11.6867
徽州	-11.6867
不詳	-11.6867
亰師	-11.6868
還鎮	-11.6868
遼州	-11.6869
除之為	-11.687
尤為	-11.6871
任職	-11.6872
家奴	-11.688
藥師	-11.6881
僧珍	-11.6881
經學	-11.6881
蘇代	-11.6881
以文學	-11.6882
不能守	-11.6882
音許	-11.6883
中書右丞相	-11.6884
知州事	-11.6884
彦回	-11.6885
大姓	-11.6886
汝南王	-11.6886
分領	-11.6887
於明堂	-11.6888
求賢	-11.6888
朐山	-11.6889
曰寡人	-11.6893
不愛	-11.6893
建武二年	-11.6894
領軍将軍	-11.6895
市井	-11.6895
後廢	-11.6895
所取	-11.6896
安北	-11.6897
大江	-11.6897
從政	-11.6897
所推	-11.6898
涼州刺史	-11.6898
神策	-11.6902
阿古	-11.6903
戊戌以	-11.6905
孰能	-11.6906
後數日	-11.6908
者今	-11.6911
釡	-11.6911
也晉灼曰	-11.6913
母憂去職	-11.6913
纖	-11.6914
森	-11.6914
坐貶	-11.6915
肴	-11.6915
酇	-11.6916
應龍	-11.6917
流沙	-11.6918
靺鞨	-11.6918
陵遲	-11.6918
瑣	-11.6919
簴	-11.6919
逡	-11.6919
佾	-11.692
嵬	-11.692
彭城王義康	-11.692
太平州	-11.692
唐堯	-11.692
率多	-11.6921
訶	-11.6921
塢	-11.6921
楚材	-11.6921
補之	-11.6922
縋	-11.6925
趙郡王	-11.6925
征虜将軍	-11.6926
諒闇	-11.6927
死于	-11.6929
林子	-11.693
如淳	-11.6931
竪	-11.6932
千一百	-11.6932
景德	-11.6932
北靣	-11.6933
莫肯	-11.6933
詔許之	-11.6933
事迹	-11.6933
叔業	-11.6933
埀	-11.6933
地下	-11.6933
鄢陵	-11.6934
省入	-11.6939
壬申以	-11.694
大裘	-11.694
薛安都	-11.694
前期	-11.694
百揆	-11.6942
諌曰	-11.6943
疾甚	-11.6944
惟忠	-11.6945
顧問	-11.6945
辨其	-11.6945
今王	-11.6946
而滅	-11.6947
盡殺	-11.6949
與夫	-11.6949
邑五百戸	-11.695
張説	-11.695
其性	-11.6951
䕃補	-11.6951
計議	-11.6951
應天府	-11.6951
部伍	-11.6952
曰諾	-11.6953
神位	-11.6954
侵擾	-11.6955
驚曰	-11.6955
刺之	-11.6956
音千	-11.6958
逺者	-11.6958
宣力	-11.6959
鄰國	-11.6961
口一萬	-11.6962
元首	-11.6967
䕶之	-11.6968
其咎	-11.6969
如儀	-11.697
廣大	-11.6976
並有	-11.6977
髙第	-11.698
不湏	-11.6981
計其	-11.6982
九年正月	-11.6982
有意	-11.6982
日夕	-11.6983
不勞	-11.6984
詔許	-11.6984
侵掠	-11.6984
六品以下	-11.6985
神龍初	-11.6985
至重	-11.6986
與卿	-11.6986
麒麟	-11.6987
願大王	-11.6988
必得	-11.6989
合勢	-11.6989
從周	-11.6989
之戒	-11.6991
冀寧	-11.6991
延孝	-11.6991
三百八十	-11.6991
五員	-11.6994
詧	-11.6996
俚	-11.6996
郄	-11.6996
又除	-11.6996
崤	-11.6997
故秦	-11.6997
脣	-11.6998
壇上	-11.6998
嫚	-11.6998
槐里	-11.6999
訣一巻	-11.6999
資政殿大學士	-11.7
杼	-11.7001
穫	-11.7001
長水校尉	-11.7001
恩禮	-11.7001
越騎校尉	-11.7001
案歐陽史作	-11.7001
惶恐	-11.7003
黍稷	-11.7004
風俗通	-11.7005
孟古岱	-11.7006
受命之	-11.7006
迸	-11.7008
㛰	-11.7009
篇曰	-11.7009
百歩	-11.7009
手自	-11.701
色黄	-11.701
麟州	-11.7011
左執法	-11.7011
薩喇	-11.7012
鎮軍將軍	-11.7013
臣瓚曰	-11.7013
無恙	-11.7013
子才	-11.7014
未央宫	-11.7015
見親	-11.7017
決河	-11.7019
今當	-11.702
準布	-11.702
朝請	-11.7021
送欵	-11.7021
後省	-11.7021
元凶	-11.7021
景辰	-11.7022
𤣥武	-11.7022
為平章政事	-11.7023
全斌	-11.7023
讓之	-11.7024
羽儀	-11.7025
經綸	-11.7026
貢士	-11.7027
江隂	-11.7029
眀日	-11.7029
回回	-11.703
二刻	-11.7032
邦昌	-11.7033
徳殿	-11.7036
究其	-11.7036
杜門	-11.704
燕軍	-11.704
』	-11.704
千四百	-11.704
扶南	-11.7042
果然	-11.7042
三年改	-11.7044
其旁	-11.7046
漳州	-11.7047
號稱	-11.705
一章	-11.7052
未見其	-11.7052
至洛陽	-11.7053
蓋以	-11.7055
而不言	-11.7055
藉田	-11.7055
十嵗	-11.7056
右手	-11.7057
五服	-11.7058
當先	-11.7061
遷尚書	-11.7061
士女	-11.7061
五十年	-11.7061
調兵	-11.7063
食盡	-11.7063
羊豕	-11.7063
三五	-11.7064
御殿	-11.7065
之符	-11.7066
請救	-11.7067
走入	-11.7068
之謂也	-11.7069
頥	-11.707
兵萬人	-11.707
關西	-11.707
前行	-11.7072
當陽	-11.7072
雍王	-11.7073
純仁	-11.7073
祺	-11.7075
建安王	-11.7076
房玄齡	-11.7076
有黄	-11.7076
復生	-11.7076
一世	-11.7077
獻方物	-11.7077
太樂	-11.7077
蓼	-11.7078
布政	-11.7078
宣徽北院使	-11.7079
雲南行省	-11.7079
新舊	-11.708
袴褶	-11.7081
武丁	-11.7081
徵拜	-11.7081
欽定四庫全書金史卷	-11.7083
棟摩	-11.7083
彚	-11.7083
臠	-11.7084
議者以	-11.7084
認	-11.7085
免死	-11.7085
臺諌	-11.7089
也是時	-11.7089
初無	-11.7089
制勝	-11.7089
乞師	-11.7092
横流	-11.7092
炤	-11.7094
吳興太守	-11.7095
再犯	-11.7096
文忠	-11.7097
晉太康地志屬	-11.7098
辛酉以	-11.7099
天正十一月	-11.71
非敢	-11.7101
大分	-11.7101
文宣王	-11.7101
烏哲	-11.7102
之口	-11.7102
非法	-11.7106
㑹稽太守	-11.7106
而治	-11.7107
石五斗	-11.7108
哭之	-11.7108
聞喜	-11.7108
綱目	-11.7108
約尼	-11.7109
後患	-11.711
李晟	-11.711
捕得	-11.7111
温舒	-11.7111
其害	-11.7113
以功封	-11.7116
五千三百	-11.7117
正二品	-11.7117
者依	-11.7117
好問	-11.7118
之譽	-11.7119
南行	-11.7119
將佐	-11.7121
貞觀元年省	-11.7122
為兵部尚書	-11.7123
則人	-11.7124
驕恣	-11.7124
出于	-11.7126
季子	-11.7127
守捉	-11.7129
閬州	-11.713
明也	-11.7133
助祭	-11.7135
乃降	-11.7136
考校	-11.7137
例降	-11.7137
懐英	-11.7137
紫宫	-11.7138
四千六百	-11.714
為代王	-11.7141
善馬	-11.7141
二千九百	-11.7142
舉酒	-11.7143
朝命	-11.7143
之田	-11.7145
道術	-11.7145
之域	-11.7146
存信	-11.7146
大澤	-11.7147
給復	-11.7148
莫得	-11.7148
臨時	-11.7152
筋	-11.7152
祅	-11.7153
文法	-11.7154
合而	-11.7154
視朝	-11.7154
臺城	-11.7154
乃悉	-11.7154
于周	-11.7154
梨	-11.7157
衾	-11.7157
泯	-11.7158
楚莊王	-11.7158
巋	-11.7158
能以	-11.7159
闔門	-11.7159
史記正義卷	-11.7159
之規	-11.716
命如前	-11.7161
蘊	-11.7161
鄉縣	-11.7162
驎	-11.7163
養子	-11.7163
左賢王	-11.7164
郴州	-11.7164
石室	-11.7164
驅馳	-11.7164
桂林	-11.7164
欲盡	-11.7165
門者	-11.7165
解圍	-11.7166
玫	-11.7167
帝堯	-11.7168
父死	-11.717
下士	-11.717
姦謀	-11.7172
沈慶之	-11.7172
有司以	-11.7173
君臨	-11.7173
陳蔡	-11.7174
動則	-11.7175
陵寢	-11.7177
自外	-11.7177
後代	-11.7178
焚燒	-11.7179
可立	-11.7179
執其	-11.718
河北河東	-11.718
袁州	-11.7181
輕薄	-11.7182
取㫖	-11.7186
震動	-11.7186
帝曰卿	-11.7189
行入濁	-11.719
王茂	-11.719
不輟	-11.7191
軍容	-11.7192
再興	-11.7193
中統	-11.7196
招誘	-11.7196
連兵	-11.7197
田子	-11.7198
得全	-11.7199
元王	-11.7199
鄯	-11.7199
龍泉	-11.72
豈無	-11.72
金印	-11.72
竊謂	-11.7201
觀望	-11.7201
欲其	-11.7201
邊防	-11.7201
靖康元年	-11.7201
從幸	-11.7202
堯舜之	-11.7202
晉兵	-11.7202
二口	-11.7204
僖公	-11.7205
之本也	-11.7206
雍熙	-11.7207
既久	-11.7207
厯數	-11.7208
料錢	-11.7208
巳上	-11.7208
制如	-11.7208
國公主	-11.721
一千七百	-11.7211
入粟	-11.7212
差役	-11.7212
之遴	-11.7213
是知	-11.7214
九服	-11.7217
甲申以	-11.7217
加特進	-11.7218
仁壽	-11.7218
連結	-11.722
顧命	-11.7223
遷延	-11.7225
有犯	-11.7225
橘	-11.7226
驍衛	-11.7226
乃解	-11.7226
荊	-11.7227
正陽	-11.7227
赤帝	-11.7227
二年十二月	-11.7228
罔不	-11.7228
積聚	-11.7228
騭	-11.7228
椽	-11.723
橈	-11.7231
皆令	-11.7231
赴難	-11.7233
立太子	-11.7233
浮梁	-11.7233
之功也	-11.7234
居正	-11.7235
䍐	-11.7236
達魯	-11.7236
謠	-11.7237
嘯	-11.7237
侍郞	-11.7237
至元元年	-11.7238
太湖	-11.7238
日所在	-11.7238
官民	-11.7238
涵	-11.7239
交後	-11.7239
瓶	-11.7239
媒	-11.7239
勿以	-11.724
殪	-11.7241
砂	-11.7241
陳書卷	-11.7241
秪	-11.7242
乃率	-11.7242
相拒	-11.7242
詣京師	-11.7243
縢	-11.7244
流入	-11.7244
丁丑以	-11.7244
巳丑	-11.7246
吏部員外郎	-11.7246
戰守	-11.7247
廂軍	-11.7249
鎮東將軍	-11.7252
尚矣	-11.7252
宜先	-11.7252
南京留守	-11.7252
重光	-11.7253
今古	-11.7253
畧地	-11.7254
師子	-11.7255
兩川	-11.7255
人相食	-11.7256
表云	-11.7257
友謙	-11.7259
素聞	-11.7259
八考證	-11.726
河南行省	-11.7261
至死	-11.7262
據險	-11.7262
欲誅	-11.7262
上壽	-11.7264
華林	-11.7266
集三巻	-11.7266
一介	-11.7267
更造	-11.7268
糾察	-11.7268
自請	-11.7269
小雪	-11.727
兵民	-11.7272
襲父	-11.7272
而崩	-11.7274
伊闕	-11.7274
祭服	-11.7275
躍馬	-11.7275
山後	-11.7276
兄也	-11.7276
二十五日	-11.7277
宫内	-11.7277
遥授	-11.7277
卒時年五十	-11.7279
不勝其	-11.728
中立	-11.7281
給鈔	-11.7281
亂兵	-11.7281
王敬則	-11.7282
世傑	-11.7283
遂廢	-11.7283
南夷	-11.7286
何則	-11.7287
之科	-11.7288
巴爾	-11.7292
固有	-11.7293
年十六	-11.7293
非唯	-11.7294
辛丑以	-11.7295
濟陰	-11.7296
長女	-11.7299
誣告	-11.7302
人家	-11.7302
庶務	-11.7303
日及餘秒	-11.7304
並在	-11.7304
辛未以	-11.7305
納其	-11.7306
自昔	-11.7306
應作	-11.7307
為燕王	-11.7308
約之	-11.7308
拜表	-11.7309
一貫	-11.731
示天下	-11.7311
二百餘人	-11.7312
紓	-11.7313
言陛下	-11.7314
明其	-11.7314
榮之	-11.7314
因命	-11.7315
邛	-11.7315
酆	-11.7315
惠卿	-11.7316
平陽侯	-11.7316
極論	-11.7316
銑	-11.7316
録一卷	-11.7316
豚	-11.7317
敺	-11.7318
概	-11.7318
不踰	-11.7319
不濟	-11.7319
書生	-11.732
官人	-11.7321
憕	-11.7321
姧	-11.7321
永豐	-11.7323
間者	-11.7323
怛	-11.7323
治所	-11.7323
鏘	-11.7323
殛	-11.7323
灣	-11.7324
刑部員外郎	-11.7324
分掌	-11.7324
可致	-11.7325
陵廟	-11.7325
緦麻	-11.7326
亦謂	-11.7326
戱	-11.7326
頴胄	-11.7326
中統元年	-11.7326
糧運	-11.7327
蕪湖	-11.7327
荆山	-11.7327
采石	-11.7327
公孫𢎞	-11.7328
葛從周	-11.7328
各處	-11.7328
内難	-11.7328
自劾	-11.7329
鎮西將軍	-11.733
劉賈	-11.7331
遹	-11.7331
宋公	-11.7332
利病	-11.7333
隂平	-11.7334
不知也	-11.7334
曹彬	-11.7334
又非	-11.7337
居無何	-11.7338
罔極	-11.7339
軺車	-11.734
第三星	-11.734
坐贓	-11.7341
金飾	-11.7341
簒位	-11.7342
案牘	-11.7342
庚申以	-11.7343
有鐡	-11.7343
異常	-11.7343
自云	-11.7344
暴露	-11.7344
特立	-11.7345
李彦	-11.7346
雲雨	-11.7347
御河	-11.7347
與匈奴	-11.7349
參差	-11.7349
高下	-11.7349
髙麗王	-11.7351
而降	-11.7352
王峻	-11.7352
旗各一	-11.7352
為度	-11.7355
弗許	-11.7355
儀衛	-11.7355
巳而	-11.7356
三百餘	-11.7356
招撫使	-11.7357
陪位	-11.7357
聖皇	-11.7357
王公以下	-11.7357
以疾辭	-11.7358
僖祖	-11.7358
七百人	-11.7359
星隕	-11.7362
九星	-11.7362
徹爾	-11.7364
馬上	-11.7365
東胡	-11.7365
張華	-11.7366
計者	-11.7367
旦日	-11.7367
後漢屬	-11.7367
千九百	-11.7368
版位	-11.7368
馬頭	-11.7369
信義	-11.7369
得書	-11.7373
總制	-11.7374
攝政	-11.7375
公羊傳曰	-11.7375
國舅	-11.7375
知古	-11.7376
用心	-11.7377
為給事中	-11.7377
哀之	-11.7378
今聞	-11.7378
咸以	-11.7378
廢之	-11.7381
唐制	-11.7382
二百匹	-11.7383
甯	-11.7384
之災	-11.7387
小校	-11.7389
佛法	-11.739
衆星	-11.7391
不悛	-11.7391
未决	-11.7391
鍾山	-11.7391
賽	-11.7392
右相	-11.7392
或以為	-11.7393
三年十二月	-11.7393
居士	-11.7393
攻殺	-11.7394
享于太廟	-11.7394
將作	-11.7395
盞	-11.7396
耐	-11.7397
尚存	-11.7398
東山	-11.7398
氓	-11.7398
之飾	-11.7399
帝曰朕	-11.74
舉國	-11.74
瑤	-11.74
必至	-11.74
志第一百	-11.7401
齊趙	-11.7401
度遼將軍	-11.7402
仄	-11.7402
蒯通	-11.7402
剖符	-11.7403
博聞	-11.7403
察罕特穆爾	-11.7403
岳陽	-11.7403
宓	-11.7403
若斯	-11.7404
謔	-11.7404
千户所	-11.7404
羿	-11.7404
炊	-11.7405
韙	-11.7405
賊勢	-11.7408
歸德	-11.7408
次序	-11.7409
遷于	-11.7409
乃求	-11.7409
亡失	-11.7409
慶雲	-11.7409
遣使來賀	-11.7409
子勛	-11.7411
集賽	-11.7411
未至而	-11.7411
官品	-11.7411
咫尺	-11.7412
等五人	-11.7413
之秋	-11.7413
配食	-11.7414
胡廣	-11.7415
武徳五年	-11.7415
成服	-11.7416
肩輿	-11.7416
今則	-11.7417
知開封府	-11.7418
去京都水	-11.7419
皇太妃	-11.7419
繼恩	-11.742
矣於是	-11.742
三千餘	-11.7421
聞之曰	-11.7422
干戚	-11.7422
縁邊	-11.7422
兵興	-11.7423
不禁	-11.7424
郊社	-11.7424
貞明	-11.7425
之罪也	-11.7426
候之	-11.7426
難制	-11.7427
祭仲	-11.7427
骸骨	-11.7428
髙皇帝	-11.7428
韓子	-11.7428
以勞	-11.7429
過半	-11.7429
孝義	-11.743
餘如	-11.743
之寄	-11.7431
輔弼	-11.7431
李徳裕	-11.7432
在蜀	-11.7432
魏文侯	-11.7432
貪暴	-11.7432
其勞	-11.7432
相知	-11.7433
殊禮	-11.7433
長一丈	-11.7433
天下幸甚	-11.7433
天正冬至	-11.7433
諸司使	-11.7433
黄龍府	-11.7434
文選	-11.7436
卒于家	-11.7438
韓建	-11.7441
憤怒	-11.7442
以應之	-11.7442
有遺	-11.7443
奔潰	-11.7443
族滅	-11.7443
犬馬	-11.7444
其辭曰	-11.7446
引入	-11.7446
之國也	-11.7448
國君	-11.7448
三篇	-11.745
録其	-11.7451
悲夫	-11.7451
擊胡	-11.7451
可復	-11.7452
長生	-11.7452
本意	-11.7453
隂陽之	-11.7453
而不可	-11.7454
自矜	-11.7454
給錢	-11.7454
荆楚	-11.7454
軍資	-11.7455
每見	-11.7455
紀傳	-11.7456
危矣	-11.7456
在家	-11.7458
月朔	-11.7459
邊兵	-11.746
甲寅以	-11.746
已出	-11.7463
明帝即位	-11.7463
凡此	-11.7467
利於	-11.7468
魏志卷	-11.7469
戎王	-11.747
總章	-11.747
倉曹	-11.7472
義成	-11.7474
竺	-11.7476
為兵部侍郎	-11.7477
天雨	-11.7478
死則	-11.7479
肺	-11.7479
當云	-11.7479
峭	-11.7479
方得	-11.7481
疚	-11.7482
䟦	-11.7483
絁	-11.7484
侗	-11.7485
讁	-11.7486
嘉平	-11.7486
匭	-11.7486
頵	-11.7486
墀	-11.7487
愛幸	-11.7487
相似	-11.7488
論奏	-11.7488
䖍州	-11.7488
纍	-11.7489
鎻	-11.7489
頗為	-11.7489
竇嬰	-11.749
唾	-11.749
金剛	-11.7491
衙前	-11.7493
二年改	-11.7493
為河南尹	-11.7495
風流	-11.7495
榮禄大夫	-11.7496
成都府	-11.7497
韓氏	-11.7497
之女也	-11.7499
西界	-11.7499
星見	-11.7499
檢校禮部尚書	-11.7499
續漢志曰	-11.7499
龍驤	-11.75
感悟	-11.75
尉遲	-11.7501
可知也	-11.7503
不能盡	-11.7503
侍中領	-11.7503
永清	-11.7503
行次	-11.7504
官物	-11.7504
垂簾	-11.7504
百代	-11.7505
錦繡	-11.7505
加檢校太尉	-11.7505
三千七百	-11.7505
揖讓	-11.7507
右執法	-11.7507
南呂	-11.7511
愚臣	-11.7511
領縣三户	-11.7511
俘斬	-11.7513
祥瑞	-11.7513
博渉	-11.7513
説文	-11.7514
會昌	-11.7515
里北至	-11.7515
上命	-11.7515
日及分	-11.7516
錄其	-11.7516
始用	-11.7516
經理	-11.7516
爵賞	-11.7518
為楚王	-11.7518
殺人者	-11.7519
撰亡	-11.752
典籍	-11.7521
傳作	-11.7521
請謁	-11.7523
復攻	-11.7525
欲因	-11.7525
皆作	-11.7526
外内	-11.7527
不違	-11.7527
今在	-11.7527
為尚書右丞	-11.7529
武氏	-11.7529
才人	-11.7529
良田	-11.753
平灤	-11.753
定合	-11.7531
丙寅以	-11.7531
伏法	-11.7534
無虞	-11.7536
房心	-11.7536
凡八	-11.7536
朗州	-11.7537
李靖	-11.7537
樞宻院事	-11.7538
公卿大夫	-11.7538
初建	-11.7538
武徳令	-11.7538
死刑	-11.7538
右司	-11.7539
所望	-11.754
忽有	-11.754
近年	-11.7541
館閣	-11.7541
秦地	-11.7542
七考證	-11.7542
漢縣屬	-11.7543
其治	-11.7543
通行	-11.7544
丈人	-11.7545
乾德	-11.7545
不遵	-11.7545
並如	-11.7546
謹案	-11.7546
癸亥以	-11.7547
金紫	-11.7547
恩州	-11.7548
黜之	-11.7549
衆咸	-11.7549
州里	-11.7549
枉法	-11.755
寛大	-11.7551
陽陵	-11.7553
諸衛	-11.7553
於燕	-11.7555
歸降	-11.7555
親族	-11.7555
洛邑	-11.7555
帝召	-11.7555
書傳	-11.7555
罪當	-11.7555
六千五百	-11.7557
阼階	-11.7558
太微垣	-11.7559
美之	-11.756
赧	-11.756
言路	-11.7561
親祠	-11.7564
們	-11.7564
隴州	-11.7564
有奇	-11.7566
静江	-11.7567
監官	-11.7567
謂宰臣曰	-11.7567
二歲	-11.7567
封贈	-11.7567
素知	-11.7568
躭	-11.7568
犧牲	-11.7569
不謹	-11.757
親幸	-11.757
餒	-11.757
峩	-11.7571
協律郎	-11.7571
皥	-11.7571
三百三十	-11.7571
等處行中書省	-11.7573
上舍	-11.7574
降階	-11.7575
八座	-11.7575
浮圖	-11.7576
頡利	-11.7577
銀絹	-11.7577
各五	-11.7578
金墉	-11.7578
懐忠	-11.7579
畜産	-11.7581
議立	-11.7582
弑逆	-11.7582
既見	-11.7582
孝恭	-11.7584
蔡確	-11.7585
十餘丈	-11.7586
金全	-11.7586
殿前司	-11.7587
冠冕	-11.7588
東遷	-11.7589
定䇿	-11.7591
農民	-11.7592
無憂	-11.7592
有如	-11.7593
被災	-11.7595
師友	-11.7596
安徳	-11.7596
佐史	-11.7596
尤善	-11.7597
受爵	-11.7598
良民	-11.7599
封邑	-11.7601
京東西	-11.7601
無所得	-11.7602
劉晏	-11.7603
西安	-11.7606
登極	-11.7606
秦隴	-11.7606
司理	-11.7608
祀天	-11.7608
侍中如故	-11.7608
獨斷	-11.761
天后	-11.7611
竹木	-11.7611
東走	-11.7611
廢帝即位	-11.7611
户部郎中	-11.7612
周道	-11.7614
文物	-11.7615
從人	-11.7615
棗陽	-11.7616
國相	-11.7616
惜哉	-11.7616
李嗣昭	-11.7617
知我	-11.7617
分給	-11.7618
得其人	-11.7619
改立	-11.7619
田單	-11.762
有大志	-11.7621
特穆爾布哈	-11.7622
告老	-11.7622
引之	-11.7624
兼并	-11.7624
塡	-11.7624
袁氏	-11.7624
有銅	-11.7625
宮人	-11.7626
賢聖	-11.7628
兵喪	-11.763
有違	-11.7631
為中書	-11.7633
四百四十	-11.7634
間行	-11.7634
多病	-11.7634
赦令	-11.7635
内黄	-11.7635
告于	-11.7637
力不能	-11.7637
尋兼	-11.7639
丁亥以	-11.7639
為車騎將軍	-11.7639
五年七月	-11.764
宗廟社稷	-11.764
斿	-11.7641
謝承書曰	-11.7642
周勃	-11.7642
足為	-11.7643
宗幹	-11.7644
法制	-11.7644
魏徴	-11.7644
頰	-11.7645
或至	-11.7645
鍚	-11.7645
水名	-11.7648
鄭氏曰	-11.765
靑	-11.7651
刳	-11.7651
丞相巴延	-11.7652
」,	-11.7652
摽	-11.7652
刄	-11.7653
里克	-11.7653
莫知所	-11.7653
幞頭	-11.7653
司馬相如	-11.7653
朱衣	-11.7653
僦	-11.7653
欽定四庫全書史記正義卷	-11.7653
二千八百	-11.7653
拭	-11.7653
悠悠	-11.7655
諌官	-11.7655
煑	-11.7655
攷證	-11.7655
文理	-11.7656
本書	-11.7656
先代	-11.7657
正議大夫	-11.7657
僅以身免	-11.7657
鶚	-11.7658
南宮	-11.7658
五更	-11.7659
都水使者	-11.7659
秦置	-11.7659
度支判官	-11.7659
塤	-11.766
勁兵	-11.7661
不歸	-11.7662
對䇿	-11.7662
廬舎	-11.7666
兵威	-11.7667
淮海	-11.7667
北走	-11.7668
燕國	-11.7669
經曰	-11.7669
銷金	-11.7669
三統	-11.767
灤	-11.7673
遂破	-11.7673
髙密	-11.7674
附㑹	-11.7676
聚歛	-11.7676
舊人	-11.7676
國名	-11.7677
裨將	-11.7678
定議	-11.768
備矣	-11.768
西伐	-11.7681
糧盡	-11.7681
司農寺	-11.7683
各異	-11.7683
公綽	-11.7684
北上	-11.7687
教習	-11.7687
有序	-11.7688
星也	-11.7688
順之	-11.7689
經年	-11.7691
不仁	-11.7691
太學生	-11.7692
名數	-11.7692
戒之曰	-11.7692
吏治	-11.7693
急務	-11.7694
所薦	-11.7695
壽陽	-11.7697
逐北	-11.7697
丁酉以	-11.7697
出閤	-11.77
李光弼	-11.77
慕義	-11.7703
時天下	-11.7703
蕭氏	-11.7705
桑乾	-11.7705
行道	-11.7705
深自	-11.7706
乎今	-11.7706
洛陽令	-11.7707
諡曰恭	-11.7709
老父	-11.7713
人主之	-11.7714
剛直	-11.7716
六年二月	-11.7716
遺風	-11.7716
戊午以	-11.7716
同惡	-11.7717
遣使獻	-11.7717
親黨	-11.7717
坐事免	-11.7719
字長	-11.7719
頗知	-11.7721
初授	-11.7722
租庸	-11.7723
貧富	-11.7724
平行分	-11.7724
於是詔	-11.7725
白龍	-11.7726
匈	-11.7726
愕	-11.7726
待以	-11.7726
大震	-11.7727
元厯	-11.7729
賦歛	-11.7729
至京	-11.773
鳬	-11.773
漢蘭臺令史班固撰唐正議大夫行	-11.7731
得脱	-11.7731
王黼	-11.7731
次畿	-11.7732
以謝	-11.7732
嵗饑	-11.7733
屨	-11.7734
當代	-11.7734
收兵	-11.7735
遂取	-11.7736
帝嗣位	-11.7737
鉢	-11.7737
霸陵	-11.7739
芟	-11.774
不撓	-11.774
檐	-11.774
龍圖閣學士	-11.7741
而食之	-11.7742
禪位	-11.7743
歉	-11.7743
兆庶	-11.7744
於南郊	-11.7744
天市	-11.7746
譏之	-11.7746
寒心	-11.7747
轝	-11.7747
微子	-11.7747
希範	-11.7748
官努	-11.7749
吁	-11.7749
夏后氏	-11.775
十萬緡	-11.775
山南東道節度使	-11.775
三府	-11.7751
乘傳	-11.7751
復使	-11.7752
假道	-11.7752
臨清	-11.7754
掩襲	-11.7755
戊辰以	-11.7756
朕所	-11.7756
漕臣	-11.7756
納欵	-11.7758
表作	-11.7759
飛鳥	-11.7759
督責	-11.7759
戊子以	-11.776
九考證	-11.7761
司農少卿	-11.7761
夷滅	-11.7762
趙汝愚	-11.7762
交鈔	-11.7763
人告	-11.7763
祀昊天上帝	-11.7764
萬世之	-11.7765
兩府	-11.7765
壬寅以	-11.7766
平樂	-11.7767
三門	-11.7768
明元	-11.7768
牙門	-11.777
好讀書	-11.777
分散	-11.777
江陵府	-11.7771
以振	-11.7773
往見	-11.7774
動静	-11.7774
南河	-11.7774
十有五	-11.7777
相隨	-11.7779
名譽	-11.7779
日及餘	-11.7779
墾田	-11.778
滕公	-11.778
得還	-11.778
新書作	-11.7781
以百數	-11.7782
依平	-11.7784
致死	-11.7784
五百匹	-11.7786
晨伏	-11.7786
穆帝	-11.7787
左衛	-11.7787
從其請	-11.7791
邵陵	-11.7791
壬午以	-11.7791
唐太宗	-11.7791
嵗終	-11.7791
未央	-11.7792
舊作	-11.7792
宣子	-11.7792
左右司	-11.7792
交中	-11.7794
之竒	-11.7794
元后	-11.7794
武闗	-11.7795
』。	-11.7797
史書	-11.7798
綏州	-11.7798
于契丹	-11.7799
丙午以	-11.7799
館伴	-11.78
臨河	-11.7802
聖躬	-11.7802
巳酉	-11.7803
方慶	-11.7803
闔廬	-11.7803
山人	-11.7803
右衛	-11.7804
物價	-11.7804
等共	-11.7806
彊秦	-11.7806
稱兵	-11.7809
解在	-11.7809
敖倉	-11.7809
富者	-11.781
裕宗	-11.7811
講論	-11.7811
高皇帝	-11.7812
色赤	-11.7814
不吉	-11.7814
郅支	-11.7815
杏	-11.7816
名器	-11.7816
為雍州刺史	-11.7818
渭水	-11.7819
畎	-11.7819
睨	-11.7819
好畤	-11.782
穰苴	-11.782
剔	-11.7821
公行	-11.7821
隄防	-11.7822
無怨	-11.7823
洋洋	-11.7823
豺狼	-11.7824
進爵為侯	-11.7824
永泰元年	-11.7824
崇政殿	-11.7824
攄	-11.7824
按問	-11.7826
㸑	-11.7826
大理少卿	-11.7828
齊州刺史	-11.7829
往復	-11.7829
蒙恬	-11.783
指麾	-11.783
五藏	-11.783
通和	-11.7833
聚斂	-11.7834
安北將軍	-11.7834
百口	-11.7834
奠幣	-11.7835
金幣	-11.7835
任俠	-11.7836
三年冬	-11.7837
外孫	-11.7837
廣明	-11.7838
平仲	-11.7838
祕書省	-11.7841
左副元帥	-11.7842
未當	-11.7843
人畜	-11.7845
族弟	-11.7848
往来	-11.7848
西曹	-11.7849
閨	-11.785
決之	-11.785
速行至	-11.785
家僮	-11.7851
臣妾	-11.7851
五事	-11.7851
餘姚	-11.7852
朱氏	-11.7852
河東太守	-11.7853
邦彦	-11.7853
各設	-11.7855
迎謁	-11.7855
巳未	-11.7856
三千五百	-11.7856
樂人	-11.7857
檢校左僕射	-11.7857
厚賞	-11.7858
據有	-11.7858
副將	-11.7859
京湖	-11.7859
者不可勝數	-11.7859
北岸	-11.786
遣使獻方物	-11.786
左相	-11.786
南康王	-11.786
蘄黄	-11.7861
今雖	-11.7861
荀卿	-11.7862
禮院	-11.7862
共議	-11.7863
西蜀	-11.7863
一萬二千	-11.7865
蘭臺	-11.7865
共攻	-11.7865
天監初	-11.7867
嘗言	-11.7868
而忘	-11.7868
襲破	-11.7869
南史卷	-11.7869
誣奏	-11.787
所好	-11.787
至大元年	-11.7871
成湯	-11.7871
南單于	-11.7871
錢二十萬	-11.7871
之大者	-11.7871
提舉常平	-11.7872
為節度使	-11.7874
如之何	-11.7874
檢校兵部尚書	-11.7876
真人	-11.7876
昔漢	-11.7877
義方	-11.7879
流外	-11.7879
可以為	-11.788
制曰可	-11.7882
釋氏	-11.7884
邑人	-11.7884
呼圖	-11.7884
先祖	-11.7885
去長安	-11.7885
下官	-11.7885
燼	-11.7885
好禮	-11.7886
子也母曰	-11.7887
三百一十	-11.7887
差率	-11.7887
施之	-11.7889
青陽	-11.7891
犯贓	-11.7892
廙	-11.7893
騷	-11.7893
乃知	-11.7893
其理	-11.7893
出外	-11.7894
大眀	-11.7896
卧内	-11.7896
少以	-11.7897
屬吏	-11.7898
瓚曰	-11.7898
椁	-11.7899
皆服	-11.79
四年九月	-11.79
不能下	-11.79
字誤	-11.79
扶餘	-11.7901
三刻	-11.7901
買馬	-11.7902
斑	-11.7903
挂	-11.7903
命將	-11.7904
謳	-11.7904
轢	-11.7905
諭徳	-11.7905
其政	-11.7905
殘缺	-11.7907
䆒	-11.7908
穆爾	-11.7908
袂	-11.7909
摩訶	-11.7909
萬幾	-11.7909
幔	-11.7909
屬文	-11.791
犯邊	-11.7911
兵千人	-11.7911
王彦	-11.7911
所共	-11.7911
侯莫陳	-11.7912
邑也	-11.7913
禾稼	-11.7913
從九品上	-11.7914
彜	-11.7914
増損	-11.7915
虞允文	-11.7915
一物	-11.7916
髙氏	-11.7916
常欲	-11.7917
延熹	-11.7919
賽音	-11.7919
征南將軍	-11.792
於朝廷	-11.792
獄中	-11.7921
十年正月	-11.7922
卒時年六十	-11.7923
下蔡	-11.7923
舊職	-11.7923
慕之	-11.7924
聚黨	-11.7924
邢洺	-11.7925
小黄門	-11.7926
天府	-11.7926
字或作	-11.7927
雅有	-11.7928
溪洞	-11.7929
犬戎	-11.793
轉對	-11.793
遷官	-11.7931
齊名	-11.7932
▁八	-11.7933
不具	-11.7933
帝聞	-11.7933
入羽林	-11.7934
但當	-11.7935
人匠	-11.7935
修治	-11.7935
遺表	-11.7936
左右丞	-11.7937
歴一卷	-11.7938
檢討	-11.7938
李光	-11.7939
本以	-11.7939
文通	-11.794
敢有	-11.794
曹爽	-11.7941
》,	-11.7941
紹宗	-11.7941
翊衛	-11.7941
上疏論	-11.7942
使使者	-11.7942
嵩山	-11.7944
香案	-11.7944
嵗貢	-11.7944
戰破之	-11.7945
武關	-11.7946
火災	-11.7947
甚明	-11.7947
編修	-11.7948
疏勒	-11.7949
無慮	-11.7949
太平興國初	-11.795
丞二人	-11.795
仁恕	-11.7951
楚辭	-11.7951
擊賊	-11.7953
故舊	-11.7953
出笏	-11.7953
漕司	-11.7953
五部	-11.7955
朔小餘	-11.7955
上将軍	-11.7956
亦是	-11.7956
皇太子妃	-11.7957
到官	-11.7961
在禮	-11.7964
懿公	-11.7964
友人	-11.7966
夕伏	-11.7966
以手	-11.7966
加封	-11.7966
者輙	-11.7967
元興	-11.7968
乙未以	-11.7969
入禁中	-11.797
流寓	-11.797
音竹	-11.7972
大集	-11.7972
東園	-11.7972
三班	-11.7973
周世宗	-11.7974
正聲	-11.7975
季連	-11.7976
名節	-11.7977
第宅	-11.7978
保其	-11.7978
舉行	-11.7979
於魯	-11.798
舊唐書	-11.798
刑政	-11.7982
平蜀	-11.7982
不甚	-11.7982
不直	-11.7983
墉	-11.7986
嵇	-11.7986
舉動	-11.7987
果如	-11.7987
督戰	-11.7988
貊	-11.7989
蹋	-11.799
罽	-11.7991
漬	-11.7991
應州	-11.7992
明明	-11.7992
並廢	-11.7993
入太㣲	-11.7993
幼而	-11.7994
縞	-11.7994
粱	-11.7995
線	-11.7996
縗	-11.7996
提領所	-11.7996
通典	-11.7997
朔旦冬至	-11.7997
憂國	-11.7998
窋	-11.7998
斧鉞	-11.7998
皆不得	-11.7998
迓	-11.7999
豢	-11.8
集賢院	-11.8
乙酉以	-11.8001
以彰	-11.8001
任約	-11.8002
必勝	-11.8004
忤㫖	-11.8005
麟府	-11.8005
州守臣	-11.8005
音烏	-11.8005
復授	-11.8007
親率	-11.8007
發運	-11.8007
别封	-11.8009
塗山	-11.8009
不調	-11.801
虎牙	-11.8012
方山	-11.8013
昭侯	-11.8014
道里	-11.8015
壽州	-11.8016
弓手	-11.8016
出職	-11.8017
突入	-11.8021
饑寒	-11.8021
之固	-11.8022
教以	-11.8022
正道	-11.8023
前言	-11.8023
之勤	-11.8024
李筠	-11.8024
音莫	-11.8024
府主簿	-11.8026
發明	-11.8026
切責	-11.8026
女樂	-11.8028
南兗州刺史	-11.8028
天賜	-11.8028
興世	-11.8029
三百二十	-11.8033
其營	-11.8033
原之	-11.8035
拱辰	-11.8038
之饒	-11.804
仲逺	-11.804
百艘	-11.804
轉戰	-11.8041
始知	-11.8041
白玉	-11.8042
重修	-11.8044
朱雀	-11.8044
不得已而	-11.8046
尺四寸	-11.8047
字孝	-11.8048
恵帝	-11.8049
好古	-11.8049
六里	-11.8049
功德	-11.8049
天德	-11.8051
景午	-11.8051
不終	-11.8051
趙國	-11.8051
賀蘭	-11.8053
織成	-11.8054
永為	-11.8057
多出	-11.8057
事親	-11.8059
之漸	-11.806
書成	-11.8061
賢能	-11.8062
誅殺	-11.8062
虞書	-11.8063
或勸	-11.8066
家産	-11.8066
所加	-11.8068
符命	-11.807
黃門	-11.8071
穀梁	-11.8072
之詩也	-11.8072
一統	-11.8073
女史	-11.8073
一千九百	-11.8073
有府	-11.8074
肘	-11.8075
祠祭	-11.8075
盩厔	-11.8076
諸公子	-11.8076
伏望	-11.8077
雨土	-11.8077
功多	-11.8077
雷雨	-11.8078
乘車	-11.8079
餅	-11.8079
不坐	-11.808
堂邑	-11.808
索多	-11.8082
愠	-11.8082
暅	-11.8082
于秦	-11.8083
春秋左氏傳	-11.8083
不悅	-11.8084
飼	-11.8084
秦官	-11.8084
修起居注	-11.8084
江海	-11.8085
㒺	-11.8085
宗元	-11.8086
此又公之功也	-11.8086
斆	-11.8086
五代㑹要	-11.8088
頲	-11.8089
帷帳	-11.8089
審刑院	-11.8091
猶存	-11.8091
端平	-11.8091
叉	-11.8092
天柱	-11.8093
禃	-11.8094
乃除	-11.8096
六年四月	-11.8096
道規	-11.8096
為内應	-11.8097
地利	-11.8097
供億	-11.8097
鎮北將軍	-11.8097
漢舊縣	-11.8098
秦楚	-11.8098
奚斤	-11.8098
道宣慰使	-11.8102
急流至	-11.8102
庻子	-11.8103
嵗中	-11.8103
感激	-11.8103
四百七十	-11.8105
語言	-11.8106
二人皆	-11.8106
内庫	-11.8106
傾覆	-11.8107
公卿以下	-11.8108
太后曰	-11.8108
併力	-11.8109
周苛	-11.8109
讀祝	-11.811
奔散	-11.8111
安知	-11.8111
詔授	-11.8112
出公	-11.8112
反側	-11.8112
西鄉	-11.8113
師事	-11.8113
帝聞之	-11.8114
不生	-11.8115
席卷	-11.8115
侯生	-11.8117
無忘	-11.8117
所乗	-11.812
海島	-11.812
總統	-11.8121
學博士	-11.8121
賜銀	-11.8122
執爵	-11.8122
加檢校太傅	-11.8122
貢方物	-11.8122
清平	-11.8123
歸命	-11.8123
太原尹	-11.8123
北山	-11.8124
直閤	-11.8125
内壝	-11.8126
博通	-11.8128
金華	-11.8128
職任	-11.8129
退居	-11.8129
一莖	-11.813
於戲	-11.8132
既葬	-11.8133
按察使	-11.8133
不移	-11.8134
韓絳	-11.8134
其屍	-11.8135
地祗	-11.8135
密州	-11.8136
罔上	-11.8137
端禮	-11.8138
昭子	-11.8138
縣邑	-11.8138
盡言	-11.8139
幸甚	-11.8139
既非	-11.8139
汴軍	-11.814
匡威	-11.8141
叔陵	-11.8141
寶應	-11.8142
非徒	-11.8142
闋	-11.8147
等俱	-11.8148
丁未以	-11.8148
嗣宗	-11.8148
五百餘人	-11.8149
賊至	-11.8149
東封	-11.815
大父	-11.815
邙山	-11.8152
篤學	-11.8153
襲殺	-11.8153
清静	-11.8153
應奉	-11.8153
並作	-11.8154
左角	-11.8156
隰州	-11.8156
輔相	-11.8157
太興	-11.816
十八卷	-11.816
劉攽	-11.816
庚寅以	-11.816
世傳	-11.8161
▁||	-11.8161
第四子	-11.8161
竭力	-11.8161
五年三月	-11.8162
親賢	-11.8163
當用	-11.8163
觚	-11.8164
大漸	-11.8164
淯	-11.8165
九齡	-11.8166
晦日有蝕之	-11.8167
㑹于	-11.8167
糓	-11.8167
鷺	-11.8167
祲	-11.8168
分引	-11.8169
。』	-11.817
珮	-11.817
來上	-11.8171
鏻	-11.8171
少昊	-11.8171
豺	-11.8172
撾	-11.8173
嗤	-11.8173
没赤黄有尾跡明燭地	-11.8173
訕	-11.8174
以絶	-11.8174
徙都	-11.8174
昭武	-11.8174
浄	-11.8174
孜孜	-11.8175
通考	-11.8175
三百七十	-11.8176
點	-11.8176
粢盛	-11.8176
悉令	-11.8177
偃師	-11.8177
懃	-11.8178
景素	-11.8178
㨿	-11.8178
給鼓吹一部	-11.8178
嶺北	-11.8178
賜絹	-11.8178
五百户	-11.8178
居延	-11.8179
降封	-11.8179
不定	-11.818
孔雀	-11.818
甲戌以	-11.8181
頃公	-11.8181
宋國	-11.8182
良吏	-11.8182
四百六十	-11.8183
行尚書省	-11.8185
曰主上	-11.8185
廣陽王	-11.8185
三之一	-11.8186
江西行省	-11.8186
宜都	-11.8186
交分	-11.8186
之慮	-11.8187
不存	-11.8187
南歸	-11.8187
如上儀	-11.8189
取天下	-11.8189
屬車	-11.819
鍔	-11.8191
太初元年	-11.8192
孟春	-11.8196
伐陳	-11.8199
僧祐	-11.8199
真州	-11.82
絹各	-11.8203
退還	-11.8203
等四人	-11.8203
尺餘	-11.8204
從祖	-11.8205
榆次	-11.8205
吾子	-11.8205
官二人	-11.8207
守信	-11.8207
霸上	-11.8208
厚賜	-11.8209
將死	-11.821
軍器監	-11.8211
魏收	-11.8211
按漢書	-11.8211
對曰陛下	-11.8213
宣言	-11.8214
氏後改為	-11.8217
丙辰以	-11.8217
景寅	-11.8218
駐軍	-11.822
副統	-11.8221
太子建	-11.8221
諸科	-11.8222
定氣	-11.8223
丙子以	-11.8223
將卒	-11.8224
武衛將軍	-11.8224
下民	-11.8227
按謂	-11.8227
色白	-11.8228
事泄	-11.8229
罪狀	-11.8229
又再拜	-11.8229
敬容	-11.8229
當道	-11.8229
犯五諸侯	-11.8229
宣帝時	-11.823
之詞	-11.823
追還	-11.823
商量	-11.8232
百餘年	-11.8232
岐山	-11.8232
三千户	-11.8232
誅死	-11.8236
長三尺	-11.8237
自焚	-11.8238
嗣業	-11.8238
列于	-11.8238
窮困	-11.8238
數丈	-11.8238
世榮	-11.8239
聲援	-11.824
太平興國二年	-11.824
君侯	-11.8241
乎此	-11.8241
侍宴	-11.8241
梁書	-11.8242
五歲	-11.8242
懐珍	-11.8244
宗實録	-11.8244
丞相府	-11.8244
守恩	-11.8245
百官志	-11.8245
歴城	-11.8245
休格	-11.8246
鎮戎軍	-11.8246
讃	-11.8247
鉦	-11.8248
歲時	-11.8248
供軍	-11.8249
拍	-11.8249
登封	-11.825
隗囂	-11.825
攻具	-11.825
獵于	-11.8253
酸棗	-11.8253
千七百	-11.8254
北邉	-11.8254
各隨	-11.8254
為郎中	-11.8255
假令	-11.8255
賜予	-11.8256
峡	-11.8257
太后太后	-11.8257
名儒	-11.8257
敏中	-11.8258
樗	-11.8259
趙相	-11.8259
入仕	-11.8259
賢士	-11.826
寳夤	-11.826
胡人	-11.8261
所遣	-11.8261
大臣皆	-11.8261
悠	-11.8261
昭然	-11.8262
于市	-11.8262
肉袒	-11.8262
博州	-11.8263
没入	-11.8263
離宫	-11.8263
掇	-11.8264
蟻	-11.8264
智勇	-11.8264
檀道濟	-11.8265
王仲	-11.8266
壍	-11.8266
奔於	-11.8267
天戒若曰	-11.8267
鉷	-11.8267
必致	-11.8267
祠官	-11.8267
子房	-11.8268
文獻	-11.8268
痾	-11.8269
横海	-11.8269
歸闕	-11.8269
築壘	-11.8271
徐兗	-11.8272
超宗	-11.8272
考證欽定四庫全書前漢書卷	-11.8273
仁贍	-11.8273
涇原路	-11.8273
連坐	-11.8274
冡宰	-11.8274
盗起	-11.8275
詔問	-11.8275
進階	-11.8277
三事	-11.8278
小滿	-11.8279
議者以為	-11.8279
無㡬	-11.8279
兩國	-11.828
魏相	-11.828
亡秦	-11.828
司州牧	-11.828
執笏	-11.8281
挺之	-11.8283
左馮翊	-11.8283
都㸃檢	-11.8284
未知所	-11.8285
盛衰	-11.8286
荆南節度使	-11.8287
率諸軍	-11.8287
鎮江府	-11.8287
諭㫖	-11.8288
則服之	-11.8288
帝大怒	-11.8288
自便	-11.8291
興祖	-11.8292
四年改	-11.8293
生平	-11.8295
縣吏	-11.8297
小心	-11.8299
華容	-11.83
七十人	-11.8301
贈司徒	-11.8301
伐晉	-11.8302
不决	-11.8303
老成	-11.8304
敵兵	-11.8304
入塞	-11.8304
馬牛羊	-11.8304
諫大夫	-11.8305
機密	-11.8306
承奉	-11.8306
威靈	-11.8307
五年六月	-11.8308
所俘	-11.8309
右副元帥	-11.8313
御書	-11.8313
入宮	-11.8314
流移	-11.8314
汾陽	-11.8315
度及分秒	-11.8315
以佐	-11.8317
立身	-11.8318
登科	-11.8318
明德	-11.8318
復興	-11.8319
累授	-11.8319
髙唐	-11.8321
地廣	-11.8324
父喪	-11.8324
上書請	-11.8325
此何	-11.8328
破走	-11.8328
臣嘗	-11.8331
此輩	-11.8331
杜預注	-11.8331
盧氏	-11.8331
悦之	-11.8332
萊州	-11.8335
從討	-11.8335
大長公主	-11.8336
犨	-11.8337
喻之	-11.8338
位下	-11.8338
為右僕射	-11.8338
氾	-11.8339
四百一十	-11.834
尺六寸	-11.8342
冊禮	-11.8343
文官	-11.8344
囊嘉特	-11.8345
怵	-11.8345
蓍	-11.8345
致逺	-11.8346
光祿勲	-11.8346
孟氏	-11.8346
當斬	-11.8347
錄事司	-11.8347
民庶	-11.8349
乙亥以	-11.8349
中朝	-11.8349
孝文時	-11.835
舫	-11.835
乃封	-11.835
撮	-11.8351
䛕	-11.8351
用法	-11.8351
緦	-11.8352
明宗即位	-11.8353
中黄門	-11.8354
許敬宗	-11.8355
赤心	-11.8356
太原府	-11.8356
喀齊喀	-11.8356
青城	-11.8356
参知政事	-11.8356
兩制	-11.8356
馳道	-11.8357
詔免	-11.8357
卒諡	-11.8358
征北將軍	-11.8359
天降	-11.836
坐酎金	-11.8362
魏其侯	-11.8362
八佾	-11.8363
郢城	-11.8363
所建	-11.8363
飢寒	-11.8364
長孺	-11.8365
物情	-11.8365
其手	-11.8366
宣布	-11.8366
出獵	-11.8366
五匹	-11.8368
嵐州	-11.837
營于	-11.837
瓦解	-11.837
得其實	-11.8372
十有七	-11.8372
李勣	-11.8372
苗裔	-11.8372
顯忠	-11.8373
韶州	-11.8373
公祏	-11.8373
戚里	-11.8374
祁連	-11.8374
洹水	-11.8375
說非也	-11.8375
公叔	-11.8376
芒種	-11.8377
傳不同	-11.8378
於是遂	-11.8379
備物	-11.8379
奉公	-11.838
者罪之	-11.838
期年	-11.8381
入室	-11.8382
自衛	-11.8382
太子舎人	-11.8384
任圜	-11.8385
之嵗	-11.8385
至元三年	-11.8386
賜酒	-11.8386
路饑	-11.8386
武賁	-11.8387
六十日	-11.8388
洗馬	-11.8388
景雲	-11.839
司徒公	-11.8391
錢十萬	-11.8391
自度	-11.8392
賦以	-11.8392
梁主	-11.8392
由來	-11.8393
卒其子	-11.8393
捧日	-11.8394
隊主	-11.8395
州又改	-11.8397
攻齊	-11.8398
減去	-11.8398
相顧	-11.84
賊軍	-11.84
黄麾	-11.84
欽察	-11.84
王敦	-11.84
所起	-11.8403
兼樞密使	-11.8404
共公	-11.8405
竟不能	-11.8405
薩巴	-11.8406
二十四日	-11.8406
不滿為	-11.8408
務從	-11.8408
射獵	-11.8409
急於	-11.8409
惜其	-11.841
陛辭	-11.841
親愛	-11.8411
書佐	-11.8411
州縣也	-11.8413
在側	-11.8414
室中	-11.8415
畱	-11.8415
矯制	-11.8417
發憤	-11.8417
既還	-11.8419
慰撫	-11.8419
亦已	-11.842
奉元	-11.842
上言曰	-11.8421
致仕卒	-11.8421
洛州刺史	-11.8422
漢唐	-11.8422
居多	-11.8423
遂致	-11.8424
曰此非	-11.8424
直抵	-11.8424
共工	-11.8425
汴人	-11.8427
遂安	-11.8428
七百七十	-11.8428
提舉一員	-11.8429
西郊	-11.8431
之例	-11.8431
長壽	-11.8431
臨江王	-11.8431
大定二年	-11.8431
中選	-11.8431
四千九百	-11.8432
字道	-11.8433
証	-11.8433
莊王	-11.8435
相類	-11.8435
辛巳以	-11.8435
悆	-11.8437
覊	-11.8437
為左僕射	-11.8438
宕	-11.8438
劓	-11.8438
縂	-11.8439
義旗	-11.8439
發哀	-11.8439
四廟	-11.8439
椘	-11.8439
錐	-11.8439
窄	-11.844
賜鈔	-11.844
上書告	-11.8441
天書	-11.8442
溱	-11.8442
餼	-11.8444
退行	-11.8444
几杖	-11.8444
纊	-11.8444
縈	-11.8444
渇	-11.8444
儷	-11.8445
加元服	-11.8445
戰船	-11.8445
捜	-11.8445
徽猷閣待制	-11.8446
宋元嘉	-11.8446
瘁	-11.8448
聞命	-11.8448
丹墀	-11.8449
猪	-11.8449
尺八寸	-11.845
夬	-11.8451
破敵	-11.8451
三十餘萬	-11.8451
何患	-11.8452
皆罷	-11.8452
糧道	-11.8453
有父風	-11.8453
少好	-11.8453
諒祚	-11.8454
世勣	-11.8455
十一月甲子	-11.8456
汲郡	-11.8456
朱滔	-11.8457
坐免官	-11.8457
嗣君	-11.8459
班氏	-11.846
奔赴	-11.846
左衞將軍	-11.846
北面行營	-11.8461
招納	-11.8462
髙年	-11.8462
波斯	-11.8462
濟南王	-11.8463
本屬	-11.8465
繫之	-11.8466
安敢	-11.8466
鳳皇	-11.8467
爵禄	-11.8467
音直	-11.8468
冊命	-11.8468
衛輝	-11.847
里中	-11.847
帶甲	-11.8471
虞候	-11.8472
去日	-11.8472
選擇	-11.8475
哀毁	-11.8476
定星	-11.8476
供養	-11.8477
阻兵	-11.8478
博物	-11.8478
所食	-11.8479
甚謹	-11.848
希亮	-11.8481
此地	-11.8481
壬子以	-11.8481
孝綽	-11.8481
謂所親曰	-11.8482
閔帝	-11.8483
過度	-11.8484
貞觀二年	-11.8484
聲聞	-11.8485
海南	-11.8486
頃者	-11.8486
澧州	-11.8486
半年	-11.8487
逆賊	-11.8487
勤於	-11.8488
緣邊	-11.8488
出迎	-11.849
休祐	-11.8491
庚辰以	-11.8491
逆謀	-11.8491
加兼侍中	-11.8492
地動	-11.8492
孝敬	-11.8494
晉武帝太康	-11.8494
大振	-11.8494
君親	-11.8495
并天下	-11.8496
何休	-11.8498
字作	-11.8499
水土	-11.8501
昭逺	-11.8501
二十三日	-11.8503
閨門	-11.8506
隨父	-11.8506
不懌	-11.8507
方色	-11.8507
任重	-11.8507
禁斷	-11.8507
行賞	-11.8508
有尾跡	-11.8509
居前	-11.8511
公仲	-11.8512
百餘日	-11.8513
何時	-11.8514
末限	-11.8515
以付	-11.8515
被殺	-11.8517
左道	-11.8518
羣議	-11.8519
難當	-11.8522
房州	-11.8524
成徳軍	-11.8524
魯元	-11.8525
忘其	-11.8526
譜一卷	-11.8526
忠誠	-11.8527
自居	-11.8527
從其言	-11.8528
思禮	-11.8529
特命	-11.8531
譬如	-11.8531
灊	-11.8532
兵食	-11.8533
崈	-11.8534
還宮	-11.8534
闘	-11.8535
捄	-11.8535
同州刺史	-11.8536
松江	-11.8536
食肉	-11.8536
二百石	-11.8536
目錄	-11.8536
黃門侍郎	-11.8536
所掌	-11.8536
所侵	-11.8536
警蹕	-11.8537
邊城	-11.8537
輝和爾	-11.8537
繖扇	-11.8538
改用	-11.8538
贑	-11.8539
青苖	-11.854
晉天福	-11.8541
天平軍節度使	-11.8541
祇候	-11.8541
大海	-11.8541
寄治	-11.8544
直集賢院	-11.8544
南豫州	-11.8545
鄂岳	-11.8546
道德	-11.8546
後來	-11.8547
忌日	-11.8547
百餘家	-11.8547
帑藏	-11.8547
二篇	-11.855
三百石	-11.8551
張邦昌	-11.8552
賢而	-11.8552
沮渠	-11.8552
文明太后	-11.8553
六員	-11.8554
任城王	-11.8554
閶闔	-11.8554
路安撫使	-11.8554
湣公	-11.8555
劉守光	-11.8555
持之	-11.8555
字之訛	-11.8557
決於	-11.8557
天輔	-11.8558
凡二十	-11.8558
三品已上	-11.8558
每一	-11.8559
河津	-11.8561
所獻	-11.8563
又論	-11.8564
金使	-11.8564
上謁	-11.8565
有文集	-11.8565
司命	-11.8567
蠲除	-11.8568
禁旅	-11.8568
庶姓	-11.8568
三年一	-11.8569
巴州	-11.8569
金寳	-11.8569
分半	-11.857
海軍節度使	-11.857
檢察	-11.8571
兵二萬	-11.8571
西向立	-11.8572
惑衆	-11.8574
仁聖	-11.8575
獲馬	-11.8575
抗表	-11.8579
及餘秒	-11.8579
巴圖爾	-11.8581
詔中外	-11.8582
子孝	-11.8582
鄧通	-11.8583
廵幸	-11.8583
武勇	-11.8583
叅議	-11.8585
一萬五千	-11.8586
玉冊	-11.8589
漢水	-11.8589
藩臣	-11.8589
餘石	-11.8593
夏后	-11.8594
梁將	-11.8595
嘗問	-11.8597
陳武帝	-11.8598
内郡	-11.8599
熙載	-11.86
不朝	-11.8601
剛中	-11.8601
[...]
