<unk>	0
<s>	0
</s>	0
之	-4.19135
也	-4.56912
以	-4.76106
而	-4.77276
為	-4.83602
者	-5.06887
有	-5.08746
/	-5.09392
曰	-5.23094
(	-5.23371
其	-5.3461
)	-5.41979
則	-5.44092
於	-5.54962
不	-5.59062
一	-5.60172
人	-5.61487
與	-5.86518
無	-5.89332
子	-5.91731
至	-5.9274
上	-5.93954
中	-5.94233
如	-5.94461
大	-5.96864
自	-5.97407
云	-6.01453
言	-6.02702
故	-6.04566
皆	-6.05381
作	-6.06227
此	-6.09982
時	-6.11645
王	-6.1301
矣	-6.16434
見	-6.16755
在	-6.17387
書	-6.18123
公	-6.21112
用	-6.25154
出	-6.26854
乃	-6.26859
下	-6.27442
又	-6.27741
行	-6.28204
字	-6.29976
亦	-6.31253
得	-6.32368
事	-6.34499
所	-6.34978
非	-6.35374
)(	-6.36021
生	-6.36321
三	-6.36536
是	-6.38329
謂	-6.38906
名	-6.40011
即	-6.42708
今	-6.43501
後	-6.44137
然	-6.44857
詩	-6.4524
于	-6.45573
水	-6.45623
文	-6.46148
及	-6.50241
山	-6.5133
二	-6.54578
入	-6.56204
若	-6.579
天	-6.58665
相	-6.591
道	-6.59807
多	-6.60526
使	-6.61037
可	-6.61444
傳	-6.64187
乎	-6.6427
▁	-6.64428
日	-6.64573
爲	-6.65092
當	-6.67948
石	-6.68003
正	-6.6822
知	-6.69568
官	-6.70069
明	-6.70488
方	-6.71371
同	-6.72166
令	-6.72866
成	-6.73911
耳	-6.75654
欲	-6.79786
或	-6.80607
心	-6.81386
家	-6.81737
因	-6.82713
已	-6.82768
取	-6.82869
去	-6.82918
從	-6.83814
本	-6.84969
長	-6.85007
小	-6.85632
君	-6.87963
遂	-6.90017
必	-6.90802
/)	-6.91671
四	-6.92113
音	-6.93221
法	-6.93342
雖	-6.93478
張	-6.93916
李	-6.9415
金	-6.94346
能	-6.95108
復	-6.9575
將	-6.96111
前	-6.96252
五	-6.96334
命	-6.98534
元	-6.99029
馬	-6.99332
來	-6.99413
地	-6.99563
國	-6.99833
臣	-6.99859
白	-7.00333
重	-7.00625
立	-7.011
焉	-7.01236
通	-7.04921
何	-7.05189
數	-7.05595
風	-7.05988
先	-7.06099
古	-7.06991
過	-7.08381
居	-7.08641
花	-7.08783
食	-7.09544
合	-7.0974
分	-7.09812
門	-7.09867
歸	-7.11194
夫	-7.11243
稱	-7.11629
處	-7.11651
以為	-7.11922
民	-7.1232
未	-7.13262
兩	-7.1334
我	-7.1458
神	-7.14667
語	-7.14823
始	-7.15158
氣	-7.15402
州	-7.15541
初	-7.15813
常	-7.16099
唐	-7.16163
陳	-7.17074
經	-7.17487
周	-7.1764
安	-7.17693
猶	-7.17855
死	-7.17884
問	-7.17895
善	-7.18554
世	-7.18835
髙	-7.18921
惟	-7.1908
易	-7.20311
間	-7.21562
盡	-7.21607
平	-7.21722
主	-7.2224
諸	-7.22551
玉	-7.23066
物	-7.23066
漢	-7.2372
意	-7.23998
論	-7.24167
樂	-7.2448
黄	-7.24794
酒	-7.25145
謂之	-7.25235
起	-7.25391
禮	-7.25472
且	-7.26624
實	-7.26993
不可	-7.27185
師	-7.27659
六	-7.28301
既	-7.28348
南	-7.28379
學	-7.28918
内	-7.29126
聞	-7.29263
月	-7.29702
等	-7.2972
兵	-7.30359
注	-7.30438
聲	-7.30997
陽	-7.31296
清	-7.31394
身	-7.31481
西	-7.31655
甚	-7.31802
少	-7.32026
宋	-7.32089
外	-7.3263
吾	-7.32834
好	-7.32853
觀	-7.33137
集	-7.33197
凡	-7.33278
天下	-7.33868
木	-7.3404
士	-7.34163
義	-7.34227
九	-7.34257
治	-7.34974
直	-7.35159
和	-7.35219
帝	-7.35323
劉	-7.35651
引	-7.35791
服	-7.3586
城	-7.36025
守	-7.36045
定	-7.3688
記	-7.36959
不能	-7.37638
火	-7.38207
東	-7.38794
宜	-7.39776
舉	-7.40593
龍	-7.4065
獨	-7.41382
發	-7.4199
氏	-7.42859
真	-7.43141
深	-7.43446
節	-7.43998
坐	-7.45194
老	-7.45568
進	-7.45717
求	-7.46046
縣	-7.46447
請	-7.46641
土	-7.46868
新	-7.46889
應	-7.46895
年	-7.47156
思	-7.47225
朝	-7.48215
齊	-7.48448
開	-7.48485
色	-7.48519
頭	-7.48606
光	-7.48799
雲	-7.49275
反	-7.49676
志	-7.49937
春	-7.50116
按	-7.50229
似	-7.51685
秦	-7.51705
香	-7.52535
女	-7.52813
錢	-7.53321
逺	-7.53904
信	-7.54009
哉	-7.54369
近	-7.54763
置	-7.54999
各	-7.55135
制	-7.55982
説	-7.56144
對	-7.56677
畫	-7.57156
蓋	-7.57754
衣	-7.57901
尚	-7.58202
但	-7.58366
徳	-7.58382
北	-7.58575
載	-7.58614
口	-7.58786
草	-7.58877
封	-7.59616
極	-7.5973
難	-7.59881
解	-7.60068
次	-7.60111
更	-7.60233
晉	-7.60335
不知	-7.60554
所謂	-7.60801
首	-7.61193
宫	-7.61804
止	-7.6213
青	-7.62205
葢	-7.62215
如此	-7.62711
理	-7.6276
軍	-7.62825
流	-7.63069
魚	-7.63125
爾	-7.63197
史	-7.63628
異	-7.63931
切	-7.64191
度	-7.64195
别	-7.64267
加	-7.64288
親	-7.64553
夜	-7.64922
予	-7.64941
嘗	-7.64979
衆	-7.65315
失	-7.65437
十	-7.65704
八	-7.65779
受	-7.66279
田	-7.66623
趙	-7.66926
父	-7.67279
絶	-7.67522
改	-7.67693
賦	-7.68177
江	-7.68308
所以	-7.68351
每	-7.68503
都	-7.68581
體	-7.68924
變	-7.69133
七	-7.69227
章	-7.69314
足	-7.69467
而不	-7.69779
客	-7.70839
卒	-7.71436
圖	-7.7148
望	-7.71622
高	-7.72037
亂	-7.72703
華	-7.72721
伯	-7.73068
廣	-7.73175
舊	-7.73257
固	-7.73362
著	-7.7338
還	-7.73486
武	-7.73625
手	-7.73983
興	-7.74007
竹	-7.74188
余	-7.7422
賜	-7.74336
利	-7.74975
指	-7.75315
河	-7.7535
任	-7.75367
葉	-7.75383
耶	-7.76693
楊	-7.76702
海	-7.77181
百	-7.7746
德	-7.77778
勝	-7.78011
力	-7.78218
終	-7.78371
吏	-7.78821
目	-7.7889
殺	-7.79366
奏	-7.79871
盖	-7.80245
修	-7.80569
疑	-7.80615
便	-7.80664
府	-7.80792
不得	-7.80863
梁	-7.81172
致	-7.81303
㑹	-7.8172
並	-7.81794
侯	-7.82607
車	-7.82645
母	-7.82794
益	-7.82802
聖	-7.83079
精	-7.83168
類	-7.83312
魏	-7.83394
仁	-7.84026
貴	-7.84168
俱	-7.84182
位	-7.8427
惡	-7.84578
病	-7.84584
雨	-7.85264
宗	-7.85346
政	-7.86046
拜	-7.86235
孫	-7.8631
動	-7.86374
餘	-7.86608
視	-7.86854
號	-7.87247
議	-7.87371
筆	-7.87756
詔	-7.87832
右	-7.87912
許	-7.8813
隂	-7.88635
辭	-7.89003
象	-7.89193
鄭	-7.89291
秋	-7.89361
紅	-7.8942
化	-7.8998
豈	-7.89989
遇	-7.90144
盛	-7.90326
林	-7.90382
謝	-7.90926
郡	-7.90989
樹	-7.91125
比	-7.91318
輕	-7.91591
果	-7.91606
星	-7.92046
楚	-7.92272
賢	-7.92384
左	-7.92403
屬	-7.92427
俗	-7.92564
曲	-7.92618
夏	-7.92669
亡	-7.92732
隨	-7.92769
飛	-7.92772
吳	-7.92808
祖	-7.92837
除	-7.92964
者也	-7.93196
具	-7.9375
要	-7.93848
莫	-7.93855
美	-7.93998
形	-7.94017
可以	-7.94267
說	-7.94913
空	-7.94956
建	-7.95114
卿	-7.95203
計	-7.95253
朱	-7.95432
萬	-7.95547
功	-7.95825
詩云	-7.95857
奉	-7.96049
寺	-7.96096
寒	-7.96147
設	-7.96202
就	-7.9649
題	-7.96569
讀	-7.9707
喜	-7.97587
兼	-7.98292
考	-7.98324
牛	-7.98613
共	-7.98773
臺	-7.98938
疾	-7.9907
是也	-7.99139
飲	-7.99199
紀	-7.99201
路	-7.99228
廟	-7.99232
殿	-7.99525
送	-7.99617
性	-7.99743
先生	-7.99974
胡	-7.99997
御	-8.00012
素	-8.00182
造	-8.00277
堂	-8.00354
由	-8.00793
歌	-8.01461
臨	-8.01575
厚	-8.01601
教	-8.01883
僧	-8.02271
表	-8.02339
嵗	-8.02421
代	-8.02427
末	-8.02439
藏	-8.02627
録	-8.02791
靈	-8.02811
景	-8.02819
留	-8.03012
半	-8.0316
尊	-8.03275
一日	-8.03606
召	-8.03701
司	-8.03745
再	-8.03992
交	-8.04093
面	-8.04378
情	-8.04584
散	-8.04633
徐	-8.04861
向	-8.04902
呼	-8.05237
持	-8.0547
闕	-8.05484
適	-8.0558
降	-8.06235
墨	-8.06382
轉	-8.06501
連	-8.07171
燕	-8.07241
誤	-8.07282
卷	-8.07389
遊	-8.07827
刻	-8.08013
敬	-8.08059
全	-8.08309
收	-8.08319
仲	-8.08386
細	-8.08478
原	-8.08564
工	-8.089
竒	-8.09077
汝	-8.09125
序	-8.09228
夢	-8.09269
微	-8.09382
春秋	-8.09735
落	-8.09787
須	-8.10067
識	-8.10374
滿	-8.10454
孔子	-8.10569
才	-8.106
叔	-8.10837
而已	-8.10932
遺	-8.1095
仙	-8.11167
布	-8.11242
天子	-8.11271
顧	-8.11295
篇	-8.11739
恐	-8.11904
種	-8.11962
執	-8.1226
陵	-8.12406
登	-8.12426
告	-8.12561
備	-8.12562
姓	-8.12652
祭	-8.12751
獻	-8.1284
忽	-8.12859
虎	-8.12932
承	-8.12956
往	-8.13103
尤	-8.13142
商	-8.1328
魯	-8.13366
器	-8.13509
彼	-8.13682
容	-8.13743
誠	-8.13964
斷	-8.14069
藥	-8.14094
湯	-8.14387
養	-8.14664
嚴	-8.14681
韓	-8.15101
試	-8.16024
破	-8.16212
省	-8.16708
宣	-8.16798
列	-8.16821
詞	-8.17284
被	-8.17297
智	-8.173
權	-8.17428
簡	-8.17533
放	-8.1783
衛	-8.18007
結	-8.1812
據	-8.18243
良	-8.18275
特	-8.18445
忠	-8.18545
𤣥	-8.18556
雜	-8.18598
愛	-8.18669
某	-8.1887
調	-8.18964
院	-8.19047
推	-8.19175
久	-8.19372
邪	-8.19495
薄	-8.19615
遷	-8.19901
三年	-8.20107
謀	-8.20113
敗	-8.20243
乾	-8.20414
離	-8.20468
廢	-8.20686
角	-8.2108
孝	-8.21327
伏	-8.21615
寳	-8.22006
曹	-8.22037
野	-8.22157
亭	-8.22161
罪	-8.22369
羅	-8.22442
兒	-8.22684
苦	-8.22861
并	-8.2287
赤	-8.22933
務	-8.23211
刑	-8.24404
印	-8.24796
室	-8.25181
順	-8.25219
甲	-8.25272
越	-8.2536
傷	-8.25411
存	-8.25455
寧	-8.2556
碑	-8.25586
遣	-8.25658
茶	-8.25726
悉	-8.25893
鬼	-8.25902
𫝊	-8.25951
紫	-8.26279
積	-8.26289
冠	-8.26321
報	-8.26478
郎	-8.26489
君子	-8.26936
禁	-8.27158
授	-8.27158
移	-8.27191
不敢	-8.27236
急	-8.27406
唯	-8.2756
宿	-8.27921
私	-8.27987
尚書	-8.28072
杜	-8.28561
賞	-8.28631
當時	-8.28645
紙	-8.28661
達	-8.28782
熟	-8.2882
太	-8.28843
賊	-8.29018
幸	-8.29196
蜀	-8.29458
毛	-8.29667
戰	-8.29801
鳥	-8.2988
之所	-8.30033
到	-8.30162
端	-8.30458
泉	-8.30691
部	-8.30847
鄉	-8.30878
聽	-8.31285
斯	-8.31473
左右	-8.31549
諸侯	-8.31634
選	-8.31672
佛	-8.31756
帶	-8.31831
勢	-8.31905
昭	-8.32638
松	-8.32841
□	-8.33084
后	-8.33089
窮	-8.33662
疏	-8.33808
補	-8.33912
古人	-8.33918
撰	-8.33999
市	-8.34457
質	-8.34656
澤	-8.34825
邊	-8.34956
最	-8.35082
差	-8.35244
沈	-8.35383
句	-8.35436
銀	-8.35479
掌	-8.35581
骨	-8.35604
雪	-8.35684
徒	-8.35799
之後	-8.36011
恩	-8.36225
里	-8.3624
辨	-8.36347
退	-8.36388
儀	-8.36438
戒	-8.36455
米	-8.36472
罷	-8.36494
律	-8.3654
滅	-8.36553
二年	-8.36804
職	-8.36912
約	-8.37303
千	-8.37526
率	-8.3753
納	-8.3756
韻	-8.37616
又曰	-8.37943
羣	-8.38026
鳴	-8.38318
他	-8.38357
濟	-8.384
殊	-8.38434
巳	-8.38509
皮	-8.38511
延	-8.3856
典	-8.38581
折	-8.39026
樓	-8.39115
威	-8.39702
浮	-8.39925
肉	-8.39938
期	-8.3996
陸	-8.40047
待	-8.40084
附	-8.40105
味	-8.40148
依	-8.40184
永	-8.40309
根	-8.40445
怒	-8.40457
烏	-8.40563
羊	-8.40642
運	-8.40701
蘇	-8.40781
釋	-8.4082
射	-8.40966
施	-8.41058
畢	-8.41339
仍	-8.41561
閣	-8.41591
亦有	-8.41626
負	-8.41896
大夫	-8.42165
崇	-8.42322
歴	-8.42435
於是	-8.42469
案	-8.42573
頗	-8.4264
舍	-8.42677
笑	-8.42894
福	-8.43311
鼎	-8.43351
只	-8.43509
珠	-8.43644
堅	-8.4369
聖人	-8.43736
博	-8.43759
顯	-8.43816
舟	-8.43832
之言	-8.43935
業	-8.44005
虚	-8.44354
却	-8.44407
十二	-8.44461
强	-8.44555
不同	-8.44576
照	-8.44872
齋	-8.44902
故曰	-8.44951
妻	-8.45006
皇	-8.45385
假	-8.45407
妙	-8.45415
舞	-8.45826
孟	-8.45891
背	-8.45924
帖	-8.45976
勞	-8.46042
吉	-8.46332
游	-8.46555
升	-8.46561
昔	-8.46564
保	-8.46656
寄	-8.46919
池	-8.47062
垂	-8.47332
伐	-8.4739
屋	-8.47487
聚	-8.47554
孔	-8.47574
訓	-8.47822
冬	-8.47951
英	-8.48055
贈	-8.4807
邑	-8.48109
感	-8.48132
乞	-8.4823
雅	-8.48293
擊	-8.48327
覆	-8.48331
幾	-8.48388
之意	-8.48394
夫人	-8.48509
至於	-8.48619
習	-8.48886
一人	-8.48915
祀	-8.49207
又有	-8.49612
愈	-8.49706
露	-8.49869
追	-8.49925
醉	-8.49976
鹽	-8.50028
尾	-8.50202
願	-8.5028
不足	-8.50403
虞	-8.50543
婦	-8.50635
避	-8.50684
符	-8.50771
索	-8.50796
勿	-8.50827
參	-8.50975
申	-8.50976
條	-8.51007
温	-8.51025
投	-8.51101
為之	-8.51196
狀	-8.51319
息	-8.51388
寶	-8.51589
兮	-8.51721
沙	-8.51721
溪	-8.51769
丹	-8.51922
品	-8.51955
之事	-8.52221
元年	-8.52529
采	-8.52557
翻	-8.52954
詳	-8.5312
覺	-8.53302
昌	-8.53444
第	-8.53468
朝廷	-8.53552
尋	-8.53567
東坡	-8.54215
懐	-8.54266
季	-8.54305
鎮	-8.54526
接	-8.54558
絲	-8.54624
羽	-8.5472
格	-8.54731
總	-8.54782
營	-8.55016
害	-8.5506
眼	-8.55075
誅	-8.55096
呉	-8.55108
井	-8.55309
夷	-8.55525
丘	-8.55626
歲	-8.55627
宰相	-8.55659
園	-8.55735
之類	-8.55853
無所	-8.55871
孤	-8.55871
念	-8.55904
逆	-8.55941
郭	-8.55989
舜	-8.56151
稍	-8.56172
刺	-8.56265
弗	-8.56404
漸	-8.56457
塞	-8.56532
梅	-8.56591
繼	-8.56673
免	-8.56685
詩曰	-8.56773
天地	-8.56872
乗	-8.56894
枝	-8.56936
人之	-8.57011
雄	-8.57053
給	-8.57087
房	-8.57169
虛	-8.57195
候	-8.57285
然後	-8.574
管	-8.57444
關	-8.57517
盧	-8.57602
未嘗	-8.5762
吕	-8.57702
史記	-8.57761
憂	-8.57796
之間	-8.57942
畧	-8.58019
宅	-8.58093
監	-8.58577
看	-8.586
銅	-8.58753
怨	-8.58762
榮	-8.58834
禍	-8.58835
横	-8.59214
危	-8.59309
偶	-8.59716
鼓	-8.59816
将	-8.59918
錄	-8.59938
幽	-8.60026
洞	-8.602
寫	-8.60594
隠	-8.60795
攻	-8.60884
曽	-8.60901
闗	-8.60914
察	-8.60943
迎	-8.61179
敵	-8.61282
獲	-8.61372
專	-8.6172
乘	-8.6172
短	-8.61825
谷	-8.61856
也故	-8.61953
曰此	-8.61992
驚	-8.62014
嘉	-8.6243
哀	-8.62512
雞	-8.62627
借	-8.62711
領	-8.62735
阿	-8.62802
休	-8.62852
而後	-8.63064
科	-8.63073
雙	-8.63261
龜	-8.63409
慶	-8.63434
友	-8.63528
薦	-8.63714
畏	-8.63771
爭	-8.63908
丁	-8.64
班	-8.64091
川	-8.64222
人也	-8.64244
蒙	-8.64405
充	-8.64564
禹	-8.64607
翁	-8.6462
弟	-8.64715
盤	-8.6485
蔡	-8.65026
厯	-8.65454
琴	-8.65672
喪	-8.65724
其後	-8.65762
暴	-8.65833
累	-8.65854
衰	-8.66189
橋	-8.66194
不如	-8.66235
愚	-8.66369
夀	-8.66371
不及	-8.66408
咸	-8.66441
富	-8.66457
圓	-8.66467
逐	-8.66547
談	-8.66799
隱	-8.66823
恭	-8.66955
例	-8.66995
責	-8.67006
来	-8.67155
宻	-8.67183
惠	-8.67208
不見	-8.67314
逸	-8.67472
范	-8.67737
毎	-8.67946
崔	-8.68127
竊	-8.68212
棄	-8.68247
殷	-8.68465
編	-8.68517
熱	-8.68531
戲	-8.68653
回	-8.68713
户	-8.68779
是以	-8.68832
犯	-8.69163
蘭	-8.69184
患	-8.69541
丞相	-8.69766
席	-8.69798
己	-8.69831
走	-8.69898
將軍	-8.70079
堯	-8.7017
支	-8.7023
學士	-8.70562
江南	-8.70593
姑	-8.70676
忘	-8.70687
程	-8.70818
怪	-8.7089
履	-8.70939
僕	-8.71085
又云	-8.71206
甘	-8.71308
壁	-8.71321
諱	-8.71599
太宗	-8.71682
祠	-8.71835
孟子	-8.71903
於此	-8.71995
京	-8.72137
顔	-8.72154
蕭	-8.72156
早	-8.7226
會	-8.72286
誰	-8.72326
中有	-8.7237
資	-8.72525
術	-8.72656
忌	-8.72732
慮	-8.72904
妄	-8.73161
步	-8.73274
謹	-8.73317
曾	-8.73494
其所	-8.73627
族	-8.73658
船	-8.73676
籍	-8.73693
㣲	-8.73821
秀	-8.7404
爵	-8.74115
閒	-8.74172
陰	-8.74245
材	-8.74247
京師	-8.74253
杖	-8.74384
血	-8.74696
㸃	-8.74735
曰吾	-8.74815
克	-8.75071
蟲	-8.75219
刀	-8.75275
庭	-8.75311
續	-8.75455
兄	-8.75558
竟	-8.75577
然則	-8.76048
宴	-8.76073
示	-8.76263
錦	-8.76396
操	-8.764
巧	-8.76409
略	-8.76564
壽	-8.76612
文章	-8.7683
太祖	-8.76907
湖	-8.76985
有所	-8.77017
麗	-8.77098
後世	-8.77316
弱	-8.77844
栁	-8.77856
影	-8.77922
鶴	-8.7823
未有	-8.78321
審	-8.78366
古今	-8.7847
辟	-8.78499
一名	-8.78529
屈	-8.7854
以爲	-8.78857
不復	-8.78989
􁀙	-8.79134
量	-8.79261
儒	-8.79377
者皆	-8.79601
太子	-8.79727
旁	-8.79775
進士	-8.79864
損	-8.80085
輒	-8.80088
干	-8.80089
波	-8.80432
斗	-8.80527
否	-8.80529
均	-8.80531
之法	-8.80534
恨	-8.80555
騎	-8.8062
齒	-8.80636
懼	-8.80822
諫	-8.81004
之地	-8.81076
漢書	-8.81079
乆	-8.81171
寛	-8.81223
不為	-8.81283
鐵	-8.81807
也今	-8.81808
貫	-8.81866
何以	-8.81953
偏	-8.82009
陛下	-8.82066
懷	-8.82209
圍	-8.8229
縱	-8.8237
况	-8.82406
黒	-8.82441
機	-8.82522
韋	-8.82661
卦	-8.82667
二字	-8.82711
勸	-8.82837
之説	-8.82967
戴	-8.83018
賈	-8.83039
豐	-8.83111
赴	-8.83158
救	-8.83286
侍	-8.83527
泥	-8.83983
䇿	-8.84015
輔	-8.84183
亦不	-8.84224
歳	-8.84349
擇	-8.84608
四年	-8.84671
役	-8.8479
述	-8.84963
陶	-8.85061
社	-8.85324
密	-8.85325
飯	-8.85358
康	-8.85577
館	-8.85714
貧	-8.85784
言之	-8.86166
環	-8.86175
衡	-8.86218
徃	-8.86367
朕	-8.864
費	-8.8642
製	-8.86437
財	-8.86447
蛇	-8.86471
尺	-8.8656
莊	-8.86665
敢	-8.86791
側	-8.8692
葬	-8.86977
洗	-8.87204
占	-8.87208
徑	-8.87406
之名	-8.87476
之時	-8.88
之義	-8.88003
太守	-8.8821
繫	-8.88535
謁	-8.88616
學者	-8.8873
統	-8.88836
必有	-8.88888
飾	-8.88999
其事	-8.89019
雷	-8.89069
曉	-8.89089
用之	-8.89257
訪	-8.89361
之人	-8.8942
甫	-8.89567
増	-8.89623
黃	-8.89695
而無	-8.89702
五年	-8.89702
塵	-8.89743
碧	-8.89769
懸	-8.89859
婦人	-8.89976
揚	-8.90056
牙	-8.90197
之士	-8.90293
桑	-8.90359
緑	-8.90388
辯	-8.90419
賀	-8.9051
兄弟	-8.90627
佳	-8.90799
遠	-8.91179
淺	-8.91241
鍾	-8.91326
悲	-8.91338
之道	-8.91506
隋	-8.91645
賤	-8.91702
希	-8.91843
講	-8.91884
使人	-8.91944
冷	-8.92026
慎	-8.92168
獄	-8.92205
供	-8.92397
輩	-8.92414
殆	-8.92435
二十	-8.9244
御史	-8.92483
佐	-8.92572
茍	-8.92684
墓	-8.92786
庶	-8.92838
粉	-8.93157
子孫	-8.93175
二人	-8.93323
維	-8.93407
純	-8.93481
叙	-8.93483
詣	-8.93486
一時	-8.94016
出於	-8.94087
革	-8.94211
速	-8.94221
燒	-8.94253
㫖	-8.9444
巨	-8.94509
奪	-8.94671
啓	-8.94685
荒	-8.94836
以此	-8.95111
周公	-8.95125
薛	-8.95298
戎	-8.95536
,	-8.95541
茂	-8.95546
源	-8.95614
皆有	-8.95633
招	-8.95665
寢	-8.95757
眀	-8.95787
隆	-8.95793
助	-8.95883
注云	-8.96291
可謂	-8.96545
父母	-8.96643
駕	-8.96664
缺	-8.96845
洪	-8.96922
底	-8.9695
黑	-8.96961
醫	-8.96999
菜	-8.97037
傾	-8.97134
含	-8.97622
百姓	-8.97643
文王	-8.97671
之中	-8.97696
循	-8.97786
不過	-8.97818
泰	-8.97845
洛	-8.97917
答	-8.9797
郊	-8.98156
效	-8.9819
奴	-8.98194
了	-8.9833
以來	-8.98345
繁	-8.98411
抱	-8.98746
決	-8.98749
不以	-8.9876
天下之	-8.98874
其子	-8.98892
驗	-8.99039
千里	-8.99051
卜	-8.99076
貪	-8.99207
振	-8.9946
殘	-8.99462
油	-8.99547
其人	-8.99691
淵	-8.99773
産	-8.9988
貢	-9.00196
征	-9.00242
後人	-9.00263
小人	-9.00271
鹿	-9.00288
傅	-9.00331
今日	-9.0034
毒	-9.00346
至今	-9.00467
得之	-9.00598
决	-9.00777
仰	-9.00818
消	-9.00893
卑	-9.01012
憲	-9.01054
偽	-9.01076
塗	-9.01077
奔	-9.01155
眞	-9.01249
不用	-9.01295
像	-9.01305
採	-9.01345
獸	-9.01348
上下	-9.01483
對曰	-9.01573
買	-9.01624
逢	-9.01691
唐人	-9.01694
勇	-9.01702
詠	-9.01719
大臣	-9.01722
故事	-9.0179
倚	-9.02074
式	-9.02375
肅	-9.02629
穴	-9.02841
卧	-9.02988
讓	-9.03032
註	-9.03037
麻	-9.03085
痛	-9.03165
烟	-9.03205
硯	-9.03305
嗣	-9.0346
寵	-9.03478
辰	-9.0353
周禮	-9.03551
徴	-9.0356
十年	-9.03643
遽	-9.03687
壯	-9.03714
妾	-9.03798
渠	-9.03817
肥	-9.03853
讀書	-9.0396
委	-9.04002
旣	-9.04006
潤	-9.04069
燈	-9.04135
帥	-9.04289
剛	-9.04316
以下	-9.04362
毁	-9.04482
歎	-9.04534
有一	-9.04675
也夫	-9.04695
貞	-9.04783
長安	-9.04878
縁	-9.04969
足以	-9.04974
霜	-9.04993
託	-9.05125
晚	-9.05197
諭	-9.05248
日月	-9.05306
脩	-9.05364
董	-9.05451
局	-9.05471
司馬	-9.05478
耕	-9.05482
違	-9.0551
翼	-9.05635
争	-9.05735
馮	-9.06037
脚	-9.06079
三月	-9.06094
震	-9.06152
腹	-9.06209
歩	-9.06226
知其	-9.06252
介	-9.06416
旋	-9.06459
隔	-9.06493
彦	-9.06548
其言	-9.06619
旦	-9.0662
三日	-9.06659
僅	-9.06664
鳳	-9.06705
勤	-9.06769
襲	-9.06894
翠	-9.07029
第一	-9.07108
策	-9.07125
萬物	-9.0715
以上	-9.07281
誦	-9.07307
也又	-9.07454
尹	-9.07544
桃	-9.0782
柔	-9.07852
賣	-9.07927
額	-9.07947
牧	-9.08081
險	-9.08084
不必	-9.08242
愁	-9.08267
桂	-9.08364
配	-9.08398
皇帝	-9.08404
自然	-9.08878
裏	-9.08928
見之	-9.08958
農	-9.0897
頌	-9.09074
而去	-9.09107
鏡	-9.09114
銘	-9.09181
擬	-9.09213
巖	-9.09289
朔	-9.09381
禪	-9.0952
二句	-9.09587
辱	-9.09654
文字	-9.09672
村	-9.09688
自是	-9.09779
鳯	-9.09829
子曰	-9.09861
鑄	-9.09864
妃	-9.09987
脱	-9.10101
預	-9.10239
倉	-9.10418
欽定四庫全書	-9.10451
不然	-9.10635
午	-9.10642
規	-9.10688
趨	-9.10697
徙	-9.10794
奇	-9.10799
烈	-9.10804
防	-9.10804
宮	-9.10818
徵	-9.11262
吹	-9.11536
三十	-9.11547
錯	-9.11597
之子	-9.11923
貌	-9.12004
校	-9.12347
盜	-9.12458
屏	-9.1246
侵	-9.12505
悟	-9.12772
覽	-9.12819
屢	-9.12918
侍郎	-9.12926
燭	-9.1299
困	-9.13073
鐘	-9.13217
譜	-9.13228
界	-9.13255
斬	-9.13287
姬	-9.13309
副	-9.13313
優	-9.13415
如何	-9.13474
豆	-9.13507
磨	-9.13538
静	-9.13563
禄	-9.13653
柱	-9.13779
板	-9.13827
仕	-9.13828
祝	-9.13871
夕	-9.13954
昏	-9.13975
今之	-9.14085
聞之	-9.14269
判	-9.14307
削	-9.14343
罰	-9.14363
芳	-9.14458
厥	-9.14895
遲	-9.14912
植	-9.14913
士大夫	-9.14961
靜	-9.14976
錫	-9.15124
凝	-9.15374
一作	-9.15384
價	-9.15434
盈	-9.155
肆	-9.15508
粟	-9.1567
蒼	-9.16144
公曰	-9.16174
庫	-9.16272
抑	-9.16286
扶	-9.16411
倒	-9.16453
没	-9.16472
謙	-9.16541
豪	-9.16546
住	-9.16579
穆	-9.1667
之文	-9.16719
不可以	-9.16788
俊	-9.16812
階	-9.16881
遵	-9.17149
境	-9.17231
頃	-9.17246
之上	-9.17268
鮮	-9.17315
超	-9.17318
寡	-9.17362
四方	-9.17379
六年	-9.17511
鑿	-9.17533
惜	-9.17605
減	-9.17671
閉	-9.17731
蒲	-9.18025
賔	-9.18079
漏	-9.18119
夫子	-9.1835
吟	-9.1838
邦	-9.18382
童	-9.18425
皆以	-9.18463
兹	-9.1855
慈	-9.18574
贊	-9.18816
享	-9.1882
蔽	-9.18874
迹	-9.19196
謬	-9.1928
祥	-9.19333
瓦	-9.19338
辛	-9.19341
疎	-9.19607
扇	-9.19625
之心	-9.19701
彌	-9.19769
輿	-9.19784
允	-9.20027
強	-9.2014
道士	-9.20174
掩	-9.20181
包	-9.20277
隂陽	-9.20411
證	-9.20458
活	-9.20565
弓	-9.20566
正月	-9.20599
有司	-9.20639
名曰	-9.20691
荆	-9.2102
見其	-9.21127
武帝	-9.21141
黨	-9.21191
珍	-9.21254
穿	-9.21393
非也	-9.21409
舒	-9.21467
黄帝	-9.21541
潔	-9.21757
乳	-9.21832
麥	-9.22013
築	-9.22216
本朝	-9.22268
染	-9.22299
狂	-9.22302
軒	-9.22428
古文	-9.2254
左傳	-9.22617
淫	-9.22622
毋	-9.22998
鄙	-9.23085
其中	-9.2323
之語	-9.23357
打	-9.23577
凶	-9.23585
煩	-9.23594
岸	-9.2365
裁	-9.23841
廷	-9.23895
灰	-9.23898
桓	-9.23964
以其	-9.23965
武王	-9.23995
漆	-9.24121
巾	-9.24193
得其	-9.24246
輪	-9.24293
姦	-9.24363
者為	-9.24397
歡	-9.24424
暗	-9.24427
激	-9.24488
裴	-9.24531
無不	-9.24663
从	-9.24764
國家	-9.24807
鼻	-9.25052
蒸	-9.2509
劍	-9.25177
基	-9.25211
沉	-9.25333
畜	-9.25431
弟子	-9.25526
遭	-9.2553
不當	-9.25695
忍	-9.25741
惑	-9.25854
逹	-9.25924
䕶	-9.25981
明日	-9.26
今人	-9.26047
儉	-9.26057
氷	-9.26264
片	-9.26292
柳	-9.2631
淮	-9.26344
宰	-9.26436
貨	-9.26596
厲	-9.26675
一曰	-9.26759
姚	-9.26789
歟	-9.26911
貶	-9.27026
袁	-9.27064
榖	-9.27168
矢	-9.27184
欺	-9.27535
其名	-9.27647
碎	-9.27669
欽	-9.27685
富貴	-9.27714
扵	-9.27829
或曰	-9.27855
浸	-9.27916
馳	-9.28038
不相	-9.28172
敎	-9.28218
寓	-9.28223
也然	-9.28231
員	-9.28392
亮	-9.28648
庸	-9.2865
十五	-9.28667
篆	-9.28762
東南	-9.28874
彈	-9.28966
啟	-9.28989
署	-9.29
哭	-9.29002
蠶	-9.29523
旗	-9.29613
宏	-9.2973
之外	-9.29745
勅	-9.2987
不言	-9.29925
玩	-9.2997
瑞	-9.30155
銜	-9.30225
頓	-9.3028
犬	-9.30288
餅	-9.30295
其實	-9.30491
囘	-9.30655
導	-9.30803
之說	-9.30833
傍	-9.30835
暮	-9.31062
有餘	-9.31091
撫	-9.3117
其家	-9.31224
藉	-9.3125
付	-9.31258
禽	-9.31303
雍	-9.31333
彭	-9.31426
焚	-9.31484
十三	-9.31538
一卷	-9.31597
糧	-9.31725
峯	-9.3175
古之	-9.31797
是時	-9.31818
一字	-9.31847
單	-9.31853
㡬	-9.3187
衍	-9.31873
後漢	-9.31887
五十	-9.319
諡	-9.31931
濕	-9.32005
慕	-9.32024
七年	-9.32069
者亦	-9.32124
數十	-9.32322
研	-9.32417
煙	-9.32504
脫	-9.32613
八月	-9.32755
知之	-9.32807
限	-9.32818
舎	-9.32922
鼔	-9.33272
束	-9.33332
往往	-9.33336
壇	-9.33478
敏	-9.33537
曰我	-9.3361
想	-9.33801
爾雅	-9.33875
提	-9.3401
吐	-9.34083
𨽻	-9.34108
增	-9.34111
孰	-9.34164
苑	-9.34166
鴻	-9.3421
取其	-9.34499
段	-9.34571
穀	-9.3458
藝	-9.34804
𢎞	-9.34818
書曰	-9.34985
衞	-9.35019
太后	-9.3525
觸	-9.35344
淡	-9.3535
父子	-9.35356
赦	-9.35464
倫	-9.3559
安得	-9.35613
頂	-9.35639
潛	-9.35812
前後	-9.36067
羣臣	-9.36282
勒	-9.36366
男	-9.3642
髪	-9.36425
座	-9.3649
晝	-9.36724
之制	-9.36811
沒	-9.36954
五月	-9.37019
唱	-9.37101
岳	-9.37115
弊	-9.37128
汁	-9.37157
項	-9.37159
煎	-9.37298
腰	-9.37329
況	-9.37365
塔	-9.37442
蜜	-9.37526
援	-9.37564
上有	-9.37731
喻	-9.37783
大小	-9.37807
襄	-9.37808
蕩	-9.3787
傳曰	-9.37974
吴	-9.38174
嶺	-9.38238
熊	-9.38249
尸	-9.38272
膏	-9.38383
狗	-9.38479
緩	-9.38543
巢	-9.38611
之下	-9.38613
逃	-9.388
枕	-9.38827
各有	-9.38888
宇	-9.38961
着	-9.38969
屯	-9.39096
者以	-9.391
時有	-9.39103
不肯	-9.39298
停	-9.39307
出入	-9.39321
雉	-9.39481
靡	-9.39542
坡	-9.39645
割	-9.39702
百官	-9.39795
之際	-9.39864
二月	-9.39956
囊	-9.39957
丸	-9.39997
驛	-9.40017
厭	-9.40096
完	-9.40133
皇后	-9.40177
輙	-9.403
趣	-9.40512
食之	-9.40518
叛	-9.40576
絃	-9.40581
斜	-9.4064
論語	-9.40727
也若	-9.40768
中書	-9.40791
左氏	-9.40958
葛	-9.40964
饑	-9.40983
䘮	-9.41034
堪	-9.41107
棗	-9.4118
仁宗	-9.41199
髙祖	-9.41232
者必	-9.41248
跡	-9.41258
絹	-9.41286
津	-9.41398
河南	-9.41593
徹	-9.417
渡	-9.41731
驅	-9.41766
較	-9.41768
開元	-9.4179
督	-9.41968
平生	-9.41984
遍	-9.41984
枯	-9.42091
中國	-9.4228
菴	-9.42382
人皆	-9.42404
即位	-9.42528
晦	-9.42558
主人	-9.42614
幹	-9.42724
子弟	-9.42731
言其	-9.42839
倍	-9.42929
之禮	-9.42964
眉	-9.43118
䑕	-9.43138
與之	-9.43159
雀	-9.43176
把	-9.43214
夾	-9.43231
訛	-9.43236
所見	-9.43289
其間	-9.43313
見於	-9.43358
捕	-9.43375
係	-9.4341
人主	-9.43512
壺	-9.4358
𤓰	-9.43641
篤	-9.43648
競	-9.43649
十月	-9.43767
雖有	-9.4377
澄	-9.43808
之屬	-9.43849
融	-9.43854
如是	-9.43931
妓	-9.43996
亟	-9.44377
翰林	-9.44384
所載	-9.44445
者有	-9.44453
之日	-9.44469
妖	-9.44488
瓊	-9.44709
奚	-9.44765
膠	-9.44875
徧	-9.44876
檢	-9.44898
漫	-9.45131
莫不	-9.45216
料	-9.45293
敦	-9.45314
鬼神	-9.45352
四時	-9.45361
牀	-9.45393
恒	-9.4542
其意	-9.45462
坊	-9.45497
不應	-9.45603
誕	-9.45621
悔	-9.45638
之則	-9.45669
囚	-9.45724
飲食	-9.4573
視之	-9.45777
裂	-9.45809
從之	-9.4587
纔	-9.4588
坤	-9.45894
朱子	-9.45924
洛陽	-9.45984
兆	-9.45988
九月	-9.46302
災	-9.46407
偃	-9.46829
由是	-9.46979
俟	-9.46984
萬里	-9.46984
殺之	-9.47001
聴	-9.47144
帳	-9.47168
潮	-9.47194
榜	-9.47345
女子	-9.47576
繩	-9.47651
桐	-9.47653
涉	-9.4778
譏	-9.47867
璧	-9.47869
閲	-9.479
其上	-9.47962
之數	-9.48058
是故	-9.48305
草木	-9.48349
亦可	-9.48395
八年	-9.48467
注曰	-9.48644
丞	-9.48857
舌	-9.4887
公子	-9.48912
乃知	-9.49062
訟	-9.49176
三代	-9.49243
三百	-9.49444
崩	-9.49507
廬	-9.49543
至此	-9.49598
至于	-9.49606
云云	-9.49805
何也	-9.49952
丈	-9.50005
爛	-9.50097
為一	-9.50144
抵	-9.50174
潘	-9.50213
也其	-9.50249
所作	-9.50322
浪	-9.50408
第二	-9.50421
茅	-9.50458
算	-9.5052
鄧	-9.50612
甞	-9.50618
斥	-9.50646
壓	-9.50667
以後	-9.50819
不與	-9.50921
吏部	-9.50962
陷	-9.50984
而為	-9.50987
南北	-9.51055
排	-9.51129
籠	-9.512
人間	-9.51214
拂	-9.51254
焦	-9.51369
鑒	-9.51492
詐	-9.51594
煮	-9.51624
之學	-9.51765
伊	-9.51824
五色	-9.51831
山谷	-9.51898
契	-9.5192
之徒	-9.51925
討	-9.51941
叢	-9.5199
太平	-9.52016
姓名	-9.52094
荷	-9.52254
文公	-9.52267
溢	-9.52306
者不	-9.52406
遼	-9.52469
尉	-9.52597
鸞	-9.52641
不在	-9.52667
披	-9.52733
杯	-9.52844
肝	-9.52906
自有	-9.53064
幼	-9.53066
十六	-9.5317
紹	-9.53182
賢者	-9.53237
乙	-9.53364
誓	-9.53476
明年	-9.53731
之故	-9.53751
之書	-9.53753
弄	-9.53757
菊	-9.53772
故也	-9.53827
渾	-9.53834
豈不	-9.53847
東西	-9.5386
艾	-9.53865
不若	-9.53958
使者	-9.54004
峻	-9.54059
七十	-9.54063
姜	-9.54066
絳	-9.54084
嫁	-9.54194
輸	-9.54205
竇	-9.5434
是非	-9.54365
育	-9.54378
誣	-9.54557
而下	-9.54577
練	-9.54597
蠻	-9.54684
攝	-9.5478
亦曰	-9.54854
踰	-9.54903
生於	-9.54906
添	-9.54956
州刺史	-9.54982
祿	-9.5502
壊	-9.5508
國之	-9.5512
拘	-9.55205
勉	-9.55216
快	-9.55375
併	-9.55389
取之	-9.55487
泣	-9.55522
墜	-9.55542
其説	-9.55657
叟	-9.55739
的	-9.55746
蓮	-9.55756
古者	-9.55957
五行	-9.56055
訖	-9.56079
墮	-9.56236
霸	-9.56264
戸	-9.5632
靖	-9.56338
一篇	-9.56377
説文	-9.56386
寅	-9.56395
其文	-9.56421
气	-9.56489
綱	-9.56512
則有	-9.56538
髮	-9.56549
佩	-9.56554
寜	-9.56613
西北	-9.56744
俾	-9.56882
所得	-9.57022
亷	-9.5704
豫	-9.57056
牽	-9.57062
冊	-9.57108
六月	-9.57183
創	-9.57218
洲	-9.57294
上曰	-9.57328
之功	-9.57446
臂	-9.57536
四十	-9.57612
何如	-9.57643
匹	-9.5765
爐	-9.57708
譽	-9.57777
滑	-9.57888
四月	-9.57912
晩	-9.58081
卓	-9.58105
亦無	-9.58125
魂	-9.58143
或作	-9.58172
然而	-9.58252
鋒	-9.58314
狐	-9.58467
蕃	-9.5854
莊子	-9.58643
内外	-9.58817
令人	-9.58902
圭	-9.58911
邉	-9.58974
押	-9.59009
炎	-9.59021
晨	-9.59031
酌	-9.59172
峰	-9.59223
未必	-9.59274
憶	-9.59431
竭	-9.5944
織	-9.59524
禮記	-9.59536
㕔	-9.59557
呂	-9.59604
逰	-9.59679
逼	-9.59787
展	-9.59832
晏	-9.59904
曠	-9.59961
風雨	-9.60012
栗	-9.6002
此事	-9.60062
則是	-9.60079
十八	-9.60081
拔	-9.60138
謫	-9.60156
之氣	-9.6017
有三	-9.60246
慢	-9.60253
挾	-9.60256
作詩	-9.60261
竝	-9.60475
幕	-9.60476
戍	-9.60496
劒	-9.60535
之於	-9.60554
郎中	-9.60568
疊	-9.60635
薨	-9.60639
黙	-9.60674
驕	-9.60868
荆公	-9.60907
不足以	-9.60949
弼	-9.61041
鷄	-9.6107
凌	-9.61077
者非	-9.61222
脉	-9.61256
鄰	-9.6132
該	-9.61382
鈎	-9.61454
秩	-9.61459
濁	-9.61508
獵	-9.61545
􁁊	-9.61566
不欲	-9.61609
簾	-9.6167
十二月	-9.61679
淚	-9.61727
少年	-9.61733
従	-9.61735
門外	-9.61945
旅	-9.61982
冦	-9.61984
大抵	-9.62026
換	-9.62052
箭	-9.6207
其地	-9.62179
黎	-9.62213
泛	-9.62274
山水	-9.62278
娶	-9.62301
胥	-9.62309
三人	-9.62316
冰	-9.62366
究	-9.62474
警	-9.62499
考之	-9.62642
遜	-9.62746
也按	-9.62883
盗	-9.62885
文武	-9.62948
麟	-9.62972
健	-9.63017
六十	-9.63019
翰	-9.63179
不合	-9.6321
賓	-9.63269
聘	-9.63501
冀	-9.6367
綴	-9.63723
莽	-9.63741
斤	-9.63758
擅	-9.63863
值	-9.63894
睡	-9.64143
寸	-9.64151
婢	-9.64424
犀	-9.64459
他日	-9.64515
評	-9.64584
乖	-9.64593
太尉	-9.64742
第三	-9.64748
勲	-9.64786
文帝	-9.64787
淮南	-9.64815
退之	-9.64996
奮	-9.65013
秘	-9.65033
者曰	-9.65104
不出	-9.65144
或云	-9.65159
君臣	-9.65163
溝	-9.65211
羞	-9.65255
核	-9.65262
真宗	-9.65281
擁	-9.65387
勁	-9.65419
旱	-9.65565
賛	-9.65579
標	-9.65639
人心	-9.65848
柄	-9.6589
此言	-9.65895
其下	-9.65937
躬	-9.6596
其義	-9.6597
臘	-9.6607
團	-9.66076
紋	-9.66198
執政	-9.66205
綿	-9.66253
近世	-9.66299
一二	-9.66301
迷	-9.66326
醜	-9.66387
専	-9.66388
王者	-9.66403
普	-9.66428
愧	-9.6658
飲酒	-9.66645
不行	-9.66763
瓶	-9.6707
盆	-9.67121
低	-9.67239
昇	-9.67289
觀之	-9.67296
所居	-9.67306
爽	-9.67347
鑑	-9.67375
諸公	-9.67431
可見	-9.67432
陋	-9.67457
可也	-9.675
帛	-9.67507
南方	-9.67697
相與	-9.67705
鈔	-9.67812
筍	-9.67864
網	-9.67868
晴	-9.67925
昧	-9.67984
黜	-9.68008
得一	-9.68096
饒	-9.68102
老子	-9.68136
書云	-9.68193
九年	-9.68268
而死	-9.6834
不宜	-9.68382
有二	-9.68386
為人	-9.68387
滋	-9.68402
醋	-9.68445
行之	-9.6852
肺	-9.68561
不至	-9.68599
邵	-9.68635
或以	-9.68744
士人	-9.68764
衝	-9.68795
鴈	-9.68935
話	-9.68943
一兩	-9.69023
紂	-9.69074
此書	-9.69249
巫	-9.69269
壞	-9.6935
七月	-9.69416
閱	-9.69433
說文	-9.69439
明皇	-9.69602
紹興	-9.69658
化為	-9.69664
一年	-9.697
淳	-9.69811
人物	-9.69834
暑	-9.69842
𦵏	-9.69867
庚	-9.69896
禮部	-9.69908
亦然	-9.69984
仲尼	-9.70029
北方	-9.70071
儲	-9.70089
互	-9.70097
有大	-9.70103
析	-9.70152
巴	-9.70158
秉	-9.70189
霞	-9.70246
之論	-9.70251
擢	-9.70315
以示	-9.70382
瞻	-9.70384
而行	-9.70416
公主	-9.70445
十一	-9.70457
神仙	-9.70486
不勝	-9.70492
當作	-9.70528
四海	-9.70685
汗	-9.70753
始於	-9.70755
誥	-9.70794
不忍	-9.70809
有人	-9.70831
窺	-9.70837
數日	-9.70886
亦以	-9.70916
毅	-9.70956
叅	-9.70964
司空	-9.71077
侍中	-9.71101
之所以	-9.71183
甲子	-9.71207
版	-9.71207
其餘	-9.71207
羮	-9.71278
稽	-9.71282
乃以	-9.71292
揚州	-9.71542
不許	-9.71548
藻	-9.71584
街	-9.71597
亞	-9.71617
跪	-9.717
久之	-9.71727
河東	-9.71734
西南	-9.71739
魁	-9.71831
而不能	-9.71862
時人	-9.71865
幅	-9.71897
者多	-9.71947
不識	-9.72024
者其	-9.72057
垣	-9.72071
社稷	-9.72087
其書	-9.72427
芝	-9.72447
豹	-9.7246
祈	-9.72508
其身	-9.72567
途	-9.72626
十一月	-9.72704
二公	-9.72707
鬱	-9.72729
。	-9.72806
牌	-9.72941
祐	-9.7301
矜	-9.73147
三公	-9.73213
十四	-9.73214
㑹稽	-9.73239
屠	-9.73242
曰汝	-9.7326
朴	-9.73275
擾	-9.73277
拒	-9.73297
響	-9.7331
飽	-9.73387
牢	-9.73458
跋	-9.73547
恥	-9.73554
軸	-9.73594
堯舜	-9.73748
猛	-9.73792
家人	-9.73808
頻	-9.73827
臯	-9.73854
媚	-9.73877
所言	-9.73895
濶	-9.73975
緣	-9.73987
觀其	-9.73991
繡	-9.74029
山川	-9.74064
其父	-9.74082
無以	-9.74084
此語	-9.74141
乏	-9.74268
嘆	-9.74323
藩	-9.74356
恕	-9.74366
苗	-9.74428
溺	-9.74463
粗	-9.74469
霧	-9.74617
五代	-9.74718
廉	-9.74749
胎	-9.74779
混	-9.7478
炙	-9.74804
豈非	-9.74921
陞	-9.74935
蓄	-9.74973
一事	-9.75029
靣	-9.75041
邱	-9.75059
老人	-9.75201
様	-9.75252
世之	-9.75335
突	-9.75348
腎	-9.75365
覩	-9.75403
聊	-9.75501
範	-9.75508
小兒	-9.75557
黍	-9.75639
笑曰	-9.75653
灌	-9.75703
仗	-9.75853
摩	-9.75863
騰	-9.75866
鬚	-9.75932
之句	-9.75946
山東	-9.75974
又以	-9.76001
金陵	-9.76192
那	-9.76197
豈可	-9.76266
烹	-9.7627
纂	-9.76295
未知	-9.76334
而不知	-9.7638
文選	-9.76497
當以	-9.7659
攷	-9.76602
整	-9.76656
所在	-9.76705
不從	-9.76726
成都	-9.76728
矣然	-9.76742
映	-9.76764
之理	-9.76809
陣	-9.76839
繞	-9.76894
伍	-9.76931
山中	-9.76934
恃	-9.76953
袖	-9.77
揖	-9.77051
門人	-9.77181
佞	-9.77186
棺	-9.77272
而成	-9.77315
探	-9.77326
者如	-9.77365
光武	-9.77509
柴	-9.77544
裝	-9.77563
嵩	-9.77563
偉	-9.77564
漕	-9.77583
也此	-9.77586
尼	-9.77636
司徒	-9.77661
禮樂	-9.77738
此詩	-9.77793
成王	-9.778
弔	-9.77853
藤	-9.7786
殺人	-9.77905
鞭	-9.77976
樞	-9.78184
嬰	-9.78248
▁(	-9.78283
捨	-9.78304
不盡	-9.78346
湘	-9.78456
嫌	-9.78479
旨	-9.78555
唐書	-9.78606
人有	-9.78616
國朝	-9.78624
脾	-9.78643
班固	-9.78713
匠	-9.78722
百年	-9.78751
未能	-9.78805
逮	-9.78916
悦	-9.78942
宫中	-9.78947
二十四	-9.78973
貯	-9.79047
其一	-9.79104
䟽	-9.79134
酸	-9.79189
凉	-9.79212
太原	-9.79262
貽	-9.79278
東北	-9.79284
鋪	-9.79311
旬	-9.79387
潭	-9.79439
毫	-9.79543
皇上	-9.79611
浦	-9.79696
王氏	-9.79742
蟹	-9.79784
桓公	-9.79855
江西	-9.79868
月令	-9.79922
炒	-9.7998
寃	-9.79993
戮	-9.80004
一切	-9.80128
矯	-9.80142
禦	-9.8022
擲	-9.80239
棲	-9.80287
測	-9.80301
仁義	-9.80317
崖	-9.80348
奈何	-9.80356
五日	-9.80388
脂	-9.80411
風俗	-9.80412
虜	-9.80442
閏	-9.80507
鈞	-9.80564
諷	-9.80591
黄金	-9.80628
之聲	-9.80661
曰某	-9.80868
不食	-9.80902
訴	-9.80908
傳云	-9.80969
輦	-9.81034
燥	-9.81053
二子	-9.8107
袍	-9.81148
弦	-9.81213
不聞	-9.81297
不知其	-9.81347
坎	-9.81406
之物	-9.81412
死者	-9.8145
啼	-9.81486
遂以	-9.81562
刺史	-9.81692
托	-9.81751
七日	-9.81837
者乎	-9.81851
懿	-9.81876
薪	-9.81991
天之	-9.82027
綠	-9.8203
閑	-9.82042
裘	-9.82088
三十六	-9.82287
五百	-9.82307
而出	-9.82358
欲以	-9.82423
渉	-9.82508
其心	-9.82537
剪	-9.82553
倣	-9.82561
漁	-9.82593
後有	-9.8275
汪	-9.82817
雕	-9.82862
距	-9.8292
収	-9.82946
圗	-9.83049
褒	-9.83056
之變	-9.83064
架	-9.83082
橘	-9.83084
鱗	-9.83118
盟	-9.83146
几	-9.83188
求之	-9.83209
截	-9.83254
牡丹	-9.83307
亥	-9.83346
嗚呼	-9.83369
答曰	-9.83442
議論	-9.83444
慧	-9.83481
刋	-9.83577
抗	-9.83703
不善	-9.83782
炭	-9.83815
失其	-9.83819
驢	-9.83821
勑	-9.83845
攜	-9.83879
八十	-9.83898
荀	-9.83914
水中	-9.83971
澗	-9.84001
咎	-9.84006
模	-9.84007
喬	-9.84046
既而	-9.84099
所云	-9.8421
以前	-9.84223
浩	-9.84418
潜	-9.84441
亨	-9.84447
做	-9.84454
塲	-9.84891
物也	-9.84959
釣	-9.8499
博士	-9.84993
精神	-9.8502
枉	-9.85069
神宗	-9.85099
已而	-9.85106
諸子	-9.85117
肩	-9.85167
坑	-9.85198
者謂之	-9.85202
璽	-9.85244
自此	-9.85247
莖	-9.85261
滯	-9.8529
通鑑	-9.85317
握	-9.85322
課	-9.8535
或有	-9.85363
節度使	-9.85417
際	-9.85636
蓬	-9.85666
不成	-9.8577
卵	-9.8592
間有	-9.85945
本草	-9.85959
夲	-9.85969
服之	-9.85994
隣	-9.86017
詢	-9.86035
致仕	-9.86043
者乃	-9.86049
數百	-9.8605
彊	-9.86119
爻	-9.86214
岐	-9.8625
人多	-9.86276
失之	-9.86288
匿	-9.86299
摘	-9.8648
遣使	-9.86482
甚多	-9.86511
十餘	-9.86517
區	-9.86554
琵琶	-9.86586
輕重	-9.86709
飢	-9.86723
仇	-9.8674
太史	-9.86795
狄	-9.86806
箋	-9.86829
腸	-9.86881
㝠	-9.86881
伸	-9.86888
罔	-9.86901
劾	-9.86981
人以	-9.87034
而生	-9.87053
鬻	-9.87066
問曰	-9.87164
道人	-9.87227
可為	-9.87255
簿	-9.87383
瑩	-9.87517
奸	-9.87531
之詩	-9.87596
牒	-9.87681
自古	-9.87801
床	-9.8781
漿	-9.87834
圃	-9.87868
返	-9.87929
問之	-9.87966
棘	-9.87969
戚	-9.88006
不止	-9.88036
而有	-9.88153
元史	-9.88213
百里	-9.88218
孔子曰	-9.88233
以自	-9.88273
則不	-9.88281
者則	-9.88289
給事中	-9.88336
巡	-9.88337
不免	-9.88349
摹	-9.88414
協	-9.88424
中丞	-9.88439
榻	-9.88444
豈有	-9.88525
若此	-9.88571
禱	-9.88581
鬭	-9.88607
猶有	-9.88611
朋	-9.88616
契丹	-9.88647
不覺	-9.88723
椒	-9.88773
娘	-9.88813
亦云	-9.88815
受命	-9.88928
其國	-9.88967
膝	-9.89012
韶	-9.89028
敷	-9.89065
莫能	-9.89121
元祐	-9.89178
場	-9.8924
暢	-9.89242
可知	-9.89265
前輩	-9.89271
賴	-9.89286
誌	-9.89368
膽	-9.89409
公卿	-9.89447
稷	-9.89586
丑	-9.89618
不通	-9.89621
相傳	-9.89632
之臣	-9.8966
十日	-9.89734
國初	-9.89867
不信	-9.89875
與人	-9.89892
泊	-9.89906
煑	-9.9004
二十年	-9.90057
他人	-9.90061
有此	-9.90109
涼	-9.90167
祖宗	-9.90189
㧞	-9.902
酬	-9.90213
諌	-9.90303
閔	-9.90375
敝	-9.90376
呼為	-9.90421
浴	-9.90493
百餘	-9.90509
徽	-9.90598
往來	-9.90629
男女	-9.90707
冬至	-9.90708
揚雄	-9.90725
下有	-9.90758
十七	-9.90767
河北	-9.90778
吞	-9.90836
槐	-9.90843
之術	-9.90866
慰	-9.90945
透	-9.91033
不受	-9.91141
濫	-9.9116
無復	-9.913
耗	-9.91316
太史公	-9.91327
枚	-9.91337
臧	-9.915
促	-9.91502
醒	-9.91671
箇	-9.91704
衣冠	-9.91751
奢	-9.9179
之禍	-9.91817
東方	-9.91835
戾	-9.91849
閭	-9.92002
鼠	-9.92004
則知	-9.92049
湛	-9.92054
揺	-9.9209
擒	-9.92138
於人	-9.92268
及其	-9.92373
十卷	-9.92446
貝	-9.92454
僻	-9.92626
稅	-9.92646
匡	-9.92727
腦	-9.92829
樊	-9.92938
伊尹	-9.92949
西域	-9.92969
何為	-9.93008
斑	-9.93018
憐	-9.93097
人家	-9.93131
猪	-9.93171
裕	-9.93179
層	-9.93313
釐	-9.9344
萌	-9.93462
盞	-9.93492
㳺	-9.93586
曰君	-9.93631
謗	-9.93638
耳目	-9.9367
當是	-9.93703
不已	-9.93706
管仲	-9.93756
朗	-9.93785
太常	-9.93812
恵	-9.93824
熙	-9.93899
凖	-9.93906
竿	-9.93911
拙	-9.93915
州縣	-9.93942
無人	-9.93976
蟬	-9.94113
駭	-9.94123
嗜	-9.94139
肯	-9.94244
俞	-9.9427
語曰	-9.94321
髙宗	-9.94455
姿	-9.94456
函	-9.9446
以待	-9.945
童子	-9.94613
有功	-9.94647
册	-9.94648
毬	-9.94663
岡	-9.94666
㓜	-9.94695
中興	-9.94776
刼	-9.94796
大如	-9.94798
王公	-9.9481
鄒	-9.94941
再拜	-9.94955
相似	-9.94997
太公	-9.95058
針	-9.95134
墳	-9.95151
天地之	-9.95299
六經	-9.95303
男子	-9.95361
斛	-9.95409
泄	-9.95428
障	-9.95441
迫	-9.95445
之前	-9.95587
裹	-9.95603
暫	-9.9567
君之	-9.95702
鷹	-9.95782
準	-9.95836
荆州	-9.95837
人情	-9.95886
用事	-9.95969
呈	-9.9607
冩	-9.96086
一旦	-9.96107
而能	-9.96167
鳩	-9.96177
查	-9.96216
笛	-9.96242
憑	-9.96459
竄	-9.9647
無事	-9.96516
若璩按	-9.96531
罕	-9.96548
謂其	-9.96603
墻	-9.96633
禾	-9.96658
之盛	-9.96771
宗廟	-9.96863
不待	-9.96884
寂	-9.96886
改為	-9.96943
穢	-9.96966
樂府	-9.96994
嘉靖	-9.97008
亦非	-9.97089
是謂	-9.97187
淨	-9.97241
自謂	-9.97316
三十年	-9.9735
太白	-9.97353
之精	-9.97372
豫章	-9.97376
秀才	-9.97403
未幾	-9.97414
冝	-9.97482
稻	-9.97525
湏	-9.97534
畔	-9.97538
未可	-9.97542
世家	-9.97621
杜詩	-9.97622
禁中	-9.97695
態	-9.97699
二曰	-9.97705
嶽	-9.97729
誘	-9.97738
鮑	-9.97773
詰	-9.97789
樵	-9.97894
躍	-9.98014
谿	-9.98018
無窮	-9.98033
詩人	-9.98046
宣和	-9.98067
括	-9.98195
賦詩	-9.98283
庾	-9.98336
埋	-9.98343
傑	-9.98352
欵	-9.98352
顛	-9.98365
敕	-9.9838
緯	-9.98431
先王	-9.98439
確	-9.98505
相見	-9.98581
終身	-9.98602
十五年	-9.98633
此皆	-9.98638
荅	-9.98662
于此	-9.98683
山海經	-9.98707
上書	-9.98725
掃	-9.98727
兔	-9.98728
綵	-9.98756
姪	-9.98773
鵲	-9.98834
王子	-9.98852
蔣	-9.98856
番	-9.98893
侈	-9.98901
彩	-9.98906
抄	-9.9891
明矣	-9.9894
倦	-9.9897
蘓	-9.99027
竈	-9.99067
用兵	-9.99171
不死	-9.99172
彰	-9.99228
婆	-9.99236
虧	-9.99242
牆	-9.9926
滴	-9.99264
台	-9.9927
詭	-9.99352
憤	-9.99368
真人	-9.99379
不載	-9.99429
宋人	-9.99555
隙	-9.99561
大者	-9.99666
起於	-9.99731
南陽	-9.99784
霍	-9.99844
之餘	-9.99858
熈	-9.99905
宛	-9.99949
猿	-9.99958
㸔	-9.99983
批	-10.0005
人君	-10.0008
阮	-10.001
上帝	-10.0013
冒	-10.0014
此亦	-10.0016
晝夜	-10.0022
儒者	-10.0024
舅	-10.0025
誤矣	-10.0029
阻	-10.0031
歛	-10.0039
不動	-10.0041
斂	-10.0044
公孫	-10.0047
西方	-10.0047
爰	-10.0048
二百	-10.0057
晉書	-10.0061
績	-10.0084
敘	-10.0084
眠	-10.0093
槩	-10.0093
藍	-10.01
終日	-10.0107
辦	-10.0117
邸	-10.012
壘	-10.0134
人所	-10.0136
其說	-10.0136
汚	-10.0136
愼	-10.0137
不失	-10.0138
繇	-10.0138
粥	-10.0141
吉凶	-10.0142
四句	-10.0145
遁	-10.0157
舍人	-10.0158
為相	-10.0164
三千	-10.0165
所用	-10.0167
之勢	-10.0168
夭	-10.017
准	-10.0178
狼	-10.0182
遥	-10.0183
閩	-10.0197
嗟	-10.02
罵	-10.0206
豕	-10.0209
邀	-10.021
鵝	-10.0213
數年	-10.0216
畵	-10.0227
税	-10.0227
梨	-10.0238
一斤	-10.0248
耀	-10.0248
或謂	-10.0254
闢	-10.0256
栢	-10.0258
株	-10.0258
世人	-10.027
衫	-10.0279
頴	-10.0279
隅	-10.0296
羌	-10.0298
書之	-10.0304
東海	-10.0312
冢	-10.0314
澹	-10.0318
皆不	-10.032
僚	-10.0321
可乎	-10.033
挺	-10.0337
渭	-10.0337
記云	-10.0338
布衣	-10.0339
家有	-10.034
不容	-10.0345
効	-10.0355
祚	-10.0356
旌	-10.0359
南海	-10.0366
翔	-10.0377
一物	-10.0379
未見	-10.0381
未及	-10.0385
四人	-10.0385
帝王	-10.0386
冶	-10.0388
忿	-10.0388
之稱	-10.0389
脈	-10.039
所為	-10.039
綺	-10.0392
自言	-10.0394
政事	-10.0403
煉	-10.0405
肇	-10.0405
必以	-10.0407
何人	-10.0409
丗	-10.0423
疆	-10.0426
箕	-10.0431
祗	-10.0431
甕	-10.0431
王莽	-10.0437
同時	-10.044
駁	-10.0444
踈	-10.0445
宗室	-10.0458
俸	-10.0463
諸生	-10.0464
縮	-10.0464
軟	-10.0465
掠	-10.0465
而止	-10.0467
在上	-10.0474
柏	-10.0479
掛	-10.0485
侮	-10.0488
變化	-10.05
皷	-10.0503
島	-10.0505
零	-10.0516
無異	-10.052
壻	-10.0528
奕	-10.0529
縷	-10.0537
道也	-10.0551
薑	-10.0554
金石	-10.0556
李氏	-10.0567
蘆	-10.0567
壤	-10.0575
之初	-10.0577
俯	-10.058
民之	-10.0584
竅	-10.0585
一百	-10.0594
尚有	-10.0595
未詳	-10.0599
劉向	-10.0609
十九	-10.0616
何必	-10.062
翟	-10.0624
蠟	-10.0624
匈奴	-10.0643
迴	-10.0646
使之	-10.0648
僕射	-10.0648
雌	-10.0656
陟	-10.067
從事	-10.0678
治之	-10.0678
桀	-10.0683
冲	-10.0684
故人	-10.0687
餉	-10.0689
什	-10.0689
之志	-10.0698
宣王	-10.0704
之謂	-10.0707
皆可	-10.0707
觧	-10.0709
師古曰	-10.0712
軰	-10.0714
播	-10.0717
臣等	-10.0719
繆	-10.073
當為	-10.0734
記曰	-10.0737
艱	-10.0741
終不	-10.0743
魄	-10.0744
文學	-10.0747
捧	-10.0747
事也	-10.0748
哲	-10.0754
無他	-10.0756
或問	-10.0756
讀之	-10.0761
仙人	-10.0767
暖	-10.0772
三曰	-10.0775
捷	-10.0784
厨	-10.0784
矣故	-10.0793
不獨	-10.0797
之世	-10.0799
刃	-10.0802
泰山	-10.0803
葵	-10.0803
剖	-10.0804
状	-10.0808
十四年	-10.0813
恤	-10.082
狹	-10.0821
不肖	-10.0821
饗	-10.0822
雁	-10.0833
謚	-10.0834
酉	-10.0838
戈	-10.0845
梅花	-10.0849
洋	-10.0853
天道	-10.0856
斧	-10.0857
擧	-10.0862
所出	-10.0866
衙	-10.0868
甚矣	-10.088
諧	-10.0884
是為	-10.0892
十三年	-10.0893
明堂	-10.0899
何所	-10.0903
此乃	-10.0905
塊	-10.0909
二十五	-10.091
南史	-10.0913
㦸	-10.0917
鉤	-10.0918
十二年	-10.0919
粧	-10.0923
則曰	-10.0924
崑崙	-10.0927
紗	-10.0937
淑	-10.0938
弩	-10.0939
逺矣	-10.094
五經	-10.094
只是	-10.0941
芒	-10.0947
俄	-10.0952
元和	-10.0971
不入	-10.0975
帽	-10.0975
不易	-10.0977
鬬	-10.0978
故有	-10.0983
有四	-10.1002
而言	-10.1016
方言	-10.102
宦	-10.1029
丙	-10.1031
攸	-10.1034
煖	-10.1036
觴	-10.1037
僖	-10.1042
芽	-10.1042
千金	-10.1045
之狀	-10.1045
久矣	-10.1047
勾	-10.1066
其妻	-10.1067
之患	-10.1074
貴人	-10.1075
洞庭	-10.1081
諸人	-10.1088
它	-10.1092
曰臣	-10.1093
相去	-10.1097
多少	-10.1104
則無	-10.1105
𤣥宗	-10.1114
髻	-10.1115
虐	-10.1116
不知何	-10.1119
土人	-10.1128
紛	-10.1132
踏	-10.1138
一句	-10.1142
揮	-10.1143
腐	-10.1145
中庸	-10.1145
膳	-10.115
至是	-10.1151
渚	-10.1152
笏	-10.1156
悖	-10.1156
劔	-10.1156
大將軍	-10.1158
宵	-10.1159
衣服	-10.116
前漢	-10.116
周官	-10.1161
臭	-10.117
沮	-10.1171
悅	-10.1178
見一	-10.1188
臥	-10.1188
忠臣	-10.1191
一錢	-10.1192
金銀	-10.1194
詆	-10.1194
龎	-10.1195
廣陵	-10.1198
酷	-10.1202
右軍	-10.1202
字書	-10.1202
郢	-10.1203
之内	-10.1213
韓退之	-10.1217
太學	-10.1217
元豐	-10.1218
自稱	-10.1218
沸	-10.1218
其母	-10.1226
無有	-10.1228
爪	-10.1231
內	-10.1232
檀	-10.1241
沿	-10.1244
緒	-10.125
磬	-10.1258
賔客	-10.1263
婁	-10.1266
銷	-10.1266
鄴	-10.1269
炁	-10.127
兎	-10.1272
國語	-10.1273
歐陽	-10.1282
沃	-10.1286
瓜	-10.1307
曰今	-10.1308
相公	-10.1312
謨	-10.1313
娥	-10.1315
也然則	-10.132
之罪	-10.1321
膚	-10.1326
之辭	-10.1326
廵	-10.1331
逾	-10.1334
是日	-10.1341
號曰	-10.1343
可愛	-10.1349
三尺	-10.135
屑	-10.1351
匪	-10.1355
填	-10.1357
及第	-10.1358
則又	-10.1367
大笑	-10.1369
杏	-10.1369
糞	-10.1369
四字	-10.137
洪武	-10.1374
凍	-10.1374
演	-10.1376
昨	-10.1384
郡縣	-10.1391
宣帝	-10.1391
門下	-10.1395
前代	-10.1396
神明	-10.1404
第四	-10.1405
措	-10.1411
一本	-10.1415
十一年	-10.1417
歐公	-10.1419
以求	-10.1425
列子	-10.1425
矣而	-10.1425
中山	-10.1437
乂	-10.1437
地名	-10.1443
周之	-10.1444
妻子	-10.1445
勘	-10.1449
若是	-10.145
有五	-10.1453
貼	-10.1461
一條	-10.1462
迂	-10.1472
第五	-10.1472
幣	-10.1472
曰昔	-10.1474
不自	-10.1478
纒	-10.1479
春風	-10.1488
撥	-10.1491
纎	-10.1494
讒	-10.1497
故謂之	-10.1502
歎曰	-10.1504
用此	-10.1505
詩話	-10.1506
歐陽公	-10.1512
随	-10.1519
其次	-10.1527
世間	-10.1528
已上	-10.1532
世祖	-10.1534
浙	-10.1534
羙	-10.1536
改元	-10.1536
其聲	-10.1538
崇禎	-10.1539
液	-10.1559
海内	-10.1559
三字	-10.1563
而復	-10.1566
從容	-10.1568
民間	-10.1572
之國	-10.1574
處士	-10.1576
饌	-10.158
起居	-10.159
前人	-10.1593
待制	-10.1595
邢	-10.1599
筮	-10.1602
宫人	-10.1605
踐	-10.1616
頸	-10.162
在位	-10.1625
孔氏	-10.1628
以成	-10.163
拱	-10.1631
歐	-10.1633
不甚	-10.1635
之家	-10.164
得失	-10.1646
濃	-10.1647
冕	-10.1649
内閣	-10.165
募	-10.1663
員外郎	-10.1664
縫	-10.1664
艸	-10.1666
芙蓉	-10.1667
西京	-10.167
於上	-10.1672
别有	-10.1674
後漢書	-10.168
太師	-10.1684
䝉	-10.1686
之妙	-10.1686
利害	-10.1688
何不	-10.169
不忘	-10.1692
中原	-10.1693
名也	-10.1694
子夏	-10.1695
蹈	-10.1701
艮	-10.1703
尖	-10.1704
恣	-10.1707
樂天	-10.1711
永樂	-10.1712
江東	-10.1725
蔡邕	-10.1729
不可不	-10.1735
塘	-10.1736
瘡	-10.1748
置之	-10.1753
主簿	-10.176
之流	-10.1761
筵	-10.1762
傲	-10.1769
技	-10.177
挽	-10.178
五六	-10.1785
戯	-10.1786
殻	-10.1789
又言	-10.1795
禹貢	-10.1796
瀆	-10.1797
之利	-10.1805
訣	-10.1805
而歸	-10.1806
痕	-10.181
閤	-10.1811
欄	-10.1812
康熙	-10.1813
十里	-10.182
易之	-10.1824
世俗	-10.183
懲	-10.183
於外	-10.1831
陂	-10.1833
綽	-10.1835
拾	-10.1835
九州	-10.1841
卽	-10.1851
譚	-10.1854
婚	-10.1866
先後	-10.1866
縣令	-10.1873
汴	-10.188
矣夫	-10.1882
一種	-10.1894
聖賢	-10.1896
鉛	-10.1898
不堪	-10.1906
鵠	-10.1933
廬山	-10.1934
貸	-10.1935
岩	-10.1935
高祖	-10.1936
温公	-10.1946
誤也	-10.195
粒	-10.1951
相國	-10.1952
巽	-10.1959
者矣	-10.1961
掘	-10.1962
劉氏	-10.1962
長沙	-10.1973
亦作	-10.1975
不暇	-10.1976
而卒	-10.1977
隊	-10.1981
則為	-10.1984
長史	-10.1989
砂	-10.1991
禘	-10.1995
牋	-10.2
鐡	-10.2002
長生	-10.2002
絡	-10.2002
繪	-10.2003
亢	-10.2004
為文	-10.2005
足下	-10.2007
節度	-10.2016
一夕	-10.2025
又作	-10.2028
揭	-10.2028
驟	-10.2035
廊	-10.2036
去聲	-10.2037
未盡	-10.2044
遮	-10.205
之才	-10.205
次之	-10.2052
鴨	-10.2067
軌	-10.2068
魏公	-10.2069
字子	-10.2073
子美	-10.2073
為正	-10.2075
陜西	-10.2075
桃花	-10.2077
聖人之	-10.2087
挿	-10.2091
乾坤	-10.2093
億	-10.2094
狀元	-10.2095
者謂	-10.2103
之民	-10.2103
九十	-10.2107
蜂	-10.211
子路	-10.2118
大王	-10.2119
級	-10.2122
多矣	-10.2122
山林	-10.2128
畨	-10.2135
醬	-10.2145
法度	-10.2145
雜記	-10.2147
潰	-10.2151
柯	-10.2152
汲	-10.216
祭祀	-10.2164
也且	-10.2166
濤	-10.2167
不明	-10.2176
苖	-10.2177
苟	-10.2178
梓	-10.2179
所藏	-10.2179
夫婦	-10.2189
檄	-10.2198
札	-10.2205
又何	-10.2208
五人	-10.2211
之情	-10.2212
贖	-10.2218
踵	-10.2219
南山	-10.2221
美人	-10.2223
隴	-10.2223
中外	-10.2225
草書	-10.2231
廣韻	-10.2235
喫	-10.2243
次第	-10.2255
不問	-10.2256
棊	-10.226
譯	-10.226
螺	-10.2261
綬	-10.2261
闇	-10.2263
曷	-10.2265
之誤	-10.2266
搜	-10.2266
進退	-10.2269
不解	-10.2275
勃	-10.2275
之象	-10.2276
判官	-10.2277
何處	-10.2282
序云	-10.2283
爲之	-10.2286
大學士	-10.2288
偷	-10.2288
濬	-10.2289
東都	-10.2293
江陵	-10.2297
不一	-10.2299
相類	-10.231
千載	-10.2319
逕	-10.2321
濯	-10.2329
慙	-10.2331
始皇	-10.2337
法也	-10.2344
翰林學士	-10.2345
鎭	-10.235
世傳	-10.2351
智按	-10.2354
不幸	-10.2356
之樂	-10.2356
怠	-10.2357
襄公	-10.2364
子瞻	-10.2366
蘭亭	-10.2367
號為	-10.2371
其法	-10.2376
畝	-10.2377
襄陽	-10.2377
壅	-10.2378
故能	-10.2378
子貢	-10.2385
言語	-10.239
濡	-10.2397
儀禮	-10.2399
其形	-10.2407
劇	-10.2414
捐	-10.242
籌	-10.242
漢人	-10.2423
駐	-10.2424
覇	-10.2424
輝	-10.2424
有聲	-10.2426
筋	-10.2428
安能	-10.2429
騐	-10.2441
一月	-10.2443
珪	-10.2449
道者	-10.2454
白樂天	-10.2457
壑	-10.2458
股	-10.2468
償	-10.2469
長者	-10.2471
為大	-10.2473
識者	-10.2475
餌	-10.2479
孝經	-10.248
之形	-10.2493
著書	-10.2494
諸家	-10.2505
有罪	-10.2506
啖	-10.2508
白雲	-10.2519
都督	-10.2523
倡	-10.2527
伴	-10.2529
朽	-10.2529
蠧	-10.2531
線	-10.2533
稜	-10.2534
海棠	-10.2534
風流	-10.2535
副使	-10.2537
注引	-10.2538
皆為	-10.2542
而得	-10.2547
巻	-10.2555
其本	-10.256
以備	-10.2561
未聞	-10.2565
禍福	-10.2571
貳	-10.2574
禀	-10.2577
糾	-10.2579
堆	-10.2583
諸臣	-10.2585
亦未	-10.2588
綸	-10.2588
以告	-10.2588
已有	-10.2594
之道也	-10.2598
亦自	-10.2599
之命	-10.2599
滌	-10.26
贍	-10.2604
郡守	-10.2606
徃徃	-10.2607
域	-10.2609
數千	-10.2613
此則	-10.2617
圜	-10.2622
淸	-10.2627
之官	-10.2628
峽	-10.2637
為主	-10.2643
倪	-10.265
壹	-10.2652
咏	-10.2653
巷	-10.2655
居士	-10.2666
寇	-10.2668
稀	-10.2668
所著	-10.2669
今世	-10.2669
洽	-10.267
須臾	-10.2671
之體	-10.2673
太廟	-10.2676
租	-10.2678
三四	-10.2688
讐	-10.2695
物之	-10.27
惡之	-10.2706
分明	-10.2708
其道	-10.2713
麴	-10.2713
替	-10.2715
刪	-10.2717
卯	-10.2718
聰	-10.2721
牲	-10.2729
國人	-10.273
于是	-10.2736
貴賤	-10.2736
邁	-10.2738
儼	-10.274
抽	-10.2743
○	-10.2744
皆是	-10.2744
功臣	-10.2748
禪師	-10.2751
又謂	-10.2752
之職	-10.2755
制度	-10.2756
笙	-10.276
其他	-10.2765
茗	-10.2767
人臣	-10.2769
雖不	-10.2779
國公	-10.2779
止於	-10.2779
四兩	-10.2779
癡	-10.2787
鶯	-10.2788
銓	-10.2788
綏	-10.2788
霄	-10.2793
百萬	-10.2795
般	-10.2802
所能	-10.2809
通用	-10.282
亦是	-10.2823
匣	-10.2829
凢	-10.2829
阜	-10.2832
此意	-10.2837
不祥	-10.2841
耆	-10.2847
叱	-10.2848
秦王	-10.286
遂為	-10.2861
鏤	-10.2868
之難	-10.2871
婉	-10.2882
知制誥	-10.2887
日中	-10.2895
檜	-10.2897
杜子美	-10.2898
高宗	-10.2899
未至	-10.2901
梵	-10.2906
耻	-10.2908
顔色	-10.291
不聽	-10.2911
扁	-10.2912
東宫	-10.2918
浄	-10.292
實録	-10.2921
城中	-10.2923
聰明	-10.2924
騷	-10.2926
絮	-10.2928
筭	-10.2929
奏事	-10.2931
人生	-10.2943
榆	-10.2946
於天下	-10.2947
廻	-10.2948
漢武	-10.2952
蜀人	-10.2953
貎	-10.2956
而反	-10.2956
即是	-10.2958
暉	-10.296
何故	-10.2963
固有	-10.2966
舊制	-10.297
伎	-10.2973
在於	-10.2973
不改	-10.2975
跨	-10.2975
氏之	-10.2976
最為	-10.2983
祁	-10.2988
揆	-10.2991
賂	-10.3002
南京	-10.3004
此其	-10.3007
孚	-10.3019
所記	-10.3021
弑	-10.3022
秦漢	-10.3026
十萬	-10.3026
許之	-10.3027
其志	-10.3027
不絶	-10.3034
江淮	-10.3034
鳥獸	-10.3035
各一	-10.3042
汙	-10.3048
簷	-10.3049
生子	-10.3052
妹	-10.3059
之君	-10.3059
即今	-10.306
魯公	-10.3063
戊	-10.3068
牟	-10.3085
憚	-10.3086
公羊	-10.3086
堤	-10.3095
曰子	-10.3098
二三	-10.3108
故以	-10.3111
瑶	-10.3113
裳	-10.3115
滕	-10.3122
不是	-10.3123
無疑	-10.3134
東漢	-10.314
衮	-10.3142
綾	-10.3142
認	-10.3142
蟻	-10.3142
䟦	-10.3144
死生	-10.3147
平聲	-10.3149
叩	-10.3152
瑟	-10.3156
䧟	-10.3163
由此	-10.317
鍊	-10.3172
天子之	-10.3182
澆	-10.3185
誨	-10.3186
錢塘	-10.3192
敖	-10.3197
先是	-10.3198
人事	-10.3202
杭	-10.3205
陪	-10.3207
功名	-10.3209
矩	-10.3212
肅宗	-10.3214
人之所	-10.3216
喚	-10.322
山在	-10.3223
禽獸	-10.3227
明月	-10.3229
畆	-10.3234
眷	-10.3237
賈誼	-10.324
所宜	-10.3244
後主	-10.3246
朶	-10.3246
嘯	-10.3253
道之	-10.3259
有兩	-10.3263
之類是也	-10.3263
其君	-10.3266
齊王	-10.3273
王荆公	-10.3278
猶未	-10.3281
膺	-10.3281
不顧	-10.3282
禮義	-10.3283
裔	-10.3283
吿	-10.3295
先君	-10.3304
也凡	-10.3305
以致	-10.3312
鎖	-10.3314
叚	-10.3317
李白	-10.332
甘草	-10.3322
善惡	-10.3336
憎	-10.3337
脯	-10.3341
因以	-10.3358
筠	-10.3358
之始	-10.3365
誇	-10.3366
故其	-10.3375
虹	-10.3376
愛之	-10.3384
芻	-10.3387
醇	-10.3389
不疑	-10.339
而立	-10.3399
掾	-10.3399
水火	-10.3409
漬	-10.341
好事者	-10.3411
鋭	-10.3413
頼	-10.3413
復有	-10.3416
恠	-10.3416
䕫	-10.3417
逺近	-10.3425
思之	-10.3432
溫	-10.3432
沐	-10.3434
必先	-10.3436
剥	-10.3438
不樂	-10.3443
諸王	-10.3444
淪	-10.346
議者	-10.3461
而非	-10.3463
西山	-10.3463
而入	-10.3466
國史	-10.3468
二兩	-10.3474
犢	-10.3487
李公	-10.3488
喉	-10.3489
怯	-10.349
乎曰	-10.3492
通判	-10.3497
乃是	-10.3497
太和	-10.3502
十七年	-10.3502
所稱	-10.351
挈	-10.3511
出處	-10.3512
頑	-10.3515
之神	-10.3515
催	-10.3518
十數	-10.352
明帝	-10.3524
先帝	-10.3528
棋	-10.3537
舘	-10.3537
經曰	-10.3543
白馬	-10.3543
陰陽	-10.3547
之用	-10.3555
其數	-10.3563
遏	-10.3565
其時	-10.358
小者	-10.3581
誼	-10.3584
坦	-10.3586
紛紛	-10.3587
奠	-10.3587
㫁	-10.359
非是	-10.3591
三分	-10.3592
其功	-10.3595
國有	-10.36
政和	-10.36
銖	-10.361
其罪	-10.3613
猷	-10.3615
題云	-10.3615
大事	-10.3616
裙	-10.362
千古	-10.3621
咨	-10.3623
衢	-10.3624
胃	-10.3628
蹇	-10.3636
此又	-10.364
彛	-10.3642
不生	-10.3642
延年	-10.3642
子産	-10.3647
曜	-10.3649
流水	-10.3656
千年	-10.366
悼	-10.3662
自為	-10.3665
搆	-10.3668
拆	-10.3668
諸將	-10.3669
八分	-10.3671
戰國	-10.3673
千萬	-10.3673
寡人	-10.3674
矣又	-10.3675
事之	-10.3679
狀如	-10.368
陽氣	-10.368
慘	-10.3692
二十八	-10.3695
而退	-10.3703
青州	-10.3705
不知所	-10.371
鄭氏	-10.3711
於天	-10.3711
大喜	-10.3712
四曰	-10.3714
搖	-10.3717
侍從	-10.372
闊	-10.3721
昆	-10.3722
䖍	-10.3726
山有	-10.3727
可笑	-10.3733
張公	-10.3736
荔枝	-10.3739
熬	-10.3744
詩有	-10.3755
縣有	-10.3755
不可得	-10.3756
舉人	-10.3764
僭	-10.3765
然亦	-10.3768
數人	-10.3769
可知矣	-10.3775
者何	-10.3777
天命	-10.3777
晉人	-10.3782
韓魏公	-10.3783
飬	-10.379
本紀	-10.3793
縛	-10.3794
庶幾	-10.3803
即此	-10.3804
萬人	-10.3812
必不	-10.3814
奥	-10.3819
朋友	-10.3823
十六年	-10.3828
之弊	-10.3832
戌	-10.3832
䜟	-10.3841
灘	-10.3842
妬	-10.3844
望之	-10.3846
皆用	-10.3846
絶句	-10.3848
上言	-10.3848
庶人	-10.3851
所書	-10.3851
者即	-10.3857
五分	-10.3859
公之	-10.386
晁	-10.386
去其	-10.3866
髙下	-10.3867
矣今	-10.3872
寘	-10.3872
噫	-10.3875
相如	-10.3878
榦	-10.3879
丈夫	-10.3883
盃	-10.3884
緋	-10.3885
為政	-10.3893
遐	-10.3896
也余	-10.3899
丈人	-10.39
刻石	-10.3902
在外	-10.3908
釀	-10.3913
言者	-10.3917
玊	-10.3921
大人	-10.3924
淹	-10.3929
建安	-10.393
聼	-10.3939
擊之	-10.394
挂	-10.3949
代之	-10.395
潁	-10.3952
荼	-10.3959
親戚	-10.396
安國	-10.3961
譌	-10.3961
晏子	-10.3971
荀子	-10.3979
鈴	-10.3993
之處	-10.3996
語也	-10.3997
駢	-10.4001
輯	-10.4002
然其	-10.4003
疲	-10.4003
饋	-10.4003
而不可	-10.4003
長短	-10.4005
十人	-10.4009
户部	-10.4018
在此	-10.4019
皆在	-10.4021
如此則	-10.4024
老杜	-10.4025
丹陽	-10.4025
暈	-10.4026
死於	-10.4026
北海	-10.4029
脊	-10.403
蔵	-10.4032
襍	-10.4034
之風	-10.4037
飄	-10.4041
可用	-10.4043
玉堂	-10.4046
本末	-10.405
属	-10.4051
携	-10.4052
萬世	-10.4055
麓	-10.4056
荘	-10.4057
寒食	-10.4059
論之	-10.4074
曰天	-10.4079
挑	-10.4079
冗	-10.4082
聞其	-10.4086
州郡	-10.4088
本無	-10.4091
本作	-10.4092
同年	-10.4096
蹙	-10.4103
亦多	-10.4105
不安	-10.4105
藁	-10.4106
毛詩	-10.4116
臣下	-10.4122
恬	-10.413
鐸	-10.4132
迨	-10.4135
麾	-10.4135
繹	-10.4136
捲	-10.4136
欠	-10.4137
苛	-10.4137
灾	-10.4139
中間	-10.4146
洎	-10.4148
若干	-10.4149
嘗為	-10.4156
鵞	-10.4157
稱其	-10.4157
水出	-10.416
檻	-10.416
戀	-10.4161
韓信	-10.4161
出于	-10.4164
楷	-10.4164
胸	-10.4166
帝曰	-10.4167
屍	-10.4186
余嘗	-10.4189
乍	-10.419
之本	-10.4197
死而	-10.4201
之門	-10.4202
輔臣	-10.4207
猫	-10.4208
集中	-10.4215
之號	-10.4217
瘦	-10.4219
系	-10.4223
使其	-10.4226
江水	-10.4226
而上	-10.423
成化	-10.4231
暇	-10.4231
鳬	-10.4238
萬民	-10.4238
相對	-10.4239
炊	-10.424
冡	-10.424
糟	-10.4241
也言	-10.4243
先儒	-10.4243
不能自	-10.4245
秦始皇	-10.4248
蹄	-10.425
㕘	-10.4255
疋	-10.4264
頒	-10.4264
据	-10.4265
之美	-10.4267
東方朔	-10.427
豈能	-10.4271
沛	-10.4272
曽子	-10.4274
君子之	-10.4275
項羽	-10.4276
而自	-10.4281
不下	-10.4281
淵明	-10.4293
忤	-10.4295
魯直	-10.4302
掖	-10.4302
鄉人	-10.4303
始有	-10.4304
於前	-10.431
生者	-10.4315
蔓	-10.4318
成功	-10.432
栽	-10.4323
龔	-10.4324
之詞	-10.4328
以手	-10.4331
言也	-10.4331
鄉里	-10.4333
厄	-10.4333
可得	-10.4335
此時	-10.4342
呵	-10.4347
喧	-10.435
梟	-10.435
五帝	-10.4351
宫室	-10.4353
壬	-10.4356
一言	-10.4357
其辭	-10.4365
周易	-10.4367
寤	-10.4371
厠	-10.4375
琢	-10.4375
療	-10.4375
當世	-10.4377
拳	-10.4379
甘露	-10.4389
减	-10.4389
三卷	-10.4389
先主	-10.4397
三寸	-10.4402
迭	-10.4403
入海	-10.4405
江湖	-10.4405
麤	-10.4406
於地	-10.4408
龍門	-10.441
故不	-10.4415
之實	-10.4416
西湖	-10.4423
玄	-10.4424
未嘗不	-10.4425
不得已	-10.4427
有異	-10.4429
去之	-10.4429
釋氏	-10.443
如今	-10.443
宥	-10.4433
齊人	-10.4434
故名	-10.4436
襟	-10.4436
太傅	-10.4437
窻	-10.4437
飲之	-10.444
一石	-10.4442
者惟	-10.4445
聨	-10.4448
者又	-10.4451
徽宗	-10.4452
之亂	-10.4458
而已矣	-10.446
樸	-10.446
隸	-10.4463
稿	-10.4463
贓	-10.4463
夜半	-10.4467
義理	-10.4468
其色	-10.4469
芍藥	-10.447
書畫	-10.4471
之主	-10.4472
拾遺	-10.4475
之末	-10.4478
名臣	-10.4479
》	-10.4479
求其	-10.4482
三司	-10.4486
沾	-10.4487
麫	-10.4488
摶	-10.449
洒	-10.4491
李斯	-10.4496
未得	-10.4498
詞云	-10.4501
白玉	-10.4504
之計	-10.4509
陜	-10.4513
伺	-10.4513
搏	-10.4514
也唐	-10.4514
北人	-10.4515
擔	-10.4518
弃	-10.4519
螭	-10.4521
問其	-10.4521
指揮	-10.4523
浚	-10.4527
曹操	-10.4528
曰朕	-10.4528
縱横	-10.453
手足	-10.4534
近日	-10.4534
曾子	-10.4534
無一	-10.4539
遶	-10.4541
少卿	-10.4542
之音	-10.4547
店	-10.4554
諸儒	-10.4554
施行	-10.4557
宋史	-10.4563
余謂	-10.4564
名為	-10.4568
帷	-10.457
甄	-10.4571
乃云	-10.4574
後來	-10.4575
城南	-10.4576
所生	-10.4576
司馬遷	-10.4581
視其	-10.4582
人謂	-10.4582
英宗	-10.4582
列傳	-10.4587
雲南	-10.4589
無此	-10.4595
㨗	-10.4597
皂	-10.4598
勵	-10.4598
綰	-10.4599
之東	-10.46
昌黎	-10.4601
祭酒	-10.4605
者或	-10.4607
泌	-10.4608
詹	-10.4608
内有	-10.4612
姊	-10.4625
此類	-10.4626
苞	-10.4627
稱之	-10.463
何謂	-10.4634
不利	-10.4635
大怒	-10.4637
沈約	-10.4643
糖	-10.4648
而又	-10.4651
王孫	-10.4653
嫩	-10.4655
二卷	-10.4655
狎	-10.4657
偕	-10.4658
駒	-10.4667
蕭何	-10.4673
昔人	-10.4677
皇太子	-10.4678
嘉祐	-10.4678
行人	-10.4685
朝士	-10.4686
以至	-10.4689
癸	-10.4691
如故	-10.4701
予嘗	-10.4704
六朝	-10.4705
黔	-10.4706
噐	-10.4708
山西	-10.4708
區區	-10.471
形如	-10.471
軫	-10.4711
暨	-10.4712
祕	-10.4714
貞觀	-10.4725
垢	-10.4735
八百	-10.4736
終始	-10.4737
藴	-10.4737
千葉	-10.4738
寔	-10.4739
甜	-10.4739
滛	-10.474
日夜	-10.4745
而民	-10.4745
二日	-10.4746
貧賤	-10.4756
小字	-10.4757
一寸	-10.4759
有道	-10.4764
歷	-10.4766
繭	-10.4766
讎	-10.4769
人言	-10.477
隐	-10.477
其所以	-10.477
安石	-10.4772
車馬	-10.4774
苴	-10.4777
石刻	-10.478
韓愈	-10.4785
諾	-10.4786
又名	-10.4786
邇	-10.4789
文士	-10.4791
者是	-10.4794
正統	-10.4794
萬厯	-10.4796
矣此	-10.4796
翅	-10.4798
漢志	-10.4803
曰若	-10.481
以詩	-10.4813
此説	-10.4814
主之	-10.4814
之異	-10.4816
又按	-10.4817
將以	-10.4823
相承	-10.4828
四面	-10.483
若夫	-10.4843
不正	-10.4844
嫗	-10.4845
恢	-10.4845
佚	-10.4851
多有	-10.4851
渴	-10.4852
誡	-10.4856
萊	-10.4858
山下	-10.486
其理	-10.4863
浙江	-10.4865
不變	-10.4865
難得	-10.4867
詩書	-10.487
非其	-10.4872
張氏	-10.4873
無益	-10.4873
又如	-10.4874
道路	-10.4878
可與	-10.488
攘	-10.488
祇	-10.488
嚮	-10.4881
北齊	-10.4888
嘗有	-10.489
中人	-10.4893
曰公	-10.4894
蕪	-10.4899
嶺南	-10.4901
貴妃	-10.4904
昔者	-10.4905
岑	-10.4907
電	-10.491
灑	-10.491
一見	-10.491
歇	-10.4915
十八年	-10.4917
轡	-10.4917
少時	-10.4921
也如	-10.4921
殿前	-10.4923
欲其	-10.4927
者所以	-10.4932
辜	-10.4937
叶	-10.4937
和尚	-10.4938
所引	-10.4939
峭	-10.4939
一家	-10.4939
□□	-10.4941
酣	-10.4942
劑	-10.4943
釵	-10.495
迄	-10.495
涕	-10.4957
都尉	-10.4959
無功	-10.4959
即以	-10.4959
之孫	-10.4964
畱	-10.4971
人不	-10.4976
杭州	-10.4982
碩	-10.4985
唐太宗	-10.4991
以禮	-10.4993
搗	-10.4994
也故曰	-10.4994
弁	-10.4997
因其	-10.5
曰夫	-10.5006
群	-10.5011
齡	-10.5012
一枝	-10.5014
蠲	-10.502
何足	-10.5021
尤為	-10.5025
箴	-10.5025
疑其	-10.5025
橫	-10.5026
衣食	-10.5029
京兆	-10.5033
瑣	-10.5042
太極	-10.5043
之西	-10.5047
譬	-10.505
敞	-10.5051
便是	-10.5053
蓮花	-10.5053
五錢	-10.5053
摧	-10.5055
亦名	-10.5056
也非	-10.5058
然也	-10.5059
在焉	-10.5064
髙麗	-10.5065
嬌	-10.5065
褐	-10.5067
但以	-10.507
千餘	-10.5076
何時	-10.5077
跳	-10.5082
葦	-10.5083
單于	-10.5083
孟子曰	-10.5084
冥	-10.5087
多用	-10.5087
笞	-10.5087
信之	-10.5089
其能	-10.5094
自後	-10.5096
華山	-10.5103
蘇州	-10.5104
文書	-10.511
卞	-10.5112
奄	-10.5113
現	-10.5115
楚人	-10.5116
栖	-10.512
虢	-10.5122
史官	-10.5122
沔	-10.5132
此非	-10.5132
數月	-10.5138
組	-10.5146
拍	-10.5149
巡撫	-10.515
九江	-10.5151
上元	-10.5152
獻之	-10.5155
則其	-10.5157
竟不	-10.5165
琳	-10.5167
複	-10.5169
售	-10.5172
遣人	-10.5174
苔	-10.5175
何事	-10.5184
居之	-10.5196
所以為	-10.5199
少師	-10.52
徼	-10.5203
靑	-10.5203
以金	-10.5205
沖	-10.5205
閻	-10.5206
而欲	-10.5208
造化	-10.5216
嘗以	-10.5216
推之	-10.5221
楚辭	-10.5221
豚	-10.5228
金玉	-10.5229
存亡	-10.5229
無所不	-10.5232
得罪	-10.5236
豎	-10.5239
登第	-10.5239
賁	-10.5239
睦	-10.5246
之謂也	-10.5247
程子	-10.525
鯉	-10.5252
識之	-10.5256
宣宗	-10.5256
七百	-10.5259
上疏	-10.526
升菴	-10.5261
葱	-10.5262
翳	-10.5263
羨	-10.5265
相應	-10.5266
臯陶	-10.5266
之性	-10.5268
行者	-10.5269
於世	-10.527
三品	-10.5277
七十二	-10.5279
不求	-10.528
吁	-10.5283
先王之	-10.5286
不曉	-10.5288
晋	-10.5292
聖王	-10.5292
莒	-10.5292
耿	-10.5293
楹	-10.5295
憲宗	-10.5295
汎	-10.5296
之徳	-10.5298
鸚鵡	-10.5299
乆之	-10.5299
為善	-10.531
駿	-10.5311
梗	-10.5317
清明	-10.5319
宰臣	-10.5319
墟	-10.5321
芥	-10.5323
學問	-10.5324
欒	-10.5326
題詩	-10.5339
官至	-10.534
之失	-10.5342
不得不	-10.5343
舂	-10.5345
之南	-10.5345
前有	-10.5346
糊	-10.5351
文集	-10.5354
嫡	-10.5354
鬢	-10.5356
和之	-10.536
足矣	-10.5362
不惟	-10.5364
楚王	-10.5364
武后	-10.5366
風吹	-10.5368
何其	-10.537
縣南	-10.5375
羡	-10.5376
古詩	-10.5379
彬	-10.538
彪	-10.5381
馴	-10.5383
丕	-10.5383
之使	-10.5385
俠	-10.5386
釘	-10.5388
脆	-10.5389
世宗	-10.5391
者是也	-10.5394
平原	-10.54
云此	-10.5403
寒暑	-10.5407
至矣	-10.541
窟	-10.5412
溥	-10.5412
凱	-10.5416
水經注	-10.5423
恱	-10.5425
嘆曰	-10.5432
事君	-10.5434
室中	-10.5441
鄂	-10.5442
再三	-10.5443
妍	-10.5448
簪	-10.5449
窠	-10.5449
於朝	-10.5449
蟠	-10.5449
陳氏	-10.545
朝夕	-10.5454
莫敢	-10.5456
牡	-10.5463
盂	-10.5468
頥	-10.5474
編修	-10.5475
為上	-10.5476
諸書	-10.548
唾	-10.548
也予	-10.5488
十餘年	-10.5488
渡江	-10.549
兵部	-10.5491
無道	-10.5492
提舉	-10.5501
淮南子	-10.5502
經史	-10.5502
鈍	-10.5503
益州	-10.5503
孝子	-10.5504
氊	-10.5507
牕	-10.5508
一身	-10.5514
亦當	-10.5521
三兩	-10.5525
其語	-10.5526
此句	-10.5527
唐宋	-10.5528
杞	-10.5528
自得	-10.5533
件	-10.5533
雋	-10.5535
受之	-10.5535
窑	-10.5537
䑓	-10.5538
恪	-10.554
而起	-10.5544
為名	-10.5546
士卒	-10.5552
畿	-10.5553
瑕	-10.5556
四百	-10.556
尚存	-10.556
所有	-10.5564
霽	-10.5568
不去	-10.5572
已下	-10.5576
不稱	-10.5576
給事	-10.5578
良久	-10.5585
平王	-10.5596
咽	-10.5598
安知	-10.5598
博學	-10.5599
歌曰	-10.56
元帝	-10.5602
吏部尚書	-10.5609
貲	-10.561
愛其	-10.5616
刑部	-10.5619
詔書	-10.5621
皆然	-10.5622
劣	-10.563
相近	-10.5632
子厚	-10.5634
伯夷	-10.5641
陽縣	-10.5643
歸之	-10.5646
皇甫	-10.565
陀	-10.5651
懇	-10.5658
乃得	-10.5658
二千石	-10.5659
之力	-10.5661
翌日	-10.5662
五言	-10.5663
衆人	-10.5663
八卦	-10.5664
顆	-10.5665
篋	-10.5666
可以為	-10.5669
大明	-10.567
太陽	-10.5672
御書	-10.5682
一小	-10.5682
諒	-10.569
有天下	-10.5691
睿	-10.5692
楮	-10.5693
之分	-10.5694
蹟	-10.5694
焚香	-10.5697
近臣	-10.5701
羲	-10.5708
色如	-10.5709
縣北	-10.571
㢘	-10.5718
西漢	-10.5721
後魏	-10.5723
一斗	-10.5723
撲	-10.5724
周書	-10.5725
太上	-10.5729
土地	-10.5733
則可	-10.5737
其勢	-10.5739
年號	-10.574
嘗見	-10.574
通典	-10.5741
所知	-10.5742
南唐	-10.5745
唐制	-10.5749
天寳	-10.575
麵	-10.5753
歆	-10.5753
樽	-10.5754
穎	-10.5755
繒	-10.5758
聳	-10.5759
襄王	-10.5762
平日	-10.5768
奉使	-10.5768
乎此	-10.577
天文	-10.5775
靖康	-10.5776
本傳	-10.5776
諸葛	-10.5778
之極	-10.578
舛	-10.5781
一尺	-10.5781
訾	-10.5783
圎	-10.5784
𥘉	-10.5786
需	-10.5786
子思	-10.5788
軀	-10.579
九日	-10.5793
沙門	-10.5796
釋文	-10.5799
亦不能	-10.58
為末	-10.5806
不獲	-10.5807
瓣	-10.581
晚年	-10.5811
江左	-10.5818
攀	-10.5822
若有	-10.5823
是何	-10.5825
使君	-10.5831
石經	-10.5834
御史大夫	-10.5834
首尾	-10.5835
一分	-10.5836
牘	-10.5837
澁	-10.5844
杜預	-10.5845
蛟	-10.5845
椎	-10.5846
鄭康成	-10.5846
入朝	-10.5849
媒	-10.585
太一	-10.5853
塟	-10.5853
賦曰	-10.5854
人者	-10.5855
大觀	-10.5859
明白	-10.586
可觀	-10.5868
永嘉	-10.5868
蔬	-10.5873
是則	-10.5874
楓	-10.5877
檀弓	-10.5878
教之	-10.5882
語云	-10.5883
反覆	-10.5883
不仁	-10.5884
陛	-10.5891
釋之	-10.5894
自號	-10.5897
粲	-10.5902
隻	-10.5906
鞏	-10.5907
遯	-10.5908
涇	-10.5909
二十七	-10.5909
藏之	-10.591
廷尉	-10.5911
熾	-10.5911
青衣	-10.5921
監司	-10.5921
餓	-10.5925
斃	-10.5925
皓	-10.5933
也漢	-10.5937
琰	-10.5939
徐州	-10.5941
賢人	-10.5942
蔚	-10.5943
貞元	-10.595
銘曰	-10.5952
於道	-10.5959
疑之	-10.5961
尚未	-10.5961
而弗	-10.5962
扣	-10.5963
之節	-10.5968
昭公	-10.5969
無恙	-10.5969
袒	-10.5974
鐫	-10.5975
夏至	-10.5976
廼	-10.5976
這	-10.5976
萃	-10.5979
𦂳	-10.598
相繼	-10.598
郡國	-10.598
近代	-10.5984
神農	-10.5985
入于	-10.5988
六七	-10.5989
官吏	-10.599
事而	-10.5994
無為	-10.5995
十五日	-10.5998
工部	-10.6
之行	-10.6006
郤	-10.6006
十九年	-10.6006
未易	-10.6007
按此	-10.6008
皆得	-10.601
芋	-10.601
校尉	-10.6014
甲乙	-10.6017
曰是	-10.6021
未甞	-10.6023
異之	-10.6026
撓	-10.6029
輅	-10.6032
蛤	-10.6033
更有	-10.6038
笋	-10.6039
斫	-10.604
中書令	-10.6041
則必	-10.6041
為是	-10.6041
轅	-10.6042
渙	-10.6043
之位	-10.6052
是年	-10.6053
忠信	-10.6056
其詞	-10.6057
觀國案	-10.6057
管子	-10.6059
逝	-10.6066
鞠	-10.6066
灼	-10.6066
山之	-10.6066
賜之	-10.6069
羸	-10.6071
簒	-10.6072
之役	-10.6075
褚	-10.6075
過於	-10.6076
地方	-10.6079
礙	-10.6082
鞍	-10.6084
庠	-10.6087
枝葉	-10.6098
中央	-10.6099
分别	-10.61
璞	-10.6101
得道	-10.6102
不作	-10.6102
予謂	-10.6104
董仲舒	-10.6106
唇	-10.6106
啄	-10.6108
怡	-10.6108
蔡京	-10.6116
不取	-10.6119
臆	-10.6122
賞罰	-10.6123
臻	-10.6137
蠱	-10.6138
控	-10.614
柑	-10.6141
人謂之	-10.6142
緘	-10.6142
輟	-10.6143
絕	-10.6143
大學	-10.6145
漢武帝	-10.6145
名士	-10.6149
行事	-10.6152
合於	-10.6153
河水	-10.6162
銳	-10.6167
虬	-10.6169
捉	-10.6169
粘	-10.617
隘	-10.617
酥	-10.6175
王母	-10.6175
置酒	-10.6175
緝	-10.6175
入水	-10.6175
一節	-10.6175
漢之	-10.6176
此論	-10.6178
自今	-10.6181
得以	-10.6183
孕	-10.6183
異也	-10.6193
佑	-10.6198
中書舍人	-10.62
紐	-10.6201
謔	-10.6201
治天下	-10.6205
治國	-10.6207
些	-10.6209
欣	-10.6211
文曰	-10.6213
詩文	-10.6215
御覽	-10.6218
三軍	-10.622
藏書	-10.622
甥	-10.6221
歙	-10.6221
為君	-10.6226
道家	-10.6227
所欲	-10.623
五曰	-10.6233
紳	-10.6234
冐	-10.6236
拓	-10.6241
子雲	-10.6245
九卿	-10.6248
此人	-10.6254
投之	-10.6261
書法	-10.6263
璋	-10.6265
寨	-10.6266
去皮	-10.6269
麄	-10.627
猥	-10.627
馭	-10.627
煥	-10.6272
庻	-10.6274
不傳	-10.6277
諸侯之	-10.628
教授	-10.6282
不類	-10.6283
北斗	-10.6285
知人	-10.6292
二王	-10.6294
昬	-10.6303
魏晉	-10.6303
一行	-10.6304
其民	-10.6307
楊氏	-10.6316
不逮	-10.6325
肖	-10.6331
孔安國	-10.6335
茹	-10.6336
闌	-10.6336
海上	-10.6337
生死	-10.6342
曰大	-10.6343
常以	-10.6348
其性	-10.6351
當有	-10.6354
鼈	-10.6356
而天下	-10.6357
參政	-10.636
購	-10.6361
車駕	-10.6362
得名	-10.6364
訝	-10.637
弋	-10.637
躁	-10.6371
始也	-10.6372
道徳	-10.638
有小	-10.6391
莊公	-10.6395
所當	-10.6397
轍	-10.64
師古	-10.64
好學	-10.6401
鶻	-10.6402
徇	-10.6404
骨肉	-10.6404
二女	-10.6406
仁者	-10.6406
七八	-10.641
今年	-10.6411
彞	-10.6412
夢中	-10.6413
不須	-10.6417
先公	-10.6419
郡王	-10.6423
文正	-10.6423
之任	-10.6424
禮部尚書	-10.6426
金人	-10.6427
伊川	-10.6429
棟	-10.6432
所至	-10.6434
漂	-10.6435
翦	-10.6437
於民	-10.644
無常	-10.6441
鍋	-10.6443
伏羲	-10.6447
而為之	-10.6455
僊	-10.6462
纓	-10.6465
蚤	-10.6465
之政	-10.6466
腥	-10.6466
鉉	-10.6467
宸	-10.6467
慚	-10.6468
臍	-10.6469
掲	-10.6472
之要	-10.6472
驥	-10.6473
蓼	-10.6473
則天	-10.6473
嘗言	-10.6474
萬歴	-10.6476
湯武	-10.6476
記之	-10.6479
不平	-10.648
而終	-10.6481
員外	-10.6483
御史中丞	-10.6484
内侍	-10.6487
薊	-10.6496
參軍	-10.6497
字也	-10.6498
牝	-10.6501
雖然	-10.6504
庵	-10.6505
派	-10.6506
不義	-10.6508
八九	-10.6509
用心	-10.651
不爲	-10.6511
亦何	-10.6521
以進	-10.6525
粹	-10.6528
之北	-10.653
嘲	-10.6532
弛	-10.6532
幻	-10.6533
鴉	-10.6534
劵	-10.6536
皆非	-10.6538
殁	-10.6538
十分	-10.6539
盜賊	-10.6547
一章	-10.6554
如玉	-10.6555
鉅	-10.6559
箱	-10.6561
過之	-10.6573
髯	-10.6573
聲也	-10.6576
一嵗	-10.6579
痩	-10.6581
大理	-10.6587
箕子	-10.6591
門生	-10.6593
以是	-10.6594
逋	-10.6596
韜	-10.6597
不喜	-10.6598
曼	-10.6603
曇	-10.6607
熏	-10.6612
其體	-10.662
屈原	-10.6621
至正	-10.6621
大率	-10.6624
后稷	-10.6629
智者	-10.663
主事	-10.663
在下	-10.6631
長子	-10.6632
也是故	-10.6633
士之	-10.6637
齎	-10.6639
搨	-10.664
無罪	-10.6642
䖏	-10.6643
槖	-10.6643
茄	-10.6645
王曰	-10.6645
孝宗	-10.6646
邕	-10.6647
父老	-10.6649
昻	-10.665
黄鍾	-10.6652
妨	-10.6657
者無	-10.666
以相	-10.6663
忽有	-10.6672
薰	-10.6674
曰卿	-10.6675
同列	-10.6678
艶	-10.6679
轉運使	-10.6679
杜甫	-10.6682
三十里	-10.6688
公言	-10.669
贄	-10.6697
蠅	-10.6697
故云	-10.6699
涵	-10.6701
屏風	-10.6701
者葢	-10.6701
籬	-10.6701
讀為	-10.6701
空中	-10.6704
弗能	-10.6704
㡌	-10.6705
迺	-10.6705
杵	-10.6706
牓	-10.6709
立於	-10.6711
甌	-10.6712
郁	-10.6713
欲得	-10.6715
一體	-10.6718
越王	-10.6726
頗有	-10.673
氣象	-10.6731
寺僧	-10.6732
不經	-10.6735
僣	-10.6739
得此	-10.6742
脅	-10.6742
不著	-10.6742
猶言	-10.6743
凋	-10.6744
種之	-10.6744
欣然	-10.6745
洪範	-10.675
白石	-10.6754
亦猶	-10.6758
乃可	-10.6764
一片	-10.6767
第七	-10.6769
燧	-10.677
奏請	-10.677
事者	-10.6778
塜	-10.6779
殊不知	-10.678
夸	-10.6781
廣州	-10.6784
焚之	-10.6787
而巳	-10.679
惠王	-10.6794
可食	-10.6797
繼之	-10.6798
第六	-10.6801
二者	-10.6801
豈得	-10.6802
其制	-10.6806
此等	-10.6806
閨	-10.6806
无	-10.6809
悶	-10.6812
梯	-10.6813
養生	-10.6814
頰	-10.6814
自知	-10.6815
而知	-10.6816
離騷	-10.6816
賦云	-10.6817
者多矣	-10.683
觀者	-10.6839
諸司	-10.6843
二事	-10.6843
帝紀	-10.6844
惟有	-10.6846
五更	-10.6846
媪	-10.6847
一笑	-10.6847
其氣	-10.6848
蝶	-10.6849
焙	-10.685
蓬萊	-10.685
之衆	-10.6853
則民	-10.6855
退而	-10.6859
天竺	-10.686
遼東	-10.6862
磁	-10.6863
簫	-10.6863
者蓋	-10.6873
邈	-10.6879
朱文公	-10.688
哥	-10.6882
同姓	-10.6882
顏	-10.6883
示之	-10.6883
以来	-10.6883
護	-10.6883
所及	-10.6884
中宗	-10.6885
草堂	-10.6885
僖公	-10.6887
奏曰	-10.6888
叩頭	-10.689
因而	-10.689
汝南	-10.6891
其神	-10.6903
少陵	-10.6906
亦謂之	-10.6906
何物	-10.6907
譙	-10.6909
山人	-10.6916
六國	-10.6919
《	-10.6919
之長	-10.6924
黄河	-10.6927
森	-10.6931
孺	-10.6932
其詩	-10.6938
修撰	-10.6941
其首	-10.6943
以養	-10.6948
一大	-10.6951
曲江	-10.6951
憾	-10.6951
翹	-10.6952
瞽	-10.6953
侃	-10.6955
嶠	-10.6956
太僕	-10.6956
一代	-10.6966
凡三	-10.6972
從此	-10.6975
先生曰	-10.6977
一朝	-10.6978
能知	-10.6987
知縣	-10.6987
拌	-10.6987
郷	-10.6989
贅	-10.6989
守之	-10.6989
人亦	-10.6992
文宗	-10.6995
一生	-10.6997
幽州	-10.7001
家語	-10.7002
漢時	-10.7013
待之	-10.7019
拊	-10.702
必欲	-10.7021
炳	-10.7021
存者	-10.703
巵	-10.703
二千	-10.7031
無可	-10.7033
陌	-10.7035
者雖	-10.7036
涯	-10.7036
天寶	-10.7051
聽之	-10.7053
餐	-10.7057
扈	-10.7058
卻	-10.7058
璫	-10.7061
鎻	-10.7061
臼	-10.7061
為小	-10.7062
証	-10.7063
曩	-10.7064
慶厯	-10.7066
在天	-10.7069
祭之	-10.7069
因此	-10.7071
逸少	-10.7086
始得	-10.7088
桞	-10.7095
悍	-10.7097
旺	-10.7097
謡	-10.7099
友人	-10.71
監察御史	-10.71
忘其	-10.71
易曰	-10.7101
艷	-10.7101
赫	-10.7101
本於	-10.7103
以俟	-10.7104
水晶	-10.7105
官制	-10.7108
宫殿	-10.7109
光明	-10.7109
舎人	-10.7109
介甫	-10.711
牖	-10.7118
五品	-10.7119
嘗謂	-10.7123
以供	-10.7126
執事	-10.7129
嬴	-10.713
懶	-10.7132
筯	-10.7132
廩	-10.7132
嵗月	-10.7133
出門	-10.7134
小篆	-10.7144
有云	-10.7147
一千	-10.7148
之别	-10.715
疇	-10.7152
刑罰	-10.7152
歌舞	-10.7152
誤以	-10.7156
清河	-10.7162
燃	-10.7164
廓	-10.7164
逵	-10.7169
假借	-10.7175
予按	-10.7177
夏侯	-10.7178
仕宦	-10.7179
其門	-10.7181
湧	-10.7183
秋風	-10.7191
崇寧	-10.7194
題曰	-10.7194
筒	-10.7197
駮	-10.7201
蒿	-10.7202
苐	-10.7202
汾	-10.7203
汶	-10.7204
從而	-10.7204
潁川	-10.7207
不逺	-10.7214
諦	-10.7216
經傳	-10.7216
明道	-10.7218
之義也	-10.722
五星	-10.722
之遺	-10.7221
彭城	-10.7224
為我	-10.7227
不加	-10.7229
君王	-10.7233
殯	-10.7239
髓	-10.7239
糓	-10.7246
未敢	-10.7246
庚子	-10.7246
有竒	-10.725
劉歆	-10.7251
僉	-10.726
幾何	-10.7262
也後	-10.7262
婦女	-10.7263
内史	-10.7264
鉢	-10.7271
蚌	-10.7272
音義	-10.7274
形似	-10.7275
漳	-10.7275
眩	-10.7276
撮	-10.7276
圏	-10.7277
醮	-10.7279
詔曰	-10.728
三萬	-10.7281
沆	-10.7281
斵	-10.7282
每日	-10.7291
之議	-10.7292
猶可	-10.7295
不學	-10.7295
故知	-10.7305
奎	-10.7305
難以	-10.7307
甸	-10.7308
之謀	-10.7308
滇	-10.7312
京城	-10.7312
墨子	-10.7313
不以為	-10.7315
所聞	-10.7315
逞	-10.7321
年七十	-10.7322
少許	-10.7333
乃止	-10.7335
英雄	-10.7335
後為	-10.7336
曹公	-10.7337
海中	-10.7339
訂	-10.7342
人或	-10.7347
復為	-10.7349
渇	-10.7349
概	-10.7351
摯	-10.7353
性命	-10.7354
與夫	-10.7357
而實	-10.7358
以文	-10.7361
與其	-10.737
乃謂	-10.7374
甑	-10.7374
堦	-10.7385
販	-10.7387
之害	-10.7388
飼	-10.7389
髙帝	-10.739
縳	-10.7391
始終	-10.7401
一品	-10.7403
五千	-10.7409
順治	-10.7418
蒜	-10.7422
呼之	-10.7422
愍	-10.7423
白日	-10.7428
瘞	-10.7429
晉侯	-10.7429
黄州	-10.7429
尋常	-10.7434
孫權	-10.7436
萬年	-10.7438
四五	-10.744
損益	-10.7442
不畏	-10.7442
鹵簿	-10.7453
而用之	-10.7454
不少	-10.7457
夙	-10.7457
昭王	-10.7458
吸	-10.7459
果有	-10.7459
誅之	-10.7459
缸	-10.7462
薫	-10.7463
至元	-10.7463
作文	-10.7467
殃	-10.7467
於後	-10.7469
蕚	-10.747
一時之	-10.7475
字從	-10.7475
以聞	-10.7478
不可用	-10.7478
形容	-10.7479
何哉	-10.748
近時	-10.7488
其位	-10.7488
人能	-10.7488
将軍	-10.749
笠	-10.7492
庚申	-10.7492
受其	-10.7494
􁁜	-10.7495
梢	-10.7499
司馬温公	-10.7499
王安石	-10.75
怕	-10.7501
櫻桃	-10.7502
也吾	-10.7504
二分	-10.7505
秘閣	-10.7511
者三	-10.7512
未免	-10.7514
綱目	-10.7514
歴代	-10.7519
所由	-10.752
萬一	-10.752
軍中	-10.752
生而	-10.7533
釁	-10.7533
瓢	-10.7534
隕	-10.7535
喙	-10.7535
扉	-10.7537
不厭	-10.7539
觚	-10.7539
以事	-10.754
會稽	-10.7541
不起	-10.7544
此是	-10.7545
城西	-10.7547
闔	-10.7552
元氣	-10.7553
而作	-10.7555
將相	-10.7555
猶在	-10.7563
蛾	-10.7564
甚詳	-10.7571
掇	-10.7572
瓠	-10.7574
何用	-10.7577
郎君	-10.7577
忠義	-10.7578
菩薩	-10.7578
後生	-10.7579
咸陽	-10.758
張良	-10.7587
翰林院	-10.759
大驚	-10.7591
北史	-10.7592
雩	-10.7594
莫之	-10.76
治亂	-10.7601
堂上	-10.7602
而求	-10.7603
因之	-10.7604
隷	-10.7606
鞋	-10.7606
吳興	-10.7606
姻	-10.7609
瞿	-10.7609
始知	-10.761
䕃	-10.7611
所傳	-10.7612
趙氏	-10.7613
無能	-10.7613
滎陽	-10.7615
濮	-10.7617
熈寧	-10.7619
漢唐	-10.7621
圖書	-10.7631
正義	-10.7632
鯀	-10.7634
南人	-10.7635
人才	-10.7642
濟南	-10.7642
勻	-10.7643
湖州	-10.7644
時事	-10.7646
呌	-10.7647
文忠	-10.7648
千人	-10.7649
之業	-10.7649
謹按	-10.7649
后妃	-10.7649
而未	-10.765
亘	-10.765
駝	-10.765
滓	-10.765
為貴	-10.7655
皆無	-10.7659
莫如	-10.7669
此篇	-10.7677
藕	-10.768
常有	-10.7685
袋	-10.7685
交趾	-10.7685
瘴	-10.7689
幡	-10.769
諸國	-10.7695
承㫖	-10.7695
一書	-10.7699
之女	-10.7701
百家	-10.7702
以正	-10.7703
公事	-10.7703
齊侯	-10.7712
城郭	-10.7713
以歸	-10.7713
非常	-10.7716
終於	-10.7724
耐	-10.7729
倘	-10.7729
天台	-10.7729
僞	-10.7731
漢王	-10.7739
成公	-10.774
以此為	-10.7741
六人	-10.7747
殊不	-10.7748
内臣	-10.775
一等	-10.7754
試之	-10.7757
何耶	-10.7759
擣	-10.7759
字為	-10.7762
鞅	-10.7764
有六	-10.7765
好事	-10.7766
侍讀	-10.7766
亦謂	-10.7769
愿	-10.777
九百	-10.7773
數十年	-10.7774
責之	-10.7778
無遺	-10.7781
之意也	-10.7783
之妻	-10.7791
聞者	-10.7791
讀如	-10.7797
天聖	-10.7799
其行	-10.78
鋤	-10.78
檢校	-10.7802
戱	-10.7803
琉璃	-10.7803
鑰	-10.7805
撃	-10.7806
帆	-10.7808
親王	-10.7812
好惡	-10.7815
亦能	-10.7815
棠	-10.7815
詩序	-10.7816
梧	-10.7818
何異	-10.7822
奈	-10.7824
南郊	-10.7831
聯	-10.7833
胄	-10.7835
蕉	-10.7837
飭	-10.7838
福建	-10.784
數萬	-10.7841
上聲	-10.7842
應之	-10.7844
時為	-10.7845
一聲	-10.7847
卿大夫	-10.7848
硬	-10.785
菽	-10.785
大義	-10.7853
縣西	-10.7853
乃有	-10.7855
教坊	-10.7855
不滿	-10.7857
仆	-10.786
韓公	-10.7861
工夫	-10.7862
詩賦	-10.787
蚊	-10.7874
虵	-10.7874
稼	-10.7876
郭璞	-10.7879
天上	-10.7879
其弟	-10.7881
覈	-10.7883
於下	-10.7884
漢儒	-10.7887
載之	-10.7888
宰執	-10.7896
内府	-10.7897
五味	-10.7898
唐虞	-10.7904
景公	-10.7916
大業	-10.7916
禮也	-10.7917
吕氏春秋	-10.7918
此即	-10.792
加以	-10.792
先人	-10.7921
揉	-10.7922
入於	-10.7924
知此	-10.7927
亦皆	-10.7927
筆法	-10.7932
劄	-10.7933
義也	-10.7936
皆曰	-10.7936
三國	-10.7938
其親	-10.7942
莫若	-10.7944
河内	-10.7945
鹹	-10.7953
囬	-10.7954
疫	-10.7954
乆矣	-10.7954
豬	-10.7955
字皆	-10.7958
砌	-10.7958
在前	-10.7959
書生	-10.796
乎其	-10.796
𢃄	-10.7962
倭	-10.7963
昉	-10.7968
哀公	-10.7972
未足	-10.7981
侍御	-10.7983
五音	-10.7985
徃來	-10.7985
也因	-10.7985
鄭𤣥	-10.7986
秘書	-10.7991
既至	-10.7992
有力	-10.7993
如意	-10.7994
建炎	-10.7995
青山	-10.7996
剔	-10.7997
礬	-10.7997
樞宻	-10.7998
賄	-10.7999
宇文	-10.8
果然	-10.8006
門户	-10.8015
用其	-10.8017
題名	-10.8018
王道	-10.8029
紹聖	-10.8035
一枚	-10.8037
小説	-10.8038
不書	-10.8043
侍講	-10.8044
註云	-10.8044
告之	-10.8045
歸於	-10.8045
州人	-10.8047
范文正公	-10.8048
養之	-10.8049
南渡	-10.8049
可使	-10.8053
晉公	-10.8053
安在	-10.8057
不中	-10.806
野人	-10.806
者不可	-10.8062
不可復	-10.8066
見于	-10.8066
渥	-10.807
為天	-10.8073
未之	-10.8074
猶存	-10.8074
請以	-10.8074
麋	-10.8075
縑	-10.8075
匏	-10.8075
陳留	-10.8077
訥	-10.8078
穰	-10.8079
二十一	-10.808
舊唐書	-10.8081
喜怒	-10.8084
於心	-10.8085
發明	-10.8086
此所謂	-10.8087
生平	-10.8095
之月	-10.8096
異於	-10.8099
張衡	-10.8105
吕氏	-10.8105
開元中	-10.8105
以獻	-10.8106
二寸	-10.8108
隄	-10.8114
中和	-10.8114
稟	-10.8115
脇	-10.8116
蝗	-10.8116
蘿	-10.8119
劉禹錫	-10.8119
優劣	-10.8121
治平	-10.8122
不減	-10.8125
一首	-10.8131
賓客	-10.8131
武陵	-10.8132
王師	-10.8138
若以	-10.8141
瑜	-10.8141
亦如之	-10.8141
此之謂	-10.8148
舉進士	-10.815
撤	-10.8152
授之	-10.8153
拭	-10.8154
誚	-10.8154
廖	-10.8157
惰	-10.8158
景帝	-10.816
經義	-10.8162
平地	-10.8168
當國	-10.8169
始于	-10.8172
趙王	-10.8181
唐時	-10.8184
大雅	-10.8187
則不然	-10.8188
外國	-10.8188
穆公	-10.8188
章句	-10.8189
中使	-10.8192
槎	-10.8192
則非	-10.8196
肌	-10.8197
繋	-10.8197
牽牛	-10.8204
尚在	-10.8209
更無	-10.8211
臣子	-10.8217
亳	-10.8217
世子	-10.8219
黄門	-10.8223
二尺	-10.8224
為佳	-10.8225
使臣	-10.8228
八人	-10.8229
蕙	-10.8235
紺	-10.8235
一度	-10.8235
涸	-10.8238
鍼	-10.8238
之過	-10.8241
迪	-10.8241
蝕	-10.8242
登科	-10.8243
雒	-10.8244
此二	-10.8245
大風	-10.8253
初無	-10.8259
云是	-10.8263
沂	-10.8263
當日	-10.8265
人無	-10.8265
者衆	-10.827
氐	-10.827
梳	-10.8271
七言	-10.8272
推官	-10.8273
不便	-10.8273
洩	-10.8274
不治	-10.8276
嫉	-10.8277
在内	-10.8281
帙	-10.8281
簇	-10.8282
乃命	-10.8282
鴛鴦	-10.8284
之治	-10.8294
周人	-10.8295
萬事	-10.8295
有意	-10.8298
不論	-10.8298
矣若	-10.83
縣東	-10.83
未嘗有	-10.83
古書	-10.8303
下正	-10.8304
熙寧	-10.8304
相反	-10.8306
三十二	-10.8307
此理	-10.8308
二十三	-10.8308
之賢	-10.8311
雛	-10.8312
父兄	-10.8312
抹	-10.8316
而易	-10.8316
宣公	-10.8317
旬日	-10.8319
四十九	-10.832
觀音	-10.8322
上古	-10.8323
玉篇	-10.8324
施於	-10.8326
安世	-10.8327
三代之	-10.8329
言事	-10.8332
亦為	-10.8332
無敢	-10.8335
之德	-10.8337
東風	-10.8337
復以	-10.8337
之舊	-10.8338
宋公	-10.8339
也昔	-10.834
無聲	-10.8341
曰陛下	-10.8345
姑蘇	-10.8347
粤	-10.8348
是知	-10.8349
褥	-10.835
之訛	-10.8355
媿	-10.8358
杜注	-10.8358
非有	-10.8359
煬帝	-10.836
若不	-10.8364
二物	-10.8365
未成	-10.8365
譬如	-10.8366
即日	-10.8368
不廢	-10.8371
待詔	-10.8372
大體	-10.8373
不存	-10.8374
二十一年	-10.8376
氣也	-10.8379
人以為	-10.8383
孔明	-10.8383
射之	-10.8384
訊	-10.8385
青雲	-10.8385
一曲	-10.8386
菱	-10.839
有子	-10.8391
燔	-10.8392
梁武帝	-10.8393
珊瑚	-10.8394
彘	-10.8394
二十二	-10.8395
官府	-10.8399
二十里	-10.8399
黯	-10.84
遙	-10.8402
以見	-10.8403
一處	-10.8406
文昌	-10.8406
不特	-10.8408
碗	-10.841
稽首	-10.841
儒生	-10.8411
凡此	-10.8417
末年	-10.8418
太隂	-10.8428
職事	-10.8435
吝	-10.8438
痰	-10.8439
構	-10.8439
而亡	-10.844
皋	-10.8441
慿	-10.8442
過人	-10.8443
或者	-10.8443
命之	-10.8445
法令	-10.8447
疾病	-10.8448
官職	-10.8451
無過	-10.8452
地理	-10.8453
注謂	-10.8453
留守	-10.8458
雲中	-10.8466
鴟	-10.8466
以明	-10.8467
變為	-10.8469
不避	-10.8472
夕陽	-10.8473
江州	-10.8475
顓頊	-10.8478
屨	-10.8478
嬖	-10.848
毀	-10.8482
知州	-10.8482
不能盡	-10.8484
夷狄	-10.8484
行也	-10.849
經云	-10.8491
城縣	-10.8491
二世	-10.8494
成帝	-10.8495
詎	-10.8497
屯田	-10.85
國子監	-10.8502
關中	-10.8503
漢魏	-10.8503
取士	-10.8505
一夜	-10.8508
臨川	-10.8509
天王	-10.8511
漠	-10.8515
無心	-10.8515
宦者	-10.8516
竦	-10.8518
甚明	-10.8519
棒	-10.8522
十有二	-10.8524
偈	-10.8527
一世	-10.8528
生日	-10.8536
三子	-10.8541
字畫	-10.8544
又見	-10.8545
不離	-10.8548
博雅	-10.8548
至大	-10.8549
桀紂	-10.8551
顔子	-10.8553
南宫	-10.8557
盲	-10.8558
頤	-10.8561
二十餘	-10.8561
太湖	-10.8562
懋	-10.8563
物理	-10.8563
六日	-10.8565
戶	-10.8568
或言	-10.8569
不遇	-10.8571
事有	-10.8578
小大	-10.8578
殿中	-10.8579
臨江	-10.8581
出其	-10.8583
年少	-10.8585
姓氏	-10.8589
鎬	-10.859
四夷	-10.8592
軾	-10.8593
其職	-10.8594
殽	-10.8597
尤甚	-10.8599
廹	-10.8602
躡	-10.8604
處之	-10.8605
幘	-10.8605
聾	-10.8605
丐	-10.8606
妝	-10.8607
皆從	-10.8608
蔑	-10.8609
消息	-10.8615
西河	-10.8615
非不	-10.8615
救之	-10.862
立春	-10.8621
以道	-10.8633
武侯	-10.8634
諸州	-10.8634
得意	-10.8636
譴	-10.8636
羔	-10.8639
不詳	-10.8639
瘠	-10.8642
郎官	-10.8642
召公	-10.8642
囂	-10.8643
迥	-10.8645
殿上	-10.8645
相思	-10.8645
亦如	-10.8646
舟中	-10.8646
籥	-10.8646
弭	-10.8646
碾	-10.8648
軼	-10.8648
邾	-10.8648
者自	-10.8649
二篇	-10.865
鄭注	-10.8652
峙	-10.8652
昂	-10.8652
變而	-10.8653
論曰	-10.8656
三百六十	-10.8659
緇	-10.867
世所	-10.8672
所無	-10.8673
異同	-10.8673
㓂	-10.8673
漢中	-10.8674
鉞	-10.8675
蘄	-10.8676
水上	-10.8678
數也	-10.8681
萬嵗	-10.8681
旄	-10.8683
是月	-10.8684
騶	-10.8685
耦	-10.8685
羿	-10.8685
之師	-10.8687
韵	-10.8688
𦙍	-10.8688
蓍	-10.8689
其情	-10.8694
諤	-10.8694
遞	-10.8695
左氏傳	-10.8697
而不得	-10.8697
長老	-10.8701
直言	-10.8708
荅曰	-10.8709
不息	-10.8712
此說	-10.8713
集韻	-10.8716
所殺	-10.8717
覆之	-10.8717
學之	-10.8718
蛙	-10.8724
余曰	-10.8726
胸中	-10.8726
理也	-10.8727
轄	-10.8731
揀	-10.8733
培	-10.8734
肚	-10.8734
經筵	-10.8737
文子	-10.8739
石為	-10.8745
科舉	-10.8745
來者	-10.8751
平章	-10.8753
楚之	-10.8753
誤作	-10.8753
有詩云	-10.8758
乾道	-10.8761
能為	-10.8762
晒	-10.8762
樂也	-10.8764
剝	-10.8768
鳳凰	-10.8769
箸	-10.8772
鵬	-10.8772
椀	-10.8773
倅	-10.8773
語言	-10.8774
察其	-10.8775
之色	-10.8776
之具	-10.8777
者當	-10.8778
山陽	-10.8795
相望	-10.8796
之甚	-10.8797
韓子	-10.8801
𢎞治	-10.8801
六百	-10.8804
所造	-10.8806
以次	-10.8809
有九	-10.8809
不好	-10.8809
於内	-10.881
地也	-10.881
之類也	-10.8812
廿	-10.8813
狡	-10.8815
籖	-10.8818
五代史	-10.8818
壮	-10.8823
唐之	-10.8823
其術	-10.8829
不可曉	-10.883
得人	-10.8833
而致	-10.8836
相通	-10.884
附㑹	-10.8841
建武	-10.8843
世説	-10.8844
一員	-10.8845
百人	-10.8846
無名	-10.8846
駟	-10.8846
非一	-10.8855
千秋	-10.8855
其可	-10.8855
衷	-10.8857
醴	-10.8867
而獨	-10.8867
避之	-10.8868
能詩	-10.8868
廂	-10.887
惡其	-10.8872
筆記	-10.8878
狩	-10.888
固已	-10.888
此文	-10.8881
之病	-10.8884
近於	-10.8886
衣裳	-10.8887
侍御史	-10.8887
衾	-10.8895
大功	-10.8897
漲	-10.8898
窓	-10.8898
腹中	-10.8899
眺	-10.8899
拯	-10.8899
盎	-10.8899
不亦	-10.8901
愆	-10.8902
儻	-10.8903
録云	-10.8905
蝦	-10.8906
殉	-10.8906
衙門	-10.8906
陳平	-10.8906
唐詩	-10.8916
七人	-10.8917
者以其	-10.8917
獨不	-10.8922
出身	-10.8924
學道	-10.8925
是其	-10.8928
萬物之	-10.8928
明主	-10.893
三省	-10.8933
不使	-10.8934
顔師古	-10.8937
之㫖	-10.8938
建康	-10.8938
者盖	-10.8939
沼	-10.894
腫	-10.894
也又曰	-10.894
莫知其	-10.8942
涪	-10.8942
餳	-10.8942
平陽	-10.8946
迅	-10.8946
淘	-10.8947
真蹟	-10.8949
使民	-10.895
比之	-10.895
親見	-10.8951
宋玉	-10.8951
宦官	-10.8951
而不敢	-10.8953
亦稱	-10.896
二李	-10.896
成敗	-10.8962
揚子	-10.8964
但見	-10.8968
順天	-10.8971
百二十	-10.8977
藝祖	-10.8978
今在	-10.8979
闈	-10.898
壁間	-10.898
稚	-10.8983
倖	-10.8984
窘	-10.8985
花開	-10.8986
泗	-10.8986
異日	-10.8986
神氣	-10.8987
瀛	-10.8989
噴	-10.8989
威儀	-10.8993
桃李	-10.8996
古有	-10.8997
曰爾	-10.8997
摭	-10.8998
六曰	-10.9001
水旱	-10.9005
則不可	-10.9012
其字	-10.9017
琦	-10.902
慾	-10.902
牛馬	-10.9023
地理志	-10.9025
邯鄲	-10.9027
釡	-10.9027
曝	-10.9027
怖	-10.9028
濱	-10.9029
戊辰	-10.903
列於	-10.9031
未發	-10.9033
未有不	-10.9035
之器	-10.9035
覔	-10.9036
徘徊	-10.9037
城門	-10.9039
一段	-10.9039
無形	-10.9042
此物	-10.9045
不測	-10.9049
事不	-10.9054
甚於	-10.9055
也是以	-10.9055
東門	-10.9056
前世	-10.906
無害	-10.906
韓文公	-10.9061
送之	-10.9062
雖無	-10.9062
賽	-10.9063
愚謂	-10.9063
蟄	-10.9068
乃為	-10.9069
逈	-10.9071
兖	-10.9072
所撰	-10.9072
使相	-10.9075
范蠡	-10.9075
姨	-10.9077
庇	-10.9078
王維	-10.9079
可疑	-10.9081
為天子	-10.9088
又為	-10.9091
冬月	-10.9094
日出	-10.9095
無足	-10.9097
之類皆	-10.9098
嘗與	-10.9099
曲折	-10.9101
六合	-10.9105
可喜	-10.9107
繕	-10.9113
王室	-10.9115
羅漢	-10.9116
嚼	-10.9116
尚書省	-10.9117
醢	-10.9117
為義	-10.9117
覃	-10.9118
疵	-10.9118
頽	-10.9119
效之	-10.9119
歐陽文忠公	-10.9126
地而	-10.9128
太山	-10.9132
所行	-10.9134
必死	-10.9136
昆弟	-10.9137
圖經	-10.9141
皆作	-10.9143
有常	-10.9149
樂之	-10.9155
一㸃	-10.9158
紿	-10.9161
別	-10.9161
糜	-10.9161
諛	-10.9162
睹	-10.9164
滑稽	-10.9166
衡山	-10.9166
豪傑	-10.9167
説郛卷	-10.9169
為天下	-10.9171
流涕	-10.9173
者故	-10.9173
其年	-10.9173
睢	-10.9173
自立	-10.9173
諫官	-10.9176
正與	-10.9185
惠公	-10.9186
寮	-10.9189
皆謂	-10.919
大國	-10.9195
之費	-10.9197
前此	-10.9197
行而	-10.9198
兖州	-10.9201
郝	-10.9202
太甲	-10.9203
楚子	-10.9204
柿	-10.9205
考功	-10.9205
簟	-10.9205
綜	-10.9207
膩	-10.9208
庚辰	-10.9209
茸	-10.921
字音	-10.9214
俄而	-10.9216
供奉	-10.9217
甲辰	-10.922
此一	-10.9221
數十人	-10.9222
矣其	-10.9227
表裏	-10.9228
問其故	-10.9228
知者	-10.923
以行	-10.923
風俗通	-10.9235
聞而	-10.9241
劉子	-10.9242
水經	-10.9247
其才	-10.9247
賚	-10.9248
閎	-10.925
土中	-10.9251
遂成	-10.9251
死矣	-10.9254
並無	-10.9256
又音	-10.9257
晉陽	-10.9258
未㡬	-10.926
有言	-10.9263
翰墨	-10.927
復生	-10.9271
四寸	-10.9272
者何也	-10.9273
記其	-10.9275
獅子	-10.9277
與我	-10.9282
同而	-10.9287
天順	-10.9287
而坐	-10.929
東京	-10.929
是已	-10.929
眇	-10.9292
憫	-10.9295
句云	-10.9296
墓誌	-10.9296
稠	-10.9297
所未	-10.9297
胷	-10.9299
宼	-10.93
而來	-10.93
非謂	-10.9303
道德	-10.9304
慕容	-10.9306
浮屠	-10.9306
考其	-10.9308
方士	-10.9314
道理	-10.9315
高下	-10.9317
生民	-10.9324
閤門	-10.9324
歸來	-10.9324
太宰	-10.9324
其徒	-10.9324
劄子	-10.9325
兩人	-10.9331
可憐	-10.9332
文靖	-10.9333
剡	-10.9335
數里	-10.9335
斯言	-10.9336
上官	-10.9337
渝	-10.9338
在今	-10.9338
帯	-10.9339
繳	-10.934
肘	-10.934
蹤	-10.9343
擕	-10.9343
識其	-10.9344
逄	-10.9346
為國	-10.9346
父之	-10.9347
皆稱	-10.9347
門内	-10.9348
三國志	-10.9349
其音	-10.935
觀察使	-10.935
藝文志	-10.9352
無非	-10.9352
古人之	-10.9354
四川	-10.936
舉子	-10.9361
云爾	-10.9363
典故	-10.9365
翊	-10.937
月餘	-10.9372
分為	-10.9372
耳今	-10.9374
辨之	-10.9377
賢良	-10.9379
因名	-10.938
杳	-10.9382
無知	-10.9382
械	-10.9382
每嵗	-10.9383
清風	-10.9384
不拘	-10.9385
匀	-10.9386
翫	-10.9387
捜	-10.9387
產	-10.9387
瑪瑙	-10.9387
麒麟	-10.9388
刷	-10.9388
中官	-10.939
攪	-10.9391
牛羊	-10.9395
至尊	-10.9407
張華	-10.9407
又問	-10.9415
藪	-10.9415
可畏	-10.9416
日用	-10.9416
甘泉	-10.9418
參差	-10.9419
子敬	-10.942
三世	-10.942
瑾	-10.9422
鶉	-10.9424
石上	-10.9424
呪	-10.9426
金吾	-10.9426
匱	-10.9426
罹	-10.943
沐浴	-10.9433
轂	-10.9433
之比	-10.9434
石室	-10.9435
抛	-10.9436
南面	-10.9437
竪	-10.9437
蘇氏	-10.9439
蜀中	-10.9439
各自	-10.9443
次日	-10.9445
可不	-10.945
號令	-10.9451
骸	-10.9452
如前	-10.9456
但云	-10.9456
亦不可	-10.9457
唐末	-10.9458
青龍	-10.9459
烝	-10.9462
問之曰	-10.9462
數百人	-10.9463
不服	-10.9465
五字	-10.9465
年八十	-10.9465
江上	-10.9466
世有	-10.9472
在京	-10.9473
意也	-10.9474
勛	-10.9475
后土	-10.9475
志云	-10.9477
人知	-10.9477
縈	-10.9478
帝王之	-10.9479
彚	-10.948
甚佳	-10.948
文定	-10.9482
大司馬	-10.9483
兀	-10.9483
蛟龍	-10.9486
鷺	-10.9487
日食	-10.9487
百世	-10.9491
實也	-10.9493
根本	-10.9496
龍虎	-10.9496
三錢	-10.9498
徳宗	-10.9502
偶然	-10.9505
不思	-10.9507
書籍	-10.9508
禮之	-10.9509
匹夫	-10.951
作一	-10.9514
李太白	-10.9514
款	-10.9515
以治	-10.9515
皇子	-10.952
禇	-10.9522
琮	-10.9522
謾	-10.9522
祔	-10.9524
圖畫	-10.9526
之次	-10.9528
實有	-10.9534
五里	-10.954
廡	-10.954
不妨	-10.9542
吳越	-10.9542
學士院	-10.9542
天理	-10.9543
問於	-10.9543
者豈	-10.9544
召見	-10.9544
等語	-10.9546
頓首	-10.9547
府君	-10.9552
一連	-10.9553
麝	-10.9555
攻之	-10.9555
御製	-10.9556
荆南	-10.9557
又一	-10.956
燾	-10.9562
施之	-10.9567
馬融	-10.9568
昶	-10.9568
嵌	-10.9568
夣	-10.9568
左手	-10.9569
燎	-10.9569
何得	-10.9569
鄕	-10.957
隴西	-10.957
僑	-10.957
字下	-10.9571
武宗	-10.9571
冀州	-10.9572
莫知	-10.9572
時已	-10.9572
法帖	-10.9579
言曰	-10.958
仝	-10.958
淳化	-10.9586
有神	-10.9589
封禪	-10.9591
留意	-10.9592
孔子之	-10.9593
不孝	-10.9599
御史臺	-10.9599
白虎	-10.9601
毗	-10.9603
臣聞	-10.9607
四十里	-10.9609
大家	-10.9609
今為	-10.9611
三王	-10.9612
耽	-10.9614
彥	-10.9615
嫂	-10.9615
於中	-10.9617
豈無	-10.9621
即今之	-10.9623
于天	-10.9628
叔向	-10.963
議曰	-10.9636
子墨子曰	-10.9636
亦嘗	-10.9641
又不	-10.9642
有光	-10.9646
自以為	-10.9646
湖南	-10.9646
德宗	-10.9649
之子也	-10.9652
爾雅曰	-10.9652
存焉	-10.9653
又非	-10.9653
鹵	-10.9656
杓	-10.9657
罷相	-10.9658
與此	-10.966
驗之	-10.9662
六尺	-10.9662
依舊	-10.9662
可得而	-10.9663
撒	-10.9664
盍	-10.9664
袂	-10.9666
訐	-10.9666
伏生	-10.9666
民無	-10.9669
武功	-10.9672
非獨	-10.9676
雖欲	-10.9677
絶無	-10.9684
之㑹	-10.9687
魏武	-10.9689
不可得而	-10.9689
以謂	-10.9692
君也	-10.9693
此地	-10.9694
也葢	-10.9696
安定	-10.9699
之首	-10.9699
宣徳	-10.97
遺事	-10.97
以身	-10.9701
湍	-10.9703
舊有	-10.9703
穉	-10.9704
參知政事	-10.9706
簮	-10.9707
戰國䇿	-10.9707
仲舒	-10.9709
之至也	-10.9711
祀之	-10.9714
功徳	-10.9714
曲禮	-10.9716
嘉定	-10.9716
公為	-10.9717
者也故	-10.9717
之教	-10.972
鮓	-10.9721
闕名	-10.9726
於君	-10.973
出自	-10.973
廬陵	-10.973
各以	-10.973
以應	-10.9731
陸機	-10.9732
此數	-10.9733
孝武	-10.9736
子由	-10.9743
訪之	-10.9744
宗伯	-10.9745
舉其	-10.9746
之迹	-10.9749
旻	-10.975
叠	-10.9757
彼此	-10.9759
四分	-10.9762
松江	-10.9762
夫以	-10.9763
互相	-10.9764
三家	-10.9764
遂有	-10.9766
謂曰	-10.977
八尺	-10.9775
家貧	-10.9776
惜其	-10.9777
爲人	-10.9779
白頭	-10.978
漢世	-10.978
伶	-10.9781
五十里	-10.9782
家藏	-10.9784
又引	-10.9784
或以為	-10.9786
楫	-10.9786
沽	-10.9789
欹	-10.9792
賑	-10.9792
濵	-10.9792
不由	-10.9793
百餘里	-10.9794
杜牧	-10.9794
臟	-10.9795
惇	-10.9795
最多	-10.9796
流俗	-10.9797
皆出	-10.9798
壬辰	-10.9798
行在	-10.9799
杪	-10.9801
舅姑	-10.9802
芸	-10.9803
鄭公	-10.9803
仲子	-10.9804
八十一	-10.9804
色白	-10.9805
斬之	-10.9806
吐蕃	-10.9808
博物志	-10.9809
臨安	-10.9819
黄道	-10.9821
二首	-10.9822
仞	-10.9823
此與	-10.9825
用人	-10.9826
為詩	-10.9829
以奉	-10.9831
同一	-10.9833
民有	-10.9835
不可知	-10.9838
詰之	-10.9839
所不	-10.9841
孝文	-10.9841
寐	-10.9842
猴	-10.9843
膾	-10.9844
丹青	-10.9845
煤	-10.9847
脣	-10.9847
個	-10.9848
裒	-10.9849
突厥	-10.9851
瓘	-10.9852
綃	-10.9852
也是	-10.9855
子胥	-10.9857
御前	-10.9858
江漢	-10.9858
為證	-10.9859
諸軍	-10.9859
是矣	-10.9861
為二	-10.9864
小學	-10.9865
文義	-10.9866
之例	-10.9867
司馬相如	-10.9868
其半	-10.9869
三五	-10.987
小子	-10.9871
之權	-10.9874
太𤣥	-10.9875
二詩	-10.9878
代宗	-10.988
吾家	-10.9881
江都	-10.9881
二萬	-10.9885
蠡	-10.9887
卒於	-10.989
父名	-10.9891
誰能	-10.9894
贏	-10.9894
喝	-10.9894
武臣	-10.9894
聲色	-10.9897
槃	-10.9898
贈之	-10.99
形勢	-10.9902
文王之	-10.9906
其主	-10.9907
丁未	-10.9908
字作	-10.9911
一一	-10.9911
凡人	-10.9914
不悟	-10.9914
人主之	-10.9919
作者	-10.9922
蘇秦	-10.9922
恐其	-10.9923
明經	-10.9925
也宋	-10.9926
秦人	-10.9927
或用	-10.9927
庶子	-10.993
竹書	-10.993
當在	-10.9931
以木	-10.9931
永平	-10.9933
於義	-10.9934
一方	-10.9936
炬	-10.9939
攷之	-10.9939
弘	-10.9941
當從	-10.9942
城東	-10.9943
非所以	-10.9944
禆	-10.9944
殫	-10.9945
丙午	-10.9946
吳王	-10.9946
瓌	-10.9947
至京師	-10.995
乙未	-10.9954
元人	-10.9955
大略	-10.9956
秦之	-10.9958
人人	-10.9959
劉公	-10.996
甲午	-10.9962
咸平	-10.9966
皇祐	-10.9967
察之	-10.9969
唐史	-10.997
鷗	-10.9978
流離	-10.9979
其根	-10.9981
常侍	-10.9981
安危	-10.9985
神人	-10.9985
在乎	-10.9986
河圖	-10.9986
八字	-10.9986
泠	-10.9987
忙	-10.9987
蒼梧	-10.9988
堰	-10.9989
至誠	-10.9989
倩	-10.9989
河間	-10.999
殖	-10.999
攬	-10.9991
勺	-10.9991
逓	-10.9992
酪	-10.9993
之憂	-10.9998
萬餘	-10.9999
疏曰	-11.0001
始以	-11.0002
亦得	-11.0002
其利	-11.0003
及此	-11.0003
信也	-11.0006
無定	-11.0007
多寡	-11.0008
豁	-11.0012
不敬	-11.0013
商人	-11.0013
赤壁	-11.0015
行道	-11.0016
近年	-11.002
紀年	-11.002
正如	-11.0025
也或曰	-11.0026
望見	-11.0027
不分	-11.0029
既成	-11.003
從者	-11.0032
靴	-11.0033
别傳	-11.0034
磚	-11.0037
付之	-11.0038
椿	-11.0038
癸丑	-11.0038
不審	-11.0039
靳	-11.0039
寸許	-11.004
實錄	-11.0041
不得其	-11.0042
蘇子瞻	-11.0043
順帝	-11.0043
不立	-11.005
珂	-11.0059
凡有	-11.0059
立功	-11.006
相連	-11.0061
富人	-11.0065
大江	-11.0069
兩句	-11.0069
周旋	-11.0076
江北	-11.0076
袴	-11.0079
但有	-11.0079
趾	-11.0081
金帛	-11.0083
名者	-11.0083
之序	-11.0083
之效	-11.0084
礪	-11.0084
四六	-11.0084
悞	-11.0085
秃	-11.0086
明王	-11.0088
類也	-11.0089
譎	-11.009
参	-11.009
其力	-11.009
腕	-11.0091
撞	-11.0092
亦可以	-11.0092
雲氣	-11.0095
春夏	-11.0095
名字	-11.0097
二十六	-11.0098
以問	-11.0099
二錢	-11.01
申公	-11.0101
東平	-11.0104
固不	-11.0104
改作	-11.0105
尊卑	-11.0108
而還	-11.0111
丙子	-11.0111
大道	-11.0112
奉天	-11.0113
善者	-11.0119
閣臣	-11.0119
不妄	-11.0123
樞宻使	-11.0126
同知	-11.013
踞	-11.0131
知名	-11.0131
安樂	-11.0132
濳	-11.0133
貟	-11.0134
丈餘	-11.0134
頷	-11.0134
亾	-11.0134
郊祀	-11.0134
點	-11.0135
而不言	-11.0135
殺其	-11.0136
王肅	-11.0137
吏民	-11.014
症	-11.0141
卜筮	-11.0141
好古	-11.0142
九經	-11.0143
縞	-11.0147
宛轉	-11.0148
山隂	-11.015
筆力	-11.015
且曰	-11.015
飛去	-11.0157
無用	-11.0159
人參	-11.0161
孫氏	-11.0162
二書	-11.0166
元日	-11.0167
二府	-11.0167
大年	-11.0171
而食	-11.0172
不歸	-11.0174
隋書	-11.0177
不害	-11.0179
醖	-11.018
之母	-11.0181
五卷	-11.0181
尅	-11.0182
兕	-11.0183
大旱	-11.0184
徐鉉	-11.0185
蒂	-11.0185
正是	-11.0186
鳯凰	-11.0186
黙然	-11.0186
港	-11.0187
孽	-11.0187
彫	-11.0187
通作	-11.0188
昱	-11.0189
敲	-11.0189
天下無	-11.019
兵部尚書	-11.0193
荀卿	-11.0193
大都	-11.0195
隂氣	-11.0197
叔父	-11.0198
史館	-11.0199
木蘭	-11.02
以賜	-11.0201
文潞公	-11.0202
失於	-11.0202
必得	-11.0203
者不能	-11.0203
高帝	-11.0203
皆能	-11.0205
琴瑟	-11.0206
筆墨	-11.0208
酈	-11.0215
王介甫	-11.0221
庖	-11.0222
尚書令	-11.0222
何益	-11.0223
都下	-11.0226
以酒	-11.0227
也蓋	-11.0227
滚	-11.0229
堵	-11.0231
曳	-11.0233
鄱陽	-11.0233
所論	-11.0235
脛	-11.0237
菌	-11.0237
五尺	-11.0238
兠	-11.0238
鎔	-11.0239
學校	-11.0239
𫝊曰	-11.0241
北面	-11.0243
皆自	-11.0249
少府	-11.025
忽見	-11.0251
□(	-11.0256
所自	-11.0257
奭	-11.0259
大字	-11.0259
壬子	-11.026
僕謂	-11.026
兩頭	-11.0262
師曠	-11.0265
可證	-11.0266
在西	-11.0268
十餘里	-11.0269
思慮	-11.0274
本此	-11.0276
事皆	-11.0277
人倫	-11.0277
奬	-11.0279
鳶	-11.0279
粮	-11.028
擘	-11.0282
糴	-11.0282
者哉	-11.0283
弓矢	-11.0284
飛白	-11.0284
器也	-11.0284
老僧	-11.0285
槽	-11.0286
其弊	-11.0287
佗	-11.0289
臣也	-11.029
怒曰	-11.0292
禮部侍郎	-11.0292
集有	-11.0293
内官	-11.0299
乃能	-11.0303
佳句	-11.0308
太初	-11.0309
以死	-11.031
四尺	-11.031
小說	-11.0311
稽古	-11.0315
無由	-11.0326
為三	-11.0326
種種	-11.0326
魔	-11.033
都察院	-11.0331
其失	-11.0331
篇云	-11.0332
孫子	-11.0333
可取	-11.0336
幄	-11.0336
顒	-11.0337
録之	-11.0338
沓	-11.034
教人	-11.0341
宋時	-11.0344
自唐	-11.0345
所致	-11.0346
者可	-11.0347
夜夢	-11.0349
兩京	-11.0349
將來	-11.0352
千百	-11.0356
下至	-11.0358
非特	-11.0359
白衣	-11.036
穆王	-11.0361
今以	-11.0363
而行之	-11.0364
能言	-11.0365
於庭	-11.0365
二十二年	-11.0366
治也	-11.0367
興也	-11.037
或謂之	-11.0371
嵗時	-11.0376
矛	-11.0376
顓	-11.0377
葺	-11.038
餞	-11.038
噬	-11.038
挫	-11.0382
泯	-11.0382
闡	-11.0383
則不能	-11.0384
己丑	-11.0386
珠玉	-11.0387
上天	-11.0391
先祖	-11.0392
歎息	-11.0395
訛為	-11.04
蓋以	-11.0403
東流	-11.0405
厲王	-11.0405
已成	-11.041
不可勝	-11.041
禧	-11.0412
尚可	-11.0416
無極	-11.0416
盡矣	-11.0417
之先	-11.0422
名之曰	-11.0422
吳中	-11.0423
目為	-11.0424
所存	-11.0428
覧	-11.0429
祫	-11.0431
装	-11.0433
於時	-11.0433
為宰相	-11.0433
餽	-11.0434
慟	-11.0434
汜	-11.0435
萬國	-11.0435
葢以	-11.0437
罪人	-11.044
何由	-11.0442
棄之	-11.0443
久而	-11.0443
勿令	-11.0443
也史記	-11.0444
大中	-11.0445
祖父	-11.0448
落花	-11.0448
雌雄	-11.0453
有過	-11.0455
東山	-11.0457
其先	-11.0463
王制	-11.0465
二十五年	-11.0467
公私	-11.047
固無	-11.0471
不備	-11.0472
五寸	-11.0472
多以	-11.0475
娘子	-11.0478
以象	-11.0479
萬卷	-11.0481
大雨	-11.0481
廪	-11.0482
扶風	-11.0485
秤	-11.0485
一層	-11.0485
五臟	-11.0486
畦	-11.0487
腴	-11.0488
調和	-11.049
事實	-11.0496
戊子	-11.0497
為樂	-11.0503
事則	-11.0506
新安	-11.0507
欲為	-11.0507
闗中	-11.0509
亦必	-11.051
元昊	-11.0512
為度	-11.0514
三章	-11.0514
韓詩	-11.0517
得免	-11.0519
若無	-11.0521
康節	-11.0525
二十日	-11.0528
不和	-11.0528
書院	-11.053
魏王	-11.0531
霑	-11.0532
乙丑	-11.0532
者因	-11.0533
寂寞	-11.0536
鈿	-11.0539
雲夢	-11.0539
忠孝	-11.054
康成	-11.054
書於	-11.0544
淋	-11.0546
隨時	-11.0546
安可	-11.0549
如其言	-11.0553
從官	-11.0554
其兄	-11.0556
京官	-11.0557
外有	-11.056
太保	-11.0562
時時	-11.057
何能	-11.057
云我	-11.0575
命也	-11.0575
對曰臣	-11.0577
李杜	-11.0577
上皇	-11.0577
有㫖	-11.0578
哈	-11.0579
扶桑	-11.0579
寖	-11.058
鑾	-11.0581
泡	-11.0582
有石	-11.0583
福州	-11.0584
棹	-11.0584
狥	-11.0585
杉	-11.0587
卷十	-11.0589
聞見	-11.0594
今有	-11.0596
後又	-11.0597
一道	-11.0597
少陽	-11.0598
傷人	-11.0599
不曽	-11.06
表云	-11.0601
知也	-11.0603
王建	-11.0604
如之何	-11.061
經文	-11.0611
考異	-11.0611
唐世	-11.0611
太康	-11.0611
但言	-11.0614
倉卒	-11.0617
藏於	-11.0617
三司使	-11.0618
隋唐	-11.0622
觀此	-11.0623
頃刻	-11.0624
為太子	-11.0626
祧	-11.0629
隋志	-11.063
流傳	-11.063
城下	-11.0631
此法	-11.0632
萍	-11.0632
絞	-11.0633
韭	-11.0633
捍	-11.0633
桶	-11.0633
之本也	-11.0634
是亦	-11.0634
法言	-11.0636
瀝	-11.0637
忩	-11.064
釜	-11.064
西王母	-11.0642
某人	-11.0643
也但	-11.0643
魯人	-11.0643
大師	-11.0643
惠帝	-11.0645
其在	-11.0645
居中	-11.0647
不願	-11.0648
能以	-11.0648
顔淵	-11.0649
選人	-11.0649
兩字	-11.0654
樞密	-11.0658
講學	-11.0661
慨	-11.0662
曰王	-11.0663
者得	-11.0664
河陽	-11.0665
西伯	-11.0665
日以	-11.0666
水土	-11.0668
謝安	-11.067
作樂	-11.0672
目之	-11.0674
俚	-11.0676
朱衣	-11.0676
閬	-11.0679
飴	-11.068
軒轅	-11.0682
二十三年	-11.0682
并州	-11.0684
鎗	-11.0687
衲	-11.0687
都城	-11.0687
聮	-11.0689
百步	-11.0691
太乙	-11.0694
元帥	-11.0694
可考	-11.0697
國王	-11.0702
晉宋	-11.0704
為本	-11.0705
以義	-11.0705
不亂	-11.0706
御筆	-11.0709
而况	-11.0712
黄庭	-11.0712
吕后	-11.0714
日行	-11.0715
第八	-11.0716
所取	-11.0719
有八	-11.0721
著述	-11.0722
也盖	-11.073
供養	-11.073
不常	-11.0731
齊魯	-11.0733
又與	-11.0736
蘇軾	-11.0737
合而	-11.0737
曰不然	-11.0739
琬	-11.0739
匙	-11.074
兵馬	-11.0741
甲申	-11.0744
不朽	-11.0748
辛巳	-11.0749
至唐	-11.0751
五湖	-11.0753
可作	-11.0753
昭明	-11.0754
耳若	-11.0755
黄色	-11.0758
此三	-11.0761
魏文帝	-11.0761
以水	-11.0762
二十九	-11.0763
傳言	-11.0764
有數	-11.0764
乃作	-11.0766
有才	-11.0768
鑄錢	-11.0768
公論	-11.077
此之謂也	-11.077
之所謂	-11.0771
軍士	-11.0773
此豈	-11.0774
閒居	-11.0774
上林	-11.0776
後學	-11.0779
當年	-11.0779
帑	-11.078
沛公	-11.0783
凡十	-11.0784
米元章	-11.0787
灣	-11.0788
大將	-11.0789
沫	-11.079
宇宙	-11.0791
十餘萬	-11.0793
餹	-11.0795
俗呼	-11.0797
可惜	-11.0797
另	-11.0797
何可	-11.0798
無私	-11.08
陽城	-11.08
未為	-11.0804
緩急	-11.0805
霍光	-11.0805
司農	-11.0807
本意	-11.0814
建隆	-11.0817
其論	-11.0821
作此	-11.0827
豈以	-11.0828
郡有	-11.0828
萬石	-11.0828
麯	-11.0831
當今	-11.0833
建中	-11.0833
之恩	-11.0833
溲	-11.0834
哲宗	-11.0835
其處	-11.0838
一舉	-11.0838
月中	-11.0841
龕	-11.0841
莊周	-11.0841
揣	-11.0842
同音	-11.0842
吃	-11.0843
罍	-11.0845
恐非	-11.0845
你	-11.0846
戢	-11.0847
有何	-11.0853
東陽	-11.0858
不仕	-11.0859
中郎	-11.0859
等皆	-11.086
一升	-11.0861
亂也	-11.0863
彭祖	-11.0864
得志	-11.0866
花木	-11.0867
下馬	-11.0867
城北	-11.0868
欲求	-11.0869
比干	-11.0877
異人	-11.0877
之戒	-11.0877
以上皆	-11.0881
有白	-11.0881
劭	-11.0884
白公	-11.0887
尤多	-11.0889
恊	-11.089
長於	-11.0891
寝	-11.0892
藹	-11.0894
羈	-11.0894
柩	-11.0894
諳	-11.0896
忝	-11.0896
襯	-11.0896
主者	-11.0896
賞之	-11.0897
拖	-11.0898
亡國	-11.0898
規模	-11.0899
刹	-11.0899
老父	-11.0899
虎豹	-11.09
蘇公	-11.0902
莫大於	-11.0903
乃令	-11.0904
四日	-11.0906
當其	-11.0907
地上	-11.091
池中	-11.0914
乃自	-11.0914
魏志	-11.0919
二十卷	-11.0921
未定	-11.0925
馬上	-11.0925
乃出	-11.0929
河伯	-11.0929
景文	-11.0932
此所以	-11.0936
一端	-11.0937
觜	-11.0938
嗟乎	-11.0939
平江	-11.0939
初不	-11.094
傳注	-11.0941
幞頭	-11.0941
文辭	-11.0942
元符	-11.0943
两	-11.0944
三句	-11.0944
卭	-11.0945
舶	-11.0946
駱	-11.0946
其狀	-11.0946
仄	-11.0948
恰	-11.0948
人材	-11.0949
又嘗	-11.095
諸葛亮	-11.0951
乎夫	-11.0952
三朝	-11.0952
善人	-11.0953
者以為	-11.0953
六書	-11.0957
甲寅	-11.0957
乃曰	-11.0958
兩手	-11.0958
夫子之	-11.0961
官人	-11.0961
一幅	-11.0962
有疾	-11.0963
北山	-11.0964
目前	-11.0967
癸未	-11.0967
流落	-11.0968
漁父	-11.097
衆皆	-11.0971
日暮	-11.0974
白色	-11.0974
也豈	-11.0975
亦用	-11.0975
為人所	-11.0976
補之	-11.098
廣西	-11.0983
小民	-11.0983
後周	-11.0983
璟	-11.0984
囿	-11.0986
必無	-11.099
之能	-11.0991
三老	-11.0992
二十四年	-11.0994
紏	-11.0994
樞宻院	-11.0995
詳見	-11.0996
㤗	-11.0996
菖蒲	-11.0997
懽	-11.0998
注中	-11.0999
十字	-11.1001
椅	-11.1001
晷	-11.1001
食貨志	-11.1003
為最	-11.1004
武昌	-11.1006
己亥	-11.1007
常在	-11.1008
黄魯直	-11.1013
宣城	-11.1014
金錢	-11.1016
以通	-11.1016
正義曰	-11.1017
餘皆	-11.1017
碧玉	-11.1019
卿等	-11.1019
來朝	-11.102
天氣	-11.102
入内	-11.1021
主上	-11.1021
者若	-11.1025
諸君	-11.1028
無禮	-11.1032
奪其	-11.1034
後宫	-11.1034
官家	-11.1038
入聲	-11.104
堯舜之	-11.104
盛衰	-11.1041
唐韻	-11.1043
紀事	-11.1044
此正	-11.1049
盪	-11.1052
二十八年	-11.1053
丁晉公	-11.1053
太真	-11.1054
四十年	-11.1055
姥	-11.1055
干戈	-11.1056
勝之	-11.1057
筐	-11.1057
丁丑	-11.1057
所製	-11.106
此謂	-11.1061
嵗在	-11.1062
勝負	-11.1064
亡國之	-11.1064
授以	-11.107
也所以	-11.1072
葉似	-11.1074
手書	-11.1078
祥符	-11.1078
己未	-11.1081
常山	-11.1081
字亦	-11.1086
其來	-11.1086
成於	-11.1087
者先	-11.1088
然猶	-11.1089
可知也	-11.1092
數語	-11.1092
兊	-11.1097
溷	-11.11
瓮	-11.1102
掣	-11.1104
漉	-11.1104
武公	-11.1104
為首	-11.1105
及諸	-11.1105
盥	-11.1105
笥	-11.1106
至如	-11.1108
逍遥	-11.1108
有定	-11.1109
與君	-11.1111
瀉	-11.1111
書名	-11.1112
異而	-11.1112
而進	-11.1114
下詔	-11.1115
内則	-11.1117
諺	-11.1117
總督	-11.1118
麝香	-11.112
之重	-11.1121
入門	-11.1121
南豐	-11.1124
正色	-11.1125
新唐書	-11.1129
有名	-11.1136
字伯	-11.1136
委曲	-11.1139
彖	-11.1144
堯之	-11.1146
且以	-11.1148
從其	-11.1153
莎	-11.1153
琥珀	-11.1154
已見	-11.1157
以為然	-11.1159
仁人	-11.1159
㪚	-11.1161
諺曰	-11.1161
缶	-11.1162
鬲	-11.1163
紅花	-11.1165
山寺	-11.1165
上表	-11.1166
淳熙	-11.1168
當用	-11.1169
大同	-11.1173
取諸	-11.1176
非所	-11.118
其徳	-11.1181
嬰兒	-11.1182
嬪	-11.1184
郵	-11.1184
方寸	-11.1187
江夏	-11.1188
兩府	-11.1188
為先	-11.1189
應劭	-11.1195
不愛	-11.1197
閩中	-11.1198
一語	-11.1203
功業	-11.1203
恂	-11.1205
用筆	-11.1206
目録	-11.1208
枳	-11.1208
厮	-11.1209
𨽻書	-11.1209
升降	-11.121
轎	-11.1211
石門	-11.1211
涎	-11.1211
謝靈運	-11.1211
赭	-11.1212
嬉	-11.1215
榛	-11.1215
矧	-11.1216
俘	-11.1216
經術	-11.1216
債	-11.1216
啜	-11.1217
聶	-11.1218
辣	-11.1218
要之	-11.1219
甚美	-11.122
宛然	-11.1222
季氏	-11.1223
一室	-11.1224
者猶	-11.1224
之年	-11.1227
永叔	-11.1231
盛徳	-11.1232
晒乾	-11.1234
因問	-11.1234
將帥	-11.1237
宋書	-11.1239
夏月	-11.124
之目	-11.1242
籀	-11.1244
形體	-11.1245
不可為	-11.1245
禮儀	-11.1249
碑云	-11.1252
翕	-11.1255
以安	-11.1255
犧	-11.1259
亁	-11.1264
紆	-11.1264
霖	-11.1264
欲使	-11.1266
椽	-11.1269
士也	-11.1269
杲	-11.127
四十八	-11.127
髠	-11.127
皁	-11.1271
醪	-11.1271
則天下	-11.1271
其夫	-11.1273
之資	-11.1274
驂	-11.1275
云云按	-11.1278
顔魯公	-11.128
七尺	-11.128
四卷	-11.128
征伐	-11.1281
大梁	-11.1282
以濟	-11.1285
其類	-11.1287
聖明	-11.1288
之大者	-11.1289
先聖	-11.129
南有	-11.1292
緡	-11.1295
已來	-11.1296
笑之	-11.1297
之言也	-11.1298
幽王	-11.1299
金華	-11.1299
公羊傳	-11.1301
東萊	-11.1304
冉	-11.1311
可信	-11.1313
睢陽	-11.1315
之服	-11.1315
星辰	-11.1316
臣之	-11.1316
山石	-11.1316
圉	-11.1319
越人	-11.132
於齊	-11.1322
㝷	-11.1322
不察	-11.1322
轉為	-11.1323
曰彼	-11.1324
滄浪	-11.1324
入山	-11.1324
蓴	-11.1325
千八百	-11.1325
㓕	-11.1325
長樂	-11.1325
瑤	-11.1326
掉	-11.1326
乘馬	-11.1327
今作	-11.133
武子	-11.1332
鼓吹	-11.1333
人民	-11.1337
予曰	-11.1339
終不能	-11.1343
坡公	-11.1343
不意	-11.1344
雞鳴	-11.1345
不復見	-11.1345
之祖	-11.1347
先天	-11.1349
城上	-11.1351
附子	-11.1353
耳然	-11.1353
閣下	-11.1354
志曰	-11.1354
相接	-11.1356
功曹	-11.136
十千	-11.1363
諮	-11.1364
論其	-11.1365
生于	-11.1366
河西	-11.1366
亂世	-11.1366
石榴	-11.1367
齊桓公	-11.137
咒	-11.1374
閘	-11.1374
多言	-11.1375
猗	-11.1375
𣙜	-11.1376
芬	-11.1377
齧	-11.1377
諂	-11.1378
丙辰	-11.1379
錐	-11.1379
剽	-11.1379
董卓	-11.1379
悠悠	-11.1379
與今	-11.138
蹶	-11.1381
朝服	-11.1382
京口	-11.1383
篇曰	-11.1384
由此觀之	-11.1384
官司	-11.1386
丹砂	-11.1386
右丞	-11.1388
若水	-11.139
既不	-11.1399
上黨	-11.1404
相逢	-11.1406
時號	-11.1406
樂工	-11.1411
甚衆	-11.1412
色青	-11.1414
者今	-11.1417
夘	-11.1417
於秦	-11.1418
功德	-11.142
行李	-11.142
也哉	-11.1422
觔	-11.1424
書者	-11.1426
惶	-11.1427
何嘗	-11.1429
刈	-11.143
有七	-11.143
一部	-11.143
㵼	-11.1431
纖	-11.1432
近之	-11.1433
景徳	-11.1435
京兆尹	-11.1435
驩	-11.1436
插	-11.1437
匾	-11.1437
西施	-11.1441
不忠	-11.1442
之機	-11.1443
稱為	-11.1445
當如	-11.1448
市井	-11.1448
館閣	-11.145
昭烈	-11.1451
之路	-11.1456
南朝	-11.1457
學官	-11.146
雷雨	-11.1462
深入	-11.1462
而好	-11.1464
貍	-11.1464
酋	-11.1466
召之	-11.1466
傳記	-11.1469
不答	-11.1469
之善	-11.147
昨日	-11.1471
禎	-11.1473
否則	-11.1475
自漢	-11.1475
次年	-11.1477
中書門下	-11.1478
煜	-11.148
綂	-11.1484
譖	-11.1485
過矣	-11.1486
泮	-11.1486
球	-11.1487
馥	-11.149
罷之	-11.149
誄	-11.1491
上意	-11.1491
三者	-11.1493
穹	-11.1494
熒惑	-11.1495
岀	-11.1496
李林甫	-11.1499
康王	-11.1502
中正	-11.1502
海外	-11.1502
水銀	-11.1503
潞公	-11.1503
等官	-11.1504
為民	-11.1505
大節	-11.1505
不到	-11.1506
動而	-11.1506
詩句	-11.1511
誦之	-11.1512
河中	-11.1512
改名	-11.1517
南郡	-11.1518
結實	-11.1519
奉㫖	-11.1522
瓚	-11.1522
為第一	-11.1523
徳之	-11.1525
封侯	-11.1525
在京師	-11.1526
地下	-11.1529
最後	-11.1534
中出	-11.1538
筆談	-11.154
序曰	-11.154
久不	-11.154
庚戌	-11.154
顥	-11.1542
皇太后	-11.1543
者少	-11.1543
詡	-11.1544
門牌	-11.1545
鬟	-11.1545
挹	-11.1545
涓	-11.1546
梅聖俞	-11.1546
以報	-11.1546
汰	-11.1547
令狐	-11.1549
道而	-11.1551
時方	-11.1553
譏之	-11.1555
悲夫	-11.1562
齊梁	-11.1563
城外	-11.1564
一宿	-11.1564
鍾山	-11.1565
勿食	-11.1566
之父	-11.1568
之弟	-11.1568
三江	-11.157
其末	-11.1571
宗子	-11.1572
舊本	-11.1573
長吏	-11.1574
書中	-11.1574
甚厚	-11.1575
文中子	-11.1575
坐客	-11.1576
上命	-11.1578
更名	-11.1578
不令	-11.1579
初生	-11.1584
精氣	-11.1584
齊桓	-11.1585
必須	-11.1586
不能知	-11.1587
絲竹	-11.1587
鍾離	-11.159
更始	-11.1596
器用	-11.1596
事見	-11.1599
不可解	-11.1599
所作也	-11.1599
出師	-11.16
睛	-11.16
詩中	-11.16
遒	-11.1601
渤海	-11.1601
懦	-11.1602
虗	-11.1603
以避	-11.1603
奪之	-11.1604
於斯	-11.1605
至則	-11.1607
亡矣	-11.1608
以白	-11.1608
五穀	-11.1608
其用	-11.1609
死罪	-11.1609
下文	-11.1611
王文	-11.1611
天性	-11.1611
刻之	-11.1613
自序	-11.1613
吾子	-11.1614
今本	-11.1617
其子孫	-11.1618
始為	-11.162
世稱	-11.1621
永昌	-11.1623
徐氏	-11.1627
百日	-11.1629
天生	-11.1629
既已	-11.163
大禮	-11.1633
漢興	-11.1633
三等	-11.1634
、	-11.1636
安得不	-11.1638
讀者	-11.164
農夫	-11.1646
瓉	-11.1647
太過	-11.1648
之過也	-11.1648
猜	-11.1651
檢討	-11.1654
駞	-11.1655
月明	-11.1655
與同	-11.1656
遂至	-11.1658
井中	-11.1659
中行	-11.166
鴿	-11.166
規矩	-11.1661
小雅	-11.1662
卷二	-11.1663
食肉	-11.1665
尺寸	-11.1666
梧桐	-11.1668
秦檜	-11.1669
大畧	-11.1671
碣石	-11.1672
以授	-11.1676
信然	-11.1677
艱難	-11.1678
萬五千	-11.1678
集賢	-11.168
害人	-11.168
館職	-11.1689
自殺	-11.1689
論者	-11.1689
下筆	-11.169
力士	-11.169
杜氏	-11.1691
納之	-11.1692
部郎中	-11.1692
玉女	-11.1692
令尹	-11.1693
名山	-11.1694
同心	-11.1694
曰君子	-11.1695
智伯	-11.1695
開寳	-11.1701
非真	-11.1705
知道	-11.1707
俶	-11.1709
禳	-11.171
少頃	-11.1711
江河	-11.1711
醴泉	-11.1712
異矣	-11.1712
癖	-11.1716
丙戌	-11.1717
頃之	-11.1719
左丞	-11.172
穿鑿	-11.1721
取出	-11.1723
二家	-11.1724
骰子	-11.1724
則用	-11.1726
碁	-11.1726
物而	-11.1728
人不知	-11.1731
法以	-11.1732
臺諫	-11.1735
愛人	-11.1735
北有	-11.1735
可否	-11.1738
二種	-11.174
謝曰	-11.1741
方伯	-11.1742
司馬公	-11.1744
朔望	-11.1745
右手	-11.1748
謁者	-11.1749
人名	-11.1752
利之	-11.1754
俗人	-11.1758
無子	-11.1759
令史	-11.1759
岫	-11.1762
晃	-11.1762
盌	-11.1765
度支	-11.1766
亡也	-11.1767
幃	-11.1769
同日	-11.1769
三十五	-11.1769
國子	-11.177
陶淵明	-11.177
説文曰	-11.177
璘	-11.177
宗正	-11.1774
吏部侍郎	-11.1775
丁亥	-11.1775
孟嘗君	-11.1776
四品	-11.1778
所不能	-11.1782
二丈	-11.1782
猶是	-11.1783
地中	-11.1783
名實	-11.1784
潞	-11.1784
於衆	-11.1787
子午	-11.1789
一百二十	-11.1789
也古	-11.179
生人	-11.1791
皆云	-11.1792
定制	-11.1799
而言之	-11.1802
皆同	-11.1802
始生	-11.1803
大石	-11.1803
崑山	-11.1804
一丈	-11.1805
玉帶	-11.1806
和氣	-11.1807
刁	-11.1808
在其中	-11.1811
而食之	-11.1814
元城	-11.1815
黄白	-11.182
如初	-11.1821
耳非	-11.1822
宋元	-11.1822
承天	-11.1824
殤	-11.1825
姒	-11.1825
數尺	-11.1825
乙酉	-11.1826
遺之	-11.1827
蜃	-11.1828
使我	-11.1828
三嵗	-11.1829
是嵗	-11.1829
毆	-11.183
四十五	-11.183
紀聞	-11.1831
槌	-11.1831
城隍	-11.1831
白居易	-11.1832
舊史	-11.1833
有女	-11.1833
志在	-11.1833
䘏	-11.1833
蹲	-11.1835
磔	-11.1835
前日	-11.1835
諸郡	-11.1836
墾	-11.1836
開府	-11.1836
終身不	-11.1837
鐙	-11.1837
以利	-11.1837
江海	-11.1838
疏云	-11.1838
盗賊	-11.1839
譬之	-11.184
致其	-11.184
者宜	-11.1841
臣僚	-11.1842
當是時	-11.1845
忽聞	-11.1845
利而	-11.185
渡河	-11.1851
斯人	-11.1853
為誰	-11.1855
邠	-11.1859
進呈	-11.1859
夫差	-11.1861
之兆	-11.1863
清濁	-11.1864
外戚	-11.1869
出一	-11.1871
以意	-11.1872
沉香	-11.1873
等處	-11.1874
山名	-11.1877
史家	-11.1878
壬午	-11.1879
寗	-11.1879
下第	-11.188
今後	-11.188
吾鄉	-11.1881
盡其	-11.1881
儔	-11.1883
庚午	-11.1886
諫議大夫	-11.1887
北門	-11.1887
劫	-11.1888
也周禮	-11.1888
邃	-11.189
畋	-11.189
一官	-11.1894
非徒	-11.1895
光禄	-11.1897
冨	-11.1898
岷	-11.1899
一杯	-11.1899
小而	-11.19
去年	-11.1904
著於	-11.1908
一里	-11.191
自陳	-11.191
詹事	-11.1911
惜乎	-11.1911
兵法	-11.1913
華陽	-11.1913
治道	-11.1917
者十	-11.1921
及至	-11.1922
死人	-11.1922
安有	-11.1927
然非	-11.1928
又東	-11.1929
朔方	-11.1929
丁香	-11.193
功成	-11.1931
商賈	-11.1931
亦與	-11.1932
鑽	-11.1933
靈臺	-11.1935
三篇	-11.1939
過也	-11.1939
龍尾	-11.194
祝融	-11.1942
庚寅	-11.1943
窄	-11.1944
彷彿	-11.1945
因循	-11.195
獨立	-11.1957
從來	-11.1958
文人	-11.1959
之賦	-11.1961
字仲	-11.1962
太平興國	-11.1962
頭上	-11.1963
石林	-11.1967
此何	-11.1971
名家	-11.1971
樂器	-11.1971
驪山	-11.1972
無餘	-11.1972
張説	-11.1974
畏之	-11.1974
卉	-11.1976
北苑	-11.1977
止有	-11.1977
其精	-11.1978
舊名	-11.1981
改正	-11.1982
者耶	-11.1985
禮官	-11.1985
此本	-11.1986
史傳	-11.1987
近者	-11.1987
少而	-11.1987
者甚衆	-11.1989
曺	-11.1996
蒯	-11.1996
嵇	-11.1997
一次	-11.1998
修身	-11.2
之材	-11.2002
槁	-11.2002
徂	-11.2003
擦	-11.2003
𣲖	-11.2004
黛	-11.2004
十斤	-11.2006
兑	-11.2007
皆如	-11.201
玲瓏	-11.2014
可行	-11.2019
從祀	-11.2029
存中	-11.203
者欲	-11.2031
皇天	-11.2033
仲春	-11.2033
後至	-11.2035
盛時	-11.2036
血氣	-11.2036
一箇	-11.2036
食其	-11.2037
太上皇	-11.2037
微子	-11.2038
原註	-11.2039
山陵	-11.204
其外	-11.204
自當	-11.2046
即有	-11.205
五十年	-11.2052
逐之	-11.2053
筌	-11.2053
侔	-11.2053
撾	-11.2053
髙士	-11.2058
於市	-11.2058
閹	-11.2058
雖非	-11.206
士子	-11.2061
之交	-11.2062
瑛	-11.2062
繫辭	-11.2063
綉	-11.2063
兇	-11.2064
史書	-11.2064
而罷	-11.2064
閫	-11.2064
朱氏	-11.2065
睂	-11.2065
曙	-11.2066
書目	-11.2067
學書	-11.2068
覲	-11.2069
天門	-11.207
余按	-11.207
不禁	-11.2073
不啻	-11.2073
地之	-11.2074
觥	-11.2074
之竒	-11.2075
王褒	-11.2079
有僧	-11.208
今俗	-11.2082
歌云	-11.2082
奔走	-11.2083
以此知	-11.2085
廣東	-11.2088
之儀	-11.2096
然皆	-11.2101
酒食	-11.2105
其手	-11.2111
殿下	-11.2112
典籍	-11.2112
欽定四庫全書子部十	-11.2113
煞	-11.2113
羲之	-11.2114
開封	-11.2115
橙	-11.2117
㢲	-11.2118
之兵	-11.212
数	-11.2121
塢	-11.2121
為害	-11.2123
辛丑	-11.2123
吉甫	-11.2124
珮	-11.2124
立法	-11.2126
相合	-11.2128
金剛	-11.213
百餘年	-11.2131
日日	-11.2132
拜相	-11.2132
今文	-11.2132
已死	-11.2136
直以	-11.2137
事業	-11.2137
然自	-11.2138
便殿	-11.2138
乾元	-11.2139
於理	-11.2139
類此	-11.2142
原本	-11.2143
隠居	-11.2143
發之	-11.2144
唐李	-11.2145
千文	-11.2148
風雲	-11.2148
不但	-11.215
孺子	-11.2153
不辨	-11.2154
辟邪	-11.2154
卷三	-11.2156
鄭伯	-11.2156
諺云	-11.2157
一十	-11.216
年老	-11.2163
茯苓	-11.2164
正字	-11.2164
浣	-11.2168
愷	-11.2172
天帝	-11.2173
航	-11.2174
訶	-11.2174
蟾	-11.2175
江山	-11.2176
穗	-11.2177
躋	-11.2178
豈其	-11.2179
旂	-11.2179
刄	-11.2179
犂	-11.218
則當	-11.218
張儀	-11.218
廨	-11.218
漁陽	-11.2181
其味	-11.2181
可矣	-11.2182
重之	-11.2182
貧者	-11.2183
僧道	-11.2183
蒐	-11.2184
不悦	-11.2184
曄	-11.2184
作亂	-11.2187
孰能	-11.2191
辛未	-11.2192
商鞅	-11.2192
者固	-11.2194
佛法	-11.2194
必用	-11.2197
不失其	-11.22
黄龍	-11.2201
漢末	-11.2202
老夫	-11.2205
王弼	-11.2206
服其	-11.2207
論衡	-11.2208
書其	-11.2208
廟堂	-11.2209
論事	-11.2209
驪	-11.2213
古器	-11.2213
一株	-11.2214
花椒	-11.2215
止之	-11.2217
先以	-11.2219
用力	-11.222
官軍	-11.222
士庶	-11.2222
知府	-11.2224
制作	-11.2224
有客	-11.2225
一詩	-11.2227
易以	-11.2228
胷中	-11.2229
唐初	-11.2229
王右軍	-11.2231
同也	-11.2231
昴	-11.2231
尺餘	-11.2232
一説	-11.2236
己酉	-11.2237
丙寅	-11.2239
人意	-11.224
湜	-11.224
彤	-11.2241
貺	-11.2242
於今	-11.2242
行禮	-11.2242
鑪	-11.2243
味甘	-11.2243
之歌	-11.2243
官員	-11.2244
笄	-11.2244
洛中	-11.2244
幢	-11.2245
者爲	-11.2246
若使	-11.2249
每見	-11.225
戸部	-11.225
湖廣	-11.2251
恐是	-11.2253
曰今日	-11.2254
惜哉	-11.2256
西風	-11.2256
安帝	-11.2257
廣大	-11.2261
各有所	-11.2269
㑹試	-11.2271
晟	-11.2272
梁王	-11.2279
起居注	-11.228
禄山	-11.228
四明	-11.2282
辭曰	-11.2283
五榖	-11.2289
豳	-11.229
薦之	-11.2291
水浸	-11.2291
記事	-11.2293
騫	-11.2293
鞫	-11.2294
臠	-11.2296
陸錫熊	-11.2297
帝嚳	-11.2298
然後知	-11.2298
歐陽永叔	-11.23
襃	-11.2301
改之	-11.2301
見人	-11.2303
瑋	-11.2303
詮	-11.2304
多則	-11.2305
其德	-11.2306
非人	-11.2307
儼然	-11.2308
竹筍	-11.2309
知所	-11.231
胡桃	-11.2314
平章事	-11.2314
七夕	-11.2315
行至	-11.2318
去矣	-11.2319
在朝	-11.2319
二百四十	-11.2322
文侯	-11.2323
魯國	-11.2323
曰凡	-11.2324
哀帝	-11.2325
千嵗	-11.2325
慨然	-11.2327
崑	-11.2328
周公之	-11.2329
都御史	-11.233
以為常	-11.233
當與	-11.2331
斯文	-11.2332
行則	-11.2332
萬八千	-11.2336
承平	-11.2339
杜牧之	-11.234
其死	-11.2342
容齋	-11.2346
伽	-11.2346
今乃	-11.2346
未始	-11.2347
愚按	-11.235
説苑	-11.2353
璜	-11.2353
㕔事	-11.2353
鬛	-11.2353
酒酣	-11.2354
壬戌	-11.2356
吻	-11.2357
縣官	-11.2357
芮	-11.2357
恚	-11.2357
閉門	-11.2358
葫蘆	-11.2358
孫士毅總校官	-11.2358
飛鳥	-11.2358
東向	-11.2358
剌	-11.2359
是書	-11.2359
殞	-11.236
律令	-11.2361
術士	-11.2361
栁子厚	-11.2362
揜	-11.2363
喘	-11.2364
為重	-11.2365
嘻	-11.2366
海南	-11.2366
法師	-11.2368
孔雀	-11.2368
人力	-11.2368
共工	-11.237
程氏	-11.2372
天成	-11.2372
可見矣	-11.2375
曰天子	-11.2378
嵓	-11.2379
之智	-11.2379
以小	-11.238
漢陽	-11.238
侍者	-11.2382
末云	-11.2382
楊文公	-11.2385
有差	-11.2391
列侯	-11.2391
此帖	-11.2392
年年	-11.2393
萊公	-11.2393
之惡	-11.2394
織女	-11.2396
通稱	-11.2396
不倦	-11.2396
水流	-11.2397
能自	-11.2398
經營	-11.2398
能使	-11.24
存之	-11.2401
所好	-11.2406
也今人	-11.2406
淺深	-11.2407
有一人	-11.2408
故聖人	-11.2409
兒女	-11.241
師友	-11.2412
五萬	-11.2413
北征	-11.2413
亦同	-11.2413
哺	-11.2414
媵	-11.2415
弧	-11.2416
古樂府	-11.2417
長大	-11.2417
然無	-11.2417
方圓	-11.2417
貂	-11.2418
紀昀	-11.2419
之不可	-11.242
噉	-11.242
奉詔	-11.242
所貴	-11.2422
朞	-11.2422
䖝	-11.2423
檀香	-11.2424
厰	-11.2424
捶	-11.2424
窩	-11.2425
公侯	-11.2426
聫	-11.2426
捫	-11.2427
豔	-11.2429
兌	-11.2429
半月	-11.243
欲令	-11.2431
侍臣	-11.2436
建國	-11.2439
白金	-11.244
杏仁	-11.2443
善書	-11.2452
大槩	-11.2455
正徳	-11.246
尊者	-11.2461
祖母	-11.2463
樓上	-11.2463
胡氏	-11.2467
究其	-11.2469
柘	-11.2469
螯	-11.247
嗇	-11.2474
帕	-11.2474
俛	-11.2475
陸氏	-11.2476
奏議	-11.2476
汀	-11.2477
五世	-11.2478
溜	-11.2481
隂陽之	-11.2481
林木	-11.2481
九重	-11.2482
拈	-11.2484
甲戌	-11.2485
國事	-11.2485
剛柔	-11.2487
固非	-11.2487
嘉禾	-11.2488
太監	-11.2488
羽翼	-11.2489
不可謂	-11.2489
數丈	-11.249
南風	-11.249
家禮	-11.2492
六十四	-11.2492
范公	-11.2492
茵	-11.2493
雲雨	-11.2494
廵撫	-11.2495
唐志	-11.2495
許由	-11.2495
其大	-11.2497
不勝其	-11.2498
揚子雲	-11.2498
日月之	-11.2499
人呼	-11.25
其妙	-11.25
也晉	-11.2503
其故	-11.2505
古制	-11.2505
娛	-11.2507
之喪	-11.2508
季子	-11.2508
獨孤	-11.2511
立言	-11.2512
詔令	-11.2512
雅頌	-11.2513
異者	-11.2514
賢不肖	-11.2515
信乎	-11.2515
堯典	-11.2519
之端	-11.2521
老矣	-11.2521
碣	-11.2521
人自	-11.2522
竺	-11.2523
焉故	-11.2531
术	-11.2535
所愛	-11.2535
行狀	-11.2536
獺	-11.2536
等謹案	-11.2537
櫟	-11.2538
以定	-11.2538
而今	-11.2539
惕	-11.254
之田	-11.2541
狸	-11.2542
賫	-11.2542
鏁	-11.2542
昭陵	-11.2543
醃	-11.2543
蚩尤	-11.2544
處也	-11.2545
此曲	-11.2545
歿	-11.2545
生焉	-11.2546
長慶	-11.2547
小人之	-11.2547
淳熈	-11.2548
相遇	-11.2548
驍	-11.2549
山澤	-11.2552
典禮	-11.2552
化之	-11.2554
與王	-11.2555
成文	-11.2559
芳草	-11.256
數十里	-11.2565
已久	-11.2565
潦	-11.2567
幕府	-11.2567
其二	-11.2567
謂此	-11.257
補闕	-11.2573
始見	-11.2575
御府	-11.2578
至公	-11.2578
庭中	-11.258
不殺	-11.2584
兩浙	-11.2585
五行之	-11.259
專以	-11.2594
安南	-11.2595
蔗	-11.26
不就	-11.2602
彭蠡	-11.2604
李廣	-11.2604
嗤	-11.2604
櫛	-11.2606
瀾	-11.2607
嵇康	-11.2608
變也	-11.2609
父為	-11.2609
尺許	-11.261
苓	-11.261
道中	-11.261
曾孫	-11.2611
斟	-11.2612
缾	-11.2612
愚者	-11.2612
者能	-11.2612
濠	-11.2613
只有	-11.2615
之勝	-11.2616
曰臣聞	-11.2616
門前	-11.2617
三十卷	-11.2617
于外	-11.2619
萬二千	-11.2619
秋冬	-11.2622
而忘	-11.2625
山河	-11.2625
年表	-11.2625
死亡	-11.2625
燕王	-11.2637
利者	-11.2638
二品	-11.2638
南康	-11.2639
遂與	-11.2641
陽侯	-11.2642
春日	-11.2644
三皇	-11.2651
乎故	-11.2656
復見	-11.2656
雜説	-11.2658
見者	-11.2658
深山	-11.2659
王羲之	-11.266
有徳	-11.266
莧	-11.266
罘罳	-11.2662
舄	-11.2666
考工記	-11.2666
剏	-11.2668
鼇	-11.2668
老氏	-11.2668
攤	-11.2669
嗔	-11.267
生薑	-11.267
幷	-11.267
有文	-11.2671
七寸	-11.2671
樣	-11.2672
旒	-11.2672
股肱	-11.2672
甯	-11.2673
劉夢得	-11.2673
本義	-11.2673
二十八宿	-11.2674
也至於	-11.2676
古無	-11.2676
官屬	-11.2677
蓐	-11.2677
不全	-11.2679
漢文帝	-11.2679
大水	-11.2679
中書省	-11.2681
九品	-11.2682
㑹要	-11.2685
嘉興	-11.2688
明君	-11.2689
世無	-11.2689
絶句云	-11.2689
意者	-11.269
又自	-11.2691
舟人	-11.2695
今觀	-11.2695
國君	-11.2697
自來	-11.2698
乃與	-11.27
此心	-11.2701
奴婢	-11.2702
郡人	-11.2702
也然而	-11.2703
州有	-11.2704
土木	-11.2704
民也	-11.2705
飾以	-11.2705
常州	-11.2706
太夫人	-11.2711
辨其	-11.2711
寓言	-11.2712
大雪	-11.2713
北京	-11.2714
十八日	-11.2714
正在	-11.2714
晉王	-11.2717
也於是	-11.272
緜	-11.2721
超然	-11.2722
宗族	-11.2723
王命	-11.2723
嵗星	-11.2724
昨夜	-11.2726
器之	-11.2726
封建	-11.2727
髣髴	-11.2729
樞密院	-11.2729
欝	-11.273
詬	-11.2731
陬	-11.2731
菊花	-11.2732
孟軻	-11.2732
撻	-11.2733
覘	-11.2736
雷電	-11.2737
刑部尚書	-11.2738
得非	-11.2738
其學	-11.2739
開國	-11.274
自注	-11.2741
靄	-11.2742
與衆	-11.2743
身死	-11.2743
酢	-11.2743
洪州	-11.2743
遂以為	-11.2744
山南	-11.2744
十餘人	-11.2744
李義山	-11.2745
君子小人	-11.2745
昭穆	-11.2748
無間	-11.2751
不給	-11.2751
乎哉	-11.2752
梁武	-11.2753
恩澤	-11.2753
則易	-11.2754
有一種	-11.2756
􁀙􁀙	-11.2757
宮室	-11.2759
獻公	-11.276
附於	-11.2765
僮	-11.2765
茫	-11.2765
用意	-11.2769
無愧	-11.2769
則可以	-11.2772
宋之	-11.2772
第九	-11.2773
過此	-11.2773
乃至	-11.2773
而愈	-11.2773
三十七	-11.2776
異姓	-11.2778
轉而	-11.2779
素問	-11.2781
雹	-11.2782
金帶	-11.2782
潭州	-11.2785
之言曰	-11.2785
有命	-11.2787
嘗作	-11.2787
惟恐	-11.2787
磯	-11.2788
楊栁	-11.2789
大亂	-11.279
火燒	-11.2791
之室	-11.2791
净	-11.2793
瑗	-11.2793
不能得	-11.2793
郄	-11.2793
曵	-11.2793
偹	-11.2794
熟視	-11.2795
州府	-11.2796
為四	-11.2796
著之	-11.2796
穏	-11.2797
猾	-11.2797
亦宜	-11.2799
不假	-11.28
萼	-11.2801
解之	-11.2801
鍾繇	-11.2802
新法	-11.2802
朝臣	-11.2804
一僧	-11.2804
年月	-11.2805
亦已	-11.2806
王沂公	-11.2806
大理寺	-11.2807
一帖	-11.2807
召對	-11.2808
逺方	-11.2812
今已	-11.2814
宓	-11.2815
白鶴	-11.2823
盛事	-11.2824
習之	-11.2825
權衡	-11.2826
致之	-11.2829
諸道	-11.2829
也孔子	-11.2831
後以	-11.2831
中得	-11.2832
潤州	-11.2832
其遺	-11.2833
皆言	-11.2833
人見	-11.2833
甚嚴	-11.2836
仰視	-11.2836
章帝	-11.2837
非禮	-11.284
論也	-11.2841
馨	-11.2848
蜚	-11.2852
虱	-11.2853
三十餘	-11.2854
魏書	-11.2854
芹	-11.2856
茲	-11.2857
嘗聞	-11.2858
導之	-11.2858
蘂	-11.2858
傭	-11.2859
南軒	-11.2859
巫咸	-11.286
譲	-11.286
軍旅	-11.2862
覓	-11.2864
柬	-11.2864
裡	-11.2864
崧	-11.2864
忠厚	-11.2865
世謂	-11.2866
比也	-11.2867
埶	-11.2869
吕公	-11.2869
正言	-11.2869
汞	-11.287
者名	-11.2874
張子	-11.2874
提要	-11.2876
舊事	-11.2877
至道	-11.2881
而不及	-11.2881
賜名	-11.2885
留之	-11.2886
但知	-11.2887
十篇	-11.289
先朝	-11.2892
視事	-11.2893
立而	-11.2896
帝堯	-11.2896
在中書	-11.2896
處分	-11.2896
不克	-11.2899
内翰	-11.29
善言	-11.2901
休息	-11.2905
丁謂	-11.2907
書傳	-11.2912
义	-11.2915
則已	-11.2915
西海	-11.2917
卷四	-11.2917
不差	-11.2917
嘏	-11.2919
元豐中	-11.2919
人道	-11.292
慄	-11.2921
慎勿	-11.2921
有味	-11.2921
木香	-11.2922
厓	-11.2923
日月星辰	-11.2923
趍	-11.2923
俎	-11.2923
瘧	-11.2924
摺	-11.2924
浹	-11.2924
戊寅	-11.2925
新城	-11.2926
軻	-11.2927
借用	-11.2929
論詩	-11.2929
跌	-11.2929
應天	-11.2931
漢初	-11.2934
經籍	-11.2936
每年	-11.2937
去就	-11.2939
元元	-11.294
民力	-11.2942
乗輿	-11.2944
逺而	-11.2949
也周	-11.2949
名氏	-11.295
各異	-11.2953
不可及	-11.2953
人必	-11.2954
同異	-11.2954
文明	-11.2955
司命	-11.2956
後唐	-11.2959
老成	-11.2959
焉得	-11.296
佛書	-11.2961
百司	-11.2963
遂得	-11.2963
口中	-11.2964
不佳	-11.2965
彈琴	-11.2967
得之矣	-11.2968
正衙	-11.2969
三里	-11.297
文理	-11.2971
不窮	-11.2971
置於	-11.2972
不修	-11.2975
儋	-11.2977
祜	-11.2979
熹	-11.298
文皇	-11.2982
嘔	-11.2983
俗謂之	-11.2984
甚盛	-11.2984
喜曰	-11.2986
燄	-11.2986
不知此	-11.2987
尚書郎	-11.2987
於己	-11.2987
屐	-11.2988
廐	-11.2989
財物	-11.2989
未暇	-11.2989
坂	-11.2989
毳	-11.2991
翡翠	-11.2991
起于	-11.2994
泰誓	-11.2994
百金	-11.2995
戊午	-11.2996
神龍	-11.2998
篆文	-11.3
賢於	-11.3001
一云	-11.3005
所不及	-11.3007
曹氏	-11.3007
舊説	-11.3007
相顧	-11.3011
文簡	-11.3015
理之	-11.3019
無數	-11.3021
言行	-11.3021
人語	-11.3022
聖主	-11.3022
假令	-11.3024
景泰	-11.3024
邑人	-11.3024
桂林	-11.3025
何謂也	-11.3026
凡四	-11.3027
是夕	-11.3027
端午	-11.3028
行於	-11.3029
其祖	-11.303
東坡云	-11.3031
亦復	-11.3033
上問	-11.3041
國風	-11.3041
恐懼	-11.3043
古語	-11.3044
毛氏	-11.3045
遇之	-11.3047
年四月	-11.3047
址	-11.3047
其臣	-11.3048
數千里	-11.3049
蘿蔔	-11.305
寺有	-11.305
故君子	-11.305
硝	-11.305
婿	-11.3052
不來	-11.3053
故實	-11.3054
舁	-11.3054
二章	-11.3055
爼	-11.3055
愉	-11.3056
䨇	-11.3056
箔	-11.3057
十倍	-11.3059
重陽	-11.3059
亦不知	-11.3059
啇	-11.3061
官名	-11.3063
之辨	-11.3063
二十六年	-11.3064
居處	-11.3066
成湯	-11.307
録曰	-11.3071
漢水	-11.3071
收之	-11.3073
至於此	-11.3073
三十三	-11.3075
神也	-11.3076
端溪	-11.3076
軍節度使	-11.3079
輕薄	-11.3079
傳聞	-11.308
府庫	-11.3081
市人	-11.3082
疑是	-11.3082
錦繡	-11.3083
錢唐	-11.3085
身為	-11.3085
月恭校上總纂官	-11.3088
了無	-11.3088
因事	-11.3089
前軰	-11.309
竊謂	-11.3092
太息	-11.3093
計之	-11.3094
乗馬	-11.3097
惻	-11.3098
氣之	-11.3099
具奏	-11.3101
吳人	-11.3103
李文	-11.3106
入見	-11.3106
義者	-11.3106
齊之	-11.3107
泗州	-11.3111
既有	-11.3111
水仙	-11.3112
雖多	-11.3113
下句	-11.3113
郞	-11.3116
楚詞	-11.3116
寕	-11.3118
籙	-11.3118
害也	-11.312
覿	-11.312
白首	-11.3121
鄉試	-11.3121
其目	-11.3123
太常博士	-11.3123
楯	-11.3124
士夫	-11.3125
忽然	-11.3125
木為	-11.3126
建文	-11.3127
戊申	-11.3128
百嵗	-11.3129
七十里	-11.313
主司	-11.313
敬之	-11.3133
夢見	-11.3136
字乃	-11.3137
學術	-11.3144
一念	-11.3144
所立	-11.3146
自明	-11.3151
風雅	-11.3153
方丈	-11.3154
而取	-11.3158
復出	-11.3158
移時	-11.3159
則亦	-11.316
敢不	-11.3162
意欲	-11.3163
百丈	-11.3165
地黄	-11.3167
永安	-11.3171
開成	-11.3172
能行	-11.3173
惡也	-11.3174
㑹于	-11.3174
竟以	-11.3174
數百年	-11.3174
嚥	-11.3176
櫓	-11.3176
元宗	-11.3177
漢髙祖	-11.3178
蔡君謨	-11.3178
乙亥	-11.3181
言訖	-11.3181
聞於	-11.3182
西京雜記	-11.3182
王元	-11.3182
而猶	-11.3182
章草	-11.3182
䦨	-11.3182
槍	-11.3182
夔	-11.3185
頗多	-11.3185
先師	-11.3186
漢制	-11.3186
明紀事本末	-11.3187
始末	-11.3187
無聞	-11.3188
烘	-11.3189
釋奠	-11.3189
俱有	-11.319
學而	-11.3191
二君	-11.3191
通於	-11.3191
百餘人	-11.3192
駙馬	-11.3193
八日	-11.3194
之吏	-11.3195
不似	-11.3196
舊注	-11.3197
曽祖	-11.3198
時年	-11.3199
知有	-11.32
香爐	-11.3201
右侍郎	-11.3203
相從	-11.3204
漁者	-11.3205
有遺	-11.3206
殿試	-11.3206
徳行	-11.3208
出此	-11.3211
小異	-11.3215
師之	-11.3216
某官	-11.3217
治民	-11.3217
簡子	-11.3218
最佳	-11.3219
必有所	-11.3219
可稱	-11.322
安撫	-11.322
亦可謂	-11.3224
面目	-11.3225
先知	-11.3226
則自	-11.3228
不異	-11.3233
數十萬	-11.3233
何有	-11.3233
紀綱	-11.3233
横行	-11.3235
龍腦	-11.3237
在東	-11.3237
行於世	-11.3237
經典	-11.3238
方知	-11.3243
長三尺	-11.3243
舉兵	-11.3244
薺	-11.3245
佛寺	-11.3246
入城	-11.3246
予觀	-11.3247
然如	-11.325
罄	-11.3251
以取	-11.3252
炮	-11.3252
工部尚書	-11.3252
溉	-11.3253
虀	-11.3254
汨	-11.3255
於東	-11.3255
任其	-11.3255
走馬	-11.3257
忱	-11.3258
秦州	-11.326
古今説海卷	-11.3261
矮	-11.3262
芼	-11.3263
存乎	-11.3264
謬矣	-11.3267
無一人	-11.327
其質	-11.3271
今按	-11.3274
國者	-11.3275
削去	-11.3276
指為	-11.3278
人乎	-11.3279
異乎	-11.3281
本也	-11.3283
龍圖	-11.3285
第十	-11.3285
也惟	-11.3286
眞宗	-11.3288
解曰	-11.3288
災異	-11.3291
三輔	-11.3291
五嶽	-11.3292
皇極	-11.3294
文詞	-11.3294
本是	-11.3294
孰為	-11.3295
木也	-11.3298
雜録	-11.3298
正直	-11.3299
建言	-11.33
之候	-11.3301
中道	-11.3301
成周	-11.3302
與天	-11.3302
見此	-11.3306
平時	-11.3306
仙客	-11.3307
於是乎	-11.3307
聽其	-11.3308
啞	-11.3308
黄花	-11.3312
也東坡	-11.3314
㐮	-11.3314
一面	-11.3315
沁	-11.3316
姊妹	-11.3317
吠	-11.3318
葅	-11.3319
畀	-11.3319
精妙	-11.3319
蝦蟇	-11.332
肴	-11.3321
無益於	-11.3323
壬申	-11.3323
葉如	-11.3325
也君子	-11.3327
零落	-11.3327
人身	-11.3327
女郎	-11.3328
乙巳	-11.3328
一角	-11.3329
律詩	-11.3329
而難	-11.3331
二十萬	-11.3332
用字	-11.3332
直學士	-11.3334
率多	-11.3335
胡椒	-11.3337
者常	-11.334
其政	-11.3341
上殿	-11.3342
俗謂	-11.3344
王府	-11.3349
僉事	-11.335
國名	-11.335
小國	-11.3351
房中	-11.3352
吾所	-11.3353
得天下	-11.336
不定	-11.3364
亡者	-11.3365
也又云	-11.3366
害之	-11.3368
後因	-11.337
不報	-11.3372
水調	-11.3372
出焉	-11.3375
郭璞注	-11.3375
為陽	-11.3375
皆以為	-11.3376
東坡詩	-11.3377
漾	-11.3379
之所由	-11.3379
癸酉	-11.338
七嵗	-11.338
之死	-11.3381
大敗	-11.3382
已後	-11.3382
何則	-11.3382
盡力	-11.3383
銑	-11.3383
極其	-11.3383
師道	-11.3384
莫知所	-11.3385
瞑	-11.3386
摸	-11.3388
山上	-11.3388
縠	-11.3389
俯仰	-11.3391
梁元帝	-11.3391
昔有	-11.3393
行書	-11.3393
許氏	-11.3394
此必	-11.3394
套	-11.3396
冬夏	-11.3396
所指	-11.3396
以便	-11.3401
維揚	-11.3404
哀哉	-11.3406
神女	-11.3407
姓也	-11.3411
己巳	-11.3411
知古	-11.3412
華亭	-11.342
利也	-11.3426
自此始	-11.343
昭儀	-11.3431
笑而	-11.3432
半年	-11.3433
亦未嘗	-11.3438
不然則	-11.344
儒學	-11.344
襄子	-11.3441
起自	-11.3444
入室	-11.3445
語及	-11.3445
荔	-11.3446
至其	-11.3447
佃	-11.3448
西有	-11.3448
鬯	-11.3448
稔	-11.345
於水	-11.345
枇杷	-11.3451
芟	-11.3451
个	-11.3451
罩	-11.3452
墓誌銘	-11.3452
亊	-11.3452
佯	-11.3452
攫	-11.3454
綘	-11.3454
為難	-11.3454
每一	-11.3455
豈獨	-11.3455
必待	-11.3456
井田	-11.3457
侣	-11.3457
鄆	-11.3458
誑	-11.3458
說郛卷	-11.3459
禮者	-11.3459
廣雅	-11.3459
薔薇	-11.3461
象牙	-11.3463
入宫	-11.3464
以代	-11.3464
元章	-11.3464
大呼	-11.3465
性也	-11.3465
一貫	-11.3465
聖俞	-11.3466
必能	-11.3468
一半	-11.3469
丁巳	-11.3469
六卿	-11.3469
語録	-11.3473
藍田	-11.3475
大夏	-11.3477
馬援	-11.3478
黃帝	-11.3478
佛像	-11.348
必大	-11.3481
天官	-11.3481
春秋時	-11.3483
雜以	-11.3486
明也	-11.3487
進御	-11.3488
自負	-11.3491
遂使	-11.3493
引用	-11.3494
紫色	-11.3495
少保	-11.3499
以别	-11.35
更生	-11.3501
邦國	-11.3504
聖人之道	-11.3506
紫衣	-11.3508
春色	-11.3511
法司	-11.3511
五子	-11.3513
何以知之	-11.3514
而走	-11.3516
琛	-11.3517
一門	-11.3517
長城	-11.3517
於其間	-11.3518
僵	-11.3519
悽	-11.3521
不務	-11.3521
黏	-11.3524
病也	-11.3524
以知	-11.3524
在地	-11.3525
白水	-11.3528
南越	-11.3532
合為一	-11.3532
三山	-11.3532
元稹	-11.3537
善為	-11.3537
故稱	-11.3538
嵩山	-11.3539
女曰	-11.3539
不任	-11.3539
閽	-11.3541
所司	-11.3542
定公	-11.3544
乎且	-11.3546
發於	-11.3549
韋昭	-11.3551
其生	-11.3554
天啓	-11.3554
百花	-11.3555
而東	-11.3556
閼	-11.3556
或為	-11.3564
花落	-11.3565
樗	-11.3566
不曾	-11.3567
此卷	-11.3567
兩漢	-11.3568
以防	-11.3571
盛於	-11.3572
己之	-11.3572
極矣	-11.3573
列國	-11.3574
鷂	-11.3574
於國	-11.3576
民心	-11.3577
隨之	-11.3578
漢家	-11.358
五官	-11.3581
者悉	-11.3581
三百年	-11.3581
河朔	-11.3583
咸通	-11.3583
石壁	-11.3584
鶚	-11.3584
紊	-11.3585
愔	-11.3585
以助	-11.3585
郗	-11.3585
數百里	-11.3585
非其人	-11.3586
周室	-11.3586
顗	-11.3587
洛水	-11.3587
大中祥符	-11.3587
䜛	-11.3591
一萬	-11.3591
緊	-11.3591
也何	-11.3591
涕泣	-11.3592
枸杞	-11.3593
夬	-11.3593
老而	-11.3594
隳	-11.3595
不茍	-11.3597
流血	-11.3597
著作	-11.3601
感動	-11.3604
以銀	-11.3606
長官	-11.3606
亦須	-11.3607
聲音	-11.3607
年間	-11.3609
重複	-11.361
八音	-11.361
舊例	-11.3612
北平	-11.3612
在我	-11.3616
教化	-11.3616
山海	-11.3617
哉故	-11.3618
何敢	-11.3619
焉其	-11.362
四聲	-11.362
臣竊	-11.3622
終無	-11.3623
子母	-11.3624
率以	-11.3627
禁止	-11.3628
余家	-11.3628
踰年	-11.3628
余觀	-11.3628
俗語	-11.3629
呼曰	-11.3629
沸湯	-11.3629
既入	-11.363
次序	-11.363
齋戒	-11.3631
善畫	-11.3631
旃	-11.3636
則止	-11.3638
女也	-11.364
皇考	-11.364
武安	-11.3643
一百五十	-11.3646
然矣	-11.3647
隗	-11.365
少有	-11.365
賜金	-11.3651
李善	-11.3651
峒	-11.3652
入蜀	-11.3655
陸徳明	-11.3655
古法	-11.3656
擎	-11.3656
趂	-11.3657
葭	-11.3657
憔悴	-11.3658
開門	-11.3658
登山	-11.3658
泣下	-11.3658
潢	-11.3659
多是	-11.3659
中流	-11.366
箠	-11.3661
百尺	-11.3662
旌旗	-11.3663
逆旅	-11.3664
之象也	-11.3664
十丈	-11.3665
自云	-11.367
開封府	-11.3671
異時	-11.3672
不能無	-11.3676
二十九年	-11.3677
其初	-11.368
京房	-11.3681
其旁	-11.3681
以鐵	-11.3684
嘗曰	-11.3685
太常寺	-11.3686
稍稍	-11.3688
中心	-11.3694
總管	-11.3694
為學士	-11.3694
堂下	-11.3694
桓帝	-11.3696
北極	-11.3697
悠	-11.37
十二日	-11.3701
進賢	-11.3702
何者	-11.3702
者甚多	-11.3702
所從	-11.3703
備矣	-11.3706
齊國	-11.3706
死後	-11.3707
之工	-11.3708
都人	-11.3715
之可也	-11.3715
簽	-11.3716
鵰	-11.3718
年七月	-11.372
破之	-11.3722
沅	-11.3723
靚	-11.3724
殂	-11.3724
廸	-11.3726
曰吾聞	-11.3726
黥	-11.3727
葆	-11.3729
伐之	-11.3729
晡	-11.373
虫	-11.3731
繫之	-11.3732
娼	-11.3732
家法	-11.3734
紫微	-11.3735
其始	-11.3737
禮畢	-11.3737
更相	-11.3737
不進	-11.3739
古字	-11.3739
宣子	-11.3741
則失	-11.3742
鶡冠子	-11.3742
夏后	-11.3743
妻之	-11.3744
歌詩	-11.3745
謂人曰	-11.3747
饒州	-11.3747
我朝	-11.3749
不諱	-11.3751
不齊	-11.3751
之始也	-11.3752
願得	-11.3753
所産	-11.3754
舜禹	-11.3754
大慶	-11.3757
之疾	-11.3758
在蜀	-11.3758
之源	-11.376
入閣	-11.3763
文忠公	-11.3763
信矣	-11.3763
北地	-11.3763
前殿	-11.3767
法者	-11.3769
士民	-11.377
難也	-11.3771
作書	-11.3773
無别	-11.3774
落日	-11.3775
長江	-11.3777
五聲	-11.3779
易也	-11.3779
旁有	-11.3783
里人	-11.3784
七千	-11.3786
其誤	-11.3791
糠	-11.3794
中書舎人	-11.3795
樓臺	-11.3796
暇日	-11.3796
慝	-11.3797
不欺	-11.3798
洵	-11.3798
不達	-11.3799
知其為	-11.3799
與天地	-11.38
姧	-11.3801
俗作	-11.3802
引詩	-11.3803
殺身	-11.3805
既無	-11.3806
丙申	-11.3806
滄海	-11.3806
法用	-11.3806
體也	-11.3807
裾	-11.3807
仕至	-11.3807
二十一日	-11.3808
翰苑	-11.381
靈王	-11.381
辭以	-11.3811
嘗問	-11.3812
吕覽	-11.3813
富民	-11.3815
法而	-11.3816
三十九	-11.3817
如新	-11.3818
一夫	-11.3818
莊王	-11.3818
十七日	-11.3819
蠻夷	-11.382
者正	-11.3822
而小	-11.3824
賢聖	-11.3825
大内	-11.3826
曲直	-11.3826
之力也	-11.3826
後進	-11.3826
天下之大	-11.3829
難於	-11.3829
蕭蕭	-11.383
與客	-11.383
二斤	-11.383
大父	-11.3832
宣和間	-11.3838
歌行	-11.3838
師曰	-11.3839
每月	-11.3843
者但	-11.3844
主於	-11.3846
能致	-11.3849
也春秋	-11.3849
六藝	-11.3851
上清	-11.3851
智永	-11.3854
他書	-11.3854
苕	-11.3854
餘慶	-11.3855
鯨	-11.3859
後乃	-11.3859
潑	-11.386
襦	-11.386
鱠	-11.3862
而别	-11.3863
以遺	-11.3863
上馬	-11.3863
兒童	-11.3863
不收	-11.3864
癸巳	-11.3864
死則	-11.3865
焰	-11.3865
忻	-11.3865
服藥	-11.3865
其禍	-11.3865
周天	-11.3866
琅邪	-11.3866
玉壺	-11.3866
便於	-11.3866
紈	-11.3867
刳	-11.3867
通州	-11.3867
塋	-11.3867
中令	-11.3868
出家	-11.3868
檐	-11.3868
音律	-11.3869
公孫𢎞	-11.3871
淤	-11.3872
辛亥	-11.3873
錠	-11.3873
公公	-11.3873
林甫	-11.3873
扁鵲	-11.3875
不能為	-11.3876
㑹於	-11.3877
任昉	-11.3877
大篆	-11.3879
太倉	-11.3881
為御史	-11.3881
也古人	-11.3881
無逸	-11.3882
以火	-11.3882
何在	-11.3883
不煩	-11.3883
燒之	-11.3888
者不知	-11.3888
桃源	-11.3888
嶺外	-11.3889
四十二	-11.3889
矣按	-11.3889
韓非	-11.3896
之譌	-11.3896
二名	-11.3898
新婦	-11.39
守令	-11.3901
不得已而	-11.3903
天人	-11.3905
千五百	-11.3908
延夀	-11.3909
意在	-11.3909
賜宴	-11.3915
章奏	-11.3918
佳者	-11.3919
之黨	-11.3922
大河	-11.3923
唐明皇	-11.3925
車騎	-11.3926
在官	-11.3926
春分	-11.3926
伐木	-11.3931
宫女	-11.3931
耒	-11.3931
霓	-11.3932
國主	-11.3934
詢之	-11.3934
鋸	-11.3934
而受	-11.3934
妄言	-11.3936
大名	-11.3937
樓閣	-11.3937
萱	-11.3937
愠	-11.3939
宜其	-11.3939
徤	-11.3939
居民	-11.3939
塵埃	-11.3941
殄	-11.3941
紇	-11.3942
罌	-11.3942
龜山	-11.3944
飮	-11.3944
作相	-11.3944
所刻	-11.3946
盡心	-11.3946
既得	-11.3947
天神	-11.3947
其文曰	-11.3947
零陵	-11.3947
而加	-11.3949
浮雲	-11.3949
鏗	-11.3952
避暑	-11.3953
敏中	-11.3954
百僚	-11.3956
作小	-11.3957
之險	-11.3957
説者	-11.3958
昔日	-11.396
諫議	-11.396
窰	-11.3961
也聖人	-11.3964
聲如	-11.3965
臣請	-11.3966
别為	-11.3967
八寸	-11.3967
省文	-11.3969
之俗	-11.3971
發墨	-11.3971
司業	-11.3973
南嶽	-11.3973
天文志	-11.3976
大矣	-11.3978
糯米	-11.3983
不擇	-11.3984
兩端	-11.3985
豈知	-11.3987
乃復	-11.3987
甚大	-11.3989
台州	-11.3991
若今	-11.3992
多所	-11.3993
景祐	-11.3993
下獄	-11.3995
亦難	-11.3996
之貌	-11.3996
司馬光	-11.3999
並行	-11.3999
雷霆	-11.4
畤	-11.4
玠	-11.4005
濛	-11.4006
勣	-11.4007
謟	-11.4009
隧	-11.4009
薤	-11.401
删	-11.401
副都御史	-11.401
黄鐘	-11.4011
豈惟	-11.4012
嵐	-11.4012
斟酌	-11.4012
晞	-11.4015
鎰	-11.4016
源流	-11.4016
顛倒	-11.4017
於彼	-11.4017
滋味	-11.4017
丼	-11.4017
象形	-11.4017
二帝	-11.4018
人面	-11.4019
桓温	-11.4019
櫃	-11.402
者不過	-11.4021
夏商	-11.4022
其葉	-11.4023
自成	-11.4025
昆吾	-11.4026
意謂	-11.4028
已定	-11.4028
祠堂	-11.4029
其難	-11.4031
夏之	-11.4034
西川	-11.4034
西蜀	-11.4035
隨其	-11.4035
堯時	-11.4036
筆勢	-11.4036
之由	-11.4037
貴重	-11.4041
閩人	-11.4044
自外	-11.4047
之福	-11.4047
證也	-11.4048
長而	-11.405
慶歴	-11.4051
因言	-11.4052
六分	-11.4053
又得	-11.4054
詞曰	-11.4054
可勝	-11.4054
更不	-11.4057
矣且	-11.4057
少游	-11.4059
縣西北	-11.4061
人作	-11.4061
蘋	-11.4063
漫録	-11.4064
後代	-11.4066
客至	-11.4067
將有	-11.4069
國中	-11.4071
將至	-11.4072
卷五	-11.4072
夜行	-11.4072
餙	-11.4075
起兵	-11.4076
予以	-11.4077
騶虞	-11.4078
鴆	-11.4079
囑	-11.408
塑	-11.408
鑚	-11.4081
真定	-11.4081
瀟湘	-11.4081
炤	-11.4081
經書	-11.4083
者凡	-11.4084
跗	-11.4084
自作	-11.4084
𨼆	-11.4084
東觀	-11.4085
天下之人	-11.4086
㸑	-11.4086
句法	-11.4087
呼吸	-11.4087
聞之曰	-11.4087
人呼為	-11.4088
廟碑	-11.4089
壯士	-11.4089
白花	-11.409
入中國	-11.409
臨朝	-11.409
於身	-11.4094
又謂之	-11.4096
仲淹	-11.4097
其私	-11.4097
處置	-11.4097
畫工	-11.4098
世本	-11.4099
三升	-11.4102
中秋	-11.4102
兩省	-11.4103
三斗	-11.4105
當自	-11.4107
情性	-11.4108
為己	-11.4108
在北	-11.4108
立為	-11.4108
非無	-11.4109
言之則	-11.411
所獲	-11.4112
此云	-11.4113
之䇿	-11.4114
建議	-11.4114
是夜	-11.4116
國用	-11.4119
理宗	-11.4121
岱	-11.4123
見聞	-11.4124
百斤	-11.4125
本名	-11.4126
迄今	-11.4127
刮	-11.4127
莊子曰	-11.4127
文臣	-11.4128
水名	-11.4129
獨無	-11.4132
不精	-11.4132
玉泉	-11.4134
首章	-11.4134
以教	-11.4135
晉文公	-11.4138
之親	-11.4141
傷寒	-11.4141
柰	-11.4142
恨不	-11.4143
以充	-11.4143
幸而	-11.4145
禰	-11.4145
利用	-11.4145
隲	-11.4145
謳	-11.4146
地有	-11.4148
軋	-11.4149
性情	-11.415
光禄大夫	-11.415
造物	-11.4151
襪	-11.4152
菲	-11.4153
湫	-11.4153
不滅	-11.4154
泓	-11.4155
拉	-11.4155
嶼	-11.4155
再入	-11.4155
善也	-11.4156
蝴蝶	-11.4157
處處	-11.4159
瀹	-11.4163
所食	-11.4163
䰟	-11.4165
以補	-11.4165
復古	-11.4168
杜陵	-11.4169
平仲	-11.4171
韓魏	-11.4171
廬江	-11.4176
曰善	-11.4177
靈帝	-11.4178
無情	-11.4179
而不見	-11.4179
隆慶	-11.418
震澤	-11.4181
性之	-11.4181
轉運	-11.4181
甚急	-11.4182
釀酒	-11.4183
梨花	-11.4183
雨露	-11.4184
云吾	-11.4184
四書	-11.4192
雖小	-11.4193
一歲	-11.4193
孝弟	-11.4193
廣記	-11.4193
王仲	-11.4195
徒以	-11.4197
與諸	-11.4197
西戎	-11.4198
霜雪	-11.4199
小臣	-11.4199
次韻	-11.42
年六十	-11.42
亦不敢	-11.4201
孟春	-11.4201
二十餘年	-11.4205
十五里	-11.4207
家居	-11.4209
象曰	-11.4209
天然	-11.4211
鶡	-11.4213
重於	-11.4214
無憂	-11.4216
雖未	-11.422
大官	-11.4221
蝦蟆	-11.4222
扼	-11.4223
香山	-11.4224
菑	-11.4224
䙝	-11.4224
鬰	-11.4225
荳	-11.4227
汲冢	-11.4227
周益公	-11.423
儗	-11.4231
至孝	-11.4232
呉越	-11.4232
何也曰	-11.4233
藜	-11.4233
三十八	-11.4233
有理	-11.4233
穫	-11.4233
不見其	-11.4234
慷慨	-11.4235
封之	-11.4236
窗	-11.4236
諸賢	-11.4238
僅存	-11.424
既久	-11.4242
七里	-11.4242
五刑	-11.4242
諸侯王	-11.4242
堯佐	-11.4245
天師	-11.4247
科目	-11.4253
賢而	-11.4254
甚喜	-11.4257
已為	-11.4258
呉王	-11.4262
甚有	-11.4263
有金	-11.4264
宣德	-11.4264
大約	-11.4264
自守	-11.4267
無意	-11.4267
惟此	-11.4267
相屬	-11.427
子長	-11.4272
以給	-11.4273
當音	-11.4274
他如	-11.4275
不謹	-11.4278
其害	-11.4278
侍兒	-11.428
相隨	-11.428
形於	-11.4281
千六百	-11.4282
闋	-11.4282
錢氏	-11.4283
在後	-11.4284
軍事	-11.4286
有益	-11.4286
陳公	-11.4286
君子以	-11.429
匝	-11.4291
杜鵑	-11.4292
子固	-11.4294
兩制	-11.4294
蝨	-11.4295
名號	-11.4295
于上	-11.4295
牧之	-11.4296
鑠	-11.4296
後人所	-11.4297
鱉	-11.4297
耳又	-11.4297
蜘蛛	-11.4299
臨淄	-11.4299
武帝時	-11.43
不踰	-11.43
驤	-11.4301
凄	-11.4301
里中	-11.4302
孫愐	-11.4302
上令	-11.4303
爇	-11.4304
之側	-11.4304
蕋	-11.4305
風氣	-11.4307
袁紹	-11.4307
暄	-11.4308
不果	-11.4308
醤	-11.4309
鰕	-11.4311
說者	-11.4314
意其	-11.4314
龍蛇	-11.4315
好竒	-11.4317
愛民	-11.4317
之威	-11.4319
莫非	-11.4319
不斷	-11.4319
杏花	-11.4319
二里	-11.4321
爲一	-11.4321
于地	-11.4321
復歸	-11.4323
崔氏	-11.4326
兵革	-11.4326
而治	-11.4327
甚者	-11.4329
初為	-11.433
其源	-11.4331
不難	-11.4332
腹心	-11.4333
四皓	-11.4334
士君子	-11.4334
文敏	-11.4336
方可	-11.4338
中夜	-11.4339
於古	-11.4341
所親	-11.4341
李陵	-11.4342
此外	-11.4345
事事	-11.4347
定武	-11.4348
度量	-11.4351
其背	-11.4351
石城	-11.4352
地形	-11.4359
歸于	-11.4362
縣尉	-11.4362
太清	-11.4365
高麗	-11.4365
鉏	-11.4365
而發	-11.4367
立廟	-11.4368
洮	-11.4368
五等	-11.4369
大衍	-11.4369
比於	-11.4369
撿	-11.437
顚	-11.4371
肱	-11.4371
蜀郡	-11.4371
紬	-11.4371
郯	-11.4372
曬	-11.4373
賈逵	-11.4375
皮日休	-11.4375
漢髙	-11.4376
本以	-11.4377
霓裳	-11.4377
噪	-11.4378
紘	-11.4378
國學	-11.4379
衘	-11.4379
張騫	-11.438
丁酉	-11.4381
蒼頡	-11.4381
曰惟	-11.4382
勞而	-11.4383
藩鎮	-11.4384
寧王	-11.4384
一國	-11.4385
真跡	-11.4386
智謂	-11.4388
娃	-11.4389
故作	-11.4389
其舊	-11.4392
婺	-11.4393
二十七年	-11.4393
此字	-11.4394
叅政	-11.4396
經年	-11.4396
趙普	-11.4397
舟楫	-11.4397
淮南子曰	-11.4399
簡易	-11.44
小舟	-11.4401
官爵	-11.4401
亦在	-11.4402
特以	-11.4403
今日之	-11.4405
朝官	-11.4406
以禦	-11.4408
安之	-11.441
治水	-11.441
遂命	-11.4411
東有	-11.4412
興國	-11.4414
五升	-11.4415
雲林	-11.4416
以救	-11.4416
職官	-11.4418
神道碑	-11.4419
延平	-11.4422
禮曰	-11.4422
方得	-11.4428
發其	-11.4428
欲知	-11.443
之所在	-11.4437
文肅	-11.4438
屛	-11.4438
有能	-11.4438
不自知	-11.4439
想見	-11.444
指其	-11.444
萬古	-11.444
人馬	-11.4444
餒	-11.4444
雲母	-11.4444
拒之	-11.4445
詈	-11.4446
之化	-11.4447
篡	-11.4447
戡	-11.4448
固不可	-11.4448
固當	-11.4449
押字	-11.4449
璠	-11.445
戊戌	-11.4451
翮	-11.4451
㳂	-11.4452
琪	-11.4453
酒器	-11.4453
提督	-11.4455
鳯翔	-11.4455
埤雅	-11.4455
溟	-11.4455
五兩	-11.4455
客有	-11.4456
死也	-11.4456
始自	-11.4457
不拜	-11.4457
朋黨	-11.4458
乎又	-11.4458
獨行	-11.4459
慶元	-11.4461
靈公	-11.4461
不預	-11.4461
在人	-11.4462
責其	-11.4464
不敢言	-11.4468
閣門	-11.4468
興亡	-11.447
不發	-11.4471
分野	-11.4472
宋王	-11.4472
大書	-11.4473
希夷	-11.4475
告以	-11.4475
期而	-11.4476
清水	-11.4477
十九日	-11.4481
不屈	-11.4481
筋骨	-11.4481
郊廟	-11.4482
晉國	-11.4483
風塵	-11.4485
胡人	-11.4485
箋云	-11.4485
月日	-11.4489
九成	-11.4501
寺中	-11.4503
其黨	-11.4503
成就	-11.4506
井水	-11.4512
不移	-11.4513
位而	-11.4514
加於	-11.4514
制也	-11.4515
羽林	-11.4516
復來	-11.4516
務在	-11.4516
莘	-11.4519
憇	-11.4522
半夜	-11.4522
自相	-11.4523
湮	-11.4523
縝	-11.4524
諶	-11.4525
拏	-11.4525
議之	-11.4525
撼	-11.4526
與公	-11.4528
扁舟	-11.4529
叨	-11.453
後數日	-11.4531
蒲萄	-11.4533
成而	-11.4538
工人	-11.4538
樹下	-11.4541
蘇武	-11.4542
越州	-11.4544
佛經	-11.4544
以觀	-11.4544
觀察	-11.4546
縣西南	-11.4546
于闐	-11.4547
至宋	-11.4549
以資	-11.455
慶厯中	-11.4552
賈生	-11.4553
遂令	-11.4554
者唯	-11.4554
都官	-11.4556
天時	-11.4557
荆楚	-11.4559
士女	-11.456
乗之	-11.4563
大木	-11.4564
黄昏	-11.4565
除之	-11.4565
宫觀	-11.4567
不可得也	-11.4568
歌之	-11.4568
予在	-11.4569
夷齊	-11.4573
元載	-11.4573
三十四	-11.4574
以實	-11.4576
令其	-11.4579
三百篇	-11.458
坐於	-11.458
之容	-11.4581
馬蹄	-11.4581
方今	-11.4582
浮圖	-11.4582
公家	-11.4582
嗣宗	-11.4582
者無不	-11.4583
即令	-11.4584
魚袋	-11.4584
字元	-11.4585
六爻	-11.4585
蚩	-11.4585
堂堂	-11.4586
討論	-11.4587
語意	-11.4587
何等	-11.4592
經緯	-11.4593
矣至	-11.4594
雍州	-11.4594
臚	-11.4595
埃	-11.4595
公議	-11.4596
𤨏	-11.4597
纍	-11.4597
方平	-11.4598
暘	-11.4599
哂	-11.46
荻	-11.46
風起	-11.4601
義士	-11.4601
惆悵	-11.4602
賭	-11.4602
飛燕	-11.4604
李賀	-11.4604
云今	-11.4604
之宜	-11.4604
蕊	-11.4605
大悦	-11.4605
正當	-11.4605
道術	-11.4605
穆天子傳	-11.4606
山居	-11.4606
儂	-11.4607
三館	-11.4607
凡夫	-11.4607
不休	-11.4608
實為	-11.4609
異端	-11.461
當歸	-11.4611
不衰	-11.4611
驚曰	-11.4612
曰妾	-11.4612
捻	-11.4613
其流	-11.4613
范陽	-11.4614
新書	-11.4616
十二卷	-11.4617
其室	-11.4618
賢士	-11.4629
應劭曰	-11.4632
劉備	-11.4632
二升	-11.4634
汝州	-11.4634
顔師古注曰	-11.4636
老翁	-11.4637
不知也	-11.464
立身	-11.464
動則	-11.4642
之深	-11.4645
明珠	-11.4646
保其	-11.4647
仍舊	-11.4647
則謂之	-11.4648
滄	-11.4648
職方	-11.465
復何	-11.4652
宋景文	-11.4653
秋水	-11.4656
也臣	-11.4658
帖云	-11.4659
歸去	-11.4659
物有	-11.4659
職掌	-11.466
何獨	-11.4661
韓王	-11.4662
異哉	-11.4663
堂中	-11.4664
母曰	-11.4666
諸山	-11.4666
彦博	-11.4667
汲黯	-11.4667
失之矣	-11.467
其前	-11.467
易簡	-11.467
魯之	-11.467
悌	-11.4672
耨	-11.4672
慤	-11.4674
酇	-11.4674
估	-11.4674
聞人	-11.4675
儺	-11.4675
印文	-11.4675
苧	-11.4676
妥	-11.4676
上方	-11.4677
帚	-11.4678
皃	-11.4678
秋分	-11.4679
東晉	-11.4679
裸	-11.4679
赤色	-11.4681
診	-11.4682
木𤓰	-11.4682
垂拱	-11.4683
今夕	-11.4683
簡公	-11.4683
闘	-11.4685
昌齡	-11.4686
失道	-11.4689
講官	-11.4689
縣名	-11.4691
力行	-11.4691
家事	-11.4691
發兵	-11.4693
意思	-11.4694
聖賢之	-11.4696
還家	-11.4697
之宗	-11.4697
得見	-11.4698
正謂	-11.4699
金城	-11.4701
神靈	-11.4701
寺碑	-11.4701
班氏	-11.4702
不可與	-11.4703
答云	-11.4703
取於	-11.4704
浙東	-11.4704
王喬	-11.4707
和平	-11.4707
㸃畫	-11.4709
陸賈	-11.4711
地氣	-11.4712
自若	-11.4713
雙陸	-11.4714
趙公	-11.4718
難知	-11.4718
科道	-11.4719
敵國	-11.4719
九寸	-11.4721
南都	-11.4724
其中有	-11.4726
大士	-11.4729
言及	-11.4731
又加	-11.4731
延之	-11.4732
入貢	-11.4734
得於	-11.4736
黼	-11.4736
五行志	-11.4736
讀作	-11.4738
四角	-11.4738
之責	-11.474
王導	-11.4741
他處	-11.4743
挍	-11.4744
詘	-11.4746
匕	-11.4746
飡	-11.4748
長洲	-11.4749
不傷	-11.4749
塚	-11.4749
妣	-11.475
二説	-11.475
須是	-11.4751
苻堅	-11.4751
嶷	-11.4751
特進	-11.4751
奩	-11.4753
茫茫	-11.4753
襖	-11.4754
甲兵	-11.4754
武成	-11.4754
涌	-11.4755
白髪	-11.4755
悚	-11.4755
黷	-11.4756
腑	-11.4756
勞苦	-11.4757
黠	-11.4757
玷	-11.4759
已然	-11.4759
禫	-11.4761
林下	-11.4761
筴	-11.4763
犒	-11.4763
姝	-11.4763
纛	-11.4763
刺之	-11.4763
色黄	-11.4763
昌言	-11.4764
不肖者	-11.4766
賢愚	-11.4766
厚薄	-11.4768
之事也	-11.4768
僖宗	-11.4768
戒之	-11.4769
變易	-11.4769
曰寡人	-11.4769
几案	-11.4771
宣撫	-11.4772
莫測	-11.4772
載於	-11.4774
術者	-11.4775
之境	-11.4775
國夫人	-11.4775
真珠	-11.4777
食人	-11.4778
水陸	-11.4779
七星	-11.4781
順之	-11.4782
為五	-11.4782
鹿鳴	-11.4783
刑法	-11.4783
八兩	-11.4784
殿門	-11.4786
上章	-11.4787
水精	-11.4788
樂毅	-11.4789
亦誤	-11.479
南向	-11.4793
相生	-11.4794
之手	-11.4794
凡五	-11.4795
改易	-11.4795
考察	-11.4796
法書	-11.4799
敵人	-11.48
反復	-11.4802
於我	-11.4803
後苑	-11.4803
乎對曰	-11.4803
宜春	-11.4804
不爾	-11.4805
書言	-11.4806
上句	-11.4808
每至	-11.4809
與子	-11.481
叔孫	-11.4812
入地	-11.4813
今古	-11.4814
悉以	-11.4816
吳郡	-11.4817
小吏	-11.4818
以兵	-11.482
免於	-11.4821
千三百	-11.4822
太公曰	-11.4823
六十里	-11.4823
世界	-11.4826
良馬	-11.4827
所向	-11.4827
箬	-11.4827
則雖	-11.4827
圯	-11.4828
描	-11.4829
不能用	-11.4829
畫像	-11.4829
鐺	-11.4829
斌	-11.483
潄	-11.483
取一	-11.483
三十一	-11.483
二十七日	-11.4832
覬	-11.4832
立朝	-11.4833
天下之士	-11.4833
閙	-11.4833
成子	-11.4834
上諭	-11.4835
歉	-11.4835
草草	-11.4836
踊	-11.4836
淮南王	-11.4837
有感	-11.4837
芭蕉	-11.4837
宕	-11.4839
莢	-11.4839
詳其	-11.484
昭君	-11.4843
數四	-11.4844
君父	-11.4845
亦甚	-11.4847
盒	-11.4847
未審	-11.4847
待罪	-11.4847
多事	-11.4848
如今之	-11.4848
天祐	-11.4849
遂絶	-11.4851
天下事	-11.4851
武徳	-11.4851
草制	-11.4852
崇文	-11.4854
張文	-11.4866
東坡先生	-11.4869
此義	-11.4869
一經	-11.4871
吾將	-11.4871
凡六	-11.4872
孰謂	-11.4872
應舉	-11.4875
乃用	-11.4876
通天	-11.4876
不納	-11.4879
恍	-11.4883
視之乃	-11.4886
常平	-11.4888
紙上	-11.489
方外	-11.4891
不顯	-11.4892
上聞	-11.4893
字韻	-11.4894
盛行	-11.4896
七曰	-11.4898
裨	-11.4899
與語	-11.4899
宫詞	-11.4902
皆由	-11.4904
馮道	-11.4905
扞	-11.4906
鷓鴣	-11.4907
塹	-11.4907
報之	-11.4908
鉗	-11.4908
剰	-11.4909
集賢院	-11.4909
幙	-11.491
之戰	-11.491
於左	-11.4911
儷	-11.4911
簽書	-11.4914
籃	-11.4915
劉貢父	-11.4915
夢得	-11.4916
世言	-11.4916
近有	-11.4917
在南	-11.4917
至和	-11.4918
生物	-11.4918
韓文	-11.4919
張九齡	-11.492
計其	-11.4922
非若	-11.4922
虎賁	-11.4924
楊子	-11.4925
敢問	-11.4926
入神	-11.4929
故得	-11.4931
不親	-11.4931
於禮	-11.4933
九歌	-11.4936
更為	-11.4939
舜典	-11.4941
杜子美詩	-11.4944
之謬	-11.4945
通志	-11.4948
古銅	-11.4948
中尉	-11.4951
昊	-11.4951
名畫	-11.4953
篆書	-11.4953
義則	-11.4954
三足	-11.4956
南遷	-11.4957
白鹿	-11.4957
有國	-11.4963
困於	-11.4967
初入	-11.4968
後復	-11.4968
一婦人	-11.4969
其詳	-11.497
中宫	-11.497
天禧	-11.4971
君子不	-11.4972
蘖	-11.4977
便宜	-11.4977
以配	-11.498
楚國	-11.498
少傅	-11.4983
熖	-11.4985
杼	-11.4986
蹕	-11.4986
忌日	-11.4988
仿	-11.4988
之祭	-11.4989
蠏	-11.4989
酤	-11.499
梭	-11.4991
愽	-11.4992
六卷	-11.4992
近侍	-11.4997
鱣	-11.4998
太行	-11.4999
較之	-11.4999
便有	-11.4999
相知	-11.5
服食	-11.5002
二十四日	-11.5003
商周	-11.5003
異常	-11.5004
夏日	-11.5006
榮辱	-11.5009
著其	-11.5013
盧氏	-11.5017
僧孺	-11.502
叅軍	-11.5022
堯夫	-11.5022
一變	-11.5024
晉之	-11.5025
佳人	-11.5025
孔孟	-11.5025
取人	-11.5026
時見	-11.5027
為美	-11.5027
卿相	-11.5029
季孫	-11.5032
百千	-11.5032
華隂	-11.5033
或時	-11.5037
此蓋	-11.5038
今時	-11.5038
其美	-11.5041
不違	-11.5042
大哉	-11.5043
皎	-11.5044
乳香	-11.5045
歐陽修	-11.5047
奏云	-11.5047
葬於	-11.5048
東林	-11.5048
無疆	-11.5052
後遂	-11.5053
盾	-11.5054
獨有	-11.5055
今則	-11.5055
又東過	-11.5056
古之人	-11.5056
鈐	-11.5058
蔕	-11.5059
九鼎	-11.5059
煒	-11.506
長公主	-11.5062
茨	-11.5063
褊	-11.5063
尊號	-11.5063
爆	-11.5064
無幾	-11.5064
汲汲	-11.5065
笈	-11.5065
懾	-11.5067
甃	-11.5067
縣人	-11.5068
不道	-11.5069
縻	-11.5069
犁	-11.5069
葩	-11.507
箏	-11.507
箆	-11.507
博物	-11.5071
以為非	-11.5071
闥	-11.5072
庶㡬	-11.5072
十一日	-11.5072
以私	-11.5073
孛	-11.5074
典刑	-11.5074
夙夜	-11.5074
濾	-11.5075
涖	-11.5075
宫門	-11.5076
幾於	-11.5076
以徳	-11.5076
五百里	-11.5078
言於	-11.5079
明其	-11.5079
由此言之	-11.508
也説文	-11.5081
燕子	-11.5082
金剛經	-11.5084
將士	-11.5086
則能	-11.5086
前事	-11.5088
羅紋	-11.5089
擇其	-11.5089
問何	-11.509
追封	-11.509
葬之	-11.5091
不專	-11.5092
癸亥	-11.5092
之野	-11.5097
之法也	-11.5097
烈祖	-11.5098
庾信	-11.5098
古來	-11.5099
宣仁	-11.5101
廣漢	-11.5101
故相	-11.5104
隱居	-11.5106
知音	-11.5107
呉興	-11.5107
睿宗	-11.5107
勉之	-11.5113
曰漢	-11.5113
虞舜	-11.5113
王衍	-11.5115
韻㑹	-11.5115
五斗	-11.5116
引之	-11.5117
孝亷	-11.5117
貧富	-11.5118
嗣位	-11.5118
惟其	-11.5118
洪水	-11.5119
每遇	-11.512
能盡	-11.5121
字衍	-11.5124
入京	-11.5124
八卷	-11.5125
雜志	-11.5126
世系	-11.5126
玉樹	-11.5127
太嵗	-11.5127
二音	-11.5131
之態	-11.5131
螢	-11.5132
二十人	-11.5133
廷試	-11.5135
其非	-11.5135
當然	-11.5136
揲	-11.5138
九人	-11.5138
刑獄	-11.5139
據此	-11.5139
鸛	-11.5139
生氣	-11.514
乃成	-11.514
律吕	-11.5142
火也	-11.5143
郡治	-11.5143
世事	-11.5143
暝	-11.5144
事實類苑卷	-11.5145
隋煬帝	-11.5145
陸龜蒙	-11.5145
少者	-11.5145
珣	-11.5146
深淺	-11.5147
聿	-11.5148
縹	-11.5148
所收	-11.5148
而不知其	-11.5149
棚	-11.515
楸	-11.5151
進用	-11.5152
痺	-11.5152
舖	-11.5152
沈存中	-11.5154
六品	-11.5155
獨以	-11.5157
十二時	-11.5157
久則	-11.5158
肌膚	-11.5158
日夕	-11.5161
帝崩	-11.5162
康公	-11.5162
真君	-11.5162
達於	-11.5162
詣闕	-11.5163
貴於	-11.5164
皇城	-11.5166
愕然	-11.5167
次曰	-11.5167
有詩	-11.5168
五丈	-11.517
為治	-11.517
嘗云	-11.517
惡人	-11.5171
古文尚書	-11.5171
後果	-11.5172
呉人	-11.5172
必自	-11.5172
江中	-11.5173
存其	-11.5173
境内	-11.5173
嗜酒	-11.5173
無忌	-11.5174
不可食	-11.5177
闕一	-11.5178
朱雀	-11.5179
有頃	-11.5179
不可行	-11.5182
所重	-11.5186
也雖然	-11.5187
先輩	-11.5189
廟中	-11.5189
結子	-11.519
樂記	-11.5191
二十九日	-11.5192
樹木	-11.5192
林鍾	-11.5193
動靜	-11.5193
不才	-11.5194
父母之	-11.5194
事必	-11.5195
隨筆	-11.5196
無乃	-11.5196
龍泉	-11.5196
梁州	-11.5197
青色	-11.5199
公與	-11.5202
私第	-11.5204
滔	-11.5205
元吉	-11.5206
于今	-11.5208
矣余	-11.5209
大興	-11.5212
洞中	-11.5214
六軍	-11.5214
上怒	-11.5215
古本	-11.5219
菁	-11.522
積石	-11.5221
曽孫	-11.5221
頡	-11.5222
累日	-11.5223
諡文	-11.5223
三百里	-11.5224
矦	-11.5224
髀	-11.5225
且夫	-11.5225
搭	-11.5225
鉅鹿	-11.5225
詛	-11.5226
㤀	-11.5226
李徳裕	-11.5227
敇	-11.5227
之訓	-11.5228
春水	-11.5228
覊	-11.5229
趙簡子	-11.523
喇	-11.523
須㬰	-11.523
玉山	-11.5231
身之	-11.5231
余以	-11.5232
墩	-11.5232
阮籍	-11.5232
艘	-11.5233
卬	-11.5233
俄頃	-11.5234
廷珪	-11.5237
定國	-11.5237
林中	-11.5238
先見	-11.524
魏文侯	-11.524
一女	-11.524
葛洪	-11.5242
白虎通	-11.5245
伶人	-11.5246
所惡	-11.5246
雨雪	-11.5246
與汝	-11.5249
引兵	-11.5249
太常卿	-11.525
忠宣	-11.5251
不設	-11.5251
飲水	-11.5254
辛苦	-11.5255
白雪	-11.5257
一隻	-11.5258
伯父	-11.5259
舍利	-11.5259
古今注	-11.5259
豫州	-11.5259
不具	-11.526
而稱	-11.5261
日光	-11.5266
懈	-11.5267
竹木	-11.5267
貴者	-11.5267
毛公	-11.5269
而況	-11.5269
十六日	-11.527
一路	-11.5271
出則	-11.5272
多士	-11.5273
者不得	-11.5273
於家	-11.5281
明公	-11.5282
三更	-11.5282
洙	-11.5282
海水	-11.5283
以降	-11.5283
下無	-11.5284
倣此	-11.5284
楊梅	-11.5285
河源	-11.5285
通行	-11.5286
詵	-11.5286
者往往	-11.5287
端明	-11.5288
濟水	-11.5289
繆公	-11.5289
愕	-11.529
不順	-11.529
淄	-11.5297
在唐	-11.5297
遂不復	-11.5297
敢言	-11.5298
忌諱	-11.5298
貯之	-11.5299
百篇	-11.5299
文華殿	-11.5304
大吕	-11.5305
寥	-11.5305
所遺	-11.5306
人不能	-11.5306
阿堵	-11.5306
方用	-11.5306
蘇東坡	-11.5306
得所	-11.5307
㑹昌	-11.5307
滂	-11.5308
糝	-11.5308
麩	-11.5308
省試	-11.5309
洞天	-11.531
偪	-11.531
无咎	-11.5311
葢用	-11.5311
灸	-11.5312
溼	-11.5312
夀皇	-11.5313
唯有	-11.5314
辛酉	-11.5314
中書侍郎	-11.5314
夥	-11.5315
命婦	-11.5316
儒家	-11.5317
浙西	-11.5318
自足	-11.5318
勸之	-11.5319
廷臣	-11.5321
天地之間	-11.5323
朝鮮	-11.5324
今天下	-11.5324
元美	-11.5328
封疆	-11.533
桂陽	-11.5333
安置	-11.5333
周世宗	-11.5334
秦穆公	-11.5336
覽之	-11.5336
中州	-11.5337
中立	-11.5337
十四日	-11.5338
題其	-11.5338
為宗	-11.534
神武	-11.534
乃取	-11.5342
又令	-11.5345
事親	-11.5345
所説	-11.5346
孰與	-11.5346
道君	-11.5348
司冦	-11.5349
乎若	-11.535
考證	-11.535
雄黄	-11.5352
校書	-11.5353
閭里	-11.5353
竹葉	-11.5355
北朝	-11.5357
夜深	-11.5357
一毫	-11.5357
其業	-11.5358
萬户	-11.5359
魏氏	-11.536
執之	-11.5361
食者	-11.5363
數千人	-11.5365
周孔	-11.5365
以全	-11.5366
向來	-11.5366
飾之	-11.5369
將何	-11.5372
甚至	-11.5372
四萬	-11.5373
自見	-11.5376
此山	-11.5376
君臣之	-11.5377
戰於	-11.5377
而笑	-11.5377
之域	-11.5377
漁人	-11.5377
騎馬	-11.5378
蝎	-11.5381
北向	-11.5383
霹靂	-11.5383
音韻	-11.5384
韓非子	-11.5384
瑀	-11.5386
波斯	-11.5387
佞人	-11.5388
四千	-11.5388
不直	-11.5389
𢾗	-11.539
慣	-11.5391
釋迦	-11.5391
窒	-11.5391
不負	-11.5392
碧雲	-11.5392
為細末	-11.5393
儆	-11.5393
玳瑁	-11.5394
不舉	-11.5394
不時	-11.5395
諸篇	-11.5398
雜劇	-11.5398
鬆	-11.54
富者	-11.54
篩	-11.54
於事	-11.54
帝命	-11.5401
器物	-11.5401
水面	-11.5402
之勞	-11.5402
朱子曰	-11.5402
以制	-11.5403
舉世	-11.5405
深矣	-11.5406
肩輿	-11.5407
舟車	-11.5407
安道	-11.5408
甘心	-11.5409
賢也	-11.5409
上御	-11.541
一統志	-11.5411
盛德	-11.5414
止用	-11.5415
鴻臚	-11.5415
安得有	-11.5417
㕘政	-11.5417
格物	-11.5417
道周	-11.5418
天啟	-11.5419
兄子	-11.5419
治世	-11.5419
户部尚書	-11.5421
姦邪	-11.5421
相率	-11.5424
萬三千	-11.5424
南吕	-11.5424
同歸	-11.5426
許慎	-11.5428
經學	-11.5429
之别名	-11.5429
百物	-11.543
曰天下	-11.543
亳州	-11.5431
示人	-11.5431
地勢	-11.5432
無慮	-11.5432
明初	-11.5432
七品	-11.5432
將欲	-11.5433
不犯	-11.5436
天禄	-11.5439
内殿	-11.5439
石灰	-11.544
有物	-11.544
榖梁	-11.5441
論語曰	-11.5442
果得	-11.5442
淮西	-11.5443
國家之	-11.5444
不遺	-11.5444
象山	-11.5445
而失	-11.5445
淮陽	-11.5446
不能行	-11.5446
天涯	-11.5448
也爾雅	-11.5448
物故	-11.5449
本文	-11.5449
元嘉	-11.5449
悵	-11.5449
得無	-11.545
以觀其	-11.5451
不恤	-11.5451
九尺	-11.5451
作詩云	-11.5452
所賜	-11.5454
亦止	-11.5457
其姓名	-11.5458
七國	-11.5459
内人	-11.546
市中	-11.5461
太平之	-11.5463
禹之	-11.5465
票	-11.5465
不實	-11.5465
因謂	-11.5467
䏻	-11.5467
而輕	-11.5468
僕觀	-11.5468
湖上	-11.5468
不足為	-11.547
炫	-11.5471
蜈蚣	-11.5471
騁	-11.5472
瞰	-11.5472
庶吉士	-11.5472
袤	-11.5472
張湯	-11.5472
珥	-11.5474
叡	-11.5475
劉原父	-11.5475
王敦	-11.5475
身後	-11.5475
桷	-11.5476
眸	-11.5477
不勞	-11.5477
腋	-11.5477
䛕	-11.5477
罅	-11.5477
剉	-11.5478
而化	-11.5478
猛獸	-11.5479
顔氏家訓	-11.5479
王公大人	-11.548
傘	-11.5483
黄公	-11.5483
二員	-11.5484
辟雍	-11.5484
夏后氏	-11.5484
宰我	-11.5486
不久	-11.5487
酷吏	-11.5487
不知有	-11.5489
裕陵	-11.5491
天水	-11.5493
沈香	-11.5494
柰何	-11.5495
曰先生	-11.5496
制科	-11.5496
殷勤	-11.5497
荷葉	-11.5497
錦衣	-11.5498
涼州	-11.5499
而論	-11.5499
之口	-11.5502
紫宸	-11.5503
穆宗	-11.5504
傳者	-11.5506
者然	-11.5507
顔氏	-11.5508
上下相	-11.5508
以下皆	-11.5509
相同	-11.5511
雒陽	-11.5511
有十	-11.5514
唱和	-11.5514
冠冕	-11.5515
欲與	-11.5518
未可知	-11.5519
云某	-11.5522
持之	-11.5523
新史	-11.5523
金花	-11.5523
裴度	-11.5525
餓死	-11.5525
集注曰	-11.5525
有志	-11.5527
朝野	-11.553
所屬	-11.5532
聖徳	-11.5533
之轉	-11.5535
卷一	-11.5536
向上	-11.5537
三才	-11.5542
寰	-11.5542
何至	-11.5546
印章	-11.5548
文采	-11.5549
盛夏	-11.5549
不可以不	-11.5549
塾	-11.555
於周	-11.555
古意	-11.5552
無義	-11.5553
宗社	-11.5553
以證	-11.5554
騾	-11.5555
莭	-11.5556
㕘知政事	-11.5556
泳	-11.5556
飛動	-11.5556
凸	-11.5556
夏禹	-11.5559
臉	-11.5559
永州	-11.5559
時政	-11.5559
注疏	-11.556
稼穡	-11.5561
搔	-11.5561
毁之	-11.5561
至徳	-11.5561
孩兒	-11.5561
晳	-11.5562
冬日	-11.5563
豈敢	-11.5563
美之	-11.5564
富鄭公	-11.5564
漚	-11.5564
燒香	-11.5564
異物	-11.5565
七十餘	-11.5565
僚屬	-11.5568
復入	-11.5569
松栢	-11.557
中通曰	-11.557
右僕射	-11.5571
大成	-11.5572
使天下	-11.5573
湯餅	-11.5575
生生	-11.5576
偽作	-11.5576
猶能	-11.5579
考古	-11.5579
案上	-11.558
無何	-11.5583
軍國	-11.5584
意林	-11.5584
抑揚	-11.5584
此名	-11.5585
之靈	-11.5585
不可言	-11.5586
一絶云	-11.5587
於物	-11.5587
以孝	-11.5587
為學	-11.5588
祿山	-11.5588
有限	-11.5589
與前	-11.559
怒而	-11.5591
助之	-11.5593
三十日	-11.5594
其父母	-11.5594
卓然	-11.5596
喪服	-11.5596
具載	-11.5598
以竹	-11.5601
建昌	-11.5601
良乆	-11.5602
君謨	-11.5604
一律	-11.5607
直至	-11.5607
服䖍	-11.5607
乳母	-11.5608
如此者	-11.5608
金紫	-11.5611
不貴	-11.5614
蔡州	-11.5616
曾祖	-11.5616
守道	-11.5616
所共	-11.5616
其官	-11.5616
言無	-11.5618
急於	-11.5619
也若夫	-11.5619
六典	-11.562
千四百	-11.562
一聨	-11.562
錢糧	-11.562
證之	-11.5621
壁上	-11.5622
子昻	-11.5622
臺閣	-11.5623
仁也	-11.5626
臨終	-11.5627
致逺	-11.5627
瓷	-11.5629
不輟	-11.5629
日與	-11.5629
閏月	-11.5629
摴蒱	-11.563
謝表	-11.5631
妄也	-11.5632
嘴	-11.5634
譏其	-11.5634
而心	-11.5634
孩	-11.5635
駐蹕	-11.5636
楊公	-11.5636
螫	-11.5636
七分	-11.5638
僥倖	-11.5638
嚢	-11.5639
蝸	-11.5639
竟無	-11.564
篾	-11.564
颺	-11.564
太平廣記	-11.5641
癭	-11.5641
意氣	-11.5641
按唐	-11.5643
不亡	-11.5643
鏃	-11.5643
勾踐	-11.5643
蘸	-11.5644
橄欖	-11.5647
也案	-11.5647
不得為	-11.5652
擺	-11.5652
昔之	-11.5653
文莊	-11.5654
則死	-11.5654
滁州	-11.5655
爵禄	-11.5655
于朝	-11.5656
安敢	-11.5656
之功也	-11.5657
登髙	-11.5658
蓋亦	-11.5659
三千里	-11.566
姑洗	-11.5662
西園	-11.5663
初年	-11.5663
大軍	-11.5664
是之謂	-11.5667
如水	-11.5667
有之矣	-11.5668
名世	-11.5671
差遣	-11.5672
一隅	-11.5675
卿士	-11.5675
王季	-11.5676
諸路	-11.5676
四子	-11.5677
七十五	-11.5677
如雲	-11.568
國無	-11.5681
惟一	-11.5682
六千	-11.5683
茂陵	-11.5685
勿以	-11.5686
賜以	-11.5687
其為人	-11.5687
與張	-11.5691
書史	-11.5691
事故	-11.5691
當死	-11.5692
所建	-11.5692
宫闕	-11.5695
文言	-11.5695
也所謂	-11.5697
九章	-11.5697
宣武	-11.5697
昭帝	-11.5698
親親	-11.57
嗜欲	-11.5701
絶倒	-11.5702
取天下	-11.5704
凡言	-11.5705
講讀	-11.5706
焉則	-11.5706
刑政	-11.5708
𤣥武	-11.5708
國忠	-11.5709
夜光	-11.571
二十五日	-11.571
棣	-11.5711
天下之事	-11.5711
闕下	-11.5712
漢祖	-11.5712
傅㑹	-11.5712
巴陵	-11.5713
豈容	-11.5716
真偽	-11.5717
之策	-11.5718
爍	-11.572
墀	-11.572
蟾蜍	-11.5721
制禮	-11.5721
丰	-11.5722
願陛下	-11.5722
巔	-11.5723
烽	-11.5723
二十六日	-11.5723
於河	-11.5724
榼	-11.5724
殛	-11.5724
恍惚	-11.5725
朝請	-11.5726
壠	-11.5726
綦	-11.5727
躭	-11.5728
輓	-11.5728
耄	-11.5729
酺	-11.573
勦	-11.573
不惑	-11.5733
終于	-11.5734
跋云	-11.5735
束帛	-11.5737
九天	-11.5738
章惇	-11.5739
為亂	-11.5739
永興	-11.5739
虞世南	-11.5741
等事	-11.5741
温潤	-11.5743
俗名	-11.5746
以至於	-11.575
史臣	-11.5751
元寳	-11.5752
九族	-11.5752
防風	-11.5752
劉裕	-11.5756
漢晉	-11.5756
三事	-11.5757
持節	-11.5759
為郎	-11.5762
者佳	-11.5762
如淳曰	-11.5763
曰予	-11.5765
穀梁	-11.5768
始用	-11.577
石硯	-11.577
荷花	-11.577
者可以	-11.5772
國亡	-11.5773
天意	-11.5776
瑟瑟	-11.5776
王粲	-11.5778
至日	-11.578
邪正	-11.5781
相沿	-11.5783
多故	-11.5784
東行	-11.5786
嘉之	-11.5787
倐	-11.5789
吉祥	-11.579
多作	-11.5792
之墓	-11.5794
應制	-11.5794
縣東北	-11.5795
如此而	-11.5795
西曰	-11.5796
曰願	-11.5798
窖	-11.5798
扃	-11.5799
亶	-11.5801
之文也	-11.5801
豨	-11.5803
巒	-11.5804
都統	-11.5804
自東	-11.5805
及見	-11.5806
黿	-11.5807
澧	-11.5807
四足	-11.581
奢侈	-11.581
元始	-11.5811
翎	-11.5813
武林	-11.5814
子游	-11.5815
登舟	-11.5815
光庭	-11.5815
亭亭	-11.5816
曹子建	-11.5816
字如	-11.5817
豉	-11.5818
値	-11.5819
者必有	-11.582
東井	-11.5821
鑊	-11.5823
同行	-11.5823
惑於	-11.5823
張籍	-11.5824
紹興中	-11.5824
執中	-11.5826
得仙	-11.5826
武官	-11.5827
軍民	-11.5828
年九十	-11.5828
二語	-11.5828
為右	-11.5829
不語	-11.583
伯玉	-11.5832
孔融	-11.5833
衛士	-11.5834
臨事	-11.5835
石勒	-11.5836
糕	-11.5836
太牢	-11.5837
五篇	-11.5839
江淹	-11.5839
卷中	-11.5839
纈	-11.584
元白	-11.5842
叱之	-11.5844
者此也	-11.5845
妃子	-11.5845
將兵	-11.5845
苑中	-11.5847
王文正公	-11.5848
數行	-11.5849
望其	-11.5849
者輒	-11.585
王家	-11.585
為丸	-11.585
黑色	-11.5851
也况	-11.5852
曽見	-11.5853
大全	-11.5854
者莫不	-11.5855
大宗	-11.5857
貴也	-11.5858
六句	-11.5858
舜之	-11.5858
于時	-11.5859
石橋	-11.5859
帥師	-11.586
范氏	-11.5862
雨水	-11.5864
朝㑹	-11.5864
殊無	-11.5865
下流	-11.5866
蒼頭	-11.5869
論議	-11.5869
亦見	-11.587
耳此	-11.5873
七字	-11.5874
所忌	-11.5875
自生	-11.5877
立秋	-11.5878
東軒	-11.5879
其㫖	-11.5881
時嘗	-11.5882
旭	-11.5884
亦載	-11.5884
編年	-11.5885
語人曰	-11.5886
燬	-11.589
異名	-11.589
蜡	-11.5891
諍	-11.5891
穴中	-11.5891
鍳	-11.5892
菰	-11.5892
知己	-11.5894
又能	-11.5895
彎	-11.5895
鎧	-11.5895
鈕	-11.5895
凹	-11.5896
率皆	-11.5896
百數	-11.5897
子女	-11.5897
貴之	-11.5897
元史類編	-11.5897
緻	-11.5898
巡狩	-11.5898
為長	-11.5898
異聞	-11.5899
睫	-11.5899
慟哭	-11.5899
昭昭	-11.5899
倨	-11.5899
橐	-11.5899
筝	-11.59
絫	-11.59
年二十	-11.59
詩意	-11.5901
戰國策	-11.5901
閃	-11.5902
孫叔敖	-11.5905
封禪書	-11.5905
大行	-11.5905
姐	-11.5905
不怨	-11.5906
又改	-11.5907
兵起	-11.5908
餘杭	-11.5908
二斗	-11.5909
鄧州	-11.5909
不省	-11.5911
盖以	-11.5912
李伯時	-11.5912
註曰	-11.5913
優游	-11.5914
若能	-11.5914
故無	-11.5915
不習	-11.5915
其皮	-11.5918
皇朝	-11.5922
往見	-11.5922
物皆	-11.5923
固辭	-11.5926
東壁	-11.5926
大用	-11.5927
自昔	-11.5927
九五	-11.5927
可比	-11.5929
召還	-11.593
民家	-11.5932
如生	-11.5936
也左傳	-11.5937
謝之	-11.5937
議郎	-11.5937
如山	-11.5937
觀書	-11.594
生長	-11.594
未之見	-11.5942
西向	-11.5943
獨坐	-11.5944
天心	-11.5945
不能及	-11.5945
一代之	-11.5947
只在	-11.595
正人	-11.595
末句	-11.5953
百工	-11.5953
為真	-11.5955
未明	-11.5957
心術	-11.5957
棧	-11.5958
客曰	-11.5958
祖述	-11.596
聲聞	-11.5963
猶以	-11.5964
明州	-11.5964
西門	-11.5966
大駕	-11.5967
之所為	-11.5971
以是知	-11.5973
極多	-11.5974
三丈	-11.5976
奏之	-11.5977
絢	-11.5978
水心	-11.5978
􁀙(	-11.5978
腊	-11.5979
云何	-11.5979
阨	-11.598
秪	-11.5981
耳故	-11.5981
學於	-11.5982
潘岳	-11.5983
憩	-11.5983
不憂	-11.5984
虺	-11.5984
箜篌	-11.5984
滲	-11.5984
扆	-11.5984
九千	-11.5985
始出	-11.5985
項王	-11.5985
也其後	-11.5986
吉日	-11.5987
籟	-11.5987
娯	-11.5987
不置	-11.5987
淇	-11.5988
嘘	-11.5988
九齡	-11.5989
司馬氏	-11.599
行路	-11.5991
無二	-11.5991
法則	-11.5993
如漆	-11.5993
窈窕	-11.5993
有時而	-11.5994
石頭	-11.5996
始作	-11.5997
黄初	-11.5998
其禮	-11.5998
大海	-11.6002
布政使	-11.6003
以和	-11.6003
徽之	-11.6003
哉此	-11.6003
髙明	-11.6004
鐘鼎	-11.6005
南昌	-11.6006
聖朝	-11.6007
放之	-11.6007
是皆	-11.6008
貢父	-11.6008
迎之	-11.6008
布帛	-11.601
常朝	-11.601
伐齊	-11.6013
去國	-11.6014
曹植	-11.6015
也一曰	-11.6017
相逺	-11.6019
此處	-11.602
足為	-11.6022
居此	-11.6023
刻本	-11.6025
而廢	-11.6028
旦夕	-11.6028
盈尺	-11.6029
乃使	-11.6029
公自	-11.6032
至京	-11.6035
惲	-11.6036
皆與	-11.6037
南征	-11.604
祕書	-11.6041
荘子	-11.6041
俗書	-11.6042
不誣	-11.6042
廢矣	-11.6042
稱王	-11.6043
後世之	-11.6043
所述	-11.6044
彝	-11.6045
瀕	-11.6045
大徳	-11.6046
五十四	-11.6046
也孟子	-11.6049
己者	-11.6052
其墓	-11.6054
廣南	-11.6056
宫禁	-11.6056
也古者	-11.6056
聖祖	-11.606
劉表	-11.606
鴟夷	-11.6062
汭	-11.6063
摻	-11.6064
髙陽	-11.6065
雲間	-11.6065
菘	-11.6066
懐王	-11.6067
山藥	-11.6068
扄	-11.6069
一葉	-11.6069
物色	-11.6069
羃	-11.6071
嵗久	-11.6071
穩	-11.6072
而不用	-11.6072
無言	-11.6073
壟	-11.6073
咫尺	-11.6073
奉行	-11.6074
挼	-11.6075
彧	-11.6075
燼	-11.6075
塗之	-11.6075
丁卯	-11.6076
春秋傳	-11.6076
南齊	-11.6078
此例	-11.6079
近見	-11.6081
白者	-11.6081
心者	-11.6081
溶	-11.6081
新聲	-11.6082
侍女	-11.6082
虎狼	-11.6083
光照	-11.6084
一欽定四庫全書	-11.6086
彭澤	-11.6086
萬乘	-11.6086
止也	-11.6086
昭宗	-11.6087
難矣	-11.6088
隋文帝	-11.6088
全書	-11.6088
終南	-11.6093
遣之	-11.6093
誰家	-11.6096
筆録	-11.61
黄庭經	-11.61
小小	-11.61
諸史	-11.6101
已亡	-11.6103
語之曰	-11.6104
六字	-11.6104
天雨	-11.6105
黃門	-11.6106
淮隂	-11.6107
邵子	-11.6109
今朝	-11.6112
即古	-11.6112
陽明	-11.6115
書記	-11.6115
鴻漸	-11.6117
生時	-11.6117
之敗	-11.6118
今人以	-11.6119
指南	-11.612
墓在	-11.612
天津	-11.612
食邑	-11.6122
五伯	-11.6122
貧民	-11.6124
起而	-11.6124
陵縣	-11.6127
沱	-11.6127
元暉	-11.6131
以廣	-11.6132
必於	-11.6133
云昔	-11.6135
者吾	-11.6136
成康	-11.6136
一雙	-11.6137
討之	-11.6137
上文	-11.6138
錄云	-11.6139
連山	-11.614
春正月	-11.6142
而動	-11.6144
雨中	-11.6146
所爲	-11.6147
忠定	-11.6147
齊名	-11.6147
退朝	-11.6149
之藥	-11.6151
譛	-11.6153
北至	-11.6153
雇	-11.6154
精於	-11.6155
制之	-11.6156
錮	-11.6156
簧	-11.6157
嗜慾	-11.6157
進取	-11.6157
鄭司農	-11.6158
義門讀書記卷	-11.6159
曼卿	-11.616
吼	-11.616
范曄	-11.6161
大赦	-11.6163
廣平	-11.6163
攅	-11.6164
楊用修	-11.6164
吹笛	-11.6164
歐陽詢	-11.6166
䄂	-11.6166
雖在	-11.6167
之典	-11.6168
不可考	-11.617
不散	-11.617
如舊	-11.6171
為神	-11.6171
淳祐	-11.6172
無所用	-11.6172
之表	-11.6172
季札	-11.6173
凡此皆	-11.6174
宣州	-11.6177
也後世	-11.6178
分為二	-11.618
伯仲	-11.618
之夕	-11.618
於廟	-11.6181
和帝	-11.6181
不第	-11.6182
竹枝	-11.6184
雜錄	-11.6185
今考	-11.6186
遺書	-11.6186
物無	-11.6187
附之	-11.6187
生意	-11.6188
地獄	-11.6189
世說	-11.6191
華州	-11.6192
令㫖答	-11.6192
闕文	-11.6192
無據	-11.6193
儒林傳	-11.6195
守節	-11.6195
應聲	-11.6197
歌聲	-11.6197
為賢	-11.6197
榴	-11.6197
以錢	-11.6198
何爲	-11.6199
此章	-11.6199
後改	-11.62
除去	-11.6201
一紙	-11.6202
顧謂	-11.6202
竹林	-11.6204
南城	-11.6204
取此	-11.6204
中牟	-11.6204
道學	-11.6205
南至	-11.6206
其居	-11.6206
不施	-11.6206
動静	-11.6208
於官	-11.6208
中國之	-11.621
史載	-11.6211
城在	-11.6211
字本	-11.6211
洗馬	-11.6212
宫商	-11.6212
漢有	-11.6213
竒之	-11.6215
諫曰	-11.6215
為九	-11.6216
必為	-11.6216
十嵗	-11.6218
庭下	-11.6218
命曰	-11.6218
亦佳	-11.6218
其族	-11.6221
皆具	-11.6221
之助	-11.6221
乎今	-11.6226
亦言	-11.6227
入官	-11.6227
於他	-11.6227
出塞	-11.6229
李元	-11.6229
科斗	-11.623
往還	-11.6233
起復	-11.6234
召至	-11.6237
來歸	-11.6238
上品	-11.624
尚能	-11.624
迸	-11.6242
未央	-11.6244
儘	-11.6246
伋	-11.6247
衆多	-11.6247
欲見	-11.6247
尚多	-11.6248
甬	-11.6248
養性	-11.6249
筆意	-11.625
女媧	-11.625
掬	-11.625
姦臣	-11.625
虞卿	-11.6251
璵	-11.6254
嘶	-11.6254
安用	-11.6255
毫釐	-11.6255
宿衛	-11.6256
稱善	-11.6256
礦	-11.6257
朂	-11.6257
建寅	-11.6257
安民	-11.6258
蒼蒼	-11.6259
戎狄	-11.6259
豈足	-11.6259
三十萬	-11.6262
里有	-11.6265
從軍	-11.6265
也彼	-11.6266
教以	-11.6267
創業	-11.6268
各以其	-11.6272
鐘鼓	-11.6273
叔謀	-11.6274
香氣	-11.6275
欲殺	-11.6276
如是則	-11.6276
妙處	-11.6278
龍鍾	-11.6279
之禁	-11.628
字與	-11.628
遺文	-11.6281
所奏	-11.6281
金星	-11.6282
曰古者	-11.6284
尤妙	-11.6285
先賢	-11.6286
閣老	-11.6287
僕曰	-11.6288
鼓琴	-11.6288
三昧	-11.6288
中朝	-11.6289
無咎	-11.6289
巴蜀	-11.6291
止是	-11.6292
以重	-11.6295
其面	-11.6298
四部	-11.6298
各二	-11.6299
女為	-11.63
爲政	-11.6301
殆非	-11.6301
亡而	-11.6302
求諸	-11.6302
大厯	-11.6303
雲霧	-11.6304
花葉	-11.6306
所歸	-11.6308
城内	-11.6308
楊妃	-11.631
無端	-11.6311
非吾	-11.6312
其花	-11.6317
鬼神之	-11.6317
矣然則	-11.6318
導引	-11.6319
翺	-11.6319
世世	-11.6319
詩集	-11.632
范文正	-11.632
洪武中	-11.632
近嵗	-11.6321
嶺表	-11.6321
事已	-11.6322
流沙	-11.6323
金釵	-11.6324
稱臣	-11.6325
勝於	-11.6326
堂前	-11.6327
其要	-11.6327
輔之	-11.6329
靡不	-11.6329
復命	-11.6329
其任	-11.633
颯	-11.633
萬歲	-11.6331
上人	-11.6331
此固	-11.6332
其過	-11.6333
搥	-11.6333
澡	-11.6333
其女	-11.6334
而不為	-11.6335
睨	-11.6336
雖曰	-11.6336
五祀	-11.6339
入相	-11.6339
醯	-11.634
纊	-11.6341
燮	-11.6341
豈徒	-11.6341
鬂	-11.6342
褁	-11.6342
收藏	-11.6342
滷	-11.6342
薇	-11.6343
我心	-11.6343
五采	-11.6343
請於	-11.6343
講論	-11.6343
熨	-11.6344
誠有	-11.6346
略云	-11.6346
尺牘	-11.6348
硃砂	-11.6348
則否	-11.6348
長興	-11.6349
而殺之	-11.635
文體	-11.6351
居人	-11.6351
正朔	-11.6353
不落	-11.6354
為鬼	-11.6356
不同而	-11.6356
善歌	-11.6358
管絃	-11.6359
終以	-11.6359
年五十	-11.6359
金山	-11.636
鋼	-11.6361
公嘗	-11.6363
復還	-11.6363
門之外	-11.6364
間以	-11.6367
工巧	-11.6367
而歌	-11.6368
秋月	-11.6369
魯君	-11.6369
門戸	-11.6369
縣東南	-11.6369
精舍	-11.637
賢臣	-11.6373
千乗	-11.6374
其口	-11.6374
勤勞	-11.6375
于世	-11.6375
光彩	-11.6377
風至	-11.638
論文	-11.638
賢主	-11.6382
字文	-11.6382
倍之	-11.6383
斷之	-11.6383
政令	-11.6384
未識	-11.6385
弱冠	-11.6385
短長	-11.6387
乃在	-11.6387
當得	-11.6391
三門	-11.6392
伯禽	-11.6394
六科	-11.6394
魏徴	-11.6395
為法	-11.6396
可據	-11.6396
青緑	-11.6397
賦也	-11.6398
成名	-11.6398
俟其	-11.6398
么	-11.6398
收其	-11.6398
景德	-11.6398
畫一	-11.64
樞密使	-11.6402
左思	-11.6405
千乘	-11.6406
别作	-11.6409
有情	-11.6409
手持	-11.6409
又復	-11.6409
婺州	-11.6409
所畫	-11.6411
因作	-11.6411
:「	-11.6412
以罪	-11.6412
明於	-11.6412
地利	-11.6414
宣政	-11.6415
去後	-11.6415
宋儒	-11.6417
無敵	-11.6418
吾聞	-11.6419
百病	-11.6419
詞臣	-11.642
葷	-11.642
我也	-11.6421
萬萬	-11.6423
四十餘	-11.6423
篙	-11.6424
縉紳	-11.6424
左氏傳曰	-11.6426
公曰吾	-11.6427
鶩	-11.6427
罽	-11.6427
瑄	-11.6427
茴香	-11.6428
墉	-11.6428
燿	-11.6428
舩	-11.6429
千餘人	-11.6429
讌	-11.6429
文定公	-11.643
琅	-11.6431
琯	-11.6431
鉦	-11.6431
正史	-11.6432
漯	-11.6432
跂	-11.6433
容齋隨筆	-11.6433
少隂	-11.6433
不然也	-11.6433
大戴禮	-11.6434
且如	-11.6434
定州	-11.6434
㩦	-11.6435
其日	-11.6435
無所見	-11.6436
東至	-11.6437
吟詩	-11.6439
𢎞農	-11.6439
左僕射	-11.6439
首陽	-11.644
任之	-11.6441
朝堂	-11.6441
煨	-11.6442
而就	-11.6443
不法	-11.6444
談苑	-11.6446
萬頃	-11.6447
記室	-11.6449
臧否	-11.6452
園中	-11.6453
安縣	-11.6453
而勿	-11.6455
王欽若	-11.6456
有詔	-11.6457
人之心	-11.6458
武丁	-11.6458
太元	-11.646
言之也	-11.646
雜說	-11.646
酌酒	-11.6462
正殿	-11.6463
鳳翔	-11.6464
宜乎	-11.6465
其友	-11.6465
便可	-11.6465
必當	-11.6466
也猶	-11.6467
蒼龍	-11.6468
等物	-11.647
當塗	-11.647
出奔	-11.6472
一粒	-11.6472
豈可以	-11.6473
群臣	-11.6473
祈雨	-11.6479
易為	-11.648
一軸	-11.6481
氣如	-11.6482
術數	-11.6482
知言	-11.6483
服也	-11.6485
既去	-11.6489
成祖	-11.6489
今上	-11.649
若何	-11.6493
昔年	-11.6495
富公	-11.6495
而得之	-11.6497
明府	-11.6498
顧命	-11.6499
方城	-11.65
有古	-11.6502
談笑	-11.6504
午時	-11.6505
文懿	-11.6505
患之	-11.6507
日在	-11.6507
不能言	-11.6507
進止	-11.6508
按史記	-11.6509
索隠	-11.651
甚竒	-11.6511
後見	-11.6513
留心	-11.6514
一女子	-11.6514
丹朱	-11.6514
曰此非	-11.6515
至德	-11.6516
為業	-11.6516
注採	-11.6516
雅樂	-11.6516
㯽榔	-11.6518
許昌	-11.6519
酉陽雜俎	-11.6519
磐	-11.6519
髭	-11.652
菓	-11.6521
野客叢書	-11.6521
咄	-11.6521
為翰林學士	-11.6523
杜少陵	-11.6524
紱	-11.6524
汩	-11.6525
魅	-11.6525
者尚	-11.6525
疽	-11.6525
皇甫謐	-11.6526
侑	-11.6526
日至	-11.6527
秦少游	-11.6527
謂此也	-11.6528
殳	-11.6528
瑰	-11.6528
阡陌	-11.6529
晁錯	-11.653
膜	-11.6531
實無	-11.6533
臨時	-11.6535
可笑也	-11.6535
甲科	-11.6536
知我	-11.6537
其大者	-11.6537
半夏	-11.6538
萬世之	-11.654
死于	-11.6545
上林賦	-11.6546
題目	-11.6547
此兩	-11.6547
嘉靖中	-11.655
以表	-11.655
之趣	-11.6552
昭然	-11.6552
春官	-11.6553
其腹	-11.6554
野録	-11.6554
由是觀之	-11.6554
又載	-11.6555
深於	-11.6557
擇日	-11.6557
聖㫖	-11.6559
淮水	-11.656
所進	-11.656
六部	-11.656
最難	-11.656
以理	-11.656
秉政	-11.656
監軍	-11.6562
害於	-11.6563
建州	-11.6565
觀此則	-11.6565
遇一	-11.6565
政治	-11.6566
為戲	-11.6566
忠肅	-11.6567
祀典	-11.6568
貞觀中	-11.6568
欽若	-11.6569
眉山	-11.6571
史漢	-11.6573
亡秦	-11.6575
乃始	-11.6575
告之曰	-11.6575
者五	-11.6576
昭文	-11.6576
或疑	-11.6577
相得	-11.6577
而往	-11.6578
始至	-11.6579
行香	-11.6579
文君	-11.658
樂章	-11.6582
獻帝	-11.6584
東郡	-11.6584
應之曰	-11.6589
十有三	-11.659
立于	-11.659
可及	-11.6591
經過	-11.6591
方有	-11.6592
入秦	-11.6593
亦有之	-11.6593
君實	-11.6593
不多	-11.6593
吳氏	-11.6595
於後世	-11.6598
何足以	-11.6601
丙丁	-11.6604
地震	-11.6606
瀑	-11.6606
藂	-11.6606
據此則	-11.6607
鼉	-11.6607
姤	-11.6608
喏	-11.661
之罪也	-11.661
精微	-11.6611
娑	-11.6612
咬	-11.6612
郭子儀	-11.6612
悴	-11.6613
痢	-11.6614
生動	-11.6614
讞	-11.6614
獠	-11.6614
開花	-11.6615
羶	-11.6615
砧	-11.6615
邏	-11.6616
辛卯	-11.6616
六畜	-11.6617
防禦	-11.6617
筩	-11.6618
榭	-11.6619
也又有	-11.6619
爪牙	-11.662
熈寜	-11.662
陸士衡	-11.662
惋	-11.662
數字	-11.6622
美女	-11.6626
織成	-11.6627
胭脂	-11.6628
天資	-11.6631
李翺	-11.6634
漢書作	-11.6635
北辰	-11.6635
何從	-11.6638
譬猶	-11.6638
常熟	-11.664
執筆	-11.664
出遊	-11.6641
仙去	-11.6642
致書	-11.6643
既出	-11.6644
金色	-11.6644
梁書	-11.6645
此最	-11.6647
長卿	-11.6647
而問之	-11.6648
赤道	-11.6648
秦時	-11.6648
德行	-11.6649
銅器	-11.6651
赤子	-11.6652
之半	-11.6652
而更	-11.6653
人少	-11.6654
故國	-11.6655
羽毛	-11.6655
陜州	-11.6656
動也	-11.6656
海運	-11.6658
郡太守	-11.6658
人形	-11.666
同官	-11.666
陽春	-11.6666
法制	-11.667
以佐	-11.667
不得見	-11.6671
稚子	-11.6673
在彼	-11.6674
之誤也	-11.6675
同居	-11.6677
太古	-11.6678
李泌	-11.6679
失也	-11.668
入覲	-11.668
詩所謂	-11.6681
戰于	-11.6683
吾輩	-11.6684
河上	-11.6684
直𨽻	-11.6687
皆出於	-11.6689
視聽	-11.6689
宗周	-11.6689
同州	-11.6689
交州	-11.669
祖考	-11.6691
不愧	-11.6691
而意	-11.6692
豈特	-11.6694
山頂	-11.6694
略無	-11.6695
而知其	-11.6695
本官	-11.6696
徐廣	-11.6697
冠帶	-11.6699
瀨	-11.67
大禹	-11.6701
讖	-11.6701
又次之	-11.6702
暎	-11.6702
山北	-11.6703
九河	-11.6703
疾也	-11.6703
侯景	-11.6704
貞元中	-11.6704
一說	-11.6704
謠	-11.6706
塤	-11.6706
磧	-11.6706
砥	-11.6706
工部侍郎	-11.6707
戕	-11.6707
渺	-11.6707
米芾	-11.6707
弇	-11.6707
命名	-11.6708
婚姻	-11.6708
麋鹿	-11.6709
東西南北	-11.6709
温庭筠	-11.671
蒨	-11.671
秫	-11.671
跛	-11.671
未嘗見	-11.671
之美者	-11.671
槿	-11.6711
輻	-11.6713
白芷	-11.6714
棨	-11.6714
術也	-11.6714
仍以	-11.6715
鄂州	-11.6715
太皇太后	-11.6715
音樂	-11.6716
所施	-11.6716
豈復	-11.6716
繫於	-11.6716
一出	-11.6717
麪	-11.6718
戊巳	-11.6718
胡廣	-11.6719
五十六	-11.6719
亦知	-11.672
等書	-11.6721
考官	-11.6721
不可使	-11.6723
既以	-11.6724
武德	-11.6724
未然	-11.6726
乘輿	-11.6726
仲夏	-11.6728
列聖	-11.6728
二百里	-11.6731
知貢舉	-11.6731
臨水	-11.6732
流行	-11.6732
正始	-11.6733
有知	-11.6735
鯉魚	-11.6735
趙岐	-11.6735
死無	-11.6736
儒臣	-11.6739
事畢	-11.674
别無	-11.6741
唐開元	-11.6742
尺五寸	-11.6742
以為名	-11.6746
内經	-11.6747
直道	-11.6748
耆老	-11.6749
故號	-11.6749
周勃	-11.675
書稱	-11.675
所以能	-11.6752
賜姓	-11.6752
舉之	-11.6754
下士	-11.6755
以為不可	-11.6757
冨貴	-11.6757
全無	-11.6759
魏武帝	-11.676
貴其	-11.6762
王君	-11.6762
同類	-11.6763
玉藻	-11.6764
矣哉	-11.6765
禮經	-11.6765
作平聲	-11.6765
哉今	-11.6767
其直	-11.6769
多者	-11.6769
未知其	-11.677
僧曰	-11.677
安仁	-11.6771
白沙	-11.6772
飛龍	-11.6772
守臣	-11.6772
之飾	-11.6773
而返	-11.6773
長年	-11.6773
有若	-11.6775
興元	-11.6775
貴州	-11.6775
新序	-11.6776
蓋自	-11.6777
與李	-11.6777
之私	-11.6777
田宅	-11.6777
韋氏	-11.6779
鳥名	-11.678
翻上	-11.678
之列	-11.6782
語錄	-11.6783
吳楚	-11.6783
頂上	-11.6783
愬	-11.6784
交易	-11.6786
之右	-11.6786
莊宗	-11.6788
繖	-11.679
人性	-11.679
泗水	-11.6791
本色	-11.6791
卒以	-11.6794
不寐	-11.6794
立祠	-11.6794
亦足	-11.6794
氂	-11.6795
趺	-11.6796
反以	-11.6796
亦足以	-11.6796
馳騁	-11.6797
伯時	-11.6797
隰	-11.6797
毎日	-11.6798
兾	-11.6798
㓗	-11.6798
王侯	-11.6798
芡	-11.68
番禺	-11.68
皴	-11.68
迤	-11.68
氛	-11.68
伹	-11.6801
逡巡	-11.6802
自隨	-11.6803
鷰	-11.6804
不記	-11.6805
炎帝	-11.6805
柳子厚	-11.6806
門下省	-11.6807
安州	-11.6807
衛青	-11.6808
凡七	-11.6808
八十里	-11.6808
不患	-11.6808
知天	-11.6808
弇州	-11.6809
麽	-11.6809
少昊	-11.6809
紫雲	-11.681
兢	-11.681
驄	-11.681
枷	-11.681
之原	-11.6811
褒貶	-11.6812
波濤	-11.6813
儕	-11.6814
史氏	-11.6814
相當	-11.6815
無傷	-11.6815
梔子	-11.6815
垂簾	-11.6816
吾心	-11.6817
尺二寸	-11.6818
棄其	-11.6818
仲父	-11.6818
明宗	-11.6822
朝政	-11.6823
雌黄	-11.6824
簿書	-11.6825
前漢書	-11.6826
周制	-11.6826
而長	-11.6827
前史	-11.683
偏旁	-11.6831
則亂	-11.6831
之所能	-11.6831
孤山	-11.6832
東野	-11.6833
稷契	-11.6834
先有	-11.6835
祥瑞	-11.6836
未出	-11.6836
斷其	-11.6836
一丸	-11.6838
悵然	-11.6838
色赤	-11.6838
父祖	-11.6839
觀國	-11.6842
二百年	-11.6842
懼其	-11.6843
不及也	-11.6845
科第	-11.6846
政府	-11.6847
靈芝	-11.6848
丹書	-11.685
安陸	-11.685
第二首	-11.6851
末世	-11.6854
寂然	-11.6854
九宫	-11.6854
文穆	-11.6854
皇祖	-11.6856
幾時	-11.6857
孔門	-11.6859
善政	-11.686
然後可以	-11.6863
不得入	-11.6864
論云	-11.6867
定天下	-11.6867
更衣	-11.6867
大政	-11.6868
海州	-11.6869
司天	-11.6869
器中	-11.687
此真	-11.687
藝文	-11.687
貴乎	-11.6871
有龍	-11.6871
書序	-11.6872
掃地	-11.6872
枯木	-11.6873
叩之	-11.6874
貢舉	-11.6874
復起	-11.6876
容易	-11.6876
蓋謂	-11.6876
内庫	-11.6876
而益	-11.688
措大	-11.688
馬氏	-11.688
晏子曰	-11.6883
四門	-11.6884
又將	-11.6884
百事	-11.6885
友善	-11.6885
白蓮	-11.6887
無怨	-11.6887
亭侯	-11.6888
地道	-11.6888
鎮江	-11.6889
積雪	-11.689
十步	-11.689
類書	-11.6891
惜之	-11.6891
失色	-11.6892
之為言	-11.6892
蔞	-11.6892
泝	-11.6892
自出	-11.6893
岐公	-11.6893
曰秦	-11.6893
讙	-11.6894
登樓	-11.6894
祖宗之	-11.6894
六十四卦	-11.6895
吉州	-11.6895
乎然	-11.6895
譁	-11.6896
宣徽	-11.6896
碓	-11.6896
苻	-11.6896
謐	-11.6897
廌	-11.6897
娠	-11.6897
暁	-11.6898
粱	-11.6898
嗅	-11.6899
蠢	-11.6899
企	-11.69
堡	-11.69
以清	-11.6901
綱紀	-11.6901
萬錢	-11.6902
師古注	-11.6902
楠	-11.6903
非此	-11.6903
坼	-11.6903
拽	-11.6903
武王伐紂	-11.6904
楊國忠	-11.6904
廵狩	-11.6905
其材	-11.6905
平居	-11.6906
揷	-11.6906
末節	-11.6907
四肢	-11.6908
博洽	-11.6909
未見其	-11.6909
硫黄	-11.691
黄老	-11.691
孝友	-11.6911
往往有	-11.6911
以紙	-11.6911
為郡	-11.6912
知禮	-11.6913
氣力	-11.6914
仁和	-11.6914
齊景公	-11.6915
名位	-11.6917
所服	-11.6917
之請	-11.6919
礶	-11.692
此輩	-11.6922
頗為	-11.6922
列女傳	-11.6923
治病	-11.6923
提刑	-11.6923
收拾	-11.6924
衛尉	-11.6924
姓者	-11.6925
郭璞曰	-11.6925
須用	-11.6925
日久	-11.6926
龜兹	-11.6926
同名	-11.6926
舊坑	-11.6933
美惡	-11.6933
隨意	-11.6934
不要	-11.6934
樓下	-11.6935
傳載	-11.6935
登州	-11.6936
蒼生	-11.6937
泉水	-11.6937
即時	-11.6938
尊之	-11.6938
茫然	-11.694
薄而	-11.694
故言	-11.694
多聞	-11.694
端坐	-11.6941
萬壽	-11.6943
無限	-11.6945
勝者	-11.6945
何休	-11.6946
華嚴	-11.6946
氏族	-11.6947
他事	-11.695
似是	-11.695
君家	-11.695
鄭州	-11.6951
竟日	-11.6951
蔡氏	-11.6951
惡而	-11.6955
尊賢	-11.6956
獄中	-11.6956
卷下	-11.6958
受禪	-11.6958
二州	-11.6959
若此者	-11.696
同在	-11.6963
主客	-11.6964
少監	-11.6965
王者之	-11.6967
隂徳	-11.6967
通考	-11.6967
露布	-11.6968
渭水	-11.6968
西臺	-11.6968
夜來	-11.6969
四者	-11.697
天下皆	-11.697
乾徳	-11.6971
寺觀	-11.6972
有德	-11.6972
室家	-11.6972
因是	-11.6974
厥後	-11.6978
自取	-11.6978
宋世	-11.6979
淳于	-11.6981
是一病	-11.6982
世以	-11.6982
卷上	-11.6983
竽	-11.6983
五方	-11.6983
仲宣	-11.6984
日有	-11.6984
特賜	-11.6984
大儒	-11.6985
唶	-11.6985
無厭	-11.6985
謎	-11.6986
揩	-11.6987
玉環	-11.6987
十六卷	-11.6988
聞道	-11.6989
宮中	-11.6991
錬	-11.6991
四方之	-11.6991
者獨	-11.6992
建業	-11.6992
曰聞	-11.6992
窶	-11.6992
且云	-11.6992
不對	-11.6993
壙	-11.6993
塞外	-11.6994
泳化編	-11.6994
鮫	-11.6995
糶	-11.6995
魂魄	-11.6996
羗	-11.6996
推其	-11.6996
五月五日	-11.6996
太平御覽	-11.6996
蕭望之	-11.6996
荆軻	-11.6996
相國寺	-11.6997
氓	-11.6997
蛻	-11.6997
一百四十	-11.6998
多病	-11.6998
擯	-11.6999
祕閣	-11.6999
裊	-11.7
耘	-11.7002
潯陽	-11.7003
先入	-11.7004
南宋	-11.7005
泣曰	-11.7006
累朝	-11.7006
扣之	-11.7008
名教	-11.7008
永徽	-11.7008
實以	-11.7008
章疏	-11.7008
掌故	-11.7009
始置	-11.7009
賞賜	-11.701
如飛	-11.701
宋初	-11.7011
積薪	-11.7011
所封	-11.7013
所受	-11.7013
全篇	-11.7013
北風	-11.7014
工拙	-11.7015
冬十月	-11.7015
召入	-11.7017
信而	-11.7017
承之	-11.7017
亦引	-11.7018
其價	-11.7019
縱之	-11.702
權勢	-11.7021
朱崖	-11.7022
則生	-11.7029
青青	-11.7029
正旦	-11.7029
犯法	-11.703
田常	-11.703
第二十	-11.703
帝舜	-11.7031
藏經	-11.7032
近古	-11.7034
常人	-11.7034
能得	-11.7034
不可不察	-11.7036
宋朝	-11.7038
皆非也	-11.7038
孰知	-11.704
長幼	-11.7042
圖之	-11.7043
並稱	-11.7043
黄衣	-11.7044
獅	-11.7045
疏請	-11.7046
字義	-11.7046
入藥	-11.7049
真誥	-11.7052
怪之	-11.7052
蘭陵	-11.7052
此四	-11.7053
自非	-11.7053
身體	-11.7054
半兩	-11.7054
每有	-11.7054
當先	-11.7058
似非	-11.7061
况於	-11.7063
四時之	-11.7065
鳯皇	-11.7066
燕山	-11.7068
並列	-11.7068
舉事	-11.7069
自任	-11.7069
故謂	-11.707
説也	-11.707
農桑	-11.7073
獸名	-11.7075
之盟	-11.7076
如神	-11.7076
窺之	-11.7078
左右皆	-11.7079
方鎮	-11.708
太宗時	-11.7083
所獻	-11.7083
所執	-11.7085
春時	-11.7086
視朝	-11.7087
尤精	-11.7088
湊	-11.7089
已盡	-11.7089
禋	-11.7089
侯王	-11.7089
白帝	-11.7089
誰為	-11.709
癘	-11.709
迓	-11.7091
西征	-11.7092
驃騎	-11.7092
無畏	-11.7093
澀	-11.7094
讃	-11.7095
甓	-11.7095
塼	-11.7096
楷書	-11.7097
誠齋	-11.7098
將死	-11.71
正名	-11.7101
其師	-11.7101
不除	-11.7101
所化	-11.7103
魚鼈	-11.7103
持正	-11.7105
止此	-11.7105
水泉	-11.7107
秘書監	-11.7108
路史	-11.7109
寄生	-11.7109
簡而	-11.7109
諸經	-11.7109
一般	-11.711
齊衰	-11.711
輿地	-11.7111
紂之	-11.7111
庶民	-11.7112
來謁	-11.7112
夜則	-11.7113
命之曰	-11.7114
為惡	-11.7114
其惡	-11.7115
所部	-11.7116
詁	-11.7116
而逝	-11.7117
以足	-11.7117
重耳	-11.7119
中孚	-11.7119
成式	-11.7119
紅色	-11.712
文吏	-11.7121
相間	-11.7121
不虞	-11.7122
仲秋	-11.7122
亭長	-11.7123
家家	-11.7123
鹽鐵	-11.7123
九華	-11.7123
天下之至	-11.7123
無患	-11.7126
千二百	-11.7126
矣凡	-11.7127
節制	-11.7128
之曲	-11.7128
入閤	-11.7128
性好	-11.7129
中語	-11.7132
故鄉	-11.7134
茍有	-11.7135
只用	-11.7136
其一曰	-11.7137
夏時	-11.7137
制置	-11.7138
春秋書	-11.7139
皆有之	-11.7139
小事	-11.7139
一氣	-11.7141
半日	-11.7143
答之	-11.7144
所學	-11.7144
所從來	-11.7144
五十餘	-11.7144
夏四月	-11.7148
族人	-11.715
門曰	-11.7152
大寒	-11.7152
兩儀	-11.7153
都邑	-11.7153
遂改	-11.7153
私意	-11.7153
於公	-11.7154
人之情	-11.7154
義山	-11.7157
為帝	-11.7157
曲水	-11.7159
留侯	-11.7159
文貞	-11.716
無比	-11.7161
隆興	-11.7162
明言	-11.7164
緬	-11.7164
茅山	-11.7167
獲罪	-11.717
矣予	-11.717
未可以	-11.717
風月	-11.7172
耶抑	-11.7173
為隂	-11.7173
硫	-11.7173
中郎將	-11.7176
燉煌	-11.7177
盼	-11.7178
洹	-11.7179
跖	-11.7179
敎之	-11.7179
汗出	-11.718
自信	-11.718
吾言	-11.718
乆而	-11.7181
埽	-11.7183
粲然	-11.7183
通謂之	-11.7184
鍜	-11.7184
碑文	-11.7187
髦	-11.7188
奉命	-11.7188
娣	-11.7189
侍讀學士	-11.7189
黒色	-11.7189
不留	-11.719
楊花	-11.7191
僦	-11.7192
愜	-11.7192
咳	-11.7193
厚而	-11.7193
笑語	-11.7193
侗	-11.7193
槀	-11.7195
必是	-11.7196
伉	-11.7196
翥	-11.7196
凭	-11.7197
𢷬	-11.7197
孝悌	-11.7197
壬寅	-11.7198
與周	-11.72
節義	-11.7202
侯伯	-11.7203
所紀	-11.7204
有如此者	-11.7205
十兩	-11.7206
四體	-11.7206
三禮	-11.7208
魏明帝	-11.721
京東	-11.721
呉中	-11.7211
豈必	-11.7211
化成	-11.7215
白樂天詩	-11.7215
居於	-11.7216
誰謂	-11.7219
之誅	-11.722
梁冀	-11.7221
得體	-11.7222
筆硯	-11.7223
百八十	-11.7223
事迹	-11.7225
平公	-11.7228
田獵	-11.7229
分司	-11.7229
非聖人	-11.723
不憚	-11.723
能治	-11.7231
池水	-11.7232
又無	-11.7232
瑞應	-11.7232
兵火	-11.7233
賢才	-11.7234
頌曰	-11.7234
祭文	-11.7235
光祿	-11.7236
而與之	-11.7238
晨起	-11.7239
如斯	-11.7239
有靈	-11.724
延壽	-11.724
元魏	-11.724
三十二年	-11.7241
第三節	-11.7243
昔在	-11.7243
七卷	-11.7243
宗即位	-11.7243
香草	-11.7244
賢相	-11.7244
字字	-11.7245
展轉	-11.7245
何須	-11.7246
銘云	-11.7246
陳蕃	-11.7247
臘月	-11.7248
年三十	-11.7252
度之	-11.7252
年十五	-11.7253
大駭	-11.7253
嘗得	-11.7254
燕談	-11.7254
暮年	-11.7254
水自	-11.7257
此碑	-11.7259
爲天下	-11.7262
珠翠	-11.7262
作詩曰	-11.7263
刑名	-11.7265
髙山	-11.7265
明旦	-11.7265
不足信	-11.7265
存而	-11.7266
其端	-11.7268
皆因	-11.7268
晏元獻	-11.727
多得	-11.727
八曰	-11.7273
李後主	-11.7274
夜雨	-11.7275
湘山	-11.7276
清江	-11.7276
縉	-11.7278
自矜	-11.7279
煬	-11.7279
二百餘	-11.7279
傳寫	-11.728
曲名	-11.728
縣界	-11.7281
京尹	-11.7281
闖	-11.7283
遂謂	-11.7283
發端	-11.7284
天聖中	-11.7286
括地志	-11.7287
狠	-11.7287
肋	-11.7287
蕭然	-11.7288
訓詁	-11.7288
銚	-11.7288
濺	-11.7289
混沌	-11.7289
散騎常侍	-11.7289
冺	-11.729
從子	-11.7291
此其所以	-11.7291
抱朴子	-11.7291
菉豆	-11.7291
以威	-11.7291
斾	-11.7292
史稱	-11.7292
錡	-11.7292
與余	-11.7294
慊	-11.7294
圜丘	-11.7294
豸	-11.7294
孜	-11.7295
然後能	-11.7295
澣	-11.7295
四科	-11.7296
蹻	-11.7297
紛紜	-11.7297
遣中使	-11.7298
當代	-11.7298
惡者	-11.7298
由來	-11.7301
熲	-11.7301
安禄山	-11.7302
行幸	-11.7303
為兩	-11.7304
金沙	-11.7304
常服	-11.7306
謀反	-11.7307
景物	-11.7307
生員	-11.7308
為金	-11.731
猛虎	-11.7311
為丞相	-11.7311
事理	-11.7313
相向	-11.7313
此段	-11.7317
天地間	-11.7318
風味	-11.7318
不雨	-11.7319
十二辰	-11.7319
紛然	-11.732
至死	-11.7323
水洗	-11.7324
埋之	-11.7324
文殊	-11.7324
也後漢	-11.7325
顔師古曰	-11.7329
而趨	-11.7329
歌者	-11.7331
元后	-11.7331
三種	-11.7331
事情	-11.7333
人死	-11.7335
百四十	-11.7338
之運	-11.7338
既死	-11.734
學究	-11.734
明文	-11.7341
是一藥	-11.7341
相視	-11.7342
容色	-11.7343
正則	-11.7345
晩年	-11.7346
具在	-11.7351
多至	-11.7352
之暇	-11.7352
元時	-11.7354
泰伯	-11.7359
氣味	-11.7361
謝公	-11.7364
與他	-11.7364
其孫	-11.7365
逺甚	-11.7365
峴	-11.7366
之報	-11.7368
中大夫	-11.7368
璩	-11.7368
可容	-11.7371
不豫	-11.7372
之財	-11.7374
公問	-11.7375
深得	-11.7376
然若	-11.7378
議事	-11.738
之辭也	-11.738
段成式	-11.7381
潼	-11.7381
叫	-11.7381
又不知	-11.7381
而身	-11.7382
𣣔	-11.7383
孔頴達	-11.7383
莱	-11.7384
合歡	-11.7384
老病	-11.7384
習學記言卷	-11.7386
舊聞	-11.7386
堊	-11.7388
前一日	-11.7388
磴	-11.7389
墊	-11.739
冢宰	-11.739
一統	-11.7392
竒字	-11.7393
招魂	-11.7393
斡	-11.7394
因得	-11.7394
范蜀公	-11.7394
兩月	-11.7395
冡宰	-11.7397
淮安	-11.7398
周王	-11.7399
日者	-11.74
復置	-11.7401
二十三日	-11.7402
謬誤	-11.7403
且言	-11.7404
毁譽	-11.7405
乃言	-11.7405
禁之	-11.7406
束脩	-11.7406
與焉	-11.7406
此圖	-11.7406
有不同	-11.7407
農事	-11.7407
大計	-11.7409
娶婦	-11.741
薄荷	-11.741
姚崇	-11.7412
章子厚	-11.7413
曰諾	-11.7414
嘉祐中	-11.7415
家世	-11.7415
位在	-11.7416
無射	-11.7418
今又	-11.7419
録事	-11.7421
初學	-11.7423
其肉	-11.7423
郡邑	-11.7424
無辜	-11.7424
六代	-11.7426
神廟	-11.7427
不可勝數	-11.7429
書此	-11.7429
爭之	-11.7429
嘗於	-11.743
下車	-11.743
十有五	-11.7431
集序	-11.7433
君命	-11.7433
程文	-11.7434
都䕶	-11.7437
故老	-11.7441
俱在	-11.7441
言官	-11.7442
紫花	-11.7442
樹上	-11.7443
之跡	-11.7443
易於	-11.7444
從人	-11.7444
乃召	-11.7445
義兵	-11.7446
百六	-11.7448
子貢曰	-11.7453
西周	-11.7453
配天	-11.7454
慕之	-11.7455
冬青	-11.7456
所過	-11.7456
青天	-11.7457
之冠	-11.7457
開皇	-11.7457
乃見	-11.7462
到處	-11.7462
焯	-11.7462
詢其	-11.7463
所求	-11.7463
黄氏	-11.7465
向日	-11.7465
乃爾	-11.7465
世所傳	-11.7469
天下後世	-11.747
孟堅	-11.7471
南蠻	-11.7471
上召	-11.7471
南華	-11.7472
之尊	-11.7474
不返	-11.7474
藿	-11.7474
秊	-11.7476
指示	-11.7477
武陽	-11.7478
太甚	-11.7479
潔白	-11.748
以比	-11.748
又於	-11.748
鯁	-11.7483
陸費墀欽定四庫全書	-11.7485
之亡	-11.7487
封爵	-11.7487
元祐初	-11.7487
惶恐	-11.7487
設官	-11.7487
陶𢎞景	-11.7488
出世	-11.7488
匄	-11.7488
關雎	-11.7489
嬾	-11.749
此雖	-11.749
抉	-11.749
明甚	-11.749
兵士	-11.749
㐫	-11.7491
酵	-11.7491
交阯	-11.7491
幔	-11.7492
儁	-11.7493
歸田	-11.7493
薩	-11.7493
噲	-11.7493
賡	-11.7494
筦	-11.7494
兩日	-11.7494
擿	-11.7495
初起	-11.7495
並出	-11.7496
誤以為	-11.7497
祟	-11.7498
古作	-11.7498
席上	-11.7498
晦菴	-11.7499
鍇	-11.7499
與否	-11.7499
財用	-11.75
玉樓	-11.75
松柏	-11.75
庸人	-11.75
蕩蕩	-11.7501
泉州	-11.7503
無得	-11.7504
虚實	-11.7507
不可信	-11.7509
月夜	-11.751
子方	-11.7511
生靈	-11.7513
極言	-11.7513
景初	-11.7514
杜甫詩	-11.7514
晁氏	-11.7518
半斤	-11.7519
文法	-11.7521
如雪	-11.7521
僅得	-11.7526
乃以為	-11.7527
自處	-11.7527
誦經	-11.7531
六寸	-11.7534
于公	-11.7536
色紅	-11.7536
伯益	-11.7536
難之	-11.7539
亦非也	-11.7543
質之	-11.7543
矣豈	-11.7544
憐之	-11.7545
景仁	-11.7546
為父	-11.7547
人臣之	-11.7547
次公	-11.7548
獄吏	-11.7549
青白	-11.755
曹參	-11.7551
支離	-11.7552
遂罷	-11.7552
焉今	-11.7552
虎頭	-11.7554
職者	-11.7554
後村	-11.7556
日新	-11.756
碧落	-11.7564
池上	-11.7565
温州	-11.7566
不懼	-11.7566
四壁	-11.7568
八風	-11.7569
里許	-11.7569
索隱	-11.757
種竹	-11.757
喜其	-11.7572
也智按	-11.7572
所定	-11.7573
將行	-11.7573
蟋蟀	-11.7575
侍衛	-11.7575
唯唯	-11.7576
遂止	-11.7577
茘枝	-11.7577
四季	-11.7577
貿	-11.7579
登極	-11.758
法當	-11.7581
出守	-11.7581
來年	-11.7582
洪氏	-11.7583
蚓	-11.7585
堞	-11.7585
衿	-11.7587
饕餮	-11.7588
攢	-11.7588
舸	-11.7589
列于	-11.759
墓銘	-11.7591
遠近	-11.7591
無一字	-11.7592
蹴	-11.7592
諗	-11.7592
固知	-11.7592
𣺌	-11.7592
黜陟	-11.7592
衆人之	-11.7592
傚	-11.7593
别墅	-11.7593
擠	-11.7593
無論	-11.7594
長久	-11.7594
鐃	-11.7595
棃	-11.7595
全用	-11.7596
以存	-11.7596
季秋	-11.7596
鄢	-11.7597
㕓	-11.7598
之族	-11.7598
壩	-11.7599
澠水	-11.7599
白酒	-11.7599
不均	-11.76
盤庚	-11.7601
奏上	-11.7602
新舊	-11.7602
要在	-11.7602
王世貞集	-11.7605
漕運	-11.7609
磁器	-11.7609
項籍	-11.7609
不貪	-11.7611
羲和	-11.7611
下水	-11.7615
致治	-11.7615
自己	-11.7616
亦不復	-11.7616
西洋	-11.7617
其俗	-11.7617
自覺	-11.7619
老嫗	-11.7619
並見	-11.762
知之矣	-11.762
好生	-11.7621
黒水	-11.7621
病者	-11.7627
鮮于	-11.7627
爲君	-11.7631
長一尺	-11.7631
能作	-11.7632
危坐	-11.7634
此禮	-11.7635
父曰	-11.7635
辭去	-11.7635
修竹	-11.7635
表曰	-11.7635
之期	-11.7635
供奉官	-11.7636
六甲	-11.7637
各處	-11.7637
舟行	-11.7639
大凡	-11.7642
皆謂之	-11.7644
而外	-11.7644
是也今	-11.7645
整齊	-11.7645
公輔	-11.7646
畫圖	-11.7647
四瀆	-11.7647
百歩	-11.7648
事在	-11.765
直指	-11.7652
七寳	-11.7653
又别	-11.7655
漢碑	-11.7655
鄭箋	-11.7657
異香	-11.7661
尤可	-11.7662
百五十	-11.7664
應對	-11.7665
舉手	-11.7665
漢文	-11.7667
因請	-11.7667
詳考	-11.7668
正書	-11.7669
其一也	-11.767
不得過	-11.7671
大統	-11.7672
蘇子美	-11.7673
夷簡	-11.7673
長春	-11.7675
何日	-11.7675
辭也	-11.7678
緫	-11.7678
妙絶	-11.7679
初出	-11.7682
稗	-11.7682
藐	-11.7684
璣	-11.7686
已上出	-11.7687
於野	-11.7688
耆舊	-11.7689
自行	-11.7689
烙	-11.7689
㤙	-11.7689
二人皆	-11.769
逖	-11.7691
茱萸	-11.7692
顔真卿	-11.7692
赫赫	-11.7693
飱	-11.7693
闍	-11.7693
䂓	-11.7693
奐	-11.7693
凟	-11.7695
湧幢小品	-11.7695
王后	-11.7695
險阻	-11.7695
所自出	-11.7695
澶淵	-11.7696
皺	-11.7697
饅頭	-11.7697
參寥	-11.7699
喟然	-11.7699
貢士	-11.77
鄘	-11.77
荆棘	-11.7701
犬馬	-11.7703
酎	-11.7704
悄	-11.7704
四星	-11.7707
四岳	-11.7708
但能	-11.7708
對偶	-11.7709
臺上	-11.771
英華	-11.771
持論	-11.771
周氏	-11.771
入仕	-11.7712
音同	-11.7712
玦	-11.7712
何以不	-11.7715
之陋	-11.7715
才能	-11.7715
不考	-11.7716
詳矣	-11.7717
疑焉	-11.7717
文獻	-11.7717
累年	-11.7717
文徳	-11.7717
擊鼓	-11.772
循環	-11.772
飛來	-11.7721
近來	-11.7722
李靖	-11.7723
不計	-11.7723
此二字	-11.7723
在漢	-11.7723
碑刻	-11.7724
失所	-11.7724
故雖	-11.7725
百神	-11.7725
得㫖	-11.7726
氣候	-11.773
何以言之	-11.7731
羅浮	-11.7731
粉紅	-11.7731
吳起	-11.7732
唐人詩	-11.7732
因取	-11.7733
中有一	-11.7733
婦人之	-11.7733
惟以	-11.7735
形狀	-11.7737
即命	-11.7738
萬斤	-11.7742
並用	-11.7743
此花	-11.7747
位置	-11.7748
二星	-11.7748
居上	-11.7749
子婦	-11.7753
詩家	-11.7753
釋名	-11.7754
重華	-11.7754
蘇黄	-11.7754
不得與	-11.7755
又在	-11.7755
亦從	-11.7755
天之所	-11.7756
召為	-11.7756
制誥	-11.7757
商君	-11.7758
節儉	-11.7761
五七	-11.7762
亂離	-11.7762
問疾	-11.7766
舉行	-11.7766
許公	-11.7767
與劉	-11.7769
黄雀	-11.7771
鄭人	-11.7773
豈不知	-11.7774
一手	-11.7776
日益	-11.7776
爾雅云	-11.7777
乎吾	-11.7779
尤重	-11.7779
以北	-11.7779
公卿大夫	-11.7779
元祐中	-11.778
安邑	-11.778
易林	-11.7781
不虚	-11.7782
不足道	-11.7782
既畢	-11.7783
升堂	-11.7785
深考	-11.7787
憂患	-11.7787
可通	-11.7788
溺死	-11.7788
萬數	-11.7791
背上	-11.7791
陽也	-11.7791
罏	-11.7792
代王	-11.7793
期於	-11.7793
茱茰	-11.7793
惱	-11.7793
垓	-11.7793
長二尺	-11.7794
熒	-11.7795
天真	-11.7795
凑	-11.7795
欲去	-11.7796
不周	-11.7796
鍵	-11.7796
淛	-11.7796
賦序	-11.7796
稹	-11.7796
葡萄	-11.7798
明逺	-11.7798
脾胃	-11.7798
萬貫	-11.7798
李衛公	-11.7798
楊士竒	-11.7799
串	-11.7799
暦	-11.7799
瑯琊	-11.78
塡	-11.78
正同	-11.78
蓑	-11.78
趙充國	-11.7801
唱名	-11.7801
朐	-11.7802
萎	-11.7802
東封	-11.7802
楊大年	-11.7802
一周	-11.7803
凌雲	-11.7803
天尊	-11.7804
諸父	-11.7804
感慨	-11.7805
貉	-11.7806
僂	-11.7806
桴	-11.7806
牛僧孺	-11.7807
俗云	-11.7807
本音	-11.7807
天府	-11.7807
中常侍	-11.7809
央	-11.7809
易得	-11.7809
硃	-11.781
暹	-11.7811
八十四	-11.7816
黄鳥	-11.7816
六韜	-11.7818
著名	-11.7819
宜以	-11.782
水利	-11.782
兒子	-11.7823
元瑞	-11.7824
作字	-11.7824
盡日	-11.7825
符瑞	-11.7826
甚難	-11.7827
桓𤣥	-11.7827
求賢	-11.7829
驗其	-11.7829
寒温	-11.783
開闢	-11.7831
齊宣王	-11.7833
之談	-11.7834
始悟	-11.7837
殷周	-11.7839
而後可	-11.7839
哉夫	-11.7839
王嘉	-11.7842
造父	-11.7842
冠服	-11.7846
即止	-11.7847
下令	-11.7852
召試	-11.7854
李邕	-11.7854
已有之	-11.7855
相持	-11.7857
莫愁	-11.7858
大火	-11.7859
世俗之	-11.7859
而無所	-11.7861
壬癸	-11.7863
豐年	-11.7865
可辨	-11.7865
傳授	-11.7867
我我	-11.7868
滿地	-11.787
王元之	-11.787
三千人	-11.7871
但取	-11.7872
此老	-11.7875
去此	-11.7877
此三者	-11.7877
能辨	-11.788
紀載	-11.7881
不盈	-11.7881
一筆	-11.7882
三十一年	-11.7882
月色	-11.7882
一木	-11.7883
酒肉	-11.7883
衆生	-11.7887
是否	-11.7891
無主	-11.7892
元和中	-11.7892
秦皇	-11.7892
北流	-11.7894
紙錢	-11.7895
伯樂	-11.7896
馮翊	-11.7896
膈	-11.7897
有識	-11.7897
泚	-11.7897
叢生	-11.7898
宙	-11.7899
兜	-11.7899
喪亂	-11.7899
雞子	-11.79
槊	-11.79
銕	-11.79
倉頡	-11.79
顙	-11.79
上谷	-11.79
蚯蚓	-11.7901
搶	-11.7902
㑹同	-11.7902
侍立	-11.7903
吊	-11.7903
峩	-11.7903
蘇子	-11.7903
非惟	-11.7903
魯哀公	-11.7904
眄	-11.7904
艇	-11.7904
選舉	-11.7904
婆娑	-11.7904
沴	-11.7905
莾	-11.7905
穠	-11.7905
鸜鵒	-11.7905
子墨子	-11.7905
也嗚呼	-11.7905
碌碌	-11.7906
爨	-11.7906
諜	-11.7907
㗖	-11.7907
之戲	-11.7907
痒	-11.7907
嶂	-11.7907
西都	-11.7908
甦	-11.7909
一疋	-11.791
楪	-11.791
百里奚	-11.7912
不知所在	-11.7913
婕妤	-11.7913
三百五十	-11.7914
最大	-11.7914
瞞	-11.7914
何以明之	-11.7915
生事	-11.7916
沈括	-11.7916
樂毅論	-11.7916
善射	-11.7916
配享	-11.7918
向背	-11.792
鴻鵠	-11.7921
香油	-11.7923
貨財	-11.7924
夜月	-11.7925
句讀	-11.7925
而知之	-11.7926
恭儉	-11.7927
蕈	-11.7927
音聲	-11.7927
兩宫	-11.7927
二百五十	-11.7928
手自	-11.7928
宰輔	-11.793
風雷	-11.7931
耳目之	-11.7931
般若	-11.7932
李成	-11.7934
孟郊	-11.7935
百七十	-11.7936
世襲	-11.7937
又稱	-11.7938
斷腸	-11.7938
以喻	-11.7938
日下	-11.7939
邊事	-11.7939
文惠	-11.7939
圓而	-11.794
刋誤	-11.7941
果如	-11.7942
共一	-11.7943
數種	-11.7944
天寒	-11.7945
歎服	-11.7946
四世	-11.7946
鄉黨	-11.7947
延陵	-11.7947
動作	-11.7947
章武	-11.7948
謝恩	-11.7952
贊曰	-11.7953
厚者	-11.7955
相因	-11.7957
無失	-11.796
且有	-11.796
親近	-11.7961
乃悟	-11.7962
風波	-11.7962
余讀	-11.7965
無後	-11.7968
歴歴	-11.7968
罷去	-11.7968
焚其	-11.7968
於上前	-11.7969
舊傳	-11.7972
卒于	-11.7972
空心	-11.7972
窮極	-11.7973
漢藝文志	-11.7973
生萬物	-11.7974
城市	-11.7975
一本作	-11.7976
載籍	-11.7976
徐曰	-11.7976
小便	-11.7977
六萬	-11.7979
虞夏	-11.7979
曾見	-11.7979
屈曲	-11.7979
所養	-11.798
士衡	-11.7981
子建	-11.7982
岷山	-11.7982
戰勝	-11.7982
否曰	-11.7983
十五卷	-11.7986
雲山	-11.7988
某日	-11.7989
王良	-11.799
之主也	-11.799
大唐	-11.7991
同僚	-11.7993
吏人	-11.7994
海鹽	-11.7994
敬宗	-11.7994
天馬	-11.7995
本州	-11.7996
舫	-11.7997
畫山水	-11.7997
萇	-11.7998
轉相	-11.7999
踰月	-11.8
犯者	-11.8001
胞	-11.8003
阪	-11.8003
毓	-11.8004
棖	-11.8004
韓詩外傳	-11.8004
與之同	-11.8005
蕐	-11.8005
那得	-11.8006
顔之推	-11.8006
都督府	-11.8007
纍纍	-11.8007
閻立本	-11.8007
太常少卿	-11.8007
嬪御	-11.8008
東閣	-11.8008
是正	-11.801
王天下	-11.801
母弟	-11.801
籜	-11.801
种	-11.801
昭陽	-11.8011
户部侍郎	-11.8012
無所不至	-11.8012
擷	-11.8012
柟	-11.8012
孟浩然	-11.8013
憊	-11.8014
武夷	-11.8014
羣書治要卷第	-11.8014
龍山	-11.8014
未知孰是	-11.8014
㫄	-11.8015
庚辛	-11.8016
絛	-11.8017
左𫝊	-11.8017
北行	-11.8017
珏	-11.8017
淅	-11.8018
河南尹	-11.8018
掖庭	-11.8019
蕨	-11.802
在側	-11.8021
色紫	-11.8022
鑼	-11.8023
亦異	-11.8024
之災	-11.8024
去取	-11.8025
各衙門	-11.8026
殷之	-11.8026
也又按	-11.8026
詩詞	-11.8027
年月日	-11.8028
黔首	-11.8028
蒸熟	-11.8029
相距	-11.8029
今名	-11.8031
禍亂	-11.8032
宋璟	-11.8033
兩朝	-11.8035
銅錢	-11.8036
竟陵	-11.8036
貴戚	-11.8036
常言	-11.8039
月十三日	-11.804
姦人	-11.8041
李善注	-11.8043
數倍	-11.8043
五岳	-11.8044
未必能	-11.8044
西安	-11.8044
刻畫	-11.8045
潤澤	-11.8045
俱為	-11.8046
下邳	-11.8046
子儀	-11.8046
舅氏	-11.8047
之味	-11.8047
二國	-11.8052
子良	-11.8052
倡和	-11.8053
古雅	-11.8053
事體	-11.8054
以鹽	-11.8056
老君	-11.8058
午後	-11.8058
未有以	-11.806
致祭	-11.8062
元祐間	-11.8063
建元	-11.8065
乃引	-11.8065
鮮有	-11.8066
元豐間	-11.8069
戲之曰	-11.807
所為也	-11.807
玉牒	-11.807
危亡	-11.8072
升天	-11.8072
空山	-11.8075
四十六	-11.8076
異類	-11.8076
復舊	-11.8077
京西	-11.8077
三載	-11.8078
省中	-11.808
大聖	-11.8083
刪去	-11.8085
方物	-11.8085
不終	-11.8085
仲冬	-11.809
風動	-11.8091
一足	-11.8092
是月也	-11.8092
始封	-11.8092
變通	-11.8092
于前	-11.8093
羊角	-11.8095
常見	-11.8096
承露	-11.8096
遷於	-11.8097
虚無	-11.8097
吾欲	-11.8097
石鼓	-11.8098
豢	-11.8099
聲名	-11.81
耳豈	-11.81
用鹽	-11.8101
太王	-11.8101
嘗從	-11.8102
誠能	-11.8103
處厚	-11.8103
有雙	-11.8104
暄曰	-11.8104
歲時	-11.8106
得疾	-11.8107
迦	-11.8108
葢有	-11.8108
曲盡	-11.8108
厯代	-11.8109
張說	-11.8109
築城	-11.811
兩岸	-11.8111
灌之	-11.8113
旛	-11.8115
濂	-11.8116
盻	-11.8117
璉	-11.8117
閶闔	-11.8117
斐	-11.8117
鮒	-11.8119
淖	-11.8119
張文潛	-11.8119
紫陽	-11.812
膓	-11.812
酹	-11.812
日入	-11.8121
行草	-11.8121
父子兄弟	-11.8121
猶不能	-11.8122
春雨	-11.8122
抃	-11.8123
元微之	-11.8124
怙	-11.8125
不知何許人	-11.8125
煦	-11.8126
仲弓	-11.8126
鄒衍	-11.8127
天下之民	-11.8128
植之	-11.8128
一帶	-11.8128
五品以上	-11.8129
待其	-11.8131
㽔	-11.8131
兩行	-11.8132
改官	-11.8132
未經	-11.8133
中貴	-11.8134
不講	-11.8137
不識字	-11.8137
老子曰	-11.8141
而後世	-11.8142
長丈餘	-11.8142
墳墓	-11.8145
麻姑	-11.8145
進士及第	-11.8146
小山	-11.8147
火氣	-11.8149
爵祿	-11.8149
不辭	-11.8149
開寶	-11.8153
晦叔	-11.8154
李膺	-11.8155
五雲	-11.8157
紙筆	-11.8157
破碎	-11.8159
三危	-11.8159
為秦	-11.8159
在翰林	-11.8159
哭之	-11.816
匈奴傳	-11.8161
故特	-11.8161
不允	-11.8161
景龍	-11.8169
二色	-11.8173
其象	-11.8173
世之人	-11.8175
月朔	-11.8176
春坊	-11.8176
與俱	-11.8177
受詔	-11.8178
佩魚	-11.818
畧無	-11.8186
之苦	-11.8186
口鼻	-11.8186
不救	-11.8187
性命之	-11.8188
五藏	-11.8188
誰與	-11.8188
過江	-11.8189
滁	-11.819
古禮	-11.8191
風日	-11.8191
又諮	-11.8192
澄清	-11.8193
母后	-11.8194
凡二十	-11.8194
必求	-11.8197
忘憂	-11.8197
夏正	-11.8198
晶	-11.82
詞賦	-11.82
沈氏	-11.8201
所尚	-11.8203
岳陽	-11.8205
後歸	-11.8207
立名	-11.8208
項氏	-11.821
一千二百	-11.821
六十年	-11.8212
世多	-11.8213
折而	-11.8215
葑	-11.8215
拐	-11.8217
桮	-11.8218
譔	-11.8219
將去	-11.8221
多在	-11.8222
炒鹽	-11.8222
拌勻	-11.8222
柞	-11.8222
太簇	-11.8222
剃	-11.8222
赴闕	-11.8223
嗚	-11.8224
啗	-11.8225
韓子蒼	-11.8225
王勃	-11.8226
篠	-11.8226
斧鉞	-11.8226
龍鳳	-11.8227
碍	-11.8227
嶮	-11.8228
繚	-11.8228
餗	-11.8229
舡	-11.8229
塗山	-11.8229
爾後	-11.823
襴	-11.8231
訕	-11.8231
恙	-11.8232
草木之	-11.8233
三年之喪	-11.8234
九卷	-11.8235
臨海	-11.8235
笑曰此	-11.8237
外傳	-11.8237
寬	-11.8237
何以為	-11.8238
堯臣	-11.8238
塑像	-11.8238
母子	-11.8239
平陸	-11.824
聽政	-11.824
佛氏	-11.8241
周穆王	-11.8241
本自	-11.8242
入翰林	-11.8242
都堂	-11.8244
萬緡	-11.8244
不熟	-11.8245
以文章	-11.8245
之所生	-11.8245
泛舟	-11.8245
來日	-11.8245
南中	-11.8245
恐未	-11.8245
梁山	-11.8246
富弼	-11.8246
所陳	-11.8246
唐張	-11.8248
三斤	-11.8249
取象	-11.8249
報國	-11.825
耕者	-11.8251
細腰	-11.8254
我欲	-11.8255
常用	-11.8255
别駕	-11.8259
小麥	-11.8259
之宫	-11.8259
當復	-11.826
寒熱	-11.826
嘗語	-11.8262
眉目	-11.8265
甚重	-11.8265
解衣	-11.8266
不可無	-11.8267
非敢	-11.8268
之嵗	-11.8268
太伯	-11.8268
深逺	-11.8269
駿馬	-11.8273
麻紙	-11.8274
喬木	-11.8275
筆札	-11.8276
霜降	-11.8276
殿庭	-11.8276
號泣	-11.8276
無從	-11.8277
村落	-11.8278
故舊	-11.8279
宋景文公	-11.828
不足則	-11.8281
無以異	-11.8281
青城	-11.8284
黄紙	-11.8286
管蔡	-11.8286
予讀	-11.8286
伐楚	-11.8286
本於此	-11.829
相識	-11.829
海陵	-11.8291
任意	-11.8292
以候	-11.8292
千户	-11.8293
紋如	-11.8295
夷吾	-11.8295
此體	-11.8295
已失	-11.8297
秋毫	-11.8297
仁廟	-11.8298
而取之	-11.8298
傳世	-11.8299
工書	-11.83
明徳	-11.8304
事宜	-11.8305
信州	-11.8306
五常	-11.8306
去官	-11.8306
授官	-11.8307
何患	-11.8308
平原君	-11.8309
子房	-11.8309
所舉	-11.831
盡忠	-11.8313
明朝	-11.8313
失禮	-11.8314
必敗	-11.8315
行止	-11.8316
宣室	-11.8317
燕趙	-11.8318
巫山	-11.8321
到此	-11.8321
紵	-11.8322
‧	-11.8324
總之	-11.8327
脹	-11.8328
芾	-11.8328
北郊	-11.8328
十二律	-11.8329
致知	-11.8329
䲭	-11.833
自安	-11.833
四十四	-11.833
有五色	-11.8331
䋲	-11.8333
絺	-11.8333
陸璣	-11.8333
膀胱	-11.8336
㳟	-11.8337
絜	-11.8337
鯤	-11.8337
十三日	-11.8338
檠	-11.8338
太蔟	-11.8339
龐	-11.834
孑	-11.8341
昕	-11.8341
歲月	-11.8341
而後有	-11.8342
蒙恬	-11.8343
吞之	-11.8343
文皇帝	-11.8344
一郡	-11.8344
致堂	-11.8346
邯	-11.8346
不過三	-11.8346
秘書省	-11.8346
林檎	-11.8346
三十餘年	-11.8347
霍山	-11.8348
川椒	-11.835
省官	-11.835
周正	-11.8351
鮑叔	-11.8352
尤善	-11.8353
即愈	-11.8353
潞州	-11.8354
夜宿	-11.8355
勸農	-11.8355
木葉	-11.8357
重輕	-11.8358
五木	-11.8364
不赴	-11.8365
時雨	-11.8365
享國	-11.8365
此舉	-11.8365
其謀	-11.8368
生男	-11.8368
厭之	-11.8369
輔政	-11.8369
金匱	-11.8369
大司徒	-11.8369
欵識	-11.8371
遣官	-11.8374
投壺	-11.8374
南門	-11.8375
卷六	-11.8375
侍宴	-11.8376
實非	-11.8376
無爲	-11.8377
曰然則	-11.8377
􁁊(	-11.8379
臺省	-11.8379
畫地	-11.8379
百草	-11.838
萬方	-11.838
說苑	-11.8385
養老	-11.8386
鳥也	-11.8386
相攻	-11.8386
而泣	-11.8386
青花	-11.839
嘗觀	-11.839
花鳥	-11.8394
孔丘	-11.8396
白露	-11.8396
手執	-11.8396
江浙	-11.8397
扈從	-11.8398
汾陽	-11.8398
魚龍	-11.8401
舉止	-11.8402
典章	-11.8405
如此其	-11.8406
數事	-11.8407
王逸	-11.8408
前朝	-11.8412
祥符中	-11.8412
三焦	-11.8412
勇者	-11.8413
一意	-11.8414
惑之	-11.8415
此制	-11.8415
多方	-11.8415
五福	-11.8416
略曰	-11.8416
楊慎	-11.8419
失實	-11.8419
景陽	-11.8419
扶老	-11.842
嘗讀	-11.8421
嗣王	-11.8421
重修	-11.8421
偶見	-11.8422
文通	-11.8423
而滅	-11.8424
臨淮	-11.8428
傷心	-11.8429
不吉	-11.8431
于周	-11.8431
車服	-11.8432
又多	-11.8432
動揺	-11.8433
明史藁	-11.8437
也今之	-11.8437
述其	-11.8438
葢謂	-11.8438
尤佳	-11.8439
一編	-11.8439
自叙	-11.8439
誹	-11.8439
郴	-11.8442
飫	-11.8442
聖節	-11.8443
祭器	-11.8443
悰	-11.8444
吾嘗	-11.8444
上䟽	-11.8444
禊	-11.8444
自保	-11.8445
螻蟻	-11.8446
苹	-11.8447
埀	-11.8447
朝陽	-11.8448
㨿	-11.8449
僇	-11.8449
對上	-11.8449
以成其	-11.8449
當此之時	-11.845
撫按	-11.845
蹠	-11.8451
駙馬都尉	-11.8452
臺榭	-11.8453
闞	-11.8454
塩	-11.8454
饑寒	-11.8454
上元陶宗儀撰	-11.8454
太祖曰	-11.8455
孔叢子	-11.8455
奉聖㫖	-11.8455
食物	-11.8456
鐘磬	-11.8456
浥	-11.8457
此特	-11.8457
週	-11.8457
乙卯	-11.8457
又况	-11.8458
滸	-11.8458
楊誠齋	-11.8458
敺	-11.8459
校書郎	-11.8459
則多	-11.8461
器皿	-11.8461
奏聞	-11.8463
故道	-11.8464
為吏	-11.8464
燈燭	-11.8465
外人	-11.8467
淵源	-11.8467
度數	-11.8467
與予	-11.8469
周瑜	-11.8469
輔佐	-11.847
寒氣	-11.847
羣書	-11.8471
西陵	-11.8472
不遜	-11.8473
乃詔	-11.8475
飢寒	-11.8476
忽一日	-11.8477
千石	-11.8477
通衢	-11.8478
誦詩	-11.8479
製作	-11.8479
教民	-11.8479
果何	-11.848
杜公	-11.848
横渠	-11.848
定論	-11.8481
石曼卿	-11.8481
與弟	-11.8481
示以	-11.8481
平易	-11.8483
四十七	-11.8483
莫過	-11.8483
後序	-11.8483
陳子	-11.8483
五季	-11.8483
上柱國	-11.8484
易傳	-11.8487
本非	-11.8487
冬至日	-11.8488
樂道	-11.849
委之	-11.8491
吏卒	-11.8491
嗣昌	-11.8491
之筆	-11.8494
時日	-11.8495
字叔	-11.8496
孔子之言	-11.8496
者歟	-11.8496
一絶	-11.8499
本部	-11.8499
知院	-11.8499
風景	-11.85
嘉其	-11.8502
用刑	-11.8502
自傷	-11.8503
以南	-11.8504
相次	-11.8504
三絶	-11.8504
虎子	-11.8505
不始於	-11.8505
新語	-11.8505
依然	-11.8506
畿内	-11.8508
丁公	-11.851
不乏	-11.8511
王儉	-11.8513
自在	-11.8514
文正公	-11.8515
年譜	-11.8516
一歳	-11.8516
扶持	-11.8517
不事	-11.8519
别業	-11.8519
為臣	-11.852
觀其所	-11.852
可移	-11.8521
記得	-11.8522
大樹	-11.8522
各不同	-11.8524
伏乞	-11.8524
有識者	-11.8525
居官	-11.8527
而視之	-11.8527
文襄	-11.8529
宜興	-11.853
人之有	-11.853
猶豫	-11.853
蘭臺	-11.8531
養氣	-11.8534
武城	-11.8534
少女	-11.8534
古木	-11.8535
誤讀	-11.8535
不完	-11.8537
最下	-11.8538
曰此人	-11.8538
固守	-11.8538
盛開	-11.8539
古史	-11.8539
愴	-11.854
尸子	-11.8541
己卯	-11.8542
夜聞	-11.8545
茭	-11.8546
可復	-11.8546
極力	-11.8546
陘	-11.8549
賢君	-11.8549
是名	-11.8549
櫻	-11.8549
樞宻副使	-11.8553
安平	-11.8554
窳	-11.8554
楨	-11.8554
温泉	-11.8555
建章	-11.8555
憂之	-11.8555
從政	-11.8555
懐素	-11.8556
兵器	-11.8557
漣	-11.8557
以寄	-11.8557
睽	-11.8557
昵	-11.8559
院中	-11.856
撑	-11.8561
禰衡	-11.8561
蜿蜒	-11.8561
鞾	-11.8561
儒林	-11.8561
袪	-11.8562
下元陶宗儀撰	-11.8562
春草	-11.8562
寓居	-11.8563
如龍	-11.8563
二十二日	-11.8564
腳	-11.8565
許敬宗	-11.8565
贗	-11.8565
斯須	-11.8566
荃	-11.8567
雝	-11.8567
遠矣	-11.8568
春秋傳曰	-11.8568
考試	-11.8569
賈氏	-11.857
周召	-11.857
騃	-11.857
单	-11.857
影響	-11.857
賈島	-11.8571
砲	-11.8572
窈	-11.8573
數篇	-11.8574
虞書	-11.8574
揖讓	-11.8575
余在	-11.8575
卽位	-11.8576
三品以上	-11.8576
天降	-11.8579
元君	-11.8579
夏秋	-11.8582
戎馬	-11.8583
月下	-11.8583
為盜	-11.8584
不侔	-11.8585
余因	-11.8585
或在	-11.8586
巨源	-11.8586
宗廟之	-11.8586
狀若	-11.8587
河道	-11.8588
言外	-11.8588
愛惜	-11.8588
惻然	-11.859
茍且	-11.8591
李東陽	-11.8591
經世	-11.8591
耶律	-11.8594
愈於	-11.8594
於諸侯	-11.8595
之説也	-11.8597
風水	-11.8598
叙事	-11.8599
之數也	-11.8599
及觀	-11.86
大意	-11.86
貢院	-11.8601
未安	-11.8602
問答	-11.8604
臨軒	-11.8604
必勝	-11.8604
㡬何	-11.8606
谷永	-11.8606
惟是	-11.8607
除授	-11.8608
有功於	-11.8611
興廢	-11.8611
往時	-11.8611
欲盡	-11.8612
喪禮	-11.8612
朝賀	-11.8612
自製	-11.8612
為患	-11.8615
鳴條	-11.8615
九疑	-11.8616
存心	-11.862
自許	-11.8621
亞夫	-11.8622
詳定	-11.8624
寛厚	-11.8625
世以為	-11.8626
絶人	-11.8627
白鳥	-11.8629
論書	-11.863
毛羽	-11.863
監生	-11.8632
託於	-11.8633
江寧	-11.8633
形骸	-11.8633
岳州	-11.8633
孝惠	-11.8634
病死	-11.8636
我輩	-11.8636
汝曹	-11.8637
數寸	-11.8638
祭先	-11.8638
内出	-11.8639
兩山	-11.8639
當如此	-11.864
上親	-11.8641
為宫	-11.8642
什一	-11.8643
文成	-11.8644
延州	-11.8646
沿襲	-11.8647
必將	-11.8648
兵家	-11.8648
祖宗時	-11.865
好色	-11.8651
千緡	-11.8651
東郭	-11.8652
于人	-11.8653
螘	-11.8655
實事	-11.8655
猶今	-11.8655
七子	-11.8658
折之	-11.8659
鴈門	-11.8659
師傅	-11.8659
牝牡	-11.8659
蔓菁	-11.866
黝	-11.866
龍圖閣	-11.8661
麈	-11.8662
永寧	-11.8663
甚異	-11.8663
兆民	-11.8663
瀘	-11.8664
熈寧中	-11.8664
四十三	-11.8665
廕	-11.8665
資政	-11.8666
胙	-11.8666
平生所	-11.8667
踢	-11.8667
誠意	-11.8668
最盛	-11.8668
娱	-11.8668
太宗皇帝	-11.8669
湖水	-11.8669
陳州	-11.867
金線	-11.867
埒	-11.867
入口	-11.867
汧	-11.8671
曉然	-11.8671
鄭氏曰	-11.8671
闔閭	-11.8671
歸朝	-11.8672
資治通鑑	-11.8673
漢明帝	-11.8673
帔	-11.8674
咀	-11.8674
但聞	-11.8674
避諱	-11.8675
須知	-11.8675
何代	-11.8675
熊羆	-11.8676
瘁	-11.8676
樊噲	-11.8676
方術	-11.8677
如雨	-11.8677
過半	-11.8677
飜	-11.8677
佇	-11.8677
成章	-11.8678
許多	-11.8678
五十二	-11.8678
蛺蝶	-11.8678
滅亡	-11.8678
不免於	-11.868
讚	-11.868
兵部侍郎	-11.868
五十八	-11.8681
魴	-11.8681
攻城	-11.8681
杜工部	-11.8682
直入	-11.8683
韋蘇州	-11.8684
仰天	-11.8684
臾	-11.8685
提學	-11.8687
甘蔗	-11.8687
風化	-11.8688
既定	-11.8689
五日一	-11.8689
患難	-11.8689
賢否	-11.8691
不軌	-11.8691
浩然	-11.8691
五服	-11.8693
傳稱	-11.8693
莫得	-11.8693
無實	-11.8694
始祖	-11.8695
澤中	-11.8695
前賢	-11.8697
譽之	-11.8698
苦心	-11.8699
羊肉	-11.8699
獲一	-11.87
未逺	-11.8701
幸蜀	-11.8701
鵲巢	-11.8702
都指揮使	-11.8703
河南府	-11.8703
之甚也	-11.8704
早晚	-11.8706
長孺	-11.8707
吾當	-11.8707
無已	-11.8708
詰其	-11.8709
異事	-11.8709
我何	-11.871
漢宣帝	-11.871
爲善	-11.8711
初學記	-11.8712
十有八	-11.8712
貨殖傳	-11.8712
要當	-11.8713
地志	-11.8713
年來	-11.8714
武平	-11.8718
祭法	-11.8718
魚肉	-11.8719
也莊子	-11.8719
磨墨	-11.8719
未足以	-11.8724
溺於	-11.8728
具言	-11.8729
長嘯	-11.8729
烏頭	-11.873
口舌	-11.873
卜居	-11.873
一在	-11.8732
長短句	-11.8732
其婦	-11.8733
大宛	-11.8733
閉目	-11.8734
其亡	-11.8734
塵土	-11.8734
虞翻	-11.8735
風寒	-11.8735
天后	-11.8736
字林	-11.8737
黍離	-11.8737
容貌	-11.8738
太醫	-11.8738
之累	-11.8738
火中	-11.8738
余為	-11.8739
佩之	-11.874
也以其	-11.874
古琴	-11.8741
萬夀	-11.8741
山上有	-11.8742
冷水	-11.8743
親征	-11.8743
不同如此	-11.8743
即所謂	-11.8746
耶然	-11.8748
太虚	-11.8749
他物	-11.875
一百八十	-11.875
髙郵	-11.8751
神道	-11.8752
王宫	-11.8754
河洛	-11.8754
離合	-11.8755
又觀	-11.8755
多取	-11.8757
鼎銘	-11.876
東園	-11.8761
本姓	-11.8762
五臣	-11.8762
斜陽	-11.8763
之粟	-11.8765
讀史	-11.8766
求見	-11.8767
初即位	-11.8768
朝日	-11.8768
今陛下	-11.8769
忠武	-11.8769
仕者	-11.877
勿用	-11.8771
帳中	-11.8772
移文	-11.8772
又以為	-11.8773
大定	-11.8773
祭天	-11.8774
又東逕	-11.8774
之操	-11.8774
彗	-11.8775
郊祀志	-11.8775
日進	-11.8775
離離	-11.8775
田野	-11.8777
視之則	-11.8778
所制	-11.8778
文房	-11.8778
名節	-11.8778
何待	-11.8779
西苑	-11.878
蟲魚	-11.8782
櫝	-11.8782
幟	-11.8783
大辟	-11.8783
落句	-11.8783
瀦	-11.8784
桎梏	-11.8784
贋	-11.8784
鬱鬱	-11.8784
攄	-11.8785
錯綜	-11.8785
賦詩云	-11.8786
與兄	-11.8786
拗	-11.8786
薛氏	-11.8786
道塲	-11.8787
東周	-11.8787
燥濕	-11.8787
券	-11.8787
匭	-11.8787
見存	-11.8788
沂公	-11.8788
枋	-11.8788
湖中	-11.8789
荇	-11.8789
捺	-11.8789
謂左右曰	-11.8789
宂	-11.879
菉	-11.8792
精舎	-11.8793
陶隠居	-11.8794
後嗣	-11.8794
屣	-11.8794
茉莉	-11.8795
俄有	-11.8795
折衷	-11.8795
如拳	-11.8795
悛	-11.8796
外事	-11.8796
人罕	-11.8796
固然	-11.8797
鄖	-11.8799
先世	-11.8799
顔師古注	-11.8801
應鍾	-11.8803
疑似	-11.8803
何以知	-11.8803
醫者	-11.8804
貢禹	-11.8804
大半	-11.8804
獲麟	-11.8805
宗道	-11.8807
晉史	-11.8807
茅屋	-11.8808
晦翁	-11.8809
暑月	-11.881
拜謝	-11.881
良工	-11.8811
卷首	-11.8811
孟津	-11.8812
中貴人	-11.8814
未可知也	-11.8816
賤者	-11.8816
錄之	-11.8816
同志	-11.8817
而妄	-11.8817
紀傳	-11.8817
字从	-11.8819
體仁	-11.8821
龍涎	-11.8821
顔回	-11.8823
三教	-11.8825
傍有	-11.8826
字誤	-11.8826
莫可	-11.8826
五斤	-11.8827
其詩曰	-11.8829
是猶	-11.883
起家	-11.883
大要	-11.883
有鳥	-11.8832
聨句	-11.8833
應聲曰	-11.8836
北歸	-11.8836
不與焉	-11.8837
各官	-11.8838
深處	-11.8838
丞郎	-11.8841
州牧	-11.8841
逺望	-11.8841
𤣥孫	-11.8841
富家	-11.8844
封還	-11.8845
掩其	-11.8846
亦不得	-11.8848
必不能	-11.8849
爲國	-11.885
武庫	-11.8851
非禮也	-11.8852
緇衣	-11.8852
上書言	-11.8853
三州	-11.8855
特為	-11.8858
光宗	-11.8859
陵寢	-11.8859
河渠	-11.8859
四篇	-11.8861
相呼	-11.8862
神州	-11.8863
伏誅	-11.8866
北伐	-11.8867
三十人	-11.8867
表章	-11.8868
本草云	-11.8868
囊中	-11.8869
欲取	-11.8869
田單	-11.887
屬官	-11.887
漢史	-11.8872
無一言	-11.8874
之譏	-11.8875
題跋	-11.8876
五事	-11.8876
誤用	-11.8879
陳蔡	-11.888
武氏	-11.888
所須	-11.8881
空言	-11.8882
邳	-11.8883
千餘里	-11.8884
燦	-11.8886
殺我	-11.8887
受業	-11.8887
、《	-11.8887
子規	-11.8888
用韻	-11.8889
南岳	-11.8889
靈武	-11.8891
靈運	-11.8891
弱水	-11.8894
生成	-11.8894
居庸	-11.8894
告子	-11.8894
祉	-11.8895
聲律	-11.8895
輔國	-11.8895
細切	-11.8896
輩皆	-11.8896
多有之	-11.8896
哨	-11.8897
諸葛孔明	-11.8897
至秋	-11.8897
毉	-11.8898
麞	-11.8898
出納	-11.8899
犇	-11.89
闚	-11.8901
醎	-11.8901
可推	-11.8902
人皆知	-11.8903
寂寥	-11.8903
㓙	-11.8903
天柱	-11.8903
贑	-11.8904
禿	-11.8905
倕	-11.8905
孟康曰	-11.8905
目擊	-11.8906
忒	-11.8906
煅	-11.8906
載記	-11.8906
珙	-11.8907
犖	-11.8907
乘之	-11.8907
保全	-11.8908
冤	-11.8908
松雪	-11.8908
馬牛	-11.8908
炯	-11.8909
劃	-11.8909
伐燕	-11.891
瞑目	-11.8912
周圍	-11.8912
平旦	-11.8914
見任	-11.8914
仁智	-11.8914
揄	-11.8915
皂角	-11.8915
庄	-11.8915
晉文	-11.8915
罐	-11.8915
光景	-11.8917
怛	-11.8919
西域傳	-11.8921
所願	-11.8921
教官	-11.8921
文武官	-11.8922
平帝	-11.8922
亦自有	-11.8922
語耳	-11.8922
燈火	-11.8923
尉遲	-11.8923
盖自	-11.8925
不可測	-11.8927
亦隨	-11.8927
樂作	-11.8929
一目	-11.8929
御試	-11.893
鷄鳴	-11.8931
之祥	-11.8933
彖曰	-11.8934
詞人	-11.8935
端正	-11.8936
社稷之	-11.8936
江表	-11.8937
變而為	-11.8938
絶倫	-11.8939
已甚	-11.8939
龜年	-11.8939
阿房	-11.8941
而徒	-11.8942
不徒	-11.8942
惑也	-11.8942
慈母	-11.8945
白礬	-11.8946
目視	-11.8946
在長安	-11.8946
世南	-11.8948
揚之	-11.8948
教子	-11.8949
滿洲	-11.895
蕭條	-11.8951
所害	-11.8952
君子之道	-11.8953
以往	-11.8953
誰敢	-11.8953
三變	-11.8953
亦不過	-11.8954
漢光武	-11.8956
景王	-11.8956
一定之	-11.8958
司官	-11.8958
犀角	-11.8959
五銖	-11.8961
顯慶	-11.8963
三女	-11.8963
秋色	-11.8963
一百三十	-11.8965
其迹	-11.8965
陸羽	-11.8967
易水	-11.8968
十許	-11.8968
嵗餘	-11.8968
本國	-11.8969
王莽傳	-11.8969
金谷	-11.8974
一百六十	-11.8974
朱門	-11.8976
也孔子曰	-11.8977
一匹	-11.8978
八句	-11.8979
市肆	-11.8979
獨見	-11.898
丹田	-11.8981
霸王	-11.8981
好酒	-11.8982
凡百	-11.8983
洪武初	-11.8986
蜀志	-11.899
深思	-11.8992
威福	-11.8992
專用	-11.8996
名姓	-11.8997
無雙	-11.8997
不能成	-11.9
離别	-11.9
杜預曰	-11.9
如泥	-11.9002
意義	-11.9002
善相	-11.9006
雷州	-11.901
公薨	-11.9011
訊之	-11.9011
有毒	-11.9012
四維	-11.9012
齊民要術	-11.9012
其所長	-11.9012
鷙	-11.9012
錞	-11.9012
文靖公	-11.9013
廣志	-11.9013
亦頗	-11.9014
蠆	-11.9014
万	-11.9016
是爲	-11.9016
滙	-11.9016
入學	-11.9016
發聲	-11.9017
分職	-11.9018
廏	-11.9018
燠	-11.9019
孜孜	-11.9019
瀑布	-11.902
嚙	-11.902
絳州	-11.902
不振	-11.9021
南鄭	-11.9021
殆盡	-11.9021
理㑹	-11.9022
朏	-11.9022
殮	-11.9022
澈	-11.9023
忠獻	-11.9023
陸務觀	-11.9023
悸	-11.9023
霍去病	-11.9023
叵	-11.9024
之行也	-11.9024
但得	-11.9025
篁	-11.9025
蝟	-11.9026
剋	-11.9026
旴	-11.9026
翩翩	-11.9026
妒	-11.9027
五嵗	-11.9027
回首	-11.9027
周時	-11.9027
刑部尚書王士禎	-11.9027
筆端	-11.9028
㺯	-11.9028
器械	-11.9029
一例	-11.903
鰲	-11.903
字體	-11.9031
捕之	-11.9031
秉燭	-11.9032
屈伸	-11.9032
所習	-11.9033
撚	-11.9033
日磾	-11.9033
喩	-11.9034
張仲	-11.9034
亦似	-11.9034
端拱	-11.9034
縱有	-11.9036
儋耳	-11.9038
行義	-11.904
豆腐	-11.904
至暮	-11.904
子姓	-11.904
駕幸	-11.9041
再見	-11.9041
霆	-11.9043
為人臣	-11.9044
漢髙帝	-11.9045
數嵗	-11.9045
送客	-11.9045
六律	-11.9045
腸胃	-11.9046
有隙	-11.9046
殘缺	-11.9047
竹書紀年	-11.9048
切韻	-11.9049
乞食	-11.905
知命	-11.905
上流	-11.9052
自責	-11.9052
無量	-11.9054
無力	-11.9056
半臂	-11.9057
少帝	-11.9058
或稱	-11.906
徐公	-11.906
孝廉	-11.906
主君	-11.9061
戴氏	-11.9061
府州縣	-11.9062
一同	-11.9063
氣韻	-11.9065
張禹	-11.9066
題詩云	-11.9067
子罕	-11.9067
初置	-11.9068
復問	-11.9068
當路	-11.9068
官稱	-11.9069
圖籍	-11.9073
百代	-11.9074
年已	-11.9075
季春	-11.9075
僧寺	-11.9075
曰相公	-11.9075
求得	-11.9075
何罪	-11.9076
鄒陽	-11.9077
百錢	-11.9077
得罪於	-11.9078
傾覆	-11.908
落葉	-11.908
舊章	-11.9081
持國	-11.9084
周翰	-11.9085
録載	-11.9086
其義則	-11.9086
清流	-11.9086
而去之	-11.909
因讀	-11.9091
不驗	-11.9093
作賦	-11.9093
姜氏	-11.9094
審矣	-11.9095
高皇帝	-11.9095
盡善	-11.9096
得錢	-11.9097
明德	-11.9097
不復有	-11.9097
能通	-11.9098
矣故曰	-11.9098
犍為	-11.91
衡州	-11.9101
方面	-11.9102
濟濟	-11.9103
不爭	-11.9103
一莖	-11.9103
孟氏	-11.9104
甘美	-11.9106
異記	-11.9106
古畫	-11.9107
全身	-11.9107
偽者	-11.9107
竭力	-11.9108
刀筆	-11.9109
而至於	-11.9111
匠人	-11.9112
長源	-11.9112
雷公	-11.9113
焉能	-11.9114
者也今	-11.9115
前定	-11.9115
渾天	-11.9118
保定	-11.9118
有益於	-11.9119
春來	-11.9121
富而	-11.9121
尊師	-11.9121
不可見	-11.9122
疑即	-11.9123
廢興	-11.9124
下垂	-11.9125
入禁中	-11.9126
三光	-11.9127
世道	-11.9128
五十五	-11.9128
㑹議	-11.9128
挺之	-11.9129
益知	-11.9131
檮杌	-11.9131
百藥	-11.9131
蹊	-11.9131
捩	-11.9133
鮮明	-11.9133
圻	-11.9133
狙	-11.9136
毘	-11.9136
贛	-11.9136
堇	-11.9136
哉然	-11.9136
珉	-11.9136
又從而	-11.9137
歸家	-11.9137
入江	-11.9138
霏	-11.9138
夐	-11.9138
王禹玉	-11.9139
鬪	-11.914
辛夘	-11.914
羹	-11.914
芰	-11.914
榨	-11.9141
立夏	-11.9142
師魯	-11.9142
寥寥	-11.9144
七月七日	-11.9144
擡	-11.9144
困學紀聞	-11.9145
人姓名	-11.9146
砑	-11.9146
撫之	-11.9146
不知何人	-11.9147
和靖	-11.9148
璨	-11.9148
無病	-11.9149
御座	-11.9149
㕑	-11.9149
不惜	-11.915
子華子	-11.915
罕有	-11.9151
愛君	-11.9151
歸去來	-11.9152
躔	-11.9152
七欽定四庫全書	-11.9152
其側	-11.9153
墜地	-11.9154
誠可	-11.9155
相州	-11.9155
興化	-11.9156
徐陵	-11.9157
讀音	-11.9158
裴晉公	-11.9158
歴年	-11.9159
叔孫通	-11.916
比肩	-11.9161
禹錫	-11.9161
金碧	-11.9166
忠烈	-11.9166
不竭	-11.9166
曲沃	-11.9168
不得志	-11.9168
之為人	-11.9168
磊落	-11.9169
酒泉	-11.9169
無度	-11.917
不聴	-11.917
許州	-11.917
曰非也	-11.917
初九	-11.9172
窮理	-11.9173
都無	-11.9173
六曹	-11.9173
唐六典	-11.9173
郡國志	-11.9175
耶又	-11.9176
黄精	-11.9176
羣盜	-11.9178
公田	-11.9178
對以	-11.9178
哉且	-11.9179
兩旁	-11.9181
司封	-11.9181
寺丞	-11.9182
律中	-11.9182
之制也	-11.9182
金魚	-11.9184
烏程	-11.9184
矣於是	-11.9185
為勝	-11.9186
輔相	-11.9191
其詞曰	-11.9191
後之人	-11.9192
以木為	-11.9193
以為不然	-11.9194
之柄	-11.9196
人君之	-11.9198
申明	-11.9199
胡僧	-11.9199
上曰朕	-11.92
信哉	-11.9203
才子	-11.9203
任事	-11.9203
油煎	-11.9204
古篆	-11.9204
日蝕	-11.9205
亡命	-11.9207
固多	-11.9208
而後已	-11.9208
李固	-11.921
相𫝊	-11.9215
原任	-11.9215
二枚	-11.9216
四種	-11.9218
屬文	-11.9219
老先生	-11.9221
遂廢	-11.9223
失職	-11.9223
素服	-11.9224
須要	-11.9225
館中	-11.9226
文宣王	-11.9227
王旦	-11.9228
惟演	-11.9228
周家	-11.9229
我皇上	-11.9229
武舉	-11.923
委任	-11.9232
之遺意	-11.9235
等項	-11.9237
推恩	-11.9238
萬機	-11.9241
靈素	-11.9243
楚州	-11.9243
職業	-11.9243
重黎	-11.9244
一人而已	-11.9244
命有司	-11.9245
虞集	-11.9245
葉公	-11.9245
山之陽	-11.9246
見一人	-11.9248
溝洫	-11.9248
楙	-11.9248
六兩	-11.925
自家	-11.9251
遷都	-11.9252
肉刑	-11.9252
鸇	-11.9253
相雜	-11.9254
千丈	-11.9254
垜	-11.9254
堙	-11.9255
於其中	-11.9255
縣縣	-11.9256
圈	-11.9256
渤	-11.9256
肢	-11.9256
鼐	-11.9257
鱟	-11.9257
自比	-11.9257
陁	-11.9259
匍匐	-11.9259
蛛	-11.9259
以為笑	-11.9259
束晳	-11.9259
疥	-11.926
漢宫	-11.926
樟	-11.926
長公	-11.926
因思	-11.9261
身輕	-11.9261
道州	-11.9261
祛	-11.9261
抜	-11.9261
蕤	-11.9262
癢	-11.9262
東坡作	-11.9263
陳思王	-11.9263
櫬	-11.9263
三月三日	-11.9264
餻	-11.9264
落筆	-11.9264
繼以	-11.9265
檣	-11.9266
陸贄	-11.9267
著作郎	-11.9267
毘陵	-11.9267
亦由	-11.9267
莘老	-11.9268
周流	-11.9268
俳	-11.927
歸藏	-11.9271
僅見	-11.9271
文淵閣	-11.9272
蛀	-11.9272
按漢書	-11.9272
逺遊	-11.9273
泥封	-11.9274
嘿	-11.9275
猺	-11.9275
尤難	-11.9276
有序	-11.9277
淮海	-11.9277
力辭	-11.9278
人之性	-11.9278
尚方	-11.9278
吟曰	-11.9279
筋力	-11.9281
直方	-11.9282
未備	-11.9282
所治	-11.9285
無知者	-11.9288
沽酒	-11.9288
希聲	-11.929
萬幾	-11.9291
㸃檢	-11.9291
未畢	-11.9292
四凶	-11.9293
順風	-11.9294
上中下	-11.9294
平泉	-11.9295
繁露	-11.9296
花香	-11.9296
其樹	-11.9297
有奇	-11.9297
厯數	-11.9299
璽書	-11.9299
裔孫	-11.9299
郭氏	-11.93
五老	-11.93
升菴引	-11.93
篇中	-11.9301
非止	-11.9301
得其人	-11.9301
三百人	-11.9301
名義	-11.9301
八千	-11.9302
為姦	-11.9303
君臣之義	-11.9304
谷口	-11.9306
南齊書	-11.9306
雪山	-11.9306
口號	-11.9307
供給	-11.9308
神物	-11.9308
詹事府	-11.931
配之	-11.9311
明目	-11.9311
萬邦	-11.9313
一塊	-11.9313
將亡	-11.9314
宣諭	-11.9314
醫藥	-11.9315
之左	-11.9316
轉注	-11.9326
不登	-11.9326
到任	-11.9328
酒令	-11.933
一座	-11.933
杜門	-11.933
朝天	-11.9331
早朝	-11.9332
火焚	-11.9332
瓊花	-11.9334
橘皮	-11.9334
尊長	-11.9336
大患	-11.9336
𫝊云	-11.9337
稱帝	-11.9338
蜀道	-11.9338
聖諭	-11.9339
而後能	-11.9339
請問	-11.934
文簡公	-11.934
終南山	-11.934
所望	-11.9341
高陽	-11.9341
古詩云	-11.9342
延安	-11.9343
良醫	-11.9343
明夷	-11.9343
才人	-11.9345
麻衣	-11.9345
稱賞	-11.9346
所鑄	-11.9347
之以禮	-11.9348
庶吉	-11.9348
五代時	-11.935
取義	-11.935
受命之	-11.9351
雪詩	-11.9351
雲門	-11.9352
於京師	-11.9353
金盤	-11.9353
苦寒	-11.9353
者也夫	-11.9354
累世	-11.9354
應詔	-11.9357
知之者	-11.9357
南行	-11.9358
黄巢	-11.9359
諡曰	-11.9359
某年	-11.936
吾師	-11.9363
清廟	-11.9365
愚者曰	-11.9365
一介	-11.9366
弑君	-11.9367
殿後	-11.9367
五百人	-11.9368
秋日	-11.937
巵言	-11.937
殿中侍御史	-11.937
黄石	-11.937
古未有	-11.9371
矣是故	-11.9371
木為之	-11.9371
史記作	-11.9372
茍非	-11.9372
螽	-11.9373
袈裟	-11.9374
葢亦	-11.9374
傳於世	-11.9375
雎	-11.9375
竹簡	-11.9375
龍眼	-11.9376
君臣相	-11.9376
之所以為	-11.9377
性善	-11.9378
崇政殿	-11.9379
立碑	-11.9379
四十萬	-11.938
歳時	-11.938
瘳	-11.938
咮	-11.9381
所恃	-11.9381
萬福	-11.9381
簞	-11.9381
槧	-11.9382
女樂	-11.9382
老耼	-11.9382
綫	-11.9382
請命	-11.9383
瑪	-11.9383
只如	-11.9383
鳳皇	-11.9384
懵	-11.9385
李商隠	-11.9385
白术	-11.9386
青陽	-11.9386
吾友	-11.9386
爺	-11.9387
雍熈	-11.9387
雜家類三	-11.9388
甎	-11.9388
頓挫	-11.9388
𠂻	-11.9389
檝	-11.9389
閭巷	-11.939
積水	-11.939
邴	-11.9391
箒	-11.9391
夾鍾	-11.9392
盬	-11.9392
屹	-11.9393
為諸侯	-11.9393
盟于	-11.9393
落落	-11.9394
宋濓	-11.9394
長孫	-11.9395
蘇子由	-11.9396
韓昌黎	-11.9396
于庭	-11.9397
印綬	-11.9398
咸淳	-11.9398
大德	-11.9399
周道	-11.94
不伐	-11.94
佛老	-11.94
眼中	-11.9401
盤中	-11.9401
應物	-11.9401
儒術	-11.9402
漸漸	-11.9404
不韋	-11.9404
趯	-11.9405
凉州	-11.9405
民田	-11.9405
司理	-11.9405
芝草	-11.9406
宋齊	-11.9406
忠恕	-11.9407
鄰里	-11.9407
僧尼	-11.9409
五百年	-11.9409
龍飛	-11.9409
討賊	-11.9412
過度	-11.9412
永明	-11.9412
順天府	-11.9413
孟子所謂	-11.9415
鈆	-11.9415
氣血	-11.9416
戚里	-11.9416
臣恐	-11.9416
自愛	-11.9417
二句言	-11.9417
水底	-11.9418
蔬食	-11.9419
道左	-11.9419
家富	-11.942
得其所	-11.9421
四國	-11.9421
百官志	-11.9422
此條	-11.9422
邊境	-11.9423
桃枝	-11.9423
鶴山	-11.9425
上仙	-11.9426
四錢	-11.9426
其類也	-11.9427
九州之	-11.9429
中吕	-11.9431
驚駭	-11.9432
西行	-11.9432
經綸	-11.9433
十有六	-11.9435
老母	-11.9436
用修	-11.9436
言路	-11.9436
細辛	-11.9437
用銀	-11.9438
東征	-11.9438
佩玉	-11.9439
承嗣	-11.944
梁公	-11.9441
遭遇	-11.9441
龍眠	-11.9444
三苗	-11.9445
邵氏	-11.9445
俱可	-11.9446
孟子言	-11.9448
字季	-11.9449
清話	-11.9449
左旋	-11.945
大祀	-11.9453
幽人	-11.9453
錢文	-11.9453
皇祐中	-11.9456
唐𤣥宗	-11.9457
如彼	-11.9458
千里之外	-11.9458
小序	-11.9458
從兄	-11.9459
不减	-11.9459
五十三	-11.9459
並作	-11.946
之爲言	-11.946
下視	-11.946
汝輩	-11.946
未改	-11.9464
夷則	-11.9465
是真	-11.9466
眼前	-11.9466
既多	-11.9467
初平	-11.9468
求福	-11.9469
趙彦	-11.947
從弟	-11.9471
羣公	-11.9471
南詔	-11.9473
溪水	-11.9474
鬼谷子	-11.9474
記憶	-11.9479
歸心	-11.948
小白	-11.948
彦逺	-11.9481
六宫	-11.9484
但當	-11.9485
或問曰	-11.9486
雕刻	-11.9487
昊天	-11.9488
林寺	-11.9488
心動	-11.9489
易名	-11.949
小過	-11.949
他官	-11.949
紅絲	-11.9491
有道士	-11.9491
何暇	-11.9492
専以	-11.9493
能制	-11.9493
幼孜	-11.9495
習俗	-11.9495
橛	-11.9499
匜	-11.95
沬	-11.95
景靈宫	-11.9501
有虞氏	-11.9501
律厯志	-11.9501
猱	-11.9502
祀天	-11.9502
甚易	-11.9503
涂	-11.9503
鎚	-11.9505
刑部侍郎	-11.9505
遡	-11.9505
縦	-11.9506
嬙	-11.9506
窪	-11.9506
遨	-11.9506
衒	-11.9506
漢官儀	-11.9507
禅	-11.9508
詫	-11.9508
逍遙	-11.9508
腮	-11.9509
而遽	-11.9509
夏殷	-11.9509
乾隆四十六年	-11.9509
津液	-11.9509
䜿	-11.9509
八分書	-11.9509
畎	-11.951
廣川	-11.951
狀元及第	-11.951
瓦礫	-11.951
罸	-11.9511
吾儒	-11.9511
交通	-11.9511
鏘	-11.9512
醅	-11.9512
灋	-11.9512
菩提	-11.9513
弓弩	-11.9513
跋扈	-11.9513
黍稷	-11.9514
秔	-11.9515
金樓子	-11.9517
致意	-11.9518
祼	-11.9519
善行	-11.9519
稱之曰	-11.9519
不可勝計	-11.952
國體	-11.952
毫髪	-11.9521
百合	-11.9521
别本	-11.9522
石虎	-11.9522
黨人	-11.9523
河豚	-11.9523
不附	-11.9524
怪石	-11.9525
凡九	-11.9525
東宮	-11.9526
樂舞	-11.9526
俯伏	-11.9527
臨池	-11.9527
明堂位	-11.9529
不能對	-11.953
可驗	-11.9531
門下侍郎	-11.9533
如是者	-11.9535
論道	-11.9535
正論	-11.9536
周文王	-11.9536
六五	-11.9538
其智	-11.954
等分	-11.954
果實	-11.9541
清泉	-11.9541
洛下	-11.9545
夷陵	-11.9545
操行	-11.9545
霜露	-11.9546
張敞	-11.9548
約束	-11.9548
風雪	-11.955
上曰卿	-11.9551
白龍	-11.9552
全體	-11.9553
所難	-11.9554
禮法	-11.9555
七廟	-11.9556
百世之	-11.9557
嫌疑	-11.9558
之人也	-11.9558
任用	-11.9559
鄭氏注	-11.9561
不可以為	-11.9561
不可廢	-11.9562
公孫龍	-11.9562
竟不能	-11.9562
異物志	-11.9562
各得其	-11.9564
花草	-11.9564
得幸	-11.9564
仁義之	-11.9565
精巧	-11.9566
儀注	-11.9567
八極	-11.9567
孔光	-11.957
大丈夫	-11.9571
使副	-11.9575
誰知	-11.9576
未到	-11.9576
既歸	-11.9576
題字	-11.9582
宣示	-11.9582
武都	-11.9583
獨存	-11.9584
三郎	-11.9584
樓子	-11.9587
嫁女	-11.9587
縣丞	-11.9588
積聚	-11.9591
建平	-11.9593
一頭	-11.9594
尚書侍郎	-11.9598
道旁	-11.9602
自投	-11.9605
傅説	-11.9605
亦未必	-11.9607
部院	-11.9607
事物	-11.9608
田氏	-11.961
巍	-11.961
者未必	-11.9611
不可盡	-11.9611
用藥	-11.9611
宮人	-11.9612
備載	-11.9613
何疑	-11.9614
東夷	-11.9616
鞘	-11.9617
後殿	-11.9617
作去聲	-11.9617
但恐	-11.9618
不悅	-11.9618
黃金	-11.9619
親屬	-11.9621
尹氏	-11.9623
中第	-11.9624
豈亦	-11.9625
仕於	-11.9625
先臣	-11.9625
輿服志	-11.9625
建中靖國	-11.9625
和親	-11.9626
晁以道	-11.9629
踣	-11.9629
喑	-11.963
籕	-11.9631
膊	-11.9632
仕學規範卷	-11.9632
之望	-11.9632
鮪	-11.9632
燖	-11.9632
掊	-11.9633
韙	-11.9633
㬥	-11.9633
明通紀	-11.9634
囹圄	-11.9634
埜	-11.9635
波瀾	-11.9635
紓	-11.9635
蒔	-11.9635
閭閻	-11.9636
劈	-11.9636
太素	-11.9636
三人皆	-11.9637
龍舟	-11.9638
溝壑	-11.9638
竹杖	-11.9638
祈禱	-11.9639
忠愍	-11.9639
縶	-11.964
豫讓	-11.964
揑	-11.9641
稱職	-11.9641
冽	-11.9642
詒	-11.9643
開禧	-11.9643
案此	-11.9643
蔭	-11.9644
集注	-11.9644
賔主	-11.9645
鄧艾	-11.9646
降詔	-11.9646
尤工	-11.9649
十餘日	-11.9649
隨手	-11.965
萱草	-11.965
退居	-11.9651
熙寧中	-11.9652
興師	-11.9652
永初	-11.9652
祖父母	-11.9652
白魚	-11.9653
曲阜	-11.9654
袖中	-11.9656
郢州	-11.9657
奏曰臣	-11.9659
兼愛	-11.9661
其像	-11.9664
一畝	-11.9665
偽書	-11.9665
平定	-11.9666
増損	-11.9666
官品	-11.9667
陳勝	-11.9668
援引	-11.9668
翊日	-11.9669
固宜	-11.9669
我家	-11.9671
財賦	-11.9671
叔祖	-11.9671
衡陽	-11.9674
翕然	-11.9674
變色	-11.9675
政事堂	-11.9675
中庭	-11.9675
所遇	-11.9676
姓字	-11.9676
孤寒	-11.9676
受封	-11.9678
鬼谷	-11.9679
所編	-11.9679
晉卿	-11.9681
科名	-11.9681
戰國時	-11.9683
造次	-11.9684
字下有	-11.9684
隠隠	-11.9684
宰予	-11.969
也古之	-11.9692
伏望	-11.9692
不敢復	-11.9693
美玉	-11.9695
靖難	-11.9696
商量	-11.9697
嫌名	-11.9697
立論	-11.9698
俚俗	-11.9698
郭注	-11.9699
神化	-11.97
甘泉賦	-11.9702
顯宗	-11.9704
花紋	-11.9705
賜酒	-11.9705
今人多	-11.9706
灌夫	-11.9708
八嵗	-11.971
奏乞	-11.9711
記載	-11.9711
自解	-11.9712
清談	-11.9713
第一人	-11.9715
公室	-11.9717
聖王之	-11.9717
精兵	-11.9718
老圃	-11.9719
公車	-11.9719
魏相	-11.9722
花紅	-11.9722
甕中	-11.9723
治河	-11.9728
君子所	-11.973
羣玉	-11.9731
凡事	-11.9732
千卷	-11.9733
筆書	-11.9734
晚節	-11.9735
消長	-11.9735
皆屬	-11.9735
雲漢	-11.9738
簡文	-11.9738
。」	-11.9739
遺意	-11.9739
欲殺之	-11.974
潤色	-11.9741
夫妻	-11.9742
燋	-11.9744
濼	-11.9745
無狀	-11.9746
呉郡	-11.9746
司直	-11.9748
甚愛	-11.9748
清議	-11.9748
豺	-11.9749
破家	-11.975
一槩	-11.975
之心也	-11.9751
舉動	-11.9751
猨	-11.9752
郊特牲	-11.9752
同舍	-11.9752
祅	-11.9753
曲終	-11.9754
未終	-11.9754
詔獄	-11.9755
㒺	-11.9755
鴞	-11.9756
觶	-11.9756
磨勘	-11.9756
極細	-11.9756
始定	-11.9756
緼	-11.9756
七七	-11.9757
賃	-11.9758
不輕	-11.9758
正位	-11.9758
洪崖	-11.9759
忠於	-11.9759
鄜	-11.976
丈許	-11.9761
冇	-11.9761
鬻子	-11.9761
遂定	-11.9762
司馬懿	-11.9762
穽	-11.9762
淬	-11.9763
蔥	-11.9763
者莫如	-11.9763
之譽	-11.9763
肄	-11.9763
蜥蜴	-11.9763
灼然	-11.9764
洋洋	-11.9764
冉冉	-11.9764
堕	-11.9765
鑱	-11.9766
榔	-11.9766
仁宗時	-11.9766
謄	-11.9766
所以爲	-11.9767
神妙	-11.9767
援筆	-11.9768
秀州	-11.9768
天官書	-11.9769
嘉話	-11.977
可惜也	-11.977
匡衡	-11.977
囉	-11.977
左都御史	-11.9771
逗	-11.9771
盆中	-11.9772
暮春	-11.9772
布施	-11.9772
曰何不	-11.9774
自餘	-11.9774
愛憎	-11.9777
之失也	-11.9778
將歸	-11.9781
知舉	-11.9782
長尺餘	-11.9783
赤眉	-11.9784
不能容	-11.9784
正獻公	-11.9785
服色	-11.9788
香火	-11.9788
神名	-11.9789
孝王	-11.979
而哭	-11.979
何義	-11.9791
如此類	-11.9792
指此	-11.9792
布政	-11.9792
色深	-11.9793
如淳	-11.9793
六十三	-11.9796
了翁	-11.9797
墓碑	-11.9797
珍異	-11.9797
甘棠	-11.9798
名譽	-11.9798
庖人	-11.9799
中選	-11.9799
獻子	-11.9799
等級	-11.9799
得其實	-11.98
南極	-11.9801
詩話云	-11.9802
賢能	-11.9802
馮夷	-11.9802
太祖皇帝	-11.9802
田園	-11.9803
之名也	-11.9805
甚少	-11.9807
宣召	-11.9807
舊文	-11.9807
交錯	-11.9808
可謂善	-11.9808
唐莊宗	-11.9809
百一十	-11.9812
三百餘	-11.9812
外紀	-11.9814
十有二月	-11.9815
齊州	-11.9815
彭越	-11.9815
神霄	-11.9815
其視	-11.9817
國之大	-11.9818
成風	-11.9819
車輪	-11.9819
宴樂	-11.9819
下民	-11.982
女奴	-11.982
園池	-11.9821
論列	-11.9824
盛唐	-11.9824
部中	-11.9825
求去	-11.9826
人品	-11.9827
不壊	-11.983
一言而	-11.9831
疾風	-11.9837
長平	-11.9841
永樂中	-11.9842
被誅	-11.9843
玉帛	-11.9843
各置	-11.9843
用之則	-11.9845
方悟	-11.9848
龍城	-11.9848
軍容	-11.9848
仙家	-11.9849
齋中	-11.9851
徙居	-11.9851
大将軍	-11.9851
經宿	-11.9853
仍令	-11.9853
亦竒	-11.9853
何以異	-11.9856
燕京	-11.9862
袁州	-11.9862
吾何	-11.9863
大抵皆	-11.9864
更定	-11.9866
所録	-11.9868
涿	-11.9869
臨濟	-11.9869
猶今之	-11.9871
官田	-11.9873
太學生	-11.9874
永和	-11.9874
比丘	-11.9874
選擇	-11.9875
孫武	-11.9875
景雲	-11.9875
反正	-11.9876
坐卧	-11.9877
帝乙	-11.9879
犧牲	-11.988
獲免	-11.988
繪事	-11.9881
甚善	-11.9882
伍子胥	-11.9883
宋文帝	-11.9883
願為	-11.9883
相感	-11.9883
高士	-11.9884
華清宫	-11.9884
所據	-11.9885
𡨕	-11.9885
絀	-11.9885
侍講學士	-11.9885
埸	-11.9886
當更	-11.9886
瘖	-11.9886
程大昌	-11.9886
博聞	-11.9887
鸕鷀	-11.9887
易知	-11.9888
幀	-11.9888
翬	-11.9888
不虛	-11.9889
演繁露	-11.989
郅	-11.989
簀	-11.989
牴牾	-11.9892
淋漓	-11.9892
橈	-11.9892
班孟堅	-11.9893
房𤣥齡	-11.9894
粟米	-11.9894
懿宗	-11.9894
伏地	-11.9895
郇	-11.9895
馬嵬	-11.9896
不能禁	-11.9896
倉廩	-11.9896
崔浩	-11.9896
鉄	-11.9896
天錫	-11.9896
衮冕	-11.9897
衂	-11.9898
文子曰	-11.9899
北齊書	-11.9899
留後	-11.9899
知足	-11.9901
申屠	-11.9902
者鮮矣	-11.9902
金絲	-11.9904
坎離	-11.9904
松脂	-11.9905
天子諸侯	-11.9908
黄銀	-11.9908
蛾眉	-11.9908
非但	-11.9909
舊典	-11.9909
勿使	-11.991
問其所	-11.991
無差	-11.9911
遲速	-11.9911
墨翟	-11.9912
蘄州	-11.9913
冬官	-11.9914
紫芝	-11.9915
元長	-11.9915
珍重	-11.9917
者殆	-11.9918
是歲	-11.9919
又東北	-11.9919
五十萬	-11.9919
皎然	-11.9922
憂國	-11.9923
田里	-11.9924
血脉	-11.9925
纂修	-11.9928
其偽	-11.9928
忠良	-11.9928
襄州	-11.9928
後人因	-11.9929
禮部韻	-11.993
衣帶	-11.9932
黒白	-11.9933
之分野	-11.9933
發憤	-11.9933
鞍馬	-11.9934
人不識	-11.9936
儀仗	-11.9937
羣下	-11.9938
白黑	-11.9938
快意	-11.9938
銅鐵	-11.9938
大賢	-11.9938
編次	-11.9939
未久	-11.9939
何况	-11.9941
廢帝	-11.9942
撫州	-11.9944
賈人	-11.9944
園林	-11.9944
凡物	-11.9946
略同	-11.9948
新宫	-11.9948
句句	-11.9949
八方	-11.995
桀紂之	-11.9951
外朝	-11.9953
蘇林	-11.9953
娶妻	-11.9956
資格	-11.9959
池州	-11.9959
氣節	-11.9961
失所在	-11.9962
逸書	-11.9963
飛揚	-11.9963
座主	-11.9963
荆山	-11.9966
康熈	-11.9966
八十餘	-11.9967
此二人	-11.9968
精誠	-11.9969
指揮使	-11.997
何晏	-11.9972
部曲	-11.9972
經略	-11.9973
因號	-11.9974
篋中	-11.9976
申生	-11.9976
疾苦	-11.9978
在昔	-11.998
相違	-11.9984
致政	-11.9985
立冬	-11.9987
是以知	-11.9988
隠士	-11.9988
李白詩	-11.9989
星紀	-11.9989
甚苦	-11.9995
麾下	-11.9995
而歸之	-11.9996
鈐轄	-11.9997
聖門	-11.9997
連珠	-11.9998
六帖	-11.9999
拾遺記	-12.0001
不可不知	-12.0001
而求之	-12.0001
唐以前	-12.0002
始於此	-12.0004
武士	-12.0004
校定	-12.0004
子華子曰	-12.0005
淞	-12.0006
過客	-12.0006
試進士	-12.0006
筆畫	-12.0007
復加	-12.0008
手指	-12.0009
草創	-12.0009
蔡傳	-12.0009
者輙	-12.001
儀制	-12.0011
絙	-12.0011
出於此	-12.0011
渾然	-12.0011
孟夏	-12.0012
所蓄	-12.0012
砭	-12.0013
范仲淹	-12.0013
鰥	-12.0013
辠	-12.0014
榮華	-12.0015
鍛	-12.0016
而作是詩	-12.0016
㠶	-12.0017
凜	-12.0017
皇甫湜	-12.0017
離宫	-12.0017
借書	-12.0017
顧問	-12.0018
濩	-12.0018
漪	-12.0018
旰	-12.0019
韓侂胄	-12.002
外物	-12.002
沃之	-12.002
先農	-12.0021
靈星	-12.0021
學記	-12.0021
罨	-12.0022
㢤	-12.0022
沇	-12.0023
郭忠恕	-12.0023
者為之	-12.0024
盧仝	-12.0024
美名	-12.0024
丹鉛	-12.0025
艦	-12.0025
樁	-12.0026
渣	-12.0026
柘枝	-12.0026
光澤	-12.0027
元老	-12.0028
車載	-12.0029
忽夢	-12.0029
煉蜜	-12.0029
僮僕	-12.003
未央宫	-12.003
羯鼓	-12.0031
屋上	-12.0033
必由	-12.0033
不屑	-12.0033
蓮子	-12.0034
諼	-12.0035
林邑	-12.0035
此二事	-12.0035
金門	-12.0035
情欲	-12.0036
滄州	-12.0037
糯	-12.0037
野史	-12.0037
暴虐	-12.0037
寡君	-12.0038
致太平	-12.0038
可謂知	-12.0038
以是為	-12.004
下手	-12.004
未死	-12.004
壽春	-12.0041
祖廟	-12.0042
率衆	-12.0043
以金銀	-12.0043
節奏	-12.0044
到官	-12.0045
成數	-12.0047
妻妾	-12.0049
庶乎	-12.0049
千斤	-12.005
嘗夢	-12.005
政和中	-12.0052
鄭谷	-12.0053
若之何	-12.0054
不告	-12.0054
悦之	-12.0055
天福	-12.0056
修史	-12.0061
閨門	-12.0061
禽經	-12.0062
酋長	-12.0062
國號	-12.0064
長睿	-12.0065
不能免	-12.0065
殿内	-12.0067
帝帝	-12.0068
然後可	-12.0069
陽翟	-12.0071
弟兄	-12.0073
愈多	-12.0075
飽食	-12.0076
遺法	-12.0079
草廬	-12.008
還朝	-12.008
側有	-12.008
庭堅	-12.0081
京都	-12.0082
嫁之	-12.0085
翠微	-12.0085
金史	-12.0085
潁州	-12.0086
楊柳	-12.0086
韓氏	-12.0087
開口	-12.0089
夫如是	-12.0095
大司農	-12.0095
紹興初	-12.0097
修道	-12.0099
白鷺	-12.0107
山濤	-12.0107
遁去	-12.011
味苦	-12.0111
愚民	-12.0111
王珪	-12.0111
坡詩	-12.0111
歐陽文忠	-12.0115
大典	-12.0115
元年正月	-12.0117
一類	-12.0117
黄連	-12.0119
金蓮	-12.0123
其謬	-12.0123
後来	-12.0125
薦舉	-12.0125
鄆州	-12.0126
不知其所	-12.0128
試官	-12.0129
新羅	-12.0129
李嶠	-12.013
小楷	-12.013
譴告	-12.0131
勤王	-12.0131
能勝	-12.0133
賦役	-12.0133
莫之能	-12.0135
可與言	-12.0135
擢用	-12.0136
下降	-12.0138
孝子之	-12.014
噱	-12.014
蝙蝠	-12.0141
五侯	-12.0141
巉	-12.0142
[...]
