<unk>	0
<s>	0
</s>	0
之	-4.33378
/	-4.77976
而	-4.83574
(	-4.89584
以	-5.11231
)	-5.17183
也	-5.22135
為	-5.41845
有	-5.42064
於	-5.48193
其	-5.5103
者	-5.64008
不	-5.72871
人	-5.72898
一	-5.84028
無	-5.85629
)(	-5.96092
自	-6.00095
則	-6.00952
與	-6.10281
上	-6.14152
如	-6.17552
行	-6.17573
曰	-6.17946
時	-6.19722
中	-6.21586
作	-6.237
/)	-6.26644
生	-6.29379
兮	-6.30816
山	-6.31162
在	-6.31293
天	-6.31757
子	-6.33187
大	-6.33242
見	-6.34978
公	-6.36569
得	-6.38362
出	-6.4124
書	-6.41843
此	-6.42989
心	-6.46621
下	-6.47019
言	-6.47398
事	-6.4767
明	-6.47757
長	-6.48481
日	-6.48904
道	-6.51154
王	-6.5183
文	-6.52066
是	-6.53349
詩	-6.53413
來	-6.5403
故	-6.54904
水	-6.56152
歸	-6.57423
至	-6.58042
風	-6.5941
君	-6.60208
多	-6.60429
入	-6.60628
乎	-6.6071
同	-6.60784
▁	-6.6229
非	-6.6285
我	-6.6314
欲	-6.64439
已	-6.64797
所	-6.65035
去	-6.66942
亦	-6.67358
知	-6.68241
又	-6.68757
雲	-6.69036
春	-6.69617
三	-6.69828
相	-6.69922
成	-6.70566
若	-6.71299
皆	-6.74005
逺	-6.74632
將	-6.75806
一作	-6.76488
重	-6.76787
今	-6.77273
方	-6.77408
于	-6.77819
復	-6.78103
矣	-6.78495
可	-6.78583
清	-6.79786
使	-6.82175
當	-6.82286
思	-6.84388
名	-6.84481
乃	-6.84692
何	-6.84882
過	-6.85086
未	-6.85179
深	-6.85338
後	-6.85557
盡	-6.86258
花	-6.87337
臣	-6.87934
然	-6.88843
空	-6.8947
石	-6.89728
髙	-6.89755
新	-6.89843
月	-6.9001
正	-6.90645
用	-6.90903
從	-6.91587
前	-6.92514
聞	-6.92763
開	-6.94432
地	-6.94466
官	-6.96702
傳	-6.98035
秋	-6.98927
及	-6.99348
初	-6.99877
雖	-7.00643
還	-7.02225
焉	-7.02385
金	-7.02448
聲	-7.02553
或	-7.02724
意	-7.03438
分	-7.03526
元	-7.0448
猶	-7.04657
且	-7.04737
起	-7.04737
二	-7.05045
玉	-7.05356
樂	-7.05716
望	-7.06281
能	-7.0676
居	-7.06831
既	-7.07066
字	-7.07196
家	-7.07411
老	-7.08025
應	-7.08118
飛	-7.0822
流	-7.09165
更	-7.09626
寒	-7.10714
和	-7.1116
處	-7.11246
小	-7.11977
賦	-7.12591
神	-7.13029
因	-7.13411
惟	-7.13612
夫	-7.13643
獨	-7.13745
身	-7.14342
爲	-7.14608
古	-7.14642
安	-7.15614
白	-7.15723
難	-7.15786
立	-7.16624
光	-7.16692
平	-7.1715
朝	-7.17168
命	-7.17329
先	-7.17411
觀	-7.17485
謂	-7.17791
吾	-7.17909
國	-7.17987
歌	-7.18113
客	-7.18211
西	-7.19507
夜	-7.19892
馬	-7.20041
南	-7.20383
通	-7.20391
發	-7.21062
令	-7.21148
世	-7.21493
常	-7.21496
好	-7.21672
情	-7.22547
陳	-7.23356
民	-7.23584
兵	-7.23771
氣	-7.24162
學	-7.24862
門	-7.25292
必	-7.25447
張	-7.25513
五	-7.25706
外	-7.2619
經	-7.26381
徳	-7.27202
合	-7.27807
遂	-7.2782
始	-7.2783
路	-7.28637
東	-7.28733
周	-7.28878
州	-7.28904
雨	-7.29216
論	-7.2938
題	-7.2953
四	-7.29988
酒	-7.3129
間	-7.31526
云	-7.31667
法	-7.32116
實	-7.32298
圖	-7.32691
似	-7.32812
送	-7.32904
遊	-7.33428
漢	-7.33466
香	-7.33921
士	-7.34567
問	-7.34805
數	-7.35107
本	-7.35406
寄	-7.35877
城	-7.36278
舊	-7.36396
集	-7.36404
近	-7.36757
尚	-7.36771
别	-7.36868
興	-7.37446
坐	-7.37542
樹	-7.37734
善	-7.37913
禮	-7.37942
即	-7.37977
易	-7.3834
動	-7.38727
絶	-7.39527
龍	-7.39629
死	-7.3965
莫	-7.39679
兩	-7.39758
取	-7.40017
師	-7.40492
守	-7.41539
舉	-7.41598
少	-7.41677
共	-7.42064
唐	-7.42325
義	-7.42362
年	-7.42554
信	-7.42771
江	-7.43162
志	-7.43232
向	-7.43706
林	-7.43877
齊	-7.44568
定	-7.44651
語	-7.45094
曲	-7.45114
,	-7.45278
辭	-7.45759
李	-7.46057
臨	-7.46164
北	-7.47391
度	-7.474
天下	-7.47681
稱	-7.4772
求	-7.47733
亂	-7.4791
輕	-7.48639
理	-7.48748
爾	-7.49216
華	-7.49964
不可	-7.50031
諸	-7.50226
雪	-7.50362
物	-7.50535
青	-7.50643
滿	-7.51177
登	-7.51543
帝	-7.51788
竹	-7.52053
以為	-7.52625
宜	-7.52677
落	-7.52912
異	-7.53731
黄	-7.53812
隨	-7.54132
終	-7.54175
陽	-7.54337
真	-7.54353
直	-7.54377
色	-7.54534
高	-7.54593
秦	-7.54809
九	-7.5491
哉	-7.55831
節	-7.56531
海	-7.567
親	-7.57226
靈	-7.57333
草	-7.57363
閒	-7.58602
看	-7.58724
進	-7.59165
衣	-7.59178
愁	-7.59969
㑹	-7.60051
不能	-7.60323
彼	-7.60515
對	-7.6089
到	-7.61413
景	-7.61535
留	-7.61997
宋	-7.62892
餘	-7.63243
足	-7.63276
宫	-7.63441
懐	-7.6419
食	-7.64206
内	-7.64527
豈	-7.65133
幽	-7.65396
載	-7.65436
六	-7.65757
功	-7.6616
予	-7.66267
田	-7.66618
等	-7.66934
請	-7.67504
女	-7.67637
先生	-7.67685
失	-7.67957
任	-7.68108
紅	-7.68376
驚	-7.68423
衆	-7.68501
喜	-7.68604
耳	-7.69012
散	-7.69067
服	-7.69131
葉	-7.6953
而不	-7.69615
連	-7.69773
垂	-7.69901
奉	-7.70403
窮	-7.70694
力	-7.70696
斯	-7.70768
畫	-7.70917
著	-7.71034
賢	-7.71771
封	-7.7223
疑	-7.72517
主	-7.7262
德	-7.72695
半	-7.7271
野	-7.72786
固	-7.72879
隂	-7.73041
寺	-7.73534
轉	-7.73544
才	-7.74083
鳴	-7.74497
余	-7.74881
變	-7.75228
治	-7.75513
素	-7.76312
謝	-7.7635
聖	-7.76455
勝	-7.76514
記	-7.76588
制	-7.76803
顧	-7.7687
贈	-7.77146
車	-7.77175
夢	-7.7743
軍	-7.77601
武	-7.77606
表	-7.77671
劉	-7.77954
愛	-7.78217
化	-7.78695
受	-7.78854
甚	-7.78902
仙	-7.79131
聽	-7.79237
孤	-7.79288
修	-7.79591
楚	-7.79836
魚	-7.79977
不知	-7.80197
照	-7.8032
益	-7.80539
百	-7.80542
解	-7.80618
梁	-7.81065
萬	-7.81175
微	-7.81717
引	-7.81797
致	-7.81804
容	-7.81896
羣	-7.81985
悲	-7.82218
縣	-7.82453
久	-7.82468
結	-7.8311
廣	-7.83189
病	-7.83312
極	-7.83427
所以	-7.83526
溪	-7.83546
巳	-7.83587
遺	-7.83613
宿	-7.84053
頭	-7.84057
誰	-7.84101
泉	-7.84117
侯	-7.84151
交	-7.84426
都	-7.85296
忽	-7.85508
邊	-7.85806
星	-7.85951
土	-7.86013
願	-7.86326
識	-7.86545
誠	-7.86625
卒	-7.86639
臺	-7.8671
薄	-7.86872
斷	-7.86939
塵	-7.86959
比	-7.86984
休	-7.87156
影	-7.872
𤣥	-7.87227
苦	-7.87328
感	-7.8736
教	-7.87409
兼	-7.87634
章	-7.87769
奏	-7.87826
松	-7.87927
期	-7.88212
政	-7.8824
醉	-7.88338
移	-7.88496
尋	-7.88733
貴	-7.88754
手	-7.88822
反	-7.88914
良	-7.88994
美	-7.89094
體	-7.89102
徒	-7.89459
首	-7.89565
浮	-7.89587
河	-7.89988
氏	-7.90065
寧	-7.90148
来	-7.90156
承	-7.90169
露	-7.90311
仁	-7.90773
木	-7.90834
憂	-7.9124
鳥	-7.91313
晉	-7.9149
被	-7.91903
屬	-7.92129
列	-7.92455
。	-7.92456
音	-7.92741
夏	-7.9311
便	-7.93464
堂	-7.93549
存	-7.93974
燕	-7.94168
府	-7.94275
懷	-7.94395
議	-7.94717
却	-7.94903
視	-7.94997
嵗	-7.9506
利	-7.95261
並	-7.95287
煙	-7.95309
舞	-7.9542
不得	-7.95446
吟	-7.95473
曉	-7.95733
火	-7.95749
遷	-7.9582
破	-7.95928
永	-7.9609
亭	-7.96219
趙	-7.96294
幸	-7.96379
念	-7.96547
降	-7.96787
霜	-7.96821
吏	-7.96881
朱	-7.97209
宗	-7.97455
凡	-7.97483
越	-7.97752
亡	-7.97899
説	-7.98118
父	-7.98146
詔	-7.98152
飲	-7.98234
榮	-7.9825
集作	-7.98391
止	-7.98436
伯	-7.98713
許	-7.98794
離	-7.98817
笑	-7.99706
次	-7.99954
恩	-8.00002
俗	-8.00098
游	-8.00433
翠	-8.00476
僧	-8.00526
之所	-8.0074
賜	-8.00937
尊	-8.0101
口	-8.01195
吳	-8.01253
盛	-8.01288
郡	-8.01293
波	-8.01442
拜	-8.0147
惡	-8.01737
俱	-8.01799
樓	-8.01817
建	-8.01869
目	-8.01894
昔	-8.01901
代	-8.01954
序	-8.02431
雙	-8.02442
持	-8.02586
計	-8.02658
御	-8.02737
傷	-8.02744
十	-8.02843
八	-8.03323
謀	-8.03331
七	-8.03341
巻	-8.03373
各	-8.0341
象	-8.03489
竒	-8.03862
位	-8.04008
適	-8.04151
勞	-8.04308
横	-8.04451
裏	-8.04717
指	-8.04887
庭	-8.04943
嚴	-8.05043
闕	-8.05052
池	-8.05688
精	-8.0582
就	-8.05882
芳	-8.05925
積	-8.05985
藏	-8.06234
虚	-8.06358
形	-8.07154
加	-8.07166
全	-8.07285
萬里	-8.07292
天子	-8.08012
哀	-8.08124
荒	-8.08514
授	-8.08792
號	-8.09425
往	-8.09441
嘗	-8.09668
依	-8.09794
千	-8.09982
除	-8.10144
報	-8.10188
史	-8.10557
獻	-8.10583
枝	-8.10894
卿	-8.11036
幾	-8.11176
待	-8.1119
鶴	-8.11306
要	-8.11383
帶	-8.11464
汝	-8.11488
含	-8.11737
性	-8.11938
室	-8.12052
由	-8.1235
遇	-8.12395
罷	-8.12416
千里	-8.12528
碧	-8.1271
崇	-8.13049
逐	-8.13251
皇	-8.13269
鄉	-8.13276
業	-8.13362
敬	-8.13433
回	-8.13589
危	-8.13734
沈	-8.13735
具	-8.1375
置	-8.13987
改	-8.14018
魏	-8.14107
右	-8.14169
備	-8.14198
疾	-8.14234
戰	-8.14427
接	-8.14431
急	-8.14436
紀	-8.14492
晚	-8.14723
怨	-8.14744
養	-8.14814
陵	-8.14822
原	-8.14875
孫	-8.15123
兹	-8.15542
君子	-8.15798
早	-8.15832
胡	-8.15862
類	-8.159
廢	-8.16375
於是	-8.164
須	-8.16535
蓋	-8.16547
每	-8.16728
殘	-8.16911
可以	-8.16912
負	-8.16936
楊	-8.16986
威	-8.17003
簡	-8.17097
試	-8.17134
祖	-8.1725
緑	-8.1727
廟	-8.17335
隔	-8.17364
切	-8.17449
嘉	-8.1747
宣	-8.17603
司	-8.1761
息	-8.17807
閣	-8.17932
告	-8.18084
逢	-8.18511
收	-8.18705
忠	-8.18761
殿	-8.18787
勢	-8.18965
左	-8.1902
折	-8.19435
羅	-8.19532
沙	-8.19769
賞	-8.19957
再	-8.20851
篇	-8.21017
吹	-8.21114
栁	-8.21233
韻	-8.21456
咸	-8.21762
調	-8.21886
舟	-8.2195
雜	-8.22095
恨	-8.22194
澤	-8.2266
詞	-8.22762
寳	-8.22976
省	-8.23151
昭	-8.23159
郎	-8.2356
但	-8.23958
将	-8.24043
殊	-8.2436
厚	-8.24531
詠	-8.24919
母	-8.24987
懸	-8.25016
憶	-8.25016
者也	-8.25156
徐	-8.25229
珠	-8.2523
蘭	-8.25361
仲	-8.25877
倚	-8.26245
恐	-8.26325
英	-8.2643
果	-8.26707
推	-8.26717
殺	-8.26767
錢	-8.26832
執	-8.26889
揚	-8.27045
陛下	-8.27061
放	-8.27098
運	-8.27432
暮	-8.27439
追	-8.28618
濟	-8.28955
爭	-8.29118
工	-8.29235
仰	-8.29331
隠	-8.29549
梅	-8.29583
巖	-8.29719
滅	-8.29744
屋	-8.29756
施	-8.29777
慶	-8.29854
静	-8.29935
夕	-8.30022
塞	-8.30072
軒	-8.30143
細	-8.30155
遣	-8.30241
仍	-8.30263
丹	-8.30301
布	-8.30429
傾	-8.309
漸	-8.30908
烟	-8.30909
乗	-8.30957
迎	-8.31402
典	-8.31403
鄭	-8.31428
孝	-8.31594
冠	-8.32056
機	-8.32282
二首	-8.32416
船	-8.32728
端	-8.32898
雄	-8.33097
川	-8.33182
如此	-8.33619
考	-8.33668
達	-8.33811
邪	-8.33824
晩	-8.3412
顯	-8.34129
繼	-8.34134
面	-8.34244
筆	-8.34257
順	-8.34327
伏	-8.34337
延	-8.34421
歴	-8.34474
友	-8.34743
棄	-8.349
紫	-8.3556
質	-8.3565
說	-8.35757
暗	-8.35923
選	-8.36352
烏	-8.36606
歡	-8.36738
闗	-8.36969
職	-8.37013
振	-8.37022
薦	-8.37095
天地	-8.37573
湖	-8.37573
種	-8.38
翁	-8.38123
投	-8.38378
衰	-8.3851
忘	-8.38626
靜	-8.38659
所謂	-8.38663
累	-8.38764
市	-8.38853
春風	-8.38979
晴	-8.39082
麗	-8.39118
權	-8.39124
園	-8.39187
克	-8.39244
谷	-8.39293
注	-8.39327
關	-8.39479
曽	-8.39534
冷	-8.39814
率	-8.39873
太	-8.39932
最	-8.40045
遲	-8.40165
尤	-8.40305
邑	-8.40445
走	-8.40466
橋	-8.40754
唯	-8.40867
妙	-8.40961
葢	-8.40994
騎	-8.41002
雅	-8.41016
乆	-8.41051
惠	-8.41153
兒	-8.41588
耶	-8.4201
儀	-8.4202
不敢	-8.42204
岸	-8.42261
私	-8.42282
聚	-8.42339
務	-8.4256
維	-8.42819
覺	-8.42874
禁	-8.42936
抱	-8.42959
拂	-8.42998
凝	-8.4322
秀	-8.43332
映	-8.43398
强	-8.43601
造	-8.43621
齋	-8.43633
虎	-8.43804
敢	-8.44019
約	-8.44074
是以	-8.44101
愚	-8.44253
罪	-8.44312
逰	-8.44408
盖	-8.44561
退	-8.44561
迴	-8.44618
琴	-8.44827
偏	-8.44927
歎	-8.44934
讀	-8.4501
宴	-8.4503
只	-8.45087
想	-8.45325
夷	-8.45388
呼	-8.45426
某	-8.45426
賊	-8.45722
善曰	-8.45986
迷	-8.45996
蜀	-8.46118
丘	-8.46149
浪	-8.46299
設	-8.46327
句	-8.46374
疎	-8.46453
白雲	-8.46502
曹	-8.46746
商	-8.46935
資	-8.474
呉	-8.47535
戒	-8.47538
牛	-8.47543
隱	-8.47656
智	-8.47709
駕	-8.47916
響	-8.47922
祠	-8.48255
覆	-8.48383
敗	-8.48436
升	-8.48564
將軍	-8.48914
訪	-8.48917
翻	-8.48976
祭	-8.49189
至於	-8.49276
特	-8.49395
藥	-8.49623
附	-8.49729
昌	-8.49799
顔	-8.50083
魯	-8.50098
絲	-8.50206
侵	-8.50248
招	-8.50821
洞	-8.50895
㣲	-8.50966
短	-8.51916
律	-8.51963
嶺	-8.52101
背	-8.52143
叔	-8.5217
宅	-8.52276
角	-8.52392
馳	-8.52419
韓	-8.52504
跡	-8.52525
峰	-8.52536
習	-8.52643
逸	-8.52655
佛	-8.52732
不見	-8.52773
刑	-8.52796
慮	-8.52805
貞	-8.52874
召	-8.5293
保	-8.53071
赴	-8.53126
委	-8.53128
聖人	-8.53132
擬	-8.53498
乘	-8.53549
羽	-8.53572
今日	-8.53605
里	-8.53656
甘	-8.53715
福	-8.53799
盤	-8.53866
步	-8.53904
撫	-8.53936
衛	-8.53988
骨	-8.54381
營	-8.54729
陸	-8.55195
舍	-8.55502
答	-8.55646
器	-8.5567
井	-8.55883
况	-8.56343
履	-8.5637
館	-8.56414
三年	-8.56582
曾	-8.56845
銘	-8.57151
不足	-8.57153
盈	-8.57218
錦	-8.57255
卧	-8.57421
假	-8.57437
徑	-8.57439
鎮	-8.57484
射	-8.57578
繁	-8.57705
懼	-8.57735
擊	-8.57765
斜	-8.5782
勤	-8.57948
翼	-8.58012
材	-8.5812
堪	-8.58214
畏	-8.58266
遥	-8.58357
程	-8.58377
示	-8.58531
獲	-8.58576
申	-8.58722
房	-8.58788
諸侯	-8.58952
棲	-8.59104
貧	-8.59124
勿	-8.59169
厥	-8.59242
傍	-8.59343
征	-8.59376
惜	-8.59522
違	-8.59622
偶	-8.59645
䇿	-8.5965
采	-8.59727
避	-8.59731
壁	-8.59945
春秋	-8.60032
弗	-8.60236
村	-8.6025
怒	-8.60437
隆	-8.60541
總	-8.60546
何處	-8.60688
愈	-8.6089
條	-8.61095
鏡	-8.61158
儒	-8.61195
尚書	-8.61296
疏	-8.61414
眼	-8.61517
符	-8.61638
䝉	-8.61696
郭	-8.61698
祀	-8.61816
縱	-8.61848
敵	-8.62022
啓	-8.62064
虞	-8.62218
鼓	-8.62226
慕	-8.62233
竊	-8.62484
肅	-8.62522
禪	-8.6266
甲	-8.6281
辨	-8.62867
趨	-8.62937
淚	-8.63003
博	-8.63084
掩	-8.63103
住	-8.633
謹	-8.63601
户	-8.63606
婦	-8.63731
冬	-8.6404
聊	-8.64081
參	-8.64206
并	-8.64335
堅	-8.64421
奔	-8.64453
靡	-8.64629
弱	-8.64691
富	-8.64697
候	-8.64846
根	-8.65048
管	-8.65049
屢	-8.65117
日月	-8.65128
歲	-8.65618
夀	-8.65793
充	-8.65948
江南	-8.66085
孔	-8.66195
峯	-8.66242
故人	-8.6629
迹	-8.66305
霧	-8.66416
寫	-8.66431
弟	-8.66665
悉	-8.66674
霞	-8.66674
卷	-8.66686
院	-8.66714
之間	-8.66793
刻	-8.66831
淵	-8.66903
釋	-8.67079
寛	-8.67094
誅	-8.67117
孟	-8.67117
寵	-8.6725
役	-8.67277
荷	-8.67279
朝廷	-8.67281
竟	-8.6736
怪	-8.67411
明月	-8.67462
伐	-8.67518
桂	-8.67597
末	-8.67628
庶	-8.67795
旋	-8.68022
頻	-8.68283
鼎	-8.68666
納	-8.68699
免	-8.68782
陰	-8.68981
源	-8.68983
託	-8.69075
頗	-8.69142
縁	-8.69388
鳳	-8.69746
舒	-8.69756
録	-8.69766
階	-8.69982
鳯	-8.70033
席	-8.70161
訓	-8.70246
茂	-8.70251
聴	-8.70307
毛	-8.70334
鴻	-8.70403
平生	-8.70642
赤	-8.70674
其所	-8.7114
無所	-8.71151
豐	-8.7122
天下之	-8.7136
環	-8.71411
險	-8.71457
按	-8.71666
逆	-8.71787
戎	-8.71817
憐	-8.71824
據	-8.71824
補	-8.71933
之士	-8.71949
脩	-8.72045
然後	-8.72194
操	-8.72259
境	-8.72266
而已	-8.72401
察	-8.72418
青山	-8.72655
索	-8.72764
嗟	-8.72883
禍	-8.72898
大夫	-8.72971
郊	-8.73061
一日	-8.73086
泥	-8.7319
彌	-8.73313
壯	-8.73333
覽	-8.73397
温	-8.73401
蘇	-8.73472
杜	-8.73657
季	-8.73758
長安	-8.73908
匪	-8.7402
碑	-8.74049
蕭	-8.7413
衡	-8.74229
銀	-8.74317
殷	-8.74553
歩	-8.74605
窺	-8.7465
狂	-8.74664
禽	-8.74949
熟	-8.75068
寶	-8.75104
厯	-8.75129
𢎞	-8.75187
巧	-8.75209
風雨	-8.75222
攻	-8.75309
弄	-8.75333
眠	-8.75577
勸	-8.75833
恭	-8.75908
低	-8.75949
鴈	-8.76027
遠	-8.76099
擁	-8.76413
繞	-8.7644
他	-8.76451
康	-8.76456
邉	-8.76679
喪	-8.76869
争	-8.76882
乞	-8.76893
領	-8.76984
僕	-8.77034
族	-8.77044
鮮	-8.77092
兄	-8.77159
乾	-8.77235
畢	-8.77573
借	-8.77575
雞	-8.7761
秋風	-8.77907
述	-8.7792
效	-8.78005
患	-8.78017
魂	-8.7802
后	-8.78102
頌	-8.78241
文章	-8.78423
雷	-8.78468
消	-8.79094
墨	-8.79216
凉	-8.7934
當時	-8.7934
雁	-8.79364
晨	-8.79461
謂之	-8.79521
耕	-8.79522
希	-8.79566
徃	-8.79641
歳	-8.79968
侍	-8.79973
專	-8.79998
談	-8.80049
驅	-8.80121
左右	-8.80208
渡	-8.80227
佐	-8.80313
紛	-8.80629
吐	-8.80744
人之	-8.81044
趣	-8.81098
十年	-8.81222
害	-8.81256
披	-8.81521
劒	-8.81527
不為	-8.81676
屈	-8.81973
氷	-8.8205
十二	-8.82146
恒	-8.82656
狀	-8.82663
不如	-8.82703
部	-8.82749
均	-8.82831
俾	-8.82928
催	-8.83087
瑞	-8.83092
錫	-8.83134
味	-8.83179
扶	-8.83214
山中	-8.83429
綠	-8.83776
農	-8.83844
燈	-8.84057
之以	-8.84058
潤	-8.84062
淺	-8.84073
圓	-8.84087
式	-8.84114
暫	-8.84269
煩	-8.84308
而後	-8.84373
京	-8.84436
稍	-8.84491
酬	-8.84647
讓	-8.84802
有所	-8.84845
柳	-8.84867
潛	-8.84954
超	-8.8536
増	-8.85395
困	-8.85404
昏	-8.85482
嗣	-8.85644
為之	-8.85792
圍	-8.85878
責	-8.85902
籍	-8.85937
統	-8.85938
澗	-8.85983
庸	-8.86039
爵	-8.86062
格	-8.86316
戴	-8.86474
之道	-8.86595
巢	-8.8664
不及	-8.86645
人間	-8.86671
珍	-8.86691
賤	-8.8681
牧	-8.86948
燭	-8.86977
班	-8.87151
旣	-8.87237
悠悠	-8.87263
晝	-8.87268
繫	-8.87326
泣	-8.87408
茍	-8.87496
徴	-8.87578
鸞	-8.87693
蒼	-8.87769
蕩	-8.87944
阿	-8.87969
洪	-8.8804
宇	-8.88171
啼	-8.88228
激	-8.88268
虛	-8.88286
盧	-8.88374
皇帝	-8.88428
漫	-8.8843
浦	-8.88465
泛	-8.88485
差	-8.88603
詳	-8.88605
一首	-8.88624
賀	-8.88649
稀	-8.88829
裁	-8.88853
丁	-8.889
助	-8.88906
密	-8.88938
宻	-8.88971
之心	-8.8911
仕	-8.89338
塗	-8.89508
賔	-8.8955
干	-8.89667
瞻	-8.89742
輪	-8.89941
吉	-8.89948
邦	-8.89977
壽	-8.89984
奪	-8.90355
費	-8.90364
飾	-8.904
量	-8.90508
編	-8.9058
齒	-8.90788
術	-8.91127
輔	-8.91249
植	-8.9137
窗	-8.91415
崔	-8.91491
社	-8.91583
堯	-8.91737
己	-8.91958
側	-8.92017
渠	-8.92137
略	-8.92317
策	-8.9254
閑	-8.92543
沒	-8.92581
羞	-8.92633
旅	-8.9264
枯	-8.92825
烈	-8.9287
厭	-8.92976
第	-8.93008
卑	-8.93249
啟	-8.93272
洗	-8.93295
夫人	-8.93363
講	-8.93454
囘	-8.93622
劍	-8.93668
祥	-8.93692
鐘	-8.94003
暴	-8.94183
枕	-8.94349
賈	-8.94437
肆	-8.94485
廻	-8.94595
供	-8.94633
嗚呼	-8.94664
旁	-8.9468
阻	-8.94816
㸃	-8.94942
規	-8.94971
濕	-8.95005
如何	-8.95046
翔	-8.95047
孔子	-8.95196
襲	-8.95247
朕	-8.95266
之事	-8.95434
誤	-8.95517
震	-8.95558
甫	-8.9557
犯	-8.95595
沉	-8.95653
㡬	-8.95674
佳	-8.95834
穿	-8.95855
妻	-8.95881
畧	-8.95962
而無	-8.96139
輿	-8.96177
底	-8.96183
湯	-8.96229
之後	-8.96253
慎	-8.96295
鍾	-8.96358
唱	-8.96435
競	-8.96511
古人	-8.96514
洛	-8.96557
涼	-8.96727
貌	-8.9674
愧	-8.96807
爰	-8.96835
掌	-8.96897
泰	-8.96967
憲	-8.97097
莊	-8.97212
貫	-8.97309
孰	-8.97336
足以	-8.97352
戲	-8.97414
刺	-8.97442
支	-8.97479
品	-8.97525
伴	-8.97646
曠	-8.97668
鬼	-8.97683
二年	-8.978
允	-8.97807
四海	-8.97869
柔	-8.98067
妾	-8.98123
騰	-8.98364
防	-8.98663
貪	-8.98899
俯	-8.99019
暖	-8.99093
奮	-8.99129
展	-8.9913
勇	-8.99154
哭	-8.99162
鬱	-8.99332
缺	-8.99463
津	-8.99469
童	-8.99472
没	-8.99567
陶	-8.99628
羊	-8.99709
歸來	-8.9994
墓	-9.00015
何以	-9.00181
厲	-9.0033
監	-9.0036
漏	-9.00373
百年	-9.00444
白日	-9.00591
辱	-9.00735
辟	-9.00773
旗	-9.00861
潮	-9.00933
遭	-9.00947
徵	-9.01137
繡	-9.01345
擇	-9.01423
把	-9.01515
禄	-9.01591
徙	-9.01628
誦	-9.0169
掃	-9.01757
墮	-9.01844
山川	-9.01928
凌	-9.0215
有餘	-9.02244
忍	-9.02291
救	-9.02311
占	-9.02505
綺	-9.02507
舜	-9.0256
前人	-9.02615
抑	-9.0279
叢	-9.02826
悟	-9.03024
芙蓉	-9.03073
蒲	-9.03279
乍	-9.03321
逹	-9.03331
屏	-9.0336
廬	-9.03405
謁	-9.03575
苑	-9.03722
崖	-9.03725
桑	-9.03804
太守	-9.03815
洲	-9.0382
酌	-9.03844
循	-9.03873
牽	-9.03895
宮	-9.04249
銜	-9.04307
蔽	-9.04318
藻	-9.04359
姓	-9.04368
不復	-9.04395
遵	-9.04578
禹	-9.04659
澄	-9.04878
谿	-9.05116
韋	-9.05182
倒	-9.05211
卜	-9.05237
財	-9.05301
無人	-9.05455
菊	-9.05563
豪	-9.05584
佩	-9.05633
之人	-9.0571
之言	-9.05991
融	-9.06062
㫖	-9.06417
尾	-9.0652
寡	-9.06582
旌	-9.06737
採	-9.06803
黃	-9.06904
伊	-9.07115
諫	-9.07231
莫不	-9.07319
姑	-9.07376
寜	-9.07384
貢	-9.07757
呈	-9.07812
慙	-9.07857
介	-9.07932
之意	-9.08235
太子	-9.08436
丞相	-9.08597
也夫	-9.08656
落日	-9.08676
旦	-9.08771
茶	-9.08788
毁	-9.08801
釣	-9.08832
慈	-9.08836
牀	-9.08843
基	-9.0898
錯	-9.09005
百姓	-9.09023
驛	-9.09309
彈	-9.09327
斗	-9.09343
損	-9.09393
絃	-9.09436
續	-9.09548
血	-9.09747
主人	-9.09874
滋	-9.09995
渾	-9.10111
梅花	-9.10151
陪	-9.10233
覩	-9.10239
輝	-9.10358
東風	-9.10472
給	-9.10479
杯	-9.10505
苔	-9.10509
革	-9.10705
彦	-9.10748
彩	-9.10934
粟	-9.11115
渚	-9.11118
草木	-9.11347
耀	-9.11478
江上	-9.11496
范	-9.11538
宰	-9.11562
買	-9.11572
藉	-9.11638
慰	-9.11739
途	-9.11781
京師	-9.11846
未嘗	-9.11891
眀	-9.11953
炎	-9.11974
葬	-9.11978
以來	-9.11999
進士	-9.12175
上下	-9.12199
龜	-9.12367
四方	-9.12531
扇	-9.12564
千載	-9.12672
摧	-9.12884
肥	-9.12915
風吹	-9.13046
挂	-9.13075
銷	-9.13098
添	-9.1312
蔡	-9.13137
閉	-9.1324
古今	-9.13413
輒	-9.13538
䕶	-9.13621
次韻	-9.13625
潭	-9.13897
姿	-9.13933
決	-9.14112
辰	-9.14174
墜	-9.14227
籠	-9.14308
揺	-9.14309
淮	-9.14323
銅	-9.14475
桃	-9.14476
纔	-9.14541
讀書	-9.14542
一人	-9.14554
鄰	-9.14569
痛	-9.14642
欺	-9.14779
躬	-9.1478
冰	-9.14786
祗	-9.14825
瓊	-9.14886
圗	-9.1498
未有	-9.14991
藝	-9.15004
配	-9.15093
速	-9.15213
惑	-9.15294
㸔	-9.15323
寂	-9.15454
之地	-9.15505
妄	-9.1553
踰	-9.15554
肯	-9.15591
享	-9.15596
人也	-9.15603
壇	-9.15607
也故	-9.15651
同前	-9.15738
蓮	-9.15956
喧	-9.16013
徹	-9.16047
剛	-9.16117
萬物	-9.16138
何如	-9.16269
眞	-9.16364
徘徊	-9.16383
少年	-9.16394
潔	-9.16576
憑	-9.16622
虜	-9.1665
遐	-9.16654
奚	-9.16894
觴	-9.16901
扵	-9.17059
鑒	-9.1707
寢	-9.17125
飄	-9.17129
輸	-9.17195
公之	-9.17205
可謂	-9.17342
吕	-9.17364
勲	-9.17462
否	-9.17717
際	-9.17836
於此	-9.17883
優	-9.17929
淡	-9.17937
歟	-9.17961
也今	-9.18053
停	-9.18084
會	-9.18171
亦有	-9.18514
擢	-9.18564
喻	-9.18592
朔	-9.18646
州刺史	-9.1873
觸	-9.18743
壓	-9.18774
不同	-9.18818
者皆	-9.1888
帥	-9.19121
了	-9.19125
簾	-9.19184
弊	-9.19193
山水	-9.19197
冀	-9.192
穆	-9.19276
敷	-9.19375
兄弟	-9.19416
流水	-9.19538
至今	-9.19552
南山	-9.1959
不以	-9.19699
鹿	-9.19781
藩	-9.19831
奇	-9.19892
契	-9.20223
三月	-9.20241
恥	-9.20415
晦	-9.20424
審	-9.20529
荆	-9.20578
科	-9.20596
脱	-9.2074
米	-9.20838
一時	-9.20908
祝	-9.20961
夕陽	-9.21003
築	-9.21095
璧	-9.21317
獄	-9.21548
也言	-9.21713
染	-9.21793
子孫	-9.21902
弓	-9.21905
人生	-9.2191
峻	-9.22023
岳	-9.22033
濃	-9.22082
安得	-9.22146
返	-9.22273
又曰	-9.22306
鄙	-9.22388
翰	-9.22476
刀	-9.22838
校	-9.22855
江湖	-9.22882
公子	-9.23045
欣	-9.23198
桃花	-9.232
蓬	-9.23353
倦	-9.23411
其後	-9.23612
其事	-9.23654
豈不	-9.23662
緩	-9.238
鬢	-9.23989
緒	-9.24099
蕃	-9.2411
育	-9.24144
鐵	-9.24305
叙	-9.24317
純	-9.24348
印	-9.24495
黄金	-9.24585
界	-9.25042
大臣	-9.25171
衝	-9.25226
▁(	-9.25389
網	-9.25426
湘	-9.25459
鱗	-9.25565
尹	-9.2588
攀	-9.25953
東南	-9.26
舎	-9.26165
蟲	-9.2623
頓	-9.26349
徧	-9.26665
清風	-9.26696
蒙	-9.26814
裂	-9.27009
探	-9.2702
澹	-9.27267
秉	-9.27376
焚	-9.2742
陋	-9.27454
穴	-9.27633
何人	-9.27681
燒	-9.27692
粉	-9.27741
美人	-9.27805
行人	-9.27822
而為	-9.27845
巨	-9.28077
付	-9.28116
黒	-9.28126
曰吾	-9.28161
猿	-9.28198
司馬	-9.28267
獸	-9.28323
屯	-9.28487
隋	-9.28512
决	-9.28528
蠻	-9.28742
簷	-9.28767
戍	-9.28813
太平	-9.28863
誓	-9.28883
必有	-9.28911
篤	-9.28971
排	-9.29164
案	-9.29168
國家	-9.29177
何時	-9.29262
洛陽	-9.29324
廷	-9.29346
逃	-9.29498
毎	-9.29726
衍	-9.2984
尺	-9.3001
寂寞	-9.30029
可憐	-9.30089
姬	-9.3009
無窮	-9.30115
麥	-9.30177
洽	-9.30312
悔	-9.30323
相思	-9.30346
饒	-9.30439
午	-9.30673
然而	-9.3072
柱	-9.30722
風流	-9.30873
束	-9.30918
之功	-9.30927
倫	-9.3093
預	-9.30943
元年	-9.30971
黙	-9.31139
彊	-9.31164
導	-9.31201
薛	-9.31228
御史	-9.3123
溢	-9.31309
驕	-9.31316
有司	-9.31342
䘮	-9.31424
值	-9.31496
勒	-9.31509
標	-9.31511
飯	-9.31531
遽	-9.31556
筵	-9.31943
叟	-9.31981
滯	-9.3206
宵	-9.32084
彰	-9.32091
無事	-9.32141
浮雲	-9.32184
秩	-9.32226
贊	-9.3223
矜	-9.32267
不可以	-9.32338
嫌	-9.32406
軌	-9.32523
乖	-9.32541
寓	-9.32564
削	-9.32568
○	-9.32665
敦	-9.32744
判	-9.32837
眉	-9.32889
姦	-9.32897
署	-9.32898
紙	-9.32978
斬	-9.32989
增	-9.33104
亮	-9.33138
戀	-9.33182
灑	-9.33278
後世	-9.33286
髪	-9.33368
態	-9.33389
睡	-9.33403
竭	-9.3344
儲	-9.33477
邁	-9.33639
幕	-9.33677
臣聞	-9.33682
飽	-9.33761
逾	-9.33782
肉	-9.33874
遍	-9.33882
鞭	-9.34065
學者	-9.34067
遶	-9.34069
以爲	-9.34146
饑	-9.34471
駐	-9.34471
凶	-9.34544
牆	-9.34616
馮	-9.34671
勉	-9.34701
之中	-9.34807
畔	-9.34879
富貴	-9.35066
傅	-9.35216
況	-9.35332
相與	-9.35333
殆	-9.35342
塘	-9.3536
使君	-9.35567
苟	-9.35589
倍	-9.35616
夫子	-9.35657
副	-9.35672
頃	-9.35713
相逢	-9.35809
紛紛	-9.35948
拔	-9.36029
抗	-9.36038
毒	-9.36069
吴	-9.3608
紹	-9.36151
整	-9.36177
牙	-9.36213
謙	-9.36269
強	-9.36285
帳	-9.36343
層	-9.3641
援	-9.36498
中有	-9.36584
涉	-9.36656
黨	-9.36704
諱	-9.368
磨	-9.36866
稽	-9.3691
暢	-9.36917
不用	-9.36929
弔	-9.36962
淨	-9.37077
踈	-9.37233
俊	-9.37425
攜	-9.37439
小人	-9.3749
之時	-9.37539
足下	-9.3777
乏	-9.37817
杖	-9.37898
暑	-9.37989
像	-9.38121
日暮	-9.38134
輙	-9.38152
諭	-9.38181
玩	-9.38212
塔	-9.38305
輩	-9.38354
敏	-9.38385
那	-9.38409
□	-9.38602
洞庭	-9.38626
年年	-9.38666
警	-9.38716
蕭蕭	-9.38741
駭	-9.38873
謬	-9.38916
芳草	-9.38936
武帝	-9.38949
誰能	-9.39038
奴	-9.39082
春日	-9.39085
之不	-9.39104
飢	-9.39118
産	-9.3921
鑿	-9.39244
千年	-9.39307
淫	-9.39399
尉	-9.39527
西風	-9.39596
其人	-9.39648
周公	-9.39682
誇	-9.39771
織	-9.39801
災	-9.39803
鼔	-9.39832
辯	-9.39963
賴	-9.40124
芝	-9.40152
帆	-9.40171
宏	-9.40449
崩	-9.40521
敎	-9.40563
董	-9.40752
話	-9.40797
然則	-9.40806
豫	-9.40846
朗	-9.40883
蟬	-9.40928
膺	-9.40949
以自	-9.4114
罔	-9.41199
捨	-9.41204
參差	-9.41346
醫	-9.41504
叛	-9.41555
媚	-9.41575
逝	-9.41699
促	-9.4177
賓	-9.41874
陣	-9.41971
之義	-9.42113
討	-9.42126
之際	-9.42218
揮	-9.42367
練	-9.42411
妖	-9.42448
岡	-9.42505
播	-9.42722
知其	-9.42729
腸	-9.42801
爽	-9.42808
晏	-9.42859
脫	-9.42902
藤	-9.43099
拙	-9.4312
偃	-9.43137
凍	-9.43171
譽	-9.43331
快	-9.43353
提	-9.43398
包	-9.43462
攸	-9.43532
盟	-9.43564
腹	-9.43806
嶽	-9.43891
垣	-9.43902
東西	-9.43972
不勝	-9.44003
其言	-9.44033
茅	-9.44097
績	-9.441
鹽	-9.44106
踏	-9.44137
人心	-9.4414
其心	-9.4418
㳺	-9.44205
乾坤	-9.44228
偉	-9.44328
雖有	-9.44341
惆悵	-9.44354
學士	-9.4448
逮	-9.44508
弦	-9.44573
毋	-9.44573
盜	-9.44807
碎	-9.4499
綴	-9.45023
之法	-9.45242
上人	-9.4527
縈	-9.45306
巾	-9.45334
禮樂	-9.4538
暉	-9.45461
樵	-9.45544
落花	-9.45608
壑	-9.4584
古之	-9.46008
蛇	-9.46021
是非	-9.46358
菴	-9.46385
出於	-9.46402
第一	-9.46457
三首	-9.46488
懿	-9.46511
踐	-9.46723
雕	-9.46824
擅	-9.46834
子曰	-9.46901
隣	-9.46938
戸	-9.47001
遙	-9.47013
曜	-9.47083
欽	-9.47155
故曰	-9.47437
闢	-9.47459
之則	-9.47525
西山	-9.47566
浩	-9.47589
五年	-9.47797
之為	-9.47797
剪	-9.4782
協	-9.47861
桐	-9.4787
獵	-9.47873
邀	-9.47891
十五	-9.4795
岑	-9.48032
挾	-9.48074
千古	-9.48191
明年	-9.48191
則有	-9.48212
枉	-9.48298
扁舟	-9.48327
幼	-9.4836
割	-9.48497
昧	-9.48601
夾	-9.48677
處士	-9.48679
襟	-9.48824
圃	-9.48868
雀	-9.48996
祚	-9.49204
之徒	-9.49212
健	-9.49306
悦	-9.49415
囊	-9.49423
叶	-9.49492
不忍	-9.49505
僅	-9.4959
出入	-9.49618
完	-9.49756
賛	-9.49804
袁	-9.49848
忌	-9.49854
衞	-9.49895
郎中	-9.50059
矢	-9.50327
逼	-9.50373
冦	-9.50376
減	-9.5039
裴	-9.50444
皮	-9.50544
緣	-9.50763
詎	-9.50791
貽	-9.5109
泊	-9.51117
未能	-9.51151
二十	-9.51175
例	-9.51294
憤	-9.51341
賣	-9.51548
歇	-9.51672
麟	-9.51897
繩	-9.52157
不過	-9.52199
漁	-9.52217
袖	-9.523
自然	-9.52641
嬌	-9.52651
隴	-9.52666
蠶	-9.52726
攝	-9.52881
妍	-9.52972
價	-9.53147
恵	-9.53163
姚	-9.53242
壤	-9.53305
以此	-9.53326
襄	-9.53535
天涯	-9.5356
言之	-9.53613
疲	-9.53765
墳	-9.53793
終日	-9.53796
幹	-9.53918
帷	-9.53983
渉	-9.54002
疊	-9.54032
裘	-9.54093
埋	-9.54144
檻	-9.54286
不足以	-9.54304
倉	-9.54397
驗	-9.54429
丞	-9.54497
四時	-9.54566
神仙	-9.54649
竇	-9.5468
箭	-9.5483
徽	-9.55024
抵	-9.55059
偽	-9.55083
河南	-9.55193
由是	-9.55195
蹈	-9.55204
明日	-9.55245
換	-9.5528
栖	-9.55378
濯	-9.55506
自古	-9.55525
詣	-9.55531
天上	-9.55653
翳	-9.55658
腰	-9.55715
而有	-9.55743
月明	-9.55782
宰相	-9.55802
漢書	-9.55909
髙祖	-9.55977
浸	-9.56089
道士	-9.56345
効	-9.56349
撰	-9.56552
胥	-9.56663
諒	-9.5667
羣臣	-9.56694
巴	-9.56786
弟子	-9.56803
製	-9.56842
一朝	-9.56876
邈	-9.57049
嘆	-9.57083
無不	-9.57115
醒	-9.57183
恣	-9.57193
綱	-9.57201
艱	-9.57422
四年	-9.57431
限	-9.57453
淳	-9.57489
二月	-9.57614
蹤	-9.57676
電	-9.57871
膏	-9.57886
葛	-9.58003
也其	-9.58078
糧	-9.5825
勁	-9.58326
朋	-9.58327
矯	-9.58432
奠	-9.58434
赦	-9.58564
喚	-9.58615
迥	-9.5866
功名	-9.58676
斂	-9.5868
随	-9.58725
蝶	-9.5895
之上	-9.58972
綵	-9.58975
今年	-9.59008
父母	-9.59107
何必	-9.59219
/)(	-9.59219
髮	-9.59464
範	-9.59467
涵	-9.59489
太祖	-9.59503
茫茫	-9.5952
海内	-9.5955
㫁	-9.59579
何事	-9.59582
不肯	-9.59601
戚	-9.597
熱	-9.59722
使人	-9.59764
扉	-9.59773
得其	-9.59958
不相	-9.60145
鶯	-9.60165
誕	-9.60239
南北	-9.60305
不然	-9.60438
兆	-9.60477
之臣	-9.60594
構	-9.60644
斥	-9.60694
淑	-9.60783
不成	-9.60962
究	-9.61012
爛	-9.61028
錄	-9.61049
草堂	-9.6108
俟	-9.61168
荅	-9.61171
聞之	-9.61191
瓦	-9.61328
仗	-9.61443
堆	-9.61529
不盡	-9.61542
仙人	-9.61593
瑶	-9.6173
迫	-9.61774
壊	-9.61963
帖	-9.62011
柯	-9.62126
靖	-9.62244
肇	-9.62447
江山	-9.62561
中國	-9.62582
雍	-9.62665
握	-9.62816
之外	-9.62874
匹	-9.62897
躍	-9.62907
當年	-9.62928
韶	-9.62989
捐	-9.63058
儉	-9.63083
邨	-9.63098
互	-9.63167
羡	-9.63242
傑	-9.63323
三千	-9.63513
摩	-9.63534
丗	-9.63583
綿	-9.63896
褒	-9.63906
恃	-9.63977
自是	-9.64032
障	-9.64238
不堪	-9.64279
別	-9.64417
乳	-9.64494
淪	-9.64745
霸	-9.64806
不在	-9.64836
亷	-9.64891
春色	-9.64902
灰	-9.64951
壘	-9.6503
人家	-9.65036
棹	-9.6504
陟	-9.65167
山人	-9.65209
嵩	-9.65424
寸	-9.6558
君王	-9.65664
其間	-9.65664
彭	-9.65691
何所	-9.65756
潜	-9.65824
聳	-9.65902
者必	-9.65945
隂陽	-9.65959
五月	-9.65991
者亦	-9.66066
霽	-9.6631
公卿	-9.66402
曙	-9.66464
樂府	-9.6647
詩曰	-9.66533
創	-9.66582
金石	-9.66597
跨	-9.66627
之禮	-9.66713
悼	-9.66737
遮	-9.66888
不聞	-9.66893
文武	-9.67089
為君	-9.67123
局	-9.67171
回首	-9.67187
蓬萊	-9.67222
三十	-9.67242
豈無	-9.67267
混	-9.67294
鈎	-9.6735
鋒	-9.67371
匈奴	-9.67384
侣	-9.6739
逕	-9.6748
是也	-9.67521
頂	-9.67601
之所以	-9.67727
妃	-9.67842
貶	-9.67902
勅	-9.68069
衣冠	-9.68225
濤	-9.6824
阜	-9.68328
君臣	-9.6838
也而	-9.68421
黎	-9.6844
是故	-9.68449
亟	-9.68511
墻	-9.68558
自有	-9.68568
顛	-9.68581
舌	-9.68596
千金	-9.6868
鵲	-9.68716
三日	-9.68728
書曰	-9.68837
冥	-9.68885
旱	-9.69102
君之	-9.69133
汗	-9.69173
挺	-9.69259
桃李	-9.69328
痕	-9.69359
蒼蒼	-9.69362
熊	-9.6939
侍郎	-9.69403
嫁	-9.69413
歛	-9.69817
槐	-9.69952
蓄	-9.69959
八月	-9.70014
挽	-9.70156
座	-9.70313
黜	-9.70339
魄	-9.70359
陂	-9.70432
場	-9.70487
馭	-9.70527
瘦	-9.70614
㓜	-9.70615
往往	-9.7064
篆	-9.70669
閩	-9.71024
奈何	-9.71062
冒	-9.71095
世之	-9.71115
西湖	-9.71172
劇	-9.71212
督	-9.71229
慚	-9.71249
之子	-9.71455
秘	-9.71474
偕	-9.71568
相見	-9.71587
男	-9.71613
受命	-9.71647
戈	-9.71729
恤	-9.71741
即事	-9.71753
閲	-9.71856
白頭	-9.71997
咎	-9.72057
寒食	-9.7206
亦不	-9.72065
不自	-9.72085
諧	-9.72114
六月	-9.7216
滑	-9.722
白髪	-9.72245
觧	-9.72267
嘯	-9.72346
絳	-9.72429
眺	-9.72458
虹	-9.72461
卓	-9.72472
衢	-9.72522
孟子	-9.72753
百里	-9.72776
蕭條	-9.72776
雉	-9.72781
誣	-9.72803
課	-9.72853
之於	-9.72871
醜	-9.72911
纎	-9.72979
其身	-9.72983
樞	-9.73035
薪	-9.73139
栽	-9.73203
暝	-9.73308
摘	-9.7339
祈	-9.734
笛	-9.73447
花落	-9.73455
無復	-9.73464
之文	-9.73537
搖	-9.7356
社稷	-9.73568
疆	-9.73572
吞	-9.7362
尸	-9.73791
黑	-9.73818
十一	-9.73831
其中	-9.73913
之名	-9.73996
鬬	-9.74078
灘	-9.74082
罰	-9.74095
不識	-9.74126
譏	-9.74219
文王	-9.74248
畜	-9.74266
翰曰	-9.74313
車馬	-9.74348
青雲	-9.74356
父子	-9.74389
焦	-9.74396
峽	-9.74451
玄	-9.74471
慘	-9.74674
海上	-9.74674
向曰	-9.74757
較	-9.74758
至于	-9.74822
鷗	-9.7485
道中	-9.74855
隅	-9.74889
漲	-9.74954
無以	-9.74976
眷	-9.75023
文字	-9.75029
仁義	-9.75043
従	-9.75052
相望	-9.75145
鑄	-9.75147
史記	-9.75198
蒸	-9.75199
貨	-9.75262
滄海	-9.75285
者其	-9.75404
此時	-9.7547
登臨	-9.75472
訟	-9.75532
山林	-9.75539
纓	-9.75583
臯	-9.75652
别離	-9.75746
牕	-9.7579
一笑	-9.75799
楊栁	-9.75826
窓	-9.75833
浴	-9.75921
夙	-9.75923
歸去	-9.75972
溝	-9.75977
拘	-9.7605
罕	-9.76054
額	-9.76062
轍	-9.76206
疇	-9.76219
十三	-9.76409
隙	-9.76449
有時	-9.76451
之下	-9.76459
捧	-9.76463
活	-9.76507
俄	-9.76545
皆有	-9.7663
四首	-9.76637
淮南	-9.76666
臥	-9.76774
羨	-9.76792
嬰	-9.76862
㝠	-9.76903
是時	-9.76942
爐	-9.76954
用之	-9.77096
去年	-9.77254
文帝	-9.77276
叅	-9.77381
一旦	-9.77405
濁	-9.77497
榻	-9.77503
域	-9.77537
㧞	-9.77646
九日	-9.77668
鄧	-9.77784
片	-9.77794
金陵	-9.77799
饗	-9.77803
檢	-9.7782
忝	-9.77854
人情	-9.77876
屠	-9.77896
故鄉	-9.77927
肩	-9.77979
中原	-9.78017
脚	-9.78021
君不見	-9.78032
聖人之	-9.781
秋水	-9.78127
伸	-9.78139
各有	-9.78201
儻	-9.78232
山下	-9.78403
五十	-9.78429
賦詩	-9.78467
専	-9.78468
萬國	-9.78477
者乎	-9.78481
諸公	-9.7851
沾	-9.78535
使者	-9.78567
忩	-9.78617
囚	-9.78621
單	-9.78683
萬古	-9.78689
鴉	-9.78795
五色	-9.78801
戮	-9.78802
裳	-9.78893
鴛鴦	-9.789
辛	-9.78963
霑	-9.79002
猶有	-9.79003
風塵	-9.79028
潘	-9.79059
穀	-9.79181
之日	-9.79257
慧	-9.79279
桓	-9.793
從事	-9.79312
門前	-9.79321
詭	-9.79378
云云	-9.79382
盗	-9.79394
匡	-9.79401
裔	-9.79404
普	-9.7945
怯	-9.79498
十里	-9.79532
苗	-9.79554
寃	-9.79569
鬼神	-9.79599
擾	-9.79735
蟠	-9.79781
諸生	-9.79796
竿	-9.79809
江水	-9.79812
媿	-9.79932
壺	-9.79938
滴	-9.79939
曷	-9.80155
之説	-9.80174
人事	-9.80243
賦曰	-9.80287
花開	-9.80338
不至	-9.80365
繇	-9.80378
榖	-9.80409
國之	-9.80458
三代	-9.80482
䖍	-9.80581
霄	-9.8061
袂	-9.8073
之志	-9.8089
又有	-9.80918
未必	-9.80989
謫	-9.81013
以其	-9.81036
三百	-9.81046
太尉	-9.8112
不覺	-9.81293
抽	-9.81373
湛	-9.81382
樊	-9.81405
諌	-9.81432
巡	-9.81435
十八	-9.81544
裕	-9.81568
堯舜	-9.81633
區	-9.8166
也然	-9.81747
猛	-9.8176
坡	-9.81775
銑曰	-9.8179
佳人	-9.81847
傲	-9.81858
西南	-9.8187
轡	-9.81952
翰林	-9.82069
熙	-9.82091
臻	-9.82126
詐	-9.82312
風俗	-9.82319
島	-9.82324
冝	-9.82378
博士	-9.82381
窻	-9.82397
蕪	-9.82461
㑹稽	-9.82543
僻	-9.82549
睿	-9.82614
民之	-9.82696
距	-9.82703
良曰	-9.82777
詩書	-9.82803
析	-9.8283
棘	-9.82832
堤	-9.8287
涕	-9.82871
今朝	-9.82896
以下	-9.83021
托	-9.83189
一片	-9.83238
𨽻	-9.83273
太宗	-9.83288
詩云	-9.83316
西北	-9.83392
七十	-9.83417
者非	-9.83435
灣	-9.83451
森	-9.83467
不必	-9.83574
揚州	-9.83667
何為	-9.83705
道人	-9.83767
嵗月	-9.83774
顔色	-9.8382
刺史	-9.83847
先王	-9.83872
宦	-9.83899
奸	-9.84175
東海	-9.84184
伍	-9.84196
突	-9.84223
宛	-9.84256
鎖	-9.84275
謗	-9.84302
縱横	-9.84353
淹	-9.84376
懶	-9.844
岐	-9.84487
見其	-9.84602
他日	-9.84613
不與	-9.84637
不待	-9.84749
及其	-9.84794
岀	-9.84797
輦	-9.84843
酣	-9.84857
十六	-9.84894
子弟	-9.85001
収	-9.85015
軫	-9.85035
楹	-9.85092
鳬	-9.85096
䕃	-9.85167
一聲	-9.8519
秋色	-9.8533
往來	-9.85385
不是	-9.85433
虧	-9.85542
祿	-9.85632
區區	-9.85667
遁	-9.85677
冲	-9.85721
譜	-9.85738
陷	-9.85753
萬事	-9.8577
豔	-9.8581
濶	-9.85865
聨	-9.85916
傳曰	-9.8606
截	-9.86061
羌	-9.86076
汪	-9.8609
二子	-9.8609
之至	-9.86175
惟有	-9.86182
敝	-9.86233
從容	-9.8629
王孫	-9.86382
之曰	-9.86409
毫	-9.86453
冊	-9.86461
而自	-9.86467
一枝	-9.86527
門外	-9.86576
旬	-9.86582
出門	-9.86636
開元	-9.8664
聼	-9.86648
凋	-9.86661
十四	-9.86689
忙	-9.86704
餐	-9.86705
秋日	-9.86709
日日	-9.86755
朝夕	-9.86756
壞	-9.86807
昬	-9.86818
頽	-9.86821
函	-9.86855
犬	-9.86906
丹青	-9.86909
𤓰	-9.87003
拱	-9.8708
䟽	-9.87104
羈	-9.87178
人皆	-9.87187
昇	-9.87219
其意	-9.87245
謨	-9.87413
捕	-9.87453
不忘	-9.87457
翩翩	-9.87471
從此	-9.87475
之美	-9.8763
侈	-9.87653
麻	-9.87658
哲	-9.8766
謡	-9.8778
柏	-9.87796
祇	-9.87835
之盛	-9.8789
題詩	-9.8793
欵	-9.88009
者以	-9.88024
瑟	-9.88024
之民	-9.88034
禦	-9.88106
者則	-9.88112
暇	-9.88191
空山	-9.88239
湖上	-9.88294
曰此	-9.88318
之餘	-9.88335
几	-9.88356
賢者	-9.88391
歌舞	-9.88396
為我	-9.88436
綏	-9.88439
六年	-9.88448
其道	-9.88559
道路	-9.88676
廉	-9.88718
此地	-9.88791
汀	-9.88801
邵	-9.88856
菜	-9.88859
頼	-9.88879
茲	-9.88947
侍御	-9.89004
日夜	-9.89021
註	-9.89107
偷	-9.89142
躡	-9.89186
風雲	-9.89404
二人	-9.89436
廵	-9.89442
墟	-9.89458
磬	-9.89524
圭	-9.89618
其子	-9.89619
而下	-9.89687
柄	-9.89827
為人	-9.89859
訴	-9.89977
不須	-9.89986
儼	-9.89996
咽	-9.89999
臂	-9.89999
耳目	-9.90014
如是	-9.90021
鑑	-9.90021
戾	-9.90037
軸	-9.90052
犀	-9.90313
喬	-9.90325
天台	-9.90385
聘	-9.90428
豹	-9.90489
妝	-9.90493
詢	-9.90514
冩	-9.90516
未知	-9.90517
拒	-9.90531
故事	-9.90591
縷	-9.90636
控	-9.90737
梵	-9.90742
古者	-9.90768
太史	-9.90778
而不能	-9.90782
内外	-9.90803
一言	-9.90897
變化	-9.90945
翦	-9.91007
矧	-9.91064
烹	-9.91103
前後	-9.91109
即位	-9.91184
明堂	-9.91217
籌	-9.9126
濟曰	-9.91282
杳	-9.91297
萌	-9.91392
蘿	-9.91549
藴	-9.91694
蔓	-9.91714
架	-9.91728
靣	-9.91767
證	-9.91799
冶	-9.92003
之故	-9.92008
千萬	-9.92015
上有	-9.92251
誰知	-9.92278
中書	-9.92282
砌	-9.92409
秀才	-9.9244
料	-9.92488
者有	-9.92518
揖	-9.92562
進退	-9.9264
青天	-9.92782
咨	-9.92808
無限	-9.92925
巷	-9.92988
豈非	-9.93013
咏	-9.93079
山河	-9.93127
其文	-9.93141
狐	-9.93168
沃	-9.93284
單于	-9.93284
遼	-9.9332
邇	-9.93346
處處	-9.93362
闇	-9.93388
丈	-9.93424
天地之	-9.93427
者不	-9.93439
簪	-9.93493
闊	-9.93538
江海	-9.9357
咫尺	-9.93593
沿	-9.93605
輟	-9.93607
之學	-9.93627
誘	-9.93628
萍	-9.93639
濫	-9.93682
令人	-9.93743
竝	-9.93775
併	-9.93782
造化	-9.93799
甞	-9.93882
夭	-9.93946
灌	-9.93984
恱	-9.94099
侍中	-9.94136
銘曰	-9.94237
豆	-9.94295
勵	-9.94345
長沙	-9.94389
一夜	-9.94423
汙	-9.94461
中丞	-9.945
得之	-9.94536
技	-9.94544
相對	-9.94575
諷	-9.94602
匿	-9.94631
㦸	-9.94647
山東	-9.94663
蘆	-9.9472
猶未	-9.94773
騁	-9.94778
噫	-9.94791
與之	-9.94829
慷慨	-9.9483
橘	-9.94837
仲尼	-9.94878
不容	-9.94909
斑	-9.94916
故園	-9.94994
娶	-9.95081
其志	-9.95161
湧	-9.9521
零落	-9.95216
斧	-9.95312
天之	-9.95324
廊	-9.95369
兔	-9.95479
敞	-9.95558
頒	-9.95585
纂	-9.95604
箴	-9.95746
誰家	-9.95754
萃	-9.95815
叨	-9.95861
明朝	-9.95883
岫	-9.95886
太后	-9.95909
逺近	-9.95972
台	-9.95989
奥	-9.96066
清明	-9.96147
癡	-9.96148
鳩	-9.96165
頑	-9.96169
寔	-9.9618
慢	-9.96192
山色	-9.96212
相公	-9.96482
七年	-9.96513
亦何	-9.96605
測	-9.96628
拾	-9.96649
軀	-9.96652
青青	-9.96666
龍門	-9.96739
矣而	-9.96874
隄	-9.96882
相如	-9.96885
鋪	-9.96949
之制	-9.96956
蟻	-9.96964
司徒	-9.96986
叩	-9.9711
之勢	-9.97139
熈	-9.97162
仇	-9.97163
河東	-9.97276
宇宙	-9.97303
逍遥	-9.97309
東山	-9.97314
倡	-9.97374
袍	-9.97486
蜂	-9.97515
并序	-9.97517
依依	-9.97541
莖	-9.97609
坤	-9.97623
妓	-9.978
宗廟	-9.97836
文學	-9.97857
氛	-9.97864
稻	-9.97865
帛	-9.97938
刋	-9.97949
何日	-9.97953
挹	-9.98049
煥	-9.98057
誼	-9.98062
蹇	-9.98065
不易	-9.981
執事	-9.98108
員	-9.98141
時有	-9.98152
四十	-9.98227
蔬	-9.98296
世間	-9.98308
着	-9.98341
栗	-9.98372
若夫	-9.98425
落葉	-9.98461
滌	-9.9847
幽人	-9.98501
匠	-9.98515
閱	-9.98606
峙	-9.98632
十月	-9.98641
其為	-9.98655
溺	-9.98736
牢	-9.98752
豁	-9.98767
白首	-9.98786
注曰	-9.98901
闌	-9.98995
江西	-9.98996
殷勤	-9.99019
不言	-9.99032
於天下	-9.99192
其家	-9.99199
亞	-9.99202
裝	-9.99315
百官	-9.99359
蘇軾	-9.99406
臧	-9.99463
之術	-9.99514
庻	-9.99542
今之	-9.9955
徂	-9.99832
塵埃	-9.99845
宸	-9.99897
昨夜	-9.99911
揆	-9.99941
沛	-9.99946
士大夫	-9.9995
芬	-9.9997
司空	-9.99984
而能	-10.0001
之情	-10.0006
打	-10.0007
一二	-10.0008
朽	-10.0016
湏	-10.0021
榜	-10.0023
庾	-10.0034
羙	-10.0036
分明	-10.004
紆	-10.0051
竄	-10.0051
靄	-10.0054
十日	-10.0063
之氣	-10.0067
大將軍	-10.0068
淸	-10.007
粲	-10.0075
鵠	-10.0076
有序	-10.0076
汎	-10.0084
梢	-10.0095
其餘	-10.0096
娥	-10.0098
之才	-10.0101
赫	-10.0108
上書	-10.0108
聖賢	-10.0117
九重	-10.0122
其二	-10.0133
萬年	-10.0139
與君	-10.0148
窟	-10.0152
未及	-10.0154
樓臺	-10.0155
弼	-10.0155
對曰	-10.0156
子之	-10.016
城南	-10.0161
檄	-10.0162
玊	-10.0168
昨	-10.0168
有感	-10.0171
䑓	-10.0176
不出	-10.0178
飲酒	-10.018
沼	-10.0183
瑩	-10.0187
瀟湘	-10.0195
樽	-10.0208
團	-10.0213
珮	-10.0214
纒	-10.0217
慿	-10.0222
下有	-10.0224
俞	-10.0229
武王	-10.0231
翫	-10.0239
不受	-10.0275
齡	-10.0281
而成	-10.0281
白馬	-10.0281
搜	-10.0282
祐	-10.0292
醇	-10.0294
寂寥	-10.03
故其	-10.032
幣	-10.0327
餞	-10.0328
鈞	-10.0338
春草	-10.0345
其名	-10.0345
公曰	-10.0347
汲	-10.0355
英雄	-10.0357
南陽	-10.0362
填	-10.0364
何足	-10.0364
粹	-10.037
之初	-10.0376
布衣	-10.0382
虐	-10.0384
徼	-10.0385
埽	-10.0386
嚮	-10.0388
堦	-10.0389
太常	-10.0391
䑕	-10.0391
莫能	-10.0393
蚤	-10.0393
渭	-10.0394
懲	-10.0406
掾	-10.0413
讒	-10.0413
係	-10.0415
沐	-10.0416
詩人	-10.0416
街	-10.0419
莽	-10.042
丈夫	-10.0424
滄浪	-10.0432
誥	-10.0435
雲中	-10.0435
白髮	-10.0437
妻子	-10.0438
炳	-10.0438
乎其	-10.0438
讐	-10.0463
衣裳	-10.0475
閔	-10.0477
畦	-10.0482
暨	-10.0484
税	-10.0487
板	-10.0489
不幸	-10.0493
迂	-10.0495
驥	-10.0498
蔚	-10.0501
若此	-10.0506
得失	-10.0511
芒	-10.052
沮	-10.0525
之樂	-10.0529
荀	-10.0537
正月	-10.0539
之内	-10.0551
郷	-10.0551
掛	-10.0553
黄河	-10.0554
寂寂	-10.0555
迺	-10.0557
蠧	-10.0559
勑	-10.0568
卦	-10.0568
漠漠	-10.0578
干戈	-10.0589
廬山	-10.0589
郢	-10.0593
零	-10.0597
茅屋	-10.0599
項	-10.0601
穢	-10.0609
所居	-10.061
五百	-10.0612
膚	-10.0616
籬	-10.0616
鮑	-10.0622
塲	-10.0627
佇	-10.0657
太白	-10.0659
廓	-10.0661
段	-10.0666
誰與	-10.0667
儔	-10.0669
襄陽	-10.0672
辦	-10.0674
膠	-10.0677
九州	-10.0694
之可	-10.0694
棟	-10.0701
江東	-10.0701
珪	-10.0704
孚	-10.0706
也若	-10.0709
員外	-10.0715
鉤	-10.0716
數十	-10.0721
不行	-10.0729
元和	-10.0738
驟	-10.0738
僚	-10.0741
潰	-10.0743
硯	-10.0746
巫	-10.0752
一切	-10.0761
廼	-10.0767
掠	-10.0775
懽	-10.0786
豈有	-10.0787
吏部	-10.079
軾	-10.0793
葵	-10.0798
諡	-10.08
王者	-10.0802
毛詩曰	-10.0806
主簿	-10.0812
九月	-10.0815
新詩	-10.0816
東坡	-10.0817
城中	-10.0821
筍	-10.0824
夜深	-10.0831
研	-10.0832
上帝	-10.0834
擲	-10.0834
溜	-10.0838
鼻	-10.084
成功	-10.0842
一曲	-10.0842
蛟	-10.0849
斾	-10.0857
認	-10.0869
縮	-10.0875
者為	-10.0877
父老	-10.0879
冕	-10.0881
評	-10.0884
夢中	-10.0885
憚	-10.0892
欄	-10.0904
不到	-10.0906
迭	-10.0911
弛	-10.0915
此日	-10.0916
亨	-10.0921
翅	-10.0921
雨露	-10.0927
有以	-10.093
千秋	-10.0931
君子之	-10.0932
獨立	-10.0943
李白	-10.0943
作詩	-10.0946
坊	-10.0949
馴	-10.0955
貳	-10.0957
俯仰	-10.0964
慨	-10.0965
一年	-10.0969
衷	-10.0971
崑崙	-10.0972
榆	-10.0979
奢	-10.098
萬世	-10.0981
不死	-10.0982
成都	-10.099
不歸	-10.0995
不動	-10.0995
未得	-10.0996
此詩	-10.0997
剖	-10.1001
聰	-10.1012
奔走	-10.1018
狎	-10.1018
寒暑	-10.1022
湍	-10.1028
厓	-10.1032
杏	-10.1034
庶幾	-10.1037
碩	-10.1042
寇	-10.1045
姓名	-10.1052
透	-10.1054
汚	-10.1067
矣然	-10.1067
以示	-10.1068
謾	-10.1092
天道	-10.1096
貯	-10.1097
奉和	-10.1097
窈窕	-10.1103
幻	-10.1103
不朽	-10.1106
友人	-10.1113
之患	-10.1117
周禮	-10.1118
漿	-10.1123
轂	-10.1124
替	-10.1126
以求	-10.113
光武	-10.1132
人主	-10.1134
一身	-10.1136
羸	-10.1137
百萬	-10.1139
椒	-10.1153
之大	-10.1158
駿	-10.116
朴	-10.1161
瀾	-10.1165
恢	-10.1175
隕	-10.1175
遜	-10.1183
何由	-10.1186
既而	-10.1187
城郭	-10.1193
嵐	-10.1193
帝王	-10.1193
膽	-10.1195
渥	-10.1208
閨	-10.1209
浄	-10.1214
蛟龍	-10.1217
觀其	-10.1217
也又	-10.1222
終身	-10.1224
稅	-10.1227
絡	-10.1228
膳	-10.1234
無心	-10.1241
如今	-10.1252
餌	-10.1255
刼	-10.1257
涯	-10.1261
𦵏	-10.1263
啄	-10.1264
孤舟	-10.1265
愆	-10.1271
太原	-10.1275
韓愈	-10.1275
知之	-10.1283
捷	-10.1284
雛	-10.1288
鷹	-10.1293
蹙	-10.1297
居士	-10.1299
牖	-10.13
雲山	-10.13
搆	-10.1301
禱	-10.1304
旌旗	-10.1312
􁀙	-10.1313
有道	-10.1316
鷺	-10.1316
先帝	-10.1319
漂	-10.1319
再拜	-10.1335
算	-10.1353
瓶	-10.1359
而巳	-10.1363
騷	-10.1363
天命	-10.1364
東方	-10.1371
姜	-10.1379
嬉	-10.1392
覓	-10.1395
之理	-10.1421
刃	-10.1421
槎	-10.1422
鷄	-10.1428
六合	-10.1436
人有	-10.1441
生於	-10.146
而不知	-10.1466
同心	-10.1469
其上	-10.1482
神明	-10.1483
斜陽	-10.1489
攬	-10.1496
劔	-10.15
煖	-10.1505
者矣	-10.151
煙霞	-10.1523
精神	-10.153
闈	-10.1531
之變	-10.1532
之說	-10.1535
租	-10.1535
筠	-10.1536
愍	-10.1541
無聲	-10.1542
之書	-10.155
若是	-10.1554
中外	-10.1558
閭	-10.1561
桞	-10.1564
閉門	-10.1565
甸	-10.1567
所見	-10.1567
欲以	-10.1573
於人	-10.1579
之難	-10.1582
皇上	-10.1584
多少	-10.1585
郡縣	-10.159
以成	-10.1596
禀	-10.1611
恬	-10.1615
舟中	-10.1618
禾	-10.1628
臘	-10.1633
緯	-10.1636
踵	-10.164
門下	-10.164
童子	-10.1642
沸	-10.1644
所為	-10.1644
蔣	-10.1648
乂	-10.1649
艷	-10.1653
皇后	-10.1656
濡	-10.1665
鵬	-10.1673
陌	-10.1676
之用	-10.1676
老人	-10.1682
利害	-10.1683
字子	-10.1684
中興	-10.169
括	-10.1704
春水	-10.1704
猶在	-10.1706
隘	-10.1713
其實	-10.1714
之徳	-10.1714
鬭	-10.1718
平原	-10.1722
判官	-10.1723
太學	-10.1723
荆州	-10.1729
政事	-10.173
苖	-10.1736
出處	-10.1739
抛	-10.1741
栢	-10.1748
陛	-10.175
彫	-10.1753
撲	-10.1758
行之	-10.1761
二字	-10.1763
眇	-10.177
艾	-10.1779
拍	-10.1781
白雪	-10.1794
演	-10.18
阮	-10.1804
頴	-10.1817
大道	-10.1818
五臣	-10.1818
輕重	-10.182
牒	-10.1821
液	-10.1824
之風	-10.1834
未盡	-10.1834
十七	-10.1835
牲	-10.1835
毅	-10.1835
旨	-10.1842
中流	-10.1843
夜雨	-10.1855
氏之	-10.1857
終不	-10.186
鬚	-10.1861
世事	-10.1862
萬人	-10.1863
黍	-10.1867
迢迢	-10.1869
庫	-10.1869
粗	-10.187
捲	-10.1874
八十	-10.1878
奈	-10.1882
蕙	-10.1882
死生	-10.1884
五湖	-10.1887
錢塘	-10.1896
未可	-10.1908
不當	-10.191
斯文	-10.1911
於時	-10.1921
螢	-10.1924
帯	-10.1927
八年	-10.1928
梯	-10.1929
六經	-10.1929
自得	-10.1933
畵	-10.1934
以待	-10.1935
皓	-10.1942
甕	-10.1944
意氣	-10.1957
三尺	-10.1959
梓	-10.1963
幾時	-10.1964
悵	-10.1964
携	-10.1966
有功	-10.1971
秋夜	-10.1973
白石	-10.1974
綸	-10.1975
飈	-10.1977
死者	-10.1982
狼	-10.1985
臣等	-10.1991
長江	-10.1992
酸	-10.2004
将軍	-10.2006
釁	-10.2016
懋	-10.2026
嘶	-10.2026
春雨	-10.2027
乙	-10.2027
杏花	-10.2028
魁	-10.2032
雲氣	-10.2033
無情	-10.2033
粤	-10.2035
二十年	-10.2039
狹	-10.204
玉堂	-10.2041
從之	-10.2042
腐	-10.2045
驂	-10.2046
檀	-10.2046
老子	-10.2046
大小	-10.206
豫章	-10.206
訖	-10.2064
見之	-10.2065
道之	-10.2076
人物	-10.2076
安能	-10.2077
䦨	-10.208
詰	-10.2081
措	-10.2082
玉山	-10.209
藍	-10.2091
所得	-10.2092
猷	-10.21
婉	-10.2107
致仕	-10.2109
餉	-10.2111
矣夫	-10.2114
陞	-10.2115
不作	-10.2117
王子	-10.2119
白居易	-10.2119
澆	-10.2123
勃	-10.2125
属	-10.2125
若乃	-10.2129
後人	-10.2135
扶桑	-10.2136
塟	-10.2139
絮	-10.2146
時時	-10.2146
六十	-10.2147
狄	-10.2147
翮	-10.2148
軰	-10.215
濬	-10.2151
梧	-10.2154
州縣	-10.2155
攘	-10.2161
不遇	-10.2164
盡日	-10.2167
欹	-10.2184
渺	-10.2185
縣令	-10.2194
撥	-10.2196
簟	-10.2204
怡	-10.2207
粧	-10.2207
貸	-10.2211
櫂	-10.2211
無為	-10.2212
瀉	-10.2216
士之	-10.222
昨日	-10.2221
佞	-10.2221
扣	-10.2237
麾	-10.2241
沖	-10.2244
江漢	-10.225
野人	-10.2257
昔者	-10.2257
樸	-10.2261
孔子曰	-10.2264
組	-10.2264
百尺	-10.2276
峭	-10.2277
軟	-10.2278
失其	-10.2288
隐	-10.229
雨中	-10.2292
時人	-10.2294
聞道	-10.2296
賔客	-10.2301
他人	-10.231
丸	-10.231
而去	-10.2315
安知	-10.2316
琵琶	-10.2318
丕	-10.2322
棗	-10.2334
艶	-10.2339
天子之	-10.2344
之類	-10.2349
耗	-10.235
年七	-10.236
綬	-10.236
擒	-10.2362
何當	-10.2363
釵	-10.2366
髣髴	-10.2368
誡	-10.2369
瘴	-10.237
其下	-10.2378
終始	-10.2384
不信	-10.2387
颺	-10.2397
霍	-10.2401
見寄	-10.2401
凖	-10.2403
泰山	-10.2403
三十六	-10.2404
闡	-10.2408
為韻	-10.2408
於世	-10.2408
怠	-10.2413
滄洲	-10.2418
寅	-10.2422
則其	-10.2433
知音	-10.2441
之政	-10.2453
晉書	-10.2458
揚雄	-10.2459
薰	-10.2462
之利	-10.2463
林下	-10.2472
之禍	-10.2474
繪	-10.2474
豈知	-10.2474
世人	-10.2475
牡丹	-10.2482
離别	-10.2501
芽	-10.2512
䕫	-10.2515
橫	-10.2515
鴨	-10.2525
劾	-10.2525
石上	-10.2526
歷	-10.2536
夜半	-10.2554
今古	-10.2558
一字	-10.2563
些	-10.2564
殫	-10.2566
忿	-10.2566
逈	-10.2567
祖宗	-10.2569
十萬	-10.2572
迅	-10.2576
歎息	-10.2577
五日	-10.2588
靑	-10.259
嗜	-10.2591
耿	-10.2597
何年	-10.2603
細雨	-10.2603
河北	-10.2608
相國	-10.2608
五言	-10.2618
不欲	-10.262
恕	-10.263
王公	-10.2632
者曰	-10.2633
題畫	-10.2638
漕	-10.264
久矣	-10.2641
竦	-10.2642
敲	-10.2642
漾	-10.2644
飲食	-10.2644
無由	-10.2649
穎	-10.2652
輯	-10.2658
黄帝	-10.2658
禮記	-10.2668
年少	-10.2672
三人	-10.2673
漢書曰	-10.2673
床	-10.268
麓	-10.2685
皆以	-10.2686
鋭	-10.2686
五首	-10.2687
飛鳥	-10.2689
亘	-10.2693
取其	-10.2695
敕	-10.2697
馬上	-10.2698
故能	-10.2698
閒居	-10.2699
嗚呼哀哉	-10.2701
池上	-10.2709
裙	-10.271
畱	-10.2712
先王之	-10.2716
山居	-10.2717
穹	-10.2724
紅塵	-10.2725
功成	-10.2728
苞	-10.273
鏤	-10.2736
嗟乎	-10.2738
糾	-10.2739
豈可	-10.2743
奄	-10.2744
北風	-10.2745
得以	-10.2745
吁	-10.2752
茗	-10.2753
賦得	-10.2756
自知	-10.2758
風起	-10.2759
箕	-10.276
蹄	-10.2761
消息	-10.2765
之命	-10.2765
不顧	-10.277
怕	-10.2772
蔵	-10.2775
衾	-10.2779
之業	-10.278
狗	-10.2785
送客	-10.2785
使之	-10.279
生死	-10.2792
耆	-10.2793
蒼茫	-10.2794
武陵	-10.2801
㝷	-10.2801
雨後	-10.2804
迨	-10.2807
上林	-10.2814
之論	-10.2817
殺之	-10.2823
何用	-10.2825
不絶	-10.2828
聖主	-10.2831
而又	-10.2838
艱難	-10.2841
白露	-10.2846
翠微	-10.2846
秋月	-10.2847
傷心	-10.2847
四月	-10.2848
覔	-10.285
之節	-10.2855
檐	-10.2856
祕	-10.2858
數年	-10.2861
衫	-10.2865
此心	-10.2865
歸路	-10.2867
翡翠	-10.2871
稼	-10.2872
成王	-10.288
不暇	-10.2882
蘂	-10.2888
冐	-10.2893
物之	-10.2897
不應	-10.2897
涇	-10.2903
譬	-10.2916
以上	-10.2918
為誰	-10.2925
不通	-10.2926
春光	-10.2928
邸	-10.2935
葩	-10.2938
盪	-10.2939
洎	-10.2941
笙	-10.2941
未足	-10.2942
在於	-10.2943
秪	-10.2952
而已矣	-10.2956
酷	-10.2957
而復	-10.296
於斯	-10.297
於天	-10.2972
鋤	-10.2976
娛	-10.2981
簫	-10.2983
文粹	-10.2987
道也	-10.2991
甘泉	-10.2995
咸陽	-10.3003
之衆	-10.3006
遏	-10.3007
悠然	-10.3011
之任	-10.3019
轅	-10.3023
賁	-10.3025
所在	-10.3028
誨	-10.3029
元氣	-10.3031
於今	-10.3032
詩話	-10.3034
睂	-10.3037
稷	-10.304
耻	-10.304
非有	-10.3046
雲間	-10.3047
朱子	-10.3049
漢家	-10.3052
縹緲	-10.3053
奬	-10.3059
倘	-10.3063
未嘗不	-10.3071
我心	-10.3077
骨肉	-10.3083
厨	-10.3084
躋	-10.3098
亭亭	-10.3104
桃源	-10.3112
盆	-10.3112
風月	-10.3115
婦人	-10.3117
薫	-10.3119
薨	-10.3121
胡為	-10.3122
乃知	-10.3126
為政	-10.3126
坂	-10.3126
殁	-10.3129
日出	-10.3131
曳	-10.3133
黄花	-10.3136
而不可	-10.3138
江頭	-10.3142
九年	-10.3143
知君	-10.3143
模	-10.3144
三公	-10.3145
不失	-10.3146
之罪	-10.3146
為國	-10.3146
屐	-10.3147
何其	-10.3149
之末	-10.315
駢	-10.3155
群	-10.3157
溪上	-10.3159
逄	-10.316
呌	-10.3161
此身	-10.3166
忠臣	-10.3167
鉅	-10.3169
誌	-10.3171
之計	-10.3178
世祖	-10.3184
塢	-10.3192
陽春	-10.3192
汴	-10.3192
於上	-10.3196
徇	-10.3203
跳	-10.3206
而天下	-10.3206
或曰	-10.3208
鄒	-10.3211
紋	-10.3211
隊	-10.3211
韜	-10.3212
高祖	-10.3215
呂	-10.3217
故國	-10.3225
一何	-10.3225
京兆	-10.3234
鯨	-10.3235
其地	-10.3236
為文	-10.3239
不厭	-10.3241
議論	-10.3241
山寺	-10.3244
日落	-10.3259
縛	-10.3265
議者	-10.3266
用兵	-10.3272
古木	-10.3275
倐	-10.328
亦無	-10.3288
長史	-10.3302
應制	-10.3302
晞	-10.3303
鸚鵡	-10.3307
此其	-10.3316
柴門	-10.3321
斯人	-10.3323
葦	-10.3327
㟁	-10.3333
侔	-10.3336
嬾	-10.3338
幅	-10.3338
兎	-10.3339
次第	-10.334
若干	-10.3341
不若	-10.3347
蠲	-10.335
慣	-10.3352
妨	-10.3353
至此	-10.3356
禪師	-10.3358
釐	-10.3358
睦	-10.3361
之世	-10.3363
三山	-10.3366
瑤	-10.3368
不合	-10.337
尚有	-10.3378
飭	-10.3381
祉	-10.3381
淹留	-10.3383
宥	-10.3386
又何	-10.3387
十九	-10.3389
國公	-10.3391
還家	-10.3394
鳯凰	-10.3397
媒	-10.3398
我欲	-10.3418
嶠	-10.3421
懇	-10.3422
月色	-10.3427
蟾	-10.3429
别有	-10.3433
牋	-10.3434
少府	-10.3435
級	-10.3438
名曰	-10.3438
相從	-10.344
緘	-10.3442
漢之	-10.3451
其功	-10.3463
庵	-10.3465
桀	-10.3466
粒	-10.3476
什	-10.3479
諸子	-10.348
罹	-10.3483
藹	-10.3484
將以	-10.3486
絶句	-10.3487
之謂	-10.3488
黛	-10.3498
借問	-10.3499
梧桐	-10.3503
閟	-10.3514
閶闔	-10.352
南國	-10.352
腥	-10.352
溥	-10.3523
紗	-10.3525
㠶	-10.3527
昔人	-10.3528
坎	-10.3532
矩	-10.3533
公主	-10.3535
視之	-10.3536
一篇	-10.354
弭	-10.3542
雖然	-10.355
須臾	-10.355
田家	-10.3551
依舊	-10.3554
吾子	-10.3557
簇	-10.3558
忠信	-10.356
浩蕩	-10.356
雨過	-10.3567
春來	-10.3574
昆	-10.3576
水流	-10.3587
胄	-10.3591
其勢	-10.3592
珊瑚	-10.3595
聰明	-10.3596
亦可	-10.3606
勾	-10.3606
搏	-10.3607
功臣	-10.3608
蘚	-10.3611
而未	-10.3611
揭	-10.3615
忤	-10.3621
髻	-10.3621
取之	-10.3622
猜	-10.3627
於外	-10.3631
槩	-10.3635
戢	-10.3639
由來	-10.3641
北山	-10.3646
或有	-10.3651
不知其	-10.3654
莊子	-10.3659
猨	-10.3665
翹	-10.3668
長者	-10.3669
冉冉	-10.3669
逶迤	-10.3678
非所	-10.3679
王氏	-10.3682
不免	-10.3684
不許	-10.3697
漫漫	-10.3698
不獲	-10.37
鄴	-10.3706
不肖	-10.371
秋聲	-10.371
夏日	-10.3717
鼠	-10.3724
寮	-10.3733
夜夜	-10.3733
見於	-10.3735
方今	-10.3742
盃	-10.3743
釀	-10.3743
唯有	-10.3747
鬻	-10.375
奕	-10.375
不解	-10.3751
之數	-10.3755
塵土	-10.3759
脂	-10.3761
先後	-10.3761
莎	-10.3763
若有	-10.3766
兇	-10.3767
簮	-10.3769
府君	-10.3769
之矣	-10.377
柴	-10.3772
明主	-10.3776
一生	-10.378
讌	-10.3785
札	-10.3788
七月	-10.3788
舍人	-10.379
駒	-10.3801
江陵	-10.3804
月下	-10.3805
登樓	-10.3809
庇	-10.3814
周旋	-10.3816
之作	-10.3825
簿	-10.3825
瀆	-10.3825
山之	-10.3826
一百	-10.3828
衣食	-10.383
者哉	-10.3837
系	-10.3841
于是	-10.3852
羮	-10.3853
蒼生	-10.3853
獨有	-10.3853
有此	-10.3856
廣陵	-10.3858
潺湲	-10.3861
遣使	-10.3862
無一	-10.3873
裹	-10.3873
者又	-10.3881
㓂	-10.3881
戯	-10.3881
孝子	-10.3886
白玉	-10.3886
無遺	-10.3888
髙樓	-10.3891
離離	-10.3895
孽	-10.3895
醴	-10.3895
浙	-10.39
摇	-10.3904
詔書	-10.3905
其有	-10.3906
譚	-10.3912
三十年	-10.3915
但見	-10.3916
當世	-10.3918
本無	-10.3918
瑕	-10.3923
其所以	-10.3924
茹	-10.3924
有客	-10.3925
我亦	-10.3931
雞鳴	-10.3932
之屬	-10.3937
從來	-10.3939
年六	-10.394
馬蹄	-10.3945
北斗	-10.3947
妬	-10.3948
諸將	-10.3948
行行	-10.3954
舂	-10.3957
化為	-10.3959
風光	-10.3962
置酒	-10.3962
藁	-10.397
寘	-10.3971
之使	-10.3979
不改	-10.3979
之師	-10.3983
的	-10.3983
夸	-10.3984
不來	-10.3984
醪	-10.3985
貴賤	-10.3988
鼇	-10.3989
青春	-10.3989
淵明	-10.3994
株	-10.3998
孤城	-10.3998
之力	-10.4005
𦙍	-10.4008
也則	-10.4013
豪傑	-10.4014
有大	-10.4014
牛羊	-10.4016
則是	-10.4016
上方	-10.4018
悵望	-10.4018
鄉里	-10.4032
看花	-10.4032
之國	-10.4034
憶昔	-10.4034
言者	-10.4042
畝	-10.4044
何須	-10.4045
安可	-10.4046
古來	-10.405
天寒	-10.4056
宣帝	-10.4059
葺	-10.4061
竈	-10.4067
無有	-10.4069
趂	-10.4069
儂	-10.4075
斤	-10.4078
蒼苔	-10.4079
未見	-10.4081
礙	-10.4081
猥	-10.4086
伏惟	-10.4088
逋	-10.4091
辛苦	-10.4092
不宜	-10.4114
璞	-10.4116
欽定四庫全書	-10.4118
剥	-10.4118
公以	-10.4118
固有	-10.4121
逞	-10.413
插	-10.4133
不起	-10.4134
翟	-10.4135
裾	-10.4136
眩	-10.4137
也且	-10.4143
可為	-10.4151
公孫	-10.4155
貞元	-10.4159
侮	-10.4159
聿	-10.4163
坦	-10.4167
依然	-10.4168
訝	-10.417
慵	-10.417
無言	-10.417
論語	-10.4172
未聞	-10.4173
償	-10.4177
伺	-10.4177
與人	-10.4185
朙	-10.4187
夜月	-10.4188
噐	-10.4188
自謂	-10.4189
挿	-10.4193
衙	-10.4197
於是乎	-10.421
宫中	-10.4214
左傳	-10.4215
而歸	-10.4215
松風	-10.4224
日夕	-10.4229
甲子	-10.423
風波	-10.4237
凄	-10.4237
邯鄲	-10.4241
趾	-10.4252
之官	-10.4255
蓮花	-10.426
髯	-10.4261
護	-10.4262
膝	-10.4263
可也	-10.4263
貧賤	-10.4266
綜	-10.4272
悍	-10.4272
著書	-10.4273
廹	-10.4279
始知	-10.4281
在位	-10.4281
獨坐	-10.4283
自憐	-10.4286
挈	-10.4288
無極	-10.4292
一見	-10.4302
而死	-10.4305
垢	-10.4314
三四	-10.4315
豈能	-10.4322
以是	-10.4322
對酒	-10.4324
邃	-10.4325
煮	-10.4328
山谷	-10.4329
何者	-10.4331
肌	-10.4331
拯	-10.4335
賈誼	-10.4339
先生之	-10.434
如故	-10.434
邱	-10.4347
道徳	-10.4353
兒女	-10.4354
崔嵬	-10.4355
殺人	-10.4359
二三	-10.4368
敘	-10.4369
之弊	-10.4369
數百	-10.4372
名山	-10.4373
帽	-10.4375
飄飄	-10.4376
憎	-10.4378
之恩	-10.4382
禮部	-10.4383
節度	-10.4384
億	-10.4385
貞觀	-10.4387
皷	-10.439
慨然	-10.4393
登髙	-10.4394
九十	-10.4394
雲雨	-10.4396
漆	-10.4397
燈火	-10.4401
知已	-10.4403
臣竊	-10.4404
棺	-10.4409
犢	-10.4411
二百	-10.4412
憔悴	-10.4416
之君	-10.442
人以	-10.4422
贍	-10.4425
山頭	-10.4427
重陽	-10.4428
蟄	-10.4431
不求	-10.444
憩	-10.4441
僊	-10.4443
生涯	-10.4444
第二	-10.4446
緬	-10.4454
岩	-10.4455
君家	-10.4456
讎	-10.4456
鈴	-10.4459
貎	-10.4462
太和	-10.4465
聖明	-10.4472
䧟	-10.4474
伎	-10.4478
拳	-10.4479
版	-10.4481
暎	-10.4485
刹	-10.4493
之聲	-10.4495
紂	-10.4506
其一	-10.4507
該	-10.4514
罄	-10.4514
壯士	-10.4516
其可	-10.4517
載酒	-10.4518
愜	-10.452
憫	-10.4521
善惡	-10.4528
貝	-10.4531
月照	-10.4535
炊	-10.4539
晝夜	-10.4542
深處	-10.4551
唐虞	-10.4552
無疆	-10.4561
焚香	-10.4563
風景	-10.4575
覲	-10.4576
禮義	-10.4577
五雲	-10.4588
熾	-10.459
臨風	-10.459
求之	-10.4595
悖	-10.4596
石門	-10.46
羲	-10.46
笋	-10.4604
飇	-10.4606
畿	-10.4609
臣之	-10.4612
萬方	-10.4615
言其	-10.4621
而弗	-10.4624
之門	-10.4624
不入	-10.4627
汾	-10.4635
舘	-10.4635
燕子	-10.4636
法度	-10.4643
多士	-10.4654
而可	-10.4654
未歸	-10.4659
也吾	-10.4663
上天	-10.4663
與其	-10.4663
已而	-10.4665
宛轉	-10.4666
浚	-10.4668
十載	-10.467
又云	-10.4674
饋	-10.4675
復何	-10.468
相看	-10.4685
舅	-10.4687
之流	-10.4688
曰我	-10.4691
東都	-10.4692
燎	-10.4692
緜	-10.4696
鐡	-10.4697
白鷗	-10.4698
為大	-10.47
筭	-10.4704
人所	-10.4705
山隂	-10.4711
嘲	-10.4714
篷	-10.4715
壮	-10.4716
稠	-10.4718
畫圖	-10.4723
冗	-10.4732
别後	-10.4735
銳	-10.4739
衮	-10.4744
所欲	-10.4744
募	-10.4744
其才	-10.4745
誰為	-10.4747
册	-10.4748
老去	-10.4749
笳	-10.4754
未成	-10.4754
其本	-10.4756
銀河	-10.4757
女子	-10.4763
大江	-10.4765
副使	-10.4772
蹟	-10.4775
大抵	-10.4778
遞	-10.4782
經營	-10.4784
朋友	-10.4786
之位	-10.4789
巒	-10.4796
胎	-10.4804
巔	-10.4806
渡江	-10.4806
於前	-10.4808
軼	-10.481
以相	-10.4826
荘	-10.4831
家人	-10.4831
河漢	-10.4835
渴	-10.4837
曲江	-10.4839
萬頃	-10.4841
拊	-10.4845
月中	-10.4846
南海	-10.4847
南京	-10.4853
刪	-10.4853
長松	-10.4853
三代之	-10.4855
無異	-10.4859
賖	-10.4862
波濤	-10.4864
四夷	-10.4874
訛	-10.4876
虬	-10.4877
賚	-10.4877
此中	-10.488
殞	-10.4882
鎭	-10.4885
送君	-10.4887
我來	-10.4889
未易	-10.4889
俸	-10.4896
庚	-10.4899
喬木	-10.4899
也哉	-10.4904
又以	-10.4907
曵	-10.4918
數日	-10.4925
歌曰	-10.4926
星辰	-10.4927
竹林	-10.4928
煎	-10.494
江流	-10.494
楊柳	-10.4942
不息	-10.4942
畆	-10.4945
榭	-10.4947
曩	-10.4953
不明	-10.4954
而行	-10.4956
新安	-10.4959
㢘	-10.4961
濵	-10.4961
教化	-10.4966
嫩	-10.4971
黄葉	-10.4974
庠	-10.4979
未至	-10.498
謳	-10.4989
賞罰	-10.4993
貺	-10.4994
盍	-10.4995
之辭	-10.4996
檜	-10.4996
蹉跎	-10.4998
其先	-10.5008
白鶴	-10.5011
瀑	-10.5011
其義	-10.5016
清溪	-10.5024
之本	-10.5025
愴	-10.5025
杭	-10.5027
一家	-10.5032
當其	-10.5034
玲瓏	-10.5034
厄	-10.5036
之役	-10.5037
何有	-10.5042
契丹	-10.5042
一杯	-10.5045
言語	-10.5048
炙	-10.505
甄	-10.505
歸心	-10.5051
聖朝	-10.5051
秋草	-10.5052
在天	-10.5056
棊	-10.5056
隨風	-10.5058
彭城	-10.5059
之重	-10.506
祁	-10.5067
半夜	-10.5068
此意	-10.507
鞠	-10.5074
思君	-10.5076
状	-10.5077
於朝	-10.5085
秦王	-10.5091
水中	-10.5091
太極	-10.5093
巍巍	-10.5097
磴	-10.5097
稔	-10.5103
龎	-10.5104
與子	-10.5111
長生	-10.5114
巫山	-10.5114
太行	-10.5114
制度	-10.5117
企	-10.5117
斷腸	-10.5118
㤀	-10.5123
擕	-10.5124
螭	-10.5127
而上	-10.5129
跋	-10.5131
幽居	-10.5132
王道	-10.5134
垂楊	-10.5134
盛徳	-10.5135
鳳凰	-10.5136
不已	-10.5136
滛	-10.5138
相知	-10.5141
送李	-10.5143
覃	-10.5145
潦	-10.5146
光輝	-10.5149
故山	-10.5151
故也	-10.5151
耿耿	-10.5152
稟	-10.5153
劫	-10.5153
檣	-10.5153
熏	-10.5154
弩	-10.5155
文公	-10.5161
噴	-10.5164
四面	-10.5164
冢	-10.5166
莫敢	-10.5168
蘇州	-10.517
三五	-10.5176
掲	-10.5182
焉而	-10.5188
碧雲	-10.5188
皎皎	-10.5188
二千石	-10.5189
兒童	-10.519
所至	-10.5192
不食	-10.5195
籟	-10.5199
蒼梧	-10.5199
拾遺	-10.52
蛾	-10.5202
因以	-10.5205
漠	-10.5206
泠泠	-10.5206
匣	-10.5207
年來	-10.5208
霜露	-10.5209
肅肅	-10.5217
以明	-10.5217
死而	-10.5228
然也	-10.5228
王安石	-10.523
樓上	-10.5234
而莫	-10.5237
其民	-10.5238
王室	-10.5239
龕	-10.5243
自此	-10.5246
之妙	-10.5251
矣今	-10.5252
鑾	-10.5253
洒	-10.5255
金華	-10.5255
馨	-10.5257
百世	-10.526
魚龍	-10.5261
臨水	-10.5261
亦以	-10.5263
蹊	-10.5275
甘露	-10.5276
幄	-10.5278
撓	-10.5278
得意	-10.5279
浩浩	-10.5281
安危	-10.5281
飛來	-10.5282
無可	-10.5287
之能	-10.5288
此則	-10.5289
卉	-10.5293
渙	-10.5296
麒麟	-10.53
不善	-10.5301
酒酣	-10.5305
黯	-10.5308
無定	-10.531
拓	-10.531
漁父	-10.5312
長歌	-10.5316
節度使	-10.5319
真人	-10.532
不止	-10.5325
减	-10.5333
箱	-10.534
欠	-10.5341
太湖	-10.5341
二十四	-10.5344
夙夜	-10.5347
忠義	-10.5353
不從	-10.5359
其能	-10.5364
他年	-10.5364
饌	-10.5364
門人	-10.5365
然其	-10.5366
以告	-10.537
歙	-10.5371
輅	-10.5371
頥	-10.5372
劣	-10.5377
鞍	-10.5378
海棠	-10.538
䨇	-10.5382
其父	-10.5382
有一	-10.5389
蘓	-10.5392
士卒	-10.5395
摶	-10.5395
佚	-10.5395
天門	-10.5398
尋常	-10.54
法師	-10.5404
風霜	-10.5405
而非	-10.5406
昔年	-10.5408
所聞	-10.5409
人言	-10.5414
鎻	-10.5417
無數	-10.5419
時節	-10.5421
杜甫	-10.5425
和氣	-10.5431
泄	-10.5431
生民	-10.5431
迸	-10.544
洪武	-10.544
有聲	-10.5441
無處	-10.5443
江淮	-10.5446
騖	-10.545
慟	-10.5452
長洲	-10.5454
稚	-10.5454
罵	-10.5462
草色	-10.5465
之詩	-10.547
𥘉	-10.547
涸	-10.5471
使我	-10.5471
亢	-10.5477
經年	-10.5478
闥	-10.5479
道者	-10.5481
煌煌	-10.5482
遂以	-10.5482
而得	-10.5484
繆	-10.5485
一曰	-10.5491
之職	-10.5491
謚	-10.5492
周之	-10.5507
現	-10.5509
之憂	-10.551
萬象	-10.5512
芳菲	-10.5519
則又	-10.552
伊尹	-10.5523
天人	-10.5524
幾人	-10.5524
人不	-10.5527
爾乃	-10.5528
斃	-10.5529
浹	-10.5529
苛	-10.5532
準	-10.5533
西域	-10.5537
長嘯	-10.5538
隳	-10.5541
霜雪	-10.5542
薄暮	-10.5551
不獨	-10.5554
黄昏	-10.5555
㨗	-10.5557
參軍	-10.556
不妨	-10.556
隈	-10.5562
走馬	-10.5563
不能自	-10.5572
歆	-10.5577
幢	-10.5577
而欲	-10.558
廡	-10.5583
無私	-10.5583
砧	-10.559
宋玉	-10.5592
茵	-10.5597
古詩	-10.5598
逺山	-10.5599
雋	-10.56
經過	-10.56
禍福	-10.5603
五行	-10.5604
孤雲	-10.5604
訣	-10.561
始終	-10.5615
有常	-10.5617
豕	-10.562
五臣本	-10.5622
婢	-10.5622
九天	-10.5625
繭	-10.5625
百花	-10.5627
蒿	-10.5629
倩	-10.5632
曼	-10.5632
相憶	-10.5634
僣	-10.564
中山	-10.5641
蛾眉	-10.5645
與我	-10.5645
滿地	-10.5646
天際	-10.5654
西園	-10.5656
五更	-10.5663
掖	-10.5663
笙歌	-10.5666
沽	-10.5667
武昌	-10.5678
帙	-10.5681
豈惟	-10.5683
知有	-10.5684
囂	-10.5686
鄉人	-10.569
加以	-10.5693
不問	-10.5693
為天下	-10.5696
庾信	-10.5696
反覆	-10.5705
潁	-10.5711
嶂	-10.572
不似	-10.5723
萬一	-10.5727
思歸	-10.573
岱	-10.573
不樂	-10.573
紹興	-10.5732
寤	-10.5732
鬛	-10.5733
郡守	-10.5733
弁	-10.5734
使其	-10.5734
蘋	-10.5735
恊	-10.5741
暄	-10.5742
以致	-10.5743
西京	-10.575
翊	-10.5751
褐	-10.5753
之音	-10.5754
枚	-10.5755
礪	-10.5757
雖不	-10.5758
旭	-10.5764
則曰	-10.5766
吾道	-10.577
矣故	-10.5771
智者	-10.5773
殖	-10.5774
芻	-10.5777
睇	-10.5779
笻	-10.5779
多病	-10.5781
南風	-10.5784
駟	-10.5786
之資	-10.5786
彛	-10.5788
臨川	-10.5793
綰	-10.5797
鬟	-10.5801
屈原	-10.5803
覿	-10.5805
班固	-10.5805
章句	-10.5808
俠	-10.5809
神武	-10.5811
扃	-10.5813
琅玕	-10.5816
姪	-10.582
如雲	-10.5821
洋洋	-10.5821
夷狄	-10.5821
氊	-10.5822
雌	-10.5823
山僧	-10.5823
篋	-10.5823
給事中	-10.5831
寥廓	-10.5832
悽	-10.5836
皎	-10.584
武功	-10.5842
之實	-10.5844
琢	-10.5847
相親	-10.5847
皋	-10.5848
殄	-10.5849
人之所	-10.5849
梗	-10.5851
宫室	-10.5851
所思	-10.5858
吸	-10.5858
皇天	-10.5865
梳	-10.5869
無他	-10.587
樂天	-10.5871
大雅	-10.5872
東北	-10.5873
股	-10.5876
是為	-10.5878
不辭	-10.5878
暮春	-10.5882
瞰	-10.5884
爲之	-10.5885
而作	-10.5887
風煙	-10.5889
剡	-10.589
名也	-10.5891
楚王	-10.5894
以文	-10.5897
繁華	-10.5898
霏	-10.59
髙堂	-10.5902
復有	-10.5903
千山	-10.5905
東門	-10.5908
楫	-10.5917
虎豹	-10.5923
清光	-10.5924
三軍	-10.5928
之家	-10.5929
蔑	-10.593
聮	-10.5933
綃	-10.5933
蝕	-10.5939
沈沈	-10.5945
檢校	-10.5946
教授	-10.5946
劉氏	-10.5947
以聞	-10.5947
楊花	-10.5949
而求	-10.595
園林	-10.5955
者多	-10.5955
鐸	-10.5955
優游	-10.596
相傳	-10.5961
潄	-10.5964
遲遲	-10.5964
湖山	-10.5969
衆人	-10.5969
所知	-10.598
幕府	-10.5981
恪	-10.5982
賂	-10.5984
舉進士	-10.5989
存亡	-10.5989
鵝	-10.599
蜜	-10.599
萬壑	-10.5994
想見	-10.5996
大業	-10.6001
多情	-10.6003
皇太子	-10.6004
太傅	-10.6005
天下之人	-10.6008
埃	-10.6009
忠孝	-10.6013
瓜	-10.6016
箋	-10.6017
夣	-10.6021
觀之	-10.6027
五帝	-10.6027
麋鹿	-10.6028
飬	-10.6031
非其	-10.6032
儒者	-10.6038
不惜	-10.6039
訊	-10.604
謠	-10.6041
可知	-10.6041
石室	-10.6045
月夜	-10.6046
雷霆	-10.605
為客	-10.6052
餓	-10.6068
詩成	-10.6069
至矣	-10.6074
可見	-10.6078
凱	-10.608
管仲	-10.6083
稽首	-10.6083
惰	-10.6084
瓢	-10.6087
不逺	-10.6088
則知	-10.6093
鳥獸	-10.6095
肝	-10.6097
何也	-10.61
胸中	-10.6102
滕	-10.6103
或以	-10.6108
而卒	-10.6114
洩	-10.6117
明珠	-10.6118
長城	-10.6121
烟霞	-10.6122
郡國	-10.6123
蕭然	-10.6124
得一	-10.6125
之始	-10.6129
眼前	-10.6129
事業	-10.6129
天寳	-10.614
顏	-10.6141
玉樹	-10.6141
之謀	-10.6146
清夜	-10.615
朝陽	-10.6154
相隨	-10.6154
軍中	-10.6157
至正	-10.6159
頸	-10.6163
菊花	-10.6172
談笑	-10.6173
龔	-10.6179
所宜	-10.6182
小臣	-10.6185
南史	-10.6185
杭州	-10.6192
杜陵	-10.6197
漢王	-10.6204
稿	-10.6204
行樂	-10.6205
則必	-10.6206
紳	-10.6208
赫赫	-10.6209
油	-10.6213
所藏	-10.6216
不禁	-10.622
事君	-10.6222
我有	-10.6222
涌	-10.6225
以謂	-10.6226
我皇	-10.6227
永嘉	-10.6233
鈔	-10.6234
股肱	-10.6237
豈獨	-10.6241
豎	-10.6242
歌聲	-10.6244
閻	-10.6246
至是	-10.6248
斟	-10.6252
囘首	-10.6252
濟濟	-10.6254
不疑	-10.6255
自言	-10.6256
爪	-10.6257
泝	-10.6259
僉	-10.6259
四人	-10.626
非一	-10.6262
鯉	-10.6268
與夫	-10.6271
舊遊	-10.6272
贖	-10.6274
鞏	-10.6274
婚	-10.6274
河陽	-10.6281
太師	-10.6282
嘉靖	-10.6284
沂	-10.6286
牟	-10.6287
鍊	-10.6288
在上	-10.6288
囿	-10.6294
楚辭	-10.6297
丙	-10.6298
春山	-10.6299
大事	-10.6299
娘	-10.6299
鴛	-10.6302
月落	-10.6303
故有	-10.6308
幾度	-10.6313
與世	-10.6319
封侯	-10.6321
倪	-10.6322
在兹	-10.6323
僕射	-10.6325
日以	-10.6327
脈	-10.6336
腴	-10.6337
僭	-10.6337
閣下	-10.6338
起居	-10.6338
鐘聲	-10.6339
大王	-10.634
邢	-10.6345
娯	-10.6349
貂	-10.6349
賢人	-10.6351
狥	-10.6351
自號	-10.6353
詩一首	-10.6355
一葉	-10.6359
霖	-10.636
胸	-10.6363
偶然	-10.6364
巘	-10.6367
小兒	-10.637
此皆	-10.6371
人者	-10.6373
不去	-10.6373
舄	-10.6376
灼	-10.638
九江	-10.6384
覇	-10.6385
愼	-10.6386
遊子	-10.6386
閤	-10.6392
大明	-10.6395
監察御史	-10.6395
張公	-10.6401
梨	-10.6402
其説	-10.6402
也昔	-10.6403
天意	-10.6409
有三	-10.6413
梟	-10.6413
摹	-10.6415
其辭	-10.6416
無功	-10.6419
可惜	-10.6421
都督	-10.6422
壅	-10.6423
菱	-10.6424
璽	-10.6424
蕊	-10.6426
箇	-10.6428
冥冥	-10.6429
建安	-10.6441
番	-10.6444
溫	-10.6444
蛩	-10.6449
鉢	-10.645
心事	-10.6453
跪	-10.6454
始皇	-10.6456
通判	-10.6456
上疏	-10.6459
而立	-10.6466
桓公	-10.6467
嬴	-10.647
之賢	-10.6472
貲	-10.6474
一一	-10.6475
無乃	-10.6479
五六	-10.6484
郵	-10.6485
二公	-10.6486
江城	-10.6491
撼	-10.6492
沈約	-10.6497
蕭瑟	-10.6499
歐陽	-10.6502
緇	-10.6505
蛙	-10.6509
在此	-10.6509
擔	-10.6512
教之	-10.6515
曰是	-10.6516
公為	-10.6525
朶	-10.6526
纖	-10.6526
可得	-10.6528
水旱	-10.6528
髙下	-10.6528
五代	-10.6531
從軍	-10.6532
庖	-10.6532
幾何	-10.6535
十餘	-10.6535
弋	-10.6538
之主	-10.6541
猶可	-10.6548
於後	-10.6548
青松	-10.6548
杞	-10.6553
絹	-10.6553
六百	-10.6553
爾其	-10.6558
於下	-10.656
秦漢	-10.6561
溼	-10.6561
緝	-10.6562
嫉	-10.6563
乎此	-10.6564
羽翼	-10.6568
姑蘇	-10.6569
渇	-10.6571
唐書	-10.6571
中天	-10.6572
聖徳	-10.6577
故云	-10.6578
繹	-10.6579
是則	-10.6579
圎	-10.6582
人人	-10.6583
莫若	-10.6585
王師	-10.6587
向來	-10.6589
汨	-10.6593
忻	-10.6595
花枝	-10.6596
威儀	-10.6598
十一月	-10.6598
派	-10.6599
而出	-10.6602
郁	-10.6603
幡	-10.6605
翰墨	-10.6608
好學	-10.6608
未幾	-10.6608
攢	-10.6614
荆棘	-10.6615
囬	-10.6615
以至	-10.6617
之遺	-10.6619
坑	-10.6623
脉	-10.6623
功業	-10.6625
則不	-10.6626
者或	-10.6627
云爾	-10.6631
楓	-10.6632
霄漢	-10.6632
有情	-10.6634
清秋	-10.6635
航	-10.6636
其君	-10.6642
旒	-10.6643
家貧	-10.6644
寥寥	-10.6646
左氏	-10.665
藪	-10.6651
瀛	-10.6651
一夕	-10.6651
般	-10.6652
暈	-10.6658
自為	-10.6658
華山	-10.6659
弑	-10.6661
承恩	-10.6667
騫	-10.6669
御史大夫	-10.6672
頤	-10.6675
已見	-10.668
嵗時	-10.6683
讀之	-10.6684
佑	-10.6686
木葉	-10.6686
此生	-10.6687
綽	-10.6688
嗤	-10.6689
斜日	-10.6691
惱	-10.6691
古文	-10.6693
逺遊	-10.6694
感激	-10.6703
慝	-10.6707
戰國	-10.6709
筐	-10.6709
磯	-10.6709
矣其	-10.671
奎	-10.6715
扈	-10.6716
中秋	-10.6721
瀨	-10.6724
趙王	-10.6725
天外	-10.6727
叫	-10.6727
髙帝	-10.6728
有人	-10.6731
把酒	-10.6734
南方	-10.6741
離騷	-10.6741
大義	-10.6741
樓閣	-10.6741
至尊	-10.6741
是用	-10.6742
堂上	-10.6745
翕	-10.675
此言	-10.6751
况復	-10.6752
鵞	-10.6753
墉	-10.6758
虗	-10.6759
悅	-10.6759
泉石	-10.6759
秋雨	-10.6761
風生	-10.6763
何能	-10.6767
夜來	-10.6768
前日	-10.6774
誰復	-10.6775
而言	-10.678
磧	-10.6782
損益	-10.6782
匝	-10.6782
以事	-10.6786
不逮	-10.6788
父兄	-10.6789
之性	-10.6791
耽	-10.6796
平地	-10.6796
深山	-10.6799
滄溟	-10.6803
東歸	-10.6804
校尉	-10.6807
鄂	-10.6809
惕	-10.681
卻	-10.6817
行路	-10.6819
而知	-10.6826
後來	-10.6827
羽林	-10.6828
南宫	-10.6829
彷彿	-10.683
執政	-10.6843
湘水	-10.6845
逺矣	-10.6845
溪山	-10.6846
送别	-10.6847
月滿	-10.685
城下	-10.6854
晷	-10.6856
有懐	-10.6856
其國	-10.6862
不下	-10.6863
也自	-10.6867
太公	-10.6867
煙雨	-10.6868
林泉	-10.6868
琳	-10.6872
之德	-10.688
吾聞	-10.6881
雞犬	-10.6883
弘	-10.6886
疑作	-10.6891
無端	-10.6893
一巻	-10.6904
侍從	-10.6905
不平	-10.6906
叱	-10.6907
洋	-10.6909
皇甫	-10.6911
湖南	-10.6913
親戚	-10.6916
同年	-10.6924
明府	-10.6927
需	-10.6928
必以	-10.693
為一	-10.693
俎	-10.6938
用事	-10.6941
治之	-10.6943
以詩	-10.6943
之權	-10.6944
有二	-10.6945
掇	-10.6949
于時	-10.6952
窘	-10.6953
少卿	-10.6955
記曰	-10.6959
野水	-10.6959
烽	-10.696
不廢	-10.696
圜	-10.6963
蘆花	-10.6964
譴	-10.6964
號令	-10.6964
性命	-10.6965
鏗	-10.6965
七日	-10.6967
於中	-10.6969
之兵	-10.6972
秋山	-10.6979
重來	-10.6979
榦	-10.6979
一世	-10.6983
不亦	-10.6984
敖	-10.699
如水	-10.6993
墀	-10.6995
未央	-10.6998
只有	-10.6999
雲霞	-10.7
之教	-10.7002
天風	-10.7004
因其	-10.7009
孺	-10.701
盜賊	-10.7013
者何	-10.7014
荷花	-10.7017
白鳥	-10.7018
老夫	-10.7021
以安	-10.7024
王之	-10.7027
馥	-10.7027
衲	-10.703
竟何	-10.7032
月出	-10.7034
來者	-10.7034
同知	-10.7036
田園	-10.704
之精	-10.7044
也非	-10.705
公諱	-10.7051
千尺	-10.7053
之要	-10.7053
笏	-10.7056
夫婦	-10.7059
其時	-10.7061
寐	-10.7062
人語	-10.7062
誄	-10.7062
是知	-10.7063
線	-10.7066
漢武	-10.7068
狩	-10.7069
閎	-10.7069
杜甫詩	-10.707
林間	-10.7072
紈	-10.7072
之道也	-10.7072
閏	-10.7075
夢裏	-10.7077
挑	-10.7078
飄颻	-10.708
屨	-10.7081
梨花	-10.7082
瀑布	-10.7083
能使	-10.7087
徃徃	-10.7089
池塘	-10.709
相識	-10.7093
擘	-10.7095
花發	-10.7097
其力	-10.7104
城西	-10.711
挫	-10.7113
榛	-10.7116
鑠	-10.7119
水上	-10.7125
眸	-10.7129
牘	-10.7129
相送	-10.7132
相繼	-10.7132
有罪	-10.7132
在乎	-10.7135
秦之	-10.7139
承天	-10.714
臆	-10.7142
螺	-10.7143
哺	-10.7143
長樂	-10.7144
成敗	-10.7144
求其	-10.7145
紅葉	-10.7145
至公	-10.7153
噪	-10.7155
落落	-10.7156
清流	-10.7158
者乃	-10.7159
北海	-10.7163
韓信	-10.7169
風雅	-10.7177
乎哉	-10.718
甌	-10.7183
石壁	-10.7185
人世	-10.7186
悠	-10.7187
留别	-10.7189
壠	-10.7195
一方	-10.7196
聞其	-10.7196
是謂	-10.7196
幔	-10.7197
平陽	-10.7201
清江	-10.7203
㕘	-10.7203
頰	-10.7213
先是	-10.7213
松栢	-10.7213
廩	-10.7214
不任	-10.7217
奉使	-10.7218
疇昔	-10.7219
流光	-10.7219
宣王	-10.722
店	-10.7222
鬱鬱	-10.7222
䘏	-10.7223
諾	-10.7223
客來	-10.7232
鑪	-10.7233
所作	-10.7234
萊	-10.7238
雖欲	-10.7239
書生	-10.724
它	-10.7242
之㫖	-10.7248
吾將	-10.725
望之	-10.7251
超然	-10.7251
籙	-10.7255
雲霧	-10.7263
賑	-10.7267
欒	-10.7267
百餘	-10.7272
稱其	-10.7272
漳	-10.7273
宗室	-10.7273
瞽	-10.7277
陜	-10.7277
聆	-10.7278
之議	-10.7281
於道	-10.7289
崢嶸	-10.7298
豈徒	-10.7301
璋	-10.7301
髙宗	-10.7302
不寐	-10.7302
旄	-10.7302
飜	-10.7307
豐年	-10.731
封禪	-10.7315
擎	-10.7318
而為之	-10.7319
不安	-10.7319
作者	-10.7323
興亡	-10.7325
嶼	-10.7326
萬户	-10.7327
來往	-10.7329
往事	-10.7334
月上	-10.7334
行役	-10.7335
鏡中	-10.734
都尉	-10.7341
麤	-10.7345
四百	-10.7348
孰能	-10.7349
太古	-10.7354
今夜	-10.7354
寥	-10.7357
二者	-10.7371
極目	-10.7372
一名	-10.7375
碣	-10.7382
難得	-10.7382
有意	-10.7383
龍蛇	-10.7383
淒	-10.7384
之治	-10.7387
風露	-10.7388
此事	-10.7389
杵	-10.7389
殃	-10.7393
以備	-10.7393
則為	-10.7394
六首	-10.7396
如此則	-10.7397
左氏傳	-10.7398
崑山	-10.74
老翁	-10.7401
不稱	-10.7403
廷尉	-10.7406
漁舟	-10.7409
為善	-10.741
懐古	-10.7417
穆穆	-10.7423
靡不	-10.7426
山上	-10.7434
以禮	-10.7434
莓苔	-10.7435
璫	-10.744
之誠	-10.7441
朝來	-10.7443
鈍	-10.7445
屑	-10.7451
終南	-10.7452
燧	-10.7453
曰子	-10.7456
此去	-10.7457
更有	-10.7459
自從	-10.7461
中夜	-10.7465
溪水	-10.7467
曛	-10.7469
所言	-10.7471
惶	-10.7473
本末	-10.748
明皇	-10.7484
三子	-10.7484
濳	-10.7484
年華	-10.7487
嵗寒	-10.7487
同時	-10.7493
晋	-10.7496
第三	-10.7499
海門	-10.7499
浙江	-10.75
叠	-10.75
俘	-10.75
雖無	-10.7503
之失	-10.7504
陀	-10.7504
流涕	-10.7505
不少	-10.7507
貴人	-10.7508
隻	-10.751
開門	-10.7513
於其	-10.7515
而止	-10.7519
蠟	-10.7519
秦人	-10.752
芥	-10.7521
泯	-10.7525
金玉	-10.7529
瑜	-10.7533
華陽	-10.7534
羇	-10.7537
棋	-10.7538
巵	-10.7539
何不	-10.754
嗔	-10.7548
丹砂	-10.7551
春寒	-10.7551
瑾	-10.7556
兩岸	-10.7556
上柱國	-10.7556
蠻夷	-10.7563
遘	-10.7568
辜	-10.7568
霰	-10.7569
鬰	-10.757
李氏	-10.7571
學校	-10.7572
瘠	-10.7573
雲夢	-10.7574
之典	-10.7576
尼	-10.7578
之威	-10.7584
絶頂	-10.7584
中庸	-10.7585
不可得	-10.7587
蒹葭	-10.7588
欣然	-10.759
季子	-10.7591
幃	-10.7594
造物	-10.7597
千門	-10.7602
驩	-10.7604
家家	-10.7604
日照	-10.7607
積雪	-10.7612
野老	-10.7618
王母	-10.762
姻	-10.7626
朔方	-10.7626
楚辭曰	-10.7628
陸機	-10.7628
誰謂	-10.7631
絲竹	-10.7634
當是時	-10.7637
城東	-10.7637
吝	-10.764
長風	-10.7641
雲霄	-10.7641
則無	-10.7641
攅	-10.7645
男兒	-10.765
有異	-10.7653
羣生	-10.766
起於	-10.7666
古寺	-10.7667
縫	-10.7668
邂逅	-10.7668
斵	-10.7669
何則	-10.767
不一	-10.7673
相似	-10.7675
棠	-10.7679
感慨	-10.7679
雨聲	-10.7679
中人	-10.7681
丘壑	-10.7685
虢	-10.7685
人君	-10.7686
誚	-10.7689
㕔	-10.769
糜	-10.7691
無因	-10.7692
千峰	-10.7699
蹋	-10.7703
行路難	-10.7703
風動	-10.7705
幾年	-10.7706
綢繆	-10.771
矚	-10.771
玉女	-10.7711
帝王之	-10.7714
上元	-10.7714
八百	-10.7715
而今	-10.7715
無益	-10.7718
禆	-10.7719
夜宿	-10.7727
朱門	-10.7728
言也	-10.7737
尚書曰	-10.7738
圖書	-10.774
送王	-10.774
失之	-10.7743
微風	-10.7746
圖畫	-10.7749
悲風	-10.775
恰	-10.7751
謝公	-10.7753
吉凶	-10.7756
鉏	-10.7757
翎	-10.7759
賦一首	-10.7761
事之	-10.7762
沽酒	-10.7762
不負	-10.7763
亦自	-10.7767
張氏	-10.7768
之體	-10.7775
郤	-10.7776
無餘	-10.7779
棧	-10.7779
盼	-10.7781
百川	-10.7783
先君	-10.7788
今人	-10.779
十五年	-10.7791
湖水	-10.7791
一㸃	-10.7792
于今	-10.7792
形容	-10.7795
昔日	-10.7796
桂樹	-10.7798
謂其	-10.78
邕	-10.7802
有言	-10.7802
粥	-10.7804
旃	-10.7805
窄	-10.7806
霏霏	-10.7806
而不敢	-10.7812
槖	-10.7813
暮雨	-10.7815
退而	-10.7815
者雖	-10.7817
丹陽	-10.7818
給事	-10.7819
翰林學士	-10.782
飛花	-10.7826
以後	-10.7826
表裏	-10.7831
前代	-10.7832
李公	-10.7835
孟子曰	-10.7836
無聞	-10.7836
出為	-10.7837
千人	-10.7838
笑語	-10.7842
䖏	-10.7843
肴	-10.7845
大人	-10.7846
堂堂	-10.7851
延年	-10.7855
撤	-10.7855
無常	-10.7861
翼翼	-10.7865
禮也	-10.7868
留連	-10.7871
其情	-10.7871
行事	-10.7872
難為	-10.7872
自非	-10.7874
湮	-10.7874
氣象	-10.7876
六國	-10.788
舊時	-10.7884
後漢書	-10.7888
雨雪	-10.7889
那知	-10.7891
者豈	-10.7891
稜	-10.7893
繒	-10.7896
秋江	-10.7901
甚矣	-10.7901
凌雲	-10.7902
炭	-10.7902
覈	-10.7902
州郡	-10.7909
萬邦	-10.7914
知名	-10.7915
非不	-10.7915
人知	-10.7917
太息	-10.7918
伏以	-10.7918
不聽	-10.792
禽獸	-10.7924
厠	-10.7926
管絃	-10.7927
吳王	-10.7927
之㑹	-10.7928
山澤	-10.793
孺子	-10.793
無用	-10.7933
容與	-10.7934
詹	-10.7934
叚	-10.7938
不離	-10.794
錦繡	-10.7942
春深	-10.7942
沫	-10.7944
中郎	-10.7949
凉風	-10.7952
送人	-10.7953
行者	-10.7957
之極	-10.7957
様	-10.7963
而不得	-10.7964
明時	-10.7965
白水	-10.7965
其罪	-10.7972
歲月	-10.7974
王侯	-10.7975
不測	-10.7977
賢良	-10.7978
江左	-10.7983
雨餘	-10.7983
字仲	-10.7984
?	-10.7987
元帝	-10.7988
推官	-10.7989
飛去	-10.7991
何妨	-10.7995
隴西	-10.7996
㡌	-10.7999
詆	-10.8
泗	-10.8002
中和	-10.8003
相去	-10.8006
由此	-10.8007
弱冠	-10.8011
東流	-10.8012
今夕	-10.8013
偃蹇	-10.8013
脅	-10.8014
也然則	-10.8017
百家	-10.8018
阡	-10.802
枝葉	-10.802
惟其	-10.802
扄	-10.802
二十五	-10.8024
無此	-10.8025
至如	-10.8027
日已	-10.8031
太清	-10.8033
逵	-10.8033
光景	-10.8037
天氣	-10.8037
是日	-10.804
御史中丞	-10.8042
北闕	-10.8044
知我	-10.8045
小大	-10.8046
徃來	-10.8047
畨	-10.8047
何異	-10.8049
朝日	-10.8049
譯	-10.805
州人	-10.8051
婁	-10.8052
紫微	-10.8053
一去	-10.8057
笠	-10.8058
譙	-10.8058
願言	-10.8059
翛然	-10.8061
所以為	-10.8061
鐫	-10.8062
子雲	-10.8063
早春	-10.8064
得罪	-10.8065
平湖	-10.8066
之化	-10.8067
㓕	-10.8076
語曰	-10.8089
燄	-10.8089
看山	-10.809
珠簾	-10.8094
鸎	-10.8094
永樂	-10.8097
其大	-10.8097
至誠	-10.8101
滿眼	-10.8104
冨	-10.8107
此亦	-10.8107
槁	-10.8109
之靈	-10.811
舫	-10.8111
孝友	-10.8112
而至	-10.8113
西方	-10.8116
止於	-10.8117
姊	-10.812
文選	-10.8125
焉其	-10.8129
陌上	-10.8132
十二月	-10.8136
莫如	-10.8138
别業	-10.8139
氓	-10.8142
正直	-10.8143
將相	-10.8146
桑麻	-10.8148
廬陵	-10.8148
蹔	-10.815
泛舟	-10.8152
新月	-10.8155
相尋	-10.8157
啼鳥	-10.8158
以道	-10.8162
黄門	-10.8164
宋李昉等編	-10.8164
鶻	-10.8169
樓船	-10.817
濺	-10.8171
諸侯之	-10.8173
久之	-10.8175
谷口	-10.8176
而致	-10.8176
繕	-10.8181
椽	-10.8181
吁嗟	-10.8184
不畏	-10.8184
而民	-10.8185
寒泉	-10.8186
軒轅	-10.8189
乆矣	-10.8192
一本	-10.8198
歘	-10.82
也此	-10.82
針	-10.8201
流離	-10.8201
鳶	-10.8203
文辭	-10.8204
以正	-10.8204
西陵	-10.821
菩薩	-10.8214
騎馬	-10.8215
嫡	-10.8216
那得	-10.8217
禎	-10.8217
夜坐	-10.8223
狡	-10.8223
無任	-10.8225
濱	-10.823
楚人	-10.8238
蔡邕	-10.8238
至若	-10.8239
睹	-10.8239
十二年	-10.8241
三徑	-10.8241
漣	-10.8242
稽古	-10.8243
松柏	-10.8247
諳	-10.825
可得而	-10.8251
到處	-10.8253
置之	-10.8254
歴歴	-10.8254
歸於	-10.8255
銓	-10.8258
空餘	-10.8258
卽	-10.8258
拆	-10.8261
髩	-10.8262
聯	-10.8262
修竹	-10.8265
説文曰	-10.8266
忽然	-10.8266
乃有	-10.8273
賓客	-10.8274
南浦	-10.8276
不加	-10.8278
秋霜	-10.8279
所能	-10.8281
古道	-10.8286
浩然	-10.8286
如玉	-10.8287
生平	-10.8289
國朝	-10.829
驪	-10.8295
妹	-10.8298
金門	-10.8298
潯陽	-10.83
敢不	-10.8302
只今	-10.8303
遼東	-10.8304
雲外	-10.8306
諸儒	-10.8308
去去	-10.8308
七夕	-10.831
明帝	-10.8311
其性	-10.8311
睠	-10.8312
毗	-10.8312
為詩	-10.8313
堵	-10.8313
吼	-10.8313
乃以	-10.8318
羣公	-10.8319
嬋娟	-10.8323
徳之	-10.8325
臉	-10.8336
存者	-10.8338
斛	-10.8338
飫	-10.834
六龍	-10.834
寸心	-10.834
東宫	-10.8344
伯夷	-10.8346
君恩	-10.8353
吏民	-10.8356
杳杳	-10.8371
出塞	-10.8373
闔	-10.8374
禋	-10.8376
同歸	-10.8382
經術	-10.8383
秋來	-10.8385
渺渺	-10.8386
鉞	-10.8386
忽見	-10.8387
紫芝	-10.8393
至元	-10.8394
廟堂	-10.8394
其詩	-10.8397
亦非	-10.8403
雪中	-10.8404
而易	-10.8405
中間	-10.8405
與天	-10.8407
夢魂	-10.8407
事有	-10.8407
不學	-10.8407
手足	-10.8413
必先	-10.8414
陜西	-10.8415
踟蹰	-10.8415
爾雅	-10.8419
江邊	-10.8422
髙臺	-10.8427
雲林	-10.8428
藝文	-10.8429
其書	-10.843
杉	-10.8433
其次	-10.844
彤	-10.844
倐忽	-10.8445
椎	-10.8445
石橋	-10.8445
詔令	-10.8452
疵	-10.8453
堰	-10.8453
可觀	-10.8454
于此	-10.8457
八九	-10.8463
相期	-10.8467
偈	-10.8468
鳥飛	-10.847
丈人	-10.8472
而况	-10.8474
睨	-10.8474
齊王	-10.8475
恍	-10.848
也謂	-10.8482
將帥	-10.8484
譁	-10.8484
掘	-10.8487
此乃	-10.8487
花間	-10.8489
霓裳	-10.8489
翺翔	-10.849
拖	-10.8496
之亂	-10.8497
功徳	-10.8497
率土	-10.8498
盛衰	-10.8499
匱	-10.85
暮雲	-10.8501
席上	-10.8502
城頭	-10.8503
所載	-10.851
蓑	-10.8511
赭	-10.8521
才子	-10.8522
閫	-10.8523
脆	-10.8526
碧玉	-10.8527
主上	-10.8529
木落	-10.853
入門	-10.8533
曹植	-10.8539
漢魏	-10.8539
瑣	-10.8543
山陽	-10.8546
項羽	-10.8547
光明	-10.8547
覧	-10.855
依稀	-10.8551
遂使	-10.8552
肖	-10.8553
易曰	-10.8555
家有	-10.8557
也乃	-10.8558
重重	-10.8559
揺落	-10.8559
五千	-10.8561
羅浮	-10.8563
飄零	-10.8564
為此	-10.8565
庶人	-10.8569
觀者	-10.8569
穩	-10.857
翠華	-10.8574
吹簫	-10.858
款	-10.8582
去國	-10.8587
南渡	-10.8588
浮生	-10.8594
非常	-10.8596
濠	-10.8596
以奉	-10.8597
盎	-10.86
龍虎	-10.8602
近臣	-10.8606
賈生	-10.8606
長年	-10.8607
官吏	-10.8608
河水	-10.861
周易曰	-10.8612
男女	-10.8614
黄鵠	-10.8615
治天下	-10.8618
擾擾	-10.862
渝	-10.8622
不違	-10.8622
旂	-10.8625
始於	-10.8628
贏	-10.8629
煙波	-10.8629
夢寐	-10.8632
净	-10.8632
湘江	-10.8633
已矣	-10.8633
入朝	-10.8636
其弊	-10.8639
提舉	-10.864
紱	-10.8643
複	-10.8643
燕趙	-10.8644
無所不	-10.8648
萼	-10.8651
昇平	-10.8654
蟋蟀	-10.8655
北方	-10.8657
闕下	-10.8659
楷	-10.8662
穏	-10.8663
有天下	-10.8665
孕	-10.8666
蒼龍	-10.8666
不可見	-10.8667
寖	-10.8668
知縣	-10.8671
而獨	-10.8671
飄然	-10.8672
視其	-10.8672
京華	-10.8673
缾	-10.8675
嵯峨	-10.8677
墅	-10.8678
之句	-10.8678
迄	-10.8681
憇	-10.8684
黔	-10.8687
於心	-10.8688
劉向	-10.8697
欲盡	-10.8698
有酒	-10.8698
指揮	-10.8701
常侍	-10.8701
酋	-10.8704
草樹	-10.8705
用其	-10.871
之未	-10.8711
經綸	-10.8713
猶存	-10.8713
呵	-10.8714
芳樹	-10.8717
内史	-10.8717
餅	-10.8718
峩峩	-10.8718
婆娑	-10.872
車騎	-10.8723
少陵	-10.8726
仙家	-10.8726
自以為	-10.8729
斫	-10.8729
攄	-10.8729
三更	-10.8733
闌干	-10.874
含情	-10.8741
猶自	-10.8743
紀綱	-10.8743
安國	-10.8746
芹	-10.8747
山西	-10.8747
老僧	-10.8748
我行	-10.8749
在昔	-10.875
好事	-10.8751
鳥啼	-10.8751
㪚	-10.8752
施行	-10.8754
無塵	-10.8755
嶺南	-10.876
爍	-10.8763
衿	-10.8764
宣城	-10.8768
篠	-10.8769
他鄉	-10.8773
日斜	-10.8774
物外	-10.8778
疑是	-10.8778
中道	-10.8778
於兹	-10.8779
曰夫	-10.878
胷	-10.8782
祭祀	-10.8783
孤山	-10.8784
唐人	-10.8784
遡	-10.8788
大者	-10.8788
有遺	-10.879
於民	-10.8791
六朝	-10.8793
世有	-10.8794
固已	-10.8794
成化	-10.8798
不遺	-10.8799
未詳	-10.8799
千仞	-10.88
燼	-10.8801
之異	-10.8802
校書	-10.8803
元祐	-10.8805
皃	-10.8805
新聲	-10.8807
售	-10.8809
杖藜	-10.8809
方丈	-10.8811
清廟	-10.8813
王維	-10.8819
風急	-10.8821
春雲	-10.8821
官至	-10.8822
虎丘	-10.8825
濮	-10.8825
國語	-10.8829
先人	-10.8831
臭	-10.8833
飛龍	-10.8836
以言	-10.8843
一時之	-10.8844
號為	-10.8845
櫻桃	-10.8845
史官	-10.8846
鷓鴣	-10.8847
花下	-10.8852
庭前	-10.8854
穫	-10.8855
蟹	-10.8857
羅衣	-10.8859
不願	-10.886
青絲	-10.8861
屹	-10.8862
尚可	-10.8865
販	-10.8867
橈	-10.8867
悶	-10.8868
芍藥	-10.8869
各自	-10.887
;	-10.8873
瀛洲	-10.8875
天性	-10.8878
孝經	-10.8879
禾黍	-10.8879
夜泊	-10.8884
師道	-10.8885
不知所	-10.8886
漁樵	-10.8886
空谷	-10.8889
圉	-10.8889
懦	-10.8889
今已	-10.8892
星斗	-10.8896
及此	-10.8898
多矣	-10.8898
梭	-10.89
不斷	-10.89
卵	-10.8901
紛紜	-10.8901
十首	-10.8902
其聲	-10.8902
直言	-10.8903
因循	-10.8903
好惡	-10.8904
為主	-10.8906
十餘年	-10.8908
梁王	-10.8909
宫殿	-10.8911
雙闕	-10.8912
嬪	-10.8912
松江	-10.8913
有待	-10.8914
仆	-10.8918
筒	-10.8921
碁	-10.8921
瓌	-10.8922
留客	-10.8924
不取	-10.8924
玉壺	-10.8927
而取	-10.8929
捫	-10.8931
瑶池	-10.8933
王粲	-10.8934
察其	-10.8939
雲飛	-10.894
躁	-10.8941
殯	-10.8945
此篇	-10.8948
驢	-10.8948
退之	-10.8949
後漢	-10.895
七十二	-10.8952
昔在	-10.8954
城市	-10.8957
千丈	-10.8958
批	-10.8961
長短	-10.8964
而來	-10.8964
徐州	-10.8967
乎夫	-10.8967
無際	-10.897
歐陽修	-10.8971
應有	-10.8971
臨江	-10.8974
不治	-10.8975
而起	-10.8976
顆	-10.8978
闗山	-10.898
詩句	-10.8988
問之	-10.8992
諸君	-10.8997
瀟灑	-10.8997
湯武	-10.8999
遊人	-10.9
弧	-10.9001
得人	-10.9002
至徳	-10.9002
其徳	-10.9003
廪	-10.9006
躅	-10.9007
佳氣	-10.9008
吳越	-10.9009
煦	-10.901
其辭曰	-10.901
一也	-10.901
㝠㝠	-10.9016
春江	-10.9016
鑣	-10.9019
脣	-10.9019
琉璃	-10.902
三峽	-10.9022
突兀	-10.9029
有竒	-10.9029
寕	-10.903
人倫	-10.9032
傳之	-10.9032
匹夫	-10.9034
水邊	-10.9036
愉	-10.9039
考之	-10.9041
代之	-10.9042
隴頭	-10.9046
屯田	-10.9049
食之	-10.905
老矣	-10.9051
國史	-10.9053
四五	-10.9055
秋光	-10.9055
薊	-10.9058
道德	-10.9062
喙	-10.9063
青樓	-10.9064
琦	-10.9066
偶成	-10.9068
如彼	-10.9073
訥	-10.9075
人多	-10.9077
者謂	-10.9079
治亂	-10.908
十一年	-10.908
眼中	-10.908
繄	-10.9081
對此	-10.9081
慄	-10.9082
百丈	-10.9083
齎	-10.9085
𣺌	-10.9091
雜詩	-10.9092
登山	-10.9094
既已	-10.9097
二日	-10.9097
而反	-10.9101
明徳	-10.9102
皆可	-10.9103
覊	-10.9104
塊	-10.9105
相過	-10.9106
將何	-10.9107
鞅	-10.911
長吏	-10.9111
有志	-10.9111
爾雅曰	-10.9114
斯言	-10.9115
遯	-10.9116
笑曰	-10.9126
者固	-10.913
之儀	-10.913
迢遞	-10.9131
古意	-10.9131
鼓吹	-10.9131
之費	-10.9132
號曰	-10.9132
正統	-10.9133
暇日	-10.9133
帝子	-10.9135
秋氣	-10.9137
之迹	-10.9138
神女	-10.914
迪	-10.9143
一事	-10.9144
時事	-10.9151
關山	-10.9152
未敢	-10.9152
培	-10.9159
所當	-10.9162
世俗	-10.9162
不思	-10.9163
祔	-10.9165
元帥	-10.9168
纍纍	-10.917
縠	-10.917
猾	-10.9172
無力	-10.9173
潁川	-10.9176
天機	-10.9176
者如	-10.9179
自笑	-10.9179
庾信詩	-10.918
腸斷	-10.918
捍	-10.9182
長卿	-10.9183
大梁	-10.9183
欲使	-10.9185
驅馳	-10.9187
也是以	-10.9187
輕舟	-10.9188
世上	-10.9196
空中	-10.9197
光照	-10.9199
悲歌	-10.92
雙飛	-10.9202
非無	-10.9204
山行	-10.9207
之宜	-10.9211
元日	-10.9219
之東	-10.9221
猶能	-10.9223
衡門	-10.9224
不避	-10.9225
送張	-10.9226
寡人	-10.9227
櫓	-10.9228
忘歸	-10.9229
其在	-10.9233
黄雲	-10.9233
問曰	-10.9234
入於	-10.9237
藕	-10.9237
聫	-10.9244
其利	-10.9246
譬如	-10.9246
芸	-10.9248
部員外郎	-10.925
不可不	-10.9253
客有	-10.9253
朝朝	-10.9255
不爲	-10.9257
鉛	-10.9257
不愛	-10.926
一室	-10.926
客愁	-10.9261
農夫	-10.9264
公私	-10.9271
青苔	-10.9272
其說	-10.9272
不克	-10.9273
燔	-10.9275
變而	-10.9279
可與	-10.9279
使天下	-10.9288
殘月	-10.9288
不得不	-10.9292
蘭亭	-10.9296
往還	-10.9299
皆為	-10.93
猗	-10.9301
其位	-10.9303
無間	-10.9303
大師	-10.9303
青草	-10.9306
拈	-10.9306
其形	-10.9306
四明	-10.9307
滄江	-10.9307
也臣	-10.9309
十三年	-10.931
其職	-10.9311
山前	-10.9311
而行之	-10.9314
西來	-10.9314
薜蘿	-10.9317
者所以	-10.9318
緑水	-10.9319
行客	-10.932
松下	-10.9321
清泉	-10.9323
三司	-10.9328
千官	-10.9328
譲	-10.9329
歎曰	-10.9332
篁	-10.9333
之前	-10.9334
簿書	-10.9335
歿	-10.9335
南面	-10.9335
而必	-10.9337
嚼	-10.9341
陰陽	-10.9341
雲漢	-10.9341
憾	-10.9345
兀	-10.9346
此非	-10.9347
悲夫	-10.9349
中州	-10.9353
弃	-10.9356
數月	-10.9358
死於	-10.9358
今為	-10.9362
非所以	-10.9365
為樂	-10.9369
鎬	-10.9369
三世	-10.9373
數聲	-10.9374
從今	-10.9374
紺	-10.9375
百代	-10.9375
守之	-10.9375
自昔	-10.9377
筝	-10.9379
顛倒	-10.9379
不生	-10.938
烽火	-10.9384
東林	-10.9385
五經	-10.9386
怳	-10.9386
不傳	-10.9388
金谷	-10.939
侯之	-10.9391
吾君	-10.9394
無涯	-10.9395
吾之	-10.9397
公侯	-10.9399
不仁	-10.94
黷	-10.9406
其始	-10.9407
﨑嶇	-10.9407
以死	-10.941
三王	-10.9411
彪	-10.9411
男子	-10.9412
浮屠	-10.9417
確	-10.9419
攜手	-10.9421
世家	-10.9422
京口	-10.9423
織女	-10.9423
扶風	-10.9424
可使	-10.9425
白鷺	-10.9428
近世	-10.943
長老	-10.943
蹲	-10.9432
嘗聞	-10.9433
駁	-10.9435
聲名	-10.9441
鐘鼓	-10.9441
三分	-10.9442
舟楫	-10.9442
東平	-10.9443
白沙	-10.9443
㒺	-10.9444
吟詩	-10.9447
命之	-10.945
書事	-10.9453
逗	-10.9453
且夫	-10.9454
人自	-10.9454
扁	-10.9455
百戰	-10.9455
翥	-10.9455
滂	-10.9456
牽牛	-10.9456
所著	-10.9457
掣	-10.9457
其門	-10.9462
南樓	-10.9462
刈	-10.9464
廿	-10.9465
舛	-10.9465
炬	-10.9465
顰	-10.9465
吹笛	-10.9468
征人	-10.9468
淮海	-10.9469
一物	-10.9474
殊未	-10.9475
已成	-10.9475
炫	-10.9476
凄凉	-10.9477
遒	-10.9478
菌	-10.9479
禮部尚書	-10.948
賡	-10.948
天心	-10.9482
正是	-10.9482
相顧	-10.9485
禮記曰	-10.9486
流落	-10.9488
方外	-10.949
惻	-10.949
玉帛	-10.9494
之方	-10.9497
平沙	-10.9498
本朝	-10.9498
吳興	-10.9499
其用	-10.9499
岐路	-10.95
景物	-10.9504
月華	-10.9506
直道	-10.9508
仄	-10.9509
得此	-10.951
海水	-10.951
文章辨體彚選巻	-10.9511
冬至	-10.9517
仁者	-10.9519
之形	-10.9527
稚子	-10.9528
天下之事	-10.953
糓	-10.9531
向人	-10.9534
南望	-10.9536
彈琴	-10.9536
闗中	-10.9538
征伐	-10.9541
風物	-10.9542
豚	-10.9543
膩	-10.9545
字伯	-10.9545
眄	-10.9545
寒山	-10.9548
諛	-10.9549
奉詔	-10.9549
鴻雁	-10.9552
從而	-10.9553
書院	-10.9553
娱	-10.9553
查	-10.9555
獨行	-10.9556
知者	-10.9558
一官	-10.9559
神靈	-10.9563
浣	-10.9568
天馬	-10.9569
之詞	-10.957
泮	-10.9572
臣以	-10.9573
黄鶴	-10.9574
悴	-10.9575
也是	-10.9578
安石	-10.9579
倣	-10.958
甥	-10.958
無罪	-10.9581
其他	-10.9588
勛	-10.9592
兩三	-10.9593
壻	-10.9594
南征	-10.9597
竅	-10.9598
酒醒	-10.9599
法令	-10.9601
歐	-10.9601
緫	-10.9606
以報	-10.9608
豈得	-10.9609
抄	-10.9614
濛濛	-10.9615
子産	-10.9615
赤壁	-10.9615
禁中	-10.9618
茫然	-10.9623
嵗暮	-10.9626
一心	-10.9627
北望	-10.9628
渭水	-10.963
也嗚呼	-10.9634
公事	-10.9636
其不	-10.9638
而退	-10.9638
港	-10.9639
隨時	-10.9641
湖州	-10.9641
罇	-10.9642
數千	-10.9643
何言	-10.9643
皇極	-10.9648
酒杯	-10.9651
窈	-10.9651
籜	-10.9652
志在	-10.9653
二十八	-10.9653
薇	-10.9655
連山	-10.9657
仁宗	-10.9658
舟行	-10.9659
磵	-10.9659
汝南	-10.966
尖	-10.966
明發	-10.9662
捉	-10.9665
雅頌	-10.9666
髙樹	-10.9667
楮	-10.9668
亦已	-10.9671
婆	-10.9674
之勞	-10.9674
琴瑟	-10.9675
銖	-10.9675
鑰	-10.9678
豈其	-10.9678
以俟	-10.968
連天	-10.9681
十四年	-10.9683
孰與	-10.9684
小子	-10.9684
萎	-10.9686
掉	-10.9687
艇	-10.9687
蕉	-10.9688
而爲	-10.9693
拂衣	-10.9696
爻	-10.9698
蓬蒿	-10.97
㤗	-10.9702
溪流	-10.9702
在我	-10.9705
詩序	-10.9705
縉紳	-10.9706
可不	-10.9708
歸来	-10.9708
發於	-10.9712
茅茨	-10.9714
無名	-10.9715
颯	-10.9715
昭昭	-10.9718
蹶	-10.9718
秖	-10.972
可乎	-10.9724
無能	-10.9728
那堪	-10.9729
何曽	-10.973
施於	-10.9731
八極	-10.9732
雖復	-10.9732
曇	-10.9734
惹	-10.9735
夫子之	-10.9739
昻	-10.9739
髙山	-10.9741
南歸	-10.9743
對月	-10.9744
山月	-10.9751
存乎	-10.9754
八荒	-10.9756
汀洲	-10.976
深入	-10.9761
聖皇	-10.9768
無疑	-10.9768
核	-10.9769
飛泉	-10.977
吏部尚書	-10.977
梁簡文帝	-10.9771
匡廬	-10.9773
髦	-10.9773
以養	-10.9774
三朝	-10.9778
沛公	-10.978
蕩蕩	-10.9781
孺人	-10.9782
二十二	-10.9783
鈞天	-10.9783
西望	-10.9784
漢宫	-10.9784
忘機	-10.9787
憂患	-10.979
雲開	-10.9793
人為	-10.9794
願得	-10.9798
來時	-10.9798
杜鵑	-10.9798
潞	-10.98
精舍	-10.9803
准	-10.9803
知是	-10.9805
愛之	-10.9807
人才	-10.9813
晃	-10.9816
越王	-10.9819
髙士	-10.9823
縻	-10.9824
隠居	-10.9826
所稱	-10.983
兵革	-10.9834
王曰	-10.9836
無恙	-10.9841
却憶	-10.9842
佳期	-10.9844
悞	-10.9844
未免	-10.9844
不才	-10.9844
漢唐	-10.9845
近日	-10.9845
而進	-10.9845
蝗	-10.9846
后土	-10.9847
清晨	-10.9847
行雲	-10.9848
古之人	-10.985
春歸	-10.985
我家	-10.985
王莽	-10.9857
南郊	-10.9859
事者	-10.986
芋	-10.9862
花飛	-10.9862
誰憐	-10.9866
而見	-10.9866
九疑	-10.9868
長楊	-10.987
帝曰	-10.9871
識者	-10.9875
氤氲	-10.9878
衡陽	-10.988
不窮	-10.9882
名士	-10.9882
一望	-10.9883
碧落	-10.9884
無地	-10.9884
之孫	-10.9885
泓	-10.9885
便是	-10.9886
員外郎	-10.9891
羲和	-10.9892
長夜	-10.9894
百草	-10.9894
縑	-10.9896
甲兵	-10.9903
朱顔	-10.9904
劉禹錫	-10.9905
洵	-10.9907
明公	-10.9908
郭璞	-10.9909
之吏	-10.9911
客心	-10.9915
之路	-10.9915
揚子	-10.9915
諸葛	-10.9915
昔時	-10.9921
大國	-10.9921
至其	-10.9922
草草	-10.9926
良辰	-10.9927
萬家	-10.9929
笞	-10.993
也於是	-10.9931
址	-10.9933
千樹	-10.9933
人意	-10.9933
匏	-10.9934
搴	-10.9939
不得已	-10.994
騐	-10.9942
殘雪	-10.9944
觜	-10.9944
黄鳥	-10.9945
屛	-10.9946
滄波	-10.9947
居之	-10.9948
補闕	-10.9948
欲知	-10.9951
前年	-10.9951
涼風	-10.9951
能為	-10.9951
偹	-10.9954
風雪	-10.9954
波瀾	-10.9957
自今	-10.9958
徙倚	-10.9959
滎陽	-10.9961
㵼	-10.9967
珠玉	-10.9968
繳	-10.9969
其三	-10.997
雲生	-10.9971
徳音	-10.9971
千餘	-10.9972
國家之	-10.9975
鍾山	-10.9976
墓誌銘	-10.9977
魚鳥	-10.9981
襄公	-10.9981
甍	-10.9983
中心	-10.9987
獨自	-10.9989
惜哉	-10.9991
之域	-10.9993
綺羅	-10.9994
釣魚	-10.9996
論曰	-10.9998
嗟夫	-10.9998
而生	-10.9998
風來	-11
無主	-11.0002
飛鴻	-11.0004
直上	-11.0004
莫道	-11.0005
貿	-11.0007
驪山	-11.0007
聖王	-11.0007
同遊	-11.0009
方寸	-11.0011
欲去	-11.0014
萬嵗	-11.0015
長子	-11.0015
物也	-11.0015
宫闕	-11.0016
諸人	-11.0019
不返	-11.0021
東京	-11.0026
寒雲	-11.0029
光華	-11.0031
相應	-11.0033
楚國	-11.0033
五人	-11.0034
都門	-11.0043
絕	-11.0045
司馬遷	-11.0045
神人	-11.0046
而難	-11.0047
九霄	-11.005
辭曰	-11.0052
一夫	-11.0053
倖	-11.0053
麝	-11.0055
千百	-11.0055
可用	-11.0057
天竺	-11.0059
甃	-11.0063
犂	-11.0063
蕚	-11.0065
五陵	-11.0067
形勢	-11.0072
無愧	-11.0073
沙門	-11.0074
噬	-11.0075
鳴琴	-11.0075
於物	-11.0076
聖賢之	-11.0076
抃	-11.0077
謝靈運	-11.0078
穗	-11.0079
臣下	-11.0081
木蘭	-11.0084
知制誥	-11.0084
流俗	-11.0084
昆弟	-11.0085
叅軍	-11.0086
安在	-11.0087
滄	-11.0088
不勞	-11.0088
昭明	-11.0089
天河	-11.0096
罔不	-11.0096
謫仙	-11.0098
有無	-11.0099
追封	-11.01
蒐	-11.0102
其理	-11.0102
脊	-11.0103
潘岳	-11.0105
不立	-11.0106
也余	-11.0108
耐	-11.0109
畀	-11.0111
聞君	-11.0114
賒	-11.0116
後生	-11.0118
之具	-11.0118
冡	-11.0118
來歸	-11.0118
西東	-11.0119
盈盈	-11.0123
幾日	-11.0124
魔	-11.0125
衣服	-11.0125
㺯	-11.0126
神州	-11.0127
日長	-11.0127
更無	-11.0128
故以	-11.0129
之舊	-11.0136
名臣	-11.0138
刑罰	-11.0138
泉聲	-11.0141
球	-11.0141
謐	-11.0142
天下之大	-11.0142
凛	-11.0142
檝	-11.0146
臨流	-11.0147
冉	-11.0149
坼	-11.015
有能	-11.0152
易之	-11.0153
史記曰	-11.0154
何似	-11.0154
旻	-11.0155
我今	-11.0155
彚	-11.0156
幌	-11.0159
雲臺	-11.0159
購	-11.0161
灾	-11.0164
紫宸	-11.0164
壹	-11.0164
逢人	-11.0174
贄	-11.0174
以濟	-11.0185
幽棲	-11.0187
者無	-11.0187
飡	-11.0188
佳句	-11.0188
恠	-11.0188
此又	-11.0189
昭王	-11.019
以公	-11.019
風前	-11.019
糴	-11.0195
清河	-11.0195
砥	-11.0202
誰言	-11.0205
擊之	-11.0208
嘉祐	-11.0208
簒	-11.0214
志士	-11.0216
鶯啼	-11.0217
成帝	-11.0219
庭樹	-11.0219
東家	-11.022
一水	-11.0223
鎔	-11.0224
絢	-11.0224
滔滔	-11.0225
豺狼	-11.0226
城闕	-11.0226
明矣	-11.0226
穠	-11.0227
胡不	-11.0227
芭蕉	-11.0228
之語	-11.0229
一醉	-11.0231
相和	-11.0232
善人	-11.0233
夫以	-11.0235
聞而	-11.0235
稼穡	-11.0238
屍	-11.0238
二曰	-11.0238
孟軻	-11.0239
星河	-11.0239
朂	-11.0242
江州	-11.0245
合於	-11.0248
澀	-11.0248
矣又	-11.0248
不驚	-11.0249
大理	-11.0251
乎曰	-11.0251
函谷	-11.0252
隧	-11.0253
莊子曰	-11.0253
平章	-11.0254
械	-11.0254
楚客	-11.0255
頓首	-11.0259
雨晴	-11.0259
輓	-11.0262
山房	-11.0264
李斯	-11.0265
骸	-11.0269
逍遙	-11.0272
而終	-11.0272
塞上	-11.0272
養生	-11.0274
樓前	-11.0275
客路	-11.0275
伏惟陛下	-11.0276
大節	-11.0276
之南	-11.0276
非獨	-11.0277
其親	-11.0277
常恐	-11.0278
歌詩	-11.0279
樹色	-11.0281
又見	-11.0282
松竹	-11.0283
乃為	-11.0284
三光	-11.0285
新晴	-11.0289
受其	-11.0291
山深	-11.0294
槃	-11.0294
文昌	-11.0296
累遷	-11.0296
躭	-11.0298
一徑	-11.03
異於	-11.0301
之不可	-11.0303
行道	-11.0306
竟不	-11.0306
舉人	-11.0308
五侯	-11.0308
形骸	-11.0309
美酒	-11.0309
事也	-11.031
焰	-11.031
虵	-11.031
剽	-11.031
陬	-11.0312
離宫	-11.0313
不道	-11.0313
縹	-11.0313
髓	-11.0314
主事	-11.0315
行也	-11.0315
雲起	-11.0317
淺深	-11.032
時聞	-11.0321
唾	-11.0322
郊祀	-11.0322
河朔	-11.0323
襍	-11.0323
盞	-11.0323
荇	-11.0324
徒以	-11.0327
晉侯	-11.0327
曰臣	-11.0327
人亦	-11.0328
卞	-11.0328
物色	-11.0332
日新	-11.0333
娟娟	-11.0334
身世	-11.0335
天文	-11.0336
讃	-11.0337
瀝	-11.0338
蠅	-11.0338
供奉	-11.034
冬日	-11.0342
邊城	-11.0342
汗漫	-11.0346
神龍	-11.0346
於内	-11.0347
彬	-11.0348
獨往	-11.0349
赤城	-11.0351
瓠	-11.0353
茂陵	-11.0353
未識	-11.0355
也予	-11.0356
之效	-11.0357
摭	-11.036
西河	-11.0361
㝢	-11.0362
其徒	-11.0362
命也	-11.0362
能言	-11.0367
客子	-11.0367
四壁	-11.0368
日益	-11.037
規模	-11.037
齧	-11.0371
昌黎	-11.0371
河間	-11.0373
鏘	-11.0374
縣官	-11.0379
忘其	-11.0384
曄	-11.0385
汲汲	-11.0385
悚	-11.0386
亦復	-11.0387
冽	-11.0387
欝	-11.0388
琛	-11.0388
琮	-11.039
乃命	-11.0396
其氣	-11.0397
本傳	-11.04
塋	-11.04
雪滿	-11.04
陽侯	-11.0401
鳥鳴	-11.0409
愕	-11.041
箏	-11.0413
其母	-11.0415
有子	-11.0417
如在	-11.0418
十人	-11.042
賄	-11.0421
蝸	-11.0421
數千里	-11.0423
縞	-11.0424
國有	-11.043
可畏	-11.0431
駛	-11.0435
漢興	-11.0437
立功	-11.0438
明君	-11.0439
漪	-11.044
為名	-11.0441
風雷	-11.0441
城上	-11.0442
近體詩	-11.0443
若為	-11.0443
周官	-11.0444
周公之	-11.0444
溉	-11.0446
竹枝	-11.0446
焉則	-11.0449
報國	-11.0453
周室	-11.0454
相依	-11.0455
沔	-11.0462
莫之	-11.0464
吠	-11.047
幸而	-11.0471
麋	-11.0472
歸舟	-11.0473
兵部	-11.0475
亦曰	-11.0475
神功	-11.0475
癖	-11.0478
何哉	-11.048
南州	-11.0482
秃	-11.0484
盗賊	-11.0484
詩文	-11.0484
僵	-11.0486
霆	-11.0487
亦云	-11.0487
喉	-11.0487
者歟	-11.0487
官府	-11.0488
氷雪	-11.0489
人無	-11.0496
孫子	-11.0498
而用之	-11.0499
十數	-11.0499
終於	-11.0499
吻	-11.05
躑躅	-11.05
短長	-11.0504
爽氣	-11.0506
盛時	-11.0507
者蓋	-11.0509
鶩	-11.0509
風聲	-11.0511
江河	-11.0513
華亭	-11.0515
上言	-11.0519
疋	-11.0521
中書令	-11.0528
東郊	-11.0533
升降	-11.0534
扆	-11.0537
東陽	-11.0537
之竒	-11.0537
上客	-11.0537
涎	-11.0538
改元	-11.0539
舎人	-11.0542
建章	-11.0543
諮	-11.0543
相忘	-11.0543
禮之	-11.0547
靈臺	-11.0549
彭蠡	-11.0549
某官	-11.055
聾	-11.0551
畋	-11.0552
白鹿	-11.0553
觥	-11.0553
知己	-11.0558
方知	-11.0559
犬吠	-11.056
有懷	-11.056
枕上	-11.0561
尚未	-11.0561
應是	-11.0564
怖	-11.0566
蘄	-11.0566
小山	-11.0568
五馬	-11.0569
溟	-11.057
煑	-11.0574
何謂	-11.0575
巫峽	-11.0579
踞	-11.0581
之害	-11.0584
樂也	-11.0584
始得	-11.0588
睡起	-11.0589
江樓	-11.0589
晁	-11.0589
未暇	-11.059
而入	-11.059
聖人之道	-11.0591
吾心	-11.0594
言而	-11.0596
冺	-11.0599
論之	-11.0601
贈别	-11.0603
酹	-11.0603
范蠡	-11.0603
海外	-11.0605
不使	-11.0608
之深	-11.0608
百辟	-11.0609
多事	-11.061
盤桓	-11.0611
一月	-11.0611
蔭	-11.0613
攷	-11.0614
東風吹	-11.0614
持節	-11.0615
九華	-11.0617
洞天	-11.0617
有如	-11.0621
曰昔	-11.0622
何許	-11.0623
煉	-11.0624
山南	-11.0625
性情	-11.0625
在焉	-11.0625
何物	-11.0628
赤松	-11.0632
讚	-11.0632
俛	-11.0633
古人之	-11.0634
不便	-11.0637
老樹	-11.0637
再三	-11.0638
炯	-11.0639
漁陽	-11.064
别來	-11.0641
百神	-11.0644
自天	-11.0644
雖云	-11.0646
四句	-11.0647
山有	-11.0648
之先	-11.0649
雲深	-11.0651
譎	-11.0652
未甞	-11.0652
剰	-11.0654
濟南	-11.0654
水聲	-11.0656
不假	-11.0657
藜	-11.0661
大司馬	-11.0662
懌	-11.0663
扼	-11.0663
邠	-11.0666
團團	-11.0666
稍稍	-11.067
以来	-11.0671
前山	-11.0675
之期	-11.0675
漬	-11.0677
錦衣	-11.0677
臺上	-11.0678
唇	-11.0679
淋漓	-11.0679
之善	-11.068
亦知	-11.068
非我	-11.0683
愬	-11.0683
中央	-11.0685
郎官	-11.0687
承平	-11.0687
安樂	-11.0688
鳥聲	-11.0692
之狀	-11.0695
半空	-11.0697
即是	-11.07
齊魯	-11.07
愠	-11.0702
花前	-11.0703
諸王	-11.0705
醖	-11.0705
或謂	-11.0706
隂隂	-11.0709
居人	-11.0711
飛燕	-11.0711
朔風	-11.0712
渡河	-11.0712
所由	-11.0713
籥	-11.0716
清歌	-11.0717
漢武帝	-11.0718
大功	-11.0719
不可得而	-11.0721
虞集	-11.0723
當今	-11.0723
三載	-11.0725
時來	-11.0726
皇皇	-11.0727
金碧	-11.073
藍田	-11.0731
洞房	-11.0731
日月之	-11.0731
者是	-11.0732
珍重	-11.0733
不移	-11.0735
夲	-11.0735
以取	-11.0736
天下之士	-11.0737
孔子之	-11.074
蹕	-11.0741
子也	-11.0742
阮籍	-11.0743
歳月	-11.0743
其行	-11.0749
之機	-11.0753
殉	-11.0755
儒學	-11.0757
蝴蝶	-11.0758
耒	-11.0761
受之	-11.0764
者惟	-11.0765
以義	-11.0767
毛詩	-11.0768
燃	-11.0769
前世	-11.077
盛德	-11.0772
太華	-11.0777
世所	-11.078
縶	-11.078
今者	-11.0782
言曰	-11.0782
腹心	-11.0784
舉世	-11.0784
寧知	-11.0787
不由	-11.0787
雲水	-11.0789
至則	-11.079
妣	-11.079
債	-11.0791
三江	-11.0791
雲門	-11.0792
風日	-11.0792
鴻鴈	-11.0794
萬民	-11.0795
異同	-11.0796
茸	-11.0796
菑	-11.0797
曝	-11.0797
孰不	-11.0798
蕭索	-11.0798
惇	-11.0799
之所謂	-11.0799
離羣	-11.0799
燦	-11.0801
元戎	-11.0801
嘆曰	-11.0801
時為	-11.0805
忽聞	-11.0808
巽	-11.0809
豈復	-11.0811
京城	-11.0814
不仕	-11.0816
西施	-11.0818
落照	-11.0818
九成	-11.0818
其生	-11.0821
夫何	-11.0822
鱠	-11.0823
贅	-11.0823
沓	-11.0825
有神	-11.0825
他時	-11.0826
遂為	-11.0828
曰君	-11.083
水火	-11.083
終古	-11.0831
思之	-11.0831
𤣥宗	-11.0831
爼	-11.0833
圯	-11.0833
李陵	-11.0834
四顧	-11.0834
則天下	-11.0839
女兒	-11.0842
瘞	-11.0845
故老	-11.0846
菽	-11.0847
上國	-11.0849
幸得	-11.0851
蓼	-11.0852
至道	-11.0854
荷葉	-11.0855
杜牧	-11.0856
髙閣	-11.0857
跂	-11.0861
萋萋	-11.0863
駝	-11.0863
陳迹	-11.0863
凭	-11.0863
森森	-11.0865
之分	-11.087
不開	-11.0871
翠羽	-11.0872
昊天	-11.0873
摛	-11.0873
若不	-11.0875
瑶臺	-11.0878
煙霧	-11.0878
避暑	-11.0878
之原	-11.0879
無多	-11.0881
侍宴	-11.0883
晶	-11.0885
明鏡	-11.0885
縳	-11.0887
其業	-11.0888
菲	-11.0889
榮辱	-11.0889
漢中	-11.089
有名	-11.0891
予之	-11.0892
愷	-11.0892
長河	-11.0894
傳聞	-11.0894
不滿	-11.0895
砂	-11.0896
青陽	-11.0896
新年	-11.0897
郡邑	-11.0898
瘁	-11.0899
恨不	-11.09
之興	-11.0901
其法	-11.0902
白晝	-11.0904
其私	-11.0904
根本	-11.0907
幽谷	-11.0907
司馬相如	-11.0912
逓	-11.0913
中使	-11.0916
髙明	-11.0918
文明	-11.0918
之望	-11.092
衆生	-11.0921
身在	-11.0922
大哉	-11.0925
并州	-11.0926
彎	-11.0927
仰天	-11.0928
精誠	-11.0929
之神	-11.0931
裒	-11.0932
如有	-11.0936
和平	-11.0937
太僕	-11.0939
一代	-11.094
浩歌	-11.0943
亦未	-11.0946
君看	-11.0946
馳騁	-11.0948
白紵	-11.095
天威	-11.0951
可以為	-11.0952
其體	-11.0957
文物	-11.0958
吾生	-11.0958
典禮	-11.0961
漢陽	-11.0963
不可復	-11.0964
脯	-11.0966
團扇	-11.0975
下詔	-11.0976
廣大	-11.0976
涓	-11.0977
懐抱	-11.0978
關中	-11.0978
猛虎	-11.0979
散騎常侍	-11.0979
於其間	-11.098
容易	-11.0982
嫋嫋	-11.0982
河流	-11.0982
起舞	-11.0983
曦	-11.0984
旦夕	-11.0985
有期	-11.0985
舊居	-11.0986
言事	-11.0986
蕭何	-11.0988
四十年	-11.0992
汶	-11.0993
殱	-11.0994
玉階	-11.0995
生靈	-11.0995
顚	-11.0995
子厚	-11.0996
皆是	-11.0997
空林	-11.0999
黄塵	-11.1002
侶	-11.1003
也公	-11.1004
熹	-11.1005
列侯	-11.1005
待制	-11.1006
碣石	-11.1007
丹丘	-11.1007
光禄	-11.1011
囀	-11.1012
者衆	-11.1013
舊章	-11.1015
無路	-11.1016
若使	-11.1018
青鳥	-11.1019
英華	-11.102
新豐	-11.1021
雲端	-11.1022
咨嗟	-11.1023
法也	-11.1024
侍御史	-11.1024
諦	-11.1024
無奈	-11.1025
繚	-11.1031
遑	-11.1032
行省	-11.1032
世而	-11.1032
而忘	-11.1037
下車	-11.104
葉落	-11.1045
卿士	-11.1045
非吾	-11.1046
河中	-11.1046
趁	-11.1046
博學	-11.1047
矣此	-11.1047
汜	-11.1051
與時	-11.1052
千嵗	-11.1053
之常	-11.1054
以前	-11.1058
爛漫	-11.1058
使臣	-11.106
倉卒	-11.106
形於	-11.106
无	-11.1061
平居	-11.1068
老病	-11.1068
七言	-11.1068
大體	-11.1069
十分	-11.107
寝	-11.1074
縟	-11.1075
臣愚	-11.1076
驅車	-11.1077
不以為	-11.1078
周易	-11.1078
而食	-11.1079
長門	-11.1079
之器	-11.1081
而亡	-11.1082
瑰	-11.1083
到此	-11.1085
遺跡	-11.1086
一别	-11.1088
明明	-11.1092
遥知	-11.1092
絜	-11.1093
駑	-11.1094
帝鄉	-11.1097
之勤	-11.1098
之所為	-11.1099
侍臣	-11.1099
虺	-11.11
龍飛	-11.11
老成	-11.1102
萬騎	-11.1103
棄之	-11.1103
秋雲	-11.1106
不變	-11.1106
朋黨	-11.1106
詡	-11.1109
夕照	-11.1109
秦川	-11.111
若無	-11.111
勘	-11.1111
猶是	-11.1111
今來	-11.1112
之仁	-11.1112
編修	-11.1113
窠	-11.1113
斯民	-11.1113
奕奕	-11.1114
不著	-11.1116
一道	-11.1117
復為	-11.1117
僮	-11.1117
能知	-11.1118
無時	-11.1119
如雪	-11.1122
之表	-11.1123
霹靂	-11.1125
盥	-11.1125
下馬	-11.1126
陳平	-11.1129
握手	-11.1129
七百	-11.1134
祝融	-11.1134
之年	-11.1134
長驅	-11.1135
雪霜	-11.1136
蒲萄	-11.1136
弟兄	-11.1138
剝	-11.1139
謔	-11.1139
大父	-11.1142
有五	-11.1143
努力	-11.1144
飛雪	-11.1144
翩	-11.1144
雷雨	-11.1146
筮	-11.1148
經史	-11.1148
渡頭	-11.115
湖光	-11.1151
求賢	-11.1152
沉沉	-11.1152
𢎞治	-11.1153
鹵	-11.1153
五嶽	-11.1153
無知	-11.1154
吾廬	-11.1154
途中	-11.1154
太陽	-11.1158
十有二	-11.1161
岷	-11.1162
自足	-11.1163
嘉禾	-11.1164
唐之	-11.1164
沴	-11.1165
流泉	-11.1166
好古	-11.1166
頷	-11.1166
躊躇	-11.1167
孔明	-11.1167
雲南	-11.117
江村	-11.1171
事而	-11.1173
霓	-11.1174
故里	-11.1174
為民	-11.1174
二世	-11.1175
概	-11.1175
此是	-11.1176
雖未	-11.1176
也凡	-11.1177
王者之	-11.1178
巴蜀	-11.1179
仲宣	-11.118
太廟	-11.118
也彼	-11.1181
文集	-11.1182
蔥	-11.1182
所不	-11.1183
還鄉	-11.1183
巴陵	-11.1184
然猶	-11.1184
須㬰	-11.1185
緑樹	-11.119
所及	-11.119
侑	-11.1194
槀	-11.1197
自成	-11.12
秧	-11.1205
吳江	-11.1205
白蘋	-11.1208
太山	-11.121
杪	-11.1211
廣雅曰	-11.1212
應詔	-11.1213
揔	-11.1214
頹	-11.1221
腕	-11.1222
點	-11.1222
輈	-11.1222
之交	-11.1223
北極	-11.1224
許之	-11.1224
山髙	-11.1233
商山	-11.1233
楨	-11.1235
居然	-11.1236
琴書	-11.1237
異時	-11.1238
歸田	-11.1238
愛其	-11.1239
子男	-11.124
夜光	-11.1241
也雖然	-11.1241
中庭	-11.1241
小者	-11.1243
庶子	-11.1246
太夫人	-11.1246
蕤	-11.1248
秀色	-11.1248
八首	-11.1248
魏文帝	-11.125
蠡	-11.1251
不得其	-11.1253
同一	-11.1256
豈是	-11.1263
詞賦	-11.1266
祭酒	-11.1268
臣子	-11.1268
等閒	-11.1269
欲問	-11.1272
將來	-11.1273
羔	-11.1274
尚書令	-11.1275
總管	-11.1275
河洛	-11.1275
築室	-11.1276
睢	-11.1278
因之	-11.1281
黄鸝	-11.1281
滿目	-11.1282
杯酒	-11.1282
誰識	-11.1283
不分	-11.1283
學問	-11.1283
嘉興	-11.1284
陲	-11.1286
不倦	-11.1287
服之	-11.1289
不就	-11.129
心期	-11.1291
愁人	-11.1292
明經	-11.1294
城外	-11.1295
土地	-11.1297
穉	-11.1297
不遑	-11.1301
朝野	-11.1302
長吟	-11.1302
詩集	-11.1303
亹亹	-11.1304
非是	-11.1312
虯	-11.1315
錐	-11.1316
願陛下	-11.1318
只在	-11.1318
者誰	-11.1322
豈敢	-11.1322
山雲	-11.1322
者三	-11.1324
國子	-11.1325
罍	-11.1328
之材	-11.1329
莫知	-11.133
刳	-11.1331
集序	-11.1335
一嵗	-11.1337
傭	-11.1338
為言	-11.1342
訂	-11.1343
吹笙	-11.1343
久不	-11.1349
鬯	-11.135
困於	-11.135
以身	-11.1351
二十七	-11.1351
洄	-11.1355
柴扉	-11.1361
出其	-11.1361
可喜	-11.1364
新秋	-11.1365
相遇	-11.1366
阨	-11.1372
天生	-11.1373
一舉	-11.1375
復見	-11.1376
不憂	-11.1376
醉後	-11.138
也如	-11.138
生意	-11.1382
清濁	-11.1384
塚	-11.1384
𡨕	-11.1388
金吾	-11.1389
布政	-11.1389
考其	-11.1389
園中	-11.139
金盤	-11.139
陳氏	-11.1391
甚於	-11.1398
家住	-11.1399
時見	-11.1399
鳥道	-11.1399
閭閻	-11.14
經緯	-11.1401
聊以	-11.1403
家山	-11.1403
羣山	-11.1406
入夢	-11.1406
曲折	-11.1406
世路	-11.1409
天理	-11.1411
鸛	-11.1411
樂事	-11.1413
者以為	-11.1414
固不	-11.1415
河上	-11.1415
訾	-11.1415
紅顔	-11.1416
石田	-11.1418
戎馬	-11.1419
哉夫	-11.142
埶	-11.142
二三子	-11.1422
憂國	-11.1423
願為	-11.1423
陽和	-11.1425
石城	-11.1426
感物	-11.1426
騷人	-11.1427
昂	-11.1428
璜	-11.1432
非常之	-11.1434
棲遲	-11.1434
數人	-11.1435
山光	-11.1438
𦕈	-11.1439
駮	-11.1442
醉中	-11.1442
矛	-11.1443
乃作	-11.1447
壁間	-11.1447
縣人	-11.1448
舸	-11.1449
寥落	-11.1451
太一	-11.1453
㾗	-11.1454
異鄉	-11.1457
有詩	-11.1459
寄語	-11.146
篙	-11.1462
幽獨	-11.1463
無形	-11.1468
左氏傳曰	-11.1471
􁁊	-11.1472
䜛	-11.1473
坐看	-11.1475
焉故	-11.1476
億兆	-11.148
大厯	-11.148
後有	-11.1481
江淹	-11.1481
相呼	-11.1482
明詔	-11.1483
一體	-11.1483
者耶	-11.1487
菁	-11.1488
馨香	-11.1488
憲章	-11.1488
懷古	-11.1489
元元	-11.149
慶雲	-11.149
脩竹	-11.1491
既成	-11.1491
上古	-11.1493
桂林	-11.1493
如山	-11.1494
近者	-11.1497
皆得	-11.1497
逺道	-11.1499
金馬	-11.15
郭璞曰	-11.15
武夷	-11.1501
不利	-11.1501
五老	-11.1501
之私	-11.1506
平明	-11.1506
柩	-11.1509
所貴	-11.1509
之榮	-11.1509
怪石	-11.1509
竊以	-11.151
柰何	-11.151
而益	-11.1512
中書舍人	-11.1513
顒	-11.1516
屏風	-11.1519
茫	-11.152
先公	-11.1522
鈿	-11.1523
牓	-11.1524
駟馬	-11.1524
三輔	-11.1525
記得	-11.1527
人去	-11.1529
酒家	-11.1529
我生	-11.153
河内	-11.1531
惲	-11.1531
軒冕	-11.1532
不語	-11.1533
三千里	-11.1534
芬芳	-11.1538
廊廟	-11.1538
三字	-11.1539
汰	-11.154
泳	-11.154
斗酒	-11.154
網羅	-11.1541
又作	-11.1544
此書	-11.1544
浥	-11.1545
四方之	-11.1551
明王	-11.1552
綘	-11.1553
涙	-11.1553
鍼	-11.1555
苦心	-11.1556
可愛	-11.1557
出自	-11.1557
朝廷之	-11.1557
鷁	-11.1559
名利	-11.1563
兢	-11.1566
寨	-11.1569
事不	-11.1572
南飛	-11.1572
毬	-11.1572
河西	-11.1574
湄	-11.1574
釣臺	-11.1575
風清	-11.1575
文書	-11.1576
諸軍	-11.1579
青林	-11.1579
神物	-11.158
拏	-11.1581
蔕	-11.1581
論文	-11.1582
神之	-11.1583
藹藹	-11.1585
南來	-11.1586
其源	-11.1587
大都	-11.1592
八音	-11.1592
掀	-11.1595
天髙	-11.1595
奩	-11.1597
禘	-11.1602
髙風	-11.1603
年正月	-11.1603
之西	-11.1604
逸曰	-11.1606
世無	-11.1609
孝文	-11.1611
駿馬	-11.1612
皁	-11.1612
相接	-11.1616
蹴	-11.1623
忽忽	-11.1625
列於	-11.1627
異端	-11.1627
此山	-11.1629
西戎	-11.163
楚山	-11.1632
嵓	-11.1636
道而	-11.1636
越人	-11.1636
用心	-11.1637
堯舜之	-11.1638
尊前	-11.1638
我獨	-11.1638
吳中	-11.1639
譬之	-11.164
第五	-11.164
珥	-11.1641
不我	-11.1642
䜟	-11.1646
自愛	-11.1647
進士第	-11.1648
野寺	-11.165
忽驚	-11.1651
澁	-11.1652
祖宗之	-11.1652
啜	-11.1652
之俗	-11.1653
懾	-11.1654
之物	-11.1654
伊川	-11.1655
孝武	-11.1657
慶厯	-11.166
崑	-11.1663
揣	-11.1664
療	-11.1665
積水	-11.1669
松聲	-11.1671
治平	-11.1671
去就	-11.1671
有所不	-11.1672
恩澤	-11.1674
雍容	-11.1674
及時	-11.1674
官軍	-11.1675
夜聞	-11.1675
幽蘭	-11.1675
蜀人	-11.1677
躔	-11.1677
王命	-11.1678
頃刻	-11.1678
繡衣	-11.168
西樓	-11.1683
於國	-11.1685
祖考	-11.1687
刷	-11.1688
前驅	-11.169
船頭	-11.1691
湛露	-11.1691
蓬瀛	-11.1692
立言	-11.1694
曉日	-11.1695
一尺	-11.1695
帶雨	-11.1697
而稱	-11.1697
繽紛	-11.1698
度支	-11.1698
逺人	-11.1699
軍節度使	-11.1699
摯	-11.17
彭澤	-11.1705
山路	-11.1706
昉	-11.1707
滿庭	-11.1709
喘	-11.1711
制作	-11.1714
在下	-11.1718
杼	-11.1721
紓	-11.1725
六日	-11.1728
目前	-11.1734
過於	-11.1735
出山	-11.1736
也又曰	-11.1738
大同	-11.1738
商賈	-11.1739
殘陽	-11.1741
刻石	-11.1741
勤勞	-11.1743
入海	-11.1746
南湖	-11.1747
歸去來	-11.1749
路傍	-11.1749
聖德	-11.1751
燿	-11.1752
門户	-11.1753
馬嘶	-11.1756
先朝	-11.1759
京洛	-11.1761
蒼翠	-11.1762
遥望	-11.1767
不留	-11.1767
不定	-11.1768
两	-11.1768
如許	-11.1769
天王	-11.1771
籬落	-11.1771
石渠	-11.1772
綱紀	-11.1774
羽毛	-11.1774
筋力	-11.1774
原野	-11.1776
將歸	-11.1776
紅樹	-11.1779
鶉	-11.1783
元稹	-11.1783
逺方	-11.1783
勻	-11.1784
惟陛下	-11.1784
樗	-11.1785
在人	-11.179
不察	-11.1791
永言	-11.1791
國人	-11.1794
參政	-11.1796
益州	-11.1796
福建	-11.1796
學道	-11.1797
諺	-11.1798
流年	-11.1799
則不然	-11.1803
一句	-11.1804
樂章	-11.1804
車駕	-11.1804
如雨	-11.1806
欲為	-11.1807
飱	-11.1809
諡文	-11.1811
深林	-11.1811
戱	-11.1811
未已	-11.1811
絃歌	-11.1812
委曲	-11.1813
悵然	-11.1814
儘	-11.1814
以時	-11.1815
故知	-11.1818
此所謂	-11.1818
詔曰	-11.182
陛下之	-11.182
顔子	-11.1821
之首	-11.1821
東望	-11.1825
修撰	-11.1826
不惟	-11.1826
鄱陽	-11.1826
入山	-11.1827
故得	-11.183
中宵	-11.183
襃	-11.1833
莫言	-11.1836
抉	-11.1837
連雲	-11.1838
奉天	-11.184
之思	-11.184
一氣	-11.1843
魏晉	-11.1845
有命	-11.1853
腦	-11.1853
者何也	-11.1853
帷幄	-11.1855
七首	-11.1855
空自	-11.1855
其子孫	-11.1857
待詔	-11.1859
天池	-11.1859
知人	-11.1859
笥	-11.186
林壑	-11.186
封疆	-11.1861
褰	-11.1861
栁色	-11.1865
千尋	-11.1865
賽	-11.1866
授之	-11.1866
親友	-11.1867
天邊	-11.1869
裊	-11.187
前事	-11.1871
甘心	-11.1871
王事	-11.1874
身後	-11.1874
陽臺	-11.1876
曹公	-11.1877
驄馬	-11.1877
水清	-11.188
不義	-11.188
堞	-11.1881
而猶	-11.1881
畤	-11.1884
承明	-11.1885
本於	-11.1886
支離	-11.1888
叔父	-11.1889
皆在	-11.1894
仲舒	-11.1895
槳	-11.1896
姝	-11.1896
花滿	-11.1896
缸	-11.1897
東城	-11.1898
師友	-11.1902
鄭𤣥	-11.1907
張籍	-11.1908
賢愚	-11.1908
白衣	-11.1908
祜	-11.1912
濛	-11.1912
東園	-11.1912
自傷	-11.1912
淩	-11.1913
者得	-11.1914
㡬時	-11.1914
拭	-11.1916
早朝	-11.1916
少時	-11.1917
靡靡	-11.192
一念	-11.192
歴代	-11.1921
四望	-11.1922
攫	-11.1923
野花	-11.1924
又如	-11.1925
幷	-11.1925
之雄	-11.1926
紐	-11.1928
大笑	-11.1931
之女	-11.1931
緩急	-11.1932
寄書	-11.1933
食邑	-11.1934
孰為	-11.1935
邦國	-11.1937
若何	-11.1938
第四	-11.1938
為貴	-11.1938
曰天	-11.1941
三春	-11.1943
神器	-11.1944
君心	-11.1945
治道	-11.1945
得志	-11.1948
燕山	-11.1949
流沙	-11.195
連城	-11.1951
玉臺	-11.1952
僥倖	-11.1955
朝暮	-11.1956
𬒳	-11.1959
封建	-11.1959
燠	-11.1961
溪頭	-11.1961
西漢	-11.1963
蘭若	-11.1965
萬山	-11.1966
必欲	-11.1967
墨竹	-11.197
萬物之	-11.197
粘	-11.197
御溝	-11.197
遥遥	-11.1973
多難	-11.1973
於古	-11.1974
山空	-11.1977
不能無	-11.1977
輕薄	-11.1978
閭里	-11.198
别墅	-11.1981
春愁	-11.1984
盲	-11.1984
天宇	-11.1986
艸	-11.1987
規矩	-11.1988
上苑	-11.1989
和風	-11.199
考功	-11.1992
以慰	-11.1992
昭君	-11.1993
也然而	-11.1993
時雨	-11.1994
可否	-11.1996
騶	-11.1996
識其	-11.1997
卯	-11.1998
學之	-11.1998
丑	-11.2
袒	-11.2002
固非	-11.2004
日中	-11.2007
休息	-11.2007
正色	-11.2008
自相	-11.201
兵馬	-11.201
闗河	-11.201
詫	-11.2012
廸	-11.2013
窅	-11.2015
撃	-11.2016
清香	-11.2017
者盖	-11.2018
留守	-11.2018
合歡	-11.2021
臣請	-11.2022
不悟	-11.2022
沙頭	-11.2024
仁人	-11.2028
彞	-11.2028
盂	-11.2034
説文	-11.2039
自適	-11.2039
亥	-11.204
有才	-11.2042
餽	-11.2042
片雲	-11.2043
繋	-11.2044
薔薇	-11.2046
取士	-11.2046
閽	-11.2051
日光	-11.2052
燈前	-11.2052
答曰	-11.2053
丘園	-11.2054
擷	-11.2055
小舟	-11.2056
西江	-11.2057
袴	-11.2058
暌	-11.2058
上曰	-11.206
都城	-11.206
銀燭	-11.2061
二十一	-11.2061
人臣	-11.2062
至大	-11.2063
過客	-11.2063
九原	-11.2071
塜	-11.2072
猿啼	-11.2072
擯	-11.2073
埀	-11.2073
鏁	-11.2073
荆門	-11.2073
前朝	-11.2074
鹿門	-11.2074
堕	-11.2075
江天	-11.2076
頭白	-11.2077
山鳥	-11.2077
櫛	-11.2079
桑柘	-11.2081
一樹	-11.2082
露華	-11.2083
典刑	-11.2084
周流	-11.2088
宫人	-11.209
陶潛	-11.209
漢水	-11.2092
數萬	-11.2092
多所	-11.2094
形勝	-11.2095
相承	-11.2095
帝之	-11.2099
之源	-11.2102
歸期	-11.2102
南昌	-11.2103
黠	-11.2104
於我	-11.2104
禧	-11.2104
萬斛	-11.2107
用也	-11.2108
首陽	-11.2109
太史公	-11.2109
者莫不	-11.2112
東漢	-11.2113
晉陽	-11.2114
如絲	-11.2114
文采	-11.2117
城門	-11.2118
怙	-11.2118
轆轤	-11.2119
妥	-11.2119
如意	-11.2119
金城	-11.212
浙東	-11.2126
轉運使	-11.2126
三曰	-11.2127
去其	-11.213
夐	-11.2133
不異	-11.2134
夫君	-11.2135
寺僧	-11.2135
蘇武	-11.2136
莫問	-11.2137
筋	-11.2137
無方	-11.2138
湖中	-11.214
嵇康	-11.214
張衡	-11.2144
龍山	-11.2145
不啻	-11.2147
吾家	-11.2149
緡	-11.2149
今天下	-11.215
愁絶	-11.215
疚	-11.215
者故	-11.2151
作賦	-11.2151
毓	-11.2152
有詔	-11.2154
者猶	-11.2155
天下無	-11.2158
朝雲	-11.2159
明光	-11.216
山靈	-11.2162
遺文	-11.217
之責	-11.2171
上官	-11.2172
楓葉	-11.2174
寄題	-11.2175
雜詠	-11.2176
犬馬	-11.218
曽祖	-11.218
以觀	-11.2183
土木	-11.2183
於家	-11.2183
劉公	-11.2186
之運	-11.2186
照耀	-11.2187
百王	-11.2187
愁思	-11.219
踪	-11.219
浮圖	-11.219
重光	-11.2191
碧樹	-11.2192
臨安	-11.2193
史館	-11.2194
玷	-11.2194
綦	-11.2195
山海	-11.2197
亾	-11.2199
此二	-11.2199
始見	-11.22
皇太后	-11.2201
晏子	-11.2201
微茫	-11.2201
於戲	-11.2202
山城	-11.2203
䟦	-11.2206
傾城	-11.2209
衡山	-11.2211
道傍	-11.2211
嬖	-11.2212
赤子	-11.2212
六七	-11.2215
苦辛	-11.2215
里中	-11.2217
白虎	-11.2217
亦猶	-11.2221
甿	-11.2224
廐	-11.2227
滿城	-11.223
雪後	-11.2232
何可	-11.2233
獨酌	-11.2236
軋	-11.2238
首尾	-11.2239
犧	-11.2239
神農	-11.2242
想像	-11.2242
善曰毛詩曰	-11.2243
露濕	-11.2243
也是故	-11.2244
異日	-11.2245
何曾	-11.2245
藏之	-11.2247
其學	-11.2249
凢	-11.2252
岧嶤	-11.2252
相屬	-11.2255
能以	-11.2257
尊卑	-11.2257
病中	-11.2259
千户	-11.2259
子由	-11.2264
自立	-11.2267
水落	-11.2269
花香	-11.227
塹	-11.2271
尚在	-11.2272
民力	-11.2272
莊周	-11.2276
和尚	-11.2276
者葢	-11.2276
聖心	-11.2277
劃	-11.2279
春雪	-11.2279
賞心	-11.2279
字元	-11.228
故舊	-11.2281
長在	-11.2282
枯槁	-11.2284
春事	-11.2284
殤	-11.2286
郡王	-11.2286
人萬厯	-11.2287
大家	-11.2287
百工	-11.2287
葱	-11.2288
紫霞	-11.2289
其術	-11.2289
榮華	-11.2291
微臣	-11.2291
一統志	-11.2294
便欲	-11.2294
四字	-11.2295
碧海	-11.2295
然自	-11.2297
廣州	-11.2298
諫官	-11.2299
起而	-11.2299
唐太宗	-11.2299
期於	-11.2302
方其	-11.2303
百憂	-11.2303
曽不	-11.2305
職方	-11.2308
玉京	-11.231
詘	-11.2312
奪其	-11.2313
空庭	-11.2313
肘	-11.2314
今宵	-11.2314
丹霞	-11.2316
絶壁	-11.2319
愛此	-11.2322
朝市	-11.2323
不報	-11.2323
緑隂	-11.2324
羲皇	-11.2325
之勝	-11.2328
未嘗有	-11.2329
之北	-11.2338
但恐	-11.2338
李白詩	-11.2338
隱居	-11.234
錬	-11.2343
乗興	-11.2343
于天	-11.2344
潯	-11.2344
而就	-11.2345
以見	-11.2345
頭上	-11.2346
出師	-11.2346
棣	-11.2347
原隰	-11.2348
朝宗	-11.2349
翠㣲	-11.2351
大中	-11.2353
碧山	-11.2354
吉甫	-11.2357
白骨	-11.2357
綿綿	-11.2363
歸夢	-11.2364
虚名	-11.2367
揖讓	-11.2367
澈	-11.237
無成	-11.2372
泫	-11.2372
駱	-11.2379
實為	-11.2381
九衢	-11.2384
人歸	-11.2385
秋毫	-11.2387
夫豈	-11.2388
尊酒	-11.2389
蠱	-11.2391
著於	-11.2391
在前	-11.2393
宗社	-11.2393
艮	-11.2394
民間	-11.2394
麴	-11.2394
野色	-11.2395
即日	-11.2396
萬夫	-11.2396
異也	-11.2401
曰汝	-11.2403
桴	-11.2403
將士	-11.2405
不憚	-11.2406
林木	-11.2407
壬	-11.2407
卜居	-11.2408
或者	-11.2412
銀漢	-11.2414
天香	-11.2415
桂枝	-11.2415
自信	-11.2416
之尊	-11.2416
呀	-11.2416
一行	-11.2416
五里	-11.2417
不住	-11.2418
鳥雀	-11.2418
往者	-11.242
皮日休	-11.2421
百嵗	-11.2422
葭	-11.2423
紅粉	-11.2423
旦暮	-11.2426
不果	-11.2429
其居	-11.2431
敵國	-11.2432
生事	-11.2433
哉故	-11.2434
棟宇	-11.2437
書云	-11.2438
烝	-11.2439
無外	-11.244
夏侯	-11.2441
天下而	-11.2441
空虚	-11.2445
觀察使	-11.2446
二儀	-11.2447
及至	-11.2447
鉉	-11.245
歸時	-11.245
軍旅	-11.2451
事事	-11.2454
久而	-11.2454
數十年	-11.2454
施之	-11.2454
大將	-11.2455
去來	-11.2456
必不	-11.2457
疾病	-11.2458
謝朓詩	-11.2459
逺樹	-11.2461
萬石	-11.2467
所願	-11.2467
綾	-11.2467
讙	-11.2468
人力	-11.2469
藐	-11.247
渤海	-11.247
項王	-11.2473
秋思	-11.2476
堂前	-11.2476
風濤	-11.2478
江月	-11.2484
大官	-11.2486
歴官	-11.2486
匹馬	-11.2488
不休	-11.2489
平王	-11.2491
蕨	-11.2492
武侯	-11.2493
蜃	-11.2493
可知矣	-11.2493
芷	-11.2495
桑榆	-11.2496
糟	-11.2497
東觀	-11.25
洲渚	-11.2502
顧我	-11.2502
萬世之	-11.2508
太平之	-11.2509
開府	-11.2509
芟	-11.2511
雙雙	-11.2513
賢才	-11.2513
𣲖	-11.2514
風飄	-11.2516
安人	-11.2518
之必	-11.2519
莫遣	-11.2519
必能	-11.252
聞於	-11.2523
大學	-11.2523
生人	-11.2526
非徒	-11.2526
也故曰	-11.2529
於後世	-11.2529
不惑	-11.2529
卿大夫	-11.2529
未若	-11.253
醅	-11.253
但願	-11.2531
不有	-11.2532
未許	-11.2532
如之何	-11.2532
心不	-11.2533
圻	-11.2533
留侯	-11.2534
好風	-11.2534
間有	-11.2536
悠哉	-11.2536
紀事	-11.2538
萬丈	-11.2538
無意	-11.254
而相	-11.2541
落月	-11.2543
淮陽	-11.2543
媪	-11.2543
早晚	-11.2544
避世	-11.2545
耄	-11.2546
皇家	-11.2547
亦足	-11.2547
鷰	-11.2549
灞	-11.2552
太液	-11.2552
行舟	-11.2552
畫船	-11.2555
轟	-11.2558
用此	-11.2558
押	-11.2558
雪花	-11.2559
殊方	-11.2562
老大	-11.2562
韓魏	-11.2563
阡陌	-11.2563
春酒	-11.2563
無語	-11.2565
盡力	-11.2565
湖廣	-11.2566
水石	-11.2566
子美	-11.2567
仙掌	-11.2572
國士	-11.2575
已有	-11.258
虚空	-11.258
玉樓	-11.2581
永日	-11.2582
秋興	-11.2589
毳	-11.259
公與	-11.259
世界	-11.2591
世情	-11.2592
此道	-11.2592
鐙	-11.2593
漉	-11.2595
綂	-11.2595
然後知	-11.2595
說文曰	-11.2602
公所	-11.2603
喟然	-11.2605
召公	-11.2605
不屈	-11.2605
一語	-11.2606
名實	-11.2606
装	-11.2607
尅	-11.2608
亡國	-11.2609
椿	-11.2609
頺	-11.2609
乃得	-11.2611
之曲	-11.2612
則亦	-11.2613
耆舊	-11.2613
不記	-11.2613
僑	-11.2614
所傳	-11.2615
憲宗	-11.2615
青門	-11.2616
盛事	-11.2619
此一	-11.262
枝上	-11.2622
本自	-11.2622
欣欣	-11.2623
也蓋	-11.2623
庶㡬	-11.2624
鍳	-11.2625
名家	-11.2626
物華	-11.2627
香爐	-11.2627
又為	-11.2628
集賢	-11.263
之險	-11.2631
有成	-11.2631
行李	-11.2633
樂之	-11.2633
長歎	-11.2634
曲水	-11.2634
所有	-11.2637
荆南	-11.2638
白璧	-11.2638
殿前	-11.2639
空有	-11.2639
不可勝	-11.2639
雲物	-11.2641
荼	-11.2642
未開	-11.2644
之福	-11.2644
白蓮	-11.2644
物理	-11.2645
聞者	-11.2645
立身	-11.2645
何意	-11.2645
宗皇帝	-11.2649
興廢	-11.2651
㓗	-11.2653
近代	-11.2654
存焉	-11.2654
愛人	-11.2654
醉鄉	-11.2656
所未	-11.2657
斟酌	-11.2658
灼灼	-11.2659
聖恩	-11.266
於周	-11.266
登歌	-11.2663
不再	-11.2669
痩	-11.2669
只恐	-11.2671
九曲	-11.2671
義理	-11.2673
光隂	-11.2677
樹影	-11.2678
於漢	-11.2679
平野	-11.2679
類聚	-11.2679
物有	-11.2682
開國	-11.2682
名為	-11.2682
逖	-11.2683
月令	-11.2684
相問	-11.2686
龍泉	-11.2688
濯纓	-11.2689
紫氣	-11.269
未為	-11.2692
為吏	-11.2693
胷中	-11.2694
黄公	-11.2694
天光	-11.2694
深思	-11.2699
青蓮	-11.2699
物情	-11.2699
何嘗	-11.2701
淮南子	-11.2701
参	-11.2702
宫詞	-11.2702
同志	-11.2702
羿	-11.2703
知府	-11.2703
士女	-11.2704
忱	-11.2704
嘗為	-11.2705
愽	-11.2707
南極	-11.271
甚多	-11.271
清露	-11.271
嘘	-11.2711
山家	-11.2711
幘	-11.2713
太倉	-11.2713
玉泉	-11.2715
後宫	-11.2716
其弟	-11.2718
及於	-11.2718
郊廟	-11.2719
而無所	-11.2721
不能以	-11.2721
至理	-11.2722
非禮	-11.2723
仰視	-11.2723
襄王	-11.2724
著作	-11.2724
者言	-11.2724
竹間	-11.2725
養之	-11.2726
嘉定	-11.2727
願君	-11.2729
恍惚	-11.2729
難忘	-11.273
鴟	-11.2731
馳道	-11.2735
一雙	-11.2735
更相	-11.2736
卿相	-11.2736
箔	-11.2738
採蓮	-11.2738
化作	-11.2739
荀卿	-11.2742
潑	-11.2744
乎天	-11.2746
驚起	-11.2747
漁翁	-11.2748
而愈	-11.2748
手持	-11.2748
心自	-11.2751
春風吹	-11.2757
君臣之	-11.276
還自	-11.2761
羣仙	-11.2761
相連	-11.2763
瘳	-11.2764
髙秋	-11.2765
臨池	-11.2765
㤙	-11.2765
魏公	-11.2766
楊子	-11.2766
隼	-11.2766
楊氏	-11.2767
隸	-11.2767
昭陽	-11.2767
宜其	-11.277
其來	-11.2777
轄	-11.2778
殿下	-11.278
皆曰	-11.278
壟	-11.278
遄	-11.278
主之	-11.2781
椀	-11.2781
鏃	-11.2782
不佞	-11.2782
瑶草	-11.2782
顓	-11.2783
來朝	-11.2785
終無	-11.2785
昭公	-11.2787
京邑	-11.2789
以通	-11.279
惟恐	-11.2791
黄山	-11.2791
鵰	-11.2791
配天	-11.2792
滸	-11.2793
酉	-11.2794
徤	-11.2795
菰蒲	-11.2796
有徳	-11.2797
慎勿	-11.2799
不服	-11.28
歐陽脩	-11.2801
張子	-11.2803
聲色	-11.2804
其政	-11.2805
有事	-11.2806
墾	-11.281
八日	-11.281
尚存	-11.2811
襦	-11.2812
熊羆	-11.2812
磊落	-11.2814
崧	-11.2815
使持節	-11.2818
三秋	-11.282
之夫	-11.2821
誅之	-11.2822
其年	-11.2823
湖海	-11.2823
之端	-11.2825
市井	-11.2825
諂	-11.2827
揜	-11.2827
徭	-11.2828
䰟	-11.2828
誰道	-11.2829
扞	-11.2831
俛仰	-11.2835
足矣	-11.2835
彼此	-11.2835
重門	-11.2836
撞	-11.2842
安用	-11.2842
賸	-11.2843
利而	-11.2844
子房	-11.2846
鄞	-11.2847
肝膽	-11.2847
莒	-11.2847
黄龍	-11.2847
用人	-11.285
李嶠	-11.285
金錢	-11.285
塵外	-11.2851
無過	-11.2852
記室	-11.2852
序曰	-11.2852
不意	-11.2855
林中	-11.2856
善者	-11.2856
緑楊	-11.2857
常山	-11.2857
秘書	-11.2862
文武之	-11.2863
乎吾	-11.2867
髙僧	-11.2867
待之	-11.2868
在外	-11.2868
發憤	-11.287
宣和	-11.2871
斗牛	-11.2872
實録	-11.2872
只是	-11.2872
亂山	-11.2873
所用	-11.2875
建武	-11.2875
積雨	-11.2878
之以為	-11.2878
今則	-11.2879
餙	-11.288
如天	-11.2883
常州	-11.2885
元豐	-11.2886
山花	-11.2889
二句	-11.289
夔	-11.2891
皂	-11.2891
柬	-11.2891
娃	-11.2891
菰	-11.2892
耆老	-11.2892
自稱	-11.2892
寤寐	-11.2894
百僚	-11.2895
蘇秦	-11.2896
怛	-11.2898
而不為	-11.2898
上都	-11.2901
茅山	-11.2901
之謂也	-11.2902
靈運	-11.2903
不祥	-11.2903
竟日	-11.2908
藂	-11.2909
常在	-11.2909
不謂	-11.291
日用	-11.2911
終朝	-11.2915
豈易	-11.2915
行藏	-11.2915
戎狄	-11.2915
為問	-11.2916
此理	-11.2916
翺	-11.2917
留滯	-11.2919
燥	-11.2919
險阻	-11.2922
其故	-11.2923
壬辰	-11.2923
一段	-11.2924
嵩山	-11.2924
之基	-11.2927
頌曰	-11.2927
右軍	-11.2929
天府	-11.2929
曰今	-11.2929
二女	-11.2929
天下者	-11.293
水陸	-11.2931
髙人	-11.2932
子瞻	-11.2934
人嘉靖	-11.2935
垂釣	-11.2935
魏王	-11.2936
遂令	-11.2936
凄凄	-11.2936
自安	-11.2937
不正	-11.2937
劉郎	-11.2938
秦淮	-11.2938
大矣	-11.2938
日暖	-11.2939
子夏	-11.2942
斡	-11.2944
大聖	-11.2944
為天子	-11.2945
文詞	-11.2946
齊人	-11.2946
鳳皇	-11.2949
石榴	-11.2951
一半	-11.2951
苕	-11.2952
江北	-11.2953
王勃	-11.2953
空翠	-11.2956
樽酒	-11.2956
有文	-11.2957
陽城	-11.2959
兩鬢	-11.2959
前有	-11.296
賢聖	-11.296
交情	-11.2963
五字	-11.2963
青燈	-11.2965
諸臣	-11.2967
驄	-11.2968
無聊	-11.2974
北門	-11.2974
引領	-11.2975
攪	-11.2975
以及	-11.2975
斯道	-11.2976
有光	-11.2977
晤	-11.2978
流鶯	-11.2978
外物	-11.2981
不修	-11.2984
曲直	-11.2984
倅	-11.2985
邑人	-11.2985
逆旅	-11.2987
過雨	-11.2989
疎雨	-11.2989
曰某	-11.299
具官	-11.299
不論	-11.299
禍亂	-11.2994
思慮	-11.2994
珂	-11.2995
宇文	-11.2997
太乙	-11.2998
躬耕	-11.2999
輝光	-11.3
卓然	-11.3001
龍池	-11.3002
其德	-11.3003
坐對	-11.3004
無非	-11.3006
釡	-11.3006
搗	-11.3006
斷絶	-11.3006
繚繞	-11.3006
僉事	-11.3007
葳蕤	-11.3008
無違	-11.3009
歌吹	-11.3015
到家	-11.3016
三事	-11.3017
卭	-11.3018
孜孜	-11.3019
靚	-11.3021
者今	-11.3022
德之	-11.3023
竺	-11.3025
以利	-11.3026
其外	-11.303
茨	-11.303
洪範	-11.3034
石湖	-11.3035
先生曰	-11.3035
五星	-11.3036
即今	-11.3036
平蕪	-11.3036
而還	-11.3038
南枝	-11.3038
甘棠	-11.3039
此夜	-11.3039
二十三	-11.304
歸雲	-11.304
為治	-11.3041
䄂	-11.3041
幽州	-11.3042
之色	-11.3042
饑寒	-11.3042
横流	-11.3042
羗	-11.3043
銑	-11.3047
吾師	-11.305
為是	-11.3051
摩挲	-11.3052
俚	-11.3052
箠	-11.3053
萬木	-11.3053
知所	-11.3053
尊師	-11.3054
當此之時	-11.3055
天衢	-11.3055
一色	-11.3055
洛水	-11.3055
耘	-11.3059
平日	-11.306
中年	-11.306
清談	-11.3061
鱸魚	-11.3062
七言絶句	-11.3063
有年	-11.3063
苦寒	-11.3064
正徳	-11.3067
忘言	-11.3068
隠隠	-11.3069
監司	-11.3071
煙樹	-11.3071
伏見	-11.3072
上京	-11.3072
信之	-11.3074
所適	-11.3074
南越	-11.3075
之處	-11.3082
鴻鵠	-11.3082
則非	-11.3085
水雲	-11.3086
啖	-11.3087
古樂府	-11.3087
柝	-11.3087
山雨	-11.3089
黼	-11.309
后稷	-11.309
繼之	-11.309
焉能	-11.3093
良人	-11.3093
一隅	-11.3094
横塘	-11.3095
天地間	-11.3095
未覺	-11.3096
收拾	-11.3098
徜徉	-11.3098
䦨干	-11.3099
夷齊	-11.3099
者此	-11.31
剔	-11.3101
磔	-11.3101
先主	-11.3102
縣尉	-11.3102
家居	-11.3103
為郎	-11.3103
者吾	-11.3105
甑	-11.3105
也雖	-11.3106
周禮曰	-11.311
萬姓	-11.3111
煙火	-11.3111
諸家	-11.3111
侍講	-11.3113
如來	-11.3115
髙卧	-11.3115
不減	-11.3116
百金	-11.3116
鮑照	-11.3116
清泠	-11.3117
佳麗	-11.3117
莅	-11.3117
癘	-11.3118
紉	-11.3119
陳留	-11.3119
竹樹	-11.3121
下第	-11.3122
以疾	-11.3125
若斯	-11.3126
宗伯	-11.3127
竹裏	-11.3132
王業	-11.3132
客至	-11.3133
捜	-11.3136
驊騮	-11.3136
千頃	-11.3137
不煩	-11.314
隰	-11.3145
自守	-11.3146
香山	-11.3146
嘉樹	-11.3147
市朝	-11.3147
卒於	-11.3148
微雨	-11.3151
朝天	-11.3151
請以	-11.3152
卒以	-11.3153
欲求	-11.3153
珉	-11.3154
芰荷	-11.3154
夜寒	-11.3157
逺客	-11.3159
嗟我	-11.316
𤣥圃	-11.3161
西征	-11.3162
滓	-11.3162
劵	-11.3165
矗	-11.3168
呉王	-11.3169
未肯	-11.3169
心知	-11.3171
亊	-11.3172
因而	-11.3172
其樂	-11.3173
牌	-11.3174
泠	-11.318
能自	-11.318
瞿	-11.3182
應天	-11.3182
卿雲	-11.3183
前溪	-11.3183
盡心	-11.3184
刮	-11.3185
幾處	-11.3185
堙	-11.3186
魏闕	-11.3186
萬乘	-11.3187
未有不	-11.3188
成於	-11.3188
大風	-11.3189
有可	-11.3189
忠貞	-11.3191
煙雲	-11.3191
稾	-11.3193
搔首	-11.3193
之姿	-11.3195
自我	-11.3195
試問	-11.3196
帑	-11.3197
左丞	-11.3202
乎若	-11.3202
𠂻	-11.3203
小人之	-11.3203
愿	-11.3203
儷	-11.3203
倒影	-11.3204
欲其	-11.3205
相向	-11.3206
曖	-11.3206
蜿蜒	-11.3207
人民	-11.3207
不存	-11.3212
雲煙	-11.3213
華屋	-11.3213
鄭公	-11.3214
忘憂	-11.3215
倚杖	-11.3216
以歸	-11.3218
者多矣	-11.322
議郎	-11.322
召見	-11.3222
所不能	-11.3223
路入	-11.3223
始以	-11.3224
問其	-11.3228
水仙	-11.3229
之甚	-11.3229
原上	-11.323
發明	-11.3232
一章	-11.3233
進士除	-11.3233
横行	-11.3234
廖	-11.3234
孤燈	-11.3234
㳂	-11.3235
三湘	-11.3235
萬重	-11.3236
逺而	-11.3237
長林	-11.3237
大化	-11.3237
究其	-11.3238
以大	-11.3238
入秦	-11.324
難以	-11.324
今日之	-11.324
也及	-11.3241
秣	-11.3242
孔孟	-11.3244
望中	-11.3245
遐邇	-11.3246
花木	-11.3246
鳯皇	-11.3246
吾欲	-11.3247
之訓	-11.3248
宗族	-11.3248
闋	-11.3248
兖	-11.3248
仞	-11.3248
水深	-11.3249
志曰	-11.325
以喻	-11.3251
深宫	-11.3254
槍	-11.3254
狂歌	-11.3255
而東	-11.3257
無盡	-11.3258
後代	-11.3258
右丞	-11.3258
都邑	-11.3263
孩	-11.3265
淮西	-11.3265
沙漠	-11.3267
蚊	-11.3269
櫺	-11.3269
振衣	-11.3272
使民	-11.3273
羽儀	-11.3275
邦家	-11.3276
雜興	-11.3277
謝朓	-11.3279
致其	-11.328
金銀	-11.328
人不知	-11.3281
鷙	-11.3282
未發	-11.3284
殽	-11.3284
蜀道	-11.3286
望見	-11.3286
鰲	-11.3287
落暉	-11.3287
細草	-11.3287
其四	-11.3289
户部	-11.3292
孰謂	-11.3292
桃葉	-11.3295
滇	-11.3299
乎故	-11.3301
後先	-11.3301
贓	-11.3302
覬	-11.3302
後進	-11.3303
柰	-11.3303
營營	-11.3304
工部	-11.3309
茆	-11.331
南去	-11.3312
集無	-11.3314
清且	-11.3318
瀕	-11.3319
良可	-11.3319
罅	-11.332
而使	-11.3324
戚戚	-11.3326
白羽	-11.3326
未休	-11.3327
花影	-11.3329
莫愁	-11.3329
劑	-11.333
聒	-11.3332
或云	-11.3333
毛萇詩傳曰	-11.3334
不多	-11.3334
黙黙	-11.3334
儆	-11.3334
数	-11.3334
表一首	-11.3334
之意也	-11.3335
烏鵲	-11.3335
至人	-11.3336
毫釐	-11.3337
世道	-11.3338
豈若	-11.3339
兵法	-11.3339
溶溶	-11.3339
從其	-11.334
古辭	-11.334
又非	-11.3341
荒城	-11.3342
今夫	-11.3344
甚者	-11.3345
鱸	-11.3346
又聞	-11.3347
淄	-11.3349
有所思	-11.335
早秋	-11.3352
其神	-11.3353
人道	-11.3356
方士	-11.3359
移家	-11.336
天時	-11.3362
北面	-11.3362
人來	-11.3362
片片	-11.3363
禮儀	-11.3369
與公	-11.337
展轉	-11.337
誰云	-11.3371
夫差	-11.3372
澗水	-11.3373
蕩漾	-11.3373
發其	-11.3374
農桑	-11.3376
哉然	-11.3376
天寶	-11.3376
不可為	-11.3376
聊復	-11.3376
車輪	-11.3377
翠竹	-11.3378
丐	-11.3379
之易	-11.338
臣所	-11.338
之誅	-11.3381
近來	-11.3382
賀復徵編	-11.3385
佇立	-11.3386
靳	-11.3386
舊事	-11.3387
漢使	-11.3388
趙氏	-11.3388
實有	-11.3388
荆山	-11.3389
無忘	-11.3389
天末	-11.3389
其材	-11.3391
新亭	-11.3391
不辨	-11.3393
璘	-11.3394
隂山	-11.3395
於公	-11.3395
徐陵	-11.3397
然亦	-11.3398
以降	-11.3399
月光	-11.3399
徒自	-11.34
數行	-11.34
甲第	-11.34
其流	-11.3402
嫗	-11.3403
拉	-11.3403
即此	-11.3404
鬂	-11.3404
祕書	-11.3405
韓子	-11.3405
吐蕃	-11.3406
波浪	-11.3407
哀哉	-11.3409
峩	-11.3411
一人之	-11.3411
莊宗	-11.3413
厥後	-11.3415
四皓	-11.3415
人主之	-11.3416
宕	-11.3416
復來	-11.3416
但覺	-11.3417
廢興	-11.3419
記之	-11.3419
蚌	-11.342
兕	-11.3422
風烟	-11.3423
北辰	-11.3425
見贈	-11.3426
數里	-11.3426
勞苦	-11.3427
人少	-11.3428
黄鍾	-11.343
成文	-11.343
官舍	-11.3431
有四	-11.3431
烈士	-11.3431
三萬	-11.3433
吳楚	-11.3433
嗇	-11.3439
備矣	-11.344
天顔	-11.3441
元昊	-11.3442
牢落	-11.3443
古城	-11.3444
子貢	-11.3445
亦不能	-11.3448
風土	-11.3454
之質	-11.3455
至治	-11.3455
荔枝	-11.3455
鯨鯢	-11.3456
州之	-11.3456
災異	-11.3457
者不能	-11.3458
不滅	-11.3458
夜長	-11.346
論其	-11.3461
不計	-11.3465
外戚	-11.3466
告成	-11.3467
光彩	-11.3468
三十里	-11.3468
天官	-11.3468
將有	-11.3471
箸	-11.3472
海鹽	-11.3473
於君	-11.3474
未了	-11.3476
落盡	-11.3478
杓	-11.3478
昌言	-11.3482
坻	-11.3485
佳節	-11.3485
雨霽	-11.3486
吾所	-11.3486
烟雨	-11.3486
為報	-11.3488
平安	-11.3488
之列	-11.349
寄言	-11.349
內	-11.3492
之倫	-11.3495
太保	-11.3495
矣若	-11.3496
回頭	-11.3496
士民	-11.3496
歌詠	-11.3496
先師	-11.3498
二十六	-11.3498
梁簡文帝詩	-11.35
幙	-11.3501
蒞	-11.3502
馬甲	-11.3503
寒夜	-11.3503
青龍	-11.3503
深谷	-11.3504
幸甚	-11.3504
留題	-11.3506
今乃	-11.3507
金山	-11.3509
所好	-11.3509
豳	-11.351
一寸	-11.3511
朝霞	-11.3511
者不可	-11.3512
露下	-11.3513
過此	-11.3513
楚子	-11.3513
自可	-11.3515
安定	-11.3516
不能盡	-11.3516
一路	-11.3518
惜其	-11.3521
河山	-11.3521
凜	-11.3523
大禮	-11.3528
飲馬	-11.353
天柱	-11.3533
垠	-11.3533
清商	-11.3534
賀復徴編	-11.3534
無足	-11.3534
也使	-11.3536
太虚	-11.354
意欲	-11.354
招提	-11.354
縱有	-11.354
鞍馬	-11.3541
常以	-11.3543
威靈	-11.3544
常有	-11.3545
如斯	-11.3545
南園	-11.3546
寒梅	-11.3547
不飲	-11.3547
萬乗	-11.3547
以定	-11.3548
今陛下	-11.3549
石梁	-11.3549
隨意	-11.3549
兹山	-11.3549
勸君	-11.355
秉燭	-11.355
三十二	-11.355
佳處	-11.3553
濯足	-11.3555
淮隂	-11.3555
之由	-11.3558
燮	-11.3559
化之	-11.3561
從弟	-11.3562
都䕶	-11.3565
十九年	-11.3566
吾亦	-11.3567
甲乙	-11.3571
希夷	-11.3572
罔極	-11.3573
鼓角	-11.3574
缶	-11.3574
頗有	-11.3575
野田	-11.3579
之口	-11.3579
景帝	-11.358
安期	-11.3581
江夏	-11.3581
秋天	-11.3581
東籬	-11.3581
書記	-11.3584
之容	-11.3584
烏啼	-11.3585
秋夕	-11.3587
告之	-11.3587
刑部	-11.3587
累官	-11.3588
海隅	-11.3589
風髙	-11.359
苦吟	-11.3591
無勞	-11.3591
遺愛	-11.3591
扈從	-11.3591
傍人	-11.3593
忽憶	-11.3595
抹	-11.3597
百餘年	-11.3598
滿山	-11.36
萱	-11.3601
宜春	-11.3603
於衆	-11.3604
白帝	-11.3604
蔓草	-11.3605
擊壤	-11.3605
黏	-11.3607
其如	-11.3609
救之	-11.3609
有作	-11.361
州諸軍事	-11.3611
詩酒	-11.3611
順天	-11.3612
觀察	-11.3616
湯湯	-11.3616
無何	-11.3617
晉人	-11.3618
無子	-11.3619
所云	-11.3619
荻	-11.362
軺	-11.3621
長空	-11.3624
掩扉	-11.3625
霾	-11.3627
漱	-11.3627
槽	-11.3628
之良	-11.3629
能盡	-11.3629
謝安	-11.3629
和親	-11.363
而己	-11.3631
聖君	-11.3632
牀頭	-11.3632
來此	-11.3633
誰是	-11.3637
授以	-11.3638
下土	-11.3639
隂陽之	-11.3639
庭中	-11.364
未見其	-11.3641
論議	-11.3641
於秦	-11.3642
既無	-11.3643
十六年	-11.3645
睢陽	-11.3646
輕舉	-11.3648
明道	-11.3648
取諸	-11.3649
無憂	-11.3652
守令	-11.3652
興來	-11.3653
三欽定四庫全書	-11.3654
西風吹	-11.3658
不幸而	-11.3658
跼	-11.366
經始	-11.3661
艦	-11.3661
中國之	-11.3664
入雲	-11.3664
猿聲	-11.3664
踴躍	-11.3665
亦然	-11.3666
其終	-11.3667
釋之	-11.3667
端居	-11.3669
!	-11.367
之智	-11.3672
羊腸	-11.3673
與天地	-11.3673
子胥	-11.3673
皆知	-11.3674
地勢	-11.3675
駸駸	-11.3675
采蓮	-11.3676
詩二首	-11.3677
貼	-11.3679
之號	-11.368
野鶴	-11.368
乃是	-11.368
綻	-11.368
䋲	-11.3682
以興	-11.3684
見此	-11.3685
也陛下	-11.3686
推之	-11.3689
名節	-11.3689
滿堂	-11.369
地僻	-11.369
世宗	-11.369
夢想	-11.3691
况乎	-11.3691
矣哉	-11.3692
也因	-11.3694
八卦	-11.3694
惟公	-11.3695
真宗	-11.3695
軻	-11.3696
詠歌	-11.3696
文士	-11.3697
霈	-11.3698
優劣	-11.37
柟	-11.37
清池	-11.3702
迎風	-11.3703
露滴	-11.3704
人則	-11.3705
筆端	-11.3705
歌行	-11.3706
宿雨	-11.3707
古樹	-11.3708
樓觀	-11.371
則雖	-11.3711
今我	-11.3712
絶域	-11.3712
醺	-11.3712
視聽	-11.3713
閙	-11.3714
南康	-11.3716
騏驥	-11.3716
香風	-11.3717
衘	-11.3718
儒林	-11.3719
丹墀	-11.3722
清霜	-11.3726
不愧	-11.3728
紊	-11.373
精靈	-11.373
儒術	-11.373
擇其	-11.3731
崆峒	-11.3731
井田	-11.3732
以進	-11.3732
韞	-11.3732
先儒	-11.3733
七尺	-11.3734
二千	-11.3736
廽	-11.3736
寒水	-11.3737
北征	-11.3738
影落	-11.3738
嗚咽	-11.3739
皇帝陛下	-11.374
登高	-11.374
固知	-11.3741
暝色	-11.3741
仙子	-11.3742
孔氏	-11.3742
經曰	-11.3742
焉夫	-11.3743
諍	-11.3743
失所	-11.3744
於大	-11.3745
書來	-11.3745
弓矢	-11.3747
送友人	-11.3751
琰	-11.3751
武皇帝	-11.3754
濁酒	-11.3754
有定	-11.3757
各以	-11.3757
文獻	-11.3757
耦	-11.3758
兩人	-11.3759
先天	-11.3759
流傳	-11.376
公言	-11.3761
明哲	-11.3761
也毛詩曰	-11.3761
熖	-11.3762
之境	-11.3763
則可	-11.3763
默	-11.3764
恭惟	-11.3765
珠璣	-11.3767
而用	-11.3768
文王之	-11.3769
酥	-11.3771
野客	-11.3771
大徳	-11.3771
是何	-11.3771
况乃	-11.3772
霖雨	-11.3773
自持	-11.3774
何敢	-11.3775
世世	-11.3777
出守	-11.3777
比於	-11.3777
小園	-11.3778
清曉	-11.3779
晴雲	-11.3779
桂花	-11.3781
石頭	-11.3783
蕋	-11.3784
以表	-11.3785
未終	-11.3786
無一事	-11.3788
以至於	-11.3788
山在	-11.3789
雲影	-11.3789
之令	-11.3789
朱絃	-11.379
夢得	-11.3791
江都	-11.3791
客中	-11.3796
戕	-11.3798
嫂	-11.3799
寒風	-11.38
因縁	-11.3801
楚江	-11.3802
千家	-11.3803
六藝	-11.3803
採藥	-11.3803
太上	-11.3803
鴻臚	-11.3804
本作	-11.3805
宦官	-11.3805
鶚	-11.3805
繇是	-11.3806
往年	-11.3806
仁義之	-11.3807
王建	-11.3808
紫翠	-11.3809
可能	-11.381
雲根	-11.3811
東閣	-11.3812
也豈	-11.3812
野草	-11.3813
彥	-11.3817
聊自	-11.3819
户牖	-11.382
張華	-11.382
蘇子	-11.382
纍	-11.3821
仙翁	-11.3821
神光	-11.3822
雪山	-11.3824
在何處	-11.3824
何幸	-11.3825
旭日	-11.3825
本是	-11.3831
嘗以	-11.3832
甲辰	-11.3835
固無	-11.3836
殺氣	-11.3836
豈必	-11.3837
朝露	-11.3839
嶮	-11.384
清淨	-11.3841
遺風	-11.3841
桷	-11.3841
俄而	-11.3843
有若	-11.3843
芳洲	-11.3844
便宜	-11.3844
折衝	-11.3846
器用	-11.3846
沅	-11.3847
印綬	-11.385
良工	-11.385
西蜀	-11.3851
生長	-11.3852
遨	-11.3852
五十年	-11.3854
驃騎	-11.3854
鉦	-11.3854
何得	-11.3855
僕夫	-11.3855
漢室	-11.3858
祀典	-11.3858
矯矯	-11.3859
且以	-11.386
誰敢	-11.3864
春夢	-11.3864
洞口	-11.3865
内翰	-11.3867
柘	-11.3868
金闕	-11.387
肺	-11.3871
西郊	-11.3871
為王	-11.3872
東去	-11.3874
日華	-11.3875
行歌	-11.3876
東臯	-11.3876
麻姑	-11.3876
致之	-11.3878
其官	-11.3878
十七年	-11.3878
諸道	-11.3881
脛	-11.3884
而思	-11.3884
葆	-11.3884
將安	-11.3886
邪正	-11.3887
舟人	-11.3888
知此	-11.3888
棟梁	-11.389
天開	-11.389
路轉	-11.3891
為爾	-11.3895
令尹	-11.3896
釣磯	-11.3897
遂成	-11.3901
先聖	-11.3901
華表	-11.3902
所遇	-11.3903
嵗嵗	-11.3903
嚴霜	-11.3904
逡巡	-11.3905
舶	-11.3906
皇考	-11.3907
惡之	-11.391
聚散	-11.391
子規	-11.391
之象	-11.391
舉而	-11.3911
紫陌	-11.3911
欲歸	-11.3912
鯉魚	-11.3913
黜陟	-11.3913
少師	-11.3913
閉户	-11.3913
功德	-11.3915
不齊	-11.3915
舉其	-11.3919
焉得	-11.392
髙低	-11.3921
平江	-11.3923
獨不	-11.3925
蓍	-11.3926
升堂	-11.3927
稱之	-11.3927
其詞	-11.3928
宼	-11.3928
沾衣	-11.3929
兮何	-11.3931
四門	-11.3933
碧草	-11.3935
未定	-11.3935
之䇿	-11.3936
日與	-11.3937
何在	-11.3937
者謂之	-11.3937
冠冕	-11.3939
祛	-11.3942
劭	-11.3942
明白	-11.3943
巍	-11.3943
正位	-11.3944
學官	-11.3947
崛	-11.3947
路逺	-11.3948
教人	-11.3949
以天下	-11.3952
曉色	-11.3952
所生	-11.3952
未到	-11.3952
五言律	-11.3953
龍驤	-11.3953
當以	-11.3956
僖	-11.3956
嶷	-11.3961
天公	-11.3961
於焉	-11.3962
聽之	-11.3963
入夜	-11.3963
兆民	-11.3969
出家	-11.3969
忠良	-11.397
結廬	-11.397
莫怪	-11.3971
路長	-11.3971
題名	-11.3972
分别	-11.3975
此物	-11.3975
上馬	-11.3976
頌聲	-11.3977
斸	-11.3977
璚	-11.3981
羣后	-11.3981
駕言	-11.3982
臣以為	-11.3985
慤	-11.3986
漁家	-11.3988
詩思	-11.3989
春花	-11.3989
而望	-11.3995
諜	-11.3997
層城	-11.3997
昊	-11.3997
橘柚	-11.3998
僞	-11.4
桑梓	-11.4004
能詩	-11.4006
重華	-11.4008
太初	-11.4009
半生	-11.401
與此	-11.4013
江亭	-11.4014
安南	-11.4014
鵶	-11.4015
南陌	-11.4015
犁	-11.4015
劉長卿	-11.4017
蜚	-11.4018
之野	-11.402
三老	-11.402
箕子	-11.4021
中正	-11.4026
梁武帝	-11.4026
臺閣	-11.4027
舉頭	-11.4028
得所	-11.4029
極其	-11.4029
豢	-11.4036
山泉	-11.4038
春夏	-11.4039
何益	-11.404
幸有	-11.4041
少壯	-11.4042
録事	-11.4046
而已哉	-11.4046
寒光	-11.4048
長句	-11.4048
洞中	-11.4048
殿中	-11.4049
驅馬	-11.4049
飛雲	-11.405
天壤	-11.4051
此行	-11.4051
澧	-11.4052
魴	-11.4053
酒旗	-11.4054
機杼	-11.4055
國風	-11.4057
坰	-11.4058
霍光	-11.4059
當日	-11.406
化成	-11.406
可知也	-11.4061
辟雍	-11.4067
簧	-11.4071
與王	-11.4073
儀禮	-11.4074
相待	-11.4075
故為	-11.4075
金屋	-11.4075
東湖	-11.4076
嵗華	-11.4078
此樂	-11.4079
以救	-11.4079
清波	-11.4079
杲	-11.408
塵世	-11.408
晴日	-11.408
香火	-11.4081
風沙	-11.4082
名教	-11.4082
塾	-11.4084
黍稷	-11.4084
無敢	-11.4085
瘡	-11.4086
雷電	-11.4086
牛馬	-11.4088
月影	-11.4089
斷續	-11.4089
形影	-11.4092
北地	-11.4092
清輝	-11.4093
出乎	-11.4093
不可以不	-11.4095
廣漢	-11.4096
疫	-11.4097
文以	-11.4097
上將	-11.4098
好事者	-11.4099
賈島	-11.4101
之爲	-11.4102
去矣	-11.4103
此曲	-11.4103
幾回	-11.4103
那能	-11.4104
何求	-11.4105
爇	-11.4106
雖在	-11.4106
輞川	-11.4107
惋	-11.4108
郡人	-11.4115
冇	-11.4116
修身	-11.4117
山鬼	-11.4118
落木	-11.4119
下筆	-11.412
湫	-11.412
所從	-11.4121
澄清	-11.4122
君為	-11.4123
辛丑	-11.4127
颯颯	-11.4131
清淺	-11.4131
驛路	-11.4135
門生	-11.4137
景福	-11.4138
長鳴	-11.4141
戛	-11.4141
紘	-11.4142
其墓	-11.4142
者以其	-11.4143
倚天	-11.4143
手自	-11.4144
雲樹	-11.4145
中宗	-11.4145
張説	-11.4146
蒼然	-11.4147
燕雀	-11.415
蓂	-11.415
未應	-11.4153
喜怒	-11.4154
龍鱗	-11.4157
隨處	-11.4157
公家	-11.4158
却笑	-11.4159
慼	-11.4159
簸	-11.4159
其死	-11.4159
相違	-11.416
落筆	-11.416
姒	-11.4161
之所在	-11.4162
紫雲	-11.4163
但有	-11.4165
如可	-11.4165
高樓	-11.4165
十八年	-11.4166
玉簫	-11.4168
風化	-11.4172
地下	-11.4173
不踰	-11.4174
瞥	-11.4178
醉眠	-11.4181
陸離	-11.4186
遨遊	-11.4186
憐君	-11.4188
酺	-11.4188
鷗鷺	-11.4189
延佇	-11.419
春意	-11.4191
持此	-11.4191
瀬	-11.4194
衒	-11.4194
幽明	-11.4195
山亭	-11.4195
髭	-11.4196
悄	-11.4197
届	-11.4199
醑	-11.4199
枯木	-11.4201
竽	-11.4202
鼉	-11.4204
黄道	-11.4207
之貴	-11.4207
未乾	-11.4209
那可	-11.4211
癸	-11.4212
奨	-11.4215
長相思	-11.4215
幽尋	-11.4216
建國	-11.4217
辛勤	-11.4217
者自	-11.4217
烟波	-11.4219
三國	-11.4222
兵部尚書	-11.4223
飛揚	-11.4224
之歌	-11.4224
黔首	-11.4227
四鄰	-11.423
漁歌	-11.4231
也至於	-11.4232
覯	-11.4232
吳郡	-11.4233
薺	-11.4233
一洗	-11.4233
其妻	-11.4234
伊洛	-11.4235
豈特	-11.4236
不收	-11.4236
戡	-11.4236
君父	-11.4237
避地	-11.4238
穆王	-11.4239
恐懼	-11.4239
城隅	-11.4239
四子	-11.424
將欲	-11.424
竹葉	-11.4241
出沒	-11.4244
前賢	-11.4245
慳	-11.4247
浮萍	-11.4249
櫪	-11.4249
目録	-11.425
訐	-11.425
釣竿	-11.4251
苜蓿	-11.4251
嚬	-11.4251
殻	-11.4252
閒雲	-11.4252
金縷	-11.4253
已久	-11.4255
惟新	-11.4257
更始	-11.4258
儒生	-11.4261
無虞	-11.4262
華髪	-11.4263
大亂	-11.4264
廣西	-11.4265
木石	-11.4266
漢祖	-11.4266
入室	-11.4266
以兵	-11.4267
死不	-11.4268
晡	-11.427
覘	-11.427
詮	-11.4271
二八	-11.4272
咸池	-11.4272
冠帶	-11.4272
兾	-11.4272
大名	-11.4275
莫測	-11.4277
宗元	-11.4279
以獻	-11.428
唱和	-11.428
歸思	-11.4281
法而	-11.4284
亶	-11.4285
驍	-11.4285
鄕	-11.4287
芙蕖	-11.4288
十一欽定四庫全書	-11.4288
綆	-11.4289
叡	-11.429
齊侯	-11.429
豈足	-11.4291
為本	-11.4294
魯連	-11.4295
巖下	-11.4297
之宫	-11.4297
家語	-11.4299
河橋	-11.4299
終年	-11.4299
隠者	-11.4302
翬	-11.4306
青衫	-11.4306
離合	-11.4307
正朔	-11.4307
無風	-11.4307
隔水	-11.4309
縈紆	-11.431
荐	-11.431
桀紂	-11.4311
後嗣	-11.4312
董仲舒	-11.4312
諸賢	-11.4314
論者	-11.4315
髙歌	-11.4315
至仁	-11.4317
異乎	-11.4318
經行	-11.432
死矣	-11.432
元嘉	-11.4321
曙色	-11.4321
下視	-11.4324
貂裘	-11.4327
陶令	-11.4329
無道	-11.433
州府	-11.4333
竹帛	-11.4334
者也夫	-11.4335
河圖	-11.4335
筆硯	-11.4336
池水	-11.4338
虚無	-11.4338
老氏	-11.4339
二君	-11.4341
鄉黨	-11.4341
草書	-11.4342
稻粱	-11.4343
開府儀同三司	-11.4344
倭	-11.4346
兩儀	-11.4347
戊	-11.4347
澤國	-11.4347
大禹	-11.4348
天明	-11.4349
秋深	-11.435
相率	-11.435
石泉	-11.4351
大定	-11.4352
璽書	-11.4354
有靈	-11.4355
獨倚	-11.4356
孱	-11.4359
舊業	-11.436
其害	-11.4361
言歸	-11.4362
膾	-11.4362
亂離	-11.4364
清隂	-11.4365
感恩	-11.4365
九卿	-11.4367
栁宗元	-11.4369
千峯	-11.437
底事	-11.437
不虞	-11.4371
詩有	-11.4373
望月	-11.4375
也盖	-11.4377
凡此	-11.4381
氛氲	-11.4381
顦顇	-11.4383
褊	-11.4383
愛惜	-11.4384
桐廬	-11.4385
丁未	-11.4385
論道	-11.4389
空濛	-11.4389
人在	-11.4392
醴泉	-11.4393
經濟	-11.4393
開花	-11.4395
召為	-11.4397
善曰漢書曰	-11.4398
自然之	-11.4401
一川	-11.4402
淮南子曰	-11.4402
列宿	-11.4403
民心	-11.4404
堡	-11.4405
揮毫	-11.4405
身死	-11.4405
只應	-11.4409
寒江	-11.4413
無期	-11.4415
春衣	-11.4416
開闢	-11.4417
行止	-11.4422
靈芝	-11.4422
善政	-11.4423
宴坐	-11.4425
張良	-11.4426
曺	-11.4426
皇祖	-11.4427
司農	-11.4427
愛君	-11.4427
昔聞	-11.4429
鏡裏	-11.443
東來	-11.443
名字	-11.443
筌	-11.4431
晴空	-11.4432
區宇	-11.4434
花時	-11.4434
帝城	-11.4434
早晩	-11.4435
異物	-11.4435
髙陽	-11.4436
此豈	-11.4437
前輩	-11.4437
老子曰	-11.4438
成行	-11.4439
酒熟	-11.444
葡萄	-11.4441
鄭氏	-11.4442
立春	-11.4444
杜門	-11.4445
殘花	-11.4445
之符	-11.4445
已來	-11.445
出于	-11.4451
微言	-11.4452
暮年	-11.4452
月十五日	-11.4452
璇	-11.4452
非其人	-11.4452
建中	-11.4453
守道	-11.4454
家在	-11.4454
小樓	-11.4456
鏡湖	-11.4456
各異	-11.4458
夢到	-11.446
抑揚	-11.4461
髙情	-11.4462
少而	-11.4463
講學	-11.4464
亡也	-11.4466
親親	-11.4468
篇章	-11.4468
城樓	-11.4469
者也故	-11.4469
報恩	-11.4469
妻孥	-11.447
冀州	-11.4472
縦	-11.4473
匆匆	-11.4476
聞見	-11.4476
跖	-11.4476
薜荔	-11.4476
請君	-11.4479
羅綺	-11.4481
經筵	-11.4481
坐中	-11.4482
春秋之	-11.4482
風氣	-11.4484
當路	-11.4486
臼	-11.4486
莫大於	-11.4487
公卿大夫	-11.4487
七欽定四庫全書	-11.4487
歉	-11.4489
華隂	-11.4489
已上	-11.4489
為心	-11.449
好音	-11.449
之族	-11.4492
始有	-11.4492
於東	-11.4492
上聞	-11.4493
城池	-11.4495
曹操	-11.4496
虞舜	-11.4496
賢而	-11.4497
嵇	-11.4497
以全	-11.4497
於齊	-11.4498
著述	-11.4498
豈止	-11.4499
天然	-11.4499
取於	-11.4501
庠序	-11.4502
煙水	-11.4502
中軍	-11.4504
人稀	-11.4505
天山	-11.4506
琯	-11.451
不敏	-11.451
玉盤	-11.451
黎庶	-11.4511
安居	-11.4512
祀之	-11.4513
物以	-11.4513
鄉國	-11.4513
攻之	-11.4513
躋攀	-11.4514
節物	-11.4514
生者	-11.4516
流血	-11.4519
敬之	-11.4519
天下有	-11.4519
聞有	-11.4521
人共	-11.4524
蛻	-11.4526
奏事	-11.4526
乎今	-11.4527
者常	-11.4527
懷抱	-11.4529
西歸	-11.4529
踣	-11.4529
字文	-11.453
窮愁	-11.453
休明	-11.453
陳公	-11.453
寂無	-11.4533
郝	-11.4534
昱	-11.4535
歌辭	-11.4536
作樂	-11.4538
可行	-11.4538
列聖	-11.4538
金人	-11.4539
御製	-11.4539
云何	-11.4541
童謡	-11.4541
孰云	-11.4542
乆之	-11.4542
凌波	-11.4542
十二欽定四庫全書	-11.4543
勸農	-11.4545
橋邊	-11.4545
吾身	-11.4545
擣	-11.4545
相訪	-11.4547
三品	-11.4548
郊原	-11.4549
勣	-11.455
峴	-11.455
閃	-11.4551
無厭	-11.4551
褚	-11.4552
炷	-11.4553
黄州	-11.4553
哈	-11.4554
爪牙	-11.4554
肅宗	-11.4554
榴	-11.4555
徳宗	-11.4556
王府	-11.4556
會稽	-11.4557
為害	-11.4558
論功	-11.4558
别駕	-11.4559
上頭	-11.4559
能無	-11.4562
宫商	-11.4562
楊公	-11.4563
河源	-11.4563
歸山	-11.4565
忘情	-11.4567
躓	-11.4569
安之	-11.4569
人或	-11.4571
奐	-11.4571
爵禄	-11.4571
百靈	-11.4571
蕭散	-11.4572
隔岸	-11.4573
入城	-11.4573
簫韶	-11.4573
自喜	-11.4573
不常	-11.4573
西川	-11.4574
意者	-11.4575
莫向	-11.4578
不盈	-11.4581
焉者	-11.4581
去後	-11.4582
㕓	-11.4583
松花	-11.4584
訃	-11.4587
不省	-11.4589
滿林	-11.4589
魯國	-11.4589
緋	-11.459
孝悌	-11.4591
罾	-11.4591
曰王	-11.4591
箜篌	-11.4591
乃復	-11.4592
岳陽	-11.4596
水經注	-11.4596
神道	-11.4597
亳	-11.4597
宣公	-11.4598
春盡	-11.4598
不隨	-11.46
列國	-11.4602
分為	-11.4604
盾	-11.4605
蒼山	-11.4606
擺	-11.4606
埒	-11.4607
玦	-11.4607
武庫	-11.4607
毀	-11.4608
彘	-11.4611
俯視	-11.4611
峥嶸	-11.4611
擬古	-11.4612
定知	-11.4612
獨孤	-11.4616
行矣	-11.4617
權衡	-11.4617
釣船	-11.4619
嗟嗟	-11.462
之足	-11.4621
秦皇	-11.4622
遺恨	-11.4624
恭儉	-11.4626
豈為	-11.4626
沆瀣	-11.4627
莫非	-11.4628
我思	-11.4629
茍有	-11.4629
待月	-11.463
以居	-11.463
六軍	-11.4631
及第	-11.4636
如畫	-11.4636
中朝	-11.4637
成康	-11.4637
凡所	-11.4639
聞説	-11.464
云是	-11.4641
予嘗	-11.4642
可無	-11.4642
春華	-11.4643
即以	-11.4643
混沌	-11.4643
颷	-11.4645
其失	-11.4645
則民	-11.4647
抒	-11.4647
纛	-11.4648
淋	-11.4648
霜風	-11.4648
能令	-11.465
未安	-11.465
矯首	-11.465
盈尺	-11.4652
嵗晚	-11.4652
大如	-11.4654
儕	-11.4654
無垠	-11.4654
亦多	-11.4656
且曰	-11.4658
天錫	-11.466
穽	-11.4661
曽孫	-11.4662
識之	-11.4662
金殿	-11.4663
搢紳	-11.4663
登第	-11.4668
勉之	-11.4669
妒	-11.4669
敢以	-11.467
千齡	-11.4671
道義	-11.4673
其兄	-11.4673
客舍	-11.4674
閒人	-11.4674
不患	-11.4674
萬籟	-11.4674
循環	-11.4674
昆明	-11.4675
濂	-11.4676
哉今	-11.4676
於彼	-11.4677
而不見	-11.4677
豈謂	-11.4678
蹤跡	-11.4678
不知何	-11.4679
之死	-11.468
看雲	-11.4681
君諱	-11.4682
晚風	-11.4682
維舟	-11.4683
餒	-11.4683
者當	-11.4683
茁	-11.4684
甓	-11.4684
亦既	-11.4685
不喜	-11.4685
窮巷	-11.4686
瑯琊	-11.4686
鯤	-11.4687
也葢	-11.4689
日觀	-11.469
遲暮	-11.469
為世	-11.4691
吾鄉	-11.4691
山北	-11.4697
逺公	-11.4697
孤帆	-11.4701
之室	-11.4701
雲母	-11.4701
卧龍	-11.4703
殺身	-11.4704
蘖	-11.4704
早發	-11.4704
廣平	-11.4706
客行	-11.4709
呼吸	-11.471
無補	-11.4711
朱輪	-11.4711
貌也	-11.4712
與同	-11.4712
風送	-11.4714
其為人	-11.4715
藏書	-11.4716
鴈門	-11.4717
小吏	-11.4718
舜禹	-11.4718
千騎	-11.4718
予曰	-11.4718
學術	-11.4719
因時	-11.4719
伐木	-11.4721
金波	-11.4722
丁寧	-11.4723
少保	-11.4725
光禄大夫	-11.4725
樽前	-11.4727
笑我	-11.4727
小雅	-11.4728
川原	-11.4729
吳門	-11.4729
得名	-11.473
伏羲	-11.473
乃至	-11.473
孰知	-11.473
問津	-11.4732
金鞍	-11.4732
宣州	-11.4734
駞	-11.4735
萬夀	-11.4735
而居	-11.4736
為法	-11.4737
公議	-11.4737
緑苔	-11.4738
酲	-11.4741
鶯聲	-11.4742
盛也	-11.4742
南朝	-11.4742
豺虎	-11.4743
差池	-11.4743
許由	-11.4744
樓中	-11.4744
最為	-11.4745
之選	-11.4747
余嘗	-11.4748
鐘磬	-11.4749
小橋	-11.475
其要	-11.4753
伏波	-11.4753
臣某	-11.4755
動静	-11.4758
十丈	-11.476
入于	-11.476
賢不肖	-11.4762
橙	-11.4762
斜暉	-11.4762
閬	-11.4762
沙鷗	-11.4764
為學	-11.4766
杖屨	-11.4767
朅來	-11.4768
簫鼓	-11.4769
陵谷	-11.4769
子思	-11.477
故居	-11.4771
得無	-11.4771
善曰言	-11.4772
先賢	-11.4772
軍士	-11.4772
逺望	-11.4772
軍國	-11.4773
唐宋	-11.4774
張九齡	-11.4775
念此	-11.4776
伶	-11.4776
豈不以	-11.4777
峴山	-11.4778
自生	-11.4778
之稱	-11.478
宿昔	-11.4781
皇子	-11.4783
暘	-11.4784
客思	-11.4784
猶恐	-11.4785
大行	-11.4785
誠能	-11.4785
阪	-11.4787
山青	-11.4787
不嫌	-11.4788
是嵗	-11.4789
青冥	-11.479
成章	-11.4791
逺行	-11.4792
昔我	-11.4792
何獨	-11.4793
方伯	-11.4795
感時	-11.4796
同姓	-11.4798
永安	-11.4799
敢言	-11.48
各一	-11.4801
易水	-11.4802
互相	-11.4804
恩深	-11.4807
無消息	-11.4807
涕泣	-11.4807
異人	-11.4808
二本	-11.481
天監	-11.481
史臣	-11.4812
衆星	-11.4812
先覺	-11.4813
伊何	-11.4816
江行	-11.4817
紫陽	-11.4817
時則	-11.4819
鄉心	-11.4819
謳歌	-11.482
之殊	-11.482
顗	-11.4821
醮	-11.4822
扶疎	-11.4823
璿	-11.4825
石磴	-11.4826
乃在	-11.4828
盡是	-11.4831
于家	-11.4831
用力	-11.4831
隱隱	-11.4833
九族	-11.4834
以立	-11.4835
黄菊	-11.4836
王氣	-11.4842
金莖	-11.4842
與李	-11.4844
有美	-11.4846
林寺	-11.4846
垂拱	-11.4847
𢎞農	-11.4847
而靡	-11.4848
友生	-11.4848
立於	-11.4849
為陛下	-11.485
門巷	-11.4851
搔	-11.4852
所難	-11.4853
聲聞	-11.4854
雙燕	-11.4854
維摩	-11.4855
嘗謂	-11.4855
于兹	-11.4857
建業	-11.4857
物而	-11.4857
焉知	-11.4859
纊	-11.4859
此數	-11.486
卧病	-11.486
魯公	-11.4861
北上	-11.4861
弗能	-11.4862
採桑	-11.4864
臨海	-11.4864
人莫	-11.4865
責之	-11.4865
夾道	-11.4866
溝壑	-11.4867
酤	-11.4867
十四欽定四庫全書	-11.4867
離情	-11.4868
之規	-11.4868
梁元帝	-11.4869
夜夢	-11.4871
招隠	-11.4871
結交	-11.4872
莫教	-11.4873
竪	-11.4876
送劉	-11.4878
青嶂	-11.4878
之墓	-11.488
君以	-11.4881
無與	-11.4883
荃	-11.4884
日下	-11.4886
逢君	-11.4887
東野	-11.4888
郡城	-11.4889
長慶	-11.4889
馬首	-11.489
松雪	-11.4891
夫人之	-11.4893
于朝	-11.4894
盤石	-11.4894
胡笳	-11.4895
罪人	-11.4895
年八十	-11.4896
尚書郎	-11.4896
次之	-11.4897
未遑	-11.4897
粮	-11.4898
品物	-11.49
離憂	-11.4901
和樂	-11.4902
然以	-11.4903
陋巷	-11.4903
令名	-11.4905
於西	-11.4906
三家	-11.4907
病起	-11.4908
雒	-11.4911
臯陶	-11.4911
惟我	-11.4912
翠屏	-11.4912
蓮葉	-11.4912
孫男	-11.4913
苔蘚	-11.4914
城北	-11.492
丘陵	-11.4921
内有	-11.4922
韓公	-11.4922
瀚海	-11.4923
小景	-11.4923
堂下	-11.4924
民無	-11.4925
因風	-11.4927
成就	-11.4927
瞑	-11.4929
梁園	-11.4929
矣且	-11.4932
大厦	-11.4932
渡口	-11.4932
安足	-11.4932
滁	-11.4933
秋風吹	-11.4933
拄	-11.4933
齊梁	-11.4935
壯心	-11.4935
於理	-11.4937
䂓	-11.4937
雙鬢	-11.4937
粲然	-11.4937
離居	-11.4938
曉風	-11.4938
嘻	-11.494
而安	-11.494
沁	-11.494
文徳	-11.4941
其難	-11.4942
留意	-11.4943
其俗	-11.4943
臨事	-11.4943
掩映	-11.4946
亦宜	-11.4946
朞	-11.4947
㑹昌	-11.4947
蠢	-11.4947
討論	-11.4948
轉運	-11.495
鄭𤣥曰	-11.495
君侯	-11.495
郡齋	-11.4951
於文	-11.4953
皎然	-11.4953
成名	-11.4954
窒	-11.4955
潢	-11.4956
曷為	-11.4956
迓	-11.4956
詬	-11.4957
奉和聖製	-11.4958
清氣	-11.4958
不極	-11.496
乎且	-11.4963
然有	-11.4964
周孔	-11.4964
禇	-11.4965
謝靈運詩	-11.4966
達於	-11.4966
無生	-11.4968
已無	-11.497
延陵	-11.497
松間	-11.4971
年豐	-11.4972
藏於	-11.4973
見説	-11.4975
青州	-11.4975
煜	-11.4977
周南	-11.4977
所取	-11.4977
立法	-11.4978
大畧	-11.4978
我昔	-11.498
自兹	-11.498
春城	-11.498
何故	-11.4982
南有	-11.4984
李廣	-11.4984
相視	-11.4985
黄庭堅	-11.4985
直學士	-11.499
熒熒	-11.4991
詩家	-11.4993
好山	-11.4993
臺榭	-11.4993
直以	-11.4993
雩	-11.4995
相迎	-11.4996
賜之	-11.4998
出郭	-11.4999
藿	-11.4999
洛城	-11.5
螻蟻	-11.5
初日	-11.5
閹	-11.5
處之	-11.5002
佗	-11.5002
迄今	-11.5003
望望	-11.5004
理也	-11.5004
也必	-11.5006
相催	-11.5009
追隨	-11.5011
是亦	-11.5013
瑛	-11.5013
諸國	-11.5014
渟	-11.5014
下民	-11.5015
煒	-11.5015
哂	-11.5016
沐浴	-11.5016
之微	-11.5017
畊	-11.5017
蜩	-11.5017
未始	-11.5018
明滅	-11.5018
平時	-11.5018
相逐	-11.5018
疎林	-11.5019
翰林院	-11.5019
春去	-11.502
忠厚	-11.5022
無幾	-11.5022
然皆	-11.5023
以治	-11.5023
言於	-11.5023
傷春	-11.5024
神宗	-11.5024
第十	-11.5024
不可知	-11.5024
山翁	-11.5025
五欽定四庫全書	-11.5025
亦是	-11.5025
府庫	-11.5025
列子	-11.5026
上皇	-11.5026
十九欽定四庫全書	-11.5026
萬機	-11.5027
除夜	-11.503
而治	-11.5032
懈	-11.5034
心如	-11.5034
其數	-11.5034
勝事	-11.5036
小雨	-11.5037
𣙜	-11.5037
行吟	-11.5037
如飛	-11.5037
棹歌	-11.5037
巖巖	-11.5039
不回	-11.504
世子	-11.5041
汾陽	-11.5042
不甚	-11.5042
畫像	-11.5043
庚子	-11.5043
今世	-11.5044
曉月	-11.5046
大賢	-11.5046
性之	-11.5046
從風	-11.5046
櫟	-11.5046
四山	-11.5047
社稷之	-11.5048
客裏	-11.5049
濆	-11.5049
下山	-11.5051
出身	-11.5051
部郎中	-11.5053
有知	-11.5054
鳯翔	-11.5055
湖邊	-11.5056
絲綸	-11.5056
名者	-11.5058
汲黯	-11.5059
隷	-11.5059
論語曰	-11.506
斌	-11.5061
主意	-11.5063
江浙	-11.5064
金粟	-11.5068
眼看	-11.5069
涘	-11.507
手中	-11.507
平章事	-11.5072
律吕	-11.5072
今又	-11.5074
察之	-11.5074
三才	-11.5075
折腰	-11.5075
正言	-11.5077
進賢	-11.5077
深淺	-11.5078
弱水	-11.5078
喫	-11.5078
娟	-11.5078
老來	-11.5079
清凉	-11.5079
之所由	-11.5079
嗷嗷	-11.508
隤	-11.508
斯須	-11.5081
兩京	-11.5081
𥙷	-11.5082
八方	-11.5082
五臣作	-11.5084
清涼	-11.5085
世孫	-11.5086
部曲	-11.5087
不備	-11.5087
趙公	-11.5089
也况	-11.509
自在	-11.509
之至也	-11.5091
應笑	-11.5091
抱琴	-11.5093
昧死	-11.5093
誰不	-11.5095
菖蒲	-11.5095
宋人	-11.5096
而動	-11.5097
唳	-11.5097
元首	-11.5098
溷	-11.5098
瓚	-11.5099
薊門	-11.5099
裡	-11.51
同異	-11.51
悽愴	-11.51
不達	-11.51
榼	-11.5101
偶題	-11.5102
延夀	-11.5103
後世之	-11.5106
靈山	-11.5106
毁譽	-11.5107
曾不	-11.5107
白楊	-11.5107
歡樂	-11.5107
復以	-11.5109
亭上	-11.511
礫	-11.511
此語	-11.511
餘生	-11.5111
正當	-11.5111
郡中	-11.5112
方壺	-11.5112
而至於	-11.5112
厯數	-11.5112
鳴玉	-11.5114
夜郎	-11.5116
燕王	-11.5116
締	-11.5116
玉笛	-11.5116
裊裊	-11.5116
髠	-11.5117
國用	-11.5117
不流	-11.5119
不經	-11.5119
㸑	-11.512
茅簷	-11.5121
泣血	-11.5121
更深	-11.5122
有是	-11.5123
誠有	-11.5123
之大者	-11.5123
故作	-11.5125
何處是	-11.5128
之歎	-11.5129
三川	-11.513
九首	-11.513
東方朔	-11.5131
不數	-11.5131
兩山	-11.5131
之賜	-11.5133
三皇	-11.5133
震澤	-11.5134
而興	-11.5135
征衣	-11.5136
之側	-11.5137
阿母	-11.5138
筦	-11.5138
雲錦	-11.5139
力行	-11.514
出城	-11.5141
以供	-11.5141
而受	-11.5142
六欽定四庫全書	-11.5142
崇禎	-11.5143
工部尚書	-11.5143
巖穴	-11.5144
登臺	-11.5145
氣清	-11.5146
而樂	-11.5146
征夫	-11.5149
今上	-11.5152
林塘	-11.5153
八尺	-11.5154
年光	-11.5154
舟車	-11.5155
睫	-11.5156
偪	-11.5157
書與	-11.5157
先輩	-11.5158
樹杪	-11.5158
上黨	-11.5159
疎鐘	-11.5159
拳拳	-11.5159
山阿	-11.516
人行	-11.5161
職事	-11.5161
不逢	-11.5161
一國	-11.5161
夜色	-11.5164
國初	-11.5167
兩兩	-11.5167
易為	-11.5169
飛絮	-11.5169
文苑英華巻	-11.517
之宗	-11.5173
罥	-11.5173
至於此	-11.5175
吳山	-11.5177
入蜀	-11.5177
杜若	-11.5178
侍讀	-11.5181
成湯	-11.5182
路人	-11.5182
肌膚	-11.5183
所歸	-11.5183
塗炭	-11.5183
東郭	-11.5185
所向	-11.5189
應無	-11.519
先世	-11.5192
一種	-11.5196
其不可	-11.5196
節制	-11.5196
幾許	-11.5197
張君	-11.5197
加於	-11.5198
里人	-11.5199
璉	-11.5199
所司	-11.52
裛	-11.52
清景	-11.5201
庚辰	-11.5202
今以	-11.5204
夢覺	-11.5204
人謂	-11.5204
之貌	-11.5206
安所	-11.5206
浮丘	-11.5207
浙西	-11.5208
陶潛詩	-11.5209
朕甚	-11.5211
周王	-11.5211
逢迎	-11.5212
上清	-11.5212
關河	-11.5212
溪邊	-11.5213
重於	-11.5214
余以	-11.5214
閼	-11.5215
宫女	-11.5217
高下	-11.5217
緹	-11.5218
倚樓	-11.5221
徒勞	-11.5221
秋露	-11.5222
含笑	-11.5222
曽無	-11.5222
鼓舞	-11.5223
天津	-11.5224
落梅	-11.5225
而彌	-11.5228
既有	-11.5229
長久	-11.5229
猶得	-11.523
自來	-11.523
北堂	-11.5232
劄子	-11.5232
萬仞	-11.5234
新城	-11.5234
薰風	-11.5236
睥睨	-11.5236
樹下	-11.5237
難知	-11.524
廣寒	-11.5241
始至	-11.5242
所親	-11.5242
進取	-11.5243
多故	-11.5244
纎纎	-11.5245
京國	-11.5246
作此	-11.5247
喜見	-11.5247
區區之	-11.5248
且復	-11.5248
莘	-11.5249
三嵗	-11.525
未解	-11.5252
禹貢	-11.5252
五等	-11.5253
殘春	-11.5254
之災	-11.5255
荆楚	-11.5256
一尊	-11.5258
鑽	-11.5258
雲散	-11.526
逢春	-11.5261
亦皆	-11.5262
于世	-11.5263
窮通	-11.5264
君今	-11.5264
發揮	-11.5265
幽深	-11.5265
仕至	-11.5266
楓林	-11.5266
勺	-11.5267
是皆	-11.5267
之厚	-11.5267
萬厯	-11.5268
七八	-11.5269
田疇	-11.5269
文雅	-11.5271
如此而	-11.5273
瞻望	-11.5274
此别	-11.5278
夷猶	-11.5279
玉燭	-11.5279
丁丑	-11.5281
天路	-11.5281
寓居	-11.5285
隍	-11.5287
城邑	-11.5287
馳騖	-11.5287
後主	-11.529
六宫	-11.5291
事親	-11.5291
來儀	-11.5291
曰天子	-11.5291
言則	-11.5292
都官	-11.5293
固宜	-11.5293
舊日	-11.5294
幽鳥	-11.5295
之戒	-11.5297
天漢	-11.5298
紏	-11.5298
杜預	-11.5299
楚水	-11.5301
荆軻	-11.5302
鵾	-11.5302
鴟夷	-11.5302
礎	-11.5302
余曰	-11.5302
非復	-11.5303
十有八	-11.5304
黎元	-11.5304
丙辰	-11.5304
聖代	-11.5305
故吏	-11.5307
樓頭	-11.5308
蟬聲	-11.5311
公獨	-11.5311
門開	-11.5312
巖壑	-11.5312
志於	-11.5314
酌酒	-11.5317
廨	-11.5318
紛然	-11.5318
也惟	-11.5321
於義	-11.5321
閩中	-11.5321
自覺	-11.5322
而名	-11.5323
僖公	-11.5324
問訊	-11.5329
中路	-11.5329
鄭玄曰	-11.533
祺	-11.533
張儀	-11.533
吾友	-11.5331
曠野	-11.5332
乙未	-11.5335
所出	-11.5336
孟浩然	-11.5338
為臣	-11.5339
不務	-11.5341
冕旒	-11.5341
义	-11.5342
則天	-11.5346
特進	-11.5347
鼈	-11.5348
海中	-11.5348
下至	-11.5349
片言	-11.535
史氏	-11.535
㡬何	-11.5351
見君	-11.5353
極浦	-11.5353
都人	-11.5354
二十餘	-11.5354
淇	-11.5355
本紀	-11.5355
皎潔	-11.5356
永夜	-11.5358
泌	-11.5359
塞外	-11.536
掃地	-11.5361
陁	-11.5362
北齊	-11.5362
所與	-11.5364
厎	-11.5365
農事	-11.5366
杜宇	-11.5366
解衣	-11.5369
論詩	-11.537
半是	-11.5372
乃與	-11.5374
利也	-11.5374
其類	-11.5375
經傳	-11.5376
此為	-11.5376
送神	-11.5377
蓴	-11.5383
芝蘭	-11.5383
軍事	-11.5384
碧桃	-11.5384
永平	-11.5384
目送	-11.5387
身輕	-11.5393
於事	-11.5394
時復	-11.5395
三章	-11.5396
高堂	-11.5398
棄捐	-11.5399
西門	-11.5399
孤竹	-11.54
還似	-11.54
筆力	-11.54
錢唐	-11.5401
黃金	-11.5402
其美	-11.5402
頋	-11.5403
無敵	-11.5403
連珠	-11.5404
二十九	-11.5406
者邪	-11.5406
民有	-11.5407
責其	-11.5408
勲業	-11.541
精微	-11.5412
雨歇	-11.5414
廣東	-11.5415
石牀	-11.5415
比之	-11.5418
懼其	-11.5419
甲申	-11.5421
酈	-11.5422
可考	-11.5424
與諸	-11.5425
灝	-11.5426
其舊	-11.5426
民以	-11.5427
比干	-11.5427
其誰	-11.5427
疊嶂	-11.5429
郡公	-11.5429
濓	-11.5432
安於	-11.5434
秦始皇	-11.5436
大澤	-11.5437
曰若	-11.5438
者若	-11.5438
其衆	-11.5439
水光	-11.5439
去住	-11.544
晨起	-11.5441
仰觀	-11.5441
仙山	-11.5441
三辰	-11.5442
翕然	-11.5443
政教	-11.5444
水西	-11.5445
戌	-11.5445
道上	-11.5445
蘭蕙	-11.5446
羇旅	-11.5447
槿	-11.5447
待罪	-11.5447
寰宇	-11.5448
栁條	-11.5448
寒煙	-11.5448
榮枯	-11.5448
當代	-11.5448
疑其	-11.5449
者宜	-11.5449
不敢以	-11.5451
親見	-11.5451
在朝	-11.5453
四曰	-11.5454
同善注	-11.5456
雪夜	-11.5456
呉越	-11.5456
寒日	-11.5457
迎春	-11.5457
司馬光	-11.5457
聖哲	-11.5458
淑氣	-11.5459
今欲	-11.546
青霄	-11.5461
璣	-11.5462
醢	-11.5464
𠖇	-11.5464
不可謂	-11.5464
二十餘年	-11.5464
南都	-11.5465
婺源	-11.5465
萬井	-11.5465
與道	-11.5466
鹿鳴	-11.5466
天與	-11.5466
撐	-11.5467
常熟	-11.5467
紇	-11.5469
君去	-11.547
婦女	-11.5471
者即	-11.5471
女蘿	-11.5472
問君	-11.5474
薤	-11.5474
之陽	-11.5474
敢忘	-11.5475
俎豆	-11.5475
桑田	-11.5475
尤甚	-11.5476
不茍	-11.5476
淮南王	-11.5477
伏願	-11.5479
西州	-11.548
九折	-11.5482
賢能	-11.5484
始覺	-11.5485
器也	-11.5486
趍	-11.5487
邑之	-11.5487
以法	-11.5487
菩提	-11.5488
吉日	-11.549
念我	-11.549
瑟瑟	-11.5491
别時	-11.5491
洛下	-11.5492
清塵	-11.5492
雍州	-11.5492
比肩	-11.5492
影響	-11.5496
與民	-11.5496
欲與	-11.5496
財用	-11.5496
非特	-11.5497
中大夫	-11.5498
詩賦	-11.5499
安有	-11.5502
鮫人	-11.5502
荒凉	-11.5503
琅	-11.5504
建康	-11.5506
彀	-11.5507
人不見	-11.5507
曬	-11.5508
無量	-11.5508
當為	-11.5509
無俗	-11.5509
謹按	-11.5509
世故	-11.5509
照臨	-11.551
洙泗	-11.551
嘔	-11.5511
低頭	-11.5513
不足為	-11.5513
動而	-11.5513
出知	-11.5514
烈烈	-11.5514
厚薄	-11.5514
慈母	-11.5518
最髙	-11.5519
畫馬	-11.552
衰草	-11.5522
勝負	-11.5523
宗之	-11.5524
漢帝	-11.5524
仲淹	-11.5525
兒孫	-11.5525
之攸	-11.5525
如一	-11.5525
殺其	-11.5525
春陽	-11.5526
鏘鏘	-11.5527
曆	-11.5528
兩地	-11.5529
罏	-11.5529
創業	-11.5529
莫作	-11.553
離披	-11.5531
入為	-11.5531
何從	-11.5532
義士	-11.5533
無計	-11.5534
北史	-11.5534
草莽	-11.5537
身為	-11.5539
翠袖	-11.5542
毛羽	-11.5543
交趾	-11.5543
雖非	-11.5545
者可以	-11.5545
乗輿	-11.5546
所恃	-11.5549
不載	-11.5549
子為	-11.555
褰裳	-11.5551
耨	-11.5552
輦路	-11.5553
以勸	-11.5553
狙	-11.5553
我后	-11.5553
埃塵	-11.5553
冰雪	-11.5554
淤	-11.5555
屈指	-11.5555
不停	-11.5556
慟哭	-11.5557
心於	-11.5558
武子	-11.5559
不殺	-11.5561
君行	-11.5561
而西	-11.5562
之所能	-11.5564
簡書	-11.5565
已覺	-11.5565
奄有	-11.5566
遣人	-11.5567
呼兒	-11.5567
太康	-11.5567
池中	-11.5569
去時	-11.5569
太常博士	-11.557
鉗	-11.5572
夜歸	-11.5574
今復	-11.5574
開封	-11.5574
作歌	-11.5575
英靈	-11.5575
釋氏	-11.5577
十巻	-11.5578
無已	-11.558
歡娛	-11.558
有限	-11.5581
平津	-11.5582
賢臣	-11.5582
餘姚黄宗羲編	-11.5585
坐見	-11.5585
眼明	-11.5588
馘	-11.5588
墊	-11.5589
後學	-11.5589
閒暇	-11.5589
稱為	-11.5589
柵	-11.5591
百蠻	-11.5592
吕氏	-11.5593
田野	-11.5594
終南山	-11.5596
七國	-11.5596
送陳	-11.5598
盡忠	-11.5599
伊人	-11.5599
我聞	-11.56
九秋	-11.56
與誰	-11.56
莫辭	-11.5601
前古	-11.5602
華堂	-11.5604
滔	-11.5605
亦難	-11.5605
爲人	-11.5606
孝弟	-11.5608
剡溪	-11.5612
已過	-11.5612
勦	-11.5612
楯	-11.5614
一樽	-11.5614
果有	-11.5614
毛萇曰	-11.5614
惜乎	-11.5614
向日	-11.5617
以遺	-11.5618
臣恐	-11.5623
𤣥黄	-11.5624
明也	-11.5626
甲午	-11.5627
既至	-11.5627
情性	-11.5628
十有四	-11.5628
龍沙	-11.5629
水濵	-11.5629
求諸	-11.563
也若夫	-11.563
孟郊	-11.563
馮夷	-11.563
襪	-11.563
地理	-11.5631
洞門	-11.5634
不因	-11.5634
山間	-11.5634
捲簾	-11.5638
此所以	-11.564
今兹	-11.564
行則	-11.5642
大河	-11.5643
中行	-11.5644
轅門	-11.5644
青城	-11.5644
載籍	-11.5648
所存	-11.5648
但聞	-11.5652
惟此	-11.5652
松桂	-11.5653
望鄉	-11.5653
以名	-11.5653
獻之	-11.5654
澣	-11.5655
啾啾	-11.5655
朕以	-11.5656
公乃	-11.5656
逺岫	-11.5657
居官	-11.5658
騶虞	-11.5659
水東流	-11.5659
一門	-11.566
不難	-11.566
文曰	-11.566
事皆	-11.566
華夷	-11.566
耿介	-11.5661
前王	-11.5662
今見	-11.5664
羽檄	-11.5666
之珍	-11.5666
直到	-11.5667
烘	-11.5672
千巖	-11.5673
春臺	-11.5674
順時	-11.5676
拂拭	-11.5677
知幾	-11.5678
習習	-11.5679
吾知	-11.5682
朝士	-11.5683
知公	-11.5684
詩巻	-11.5685
山石	-11.5687
望雲	-11.5688
棄置	-11.5688
不可及	-11.569
照影	-11.5691
㸃㸃	-11.5691
教諭	-11.5691
坐久	-11.5692
而待	-11.5694
自許	-11.5694
錯落	-11.5696
韵	-11.5696
亂後	-11.5696
臞	-11.5697
鏗鏘	-11.5697
無忌	-11.5698
賴有	-11.5699
吾民	-11.5703
有加	-11.5704
川上	-11.5705
蘇頲	-11.5705
凡有	-11.571
復古	-11.571
孟嘗君	-11.5711
一統	-11.5712
䧏	-11.5713
池館	-11.5714
周文	-11.5714
起家	-11.5714
比屋	-11.5715
有虞	-11.5716
癯	-11.5717
絆	-11.5717
為先	-11.5718
見月	-11.5719
不救	-11.572
叔向	-11.572
語言	-11.5722
池臺	-11.5722
經世	-11.5725
玉露	-11.5726
筯	-11.5727
青瑣	-11.5728
提刑	-11.5728
王褒	-11.5728
穰	-11.5729
出則	-11.573
天之所	-11.5731
清白	-11.5732
一燈	-11.5732
客衣	-11.5732
勝地	-11.5733
方舟	-11.5733
側身	-11.5734
過也	-11.5734
遺老	-11.5736
日色	-11.5737
石倉歴代詩選巻	-11.5738
居處	-11.5738
憶昨	-11.5738
碌碌	-11.574
般若	-11.574
功曹	-11.574
以傳	-11.574
方將	-11.5741
窮途	-11.5742
不雨	-11.5743
羣峰	-11.5744
章臺	-11.5745
必將	-11.5746
潤州	-11.5746
六尺	-11.5748
嘆息	-11.5748
師古	-11.5751
流霞	-11.5751
行處	-11.5751
舉手	-11.5752
都御史	-11.5753
髙枕	-11.5753
其首	-11.5755
能不	-11.5756
所感	-11.5756
宿衛	-11.5757
諸州	-11.5757
三秦	-11.5757
之耳	-11.5758
迴首	-11.5759
迤邐	-11.5759
宋公	-11.5761
淬	-11.5761
謟	-11.5761
竊聞	-11.5762
丹心	-11.5762
孫氏	-11.5762
億萬	-11.5763
生計	-11.5764
瓘	-11.5764
數家	-11.5766
涇渭	-11.5766
櫻	-11.5767
相宜	-11.5768
武皇	-11.5771
韋應物	-11.5775
老杜	-11.5775
而我	-11.5778
顥	-11.5779
苐	-11.5779
豈如	-11.5779
肻	-11.5782
官屬	-11.5782
撾	-11.5783
此字	-11.5783
春遊	-11.5784
蛺蝶	-11.5784
則吾	-11.5785
恨無	-11.5786
鄒魯	-11.5786
流星	-11.5787
北風吹	-11.5787
同中書門下平章事	-11.5788
聖神	-11.579
勝之	-11.579
感動	-11.5791
轉蓬	-11.5793
肱	-11.5795
曾祖	-11.5797
敢告	-11.5799
以和	-11.58
不失其	-11.5801
知命	-11.5801
交錯	-11.5801
剗	-11.5802
鳧	-11.5804
袵	-11.5805
荑	-11.5805
科舉	-11.5806
指顧	-11.5806
之感	-11.5807
詩名	-11.5807
二十日	-11.5807
僧房	-11.5807
寒花	-11.5807
龍圖	-11.5809
君山	-11.581
況復	-11.5811
少有	-11.5811
舞衣	-11.5811
用而	-11.5811
披圖	-11.5812
矣吾	-11.5812
通於	-11.5813
顧影	-11.5814
賢士	-11.5814
人寰	-11.5814
廟碑	-11.5815
萬金	-11.5816
八欽定四庫全書	-11.5816
雨濕	-11.5817
與物	-11.5818
居民	-11.5819
不虚	-11.5819
莫知其	-11.582
周道	-11.5822
齊桓	-11.5822
經云	-11.5822
至德	-11.5823
之黨	-11.5825
沬	-11.5825
之序	-11.5825
月初	-11.5827
江聲	-11.5827
生成	-11.5829
蚩尤	-11.5829
髀	-11.5829
澄江	-11.583
莭	-11.5831
术	-11.5831
與衆	-11.5832
南嶽	-11.5832
道術	-11.5833
晨興	-11.5833
雲際	-11.5834
祠堂	-11.5835
凡三	-11.5835
玉人	-11.5835
往復	-11.5836
曲池	-11.5837
誰見	-11.5837
江干	-11.5838
雲歸	-11.5842
為郡	-11.5842
諸郡	-11.5844
我則	-11.5845
約束	-11.5846
晏然	-11.5848
列傳	-11.5848
皆非	-11.5848
八駿	-11.5848
亦嘗	-11.5848
已知	-11.5849
不得而	-11.585
荏苒	-11.585
纉	-11.585
嘿	-11.5853
畫屏	-11.5854
也亦	-11.5855
江中	-11.5856
京都	-11.5856
披衣	-11.5857
乾元	-11.5858
諸山	-11.5861
不乏	-11.5863
不讓	-11.5863
無邊	-11.5863
留得	-11.5863
撮	-11.5866
薑	-11.5866
如其	-11.5866
鐺	-11.5867
閴	-11.5868
値	-11.5868
酪	-11.5871
昔之	-11.5871
一杯酒	-11.5873
何况	-11.5873
四海之	-11.5873
蔗	-11.5874
不中	-11.5874
名之曰	-11.5875
清音	-11.5875
猿鶴	-11.5876
羽衣	-11.5876
死亡	-11.5876
一丘	-11.5877
飢寒	-11.5877
長安道	-11.5878
大成	-11.5878
循吏	-11.5879
湛湛	-11.5879
馬頭	-11.5879
憂勤	-11.5879
世傳	-11.5881
郡太守	-11.5881
無取	-11.5882
分手	-11.5883
心與	-11.5884
古體詩	-11.5885
武安	-11.5886
數百年	-11.5886
孝亷	-11.5887
須知	-11.5888
范陽	-11.5888
韭	-11.5888
數十人	-11.5888
誑	-11.589
掃除	-11.589
榱	-11.5891
則可以	-11.5892
有力	-11.5894
西去	-11.5894
裨	-11.5894
嚴陵	-11.5894
巡撫	-11.5899
天下之至	-11.5899
諸葛亮	-11.59
㑹合	-11.59
淮水	-11.59
丘山	-11.5901
之什	-11.5903
兖州	-11.5903
飛雨	-11.5905
扶持	-11.5908
墩	-11.5908
江雲	-11.5908
諸孫	-11.5908
指㸃	-11.5909
嘗有	-11.5909
幽禽	-11.591
經義	-11.5911
辠	-11.5912
龍興	-11.5912
憊	-11.5912
寒流	-11.5916
夜分	-11.5917
於穆	-11.5917
判一道	-11.5917
京兆尹	-11.5917
雨來	-11.5917
亦可以	-11.5918
南軒	-11.5918
成周	-11.5919
餘慶	-11.5921
縣丞	-11.5922
周行	-11.5922
進而	-11.5923
逸人	-11.5923
伯牙	-11.5926
凌風	-11.5929
來自	-11.593
固當	-11.5931
大學士	-11.5933
壬戌	-11.5933
千叟	-11.5934
不渝	-11.5934
付之	-11.5934
公既	-11.5934
難再	-11.5936
花紅	-11.5936
宋書	-11.5938
與客	-11.5938
狼籍	-11.5939
山翠	-11.594
故雖	-11.5941
呉興	-11.5941
媛	-11.5941
後之人	-11.5942
寒氣	-11.5944
老農	-11.5945
邦之	-11.5946
歸未得	-11.5946
典籍	-11.5947
王家	-11.5947
諸友	-11.595
在西	-11.595
越州	-11.5951
杜預曰	-11.5951
無賴	-11.5951
無辜	-11.5952
則人	-11.5953
不能為	-11.5953
棼	-11.5955
少留	-11.5955
在目	-11.5955
聲教	-11.5955
淛	-11.5956
九鼎	-11.5957
帚	-11.5957
起坐	-11.5958
負薪	-11.5958
莾	-11.5961
年四月	-11.5963
五嶺	-11.5963
地方	-11.5964
中書侍郎	-11.5964
百事	-11.5965
不給	-11.5965
我以	-11.5965
從者	-11.5967
七言律	-11.5974
層層	-11.5975
寺丞	-11.5976
埜	-11.5976
墓誌	-11.5977
獻公	-11.5977
山頂	-11.5977
咀	-11.5977
陶唐	-11.5977
蓬莱	-11.5977
謁者	-11.5978
吏部侍郎	-11.5979
淒淒	-11.598
勞而	-11.5982
帝京	-11.5983
可奈何	-11.5983
利之	-11.5983
歸鳥	-11.5984
就中	-11.5985
治民	-11.5985
長於	-11.5985
堯之	-11.5985
初開	-11.5987
初夏	-11.5987
風度	-11.5988
欲令	-11.599
金沙	-11.5992
年五十	-11.5992
兵戈	-11.5993
未明	-11.5994
有時而	-11.5994
廣文	-11.5994
采采	-11.5995
林麓	-11.5995
以廣	-11.5997
撑	-11.5997
黼黻	-11.5998
踊	-11.5998
鄉閭	-11.5999
陵夷	-11.6
在眼	-11.6
五世	-11.6
蘼蕪	-11.6001
沍	-11.6001
大海	-11.6001
有味	-11.6002
為文章	-11.6002
諸夏	-11.6003
三台	-11.6003
訓導	-11.6004
種竹	-11.6004
四川	-11.6007
伯樂	-11.6008
天長	-11.6008
最後	-11.6009
芝草	-11.6011
羽觴	-11.6012
行於	-11.6012
鷹揚	-11.6014
之哉	-11.6015
舊宅	-11.6017
洛中	-11.6019
列仙	-11.602
𦂳	-11.602
笄	-11.602
深夜	-11.6022
兮若	-11.6024
湊	-11.6024
我愛	-11.6026
温泉	-11.6027
羅列	-11.6027
成公	-11.6028
宜有	-11.6028
生子	-11.6028
鴻毛	-11.603
櫂歌	-11.6032
節婦	-11.6033
高帝	-11.6034
所重	-11.6034
片帆	-11.6035
上已	-11.6037
信也	-11.6038
流風	-11.6041
或作	-11.6042
王君	-11.6042
桐花	-11.6043
揀	-11.6044
壺中	-11.6044
碧水	-11.6045
閒情	-11.6045
斐	-11.6045
去嵗	-11.6045
禮以	-11.6046
西伯	-11.6046
闚	-11.6047
聖慈	-11.6047
同於	-11.6048
木之	-11.6048
坐令	-11.605
同日	-11.605
范仲淹	-11.605
窮年	-11.605
大用	-11.6053
勿復	-11.6054
唐詩	-11.6055
人材	-11.6055
衰老	-11.6055
明星	-11.6055
松隂	-11.6056
開軒	-11.6056
而發	-11.6057
之隆	-11.6058
颸	-11.606
臣之所	-11.6061
矦	-11.6061
無二	-11.6061
姑射	-11.6062
亦當	-11.6063
泊舟	-11.6065
未全	-11.6066
㡬人	-11.6067
千載之	-11.6067
愚者	-11.6067
鞦韆	-11.6067
古今之	-11.6068
多才	-11.6068
聲音	-11.6068
水國	-11.607
未息	-11.607
陵遲	-11.607
欹枕	-11.607
栁絮	-11.6071
之事也	-11.6071
父母之	-11.6073
日食	-11.6073
南行	-11.6074
之澤	-11.6075
瓉	-11.6075
意在	-11.6076
死也	-11.6077
天降	-11.6077
遊仙	-11.6078
德音	-11.6078
家世	-11.6078
國夫人	-11.6079
委之	-11.608
古松	-11.608
河梁	-11.608
丙子	-11.6081
百寮	-11.6082
數尺	-11.6083
逺水	-11.6083
下流	-11.6083
獨見	-11.6084
相持	-11.6085
橐	-11.6085
安得不	-11.6085
使得	-11.6085
斲	-11.6086
膏澤	-11.6088
泠然	-11.6088
氐	-11.6089
與爾	-11.6089
塞北	-11.609
者不過	-11.6092
至京師	-11.6092
歸于	-11.6092
西都	-11.6096
還山	-11.6096
龍吟	-11.6097
冬十月	-11.6097
焉有	-11.6098
後為	-11.61
得句	-11.6101
固辭	-11.6101
身外	-11.6104
夏后	-11.6105
太𤣥	-11.6105
旬日	-11.6106
仁夀	-11.6108
物無	-11.6108
金閨	-11.6108
陽明	-11.6109
近於	-11.611
喪亂	-11.611
其主	-11.611
公在	-11.611
髙門	-11.611
瑗	-11.6112
納之	-11.6114
斯在	-11.6115
合而	-11.6115
六師	-11.6115
返照	-11.6115
驤	-11.6115
情深	-11.6116
金帛	-11.6117
終當	-11.612
刑法	-11.612
百司	-11.6123
虚心	-11.6124
改為	-11.6124
有國	-11.6125
之間而	-11.6126
懸知	-11.6127
台州	-11.6127
贈君	-11.6128
急於	-11.6129
必得	-11.6131
侯王	-11.6132
寗	-11.6132
車服	-11.6134
黄沙	-11.6135
白苧	-11.6136
馳驅	-11.6136
棃	-11.6137
兢兢	-11.6137
涓涓	-11.6137
由此觀之	-11.6138
簡易	-11.614
徳而	-11.6143
應知	-11.6143
主者	-11.6144
大軍	-11.6145
無害	-11.6145
舊山	-11.6146
風味	-11.6146
師旅	-11.6148
九流	-11.6151
佯	-11.6152
所自	-11.6152
乘興	-11.6153
頡	-11.6154
不然則	-11.6154
鮑照詩	-11.6155
庚戌	-11.6155
相得	-11.6156
莞	-11.6157
髙唐	-11.6157
黄雀	-11.6157
駐馬	-11.6157
庚申	-11.6157
而失	-11.6158
㳟	-11.6158
細細	-11.6159
宇内	-11.616
可勝	-11.6161
英英	-11.6161
粲粲	-11.6162
八紘	-11.6163
陳君	-11.6163
鐃	-11.6163
明德	-11.6164
繩墨	-11.6165
以次	-11.6166
如流	-11.6166
年二月	-11.6167
適意	-11.6168
誰肯	-11.6169
曰不然	-11.6171
及夫	-11.6172
舊典	-11.6174
臣伏	-11.6174
吳人	-11.6175
去留	-11.6176
瓊樹	-11.6177
不重	-11.6177
泥沙	-11.6178
鶯花	-11.6181
莊公	-11.6183
恩波	-11.6187
舊制	-11.6188
字叔	-11.6188
第六	-11.619
石林	-11.6192
平陸	-11.6194
律令	-11.6194
鄰家	-11.6194
北京	-11.6194
齋居	-11.6194
穡	-11.6195
宣室	-11.6196
流芳	-11.6196
虀	-11.6197
不曽	-11.6197
宰臣	-11.6198
靈巖	-11.6198
惨	-11.6198
不殊	-11.6199
無所用	-11.6199
之固	-11.62
晴天	-11.6201
通鑑	-11.6202
魏武	-11.6203
因此	-11.6204
相伴	-11.6205
舊唐書	-11.6206
皥	-11.6207
雲低	-11.6209
掬	-11.621
直欲	-11.6211
左思	-11.6211
將兵	-11.6213
萬餘	-11.6213
天真	-11.6214
休寧	-11.6214
草生	-11.6215
浪花	-11.6216
逢時	-11.6216
之義也	-11.6216
竊見	-11.6218
當户	-11.6219
大宛	-11.622
六代	-11.6223
其末	-11.6223
人能	-11.6223
之累	-11.6223
經歴	-11.6224
州牧	-11.6224
之請	-11.6225
此夕	-11.6225
離思	-11.6226
巻舒	-11.6226
宛然	-11.6227
弇	-11.6227
富人	-11.6228
神祗	-11.6231
不還	-11.6232
清暉	-11.6233
蘇轍	-11.6233
之親	-11.6233
剛柔	-11.6234
在家	-11.6234
知道	-11.6234
魚鼈	-11.6235
虎狼	-11.6235
志氣	-11.6236
雹	-11.6236
寒燈	-11.6237
艘	-11.6237
青眼	-11.6239
崕	-11.624
墓表	-11.6241
鵷	-11.6243
涼州	-11.6244
芮	-11.6244
嵗晏	-11.6245
足為	-11.6245
征西	-11.6245
雲路	-11.6245
環珮	-11.6245
空城	-11.6246
小民	-11.6247
年老	-11.6248
從政	-11.6249
畫角	-11.625
乃使	-11.6251
禮法	-11.6252
不可測	-11.6255
一變	-11.6255
遂至	-11.6256
海東	-11.6256
五品	-11.6257
既得	-11.6259
當有	-11.6261
言行	-11.6261
中郎將	-11.6263
之過也	-11.6264
張耒	-11.6265
則不能	-11.6265
迤	-11.6265
家書	-11.6265
頳	-11.6265
法華	-11.6266
面目	-11.6267
前路	-11.6268
籖	-11.6269
上表	-11.6269
之本也	-11.627
鑾輿	-11.627
流行	-11.6271
一壺	-11.6272
渌	-11.6273
推恩	-11.6274
寒色	-11.6274
嗟爾	-11.628
曰公	-11.6281
綺席	-11.6281
工夫	-11.6281
浮名	-11.6282
之跡	-11.6283
商周	-11.6285
董卓	-11.6285
事已	-11.6285
之務	-11.6285
而不顧	-11.6285
法制	-11.6286
登科	-11.6286
乃能	-11.6287
觀音	-11.6288
自取	-11.6292
烟霧	-11.6292
食其	-11.6292
有云	-11.6292
燾	-11.6292
定國	-11.6294
春隂	-11.6294
㳙	-11.6295
發兵	-11.6295
階前	-11.6295
亦足以	-11.6295
壚	-11.6296
窮達	-11.6296
黄昬	-11.6296
胙	-11.6296
或問	-11.6298
以徳	-11.6299
經畧	-11.6299
大計	-11.6299
徒有	-11.63
遺民	-11.63
唐堯	-11.63
程子	-11.6301
卜築	-11.6302
向東	-11.6303
一顧	-11.6304
峡	-11.6309
壖	-11.6309
殘燈	-11.631
長廊	-11.631
屬車	-11.631
數十萬	-11.6311
無逸	-11.6314
萬類	-11.6315
盌	-11.6315
李杜	-11.6315
清和	-11.6316
禮部侍郎	-11.6316
淒涼	-11.6317
豈直	-11.6319
之祥	-11.6319
前村	-11.6319
天籟	-11.632
殷周	-11.632
蓬壺	-11.6321
降神	-11.6324
百慮	-11.6324
不恤	-11.6324
人神	-11.6325
養老	-11.6326
治國	-11.6326
遺我	-11.6326
離人	-11.6327
釋奠	-11.6328
不相見	-11.6329
罩	-11.6329
之富	-11.633
哦	-11.633
生理	-11.633
了無	-11.6331
長官	-11.6331
帝堯	-11.6331
積翠	-11.6332
重疊	-11.6332
一卷	-11.6334
潏	-11.6334
倜儻	-11.6335
好是	-11.6335
平仲	-11.6336
風浪	-11.6337
乙丑	-11.6337
複道	-11.6337
多在	-11.6337
參天	-11.6338
復還	-11.6338
欲往	-11.6341
後庭	-11.6342
人日	-11.6342
婺	-11.6343
李君	-11.6345
百物	-11.6345
交遊	-11.6345
連理	-11.6346
仲春	-11.6347
烏孫	-11.6348
萬樹	-11.6348
髙麗	-11.6349
俄頃	-11.635
書成	-11.6351
未老	-11.6352
當塗	-11.6353
何勞	-11.6353
為難	-11.6354
必至	-11.6354
爨	-11.6356
霤	-11.6357
蟾蜍	-11.6357
肄	-11.6358
漁人	-11.6359
者咸	-11.636
才名	-11.6362
庶乎	-11.6362
秣陵	-11.6363
太皇太后	-11.6365
孫權	-11.637
導之	-11.637
詔下	-11.6371
矣乃	-11.6372
以應	-11.6373
凡百	-11.6374
二篇	-11.6374
靄靄	-11.6375
固以	-11.6376
正字	-11.6376
書懐	-11.6376
岷山	-11.6377
魑魅	-11.6377
瀧	-11.6378
分韻得	-11.6378
擠	-11.6378
之鄉	-11.6378
覆載	-11.638
注云	-11.6382
者十	-11.6382
匍匐	-11.6383
景陽	-11.6383
所愛	-11.6384
紫薇	-11.6385
之田	-11.6386
士有	-11.6386
虎賁	-11.6386
一經	-11.6386
帝命	-11.6392
齊國	-11.6393
臨朝	-11.6394
磐石	-11.6394
秋空	-11.6395
向使	-11.6396
吾何	-11.6396
評事	-11.6398
哲人	-11.6398
獨醒	-11.6399
集中	-11.6399
神化	-11.6399
葑	-11.6401
時方	-11.6401
車書	-11.6401
音書	-11.6401
閨中	-11.6403
秋冬	-11.6404
闕二	-11.6404
三十五	-11.6407
月在	-11.6407
向西	-11.6408
北渚	-11.6408
鷄鳴	-11.6409
四野	-11.641
人煙	-11.6412
宗子	-11.6413
繫馬	-11.6414
而實	-11.6414
江風	-11.6416
閶門	-11.642
孤村	-11.642
不妄	-11.6422
嶔	-11.6423
典謨	-11.6424
酧	-11.6424
不戰	-11.6426
舉兵	-11.6426
吾與	-11.6426
失職	-11.6428
公論	-11.643
銅雀	-11.6433
高宗	-11.6434
髙飛	-11.6436
亦將	-11.6436
仕宦	-11.6436
阿房	-11.6437
孝思	-11.6437
非敢	-11.6437
還有	-11.6438
自保	-11.6438
辭家	-11.6439
文紀	-11.6439
為漢	-11.644
雖多	-11.6441
有過	-11.6442
八人	-11.6443
盻	-11.6444
廕	-11.6445
綜曰	-11.6446
錙銖	-11.6447
有六	-11.6447
斷雲	-11.6448
身閒	-11.6448
貢士	-11.6448
利於	-11.6449
晳	-11.645
四十五	-11.645
姦邪	-11.645
在山	-11.645
前修	-11.6451
張說	-11.6452
東鄰	-11.6454
千重	-11.6459
之疾	-11.646
萬馬	-11.646
虎頭	-11.646
將至	-11.646
悲傷	-11.6461
應須	-11.6462
河清	-11.6463
臨岐	-11.6463
飄風	-11.6464
不進	-11.6467
艫	-11.647
推移	-11.647
羣動	-11.6471
采石	-11.6471
里閭	-11.6471
絶世	-11.6473
悄悄	-11.6473
江樹	-11.6475
也善曰	-11.6478
不屑	-11.6478
制禮	-11.6481
哀樂	-11.6482
以守	-11.6483
正在	-11.6484
余亦	-11.6487
觀夫	-11.6488
此三	-11.6488
有德	-11.649
儼然	-11.6491
樂毅	-11.6493
月冷	-11.6494
爰有	-11.6494
戊戌	-11.6494
乾道	-11.6496
乃止	-11.6497
丁酉	-11.6498
褒貶	-11.6499
也古者	-11.6499
空言	-11.65
神道碑	-11.6501
過人	-11.6502
星漢	-11.6502
州司馬	-11.6504
大怒	-11.6504
嗚	-11.6504
長亭	-11.6506
送春	-11.6507
者獨	-11.651
其精	-11.651
若非	-11.6511
潺潺	-11.6511
相求	-11.6512
孤鶴	-11.6513
交游	-11.6513
特以	-11.6513
十六日	-11.6514
為患	-11.6515
戮力	-11.6515
詩一	-11.6515
甜	-11.6515
百人	-11.6517
蟬鳴	-11.6517
臚	-11.6521
膏腴	-11.6522
萬死	-11.6524
履道	-11.6525
屬國	-11.6525
我師	-11.6527
采薇	-11.6529
向誰	-11.653
之報	-11.653
輕風	-11.6531
鷗鳥	-11.6536
用是	-11.6536
聖祖	-11.6537
袪	-11.6539
飴	-11.6541
巗	-11.6541
陸龜蒙	-11.6541
耳今	-11.6542
如花	-11.6542
罝	-11.6543
行在	-11.6543
林亭	-11.6545
百篇	-11.6546
於學	-11.6547
勾踐	-11.6548
浮沉	-11.6548
啇	-11.6548
路岐	-11.6548
自負	-11.6548
其善	-11.6549
安敢	-11.655
蘭橈	-11.6551
蘇公	-11.6552
冠蓋	-11.6554
也後	-11.6554
之助	-11.6554
黄屋	-11.6555
臣雖	-11.6555
何極	-11.6556
憂思	-11.6556
天下之民	-11.6557
醉卧	-11.6557
文君	-11.6558
蜀郡	-11.6558
不勝其	-11.6558
而先	-11.6559
年二十	-11.6559
自任	-11.6559
誰人	-11.6561
數百人	-11.6563
稗	-11.6563
不敢言	-11.6563
緗	-11.6563
同行	-11.6563
儁	-11.6564
廂	-11.6565
䙝	-11.6566
琥珀	-11.6566
杳靄	-11.6566
薦之	-11.6568
庚午	-11.6568
嗣位	-11.6569
空江	-11.657
枕席	-11.657
四座	-11.6571
楚之	-11.6571
衆山	-11.6573
長笛	-11.6574
春暉	-11.6575
石刻	-11.6576
直指	-11.6577
齟齬	-11.6579
蕭疎	-11.658
餘杭	-11.658
古之君子	-11.658
奉命	-11.6581
日入	-11.6581
謂此	-11.6581
以威	-11.6582
歸鴻	-11.6582
鸞鶴	-11.6583
舊史	-11.6584
訶	-11.6584
尚能	-11.6585
人跡	-11.6585
年十月	-11.6586
題李	-11.6586
大典	-11.6587
鼯	-11.6587
揷	-11.659
島嶼	-11.659
逥	-11.659
誦之	-11.6592
自漢	-11.6592
寒雨	-11.6592
閭巷	-11.6593
隱者	-11.6594
北伐	-11.6595
臺下	-11.6596
委蛇	-11.6601
極矣	-11.6602
行義	-11.6602
天資	-11.6603
天下皆	-11.6604
定天下	-11.6605
地名	-11.6606
疴	-11.6606
窩	-11.6608
涴	-11.6609
參知政事	-11.661
因得	-11.661
黿	-11.661
悲哉	-11.661
瞿塘	-11.661
耳而	-11.6612
三百年	-11.6612
諡曰	-11.6612
人境	-11.6613
㑹同	-11.6614
一榻	-11.6617
人望	-11.6618
尊號	-11.6618
本意	-11.662
疾苦	-11.662
多年	-11.6621
時政	-11.6621
集有	-11.6622
多暇	-11.6623
或可	-11.6624
師魯	-11.6624
甲科	-11.6624
法者	-11.6625
于公	-11.6625
方圓	-11.6627
誰得	-11.6627
昭然	-11.6627
送行	-11.6629
玉顔	-11.663
絀	-11.6631
取次	-11.6631
鄰里	-11.6632
也昔者	-11.6632
人之情	-11.6633
易也	-11.6635
之積	-11.6636
濞	-11.6638
繢	-11.6638
及乎	-11.6641
赫然	-11.6646
深藏	-11.6646
碧空	-11.6649
康衢	-11.6649
禪房	-11.6649
柑	-11.665
是年	-11.6651
稷契	-11.6651
臣愚以為	-11.6651
而趨	-11.6652
衛尉	-11.6652
不向	-11.6653
初晴	-11.6655
吾嘗	-11.6656
殿中侍御史	-11.6657
摠	-11.6658
感懐	-11.6658
從公	-11.6658
然哉	-11.6659
君親	-11.666
忭	-11.666
長條	-11.6662
旛	-11.6662
不見其	-11.6665
其將	-11.6666
也或曰	-11.6666
南斗	-11.6666
地形	-11.6667
宦者	-11.6667
而好	-11.6667
此等	-11.6668
夢斷	-11.6668
忽已	-11.6668
吾徒	-11.6669
斚	-11.667
劉子	-11.6675
撩	-11.6676
諸侯王	-11.6676
髙齋	-11.6677
渺茫	-11.6678
及諸	-11.6679
青溪	-11.668
刄	-11.668
嘏	-11.6681
特立	-11.6681
不順	-11.6681
柁	-11.6681
知州	-11.6682
紅妝	-11.6683
應物	-11.6683
溪橋	-11.6683
春暮	-11.6684
亦不可	-11.6684
胡公	-11.6685
慘淡	-11.6686
應憐	-11.6686
不欺	-11.6687
七人	-11.6687
同列	-11.6688
明月照	-11.6688
已下	-11.6688
西流	-11.6689
向背	-11.6692
句句	-11.6692
不衰	-11.6692
其禍	-11.6693
之兆	-11.6694
白刃	-11.6694
可致	-11.6696
春晚	-11.6697
太宰	-11.6697
盛典	-11.6698
所望	-11.6698
傳云	-11.6699
筆墨	-11.67
要之	-11.6702
林深	-11.6704
甚厚	-11.6704
勿謂	-11.6704
多謝	-11.6704
紫禁	-11.6704
之云	-11.6705
曰予	-11.6705
惟是	-11.6706
謀臣	-11.6706
若曰	-11.6706
自殺	-11.6708
蜺	-11.6713
瓊瑶	-11.6713
得見	-11.6713
畫竹	-11.6714
獨何	-11.6714
深知	-11.6716
獨宿	-11.6718
死則	-11.6719
鹽鐵	-11.672
題趙	-11.6721
孔雀	-11.6721
自矜	-11.6721
東征	-11.6721
魂魄	-11.6723
曲終	-11.6726
蘭陵	-11.6726
八風	-11.6727
禮官	-11.6728
水滿	-11.6728
弭節	-11.6729
此之謂	-11.6729
塵中	-11.673
奪之	-11.6731
王元	-11.6732
花鳥	-11.6732
四日	-11.6733
紫閣	-11.6734
以崇	-11.6734
洞裏	-11.6734
次曰	-11.6735
者不得	-11.6737
盡矣	-11.6738
哀哀	-11.674
然如	-11.674
戸部	-11.6743
遺事	-11.6745
寓目	-11.6745
於無窮	-11.6745
崇曰	-11.6747
相近	-11.6748
神聖	-11.6749
者必有	-11.6749
都賦	-11.6749
臨軒	-11.675
堠	-11.6752
詶	-11.6752
猗歟	-11.6753
北來	-11.6754
不害	-11.6755
之暇	-11.6756
山陵	-11.6756
曽子	-11.6757
大敗	-11.6758
晦日	-11.6759
妾心	-11.6761
西極	-11.6761
揮手	-11.6762
其教	-11.6763
桓桓	-11.6764
長川	-11.6764
松樹	-11.6765
也既	-11.6765
傾倒	-11.6765
日邊	-11.6766
獨向	-11.6766
水竹	-11.6766
喝	-11.6767
村落	-11.677
牡	-11.677
濟時	-11.677
之不足	-11.6771
蒨	-11.6772
金蓮	-11.6772
所不及	-11.6773
畬	-11.6773
愛民	-11.6773
諶	-11.6776
碧天	-11.6777
雨洗	-11.6778
居中	-11.6778
貍	-11.6779
蒼崖	-11.6779
五尺	-11.678
家事	-11.678
金鑾	-11.6783
安民	-11.6784
嘉㑹	-11.6784
洪濤	-11.6785
燈花	-11.6786
刻之	-11.6789
遺音	-11.679
岱宗	-11.6791
熙熙	-11.6792
舍利	-11.6792
亭記	-11.6795
呑	-11.6795
泉流	-11.6795
夘	-11.6795
鞞	-11.6796
詹事	-11.6796
楚楚	-11.6796
鍔	-11.6797
㮣	-11.6798
弔古	-11.6799
躍馬	-11.6799
不教	-11.6801
蘇氏	-11.6804
鮫	-11.6805
卒于	-11.6805
出没	-11.6805
道心	-11.6806
含風	-11.6807
歸休	-11.6808
白龍	-11.6809
以教	-11.6809
四序	-11.681
月白	-11.6811
能致	-11.6812
原夫	-11.6813
者凡	-11.6814
江總	-11.6814
羣下	-11.6816
樹枝	-11.6816
中夏	-11.6817
悸	-11.6817
近侍	-11.6817
昔有	-11.6819
已定	-11.682
髙城	-11.682
今嵗	-11.6821
顧問	-11.6821
天和	-11.6822
螟	-11.6822
坐客	-11.6822
逺别	-11.6823
對客	-11.6824
晴雪	-11.6825
蘭臺	-11.6826
其音	-11.6826
積善	-11.6826
庸人	-11.683
九陌	-11.6831
予亦	-11.6836
謝家	-11.6837
崇徳	-11.6837
丘墟	-11.6839
過半	-11.6839
錦城	-11.6839
長虹	-11.684
堂記	-11.6841
在東	-11.6843
儗	-11.6843
荒村	-11.6843
髙處	-11.6844
士庶	-11.6845
楸	-11.6846
守臣	-11.6847
灤	-11.6847
闕里	-11.6847
澡	-11.6847
邅	-11.6847
䛕	-11.6848
不自知	-11.6848
多言	-11.6849
顧瞻	-11.685
宗廟之	-11.6852
梁州	-11.6852
艤	-11.6853
隄防	-11.6854
皆自	-11.6854
北平	-11.6856
三寸	-11.6856
命以	-11.6861
青㝠	-11.6862
朝衣	-11.6862
欽若	-11.6862
細栁	-11.6863
天禄	-11.6865
之卒	-11.6865
呉江	-11.6868
結茅	-11.6868
慾	-11.6869
伊昔	-11.687
一飯	-11.6871
即有	-11.6871
大儒	-11.6872
香草	-11.6872
崇文	-11.6872
欽明	-11.6874
幽情	-11.6874
琪樹	-11.6875
徃事	-11.6875
汧	-11.6876
誰當	-11.6876
以臨	-11.6877
而獲	-11.6878
命駕	-11.688
以資	-11.6881
嬰兒	-11.6882
異之	-11.6884
不得已而	-11.6885
永懐	-11.6886
頡頏	-11.689
不眠	-11.689
壯觀	-11.6891
禮經	-11.6891
述作	-11.6892
焉是	-11.6892
音聲	-11.6893
未還	-11.6895
猴	-11.6895
登壇	-11.6895
本非	-11.6895
金臺	-11.6895
昵	-11.6895
不事	-11.6895
瑋	-11.6897
亭下	-11.6897
一千	-11.6897
謝客	-11.6898
柴桑	-11.6898
南遊	-11.6899
宋之問	-11.6899
舊有	-11.69
元老	-11.6901
三百里	-11.6901
若以	-11.6902
立朝	-11.6903
不類	-11.6904
從子	-11.6905
誠可	-11.6906
清都	-11.6908
一雨	-11.6908
非人	-11.691
少室	-11.6911
二百年	-11.6912
早梅	-11.6912
昔賢	-11.6913
以孝	-11.6913
官職	-11.6914
不擇	-11.6915
滋味	-11.6915
開口	-11.6917
嘉祥	-11.6917
瀦	-11.6918
孰若	-11.6918
者也今	-11.6919
芾	-11.6919
勞生	-11.692
落魄	-11.6921
天平	-11.6921
終不能	-11.6922
爭先	-11.6923
空留	-11.6923
守節	-11.6923
隨人	-11.6924
尋幽	-11.6924
忽如	-11.6926
癸丑	-11.6926
亦必	-11.6927
斑斑	-11.6927
輕寒	-11.6927
字公	-11.6928
程氏	-11.6928
美也	-11.6928
游子	-11.6929
望風	-11.693
深院	-11.6931
隔江	-11.6932
三十七	-11.6935
忽有	-11.6935
乃今	-11.6936
夢回	-11.6936
制其	-11.6937
仙仗	-11.6938
波光	-11.6939
莫可	-11.694
以昭	-11.694
棃花	-11.694
一戰	-11.6941
客曰	-11.6941
癸未	-11.6942
仲子	-11.6942
此圖	-11.6943
羣賢	-11.6943
漭	-11.6943
天下事	-11.6943
穆公	-11.6944
㸃綴	-11.6945
纘	-11.6945
數㸃	-11.6945
鸂鶒	-11.6946
不竭	-11.6946
逸興	-11.6946
漂泊	-11.6946
鴻濛	-11.6947
某月日	-11.6947
旌斾	-11.6948
顓頊	-11.6948
㑹有	-11.695
晉國	-11.6951
謂我	-11.6953
亂石	-11.6955
萬幾	-11.6956
服食	-11.6956
澗底	-11.6958
五岳	-11.6958
明文海巻	-11.6958
者然	-11.6958
推轂	-11.696
未曽	-11.696
罟	-11.6961
但以	-11.6962
供養	-11.6964
竊謂	-11.6964
濁醪	-11.6965
造次	-11.6965
鶱	-11.6966
醉歸	-11.6966
重九	-11.6966
懵	-11.6966
曾孫	-11.6966
失於	-11.6967
竚	-11.6967
之功也	-11.6967
數枝	-11.6967
伽	-11.6967
之英	-11.6968
舊物	-11.6968
商人	-11.6968
詎能	-11.6968
羃	-11.6968
嗜酒	-11.6968
樓下	-11.6969
歸客	-11.697
焉可	-11.697
陸龜䝉	-11.6971
其端	-11.6972
貢舉	-11.6972
曰彼	-11.6973
奏議	-11.6973
卬	-11.6974
徳行	-11.6974
不能言	-11.6975
杯中	-11.6975
清時	-11.6975
餘年	-11.6975
離心	-11.6976
僮僕	-11.6978
禄山	-11.6979
者至	-11.698
孝宗	-11.6981
名位	-11.6982
嵬	-11.6982
計者	-11.6982
忠烈	-11.6982
安西	-11.6982
非惟	-11.6983
後昆	-11.6985
奉表	-11.6985
手把	-11.6986
楚詞	-11.6987
親故	-11.6988
執法	-11.6989
纈	-11.6989
任重	-11.6991
挍	-11.6994
嗣子	-11.6994
侃	-11.6995
欲飛	-11.6996
欲識	-11.6996
紅日	-11.6996
成人	-11.6996
沙上	-11.6997
霅	-11.6999
水面	-11.6999
蝦	-11.6999
耉	-11.7
其變	-11.7001
隗	-11.7004
浮世	-11.7004
而廢	-11.7004
其初	-11.7005
而言之	-11.7006
國子監	-11.7007
紫煙	-11.7008
山木	-11.7008
一出	-11.701
乆而	-11.7013
曰余	-11.7014
殛	-11.7015
古風	-11.7017
種樹	-11.7017
皇明	-11.7018
兩漢	-11.7019
娉婷	-11.702
海氣	-11.7021
守其	-11.7022
數百里	-11.7022
龍眠	-11.7023
今在	-11.7025
雌雄	-11.7025
大荒	-11.7027
漢文	-11.7027
征戰	-11.7028
取天下	-11.7029
最是	-11.7029
無怨	-11.703
不至於	-11.703
江路	-11.7031
一毫	-11.7031
承㫖	-11.7032
胡馬	-11.7034
丹竈	-11.7035
年四十	-11.7035
惟見	-11.7036
以此為	-11.7036
以助	-11.7037
淵源	-11.7037
不敬	-11.7039
可矣	-11.704
已盡	-11.7041
道在	-11.7042
姦臣	-11.7042
耳目之	-11.7042
跌	-11.7042
聞此	-11.7043
國子祭酒	-11.7043
衰病	-11.7043
閘	-11.7044
抑亦	-11.7045
岳陽樓	-11.7046
為利	-11.7047
猛獸	-11.7049
在官	-11.7053
推誠	-11.7054
銅柱	-11.7055
二巻	-11.7057
嘗與	-11.7058
少婦	-11.7058
白草	-11.7059
九百	-11.7059
揉	-11.7059
者與	-11.706
西溪	-11.7062
以承	-11.7062
竒絶	-11.7063
鳳翔	-11.7063
時年	-11.7064
泚	-11.7065
以私	-11.7065
水色	-11.7066
保其	-11.7066
曰吾聞	-11.7066
牝	-11.7067
山名	-11.7067
輪囷	-11.7067
聲聲	-11.7069
大寳	-11.7072
勤王	-11.7074
無物	-11.7074
以從	-11.7075
外有	-11.7075
長路	-11.7076
迎神	-11.7077
宗祀	-11.7079
以仁	-11.7079
之舉	-11.7081
誠齋	-11.7081
度量	-11.7082
戰國䇿	-11.7082
寛大	-11.7084
竟無	-11.7084
千乗	-11.7084
入闗	-11.7086
哥	-11.7086
沚	-11.7086
撝	-11.7087
戞	-11.7088
建立	-11.709
泥塗	-11.7091
海潮	-11.7092
淚痕	-11.7092
普天	-11.7093
飛閣	-11.7094
應時	-11.7094
異姓	-11.7097
無停	-11.7097
於詩	-11.7097
天下士	-11.7098
不忠	-11.7098
食肉	-11.7098
松門	-11.71
若木	-11.7101
七里	-11.7102
異代	-11.7102
素心	-11.7102
魏氏	-11.7102
老眼	-11.7103
羣飛	-11.7103
飲水	-11.7103
七言古	-11.7103
益以	-11.7104
四十九	-11.7104
羅敷	-11.7104
記云	-11.7104
二州	-11.7104
無錫	-11.7105
元好問	-11.7105
倒景	-11.7106
百氏	-11.7106
風輕	-11.7107
文粹作	-11.7108
論語子曰	-11.7108
長日	-11.7108
榮光	-11.7108
袈裟	-11.7112
涖	-11.7113
重輕	-11.7113
塍	-11.7114
雲浮	-11.7114
服其	-11.7116
東吳	-11.7117
仁風	-11.7118
不期	-11.7118
大都督	-11.712
為公	-11.7122
公羊	-11.7122
錡	-11.7122
何限	-11.7124
晚節	-11.7124
南城	-11.7125
雲邊	-11.7125
器械	-11.7126
十洲	-11.7127
而不知其	-11.713
魚躍	-11.713
長揖	-11.7131
小姑	-11.7131
潤色	-11.7132
大理評事	-11.7132
伯仲	-11.7133
異哉	-11.7134
零陵	-11.7135
子虚	-11.7135
且喜	-11.7136
朝鮮	-11.7136
不審	-11.7137
為子	-11.7138
醉裏	-11.7139
嵗晩	-11.7139
之瑞	-11.714
所殺	-11.714
碾	-11.714
民生	-11.7141
不登	-11.7141
滿天	-11.7146
一溪	-11.7146
賜金	-11.7148
文子	-11.7148
如神	-11.7149
臣妾	-11.715
維揚	-11.7151
清晝	-11.7151
獵獵	-11.7151
新雨	-11.7152
諸天	-11.7153
東郡	-11.7153
仙客	-11.7153
達人	-11.7154
王世貞	-11.7155
彼其	-11.7155
乗風	-11.7156
寞	-11.7158
而與之	-11.7158
刁	-11.7159
否則	-11.7159
而加	-11.716
㩦	-11.716
瀘	-11.716
刖	-11.7161
又復	-11.7161
狃	-11.7162
初為	-11.7162
四維	-11.7162
錦囊	-11.7165
芻蕘	-11.7165
百千	-11.7165
之譏	-11.7166
大宗	-11.7167
立而	-11.7168
於身	-11.7169
之敗	-11.7172
清虚	-11.7172
白浪	-11.7172
花雨	-11.7172
者焉	-11.7174
從人	-11.7174
壺觴	-11.7174
之服	-11.7174
好鳥	-11.7174
逸民	-11.7174
亦欲	-11.7177
飛上	-11.7177
入京	-11.7178
幟	-11.7179
雲連	-11.718
作亂	-11.718
羯	-11.718
遺書	-11.7181
可信	-11.7182
江口	-11.7182
園亭	-11.7182
安在哉	-11.7183
𤨏	-11.7184
隔林	-11.7184
耒耜	-11.7185
楚天	-11.7185
雪裏	-11.7185
所求	-11.7186
而南	-11.7187
奭	-11.7187
菅	-11.7187
玳瑁	-11.7188
司直	-11.7188
憶君	-11.7189
山水圖	-11.7189
環堵	-11.719
公車	-11.7191
其師	-11.7194
俗人	-11.7195
相通	-11.7195
宗即位	-11.7195
委質	-11.7196
蜀之	-11.7196
澹澹	-11.7197
劉君	-11.7197
千林	-11.7197
本心	-11.7197
必然	-11.7199
願以	-11.7199
欲得	-11.7199
一觴	-11.72
從君	-11.7202
燕然	-11.7204
科第	-11.7204
誠以	-11.7204
惜别	-11.7204
如此其	-11.7205
叔孫	-11.7205
復起	-11.7205
鄙人	-11.7205
擿	-11.7206
紫㣲	-11.7208
錮	-11.7208
者因	-11.7209
刑名	-11.7209
何暇	-11.721
晨風	-11.7211
颭	-11.7211
銜杯	-11.7211
猶帶	-11.7212
善也	-11.7212
蹇驢	-11.7213
詞臣	-11.7213
郊居	-11.7213
之墟	-11.7213
歐陽公	-11.7214
絺	-11.7215
之忠	-11.7216
何心	-11.7217
北邙	-11.7217
陳後主	-11.7217
萬戸	-11.7217
春樹	-11.7222
潮生	-11.7222
樂歌	-11.7223
常平	-11.7223
大略	-11.7224
春生	-11.7224
文質	-11.7224
節義	-11.7225
斗柄	-11.7225
宣子	-11.7226
大喜	-11.7227
半日	-11.7227
香車	-11.7229
從我	-11.7229
宣尼	-11.7231
寒衣	-11.7232
當世之	-11.7232
鸞鳳	-11.7233
薫風	-11.7233
怒而	-11.7233
儋	-11.7235
甲戌	-11.7236
古昔	-11.7236
公公	-11.7237
嶺上	-11.7237
天下後世	-11.7237
荔	-11.7237
丙戌	-11.7238
抜	-11.7238
元化	-11.7239
峰頭	-11.7239
相聞	-11.7243
况是	-11.7243
緑波	-11.7243
詩選	-11.7243
蕭森	-11.7245
華夏	-11.7245
於禮	-11.7248
原注	-11.725
不遂	-11.7251
木末	-11.7251
皆由	-11.7252
竹杖	-11.7253
紅雲	-11.7253
方且	-11.7253
又不見	-11.7253
雲烟	-11.7255
人衣	-11.7258
垂綸	-11.7258
三巻	-11.7259
天下之勢	-11.726
賾	-11.7261
馬圖	-11.7263
汁	-11.7263
信陵	-11.7263
僧舍	-11.7263
積石	-11.7263
能文	-11.7264
戊辰	-11.7264
隩	-11.7264
山嶽	-11.7266
摧折	-11.7267
悃	-11.7267
瞳	-11.7268
傳記	-11.7268
皇風	-11.7268
二王	-11.7269
北固	-11.7272
花氣	-11.7272
鸞鳯	-11.7272
緑野	-11.7273
十三日	-11.7274
於京師	-11.7275
家園	-11.7275
氷霜	-11.7276
亡秦	-11.7277
送趙	-11.7278
其節	-11.7281
景公	-11.7285
胃	-11.7285
居庸	-11.7286
郛	-11.7286
凛凛	-11.7287
產	-11.7288
若人	-11.7288
蛤	-11.7289
河伯	-11.7289
重城	-11.7289
宣徳	-11.7291
孟津	-11.7291
雲屯	-11.7292
為功	-11.7293
昭穆	-11.7295
海波	-11.7296
動地	-11.7297
東道	-11.7297
唐虞之	-11.7298
黄泉	-11.73
戰勝	-11.73
内則	-11.7301
淡淡	-11.7302
已去	-11.7303
衆庶	-11.7304
富春	-11.7305
義也	-11.7306
有田	-11.7306
有心	-11.7306
何遜詩	-11.7306
清夢	-11.7307
古有	-11.7307
漚	-11.7308
藜藿	-11.7308
乙酉	-11.731
迢逓	-11.731
處分	-11.7312
舉酒	-11.7313
衆芳	-11.7314
擴	-11.7314
藕花	-11.7314
為太子	-11.7314
立馬	-11.7315
戊申	-11.7317
六人	-11.7317
一幅	-11.7317
器之	-11.732
逺邇	-11.7321
連年	-11.7321
而外	-11.7321
凌空	-11.7322
三島	-11.7322
室家	-11.7323
人不識	-11.7323
患之	-11.7323
隋書	-11.7324
閨門	-11.7324
顧盼	-11.7326
之至謹	-11.7328
行營	-11.733
君君	-11.7331
猶疑	-11.7332
蒼煙	-11.7332
在彼	-11.7333
建元	-11.7334
代宗	-11.7335
滙	-11.7335
樣	-11.7335
忠誠	-11.7336
漣漪	-11.7336
望逺	-11.7336
大雪	-11.7337
一百二十	-11.7337
慇懃	-11.7338
丙午	-11.7338
其詞曰	-11.734
噉	-11.734
層樓	-11.7341
無雙	-11.7341
之策	-11.7341
子期	-11.7343
厯官	-11.7343
飽食	-11.7343
安撫	-11.7344
嗟哉	-11.7344
驚風	-11.7344
巨石	-11.7345
大猷	-11.7346
治其	-11.7347
雖小	-11.7348
翻覆	-11.7352
佛法	-11.7354
自逺	-11.7356
髙節	-11.7357
之心而	-11.7358
蓊	-11.7359
舊國	-11.736
北歸	-11.736
文翁	-11.736
琨	-11.7361
畛	-11.7361
又言	-11.7361
第幾	-11.7361
煇	-11.7362
海月	-11.7362
禁苑	-11.7362
尺素	-11.7363
勝遊	-11.7363
必使	-11.7364
辛未	-11.7365
王融	-11.7365
壬寅	-11.7366
明聖	-11.7367
母子	-11.7367
瓊筵	-11.7367
焉耳	-11.7368
累世	-11.7371
所安	-11.7371
令我	-11.7371
龍舟	-11.7373
名髙	-11.7375
為家	-11.7378
而遂	-11.7379
承露	-11.7379
此外	-11.738
荒草	-11.738
中土	-11.7382
秘閣	-11.7383
飲啄	-11.7383
何傷	-11.7384
靈均	-11.7385
歲時	-11.7386
匀	-11.7386
鑚	-11.7387
獺	-11.7387
至孝	-11.7388
錢起	-11.7388
口號	-11.7388
爐香	-11.7388
非聖人	-11.7389
絶倫	-11.739
宣慰	-11.739
譖	-11.7391
名與	-11.7392
羈旅	-11.7394
自由	-11.7395
終然	-11.7396
崤	-11.7396
一死	-11.7397
無留	-11.7397
過江	-11.7397
鼓聲	-11.7399
謫居	-11.7399
行旅	-11.74
零露	-11.7401
王昌齡	-11.7402
其色	-11.7402
飛入	-11.7403
遷客	-11.7403
王庭	-11.7403
在斯	-11.7404
感而	-11.7405
後夜	-11.7406
㡬年	-11.7407
龍媒	-11.7407
去官	-11.7408
獨鶴	-11.7409
從兄	-11.7409
我皇上	-11.741
青霞	-11.7411
近古	-11.7411
呼童	-11.7412
朦朧	-11.7412
魅	-11.7414
飛鳴	-11.7415
清絶	-11.7416
傾國	-11.7421
子路	-11.7422
無一人	-11.7423
猶記	-11.7423
紅燭	-11.7424
黙然	-11.7425
延祐	-11.7425
哀鳴	-11.7426
瑶華	-11.7427
也遂	-11.7428
寒聲	-11.7428
照水	-11.7429
介甫	-11.743
便當	-11.7431
鄙夫	-11.7431
貟	-11.7432
八表	-11.7432
萱草	-11.7433
蜨	-11.7434
幽徑	-11.7435
切切	-11.7435
洙	-11.7435
嚢	-11.7435
剏	-11.7436
脾	-11.7436
不輟	-11.7437
林園	-11.7437
衆多	-11.7438
東下	-11.7439
疉	-11.7439
周人	-11.744
怵	-11.744
累日	-11.7443
過眼	-11.7444
因君	-11.7445
獨處	-11.7446
漢庭	-11.7448
行至	-11.7448
尊者	-11.7448
得其所	-11.7449
瓊花	-11.7449
豈以	-11.7449
愚臣	-11.745
莫相	-11.7452
而去之	-11.7453
邇來	-11.7454
十方	-11.7456
尺寸	-11.7456
小小	-11.7456
似雪	-11.7457
行邁	-11.7458
曾子	-11.7459
紫極	-11.7459
被服	-11.7459
黄庭	-11.7459
喜雨	-11.7461
友朋	-11.7461
琱	-11.7464
晉王	-11.7465
岌	-11.7466
香氣	-11.7466
吾兄	-11.7467
風騷	-11.7469
阻風	-11.747
廏	-11.747
相為	-11.747
楊萬里	-11.7473
築城	-11.7473
藥石	-11.7473
復得	-11.7475
如是而	-11.7476
題曰	-11.7478
高臺	-11.7478
問我	-11.7478
大士	-11.7479
重修	-11.7481
水底	-11.7481
忽焉	-11.7481
臣願陛下	-11.7482
兮又	-11.7482
種種	-11.7484
跛	-11.7484
沈約詩	-11.7485
狖	-11.7486
糅	-11.7487
觚	-11.7487
題王	-11.7488
嶄	-11.7488
拄杖	-11.7488
飼	-11.7489
顛沛	-11.749
下士	-11.749
不能去	-11.7491
飛飛	-11.7491
百餘里	-11.7491
聨句	-11.7492
時惟	-11.7493
浮沈	-11.7493
來徃	-11.7493
府中	-11.7494
遣興	-11.7495
澌	-11.7496
周子	-11.7497
白駒	-11.7498
黄冠	-11.7499
以充	-11.75
良史	-11.75
威福	-11.7501
以防	-11.7501
以制	-11.7502
予以	-11.7503
獨上	-11.7503
初起	-11.7503
䝉恩	-11.7504
其室	-11.7504
官司	-11.7504
金井	-11.7505
未平	-11.7505
嘉名	-11.7506
十有一	-11.7506
氣力	-11.7507
眷言	-11.7507
香滿	-11.7508
遇之	-11.7508
立廟	-11.7508
四十八	-11.7509
必有所	-11.751
弹	-11.7511
則思	-11.7511
以給	-11.7513
嗟予	-11.7514
先皇	-11.7515
士人	-11.7516
岑寂	-11.7518
伯玉	-11.7518
冠軍	-11.7518
墳墓	-11.7518
九歌	-11.752
悠揚	-11.7521
應劭曰	-11.7522
頻年	-11.7524
其禮	-11.7524
獻酬	-11.7525
復生	-11.7525
性命之	-11.7525
飛霜	-11.7526
惠王	-11.7526
悲秋	-11.7527
漸覺	-11.7528
委任	-11.7529
動揺	-11.7529
獻納	-11.7529
之勇	-11.7529
也知	-11.7529
之工	-11.7529
因寄	-11.753
方干	-11.7531
朝發	-11.7531
王逸	-11.7532
遥想	-11.7533
公亦	-11.7534
名姓	-11.7537
荆榛	-11.7537
寒沙	-11.7539
殘照	-11.7539
珊珊	-11.7539
天下之心	-11.754
西子	-11.7541
蘸	-11.7541
彷徨	-11.7541
君命	-11.7542
塡	-11.7543
其智	-11.7544
感歎	-11.7544
之罪也	-11.7545
龍顔	-11.7545
天水	-11.7546
陶淵明	-11.7546
以實	-11.7548
萬萬	-11.7548
不孝	-11.7548
更名	-11.7549
寒月	-11.755
舞歌	-11.755
歌扇	-11.755
校書郎	-11.7551
苦雨	-11.7552
此處	-11.7552
之目	-11.7553
之廣	-11.7554
目之	-11.7554
彈冠	-11.7556
容貌	-11.7557
故道	-11.756
字彦	-11.7561
天目	-11.7561
三十三	-11.7562
薙	-11.7563
光於	-11.7563
當軒	-11.7565
躬行	-11.7565
夥	-11.7565
禊	-11.7567
早起	-11.7567
本草	-11.7568
此君	-11.757
萬代	-11.757
勢利	-11.757
湜	-11.757
惡其	-11.7571
音信	-11.7571
覺來	-11.7571
愁殺	-11.7572
柱國	-11.7572
俛首	-11.7572
賔主	-11.7572
詩情	-11.7573
其制	-11.7573
處也	-11.7573
今昔	-11.7574
一面	-11.7574
飛蓬	-11.7574
忘却	-11.7576
將何以	-11.7576
攀折	-11.7578
紅蓮	-11.7579
五斗	-11.7579
潼	-11.7579
故名	-11.758
天所	-11.758
百步	-11.7583
長干	-11.7583
干將	-11.7583
青鸞	-11.7583
肅然	-11.7584
隔溪	-11.7585
亂世	-11.7586
衆所	-11.7587
慊	-11.7588
所作也	-11.7588
馬融	-11.7589
於魯	-11.7589
劬	-11.7589
昴	-11.7591
庚寅	-11.7594
穹廬	-11.7596
鑱	-11.7596
丙申	-11.7597
所部	-11.7598
刀筆	-11.7598
震動	-11.7599
馮翊	-11.7599
豈曰	-11.76
丹梯	-11.7601
變態	-11.7602
書於	-11.7603
李子	-11.7603
成羣	-11.7603
不羣	-11.7605
為用	-11.7605
却是	-11.7606
固不可	-11.7606
告之曰	-11.7606
纜	-11.7607
宗正	-11.7608
威武	-11.7608
死節	-11.7608
十有五	-11.7609
心已	-11.7611
故謂之	-11.7611
前身	-11.7611
二毛	-11.7613
行當	-11.7613
眎	-11.7614
鍵	-11.7615
籃輿	-11.7615
黿鼉	-11.7616
楣	-11.7616
相將	-11.7616
如舊	-11.7617
客夢	-11.7619
妾身	-11.7619
遂與	-11.762
惟應	-11.7621
道家	-11.7621
青銅	-11.7622
司業	-11.7622
莫厭	-11.7622
公府	-11.7622
能事	-11.7622
門掩	-11.7623
晉宋	-11.7623
永明	-11.7624
自致	-11.7624
但知	-11.7624
貧者	-11.7624
同聲	-11.7625
玉輦	-11.7627
舜之	-11.7627
晴光	-11.7628
儒冠	-11.7628
有識	-11.7629
世為	-11.7629
仁聖	-11.7629
羽人	-11.7629
在手	-11.763
下令	-11.7631
不亂	-11.7631
以功	-11.7632
秋葉	-11.7632
幅巾	-11.7632
何遜	-11.7632
皇恩	-11.7632
雲龍	-11.7633
萬巻	-11.7633
春望	-11.7634
而勿	-11.7634
其惡	-11.7635
以順	-11.7637
神交	-11.7637
項籍	-11.7637
平分	-11.7638
則不可	-11.7638
江潭	-11.764
與余	-11.7641
焉如	-11.7641
矣然而	-11.7641
羽翰	-11.7642
訕	-11.7642
人耳	-11.7643
鏐	-11.7644
塗山	-11.7644
埏	-11.7645
宦情	-11.7645
晟	-11.7645
姮娥	-11.7645
寂然	-11.7645
駑駘	-11.7645
海南	-11.7646
之慮	-11.7646
十餘萬	-11.7647
皤	-11.7648
峰巒	-11.765
何因	-11.7651
聖澤	-11.7655
幽興	-11.7655
獄訟	-11.7656
晨光	-11.7657
大率	-11.766
館閣	-11.766
送楊	-11.7662
壬午	-11.7662
絶其	-11.7663
義則	-11.7663
庶績	-11.7664
小國	-11.7664
震驚	-11.7664
蘅	-11.7665
曉來	-11.7666
老臣	-11.7667
秋意	-11.7667
焉今	-11.7668
壯志	-11.767
猫	-11.767
武徳	-11.7671
其處	-11.7673
空碧	-11.7676
如初	-11.7676
振旅	-11.7679
驚心	-11.7679
半山	-11.7679
宣武	-11.768
子陵	-11.7681
霜落	-11.7681
必死	-11.7681
代謝	-11.7682
霜葉	-11.7683
九垓	-11.7683
初成	-11.7683
令徳	-11.7684
日西	-11.7685
清源	-11.7685
者能	-11.7685
來遊	-11.7686
儒臣	-11.7688
黥	-11.7688
引兵	-11.7689
書法	-11.769
春晴	-11.7691
哭之	-11.7692
不悦	-11.7692
三十八	-11.7693
又嘗	-11.7693
永年	-11.7695
鄭谷	-11.7697
登封	-11.7697
乃可	-11.7699
玠	-11.7699
何足以	-11.7699
沆	-11.7703
昶	-11.7703
市人	-11.7704
不終	-11.7704
與語	-11.7705
漢氏	-11.7706
萬計	-11.7709
未厭	-11.771
𤣥雲	-11.771
汾水	-11.771
之辨	-11.7711
苕溪	-11.7711
陽氣	-11.7712
魯人	-11.7713
長橋	-11.7713
位而	-11.7714
踰年	-11.7714
垂衣	-11.7714
突厥	-11.7714
一致	-11.7715
錦袍	-11.7715
帝即位	-11.7716
三十餘年	-11.7716
層巒	-11.7718
𦍑	-11.7719
丁亥	-11.7719
豐城	-11.772
青史	-11.7721
咿	-11.7721
西城	-11.7722
祓	-11.7722
則易	-11.7722
粢盛	-11.7723
罽	-11.7723
娑	-11.7724
巖谷	-11.7724
國事	-11.7724
故夫	-11.7725
州城	-11.7725
欲暮	-11.7728
不散	-11.7728
其大者	-11.7729
永州	-11.7729
一郡	-11.773
悲鳴	-11.773
致逺	-11.7731
行春	-11.7732
春夜	-11.7733
未㡬	-11.7733
一夢	-11.7735
緑葉	-11.7735
富者	-11.7735
形神	-11.7735
幽花	-11.7736
水精	-11.7736
金釵	-11.7737
終老	-11.7739
耕桑	-11.774
推其	-11.774
煌	-11.7741
乙亥	-11.7743
所樂	-11.7743
水殿	-11.7744
鼓琴	-11.7745
半天	-11.7745
菡萏	-11.7745
恡	-11.7746
矮	-11.7746
安仁	-11.7746
雷動	-11.7746
海雲	-11.7747
淳風	-11.7747
水亭	-11.7749
汎舟	-11.7749
歧	-11.775
而求之	-11.775
寒玉	-11.775
東溪	-11.7751
實在	-11.7751
辨其	-11.7751
以病	-11.7752
難於	-11.7752
枕簟	-11.7753
小艇	-11.7753
昆吾	-11.7753
佐命	-11.7753
過矣	-11.7753
儀刑	-11.7754
怡然	-11.7756
一節	-11.7756
至於今	-11.7756
同官	-11.7757
於市	-11.7759
洗耳	-11.776
一息	-11.7761
元勲	-11.7762
通州	-11.7763
無酒	-11.7763
哉且	-11.7764
銀臺	-11.7764
天工	-11.7765
之柄	-11.7765
明月夜	-11.7765
敬亭	-11.7766
爰及	-11.7767
對雪	-11.7767
有數	-11.7768
茱萸	-11.7768
忠言	-11.7768
以彰	-11.7769
綉	-11.7769
韶光	-11.777
未忍	-11.777
淙	-11.777
見示	-11.7772
水木	-11.7772
房櫳	-11.7773
江波	-11.7773
福州	-11.7774
領軍	-11.7774
經時	-11.7775
善作	-11.7775
必為	-11.7776
政令	-11.7776
孤月	-11.7776
湔	-11.7776
患難	-11.7777
於晉	-11.7778
飛塵	-11.7778
棨	-11.7779
得免	-11.7779
興起	-11.7779
煬帝	-11.778
家國	-11.7781
充國	-11.7782
在其中	-11.7783
砥柱	-11.7783
年七十	-11.7784
得其人	-11.7784
陽縣	-11.7784
推而	-11.7785
雲雷	-11.7788
花底	-11.779
則已	-11.7792
誰念	-11.7793
畫山水	-11.7795
更好	-11.7796
秋晚	-11.7796
歊	-11.7798
有佳	-11.7798
一株	-11.7798
又欲	-11.7799
載之	-11.78
凑	-11.78
彩雲	-11.78
相續	-11.7801
遭遇	-11.7802
戰士	-11.7805
剌	-11.7806
欲寄	-11.7806
天低	-11.7807
眉山	-11.7808
明河	-11.7809
翻然	-11.7809
惘然	-11.7809
桐江	-11.7809
通典	-11.781
波上	-11.781
泣下	-11.7812
早行	-11.7813
洛陽城	-11.7813
雁行	-11.7813
縉	-11.7814
其㫖	-11.7814
蔽日	-11.7814
曽是	-11.7815
宿鳥	-11.7815
盛矣	-11.7815
僦	-11.7816
畫工	-11.7817
虞卿	-11.7818
更為	-11.7819
豈伊	-11.782
少尹	-11.7821
邏	-11.7822
彗	-11.7822
羅漢	-11.7823
諠	-11.7824
嫦娥	-11.7824
撚	-11.7824
更多	-11.7825
之詔	-11.7825
李賀	-11.7825
五音	-11.7825
襯	-11.7826
好生	-11.7827
厝	-11.7827
不管	-11.7829
偏宜	-11.7831
如練	-11.7831
經學	-11.7831
所致	-11.7831
諸老	-11.7832
熒惑	-11.7833
萬化	-11.7835
吾意	-11.7836
相招	-11.7836
白波	-11.7836
頃者	-11.7837
美惡	-11.7839
感興	-11.7839
淚下	-11.7841
亂也	-11.7842
不好	-11.7842
不遷	-11.7842
不淺	-11.7842
一代之	-11.7844
不相識	-11.7846
正大	-11.7847
餼	-11.7847
以寧	-11.7848
痾	-11.7848
蓬山	-11.7849
宋陳思編元陳世隆補	-11.7849
若其	-11.785
後魏	-11.7851
紛綸	-11.7852
異域	-11.7854
釋迦	-11.7854
金鋪	-11.7854
洞簫	-11.7855
聲中	-11.7855
免於	-11.7856
冏	-11.7856
君莫	-11.7856
文苑英華	-11.7856
爼豆	-11.7857
琬	-11.7858
伏奉	-11.7859
並作	-11.7859
華髮	-11.786
良馬	-11.7861
如夢	-11.7861
其黨	-11.7862
飛騰	-11.7863
屈伸	-11.7864
藩籬	-11.7864
女郎	-11.7864
於朝廷	-11.7864
歲暮	-11.7865
洪波	-11.7865
花樹	-11.7865
溪雲	-11.7865
菱花	-11.7865
智勇	-11.7865
所學	-11.7867
故宫	-11.7867
池邊	-11.7869
樞機	-11.787
雲裏	-11.7872
何知	-11.7874
寒林	-11.7874
終于	-11.7874
改作	-11.7875
權臣	-11.7875
遺像	-11.7877
豸	-11.7877
以紀	-11.7878
嘉善	-11.7879
誰同	-11.788
應期	-11.788
煙塵	-11.7881
才能	-11.7881
恂	-11.7882
祥符	-11.7882
名譽	-11.7883
烱	-11.7884
觀風	-11.7884
肩輿	-11.7885
愚曰	-11.7886
不隔	-11.7887
花栁	-11.7889
克明	-11.7892
曰臣聞	-11.7892
暾	-11.7892
邦人	-11.7893
竹外	-11.7893
風帆	-11.7893
敢望	-11.7894
信乎	-11.7895
笈	-11.7897
勝槩	-11.7897
清興	-11.7898
壬子	-11.7898
舞袖	-11.7899
龍蟠	-11.7899
恩榮	-11.79
反側	-11.79
芰	-11.79
墨子	-11.7901
攬衣	-11.7901
送僧	-11.7901
崿	-11.7901
秀水	-11.7902
示人	-11.7903
昏昏	-11.7903
存其	-11.7903
圮	-11.7904
分司	-11.7904
不舉	-11.7904
也漢書	-11.7904
參議	-11.7904
者在	-11.7905
奏聞	-11.7906
殘年	-11.7907
與汝	-11.7909
命曰	-11.7909
彧	-11.791
不可得也	-11.791
闘	-11.791
十有七	-11.7911
肉食	-11.7911
時雍	-11.7914
牧馬	-11.7914
渡水	-11.7915
孝宣	-11.7915
冬夜	-11.7917
不見人	-11.7917
簫管	-11.7917
水墨	-11.7918
為師	-11.7919
瓊枝	-11.7919
輔弼	-11.792
分得	-11.792
上意	-11.7921
日髙	-11.7922
山之陽	-11.7923
亞夫	-11.7923
扳	-11.7924
其鄉	-11.7924
羶	-11.7926
所著有	-11.7926
戶	-11.7926
而増	-11.7926
青楓	-11.7927
無故	-11.7927
名園	-11.7928
選舉	-11.7931
起兵	-11.7932
醲	-11.7934
貔貅	-11.7934
先知	-11.7937
南郡	-11.7938
羽獵	-11.7939
終焉	-11.7939
送酒	-11.794
者爲	-11.7941
一飽	-11.7942
珠樹	-11.7943
輕車	-11.7943
難矣	-11.7943
䓁	-11.7943
不亡	-11.7944
衆皆	-11.7948
數子	-11.7949
貝葉	-11.7949
亦如	-11.795
半年	-11.795
危樓	-11.795
將盡	-11.795
行乎	-11.7951
侯景	-11.7953
結屋	-11.7954
皓首	-11.7954
其迹	-11.7955
十韻	-11.7955
棄其	-11.7956
百揆	-11.7959
考績	-11.7959
固難	-11.7962
不競	-11.7963
並起	-11.7963
終嵗	-11.7964
外國	-11.7964
宜乎	-11.7966
開皇	-11.7966
無咎	-11.7968
時俗	-11.797
而吾	-11.797
不得志	-11.797
亡者	-11.7971
我國家	-11.7971
龍宫	-11.7972
其族	-11.7972
庭下	-11.7973
秋浦	-11.7973
美哉	-11.7974
雪霽	-11.7974
美矣	-11.7976
三百篇	-11.7976
一度	-11.7976
不知何處	-11.7977
闗西	-11.7978
韋昭曰	-11.7979
駿奔	-11.7979
伐之	-11.798
端坐	-11.798
虎符	-11.7981
翩然	-11.7982
行宫	-11.7983
良臣	-11.7984
俶	-11.7984
感懷	-11.7984
吾之所	-11.7985
嶺外	-11.7986
屏山	-11.7986
碧梧	-11.7986
日影	-11.7986
鬪	-11.7986
心目	-11.7986
銛	-11.7987
雞豚	-11.7987
入覲	-11.7988
承命	-11.7988
先王之道	-11.799
輔政	-11.799
只合	-11.7991
寰	-11.7992
謝病	-11.7993
感舊	-11.7993
琅邪	-11.7995
葬于	-11.7996
五言絶句	-11.7997
詎知	-11.7998
浣花	-11.7998
不墜	-11.7998
哀公	-11.7999
入神	-11.7999
不言而	-11.8
又將	-11.8
簾櫳	-11.8001
仲尼之	-11.8001
止也	-11.8005
之次	-11.8005
此誠	-11.8006
夜宴	-11.8006
燈影	-11.8006
肆其	-11.8007
玉殿	-11.8008
年八	-11.8009
又謂	-11.801
苓	-11.801
日初	-11.801
鬐	-11.801
所施	-11.801
地軸	-11.8011
三歎	-11.8014
孤立	-11.8015
論事	-11.8016
知之矣	-11.8017
以文章	-11.8017
止之	-11.8017
登進士第	-11.8019
竊惟	-11.802
顧謂	-11.8022
行狀	-11.8022
假借	-11.8023
川流	-11.8023
張翰	-11.8024
竭力	-11.8024
致君	-11.8024
仁也	-11.8027
必曰	-11.8028
以避	-11.8028
之弟	-11.8031
照人	-11.8032
十有六	-11.8032
無别	-11.8032
平原君	-11.8032
歸途	-11.8032
澹然	-11.8033
讋	-11.8034
嵒	-11.8035
爰自	-11.8036
彬彬	-11.8036
綫	-11.8036
䆫	-11.8037
其前	-11.8037
婉孌	-11.8038
文景	-11.8038
三生	-11.8038
悰	-11.8039
大旱	-11.8039
殊俗	-11.8039
北有	-11.804
况於	-11.804
不念	-11.804
痼	-11.804
喚起	-11.804
便可	-11.8042
山川之	-11.8043
楊桞	-11.8043
㓙	-11.8043
武備	-11.8044
松枝	-11.8044
天風吹	-11.8044
道里	-11.8044
宜人	-11.8045
一紙	-11.8045
如君	-11.8046
閒身	-11.8047
以清	-11.8048
少傅	-11.8048
蓋以	-11.8049
千鈞	-11.8049
呉中	-11.8049
計其	-11.805
賦此	-11.805
激烈	-11.8051
𤣥武	-11.8051
懸崖	-11.8051
精兵	-11.8052
里巷	-11.8053
瑞應	-11.8053
下獄	-11.8055
巖廊	-11.8055
劉因	-11.8056
既定	-11.8057
漁者	-11.8057
逺也	-11.8058
冠葢	-11.8059
二十里	-11.8059
賦序	-11.8059
白屋	-11.806
矣予	-11.8061
舉目	-11.8061
葉葉	-11.8062
燈照	-11.8062
江隂	-11.8062
之譽	-11.8062
屣	-11.8062
吿	-11.8064
顙	-11.8065
烟樹	-11.8065
惬	-11.8065
興盡	-11.8066
老死	-11.8066
我公	-11.8066
王城	-11.8067
草緑	-11.807
春晝	-11.807
紫塞	-11.807
季札	-11.807
聖道	-11.8071
水碧	-11.8071
遂得	-11.8073
皓齒	-11.8073
源流	-11.8073
髙枝	-11.8075
許國	-11.8075
青牛	-11.8076
光宅	-11.8076
和鳴	-11.8076
少小	-11.8076
建昌	-11.8077
子敬	-11.8078
孟氏	-11.8079
也歟	-11.8079
㫖酒	-11.8079
一丈	-11.808
剖符	-11.808
殘紅	-11.808
之言曰	-11.8081
主客	-11.8081
雪晴	-11.8082
畫師	-11.8082
哉此	-11.8083
鄉思	-11.8083
嘗試	-11.8084
離家	-11.8084
與兄	-11.8084
之飾	-11.8085
平陵	-11.8085
又得	-11.8085
朱氏	-11.8086
欲向	-11.8089
半醉	-11.8089
御定全唐詩巻	-11.809
典章	-11.8091
撒	-11.8091
總是	-11.8091
昩	-11.8092
此情	-11.8092
窣	-11.8095
為相	-11.8095
討之	-11.8096
一端	-11.8096
蛾睂	-11.8097
兀兀	-11.8098
封事	-11.8099
元子	-11.8099
鴈行	-11.8101
實惟	-11.8102
從官	-11.8103
憑誰	-11.8103
晉卿	-11.8104
八陣	-11.8104
我知	-11.8106
山岳	-11.8107
令狐	-11.8107
曰朕	-11.8107
久客	-11.8108
天街	-11.8108
郎君	-11.8108
相語	-11.8109
感事	-11.8109
嵗在	-11.811
如是則	-11.811
素琴	-11.8111
莫惜	-11.8111
千餘里	-11.8112
為丞相	-11.8112
口占	-11.8112
當復	-11.8112
巉	-11.8113
出遊	-11.8113
霽色	-11.8114
于外	-11.8115
裵	-11.8116
不振	-11.8117
嫓	-11.8118
蟠桃	-11.8119
秋風起	-11.8119
閥	-11.8119
窆	-11.8119
七星	-11.8121
然矣	-11.8121
君獨	-11.8122
有九	-11.8127
紅紫	-11.8127
處置	-11.8127
富民	-11.8129
道場	-11.8129
帝業	-11.8129
輔臣	-11.8131
攜酒	-11.8131
不辱	-11.8132
移文	-11.8133
百度	-11.8133
壯麗	-11.8134
令公	-11.8134
栁枝	-11.8134
晚來	-11.8138
遭逢	-11.8139
寧有	-11.8139
御書	-11.8139
幾家	-11.814
㡬度	-11.814
四國	-11.8141
思所以	-11.8141
噤	-11.8142
稱臣	-11.8142
赤縣	-11.8142
習之	-11.8143
中林	-11.8143
軒車	-11.8143
伏乞	-11.8143
縝	-11.8145
之談	-11.8147
葬於	-11.8147
挽歌	-11.8148
渭川	-11.8148
可守	-11.8149
大川	-11.8149
武臣	-11.8152
暮天	-11.8152
𢷬	-11.8153
范成大	-11.8154
目斷	-11.8155
送鄭	-11.8156
尚矣	-11.8156
因事	-11.8158
故君子	-11.8158
又能	-11.8158
傳呼	-11.816
延頸	-11.816
十八日	-11.8161
未忘	-11.8161
如昨	-11.8161
長鯨	-11.8162
王維詩	-11.8162
其治	-11.8162
蕩子	-11.8162
片石	-11.8162
山陰	-11.8163
然若	-11.8166
危坐	-11.8166
急雨	-11.8169
紫泥	-11.817
白金	-11.817
曰君子	-11.817
遭時	-11.817
三峰	-11.817
祲	-11.8172
獰	-11.8172
勗	-11.8172
犒	-11.8173
惟聖	-11.8173
襜	-11.8173
衽	-11.8174
彤庭	-11.8174
不復見	-11.8174
大堤	-11.8175
千乘	-11.8175
垂老	-11.8176
諏	-11.8176
五曰	-11.8177
始自	-11.8177
貴於	-11.8177
奴婢	-11.8177
微之	-11.8178
送歸	-11.8178
非真	-11.8178
良田	-11.8179
不傷	-11.8179
臣伏見	-11.818
也古之	-11.818
茍非	-11.818
終難	-11.8181
鮪	-11.8181
舟檝	-11.8182
不覩	-11.8182
騎驢	-11.8182
日午	-11.8184
無迹	-11.8184
而言曰	-11.8184
不習	-11.8186
之華	-11.8188
其任	-11.8189
啞	-11.8189
宗師	-11.8189
吕公	-11.8192
紅樓	-11.8192
開元中	-11.8193
墨梅	-11.8194
鶴鳴	-11.8195
周覽	-11.8195
韙	-11.8197
至乃	-11.8197
水月	-11.8198
五福	-11.8198
囊中	-11.8199
四時之	-11.8199
吾言	-11.82
彎弓	-11.8201
用韻	-11.8202
交河	-11.8202
僅存	-11.8203
㕑	-11.8204
眇眇	-11.8206
祠下	-11.8207
劬勞	-11.8207
吏事	-11.821
光大	-11.821
殿上	-11.821
藜杖	-11.8211
將行	-11.8212
仙去	-11.8213
也春秋	-11.8213
湘中	-11.8213
之奥	-11.8214
良時	-11.8214
武后	-11.8214
以文學	-11.8215
草萊	-11.8218
江花	-11.8218
謝曰	-11.8218
季氏	-11.8218
既平	-11.8218
向南	-11.8219
之設	-11.8221
大呼	-11.8221
如雷	-11.8221
平樂	-11.8222
袁桷	-11.8222
明曹學佺編	-11.8222
三河	-11.8223
四體	-11.8224
墓銘	-11.8224
映日	-11.8226
林端	-11.8226
汩	-11.8227
郞	-11.8227
玉衡	-11.8227
黝	-11.8227
詎可	-11.8228
還應	-11.8228
亡矣	-11.8229
攬轡	-11.8229
博望	-11.823
天縱	-11.823
下情	-11.8231
夷陵	-11.8232
樹隂	-11.8232
聖學	-11.8233
於海	-11.8233
不書	-11.8233
族人	-11.8235
敵人	-11.8235
行臺	-11.8236
祫	-11.8236
子之言	-11.8239
引年	-11.8239
披襟	-11.8239
天下幸甚	-11.824
池亭	-11.8241
易知	-11.8242
雲梯	-11.8244
主恩	-11.8245
杜詩	-11.8246
能幾	-11.8246
詩篇	-11.8246
職司	-11.8247
此類	-11.8247
金紫	-11.8249
厥初	-11.8249
可稱	-11.825
武威	-11.825
靨	-11.8251
永和	-11.8251
今若	-11.8251
此其所以	-11.8251
四郊	-11.8252
碓	-11.8253
畹	-11.8253
獠	-11.8254
其質	-11.8254
詵	-11.8254
癸酉	-11.8254
竹石	-11.8255
哇	-11.8255
嶙峋	-11.8255
周召	-11.8256
的的	-11.8257
郁郁	-11.8257
烟火	-11.8257
招隱	-11.8258
觀乎	-11.8258
中謝	-11.8259
謝賜	-11.8261
猶勝	-11.8262
蕭颯	-11.8264
以往	-11.8264
必無	-11.8265
深居	-11.8268
百餘人	-11.8268
越中	-11.8268
紫宫	-11.8268
先祖	-11.827
鑑湖	-11.827
樹頭	-11.827
碑銘	-11.8272
吾觀	-11.8272
其所為	-11.8272
備物	-11.8273
襟帶	-11.8273
鍊師	-11.8275
不得與	-11.8278
劉歆	-11.8279
中官	-11.828
絡繹	-11.828
杳冥	-11.8281
辛酉	-11.8282
皦	-11.8283
睛	-11.8284
茒	-11.8285
無根	-11.8286
禰	-11.8286
沙鳥	-11.8286
墖	-11.8286
民物	-11.8287
雅樂	-11.8288
得賢	-11.8289
皇州	-11.829
命公	-11.8291
飛仙	-11.8292
相攜	-11.8292
虞夏	-11.8292
全其	-11.8293
最愛	-11.8293
鳴珂	-11.8295
招魂	-11.8295
全盛	-11.8296
深矣	-11.8297
學古	-11.8297
獲罪	-11.8297
孤嶼	-11.8299
饒州	-11.83
塞垣	-11.83
獨步	-11.8301
糞	-11.8302
齊名	-11.8303
變易	-11.8303
為宗	-11.8303
文史	-11.8303
城縣	-11.8304
不掩	-11.8305
司命	-11.8306
捎	-11.8307
諸司	-11.8307
初生	-11.8307
便覺	-11.8307
我本	-11.8308
以禦	-11.8308
多福	-11.8308
犇	-11.8308
庭院	-11.831
臘月	-11.8311
吾黨	-11.8312
恧	-11.8312
牧童	-11.8313
闕庭	-11.8313
薄宦	-11.8315
千里外	-11.8315
必當	-11.8315
何堪	-11.8316
横斜	-11.8317
大夏	-11.8317
老母	-11.8317
聦	-11.8317
百獸	-11.8318
無不可	-11.8318
四十六	-11.8318
二章	-11.8319
分散	-11.832
前史	-11.832
力盡	-11.8321
管子	-11.8321
城邊	-11.8322
寂莫	-11.8322
還復	-11.8322
百二	-11.8323
臨淄	-11.8323
其詳	-11.8323
初無	-11.8324
手詔	-11.8325
霓旌	-11.8326
名勝	-11.8326
巨靈	-11.833
洗心	-11.833
皆能	-11.8332
劈	-11.8333
又不能	-11.8334
而内	-11.8336
笑指	-11.8336
瓦礫	-11.8336
未出	-11.8337
媵	-11.8337
盱	-11.8337
洶洶	-11.8338
㐮	-11.8339
殪	-11.8339
叩頭	-11.8341
離恨	-11.8341
動天	-11.8341
奉寄	-11.8344
既醉	-11.8344
虎嘯	-11.8344
都無	-11.8345
公田	-11.8345
叔孫通	-11.8347
之操	-11.8348
六籍	-11.8348
張仲	-11.8349
孝公	-11.8349
恩光	-11.835
室中	-11.8351
林宗	-11.8351
散漫	-11.8353
不顯	-11.8353
未曾	-11.8354
與俱	-11.8356
閒吟	-11.8357
王佐	-11.8357
曉起	-11.8357
作頌	-11.8361
山海經	-11.8361
窶	-11.8363
一瓢	-11.8363
容華	-11.8364
腋	-11.8364
兩宫	-11.8365
寒更	-11.8365
餘香	-11.8366
麟閣	-11.8366
闔閭	-11.8368
誰將	-11.8369
官人	-11.837
古今樂録曰	-11.837
元吉	-11.837
珪璋	-11.8371
以厚	-11.8371
湘妃	-11.8373
可取	-11.8374
壯哉	-11.8377
霜月	-11.8381
上下相	-11.8381
荒蕪	-11.8382
尚何	-11.8387
大患	-11.8387
峨	-11.8388
早知	-11.8388
玉佩	-11.8388
得非	-11.8389
愁心	-11.8391
王郎	-11.8391
豈意	-11.8392
大德	-11.8392
鳬鷖	-11.8393
釭	-11.8393
鼎湖	-11.8394
峨眉	-11.8394
王化	-11.8394
涪	-11.8394
皺	-11.8394
蒯	-11.8394
樛	-11.8394
酎	-11.8395
刑獄	-11.8396
域中	-11.8396
鶴唳	-11.8396
精於	-11.8397
中都	-11.8397
居易	-11.8398
退食	-11.8399
攀龍	-11.84
葵藿	-11.84
木為	-11.84
灞陵	-11.84
三省	-11.8401
眀月	-11.8402
以佐	-11.8403
斬之	-11.8403
官家	-11.8404
何苦	-11.8404
仲冬	-11.8405
森然	-11.8406
治兵	-11.8407
元凱	-11.8408
真可	-11.8408
道旁	-11.8408
山莊	-11.8409
此景	-11.841
斧斤	-11.841
溪南	-11.841
所記	-11.841
蒼天	-11.8412
愛山	-11.8413
堦前	-11.8414
失道	-11.8415
羸馬	-11.8415
執手	-11.8415
斯乃	-11.8415
其狀	-11.8416
北窗	-11.8416
千五百	-11.8417
黎民	-11.8418
泰階	-11.8418
陳子	-11.8419
囑	-11.842
不免於	-11.8421
玉皇	-11.8422
溯	-11.8423
而不用	-11.8423
捄	-11.8423
卓犖	-11.8424
歸歟	-11.8425
婚姻	-11.8426
𥙿	-11.8426
或言	-11.8427
我輩	-11.8427
紈扇	-11.8428
頓首頓首	-11.8428
人之心	-11.8428
天地之間	-11.8429
更欲	-11.8429
汗血	-11.843
遥見	-11.843
東壁	-11.8431
重譯	-11.8432
几席	-11.8433
夜行	-11.8434
浮空	-11.8434
佛老	-11.8435
江浦	-11.8435
百鳥	-11.8435
嵌	-11.8435
晦明	-11.8437
四言	-11.8439
峭壁	-11.8439
長平	-11.8439
已多	-11.844
之辰	-11.844
難盡	-11.8442
獨歸	-11.8443
得道	-11.8443
九泉	-11.8443
掖庭	-11.8444
何憂	-11.8444
含章	-11.8445
大觀	-11.8445
知巳	-11.8447
之急	-11.8447
朝散大夫	-11.8447
黄老	-11.8448
犍	-11.845
懐人	-11.8451
陳王	-11.8451
諫議	-11.8451
詞人	-11.8451
者悉	-11.8453
松楸	-11.8453
後園	-11.8453
掌中	-11.8455
風暖	-11.8455
祖父	-11.8455
曠然	-11.8455
不令	-11.8456
巴東	-11.8456
雨暗	-11.8457
郯	-11.8457
休命	-11.8457
於楚	-11.8461
飛流	-11.8461
斜月	-11.8462
辨之	-11.8464
甚衆	-11.8464
玉杯	-11.8466
玉帳	-11.8467
顔延之	-11.8467
焉用	-11.8467
三伏	-11.8468
子夜	-11.8468
三十餘	-11.8469
北人	-11.8471
動植	-11.8471
垂垂	-11.8472
碧波	-11.8472
劉孝威	-11.8473
垂虹	-11.8473
耕田	-11.8473
凈	-11.8475
笙簧	-11.8475
諫議大夫	-11.8475
宴集	-11.8476
餘姚	-11.8477
恍然	-11.8478
多竒	-11.8479
不輕	-11.8479
偶作	-11.8479
胸臆	-11.848
炤	-11.848
為最	-11.848
千仭	-11.8481
武林	-11.8481
生前	-11.8484
贏得	-11.8484
孤飛	-11.8485
金罍	-11.8485
慘慘	-11.8485
泰始	-11.8485
者少	-11.8486
諸佛	-11.8487
固然	-11.8487
訢	-11.8488
也如此	-11.8489
狂夫	-11.8489
泰和	-11.8491
以就	-11.8492
以保	-11.8492
廣庭	-11.8493
文皇帝	-11.8494
當作	-11.8494
淅瀝	-11.8494
羽書	-11.8495
御史臺	-11.8496
恐其	-11.8497
不愆	-11.8497
珠箔	-11.8499
善曰楚辭曰	-11.8499
樹木	-11.8499
國王	-11.8501
琪	-11.8503
驚飛	-11.8503
潮落	-11.8503
月某日	-11.8504
洞府	-11.8504
善曰漢書	-11.8504
今何在	-11.8504
薈	-11.8505
石路	-11.8506
我何	-11.8506
林巒	-11.8506
釣舟	-11.8507
西齋	-11.8507
少長	-11.8507
歔欷	-11.8507
名器	-11.8508
困窮	-11.8508
不遣	-11.8509
金鼎	-11.851
地上	-11.8511
寒生	-11.8511
分流	-11.8511
山勢	-11.8512
猖狂	-11.8512
禮樂之	-11.8512
其器	-11.8512
假令	-11.8513
流波	-11.8513
樂道	-11.8513
灘聲	-11.8514
檢討	-11.8514
苑中	-11.8515
子真	-11.8516
楊維楨	-11.8517
河南府	-11.852
寄逺	-11.852
天聖	-11.8525
問於	-11.8525
好竒	-11.8526
南臺	-11.8527
一州	-11.8529
賻	-11.853
討賊	-11.8531
清浄	-11.8533
死罪	-11.8533
九門	-11.8533
黄石	-11.8533
百户	-11.8534
春官	-11.8534
召還	-11.8534
龍鍾	-11.8534
久已	-11.8535
應令	-11.8535
致身	-11.8535
竣	-11.8536
峻極	-11.8536
醉翁	-11.8536
溺於	-11.8538
諸君子	-11.8539
横笛	-11.8539
要害	-11.854
二聖	-11.854
寧復	-11.854
縱使	-11.8541
動靜	-11.8543
不拘	-11.8543
荒臺	-11.8543
勤苦	-11.8544
大法	-11.8545
果然	-11.8545
合浦	-11.8546
竟以	-11.8547
如洗	-11.8548
向夕	-11.8548
所守	-11.8549
可數	-11.8549
何如哉	-11.855
於皇	-11.855
在後	-11.8551
為御史	-11.8552
得地	-11.8553
愁來	-11.8553
者誠	-11.8554
不忒	-11.8558
江淹詩	-11.8558
禳	-11.856
可傳	-11.8561
惑於	-11.8561
不飛	-11.8562
天帝	-11.8562
的皪	-11.8562
内人	-11.8563
綠水	-11.8563
鴆	-11.8563
幰	-11.8564
珠翠	-11.8564
西林	-11.8566
莫笑	-11.8566
東君	-11.8567
勇者	-11.8567
四十二	-11.8569
鄭衛	-11.8574
無跡	-11.8575
勞心	-11.8578
芳春	-11.8578
禹穴	-11.8579
圜丘	-11.858
長春	-11.8581
述其	-11.8581
買臣	-11.8582
省中	-11.8582
沅湘	-11.8583
草蟲	-11.8585
鄆	-11.8587
龍潭	-11.8587
朱樓	-11.8588
雙旌	-11.8588
澶	-11.8588
楚雲	-11.8588
痛飲	-11.8588
暑氣	-11.8588
鎩	-11.8589
邾	-11.859
家藏	-11.859
戊午	-11.859
睦州	-11.859
如霜	-11.8591
琬琰	-11.8591
塵飛	-11.8592
鼓鼙	-11.8593
燈下	-11.8594
煤	-11.8594
水晶	-11.8594
隂晴	-11.8595
雲峰	-11.8596
憶舊	-11.8597
羣雄	-11.8597
三王之	-11.8598
公名	-11.8598
元夕	-11.8598
王喬	-11.86
雪消	-11.86
日星	-11.8601
請為	-11.8601
乘輿	-11.8602
殊不	-11.8602
塵沙	-11.8605
智力	-11.8606
憑髙	-11.8606
所論	-11.8606
喧喧	-11.8607
途窮	-11.8607
歲寒	-11.8607
□□	-11.8607
失意	-11.8607
露冷	-11.8608
華胥	-11.8608
枝頭	-11.8608
獄中	-11.8608
可期	-11.8608
待君	-11.8609
金鏡	-11.861
携手	-11.861
流螢	-11.861
郭外	-11.861
巖石	-11.861
乃欲	-11.861
永寧	-11.8612
經旬	-11.8612
曾無	-11.8612
暮色	-11.8613
之求	-11.8614
光芒	-11.8615
鴻飛	-11.8615
之弗	-11.8615
交加	-11.8617
庶政	-11.8617
惸	-11.8619
糊	-11.8619
瀹	-11.8619
豈容	-11.8619
王制	-11.8619
喟	-11.8623
㣲風	-11.8624
居常	-11.8624
薩	-11.8624
應難	-11.8625
刑部尚書	-11.8625
低昻	-11.8625
壁立	-11.8625
契濶	-11.8626
大統	-11.8626
龍光	-11.8626
與劉	-11.8627
一春	-11.8628
大丈夫	-11.8628
韓非	-11.8628
舉杯	-11.8629
聖天子	-11.863
霑衣	-11.8631
贈太師	-11.8631
籩豆	-11.8631
周書	-11.8631
多聞	-11.8631
懐王	-11.8632
方言曰	-11.8632
賢哲	-11.8633
靈武	-11.8635
曉發	-11.8636
有司之	-11.8637
凌霄	-11.864
劉基	-11.8642
方欲	-11.8642
穿雲	-11.8643
千萬里	-11.8643
丹桂	-11.8644
曰先生	-11.8645
喜氣	-11.8646
枳	-11.8646
紅藥	-11.8646
桮	-11.8646
各有所	-11.8646
濩	-11.8647
玉墀	-11.8647
君子曰	-11.8647
禮者	-11.8647
跣	-11.8647
惓惓	-11.8647
舅姑	-11.8647
赴闕	-11.8647
噫嘻	-11.8648
日昃	-11.8648
依前	-11.8648
天下之所	-11.8649
而走	-11.8649
縵	-11.865
悁	-11.865
空堂	-11.865
此固	-11.8651
味道	-11.8651
感此	-11.8652
容色	-11.8652
端午	-11.8653
水禽	-11.8654
眼底	-11.8654
安流	-11.8655
誰可	-11.8655
初疑	-11.8655
奕世	-11.8656
尚書省	-11.8657
莫與	-11.8657
之中而	-11.8657
聖躬	-11.8658
三十四	-11.8659
憂心	-11.8661
氣候	-11.8663
况今	-11.8664
齋集	-11.8665
咨爾	-11.8666
見訪	-11.8666
造化之	-11.8666
天章	-11.8666
大治	-11.8667
無失	-11.8667
海若	-11.8669
歸計	-11.8671
蹂	-11.8671
不早	-11.8673
宣撫	-11.8673
縣主簿	-11.8675
老弱	-11.8676
五載	-11.8676
東川	-11.8677
一編	-11.8678
冤	-11.8678
鍜	-11.8679
饜	-11.8679
絶人	-11.8679
小婦	-11.8679
左司	-11.868
釜	-11.868
寡婦	-11.8682
松蘿	-11.8682
羹	-11.8683
生民之	-11.8685
淑人	-11.8685
片月	-11.8686
歡喜	-11.8687
知其為	-11.8687
内侍	-11.8688
詣闕	-11.8689
一從	-11.869
慘澹	-11.869
陸游	-11.869
倚欄	-11.8691
猶堪	-11.8694
是誰	-11.8695
曰善	-11.8695
王畿	-11.8697
等皆	-11.8697
朝臣	-11.8698
皆然	-11.8698
囷	-11.8699
賜宴	-11.8699
結束	-11.87
舉也	-11.87
同賦	-11.87
罷歸	-11.8701
三靈	-11.8701
其容	-11.8703
魯直	-11.8704
兄子	-11.8706
負郭	-11.8708
獻賦	-11.8709
盛年	-11.8709
梅堯臣	-11.871
臺諫	-11.871
天孫	-11.8711
京畿	-11.8711
言志	-11.8712
舊聞	-11.8712
鼓瑟	-11.8713
與弟	-11.8714
織錦	-11.8715
吏士	-11.8715
摩詰	-11.8717
羲之	-11.8718
同上	-11.8718
金印	-11.8718
恭紀	-11.8718
居此	-11.8719
微吟	-11.8721
山椒	-11.8721
之濵	-11.8722
忠武	-11.8723
不曾	-11.8723
不放	-11.8723
爲君	-11.8725
閣道	-11.8725
之子孫	-11.8727
絶塵	-11.8727
快意	-11.8728
巖前	-11.8728
仰止	-11.8729
朝㑹	-11.8729
戊子	-11.8729
惟天	-11.8731
百卉	-11.8731
玉石	-11.8732
亦能	-11.8733
可汗	-11.8733
酣歌	-11.8733
繼以	-11.8733
經籍	-11.8734
兵部侍郎	-11.8736
載筆	-11.8736
臨終	-11.8738
髙皇帝	-11.8738
寒松	-11.8738
以薦	-11.8739
烏紗	-11.8739
河海	-11.874
都賦曰	-11.874
昆蟲	-11.8741
酒船	-11.8741
從兹	-11.8741
櫜	-11.8742
年六十	-11.8742
道徳之	-11.8742
樂奏	-11.8742
不能用	-11.8743
綽約	-11.8743
清逺	-11.8744
谷中	-11.8745
吾儕	-11.8745
華池	-11.8745
從古	-11.8745
衛將軍	-11.8746
廢而	-11.8746
無斁	-11.8746
諸路	-11.8748
建徳	-11.8748
不撓	-11.8748
倏	-11.875
由其	-11.875
特賜	-11.8751
投老	-11.8751
從教	-11.8751
平田	-11.8752
南金	-11.8752
履霜	-11.8752
凉州	-11.8753
一錢	-11.8753
陸賈	-11.8754
何患	-11.8755
三月三日	-11.8755
是宜	-11.8755
約而	-11.8757
破屋	-11.8757
鼙	-11.8757
河邊	-11.8757
夙昔	-11.8757
執㦸	-11.8759
厯代	-11.8759
逝者	-11.876
生塵	-11.8761
上之人	-11.8761
涂	-11.8762
黯黯	-11.8763
混一	-11.8763
鰕	-11.8763
分野	-11.8763
援琴	-11.8763
獨憐	-11.8764
鄭伯	-11.8764
三冬	-11.8765
蝟	-11.8765
鴿	-11.8765
前期	-11.8767
江空	-11.8767
順帝	-11.8767
孝敬	-11.8768
餘力	-11.8768
六卿	-11.8768
平林	-11.877
有疾	-11.877
山巔	-11.877
之碑	-11.877
晉公	-11.8771
百斛	-11.8773
墓在	-11.8774
赤日	-11.8774
于鱗	-11.8775
目極	-11.8776
賤妾	-11.8776
功利	-11.8777
之右	-11.8777
畫眉	-11.8778
移時	-11.8778
賢於	-11.8779
承家	-11.8779
無家	-11.8781
壁上	-11.8782
春曉	-11.8783
君亦	-11.8783
范公	-11.8784
勿使	-11.8784
祧	-11.8785
康樂	-11.8786
不知其所	-11.8786
客星	-11.8787
為國家	-11.8787
宦遊	-11.8788
幾多	-11.8788
風蕭蕭	-11.8788
因思	-11.8788
磷	-11.8789
隠几	-11.8789
祀事	-11.8789
之可也	-11.879
浣紗	-11.8791
子猷	-11.8791
帝力	-11.8791
曲盡	-11.8793
茯苓	-11.8793
未報	-11.8795
過失	-11.8795
林丘	-11.8795
章華	-11.8796
魏國	-11.8799
之績	-11.8799
竟誰	-11.88
任使	-11.8801
五十六	-11.8802
文苑	-11.8803
任賢	-11.8803
投壺	-11.8803
三兩	-11.8804
羽翮	-11.8805
馬援	-11.8807
海陵	-11.8808
二帝	-11.8808
碑文	-11.8809
臣言	-11.8811
曲曲	-11.8812
聖上	-11.8812
泰伯	-11.8812
徽音	-11.8814
戲作	-11.8816
玉漏	-11.8816
而不言	-11.8816
付與	-11.8817
言哉	-11.8818
汴州	-11.882
有違	-11.882
央	-11.8821
偉哉	-11.8821
六義	-11.8821
敧	-11.8822
草萋萋	-11.8824
青壁	-11.8824
剋	-11.8825
學於	-11.8826
節儉	-11.8827
俊乂	-11.8829
實難	-11.8829
未足以	-11.8829
琴操	-11.883
更生	-11.883
學宫	-11.8832
美女	-11.8833
陸贄	-11.8833
夷門	-11.8833
春到	-11.8833
瓊林	-11.8834
山中人	-11.8836
賡歌	-11.8836
斬首	-11.8837
披雲	-11.8837
天南	-11.8838
君子之所	-11.8838
贈張	-11.8838
不可攀	-11.8838
循良	-11.884
瞻仰	-11.884
皇祐	-11.8841
野橋	-11.8841
鐵笛	-11.8841
猶且	-11.8842
杏園	-11.8846
搖落	-11.8846
悌	-11.8847
詞林	-11.8849
褥	-11.8851
名都	-11.8851
淘	-11.8851
㨿	-11.8851
膓	-11.8852
白虹	-11.8853
黄鶴樓	-11.8854
協律	-11.8854
巋然	-11.8855
衰翁	-11.8856
橋上	-11.8857
秋菊	-11.8857
佩玉	-11.886
進士授	-11.8862
牧守	-11.8862
出兵	-11.8864
輕雲	-11.8865
習俗	-11.8868
西海	-11.8868
不專	-11.8868
戒之	-11.8869
江臯	-11.887
滔天	-11.8871
不怨	-11.8872
譬猶	-11.8874
燬	-11.8874
黄髪	-11.8874
農家	-11.8876
徬徨	-11.8877
磅礴	-11.8877
三十一	-11.8877
田舍	-11.8878
小詩	-11.8879
生生	-11.8879
蒔	-11.8879
所忌	-11.8879
嗅	-11.8879
峒	-11.888
誰其	-11.888
于後	-11.888
衆心	-11.8881
坐來	-11.8881
醉吟	-11.8881
偃仰	-11.8881
問道	-11.8881
捐軀	-11.8883
茀	-11.8883
蔡州	-11.8883
仙源	-11.8884
幾重	-11.8885
遼陽	-11.8886
郵亭	-11.8886
瑞氣	-11.8887
别館	-11.8887
清心	-11.8888
致治	-11.8888
臧否	-11.8888
牛斗	-11.8889
難成	-11.8889
官爵	-11.8891
荆公	-11.8892
見前注	-11.8893
十千	-11.8893
盛而	-11.8893
春雷	-11.8893
安世	-11.8894
雖曰	-11.8894
雕蟲	-11.8895
未然	-11.8895
徒然	-11.8895
因成	-11.8896
鳥語	-11.8896
已老	-11.8896
爾來	-11.8898
水部	-11.8898
聖世	-11.8899
頃之	-11.89
寒露	-11.8902
到門	-11.8903
贈李	-11.8903
微子	-11.8903
罷去	-11.8903
放歌	-11.8904
黄犢	-11.8904
拜手	-11.8907
三間	-11.8907
文宗	-11.8907
珣	-11.8908
三昧	-11.8908
枰	-11.8909
罌	-11.891
摽	-11.891
順流	-11.8911
媮	-11.8912
駙馬	-11.8912
祖諱	-11.8912
盤盤	-11.8914
人以為	-11.8914
畫舫	-11.8915
詩中	-11.8915
邊境	-11.8917
中酒	-11.8918
中立	-11.8918
田里	-11.8918
東西南北	-11.8919
畫堂	-11.892
晚晴	-11.892
丹霄	-11.8922
件	-11.8923
贊曰	-11.8923
歸興	-11.8924
聽雨	-11.8924
百世之	-11.8925
虹蜺	-11.8925
以罪	-11.8925
先登	-11.8926
羣小	-11.8926
那復	-11.8927
江梅	-11.8929
老我	-11.8931
悲歡	-11.8931
智伯	-11.8931
且莫	-11.8931
蕭曹	-11.8931
衆口	-11.8934
禺	-11.8936
興師	-11.8936
羣英	-11.8937
鈐	-11.8937
夜飲	-11.8938
洊	-11.8938
崒	-11.8939
雖異	-11.8941
太室	-11.8941
砦	-11.8943
東注	-11.8943
兼呈	-11.8943
桂陽	-11.8943
隴右	-11.8943
比丘	-11.8944
珩	-11.8944
瞬息	-11.8944
張正見	-11.8944
金輿	-11.8944
相失	-11.8946
殘雨	-11.8946
皇朝	-11.8947
孤鴻	-11.8947
樵漁	-11.8949
之區	-11.895
雁門	-11.8951
子昻	-11.8952
相因	-11.8954
五聲	-11.8957
故使	-11.8961
徐君	-11.8961
天順	-11.8963
忠賢	-11.8964
逸氣	-11.8965
而況	-11.8966
命將	-11.8966
轢	-11.8966
紬	-11.8967
稳	-11.8967
追贈	-11.8967
無名氏	-11.8967
翠色	-11.8968
欷	-11.897
臠	-11.897
靈光	-11.8971
次子	-11.8971
㶚	-11.8972
刁斗	-11.8972
陽山	-11.8974
其所以為	-11.8974
齊楚	-11.8974
鉅鹿	-11.8976
著作郎	-11.8976
非君	-11.8976
韓琦	-11.8976
山腰	-11.8977
茍不	-11.8977
正人	-11.8978
所過	-11.898
思家	-11.898
移居	-11.898
天造	-11.8981
朱絲	-11.8984
隨流水	-11.8985
明宗	-11.8985
文章辨體彚選巻四百	-11.8986
風行	-11.8986
禹之	-11.8987
受禪	-11.8987
畢竟	-11.8988
唐李	-11.8988
長信	-11.8989
福地	-11.899
並進	-11.8991
隔年	-11.8992
流蘇	-11.8993
紵	-11.8993
東陵	-11.8994
吟詠	-11.8994
譟	-11.8994
殳	-11.8994
而莫之	-11.8994
鴻漸	-11.8994
倨	-11.8996
興王	-11.8997
砧杵	-11.8998
登朝	-11.8998
芝田	-11.8998
猱	-11.8998
煙中	-11.8998
魏武帝	-11.8998
漙	-11.8999
關西	-11.8999
削成	-11.9
鱣	-11.9
嗟余	-11.9001
自君之出矣	-11.9002
索居	-11.9002
所造	-11.9002
寄李	-11.9003
醉來	-11.9005
鶴髪	-11.9006
軍容	-11.9007
水鳥	-11.9008
君臨	-11.9009
戲贈	-11.901
入仕	-11.901
仕者	-11.9011
拜舞	-11.9012
清芬	-11.9012
六十四	-11.9013
簫聲	-11.9015
别鶴	-11.9016
仁壽	-11.9016
夜氣	-11.9018
新居	-11.9018
齊民	-11.9018
曷若	-11.9019
擇之	-11.9019
傾心	-11.9019
還同	-11.9021
大塊	-11.9021
三界	-11.9024
時序	-11.9024
魚鱗	-11.9024
豺	-11.9025
本乎	-11.9025
秫	-11.9026
山堂	-11.9026
今月	-11.9027
寺門	-11.9028
無色	-11.9028
歳時	-11.9028
皇情	-11.9028
劉敞	-11.9028
客舟	-11.9028
天台山	-11.9029
行於世	-11.9029
瑶琴	-11.903
文正	-11.903
獲麟	-11.903
鯀	-11.9031
朱明	-11.9031
大有	-11.9032
未落	-11.9033
駕幸	-11.9034
可悲	-11.9037
焉若	-11.9037
有集	-11.9037
小亭	-11.9037
紫燕	-11.9037
土崩	-11.9037
尚想	-11.9037
不知處	-11.9038
蔽虧	-11.9038
而更	-11.9038
素絲	-11.904
所陳	-11.9042
流亡	-11.9044
士君子	-11.9045
謂宜	-11.9045
雞聲	-11.9046
香霧	-11.9046
不能寐	-11.9046
父諱	-11.9047
凡在	-11.9049
物物	-11.9049
樞宻	-11.9051
血氣	-11.9051
榮名	-11.9051
繁霜	-11.9052
寫真	-11.9053
有約	-11.9053
瘡痍	-11.9053
登覽	-11.9053
眷眷	-11.9055
柳宗元	-11.9056
窗前	-11.9056
魯望	-11.9056
此邦	-11.9056
嘉其	-11.9056
濟川	-11.9056
幬	-11.9058
枿	-11.9058
篔簹	-11.9058
幽思	-11.9059
秦地	-11.9059
天下國家	-11.9059
祖母	-11.906
第七	-11.9061
愷悌	-11.9061
將使	-11.9062
心力	-11.9062
相推	-11.9062
若能	-11.9063
君能	-11.9063
鐘鼎	-11.9064
多是	-11.9064
笑談	-11.9065
不染	-11.9065
主於	-11.9066
塵事	-11.9067
冨貴	-11.9067
浮海	-11.9067
城闉	-11.9068
亂流	-11.9068
戍樓	-11.907
火燒	-11.907
而巳矣	-11.907
遊絲	-11.9071
半月	-11.9072
挂冠	-11.9072
幽香	-11.9073
盈虚	-11.9074
魏志曰	-11.9075
行雨	-11.9076
糶	-11.9077
鱗甲	-11.9077
先塋	-11.9079
苴	-11.9079
魂夢	-11.9081
亭前	-11.9081
喬松	-11.9081
平昔	-11.9082
公輔	-11.9082
躬親	-11.9083
寒心	-11.9083
佳客	-11.9085
無待	-11.9086
無患	-11.9086
紅梅	-11.9086
洛浦	-11.9087
囹圄	-11.9087
璀璨	-11.9087
望斷	-11.9087
晻	-11.9088
之勲	-11.9088
曰天下	-11.9088
其根	-11.9089
鴈飛	-11.9089
絃管	-11.9089
生風	-11.9091
竒才	-11.9091
崇山	-11.9092
遼海	-11.9092
屈曲	-11.9092
無礙	-11.9092
簿領	-11.9092
煩君	-11.9093
一帶	-11.9093
伏惟皇帝陛下	-11.9094
宿草	-11.9094
潮聲	-11.9094
秋七月	-11.9095
人臣之	-11.9095
龍樓	-11.9095
曹子建	-11.9096
危亡	-11.9096
商鞅	-11.9096
閬風	-11.9096
徳澤	-11.9097
延壽	-11.9097
提壺	-11.9098
科斗	-11.9098
命世	-11.9099
嵐光	-11.9102
名號	-11.9102
繫舟	-11.9103
萬歲	-11.9103
未分	-11.9103
聊為	-11.9105
微微	-11.9106
亭午	-11.9109
嵗餘	-11.9109
奏請	-11.9109
方叔	-11.911
窪	-11.911
奄忽	-11.911
白雲飛	-11.911
雙溪	-11.9111
沈佺期	-11.9113
更覺	-11.9113
壙	-11.9113
肺肝	-11.9114
嗁	-11.9114
獨與	-11.9114
矣然則	-11.9115
放逐	-11.9115
闍	-11.9116
髙談	-11.9116
酩酊	-11.9118
夭矯	-11.9118
烏夜啼	-11.9119
磨滅	-11.912
鶺鴒	-11.9122
捕魚	-11.9122
廣武	-11.9122
姥	-11.9124
霜霰	-11.9124
將吏	-11.9124
于斯	-11.9126
七廟	-11.9126
聞奏	-11.9127
于天下	-11.9127
二紀	-11.9127
衆人之	-11.9128
士林	-11.913
嘉賔	-11.913
為惡	-11.913
畫一	-11.9131
善本	-11.9132
執筆	-11.9134
霧雨	-11.9135
但令	-11.9136
蕭寺	-11.9139
李侯	-11.9139
本根	-11.914
鬢毛	-11.9141
成均	-11.9141
昕	-11.9141
贈王	-11.9142
但得	-11.9142
蓬島	-11.9144
於庭	-11.9144
山禽	-11.9144
瘴癘	-11.9145
必須	-11.9145
以代	-11.9147
輻	-11.9147
雲霓	-11.9147
念君	-11.9148
宣力	-11.9148
凡人	-11.9149
惠帝	-11.9149
臨御	-11.915
自娛	-11.915
昃	-11.9151
送迎	-11.9152
懐舊	-11.9153
渥洼	-11.9153
之舞	-11.9154
束帛	-11.9154
可復	-11.9154
固守	-11.9156
追思	-11.9157
鄂州	-11.9157
孔門	-11.9157
兩行	-11.9158
丹書	-11.9159
往時	-11.916
區中	-11.916
經國	-11.916
簷前	-11.916
其尤	-11.9162
愁苦	-11.9162
聞說	-11.9162
上流	-11.9162
矣嗚呼	-11.9163
笛聲	-11.9163
大駕	-11.9164
乗槎	-11.9165
優㳺	-11.9165
禮容	-11.9165
真定	-11.9168
清新	-11.9169
退居	-11.9169
清吟	-11.9171
犯法	-11.9172
建炎	-11.9172
宿霧	-11.9172
横江	-11.9172
然後可以	-11.9173
紿	-11.9173
桓文	-11.9173
淖	-11.9175
變通	-11.9175
不發	-11.9175
出納	-11.9176
筆削	-11.9176
䆒	-11.9177
字季	-11.9178
櫬	-11.9179
衣上	-11.9179
糢糊	-11.9179
沈吟	-11.9179
用意	-11.9179
涕泗	-11.9179
逡廵	-11.918
不繫	-11.918
雲陽	-11.918
下方	-11.918
神氣	-11.918
飯牛	-11.918
未達	-11.9181
黄牛	-11.9181
誰共	-11.9181
偃息	-11.9182
水土	-11.9183
鎮撫	-11.9183
歸老	-11.9184
之所不能	-11.9184
𤣥都	-11.9184
彛倫	-11.9184
曈曨	-11.9185
吏人	-11.9185
出谷	-11.9186
能忘	-11.9187
襲美	-11.9188
今天子	-11.9189
荻花	-11.9189
簾外	-11.9191
孔安國尚書傳曰	-11.9191
為美	-11.9192
初發	-11.9194
寒塘	-11.9194
天保	-11.9195
清響	-11.9197
袁紹	-11.9197
風水	-11.9197
字字	-11.9198
延齡	-11.9198
武夫	-11.9199
以為非	-11.9199
昔為	-11.92
吏治	-11.92
聶	-11.92
既沒	-11.9201
春心	-11.9201
最多	-11.9201
如聞	-11.9202
端拱	-11.9203
不懼	-11.9203
文皇	-11.9204
巖花	-11.9204
初學記	-11.9204
似水	-11.9204
前殿	-11.9204
芊	-11.9205
猪	-11.9206
肺腑	-11.9206
九州之	-11.9206
王屋	-11.9207
豁然	-11.9207
鎗	-11.9208
觸石	-11.921
庭闈	-11.921
椅	-11.9211
景雲	-11.9212
五十里	-11.9212
斷魂	-11.9213
東萊	-11.9213
欲成	-11.9215
思量	-11.9217
青海	-11.9217
毫髪	-11.9217
理亂	-11.9217
越裳	-11.9218
送子	-11.9219
瘦馬	-11.9219
南華	-11.9219
惟君	-11.922
相仍	-11.922
於此矣	-11.9221
利用	-11.9221
雲和	-11.9221
廵撫	-11.9222
之歡	-11.9222
甲寅	-11.9222
無求	-11.9223
虚舟	-11.9223
五方	-11.9224
茂林	-11.9224
至和	-11.9227
暮歸	-11.9228
襄城	-11.9229
地中	-11.923
相邀	-11.923
遐想	-11.9231
年七月	-11.9231
碧雞	-11.9232
瑤池	-11.9232
二尺	-11.9233
制勝	-11.9233
收其	-11.9234
咸通	-11.9235
不巳	-11.9235
高山	-11.9235
酒食	-11.9235
四十三	-11.9236
法則	-11.9236
賭	-11.9237
聖俞	-11.9237
照見	-11.9237
其所謂	-11.9238
景仁	-11.9238
所奏	-11.9238
㕘軍	-11.9239
狠	-11.9239
地利	-11.9239
對雨	-11.9239
往来	-11.924
㐫	-11.924
田間	-11.924
大将軍	-11.924
倚門	-11.9241
汾隂	-11.9242
者唯	-11.9243
綱目	-11.9243
影裏	-11.9245
始信	-11.9245
倡和	-11.9247
得魚	-11.9247
有如此	-11.9249
獅子	-11.9249
九龍	-11.925
茅堂	-11.9251
江總詩	-11.9253
州長史	-11.9253
堂中	-11.9254
請命	-11.9254
玉色	-11.9259
毫端	-11.926
言念	-11.926
王宫	-11.9261
璟	-11.9261
縣西	-11.9262
樹老	-11.9262
而可以	-11.9265
吉士	-11.9267
之力也	-11.9268
昌期	-11.9269
集賢院	-11.927
清曠	-11.927
潦倒	-11.927
泬寥	-11.927
四十七	-11.927
羆	-11.927
長淮	-11.927
絪緼	-11.9271
穂	-11.9271
碧流	-11.9271
圖籍	-11.9271
不先	-11.9272
愔愔	-11.9272
斧鉞	-11.9272
其議	-11.9273
卜筮	-11.9274
寄王	-11.9276
興衰	-11.9277
也聖人	-11.9278
泗水	-11.9279
大火	-11.928
如見	-11.9281
未行	-11.9281
荒服	-11.9282
相映	-11.9283
重瞳	-11.9285
濯濯	-11.9285
丹楓	-11.9285
野店	-11.9286
也楚辭曰	-11.9287
孤臣	-11.9287
有涯	-11.9287
㣲臣	-11.9287
金湯	-11.9289
巧笑	-11.929
讜	-11.929
馳逐	-11.929
飄泊	-11.9291
相追	-11.9291
各以其	-11.9291
是之謂	-11.9291
昭回	-11.9291
江右	-11.9292
甘雨	-11.9293
與君同	-11.9293
故實	-11.9294
龜山	-11.9296
狸	-11.9296
溘	-11.9297
狐兔	-11.9299
觚稜	-11.93
大孝	-11.93
蓋有	-11.93
詞客	-11.9301
熈熈	-11.9301
况有	-11.9302
貧家	-11.9302
猿鳥	-11.9304
不醉	-11.9304
臣某言	-11.9304
暗香	-11.9305
新開	-11.9305
樂善	-11.9305
先民	-11.9307
郅支	-11.9309
之虞	-11.931
蜀中	-11.9311
蘇門	-11.9312
司勲	-11.9312
明妃	-11.9312
書畫	-11.9313
㑹要	-11.9313
殊不知	-11.9314
貧富	-11.9314
松菊	-11.9317
風色	-11.9318
安道	-11.9318
賜以	-11.9318
初心	-11.9318
羽客	-11.9318
塵寰	-11.9319
於戯	-11.932
他山	-11.9322
鏞	-11.9322
闕名	-11.9322
以輔	-11.9323
天晴	-11.9325
悤悤	-11.9326
饔	-11.9326
不赴	-11.9326
渭城	-11.9327
蒲團	-11.9327
茂才	-11.9327
貴妃	-11.9328
千祀	-11.9329
和王	-11.9329
之得失	-11.9329
硬	-11.9329
不得見	-11.933
峨峨	-11.9332
北里	-11.9334
欲斷	-11.9335
饑饉	-11.9335
一逕	-11.9336
潭州	-11.9336
矣昔	-11.9336
姑蘇臺	-11.9336
題張	-11.9336
蓺	-11.9336
可見矣	-11.9337
殘夢	-11.9337
不礙	-11.9338
長途	-11.9339
順風	-11.934
茅齋	-11.934
金聲	-11.934
無營	-11.9341
洮	-11.9343
序云	-11.9343
起居注	-11.9343
南澗	-11.9344
傷哉	-11.9345
馬足	-11.9345
咄	-11.9347
任昉	-11.9347
信宿	-11.9347
黄鐘	-11.935
渾無	-11.935
舒巻	-11.935
南中	-11.935
敢問	-11.935
當然	-11.9352
皆謂	-11.9354
戚里	-11.9354
桺	-11.9355
加焉	-11.9355
舁	-11.9357
恚	-11.9358
五刑	-11.9358
如海	-11.9359
糗	-11.9359
石徑	-11.9359
飛瀑	-11.936
千花	-11.936
受詔	-11.936
風采	-11.9361
榕	-11.9361
瘵	-11.9361
雖殊	-11.9362
寵榮	-11.9363
爛熳	-11.9363
驪龍	-11.9364
未極	-11.9364
癭	-11.9364
瑀	-11.9365
几杖	-11.9365
苑囿	-11.9366
遥聞	-11.9366
江蘺	-11.9369
鵷鷺	-11.937
之篇	-11.937
未畢	-11.9371
相府	-11.9372
不周	-11.9372
楊墨	-11.9374
荷衣	-11.9375
在躬	-11.9376
天運	-11.9379
孟冬	-11.9379
之所以為	-11.938
帝里	-11.938
廣徳	-11.9381
宗周	-11.9381
暮宿	-11.9382
流連	-11.9383
崦	-11.9385
岑參	-11.9385
松筠	-11.9386
噓	-11.9386
九萬	-11.9387
疾也	-11.9387
㴱	-11.9387
僇	-11.9388
豫州	-11.9388
南溪	-11.9388
户口	-11.9388
脇	-11.9389
孀	-11.9389
凭欄	-11.939
林薄	-11.939
所習	-11.939
未就	-11.939
壌	-11.9391
靦	-11.9391
伉	-11.9392
未備	-11.9392
髙第	-11.9392
吕氏春秋曰	-11.9393
文教	-11.9394
内閣	-11.9394
纚	-11.9395
知何處	-11.9395
噲	-11.9396
内府	-11.9396
騂	-11.9396
篚	-11.9397
烟雲	-11.9397
為帝	-11.9399
䧺	-11.9399
崇朝	-11.94
補天	-11.94
萬松	-11.9401
鴻名	-11.9403
重臣	-11.9403
昭帝	-11.9405
西家	-11.9405
文墨	-11.9405
三復	-11.9408
誰信	-11.9409
數千人	-11.941
疑有	-11.9411
苧	-11.9411
刑措	-11.9411
所寄	-11.9413
御極	-11.9413
固亦	-11.9416
髫	-11.9417
雁聲	-11.9417
九土	-11.9417
新春	-11.9417
已復	-11.9418
六翮	-11.9419
行到	-11.942
飛動	-11.9421
史傳	-11.9421
姨	-11.9421
師曠	-11.9421
不怕	-11.9422
莱	-11.9422
黄華	-11.9424
託於	-11.9424
不充	-11.9424
山村	-11.9425
柏梁	-11.9425
泛泛	-11.9426
村居	-11.9426
屈平	-11.9426
光風	-11.9426
依山	-11.9427
日月星辰	-11.9427
縣有	-11.9427
徽宗	-11.9429
而歌	-11.9429
斷橋	-11.943
雨氣	-11.9431
漢世	-11.9431
延平	-11.9432
一條	-11.9432
當道	-11.9432
度曲	-11.9433
徐公	-11.9433
不親	-11.9434
野鳥	-11.9435
隔簾	-11.9436
焉然	-11.9437
治世	-11.9437
以補	-11.9437
拂雲	-11.9437
丹崖	-11.9437
寒鴉	-11.9438
洪州	-11.9439
號稱	-11.9441
每嵗	-11.9441
閣上	-11.9443
閒閒	-11.9443
繫於	-11.9444
可是	-11.9445
伏念臣	-11.9445
尤為	-11.9446
如龍	-11.9446
乗時	-11.9447
之純	-11.9447
博山	-11.9448
[...]
