<unk>	0
<s>	0
</s>	0
─	-3.39162
之	-4.65868
(	-4.85236
/	-5.11621
而	-5.17329
以	-5.25482
)	-5.25579
有	-5.32422
為	-5.4681
也	-5.49173
者	-5.5699
花	-5.63235
香	-5.64954
其	-5.69492
如	-5.71264
一	-5.74765
不	-5.76169
中	-5.79619
生	-5.83348
於	-5.83831
/)	-5.93115
子	-5.9444
人	-5.97414
増	-6.05087
原	-6.06561
水	-6.06829
出	-6.10951
曰	-6.11237
作	-6.12366
無	-6.14123
與	-6.14348
時	-6.14644
上	-6.15236
則	-6.16032
葉	-6.18255
大	-6.20468
山	-6.27356
用	-6.27574
自	-6.27912
春	-6.35216
得	-6.36613
石	-6.36749
白	-6.37821
下	-6.39616
長	-6.40781
多	-6.42357
入	-6.42944
風	-6.45817
紅	-6.46526
云	-6.47931
黄	-6.48495
一名	-6.48725
至	-6.48753
見	-6.4907
亦	-6.50612
在	-6.51367
此	-6.51445
增	-6.54605
可	-6.54729
小	-6.55121
茶	-6.55513
三	-6.56476
▁	-6.56865
草	-6.57193
開	-6.57473
似	-6.5861
色	-6.59308
又	-6.59603
名	-6.60239
竹	-6.6037
成	-6.62214
樹	-6.62453
天	-6.63121
皆	-6.63552
新	-6.65308
日	-6.65675
兮	-6.67534
木	-6.67706
後	-6.68204
去	-6.68423
同	-6.69497
或	-6.69922
青	-6.7123
取	-6.71403
若	-6.71473
種	-6.74575
金	-6.75233
二	-6.76983
乃	-6.77696
及	-6.77892
)(	-6.78023
方	-6.78816
即	-6.79721
已	-6.80105
心	-6.80128
是	-6.80886
今	-6.81254
雲	-6.82755
清	-6.82847
酒	-6.82917
根	-6.84423
故	-6.84868
食	-6.84899
氣	-6.85045
寒	-6.85519
魚	-6.85839
文	-6.86658
秋	-6.87498
欲	-6.88029
實	-6.88216
玉	-6.88267
王	-6.88274
地	-6.88318
行	-6.88438
枝	-6.89349
然	-6.89395
來	-6.89735
相	-6.89791
詩	-6.90577
初	-6.92015
所	-6.93329
傳	-6.93509
月	-6.94766
髙	-6.95022
書	-6.95449
紫	-6.95968
菊	-6.96793
和	-6.97529
重	-6.97648
非	-6.98931
兩	-7.00473
明	-7.00554
深	-7.0205
分	-7.04001
言	-7.04188
未	-7.05976
更	-7.06607
于	-7.08768
令	-7.08909
處	-7.0987
頭	-7.10055
矣	-7.11589
老	-7.11615
當	-7.11749
過	-7.12486
能	-7.12797
細	-7.12972
梅	-7.13612
盡	-7.13725
家	-7.14979
五	-7.15376
因	-7.15758
四	-7.16379
公	-7.17204
知	-7.17246
先	-7.17401
雨	-7.17494
光	-7.17623
惟	-7.17831
宜	-7.18026
州	-7.18276
賦	-7.18617
間	-7.18688
道	-7.18931
雪	-7.19052
内	-7.1912
發	-7.19328
松	-7.19368
唐	-7.20863
半	-7.21691
獨	-7.21969
空	-7.2198
何	-7.22534
常	-7.22672
好	-7.23121
龍	-7.23306
華	-7.23816
李	-7.24103
將	-7.24592
土	-7.25076
宋	-7.25483
前	-7.25723
錢	-7.26755
南	-7.26873
正	-7.27896
来	-7.28237
熟	-7.28479
火	-7.28512
古	-7.29231
物	-7.30284
林	-7.30566
君	-7.31406
復	-7.31825
墨	-7.32046
從	-7.32191
記	-7.32218
合	-7.32511
緑	-7.32606
數	-7.32969
元	-7.33055
味	-7.33605
外	-7.33666
本	-7.33694
應	-7.34076
事	-7.35153
起	-7.3536
露	-7.35692
異	-7.35898
飛	-7.36331
甚	-7.36378
芳	-7.36795
西	-7.37248
耳	-7.37379
硯	-7.37483
滿	-7.37602
平	-7.37622
使	-7.37892
歸	-7.38168
節	-7.38344
向	-7.38349
微	-7.38497
雖	-7.38705
輕	-7.38771
少	-7.38847
乎	-7.392
我	-7.39419
海	-7.39657
夜	-7.39857
東	-7.40942
字	-7.41099
結	-7.41694
客	-7.42043
落	-7.42209
舊	-7.42482
江	-7.437
霜	-7.43794
且	-7.43896
逺	-7.44111
治	-7.44391
隂	-7.44849
仙	-7.45155
近	-7.45492
思	-7.45792
翠	-7.46007
謂	-7.46304
皮	-7.46524
每	-7.46769
臣	-7.47438
真	-7.47973
經	-7.48051
陽	-7.49551
通	-7.49621
聞	-7.49909
别	-7.5
意	-7.50249
張	-7.50975
焉	-7.51114
神	-7.51357
醉	-7.51524
猶	-7.5206
還	-7.52252
蘭	-7.52415
易	-7.53088
諸	-7.53121
看	-7.53563
難	-7.53582
類	-7.53848
朝	-7.54958
美	-7.54968
餘	-7.55301
流	-7.55545
始	-7.5555
野	-7.55602
散	-7.56027
居	-7.56204
著	-7.56225
碧	-7.56991
凡	-7.57157
聲	-7.57715
赤	-7.57723
直	-7.57733
既	-7.58315
但	-7.58626
乾	-7.5891
國	-7.59019
莖	-7.59034
扵	-7.59341
年	-7.59388
法	-7.59579
世	-7.59646
採	-7.60773
勝	-7.61121
官	-7.61374
柳	-7.61754
謂之	-7.61783
觀	-7.6246
極	-7.62621
綠	-7.62663
稱	-7.62734
百	-7.63093
手	-7.63592
陳	-7.63988
録	-7.64329
面	-7.64423
留	-7.64443
莫	-7.64549
九	-7.6467
夏	-7.64683
筆	-7.65426
園	-7.65512
衣	-7.66129
遂	-7.6663
右	-7.66997
漢	-7.67435
甘	-7.67511
苦	-7.67607
萬	-7.67664
桃	-7.67781
馬	-7.68079
嘗	-7.6815
形	-7.68688
門	-7.68703
安	-7.68826
並	-7.68858
歌	-7.6951
必	-7.6992
足	-7.70746
一兩	-7.70913
藥	-7.71177
采	-7.71203
共	-7.71932
高	-7.72151
以為	-7.72174
口	-7.72264
不可	-7.72396
北	-7.72679
蟹	-7.72742
烟	-7.72802
含	-7.73058
志	-7.73064
植	-7.73208
泉	-7.73776
帶	-7.73806
女	-7.73958
煙	-7.74031
粉	-7.74234
性	-7.74361
素	-7.74576
吾	-7.74648
誰	-7.74676
幽	-7.74738
果	-7.74886
比	-7.75029
十	-7.75307
筍	-7.75321
盛	-7.75418
絶	-7.7542
珠	-7.75768
六	-7.76187
肉	-7.76438
附	-7.7678
嵗	-7.76792
連	-7.77329
末	-7.77359
病	-7.77879
須	-7.77895
垂	-7.77921
便	-7.78011
千	-7.7818
菜	-7.78342
條	-7.78348
夫	-7.78697
羅	-7.78739
丹	-7.78769
田	-7.78795
俱	-7.79059
飲	-7.79103
品	-7.79622
湯	-7.79784
收	-7.79877
眼	-7.80235
折	-7.80515
宫	-7.8052
蓋	-7.80657
冷	-7.80767
池	-7.80869
麥	-7.81081
裏	-7.81164
對	-7.8127
身	-7.81324
靈	-7.81565
周	-7.8194
注	-7.8242
城	-7.82441
薄	-7.82921
坐	-7.83336
題	-7.83358
謝	-7.83406
冬	-7.8348
各	-7.83878
爾	-7.83892
英	-7.84054
移	-7.84066
動	-7.84108
詠	-7.84114
葢	-7.84205
影	-7.84537
寄	-7.84799
隨	-7.8484
浮	-7.84927
朱	-7.84943
目	-7.8546
氏	-7.85586
許	-7.85992
桑	-7.87101
笑	-7.8711
廣	-7.87142
問	-7.87665
帝	-7.88018
立	-7.88211
愛	-7.88421
齊	-7.88514
久	-7.88711
叢	-7.88727
厚	-7.88826
置	-7.88967
精	-7.89183
竒	-7.89252
豈	-7.89421
夢	-7.8952
溪	-7.89809
牡丹	-7.89913
止	-7.90107
集	-7.90848
到	-7.90874
景	-7.91102
藏	-7.91112
余	-7.91269
曲	-7.91418
僧	-7.91446
服	-7.91448
潤	-7.91757
骨	-7.91912
棗	-7.92177
遊	-7.92209
破	-7.92213
亭	-7.92375
七	-7.9245
本草	-7.92683
却	-7.92866
情	-7.92879
桂	-7.92961
畫	-7.93247
望	-7.93281
布	-7.9335
載	-7.9336
路	-7.93655
尚	-7.93687
縣	-7.94217
興	-7.94324
熱	-7.94563
最	-7.94584
早	-7.9467
益	-7.94683
驚	-7.94751
荔支	-7.94885
卷	-7.95219
譜	-7.95243
製	-7.95263
米	-7.95761
引	-7.95915
主	-7.95999
㸃	-7.96002
首	-7.9616
定	-7.96226
瓜	-7.96234
庭	-7.96369
圓	-7.96624
錦	-7.96633
解	-7.97602
塵	-7.97868
映	-7.98233
堂	-7.98584
疑	-7.98694
語	-7.98769
照	-7.98883
送	-7.99015
信	-7.99108
沙	-7.99185
次	-7.9934
八	-7.99437
榮	-7.99577
徳	-7.99815
貴	-7.99892
命	-8.00285
體	-8.00654
吳	-8.0066
亂	-8.00836
容	-8.01013
橘	-8.01078
雜	-8.01308
不知	-8.01703
劉	-8.0172
喜	-8.01948
待	-8.02012
都	-8.02232
賞	-8.02607
堅	-8.02682
等	-8.03097
善	-8.03476
集藻	-8.03669
肥	-8.03705
盖	-8.04473
求	-8.04584
利	-8.04974
質	-8.05305
音	-8.05427
染	-8.05758
彼	-8.06029
度	-8.06144
愁	-8.06361
樂	-8.06376
圖	-8.06394
終	-8.0643
絲	-8.06447
珍	-8.06473
化	-8.06806
晚	-8.06931
要	-8.07007
賜	-8.07473
盤	-8.07486
臨	-8.07532
忽	-8.07561
致	-8.07573
按	-8.07743
論	-8.07898
秀	-8.07957
食之	-8.08023
産	-8.08169
就	-8.08257
汁	-8.08335
海棠	-8.08454
濕	-8.08469
俗	-8.0848
澤	-8.08611
艶	-8.08692
民	-8.08848
轉	-8.09142
殿	-8.09425
蓮	-8.09918
遺	-8.1
栽	-8.10072
鳥	-8.102
彚考	-8.10346
研	-8.10623
春風	-8.10663
波	-8.10747
理	-8.10875
殊	-8.10921
星	-8.11075
寳	-8.11141
蒸	-8.11158
斷	-8.11539
太	-8.11836
予	-8.11981
進	-8.12077
全	-8.12134
半兩	-8.12351
力	-8.12538
臺	-8.13081
獻	-8.13135
泥	-8.13153
房	-8.13405
黒	-8.13462
凝	-8.13742
紙	-8.13848
摘	-8.14016
交	-8.14027
衆	-8.14274
鮮	-8.14888
江南	-8.14911
疎	-8.15237
士	-8.15327
梅花	-8.15375
毛	-8.15504
曉	-8.15557
端	-8.16124
學	-8.16205
芽	-8.16265
麝香	-8.16294
晩	-8.16362
曽	-8.1643
造	-8.16507
吹	-8.1655
不能	-8.16954
佳	-8.16993
蜀	-8.17059
候	-8.17063
𤣥	-8.172
號	-8.17393
加	-8.17505
被	-8.17536
繁	-8.17951
説	-8.18123
眀	-8.18196
吐	-8.18405
接	-8.18446
固	-8.1853
休	-8.18586
堪	-8.18899
瓣	-8.18908
油	-8.19045
蜜	-8.1906
嘉	-8.19206
㑹	-8.19222
黑	-8.1932
燕	-8.19742
傷	-8.19811
梁	-8.20001
茂	-8.20413
尋	-8.20613
殘	-8.20916
血	-8.20917
寺	-8.21017
死	-8.21085
稍	-8.21154
恨	-8.21165
試	-8.21306
烏	-8.21502
幾	-8.21611
孤	-8.2173
麻	-8.21737
修	-8.21779
温	-8.21871
指	-8.22179
煮	-8.22184
府	-8.22208
象	-8.22275
密	-8.22472
狀	-8.22475
尤	-8.22716
覆	-8.22872
拂	-8.22893
離	-8.22937
識	-8.22964
列	-8.23005
楊	-8.2321
将	-8.23222
麗	-8.23319
傍	-8.23413
宿	-8.23551
遇	-8.23583
閒	-8.23603
錄	-8.24151
晉	-8.24208
變	-8.24346
韻	-8.24378
斯	-8.24496
只	-8.24497
消	-8.24512
偏	-8.24558
角	-8.24983
背	-8.25068
再	-8.2514
而不	-8.25709
良	-8.25782
斜	-8.26042
功	-8.26052
御	-8.26059
嫩	-8.26097
徑	-8.26185
屬	-8.26272
稻	-8.26338
藤	-8.26389
豆	-8.26391
中有	-8.26642
煑	-8.26829
漸	-8.27151
器	-8.2736
封	-8.27588
丁香	-8.2797
永	-8.28089
持	-8.28136
刻	-8.28369
恐	-8.28436
㸔	-8.28606
鳴	-8.28654
玊	-8.2905
可以	-8.29354
一種	-8.29364
浸	-8.29473
蘇	-8.29554
羣	-8.29975
淡	-8.30035
仍	-8.30134
洗	-8.30206
銘	-8.30357
霞	-8.30484
蒲	-8.30511
懐	-8.30514
蟲	-8.3079
芝	-8.30883
舉	-8.309
亦有	-8.3128
特	-8.31434
蕊	-8.31529
仁	-8.31811
母	-8.31841
除	-8.31911
趙	-8.31913
一枝	-8.3195
登	-8.32105
惡	-8.32308
師	-8.32311
虚	-8.32503
燒	-8.32809
貢	-8.32815
栗	-8.32837
毒	-8.32927
荷	-8.32953
郡	-8.33173
牛	-8.3323
放	-8.3334
横	-8.3376
暖	-8.33807
煎	-8.33915
楚	-8.34109
杏	-8.34436
雞	-8.34502
守	-8.34507
疾	-8.34517
銀	-8.34856
柔	-8.34894
側	-8.34903
吟	-8.34955
史	-8.3523
表	-8.35347
巖	-8.35562
不得	-8.35661
邊	-8.35898
凉	-8.35905
樓	-8.36017
軟	-8.36188
車	-8.36535
膏	-8.36662
碎	-8.3672
柏	-8.37014
幸	-8.37047
䨇	-8.37335
積	-8.37703
短	-8.37835
濃	-8.37837
薦	-8.37849
受	-8.3787
序	-8.37909
灰	-8.38266
閣	-8.3828
瑞	-8.38455
失	-8.38467
感	-8.38567
孫	-8.38606
友	-8.38786
頗	-8.38859
冠	-8.3896
桃花	-8.39181
舞	-8.3927
梨	-8.39399
逐	-8.39451
翻	-8.39611
淺	-8.39672
兒	-8.39778
聖	-8.3984
詞	-8.40481
皇	-8.40534
顧	-8.40586
工	-8.40684
栁	-8.40868
暗	-8.41094
翦	-8.41238
檀香	-8.41426
章	-8.41484
枯	-8.41599
期	-8.42132
遲	-8.42134
所謂	-8.42194
視	-8.42238
晴	-8.42266
三月	-8.4238
芙蓉	-8.42507
暮	-8.42596
爛	-8.42605
㣲	-8.42715
寶	-8.42831
刺	-8.43099
昔	-8.43113
供	-8.43461
故名	-8.43463
底	-8.43503
妝	-8.43762
寧	-8.43835
哉	-8.43901
胡	-8.4396
惜	-8.44008
核	-8.44016
苗	-8.44146
沈	-8.44218
片	-8.44395
漿	-8.44491
榖	-8.44789
呼	-8.44832
補	-8.45007
覺	-8.45143
陸	-8.45456
沉	-8.45653
室	-8.45797
井	-8.45803
桐	-8.4589
屋	-8.46014
苔	-8.46058
抱	-8.46277
贊	-8.4643
曾	-8.46458
谷	-8.46496
東風	-8.46643
繞	-8.47017
雙	-8.47361
羊	-8.47371
倚	-8.4748
調	-8.47518
伯	-8.47762
他	-8.47872
憶	-8.47987
隔	-8.47998
秦	-8.48114
承	-8.4834
徐	-8.48409
豐	-8.48444
先生	-8.49062
瓊	-8.4909
乆	-8.49254
市	-8.49274
槐	-8.49474
姿	-8.49516
壓	-8.49532
親	-8.49708
損	-8.50166
宻	-8.50291
左	-8.50479
一日	-8.50624
逢	-8.5063
芍藥	-8.50953
陵	-8.51011
願	-8.51074
養	-8.51082
旋	-8.51201
鳳	-8.51367
妙	-8.51525
蒼	-8.51707
勿	-8.51938
依	-8.51983
夀	-8.52078
歲	-8.52227
雅	-8.52303
疏	-8.52378
岸	-8.52516
材	-8.5263
齋	-8.52847
具	-8.52972
本草綱目	-8.53062
切	-8.53161
龜	-8.53253
夕	-8.53337
奉	-8.53746
院	-8.53809
郎	-8.53845
圍	-8.53977
羙	-8.53987
二兩	-8.5411
二錢	-8.54118
河	-8.54574
偶	-8.54695
懸	-8.54893
教	-8.54986
任	-8.54989
酸	-8.55014
代	-8.55165
傾	-8.55205
蘂	-8.55243
羽	-8.55452
仲	-8.555
村	-8.55557
二月	-8.55576
兼	-8.55621
嬌	-8.55724
洞	-8.55756
膠	-8.55842
草木	-8.55842
句	-8.55897
五月	-8.55917
存	-8.5594
兹	-8.56019
榦	-8.56298
乳	-8.56533
磨	-8.56675
弱	-8.57093
葉似	-8.57522
并	-8.57557
腹	-8.57756
脚	-8.578
尾	-8.57818
湏	-8.58012
武	-8.58071
越	-8.5819
沉香	-8.58308
詩散句	-8.5837
鶴	-8.58445
殻	-8.58485
萼	-8.58552
茗	-8.58562
滋	-8.58606
環	-8.58619
静	-8.5888
魏	-8.59074
黃	-8.59288
宗	-8.5935
伴	-8.59375
狀如	-8.5941
建	-8.5949
盆	-8.5963
甲	-8.59882
天下	-8.60287
贈	-8.6032
川	-8.6081
旁	-8.60901
伏	-8.60905
約	-8.60957
齒	-8.61016
虎	-8.61021
穿	-8.61207
聚	-8.61213
氷	-8.61347
辭	-8.61514
反	-8.61624
大如	-8.61905
貯	-8.62016
杯	-8.62178
一錢	-8.62284
義	-8.62379
淨	-8.62592
又有	-8.62592
荒	-8.63111
舒	-8.63255
七言絶句	-8.63257
回	-8.63662
孔	-8.63736
瓦	-8.63768
君子	-8.63926
急	-8.63983
茅	-8.64003
總	-8.64005
蠶	-8.64091
焙	-8.64162
宅	-8.64178
紋	-8.64311
葉如	-8.64422
適	-8.6451
低	-8.64588
說	-8.64593
陶	-8.64657
山中	-8.64674
寫	-8.64981
隠	-8.65014
苞	-8.65029
侯	-8.65471
宣	-8.65728
鄭	-8.65794
徒	-8.65923
游	-8.66255
團	-8.66414
飯	-8.66582
綴	-8.66668
花開	-8.66784
歩	-8.66817
延	-8.6688
愈	-8.66938
鹽	-8.67212
舟	-8.6736
冰	-8.67507
潔	-8.6764
邉	-8.67673
想	-8.67683
翁	-8.67803
勻	-8.67888
龍腦	-8.68072
此花	-8.68099
紀	-8.68266
四月	-8.68418
甘松	-8.68437
湖	-8.68506
鄉	-8.68558
爭	-8.68593
巧	-8.68749
插	-8.68885
如此	-8.68947
橋	-8.68974
腸	-8.69149
其根	-8.69669
桃李	-8.69719
籠	-8.69812
管	-8.69915
制	-8.70105
争	-8.70139
蠟	-8.70466
窮	-8.70556
滑	-8.70701
嶺	-8.70736
顔	-8.70738
慶	-8.70934
杜	-8.71541
耶	-8.71859
負	-8.71955
走	-8.7196
毎	-8.71978
投	-8.72015
四兩	-8.72159
怪	-8.72385
迎	-8.72404
篇	-8.72413
遠	-8.72507
爾雅	-8.72507
憐	-8.72611
大者	-8.72875
助	-8.72914
浪	-8.72984
競	-8.72992
㡬	-8.73286
報	-8.73322
尖	-8.73504
之所	-8.7351
者為	-8.7352
可愛	-8.73533
降	-8.73546
佛	-8.73549
辨	-8.73734
穴	-8.73734
媚	-8.73812
人間	-8.7389
枝葉	-8.73953
往	-8.74214
炒	-8.74394
窓	-8.74467
畧	-8.74634
禁	-8.74773
羞	-8.74789
罷	-8.74799
印	-8.74829
瓶	-8.74839
戲	-8.74929
鳯	-8.74953
透	-8.74956
千葉	-8.75039
續	-8.75084
粟	-8.75393
漫	-8.75592
蝶	-8.75637
稀	-8.76217
衰	-8.76537
頻	-8.76591
盈	-8.76666
汝	-8.76709
蔓	-8.76719
買	-8.76736
苖	-8.76764
飄	-8.76853
三兩	-8.76896
弄	-8.76976
態	-8.77121
宴	-8.77123
為之	-8.77164
銅	-8.77576
勞	-8.77617
刀	-8.77782
把	-8.77871
禮	-8.78011
才	-8.78026
户	-8.78037
詔	-8.78056
忌	-8.78094
軒	-8.78274
請	-8.78385
結實	-8.78458
圎	-8.78552
擬	-8.7861
芋	-8.78671
貞	-8.78692
所以	-8.78765
唯	-8.78842
源	-8.78936
不見	-8.78938
坑	-8.79069
枕	-8.79107
不同	-8.79271
藻	-8.79444
葵	-8.79503
乍	-8.79622
倒	-8.79833
者也	-8.79983
迷	-8.80085
蛇	-8.80451
五言古詩	-8.80546
縁	-8.80614
漆	-8.80849
揚	-8.80912
櫻桃	-8.81094
索	-8.81097
考	-8.81148
舍	-8.8115
粒	-8.81194
泛	-8.81542
升	-8.81553
賢	-8.8158
詩云	-8.81763
苑	-8.81869
椒	-8.8188
種之	-8.81941
披	-8.82033
耕	-8.82052
歎	-8.82079
纔	-8.82096
是也	-8.82338
上有	-8.82429
支	-8.82471
柯	-8.82566
强	-8.82572
占	-8.8263
幹	-8.82927
䕃	-8.82959
蔕	-8.83132
寛	-8.83144
韓	-8.83346
徧	-8.83476
聽	-8.83504
船	-8.83562
烹	-8.83784
丸	-8.83907
惠	-8.84117
德	-8.84173
随	-8.84202
藍	-8.84344
忘	-8.84418
厥	-8.84494
葱	-8.84719
亦可	-8.84759
雷	-8.85027
施	-8.85028
鑄	-8.85146
抽	-8.85495
脂	-8.85929
鬚	-8.86115
簡	-8.86134
卧	-8.86136
斑	-8.86172
錫	-8.86203
别錄	-8.86278
宮	-8.86287
葛	-8.86425
十二	-8.86427
羮	-8.86646
卿	-8.86661
彩	-8.86724
設	-8.86732
風雨	-8.86858
䕶	-8.86873
誤	-8.86882
渠	-8.86934
顔色	-8.86999
簾	-8.8701
腰	-8.87034
闕	-8.87039
糞	-8.87079
塗	-8.87223
名曰	-8.87295
省	-8.87409
獲	-8.87463
狂	-8.87479
催	-8.87511
扶	-8.87719
薑	-8.88141
薔薇	-8.8822
琴	-8.88273
歡	-8.88292
壁	-8.88314
侵	-8.88317
餅	-8.88388
鼎	-8.88469
麤	-8.88648
昌	-8.88684
黍	-8.8893
鬱	-8.88958
暈	-8.88966
三年	-8.89079
瘦	-8.89349
差	-8.89349
扇	-8.89359
午	-8.89464
令人	-8.89622
福	-8.89678
陸游	-8.89822
里	-8.89865
誇	-8.89939
勢	-8.90084
八月	-8.90283
韭	-8.90322
頌	-8.90386
囘	-8.90444
借	-8.90489
廻	-8.90489
改	-8.90507
館	-8.90806
挺	-8.90868
仰	-8.90914
資	-8.91056
絳	-8.9159
暑	-8.9162
席	-8.91766
觧	-8.91817
息	-8.91917
杏花	-8.91922
頂	-8.91964
博	-8.92186
東坡	-8.92245
活	-8.92259
聊	-8.92424
其葉	-8.92435
圃	-8.92639
巨	-8.92667
李時珍曰	-8.92674
殺	-8.92904
悲	-8.92964
柱	-8.92975
一株	-8.93028
避	-8.93046
添	-8.93196
父	-8.93228
痛	-8.93229
鐵	-8.93253
念	-8.93421
悉	-8.93457
二十	-8.93509
鱗	-8.93539
灑	-8.93794
囊	-8.93798
菊花	-8.93816
可食	-8.93883
參	-8.94008
婦	-8.94047
棃	-8.94129
牙	-8.9421
備	-8.9421
爲	-8.94285
之類	-8.9429
妍	-8.94349
丁	-8.94426
不及	-8.94452
葡萄	-8.94457
蕭	-8.94668
司	-8.94766
二年	-8.94812
尺	-8.94814
麝	-8.94878
由	-8.94882
凍	-8.9502
九月	-8.95075
津	-8.95202
蒙	-8.95325
杖	-8.95374
符	-8.95388
逸	-8.95487
納	-8.95525
左右	-8.95547
霧	-8.9556
佩	-8.95664
憂	-8.95842
掃	-8.95919
蘇軾	-8.95958
柑	-8.95996
白居易	-8.96003
邪	-8.96025
晨	-8.96047
遍	-8.9613
蘆	-8.96245
開花	-8.96274
擇	-8.96463
委	-8.96583
閑	-8.96662
召	-8.96666
鐫	-8.9668
祖	-8.96742
釋	-8.96805
了	-8.97098
呉	-8.97138
繡	-8.97262
玩	-8.97387
山谷	-8.97478
辛	-8.97522
秋風	-8.97541
硬	-8.97644
𤓰	-8.97677
綿	-8.97834
荆	-8.97868
服之	-8.98151
六月	-8.98204
丘	-8.98317
編	-8.98339
掩	-8.98422
山海經	-8.98438
註	-8.98497
咸	-8.98725
大小	-8.98754
退	-8.98826
價	-8.98851
夷	-8.98858
睡	-8.98932
雄	-8.98934
嚴	-8.98951
包	-8.98973
嗟	-8.98984
遣	-8.99105
洪	-8.99264
蒿	-8.99438
充	-8.99499
蓬	-8.9958
眉	-8.99673
伐	-9.00061
層	-9.00164
乗	-9.00222
擁	-9.00255
黄花	-9.00487
晝	-9.00497
十月	-9.00657
自然	-9.0073
梢	-9.00747
政	-9.00785
虛	-9.00869
斗	-9.01256
其中	-9.0134
歴	-9.01433
焦	-9.01477
𫝊	-9.01483
不復	-9.01534
味甘	-9.01552
湘	-9.01598
鬼	-9.01786
風吹	-9.01793
計	-9.01853
鏡	-9.02038
綺	-9.02039
株	-9.0215
黄金	-9.02202
壽	-9.02296
吴	-9.02351
葩	-9.02443
燭	-9.02508
飽	-9.0257
濟	-9.02647
誠	-9.02674
敢	-9.02747
燈	-9.02882
閩	-9.03069
畔	-9.03082
朶	-9.03094
澗	-9.03097
叔	-9.03225
畢	-9.03277
棲	-9.03292
奪	-9.03294
逰	-9.03392
峰	-9.03401
式	-9.03618
勁	-9.03774
敗	-9.03932
潛	-9.03937
輙	-9.03957
怨	-9.04002
其花	-9.04116
膩	-9.04452
讀	-9.04464
彌	-9.04504
膚	-9.04582
麴	-9.04753
效	-9.04788
竹筍	-9.04805
年年	-9.05009
清香	-9.05042
庶	-9.05115
鋪	-9.05178
魂	-9.0518
蓮花	-9.05273
檀	-9.054
洛陽	-9.05537
爐	-9.05542
一斤	-9.0566
辰	-9.05692
薰	-9.05736
酉陽雜俎	-9.05824
渾	-9.05863
奏	-9.05887
蜂	-9.05971
郭	-9.06098
儀	-9.06154
風流	-9.06182
崇	-9.06198
軍	-9.06345
□	-9.0643
推	-9.0647
不足	-9.06645
敷	-9.07009
棄	-9.07052
裂	-9.07057
杜甫	-9.07077
乘	-9.07158
况	-9.07268
顆	-9.07326
土人	-9.07379
束	-9.0744
燥	-9.07541
甜	-9.0765
鋤	-9.07677
五言律詩	-9.07748
住	-9.08105
療	-9.08296
溫	-9.08355
畦	-9.0838
僅	-9.08465
脆	-9.08726
不如	-9.08794
藕	-9.08934
紛	-9.08962
浄	-9.09014
濶	-9.09137
孝	-9.0921
不敢	-9.09305
别録	-9.09349
鹿	-9.09429
黄色	-9.0959
毫	-9.0964
裁	-9.09747
長安	-9.09801
停	-9.09985
洲	-9.10082
昭	-9.10279
淚	-9.10293
痕	-9.10453
揺	-9.10585
千里	-9.10599
以上	-9.106
尊	-9.10691
澄	-9.10886
濯	-9.10966
均	-9.11041
零陵香	-9.11247
掌	-9.11314
結子	-9.11343
萍	-9.11439
脫	-9.11537
吉	-9.11662
隱	-9.11673
順	-9.11774
澆	-9.12127
奴	-9.12135
曹	-9.12253
吏	-9.1227
七言律詩	-9.12391
律	-9.12437
執	-9.12447
阿	-9.12601
西風	-9.12612
伊	-9.12867
饒	-9.13094
富	-9.13106
奇	-9.13161
榆	-9.13318
亭亭	-9.13318
砌	-9.1333
恩	-9.134
畏	-9.13435
賣	-9.13469
春色	-9.13531
木香	-9.13645
浦	-9.13688
遥	-9.13712
浴	-9.13793
卒	-9.13798
融	-9.13818
拜	-9.1382
傅	-9.1391
架	-9.13966
煩	-9.14008
炎	-9.14028
數十	-9.14084
水中	-9.14161
􁀙	-9.1437
叢生	-9.14431
碾	-9.14439
又名	-9.14474
主人	-9.14603
厭	-9.14683
蔡	-9.15122
熏	-9.15311
御製	-9.15355
壺	-9.15367
滴	-9.15431
無人	-9.15475
其實	-9.15569
招	-9.15795
檜	-9.15838
石榴	-9.15849
換	-9.15881
緣	-9.15912
今日	-9.15982
瑩	-9.16036
然後	-9.16096
縷	-9.1614
青青	-9.16177
歳	-9.16424
乳香	-9.16471
草一名	-9.1649
魯	-9.16526
三錢	-9.16637
牀	-9.16659
墮	-9.16668
用之	-9.16688
墻	-9.16754
純	-9.17271
之上	-9.17411
飾	-9.17414
藉	-9.1746
崖	-9.17465
醒	-9.17566
削	-9.17646
屈	-9.1787
拌	-9.17921
祥	-9.17952
棘	-9.18012
訪	-9.18102
生於	-9.18206
七月	-9.18419
標	-9.18494
籬	-9.18557
商	-9.18559
紫色	-9.18634
屑	-9.18688
繫	-9.18734
覽	-9.18785
較	-9.1883
維	-9.19054
得之	-9.19119
石硯	-9.19149
第一	-9.19203
業	-9.19219
徃	-9.19387
五言絶句	-9.19422
瘡	-9.19478
宋蘇軾	-9.19503
縱	-9.19519
靜	-9.19528
雀	-9.19796
肌	-9.20032
揚州	-9.20049
康	-9.20105
織	-9.2012
纖	-9.20255
窺	-9.20334
荔	-9.20338
四時	-9.2034
潭	-9.20354
胎	-9.20808
塞	-9.20834
虞	-9.20902
纎	-9.20947
楊萬里	-9.20993
唐杜甫	-9.2101
呈	-9.21022
墜	-9.21124
減	-9.21232
五色	-9.21244
沸	-9.21363
裹	-9.21391
蔬	-9.21417
漬	-9.21593
翼	-9.21638
徹	-9.21726
螺	-9.21766
廢	-9.21824
而已	-9.22009
眞	-9.22075
脱	-9.221
禽	-9.2219
那	-9.22217
懷	-9.22448
鼓	-9.22453
廟	-9.22629
茄	-9.22807
簇	-9.22815
竟	-9.22837
啼	-9.22868
京	-9.22879
鶯	-9.2289
倍	-9.22923
此物	-9.23068
鬭	-9.23084
三四	-9.23102
何處	-9.23112
鸞	-9.23114
季	-9.23119
醫	-9.23164
拔	-9.23171
履	-9.23191
皺	-9.23235
缺	-9.23237
潮	-9.23243
社	-9.23297
匪	-9.23307
寸	-9.23332
不用	-9.23568
洛	-9.2359
童	-9.23623
保	-9.23649
舌	-9.23833
累	-9.23838
渚	-9.23894
恒	-9.24065
萬里	-9.24295
烈	-9.24296
袖	-9.2434
於是	-9.2454
灌	-9.24576
臙脂	-9.24657
盧	-9.24685
戴	-9.24728
騎	-9.24772
啓	-9.24777
漏	-9.24779
步	-9.24781
仙人	-9.24783
弗	-9.24942
取之	-9.25055
貫	-9.25112
詳	-9.25141
五錢	-9.25148
率	-9.25237
剖	-9.25334
跡	-9.25417
典	-9.25539
縈	-9.25541
峯	-9.25562
饑	-9.25707
觸	-9.25771
液	-9.25795
其下	-9.25806
單	-9.25875
當時	-9.25929
鄰	-9.26063
下有	-9.26096
一分	-9.26127
甫	-9.26209
璧	-9.2623
形如	-9.26234
夾	-9.26239
鼻	-9.26251
甲香	-9.26265
展	-9.26268
坡	-9.26273
亞	-9.26287
樣	-9.26308
據	-9.26324
之名	-9.2635
假	-9.26423
太守	-9.26432
鍾	-9.2671
階	-9.2671
汗	-9.268
搗	-9.26903
曰此	-9.26919
告	-9.26975
蓼	-9.27016
禾	-9.27073
少許	-9.27289
斤	-9.27314
清明	-9.27349
古人	-9.27411
妃	-9.27619
屏	-9.27707
皆有	-9.2776
託	-9.27789
菖蒲	-9.27803
截	-9.27829
崔	-9.27848
或云	-9.28012
髪	-9.28048
芥	-9.28182
相似	-9.28379
攜	-9.28604
炭	-9.28669
響	-9.28686
會	-9.28713
宇	-9.28715
授	-9.28763
介	-9.2878
衡	-9.28976
凌	-9.28977
其名	-9.29043
郊	-9.29062
蟬	-9.29126
可憐	-9.29374
圗	-9.29395
臭	-9.29442
板	-9.29489
談	-9.29507
䖏	-9.29531
七言古詩	-9.29553
而生	-9.29604
種植	-9.29914
沈香	-9.29918
欄	-9.29955
焚	-9.30036
荷花	-9.30036
艾	-9.30097
醋	-9.30176
費	-9.30271
闗	-9.30362
偷	-9.3038
藿香	-9.30383
宋梅堯臣	-9.30391
姬	-9.30422
超	-9.30427
於此	-9.30527
正月	-9.30575
其上	-9.3077
銜	-9.30836
本草云	-9.30838
殷	-9.30905
/)(	-9.31033
閉	-9.31062
聳	-9.31128
埋	-9.31166
遷	-9.31192
甘草	-9.31237
製用	-9.31479
梗	-9.31768
南方	-9.31793
楊柳	-9.31855
挂	-9.3197
壯	-9.31986
敬	-9.32023
至於	-9.3213
白色	-9.32263
楊梅	-9.32365
而小	-9.32471
剛	-9.32487
泰	-9.32712
酌	-9.32764
戒	-9.32783
機	-9.32845
取其	-9.32945
次韻	-9.32954
否	-9.32957
穗	-9.33167
排	-9.33336
乞	-9.33359
白花	-9.33392
元年	-9.33455
昏	-9.33476
二種	-9.33503
患	-9.33554
荔枝	-9.33604
明年	-9.3362
界	-9.33632
格	-9.33651
危	-9.33653
達	-9.33671
愧	-9.33717
希	-9.33718
天子	-9.3374
上下	-9.3384
十餘	-9.33848
盞	-9.33893
為末	-9.33902
嫌	-9.33955
蒜	-9.34011
孟	-9.34024
裳	-9.34026
餐	-9.3425
錯	-9.34369
巾	-9.34507
育	-9.34517
𢃄	-9.34532
酴醿	-9.34614
粥	-9.34668
甌	-9.34857
第	-9.34909
三分	-9.34987
三十	-9.3515
筋	-9.35168
座	-9.35171
収	-9.35264
牽	-9.35323
困	-9.35344
操	-9.35347
橙	-9.35361
智	-9.35371
嘉禾	-9.35391
射	-9.35462
蕙	-9.35492
檻	-9.35576
十里	-9.35793
柰	-9.35838
二首	-9.35988
牆	-9.36084
藝	-9.36133
屢	-9.36249
略	-9.3625
族	-9.36252
竊	-9.36295
翔	-9.36304
速	-9.36383
馨	-9.36518
菌	-9.36862
幽人	-9.36919
其色	-9.36957
刈	-9.36959
絮	-9.36961
自是	-9.36967
祭	-9.37034
摩	-9.37144
棃花	-9.37164
嚼	-9.37288
曬	-9.37385
一年	-9.37577
者名	-9.37584
人家	-9.37657
腴	-9.3769
姓	-9.37741
萬物	-9.37749
筠	-9.37811
禪	-9.37859
勤	-9.3788
鎮	-9.37881
賤	-9.37928
追	-9.3799
痩	-9.37997
兵	-9.37999
佳人	-9.38062
帳	-9.38128
五分	-9.38147
氣味	-9.3815
蕩	-9.38153
可作	-9.38204
關	-9.38222
凋	-9.38437
爽	-9.3871
穂	-9.3873
擢	-9.38747
寂寞	-9.38888
稠	-9.38888
寒食	-9.3922
是硯	-9.39239
辟	-9.39271
雕	-9.39364
芬	-9.39403
侍	-9.39484
小者	-9.39495
衛	-9.39585
炙	-9.39597
頓	-9.39633
部	-9.39655
耀	-9.39661
運	-9.39677
可為	-9.39694
巢	-9.39725
恵	-9.39759
九日	-9.39805
呼為	-9.39979
菱	-9.40212
案	-9.40388
蔽	-9.40474
其子	-9.40525
卵	-9.40622
蕃	-9.40665
割	-9.40668
不堪	-9.40674
鴈	-9.40701
旦	-9.4076
攀	-9.40805
示	-9.40901
私	-9.40914
取出	-9.41074
三日	-9.41081
甕	-9.4111
白芷	-9.4112
者曰	-9.41123
天地	-9.41126
免	-9.41133
卉	-9.41165
嶺南	-9.41303
鴻	-9.41473
徴	-9.41518
綵	-9.41547
大夫	-9.41555
十年	-9.41565
澀	-9.41581
監	-9.41587
賛	-9.41606
儒	-9.41622
其味	-9.41728
打	-9.4182
塘	-9.41876
箭	-9.42152
參差	-9.42224
農	-9.42282
榴	-9.42361
鈎	-9.42392
姑	-9.42432
箋	-9.42435
東南	-9.42446
務	-9.42479
故曰	-9.4259
旱	-9.42599
腦	-9.42727
肅	-9.43188
者謂之	-9.43217
茯苓	-9.43218
又云	-9.43276
婦人	-9.43356
忠	-9.43375
暫	-9.4344
術	-9.43619
風味	-9.43876
際	-9.43879
簷	-9.44034
薫	-9.441
祗	-9.44107
匀	-9.44168
溝	-9.4429
觴	-9.44295
􁁊	-9.44315
寜	-9.44388
托	-9.44668
黏	-9.44853
堆	-9.44969
色如	-9.45083
何人	-9.45086
二字	-9.45103
至今	-9.45145
薪	-9.45168
境	-9.45257
日月	-9.45258
程	-9.45293
一樹	-9.45303
答	-9.45357
芳菲	-9.45408
時有	-9.45494
京師	-9.4552
掘	-9.45526
渡	-9.45548
小兒	-9.45602
明月	-9.45887
拾	-9.45892
梓	-9.45956
千年	-9.45957
害	-9.45966
不宜	-9.46066
夲	-9.46066
賔	-9.46077
暴	-9.46115
芹	-9.46127
紗	-9.46186
怒	-9.4619
茱萸	-9.46197
鬢	-9.46198
涼	-9.46199
纒	-9.46242
香氣	-9.46249
韋	-9.46256
色白	-9.46275
爾雅云	-9.46279
輒	-9.463
道人	-9.4645
一曰	-9.46871
慎	-9.46906
様	-9.46913
頃	-9.46918
毬	-9.47047
篆	-9.47053
壅	-9.47078
勒	-9.47171
揀	-9.47176
淮	-9.47193
餉	-9.47201
徘徊	-9.47254
署	-9.47291
大抵	-9.47343
視之	-9.47706
疊	-9.47898
芒	-9.47934
山茶	-9.4795
宵	-9.48043
營	-9.48157
鬬	-9.4821
詩人	-9.48264
墨池	-9.48383
暉	-9.4852
貧	-9.48629
邑	-9.48694
蟠	-9.48991
天然	-9.49049
驗	-9.49114
纍纍	-9.49115
芭蕉	-9.49171
之後	-9.49175
簪	-9.49476
嵗寒	-9.49555
琢	-9.4963
眠	-9.49686
李白	-9.49735
不為	-9.49738
選	-9.49981
繼	-9.50026
朔	-9.50044
幕	-9.5009
議	-9.50141
拆	-9.50176
𦂳	-9.50186
俟	-9.50343
春秋	-9.50392
十日	-9.50398
萌	-9.50541
重陽	-9.50542
蘇頌曰	-9.50556
厯	-9.50562
平生	-9.50612
亦名	-9.50734
觔	-9.50834
蔗	-9.50841
之間	-9.50916
釀	-9.50934
靡	-9.51048
梧桐	-9.51071
謹	-9.51072
領	-9.51109
輸	-9.51135
顯	-9.5115
捧	-9.51165
悦	-9.51177
不過	-9.51185
扶疎	-9.51194
歇	-9.51194
振	-9.51198
扁	-9.51281
楊花	-9.51594
冬月	-9.51617
茉莉	-9.51632
亦不	-9.517
沒	-9.5187
后	-9.51875
給	-9.5191
兎	-9.51988
肝	-9.51994
遶	-9.52007
沃	-9.52117
神仙	-9.52159
快	-9.52168
欺	-9.52175
捲	-9.52176
遮	-9.5219
覩	-9.52223
北苑	-9.52341
以其	-9.52816
多少	-9.52822
五年	-9.52909
翫	-9.53034
慙	-9.53146
擊	-9.53152
裙	-9.53169
騰	-9.5322
拾遺記	-9.53277
學士	-9.53298
莊	-9.53557
洞庭	-9.53608
孰	-9.53696
今年	-9.53702
椀	-9.53791
犀	-9.53853
馥	-9.54019
陰	-9.54022
述	-9.54023
貨	-9.5406
攪	-9.54119
權	-9.54161
瀉	-9.54165
臥	-9.54173
岡	-9.54194
往往	-9.54283
𣝕香	-9.54328
搖	-9.54715
干	-9.54781
之法	-9.54827
西湖	-9.54878
大而	-9.54912
范	-9.55043
夫人	-9.55064
清風	-9.55126
銷	-9.55134
渇	-9.55146
蠻	-9.55204
寂	-9.55225
付	-9.55247
晦	-9.55258
祠	-9.55258
愚	-9.55344
沾	-9.55488
輪	-9.55656
一寸	-9.55782
數百	-9.55811
四年	-9.5589
間有	-9.55999
翰	-9.56014
襲	-9.5604
帖	-9.56135
痰	-9.56152
多情	-9.56192
塲	-9.56248
鐘	-9.56249
踏	-9.56293
網	-9.56312
驅	-9.56321
播	-9.56327
别有	-9.56374
煤	-9.56413
肺	-9.56511
枝上	-9.56634
芸	-9.5665
曰吾	-9.56688
長生	-9.56728
去皮	-9.56872
撲	-9.5704
十五	-9.57045
上方	-9.57246
醬	-9.57263
滌	-9.57311
量	-9.57328
䑕	-9.57341
僕	-9.57346
貌	-9.57347
專	-9.5736
恭	-9.57363
述異記	-9.57379
撫	-9.57405
寵	-9.57414
趣	-9.57432
酬	-9.57453
楓	-9.57593
茹	-9.57735
有之	-9.57877
陂	-9.58068
曬乾	-9.58124
壤	-9.58271
駕	-9.583
天香	-9.58354
健	-9.58364
慰	-9.58366
熊	-9.58402
萎	-9.58418
廬	-9.58475
彦	-9.5848
五六	-9.58812
春光	-9.59085
之以	-9.5917
而無	-9.59279
隆	-9.59312
紫花	-9.59367
斫	-9.59413
壇	-9.59445
零	-9.59487
喧	-9.59494
亡	-9.59497
劑	-9.59499
酥	-9.59512
筵	-9.59538
慈	-9.59541
淵	-9.59554
南山	-9.59671
故人	-9.59735
砂	-9.59879
初生	-9.59903
未嘗	-9.59936
塊	-9.60021
怕	-9.60105
一莖	-9.60275
妖	-9.60281
岐	-9.60383
亦曰	-9.60388
彭	-9.6048
齊民要術	-9.60481
滯	-9.60482
五兩	-9.60503
名醫别録	-9.60531
如何	-9.60532
茴香	-9.60535
美人	-9.60536
酣	-9.60565
賈	-9.60579
樵	-9.60588
澹	-9.60631
枝頭	-9.60789
花落	-9.60796
芬芳	-9.60844
石上	-9.61025
山有	-9.61033
滅	-9.6106
南海	-9.61154
之為	-9.61246
瓠	-9.61388
剝	-9.61645
值	-9.61663
驛	-9.61664
貼	-9.61683
寓	-9.61684
殆	-9.61726
堯	-9.61812
荔子	-9.6219
相思	-9.62207
者以	-9.62238
開時	-9.62301
番	-9.62468
髮	-9.62533
卑	-9.62622
汲	-9.62713
鑿	-9.62743
俯	-9.62785
堦	-9.6281
籍	-9.62829
菴	-9.62842
蔚	-9.62844
粗	-9.62886
馳	-9.62903
十兩	-9.62914
未有	-9.62995
探	-9.63058
春日	-9.63103
其後	-9.63137
忍	-9.63202
雨露	-9.63283
花葉	-9.63326
隂乾	-9.63413
東籬	-9.63529
宣和	-9.63662
蕨	-9.63826
蓴	-9.63852
當年	-9.63886
自有	-9.63901
隐	-9.63947
規	-9.63966
咏	-9.63966
霜雪	-9.63984
艷	-9.6399
化為	-9.64294
西域	-9.64332
状	-9.64349
一夜	-9.6446
一本	-9.64464
瑶	-9.64623
鈴	-9.64732
蚌	-9.64781
歛	-9.64871
丈	-9.64997
擅	-9.65041
揉	-9.6505
豪	-9.65056
防	-9.65071
蓄	-9.65138
佐	-9.65149
線	-9.65273
唐白居易	-9.65274
剉	-9.65411
道士	-9.65526
使君	-9.65565
窠	-9.65588
端溪	-9.65747
彈	-9.658
一二	-9.65846
巴	-9.66034
玉堂	-9.66068
而長	-9.66083
茅香	-9.66124
枇杷	-9.66143
昬	-9.66155
臘	-9.66169
者皆	-9.66186
薛	-9.66206
妾	-9.66212
處處	-9.6622
范成大	-9.66234
不勝	-9.66242
犯	-9.6626
杵	-9.66273
哀	-9.66279
併	-9.66303
怯	-9.6634
混	-9.66369
蘋	-9.6656
一片	-9.66683
漁	-9.66716
緑葉	-9.66769
熬	-9.66815
翳	-9.66841
芳草	-9.66864
稜	-9.67031
蝦	-9.67315
偃	-9.67395
不甚	-9.67439
吕	-9.67449
竅	-9.67461
位	-9.67464
草增	-9.67467
惹	-9.67476
㳺	-9.67522
入藥	-9.67563
武帝	-9.6768
尚書	-9.67841
紅梅	-9.68157
或以	-9.68209
者有	-9.68286
瓊花	-9.68337
森	-9.68408
啖	-9.68445
之屬	-9.68613
炊	-9.68634
天上	-9.68645
倦	-9.68691
預	-9.68701
盛開	-9.68831
曝乾	-9.68917
五寸	-9.69092
籜	-9.69205
人以	-9.69251
乏	-9.69266
猪	-9.69279
科	-9.69769
楮	-9.69801
噉	-9.6983
慕	-9.6984
蟻	-9.69864
返	-9.69873
叙	-9.69887
緩	-9.69898
剪	-9.69928
嗜	-9.69959
培	-9.70165
離離	-9.70243
今之	-9.70283
鴛鴦	-9.70324
山下	-9.70441
之則	-9.70515
有餘	-9.7061
如玉	-9.70799
爪	-9.70895
南人	-9.70924
瑤	-9.70934
鞭	-9.70979
宛	-9.70982
摧	-9.7099
穎	-9.70999
忙	-9.71001
瘴	-9.71016
駐	-9.71098
奚	-9.71098
匹	-9.71167
富貴	-9.71221
箇	-9.71263
安得	-9.71336
之狀	-9.71351
荅	-9.71461
形似	-9.71486
數日	-9.71542
靣	-9.71615
綠葉	-9.71669
之地	-9.71671
莖葉	-9.71675
見之	-9.71877
啜	-9.71939
何如	-9.72028
妻	-9.72067
築	-9.72226
雁	-9.72257
練	-9.72259
職	-9.72266
懼	-9.72303
雨後	-9.7232
紛紛	-9.72335
荼䕷	-9.72344
帷	-9.72356
逾	-9.72357
抑	-9.72376
薤	-9.72392
霑	-9.72402
肯	-9.72438
覆手	-9.72483
蕭蕭	-9.72493
生者	-9.72502
依依	-9.72566
處處有之	-9.72628
一人	-9.72725
詎	-9.72787
各一	-9.72949
三百	-9.72968
花譜	-9.73
不然	-9.73184
閩中	-9.73246
憑	-9.73261
一時	-9.73339
葦	-9.73383
稷	-9.73399
蛤	-9.73418
偽	-9.73502
強	-9.73543
薺	-9.73669
為上	-9.73675
唱	-9.73683
為度	-9.73786
淮南子	-9.73834
味苦	-9.73872
十分	-9.7417
輝	-9.74262
仿	-9.74279
彰	-9.74284
唐書	-9.74301
某	-9.74408
枚	-9.74489
臼	-9.74494
畝	-9.74546
無所	-9.74549
紅紫	-9.74554
磁	-9.74594
之中	-9.74594
隋	-9.74679
輩	-9.74731
蘿蔔	-9.74765
得名	-9.74781
班	-9.7479
焚之	-9.74791
几	-9.74806
茲	-9.74812
征	-9.74829
净	-9.74835
欵	-9.74844
蕪	-9.74906
貪	-9.7491
斂	-9.74911
得其	-9.74972
半斤	-9.75025
欽定四庫全書御定佩文齋廣羣芳譜	-9.75048
婆娑	-9.75144
螯	-9.75431
拳	-9.75493
餌	-9.75498
糖	-9.75599
甑	-9.75648
有一	-9.75851
之氣	-9.75957
額	-9.76014
配	-9.76069
鴨	-9.7607
搜	-9.76088
揮	-9.76142
𢎞	-9.76152
茍	-9.76153
出於	-9.76278
紅花	-9.7632
木𤓰	-9.7642
棠	-9.76648
之時	-9.76669
脉	-9.7669
一物	-9.7678
勸	-9.76879
右件	-9.77172
慢	-9.77222
島	-9.77229
柴	-9.77295
爾雅翼	-9.77296
行人	-9.77319
握	-9.77349
朋	-9.77364
雉	-9.7738
鑒	-9.77381
逼	-9.77433
輿	-9.77445
慚	-9.77458
跗	-9.77471
蕚	-9.77476
琉璃	-9.77485
閲	-9.77524
竿	-9.77637
流水	-9.7772
朽	-9.77732
泣	-9.77836
岳	-9.7787
爰	-9.77892
焚香	-9.77966
蕉	-9.78069
不是	-9.78072
踰	-9.78107
玲瓏	-9.78121
旬	-9.78152
二分	-9.78164
獨立	-9.78208
一笑	-9.78337
所産	-9.7848
糟	-9.78499
釣	-9.78529
荷葉	-9.78555
話	-9.78568
詩曰	-9.78589
脾	-9.78603
黄庭堅	-9.78611
臉	-9.78638
故謂之	-9.78639
酢	-9.78661
絹	-9.78691
蘇合油	-9.78729
闌	-9.78753
普	-9.78775
禹	-9.78778
珊瑚	-9.78783
撰	-9.78783
溢	-9.78785
擘	-9.78811
荼	-9.78819
歟	-9.78824
相對	-9.78838
金顔香	-9.78873
成都	-9.78896
有人	-9.78901
粲	-9.7923
魁	-9.79236
雜記	-9.79371
惟有	-9.79503
人謂之	-9.79585
罕	-9.7959
此君	-9.79728
杉	-9.79785
柄	-9.79904
迹	-9.79914
渴	-9.79954
衝	-9.80049
蠧	-9.8006
整	-9.80066
邀	-9.80067
黎	-9.80078
潘	-9.80083
没	-9.80087
䝉	-9.80088
覓	-9.80104
而大	-9.80106
濡	-9.80108
燒之	-9.80124
従	-9.80173
硯背	-9.80257
次之	-9.80278
白雲	-9.80335
之不	-9.80351
南史	-9.80372
其香	-9.8043
曝	-9.80481
西山	-9.80613
其所	-9.80779
文章	-9.80789
旗	-9.8081
莧	-9.81
俗呼	-9.8103
好事	-9.811
互	-9.81148
腐	-9.81343
叟	-9.81365
威	-9.81393
兄	-9.814
申	-9.81405
踈	-9.81417
梨花	-9.81432
㧞	-9.81459
木蘭	-9.81573
深紅	-9.81595
發墨	-9.81659
鵞	-9.81728
太平	-9.81825
造化	-9.81999
松柏	-9.82021
水浸	-9.82026
鷄	-9.82391
其間	-9.82432
百花	-9.82573
精神	-9.82587
蘿	-9.82642
腥	-9.82724
隅	-9.8275
顛	-9.82752
柘	-9.82763
穢	-9.82786
盌	-9.82792
㯽榔	-9.828
滿地	-9.82823
習	-9.82843
厨	-9.82858
江湖	-9.83066
徙	-9.83283
一枚	-9.83508
味辛	-9.83566
百餘	-9.83567
濤	-9.8373
不必	-9.83745
園中	-9.83747
甞	-9.83894
白者	-9.84028
料	-9.84086
一切	-9.84116
莢	-9.84118
敵	-9.84172
旅	-9.84179
遽	-9.8418
皓	-9.84183
不相	-9.84191
黛	-9.84199
豫章	-9.84222
悟	-9.84232
今人	-9.84235
攢	-9.84259
瓢	-9.84266
峻	-9.84272
零落	-9.84298
皆可	-9.8438
子孫	-9.8452
腫	-9.84574
百尺	-9.84634
一尺	-9.84872
甘露	-9.84943
北方	-9.85029
水仙	-9.8512
二寸	-9.85167
叚	-9.85224
夏月	-9.85232
莎	-9.85245
堤	-9.85258
髻	-9.85284
隂陽	-9.85298
倉	-9.854
茸	-9.85408
獸	-9.85466
細葉	-9.85466
翹	-9.85506
金錢	-9.85509
遭	-9.85515
裝	-9.85529
匣	-9.85556
鎖	-9.85603
鏤	-9.85615
脩	-9.85657
天涯	-9.85659
縹	-9.85671
庵	-9.85684
少年	-9.85788
而為	-9.85863
白玉	-9.85882
棧香	-9.85887
匠	-9.8606
拌勻	-9.86089
有毒	-9.86384
雨過	-9.86396
一作	-9.86409
飲之	-9.86528
綃	-9.86639
釵	-9.86682
棹	-9.86687
喬	-9.867
遼	-9.86741
煉	-9.86777
賀	-9.86936
蔵	-9.86961
欹	-9.86962
也其	-9.86979
暢	-9.86992
繭	-9.87004
舜	-9.87027
誦	-9.87057
谿	-9.87058
沐	-9.87066
勿令	-9.87117
弟	-9.87628
四五	-9.87725
之曰	-9.8773
色紫	-9.87753
是以	-9.8778
晏	-9.87813
梧	-9.87854
去年	-9.87895
粉紅	-9.87903
宰	-9.87953
為君	-9.87962
柿	-9.88159
薇	-9.88263
何以	-9.88279
四面	-9.8831
􁈣	-9.88325
笋	-9.88344
秉	-9.88368
慮	-9.88399
妬	-9.88408
初開	-9.88417
糝	-9.88449
汎	-9.88467
忩	-9.88474
筯	-9.88491
魄	-9.88492
攅	-9.88512
宋宋祁	-9.88524
赴	-9.88547
蹙	-9.88571
有三	-9.88942
邦	-9.88954
老人	-9.89008
蠟梅	-9.8909
山之	-9.8921
各有	-9.89273
此草	-9.89279
單葉	-9.8933
姚	-9.89447
秫	-9.89501
倫	-9.89579
茶之	-9.89614
襟	-9.8964
迥	-9.89655
涎	-9.89765
不成	-9.89806
涵	-9.89827
障	-9.8989
循	-9.89891
椹	-9.89918
隣	-9.89919
千金	-9.89923
圭	-9.89942
琅玕	-9.89949
絡	-9.89953
牋	-9.89969
聼	-9.89974
徵	-9.90015
故有	-9.90019
產	-9.90031
穆	-9.90331
未知	-9.90412
誰知	-9.90505
風霜	-9.9057
黄白	-9.9064
中國	-9.90652
十二月	-9.90725
野人	-9.90726
百年	-9.90777
所出	-9.90887
十六	-9.90898
無情	-9.90972
八分	-9.91017
也又	-9.91097
剥	-9.91105
筒	-9.91114
蔥	-9.91114
寡	-9.91156
五十	-9.91175
之下	-9.91226
而成	-9.91244
長條	-9.91285
麫	-9.91337
繩	-9.91345
脯	-9.91349
帛	-9.9136
斧	-9.91361
十八	-9.91386
翅	-9.91401
像	-9.91421
激	-9.91432
卓	-9.91446
博物志	-9.91449
羊肉	-9.91454
着	-9.91479
門外	-9.91521
甚多	-9.91643
也今	-9.91657
不受	-9.91746
腦麝	-9.91819
沉水	-9.9183
賴	-9.91864
數枝	-9.92114
入水	-9.92181
區	-9.9234
又曰	-9.92486
如今	-9.92526
植之	-9.92531
烘	-9.92546
改元	-9.92552
笛	-9.92564
欣	-9.92597
榛	-9.92665
四十	-9.92676
金盤	-9.92682
紅色	-9.92684
䦨	-9.92761
牧	-9.9278
狹	-9.92803
滓	-9.92809
劍	-9.9286
刷	-9.92877
挿	-9.9289
校	-9.92911
詣	-9.92921
擲	-9.92925
訖	-9.92931
偉	-9.92933
冶	-9.92958
喻	-9.92975
嶽	-9.92983
罪	-9.9301
受墨處	-9.93078
移栽	-9.93188
夕陽	-9.93338
俗名	-9.93421
傲	-9.93577
移植	-9.93635
之精	-9.93653
花如	-9.93665
即此	-9.93722
移根	-9.93782
幽香	-9.93842
五銖	-9.93859
北人	-9.94008
大黄	-9.94085
人多	-9.94105
不須	-9.94134
相傳	-9.94136
腎	-9.9417
好事者	-9.94228
隴	-9.94248
不待	-9.94258
秘	-9.94347
白菊	-9.94355
一卷	-9.94365
衍	-9.94388
遐	-9.94392
香草	-9.94394
韓愈	-9.94417
十一月	-9.94429
犬	-9.94435
不與	-9.94455
馮	-9.94466
係	-9.94519
祝	-9.94522
陋	-9.94522
翡翠	-9.94524
鵲	-9.94525
袍	-9.94551
故事	-9.94632
終日	-9.94717
不死	-9.94744
朗	-9.94776
不生	-9.94833
千載	-9.94864
月明	-9.9487
不盡	-9.94885
其樹	-9.95062
天氣	-9.9515
不識	-9.95307
焙乾	-9.9535
者佳	-9.95417
歙	-9.9543
莽	-9.95442
明日	-9.9562
十四	-9.95629
术	-9.95636
注云	-9.95639
袁	-9.95668
狀似	-9.95732
熟時	-9.95738
飢	-9.95755
狗	-9.95895
秧	-9.95927
啄	-9.95957
臍	-9.95973
缸	-9.95973
色青	-9.95988
寢	-9.95991
以自	-9.95991
綻	-9.95999
矮	-9.96
泡	-9.96004
駢	-9.96025
王安石	-9.96038
舂	-9.96054
圖經本草	-9.96087
飲食	-9.96093
曠	-9.96106
汚	-9.96108
沫	-9.96113
倣	-9.96122
趨	-9.96133
古今	-9.96326
寒熱	-9.96483
朱子	-9.96575
王孫	-9.9658
捜	-9.96614
林下	-9.96618
其地	-9.96676
七年	-9.96893
異香	-9.96998
月下	-9.97267
喚	-9.97279
鯉	-9.97288
和勻	-9.97405
椿	-9.97435
另	-9.97466
花發	-9.97541
蘸	-9.97556
縫	-9.97574
三尺	-9.97602
奔	-9.97621
戰	-9.97656
卜	-9.97662
認	-9.97664
栖	-9.9768
誰家	-9.97686
荇	-9.97715
𤣥參	-9.97781
白檀	-9.9803
四分	-9.98122
耐	-9.98343
猶有	-9.98375
鬱金	-9.98384
青色	-9.98534
契	-9.98605
江東	-9.9868
韶	-9.98715
武陵	-9.98751
菘	-9.98803
百草	-9.98846
胃	-9.98885
童子	-9.99024
賓	-9.99027
菰	-9.9905
壑	-9.99095
㝠	-9.99135
將軍	-9.9914
婆	-9.99163
掇	-9.99177
南方草木狀	-9.99187
訝	-9.99195
𢷬	-9.99196
菽	-9.99196
擎	-9.99201
裊	-9.99254
鼠	-9.99262
逆	-9.99266
蟾	-9.99271
蛾	-9.99285
杜牧	-9.99285
允	-9.99288
蘓	-9.99312
西南	-9.99336
宋陸游	-9.99465
廣州	-9.99473
色黄	-9.99516
庭前	-9.99547
益氣	-9.9961
秋色	-9.99841
一㸃	-9.99943
尺餘	-10.0009
然而	-10.001
香爐	-10.0017
故也	-10.0018
矜	-10.0021
修竹	-10.0023
而有	-10.003
粱	-10.0042
煎茶	-10.0046
𨽻書	-10.0049
以此	-10.0056
輭	-10.0061
巳	-10.0063
此時	-10.0064
淑	-10.0073
貝	-10.0077
臯	-10.0079
荻	-10.0079
臂	-10.0083
尹	-10.0086
廊	-10.0088
辱	-10.0088
霜後	-10.0088
拭	-10.0089
緗	-10.0089
廷	-10.009
戸	-10.0091
挹	-10.0092
一月	-10.0093
鼈	-10.0093
粘	-10.0094
木犀	-10.0098
孕	-10.01
不食	-10.0108
無力	-10.0114
龍涎	-10.0117
小而	-10.0128
三寸	-10.013
四寸	-10.0139
而後	-10.0141
攀折	-10.0145
連理	-10.0146
日暮	-10.0154
龍眼	-10.016
霽	-10.0167
奈	-10.0168
子如	-10.0173
㫖	-10.0184
御製題	-10.0185
縮	-10.0186
落花	-10.0187
讓	-10.0187
而細	-10.0205
赤色	-10.0215
皆以	-10.0218
髙下	-10.0221
脊	-10.0226
江上	-10.0226
児	-10.0235
無不	-10.0236
所載	-10.0237
震	-10.0241
一斗	-10.0245
撒	-10.0247
救	-10.0247
唇	-10.0249
鬻	-10.0252
煥	-10.0253
蝴蝶	-10.0253
曜	-10.0255
崑崙	-10.0255
幼	-10.0257
嚢	-10.0259
模	-10.0259
豈無	-10.0259
爵	-10.0259
謬	-10.026
君家	-10.0262
售	-10.0262
紹興	-10.0263
睂	-10.0263
陸羽	-10.0264
啟	-10.0265
園林	-10.0272
霄	-10.0272
蕈	-10.0275
聞之	-10.0279
時節	-10.028
合歡	-10.0285
無異	-10.0301
桂花	-10.0302
辛夷	-10.0304
淮南	-10.0335
采之	-10.0348
馨香	-10.0349
髓	-10.035
何事	-10.0365
難得	-10.0374
苧	-10.0375
疑是	-10.0386
芝草	-10.0386
則不	-10.0388
千樹	-10.0394
杪	-10.0398
董	-10.0401
昔人	-10.0404
南北	-10.0407
篩	-10.0407
見其	-10.0408
微風	-10.0411
穠	-10.0412
瓤	-10.0412
同上	-10.0413
婢	-10.0416
五言排律	-10.0417
遙	-10.0417
廵	-10.0419
陀	-10.0422
橄㰖	-10.0424
潑	-10.0424
煖	-10.0425
綬	-10.0426
浮萍	-10.0426
檢	-10.0426
盈盈	-10.0427
纂	-10.0428
祕	-10.0428
惆悵	-10.043
癡	-10.043
災	-10.043
頰	-10.0431
醅	-10.0432
痺	-10.0435
樹下	-10.0437
丹砂	-10.0437
山礬	-10.0438
唐李白	-10.0441
山林	-10.0444
水晶	-10.0467
不覺	-10.0469
尋常	-10.0474
人呼為	-10.0481
雌	-10.049
白露	-10.05
暗香	-10.0508
無窮	-10.0513
日日	-10.0522
者亦	-10.0533
一葉	-10.0535
大葉	-10.0539
襄	-10.0545
土中	-10.0554
無復	-10.0554
茶經	-10.0572
枸杞	-10.0576
筐	-10.0581
人皆	-10.0584
楸	-10.0585
竈	-10.0586
㪚	-10.0586
可用	-10.0588
絃	-10.0588
證	-10.0588
垣	-10.0589
㕔	-10.0591
鄙	-10.0592
提	-10.0592
槁	-10.0593
亮	-10.0594
稽	-10.0594
素馨	-10.0597
前後	-10.0599
釘	-10.0602
裴	-10.0605
海上	-10.0608
殷勤	-10.0611
雨中	-10.0611
訓	-10.0615
禁中	-10.062
採桑	-10.0622
忽見	-10.0625
廣志	-10.0654
羅紋	-10.0656
門前	-10.0667
根如	-10.0684
枝榦	-10.0697
梔子	-10.0697
使者	-10.0698
相類	-10.0721
麺	-10.0725
爇之	-10.0734
夭	-10.0741
瀝	-10.0748
濁	-10.0748
亦自	-10.075
坊	-10.0754
輔	-10.0754
榕	-10.0756
世人	-10.076
芳心	-10.076
襯	-10.0761
取汁	-10.0762
亁	-10.0762
針	-10.0765
勃	-10.0767
其性	-10.0767
歐陽修	-10.0769
躬	-10.0769
擣	-10.0769
趁	-10.077
穰	-10.0771
晋	-10.0771
硏	-10.0772
的	-10.0772
牢	-10.0774
婉	-10.0776
坎	-10.0777
䇿	-10.0777
鍼	-10.0778
冉冉	-10.0778
㑹稽	-10.0779
腮	-10.078
硯面	-10.079
人也	-10.0799
使人	-10.0803
漢書	-10.0805
今朝	-10.0808
讀書	-10.0808
胡桃	-10.0809
爇	-10.0812
有白	-10.0831
衆芳	-10.0834
金粟	-10.0839
繁華	-10.0857
花中	-10.086
公子	-10.0875
東君	-10.0878
宋楊萬里	-10.0879
無毒	-10.0879
西園	-10.0886
直上	-10.0888
紅妝	-10.0891
咽	-10.0895
賦詩	-10.0898
二三	-10.09
其質	-10.0901
庾	-10.0913
幅	-10.0913
若夫	-10.0914
細雨	-10.0915
疎影	-10.0926
或曰	-10.0927
虀	-10.0928
本草拾遺	-10.093
祐	-10.0931
玫瑰	-10.0935
蒔	-10.0939
洩	-10.0942
閱	-10.0943
挽	-10.0946
虹	-10.0947
蘚	-10.0948
蓬萊	-10.0949
淋	-10.0949
樸	-10.0949
祀	-10.0951
例	-10.0952
肇	-10.0952
上林	-10.0952
戀	-10.0953
堂前	-10.0953
拱	-10.0954
紺	-10.0954
學圃餘疏	-10.0954
無數	-10.0957
謁	-10.0957
曲江	-10.096
一宿	-10.0961
橘柚	-10.0961
萱草	-10.0962
▁(	-10.0963
撥	-10.0963
淵明	-10.0966
嘆	-10.0968
此種	-10.0975
飲酒	-10.0976
附子	-10.0981
洪志	-10.0985
採蓮	-10.0987
蔓生	-10.0999
武夷	-10.101
二尺	-10.1018
建安	-10.103
晉書	-10.1044
其形	-10.1045
黑色	-10.1051
然則	-10.1052
胡麻	-10.1053
壊	-10.1055
五日	-10.1058
去其	-10.106
糧	-10.1077
可謂	-10.1082
十一	-10.1088
潔白	-10.1088
採之	-10.1089
月中	-10.1093
生意	-10.1103
七日	-10.1107
鷺	-10.1109
埤雅	-10.111
何時	-10.1115
墓	-10.1124
李時珍云	-10.1125
岑	-10.1126
虬	-10.113
局	-10.1131
籃	-10.1132
察	-10.1133
克	-10.1134
肩	-10.1135
聴	-10.1135
幄	-10.1135
龍涎香	-10.1136
扉	-10.1137
茁	-10.1137
幻	-10.1137
祇	-10.1138
者如	-10.1138
街	-10.1139
離披	-10.1139
柳絮	-10.114
之至	-10.1142
有花	-10.1143
促	-10.1144
十三	-10.1147
乃知	-10.1147
女子	-10.115
詩話	-10.1152
花史	-10.1161
羣臣	-10.1163
則有	-10.1166
黄昬	-10.1167
羣芳	-10.1168
穀	-10.1179
吞	-10.1186
中心	-10.1187
歸去	-10.1191
庭中	-10.1196
蜀中	-10.1207
為第一	-10.1222
寸許	-10.123
言其	-10.1232
羡	-10.1248
為誰	-10.1251
下方	-10.1265
清露	-10.1271
紫薇	-10.1281
文房	-10.1284
雪霜	-10.1285
足以	-10.1287
妄	-10.1288
之義	-10.1291
葉青	-10.1294
林檎	-10.1298
糯	-10.1298
鹹	-10.1302
癖	-10.1303
疇	-10.1309
績	-10.131
劣	-10.131
娥	-10.1311
霏	-10.1313
右為末	-10.1313
兔	-10.1315
所在	-10.1315
漠漠	-10.1315
謀	-10.1316
迸	-10.1316
蒂	-10.1318
尉	-10.1318
誕	-10.1319
躍	-10.132
窨	-10.1321
鬆	-10.1321
綱	-10.1322
珮	-10.1322
擔	-10.1323
為硯	-10.1323
雛	-10.1324
矢	-10.1325
弓	-10.1327
大麥	-10.1327
凌波	-10.1328
無限	-10.1328
僊	-10.133
甘菊	-10.1331
其木	-10.1333
六年	-10.1334
此樹	-10.1347
味酸	-10.1353
五榖	-10.1355
所用	-10.1356
無花	-10.1357
千萬	-10.1365
風露	-10.1373
淘	-10.138
蘇恭曰	-10.1388
端石	-10.1394
薄荷	-10.1409
瞻	-10.142
一朶	-10.1422
五味	-10.1424
涯	-10.1443
或有	-10.1445
行書	-10.1456
榴花	-10.1474
西北	-10.1475
粹	-10.1484
之句	-10.149
牕	-10.1491
天門冬	-10.1492
衫	-10.1493
瘧	-10.1495
邵	-10.1497
旌	-10.1499
劚	-10.1499
蝕	-10.15
鐡	-10.1501
淳	-10.1502
羌	-10.1503
綘	-10.1503
冒	-10.1504
多食	-10.1504
祈	-10.1504
五臟	-10.1505
皮日休	-10.1505
床	-10.1505
險	-10.1506
迴	-10.1507
駭	-10.1507
渉	-10.1508
兄弟	-10.1509
棟	-10.1509
陪	-10.151
噴	-10.151
噐	-10.1511
豔	-10.1511
燃	-10.1512
侈	-10.1514
萃	-10.1514
粧	-10.1515
翰林	-10.1518
生薑	-10.1518
此錢	-10.1521
鄭谷	-10.1521
周禮	-10.1523
以來	-10.1525
之功	-10.153
臘月	-10.1536
因名	-10.1541
昨夜	-10.1546
靈芝	-10.1558
以水	-10.1566
蜀葵	-10.1569
朝陽	-10.1576
而厚	-10.1577
碧玉	-10.1581
嵩	-10.1582
塢	-10.1586
之物	-10.1591
為佳	-10.1595
手植	-10.16
沼	-10.1603
黄精	-10.1603
臨風	-10.1613
海南	-10.1616
有毛	-10.1617
丹青	-10.1638
天台	-10.1639
欽定四庫全書	-10.1649
萱	-10.1649
禦	-10.1653
者其	-10.1653
下氣	-10.1655
浥	-10.1667
千餘	-10.1677
清隂	-10.1681
東海	-10.1686
種竹	-10.1687
桂海虞衡志	-10.1687
栢	-10.169
畆	-10.1694
講	-10.1695
汙	-10.1695
蔣	-10.1696
逕	-10.1698
攻	-10.1699
俾	-10.1699
皆有之	-10.17
竦	-10.17
毋	-10.1702
鳬	-10.1702
繪	-10.1703
螭	-10.1703
裔	-10.1703
梵	-10.1704
函	-10.1704
樽	-10.1704
魴	-10.1705
清異録	-10.1705
挑	-10.1705
茵	-10.1705
各半兩	-10.1707
瀟灑	-10.1707
朱實	-10.1708
福州	-10.1709
各一兩	-10.1715
爛漫	-10.1719
盡日	-10.172
有刺	-10.1723
戎	-10.1726
暇	-10.1733
其法	-10.1738
香味	-10.1749
或作	-10.1753
大者如	-10.176
翠葉	-10.1761
色紅	-10.1765
尺許	-10.1768
有所	-10.1775
一云	-10.1776
亦如	-10.1784
岩	-10.1788
所居	-10.1797
玉盤	-10.1798
杜若	-10.1802
夏日	-10.1805
人參	-10.1805
不入	-10.181
瑞香	-10.1817
無風	-10.182
其枝	-10.183
雞冠	-10.1847
不可食	-10.185
枝條	-10.1861
苜蓿	-10.1863
庚	-10.1867
泊	-10.1877
抱朴子	-10.188
窗	-10.1886
項	-10.1886
梅堯臣	-10.1887
儲	-10.1888
香附子	-10.189
珪	-10.1893
昆	-10.1894
諫	-10.1895
漲	-10.1895
物類相感志	-10.1895
嗣	-10.1896
嬋娟	-10.1896
掛	-10.1897
課	-10.1897
淪	-10.1898
嫋嫋	-10.1899
不凋	-10.19
醇	-10.19
逹	-10.19
葳蕤	-10.19
内有	-10.1901
策	-10.1901
杳	-10.1903
松子	-10.1904
者不	-10.1906
結根	-10.1906
妓	-10.1906
西施	-10.1917
江淮	-10.1919
海中	-10.1921
看花	-10.1921
四方	-10.1927
者多	-10.1928
温潤	-10.1928
記云	-10.1929
不可得	-10.1944
丁香皮	-10.1945
花時	-10.195
第三	-10.1964
逮	-10.1973
早梅	-10.198
明目	-10.1988
四字	-10.199
物也	-10.201
蜀人	-10.2032
垂楊	-10.2041
右為細末	-10.2046
昨	-10.2053
黄菊	-10.2053
常以	-10.2056
題詩	-10.2063
陣	-10.2064
木芙蓉	-10.2065
歸來	-10.2065
未必	-10.2072
不絶	-10.2076
實如	-10.2077
得地	-10.2078
泄	-10.2088
昇	-10.2088
穫	-10.209
潜	-10.2091
蕤	-10.2091
倘	-10.2091
嫁	-10.2091
銖	-10.2092
暄	-10.2092
壠	-10.2094
君謨	-10.2096
喫	-10.2096
詢	-10.2097
先以	-10.21
評	-10.21
衢	-10.2101
峭	-10.2102
月令	-10.2112
團團	-10.2118
龍尾	-10.2121
扶桑	-10.2122
池上	-10.2123
宫中	-10.2131
而去	-10.2133
杏仁	-10.2133
蓮子	-10.2133
未開	-10.2153
由是	-10.2158
從此	-10.216
水仙花	-10.2168
其皮	-10.2168
之可	-10.2172
風光	-10.2193
八九月	-10.2195
漢宫	-10.2199
何必	-10.2203
淺紅	-10.2213
其莖	-10.2214
居士	-10.2232
騷	-10.2243
冬青	-10.2251
久服	-10.2254
褐	-10.2256
湛	-10.2257
十斤	-10.2268
家家	-10.227
翠羽	-10.2271
竹葉	-10.2273
東西	-10.2274
緒	-10.2275
痢	-10.2277
無言	-10.2281
箔	-10.2281
勿食	-10.2281
西京雜記	-10.2283
匙	-10.2283
鴉	-10.2284
鋒	-10.2285
脈	-10.2287
員	-10.2287
温庭筠	-10.2289
訣	-10.2292
域	-10.2296
藷	-10.2296
違	-10.2297
穉	-10.2297
澄泥	-10.2297
貽	-10.2299
個	-10.2299
援	-10.23
世間	-10.23
算	-10.2304
靄	-10.2304
舎	-10.2304
銙	-10.2306
一丈	-10.2306
不改	-10.2306
系	-10.2307
司馬	-10.2308
太祖	-10.2309
賦并序	-10.231
鈿	-10.2311
顧渚	-10.2312
説文	-10.2318
木棉	-10.2321
名花	-10.2323
又詩	-10.2327
下種	-10.233
入山	-10.234
芳香	-10.2343
南枝	-10.2346
一層	-10.2355
草木之	-10.2375
青松	-10.238
兆	-10.2386
硯銘	-10.2393
白蓮	-10.2402
二十四	-10.2402
鄉人	-10.241
冰雪	-10.2421
白日	-10.2422
其一	-10.2429
草果	-10.243
一花	-10.2439
辣	-10.2445
上苑	-10.2449
因以	-10.2458
故園	-10.2465
惱	-10.2479
而自	-10.2486
金沙	-10.2486
釀酒	-10.2489
袋	-10.2491
藜	-10.2495
元稹	-10.2495
浩	-10.2495
膜	-10.2496
罌	-10.2497
逄	-10.2499
慿	-10.2499
酪	-10.25
奩	-10.2501
稼	-10.2501
帚	-10.2501
邁	-10.2502
梳	-10.2502
拈	-10.2505
完	-10.2507
櫟	-10.2508
蓍	-10.2509
欠	-10.2509
不似	-10.251
劒	-10.2511
秤	-10.2511
禀	-10.2511
侍郎	-10.2512
窈窕	-10.2514
慘	-10.2514
杞	-10.2514
鉢	-10.2515
文賦散句	-10.2518
塵埃	-10.2519
旣	-10.2521
細而	-10.2521
天下之	-10.2522
名也	-10.2535
草生	-10.2536
一杯	-10.2537
盈尺	-10.2538
騷人	-10.2541
數尺	-10.2542
玉蘂	-10.256
篛	-10.2567
嗅	-10.2567
臨池	-10.2569
蔓延	-10.2572
鳳凰	-10.2575
置之	-10.2582
七分	-10.2582
諸香	-10.2586
一百	-10.259
收藏	-10.2592
同食	-10.2592
諒	-10.26
可以為	-10.2608
醃	-10.2611
製作	-10.2617
經年	-10.2618
數里	-10.2619
桃紅	-10.2633
一升	-10.2642
相宜	-10.2645
陌	-10.2653
箬	-10.2666
减	-10.2669
訛	-10.2675
化工	-10.2678
煉蜜	-10.2681
龍腦香	-10.2681
櫻	-10.2683
時人	-10.2687
同時	-10.269
相與	-10.27
後人	-10.2702
抵	-10.2706
六兩	-10.2707
鵠	-10.2707
蔓菁	-10.2709
粤	-10.2711
鉛	-10.2712
㯶	-10.2712
胡椒	-10.2713
𨽻	-10.2713
溜	-10.2714
有聲	-10.2714
冲	-10.2714
鄴	-10.2716
天竺	-10.2718
咀	-10.2719
饌	-10.272
徃徃	-10.2721
拙	-10.2721
冽	-10.2721
憔悴	-10.2722
聨	-10.2722
跋	-10.2722
洋	-10.2722
桞	-10.2723
梁簡文帝	-10.2723
盗	-10.2724
蒼苔	-10.2727
森森	-10.2727
鱸	-10.2727
騐	-10.2728
王十朋	-10.2728
拍	-10.2728
裊裊	-10.2729
不到	-10.2734
輦	-10.2735
不減	-10.2738
檳榔	-10.2742
篆書	-10.2745
藏之	-10.2756
求之	-10.2759
第二	-10.2778
誰與	-10.2778
尚有	-10.2781
五箇	-10.279
雞頭	-10.2793
至春	-10.2793
夜深	-10.2796
燒香	-10.2799
謂其	-10.2823
依然	-10.2829
之用	-10.284
東方	-10.2853
腹中	-10.2853
長而	-10.2857
儼	-10.2858
猶未	-10.2861
知其	-10.2864
嵓	-10.2867
者乃	-10.2871
甚美	-10.2876
木也	-10.2885
春來	-10.2894
山水	-10.2896
餘香	-10.2903
統	-10.2907
黙	-10.2912
耘	-10.2914
花似	-10.2918
填	-10.2923
漳	-10.2924
山上	-10.2924
芡	-10.2925
必有	-10.2926
白雪	-10.2928
池中	-10.2928
熙	-10.2928
湧	-10.2929
鄧	-10.2931
含笑	-10.2932
竇	-10.2932
饋	-10.2934
芙蕖	-10.2935
㫁	-10.2935
享	-10.2935
潄	-10.2935
塔	-10.2936
儉	-10.2936
毅	-10.2937
吸	-10.2938
羃	-10.2938
縛	-10.2939
懶	-10.294
悴	-10.294
次第	-10.294
庇	-10.2941
庸	-10.2941
庫	-10.2941
毁	-10.2941
敎	-10.2943
御史	-10.2946
真珠	-10.2952
胥	-10.2957
惡瘡	-10.2967
以成	-10.2969
笑曰	-10.297
有節	-10.2972
降真香	-10.2979
五六月	-10.298
其為	-10.298
千嵗	-10.2982
萬年	-10.2984
可得	-10.2988
類也	-10.2999
沸湯	-10.3004
輕身	-10.3004
春月	-10.3014
歌曰	-10.3026
而味	-10.3027
半錢	-10.3034
未詳	-10.3034
數年	-10.3042
長者	-10.3047
又一種	-10.3049
人言	-10.3066
也集藻	-10.3071
葅	-10.3076
山藥	-10.3077
七八	-10.3086
俄	-10.3103
審	-10.3105
麋	-10.3106
識者	-10.311
露華	-10.312
山在	-10.3128
風前	-10.313
若乃	-10.3133
瑣	-10.3135
同心	-10.3136
槎	-10.3138
與君	-10.314
最多	-10.3142
木之	-10.3146
有情	-10.3146
窟	-10.3148
嘯	-10.3149
畜	-10.3151
樊	-10.3157
娘	-10.3157
段	-10.3158
亨	-10.3159
肆	-10.3159
撚	-10.3159
厲	-10.316
閨	-10.316
花瓣	-10.316
途	-10.316
猿	-10.3161
斵	-10.3161
括	-10.3161
其人	-10.3161
牖	-10.3162
瀹	-10.3163
䑓	-10.3163
勅	-10.3164
樗	-10.3165
帽	-10.3165
礙	-10.3165
百卉	-10.3174
有二	-10.3178
花香	-10.3179
豈不	-10.3181
洗淨	-10.3182
斷腸	-10.3183
所生	-10.3186
註云	-10.3198
籬落	-10.3201
不散	-10.3203
政和	-10.321
者必	-10.3212
煌煌	-10.3214
即今	-10.3219
枝幹	-10.3227
樹髙	-10.3227
為貴	-10.3227
後有	-10.3228
九華	-10.323
依舊	-10.3231
紅白	-10.3234
處士	-10.3238
不若	-10.3239
花前	-10.3245
兒女	-10.3247
金谷	-10.3252
春時	-10.3261
色深	-10.3263
浙	-10.3269
殿前	-10.3276
可種	-10.3285
之意	-10.3293
也右	-10.3296
一兩半	-10.3302
有黄	-10.3306
江梅	-10.3306
不忍	-10.3309
風動	-10.3311
為人	-10.3312
久之	-10.3312
藿	-10.3313
馬蹄	-10.332
璞	-10.3338
人之	-10.3344
仕	-10.3345
一色	-10.3348
二斤	-10.3351
狐	-10.3363
唐人	-10.3364
遜	-10.3366
鋭	-10.3367
稗	-10.3368
擷	-10.3373
膽	-10.3373
副	-10.3374
餳	-10.3374
柚	-10.3375
有兩	-10.3377
玉樹	-10.3379
篠	-10.338
欽	-10.3382
白芨	-10.3382
醜	-10.3382
酘	-10.3382
衞	-10.3383
豚	-10.3383
仗	-10.3384
二物	-10.3385
蘄	-10.3385
突	-10.3386
彫	-10.3386
秋日	-10.3386
得一	-10.3386
阮	-10.3389
琳	-10.3389
沿	-10.339
革	-10.339
等謹案	-10.3391
効	-10.3391
葉葉	-10.3393
藴	-10.3393
蠲	-10.3393
背文	-10.3394
廷珪	-10.3394
䕫	-10.3395
謙	-10.3395
曙	-10.3396
姚合	-10.3397
方岳	-10.3403
不知其	-10.3403
澆灌	-10.3405
紫芝	-10.3408
木槿	-10.3409
楊妃	-10.341
根下	-10.3411
畨	-10.3414
薛能	-10.3414
飄零	-10.3415
芸香	-10.3426
當歸	-10.3427
經霜	-10.3427
神仙傳	-10.3432
之餘	-10.3432
文曰	-10.3437
始知	-10.3438
杭州	-10.3447
如小	-10.3449
相逢	-10.3457
雍	-10.3458
南中	-10.346
種者	-10.3461
二升	-10.347
重重	-10.3474
著花	-10.3486
野菊	-10.3491
石質	-10.3499
濵	-10.351
花經	-10.3512
見日	-10.3515
誰能	-10.3515
淺深	-10.3524
正色	-10.3525
緋	-10.353
廬山	-10.3536
之形	-10.354
青春	-10.3541
可觀	-10.3543
之士	-10.3561
山隂	-10.3573
三五	-10.3593
夭桃	-10.3594
暮春	-10.3594
樝	-10.3595
耳目	-10.3596
立春	-10.3598
蕎麥	-10.36
冀	-10.3601
匝	-10.3604
芰	-10.3605
采根	-10.3605
向日	-10.361
成林	-10.3611
縠	-10.3611
税	-10.3612
蠱毒	-10.3613
敲	-10.3614
攝	-10.3614
决	-10.3614
無名氏	-10.3615
搴	-10.3616
莓苔	-10.3616
纈	-10.3616
麪	-10.3617
何所	-10.3617
鑑	-10.3617
淹	-10.3618
猛	-10.3618
欝	-10.3619
笙	-10.3621
蹋	-10.3621
謾	-10.3622
遵	-10.3622
灘	-10.3623
噫	-10.3623
汴	-10.3624
江頭	-10.3624
棟梁	-10.3624
纓	-10.3624
秋光	-10.3625
麄	-10.3627
云云	-10.3628
灼灼	-10.3628
専	-10.3628
揖	-10.363
苐	-10.363
試之	-10.3631
仙家	-10.3635
之盛	-10.3635
宋史	-10.3641
黄熟香	-10.3644
而下	-10.3667
耐久	-10.3668
大豆	-10.3676
水上	-10.3681
成隂	-10.3689
名為	-10.3695
有二種	-10.3698
三升	-10.3704
樓子	-10.3706
鵝	-10.3708
孤根	-10.3715
産茶	-10.3719
其家	-10.3721
城東	-10.3722
光澤	-10.3723
真人	-10.3728
與之	-10.3733
本草綱目云	-10.3739
其文	-10.3747
冷氣	-10.3751
入貢	-10.3753
仁宗	-10.3753
桑葉	-10.3753
郎中	-10.376
而尖	-10.3761
又以	-10.3764
南陽	-10.3766
不肯	-10.3767
甘美	-10.3768
只有	-10.3773
者良	-10.3777
圓如	-10.378
春初	-10.378
方可	-10.378
亦云	-10.3785
陳紫	-10.3792
郭璞	-10.3794
余嘗	-10.3795
一半	-10.3795
養之	-10.3796
人所	-10.3798
紫檀	-10.3799
花枝	-10.38
云是	-10.3804
峽	-10.3806
恰	-10.3807
於上	-10.3814
繡毬	-10.3821
山多	-10.383
臨水	-10.3831
花紅	-10.3831
糊	-10.3832
錢按	-10.3835
菁	-10.3845
怡	-10.3845
拒	-10.3845
恍	-10.3847
觀其	-10.3848
隙	-10.3848
嚥	-10.3849
飬	-10.385
鷹	-10.3851
簟	-10.3852
些	-10.3852
汀	-10.3853
阻	-10.3855
萋萋	-10.3855
僻	-10.3855
優	-10.3856
春雨	-10.3856
枉	-10.3856
鳩	-10.3856
慧	-10.3856
暝	-10.3858
菡蓞	-10.3859
杓	-10.3859
縱横	-10.386
未見	-10.3861
邈	-10.3863
髣髴	-10.3863
飇	-10.3864
股	-10.3865
蔡君謨	-10.3865
諺云	-10.3865
瓷	-10.3866
装	-10.3867
百姓	-10.3867
籟	-10.3867
此魚	-10.3867
物之	-10.3868
桂樹	-10.387
有大	-10.387
磁器	-10.3876
錦繡	-10.3877
一叢	-10.388
孔子	-10.388
細辛	-10.3883
車馬	-10.3893
遣使	-10.3914
雨聲	-10.3923
小麥	-10.394
復生	-10.3941
其氣	-10.3942
葉而	-10.3948
至秋	-10.3959
俗呼為	-10.3959
捕	-10.3963
文字	-10.3964
長短	-10.3975
古松	-10.3978
世所	-10.398
史記	-10.398
之説	-10.3981
神農	-10.3982
太真	-10.3983
南國	-10.3985
亦以	-10.399
前人	-10.3991
郁	-10.4006
髙枝	-10.4012
氣味辛	-10.4017
城中	-10.4018
青翠	-10.4019
鬛	-10.4024
袂	-10.4028
其本	-10.4033
食貨志	-10.4034
百里	-10.4047
青州	-10.4047
一石	-10.4048
而上	-10.4058
盂	-10.406
極細	-10.406
男	-10.4063
服食	-10.4066
朴	-10.4066
采采	-10.407
交趾	-10.4073
桓	-10.4074
簮	-10.4077
緑隂	-10.4079
苕	-10.4084
魚一名	-10.4084
劈	-10.4087
霜露	-10.4089
尤佳	-10.4089
驢	-10.4089
枝枝	-10.4089
疲	-10.4091
挼	-10.4091
距	-10.4092
判	-10.4093
偃蹇	-10.4094
消息	-10.4094
匏	-10.4098
譬	-10.4098
灼	-10.4098
攷	-10.41
麟	-10.41
構	-10.4101
一統志	-10.4101
頴	-10.4101
役	-10.4101
澁	-10.4102
抛	-10.4102
敏	-10.4104
逓	-10.4104
唐王維	-10.4104
刋	-10.4105
隈	-10.4105
慣	-10.4107
檐	-10.4108
胸中	-10.4108
碑	-10.4109
兒童	-10.411
宋歐陽修	-10.4111
椽	-10.4111
金絲	-10.4111
乾清宫	-10.4113
醪	-10.4114
中央	-10.4114
亦有之	-10.4114
有意	-10.4115
厚而	-10.4118
柳色	-10.4123
栽培	-10.4123
賦云	-10.4138
空山	-10.4141
離騷	-10.4142
徽	-10.415
周公	-10.4161
蒼翠	-10.4162
文帝	-10.4165
熟則	-10.4165
猶在	-10.4171
麻子	-10.4173
無聲	-10.4173
說文	-10.4174
襲人	-10.4175
一字	-10.4175
不言	-10.4181
青苔	-10.4181
所見	-10.4182
分明	-10.4182
不一	-10.4183
雨餘	-10.4188
左傳	-10.4188
可惜	-10.4192
雖有	-10.4197
一觔	-10.4199
李氏	-10.4201
應是	-10.4202
觀之	-10.4207
歲寒	-10.4209
未可	-10.4217
碧色	-10.4217
秀色	-10.4219
何物	-10.4226
書云	-10.423
何年	-10.4232
相連	-10.4236
子一名	-10.4244
碩	-10.4245
杜鵑	-10.425
皇帝	-10.4271
不厭	-10.4271
邪氣	-10.4273
竹林	-10.4276
嘉樹	-10.4278
凌雲	-10.4278
聖人	-10.428
見一	-10.4283
丞	-10.4283
不禁	-10.4284
清霜	-10.4298
王者	-10.4307
六分	-10.431
州刺史	-10.4312
城南	-10.4314
以供	-10.4319
清泉	-10.4323
所得	-10.4324
松樹	-10.4325
白檀香	-10.4326
出水	-10.4326
綸	-10.4332
岕	-10.4333
導	-10.4335
悶	-10.4338
析	-10.434
亟	-10.4342
尸	-10.4344
生于	-10.4344
開元	-10.4344
韋莊	-10.4344
周庾信	-10.4346
踐	-10.4347
多葉	-10.4347
巵	-10.4347
甚佳	-10.4349
頑	-10.4349
杭	-10.4349
膾	-10.4349
冩	-10.4351
儂	-10.4351
叠	-10.4352
嵐	-10.4352
之美	-10.4352
倩	-10.4353
箕	-10.4353
懿	-10.4354
䖍	-10.4355
層層	-10.4355
劉禹錫	-10.4356
夢溪筆談	-10.4357
卯	-10.4358
邇	-10.4359
恣	-10.4359
漪	-10.4359
莫不	-10.436
宋司馬光	-10.436
延年	-10.4362
責	-10.4363
王維	-10.4369
錢塘	-10.437
天地之	-10.4376
松蘿	-10.4378
春歸	-10.4383
泰山	-10.4388
以備	-10.4388
斛	-10.4392
四錢	-10.4394
何足	-10.4396
花木	-10.4404
如金	-10.4404
蒼蒼	-10.4405
百日	-10.441
中庭	-10.4418
一品	-10.4428
君王	-10.443
同前	-10.4432
王母	-10.4437
七錢	-10.4439
貴人	-10.445
不獨	-10.4451
不易	-10.4458
桂林	-10.4461
花下	-10.4465
之際	-10.4471
之外	-10.4472
和之	-10.4477
一箇	-10.448
凌霜	-10.4486
號為	-10.4488
也故	-10.4493
紅葉	-10.4495
丞相	-10.4502
外有	-10.4509
春夏	-10.451
風起	-10.451
已上	-10.4511
賦得	-10.4515
不惜	-10.4517
民間	-10.4521
渭	-10.4521
用以	-10.4537
以後	-10.4539
湖州	-10.454
未識	-10.4541
零陵	-10.4554
不朽	-10.4559
春生	-10.4562
清水	-10.4569
他處	-10.4574
未得	-10.4578
人不	-10.4578
不出	-10.458
陽氣	-10.4585
飲茶	-10.4585
春深	-10.4587
塩	-10.4589
糠	-10.4594
南有	-10.4594
帆	-10.46
攤	-10.4601
醢	-10.4601
樟	-10.4602
鄒	-10.4602
葫蘆	-10.4604
匾	-10.4604
繇	-10.4604
堇	-10.4604
李賀	-10.4605
蹤	-10.4605
眩	-10.4605
榜	-10.4605
和香	-10.4606
豹	-10.4606
獵	-10.4607
樟腦	-10.4607
儔	-10.4607
劉克莊	-10.4607
蒨	-10.4609
楹	-10.4609
鍊	-10.4609
哲	-10.4609
窪	-10.461
以下	-10.461
基	-10.461
閟	-10.4611
藹	-10.4611
宋黄庭堅	-10.4611
頸	-10.4612
乾坤	-10.4614
頼	-10.4614
姝	-10.4615
傑	-10.4616
無鱗	-10.4618
創	-10.4618
釡	-10.462
渥	-10.4623
右件用	-10.4636
葉細	-10.4639
而圓	-10.4639
永嘉	-10.4641
修治	-10.4649
草也	-10.465
薰風	-10.4652
晝夜	-10.4654
㸃綴	-10.4656
江水	-10.4656
刻作	-10.4659
合抱	-10.4662
而堅	-10.4674
深淺	-10.4676
朝日	-10.4684
多用	-10.4687
空中	-10.4692
三卷	-10.4695
莊子	-10.4696
他日	-10.4704
此香	-10.4704
心腹	-10.4708
酒浸	-10.4716
幽蘭	-10.4718
多種	-10.4721
多生	-10.4723
石灰	-10.4729
老夫	-10.4731
河東	-10.4738
晉郭璞	-10.4742
千瓣	-10.4743
六出	-10.4744
自生	-10.4746
更有	-10.4748
為墨池	-10.4755
瓶中	-10.4756
東山	-10.476
大率	-10.4761
人生	-10.4764
非也	-10.4767
言之	-10.4774
蘭蕙	-10.4774
亦佳	-10.4776
百果	-10.4782
上人	-10.4782
状如	-10.4785
一名地	-10.4795
麓	-10.48
為我	-10.4815
長松	-10.4817
二百	-10.482
少時	-10.4821
嫩時	-10.4829
茶譜	-10.4829
不湏	-10.4831
舶	-10.4833
簫	-10.4835
細細	-10.4837
寒暑	-10.4841
黄丹	-10.4842
冬至	-10.4845
荆州	-10.4846
麵	-10.4854
有異	-10.4855
牡	-10.4858
膳	-10.4859
陸龜蒙	-10.486
虧	-10.4862
歐	-10.4862
韓偓	-10.4863
緘	-10.4863
漾	-10.4865
賊	-10.4865
紹	-10.4866
侔	-10.4866
豫	-10.4866
蟄	-10.4868
曷	-10.4868
無心	-10.4869
酉陽雜爼	-10.487
薝蔔	-10.487
堕	-10.487
㸑	-10.4871
刃	-10.4872
洽	-10.4873
清異錄	-10.4873
寂寥	-10.4874
荘	-10.4874
畵	-10.4875
鸚鵡	-10.4875
紉	-10.4876
糜	-10.4877
因其	-10.4877
協	-10.4877
俞	-10.4877
沁	-10.4878
耗	-10.4878
張籍	-10.4878
宋韓琦	-10.4879
恱	-10.4879
徂	-10.4879
罩	-10.488
何妨	-10.4881
靑	-10.4881
廣雅	-10.4881
池塘	-10.4884
猗猗	-10.4884
賽	-10.4886
辯	-10.4889
翠袖	-10.4893
樓臺	-10.4897
瑶池	-10.4901
盆中	-10.4901
又有一種	-10.4903
豐年	-10.4905
落盡	-10.4907
龍鱗	-10.4907
三種	-10.4908
茶録	-10.4909
細剉	-10.4912
時時	-10.4913
新妝	-10.4913
紅絲	-10.4914
八九	-10.4917
斜陽	-10.4917
官桂	-10.4917
不妨	-10.4926
田家	-10.4926
檀心	-10.4934
結實如	-10.4935
者非	-10.495
吳人	-10.4953
落英	-10.4961
他年	-10.4966
滋味	-10.4967
金線	-10.4968
衣裳	-10.4968
山川	-10.497
詩注	-10.4973
豈知	-10.4973
次年	-10.4973
新茶	-10.4979
一首	-10.4982
弟子	-10.4985
迎風	-10.4989
仙子	-10.4992
亦無	-10.4993
不自	-10.4994
夫子	-10.4995
天寒	-10.4995
千株	-10.4995
皆不	-10.4998
十數	-10.4998
林中	-10.4998
三字	-10.4999
黯	-10.5001
之子	-10.5002
石渠	-10.5003
世傳	-10.5004
北山	-10.501
落日	-10.501
二人	-10.5013
百合	-10.5021
珍重	-10.5026
一處	-10.5027
者則	-10.5028
春寒	-10.5039
此品	-10.5046
如雪	-10.5047
中空	-10.5048
竭	-10.5049
所種	-10.505
大錢	-10.5051
秋冬	-10.5061
嬌紅	-10.5066
葉底	-10.507
玉女	-10.5073
歙州	-10.5074
一聲	-10.5076
陽春	-10.5079
承露	-10.5082
乃有	-10.5084
牽牛	-10.5087
刮	-10.5095
萬嵗	-10.5101
甆	-10.5104
元和	-10.5111
白如	-10.5113
㦸	-10.5114
日華	-10.5121
州有	-10.5122
榨	-10.5122
鷗	-10.5128
姜	-10.5131
癰腫	-10.5132
濾	-10.5132
凄	-10.5134
曄	-10.5134
奮	-10.5135
曵	-10.5136
殖	-10.5136
而出	-10.5137
崩	-10.5138
辦	-10.5138
斧斤	-10.514
搓	-10.514
荚	-10.5141
迨	-10.5141
寅	-10.5142
肖	-10.5142
翩翩	-10.5142
坼	-10.5143
銳	-10.5144
稟	-10.5144
斬	-10.5145
河南	-10.5145
士大夫	-10.5146
薏苡	-10.5147
捨	-10.5151
宋王安石	-10.5151
矯	-10.5152
許渾	-10.5155
壑源	-10.5157
龍鳯	-10.5159
露滴	-10.5164
嘉名	-10.5166
只恐	-10.5166
黄山志	-10.5168
後世	-10.517
作餅	-10.5174
傾城	-10.5175
金瘡	-10.5178
風月	-10.5182
向人	-10.5186
輕盈	-10.5186
把酒	-10.5197
烏頭	-10.5202
半月	-10.521
其餘	-10.5212
豆蔲	-10.5213
老則	-10.5218
陳皮	-10.5219
寺僧	-10.5222
山人	-10.5224
號曰	-10.5235
黄柑	-10.5237
緑色	-10.5239
深處	-10.524
己	-10.5245
若有	-10.5256
光彩	-10.526
甘棠	-10.5271
未能	-10.5273
造物	-10.5274
羅浮	-10.5275
一一	-10.5275
真香	-10.5289
望之	-10.5291
樹之	-10.5292
云此	-10.53
歸来	-10.5302
于是	-10.531
作羮	-10.5313
日乾	-10.5317
山丹	-10.5319
脹	-10.5323
有時	-10.5328
品類	-10.5332
小桃	-10.5337
花白	-10.5337
之日	-10.5338
大樹	-10.5339
之於	-10.5343
另研	-10.5345
衣香	-10.5348
相如	-10.5349
也然	-10.5351
吳中	-10.5353
台	-10.5353
陌上	-10.5356
碗	-10.5362
羙人	-10.5373
㸃㸃	-10.5374
拘	-10.5374
槿	-10.5375
數寸	-10.539
明朝	-10.5393
早春	-10.54
貺	-10.5405
榻	-10.5407
青黄	-10.5409
麯	-10.5409
銅雀	-10.541
捐	-10.5412
阜	-10.5412
呌	-10.5413
颺	-10.5414
赫	-10.5414
瑟	-10.5415
炯	-10.5416
楠	-10.5417
摶	-10.5417
棣	-10.5417
卦	-10.5418
酉	-10.5418
牒	-10.5418
恥	-10.5418
跨	-10.5419
撼	-10.5419
對曰	-10.5419
嘲	-10.5419
明李東陽	-10.542
遁	-10.5421
唐太宗	-10.5421
抹	-10.5421
員外	-10.5421
剰	-10.5421
卽	-10.5422
蘼蕪	-10.5424
悔	-10.5424
鱠	-10.5425
摭	-10.5425
峙	-10.5426
春花	-10.5426
如常法	-10.5427
磊落	-10.5428
陜西	-10.5428
太宗	-10.5428
参	-10.5428
所植	-10.5429
繒	-10.5429
磬	-10.5431
形製	-10.5431
垢	-10.5432
芬馥	-10.5433
丈餘	-10.5434
貴妃	-10.5436
宛轉	-10.5436
無端	-10.5437
是時	-10.5439
睡起	-10.544
根似	-10.5447
一般	-10.5449
廣陵	-10.5452
者為上	-10.5452
中州	-10.5456
復有	-10.5469
國香	-10.5471
或如	-10.5471
作詩	-10.5473
一名白	-10.5477
前有	-10.5486
憲	-10.5488
五出	-10.549
蘆花	-10.549
二曰	-10.5502
有此	-10.5511
覆之	-10.5521
紫雲	-10.5528
寒梅	-10.5537
無此	-10.5545
甘蔗	-10.5545
日出	-10.5545
辟邪	-10.5545
絶品	-10.5552
酒杯	-10.5556
金星	-10.5565
有詩	-10.5566
過之	-10.5568
雲氣	-10.5573
平地	-10.5574
之竒	-10.5576
又似	-10.5581
其類	-10.5585
貴重	-10.5587
人知	-10.5601
香滿	-10.5609
翰墨	-10.561
山僧	-10.5614
二日	-10.5616
十丈	-10.5623
雪裏	-10.5627
王氏	-10.5631
大如指	-10.5636
之令	-10.5638
篁	-10.5641
野菜譜	-10.5649
圓而	-10.5649
一夕	-10.5661
六七月	-10.5665
夹	-10.5667
鮫	-10.5668
苦竹	-10.5673
緻	-10.5675
北地	-10.5677
限	-10.5679
萬株	-10.5679
喙	-10.5682
人面	-10.5683
大笑	-10.5684
芷	-10.5686
悵	-10.5686
豉	-10.5688
豬	-10.5689
㵼	-10.5696
霍亂	-10.5696
兎絲	-10.5696
旺	-10.5697
之異	-10.5697
未央	-10.5698
耿	-10.5698
竪	-10.5698
墀	-10.5699
租	-10.5699
炳	-10.5699
什	-10.5699
掠	-10.57
昻	-10.57
璫	-10.5701
元氣	-10.5703
并序	-10.5704
華林園	-10.5704
棚	-10.5704
箱	-10.5704
囬	-10.5705
遂為	-10.5705
藩	-10.5705
熖	-10.5705
禮記月令	-10.5706
歐陽	-10.5707
緜	-10.5708
呂	-10.5708
奕	-10.5708
做	-10.5709
磚	-10.571
蘇轍	-10.571
狼籍	-10.571
頒	-10.571
筠籠	-10.571
宏	-10.571
罈	-10.5711
爛熳	-10.5711
綽約	-10.5712
鮑	-10.5712
範	-10.5712
拖	-10.5712
淡紅	-10.5713
更無	-10.5713
切片	-10.5716
用鹽	-10.5718
蔡襄	-10.5718
相近	-10.5719
圖經	-10.5719
忘憂	-10.572
千畝	-10.5724
未成	-10.5729
宣城	-10.5732
煑熟	-10.5741
密葉	-10.5742
日用	-10.5743
柔條	-10.5749
肌膚	-10.5749
三稜	-10.5756
上品	-10.5758
滚	-10.5758
二錢半	-10.5759
九分	-10.576
之人	-10.5767
小松	-10.5769
别離	-10.5779
此則	-10.578
明皇	-10.5781
有四	-10.5783
則無	-10.5784
姚黄	-10.5794
不變	-10.5794
佳品	-10.5796
嵗月	-10.5804
榖雨	-10.5806
大寒	-10.5806
有小	-10.5806
而食之	-10.5809
布葉	-10.5811
火齊	-10.5818
烹茶	-10.5827
金銀	-10.583
向陽	-10.584
劉郎	-10.5841
良久	-10.5844
秋水	-10.5844
千古	-10.5844
夏至	-10.5845
滿庭	-10.5849
愛之	-10.585
八十	-10.5856
諸山	-10.5857
三春	-10.5858
天池	-10.5863
名之	-10.5868
最為	-10.5871
至冬	-10.5877
不佳	-10.5882
胸	-10.5885
鑄錢	-10.5889
之若	-10.589
汾	-10.5896
六七	-10.5897
有數種	-10.5903
三千	-10.5904
人謂	-10.5934
黝	-10.5952
經宿	-10.5952
未足	-10.5958
乃是	-10.5958
水邊	-10.5959
壞	-10.5963
芳意	-10.5971
狼	-10.5975
一次	-10.5978
脾胃	-10.5979
堪作	-10.5981
二品	-10.5982
電	-10.5989
萊	-10.5989
唾	-10.599
膝	-10.5991
岫	-10.5993
糯米	-10.5993
匡	-10.5993
雪花	-10.5994
埃	-10.5995
瑰	-10.5995
嶠	-10.5995
皎	-10.5995
嬾	-10.5996
鉤	-10.5996
異物志	-10.5997
瀟湘	-10.5997
蚤	-10.5997
苓	-10.5998
憎	-10.5998
掲	-10.5998
儻	-10.5998
掖	-10.5998
旖旎	-10.5998
燼	-10.5999
淫	-10.5999
盧橘	-10.5999
癭	-10.6001
孟郊	-10.6001
虯	-10.6001
妒	-10.6003
軸	-10.6003
棄之	-10.6003
茝	-10.6004
始見	-10.6006
顰	-10.6007
毗	-10.6007
呵	-10.6007
的皪	-10.6008
梅雨	-10.6009
芎藭	-10.6009
擾	-10.6009
閏	-10.601
販	-10.6011
姸	-10.6011
篋	-10.6011
霏霏	-10.6012
箆	-10.6013
薜荔	-10.6016
孤山	-10.6017
地上	-10.6021
得此	-10.6024
占城	-10.6025
見於	-10.6027
回首	-10.6027
食者	-10.6027
雞舌香	-10.6028
禮記	-10.6032
秋月	-10.6033
黄帝	-10.6034
滿枝	-10.6037
江陵	-10.6046
二色	-10.6048
無語	-10.6057
不堪用	-10.6058
姓名	-10.6066
刺史	-10.6067
之故	-10.607
飛去	-10.6076
衆木	-10.6078
可喜	-10.6083
飛燕	-10.6084
腦子	-10.6087
楚客	-10.6088
金陵	-10.6098
樂府	-10.61
先春	-10.6104
二株	-10.611
濕地	-10.6112
花也	-10.6114
鮮明	-10.6116
非常	-10.6122
日中	-10.6128
繁枝	-10.6129
至此	-10.6137
紫莖	-10.6139
青絲	-10.6139
漁人	-10.614
彼人	-10.6142
沉檀	-10.6144
蛟	-10.6145
與此	-10.6148
益精	-10.6148
入土	-10.6152
黄華	-10.6154
生苗	-10.6155
之言	-10.6155
井水	-10.6162
四圍	-10.6167
外國	-10.6168
公主	-10.6171
此日	-10.6175
巖桂	-10.6177
花色	-10.6181
樹上	-10.6184
冰霜	-10.6185
牛羊	-10.6187
妨	-10.6188
夏秋	-10.6189
衙	-10.619
龍門	-10.6198
映日	-10.6204
謫	-10.6208
採茶	-10.6208
殺人	-10.621
茂盛	-10.6211
之東	-10.6212
金縷	-10.6212
而歸	-10.6214
中書	-10.622
故以	-10.6222
靈根	-10.6232
火燒	-10.6233
異常	-10.6236
既而	-10.6239
有感	-10.6248
一名馬	-10.6253
携	-10.6253
晞	-10.6257
幾時	-10.6262
巫	-10.6264
庖	-10.6265
此地	-10.6266
宫人	-10.6267
枳	-10.6268
瑕	-10.6275
稚	-10.6279
府志	-10.6286
敦	-10.6287
飼	-10.629
棉	-10.629
查	-10.629
芟	-10.6292
琥珀	-10.6293
斸	-10.6293
坤	-10.6294
蒺藜	-10.6296
夙	-10.6297
硝	-10.6297
尤多	-10.6299
檉	-10.6299
滲	-10.63
冐	-10.6301
婀娜	-10.6301
漂	-10.6302
篾	-10.6302
汪	-10.6302
止渇	-10.6303
逝	-10.6303
霓裳	-10.6303
為最	-10.6304
折枝	-10.6305
拏	-10.6305
軰	-10.6305
擕	-10.6305
醴	-10.6306
寔	-10.6306
玳瑁	-10.6306
稉	-10.6307
摹	-10.6307
寮	-10.6307
頤	-10.6308
綰	-10.6308
逞	-10.6308
攬	-10.6309
闊	-10.631
輪囷	-10.631
㕘	-10.631
遞	-10.631
款	-10.6311
裘	-10.6312
稅	-10.6312
疉	-10.6312
夜月	-10.6313
藂	-10.6313
悵望	-10.6313
唐韓愈	-10.6314
濫	-10.6315
同名	-10.6315
蓓蕾	-10.6316
道家	-10.6316
閉門	-10.6317
博士	-10.6319
昨日	-10.632
暴乾	-10.6321
樽前	-10.6325
銀杏	-10.6325
陳藏器曰	-10.6327
下巖	-10.6335
無事	-10.6336
重臺	-10.6337
楚辭	-10.6338
勁節	-10.634
籬邊	-10.6348
太湖	-10.6348
君不見	-10.6352
下垂	-10.6353
幽姿	-10.6353
始生	-10.6356
金鈴	-10.6356
知之	-10.6358
褐色	-10.6365
金石	-10.6367
龍鬚	-10.6367
春事	-10.6374
西蜀	-10.6378
初見	-10.6379
以前	-10.6382
香烟	-10.6389
蘭亭	-10.6391
每嵗	-10.6394
傳云	-10.6396
有五	-10.6397
桐花	-10.6397
薊	-10.6398
獨自	-10.6402
輕薄	-10.6406
一名山	-10.6408
紅藥	-10.6416
江西	-10.6422
紫蘇	-10.6427
知是	-10.643
公曰	-10.6433
巻	-10.6434
是為	-10.6436
差小	-10.6436
不已	-10.6438
老子	-10.6439
不饑	-10.644
不去	-10.6445
叩	-10.645
之事	-10.6459
東風吹	-10.646
書之	-10.6464
不在	-10.6466
滿山	-10.6467
木瓜	-10.6468
一條	-10.6472
器中	-10.6474
一名水	-10.6483
當是	-10.6488
太和	-10.6496
開白花	-10.6502
味極	-10.651
不欲	-10.6511
何須	-10.6511
右一品	-10.6513
秋聲	-10.6515
惟此	-10.6522
葷	-10.6529
十枚	-10.6532
收之	-10.6533
未盡	-10.6538
秋雨	-10.6538
雪中	-10.6538
紅塵	-10.654
棧	-10.6546
鍋	-10.6553
多有之	-10.6557
一生	-10.6558
之象	-10.6558
十九	-10.6559
中出	-10.656
須用	-10.656
躑躅	-10.6561
蹊	-10.6573
蘇州	-10.6576
黒色	-10.6577
出入	-10.6577
一大	-10.6585
蹄	-10.6586
歎曰	-10.6587
小山	-10.659
酲	-10.6593
䦨干	-10.6598
宿根	-10.6598
拾遺	-10.6599
鯽	-10.6604
靖	-10.6604
朱櫻	-10.6605
俎	-10.6605
虎邱	-10.6606
猗	-10.6606
蠣	-10.6606
痔	-10.6607
雀舌	-10.6607
矗	-10.6608
悠悠	-10.661
陳與義	-10.661
黃色	-10.661
跳	-10.661
屯	-10.6612
灣	-10.6612
人有	-10.6612
皴	-10.6613
劇	-10.6613
諧	-10.6614
雲南	-10.6614
紅蓮	-10.6615
欣然	-10.6615
炫	-10.6615
沮	-10.6615
陳藏器云	-10.6615
紐	-10.6616
槃	-10.6616
㡌	-10.6616
墟	-10.6616
姥	-10.6617
五更	-10.6617
儘	-10.6617
狎	-10.6618
娱	-10.6618
驕	-10.6618
伸	-10.6619
苦菜	-10.6619
勉	-10.6619
蘖	-10.6619
飈	-10.6619
不許	-10.662
帥	-10.662
臆	-10.6622
晁	-10.6622
人以為	-10.6623
盜	-10.6624
銚	-10.6624
緇	-10.6624
校官	-10.6625
硫黄	-10.6626
丰	-10.6626
娟	-10.6626
金莖	-10.6627
坂	-10.6628
滿樹	-10.6628
氤氲	-10.6628
醖	-10.6628
茜	-10.6629
水面	-10.6629
夘	-10.6632
香美	-10.6633
不解	-10.6634
白樂天	-10.6635
女貞	-10.6636
以手	-10.6637
陛下	-10.664
蘇合香	-10.664
右軍	-10.6641
冬瓜	-10.6645
青山	-10.6648
進士	-10.6649
人取	-10.6651
旃檀	-10.6655
歙硯	-10.6659
清芬	-10.666
其次	-10.6663
何由	-10.6664
半觔	-10.6664
扵是	-10.6666
鶴頂	-10.6667
二三寸	-10.6677
七十	-10.6681
陶令	-10.6683
觀音	-10.6684
識語	-10.6688
七八月	-10.669
孤芳	-10.6691
所宜	-10.6691
千尺	-10.6694
安石榴	-10.6695
今按	-10.67
名園	-10.6708
無用	-10.6709
人呼	-10.6711
甘泉	-10.6713
於世	-10.6715
出者	-10.6716
硯首	-10.6719
異之	-10.6725
蒸熟	-10.6732
速香	-10.6732
山記	-10.6733
久則	-10.6739
夢中	-10.6751
蛀	-10.6752
寛三寸	-10.6754
五行	-10.6757
一家	-10.6766
皮厚	-10.6766
鈐寳	-10.6769
者又	-10.6772
者即	-10.6772
問之	-10.6775
所製	-10.6779
金橘	-10.678
不動	-10.6788
秋深	-10.6791
如是	-10.6794
天寳	-10.6796
秋菊	-10.6796
色赤	-10.6799
白衣	-10.68
常有	-10.6805
終不	-10.6811
而香	-10.6811
相見	-10.6813
管子	-10.6814
爾乃	-10.6814
不類	-10.6815
金英	-10.6816
白蜜	-10.6822
嫩葉	-10.6826
者為勝	-10.6829
盆内	-10.6833
新羅	-10.6835
所作	-10.6835
隨風	-10.6842
是知	-10.6843
揺落	-10.6845
春去	-10.6847
青女	-10.6848
當以	-10.6848
白石	-10.6855
數千	-10.6863
碧雲	-10.6866
冷水	-10.6878
半開	-10.688
晶	-10.69
最盛	-10.6905
十七	-10.6906
無以	-10.6914
何為	-10.6917
花實	-10.6917
罐	-10.6921
香餅	-10.6921
楷	-10.6922
白而	-10.6922
疫	-10.6923
於水	-10.6924
剔	-10.6924
松花	-10.6925
醤	-10.6925
札	-10.6925
四五月	-10.6929
秋來	-10.693
文散句	-10.693
種也	-10.693
茶味	-10.6931
箸	-10.6931
豌豆	-10.6932
蒸之	-10.6932
金玉	-10.6932
芩	-10.6932
版	-10.6933
縑	-10.6933
鯽魚	-10.6934
松風	-10.6934
巔	-10.6935
逃	-10.6935
護	-10.6936
牘	-10.6936
如故	-10.6936
巡	-10.6938
昀	-10.6938
淒	-10.6938
嘴	-10.6939
溺	-10.694
陟	-10.694
揭	-10.694
秋蘭	-10.694
濯濯	-10.694
冥	-10.6941
偕	-10.6942
鋸	-10.6942
覔	-10.6942
咎	-10.6942
䟽	-10.6942
鼔	-10.6942
北斗	-10.6943
慵	-10.6945
膺	-10.6945
椏	-10.6945
生青熟	-10.6947
訴	-10.6948
亥	-10.6949
純白	-10.6949
鄂	-10.695
記得	-10.6951
棣棠	-10.6951
地名	-10.6952
如絲	-10.6952
厚二寸	-10.6953
巴豆	-10.6955
南越志	-10.6957
椰子	-10.6958
片片	-10.696
曰蟹	-10.6961
風土記	-10.6965
片腦	-10.6967
廣志云	-10.6968
丁皮	-10.6969
蕭條	-10.6974
東北	-10.6979
西瓜	-10.6984
風日	-10.6985
老圃	-10.6986
沉沉	-10.6987
地黄	-10.6991
葉落	-10.6998
鯉魚	-10.7002
千丈	-10.7009
其事	-10.7013
雲霧	-10.7016
柏樹	-10.7017
剖之	-10.7019
之山	-10.7023
琢為	-10.7023
二斗	-10.7027
冬夏	-10.7027
内府	-10.7027
成叢	-10.7034
縣有	-10.7034
壓枝	-10.7037
五百	-10.7039
建州	-10.7045
桃源	-10.7046
細如	-10.7058
變化	-10.7063
千歲	-10.7066
遊人	-10.707
殘紅	-10.7071
流鶯	-10.7083
用水	-10.7086
乃以	-10.709
銘曰	-10.7096
此木	-10.7098
佩之	-10.7098
葉圓	-10.7101
登髙	-10.7106
我欲	-10.7112
書曰	-10.7114
人亦	-10.7115
越王	-10.7115
山石	-10.7116
南越	-10.7122
想見	-10.7125
一顆	-10.7126
樓上	-10.7127
五七	-10.713
器物	-10.713
以示	-10.7134
其言	-10.714
不下	-10.715
為一	-10.7153
無一	-10.7153
於時	-10.7156
而多	-10.7158
背有	-10.7159
近世	-10.716
形狀	-10.7161
瓮	-10.7165
最佳	-10.7172
忽有	-10.7173
凌寒	-10.7173
士人	-10.7179
三十年	-10.7184
日光	-10.7186
本朝	-10.719
亦作	-10.7191
豈非	-10.7191
夜雨	-10.7194
蘭花	-10.7198
絶句	-10.72
不以	-10.7203
又如	-10.7206
貯之	-10.721
於斯	-10.7217
菲	-10.7221
鬟	-10.7228
來自	-10.723
三四月	-10.7231
海外	-10.7233
以獻	-10.7247
其用	-10.725
羸	-10.7253
宸	-10.7254
笻	-10.7256
巷	-10.7256
燦	-10.7258
炮炙論	-10.7259
其大	-10.7261
溉	-10.7262
荑	-10.7263
巒	-10.7264
弦	-10.7264
榆莢	-10.7264
勲	-10.7264
頭上	-10.7265
侣	-10.7265
瘁	-10.7266
財	-10.7267
蘤	-10.7267
隊	-10.7268
奢	-10.7269
涸	-10.7269
秪	-10.727
幃	-10.727
紆	-10.727
黔	-10.727
矧	-10.727
場	-10.7271
幢	-10.7271
側面	-10.7272
伽	-10.7272
㺯	-10.7272
乙	-10.7272
媒	-10.7272
賁	-10.7272
盟	-10.7272
㾗	-10.7273
月恭校上	-10.7273
濛	-10.7273
媿	-10.7273
李商隠	-10.7273
赭	-10.7273
榭	-10.7274
桔梗	-10.7275
貎	-10.7275
蕋	-10.7275
俊	-10.7275
司馬光	-10.7276
味如	-10.7276
軫	-10.7277
益智	-10.7277
刑	-10.7277
禱	-10.7279
九月九日	-10.7279
宋范成大	-10.728
和氣	-10.728
惑	-10.728
瑶臺	-10.728
指甲	-10.7281
鯊	-10.7282
玉蘭	-10.7288
遂以	-10.7288
肉白	-10.7291
稔	-10.7292
常食	-10.7294
之珍	-10.7297
友人	-10.7298
種類	-10.7302
四足	-10.7305
陸放翁詩	-10.7309
收拾	-10.731
蟳	-10.7311
一法	-10.7315
者謂	-10.732
莫教	-10.732
端午	-10.7321
頗類	-10.7321
臭味	-10.7322
四季	-10.7324
酒醒	-10.7325
眀年	-10.7331
供御	-10.7331
三四尺	-10.7333
成穗	-10.7336
其名曰	-10.7336
色類	-10.7336
二三尺	-10.7339
於中	-10.7341
長春	-10.7344
城西	-10.7351
而今	-10.7352
先用	-10.7354
羅衣	-10.7359
說硯	-10.736
薄而	-10.7364
寄生	-10.7364
珠簾	-10.7367
猶帶	-10.7375
數種	-10.7378
含桃	-10.7379
得所	-10.7382
其筍	-10.7384
入口	-10.7385
而獨	-10.7387
芳叢	-10.7388
其功	-10.739
不壊	-10.739
有光	-10.7393
雜以	-10.7395
不通	-10.7396
其核	-10.7398
之側	-10.7399
攸	-10.7405
與人	-10.7411
昔有	-10.7413
頗似	-10.7414
著意	-10.7414
通寳錢	-10.7415
子瞻	-10.7424
八兩	-10.7424
無核	-10.7435
幽獨	-10.7436
始開	-10.7443
錢文	-10.7449
清秋	-10.7454
香風	-10.7454
種花	-10.7459
日照	-10.746
杜鵑花	-10.7466
每年	-10.7468
三斤	-10.747
滿林	-10.747
根莖	-10.747
曰臣	-10.7472
即是	-10.7473
一曲	-10.7474
俱有	-10.7474
不多	-10.7479
氣味甘	-10.748
者為佳	-10.7492
覆以	-10.7492
爾其	-10.7498
盃	-10.7505
雲母	-10.751
草堂	-10.751
置於	-10.751
一面	-10.7516
黄赤	-10.7516
以竹	-10.7518
平頭	-10.7522
花間	-10.7524
本紀	-10.7526
自號	-10.7531
靈草	-10.7532
賦曰	-10.7532
玉簪	-10.7536
釋名	-10.7536
宋王	-10.7539
多則	-10.7542
種麥	-10.7543
青雲	-10.7545
長沙	-10.7547
長大	-10.7552
衆草	-10.7555
𣝕	-10.7557
浣	-10.756
之清	-10.7563
宋時	-10.7563
無奈	-10.7565
溪水	-10.7574
何用	-10.7579
合香	-10.7579
諸名	-10.7587
菜一名	-10.7588
嘉祐	-10.759
霰	-10.7592
西方	-10.7592
赬	-10.7594
酷	-10.7595
喘	-10.7599
獺	-10.7599
柤	-10.76
莞	-10.76
槩	-10.7601
鱧	-10.7602
茈	-10.7603
生菜	-10.7605
𠻳	-10.7606
須臾	-10.7606
咬	-10.7607
罔	-10.7607
六七尺	-10.7609
廉	-10.7609
戴復古	-10.7609
彚	-10.7611
筋骨	-10.7612
斟	-10.7612
陸璣詩疏	-10.7613
腕	-10.7613
爍	-10.7613
陸龜䝉	-10.7614
準	-10.7614
現	-10.7614
大都	-10.7614
潦	-10.7614
毳	-10.7615
迦	-10.7615
柟	-10.7615
亘	-10.7615
晒乾	-10.7615
奎	-10.7616
淄	-10.7617
笠	-10.7617
訟	-10.7618
鐸	-10.7618
闢	-10.7619
駁	-10.7619
輟	-10.762
裾	-10.762
葆	-10.762
戯	-10.762
皁	-10.7621
娛	-10.7622
寕	-10.7622
嗤	-10.7623
樹枝	-10.7623
積聚	-10.7624
桑椹	-10.7625
詭	-10.7625
到處	-10.7625
决明	-10.7625
靨	-10.7626
糖霜	-10.7626
之南	-10.7626
眷	-10.7627
蜂蝶	-10.7628
水龍吟	-10.7629
陽和	-10.7629
中間	-10.763
雒	-10.7631
相間	-10.7631
歎息	-10.7632
姑射	-10.7634
叶	-10.7635
此其	-10.7635
陶𢎞景曰	-10.7636
澗底	-10.7638
益州	-10.7639
此書	-10.764
其説	-10.7644
為細末	-10.7645
收貯	-10.7652
蜜煎	-10.7652
千花	-10.7654
三徑	-10.7654
鯨	-10.7654
不老	-10.7656
之味	-10.7656
松脂	-10.7657
生根	-10.7659
蟹螯	-10.766
根葉	-10.766
漢武	-10.7662
冗	-10.7664
未聞	-10.7666
宛然	-10.7668
髙祖	-10.767
虢	-10.7671
􁀙(	-10.7671
子弟	-10.7677
以進	-10.7679
花心	-10.768
氷雪	-10.7683
二三月	-10.7685
出于	-10.7687
殺蟲	-10.7694
蓮葉	-10.7694
愛此	-10.7698
吳越	-10.77
脚氣	-10.77
那得	-10.7702
一方	-10.7703
元日	-10.7705
鳳池	-10.7707
紫玉	-10.7708
去土	-10.7711
瓊枝	-10.7714
無香	-10.7716
肥大	-10.7716
置酒	-10.7718
相向	-10.7718
半日	-10.7718
獨有	-10.7721
日色	-10.7725
丹陽	-10.7726
積雪	-10.7729
身輕	-10.7729
安息香	-10.7732
紅芳	-10.7737
新竹	-10.7745
詰	-10.7748
室中	-10.7749
虚心	-10.7752
小團	-10.7754
夜來	-10.7757
東園	-10.7758
肥地	-10.7758
九年	-10.776
華山	-10.776
故得	-10.7761
棠棃	-10.7762
巖石	-10.7764
朕	-10.7766
有神	-10.7766
茄子	-10.7769
紋如	-10.7777
堪為	-10.7779
大觀	-10.778
東閣	-10.7782
而實	-10.7783
採摘	-10.7789
而澤	-10.779
家人	-10.7791
黄白色	-10.7792
甘香	-10.7792
香譜	-10.7798
之未	-10.7798
地氣	-10.7804
上元	-10.7808
一節	-10.7815
萬條	-10.7815
白楊	-10.782
諸家	-10.7823
爰有	-10.7824
曉露	-10.7829
清凉	-10.7829
治風	-10.783
造茶	-10.7832
者是也	-10.7833
紫筍	-10.7834
石理	-10.7835
此意	-10.7836
大約	-10.7836
所食	-10.7838
不道	-10.7839
五字	-10.784
之品	-10.7843
十餘日	-10.7843
曰汝	-10.7846
驟	-10.7857
老去	-10.7858
蒼龍	-10.786
易水	-10.7862
年少	-10.7868
愛惜	-10.7868
其美	-10.7868
冬日	-10.7871
紋理	-10.7871
相去	-10.7874
語曰	-10.7876
年華	-10.7881
者是	-10.7885
自此	-10.7887
名品	-10.7892
自憐	-10.7893
雖不	-10.7893
四海	-10.7895
物志	-10.7895
朱草	-10.7897
帶露	-10.7898
内外	-10.7898
深院	-10.7906
葉上	-10.7909
國有	-10.7913
初出	-10.7916
楷書	-10.7919
田野	-10.7922
輕紅	-10.7925
百丈	-10.7928
金黄	-10.793
所化	-10.7931
從容	-10.7934
玉泉	-10.7934
河陽	-10.7935
花影	-10.7942
樹生	-10.7942
猶自	-10.7944
之性	-10.7944
甘酸	-10.7946
天工	-10.7948
盤中	-10.7949
海榴	-10.7949
不畏	-10.7952
蘩	-10.7953
穹	-10.7953
枸	-10.7954
耆	-10.7954
色香	-10.7956
五代	-10.7957
蕪菁	-10.7959
衮	-10.796
嶼	-10.7961
戚	-10.7961
鱟	-10.7962
子大如	-10.7965
水經注	-10.7965
褭	-10.7966
宋書符瑞志	-10.7967
敞	-10.7967
凌霄	-10.7967
髯	-10.7967
蹇	-10.7967
邢	-10.7968
隄	-10.7968
廼	-10.7969
娟娟	-10.7969
降真	-10.7969
跪	-10.797
組	-10.797
乖	-10.797
陳繼儒	-10.797
彬	-10.797
脉脉	-10.7971
餽	-10.7971
禎	-10.7971
張耒	-10.7972
皂	-10.7972
嬉	-10.7973
複	-10.7973
鴛	-10.7973
搗碎	-10.7973
峡	-10.7974
悅	-10.7974
猫	-10.7974
夸	-10.7974
沅	-10.7974
隕	-10.7974
紈	-10.7974
揷	-10.7975
山寺	-10.7975
賦有序	-10.7976
閤	-10.7976
蝶戀花	-10.7976
䟦	-10.7978
誌	-10.7978
橫	-10.7978
邸	-10.7978
渺	-10.7978
罨	-10.7979
嗔	-10.7979
鬱鬱	-10.7979
瀨	-10.798
墳	-10.798
喉	-10.798
鑠	-10.7981
去之	-10.7983
射干	-10.7983
峯巒	-10.7985
陽羡	-10.7986
凛	-10.7988
吉貝	-10.7991
稱之	-10.7992
防風	-10.7994
搖落	-10.7994
君之	-10.7995
遊蜂	-10.8001
太子	-10.8002
章臺	-10.8002
風飄	-10.8002
賔客	-10.8003
解毒	-10.8004
清逺	-10.801
從來	-10.8015
不分	-10.8016
頭痛	-10.8017
裛	-10.8019
各一錢	-10.802
有紫	-10.8023
有力	-10.8024
傾國	-10.8026
朝夕	-10.8027
已見	-10.8027
龍蛇	-10.8032
終身	-10.8035
無疑	-10.8037
吳興	-10.8039
之别	-10.804
家有	-10.8043
細切	-10.8043
老翁	-10.8045
何郎	-10.8046
止血	-10.8048
九重	-10.8051
霜降	-10.8053
紅粉	-10.8054
與客	-10.8056
如新	-10.806
廣州記	-10.8064
㸔花	-10.8065
白髪	-10.8065
者不可食	-10.8069
何也	-10.807
通體	-10.8073
庭院	-10.8074
不歇	-10.8074
隨意	-10.8075
偏宜	-10.8075
凉州	-10.8076
泫	-10.8078
盛之	-10.8078
白頭	-10.8079
妃子	-10.8081
李花	-10.8082
詩句	-10.8083
即活	-10.8084
不斷	-10.8091
長卿	-10.8092
究	-10.8093
石湖	-10.8106
一朝	-10.8113
一旦	-10.8113
月夜	-10.8116
用此	-10.8117
紫菊	-10.8117
半夏	-10.8125
無處	-10.8125
又作	-10.8126
有文	-10.8127
三十六	-10.8127
林間	-10.8127
紅者	-10.8131
堅實	-10.8132
獨秀	-10.8135
所云	-10.8144
相映	-10.8147
人心	-10.8148
亦何	-10.8149
新芽	-10.8158
莖青	-10.816
則生	-10.8171
二箇	-10.8174
如雲	-10.8176
故能	-10.8176
雖無	-10.8185
金花	-10.8185
金盞	-10.8187
天成	-10.8188
微黄	-10.8188
春意	-10.8189
有一種	-10.8192
凉風	-10.8192
煨	-10.8193
一小	-10.8193
無因	-10.8195
客來	-10.8195
秋露	-10.8196
人事	-10.8202
何曽	-10.821
陽縣	-10.8212
可知	-10.8213
色味	-10.8214
有名	-10.8216
不聞	-10.822
一丸	-10.8229
水調	-10.8232
五株	-10.8236
味美	-10.8238
煙雨	-10.824
香霧	-10.8242
鱗甲	-10.8247
去白	-10.8247
随風	-10.8251
聞道	-10.8255
通志	-10.8258
酸棗	-10.8265
子石	-10.8266
金華	-10.827
蘭香	-10.8273
般	-10.8274
出自	-10.8275
花頭	-10.8278
此法	-10.8286
古者	-10.83
日暖	-10.8301
捻	-10.8304
塵土	-10.8307
飲水	-10.8309
所鑄	-10.831
戊	-10.8311
多有	-10.8314
名山	-10.8318
茭	-10.8327
瘥	-10.8328
夣	-10.8329
漉出	-10.8329
軌	-10.833
莠	-10.8331
裕	-10.8331
滷	-10.8332
栝	-10.8332
夏小正	-10.8333
蜃	-10.8333
於人	-10.8333
趾	-10.8334
疹	-10.8334
氛	-10.8335
祚	-10.8335
摛	-10.8337
瑛	-10.8337
誅	-10.8337
周必大	-10.8338
店	-10.8341
鱉	-10.8342
嬰	-10.8342
凖	-10.8342
睨	-10.8343
槽	-10.8343
觜	-10.8343
糕	-10.8343
凄凉	-10.8344
演	-10.8344
肎	-10.8345
曺	-10.8345
寒香	-10.8346
朱慶餘	-10.8346
伺	-10.8346
亷	-10.8346
緬	-10.8347
鈔	-10.8347
詫	-10.8347
芻	-10.8348
盎	-10.8348
勇	-10.8348
翥	-10.8349
止渴	-10.8349
襄陽	-10.8351
㝷	-10.8351
梯	-10.8352
但見	-10.8352
讌	-10.8352
露濕	-10.8353
愛其	-10.8353
一番	-10.8355
檀欒	-10.8356
人意	-10.8357
鉛華	-10.8358
答曰	-10.8362
鞠	-10.8363
當作	-10.8365
雖然	-10.8367
比之	-10.8367
穴中	-10.8368
兩頭	-10.837
燒灰	-10.8372
閩廣	-10.8372
後漢書	-10.8374
薔薇水	-10.8379
鬼神	-10.8379
蓮房	-10.838
此亦	-10.838
上黨	-10.8381
一見	-10.8384
洗浄	-10.8385
榮枯	-10.8385
石芝	-10.8388
異苑	-10.8388
幾度	-10.8389
桑麻	-10.839
八年	-10.839
或用	-10.8393
崑山	-10.8395
野生	-10.8395
絳雪	-10.8399
蜜漬	-10.84
碧葉	-10.8401
亦未	-10.8404
芳馨	-10.8407
蒲桃	-10.8411
五里	-10.8412
最宜	-10.8416
田田	-10.8423
殷紅	-10.8424
若木	-10.8426
垂垂	-10.8428
録云	-10.843
石之屬	-10.8431
以待	-10.8431
厚一寸	-10.8431
不堪食	-10.8431
謂曰	-10.8431
為名	-10.8434
正二月	-10.8436
藿香葉	-10.8439
因風	-10.8439
嵗嵗	-10.8439
初夏	-10.8444
其殻	-10.8447
百病	-10.8447
不問	-10.845
秋霜	-10.8456
牡丹皮	-10.8459
二子	-10.8464
莫能	-10.8467
小雅	-10.8471
一畝	-10.8473
無塵	-10.8481
髙麗	-10.8483
槿花	-10.8484
竹根	-10.8486
君子之	-10.8487
葉下	-10.8489
衣服	-10.849
化作	-10.8492
第四	-10.8495
故其	-10.8506
王公	-10.8509
之數	-10.8511
不定	-10.8514
為勝	-10.8514
四尺	-10.8516
色淡	-10.8518
晴日	-10.852
英華	-10.8524
封植	-10.8524
硯詩	-10.8531
于此	-10.8538
十株	-10.8538
日曬	-10.8539
深黄	-10.8541
有司	-10.8543
作花	-10.8556
對花	-10.8556
品第	-10.8563
青緑	-10.8564
未乾	-10.8566
還家	-10.8567
玉人	-10.8568
建溪	-10.8569
已上各	-10.8569
百藥	-10.8574
五升	-10.8585
華之	-10.8587
花神	-10.8588
楓香	-10.8589
無由	-10.859
逺近	-10.8591
照水	-10.8592
水煮	-10.8593
新詩	-10.86
五葉	-10.8602
不住	-10.8603
土地	-10.8604
白鶴	-10.8612
水洗	-10.8615
不可以	-10.862
細膩	-10.8623
禹貢	-10.8629
朱顔	-10.8631
則易	-10.8639
黄葵	-10.8644
飴	-10.8648
對菊	-10.8653
州府志	-10.8658
溪上	-10.8672
五尺	-10.8673
新筍	-10.8677
卷四	-10.8681
如指	-10.8688
此藥	-10.8689
譏	-10.8689
礬	-10.8692
槐樹	-10.8693
百歩	-10.8694
風韻	-10.8695
黨	-10.8697
自謂	-10.8698
燎	-10.8698
漉	-10.8698
諸國	-10.8699
苴	-10.8699
至若	-10.8701
蠱	-10.8704
炭末	-10.8706
後漢	-10.8709
肚	-10.8709
成事件	-10.8711
羲	-10.8711
煮熟	-10.8711
腸胃	-10.8713
糅	-10.8713
者惟	-10.8714
鶉	-10.8714
沛	-10.8714
漚	-10.8716
為衣	-10.8717
顏	-10.8717
癰疽	-10.8718
肪	-10.8719
槖	-10.8719
凹	-10.8719
燕子	-10.8719
篤	-10.872
癰	-10.872
魏花	-10.872
不拘多少	-10.872
苔蘚	-10.872
芼	-10.8721
梭	-10.8721
鈐	-10.8721
抄	-10.8722
盪	-10.8722
明珠	-10.8722
瞿	-10.8722
佳名	-10.8722
氊	-10.8723
杜陽雜編	-10.8724
緝	-10.8724
橄欖	-10.8724
囿	-10.8725
敝	-10.8725
祁	-10.8725
扈	-10.8725
熈	-10.8726
僚	-10.8726
悄	-10.8728
尼	-10.8728
竝	-10.8728
五月五日	-10.8728
千秋	-10.8728
冊	-10.8729
欒	-10.8729
酷烈	-10.8729
蔆	-10.873
闇	-10.873
陶潛	-10.8732
魏文帝	-10.8732
女蘿	-10.8732
帙	-10.8732
笥	-10.8733
雜爼	-10.8734
鐺	-10.8734
袪	-10.8734
嫣然	-10.8734
萬斛	-10.8734
濛濛	-10.8735
椘	-10.8735
鱣	-10.8736
瑟瑟	-10.8736
㤀	-10.8736
中使	-10.8737
挈	-10.8737
江蘺	-10.8738
蓂	-10.8738
戞	-10.8738
對此	-10.8738
益部方物畧記	-10.8738
摧折	-10.8738
而外	-10.8739
況	-10.874
菉豆	-10.874
京兆	-10.874
翠幄	-10.8741
不語	-10.8741
藁本	-10.8741
西王母	-10.8741
紫金	-10.8741
香雪	-10.8743
維揚	-10.8744
光風	-10.8746
炬	-10.8746
飛花	-10.8748
復見	-10.875
疎籬	-10.8752
之勢	-10.8752
朱欄	-10.8756
赤莖	-10.8757
則知	-10.8759
照耀	-10.876
蝤蛑	-10.8762
所稱	-10.8763
腸斷	-10.8767
者宜	-10.8769
尚存	-10.8771
注曰	-10.8772
真宗	-10.8773
生葉	-10.8776
成蹊	-10.8778
通考	-10.8779
元祐	-10.878
俗謂之	-10.8781
諸公	-10.8785
水底	-10.8787
有客	-10.8787
髙者	-10.8787
薫風	-10.879
茅屋	-10.8793
愁絶	-10.8793
江北	-10.8794
調和	-10.8798
如法	-10.8798
世説	-10.88
卷二	-10.8802
髙宗	-10.8804
與前	-10.8806
腹下	-10.8815
養生	-10.8816
如拳	-10.8817
可與	-10.8822
以此為	-10.8824
不容	-10.8826
排草	-10.8834
生南海	-10.8836
松江	-10.8836
寺有	-10.884
地黃	-10.8842
澤中	-10.8847
葉小	-10.885
樂事	-10.8852
葉間	-10.8863
斑竹	-10.8865
為業	-10.8868
以墨	-10.8871
庭下	-10.8871
其葉如	-10.8875
如蜜	-10.8875
已覺	-10.8879
綠隂	-10.8879
翠色	-10.8881
安縣	-10.8881
之候	-10.8886
數朶	-10.8888
大於	-10.8888
好者	-10.8893
人情	-10.8893
尤甚	-10.8894
蕙草	-10.8896
紅衣	-10.8898
一合	-10.8906
分種	-10.8908
萬顆	-10.8909
連枝	-10.8912
取以	-10.8913
黄連	-10.8915
重九	-10.8918
赤者	-10.8918
未許	-10.8918
每一	-10.8918
之月	-10.8922
已成	-10.8924
傷人	-10.8926
赤白	-10.893
北土	-10.893
不落	-10.8932
席上	-10.8932
如許	-10.8939
枝間	-10.8941
落葉	-10.8943
雜志	-10.8943
又若	-10.8944
衡山	-10.8947
之始	-10.8949
形容	-10.895
天生	-10.8952
清晨	-10.8961
花上	-10.8963
有數	-10.8964
野老	-10.8965
迎春	-10.8967
有竒	-10.8968
其品	-10.8972
柏葉	-10.8978
南州	-10.8978
一名金	-10.8982
山居	-10.8983
絶勝	-10.8985
成熟	-10.8989
竒絶	-10.8992
後主	-10.8992
龍麝	-10.8996
生苖	-10.8997
闌干	-10.9002
研細	-10.9003
毬子	-10.9004
一粒	-10.9004
螫	-10.9005
忽生	-10.9007
江城	-10.9007
濺	-10.901
詳見	-10.9014
誰為	-10.9015
樹如	-10.9031
貢茶	-10.904
青梅	-10.9042
洛中	-10.905
大官	-10.905
狀類	-10.9051
石首	-10.9051
曉風	-10.9054
可見	-10.9055
石色	-10.9056
安知	-10.9063
文理	-10.9065
而莫	-10.9066
造墨	-10.9067
光輝	-10.907
元嘉	-10.9071
掬	-10.9075
亦足	-10.9078
金色	-10.9078
東坡詩	-10.9083
如豆	-10.9084
皮膚	-10.9084
白牡丹	-10.9085
荀	-10.9087
益人	-10.9088
生江南	-10.9094
切作	-10.9098
一室	-10.9099
花飛	-10.9101
賦散句	-10.9102
諸品	-10.9105
牡丹花	-10.9106
厄	-10.9106
篔簹	-10.9106
疼痛	-10.9109
嚙	-10.9109
甚大	-10.9111
如珠	-10.9111
咀嚼	-10.9111
陳師道	-10.9113
諸州	-10.9113
秔	-10.9115
圜	-10.9115
涕	-10.9115
两	-10.9117
义	-10.9117
黄門	-10.9118
盒	-10.9118
翩	-10.9119
蠅	-10.912
晁補之	-10.912
貍	-10.9121
蛾眉	-10.9121
筩	-10.9123
冕	-10.9123
疋	-10.9123
涉	-10.9123
芑	-10.9123
十畝	-10.9123
宋祁	-10.9124
諱	-10.9125
週	-10.9125
棋	-10.9126
艇	-10.9126
泌	-10.9126
獄	-10.9126
奠	-10.9126
叱	-10.9126
洛陽伽藍記	-10.9127
河豚	-10.9127
礪	-10.9128
寂寂	-10.9129
憤	-10.9129
褥	-10.913
宦	-10.913
洵	-10.913
囂	-10.913
别種	-10.913
睿	-10.9131
韜	-10.9131
篝	-10.9131
譽	-10.9131
葺	-10.9131
饗	-10.9131
􁁜	-10.9131
虗	-10.9132
灌溉	-10.9132
彥	-10.9132
寘	-10.9132
督	-10.9132
江浙	-10.9132
蹟	-10.9133
琖	-10.9133
圈	-10.9133
描	-10.9133
蓬蒿	-10.9134
郭索	-10.9134
渭川	-10.9135
憩	-10.9135
左側鐫	-10.9135
秩	-10.9135
橡	-10.9135
壬	-10.9135
賒	-10.9136
洎	-10.9136
措	-10.9136
昂	-10.9139
躁	-10.914
封固	-10.914
甸	-10.914
孫覿	-10.914
圃中	-10.9141
石楠	-10.9141
孚	-10.9141
嘉靖	-10.9143
警	-10.9144
茶具	-10.9144
不信	-10.9145
佞	-10.9145
貴賤	-10.9146
愚齋云	-10.9148
鱸魚	-10.915
柔弱	-10.9153
行之	-10.9154
長丈餘	-10.9154
佳者	-10.9154
桑柘	-10.9154
韶光	-10.9155
是月也	-10.9155
出茶	-10.9156
形色	-10.9157
餌之	-10.9159
白术	-10.916
飛絮	-10.916
后土	-10.9162
秦觀	-10.9163
皇后	-10.9166
半升	-10.9173
黃連	-10.9177
之患	-10.9181
一嵗	-10.9182
方干	-10.9183
蟠桃	-10.9185
不拘	-10.9185
十觔	-10.9186
南唐	-10.9187
尤妙	-10.9187
五斗	-10.9187
嶺外	-10.9189
南軒	-10.919
竹之	-10.9192
數株	-10.9192
附見	-10.9192
幽谷	-10.9193
歌舞	-10.9193
紅雲	-10.9194
風景	-10.9199
後園	-10.9199
名之曰	-10.92
磨墨	-10.9201
黄昏	-10.9203
遼東	-10.9205
西子	-10.9214
定粉	-10.9217
嵗時	-10.9222
山上有	-10.9224
松枝	-10.9226
之變	-10.9227
五六寸	-10.923
火山	-10.923
本是	-10.9234
芒種	-10.9236
含情	-10.9236
此詩	-10.9237
手自	-10.9238
一名紫	-10.9245
詠柳	-10.9245
潤澤	-10.925
江中	-10.9254
矣今	-10.9256
侍中	-10.9264
後凋	-10.9267
相顧	-10.9268
和劑	-10.9271
之乃	-10.9274
三伏	-10.9275
惡氣	-10.9277
髙士	-10.928
品題	-10.9282
芬香	-10.9288
容易	-10.9288
奈何	-10.9291
以紙	-10.9304
侍臣	-10.9304
又見	-10.9306
小園	-10.9307
太清	-10.9308
日斜	-10.9313
不足以	-10.9316
南陌	-10.9316
蘇頌曰今	-10.9319
大明	-10.9319
天風	-10.9324
沙土	-10.9325
向上	-10.9326
猶存	-10.9328
詠竹	-10.9335
實中	-10.9335
大食	-10.9341
開早	-10.9341
君臣	-10.9341
載酒	-10.9346
當風	-10.9351
發生	-10.9361
移來	-10.9361
之内	-10.9362
立秋	-10.9366
未覺	-10.9367
烟雨	-10.9368
候冷	-10.9372
次日	-10.9372
鵝黄	-10.9374
河水	-10.9376
三秀	-10.938
乾之	-10.9383
我家	-10.9389
功用	-10.939
徳之	-10.9392
二曰㑹心不逺曰徳充符	-10.9394
道中	-10.9395
諸菊	-10.9399
收子	-10.94
濱	-10.9402
髙樹	-10.9405
喉痺	-10.9412
子似	-10.9417
四出	-10.942
子也	-10.9421
矣然	-10.9422
滄	-10.9424
深紫	-10.9425
盤根	-10.9425
生香	-10.9425
澆之	-10.9425
微紅	-10.9428
深山	-10.9429
不知何	-10.9434
其狀	-10.9434
水澆	-10.9438
各二兩	-10.9451
浮雲	-10.9452
細末	-10.9453
都勝	-10.9456
有赤	-10.9457
不管	-10.9459
無味	-10.9461
亦如之	-10.9463
氣香	-10.9465
稍大	-10.9466
實繁	-10.9466
以来	-10.9467
之道	-10.9468
魚狀如	-10.9468
何當	-10.9469
國之	-10.9469
嘗新	-10.9474
世之	-10.9475
嘗以	-10.9476
風熱	-10.9477
蘇子	-10.9484
炷	-10.9487
不著	-10.9487
自稱	-10.9487
萬樹	-10.9488
南風	-10.9489
日夜	-10.9489
昊	-10.9499
亦同	-10.9499
葉長	-10.9501
人或	-10.9503
之稱	-10.9504
器用	-10.9507
廕	-10.9508
可供	-10.951
其書	-10.9512
薹	-10.9513
得於	-10.9515
賞心	-10.9519
花繁	-10.952
屠	-10.952
閭	-10.9522
何首烏	-10.9522
鬯	-10.9523
菹	-10.9524
眺	-10.9527
刳	-10.9528
穄	-10.9529
一脚子缷	-10.953
丙	-10.953
陜	-10.953
菅	-10.953
四日	-10.953
鮒	-10.9531
菂	-10.9531
蒼术	-10.9533
以酒	-10.9533
佇	-10.9534
此果	-10.9534
蔞	-10.9534
雋	-10.9534
纍	-10.9535
斥	-10.9535
痿	-10.9536
茫茫	-10.9536
瀾	-10.9537
絨	-10.9538
樛	-10.9538
蒻	-10.9538
醺	-10.9538
霖	-10.9538
猴	-10.9539
勾	-10.9539
鞍	-10.954
抗	-10.954
山其草多	-10.954
香聞	-10.9541
駝	-10.9541
窻	-10.9541
潁	-10.9541
人力	-10.9542
艱	-10.9542
澡	-10.9543
腊	-10.9544
寰	-10.9544
缾	-10.9544
滕	-10.9545
褪	-10.9545
蜿蜒	-10.9546
鷓鴣	-10.9546
挾	-10.9546
眉子	-10.9547
僵	-10.9547
妖嬈	-10.9547
扁舟	-10.9548
蟾蜍	-10.9548
閙	-10.9548
鶴翎	-10.9548
誓	-10.9549
蜜香	-10.9549
囀	-10.955
蠡	-10.955
蓊	-10.955
鰻	-10.955
釜	-10.955
古今注	-10.9551
春分	-10.9551
傘	-10.9551
墨鏽	-10.9552
樹似	-10.9553
羶	-10.9553
霓	-10.9554
所有	-10.9554
嶺表録異	-10.9554
聯	-10.9554
燄	-10.9555
囚	-10.9556
提要	-10.9556
三月三日	-10.9556
蓂莢	-10.9556
栟櫚	-10.9557
即以	-10.9557
雜俎	-10.956
瓏	-10.9561
深深	-10.9563
洞㝠記	-10.9563
依稀	-10.9563
髙二三尺	-10.9565
沈約	-10.9565
徑寸	-10.9566
迄今	-10.9567
銀燭	-10.957
西番	-10.9573
盛夏	-10.9575
宰相	-10.9578
靈均	-10.9578
詩有	-10.9579
借問	-10.9579
東坡集	-10.9581
餅子	-10.9583
任意	-10.9586
嚴霜	-10.9588
口腹	-10.9589
獨活	-10.959
吾鄉	-10.9591
色稍	-10.9594
横斜	-10.9595
何䖏	-10.9597
芳樹	-10.9598
千頃	-10.9598
金蓮	-10.9599
敷榮	-10.96
為良	-10.9602
本無	-10.9604
諸人	-10.9604
應制	-10.9611
朝霞	-10.9613
慢火	-10.9613
萍實	-10.9613
臘茶	-10.9614
光明	-10.9615
長尺餘	-10.9616
之前	-10.962
羣花	-10.9623
四周	-10.9624
蒼然	-10.9627
繁英	-10.9627
湖上	-10.9628
月影	-10.9628
丹桂	-10.9628
篤耨	-10.963
鷄子	-10.9632
却笑	-10.9632
黄雲	-10.9633
不實	-10.9636
沙門	-10.9637
長一尺	-10.9638
黄州	-10.9649
金刀	-10.965
即生	-10.965
人物	-10.9651
曰君	-10.9655
七尺	-10.9657
火候	-10.9657
尤物	-10.966
秋後	-10.9661
眼前	-10.9661
之徒	-10.9662
十箇	-10.9667
人名	-10.967
别名	-10.9675
三葉	-10.9677
也余	-10.9679
一塊	-10.9679
乆服	-10.968
往來	-10.9682
如火	-10.9682
熟食	-10.9688
尤為	-10.9688
神明	-10.9697
黃花	-10.9701
紫薇花	-10.9702
銅錢	-10.9703
凌風	-10.9705
之能	-10.9705
何似	-10.971
二十日	-10.9713
蕉葉	-10.9716
離别	-10.9717
當為	-10.9718
而肥	-10.9721
等分	-10.9722
先後	-10.9725
未若	-10.9736
紫者	-10.9738
宣帝	-10.975
暮雨	-10.9755
誰言	-10.9763
紅杏	-10.9763
黄蠟	-10.9764
戲作	-10.9765
玉骨	-10.9773
之美者	-10.9777
面背	-10.9778
太陽	-10.9778
碧桃	-10.9779
自得	-10.9788
不忘	-10.9788
雲霞	-10.9789
如石	-10.979
清淺	-10.9791
銀紅	-10.9791
煩熱	-10.9792
江邊	-10.9793
不逮	-10.9798
不暇	-10.9802
麝香一錢	-10.9805
髙節	-10.9808
新安	-10.981
竒巧	-10.9812
古柏	-10.9813
易生	-10.982
王之	-10.9822
山東	-10.9824
托根	-10.9825
無毒治	-10.9829
梢頭	-10.9832
雲雨	-10.9835
二枚	-10.9837
其種	-10.9839
一名天	-10.9845
古之	-10.9846
扣	-10.9849
一名木	-10.985
出土	-10.985
正是	-10.9851
否則	-10.9856
却是	-10.9859
而弗	-10.9861
異物	-10.9862
隻	-10.9865
不應	-10.9868
賞之	-10.9869
鵞黄	-10.9873
莖如	-10.9879
蟹詩	-10.9882
近道	-10.9883
天女	-10.9885
亦多	-10.9887
丹實	-10.9887
風生	-10.9891
一名赤	-10.9892
翠雲	-10.9896
不比	-10.9897
世俗	-10.9897
葉類	-10.9902
嘉木	-10.9909
籬下	-10.9911
紫霞	-10.9918
大可	-10.9919
魚也	-10.9922
横枝	-10.9922
鳳尾	-10.9923
玉井	-10.9924
楚王	-10.9924
飛來	-10.9924
明王	-10.9925
一篇	-10.9926
味亦	-10.9926
大風	-10.9928
微酸	-10.9928
無時	-10.9935
松烟	-10.9936
冷香	-10.9941
仲春	-10.9944
濇	-10.9945
滿眼	-10.9947
揺風	-10.9949
琪	-10.9953
疆	-10.9956
固不	-10.9958
皁莢	-10.9958
髄	-10.9958
之華	-10.9959
腰膝	-10.9959
而未	-10.996
颯	-10.9961
細研	-10.9961
伍	-10.9966
蒲萄	-10.9966
花亦	-10.9966
攣	-10.9966
良薑	-10.9968
牌	-10.9968
需	-10.9969
腹痛	-10.9969
繄	-10.997
宋玉	-10.9971
瘻	-10.9971
蚓	-10.9971
甎	-10.9971
醍醐	-10.9972
吕氏春秋	-10.9972
者乎	-10.9972
漢武帝	-10.9973
港	-10.9973
臻	-10.9974
詩小雅	-10.9974
榧	-10.9975
縞	-10.9975
王子	-10.9975
蓀	-10.9975
張舜民	-10.9975
鈍	-10.9975
渝	-10.9975
鎔	-10.9976
㨗	-10.9977
消渇	-10.9977
捺	-10.9977
攫	-10.9977
五代史	-10.9977
之西	-10.9978
叅	-10.9979
而不能	-10.9979
蠵	-10.9979
荄	-10.9979
俚	-10.9979
穟	-10.9979
趂	-10.998
闈	-10.998
枲	-10.998
宋張耒	-10.998
靚	-10.9981
豕	-10.9981
仆	-10.9982
刪	-10.9982
張孝祥	-10.9982
欽定四庫全書子部九	-10.9982
鴨脚	-10.9983
繖	-10.9983
秃	-10.9983
螢	-10.9983
元豐	-10.9984
淹留	-10.9984
蕾	-10.9984
蕭瑟	-10.9984
逍遥	-10.9985
頷	-10.9985
弊	-10.9986
茸茸	-10.9986
㢠廻	-10.9986
甃	-10.9987
倭	-10.9987
丑	-10.9988
佛頂	-10.9988
肅肅	-10.9988
斐	-10.9989
驚蟄	-10.999
航	-10.999
焰	-10.9991
萌芽	-10.9991
搏	-10.9991
吏部	-10.9995
戌	-10.9996
松栢	-10.9997
巉岩	-10.9998
波斯	-11
洪武	-11
彭城	-11
攀條	-11.0001
九畹	-11.0001
掩映	-11.0002
泥中	-11.0002
白麺	-11.0005
隋書	-11.0007
蕭然	-11.0007
秀才	-11.001
齒牙	-11.001
相和	-11.0011
桄榔	-11.0012
蓼花	-11.0012
揀芽	-11.0013
春生苗	-11.0016
堦前	-11.0016
林邑	-11.0019
薄暮	-11.0019
半夜	-11.0021
又法	-11.0023
並蔕	-11.0026
唐李	-11.0028
如鐵	-11.0028
志云	-11.0028
嶺上	-11.0031
其實如	-11.0031
清曉	-11.0036
百枚	-11.0036
父老	-11.0037
龍牙	-11.0037
周旋	-11.004
之語	-11.0041
諸侯	-11.0043
水氣	-11.0044
石竹	-11.0045
自持	-11.0047
玉質	-11.0048
不顧	-11.005
宣州	-11.0051
二月生苗	-11.0051
而色	-11.0052
最先	-11.0054
春草	-11.0055
昔年	-11.0055
菊譜	-11.0055
宜男	-11.0063
於地	-11.0065
寒花	-11.0066
萬木	-11.0067
以鹽	-11.0067
皆如	-11.007
雜録	-11.0071
青蒿	-11.0076
遲遲	-11.0077
瓦松	-11.0079
樣曰	-11.0081
中鐫	-11.0085
含風	-11.0086
佳節	-11.0088
其狀如	-11.0088
天花	-11.009
石菖蒲	-11.0091
之殊	-11.0091
木上	-11.0092
生子	-11.0092
濃香	-11.0093
十字	-11.0093
第五	-11.0098
髙人	-11.01
柳條	-11.01
山澤	-11.0102
色似	-11.0107
飛鳥	-11.011
千朶	-11.0113
苦筍	-11.0115
春華	-11.0115
猶是	-11.0119
滿堂	-11.0122
之色	-11.0122
雪後	-11.0125
予嘗	-11.0126
空庭	-11.013
寒菊	-11.0132
輕風	-11.0142
楚人	-11.0143
仍以	-11.0145
家貧	-11.0147
之良	-11.015
四種	-11.0151
萬事	-11.0157
雨水	-11.0159
三角	-11.016
豈惟	-11.0162
俗傳	-11.0165
吾聞	-11.0173
狂風	-11.0173
曰我	-11.0174
一名石	-11.0176
主治	-11.018
硯譜	-11.0182
墨法	-11.0183
只是	-11.0187
實似	-11.0187
湘水	-11.0191
大如斗	-11.0193
金屋	-11.0193
消食	-11.0195
一類	-11.0195
瑞香花	-11.0199
相望	-11.0201
留客	-11.0205
卷三	-11.0211
生水中	-11.0215
舍人	-11.0226
孤松	-11.023
鐫御題銘一首楷書鈐寳	-11.0237
州郡	-11.0241
春水	-11.0242
兖州	-11.0242
張公	-11.0243
二十五	-11.0243
淡黄	-11.0244
種子	-11.0245
種稻	-11.0246
多刺	-11.0246
稱為	-11.0248
交州	-11.0249
正如	-11.0251
水濵	-11.0254
相親	-11.0254
即止	-11.0256
能使	-11.0257
如粟	-11.0259
栽種	-11.026
也凡	-11.0263
垂柳	-11.0264
亦能	-11.0269
羅隠	-11.0273
其肉	-11.0274
茶芽	-11.0275
清絶	-11.0282
簷下	-11.0283
紫草	-11.0283
天真	-11.0284
來年	-11.0285
花黄	-11.0288
東都	-11.0289
瑩白	-11.0292
以蜜	-11.0293
滿園	-11.0293
前身	-11.03
造酒	-11.0302
諸書	-11.0303
長樂	-11.0305
新栽	-11.0309
先將	-11.0309
風氣	-11.0313
之遺	-11.0314
二曰比徳曰朗潤	-11.0314
自古	-11.0314
是日	-11.0315
法也	-11.0328
之即	-11.033
測	-11.033
二分許	-11.0331
其他	-11.0335
盛於	-11.0336
白馬	-11.0336
樂天	-11.0343
陸離	-11.0343
茶事	-11.0344
山南	-11.0345
四角	-11.0346
三層	-11.035
兩兩	-11.0351
霍	-11.0353
萬錢	-11.0355
爐香	-11.0359
通寳	-11.0363
秋花	-11.0368
更好	-11.037
千條	-11.0374
之先	-11.0375
綠色	-11.0377
江山	-11.0377
桂枝	-11.0378
本性	-11.0378
根株	-11.0379
澤蘭	-11.038
譜云	-11.0381
玉山	-11.0383
含露	-11.0385
白華	-11.0386
香藥	-11.0391
窖	-11.0392
煮食	-11.0394
葭	-11.0397
各自	-11.0398
帶雨	-11.0399
洞中	-11.0399
作賦	-11.0399
餘甘	-11.0401
水則	-11.0402
久矣	-11.0404
齡	-11.0405
鐫御題詩一首楷書鈐寳	-11.0409
是花	-11.0411
不飲	-11.0414
鞋	-11.0415
文君	-11.0417
㝡	-11.0417
劉子翬	-11.0418
蓆	-11.0419
擦	-11.042
嬴	-11.042
睛	-11.042
聞有	-11.0421
鴟	-11.0422
侶	-11.0423
萵苣	-11.0423
糾	-11.0423
圑	-11.0424
遂成	-11.0424
瓌	-11.0424
噀	-11.0424
億	-11.0425
稼穡	-11.0425
諭	-11.0425
梁江淹	-11.0426
甄	-11.0427
粳	-11.0428
嬪	-11.0428
利小便	-11.0428
臧	-11.0428
嗚呼	-11.0429
如水	-11.0429
貞心	-11.0429
婁	-11.043
坦	-11.043
李東陽	-11.043
刼	-11.043
澈	-11.043
諳	-11.043
熾	-11.0431
衾	-11.0431
牲	-11.0431
加以	-11.0431
神異經	-11.0431
溥	-11.0432
東方朔	-11.0432
搗爛	-11.0432
徼	-11.0432
彷彿	-11.0432
窄	-11.0433
川芎	-11.0433
譜中	-11.0433
逍遙	-11.0433
搆	-11.0433
蛛	-11.0433
明周嘉胄撰	-11.0433
釅	-11.0433
地理志	-11.0433
羔	-11.0434
廹	-11.0434
鏗	-11.0435
決	-11.0435
仝	-11.0435
忿	-11.0435
華清	-11.0435
閔	-11.0435
劔	-11.0436
漕	-11.0436
趺	-11.0436
天意	-11.0436
壮	-11.0436
鉅	-11.0436
鮎	-11.0437
畹	-11.0437
戈	-11.0438
襍	-11.0438
閩人	-11.0439
縦	-11.0439
蒼梧	-11.0439
悞	-11.0439
捫	-11.044
宋蘇轍	-11.044
擢秀	-11.0441
殫	-11.0441
誣	-11.0441
縟	-11.0441
東坡雜記	-11.0443
邨	-11.0443
控乾	-11.0444
罏	-11.0446
殘春	-11.0446
煆	-11.0446
罰	-11.0446
縹緲	-11.0446
鱓	-11.0447
皮薄	-11.0448
笙歌	-11.0448
曉日	-11.0449
付與	-11.045
沽酒	-11.045
堪食	-11.0451
荆棘	-11.0451
魏武	-11.0451
贍	-11.0452
歐陽公	-11.0452
避暑	-11.0452
楓葉	-11.0454
柑橘	-11.0454
農家	-11.0456
三品	-11.0458
列於	-11.0458
田中	-11.0458
歌聲	-11.0459
魯直	-11.0459
嶺表	-11.046
瓊漿	-11.0461
過熟	-11.0462
琪樹	-11.0463
相公	-11.0463
鴻漸	-11.0464
微有	-11.0464
濃淡	-11.0465
不常	-11.0466
雲南志	-11.0466
䨇井	-11.0469
荆芥	-11.0474
莫遣	-11.0475
而見	-11.0475
禁苑	-11.0475
凌霄花	-11.0476
漢銅雀瓦硯	-11.0477
魚似	-11.0478
香色	-11.0479
温中	-11.048
朶朶	-11.0481
交加	-11.0481
引蔓	-11.0484
三輔	-11.0485
未至	-11.0488
放冷	-11.0488
仲夏	-11.0492
拌和	-11.0493
多者	-11.0493
夲草	-11.0494
塞外	-11.0498
三脊	-11.05
嘉定	-11.05
畫圖	-11.0501
紅綃	-11.0503
託根	-11.0504
忽驚	-11.0505
夏初	-11.051
劉氏	-11.0511
如畫	-11.0511
其榦	-11.0518
但恐	-11.0519
龍焙	-11.0522
屏風	-11.0522
未應	-11.0523
月餘	-11.0524
宜隂	-11.0524
不耐	-11.0525
垂絲	-11.0527
無根	-11.0529
柳花	-11.0532
歳寒	-11.0532
長年	-11.0533
小者如	-11.0534
擇其	-11.0536
亦似	-11.0539
一名玉	-11.0541
空谷	-11.0542
方物	-11.0544
夜合	-11.0546
可比	-11.0547
連珠	-11.0548
白茅香	-11.055
尋芳	-11.0551
互相	-11.0556
致之	-11.0561
葉尖	-11.0562
留連	-11.0562
紅藍	-11.0563
比目	-11.0563
記之	-11.0565
為受墨處	-11.0566
新花	-11.057
之方	-11.0571
華實	-11.0572
露下	-11.0572
薔薇露	-11.0573
名字	-11.0576
黑而	-11.0578
二十年	-11.0579
偶然	-11.0583
百官	-11.0583
春盡	-11.0585
月色	-11.0586
玉露	-11.0591
製墨	-11.0597
梁書	-11.0604
臨海	-11.0606
王家	-11.061
入地	-11.0612
建茶	-11.0615
幽芳	-11.0615
周刻	-11.0616
華堂	-11.0617
生津	-11.0618
英英	-11.062
春隂	-11.0623
異名	-11.0623
凡使	-11.063
唐張	-11.063
青葉	-11.0635
問曰	-11.0635
行樂	-11.0637
一根	-11.0638
小草	-11.0641
不載	-11.0642
數莖	-11.0644
其利	-11.0644
柑子	-11.0652
色淺	-11.0654
千百	-11.0662
命名	-11.0662
神女	-11.0664
微雨	-11.0666
其生	-11.0666
蟹眼	-11.0667
或名	-11.0668
必先	-11.0674
六十	-11.0675
繁花	-11.0678
青天	-11.068
間以	-11.068
始得	-11.068
一束	-11.0682
皆無	-11.0683
梁元帝	-11.0684
莖端	-11.0686
芳春	-11.0687
折來	-11.0687
乾隆	-11.0688
中秋	-11.0689
清溪	-11.0693
子曰	-11.0697
冷落	-11.0699
聰	-11.0701
樹樹	-11.0702
五銖錢	-11.0702
唯有	-11.0705
從事	-11.0707
二兩半	-11.0707
差大	-11.0708
嘗聞	-11.0709
十五日	-11.0709
三首	-11.071
本出	-11.0712
來者	-11.0714
桃枝	-11.0715
馬乳	-11.0716
人不識	-11.0716
氣力	-11.0717
百餘年	-11.0718
乃止	-11.0726
廣南	-11.0729
下水	-11.073
嵩山	-11.0731
水淘	-11.0732
客有	-11.0741
炒令	-11.0741
帝曰	-11.0747
便是	-11.0748
丈夫	-11.0749
不辭	-11.0754
經雨	-11.0755
疏云	-11.0759
上方鐫	-11.0759
産於	-11.0761
殊不	-11.0773
流霞	-11.0775
中多	-11.0777
不學	-11.0779
以充	-11.0788
髙可	-11.0791
隂隂	-11.0795
肉食	-11.0799
栽之	-11.08
冬生	-11.0803
三十二	-11.0805
不可與	-11.0805
葉有	-11.0813
西京	-11.0815
青白色	-11.0815
白菜	-11.0817
暖風	-11.083
每日	-11.0831
别是	-11.0834
八日	-11.0837
堂下	-11.084
最勝	-11.0843
與諸	-11.0846
十圍	-11.0847
山陽	-11.0848
過雨	-11.0849
海棠花	-11.0855
是書	-11.0856
俗人	-11.0857
滇	-11.0858
人衣	-11.086
居人	-11.0861
曦	-11.0863
得自	-11.0872
實大	-11.0873
櫻桃花	-11.0874
罅	-11.0876
上林苑	-11.0879
拒霜	-11.088
太原	-11.0882
知我	-11.0889
茨	-11.0892
簸	-11.0892
娑羅	-11.0893
癸	-11.0894
甕中	-11.0894
如常	-11.0894
詵	-11.0897
昧	-11.0898
簿	-11.0898
黄熟	-11.0898
茆	-11.0899
沙糖	-11.09
荳	-11.09
開小白花	-11.0901
孺	-11.0901
恃	-11.0902
涓	-11.0902
鯤	-11.0902
凌冬不凋	-11.0902
雞舌	-11.0903
璇	-11.0903
莨	-11.0904
金元好問	-11.0904
農政全書	-11.0904
勵	-11.0904
悠	-11.0905
蕡	-11.0905
犁	-11.0906
張騫	-11.0906
疼	-11.0906
珠璣	-11.0906
雞子	-11.0907
而不知	-11.0907
礱	-11.0907
匕	-11.0907
緯	-11.0907
大臣	-11.0907
杜荀鶴	-11.0908
投之	-11.0908
猥	-11.0908
餙	-11.0909
厓	-11.0909
鑚	-11.0909
䄂	-11.0909
哥	-11.091
溼	-11.091
其瓣	-11.091
清流	-11.091
雨航雜錄	-11.0911
韓琦	-11.0911
串	-11.0911
杼	-11.0911
軀	-11.0911
燠	-11.0911
蔴	-11.0912
蘆菔	-11.0912
沆瀣	-11.0912
氣味苦	-11.0912
齧	-11.0912
有大毒	-11.0912
盧仝	-11.0912
瑣碎	-11.0913
洒	-11.0913
唐李嶠	-11.0913
瀋	-11.0913
弼	-11.0914
舫	-11.0914
蝦蟇	-11.0914
恬	-11.0914
粲粲	-11.0914
胭脂	-11.0914
扣之有聲	-11.0915
仙人掌	-11.0915
喪	-11.0915
罌粟	-11.0915
莘	-11.0916
菩薩蠻	-11.0916
得意	-11.0916
挫	-11.0916
鱮	-11.0917
鼉	-11.0918
同類	-11.0918
髩	-11.0919
恠	-11.0919
諷	-11.0919
頽	-11.0919
米芾	-11.092
棺	-11.092
饞	-11.0922
蒙頂	-11.0924
未及	-11.0925
屬也	-11.0925
五六尺	-11.0926
御袍黄	-11.0927
唐劉禹錫	-11.0927
諺曰	-11.0929
隴西	-11.093
酸漿	-11.0931
翟	-11.0932
雌雄	-11.0932
薰陸	-11.0933
禪師	-11.0933
朝廷	-11.0933
彭澤	-11.0934
占斷	-11.0936
紅艶	-11.0937
可生食	-11.0937
疎寮詩	-11.0938
釵頭	-11.0938
金鈴菊	-11.0942
去後	-11.0943
夢魂	-11.0944
不至	-11.0945
海人	-11.0946
桐葉	-11.0947
糞壤	-11.0947
也若	-11.0947
商人	-11.0948
無瑕	-11.0949
長三寸	-11.0952
森然	-11.0953
開胃	-11.0954
破之	-11.0956
欲知	-11.0957
成實	-11.0958
廣東	-11.0959
曲水	-11.096
誰憐	-11.096
天公	-11.0961
等閒	-11.0961
歙溪	-11.0961
家園	-11.0965
腹脹	-11.0965
其妙	-11.0966
甚香	-11.0969
佳果	-11.0973
不負	-11.0976
辛香	-11.0976
蒼耳	-11.0978
龍團	-11.0978
秦皮	-11.0979
頗有	-11.098
目為	-11.098
西江	-11.0981
車前	-11.0981
三十餘	-11.0983
白蘋	-11.0987
羅列	-11.0987
為問	-11.0988
灌之	-11.0991
大竹	-11.0992
笑語	-11.0992
玉蘂花	-11.0993
非所	-11.0994
二花	-11.0994
竹箭	-11.0995
底事	-11.0996
六斤	-11.0996
博物	-11.1003
土人以	-11.1003
腫毒	-11.1006
五丈	-11.1006
各二	-11.1007
依前	-11.1009
青木香	-11.1009
末利	-11.1013
台州	-11.1018
狀元	-11.102
大如拳	-11.1025
以大	-11.1026
數十年	-11.1027
晩節	-11.103
金釵	-11.1031
月桂	-11.1031
數畝	-11.1032
諸郡	-11.1034
何日	-11.1035
無多	-11.1035
鬱金香	-11.1035
九秋	-11.1037
王建	-11.1037
乞與	-11.1041
有石	-11.1041
蓋之	-11.1042
如泥	-11.1046
體輕	-11.1047
唐韻	-11.1049
若此	-11.105
相憶	-11.105
取子	-11.105
者或	-11.1051
道傍	-11.1054
低枝	-11.1054
不結實	-11.1057
花底	-11.1057
色澤	-11.1059
河北	-11.1059
解之	-11.106
滿室	-11.1061
驚起	-11.1065
無定	-11.1068
之極	-11.1069
坐對	-11.1069
其華	-11.107
山泉	-11.1073
芳塵	-11.1073
作穗	-11.1073
早晩	-11.1074
叢竹	-11.1074
不愛	-11.108
而止	-11.1088
白魚	-11.1089
青皮	-11.1092
五斤	-11.1096
山家	-11.1096
六字	-11.1096
夢裏	-11.1097
天台山	-11.1097
知音	-11.1103
不作	-11.1103
青白	-11.1104
對酒	-11.1108
君看	-11.1109
而柔	-11.1111
嵗貢	-11.1112
一同	-11.1114
為文	-11.1117
對生	-11.1121
唐宋	-11.1122
然其	-11.1124
坑石	-11.1127
黄山	-11.1134
大紅	-11.1135
和風	-11.1135
秋氣	-11.1136
物華	-11.1138
寒無毒	-11.1139
之誤	-11.1144
和尚	-11.1146
道旁	-11.1147
亦猶	-11.1148
或謂	-11.115
清影	-11.115
不可用	-11.1152
布地	-11.1155
落落	-11.1158
舊事	-11.1159
未敢	-11.116
果實	-11.116
染翰	-11.1163
天柱	-11.1164
作小	-11.1166
十萬	-11.1168
清池	-11.1168
蛟龍	-11.1169
張華	-11.1173
龍井	-11.1183
韓子	-11.1184
海邊	-11.1188
立夏	-11.1188
自唐	-11.1189
移時	-11.1189
香清	-11.1189
面文	-11.119
亦然	-11.1192
忽然	-11.1196
凝結	-11.1198
詩註	-11.1198
沈水	-11.12
文公	-11.1202
國人	-11.1204
不取	-11.1205
葉綠	-11.1209
夜光	-11.121
後庭	-11.1214
時候	-11.1215
竹也	-11.1216
當其	-11.1216
雨濕	-11.1218
谷中	-11.1219
寒泉	-11.1221
其精	-11.1222
甲子	-11.1225
飛来	-11.1228
此為	-11.1231
日長	-11.1237
孤生	-11.124
煎湯	-11.1242
則花	-11.1244
三斗	-11.1246
之松	-11.125
極大	-11.1253
和露	-11.1255
南土	-11.1257
盛時	-11.1258
異品	-11.1259
紫藤	-11.126
下血	-11.1265
無毒主	-11.1266
一錢半	-11.1266
烈日	-11.1268
蒼玉	-11.1269
木蓮	-11.1272
小枝	-11.1274
世有	-11.1275
神物	-11.1275
文昌	-11.1275
夜半	-11.1277
風度	-11.1286
金杯	-11.1289
春晚	-11.129
九節	-11.129
鹿角	-11.1291
煌	-11.1292
木葉	-11.1295
木蘭花	-11.1302
分别	-11.1303
旁有	-11.1304
不論	-11.1307
之末	-11.1308
殘雪	-11.131
識之	-11.1312
葉大	-11.1316
皆是	-11.132
之利	-11.1321
堅潤	-11.1323
未放	-11.1323
風来	-11.1325
凡五	-11.1325
日已	-11.1332
法用	-11.1332
安可	-11.1338
龍池	-11.134
未全	-11.134
豈是	-11.1341
鮮紅	-11.1341
更生	-11.1343
菊之	-11.1346
武宗	-11.1346
孫枝	-11.1347
糞土	-11.135
蘘荷	-11.1359
國語	-11.1361
荏	-11.1363
為異	-11.1368
羨	-11.1368
既成	-11.1369
自言	-11.1371
為此	-11.1372
陶𢎞景	-11.1372
梅子	-11.1377
種時	-11.1383
菀	-11.1388
無餘	-11.1388
壟	-11.1393
賖	-11.1393
珣	-11.1395
桶	-11.1395
不移	-11.1395
久而	-11.1395
二丈	-11.1396
李商隐	-11.1396
邕	-11.1398
捉	-11.1398
品目	-11.1398
虵	-11.1399
箒	-11.1399
荳蔲	-11.14
不息	-11.14
繋	-11.14
筮	-11.14
烝	-11.1401
鑽	-11.1401
綽	-11.1401
峩	-11.1402
蚶	-11.1402
晷	-11.1402
寤	-11.1402
樞	-11.1403
擁腫	-11.1403
寝	-11.1404
疰	-11.1404
禮部	-11.1404
瀛	-11.1404
葚	-11.1405
椎	-11.1405
憇	-11.1405
躡	-11.1405
彊	-11.1405
魏曹植	-11.1406
之處	-11.1406
鱖	-11.1406
燧	-11.1406
肉厚	-11.1406
苹	-11.1406
會稽	-11.1406
溷	-11.1406
奥	-11.1407
娃	-11.1407
凸	-11.1407
炮	-11.1408
詩豳風	-11.1408
夭矯	-11.1408
茱茰	-11.1408
替	-11.1409
箴	-11.141
孜	-11.141
踵	-11.141
李徳裕	-11.141
覿	-11.1411
斟酌	-11.1412
琵琶	-11.1412
掾	-11.1412
毓	-11.1412
曇	-11.1413
纎纎	-11.1413
瘤	-11.1413
迺	-11.1413
惕	-11.1413
蘭之	-11.1414
梁沈約	-11.1414
郢	-11.1415
相國	-11.1415
綈几	-11.1415
陶弼	-11.1416
禍	-11.1416
瑞應圖	-11.1417
刓缺	-11.1418
鍾乳	-11.1418
悠然	-11.1418
博雅	-11.1419
張九齡	-11.1419
哭	-11.1419
該	-11.142
夜則	-11.142
瀑布	-11.142
鰥	-11.142
斑斑	-11.142
鶯啼	-11.1421
賚	-11.1421
中毒	-11.1421
燔	-11.1422
値	-11.1422
鷹爪	-11.1423
紹聖	-11.1423
熙寧	-11.1424
刷絲	-11.1424
吾將	-11.1425
波濤	-11.1425
駮	-11.1426
后妃	-11.1426
十八娘	-11.1426
陶隠居	-11.1426
倡	-11.1427
七八尺	-11.1427
御溝	-11.1428
崔豹古今注	-11.1428
淳化	-11.1428
無毛	-11.1429
鳥雀	-11.143
宋朱子	-11.143
舊唐書	-11.143
農夫	-11.1434
妖艶	-11.1434
支離	-11.1435
風字	-11.1435
字子	-11.1436
庶幾	-11.1437
傅粉	-11.1437
鹿葱	-11.1438
子猷	-11.1438
王元	-11.1438
搗羅	-11.144
伯仲	-11.1441
徑二寸	-11.1441
和匀	-11.1441
疎雨	-11.1444
茗飲	-11.1445
取次	-11.1446
大熱	-11.1447
黄魯直	-11.1447
丁謂	-11.1448
客至	-11.145
杯盤	-11.1451
夾道	-11.1451
翠竹	-11.1451
楊栁	-11.1452
宻封	-11.1452
樓閣	-11.1454
自知	-11.1454
鼻觀	-11.1454
態度	-11.1455
漁父	-11.1456
不自持	-11.1456
園丁	-11.1457
籬菊	-11.1458
戲題	-11.146
婦女	-11.1461
郁李	-11.1462
辛苦	-11.1463
曹唐	-11.1464
七夕	-11.1464
神宗	-11.1465
却憶	-11.1466
泥沙	-11.1467
花小	-11.1468
細鱗	-11.147
李嘉祐	-11.1472
水清	-11.1473
女兒	-11.1474
歲久	-11.1481
包裹	-11.1482
留得	-11.1483
數百年	-11.1484
右以	-11.1485
胡為	-11.1485
湖南	-11.1486
二三丈	-11.1487
佳色	-11.1488
柯葉	-11.1488
膠法	-11.1488
青蔥	-11.1488
歙石	-11.149
春工	-11.149
遊絲	-11.1491
各二錢	-11.1492
圖畫	-11.1494
食筍	-11.1495
窓前	-11.1497
北海	-11.1498
老僧	-11.1499
切細	-11.1503
久不	-11.1505
生涯	-11.1516
澤之	-11.1516
漢苑	-11.1519
自相	-11.1524
即位	-11.1527
天麻	-11.1531
樓前	-11.1531
厚薄	-11.1532
又次之	-11.1536
北齊	-11.1537
之術	-11.1537
日影	-11.154
奉和	-11.1541
風暖	-11.1549
艶陽	-11.155
細碎	-11.1551
之為物	-11.1556
赤城	-11.1557
小便	-11.1558
髙低	-11.1559
方丈	-11.156
應為	-11.156
之魚	-11.1561
青綠	-11.1562
醉裏	-11.1563
白髮	-11.1568
衆果	-11.157
石門	-11.1571
則為	-11.1574
茅山	-11.1577
珍果	-11.1579
蠟瓣	-11.1584
昔聞	-11.1585
馬上	-11.1588
秋香	-11.1591
妝成	-11.1592
於庭	-11.1595
肥美	-11.16
熏衣	-11.1602
可取	-11.1611
光潤	-11.1611
千林	-11.1612
南園	-11.1614
見而	-11.1614
受墨	-11.1615
端州	-11.162
沉香一兩	-11.1623
坐客	-11.1623
米粒	-11.1625
凭	-11.1627
開遲	-11.1632
文同	-11.1641
瑞蓮	-11.1641
萬餘	-11.1643
莖赤	-11.1653
又可	-11.1656
經云	-11.1656
或謂之	-11.1657
一名苦	-11.166
三人	-11.166
鍋内	-11.1661
季春	-11.1663
新晴	-11.1664
千頭	-11.1665
玉壺	-11.1666
初熟	-11.1672
三色	-11.1674
吾家	-11.1674
而能	-11.1675
其色如	-11.1676
一頭	-11.1677
宋張	-11.1679
不滿	-11.1681
庭除	-11.1681
故山	-11.1686
傷寒	-11.1687
十七年	-11.1688
廣寒	-11.1692
生花	-11.1697
爛然	-11.1698
紅黄	-11.1703
小異	-11.171
臨江	-11.1711
一二寸	-11.1712
倚風	-11.1712
好風	-11.1713
國色	-11.1714
不止	-11.1715
固有	-11.1716
種瓜	-11.172
折一枝	-11.1722
之具	-11.1727
尚可	-11.1734
亦謂之	-11.174
山前	-11.1742
兩株	-11.1744
頗多	-11.1746
侍御	-11.1749
十餘年	-11.1753
西國	-11.1754
辛夷花	-11.1758
後時	-11.1758
幽花	-11.1759
與夫	-11.1762
舊有	-11.1764
麻油	-11.1767
肌骨	-11.1769
通神	-11.1771
印香	-11.1771
葉密	-11.178
十一年	-11.178
欲去	-11.1784
人共	-11.1788
數枚	-11.1789
宛如	-11.1791
竹節	-11.1793
水際	-11.1795
囊盛	-11.18
河中	-11.181
耐寒	-11.1823
北堂	-11.1825
槐葉	-11.1825
能作	-11.183
馬尾	-11.1832
臨安	-11.184
之木	-11.1841
所貴	-11.1841
葵花	-11.1841
黄瓜	-11.1842
酵	-11.1842
醉不可	-11.1846
為丸	-11.1846
有茶	-11.1851
欄干	-11.1851
含煙	-11.1856
色黑	-11.1861
尖長	-11.1862
真味	-11.1862
玉為	-11.1866
所致	-11.187
都賦	-11.1871
居然	-11.1872
太上	-11.1873
一道	-11.1884
色黄而	-11.1893
不歸	-11.1895
酒服	-11.1897
唐本草	-11.1897
顒	-11.1898
勺	-11.1899
竹生	-11.1899
寒氣	-11.1899
以表	-11.1901
所為	-11.1903
禄	-11.1907
孟浩然	-11.1907
潯	-11.1907
山野	-11.1908
生扵	-11.1909
玉立	-11.191
粳米	-11.191
右側鐫	-11.1911
返魂	-11.1911
錐	-11.1911
苺	-11.1912
翎	-11.1913
椰	-11.1913
難為	-11.1915
龍尾石	-11.1916
不可多	-11.1916
石間	-11.1916
窰	-11.1916
柞	-11.1916
一名黄	-11.1917
苗葉	-11.1919
真臘	-11.1919
撈	-11.192
韌	-11.192
屐	-11.1922
耨	-11.1922
為二	-11.1922
蒹葭	-11.1923
胡荽	-11.1924
搯	-11.1924
苻	-11.1924
晳	-11.1924
汀洲	-11.1924
梔	-11.1924
猷	-11.1924
李咸用	-11.1925
酥油	-11.1926
含芳	-11.1926
瘠	-11.1926
徤	-11.1927
不數	-11.1927
駿	-11.1928
弁	-11.1928
蔡邕	-11.1928
猊	-11.1928
彪	-11.1928
膓	-11.1928
麥門冬	-11.1929
嵌	-11.1929
洮	-11.193
祭祀	-11.193
髙丈餘	-11.193
討	-11.193
衲	-11.193
沙棠	-11.193
佚	-11.1931
盍	-11.1931
撩亂	-11.1931
帯	-11.1932
牛膝	-11.1932
購	-11.1932
侑	-11.1933
駒	-11.1933
無子	-11.1933
拄杖	-11.1933
嗁	-11.1934
葬	-11.1934
霸	-11.1934
黍稷	-11.1934
元馬祖常	-11.1934
爼	-11.1934
皷	-11.1934
狭	-11.1935
劉敞	-11.1935
邵雍	-11.1935
蛙	-11.1935
愷	-11.1935
標格	-11.1935
庭珪	-11.1935
復何	-11.1936
朱明	-11.1936
鳶	-11.1936
嶂	-11.1936
蔫	-11.1936
茇	-11.1936
申時行	-11.1937
軒轅	-11.1937
撩	-11.1937
笏	-11.1937
年光	-11.1937
韋應物	-11.1938
脛	-11.1938
右為細末煉蜜	-11.1939
邃	-11.1939
種樹書	-11.1939
淋漓	-11.1939
焰硝	-11.1939
韓保昇曰	-11.1939
邱	-11.1939
爆	-11.1939
莒	-11.1939
嘔	-11.194
柴胡	-11.194
罥	-11.1941
僮	-11.1941
貶	-11.1942
禽魚之	-11.1942
概	-11.1942
嶰谷	-11.1943
芥菜	-11.1943
乂	-11.1943
采擷	-11.1943
虱	-11.1944
騁	-11.1944
𣺌	-11.1945
司空圖	-11.1945
其苗	-11.1945
廡	-11.1945
槌	-11.1945
正氣	-11.1945
揮毫	-11.1946
生熟	-11.1946
無實	-11.1947
然不	-11.1947
蒸食	-11.1947
鳥獸	-11.1947
料物	-11.1948
惲	-11.1949
摸	-11.1949
素娥	-11.1949
從来	-11.195
三昧	-11.195
商山	-11.195
翊	-11.195
夔	-11.195
酈	-11.1951
元趙孟頫	-11.1952
堆盤	-11.1952
以時	-11.1952
山其木多	-11.1953
姚魏	-11.1953
湼	-11.1953
俶	-11.1953
㤗	-11.1953
臣等	-11.1954
列仙傳	-11.1954
芎	-11.1955
還似	-11.1955
胡蘿蔔	-11.1956
陸機	-11.1956
冰肌	-11.1957
土膏	-11.1957
橙橘	-11.1957
安南	-11.1958
廣雅云	-11.1958
霜霰	-11.1959
藤蔓	-11.1959
米腦	-11.1959
世宗	-11.1959
者蓋	-11.1959
髙三四尺	-11.196
三分許	-11.196
緡	-11.196
膚理	-11.1961
大㦸	-11.1961
啖之	-11.1962
獨行	-11.1962
獅子	-11.1963
吾廬	-11.1963
脂麻	-11.1964
朝露	-11.1964
朱砂	-11.1964
前日	-11.1965
載之	-11.1965
虎丘	-11.1965
高祖	-11.1966
蓴菜	-11.1967
平樂	-11.1967
驪山	-11.1968
之首	-11.197
暇日	-11.1971
三柰	-11.1971
韶華	-11.1972
照眼	-11.1972
上天	-11.1972
竒花	-11.1972
厚五分	-11.1972
囘首	-11.1973
錯落	-11.1973
新枝	-11.1974
生成	-11.1974
葵菜	-11.1974
世祖	-11.1974
春生苖	-11.1974
嘗與	-11.1975
翦伐	-11.1975
出灰	-11.1976
出西京	-11.1976
御題	-11.1976
採取	-11.1978
知白	-11.1979
按本草	-11.1981
藍田	-11.1983
鐫御題銘一首楷書鈐寳二曰	-11.1983
天雨	-11.1985
鮫人	-11.1985
階前	-11.1986
倒垂	-11.1988
過於	-11.1989
周圍	-11.1989
南康	-11.1992
仙掌	-11.1993
賓客	-11.1994
盛衰	-11.1995
可啖	-11.1995
永樂	-11.1996
忘歸	-11.1996
無涯	-11.1996
養性	-11.1997
流𫝊	-11.1998
毎嵗	-11.2001
眀目	-11.2001
冷淡	-11.2002
東陵	-11.2002
二螯	-11.2002
元參	-11.2003
路傍	-11.2004
由来	-11.2005
數十里	-11.2006
越女	-11.2007
孩兒	-11.2007
待制	-11.2008
成簇	-11.2009
裹之	-11.201
我今	-11.2014
庚子	-11.2018
雷雨	-11.2021
始於	-11.2022
刮去	-11.2022
交廣	-11.2024
一名土	-11.2025
杜詩	-11.2025
字楷書	-11.2026
折得	-11.2027
宜用	-11.2028
暑月	-11.203
栽植	-11.2032
青陽	-11.2033
以詩	-11.2034
飽食	-11.2034
物有	-11.2034
者然	-11.2034
江表	-11.2035
尚未	-11.2035
如飴	-11.2035
萬花	-11.2038
凡花	-11.2038
夭夭	-11.2039
濃隂	-11.2039
墨竹	-11.2042
試問	-11.2043
香囊	-11.2044
諸譜	-11.2047
越州	-11.2049
三十里	-11.2049
江左	-11.2049
羅漢	-11.2051
天雄	-11.2051
已矣	-11.2051
人行	-11.2052
烹之	-11.2053
沉香亭	-11.2054
目之	-11.2055
在地	-11.2056
宗廟	-11.2057
不逺	-11.2058
鳯池	-11.2058
一隻	-11.2058
無足	-11.2058
開黄花	-11.2059
者為良	-11.2061
諸子	-11.2061
翠盖	-11.2063
杜蘅	-11.2069
黄鳥	-11.2071
誤矣	-11.2077
異也	-11.2078
人人	-11.208
小葉	-11.208
慶雲	-11.2082
徑尺	-11.2091
雅州	-11.2094
手足	-11.2095
形圓	-11.2101
丈人	-11.2104
有酒	-11.2105
相倚	-11.2106
宜都	-11.2107
無光	-11.2108
謫仙	-11.2112
黄者	-11.2112
李中	-11.2113
古墨	-11.2113
實而	-11.2116
内實	-11.2122
絳囊	-11.2123
無益	-11.2124
三曰	-11.2129
不起	-11.2129
伐之	-11.213
桃花菊	-11.2132
入夏	-11.2132
一把	-11.2135
而甘	-11.2135
方言	-11.2137
一窠	-11.214
食物	-11.2141
滿院	-11.2142
槐花	-11.2144
黄而	-11.2144
又謂之	-11.2146
宗本紀	-11.2155
古詩	-11.2158
誰道	-11.2159
吹香	-11.216
二曰古香曰太璞	-11.216
茉莉花	-11.2162
青葱	-11.2162
之藥	-11.2163
蘭麝	-11.2164
黄龍	-11.2164
定知	-11.2165
那知	-11.2165
也予	-11.2168
六錢	-11.2169
泉水	-11.2169
則以	-11.217
葉皆	-11.2171
既不	-11.2172
緋桃	-11.2175
明堂	-11.2176
一簇	-11.2176
頂上	-11.2176
其葉似	-11.2176
人在	-11.2178
溪頭	-11.2179
滿城	-11.2182
重疊	-11.2183
留春	-11.2183
八字	-11.2184
秋葵	-11.2184
生芽	-11.2186
方莖	-11.2186
緑竹	-11.2187
千葉者	-11.2189
一枝春	-11.2192
每服	-11.2193
以致	-11.2194
老松	-11.2195
兩螯	-11.2196
花片	-11.2201
三秋	-11.2201
者次之	-11.2205
清和	-11.2205
黄冠	-11.2207
成膏	-11.2207
仙客	-11.2207
梔子花	-11.2208
樹皮	-11.2212
門下	-11.2216
所思	-11.2218
藤一名	-11.2218
譜序	-11.2219
故鄉	-11.2219
大雅	-11.222
黄心	-11.2223
雲錦	-11.2226
未出	-11.2228
籜龍	-11.223
常服	-11.2232
豆一名	-11.2232
宫殿	-11.2232
人語	-11.2233
微小	-11.2236
廣西	-11.2236
有常	-11.2238
午時	-11.2241
楝花	-11.2248
實者	-11.2249
郡人	-11.2252
東家	-11.2255
茶出	-11.2258
大谷	-11.2259
香浮	-11.226
數人	-11.2263
以火	-11.2264
其中有	-11.2269
試茶	-11.227
他如	-11.227
此石	-11.2271
清氣	-11.2272
最後	-11.2274
下品	-11.2277
非一	-11.2277
天寶	-11.2278
諸處	-11.2278
風揺	-11.228
節物	-11.2281
取根	-11.2285
天與	-11.2288
司花	-11.2291
解語	-11.2293
不任	-11.2294
杉木	-11.2295
朝來	-11.2296
錢右	-11.2304
就中	-11.2306
春愁	-11.2308
零露	-11.2312
分付	-11.2317
黄衣	-11.2319
子生	-11.2319
也一名	-11.232
百嵗	-11.2322
出門	-11.2325
景物	-11.2325
流傳	-11.2325
若使	-11.2326
再生	-11.2327
若欲	-11.2333
亦可食	-11.2336
絶無	-11.2339
當春	-11.2341
喜食	-11.2342
其腹	-11.2343
萬竿	-11.2345
苦寒	-11.2346
御定佩文齋廣羣芳譜卷四十	-11.2346
白梅	-11.2347
春雪	-11.2347
今則	-11.2356
方圓	-11.2362
含香	-11.2363
節節	-11.2366
七寳	-11.2367
青衣	-11.2372
何不	-11.2375
小説	-11.2375
如飛	-11.2376
而復	-11.2379
詠菊	-11.2383
其汁	-11.2385
龍文	-11.2386
之神	-11.2387
不能自	-11.2391
泉州	-11.2392
常山	-11.2396
紅蕉	-11.2396
安國	-11.2402
種菊	-11.2403
亦與	-11.2404
欲其	-11.2404
非是	-11.2405
今古	-11.2407
羗	-11.2408
沈譜	-11.2411
二十餘	-11.2415
麥秋	-11.2417
稱其	-11.2418
一畨	-11.2422
今在	-11.2425
如小豆	-11.2425
之實	-11.2426
然如	-11.2427
其聲	-11.2428
日夕	-11.243
陳藏器	-11.2431
可代	-11.2435
春蘭	-11.2438
飛雪	-11.2454
花草	-11.2455
寐	-11.2456
蓽撥	-11.2457
令乾	-11.2458
贈之	-11.2461
長老	-11.2462
几案	-11.2462
為小	-11.2463
味似	-11.2464
鈞	-11.2464
輕黄	-11.2464
之妙	-11.2464
𤨏	-11.2465
占春	-11.2465
蔞蒿	-11.2471
鶻	-11.2471
鵬	-11.2474
可人	-11.2475
寒色	-11.2475
菩薩	-11.2475
頡	-11.2475
璜	-11.2479
頬	-11.248
塼	-11.248
韓翃	-11.248
別	-11.248
櫛	-11.248
平原	-11.2481
峒	-11.2482
瘀血	-11.2482
元郝經	-11.2483
白芨末	-11.2483
蚊	-11.2484
旄	-11.2484
絞	-11.2484
懽	-11.2484
搜神記	-11.2485
恕	-11.2485
迄	-11.2485
鏘	-11.2485
絢	-11.2485
幣	-11.2486
戢戢	-11.2486
㨂	-11.2486
禿	-11.2487
黄梅	-11.2487
代之	-11.2487
湧幢小品	-11.2487
瘟	-11.2487
倅	-11.2488
寥	-11.2488
溟	-11.2488
物以	-11.2488
厠	-11.2489
王羲之	-11.2489
轅	-11.2489
芰荷	-11.2489
四肢	-11.249
擺	-11.249
蹲	-11.249
㓜	-11.249
有二種一種	-11.249
吻	-11.2491
高三四尺	-11.2491
蒔蘿	-11.2491
七月七日	-11.2491
浣溪沙	-11.2492
孔雀	-11.2493
償	-11.2493
江淹	-11.2494
涇	-11.2494
泚	-11.2494
縣東	-11.2494
中有細子	-11.2494
綾	-11.2495
說硯髙五寸	-11.2495
聚八仙	-11.2495
藕花	-11.2496
紛披	-11.2496
攘	-11.2496
太平興國	-11.2497
鎻	-11.2497
太乙	-11.2497
太尉	-11.2498
伶倫	-11.2498
鰱	-11.2499
明吳寛	-11.2499
涪翁	-11.2499
岱	-11.2499
禊	-11.25
馴	-11.25
㯶櫚	-11.25
盻	-11.25
鎗	-11.25
訂	-11.25
塌	-11.25
睹	-11.2501
盼	-11.2501
杲	-11.2502
敘	-11.2502
羈	-11.2502
見此	-11.2503
齎	-11.2504
淇澳	-11.2504
洛浦	-11.2504
大同	-11.2505
降眞香	-11.2505
蘧	-11.2505
闔	-11.2506
澄泥為之	-11.2506
宋王禹偁	-11.2506
黿	-11.2506
涪州	-11.2507
蕭索	-11.2507
缶	-11.2507
熱毒	-11.2508
陶淵明	-11.2509
隙地	-11.251
隆冬	-11.2511
生結香	-11.2511
西掖	-11.2512
問其故	-11.2512
唐石渠硯	-11.2512
螃蟹	-11.2512
蘇子瞻	-11.2513
每歲	-11.2513
婺州	-11.2514
炎帝	-11.2514
如錦	-11.2516
萬頃	-11.2517
畫松	-11.2517
常棣	-11.2517
真宰	-11.2517
禾黍	-11.2517
採掇	-11.2519
延夀	-11.252
石泉	-11.2522
漁書	-11.2523
給事	-11.2526
燕脂	-11.2526
相似但	-11.2526
厚朴	-11.2528
歴代	-11.2528
将軍	-11.2529
清江	-11.2529
而死	-11.253
秋夜	-11.253
鵞梨	-11.2531
空心	-11.2531
逐旋	-11.2532
花滿	-11.2532
盈把	-11.2533
分得	-11.2535
沉香檀香	-11.2535
沈水香	-11.2536
墻隂	-11.2536
斜倚	-11.2538
公之	-11.254
物性	-11.254
收採	-11.2541
學書	-11.2542
堅緻	-11.2542
絶少	-11.2545
耐老	-11.2546
萸	-11.2547
白玊	-11.2548
喬木	-11.2549
必以	-11.2549
石罅	-11.255
憶昔	-11.255
東皇	-11.255
經旬	-11.2551
泥封	-11.2557
拂地	-11.2557
稍稍	-11.2558
是嵗	-11.2558
南浦	-11.2559
鮮鮮	-11.2562
之暇	-11.2562
稚子	-11.2563
埤雅云	-11.2564
謂此	-11.2564
重葉	-11.2566
北史	-11.2568
雲鬟	-11.257
吳郡	-11.2572
人得	-11.2574
莫惜	-11.2575
但有	-11.2575
滴瀝	-11.2576
醉鄉	-11.2576
水腫	-11.2578
今以	-11.2578
亦知	-11.2579
炎方	-11.2579
勿使	-11.2581
草花譜	-11.2582
有草	-11.2584
十餘丈	-11.2585
甆器	-11.2586
而得	-11.2587
煑之	-11.2589
溪澗	-11.259
當軒	-11.259
四川	-11.2592
上巳	-11.2593
何湏	-11.2595
寄語	-11.2595
甚羙	-11.2595
先是	-11.2597
殊絶	-11.2599
和羮	-11.26
羣仙	-11.26
熱氣	-11.2603
夜寒	-11.2603
長三尺	-11.2604
其身	-11.2606
色黒	-11.2607
酒器	-11.2616
橘皮	-11.2618
何異	-11.262
春前	-11.2621
秋分	-11.2627
意其	-11.2627
金錢花	-11.263
香凝	-11.263
雞冠花	-11.2636
春夢	-11.2639
最是	-11.264
嫩緑	-11.2641
小蟲	-11.2642
中山	-11.2644
後苑	-11.2648
紅玉	-11.2649
蒙山	-11.2651
為爾	-11.2652
月冷	-11.2652
三株	-11.2653
蚌坑	-11.2654
九江	-11.2656
相伴	-11.2657
韶州	-11.2657
真定	-11.2658
粟米	-11.2659
桐木	-11.2662
入甕	-11.2663
然也	-11.2666
三足	-11.2668
香甚	-11.2669
隨時	-11.2671
衣冠	-11.268
所藏	-11.2682
相合	-11.2682
東宫	-11.2683
以求	-11.2688
明帝	-11.269
五湖	-11.2693
玉樓	-11.2694
變為	-11.2696
不留	-11.2699
便可	-11.2699
帳中	-11.2699
五藏	-11.2701
節間	-11.2703
蜂兒	-11.2704
少有	-11.2707
葉大如	-11.271
疑其	-11.271
玉環	-11.2713
於大	-11.2717
未免	-11.2717
山之陽	-11.272
不假	-11.2721
猪肉	-11.2721
桃杏	-11.2721
去心	-11.2724
曉來	-11.2726
錦囊	-11.2726
紅萼	-11.2733
露葉	-11.2734
錄云	-11.2735
雲仙	-11.2736
不乏	-11.2738
遣人	-11.2739
嵗華	-11.2741
朱門	-11.2741
風入	-11.2744
起居	-11.2745
自笑	-11.2749
眼中	-11.2749
煮之	-11.2752
已過	-11.2753
雨洗	-11.2754
人多以	-11.2758
帝時	-11.2762
百六十	-11.2763
一子	-11.2764
王瓜	-11.2766
木奴	-11.2767
去毛	-11.2768
書畫	-11.277
數竿	-11.2774
来年	-11.2775
吳王	-11.2776
石榴花	-11.2778
深谷	-11.278
之交	-11.2781
今詳	-11.2782
清潤	-11.2783
三四寸	-11.2784
相催	-11.2787
結成	-11.2789
莫道	-11.2792
繞樹	-11.2792
蘭生	-11.2793
獨揺	-11.2796
一名烏	-11.2796
時已	-11.2798
自落	-11.2799
各異	-11.28
而易	-11.2807
唐時	-11.2807
絳紗	-11.281
以奉	-11.2813
者尤	-11.2814
春暮	-11.2814
百葉	-11.2815
過時	-11.2819
也吾	-11.282
其族	-11.2822
相隨	-11.2823
非真	-11.2826
金風	-11.2829
垂隂	-11.283
酒味	-11.2831
有木名	-11.2832
相比	-11.2837
補中	-11.2837
四靣	-11.2838
先開	-11.2838
錢起	-11.2838
疥	-11.2841
里有	-11.2842
若用	-11.2845
氣候	-11.2846
紅絲石	-11.2847
不放	-11.2849
大木	-11.2852
獻之	-11.2852
落地	-11.2852
蜀郡	-11.2854
芳華	-11.2854
魚蟹	-11.2854
深根	-11.2856
水邉	-11.2858
小樹	-11.2858
詩成	-11.2859
皮肉	-11.2861
之右	-11.2863
以鐵	-11.2864
山間	-11.2865
補之	-11.2865
香檀香	-11.2866
不令	-11.2871
百株	-11.2876
要之	-11.2877
紅英	-11.2877
方士	-11.2878
未易	-11.2879
方知	-11.288
一徑	-11.2883
秋實	-11.2883
也乃	-11.2887
春来	-11.2889
不熟	-11.2894
海雲	-11.2895
題畫	-11.2895
或為	-11.2896
沃之	-11.2896
楓樹	-11.2897
八月采	-11.2897
有眼	-11.2901
右用	-11.2901
或言	-11.2901
細潤	-11.2902
鮓	-11.2902
朱夏	-11.2902
風枝	-11.2902
風來	-11.2908
我有	-11.2908
一何	-11.2908
縣西	-11.2911
諸生	-11.2911
少而	-11.2913
社前	-11.2915
亦非	-11.2915
成樹	-11.2916
千顆	-11.2917
第十	-11.2925
而葉	-11.2926
柳樹	-11.2927
㸃茶	-11.2928
故國	-11.2928
之佳者	-11.2929
水陸	-11.293
照影	-11.2932
金丸	-11.2934
千枝	-11.2937
甚竒	-11.2937
在此	-11.2937
玉池	-11.2939
俟其	-11.2943
竹枝	-11.2946
鳯凰	-11.2948
以湯	-11.2952
核如	-11.2954
二十六	-11.2956
西海	-11.2959
一百五	-11.296
為五	-11.296
留取	-11.2961
何有	-11.2962
微苦	-11.2962
羣木	-11.2963
甚盛	-11.2964
老農	-11.2964
廣平	-11.2965
松竹	-11.2965
春風吹	-11.2967
而扁	-11.2967
此是	-11.2972
曬乾用	-11.2973
與衆	-11.2974
三次	-11.2978
有似	-11.2981
戎州	-11.2981
茶品	-11.2985
知有	-11.2986
御定佩文齋廣羣芳譜卷三十	-11.2987
江東人	-11.2989
右同	-11.299
常在	-11.2993
紳	-11.2999
瑞草	-11.3002
男女	-11.3002
視其	-11.3005
墨經	-11.3005
髙樓	-11.3006
隠起	-11.3007
花蘂	-11.3007
此心	-11.301
以代	-11.3012
更入	-11.3015
一盞	-11.3018
風塵	-11.3019
物理	-11.3021
其意	-11.3023
蘭草	-11.3024
黄土	-11.3025
州志	-11.3025
白茅	-11.3027
湯煑	-11.3031
必須	-11.3032
牟	-11.3032
瑒	-11.3039
枝柯	-11.3041
耙	-11.3041
宋人	-11.3046
岷	-11.3049
無極	-11.3051
藪	-11.3051
古來	-11.3052
子由	-11.3052
之家	-11.3053
蕖	-11.3053
何能	-11.3055
于若瀛	-11.3055
碁	-11.3055
哈昔泥	-11.3058
薯蕷	-11.3058
醉後	-11.3059
窑	-11.3059
茶園	-11.3061
泓	-11.3063
筆墨	-11.3064
能知	-11.3064
髭	-11.3065
兀	-11.3065
疳	-11.3065
疥癬	-11.3066
涌	-11.3067
謠	-11.3067
鸎	-11.3067
皁角	-11.3068
罄	-11.3068
溲	-11.307
愼	-11.307
慨	-11.3071
本自	-11.3071
幡	-11.3071
老學庵筆記	-11.3071
秬	-11.3071
溫庭筠	-11.3071
曄曄	-11.3072
廿	-11.3072
嗇	-11.3072
萞麻	-11.3073
戾	-11.3074
飣	-11.3074
琴瑟	-11.3075
咨嗟	-11.3075
鉏	-11.3075
瑜	-11.3075
矩	-11.3076
譜錄類	-11.3076
猜	-11.3076
癩	-11.3076
詮	-11.3076
蜕	-11.3076
籩	-11.3076
㽔	-11.3077
董其昌	-11.3077
不遇	-11.3077
繽紛	-11.3077
冝	-11.3078
竄	-11.3078
罽	-11.3078
毘	-11.3078
蓑	-11.3078
韋荘	-11.3079
嘶	-11.3079
硃砂	-11.308
惬	-11.308
塹	-11.308
桞宗元	-11.308
暘	-11.308
羌活	-11.308
淡淡	-11.308
贄	-11.3081
曛	-11.3081
湄	-11.3081
宋史五行志	-11.3081
湘妃	-11.3082
風俗通	-11.3082
蘅	-11.3082
窨一月	-11.3082
蓊鬱	-11.3082
仇	-11.3082
茅茨	-11.3082
見説	-11.3083
滄浪	-11.3083
迅	-11.3083
鬐	-11.3084
有小毒	-11.3085
眀日	-11.3085
斑駁	-11.3085
􁐓	-11.3086
蟛蜞	-11.3086
睦	-11.3086
牛膠	-11.3086
植於	-11.3087
愆	-11.3087
紡	-11.3087
頳	-11.3087
荳䓻	-11.3087
五色線	-11.3087
羽翼	-11.3087
林逋	-11.3087
確	-11.3088
庻	-11.3088
嫦娥	-11.3089
徐熙	-11.3089
纖纖	-11.3089
瀛洲	-11.3089
曩	-11.3089
雨前	-11.3089
楚屈原離騷	-11.309
覃	-11.309
拊	-11.309
荆楚嵗時記	-11.309
李商隱	-11.309
忝	-11.3091
梁棟	-11.3091
蓬莱	-11.3091
大厦	-11.3092
玉硯	-11.3092
技	-11.3092
三洞珠囊	-11.3093
莭	-11.3093
弔	-11.3093
丹鉛	-11.3094
佳客	-11.3094
八寸	-11.3094
各等分	-11.3094
遯	-11.3094
浮槎	-11.3094
謨	-11.3095
通判	-11.3095
楛	-11.3095
瑩潔	-11.3095
揚雄	-11.3096
鸞鳳	-11.3096
姑蘇	-11.3097
淳熙	-11.3097
菊叢	-11.3097
醉中	-11.3099
張蠙	-11.3099
陶隱居	-11.3099
㸃絳唇	-11.3099
為席	-11.3099
舅	-11.3099
僕射	-11.3099
􁑭	-11.3099
瑤臺	-11.31
祉	-11.31
花紫	-11.3101
再拜	-11.3102
七錢半	-11.3102
卷一	-11.3102
庭筠	-11.3104
王荆公	-11.3104
杜宇	-11.3104
侍宴	-11.3105
六寸	-11.3106
萬朶	-11.3107
後又	-11.3108
蕭疎	-11.3108
宋蔡襄	-11.3109
單瓣	-11.311
永叔	-11.311
而用之	-11.311
夲草云	-11.3111
氷肌	-11.3111
人世	-11.3111
藕絲	-11.3112
種黍	-11.3112
孟夏	-11.3112
不才	-11.3112
長二三寸	-11.3112
永昌	-11.3113
斜日	-11.3113
突起	-11.3113
不願	-11.3114
羅敷	-11.3114
麝香少許	-11.3114
陰乾	-11.3115
竹籬	-11.3115
萬厯	-11.3118
荆楚	-11.3118
四五寸	-11.3118
麴塵	-11.312
杜陵	-11.312
嫩者	-11.312
朝菌	-11.3121
一春	-11.3122
隔宿	-11.3123
津液	-11.3124
漸漸	-11.3124
青瑣	-11.3125
石延年	-11.3127
凌冬	-11.3127
崇寧	-11.3129
其國	-11.3132
荆州記	-11.3132
春衫	-11.3133
道之	-11.3133
茶竈	-11.3135
紫茸	-11.3136
此中	-11.3137
一二丈	-11.3138
只愁	-11.3138
夏熟	-11.3139
又謂	-11.314
不善	-11.3142
夢覺	-11.3142
筆管	-11.3144
木筆	-11.3144
瑞麥	-11.3144
唐昌	-11.3144
酒酣	-11.3145
麩炭	-11.3147
甘而	-11.3147
至孝	-11.3149
帝女	-11.3151
便覺	-11.3154
活火	-11.3156
匠石	-11.3157
桑樹	-11.3157
風烟	-11.3157
數倍	-11.3158
盤屈	-11.3159
隔年	-11.316
未歸	-11.3161
含章	-11.3162
種藝	-11.3164
貯水	-11.3165
一斛	-11.3165
小魚	-11.3166
肺氣	-11.3167
如其言	-11.3167
水或	-11.3168
殺之	-11.3169
仙茅	-11.317
供養	-11.3171
澄清	-11.3172
光華	-11.3172
乃得	-11.3173
安期	-11.3173
百子	-11.3175
李紳	-11.3176
十倍	-11.3176
好顔色	-11.3177
土之	-11.3177
入藥用	-11.3179
長數寸	-11.3179
題曰	-11.318
扶持	-11.318
本草經	-11.3181
製造	-11.3181
其最	-11.3182
夀陽	-11.3182
隂氣	-11.3184
詔曰	-11.3184
顆顆	-11.3186
左思	-11.3188
移種	-11.319
况復	-11.319
方開	-11.3192
池邊	-11.3193
陶家	-11.3193
委地	-11.3193
勝於	-11.3193
大塊	-11.3193
無賴	-11.3196
貴於	-11.3197
珍珠	-11.3197
浣花	-11.3197
三月開花	-11.3198
絶艶	-11.3199
團茶	-11.3199
暑氣	-11.3199
莖似	-11.32
父母	-11.32
巴蜀	-11.32
平章	-11.3202
最愛	-11.3204
一名鹿	-11.3206
成式	-11.3206
比徳	-11.3206
野葛	-11.3207
萬年枝	-11.3207
幽叢	-11.3208
魏書	-11.321
相同	-11.321
仰視	-11.3211
卉木	-11.3213
我皇	-11.3213
只應	-11.3213
試新	-11.3214
皆用	-11.3216
余以	-11.3221
即今之	-11.3222
世無	-11.3227
供佛	-11.3229
素質	-11.323
雙頭	-11.3231
有五色	-11.3232
一炷	-11.3232
自逺	-11.3233
迥出	-11.3233
不易得	-11.3234
瘡疥	-11.3236
之嘉	-11.3238
已下	-11.3238
霜前	-11.3239
無地	-11.3241
榮落	-11.3245
尤宜	-11.3246
洗盡	-11.3247
芥子	-11.3248
合為一	-11.3248
曰是	-11.3251
無比	-11.3253
竹軒	-11.3254
取用	-11.3256
愛花	-11.3258
數㸃	-11.3259
郡齋	-11.3259
雲腴	-11.3261
張氏	-11.3262
者尤佳	-11.3262
芝蘭	-11.3264
宜食	-11.3264
及時	-11.3267
竒怪	-11.3268
莫知其	-11.327
經冬	-11.327
驟雨	-11.3271
荔支譜	-11.3275
慎勿	-11.3275
未肯	-11.3275
䕶之	-11.3275
一様	-11.3276
而短	-11.3276
側生	-11.3277
地則	-11.328
七里	-11.3281
公卿	-11.3281
土宜	-11.3282
玉肌	-11.3282
諸病	-11.3282
上都	-11.3282
雨露之	-11.3283
餘芳	-11.3284
故實	-11.3285
一名大	-11.3289
十種	-11.3292
微白	-11.3292
金雀	-11.3292
屈原	-11.3294
春雷	-11.3296
特地	-11.3296
月上	-11.33
來時	-11.33
其竹	-11.33
大蒜	-11.3301
一醉	-11.3302
皆在	-11.3302
道者	-11.3305
上藥	-11.3306
觀者	-11.3307
天教	-11.3309
繁盛	-11.3312
豆大	-11.3316
洞天	-11.3318
崖蜜	-11.3319
為妙	-11.332
上等	-11.3324
中土	-11.3325
今已	-11.3325
作畦	-11.333
此皆	-11.333
不逐	-11.333
却老	-11.3331
不隨	-11.3331
山亭	-11.3334
欽定四庫全書香乗卷	-11.3337
賦詠	-11.3337
不失	-11.3339
生嶺南	-11.3343
筆硯	-11.3344
安能	-11.3346
紫荆	-11.3348
如前	-11.3349
亦可以	-11.3351
葉與	-11.3357
甘苦	-11.3363
一也	-11.3365
一架	-11.3369
以問	-11.337
黄魚	-11.3372
十餘里	-11.3372
疎疎	-11.3373
花朝	-11.3374
流落	-11.3375
長二尺	-11.3378
不損	-11.3378
紙上	-11.338
是處	-11.338
無他	-11.3381
林木	-11.3392
侯家	-11.3394
再三	-11.3398
成塊	-11.34
之理	-11.3401
昔日	-11.3401
九州	-11.3403
色映	-11.3405
墨工	-11.3407
一穗	-11.3409
髙大	-11.341
揚子	-11.3412
正中	-11.3415
與可	-11.3416
則根	-11.3421
莫言	-11.3422
巖下	-11.3424
五月采	-11.3432
之攸	-11.3433
白乳	-11.3433
細看	-11.3435
蜀茶	-11.3435
極多	-11.3436
湯浸	-11.3436
果然	-11.3442
手種	-11.3443
宮中	-11.3447
猶能	-11.3448
用藥	-11.3449
愁人	-11.3451
李元	-11.3452
月照	-11.3453
天聖	-11.3454
動揺	-11.3457
有三種	-11.3461
松林	-11.3462
各以	-11.3463
青帝	-11.3468
彈丸	-11.3468
經過	-11.3469
而益	-11.347
青花	-11.347
異種	-11.3471
宋元	-11.3475
無考	-11.3477
影落	-11.3477
之徳	-11.3479
光景	-11.348
常侍	-11.3481
沐浴	-11.3489
傷根	-11.3493
芳蘭	-11.3496
雪白	-11.3497
荅曰	-11.3501
今為	-11.3503
花氣	-11.3505
有稜	-11.3507
七字	-11.3507
風土	-11.3508
嫩枝	-11.3509
僧院	-11.3511
應時	-11.3512
一名野	-11.3514
枯枝	-11.3515
有恨	-11.3515
氣如	-11.3516
晴明	-11.3516
百斛	-11.3517
無能	-11.3517
由此	-11.352
陸費墀	-11.352
沈周	-11.352
天隨	-11.3533
水流	-11.3535
初種	-11.3538
本作	-11.3538
别研	-11.354
山石榴	-11.354
石室	-11.354
必用	-11.3543
仙靈	-11.3544
相看	-11.355
極香	-11.3551
玉芝	-11.3555
若為	-11.3557
火炙	-11.3558
也因	-11.3559
狀若	-11.3559
相通	-11.3561
種於	-11.3562
所能	-11.3563
種種	-11.3565
近時	-11.3565
藤花	-11.3569
從今	-11.3569
赤如	-11.3572
誰將	-11.3573
為上時	-11.3577
仍用	-11.3578
如錢	-11.3578
先知	-11.3585
更佳	-11.3586
鑴	-11.3587
以歸	-11.3587
初試	-11.3592
一名鬼	-11.3592
不教	-11.3593
獨占	-11.3594
屋上	-11.3597
堪入藥	-11.3597
吐出	-11.3609
縣志	-11.361
春末	-11.3613
高大	-11.3618
苑中	-11.3618
太液	-11.3618
大雨	-11.3619
去水	-11.362
拂水	-11.3623
新柳	-11.3629
輕寒	-11.3632
農事	-11.3634
火上	-11.3634
眀月	-11.3635
東陽	-11.3637
老坑端石	-11.3638
有云	-11.364
墨色	-11.3644
以土	-11.3644
瑪瑙	-11.3645
惜花	-11.3645
失其	-11.3647
此身	-11.3649
於今	-11.3653
療風	-11.3655
諺	-11.3657
在上	-11.3659
山民	-11.3661
郡守	-11.3664
相識	-11.3665
煠	-11.3665
皆香	-11.3666
種法	-11.3668
樹子	-11.3671
江東呼	-11.3671
楊子	-11.3672
無雙	-11.3672
黄氏	-11.3674
褒	-11.3675
多病	-11.3677
膈	-11.3678
為樂	-11.3678
剡	-11.3679
名實	-11.368
聞見	-11.3681
省中	-11.3682
鎚	-11.3683
倐	-11.3684
性熱	-11.3685
苣	-11.3685
彎	-11.3687
文房四譜	-11.3688
次用	-11.3688
聿	-11.3689
褁	-11.3689
鯿	-11.369
蚯蚓	-11.369
葑	-11.369
南齊書	-11.3691
𡨕	-11.3691
凶	-11.3692
其父	-11.3693
臟	-11.3693
氣味苦平無毒治	-11.3693
冡	-11.3694
楫	-11.3694
天行	-11.3694
聾	-11.3695
孝義傳	-11.3696
著子	-11.3696
忤	-11.3696
蹏	-11.3697
者與	-11.3697
鸛	-11.3697
龔	-11.3697
琛	-11.3697
枿	-11.3697
藁	-11.3698
香油	-11.3698
莱	-11.3698
禮記内則	-11.3698
摩挲	-11.3698
檟	-11.3699
諤	-11.37
鵶	-11.37
拌匀	-11.37
養魚經	-11.37
它	-11.37
聞香	-11.37
骸	-11.37
誡	-11.3701
巘	-11.3701
淸	-11.3701
宕	-11.3701
繅	-11.3702
嫗	-11.3702
籌	-11.3703
戍	-11.3703
整頓	-11.3703
採蓮曲	-11.3703
救荒	-11.3703
為粗末	-11.3703
蘑菰	-11.3704
雷電	-11.3704
亦宜	-11.3704
砧	-11.3704
迫	-11.3704
瘍	-11.3704
沓	-11.3704
堰	-11.3704
滂	-11.3705
肋	-11.3705
騫	-11.3705
嘘	-11.3705
壻	-11.3705
謳	-11.3705
消渴	-11.3705
闘	-11.3705
䋲	-11.3705
俸	-11.3705
低昂	-11.3705
藹藹	-11.3705
甜瓜	-11.3706
衒	-11.3706
高二三尺	-11.3706
丫	-11.3706
牙硝	-11.3706
卞	-11.3706
紵	-11.3707
檄	-11.3707
凋零	-11.3707
涴	-11.3707
畢竟	-11.3707
李孝美	-11.3707
禧	-11.3708
璀璨	-11.3708
八九尺	-11.3708
今人以	-11.3708
大秦國	-11.3709
淒凉	-11.3709
七八寸	-11.3709
册	-11.3709
金爐	-11.3709
磁盒	-11.3709
衷	-11.3709
岀	-11.3709
至正	-11.371
寒水石	-11.371
荒蕪	-11.371
洗去	-11.371
生薑汁	-11.371
筭	-11.371
博山香爐	-11.3711
腰脚	-11.3711
驩	-11.3711
薈	-11.3712
鱒	-11.3712
撐	-11.3712
郵	-11.3712
唐元稹	-11.3712
淇	-11.3712
寃	-11.3712
簇簇	-11.3712
耿耿	-11.3713
金鑾	-11.3713
赦	-11.3713
鸜鵒眼	-11.3713
聘	-11.3713
詡	-11.3713
璚	-11.3713
綿綿	-11.3714
逈	-11.3714
胯	-11.3714
邂逅	-11.3714
菱角	-11.3714
異魚圖贊	-11.3714
淳祐	-11.3715
太后	-11.3715
歘	-11.3715
仄	-11.3715
瓦礫	-11.3715
泗	-11.3715
其時	-11.3716
遨	-11.3716
露冷	-11.3716
嵇康	-11.3717
煜	-11.3717
肱	-11.3717
鮠	-11.3718
蹲鴟	-11.3718
䘮	-11.3718
無恙	-11.3719
湏臾	-11.3719
匿	-11.3719
巽	-11.372
叫	-11.372
消痰	-11.372
萆	-11.372
衿	-11.372
徑三寸	-11.3721
謔	-11.3721
虞美人	-11.3721
肥瘠	-11.3722
心腹痛	-11.3722
之産	-11.3724
拂拭	-11.3724
乞馬	-11.3725
飫	-11.3725
服餌	-11.3726
白礬	-11.3726
悽	-11.3726
鄧州	-11.3727
麻姑	-11.3727
簾櫳	-11.3727
傾倒	-11.3727
談苑	-11.3728
唐皮日休	-11.3728
初發	-11.3729
味淡	-11.373
活眼	-11.3731
竒樹	-11.3734
品格	-11.3734
為報	-11.3735
溪橋	-11.3735
鷓鴣天	-11.3736
宣宗	-11.3736
畏寒	-11.3737
恰似	-11.3737
宋王十朋	-11.3737
而名	-11.3738
屈曲	-11.3739
採菱	-11.374
旬日	-11.3743
相依	-11.3743
漫漫	-11.3743
凝脂	-11.3744
豈可	-11.3744
阿魏	-11.3745
洛神	-11.3746
精舍	-11.3746
折楊柳	-11.3748
三百顆	-11.3748
髙尺餘	-11.3749
三百六十	-11.3749
織女	-11.375
太史	-11.375
寒時	-11.3751
池館	-11.3752
深林	-11.3754
丹丘	-11.3754
洛陽牡丹	-11.3755
豆花	-11.3755
諸葛	-11.3756
茶山	-11.3756
遲暮	-11.3756
有竹	-11.3757
出處	-11.3757
繁衍	-11.3758
十五年	-11.3758
為大	-11.3758
湯餅	-11.3759
管城	-11.3759
應無	-11.376
走馬	-11.3761
弱質	-11.3761
遺之	-11.3762
良材	-11.3763
泉石	-11.3764
新唐書	-11.3765
掘地	-11.3765
紫赤色	-11.3766
昭陽	-11.3767
潯陽	-11.3767
園圃	-11.3767
松柏之	-11.3768
嘉蓮	-11.3769
低垂	-11.377
此菊	-11.3771
繁茂	-11.3772
凌晨	-11.3774
二十八	-11.3777
女郎	-11.3779
棗樹	-11.378
瓊英	-11.3782
雖小	-11.3782
嵗暮	-11.3783
来禽	-11.3783
昔在	-11.3784
佳麗	-11.3784
霜風	-11.3785
雞骨	-11.3786
六尺	-11.3789
絲絲	-11.379
繁星	-11.3791
破血	-11.3792
御愛	-11.3793
開紫花	-11.3793
折二錢	-11.3794
仙翁	-11.3794
竒香	-11.3795
同研	-11.3796
七星	-11.3796
文學	-11.3797
巫山	-11.3797
篇云	-11.3798
離宫	-11.3799
照日	-11.3799
豈能	-11.3799
也用以	-11.3801
西川	-11.3802
氷霜	-11.3802
雜花	-11.3802
誰見	-11.3802
蠶事	-11.3803
折傷	-11.3803
淺碧	-11.3807
今見	-11.3807
流出	-11.3809
誰是	-11.3809
醒酒	-11.381
種松	-11.3811
諸毒	-11.3811
三眠	-11.3812
歌吹	-11.3814
一實	-11.3816
茶甌	-11.3816
朱橘	-11.3817
匣盖	-11.3817
與他	-11.3818
濯錦	-11.3818
終嵗	-11.3819
少陵	-11.3819
聊以	-11.382
麥秀	-11.3821
太液池	-11.3823
以報	-11.3823
頭尾	-11.3823
最難	-11.3825
甘羙	-11.3826
光武	-11.3827
芳姿	-11.3829
庾嶺	-11.3829
玉色	-11.383
冷艶	-11.3831
河内	-11.3832
縷金	-11.3833
以金	-11.3834
濕痺	-11.3835
玉雪	-11.3836
洗妝	-11.3837
春早	-11.3837
性堅	-11.3837
願君	-11.3838
乃可	-11.3841
不加	-11.3841
猶堪	-11.3841
一二尺	-11.3844
玉川	-11.3844
梓樹	-11.3845
金衣	-11.3847
由來	-11.3847
間出	-11.3852
以告	-11.3853
其義	-11.3855
卿雲	-11.3856
紅葩	-11.3856
艾葉	-11.3856
有六	-11.3857
張遇	-11.3857
以南	-11.3857
宿露	-11.3857
可貴	-11.3859
漢中	-11.3862
之說	-11.3865
蜜和	-11.3866
柳枝	-11.3866
萬卷	-11.3866
小樓	-11.3867
牛角	-11.3868
不收	-11.3868
可辨	-11.3869
以刀	-11.3871
輭香	-11.3871
重隂	-11.3872
急雨	-11.3872
覆土	-11.3874
氣味辛温無毒	-11.3874
可佩	-11.3877
一啜	-11.3877
兩岸	-11.3878
凝露	-11.3879
箬葉	-11.3879
况是	-11.3882
白沙	-11.3886
半邊	-11.3886
宻葉	-11.3888
右為細末以	-11.3888
肌肉	-11.3888
花品	-11.3889
嚼之	-11.3889
舊製	-11.3891
烏梅	-11.3891
掃地	-11.3893
儼如	-11.3894
知名	-11.3894
墻頭	-11.3899
復古	-11.3899
白榆	-11.3901
用糞	-11.3904
清越	-11.3907
香毬	-11.3911
精於	-11.3911
甘蕉	-11.3913
一行	-11.3913
西域記	-11.3914
汝南	-11.3914
一椀	-11.3914
闕下	-11.3914
其母	-11.3915
因此	-11.3916
所無	-11.3916
紫黑	-11.3916
熬成	-11.3919
菱花	-11.392
紫石	-11.3922
不羡	-11.3923
地産	-11.393
眼看	-11.3931
用則	-11.3933
周書	-11.3936
絶壁	-11.3938
黄鶯	-11.3939
凡木	-11.3941
九真	-11.3943
濕處	-11.3945
有鬚	-11.3946
紅顔	-11.3947
二十二	-11.3947
雨晴	-11.3949
十二年	-11.3949
土氣	-11.3949
一甌	-11.395
方寸	-11.3951
移来	-11.3951
等物	-11.3952
瓦硯	-11.3952
所傳	-11.3954
風俗	-11.3956
自從	-11.3956
根長	-11.3957
在兹	-11.3957
房中	-11.3961
如漆	-11.3962
學道	-11.3965
潤州	-11.3966
之聲	-11.3967
心事	-11.3968
拂雲	-11.3968
則茶	-11.3974
欽定四庫全書欽定西清硯譜卷	-11.3977
縣南	-11.3977
知君	-11.3978
先於	-11.3982
蜀州	-11.3982
乾則	-11.3983
經時	-11.3983
及此	-11.3988
謝家	-11.3989
圖經云	-11.3993
變而	-11.3993
唐末	-11.3997
接之	-11.3999
亦類	-11.4
尊前	-11.4
新荷	-11.4003
咸平	-11.4004
愁殺	-11.4009
相當	-11.4013
不踰	-11.4013
而繁	-11.4017
重來	-11.402
補腎	-11.4022
棠梨	-11.4028
半醉	-11.4031
不怕	-11.4031
爐中	-11.4033
淡紫	-11.4034
合和	-11.4036
以遺	-11.4039
古意	-11.4041
紅桃	-11.4041
微青	-11.4041
地方	-11.4043
之麗	-11.4044
短長	-11.4044
南岳	-11.405
輕隂	-11.4052
木性	-11.4052
國朝	-11.4052
而致	-11.4057
春晴	-11.406
珠樹	-11.4061
緑水	-11.4061
蜀錦	-11.4062
賜之	-11.4064
不消	-11.4066
錦城	-11.4068
成行	-11.4069
乆之	-11.407
當日	-11.407
欲問	-11.4071
子落	-11.4073
所進	-11.4073
金州	-11.408
多用之	-11.4081
川谷	-11.4084
植物	-11.4084
花蕊	-11.4087
月光	-11.4088
黄楊	-11.409
松下	-11.4092
一樽	-11.4092
從之	-11.4093
生動	-11.4094
貴之	-11.4097
渡江	-11.4099
訛為	-11.4099
永日	-11.4101
賞花	-11.4103
竹外	-11.4105
十歩	-11.4106
一雙	-11.4108
桂子	-11.4108
炒食	-11.411
是誰	-11.4111
莫知	-11.4112
濕熱	-11.4112
惜哉	-11.4116
不可見	-11.4116
取諸	-11.4118
始華	-11.4123
何其	-11.4124
時方	-11.4125
縣出	-11.4125
須是	-11.4126
根盤	-11.4126
難以	-11.4126
石巖	-11.4131
微炒	-11.4132
枝繁	-11.4132
水澆之	-11.4134
小豆	-11.4136
徽宗	-11.4138
用事	-11.4139
山縣	-11.4142
隂處	-11.4142
嘉州	-11.4144
可染	-11.4145
三丈	-11.4147
舊譜	-11.4147
嗅之	-11.415
松聲	-11.4152
鋸齒	-11.4155
山薑	-11.4156
詩家	-11.4157
二尺許	-11.416
手把	-11.4164
州出	-11.4166
按此	-11.4167
春殘	-11.4169
穀雨	-11.4171
亦復	-11.4172
也謂	-11.4172
之文	-11.4173
有子	-11.4174
采得	-11.4174
香煤	-11.418
小錢	-11.4183
都城	-11.4185
然亦	-11.4186
竹裏	-11.4191
流芳	-11.4192
作聲	-11.4193
堂上	-11.4193
鶯聲	-11.4196
如毬	-11.4198
叢叢	-11.42
細白	-11.42
今嵗	-11.4208
贈我	-11.4209
薌	-11.4213
微似	-11.4213
竹木	-11.4216
良工	-11.4217
可致	-11.4218
緑雲	-11.4218
如粉	-11.4219
色正	-11.422
亦當	-11.4226
么	-11.4227
徳宗	-11.4227
黄河	-11.4229
始以	-11.4229
石蟹	-11.4232
得宜	-11.4236
此味	-11.4238
之命	-11.4239
亦是	-11.4243
隠居	-11.4244
四十九	-11.4245
有僧	-11.4246
輕重	-11.4246
歸時	-11.425
分賜	-11.425
各五	-11.425
神芝	-11.425
玉妃	-11.4256
剥蝕	-11.4256
凡三	-11.4259
瓦盆	-11.426
都下	-11.426
應知	-11.4262
多植	-11.4263
在前	-11.4263
詳其	-11.4264
楝	-11.4268
鮪	-11.4268
公孫	-11.4269
向來	-11.4274
何在	-11.4275
白茶	-11.4276
北風	-11.4276
因而	-11.4282
獨莖	-11.4283
此乃	-11.4287
其字	-11.4291
其材	-11.4297
四五尺	-11.4298
李時珍	-11.4303
更宜	-11.4304
知春	-11.4305
新雨	-11.4305
有味	-11.4305
出墻	-11.4308
凡物	-11.4317
無别	-11.4318
在内	-11.4318
孩兒菊	-11.4321
上客	-11.4324
五瓣	-11.4326
不正	-11.4328
清眀	-11.4329
百斤	-11.433
列子	-11.4334
墾	-11.4335
方盛	-11.4336
而食	-11.4336
洛人	-11.4336
常州	-11.4338
秈	-11.4339
茶法	-11.4343
服藥	-11.4343
胸膈	-11.4345
嘉其	-11.4346
孟子	-11.4347
荽	-11.4348
蘇恭	-11.4349
嘔吐	-11.4349
臛	-11.4351
别後	-11.4352
椑	-11.4353
久食	-11.4353
江瑶柱	-11.4353
莪	-11.4353
㗋	-11.4354
○	-11.4355
舞腰	-11.4357
瀘	-11.4358
儆	-11.4358
故以為名	-11.4358
鯈	-11.4359
癢	-11.4359
箧	-11.436
据	-11.4361
磨礲	-11.4361
柔韌	-11.4361
藋	-11.4362
蝨	-11.4362
洩痢	-11.4362
倪瓚	-11.4362
韞	-11.4362
从	-11.4362
宋劉子翬	-11.4363
佑	-11.4363
王象晉	-11.4363
凄凄	-11.4363
譚	-11.4363
顧瑛	-11.4364
嵇	-11.4364
縝	-11.4365
稃	-11.4365
藥草	-11.4366
贅	-11.4366
肻	-11.4366
周禮天官	-11.4367
薏	-11.4367
晒	-11.4367
劃	-11.4367
笄	-11.4367
㹠	-11.4368
沱	-11.4368
闡	-11.4368
凜	-11.4368
宋錢惟演	-11.4368
狄	-11.4369
圅	-11.4369
手自栽	-11.4369
馮琦	-11.4369
耻	-11.437
五加皮	-11.437
陷	-11.437
鷃	-11.437
狗脊	-11.437
凢	-11.437
吝	-11.437
襪	-11.437
晃	-11.437
魟	-11.4371
李嶠	-11.4371
穏	-11.4371
主簿	-11.4371
縳	-11.4371
竟不	-11.4372
殞	-11.4372
鰌	-11.4373
浩蕩	-11.4373
踪	-11.4373
馬臻	-11.4373
薺苨	-11.4373
蘓軾	-11.4374
優劣	-11.4374
瘕	-11.4374
時見	-11.4374
閩部疏	-11.4374
顛狂	-11.4374
泠泠	-11.4374
篸	-11.4375
熨	-11.4375
爻	-11.4375
四民月令	-11.4375
岑寂	-11.4375
塜	-11.4376
忠州	-11.4376
開細花	-11.4376
淳熈	-11.4376
稊	-11.4376
慳	-11.4376
潰	-11.4376
秦人	-11.4376
樾	-11.4376
誚	-11.4376
馥郁	-11.4376
翕	-11.4377
壌	-11.4377
明楊基	-11.4377
琅	-11.4377
辜負	-11.4377
上方側面	-11.4378
梁庾肩吾	-11.4378
閩粤	-11.4378
蘭芷	-11.4378
啼鶯	-11.4378
肝膽	-11.4378
杵臼	-11.4378
屛	-11.4379
泝	-11.4379
宋邵雍	-11.4379
皎皎	-11.4379
魅	-11.4379
淘淨	-11.438
猩血	-11.438
我亦	-11.438
月落	-11.438
唐張九齡	-11.438
斤斧	-11.438
匣盖鐫御題銘與硯同	-11.4381
巗	-11.4381
黃白色	-11.4381
𤣥宗	-11.4381
曳	-11.4381
轂	-11.4381
扣之無聲	-11.4382
垂絲海棠	-11.4382
蠢	-11.4382
葛洪	-11.4382
旨	-11.4383
鴨卵	-11.4383
蘄州	-11.4383
𨼆	-11.4383
隱逸	-11.4383
賞心樂事	-11.4384
拚	-11.4384
四銖	-11.4384
陸㳺	-11.4384
眸	-11.4384
羣芳譜	-11.4384
洞冥記	-11.4385
榼	-11.4385
兩兩相對	-11.4385
蕕	-11.4385
想像	-11.4385
舘	-11.4385
三輔黄圖	-11.4385
的的	-11.4386
剉碎	-11.4386
節度使	-11.4386
福建	-11.4386
沂	-11.4386
瑯琊	-11.4386
彛	-11.4386
低昻	-11.4387
竽	-11.4387
萬國	-11.4387
瑩徹	-11.4387
通寳大錢	-11.4387
酉陽	-11.4388
蜂房	-11.4388
其外	-11.4388
續茶經	-11.4388
杉木炭	-11.439
長三四寸	-11.4391
神人	-11.4391
鞓紅	-11.4391
乃至	-11.4391
身在	-11.4392
尖而	-11.4392
蓴羮	-11.4392
柴桑	-11.4392
鱗鱗	-11.4392
漁書云	-11.4393
蛇牀	-11.4394
如翦	-11.4394
原隰	-11.4395
顦顇	-11.4396
水出焉	-11.4397
嫩苖	-11.4397
多年	-11.4397
齋前	-11.4399
唐張籍	-11.4399
用時	-11.44
衆卉	-11.44
侍兒	-11.4401
西溪叢語	-11.4401
各少許	-11.4401
孤標	-11.4401
不免	-11.4402
亭午	-11.4403
汶水	-11.4404
有白毛	-11.4406
傅𤣥	-11.4406
梅樹	-11.4406
皆出	-11.4408
蓴絲	-11.4408
所遺	-11.4409
紫陌	-11.4409
無名	-11.4409
羊角	-11.4409
烏賊	-11.441
豈如	-11.441
獨擅	-11.441
長數尺	-11.4411
姓氏	-11.4411
管絃	-11.4411
世界	-11.4412
玉樓春	-11.4412
占候	-11.4412
都梁香	-11.4413
翦綵	-11.4413
狀元紅	-11.4414
偃蓋	-11.4414
孺子	-11.4417
文明	-11.4417
食之令人	-11.4417
舊日	-11.4418
漁家	-11.4419
餘皆	-11.4419
喚起	-11.4421
杞菊	-11.4421
筆談	-11.4422
燕尾	-11.4422
聖賢	-11.4422
實小	-11.4423
色與	-11.4423
荀子	-11.4424
堤上	-11.4424
為誰開	-11.4425
江妃	-11.4425
鄰家	-11.4427
語也	-11.4427
絲綸	-11.4428
淨洗	-11.4429
驛使	-11.4429
凡十	-11.4429
為首	-11.443
施朱	-11.443
至八月	-11.443
花謝	-11.4431
白鷺	-11.4432
肥土	-11.4432
黄太史詩	-11.4433
食蟹	-11.4435
最妙	-11.4435
承晏	-11.4436
修榦	-11.4436
苦參	-11.4436
磁瓶	-11.4436
羅綺	-11.4437
南京	-11.4438
粲然	-11.444
培植	-11.444
最忌	-11.444
中抽	-11.4441
紀聞	-11.4442
入門	-11.4442
卭	-11.4443
嗟乎	-11.4444
野水	-11.4445
咸陽	-11.4445
香出	-11.4446
刻畫	-11.4449
李樹	-11.4449
故以名	-11.445
中風	-11.4451
官舍	-11.4454
色緑	-11.4454
之書	-11.4455
泛酒	-11.4461
猶得	-11.4462
紅雨	-11.4462
之墨	-11.4462
滿架	-11.4463
柿葉	-11.4464
夜来	-11.4464
沈立	-11.4465
郎官	-11.4467
為茹	-11.4467
百榖	-11.447
佛頭	-11.4471
過了	-11.4472
亞深	-11.4473
空自	-11.4474
髙數尺	-11.4475
四曰	-11.4478
舊時	-11.4481
丹霞	-11.4482
光滑	-11.4482
候湯	-11.4482
杏園	-11.4482
數葉	-11.4483
烟霞	-11.4484
鹽藏	-11.4484
院落	-11.4484
花房	-11.4485
洞庭之	-11.4487
舶上	-11.4489
一首楷書	-11.4491
大家	-11.4492
二妃	-11.4493
山谷間	-11.4493
生海中	-11.4494
龍山	-11.4494
閒居	-11.4495
嵗晩	-11.4495
二合	-11.4495
波羅	-11.4498
深紅色	-11.4498
意欲	-11.4498
太極	-11.45
人目	-11.4502
青鸞	-11.4503
春晩	-11.4506
樹木	-11.4507
長一丈	-11.4507
植竹	-11.4507
心痛	-11.451
虎頭	-11.4512
柳絲	-11.4513
喚作	-11.4513
碧花	-11.4514
背上	-11.4515
我來	-11.4516
又何	-11.4516
書名	-11.4517
感物	-11.4518
竹間	-11.4518
品茶	-11.4519
難尋	-11.452
堅硬	-11.452
青蘋	-11.452
傷神	-11.4521
倒影	-11.4521
鬭茶	-11.4525
非此	-11.4526
大旱	-11.4527
木犀香	-11.4528
最大	-11.4532
關山	-11.4533
民之	-11.4534
化為石	-11.4536
數丈	-11.4536
水旱	-11.4538
氣分	-11.4539
頻澆	-11.4539
食品	-11.4544
深秋	-11.4544
六日	-11.4545
成堆	-11.4546
無人見	-11.4547
日烘	-11.4548
露芽	-11.4549
龍孫	-11.4549
京洛	-11.4549
根皮	-11.4553
案上	-11.4553
始有	-11.4554
歲月	-11.4557
正圓	-11.4557
俄而	-11.4561
千門	-11.4561
近日	-11.4562
園亭	-11.4562
襄州	-11.4563
百本	-11.4563
他人	-11.4567
石崇	-11.4569
凉生	-11.457
附録	-11.4574
陸費墀欽定四庫全書	-11.4574
小花	-11.4575
素手	-11.4577
湖山	-11.4578
温州	-11.4579
緑橘	-11.458
所記	-11.4581
紫蟹	-11.4582
馬齒	-11.4582
送客	-11.4584
皆生	-11.4584
早熟	-11.4586
一叚	-11.4587
小窓	-11.4593
穆之	-11.4594
畫竹	-11.4598
考之	-11.4606
翠條	-11.4607
許多	-11.4607
一十	-11.4607
朝士	-11.4608
𥙷中益氣羊	-11.4609
不愁	-11.4609
甑蒸	-11.461
公擇	-11.4613
凝霜	-11.4614
曰某	-11.4615
一榦	-11.4616
如桃	-11.4617
金城	-11.4617
易得	-11.4618
留意	-11.4619
退之	-11.4625
宜興	-11.4625
建木	-11.4627
血氣	-11.4629
性寒	-11.4629
其力	-11.4629
焉因	-11.463
郡有	-11.4637
欲識	-11.4637
餘春	-11.4639
古雅	-11.4641
豈獨	-11.4644
作粥	-11.4644
二十里	-11.4645
翠蓋	-11.4646
縣令	-11.4648
小蟹	-11.465
改作	-11.4652
亦可作	-11.4652
所愛	-11.4656
清夜	-11.4658
不嫌	-11.4659
不貴	-11.4661
水精	-11.4664
漢陽	-11.4667
飄香	-11.4672
之次	-11.4674
短小	-11.4675
桐樹	-11.4677
欲折	-11.4678
至是	-11.4678
近臣	-11.468
於道	-11.4681
斑㸃	-11.4687
其處	-11.4687
人形	-11.4689
暖日	-11.469
秋海棠	-11.469
日久	-11.4692
鍾山	-11.4693
朱華	-11.4693
四垂	-11.4697
新葉	-11.4703
根上	-11.4703
也按	-11.4707
變易	-11.4709
食之已	-11.4711
朝来	-11.4711
橘録	-11.4711
八月採	-11.4712
莫將	-11.4712
阿誰	-11.4712
金粉	-11.4713
承之	-11.4714
蟬花	-11.4714
妙香	-11.4715
茶飲	-11.4716
好花	-11.4718
多食令人	-11.4722
無文	-11.4722
鹽醃	-11.4723
衆花	-11.4725
煑茶	-11.4726
椒一名	-11.4728
四月開花	-11.4729
腹内	-11.473
莫與	-11.4731
何曾	-11.4733
萬古	-11.4733
青草	-11.4737
粉團	-11.4737
陳州	-11.4739
松根	-11.4743
金碧	-11.4745
余所	-11.4746
楚宫	-11.4749
攀枝	-11.4755
竹實	-11.4755
惜其	-11.4758
世家	-11.4759
不蛀	-11.476
人為	-11.4762
揺動	-11.4763
著雨	-11.4763
蔗漿	-11.4771
映水	-11.4771
石墨	-11.4772
腎氣	-11.4772
秋英	-11.4774
其在	-11.4775
華陽	-11.4775
珠玉	-11.478
之世	-11.4781
生則	-11.4782
孝武	-11.4782
秦王	-11.4782
南湖	-11.4783
摘取	-11.4785
上帝	-11.4785
開寳	-11.4788
向来	-11.4795
怪石	-11.4796
曰朕	-11.4796
石出	-11.4798
可入藥	-11.4798
霜華	-11.4799
欽定西清硯譜卷	-11.4799
茶焙	-11.4802
春間	-11.4803
芳氣	-11.4803
作團	-11.4804
舟人	-11.4807
蜜水	-11.4809
如牛	-11.4809
天門	-11.4814
物外	-11.4815
入湯	-11.4816
枯葉	-11.4817
除煩	-11.4818
倚欄	-11.4818
見花譜	-11.4818
年深	-11.482
呼童	-11.4821
不發墨	-11.4825
傅之	-11.4826
不爾	-11.4829
江州	-11.4842
歳貢	-11.4845
逐水	-11.4852
紫絲	-11.486
知母	-11.4864
華滋	-11.4864
風寒	-11.4865
近水	-11.4873
觸之	-11.4875
有水	-11.4876
南宋	-11.4882
天目	-11.4882
藤生	-11.4882
列仙	-11.4883
墨譜	-11.4884
著書	-11.4885
近侍	-11.4887
思歸	-11.4888
五行志	-11.489
吹落	-11.489
桂叢	-11.4892
形體	-11.4897
㣲紅	-11.4897
葵一名	-11.4899
同志	-11.4902
山鳥	-11.4902
夫何	-11.4903
其居	-11.4904
以清水	-11.4905
香濃	-11.4911
調中	-11.4911
新汲水	-11.4914
至于	-11.4914
其心	-11.4915
已著	-11.4917
珍異	-11.4917
根本	-11.4921
霜下	-11.4922
淡白	-11.4923
芝生	-11.4933
改為	-11.4933
萬玉	-11.4935
受命	-11.4935
者善	-11.4936
雖非	-11.4937
風翻	-11.4946
到此	-11.4951
臈茶	-11.4956
實大如	-11.4958
寒玉	-11.4959
所造	-11.496
紅錦	-11.4961
不結	-11.4967
細莖	-11.4969
送春	-11.4971
風清	-11.4971
至百	-11.4974
入鹽	-11.4974
萬葉	-11.4975
凡草木	-11.4977
少女	-11.4979
與我	-11.4981
乃取	-11.4982
武夷山	-11.4985
淺紫	-11.4986
地宜	-11.4993
金張	-11.4995
大瓣	-11.4996
一望	-11.4998
可容	-11.5001
行者	-11.5005
正在	-11.5005
遲日	-11.5008
正與	-11.5011
黄甘	-11.5017
則又	-11.5017
至道	-11.5018
本末	-11.502
有心	-11.5022
金顏香	-11.5022
天年	-11.5023
年久	-11.5036
龍腦麝香	-11.5038
下臨	-11.5043
煦	-11.5045
稂	-11.5046
藜藿	-11.5046
者葢	-11.5048
味極甘	-11.5049
製為	-11.505
錢文曰	-11.505
三合	-11.5051
同但	-11.5052
請以	-11.5052
因人	-11.5054
岩石	-11.5055
飱	-11.5056
驪	-11.5056
槍	-11.5058
利水道	-11.5058
重之	-11.5061
涪	-11.5061
脇	-11.5062
艾蒳	-11.5063
鴿	-11.5063
摯	-11.5063
苫	-11.5064
麰	-11.5064
江海	-11.5065
其價	-11.5066
幘	-11.5067
靡靡	-11.5067
婺源	-11.5067
稈	-11.5069
脣	-11.5069
雹	-11.5069
癃	-11.5069
癘	-11.5069
蘆葦	-11.5069
子母	-11.5069
馬志曰	-11.507
囬囬豆子	-11.507
嫣	-11.507
魔	-11.507
陂塘	-11.507
惻	-11.5071
奕奕	-11.5071
懋	-11.5071
釧	-11.5073
解酒毒	-11.5073
蛤蜊	-11.5073
簽	-11.5073
趙抃	-11.5074
企	-11.5074
跌	-11.5074
五勞七傷	-11.5074
朱淑真	-11.5074
胞	-11.5075
陳憲章	-11.5075
鬼疰	-11.5075
櫨	-11.5075
呂氏春秋	-11.5076
不以多少	-11.5076
豁	-11.5076
漢司馬相如上林賦	-11.5076
矛	-11.5077
醎	-11.5077
聫	-11.5077
赩	-11.5077
晉宫閣名	-11.5078
哇	-11.5078
流俗	-11.5078
濾去滓	-11.5078
壘	-11.5078
颭	-11.5079
噪	-11.5079
彞	-11.5079
又新	-11.5079
頹	-11.5079
芾	-11.5079
疽	-11.508
嬰兒	-11.508
琱	-11.508
梂	-11.508
蜨	-11.5081
蘊	-11.5081
皇太子	-11.5081
恤	-11.5081
剩	-11.5081
醸	-11.5081
撤	-11.5081
晴雪	-11.5082
酒熟	-11.5082
徐似道	-11.5082
殢	-11.5082
欬逆	-11.5082
揜	-11.5082
暨	-11.5082
竚	-11.5082
袤	-11.5082
奔走	-11.5083
因以為名	-11.5083
珂	-11.5083
貞元	-11.5083
龎	-11.5083
砥	-11.5083
峨	-11.5083
遏	-11.5083
切作片	-11.5084
陶宏景曰	-11.5084
芘	-11.5084
溶溶	-11.5084
蠶飢	-11.5084
梁元帝纂要	-11.5084
劉攽	-11.5084
亢	-11.5084
渙	-11.5084
璋	-11.5085
桷	-11.5085
儷	-11.5085
醲	-11.5085
奄	-11.5085
个	-11.5085
搥	-11.5085
為害	-11.5085
槍旗	-11.5085
突兀	-11.5085
顫	-11.5085
剏	-11.5085
變白	-11.5085
粽	-11.5086
祛	-11.5086
斃	-11.5086
褊	-11.5086
搭	-11.5086
幌	-11.5087
綢繆	-11.5087
帔	-11.5087
段成式	-11.5088
博山爐	-11.5088
訊	-11.5088
稭	-11.5088
蕭森	-11.5088
芙蓉花	-11.5088
寥寥	-11.5088
明髙啓	-11.5088
滿腹	-11.5088
陶泓	-11.5088
㗖	-11.5088
沙中	-11.5088
周禮地官	-11.5088
重湯煮	-11.5088
驂	-11.5089
慈竹	-11.5089
忭	-11.5089
冬春	-11.5089
罇	-11.509
卸	-11.509
馭	-11.509
妆	-11.509
棕	-11.509
戚里	-11.509
鵝毛	-11.509
三栁軒雜識	-11.509
曼	-11.509
唐王勃	-11.5091
工部	-11.5091
祓	-11.5091
寰宇記	-11.5091
醑	-11.5091
四川志	-11.5091
怎	-11.5091
球	-11.5091
韓駒	-11.5091
癧	-11.5091
墅	-11.5091
孩	-11.5091
蟲食	-11.5092
日精	-11.5092
牡荆	-11.5092
𦙍	-11.5092
鸜鵒	-11.5092
梅聖俞	-11.5092
蹈	-11.5092
誥	-11.5092
鞏	-11.5092
名同物異	-11.5093
瘞	-11.5093
轡	-11.5093
腑	-11.5093
㩦	-11.5094
閬苑	-11.5094
婚	-11.5094
譲	-11.5094
姊	-11.5094
辟榖	-11.5094
淇園	-11.5094
孝經援神契	-11.5094
咫尺	-11.5094
王世貞	-11.5095
短籬	-11.5095
錢録卷	-11.5095
炊飯	-11.5095
砍	-11.5095
撓	-11.5095
國史補	-11.5096
肴	-11.5096
弆	-11.5096
鷰	-11.5097
建康	-11.5097
另硏	-11.5097
薫陸	-11.5097
懋勤殿	-11.5097
兜	-11.5097
鑱	-11.5097
逗	-11.5098
彤管	-11.5098
韶腦	-11.5098
盈掬	-11.5099
麝臍	-11.5099
諌	-11.5099
宋徐鉉	-11.5099
濆	-11.51
奚庭珪	-11.51
醴泉	-11.51
鯁	-11.51
迭	-11.51
魚鱗	-11.5101
料理	-11.5101
頓覺	-11.5101
賫	-11.5102
幾番	-11.5102
不惟	-11.5102
櫺	-11.5102
詹	-11.5102
嚮	-11.5103
區區	-11.5103
饕	-11.5103
雕刻	-11.5103
挟	-11.5104
靖節	-11.5104
纓絡	-11.5104
水盡	-11.5105
封殖	-11.5105
牛糞	-11.5105
蕭艾	-11.5106
初秋	-11.5106
瓊液	-11.5106
莫訝	-11.5107
笑靨	-11.5108
楓亭	-11.5108
海藥本草	-11.5108
鏁	-11.5109
夾岸	-11.5109
昌黎	-11.5109
瓶史	-11.511
顙	-11.5111
春思	-11.5111
禎祥	-11.5111
秘閣	-11.5112
瑤池	-11.5112
昇平	-11.5112
舞袖	-11.5112
㕔事	-11.5113
鱅	-11.5114
甲申	-11.5115
嵌空	-11.5115
新篁	-11.5115
武昌	-11.5115
初無	-11.5115
穹起	-11.5115
滋茂	-11.5116
旋旋	-11.5117
翦裁	-11.5117
京口	-11.5118
芡實	-11.5119
頃刻	-11.5119
詩并序	-11.512
切忌	-11.512
坐中	-11.5121
曰卿	-11.5121
前漢書	-11.5122
兩般	-11.5122
夜話	-11.5122
年七十	-11.5122
春遊	-11.5123
鱷	-11.5124
浙東	-11.5124
岕茶	-11.5125
肌理	-11.5125
虞美人草	-11.5125
微紫	-11.5125
二十七	-11.5126
乗熱	-11.5127
日一澆	-11.5128
階庭	-11.5128
未解	-11.5128
泉清	-11.5128
羊蹄	-11.5129
嘉卉	-11.5129
臨軒	-11.513
隂雨	-11.5131
二百里	-11.5131
呼兒	-11.5131
良辰	-11.5131
河泥	-11.5132
隴頭	-11.5135
牛乳	-11.5136
燥濕	-11.5136
如鏡	-11.5136
彭蜞	-11.5136
轉蓬	-11.5137
穠李	-11.5138
氷盤	-11.5139
以灰	-11.5141
百和香	-11.5142
淑氣	-11.5142
南渡	-11.5143
㕔前	-11.5143
而愈	-11.5145
中藏	-11.5146
皆似	-11.5146
長嘯	-11.5147
弄影	-11.5147
曉妝	-11.5148
聖人之	-11.5148
温室	-11.5148
集賢	-11.5148
清濁	-11.5148
髙一尺	-11.515
滴露	-11.5151
江漢	-11.5151
落梅	-11.5151
二月初	-11.5152
買花	-11.5152
瓶口	-11.5153
除熱	-11.5155
葉庭珪云	-11.5155
西域傳	-11.5155
七種	-11.5156
髙數丈	-11.5156
修貢	-11.5157
脂粉	-11.5157
苦辛	-11.5158
合浦	-11.5159
忽憶	-11.516
飛上	-11.516
黑豆	-11.516
佳期	-11.5161
不枯	-11.5161
男子	-11.5161
四鄰	-11.5162
好是	-11.5163
玉簮	-11.5163
相類但	-11.5164
根柢	-11.5165
靈龜	-11.5166
桐油	-11.5166
古檜	-11.5166
誰把	-11.5167
長四五寸	-11.5167
湯調	-11.5168
有無	-11.5169
澄泥硯	-11.5171
城北	-11.5171
數千里	-11.5175
而又	-11.5175
豆粉	-11.5176
嘉魚	-11.5178
醉倒	-11.5179
長寸許	-11.518
綠苔	-11.5181
封之	-11.5182
春暖	-11.5182
莫辭	-11.5183
慶厯中	-11.5183
髙標	-11.5184
司空	-11.5185
仙經	-11.5185
直榦	-11.5188
年芳	-11.5189
最髙	-11.519
能令	-11.519
細腰	-11.5191
左方鐫	-11.5191
川椒	-11.5191
封題	-11.5194
八角	-11.52
開頭	-11.52
碧樹	-11.5201
味甘酸	-11.5201
質理	-11.5201
長尺許	-11.5201
孝宗	-11.5202
河西	-11.5202
諸蟲	-11.5203
復以	-11.5203
麗春	-11.5203
從教	-11.5204
祥雲	-11.5206
研末	-11.5207
近代	-11.5207
淮海	-11.5208
者每	-11.5209
多寡	-11.5209
草色	-11.5209
浙江	-11.521
目之為	-11.521
法師	-11.5211
流膏	-11.5211
集中	-11.5212
舞衣	-11.5213
今人謂之	-11.5214
行處	-11.5215
竟日	-11.5216
用大	-11.5217
至京師	-11.5217
散血	-11.5219
國獻	-11.5219
蘇合	-11.5219
飛瓊	-11.522
性喜	-11.522
仙姿	-11.5221
移得	-11.5221
徃來	-11.5221
西河	-11.5222
甚繁	-11.5223
作茶	-11.5224
五味子	-11.5224
好古	-11.5225
半含	-11.5226
伯華	-11.5227
有紋	-11.5231
江都	-11.5232
根名	-11.5232
感通	-11.5234
前代	-11.5234
山中有	-11.5234
尤盛	-11.5237
郡國	-11.5238
五千	-11.5239
乃生	-11.5239
妻子	-11.524
有言	-11.5241
耐乆	-11.5241
諸物	-11.5243
香名	-11.5244
父子	-11.5244
碧鮮	-11.5245
青紫色	-11.5245
彩雲	-11.5246
無色	-11.5253
瓠子	-11.5255
曲池	-11.5255
一器	-11.5257
至尊	-11.5257
州府	-11.5259
竹杖	-11.5259
雜著	-11.526
還同	-11.526
紅豆	-11.5261
青桐	-11.5261
洛下	-11.5263
有草名	-11.5263
散亂	-11.5264
青黄色	-11.5264
之器	-11.5266
再熟	-11.5268
風爐	-11.5268
徐州	-11.5271
銀臺	-11.5272
舊物	-11.5272
質堅	-11.5276
著於	-11.5276
首夏	-11.5276
中丞	-11.5276
三百年	-11.5276
也或曰	-11.5277
真賞	-11.5278
繁隂	-11.5281
開元中	-11.5283
端正	-11.5286
小椒	-11.5289
桐君	-11.5291
桂陽	-11.5295
賜茶	-11.5295
風濤	-11.5296
佳句	-11.5298
生石上	-11.5298
大棗	-11.53
天降	-11.5301
詩序	-11.5302
堂中	-11.5302
山翁	-11.5303
幽居	-11.5304
瓊瑶	-11.5304
夜合花	-11.5306
太古	-11.5307
栽竹	-11.531
無意	-11.5312
所好	-11.5313
諸果	-11.5314
流光	-11.5315
清淨	-11.5315
水脉	-11.5316
殘花	-11.5317
太常	-11.5318
白酒	-11.5319
火焙	-11.5321
時物	-11.5322
山西	-11.5323
清供	-11.5324
時聞	-11.5328
農書	-11.5328
飄飄	-11.5328
莖葉皆	-11.5328
玉皇	-11.5329
露重	-11.533
有剥蝕	-11.5331
若教	-11.5334
進御	-11.5336
客曰	-11.534
長成	-11.5341
近根	-11.5345
而可	-11.5346
葉青而	-11.5348
分栽	-11.5349
題字	-11.5351
薦酒	-11.5355
淡月	-11.5355
猶勝	-11.5357
精好	-11.5357
應笑	-11.5357
實有	-11.5358
妖紅	-11.536
光照	-11.5361
衙香	-11.5361
鳥銜	-11.5364
輕烟	-11.5365
之化	-11.5368
萬縷	-11.537
折盡	-11.5372
魚身	-11.5373
亦異	-11.5374
法製	-11.5379
花叢	-11.5381
入夢	-11.5383
墨林	-11.5383
自昔	-11.5385
不稱	-11.5386
一度	-11.5386
玉篇	-11.5388
忽聞	-11.539
只今	-11.539
骨髓	-11.5393
則茂	-11.5393
孤竹	-11.5395
平安	-11.5399
翠莖	-11.5401
楚山	-11.5402
八稜	-11.5403
海紅	-11.5404
月底	-11.5404
所獻	-11.5407
採花	-11.5409
相忘	-11.5409
金井	-11.5409
還思	-11.541
即死	-11.5411
長史	-11.5413
興化	-11.5413
傷心	-11.5415
茶也	-11.5417
壅培	-11.5417
不將	-11.5423
折二	-11.5425
我則	-11.5426
者耶	-11.5426
麥熟	-11.543
生肌	-11.543
亦不甚	-11.5433
如線	-11.5433
掌中	-11.5434
亦堪	-11.5436
小橋	-11.5436
相雜	-11.5437
真者	-11.5437
甘脆	-11.5437
豈其	-11.5442
日新	-11.5444
呉越	-11.5446
髙情	-11.5451
朝元	-11.5452
幾樹	-11.5456
殊方	-11.5456
半面	-11.5456
天晴	-11.5457
染成	-11.5458
晉安	-11.5461
老樹	-11.5462
一物也	-11.5463
年來	-11.5465
無䨇	-11.5471
清賞	-11.5472
早晚	-11.5474
玉潤	-11.5477
制作	-11.5478
外皮	-11.5478
輕輕	-11.5479
裛露	-11.548
留與	-11.548
七十二	-11.5483
今來	-11.5485
細柳	-11.5485
草草	-11.5486
恨無	-11.5489
國傳	-11.549
至夏	-11.549
賣花	-11.5491
逺甚	-11.5491
神龍	-11.5495
古硯	-11.5495
黄蕊	-11.5495
木芍藥	-11.5496
所重	-11.55
應節	-11.5501
香白芷	-11.5502
還將	-11.5504
之祥	-11.5508
何許	-11.5514
黄泥	-11.5516
九月中	-11.5517
細小	-11.5517
雲間	-11.5518
池水	-11.5518
春山	-11.5522
其首	-11.5523
雖復	-11.5528
棗肉	-11.553
日注	-11.5533
色深紅	-11.5534
東門	-11.5535
不可多食	-11.5539
又能	-11.5539
下嵓	-11.5541
一池	-11.5542
向晩	-11.5542
重門	-11.5542
分甘	-11.5544
照夜	-11.5545
朝朝	-11.5546
下岩	-11.5546
生南方	-11.5547
質之	-11.5552
𥙷中益氣	-11.5553
既開	-11.5553
次以	-11.5558
前胡	-11.5561
斯文	-11.5563
珠子	-11.5563
無私	-11.5567
之曰此	-11.5567
食之味	-11.5567
露洗	-11.5568
水紋	-11.5569
乃命	-11.5569
檀香一兩	-11.557
爾雅曰	-11.5579
沙地	-11.5582
食令人	-11.5582
傲霜	-11.5582
大者為	-11.5583
根鬚	-11.5588
人之所	-11.5589
不透	-11.5591
楚江	-11.5592
漢初	-11.5593
摘下	-11.5595
數重	-11.5597
之類也	-11.5598
南方有	-11.5599
忌食	-11.56
後山	-11.5601
如棗	-11.5604
竒品	-11.5606
者誰	-11.5606
尚餘	-11.5607
折取	-11.5607
齊名	-11.5612
逺望	-11.5613
所著	-11.5616
青條	-11.562
江賦	-11.5626
苗似	-11.563
外方	-11.5633
野花	-11.5634
只在	-11.5639
移竹	-11.5644
皆不及	-11.5647
此語	-11.5648
髙陽	-11.5649
凡用	-11.5649
澆水	-11.5651
豈有	-11.5653
千㸃	-11.5653
聞而	-11.5655
故號	-11.5658
但恨	-11.566
極佳	-11.5662
待得	-11.5666
相接	-11.5666
之耳	-11.5667
飛入	-11.567
柏子	-11.5673
夫其	-11.5673
旭	-11.5675
開處	-11.5675
此外	-11.568
也又云	-11.5684
扁而	-11.5684
藥譜	-11.5686
各色	-11.5686
為飲	-11.5688
取肉	-11.569
一兩二錢	-11.5691
上巖	-11.5691
亦嘗	-11.5693
飛霜	-11.5698
語云	-11.5699
亦生	-11.57
長興	-11.5701
同煮	-11.5701
朝雲	-11.5702
一身	-11.5705
楊柳枝	-11.5708
失時	-11.571
藉以	-11.5711
再以	-11.5712
此義	-11.5713
越中	-11.5715
風物	-11.5718
即古	-11.5721
風輕	-11.5726
正似	-11.5728
生平	-11.5729
小詩	-11.573
憚	-11.573
香山	-11.5732
死者	-11.5733
霜根	-11.5737
魚目	-11.5739
古香	-11.5742
吾地	-11.5745
性冷	-11.5747
淡妝	-11.5747
能發	-11.5751
未老	-11.5752
塗之	-11.5753
鳥曰	-11.5754
日落	-11.5755
本經	-11.5758
之質	-11.576
不擇	-11.5761
枝低	-11.5763
矣因	-11.5764
異耳	-11.5764
舊坑	-11.5765
四十里	-11.5765
之淵	-11.5765
數萬	-11.5769
有八	-11.5771
半天	-11.5773
罍	-11.5775
亦不能	-11.578
焉故	-11.578
仙方	-11.5781
過半	-11.5783
黄庭	-11.5784
珠翠	-11.5786
醋浸	-11.5787
無乃	-11.5787
吟詩	-11.5789
十有二	-11.5791
臨時	-11.5791
崑	-11.5793
十斛	-11.5793
逺矣	-11.5796
味甘平無毒主	-11.5797
嘗試	-11.5798
泠	-11.5798
汁浸	-11.58
一水	-11.5805
而彌	-11.5806
宋坑	-11.5808
靈異	-11.5809
老根	-11.5813
多是	-11.5817
眼明	-11.582
養心	-11.582
風痺	-11.582
大庾	-11.582
槲	-11.5823
宜陽	-11.5823
州縣	-11.5825
茫	-11.5825
芃芃	-11.5826
故應	-11.5826
温無毒主	-11.5826
芣	-11.5827
藜蘆	-11.5827
芝蔴	-11.583
琯	-11.5831
蕎	-11.5832
即事	-11.5832
食荔支	-11.5833
日三服	-11.5834
身上	-11.5835
菡萏	-11.5835
獅	-11.5835
犢	-11.5836
無遺	-11.5836
鎭	-11.5837
張新	-11.5837
餞	-11.5837
䰟	-11.5838
瓞	-11.5839
司空曙	-11.5839
鹵	-11.584
元袁桷	-11.5841
陛	-11.5841
旻	-11.5841
刓	-11.5841
荈	-11.5842
貓	-11.5842
昉	-11.5843
自愛	-11.5843
漣	-11.5843
髠	-11.5843
煞	-11.5843
沽	-11.5844
蒭	-11.5844
癯	-11.5844
錬	-11.5845
蔭	-11.5845
四明	-11.5846
冄	-11.5846
臞	-11.5846
益母	-11.5846
蛩	-11.5846
鶗鴂	-11.5847
攙	-11.5847
倪	-11.5847
㢤	-11.5847
蝗	-11.5847
峴	-11.5847
晡	-11.5847
珥	-11.5848
棫	-11.5848
砑	-11.5848
芭	-11.5848
露濃	-11.5848
癬	-11.5848
宼宗奭曰	-11.5848
所在有之	-11.5849
瀕	-11.5849
斕斑	-11.5849
宼	-11.5849
楊巽齋	-11.5849
宋林逋	-11.585
郭祥正	-11.585
也李時珍曰	-11.585
宋楊億	-11.585
岑參	-11.585
迂	-11.585
褰	-11.5851
澹蕩	-11.5851
攄	-11.5852
覧	-11.5852
逶迤	-11.5852
軼	-11.5852
羊肚	-11.5852
榔	-11.5852
蛻	-11.5852
墨客揮犀	-11.5853
楨	-11.5853
念奴嬌	-11.5853
姊妹	-11.5853
剜	-11.5853
煒	-11.5853
辜	-11.5853
潺湲	-11.5853
磴	-11.5854
洞仙歌	-11.5854
鑰	-11.5854
斁	-11.5854
熒熒	-11.5854
嫵媚	-11.5854
牛蒡	-11.5854
蝟	-11.5854
樹頭	-11.5854
壺盧	-11.5854
涓涓	-11.5854
賸	-11.5854
瓔	-11.5854
瀘戎	-11.5855
枯槁	-11.5855
仞	-11.5855
祿	-11.5855
照灼	-11.5855
雨航雜録	-11.5855
讚	-11.5855
薙	-11.5856
驥	-11.5856
虐	-11.5856
㽞	-11.5856
閬	-11.5856
篚	-11.5856
番禺	-11.5857
誘	-11.5857
揣	-11.5857
乾隆四十六年	-11.5857
北户録	-11.5857
濓	-11.5857
涘	-11.5857
埓	-11.5857
密雲龍	-11.5858
屹	-11.5858
悠揚	-11.5858
嶧陽	-11.5858
這	-11.5858
鉗	-11.5859
湫	-11.5859
于敏中	-11.5859
延佇	-11.5859
暎	-11.5859
菘菜	-11.5859
濠	-11.5859
菩提	-11.5859
斾	-11.5859
琦	-11.586
瀆	-11.586
絺	-11.5861
清癯	-11.5861
石蜜	-11.5861
户牖	-11.5861
胷	-11.5861
无咎	-11.5861
呪	-11.5861
邵堯	-11.5862
襦	-11.5862
曾鞏	-11.5862
琰	-11.5862
菑	-11.5863
髙一二尺	-11.5863
虎掌	-11.5863
連翹	-11.5863
吾儕	-11.5863
媛	-11.5863
仭	-11.5863
巧匠	-11.5864
駱	-11.5864
穫稻	-11.5864
二字篆書	-11.5864
瞿麥	-11.5864
龕	-11.5865
栝樓	-11.5865
勑	-11.5865
飛過	-11.5865
胄	-11.5865
俠	-11.5865
驛騎	-11.5866
耽	-11.5866
北客	-11.5866
俯仰	-11.5866
七品三命	-11.5866
哺	-11.5866
荃	-11.5866
言古詩	-11.5866
蝙蝠	-11.5866
史月表	-11.5866
採擷	-11.5866
二字𨽻書	-11.5866
湍	-11.5866
黄蘗	-11.5867
毛滂	-11.5867
烰炭	-11.5867
遇風	-11.5867
幙	-11.5867
宋晏殊	-11.5868
叨	-11.5868
漙	-11.5868
湔	-11.5868
参差	-11.5868
螘	-11.5868
賀新郎	-11.5869
鄭域	-11.5869
浴罷	-11.5869
豆粥	-11.5869
偈	-11.587
觕	-11.587
豢	-11.587
篘	-11.587
貞觀	-11.5871
鰕	-11.5871
松節	-11.5872
贏得	-11.5872
風急	-11.5872
火氣	-11.5872
茗椀	-11.5872
齒頰	-11.5872
右先將	-11.5872
畱	-11.5873
熈寧	-11.5873
婆律	-11.5873
吴融	-11.5873
鉛粉	-11.5873
漸長	-11.5873
漁舟	-11.5873
馬牙硝	-11.5873
微凹	-11.5874
生平澤	-11.5875
楞嚴經	-11.5875
南粤	-11.5875
右細末	-11.5876
䱜	-11.5876
封禪	-11.5877
廬陵	-11.5877
二味	-11.5877
犀角	-11.5877
之制	-11.5877
歴歴	-11.5877
長一二尺	-11.5878
承恩	-11.5878
歐公	-11.5878
疎枝	-11.5878
馬肝	-11.5879
薛濤	-11.5879
刀斧	-11.5879
葛陂	-11.5879
衰翁	-11.5879
百菊集譜	-11.5879
馬鞭	-11.588
鯢	-11.588
虚勞	-11.5882
鰐	-11.5882
淡泊	-11.5882
滴滴金	-11.5882
一百二十	-11.5882
柔脆	-11.5883
延蔓	-11.5884
銅瓶	-11.5886
籬落間	-11.5886
有遺	-11.5887
戎葵	-11.5887
扵此	-11.5888
紅蕖	-11.5889
玉版	-11.589
薑桂	-11.589
去滓	-11.5891
滇南	-11.5892
則止	-11.5894
以避	-11.5896
刺桐花	-11.5896
𤣥圃	-11.5896
錦屏	-11.5897
燦然	-11.5897
仲宣	-11.5897
製甲香	-11.5898
王莽	-11.5898
啼鳥	-11.5898
其理	-11.5899
少頃	-11.5899
輔國	-11.59
牛舌	-11.5901
赤鯉	-11.5904
丹荔	-11.5904
數百里	-11.5904
從風	-11.5905
錦帳	-11.5905
任用	-11.5906
芳馥	-11.5907
長二三尺	-11.5907
東平	-11.5907
城郭	-11.5908
穠華	-11.5908
天下無	-11.5909
椒房	-11.5911
五品	-11.5911
逸少	-11.5911
西鄰	-11.5911
既無	-11.5912
江干	-11.5913
景福	-11.5913
建武	-11.5913
築實	-11.5913
有毒治	-11.5913
歸田	-11.5914
黒黍	-11.5914
睡足	-11.5915
雞鳴	-11.5919
馢香	-11.5919
團圓	-11.592
桃核	-11.5921
塗身	-11.5921
安排	-11.5922
右為末入	-11.5924
和以	-11.5924
九里	-11.5925
十二兩	-11.5926
斫雪	-11.5927
信然	-11.5928
此言	-11.5928
梁武帝	-11.5929
真臘國	-11.593
各三兩	-11.593
勁直	-11.5932
三百里	-11.5932
枯死	-11.5932
遐方	-11.5933
不齊	-11.5933
居山	-11.5935
白附子	-11.5936
荆溪	-11.5936
盛暑	-11.5936
四座	-11.5937
費盡	-11.5937
凌空	-11.5938
麥飯	-11.5939
海鏡	-11.5941
潭州	-11.5945
何遜	-11.5945
同煎	-11.5945
竒葩	-11.5947
栁條	-11.5948
西東	-11.5948
九月熟	-11.5949
不壞	-11.5949
漢宮	-11.595
意態	-11.5951
叢中	-11.5952
弱柳	-11.5953
欣欣	-11.5955
千片	-11.5956
依法	-11.5956
滚湯	-11.5957
地力	-11.5958
補遺	-11.5958
兮若	-11.5958
旱蓮	-11.5959
薄片	-11.5959
嗜茶	-11.5961
爾雅翼云	-11.5962
荆南	-11.5962
獨醒	-11.5962
柔軟	-11.5964
吉州	-11.5965
靈夀	-11.5966
歸路	-11.5967
核桃	-11.5968
楓木	-11.5969
海内	-11.5969
艶艶	-11.597
萬家	-11.597
白歛	-11.5976
無花實	-11.5979
池臺	-11.5979
降火	-11.598
昔者	-11.5982
燈火	-11.5985
娑羅樹	-11.5986
楊氏	-11.5986
閣前	-11.599
累日	-11.5992
匣盖並鐫是詩𨽻書鈐寳	-11.5992
伴我	-11.5996
一陣	-11.5996
百歲	-11.5996
采蓮	-11.5998
扶老	-11.5999
故又名	-11.5999
樹杪	-11.5999
武林	-11.5999
江村	-11.5999
身如	-11.6001
梁園	-11.6002
可餐	-11.6003
尤精	-11.6003
此類	-11.6007
兩岐	-11.6007
左方	-11.6007
花月令	-11.6008
甘瓜	-11.6008
向東風	-11.6009
窓外	-11.601
仙芝	-11.601
尤勝	-11.6011
從他	-11.6011
争先	-11.6012
抱節	-11.6012
獨歩	-11.6012
中嵓	-11.6013
黄雀	-11.6014
春氣	-11.6014
玉粒	-11.6017
月裏	-11.6017
俗云	-11.6017
瑞應	-11.6022
六七寸	-11.6024
精妙	-11.6026
先主	-11.6026
臨流	-11.6026
化成	-11.6027
莫愁	-11.6028
十顆	-11.6028
甚良	-11.6029
一洗	-11.603
今春	-11.6031
蘆根	-11.6031
晩風	-11.6031
特異	-11.6032
露凝	-11.6032
紙裹	-11.6033
一盤	-11.6035
龍吟	-11.6036
除夜	-11.6037
篆文	-11.6037
不减	-11.6038
因以名	-11.6041
緑楊	-11.6045
竹筒	-11.6046
未嘗有	-11.6046
水岩	-11.6047
一邊	-11.6048
充貢	-11.6051
滄海	-11.6051
庭槐	-11.6052
常恐	-11.6053
望見	-11.6054
相反	-11.6055
三十兩	-11.6056
王肅	-11.6057
炎天	-11.6057
書禹貢	-11.6059
苦節	-11.606
直到	-11.6062
試墨	-11.6064
燈草	-11.6064
莫笑	-11.6065
曉来	-11.6065
赤黄	-11.6066
最良	-11.6068
研墨	-11.6068
扣之	-11.6072
以銀	-11.6074
瘡腫	-11.608
北窓	-11.6081
青蓮	-11.6083
妙手	-11.6083
猶疑	-11.6083
清光	-11.6083
咽喉	-11.6085
珍味	-11.6086
黄山谷	-11.6087
魚膠	-11.6088
舟行	-11.6088
今夜	-11.6089
山麓	-11.6089
景陽	-11.609
葉尖長	-11.6091
蔓草	-11.6092
盆池	-11.6094
綠珠	-11.6094
候乾	-11.6095
搗汁	-11.6097
相承	-11.6098
根苖	-11.61
煑食	-11.6101
心期	-11.6105
葱白	-11.6107
長至	-11.6108
陳留	-11.6109
八足	-11.6109
石鼎	-11.6109
多福	-11.6113
小徑	-11.6116
八錢	-11.6116
嵗久	-11.6118
全勝	-11.6119
刺桐	-11.6119
風波	-11.6121
小舟	-11.6122
士女	-11.6124
三弄	-11.6127
小圃	-11.6127
二十斤	-11.6127
成團	-11.6128
小者名	-11.6133
博山	-11.6134
尋花	-11.6135
前村	-11.6135
論茶	-11.6136
以爲	-11.6137
馬蘭	-11.6138
而未嘗	-11.614
探春	-11.6143
四照	-11.6145
雲臺	-11.6147
客心	-11.6147
開以九月末	-11.6148
老眼	-11.6148
薑汁	-11.6148
接頭	-11.6148
硯池	-11.6149
匠者	-11.6153
紅鹽	-11.6156
好竒	-11.6158
此事	-11.6159
爛若	-11.6163
微帶	-11.6165
井中	-11.6165
無憂	-11.6167
幾枝	-11.617
滿盤	-11.6174
山色	-11.6176
粉墻	-11.6181
縣民	-11.6182
小人	-11.6182
嗜好	-11.6182
之材	-11.6182
新開	-11.6184
食桃	-11.6184
嘉瑞	-11.6186
恐是	-11.6186
獨坐	-11.6186
文士	-11.6187
染衣	-11.619
墨梅	-11.6191
種柳	-11.6194
幽林	-11.6194
橘樹	-11.62
薑黄	-11.6201
九天	-11.6202
就地	-11.6202
宿雨	-11.6202
若是	-11.6204
越人	-11.6204
麻一名	-11.6204
春蠶	-11.6205
晚風	-11.6205
山頂	-11.6205
清波	-11.6206
正赤	-11.6207
一旗	-11.6208
維摩	-11.6209
風姿	-11.621
所賜	-11.6211
予謂	-11.6211
翦去	-11.6212
若虚	-11.6219
一庭	-11.6219
附枝	-11.6221
大畧	-11.6223
相從	-11.6226
他山	-11.6227
百種	-11.6227
可收	-11.6229
傳神	-11.6229
探梅	-11.6229
少陽	-11.623
灰汁	-11.6232
取象	-11.6232
錢買	-11.6232
終然	-11.6233
集有	-11.6237
微微	-11.624
影亂	-11.624
味苦平無毒	-11.624
一縷	-11.6241
以彰	-11.6242
似雪	-11.6243
相次	-11.6249
可考	-11.6251
百八十	-11.6252
未信	-11.6258
金桃	-11.6259
欲語	-11.626
是月	-11.626
賞菊	-11.626
夕照	-11.6264
土人取	-11.6265
孫氏	-11.6266
二觔	-11.627
墨者	-11.6273
假山	-11.6274
前朝	-11.6276
上寛	-11.6278
起舞	-11.6279
未落	-11.628
嘉之	-11.6282
者去之	-11.6282
筆頭	-11.6284
豈以	-11.6286
當門	-11.6286
王粲	-11.6293
各半	-11.6294
未嘗見	-11.6295
以黄	-11.6298
靈和	-11.6298
削去	-11.6299
口中	-11.63
種桃	-11.6302
兩足	-11.6302
初冬	-11.6305
白金	-11.6312
舊聞	-11.6313
湖中	-11.6316
右側	-11.6319
乾濕	-11.6321
疎花	-11.6327
春榮	-11.6331
大者名	-11.6333
日髙	-11.6333
毛詩	-11.6337
雌者	-11.6337
露井	-11.6338
野梅	-11.6338
不觧	-11.6339
國初	-11.634
自序	-11.6344
折花	-11.6344
向背	-11.6347
蟲魚	-11.6348
桃葉	-11.6351
而薄	-11.6354
止煩	-11.6355
乆則	-11.6356
嘉客	-11.6356
小雨	-11.6362
芋魁	-11.6364
莫及	-11.6366
采茶	-11.6367
幾許	-11.6369
也哉	-11.6369
来春	-11.637
舉世	-11.6371
器内	-11.6372
芳根	-11.6373
滿身	-11.6376
金帶	-11.6376
赤心	-11.6377
石刻	-11.6378
著水	-11.6378
日正	-11.6379
半字	-11.6379
木末	-11.6385
登山	-11.6385
遲則	-11.6386
古来	-11.6388
不窮	-11.6389
初破	-11.639
呉人	-11.6392
華夷	-11.6397
青楓	-11.6399
最下	-11.6403
不及也	-11.6404
浮光	-11.6405
嵓石	-11.6407
左側	-11.6407
泣露	-11.6413
喜見	-11.6413
惟應	-11.6414
句云	-11.6415
端硯	-11.6415
凡墨	-11.642
酒煮	-11.642
成王	-11.6421
故知	-11.6425
風力	-11.6426
大熟	-11.6433
異時	-11.6435
效之	-11.6436
薰草	-11.6436
徙倚	-11.644
今處處有之	-11.6444
㡬時	-11.6445
骨蒸	-11.6446
余謂	-11.6449
殿後	-11.6451
滑石	-11.6452
逢人	-11.6454
見珍	-11.6457
大松	-11.6461
萬枝	-11.6465
密封	-11.6466
影入	-11.6469
羅浮山	-11.6478
隠隠	-11.6479
赤松	-11.6482
鳥也	-11.6484
何知	-11.6484
一團	-11.6485
艶色	-11.6487
撮	-11.6495
降香	-11.6501
開門	-11.6501
者以為	-11.6504
同調	-11.6512
魏王	-11.6514
正當	-11.6517
元帝	-11.6522
古方	-11.6524
百和	-11.6526
大士	-11.6526
淺淺	-11.6527
木理	-11.6535
存焉	-11.6538
葉綠而	-11.654
天人	-11.654
梅妝	-11.654
忽已	-11.6545
吉祥	-11.6545
射之	-11.6549
榆葉	-11.6549
南都	-11.6554
未發	-11.6554
於兹	-11.6557
玉龍	-11.6558
古法	-11.6558
篤耨香	-11.6559
花如雪	-11.6561
其尾	-11.6568
幾多	-11.6572
香苞	-11.6575
皆産	-11.6576
他時	-11.658
移向	-11.6584
南溪	-11.6585
珍竒	-11.6585
三里	-11.659
八仙	-11.659
令公	-11.659
異色	-11.6592
正好	-11.6593
而脆	-11.6594
多謝	-11.6594
隰	-11.6595
澗中	-11.6599
勝畫	-11.6602
移入	-11.6607
炷香	-11.6608
而况	-11.6609
見聞	-11.6611
之孫	-11.6618
清異	-11.6625
萬狀	-11.6626
水田	-11.6627
三山	-11.6627
魏武帝	-11.6633
大食國	-11.6634
照人	-11.6635
以防	-11.6636
搔頭	-11.6637
慶厯	-11.6639
瞳	-11.6639
空腹食之	-11.6641
平泉	-11.6642
失之	-11.6643
夜凉	-11.6644
香葉庭珪云	-11.6644
喂	-11.6651
徐鉉	-11.6654
衡州	-11.6655
菼	-11.6658
金字	-11.6658
擀	-11.6659
山有草焉	-11.666
葍	-11.666
菓	-11.6662
璣	-11.6662
元好問	-11.6663
鷄頭粉	-11.6663
葳	-11.6663
鬼臼	-11.6663
高者	-11.6665
彤	-11.6667
汶	-11.6667
麁	-11.6667
插秧	-11.6668
穤	-11.6668
青樓	-11.6668
真誥	-11.6669
真是	-11.667
瑇瑁	-11.6671
陌上桑	-11.6671
軾	-11.6671
磯	-11.6672
縉	-11.6674
工巧	-11.6675
畿	-11.6675
羇	-11.6675
掉	-11.6676
磊砢	-11.6676
謝靈運	-11.6676
諾	-11.6676
芺	-11.6677
癥瘕	-11.6677
勰	-11.6677
騖	-11.6677
謡	-11.6677
檝	-11.6678
偎	-11.6678
佃	-11.6678
唐書南蠻傳	-11.6678
撿	-11.6678
扃	-11.6678
駟	-11.6678
澣	-11.6678
而斗建	-11.6679
煤一斤	-11.668
庾肩吾	-11.668
漁者	-11.668
汞	-11.668
波斯國	-11.6681
東觀漢記	-11.6681
瘳	-11.6682
為下時	-11.6682
睡魔	-11.6682
渗	-11.6682
金髙士談	-11.6682
顥	-11.6683
䜴	-11.6683
米元章	-11.6683
味甘無毒主	-11.6683
蕳	-11.6683
蹶	-11.6683
颯颯	-11.6683
鸂鶒	-11.6684
漠	-11.6684
宋劉敞	-11.6684
掀	-11.6684
蔽芾	-11.6684
郷	-11.6684
孔平仲	-11.6684
窩	-11.6684
綜	-11.6684
酋	-11.6685
㦯	-11.6685
之辰也	-11.6685
拌和令勻	-11.6685
崗	-11.6685
鄰里	-11.6686
鵷	-11.6686
宋文同	-11.6686
廽	-11.6686
鄭康成	-11.6686
吁	-11.6686
廓	-11.6686
控	-11.6686
啗	-11.6686
賭	-11.6686
蠔	-11.6686
雲林	-11.6687
珉	-11.6687
滸	-11.6687
灝	-11.6687
蒼髯	-11.6687
泳	-11.6687
枰	-11.6688
商陸	-11.6688
幔	-11.6688
大驚	-11.6688
靛	-11.6688
羅鄴	-11.6688
勾萌	-11.6689
汨	-11.6689
嫰	-11.6689
凈	-11.6689
珎	-11.6689
蔥蒨	-11.6689
筆記	-11.6689
繹	-11.6689
右為末煉蜜	-11.6689
木皮	-11.6689
轍	-11.6689
汜勝之書	-11.6689
唐錢起	-11.6689
廂	-11.6689
籙	-11.6689
侃	-11.6689
兎毫	-11.669
吉凶	-11.669
師古曰	-11.669
鷗鷺	-11.669
燿	-11.669
沍	-11.669
輟耕	-11.669
陸樹聲	-11.669
鬰	-11.669
醯	-11.6691
廨	-11.6691
瘴癘	-11.6691
齅	-11.6691
𣙜	-11.6691
蒼筤	-11.6691
青城山	-11.6691
瞰	-11.6691
應劭	-11.6691
鯶	-11.6691
繚繞	-11.6692
剌	-11.6692
妹	-11.6692
俄頃	-11.6692
天寳遺事	-11.6692
礦	-11.6693
亰	-11.6693
故有諸名	-11.6693
吹簫	-11.6693
李德裕	-11.6694
宋澄泥製	-11.6694
張栻	-11.6694
愴	-11.6694
花客卿	-11.6694
蓬瀛	-11.6694
斑斕	-11.6694
凰	-11.6695
釐	-11.6695
篲	-11.6695
卬	-11.6695
玉壘	-11.6695
欲求	-11.6695
螖	-11.6695
灔	-11.6696
筥	-11.6696
匱	-11.6696
百藥煎	-11.6696
譯	-11.6696
歆	-11.6696
簾幕	-11.6696
賞皇十	-11.6696
𢎞農	-11.6696
㢘	-11.6697
瑾	-11.6697
勾引	-11.6697
仙去	-11.6697
名醫别錄	-11.6697
鰉	-11.6697
庶㡬	-11.6698
琮	-11.6698
三佛齊	-11.6699
謂是	-11.6699
吃	-11.6699
春秋運斗樞	-11.6699
洄	-11.6699
布濩	-11.6699
僉	-11.6699
魮	-11.67
搥碎	-11.67
鸞鳯	-11.67
丙午	-11.67
習習	-11.67
畛	-11.6701
皂角	-11.6701
佗	-11.6701
以一當	-11.6701
八月采根	-11.6702
蜜丸	-11.6702
溯	-11.6702
蘭蓀	-11.6702
徂徠	-11.6702
澇	-11.6702
陳淳	-11.6703
糞忌	-11.6703
鎬	-11.6703
右先将	-11.6704
千仞	-11.6704
蝶翅	-11.6704
連雲	-11.6704
辛棄疾	-11.6705
了無	-11.6705
詹糖	-11.6706
巍	-11.6706
蒼茫	-11.6706
雋永	-11.6706
𨫼	-11.6707
風雅	-11.6708
鉤吻	-11.6708
山城	-11.6708
明陳憲章	-11.6708
矣故	-11.6709
林和靖	-11.6709
銀模	-11.6709
荀令	-11.671
縈繞	-11.671
李羣玉	-11.671
清泠	-11.671
愔	-11.671
嵇含	-11.671
庭際	-11.671
宋秦觀	-11.6711
無功	-11.6711
月季花	-11.6711
異同	-11.6712
指佞	-11.6712
躭	-11.6712
司農	-11.6712
蓓	-11.6712
霤	-11.6712
吁嗟	-11.6712
捲簾	-11.6713
迷迭	-11.6713
潞	-11.6713
劵	-11.6713
辟惡	-11.6713
誠齋	-11.6714
屈軼	-11.6714
文與可	-11.6715
欄檻	-11.6716
出波斯國	-11.6716
都尉	-11.6716
鷸	-11.6716
太康	-11.6716
插鬢	-11.6717
王冕	-11.6717
援筆	-11.6718
中虚	-11.6718
翦絨	-11.6719
並𨽻書	-11.6719
秔稻	-11.6719
驪龍	-11.672
羅岕	-11.672
秋晩	-11.6721
西湖志	-11.6721
碁子	-11.6721
味甜	-11.6721
三宿	-11.6722
窨乾	-11.6722
何代	-11.6722
鐵線	-11.6722
人不見	-11.6722
見寄	-11.6723
著名	-11.6723
晩來	-11.6726
潤色	-11.6726
桓公	-11.6726
匣葢	-11.6727
晨霞	-11.6727
銀瓶	-11.6727
老鴉	-11.6728
花使令	-11.6728
輝映	-11.6728
五鬛	-11.6728
九穂	-11.6729
形扁	-11.6729
荇菜	-11.673
甲辰	-11.6731
江淮間	-11.6731
籪	-11.6731
茂卿	-11.6731
流涎	-11.6732
立冬	-11.6732
形模	-11.6733
司徒	-11.6733
徐徐	-11.6733
其隂	-11.6733
搗末	-11.6733
而已哉	-11.6734
酷似	-11.6734
寒更	-11.6735
炎蒸	-11.6735
止可	-11.6736
白麵	-11.6736
十八公	-11.6737
堪憐	-11.6737
宴罷	-11.6737
吉祥草	-11.6738
相續	-11.6738
脆美	-11.6739
荒凉	-11.6742
尺度	-11.6742
嘉榖	-11.6742
畫眉	-11.6742
初綻	-11.6742
東流水	-11.6742
鄭𤣥	-11.6743
建章	-11.6745
千山	-11.6745
披拂	-11.6747
説苑	-11.6747
味鹹	-11.6747
為之賦	-11.6749
沃以	-11.675
之山其上多	-11.675
相逄	-11.675
歸去來	-11.675
斷魂	-11.675
封侯	-11.6751
翠屏	-11.6751
為人所	-11.6752
孤桐	-11.6753
煩悶	-11.6753
南番	-11.6753
浩然	-11.6754
纎手	-11.6754
抱朴子云	-11.6754
最憐	-11.6756
一面曰	-11.6756
黄鵠	-11.6758
元鎮	-11.6758
以禦	-11.6758
金樽	-11.6759
舊説	-11.6759
返魂香	-11.676
樹髙丈餘	-11.676
一捻	-11.676
觧之	-11.676
因號	-11.6762
馬糞	-11.6763
豪家	-11.6763
佛頭菊	-11.6764
八尺	-11.6764
側理	-11.6765
連根	-11.6766
斯人	-11.6767
臨川	-11.6767
無消息	-11.6767
度支	-11.6767
汲泉	-11.6767
狂歌	-11.6767
并引	-11.6767
紫笋	-11.6769
甚詳	-11.6769
黄蜀葵	-11.6769
隱居	-11.677
芳洲	-11.6771
楚詞	-11.6771
東郊	-11.6771
温柔	-11.6772
彭州	-11.6773
古寺	-11.6773
再加	-11.6773
宫槐	-11.6774
為渠	-11.6774
粉蝶	-11.6775
致逺	-11.6777
莫把	-11.6779
表裏	-11.6779
記取	-11.678
良乆	-11.678
玉鈴	-11.6782
荒園	-11.6782
爽氣	-11.6782
相繼	-11.6782
變色	-11.6782
自為	-11.6783
其紋	-11.6784
東籬菊	-11.6784
鱗次	-11.6785
茶坊	-11.6785
清馥	-11.6785
非關	-11.6785
甚愛	-11.6788
莫怪	-11.6788
入手	-11.6789
俗謂	-11.6791
宫室	-11.6791
艶妝	-11.6791
未展	-11.6791
燕山	-11.6795
文選	-11.6795
欲寄	-11.6797
額黄	-11.6797
然後知	-11.6798
藏於	-11.6798
稜稜	-11.6798
其仁	-11.6799
玉京	-11.6801
沈氏	-11.6801
扶起	-11.6801
莎草	-11.6802
銅硯	-11.6803
尤竒	-11.6803
為薪	-11.6803
太學	-11.6804
使我	-11.6806
本草拾遺曰	-11.6808
下馬	-11.6809
墜地	-11.681
出遊	-11.6811
魚龍	-11.6813
可以禦	-11.6814
南壁	-11.6814
煙霞	-11.6815
往来	-11.6818
但願	-11.6818
以竹為	-11.6821
土人謂之	-11.6821
小者為	-11.6821
沉醉	-11.6822
字從	-11.6822
恰如	-11.6823
糖蟹	-11.6823
酌酒	-11.6823
半寸	-11.6824
麤細	-11.6831
老幹	-11.6831
年豐	-11.6831
霍山	-11.6832
更添	-11.6832
積雨	-11.6834
氣味甘寒無毒	-11.6839
佳品也	-11.6841
蔽日	-11.6843
嵗晚	-11.6847
此名	-11.6848
素艶	-11.6849
喬松	-11.6849
血病	-11.685
字仲	-11.685
不可太	-11.685
湛露	-11.6852
骨節	-11.6853
少室	-11.6853
食味	-11.6853
齋中	-11.6853
紅千瓣	-11.6854
穿花	-11.6856
山之隂	-11.6856
修莖	-11.6857
經史	-11.6859
入朝	-11.6862
秋風吹	-11.6863
豈止	-11.6865
棗栗	-11.6866
川澤	-11.6866
作劑	-11.6867
鏡裏	-11.6868
甘橘	-11.687
詩情	-11.687
筍譜	-11.6871
夢到	-11.6874
一幅	-11.6874
社日	-11.6875
一説	-11.6875
方家	-11.6876
碧波	-11.6876
不測	-11.6878
有雌雄	-11.6879
髙三尺	-11.688
池亭	-11.688
新年	-11.688
秦州	-11.6881
朱氏	-11.6881
浮動	-11.6881
魏公	-11.6883
千竿	-11.6884
後厯	-11.6884
晴光	-11.6885
玉笛	-11.6886
莫待	-11.6887
泥山	-11.6888
十月采	-11.6891
永平	-11.6891
寄居	-11.6891
丹田	-11.6891
生山中	-11.6893
題品	-11.6893
親見	-11.6894
妙絶	-11.6894
考宋	-11.6894
隨筆	-11.6903
只合	-11.6903
綠玉	-11.6903
帝王	-11.6904
出沒	-11.6904
飄然	-11.6904
武王	-11.6905
何獨	-11.6908
菖	-11.6909
夏景	-11.691
相贈	-11.6912
垂條	-11.6913
自保	-11.6913
山禽	-11.6915
翠影	-11.6915
豈必	-11.6916
厥後	-11.6917
縣官	-11.6919
四升	-11.6921
趙州	-11.6923
其說	-11.6924
青黒	-11.6925
真柑	-11.6925
一二日	-11.6926
仙都	-11.6928
兩片	-11.6929
不醒	-11.693
梁州	-11.6931
緑波	-11.6931
六足	-11.6932
萬松	-11.6933
地勢	-11.6934
半吐	-11.6935
㸔牡丹	-11.6938
曾見	-11.6939
苖葉	-11.6939
萬安	-11.6939
七寸	-11.6944
絶世	-11.6948
凉月	-11.6949
味甘美	-11.695
晴空	-11.6952
好學	-11.6952
五芝	-11.6952
三物	-11.6954
霧雨	-11.6955
銅器	-11.6957
砌下	-11.6957
微霜	-11.6958
為之者	-11.6961
因命	-11.6966
蘇公	-11.6968
治病	-11.6968
異草	-11.6969
採藥	-11.697
一竿	-11.6972
蜜蜂	-11.6973
百千	-11.6974
大嚼	-11.6974
半年	-11.6975
殘月	-11.6976
橢圓式	-11.6977
丹楓	-11.6977
小塊	-11.6978
生筍	-11.6979
絶類	-11.6986
枝梗	-11.6987
元符	-11.6988
中旦	-11.6989
稍異	-11.699
黄紙	-11.699
不計	-11.6993
江潭	-11.6993
遍地	-11.6997
珠顆	-11.6998
不特	-11.6999
一蔕	-11.7002
囊中	-11.7002
罕見	-11.7002
金燈	-11.7002
植物之	-11.7002
最好	-11.7005
一名銀	-11.7005
殘菊	-11.7006
熟速	-11.7006
初晴	-11.7008
爭先	-11.701
彈子	-11.7012
白二色	-11.7015
晩菊	-11.7016
用麴	-11.7018
物色	-11.7018
玊堂	-11.7022
四首	-11.7023
去蔕	-11.7026
緑樹	-11.7026
㡬何	-11.7028
相思子	-11.7033
和之氣	-11.7034
望之如	-11.704
江南人	-11.7041
緑衣	-11.7043
縮砂	-11.7046
還是	-11.7047
無骨	-11.7048
工夫	-11.705
全無	-11.7052
菜瓜	-11.7052
美惡	-11.7055
西府	-11.7055
是謂	-11.7058
老父	-11.7058
季秋	-11.7058
能治	-11.7059
五月開	-11.7061
於天下	-11.7062
尤重	-11.7064
未到	-11.7066
石乳	-11.7069
曉寒	-11.707
朱槿	-11.7073
青鳥	-11.7078
體物	-11.7079
盛以	-11.7081
四瓣	-11.7082
有蟲	-11.7084
杯中	-11.7088
野客	-11.709
可茹	-11.709
不能及	-11.7093
三代	-11.7094
徒自	-11.7097
西樓	-11.7099
畦中	-11.7102
七言	-11.7102
族類	-11.7106
閩山	-11.7107
郭注	-11.7109
銀盤	-11.7113
君恩	-11.7116
茂林	-11.7119
金蕊	-11.7119
初疑	-11.712
辭曰	-11.7121
池蓮	-11.7121
花梢	-11.7122
其色紫	-11.7122
含笑花	-11.7125
曽見	-11.7126
東海有	-11.713
羽儀	-11.7132
金波	-11.7133
正直	-11.7137
未歇	-11.7138
未須	-11.7138
味薄	-11.7138
臘梅	-11.7138
未經	-11.7142
叢菊	-11.7145
溪流	-11.7147
看来	-11.715
治平	-11.7154
竹萌	-11.7162
微尖	-11.7165
正白	-11.7166
幽深	-11.717
佳味	-11.7171
壽安	-11.7174
誰復	-11.7174
著地	-11.7176
隂地	-11.718
硯材	-11.7183
芽茶	-11.7187
挺生	-11.7192
上供	-11.7193
谷簾	-11.7193
遇一	-11.7196
而色黄	-11.72
海中有	-11.72
國貢	-11.7201
和烟	-11.7204
全似	-11.7206
二三日	-11.7206
二三十	-11.7208
每歳	-11.7208
舊錢	-11.7212
夢斷	-11.7214
山房	-11.7215
相離	-11.7216
善墨	-11.7219
芳林	-11.7219
貫之	-11.7221
鬼目	-11.7223
太公	-11.7225
可玩	-11.7225
明府	-11.723
隂晴	-11.723
不獲	-11.723
久服輕身	-11.7245
消得	-11.7248
鹽水	-11.7249
樹影	-11.725
易開	-11.7253
乾道	-11.7256
不盈	-11.726
多瓣	-11.7262
消腫	-11.7263
不滅	-11.7263
滴水	-11.7265
左手	-11.7267
丹心	-11.7273
幾人	-11.7273
▁集藻	-11.7281
幾年	-11.729
百萬	-11.729
隔水	-11.73
月露	-11.7302
雍州	-11.7305
器物之	-11.7307
小苑	-11.7312
石橋	-11.7313
者悉	-11.7314
黄千瓣	-11.7315
洛花	-11.7315
碎葉	-11.7316
六瓣	-11.7317
樹婆娑	-11.7319
文園	-11.7323
成就	-11.7323
時疾	-11.7324
女人	-11.733
御定佩文齋廣羣芳譜卷十	-11.7331
地暖	-11.7333
豈易	-11.7335
峽中	-11.7337
寄逺	-11.7339
製茶	-11.7342
玉英	-11.7349
年来	-11.7351
詩書	-11.7352
赤日	-11.7353
莖方	-11.7353
新條	-11.7372
吞之	-11.7375
佳種	-11.7378
願得	-11.738
夜夢	-11.7382
不樂	-11.7382
秋意	-11.7387
張君	-11.7389
况有	-11.7392
一時之	-11.7393
有芒	-11.7394
人持	-11.7395
别來	-11.7396
須知	-11.7398
蜜封	-11.7408
繁香	-11.7408
用銀	-11.741
鹿膠	-11.7413
稱珍	-11.7417
前賢	-11.7419
安息	-11.7419
舊傳	-11.7421
夏時	-11.7425
皆佳	-11.7429
貢新	-11.7431
農桑	-11.7433
霜落	-11.7434
疊石	-11.7441
作人間	-11.7441
爐灰	-11.7445
背面	-11.7454
七月采	-11.7457
蕙蘭	-11.7458
治一切	-11.7464
水沉	-11.7466
題云	-11.7469
縱有	-11.7472
可二寸	-11.7473
里人	-11.7475
一任	-11.7478
麤大	-11.7481
亦須	-11.7485
道路	-11.7485
偶得	-11.7485
名士	-11.7491
白首	-11.7492
功成	-11.7493
譜録類	-11.7496
三月種	-11.7497
如此則	-11.7502
色漸	-11.7503
白帝	-11.7504
春到	-11.7505
百顆	-11.7507
其遺	-11.7511
年號	-11.7516
所尚	-11.7521
柢	-11.7525
宋製	-11.7526
幾何	-11.7526
生瘡	-11.7527
事實	-11.7531
七兩	-11.7536
即消	-11.7539
楚國	-11.754
御定佩文齋廣羣芳譜卷二	-11.754
甚茂	-11.7541
黼	-11.7546
蜆	-11.7547
晴天	-11.7547
莆	-11.7547
小品	-11.755
鏡中	-11.755
薺花	-11.7551
左上方	-11.7552
豨薟	-11.7552
五味調和	-11.7553
咨	-11.7555
㫰	-11.7556
本非	-11.7558
秋芳	-11.7558
顧况	-11.7559
蘗	-11.7562
煮酒	-11.7564
匣底	-11.7564
鄘	-11.7564
葽	-11.7564
能致	-11.7565
如雞卵	-11.7566
肘	-11.7571
溪邉	-11.7571
唼	-11.7572
繚	-11.7572
菉	-11.7574
早秋	-11.7576
䘖	-11.7577
舟中	-11.7578
駛	-11.7578
伎	-11.7579
楥	-11.7579
搔	-11.7579
欵冬	-11.7579
芊	-11.758
姮娥	-11.758
蠃	-11.758
癥	-11.758
生下濕地	-11.7581
蝸	-11.7582
虎豹	-11.7582
椵	-11.7582
墉	-11.7583
雚	-11.7583
葶藶	-11.7583
柳宗元	-11.7583
塩醋調和	-11.7583
癎	-11.7584
有赤白二種	-11.7584
州郡皆有之	-11.7584
磧	-11.7585
魼	-11.7585
萋	-11.7585
颸	-11.7585
穆天子傳	-11.7586
瞑	-11.7586
彗	-11.7586
楯	-11.7586
閃	-11.7586
作餅子	-11.7586
御定佩文齋廣羣芳譜卷五十	-11.7587
臠	-11.7587
豨	-11.7587
蕉白	-11.7587
極乾	-11.7587
挐	-11.7587
湛湛	-11.7588
燃燈	-11.7588
蟚	-11.7588
刀圭	-11.7588
碓	-11.7589
文武火	-11.7589
杻	-11.7589
宋澄泥虎符硯	-11.7589
科斗	-11.7589
蜿	-11.7589
畚	-11.7589
鷟	-11.759
鉞	-11.759
婆羅門	-11.759
悮	-11.759
冦	-11.7591
纛	-11.7591
格古要論	-11.7591
綱目云	-11.7591
蕘	-11.7591
牝	-11.7591
鑾	-11.7592
鬲	-11.7592
交州記	-11.7592
顔氏家訓	-11.7592
避暑録話	-11.7592
璽	-11.7592
裒	-11.7593
絞取汁	-11.7593
蔑	-11.7593
榎	-11.7593
箘	-11.7593
不䏻	-11.7593
阮籍	-11.7593
孽	-11.7593
躋	-11.7593
九齡	-11.7594
萁	-11.7594
漢武内傳	-11.7594
湖光	-11.7594
韮	-11.7594
𣲖	-11.7594
鯇	-11.7594
煑粥	-11.7594
虇	-11.7594
冦宗奭曰	-11.7595
鍤	-11.7595
蕩漾	-11.7595
貲	-11.7595
名勝志	-11.7595
祥符	-11.7595
旒	-11.7595
磁礶	-11.7595
詐	-11.7595
鸚	-11.7595
鰲	-11.7596
睠	-11.7596
嶺表錄異	-11.7596
埽	-11.7596
頋	-11.7596
晰	-11.7596
癸辛雜識	-11.7596
樞宻	-11.7596
盥	-11.7597
明文徴明	-11.7597
蜓	-11.7597
長方式	-11.7597
瞥	-11.7597
揩	-11.7597
縚	-11.7597
阬	-11.7597
劉孝威	-11.7598
稳	-11.7598
蜘蛛香	-11.7598
笑蘭香	-11.7599
堅筋骨	-11.7599
膽瓶	-11.7599
皎潔	-11.7599
搦	-11.7599
煅	-11.7599
筌	-11.7599
覊	-11.7599
逋	-11.7599
俛	-11.76
郝	-11.76
纊	-11.76
苒苒	-11.76
歩障	-11.76
盤桓	-11.76
箇箇	-11.76
捜神記	-11.7601
靚妝	-11.7601
飡	-11.7601
苾	-11.7601
禺	-11.7601
破癥	-11.7601
蒼璧	-11.7601
橦	-11.7601
惨	-11.7601
痾	-11.7601
忻	-11.7601
譙	-11.7601
櫪	-11.7601
㕓	-11.7602
潘岳	-11.7602
劉貢父	-11.7602
柹	-11.7602
栁宗元	-11.7602
黄太史	-11.7602
痞滿	-11.7602
膿	-11.7603
亳州	-11.7603
矚	-11.7603
欬逆上氣	-11.7603
鱘	-11.7603
天南星	-11.7603
華而不實	-11.7603
沖	-11.7603
恧	-11.7603
其音如	-11.7604
憶昨	-11.7604
培壅	-11.7604
絳綃	-11.7604
姹	-11.7604
門巷	-11.7604
廣東志	-11.7605
波瀾	-11.7605
曽鞏	-11.7605
瓊琚	-11.7605
聮	-11.7605
艮嶽	-11.7605
囷	-11.7605
磵	-11.7605
扶踈	-11.7605
晉嵇康	-11.7605
㬠	-11.7606
驪珠	-11.7606
𬎼	-11.7606
豇豆	-11.7606
袒	-11.7606
璘	-11.7606
􁂶	-11.7606
童童	-11.7606
去皮尖	-11.7606
莆田	-11.7606
闥	-11.7606
季疵	-11.7606
御衣黄	-11.7606
萬壑	-11.7607
滛	-11.7607
杳杳	-11.7607
梧潯雜佩	-11.7607
批	-11.7607
郡志	-11.7607
紥	-11.7607
四品六命	-11.7607
媪	-11.7607
芬敷	-11.7607
舄	-11.7607
宥	-11.7608
穠艶	-11.7608
疝瘕	-11.7608
夥	-11.7608
甓	-11.7608
姪	-11.7608
弄色	-11.7609
陸鴻漸	-11.7609
㶚	-11.7609
蕭颯	-11.7609
鱗皴	-11.7609
菱芡	-11.7609
以竹刀	-11.761
醁	-11.761
鉉	-11.761
譌	-11.761
麒麟	-11.761
皇甫冉	-11.761
夐	-11.761
魏興和甎硯	-11.761
甆盒	-11.761
未容	-11.7611
炭灰	-11.7611
團圞	-11.7611
姨	-11.7611
暹羅	-11.7611
觥	-11.7611
夲草拾遺云	-11.7611
郁烈	-11.7611
劉克荘	-11.7612
招隱	-11.7612
飛廉	-11.7612
苦茶	-11.7612
芫花	-11.7612
甘藷	-11.7612
玉帶生	-11.7612
白膠香	-11.7612
䖝	-11.7613
捎	-11.7613
甲乙	-11.7613
顧盻	-11.7613
爇如常法	-11.7613
䱐	-11.7613
色黝	-11.7613
淅	-11.7613
紛敷	-11.7614
燒如常法	-11.7614
吳都賦	-11.7614
春遲	-11.7614
陬	-11.7614
晏元獻	-11.7614
洛陽花木記	-11.7614
爬	-11.7614
鄉里	-11.7614
楷書御製	-11.7614
六分許	-11.7615
山其下多	-11.7615
龍腦少許	-11.7616
雷霆	-11.7616
獠	-11.7616
漢官儀	-11.7616
品茶要録	-11.7616
氤氳	-11.7616
長方印一	-11.7616
舷	-11.7616
張台	-11.7616
乳柑	-11.7616
鑛	-11.7616
瑣瑣	-11.7617
羞殺	-11.7617
鶩	-11.7617
不計多少	-11.7618
侮	-11.7618
欹斜	-11.7618
豐腴	-11.7618
軋	-11.7618
貧賤	-11.7619
荔枝殻	-11.7619
宋無名氏	-11.7619
賈島	-11.7619
大戴禮	-11.762
敬宗	-11.762
禁忌	-11.7621
判官	-11.7621
蘋藻	-11.7621
筆札	-11.7622
何限	-11.7622
中山經	-11.7622
烏則	-11.7623
祝融	-11.7623
鼓鑄	-11.7623
土壅	-11.7623
螻蟻	-11.7623
倚檻	-11.7623
佛頂菊	-11.7623
精英	-11.7623
嘉蔬	-11.7624
西戎	-11.7624
吐逆	-11.7624
濟源	-11.7624
海蛤	-11.7625
雜樹	-11.7625
銅鐵	-11.7625
截斷	-11.7625
尚書郎	-11.7625
佳境	-11.7626
招魂	-11.7626
鰻鱺	-11.7626
把玩	-11.7626
鵝兒	-11.7627
療饑	-11.7627
嘉賔	-11.7627
解籜	-11.7627
𣙜茶	-11.7628
筴	-11.7628
那堪	-11.7628
綺疏	-11.7628
鹽鐵	-11.7628
並蒂	-11.7628
小龍團	-11.7629
陶之屬	-11.7629
北人呼為	-11.763
稽首	-11.763
烏喙	-11.763
䱡	-11.7631
光禄	-11.7631
欹枕	-11.7631
曲沼	-11.7631
淤泥	-11.7632
治頭風	-11.7632
一槍	-11.7633
膏腴	-11.7633
濾過	-11.7633
彤雲	-11.7634
月開小花	-11.7634
精華	-11.7634
宛陵	-11.7636
淵材	-11.7637
醉眠	-11.7638
謹按	-11.7638
高尺餘	-11.7639
耐旱	-11.7639
唐庚	-11.7639
輕綃	-11.764
楠木	-11.764
剥落	-11.764
胃氣	-11.7641
趙昌	-11.7641
不喜	-11.7642
酘飯	-11.7642
壓架	-11.7643
紫而潤	-11.7644
色綠	-11.7644
橋邊	-11.7644
草本	-11.7644
未暇	-11.7645
䨇䨇	-11.7645
宋之問	-11.7645
對曰臣	-11.7645
換骨	-11.7645
春分後	-11.7646
調鼎	-11.7646
長五六寸	-11.7646
旌節花	-11.7646
顏色	-11.7647
相州	-11.7647
横塘	-11.7647
建寧	-11.7648
補闕	-11.7648
異物志云	-11.7648
羅裳	-11.7648
九寸	-11.7648
晉卿	-11.7648
髙尺許	-11.7649
清樽	-11.7649
頃年	-11.7649
花木考	-11.765
冰姿	-11.765
金鈿	-11.7652
活眼一	-11.7652
武康	-11.7653
㑹昌	-11.7653
萬卉	-11.7653
舞蝶	-11.7653
華嚴經	-11.7653
齊魯	-11.7654
瓜虀	-11.7655
鬱茂	-11.7655
猩紅	-11.7657
彌望	-11.7657
白鷗	-11.7657
悵然	-11.7658
腥氣	-11.7658
鮮妍	-11.7658
合穎	-11.7658
運使	-11.766
安頓	-11.7661
翠蔓	-11.7662
壁間	-11.7662
各三錢	-11.7663
嗟爾	-11.7663
宗室	-11.7664
放翁	-11.7664
莫厭	-11.7665
瑶華	-11.7665
佳茗	-11.7665
粥面	-11.7666
斷續	-11.7666
澗水	-11.7667
成癖	-11.7668
總論	-11.7669
丙子	-11.7669
次第開	-11.7669
我后	-11.767
爲末	-11.7671
而有尖	-11.7671
忽逢	-11.7672
大金鈴	-11.7673
透骨	-11.7674
釣魚	-11.7674
腰肢	-11.7675
隋堤	-11.7676
漸覺	-11.7676
奪目	-11.7677
巨勝	-11.7678
兒孫	-11.7679
㡬度	-11.7679
如織	-11.7679
具體	-11.768
忘却	-11.7681
相屬	-11.7681
金錢菊	-11.7681
瑪瑙石	-11.7682
青霄	-11.7683
七枚	-11.7683
陶氏	-11.7683
京華	-11.7687
酒旗	-11.7688
平甫	-11.7688
晩凉	-11.7688
路史	-11.7688
拂拂	-11.769
一百斤	-11.7691
洞裏	-11.7691
膏油	-11.7691
熱河	-11.7693
戴之	-11.7693
首尾	-11.7694
上林苑有	-11.7694
都梁	-11.7694
各不同	-11.7696
歲晩	-11.7696
貧家	-11.7696
滋榮	-11.7697
東宮	-11.7698
佛桑	-11.7698
待我	-11.77
黒豆	-11.7701
榆錢	-11.7702
蒲葵	-11.7702
青㝠	-11.7702
作塊	-11.7704
張又新	-11.7705
抽莖	-11.7705
臘日	-11.7705
芝房	-11.7705
莧菜	-11.7705
竒品也	-11.7705
萬户	-11.7706
靡不	-11.7706
玊盤	-11.7707
土人多	-11.7709
晨露	-11.771
色香味	-11.7711
玉階	-11.7711
露葵	-11.7712
濟南	-11.7713
洞口	-11.7714
龍葵	-11.7716
嬌黄	-11.7716
方朔	-11.7716
象形	-11.7717
江鄉	-11.7718
林寺	-11.7718
注云今	-11.7719
色深黄	-11.7719
數升	-11.7719
散漫	-11.7719
綠萼	-11.7721
楓林	-11.7721
惱人	-11.7721
不飢	-11.7721
宫詞	-11.7722
蔬食	-11.7722
香草也	-11.7723
力士	-11.7725
内鐫	-11.7725
出蜀中	-11.7725
除却	-11.7726
吐秀	-11.7726
肥泥	-11.7726
今宵	-11.7726
無顔色	-11.7726
甘雨	-11.7728
金鐘	-11.7728
千尋	-11.7729
承天	-11.773
靈苗	-11.7731
𤣥都	-11.7731
貞節	-11.7732
虎皮	-11.7733
玉屑	-11.7733
輕身益氣	-11.7733
及第	-11.7733
清幽	-11.7734
南昌	-11.7734
女伴	-11.7734
寶珠	-11.7734
赤箭	-11.7735
一枝斜	-11.7736
紫蘭	-11.7736
日未出	-11.7736
憐我	-11.7738
顔色好	-11.7739
湘君	-11.7739
亦其類	-11.7739
枸杞子	-11.7739
銷金	-11.774
白晝	-11.774
却恨	-11.7744
稻花	-11.7746
端坐	-11.7746
奉使	-11.7746
長二寸	-11.7747
始覺	-11.7747
明鏡	-11.7748
正義	-11.7749
海島	-11.775
龍眠	-11.7753
伊人	-11.7754
帖云	-11.7755
漢家	-11.7756
食療	-11.7758
浮圖	-11.7758
仙郎	-11.776
山枇杷	-11.7762
草莽	-11.7763
漫道	-11.7763
畫堂	-11.7764
元宗	-11.7765
地榆	-11.7766
麝香草	-11.7766
紫白色	-11.7767
謝送	-11.7767
詠梨	-11.7768
十三年	-11.777
積翠	-11.7771
糖水	-11.7773
流蘇	-11.7773
故遣	-11.7774
枝梢	-11.7775
百家	-11.7778
紅裳	-11.7779
半開時	-11.7779
浙中	-11.7779
宜肥地	-11.7781
知否	-11.7781
緑胎	-11.7782
夢想	-11.7783
數片	-11.7785
並列	-11.7785
可翫	-11.7786
許景	-11.7787
牛皮	-11.7788
偏稱	-11.7788
飛舞	-11.7789
化龍	-11.779
紙筆	-11.779
緑荷	-11.7794
萱花	-11.7796
甚軟	-11.7797
烟波	-11.7798
井上	-11.7798
金壺	-11.7801
南人呼為	-11.7803
出南海	-11.7803
微吟	-11.7804
香沈香	-11.7804
九疑	-11.7805
亭前	-11.7805
紫牡丹	-11.7807
解衣	-11.7807
固難	-11.7808
洪州	-11.7808
牽牛花	-11.7808
紅袖	-11.7809
挺出	-11.7809
不衰	-11.781
湘竹	-11.7811
終南山	-11.7815
采桑	-11.7816
旭日	-11.7816
出海南	-11.7816
登樓	-11.7817
立春日	-11.7817
冷風	-11.7817
始發	-11.782
梅花龍腦	-11.7821
靈藥	-11.7822
竒物	-11.7822
謝公	-11.7823
猶濕	-11.7824
色青白	-11.7826
錦衣	-11.7826
繁霜	-11.7832
四邊	-11.7834
漢帝	-11.7834
垂珠	-11.7835
百氏	-11.7837
日鑄	-11.7837
水漬	-11.7838
無際	-11.7838
為上品	-11.7841
上旬	-11.7843
未審	-11.7843
聽松	-11.7844
賞牡丹	-11.7845
開元寺	-11.7845
小亭	-11.7846
上品也	-11.7847
絶倫	-11.7851
有香氣	-11.7855
其味酸	-11.7856
汲井	-11.7856
紅蠟	-11.7857
䨇頭	-11.7858
宰臣	-11.7859
升麻	-11.7863
總是	-11.7863
莖麤	-11.7864
槿籬	-11.7865
水濺	-11.7866
五大夫	-11.7866
晚節	-11.7867
薄皮	-11.7871
正堪	-11.7873
尚矣	-11.7873
主客	-11.7874
厚一寸二分	-11.7879
養氣	-11.7879
南人謂之	-11.788
緑絲	-11.7881
為葅	-11.7882
可充	-11.7882
得霜	-11.7888
又不見	-11.7889
内史	-11.7891
作鮓	-11.7893
害人	-11.7894
九歌	-11.7895
是物	-11.7895
相傳為	-11.7895
前事	-11.7896
凡夫	-11.7898
洲上	-11.7901
晴雲	-11.7902
相逐	-11.7903
毒魚	-11.7903
如斗	-11.7905
手持	-11.7905
梅花落	-11.7908
頭角	-11.791
車輪	-11.7911
不能致	-11.7912
尋梅	-11.7913
綠衣	-11.7913
驚飛	-11.7913
良田	-11.7914
窓下	-11.7915
葵葉	-11.7915
樓下	-11.7917
渭水	-11.7918
沙泥	-11.792
詠蘭	-11.7923
薰香	-11.7924
水濱	-11.7927
銀絲	-11.7927
紫萼	-11.793
出西域	-11.793
城裏	-11.7931
未曽	-11.7931
好音	-11.7932
挺秀	-11.7932
逺志	-11.7934
即愈	-11.7935
出汗	-11.7935
香劑	-11.7935
爭似	-11.7937
風凉	-11.7938
聊自	-11.7939
石壁	-11.7941
觀此	-11.7941
野人家	-11.7944
九莖	-11.795
天姿	-11.7953
興公	-11.7957
偶成	-11.7957
剉如	-11.7959
竟何	-11.7959
龍興	-11.7959
月眀	-11.7962
關中	-11.797
仙桃	-11.7973
五枚	-11.7976
數品	-11.7976
可以已	-11.7977
勝賞	-11.7977
書契	-11.7978
金芝	-11.798
五侯	-11.7981
髙臺	-11.7982
有㫖	-11.7986
伏見	-11.7987
清閒	-11.7988
根苗	-11.7989
况此	-11.799
青蒲	-11.7992
未開時	-11.7992
除濕	-11.7994
出血	-11.7994
朱李	-11.7994
旋取	-11.7995
買得	-11.7996
六合	-11.7996
遺事	-11.7997
相鮮	-11.8001
等州	-11.8004
身圓	-11.8005
不讓	-11.8006
往觀	-11.8007
池沼	-11.8012
青霞	-11.8014
名果	-11.8014
然余	-11.8016
天章	-11.8018
玉臺	-11.8021
性好	-11.8024
麗華	-11.8026
固已	-11.8029
三友	-11.8036
長句	-11.8047
婦子	-11.8048
孟冬	-11.8053
含光	-11.8053
先嘗	-11.8053
根旁	-11.8054
建平	-11.806
二十兩	-11.8061
潭水	-11.8061
遺恨	-11.8063
脱花	-11.8071
一遍	-11.8072
眞香	-11.8073
鳥啼	-11.8073
天府	-11.8075
侍從	-11.8078
薑末	-11.8079
叩之	-11.8082
瓦屋	-11.8082
刻字	-11.8084
百畝	-11.8085
雨霽	-11.8087
物類	-11.8088
依山	-11.8094
始熟	-11.8094
還復	-11.8094
猶記	-11.8098
行路	-11.81
絶佳	-11.81
賴有	-11.8101
送酒	-11.8103
蜀地	-11.8104
春暉	-11.8105
朝暮	-11.8105
第一花	-11.8106
山齋	-11.8106
漸老	-11.8107
北枝	-11.8108
平陽	-11.8112
里中	-11.8118
之兆	-11.8121
小院	-11.8122
閣下	-11.8124
漸小	-11.8125
小薊	-11.8131
掘取	-11.8131
大腹	-11.8132
國家	-11.8138
衆皆	-11.8139
墨客	-11.8145
不停	-11.8151
明耳目	-11.8152
風吹落	-11.8153
張雨	-11.8153
炒黄	-11.8155
二百餘	-11.8158
長養	-11.8158
中鐫御題詩一首楷書鈐寳	-11.8162
茅簷	-11.8168
但令	-11.8173
帶月	-11.8178
所説	-11.8184
苦楝	-11.8186
吴中	-11.8188
節候	-11.819
正平	-11.8192
瑞露	-11.8195
一里	-11.8213
竒南	-11.8214
滚水	-11.8215
樽酒	-11.8221
土瓜	-11.8223
減半	-11.8226
最貴	-11.8229
顧謂	-11.8231
終朝	-11.8238
小株	-11.8245
善畫	-11.8251
柳梢	-11.8252
村落	-11.8257
半落	-11.8261
畏日	-11.8274
捜拌	-11.828
珍木	-11.8282
舊端石	-11.8284
覆地	-11.8284
霄漢	-11.8288
盤盤	-11.8292
究其	-11.8296
但知	-11.8299
草豆蔲	-11.8304
建陽	-11.8317
家藏	-11.8319
四斤	-11.832
雲霄	-11.8323
右方	-11.8328
九日黄	-11.8332
再見	-11.8334
粉面	-11.8335
香料	-11.834
新摘	-11.835
匣盖鐫御題詩與硯同	-11.8363
體性	-11.8368
入灰	-11.8368
李侯	-11.8372
三變	-11.8374
夜静	-11.8375
憐君	-11.8375
華省	-11.8376
餘杭	-11.8377
五采	-11.8385
北園	-11.8386
色深紫	-11.8387
滑無毒	-11.8391
海石榴	-11.8394
甚薄	-11.8395
晉時	-11.8397
錦江	-11.8412
上岩	-11.8413
古稱	-11.8418
四寸五分	-11.8426
此寺	-11.8429
秀質	-11.8439
老杜	-11.8439
唐崔	-11.8443
香篆	-11.8449
參天	-11.8453
宗即位	-11.8459
去鬚	-11.8463
嘆曰	-11.8469
湘江	-11.847
木為之	-11.8475
蒼山	-11.8482
龍腦二錢	-11.8485
有大小	-11.8487
散落	-11.8487
白山茶	-11.8491
必待	-11.85
月淡	-11.8501
色黃	-11.8504
小平錢	-11.8507
蟹肥	-11.8509
字形	-11.8518
甚異	-11.8519
稻米	-11.8519
橈	-11.8527
羽衣	-11.8528
淡黄色	-11.8547
未始	-11.855
說硯髙四寸	-11.855
綏	-11.8551
豳	-11.8554
芫荽	-11.8554
筍皮	-11.8555
樺	-11.8556
一原本	-11.8559
姓者	-11.8559
菝葜	-11.856
薅	-11.856
藨	-11.8561
訶黎勒	-11.8562
温無毒治	-11.8562
瑋	-11.8563
凱	-11.8564
鳧	-11.8564
件	-11.8564
䥥	-11.8567
窈	-11.857
甘平無毒	-11.8571
羊尾子	-11.8573
媼	-11.8573
摽	-11.8573
贏	-11.8574
嗽	-11.8575
餒	-11.8575
咱夫蘭	-11.8575
利九竅	-11.8575
石龍芮	-11.8575
踞	-11.8575
櫳	-11.8576
郭鈺	-11.8577
乾薑	-11.8577
耬	-11.8577
右件為細末	-11.8578
咄	-11.8578
忽變	-11.8579
硃	-11.8579
本草衍義	-11.8579
其形如	-11.858
戕	-11.858
粢	-11.858
埒	-11.8581
榿	-11.8581
馬祖常	-11.8581
成公綏	-11.8581
要看	-11.8582
磈	-11.8582
恪	-11.8582
佶	-11.8582
狸	-11.8582
反胃	-11.8582
愉	-11.8582
揑	-11.8582
馮夷	-11.8583
盛京志	-11.8583
逐日	-11.8584
防己	-11.8584
沬	-11.8584
金鳯花	-11.8584
搨	-11.8584
溶	-11.8584
澌	-11.8585
通風處	-11.8585
馬齒莧	-11.8585
歉	-11.8585
珏	-11.8586
四字篆書	-11.8586
鱀	-11.8586
属	-11.8586
峩峩	-11.8586
御定佩文齋廣羣芳譜	-11.8586
欬𠻳	-11.8586
楙	-11.8586
宋謝脁	-11.8587
彫胡	-11.8587
蓉	-11.8587
方印一	-11.8587
渣	-11.8587
椅桐	-11.8587
長九尺	-11.8588
木樨	-11.8588
故宫	-11.8588
瀼	-11.8588
辨訛	-11.8588
謝人送	-11.8588
王昌齡	-11.8588
糭	-11.8588
摻	-11.8588
椒蘭	-11.8588
綂	-11.8589
不宜多食	-11.859
韓詩外傳	-11.859
溽	-11.859
元張翥	-11.859
簋	-11.859
茋	-11.859
乹	-11.859
慈姑	-11.8591
循吏	-11.8591
槀本	-11.8591
諫議	-11.8591
亳	-11.8591
鷂	-11.8591
粃	-11.8591
尅	-11.8591
蠞	-11.8591
篙	-11.8591
坌	-11.8592
繰	-11.8592
薁	-11.8592
庠	-11.8592
廩	-11.8592
餓	-11.8593
鈐寳二曰乾隆	-11.8593
慄	-11.8593
蠘	-11.8593
殺三蟲	-11.8593
韓非子	-11.8593
偃仰	-11.8593
衂	-11.8593
御定佩文齋廣羣芳譜卷九十	-11.8593
縋	-11.8593
黽	-11.8593
王禹偁	-11.8593
笵	-11.8594
寥落	-11.8594
月花盟主	-11.8594
嘔逆	-11.8594
彘	-11.8594
柱各有眼	-11.8594
小苑春望宫池柳色	-11.8594
秦始皇	-11.8594
赤小豆	-11.8594
賡	-11.8594
愍	-11.8594
稌	-11.8594
平無毒治	-11.8595
芙	-11.8595
笈	-11.8595
悼	-11.8595
姢	-11.8595
宋景文	-11.8595
殷璠	-11.8596
㤙	-11.8596
蘜	-11.8596
廸	-11.8596
鯷	-11.8596
虺	-11.8596
掣	-11.8596
隠逸傳	-11.8596
大中祥符	-11.8596
潘尼	-11.8596
媧	-11.8597
交阯	-11.8597
渟	-11.8597
巴㦸	-11.8597
楊維楨	-11.8597
露未晞	-11.8597
愿	-11.8597
仲尼	-11.8597
鶚	-11.8597
抝	-11.8597
抃	-11.8598
礶	-11.8598
睇	-11.8598
福建志	-11.8598
歐陽永叔	-11.8598
勾芒	-11.8598
麈尾	-11.8598
疵	-11.8598
舸	-11.8598
受墨處正平	-11.8598
薜	-11.8598
籦	-11.8599
孑	-11.8599
端溪子石	-11.8599
茎	-11.8599
鎡	-11.8599
陳傅良	-11.8599
欖	-11.86
宋徽宗	-11.86
吠	-11.86
匣底内鐫	-11.86
鹿蹄	-11.86
葉夢得	-11.86
蘢	-11.86
汪由敦銘	-11.8601
浣紗	-11.8601
璀	-11.8601
逵	-11.8601
稲	-11.8601
高四五尺	-11.8601
汴京	-11.8601
禽獸	-11.8601
令人有子	-11.8601
白虎通	-11.8601
笙簧	-11.8601
墨鏽深厚	-11.8602
獰	-11.8602
簞	-11.8602
囘囘	-11.8602
秉燭	-11.8603
稗史	-11.8603
霅	-11.8603
三餘贅筆	-11.8603
劉原父	-11.8603
両	-11.8603
笆	-11.8603
向子諲	-11.8603
鎸	-11.8603
輪郭	-11.8603
謝宗可	-11.8603
派	-11.8603
雲夢之	-11.8603
糟薑	-11.8603
御定佩文齋廣羣芳譜卷七十	-11.8603
明于若瀛	-11.8603
坻	-11.8604
四時不凋	-11.8604
贋	-11.8604
長寸餘	-11.8604
蜩	-11.8604
雍陶	-11.8604
灞	-11.8604
唐韋應物	-11.8604
盆盎	-11.8604
拓	-11.8604
葳㽔	-11.8604
鐫礲	-11.8604
顚	-11.8604
鰣魚	-11.8604
續仙傳	-11.8605
楊慎	-11.8605
萬彚	-11.8605
怠	-11.8605
菰米	-11.8605
曾端伯	-11.8605
臞仙	-11.8605
肅宗	-11.8605
夾竹桃	-11.8605
矞	-11.8605
宋陳與義	-11.8605
林景熙	-11.8605
蕃衍	-11.8605
彭祖	-11.8605
斬伐	-11.8605
延春閣	-11.8605
兩頭尖	-11.8606
跂	-11.8606
捋	-11.8606
賜近臣	-11.8606
遑	-11.8606
襞積	-11.8606
味苦寒無毒主	-11.8606
李義山	-11.8606
盲	-11.8607
宋陸㳺	-11.8607
茫然	-11.8607
不知幾	-11.8607
犂	-11.8607
熒煌	-11.8607
唐栁宗元	-11.8607
兠	-11.8607
邪蒿	-11.8607
華陽國志	-11.8607
羅襪	-11.8608
布袋	-11.8608
健脾	-11.8608
珊珊	-11.8608
琲	-11.8608
辛巳	-11.8608
經冬不凋	-11.8608
驄	-11.8608
堵	-11.8608
搔首	-11.8609
􁅳	-11.8609
偹	-11.8609
樞密	-11.8609
郊廟	-11.8609
八九寸	-11.8609
劄	-11.8609
栘	-11.8609
揮麈	-11.861
司馬相如	-11.861
殽	-11.861
鹽豉	-11.861
長二寸許	-11.861
各切細	-11.861
曼陀羅	-11.861
御定佩文齋廣羣芳譜卷八十	-11.8611
皂莢	-11.8611
淆	-11.8611
史記貨殖	-11.8611
籖	-11.8611
說硯髙六寸	-11.8611
縐	-11.8611
遒	-11.8611
豈比夫	-11.8611
破癥瘕	-11.8611
陸羽茶經	-11.8611
辛卯	-11.8612
滌煩	-11.8612
揺蕩	-11.8612
梁武	-11.8612
涪陵	-11.8612
梳洗	-11.8612
雕欄	-11.8612
明王世貞	-11.8612
榿木	-11.8612
翠鈿	-11.8612
纜	-11.8613
北壁石	-11.8613
縉紳	-11.8613
宫闕	-11.8613
鍜	-11.8613
元寳錢	-11.8614
結茅	-11.8614
豆腐	-11.8614
唐孟郊	-11.8614
髦	-11.8614
湮	-11.8614
石産土中	-11.8614
龍團勝雪	-11.8614
琨	-11.8614
瑞雲翔龍	-11.8614
金盞銀臺	-11.8614
趙嘏	-11.8614
鼐	-11.8614
元劉詵	-11.8614
瓶花譜	-11.8614
爭春	-11.8615
准	-11.8615
昭烈	-11.8615
别墅	-11.8615
安五臟	-11.8615
佇立	-11.8615
白沙糖	-11.8615
縷縷	-11.8616
丰茸	-11.8616
團扇	-11.8617
霹靂	-11.8617
左紐	-11.8617
凸起	-11.8617
香薷	-11.8617
漢東方朔七	-11.8617
采薇	-11.8617
扶竹	-11.8617
几席	-11.8618
麝香半錢	-11.8618
寞	-11.8618
鄊	-11.8618
肘後	-11.8618
箘簵	-11.8618
明州黄	-11.8618
燈籠	-11.8618
雕鐫	-11.8619
大觀茶論	-11.8619
治金瘡	-11.8619
潘谷	-11.8619
天竺國	-11.8619
貨布	-11.8619
謗	-11.8619
范村	-11.862
續博物志	-11.862
飲饌	-11.862
神農氏	-11.8621
朱欒	-11.8621
提刑	-11.8621
故字從	-11.8621
檠	-11.8622
奉勅	-11.8622
斜暉	-11.8622
明沈周	-11.8623
棊	-11.8623
晉武帝	-11.8623
宋唐庚	-11.8624
瓊瑤	-11.8624
壯士	-11.8625
滋蔓	-11.8625
苯	-11.8625
臯盧	-11.8625
拂手香	-11.8625
補虛	-11.8626
隔簾	-11.8626
雕盤	-11.8626
滴乳香	-11.8627
淞江	-11.8627
盈筐	-11.8627
深閨	-11.8627
術士	-11.8628
荷鋤	-11.8628
巉	-11.8628
丹墀	-11.8629
陶𢎞景云	-11.863
三閭	-11.863
瞻彼	-11.863
鞠衣	-11.863
晏殊	-11.8631
浥露	-11.8631
飄揚	-11.8631
莊周	-11.8631
􁘥	-11.8632
蜀岡	-11.8632
唐李賀	-11.8632
蜜脾	-11.8632
甘㫖	-11.8633
乙未	-11.8634
敲門	-11.8634
閱世	-11.8634
古貝	-11.8634
朱唇	-11.8634
重複	-11.8635
鶴林	-11.8635
雞犬	-11.8636
張緒	-11.8636
宋景文詩	-11.8636
厥包	-11.8636
建炎	-11.8636
七椀	-11.8637
灑掃	-11.8637
筆格	-11.8637
元亮	-11.8637
鼊	-11.8637
玊液	-11.8637
畫屏	-11.8638
諸番	-11.8638
䕶持	-11.8638
孫炎	-11.8639
紫宸	-11.8639
二十餘年	-11.8639
能識	-11.8641
乳母	-11.8641
杜仲	-11.8641
吹笛	-11.8641
蟬鳴	-11.8642
潤燥	-11.8643
東臯	-11.8643
每斤	-11.8643
戲蝶	-11.8644
出大食國	-11.8644
桑榆	-11.8645
御苑	-11.8645
芳樽	-11.8645
溪澗中	-11.8646
標竒	-11.8646
士衡	-11.8646
劒南	-11.8646
落暉	-11.8647
靈液	-11.8647
樵夫	-11.8647
剡溪	-11.8647
低田	-11.8647
刈麥	-11.8648
枯腸	-11.8648
瑤華	-11.8649
太傅	-11.865
大笑菊	-11.8651
苦澀	-11.8653
蜂蜜	-11.8654
千鍾	-11.8654
四隅	-11.8654
河橋	-11.8655
怪底	-11.8655
虞集	-11.8655
海㯶	-11.8655
者多矣	-11.8655
詎能	-11.8655
經營	-11.8656
曬乾收	-11.8656
勸君	-11.8657
峽州	-11.8658
塵外	-11.8659
晨興	-11.866
勁質	-11.8661
臘前	-11.8662
畫船	-11.8664
誰敢	-11.8664
織錦	-11.8664
季冬	-11.8664
土脈	-11.8665
下痢	-11.8666
蜀川	-11.8666
騎馬	-11.8666
研磨	-11.8666
尤忌	-11.8667
元旦	-11.8667
劈開	-11.8667
翦翦	-11.8668
煙椀	-11.8668
輝光	-11.8669
不寐	-11.8669
各半錢	-11.8669
蝶舞	-11.867
蠶沙	-11.867
賞玩	-11.8671
老叟	-11.8671
鈐寳二曰㑹心不逺曰徳充符	-11.8671
曹植	-11.8671
三賴	-11.8671
三月生苗	-11.8671
無疆	-11.8672
乳燕	-11.8673
痛飲	-11.8676
金箔	-11.8676
緑蘿	-11.8676
倚䦨	-11.8677
五百年	-11.8677
茂陵	-11.8677
等差	-11.8678
抽條	-11.8679
梅雨時	-11.8679
沙參	-11.8679
銀河	-11.868
折之有	-11.868
石竹花	-11.8681
曲禮	-11.8681
千金方	-11.8682
嗜酒	-11.8682
合璧	-11.8682
龍賔	-11.8684
泥塗	-11.8684
第六	-11.8684
大如升	-11.8684
丹葩	-11.8685
無迹	-11.8685
臘雪	-11.8685
簷前	-11.8686
儼然	-11.8687
梁苑	-11.8689
舒卷	-11.8689
洞房	-11.869
大槩	-11.8691
獨倚	-11.8692
千層	-11.8692
嬌艶	-11.8693
説文云	-11.8694
匡廬	-11.8694
氣味甘平無毒	-11.8694
未忍	-11.8694
武夷茶	-11.8694
出交趾	-11.8695
隰有	-11.8695
碧澗	-11.8698
晨起	-11.87
荒年	-11.87
松筠	-11.87
仲冬	-11.8701
雕龍	-11.8702
適口	-11.8702
宣和間	-11.8702
莫敢	-11.8704
晩霞	-11.8707
戊子	-11.8707
士庶	-11.8708
炎州	-11.8708
曹松	-11.8709
有時而	-11.871
海濵	-11.8711
供食	-11.8712
琴聲	-11.8712
宛在	-11.8712
般若	-11.8713
石斛	-11.8715
城市	-11.8715
嘉瓜	-11.8716
遺跡	-11.8716
滯氣	-11.8717
大將軍	-11.8719
林梢	-11.8719
唐叔	-11.872
永興	-11.872
芙蓉池	-11.872
溪邊	-11.8722
計其	-11.8722
澗谷	-11.8723
滿襟	-11.8724
料得	-11.8724
芳辰	-11.8724
蟠根	-11.8725
淡菜	-11.8726
海藻	-11.8726
連環	-11.8728
熬至	-11.8728
過墻	-11.8729
長柄	-11.873
荆公	-11.8731
冷齋	-11.8731
玉液	-11.8732
洞門	-11.8732
稻田	-11.8732
糞澆	-11.8734
浮沉	-11.8735
西苑	-11.8735
不黏	-11.8735
堅勁	-11.8735
何况	-11.8736
蔡公	-11.8737
只疑	-11.8738
遥知	-11.8739
庖人	-11.874
輕舟	-11.874
淡薄	-11.874
芒刺	-11.874
世說	-11.8741
他物	-11.8741
少卿	-11.8742
星星	-11.8743
臙脂染	-11.8743
不仕	-11.8743
赤黄色	-11.8743
胡僧	-11.8744
心胸	-11.8744
五十里	-11.8745
東湖	-11.8745
志士	-11.8746
只許	-11.8749
大如彈丸	-11.875
天旱	-11.875
来往	-11.875
不勝春	-11.8752
攜酒	-11.8752
伊洛	-11.8752
不活	-11.8754
兩京	-11.8754
清標	-11.8756
價重	-11.8757
若干	-11.8757
衛風	-11.8758
羣英	-11.8758
御柳	-11.8758
周密	-11.8759
味苦微寒無毒	-11.8759
殘英	-11.8759
千巖	-11.8759
順氣	-11.876
榛子	-11.8761
誰識	-11.8761
異鄉	-11.8763
貞元中	-11.8763
著述	-11.8764
廟中	-11.8764
與中國	-11.8765
幽徑	-11.8765
秋風起	-11.8767
玉簫	-11.8768
栗園	-11.8768
而賦之	-11.8769
花之冠	-11.8769
永安	-11.8769
髙架	-11.8769
堅貞	-11.8771
不妄	-11.8772
雨歇	-11.8775
湯米	-11.8776
夕隂	-11.8777
布右	-11.878
修篁	-11.8782
待冷	-11.8782
廟前	-11.8783
唐本草云	-11.8783
見示	-11.8785
砂石	-11.8786
佳處	-11.8788
召公	-11.8789
滿座	-11.8789
未之見	-11.8791
空腹	-11.8792
栽接	-11.8792
滁州	-11.8792
斗酒	-11.8793
醉眼	-11.8794
廟後	-11.8795
者為真	-11.8795
滿袖	-11.8796
况乃	-11.8796
詞臣	-11.8796
煎飲	-11.8797
氣息	-11.8799
要藥	-11.8801
歲貢	-11.8803
筆端	-11.8804
荔枝菊	-11.8805
蜀國	-11.8805
瑶草	-11.8806
清玩	-11.8807
建蘭	-11.8808
輕虚	-11.8809
官府	-11.881
古苔	-11.881
秋八月	-11.881
莫學	-11.881
夕露	-11.8812
拂衣	-11.8813
清暑	-11.8814
淡然	-11.8816
惟慶	-11.8816
六安	-11.882
海底	-11.882
殘陽	-11.882
荔挺	-11.8826
肉桂	-11.8826
清淚	-11.8827
金鼎	-11.8829
徧地	-11.883
階下	-11.883
尚帶	-11.8832
小吏	-11.8834
月明中	-11.8834
因依	-11.8835
冬青樹	-11.8835
鹽梅	-11.8837
封口	-11.8837
寧知	-11.8837
詩翁	-11.884
博望	-11.8842
萬㸃	-11.8844
吳門	-11.8847
别號	-11.8849
大厯	-11.885
素英	-11.8852
布衣	-11.8856
三年後	-11.8857
祥風	-11.8858
弱植	-11.886
肉味	-11.8861
莫問	-11.8865
謝安	-11.8866
遺我	-11.8869
巖穴	-11.887
辛辣	-11.887
寒氷	-11.887
生深山	-11.8871
郭璞注	-11.8871
太隂	-11.8873
漢末	-11.8874
吳江	-11.8875
古藤	-11.8876
疎林	-11.8877
隨手	-11.8878
亦呼為	-11.8879
袁州	-11.8879
宫柳	-11.8882
愁思	-11.8882
華屋	-11.8882
錢另研	-11.8882
油麻	-11.8884
藥品	-11.8885
用酵	-11.8886
神靈	-11.8887
青銅	-11.8887
玉杯	-11.8887
含烟	-11.889
魚尾	-11.8892
九月十月	-11.8895
榮華	-11.8896
小蒜	-11.8897
干霄	-11.8899
樓頭	-11.89
東堂	-11.89
餅餌	-11.89
嫩苗	-11.8902
兩邊	-11.8908
十二日	-11.8909
獨茂	-11.891
影動	-11.8911
直百	-11.8912
泉聲	-11.8913
一付	-11.8915
只因	-11.8918
左文	-11.8919
陸地	-11.8919
郊原	-11.8919
扶風	-11.8923
五加	-11.8924
洛水	-11.8924
祗應	-11.8924
坐看	-11.8925
芙蓉菊	-11.8926
遊客	-11.8926
逢春	-11.8929
終古	-11.8933
幾處	-11.8933
入鍋	-11.8936
去殻	-11.8937
月中桂	-11.8938
路逺	-11.8942
萬世	-11.8942
九仙	-11.8943
衣袂	-11.8946
六宫	-11.8947
皮赤	-11.8949
動植	-11.8949
通靈	-11.8951
載記	-11.8956
二月二日	-11.8958
諸藥	-11.8959
池中有	-11.896
晏子	-11.896
倚闌干	-11.8962
百世	-11.8966
未吐	-11.8967
一觴	-11.8971
方塘	-11.8974
殊勝	-11.8982
治中風	-11.8982
山館	-11.8982
陳藏噐曰生	-11.8988
麋鹿	-11.8988
終當	-11.899
腫痛	-11.8997
玉砌	-11.9
家語	-11.9001
命工	-11.9004
本草注云	-11.9006
白蓮花	-11.9016
冷熱	-11.9017
桂州	-11.9018
十卷	-11.9023
絶異	-11.9029
佳實	-11.9041
香乗卷十	-11.9044
醉翁	-11.9048
今歲	-11.9052
穆宗	-11.9052
兖	-11.9055
欽定四庫全書錢録卷	-11.9055
靈物	-11.906
剛柔	-11.906
青緑色	-11.9061
形制	-11.9072
道術	-11.9074
邑人	-11.9074
石崖	-11.9074
石上生	-11.9075
楚楚	-11.9075
東溪	-11.9077
皆可食	-11.9081
采蘋	-11.9081
横笛	-11.9092
莫比	-11.9092
㡬暇怡情曰得佳趣	-11.9099
柔莖	-11.9101
持贈	-11.9103
他種	-11.9106
第七	-11.9109
左丞	-11.9114
麥穗	-11.9124
隂翳	-11.9128
乾枯	-11.9138
日曝	-11.9143
宣和中	-11.9146
風浪	-11.9166
澤州	-11.9175
詎可	-11.9179
蔓生葉	-11.9206
古杉	-11.9209
鳥飛	-11.9211
而有毛	-11.9213
大如杯	-11.9219
經久	-11.9224
永年	-11.9232
月輪	-11.9235
彼美	-11.9236
梅聖俞詩	-11.9248
鴛鴦菊	-11.9248
我昔	-11.9253
水中多	-11.9258
凭欄	-11.927
雙魚	-11.927
厚一寸五分	-11.9284
雪浪	-11.929
知己	-11.9303
十四年	-11.9305
熟視	-11.9312
韻勝	-11.932
五月熟	-11.933
篛竹	-11.9334
受墨處橢圓	-11.9335
泥土	-11.9338
七月開花	-11.9338
如車輪	-11.934
比君子	-11.934
平陸	-11.9342
露滋	-11.9344
誰謂	-11.9353
稻熟	-11.9354
良夜	-11.9359
州皆有之	-11.9359
肉不可與	-11.9373
古井	-11.9382
洛陽城	-11.9387
煎服	-11.9392
西風吹	-11.9398
霞觴	-11.9398
芬郁	-11.94
黍米	-11.9402
風雷	-11.9404
草木疏	-11.9405
終南	-11.9408
雨滴	-11.9409
葉相對	-11.941
二月開花	-11.941
色黄白	-11.9415
似杏	-11.9424
有三稜	-11.9441
光瑩	-11.9441
家住	-11.9448
始終	-11.9451
隂凉	-11.9456
東京	-11.9456
仙女	-11.9464
瑶英	-11.9464
隔溪	-11.9471
滁	-11.9483
聖皇	-11.9485
清虚	-11.9494
一寸七分	-11.9499
心煩	-11.9503
𨽻書鈐寶	-11.9504
帝紀	-11.9505
柔桑	-11.9515
似栗	-11.9531
鐫御題詩一首	-11.9532
九夏	-11.9534
損傷	-11.9543
𨽻書鈐寳二曰乾隆御製題	-11.9546
光揺	-11.9557
南荒	-11.9564
率皆	-11.9565
玉膚	-11.9568
酒浸一宿	-11.9575
蘽	-11.958
羣玉	-11.958
真妃	-11.9581
月采隂乾	-11.9583
枝弱	-11.9583
湖廣	-11.9584
枝葉皆	-11.9588
肢	-11.959
中下氣	-11.96
暾	-11.9602
皮裹	-11.9606
曽坑	-11.9613
江岸	-11.9614
折贈	-11.9624
紙包	-11.9624
月採根	-11.963
凡二十	-11.9633
數次	-11.9634
梅花腦	-11.9638
葉圓而	-11.9648
水中石	-11.9649
朿	-11.9652
江浦	-11.9654
欖油	-11.9661
厦	-11.9662
平縣	-11.9665
两岐	-11.9667
硯背鐫	-11.9668
塵垢	-11.9669
鮬	-11.9671
鯋	-11.9671
為弓	-11.9672
冉	-11.9677
賈思勰	-11.9678
欽定西清硯譜卷十	-11.9679
篁竹	-11.9681
鯪	-11.9681
窊	-11.9681
蕪荑	-11.9682
橢	-11.9683
蓏	-11.9683
婺	-11.9684
劉向九歎	-11.9685
督郵	-11.9685
薯	-11.9686
襜	-11.9686
暵	-11.9687
宋史禮志	-11.9688
麈	-11.9688
疣	-11.9688
棒	-11.9688
鳬茈	-11.9689
豳風	-11.9689
渤海	-11.9689
詩周南	-11.969
鄴中記	-11.969
秦娥	-11.969
一類二種	-11.969
藐	-11.969
伶	-11.9691
葛藟	-11.9691
杴	-11.9692
蛇虺	-11.9692
璲	-11.9692
㠶	-11.9692
鸇	-11.9693
圻	-11.9693
兌	-11.9693
蘿菔	-11.9693
纏	-11.9693
二字方印一	-11.9693
𥙷益	-11.9693
白沙蜜	-11.9693
淛	-11.9693
􁫣	-11.9693
簳	-11.9694
驤	-11.9694
蔦	-11.9694
韋仲將	-11.9695
訥	-11.9695
高五六尺	-11.9695
陸璣	-11.9696
捍	-11.9696
陳江總	-11.9696
粱米	-11.9696
蠒	-11.9696
擂	-11.9696
膂	-11.9696
風寒濕痺	-11.9696
羯鼓	-11.9696
李夢陽	-11.9697
一騎紅塵	-11.9697
有細毛	-11.9697
鮭	-11.9697
濩	-11.9697
二曰幾暇怡情曰得佳趣	-11.9697
河朔	-11.9697
闍婆	-11.9697
屨	-11.9697
姙	-11.9697
王敬美	-11.9698
黼黻	-11.9698
宓	-11.9698
篷	-11.9698
唐彦謙	-11.9698
撃	-11.9698
莩	-11.9698
南齊書祥瑞志	-11.9698
咳	-11.9699
赤白痢	-11.9699
寨	-11.9699
㝠㝠	-11.9699
糁	-11.9699
泔	-11.9699
元王惲	-11.9699
周成王	-11.9699
枵	-11.9699
濾淨	-11.9699
慾	-11.97
米泔浸	-11.97
藾	-11.97
鵒眼	-11.97
級	-11.9701
楊巨源	-11.9701
詩召南	-11.9701
雍熙	-11.9701
煠熟	-11.9701
輻	-11.9701
狡	-11.9701
不住手攪	-11.9701
擒	-11.9701
明呉寛	-11.9701
蠏	-11.9701
面青背淡	-11.9701
堅剛	-11.9701
棖	-11.9701
閻	-11.9702
拘攣	-11.9702
堞	-11.9702
匣盖外鐫	-11.9702
漣漪	-11.9702
瀑	-11.9702
巖壑	-11.9702
噤	-11.9702
憫	-11.9703
御定佩文齋廣羣芳譜卷六十	-11.9703
揆	-11.9703
戴叔倫	-11.9703
裴廸	-11.9703
鯧	-11.9703
藙	-11.9703
甖	-11.9703
䔲	-11.9703
蒐	-11.9703
車轂	-11.9703
青葙	-11.9703
㟁	-11.9704
農桑通訣	-11.9704
贑	-11.9704
哆	-11.9705
宋劉筠	-11.9705
歸田録	-11.9705
咫	-11.9705
躅	-11.9705
壬申	-11.9705
􁗀	-11.9705
犖	-11.9705
尠	-11.9705
硯面正平	-11.9705
鬼督郵	-11.9705
月季	-11.9705
鳯咮	-11.9706
瞞	-11.9706
缷	-11.9706
滄洲	-11.9706
味苦無毒主	-11.9706
蛣	-11.9706
槲葉	-11.9706
禹錫	-11.9706
黟	-11.9706
芮	-11.9706
羊酪	-11.9706
方輿勝覽	-11.9706
滇池	-11.9706
䲛	-11.9707
肺腑	-11.9707
靈椿	-11.9707
蒯	-11.9707
影揺	-11.9707
霜天曉	-11.9707
芉	-11.9707
涿	-11.9707
纚	-11.9707
籞	-11.9707
緊	-11.9707
炤	-11.9707
蔀	-11.9707
屣	-11.9708
楊基	-11.9708
劉長卿	-11.9708
罟	-11.9708
辛亥	-11.9708
味甘無毒	-11.9708
泖	-11.9709
鏃	-11.9709
瀰	-11.9709
瓊玖	-11.9709
廣輿記	-11.9709
味甘温無毒主	-11.9709
絹袋盛	-11.9709
范文正公	-11.971
糯米粉	-11.971
刹	-11.971
眇	-11.971
顛倒	-11.971
唐觀象硯	-11.971
玦	-11.971
郤	-11.971
澄懐錄	-11.971
蘼	-11.971
崦	-11.971
髙觀國	-11.971
㶚橋	-11.971
奶	-11.971
鮆	-11.971
罾	-11.9711
覈	-11.9711
蜡	-11.9711
刑部	-11.9711
乳酪	-11.9711
滄溟	-11.9711
鶴膝	-11.9711
唐彦猷	-11.9711
綯紋	-11.9711
職貢	-11.9711
槌碎	-11.9711
異魚圖贊箋	-11.9711
鄭樵通志	-11.9711
消癰腫	-11.9711
諡	-11.9712
驀山溪	-11.9712
亶	-11.9712
磁罐	-11.9712
范成大次韻	-11.9712
浡	-11.9712
矯矯	-11.9712
腰痛	-11.9712
崕	-11.9712
金光明經謂之	-11.9712
宋史藝文志	-11.9712
菴䕡	-11.9712
𦍑	-11.9712
仿宋玉兔朝元硯	-11.9712
生施州	-11.9712
狙	-11.9713
嬌嬈	-11.9713
舁	-11.9713
隨見録	-11.9713
亹亹	-11.9713
豎	-11.9713
靈沼	-11.9714
纑	-11.9714
扎	-11.9714
鰾	-11.9714
榝	-11.9714
濂	-11.9714
爐烟	-11.9714
長三寸許	-11.9714
灰燼	-11.9714
水葒	-11.9714
瞭	-11.9714
蛸	-11.9714
有白茸	-11.9714
滿江紅	-11.9714
邽	-11.9714
紿	-11.9715
起居注	-11.9715
五臓	-11.9715
晉傅𤣥	-11.9715
莊嚴	-11.9715
晁氏	-11.9715
厴	-11.9715
按爾雅	-11.9715
匏瓜	-11.9716
梁昭明太子錦	-11.9716
餔	-11.9716
䱟	-11.9716
塚	-11.9716
誨	-11.9716
梁國治	-11.9716
癸酉	-11.9716
貽我	-11.9716
秦隴	-11.9716
彦周詩話	-11.9716
刄	-11.9716
李建勲	-11.9716
耆舊傳	-11.9716
唐八稜澄泥硯	-11.9716
酎	-11.9717
摺	-11.9717
牡桂	-11.9717
唐蔆鏡硯	-11.9717
􁎐􁎐	-11.9717
泮	-11.9717
六品四命	-11.9717
林藪	-11.9717
西畨	-11.9717
厚腸胃	-11.9717
塍	-11.9717
笳	-11.9717
絆	-11.9717
鴻鵠	-11.9718
乾隆宸翰	-11.9718
褫	-11.9718
春渚紀聞	-11.9718
磐	-11.9718
張昱	-11.9718
其詞曰	-11.9718
瀟瀟	-11.9718
惶	-11.9718
斲	-11.9719
傾筐	-11.9719
裨	-11.9719
貿易	-11.9719
蒙茸	-11.9719
杰	-11.9719
棬	-11.9719
泐	-11.9719
陁	-11.9719
頎	-11.9719
菟	-11.9719
銀塘	-11.9719
萬花谷	-11.972
典術	-11.972
崔嵬	-11.972
峯頂	-11.972
陽羨	-11.972
渺渺	-11.972
籥	-11.972
蝎	-11.972
兎毛	-11.972
朧	-11.972
李孝光	-11.972
弋	-11.972
綦	-11.972
苞苴	-11.972
季卿	-11.972
灼爍	-11.972
商賈	-11.972
鵒	-11.972
陸務觀	-11.972
墮胎	-11.9721
笮	-11.9721
清泉白石	-11.9721
脰	-11.9721
俱有剥蝕	-11.9721
說硯髙三寸	-11.9721
熒	-11.9721
煼	-11.9721
金漳蘭譜	-11.9721
菰蒲	-11.9721
為中時	-11.9722
后稷	-11.9722
汲汲	-11.9722
星槎	-11.9722
潘郎	-11.9722
嫋	-11.9722
開寶本草	-11.9722
潁川	-11.9722
庾信	-11.9722
楊柳枝詞	-11.9722
梁詩正銘	-11.9722
慘淡	-11.9722
歐陽文忠	-11.9722
浮屠	-11.9722
藏鴉	-11.9722
輯	-11.9722
麽	-11.9722
記事珠	-11.9723
駞	-11.9723
謝肇淛	-11.9723
北苑别録	-11.9723
青桂香	-11.9723
鼂	-11.9723
浸三日	-11.9724
本草圗經曰	-11.9724
候補主事陸廷燦撰	-11.9724
債	-11.9725
鳶尾	-11.9725
苕溪	-11.9725
彤庭	-11.9725
陶商翁詩	-11.9725
埋地中	-11.9725
縞袂	-11.9725
兠婁	-11.9725
正月二月	-11.9726
駢羅	-11.9726
縞衣	-11.9726
鱠殘	-11.9726
禮斗威儀	-11.9726
扣之聲	-11.9726
堠	-11.9726
雕鏤	-11.9726
遭逢	-11.9726
褒姒	-11.9727
精緻	-11.9727
稿	-11.9727
搘	-11.9728
遮䕶	-11.9728
蒳	-11.9728
寖	-11.9728
銅雀臺	-11.9728
唐孟浩然	-11.9729
范蠡	-11.9729
怡神	-11.9729
周匝	-11.9729
廷珪墨	-11.9729
宋張舜民	-11.9729
綺席	-11.9729
荆揚	-11.9729
艾納	-11.9729
疴	-11.973
𤨏碎	-11.973
凖擬	-11.973
宻雲龍	-11.973
縂	-11.973
鍑	-11.9731
嶮	-11.9731
徐致中	-11.9731
李山甫	-11.9731
簫管	-11.9731
蒙籠	-11.9731
擢穎	-11.9731
潛確類書	-11.9731
岷山	-11.9731
北山酒經	-11.9731
萑葦	-11.9732
戊申	-11.9732
睢	-11.9732
琢為硯	-11.9732
顧烜	-11.9732
竟陵	-11.9733
三佛齊國	-11.9733
蜀黍	-11.9734
叩頭	-11.9734
介甫	-11.9734
泠然	-11.9735
伏惟陛下	-11.9735
遙知	-11.9735
寳髻	-11.9735
味辛温無毒主	-11.9735
枯槎	-11.9735
非人力	-11.9736
柴門	-11.9736
侵晨	-11.9736
嫓	-11.9736
六畜	-11.9736
龜蛇	-11.9736
衣襟	-11.9737
置几案間	-11.9737
貞觀中	-11.9737
沈檀	-11.9737
踈寮詩	-11.9737
宋蘓軾	-11.9738
葵藿	-11.9738
丹霄	-11.9738
轉運	-11.9738
威鳳	-11.9738
筋力	-11.9738
李廷珪墨	-11.9738
雍容	-11.9739
二三月間	-11.9739
采掇	-11.9739
王子猷	-11.974
蘇魏公	-11.974
浮水面	-11.974
莆陽	-11.974
𧖟豆	-11.9741
村村	-11.9741
嵗晏	-11.9741
曖	-11.9742
松化石	-11.9742
津津	-11.9742
無一事	-11.9743
枯燥	-11.9744
莫測	-11.9745
五臺山	-11.9746
倚䦨干	-11.9746
晴晝	-11.9747
貫衆	-11.9747
玉盤盂	-11.9747
賔主	-11.9748
荔子丹	-11.9748
雲屯	-11.9748
大鈞	-11.9748
何暇	-11.9749
闕里	-11.9749
鬢絲	-11.9749
羊脂	-11.975
痰飲	-11.975
㣲炒	-11.975
兩浙	-11.975
謝豹	-11.9751
養蠶	-11.9751
慿君	-11.9751
伯揚	-11.9751
貝母	-11.9752
和靖	-11.9752
葉顒	-11.9752
金櫻	-11.9753
浄洗	-11.9754
邀客	-11.9754
翦刀	-11.9754
麥隴	-11.9754
醅面	-11.9755
欄邊	-11.9755
鑄大錢	-11.9755
私第	-11.9756
貨泉	-11.9756
紙糊	-11.9758
湘湖	-11.9758
萐莆	-11.9759
東坡先生	-11.9759
其辭曰	-11.9759
輕健	-11.976
膠漆	-11.976
鼻端	-11.9761
交錯	-11.9761
潔淨	-11.9762
夷陵	-11.9763
湖邊	-11.9763
剔去	-11.9764
豫樟	-11.9764
篩過	-11.9764
五穀	-11.9764
吳融	-11.9765
泛舟	-11.9765
冬至後	-11.9765
寓居	-11.9765
千齡	-11.9765
玉川子	-11.9765
鍋中	-11.9766
蕉葉白	-11.9766
古今注云	-11.9767
曲欄	-11.9767
一勺	-11.9768
餘姚	-11.9768
玉局	-11.9768
消榖	-11.9768
陸龜蒙詩	-11.9769
江臯	-11.977
餐英	-11.977
昊天	-11.9771
當十錢	-11.9771
化爲	-11.9771
盧氏	-11.9771
洪譜	-11.9771
阿母	-11.9772
脂膏	-11.9773
慰我	-11.9773
収藏	-11.9773
誰肯	-11.9773
御製詠	-11.9773
擅美	-11.9775
獸面	-11.9775
吟罷	-11.9775
蝦蟹	-11.9775
二十四年	-11.9776
賢良	-11.9776
龍爪	-11.9776
仙壇	-11.9776
羅袖	-11.9777
佳辰	-11.9777
前輩	-11.9777
厯代	-11.9778
解酲	-11.9778
季夏	-11.9779
濁酒	-11.9779
谷口	-11.9779
考證	-11.978
史鑄	-11.978
南州記	-11.978
北渚	-11.9782
持杯	-11.9782
燕支	-11.9783
濃妝	-11.9783
第九	-11.9783
種蒔	-11.9783
貞姿	-11.9784
酒䦨	-11.9786
述異	-11.9786
吳寛	-11.9786
隆起	-11.9786
幽蘭賦	-11.9786
菱歌	-11.9787
不可缺	-11.9788
百倍	-11.9788
消磨	-11.9789
江東呼為	-11.9789
拒霜花	-11.979
說文云	-11.979
秘書	-11.979
豈敢	-11.9791
雜說	-11.9792
檀香二兩	-11.9792
恍然	-11.9792
宮殿	-11.9792
吾閩	-11.9793
甘液	-11.9794
聖夀	-11.9794
洪氏	-11.9795
羽盖	-11.9795
薄霧	-11.9795
滇中	-11.9796
雙井	-11.9796
三之一	-11.9797
相妬	-11.9799
麥粒	-11.9799
比丘	-11.98
依約	-11.98
許昌	-11.98
鯪魚	-11.9801
卷舒	-11.9801
瞳子	-11.9801
執筆	-11.9802
正值	-11.9802
一兩三錢	-11.9802
碧蘆	-11.9803
擢本	-11.9803
粉痕	-11.9803
飄泊	-11.9804
宣賜	-11.9804
祖氏	-11.9805
海錯	-11.9806
殘妝	-11.9809
誰遣	-11.9809
絶頂	-11.981
東鄰	-11.981
折腰	-11.9811
濃艶	-11.9811
麥苖	-11.9811
素壁	-11.9811
蘆筍	-11.9813
巖谷	-11.9814
旋摘	-11.9814
公私	-11.9814
范公	-11.9815
紫柰	-11.9816
楸樹	-11.9816
為枳	-11.9817
西洛	-11.9817
蠶桑	-11.9818
白苧	-11.9818
徳夀	-11.9819
右件同	-11.9819
登盤	-11.982
相扶	-11.9821
徐氏	-11.9821
㡬許	-11.9822
列星	-11.9822
意緒	-11.9822
譏其	-11.9823
垂䕃	-11.9823
一碗	-11.9824
義興	-11.9825
西郊	-11.9826
登臨	-11.9826
流泉	-11.9826
遶籬	-11.9826
五七日	-11.9826
豈徒	-11.9826
以上俱	-11.9826
初出時	-11.9827
留夷	-11.9827
臨海水	-11.9828
竒特	-11.9828
牡丹芍藥	-11.9828
姿容	-11.9829
素琴	-11.9829
光耀	-11.983
金堤	-11.983
母丁香	-11.983
華嚴	-11.983
列宿	-11.9831
園葵	-11.9831
金罍	-11.9832
赤者為	-11.9833
芳烈	-11.9833
牆頭	-11.9834
念此	-11.9834
百二十	-11.9835
大金黄	-11.9836
氣味苦寒無毒治	-11.9837
聖澤	-11.9837
數斗	-11.9838
劉兼	-11.9839
徑斜	-11.9839
鹽醋	-11.9839
含滋	-11.9839
絲瓜	-11.9839
難窮	-11.984
孰知	-11.9842
晚凉	-11.9845
迎春花	-11.9845
紅臉	-11.9846
醉卧	-11.9846
紛華	-11.9847
輩皆	-11.9848
恩光	-11.9849
具足	-11.9849
不可乆	-11.9849
昭君	-11.9852
遂愈	-11.9854
樝子	-11.9854
雜説	-11.9854
蒸濕	-11.9856
高宗	-11.9857
好風吹	-11.9859
清明日	-11.986
嵗乆	-11.9863
玉衡	-11.9864
絶榖	-11.9864
官焙	-11.9864
無妨	-11.9866
霧露	-11.9867
南風吹	-11.9868
郊行	-11.9869
雲液	-11.987
紀年	-11.9871
蒸煮	-11.9872
早稻	-11.9872
成毬	-11.9874
當暑	-11.9874
吟詠	-11.9875
石臼	-11.9875
五六日	-11.9876
孤秀	-11.9877
正圎	-11.9878
交映	-11.9878
商州	-11.9879
露浥	-11.9879
墨苑	-11.988
才思	-11.9881
蠶豆	-11.9882
廣韻	-11.9883
徳殿	-11.9883
肥潤	-11.9883
神龜	-11.9884
清烈	-11.9884
嘉興	-11.9884
辛未	-11.9884
翠籠	-11.9885
一統	-11.9886
相招	-11.9886
胡粉	-11.9886
往事	-11.9887
曾經	-11.9888
池邉	-11.9891
自媚	-11.9892
紀事	-11.9893
則不生	-11.9893
燒烟	-11.9895
遂寧	-11.9896
黄赤色	-11.9896
更鑄	-11.9897
未了	-11.9897
露晞	-11.9898
禁林	-11.99
却疑	-11.9901
十有五	-11.9903
彌月	-11.9903
伊何	-11.9907
嘉麥	-11.9908
西齋	-11.9909
高麗	-11.9911
澧	-11.9912
二三分	-11.9915
糟蟹	-11.9915
靈芽	-11.9916
坐待	-11.9916
鐵脚	-11.9917
青萍	-11.9917
緑萼	-11.9919
玉燭	-11.9919
五彩	-11.992
三月四月	-11.9921
崇文	-11.9922
忘言	-11.9923
惜乎	-11.9923
拂面	-11.9924
芝菌	-11.9927
北嶺	-11.9929
國史	-11.993
向人間	-11.993
玉佩	-11.9932
蜀志	-11.9933
寳珠	-11.9933
嶧山	-11.9934
沙溪	-11.9935
滿庭芳	-11.9938
要須	-11.9939
臈	-11.994
脹滿	-11.9941
是編	-11.9943
圗經	-11.9944
萬絲	-11.9944
山莊	-11.9945
平湖	-11.9948
清晝	-11.9951
麗景	-11.9951
薄切	-11.9952
携酒	-11.9956
所有者	-11.9956
鳯凰山	-11.9958
大窠	-11.9959
叢薄	-11.996
匠人	-11.9961
聲價	-11.9964
所不及	-11.9968
帝鄉	-11.9968
撲損	-11.997
雨初晴	-11.997
一撮	-11.9971
鱗鬛	-11.9975
銀器	-11.9977
焜	-11.998
其法用	-11.9983
三四日	-11.9984
拾得	-11.9984
梧葉	-11.9986
三沸	-11.9994
葉似杏	-11.9996
佛寺	-11.9997
陶公	-11.9999
郡圃	-12.0007
絶代	-12.001
虚熱	-12.0011
煑茗	-12.0012
鏡湖	-12.0014
似嫌	-12.0024
所嗜	-12.0037
匣盖並鐫是銘𨽻書鈐寳	-12.0041
郁郁	-12.0047
之類皆	-12.0049
不奈	-12.005
廬州	-12.0055
極大者	-12.0058
馬蹄香	-12.0065
瓮中	-12.0076
吹沙	-12.0081
避秦	-12.0081
國夫人	-12.0083
日炙	-12.0084
浸漬	-12.0086
汾水	-12.0088
有鋸齒	-12.0097
必死	-12.01
湯沐浴	-12.0116
武陵溪	-12.0125
上方側鐫御題詩一首楷書鈐寳	-12.0128
不竭	-12.0132
代祖	-12.0133
形勢	-12.0137
低拂	-12.0146
也右一品	-12.0147
妝鏡	-12.0165
不失其	-12.0166
一百三十	-12.0171
不可致	-12.0175
所無也	-12.0178
瑩潤	-12.0188
坐久	-12.0189
芝草生	-12.0205
榖雨前	-12.0211
雨滋	-12.0212
翦刻	-12.0215
自矜	-12.0236
碩大	-12.024
心肺	-12.0243
笛吹	-12.0243
郭璞江賦	-12.0256
尤良	-12.0258
辛温無毒	-12.0263
過重陽	-12.0267
華髪	-12.0272
紗籠	-12.0274
背上有	-12.0277
芸草	-12.0286
煙霧	-12.029
洞庭霜	-12.032
玉玲瓏	-12.0324
南窓	-12.033
紅繡毬	-12.0342
蜜房	-12.0346
浪翻	-12.0379
蜀椒	-12.0383
請君	-12.0385
麴末	-12.0387
器具	-12.0394
莖短	-12.0399
人捕	-12.0405
結實大如	-12.0418
竹塢	-12.0419
具列	-12.0423
悲秋	-12.0433
十九年	-12.0446
諒無	-12.0448
枯松	-12.045
今歳	-12.0465
如有意	-12.0482
弇山	-12.0484
椒桂	-12.0488
陳藏噐曰	-12.0488
五月六月	-12.049
雨打	-12.0491
蘇恭曰此	-12.0492
上方側鐫	-12.0512
那可	-12.0569
十八年	-12.0572
邦人	-12.0589
最精	-12.0601
搗為末	-12.0604
者為最	-12.0625
淡蕩	-12.0646
墜露	-12.0657
饀	-12.066
酸澀	-12.0663
沾衣	-12.0667
池澤	-12.067
江濵	-12.0675
樹連理	-12.0686
上方刻	-12.069
鐫御題銘一首	-12.0703
神農本草	-12.0705
秦皇	-12.0711
麝香檀	-12.0721
孔子曰	-12.0723
剉細	-12.0751
花鈿	-12.079
精巧	-12.0796
旃	-12.0832
寸有半	-12.0832
所資	-12.0834
苒弱	-12.0841
山其上多	-12.0859
蓬蓬	-12.0882
沉香半兩	-12.0905
十一字	-12.0906
鹺	-12.0909
惰	-12.0911
内府舊藏	-12.0913
空心食之	-12.0915
罡	-12.0917
黟歙	-12.0918
􁑀	-12.0918
禹餘糧	-12.0918
􁵂	-12.0919
回回豆子	-12.0921
腸澼	-12.0924
之山有草焉其狀如	-12.0926
延年益夀	-12.0926
沈佺期	-12.0926
鄆	-12.0927
忒	-12.0928
悸	-12.0928
丹鉛錄	-12.0929
獵獵	-12.0929
鳯仙花	-12.093
飲膳正要	-12.093
磑	-12.093
張衡南都賦	-12.0931
夏侯湛	-12.0932
藜羮	-12.0932
沚	-12.0932
麾	-12.0933
右件一同熬成	-12.0933
明高啓	-12.0933
桋	-12.0933
来牟	-12.0934
毯	-12.0934
狩	-12.0934
薐	-12.0934
蓐	-12.0935
纂纂	-12.0935
元許有壬	-12.0935
皓齒	-12.0935
趙孟頫	-12.0936
生熟皆可食	-12.0936
䵟	-12.0936
檖	-12.0936
狥	-12.0937
穡	-12.0938
大泉五十	-12.0938
嵯峨	-12.0938
氣不足	-12.0938
喊	-12.0939
隘	-12.0939
曬乾收貯	-12.094
萇	-12.094
塩調和	-12.094
生江湖中	-12.094
慷慨	-12.094
敕	-12.0941
梣	-12.0941
臨海異物志	-12.0941
郄	-12.0941
􁇪	-12.0941
憨	-12.0941
襞	-12.0941
𧖟	-12.0942
恢	-12.0942
飰	-12.0942
阡	-12.0942
押	-12.0942
樽俎	-12.0943
陟釐	-12.0943
透風處	-12.0943
赫赫	-12.0943
蒙恬	-12.0943
味甘寒無毒	-12.0943
闞	-12.0943
牛妳子	-12.0943
白頭翁	-12.0943
璉	-12.0944
輅	-12.0944
淖	-12.0944
鰣	-12.0944
鄭氏允端	-12.0944
鶴林玉露	-12.0944
元方䕫	-12.0944
滔	-12.0944
弩	-12.0945
傚	-12.0945
町	-12.0945
宋謝靈運	-12.0945
穩	-12.0945
乙丑	-12.0945
凡采得	-12.0945
撇	-12.0945
袁桷	-12.0945
椅	-12.0946
毫芒	-12.0946
阡陌	-12.0946
撑	-12.0946
酤	-12.0946
銓	-12.0946
碕	-12.0946
佯	-12.0946
李覯	-12.0946
南州異物志	-12.0947
佺	-12.0947
碍	-12.0947
泉南雜志	-12.0947
在處有之	-12.0948
懌	-12.0948
楚屈原九	-12.0948
貸	-12.0948
届	-12.0948
山家清供	-12.0948
膨	-12.0948
氣味苦微寒無毒治	-12.0948
娠	-12.0948
轄	-12.0949
碧梧	-12.0949
兔絲	-12.0949
煕	-12.0949
阮郎	-12.0949
翕赩	-12.0949
鎪	-12.0949
嫵	-12.0949
有大小二種	-12.095
簩	-12.095
五榖之長	-12.095
焯過	-12.095
前件	-12.095
館娃	-12.095
方寸匕	-12.095
鯼	-12.095
塑	-12.095
㵎	-12.095
巫峽	-12.095
畮	-12.095
詩鄭風	-12.0951
凟	-12.0951
北户錄	-12.0951
瞬	-12.0951
開元通寶	-12.0951
瑗	-12.0951
飀	-12.0952
眎	-12.0952
潘岳閒居賦	-12.0952
枯瘁	-12.0952
蜯	-12.0952
聖俞	-12.0952
恊	-12.0952
田園雜興	-12.0952
麻九疇	-12.0952
荷芰	-12.0952
厮	-12.0952
頻婆	-12.0952
譜二卷	-12.0953
煿	-12.0953
昭陽殿	-12.0953
薛蕙	-12.0953
渦	-12.0953
紡績	-12.0953
抺	-12.0953
宋鮑照	-12.0954
鏞	-12.0954
筅	-12.0954
宿酲	-12.0954
舟楫	-12.0954
及奔馬	-12.0954
富鄭公	-12.0954
儲光羲	-12.0954
炒葱塩醋調和	-12.0954
濁醪	-12.0954
虞衡志	-12.0954
瀰漫	-12.0954
碌碌	-12.0954
屎	-12.0955
錦䙀	-12.0955
筋脈	-12.0955
涏	-12.0955
芄	-12.0955
翺翔	-12.0956
婦人血氣	-12.0956
提攜	-12.0956
畎	-12.0956
令人肥健	-12.0956
廖	-12.0956
韓魏公	-12.0956
嶰	-12.0956
勛	-12.0956
宋張鎡	-12.0956
籯	-12.0956
晉左思蜀都賦	-12.0956
沾濡	-12.0956
榛莽	-12.0956
䧏	-12.0956
楊國忠	-12.0957
郫	-12.0957
任昉	-12.0957
甍	-12.0957
繢	-12.0957
晾乾	-12.0957
㓨	-12.0957
中和節	-12.0957
鱭	-12.0957
櫂	-12.0957
廷燦	-12.0958
鱏	-12.0958
弛	-12.0958
涵星	-12.0958
啜茗	-12.0958
講筵	-12.0958
金李俊民	-12.0958
雕胡	-12.0958
汎汎	-12.0958
枸骨	-12.0958
蘇文忠	-12.0958
坳	-12.0958
屩	-12.0958
緩緩	-12.0959
明袁凱	-12.0959
炰	-12.0959
韡韡	-12.0959
爕	-12.0959
䔩	-12.0959
恵山泉	-12.0959
甜如蜜	-12.0959
詩弼風	-12.0959
妃子笑	-12.0959
逖	-12.0959
黃疸	-12.0959
右方鐫	-12.0959
冬夏常青	-12.0959
鬱鬯	-12.096
卅	-12.096
元耶律楚材	-12.096
王沂孫	-12.096
僧北澗	-12.096
玉斚	-12.096
唘	-12.096
懲	-12.096
棐几	-12.096
捻作餅子	-12.096
适	-12.0961
䧟	-12.0961
湘娥	-12.0961
古今詩話	-12.0961
猪糞	-12.0961
媸	-12.0961
薦宗廟	-12.0961
􁇩	-12.0961
悍	-12.0961
鋩	-12.0961
鎌	-12.0961
黄疸	-12.0961
齊東野語	-12.0961
和作餅子	-12.0961
弟兄	-12.0961
慢火煮	-12.0961
倪瓉	-12.0961
大如拇指	-12.0961
徐渭	-12.0961
羸瘦	-12.0961
醮	-12.0961
惋	-12.0961
瘢	-12.0961
悁	-12.0962
痞	-12.0962
掃帚	-12.0962
儗	-12.0962
禳	-12.0962
噓	-12.0962
舊阬	-12.0962
二月生苖	-12.0963
淬	-12.0963
晉書樂志	-12.0963
强健	-12.0963
昴	-12.0963
𦕈	-12.0963
蔓衍	-12.0963
黎峒	-12.0963
史正志	-12.0963
鏨	-12.0963
屠本畯	-12.0963
氣味辛平無毒治	-12.0963
建安十五年	-12.0963
貿	-12.0963
依韻和	-12.0964
忱	-12.0964
鷁	-12.0964
耿介	-12.0964
玉照堂	-12.0964
怖	-12.0964
懃	-12.0964
㰖	-12.0964
宋宣和梁苑雕龍硯	-12.0964
五雜組	-12.0964
鬖	-12.0965
潏	-12.0965
治消渇	-12.0965
壬辰	-12.0965
李珣曰	-12.0965
今所收	-12.0965
性畏寒	-12.0965
轉運使	-12.0965
狼毒	-12.0965
彭螖	-12.0965
言絶句	-12.0965
兩三莖	-12.0965
宋徐積	-12.0965
葱蘢	-12.0965
酡顔	-12.0965
閴	-12.0965
潢	-12.0965
回鶻	-12.0966
洽聞記	-12.0966
柈	-12.0966
魏明帝	-12.0966
卭州	-12.0966
最易生	-12.0966
管領	-12.0966
寢廟	-12.0966
浩浩	-12.0966
吼	-12.0966
􁊨	-12.0966
漈	-12.0966
蓺	-12.0966
缾花譜	-12.0966
頺	-12.0967
枕簟	-12.0967
騏	-12.0967
鵑	-12.0967
晾	-12.0967
壬寅	-12.0967
旛	-12.0967
叢篁	-12.0967
側理為之	-12.0967
禪榻	-12.0967
參寥	-12.0967
嶙峋	-12.0967
而狹長	-12.0967
流涕	-12.0968
郴	-12.0968
桀	-12.0968
王不留行	-12.0968
枻	-12.0968
銹	-12.0968
丁晉公	-12.0968
笴	-12.0968
繕	-12.0968
僧仲殊	-12.0969
悚	-12.0969
諸惡瘡	-12.0969
顱	-12.0969
杜子美	-12.0969
譁	-12.0969
貨賣	-12.0969
説硯髙四寸	-12.0969
鵲卵	-12.0969
舊坑端石	-12.0969
􁬡	-12.0969
香乘卷	-12.0969
腦麝少許	-12.097
分厚七分	-12.097
祟	-12.097
渌	-12.097
㣲凹	-12.097
罽賓	-12.097
脞	-12.097
謝應芳	-12.097
壬午	-12.097
屧	-12.097
右爲細末	-12.097
銀硃	-12.097
鱊	-12.097
僭	-12.097
篻	-12.097
孕婦	-12.097
辛勤	-12.0971
䱇	-12.0971
金鞍	-12.0971
甚夥	-12.0971
蹙縮	-12.0971
鉢内研	-12.0971
來鵬	-12.0972
辟蠧	-12.0972
呉融	-12.0972
堅韌	-12.0972
羲皇	-12.0972
車螯	-12.0972
㶚陵	-12.0972
櫸	-12.0972
毒腫	-12.0972
美人蕉	-12.0972
枳殻	-12.0972
甆噐	-12.0973
丙穴	-12.0973
元李孝光	-12.0973
海鰌	-12.0973
太倉	-12.0973
姣	-12.0973
翼翼	-12.0973
葇	-12.0973
豆荚	-12.0973
匙頭	-12.0974
菝	-12.0974
張祥鳶	-12.0974
謝翺	-12.0974
傅咸	-12.0974
碪	-12.0974
琉球	-12.0974
景龍文館	-12.0974
張祜	-12.0974
止霍亂	-12.0974
杷	-12.0974
䱤	-12.0975
旱稻	-12.0975
冥冥	-12.0975
緼	-12.0975
豊	-12.0975
鰫	-12.0975
熹	-12.0975
銀圈	-12.0975
囓	-12.0976
猩猩	-12.0976
晉張華	-12.0976
浮水上	-12.0976
翮	-12.0976
鐙	-12.0976
腳	-12.0976
鱯	-12.0976
韓退之	-12.0976
櫚	-12.0976
萬鈴菊	-12.0976
庚申	-12.0976
陶甄	-12.0976
鵲橋	-12.0976
歲時記	-12.0976
洱	-12.0976
羅襦	-12.0976
采無時	-12.0976
謝幼槃詩	-12.0977
饜	-12.0977
大業拾遺	-12.0977
惱亂	-12.0977
而譜之	-12.0978
嘬	-12.0978
盧綸	-12.0978
保養	-12.0978
戢	-12.0978
簿書	-12.0978
古瓦硯	-12.0978
岩竇	-12.0978
抖	-12.0978
甜酸	-12.0978
旦暮	-12.0979
璹	-12.0979
紅白二色	-12.0979
宋史鑄撰	-12.0979
娜	-12.0979
覆盆	-12.0979
青蠅	-12.098
九月末開	-12.098
尺寸	-12.098
瑶席	-12.098
靳	-12.098
猗蘭	-12.098
橢圓	-12.098
汾陽	-12.098
元豐間	-12.098
席上珍	-12.098
李後主	-12.098
艱難	-12.098
錦被堆	-12.098
昱	-12.098
大如雞卵	-12.0981
為地仙	-12.0981
曾肇	-12.0981
抽萌	-12.0981
鑪	-12.0981
鱨	-12.0981
集詩注	-12.0982
淩	-12.0982
葉少藴	-12.0982
收歛	-12.0982
塗壁	-12.0982
舊澄泥玉堂硯	-12.0983
卣	-12.0983
掐	-12.0983
伊尹	-12.0983
禋	-12.0983
佛像	-12.0983
沔	-12.0983
鄰翁	-12.0984
羊肝	-12.0984
䨇鸞	-12.0984
馬藺	-12.0984
䱱	-12.0984
宋周必大	-12.0984
鮫綃	-12.0984
胡為乎	-12.0985
𤣥都觀裏	-12.0985
諼	-12.0985
篠簜	-12.0985
哈	-12.0985
嫉	-12.0985
天下太平	-12.0985
浹	-12.0986
吟咏	-12.0986
百仞	-12.0986
蠆	-12.0987
渡河	-12.0987
元楊維楨	-12.0987
賀鑄	-12.0987
騷客	-12.0987
未央宫	-12.0987
硯背覆手	-12.0987
蟠螭	-12.0987
熏籠	-12.0988
畢備	-12.0988
逺岫	-12.0988
雉尾	-12.0988
樛枝	-12.0988
籠絡	-12.0988
􁥀	-12.0988
甲寅	-12.0989
阿房	-12.0989
赤仄	-12.0989
髙四五尺	-12.099
風俗記	-12.099
指爪	-12.0991
嶮怪	-12.0991
尚書省	-12.0991
栁絮	-12.0991
暢茂	-12.0991
掃除	-12.0991
飄蕩	-12.0991
河洛	-12.0992
譜録類二	-12.0992
摧殘	-12.0992
天禄	-12.0992
膾炙	-12.0993
瀘州	-12.0993
栘楊	-12.0993
盈握	-12.0993
妓女	-12.0993
豐肌	-12.0993
明申時行	-12.0993
窅	-12.0994
賜姓	-12.0994
吟嘯	-12.0995
凑	-12.0995
盛京通志	-12.0995
琢磨	-12.0995
淚痕	-12.0995
明璣	-12.0995
龍膽	-12.0995
慨然	-12.0996
鬚髪	-12.0996
命之曰	-12.0996
呈祥	-12.0996
栽蒔	-12.0996
唐温庭筠	-12.0997
尖鋭	-12.0997
先賢傳	-12.0997
擘破	-12.0997
苦苣	-12.0998
階除	-12.0998
枯朽	-12.0998
聳榦	-12.0998
象形也	-12.0998
童兒	-12.0998
酒巵	-12.0999
問君何	-12.0999
較遲	-12.0999
目擊	-12.0999
數斛	-12.1
王褒	-12.1
收蔵	-12.1
芳蕤	-12.1
勝金黄	-12.1001
周遭	-12.1001
叔孫	-12.1001
療疾	-12.1001
淑景	-12.1001
各二錢半	-12.1001
又一法	-12.1002
側金盞	-12.1002
簾捲	-12.1002
明璫	-12.1002
霏微	-12.1003
不過一二	-12.1003
東山經	-12.1004
虎符	-12.1004
長數丈	-12.1004
魵	-12.1004
閩嶺	-12.1005
兒曹	-12.1005
鄧州白	-12.1005
倐然	-12.1005
蔡京	-12.1006
副使	-12.1006
地菘	-12.1006
畝用子	-12.1006
上巳日	-12.1006
短墻	-12.1006
色青黑	-12.1006
醉楊妃	-12.1006
辟雍	-12.1007
持螯	-12.1008
北山經	-12.1009
升降	-12.1009
廟堂	-12.1009
莆中	-12.101
石楠樹	-12.1011
羣葩	-12.1011
蓮塘	-12.1011
月窟	-12.1011
齋戒	-12.1012
千歳	-12.1012
雙檜	-12.1012
蠶室	-12.1013
陳迹	-12.1014
加餐	-12.1015
迸筍	-12.1015
象牙	-12.1015
牙齒	-12.1016
别駕	-12.1017
錦障	-12.1017
李廷珪	-12.1017
祥瑞	-12.1019
翠幕	-12.1019
道輔	-12.1019
數十株	-12.1019
甞聞	-12.1019
匝地	-12.102
羲和	-12.102
湘川	-12.102
棄置	-12.102
沛國	-12.1021
呼為阿	-12.1021
星斗	-12.1021
虎斑	-12.1022
論衡	-12.1022
缸内	-12.1022
繩墨	-12.1023
可掬	-12.1023
長二丈	-12.1023
疊羅	-12.1024
塞北	-12.1024
標致	-12.1024
佛嶺	-12.1025
減膠	-12.1025
屈盤	-12.1025
野塘	-12.1026
蘭橈	-12.1027
議論	-12.103
欽定四庫全書欽定西清硯譜卷十	-12.103
垣衣	-12.103
醉臥	-12.103
真偽	-12.103
金樓子	-12.103
彩霞	-12.1031
嬌羞	-12.1031
三嗅	-12.1032
侍女	-12.1032
百部	-12.1032
范陽	-12.1032
令尹	-12.1032
鼓吹	-12.1033
[...]
