<unk>	0
<s>	0
</s>	0
,	-2.024
。	-2.91282
、	-4.89729
:「	-4.91217
者	-4.936
;	-5.15835
。」	-5.16404
:『	-5.17757
!	-5.55271
之	-5.58394
為	-5.58827
以	-5.59775
時	-5.65263
也	-5.65836
。』	-5.66102
有	-5.72286
?	-5.76122
即	-5.78165
故	-5.79999
不	-5.80037
言	-5.86145
我	-5.90135
▁	-5.9122
而	-5.96644
如	-5.97395
於	-5.98122
爾時	-6.00195
心	-6.02012
彼	-6.03898
無	-6.0559
王	-6.06258
行	-6.09179
其	-6.11056
佛	-6.11558
如是	-6.14498
是	-6.15073
菩薩	-6.17414
已	-6.17806
人	-6.19836
得	-6.20626
此	-6.20701
見	-6.29129
生	-6.32985
身	-6.35287
?」	-6.35942
。「	-6.36339
法	-6.38174
中	-6.38602
世尊	-6.41766
所	-6.42057
若	-6.42689
曰	-6.4312
諸	-6.44625
欲	-6.44647
一	-6.48732
等	-6.50232
汝	-6.50473
自	-6.51828
大	-6.53601
及	-6.54917
太子	-6.56736
皆	-6.56835
當	-6.58547
一切	-6.60663
名	-6.62176
)	-6.64017
復	-6.64346
出	-6.65255
(	-6.66354
今	-6.67051
至	-6.69143
眾生	-6.69918
如來	-6.70482
謂	-6.70757
下	-6.71718
相	-6.72765
意	-6.72916
與	-6.74073
?』	-6.7555
從	-6.75665
作	-6.7601
來	-6.767
或	-6.78432
二	-6.7845
亦	-6.81341
令	-6.82082
說	-6.83149
上	-6.8332
眾	-6.85638
在	-6.85968
處	-6.86953
便	-6.87168
天	-6.89038
能	-6.90269
三	-6.90835
則	-6.96421
盡	-6.97639
道	-6.98568
善	-6.98578
常	-7.00162
比丘	-7.02012
因	-7.02115
子	-7.03343
食	-7.03631
願	-7.04555
入	-7.04841
受	-7.06209
聞	-7.06945
清淨	-7.0716
語	-7.0739
求	-7.07839
樂	-7.09857
無有	-7.10956
觀	-7.12241
事	-7.12474
非	-7.14181
知	-7.14877
還	-7.1501
多	-7.15043
前	-7.15902
又	-7.16153
猶如	-7.16256
*	-7.17297
可	-7.17433
世間	-7.18918
苦	-7.20147
應	-7.20982
供養	-7.21194
明	-7.21381
四	-7.21646
我今	-7.22783
念	-7.22884
然	-7.24335
住	-7.26124
吾	-7.26468
出家	-7.26549
起	-7.27493
後	-7.27807
取	-7.27813
施	-7.28438
現	-7.29039
使	-7.29637
乃	-7.30298
乃至	-7.31117
悉	-7.31408
大王	-7.31462
去	-7.32211
地	-7.33575
。』「	-7.34615
將	-7.35294
滅	-7.3763
惡	-7.37785
不能	-7.38347
聲	-7.38492
著	-7.39081
用	-7.39749
修	-7.4009
死	-7.40309
持	-7.41534
云何	-7.42368
雖	-7.42397
智	-7.42522
既	-7.42723
解	-7.42834
。】「	-7.43594
各	-7.43813
水	-7.44176
日	-7.45579
是時	-7.45898
問	-7.45935
過	-7.46157
喻	-7.46437
。」【	-7.46823
耶	-7.46878
難	-7.47051
本	-7.47198
共	-7.47518
世	-7.47521
坐	-7.47969
義	-7.4819
是故說曰	-7.48949
必	-7.49603
離	-7.51024
無量	-7.51077
種種	-7.51181
具	-7.51589
成	-7.51915
捨	-7.52074
重	-7.52235
空	-7.52359
報	-7.52702
國	-7.52907
女	-7.53182
歡喜	-7.53265
正	-7.53587
經	-7.54115
先	-7.54136
師	-7.54316
教	-7.54451
隨	-7.54481
勝	-7.54632
力	-7.55617
頭	-7.55937
梵志	-7.56228
向	-7.56303
:「『	-7.56394
五	-7.56519
往	-7.57098
智慧	-7.57398
耳	-7.58077
命	-7.58193
答言	-7.5826
寶	-7.58547
善男子	-7.58798
色	-7.59226
果	-7.59688
父母	-7.60924
生死	-7.60936
具足	-7.61389
火	-7.61742
猶	-7.61763
布施	-7.62574
功德	-7.63627
我等	-7.63837
好	-7.64289
家	-7.6516
諸天	-7.65294
德	-7.65636
何	-7.67977
極	-7.68565
於是	-7.69067
斷	-7.6925
唯	-7.69422
俱	-7.69927
煩惱	-7.70216
母	-7.71045
到	-7.71624
度	-7.71981
除	-7.72324
矣	-7.72713
尊	-7.73648
善哉	-7.73948
名曰	-7.73972
緣	-7.74552
愛	-7.75194
。△	-7.76578
淨	-7.76944
乎	-7.76999
內	-7.77349
思惟	-7.77821
未	-7.77844
分	-7.77921
化	-7.78323
戒	-7.78682
利	-7.78887
:	-7.79006
長者	-7.79058
汝等	-7.79284
安	-7.79348
即便	-7.79725
自在	-7.79756
不得	-7.80558
白	-7.80575
真實	-7.81032
更	-7.81421
莫	-7.81513
定	-7.81713
是故	-7.82089
發	-7.82561
。』」「	-7.82637
阿難	-7.8282
但	-7.83766
實	-7.8385
轉	-7.83999
斯	-7.84346
初	-7.84578
業	-7.84839
尋	-7.85295
皆悉	-7.85961
解脫	-7.86229
神	-7.86621
三昧	-7.86624
華	-7.86707
小	-7.86812
光	-7.86836
門	-7.86964
失	-7.87085
婆羅門	-7.87456
成就	-7.8754
邊	-7.87706
妙	-7.88099
請	-7.88397
所謂	-7.88985
龍	-7.89072
佛言	-7.89326
種	-7.89721
證	-7.90412
遠離	-7.90615
有一	-7.90711
沙門	-7.90825
由	-7.91096
同	-7.91266
信	-7.92219
深	-7.92324
自然	-7.92675
甚	-7.93079
滿	-7.93405
學	-7.93445
山	-7.93602
立	-7.93733
迦葉	-7.93796
金	-7.93973
想	-7.9419
形	-7.94195
他	-7.95009
眼	-7.95139
歸	-7.95743
》	-7.9584
識	-7.96113
說法	-7.96338
七	-7.96373
樹	-7.96724
病	-7.97032
象	-7.9755
婦	-7.9765
於彼	-7.98002
貪	-7.98161
足	-7.98366
不可	-7.98602
餘	-7.98672
覺	-7.98735
告	-7.9891
稱	-7.99216
云	-7.99293
光明	-7.99431
合	-8.00006
福	-8.00091
夫	-8.0014
因緣	-8.0046
莊嚴	-8.00722
方	-8.01527
爾時世尊	-8.01684
別	-8.01828
答曰	-8.01964
是故說	-8.02488
飲食	-8.02766
精進	-8.02949
依	-8.03149
口	-8.03832
慧	-8.03924
少	-8.04598
夫人	-8.04785
恒	-8.05679
所有	-8.05844
弟子	-8.05849
分別	-8.06218
體	-8.06559
獲	-8.0663
如此	-8.06802
白佛言	-8.07139
殺	-8.07245
兒	-8.07489
數	-8.07804
外	-8.07978
會	-8.08385
爾	-8.0843
造	-8.08809
父	-8.09003
物	-8.09029
故云	-8.09343
止	-8.09497
。」「	-8.09795
喜	-8.09817
結	-8.10346
或有	-8.10635
所以	-8.11181
衣	-8.1165
流	-8.12061
無所	-8.12326
仙人	-8.1279
性	-8.12937
長	-8.12971
說偈言	-8.12974
亦復如是	-8.13046
遠	-8.13061
諸佛	-8.13078
亦不	-8.13084
香	-8.13141
城	-8.13206
遂	-8.13942
八	-8.14242
寂靜	-8.14957
不知	-8.15407
之人	-8.15469
花	-8.15536
須	-8.15719
罪	-8.15789
理	-8.15903
作如是言	-8.16418
普	-8.16943
興	-8.1702
汝今	-8.17403
被	-8.17673
微妙	-8.18281
真	-8.18318
人民	-8.18373
聖	-8.18406
墮	-8.18902
廣	-8.19756
譬如	-8.19796
手	-8.20477
雨	-8.20604
奉	-8.2061
根	-8.20825
卿	-8.21209
藏	-8.2172
獨	-8.2198
覩	-8.22192
第一	-8.2226
六	-8.22423
懷	-8.22765
根本	-8.22885
詣	-8.23104
馬	-8.23273
致	-8.2355
諸比丘	-8.23656
即是	-8.23682
志	-8.2399
於此	-8.24244
乘	-8.24384
照	-8.24844
棄	-8.24917
聽	-8.25235
趣	-8.25423
親	-8.25803
時彼	-8.25887
圓滿	-8.26164
之中	-8.26487
涅槃	-8.26673
無常	-8.26928
若有	-8.27129
設	-8.27199
釋	-8.27398
開	-8.28787
居	-8.28928
要	-8.29309
通	-8.29379
之法	-8.30127
一切眾生	-8.30359
執	-8.30645
仁	-8.30714
情	-8.30865
號	-8.30962
書	-8.31029
破	-8.31194
昔	-8.31304
高	-8.31863
近	-8.32007
習	-8.32419
。「『	-8.32471
五百	-8.32689
瞋恚	-8.33224
邪	-8.3355
有情	-8.33792
故曰	-8.34176
思	-8.34396
今日	-8.34437
鬼	-8.34476
速	-8.34538
散	-8.34706
不見	-8.35028
盛	-8.35096
集	-8.35328
修行	-8.35575
平等	-8.35697
海	-8.35806
害	-8.35822
字	-8.35997
正法	-8.36015
方便	-8.36039
國王	-8.36603
脫	-8.36797
悉皆	-8.36867
老	-8.37378
顯	-8.37613
之所	-8.38035
智者	-8.38044
放	-8.38567
主	-8.38836
世界	-8.39011
十	-8.39139
命終	-8.39886
顛倒	-8.40375
果報	-8.40485
目	-8.4049
道人	-8.40626
己	-8.40659
息	-8.40738
毒	-8.4091
觀察	-8.40943
愚癡	-8.41095
久	-8.41124
舍利弗	-8.41152
動	-8.41232
尊者	-8.41326
壞	-8.41334
大臣	-8.41406
舍	-8.41518
佛告	-8.41806
百	-8.41955
又復	-8.42147
次	-8.42311
身體	-8.4237
而說偈言	-8.4239
誰	-8.42528
各各	-8.4274
復有	-8.4315
亦無	-8.43231
論	-8.43308
魔	-8.43533
視	-8.43551
禮	-8.43987
財	-8.44405
神通	-8.44675
今者	-8.45019
風	-8.45248
疾	-8.45339
并	-8.45597
不生	-8.45655
菩提	-8.45668
答	-8.45689
車	-8.45742
十方	-8.45827
我當	-8.46278
增上	-8.46352
千	-8.46594
服	-8.4675
佛告諸比丘	-8.46776
且	-8.46964
適	-8.47025
患	-8.47047
三界	-8.47091
童子	-8.47251
二者	-8.47264
羅	-8.47687
敬	-8.4778
護	-8.47782
反	-8.47888
之時	-8.48053
月	-8.48173
異	-8.48548
一者	-8.4855
宜	-8.48853
!」	-8.48942
路	-8.49065
達	-8.49301
眾人	-8.49447
巳	-8.49532
大眾	-8.49536
勅	-8.49713
加	-8.4984
《	-8.50789
歎	-8.50807
帝釋	-8.50844
端正	-8.50997
舉	-8.51089
名為	-8.51248
恩	-8.51342
計	-8.51762
福德	-8.51857
面	-8.52038
夜	-8.52045
安隱	-8.52115
天子	-8.52142
草	-8.52274
界	-8.52427
以為	-8.52929
沒	-8.5294
辭	-8.53165
父王	-8.53252
女人	-8.53315
守	-8.53604
怨	-8.5375
復次	-8.53907
王曰	-8.53967
憂	-8.54428
遣	-8.54495
自性	-8.54522
當知	-8.54628
藥	-8.54766
臣	-8.54799
師子	-8.5491
眷屬	-8.55027
無數	-8.55247
晝夜	-8.55357
忍	-8.55763
遍	-8.55948
劫	-8.5595
此是	-8.5596
終	-8.56341
難陀	-8.56429
變	-8.56864
僧	-8.56864
之處	-8.56914
之心	-8.57189
及諸	-8.57394
愚	-8.57399
望	-8.57467
地獄	-8.57606
過去	-8.57718
其心	-8.57889
而不	-8.57931
所作	-8.582
語言	-8.58266
攝	-8.58315
音	-8.58384
鹿	-8.58595
是為	-8.58772
珍寶	-8.59303
今此	-8.59414
器	-8.59493
疑	-8.59988
牛	-8.60239
王子	-8.60562
悲	-8.60601
供	-8.60602
天人	-8.60798
進	-8.60855
何以故	-8.60909
調伏	-8.60964
於我	-8.61323
其身	-8.61341
天下	-8.61391
七寶	-8.61931
摩	-8.6202
邪見	-8.62091
縛	-8.62284
白言	-8.62302
邊際	-8.62332
年	-8.62405
置	-8.62806
一人	-8.63122
其人	-8.63172
位	-8.63427
隨順	-8.63503
違	-8.63532
終不	-8.63614
感	-8.63654
虛空	-8.63775
治	-8.63846
恐	-8.64045
凡	-8.64157
了知	-8.6416
見佛	-8.6418
凡夫	-8.6442
畏	-8.64599
止息	-8.64625
持戒	-8.64795
賊	-8.64809
直	-8.6485
遇	-8.65012
七日	-8.65079
始	-8.65396
伏	-8.65513
惑	-8.6552
宮	-8.65614
。』」	-8.65652
仁者	-8.65773
兩	-8.65845
車匿	-8.6594
勸	-8.66408
恐怖	-8.66501
聚	-8.66561
恭敬	-8.66644
究竟	-8.66729
就	-8.66938
五欲	-8.66962
指	-8.67046
染	-8.67671
痛	-8.67692
最上	-8.6803
問言	-8.68318
境	-8.68476
覆	-8.68507
阿	-8.68525
民	-8.68599
肉	-8.68622
濟	-8.68838
對	-8.68863
或復	-8.68884
悟	-8.69323
絕	-8.69493
林	-8.69548
勿	-8.69689
人天	-8.6978
欲得	-8.69826
造作	-8.69951
最	-8.70025
那	-8.70122
不樂	-8.70249
。(	-8.70377
示	-8.70473
而行	-8.7054
一心	-8.70648
廣大	-8.70655
土	-8.70912
觸	-8.71092
龍王	-8.71184
何故	-8.71429
鉢	-8.72045
竟	-8.72066
陀	-8.72149
在於	-8.72466
殊勝	-8.73015
強	-8.73499
禪	-8.73536
即時	-8.73797
一一	-8.73839
苦惱	-8.73935
慈	-8.73963
外道	-8.74148
不如	-8.74568
而去	-8.74631
餓鬼	-8.74751
味	-8.74885
善根	-8.74926
作是念	-8.75012
迦	-8.75158
亦復	-8.75245
無上	-8.75326
次第	-8.75527
比	-8.75638
王言	-8.757
此人	-8.76399
彼人	-8.76565
垂	-8.76598
宿	-8.76629
增	-8.76669
值	-8.7668
益	-8.76807
最勝	-8.76958
惟	-8.77116
兄	-8.77414
首	-8.77438
彼等	-8.77677
瓔珞	-8.7768
然後	-8.77811
往昔	-8.77876
修習	-8.77949
不應	-8.78171
不淨	-8.78173
是以	-8.78211
貪欲	-8.78365
和	-8.78781
成佛	-8.79076
百千	-8.79161
畜生	-8.7917
捉	-8.79342
聲聞	-8.79556
微	-8.79833
亂	-8.79879
境界	-8.79885
甘露	-8.79939
以是	-8.80107
癡	-8.80364
飲	-8.80425
為我	-8.80485
索	-8.80528
順	-8.80565
以此	-8.80758
美	-8.8081
梵天	-8.80993
日月	-8.81029
吉祥	-8.81071
退	-8.81202
喚	-8.81323
及以	-8.81676
讚	-8.81702
蓋	-8.81957
金剛	-8.8209
夜叉	-8.82095
無明	-8.82223
授	-8.82247
咸	-8.82247
於時	-8.8229
安樂	-8.82513
教化	-8.82527
相貌	-8.82534
于	-8.82943
諸法	-8.82972
得道	-8.8303
大悲	-8.83419
無為	-8.83465
賢聖	-8.83679
忽	-8.83715
所以者何	-8.83973
苦行	-8.83994
▁一	-8.84061
留	-8.84297
婆	-8.84499
所說	-8.84818
呼	-8.8484
寧	-8.85036
類	-8.85069
辟支佛	-8.85169
忍辱	-8.85172
佛法	-8.85343
以是因緣	-8.85355
表	-8.85412
石	-8.85829
聞已	-8.86055
座	-8.86059
決定	-8.86246
遊	-8.86331
心意	-8.86596
賢	-8.86731
利益	-8.86961
都	-8.87043
放逸	-8.87082
障	-8.87217
佛告阿難	-8.87393
漸	-8.87408
密	-8.87445
國土	-8.87666
見已	-8.87769
增長	-8.87924
令我	-8.88176
乞食	-8.8821
衣服	-8.88395
蒙	-8.8851
於中	-8.8861
諦	-8.88765
永	-8.88863
聚落	-8.88909
至於	-8.88919
降	-8.89128
應當	-8.89163
不為	-8.89176
走	-8.89217
塵	-8.89274
髮	-8.89553
拔	-8.89592
堅固	-8.89765
輪	-8.89874
!』	-8.89898
妻	-8.90133
九	-8.90352
珠	-8.90567
財寶	-8.90695
積	-8.90872
「	-8.90934
即以	-8.91343
三者	-8.91491
承	-8.91687
左右	-8.91698
與我	-8.92082
而作是言	-8.92124
故名	-8.92211
不久	-8.923
八萬四千	-8.92625
燒	-8.92732
輩	-8.93189
尚	-8.93254
之事	-8.93424
輕	-8.93548
聞佛所說	-8.93633
鳥	-8.93691
讚歎	-8.93879
此事	-8.93973
男女	-8.9408
第二	-8.94218
如彼	-8.94247
堅	-8.94259
臥	-8.94354
時有	-8.94429
唯有	-8.94542
飯	-8.95151
間	-8.9534
瞿曇	-8.95363
柔軟	-8.95613
有大	-8.95733
一時	-8.95798
無畏	-8.95892
冥	-8.95921
報言	-8.9595
聖子	-8.95967
救	-8.96081
塔	-8.96171
弟	-8.96424
傷	-8.96433
諸根	-8.96541
嚴	-8.96592
尼	-8.969
波	-8.96914
飢渴	-8.96924
蓮華	-8.96962
瞋	-8.97093
犯	-8.97146
貧窮	-8.97162
恚	-8.972
無邊	-8.97266
相應	-8.9728
白王言	-8.974
宮殿	-8.97547
禪定	-8.97583
對曰	-8.976
大乘	-8.97873
熱	-8.9792
池	-8.97997
唯願	-8.98225
目連	-8.98254
樹下	-8.98458
有何	-8.98465
梵行	-8.98497
無不	-8.98632
即得	-8.98701
唱	-8.98788
作是念已	-8.99296
惱	-8.99327
獼猴	-8.99504
快	-8.99647
其中	-8.99651
引	-8.99679
憍慢	-8.99693
提	-8.99715
忽然	-8.99999
全	-9.00054
所見	-9.00069
一切諸	-9.00299
氣	-9.0035
不復	-9.00512
帝	-9.00565
易	-9.00681
王即	-9.00927
羅漢	-9.00963
養	-9.01039
文	-9.01217
天王	-9.01303
未曾	-9.01373
逮	-9.0139
快樂	-9.01517
投	-9.01533
決	-9.01625
慈心	-9.0164
二人	-9.01668
却	-9.01725
不同	-9.02202
無復	-9.02288
熟	-9.02304
兼	-9.02617
畢	-9.02644
世人	-9.02668
為王	-9.02668
三寶	-9.02747
法門	-9.02955
善法	-9.02963
鬼神	-9.03038
哀	-9.03063
在家	-9.03071
看	-9.03169
逐	-9.03288
提婆達多	-9.03308
處所	-9.03557
河	-9.03765
見之	-9.03792
發生	-9.0383
迷	-9.04062
繫	-9.0407
錢	-9.04143
頌	-9.04262
許	-9.04467
不動	-9.04553
若不	-9.0461
釋種	-9.04794
音聲	-9.04924
若人	-9.04925
不肯	-9.04965
仙	-9.05162
了	-9.05175
王者	-9.05447
虛	-9.05516
品	-9.05539
船	-9.05728
壽	-9.05779
善惡	-9.05848
俗	-9.05959
大海	-9.06204
亦如	-9.06236
妄	-9.0632
半	-9.06371
皆是	-9.06374
國中	-9.06455
是名	-9.06934
亦如是	-9.07155
所行	-9.07174
諸人	-9.07225
梵	-9.07331
厭	-9.07487
往詣	-9.07579
令其	-9.07777
備	-9.0784
比丘尼	-9.08172
制	-9.08346
存	-9.08527
四方	-9.08552
相好	-9.0873
恩愛	-9.0874
慈悲	-9.0875
萬	-9.08772
我見	-9.09012
共相	-9.09104
誓	-9.09125
眾僧	-9.0916
親近	-9.09423
示現	-9.09425
淨飯王	-9.09544
天上	-9.09606
無漏	-9.0974
君	-9.09837
活	-9.09918
焉	-9.10109
群臣	-9.10359
生於	-9.1056
多聞	-9.10687
園	-9.10695
聞是語已	-9.10749
必當	-9.10976
木	-9.10984
見其	-9.11088
威儀	-9.11171
無垢	-9.11367
內外	-9.1142
所願	-9.11429
降伏	-9.11569
清	-9.11598
夢	-9.11771
無我	-9.11922
無異	-9.11933
四者	-9.11945
稽首	-9.1195
記	-9.12211
自知	-9.12261
急	-9.12324
毀	-9.12324
莫不	-9.12647
臨	-9.12742
遷變	-9.12796
發心	-9.12889
和合	-9.12928
亡	-9.12984
辦	-9.12992
如是等	-9.13035
逆	-9.13135
我身	-9.133
諸有	-9.13325
何為	-9.13411
不敢	-9.13427
雜	-9.13542
箭	-9.1381
總	-9.13931
誠	-9.13949
拘	-9.13975
不受	-9.14038
神足	-9.14093
而白佛言	-9.14144
默然	-9.14718
遙見	-9.14916
送	-9.15061
乞	-9.15105
況	-9.15179
雖復	-9.15323
愛樂	-9.15411
是處	-9.1551
作是語已	-9.15792
隨意	-9.15792
以上	-9.15809
心念	-9.15912
屬	-9.16002
有人	-9.16032
慚愧	-9.1605
妃	-9.16148
問曰	-9.16187
雲	-9.16237
希有	-9.16294
飛	-9.16419
落	-9.16811
守護	-9.16839
佛說	-9.16957
靜	-9.17037
悔	-9.17171
哉	-9.1729
仰	-9.17457
力用	-9.17554
令彼	-9.17594
群	-9.176
無能	-9.17626
聞法	-9.1775
不覺	-9.17821
欲求	-9.17862
蛇	-9.18055
笑	-9.18221
今我	-9.18229
沙	-9.18354
追	-9.18421
今當	-9.18764
神力	-9.18858
似	-9.18934
有力	-9.18976
愚人	-9.18984
捨離	-9.19096
佛語	-9.19212
句	-9.19219
調	-9.19334
烏	-9.19341
抱	-9.1936
速疾	-9.19397
是也	-9.19419
見此	-9.19457
空中	-9.19781
無倒	-9.19782
長老	-9.20037
燈	-9.20101
射	-9.20129
我所	-9.20193
無量無邊	-9.20354
容	-9.20399
若有眾生	-9.20463
彌勒	-9.20646
大師	-9.20698
給	-9.20879
充滿	-9.21524
若干	-9.21527
不著	-9.21554
啟	-9.21567
壽命	-9.21582
富	-9.21711
得解脫	-9.21766
毘	-9.21792
佛土	-9.21799
三世	-9.219
繫縛	-9.22132
皆由	-9.22168
泥洹	-9.22422
不以	-9.22475
財物	-9.22797
勞	-9.2297
身命	-9.2299
越	-9.23102
威德	-9.23142
遭	-9.23381
聞之	-9.23501
妻子	-9.23505
成道	-9.23594
損	-9.23681
隱	-9.23814
頓	-9.23857
正見	-9.2406
齊	-9.24305
之曰	-9.24438
淨妙	-9.24486
兵	-9.24491
有所	-9.24638
遮	-9.24666
有此	-9.24707
諸臣	-9.24739
魔王	-9.24784
聽聞	-9.24898
薄	-9.24944
見彼	-9.24955
塵勞	-9.2498
道士	-9.25113
王位	-9.25392
結使	-9.25428
骨	-9.25467
愛欲	-9.25491
室	-9.25511
睡眠	-9.25609
第三	-9.25746
牽	-9.26135
人間	-9.2621
不離	-9.26287
來至	-9.26365
漸漸	-9.26377
負	-9.2652
熾然	-9.26532
唯願世尊	-9.26625
徹	-9.2665
諍	-9.26879
打	-9.26929
垢	-9.26936
節	-9.2704
菩薩摩訶薩	-9.27103
白王	-9.27143
訖	-9.27237
避	-9.27255
怖	-9.27462
塗	-9.2749
新	-9.27543
出世	-9.27544
所在	-9.27616
】	-9.27662
每	-9.2768
量	-9.27729
葉	-9.2796
若欲	-9.28115
未來	-9.28237
大聖	-9.28312
所生	-9.28442
手執	-9.28483
細	-9.28551
之行	-9.28553
勝義	-9.28584
伽	-9.28695
眾寶	-9.28723
諍訟	-9.2877
婬	-9.288
中有	-9.28823
調達	-9.28854
妙法	-9.28968
嗚呼	-9.29138
於諸	-9.29285
穢	-9.29325
生天	-9.29384
時王	-9.29501
於其	-9.29517
所得	-9.29579
安住	-9.29752
隋言	-9.29902
消	-9.30093
元	-9.30112
魚	-9.30187
導師	-9.3038
乳	-9.30387
受苦	-9.30449
喪	-9.30634
待	-9.30663
血	-9.30781
發阿耨多羅三藐三菩提心	-9.30807
以其	-9.30813
純	-9.30971
脚	-9.30976
懸	-9.31074
偈	-9.31074
諸眾生	-9.31109
慢	-9.31209
何所	-9.31307
並	-9.31457
色相	-9.31501
心生	-9.31563
圓	-9.31592
刺	-9.31615
貴	-9.31656
羅剎	-9.31763
略	-9.31812
身心	-9.32034
察	-9.32084
無盡	-9.32113
化作	-9.32218
陰	-9.32222
勤	-9.32344
無礙	-9.32415
威神	-9.32442
須彌	-9.3256
臂	-9.32605
悅	-9.3263
宣	-9.3267
勇猛	-9.32803
寂	-9.32832
而彼	-9.3287
不信	-9.32946
處處	-9.32975
歡喜踊躍	-9.33145
田	-9.33164
是謂	-9.33207
良以	-9.3325
網	-9.33332
若能	-9.33369
超	-9.33456
成阿耨多羅三藐三菩提	-9.33558
不可得	-9.33571
假使	-9.33627
窮	-9.33639
天神	-9.33676
爾時菩薩	-9.33711
迴	-9.33735
福田	-9.33878
約	-9.33927
平	-9.34093
何以	-9.34217
豈	-9.34266
軍	-9.34271
▁二	-9.34312
可得	-9.34403
清涼	-9.34787
轉輪聖王	-9.34794
天帝	-9.3491
非法	-9.35025
若我	-9.35097
熾盛	-9.35136
黑	-9.35169
此法	-9.35187
瞻	-9.35329
為人	-9.35348
?』「	-9.35437
而得	-9.35466
在此	-9.3553
惠施	-9.35575
何等	-9.35616
人中	-9.35627
三藐三佛陀	-9.35784
此云	-9.35942
樹木	-9.36038
沙彌	-9.36316
憐愍	-9.3638
不起	-9.36548
我為	-9.36568
多有	-9.36624
潤	-9.36635
數數	-9.3665
導	-9.36662
非是	-9.3673
我於	-9.36769
之本	-9.36796
皆有	-9.36842
報曰	-9.36843
天女	-9.36921
渡	-9.36978
問訊	-9.37124
耶輸陀羅	-9.37149
歡	-9.37368
汝當	-9.37401
將來	-9.37511
。《	-9.37574
彼時	-9.37612
印	-9.37745
士	-9.37756
貧	-9.37863
希求	-9.37885
困	-9.38064
大小	-9.38095
倍	-9.38101
而住	-9.38203
賣	-9.38208
姓	-9.38298
刀	-9.38302
堂	-9.38309
名稱	-9.38368
背	-9.38392
作如是念	-9.38421
侍	-9.38434
現在	-9.38495
正念	-9.38616
戰	-9.38752
手足	-9.38767
明日	-9.38897
精舍	-9.38914
宗	-9.38928
其子	-9.38978
泥	-9.39023
憶	-9.39077
布	-9.39082
大地	-9.39103
心懷	-9.39105
寂然	-9.39201
小兒	-9.3926
驚	-9.39445
遊戲	-9.39486
助	-9.3967
出家菩薩	-9.39761
佛世尊	-9.39814
是我	-9.39892
誦	-9.39895
漏	-9.39945
破壞	-9.39954
已得	-9.40105
欲界	-9.40192
心生歡喜	-9.40243
腹	-9.40301
阿羅漢	-9.40346
不退	-9.40452
免	-9.40553
種姓	-9.40661
天地	-9.40833
▁「	-9.40844
飾	-9.40996
善心	-9.41015
切	-9.41205
遺	-9.41208
鼻	-9.41218
舍宅	-9.41365
顧	-9.41401
頂	-9.41585
運載	-9.41689
我以	-9.41707
金色	-9.41712
五人	-9.4173
。○	-9.41779
歡喜奉行	-9.41806
忘	-9.41814
毒蛇	-9.41936
入於	-9.41937
或有菩薩	-9.41943
審	-9.42026
戲	-9.42096
噉	-9.42102
不善	-9.42169
而來	-9.42438
受持	-9.42455
苾芻	-9.42504
善友	-9.42698
舌	-9.42791
擲	-9.42809
獄	-9.42935
付	-9.42974
鼓	-9.43042
機	-9.4307
像	-9.4323
無比	-9.43236
赤	-9.43242
心不	-9.43334
精	-9.43388
時諸比丘	-9.43468
法身	-9.43475
曾	-9.43493
而生	-9.43539
圍繞	-9.4354
天人師	-9.436
須臾	-9.43644
遙	-9.43857
皆為	-9.43866
未得	-9.43915
修作	-9.44019
應供	-9.44136
正遍知	-9.44235
不捨	-9.44257
固	-9.44274
期	-9.44344
迎	-9.44403
愍	-9.44515
責	-9.44618
生老病死	-9.4468
辯	-9.44681
傳	-9.44693
閉	-9.44777
聞佛	-9.44836
步	-9.44895
我子	-9.44986
長夜	-9.45039
天帝釋	-9.45135
敷	-9.45156
商人	-9.45301
圍遶	-9.45309
術	-9.45403
聖人	-9.45417
三乘	-9.45426
雖有	-9.45474
歷	-9.45477
差	-9.45603
後世	-9.45685
是人	-9.458
閻浮提	-9.45879
呪	-9.45938
發菩提心	-9.45947
十六	-9.45967
如人	-9.45973
至彼	-9.45997
食之	-9.46011
洗	-9.46027
禍	-9.46113
獵師	-9.46116
作禮	-9.46284
靡不	-9.465
迷惑	-9.46599
聞如是	-9.46832
彌	-9.46929
此處	-9.46948
瓶	-9.47031
不識	-9.47051
殿	-9.47051
婇女	-9.47177
一日	-9.47346
種子	-9.47371
懼	-9.47631
往至	-9.47851
不能得	-9.47876
所須	-9.47889
行人	-9.47947
阿修羅	-9.48129
六師	-9.48161
暫	-9.48204
琉璃	-9.48241
前白佛言	-9.48246
闇	-9.4841
作是思惟	-9.48414
由是	-9.48701
眾會	-9.48776
須達	-9.48827
亦然	-9.48944
怒	-9.48994
割	-9.49003
梨	-9.4902
復更	-9.49059
山中	-9.49095
懊惱	-9.49105
皆得	-9.49107
山林	-9.49112
善逝	-9.49164
亦爾	-9.49193
床	-9.49266
尊重	-9.49353
安置	-9.49375
盲	-9.49388
其婦	-9.49482
老母	-9.4949
一切智	-9.49492
自念	-9.49551
無厭	-9.49598
修道	-9.49613
載	-9.49697
他人	-9.49743
棄捨	-9.4983
南	-9.49843
有二	-9.49863
如我	-9.50132
【	-9.50208
必有	-9.50212
其意	-9.50264
之言	-9.50502
變化	-9.50618
聽法	-9.5078
商主	-9.50885
袈裟	-9.50896
儀	-9.50904
昔有	-9.50905
)。△	-9.51014
白象	-9.51035
欲令	-9.51057
卿等	-9.51238
為沙門	-9.51526
於佛	-9.51547
十二	-9.51569
影	-9.51682
當得	-9.51687
舊	-9.51701
賢者	-9.5173
舍利	-9.51751
醫	-9.51894
為說	-9.51924
奉事	-9.51935
靈	-9.52038
四種	-9.52277
卒	-9.5228
不與	-9.52587
入城	-9.52683
奪	-9.52723
威	-9.52792
發起	-9.52792
告言	-9.52821
吉	-9.52839
金銀	-9.52847
婆羅門言	-9.52883
宮中	-9.53008
我慢	-9.53012
諸惡	-9.53225
因果	-9.53233
蓮花	-9.53348
諸釋	-9.53705
四大	-9.53766
男	-9.53921
諸王	-9.53928
染著	-9.53957
況復	-9.53971
施與	-9.5401
懺悔	-9.54238
愁憂	-9.54313
獲得	-9.54318
男子	-9.54329
其母	-9.54381
不失	-9.5442
而作	-9.5443
末	-9.54561
即為	-9.54689
恨	-9.5476
求索	-9.54762
富貴	-9.54853
頂禮佛足	-9.54911
誰能	-9.54924
乾	-9.55084
之相	-9.55151
行者	-9.55171
佛道	-9.55209
優婆塞	-9.55555
村	-9.55613
佛告比丘	-9.55632
經行	-9.55642
不及	-9.55665
銀	-9.55692
擁護	-9.5573
素	-9.55746
大仙	-9.55832
作是言	-9.5584
纏縛	-9.55899
交	-9.55901
幢	-9.56269
亦有	-9.56317
寂滅	-9.56371
】【	-9.56418
之後	-9.56478
佛本行	-9.56522
名色	-9.56563
不可思議	-9.56582
弓	-9.56612
皮	-9.56616
歸命	-9.56651
代	-9.56678
丈夫	-9.56709
波旬	-9.56728
各自	-9.5673
有漏	-9.56745
五者	-9.56782
是阿蘭若	-9.56797
欲使	-9.56866
如法	-9.56909
甚深	-9.56979
默	-9.57101
周匝	-9.5712
令得	-9.57185
領	-9.57189
兄弟	-9.57223
城門	-9.57423
其有	-9.57433
接	-9.57456
與汝	-9.57476
大德	-9.57484
權	-9.57551
昇	-9.57633
族	-9.57643
諸佛世尊	-9.57745
雙	-9.57887
推	-9.57907
而自	-9.57909
不可稱計	-9.57947
與之	-9.5803
彼岸	-9.58065
御	-9.58224
得見	-9.58226
曉	-9.58235
檀越	-9.58268
眾苦	-9.58317
能令	-9.58454
麤	-9.58486
怖畏	-9.58502
其父	-9.58504
園林	-9.58589
睒	-9.58605
并及	-9.58679
收	-9.587
殘	-9.58709
其王	-9.58757
伴	-9.58763
杖	-9.58788
當來	-9.58792
遊行	-9.58801
啼哭	-9.58863
出城	-9.58866
應時	-9.5892
歲	-9.58922
慕	-9.59036
青	-9.59129
告曰	-9.59204
穀	-9.5929
樹神	-9.59395
學道	-9.59422
私	-9.59604
三種	-9.59651
傷害	-9.59719
前後	-9.59824
隨時	-9.59952
現世	-9.60058
白佛	-9.60148
法寶	-9.6015
形體	-9.60158
奴	-9.60166
蜜	-9.60189
馳	-9.6019
日日	-9.60227
養育	-9.60337
叉手	-9.60408
周	-9.6042
徧	-9.60454
真如	-9.60623
經歷	-9.60853
除去	-9.60886
我是	-9.60937
朝	-9.60958
至誠	-9.60994
闍	-9.60999
復以	-9.61085
往來	-9.61122
勤苦	-9.61133
之身	-9.61154
集經	-9.61221
堪	-9.61428
葢	-9.61493
義利	-9.61596
衰	-9.61635
不能自勝	-9.61874
是謂梵志	-9.61911
自思惟	-9.61951
三毒	-9.62217
四諦	-9.62259
陳	-9.62266
一切皆	-9.62273
宮內	-9.6229
黃	-9.62325
禁戒	-9.62334
一名	-9.62341
乃爾	-9.62358
不求	-9.6242
彼處	-9.62423
住處	-9.62432
非常	-9.62461
猛	-9.62494
濁	-9.62581
功	-9.62607
城中	-9.62617
不出	-9.62631
復言	-9.62749
之義	-9.62812
宿命	-9.62826
見我	-9.62832
移	-9.62879
縱	-9.62992
枝	-9.63013
眠	-9.6311
呪願	-9.63231
鳴	-9.63241
何況	-9.63286
三十二相	-9.63352
=	-9.63476
不相	-9.6362
號曰	-9.6367
欺	-9.63725
踰	-9.63765
法明門	-9.63845
惡業	-9.6389
愚者	-9.63953
裏	-9.64113
王聞	-9.64134
最後	-9.64142
定意	-9.64178
再	-9.64249
折	-9.64341
復問	-9.64348
良	-9.64351
官	-9.64377
污	-9.64403
知之	-9.64431
登	-9.64452
不解	-9.64656
屈	-9.64822
法中	-9.64883
巧	-9.64907
逼	-9.64919
度脫	-9.64928
無相	-9.64939
早	-9.64942
廣說	-9.65009
無憂	-9.65142
滿足	-9.65153
酒	-9.65216
牢固	-9.65225
智人	-9.65303
合掌	-9.65313
擔	-9.65512
展轉	-9.65757
蘭若	-9.6576
我不	-9.65765
貪著	-9.65781
梵王	-9.65794
多陀阿伽度	-9.65882
下二句	-9.66008
牢	-9.66078
倒	-9.66167
娛樂	-9.6622
報恩	-9.6635
林中	-9.66461
斷絕	-9.6648
東	-9.66561
婢	-9.6676
當為	-9.66816
勢	-9.66818
資	-9.66827
釋提桓因	-9.66828
王問	-9.66834
狗	-9.66903
於世	-9.66932
阿蘭若處	-9.66976
與彼	-9.67001
頂禮	-9.67034
尋即	-9.67036
古	-9.6712
出家學道	-9.67152
我於爾時	-9.67214
居士	-9.67245
遍滿	-9.67247
十力	-9.67284
憶念	-9.673
危	-9.67346
星	-9.67366
自身	-9.67536
還歸	-9.6754
象馬	-9.67571
禁	-9.67603
嚴飾	-9.67632
苦痛	-9.67656
試	-9.67817
幸	-9.67824
殊	-9.67838
日光	-9.67855
此經	-9.67867
懈怠	-9.67919
顏色	-9.68022
諸弟子	-9.68074
自恣	-9.68077
如意	-9.68175
假	-9.6819
作是	-9.68213
其所	-9.68354
敗	-9.68406
復生	-9.68438
諫	-9.68451
於後	-9.68506
長大	-9.6854
上妙	-9.68579
不用	-9.68627
而語之言	-9.68648
典	-9.68742
憂愁	-9.68756
已訖	-9.68796
三十二	-9.68829
狂	-9.68844
念言	-9.68933
敵	-9.69015
為欲	-9.69028
寶藏如來	-9.69036
五道	-9.6912
供給	-9.6915
奇	-9.69204
截	-9.69212
岸	-9.69329
心中	-9.69373
睡	-9.69386
迦毘羅城	-9.6951
飯食	-9.69517
請佛	-9.69518
不聽	-9.69527
不審	-9.69616
慮	-9.69621
十善	-9.69623
建立	-9.69802
奉行	-9.69808
渴	-9.69813
思念	-9.69843
國界	-9.69868
愁	-9.69878
召	-9.7009
吾今	-9.70108
為惡	-9.70205
獸	-9.70232
十八	-9.70233
却住一面	-9.70236
善業	-9.70261
在彼	-9.70438
聞佛說法	-9.70445
安靜	-9.70565
于時	-9.70702
徒	-9.7071
四天下	-9.70818
令人	-9.70831
永斷	-9.70875
上座	-9.70969
誓願	-9.71152
誹謗	-9.71165
曠野	-9.71172
以何因緣	-9.71199
道德	-9.71273
殃	-9.71325
一念	-9.71501
知其	-9.71576
爾時諸比丘	-9.71584
栴檀	-9.7161
自念言	-9.7162
而言	-9.71688
猶若	-9.71702
宅	-9.71704
使人	-9.71715
皆共	-9.71758
不違	-9.71929
鐵	-9.72004
驚怖	-9.72065
法者	-9.72107
難得	-9.72135
作沙門	-9.72186
人所	-9.72186
和上	-9.72293
趣求	-9.72329
我心	-9.72449
行道	-9.72592
願我	-9.72672
任	-9.72771
施設	-9.72893
巍巍	-9.72896
悉令	-9.72904
厚	-9.72972
入山	-9.73066
汝可	-9.731
人之	-9.73109
輸頭檀王	-9.73116
竭	-9.73133
愛念	-9.73141
諸菩薩	-9.73151
寒	-9.7324
為彼	-9.73354
殺害	-9.73444
說之	-9.7348
四天王	-9.73506
比丘僧	-9.73521
此之	-9.73536
行施	-9.73595
大士	-9.73641
畜	-9.73643
之聲	-9.73675
憂惱	-9.73695
成正覺	-9.73743
乃能	-9.73794
裂	-9.73884
災禍	-9.73884
伎樂	-9.73915
一身	-9.73926
得勝	-9.73963
二乘	-9.73993
是法門	-9.74009
亦名	-9.7405
》、《	-9.74058
吾等	-9.74069
側	-9.7412
所為	-9.74211
我等今者	-9.7429
相見	-9.74307
無極	-9.74354
端	-9.7438
而坐	-9.74435
墮地	-9.74451
牙	-9.74521
勇	-9.74549
阿耨多羅三藐三菩提	-9.74552
無餘	-9.74592
衣食	-9.74718
正使	-9.74769
斫	-9.74775
輙	-9.74776
角	-9.74819
齒	-9.74834
精勤	-9.7486
謗	-9.74898
為是	-9.74936
知足	-9.74959
何處	-9.75015
為佛	-9.75037
本末	-9.75042
跡	-9.75083
而為	-9.75173
產	-9.75246
何緣	-9.75285
之道	-9.75298
顏	-9.75434
勤修	-9.75436
亦當	-9.75594
鴿	-9.75727
略說	-9.75735
難可	-9.75795
乏	-9.75811
彼諸	-9.75824
受教	-9.76041
我已	-9.76116
水中	-9.76125
群生	-9.76191
六十	-9.76267
百億	-9.76285
我亦	-9.76486
流轉	-9.76512
八十種好	-9.76623
買	-9.76626
瘡	-9.76643
之因	-9.767
擊	-9.76702
諸女	-9.76726
專	-9.76737
一句	-9.76777
見者	-9.76779
賤	-9.76853
觀看	-9.76903
演	-9.77049
鹿王	-9.77094
震動	-9.77169
胎	-9.77184
本無	-9.77224
前世	-9.77316
住於	-9.77381
從此	-9.77433
言說	-9.77474
利養	-9.77596
逢	-9.77649
信心	-9.77662
未曾有	-9.77758
吹	-9.77768
自歸	-9.77803
露	-9.77859
涉	-9.77861
妄想	-9.7796
停	-9.78026
西	-9.78076
發願	-9.78091
轉法輪	-9.78242
今欲	-9.7832
世世	-9.78327
善能	-9.78336
上下	-9.78389
此女	-9.7839
受戒	-9.78403
祕密	-9.78532
纏	-9.78555
能生	-9.78583
泉	-9.78598
鬪諍	-9.78599
不須	-9.78622
往彼	-9.78625
已來	-9.78682
能知	-9.78727
時諸	-9.78745
澤	-9.78778
執持	-9.78825
今已	-9.78867
妄語	-9.78893
波羅蜜	-9.79053
愛敬	-9.79089
有四	-9.791
脩	-9.79125
累	-9.79146
能破	-9.79183
不足	-9.79214
其餘	-9.79275
聰明	-9.79449
年少	-9.79501
波羅㮈國	-9.79617
佛教	-9.79718
可畏	-9.79776
而無	-9.79841
我之	-9.79874
剎	-9.79964
從彼	-9.7997
橫	-9.79978
齋	-9.80008
因行	-9.80055
『	-9.80084
乾闥婆	-9.80091
減	-9.80093
有是	-9.80115
相師	-9.80136
道場	-9.8023
採	-9.8033
浮	-9.8034
蟲	-9.80401
世間解	-9.80409
遣人	-9.80411
入是三昧	-9.80432
不自	-9.80475
善行	-9.80485
一切世間	-9.80535
歸依	-9.80558
野	-9.80699
當以	-9.80825
離諸	-9.80854
婦女	-9.80863
愈	-9.80874
億	-9.80924
諦聽	-9.80932
使我	-9.80954
覺悟	-9.81098
薪	-9.812
聖王	-9.81247
部	-9.81571
耶輸陀	-9.81589
於汝	-9.81597
慳貪	-9.81739
能斷	-9.81832
將欲	-9.81834
五百人	-9.81853
爾時太子	-9.81897
軟	-9.81921
五陰	-9.81936
心大歡喜	-9.81977
保	-9.82051
及餘	-9.82057
羅睺羅	-9.82087
波斯匿王	-9.82166
不食	-9.82191
阿羅呵	-9.82203
己身	-9.82221
至真	-9.82277
無上士	-9.8233
五戒	-9.82335
委	-9.82495
慾	-9.82647
即於	-9.82729
踊躍	-9.82746
殊妙	-9.82838
佛即	-9.82912
別離	-9.82917
道路	-9.82985
即問	-9.83152
國人	-9.83158
親友	-9.83236
之德	-9.83319
尾	-9.83322
告諸比丘	-9.83396
此身	-9.83517
如斯	-9.83584
菩薩記	-9.83599
大慈	-9.83648
甚大	-9.83714
寤	-9.83739
等正覺	-9.8378
返	-9.83839
聖道	-9.83856
不聞	-9.83902
無智	-9.8395
遣使	-9.8395
鬪	-9.83976
嫉妬	-9.83981
無諍	-9.83995
禽獸	-9.84038
何不	-9.84114
永離	-9.84135
種族	-9.84162
飢	-9.84201
三十三天	-9.84219
滅度	-9.84236
虎	-9.8429
臺	-9.84337
所以然者	-9.84381
孤	-9.84389
惠	-9.84423
正道	-9.84522
演說	-9.84541
長者子	-9.84671
消滅	-9.8473
寂定	-9.84742
我今當	-9.8479
里	-9.84819
一處	-9.84837
勸化	-9.84864
來下	-9.84885
成熟	-9.84903
摩訶	-9.84984
頭面禮足	-9.85018
漿	-9.85051
教誨	-9.85112
化為	-9.85124
營	-9.85153
錢財	-9.85197
賜	-9.85212
第四	-9.85317
輔相	-9.8534
煩	-9.85346
宋	-9.85349
或以	-9.85357
夫婦	-9.85385
放大光明	-9.8539
德行	-9.85557
有一長者	-9.85579
授一	-9.85595
三十	-9.85626
亦非	-9.85679
讚言	-9.85696
通達	-9.85709
塵垢	-9.85716
王舍城	-9.85719
生子	-9.85727
兔	-9.85788
履	-9.85829
所可	-9.85884
一切人民	-9.85905
徑	-9.86013
心無	-9.86015
彼王	-9.86057
修善	-9.86118
次當作佛號	-9.86203
法師	-9.86328
時婆羅門	-9.86332
傍	-9.86365
熱惱	-9.8637
離欲	-9.86383
太子言	-9.86403
說偈	-9.86409
惡道	-9.86577
貪愛	-9.86642
意欲	-9.86668
須彌山	-9.86694
怪	-9.86829
不壞	-9.8683
世俗	-9.86852
不死	-9.86904
優婁頻螺迦葉	-9.86951
此言	-9.86962
為諸眾生	-9.87028
二名	-9.8711
甘	-9.87142
如何	-9.87146
嫌	-9.87211
又問	-9.87301
弘	-9.87307
吾當	-9.87406
歡樂	-9.87521
欲見	-9.87548
吐	-9.87564
競	-9.87595
如是我聞	-9.87626
諸婆羅門	-9.87673
法界	-9.87681
二字	-9.87749
此等	-9.87749
▁三	-9.87764
所施	-9.8788
聞此	-9.87886
客	-9.87948
差別	-9.87954
毛	-9.87981
音樂	-9.87984
園中	-9.87992
見一	-9.88008
十一	-9.88013
罵	-9.88171
佛為	-9.88184
宜應	-9.88186
恣	-9.88194
所知	-9.88221
辯才	-9.88291
力士	-9.88293
端政	-9.88399
周遍	-9.88445
我昔曾聞	-9.88459
佛所	-9.88519
不從	-9.88539
底	-9.88569
盜	-9.88577
孝	-9.88591
圖	-9.88629
增益	-9.88685
時淨飯王	-9.88696
知見	-9.88729
諸國	-9.88969
人言	-9.8901
還復	-9.89034
支	-9.89069
玉女	-9.89084
唱言	-9.89131
捨身	-9.89146
得成	-9.89165
波羅	-9.8919
不現	-9.89237
特	-9.89282
借	-9.89298
含	-9.89513
至心	-9.89524
時分	-9.89597
曲	-9.89619
可以	-9.89643
天宮	-9.89653
能滅	-9.89656
菓	-9.89784
有諸	-9.89842
厭離	-9.89903
轉輪王	-9.89907
不行	-9.89918
還家	-9.90139
教授	-9.9014
摩尼	-9.90142
於虛空中	-9.90148
諸仙	-9.90164
酥	-9.9036
王宮	-9.90386
塞	-9.90411
莖	-9.90494
侵	-9.90499
呵	-9.90522
善知識	-9.90554
旋	-9.90556
荷負	-9.90572
優陀夷	-9.90591
婆羅	-9.90664
墮落	-9.90797
是事	-9.9082
到佛所	-9.90846
受於	-9.90895
城內	-9.90897
能得	-9.90901
食已	-9.90985
法性	-9.91025
一切法	-9.91026
坐禪	-9.91061
如是如是	-9.91186
珍	-9.91214
所造	-9.91229
所求	-9.9129
教誡	-9.91341
救濟	-9.91348
原	-9.91351
鬘	-9.91399
我欲	-9.91547
災	-9.9156
焰	-9.91577
隨其	-9.91591
摩那婆	-9.91593
福業	-9.91685
生天上	-9.9169
見是	-9.91798
四禪	-9.91844
華香	-9.9186
不作	-9.91926
其國	-9.91953
夢見	-9.91963
而有	-9.92085
知識	-9.92272
與諸	-9.92314
爾時阿難	-9.92315
暴	-9.92327
若無	-9.92441
既得	-9.92461
饒益	-9.92521
互相	-9.92585
國內	-9.92631
香花	-9.92653
受其	-9.92776
貧人	-9.92844
為本	-9.92861
向於	-9.9287
陀羅	-9.92967
慈愍	-9.92971
博	-9.93025
奇特	-9.93203
其上	-9.93291
爾乃	-9.93381
諸苦	-9.93382
歌	-9.93392
如來復	-9.93427
而出	-9.93565
師子吼	-9.93706
以手	-9.93724
却坐一面	-9.9374
彼佛	-9.93781
見諸	-9.93817
慇懃	-9.93828
優婆夷	-9.93829
心地	-9.93866
龜	-9.93869
修梵行	-9.93897
貫	-9.93913
佛為說法	-9.93921
亦復不	-9.93929
頃	-9.93939
榮	-9.94014
生滅	-9.94027
述	-9.94094
所言	-9.94121
於地	-9.94125
之物	-9.94168
不安	-9.94194
自心	-9.9454
汝等比丘	-9.94551
育	-9.94551
常住	-9.94718
或時	-9.94757
不遠	-9.94807
市	-9.9482
謝	-9.94835
為其	-9.94838
明行足	-9.94869
調御丈夫	-9.94871
幻	-9.94881
屋	-9.94914
之恩	-9.94926
諸龍	-9.94934
不忍	-9.94938
端嚴	-9.94995
.	-9.95004
竪	-9.95009
納	-9.95056
議	-9.95153
受此	-9.95183
還國	-9.95198
狀	-9.9533
緣覺	-9.95393
燃	-9.95526
解說	-9.95545
得此	-9.95654
左	-9.95662
限	-9.95749
有如是	-9.95757
各有	-9.95838
務	-9.95845
充	-9.95868
寶藏	-9.95889
磨	-9.95914
有緣	-9.95961
處在	-9.9597
見是事已	-9.96006
汝若	-9.96008
莫不歡喜	-9.96041
及與	-9.96138
如前	-9.96209
依止	-9.96257
言曰	-9.96266
可謂	-9.96287
受樂	-9.9636
之類	-9.96482
有子	-9.96616
伐	-9.96677
王所	-9.9672
淵	-9.96748
尸	-9.96792
哀愍	-9.96823
兵眾	-9.96845
惡心	-9.9685
入海	-9.96864
授記	-9.96886
樓	-9.96887
於今	-9.9697
到已	-9.9702
隨從	-9.9705
若其	-9.97069
著衣持鉢	-9.97139
吞	-9.9716
瀑流	-9.97181
厥	-9.97289
無著	-9.97316
入定	-9.9732
輪迴	-9.97341
即自	-9.97423
禮拜	-9.97551
證菩提	-9.9764
駕	-9.97706
眾中	-9.97722
時舍利弗	-9.97748
捨家	-9.9775
從是	-9.97784
其義	-9.97816
連	-9.97936
北	-9.98016
得脫	-9.98098
不令	-9.98104
今可	-9.98128
源	-9.98242
若當	-9.98252
在前	-9.98271
五體投地	-9.98357
萬物	-9.98441
我有	-9.98528
如日	-9.98592
作大	-9.98657
相狀	-9.98686
得度	-9.98699
運	-9.98704
心如	-9.98796
唯然	-9.98801
正覺	-9.98943
熾	-9.99066
已盡	-9.9909
無厭足	-9.99107
弊	-9.99108
續	-9.99112
名字	-9.99116
說言	-9.99116
六者	-9.99137
大家	-9.9914
有三	-9.99152
不退轉	-9.99437
乃得	-9.99446
不住	-9.99484
往詣佛所	-9.99491
悲泣	-9.9955
老病死	-9.9956
餘人	-9.99583
主人	-9.99614
殺之	-9.99699
現身	-9.99708
以自	-9.99811
日夜	-9.99869
見有	-9.99894
草木	-9.99933
雪山	-9.99965
我先	-9.99997
恒常	-10.0004
逝	-10.0014
齎	-10.0018
延	-10.0031
福報	-10.0045
事火	-10.0045
威力	-10.006
心開意解	-10.0062
不忘	-10.0065
要當	-10.0065
暗鈍	-10.0066
由此	-10.0068
飛鳥	-10.0069
淺	-10.0072
佛之	-10.0076
八萬	-10.0085
旨	-10.0086
無諸	-10.0086
愛著	-10.0088
我時	-10.01
滅盡	-10.0102
善來比丘	-10.0106
辱	-10.0109
豐	-10.0132
大施	-10.0138
菩提樹	-10.014
求道	-10.0151
無窮	-10.0162
短	-10.0166
為作	-10.0171
見於	-10.0171
充足	-10.0172
諸天人	-10.0174
人眾	-10.0182
前禮佛足	-10.0186
遲	-10.0186
支節	-10.0187
造業	-10.0197
制度	-10.0202
彼女	-10.0206
友	-10.0208
之內	-10.023
於世間	-10.0234
無因	-10.0239
無所著	-10.0243
二十	-10.0248
相隨	-10.0266
生者	-10.0273
修學	-10.0287
善來	-10.029
臭	-10.0291
寺	-10.0296
向彼	-10.0311
春	-10.0313
一千	-10.0315
若見	-10.0317
憍	-10.0324
之意	-10.0325
炎	-10.0325
往到	-10.0328
獵者	-10.0331
終無	-10.0334
其事	-10.0338
承事	-10.0347
於人	-10.0349
復見	-10.0369
我身是也	-10.037
求於	-10.0376
厄	-10.0383
以來	-10.0402
又云	-10.0403
所欲	-10.0415
劇	-10.0416
佛以	-10.0417
劣	-10.0419
際	-10.042
魔波旬	-10.0421
勝因	-10.0423
其女	-10.0426
鷹	-10.0429
律	-10.043
說是偈已	-10.0431
涕泣	-10.0434
復作是言	-10.0435
拜	-10.0435
o	-10.0438
N	-10.0438
不染	-10.044
使者	-10.0449
覺知	-10.045
震	-10.0458
家中	-10.0467
一子	-10.0469
枝葉	-10.0477
悉達	-10.0488
奉上	-10.0492
心自念言	-10.0495
行步	-10.0497
不定	-10.0513
婬怒癡	-10.0533
冷	-10.054
能除	-10.0548
之苦	-10.055
井	-10.055
畫	-10.055
隨逐	-10.0552
觀此	-10.0554
大力	-10.0555
我言	-10.056
童女	-10.056
毀辱	-10.0561
誤	-10.0563
洗浴	-10.0563
惡人	-10.0567
菩薩言	-10.0568
亦為	-10.0569
住阿蘭若	-10.0569
今得	-10.0569
醉	-10.0571
佛剎	-10.0575
汝等當知	-10.0581
智光	-10.0582
婬女	-10.0586
一國	-10.059
怨家	-10.0593
證得	-10.0597
優波離	-10.0597
序	-10.0599
我念往昔	-10.0599
無量眾生	-10.0604
三千大千世界	-10.0605
三業	-10.0607
應知	-10.0625
本願	-10.0628
詣彼	-10.0639
覓	-10.0643
中間	-10.0646
戀	-10.0648
迹	-10.0659
即起	-10.066
不念	-10.0666
彼家	-10.0669
羅網	-10.067
瑠璃	-10.0679
勇健	-10.0682
沐浴	-10.0686
歎未曾有	-10.0687
得阿羅漢果	-10.0691
猶尚	-10.0692
有佛出世	-10.0695
眾多	-10.0704
三有	-10.0708
文殊	-10.0719
當作	-10.072
右	-10.0726
不欲	-10.0729
如實	-10.0735
則不	-10.0748
法行	-10.0752
之力	-10.0762
虛空中	-10.0763
出現於世	-10.0775
如空	-10.0776
瑞應	-10.0779
金錢	-10.0779
得自在	-10.0781
象王	-10.0802
改	-10.0804
懷妊	-10.0807
有五百	-10.0824
頗	-10.0825
求覓	-10.0826
於一切	-10.0827
侍從	-10.0827
體性	-10.0836
罪福	-10.0838
波羅奈國	-10.0839
千子	-10.0843
恃	-10.0843
休息	-10.0847
當有	-10.0855
寶蓋	-10.0859
東方	-10.0866
苦樂	-10.0867
善哉善哉	-10.0872
之間	-10.0873
惡行	-10.0873
即往	-10.0874
聚集	-10.0881
我家	-10.0882
羊	-10.0888
浴	-10.0888
汝諸比丘	-10.0893
汝為	-10.0894
在世	-10.0895
勿令	-10.0903
叉	-10.0904
來還	-10.0905
標	-10.0908
當令	-10.0908
我自	-10.0909
捐	-10.0911
羸	-10.0912
熏	-10.0915
張	-10.0916
多諸	-10.0919
嫉	-10.0919
捨家出家	-10.0921
吾當為汝分別解說	-10.0923
先世	-10.0923
便生	-10.093
穿	-10.093
隨緣	-10.093
皆從	-10.0931
寄	-10.0936
天眼	-10.0937
說此偈已	-10.0944
告彼	-10.0958
。」《	-10.0958
總持	-10.0962
言語	-10.0962
不宜	-10.0962
伺	-10.0963
利他	-10.0967
謂為	-10.0973
爾時如來	-10.0976
修證	-10.098
之子	-10.0995
人身	-10.1002
王見	-10.1003
過於	-10.1008
偏	-10.1008
建	-10.1009
是佛	-10.101
眾惡	-10.1017
其地	-10.102
若得	-10.1022
還宮	-10.1023
譬	-10.1023
之智	-10.1024
挽	-10.1026
助菩提法	-10.1029
法王	-10.103
墮惡道	-10.103
無人	-10.1039
乃是	-10.1039
碎	-10.104
占	-10.1043
身相	-10.1044
如今	-10.1048
諸外道	-10.1053
海水	-10.1057
暮	-10.1059
已竟	-10.1059
朋友	-10.1059
針	-10.1063
頭上	-10.1065
竊	-10.107
奴婢	-10.107
過去世時	-10.1071
帶	-10.1076
而告之言	-10.1083
恐懼	-10.1087
老死	-10.1089
阿蘭若	-10.1089
不覩	-10.1092
福力	-10.1095
名聞	-10.1099
何謂	-10.1104
臣民	-10.1108
墜	-10.111
暗	-10.1116
是誰	-10.1124
疾病	-10.1132
死者	-10.1134
於法	-10.1141
皆當	-10.1143
見諦	-10.1143
大善	-10.1149
其家	-10.1156
心者	-10.1158
人王	-10.1178
枯	-10.1179
勢力	-10.1182
精懃	-10.1185
奏	-10.119
無所得	-10.119
輸	-10.1192
詐	-10.1195
不還	-10.1196
自利	-10.1197
斷除	-10.1201
嚴駕	-10.1205
惜	-10.1216
得須陀洹果	-10.1222
得佛	-10.1234
二子	-10.1235
資財	-10.1237
檀	-10.1244
而能	-10.1277
永無	-10.1284
諸煩惱	-10.1287
八難	-10.1288
此閻浮提	-10.1289
眾生之類	-10.1292
響	-10.1299
為苦	-10.1314
力勢	-10.1314
剃除鬚髮	-10.1318
則無	-10.1318
為人所	-10.1321
乾陟	-10.1322
出入	-10.1322
以不	-10.1323
孔	-10.1324
低頭	-10.1325
聞此語已	-10.133
扶	-10.1331
求解脫	-10.1331
夏	-10.1332
旃陀羅	-10.1332
長跪	-10.134
彼彼	-10.1342
即前	-10.1344
遠近	-10.1346
未有	-10.1356
王便	-10.1358
心常	-10.136
見王	-10.1361
豆	-10.1365
獻	-10.1368
相續	-10.1369
王復	-10.1377
六度	-10.1383
真正	-10.1384
不犯	-10.1388
十五	-10.1391
是道	-10.1398
衣被	-10.1398
尋時	-10.14
生時	-10.1404
聽我	-10.1404
奔	-10.141
無量百千	-10.1412
惡趣	-10.1413
便得	-10.142
經典	-10.1423
既不	-10.1432
所聞	-10.144
皆來	-10.1443
諸欲	-10.1451
來者	-10.1451
便為	-10.1451
出現	-10.1453
三月	-10.1453
陀羅尼	-10.1455
賴	-10.1458
選擇	-10.146
吒	-10.146
於是便說此偈	-10.146
低	-10.1461
七者	-10.1464
以是之故	-10.1465
頸	-10.1466
防	-10.1467
斬	-10.1469
偷	-10.1475
墮於	-10.1475
皆能	-10.1477
眾生類	-10.1479
常為	-10.148
救護	-10.1487
自稱	-10.1494
開化	-10.1507
畢竟	-10.151
憂苦	-10.1515
我昔	-10.1515
狐疑	-10.1525
亦可	-10.1527
宣說	-10.1528
無生	-10.1534
故有	-10.1541
得一	-10.1551
躬	-10.1555
為大	-10.1566
不曾	-10.1569
悉得	-10.1572
必定	-10.1575
能捨	-10.1575
家內	-10.1576
無過	-10.1581
窟	-10.1582
四恩	-10.1583
又見	-10.1588
輪王	-10.1589
宛轉	-10.1596
由旬	-10.1597
星宿	-10.1606
償	-10.1607
火燒	-10.1614
大會	-10.1617
集聚	-10.162
聞持	-10.1621
更無	-10.1622
問其	-10.1636
得聞	-10.1638
真珠	-10.1638
穢惡	-10.1639
將至	-10.1644
受報	-10.1649
豫	-10.1651
為求	-10.1653
無疑	-10.1655
不斷	-10.1657
可愛	-10.1657
證知	-10.1666
成佛道	-10.1669
聽受	-10.1682
諸行	-10.1694
貪求	-10.1695
忿	-10.1697
不放逸	-10.1698
作業	-10.17
於未來世	-10.1701
菩提心	-10.1702
為諸	-10.1704
不盡	-10.1708
繩	-10.171
阿須倫	-10.1735
某	-10.1735
輒	-10.1737
灰	-10.1738
還來	-10.1744
四事	-10.1748
婦言	-10.1749
此則	-10.1752
翻	-10.1752
道者	-10.1754
閑居	-10.1756
瑞	-10.1756
微細	-10.1759
身口	-10.1761
毒龍	-10.1761
欲往	-10.1762
稱讚	-10.1774
大法	-10.178
聞者	-10.1785
親族	-10.1799
受用	-10.1801
幾	-10.1801
壽終	-10.1805
所應	-10.1808
更有	-10.1813
作如是	-10.1815
梵語	-10.1817
遊觀	-10.1822
為道	-10.1826
赴	-10.1831
。『	-10.1831
淚	-10.1833
時節	-10.1839
分明	-10.1841
神仙	-10.1842
閑	-10.1842
頌曰	-10.1865
娑	-10.187
鬚髮自落	-10.187
阿羅邏	-10.1871
魔王波旬	-10.1872
偽	-10.1876
如佛	-10.1877
毒藥	-10.1878
健	-10.1878
卷第四	-10.1878
訓	-10.1878
則為	-10.1884
闕	-10.1886
所愛	-10.1889
公	-10.1892
度無極	-10.1893
才	-10.1894
惟願	-10.1901
臥具	-10.1901
於道	-10.1906
王聞是語	-10.1907
中道	-10.1907
名為梵志	-10.1913
至佛所	-10.1926
欲來	-10.1927
過患	-10.1927
作何	-10.194
我此	-10.1942
弄	-10.1952
然後乃	-10.1955
其言	-10.1955
如天	-10.1955
皆盡	-10.1961
大丈夫	-10.1966
諸天世人	-10.1966
念念	-10.1971
為一	-10.1975
開悟	-10.1975
淨行	-10.1978
衛	-10.1988
不貪	-10.1992
趣向	-10.1992
向佛	-10.1993
虛妄	-10.1994
一生	-10.1996
咎	-10.1999
五十	-10.2008
孫	-10.2009
灑	-10.2017
實是	-10.2018
隨所	-10.2019
墮地獄	-10.2019
療	-10.202
蘇	-10.2022
纏蓋	-10.2022
纔	-10.2026
甘蔗	-10.2026
逮得	-10.2027
醫藥	-10.2029
修崇	-10.2032
如是次第	-10.2035
封	-10.2035
次復	-10.2039
菩薩行	-10.204
氣力	-10.2046
乃知	-10.2047
羣	-10.2047
浴池	-10.2066
佛性	-10.207
當於	-10.2072
為上	-10.2074
經云	-10.2076
王之	-10.2079
嗣	-10.2081
漏盡	-10.2092
即勅	-10.21
還至	-10.2102
房	-10.2103
其夫	-10.2107
菩提樹下	-10.2112
於是世尊	-10.2115
譯	-10.2115
牟尼	-10.2115
聞是	-10.2116
蔽	-10.2117
甚難	-10.2122
觀之	-10.2123
捕	-10.2125
婦人	-10.2127
五蘊	-10.213
受五戒	-10.2137
提婆	-10.2139
寶珠	-10.2144
耀	-10.2146
悲愍	-10.2151
極為	-10.2152
為最	-10.2153
膝	-10.2157
附	-10.2165
誠實	-10.2165
其事云何	-10.217
定慧	-10.2171
歸家	-10.2172
流淚	-10.2174
爭	-10.2175
天上人中	-10.2176
十方諸佛	-10.2177
不惜身命	-10.2182
積聚	-10.2184
勝妙	-10.2187
來詣佛所	-10.2188
般若	-10.219
?』」「	-10.2194
得免	-10.2197
而復	-10.2197
船師	-10.2201
自見	-10.2202
大甲	-10.2203
生處	-10.2213
誡	-10.2219
有德	-10.2222
以法	-10.2224
鴈	-10.2225
即將	-10.2226
甘美	-10.2239
作惡	-10.2244
我若	-10.2247
極大	-10.2248
欣	-10.2252
都無	-10.2255
今以	-10.2263
多少	-10.2265
風吹	-10.2265
之樂	-10.2266
燋	-10.2283
喻佛	-10.2284
眾行	-10.2285
之眾	-10.2287
本性	-10.229
能作	-10.2293
處於	-10.2297
三事	-10.2302
屍	-10.2306
欲以	-10.231
多種	-10.231
之福	-10.2311
前進	-10.2311
六年	-10.2312
種種莊嚴	-10.2313
滅除	-10.2314
蘊	-10.2314
銅	-10.2317
咄	-10.2318
正真	-10.2318
命終之後	-10.2319
第七	-10.2321
柱	-10.2322
譬如有人	-10.2323
讀	-10.2327
無益	-10.2333
摧	-10.2338
同聲	-10.2342
彼國	-10.2349
損減	-10.2352
施為	-10.2355
之患	-10.236
言教	-10.2366
壯	-10.2367
油	-10.2371
劍	-10.2374
更相	-10.2377
意地	-10.2384
戒行	-10.2387
教令	-10.2387
遶	-10.2401
作是說	-10.2405
以用	-10.2406
希	-10.2407
無染	-10.2409
變易	-10.2415
天樂	-10.2418
妙好	-10.2419
省	-10.2419
談	-10.2421
錯	-10.2423
不在	-10.2427
得生天	-10.2427
八種	-10.2427
至此	-10.2428
無想	-10.2429
爾時大王	-10.243
即與	-10.2431
二句	-10.2433
法輪	-10.2435
幢幡	-10.2438
遵	-10.244
常行	-10.2441
豈不	-10.2442
剋	-10.2442
莊嚴其身	-10.2444
目揵連	-10.2447
無央數	-10.245
力故	-10.2451
家業	-10.2455
佛在舍衛國祇樹給孤獨園	-10.2457
五濁	-10.2458
大明	-10.2462
見菩薩	-10.2462
擬	-10.2463
雄	-10.2464
攝受	-10.2466
以彼	-10.2467
披	-10.2467
千人	-10.2469
暢	-10.2472
支分	-10.2472
出於	-10.2473
哭	-10.2474
長壽	-10.2475
規	-10.2475
凡人	-10.2481
非時	-10.2481
大智	-10.2483
囑	-10.2484
離於	-10.2484
開示	-10.2495
乃往過去	-10.2497
馭者	-10.2498
諸婇女	-10.2501
婬欲	-10.2505
內心	-10.2508
得法眼淨	-10.2512
我執	-10.2513
率	-10.2518
形容	-10.2519
最初	-10.2521
是身	-10.2521
嗚呼我	-10.2525
得大	-10.2528
無間	-10.2536
海中	-10.2537
我意	-10.2546
喻如	-10.2547
右手	-10.2548
住蘭若	-10.2549
休	-10.255
募	-10.2555
來至此	-10.256
其福	-10.2569
從其	-10.2587
迴還	-10.2588
雖然	-10.259
入宮	-10.2592
福智	-10.2593
忉利天	-10.2597
於王	-10.2598
作佛	-10.2603
本生	-10.2605
黃金	-10.2607
我聞	-10.2608
持此	-10.261
諸人民	-10.2612
北方	-10.2613
如上所說	-10.2614
有為	-10.2614
庫藏	-10.2618
價	-10.2621
恕	-10.2621
死屍	-10.2627
本來	-10.2628
心懷歡喜	-10.2635
無欲	-10.2642
少欲	-10.2646
敢	-10.2647
有二種	-10.2651
有異	-10.2656
阿那含	-10.2663
然其	-10.2671
即告	-10.2676
為此	-10.2677
真金	-10.2678
三尊	-10.2681
少分	-10.2692
不獲	-10.2692
此亦如是	-10.2694
作於	-10.2699
託	-10.27
慈母	-10.2701
無所畏	-10.2701
聞彼	-10.2704
孔雀	-10.2706
久遠	-10.271
憐	-10.2721
天中天	-10.2723
即入	-10.2723
踊	-10.2727
三惡道	-10.273
微笑	-10.2731
度生	-10.2732
慳	-10.2733
常以	-10.2737
其後	-10.2738
皆令	-10.2741
驅	-10.2748
沈	-10.2759
不畏	-10.2761
來到	-10.2761
驢	-10.2764
緊那羅	-10.2766
如海	-10.2768
慰喻	-10.2769
傾	-10.277
即從座起	-10.277
安慰	-10.2771
愚惑	-10.2773
慎莫	-10.2775
聽許	-10.2778
欲為	-10.2781
牢獄	-10.2784
化人	-10.2792
審諦	-10.2795
頂上	-10.2796
流布	-10.2797
當得作佛	-10.2798
他國	-10.2802
開門	-10.2804
多所	-10.2822
所居	-10.2825
五百弟子	-10.2827
捨我	-10.2831
既見	-10.2833
雷	-10.2835
最為	-10.2839
飛行	-10.284
彼有	-10.2844
斯陀含	-10.2845
之者	-10.2852
心法	-10.2853
)《	-10.2857
歡悅	-10.2868
擎	-10.288
我本	-10.288
一切種智	-10.2894
具說	-10.2896
能使	-10.2901
同時	-10.2905
現前	-10.2909
大婆羅門	-10.291
翅	-10.2913
勸請	-10.2915
盧	-10.2918
鳥獸	-10.2918
為首	-10.2918
結加趺坐	-10.2921
烟	-10.2923
役	-10.2928
求索出家	-10.2929
即生	-10.2931
得阿羅漢	-10.2932
所致	-10.2934
為善	-10.2935
顯示	-10.2937
其數	-10.294
敷演	-10.2943
女言	-10.2945
知佛	-10.2945
聖眾	-10.2945
是時菩薩	-10.2949
能為	-10.2957
嗔	-10.2958
而死	-10.2959
無動	-10.2959
四面	-10.2964
摩尼婁陀	-10.2972
未盡	-10.2978
立名	-10.2984
城外	-10.2987
此二	-10.299
善女人	-10.2995
得是	-10.3013
跪	-10.302
遷	-10.3022
此兒	-10.3031
縛著	-10.3031
剎利	-10.3033
優	-10.3039
是故我今	-10.304
捨此	-10.3043
火坑	-10.3046
此非	-10.3046
貢高	-10.3048
善聽	-10.3058
開解	-10.306
列	-10.3063
二種	-10.3064
無道	-10.3066
樹間	-10.3067
受生	-10.3069
往古	-10.307
摩睺羅伽	-10.308
為佛作禮	-10.3083
戀慕	-10.3086
周旋	-10.3088
或為	-10.309
容貌	-10.309
生起	-10.3091
化佛	-10.3093
然彼	-10.3094
鉢中	-10.3101
後日	-10.3104
為第一	-10.3106
法相	-10.3108
我曹	-10.311
病者	-10.311
欲知爾時	-10.3111
不思議	-10.3111
喜樂	-10.3113
怨敵	-10.3115
除其	-10.3118
意不	-10.3121
復告	-10.3127
堪任	-10.3129
誰有	-10.3135
沙門婆羅門	-10.3163
平正	-10.3164
崇	-10.3166
軍眾	-10.3169
少壯	-10.3171
觀彼	-10.3171
月光	-10.3176
諸功德	-10.3177
缺	-10.3179
此比丘	-10.3181
恐畏	-10.3188
王意	-10.3194
復還	-10.3194
糞	-10.3195
得無	-10.3197
憍陳如	-10.3201
十種	-10.3207
侍者	-10.3215
垢染	-10.322
不虛	-10.3222
罪人	-10.3225
招	-10.3225
未至	-10.3229
聞其	-10.323
復有一佛號	-10.3231
馳走	-10.3231
相與	-10.3232
視之	-10.3236
問佛	-10.324
彼此	-10.324
衣裳	-10.3242
殺生	-10.3243
后	-10.3248
殊特	-10.3249
閻浮	-10.325
舉手	-10.3251
知是	-10.3253
出生	-10.3259
日出	-10.326
身上	-10.3262
白淨王	-10.3266
八者	-10.3268
捨去	-10.3279
除滅	-10.3283
然此	-10.3289
即還	-10.3289
舉聲	-10.3292
汝身	-10.3294
住世	-10.3295
必得	-10.3297
弊惡	-10.3301
一切大眾	-10.3305
是童子	-10.3306
出要	-10.3306
而還	-10.331
。』『	-10.331
眾善	-10.3313
礙	-10.3315
車乘	-10.3316
色界	-10.3328
所念	-10.3334
寶物	-10.3341
及比丘僧	-10.3351
父子	-10.3359
聞說	-10.3363
不息	-10.337
非真	-10.3378
欲心	-10.3378
有偈說	-10.3382
此地	-10.3386
其一	-10.339
當觀	-10.3391
》(	-10.3393
萬法	-10.3396
工巧	-10.3408
卷第五	-10.3409
故來	-10.341
所成	-10.3411
黠	-10.3412
虫	-10.3412
圍	-10.3413
誘	-10.3414
在地	-10.3415
曜	-10.3416
百年	-10.3416
不免	-10.3417
講	-10.3418
亦是	-10.3424
不祥	-10.3428
喜悅	-10.3429
智力	-10.3429
東西	-10.343
此頌	-10.3436
進止	-10.3437
天龍	-10.3453
香華	-10.3455
妄心	-10.3458
之家	-10.3467
諸比丘等	-10.3474
神變	-10.3477
更不	-10.3478
一切諸法	-10.349
舍衛國	-10.3491
皆大歡喜	-10.3493
足下	-10.3501
剃	-10.3504
釋迦	-10.3506
妙色	-10.3509
臭穢	-10.3513
不取	-10.3516
作此	-10.352
我今已	-10.3523
或有眾生	-10.3524
咸共	-10.3525
為之	-10.3527
詣佛所	-10.3528
即取	-10.3532
亦能	-10.3533
之日	-10.3535
成辦	-10.3539
太	-10.354
鄙	-10.3545
一面	-10.3545
說此	-10.3552
今為	-10.3553
心所	-10.3557
猗	-10.3559
或復有	-10.3559
則有	-10.3562
一切煩惱	-10.3563
晝	-10.3569
奢	-10.357
灌	-10.3571
所作已辦	-10.3572
何能	-10.3572
九十一劫	-10.3574
迦樓羅	-10.3576
雇	-10.3576
取其	-10.3577
汝等諦聽	-10.3577
時天帝釋	-10.3581
大梵天王	-10.359
非有	-10.3593
敬禮	-10.3596
無實	-10.3597
善巧方便	-10.36
若使	-10.3602
以何	-10.3602
汝所	-10.3604
那羅陀	-10.3605
頭髮	-10.3605
宣令	-10.3607
瞻仰	-10.3608
彼修行人	-10.3611
冠	-10.3613
生已	-10.3613
死人	-10.3615
覩之	-10.3615
身口意	-10.3616
三塗	-10.3616
聖師	-10.3619
即復	-10.363
昔者	-10.3631
南無	-10.3631
時佛	-10.3635
復為	-10.3637
來此	-10.3643
白菩薩言	-10.3645
度世	-10.3645
便當	-10.3647
崩	-10.3649
明珠	-10.3652
吾欲	-10.3655
常樂	-10.3657
於十方	-10.3658
山澤	-10.3661
斯事	-10.3663
自致	-10.3667
行於	-10.367
坑	-10.3672
又有	-10.3677
般涅槃	-10.3685
泉水	-10.3691
其形	-10.3693
擇	-10.3697
如月	-10.3697
覩見	-10.3699
誨	-10.3709
薩	-10.3709
修施	-10.3709
於先	-10.3719
塔寺	-10.3721
王如來	-10.3721
誑	-10.3723
病人	-10.3724
迦羅	-10.3725
幽	-10.3726
善本	-10.3727
六種震動	-10.3734
汝於	-10.3735
觀者	-10.3735
羸瘦	-10.3738
而說	-10.3738
從何	-10.3738
掘	-10.3739
供養佛	-10.3741
醜陋	-10.3741
却後七日	-10.3742
其間	-10.3742
無上菩提	-10.3743
倚	-10.3743
驗	-10.3747
功勳	-10.375
工	-10.3751
終不捨離	-10.3751
黑闇	-10.3752
大富	-10.3752
慎	-10.3764
倫	-10.377
住在	-10.377
慶	-10.3785
海神	-10.3791
無限	-10.3796
水邊	-10.3797
諸子	-10.3801
入涅槃	-10.381
嗟歎	-10.3812
不止	-10.3812
聞王	-10.3817
法要	-10.3821
以身	-10.3833
第一義	-10.3833
是法	-10.3836
互	-10.3838
常有	-10.3839
護持	-10.3842
度眾生	-10.3845
沙門瞿曇	-10.3858
置於	-10.3862
不然	-10.3883
是諸	-10.3884
溺	-10.3887
金輪	-10.389
疲極	-10.3891
何用	-10.3893
便以	-10.3893
風雨	-10.3898
佛弟子	-10.3901
茲	-10.3904
不順	-10.3904
灌頂	-10.3907
無所乏少	-10.3909
卑	-10.391
摩伽陀國	-10.3911
第六	-10.3912
揚	-10.3914
悕望	-10.3917
稽首佛足	-10.3921
樹上	-10.3921
如是事	-10.3922
更復	-10.3924
謀	-10.3925
唯佛	-10.3927
汝是	-10.393
輪轉	-10.3931
佛知	-10.3932
以神通力	-10.3933
出外	-10.3934
來至佛所	-10.3939
剎那	-10.394
莫能	-10.3943
正行	-10.3944
不能自	-10.3947
三人	-10.3948
來入	-10.3954
諸三昧	-10.3979
天雨	-10.3983
善知	-10.3986
生歡喜	-10.3988
舞	-10.3993
自陳	-10.3995
誦經	-10.3997
諸善	-10.3999
捨於	-10.4
讚佛	-10.4002
昨夜	-10.4002
祠	-10.4003
能行	-10.4005
食訖	-10.4009
甚多	-10.4017
我父	-10.4027
仁今	-10.403
於菩薩	-10.4033
正是	-10.4041
得不退轉	-10.4043
鏡	-10.4049
朽	-10.4049
此語	-10.4052
使得	-10.4052
我今欲	-10.4052
白世尊	-10.4053
此諸	-10.4072
願佛	-10.4073
飽	-10.4076
護明菩薩	-10.408
或在	-10.4081
阿僧祇劫	-10.4086
練	-10.4087
是則	-10.4088
選	-10.409
尼揵	-10.4091
初句	-10.4094
佉	-10.4095
斧	-10.4097
雹	-10.4097
鎧	-10.4098
所住	-10.4101
猪	-10.4104
血肉	-10.4105
於長夜	-10.4105
舍衛	-10.4107
教法	-10.411
見佛世尊	-10.4118
展轉相	-10.4121
悉達太子	-10.4128
糞穢	-10.4147
之上	-10.4154
釋梵	-10.4154
躬自	-10.4157
三藏	-10.4157
獵	-10.4158
說經	-10.4159
亦不能	-10.4162
宮人	-10.4166
即遣	-10.4174
花鬘	-10.4185
自有	-10.4186
善淨	-10.4186
饒	-10.4197
守戒	-10.4198
樂聞	-10.4201
作諸	-10.4202
澡	-10.4207
鼈	-10.4207
集會	-10.4211
合會	-10.4212
及其	-10.4214
之功	-10.4214
彼天	-10.4216
過去諸佛	-10.4217
變成	-10.4221
禮佛	-10.4224
他方	-10.4225
花果	-10.4228
徐	-10.4229
愍傷	-10.423
統	-10.4234
卷第二	-10.4242
惡法	-10.4242
雪	-10.4244
廢	-10.4247
具以	-10.4248
世有	-10.4248
門戶	-10.4249
賈客	-10.425
正理	-10.4252
觀其	-10.4254
』	-10.4258
魔眾	-10.4262
琴	-10.4265
其命	-10.4266
凶	-10.4267
麥	-10.4269
法服	-10.4274
荊棘	-10.4275
波羅㮈城	-10.4275
婿	-10.4276
迦毘羅	-10.4276
頂生王	-10.4277
嘆	-10.428
以偈讚	-10.4282
希望	-10.4282
此大沙門	-10.4286
此為	-10.4287
文殊師利	-10.4287
拔濟	-10.4288
深生	-10.4289
猶不	-10.4289
不造	-10.429
諸苾芻	-10.429
有一人	-10.4291
靜住	-10.4291
當自	-10.4292
為汝	-10.4293
人心	-10.4296
舉身	-10.4296
即出	-10.4296
只	-10.4306
苦哉	-10.4309
是大	-10.4311
而為恐怖	-10.4313
不可計	-10.4318
語彼	-10.432
諮	-10.4322
說是	-10.4335
悔過	-10.4347
佛身	-10.4349
與其	-10.4367
復當	-10.4369
身不	-10.4369
亦應	-10.4373
壁	-10.4375
十三	-10.4375
下生	-10.4377
自投	-10.4378
鮮	-10.4381
穢濁	-10.4381
是彼	-10.4382
攝取	-10.4383
諸天眾	-10.4383
觀見	-10.4384
瘦	-10.4384
義理	-10.4386
退轉	-10.4387
若復	-10.4387
兜率天	-10.4388
戶	-10.4396
猶彼	-10.4397
即共	-10.4398
顏貌	-10.4409
善解	-10.441
明了	-10.441
卷第三	-10.4411
諸結使	-10.4412
盛滿	-10.4414
動搖	-10.4418
爾時世尊告	-10.442
令汝	-10.4423
身肉	-10.4423
其樹	-10.4424
逼迫	-10.4427
四王	-10.4428
正明	-10.4428
無上道	-10.4431
十四	-10.4437
欲知彼時	-10.4443
呪術	-10.4446
身中	-10.4448
華鬘	-10.4449
項	-10.445
王有	-10.4451
尸棄如來	-10.4452
段	-10.4454
寐	-10.4455
誠諦	-10.4455
頗梨	-10.4456
辛苦	-10.4456
閑靜	-10.4459
誅	-10.4462
雲集	-10.4463
二萬	-10.4463
四人	-10.4464
欣然	-10.4464
賓	-10.4468
顯現	-10.447
厭患	-10.4472
城邑	-10.4473
長養	-10.4473
所修	-10.4476
師子座	-10.4476
空寂	-10.4479
出家得道	-10.4481
大歡喜	-10.4484
即從	-10.4485
不異	-10.4489
我於今者	-10.4491
道法	-10.4492
隣	-10.4493
據	-10.4495
醜	-10.4502
發意	-10.4502
至于	-10.4503
聖賢	-10.4517
是何	-10.4524
得阿耨多羅三藐三菩提	-10.4524
若干種	-10.4524
身為	-10.4535
而告之	-10.4545
隨喜	-10.4549
十九	-10.455
之業	-10.4551
居家	-10.4552
無知	-10.4553
立願	-10.4553
有智	-10.4556
大苦	-10.456
施行	-10.4562
不說	-10.4565
而此	-10.4573
光照	-10.4575
為樂	-10.4575
五通	-10.4577
乳糜	-10.4579
契	-10.4584
得須陀洹	-10.4584
自巳	-10.459
飽滿	-10.4591
等者	-10.4609
王家	-10.4612
見太子	-10.4615
在後	-10.4622
尊貴	-10.4623
之名	-10.4629
捨棄	-10.463
種諸善根	-10.4634
罰	-10.4636
侍衛	-10.4637
以一	-10.4637
九十	-10.4639
罵詈	-10.4639
涼	-10.464
真心	-10.464
咸皆	-10.4641
告諸	-10.4641
頭面作禮	-10.4643
多羅	-10.4643
阿那律	-10.4645
饌	-10.4645
洲	-10.4646
財貨	-10.4646
時彼城中	-10.4648
如來世尊	-10.4649
西方	-10.4651
瞿曇沙門	-10.4651
無緣	-10.4652
行法	-10.4652
因此	-10.4653
一乘	-10.4659
徒眾	-10.466
治化	-10.4661
伏藏	-10.4662
到彼岸	-10.4663
愛子	-10.4664
詳	-10.4666
便自	-10.4669
白淨	-10.4677
令住	-10.4677
出家修道	-10.4681
焚燒	-10.4691
能解	-10.4692
天龍鬼神	-10.4695
巳竟	-10.4696
受彼	-10.4699
關	-10.4704
若以	-10.4715
大道	-10.4719
如似	-10.472
假若	-10.4727
不當	-10.4729
時有一	-10.4741
無縛	-10.475
秋	-10.4756
耶舍	-10.4756
萬歲	-10.4757
兩目	-10.4758
與王	-10.4763
重擔	-10.4764
無非	-10.4765
檀度	-10.4767
受之	-10.4769
右脇	-10.4771
世尊告諸比丘	-10.4773
法故	-10.4777
無一	-10.4781
㲲	-10.4782
未來世	-10.4786
而問之	-10.4787
種種諸	-10.4787
樹林	-10.4788
見聞	-10.479
三千	-10.4792
有餘	-10.4793
昔日	-10.4793
人乎	-10.4797
吼	-10.4797
善生	-10.4801
大沙門	-10.4802
信解	-10.4803
誰當	-10.4804
按	-10.481
昏	-10.481
梵德王	-10.4811
所由	-10.4815
其德	-10.4816
不殺	-10.4817
如上	-10.4818
請佛及僧	-10.482
寬	-10.4824
補	-10.4824
逸	-10.4825
未及	-10.4826
殖	-10.4829
澡浴	-10.4829
惶怖	-10.4831
而說頌曰	-10.4832
快哉	-10.4833
縷	-10.4834
振	-10.4835
鈎	-10.4836
卷第一	-10.4838
四兵	-10.4841
得之	-10.4842
掌	-10.4844
般涅槃後	-10.4845
而用	-10.4846
乃可	-10.4859
所著	-10.4869
願王	-10.487
共為	-10.4873
既至	-10.4873
以種種	-10.4876
今復	-10.4879
叉手合掌	-10.4879
得出家	-10.4888
六入	-10.4893
正智	-10.492
生大	-10.4929
盡其	-10.493
亦皆	-10.4932
終身	-10.4939
今在	-10.4939
求菩提	-10.4942
邪道	-10.4945
不達	-10.496
於眾生	-10.4961
長者家	-10.4965
米	-10.4967
所食	-10.4968
使令	-10.4969
取之	-10.4969
祀	-10.4971
身形	-10.4988
梵天王	-10.4989
慈者	-10.4989
何人	-10.499
猛火	-10.4991
天冠	-10.4998
作轉輪聖王	-10.4999
悉能	-10.5
值遇	-10.5003
當生	-10.5004
變為	-10.5007
便成沙門	-10.5009
自說	-10.5013
之果	-10.5018
過去久遠	-10.5018
我者	-10.5019
策	-10.502
啼泣	-10.5023
村落	-10.5023
王后	-10.5024
跳	-10.5024
食噉	-10.5025
貧賤	-10.5025
債	-10.5026
沸	-10.5026
樓閣	-10.5028
突	-10.503
出家者	-10.5031
踐	-10.5031
酷	-10.5031
王今	-10.5035
速證	-10.5036
瓦師	-10.5037
母人	-10.5042
阿闍世王	-10.5042
不觀	-10.5044
以善	-10.5044
空閑	-10.5044
將諸比丘	-10.5045
王勅	-10.5048
福者	-10.5048
得成阿耨多羅三藐三菩提	-10.505
出離	-10.5051
坐於	-10.5052
未能	-10.5053
諸大眾	-10.5057
門外	-10.5058
是時世尊	-10.506
最第一	-10.5063
三途	-10.5063
慚	-10.5064
然既	-10.5067
度無極行	-10.5072
啼	-10.5075
不亂	-10.5076
大象	-10.5079
王女	-10.5079
禮敬	-10.508
嚴淨	-10.5082
弱	-10.5093
之罪	-10.5094
攻	-10.5101
到彼	-10.5105
不以為	-10.5105
五根	-10.5106
一百	-10.5112
於生死	-10.5116
但當	-10.512
處世	-10.512
將諸	-10.5133
隸	-10.5134
諸大臣	-10.5134
憂悲	-10.5138
至世尊所	-10.5149
奈何	-10.5155
較	-10.5156
場	-10.5158
妙音	-10.5159
人命	-10.5162
法衣	-10.5165
有佛	-10.5169
照曜	-10.5171
言辭	-10.5172
般	-10.5173
舉國	-10.5175
乞求	-10.5176
得生天上	-10.5178
出水	-10.5179
入地獄	-10.5184
聖諦	-10.5184
學者	-10.5185
授與	-10.5187
問之	-10.5188
論議	-10.5189
擾	-10.5201
則能	-10.5204
蔭	-10.5209
得須陀洹道	-10.5212
入城乞食	-10.5214
賞	-10.5214
釋迦牟尼如來	-10.5215
佛世界	-10.5217
扇	-10.5219
或能	-10.522
五慾	-10.5221
修福	-10.5223
瓦石	-10.5224
薰	-10.5225
濕	-10.5226
銷	-10.5226
偶	-10.5227
忘失	-10.5228
第五	-10.523
捐棄	-10.5231
因緣故	-10.5234
即從坐起	-10.5234
隨其所	-10.5238
普照	-10.5239
何有	-10.5241
與此	-10.5243
昔者菩薩	-10.5243
娑羅	-10.5244
阿夷	-10.5245
而為說法	-10.5249
口中	-10.525
欝	-10.5252
王告	-10.5256
於佛前	-10.5262
然我	-10.5263
專心	-10.5265
大王當知	-10.5266
床座	-10.5267
甚可	-10.5267
萬行	-10.5268
意在	-10.5274
爛	-10.5275
佛前	-10.5279
我能	-10.5282
常當	-10.5285
不隨	-10.5286
凡有	-10.5287
聖凡	-10.5294
施者	-10.5295
波羅㮈	-10.5295
不成	-10.5295
善巧	-10.5305
豈可	-10.5311
疑惑	-10.5319
水火	-10.5321
求之	-10.5322
波羅奈	-10.5323
而問	-10.5329
慧眼	-10.5329
愛心	-10.5331
止住	-10.5338
意解	-10.534
願見	-10.5346
兩手	-10.5347
謂之	-10.5351
自活	-10.5357
欲害	-10.5361
如大	-10.5367
無患	-10.5367
梵音	-10.537
諸菩薩等	-10.5373
滋	-10.5373
進修	-10.5375
伎	-10.5378
隣國	-10.538
佛在	-10.5384
現行	-10.5388
去來	-10.5389
辦具	-10.5392
垢穢	-10.5395
以佛	-10.5399
合十指掌	-10.54
正定	-10.5402
􂌞	-10.5403
方所	-10.5403
妖	-10.541
警	-10.541
險	-10.5413
作倡伎樂	-10.5414
怪哉	-10.5415
晉言	-10.5415
摩訶波闍波提	-10.5416
初二句	-10.5417
真人	-10.5418
照明	-10.5419
當體	-10.542
勒	-10.542
疊	-10.5421
譬喻	-10.5424
療治	-10.5426
塚間	-10.5426
答王言	-10.5427
聲聞弟子	-10.5427
良醫	-10.5427
仍	-10.5427
逃	-10.5427
麗	-10.5429
念曰	-10.5435
報彼	-10.5437
道行	-10.5443
毒害	-10.5443
其名	-10.5444
輕慢	-10.5445
參	-10.545
慈仁	-10.5454
離苦	-10.5456
念佛	-10.5464
心即	-10.5464
復語	-10.5469
愁惱	-10.5472
太山	-10.5474
大樹	-10.5474
消除	-10.5475
未見	-10.5479
其兒	-10.548
分衛	-10.5481
?」「	-10.5483
覩佛	-10.5485
無色	-10.5486
來詣	-10.5487
淨戒	-10.5489
竹園	-10.5489
受我	-10.549
厄難	-10.5491
眼目	-10.5492
宿世	-10.5493
知已	-10.5496
香水	-10.55
皆言	-10.5503
高座	-10.5505
學問	-10.5505
江	-10.5509
又以	-10.551
作一	-10.5516
著於	-10.5522
化身	-10.5523
長行	-10.5526
後時	-10.5531
實語	-10.5532
阿羅漢者	-10.5534
覺寤	-10.5534
緣是	-10.5537
馬王	-10.5551
聞太子	-10.5552
為師	-10.5555
稟	-10.5556
作福	-10.5557
妙香	-10.5561
跋	-10.5562
之想	-10.5563
卷	-10.5568
止觀	-10.557
曜經	-10.5572
園觀	-10.5572
不移	-10.5572
諸神	-10.5577
而立	-10.5587
寧可	-10.5587
此苦	-10.559
究	-10.5593
祐	-10.56
為眾生	-10.5607
翳	-10.5607
槃	-10.5607
各相謂言	-10.561
超越	-10.561
耆	-10.5611
散亂	-10.5611
夷	-10.5612
利刀	-10.5612
非但今日	-10.5614
三明六通	-10.5615
嶮	-10.5615
右膝著地	-10.5617
髻	-10.5617
嬈	-10.5617
整	-10.5618
肥	-10.5619
聞是偈已	-10.5619
繞	-10.562
憑	-10.5621
明旦	-10.5621
嫁	-10.5622
取水	-10.5622
穴	-10.5623
賢者阿難	-10.5623
形貌	-10.5628
服飾	-10.5629
棄捐	-10.5631
四十里	-10.5632
奮	-10.5635
五種	-10.5637
玄	-10.5637
能自	-10.5637
大迦葉	-10.564
汁	-10.5641
餅	-10.5643
之人亦復如是	-10.5649
所說法	-10.5651
調御	-10.5651
故為	-10.5652
唯願大王	-10.5653
道果	-10.5659
求佛	-10.566
祇	-10.566
如故	-10.5661
奉迎	-10.5661
命盡	-10.5664
有大威德	-10.5665
有一婆羅門	-10.567
燈明	-10.5671
為因	-10.5671
迦葉如來	-10.5671
昇天	-10.5674
當與	-10.5676
佛邊	-10.5677
不絕	-10.5678
本國	-10.5682
那由他	-10.5684
說此偈	-10.5689
國師	-10.5691
染污	-10.5692
當還	-10.5696
何如	-10.57
投身	-10.57
端坐	-10.5703
從我	-10.5705
之具	-10.5706
御者	-10.571
彼城	-10.5713
引導	-10.5719
辟支	-10.5722
祇洹	-10.5728
非我	-10.5729
得未曾有	-10.573
供養父母	-10.5732
不至	-10.5733
群鹿	-10.5741
堅牢	-10.5741
諸沙門	-10.5742
懃	-10.5742
有婆羅門	-10.5742
十方世界	-10.5743
六通	-10.575
於阿耨多羅三藐三菩提	-10.5751
是時太子	-10.5753
佛時	-10.5753
思想	-10.5754
彼之	-10.5756
悲哀	-10.5757
南方	-10.5759
汝莫	-10.5761
我故	-10.5763
以智	-10.5763
將此	-10.5769
而至	-10.5769
陷	-10.5773
若彼	-10.5776
皆使	-10.5777
老病	-10.5778
是知	-10.578
如火	-10.578
師曰	-10.5782
不愛	-10.5783
之女	-10.5783
為眾	-10.5786
淨心	-10.5786
難遇	-10.5787
最大	-10.5789
道中	-10.5791
閻浮提內	-10.5792
生活	-10.5793
發是願	-10.5796
會中	-10.5798
前行	-10.58
搖	-10.5804
受請	-10.5805
注	-10.5805
為說法	-10.5811
若是	-10.5812
未知	-10.5813
妙寶	-10.5814
疑網	-10.5815
活命	-10.5816
得安隱	-10.5817
苦患	-10.5818
姊妹	-10.5819
蹈	-10.5819
年漸長大	-10.582
於諸法中	-10.5821
阿羅訶	-10.5821
思惟是已	-10.5823
除諸	-10.5825
戴	-10.5825
煮	-10.5827
大慈悲	-10.5827
微塵	-10.5827
飢餓	-10.5828
剝	-10.5828
正路	-10.5829
質	-10.583
剃髮	-10.583
金銀珍寶	-10.583
威光	-10.5831
荒	-10.5833
不惜	-10.5833
燭	-10.5834
膿血	-10.5834
無數劫	-10.5836
官屬	-10.5836
芽	-10.5836
其罪	-10.5837
寂默	-10.5837
融	-10.5839
壞敗	-10.5842
敬重	-10.5843
水草	-10.5845
面目	-10.5847
我於彼時	-10.585
歇	-10.5851
復有一	-10.5854
下賤	-10.5856
時至	-10.5857
悉知	-10.586
長跪叉手	-10.5861
不入	-10.5863
苦厄	-10.5866
謂佛	-10.5868
三歸	-10.5872
利根	-10.5877
深山	-10.5883
如如	-10.5887
四姓	-10.5887
千萬	-10.5888
必欲	-10.5889
十地	-10.589
長生	-10.5893
佛復	-10.5895
於是世尊即	-10.5896
佛法僧	-10.5897
乞匃	-10.5906
但以	-10.5908
虗空	-10.5908
坐臥	-10.591
以偈答	-10.5913
得已	-10.5914
如山	-10.592
於諸眾生	-10.592
以我	-10.5921
池中	-10.5922
獨自	-10.5928
又曰	-10.5929
百歲	-10.5944
六波羅蜜	-10.5958
學人	-10.5959
其志	-10.5969
所逼	-10.597
升	-10.5972
云何名為	-10.598
住此	-10.5981
奉佛	-10.5986
語已	-10.5996
大意	-10.6001
甲	-10.6007
娑婆世界	-10.6008
以偈	-10.6011
裹	-10.6012
久住	-10.602
食者	-10.6022
無量阿僧祇	-10.6022
祭祀	-10.6023
蘭	-10.6028
疲	-10.6033
拂	-10.6035
佛便	-10.6037
癡人	-10.6037
圓寂	-10.6038
果蓏	-10.604
伸	-10.6041
欺誑	-10.6041
徵	-10.6041
貴賤	-10.6044
今生	-10.6044
慳悋	-10.6045
湛然	-10.6046
呵責	-10.6046
一時佛在舍衛國祇樹給孤獨園	-10.6047
云何得	-10.6047
脊	-10.6047
既云	-10.6048
牆	-10.6048
奉獻	-10.6048
不修	-10.6051
願為	-10.6052
自當	-10.6053
知恩報恩	-10.6058
恣意	-10.6063
第十	-10.6067
香美	-10.6068
樂法	-10.6068
恚怒	-10.607
無福	-10.6072
不變	-10.6074
十二因緣	-10.6076
幡蓋	-10.6076
子孫	-10.608
前後圍遶	-10.6081
受身	-10.6081
向者	-10.6082
何事	-10.6087
得生	-10.6094
安庠	-10.6095
應感	-10.6095
法眼	-10.6099
即答言	-10.61
想念	-10.6104
善妙	-10.6105
人者	-10.6108
諸佛世界	-10.6109
賢劫	-10.6111
諸眷屬	-10.6111
汝之	-10.6119
地上	-10.6121
如雲	-10.6124
八十	-10.6126
正觀	-10.6127
汝今何故	-10.6127
無可	-10.6138
一月	-10.6141
雜寶	-10.6145
樹枝	-10.6147
寶塔	-10.6151
汝應	-10.6151
水牛	-10.6151
賢善	-10.6152
放光	-10.6155
地獄中	-10.6158
剛	-10.616
須陀洹	-10.6173
騎	-10.6177
萬民	-10.6181
既到	-10.6181
夫主	-10.6184
盈	-10.6186
喻中	-10.6188
六萬	-10.619
成阿羅漢	-10.6191
若在	-10.6193
永盡無餘	-10.6196
螺	-10.6197
常念	-10.6198
千歲	-10.62
教人	-10.621
是等	-10.6214
假令	-10.6215
花香	-10.6218
十萬	-10.6223
又如	-10.6227
我願	-10.6227
頻	-10.6228
憎	-10.6231
善道	-10.6235
如蛇脫故皮	-10.6236
盲父母	-10.6237
刃	-10.6238
如是思惟	-10.6241
不堅	-10.6244
娑毘耶	-10.6246
是非	-10.6247
炙	-10.6247
隋天竺三藏闍那崛多譯	-10.6247
天中	-10.625
講堂	-10.6253
離垢	-10.6254
出遊	-10.6254
阿僧祇	-10.6255
預	-10.6256
四等	-10.6256
屠	-10.6256
鉤	-10.6257
緩	-10.6257
有七	-10.6259
戰鬪	-10.6261
囉	-10.6261
法財	-10.6265
所獲	-10.6266
消息	-10.6266
苟	-10.6269
樂欲	-10.6269
共相娛樂	-10.627
促	-10.627
乖	-10.6271
縱廣	-10.6272
豪貴	-10.6273
吾身是也	-10.6277
納受	-10.6277
衣鉢	-10.6279
作佛事	-10.628
三十六	-10.6281
還入	-10.6286
大光明	-10.6286
科	-10.6286
渴仰	-10.6287
盡皆	-10.6289
知彼	-10.6289
一切諸天	-10.6291
親屬	-10.6296
憂陀	-10.6296
最妙	-10.63
即知	-10.6301
修苦行	-10.6307
之士	-10.6307
悲鳴	-10.6308
亦復然	-10.6311
發言	-10.6314
念已	-10.6314
往至佛所	-10.6317
行七步	-10.6319
汝等今者	-10.6325
眾星	-10.6325
濟度	-10.6332
既無	-10.6332
已斷	-10.6334
難量	-10.6337
無所依	-10.6338
一由旬	-10.6341
之報	-10.6345
柔和	-10.6349
一旦	-10.635
當用	-10.6356
結勸	-10.6359
惡知識	-10.636
王及	-10.636
而欲	-10.6362
十七	-10.6363
隨我	-10.6363
餘處	-10.6366
降魔	-10.6369
復來	-10.6372
無害	-10.6375
誑惑	-10.6377
形相	-10.6384
善男	-10.6385
無量劫	-10.6389
遠來	-10.6392
持鉢	-10.6392
車馬	-10.6395
厭惡	-10.6398
善者	-10.64
受福	-10.6404
一種	-10.6407
又言	-10.6412
諸釋種	-10.6413
入道	-10.6413
求願	-10.6413
不假	-10.6416
摩訶那摩	-10.6417
四句	-10.6418
白銀	-10.6419
云何為	-10.6426
一切諸佛	-10.6434
而後	-10.6434
悲心	-10.6436
歎言	-10.6441
夜半	-10.6443
開敷	-10.6445
頗有	-10.6448
此偈	-10.6451
皆空	-10.6452
求食	-10.6454
叵	-10.6459
實無	-10.6462
不堪	-10.6465
少時	-10.6467
餓	-10.6467
妙果	-10.647
車匿言	-10.6471
潔	-10.6471
諂	-10.6473
申	-10.6475
憍尸迦	-10.6475
修治	-10.6477
當復	-10.6477
聖后	-10.6478
遶佛三匝	-10.6478
大人	-10.6479
盤	-10.648
賴吒和羅	-10.6481
有一比丘	-10.6481
抂	-10.6481
戒德	-10.6483
忠	-10.6485
求法	-10.6485
得戒	-10.6485
妙華	-10.6487
悶絕	-10.6487
否	-10.6487
真諦	-10.6488
瞻視	-10.6488
調順	-10.649
咽	-10.649
估客	-10.649
於如來	-10.6491
而起	-10.6493
安詳	-10.6494
彰	-10.6495
在大眾中	-10.6496
內自思惟	-10.6496
迦葉佛	-10.6501
奉施	-10.6508
勞苦	-10.651
未久	-10.6512
善人	-10.6513
無形	-10.6513
惡鬼	-10.6515
意樂	-10.6517
無學	-10.6524
祖	-10.6526
種善根	-10.6528
世間人	-10.6528
戒定慧	-10.6529
何物	-10.653
放捨	-10.653
法教	-10.6533
譽	-10.6535
惡者	-10.6535
大聖太子	-10.6535
善住	-10.6538
即語	-10.654
是故我	-10.6541
與人	-10.6545
皆以	-10.6545
四十	-10.6569
佛經	-10.6569
時有一人	-10.657
所證	-10.6584
即向	-10.6584
語之言	-10.6585
不必	-10.6587
之難	-10.6591
唯見	-10.6591
世尊告	-10.6597
年老	-10.6597
多人	-10.6598
智者所	-10.6599
化生	-10.6603
三百	-10.6603
小乘	-10.6606
靡	-10.6606
知時	-10.6607
王前	-10.661
怙	-10.6613
愧	-10.6614
土地	-10.6622
願樂	-10.6625
大劫	-10.6626
何得	-10.6629
天衣	-10.6634
讀誦	-10.6638
得人身	-10.664
此中	-10.6648
羅摩	-10.6649
未曾見	-10.665
無以	-10.6651
十惡	-10.6657
此間	-10.6659
不喜	-10.6672
自餘	-10.6676
諸結	-10.668
修集	-10.6682
涌	-10.6683
虗	-10.6684
何因	-10.669
丈	-10.6699
法華	-10.6701
鵝	-10.6703
積德	-10.6704
雀	-10.6705
無所罣礙	-10.6705
欲行	-10.6707
善思念之	-10.6707
食時	-10.6708
富那奇	-10.6708
卒暴	-10.6709
弓箭	-10.671
一劫	-10.6712
默然而住	-10.6712
撿	-10.6712
譏	-10.6712
自己	-10.6713
薩薄	-10.6713
最為第一	-10.6713
說是語已	-10.6715
蕩	-10.6716
國主	-10.6718
華果	-10.6726
寶車	-10.6726
婆羅門等	-10.673
天魔	-10.6735
而食	-10.6735
奉持	-10.6738
問之言	-10.6739
妙行	-10.6742
我法	-10.6748
欲殺	-10.6749
總結	-10.6752
眾事	-10.6758
尊敬	-10.6761
所趣	-10.6764
為難	-10.6764
斷諸	-10.6765
如是語已	-10.6768
無病	-10.6768
眾病	-10.677
眾鳥	-10.6772
令諸	-10.6774
志願	-10.6777
所縛	-10.6781
我觀	-10.6781
既聞	-10.6782
耆闍崛山	-10.6786
所樂	-10.6786
何法	-10.6788
皆悉具足	-10.6789
迫	-10.679
一切菩薩	-10.679
求哀	-10.6791
麤惡	-10.6792
當共	-10.6793
生大歡喜	-10.6802
亦兼	-10.6802
高下	-10.6802
心淨	-10.6805
摩竭	-10.6813
佛說如是	-10.6814
一分	-10.6814
其色	-10.6818
親愛	-10.6822
覩其	-10.6828
化成	-10.6829
有二義	-10.683
一食	-10.6834
為業	-10.6836
天主	-10.6838
妬	-10.6846
百味	-10.6851
政	-10.6851
菩提道	-10.6855
欲取	-10.6859
我國	-10.6862
不唯	-10.6867
居處	-10.6867
塗香	-10.6868
所疑	-10.6869
令此	-10.6875
所問	-10.688
迴向	-10.6884
惱亂	-10.6884
或作	-10.6896
諸事	-10.6901
訖已	-10.6906
敘	-10.6907
二俱	-10.691
為太子	-10.6911
安處	-10.6912
後生	-10.6917
能與	-10.6917
業報	-10.6923
兜率	-10.6925
子言	-10.6928
舅	-10.6933
不可限量	-10.6939
虎狼	-10.6939
溫	-10.6939
蹋	-10.694
東西南北	-10.694
萬端	-10.6941
教化眾生	-10.6941
煙	-10.6943
胸	-10.6945
撰	-10.6946
障礙	-10.6947
隆	-10.6949
唐	-10.6949
潤澤	-10.695
傍臣	-10.6951
當念	-10.6951
舟	-10.6951
勸助	-10.6952
幽冥	-10.6953
來世	-10.6954
眉	-10.6954
業力	-10.6956
良藥	-10.6956
操	-10.6957
行惡	-10.6958
山神	-10.6959
於一	-10.6965
爪	-10.6969
摩耶	-10.6971
不疑	-10.6974
最尊	-10.6974
所感	-10.6975
設有	-10.6976
得如是	-10.6976
眾聖	-10.6977
六情	-10.6977
能忍	-10.698
非一	-10.698
欲想	-10.6985
力強	-10.6986
護世	-10.699
常在	-10.699
石室	-10.6994
。」』	-10.6996
則我身是	-10.6999
業障	-10.6999
有疑	-10.7004
慈哀	-10.7008
以金	-10.7014
不興	-10.7017
流通	-10.7018
今世	-10.702
五趣	-10.7022
即持	-10.7025
願求	-10.7026
貢	-10.7032
所有眾生	-10.7032
不害	-10.7038
常懷	-10.7042
六道	-10.7045
無所有	-10.7049
離別	-10.7051
諸天子	-10.7056
如風	-10.7059
從於	-10.7061
。』「『	-10.7064
或言	-10.7065
之辭	-10.7071
啟王	-10.7072
重罪	-10.7073
毛孔	-10.7074
漂	-10.7077
夫言	-10.708
諸業	-10.7085
自證	-10.7085
已後	-10.709
復念	-10.7092
下至	-10.7098
邑	-10.7099
地神	-10.71
勿得	-10.7103
故不	-10.7104
便可	-10.711
非為	-10.7112
覆蓋	-10.7114
隨宜	-10.7116
經法	-10.7122
池水	-10.7122
意識	-10.7124
法忍	-10.7127
能離	-10.7133
)、	-10.7133
當行	-10.714
恭	-10.7142
實有	-10.7142
力能	-10.7144
所習	-10.7147
禰	-10.7149
之教	-10.7153
曠	-10.7154
覲	-10.7154
欲知	-10.7155
所至	-10.7155
團	-10.716
算	-10.7163
腹中	-10.7163
欲度	-10.7164
得利	-10.7164
光相	-10.7167
比丘言	-10.7169
今正是時	-10.7172
舉聲大哭	-10.7172
二十五	-10.7174
孫陀利	-10.7174
轉正法輪	-10.7174
鞭	-10.7175
挑	-10.7176
年少沙門	-10.7177
無怖	-10.7177
輸檀王	-10.7179
席	-10.7179
寶海梵志	-10.7179
香氣	-10.7179
四法	-10.718
出如是聲	-10.718
訶	-10.7181
本所	-10.7182
拳	-10.7183
調和	-10.7183
城郭	-10.7184
尠	-10.7184
軀	-10.7184
當為汝說	-10.7184
豈異	-10.7186
貌	-10.7186
四海	-10.7188
賀	-10.7188
掩	-10.7188
青衣	-10.7189
商	-10.7189
叩頭	-10.7189
寡	-10.719
愕然	-10.7191
若有人	-10.7193
甲冑	-10.7199
殊異	-10.72
便共	-10.72
粗	-10.72
波利	-10.7205
退失	-10.7213
地獄餓鬼畜生	-10.7216
山頂	-10.7219
受罪	-10.7222
貨	-10.7222
勸令	-10.7223
願得	-10.7225
我今可	-10.7232
六根	-10.7238
斯須	-10.7242
遍照	-10.7242
安坐	-10.7243
利樂	-10.7243
實為	-10.7245
入水	-10.7248
生於天上	-10.7254
惡言	-10.7258
於太子	-10.7263
十者	-10.7265
迴轉	-10.7269
跋陀羅	-10.7269
造立	-10.727
諸商人	-10.7273
宗族	-10.7276
得羅漢道	-10.7278
栴檀香	-10.7279
其有眾生	-10.7281
離生死	-10.7282
其體	-10.7284
毘舍	-10.729
次句	-10.729
騰	-10.729
供佛	-10.7291
修行人	-10.7297
竹	-10.7298
其兄	-10.7299
執著	-10.7299
摩耶夫人	-10.7301
終日	-10.7302
為喻	-10.7302
功夫	-10.7305
一毛	-10.7315
深法	-10.7316
無惱	-10.7316
之大	-10.732
始終	-10.7324
永盡	-10.7325
釋子	-10.7327
在外	-10.7332
用作	-10.7335
正顯	-10.7335
得羅漢	-10.7335
啟白	-10.7336
惡意	-10.7336
不施	-10.734
修因	-10.7341
自他	-10.7349
冷水	-10.735
十千	-10.7356
」	-10.7359
以是故	-10.736
甘露法	-10.7364
此心	-10.7365
自謂	-10.7365
火然	-10.7366
鈴	-10.7367
兜術天	-10.7367
而今	-10.7373
寢	-10.7384
尸利毱多	-10.7392
而告	-10.7392
泣	-10.74
聖者	-10.7401
歎說	-10.7402
未免	-10.7406
篤	-10.7409
瞿	-10.7413
必能	-10.7413
香潔	-10.7413
晨	-10.7414
冀	-10.7415
於晨朝時	-10.7416
姿	-10.7417
師徒	-10.7417
有五	-10.7417
生一男兒	-10.7417
問彼	-10.7417
離諍王	-10.7419
便說此偈	-10.742
喘息	-10.742
飢饉	-10.7421
所依	-10.7421
尼提	-10.7421
羞	-10.7422
實相	-10.7422
傘蓋	-10.7423
獨行	-10.7424
煖	-10.7424
肆	-10.7426
父言	-10.7427
淨居天	-10.7428
肅	-10.7428
雅	-10.7429
瑕穢	-10.7431
潛	-10.7432
湯藥	-10.7432
黑暗	-10.7432
腰	-10.7432
甜	-10.7432
洪	-10.7433
金色王	-10.7434
紛	-10.7434
就座	-10.7437
滯	-10.7437
之理	-10.7437
如是眾生	-10.7438
氏	-10.7441
傾動	-10.7445
手脚	-10.7445
眾生故	-10.7445
不惟	-10.7446
福樂	-10.7446
宗親	-10.7446
終始	-10.7447
牛頭栴檀	-10.7448
菩薩之	-10.7449
善丈夫	-10.745
隔	-10.7451
舉動	-10.7452
恃怙	-10.7452
我雖	-10.7454
甚為	-10.7457
於空中	-10.7458
昔有一人	-10.7458
口出	-10.7459
繫念	-10.7459
大喜	-10.746
說伽陀	-10.746
撲	-10.7461
汝何	-10.7461
變現	-10.7462
斯人	-10.7464
得離	-10.7464
使不	-10.7466
五穀	-10.7466
其光	-10.7466
不厭	-10.7467
超過	-10.7471
解了	-10.7472
以偈報	-10.7472
獲益	-10.7475
菩薩母	-10.7476
人道	-10.7477
所敬	-10.7479
設當	-10.7482
惡友	-10.7482
其中眾生	-10.7488
之王	-10.7489
羅云	-10.749
萎	-10.7491
王以	-10.7491
儻	-10.7493
唯然世尊	-10.7493
諸梵志	-10.7495
受快樂	-10.7499
八戒	-10.7499
遙見世尊	-10.75
音響	-10.7501
勝者	-10.7503
求出家	-10.7505
欲出家	-10.7506
孝順	-10.7514
歌舞	-10.7516
能度	-10.752
來歸	-10.7521
諸世間	-10.7525
難及	-10.7525
老人	-10.7525
崇修	-10.7528
妙覺	-10.7531
輿	-10.7532
受斯	-10.7533
母子	-10.7541
德本	-10.7542
戲笑	-10.7543
便欲	-10.7549
行善	-10.7552
於前	-10.7553
為法	-10.7557
為眾生故	-10.7557
應須	-10.7558
其法	-10.7559
之音	-10.7561
苑	-10.7564
寶山	-10.7571
品者	-10.7574
遂成	-10.7575
即成	-10.7578
大山	-10.7582
我知	-10.7584
盈滿	-10.7591
不共	-10.7604
亦無有	-10.7605
實爾	-10.7608
妙花	-10.761
而作是念	-10.7611
無二	-10.7611
吏	-10.7613
繼	-10.7614
諸眾生等	-10.7614
住止	-10.7624
侶	-10.7628
從佛	-10.7632
乞者	-10.7634
而出家	-10.7635
諸童子	-10.7639
白衣	-10.7646
惡口	-10.7647
還得	-10.7656
不去	-10.7656
宿殖何福	-10.7657
九者	-10.7659
巷	-10.766
富蘭那	-10.7662
茂	-10.7662
具八解脫	-10.7663
陵	-10.7663
莊嚴具	-10.7663
正法住世	-10.7666
甚懷	-10.7667
萬二千	-10.7667
樹葉	-10.7667
五濁惡世	-10.7668
翔	-10.7669
池沼	-10.7669
豈有	-10.767
勤求	-10.7671
當爾之時	-10.7671
以本願故	-10.7671
姦	-10.7673
怨讎	-10.7673
鳩	-10.7673
神妙	-10.7674
勵	-10.7674
諂曲	-10.7674
而不能	-10.7675
因是	-10.7675
在在處處	-10.7675
旱	-10.7675
炭	-10.7676
而白	-10.7676
得安樂	-10.7677
遠塵離垢	-10.7677
荼	-10.7678
戾	-10.7678
其聲	-10.7679
讓	-10.7679
娉	-10.7679
末香	-10.768
般泥洹	-10.768
可知	-10.7681
百種	-10.7681
受已	-10.7681
色欲	-10.7683
到於	-10.7683
恥	-10.7684
怨憎	-10.7684
第八	-10.7684
陸地	-10.7685
當見	-10.7689
採取	-10.769
左手	-10.7692
毗	-10.7693
而說此偈	-10.7694
不悅	-10.7697
供養菩薩	-10.77
於虛空	-10.77
本處	-10.7703
繁	-10.7703
電	-10.7705
判	-10.7708
禁制	-10.7708
有兩	-10.7709
俱生	-10.7709
衰老	-10.771
有八	-10.7711
斥	-10.7712
自生	-10.7713
四輩	-10.7715
自恃	-10.7718
不孝	-10.7719
亂想	-10.7719
有無	-10.7721
愍念	-10.7728
聖教	-10.7728
人皆	-10.7731
何益	-10.7733
亦得	-10.7733
求佛道	-10.7733
多羅樹	-10.7735
白馬	-10.7744
豪族	-10.7744
此名	-10.7745
炬	-10.7747
彼樹	-10.7761
時波斯匿王	-10.7762
眾德	-10.7763
如是種種	-10.7764
自覺	-10.7767
我即	-10.7769
知我	-10.7771
諸漏	-10.7772
金山	-10.7784
為世	-10.7787
有學	-10.7787
矜	-10.7788
宿緣	-10.7789
在中	-10.7795
四事供養	-10.7808
茂盛	-10.7809
而語	-10.781
有世界名	-10.781
無處	-10.7811
其前	-10.7828
寶冠	-10.7828
以智慧	-10.783
此義	-10.783
不好	-10.7833
依法	-10.7839
幡	-10.7842
為他	-10.7845
寶樹	-10.7856
諸方	-10.7856
乃有	-10.7858
心為	-10.7859
汝父	-10.7862
能持	-10.7862
彼諸菩薩	-10.7863
楚毒	-10.7864
後身	-10.7871
大威德	-10.7872
受五欲	-10.7873
比丘是也	-10.7874
於我所	-10.7876
能以	-10.7877
飲酒	-10.7882
心已	-10.7883
母言	-10.7887
蜂	-10.7888
復能	-10.7888
捨身命	-10.789
旦	-10.7894
度生死	-10.7898
聞聲	-10.7899
復白	-10.79
供養如來	-10.7903
一切有情	-10.7905
目犍連	-10.791
一切人	-10.7911
右旋	-10.7912
病苦	-10.7912
手中	-10.7912
大姓	-10.7914
壍	-10.7915
法服著身	-10.7915
俱夷	-10.7916
以偈頌	-10.7918
得己利	-10.7922
諸鳥	-10.7922
大愛道	-10.7924
聞知	-10.7924
器仗	-10.7925
卷第六	-10.7926
何等為	-10.7926
織	-10.7928
反更	-10.793
莊飾	-10.793
躃地	-10.7932
慈惠	-10.7935
昔佛在舍衛國祇樹給孤獨園	-10.7935
維	-10.7936
紹王位	-10.7936
應當安住阿蘭若處	-10.7938
園苑	-10.7938
淳	-10.7939
覺意	-10.7939
卑賤	-10.794
善意	-10.794
奇哉	-10.794
百劫	-10.7941
誦習	-10.7941
妾	-10.7942
福利	-10.7943
澄	-10.7944
所生之處	-10.7945
愚冥	-10.7948
之食	-10.795
暗慢	-10.7953
作是語	-10.7954
坐處	-10.7954
稱譽	-10.7955
聰明智慧	-10.7956
當何	-10.7956
今既	-10.7957
願以	-10.7958
如佛所說	-10.7958
為根本	-10.7958
進趣	-10.7959
毘沙門	-10.7962
斷一切	-10.7974
塵土	-10.7976
彼婆羅門	-10.7977
不懷	-10.798
母者	-10.7983
諸山	-10.7986
精神	-10.7988
善覺	-10.7993
常得	-10.7994
人民熾盛	-10.7996
是菩薩	-10.8002
光澤	-10.8003
疲勞	-10.8005
臨終	-10.801
乃為	-10.8014
師子王	-10.8016
王名	-10.8017
心故	-10.802
信受	-10.8024
吾為	-10.8026
更生	-10.803
倍增	-10.8031
得阿羅漢道	-10.8031
四遠	-10.8037
著地	-10.8041
江河	-10.8044
已離	-10.805
悅豫	-10.805
驚怪	-10.8051
欲樂	-10.8051
為義	-10.8057
俱共	-10.8058
上有	-10.8068
願力	-10.807
鈍	-10.8072
自責	-10.8078
以天	-10.8079
不使	-10.8081
慳嫉	-10.8085
此城	-10.8085
如王	-10.8085
眾患	-10.8086
彌勒菩薩	-10.8087
行來	-10.8088
形像	-10.8088
值佛	-10.8088
皆生	-10.8091
無由	-10.8095
速往	-10.8096
諸比丘言	-10.8096
信樂	-10.8099
無敢	-10.8101
苦毒	-10.8102
則知	-10.8106
於外	-10.8111
永滅	-10.8113
推求	-10.8114
曼	-10.8116
證涅槃	-10.8118
之境	-10.812
慰	-10.8121
行布施	-10.8125
何時	-10.8126
然燈	-10.8127
阿難白佛	-10.8128
庶	-10.813
故也	-10.8134
人物	-10.8134
復得	-10.8137
帝王	-10.8137
酪	-10.8138
此乃	-10.8138
見道	-10.8144
不合	-10.8145
即報	-10.815
於他	-10.815
柔	-10.8168
各各自	-10.8168
自由	-10.8168
還去	-10.817
慼	-10.8177
坻	-10.8178
枉	-10.8179
偏袒右肩	-10.8182
叢林	-10.8183
羽	-10.8184
街巷	-10.8185
說微妙法	-10.8186
細滑	-10.8187
如百千日	-10.8188
前後圍繞	-10.8188
晨朝	-10.819
脂	-10.8191
覺了	-10.8192
佛子	-10.8192
法藏	-10.8193
人壽	-10.8194
汝於來世	-10.8194
冬	-10.8195
曇	-10.8195
所從來	-10.8195
果實	-10.8196
祠祀	-10.8196
瞋忿	-10.8196
帝釋天主	-10.8197
擯	-10.8198
虧	-10.8199
湯	-10.8199
頰	-10.8201
於上	-10.8201
稍	-10.8202
篤信	-10.8203
四無所畏	-10.8205
比丘是	-10.8205
陽	-10.8208
證果	-10.8208
我作	-10.8209
妨	-10.8209
霜	-10.8211
彼眾生	-10.8214
作如是說	-10.8215
自惟	-10.8216
何謂為	-10.8217
盡未來際	-10.8217
增減	-10.822
慈父	-10.8221
獲福	-10.8222
得於	-10.8224
不許	-10.8226
此三	-10.8228
財寶無量	-10.8228
生死苦	-10.823
宜速	-10.8235
億劫	-10.8235
抱持	-10.8236
為子	-10.8237
其城	-10.8239
勿復	-10.8243
先瑞相	-10.8243
仙人言	-10.8244
刀杖	-10.8247
無量菩薩	-10.8248
法幢	-10.8249
殘害	-10.8251
之地	-10.8251
聚會	-10.8254
諦觀	-10.8255
王有子	-10.8255
諸力士	-10.8255
施主	-10.8257
豈能	-10.8259
莫作	-10.8259
不顧	-10.826
拔出	-10.826
便能	-10.8262
生靈	-10.8263
曾聞	-10.8272
復次善男子	-10.8273
不懈	-10.8276
還生	-10.8277
各異	-10.828
安止	-10.828
飲水	-10.8281
十二年	-10.8281
種類	-10.8282
無信	-10.8283
諸餘	-10.8286
并諸	-10.8286
降神	-10.8287
欲與	-10.8289
平復	-10.8289
憂慼	-10.8291
照世間	-10.8291
二事	-10.8294
十五日	-10.8296
畏懼	-10.8299
悅意	-10.8305
叫喚	-10.8307
有六	-10.8337
明達	-10.834
妙觀	-10.834
為寶	-10.8342
心歡喜	-10.8343
勝德	-10.8349
將無	-10.8352
坐起	-10.8353
鬚	-10.8366
一偈	-10.8367
五色	-10.8368
所受	-10.8374
轉相	-10.8377
過失	-10.838
令入	-10.8381
不滅	-10.8381
齎持	-10.8383
取此	-10.8383
食飲	-10.8389
謂菩薩	-10.839
貪嫉	-10.8391
酬	-10.8391
觀於	-10.8392
善事	-10.8396
法味	-10.8396
何也	-10.8399
舒	-10.8399
所有一切	-10.8412
心大	-10.8413
還自	-10.8421
章句	-10.8423
我前	-10.843
善慧	-10.8431
度彼岸	-10.8433
諸善男子	-10.8436
技	-10.8438
語我	-10.8438
我應	-10.844
罷	-10.8448
欲出	-10.8448
習行	-10.8449
時辟支佛	-10.8449
縱廣正等	-10.8449
赦	-10.8451
與佛	-10.8451
異口同音	-10.8453
是中有佛	-10.8454
佛即為其	-10.8456
金翅鳥	-10.846
耆舊	-10.8462
途	-10.8463
諸天龍神	-10.8465
忌	-10.8465
共議	-10.8466
劒	-10.8468
作何等	-10.8468
貧乏	-10.8468
闇冥	-10.8468
曾為	-10.847
縮	-10.847
乳哺	-10.847
巨海	-10.847
翼從	-10.8471
陣	-10.8473
優鉢羅華	-10.8473
受化	-10.8475
賢愚	-10.8481
便即	-10.8482
事理	-10.8484
影像	-10.8485
未甞	-10.8485
堪受	-10.8486
瑞相	-10.8487
佛事	-10.8489
三千世界	-10.8492
諸珍寶	-10.8493
倒地	-10.8495
莊嚴故	-10.85
有道	-10.8506
持一	-10.8508
能感	-10.8508
於此處	-10.8508
財產	-10.8508
懷恐怖	-10.8508
鬪戰	-10.8508
可意	-10.8509
見佛聞法	-10.8513
備具	-10.8514
道逢	-10.8516
使其	-10.8517
於是菩薩	-10.8519
。」【△	-10.8519
世無	-10.8519
劫中	-10.8521
見如來	-10.8523
之也	-10.8523
愛戀	-10.8525
熾燃	-10.8525
便起	-10.853
無雙	-10.8532
人形	-10.8536
一向	-10.8544
出世間	-10.8545
如汝	-10.8547
且約	-10.855
破戒	-10.8551
當受	-10.8552
遂便	-10.8556
白大王	-10.8558
各各相	-10.856
何由	-10.8562
有身	-10.8562
詣於	-10.8565
汝今云何	-10.8567
詣佛	-10.8574
隨機	-10.8574
各持	-10.8575
即自思惟	-10.8577
如水	-10.8579
憂患	-10.858
發遣	-10.8581
興起	-10.8581
於時世尊	-10.8584
成等正覺	-10.8588
是諸眾生	-10.8588
度諸	-10.8595
勝利	-10.8595
聖智	-10.8596
清信士	-10.8596
樂者	-10.86
謂言	-10.86
得福	-10.8602
名阿	-10.8602
被服	-10.8604
過數	-10.8606
歡喜無量	-10.8606
貪婬	-10.8608
雖無	-10.8614
數日	-10.8616
真言	-10.8621
如師子	-10.8626
兩舌	-10.8626
不避	-10.8628
流出	-10.8629
燒香	-10.863
淨水	-10.8631
殺人	-10.8632
而退	-10.8634
煩惱障	-10.8635
皆如	-10.8636
此象	-10.8648
能於	-10.8662
盲冥	-10.8666
枚	-10.8668
堪能	-10.8671
無有能	-10.8671
悉來	-10.8671
災患	-10.8679
諸眾生故	-10.8683
道成	-10.8691
出時	-10.8696
試之	-10.8697
觀法	-10.8697
長遠	-10.8699
無有異	-10.8702
無量無邊阿僧祇	-10.8706
利益眾生	-10.8707
竟不	-10.871
婆伽婆	-10.8718
阿闍世	-10.8719
迷悶	-10.8723
宮門	-10.8724
令不	-10.8724
然燈佛	-10.8725
坐樹下	-10.873
板	-10.8732
受具足戒	-10.8732
邏	-10.8734
足滿十月	-10.8735
遍滿其體	-10.8735
捧	-10.8736
諾	-10.8736
資用得	-10.8736
婆提唎迦	-10.8738
殞	-10.8738
在其	-10.8738
脣	-10.8739
舐	-10.8739
羡那	-10.8739
族姓子	-10.8739
渧	-10.874
束	-10.8741
紺	-10.8742
雞	-10.8742
川	-10.8742
諸天在於虛空	-10.8743
敬心	-10.8743
大火	-10.8743
三匝	-10.8743
以是義故	-10.8745
而供養之	-10.8747
謬	-10.8748
謹慎	-10.8749
長老難陀	-10.8749
憂悲苦惱	-10.8749
妹	-10.8751
七歲	-10.8751
受大苦惱	-10.8751
於彼時	-10.8752
浪	-10.8753
一世	-10.8755
藥草	-10.8755
自相	-10.8757
歸於	-10.8757
往返	-10.8758
今若	-10.8761
各與若干百千眷屬俱	-10.8761
觀世	-10.8763
汝心	-10.8763
屠兒	-10.8764
遂至	-10.8765
眾祐	-10.8766
秉	-10.8767
鋪	-10.8769
無力	-10.8776
樂器	-10.8778
生忉利天	-10.8784
無垢性	-10.8785
周徧	-10.8787
如幻	-10.8788
能治	-10.8789
一切所須	-10.8793
除愈	-10.8794
復作	-10.8795
貪心	-10.8796
觀視	-10.8797
千由旬	-10.8798
之命	-10.8799
兩兒	-10.88
告語	-10.88
不問	-10.8803
作樂	-10.8805
指示	-10.8808
有一子	-10.8809
慧命	-10.8813
受諸苦	-10.8815
道之	-10.8816
高聲	-10.8816
無價	-10.8817
有何因緣	-10.8817
當求	-10.8819
界性	-10.8822
承受	-10.8826
六日	-10.8826
息心	-10.8827
得出	-10.8827
生人間	-10.8828
吾身	-10.883
度人	-10.883
此世	-10.883
取滅度	-10.8837
檀波羅蜜	-10.8838
師言	-10.884
令諸眾生	-10.8844
但有	-10.8845
願令	-10.8845
孝子	-10.8846
其處	-10.8846
一生補處	-10.885
受是	-10.885
諸物	-10.8854
命根	-10.8854
餘者	-10.8855
王聞是已	-10.8855
具戒	-10.8866
外有	-10.8872
速得	-10.8873
當於爾時	-10.8875
螫	-10.8887
不別	-10.8889
爾時比丘	-10.8892
口言	-10.8895
事故	-10.8899
安居	-10.8901
即喚	-10.8902
色身	-10.8906
世之	-10.8908
十歲	-10.8909
五蓋	-10.891
處胎	-10.8912
化度	-10.8914
悉見	-10.8915
號釋迦牟尼	-10.8917
相似	-10.8918
居止	-10.8924
諸寶	-10.8925
名號	-10.8926
利劍	-10.8927
得入	-10.893
一類	-10.8931
無令	-10.8933
佛與	-10.8935
其夜	-10.8937
賈人	-10.8942
生疑	-10.8946
居住	-10.8952
幼	-10.8955
世間所有	-10.8955
如來出世	-10.8956
怨賊	-10.8959
五親	-10.8963
如是言	-10.8963
是處菩薩	-10.8971
是王	-10.8972
謙	-10.8974
埋	-10.8974
應器	-10.8975
能障	-10.8982
起塔	-10.8983
億百千	-10.8986
正信	-10.8986
坐已	-10.8987
金寶	-10.8991
所纏	-10.8992
更求	-10.8993
治之	-10.8994
苦難	-10.8998
諸有情	-10.9
瞿多彌	-10.9002
欲至	-10.9002
初地	-10.9004
生一子	-10.9006
兇	-10.9007
前後導從	-10.9007
雖多	-10.9008
極妙	-10.9009
聰	-10.9011
其頭	-10.9013
善言	-10.9015
谷	-10.9016
無障礙	-10.9018
有生	-10.902
隨心	-10.9023
行於梵行	-10.9024
咄哉	-10.9024
巨富	-10.9024
卷第七	-10.9025
飛騰虛空	-10.9026
羡	-10.9027
珊瑚	-10.9028
愁憂不樂	-10.9028
晚	-10.9028
尺	-10.9029
邁	-10.9029
今在何處	-10.903
虔	-10.9031
植	-10.9031
於大眾中	-10.9033
如須彌山	-10.9033
艱難	-10.9033
令心	-10.9034
作禮而去	-10.9034
渠	-10.9037
神德	-10.9037
具足聞持	-10.9038
!』「	-10.9038
追逐	-10.904
貿	-10.9041
蒙佛	-10.9041
忿怒	-10.9041
踊躍歡喜	-10.9041
惶	-10.9041
四大天王	-10.9042
法合	-10.9042
供具	-10.9042
章	-10.9043
恒沙	-10.9045
壓	-10.9045
未嘗	-10.9045
毘羅	-10.9049
受諸苦惱	-10.9049
鴈王	-10.905
不受後有	-10.9055
毒箭	-10.9056
豪	-10.9056
伴侶	-10.9059
擾亂	-10.9061
下劣	-10.9066
即於佛前	-10.9068
停住	-10.9071
王語	-10.9071
即便命終	-10.9072
寶幢	-10.9072
志性	-10.9073
得成就	-10.9079
等類	-10.9082
佛即告	-10.9084
卷第二十	-10.9087
用為	-10.909
其邊	-10.9093
或執	-10.9094
具陳	-10.9095
一切人天	-10.9095
之明	-10.9097
導從	-10.9097
為我說	-10.9097
少許	-10.9098
溺人	-10.9099
而反	-10.9102
塗身	-10.9103
權實	-10.9103
義兼	-10.9105
所害	-10.9105
獨坐	-10.9106
美食	-10.9108
天眾	-10.911
而取	-10.9113
占相	-10.9114
羣生	-10.9116
正受	-10.9117
我得	-10.9118
相承	-10.9118
佛果	-10.912
二百	-10.9125
報應	-10.9125
發聲	-10.9126
各共	-10.9128
三時	-10.913
至無為	-10.9133
王命	-10.9134
天趣	-10.9135
未斷	-10.9139
美味	-10.9144
又為	-10.9145
下句	-10.9145
設方便	-10.9152
而往	-10.9154
就坐	-10.9156
所學	-10.916
細軟	-10.916
空無	-10.9163
成一	-10.9164
先所	-10.9167
不能令	-10.917
大德沙門	-10.9177
尚不	-10.9177
奔走	-10.918
自食	-10.9184
人也	-10.9189
魔子	-10.9191
身力	-10.9196
往詣彼	-10.9196
是苦	-10.9198
以慈	-10.9198
為佛弟子	-10.9199
勝於	-10.92
欲向	-10.9201
悴	-10.9202
臣佐	-10.9204
非人	-10.9207
困苦	-10.9213
故以	-10.9215
入大海	-10.9215
是真	-10.9217
慧明	-10.9219
不停	-10.9219
食肉	-10.922
為福	-10.9221
至死	-10.9225
復問言	-10.923
摩尼寶	-10.9231
摩訶迦葉	-10.9233
當學	-10.9237
夢中	-10.9238
七重	-10.925
大悲菩薩	-10.9251
大長者	-10.9253
我與	-10.9254
二義	-10.9255
王身	-10.9256
四果	-10.9257
已滅	-10.9262
聽經	-10.9263
四種兵	-10.9265
迦維羅衛	-10.9268
夫人婇女	-10.9272
欲滅	-10.9272
詔	-10.9272
能照	-10.9276
之耳	-10.9276
尋便	-10.9277
靜處	-10.9279
手持	-10.9279
若於	-10.928
受苦惱	-10.9283
之善	-10.9284
瓶沙王	-10.9285
飲之	-10.9285
殺我	-10.9286
可為	-10.9287
罪業	-10.9288
身分	-10.9288
精進力	-10.9288
生長	-10.9289
廟	-10.9292
人壽百歲	-10.9296
未曾聞	-10.9296
無減	-10.9298
自往	-10.9299
好惡	-10.9302
不了	-10.9302
經過	-10.9302
一人言	-10.9302
不實	-10.9305
醯	-10.9305
象師	-10.9307
悵怏	-10.9308
行菩薩道	-10.9309
至其	-10.931
頗胝迦	-10.9311
奈	-10.9311
稻	-10.9312
願我來世	-10.9312
糧	-10.9312
曲躬	-10.9312
天王釋	-10.9316
其弟	-10.9316
不但	-10.9319
未久之間	-10.9319
無有是處	-10.9319
匹	-10.9319
出聲	-10.932
其本	-10.932
專精	-10.9321
駈	-10.9321
技術	-10.9321
阿那含者	-10.9322
鹿野苑中	-10.9323
作種種	-10.9324
忽然不現	-10.9324
剛強	-10.9325
不損	-10.9326
黎庶	-10.9326
外道異學	-10.9326
藝	-10.9326
鮮潔	-10.9327
津	-10.9327
枕	-10.9327
指鬘	-10.9328
我既	-10.9328
常自	-10.9328
七覺意	-10.9328
姊	-10.9329
囊	-10.9329
訓誨	-10.9329
付囑	-10.9331
清淨心	-10.9331
苗	-10.9332
貪瞋癡	-10.9332
丘	-10.9335
憙	-10.9336
甘果	-10.9336
懺	-10.9339
抑	-10.9341
彼林	-10.9341
不淨觀	-10.9342
親厚	-10.9344
醒	-10.9346
而我	-10.935
價直	-10.9351
諸樹	-10.9352
遊獵	-10.9354
有千	-10.9355
後得	-10.9357
斯那	-10.9357
大龍王	-10.9358
漸次	-10.936
之師	-10.9363
其父母	-10.9363
彼比丘	-10.9363
蹔	-10.9364
相違	-10.9373
於我邊	-10.9375
散花	-10.9376
無慢	-10.9378
其妻	-10.9378
法句	-10.9379
輕重	-10.938
時彼國王	-10.9383
之寶	-10.9384
隨意所	-10.9385
摩羅	-10.9387
此子	-10.9388
諸論	-10.9389
四神足	-10.939
成阿耨多羅三藐三菩提已	-10.9392
所出	-10.9392
貪樂	-10.9394
尊者舍利弗	-10.9396
雜色	-10.9396
遙聞	-10.9399
語舍利弗	-10.94
神識	-10.9402
心內	-10.9404
數十	-10.9404
此樹	-10.9409
以水	-10.941
長壽王	-10.9413
手自	-10.9415
隨彼	-10.9416
吾不	-10.942
種種說法	-10.9422
已成	-10.9428
阿修羅王	-10.9429
法律	-10.9434
彼仙人	-10.9436
三世諸佛	-10.9442
雖得	-10.9445
何足	-10.9446
莫令	-10.9447
無乏	-10.945
遠行	-10.9453
斯陀含者	-10.9455
王及夫人	-10.9455
國城	-10.9458
速起	-10.9464
眾生心	-10.9465
此珠	-10.9465
得知	-10.9466
樹下坐	-10.9466
不過	-10.9468
有三種	-10.9472
共行	-10.9475
猶豫	-10.9475
悔恨	-10.9478
莫復	-10.9479
能辦	-10.9481
於一切眾生	-10.9481
摧伏	-10.949
亦莫	-10.949
獄卒	-10.9491
行詣	-10.9494
諮受	-10.9499
斯由	-10.9501
吾以	-10.9502
不知何	-10.9503
取我	-10.9503
說者	-10.9503
諸相	-10.9508
得果	-10.9513
童	-10.9522
受形	-10.9523
釋義	-10.9525
大智慧	-10.9528
聖法	-10.953
出迎	-10.9534
一切悉	-10.9536
業果	-10.9536
有信	-10.9536
憎惡	-10.9537
自得	-10.9537
乞索	-10.9538
有女	-10.9539
解釋	-10.9539
半身	-10.9541
大國	-10.9541
王大歡喜	-10.9542
積年	-10.9546
白太子	-10.9549
世間眾生	-10.9551
甚善	-10.9552
諸親	-10.9553
臣言	-10.9556
許可	-10.9557
至尊	-10.9558
今現在	-10.9558
復欲	-10.956
諸魔	-10.9562
福盡	-10.957
不遇	-10.9578
菩薩具足	-10.9578
阿私陀仙	-10.9585
牧牛	-10.9587
今我身是	-10.959
當往	-10.9592
結顯	-10.9593
詞	-10.9597
自修	-10.9599
出三界	-10.96
掃	-10.9605
德光太子	-10.9605
赫	-10.9605
如是諸	-10.9612
世所希有	-10.9613
所見敬仰	-10.9614
明淨	-10.9614
廣說如契經	-10.9615
乞兒	-10.9615
為柱及以梁棟	-10.9616
為臺即	-10.9616
戒律	-10.9616
三品	-10.9616
掃灑	-10.9617
化導	-10.9617
來集	-10.9618
應真	-10.9618
戮	-10.9619
猴	-10.962
真是	-10.962
挍	-10.962
恒河沙數	-10.962
拏	-10.9621
神通變化	-10.9621
左右圍遶	-10.9621
佗	-10.9622
於其中間	-10.9622
博戲	-10.9622
行梵行	-10.9622
百味飲食	-10.9623
危脆	-10.9624
籌	-10.9624
逃走	-10.9624
驚愕	-10.9624
俟	-10.9628
捷疾	-10.9629
弗	-10.9629
耗	-10.963
姑	-10.9632
孤獨	-10.9632
謹	-10.9632
杵	-10.9635
而為上首	-10.9636
於往昔	-10.9636
得清淨	-10.9637
法本	-10.9637
煎	-10.964
了無	-10.9641
簡	-10.9643
已不	-10.9643
災難	-10.9644
勉	-10.9645
反覆	-10.9646
累劫	-10.9647
皇	-10.9648
勅令	-10.9649
觀心	-10.965
明智	-10.965
觀也	-10.965
瞋怒	-10.9651
法也	-10.9651
以妙	-10.9652
持禁戒	-10.9654
自然而	-10.9655
鬚髮	-10.9656
識宿命	-10.9656
清明	-10.9657
本是	-10.9657
出火	-10.9659
心喜	-10.966
所夢	-10.9661
有得須陀洹者	-10.9661
如師子王	-10.9661
如意珠	-10.9672
磨滅	-10.9673
知此	-10.9674
六塵	-10.9674
樂著	-10.9676
汝能	-10.9683
何必	-10.9684
說曰	-10.9685
無怨	-10.9688
國事	-10.9689
莊嚴以	-10.9693
欲相	-10.9694
斷煩惱	-10.9694
往問	-10.9695
於是太子	-10.9701
所攝	-10.9701
現在諸佛	-10.9704
教勅	-10.9707
吉利	-10.9707
以諸	-10.9708
而眠	-10.971
佛德	-10.971
信敬	-10.9711
禮足	-10.9713
眼識	-10.9714
最後身	-10.9716
恩德	-10.9716
萬德	-10.9717
希有世尊	-10.9719
之體	-10.9722
用是	-10.9722
為甲	-10.9724
整衣服	-10.9724
喜歡	-10.9724
以是因緣故	-10.9725
無有量	-10.9726
豐饒	-10.9728
有福	-10.973
厨	-10.9731
常生	-10.9731
如夢	-10.9734
異類	-10.9734
此亦	-10.9735
諸人等	-10.9736
已見	-10.9736
其門	-10.9737
汝今可	-10.9739
得至	-10.974
亦隨	-10.9741
止宿	-10.9741
王夫人	-10.9742
如金剛	-10.9743
生一	-10.9744
本土	-10.9747
即詣	-10.9749
魔軍	-10.9751
誓言	-10.9754
而成	-10.9754
一法	-10.9755
去離	-10.9758
現其	-10.976
普施	-10.9764
此大	-10.9764
釋迦如來	-10.977
契經	-10.9772
三世如來	-10.978
今悉	-10.9786
瑕	-10.9794
便作是念	-10.9795
時彼比丘	-10.9796
彼等諸	-10.9797
弘誓	-10.9799
詮	-10.9799
佛名	-10.9807
鬘論	-10.9809
向菩薩	-10.9812
一切眾	-10.9813
諸佛如來	-10.9815
攝心	-10.9816
此者	-10.9816
孰	-10.9824
不敬	-10.9827
舍衛城	-10.9828
得名	-10.9829
如虛空	-10.983
白其父	-10.9833
汗	-10.9833
志求	-10.9833
為食	-10.9837
即滅	-10.9838
神祇	-10.9839
佛說是	-10.9842
夫為	-10.9848
起大慈	-10.9851
為名	-10.9851
如一	-10.9852
不來	-10.9855
復至	-10.9859
遍觀	-10.9861
患難	-10.9863
阿羅漢果	-10.9866
謂如來	-10.9866
而受	-10.9871
二百五十	-10.9871
捔	-10.9873
其道	-10.9874
仙聖	-10.9874
伽陀	-10.9879
行十善	-10.9879
為菩薩時	-10.9882
治國	-10.9882
令他	-10.9884
各以	-10.9884
便與	-10.9887
無顛倒	-10.9887
其師	-10.9887
懷歡喜	-10.989
分為	-10.989
諸善根	-10.9896
共我	-10.99
中有一	-10.99
句義	-10.9901
莊	-10.9901
爾等	-10.9902
恒以	-10.9902
及眾	-10.9903
吾所	-10.9904
三日	-10.991
以無	-10.9914
已度	-10.9915
犢	-10.9917
大患	-10.992
幾時	-10.9921
未聞	-10.9922
是時於眾生類而	-10.9925
廁	-10.9925
如是菩薩觀察	-10.9925
以娛樂之	-10.9927
佛土中	-10.9928
粳米	-10.9928
喜不自勝	-10.9929
篋	-10.993
抒	-10.993
果也	-10.9931
身色	-10.9932
從三昧起	-10.9932
綺	-10.9933
甞	-10.9934
從坐而起	-10.9934
環	-10.9935
疼痛	-10.9936
皷	-10.9936
枯竭	-10.9938
一日一夜	-10.9939
沒溺	-10.9939
真理	-10.9939
便問	-10.994
匠	-10.994
稽首作禮	-10.9941
廣度眾生	-10.9941
繒綵	-10.9941
質直	-10.9944
瞿曇彌	-10.9944
火鬘	-10.9944
盜賊	-10.9944
映	-10.9945
犬	-10.9946
合掌恭敬	-10.9946
衛護	-10.9948
某甲	-10.9949
那羅延	-10.9949
百官	-10.9951
依附	-10.9951
兵將	-10.9952
分布	-10.9953
斛	-10.9953
復重	-10.9955
淨修梵行	-10.9957
造惡	-10.9957
悲感	-10.9957
持與	-10.9958
五十由旬	-10.9959
隨行	-10.9961
戀著	-10.9965
疏	-10.9967
若知	-10.9969
不能捨離	-10.9969
所化	-10.9969
日中	-10.997
由延	-10.9975
悉達多	-10.9975
病比丘	-10.9976
警策	-10.9978
用施	-10.998
身無	-10.998
名譽	-10.9981
如地	-10.9982
流轉生死	-10.9982
奔馳	-10.9983
獲報	-10.9984
或因	-10.9984
謂是	-10.9989
害心	-10.9993
來往	-10.9993
著袈裟	-10.9993
財利	-10.9994
止止	-10.9994
當死	-10.9997
王自	-10.9999
敬愛	-10.9999
生男	-11.0001
猛風	-11.0007
乃至今者	-11.001
經中	-11.0011
山間	-11.0011
熾火	-11.0013
以得	-11.0019
即令	-11.0019
等覺	-11.0019
眾惱	-11.002
吾我	-11.0021
不也	-11.0021
君子	-11.0022
不正	-11.0024
種種珍寶	-11.0028
末後	-11.0031
高行	-11.0032
當度	-11.0039
人不	-11.0041
往見	-11.0041
我等輩	-11.0041
伽羅	-11.0045
護念	-11.0047
稱歎	-11.0048
可共	-11.0052
中出	-11.0052
猶如彼	-11.0053
鐵圍山	-11.0053
剃頭	-11.0053
我從	-11.0054
世樂	-11.0055
諮問	-11.0057
求阿耨多羅三藐三菩提	-11.0063
繒	-11.0065
雖是	-11.0067
在樹下	-11.007
自觀察	-11.0075
本行	-11.0081
願垂	-11.0089
百福	-11.0094
但為	-11.0094
其音	-11.0096
施心	-11.0097
詣向	-11.0103
怯弱	-11.0104
生歡喜心	-11.0106
侍女	-11.011
若為	-11.011
是故當	-11.0112
發如是	-11.0113
皆然	-11.0114
眾流	-11.0116
以求	-11.0116
身有	-11.0116
處中	-11.012
稽首禮	-11.0121
菩薩所	-11.0127
身自	-11.013
真性	-11.0136
即下	-11.0138
宜可	-11.0141
一錢	-11.0142
復有五百	-11.0142
諸苦惱	-11.0142
月滿	-11.0143
追求	-11.0144
從何而	-11.0146
普世	-11.0146
已死	-11.0146
壽盡	-11.0146
山上	-11.0151
先有	-11.0152
望得	-11.0156
此華	-11.0158
不習	-11.0161
諸獸	-11.0161
梵德	-11.0162
能觀	-11.0162
起於	-11.0162
大子	-11.0166
猶有	-11.0168
二障	-11.0169
生類	-11.017
意念	-11.0173
犯戒	-11.0174
汝今諦聽	-11.0179
永不	-11.018
惡報	-11.0183
服之	-11.0186
信者	-11.0188
而便	-11.0188
地中	-11.0191
勝法	-11.0193
悋	-11.0196
愛之	-11.0197
劫盡	-11.0203
卷第十	-11.0206
滿中	-11.0207
此喻	-11.0208
用心	-11.0208
一事	-11.0208
慈悲心	-11.0209
以七寶	-11.0212
受胎	-11.0213
迦旃延	-11.0215
唯當	-11.0216
報身	-11.0219
初不	-11.0219
緣生	-11.022
轉輪	-11.022
欲意	-11.022
本心	-11.022
有一仙人	-11.0221
行路	-11.0222
之頃	-11.0222
汝但	-11.0222
後來	-11.0222
悲啼	-11.0223
白世尊曰	-11.0229
或現	-11.0232
不加	-11.0237
然則	-11.0238
相將	-11.0241
便語	-11.0244
長跪白佛	-11.0244
單	-11.0245
楚	-11.0245
講說	-11.0247
真常	-11.0249
耕	-11.025
嚴麗	-11.0251
是為最吉祥	-11.0251
時輸檀王	-11.0252
如象	-11.0252
監	-11.0252
愴然	-11.0254
昧	-11.0254
訪	-11.0257
諸王臣民	-11.0257
號哭	-11.0257
晃	-11.0257
卷第八	-11.0257
欽	-11.0258
祕	-11.0258
高聲唱言	-11.0259
淤泥	-11.0259
諷誦	-11.026
糜	-11.026
啄	-11.0261
當取	-11.0261
逃避	-11.0262
佯	-11.0264
我師	-11.0265
備辦	-11.0265
黨	-11.0265
入海採寶	-11.0266
法樂	-11.0266
和悅	-11.0266
師長	-11.0266
仗	-11.0266
沙門及婆羅門	-11.0267
房舍	-11.0267
優波低沙波離婆闍迦	-11.0268
晃昱	-11.0268
激	-11.0268
不容	-11.0269
汝於今者	-11.0269
何等為四	-11.027
徙	-11.0271
無放逸	-11.0271
眾華	-11.0272
竹林	-11.0273
晝夜當念是	-11.0273
深心	-11.0273
儒	-11.0273
虬	-11.0274
願為弟子	-11.0274
心得	-11.0275
必成	-11.0278
行作沙門	-11.0278
皮肉	-11.0278
受具戒	-11.0279
所殺	-11.0283
室家	-11.0285
愍哀	-11.0286
享	-11.0288
已知	-11.029
發誓願	-11.0291
我向	-11.0293
此賢劫中	-11.0293
對治	-11.0294
盲人	-11.0295
優鉢羅花	-11.0296
從來	-11.0297
如其	-11.0298
迦葉言	-11.0302
及於	-11.0303
遭遇	-11.0304
變異	-11.0305
說其	-11.0305
今故	-11.0307
便往	-11.0308
損壞	-11.031
興盛	-11.0311
欲斷	-11.0311
之機	-11.0311
六種	-11.0313
教導	-11.0315
一萬	-11.0315
觀門	-11.0315
慧解	-11.0319
佛告長者	-11.032
刀劍	-11.0322
時彼仙人	-11.0322
以供	-11.0323
佛寶	-11.0323
五欲樂	-11.0327
長短	-11.0328
稱善	-11.0331
頭目	-11.0331
少有	-11.0332
之外	-11.0333
前科	-11.0334
非無	-11.0334
歎德	-11.0334
射獵	-11.034
時彼長者	-11.034
來向	-11.034
毘舍離	-11.0341
猶故	-11.0341
無量世中	-11.0344
欲去	-11.035
牛羊	-11.035
二十八	-11.0352
惑業	-11.0355
由彼	-11.0356
顏貌端正	-11.0356
臣等	-11.0356
難捨	-11.0359
化眾生	-11.036
施食	-11.036
佛塔	-11.0361
可往	-11.0361
度彼	-11.0362
醫師	-11.0363
深重	-11.0371
由我	-11.0372
來聽法	-11.0375
去後	-11.0379
三達	-11.0381
珠寶	-11.0383
必為	-11.0384
定力	-11.039
大魚	-11.0394
作子	-11.0398
當說	-11.0403
應作	-11.0411
求無上道	-11.0414
數千	-11.0417
波羅蜜多	-11.0417
恒河	-11.0419
吾子	-11.042
愛憎	-11.0421
我生	-11.0425
無苦	-11.0426
我母	-11.0428
天上人間	-11.0429
狐	-11.0436
得道者	-11.0436
無情	-11.044
虛空諸天	-11.0444
大悲心	-11.0444
無物	-11.0445
子等	-11.0456
長者言	-11.0458
所覆	-11.0459
經於	-11.0459
曉了	-11.0463
於佛所	-11.0465
巡	-11.0472
持用	-11.0475
今見	-11.0476
勸人	-11.048
去此	-11.048
諸禽獸	-11.0482
大夫人	-11.0484
億載	-11.0488
欲愛	-11.0489
王法	-11.0493
非我所	-11.0494
淨信	-11.0495
乃令	-11.0496
梵釋	-11.05
無始	-11.0501
百千億	-11.0502
千億	-11.0502
起滅	-11.0507
生此	-11.0513
王仙	-11.0513
正為	-11.0515
常見	-11.0516
寶衣	-11.0521
至王所	-11.0525
大道人	-11.0525
亦云	-11.0528
餚饍	-11.0529
見世尊	-11.0531
便前	-11.0532
受食	-11.0532
此行	-11.0534
此婆羅門	-11.0536
光明照	-11.0536
為國王	-11.0539
若知時	-11.0541
三分	-11.0544
悋惜	-11.0545
或云	-11.0546
皆同	-11.0548
能壞	-11.055
現今	-11.0551
巖	-11.0552
求方便	-11.0553
將去	-11.0553
欲說	-11.0556
祥	-11.0557
大國王	-11.0559
填	-11.056
下方	-11.056
佛意	-11.0561
如來所	-11.0563
既能	-11.0567
護身	-11.057
無等倫	-11.0572
之徒	-11.0576
坌	-11.0578
唾	-11.0578
革屣	-11.058
無等	-11.058
娉以為婦	-11.0581
不爾	-11.0582
三明	-11.0584
普慈	-11.0585
拘胝	-11.0585
淨居諸天	-11.0586
擊鼓	-11.0586
畢鉢羅耶	-11.0586
已生	-11.0587
梟	-11.0588
候	-11.0588
為緣	-11.0589
肩	-11.0589
蠅	-11.059
滅盡泥洹	-11.059
佐助	-11.059
姚秦涼州沙門竺佛念譯	-11.059
鑽	-11.059
今始	-11.0591
鷲	-11.0591
悶	-11.0591
右遶三匝	-11.0592
自求	-11.0593
端坐思惟	-11.0594
緣是功德	-11.0595
纖	-11.0595
給與	-11.0595
大莊嚴論	-11.0597
無有厭足	-11.0597
少欲知足	-11.0597
好醜	-11.0598
僮僕	-11.0598
調戲	-11.0598
毀呰	-11.0598
合掌向佛	-11.0599
釜	-11.06
縱橫	-11.06
隙	-11.06
初生	-11.06
〔	-11.0602
藥叉	-11.0602
腦	-11.0603
往趣	-11.0603
勝處	-11.0604
來至我所	-11.0605
如是至三	-11.0605
或有婇女	-11.0606
兩足	-11.0607
嶮難	-11.0608
自相謂言	-11.0612
題	-11.0613
稱揚	-11.0615
籠	-11.0616
優曇	-11.0616
僧祇	-11.0617
三名	-11.0618
滿月	-11.0619
嬰兒	-11.062
統領	-11.0624
重病	-11.0625
例	-11.0626
能詮	-11.063
大悲菩薩摩訶薩	-11.063
陀羅尼門	-11.063
彼辟支佛	-11.0631
護法	-11.0631
獨尊	-11.0632
貧苦	-11.0632
文字	-11.0632
怖懼	-11.0634
此夢	-11.0638
微妙法	-11.0641
實不	-11.0643
設會	-11.0644
幻惑	-11.0644
失其	-11.0645
鹿母	-11.0648
淨潔	-11.0649
上至	-11.065
諸聖	-11.0652
皆成	-11.0652
相謂言	-11.0657
千葉	-11.0657
經戒	-11.0659
歸依佛	-11.0667
當須	-11.067
大河	-11.0673
大功德	-11.0674
龍神	-11.0674
稱之	-11.0675
疑怪	-11.0677
然今	-11.0678
佛功德	-11.0679
以己	-11.068
極令	-11.0682
或是	-11.0683
二十九	-11.0684
受法	-11.0684
濟眾生	-11.0685
王四天下	-11.0686
何故不	-11.069
發大	-11.0692
共議言	-11.0696
醜惡	-11.07
其水	-11.0702
而以	-11.0705
之形	-11.0705
瞋恨	-11.0708
必不	-11.0712
億千	-11.0713
死亡	-11.0714
二經文	-11.0717
汝自	-11.0718
廣博	-11.0719
聽之	-11.0721
俱行	-11.0724
身光	-11.0727
出家人	-11.0728
結跏趺坐	-11.0732
自娛	-11.0734
嚴身	-11.0734
開發	-11.0736
我獨	-11.0736
將護	-11.0739
世所	-11.0741
喪身	-11.0741
何因緣	-11.0741
少小	-11.0742
性行	-11.0746
天祠	-11.0747
有王	-11.0749
驚喜	-11.075
遠去	-11.0753
則得	-11.0755
墮三惡道	-11.0757
諸瓔珞	-11.076
大莊嚴	-11.076
皆具	-11.0761
即佛	-11.0761
進道	-11.0763
如雨	-11.0765
淨意	-11.077
頭面	-11.0772
種種雜	-11.0777
往生	-11.0778
獨處	-11.0779
為能	-11.0781
妓女	-11.0781
捨命	-11.0781
鐵圍	-11.0786
自作	-11.0794
必是	-11.0794
悉當	-11.0794
富樂	-11.08
因中	-11.0802
火光	-11.0804
之性	-11.0804
以見	-11.0808
善說	-11.0814
得食	-11.0815
不善業	-11.0816
行檀波羅蜜	-11.0816
已至	-11.0817
一切施	-11.0819
彈	-11.082
空處	-11.082
過惡	-11.082
善友太子	-11.0822
寶瓶	-11.0822
證阿耨多羅三藐三菩提	-11.0822
然火	-11.0823
禪思	-11.0824
已能	-11.0825
已除	-11.0825
大寶	-11.0829
其力	-11.0829
五百比丘	-11.0831
同前	-11.0834
如須彌	-11.0836
集諸	-11.0839
自守	-11.084
各與	-11.0841
又觀	-11.0847
夫妻	-11.0853
司	-11.0857
及至	-11.0861
僕	-11.0862
云何而	-11.0872
殿上	-11.0875
泡	-11.0878
欲界諸天	-11.0879
為真	-11.0882
乘車	-11.0882
林樹	-11.0889
詣王	-11.089
火聚	-11.089
其主	-11.0891
雖未	-11.0893
苦身	-11.0895
理家	-11.0895
得成佛	-11.0896
意謂	-11.0897
眾許	-11.0898
初夜	-11.09
我命	-11.09
五樂	-11.0902
牧	-11.0903
心之	-11.0903
海濟婆羅門	-11.0905
即能	-11.092
乘船	-11.0921
英	-11.0922
發無上正真道意	-11.0922
可止	-11.0923
螺髻	-11.0923
分陀利	-11.0925
因為立字	-11.0926
自悔責	-11.0927
訟	-11.0927
語諸	-11.0928
端政殊妙	-11.0929
有發無上菩提心者	-11.0929
十號具足	-11.093
其婦懷妊	-11.0931
何道	-11.0931
威儀庠序	-11.0931
優波斯那	-11.0933
卵	-11.0933
霹靂	-11.0933
即解	-11.0934
輝	-11.0935
后妃	-11.0935
清淨無瑕穢	-11.0936
阿私陀	-11.0936
鞞	-11.0937
吉凶	-11.0937
伊	-11.0937
共相謂言	-11.0938
捶	-11.0938
愛重	-11.0939
揵陟	-11.0939
如我今也	-11.0939
身行	-11.094
娑婆	-11.094
已還	-11.0941
那提迦葉	-11.0941
語王言	-11.0941
拜手	-11.0942
脇	-11.0942
憔悴	-11.0942
割截	-11.0943
不敢違	-11.0943
紹	-11.0943
慎勿	-11.0945
增修	-11.0945
矢	-11.0945
以三昧力故	-11.0945
縣	-11.0946
剃髮師	-11.0946
親戚	-11.0947
沈沒	-11.0947
危害	-11.0947
如我今者	-11.0947
祕藏	-11.0947
無色界	-11.0948
毘陀	-11.0949
遐	-11.095
以濟	-11.0951
在眾	-11.0952
可觀	-11.0952
右邊	-11.0952
遊歷	-11.0953
取彼	-11.0953
資糧	-11.0955
亦不可	-11.0955
此意	-11.0956
乞士	-11.0956
爾時海濟婆羅門	-11.0958
婬妷	-11.0958
數年	-11.0958
自觀	-11.096
丹	-11.096
嘉	-11.0966
惡露	-11.0967
奉教	-11.0968
暉	-11.0969
止寂	-11.0969
清白	-11.097
發於	-11.097
為所	-11.0971
有一大	-11.0971
塔廟	-11.0972
彼地	-11.0972
無勝	-11.0973
厭離世間	-11.0973
佛問	-11.0974
為主	-11.0976
等無差別	-11.0977
歎譽	-11.0977
辭別	-11.0977
狀如	-11.0979
長時	-11.0982
此國	-11.0983
證道	-11.0985
已過	-11.0986
行業	-11.0991
道理	-11.0991
熟視	-11.0991
今汝	-11.0996
觀諸	-11.0999
神呪	-11.1
或復有人	-11.1001
奉敬	-11.1001
有一大臣	-11.1001
西域	-11.1002
行相	-11.1002
生人中	-11.1003
乃見	-11.1006
故得	-11.101
龍象	-11.1011
王種	-11.1014
頂戴	-11.1014
佛說是時	-11.1015
淨飯	-11.1015
僧寶	-11.1016
即起合掌	-11.1016
有好	-11.102
電光	-11.1022
佛出世	-11.1027
留難	-11.1028
而見	-11.1028
頓教	-11.1032
與一	-11.1037
男兒	-11.1038
稱性	-11.1041
後當	-11.1044
山野	-11.1047
異學	-11.1055
人見	-11.1056
之志	-11.1056
為於	-11.1056
專意	-11.1057
驚畏	-11.106
人若	-11.1065
解脫門	-11.1065
頻婆娑羅王	-11.1065
至如來所	-11.1067
聞我	-11.1068
定中	-11.107
為天人	-11.1075
出曜	-11.1076
實非	-11.1076
見人	-11.1078
合成	-11.1085
受諸	-11.1085
水上	-11.1087
河中	-11.1087
去者	-11.1089
成無上道	-11.109
為梵志	-11.1093
火宅	-11.1094
彼長者	-11.1094
喪命	-11.1098
還本國	-11.11
消化	-11.11
本有	-11.1101
來會	-11.1105
明月	-11.1107
入佛	-11.1111
復何	-11.1115
人說	-11.1118
象子	-11.112
一邊	-11.1121
安得	-11.1123
不久當	-11.1124
說於	-11.1132
解知	-11.1137
何須	-11.1138
從今日	-11.1138
欲有所	-11.1139
於過去世	-11.114
巨	-11.1141
飛來	-11.1143
匝	-11.1144
河水	-11.1147
還本	-11.1148
渴乏	-11.1153
一時佛在	-11.1154
便告	-11.1155
兔王	-11.1158
猶如大海	-11.1158
得證	-11.1162
來見	-11.1163
放光明	-11.1163
家居	-11.1163
二執	-11.1163
作觀	-11.1164
便取	-11.1165
作聲	-11.1165
云何不	-11.1165
是故菩薩	-11.1166
若非	-11.1166
我夫	-11.1169
復更重	-11.1171
恭敬供養	-11.1174
清淨無垢	-11.1176
人語	-11.1179
族姓	-11.118
得佛道	-11.118
為死	-11.118
威勢	-11.1185
美妙	-11.1193
困厄	-11.1194
大千	-11.1203
大城	-11.1206
長者居士	-11.1209
身者	-11.1217
有七寶	-11.1217
依彼	-11.1218
吾有	-11.1219
供養恭敬	-11.1221
在人間	-11.1228
王心	-11.1231
溢	-11.1231
由其	-11.1233
辟支佛乘	-11.1235
入此	-11.1236
聞是已	-11.1237
祇桓	-11.1238
無作	-11.1239
我在	-11.1242
父母及	-11.1242
兆民	-11.1243
所度	-11.1247
欲還	-11.1249
果樹	-11.1251
以施	-11.1252
不可以	-11.1253
有十	-11.1254
法聲	-11.1256
若聞	-11.1256
禮佛足	-11.1256
漸至	-11.1258
亦知	-11.1259
世事	-11.1261
於樹下	-11.1266
調心	-11.1268
比丘當知	-11.1268
共彼	-11.1268
以正法	-11.127
息意	-11.1271
彼言	-11.1273
暴風	-11.1274
王聞此語	-11.1275
道心	-11.1278
過去佛	-11.1278
佐	-11.128
一合	-11.1281
閻浮利	-11.1282
額	-11.1282
從座而起	-11.1282
如來得成於佛道已	-11.1283
已捨	-11.1286
如前所說	-11.1286
蚊虻	-11.1287
故不如我道真也	-11.1287
設諸餚饍	-11.1289
屈伸	-11.1289
莊挍	-11.1289
剜	-11.129
斂	-11.129
飡	-11.129
語其	-11.129
禽	-11.1291
發大誓願	-11.1292
塜間	-11.1293
摩伽陀	-11.1294
剃鬚髮	-11.1295
搖動	-11.1296
苦本	-11.1297
僉然	-11.1297
貞	-11.1297
漫	-11.1297
欻	-11.1298
秦	-11.1298
少雙	-11.1298
斗	-11.1298
𦟛	-11.1298
黠慧	-11.1298
挾	-11.1299
不具	-11.1299
欣慶	-11.1299
哀慟	-11.13
迸	-11.1301
展	-11.1302
橋梁	-11.1304
淨飯大王	-11.1304
鼠	-11.1304
聖德	-11.1304
軀命	-11.1307
不如一日	-11.1307
毒蟲	-11.1307
摩納	-11.1309
無數百千	-11.1309
在虛空中	-11.1312
退散	-11.1313
百千劫	-11.1313
思欲	-11.1315
覆蔽	-11.1315
報佛恩	-11.1315
而說斯偈	-11.1317
臭處	-11.1318
勝行	-11.132
刑	-11.1321
真法	-11.1321
云何為四	-11.1322
盡力	-11.1323
著衣	-11.1323
即白	-11.1326
片	-11.1328
顧視	-11.1328
毘沙門天王	-11.1329
雖為	-11.1329
心地法門	-11.133
我於往昔	-11.1332
仙人所	-11.1333
行乞食	-11.1335
自取	-11.1336
可喜	-11.1336
來生	-11.1336
九十日	-11.1336
承佛	-11.1337
布施如是	-11.1338
色像	-11.1339
秘密	-11.1339
一言	-11.1339
心願	-11.134
于地	-11.1341
致此	-11.1343
自受	-11.1345
河岸	-11.1349
下四句	-11.135
守門者	-11.1352
劫奪	-11.1352
外人	-11.1356
猶如有人	-11.1356
數百	-11.1357
大得	-11.1358
面色	-11.1362
喪失	-11.1363
以此因緣	-11.1364
獲其	-11.1365
福力太子	-11.1367
向王	-11.1367
諸惑	-11.137
發大心	-11.1371
住立	-11.1375
喜心	-11.1379
生善處	-11.1379
容受	-11.1381
懷疑	-11.1381
醉象	-11.1382
又不	-11.1387
之尊	-11.1388
把	-11.1392
妄言	-11.1392
無慚	-11.1395
修羅	-11.1396
時長者子	-11.1396
多劫	-11.1398
設我	-11.1399
告其	-11.1401
佛出現於世	-11.1401
相娛樂	-11.1403
無有一人	-11.1405
當如	-11.1405
出言	-11.1405
孰能	-11.1407
今現	-11.141
法施	-11.142
之前	-11.1421
五比丘	-11.1423
前云	-11.1424
及諸眷屬	-11.1425
乃名	-11.1428
誰不	-11.1429
障染	-11.1429
識知	-11.143
其目	-11.1431
噉食	-11.1432
人情	-11.1436
云何能	-11.1438
廣為	-11.1439
寶殿	-11.144
要誓	-11.1441
更樂	-11.1441
▁【	-11.1442
錄	-11.1443
染諍	-11.1445
我等今	-11.1447
恒為	-11.145
無量百千萬億	-11.1451
死時	-11.1452
或食	-11.1453
大神通	-11.1455
聲聞眾	-11.1456
為菩薩	-11.1459
釋迦文佛	-11.146
又聞	-11.1461
見思	-11.1466
雜種	-11.1466
商賈	-11.1472
自大	-11.1473
勸發	-11.1475
有如是等	-11.1477
眾相	-11.1482
於諸三昧	-11.1482
釋迦文	-11.1483
無幾	-11.1484
攝持	-11.1487
上樹	-11.1487
好樂	-11.1493
而共	-11.1493
即召	-11.1498
勿使	-11.1498
度之	-11.1499
二親	-11.1501
奧	-11.1502
取命終	-11.1503
本覺	-11.1504
欲觀	-11.1507
不負	-11.151
隨佛	-11.151
金鉢	-11.1511
齋法	-11.1512
依此	-11.1515
今佛	-11.1516
何可	-11.1516
汝意	-11.1518
摩訶薩	-11.1522
悉共	-11.1524
自出	-11.1525
有一梵志	-11.1526
久長	-11.1526
將詣	-11.1528
大聲	-11.1528
妄念	-11.1532
堅實	-11.1533
輕躁	-11.1534
猶未	-11.1538
芥子	-11.1538
何忍	-11.1539
?「	-11.154
中央	-11.1543
此食	-11.1544
心垢	-11.1546
方計	-11.1548
世界中	-11.1553
如來所說	-11.1553
一切下	-11.1554
汝見	-11.1554
不有	-11.1554
。】	-11.1555
誠信	-11.1562
總言	-11.1565
果證	-11.1569
行求	-11.1571
至彼岸	-11.1571
酸	-11.1575
無上法	-11.1578
於父母	-11.1579
王答	-11.158
方得	-11.1581
與食	-11.1582
囚	-11.1584
隨應	-11.1586
送之	-11.1586
法空	-11.1592
應當知	-11.1596
乞人	-11.1596
無貪	-11.1598
立誓	-11.1599
饑	-11.1599
可獲	-11.1599
宮城	-11.1604
其次	-11.1606
不處	-11.1609
不被	-11.1609
國有	-11.1611
豐樂	-11.1612
知有	-11.1612
千里	-11.1613
不得自在	-11.1613
於大	-11.1616
戟	-11.162
眾結	-11.1626
而已	-11.1626
阿蘭	-11.1627
能見	-11.1632
昔佛	-11.1633
前人	-11.1634
善思	-11.1635
語阿難	-11.1641
佛已	-11.1642
大有	-11.1645
兜	-11.1646
感應	-11.1647
幻化	-11.1647
欲捨	-11.1649
時阿私陀	-11.1653
說四諦法	-11.1653
慙愧	-11.1654
了解	-11.1655
出於世	-11.1655
為當	-11.1657
嫌恨	-11.1658
孝養父母	-11.1659
名曰善	-11.1659
梵行已立	-11.1659
筋	-11.166
歡娛	-11.166
橋	-11.1661
遷神	-11.1662
有發辟支佛	-11.1662
哽咽	-11.1663
涕唾	-11.1663
湧	-11.1665
來去	-11.1665
婁	-11.1666
愆	-11.1666
夕	-11.1666
機關	-11.1666
佛同號	-11.1667
行住坐臥	-11.1668
欣悅	-11.1668
各相	-11.1668
苷蔗	-11.1668
裸形	-11.1669
如影隨形	-11.167
匿	-11.167
謗毀	-11.167
微塵數	-11.167
敗壞	-11.167
自以	-11.167
瞿夷	-11.1671
悵然	-11.1671
各執	-11.1671
問於	-11.1671
床臥具	-11.1672
輔	-11.1672
釋氏	-11.1672
山川	-11.1673
亦復讚歎	-11.1673
餓虎	-11.1673
撫	-11.1674
菩提道場	-11.1674
屋舍	-11.1674
冤	-11.1675
心驚毛竪	-11.1675
胞胎	-11.1676
偷盜	-11.1677
三摩地	-11.1677
大目揵連	-11.1678
八正道	-11.1678
佛智	-11.168
受我請	-11.1681
懇	-11.1682
令太子	-11.1683
書寫	-11.1684
勇猛精進	-11.1684
服食	-11.1684
牸牛	-11.1686
無與等者	-11.1687
氷	-11.1688
陋	-11.1688
見汝	-11.1688
渡河	-11.1689
復有世界名	-11.1689
爾時長者	-11.1689
於理	-11.1689
金粟	-11.169
受五欲樂	-11.169
人意	-11.169
不近	-11.169
當捨	-11.1691
悚然	-11.1692
感動	-11.1698
揀	-11.1698
不逆	-11.17
四德	-11.1701
復於	-11.1701
頭陀	-11.1702
尊師	-11.1703
至孝	-11.1703
於佛法中	-11.1707
惟願世尊	-11.1708
獲道果	-11.1709
名之為	-11.1709
千年	-11.1709
纏裹	-11.1713
妙樂	-11.1713
頂生	-11.1717
引發	-11.1717
河邊	-11.1718
一體	-11.1718
捨之	-11.1719
更不復	-11.1721
身出	-11.1723
未曾有法	-11.1725
請法	-11.1725
現於	-11.1727
恒河沙等	-11.1732
又值	-11.1734
正等	-11.1735
令知	-11.1736
復令	-11.1739
千佛	-11.1739
聞是事已	-11.1739
舉頭	-11.1739
正直	-11.174
而哭	-11.1741
仁慈	-11.1742
佛及比丘僧	-11.1747
布施持戒	-11.1747
專念	-11.1748
拔苦	-11.175
待我	-11.1752
踊躍無量	-11.1753
所住處	-11.1753
品下	-11.1756
如實知	-11.1756
聞見	-11.1756
豪尊	-11.1757
無得	-11.1757
七年	-11.1759
五塵	-11.176
普遍	-11.1761
大石	-11.1761
了達	-11.1761
損害	-11.1762
若有善男子	-11.1765
是大沙門	-11.1765
然可	-11.1767
說經法	-11.1771
法義	-11.1772
女身	-11.1775
寒熱	-11.1776
業緣	-11.1776
欲聞	-11.1778
困乏	-11.1785
彈琴	-11.1788
今來	-11.1789
五體	-11.179
牛王	-11.1791
令彼眾生	-11.1793
斷生死	-11.1794
大富長者	-11.1795
妻息	-11.1795
尊者阿難	-11.1797
三禪	-11.1798
當成阿耨多羅三藐三菩提	-11.1801
大風	-11.1804
紫金	-11.1804
於欲	-11.1812
麤獷	-11.1813
又能	-11.1816
萬里	-11.1818
七世	-11.1819
如所	-11.182
如母	-11.1821
少年	-11.1821
通利	-11.1822
何因緣故	-11.1824
無壞	-11.1826
知不	-11.1833
中夜	-11.1833
岸邊	-11.1835
其性	-11.1836
施我	-11.1839
如此之	-11.184
但見	-11.184
眾妙	-11.1841
還其	-11.1848
觀照	-11.1849
以大	-11.1849
當修	-11.1851
如樹	-11.1852
從佛聞	-11.1852
持戒者	-11.1852
倒見	-11.1854
坐聽法	-11.1855
云何名	-11.1855
歷劫	-11.1857
觀身	-11.1859
一宿	-11.1859
欲離	-11.1861
焚	-11.1864
天花	-11.1869
福慧	-11.1871
迎接	-11.1873
遂即	-11.1874
豪富	-11.1876
何異	-11.188
不願	-11.1882
有一女	-11.1883
降伏魔	-11.1883
為勝	-11.1886
將我	-11.1887
惡世	-11.189
所有功德	-11.1891
智慧者	-11.1891
火滅	-11.1894
於諸法	-11.1898
而歸	-11.1901
稱佛	-11.1902
寶所	-11.1904
得其	-11.1905
取食	-11.1905
法雨	-11.1907
必須	-11.191
捨彼	-11.1912
為一切眾生	-11.1912
太子前	-11.1912
其實	-11.1913
彼園	-11.1916
說已	-11.1918
一大	-11.1923
技藝	-11.1925
為三界	-11.1927
百二十	-11.1929
無有餘	-11.1931
有能	-11.1933
遇佛	-11.1933
世間一切	-11.1936
搏	-11.1942
是名菩薩	-11.1942
名德	-11.1942
遍覆	-11.1948
出宮	-11.1949
結名	-11.195
非身	-11.1953
釋迦牟尼	-11.1957
欲求解脫	-11.1957
已畢	-11.1957
共汝	-11.1961
乳母	-11.1962
布地	-11.1962
聽我出家	-11.1964
轉增	-11.1965
欲共	-11.1967
如大海	-11.1972
我今應當	-11.1972
愚夫	-11.1975
以斯	-11.1976
向家	-11.1977
今有	-11.1977
寶器	-11.1978
堪為	-11.198
昔有一	-11.1982
優波伽	-11.1985
我今亦	-11.1986
於其中	-11.1987
寶鈴	-11.199
出去	-11.1993
財施	-11.1995
前文	-11.1996
不耶	-11.1998
我食	-11.2
難值	-11.2002
滿鉢	-11.2002
執意	-11.2003
誠心	-11.2004
眾人見	-11.2006
天身	-11.2006
釋種童子	-11.2008
奇異	-11.2012
還歸家	-11.2015
我悉	-11.2022
藍	-11.2023
即放	-11.2023
稱心	-11.2024
於今者	-11.2026
無慧	-11.2028
効	-11.2029
取一	-11.2029
議言	-11.203
穌	-11.203
天竺	-11.2032
復將	-11.2032
尊勝	-11.2034
二十由旬	-11.2035
將一	-11.2035
菩薩如是	-11.2038
人生	-11.2039
知法	-11.2039
鳩槃茶	-11.204
翼	-11.204
諸病	-11.2041
拍	-11.2041
若我所願成就	-11.2043
一時佛遊舍衛祇樹給孤獨園	-11.2044
悵	-11.2044
餉	-11.2045
崖	-11.2045
善願	-11.2046
迦蘭陀	-11.2047
慰勞	-11.2047
摩休勒	-11.2047
波婆梨	-11.2048
嚴峻	-11.2048
山王	-11.2048
作瓶天子	-11.2049
娑羅那	-11.2049
授阿耨多羅三藐三菩提記	-11.205
光從	-11.205
閻浮利地	-11.2051
身壞命終	-11.2051
帛	-11.2051
莊嚴身	-11.2051
如彼行人	-11.2052
疲乏	-11.2052
奄	-11.2052
效	-11.2053
〕-【	-11.2053
巨細	-11.2053
態	-11.2053
含笑	-11.2053
狼	-11.2054
諭	-11.2054
象馬車乘	-11.2056
沃	-11.2056
光明普曜	-11.2056
算數	-11.2056
姿容	-11.2056
耻	-11.2057
駝	-11.2058
道法御	-11.2058
穀米	-11.2058
流馳	-11.206
日月星辰	-11.2062
嚙	-11.2063
嗚	-11.2063
舉右手	-11.2064
敬仰	-11.2064
式	-11.2064
尤	-11.2066
自滅	-11.2066
勝果	-11.2066
二日	-11.2067
福增	-11.2068
為天	-11.2068
鍊	-11.2068
先當	-11.2068
閻浮提中	-11.2069
甚大歡喜	-11.2069
伎女	-11.2069
攀緣	-11.2069
光耀	-11.207
復聞	-11.2071
般遮	-11.2072
阻	-11.2072
從空來	-11.2072
從坐起	-11.2073
叔	-11.2073
耳鼻	-11.2076
弟言	-11.2077
香風	-11.2078
不可量	-11.2078
故說	-11.2079
其教	-11.2079
釋梵四王	-11.2079
解脫句	-11.208
認	-11.208
徑路	-11.2082
聞有	-11.2083
肉眼	-11.2083
諸婇女等	-11.2084
泯	-11.2084
無罪	-11.2084
生此念	-11.2084
一一分別	-11.2086
悲號	-11.2089
。」「『	-11.2089
行如是事	-11.2091
般若波羅蜜	-11.2092
踊出	-11.2094
喜根	-11.2094
之水	-11.2096
汝師	-11.2097
財富	-11.2099
毀害	-11.21
此岸	-11.2103
入三昧	-11.2103
萬億	-11.2104
已辦	-11.2104
執志	-11.2105
證明	-11.2106
十戒	-11.2109
示之	-11.2109
泉池	-11.2112
不勝	-11.2112
諸天玉女	-11.2114
慧者	-11.2114
吾已	-11.2115
說偈曰	-11.2117
為弟子	-11.2119
施於	-11.212
諸菩薩眾	-11.2121
入胎	-11.2126
以奉	-11.2126
之謂也	-11.2128
供養眾僧	-11.213
王子名為	-11.2135
饒益眾生	-11.2135
中國	-11.2135
此眾生類	-11.2135
正意	-11.2136
此塔	-11.2137
非也	-11.2139
二商主	-11.2139
生老死	-11.214
文義	-11.2144
歌頌	-11.2145
優波	-11.2147
隨類	-11.215
調達是	-11.2151
朗	-11.2152
諸佛菩薩	-11.2156
惡獸	-11.2156
事業	-11.2158
濟眾	-11.2158
王與	-11.216
苦滅	-11.2162
不墮	-11.2162
大哀	-11.2163
入深山	-11.2164
化彼	-11.2165
既自	-11.2166
善權	-11.2167
正心	-11.2174
形狀	-11.218
事事	-11.2182
照了	-11.2184
內自	-11.2185
方廣	-11.2186
悲喜	-11.2187
行苦行	-11.2189
奉戒	-11.219
真智	-11.2196
所詮	-11.2197
言已	-11.2198
又無	-11.22
又於	-11.2201
解義	-11.2201
諸群生	-11.2204
合集	-11.2204
乃應	-11.2205
必獲	-11.2207
咸來	-11.2207
華言	-11.2207
作轉輪王	-11.2208
自手	-11.2211
天仙	-11.2213
此道	-11.2217
其土	-11.2217
在山中	-11.2218
而下	-11.2219
見他	-11.2219
十月	-11.222
罪過	-11.2223
宮室	-11.2224
僧坊	-11.2224
入禪	-11.2228
所用	-11.223
口業	-11.2235
下結	-11.2238
又此	-11.224
中生	-11.2245
當從	-11.2247
作事	-11.2247
尋求	-11.225
浣	-11.225
欲盡	-11.2252
雖行	-11.2252
盡止	-11.2252
有如此	-11.2254
華嚴	-11.2256
能制	-11.2256
度脫眾生	-11.2257
而入	-11.2257
流水	-11.2258
之首	-11.2258
差摩	-11.2264
諸如來	-11.227
求出	-11.227
不飲	-11.2271
害人	-11.2272
斷其	-11.2273
王國	-11.2273
當詣	-11.2273
入禪定	-11.2275
汝宜	-11.2277
可之	-11.2278
彼諸眾生	-11.2279
不知足	-11.2279
行處	-11.2279
惡念	-11.2279
其根	-11.228
佛復告	-11.2281
須彌山王	-11.2283
一心念	-11.2283
二相	-11.2286
在虛空	-11.2286
粟	-11.229
無違	-11.2291
有病	-11.2292
忽見	-11.2293
已到	-11.2293
有無量	-11.2295
以天眼	-11.2296
情欲	-11.2296
稱意	-11.2302
加之	-11.2304
大恩	-11.2305
始得	-11.2308
摩竭國	-11.2311
不盜	-11.2313
失於	-11.2313
稱為	-11.2315
綺語	-11.2317
善教	-11.232
戒為	-11.2321
諮白	-11.2321
門中	-11.2321
設供養	-11.2322
七種	-11.2322
八方	-11.2322
執杖	-11.2323
薄福	-11.2325
惡龍	-11.2327
王當	-11.2328
毀壞	-11.2332
各還	-11.2333
聞於	-11.2334
捨諸	-11.2336
人曰	-11.2337
錯亂	-11.2337
此一	-11.2337
悲願	-11.2338
女色	-11.234
石上	-11.2345
敬意	-11.2345
諸仙人	-11.2346
僕使	-11.2346
解脫道	-11.2348
優陀夷言	-11.2349
端正殊妙	-11.235
懷慚愧	-11.2352
各隨	-11.2354
得安	-11.2361
與共	-11.2363
即我身是	-11.2366
苦海	-11.2367
於如來所	-11.2368
此沙門	-11.2368
等無異	-11.2368
妙藥	-11.2371
便去	-11.2371
便還	-11.2375
佛出	-11.238
諸大	-11.2381
流泉	-11.2381
功用	-11.2382
必死	-11.2387
利生	-11.2388
所奉	-11.239
時淨居天	-11.2391
無願	-11.2392
至一	-11.2395
見辟支佛	-11.2395
大涅槃	-11.2396
共同	-11.2396
?』」	-11.2397
便作	-11.2398
良善	-11.2399
法執	-11.2402
應為	-11.2404
難行	-11.2405
叫	-11.2406
最正覺	-11.241
容色	-11.241
皆稱	-11.2413
供養者	-11.2414
是名為	-11.2416
散華	-11.2417
佛所說	-11.2418
所有諸	-11.2425
貿易	-11.2427
種種供養	-11.2427
猫	-11.2428
案	-11.2431
為諸天人	-11.2431
本形	-11.2431
無念	-11.2431
佛土微塵數	-11.2432
國王者	-11.2433
不善法	-11.2435
無樂	-11.2438
窮乏	-11.2438
尸棄	-11.2438
洞	-11.2439
屏	-11.2441
唯然已	-11.2441
貝	-11.2441
出妙音聲	-11.2442
媚	-11.2442
百千萬倍	-11.2442
釋種子	-11.2443
憤	-11.2443
瓦礫	-11.2443
頭面著地	-11.2443
宰	-11.2445
屋宅	-11.2446
無上正真	-11.2446
長跪合掌	-11.2447
甚奇甚特	-11.2447
茶	-11.2447
於阿耨達池	-11.2447
般特	-11.2448
籌量	-11.2448
和雅	-11.2448
深坑	-11.2448
聰慧	-11.2449
濡	-11.2449
摩尼寶珠	-11.2449
乃往過去無量世時	-11.2449
屎尿	-11.245
不可稱數	-11.245
辨	-11.2451
復起	-11.2451
承佛威神	-11.2451
机	-11.2452
羹	-11.2452
今世後世	-11.2452
優樓頻螺迦葉	-11.2452
聞此偈已	-11.2452
耆婆	-11.2452
仇	-11.2452
彌樓	-11.2452
掉	-11.2453
衣被飲食	-11.2453
皮膚	-11.2454
穢污	-11.2454
威神巍巍	-11.2454
四衢	-11.2455
及聲聞眾	-11.2455
豈況	-11.2455
鄉	-11.2455
阿鼻地獄	-11.2455
怛	-11.2455
鑒	-11.2456
在王舍城迦蘭陀竹林	-11.2456
無央數劫	-11.2456
駛	-11.2457
於四	-11.2457
耆年	-11.2458
死入地獄	-11.246
鎮	-11.246
余	-11.246
律儀	-11.246
伯	-11.2461
頭目髓腦	-11.2463
隱沒	-11.2464
閻	-11.2465
以是善根	-11.2465
振動	-11.2467
行之	-11.2468
如彼愚人	-11.2468
急疾	-11.2469
自莊嚴	-11.2471
佛知其意	-11.2472
諸天神	-11.2472
三千界	-11.2473
唯有一子	-11.2474
生信	-11.2474
攀	-11.2477
玉女寶	-11.2477
王舍	-11.2478
永息	-11.2479
諸罪	-11.248
受其報	-11.2481
念處	-11.2483
▁○	-11.2483
良田	-11.2484
奇妙	-11.2484
寶座	-11.2484
克	-11.2484
經無量劫	-11.2485
喜踊	-11.2485
水洗	-11.2487
入於涅槃	-11.2489
驚起	-11.2492
露地	-11.2493
進路	-11.2493
倒染	-11.2494
四無垢性	-11.2495
羅雲	-11.2496
平地	-11.2497
猶如虛空	-11.2497
較量	-11.2498
人輩	-11.2499
若茲	-11.25
安立	-11.25
習氣	-11.2503
如我所	-11.2505
缺減	-11.2505
求彼	-11.2505
摧折	-11.251
意中	-11.2511
射之	-11.2512
復自思惟	-11.2514
捨世	-11.2516
流溢	-11.2516
來乞	-11.2518
驚動	-11.2518
無塵	-11.2521
其行	-11.2524
於佛法	-11.2525
名香	-11.2526
此即	-11.2526
之甚	-11.2528
生厭離	-11.253
大人相	-11.2532
一味	-11.2534
床上	-11.2536
是故名為	-11.2537
其弟子	-11.2537
之邊	-11.254
橫生	-11.2541
況我	-11.2541
地獄眾生	-11.2546
功能	-11.255
血流	-11.2552
如是展轉	-11.2555
人天中	-11.2556
終不能	-11.2557
宜當	-11.2558
彼仙	-11.256
及諸弟子	-11.2562
今亦	-11.2565
是言	-11.2567
七十	-11.257
欲何所	-11.2571
是故應	-11.2572
更無餘	-11.2573
送食	-11.2573
不待	-11.2576
欲詣	-11.2579
告阿難言	-11.258
須達長者	-11.2584
與樂	-11.2586
使彼	-11.2586
在家時	-11.2587
大身	-11.259
二弟	-11.2591
村人	-11.2591
總為	-11.2594
為我作	-11.2596
阿羅	-11.2597
執行	-11.2601
敬奉	-11.2604
中路	-11.2604
後有	-11.2606
傍人	-11.2608
亦各	-11.2608
並皆	-11.2612
之故	-11.2613
渡水	-11.2614
得道迹	-11.2614
聞偈	-11.2615
民眾	-11.2618
汝欲	-11.2619
普為	-11.2625
報之	-11.2625
是吾	-11.2626
古昔	-11.2627
自隨	-11.2627
後宮	-11.2629
座上	-11.2629
必應	-11.2632
所使	-11.2635
阿難陀	-11.2636
上天	-11.2637
聲聞乘	-11.2637
悉無	-11.2638
來迎	-11.264
至涅槃	-11.2641
生憂	-11.2643
疾得	-11.2653
雜毒	-11.2653
如是之人	-11.2654
若生	-11.2654
諸比丘尼	-11.2656
甚為難	-11.2658
暫時	-11.2659
由來	-11.2659
成其	-11.2659
之德也	-11.2661
白色	-11.2662
勝上	-11.2665
還詣	-11.2666
殿前	-11.2666
真淨	-11.2667
諸小王	-11.2669
求請	-11.2672
罵辱	-11.2673
令發阿耨多羅三藐三菩提心	-11.2673
為轉輪王	-11.2677
修十善	-11.2679
忍力	-11.268
亦同	-11.2681
不移動	-11.2687
有少	-11.2688
坐具	-11.269
之衣	-11.2692
時到	-11.2693
三惡	-11.2697
有四種	-11.2698
令彼一切	-11.2698
出行	-11.2699
亦不求	-11.2702
眾邪	-11.2703
無事不	-11.2706
舍衛城中	-11.2708
世榮	-11.271
佛國	-11.2711
虛偽	-11.2711
終不起	-11.2711
菩薩身	-11.2712
身也	-11.2714
彼一切	-11.2717
此方	-11.2717
○	-11.2717
我如是	-11.2718
已作	-11.272
不改	-11.2723
能成	-11.2724
雖在	-11.2726
雖小	-11.2727
應受	-11.2727
作王	-11.2732
尋復	-11.2733
得為	-11.2733
宿行	-11.2737
能仁	-11.2738
於今日	-11.2739
非不	-11.274
移轉	-11.2741
正業	-11.2743
不妄語	-11.2744
彼亦	-11.2744
憎嫉	-11.2745
而求	-11.2748
』「『	-11.2748
法說	-11.2752
生生	-11.2753
治生	-11.2754
真解脫	-11.2755
所棄	-11.2759
父母兄弟	-11.2762
吾聞	-11.2765
是中	-11.2765
不妄	-11.2766
身著	-11.2768
懷恐懼	-11.2769
不可輕	-11.2769
離此	-11.277
如來身	-11.277
意所	-11.2772
自來	-11.2773
長子	-11.2778
邊地	-11.278
群牛	-11.2782
樹根	-11.2782
岸上	-11.2787
謂既	-11.2789
持來	-11.2791
花樹	-11.2796
復往	-11.2796
歸佛	-11.2799
忽然而	-11.2799
可爾	-11.28
祇陀	-11.2801
同一	-11.2804
不殺生	-11.2806
齋戒	-11.2807
隨後	-11.2808
我亦如是	-11.2808
便於	-11.2809
內有	-11.2811
七珍	-11.2812
設使	-11.2814
五事	-11.2814
阿難言	-11.2815
飄	-11.2815
年少比丘	-11.2816
頭面禮佛	-11.282
三千大千	-11.282
立精舍	-11.2822
人得	-11.2822
安隱處	-11.2824
已定	-11.2825
歸依法	-11.2829
以慧	-11.283
欲入	-11.283
都盡	-11.2831
涕	-11.2832
林間	-11.2834
言無	-11.2834
尊卑	-11.2835
在其中	-11.2838
彼母	-11.2841
塹	-11.2841
舉足	-11.2842
所制	-11.2845
比豆梨	-11.2846
積財	-11.2846
成滿	-11.2847
號毘婆尸	-11.2848
成菩提	-11.2849
駒	-11.285
勞度差	-11.2851
內懷	-11.2851
三十七品	-11.2851
跪拜	-11.2852
自說本所	-11.2855
袈裟著身	-11.2857
火中	-11.2857
鴛鴦	-11.2859
涕哭	-11.2859
七日七夜	-11.2859
若不爾者	-11.2861
金瓶	-11.2861
霧	-11.2861
窓牖	-11.2862
宜知是時	-11.2863
半由旬	-11.2863
一種無異	-11.2863
怖懅	-11.2864
具白	-11.2865
導引	-11.2865
憍恣	-11.2865
祈	-11.2865
以歡喜心	-11.2866
復如是念	-11.2867
鎖	-11.2867
羅睺	-11.2867
雌	-11.2867
嚕	-11.2867
多獲義利	-11.2867
稽首足下	-11.2867
繞佛三匝	-11.2868
遷移	-11.2868
訴	-11.2868
娑訶世界	-11.2869
秤	-11.2869
林野	-11.2869
以慈心	-11.2869
盡形壽	-11.2869
頂戴奉行	-11.2869
㘁	-11.287
汝不	-11.287
道力	-11.287
寧有	-11.2871
不吉	-11.2872
稟性	-11.2872
生世	-11.2872
釋王婆提唎迦	-11.2873
善惡業	-11.2873
如說修行	-11.2873
示其	-11.2873
畫師	-11.2874
墮淚	-11.2876
男女大小	-11.2876
佛在王舍城	-11.2877
髀	-11.2878
畜獸	-11.2879
烏嚕尾螺迦葉	-11.288
嚮	-11.2881
雜穢	-11.2882
在所生處	-11.2882
空閑處	-11.2883
出家之人	-11.2883
六畜	-11.2883
瀑流煩惱	-11.2886
即成沙門	-11.2887
一品題	-11.2887
向波旬	-11.2887
修多羅	-11.2891
教訓	-11.2891
配	-11.2892
歎佛	-11.2892
迷失	-11.2893
菩薩在胎	-11.2894
無師	-11.2894
摩竭魚	-11.2896
之要	-11.2896
令離	-11.2897
卷下	-11.2899
娶婦	-11.2899
是沙門	-11.29
不可恃怙	-11.29
令無	-11.2901
速成	-11.2903
客作	-11.2904
首羅	-11.2904
難思議	-11.2905
舉世	-11.2906
根原	-11.2906
別相	-11.2906
天降	-11.2906
我法二執	-11.2907
如我今日	-11.2907
往到佛所	-11.291
回	-11.291
受苦無量	-11.291
善惠	-11.2911
十六大國	-11.2911
悉是	-11.2912
為尊	-11.2915
不擇	-11.2915
諸菩薩摩訶薩	-11.2917
飛去	-11.292
即答	-11.2921
為害	-11.2922
爾所	-11.2923
魔羅	-11.2924
兩邊	-11.2925
釋眾	-11.2926
立字	-11.2926
佛僧	-11.293
受記	-11.2933
世出世間	-11.2936
寶瓔珞	-11.2939
日光明	-11.294
聞是語	-11.2941
沒命	-11.2941
出國	-11.2943
教示	-11.2946
尼連河	-11.2946
四子	-11.2948
沙門梵志	-11.2948
蓮	-11.2949
怨恨	-11.2949
出門	-11.2949
仰天	-11.2951
迦毘羅婆蘇都城	-11.2955
眾賈	-11.2956
南天竺	-11.2958
常受快樂	-11.2959
佛法中	-11.2963
逼切	-11.2966
等無有異	-11.297
色力	-11.297
成就如是	-11.297
一切眾會	-11.2971
光曜	-11.2972
唱如是言	-11.2973
常能	-11.2974
受三歸	-11.2975
善果	-11.2977
普賢	-11.2978
引起	-11.2981
唯願如來	-11.2982
閻浮提人	-11.2984
善觀察	-11.2984
修善行	-11.2987
而心	-11.2987
亦不見	-11.299
除斷	-11.2994
彼實	-11.2996
之用	-11.2998
普濟	-11.2999
之屬	-11.3001
得涅槃	-11.3002
動轉	-11.3003
從他	-11.3003
增進	-11.3005
眼見	-11.3005
以神力	-11.301
便有	-11.3013
六牙	-11.3014
忉利天王	-11.3016
巧便	-11.3016
當至	-11.3016
斷盡	-11.3019
之神	-11.3024
從者	-11.3025
下車	-11.3026
此理	-11.3027
行菩薩行	-11.3027
行至	-11.3027
患苦	-11.3028
命終生天	-11.3029
畢已	-11.3033
說妙法	-11.3036
一臣	-11.3036
已曾	-11.3038
今乃	-11.3039
有三十二相	-11.3039
像法	-11.304
云何乃	-11.3041
太平	-11.3043
隱身	-11.3044
惡風	-11.3044
唯除	-11.3048
笑之	-11.3048
便入	-11.3049
須食	-11.3053
一佛	-11.3055
不墮地獄	-11.3055
高廣	-11.3057
習學	-11.3057
一切處	-11.3057
趣菩提	-11.3063
此是如來	-11.3064
阿那含果	-11.3066
共居	-11.3067
盛火	-11.3069
下釋	-11.3072
道術	-11.3077
雲雨	-11.3077
當得成佛	-11.3079
施人	-11.3079
尚可	-11.308
於一切法	-11.308
教他	-11.3082
之願	-11.3084
誰為	-11.3086
者乎	-11.3087
便復	-11.3087
且止	-11.3089
之語	-11.3089
骨肉	-11.3092
四智	-11.3092
入彼	-11.3093
云何當	-11.3095
眾罪	-11.3095
有恩	-11.3096
何者	-11.3097
重恩	-11.3097
滅則	-11.3097
或生	-11.3097
作方便	-11.3098
眾類	-11.3099
備足	-11.3101
鐵輪	-11.3102
將從	-11.3104
澤中	-11.3105
往至彼	-11.3107
懈	-11.3108
正教	-11.3109
我無	-11.3111
大安	-11.3111
但我	-11.3117
三衣	-11.3118
均	-11.3122
譯人	-11.3122
自至	-11.3124
之利	-11.3125
時白淨王	-11.3128
還到	-11.3132
是故汝等	-11.3133
令吾	-11.3135
諸比丘眾	-11.3136
博聞	-11.3136
殺汝	-11.3136
堅持	-11.3137
兒子	-11.3138
無量諸天	-11.3138
二女	-11.3139
入滅	-11.3139
汝先	-11.314
習於	-11.3141
剎中	-11.3141
法藥	-11.3143
三年	-11.3144
種種飲食	-11.3145
彼所	-11.3151
如鳥	-11.3152
理事	-11.3153
聞佛語	-11.3154
存在	-11.3159
治化人民	-11.3162
之極	-11.3164
尚有	-11.3165
為重	-11.3167
同處	-11.3167
道義	-11.317
無犯	-11.3173
吾自	-11.3178
如其所	-11.318
應隨	-11.318
定心	-11.3182
強力	-11.3183
倍生	-11.3184
毒痛	-11.3185
歸伏	-11.3186
色界諸天	-11.3188
高山	-11.3189
衣者	-11.319
結縛	-11.3191
比丘眾	-11.3191
在上	-11.3194
木石	-11.3195
過人	-11.3199
人有	-11.32
遇此	-11.3202
二邊	-11.3203
以次	-11.3205
所止	-11.3207
是汝	-11.3207
有求	-11.3208
菴	-11.3208
有王名	-11.3213
供養於佛	-11.3216
極惡	-11.3218
洗足	-11.3219
此神	-11.3225
覺者	-11.3227
聖力	-11.3228
妙衣	-11.3229
不亦	-11.323
昨	-11.3232
有人來	-11.3233
濟拔	-11.3234
薩婆	-11.3236
持齋	-11.3237
銜	-11.3239
報也	-11.324
能分別	-11.3242
仰觀	-11.3246
無復有	-11.3247
深妙	-11.3247
賢劫中	-11.3251
無有比	-11.3251
還白	-11.3254
人無	-11.3255
受者	-11.3261
即至	-11.3262
繫著	-11.3263
出定	-11.3264
大醫王	-11.3266
有愛	-11.3266
爾時帝釋	-11.3268
汝來	-11.3269
異道	-11.3272
有四事	-11.3272
優陀	-11.3272
眾難	-11.3273
閣	-11.3273
無主	-11.3275
億那由他百千	-11.3276
石蜜	-11.3276
違失	-11.3276
初始	-11.3277
其諸	-11.3278
大利益	-11.3278
波婆伽梨	-11.3279
吾之	-11.3279
來求	-11.3281
敬信	-11.3282
滅罪	-11.3284
水流	-11.3284
求索入道	-11.3284
諸天龍	-11.3285
耆域	-11.3289
端正可喜	-11.3289
作十八變	-11.329
去城不遠	-11.329
有娠	-11.329
沫	-11.3291
大有威力	-11.3291
裝	-11.3292
缾	-11.3293
如事	-11.3294
波頭摩	-11.3294
皆圓滿	-11.3294
斷於	-11.3294
目不暫捨	-11.3294
迦夷	-11.3295
犁	-11.3295
不減	-11.3295
願樂欲聞	-11.3295
撮	-11.3296
縱逸	-11.3296
刈	-11.3297
乘象	-11.3298
在胎	-11.3299
死苦	-11.3299
欄楯	-11.3299
生希有心	-11.3299
號名	-11.3299
麻	-11.33
裸	-11.33
寬博	-11.33
漏盡意解	-11.3301
廬	-11.3301
以前	-11.3301
僂	-11.3302
鍾	-11.3302
完	-11.3302
一切苦	-11.3302
於現法中	-11.3302
拘盧	-11.3302
雉	-11.3303
佛恩	-11.3303
諸根寂定	-11.3303
姉	-11.3304
遏	-11.3304
麤澁	-11.3305
壯士	-11.3305
佳	-11.3306
澄寂	-11.3306
乃至一切	-11.3306
我當為	-11.3307
難行苦行	-11.3308
甚可怖畏	-11.3308
寫	-11.3308
動地	-11.3308
骨髓	-11.3308
嚴辦	-11.3309
愁憂苦惱	-11.3309
謂比丘	-11.331
一頭	-11.331
盛壯	-11.3311
戰慄	-11.3311
掃除	-11.3311
驚懼	-11.3312
菜	-11.3312
無上正等菩提	-11.3312
我相	-11.3313
萬姓	-11.3313
調適	-11.3313
螢火	-11.3314
藕	-11.3314
疾疫	-11.3315
退坐一面	-11.3316
闡	-11.3316
得住	-11.3316
父母愛念	-11.3316
澡漱	-11.3316
五百世中	-11.3317
老耄	-11.3317
生在	-11.3317
葬	-11.3318
自割	-11.3318
蓮華上如來	-11.3319
復更思惟	-11.3319
自識宿命	-11.3319
儒童	-11.3319
無缺	-11.332
昔有國王	-11.3321
金剛杵	-11.3322
得應真	-11.3322
妃后	-11.3322
卷上	-11.3324
障蔽	-11.3325
即得名為	-11.3326
深固	-11.3327
至意	-11.3328
恐其	-11.3329
准	-11.3329
不計	-11.3329
妙智	-11.333
獨遊	-11.333
說是法時	-11.333
後夜	-11.333
色聲香味觸	-11.3331
積集	-11.3332
阿耨菩提	-11.3332
十八界	-11.3332
燒然	-11.3332
白骨	-11.3334
幾許	-11.3334
自用	-11.3335
阿含	-11.3336
於當來世	-11.3337
廣施	-11.3339
還向	-11.3341
稱言	-11.3341
梵摩達王	-11.3341
釋迦牟尼佛	-11.3341
增盛	-11.3341
放恣	-11.3341
退還	-11.3341
明燈	-11.3343
於正法	-11.3343
可度	-11.3343
非凡	-11.3343
彼山	-11.3343
體用	-11.3345
問我	-11.3345
交露	-11.3346
熏修	-11.3346
修行梵行	-11.3347
能所	-11.3347
根源	-11.3348
笑耳	-11.3349
愚癡之人	-11.335
如此事	-11.3351
沉	-11.3352
意定	-11.3353
給使	-11.3354
殺者	-11.3354
白父母言	-11.3356
斷欲	-11.336
營從	-11.3361
亦曾	-11.3362
皆各	-11.3362
羅剎女	-11.3363
天福	-11.3363
究竟成佛	-11.3364
不懼	-11.3364
深宮	-11.3364
汝曹	-11.3367
床臥	-11.3368
顯其	-11.337
於世間中	-11.3372
於五欲	-11.3375
尸羅	-11.3375
世間諸	-11.3375
收攝	-11.3376
為何所	-11.3376
非實	-11.3376
市中	-11.3376
兜術	-11.3379
種種方便	-11.338
權智	-11.338
欲令眾生	-11.3382
既是	-11.3382
所不能	-11.3389
白於王	-11.339
弘慈	-11.3391
六親	-11.3394
以道	-11.3395
修德	-11.3396
我寧	-11.3399
五逆	-11.3399
理宜	-11.3403
始覺	-11.3404
外學	-11.3404
覺道	-11.3404
甘露味	-11.3405
不已	-11.3406
苦集	-11.3408
惡逆	-11.3411
邊方	-11.3413
將非	-11.3416
與諸弟子	-11.3418
身毛	-11.3418
毀戒	-11.3419
心自	-11.342
爾時尊者	-11.3421
天耳	-11.3421
無穢	-11.3422
在我	-11.3427
四月	-11.3429
沙王	-11.343
悉已	-11.3431
名善	-11.3435
智慧之	-11.3435
十年	-11.3437
若求	-11.3437
高度	-11.3438
加害	-11.344
此科	-11.344
時轉輪王	-11.3441
修持	-11.3442
大妃	-11.3445
以草	-11.3446
會當	-11.3446
其眼	-11.3448
為妻	-11.345
不請	-11.3455
上方	-11.3455
得值	-11.3455
說偈讚	-11.3456
不缺	-11.3458
行時	-11.3459
彼等一切	-11.3459
神明	-11.3461
故來相	-11.3462
遂致	-11.3471
能入	-11.3471
生憐愍	-11.3471
斯等	-11.3471
若行	-11.3473
罪報	-11.3473
德力	-11.3474
心清淨	-11.3477
應先	-11.3478
於無量劫	-11.3481
容儀	-11.3483
在一	-11.3485
唯一	-11.349
見有一	-11.3491
若此	-11.3495
甚用	-11.3496
當使	-11.3503
信施	-11.3504
亦以	-11.3505
佛亦	-11.3505
汝等當	-11.3505
此天	-11.3506
和解	-11.3506
見於菩薩	-11.3509
凡愚	-11.351
一切所有	-11.3511
時優婆塞	-11.3511
迴心	-11.3513
亦無所	-11.3515
在何處	-11.3517
相好莊嚴	-11.3523
遠方	-11.3527
名婆	-11.3527
為利益	-11.3527
入地	-11.3528
五力	-11.353
更不受	-11.353
可食	-11.3533
四邊	-11.3533
智故	-11.3537
彼佛世尊	-11.3539
以刀	-11.354
豈非	-11.3542
聞佛世尊	-11.3543
白師	-11.3545
許之	-11.3546
善分別	-11.3546
經久	-11.355
唯此	-11.3552
乃謂	-11.3554
梵摩	-11.3558
惡見	-11.3562
昔來	-11.3565
身意	-11.3565
此明	-11.3565
起慈心	-11.3566
而與	-11.3566
聲響	-11.357
之所說	-11.358
賢王	-11.3583
測量	-11.3587
青蓮	-11.3588
奪我	-11.359
雖處	-11.3593
三昧清淨	-11.3594
內無	-11.3595
諸親族	-11.3597
是佛弟子	-11.3598
生怖畏	-11.3599
求財	-11.3599
比丘所	-11.36
教我	-11.3601
於時菩薩	-11.3603
諸天子等	-11.3603
從乞	-11.3604
能降伏	-11.3607
寶藏佛	-11.3611
大海水	-11.3612
仁等	-11.3613
之實	-11.3615
令我得	-11.3616
滅之	-11.3619
授我	-11.3622
亦令	-11.3623
汝以	-11.3627
一意	-11.3632
香熏	-11.3633
分別說	-11.3633
無上正真道	-11.3638
當勤	-11.3638
是陀羅尼門	-11.3641
汝昔	-11.3641
護口	-11.3646
捨其	-11.3648
皆依	-11.3651
可憙	-11.3652
掌中	-11.3652
降雨	-11.3653
行慈	-11.3655
八部	-11.3656
一童子	-11.3656
躡	-11.3656
命過	-11.3658
利益安樂	-11.366
三女	-11.366
將入	-11.3661
能修	-11.3662
不能動	-11.3672
方能	-11.3673
大恐怖	-11.3673
各將	-11.3675
時國王	-11.3677
焉能	-11.3679
賈	-11.3679
六欲	-11.3684
箭射	-11.3685
若言	-11.3686
無別	-11.3686
當更	-11.3687
若斷	-11.3687
不存	-11.3688
八百	-11.3689
瓶沙	-11.3689
如有	-11.3691
如牛	-11.3692
同學	-11.3696
常處	-11.37
化作一	-11.3703
為母	-11.3707
遙知	-11.3709
諸天人民	-11.3714
忉利天上	-11.3716
不憂	-11.3717
異常	-11.372
語比丘	-11.372
相三昧	-11.3725
彼國王	-11.3727
其名曰	-11.3728
施戒	-11.3729
為性	-11.373
求未來世阿耨多羅三藐三菩提	-11.3733
臣下	-11.3733
能却	-11.3735
同伴	-11.3735
起諸	-11.3739
阿脩羅	-11.3739
乍	-11.374
問佛言	-11.3741
百千億那由他	-11.3741
遭值	-11.3742
此寶	-11.3742
今應	-11.3742
危厄	-11.3744
相稱	-11.3744
欲除	-11.3745
。」』「	-11.3745
遭值於我	-11.3746
人及非人	-11.3746
紅	-11.3747
祭	-11.3747
上首	-11.3747
群賊	-11.3748
照耀	-11.3748
褥	-11.3748
良久	-11.3748
速來	-11.3748
過一恒河沙等阿僧祇劫	-11.3748
麁	-11.3749
大如車輪	-11.3749
手指	-11.3749
平復如故	-11.375
萌芽	-11.375
與大比丘眾千二百五十人俱	-11.3751
八道	-11.3751
善利	-11.3752
牙齒	-11.3752
紺琉璃	-11.3752
無能及者	-11.3753
排	-11.3753
儞	-11.3754
疫	-11.3754
本座	-11.3754
須臾之間	-11.3755
溝	-11.3755
薄伽梵	-11.3755
眠睡	-11.3755
十八不共	-11.3755
令住其中	-11.3756
推覓	-11.3757
野干	-11.3757
拾	-11.3758
階	-11.3758
給孤長者	-11.3758
懅	-11.3758
良久乃穌	-11.3758
王及臣民	-11.3758
一念頃	-11.3759
吏民	-11.3759
」「	-11.376
維那	-11.376
完具	-11.376
擒	-11.376
算計	-11.3761
撥	-11.3761
絲	-11.3761
攻伐	-11.3761
恤	-11.3762
所持	-11.3762
徘徊	-11.3762
金剛座	-11.3762
自今已後	-11.3762
夜叉羅剎	-11.3763
名稱普聞	-11.3763
八歲	-11.3764
嬰孩	-11.3765
肘	-11.3765
作何方便	-11.3765
景	-11.3767
色聲香味細滑法	-11.3768
忻	-11.3769
菩	-11.3769
充滿其中	-11.3769
摩訶迦葉比丘	-11.377
徵起	-11.377
同心	-11.377
大眾圍遶	-11.377
義也	-11.3771
如汝所說	-11.3771
玉	-11.3772
捨施	-11.3773
寒暑	-11.3773
讐	-11.3773
成就阿耨多羅三藐三菩提	-11.3774
倍加	-11.3775
摩賀曩摩	-11.3775
防護	-11.3776
亦名為	-11.3778
當知是人	-11.3778
獨不	-11.3779
大乘本生心地觀經淺註	-11.3779
到於彼岸	-11.3779
無外	-11.3779
閒	-11.3779
神通力	-11.3781
身口意業	-11.3782
時彼國中	-11.3783
此是何人	-11.3784
進退	-11.3784
刻	-11.3784
以神足	-11.3786
令去	-11.3786
背恩	-11.3787
何以不	-11.3787
佛眼	-11.3788
不滿	-11.3789
佛告舍利弗	-11.379
秘	-11.379
懷抱	-11.379
何方	-11.3791
傷損	-11.3792
宿對	-11.3794
五百長者	-11.3794
天人所	-11.3797
無罣礙	-11.3801
方知	-11.3801
圓融	-11.3804
寔	-11.3807
以示	-11.3809
惡聲	-11.381
興兵	-11.381
聖僧	-11.381
四聖諦	-11.3812
罪滅	-11.3812
此林	-11.3813
目視	-11.3813
須菩提	-11.3813
穀食	-11.3814
奉覲	-11.3814
布現	-11.3815
所歎	-11.3816
天言	-11.3819
四天	-11.382
護喜	-11.3822
請問	-11.3822
婆羅門種	-11.3823
迦葉佛時	-11.3824
苦切	-11.3827
無央數人	-11.3828
及彼	-11.3831
為地	-11.3832
盡無餘	-11.3833
作食	-11.3834
七寶具足	-11.3835
何從	-11.3835
迴施	-11.3836
賢士	-11.3838
得為王	-11.3841
白父王	-11.3844
孝養	-11.3844
法喻	-11.3845
婆羅門子	-11.3848
為妙	-11.385
善處	-11.3851
滅已	-11.3851
及婆羅門	-11.3852
為身	-11.3859
凡所	-11.386
雖生	-11.3861
怪之	-11.3861
慘	-11.3861
作何事	-11.3862
何業	-11.3863
可憙端正	-11.3866
一切功德	-11.3867
會者	-11.3869
不飲酒	-11.387
諸道人	-11.387
青色	-11.3873
未獲	-11.3873
聞此語	-11.3876
佛說經	-11.3881
諸長者子	-11.3882
戒善	-11.3889
無際	-11.389
發願言	-11.3895
告勅	-11.3896
彼若	-11.3899
雷震	-11.39
謂從	-11.3901
正爾	-11.3901
四名	-11.3903
不明	-11.3904
競來	-11.3904
不依	-11.3904
後復	-11.3905
就死	-11.3907
前生	-11.3908
目前	-11.391
諸塵	-11.3911
精進如是	-11.3912
高樓	-11.3913
金光	-11.3914
榮樂	-11.3914
之際	-11.3916
路由	-11.3916
其舍	-11.3918
諸經	-11.392
爾時仙人	-11.392
送與	-11.3924
上品	-11.3924
之誠	-11.3927
障道	-11.3929
五千	-11.3929
不復生	-11.3929
生隨喜	-11.3932
即請	-11.3933
是何人	-11.3935
太子今者	-11.3937
之妙	-11.3937
天世人	-11.3938
諸人眾	-11.394
識心	-11.394
既知	-11.3941
長跪白	-11.3947
即到	-11.395
於夜	-11.395
彼土	-11.395
六十四	-11.3953
爾時梵志	-11.3956
喪亡	-11.3958
我生已	-11.3959
妙善	-11.396
七人	-11.3964
或臥	-11.3968
依怙	-11.3975
往看	-11.3977
不下	-11.3982
諸如是等	-11.3982
喻生死	-11.3983
鈍根	-11.3984
自在天	-11.3991
一切恐怖	-11.3991
剎土	-11.3992
迎逆	-11.3996
二曰	-11.3997
故知	-11.4
況當	-11.4
婆羅門家	-11.4
是女	-11.4002
人趣	-11.4005
貪利	-11.4005
即集	-11.4006
理應	-11.4007
阿難是	-11.4008
受無量苦	-11.4009
家室	-11.4012
心行	-11.4013
立誓願	-11.4013
斷之	-11.4014
過去世	-11.4016
既生	-11.4017
王又	-11.4019
不退轉地	-11.4019
生梵天	-11.402
見子	-11.402
獄中	-11.4024
)。「『	-11.4027
鐵鼓	-11.4031
百頭	-11.4036
棄之	-11.4038
此座	-11.404
生命	-11.4044
欲作	-11.4046
深信	-11.4048
安心	-11.4048
清淨行	-11.4049
一比丘	-11.4049
精誠	-11.4051
往白	-11.4052
自誓	-11.4056
生人天	-11.4058
歸趣	-11.4059
與諸比丘	-11.4062
而讚歎	-11.4062
觀佛	-11.4063
發此	-11.4063
大願	-11.4063
高大	-11.4064
餘命	-11.4067
嗟	-11.4067
我常	-11.4068
空性	-11.4069
緣起	-11.4069
意常	-11.4074
能勝	-11.4076
志意	-11.408
無所不	-11.4081
皆歡喜	-11.4083
瓦	-11.4088
盡心	-11.4091
彼眾	-11.4091
共作	-11.4092
所緣	-11.4095
以女	-11.4096
復現	-11.4098
當出	-11.41
合掌而	-11.4101
我實不	-11.4105
得授記	-11.4107
持去	-11.411
都不	-11.411
自殺	-11.411
當隨	-11.4111
生念	-11.4115
江水	-11.4116
當得阿耨多羅三藐三菩提	-11.4116
舍利弗是	-11.4116
有幾	-11.4117
淨眼	-11.4118
聽汝	-11.4119
議曰	-11.4119
懷憂	-11.412
形色	-11.4124
國中人民	-11.4125
外國	-11.4126
於後時	-11.4127
受齋	-11.4127
其首	-11.4127
毒氣	-11.4129
皆已	-11.4129
慎無	-11.4131
毫釐	-11.4132
等心	-11.4136
別異	-11.4136
愛語	-11.4137
令使	-11.4137
多力	-11.4138
令我等	-11.4141
使去	-11.4142
智慧力	-11.4146
釋之	-11.4151
以大悲	-11.4153
鳴聲	-11.4153
三昧門	-11.4153
四足	-11.4154
士女	-11.4156
諸善業	-11.4156
不致	-11.4157
安然	-11.4157
燒盡	-11.4167
十二緣	-11.4169
沈水	-11.4169
為禮	-11.417
童子生	-11.417
大海中	-11.4171
其珠	-11.4173
純以	-11.4175
思惑	-11.4176
於後世	-11.4176
五百歲	-11.4179
修菩薩行	-11.4182
豐足	-11.4189
娶	-11.4189
二十一	-11.4189
有斯	-11.4191
即捨	-11.4191
祿	-11.4195
求利	-11.4196
信佛	-11.4196
四向	-11.4197
螺髻梵志	-11.4202
替	-11.4202
不傾動	-11.4202
或見	-11.4206
如是苦行	-11.4206
一切如來	-11.4207
於食	-11.4209
不能知	-11.421
虺	-11.4212
生一女	-11.4213
明鏡	-11.4214
𠷐伽波羅	-11.4214
悲喜交集	-11.4215
檀膩䩭	-11.4216
成佛時	-11.4216
瓨	-11.4216
能發	-11.4217
年已	-11.4219
童男	-11.4219
頻毘娑羅王	-11.4221
身毛皆竪	-11.4221
授我阿耨多羅三藐三菩提記	-11.4221
瓮	-11.4222
閻浮樹	-11.4223
雲童子	-11.4223
離一切	-11.4223
周訖	-11.4223
燃火	-11.4223
詰	-11.4223
朋	-11.4224
弗沙	-11.4224
世世相承	-11.4225
今雖	-11.4225
去佛不遠	-11.4225
歌詠	-11.4226
大有神通	-11.4226
業行	-11.4226
具以上事	-11.4226
瞑	-11.4226
耽	-11.4226
迦蘭	-11.4226
之香	-11.4227
雜寶藏經	-11.4227
尅	-11.4227
湊	-11.4227
解脫者	-11.4227
芬	-11.4228
未來之世	-11.4228
朱	-11.4228
此但	-11.4228
長老耶輸陀	-11.4228
悼	-11.4228
在宮	-11.4228
嬉戲	-11.4229
當名	-11.4229
阿耨多羅三藐三菩提記	-11.4229
從其面門	-11.4229
最勝最妙	-11.423
討	-11.423
儲	-11.423
有一國王	-11.423
骸骨	-11.4231
吾身是	-11.4231
生生世世	-11.4231
贈	-11.4231
長益	-11.4231
汝等善聽	-11.4232
梵世	-11.4232
踈	-11.4232
姨母	-11.4233
挍飾	-11.4233
高遠	-11.4233
髓	-11.4233
翫	-11.4233
聞已即	-11.4233
所染	-11.4233
着	-11.4234
拄	-11.4234
病瘦醫藥	-11.4234
頑	-11.4235
率土	-11.4235
一其心得	-11.4235
剎帝利	-11.4235
諛諂	-11.4235
搆	-11.4236
捕魚	-11.4236
閉塞	-11.4236
嬰	-11.4236
欲事	-11.4236
梁	-11.4236
垂淚	-11.4236
身下出火	-11.4237
悲戀	-11.4237
資粮	-11.4237
善男子等	-11.4237
此事不然	-11.4238
六年苦行	-11.4238
當成佛	-11.4238
瓦器	-11.424
𧂐	-11.424
膏	-11.424
終不為	-11.4241
災害	-11.4241
髓腦	-11.4241
出家菩薩住阿蘭若	-11.4242
拒	-11.4242
群品	-11.4243
鶴	-11.4244
大事	-11.4244
不眴	-11.4245
齊整	-11.4245
出入息	-11.4245
如子	-11.4245
漬	-11.4246
呼天	-11.4246
僕從	-11.4248
斷滅	-11.4248
次第乞食	-11.4249
解脫知見	-11.4249
不墮惡趣	-11.4249
婚	-11.4249
暑	-11.425
步行	-11.425
聞持具足	-11.4251
人非人等	-11.4251
明月珠	-11.4252
常行乞食	-11.4252
逾	-11.4253
過咎	-11.4254
加復	-11.4255
眾多比丘	-11.4255
鮮明	-11.4256
斯陀含果	-11.4256
相值	-11.4256
放牛	-11.4258
技能	-11.4259
思量	-11.426
先度	-11.426
牛乳	-11.4261
設供	-11.4261
覺分	-11.4262
有聲	-11.4262
身著袈裟	-11.4265
佛法僧寶	-11.4267
清淨戒	-11.4268
我頭	-11.427
菩薩既	-11.427
道化	-11.427
勝人	-11.4271
林木	-11.4271
故能	-11.4272
離越	-11.4272
盡諸苦	-11.4273
任運	-11.4273
共往	-11.4274
某處	-11.4274
楞嚴云	-11.4274
染縛	-11.4275
准前	-11.4277
眠臥	-11.4278
番	-11.4278
承事供養	-11.4278
給施	-11.4279
無已	-11.4281
惡生王	-11.4281
三曰	-11.4281
令其中	-11.4282
聞是法	-11.4282
此大地	-11.4282
各別	-11.4286
遍體	-11.4287
地獄苦	-11.4288
違逆	-11.4289
運用	-11.4289
諸香	-11.4291
怨結	-11.4292
雖不	-11.4293
賴耶	-11.4296
減少	-11.4296
與眾生	-11.4297
天曉	-11.43
五欲境	-11.43
金輪寶	-11.4301
拯濟	-11.4301
及諸大眾	-11.4304
罪咎	-11.4305
之益	-11.4305
時梵德王	-11.4306
得作	-11.4307
執心	-11.4307
去世	-11.431
稱南無佛	-11.431
鹿苑	-11.431
窮厄	-11.4311
又復思惟	-11.4312
妙理	-11.4314
經七日	-11.4315
屐	-11.4316
佛告迦葉	-11.432
家人	-11.4326
初頌	-11.4328
三界之	-11.4329
自縛	-11.4329
莊嚴樹	-11.433
生是念	-11.433
不毀	-11.4331
財業	-11.4331
四無畏	-11.4331
大義	-11.4332
深義	-11.4336
邪徑	-11.4338
龍中	-11.4339
名大	-11.4339
多聞清淨	-11.434
亦復不知	-11.4341
佛告梵志	-11.4341
相師占	-11.4341
為成佛之	-11.4342
憂慮	-11.4342
龍女	-11.4342
我念	-11.4343
迦尸國	-11.4343
我女	-11.4344
以供養	-11.4347
羅婆	-11.4349
慈愍心	-11.435
親親	-11.4356
步兵	-11.4357
乾闥婆王	-11.4357
我於今日	-11.4357
却後	-11.4357
生天人中	-11.4358
妙勝	-11.4359
出家為道	-11.436
劫數	-11.436
所能	-11.4361
供養世尊	-11.4361
愛惜	-11.4362
智光長者	-11.4363
汝等今	-11.4363
作大利益	-11.4364
如是四法	-11.4365
眾生之	-11.4367
供事	-11.4368
普覆	-11.4369
復從	-11.4369
辭退	-11.4371
畢訖	-11.4373
志趣	-11.4375
願莫	-11.4376
有國名	-11.4376
無漏戒	-11.4381
持戒清淨	-11.4381
滿其	-11.4382
深廣	-11.4384
變動	-11.4385
時世	-11.4385
總相	-11.4387
以神通	-11.4389
此小兒	-11.4392
無上大菩提	-11.4393
受施	-11.4394
毘沙門王	-11.4395
利物	-11.4395
又願	-11.4398
復說偈	-11.4399
生何處	-11.4401
乘此	-11.4403
二禪	-11.4404
身被	-11.4405
善因	-11.4406
毘婆尸佛	-11.4407
梵志所	-11.4408
解之	-11.4409
有何罪	-11.4411
光色	-11.4411
摩訶羅	-11.4414
八十億	-11.4417
此必	-11.4418
意行	-11.4418
者必	-11.4419
亡失	-11.4419
國政	-11.4422
道跡	-11.4424
息除	-11.4426
字曰	-11.4426
善哉大王	-11.4427
絃	-11.4428
聞佛說	-11.4428
清淨法	-11.443
不染著	-11.443
是故如來	-11.443
今夜	-11.4432
彼大	-11.4432
出奉迎	-11.4433
後至	-11.4435
名摩	-11.4439
遙見菩薩	-11.444
斷惑	-11.4441
說法教化	-11.4441
至彼處	-11.4442
其池	-11.4443
自止	-11.4443
百千萬	-11.4448
不忍見	-11.4449
欲聽	-11.4449
從事	-11.445
得初果	-11.4452
語婆羅門	-11.4454
於水	-11.4456
深自	-11.4459
出大	-11.446
不能救	-11.4461
兒婦	-11.4467
賢人	-11.4467
未生	-11.4468
勤精進	-11.4468
世尊知	-11.4468
皆獲	-11.4469
悉以	-11.4475
自言	-11.4478
皆出	-11.448
月明	-11.448
護明	-11.4482
所起	-11.4482
正真道	-11.4483
惡事	-11.4484
故名為	-11.4485
供養諸佛	-11.4485
聽者	-11.4492
既已	-11.4495
不婬	-11.4496
其手	-11.4496
貢上	-11.4497
八千	-11.4498
亦未	-11.4498
感其	-11.45
二十二	-11.4503
但念	-11.4506
轉輪王位	-11.4506
常作	-11.4509
墮苦	-11.451
商客	-11.4512
思之	-11.4513
不辭	-11.4517
皆應	-11.4518
願速	-11.452
不漏	-11.452
深遠	-11.452
十號	-11.4521
有五百人	-11.4523
山谷	-11.4524
恒處	-11.4524
通為	-11.4527
近臣	-11.4531
臥地	-11.4533
人身難得	-11.4534
行乞	-11.4538
四魔	-11.4538
兄言	-11.4542
悉捨	-11.4542
是則為	-11.4543
相共	-11.4543
見已即	-11.4545
尊長	-11.4546
調柔	-11.4546
於大海	-11.4547
將向	-11.4547
覆面	-11.4548
雜香	-11.4548
未出	-11.4552
佛日	-11.4553
今時	-11.4554
善念	-11.4554
為作禮	-11.4554
亦由	-11.4557
尋得	-11.456
各各皆	-11.456
百里	-11.4562
寶莊嚴	-11.4562
勝彼	-11.4562
無量無邊眾生	-11.4563
燒身	-11.4567
眾等	-11.4572
三解脫	-11.4574
造諸	-11.4574
於一日	-11.4574
一曰	-11.4575
利他之	-11.4575
正欲	-11.4576
可惡	-11.4583
滅後	-11.4585
癡冥	-11.4588
在於此	-11.4588
受取	-11.459
應聲	-11.4591
風起	-11.4591
更增	-11.4592
忽有	-11.4597
恒有	-11.4597
於何	-11.46
普告	-11.46
必生	-11.4602
羅閱祇	-11.4603
便行	-11.4605
豈得	-11.4606
邪行	-11.4606
放之	-11.4609
嗤笑	-11.4612
法炬	-11.4615
能出	-11.4615
共諍	-11.4616
其味	-11.462
即除	-11.4622
苦空	-11.4623
得濟	-11.4626
潔白	-11.4627
妙義	-11.4628
如金山	-11.4629
落地	-11.463
無聲	-11.4636
普曜經	-11.4636
下閻浮提	-11.464
已去	-11.4643
如令	-11.4643
却坐	-11.4643
賢聖道	-11.4644
使女	-11.4648
微塵等	-11.4648
成立	-11.465
吾本	-11.4652
常存	-11.4654
禮世尊足	-11.4655
智慧光明	-11.466
坐此	-11.466
得陀羅尼	-11.4661
起立	-11.4661
苦因	-11.4667
標定	-11.4667
子故	-11.4668
有大力	-11.467
來供養	-11.4671
自護	-11.4677
髮爪	-11.4678
人民之類	-11.468
該	-11.4681
有梵志	-11.4681
一女	-11.4681
至泥洹	-11.4682
彼諸王	-11.4683
老者	-11.4683
後園	-11.4689
多智	-11.4689
設復	-11.469
緣經	-11.4692
博學	-11.4693
生瞋恚	-11.4694
頻頭王	-11.4694
車輪	-11.4695
王尋	-11.4697
奉法	-11.4697
來久	-11.4698
三果	-11.47
空過	-11.4701
由斯	-11.4701
肌	-11.4701
以信	-11.4701
條	-11.4702
大導師	-11.4703
純是	-11.4703
福因	-11.4704
梵摩達	-11.4704
此何	-11.4705
以相	-11.4707
億眾生	-11.4709
行清淨	-11.471
此生	-11.4712
是婆羅門	-11.4714
䟽	-11.4716
鍾磬	-11.4716
亦見	-11.4717
永安	-11.4717
至已	-11.4718
不鼓自鳴	-11.4718
初出	-11.4718
青雀	-11.4719
墮惡趣	-11.472
得五通	-11.472
誰應	-11.4721
自致成佛	-11.4721
寂然無	-11.4721
死矣	-11.4721
收取舍利	-11.4721
㝹	-11.4722
由是之故	-11.4722
高峻	-11.4722
帳	-11.4723
哆	-11.4723
正法滅已	-11.4724
之主	-11.4724
晝夜六時	-11.4724
屈伸臂頃	-11.4725
澆	-11.4725
勤劬	-11.4725
熊羆	-11.4725
卷第九	-11.4725
拭	-11.4725
深解	-11.4726
七返	-11.4726
千二百五十人俱	-11.4726
層	-11.4727
惹	-11.4727
五樂自娛	-11.4727
鑰	-11.4727
飼	-11.4727
少病少惱	-11.4728
民彌娑囉王	-11.4728
四域	-11.4728
受諸快樂	-11.4728
端正姝好	-11.4728
銳志	-11.4728
悶絕躃地	-11.4729
鑊	-11.4729
墮於地獄	-11.4729
佛即然可	-11.4729
四意止	-11.4729
如應說法	-11.473
鷄	-11.473
膳	-11.4731
分那	-11.4731
愛護	-11.4731
五穀豐熟	-11.4731
當與汝	-11.4731
闊	-11.4732
清潔	-11.4732
曩	-11.4732
讒	-11.4732
輦輿	-11.4732
康	-11.4733
為我解說	-11.4733
散佛上	-11.4733
弶	-11.4734
倉庫	-11.4734
綠	-11.4734
鞍	-11.4734
得羅漢果	-11.4734
意故	-11.4735
詭	-11.4735
塵埃	-11.4735
若復有人	-11.4735
挺特	-11.4735
蟻	-11.4735
甥	-11.4735
迅	-11.4735
不至究竟	-11.4735
希有希有	-11.4736
出興於世	-11.4736
受三自歸	-11.4736
椎	-11.4736
獲安隱	-11.4736
將詣佛所	-11.4736
矟	-11.4736
干	-11.4736
百福莊嚴	-11.4736
彩	-11.4736
希有之事	-11.4737
婆多梨	-11.4737
祇樹給孤獨園	-11.4737
大地六種震動	-11.4737
甕	-11.4737
逕	-11.4738
嘗	-11.4738
武	-11.4738
殷	-11.4738
修善法	-11.4738
今為所在	-11.4738
臻	-11.4738
彊	-11.4738
乃至如前所說	-11.4739
野馬	-11.4739
誐	-11.4739
往佛所	-11.4739
儀容	-11.4739
天龍八部	-11.474
不慮	-11.474
膚	-11.4741
妬嫉	-11.4741
催	-11.4741
即得名為真實波羅蜜	-11.4741
若自	-11.4742
國王臣民	-11.4742
號曰迦葉	-11.4742
烏那曳曩	-11.4742
永除	-11.4743
天地大動	-11.4743
汲水	-11.4743
隆盛	-11.4743
猛焰	-11.4743
𠎝	-11.4743
出家入道	-11.4743
出五色光	-11.4744
奚	-11.4744
已復	-11.4744
張口	-11.4745
入般涅槃	-11.4745
不自覺	-11.4745
菩提薩埵	-11.4746
來供養我	-11.4746
倉	-11.4747
親里	-11.4748
如蓮華	-11.4748
因緣經	-11.4748
怯	-11.4749
姓字	-11.4749
僉曰	-11.475
曳	-11.475
疎	-11.4751
牒	-11.4751
今受	-11.4751
半月	-11.4751
鄰	-11.4752
交通	-11.4752
得淨	-11.4752
即報言	-11.4752
縱情	-11.4752
諸三昧中	-11.4753
焦	-11.4754
兩臂	-11.4754
善觀	-11.4754
勸修	-11.4755
殿堂	-11.4756
大雨	-11.4756
在於佛前	-11.4756
比藍	-11.4756
上中下	-11.4757
怠	-11.4762
樂遠離行	-11.4763
田業	-11.4763
王與夫人	-11.4764
寶稱	-11.4764
精進勇猛	-11.4764
渴愛	-11.4764
若夫	-11.4765
不失其	-11.4765
個	-11.4766
各作是言	-11.4767
膝上	-11.4767
終不得	-11.4767
採果	-11.4767
慕魄	-11.4767
乏短	-11.4768
範	-11.477
即作	-11.4771
師所	-11.4772
泛	-11.4772
牛主	-11.4773
三萬二千	-11.478
前所	-11.4783
上聞	-11.4783
端正無比	-11.4783
集百	-11.4784
不惓	-11.4784
愚癡故	-11.4786
目覩	-11.4786
不廢	-11.4787
輪寶	-11.4787
尋還	-11.4789
求得	-11.4791
今者云何	-11.4791
用之	-11.4792
池邊	-11.4793
即便問言	-11.4794
破散	-11.4796
諍競	-11.4797
得樂	-11.4798
嚴好	-11.4798
行列	-11.48
於身	-11.48
不測	-11.48
是眾生	-11.4801
雜類	-11.4803
廣行	-11.4803
業道	-11.4804
甚奇	-11.4806
無悔恨	-11.4815
獨步	-11.4818
糞掃衣	-11.4821
盡漏	-11.4822
無求	-11.4824
蓮花上	-11.4825
反顯	-11.4826
好布施	-11.4827
濟彼	-11.4828
變悔	-11.4832
時諸大眾	-11.4836
爾時有	-11.4836
斯言	-11.4837
在心	-11.4838
滅其	-11.4838
諸鹿	-11.4839
同類	-11.484
劫名	-11.4841
象龍	-11.4842
此皆	-11.4844
所服	-11.4845
諸通	-11.4845
隨路	-11.4846
遣我	-11.4847
沙礫	-11.4847
兆	-11.485
四寶	-11.4851
福德力	-11.4851
無差別	-11.4852
亦不知	-11.4853
至家	-11.4853
光中	-11.4853
人多	-11.4858
王亦	-11.4858
却敵	-11.4859
今且	-11.4859
奉命	-11.4864
大慈大悲	-11.4866
不可說	-11.4867
道故	-11.4869
七寶莊嚴	-11.487
則是	-11.487
瞋心	-11.487
帝釋幢	-11.4872
作是觀	-11.4872
射殺	-11.4873
無量功德	-11.4875
今觀	-11.4877
能盡	-11.4877
其內	-11.4878
佛命	-11.4878
阿誐多	-11.4881
乃復	-11.4881
我當云何	-11.4884
去時	-11.4886
三句	-11.4887
當云何	-11.4889
達彼岸	-11.4889
各得	-11.489
所證之	-11.489
是義	-11.4891
我身是	-11.4891
無所見	-11.4892
飢虛	-11.4893
名聲	-11.49
識處	-11.4902
金輪王	-11.4903
稟受	-11.4905
邪正	-11.4905
莊嚴佛土	-11.4911
久存	-11.4912
墜墮	-11.4913
非理	-11.4914
所有人民	-11.4915
不從他	-11.4915
汝亦	-11.4918
邪命	-11.4918
心甚	-11.4918
華經	-11.492
不墮惡道	-11.4921
厭世	-11.4922
樂住	-11.4922
使汝	-11.4923
現神足	-11.4924
三界尊	-11.4925
不度	-11.4925
神通清淨	-11.4925
火炎	-11.4926
於夜半	-11.4928
當來世	-11.493
被袈裟	-11.4933
應度者	-11.4933
於天下	-11.4934
我今云何	-11.4934
當就	-11.4934
入國	-11.4936
王乃	-11.4937
安樂處	-11.4937
時我	-11.4938
凡夫人	-11.4939
猶不得阿羅漢	-11.4941
無救	-11.4941
乞願	-11.4946
所困	-11.4946
因相	-11.4949
之表	-11.4951
我之所	-11.4951
遣信	-11.4952
或事	-11.4953
侍人	-11.4956
無染著	-11.4957
多求	-11.4961
三世菩薩	-11.4962
華葉	-11.4963
眾花	-11.4963
此患	-11.4964
變身	-11.497
正解脫	-11.4971
於地上	-11.4972
供設	-11.4974
見其如是	-11.4977
之火	-11.4979
悉為	-11.498
毫	-11.4981
十指	-11.4984
末二句	-11.4986
勿生	-11.4987
施佛	-11.4989
設食	-11.4993
純金	-11.4995
遙覩	-11.4996
聽其	-11.4996
大菩提	-11.4997
那羅	-11.4997
如性	-11.4998
老病死苦	-11.4998
觀我	-11.5001
道邊	-11.5003
沒在	-11.5004
人中尊	-11.5006
憎愛	-11.5007
欲聽法	-11.5008
初禪	-11.5009
一樹下	-11.501
而其	-11.501
但是	-11.5011
五百子	-11.5013
醫王	-11.5013
復有無量	-11.5015
成大	-11.5015
眾經	-11.5015
相和	-11.5015
接足	-11.5018
成羅漢	-11.5021
合掌白	-11.5023
噉之	-11.5025
)。】「	-11.5025
大婦	-11.5026
來索	-11.5029
如卿	-11.503
唯有一	-11.503
生苦	-11.503
至三	-11.5031
順從	-11.5032
遍身	-11.5032
憂畏	-11.5033
即隨	-11.5035
所更	-11.5036
無生智	-11.5037
處其中	-11.5041
而當	-11.5043
小果	-11.5045
有百	-11.5047
能燒	-11.5048
於天上	-11.5049
如汝所	-11.505
王頭	-11.5052
之光	-11.5061
護戒	-11.5062
為恐怖	-11.5064
何罪	-11.5068
諸梵行	-11.5069
一夜	-11.5069
何福	-11.507
海邊	-11.5073
身安	-11.5073
迦葉等	-11.5077
脫此	-11.5081
使來	-11.5081
及一切	-11.5083
治病	-11.5083
根塵	-11.5084
如日初出	-11.5085
取於	-11.5085
受佛	-11.5085
三十七	-11.5085
菩薩大士	-11.5087
利眾生	-11.5092
頭面禮	-11.5094
而走	-11.5095
得病	-11.5097
一切天人	-11.51
由於	-11.51
如是下	-11.5102
世間五欲	-11.5103
而臥	-11.5104
雨於	-11.5104
爾時大眾	-11.5105
脫衣	-11.5106
天道	-11.511
五百童子	-11.511
香油	-11.5113
終已	-11.5114
或持	-11.5115
亦說	-11.5116
即有	-11.5116
積行	-11.5121
苦果	-11.5121
諸雜	-11.5125
其塔	-11.5125
用也	-11.5127
方始	-11.5127
人相	-11.5129
若遇	-11.5136
莫過	-11.5137
有辟支佛	-11.5137
本意	-11.5138
明照	-11.5142
窟中	-11.5143
空虛	-11.5144
得好	-11.5151
係	-11.5153
一何	-11.5155
若斯	-11.5155
得遇	-11.5159
當獲	-11.5159
光光	-11.5161
奪其	-11.5162
我若不	-11.5163
便從	-11.5163
真道	-11.5163
自宮	-11.5168
先以	-11.517
無有智慧	-11.517
下流	-11.5172
生恐怖	-11.5173
處分	-11.5174
現在住世	-11.5177
僧中	-11.5182
所照	-11.5182
最後一	-11.5184
此二人	-11.5184
壽命無量	-11.5184
汝言	-11.5185
顛	-11.5186
二國	-11.519
然矣	-11.5191
凡聖	-11.5195
七多羅樹	-11.5196
供養之具	-11.5197
劫初	-11.5201
而獲	-11.5202
多身	-11.5204
兼復	-11.5205
入池	-11.5205
百萬	-11.5208
華上	-11.5211
甚重	-11.5211
以方便	-11.5212
盡為	-11.5217
從座起	-11.5217
癡心	-11.5223
為度	-11.5224
眾生皆得	-11.5227
欣喜	-11.5227
覺觀	-11.5228
無義	-11.5228
自悟	-11.5229
知自覺者	-11.5229
佛及僧	-11.523
所惑	-11.5237
百千無量億那由他	-11.5239
五盛陰	-11.524
生死海	-11.524
過七日已	-11.5244
作諸伎樂	-11.5245
鎧甲	-11.5246
涕淚	-11.5246
夙夜	-11.5247
床褥	-11.5247
婆私吒	-11.5247
憐愍眾生	-11.5247
稅	-11.5247
示教利喜	-11.5248
所居之處	-11.5248
猥	-11.525
渚	-11.525
是我所	-11.525
八萬四千諸小國王	-11.525
伊羅鉢	-11.525
敕	-11.525
散華燒香	-11.5251
為供養故	-11.5252
由汝	-11.5252
塚	-11.5252
亦使正法久存於世	-11.5252
我不齊為	-11.5252
昵	-11.5252
放逸多憂愆	-11.5253
盈溢	-11.5253
深生信敬	-11.5253
籍	-11.5253
扣	-11.5253
王若	-11.5253
占夢	-11.5254
掃地	-11.5255
二十四	-11.5255
屈申	-11.5255
倍於常	-11.5255
雨種種華	-11.5255
嚩	-11.5256
釧	-11.5256
怪未曾有	-11.5256
而自娛樂	-11.5256
金團	-11.5256
婚姻	-11.5257
暖	-11.5257
縫	-11.5257
㮈	-11.5257
絞	-11.5258
料理	-11.5258
待之	-11.5258
輦	-11.5258
屢	-11.5258
膩	-11.5259
合會有離	-11.5259
副	-11.5259
還從頂入	-11.526
在處	-11.526
号	-11.526
寇	-11.526
入城分衛	-11.526
瞻仰尊顏	-11.526
諂偽	-11.526
七匝	-11.5261
悒	-11.5261
踞	-11.5261
諸王子	-11.5261
涸	-11.5261
世法	-11.5261
清徹	-11.5261
取要言之	-11.5262
惚	-11.5262
約勅	-11.5262
閱叉	-11.5262
酥油	-11.5262
壇	-11.5262
蹹	-11.5263
皆歸	-11.5263
王及群臣	-11.5263
名稱遠聞	-11.5263
發生勝義	-11.5264
鑿	-11.5264
身上出水	-11.5264
鹽	-11.5264
臥起	-11.5264
夫人處世	-11.5265
清旦	-11.5265
伽耶迦葉	-11.5265
老公	-11.5265
誼	-11.5266
覽	-11.5266
愚闇	-11.5266
睡臥	-11.5266
觸嬈	-11.5266
夜分	-11.5266
多時	-11.5267
親附	-11.5267
出生死	-11.5267
號泣	-11.5267
魂靈	-11.5267
我今為汝	-11.5267
發心者	-11.5269
夫婦二人	-11.5269
本具	-11.5269
迦梨	-11.5269
園監	-11.5269
上妙衣服	-11.5269
贍部洲	-11.527
綿	-11.527
四部眾	-11.527
之乎	-11.5271
良福田	-11.5272
儼然	-11.5272
真陀羅	-11.5273
狹	-11.5273
灰土	-11.5273
頒宣	-11.5274
悉備	-11.5274
恭敬圍遶	-11.5274
伊羅鉢龍王	-11.5274
四眾	-11.5275
發是言	-11.5275
得見佛	-11.5275
被毒箭	-11.5276
已入	-11.5277
兩錢	-11.5277
彌滿	-11.5277
腫	-11.5278
甘雨	-11.5278
愚迷	-11.5279
於閻浮提	-11.528
顯赫	-11.528
將導	-11.5281
庸	-11.5281
眾圍繞	-11.5281
能施	-11.5282
火神堂	-11.5282
何謂為四	-11.5283
金翅	-11.5284
懺謝	-11.5284
卑下	-11.5284
出過	-11.5284
心心所法	-11.5284
同共	-11.5285
株杌	-11.5286
異國	-11.5286
夏坐	-11.5286
處于	-11.5287
侵欺	-11.5288
汝善丈夫	-11.5289
令彼得解	-11.5289
莊嚴自身	-11.5289
稱量	-11.5289
企	-11.529
摩訶衍	-11.5291
眾圍遶	-11.5293
至佛邊	-11.5293
汝今若能	-11.5293
即現	-11.5294
佛說是已	-11.5295
分別演說	-11.5297
內院	-11.5298
所知障	-11.5298
梵音聲	-11.5298
爾時車匿	-11.5301
敵國	-11.5307
步步	-11.5308
貪瞋	-11.5308
黑色	-11.531
覆藏	-11.531
忽爾	-11.5311
設計	-11.5312
不休息	-11.5313
語汝	-11.5316
船筏	-11.5316
有樹	-11.5317
神人	-11.5317
染衣	-11.5318
間斷	-11.5318
無常苦空	-11.5319
金翅鳥王	-11.5319
閻浮檀金	-11.5321
或有世界	-11.5322
時諸商人	-11.5323
兄弟二人	-11.5324
蓮華世界	-11.5325
假設	-11.5328
佛本行經	-11.5329
服藥	-11.533
列名	-11.5333
貪利養	-11.5333
一枚	-11.5337
來入城	-11.5338
莫作異	-11.5339
能拔	-11.5339
三空	-11.5341
聞此言	-11.5342
毀犯	-11.5342
得除	-11.5342
得休息	-11.5343
於迦毘羅城	-11.5343
與五百	-11.5343
墮此	-11.5348
我等云何	-11.535
寶華	-11.5354
大臣言	-11.5354
難事	-11.5355
斷常	-11.5356
)【	-11.5356
明星	-11.5356
仁賢	-11.5357
施辟支佛	-11.5358
自解	-11.5359
水精	-11.536
聖尊	-11.5361
往迎	-11.5362
雨淚	-11.5362
煩惱海	-11.5364
是語	-11.5364
次當	-11.5364
從何來	-11.5365
王時	-11.5365
見婦	-11.5365
起塔供養	-11.5366
受生死	-11.5366
發道心	-11.5368
所遊	-11.5368
國邑	-11.5369
之慈	-11.5375
幽靜	-11.5376
二十六	-11.5376
心空	-11.5377
欲染	-11.5377
大覺	-11.5377
有得須陀洹	-11.5378
之謂	-11.538
慰問	-11.5382
修成	-11.5382
而獨	-11.5382
報怨	-11.5384
甚苦	-11.5385
王甚	-11.5387
生天緣	-11.5387
血出	-11.5388
亦與	-11.5388
豈當	-11.5388
自在力	-11.5391
疑問	-11.5391
別有	-11.5392
來相	-11.5393
可令	-11.5393
於餘	-11.5395
至於佛所	-11.5396
從王	-11.5399
塵數	-11.54
而進	-11.54
人中上	-11.54
解悟	-11.5401
至其家	-11.5404
諸人輩	-11.5406
根熟	-11.5407
之等	-11.5409
謂真	-11.541
應如是	-11.541
但說	-11.541
該盡	-11.5411
安寧	-11.5412
大威力	-11.5412
我曾	-11.5412
而得自在	-11.5413
如此也	-11.5414
遙見太子	-11.5414
過踰	-11.5414
可去	-11.5415
堅強	-11.5415
淨業	-11.5415
清淨梵行	-11.5416
所作功德	-11.5416
缺漏	-11.5419
林樹間	-11.542
其口	-11.542
輕便	-11.542
豐熟	-11.5421
昔佛在世	-11.5422
今者何故	-11.5423
頌前第	-11.5424
說是法	-11.5424
以致	-11.5425
纔起心時而	-11.5427
亦生	-11.5427
屏處	-11.5428
其功	-11.5429
無利	-11.543
何者是	-11.543
崩壞	-11.543
有大長者	-11.5431
紫	-11.5431
定知	-11.5433
懷恨	-11.5434
遠聞	-11.5435
有大國王	-11.5437
年耆	-11.5437
樂無為	-11.5437
自省	-11.5437
無損	-11.5442
極微妙	-11.5444
諸佛所	-11.545
麤言	-11.5453
用布施	-11.5454
兩眼	-11.5455
佛成道	-11.5456
入內	-11.5456
承上	-11.5458
於城外	-11.5459
倒錯	-11.546
始生	-11.546
依正	-11.5463
無人能	-11.5464
慧力	-11.5466
不能及	-11.5468
如來今者	-11.5468
瓔珞其身	-11.5469
染法	-11.547
信之	-11.547
受眾苦	-11.5471
汝輩	-11.5474
慢等	-11.5475
我實	-11.5475
但取	-11.5476
作如是語	-11.5477
稱名	-11.5477
相遇	-11.548
懷惡	-11.5481
怨親	-11.5481
非道	-11.5481
入其	-11.5483
人頭	-11.5484
其狀	-11.5484
種種瓔珞	-11.5486
當以何	-11.5487
悉具足	-11.549
舍內	-11.5491
惱害	-11.5492
可保	-11.5492
既爾	-11.5495
異見	-11.5497
競共	-11.5497
當作佛	-11.5498
我久	-11.5499
無行	-11.5499
陰蓋	-11.55
之藥	-11.55
作賊	-11.5503
昔佛在	-11.5504
許我	-11.5505
還出	-11.5506
有形	-11.5507
勝也	-11.551
亦從	-11.5514
還天上	-11.5514
浣衣	-11.5514
馳奔	-11.5516
諸惡趣	-11.5517
山林中	-11.5519
之論	-11.552
極重	-11.552
惡行者	-11.5523
持是	-11.5523
江海	-11.5526
為何	-11.5529
之餘	-11.553
二十三	-11.5531
綵	-11.5531
一切善法	-11.5532
而現	-11.5533
我亦不	-11.5534
正值	-11.5536
五百商人	-11.5536
命終時	-11.5537
壞其	-11.5537
四生	-11.5538
便捨	-11.554
悲痛	-11.554
六處	-11.5543
不可盡	-11.5546
乏少	-11.5548
香象	-11.5549
衣服飲食	-11.5549
惑亂	-11.5549
為最上	-11.555
妙用	-11.5552
發明	-11.5556
法則	-11.5556
室中	-11.5559
得道果	-11.556
得解	-11.556
智能	-11.5562
無記	-11.5562
悉除	-11.5563
摩醯首羅	-11.5565
以天眼觀	-11.5569
欲用	-11.5571
一切世	-11.5573
亦不著	-11.5573
自歸佛	-11.5575
仙言	-11.5576
定光	-11.5577
隨病	-11.5578
往日	-11.5578
爾時目連	-11.5581
無有疑	-11.5582
合前	-11.5583
愛別離苦	-11.5586
之勝	-11.5589
覆護	-11.5589
下馬	-11.5591
自家	-11.5592
汝善	-11.5593
墮在	-11.5596
何故如是	-11.5596
捨國	-11.5596
下種	-11.5598
汝速	-11.5599
盡滅	-11.56
四千	-11.5601
水不	-11.5602
第四禪	-11.5603
外現	-11.5604
智慧了知	-11.5605
曹	-11.5606
與我等	-11.5606
無上智	-11.5607
始入	-11.5608
不由	-11.5609
長者婦	-11.5609
請佛及比丘僧	-11.5609
以何為	-11.561
染因	-11.5611
造罪	-11.5614
六人	-11.5614
自濟	-11.5615
捨王位	-11.5615
欲自	-11.5615
繫心	-11.5616
當時	-11.5616
傳聞	-11.562
如本	-11.5623
恒自	-11.5624
我今日	-11.5625
用此	-11.5625
苦逼	-11.5627
心開	-11.5627
魔天	-11.5628
一歲	-11.563
逢見	-11.563
同行	-11.563
諸垢	-11.5632
我婦	-11.5635
不空	-11.5635
如是世尊	-11.5635
應念	-11.5639
於一切時	-11.5641
病患	-11.5641
能具	-11.5641
天人尊	-11.5642
諸鬼神	-11.5643
本宮	-11.5646
大利	-11.5646
竪立	-11.5647
柴	-11.5648
太子出遊	-11.5652
願為我說	-11.5652
我於彼	-11.5653
慈孝	-11.5656
作使	-11.5661
餘殃	-11.5664
汝善男子	-11.5665
心識	-11.5666
於己	-11.567
何名	-11.5671
相謂	-11.5671
人邊	-11.5672
永寂	-11.5672
幢蓋	-11.5673
上山	-11.5673
不差	-11.5674
勅諸臣	-11.5678
察其	-11.5679
無他	-11.5681
有大光明	-11.5683
聾	-11.5685
偈言	-11.5686
其果	-11.5688
羅剎鬼	-11.5693
取汝	-11.5694
不知其	-11.5696
因業	-11.5697
盛年	-11.5698
初無	-11.5698
今王	-11.57
眾比丘	-11.5701
得一切智	-11.5701
美音	-11.5702
淚出	-11.5703
為轉輪聖王	-11.5703
菩提場	-11.5705
不名	-11.5707
往還	-11.5707
寧自	-11.5711
心悅	-11.5717
我今當往	-11.5717
是故今	-11.5718
重問	-11.572
妄生	-11.5723
當為我	-11.5727
是其光	-11.5728
不知所	-11.573
受命	-11.5731
能作如是	-11.5732
無分別	-11.5732
悉使	-11.5733
之樹	-11.574
中來	-11.5742
母胎	-11.5743
自在者	-11.5743
有益	-11.5743
第九	-11.5745
遊於	-11.5745
後必	-11.575
欲貪	-11.5751
悲導	-11.5753
諸國土	-11.5754
其光明	-11.5755
為是誰	-11.5755
於一時	-11.5756
不牢	-11.5756
歸命佛	-11.5757
勇力	-11.5759
所重	-11.5761
亦難	-11.5761
眾商	-11.5763
紺青色	-11.5765
身心不動	-11.5767
捨壽	-11.5767
愍之	-11.577
出已	-11.5772
國師婆羅門	-11.5773
若後	-11.5776
功德故	-11.5779
火所燒	-11.578
盲者	-11.578
莫知所	-11.5782
比丘勝彼此	-11.5784
樂故	-11.5786
大惡	-11.5788
貢獻	-11.5788
摩尼珠	-11.5788
即告言	-11.5789
大方便佛報恩	-11.5792
為法王	-11.5793
得甘露	-11.5793
生慚愧	-11.5793
諸天女	-11.5793
諦視	-11.5794
乃往過去九十一劫	-11.5795
即受	-11.5796
五百由旬	-11.5796
如是功德	-11.5796
得善利	-11.5797
志在	-11.5797
曬	-11.5797
圍遶三匝	-11.58
毘首羯磨	-11.58
筆	-11.58
韋陀	-11.58
簫	-11.5802
說諸	-11.5802
相去不遠	-11.5803
如魚	-11.5803
而知	-11.5803
污泥	-11.5803
轉於無上法輪	-11.5803
作是誓已	-11.5803
徐徐	-11.5803
十中劫	-11.5804
不及一	-11.5804
蓊欝	-11.5804
則現	-11.5804
持淨戒	-11.5805
淨法	-11.5805
喚呼	-11.5805
王舍大城	-11.5805
毘舍遮	-11.5806
憒	-11.5806
醒悟	-11.5806
危嶮	-11.5807
槊	-11.5807
旬	-11.5807
目真隣陀	-11.5807
姉妹	-11.5807
轉於法輪	-11.5808
阿耨	-11.5808
灑掃	-11.5808
伎藝	-11.5808
不自在	-11.5808
是謂為梵志	-11.5809
荷	-11.5809
復知	-11.581
翠	-11.581
惛	-11.581
曀	-11.581
士庶	-11.581
暴虐	-11.5811
陌	-11.5811
從今已後	-11.5811
詠	-11.5811
庠	-11.5811
貪恚癡	-11.5811
倮形	-11.5811
床榻	-11.5812
陸	-11.5812
面貌	-11.5812
歡喜踊躍不能自勝	-11.5812
野獸	-11.5812
宿衛	-11.5812
携	-11.5813
虐	-11.5813
城邑聚落	-11.5813
曝	-11.5814
慈哀憐愍	-11.5814
呻吟	-11.5814
集不善根	-11.5814
過罪	-11.5814
鋸	-11.5814
證羅漢果	-11.5815
厲	-11.5815
辛	-11.5815
不但今日	-11.5815
不惱	-11.5815
轉妙法輪	-11.5815
朝夕	-11.5816
鉢器	-11.5816
飢渴所逼	-11.5816
大乘本生心地觀經	-11.5816
無量無邊阿僧祇劫	-11.5817
翹	-11.5817
撾	-11.5817
䩕	-11.5818
魂神	-11.5818
欲死	-11.5818
娑訶佛土	-11.5818
亭	-11.5819
優鉢	-11.5819
歸命三尊	-11.5819
轂	-11.5819
曾作	-11.5819
修清淨行	-11.5819
軌	-11.5819
賦	-11.582
乾竭	-11.582
無常苦空無我	-11.582
百千萬億	-11.582
咨嗟	-11.582
哭泣	-11.582
受持五戒	-11.5821
所以爾者	-11.5821
迦栴延	-11.5821
儉	-11.5822
哽噎	-11.5822
裁	-11.5822
足跡	-11.5823
為聽法故	-11.5823
慈育	-11.5824
纏綿	-11.5824
子曹	-11.5824
典籍	-11.5824
優波低沙	-11.5825
躍	-11.5825
法會	-11.5825
調伏諸根	-11.5825
逼近	-11.5825
泥犁	-11.5825
哮吼	-11.5825
註	-11.5825
止不	-11.5825
初生之時	-11.5825
起大悲心	-11.5826
鹿皮	-11.5826
墜落	-11.5827
佛說偈已	-11.5827
駃	-11.5828
心不亂	-11.5828
次第而行	-11.5828
翁	-11.5828
地水火風	-11.5829
阿群	-11.5829
勝相	-11.583
不復更	-11.583
真偽	-11.583
開閉	-11.583
於中路	-11.583
蟻子	-11.583
賃	-11.5831
握	-11.5831
四無量心	-11.5832
罔	-11.5832
為眾說法	-11.5833
未離	-11.5833
六十二見	-11.5834
所乏	-11.5834
綱	-11.5835
愍其	-11.5835
田主	-11.5836
染障	-11.5836
太子所	-11.5837
君臣	-11.5837
者是也	-11.5837
禦	-11.5838
斷諸結使	-11.5839
小國王	-11.5839
思慮	-11.584
仰視	-11.584
甘饍	-11.584
囑累	-11.5841
給足	-11.5841
未審	-11.5842
無缺漏	-11.5843
無處不	-11.5844
慈恩	-11.5845
年歲	-11.5846
不復退轉	-11.5847
終亡	-11.5847
助道	-11.5847
時老比丘	-11.5847
到此	-11.5847
嗜欲	-11.5847
門徒	-11.5848
本際	-11.5848
僧伽	-11.585
隨業受報	-11.5851
時王聞已	-11.5852
可依	-11.5853
調馬	-11.5855
所有財寶	-11.5856
四真諦	-11.5856
百鳥	-11.5857
作是願	-11.5857
地動	-11.5858
銀色女	-11.5859
不妄有	-11.586
即遣使人	-11.5861
悉歡喜	-11.5861
或於	-11.5862
五神通	-11.5864
招感	-11.5866
有心疑	-11.5866
翻譯	-11.5866
投機	-11.5867
常求	-11.5867
真濟	-11.5868
證得阿耨多羅三藐三菩提	-11.5868
供奉	-11.5869
莫見	-11.587
汝等若	-11.587
勝軍	-11.587
即以神力	-11.5871
當證	-11.5872
指授	-11.5873
而巳	-11.5873
涌出	-11.5874
惟願如來	-11.5874
愛結	-11.5878
為欲所	-11.5879
】*	-11.5879
有一天子	-11.588
淨居天子	-11.5882
墮餓鬼	-11.5883
現神通	-11.5883
坐上	-11.5885
大將	-11.5885
盡壽	-11.5886
」【	-11.5888
生大苦惱	-11.5889
頭頂	-11.589
當先	-11.589
四等心	-11.5891
無方	-11.5891
究竟涅槃	-11.5891
仁愛	-11.5893
著身	-11.5894
名寶	-11.5894
孰不	-11.5904
不稱	-11.5909
其日	-11.591
佛威神	-11.5911
為我說法	-11.5911
父母恩	-11.5911
於一切處	-11.5913
末世	-11.5913
口行	-11.5914
聖種	-11.5915
菩薩初生	-11.5915
三乘法	-11.5916
光明照耀	-11.5916
何行	-11.5917
道教	-11.5918
寂靜處	-11.5918
如來尊重	-11.5918
饒益一切	-11.5919
阿難問佛	-11.592
義味	-11.5922
三界之中	-11.5922
散壞	-11.5923
眼根	-11.5923
能令眾生	-11.5925
烏王	-11.5927
或如	-11.5927
金沙	-11.5927
於愛欲	-11.5929
身業	-11.593
正治	-11.593
不通	-11.5931
卷第三十	-11.5933
白父母	-11.5933
常與	-11.5933
羅國	-11.5933
令生	-11.5935
如恒沙	-11.5937
貧困	-11.5937
將軍	-11.5938
之色	-11.594
從無數劫	-11.5941
敷具	-11.5941
護意	-11.5942
頓然	-11.5943
香山	-11.5945
如此之人	-11.5945
心驚	-11.5947
難見	-11.5948
彼大沙門	-11.595
而常	-11.5951
諸華	-11.5953
無畏處	-11.5954
貧家	-11.5955
造惡業	-11.5958
伺其	-11.5958
以此為	-11.5959
攝化	-11.5962
此翻	-11.5962
極苦	-11.5962
王請	-11.5962
則應	-11.5966
諸情	-11.5966
戒法	-11.5966
不礙	-11.5968
初心	-11.5968
等事	-11.5968
惡毒	-11.5968
承前	-11.5969
一方	-11.597
隨身	-11.5971
初發	-11.5971
明人	-11.5971
成佛號	-11.5972
彼鬼	-11.5974
悲念	-11.5975
惡罵	-11.5975
受大苦	-11.5976
何其	-11.5979
神聖	-11.5979
勅使	-11.5983
時魔波旬	-11.5986
世尊說	-11.5986
復有種種	-11.5988
所重者	-11.5988
齊等	-11.5989
尊佛	-11.5991
未足	-11.5991
滋長	-11.5993
仁義	-11.5994
心也	-11.5996
大笑	-11.5999
慕樂	-11.5999
本空	-11.6
信根	-11.6002
於無上道	-11.6002
離散	-11.6002
報我	-11.6002
更作	-11.6003
飛騰	-11.6003
顏容	-11.6004
貴人	-11.6004
復增	-11.6005
諸花	-11.6006
正釋	-11.6007
瑟	-11.6008
以滅	-11.6008
一切無常	-11.6008
心存	-11.6008
逼惱	-11.601
興立	-11.6012
勝負	-11.6012
多作	-11.6013
用自	-11.6017
大方便	-11.6017
諸難	-11.6018
漏失	-11.6019
我於此處	-11.6019
脫苦	-11.6021
是時如來	-11.6023
目連等	-11.6023
猶恐	-11.6023
不甘	-11.6024
為起	-11.6024
備悉	-11.6025
於世尊所	-11.6025
少聞	-11.6026
爾時獵師	-11.6026
則成	-11.6029
親證	-11.603
諸餓鬼	-11.6033
或得	-11.6035
林內	-11.6036
有一大國	-11.6038
生諸	-11.604
遷流	-11.6042
分散	-11.6043
在空	-11.6043
轉生	-11.6044
緣故	-11.6045
明法	-11.6049
暴惡	-11.6051
我初	-11.6051
攝意	-11.6052
至竟	-11.6054
此是我	-11.6055
棄家	-11.6055
攝諸根	-11.6056
前立	-11.6056
其惡	-11.6058
癡暗	-11.6058
善神	-11.6062
棄藥	-11.6065
乃當	-11.6066
器中	-11.6067
滿虛空中	-11.6067
坐於樹下	-11.6068
諸婦女	-11.6068
以用供養	-11.6072
此名為	-11.6073
常精進	-11.6073
便受	-11.6077
禮已	-11.6079
此諸根	-11.6079
那伽	-11.608
止此	-11.608
即死	-11.6081
食草	-11.6082
汝有何	-11.6084
一切眷屬	-11.6085
倍復	-11.6086
三十一	-11.6087
諸賢	-11.6087
恩愛別離	-11.6088
火焚	-11.609
為智	-11.6093
願聽	-11.6093
得作佛	-11.6094
入惡道	-11.6095
即當	-11.6095
能伏	-11.6097
何所作	-11.6099
已滿	-11.61
十億	-11.6101
時有長者	-11.6102
船上	-11.6104
諸師	-11.6105
修諸	-11.6107
持心	-11.6107
大悟	-11.6111
從索	-11.6111
二合	-11.6113
後人	-11.6117
善不善	-11.6118
見諸眾生	-11.6119
欲問	-11.6119
又彼	-11.612
種現	-11.6122
善見	-11.6122
感佛	-11.6125
是故當知	-11.6126
以如是	-11.6127
在家出家	-11.6128
有多種	-11.6128
非獨	-11.6129
卿今	-11.613
無定	-11.6131
染惡	-11.6133
如斯之	-11.6133
白㲲	-11.6133
所親	-11.6137
國位	-11.6138
生相	-11.6141
吾將	-11.6142
未來世中	-11.6145
長老阿難	-11.6145
流離	-11.6145
雖受	-11.6147
諸佛國土	-11.6148
王教	-11.6152
便是	-11.6152
來問	-11.6152
足滿	-11.6152
所往	-11.6155
樂想	-11.6156
若不得	-11.6157
不傷	-11.6158
五百釋種	-11.6159
過於彼	-11.6159
大用	-11.616
萬人	-11.6162
香湯	-11.6166
無過於	-11.6166
梵眾	-11.6169
勸我	-11.6171
得全	-11.6171
遍行	-11.6171
無數眾生	-11.6172
八法	-11.6172
大梵	-11.6177
時四天王	-11.6179
知太子	-11.6179
不見佛	-11.6181
到其所	-11.6181
三惡趣	-11.6182
求出世	-11.6183
淚下	-11.6183
猶不能	-11.6185
今獲	-11.6189
唯我	-11.6189
相率	-11.6194
之情	-11.6197
偈頌	-11.62
口意	-11.6201
本業	-11.6203
調伏眾生	-11.6207
事已	-11.6209
村中	-11.621
聞法已	-11.6211
度勝	-11.6211
凍	-11.6212
出胎	-11.6213
未度者	-11.6216
威神力	-11.6219
久在	-11.6221
告諸大眾	-11.6222
所障	-11.6226
能攝	-11.6227
諸見	-11.623
象護	-11.6231
蓮華上	-11.6231
所種	-11.6233
遍至	-11.6234
守門	-11.6235
栽	-11.6237
慧人	-11.6237
道樹	-11.6237
甚深法	-11.6237
所懷	-11.6237
今日世尊	-11.6238
王復問	-11.6238
為吾	-11.6241
遺餘	-11.6242
爾時國王	-11.6245
便盡	-11.6245
受道	-11.6247
不思	-11.6248
二足	-11.6249
今身	-11.6252
行跡	-11.6254
之因緣	-11.6257
受佛教	-11.6258
依之	-11.6258
深知	-11.6259
過此	-11.626
未證	-11.6263
五住	-11.6265
我乃	-11.6267
皆蒙	-11.6268
禮拜供養	-11.6269
德相	-11.627
更受	-11.6272
彼業報	-11.6273
大乘法	-11.6273
安隱快樂	-11.6274
作何業	-11.6274
念道	-11.6275
出遊觀	-11.6277
相已	-11.6279
及弟子	-11.6282
何者為	-11.6282
所向	-11.6282
免此	-11.6283
實智	-11.6283
作諸功德	-11.6284
彼沙門	-11.6285
便謂	-11.6288
象牙	-11.6288
善男下結	-11.6289
不見太子	-11.629
如上說	-11.6291
長歎	-11.6291
寶臺	-11.6292
制伏	-11.6293
其最	-11.6296
當入	-11.6297
一鉢	-11.6297
當成	-11.6297
行檀	-11.6298
恭敬尊重	-11.6298
二兒	-11.6298
抱兒	-11.6299
道真	-11.63
經文	-11.6301
說是言	-11.6301
邪婬	-11.6306
看之	-11.6309
彼象	-11.6309
方面	-11.6309
諸群臣	-11.631
大罪	-11.631
大眾中	-11.6311
即呼	-11.6312
拜為	-11.6312
作用	-11.6312
舉心	-11.6313
趺	-11.6314
佛土莊嚴	-11.6317
真金色	-11.6317
有神	-11.6318
皆不	-11.632
他化自在天	-11.6325
毒樹	-11.6331
難有	-11.6332
念子	-11.6332
為體	-11.6337
投之	-11.6338
斯是	-11.6338
住者	-11.6338
捨心	-11.6339
於菩提	-11.6344
轉變	-11.6345
觀知	-11.6345
無足	-11.6346
眷	-11.6346
如是名為	-11.6346
見沙門	-11.6346
成辟支佛	-11.6346
曼陀羅華	-11.6348
緣時	-11.635
小便	-11.635
但能	-11.6352
年在	-11.6353
之藏	-11.636
唯心	-11.6362
千萬億	-11.6363
色香	-11.6363
剎利種	-11.6366
遠布	-11.6368
慈愛	-11.637
棄我	-11.637
行菩提行	-11.6371
幻法	-11.6371
衰耗	-11.6371
人人	-11.6372
淨無垢	-11.6373
美言	-11.6373
得清涼	-11.6373
而無有	-11.6373
大捨	-11.6374
高一由旬	-11.6375
復出	-11.6376
意業	-11.6378
明白	-11.6379
獲斯	-11.6379
得無漏	-11.6379
摶	-11.6381
值見	-11.6381
遣人往	-11.6381
七分	-11.6382
僧伽梨	-11.6382
苦報	-11.6383
娑毘耶波梨婆闍	-11.6384
須臾之頃	-11.6384
不恨	-11.6385
無悔	-11.6387
白曰	-11.6387
諸塵垢	-11.6387
棒	-11.6388
宴	-11.6389
塗香末香	-11.6389
耐	-11.6389
千輻	-11.639
粮	-11.639
怡	-11.639
青黃赤白	-11.639
喧	-11.6391
彼童子	-11.6392
覆盆	-11.6392
困篤	-11.6392
指環	-11.6392
峻	-11.6393
聟	-11.6393
從今已去	-11.6393
禰舞迦	-11.6394
撿挍	-11.6394
憘	-11.6395
如來滅後	-11.6396
弦	-11.6396
鬚髮自墮	-11.6396
絡	-11.6396
疲厭	-11.6396
說此語已	-11.6397
腐	-11.6397
殄	-11.6397
庫	-11.6397
在菩薩前	-11.6398
杻械	-11.6398
慙	-11.6398
讎	-11.6398
贖	-11.6399
臭爛	-11.6399
身出水火	-11.6399
欄	-11.6399
恭奉	-11.64
僧伽藍	-11.64
賢聖八品道	-11.64
紹繼	-11.64
革	-11.6401
發歡喜心	-11.6401
與其眷屬	-11.6401
疑心	-11.6401
貧女	-11.6401
身長	-11.6401
爾時世尊以天眼觀	-11.6402
慶賀	-11.6402
怕	-11.6402
兵仗	-11.6402
苗裔	-11.6403
穿珠師	-11.6403
嗅	-11.6403
拘離多	-11.6403
讚嘆	-11.6403
供養如來及比丘僧	-11.6404
曼陀羅花	-11.6404
仙士	-11.6404
族望	-11.6404
妓樂	-11.6405
安止住於	-11.6405
包	-11.6405
如汝所願	-11.6405
舉兩手	-11.6405
故稱	-11.6405
骨節	-11.6405
厩	-11.6405
犇	-11.6405
度一切	-11.6406
吸	-11.6406
憍曇彌	-11.6406
財富無數	-11.6407
澡罐	-11.6407
澄靜	-11.6407
眾生煩惱	-11.6407
蓬	-11.6407
於最後王復生一	-11.6407
翫習	-11.6407
雷電	-11.6407
胡麻	-11.6407
寸	-11.6407
蚊	-11.6407
百由旬	-11.6408
不可沮壞	-11.6408
優波低沙童子	-11.6408
變怪	-11.6409
恭敬禮拜	-11.6409
芻	-11.6409
析	-11.6409
自行	-11.6409
採華	-11.6409
因緣力故	-11.641
心懷踊躍	-11.641
跳踉	-11.641
里巷	-11.641
摩拏嚩迦	-11.641
姝好	-11.641
▁一總標	-11.641
撾打	-11.6411
拔刀	-11.6411
坐一樹下	-11.6411
表裏	-11.6412
五熱炙身	-11.6412
羞恥	-11.6413
燃燈	-11.6413
飢困	-11.6414
經十二年	-11.6414
龍宮	-11.6414
壤	-11.6414
拔提	-11.6414
墨	-11.6414
走獸	-11.6414
堆	-11.6415
女子	-11.6415
五百金錢	-11.6415
無數億劫	-11.6416
苗稼	-11.6416
兜率陀天	-11.6416
淫	-11.6417
訛	-11.6417
擔負	-11.6417
膽	-11.6418
除饉	-11.6418
半偈	-11.6419
敏	-11.6419
鹿皮衣	-11.6419
破薪	-11.642
逆順	-11.642
洗鉢	-11.642
宣揚	-11.642
勸勉	-11.6421
超異	-11.6421
惻	-11.6421
隻	-11.6421
農	-11.6421
假使有人	-11.6421
禱	-11.6422
局	-11.6422
麤細	-11.6422
無所恃怙	-11.6422
佛說是義足經	-11.6422
擲置	-11.6422
寂志	-11.6423
調良	-11.6423
叛	-11.6423
恭敬親近	-11.6423
容顏	-11.6424
雲霧	-11.6424
如汝所言	-11.6425
蟒	-11.6425
不生不滅	-11.6426
黃門	-11.6426
除鬚髮	-11.6426
揮	-11.6427
其苦	-11.6427
紫磨金	-11.6428
是故汝今	-11.6428
良馬	-11.6428
不朽	-11.6428
盡苦際	-11.6428
在空中	-11.6428
微薄	-11.6429
當於彼時	-11.6429
到已即	-11.643
東南	-11.6431
大赦	-11.6432
身體柔軟	-11.6432
適欲	-11.6432
造塔	-11.6433
在在	-11.6435
無失	-11.6435
無量阿僧祇眾生	-11.6436
弘廣	-11.6436
沉淪	-11.6437
是汝師	-11.6438
佛以神力	-11.6438
尊奉	-11.6439
之別稱	-11.644
有大恩	-11.644
燒炙	-11.6442
然燈如來	-11.6442
必然	-11.6442
▁「『	-11.6443
殞命	-11.6443
法數	-11.6443
。』」《	-11.6444
平滿	-11.6444
於賢劫中	-11.6445
又觀自身	-11.6446
初總標	-11.6447
俗諦	-11.6447
發露	-11.6448
名相	-11.6449
年始	-11.645
清淨教誨	-11.645
我今此身	-11.645
而以供養	-11.6451
園內	-11.6451
受享法樂	-11.6451
所得功德	-11.6453
諸龍王	-11.6453
早起	-11.6453
所執	-11.6453
於來世	-11.6454
牟尼尊	-11.6454
根力	-11.6455
此約	-11.6456
凶惡	-11.6456
牛馬	-11.6457
吾當為汝	-11.6457
於三界	-11.6459
擲著	-11.6459
舍中	-11.6459
不乎	-11.646
欲報	-11.6461
釋師子	-11.6461
四洲	-11.6461
習惡	-11.6462
然既云	-11.6463
淨飯王宮	-11.6463
無救護者	-11.6464
道品	-11.6464
說是偈	-11.6465
光影	-11.6465
功効	-11.6465
終不可得	-11.6466
妄計	-11.6467
於王前	-11.6467
并餘	-11.647
復前行	-11.647
影響	-11.647
慳惜	-11.6471
狂象	-11.6471
遊化	-11.6473
諸根具足	-11.6474
彼頂生王	-11.6474
持戒之人	-11.6475
自安	-11.6476
是入一切種智行陀羅尼門	-11.6477
阿鼻	-11.6478
舉體	-11.6478
逐境	-11.648
自撲	-11.6481
地獄畜生餓鬼	-11.6482
壽百歲	-11.6482
顛狂	-11.6483
安和	-11.6483
佛所行	-11.6485
器物	-11.6486
上佛	-11.6486
要須	-11.6487
安徐	-11.6487
城中有	-11.6488
雖少	-11.6489
作如是事	-11.6489
能如是	-11.649
牧牛人	-11.6491
悉解	-11.6491
除差	-11.6491
爾時白淨王	-11.6492
三垢	-11.6493
汝今當知	-11.6493
雖見	-11.6493
怨嫉	-11.6493
斷結	-11.6494
此童子	-11.6497
兩肩	-11.6499
由心	-11.65
是故智者	-11.6502
貧者	-11.6503
歸依僧	-11.6508
閉在	-11.6508
消盡	-11.651
三處	-11.6511
之緣	-11.6512
無彼	-11.6512
迴向阿耨多羅三藐三菩提	-11.6512
大福	-11.6514
一切眾生皆	-11.6516
善好	-11.6517
共至	-11.652
為放逸	-11.6522
警眾	-11.6523
露現	-11.6524
皆同一	-11.6524
言論	-11.6524
泉源	-11.6526
於三寶	-11.6528
適生	-11.6529
功德者	-11.653
雙足	-11.6536
所從生	-11.6537
知我心	-11.654
調達比丘	-11.6541
肉血	-11.6542
之門	-11.6543
成就一切	-11.6544
勤加	-11.6547
于今	-11.6547
雪山中	-11.6548
資生	-11.6549
興發	-11.6551
日增	-11.6552
安隱不	-11.6552
當斷	-11.6553
乃獲	-11.6553
棄國	-11.6554
恐有	-11.6556
大王今者	-11.6556
即說	-11.6558
奴僕	-11.6558
我今若	-11.6558
勤行	-11.6558
令得解脫	-11.6559
是故應當	-11.6559
之惱	-11.656
食竟	-11.6563
解散	-11.6563
其食	-11.6563
五情	-11.6566
不亡	-11.6566
除一切	-11.6566
在門外	-11.6567
久久	-11.6568
無數人	-11.6569
共食	-11.6572
來至於此	-11.6572
若王	-11.6572
諦聽諦聽	-11.6572
應死	-11.6573
三億	-11.6575
愛盡	-11.6576
除遣	-11.6579
一坐	-11.6579
快意	-11.6579
獲勝	-11.6582
念法	-11.6586
寶宮	-11.6592
與我共	-11.6594
合為一	-11.6596
枯木	-11.6598
意甚	-11.6598
借問	-11.6598
忿恚	-11.6599
又令	-11.6601
餘方	-11.6601
尼連禪河	-11.6603
天玉女	-11.6606
土中	-11.6607
樓觀	-11.6607
共會	-11.6609
不任	-11.6609
獨往	-11.6611
去之後	-11.6611
樹王	-11.6612
能覺知	-11.6612
如來教	-11.6613
豈復	-11.6614
善修	-11.6615
饑渴	-11.6616
無煩惱	-11.6619
生死中	-11.662
之定	-11.6623
念之	-11.6623
去城	-11.6625
曠野中	-11.6627
避之	-11.6627
踰於	-11.6628
聖果	-11.663
與大眾	-11.6632
諸不淨	-11.6633
尋之	-11.6635
侵害	-11.6636
種種功德	-11.6638
普見	-11.6639
復以種種	-11.664
相輪	-11.6641
利益一切眾生	-11.6644
仙人者	-11.6644
其象	-11.6647
度者	-11.6648
生恭敬	-11.6648
牆壁	-11.6648
歎息	-11.6649
對言	-11.665
未成	-11.665
不休	-11.6651
諸善法	-11.6651
住持	-11.6653
和順	-11.6653
皆屬	-11.6654
計我	-11.6655
生惡念	-11.6657
上界	-11.6657
諸種	-11.666
尼拘陀樹	-11.666
以成	-11.6666
大科	-11.6666
婆羅門法	-11.6667
戒香	-11.6668
日照	-11.6668
安施	-11.6672
調身	-11.6673
獲致	-11.6676
當持	-11.6678
田中	-11.6678
大目連	-11.668
自造	-11.668
為己	-11.6681
非義	-11.6681
號為	-11.6681
是無常	-11.6684
之處也	-11.6685
更取	-11.6686
爾時魔王	-11.6687
斷德	-11.6688
心得解脫	-11.669
沙門言	-11.669
餓鬼中	-11.6692
倍更	-11.6693
捨出家	-11.6694
凡是	-11.6698
是其	-11.6702
之道也	-11.6702
邊見	-11.6703
父母歡喜	-11.6706
無心	-11.6708
世出世	-11.6708
即聽	-11.6709
於心	-11.6711
出妙	-11.6711
深奧	-11.6716
華色	-11.6719
今聞	-11.6719
不獨	-11.6722
乃成	-11.6723
即見	-11.6723
宿福	-11.6724
子孫相繼有	-11.6728
乃於	-11.6729
即遣人	-11.673
知汝	-11.673
正命	-11.673
汝既	-11.6733
須者	-11.6735
嘆譽	-11.6737
入園	-11.6737
無狀	-11.6739
欲食	-11.6746
等言	-11.6747
一年	-11.6748
一定	-11.6751
此果	-11.6751
願作	-11.6751
欲使不	-11.6753
次名	-11.6753
初果	-11.6755
那得	-11.6756
深淵	-11.6759
火焰	-11.676
幢如來	-11.6761
復有無量無邊	-11.6762
相者	-11.6763
相傳	-11.6765
作利益	-11.6765
等見	-11.6766
賢眾	-11.6766
如所說	-11.6766
聞如來	-11.6766
惓	-11.6767
富有	-11.6769
此句	-11.6772
可見	-11.6772
一生補處菩薩	-11.6777
苦諦	-11.6778
難計	-11.6779
仙道	-11.678
女曰	-11.678
財色	-11.678
母恩	-11.678
諸賈客	-11.6781
「『	-11.6781
聖主	-11.6785
降伏彼	-11.6786
脫身	-11.6786
所領	-11.6787
深入	-11.6789
謂其	-11.6789
令眾	-11.6791
從化	-11.6791
等分	-11.6794
度於	-11.6794
隨願	-11.6797
作此語	-11.6798
與他	-11.68
名利	-11.6802
欲脫	-11.6807
憂念	-11.6807
手捉	-11.6808
於山中	-11.6809
我當以	-11.681
滿願	-11.681
父母妻子	-11.6812
身病	-11.6812
皆被	-11.6813
變已	-11.6816
種種色	-11.6817
大火聚	-11.6818
所修行	-11.682
節會	-11.6822
遠離諸	-11.6824
眾寶瓔珞	-11.6825
有二萬	-11.6827
三字	-11.6827
立地	-11.683
窮困	-11.6833
老比丘	-11.6833
却住	-11.6834
先身	-11.6836
於國	-11.6838
使此	-11.6839
心亂	-11.684
一禪	-11.6841
真空	-11.6843
我今既	-11.6843
以精進	-11.6844
火焚燒	-11.6845
影現	-11.6846
虛空之中	-11.685
欲飲	-11.6851
甚深微妙	-11.6852
充盈	-11.6855
成佛已	-11.6856
過度	-11.6857
十八億	-11.6858
莫使	-11.686
重告	-11.686
則不能	-11.6861
奪取	-11.6863
五家	-11.6864
論說	-11.6864
之慧	-11.6866
來近	-11.6866
萬八千	-11.6866
地主	-11.6867
無眼	-11.6868
耶那	-11.6868
躭	-11.6869
人非人	-11.6869
彼眾中	-11.6869
恐人	-11.687
觀已	-11.6875
說諸法	-11.688
悉各	-11.6881
怨心	-11.6882
心境	-11.6883
其中有	-11.6884
千比丘	-11.6885
汝今不應	-11.6885
時長	-11.6886
不親	-11.6892
四出	-11.6895
大白象	-11.6896
佛在世時	-11.6898
乃可得	-11.6898
成沙門	-11.69
令一切眾生	-11.6903
未得道	-11.6904
興惡	-11.6912
佛樹	-11.6912
庭	-11.6914
五仙	-11.6914
其山	-11.6915
滅火	-11.6917
不得食	-11.6918
靖	-11.6918
世中	-11.6919
不能使	-11.6923
除盡	-11.6927
念定	-11.6931
復有四	-11.6934
險難	-11.6934
王軍	-11.6934
色衣	-11.6934
戒定	-11.6935
未必	-11.6941
一聞	-11.6942
始知	-11.6942
食畢	-11.6946
加報	-11.6946
妄見	-11.6947
起瞋恚	-11.6948
失道	-11.695
其彼	-11.6951
淨光	-11.6954
便勅	-11.6959
因修	-11.6963
求福	-11.6964
吾昔	-11.6964
須知	-11.6964
如是之事	-11.6966
閉門	-11.6967
常修	-11.6972
上句	-11.6973
隨形	-11.6974
乃至成阿耨多羅三藐三菩提	-11.6975
得相見	-11.6976
國民	-11.6978
供養舍利	-11.698
疾患	-11.6982
恒河沙	-11.6991
方欲	-11.6992
不錯亂	-11.6992
暫捨	-11.6998
種智	-11.6999
職	-11.7
眾生有	-11.7001
輕毀	-11.7001
漢	-11.7002
難保	-11.7003
搦	-11.7004
勤方便	-11.7004
肝	-11.7004
峯	-11.7006
阿閦	-11.7008
彼諸佛世尊	-11.7008
懸繒幡蓋	-11.7009
行住坐起相隨	-11.701
護明菩薩大士	-11.7011
眾心	-11.7012
作眾伎樂	-11.7014
六通清徹	-11.7015
世多有人	-11.7015
流泉浴池	-11.7015
如世尊教	-11.7015
彼世界	-11.7016
虱	-11.7016
無有遺餘	-11.7017
悸	-11.7017
乃至菩提際	-11.7018
與卿	-11.7018
揵沓和	-11.7018
長老婆提唎迦	-11.7019
迦尸迦衣	-11.7019
城內外	-11.7019
躃	-11.702
不知厭足	-11.702
喧諍	-11.702
欲試	-11.7021
羯	-11.7021
栴陀羅	-11.7021
鏁	-11.7021
駱駝	-11.7021
十二由旬	-11.7021
得阿那含道	-11.7021
燥	-11.7021
真實義	-11.7022
神化	-11.7022
炳著	-11.7022
自拔	-11.7022
昔舍衛國	-11.7023
既出家已	-11.7023
塵坌	-11.7023
捨之而去	-11.7023
出微妙音	-11.7023
若能覺此苦	-11.7023
矜愍	-11.7024
憒亂	-11.7024
作天伎樂	-11.7024
轉復前行	-11.7024
衝	-11.7025
須臾間	-11.7025
存活	-11.7025
征	-11.7025
談論	-11.7025
行道淨其迹	-11.7025
飯食已訖	-11.7025
師子之座	-11.7026
祭祀火	-11.7026
寵	-11.7026
今得值我	-11.7026
同譯經梵才大師紹德慧詢等奉詔譯	-11.7026
朝散大夫試鴻臚少卿	-11.7026
水上泡	-11.7026
為後眾生	-11.7026
恭肅	-11.7026
迦良那伽梨	-11.7026
餘世界中	-11.7026
蠲除	-11.7027
由前	-11.7027
廻	-11.7027
以清淨心	-11.7027
怪其所以	-11.7027
冒	-11.7027
左邊	-11.7027
甚可愛樂	-11.7027
墾	-11.7028
九色鹿	-11.7028
攘	-11.7028
阿練	-11.7028
鬼魅	-11.7028
網中	-11.7029
曼殊沙	-11.7029
彈指	-11.7029
暉曜	-11.7029
曚	-11.7029
教行	-11.703
多饒	-11.703
遊行教化	-11.703
樹提伽	-11.703
六度集經	-11.703
昨日	-11.703
棘	-11.703
允	-11.703
究暢	-11.703
生埋	-11.703
菩薩如是思惟念	-11.703
蹄	-11.7031
阿若憍陳如	-11.7031
努力	-11.7031
迦毘梨	-11.7031
平治道路	-11.7031
慈悲喜護	-11.7031
以上皆	-11.7031
月光天子	-11.7031
長老摩尼婁陀	-11.7031
惰	-11.7031
燈燭	-11.7031
四輩弟子	-11.7031
是則名為	-11.7031
即得名為親近波羅蜜	-11.7032
地為大動	-11.7032
還歸本國	-11.7032
因地	-11.7032
庠序	-11.7033
此為何人	-11.7033
壽終之後	-11.7033
的	-11.7033
右臂	-11.7033
將諸群臣	-11.7033
在一樹下	-11.7034
霍然	-11.7034
應當於	-11.7034
四百四病	-11.7034
殆	-11.7034
併	-11.7034
飡那	-11.7034
勳	-11.7035
心之所念	-11.7035
若其不	-11.7035
身上出火	-11.7035
從空	-11.7036
料	-11.7036
偃	-11.7036
聞是說已	-11.7036
善樂於	-11.7036
大乘悲分陀利經	-11.7037
無有出期	-11.7037
坐金剛座	-11.7037
丈六	-11.7037
燒煮	-11.7037
怨憎會苦	-11.7039
示導	-11.7039
探	-11.7039
一一眾生	-11.7039
識者	-11.704
寬廣	-11.704
非天	-11.7041
迴波	-11.7041
如來重說偈言	-11.7041
敷設	-11.7041
蠱道	-11.7041
供養佛僧	-11.7041
長老摩訶迦葉	-11.7042
滓	-11.7042
老翁	-11.7042
十六分	-11.7042
泄	-11.7042
潔淨	-11.7043
前事	-11.7043
境內	-11.7043
淹	-11.7044
愁毒	-11.7044
豁然	-11.7044
京	-11.7044
財賄	-11.7044
一日之中	-11.7045
鋒	-11.7045
毀謗	-11.7045
無辜	-11.7046
令其中眾生	-11.7046
喚彼	-11.7047
六度無極	-11.7047
幼稚	-11.7047
各各執持	-11.7047
月十五日	-11.7047
點	-11.7048
如意寶珠	-11.7049
慶幸	-11.7049
天壽	-11.7049
鵠	-11.7049
何等名為	-11.705
犢子	-11.705
受我供養	-11.7052
萬劫	-11.7053
決了	-11.7053
閻浮樹下	-11.7053
隨汝意	-11.7054
給孤獨	-11.7054
戰動	-11.7054
皆發無上正真道意	-11.7054
肅然	-11.7055
此病	-11.7055
得歡喜	-11.7055
饒益有情	-11.7055
二十七	-11.7055
純熟	-11.7057
土石	-11.7057
無替	-11.7058
妙后	-11.7058
至年十	-11.7059
示我	-11.7061
迅速	-11.7061
寶瓔	-11.7063
平安	-11.7063
牛跡	-11.7063
如我所見	-11.7063
焉得	-11.7063
分別諸法	-11.7064
付與	-11.7064
悉從	-11.7064
品類	-11.7065
性相	-11.7065
草衣	-11.7067
禍福	-11.7067
依時	-11.7067
不迴	-11.7068
泣淚	-11.7068
利群生	-11.7068
摩竭提國	-11.7069
象所	-11.7069
而取命終	-11.7071
總標	-11.7071
無有休息	-11.7071
次二句	-11.7071
我不敢違	-11.7071
僧房	-11.7072
虗妄	-11.7072
受十戒	-11.7072
軌持	-11.7075
釋女	-11.7075
始出	-11.7075
凝然	-11.7075
鬼王	-11.7076
尸毘王	-11.7077
及諸群臣	-11.7078
猶如師子	-11.7078
現神變	-11.7078
十二頭陀	-11.7078
令王	-11.7078
白黑	-11.7079
枝條	-11.7079
入于	-11.7079
居蘭若	-11.7082
和尚	-11.7082
減損	-11.7083
七日之中	-11.7083
花葉	-11.7085
不從他聞	-11.7085
盲者得	-11.7086
大同	-11.7087
暫住	-11.7087
然後方	-11.7087
弘願	-11.7088
)。(○	-11.7088
行滅	-11.7088
為說妙法	-11.709
今此童子	-11.709
一切施王	-11.7091
當求方便	-11.7091
時彼二人	-11.7092
求作沙門	-11.7094
增廣	-11.7095
於是如來	-11.7095
種種寶	-11.7095
婆羅門聞是語已	-11.7097
四願	-11.7097
可從	-11.7098
將諸弟子	-11.7098
我今與汝	-11.7098
救彼	-11.7098
以十善	-11.71
盡老病死	-11.7101
大叫	-11.7102
貴重	-11.711
天上天下	-11.7111
隨汝所	-11.7112
待時	-11.7116
渡海	-11.7121
昔所	-11.7121
梵宮	-11.7121
具三十二相	-11.7121
未竟	-11.7122
祇洹精舍	-11.7122
喜無量	-11.7123
倍常	-11.7123
二果	-11.7123
給侍	-11.7123
正說	-11.7124
五百羅漢	-11.7124
不護	-11.7125
究竟解脫	-11.7125
寺中	-11.7127
厭足	-11.7129
互為父母	-11.7129
我今所願	-11.7131
方為	-11.7131
天宮殿	-11.7132
覺慧	-11.7132
告之言	-11.7132
戴天冠	-11.7133
無結	-11.7133
阿難是也	-11.7134
皆現	-11.7134
得定	-11.7136
違犯	-11.7137
信用	-11.7137
其事如是	-11.7137
有云	-11.714
甚微妙	-11.714
口過	-11.7142
爾耳	-11.7142
於何處	-11.7143
時頂生王	-11.7144
漸進	-11.7145
十德	-11.7148
火燃	-11.7148
滅度之後	-11.7148
王舍城中	-11.7148
諸賢聖	-11.7149
縛解	-11.7153
於彼處	-11.7153
生惡心	-11.7154
坐道場	-11.7154
猶如蓮華	-11.7155
合掌向	-11.7156
田作	-11.7156
福慶	-11.7156
餘殘	-11.7159
所統	-11.7159
無遺	-11.716
巧妙	-11.716
如是四種	-11.7162
尊教	-11.7162
婬女人	-11.7162
上虛空中	-11.7163
埋之	-11.7164
諸眷屬等	-11.7165
能達	-11.7166
逝心	-11.7167
乃如是	-11.7168
皆止	-11.7168
欲成	-11.7168
是童子身	-11.7169
言談	-11.7169
識神	-11.7169
所繫	-11.7169
離家	-11.717
自高	-11.7171
會同	-11.7174
見父	-11.7174
更無有	-11.7177
非想	-11.7177
猶如金剛	-11.7178
夜摩天	-11.7178
有二菩薩	-11.7179
必令	-11.7179
作罪	-11.7181
并與	-11.7182
如是觀察	-11.7185
原本	-11.7185
中最勝	-11.7185
聞此事	-11.7187
便出	-11.7188
而滅度	-11.7188
天文	-11.7189
得滅	-11.7192
不聞法	-11.7192
向佛所	-11.7193
四大身	-11.7195
依我	-11.7197
又復大王	-11.7197
所生處	-11.7199
我等今日	-11.72
聞其語	-11.72
遵行	-11.7203
無倦	-11.7203
巳往	-11.7204
爾時有一	-11.7207
謂因	-11.7207
爾時諸天	-11.7208
魔軍眾	-11.7209
所居處	-11.721
死魔	-11.7211
難思	-11.7212
況今	-11.7215
我所願	-11.7217
至後世	-11.7218
美色	-11.7219
尊豪	-11.722
實難	-11.722
語眾人	-11.7221
胎中	-11.7223
速還	-11.7223
救之	-11.7224
遍布	-11.7225
誠為	-11.7225
復雨	-11.7226
狂癡	-11.7227
產生	-11.7229
勤心	-11.7229
趣於	-11.723
其兩手	-11.723
自思念	-11.7232
所牽	-11.7235
菩薩告言	-11.7237
唯以	-11.7238
之器	-11.7239
與說法	-11.724
駛流	-11.7241
獲果	-11.7243
不語	-11.7245
徒自	-11.7245
黑雲	-11.7245
辭父母	-11.7245
出家之法	-11.7245
是時仙人	-11.7246
王可	-11.7246
四顛倒	-11.7248
行孝	-11.7251
經時	-11.7253
即答之	-11.7254
還歸本	-11.7254
狂惑	-11.7256
起居	-11.7256
自在王	-11.7257
所不及	-11.7259
成於	-11.7259
而白之	-11.7259
起坐	-11.7261
堪忍	-11.7262
乃使	-11.7263
便成	-11.7264
往復	-11.7265
善趣	-11.7266
降伏一切	-11.7267
於時如來	-11.7267
佛足	-11.7268
路側	-11.7268
敬待	-11.727
三輪	-11.727
一升	-11.7272
捨一切	-11.7272
身雖	-11.7272
觀者無厭	-11.7273
十二者	-11.7273
是一切智	-11.7274
清淨水	-11.7274
親善	-11.7275
後更	-11.7277
不少	-11.7277
光明照曜	-11.7279
今是	-11.7279
長者女	-11.728
有菩薩摩訶薩	-11.728
適彼	-11.728
欲入海	-11.7281
軟語	-11.7283
如帝釋	-11.7283
一切佛法	-11.7285
禪定智慧	-11.7287
感果	-11.729
弊衣	-11.729
今則	-11.729
近道	-11.7291
處也	-11.7292
將何	-11.7292
愛別離	-11.7293
可取	-11.7294
敬事	-11.7298
諸妙	-11.7298
已證	-11.7301
洗手	-11.7301
大聖尊	-11.7303
無捨	-11.7305
本誓	-11.7307
哀號	-11.731
是同	-11.731
太子聞已	-11.7313
不邪	-11.7314
作念	-11.7319
亦復不見	-11.732
頌中	-11.7322
即名	-11.7323
王波斯匿	-11.7324
劇於	-11.7327
尚能	-11.7327
慢類	-11.7328
所演	-11.7331
昔為	-11.7336
所共	-11.7336
遶佛	-11.7336
之矣	-11.7337
當覺	-11.7343
銀錢	-11.7343
爾時迦葉	-11.7343
供養之	-11.7344
致斯	-11.7346
自供	-11.7346
我教	-11.7348
不淨行	-11.735
有於一	-11.735
今此太子	-11.7358
作是唱	-11.7358
義故	-11.736
亦使	-11.736
明顯	-11.7362
隨流	-11.7367
如華	-11.7367
尊榮	-11.7367
疑慮	-11.7367
推之	-11.7369
能說	-11.7369
眾想	-11.737
汝去	-11.7371
身見	-11.7374
增其	-11.7374
為奇	-11.7375
意根	-11.7375
之位	-11.7376
即舉	-11.7376
大福德	-11.7377
欲賣	-11.7384
諸惡法	-11.7384
行忍	-11.7385
與子	-11.7386
常所	-11.7387
子息	-11.7389
眾女	-11.7391
大機	-11.7393
於涅槃	-11.7394
駕乘	-11.7394
聖位	-11.7394
時女	-11.7395
所未聞	-11.7396
大雲	-11.7396
俱來	-11.7399
眾物	-11.7399
所患	-11.74
大布施	-11.74
化沙門	-11.74
必見	-11.7401
應請	-11.7402
釋曰	-11.7402
測	-11.7403
先王	-11.7403
為清信士	-11.7404
因生	-11.7409
不放	-11.7411
如是清淨	-11.7411
墮地獄中	-11.7411
菩薩名	-11.7415
無事	-11.7416
法音	-11.7417
為諸菩薩	-11.7417
若善男子	-11.7417
得覩	-11.742
毘婆尸	-11.7421
死命	-11.7422
此衣	-11.7422
當滅	-11.7423
魔宮	-11.7426
為人說	-11.7428
我兄	-11.7428
道迹	-11.7432
五百太子	-11.7436
攝眾生	-11.7436
即授	-11.7437
假名	-11.7438
使然	-11.7438
王城	-11.7438
汝當知	-11.7439
都無有	-11.7445
經道	-11.7449
汝何以	-11.745
重重	-11.7451
能了	-11.7452
迴車	-11.7453
合家	-11.7455
無瞋	-11.7455
有六牙	-11.7456
請命	-11.7457
相撲	-11.7461
將彼	-11.7462
強盛	-11.7465
因其	-11.7465
興意	-11.7465
是諸菩薩	-11.7468
歡喜受	-11.7469
等輩	-11.7471
當聽	-11.7472
諸天宮殿	-11.7472
所覺	-11.7473
疾走	-11.7473
真覺	-11.7475
懷嫉妬	-11.7476
摩伽	-11.7477
人尊	-11.7478
生我國	-11.7478
令出	-11.748
不肯受	-11.7481
恣心	-11.7482
善馭者	-11.7482
坐定	-11.7486
如甘露	-11.7487
悉成	-11.7489
各懷	-11.7489
莫與	-11.7489
救度	-11.7491
與前	-11.7493
重曰	-11.7494
恚恨	-11.7495
悟之	-11.7499
所從	-11.7501
以報	-11.7502
各齎	-11.7503
如星中月	-11.7509
諸大菩薩	-11.7509
棄惡	-11.7509
生憂惱	-11.751
久已	-11.7513
空觀	-11.7516
若如是	-11.7517
坐其上	-11.7517
日沒	-11.7518
非但	-11.7519
憚	-11.7519
年過	-11.7524
則滅	-11.7525
與世	-11.7527
舍利弗等	-11.7528
妙香花	-11.7528
富家	-11.7528
情深	-11.753
則非	-11.753
以王	-11.753
即獲	-11.7532
毛髮	-11.7536
眾人皆	-11.7537
告於	-11.7537
三歸依	-11.7538
之所生	-11.7543
降心	-11.7544
甘心	-11.7547
應物	-11.7548
寶床	-11.7548
破魔軍	-11.7548
來共	-11.755
即如	-11.7552
無婬怒癡	-11.7559
覆心	-11.7561
性命	-11.7561
蒙度	-11.7563
今云	-11.7565
愍眾生	-11.7567
之下	-11.7567
兩人	-11.7568
知因	-11.7571
校飾	-11.7572
迎佛	-11.7572
獲寶	-11.7577
證無上菩提	-11.7578
之病	-11.7578
即告彼	-11.7581
不得久	-11.7582
莫知	-11.7583
久居	-11.7586
為最勝	-11.7588
善愛	-11.7589
化現	-11.7597
居業	-11.7597
還報	-11.7598
師教	-11.7601
忽至	-11.7602
行菩薩道時	-11.7603
以救	-11.7606
能證	-11.7607
偈義	-11.7608
世間之人	-11.7608
漸近	-11.7611
瞬	-11.7613
說此法	-11.7613
樂具	-11.7613
燒之	-11.7613
佛於	-11.7617
等造	-11.7618
之數	-11.762
值此	-11.7623
調象	-11.7624
入中	-11.7625
一面坐	-11.7626
心亦如是	-11.7629
尊人	-11.763
修定	-11.763
覩此	-11.763
還精舍	-11.7636
車載	-11.7637
免脫	-11.7637
戒聞	-11.7638
宮婇女	-11.7638
自說言	-11.7638
功德力	-11.764
出城門	-11.7644
住於此	-11.7644
離貪	-11.7646
長老比丘	-11.7646
紺青	-11.7646
十一者	-11.7647
諸比丘僧	-11.7647
不逮	-11.7651
華散	-11.7653
滅意	-11.7654
視瞻	-11.7655
得飽滿	-11.7655
大果	-11.7657
不遭	-11.7658
云何可	-11.7658
捷	-11.7659
獨母	-11.7659
棘刺	-11.7661
最後世	-11.7661
亂心	-11.7663
母曰	-11.7664
凡一切	-11.7665
調達是也	-11.7665
虛空印菩薩摩訶薩	-11.7665
停止	-11.7666
割斷	-11.7667
說斯偈	-11.7668
廣學	-11.7668
邦	-11.7669
眾中有一	-11.7671
咸生	-11.7671
此水	-11.7672
諸夫人	-11.7672
蓋覆	-11.7672
有七重	-11.7672
辟支佛心	-11.7673
得成佛道	-11.7673
七步	-11.7674
唼食	-11.7675
一萬大臣	-11.7676
寶月如來	-11.7676
從地踊出	-11.7677
端正可憙	-11.7677
甚於	-11.7678
隘	-11.7678
􂎂	-11.7678
不悟	-11.7679
船舫	-11.768
賒	-11.768
闍維	-11.7681
妓	-11.7682
努	-11.7682
提婆達	-11.7682
父教	-11.7683
矚	-11.7683
願為解說	-11.7683
金團天子	-11.7684
阿淚吒	-11.7684
出家菩薩又觀自身	-11.7684
駿	-11.7684
曼陀羅	-11.7684
笛	-11.7684
加趺而坐	-11.7684
垢膩	-11.7684
以是緣故	-11.7684
車𤦲馬瑙	-11.7685
至心諦聽	-11.7685
五體禮寶藏如來足	-11.7685
我時供養彼	-11.7685
齎持香花	-11.7686
斤	-11.7686
摩達	-11.7686
略說其要	-11.7687
廐	-11.7687
大乘者	-11.7687
從頭至足	-11.7687
棖	-11.7687
和顏悅色	-11.7687
聽佛說法	-11.7688
欝單越	-11.7688
瘂	-11.7688
北涼天竺三藏	-11.7688
四寶所成	-11.7689
覺之	-11.7689
令作	-11.7689
七寶所成	-11.769
普光如來	-11.769
痛痒	-11.769
摸	-11.769
爵	-11.769
羸劣	-11.7691
郡縣	-11.7691
依於	-11.7691
傭	-11.7691
蔭涼	-11.7691
隱身不現	-11.7691
於意云何	-11.7691
摩訶曼陀羅華	-11.7692
即於座上	-11.7692
明日食時	-11.7692
受如是苦	-11.7692
躓	-11.7692
或入	-11.7693
脅	-11.7693
悚	-11.7693
間錯	-11.7693
駄	-11.7693
頞	-11.7693
轉于法輪	-11.7693
百千萬眾	-11.7693
旃	-11.7693
嗤	-11.7694
無反復	-11.7694
手自斟酌	-11.7694
諸佛土	-11.7694
蠕動	-11.7694
俾	-11.7694
筋骨	-11.7694
觝	-11.7694
於七日中	-11.7695
黎民	-11.7695
裘夷	-11.7695
瘳	-11.7695
迦婁羅	-11.7695
曇摩	-11.7695
憒閙	-11.7696
聚中	-11.7696
愁慼	-11.7696
降伏眾魔	-11.7696
姿態	-11.7696
四大王天	-11.7696
販賣	-11.7696
樓上	-11.7696
實不虛	-11.7696
怱怱	-11.7696
退敗	-11.7697
供給所須	-11.7697
廣布	-11.7697
炊	-11.7697
遙見佛來	-11.7697
鞭杖	-11.7697
出家未久	-11.7697
吟	-11.7698
是以聖人	-11.7698
悟道	-11.7698
債主	-11.7698
在閑靜處	-11.7698
尼乾子	-11.7699
循	-11.7699
明行成	-11.7699
哀鸞	-11.7699
㵎	-11.7699
綜	-11.7699
端正殊好	-11.7699
追憶	-11.7699
經於七日	-11.77
卜	-11.77
十二部經	-11.77
身體羸瘦	-11.77
無善	-11.77
滋茂	-11.77
疫病	-11.7701
阿育王	-11.7701
鬪訟	-11.7701
白四羯磨	-11.7701
􂍖	-11.7701
年七歲	-11.7701
大沙門邊	-11.7701
之座	-11.7701
國大夫人	-11.7701
肉髻	-11.7702
大圓鏡智	-11.7702
云何比丘	-11.7702
有形之類	-11.7702
佛陀	-11.7702
其後命終	-11.7703
一四句偈	-11.7703
皆發	-11.7703
唄	-11.7703
身下出水	-11.7703
羅閱城	-11.7703
委曲	-11.7704
乃至般若波羅蜜	-11.7704
賞賜	-11.7704
布薩婆梨迦	-11.7704
自受用身	-11.7704
嫡	-11.7704
惺悟	-11.7705
汝往	-11.7705
持用布施	-11.7705
牟	-11.7705
波浪	-11.7705
當爾	-11.7705
度攝	-11.7705
校計	-11.7706
往白佛	-11.7706
著諸瓔珞	-11.7706
音樂樹	-11.7706
蓋屋	-11.7706
眾雜	-11.7706
敷榮	-11.7706
耕種	-11.7706
按摩	-11.7706
於我法中	-11.7707
紫磨金色	-11.7707
仰瞻	-11.7707
剝皮	-11.7707
他受用身	-11.7707
我於此	-11.7708
雷電霹靂	-11.7708
告諸臣	-11.7709
辟支佛緣覺世尊	-11.7709
犯於	-11.7709
澄清	-11.7709
慊	-11.7709
山藪	-11.771
蔓	-11.7711
降伏魔怨	-11.7711
馬麥	-11.7711
不識恩	-11.7711
九十九	-11.7712
爆	-11.7712
長老瞿曇	-11.7712
應病與藥	-11.7712
南面	-11.7712
汝意云何	-11.7712
揚聲	-11.7713
貧窮下賤	-11.7713
忿恨	-11.7713
無量阿僧祇劫	-11.7713
人民飢餓	-11.7713
便作是語	-11.7714
運動	-11.7714
擇取	-11.7714
主四天下	-11.7715
因彼	-11.7715
被燒	-11.7715
不惜軀命	-11.7715
維耶離	-11.7716
羅列	-11.7716
開士	-11.7717
心口	-11.7717
四大洲	-11.7717
杜	-11.7717
割肉	-11.7717
修布施行	-11.7717
撥無因果	-11.7718
持此功德	-11.7718
唵	-11.7718
爐	-11.7718
杖捶	-11.7719
親近善友	-11.7719
八識	-11.7719
沾	-11.7719
銷滅	-11.772
怨讐	-11.772
草葉	-11.772
不能自解	-11.7721
盜竊	-11.7721
我為汝	-11.7721
八齋	-11.7722
諸天子眾	-11.7722
第二第三	-11.7722
魂	-11.7723
受佛戒	-11.7724
四萬歲	-11.7725
而且	-11.7725
驚覺	-11.7725
何假	-11.7725
棄背	-11.7725
薩埵	-11.7725
導化	-11.7727
更問	-11.7727
狂亂	-11.7727
有大名稱	-11.7727
折伏	-11.7727
勸進	-11.7727
考	-11.7728
薩婆若	-11.7728
百姓	-11.7728
可不聞	-11.7729
摩那	-11.7729
持刀	-11.7729
汝雖	-11.7729
二十億	-11.773
牝馬口海	-11.773
日暮	-11.7733
隱藏	-11.7734
參究	-11.7735
佛告目連	-11.7735
改悔	-11.7735
肌肉	-11.7736
不知所在	-11.7736
慈氏	-11.7736
不脫	-11.7736
重殃	-11.7738
初發阿耨多羅三藐三菩提心	-11.7739
入王舍城	-11.7739
自陷	-11.774
佛答	-11.774
諸小國王	-11.774
其中或有	-11.774
閻羅王	-11.7741
叮	-11.7741
時一	-11.7742
學堂	-11.7742
主宰	-11.7742
終竟	-11.7742
優陀耶	-11.7743
昏暗	-11.7745
大丈夫相	-11.7746
五戒十善	-11.7747
支體	-11.7747
有所得	-11.7748
隨意所欲	-11.7749
色心	-11.7749
勤力	-11.775
赫奕	-11.775
不倦	-11.7751
觀想	-11.7751
時彼女人	-11.7754
貪恚	-11.7755
不可移動	-11.7755
思議	-11.7755
與諸眷屬	-11.7755
何以故說	-11.7756
響應	-11.776
如此之事	-11.7761
力所加	-11.7762
傷殺	-11.7762
復有天子	-11.7762
再三	-11.7762
憶持	-11.7763
修諸功德	-11.7763
智明	-11.7763
飛空	-11.7765
對境	-11.7767
乘馬	-11.7769
無等等	-11.7771
禮畢	-11.7772
捨此身	-11.7772
世間無比	-11.7775
手擎	-11.7775
金器	-11.7775
捨俗	-11.7776
惟除	-11.7776
苦際	-11.7777
魔女	-11.7778
不忘失	-11.7778
善語	-11.7778
不能自出	-11.7778
未解	-11.778
長存	-11.778
高顯	-11.778
在山	-11.7781
世有佛	-11.7781
維衛	-11.7782
三自歸	-11.7782
得大利益	-11.7782
難測	-11.7783
於生死中	-11.7785
吐毒	-11.7785
淨戒為	-11.7786
山巖	-11.7787
誦持	-11.7787
為優婆塞	-11.7787
說此偈言	-11.779
憐愍一切	-11.7792
羅閱祇城	-11.7792
二種生死	-11.7796
可乎	-11.7796
生悔心	-11.7797
依教	-11.7799
神足變化	-11.7799
吾亦	-11.7799
生經	-11.7799
含毒	-11.7799
檀那	-11.7801
有現如	-11.7801
普光	-11.7801
聞說法	-11.7803
即各	-11.7804
莊校	-11.7807
有諸比丘	-11.7807
住於蘭若	-11.7808
卒至	-11.781
危難	-11.7811
平事	-11.7811
國名	-11.7813
若婆羅門	-11.7814
於時梵志	-11.7815
見道跡	-11.7815
千頭	-11.7815
欲入涅槃	-11.7817
受勅	-11.7817
向之	-11.7817
得定意	-11.7819
蘭若中	-11.782
青蓮花	-11.782
好色	-11.7822
言詞	-11.7822
供養三寶	-11.7822
濟之	-11.7823
今經	-11.7824
諸釋童子	-11.7825
如日月	-11.7826
染淨	-11.7826
入泥洹	-11.7827
於斯	-11.7829
彼是	-11.7832
光明普照	-11.7832
降伏諸魔	-11.7833
善女	-11.7835
度生死海	-11.7836
謂眾生	-11.7837
未詳	-11.7838
迦維羅衛國	-11.7839
一切大地	-11.7839
甘露藥	-11.7842
鮮白	-11.7844
燋然	-11.7844
心得自在	-11.7846
普令	-11.7847
形類	-11.7849
二空	-11.785
招禍	-11.785
空定	-11.7852
斯皆	-11.7852
鹿言	-11.7853
願滿足	-11.7855
千二百五十比丘	-11.7855
理智	-11.7856
此是滅	-11.7858
咸言	-11.7858
善生女	-11.7859
有大智慧	-11.7859
識別	-11.786
便微笑	-11.7861
曾見	-11.7861
不輕	-11.7862
語其夫	-11.7862
青蓮華	-11.7863
別去	-11.7867
五日	-11.7868
五百世	-11.7868
聽我說	-11.7869
周行	-11.7869
叉手白佛	-11.7869
佛世尊所	-11.7871
異相	-11.7871
道業	-11.7871
汝等輩	-11.7871
頭痛	-11.7872
授彼	-11.7873
或說	-11.7874
挽弓	-11.7874
古佛	-11.7876
將是	-11.7877
故有此	-11.7879
當供養	-11.7879
界內	-11.7881
不歡	-11.7883
智印	-11.7884
不貪著	-11.7885
如是等事	-11.7886
澡洗	-11.7886
淨因	-11.7886
而當不	-11.7888
或起	-11.7888
快樂無極	-11.7889
本因	-11.7889
手搏	-11.789
不等	-11.7892
無悋	-11.7892
食果	-11.7894
常恐	-11.7894
持種種	-11.7894
於苦	-11.7895
而轉法輪	-11.7896
時優陀夷	-11.7896
若諸眾生	-11.7897
奔趣	-11.7897
畏死	-11.7899
為妃	-11.7899
釋童子	-11.79
不憚	-11.7901
臣吏	-11.7902
藏中	-11.7904
之所為	-11.7905
非機	-11.7909
一句義	-11.791
今亦如是	-11.7913
愚癡無智	-11.7913
生育	-11.7915
不能復	-11.7915
比丘白言	-11.7916
與夫人	-11.7916
心情	-11.7921
自毀	-11.7922
種種音樂	-11.7922
收取	-11.7926
真為	-11.7926
其頂	-11.7927
事畢	-11.7929
此實	-11.7931
適悅	-11.7931
不動搖	-11.7932
之所願	-11.7932
至他國	-11.7934
彼釋迦牟尼如來	-11.7935
利益一切	-11.7935
聞其聲	-11.7936
此誓	-11.7936
移動	-11.7936
多生	-11.7937
所處	-11.7939
道眼	-11.7939
更莫	-11.794
宜往	-11.794
雖爾	-11.7943
。』《	-11.7943
師子步	-11.7944
華實	-11.7946
滅相	-11.7947
不瞋	-11.7947
萬法唯	-11.7951
持律	-11.7953
染倒	-11.7954
是謂為	-11.7954
最第一者	-11.7955
其耶輸陀	-11.7955
然雖	-11.7956
所犯	-11.7956
受死	-11.796
內發	-11.7962
易得	-11.7962
亦言	-11.7963
何所求	-11.7963
汝寧	-11.7963
軍馬	-11.7967
萬六千	-11.7969
受性	-11.7972
復有無量百千	-11.7974
難化	-11.7976
無能勝	-11.7976
而未	-11.7976
是輩	-11.7978
反為	-11.7978
往取	-11.7979
亦常	-11.7979
十小劫	-11.7984
現在前	-11.7984
義邊	-11.7987
重復	-11.7988
如來藏	-11.799
是時車匿	-11.799
有罪	-11.799
歸向	-11.7991
所論	-11.7991
未熟	-11.7993
臨欲	-11.7994
勅之言	-11.7996
放汝	-11.7997
十度	-11.7998
稱說	-11.8
中外	-11.8005
性本	-11.8005
兵力	-11.8006
懷瞋恚	-11.8008
還本處	-11.8008
汝本	-11.8008
隨分	-11.8012
獨一	-11.8014
城裏	-11.8017
或從	-11.8019
託生	-11.8019
還相	-11.8019
無數世	-11.802
諸相師	-11.802
是能仁	-11.8026
正化	-11.8026
王令	-11.8027
所立	-11.8027
親見	-11.803
到一	-11.8033
普聞	-11.8034
會大眾	-11.8035
尋聲	-11.8035
不難	-11.8036
所說之法	-11.8037
智臣	-11.8037
是道無	-11.8038
願尊	-11.8039
尊重讚歎	-11.8043
之服	-11.8044
不知有身	-11.8044
所安	-11.8049
獨在	-11.8051
我等亦	-11.8051
見惑	-11.8053
得大菩提	-11.8057
乃致	-11.806
雖具	-11.8061
但云	-11.8062
不仁	-11.8062
何憂	-11.8062
占之	-11.8062
如來說法	-11.8063
大阿羅漢	-11.8064
巨億	-11.8065
十地菩薩	-11.8065
遍十方	-11.8066
心病	-11.8069
毘婆	-11.8069
一切諸世間	-11.807
四門	-11.8071
流離王	-11.8071
聞名	-11.8075
專一	-11.8076
三因緣	-11.8078
有財	-11.808
無性	-11.8082
本淨	-11.8082
往反	-11.8086
幻夢	-11.8087
淨不淨	-11.8087
便言	-11.8088
天華	-11.8093
不淨想	-11.8093
之像	-11.8098
不得解脫	-11.8102
一小兒	-11.8103
不與我	-11.8103
勅已	-11.8104
不能免	-11.8105
開意	-11.8105
比丘來	-11.8107
當護	-11.8111
虛心	-11.8111
熏成	-11.8114
在其前	-11.8118
穢行	-11.8118
明慧	-11.8118
恒在	-11.8121
猶故不	-11.8122
假如	-11.8123
至梵天	-11.8124
病難	-11.8124
莫有	-11.8128
波斯匿	-11.8128
出世間法	-11.8129
諸民眾	-11.8133
無障	-11.8134
眾苦惱	-11.8135
化自在天	-11.8135
救眾生	-11.8137
久矣	-11.8137
所聞法	-11.8142
能覺	-11.8142
勿以	-11.8144
及諸眾生	-11.8145
可惜	-11.8145
王使	-11.8146
吾家	-11.8146
如說	-11.8146
於人間	-11.8148
應化	-11.815
施惠	-11.8153
文陀	-11.8153
如電	-11.8154
受苦樂	-11.8158
正思惟	-11.8158
俗人	-11.8163
觀如來	-11.8165
得天眼	-11.8166
下來	-11.8167
㲲衣	-11.817
黑山	-11.817
父王所	-11.8179
不驚	-11.818
今者世尊	-11.8182
酷毒	-11.8183
以備	-11.8184
嚴整	-11.8185
中最	-11.8185
有佛世尊	-11.8186
而云	-11.8187
迎之	-11.8189
二偈	-11.8192
取著	-11.8194
達多	-11.8194
便至	-11.8194
或有人	-11.8195
火神	-11.82
淨佛土	-11.8201
向菩提樹	-11.8204
自纏	-11.8205
八事	-11.8205
具宣	-11.8207
降生	-11.8208
月光王	-11.8216
諸獼猴	-11.8219
彼已	-11.822
大龍	-11.8221
若實	-11.8222
華菓	-11.8224
足指	-11.8227
我行	-11.8228
今何所	-11.8233
共集會	-11.8233
已往	-11.8234
便持	-11.8234
不名為	-11.8239
決疑	-11.8241
看視	-11.8245
定住	-11.8246
天上世間	-11.8247
元為	-11.8247
且待	-11.8251
如是大王	-11.8252
我今於此	-11.8255
千二百五十	-11.8256
共鬪	-11.8258
斯苦	-11.8258
末法	-11.8259
以偈問	-11.826
妙德	-11.826
聞此法	-11.8261
無慚愧	-11.8261
宿有	-11.8262
聞正法	-11.8265
迷於	-11.8269
致死	-11.827
無言說	-11.827
如理	-11.8277
皆除	-11.8277
優鉢羅	-11.8282
世尊復說	-11.8284
手掌	-11.8285
教師	-11.8285
可恃怙	-11.8286
莫愁	-11.829
服者	-11.8291
我不用	-11.8294
又我	-11.8295
不真	-11.8296
就後世	-11.8296
第	-11.8298
拯	-11.8299
自然生	-11.8304
忍受	-11.8305
小國	-11.8305
功德無量	-11.8306
諸蟲	-11.8307
供養訖	-11.831
草鋪	-11.831
辭王	-11.8313
二法	-11.8314
便失	-11.8314
一切義	-11.8316
聞其言	-11.8318
馭	-11.8319
平等心	-11.832
日天子	-11.8321
大神	-11.8321
自體	-11.8323
況汝	-11.8325
此物	-11.8327
我當如是	-11.8328
縛染	-11.8333
暇	-11.8337
化樂天	-11.8338
正義	-11.8339
自調者	-11.834
既蒙	-11.8342
姓名	-11.8342
經說	-11.8346
無量億	-11.8346
衣毛	-11.8347
當住	-11.8348
根性	-11.835
罣礙	-11.8351
微妙音	-11.8353
大名稱	-11.8354
頭戴	-11.8355
罽賓	-11.8357
右遶	-11.8357
俱時	-11.8358
大憂愁	-11.8361
不依他	-11.8362
字為	-11.8364
一念不生	-11.8366
室內	-11.8371
貴族	-11.8373
嗜	-11.8377
益增	-11.8378
本非	-11.8381
如同	-11.8382
一切凡夫	-11.8382
不傾	-11.8384
智慧明	-11.8384
波離婆闍迦	-11.8386
有諸眾生	-11.8387
蓮華尊佛	-11.8387
從兜率下	-11.8388
善法堂	-11.8388
生信心	-11.8388
此園	-11.8389
其佛號	-11.8389
窓	-11.839
象馬牛羊	-11.839
受天快樂	-11.8391
又有種種妙	-11.8392
希奇	-11.8392
降怨王	-11.8393
問馭者言	-11.8393
阿耆達	-11.8395
東西馳走	-11.8395
吉義如來	-11.8395
】*【	-11.8395
牸象	-11.8396
耳璫	-11.8396
罽	-11.8397
無生滅	-11.8397
鐵丸	-11.8397
於其晨朝	-11.8397
慚恥	-11.8398
比丘謹慎樂	-11.8398
觀世音	-11.8398
懇惻	-11.8398
無遮會	-11.8398
湩	-11.8398
美妙聲等	-11.8399
常流	-11.8399
無涯	-11.8399
若我如是意滿	-11.8399
人亦如是	-11.8399
若男若女	-11.8399
執空	-11.8399
蔭覆	-11.8399
命在	-11.8399
越次取證	-11.84
尊榮豪貴	-11.84
何求	-11.84
十三者	-11.84
淚下如雨	-11.8401
迦陵頻伽	-11.8401
命令坐	-11.8401
軛	-11.8401
心善解脫	-11.8401
虛空印菩薩	-11.8401
最為上首	-11.8401
脛	-11.8402
眄	-11.8402
釘	-11.8402
復有二佛同號	-11.8402
於三乘中	-11.8402
優婁頻螺聚落	-11.8402
無數億那由他百千	-11.8402
此是菩薩希奇之事	-11.8402
童子在胎	-11.8403
經六帝釋滅	-11.8403
挺	-11.8403
恣情	-11.8403
不但今世	-11.8403
苦習盡道	-11.8403
臂頃	-11.8403
心懷喜悅	-11.8403
鈍弱	-11.8403
塜	-11.8404
臨命終時	-11.8404
蹤跡	-11.8404
還歸所止	-11.8404
錐	-11.8404
削	-11.8404
欝多羅	-11.8404
閱頭檀	-11.8404
寂寞	-11.8404
安處無為	-11.8405
清淨無瑕	-11.8405
八功德水	-11.8405
問訊起居	-11.8405
肅肅	-11.8405
阿脂王	-11.8405
欣踊	-11.8406
援	-11.8406
甚為希有	-11.8406
以是業緣	-11.8406
瞽	-11.8406
謁	-11.8406
迦毗羅	-11.8406
忠孝	-11.8406
難以	-11.8406
令不斷絕	-11.8406
衣毛為竪	-11.8406
從地獄出	-11.8406
如慧之所見	-11.8407
車𤦲	-11.8407
聽受妙法	-11.8407
蓐	-11.8407
分陀利華	-11.8408
始自	-11.8408
威儀禮節	-11.8408
心意開解	-11.8408
獼猴王	-11.8408
我亦當	-11.8408
蒲	-11.8408
欵	-11.8409
歡欣	-11.8409
娑訶佛剎	-11.8409
厨士	-11.8409
於當來世過一恒河沙數阿僧祇	-11.8409
豪姓	-11.841
在何許	-11.841
函	-11.841
八十由旬	-11.841
腋下	-11.841
伴黨	-11.8411
四天大王	-11.8411
末利夫人	-11.8411
捺	-11.8411
欺詐	-11.8411
跨	-11.8411
迷荒	-11.8412
人相具足	-11.8412
所造行	-11.8412
曼坻	-11.8413
錯謬	-11.8413
文句	-11.8413
尊者迦栴延	-11.8414
後宮婇女	-11.8414
灼	-11.8414
於一念中	-11.8414
波闍波提	-11.8414
世之希有	-11.8414
在於宮內	-11.8415
飛鳥走獸	-11.8415
吳月支優婆塞支謙譯	-11.8415
無所傷損	-11.8415
滿十月	-11.8415
身相端嚴	-11.8415
皺	-11.8415
貸	-11.8416
犍	-11.8416
慨	-11.8416
網縵	-11.8416
嚪婆羅	-11.8417
遠逝	-11.8417
強健	-11.8417
繫閉	-11.8417
烈	-11.8418
諸相具足	-11.8418
禾	-11.8418
脆	-11.8418
遙望	-11.8418
薄祐	-11.8419
叡	-11.8419
用求佛道	-11.8419
檢	-11.8419
慈悲喜捨	-11.8419
遊處	-11.842
擣	-11.842
中流	-11.842
積功累德	-11.842
敬諾	-11.8421
設見	-11.8421
附近	-11.8421
平等性智	-11.8421
求不得苦	-11.8421
大菩提心	-11.8421
灰河	-11.8421
於路	-11.8421
彌勒菩薩摩訶薩	-11.8421
刀兵	-11.8421
眠寐	-11.8421
人所不至	-11.8422
身昇虛空	-11.8422
師子遊戲	-11.8422
田宅	-11.8423
了不能得	-11.8423
勸諫	-11.8423
無有窮盡	-11.8424
齊平	-11.8424
爾時世尊有如是	-11.8424
不污	-11.8424
妙觀察智	-11.8424
形如	-11.8424
軌範	-11.8425
倉卒	-11.8425
與大比丘眾	-11.8425
波羅提木叉戒	-11.8426
卷第十二	-11.8426
第二禪	-11.8427
慘然	-11.8427
費	-11.8427
廣度一切	-11.8428
擾動	-11.8428
不平	-11.8428
禮儀	-11.8429
戈	-11.8429
三歎德結眾	-11.8429
眾德具足	-11.843
夫人曰	-11.843
紙	-11.843
經營	-11.8431
漂沒	-11.8431
富樓那	-11.8431
愚者所	-11.8432
拔劍	-11.8432
超過三界	-11.8433
自利利他	-11.8433
為其說法	-11.8433
閣道	-11.8433
爾為	-11.8434
乃往過去久遠世	-11.8434
奮迅	-11.8434
不善行	-11.8434
仞	-11.8434
陀樹下	-11.8434
俱胝	-11.8434
金鼓	-11.8434
眉間白毫	-11.8435
勤勞	-11.8435
䟦	-11.8436
最極	-11.8436
講論	-11.8436
往至其所	-11.8436
若有佛子	-11.8437
欠	-11.8438
三十二種	-11.8438
追悔	-11.8439
供辦	-11.8439
宗仰	-11.844
卷第十一	-11.8441
攝度	-11.8442
良久乃	-11.8442
下生人間	-11.8442
罷道	-11.8443
更不復受有	-11.8443
是處國王	-11.8443
多取	-11.8443
交流	-11.8444
依教奉行	-11.8444
懈廢	-11.8445
案行	-11.8445
家財	-11.8445
光顏	-11.8445
唯願仁者	-11.8446
逮阿耨多羅三藐三菩提	-11.8446
統攝	-11.8447
四威儀中	-11.8447
不應生	-11.8448
三叉	-11.8448
萬法聚	-11.8448
速出	-11.8449
換	-11.845
哀哉	-11.845
自共議言	-11.845
彼塔	-11.8451
戲論	-11.8452
所願成就	-11.8452
體中	-11.8452
自立	-11.8452
船舶	-11.8452
摧滅	-11.8452
阿羅漢道	-11.8453
時彼五人	-11.8453
法自在	-11.8454
非婆羅門	-11.8454
三輪體空	-11.8454
悉檀	-11.8454
假借	-11.8454
呵制	-11.8454
微供	-11.8455
得阿惟越致	-11.8455
三十三	-11.8455
閑靜處	-11.8455
遮止	-11.8456
成敗	-11.8457
牧人	-11.8457
法喜	-11.8457
福事	-11.8458
安布	-11.8459
福祐	-11.8459
群象	-11.8459
惠之	-11.8459
頭陀行	-11.846
不自勝	-11.846
勤苦行	-11.8461
終不能得	-11.8462
奉修	-11.8462
不可知	-11.8462
聞佛名	-11.8462
證理	-11.8462
作是念時	-11.8463
千劫	-11.8463
非世所	-11.8464
四十九	-11.8466
真善知識	-11.8466
漢言	-11.8466
破魔	-11.8466
須我	-11.8467
以杖	-11.8467
請佛供養	-11.8467
入於大海	-11.8468
侵奪	-11.8468
終不可	-11.8468
十二年中	-11.8469
無始來	-11.847
自在有力	-11.847
時彼童子	-11.8471
樂處	-11.8473
於佛邊	-11.8474
永離生死	-11.8474
亦復爾	-11.8474
自燒	-11.8475
汝等諸人	-11.8475
成事	-11.8476
悉現	-11.8476
宅主	-11.8477
以用布施	-11.8478
大目犍連	-11.8479
智光比丘	-11.8482
樹王下	-11.8483
自然有	-11.8483
毒飯	-11.8484
三摩	-11.8484
末句	-11.8485
別有一	-11.8485
聖慧	-11.8486
一切魔	-11.8486
負重	-11.8486
無數方便	-11.8487
億萬	-11.8488
天下人	-11.8489
大眾之中	-11.8489
不牢固	-11.8492
如前解	-11.8493
行水	-11.8494
月月	-11.8495
從我乞	-11.8496
不暇	-11.8496
輪相	-11.8496
無上覺	-11.8496
妙道	-11.8496
不自覺知	-11.8497
應儀	-11.8498
善賢	-11.8499
其神	-11.8501
他化自在天王	-11.8502
仁和	-11.8502
未得道者	-11.8502
如千日	-11.8506
纏繞	-11.8507
善哉仁者	-11.8507
其年	-11.8507
偈已	-11.8509
根本寂靜	-11.8509
得其便	-11.8509
累世	-11.851
於彼命終	-11.8511
度我	-11.8512
戲樂	-11.8512
淨草	-11.8513
相視	-11.8513
圓光	-11.8513
和同	-11.8513
於彼之時	-11.8514
覩斯	-11.8517
不退轉於阿耨多羅三藐三菩提	-11.8517
勿妄	-11.852
能違逆	-11.852
如花	-11.8521
處處皆	-11.8524
於眾中	-11.8524
二儀	-11.8524
年幼	-11.8525
生天者	-11.8526
沙門法	-11.8527
除却	-11.8532
知身	-11.8532
種種業	-11.8533
無難	-11.8533
大施主	-11.8536
取薪	-11.8539
為王者	-11.8539
審知	-11.854
垂死	-11.8542
習善	-11.8542
五指	-11.8543
生死因	-11.8543
何可貪	-11.8544
大劫中	-11.8545
自鳴	-11.8545
昇虛空	-11.8546
其第一	-11.8546
八萬諸天	-11.8548
十善業	-11.8549
魔言	-11.855
乃至成佛	-11.855
諸弟子等	-11.8552
觀諸眾生	-11.8553
梵聲	-11.8553
天鼓	-11.8553
積久	-11.8554
為說經法	-11.8555
亦復不能	-11.8556
捨位	-11.8557
道說	-11.8557
宿業	-11.8559
擎持	-11.856
妙光	-11.8561
割身肉	-11.8561
輕舉	-11.8565
半國	-11.8565
身瘡	-11.8566
種種香	-11.8567
內宮	-11.8567
舍衛國中	-11.8567
知他心	-11.8567
顛倒染	-11.8567
痛哉	-11.8568
寶光	-11.8569
四鉢	-11.8572
信財	-11.8572
受果報	-11.8574
華敷	-11.8574
進前	-11.8576
四非常	-11.8577
悉皆具足	-11.8578
金象	-11.858
如聚沫	-11.858
善吉	-11.858
如牛王	-11.858
蛇毒	-11.8581
詣菩提場	-11.8583
雨種種	-11.8585
便將	-11.8585
母右脇	-11.8585
隨之	-11.8589
己者	-11.859
太子見已	-11.8593
即皆	-11.8594
父母師長	-11.8595
起信	-11.8598
像如	-11.8599
自分	-11.8599
根隨	-11.86
逆流	-11.8601
而得出家	-11.8601
為報恩	-11.8603
無數諸天	-11.8604
日日如是	-11.861
故以為	-11.8613
國法	-11.8615
何國	-11.8615
根栽	-11.8616
迷真	-11.8617
皆悉成就	-11.8617
罪畢	-11.8619
是故今者	-11.8624
其華	-11.8624
聞佛教	-11.8624
往請	-11.8627
惡相	-11.8627
遊止	-11.8632
成一切種智	-11.8633
聞經	-11.8636
如是眾苦	-11.8636
為上首	-11.8637
頭首	-11.8638
第一夫人	-11.8638
如法治化	-11.8639
一切三昧	-11.8639
斷見	-11.864
何功德	-11.8641
照于	-11.8641
長成	-11.8642
欲證	-11.8643
佛及眾僧	-11.8644
眾味	-11.8645
廣長	-11.8654
年既	-11.8654
復以偈答	-11.8654
離身	-11.8654
龍華	-11.8654
二萬夫人	-11.8655
自在天子	-11.8656
一科	-11.8658
謂呼	-11.8658
八苦	-11.8659
如秋	-11.866
通稱	-11.866
濟命	-11.8664
聞此已	-11.8664
象寶	-11.8665
汝勿	-11.8668
覆上	-11.8668
使我得	-11.8671
授其	-11.8672
爾時眾會	-11.8673
十餘	-11.8673
六識	-11.8673
生悔恨	-11.8674
死法	-11.8675
夫欲	-11.8675
詣門	-11.8675
親近善知識	-11.8675
門人	-11.8676
皆成就	-11.8677
充飽	-11.8677
心所念	-11.8677
一朝	-11.8678
普雨	-11.8678
如芥子	-11.8681
佛知其	-11.8681
此是何	-11.8685
歸無常	-11.8685
出家學	-11.8686
盡諸漏	-11.8687
未曾有也	-11.8687
憐愛	-11.8689
弘法	-11.8695
無瑕	-11.8696
即詣佛所	-11.8696
違背	-11.8697
宿造何	-11.8698
本寂	-11.8701
乘騎	-11.8702
畏怖	-11.8703
一匝	-11.8704
智德	-11.8704
得見諦	-11.8705
雖有此	-11.8706
長老優陀夷	-11.8706
侍佛	-11.8706
實說	-11.8708
涼冷	-11.8711
未到	-11.8711
憂怖	-11.8713
教使	-11.8713
恚害	-11.8714
從王乞	-11.8715
不憶	-11.8715
七十二	-11.8716
不復現	-11.8717
到王所	-11.8717
垢濁	-11.872
好喜	-11.8722
可怪	-11.8724
諸縛	-11.8727
皆悉歡喜	-11.8731
妻子眷屬	-11.8732
身口意行	-11.8733
常受	-11.8734
自悔	-11.8735
分身	-11.8736
頭破	-11.8736
或住	-11.8744
能降	-11.8746
心思	-11.8746
有何異	-11.875
詣王所	-11.8752
重任	-11.8756
而不能得	-11.8758
履行	-11.8758
毛竪	-11.8759
造此	-11.8761
之壽	-11.8762
諸妓女	-11.8763
巳盡	-11.8771
畜生中	-11.8773
持應器	-11.8773
一婆羅門	-11.8775
本從	-11.8778
羅闍	-11.878
被毒	-11.8784
獲安	-11.8794
施因	-11.8794
能消	-11.8799
般涅槃已	-11.8801
心定	-11.8801
終至	-11.8803
得財	-11.8804
或復無	-11.8804
如忉利天	-11.8804
以與之	-11.8809
修布施	-11.8809
慈念	-11.8813
度量	-11.8813
而得解脫	-11.8813
經義	-11.8816
唯有如來	-11.8817
故云清淨	-11.8821
入山中	-11.8821
覆其上	-11.8822
往至世尊所	-11.8823
所生子	-11.8824
化去	-11.8828
罪根	-11.8828
如來今日	-11.8831
甚可畏	-11.8832
來請	-11.8832
明相	-11.8833
小子	-11.8833
不復還	-11.8834
知恩	-11.8835
有八萬四千	-11.8842
誨示	-11.8843
生死之苦	-11.8844
柔軟音	-11.8844
大尊	-11.8845
遺法	-11.8846
觀自身	-11.8846
則可	-11.8849
老年	-11.8853
未然	-11.8854
甚深難	-11.8857
別更	-11.8857
悉滿	-11.8858
欲乞	-11.8859
遠涉	-11.8859
生滅法	-11.886
昔時	-11.8861
自傷	-11.8861
初生時	-11.8863
授我記	-11.8864
八日	-11.8865
勝智	-11.8869
留住	-11.887
入無為	-11.8873
於母	-11.8876
六子	-11.8877
何時當	-11.8881
本所造	-11.8881
甚妙	-11.8881
較之	-11.8882
醜形	-11.8882
無數億	-11.8883
其價	-11.8884
)。』「	-11.8886
示汝	-11.8886
若有下	-11.8891
覺支	-11.8893
蘭若修證	-11.8893
得大利	-11.8895
一切樹木	-11.8898
無量劫中	-11.8902
莫為	-11.8903
無時不	-11.8904
世尊復告	-11.8904
普皆	-11.8909
妻者	-11.8915
世尊所說	-11.8916
非父母	-11.8919
不見有	-11.8921
二兄	-11.8921
佛剎中	-11.8925
佛舍利	-11.8925
少比丘	-11.8928
虛寂	-11.8929
即便往詣	-11.8929
速滅	-11.893
云何而得	-11.893
全身	-11.893
狂醉	-11.8931
之垢	-11.8934
世無常	-11.8935
妻曰	-11.8935
一義	-11.8937
經書	-11.8937
阿毘曇	-11.894
指前	-11.8945
蹈地	-11.8945
若有眾生於	-11.8946
聖財	-11.8947
答之	-11.8947
尚不能	-11.8947
喪身命	-11.8948
二萬歲	-11.895
除眾	-11.8952
是故比丘	-11.8956
自在遊戲	-11.8958
長久	-11.8959
大水	-11.8971
得度者	-11.8973
善相	-11.8973
妙聲	-11.8973
百兩金	-11.8975
共坐	-11.8975
得漏盡	-11.8976
色想	-11.8977
口唱	-11.8978
諸邪見	-11.8981
無有一	-11.8984
苦受	-11.8987
無由得	-11.8987
生喜樂	-11.8987
多億那由他百千	-11.8988
成就大悲	-11.8988
標舉	-11.899
不欺	-11.8994
此花	-11.9
往其所	-11.9006
悉具	-11.9009
啟受	-11.9012
智辯	-11.9016
自然而有	-11.902
則必	-11.902
今若不	-11.9021
於道路	-11.9022
自壞	-11.9026
純善	-11.9027
無休息	-11.9027
失念	-11.9028
聞月	-11.903
以表	-11.903
我今已得	-11.903
清淨布施	-11.9031
仙歎	-11.9031
白象寶	-11.9032
憂陀答	-11.9035
可修	-11.9037
婆羅門女	-11.9037
還所止	-11.9038
汝必	-11.9041
與禽獸	-11.9041
尊位	-11.9041
喜踊躍	-11.9044
毀罵	-11.9045
水底	-11.9048
勝福	-11.9051
護心	-11.9052
以指	-11.9054
謂青	-11.9056
乾草	-11.9058
無邊劫	-11.906
廣演	-11.9062
狀似	-11.9062
於一面	-11.9062
祥瑞	-11.9067
時彼大臣	-11.9067
來趣	-11.9068
耳聞	-11.9071
為伴	-11.9071
餓鬼畜生	-11.9072
極多	-11.9072
無亂	-11.9077
眾珍寶	-11.9078
光焰	-11.9082
有損	-11.9083
歸宮	-11.909
俱梨迦	-11.9091
入林	-11.9094
手臂	-11.9094
師事	-11.9098
憂懼	-11.9101
所愛樂	-11.9101
諸法相	-11.9102
於水中	-11.9103
彼三十三天	-11.9103
那婆	-11.9107
街	-11.9107
逮菩提已	-11.9108
攝其心	-11.911
坑中	-11.9113
在人中	-11.9115
觀諸法	-11.9118
未脫	-11.9123
遠聲	-11.9123
法皆空	-11.9125
香水灑地	-11.9125
在於虛空	-11.9127
善御	-11.913
唯是	-11.913
靜室	-11.9131
爾時天子	-11.9132
癡迷	-11.9133
應度	-11.9134
法鼓	-11.9134
須闍提	-11.9134
水神	-11.9137
徐步	-11.9138
皆云	-11.9139
己自	-11.9142
無戒	-11.9145
擁	-11.9147
眉間	-11.9148
勅語	-11.9151
岐	-11.9152
玩	-11.9152
無慈	-11.9154
隨自福力	-11.9154
利箭	-11.9157
均提	-11.9158
猶人	-11.9159
金繩交絡垂金鈴鐸	-11.9159
光明遍照	-11.916
閡	-11.916
觸處遍灑旃檀香水	-11.916
覩世	-11.916
腋	-11.9161
八萬歲	-11.9161
舶	-11.9161
世間愚人亦復如是	-11.9162
緣一覺	-11.9162
行精進	-11.9162
無熱	-11.9162
正念正知	-11.9163
肋	-11.9163
呵梨勒	-11.9163
豐盈	-11.9163
不知有	-11.9163
阿耨大泉	-11.9164
一切結使	-11.9164
或有諸鬼	-11.9164
禱祀	-11.9165
言其	-11.9165
分半	-11.9165
搥	-11.9165
天主帝釋	-11.9165
日在東方	-11.9165
來到此	-11.9165
販	-11.9166
佛在舍衛國	-11.9166
勝力兵眾	-11.9166
威德力故	-11.9166
舁	-11.9167
今現我父	-11.9167
屎	-11.9167
產一男兒	-11.9167
攬	-11.9167
自今以後	-11.9167
眾好	-11.9168
其樹所出四色妙衣	-11.9168
我逮菩提時	-11.9168
淡	-11.9168
兜率宮	-11.9168
𣫍	-11.9169
深邃	-11.9169
若好若醜	-11.917
汝母	-11.917
閤	-11.917
童男童女	-11.917
村邑	-11.917
是事已	-11.917
跋陀羅迦卑梨耶比丘尼	-11.917
尋究本末	-11.9171
汲汲	-11.9171
如月盛滿	-11.9171
月八日	-11.9171
愕	-11.9171
若在家者	-11.9171
詣向佛所	-11.9172
諸漏已盡	-11.9172
鹿野苑	-11.9172
何因何緣	-11.9172
從何所來	-11.9172
施佛及僧	-11.9173
統四天下	-11.9173
燕	-11.9173
事三火	-11.9173
轉無上法輪	-11.9173
攢	-11.9173
瞎	-11.9173
戰掉	-11.9173
轉大法輪	-11.9173
饒財多寶	-11.9173
群僚	-11.9173
奉諸所安	-11.9174
香爐	-11.9174
麋鹿	-11.9174
側塞	-11.9174
及諸臣民	-11.9174
䏶	-11.9174
無飢渴	-11.9175
諸眾僧	-11.9175
形骸	-11.9175
相反	-11.9175
狀貌	-11.9175
馱	-11.9175
諸大弟子	-11.9175
過去之世	-11.9175
兜率天宮	-11.9175
猨猴	-11.9176
畵	-11.9176
甚眾多	-11.9176
元魏涼州沙門慧覺等在高昌郡譯	-11.9176
胡跪合掌	-11.9176
万	-11.9176
丁	-11.9176
憐愍我故	-11.9177
悔過自責	-11.9177
鵒	-11.9177
萬歲世人中	-11.9177
彈指之頃	-11.9177
安隱豐樂	-11.9177
提婆大婆羅門	-11.9177
具滿	-11.9178
幻術	-11.9178
西沒	-11.9178
自致得佛	-11.9178
摧壞	-11.9178
尼拘陀樹下	-11.9178
陶	-11.9179
抗	-11.9179
辭謝	-11.9179
聽在道次	-11.9179
一時佛遊	-11.9179
鐘	-11.9179
及其眷屬	-11.918
三福地	-11.918
妖蠱	-11.918
能止	-11.918
見一餓鬼	-11.918
坏	-11.918
蚖	-11.918
拘物頭華	-11.918
俱發聲	-11.918
昔佛在舍衛國	-11.918
無垢德明王如來	-11.918
為作救護	-11.918
以水灑	-11.9181
發道意	-11.9181
須曼那	-11.9181
佩	-11.9181
可喜端正	-11.9181
梯	-11.9181
傅	-11.9181
椎胸	-11.9181
受大快樂	-11.9182
興隆	-11.9182
噎	-11.9182
毀敗	-11.9182
倍於前	-11.9183
惕	-11.9183
發如是願	-11.9183
本起經	-11.9183
尸利苾提	-11.9183
悕求	-11.9183
褐	-11.9183
快士	-11.9183
餘命無幾	-11.9183
愛染	-11.9184
勝義無倒	-11.9184
浮彌	-11.9184
墮於惡道	-11.9185
五跋陀羅	-11.9185
西天譯經三藏朝	-11.9185
坏器	-11.9185
犯罪	-11.9185
兵馬	-11.9185
黑繩	-11.9186
外寇	-11.9186
釋童摩尼婁陀	-11.9186
欽仰	-11.9186
老死患	-11.9186
汝不知耶	-11.9187
何緣乃爾	-11.9187
鴦仇摩羅	-11.9187
墮餓鬼中	-11.9187
悟無生忍	-11.9188
餌	-11.9188
色聲香味細滑之法	-11.9188
摧破	-11.9188
院	-11.9188
宇	-11.9189
得全濟	-11.9189
波頭摩華	-11.9189
財富無量	-11.9189
三脫門	-11.9189
無常對至	-11.9189
長幼	-11.9189
度化	-11.9189
威猛	-11.9189
復經數日	-11.919
不可壞	-11.919
管	-11.919
鞭打	-11.919
呼嗟	-11.919
滌	-11.919
阿脩羅眾	-11.919
召喚	-11.919
諸善普	-11.919
吾命	-11.919
羯磨	-11.9191
西天譯經三藏朝散大夫試鴻臚少卿	-11.9191
其家大富	-11.9191
求於解脫	-11.9191
著袈裟衣	-11.9191
稀	-11.9191
四寸	-11.9192
為眾生說法	-11.9192
不起法忍	-11.9192
生於人中	-11.9192
聖旨	-11.9192
威容	-11.9192
脾	-11.9192
從定起	-11.9192
格	-11.9193
燿	-11.9193
伺候	-11.9193
毘羅摩	-11.9193
得除愈	-11.9193
遷轉	-11.9193
娑羅窟	-11.9193
九品	-11.9194
受地獄苦	-11.9194
健夫	-11.9194
左面	-11.9194
誰復	-11.9195
痛不可言	-11.9195
臘	-11.9195
若彼天男及天女等思其	-11.9195
無有限量	-11.9195
萬物無常	-11.9195
制心	-11.9196
模	-11.9196
濁穢	-11.9196
節節	-11.9196
唼	-11.9196
晝日	-11.9197
晝夜不息	-11.9197
作比丘尼	-11.9197
五百群鴈	-11.9198
胸臆	-11.9198
作是願已	-11.9198
面像	-11.9198
受持讀習	-11.9198
周法界	-11.9198
貪等	-11.9199
涉歷	-11.9199
作如是聲	-11.9199
雄猛	-11.9199
作此念已	-11.9199
馳騁	-11.9199
往至其家	-11.92
稠林	-11.92
為漏義	-11.92
嚴治	-11.92
香瓔	-11.9201
疆	-11.9201
共詣	-11.9201
羞耻	-11.9201
猶如赤子	-11.9201
眷屬圍遶	-11.9202
遇善知識	-11.9202
芳	-11.9202
以法合喻	-11.9203
獲福無量	-11.9203
故從遠來	-11.9203
另	-11.9203
妙巧	-11.9203
澡盤	-11.9203
不能自安	-11.9204
猛獸	-11.9204
屠割	-11.9204
扶持	-11.9204
福祚	-11.9204
暴雨	-11.9205
無有及者	-11.9205
浮雲	-11.9205
即如其言	-11.9205
嚴備	-11.9205
利樂有情	-11.9205
藍弗	-11.9206
根莖	-11.9206
重賞	-11.9206
四念處	-11.9207
自餘眾生	-11.9207
強敵	-11.9207
禮節	-11.9207
入三摩地	-11.9208
大光普照	-11.9208
歡喜丸	-11.9208
閉目	-11.9209
掘地	-11.921
銷除	-11.921
剃除	-11.921
混	-11.921
地祇	-11.921
盲冥眾生	-11.921
乘白象	-11.9211
妬忌	-11.9211
赤眼	-11.9211
悉達多太子	-11.9211
歸依處	-11.9212
威嚴	-11.9212
有一女人	-11.9212
更歷	-11.9213
禪悅	-11.9213
天帝復	-11.9213
汝是何人	-11.9213
萬人俱	-11.9213
末度	-11.9214
深淺	-11.9214
往到其所	-11.9215
飽食	-11.9215
所獲功德	-11.9216
大梵王	-11.9216
氣息	-11.9216
益濟	-11.9217
宿舊	-11.9217
獲安樂	-11.9218
是大有情	-11.9218
謙卑	-11.9219
採寶	-11.922
如之何	-11.922
速證菩提	-11.922
分段生死	-11.9221
澡瓶	-11.9222
深生歡喜	-11.9222
如真金	-11.9223
外異學	-11.9224
為誰	-11.9224
正等覺	-11.9224
志存	-11.9224
乃至略說	-11.9224
永劫	-11.9225
難陀龍王	-11.9225
慈忍	-11.9225
勝義寂靜	-11.9226
毛羽	-11.9226
中夭	-11.9227
這裏	-11.9228
本緣	-11.9228
捐捨	-11.9228
十四者	-11.9228
陳說	-11.9229
馳趣	-11.9229
眾具	-11.923
我自知	-11.923
利鈍	-11.923
修建	-11.9231
心生恐怖	-11.9231
爾許	-11.9234
象兵	-11.9234
諫喻	-11.9236
融通	-11.9237
聲聞僧	-11.9237
毗舍	-11.9238
雷聲	-11.9238
眾寶莊嚴	-11.9238
乳哺力	-11.9239
惺	-11.9239
厭離生死	-11.9239
謙敬	-11.924
道諦	-11.924
不暫停	-11.9241
無一眾生	-11.9241
從何處	-11.9241
利樂眾生	-11.9242
分與	-11.9242
無故	-11.9244
理事無礙	-11.9244
其菩薩母	-11.9246
取食之	-11.9246
詣佛樹	-11.9248
六神通	-11.9248
入母胎	-11.9248
歸誠	-11.9248
為他所	-11.9249
猶如一子	-11.9249
起大慈悲	-11.925
諸過患	-11.925
至我所	-11.925
天像	-11.9252
罽賓國	-11.9252
頓息	-11.9253
其心平等	-11.9254
有一辟支佛	-11.9255
退墮	-11.9255
彼等諸人	-11.9255
以是三昧	-11.9256
終歸	-11.926
魔界	-11.9261
小王	-11.9261
以正法治國	-11.9262
無變	-11.9263
到家	-11.9264
是故當離	-11.9264
瞻覩	-11.9266
惑障	-11.9266
普集	-11.9267
與長行	-11.9267
盲父母言	-11.9268
鐵師	-11.9269
緣則有	-11.9269
作此觀	-11.927
?』『	-11.9271
至他方	-11.9272
奉上世尊	-11.9273
識想	-11.9273
怪而問	-11.9274
自墜	-11.9274
不能得前	-11.9275
淨施	-11.9275
恒沙劫	-11.9275
索食	-11.9276
共論	-11.9276
兒息	-11.9277
甚痛	-11.9277
不用處	-11.9278
聖達	-11.9278
果熟	-11.9279
即以偈頌	-11.9279
興顯	-11.9279
受是苦	-11.9279
既見太子	-11.9282
逐之	-11.9284
無悋惜	-11.9285
水泡	-11.9286
殺父	-11.9289
為友	-11.9289
所修學	-11.929
提婆達多是	-11.929
如來功德	-11.9292
未始	-11.9292
恐失	-11.9292
閻浮金	-11.9293
引喻	-11.9294
相逢	-11.9294
供養佛已	-11.9294
屈意	-11.9296
床下	-11.9296
以獻	-11.9299
求無上正真之道	-11.9299
全命	-11.9302
諸邪	-11.9302
在佛前	-11.9302
誨人	-11.9303
好華	-11.9303
有一商主	-11.9304
於諸善法	-11.9304
汝等各	-11.9305
皆悉無常	-11.9305
無所染	-11.9305
便自思惟	-11.9305
二利之	-11.9306
願乞	-11.9307
威相	-11.9307
引導眾生	-11.931
海岸	-11.9313
學習	-11.9313
欲入大海	-11.9314
微聲	-11.9314
而來至此	-11.9314
其理	-11.9315
無為法	-11.9316
能遮	-11.9316
爾時會中	-11.9316
獻供	-11.9317
惡賊	-11.932
彌勒等	-11.932
釋族	-11.9321
妙㲲	-11.9322
身心清淨	-11.9325
塵穢	-11.9328
更加	-11.9328
菴羅	-11.9334
自覺知	-11.9334
不審世尊	-11.9335
難可得	-11.9336
求大乘	-11.9336
槍亦	-11.9336
五百眷屬	-11.9337
於天人	-11.9338
廣設	-11.9339
限量	-11.9341
蒙光	-11.9342
因何	-11.9344
龍身	-11.9344
轉盛	-11.9345
開合	-11.9345
乃至梵天	-11.9348
言誓	-11.9349
三子	-11.935
發此心	-11.935
群眾	-11.935
魔怨	-11.9351
六天	-11.9351
為諸大眾	-11.9351
不能制	-11.9352
眾智	-11.9353
大殿	-11.9353
汝何不	-11.9359
大慧	-11.936
愍彼	-11.9363
沙門婆羅門等	-11.9363
以大慈悲	-11.9363
今宜	-11.9364
諸聲聞	-11.9364
塵世	-11.9364
論義	-11.9365
上服	-11.9367
不聞正法	-11.9369
獲果報	-11.9371
眾庶	-11.9372
應爾	-11.9372
奉佛教	-11.9373
得如願	-11.9374
牛頭	-11.9375
次雨	-11.9376
證甘露	-11.9378
皆散	-11.9379
尋光	-11.9379
如日照	-11.9379
異處	-11.9379
愛流	-11.938
意志	-11.9381
且自	-11.9383
德香	-11.9384
不自由	-11.9385
育養	-11.9385
最勝尊	-11.9386
遙見如來	-11.9386
於諸世間	-11.9388
詣世尊所	-11.9389
生於人間	-11.9389
未幾	-11.9391
入火	-11.9391
以求解脫	-11.9391
樂禪	-11.9391
生死之中	-11.9392
直前	-11.9394
宜出家	-11.9395
所染著	-11.9396
心如是念	-11.9397
如其言	-11.94
王子名曰	-11.9403
領納	-11.9405
如是下結	-11.9408
尚未	-11.9408
以身肉	-11.9409
不辦	-11.9409
神通遊戲	-11.9411
懷愁憂	-11.9412
遍於	-11.9414
知解	-11.9414
唯識	-11.9414
譬如人	-11.9416
捕得	-11.9417
既被	-11.9418
奉侍	-11.9418
乃至今日	-11.942
至閻浮提	-11.942
自識	-11.9422
▁『	-11.9423
億歲	-11.9423
追念	-11.9423
爾時彼王	-11.9427
捨而去	-11.9428
先聖	-11.9429
能救	-11.9429
道側	-11.943
諸惡人	-11.9432
車上	-11.9434
皆集	-11.9435
自性清淨	-11.9437
生兜率天	-11.9438
難止	-11.9438
王宜	-11.9439
無所知	-11.9439
厭捨	-11.944
名色滅	-11.9443
上岸	-11.9443
千世界	-11.9446
三賢	-11.9446
形影	-11.9448
心無所著	-11.9448
無益於	-11.9449
婬意	-11.9456
我終不	-11.9456
善報	-11.9458
赴火	-11.9459
忍行	-11.946
央	-11.9463
最為勝	-11.9463
墮水	-11.9465
未除	-11.9465
覩如來	-11.9466
罪垢	-11.9466
往見佛	-11.9468
中箭	-11.9468
道路長	-11.9472
無一可	-11.9475
失火	-11.9478
之根本	-11.9478
甚好	-11.9481
如影	-11.9481
生天上人中	-11.9483
病瘦	-11.9483
一切皆悉	-11.9484
訖了	-11.9487
同事	-11.949
萬種	-11.949
不能害	-11.9492
恒共	-11.9492
淨處	-11.9492
遙觀	-11.9492
如是行者	-11.9493
意止	-11.9497
千數	-11.9498
不慕	-11.9499
當證菩提	-11.95
無識	-11.95
五百比丘尼	-11.95
應機	-11.9502
闍耶	-11.9502
食息	-11.9502
募人	-11.9503
一戒	-11.9504
令汝得	-11.9504
五百賈客	-11.9505
勸之	-11.9507
有佛性	-11.951
愚者自	-11.9511
形壽	-11.9514
道而行	-11.9515
本誓願	-11.9515
遊戲神通	-11.9517
知親	-11.9518
意專	-11.9518
為師者	-11.9519
死後	-11.9521
目無所見	-11.9521
最下	-11.9523
我當為汝	-11.9523
成道果	-11.9523
轉復	-11.9523
臥於	-11.9525
下文	-11.9529
門前	-11.953
非人所	-11.9532
無私	-11.9535
更不復受	-11.9539
分離	-11.9542
諸苦行	-11.9545
經論	-11.9546
無怯弱	-11.9546
戒品	-11.9549
寧捨	-11.9549
更來	-11.955
生憍慢	-11.9551
造行	-11.9551
先到	-11.9554
大火坑	-11.9556
等同	-11.9559
種種餚饍	-11.956
力無畏	-11.956
十里	-11.9562
以惠	-11.9566
敬佛	-11.957
印三昧	-11.9572
所宜	-11.9574
迴顧	-11.9575
入山林	-11.9575
再不	-11.9576
佛法眾	-11.9576
無差	-11.9577
解脫法	-11.9578
不怖	-11.9582
越度	-11.9584
立行	-11.9584
功德具足	-11.9584
被他	-11.9585
是事故	-11.9586
何瑞相	-11.9587
求離	-11.9587
心堅	-11.9587
入宮內	-11.9587
無上世尊	-11.9592
令我心	-11.9594
應病	-11.9595
御車	-11.9596
放我	-11.9597
九十六種	-11.9598
言音	-11.9601
不濟	-11.9601
騰虛	-11.9602
巳來	-11.9603
尼拘陀	-11.9607
深著	-11.9609
悉空	-11.961
變壞	-11.9611
其情	-11.9612
設飲食	-11.9616
邪念	-11.9616
觀察眾生	-11.9616
寧知	-11.962
索之	-11.9622
或聞	-11.9623
其壽	-11.9624
為呪願	-11.9626
其文	-11.9627
相合	-11.9628
少食	-11.9629
香木	-11.9632
不能度	-11.9633
於王宮	-11.9635
無漏智	-11.9636
罪惡	-11.9636
儻有	-11.9637
福力王	-11.9641
召諸	-11.9642
果成	-11.9642
至七日	-11.9644
懷害	-11.9646
瞋恚心	-11.9647
次應	-11.9647
唯獨	-11.9649
慧度	-11.9651
作如是思惟	-11.9654
至其所	-11.9658
是名真	-11.9658
以偈告	-11.9658
又覩	-11.9658
眾穢	-11.9659
尊重恭敬	-11.966
無去來	-11.9663
逆罪	-11.9664
甚清淨	-11.9665
害彼	-11.9665
方宜	-11.9667
終無有	-11.967
救我	-11.9671
於後夜	-11.9671
房中	-11.9674
既覩	-11.9675
恩慈	-11.9677
生死原	-11.968
頻婆娑羅	-11.968
有差別	-11.9682
頂禮菩薩	-11.9684
諸患	-11.9684
共白	-11.9685
流聞	-11.9685
諸天及人	-11.9688
不勞	-11.9689
出於世間	-11.9691
如上所	-11.9695
過去世中	-11.9697
為自利	-11.9699
一一菩薩	-11.9699
不缺漏	-11.9701
濟活	-11.9702
及諸釋種	-11.9712
獨覺	-11.9713
一箭	-11.9713
騰空	-11.9714
既證	-11.9715
深妙法	-11.9716
竟已	-11.9718
不覺知	-11.972
語諸臣	-11.9721
纔起心時	-11.9723
方處	-11.9729
遭苦	-11.9729
恚癡	-11.9731
了知真實	-11.9735
飢寒	-11.9736
重障	-11.974
方更	-11.9744
有一如來	-11.9744
安庠而	-11.9744
香汁	-11.9747
拘羅	-11.9747
五百梵志	-11.9749
夭	-11.9752
投水	-11.9753
種種衣服	-11.9753
王益	-11.9754
學聲聞	-11.9755
於其上	-11.9757
皆得解脫	-11.976
既空	-11.9766
專正	-11.9767
惡子	-11.9767
謂高	-11.9768
手摩	-11.9769
路傍	-11.9773
調伏心	-11.9774
多財	-11.9776
十使	-11.9777
塔所	-11.9778
極清淨	-11.9778
勝益	-11.978
二卷	-11.9782
其妃	-11.9784
四十五	-11.9785
得法眼	-11.9785
此女人	-11.9786
諸乞兒	-11.9786
無有人能	-11.9786
持戒如是	-11.9788
持五戒	-11.9788
為死所	-11.979
諸聖眾	-11.9791
承命	-11.9793
必使	-11.9796
彼婬女	-11.9796
身皮	-11.9797
唯佛能	-11.9798
纏身	-11.9798
諸禪定	-11.9802
鐵城	-11.9803
相娛	-11.9804
草中	-11.981
大光	-11.9811
開口	-11.9817
難勝	-11.9818
欲渡	-11.9819
八人	-11.982
業因緣	-11.9828
窮苦	-11.9828
藥治	-11.983
一掬	-11.9831
常勝	-11.9835
家家	-11.9835
願聞	-11.9835
往告	-11.9836
數量	-11.9836
未曾得	-11.9838
大梵天	-11.984
得渡	-11.9842
無過者	-11.9846
如蛇	-11.9848
無損減	-11.9848
水月	-11.9849
諸趣	-11.9853
有神力	-11.9853
五通仙	-11.9854
一切世界	-11.9855
污染	-11.9857
出現世間	-11.9861
先知	-11.9861
一把	-11.9862
一恒河沙等	-11.9862
枯樹	-11.9865
皆得生天	-11.9866
護眾生	-11.9868
解脫果	-11.9871
哀念	-11.9871
毒心	-11.9873
大力士	-11.9879
驚疑	-11.988
此園中	-11.9886
羅城	-11.9887
尚無	-11.9888
得利養	-11.9892
乘虛	-11.9893
滅亡	-11.9897
佛告彼	-11.99
成菩提道	-11.9902
如蓮花	-11.9903
正語	-11.9907
事情	-11.9907
王子名	-11.9908
已壞	-11.9914
雖微	-11.9914
息惡	-11.9915
修施行	-11.9916
然非	-11.9918
大兄	-11.9918
明耀	-11.9921
如是等諸	-11.9922
爾時寶藏如來	-11.9922
垂欲	-11.9922
顯發	-11.9923
為毒	-11.9924
全體	-11.9926
善色	-11.9929
仁王	-11.9929
無量淨	-11.9929
池岸	-11.9929
無所堪	-11.9931
勿為	-11.9934
乘載	-11.9937
歎菩薩	-11.9938
是故知	-11.9939
勤修習	-11.9939
雨七寶	-11.9943
悉分別	-11.9945
遂增	-11.9946
服甘露	-11.9946
海潮	-11.9948
身骨	-11.9948
相害	-11.9953
雖知	-11.9954
伽耶	-11.9955
噉肉	-11.9955
七寶蓋	-11.9956
佛在迦毘羅衛國尼拘	-11.9957
採花	-11.9957
何在	-11.9959
開示分別	-11.9959
婆羅門語	-11.9959
諸釋子	-11.9962
不久當得	-11.9962
佛在世	-11.9965
所好	-11.9965
功德莊嚴	-11.9966
高德	-11.9969
華蓋	-11.9969
大驚	-11.997
縱有	-11.997
其餘諸	-11.9973
紫磨	-11.9974
錠光佛	-11.9974
胡	-11.9975
郭	-11.9978
為利他	-11.9978
與大比丘	-11.9979
遣一人	-11.9979
無與等	-11.9983
祚	-11.9984
止住其中	-11.9984
四道	-11.9984
慈尊	-11.9984
是故當晝夜	-11.9986
非聖	-11.9987
住菩薩前	-11.9988
從生已來	-11.9988
動一山中	-11.9988
凝	-11.9989
親近供養	-11.999
一牛	-11.9992
槃頭末帝	-11.9992
造四寶塔	-11.9993
羅邏	-11.9993
福梨伽	-11.9994
尊音王	-11.9995
我適	-11.9995
四意斷	-11.9995
柄	-11.9995
彼等螺髻梵志	-11.9996
頭面禮足在一面坐	-11.9996
譚	-11.9996
枷鏁	-11.9997
嬭	-11.9997
嘿然	-11.9997
千輻輪	-11.9997
召諸相師	-11.9997
月上如來	-11.9998
喘	-11.9998
入無餘涅槃	-11.9998
殿堂樓閣	-11.9998
鉀	-11.9998
復更如是思惟	-11.9998
地大動	-11.9998
乞丐	-11.9999
服此	-11.9999
𤛓	-11.9999
夫欲安命	-11.9999
嵐毘尼園	-11.9999
聞王勅已	-11.9999
蘇陀味	-11.9999
阿輸迦	-12
須陀素彌	-12
甚為奇特	-12
聾者得聽	-12
潰	-12
首陀會天	-12.0001
恭恪	-12.0001
拘睒彌	-12.0001
軒	-12.0001
父母之恩	-12.0001
壽百年	-12.0002
諧	-12.0002
目揵羅夜那	-12.0002
冤對	-12.0003
清涼甘美	-12.0003
摩訶波闍波提憍曇彌	-12.0003
治罰	-12.0004
香稻	-12.0004
見佛光相	-12.0004
赤真珠	-12.0004
揵	-12.0004
默然不答	-12.0004
三十二大人之相	-12.0004
傴	-12.0004
綖	-12.0004
加趺	-12.0004
匐	-12.0005
禱祠	-12.0005
陶家	-12.0005
霍	-12.0005
幹	-12.0005
貯	-12.0005
坐菩提座	-12.0005
自唱言	-12.0005
十六不獲一	-12.0005
專意不散	-12.0005
燒眾名香	-12.0005
怡悅	-12.0005
栖	-12.0006
三耶三佛	-12.0006
投巖	-12.0006
或被	-12.0006
我許	-12.0006
以佛眼觀	-12.0006
拷	-12.0006
行澡水	-12.0007
甫	-12.0007
忉利諸天	-12.0007
琦	-12.0007
是謂名苦際	-12.0007
周匝千由旬	-12.0007
遠塵離垢得法眼淨	-12.0007
遽	-12.0007
行四等心	-12.0008
盡其壽命	-12.0008
脚蹋	-12.0008
洽	-12.0008
從遠方來	-12.0008
睹	-12.0008
從今已往	-12.0008
搥胸	-12.0008
揣食	-12.0008
阿耨大龍王	-12.0008
法衣在身	-12.0009
彌蘭	-12.0009
姝	-12.0009
鹿母夫人	-12.0009
鐸	-12.0009
煑	-12.0009
慟	-12.0009
鞍馬	-12.0009
非空非海中	-12.0009
譖	-12.0009
拘離多童子	-12.001
熙怡	-12.001
喜慶	-12.001
雜譬喻經	-12.001
刑戮	-12.0011
鵄	-12.0011
滑澤	-12.0011
轍	-12.0011
大如毛髮	-12.0011
寶體佛	-12.0011
譏呵	-12.0011
嵐	-12.0011
光音天	-12.0011
曩昔	-12.0011
頷	-12.0012
烹	-12.0012
羂	-12.0012
庶民	-12.0012
履屣	-12.0012
命終已後	-12.0012
辜	-12.0013
拘離多波離婆闍迦	-12.0013
護持正法	-12.0013
羸弱	-12.0013
善權方便	-12.0013
妻妾	-12.0013
廣照后	-12.0013
蝕	-12.0014
鉾	-12.0014
碎壞	-12.0014
唐捐	-12.0014
盤結	-12.0014
左手執	-12.0014
諸方便	-12.0014
國城妻子	-12.0014
摩訶目揵連	-12.0014
禮佛而退	-12.0015
校	-12.0015
以慈悲力	-12.0015
才辯	-12.0015
難陀比丘是也	-12.0015
巢	-12.0015
安明山	-12.0016
笞	-12.0016
歸依三寶	-12.0016
端直	-12.0016
五欲自娛	-12.0016
俯仰	-12.0016
不可久保	-12.0016
受於快樂	-12.0016
乾薪	-12.0017
食摶	-12.0017
為作歸依	-12.0017
防衛	-12.0017
富蘭迦葉	-12.0017
心中所念	-12.0017
此諸人等	-12.0017
交橫	-12.0018
杅	-12.0018
恒伽達	-12.0018
竝	-12.0018
▁18	-12.0018
取莊嚴佛土	-12.0018
黎	-12.0018
蹙	-12.0018
取淨佛土	-12.0018
不應住止阿蘭若處	-12.0019
隨心所	-12.0019
東面	-12.0019
彼波羅㮈城	-12.0019
優陀羅	-12.0019
役使	-12.0019
蒙賴	-12.0019
敬戴	-12.002
汝今應	-12.002
征伐	-12.002
正解脫義	-12.002
膏油	-12.002
精勤修習	-12.002
即召相師	-12.0021
有想無想	-12.0021
不可計數	-12.0021
透	-12.0021
無上正等正覺	-12.0021
復因何	-12.0021
豪強	-12.0021
阿儞嚕馱	-12.0021
猿	-12.0022
奴婢僕使	-12.0022
林藪	-12.0022
躁	-12.0022
婆奴	-12.0022
如赤銅	-12.0022
凋落	-12.0022
腸	-12.0022
張弓	-12.0023
平等無二	-12.0023
誣	-12.0023
唯願大師	-12.0023
慢惰	-12.0023
無數千歲	-12.0023
諧偶	-12.0023
裝嚴	-12.0023
懃加	-12.0023
報其恩	-12.0023
澡手	-12.0023
拘耶尼	-12.0023
瑩	-12.0024
阿斯陀仙	-12.0024
恣汝所	-12.0024
南贍部洲	-12.0024
訾	-12.0024
阿闍	-12.0024
輕蔑	-12.0025
𤚲	-12.0025
沈溺	-12.0025
門監	-12.0025
長行云	-12.0025
級	-12.0025
及五百羅漢	-12.0026
如幻如化	-12.0026
不信三寶	-12.0026
仁惠	-12.0026
千輻輪相	-12.0026
彼不能乘	-12.0026
身諸毛孔	-12.0026
煥	-12.0026
暴露	-12.0026
紀	-12.0026
孤窮	-12.0026
幟	-12.0026
佛與眾僧	-12.0026
心生苦惱	-12.0027
踊悅	-12.0027
榮祿	-12.0027
坐師子座	-12.0027
三界唯心	-12.0027
彌勒是也	-12.0028
有何差別	-12.0028
祇樹	-12.0028
執劍	-12.0028
以何方便	-12.0028
縛束	-12.0028
朝露	-12.0028
穩	-12.0029
太官	-12.0029
是處王者	-12.0029
閙	-12.0029
憂愁苦惱	-12.0029
水陸	-12.003
俄	-12.003
熊	-12.003
八十里	-12.003
有德之人	-12.003
尒時	-12.003
破碎	-12.0031
聽我所說	-12.0031
准長行	-12.0031
為水所漂	-12.0031
距	-12.0031
五百婇女	-12.0031
耶賒	-12.0031
坐其下	-12.0031
常坐不臥	-12.0031
襲	-12.0031
足蹈	-12.0032
云何為八	-12.0032
精氣	-12.0032
菩提涅槃	-12.0032
為母說法	-12.0032
涉路	-12.0032
鹵	-12.0032
洞然	-12.0033
暢達	-12.0033
超絕	-12.0033
来	-12.0033
不善根	-12.0033
冤家	-12.0034
貧富	-12.0034
瞋恚熾盛	-12.0034
清涼池	-12.0034
鑑	-12.0035
有為法	-12.0035
雲中	-12.0035
解說書寫	-12.0035
方便善巧	-12.0036
鑊湯	-12.0037
諸毒	-12.0037
六牙白象	-12.0037
資益	-12.0038
專注	-12.0038
蕩盡	-12.0038
不能自持	-12.0038
榮位	-12.0038
於彼法中	-12.0039
黑風	-12.0039
疲惓	-12.0039
平治	-12.0039
卷第十三	-12.004
有七七	-12.0041
車兵	-12.0041
觸惱	-12.0041
比丘攝意	-12.0042
柰	-12.0042
三僧祇劫	-12.0042
多足	-12.0042
身放光明	-12.0043
身死神	-12.0043
弊魔	-12.0044
諸有眾生	-12.0044
埵	-12.0044
眼睛	-12.0045
獘	-12.0045
從地而	-12.0046
唯願尊者	-12.0046
現大神通	-12.0047
徒步	-12.0047
善能修習	-12.0048
作此念	-12.0048
全彰	-12.0049
欲求何等	-12.0049
出生死海	-12.0049
菩提妙果	-12.005
住三乘	-12.005
行菩提行時	-12.005
顯露	-12.005
四大海水	-12.0051
好衣	-12.0051
解見前文	-12.0051
壽八萬歲	-12.0051
未嘗不	-12.0052
一念相應	-12.0053
寶網	-12.0054
皆成沙門	-12.0054
勝劣	-12.0054
責數	-12.0054
為聖王	-12.0054
智光當知	-12.0055
師友	-12.0055
永不退轉	-12.0055
憂思	-12.0055
提頭賴吒	-12.0055
斷截	-12.0055
圓頓	-12.0056
五通仙人	-12.0056
最為苦	-12.0057
祠天	-12.0057
無所有處	-12.0058
令心歡喜	-12.0058
讚美	-12.0058
其鼻	-12.0058
卿自	-12.0059
所生之	-12.0059
修行十善	-12.006
危命	-12.006
復有四法	-12.0061
不可破壞	-12.0061
令得安樂	-12.0061
其義云何	-12.0063
功力	-12.0063
有限	-12.0065
自開	-12.0066
歸功於	-12.0066
。』」「『	-12.0066
深泥	-12.0067
臭惡	-12.0067
怨對	-12.0068
更不造	-12.0069
而彼童子	-12.007
諸大臣等	-12.007
大鐵圍山	-12.007
駮足王	-12.007
生餓鬼中	-12.0071
相助	-12.0071
聖明	-12.0072
徧滿	-12.0073
第二夫人	-12.0075
與諸大眾	-12.0076
而語王言	-12.0077
攝取眾生	-12.0077
安眠	-12.0078
隨其所欲	-12.0078
民物	-12.008
所不能及	-12.0081
追隨	-12.0081
毀形	-12.0081
鉢羅	-12.0081
今得生天	-12.0082
博達	-12.0083
履地	-12.0083
警覺	-12.0084
心地觀	-12.0084
住虛空中	-12.0085
水灌	-12.0085
名曰迦葉	-12.0085
我當與汝	-12.0085
決志	-12.0086
知我意	-12.0086
尋逐	-12.0086
之至也	-12.0087
殃禍	-12.0087
叵得	-12.0088
猶不免	-12.0088
聞法歡喜	-12.0088
具一切智	-12.0088
如赤子	-12.0089
死盡	-12.0089
與諸天眾	-12.009
事狀	-12.0091
食其肉	-12.0093
踰前	-12.0093
歸恩於佛	-12.0093
相好光明	-12.0093
諫曉	-12.0094
阿闍黎	-12.0094
苾芻應	-12.0094
美果	-12.0095
舍利弗比丘	-12.0095
精明	-12.0095
餚饍飲食	-12.0095
悲歎	-12.0095
決斷	-12.0098
到彼處	-12.0098
願賜	-12.0098
在地獄	-12.01
好喜布施	-12.0103
一一身	-12.0103
時尸利毱多	-12.0104
四天王天	-12.0105
凡僧	-12.0105
寂靜之處	-12.0105
請如來	-12.0106
白淨飯王言	-12.0106
侍送	-12.0108
安般	-12.0109
四布	-12.0109
何以故爾	-12.0109
深惟	-12.011
既見世尊	-12.011
何處得	-12.0111
致敬	-12.0113
亡國	-12.0114
見佛光明	-12.0114
後悔	-12.0115
應為王者	-12.0115
剃除鬚髮著	-12.0115
作不善	-12.0119
加被	-12.0119
皆得道迹	-12.0119
之所依	-12.0119
滿面	-12.0119
五百乘車	-12.012
數月	-12.0121
發趣	-12.0122
不瞬	-12.0122
即化作	-12.0123
以如是故	-12.0124
說頌曰	-12.0124
水漿	-12.0125
只在	-12.0125
說如是法	-12.0127
儻能	-12.0129
彼諸天眾	-12.0129
燒滅	-12.0129
水漂	-12.013
在於樹下	-12.013
總稱	-12.0132
次至	-12.0133
優波離童子	-12.0133
真誠	-12.0133
上族	-12.0134
華梵	-12.0134
此段	-12.0134
七反	-12.0135
離染	-12.0135
客比丘	-12.0135
千二百	-12.0138
助成	-12.0138
無漏法	-12.0139
遠照	-12.014
彰名	-12.0141
惱患	-12.0142
此樹下	-12.0143
供侍	-12.0143
魔害	-12.0144
無不具足	-12.0144
一億	-12.0144
數息	-12.0145
充塞	-12.0145
之文	-12.0146
無上大乘	-12.0146
正諦	-12.0146
實際	-12.0146
梵本	-12.0147
無擇	-12.0148
大豆	-12.0148
時王夫人	-12.0148
在先	-12.0148
乞得	-12.015
能獲	-12.0151
分齊	-12.0152
大教	-12.0152
正應	-12.0152
如轉輪王	-12.0153
剎利王	-12.0155
葢為	-12.0156
得阿那含	-12.0156
截流	-12.0158
難提	-12.0158
見有一人	-12.0159
住壽	-12.016
究盡	-12.016
尊德	-12.0162
修菩薩道	-12.0162
勸請如來	-12.0163
邊城	-12.0163
互為	-12.0164
善別	-12.0165
五百力士	-12.0166
能摧	-12.0167
鼓聲	-12.0169
財主	-12.0169
華臺	-12.017
本師	-12.0171
前却	-12.0173
眾垢	-12.0173
慳心	-12.0174
到其家	-12.0175
令得安隱	-12.0175
聽受法	-12.0175
多聞比丘	-12.0177
為眾所	-12.0179
華樹	-12.0181
耶輸陀善男子	-12.0181
顧謂	-12.0183
迴意	-12.0184
此二句	-12.0185
蓋事	-12.0187
得五神通	-12.0187
下一句	-12.0187
計度	-12.0187
罪重	-12.0188
皆阿羅漢	-12.0188
乳汁	-12.0188
最為上	-12.019
花蓋	-12.0191
此袈裟	-12.0192
更雨	-12.0194
投火坑	-12.0194
修善業	-12.0195
却在一面	-12.0195
無礙大悲	-12.0196
以神足力	-12.0199
一切諸煩惱	-12.0199
求乞	-12.0199
母子俱	-12.0199
說此言	-12.0201
供養善根	-12.0203
亦不樂	-12.0203
朽故	-12.0204
時諸大臣	-12.0205
二十九者	-12.0205
希有事	-12.0205
取鉢	-12.0208
順法	-12.0208
還于	-12.0209
時憍陳如	-12.0209
圓成	-12.021
唯垂	-12.0211
多年	-12.0211
或似	-12.0212
誑我	-12.0213
寶海	-12.0215
勝他	-12.0215
其羅睺羅	-12.0217
唱令	-12.0219
入聖	-12.0222
遣使人	-12.0222
如斯事	-12.0223
躭著	-12.0224
弓刀	-12.0224
大苦惱	-12.0225
疋	-12.0228
覆障	-12.023
家事	-12.023
不露	-12.0234
大權	-12.0241
向佛說	-12.0242
不邪婬	-12.0243
同體	-12.0245
水側	-12.0246
車匿聞	-12.0249
世間凡夫	-12.025
御座	-12.0252
邪法	-12.0252
復前進	-12.0254
百喻	-12.0255
成一切智	-12.0255
餓死	-12.0257
賜與	-12.0257
作國王	-12.0258
欲度眾生	-12.0258
於是夫人	-12.0259
受痛	-12.026
僧事	-12.0261
越諸	-12.0262
欲噉	-12.0263
制意	-12.0265
經歷生死	-12.0265
攝授	-12.0266
共戰	-12.0266
勝光	-12.0266
未識	-12.0267
自專	-12.0267
所譽	-12.027
常思	-12.027
乃止	-12.027
在一處	-12.0272
清淨止息	-12.0272
視之無厭	-12.0272
莫憂	-12.0273
供養彼佛	-12.0273
毒惡	-12.0274
著五欲	-12.0275
所辦	-12.0275
聞此偈	-12.0276
百千由旬	-12.0276
名象	-12.0278
最安	-12.0281
無遺餘	-12.0282
答王	-12.0282
大動	-12.0283
不錯	-12.0284
諸釋種子	-12.0286
界上	-12.0291
三十四	-12.0293
光顯	-12.0294
善男下	-12.0295
清淨自性	-12.0296
於道中	-12.0297
亦不可得	-12.0297
流入	-12.0298
演出	-12.0299
毘耶離	-12.0302
喻涅槃	-12.0304
即化為	-12.0306
非沙門	-12.0309
貪王	-12.0312
延壽	-12.0313
水性	-12.0315
通知	-12.0315
乃至涅槃	-12.0315
不相違	-12.0317
癡愛	-12.0318
世尊默然	-12.0319
相對	-12.0319
一萬八千	-12.032
即菩提心	-12.0321
如舊	-12.0324
所傷	-12.0324
眾塵	-12.0326
說種種法	-12.0332
本智	-12.0332
說偈已	-12.0333
唯求	-12.0335
下垂	-12.0336
明曜	-12.0337
調度	-12.0339
孔雀王	-12.0341
吾父	-12.0341
馬車	-12.0341
生三十三天	-12.0342
於太子前	-12.0342
不充	-12.0342
香味	-12.0343
自害	-12.0343
大地主	-12.0344
復勅	-12.0344
我今實	-12.0345
四牙	-12.0346
食後	-12.0349
流汗	-12.0349
四流	-12.035
曾無	-12.035
見佛歡喜	-12.0351
種福	-12.0352
七覺	-12.0353
與爾	-12.0354
默然許	-12.0357
諸藏	-12.0361
德重	-12.0361
病愈	-12.0362
年高	-12.0362
是大丈夫	-12.0363
遠遊	-12.0363
轉成	-12.0364
好施	-12.0364
大呼	-12.0366
滿七日	-12.0366
無量德	-12.0367
師弟子	-12.0368
而為沙門	-12.0371
慈愍一切	-12.0372
得開解	-12.0375
次到	-12.038
為不善	-12.0381
[...]
