<unk>	0
<s>	0
</s>	0
)	-3.85593
(	-3.85839
之	-3.90852
也	-4.48187
以	-4.53417
而	-4.56757
為	-4.67889
則	-4.8086
者	-4.91977
)(	-5.10489
其	-5.16523
有	-5.28989
一	-5.39485
半	-5.48429
○	-5.52744
正	-5.5847
於	-5.5867
大	-5.66305
應	-5.66341
故	-5.6874
無	-5.69025
曰	-5.7091
全	-5.75818
與	-5.78956
不	-5.79819
此	-5.79988
樂	-5.83534
三	-5.86327
四	-5.87544
用	-5.94005
二	-5.97332
六	-6.01445
聲	-6.03751
言	-6.0444
皆	-6.0568
五	-6.06079
中	-6.0651
矣	-6.09864
是	-6.10844
拊	-6.13128
上	-6.14004
宫	-6.15828
至	-6.25004
亦	-6.25364
▁	-6.25398
和	-6.2582
得	-6.26279
南	-6.30918
人	-6.32021
自	-6.33025
在	-6.34106
謂	-6.35477
律	-6.36412
非	-6.36514
又	-6.37508
如	-6.38274
于	-6.38589
鼓	-6.40892
舞	-6.4105
合	-6.41358
下	-6.41383
數	-6.42954
黄鍾	-6.43088
搏牘	-6.43561
即	-6.43921
分	-6.43931
九	-6.44477
然	-6.45102
商	-6.45291
七	-6.47018
太	-6.48324
凡	-6.49213
歌	-6.49449
作	-6.50489
乃	-6.50939
所	-6.51151
羽	-6.52571
八	-6.53717
角	-6.55833
長	-6.58755
乎	-6.59571
生	-6.59836
鐘	-6.60662
黄	-6.61599
云	-6.63093
調	-6.63293
音	-6.64624
尺	-6.64971
焉	-6.6528
林	-6.67247
姑	-6.67707
今	-6.68898
所謂	-6.70522
夷	-6.70697
同	-6.7115
及	-6.74915
十	-6.76029
奏	-6.78763
子	-6.79075
禮	-6.79646
時	-6.79934
清	-6.81456
若	-6.81863
仲	-6.82463
當	-6.82571
夾	-6.82583
徴	-6.83053
本	-6.85417
可	-6.86826
法	-6.87312
成	-6.88141
姑洗	-6.88193
大吕	-6.88261
黄鐘	-6.88469
管	-6.88846
雖	-6.90133
所以	-6.90329
鍾	-6.90374
耳	-6.90977
或	-6.92016
謂之	-6.9267
後	-6.93362
爲	-6.94703
古	-6.96643
以為	-6.96717
徵	-6.97058
無射	-6.97441
必	-6.97998
蓋	-6.98473
夷則	-6.9881
周	-6.98911
而已	-6.98959
天	-7.00324
變	-7.01067
定	-7.02776
行	-7.03034
相	-7.03048
宮	-7.0425
先	-7.06617
琴	-7.07802
文	-7.07832
始	-7.08035
鼔	-7.08467
字	-7.08548
位	-7.09255
小	-7.09909
取	-7.10375
從	-7.10529
實	-7.11361
陽	-7.12458
王	-7.12463
㽔	-7.12516
南吕	-7.13512
方	-7.14103
論	-7.14194
臣	-7.14473
出	-7.15431
惟	-7.15518
按	-7.18982
名	-7.19289
知	-7.1955
曲	-7.19598
水	-7.20459
因	-7.20539
弦	-7.2089
事	-7.21034
已	-7.21475
林鍾	-7.21554
太簇	-7.21766
之樂	-7.2178
明	-7.21878
夫	-7.21886
工	-7.22405
者也	-7.23882
内	-7.24932
見	-7.24951
未	-7.25229
髙	-7.25987
各	-7.2617
制	-7.26177
盖	-7.26842
仲吕	-7.27099
象	-7.27626
應鍾	-7.27816
兩	-7.28242
十二	-7.28647
五聲	-7.28855
多	-7.28931
能	-7.28945
哉	-7.30567
􁕔	-7.31407
猶	-7.31435
詩	-7.31476
既	-7.31788
葢	-7.3271
㽔賔	-7.33073
絃	-7.33341
是也	-7.33717
通	-7.33858
隂	-7.34168
物	-7.3424
瑟	-7.34241
日	-7.34615
書	-7.34774
餘	-7.34972
變半	-7.35034
等	-7.35177
夾鍾	-7.36019
前	-7.36701
道	-7.36736
徳	-7.37443
外	-7.37898
節	-7.38655
祭	-7.39181
主	-7.39278
􁕡	-7.39288
何	-7.40002
笙	-7.40086
起	-7.40208
金	-7.40464
之法	-7.41948
使	-7.42969
諸	-7.43157
終	-7.44667
林鐘	-7.45479
易	-7.4639
之數	-7.46767
豈	-7.46857
蕤賔	-7.47275
器	-7.47303
止	-7.47312
次	-7.47321
地	-7.47528
太蔟	-7.47787
氣	-7.4804
復	-7.48454
絲	-7.48713
欲	-7.49557
令	-7.5037
入	-7.51042
重	-7.5105
不可	-7.51581
禮樂	-7.51776
􁕧	-7.5204
立	-7.52356
武	-7.52928
十二律	-7.54143
􁕗	-7.54237
平	-7.54526
唐	-7.55288
義	-7.55295
漢	-7.56048
異	-7.56265
善	-7.5726
民	-7.57311
其聲	-7.57454
右	-7.58464
去	-7.58498
三分	-7.59531
然則	-7.59543
○○	-7.59595
宜	-7.60683
反	-7.60784
度	-7.61227
而不	-7.61415
均	-7.61684
君	-7.62776
擊	-7.62783
由	-7.62789
夾鐘	-7.6284
應鐘	-7.63239
德	-7.63283
孔	-7.63625
不能	-7.6399
初	-7.64424
安	-7.64711
間	-7.65054
圖	-7.6577
命	-7.6618
為宫	-7.66468
且	-7.66486
微	-7.67579
但	-7.67837
歟	-7.68044
遂	-7.68143
心	-7.68213
學	-7.68254
設	-7.68391
居	-7.68672
笛	-7.68711
元	-7.69396
故也	-7.69399
木	-7.69451
國	-7.69894
萬	-7.70017
常	-7.70292
齊	-7.70611
世	-7.70676
黍	-7.70681
磬	-7.70805
説	-7.70987
之聲	-7.71078
之説	-7.7137
吹	-7.7153
志	-7.72826
舊	-7.73098
□	-7.73448
極	-7.73636
百	-7.73938
土	-7.74006
賔	-7.74146
舉	-7.74718
章	-7.7497
公	-7.75
置	-7.75445
依	-7.75735
經	-7.76013
積	-7.76089
變宫	-7.76336
帝	-7.765
容	-7.76552
官	-7.76902
神	-7.77169
求	-7.77396
比	-7.77855
倍	-7.78233
轉	-7.78886
將	-7.78921
引	-7.79029
東	-7.79097
忽	-7.79435
並	-7.79649
廣	-7.80012
獨	-7.80421
不同	-7.80576
意	-7.80635
稱	-7.8065
蕤	-7.8066
盡	-7.80919
理	-7.81292
每	-7.81781
不用	-7.81819
足	-7.82243
升	-7.82501
不知	-7.82637
氏	-7.82807
寸	-7.8316
少	-7.83208
造	-7.83336
備	-7.83886
山	-7.84451
譜	-7.849
夏	-7.85218
尚	-7.85736
動	-7.86122
天子	-7.86244
宋	-7.86707
天下	-7.8671
至於	-7.86733
加	-7.87367
我	-7.87644
首	-7.87956
興	-7.88021
又曰	-7.88278
别	-7.88444
諸侯	-7.88836
周禮	-7.89023
侯	-7.89469
指	-7.89568
體	-7.89715
量	-7.8972
律吕	-7.89946
如此	-7.89948
聞	-7.90374
教	-7.90672
月	-7.91258
西	-7.91487
縣	-7.91488
雅	-7.91514
士	-7.9169
類	-7.92183
進	-7.9237
吕	-7.92562
師	-7.92684
釐	-7.92955
高	-7.9304
簫	-7.9309
觀	-7.93438
考	-7.93548
君子	-7.93607
射	-7.93728
風	-7.93816
琴瑟	-7.93914
石	-7.94253
然後	-7.94575
圓	-7.94888
固	-7.94993
發	-7.95439
言之	-7.95444
屬	-7.95641
祀	-7.96183
古人	-7.96271
天地	-7.96726
治	-7.97126
具	-7.97711
二變	-7.97858
之舞	-7.9807
八音	-7.98104
辰	-7.98257
竹	-7.98455
而後	-7.98631
濁	-7.98681
列	-7.98902
近	-7.99862
下生	-8.00354
更	-8.00453
彼	-8.00646
嘗	-8.00788
據	-8.01031
服	-8.01119
後世	-8.01164
九寸	-8.01397
傳	-8.0172
語	-8.01735
新	-8.01795
特	-8.01892
為角	-8.02637
黃	-8.02791
詳	-8.02966
左	-8.03198
之制	-8.03456
推	-8.03491
用之	-8.0354
邪	-8.03545
陳	-8.0366
辨	-8.03813
玉	-8.03982
處	-8.04038
深	-8.04658
也故	-8.0469
執	-8.05345
五音	-8.05525
問	-8.0562
俱	-8.05865
北	-8.06624
率	-8.06658
可以	-8.07272
順	-8.07383
聖	-8.07598
致	-8.07637
􁕤	-8.07821
歸	-8.07825
樂之	-8.08405
徑	-8.08902
細	-8.0903
序	-8.09227
獻	-8.09284
毫	-8.0939
詔	-8.09902
籥	-8.10407
晉	-8.10487
為商	-8.10563
􁕨	-8.10817
朝	-8.10827
七聲	-8.10871
徽	-8.10877
正聲	-8.10932
仁	-8.10934
聽	-8.1106
配	-8.11256
載	-8.11263
雅樂	-8.11399
句	-8.11579
俗	-8.12296
清濁	-8.12761
來	-8.13019
六律	-8.1302
親	-8.13278
政	-8.13318
樂器	-8.13639
年	-8.13673
闕	-8.13832
宗	-8.14369
篇	-8.147
尊	-8.14783
四分	-8.14845
故曰	-8.14879
隂陽	-8.15285
改	-8.15697
之間	-8.15783
為羽	-8.16262
好	-8.16611
難	-8.1713
勾	-8.17158
家	-8.1723
一尺	-8.17315
之音	-8.17383
亂	-8.17472
共	-8.17501
聖人	-8.17713
之所	-8.18033
張	-8.18269
伯	-8.18311
散	-8.18761
上生	-8.18839
降	-8.18919
說	-8.19486
爾	-8.19928
正律	-8.20073
鳴	-8.20265
形	-8.20276
兮	-8.20298
身	-8.20886
鐘磬	-8.20922
準	-8.21071
兼	-8.21389
清聲	-8.21494
唯	-8.2167
衆	-8.22237
卷	-8.22254
馬	-8.22762
黄清	-8.23027
直	-8.23301
之意	-8.23336
毎	-8.23386
而為	-8.24394
議	-8.24484
短	-8.24859
手	-8.24869
者以	-8.25062
食	-8.25136
銅	-8.25156
誤	-8.25166
廟	-8.25191
著	-8.25205
受	-8.25708
九分	-8.25911
􁕣	-8.25986
上下	-8.26041
二十	-8.2615
是以	-8.26205
之理	-8.26526
耶	-8.26574
記	-8.26867
部	-8.27029
彈	-8.27065
門	-8.27109
古樂	-8.27685
㑹	-8.27819
流	-8.28077
適	-8.28083
亡	-8.28236
陰	-8.28455
􁕙	-8.28573
孔子	-8.28746
千	-8.28833
之於	-8.29204
總	-8.29319
逺	-8.29403
之禮	-8.29467
盛	-8.29472
仍	-8.29915
過	-8.29968
而無	-8.30043
斯	-8.30099
似	-8.30245
失	-8.3025
周官	-8.30324
七音	-8.30387
筭	-8.30919
信	-8.31455
大呂	-8.31527
之中	-8.31742
中吕	-8.31966
相生	-8.3219
􁕜	-8.32307
四清	-8.32333
原	-8.32456
七調	-8.3258
變徴	-8.32658
况	-8.32838
思	-8.32933
開	-8.33063
火	-8.33178
春	-8.33833
色	-8.33978
古之	-8.33995
宫調	-8.34039
十六	-8.34049
八寸	-8.34499
功	-8.34567
梁	-8.34971
算	-8.3515
一聲	-8.35197
存	-8.3535
末	-8.35831
真	-8.36103
秋	-8.36386
姑應	-8.36409
昭	-8.37158
為實以十億乗之以十億	-8.37461
甚	-8.37471
不得	-8.37861
衣	-8.37937
一分	-8.38066
南呂	-8.38416
隨	-8.38774
中聲	-8.38806
誠	-8.39444
宣	-8.39834
賓	-8.39886
大司樂	-8.39921
不過	-8.40106
半律	-8.4029
厯	-8.40446
干	-8.40524
一人	-8.4081
習	-8.40828
低	-8.41017
解	-8.41069
南工	-8.41174
疑	-8.41195
皆以	-8.41375
化	-8.41377
第	-8.41593
不足	-8.41631
面	-8.4171
敬	-8.41721
口	-8.41725
辭	-8.41762
祖	-8.41898
萬物	-8.41992
要	-8.42447
大夫	-8.4285
修	-8.42946
切	-8.43056
建	-8.43315
胡	-8.43432
識	-8.43489
厚	-8.43517
古者	-8.43953
之實	-8.43976
就	-8.44199
浪	-8.44243
􁕠	-8.44292
案	-8.44363
差	-8.44372
二分	-8.44424
為之	-8.44563
掌	-8.44622
先王	-8.4463
呂	-8.44644
之義	-8.44712
施	-8.44715
校	-8.45192
為徴	-8.45238
强	-8.4535
精	-8.45526
雜	-8.45763
六寸	-8.464
旋	-8.46515
燕	-8.46819
離	-8.4699
廢	-8.47048
代	-8.47074
龍	-8.47154
計	-8.47249
製	-8.47579
􁕱	-8.47941
是故	-8.48212
皇	-8.48322
㣲	-8.49002
姑和	-8.49069
注	-8.49167
再	-8.49183
達	-8.49496
正太中	-8.49626
畢	-8.49835
南和	-8.49863
圍	-8.50017
一寸	-8.50098
簡	-8.50199
之類	-8.5021
祭祀	-8.50285
林和	-8.50316
除	-8.50386
對	-8.50638
宗廟	-8.50664
隋	-8.50775
美	-8.50848
林尺	-8.50883
註	-8.50992
貴	-8.51361
自然	-8.51392
以下	-8.51542
大小	-8.51909
之道	-8.52397
享	-8.52756
其數	-8.52859
塤	-8.52928
車	-8.52935
女	-8.53089
魏	-8.53097
最	-8.53644
乾	-8.53647
有竒	-8.53731
益	-8.53963
乙	-8.5414
述	-8.54157
莫	-8.54217
為徵	-8.54877
旋宫	-8.54888
􁕭	-8.54958
魯	-8.5512
之位	-8.55712
始於	-8.55947
不及	-8.56067
儀	-8.5635
出於	-8.56376
不言	-8.56502
六十	-8.56604
端	-8.56682
三絃	-8.56804
長短	-8.56806
窮	-8.57017
之後	-8.57084
典	-8.57161
卒	-8.57199
黄帝	-8.57335
朱子	-8.57547
宫聲	-8.57686
十三	-8.577
作樂	-8.57773
午	-8.57843
尤	-8.57889
白	-8.58036
十一	-8.58041
秦	-8.58141
之事	-8.58289
舜	-8.5831
亥	-8.58317
退	-8.58332
者皆	-8.58727
須	-8.58877
參	-8.58883
又以	-8.59066
仲呂	-8.59176
表	-8.59251
永	-8.59394
史	-8.59493
蕤賓	-8.59633
便	-8.59726
二千九百三十萬	-8.59826
十徽	-8.60219
􁕥	-8.60471
情	-8.6048
也其	-8.60631
起調	-8.607
恐	-8.60705
統	-8.60746
南應	-8.60809
交	-8.61024
太清	-8.61056
饗	-8.61231
足以	-8.61533
聖朝	-8.62058
已上	-8.6232
五十	-8.62393
以其	-8.62439
衡	-8.62451
一絃	-8.62676
越	-8.62678
只	-8.62688
州	-8.62931
錢	-8.62951
審	-8.62971
簧	-8.63206
六十四	-8.6324
編	-8.63317
變徵	-8.63372
其音	-8.63386
何以	-8.63591
亦有	-8.63737
之時	-8.63759
減	-8.63818
承	-8.63833
韶	-8.63901
第二	-8.63961
權	-8.63999
申	-8.64039
空	-8.64467
目	-8.64687
今按	-8.64696
匏	-8.64807
也然	-8.64879
先儒	-8.65422
淫	-8.65429
李	-8.65443
乘	-8.65467
今之	-8.65468
并	-8.65476
其所	-8.65504
琵琶	-8.65513
第一	-8.65728
之律	-8.65922
斗	-8.6599
姑一	-8.66056
篪	-8.66136
倍律	-8.66196
樂章	-8.66655
不合	-8.66858
紀	-8.66935
􁈹	-8.67058
兮姑	-8.6722
雲	-8.67315
室	-8.6747
兵	-8.67473
摶牘	-8.67647
丑	-8.67674
田	-8.67764
輕	-8.67968
五寸	-8.67972
五分	-8.68033
朱	-8.68219
韻	-8.68317
感	-8.68342
水應	-8.68414
飾	-8.68445
請	-8.68547
聲也	-8.68784
九徽	-8.68896
之意也	-8.68982
正林中	-8.69165
太常	-8.69327
布	-8.6933
鎛	-8.69401
八十一	-8.69663
二十四	-8.69776
寅	-8.70057
各有	-8.70443
七律	-8.71074
坐	-8.71236
守	-8.7169
四寸	-8.72048
八分	-8.72153
律管	-8.7226
主人	-8.72288
春秋	-8.72365
他	-8.72424
吾	-8.72478
堂上	-8.72653
凖	-8.72718
散聲	-8.72785
華	-8.72872
之管	-8.72883
推之	-8.72887
附	-8.73122
虚	-8.73207
冠	-8.73282
武舞	-8.73477
未嘗	-8.73518
昔	-8.73705
性	-8.74002
當時	-8.74145
髙下	-8.74163
奇	-8.74246
漢志	-8.74709
不必	-8.74875
相應	-8.74998
□□	-8.75067
絶	-8.75295
樂者	-8.75305
術	-8.75428
人聲	-8.75459
酒	-8.75548
陵	-8.75568
儀禮	-8.75901
㽔賓	-8.75918
為一	-8.76073
一十	-8.76127
徒	-8.76287
数	-8.76389
􁕚	-8.76392
面羃	-8.7659
革	-8.77007
養	-8.7704
九聲	-8.7708
質	-8.77127
為用	-8.77145
舞者	-8.7723
殊	-8.77247
聲之	-8.77284
文舞	-8.77298
又有	-8.7738
鄭	-8.77433
所用	-8.77508
可也	-8.77784
靈	-8.77803
樂舞	-8.77922
生於	-8.7793
斷	-8.7816
𤼵	-8.78207
三寸	-8.78478
之說	-8.78626
搏牘磬	-8.78654
還	-8.78703
二千二百三十六除之得	-8.79207
嘉	-8.79281
皇帝	-8.79332
皆有	-8.7954
揚	-8.79756
哀	-8.79791
古今	-8.79795
頭	-8.79811
急	-8.79822
悉	-8.79892
六分	-8.79903
之名	-8.79941
載堉	-8.80098
十寸	-8.805
編鐘	-8.80515
大射	-8.80586
二十七	-8.80901
可知	-8.80902
也夫	-8.80923
登歌	-8.81043
之屬	-8.81133
老	-8.81149
鑄	-8.81316
俗樂	-8.81348
勝	-8.81374
協	-8.81401
静	-8.81461
文王	-8.81952
取其	-8.81999
視	-8.82026
鼗	-8.82094
素	-8.82434
讀	-8.82508
收	-8.82736
賢	-8.82781
豈非	-8.82913
而以	-8.83167
一字	-8.83298
隔八	-8.83362
之氣	-8.83454
藏	-8.83523
五行	-8.83576
五絃	-8.84117
為黄鍾	-8.84145
劉	-8.8415
柱	-8.84214
利	-8.84214
補	-8.84242
人之	-8.84348
嵗	-8.84548
坤	-8.85192
注云	-8.85201
御	-8.85274
折	-8.85377
必有	-8.85405
武王	-8.85438
略	-8.85668
七寸	-8.8596
正姑中	-8.85987
樂記	-8.86091
蔡氏	-8.86642
第三	-8.86699
畫	-8.87149
四十	-8.8742
咸	-8.87468
無所	-8.87494
非特	-8.87747
噐	-8.88109
黄鍾之宫	-8.88137
七徽	-8.88233
九十	-8.88505
郊	-8.88538
稍	-8.88762
殺	-8.88765
正黄中	-8.88862
聲音	-8.89127
宫徴商羽角變宫變徴	-8.89277
條	-8.8936
號	-8.89488
也然則	-8.89592
蕤正	-8.89736
唱	-8.89814
采	-8.90203
繼	-8.90345
禮記	-8.90353
為宮	-8.90568
其説	-8.90591
頌	-8.9066
變宮	-8.907
一百	-8.90731
凡工	-8.90782
七分	-8.90919
倡	-8.90991
慢	-8.91031
變律	-8.91372
龠	-8.91623
步	-8.91665
業	-8.91683
於此	-8.91791
驗	-8.91796
商調	-8.92208
宫商	-8.92322
待	-8.92415
聲律	-8.92421
五調	-8.92523
移	-8.92551
約	-8.92629
釋	-8.92651
銖	-8.9266
二寸	-8.92811
中呂	-8.93065
相和	-8.93362
也今	-8.9341
抑	-8.93421
向	-8.93477
亦不	-8.93519
零	-8.93528
薄	-8.93589
三十	-8.93602
箎	-8.93604
較	-8.93678
非也	-8.93736
孝	-8.93869
可知矣	-8.94098
七絃	-8.94113
諧	-8.94238
三分損益	-8.9428
顯	-8.94454
幾	-8.94482
授	-8.9458
缺	-8.94592
柷	-8.94626
賜	-8.94756
黄應	-8.94875
司	-8.94992
得其	-8.95491
十分	-8.9552
奉	-8.9559
楚	-8.9563
專	-8.95735
一律	-8.95801
強	-8.95819
乗	-8.96014
則知	-8.96105
妙	-8.96165
黄合	-8.96406
第四	-8.96506
冬至	-8.96731
伎	-8.96826
軍	-8.97058
拜	-8.97163
而成	-8.97279
以上	-8.97363
妄	-8.97602
旁	-8.97611
左右	-8.97702
秤	-8.97711
架	-8.97754
告	-8.98045
同意	-8.98059
示	-8.98064
終於	-8.9819
其餘	-8.9825
雷	-8.98386
久	-8.98674
陽律	-8.98678
逆	-8.98687
持	-8.98719
里	-8.98737
金石	-8.99019
史記	-8.99071
二千	-8.99077
八十	-8.99119
四聲	-8.99404
億	-8.99521
斛	-8.99553
之姑正	-8.99611
柷敔	-8.99696
有所	-8.9998
鉦	-9.00314
堂下	-9.00392
國語	-9.00542
之外	-9.0074
愛	-9.00762
漸	-9.00762
七十二	-9.00803
大師	-9.01137
横	-9.01159
竒	-9.01192
隔	-9.01264
四字	-9.01462
樂師	-9.01566
房	-9.01589
之羽	-9.01611
崇	-9.01628
候	-9.01695
祠	-9.01897
介	-9.0192
纓	-9.01923
十四	-9.02158
之文	-9.02378
母	-9.0239
之下	-9.02605
惡	-9.02772
一調	-9.02816
光	-9.02848
環	-9.02896
下法	-9.0294
􁕘	-9.02997
於是	-9.03406
其法	-9.03774
増	-9.03892
接	-9.03938
聴	-9.03969
黄鍾之	-9.04177
竽	-9.04438
莫不	-9.04503
鬴	-9.04605
海	-9.04607
則以	-9.04771
是為	-9.04829
懸	-9.04916
記曰	-9.04918
力	-9.05079
皮	-9.05144
聲而	-9.05246
五弦	-9.05423
禹	-9.05536
共得	-9.05547
望	-9.05744
則有	-9.05976
爵	-9.06042
樂也	-9.06056
位除實	-9.06159
喜	-9.06255
鄉	-9.06257
都	-9.06268
其實	-9.0649
孫	-9.0661
折半	-9.0665
相合	-9.06739
父	-9.06748
假	-9.06753
呼	-9.06756
以見	-9.06851
酉	-9.0696
圜	-9.07001
運	-9.07124
維	-9.07145
禁	-9.0735
何也	-9.07376
奏之	-9.07377
􁕛	-9.07412
冬	-9.07572
詩曰	-9.07707
之數也	-9.07816
傳曰	-9.08008
故以	-9.0804
夜	-9.08076
亦如之	-9.08153
律之	-9.08236
集	-9.08404
損益	-9.08418
卑	-9.08439
緩	-9.08456
殿	-9.08517
席	-9.08546
一工	-9.08578
工尺	-9.08778
歴	-9.08804
智	-9.08841
枚	-9.08893
以此	-9.08982
則不	-9.09035
未有	-9.09092
爾雅	-9.09097
十一徽	-9.09114
以樂	-9.09179
三百	-9.09281
府	-9.09378
景	-9.09467
錯	-9.09581
擬	-9.09587
也若	-9.09608
予	-9.09649
以至	-9.09658
造律	-9.09701
證	-9.09729
職	-9.0987
䘮	-9.10382
鞉	-9.10526
博	-9.10663
竅	-9.10685
粟	-9.10693
隆	-9.10703
戒	-9.10772
朔	-9.10813
豆	-9.10814
城	-9.10837
豈不	-9.10929
月令	-9.11139
種	-9.11299
鎛鐘	-9.11355
歩	-9.11356
以象	-9.11362
節奏	-9.11433
樂工	-9.11471
數也	-9.117
殷	-9.1174
息	-9.11916
究	-9.11936
遇	-9.11947
不可以	-9.11957
格	-9.11962
燕禮	-9.11996
之曲	-9.12003
不然	-9.1205
則是	-9.1207
咸池	-9.12094
雖有	-9.12129
名曰	-9.1221
四時	-9.12799
古法	-9.12975
出入	-9.12976
階	-9.13069
該	-9.1323
四尺	-9.13245
路	-9.13367
飛	-9.13563
二人	-9.13566
兮南	-9.13685
陽氣	-9.13904
之用	-9.14116
一四	-9.14168
十二月	-9.14274
圎	-9.14309
連	-9.14322
穴	-9.14323
頗	-9.14324
幸	-9.14364
死	-9.14369
書曰	-9.14512
飲	-9.14583
先王之	-9.1474
約之	-9.14919
之分	-9.15162
七十	-9.15288
詞	-9.15319
式	-9.15435
青	-9.15467
却	-9.15518
務	-9.15544
河圖	-9.15616
己	-9.15619
明矣	-9.15806
其制	-9.15848
者其	-9.16211
又云	-9.16289
見於	-9.1643
其義	-9.16564
所得	-9.1679
此言	-9.16852
社	-9.17123
纎	-9.17126
者謂	-9.17147
野	-9.17347
一千	-9.17401
之樂也	-9.17498
疏	-9.17518
虡	-9.17529
丈	-9.17659
其樂	-9.17754
兆	-9.17925
伐	-9.17973
第五	-9.17977
郊廟	-9.1803
偶	-9.18084
敔	-9.18092
之器	-9.18303
虞	-9.18321
鳯	-9.18381
數而	-9.18446
燕樂	-9.18574
操縵	-9.18586
憂	-9.18643
而止	-9.18778
第十	-9.18868
宴	-9.18924
寓	-9.18938
俗呼	-9.19121
卦	-9.19198
牛	-9.19284
乖	-9.19334
衛	-9.19374
六變	-9.19429
弓	-9.19465
歌者	-9.1963
四方	-9.19701
歌舞	-9.20006
河	-9.20087
為樂	-9.20108
滿	-9.20239
為主	-9.20324
二律	-9.2046
趙	-9.20508
五六	-9.2054
牲	-9.20558
􁕕	-9.20568
也蓋	-9.20595
矣然	-9.206
員	-9.20603
逹	-9.20626
破	-9.20639
財	-9.20673
樂以	-9.20848
三十六	-9.20905
周尺	-9.21018
其中	-9.21026
歌詩	-9.21078
簴	-9.21102
鈞	-9.21407
半聲	-9.21442
求之	-9.21469
則其	-9.215
味	-9.21631
舊法	-9.21725
顧	-9.21856
尋	-9.21862
靜	-9.21874
衰	-9.2195
錫	-9.21964
臨	-9.22013
六萬三千	-9.22029
五千九百四十	-9.2203
録	-9.22234
兮黄	-9.22408
由是觀之	-9.22418
畧	-9.2269
縱	-9.22739
累	-9.22885
兮蕤	-9.22916
尾	-9.23066
篴	-9.23125
四十八	-9.23132
一也	-9.23178
側	-9.23186
恭	-9.23215
為節	-9.23226
正南中	-9.23233
鐸	-9.23249
搏拊	-9.23488
教之	-9.2353
候氣	-9.23672
可得而	-9.23693
放	-9.24281
五十四	-9.24296
於樂	-9.24305
幽	-9.24362
謹	-9.24423
小者	-9.24476
徵調	-9.24518
任	-9.24529
刻	-9.24541
苟	-9.2457
封	-9.24582
毛	-9.24589
儒	-9.24599
卯	-9.24608
角調	-9.24635
樂府	-9.24808
十五	-9.24923
𫝊	-9.24949
本於	-9.24949
君臣	-9.24971
必以	-9.2527
皆用	-9.25319
登	-9.25393
祗	-9.25398
為調	-9.25429
遺	-9.25451
震	-9.25555
商聲	-9.25614
其一	-9.25616
鐘鼓	-9.25617
康	-9.25759
避	-9.2576
後人	-9.25825
寧	-9.25838
丘	-9.25851
虞書	-9.25851
謬	-9.25878
歲	-9.25892
迎	-9.25899
幂	-9.2597
威	-9.25978
緊	-9.26166
果	-9.26181
蕤應	-9.26297
若夫	-9.26439
未必	-9.2645
播	-9.26485
堯	-9.26535
所載	-9.26552
左傳	-9.26687
未嘗不	-9.26834
薦	-9.2726
坎	-9.2726
垂	-9.27285
盈	-9.27287
純	-9.27306
戚	-9.27323
之宫	-9.27426
之節	-9.2746
圍徑	-9.27701
明堂	-9.27783
黄鍾宫	-9.27821
合樂	-9.27838
乆	-9.27875
宫架	-9.27986
其意	-9.28077
庭	-9.28088
之詩	-9.28143
至于	-9.28498
洗	-9.28535
疾	-9.28619
管子	-9.28654
照	-9.28713
以成	-9.28775
分寸	-9.28793
大抵	-9.28796
輕重	-9.28802
疏曰	-9.28994
歎	-9.29038
誤矣	-9.29042
周公	-9.29076
變宫變徵	-9.29133
而有	-9.29175
四絃	-9.29233
王者	-9.29387
以後	-9.29489
二絃	-9.29499
六孔	-9.29515
旅	-9.2959
名之	-9.29595
三寸九分	-9.29633
孰	-9.29917
子聲	-9.30046
来	-9.30053
報	-9.30104
十八	-9.30126
嚴	-9.30168
李照	-9.30181
者為	-9.3025
右手	-9.30355
所以為	-9.30374
黃鐘	-9.30658
戯	-9.30881
勢	-9.30882
其間	-9.30883
十三徽	-9.30962
戌	-9.3098
庶	-9.31014
召	-9.31093
清角	-9.31103
某	-9.31196
角聲	-9.31312
七毫	-9.31415
柔	-9.31461
寛	-9.31492
虛	-9.315
林清	-9.31502
茍	-9.31506
夔	-9.31506
應和	-9.31513
弱	-9.31519
箏	-9.31525
京房	-9.31554
有餘	-9.31694
使之	-9.3177
歌聲	-9.32266
之始	-9.32319
互	-9.32416
之本	-9.32464
音也	-9.326
季	-9.32723
羽聲	-9.3276
魚	-9.32862
▁(	-9.32868
羣	-9.32868
十二辰	-9.32881
漢書	-9.32932
聚	-9.32983
圗	-9.33
鼓吹	-9.33211
累黍	-9.33267
不以	-9.33548
陰陽	-9.33575
積實	-9.33859
星	-9.34069
鄉射	-9.34125
撰	-9.34128
不足以	-9.34183
之道也	-9.34257
二十五	-9.34293
其長	-9.343
甲	-9.34315
偽	-9.34348
􁕖	-9.34379
兹	-9.34418
赤	-9.34464
其後	-9.34484
伏	-9.34492
隔八相生	-9.34617
八十一分	-9.3466
考之	-9.34869
忘	-9.35137
孟子	-9.3531
係	-9.35364
例	-9.35436
次第	-9.35457
大樂	-9.35463
敎	-9.35547
肅	-9.35837
帥	-9.35902
祥	-9.35903
慶	-9.35927
省	-9.35947
役	-9.35969
諸律	-9.36162
助	-9.3642
註曰	-9.36717
之序	-9.36972
禮也	-9.37278
伵	-9.37366
密	-9.3738
五聲之	-9.37414
暉	-9.37417
洪	-9.37423
寳	-9.37477
姑清	-9.37493
也此	-9.37636
亦可	-9.37904
七弦	-9.37981
天地之	-9.38188
而非	-9.38262
五百	-9.38321
小師	-9.38487
不敢	-9.3849
竊	-9.38492
領	-9.38503
吟	-9.38534
笙師	-9.38628
而言	-9.3875
學者	-9.38821
吹之	-9.38847
徹	-9.3887
宻	-9.38953
而生	-9.38958
和太和	-9.38963
察	-9.38968
黄鐘之	-9.38975
勞	-9.38993
品	-9.39033
勿	-9.39061
翟	-9.39063
矣故	-9.3926
我應	-9.39298
止於	-9.39307
二尺	-9.39394
損	-9.3941
否	-9.39661
之變	-9.39873
六樂	-9.3989
第六	-9.40025
惑	-9.40148
鼎	-9.40438
如是	-9.40463
羽調	-9.40479
之妙	-9.40484
六尺	-9.40486
期	-9.40487
閏	-9.40491
豫	-9.40588
操	-9.40593
花	-9.40627
者亦	-9.40725
然而	-9.4079
鳳	-9.40871
大饗	-9.4098
含少	-9.40988
二八	-9.40993
其理	-9.41176
商音	-9.41217
簇	-9.4128
六毫	-9.41426
段	-9.41489
為變宫	-9.41497
曉	-9.4162
有司	-9.41792
文武	-9.41805
試	-9.41827
所造	-9.41863
鄭康成	-9.41866
失其	-9.41952
之論	-9.41958
襲	-9.4198
缶	-9.42096
傷	-9.42115
振	-9.42119
第七	-9.42121
瞽	-9.42141
繩	-9.42153
雲門	-9.42213
全律	-9.42278
律呂	-9.42403
特磬	-9.42424
以來	-9.42449
自然之數	-9.4255
清商	-9.43018
皆可	-9.43021
不復	-9.43198
害	-9.43337
六十律	-9.43421
之言	-9.43458
大武	-9.43586
應宫	-9.4362
偏	-9.4372
巧	-9.4372
二百	-9.43732
遠	-9.43742
劉歆	-9.43772
病	-9.43774
秬黍	-9.43779
四一	-9.43792
之南正	-9.43808
講	-9.43887
羣臣	-9.43967
股	-9.44097
之上	-9.44131
失之	-9.44194
舊説	-9.44222
四清聲	-9.44282
㫖	-9.44434
亦然	-9.44438
十二聲	-9.44456
起調畢曲	-9.44565
按此	-9.44662
符	-9.44844
從之	-9.45017
吉	-9.45114
遣	-9.45175
之謂也	-9.45189
冕	-9.45281
𤣥	-9.45291
之長	-9.45316
往	-9.45316
滅	-9.45324
其言	-9.45399
則又	-9.45423
帶	-9.45428
底	-9.45436
舍	-9.4544
之率	-9.45457
三代	-9.45467
臣謹按	-9.45493
論樂	-9.45501
柄	-9.4573
而不知	-9.45952
一均	-9.45955
八尺	-9.46036
律書	-9.4623
之祭	-9.4624
太四	-9.46579
稷	-9.46798
二千一百八十七	-9.46904
周徑	-9.4692
也又	-9.46964
亦無	-9.46998
之義也	-9.47009
荒	-9.47029
鬼神	-9.47031
舌	-9.47058
為實以	-9.47144
孔子曰	-9.47166
此之謂也	-9.47206
隋志	-9.47292
樂書	-9.47326
後周	-9.47384
不如	-9.47469
或以	-9.47477
愚	-9.4801
天神	-9.48025
樂記曰	-9.48071
之調	-9.48152
所生	-9.48176
形如	-9.48184
行之	-9.48198
不在	-9.48213
一合	-9.48283
效	-9.48307
九百	-9.48326
合工	-9.48342
其本	-9.484
徵羽	-9.48631
所云	-9.48636
眡瞭	-9.48677
鍾磬	-9.48698
拍	-9.4872
為大	-9.48728
夘	-9.48784
觧	-9.4879
八百	-9.48796
歴代	-9.48836
起於	-9.48868
奏樂	-9.48868
工凡	-9.49009
太師	-9.49043
子曰	-9.49136
一一	-9.49278
有奇	-9.49298
繼之	-9.49306
六十調	-9.49376
是知	-9.49533
七始	-9.4957
次之	-9.49772
今夫	-9.49776
之度	-9.49833
必先	-9.49837
何也曰	-9.49869
自然之理	-9.4988
而下	-9.49989
終始	-9.50083
乘之	-9.50095
湯	-9.50105
鹿鳴	-9.50135
制度	-9.5014
纖	-9.50145
三聲	-9.50308
羃	-9.50384
闗	-9.50395
增	-9.5043
漆	-9.5047
樂書卷	-9.50479
裁	-9.50495
两	-9.5056
近代	-9.50615
可姑正	-9.50623
或曰	-9.50649
度數	-9.50695
其事	-9.50718
中國	-9.50834
倍之	-9.51029
權衡	-9.51096
可謂	-9.51186
左手	-9.51207
也凡	-9.51348
如此則	-9.5139
斤	-9.51401
朱子曰	-9.51423
層	-9.51427
被	-9.51439
黄鍾為宫	-9.51517
六百	-9.51682
下文	-9.5188
以禮	-9.51904
濟	-9.51963
四十二	-9.52106
含	-9.52116
三百六十	-9.52133
而樂	-9.52139
竟	-9.52157
熊	-9.52161
熟	-9.52178
蔡邕	-9.52186
脣	-9.52203
黒	-9.52221
煩	-9.52224
本律	-9.52304
詠	-9.52343
一二	-9.52356
多寡	-9.52387
十有二	-9.52437
欲其	-9.52471
其形	-9.52511
當用	-9.52543
兮應	-9.5255
愚按	-9.52556
尚書	-9.52644
三律	-9.52885
為黄鐘	-9.53169
人心	-9.53175
源	-9.53238
者即	-9.53308
其器	-9.53335
干戚	-9.5343
周人	-9.53446
故謂之	-9.53474
鄭氏	-9.5351
歳	-9.53616
大者	-9.5363
皷	-9.53639
賦	-9.53874
音律	-9.53884
甞	-9.53932
衍	-9.53954
閒	-9.53988
齒	-9.53992
仩	-9.53994
伬	-9.54
充	-9.54015
是不知	-9.54047
壇	-9.5405
雙	-9.5405
合於	-9.54127
芍和	-9.54161
宫之	-9.54432
黄鍾九寸	-9.54601
八徽	-9.54615
三尺	-9.54881
周之	-9.54983
右乃	-9.55017
譏	-9.55041
擇	-9.55077
而用	-9.55126
也言	-9.55293
一變	-9.55518
無不	-9.55545
司馬	-9.55561
之士	-9.55571
遲	-9.55765
澤	-9.55781
者有	-9.558
悲	-9.55802
獲	-9.5581
矩	-9.55824
背	-9.5584
腹	-9.55841
私	-9.55842
罷	-9.55889
之學	-9.55929
升歌	-9.56028
存焉	-9.56064
内徑	-9.56081
數之	-9.56089
良	-9.56137
一萬九千六百八十三	-9.56157
一曰	-9.56815
之歌	-9.56846
高下	-9.56851
后	-9.56943
有以	-9.56944
之次	-9.56955
夏至	-9.57095
九變	-9.57119
喪	-9.57278
納	-9.57293
羽音	-9.57319
雨	-9.57527
擊之	-9.57585
覆	-9.57587
導	-9.57617
璧	-9.57636
賤	-9.57638
得一	-9.57644
遷	-9.57646
為一分	-9.57654
楹	-9.57687
借	-9.57698
畢曲	-9.577
甬	-9.57702
箜篌	-9.57719
徑三分	-9.57727
拊芍之黄正	-9.57735
植	-9.57742
禘	-9.57757
尸	-9.57774
始終	-9.57791
相同	-9.57912
之蕤正	-9.58071
者必	-9.58204
後魏	-9.58303
敢	-9.5831
並用	-9.58405
之所以	-9.58478
而不用	-9.58761
亦因	-9.58967
繁	-9.59108
截	-9.59287
第八	-9.59308
天下之	-9.59354
故云	-9.59401
鏞	-9.5943
送	-9.59469
倚	-9.59556
圭	-9.59569
厘	-9.59593
悦	-9.59593
楊	-9.59634
尊卑	-9.59725
一徽	-9.59833
七百二十九	-9.59844
八十四聲	-9.59904
一管	-9.59945
當作	-9.60142
九九	-9.60173
開方	-9.60204
武帝	-9.60291
由是	-9.60351
五十六	-9.60536
者乎	-9.60546
九十四除之得	-9.60585
上字	-9.60666
宫音	-9.60687
徴羽	-9.60747
之内	-9.60872
五尺	-9.60932
而不可	-9.60988
曽	-9.61043
歌之	-9.61096
商角	-9.61121
之象也	-9.61127
江	-9.61199
也盖	-9.61302
蕃	-9.61315
綱	-9.61324
戈	-9.61405
酌	-9.61425
僭	-9.61426
資	-9.61447
回	-9.61469
閟	-9.61487
祝	-9.61508
棄	-9.61528
索	-9.61596
社稷	-9.61604
靣	-9.61606
編磬	-9.61622
一章	-9.61744
而用之	-9.61854
不失	-9.61876
不相	-9.61894
琴家	-9.61912
日月	-9.61912
言其	-9.61956
尺寸	-9.61962
此説	-9.61963
亦非	-9.62249
相去	-9.62294
儒者	-9.62327
諸侯之	-9.62509
後漢	-9.62537
矣此	-9.6254
瞽矇	-9.62612
宿	-9.6268
樂而	-9.62722
于是	-9.62809
庸	-9.63063
京	-9.63255
莊	-9.6328
清黄	-9.63332
留	-9.63356
貫	-9.63364
羅	-9.63415
戰	-9.63455
趨	-9.6346
教坊	-9.63472
騐	-9.63531
戱	-9.6356
下有	-9.63714
宫商角徵羽	-9.6374
八佾	-9.63741
則聲	-9.63747
十二管	-9.63817
特縣	-9.63846
又折半	-9.6409
律者	-9.64154
先後	-9.6419
之角	-9.64317
使人	-9.64366
中間	-9.64384
南林	-9.64447
四人	-9.64497
太應	-9.6461
律數	-9.64739
居中	-9.64768
客	-9.64861
知其	-9.6502
倫	-9.65068
尺度	-9.65117
逐	-9.65273
韋	-9.65339
温	-9.65366
皆非	-9.65377
凡樂	-9.65391
蔡	-9.65402
塵	-9.65459
牙	-9.65466
蔡元定	-9.65478
叚	-9.65483
専	-9.65508
履	-9.65515
将	-9.65532
樂聲	-9.65538
暴	-9.65545
其名	-9.65657
迭	-9.6571
之前	-9.65745
長九寸	-9.65767
王制	-9.65787
成王	-9.65808
法也	-9.65815
一曲	-9.65944
樂縣	-9.65954
樂有	-9.65987
指法	-9.66094
其說	-9.66164
起聲	-9.66356
九三	-9.66392
弦歌	-9.66504
立體	-9.66519
制作	-9.66603
得乎	-9.66605
銘	-9.66649
佾	-9.66675
倍半	-9.66729
解曰	-9.66746
故其	-9.66827
者乃	-9.66859
羽籥	-9.67049
泉	-9.67074
淮南子	-9.67194
繫	-9.67234
之心	-9.67297
仜	-9.67382
疎	-9.67384
籍	-9.67427
單	-9.67432
亿	-9.67435
蜀	-9.67442
貌	-9.67469
者非	-9.67478
雍	-9.67481
錄	-9.67481
之首	-9.6749
地示	-9.67518
嘆	-9.67521
訛	-9.67556
為釐法	-9.67585
要之	-9.67604
前後	-9.67648
為絲數	-9.67659
進退	-9.67666
宫縣	-9.67727
太宗	-9.67872
皇后	-9.67913
審音	-9.67922
是謂	-9.67924
出于	-9.6817
七月	-9.68197
騶虞	-9.68304
今以	-9.68384
肆	-9.68435
所言	-9.68482
上文	-9.68516
六絃	-9.68581
易曰	-9.68738
四律	-9.68841
八變	-9.68925
變聲	-9.69067
舞之	-9.69146
𩔖	-9.69149
為應鍾	-9.69153
鐃	-9.69202
十月	-9.69243
扶	-9.6938
為正	-9.6939
孤	-9.69397
二字	-9.6944
酉為	-9.69444
二百四十三	-9.69463
延	-9.69469
龜	-9.6948
丁	-9.69491
刑	-9.69531
剛	-9.69532
閉	-9.69533
臺	-9.69538
征	-9.69571
伶倫	-9.69576
胡部	-9.69591
从	-9.69614
眞	-9.69622
觶	-9.69625
頒	-9.69627
濯姑正	-9.69636
狹	-9.6965
曹	-9.69681
濁姑正	-9.69682
詩云	-9.69688
王朴	-9.69746
即是	-9.69792
為法	-9.69864
亦以	-9.69954
爾雅曰	-9.69956
商頌	-9.70018
之方	-9.70122
玉磬	-9.70233
太廟	-9.70269
生焉	-9.70358
而九之	-9.7038
餘實	-9.70417
分數	-9.70533
祇	-9.70539
若以	-9.70561
之象	-9.70669
樂作	-9.70742
之日	-9.70744
六釐	-9.70796
六舞	-9.7088
亦曰	-9.70982
施於	-9.70993
況	-9.71111
二十八	-9.71158
才	-9.71168
百四十	-9.71199
歴十二	-9.71214
榖	-9.71249
故用	-9.71268
稽	-9.71406
黍尺	-9.71463
二七	-9.71479
九十六	-9.71528
藝	-9.71528
七一	-9.71596
宫商角	-9.71622
析	-9.71631
草	-9.71632
筝	-9.71641
遞	-9.71679
㸃	-9.71685
界	-9.71694
鎮	-9.71694
邊	-9.71708
悟	-9.71715
神農	-9.71728
矢	-9.71736
戴	-9.71781
清姑正	-9.71851
其所以	-9.71931
不識	-9.7222
事也	-9.72223
五清	-9.72284
宫商角徴羽	-9.72307
建鼓	-9.72368
卿大夫	-9.72386
二曰	-9.72449
六二	-9.72532
狀	-9.72589
當以	-9.72733
三分益一	-9.72826
是已	-9.72969
夫人	-9.73257
磬師	-9.73418
樂律	-9.73497
黄鐘之宫	-9.73578
竝	-9.73673
應凡	-9.73729
班	-9.7373
訓	-9.73751
喉	-9.73774
在上	-9.73784
選	-9.73813
以合	-9.73816
鮮	-9.73828
苦	-9.73847
者也故	-9.73855
規	-9.73861
荀朂	-9.73868
保	-9.73907
滄	-9.73914
弄	-9.73929
宰	-9.73942
属	-9.73945
怒	-9.7396
平方積	-9.73962
黑	-9.73994
乎此	-9.74122
八毫	-9.74125
疏云	-9.74191
循	-9.7422
之商	-9.74336
舂四	-9.74403
條下	-9.74406
一孔	-9.74428
四毫	-9.74437
調也	-9.74618
四寸五分	-9.74788
合四	-9.74854
以應	-9.74873
者矣	-9.74974
此乃	-9.75115
之失	-9.75158
今太常	-9.75159
三四	-9.75182
故言	-9.75215
賀	-9.75419
中和	-9.75484
可見	-9.75522
隋唐	-9.75565
九五	-9.75576
而已故	-9.75582
以定	-9.75629
阜	-9.75647
雖不	-9.75686
夏尺	-9.757
故有	-9.75856
堂	-9.75972
仙	-9.76006
虎	-9.76062
創	-9.76064
紫	-9.76076
啓	-9.76086
瓦	-9.76086
勇	-9.76094
伊	-9.76101
葉	-9.76115
遍	-9.76116
陋	-9.76121
釋奠	-9.76153
辯	-9.76154
准	-9.7616
洛書	-9.76188
雖出	-9.76227
舂合	-9.7633
粗	-9.76355
於禮	-9.76443
言樂	-9.76753
則一	-9.76859
此理	-9.76902
五聲二變	-9.76927
黄林	-9.77146
六月	-9.77217
籥師	-9.77224
奏肆夏	-9.77309
一忽	-9.77392
國之	-9.77395
五色	-9.77416
或謂	-9.77464
六忽	-9.77553
姑洗角	-9.77661
山川	-9.77869
四百	-9.77953
其用	-9.77989
吕氏	-9.7808
一釐	-9.78141
誦	-9.78251
仞	-9.78292
愈	-9.78304
淺	-9.78307
脩	-9.78322
卽	-9.78337
乗之	-9.7834
艮	-9.78348
之容	-9.78406
横笛	-9.78418
减	-9.78421
滄浪之水	-9.78427
之術	-9.78428
濯	-9.78435
億四千九百一十五萬三千五百三十八	-9.78441
下生窮	-9.78448
寜	-9.78449
觱篥	-9.78459
樂正	-9.78465
之釐數	-9.78472
厚薄	-9.78475
鄉飲	-9.7848
因之	-9.78502
空圍	-9.78504
八百一十分	-9.78541
以至于	-9.78551
可南正	-9.78562
下管	-9.78634
三弦	-9.78659
器色	-9.78758
相傳	-9.78988
觀之	-9.79012
之以為	-9.79033
五五	-9.79051
用樂	-9.79058
以五聲	-9.79224
上下相生	-9.79258
一絲	-9.7932
九二	-9.79428
先生	-9.79489
雖然	-9.79576
人君	-9.79608
南清	-9.79635
凡此	-9.79736
止用	-9.79788
古制	-9.79809
三八	-9.79835
道之	-9.79866
八十四調	-9.79867
四六	-9.79881
調之	-9.79913
郊祀	-9.79994
而不及	-9.80001
怨	-9.80037
以爲	-9.80046
其管	-9.80081
隔一	-9.80133
金奏	-9.80232
管長	-9.80361
長七寸	-9.8037
孟	-9.80479
根	-9.80508
黄鍾之律	-9.80515
二毫	-9.8053
周制	-9.80552
笑	-9.80571
浮	-9.80659
沈	-9.80663
降神	-9.80681
陸	-9.80683
恱	-9.8069
徐	-9.807
密率	-9.80708
刀	-9.80726
給	-9.80733
輔	-9.80733
三變	-9.80735
奠	-9.80749
應工	-9.80767
紅	-9.80774
鼓瑟	-9.80775
以之損益則三分之	-9.80779
樓	-9.80797
論語	-9.80814
不害其	-9.80822
方響	-9.80836
擘	-9.80861
曰黄鍾八	-9.80873
其容	-9.80913
雉	-9.80917
權宜	-9.80943
清廟	-9.81174
一音	-9.81235
古有	-9.81281
三毫	-9.81497
四變	-9.81717
施之	-9.81896
取聲	-9.81911
之情	-9.81984
三釐	-9.81995
工四	-9.82033
勾尺	-9.82074
尺工	-9.82312
其為	-9.82465
至今	-9.82468
亦得	-9.82596
飲酒	-9.8265
矣夫	-9.82716
律也	-9.82779
攷	-9.82862
忽皆	-9.82896
舒	-9.82916
桑	-9.82945
之謬	-9.82968
桐	-9.82982
池	-9.82987
聼	-9.83011
濁聲	-9.83014
殆	-9.83064
屈	-9.83068
犯	-9.83068
克	-9.83068
束	-9.83069
換	-9.83079
陽也	-9.83108
休	-9.8311
賈	-9.8312
滄姑正	-9.83124
秒	-9.83137
香	-9.83144
慍	-9.83156
為分法則其寸有九分可知矣以午為子	-9.83157
人鬼	-9.83158
參差	-9.83159
六七	-9.8316
圜丘	-9.8316
其分有九釐可知矣以申為子之毫數而	-9.83161
數亥為全律之實可知矣以寅為子之寸	-9.83162
寸法則其律有九寸可知矣以辰為子之	-9.83162
數則其數中損益之際皆有餘分雖有巧	-9.83162
終不能盡是以自分	-9.83162
焉然亦苦於難記而易差終不若太史公	-9.83163
之法為得其要而易	-9.83163
丑為絲法則毫有九絲可知矣下而為忽	-9.83163
下破分為釐破釐為毫破毫為絲破絲為	-9.83164
管至破一寸以為一萬九千餘分而後畧	-9.83165
為一寸	-9.83166
為全律之	-9.83199
必以十	-9.83209
謹按	-9.8321
左旋	-9.83228
之神	-9.83488
十九	-9.83577
南正	-9.83686
文王之	-9.83736
靡	-9.83747
焉故	-9.83791
其文	-9.83799
毫釐	-9.84015
之末	-9.84028
也是故	-9.841
知音	-9.8415
不亦	-9.84179
聲者	-9.84181
舞也	-9.8444
而聲	-9.84455
許	-9.84476
大夏	-9.8449
未有不	-9.84519
不為	-9.84588
人情	-9.84749
句股	-9.84761
外徑	-9.84924
育	-9.85012
退位除	-9.85027
無異	-9.85079
上帝	-9.85094
蔟	-9.85102
鼙	-9.85107
律中	-9.85143
侍	-9.85157
十分而	-9.85161
四釐	-9.8517
夀	-9.85199
三月	-9.85288
和平	-9.85333
貢	-9.85356
錞	-9.85394
紂	-9.85395
龜兹	-9.85405
肉	-9.85413
隠	-9.85418
穀	-9.85446
續	-9.85459
辛	-9.8546
千二百四十六萬	-9.85463
余	-9.85474
闢	-9.8548
者以其	-9.85484
測	-9.85489
十一兆	-9.855
勺	-9.85511
福	-9.85513
朂	-9.85522
叔	-9.85524
縁	-9.85543
族	-9.85552
為林鍾	-9.85559
之月	-9.8558
亥則得十七萬七千一百四十七算而子	-9.856
寸十分一者亦放此意但以正法之數合	-9.856
夘為毫法則其釐有九毫可知矣以戍	-9.85601
數整齊簡直易記而不差也其	-9.85607
以下遂不可析而直以九相	-9.85615
函鍾	-9.85616
蘇	-9.85631
陞	-9.85633
文帝	-9.85653
此即	-9.85691
其位	-9.85694
二五	-9.85699
攷也盖其以子為一而十一三	-9.85718
九十分	-9.85753
諸儒	-9.85755
數而未	-9.85774
新法	-9.85796
諸家	-9.85821
太平	-9.8586
自乗得	-9.85911
不盡	-9.85937
除之得	-9.8598
一六	-9.86021
笙磬	-9.86029
南吕為	-9.8606
算法	-9.86064
小雅	-9.86171
特鐘	-9.86317
名為	-9.86419
二者	-9.86429
八風	-9.86499
九釐	-9.86558
合一	-9.8656
之教	-9.86657
肆夏	-9.8666
一毫	-9.86667
四工	-9.86722
其次	-9.86938
之尺	-9.87017
遵	-9.87069
隂律	-9.87098
開元	-9.87104
縱黍	-9.87293
所傳	-9.87383
一器	-9.87405
論之	-9.87422
六五	-9.87464
不通	-9.87614
鞞	-9.87621
對曰	-9.87684
妻	-9.87686
無聲	-9.87772
仲林	-9.87781
正宫調	-9.87799
豈特	-9.87804
明堂位	-9.87813
併	-9.87893
獸	-9.87922
烈	-9.87938
計之	-9.87951
繆	-9.87978
陶	-9.87982
仰	-9.87992
朝廷	-9.88005
贊	-9.8801
旌	-9.88011
王莽	-9.88011
兄	-9.88012
廞	-9.88021
庶幾	-9.88028
郭	-9.88031
勸	-9.88035
筆	-9.88044
展	-9.88057
彌	-9.8806
郎	-9.8806
優	-9.8808
防	-9.88088
繪	-9.8809
為實開方	-9.88094
辟	-9.88097
除實	-9.88109
四寸六分六釐	-9.8812
嘉量	-9.88148
泛音	-9.8817
已下	-9.88321
之法也	-9.88368
然也	-9.88418
樂官	-9.88618
又謂	-9.88647
今人	-9.88652
勾一	-9.88659
亦謂之	-9.88671
九毫	-9.88688
調則	-9.88697
三孔	-9.88725
先儒謂	-9.88767
竽笙	-9.88865
唐制	-9.88902
南風	-9.88916
形容	-9.88957
不出	-9.89064
國子	-9.89091
黄鐘為宫	-9.89116
物之	-9.89216
以九	-9.89279
鐘師	-9.89309
二十一	-9.89345
曲調	-9.89408
方圓	-9.89484
可用	-9.89518
物也	-9.8955
箇	-9.89724
之應正	-9.8974
第九	-9.89756
答	-9.8983
別	-9.89928
徵音	-9.89955
農	-9.89992
林鍾為	-9.90003
之形	-9.90025
此所以	-9.9008
為變徵	-9.90099
鍾律	-9.90127
北方	-9.90215
槩	-9.90228
不和	-9.90249
天道	-9.90262
則無	-9.90297
考工記	-9.90313
曾	-9.90354
度量衡	-9.90392
自是	-9.90457
唇	-9.90497
恩	-9.90524
促	-9.90526
賛	-9.90528
盤	-9.9054
塞	-9.90569
佐	-9.90574
追	-9.90581
而又	-9.90585
鳥	-9.90603
奚	-9.90614
巳	-9.90631
可知也	-9.90635
乃以	-9.90646
變宫變徴	-9.90695
陳氏樂書曰	-9.90721
失傳	-9.9081
自古	-9.90811
於第十	-9.90828
十二徽	-9.90927
二聲	-9.91039
中有	-9.91174
子路	-9.9119
以求	-9.91415
欽定四庫全書樂書卷	-9.91529
者不過	-9.91707
不易	-9.91779
一兩	-9.91851
可考	-9.91926
應尺	-9.92006
其情	-9.92085
言之則	-9.92087
弗	-9.92139
角音	-9.92247
黄正	-9.92302
于此	-9.92352
以備	-9.92455
每調	-9.92548
自有	-9.92571
姑正	-9.92796
為姑洗	-9.92852
也自	-9.92857
為上	-9.92892
所為	-9.92894
響	-9.92905
凶	-9.92921
十七萬七千一百四十七	-9.93042
支	-9.9308
綴	-9.93119
剛柔	-9.93134
皆然	-9.93137
阿	-9.93166
遊	-9.93189
鄭譯	-9.93195
忠	-9.93202
一名	-9.93204
戾	-9.93208
怪	-9.93213
泰	-9.93216
恊	-9.93217
三曰	-9.9323
劒	-9.93231
蒙	-9.93238
限	-9.9324
淳	-9.93244
此則	-9.93245
杜	-9.93248
鳴球	-9.93258
皇太子	-9.93265
酬	-9.93269
三分損一	-9.93281
警	-9.93305
寶	-9.93386
淮南	-9.93431
養老	-9.93433
正律内徑	-9.93449
仁義	-9.93454
周樂	-9.93464
即此	-9.93484
非有	-9.93526
愚謂	-9.93537
三年	-9.93595
黄鐘宫	-9.93618
五律	-9.93739
周官大司樂	-9.93748
之音也	-9.93832
註云	-9.93838
笙竽	-9.93938
三忽	-9.94042
皇上	-9.94067
三十二	-9.94111
九歌	-9.94142
假用	-9.94148
九纎	-9.94266
不獨	-9.94363
四忽	-9.94399
乎曰	-9.94604
樂書卷一百	-9.94633
為實	-9.94637
八纎	-9.94716
為首	-9.94723
也且	-9.94792
一升	-9.94862
為變徴	-9.94885
者盖	-9.9489
民之	-9.949
七孔	-9.94935
者蓋	-9.94997
三其	-9.95052
卿	-9.95154
為宫則	-9.95181
西北	-9.95299
又言	-9.954
聞之	-9.95405
應應	-9.95417
音之	-9.95452
麗	-9.95551
懐	-9.95614
之誤	-9.95643
及其	-9.95726
為太蔟	-9.95731
之職	-9.95796
只是	-9.95811
包	-9.95818
板	-9.95844
四十八億三千	-9.95857
由此觀之	-9.95867
爭	-9.95874
岳	-9.95904
郡	-9.95905
逸	-9.95914
友	-9.95917
祈	-9.95923
范	-9.9593
東西	-9.95932
后妃	-9.9594
冊	-9.95947
採	-9.95948
衝	-9.9595
度量	-9.95953
宮聲	-9.95965
削	-9.95968
潤	-9.95973
脈	-9.96031
歌曲	-9.96071
頌磬	-9.96079
其律	-9.96091
二分八釐	-9.96124
三奏	-9.96134
首尾	-9.96145
未免	-9.96283
南吕為羽	-9.96385
舂	-9.96423
爲宫	-9.96475
筭法	-9.96574
土鼓	-9.96588
為三	-9.96634
也按	-9.96649
天之	-9.96707
小大	-9.96722
之謂	-9.96726
不與	-9.96803
倍律實積	-9.96849
非是	-9.96896
以十	-9.96965
正音	-9.97024
無射商	-9.97037
見之	-9.97076
之盛	-9.97112
工字	-9.97135
之異	-9.97358
和樂	-9.97367
十七	-9.97384
九方分	-9.97477
南北	-9.97508
鐘鼔	-9.97699
豈可	-9.97713
以十二律	-9.97714
元年	-9.97788
擊鼓	-9.97797
尺合	-9.97943
即古	-9.97944
四合	-9.97953
胥	-9.97957
主於	-9.98023
詳見	-9.98061
禮之	-9.98077
五帝	-9.98089
繹	-9.98251
長一尺	-9.98272
嶽	-9.9833
八十四	-9.98337
荀卿	-9.9835
内外	-9.98363
琴譜	-9.98379
音節	-9.98425
韓	-9.98484
芍	-9.98508
度量權衡	-9.98512
川	-9.986
師曠	-9.98645
逮	-9.98659
桓	-9.98667
譯	-9.9867
忌	-9.98671
司馬遷	-9.98693
洞	-9.98694
闊	-9.98709
以次	-9.98737
侈	-9.98738
􁕟	-9.98753
輪	-9.98756
厥	-9.98767
賔客	-9.98775
鄭司農云	-9.98786
躬	-9.98814
五徽	-9.98834
三三	-9.98866
殊不知	-9.98892
鎛師	-9.98904
孟康曰	-9.9891
北面	-9.98937
晏子	-9.98942
以明	-9.99137
又名	-9.99234
子夏	-9.99323
正月	-9.99376
曰大	-9.99404
鐘之	-9.99441
大鼓	-9.99463
八釐	-9.99497
斜	-9.99511
大章	-9.99516
容受	-9.99616
為下	-9.99658
而出	-9.99717
量之	-9.9972
絃音	-9.99777
五毫	-9.99879
則非	-9.99901
始于	-9.99973
拘	-10.0001
西山	-10.0004
不成	-10.0008
二調	-10.0009
誤以	-10.0027
横吹	-10.0032
所作	-10.0043
黄鍾半律	-10.0046
平方	-10.0047
右論	-10.0059
八絲	-10.0073
之際	-10.008
一節	-10.008
合字	-10.0098
六千五百六十一	-10.0106
學士	-10.0116
此亦	-10.0116
雩	-10.0119
以聲	-10.0121
屢	-10.013
迹	-10.013
丹	-10.0131
衆樂	-10.0132
叶	-10.014
四九	-10.0143
中央	-10.0143
排	-10.0144
委	-10.0147
厲	-10.0148
户	-10.0151
纂	-10.0151
撞	-10.0153
俾	-10.0154
摇	-10.0155
従	-10.0155
慮	-10.0157
班固	-10.0158
喻	-10.0159
讓	-10.0163
䕫	-10.0163
漢儒	-10.0164
排簫	-10.0165
一纎	-10.0165
絃之	-10.0166
宫徵	-10.0174
為四	-10.0175
正宫	-10.0181
大胥	-10.0182
乗之得	-10.0182
北齊	-10.0183
旋宮	-10.0184
周頌	-10.0185
之徴	-10.0188
幅	-10.0188
㽔正	-10.0189
得之	-10.019
䇿	-10.019
簫笛	-10.0191
為九寸	-10.0192
篇曰	-10.0193
孰謂	-10.0195
為無射	-10.0198
之地	-10.0203
太祖	-10.0204
取音	-10.0211
其上	-10.0215
聲則	-10.0219
也又曰	-10.022
最長	-10.0223
見其	-10.0228
但以	-10.0228
患	-10.023
民間	-10.0234
詩言	-10.0247
收宫	-10.0247
二舞	-10.0249
孟子曰	-10.0253
七忽	-10.0256
鼓人	-10.0266
内方	-10.0268
聖人之	-10.0294
七絲	-10.0296
七釐	-10.0305
在於	-10.0311
别有	-10.0311
而舞	-10.0315
如左	-10.0318
簫管	-10.0322
其失	-10.0334
七七	-10.0338
七微	-10.0338
弊	-10.0339
歌鐘	-10.0345
明皇	-10.0348
一尺八寸	-10.0349
七十五	-10.0353
也如	-10.0354
其志	-10.0356
也葢	-10.0363
變而	-10.0373
此書	-10.0381
為中	-10.0381
或用	-10.0383
立方	-10.0383
南方	-10.0387
而歌	-10.0389
招	-10.0389
故不	-10.0395
搏	-10.0398
為大吕	-10.0411
陽之	-10.0413
毋	-10.0418
禪	-10.0424
闡	-10.0426
關	-10.043
鄉飲酒	-10.0437
臯	-10.0438
為實以十兆乗之	-10.0442
闗雎	-10.0442
𫝊曰	-10.0442
昌	-10.0443
盾	-10.0445
覺	-10.0445
輿	-10.0446
滛	-10.0446
太史公	-10.0447
随	-10.0447
鼻	-10.0448
朴	-10.0448
冝	-10.0449
夏后氏	-10.0449
臋	-10.0449
敵	-10.0449
巾	-10.0449
粒	-10.045
蕩	-10.045
埋	-10.045
匠	-10.045
四四	-10.045
市	-10.0451
英	-10.0451
材	-10.0451
敖	-10.0451
烏	-10.0452
鷺	-10.0452
落	-10.0452
范鎮	-10.0454
仲尼	-10.0455
大弦	-10.0459
筭術	-10.046
謳	-10.046
畏	-10.0461
四絲	-10.0462
始羽終	-10.0463
風俗	-10.0463
陳氏	-10.0469
為君	-10.0474
房中之樂	-10.0477
先王作樂	-10.0477
管音	-10.0482
條理	-10.0484
除之	-10.049
不齊	-10.0499
之徳	-10.0501
所奏	-10.0503
賔主	-10.0505
西階	-10.0514
積筭為實以應鍾倍律積筭為法除之得	-10.0517
隂吕	-10.0521
非古	-10.0526
弦散聲	-10.0527
相近	-10.0534
大合樂	-10.0537
倍聲	-10.0551
而不能	-10.0551
四曰	-10.0551
不見	-10.0555
八月	-10.0565
亦可謂	-10.0568
一萬	-10.0573
者惟	-10.0581
二奏	-10.0585
一五	-10.0591
九夏	-10.0598
不明	-10.0599
舞人	-10.0604
度之	-10.0623
名也	-10.0624
上有	-10.0637
平調	-10.0637
其序	-10.0641
然亦	-10.0646
朱氏	-10.0648
律本	-10.0648
四纎	-10.0651
黄鍾之管	-10.0662
蔽	-10.068
飾以	-10.068
大祭祀	-10.0684
安得	-10.0692
縵	-10.0699
備矣	-10.0704
四調	-10.0711
荅	-10.0713
有大小	-10.0719
舜之	-10.0728
米	-10.0728
小胥	-10.0733
東南	-10.0735
襄	-10.0739
隱	-10.0742
樂用	-10.0742
嗣	-10.0743
區	-10.0747
面幂	-10.075
危	-10.0751
扵	-10.0753
項	-10.0755
穿鑿	-10.0755
鄙	-10.0757
預	-10.0758
㓜	-10.0762
濁南正	-10.077
之為器	-10.0775
七尺	-10.0784
之為物	-10.0788
古尺	-10.079
一凡	-10.0791
旋宫之法	-10.0793
夷蕤	-10.0793
實音	-10.0804
典同	-10.0817
後漢志	-10.0817
南吕羽	-10.0817
尺二寸	-10.0828
不傳	-10.0831
二纎	-10.0831
四十九	-10.0833
樂人	-10.0837
九奏	-10.0846
以黄鍾為	-10.0848
陽聲	-10.0856
鍾鼓	-10.0858
法度	-10.0867
也今夫	-10.0869
合尺	-10.0879
二十二	-10.0881
凡祭祀	-10.0883
一奏	-10.0885
相通	-10.0888
清宫	-10.0889
黄鍾之長	-10.0898
上生姑洗	-10.0905
鄭聲	-10.0909
合而	-10.0913
堂下之樂	-10.0918
者是也	-10.0925
長八寸	-10.0935
聲音之	-10.0935
不備	-10.0935
竹音	-10.0936
僅	-10.0939
六三	-10.0947
知樂	-10.0951
者不	-10.0954
釐八毫	-10.0958
長六寸	-10.0964
豈亦	-10.097
大食	-10.0979
和聲	-10.0981
既有	-10.0981
太和	-10.0987
勾工	-10.0999
節之	-10.0999
成於	-10.1003
無非	-10.1007
十五聲	-10.1008
代之	-10.1016
有二	-10.1017
異矣	-10.1018
寒	-10.1021
函	-10.1026
黄鍾正律	-10.1034
之事也	-10.1035
文王世子	-10.1036
烝	-10.1039
歡	-10.1042
鹿	-10.1043
確	-10.1044
器也	-10.1045
校之	-10.1046
契	-10.105
四面	-10.1051
同也	-10.1055
九十三萬七千二百九十八除之得	-10.1057
幣	-10.106
秉	-10.106
鐵	-10.106
昧	-10.1061
大雅	-10.1062
刪	-10.1064
翼	-10.1066
絫	-10.1066
珠	-10.1068
十徽八分	-10.1069
六八	-10.1069
椌楬	-10.1069
吕覽	-10.107
般	-10.107
關雎	-10.1071
也唐	-10.1072
兩叚譜同	-10.1072
九絲	-10.1075
四十五	-10.1076
兄弟	-10.1076
匏竹	-10.108
八五	-10.108
滄南正	-10.1081
倍律外徑	-10.1085
之書	-10.1086
數十	-10.1086
俗部	-10.1087
開元錢	-10.1088
相生之法	-10.109
播鼗	-10.1093
叶音	-10.1093
黄鍾大吕	-10.1096
造化	-10.11
清南正	-10.1101
荀卿曰	-10.1108
禮以	-10.1109
受命	-10.1112
也古者	-10.1115
曲折	-10.1126
六字	-10.1127
呼一	-10.1135
而民	-10.1137
去其	-10.1138
四倍	-10.1138
繼之以	-10.1141
舉矣	-10.1142
為夷則	-10.115
右旋	-10.1161
復古	-10.1164
小吕	-10.1165
樂家	-10.1178
取之	-10.1183
世俗	-10.1191
尺上	-10.1193
黄鐘之實	-10.1199
正義	-10.1199
其妙	-10.12
林應	-10.1201
為度	-10.122
國語曰	-10.1221
為均	-10.1222
黃鍾	-10.1224
定弦	-10.1231
在所	-10.1236
所制	-10.1248
在東	-10.1261
律吕之	-10.1263
如前	-10.1267
不得不	-10.1272
新聲	-10.1277
二器	-10.128
厭	-10.1283
也惟	-10.1286
夷則無射	-10.1289
以生	-10.1303
一時	-10.1307
也昔	-10.132
今日	-10.1322
八卦	-10.1337
一龠	-10.1337
而行之	-10.1337
所由	-10.1337
寡	-10.1343
者又	-10.1353
鬼	-10.1355
三章	-10.1356
黄鐘九寸	-10.1361
邦	-10.1361
加倍	-10.1364
庚	-10.1368
暢	-10.1372
菜	-10.1372
宏	-10.1374
産	-10.1376
壺	-10.1377
駕	-10.1377
㫁	-10.1379
不可不	-10.1379
堅	-10.138
欺	-10.1381
返	-10.1382
穆	-10.1382
采蘋	-10.1385
咫	-10.1385
七三	-10.1386
舛	-10.1387
以竹	-10.1387
六律六同	-10.1388
冲氣	-10.1389
彈之	-10.1389
慎	-10.1391
貴賤	-10.1392
七徽九分	-10.1394
父子	-10.1395
舂牘	-10.1395
算術	-10.1396
迎神	-10.1396
揖讓	-10.1397
決	-10.1398
啇	-10.14
匹	-10.14
濯南正	-10.1402
吳	-10.1402
以示	-10.1403
各絃	-10.1415
之使	-10.1425
之禮也	-10.1441
外周	-10.1444
同而	-10.1446
之数	-10.145
因其	-10.1456
黄鍾一均	-10.1457
鐘律	-10.146
五釐	-10.1463
不應	-10.1465
不得其	-10.1466
樂譜	-10.1467
放此	-10.1475
律尺	-10.1476
三千	-10.148
聲與	-10.1481
而得	-10.1485
律度量衡	-10.1488
之服	-10.1491
氣之	-10.1492
分為	-10.1492
姑洗為角	-10.1497
韶樂	-10.15
有五	-10.1501
與夫	-10.1504
中者	-10.1505
為小	-10.1507
帝王	-10.1507
長三尺	-10.1518
正變	-10.1521
商清	-10.1523
存乎	-10.1524
二尺四寸	-10.1524
昔人	-10.1524
千二百黍	-10.1526
之意歟	-10.1529
王道	-10.1532
武功	-10.1537
不當	-10.1556
一黍	-10.156
全度	-10.1562
為寸	-10.1564
或有	-10.1571
知之	-10.1574
商羽	-10.1576
自此	-10.158
五萬九千四十九	-10.1581
天子之	-10.1583
角清	-10.1596
内周	-10.1609
始也	-10.1624
者多	-10.1625
近世	-10.1626
二月	-10.1634
童	-10.1636
五寸三分	-10.1638
尺一尺	-10.1647
題	-10.1652
寫	-10.1652
蹈	-10.1655
上言	-10.1665
猶有	-10.1671
之為樂	-10.1682
之儀	-10.1685
雅頌	-10.1687
婦	-10.1693
十三徽一分	-10.1695
鼖	-10.1699
正律積筭	-10.1701
軒	-10.1703
為七	-10.1704
樹	-10.1704
釡	-10.1706
半律積筭	-10.1708
豳	-10.1708
聘	-10.1709
甘	-10.1709
日月星辰	-10.1712
朄	-10.1713
血	-10.1713
父母	-10.1713
寢	-10.1714
釐六毫	-10.1714
欽	-10.1714
谷	-10.1714
腔	-10.1716
叙	-10.1716
翕	-10.1717
濫	-10.1717
兒	-10.1718
和而	-10.1718
蟲	-10.1719
傅	-10.1719
麻	-10.172
啟	-10.1721
咏	-10.1722
訖	-10.1722
投壺	-10.1723
骨	-10.1723
拍板	-10.1724
滯	-10.1725
版	-10.1725
尅	-10.1725
徵聲	-10.1726
判	-10.1727
錦	-10.173
繇	-10.1731
旄人	-10.1732
六寸二分八釐	-10.1733
梁武帝	-10.1733
詣	-10.1734
貟	-10.1736
李氏	-10.1739
七釐一毫	-10.1739
吹笙	-10.174
有長短	-10.1751
祭統	-10.1751
所以示	-10.1751
大鐘	-10.1755
十二律之	-10.1756
黄太	-10.1759
鞉鼓	-10.1767
東方	-10.1773
律度	-10.1777
應鞞	-10.1777
搏牘鍾	-10.179
小舞	-10.179
定樂	-10.1796
刺	-10.1808
萬世	-10.1816
一尺二寸	-10.1822
春分	-10.1823
十二絃	-10.1826
亦云	-10.1827
有異	-10.1827
之序也	-10.1829
和也	-10.1831
若此	-10.1842
唐樂	-10.1844
以前	-10.1844
五字	-10.185
而言也	-10.1862
而實	-10.1877
次序	-10.1881
未知	-10.1888
殿庭	-10.1891
彈琴	-10.1901
行禮	-10.1904
一十寸	-10.1906
有八	-10.1909
有三	-10.1909
其辭	-10.1926
一弦	-10.1927
皆不	-10.193
律吕新書	-10.1931
又按	-10.1932
道也	-10.1935
功徳	-10.1937
辨之	-10.1944
四年	-10.1956
此章	-10.1957
吹合字按十	-10.1957
而吹之	-10.1973
中管	-10.1983
尺字	-10.1985
一絃六絃	-10.1991
則樂	-10.1994
之徒	-10.2002
此數	-10.2014
而上	-10.2016
者豈	-10.2019
譬	-10.2024
古之人	-10.2025
以黄鍾	-10.2028
一八	-10.203
倍律積筭	-10.2031
圓周	-10.2044
定律	-10.2047
於天下	-10.2048
混	-10.2052
於後	-10.2052
鄭衛	-10.2054
距	-10.2054
僣	-10.2057
一斤	-10.2058
營	-10.2058
黄鍾長九寸	-10.2062
騎	-10.2062
談	-10.2062
晦	-10.2063
札	-10.2063
六徽	-10.2064
負	-10.2064
軫	-10.2064
帛	-10.2064
誅	-10.2065
羊	-10.2065
俯仰	-10.2065
篆	-10.2065
救	-10.2067
牘	-10.2068
洽	-10.2068
収	-10.2069
晉前尺	-10.2069
旨	-10.2069
銑	-10.2071
逢	-10.2071
謡	-10.2076
饗食	-10.2076
知音者	-10.2076
飲食	-10.2077
吴	-10.2078
釐一毫	-10.2082
之時也	-10.2083
以教	-10.2083
厯代	-10.2084
佛曲	-10.2088
編縣	-10.2088
大濩	-10.2089
藥	-10.209
聲有	-10.2091
黄鐘清	-10.2093
按之	-10.21
通典	-10.2102
是書	-10.2103
於是乎	-10.2105
六奏	-10.2108
門外	-10.2119
之君	-10.2126
從來	-10.2132
大司馬	-10.2137
童子	-10.2138
於地	-10.214
三九	-10.2141
八九	-10.2143
七纎	-10.215
用此	-10.2151
音樂	-10.2154
功成	-10.2158
倣	-10.2166
人為	-10.217
與古	-10.2171
事之	-10.2175
其國	-10.2176
六成	-10.2177
二釐	-10.2177
手足	-10.2178
鼔吹	-10.2179
初六	-10.2185
以為樂	-10.2189
行也	-10.2189
二十三	-10.2196
絲竹	-10.2198
二卷	-10.2198
八六	-10.2206
教國子	-10.2206
以木	-10.2218
之為言	-10.2239
二絃七絃	-10.2246
此法	-10.2251
其下	-10.2252
觀其	-10.2262
倍律内徑	-10.2266
出焉	-10.2268
一四合	-10.2268
律家	-10.227
有大	-10.2281
若是	-10.2282
之亂	-10.2285
實積	-10.2288
之而已	-10.2308
弟	-10.2309
十一律	-10.2311
豐	-10.2325
林正	-10.2328
五聲者	-10.2334
以黄鐘	-10.2334
其他	-10.2349
尚有	-10.2352
用其	-10.2359
而已哉	-10.2367
一宫	-10.2373
西南	-10.2374
以金	-10.2376
或問	-10.2378
之辭	-10.2382
窈	-10.2384
掌之	-10.239
窕	-10.2391
韋昭	-10.2399
二十五弦	-10.2399
基	-10.2402
懷	-10.2406
廉	-10.2412
姓	-10.2414
也若夫	-10.2414
亦用	-10.2416
羞	-10.2417
揖遜	-10.2418
惠	-10.2418
冇	-10.2419
夕	-10.2419
宋陳𤾉撰禮記訓義	-10.242
五奏	-10.2421
檢	-10.2422
淵	-10.2422
希	-10.2423
羽舞	-10.2424
苑	-10.2424
大成	-10.2424
揆	-10.2424
允	-10.2425
秩	-10.2426
露	-10.2427
凝	-10.2427
亮	-10.2427
鐲	-10.2428
呉	-10.2429
井	-10.2431
的	-10.2431
掩	-10.2432
之清聲	-10.2437
正律實積	-10.2437
再拜	-10.2438
此調	-10.2438
二絲	-10.2438
中聲也	-10.2445
祭於	-10.2448
甲子	-10.2452
或云	-10.2459
而可	-10.2466
豈有	-10.2471
髙祖	-10.2472
圜鐘	-10.2479
宮清	-10.2482
而去	-10.2482
五年	-10.2484
即以	-10.2485
三之而得	-10.2486
之處	-10.2489
孔氏	-10.2503
謂黄鍾	-10.251
下徵	-10.2511
備樂	-10.2512
二弦	-10.2515
雲和	-10.2516
王公	-10.2517
有功	-10.2517
較之	-10.2518
按聲	-10.2518
六纎	-10.2518
之風	-10.2524
祭之	-10.2525
其能	-10.2525
亦當	-10.2528
上生下生	-10.253
用吟	-10.2533
一句	-10.2539
未盡	-10.2539
可以為	-10.254
在下	-10.2542
太樂	-10.2544
三者	-10.2553
之子	-10.2558
之可也	-10.2569
自乘	-10.2572
為體	-10.2572
字譜	-10.2583
亦是	-10.2584
在西	-10.2589
百二十	-10.259
於下	-10.2593
南吕宫	-10.2603
三十五	-10.261
是名	-10.2618
非不	-10.2624
二章	-10.265
七十六	-10.2659
備也	-10.2663
亦必	-10.2668
法曲	-10.2669
阼階	-10.2678
羽角	-10.2679
二二	-10.2685
多少	-10.2687
亦未	-10.2694
林鍾六寸	-10.2698
者如	-10.2712
潔	-10.2714
其時	-10.2727
蠻	-10.2729
黄鍾之實	-10.2733
百分	-10.2735
德也	-10.2736
横黍	-10.2741
絃度	-10.2753
夷樂	-10.2756
相生之	-10.276
以和	-10.2762
倍律通長	-10.2771
又謂之	-10.2772
非樂	-10.2773
不行	-10.2774
清羽	-10.2776
倣此	-10.2776
了	-10.2783
鬱	-10.2786
覽	-10.2786
閲	-10.2787
巨	-10.2787
榮	-10.2788
巽	-10.2788
賞	-10.2788
秀	-10.2789
醉	-10.2789
徧	-10.279
速	-10.2792
拂	-10.2792
葬	-10.2794
應鍾為	-10.2794
鴈	-10.2794
二尺八寸	-10.2796
傅㑹	-10.2796
誣	-10.2796
拊芍可黄正	-10.2796
新法置	-10.2796
三百篇	-10.2797
焦	-10.2798
笳	-10.2798
壞	-10.2798
芍濁黄正	-10.2799
憲	-10.2799
其體	-10.28
消	-10.2802
局	-10.2802
立春	-10.2806
吹口	-10.2807
湏	-10.2808
太尉	-10.2809
作之	-10.281
抹	-10.2811
正律通長	-10.2812
無定	-10.2812
高祖	-10.2813
氂	-10.2817
初學	-10.2817
濁蕤正	-10.2818
鼖鼓	-10.2822
祀天神	-10.2823
工尺工	-10.2824
尚宫	-10.2826
七百	-10.2827
唐人	-10.2835
説見	-10.2837
二十五絃	-10.2838
故先	-10.284
為中聲	-10.2845
可蕤正	-10.2847
陵宮	-10.2849
家語	-10.285
或作	-10.2852
樂録	-10.2853
臣嘗	-10.2859
琴有	-10.2859
而已非	-10.2864
抑又	-10.2867
所在	-10.2868
凡字	-10.2872
事而	-10.2873
有不	-10.2877
際	-10.2878
十一月	-10.2879
之類也	-10.2884
九寸為	-10.2898
經文	-10.2902
十二笛	-10.2911
其禮	-10.2913
二分五釐	-10.2941
因而	-10.2942
如此而已	-10.295
􁕴	-10.2956
堂上之樂	-10.296
為南吕	-10.2965
縣鼓	-10.297
假如	-10.2977
少商	-10.2977
是矣	-10.2979
第十二	-10.2985
徽内	-10.2985
可不	-10.2991
至應鍾	-10.2991
變也	-10.2994
太簇八寸	-10.3
諸器	-10.3004
琴之	-10.3012
林南黄	-10.3016
不動	-10.3019
各一	-10.3024
也由是觀之	-10.3032
下徴	-10.3037
二種	-10.3038
其於	-10.3044
釐四毫	-10.3048
之積	-10.305
不過如此	-10.3057
論琴	-10.3063
如琴	-10.3066
者葢	-10.3074
旦	-10.3079
以律	-10.3083
嫌	-10.309
先王之制	-10.3092
之初	-10.3092
五月	-10.3096
十二宫	-10.3107
一姑角	-10.3113
三五	-10.3115
又何	-10.3119
瀆	-10.3124
未能	-10.3125
奏大	-10.313
姑洗為羽	-10.3132
用竹	-10.3132
不用商	-10.3133
有常	-10.3137
至應鐘	-10.3137
左氏	-10.314
朱載堉	-10.3142
三成	-10.3144
禾	-10.3146
其象	-10.3146
之廣	-10.3147
時有	-10.3149
臘	-10.3156
唐宋	-10.3157
不止	-10.3158
洛	-10.3158
詩人	-10.316
腰	-10.3163
撃	-10.3167
恒	-10.317
疆	-10.317
憑	-10.3174
采蘩	-10.3174
伶州鳩	-10.3174
侑	-10.3175
郭璞	-10.3176
壎	-10.3177
后稷	-10.3177
灰	-10.3177
奮	-10.3177
玄	-10.3178
乞	-10.3179
聲氣之元	-10.318
敗	-10.318
吹工字按十	-10.3181
鑿	-10.3181
那	-10.3182
成數	-10.3183
傍	-10.3184
紹	-10.3184
笛正聲應	-10.3184
庻	-10.3185
漫	-10.3185
眀	-10.3186
今尺	-10.3189
皇祐	-10.319
以三	-10.3192
倍律内周	-10.3192
其實一也	-10.3193
酌獻	-10.3195
未聞	-10.3199
通用	-10.3199
搏牘朄	-10.3202
燕射	-10.3205
勾股	-10.3205
然非	-10.3206
有六	-10.321
起宫	-10.321
路鼓	-10.3214
器數	-10.322
五音相生	-10.3222
兩端	-10.3223
西方	-10.3225
樂志	-10.3225
大琴	-10.3228
其譜	-10.3232
七四	-10.3233
制器	-10.3238
玉律	-10.3241
徳音	-10.3245
非謂	-10.3245
小鼓	-10.3249
為毫	-10.3255
感人	-10.3271
行列	-10.3272
歌也	-10.3278
豈能	-10.3299
改作	-10.3304
逺矣	-10.3307
短長	-10.3321
七百七十	-10.3324
不論	-10.3327
六千	-10.3327
一微	-10.3328
在前	-10.3336
三調	-10.3339
九月	-10.3345
三百八十	-10.3351
之器也	-10.3357
古文	-10.3358
審度	-10.3376
太正	-10.3382
人之所	-10.3382
分别	-10.3383
非若	-10.3384
二音	-10.3386
無疑	-10.3394
義也	-10.3405
音調	-10.3406
尤為	-10.3408
古所謂	-10.3412
相生之序	-10.3417
其性	-10.342
五位	-10.343
終焉	-10.3445
之性	-10.3456
一層	-10.3457
於上	-10.3463
此皆	-10.3463
禮書	-10.3466
周禮大司樂	-10.3474
二徽	-10.3474
不特	-10.3485
而曰	-10.3485
商角徴羽	-10.3493
以詠	-10.3499
六六	-10.35
未可	-10.3502
五纎	-10.3512
無清	-10.3514
六曰	-10.3519
四弦	-10.3522
之説也	-10.3522
三微	-10.3527
為夾鍾	-10.353
發明	-10.353
鄉樂	-10.3531
七十八	-10.3531
䟽	-10.3532
禮運	-10.3535
萬舞	-10.3535
墨	-10.3538
則自	-10.3542
而已此	-10.3544
伶	-10.3544
梓	-10.3545
則亦	-10.355
律與	-10.3556
體也	-10.3558
壽	-10.3561
之位也	-10.3561
貍首	-10.3561
通長	-10.3565
臆	-10.3566
寄	-10.3567
去之	-10.3568
為尺	-10.3568
七奏	-10.357
疾徐	-10.3571
徑一圍三	-10.3572
監	-10.3572
邦國	-10.3574
想	-10.3575
祖孝孫	-10.3575
禍	-10.3576
三才	-10.3576
冥	-10.3576
㡬	-10.3577
吏	-10.3577
割	-10.3577
干戈	-10.3578
違	-10.3578
搏牘芍清黄正	-10.3578
走	-10.3579
磨	-10.3579
蒼	-10.358
驚	-10.358
雄	-10.3581
亷	-10.3581
何妥	-10.3581
釜	-10.3582
奴	-10.3582
撫	-10.3583
劑	-10.3583
争	-10.3584
宇	-10.3584
房中	-10.3584
撥	-10.3585
半律内周	-10.3586
竿	-10.3587
正律外周	-10.3587
戲	-10.3587
結	-10.3588
男女	-10.3589
莊周	-10.359
祫	-10.359
禮畢	-10.3593
成而	-10.3594
往而不返	-10.3594
樂則	-10.3595
泛聲	-10.3596
開皇	-10.3597
小樂正	-10.3598
元定	-10.3605
是也然	-10.3608
相乗	-10.361
春夏	-10.3611
莫能	-10.3614
圜鍾	-10.3619
舞大夏	-10.3622
凡言	-10.3623
第一聲	-10.3626
律吕相生	-10.3627
右轉	-10.3631
其誤	-10.3633
新説	-10.3635
皆是	-10.3639
先祖	-10.3639
比之	-10.3642
二百四十三為	-10.365
編鍾	-10.3653
樂律全書卷	-10.3654
堯舜	-10.3656
一定	-10.3659
非無	-10.3659
可見矣	-10.3661
最濁	-10.3665
為本	-10.3667
其道	-10.3668
尺工六	-10.3671
若干	-10.3673
八奏	-10.3678
學舞	-10.368
四望	-10.368
一陽	-10.3683
八面	-10.3684
筑	-10.3692
罪	-10.3695
神明	-10.3706
八四	-10.371
即所謂	-10.3714
合乎	-10.3716
七二	-10.3726
宜用	-10.373
此其	-10.373
故名	-10.3741
之遺	-10.3743
各以其	-10.3761
而能	-10.3764
少宫	-10.3768
以為法	-10.3769
他律	-10.3786
諸子	-10.379
琴徽	-10.3791
祭地	-10.3799
主乎	-10.38
説者	-10.3809
為陽	-10.3823
不作	-10.3829
其可	-10.3839
二年	-10.3843
不宜	-10.3846
二六	-10.3848
和者	-10.3851
不生	-10.3853
氣也	-10.3857
宮調	-10.3861
姑太黄	-10.3865
則用	-10.3873
神人	-10.3883
以致	-10.3886
一千二百	-10.3889
而易	-10.3902
之所由	-10.3903
三人	-10.3915
笙簧	-10.392
非禮	-10.3925
八徽半	-10.3925
成均	-10.3927
之始也	-10.3931
古人之	-10.3937
所取	-10.3937
不知何	-10.3938
律厯	-10.3942
祖宗	-10.3946
為㽔賔	-10.3947
泥	-10.3948
而作也	-10.3949
而已矣	-10.395
淑	-10.3951
吕氏春秋	-10.3961
蜡	-10.3964
舞器	-10.3965
尺四	-10.3966
掌教	-10.3968
寺	-10.3972
鳩	-10.3973
巢	-10.3973
二寸五分	-10.3975
陂	-10.3978
會	-10.3982
游	-10.3984
於心	-10.3984
庾	-10.3984
嗟	-10.3984
融	-10.3985
駁	-10.3986
丙	-10.3986
壬	-10.3987
鼓鐘	-10.3987
鵲巢	-10.3989
竭	-10.3989
四尺五寸	-10.3989
律和聲	-10.399
投	-10.399
爼	-10.3991
醫	-10.3991
躍	-10.3992
競	-10.3992
半律實積	-10.3993
房庶	-10.3993
座	-10.3996
熙	-10.3996
哭	-10.3997
範	-10.3997
岐	-10.3997
此與	-10.3997
搏牘芍濯黄正	-10.3998
索隱曰	-10.3998
懿	-10.3999
誰	-10.4
愠	-10.4
弇	-10.4
袖	-10.4
學樂	-10.4001
汝	-10.4001
纓姑正	-10.4001
酢	-10.4001
肩	-10.4002
薰	-10.4002
以九分之則為	-10.4002
複	-10.4004
風雨	-10.4005
輩	-10.4005
半律外徑	-10.4008
足姑正	-10.4009
片	-10.4014
鶴	-10.402
千載	-10.4022
夷則歌	-10.4022
由此	-10.4024
相對	-10.4025
升降	-10.4036
晉鼓	-10.4036
第三弦	-10.4039
晉志	-10.404
譬如	-10.4041
五兩	-10.4047
天地之氣	-10.4049
甚矣	-10.405
天地之間	-10.4054
徽分	-10.4055
横黍度	-10.4055
協律	-10.4058
深衣	-10.4058
建鼔	-10.4059
未及	-10.4059
在易	-10.4061
者或	-10.4061
天地之和	-10.4071
之長短	-10.4072
二忽	-10.4075
商尺	-10.4076
可南和	-10.4077
類也	-10.4082
固已	-10.4084
變化	-10.4086
前代	-10.4102
明帝	-10.4109
一勾一	-10.4111
二尺七寸	-10.4115
歌奏	-10.4115
則曰	-10.4116
九忽	-10.4119
意也	-10.4122
聲調	-10.4127
律同	-10.4127
本末	-10.4132
九九八十一	-10.4137
之德	-10.4145
百物	-10.4147
十六枚	-10.4162
皆在	-10.4163
三絃宫	-10.4181
緯	-10.4184
其長短	-10.4185
其始	-10.4193
於庭	-10.4193
生數	-10.4199
也後世	-10.4211
歸宫	-10.4232
尺一合	-10.4235
在天	-10.424
之重	-10.4243
林鐘為宫	-10.4243
是樂	-10.4254
十二鐘	-10.4262
中徽	-10.4262
始有	-10.4271
者異矣	-10.4272
則皆	-10.4293
用半	-10.4297
五變	-10.4304
使其	-10.4307
而小	-10.4316
又作	-10.4317
為和	-10.4327
上宫	-10.4329
一勾	-10.433
德音	-10.4331
小鐘	-10.4335
七寸一分	-10.4336
程	-10.4337
工合尺	-10.4338
為先	-10.4341
無形	-10.4343
生黄鍾	-10.4347
矣又	-10.4357
舞大武	-10.4357
此條	-10.4362
六絲	-10.4363
五絲	-10.4363
淮	-10.4368
不解	-10.438
九寸之管	-10.438
中弦	-10.4383
得一尺	-10.4384
抵	-10.439
不若	-10.439
箾	-10.4391
副	-10.4394
一百二十	-10.4395
實為	-10.4397
方法	-10.4397
文獻通考	-10.4398
念	-10.4404
尺工合	-10.4408
數度	-10.4417
柯	-10.4419
起于	-10.4421
􁄅	-10.4424
勤	-10.4425
几	-10.4425
瞽宗	-10.4427
𢎞	-10.4428
誕	-10.4429
頂	-10.4429
到	-10.4429
龍齦	-10.443
崑崙	-10.443
旗	-10.4431
括	-10.4432
髪	-10.4432
旋相為宫	-10.4432
循環	-10.4432
雞	-10.4432
非古制也	-10.4433
雒書	-10.4433
往往	-10.4433
筍虡	-10.4433
乘除	-10.4434
蘭	-10.4434
改正	-10.4434
機	-10.4435
宻率	-10.4435
不亦宜乎	-10.4437
蕭	-10.4438
卜	-10.4439
七徽六分	-10.4439
靈臺	-10.4439
鵠	-10.444
大宗伯	-10.4441
廣狹	-10.4441
隧	-10.4443
林鍾長六寸	-10.4444
裳	-10.4444
又自	-10.4445
弟子	-10.4445
院	-10.4445
潞	-10.4451
寸法	-10.4453
簫韶	-10.4456
二釐五毫	-10.4457
和則	-10.4457
囘	-10.4457
之别	-10.4459
納音	-10.4462
設柱	-10.4468
七徽三分	-10.4471
一篇	-10.4473
小者謂之	-10.4475
鼓間	-10.448
一日	-10.448
籥章	-10.4484
長八尺	-10.4485
不與焉	-10.4486
陽數	-10.4495
而不言	-10.4499
一面	-10.4501
安世	-10.4506
齊量	-10.4506
九成	-10.4514
長二尺	-10.4521
置一	-10.4521
之極	-10.4525
之實也	-10.4526
二南	-10.4539
黄鍾倍律	-10.4542
信矣	-10.4543
七九	-10.4544
所執	-10.4544
太史	-10.4546
爲角	-10.4548
終于	-10.455
於理	-10.4553
蔡氏曰	-10.4553
大吕宫	-10.4553
秋分	-10.4554
而欲	-10.4554
三徽	-10.4555
以待	-10.4555
漢魏	-10.4556
國家	-10.4558
者何也	-10.4564
人也	-10.4565
為分	-10.4565
四十六	-10.457
四金	-10.4577
最髙	-10.458
此二	-10.4582
即今	-10.4582
此之謂	-10.4589
古人所謂	-10.4589
十一分	-10.4589
入於	-10.459
其曲	-10.46
時人	-10.46
也故曰	-10.4602
樂經	-10.4604
動而	-10.4606
寸數	-10.4606
大明	-10.4608
五十一	-10.4613
三日	-10.4615
十六分	-10.4618
廣大	-10.4619
人主	-10.4627
東北	-10.4629
一代	-10.4629
譏之	-10.4633
樂雖	-10.464
而復	-10.4643
三分二	-10.4649
一百八	-10.4651
為仲吕	-10.4665
與此	-10.4666
􁕵	-10.4666
工一	-10.4671
工人	-10.4671
十二分	-10.4674
人舞	-10.4681
徴聲	-10.4682
候之	-10.4682
亦名	-10.4686
君也	-10.4698
其外	-10.4703
備數	-10.4709
九歸	-10.4711
如何	-10.4711
未始不	-10.4713
而反	-10.4717
列於	-10.4717
宋人	-10.4718
皆與	-10.4722
器而	-10.4726
佳	-10.4729
不拘	-10.4733
無凡	-10.4737
非所以為	-10.4737
舊制	-10.4739
餘律	-10.4742
損一	-10.4747
皆得	-10.4753
四角	-10.4754
既得	-10.4762
周禮曰	-10.4762
為主故	-10.4766
二十六	-10.4769
姑洗下生應	-10.4778
俟	-10.4778
工尺凡	-10.478
之全數	-10.4781
之患	-10.4782
五百九十	-10.4794
之制也	-10.4798
隅	-10.4799
十萬	-10.4802
不載	-10.4802
異名	-10.4804
姦	-10.4807
闋	-10.4814
之類是也	-10.4814
清濁髙下	-10.4816
繼以	-10.4817
十三弦	-10.4819
律皆	-10.4819
沿	-10.482
五三	-10.4822
旄	-10.4823
得三	-10.4834
其在	-10.4835
為法除之	-10.4835
豈不為	-10.4841
形而	-10.4844
元聲	-10.4845
地中	-10.4846
耕	-10.4847
十三絃	-10.4848
王之	-10.4855
轉為	-10.4858
節也	-10.4859
幼	-10.486
二均	-10.4861
用變宫	-10.4862
其氣	-10.4863
所容	-10.4867
援	-10.4868
度也	-10.4868
宫羽	-10.4869
雪	-10.4872
幹	-10.4873
斧	-10.4874
后夔	-10.4874
杖	-10.4875
線	-10.4877
得九	-10.4877
居一焉	-10.4878
萌	-10.4878
俯	-10.4879
李文察	-10.4879
伏羲	-10.4879
丄	-10.4879
築	-10.4881
遷就	-10.4881
願	-10.4882
備而	-10.4882
偃	-10.4882
附㑹	-10.4882
添	-10.4882
沙	-10.4883
倒	-10.4883
伊耆氏	-10.4883
訣	-10.4883
攻	-10.4883
閑	-10.4883
戎	-10.4883
歆	-10.4883
貨泉	-10.4884
撮	-10.4884
紛	-10.4884
大饗之禮	-10.4885
御製	-10.4886
徃	-10.4886
六律六吕	-10.4887
叩	-10.4887
激	-10.4888
鈴	-10.4888
打	-10.4889
揖	-10.4889
兮可以濯我	-10.4889
先王之樂	-10.489
辟廱	-10.4891
矯	-10.4892
摘	-10.4894
謝	-10.4896
西京	-10.4898
塤篪	-10.4899
和峴	-10.4899
應正	-10.4899
季夏	-10.49
去聲	-10.49
鴻	-10.49
舜典	-10.4902
四八八	-10.4902
哲	-10.4904
禮者	-10.4904
南陔	-10.4905
三絲	-10.4908
脚	-10.4909
立冬	-10.4909
九十黍	-10.4911
上黨	-10.4913
西域	-10.4913
宫徴	-10.4916
錞于	-10.4917
一斗	-10.4918
姑林南	-10.4919
之美	-10.4921
尺林商	-10.4922
相與	-10.493
長三寸	-10.4932
三十九	-10.4932
天地之中	-10.4933
文也	-10.4933
蔡氏曰按	-10.4937
著其	-10.4937
不至	-10.4939
地官	-10.4943
賔射	-10.4947
大指	-10.4948
無一	-10.4948
異也	-10.4953
矣而	-10.4955
徴調	-10.4968
八斗	-10.4975
之至也	-10.4977
執始	-10.4981
靈鼓	-10.4989
一合工	-10.499
三箇	-10.4994
舞師	-10.4997
欽定四庫全書	-10.4998
者所以	-10.5005
惑於	-10.5008
大率	-10.5009
五采	-10.5013
而為之	-10.5014
聲以	-10.5018
聲髙	-10.5021
商人	-10.5022
為義	-10.5024
未甞不	-10.5025
而已盖	-10.5031
有瞽	-10.5035
寸分	-10.5037
黄鐘之管	-10.5039
黄太姑	-10.5041
本無	-10.5043
者此也	-10.5047
永言	-10.5048
豈知	-10.5048
徴清	-10.5049
必用	-10.5056
先儒以	-10.5057
之弊	-10.506
相符	-10.5063
三終	-10.5069
難知	-10.5072
長六尺	-10.5074
本宫	-10.5075
最為	-10.508
樂止	-10.5082
中氣	-10.5083
氣應	-10.5088
第二聲	-10.5089
淫聲	-10.509
四海	-10.509
抑揚	-10.5094
適合	-10.5094
成人	-10.51
何哉	-10.5105
言之謂之	-10.5107
女樂	-10.5112
取於	-10.5119
同一	-10.5124
命之	-10.5152
大晟樂	-10.5154
大夫士	-10.5157
賢者	-10.5157
行於	-10.5158
不待	-10.516
在人	-10.5173
之本也	-10.5174
天子諸侯	-10.5175
彊	-10.5192
之職也	-10.52
中指	-10.5203
三十八	-10.5209
入門	-10.521
圓徑	-10.521
參之	-10.5211
以下至	-10.5217
吹律	-10.5218
而長	-10.5225
黄鍾笛	-10.5234
明之	-10.5236
樂類	-10.5238
孔子之	-10.5243
中節	-10.5243
域	-10.5246
漢武帝	-10.5246
盛徳	-10.5247
不協	-10.5249
本律之	-10.525
也謂	-10.5252
當為	-10.5253
六吕	-10.5255
訂	-10.5272
四月	-10.5273
求其	-10.5277
地氣	-10.5277
九尺	-10.5278
矣然則	-10.5281
數五十四	-10.5282
下生林鐘	-10.5288
以禮樂	-10.5292
宮之宮	-10.5293
夾鍾宫	-10.5303
太蔟長八寸	-10.5304
善吹	-10.5306
㲈	-10.5313
太簇商	-10.5314
制作之	-10.5316
世儒	-10.5316
前人	-10.532
六年	-10.5321
而進	-10.5321
十二調	-10.5323
而後成	-10.5325
相求	-10.5325
於古	-10.5325
先王以	-10.5326
朱熹	-10.5327
土音	-10.5327
八尺一寸	-10.5328
書言	-10.5329
􁁇	-10.533
耦	-10.5333
正宮	-10.5334
僧	-10.5338
百姓	-10.5338
宫而	-10.534
㕘	-10.5343
商角徵羽	-10.5346
世之	-10.5353
止于	-10.5354
天竺	-10.5355
仲黄林太南姑應㽔大夷夾無	-10.5355
弹	-10.5356
提	-10.5356
胷	-10.5357
鱗	-10.5357
萬寳常	-10.5357
頓	-10.5357
弓矢	-10.5358
狄	-10.5358
桃	-10.5359
睿	-10.5359
朕	-10.5359
兊	-10.536
秋冬	-10.536
諫	-10.536
易之	-10.536
渠	-10.536
凉	-10.5361
祚	-10.5361
别法以一百乘之七十五除之亦得	-10.5361
筵	-10.5361
齋	-10.5361
薛	-10.5362
様	-10.5362
頸	-10.5362
抗	-10.5363
揔	-10.5363
黄鐘生林鐘	-10.5363
佩	-10.5364
可以濯我	-10.5365
浸	-10.5365
鈔	-10.5366
癸	-10.5367
胡安定	-10.5367
為無射置無射	-10.5367
堂上堂下堂上堂下	-10.5368
跪	-10.5368
范蜀公	-10.5368
看	-10.5368
以反為文	-10.5369
尹	-10.537
軒架	-10.5371
塤箎	-10.5372
六代之樂	-10.5372
甫	-10.5372
空圍九分	-10.5373
托	-10.5374
八寸三分七釐六毫	-10.5375
相距	-10.5375
尺林	-10.5377
鑽	-10.5379
子貢	-10.5384
燕饗	-10.5386
生十一律	-10.5391
凡樂事	-10.5391
復生	-10.5393
寒暑	-10.5393
太南姑應㽔大夷夾無仲黄林	-10.5394
為始	-10.5395
朝㑹	-10.5401
生于	-10.5403
益一	-10.5405
呼二	-10.5406
不踰	-10.5408
所作也	-10.5412
終之以	-10.5414
亦不能	-10.5418
得聲	-10.5419
一家	-10.5422
食舉	-10.5423
大泉	-10.5426
唐虞	-10.5428
一百九十	-10.5432
至此	-10.5434
之過也	-10.5441
韎師	-10.5444
此之謂歟	-10.5448
尺為	-10.5448
破陣樂	-10.5449
立名	-10.545
寓於	-10.545
五八	-10.545
相生之聲	-10.545
祀天	-10.5453
舞蹈	-10.5455
越調	-10.5456
二佾	-10.5456
周南召南	-10.5459
其書	-10.5462
聲清	-10.5462
南郊	-10.5471
長九尺	-10.5474
難矣	-10.5475
釐五毫	-10.5475
宋儒	-10.5476
用正聲	-10.548
二九	-10.548
不容	-10.5485
祭義	-10.5487
必須	-10.5487
記言	-10.5488
事親	-10.5498
不曉	-10.5498
上生大吕	-10.55
互相	-10.5503
受之	-10.5506
而作	-10.551
每一	-10.5516
以琴	-10.5519
所以節	-10.552
所定	-10.5521
考擊	-10.5524
太子	-10.553
律長	-10.553
何謂	-10.5531
上生㽔賔	-10.5531
其徳	-10.5532
間有	-10.5535
言律	-10.5537
有節	-10.5538
有聲	-10.5542
乎其	-10.5543
勾凡	-10.5546
一位	-10.5547
有四	-10.5547
也周禮	-10.5556
聲皆	-10.5565
宫中	-10.5566
本音	-10.5572
並奏	-10.558
視之	-10.5584
其君	-10.5598
詳矣	-10.5601
免	-10.5605
先儒以為	-10.5606
十六管	-10.5607
五聲也	-10.5608
猶未	-10.5611
鼔瑟	-10.5617
則仍	-10.5622
從長	-10.5629
聲之髙下	-10.5636
黄鐘之律	-10.5639
曲禮	-10.5641
之辨	-10.5644
曲終	-10.5649
變全	-10.565
有清聲	-10.5656
以起	-10.5667
説也	-10.567
四表	-10.5672
宋史	-10.5679
如黄鐘	-10.5682
何其	-10.5683
語曰	-10.5696
堂上之樂也	-10.5702
淫樂	-10.5703
清明	-10.5705
八寸一分	-10.5709
每律	-10.5714
去四清	-10.5727
為第一	-10.573
五音之	-10.5736
七五	-10.5744
律凖	-10.5747
有事	-10.5755
證之	-10.5758
一百二十八	-10.576
言也	-10.5762
以木為	-10.5773
而定	-10.5786
爰	-10.5804
聲韻	-10.5806
律法	-10.5808
當有	-10.5809
帗	-10.5812
之則為	-10.5816
十餘	-10.5817
林蕤	-10.5819
馮	-10.5822
男	-10.5827
斆	-10.584
卑者	-10.5841
不可得而	-10.5843
蘆	-10.5844
提要	-10.5845
􁄇	-10.5847
冪	-10.5849
徑三分四釐六毫	-10.5849
檀弓	-10.5851
矛	-10.5852
伐檀	-10.5852
穿	-10.5852
胡笳	-10.5852
孫士毅	-10.5852
曠	-10.5853
儉	-10.5854
以祀	-10.5854
脉	-10.5855
不諧	-10.5855
占	-10.5856
位在	-10.5857
墜	-10.5858
周公之	-10.5858
嚮	-10.5858
完	-10.5858
髮	-10.5859
概	-10.5859
太蔟之	-10.5859
裨	-10.5859
發揚蹈厲	-10.586
紋	-10.586
芒	-10.586
迂	-10.586
祼	-10.586
與民同	-10.586
俎	-10.586
遽	-10.5861
苑洛志樂	-10.5861
謙	-10.5862
比例	-10.5862
吐	-10.5862
存其	-10.5863
貞	-10.5863
滋	-10.5863
漏	-10.5863
琮	-10.5863
緩急	-10.5864
参	-10.5864
整	-10.5864
不取	-10.5865
伸	-10.5865
藉	-10.5865
舟	-10.5867
叅	-10.5867
擊石拊石	-10.5867
賓客	-10.5867
商生羽	-10.5868
繡	-10.5868
未見	-10.5868
為南吕置南吕	-10.5869
茲	-10.5869
合勾	-10.5869
六十八	-10.5869
為姑洗置姑洗	-10.5869
増損	-10.587
百一十	-10.587
兮之水	-10.587
十九簧	-10.5871
肺	-10.5871
凢	-10.5872
緑	-10.5872
用八	-10.5873
爻	-10.5873
圍九分	-10.5874
濯應正	-10.5875
各一徽	-10.5878
盧	-10.5881
濁應正	-10.5882
革木	-10.5885
唐明皇	-10.5885
隔七	-10.5886
容千二百黍	-10.5886
不離	-10.5887
逺近	-10.5888
滄瑟	-10.5889
清應正	-10.5889
可應正	-10.589
之世	-10.5896
食指	-10.5899
上生太簇	-10.5904
序之	-10.5908
其大	-10.5908
國風	-10.591
今曲尺	-10.5911
相連	-10.5911
三字者	-10.5912
遺音	-10.5913
至隋	-10.5916
短者	-10.5918
帗舞	-10.5921
自乗	-10.5927
一事	-10.5928
責	-10.5928
徵商羽角	-10.5929
本在	-10.5931
髙低	-10.5933
律亦	-10.5935
石磬	-10.5936
於堂下	-10.5942
風雅頌	-10.5942
㽔賔為	-10.5948
夏禹	-10.5951
相間	-10.5952
為仲吕置仲吕	-10.5956
未詳	-10.5958
亦猶	-10.5965
而未	-10.5966
以俟	-10.5967
不精	-10.5977
最清	-10.5978
五絃之	-10.5982
二寸八分	-10.5983
四寸半	-10.5985
應鼓	-10.5986
笙入	-10.5992
四章	-10.5995
所出	-10.5999
東漢	-10.6014
姑洗七寸一分	-10.6022
四分二釐	-10.6023
明堂位曰	-10.6025
相得	-10.6025
六弦	-10.603
其謬	-10.6032
四上	-10.6033
不免	-10.6034
而不知其	-10.6035
為隂	-10.6043
三纎	-10.6044
異於	-10.6046
夫子	-10.6047
臣民	-10.6048
也古人	-10.605
然邪	-10.6052
漢制	-10.606
論曰	-10.606
尺八寸	-10.6062
司正	-10.6063
七百二十九為	-10.6067
相類	-10.6079
非所以	-10.6083
被之	-10.6085
並無	-10.6091
聽之	-10.6108
不可用	-10.611
其人	-10.611
其候	-10.6113
二十九	-10.6115
一條	-10.6116
長笛	-10.6117
者謂之	-10.6119
習之	-10.6121
不拜	-10.6121
五代	-10.6124
作樂以	-10.6129
唐之	-10.6136
夫豈	-10.6136
尺一工	-10.6142
者宜	-10.6143
角羽	-10.6144
具焉	-10.6148
告于	-10.6149
分四	-10.615
以陽	-10.6151
林鍾之	-10.6151
下生林鍾	-10.6154
一丈	-10.6155
而自	-10.6156
然後可以	-10.6158
新書	-10.616
間歌	-10.6173
之均	-10.6173
上古	-10.618
明王	-10.6183
聖王	-10.6183
大樂正	-10.6187
金聲	-10.6188
小弦	-10.619
文始	-10.6191
書傳	-10.6192
徳也	-10.6196
輕清	-10.62
考定	-10.6201
同用	-10.6204
鐘聲	-10.6208
必待	-10.6209
周旋	-10.6221
太髙	-10.6227
得矣	-10.6233
應鍾為羽	-10.6235
三重	-10.624
人道	-10.6243
十二奏	-10.6248
九者	-10.6248
第十一	-10.6249
二家	-10.625
二孔	-10.625
舞工	-10.6252
於外	-10.6275
壯	-10.628
纎為實以十億乗之以十億	-10.6283
不中	-10.6283
焉此	-10.6287
以隂	-10.6287
無窮	-10.6295
則必	-10.6295
凡尺工	-10.6297
六同	-10.6299
為一尺	-10.6301
樂之器	-10.6302
九十八	-10.6302
倍數	-10.6306
衆聲	-10.6306
公卿	-10.6307
大吕為角	-10.6308
取法	-10.6313
相見	-10.6314
所當	-10.6325
旱	-10.6334
見後	-10.6334
分明	-10.6339
嶰谷	-10.6345
白虎通	-10.6347
四絃商	-10.6348
飯	-10.635
為法除之得	-10.6352
郊特牲	-10.6353
舞衣	-10.6356
於中	-10.6356
黨	-10.6358
司徒	-10.6359
為宮始羽終	-10.6365
陵犯	-10.6369
固有	-10.6369
頁	-10.637
嗚呼	-10.6375
貨	-10.6376
丞	-10.6376
妃	-10.6376
贏	-10.6377
昏	-10.6377
☰	-10.6377
裘	-10.6378
兩君相見	-10.6379
鏗鏘	-10.6379
樣	-10.6379
中和之紀	-10.638
噫	-10.638
紀昀	-10.638
謨	-10.638
始作	-10.6381
謀	-10.6381
黎	-10.6381
翻	-10.6381
豎笛	-10.6382
秬	-10.6382
勅	-10.6382
藻	-10.6382
宋史樂志	-10.6383
肄	-10.6383
十二徽二分	-10.6383
㝠	-10.6383
沒	-10.6384
託	-10.6384
蠟	-10.6384
枝	-10.6385
栗	-10.6385
趣	-10.6385
奪	-10.6385
必自	-10.6385
屋	-10.6385
邑	-10.6386
律吕正義	-10.6386
玩	-10.6386
悖	-10.6386
旋蟲	-10.6386
陳之	-10.6387
脱	-10.6387
為林鍾置林鍾	-10.6387
礙	-10.6388
昬	-10.6389
簫韶九成	-10.6389
賁	-10.6389
不云乎	-10.639
為實先以	-10.639
龡	-10.639
乳	-10.6391
鼜	-10.6391
宋陳𤾉撰	-10.6391
八音克諧無相奪倫	-10.6392
乗除	-10.6392
翹	-10.6392
模	-10.6392
假借	-10.6393
疊	-10.6393
鳬氏	-10.6393
亦可以	-10.6393
吉凶	-10.6393
摩	-10.6394
沈約	-10.6394
鸞	-10.6394
八寸十分一	-10.6394
濁而	-10.6394
之所以為	-10.6394
宮羽	-10.6396
太常卿	-10.6396
朱干玉戚	-10.6396
陛下	-10.6398
聲必	-10.6398
靁	-10.64
乾坤	-10.64
法則	-10.6401
判縣	-10.6401
夫婦	-10.6402
祭地示	-10.6403
戛擊	-10.6403
西山蔡氏曰	-10.6405
姑洗搏牘鍾	-10.6406
復用	-10.6409
至是	-10.6409
方尺	-10.641
二十八調	-10.6411
所掌	-10.6415
者但	-10.6415
相接	-10.6417
東序	-10.6418
四十三	-10.6418
共計	-10.6419
大司徒	-10.6419
緊五	-10.6424
夷則長五寸	-10.6426
有十二	-10.6427
者如此	-10.6428
於人	-10.6433
以玉為	-10.6435
鄉飲酒禮	-10.6435
軒縣	-10.6436
詩序	-10.6436
拊鞉	-10.6437
一定之	-10.6437
立秋	-10.6439
歌詠	-10.6441
國朝	-10.6448
假令	-10.6449
姑洗宫	-10.645
得六	-10.6452
黄鍾之宮	-10.6458
瑟者	-10.6463
五聲相生	-10.6463
分七釐	-10.6467
然此	-10.6469
南蠻	-10.6471
置夷則	-10.6473
六變律	-10.6475
俗樂之	-10.6478
雷鼓	-10.6479
不同而	-10.6479
特言	-10.6484
北曲	-10.6487
之清	-10.649
不可廢	-10.6493
先於	-10.6494
為二	-10.6495
之𩔖	-10.6504
饗禮	-10.6512
讀者	-10.6513
黄南林	-10.6515
歸之	-10.6533
在地	-10.6536
南蕤	-10.6538
武徳	-10.6539
損益相生	-10.6539
樂之本	-10.6544
置姑洗	-10.6545
鍾師	-10.6548
所見	-10.655
六字者	-10.6554
典樂	-10.6556
之譜	-10.6556
其位在	-10.6557
一端	-10.6558
於南郊	-10.6564
國公	-10.6566
近之	-10.6567
以代	-10.6567
十二均	-10.6568
周南	-10.6569
千四百	-10.657
韶舞	-10.657
得之矣	-10.6573
子一分	-10.6577
近乎	-10.6578
黄鐘一均	-10.6578
散樂	-10.6578
甚明	-10.6579
夾仲	-10.6582
上生者	-10.6586
各不同	-10.659
只用	-10.6595
六十三	-10.6597
復位	-10.6598
琴操	-10.6599
其調	-10.66
倍生	-10.6608
又為	-10.6609
八孔	-10.661
首章	-10.6613
鐵尺	-10.6616
以六吕	-10.6619
不止於	-10.662
兩面	-10.6621
而不得	-10.6625
與笙	-10.6626
酉一萬九千六百八十三	-10.6627
後有	-10.6627
千萬	-10.6627
上中	-10.6628
也或謂	-10.663
亦謂	-10.6636
為異	-10.6639
舊譜	-10.6644
黄鍾為角	-10.6645
銅尺	-10.6647
亦不可	-10.6653
故知	-10.6657
乃是	-10.6659
四夷	-10.666
因以	-10.6663
至唐	-10.6665
不忘	-10.6667
之自然	-10.6672
論律	-10.6676
於天	-10.668
太極	-10.6682
舞曲	-10.6686
原有	-10.67
為宫聲	-10.6707
新律	-10.6709
兼用	-10.6711
大事	-10.6725
干舞	-10.6728
為哉	-10.6733
皆屬	-10.6733
古器	-10.6733
是時	-10.6738
以道	-10.6739
有定	-10.6741
八寸四分	-10.6742
之差	-10.6743
立於	-10.6746
以節	-10.6751
試以	-10.6758
也乃	-10.6764
待之	-10.6773
徵商	-10.6775
遂以	-10.6776
人人	-10.6776
無徴	-10.6777
及於	-10.6778
與今	-10.678
嘗謂	-10.6787
之功	-10.6789
九千	-10.6791
五孔	-10.6798
位於	-10.6803
短而	-10.6807
中和之	-10.6814
覩	-10.682
不至於	-10.6824
其名曰	-10.6828
勾工凡	-10.6829
定聲	-10.6831
韎	-10.6841
見矣	-10.6845
相當	-10.6846
萬九千六百八十三	-10.6856
參分	-10.6864
本是	-10.6866
驗之	-10.6867
不成聲	-10.6869
之徑	-10.6873
宫之羽	-10.6877
有圖	-10.6877
師古曰	-10.6879
踰	-10.688
呦	-10.6886
本非	-10.6886
不廢	-10.6886
將以	-10.6892
經傳	-10.6892
以雅	-10.6901
漢後	-10.6903
箱	-10.6907
作律	-10.6909
也禮	-10.6912
驟	-10.6915
皇言定聲	-10.6918
鼓舞	-10.6918
懼	-10.692
云耳	-10.692
聰	-10.6924
荀	-10.6925
道焉	-10.6926
無射宫	-10.6927
樂之情	-10.6928
豕	-10.693
館	-10.6931
敷	-10.6931
遜	-10.6931
八音克諧	-10.6932
攝	-10.6932
一六八九	-10.6933
音立體	-10.6933
把	-10.6933
婆羅門	-10.6934
六斗四升	-10.6935
諭	-10.6935
陳𤾉	-10.6935
冩	-10.6936
壊	-10.6936
綴兆	-10.6937
奢	-10.6937
皮弁	-10.6937
笙磬同音	-10.6937
亡國之音	-10.6937
禄	-10.6938
鑒	-10.6938
殺伐	-10.6939
衞	-10.694
掘	-10.694
樂而不淫	-10.694
營造尺	-10.694
麥	-10.6941
聖諭	-10.6941
戸	-10.6942
摶	-10.6942
為實上生者四因三歸得	-10.6942
為夷則置夷則	-10.6942
阮咸	-10.6942
阮	-10.6943
凱	-10.6943
夢	-10.6943
仗	-10.6943
庣	-10.6943
觸	-10.6945
牧	-10.6945
鉤	-10.6946
興焉	-10.6946
它	-10.6946
屬陽	-10.6946
胡瑗	-10.6946
熈	-10.6947
異者	-10.6947
搏牘鏞琴	-10.6948
劉濓	-10.6948
需	-10.6949
堵	-10.695
禘祫	-10.695
臯陶	-10.695
縱横	-10.6951
積筭為實以仲吕倍律積筭為法除之得	-10.6951
琴瑟以詠	-10.6952
九分寸之一	-10.6952
蔡子曰	-10.6955
三分損益上下相生	-10.6955
饗燕	-10.6955
倍之為實以仲吕倍律積筭為法除之得	-10.6956
林鐘生太簇	-10.6956
臆説	-10.6957
踈	-10.6957
増減	-10.6957
空圍内	-10.6959
瑞	-10.6959
后土	-10.696
送神	-10.696
常在	-10.6962
其節	-10.6962
季通	-10.6962
以漸而	-10.6964
聲音之道	-10.6965
説文曰	-10.6966
時也	-10.6967
丸	-10.6967
常御	-10.6968
氣至則	-10.6969
此論	-10.6971
之物	-10.6975
以此觀之	-10.6976
性之	-10.6979
不可勝	-10.698
大旱	-10.698
樂架	-10.6982
不息	-10.6982
五言	-10.6982
下至	-10.6983
子張	-10.6984
禮樂之情	-10.6985
世祖	-10.6985
不可易	-10.6988
為禮	-10.6989
宋朝	-10.6994
可疑	-10.7
釐九毫	-10.7002
泥於	-10.7006
簡易	-10.7006
林鐘六寸	-10.7007
開元中	-10.7014
風雅	-10.7014
教也	-10.7016
理數	-10.7019
化之	-10.702
或謂之	-10.702
耳目	-10.7022
也哉	-10.7026
五成	-10.7026
之要	-10.703
頭管	-10.7032
遣使	-10.7037
之說也	-10.704
必欲	-10.7043
擊磬	-10.7044
其色	-10.7046
中庸	-10.7047
淮南子曰	-10.7047
觀者	-10.7049
註疏	-10.705
為變宮	-10.7053
之律而	-10.7064
號為	-10.7065
疑其	-10.7065
成功	-10.7066
用焉	-10.7068
以文	-10.7069
小人	-10.707
者特	-10.7071
藏之	-10.7077
而難	-10.7078
魏晉	-10.7078
十三簧	-10.7079
天地自然	-10.7081
用倍數	-10.7081
能知	-10.7085
也但	-10.709
近於	-10.7092
半兩	-10.7097
而不亂	-10.7099
林太南姑應㽔大夷夾無仲黄	-10.7105
一十六	-10.7105
匏音	-10.7107
其論	-10.7111
是五聲	-10.7113
正半	-10.7113
四二	-10.7121
用二變	-10.7122
唐志	-10.7124
置黄鍾	-10.7126
算數	-10.7132
元氣	-10.7133
而至於	-10.7143
孫子	-10.7144
凡工凡	-10.7149
各有所	-10.7149
毎律	-10.715
磬聲	-10.7154
大射禮	-10.7155
得五	-10.7155
有所謂	-10.7155
所感	-10.7157
以節樂	-10.7159
音聲	-10.7162
者雖	-10.7162
而弗	-10.7174
調亦	-10.7176
制律	-10.7182
寸一分	-10.7182
律厯志	-10.7186
九宫	-10.7188
而居	-10.719
性情	-10.7197
則得	-10.7201
毫一絲	-10.7202
雖異	-10.7203
世子	-10.7207
馬上	-10.721
播之	-10.7214
雅音	-10.7216
四十四	-10.7217
三絃之	-10.7219
焉是	-10.722
六章	-10.7222
得八	-10.7224
何嘗	-10.7226
也記曰	-10.723
本數	-10.7238
之狀	-10.7241
舉其	-10.7252
地祇	-10.7252
不已	-10.7253
雖與	-10.7256
與天地	-10.7257
工合	-10.7265
此所謂	-10.7279
而加	-10.7281
之節也	-10.7282
事故	-10.7284
林南應	-10.7287
外方	-10.7296
不從	-10.73
十絲	-10.7301
所以象	-10.7301
乃作	-10.7307
為凖	-10.7309
大笙	-10.731
一隂	-10.7312
初九	-10.7323
笛之	-10.7325
以律吕	-10.7327
則凡	-10.7327
七曰	-10.7329
三分去一	-10.7336
四時之	-10.7336
五曰	-10.7339
三尺二寸	-10.7341
不差	-10.7344
所稱	-10.7349
與上	-10.7356
上商	-10.7359
别名	-10.7372
夏商	-10.738
五寸六分	-10.7394
仲吕角	-10.7396
於前	-10.7397
五十八	-10.7398
八八	-10.7398
之野	-10.7405
黄弦	-10.7411
作為	-10.7414
皆謂	-10.7419
者因	-10.7422
真數	-10.7432
詩書	-10.7432
羽夾	-10.7436
欲求	-10.744
若依	-10.7443
二百四十	-10.7444
無復	-10.7445
五聲之數	-10.7447
精微	-10.7448
升歌清廟	-10.7448
六篇	-10.7449
人事	-10.7452
又加	-10.7456
可謂知	-10.7458
四太商	-10.7459
旋相	-10.7463
定數	-10.7463
尺工凡六	-10.7463
凡四	-10.7469
為五音	-10.7469
顔	-10.7471
兼歌	-10.7473
皆同	-10.7476
中聲所	-10.7479
置應鍾	-10.748
焉其	-10.7485
以所	-10.7488
出而	-10.7496
萬五千	-10.7501
揚雄	-10.7502
其功	-10.7502
陔	-10.7504
三篇	-10.7507
詢	-10.7509
龍池	-10.751
乏	-10.7511
斁	-10.7511
鄭司農	-10.7512
􁄆	-10.7514
等謹案	-10.7514
蠶	-10.7516
拊止	-10.7518
敏	-10.7518
即得	-10.7519
抃	-10.7519
瞻	-10.7519
殘	-10.7519
災	-10.7521
一二三四五	-10.7521
坊	-10.7521
鉞	-10.7521
崔	-10.7522
迨	-10.7523
諡	-10.7523
霜	-10.7524
舎	-10.7524
虧	-10.7524
馭	-10.7524
睦	-10.7526
戛	-10.7526
則不然	-10.7526
綸	-10.7527
股肱	-10.7527
麾	-10.7527
陳暘	-10.7528
戞擊	-10.7528
崩	-10.7528
學士大夫	-10.7529
徑三分圍九分	-10.7529
仲尼燕居	-10.7529
研	-10.7529
臧	-10.7529
其來尚矣	-10.753
効	-10.753
不亦可乎	-10.753
黄鍾商	-10.753
貳	-10.7531
薫	-10.7531
据	-10.7531
庫	-10.7531
黄鍾生林鍾	-10.7531
珍	-10.7532
卧	-10.7532
鳥獸	-10.7532
矣蓋	-10.7532
絳	-10.7533
其心	-10.7533
圉	-10.7533
四夷之樂	-10.7533
穹	-10.7533
巡	-10.7533
飛灰	-10.7533
姜夔	-10.7533
彦	-10.7534
笙鏞以間	-10.7534
辱	-10.7534
眇	-10.7535
宋陳𤾉撰樂圖論	-10.7535
景祐	-10.7535
豪	-10.7535
措	-10.7535
潛	-10.7535
羽生角	-10.7536
猛	-10.7537
景公	-10.7537
本位	-10.7537
咎	-10.7537
葦籥	-10.7538
像	-10.7538
爾雅釋樂	-10.7539
毁	-10.7539
為夾鍾置夾鍾	-10.7539
亞	-10.754
豳籥	-10.754
張文收	-10.754
吹凡字	-10.7541
九分為寸	-10.7541
霜降	-10.7541
杜氏	-10.7542
其義一也	-10.7543
拱	-10.7543
識之	-10.7543
再作再作	-10.7544
六尺為歩	-10.7545
大同小異	-10.7545
樂而不	-10.7546
退位為實七億四千	-10.7546
為八十一	-10.7546
訓義	-10.7547
西山蔡氏曰按	-10.7547
荀勗	-10.7548
函鐘	-10.7549
以治	-10.755
萬八千	-10.7552
隅法	-10.7552
為大吕置大吕	-10.7553
將軍	-10.7556
下士	-10.7557
絲五忽	-10.7559
等操	-10.756
㽔賔下生大	-10.7563
筭家	-10.7563
太樂令	-10.7565
即位	-10.7567
笛色	-10.7568
祖考	-10.7568
原闕	-10.7568
序曰	-10.7574
不設	-10.7574
康成	-10.7578
黄太黄	-10.7579
領調	-10.7579
隂聲	-10.7582
一百一十	-10.7586
立調	-10.759
吹籥	-10.7592
子孫	-10.7596
召南	-10.7601
十有二律	-10.7603
為蕤賔置蕤賔	-10.7603
三毫四絲六忽	-10.7607
律生	-10.7607
所撰	-10.7608
答曰	-10.7609
命之曰	-10.761
特其	-10.7612
一均七聲	-10.7613
皆倣此	-10.7613
定尺	-10.7615
善歌者	-10.7621
之數則	-10.7621
遂謂	-10.7621
瑟譜	-10.7639
為九	-10.7643
者言之	-10.7646
而歌之	-10.7651
立夏	-10.7652
禮之所	-10.7654
度尺	-10.7655
圖書	-10.7657
惜	-10.7662
角徵羽	-10.7665
漢武	-10.7673
禮器	-10.7673
三器	-10.7673
以節之	-10.7675
初獻	-10.7676
鄉射禮	-10.7677
仍是	-10.7679
臣竊	-10.768
為五	-10.7684
未為	-10.7689
文采	-10.769
不滿	-10.7695
法以	-10.7701
胡樂	-10.7702
是也有	-10.7703
六十七	-10.7703
十二律皆	-10.7704
有云	-10.7707
其宿	-10.7707
胡琴	-10.7709
大學	-10.7712
管長九寸	-10.7712
言之也	-10.7715
樂曲	-10.7716
釐五百	-10.7722
應六	-10.7727
于律	-10.7728
文宗	-10.773
亦不過	-10.773
故事	-10.774
大路	-10.7743
一百六十	-10.7745
考其	-10.775
徳之	-10.7753
五千	-10.7758
相似	-10.7759
百寸	-10.776
所製	-10.7761
五層	-10.7769
按徽	-10.7779
禮樂之道	-10.778
宋尺	-10.7783
内則	-10.7783
音韻	-10.7786
始生	-10.7788
何如	-10.7789
知此	-10.7792
益一上生	-10.7796
新樂	-10.78
之㫖	-10.78
千古	-10.7805
無用	-10.781
以銅	-10.7815
鄭註	-10.7816
之正也	-10.7817
成之	-10.7818
舂一	-10.7822
三等	-10.783
其俗	-10.783
羽應	-10.7831
不知其	-10.7834
於内	-10.7835
六代	-10.7835
無他	-10.7835
制也	-10.7835
且如	-10.7844
大鼔	-10.7846
堂下之樂也	-10.7852
漢尺	-10.7856
萬已上開	-10.7857
豈以	-10.7865
在位	-10.7868
同於	-10.7871
一歩	-10.7873
二尺二寸	-10.7887
戒之	-10.7888
有變	-10.7892
歌無	-10.7899
一尺四寸	-10.7904
彼其	-10.7923
施用	-10.7924
鼓也	-10.7926
為名	-10.7927
乎然	-10.7928
行人	-10.7932
一簴	-10.7939
五行之	-10.794
黄鐘之數	-10.7951
四方之	-10.7952
百年	-10.797
即今之	-10.7972
然以	-10.7987
安能	-10.7988
角應	-10.7988
得一百	-10.799
之甚	-10.7993
有不為	-10.7994
是亦	-10.8002
十日	-10.8008
歌南	-10.8009
可通	-10.8009
既定	-10.801
長四寸	-10.8011
者歟	-10.8014
鳯凰	-10.802
儒臣	-10.8027
成周	-10.8043
矣故曰	-10.8049
一切	-10.8051
以就	-10.8055
清樂	-10.8059
則陽	-10.806
溺	-10.8061
少聲	-10.8066
工南羽	-10.8069
常用	-10.808
迭相	-10.8081
狀如	-10.8085
僕	-10.8088
鼓琴	-10.8091
今時	-10.8091
六寸五分八釐三毫四絲六忽	-10.8093
泛	-10.8098
而已然	-10.8099
牡	-10.8099
此是	-10.8101
應南林	-10.8101
一大調也	-10.8104
也若以	-10.8105
故孔子	-10.8106
寸分釐毫絲	-10.8108
晏	-10.8108
太簇鎛鐘	-10.8113
合黄宫	-10.8113
周道	-10.8115
怠	-10.8115
六百二十	-10.8117
於堂上	-10.8123
樂也者	-10.8131
兑	-10.8131
葛	-10.8133
天黿	-10.8134
南吕商	-10.8135
波	-10.8136
矣若	-10.8137
者何	-10.8139
奪倫	-10.814
茂	-10.814
戊	-10.814
禽	-10.8143
和故	-10.8143
靡靡	-10.8144
祴	-10.8145
慕	-10.8145
十三萬一千七十二	-10.8145
婆	-10.8146
凌	-10.8146
雝	-10.8146
歛	-10.8147
功德	-10.8148
祖冲之	-10.8148
險	-10.8148
並同	-10.8148
聞其	-10.8148
三尺六寸	-10.8149
塗	-10.815
膠	-10.815
魏文侯	-10.815
銀	-10.815
婁	-10.815
𨽻	-10.815
六律正五音	-10.815
白駒	-10.815
鈎	-10.8151
恕	-10.8152
幷	-10.8152
晝	-10.8153
靈星	-10.8153
輒	-10.8153
陳祥道曰	-10.8154
淨	-10.8154
技	-10.8154
弁	-10.8154
个	-10.8155
苐	-10.8155
隙	-10.8155
紐	-10.8155
自外	-10.8155
超	-10.8155
慨	-10.8155
淡	-10.8155
篤	-10.8156
印	-10.8156
宛轉	-10.8156
乃得	-10.8157
又如	-10.8157
練	-10.8157
者非也	-10.8157
州鳩	-10.8158
冐	-10.8158
姜	-10.8158
髹	-10.8158
樂名	-10.8159
湛	-10.8159
蔡西山	-10.8159
過於	-10.8159
彰	-10.8159
形制	-10.8159
征伐	-10.8159
頖宮禮樂䟽	-10.8159
以動	-10.816
内容方	-10.816
四寸一分四釐二毫一絲三忽五微六纎	-10.816
沖	-10.816
詩言志	-10.8161
縮	-10.8161
變而為	-10.8161
紙	-10.8162
編鐘編磬	-10.8162
盆	-10.8162
億四千	-10.8162
緋	-10.8163
朔鼙	-10.8163
十二筩	-10.8163
日躔	-10.8164
夷狄	-10.8164
夹鍾	-10.8165
五百一十二	-10.8165
勒	-10.8165
儀禮大射	-10.8166
為太蔟置太蔟	-10.8166
子男	-10.8167
羌笛	-10.8168
大清	-10.8168
戍	-10.8168
星辰	-10.8169
鄉飲酒之禮	-10.8169
邉	-10.817
肇	-10.817
享人鬼	-10.817
魯頌	-10.817
鞠	-10.8171
隊	-10.8171
無射為宫	-10.8172
頁前	-10.8172
洞簫	-10.8173
依永	-10.8173
徙	-10.8173
大射儀	-10.8173
贈	-10.8174
武后	-10.8175
五分九釐四毫六絲三忽	-10.8175
焉則	-10.8175
不逺	-10.8177
幘	-10.8177
朱干	-10.8177
崇德	-10.8178
足南正	-10.8178
出於自然	-10.818
上工凡	-10.818
七尺五寸	-10.8181
算律	-10.8182
與之相應	-10.8182
奏騶虞	-10.8183
神瞽	-10.8183
億二千九百七十三萬一千五百四十七	-10.8184
四牡	-10.8184
成文	-10.8186
歌林	-10.8186
南吕搏牘鍾	-10.8186
十枚	-10.8187
相併	-10.8188
亦已	-10.8189
臣愚	-10.819
也何有	-10.819
婦人	-10.8192
磬折	-10.8192
先農	-10.8194
頌瑟	-10.8195
無益	-10.8196
五嶽	-10.8199
晉侯	-10.82
玉斗	-10.82
既以	-10.82
傳之	-10.8202
春秋傳曰	-10.8203
之意邪	-10.8204
安之曲	-10.8205
三分損益之法	-10.8209
江南	-10.8209
周鬴	-10.8209
唐太宗	-10.821
十六聲	-10.8215
第五弦	-10.8217
置太蔟	-10.822
好惡	-10.8221
仁也	-10.8223
末節	-10.8225
五絃角	-10.8229
今世	-10.8233
於上商	-10.8236
得古	-10.8237
軍事	-10.824
秦王	-10.8241
秦漢	-10.8241
别置	-10.8243
是非	-10.8243
宋志	-10.8243
六尺四寸	-10.8246
釐有竒	-10.8249
九功	-10.8249
至髙	-10.825
記所謂	-10.8251
萬一千	-10.8253
河南	-10.8254
崇徳	-10.8254
五味	-10.8256
慢角	-10.8257
愷樂	-10.8257
正律内周	-10.8259
吉禮	-10.8262
以作樂	-10.8262
十二正律	-10.8264
加二變	-10.8266
太簇為商	-10.827
四者	-10.827
最大	-10.8273
三分五釐	-10.8275
萬一	-10.8276
更無	-10.8277
尚何	-10.8281
置林鍾	-10.8286
在其中矣	-10.8287
工尺上	-10.8289
司干	-10.8292
而取	-10.8294
工師	-10.8294
倍之為	-10.8301
以盡	-10.8303
以降	-10.8308
有一定之	-10.8314
五郊	-10.8317
再作	-10.8319
以合字	-10.832
季秋	-10.8321
前漢	-10.8321
猶言	-10.8322
而尚	-10.8335
也至於	-10.8336
之效也	-10.8337
屬隂	-10.8337
商羽角	-10.8337
第三聲	-10.834
尚未	-10.8343
何必	-10.8345
律之長	-10.8354
成物	-10.8355
子午	-10.8358
琴律	-10.8362
還宫	-10.8366
亦足	-10.8372
不類	-10.8373
四百七十	-10.8373
仲夏	-10.8374
所教	-10.8376
度以	-10.8378
之類皆	-10.8379
萬民	-10.8381
在後	-10.8382
凡五	-10.8385
五方	-10.8385
樂語	-10.8385
萬七千	-10.8388
一鈞	-10.8391
倨句	-10.8392
畢矣	-10.8393
之大者也	-10.8394
二微	-10.8401
生子	-10.8404
耳非	-10.8407
是黄鍾	-10.8407
矣又曰	-10.8412
所主	-10.8414
下宫	-10.8416
臣等	-10.8419
六面	-10.8422
其聲清	-10.8427
歌應	-10.8429
大吕笛	-10.843
全數	-10.8432
九十五	-10.8432
射者	-10.8432
黄林太南姑應㽔	-10.8433
象成	-10.8433
中吕宫	-10.8433
角商	-10.8436
七百二十	-10.8438
為人	-10.8445
五章	-10.845
無商	-10.8452
地祗	-10.8453
平也	-10.8453
所起	-10.846
二篇	-10.8464
􁕵)	-10.8465
□□□	-10.8473
四器	-10.8474
應律	-10.8476
鐘鎛	-10.8477
故也樂書卷	-10.8479
曰夫	-10.8482
無常	-10.8487
矣是	-10.8488
又與	-10.8491
象武	-10.8504
為飾	-10.8505
中絃	-10.8506
雖多	-10.8512
五節	-10.8513
亡矣	-10.8518
筭律	-10.852
鼗鼓	-10.8535
凡有	-10.8537
六詩	-10.8538
為林鐘	-10.8551
曲名	-10.8552
也天子	-10.8553
同異	-10.8555
其舞	-10.856
為管	-10.8564
未之	-10.8569
三百五十	-10.8571
妨	-10.8572
在焉	-10.8584
曲尺	-10.8586
至若	-10.859
自唐	-10.8595
倡之	-10.8596
二分半	-10.8599
一分則	-10.8599
之原	-10.8601
有小	-10.8603
合奏	-10.8609
刺之	-10.8612
而擊之	-10.8615
不定	-10.8616
五度	-10.8616
今樂	-10.8618
益之	-10.8634
之大者	-10.8641
而其聲	-10.8642
暇	-10.8643
徴應	-10.8644
及此	-10.8655
多有	-10.8663
體用	-10.8665
通之	-10.8667
分兩	-10.8669
欲以	-10.8671
而至	-10.8676
更有	-10.868
無射歌	-10.8681
太簇為徴	-10.8683
大功	-10.8685
至矣	-10.8686
工勾凡	-10.8687
正直	-10.8689
五微	-10.8689
則天	-10.8697
用玉	-10.8699
拘於	-10.8708
更為	-10.8709
為四十八	-10.8718
書所謂	-10.8725
一物	-10.8726
以和之	-10.8728
磬虡	-10.8731
一周	-10.8731
覈	-10.8736
備於	-10.8737
二丈	-10.8739
小鼔	-10.8741
自漢	-10.8743
因所	-10.8745
徑一尺	-10.8749
但言	-10.8763
相隔	-10.8767
凡律	-10.8767
六間	-10.877
焉然則	-10.8773
瑟之	-10.8773
荇	-10.8785
今古	-10.8787
文之以五聲	-10.879
上聲	-10.8791
尺則	-10.8791
孟康	-10.8792
蓋自	-10.8794
其術	-10.88
儺	-10.88
勉	-10.8801
笛體中	-10.8802
探	-10.8802
三曲	-10.8803
遭	-10.8804
不敬	-10.8804
四分四釐	-10.8806
楊傑	-10.8807
乾隆四十六年	-10.8807
一氣	-10.8808
莖	-10.8809
其率	-10.8809
羲	-10.881
然哉	-10.881
派	-10.881
筍	-10.8811
球	-10.8812
奥	-10.8813
明乎	-10.8813
點	-10.8813
置夾鍾	-10.8813
决	-10.8814
有底	-10.8814
踵	-10.8814
渉	-10.8814
蔡季通	-10.8814
齊景公	-10.8815
武王伐紂	-10.8815
莫重於	-10.8815
朝覲	-10.8815
陣	-10.8816
同是	-10.8817
筍簴	-10.8817
𤾉	-10.8817
萃	-10.8817
宛	-10.8818
春秋傳	-10.8818
十年	-10.8818
僖	-10.8818
般涉調	-10.8818
黙	-10.8819
𬎼	-10.882
皆文之以五聲	-10.882
何瑭	-10.882
本諸此	-10.882
舞動其容	-10.8821
傾	-10.8821
為實下生者二因三歸得	-10.8821
逓	-10.8821
廼	-10.8821
别法以五十乘之七十五除之亦得	-10.8821
規矩	-10.8822
重複	-10.8823
慈	-10.8823
吹上字按十	-10.8823
溷	-10.8824
沉	-10.8824
禹貢	-10.8824
壁	-10.8824
今觀	-10.8824
麟	-10.8825
平聲	-10.8825
惟此	-10.8825
廷	-10.8826
証	-10.8826
曷	-10.8826
牽合	-10.8827
益稷	-10.8827
樂同上但用	-10.8827
升堂	-10.8827
鄰	-10.8827
涉	-10.8827
胃	-10.8827
江左	-10.8829
板眼	-10.8829
莭	-10.8829
挑	-10.8829
忌日	-10.8829
鍊	-10.883
剔	-10.883
六六三十六	-10.883
杜夔	-10.8831
銀字	-10.8831
笛飲聲	-10.8831
樂由中出	-10.8832
編懸	-10.8832
羽葆	-10.8833
竊疑	-10.8833
主人阼階	-10.8834
遏	-10.8834
灰飛	-10.8834
血氣	-10.8835
毋論	-10.8836
祀四望	-10.8836
歌永言	-10.8836
九百一十五萬三千五百三十八	-10.8837
變宮之宮	-10.8837
袍	-10.8838
掲	-10.8838
史記律書	-10.8838
劉向	-10.8839
軍旅	-10.8839
勗	-10.884
單簫	-10.884
踏	-10.884
抄	-10.8841
精妙	-10.8841
彩	-10.8841
相比	-10.8841
大石調	-10.8842
精㣲	-10.8842
一釐二毫	-10.8843
柳	-10.8844
考證	-10.8845
居中央	-10.8845
毬	-10.8845
羽太	-10.8846
四瀆	-10.8848
見于	-10.8849
十三徽外	-10.885
為分法	-10.8851
其德	-10.8851
歌㽔	-10.8852
易以	-10.8852
天地之情	-10.8854
夾鐘特磬	-10.8854
長幼	-10.8855
張衡	-10.8855
聖祖	-10.8855
孔穴	-10.8857
雜比	-10.8858
發聲	-10.8858
國人	-10.8859
師乙	-10.8861
大㲈	-10.8862
真宗	-10.8863
無射鎛鐘	-10.8864
權量	-10.8865
易曉	-10.8866
不可缺	-10.8866
方澤	-10.8868
而正之	-10.8868
百戯	-10.8868
矣今	-10.8869
一絃六絃徵	-10.8874
歌南風	-10.8876
籟	-10.8877
得十七萬七千一百四十七	-10.8881
載之	-10.8886
以姑洗	-10.8887
五榖	-10.8887
而於卦為	-10.8888
述之	-10.8888
二説	-10.889
仲儒	-10.8892
不可行	-10.8894
在其中	-10.8895
三一	-10.8896
之水	-10.8899
可以兼	-10.8901
上生林鐘	-10.8903
分之一	-10.8903
正宮調	-10.8905
解見	-10.8905
八十八	-10.8906
雅舞	-10.8908
象曰	-10.8908
隂數	-10.891
某謂	-10.8917
大槩	-10.8917
亦即	-10.8918
更造	-10.8919
為十二律	-10.892
為尊	-10.8922
其詞	-10.8922
又非	-10.8923
大吕角	-10.8927
歸於	-10.8929
黄鍾之均	-10.8933
天數	-10.8936
體之	-10.8937
釐二毫	-10.8938
莫若	-10.8941
四十乗之	-10.8942
讀作	-10.8943
升三分	-10.8943
周流	-10.8943
第二弦	-10.8947
皆從	-10.8947
十一奏	-10.8947
諸臣	-10.8948
象物	-10.8954
一寸二分	-10.8955
國初	-10.8956
漢志曰	-10.8956
遺意	-10.896
管色	-10.8962
不變	-10.8962
猶可	-10.8963
皆不能	-10.8964
笙簫	-10.8964
上生無射	-10.8966
然其	-10.8967
無害	-10.8968
非真	-10.8969
同者	-10.8971
繁聲	-10.8971
中正	-10.8975
誤也	-10.8983
軍中	-10.8987
以配	-10.8988
乆矣	-10.8993
一卷	-10.8996
大旅	-10.8999
學校	-10.9
則濁	-10.9003
下生夷則	-10.9004
聲數	-10.9004
已久	-10.9004
詩譜	-10.9005
二變聲	-10.9008
不聞	-10.9009
一歳	-10.9014
一為一分	-10.9014
下生黄	-10.9022
而相和	-10.9028
無有	-10.9029
萬分	-10.9043
新尺	-10.9052
宋時	-10.9053
林鐘特磬	-10.9056
擊鼔	-10.9061
總論	-10.9062
林仲夾	-10.9063
大畧	-10.9067
所用者	-10.9082
得二十七	-10.9083
十二律而	-10.9085
百王	-10.9086
如宫調	-10.9086
則不及	-10.9089
用七	-10.9092
在廟	-10.9095
則所謂	-10.9096
鄭云	-10.91
不絶	-10.9105
詩有	-10.9107
於黄鐘	-10.9111
七變	-10.9115
晉之	-10.9121
大約	-10.9123
而治	-10.9126
試之	-10.9129
隂也	-10.9136
其製	-10.9137
終則	-10.9141
欽定四庫全書樂律全書卷	-10.9141
一成	-10.9145
兩字	-10.9145
三萬二千七百六十八	-10.9149
文章	-10.9152
之難	-10.9152
十徽為	-10.9154
命作	-10.9157
詩言志歌永言聲依永律和聲	-10.9159
各得	-10.9159
衆音	-10.9161
為八十四調	-10.9161
厯家	-10.9167
相合也	-10.917
分毎分	-10.9171
八除	-10.9172
㽔大夷夾無仲黄	-10.9172
此器	-10.9173
宋元	-10.9175
先王之制也	-10.9182
達於	-10.9184
三王	-10.9187
樂書曰	-10.9189
初絃	-10.9191
特以	-10.9191
圓分	-10.92
山有	-10.9201
改為	-10.9204
用九	-10.9208
以行之	-10.9208
聲相同	-10.9209
固非	-10.9215
為率	-10.9216
隋書	-10.9221
節樂	-10.9222
者禮也	-10.9228
詩也	-10.9236
奏陔	-10.9242
亦與	-10.9243
太學	-10.9243
不經	-10.9243
能使	-10.9244
亦隨	-10.9247
月也	-10.925
則禮	-10.9254
一百六十二	-10.9255
二百二十	-10.9262
有七聲	-10.9264
絲音	-10.9265
矣盖	-10.9268
今考	-10.9268
而得之	-10.9276
一寸五分	-10.9277
唐時	-10.9278
餘分	-10.9279
按載堉	-10.9287
角太	-10.9292
纖有竒舊法置	-10.9295
盡矣	-10.9295
方面	-10.9302
鼔也	-10.9303
乎且	-10.9305
為實五億乗之	-10.9306
千里	-10.9307
歎之	-10.9307
唐尺	-10.9308
方位	-10.9312
王子	-10.9316
謬矣	-10.932
而八音	-10.932
而不敢	-10.9326
譜中	-10.9329
有五聲	-10.933
五百三十	-10.9331
亥一十七萬七千一百四十七	-10.9338
是之謂	-10.9338
大卷	-10.9341
于宫	-10.9343
小笙	-10.9344
黄鍾管	-10.9345
人身	-10.9348
歌夷	-10.9348
七寸四分	-10.9358
久矣	-10.9358
制禮	-10.936
而不失	-10.9361
黄鍾太蔟	-10.9364
之小者	-10.9372
大祭	-10.9372
安樂	-10.9374
以御	-10.9382
四代	-10.9385
十二律吕	-10.9388
竹管	-10.9395
堯舜之	-10.9396
中人	-10.9398
但取	-10.9402
徵清	-10.9404
起舞	-10.9405
出調	-10.9408
分之則為	-10.9409
責之	-10.9411
爲羽	-10.9414
何為	-10.9416
夏籥	-10.9419
十億	-10.9423
積分	-10.9426
本原	-10.9427
長於	-10.9427
失之太	-10.9428
皆言	-10.9431
配之	-10.9435
天地人	-10.9442
其神	-10.9443
樂歌	-10.9452
公羊	-10.9452
呼四	-10.9453
於國	-10.9453
一種	-10.9461
所以有	-10.9461
未嘗無	-10.9462
一石	-10.947
記云	-10.947
之理也	-10.9476
學之	-10.9483
而更	-10.9487
齊人	-10.949
則當	-10.9492
三絃為宫	-10.9495
所重	-10.9497
之西	-10.9497
皆合	-10.9502
散聲為	-10.9503
伏犧	-10.9506
奏昭夏	-10.9507
緒	-10.951
禴	-10.9511
竟山樂録	-10.9513
迄	-10.9515
呈	-10.9515
鹽	-10.9516
丨	-10.9518
欽定四庫全書經部九	-10.9519
洲	-10.9519
輾	-10.9519
誦詩	-10.9519
存之	-10.952
鼛	-10.9521
北狄	-10.9521
還相為宫	-10.9522
空桑	-10.9522
妾	-10.9523
雲門大卷	-10.9523
桂	-10.9523
二分七釐	-10.9524
㮚氏	-10.9524
筦	-10.9524
四三	-10.9524
不能無	-10.9527
抱	-10.9528
鏡	-10.9528
緣	-10.9529
掉	-10.9529
亢	-10.953
畝	-10.9531
滌	-10.9531
宋陳晹撰樂圖論	-10.9531
筩	-10.9531
臭	-10.9531
有虞氏	-10.9531
廣雅云	-10.9531
䨇	-10.9531
彭	-10.9532
溢	-10.9533
粱	-10.9533
亨	-10.9534
畜	-10.9534
吹四字按十	-10.9534
㨗	-10.9535
弛	-10.9535
晝夜	-10.9535
扣	-10.9535
淪	-10.9535
􁃡	-10.9535
旋宫轉調	-10.9535
帯	-10.9535
一字一音	-10.9536
臨軒	-10.9536
暮	-10.9537
鐘師掌金奏	-10.9537
巫	-10.9537
宋陳𤾉撰詩訓義	-10.9538
禀	-10.9538
渾	-10.9538
孟春	-10.9538
濁倍	-10.9539
七寸四分三釐七毫三絲	-10.9539
状	-10.9539
樸	-10.9539
祴夏	-10.954
產	-10.954
拙	-10.954
遼	-10.954
費	-10.9541
拊芍纓黄正	-10.9541
生民	-10.9541
雅頌之聲	-10.9541
生鍾分	-10.9541
已二百四十三分一百二十八	-10.9541
辰八十一分六十四	-10.9541
沈括	-10.9541
錘	-10.9541
午七百二十九分五百一十二	-10.9542
考槃	-10.9542
黄無南林	-10.9542
鄧保信	-10.9542
工歌	-10.9543
芍滄黄正	-10.9543
綂	-10.9543
賡歌	-10.9543
再鼓皆	-10.9543
相沿	-10.9543
魚麗	-10.9543
崇丘	-10.9544
壤	-10.9544
綽	-10.9544
僻	-10.9544
鹵簿	-10.9544
纒	-10.9544
裂	-10.9544
文武二舞	-10.9545
匪	-10.9545
同上	-10.9545
鎛鐘姑洗特磬	-10.9545
鐡	-10.9545
重十二銖	-10.9546
宋陳𤾉撰樂圖論雅部八音	-10.9546
草木	-10.9546
欒	-10.9546
應鐘起宫	-10.9546
裏	-10.9546
寅九	-10.9546
斥	-10.9546
原疏	-10.9547
涼州	-10.9547
半律外周	-10.9548
值	-10.9548
膚	-10.9548
元史樂志	-10.9549
調絃	-10.9549
弛縣	-10.9549
答拜	-10.9549
失之逺矣	-10.955
鎛鐘太簇特磬	-10.9551
分六萬五千五百三十六	-10.9551
文義	-10.9551
肄習	-10.9551
庸器	-10.9552
髙麗	-10.9553
吟猱	-10.9553
為調首	-10.9553
莊敬	-10.9553
是皆	-10.9554
詳考	-10.9554
宫生徵	-10.9555
先妣	-10.9556
卒爵	-10.9556
汎	-10.9558
頴	-10.9558
臣嘗觀	-10.9558
未盡善	-10.956
文武之舞	-10.956
頁後	-10.9561
而立	-10.9562
一作	-10.9562
鄭衛之音	-10.9563
併入	-10.9563
郡國	-10.9564
漢前志曰	-10.9565
五寸四分	-10.9568
南吕五寸三分	-10.9568
鼛鼓	-10.9568
與實	-10.9569
不舉樂	-10.9569
解說	-10.9569
笙鏞	-10.9569
夾鐘下生無	-10.957
六調	-10.957
同律度量衡	-10.9571
攷之	-10.9572
士大夫	-10.9572
莊子曰	-10.9573
有言	-10.9574
亦可見矣	-10.9574
配以	-10.9575
鉦間	-10.9576
無射羽	-10.9577
乃知	-10.9577
黄鍾清	-10.958
此二律相協	-10.958
候氣之法	-10.9582
扶南	-10.9584
國在	-10.9586
兩旁	-10.959
五調同用	-10.959
教化	-10.9591
乗之七	-10.9592
本律宫	-10.9595
所以明	-10.9597
東面	-10.9599
合于	-10.9604
百五十	-10.9604
朱載堉曰	-10.961
乙字	-10.9611
朝服	-10.9613
比量	-10.9615
韋昭曰	-10.9617
靈鼔	-10.9617
朱弦	-10.9619
孝子	-10.962
黄鍾均	-10.962
侍中	-10.9621
者指	-10.9622
交相	-10.9623
或過	-10.9626
三分三釐三毫	-10.963
減實	-10.9632
竊謂	-10.9633
神之	-10.9635
南吕角	-10.9635
溺於	-10.9635
隋制	-10.9638
當在	-10.9639
若不	-10.9641
仲吕起宫	-10.9642
本乎	-10.9642
著於	-10.9647
地而	-10.9647
合和	-10.965
先之以	-10.9651
房中樂	-10.9652
夾姑	-10.9653
木音	-10.9653
重濁	-10.9654
盛德	-10.9657
國君	-10.9657
詩樂	-10.9663
明代	-10.9672
上生夷則	-10.9672
時享	-10.9672
臣聞	-10.9672
於堂	-10.9676
上工	-10.9677
而歌者	-10.9677
獻工	-10.9679
呼六	-10.968
商夾	-10.9682
制樂	-10.9682
樂記所謂	-10.9683
以為用	-10.9683
出自	-10.9686
短律	-10.9686
兮㽔	-10.9689
養之	-10.9692
三十四	-10.9693
謂其	-10.9695
治天下	-10.9709
並列	-10.971
用黄鍾	-10.9712
本朝	-10.9715
猶是	-10.9717
於第十一	-10.9717
不用二變	-10.9719
蔽於	-10.9721
四十八律	-10.9722
樂器有	-10.9723
各依	-10.9725
豈得	-10.9734
以及	-10.9739
莫非	-10.9749
宴樂	-10.9751
一十五	-10.9757
徒以	-10.9758
詳定	-10.9765
王夏	-10.9768
未合	-10.9772
大武之舞	-10.9775
在中	-10.9778
各為一	-10.9779
參定	-10.9781
先王之於	-10.9783
一百五十	-10.9791
琴夾鐘	-10.9795
皆坐	-10.9798
律名	-10.9799
一尺五寸	-10.9799
否則	-10.9801
管數	-10.9802
漢唐	-10.9803
三行	-10.9804
道徳	-10.9805
九成之	-10.9805
云云	-10.9806
兩角	-10.9809
第四弦	-10.9811
名之曰	-10.9815
先代	-10.9817
者也然	-10.9819
各異	-10.9819
歌辭	-10.9824
也然而	-10.9825
蔡氏律吕新書	-10.9825
再成	-10.9835
仲吕歌	-10.984
太蔟商	-10.9841
七分一	-10.9844
以度	-10.9845
射禮	-10.9846
有徳	-10.9847
隨月	-10.9852
其所以然	-10.9854
竹聲	-10.9855
節氣	-10.9855
已見	-10.9859
羌	-10.9866
以立體	-10.9867
並行	-10.987
過矣	-10.987
四句	-10.9872
胡人	-10.9881
陸費墀欽定四庫全書	-10.9881
之詞	-10.9889
如字	-10.9891
而成聲	-10.9893
雅琴	-10.9897
歌行	-10.9898
得八十一	-10.9898
三分寸之一	-10.9901
九章	-10.9902
吹笛	-10.9902
也後	-10.9902
取象	-10.9904
而論	-10.9905
異制	-10.9907
漢時	-10.9908
生太簇	-10.9909
重上生	-10.9923
鄭注	-10.9926
二曲	-10.9927
實比晉前尺一尺	-10.9928
手執	-10.9931
以獻	-10.9932
四清二變	-10.9936
歌騶虞	-10.9936
乃命	-10.994
蓋取	-10.994
得二百	-10.9941
一肆	-10.9943
以出	-10.9952
南音	-10.9952
不善	-10.9952
以下皆	-10.9954
百黍	-10.9966
徳之舞	-10.997
者知	-10.9979
半黄鍾	-10.9982
所用之	-10.9986
諸書	-10.9988
定位	-10.9999
清越	-11.0015
太蔟為商	-11.0023
以達	-11.0024
晉武帝	-11.0028
尚存	-11.0029
六合	-11.004
瞽者	-11.0042
有天下	-11.0048
太長	-11.005
用清角	-11.0054
今法	-11.0056
四率	-11.0062
其不	-11.0068
方分	-11.0071
莫不有	-11.0077
勾工勾	-11.0078
聲之清濁	-11.0081
推之則	-11.0083
五祀	-11.0083
矣但	-11.0084
樂之所以	-11.0085
於學	-11.0086
難得	-11.0088
之長也	-11.0092
歌法	-11.0092
羊頭山	-11.0095
焉然	-11.0099
來朝	-11.01
圓積	-11.01
臣也	-11.0108
仲上	-11.011
為賔	-11.0114
五釐一毫	-11.0116
求得	-11.0118
樂成	-11.0123
為準	-11.0125
以候氣	-11.0128
古鍾	-11.0129
之位而	-11.0134
管絃	-11.0135
三分益一上生	-11.0136
樂噐	-11.0136
舞容	-11.0137
羽為	-11.0138
二條	-11.0143
之至理	-11.0148
因時	-11.0151
次論	-11.0161
林鍾角	-11.0162
為六十	-11.0162
無事	-11.0163
三吕	-11.0165
餘皆	-11.017
盖亦	-11.0176
諸樂	-11.0178
三分八釐	-11.0181
尺短	-11.0184
得非	-11.0184
當其	-11.0184
七章	-11.0184
音也由	-11.0185
生也	-11.0193
若然	-11.0194
之於天下	-11.0195
則不能	-11.0205
季氏	-11.021
周禮有	-11.0222
以聲音	-11.0228
黄鍾宮	-11.0236
羽㽔	-11.0238
髙于	-11.0239
四六工	-11.024
而已是	-11.0241
仲子	-11.0242
林鍾商	-11.0243
縦	-11.0246
銅律	-11.0248
凖之	-11.0248
毛詩	-11.026
姬	-11.0263
寐	-11.0264
迎寒	-11.0264
祊	-11.0264
以寸法一萬九千六百八十三除之得	-11.0265
好古	-11.0266
七寸五分	-11.0268
叢	-11.0268
商㽔	-11.0271
不察	-11.0272
播之以八音	-11.0273
有房中之樂	-11.0275
嶺	-11.0277
綏	-11.0279
道調	-11.028
為量	-11.0281
轍	-11.0282
冰	-11.0285
孚	-11.0286
炎	-11.0287
雞婁	-11.0288
湥	-11.0288
暗	-11.0288
傑	-11.0289
四十九分三萬二千七百六十八	-11.0289
萊	-11.0291
乗之一百	-11.0291
淆	-11.0292
禮自外作	-11.0293
晨	-11.0293
夷則為宫始羽終	-11.0293
皇皇者華	-11.0293
揮	-11.0295
訾	-11.0295
旂	-11.0296
蛇	-11.0296
靈鼓靈鼗	-11.0296
移風易俗	-11.0297
衷	-11.0297
貿	-11.0297
㮣	-11.0297
核	-11.0298
檀	-11.0298
鶉火	-11.0299
雀	-11.0299
仕	-11.0299
停	-11.03
五寸五分五釐一毫	-11.03
在治忽	-11.03
賊	-11.03
籈	-11.03
墓	-11.03
朗	-11.03
杜預	-11.03
飬	-11.0301
藴	-11.0302
早	-11.0302
裼	-11.0302
侈弇	-11.0302
自上而下	-11.0302
杜子春	-11.0302
羙	-11.0303
焦尾	-11.0304
壹	-11.0304
樞	-11.0304
郤	-11.0304
新唐書樂志	-11.0304
牛弘	-11.0304
四寸八分八釐	-11.0305
罕	-11.0305
舞干羽	-11.0305
君臣民事物	-11.0305
太極元氣函三為一	-11.0305
牢	-11.0305
遲速	-11.0305
罍	-11.0305
徂	-11.0305
甲乙	-11.0306
紙條	-11.0306
斷兩節間	-11.0306
杜撰	-11.0306
賈公彦	-11.0306
孺	-11.0306
之所自出	-11.0306
折衷	-11.0306
濬	-11.0306
驕	-11.0306
置大吕	-11.0307
三十三	-11.0307
古樂經傳	-11.0307
騰	-11.0308
軌	-11.0308
濵	-11.0308
宛丘	-11.0308
穄	-11.0309
吹一字按十	-11.0309
拊芍足黄正	-11.0309
笛色譜	-11.0309
律吕精義	-11.0309
半律通長	-11.031
雅頌之音	-11.031
晋	-11.031
秪	-11.031
巴	-11.031
丑三分二	-11.031
朝聘	-11.031
貽	-11.031
翠	-11.0311
迥	-11.0311
南吕歌磬南吕編磬	-11.0311
其卦則	-11.0311
林鐘琴林鐘篴	-11.0311
由是推之	-11.0312
巨細	-11.0312
玉帛	-11.0312
餘倣此	-11.0312
大略	-11.0312
先蠶	-11.0312
應鐘歌磬應鐘編磬	-11.0313
樂行而倫清	-11.0313
倍律積算進一位為實以應	-11.0313
耳若	-11.0313
燭	-11.0313
湘	-11.0313
繒	-11.0313
税	-11.0314
鳯翼	-11.0314
藁	-11.0314
圓其外	-11.0314
莊子	-11.0314
七徽實音同	-11.0314
班一人云	-11.0314
鄉飲鄉射	-11.0314
貫通	-11.0315
正律外周折半	-11.0315
六徽七分	-11.0315
篥	-11.0315
舞者就位	-11.0315
鸞刀	-11.0316
䝉	-11.0316
霍	-11.0316
為實開平方法除之得	-11.0317
八百八十八	-11.0317
豹	-11.0317
圜鍾為宫	-11.0317
援琴	-11.0318
鄭𤣥	-11.0318
由庚	-11.0318
堂下之管	-11.0319
處暑	-11.0319
未之有也	-11.0319
班氏	-11.0319
餘數在半分已下棄之不用	-11.032
鄭氏註曰	-11.0321
太林黄仲無夾夷大㽔應姑	-11.0321
伯牙	-11.0321
半律内徑	-11.0321
途	-11.0321
赴	-11.0322
肝	-11.0322
中央土	-11.0322
隆殺	-11.0323
奈何	-11.0324
洛陽	-11.0326
二百一十六	-11.0327
三分之二	-11.0328
銑間	-11.0329
蕃主	-11.0329
一書	-11.0329
二十三管	-11.0329
千金作	-11.0329
南吕起宫	-11.033
拊芍可	-11.0331
故凡	-11.0332
祭山川	-11.0333
五九四六	-11.0336
算家	-11.0336
荀子曰	-11.0336
出也	-11.0337
張華	-11.0338
治世之	-11.034
大暑	-11.034
六字調	-11.0344
相濟	-11.0345
精於	-11.0346
而後有	-11.0348
揚雄曰	-11.0348
九徽四分	-11.0348
經曰	-11.035
足蕤正	-11.0351
解之	-11.0354
丈夫	-11.0354
四八三	-11.0355
劉氏	-11.0355
乎故	-11.0356
文選	-11.0358
合之得	-11.0359
七徽外	-11.036
擊柷	-11.0361
散彈	-11.0361
徽古度尺	-11.0362
聲依永	-11.0363
不知此	-11.0364
仲吕鎛鐘	-11.0365
南吕倍律	-11.0366
漢書律厯志	-11.0366
徑圍	-11.0367
甚詳	-11.0367
告備	-11.0369
十毫	-11.0371
盡美	-11.0371
黄鐘特磬	-11.0372
亦自	-11.0372
俗譜	-11.0373
讀為	-11.0373
伶人	-11.0374
夷則鎛鐘	-11.0375
亦一時	-11.0375
孟子所謂	-11.0375
舂上	-11.0377
路鼔	-11.0377
九千九百二十七	-11.0377
一於	-11.0379
元㑹	-11.038
原無	-11.038
極而	-11.0384
太蔟八寸	-11.0386
生物	-11.0386
旄舞	-11.0386
為變	-11.0387
有孔	-11.0389
上生夾鐘	-11.0391
向外	-11.0391
生陽	-11.0393
始知	-11.0395
猶存	-11.0397
過則	-11.04
文王世子曰	-11.04
不興	-11.0404
法也九其	-11.0405
或二人	-11.0408
宫絃	-11.0408
當避	-11.0409
未達	-11.0409
之舊	-11.0409
元首	-11.0412
地數	-11.0413
俗呼為	-11.0413
得九寸	-11.0413
陽伯	-11.0419
子母	-11.042
八章	-11.0421
以理	-11.0421
數之自然	-11.0422
兩手	-11.0425
八七四	-11.0425
世傳	-11.0426
正倍	-11.0429
左右各	-11.043
十二弦	-11.043
亦用之	-11.0434
教習	-11.0437
千二百	-11.0443
讌樂	-11.0443
説謂	-11.0444
似有	-11.0444
物有	-11.0444
徑折半	-11.0446
制禮作樂	-11.0447
舊樂	-11.0454
既成	-11.0455
可類	-11.0456
大喪	-11.0459
律龠	-11.0461
四字調	-11.0461
南面	-11.0462
詩頌	-11.0465
射夫	-11.0466
同聲	-11.0468
周家	-11.0469
軍禮	-11.0474
有事於	-11.0478
不甚	-11.0478
合而為	-11.0479
更定	-11.0492
六十聲	-11.0495
為清	-11.0496
可聽	-11.0499
隔六	-11.0503
作歌	-11.0504
髙字	-11.0506
總之	-11.0509
相配	-11.051
縣鼔	-11.051
文之	-11.051
當徽	-11.0514
舊律	-11.0515
臣父	-11.0516
原本	-11.0516
最下	-11.0517
可得	-11.0526
琴絃	-11.0526
七十四	-11.0528
是又	-11.053
十二律相生	-11.053
仍用	-11.053
用六律	-11.0534
太始	-11.0546
初弦	-11.0546
大蔟	-11.0552
為少宫	-11.0554
雲韶	-11.0558
漢人	-11.0559
髙宗	-11.0561
設樂	-11.0567
黃鐘鎛鐘	-11.0578
使臣	-11.0579
絃音之	-11.058
此說	-11.0584
至中吕	-11.0591
之謂乎	-11.06
名官	-11.0606
一尺六寸	-11.0607
三寸五分	-11.061
不同者	-11.0611
也書曰	-11.0614
者樂也	-11.062
配合	-11.0634
不許	-11.0635
本均	-11.0637
近古	-11.064
三代之	-11.0641
也據	-11.0646
不歌	-11.0648
者今	-11.0649
萬事	-11.065
二一	-11.0652
凡工五六	-11.0658
陔夏	-11.0659
無底	-11.0662
為貴	-11.0667
不須	-11.0667
日食	-11.0667
大簇	-11.067
二七二	-11.0672
二絃七絃羽	-11.0675
南風之時兮可以阜吾民之財兮	-11.0684
其弦	-11.0685
無理	-11.0688
外圓	-11.0692
九分寸	-11.0697
者尚	-11.0698
者樂之	-11.0704
此禮	-11.0704
明明	-11.0706
為七聲	-11.0708
大咸	-11.0715
長十寸	-11.0715
三統	-11.0721
五聲八音	-11.0722
太公	-11.0722
三之一	-11.0722
射人	-11.0725
失之矣	-11.0733
皆出	-11.0737
十字	-11.0739
哉然	-11.0748
商周	-11.0759
遂歌	-11.0766
指此	-11.0767
亦何	-11.0775
)􁕴	-11.0777
至尊	-11.0792
宜以	-11.0794
八千	-11.0796
靡不	-11.0801
月律	-11.0803
石聲	-11.0807
在外	-11.0815
情文	-11.0817
為五聲	-11.0819
五正聲	-11.0821
中吕之	-11.0823
而已然則	-11.0825
案此	-11.0837
角㽔	-11.0839
八曰	-11.0841
用清聲	-11.0841
折半得	-11.0842
為數	-11.0848
倨	-11.0851
六尺六寸	-11.0853
以鐘鼔	-11.0856
政和	-11.0857
聲出于	-11.0858
孝經	-11.0859
歌工	-11.0864
果有	-11.0868
耳夫	-11.0868
信乎	-11.0871
二尺五寸	-11.0875
而論之	-11.0877
太蔟為角	-11.0881
安知	-11.0881
兩兩	-11.0882
於物	-11.0889
本聲	-11.0907
失於	-11.0913
則直	-11.0914
由此而	-11.0918
之時則	-11.0926
畫一	-11.0929
之大小	-11.093
虞書曰	-11.0932
以應之	-11.0933
三寸六分	-11.0934
率皆	-11.0942
分二釐	-11.0943
未甞	-11.0951
與其	-11.0958
歌大吕	-11.0963
外有	-11.0963
鞮鞻氏	-11.0964
則黄鐘	-11.0965
一百四十七	-11.0969
乎夫	-11.0974
散聲同	-11.0981
既而	-11.0984
所考	-11.0988
萬人	-11.0988
宫為君	-11.0988
成聲	-11.099
愷	-11.0991
所著	-11.0991
上生太蔟	-11.0992
非聖人	-11.1002
也疏曰	-11.1004
晉宋	-11.1005
相生之次	-11.1006
文明	-11.1009
行而	-11.1015
置㽔賔	-11.1018
正律外徑	-11.1032
其云	-11.1034
長八寸四分	-11.1043
慶善	-11.1043
黄鍾之數	-11.1049
擊鐘	-11.1055
大吕特磬	-11.1057
周景王	-11.1057
為黄鍾之長	-11.1063
驅	-11.1064
南吕特磬	-11.1068
濶	-11.1072
馳	-11.1074
種也	-11.1077
定矣	-11.1079
生律	-11.1082
之變宮二清右	-11.1086
悠	-11.1088
一百四十	-11.1089
􁄈	-11.1095
庛	-11.1097
粢	-11.11
奏黃	-11.1102
㽔賔為宫始羽終	-11.1104
輅	-11.1106
應南蕤	-11.1107
渡	-11.1108
興舞	-11.1108
邸	-11.111
相合者	-11.1111
五十二	-11.1113
磬石	-11.1113
亦所以	-11.1114
待舞	-11.1115
應鐘為宫始羽終	-11.1117
佞	-11.1117
有之矣	-11.1118
横括	-11.112
四上尺工六	-11.112
闔	-11.112
夾清	-11.1121
舞象	-11.1121
何不	-11.1122
倉	-11.1122
銅鈸	-11.1122
竒齡	-11.1123
帝嚳	-11.1123
吸	-11.1123
寥	-11.1124
陟	-11.1124
律之長短	-11.1124
食老更	-11.1125
贅	-11.1126
㺯	-11.1126
汗	-11.1126
以出納五言	-11.1126
苖	-11.1127
臨岳	-11.1128
跡	-11.1128
迺	-11.1128
旒	-11.1129
楷	-11.1129
冲	-11.1129
劣	-11.113
妣	-11.113
燎	-11.113
旱暵	-11.113
裴	-11.113
愁	-11.113
一四九八	-11.113
旣	-11.113
李文利	-11.113
甌	-11.1131
虐	-11.1131
斵	-11.1131
羨	-11.1131
豎	-11.1132
訪	-11.1132
䕶	-11.1132
弔	-11.1132
誨	-11.1132
周徑羃積	-11.1132
翔	-11.1132
舞雲門以祀天神	-11.1132
供	-11.1133
應鐘特磬	-11.1133
迷	-11.1133
九微五十	-11.1133
泠	-11.1134
津	-11.1134
糠	-11.1134
料	-11.1134
什	-11.1135
荷	-11.1135
泮	-11.1135
紛紛	-11.1135
宋陳暘撰樂圖論	-11.1135
為實以應鍾乗之得	-11.1135
駭	-11.1135
繞	-11.1136
三章章四句	-11.1136
宫七聲六濁之首	-11.1136
其辰合	-11.1136
秠	-11.1136
兎	-11.1136
川澤	-11.1136
已上五調皆用	-11.1136
頃	-11.1136
黄鍾之角	-11.1137
互相合也	-11.1137
袁	-11.1137
征誅	-11.1137
椎	-11.1137
芳	-11.1137
董	-11.1137
相為表裏	-11.1137
曰證之以	-11.1138
齶	-11.1138
籦籠	-11.1138
恰	-11.1138
擽	-11.1139
王出入奏王夏	-11.1139
夾鐘為宫始羽終	-11.1139
科	-11.1139
宮之變宮	-11.1139
廻	-11.1139
方圓相函	-11.1139
杜佑	-11.1139
廂	-11.114
吹尺字按十徽定之實音為林鍾散聲即	-11.114
緯書	-11.114
陽升之数	-11.1141
鼉	-11.1141
大周正樂	-11.1141
俗呼濁	-11.1141
標	-11.1141
一清一濁	-11.1141
西戎	-11.1141
鞭	-11.1141
蓬	-11.1142
楬	-11.1142
絲又九因至忽位住得	-11.1142
范氏	-11.1142
演	-11.1142
南山有臺	-11.1142
寅九分八	-11.1143
樂由陽來	-11.1143
不拘何	-11.1143
閣	-11.1143
成於前後之	-11.1143
饌	-11.1143
也豈非	-11.1143
克諧	-11.1143
晚	-11.1143
進一位命作	-11.1144
别而言之	-11.1144
十三萬一千	-11.1144
黄鐘為宫始羽終	-11.1144
協律郎	-11.1144
巻	-11.1144
月日纒	-11.1144
鏗	-11.1144
内外周徑者置	-11.1144
謚	-11.1144
無射為宫始羽終	-11.1145
蟠	-11.1145
三禮圖	-11.1145
林鐘為宫始羽終	-11.1145
則不成聲而氣不應	-11.1145
瑩	-11.1146
鍾倍律積算為法除之得	-11.1146
半律内徑置前所得	-11.1146
戊子	-11.1146
紀之以三	-11.1146
昆	-11.1146
合一四合	-11.1146
魏漢津	-11.1146
吻	-11.1146
峻	-11.1146
一十九分六十四釐一十八毫五十五絲	-11.1147
律中黄鍾之宫	-11.1147
羽又三分益一得	-11.1147
五調南風之薰兮可以解吾民之愠兮	-11.1147
一尺一寸八分九釐二毫	-11.1147
付	-11.1147
庶㡬	-11.1147
沈氏	-11.1147
大吕夾鐘仲吕	-11.1147
可黄正芍	-11.1147
先聖先師	-11.1147
邇	-11.1147
西涼	-11.1148
以樂侑食	-11.1148
三十斤	-11.1149
西凉	-11.1149
寘	-11.1149
復綴	-11.1149
賴	-11.1149
喧	-11.1149
孟夏	-11.115
牟	-11.115
銷	-11.115
葭	-11.115
八八六十四	-11.1151
柘枝	-11.1151
㑹守拊鼓	-11.1152
筆談	-11.1152
玉藻	-11.1153
樽	-11.1153
史遷	-11.1153
額	-11.1153
彭氏曰	-11.1154
音而樂之及干戚羽旄謂之樂	-11.1154
在内	-11.1154
焉故曰	-11.1154
裔	-11.1154
五音琴第	-11.1154
丁寧	-11.1154
五寸五分五釐	-11.1155
沛	-11.1155
崇牙	-11.1155
朔鞞	-11.1155
杜氏通典	-11.1156
角為民	-11.1156
哀思	-11.1156
太常寺	-11.1156
貴人聲	-11.1157
奏王夏	-11.1157
通長者置	-11.1158
工南角	-11.1158
毫八絲四忽	-11.1158
别法置	-11.1158
牆	-11.1158
猱	-11.1158
肉好	-11.1159
不合古	-11.1159
斗斛	-11.1159
尺林徴	-11.116
面羃者置	-11.116
七百二十九釐	-11.116
宗伯	-11.1161
半律通長求	-11.1161
奠幣	-11.1161
不盡之數	-11.1162
丁度	-11.1162
橦	-11.1162
容貌	-11.1163
鄉大夫	-11.1163
斗建	-11.1164
𤣥端	-11.1164
丞相	-11.1164
姑洗起宫	-11.1165
之遺聲	-11.1165
月令律中	-11.1166
無文	-11.1167
與之合吹	-11.1167
祖宗之	-11.1167
京氏	-11.1168
再加	-11.1168
一百六十二分	-11.1168
囘調	-11.1171
康國	-11.1171
生南呂上	-11.1172
二釐三毫	-11.1172
前漢志	-11.1172
不窮	-11.1173
尋常	-11.1174
横黍尺	-11.1176
平冕	-11.1179
四太羽	-11.1181
十分為寸十寸為尺十尺為丈十丈為引	-11.1183
工尺上四	-11.1183
其屬	-11.1183
高低	-11.1184
諷誦	-11.1184
上字調	-11.1185
加一倍	-11.1185
郊特牲曰	-11.1187
以明之	-11.1189
截管	-11.119
其教	-11.1192
工字調	-11.1192
大武之樂	-11.1196
衣服	-11.1196
夫然後	-11.1197
三十一	-11.1197
雖不同而	-11.1198
分除之	-11.1199
樂緯	-11.1201
象天	-11.1201
小分六	-11.1201
諸州	-11.1202
雙管	-11.1203
九成之奏	-11.1203
雅部	-11.1203
梓人	-11.1203
王肅	-11.1212
淮南子云	-11.1212
摶牘磬	-11.1213
商調曲	-11.1213
長八尺一寸	-11.1214
琴曲	-11.1219
曲禮曰	-11.1219
上生蕤賔	-11.122
二變四清	-11.122
吕氏春秋曰	-11.1221
截竹	-11.1221
候氣之説	-11.1222
一二三	-11.1223
我朝	-11.1223
與歌	-11.1226
易簡	-11.1226
三陽	-11.123
三種	-11.1232
徹歌	-11.1233
沿襲	-11.1233
新譜	-11.1235
繫焉	-11.124
所以致	-11.1241
空圍中	-11.1243
一律而	-11.1243
京房六十律	-11.1244
寓焉	-11.1245
林鍾宫	-11.1247
凶禮	-11.1248
於第九	-11.1254
九十三	-11.1255
呼一一	-11.1256
小祭祀	-11.1262
奏登歌	-11.1262
清也	-11.1263
自此以	-11.1263
五曲	-11.1266
即正律外	-11.1268
水火	-11.1269
掌其	-11.127
應鼙	-11.127
樂闋	-11.1272
射義	-11.1272
兩儀	-11.1273
元帝	-11.1276
乃謂	-11.1277
八人	-11.1278
權法	-11.128
者數	-11.1282
曲操	-11.1283
以鐘鼓	-11.1284
乃合樂	-11.1288
一十八	-11.129
夷則之角	-11.1291
按周禮	-11.1291
所鑄	-11.1295
歌鹿鳴	-11.1296
文質	-11.13
五星	-11.1301
均齊	-11.1303
先王雅樂	-11.1305
縵樂	-11.1306
考工	-11.1306
為上生	-11.1307
景鐘	-11.1308
豈足	-11.1311
變仲吕	-11.1311
五百二十四	-11.1312
降神之樂	-11.1313
各隨	-11.1317
定法	-11.1322
卷耳	-11.1324
公主	-11.1327
程子	-11.1328
制成	-11.1338
乎禮	-11.134
宗廟之中	-11.1347
之母	-11.1348
禮運曰	-11.1348
正律為和	-11.135
四百二十	-11.135
之一言	-11.1354
不嫌	-11.1355
帝舜	-11.1356
工四人	-11.1358
乘之得	-11.136
五聲六律	-11.1366
似乎	-11.1383
乃有	-11.1385
八百四十	-11.139
伯顔	-11.1391
禮樂志	-11.1393
容方	-11.1395
如初	-11.1396
蓋謂	-11.1398
在堂上	-11.14
漢世	-11.1401
無怨	-11.1403
政事	-11.1409
得四分	-11.1409
四寸六分	-11.1415
八十七	-11.1416
自其	-11.1417
七十七	-11.1417
明白	-11.143
三清	-11.1438
合聲	-11.1439
三面	-11.1441
䟽曰	-11.1449
大吕生夷則	-11.1452
吹管	-11.1455
宫仲	-11.1458
兩節	-11.1459
去樂	-11.1464
應十二月	-11.1466
於左	-11.1467
雖設	-11.1468
不同故	-11.147
著書	-11.147
樂本	-11.147
一百分	-11.1472
名義	-11.1474
本法	-11.1474
戌五萬九千	-11.1477
小異	-11.1477
者自	-11.1482
鐘石	-11.1483
而已蓋	-11.1484
而必	-11.1489
僅得	-11.1493
其源	-11.1497
下生太	-11.1497
為主而	-11.1502
一十分	-11.1503
室中	-11.1511
得九分	-11.1512
昊天上帝	-11.1515
角徴羽	-11.1518
然且	-11.1521
所以别	-11.1524
同但	-11.1524
雖欲	-11.153
小瑟	-11.1536
以人聲	-11.1536
一三六	-11.1542
絲二忽	-11.1542
散而	-11.1548
和鳴	-11.1555
㽔賔倍律	-11.1556
之勢	-11.1558
之下共得	-11.156
也或曰	-11.157
禮曰	-11.1572
入學	-11.1575
一法	-11.1577
當今	-11.1583
之戯	-11.159
而短	-11.1601
太蔟夾鍾	-11.1604
憂樂	-11.1608
行事	-11.161
於殿庭	-11.1615
注曰	-11.1617
立法	-11.1622
恐非	-11.1623
以下則	-11.1629
十一篇	-11.1657
有小大	-11.166
此云	-11.1661
南吕為角	-11.1666
琴弦	-11.1666
前文	-11.1668
祀昊天上帝	-11.167
之用也	-11.168
雖非	-11.1681
舜以	-11.1687
髙下清濁	-11.1689
之名也	-11.1702
正律之幂折半為	-11.1718
不等	-11.1723
類皆	-11.1728
吹者	-11.1732
要在	-11.1732
從上	-11.1732
其南鑮皆南陳	-11.1734
黄鐘為宫則	-11.1735
其大者	-11.1735
為寸法	-11.1735
樂之道	-11.174
平公	-11.1748
智者	-11.1749
也凡樂	-11.1762
一嵗	-11.1775
絃歌	-11.1777
慢一	-11.178
俱用	-11.1781
不飛	-11.1781
黄鐘太簇	-11.1784
二千二百三十六除之得一寸	-11.1788
何者為	-11.1788
無射應鍾	-11.1792
若曰	-11.1801
鼓鼗	-11.1804
髙調	-11.1811
不亂	-11.1812
野人	-11.1812
九十四	-11.1815
二百七十	-11.1817
自當	-11.1821
含少為	-11.1825
工凡尺	-11.183
樂之始	-11.1834
亦不得	-11.1852
之舞衣	-11.1854
二句	-11.1861
十二絲	-11.1862
北郊	-11.1869
循其	-11.1871
鳳凰	-11.1872
拜送	-11.1873
同位	-11.188
于後	-11.1881
有似	-11.1887
四海之	-11.1889
成焉	-11.1897
又引	-11.1899
然後可	-11.1902
樂記言	-11.1904
㽔大夷夾無仲黄林太南姑應	-11.1905
幂積	-11.1921
於陽	-11.1922
不可以為	-11.1928
矣且	-11.1933
五斤	-11.1947
律之本	-11.195
為磬	-11.1952
長短不同	-11.1955
刌	-11.1956
不講	-11.1962
則隂陽	-11.1964
生變宫	-11.1966
遑	-11.1971
不改	-11.1974
此謂	-11.1974
過乎	-11.1976
如法	-11.1978
苞	-11.1983
所有	-11.199
識者	-11.199
此文	-11.1994
皆由	-11.1998
酒食	-11.1999
十二篇	-11.2001
十二寸	-11.2005
濩	-11.2005
氷	-11.2006
木為之	-11.2007
庶人	-11.2009
陛	-11.2017
為實以林鍾乗之得	-11.2018
太蔟宫	-11.2019
圍三徑一	-11.2019
哉蓋	-11.2022
疇	-11.2022
正律為徴	-11.2024
敕	-11.2025
葢由	-11.2025
商生羽羽生角	-11.2027
太簇為宫始羽終	-11.2028
掣	-11.2029
曰吾	-11.203
鏤	-11.203
九百八十二分	-11.2031
箕	-11.2032
獵	-11.2032
嘉靖	-11.2034
莽	-11.2034
暨	-11.2034
㦸	-11.2036
三公	-11.2036
姜嫄	-11.2036
遁	-11.2036
琶	-11.2036
孟冬	-11.2036
喈	-11.2037
雌	-11.2037
隷	-11.2037
倘	-11.2038
按十徽定之實音為應鍾散聲即蕤賔	-11.2038
秘	-11.2038
典瑞	-11.2038
釋菜	-11.2038
稍贏	-11.2038
富	-11.2039
十分三釐八毫	-11.2039
二九七三	-11.2039
羔羊	-11.2039
毅	-11.204
堪	-11.204
侏	-11.204
祖室奏	-11.204
杯	-11.2041
懽	-11.2041
溪	-11.2041
焚	-11.2041
泣	-11.2041
分乎子也	-11.2041
四寸三分八釐五毫三絲一忽	-11.2041
彷彿	-11.2042
忠信	-11.2042
南吕為宫始羽終	-11.2042
穫	-11.2042
右附論	-11.2042
帙	-11.2043
播鞉三通	-11.2043
亦此意歟	-11.2043
泪	-11.2043
合止柷敔	-11.2043
約十為九	-11.2043
廣雅曰	-11.2043
哨	-11.2043
以絲數起	-11.2043
陳仲孺	-11.2044
三笙一和而成聲	-11.2044
妥	-11.2044
饋	-11.2044
可推	-11.2044
還相為宮	-11.2044
蕢桴	-11.2044
濕	-11.2044
荆	-11.2045
瑗	-11.2045
甄	-11.2045
竪	-11.2046
一而十一三之	-11.2046
宋陳𤾉撰周禮訓義春官	-11.2046
戞	-11.2046
為應鍾置應鍾	-11.2046
韜	-11.2046
周南闗雎葛覃卷耳召南鵲巢采蘩采蘋	-11.2046
喜怒	-11.2047
宫生徴	-11.2047
詘	-11.2047
子初四刻	-11.2047
金石絲竹	-11.2047
鄼	-11.2047
譽	-11.2047
八四四五	-11.2047
驁	-11.2048
之率七億	-11.2048
奔	-11.2048
薺	-11.2048
田獵	-11.2048
絡	-11.2049
黄帝命伶倫	-11.2049
兔	-11.2049
蒲	-11.2049
健	-11.2049
憤	-11.2049
烖	-11.2049
狂	-11.2049
比後月	-11.2049
徑三圍九	-11.2049
穆叔	-11.2049
薦新	-11.205
毫又九因至絲位住得	-11.205
覧	-11.205
循環無端	-11.205
纛	-11.205
荆軻	-11.205
㳂	-11.205
十四微七十	-11.205
而三加為	-11.205
恥	-11.205
吹笙鼓簧	-11.205
閭	-11.2051
沮	-11.2051
明朱載堉撰	-11.2051
為實初九因至寸位住得	-11.2051
乃云	-11.2051
閱	-11.2051
次制十二筒	-11.2051
一徽定之實音為太蔟散聲即無射	-11.2051
正律内周即半律外周求	-11.2051
汲	-11.2051
服䖍	-11.2052
依我磬聲	-11.2052
態	-11.2052
詔諸侯以弓矢舞	-11.2052
犧	-11.2052
正律為中七音琴第	-11.2052
琯	-11.2052
冕而舞大武	-11.2052
移宫換羽	-11.2052
張指法從	-11.2052
忽又九因至微位住得	-11.2052
糾	-11.2052
㫁兩節間	-11.2052
漢津	-11.2052
箋云	-11.2052
㨿	-11.2052
分子也舊法置一尺以	-11.2052
半律面羃求	-11.2053
十分為寸	-11.2053
伏覩	-11.2053
八億九千	-11.2053
分字已上	-11.2053
斬	-11.2054
鼓瑟鼓琴	-11.2054
置一而九三之以為法	-11.2054
無射之率五億六千一百二十三萬	-11.2054
㢲	-11.2054
南吕生姑洗	-11.2054
倍律外周折半	-11.2054
鞀	-11.2054
沂	-11.2055
脗合	-11.2055
膳夫	-11.2055
姑洗歌鐘姑洗編鐘	-11.2055
亦得此數	-11.2055
阮逸胡瑗	-11.2055
博古圖	-11.2055
采薺	-11.2055
馮元	-11.2055
一位為實以應鍾倍律積筭為法除之得	-11.2055
籩豆	-11.2055
水銀	-11.2055
鍾之數立焉	-11.2055
餙	-11.2055
商又三分損一得	-11.2056
解曰黄鐘之數	-11.2056
四鈞為石	-11.2056
又次上穴	-11.2056
夷則之率六億二千九百九十六萬	-11.2056
九寸四分三釐八毫	-11.2056
三分九釐六毫	-11.2056
商數七十二	-11.2056
禋	-11.2056
攸	-11.2056
斂	-11.2057
黄鍾小素	-11.2057
諒	-11.2057
何承天	-11.2057
享先祖	-11.2057
以三因之得	-11.2057
嘗考	-11.2057
逈	-11.2057
爛	-11.2058
有司攝事	-11.2058
四十九分寸之五萬一千八百	-11.2058
舞畢復位舞者就位播鞉三通	-11.2058
奠觶	-11.2058
應五絃散聲	-11.2058
窄	-11.2058
應鐘琴應鐘篴姑洗	-11.2058
認	-11.2059
太府尺	-11.2059
孔安國	-11.2059
受爵	-11.2059
趺	-11.2059
試問	-11.206
以八十一億乗之	-11.206
春秋之時	-11.206
簫管備舉	-11.206
冢	-11.206
聰明	-11.206
儒家	-11.2061
霓裳	-11.2061
所建	-11.2061
梨園	-11.2062
平之以六	-11.2062
飲福	-11.2062
孰能	-11.2062
典庸器	-11.2063
齊撮	-11.2063
陵犯之説	-11.2063
妖	-11.2063
大饗亦如之	-11.2063
縷	-11.2063
五百二十五	-11.2064
一尺三寸五分	-11.2064
數六十	-11.2064
胄子	-11.2064
錯刀	-11.2065
牛𢎞	-11.2065
仲吕特磬	-11.2065
倍律面羃一十	-11.2065
為法除之所得億約為寸得	-11.2066
應南太黄	-11.2066
綱紀	-11.2066
鐡尺	-11.2066
積八百一十分	-11.2067
輙	-11.2067
附録	-11.2067
襟	-11.2068
徴生商	-11.2069
二工執	-11.2069
圓田	-11.2069
夷則下生夾	-11.2069
舉麾	-11.207
自漢以來	-11.207
仲吕為宫始羽終	-11.2071
貞觀	-11.2073
恭敬	-11.2073
鼖鼔	-11.2073
不用三分損益	-11.2074
侍臣	-11.2074
證辨	-11.2074
倍律之率	-11.2074
留意	-11.2074
僭天子	-11.2074
八百一十	-11.2075
圜轉	-11.2078
空徑	-11.2078
在堂	-11.208
東海	-11.2081
雅樂俗樂	-11.2082
金奏之樂	-11.2082
根本	-11.2085
閔	-11.2085
陳𤾉樂書	-11.2086
發揚	-11.2087
建議	-11.2089
辰八十一	-11.2089
擊缶	-11.209
得一寸	-11.2093
歸除	-11.2094
節聲樂	-11.2094
修治	-11.2095
光武	-11.2097
之頌	-11.2098
雨水	-11.2098
字之誤	-11.2099
得二寸	-11.21
最尊	-11.2102
不可見	-11.2102
寡人	-11.2102
深一寸	-11.2103
撰譜	-11.2103
哀而不	-11.2103
鼔琴	-11.2104
徽宗	-11.2104
當從	-11.2105
老子曰	-11.2107
後鄭	-11.2108
本調	-11.2108
得三分	-11.2109
四千三百一十二	-11.211
玉振	-11.211
父子君臣	-11.211
文獻通考曰	-11.2111
鼗鼔	-11.2116
亂華	-11.212
南曲	-11.212
所以養	-11.2121
十六人	-11.2122
為實以姑洗乗之得	-11.2124
則太過	-11.2126
聲歌	-11.2126
仁宗	-11.2127
感物	-11.2127
先學	-11.2128
不足道也	-11.2128
左執	-11.2129
天之道也	-11.213
番樂	-11.2131
午七百二十九	-11.2131
管簫	-11.2131
除去	-11.2132
不過以	-11.2136
稽古	-11.2137
舞雩	-11.2137
祭享	-11.2137
三句	-11.2138
之域	-11.2139
禮記曰	-11.2139
化民	-11.2141
老子	-11.2143
造樂器	-11.2143
古雅	-11.2143
丑未	-11.2146
向内	-11.2147
三之于	-11.2149
隂陽之聲	-11.2151
雙調	-11.2153
二十八聲	-11.2153
姑洗之角	-11.2154
三分之一	-11.2155
夾夷大㽔應姑南太林黄仲	-11.2156
絲毫	-11.2158
大寒	-11.216
載於	-11.2164
亦多	-11.2164
既畢	-11.2168
君臣相	-11.217
凡工尺工	-11.217
誤解	-11.2171
無射起調	-11.2173
律學	-11.2178
周禮所謂	-11.2179
治亂	-11.218
若今	-11.2181
備戒	-11.2182
但有	-11.2192
顯然	-11.2199
議論	-11.2201
為禮之	-11.2202
百官	-11.2205
昔者	-11.2208
未聞有	-11.2209
八十一絲	-11.2209
奏鼔	-11.2211
姦聲	-11.2212
盡善	-11.2212
不相應	-11.2214
圖説	-11.2214
不勝	-11.2216
積黍	-11.2216
可太	-11.2217
舜樂	-11.2218
倍律之幂折半為	-11.222
誤字	-11.222
於第八	-11.2221
詩序曰	-11.2223
此自然之理	-11.2226
製管	-11.223
形狀	-11.2233
不審	-11.2235
聲相應	-11.2239
酒酣	-11.224
經義	-11.2244
武德	-11.2247
諸公	-11.2247
祭天	-11.2248
之别名也	-11.2249
士庶	-11.2252
九枚	-11.2254
不倫	-11.2256
日至於地上之圜丘奏之	-11.2256
始奏	-11.2259
五聲既	-11.2261
列國	-11.2262
正律為羽	-11.2263
慢宫	-11.2267
工凡勾	-11.2267
有差	-11.2268
舞曲有	-11.2271
子弟	-11.2283
四三二	-11.229
王氏	-11.2291
者不同	-11.2297
革音	-11.2298
不彈	-11.2299
孔子謂	-11.2302
弦之瑟	-11.2306
十四纎	-11.2309
正律為商	-11.2313
律之首	-11.2314
莫知	-11.2316
以次而	-11.2322
應鍾之率	-11.2322
得失	-11.2323
施于	-11.2329
前圖	-11.2329
而祭之	-11.2334
方與	-11.2336
徽外	-11.2341
文公	-11.2341
適足	-11.2344
欽定四庫全書苑洛志樂卷	-11.2345
一例	-11.2351
所以備	-11.2353
老者	-11.2353
樂教	-11.2358
非一定	-11.236
食禮	-11.236
諸管	-11.2361
漢斛	-11.2362
而三之	-11.2364
教民	-11.2366
大禹	-11.2369
不厭	-11.2372
鼔鐘	-11.2375
十有五	-11.2379
寸為尺	-11.2389
相協	-11.239
無詞	-11.2393
管籥	-11.2395
同類	-11.2404
天性	-11.2405
二層	-11.2407
則不必	-11.2409
今俗樂	-11.2413
者隂	-11.2413
已乆	-11.2421
之操	-11.2423
不徒	-11.2428
隂隂	-11.2429
也朱氏	-11.2434
有七調	-11.2439
太簇下生南	-11.2456
等字	-11.2458
其于	-11.2459
其得失	-11.2473
未始	-11.2477
林鐘徵	-11.2478
未嘗不以	-11.2483
太吕	-11.2488
於王	-11.249
難明	-11.2494
衡權	-11.2502
此黄鐘	-11.2503
又從而	-11.2512
禮儀	-11.2513
非徒	-11.2514
也何謂	-11.2514
但云	-11.252
節度	-11.2527
夷夾無仲黄林太	-11.2533
太短	-11.2534
此篇	-11.2534
瑟無射	-11.2534
所致	-11.2546
五降	-11.256
也樂録	-11.2565
公孫	-11.2577
不可復	-11.2584
無所用	-11.2589
相較	-11.259
中春	-11.2591
堯樂	-11.2591
風之時兮可以阜吾民之財兮起調畢曲	-11.2592
千分以七百四十九為法除之得	-11.2593
第十徽	-11.2595
乎蓋	-11.2604
在北	-11.2608
衆律	-11.2608
南姑應㽔大夷夾無仲黄林太	-11.2613
皇舞	-11.2615
文字	-11.2617
林仲太黄	-11.2618
論八音	-11.263
百三十	-11.263
鼓節	-11.2637
林鍾徴	-11.2644
西山蔡氏	-11.2652
葢謂	-11.2652
其末	-11.2655
舊註	-11.2662
乎地	-11.2666
樂極	-11.2668
聲生於	-11.2674
有半聲	-11.2674
應三絃散聲	-11.2684
甚大	-11.2686
乃令	-11.2691
天地之道	-11.2705
歟然	-11.2711
一尺二寸五分	-11.2711
不曰	-11.2714
於宗廟	-11.2715
朱子謂	-11.2721
孝武	-11.2725
三部	-11.2726
聖人作	-11.2737
諸絃	-11.2737
三三九	-11.2739
衆人	-11.274
中興	-11.2747
三朝	-11.2751
合律	-11.2755
已具	-11.2758
三分益一而	-11.2759
搊	-11.276
斜黍	-11.2765
七寸二分	-11.2768
九釐九毫	-11.2772
長一尺二寸	-11.2776
黄林太南姑應㽔大夷夾無仲	-11.2778
如之何	-11.2786
秬黍中者	-11.2788
于社	-11.2794
世之論	-11.2797
復有	-11.2798
相同也	-11.2805
三尺四寸	-11.2805
正律為宫	-11.2808
歌周南召南	-11.2814
聲氣	-11.2821
以銅為之	-11.2825
固無	-11.2831
仲無夾夷大㽔應姑南太林	-11.2835
二分一釐	-11.2843
此真	-11.2853
林太南	-11.2857
歟今夫	-11.2862
琴制	-11.2864
尺合勾	-11.2869
先聖	-11.2884
讌	-11.2887
為商清	-11.2888
陽中	-11.2889
何也盖	-11.2897
七百六十	-11.2899
翩	-11.29
一十八分	-11.2903
飾其	-11.2908
一寸三分	-11.2912
諧聲	-11.2913
粗而	-11.2921
顔子	-11.2926
無射生仲吕	-11.2927
天氣	-11.2937
自宋	-11.2939
專以	-11.294
中原	-11.2945
為實以太蔟乗之得	-11.2949
亂雅	-11.295
於卦為	-11.2951
安得不	-11.2959
於三寸九分	-11.2959
仲徴	-11.2973
八方	-11.2975
而有所	-11.2975
為下生	-11.298
解曰以	-11.2989
黄鐘之長	-11.3001
天道也	-11.3003
耒	-11.3007
俗呼中管	-11.3009
其餘皆	-11.3013
二十龠	-11.3014
筐	-11.3017
遂致	-11.3018
朱子語類	-11.302
林變南變	-11.3021
牽	-11.3024
為實以南吕乗之得	-11.3025
尉遲	-11.3025
丌	-11.3027
勁	-11.3028
風俗通	-11.3029
俗呼越調	-11.303
杞	-11.3031
剥	-11.3031
亭	-11.3031
洋洋	-11.3031
洩	-11.3032
姑洗為宫始羽終	-11.3032
變律變半律	-11.3032
湖	-11.3032
吹尺字按十一徽定之實音為林	-11.3033
蒹葭	-11.3033
屠	-11.3033
以新書本原第	-11.3034
詩歌	-11.3034
律吕之本	-11.3034
魄	-11.3034
嘒嘒管聲	-11.3034
勲	-11.3034
煞	-11.3034
筒	-11.3035
喬	-11.3035
女巫	-11.3035
刋	-11.3036
峯	-11.3036
平上去入	-11.3036
量侯道	-11.3036
安國	-11.3036
緇衣	-11.3037
杜蕢	-11.3037
非先王	-11.3038
浩	-11.3038
困	-11.3038
拔	-11.3038
戞擊鳴球搏拊琴瑟	-11.3039
蘇祗婆	-11.304
无	-11.304
煖	-11.304
吁	-11.3041
進封	-11.3041
園	-11.3041
輯	-11.3041
五與十	-11.3042
禮由隂作	-11.3043
南陔白華華黍	-11.3043
尚書大傳	-11.3043
謁	-11.3043
襍	-11.3043
藩	-11.3044
嬖	-11.3044
十升為斗	-11.3044
緜	-11.3044
掃	-11.3044
黄鍾搏牘鍾芍滄黄正	-11.3044
嬪	-11.3044
葦	-11.3045
祐	-11.3045
幾百幾十幾	-11.3045
欣	-11.3045
晰	-11.3045
禫	-11.3045
匀	-11.3046
璅	-11.3046
徵生商	-11.3046
為三分每分	-11.3046
其寸而為	-11.3046
㳺	-11.3046
告朔	-11.3047
鄒	-11.3047
個	-11.3047
吿	-11.3047
羣后	-11.3047
討	-11.3047
參伍	-11.3047
車鄰	-11.3047
千五百六十一分寸之六千五百二十四	-11.3047
鄉黨	-11.3047
晉平公	-11.3047
乗輿	-11.3047
偹	-11.3047
工歌鹿鳴四牡皇皇者華	-11.3047
勻	-11.3047
救日月	-11.3048
璆	-11.3048
勾股求弦	-11.3048
長尺四寸	-11.3048
清廟之瑟	-11.3048
下管新宫	-11.3048
明韓邦竒撰	-11.3048
不著	-11.3048
擯	-11.3049
莫大於	-11.3049
冒	-11.3049
以禮人鬼	-11.3049
隴	-11.3049
九㲈之舞	-11.3049
以十有二聲為之齊量	-11.3049
為一連事由	-11.3049
祖沖之	-11.305
靖	-11.305
振旅	-11.305
姑洗長七寸一分	-11.305
三寸六分六釐三毫六絲	-11.305
鐘林鐘太簇南吕姑洗應鐘	-11.305
燧	-11.305
奕	-11.305
聨	-11.305
次上一穴為	-11.305
廵	-11.305
少宫少商	-11.305
捨	-11.305
吹上字按十一徽定	-11.305
子與丑合	-11.3051
隋文帝	-11.3051
七十二以為商	-11.3051
當期之日	-11.3051
林鐘歌磬林鐘編磬	-11.3051
先鼓以警戒	-11.3051
掌六樂聲音之節與其和	-11.3051
分母為法除之得	-11.3051
律管無孔	-11.3051
自乗所得	-11.3052
歌鐘二肆	-11.3052
阮逸	-11.3052
參天兩地	-11.3052
分子乘之為實以	-11.3052
林鐘笙林鐘笙	-11.3052
婺源江永撰	-11.3052
鄭世子	-11.3052
簨簴	-11.3052
遺制歟	-11.3052
嬴	-11.3052
繋	-11.3053
諌	-11.3053
曲南風之薰兮可以解吾民之愠兮皆以	-11.3053
分母也分字已下	-11.3053
忍	-11.3053
萬入去籥	-11.3053
渭	-11.3053
孤竹之管	-11.3053
百官軌儀	-11.3053
一絲八忽	-11.3053
煬帝	-11.3053
荘	-11.3054
十二萬四千四百一十六	-11.3054
七百一十萬	-11.3054
脊	-11.3054
宫生徴徴生商商生羽羽生角	-11.3054
四百八十六	-11.3054
快	-11.3055
顔淵	-11.3055
門之外	-11.3055
劉歆班固	-11.3055
三分四釐六毫	-11.3055
軋	-11.3055
無筭樂	-11.3055
椌	-11.3055
上生者四其	-11.3056
焉豈非	-11.3056
筊	-11.3056
饒	-11.3056
五聲二變之位	-11.3056
次求三十六律	-11.3056
去古未逺	-11.3056
寔	-11.3056
坎坎	-11.3056
琢	-11.3056
徴又三分益一得	-11.3056
俗呼正宫	-11.3056
韶箾	-11.3056
教六詩	-11.3056
下生者倍其法得	-11.3056
鐵斛	-11.3056
㽔賔生大吕	-11.3057
拾	-11.3057
總而言之	-11.3057
黼	-11.3057
陁	-11.3057
尚矣	-11.3057
朋來	-11.3057
文宣王	-11.3057
佩玉	-11.3057
袴	-11.3057
宫又三分損一得	-11.3057
申六千五百六十一	-11.3057
益一分上生	-11.3058
鏞鐘一振鐸二	-11.3058
是為律本	-11.3058
㣲二纎	-11.3058
聊	-11.3058
特磬夾鐘歌舞	-11.3059
皂	-11.3059
何邪曰	-11.3059
聲中黄鍾之宫	-11.3059
一萬九千六百八十三為一寸	-11.3059
鎛鐘夷則特磬	-11.3059
吹灰	-11.306
數約以	-11.306
治亂以相	-11.306
爽	-11.306
升歌鹿鳴	-11.306
馬融	-11.3061
魚龍	-11.3061
龜兹部	-11.3061
表裏	-11.3061
之和置	-11.3062
陳暘樂書	-11.3062
弘	-11.3062
筌蹄	-11.3062
棧	-11.3062
扁	-11.3063
與本弦散聲應按第	-11.3063
樵	-11.3063
覲	-11.3063
劍	-11.3063
燕羣臣	-11.3064
黄鍾之龠	-11.3064
絫黍	-11.3064
純粹	-11.3064
疎密	-11.3065
形於聲	-11.3065
十二筒	-11.3065
景雲	-11.3065
孤竹之管雲和之琴瑟雲門之舞冬	-11.3065
聖訓	-11.3065
衫	-11.3065
風俗通云	-11.3066
􁐠	-11.3066
沈存中	-11.3066
六千五百六十一毫	-11.3066
杜子春云	-11.3066
騫	-11.3067
百濟	-11.3067
拜受爵	-11.3067
麋	-11.3067
七寸九分三釐七毫	-11.3067
無射四寸八分八釐四毫八絲	-11.3067
宋祁	-11.3068
凡工勾一	-11.3068
虞舜	-11.3068
汾	-11.3068
縫	-11.3068
愚案	-11.3068
威儀	-11.3069
衆庶	-11.3069
詔有司	-11.3069
仲孺	-11.307
姑應㽔大夷夾無仲黄林太南	-11.307
自黄鍾至	-11.307
舞應鐘歌鐘應鐘編鐘	-11.307
盥洗	-11.307
晉荀朂	-11.3072
巢笙	-11.3072
腎	-11.3073
鼓吹振作	-11.3073
太簇長八寸	-11.3073
不求	-11.3074
銜	-11.3074
先臣曰	-11.3074
當是時	-11.3074
雜劇	-11.3074
班志	-11.3075
黄姑蕤姑	-11.3075
司服	-11.3075
鄉射之禮	-11.3075
上生中呂	-11.3077
風俗通曰	-11.3077
擊刺	-11.3077
萬寶常	-11.3079
足應正	-11.3079
獨用	-11.308
白華	-11.308
就席	-11.308
透	-11.308
股博	-11.308
袂	-11.3082
儀注	-11.3083
既濟	-11.3083
龍門	-11.3083
姑太應南	-11.3084
依古法	-11.3086
司射	-11.3086
往來	-11.3087
劉昭	-11.3088
梁州	-11.3089
八寸之尺	-11.3089
小雪	-11.3089
慢角調	-11.3089
未二千一百八十七	-11.3094
迎氣	-11.3095
合而言之	-11.3095
伐木	-11.3096
黄鍾下生林鍾	-11.3096
姑洗鎛鐘	-11.3097
吹箎	-11.3097
愷歌	-11.3098
號令	-11.3099
廣二寸	-11.3099
絲之屬	-11.3099
五絃角聲	-11.3102
腰鼓	-11.3102
凡字調	-11.3102
臣嘗考	-11.3105
方丘	-11.3105
慢宫調	-11.3107
宣公	-11.3108
四箱	-11.3109
前期	-11.3109
史志	-11.3112
四八二	-11.3112
於北郊	-11.3112
文察	-11.3113
反覆	-11.3113
寧王	-11.3114
大僕	-11.3115
還元	-11.3115
神州	-11.3115
黄鐘長九寸	-11.3118
亦不知	-11.3119
趙王	-11.3121
屬火	-11.3122
由儀	-11.3122
隋志云	-11.3122
移易	-11.3123
六十忽	-11.3123
幽王	-11.3123
先儒之説	-11.3125
減去	-11.3125
魯公	-11.3126
七宿	-11.3127
較其	-11.3128
篴無射	-11.3133
十二銖	-11.3133
西漢	-11.3133
舞節	-11.3134
律為宫	-11.3135
者禮樂之	-11.3135
果如	-11.3136
轉過	-11.3137
舊說	-11.3138
其職	-11.3139
春秋書	-11.314
太蔟為徵	-11.3142
四分之一	-11.3144
象人	-11.3147
爲法	-11.3149
首句	-11.315
以别之	-11.3152
四毫一絲	-11.3152
已二百四十三	-11.3152
某律	-11.3153
十二枚	-11.3159
更鑄	-11.316
農事	-11.3163
建國	-11.3164
不可解	-11.3165
庶乎	-11.3166
鄭氏謂	-11.3169
上夀	-11.3171
四退位除	-11.3172
成曲	-11.3174
者也若	-11.3176
承天	-11.3176
百釐	-11.3177
郷飲	-11.3178
世俗之樂	-11.3179
荅曰	-11.3179
衆笙	-11.3183
上元	-11.3184
相承	-11.3185
齊侯	-11.3189
考工記曰	-11.3192
上中下	-11.3192
不存	-11.3193
依周禮	-11.3193
摶牘鍾	-11.3201
亦用焉	-11.3202
古之制也	-11.3205
已亡	-11.3208
而無所用	-11.3208
銅鼓	-11.321
中心	-11.3212
疑焉	-11.3216
轉初	-11.3218
殷人	-11.3222
無射之商	-11.3222
幾何	-11.3227
取十徽	-11.323
二分四釐	-11.3232
歌黃	-11.3233
于五聲	-11.3233
丈八尺	-11.3233
於此作	-11.3235
神武	-11.3237
一九一	-11.3238
左氏傳	-11.324
屬金	-11.3243
上層	-11.325
不然則	-11.3251
變徴夾	-11.3255
隔九	-11.3256
通考	-11.3259
八百三十	-11.3262
宫懸	-11.3266
亦可知矣	-11.3267
清商調	-11.3268
成湯	-11.3269
與否	-11.327
樂書卷一百九十	-11.3271
公子	-11.3273
鄭康成曰	-11.3274
再周	-11.3276
宣王	-11.328
歌頌	-11.3281
即黄鍾之	-11.3286
上下皆	-11.3293
屬水	-11.3293
雜記	-11.3293
黄鍾之聲	-11.3298
九州	-11.3301
適當	-11.3304
別有	-11.3307
宫前	-11.3311
五聲之序	-11.3327
一釐八毫	-11.3329
樂書卷一百八十	-11.333
元豐	-11.3333
有客	-11.3334
此係	-11.3336
十有二聲	-11.3339
少宮	-11.334
哉且	-11.3356
分八釐三毫	-11.3361
五微二纎	-11.3363
而求之	-11.3364
篇云	-11.3374
轉周	-11.3377
欽定四庫全書樂書卷一百四十	-11.3377
三百六十律	-11.3377
等曲	-11.3388
樂書卷九十	-11.3403
樂書卷一百五十	-11.3404
不為調	-11.3418
通之得	-11.342
而已此所以	-11.3427
樂書卷一百三十	-11.3433
於明堂	-11.3437
擇其	-11.3438
樂書卷一百七十	-11.3442
之别名	-11.3443
二尺六寸	-11.3447
舊名	-11.3464
夜半	-11.3466
鼓其	-11.3469
不流	-11.3477
有五調	-11.3482
黃林	-11.3498
未必然	-11.3504
大晟	-11.3509
王通	-11.3516
八千一百九十二	-11.3518
欽定四庫全書樂律全書卷二十	-11.3522
短小	-11.3525
句字	-11.3526
陽數也	-11.3532
經緯	-11.3532
九百六十	-11.3552
事而已	-11.3554
林角林	-11.3558
其大略	-11.3558
非古法	-11.3563
諸法	-11.3563
矣今夫	-11.3566
非止	-11.3572
所以立	-11.3572
古錢	-11.3577
北音	-11.3581
失古人	-11.359
以成樂	-11.3597
其法則	-11.3599
石鼓	-11.3601
遺聲	-11.3607
始乎	-11.3609
祭法	-11.3614
心感	-11.3615
師子	-11.3618
林商林	-11.3619
樂律全書卷十	-11.3625
工勾一尺	-11.3626
以致其	-11.3632
旋轉	-11.3642
兩耳	-11.3653
但知	-11.3655
孫氏	-11.3659
以和聲	-11.367
于西階上	-11.367
不思	-11.3685
齊一	-11.3686
欲使	-11.3702
樂學	-11.3703
一部	-11.3704
魯人	-11.3711
云爾	-11.3711
樂書卷七十	-11.3712
微一纎	-11.3724
定瑟	-11.3729
有形	-11.3732
欽定四庫全書樂書卷六十	-11.3738
均主	-11.3743
以此為	-11.3749
諸調	-11.376
月之律	-11.3765
樂書卷三十	-11.3771
弦為㽔賔與第七弦散聲應按第	-11.3791
助陽	-11.3796
勾工合	-11.3798
所加	-11.3803
中空	-11.3808
之罪	-11.3816
禮樂䟽	-11.3822
一黍之廣	-11.3824
萬年	-11.3826
分左右	-11.3833
情性	-11.3833
太過	-11.3842
一架	-11.3849
又因	-11.3855
蕤賔正律	-11.3855
未知其	-11.3856
和之曲	-11.3875
不越	-11.3876
惜其	-11.3888
太簇生南吕	-11.3889
假樂	-11.3889
古者天子	-11.3892
武帝時	-11.3909
生十二律	-11.3923
漢晉	-11.3929
四層	-11.3936
朔鼙在其北	-11.3937
寸二分九釐	-11.3955
之聲而	-11.3964
為本而	-11.3967
寸之一	-11.3968
竊觀	-11.3989
㑹稽	-11.3992
南太林黄仲無夾夷大	-11.3992
象功	-11.3993
置黄鍾倍律	-11.4009
五纖	-11.4012
所存	-11.4012
以正之	-11.4019
欽定四庫全書樂書卷一百十	-11.4021
盬	-11.4036
十丈	-11.4043
一寸五分七釐一毫三絲四忽八微四纎	-11.4057
得三寸	-11.4059
轡	-11.4064
駱	-11.4065
籥舞	-11.4068
四千九十六	-11.4078
之所始	-11.4083
蔡氏謂	-11.4085
合古制	-11.4085
孤卿大夫	-11.4091
釁	-11.4093
寤	-11.4094
舞童	-11.4097
吕為宫始羽終	-11.4104
稼	-11.4114
小滿	-11.4118
駟	-11.4121
黄大太夾	-11.4125
四百三十	-11.4131
仲吕正律	-11.4131
上生夾鍾	-11.4132
鋪	-11.4132
鼗皷	-11.4133
􁅁	-11.4135
大司樂章	-11.4135
粲	-11.4136
黄林太南姑	-11.4137
淵淵	-11.4138
耜	-11.4138
揉	-11.4138
啞	-11.4138
以此觀之則	-11.4138
水盞	-11.4139
廩	-11.4139
踐	-11.4139
撝謙	-11.4139
桀	-11.414
十合為升	-11.4142
音出焉今謂之	-11.4142
影響	-11.4142
迫	-11.4142
礿	-11.4142
管色字	-11.4142
挈	-11.4143
以致鬼神示	-11.4143
每律減一寸	-11.4143
不預焉	-11.4144
娛	-11.4144
武宿夜	-11.4144
九徳之歌	-11.4145
狩	-11.4145
錙	-11.4145
齡	-11.4145
剽	-11.4145
儼	-11.4146
徵招角招	-11.4146
起宫太變徴太變宫	-11.4146
話	-11.4146
軰	-11.4146
娶	-11.4147
栁	-11.4147
稻	-11.4147
金聲玉振	-11.4147
衿	-11.4148
龍齦散聲	-11.4148
振之李氏	-11.4148
褒	-11.4148
顛倒	-11.4148
徴招角招	-11.4149
纔	-11.4149
村	-11.4149
灸	-11.4149
匏竹在下	-11.4149
廟享	-11.415
没	-11.415
以管數起絲	-11.415
戎狄	-11.415
姑南太林黄仲無夾夷大㽔應	-11.415
剖	-11.415
丙丁	-11.415
窺	-11.415
歌仲無	-11.415
誡	-11.4151
皆誤	-11.4151
械	-11.4151
穡	-11.4151
學記	-11.4151
生聲取分	-11.4151
以鐘鼓奏九夏	-11.4151
披	-11.4151
喜怒哀樂	-11.4152
誘	-11.4152
剏	-11.4152
尉	-11.4152
十斗為斛	-11.4152
臻	-11.4153
欠	-11.4153
鼓羽籥之舞	-11.4153
壯士	-11.4153
麤	-11.4153
猗	-11.4153
儀禮經傳通解	-11.4154
而天下治	-11.4154
兩聲之中	-11.4154
變徴夷變宫	-11.4155
法置夾鍾之率	-11.4155
太府寺	-11.4155
歐	-11.4155
温柔	-11.4155
燕射帥射夫以弓矢舞	-11.4155
調中之	-11.4155
好事者	-11.4155
無按聲之位	-11.4155
騶虞九節	-11.4155
剋	-11.4155
慿	-11.4155
黄姑太黄	-11.4155
州刺史	-11.4156
俘	-11.4156
變宫無角	-11.4156
依法乘除得	-11.4156
矧	-11.4156
肅雝	-11.4156
舞大夏以祭山川	-11.4156
駿	-11.4156
契丹	-11.4156
豁	-11.4156
大鐘謂之鏞	-11.4157
自下而上	-11.4157
南有嘉魚	-11.4157
捷	-11.4157
齦	-11.4157
歌夾夷	-11.4158
逾	-11.4158
䃂	-11.4158
凄	-11.4158
帥國子而舞	-11.4158
侵	-11.4158
徑求周	-11.4158
天子視學	-11.4158
敦	-11.4158
績	-11.4158
比漢前尺一尺	-11.4158
敝	-11.4158
臝	-11.4158
郷射	-11.4158
奏黄鍾歌大吕	-11.4158
觚	-11.4158
俚	-11.4159
鑮	-11.4159
牀	-11.4159
宋陳𤾉撰樂圖論俗部舞	-11.4159
詆	-11.4159
也仰則兼	-11.4159
登歌令奏擊拊	-11.4159
槐	-11.4159
屯	-11.4159
泯	-11.4159
歸之正度	-11.4159
古樂之𤼵	-11.416
樂勝則流	-11.416
其長三寸九分而吹之以為黄鍾之宫	-11.416
飭	-11.416
太簇起宫大	-11.416
鉅	-11.416
夷則起宫林變徴	-11.416
恭儉	-11.416
少昊	-11.416
淑女	-11.416
共計三十二	-11.416
取應聲	-11.416
梅花	-11.416
容貌得莊焉行其綴兆要其節奏	-11.416
凡音之起由人心生	-11.416
乂	-11.416
神人暢	-11.416
經脉	-11.416
一徽定之實音為	-11.4161
槃	-11.4161
上生者四其實三其法	-11.4161
此二律相恊	-11.4161
偕	-11.4161
誇	-11.4161
貪	-11.4161
彦昇	-11.4161
十三萬九千	-11.4161
盗	-11.4161
冡	-11.4161
紊	-11.4161
徽定之實音為姑洗散聲即應鍾	-11.4161
紆	-11.4162
詭	-11.4162
揩	-11.4162
亞獻終獻	-11.4162
握	-11.4162
翬	-11.4162
蹙	-11.4162
不知手之舞之足之蹈之	-11.4162
灌	-11.4162
谿	-11.4162
貍歩	-11.4162
歌姑南	-11.4162
以其一為之厚	-11.4162
經世大訓	-11.4162
小而長則其聲舒而逺聞	-11.4162
之總名	-11.4162
啓蟄	-11.4162
訊	-11.4162
未二千一百八十七分一千二十四	-11.4162
葛覃	-11.4162
刄	-11.4163
九十四除之得一十	-11.4163
宋書律志	-11.4163
司馬相如	-11.4163
燒	-11.4163
三分一釐四毫	-11.4163
霓裳羽衣	-11.4163
樂者天地之和	-11.4163
角生變宫	-11.4163
大衍之數	-11.4163
有奇億約為寸得	-11.4163
纎凡九因八遍共得	-11.4163
㮚氏為量	-11.4163
以十有二律為之數度	-11.4163
囊	-11.4163
馬尾	-11.4163
夏籥序興	-11.4164
四章章四句	-11.4164
百獸率舞	-11.4164
行列得正焉進退得齊焉	-11.4164
賔出奏陔	-11.4164
樂則韶舞	-11.4164
樅	-11.4164
十四萬七千四百五十六	-11.4164
盖本諸此	-11.4164
夘二十七分十六	-11.4164
寸為實三因分母	-11.4164
釐二十四毫	-11.4164
訊疾以雅	-11.4164
申六千五百六十一分四千九十六	-11.4164
飫	-11.4164
以九萬三千三百一十二約之得	-11.4165
恤	-11.4165
不亦逺乎	-11.4165
堂上堂下堂上堂下南吕鎛鐘	-11.4165
周求徑	-11.4165
辟雍	-11.4165
圍徑皆同	-11.4165
署	-11.4165
羡	-11.4165
圈	-11.4165
咽不出	-11.4165
七百四十九	-11.4165
以進為文	-11.4165
柴	-11.4166
疋	-11.4166
雖主乎	-11.4166
而宫音調因而九之九九八十一故黄	-11.4166
跋	-11.4166
九八七六	-11.4166
歌大㽔應姑南太林	-11.4166
蔡邕月令章句	-11.4166
腸胃	-11.4166
有短長	-11.4166
置一而九三之	-11.4166
絜	-11.4166
調属木南	-11.4167
凉州	-11.4167
簨虡	-11.4167
□􁕛□	-11.4167
八音克諧無相奪倫神人以和	-11.4167
屈伸	-11.4167
弦為夾鍾與第四弦散聲應按第	-11.4167
鼗堂上堂下堂上堂下	-11.4168
得其内之	-11.4168
萬分忽之六千三百一十二分	-11.4168
腸	-11.4168
弦為林鍾與第八弦散聲應按第	-11.4168
九絲六忽	-11.4168
葭灰	-11.4168
積一千六百二十寸	-11.4168
剰	-11.4168
𦂳	-11.4168
炎帝	-11.4168
三分其實得	-11.4168
明韓邦奇撰	-11.4168
晉鼓鼓金奏	-11.4168
四寸四分三分二	-11.4168
六寸一分三分一	-11.4168
遂使十二律	-11.4168
此以所約黄鍾之法而約	-11.4168
許慎	-11.4168
醴	-11.4168
櫝	-11.4169
應鐘歌舞姑洗歌	-11.4169
隂竹之管	-11.4169
琴姑洗篴應鐘簫應鐘簫姑洗簫姑洗簫	-11.4169
章則以千二百黍	-11.4169
笙應鐘笙姑洗笙姑洗笙應鐘瑟應鐘	-11.4169
綽注	-11.4169
古之君子	-11.4169
南吕長五寸三分	-11.4169
戰國	-11.4169
斗柄	-11.4169
靁鼓靁鼗	-11.4169
析黄鍾之實為	-11.4169
無當於五	-11.4169
五寸六分一釐二毫三絲一忽	-11.4169
變宫而一均七聲偹矣此	-11.417
鎛鐘特磬	-11.417
鞮	-11.417
二千一百八十七為一分	-11.417
本之情性	-11.417
紘	-11.417
醢	-11.417
凱安	-11.417
綬	-11.417
其牴牾者	-11.4171
徇	-11.4171
要皆	-11.4171
振鐸	-11.4171
長尺圍寸	-11.4171
奏永和	-11.4171
而五度審矣	-11.4171
姑洗歌磬姑洗編磬應鐘	-11.4171
弦為應鍾與十二弦散聲應按第	-11.4172
刻畫	-11.4172
俊	-11.4172
不亦失乎	-11.4172
洋洋乎	-11.4172
精宻	-11.4172
撝謙按	-11.4172
迄今	-11.4173
巴渝舞	-11.4173
蠡	-11.4174
突厥	-11.4174
十二方分	-11.4174
討論	-11.4174
緊慢	-11.4174
君臣之義	-11.4174
為實九因一遍至寸位住得	-11.4174
矜	-11.4174
法置應鍾之率五億二千九百七十三萬	-11.4174
韓邦竒	-11.4175
具二均	-11.4175
煎	-11.4175
盪	-11.4175
穆穆	-11.4175
蘆管	-11.4175
契刀	-11.4175
編鍾編磬	-11.4176
簜	-11.4176
碧	-11.4176
脾	-11.4176
閉口	-11.4177
好三寸	-11.4177
左手執籥右手秉翟	-11.4177
恃	-11.4177
蘓	-11.4177
五寸九分四釐六毫	-11.4177
雲門咸池	-11.4177
之所由生也	-11.4178
亦此意也	-11.4178
𫝑	-11.4179
樊	-11.4179
雕	-11.4179
鳳鳴	-11.4179
小分四十	-11.4179
流連	-11.4179
不可考也	-11.418
測圓	-11.418
腰鼔	-11.418
肅宗	-11.418
僞	-11.418
翁	-11.4181
耆老	-11.4181
農夫	-11.4181
南吕無射應鍾	-11.4181
瓶	-11.4181
唐以來	-11.4182
春丁	-11.4182
鑄鐘	-11.4182
一千二十四	-11.4183
增減	-11.4183
交錯	-11.4183
俳優	-11.4183
不知此理	-11.4184
鎛師掌金奏之鼓	-11.4184
分四釐三毫	-11.4184
肘	-11.4184
秦始皇	-11.4184
隔八之音	-11.4184
考正曰	-11.4184
司空	-11.4185
季春	-11.4185
街	-11.4185
以竹為之	-11.4185
㽔賔鎛鐘	-11.4185
顔色	-11.4185
菁菁者莪	-11.4186
於四隅	-11.4186
化育	-11.4187
猴	-11.4188
毛氏	-11.4188
胡俗	-11.4189
蜡祭	-11.4189
周禮小胥	-11.4189
天駟	-11.4189
七百三十	-11.419
天監	-11.419
亞獻	-11.4193
河右	-11.4193
疑即	-11.4196
白虎	-11.4197
單出	-11.42
豳詩	-11.42
享宗廟	-11.42
商為臣	-11.42
小兒	-11.4201
烝民	-11.4202
赤帝	-11.4202
祖述	-11.4203
酺	-11.4203
八音之器	-11.4203
宫角徴羽	-11.4203
黍累尺	-11.4205
杖鼓	-11.4206
莊周謂	-11.4208
求周徑	-11.4209
成於十二	-11.421
徳音之音	-11.421
十七管	-11.4211
古之作樂	-11.4212
俳	-11.4213
良工	-11.4213
異乎	-11.4214
是也或以	-11.4217
加減	-11.4218
毋乃	-11.4218
髙仜	-11.4219
於此歟	-11.422
互見	-11.4221
人長八尺	-11.4221
長用半	-11.4224
互異	-11.4224
盛典	-11.4228
唐開元中	-11.4228
天地之神	-11.4229
部伎	-11.423
士皆	-11.4231
三十年	-11.4234
之率九億四千三百八十七萬	-11.4234
河内	-11.4235
前漢志曰	-11.4235
應鐘收宫	-11.4235
尺字調	-11.4235
賓射	-11.4236
黄鐘鎛鐘	-11.4239
七寸八分	-11.4244
忽㣲	-11.4245
公孫崇	-11.4246
姑洗特磬	-11.4247
和神人	-11.4247
韶武	-11.4255
而已若夫	-11.4257
可笑	-11.4257
今太樂	-11.426
鏞鐘	-11.426
雅俗	-11.4261
墨子	-11.4261
宣帝	-11.4262
為變宫清	-11.4262
度量權衡皆	-11.4263
宴㑹	-11.4264
天授	-11.4264
得古人	-11.4266
已盡	-11.4266
用之祭祀	-11.4266
三尺六寸六分	-11.4271
極短	-11.4275
所掌者	-11.4275
如之何不	-11.4275
維清	-11.4276
上生應鐘	-11.4276
林鍾起調	-11.4277
大㽔應姑南太林黄仲無夾	-11.4279
未暇	-11.428
成童	-11.4285
十有四	-11.4285
二十七弦	-11.4286
禮器曰	-11.4288
詳言之	-11.4288
九微九纎	-11.4289
惟恐	-11.4292
製造	-11.4292
六藝	-11.4292
也又按	-11.4296
一旦	-11.4297
近理	-11.4297
大學士	-11.4298
十有三	-11.4301
四六二	-11.4306
爾雅云	-11.4307
五旦	-11.4308
欽定四庫全書樂書卷八十	-11.4312
十二曲	-11.4315
歌詞	-11.4316
十兆	-11.4316
最短	-11.4319
其父	-11.4322
律吕上下相生	-11.4325
善彈	-11.4326
大吕起調	-11.433
七竅	-11.4335
可廢	-11.4335
宫聲居中	-11.4336
樂之和	-11.4337
慶善樂	-11.4342
就位	-11.4342
方形	-11.4343
不得已	-11.4343
欽定四庫全書樂律全書卷三十	-11.4344
俗工	-11.4349
無射之律	-11.4355
詩篇	-11.4361
律吕之數	-11.4362
樂記云	-11.4364
林鐘徴	-11.4366
舞之容	-11.4368
象三才	-11.4368
仲春	-11.4369
百神	-11.4372
致中和	-11.4386
徳宗	-11.4388
甚清	-11.4389
八十人	-11.439
寸五分八釐	-11.439
五寸七百二十九分寸之四百五十一	-11.4398
孤竹	-11.4399
鄭氏曰	-11.4402
㑹同	-11.4403
何氏	-11.4407
孔子所以	-11.4413
二十四調	-11.4413
凾	-11.4414
五音之正	-11.4418
遂使	-11.4422
風氣	-11.4425
二尺三寸	-11.4427
變徴姑	-11.4431
他書	-11.4433
不離於	-11.4433
各譜	-11.4434
通志	-11.4436
入地	-11.4446
十纎	-11.4447
徒知	-11.4449
鍾之律九寸	-11.4449
未敢	-11.445
從祀	-11.4456
變宫㽔	-11.4456
流行	-11.4457
況於	-11.4458
在堂下	-11.4465
亦只	-11.447
兩笛	-11.4475
依舊	-11.4479
羊頭山秬黍	-11.448
求中聲	-11.4481
説文	-11.4489
辨論	-11.4494
一尺三寸	-11.4494
此鬴	-11.4495
執事	-11.4497
先求	-11.4498
二寸七分	-11.4503
宮之商	-11.4503
齊王	-11.4507
先王制	-11.4512
孝文	-11.4515
三百律	-11.4517
夾夷大㽔應姑南太林	-11.4525
蕤賓調	-11.4526
左𫝊	-11.4536
樂律全書卷三十	-11.4543
明其義	-11.4546
佳者	-11.4546
未明	-11.4549
義理	-11.456
至精	-11.456
律書曰	-11.4575
諸曲	-11.4584
在阼	-11.4584
先王因	-11.4588
嘉禮	-11.4593
者皆九分	-11.4613
用兵	-11.4624
二段	-11.4625
五聲之用	-11.4626
變宮調	-11.4631
木徳	-11.4632
宋齊	-11.4645
未備	-11.4645
亦未必	-11.4649
先天	-11.4672
樂之於天下	-11.4679
收聲	-11.4679
以六律六同五聲八音六舞大合樂	-11.4681
瞽矇掌	-11.4681
笙師掌	-11.4686
今據	-11.4688
相發明	-11.4688
於外而	-11.469
十九年	-11.4703
四寸有奇	-11.4718
古人謂之	-11.4738
亦不足	-11.4741
仍為宫	-11.4761
用匏	-11.4765
七四二	-11.4773
之功也	-11.4774
律準	-11.4778
此三者	-11.4789
得其中	-11.479
深一尺	-11.4797
亦須	-11.4799
可謂善	-11.4806
空言	-11.4811
林鐘之實	-11.4812
欽定四庫全書樂書卷一百九十	-11.4816
慢聲	-11.4816
和諧	-11.4828
于此者	-11.4853
五萬九千	-11.4858
之意乎	-11.4863
學操縵	-11.4882
六百三十	-11.4884
徑二分	-11.4889
聽樂	-11.489
以求合	-11.4908
則又何	-11.4914
十二虡	-11.4926
周語	-11.4936
圍五寸	-11.494
人道也	-11.4941
容十斗	-11.4942
涖	-11.4947
和之以	-11.4952
所好	-11.4954
面各	-11.4956
倍律外周	-11.4968
欽定四庫全書樂書卷九十	-11.4969
太后	-11.499
三尺八寸	-11.4992
十有一	-11.5022
弦為夷則與第九弦散聲應按第	-11.5031
所以為禮	-11.5057
呼三	-11.5061
太簇姑洗㽔賔夷則無射	-11.5067
律短	-11.5091
季冬	-11.51
先鄭	-11.5106
破陣	-11.5112
有柄	-11.5113
倍之得	-11.5115
古笛	-11.5121
斤十	-11.5148
應鐘為羽	-11.518
八十九萬六千四百一十五	-11.5188
斛法	-11.5191
宫架歌	-11.5208
先王制禮	-11.521
形體	-11.5215
下管象武	-11.5232
君之象	-11.5235
正與此	-11.5244
毫七百七十	-11.5246
法也九其二	-11.5266
騑	-11.5268
欽定四庫全書樂書卷五十	-11.5268
欽定四庫全書樂書卷一百五十	-11.5269
茫	-11.5274
月令章句	-11.5274
暑	-11.5283
分又九因	-11.5292
咨	-11.5298
六分奇	-11.5308
八十九萬八千七百一十八	-11.5317
億六千七百四十一萬九千九百二十七	-11.5318
長三尺六寸	-11.5321
實以十億乗之以十億	-11.5327
長二寸	-11.5342
雎	-11.5344
備載	-11.5347
四寸八分八釐四毫八絲	-11.536
苗	-11.5361
邕	-11.5365
彭氏	-11.5365
九曲一	-11.5365
千一百八十七	-11.5367
祁	-11.5368
遐	-11.537
合龠為合	-11.5371
蘩	-11.5373
句股求弦	-11.5375
牲出入	-11.5375
梧	-11.5377
聆	-11.538
遥	-11.5381
娶妻	-11.5382
柈	-11.5385
聲中無字	-11.5385
􁄊	-11.5385
澗	-11.5386
太南姑應㽔大夷夾無仲	-11.5386
嗟嘆	-11.5387
欽定四庫全書樂律全書卷十	-11.5388
北鄙之音	-11.5389
隰	-11.5389
大胥掌學士之版以待致諸子	-11.539
瞭	-11.5391
大祭祀宿縣	-11.5392
哇	-11.5392
奏夷則歌小吕	-11.5392
㽔賔起宫仲變徴仲變	-11.5392
櫟	-11.5392
嗜	-11.5392
婚	-11.5392
字中有聲	-11.5393
乃命上商除實數	-11.5393
裹	-11.5393
􁁇□	-11.5393
阻	-11.5393
百黍之重為今之	-11.5393
鏄	-11.5393
以九為法	-11.5394
司中司命	-11.5394
應四絃散聲	-11.5394
飄	-11.5394
嫁	-11.5394
牽强	-11.5394
六千七百八十一	-11.5395
萬事根本	-11.5395
腥	-11.5395
無所經見	-11.5395
桑間濮上	-11.5395
策	-11.5396
徃徃	-11.5396
悔	-11.5396
璧羨	-11.5397
應田縣鼓	-11.5398
推而下之	-11.5398
塲	-11.5398
堂上堂下堂上堂下應鐘鎛鐘	-11.5398
滔	-11.5398
髀	-11.5399
黃鐘起宫應變徴應變宫	-11.5399
商為金	-11.5399
璧羡	-11.5399
二音之間比	-11.5399
覃	-11.54
微清比	-11.54
靡曼	-11.54
司巫	-11.54
擁	-11.5401
淆入宫音	-11.5401
突	-11.5401
翿	-11.5401
虗	-11.5401
邦竒	-11.5401
九二八三	-11.5401
干支	-11.5401
宥	-11.5402
皇祐新樂圖記	-11.5402
胄	-11.5402
埒	-11.5402
大胥小胥	-11.5402
禮樂刑政	-11.5402
貎	-11.5402
刑政	-11.5402
歇	-11.5402
武亂皆坐	-11.5403
月令仲春	-11.5403
臣恐未合	-11.5403
耆	-11.5403
脫	-11.5403
場	-11.5403
周徑幂積	-11.5403
逸瑗	-11.5403
五九九二	-11.5404
舞者所執	-11.5404
孝弟	-11.5404
顓頊	-11.5404
徽定之實音為太蔟散聲即南吕	-11.5404
間歌魚麗笙由庚歌南有嘉魚笙崇	-11.5405
綜	-11.5405
惰	-11.5405
由低而髙	-11.5405
之中畫	-11.5405
縣磬	-11.5405
聶崇義三禮圖	-11.5405
鬭	-11.5405
春秋教以禮樂冬夏教以詩書	-11.5406
朱子琴律説	-11.5406
角與變宫	-11.5406
訟	-11.5406
劉几	-11.5406
止用五正聲	-11.5406
荀子	-11.5406
林鐘起宫㽔變	-11.5406
愆	-11.5406
樂府雜録	-11.5406
歌太林	-11.5407
滴	-11.5407
武奏大武	-11.5407
皎	-11.5407
籥師掌教國子舞羽龡籥	-11.5407
般涉	-11.5407
三分所生益之一分以上生	-11.5407
路鼔路鼗	-11.5407
蒐	-11.5407
雷出地奮	-11.5407
迎送神	-11.5407
冕而揔干	-11.5407
吕氏春秋古樂	-11.5408
奏姑洗歌南吕	-11.5408
恍	-11.5408
俄	-11.5408
飲福酒	-11.5408
后夫人	-11.5408
渾脫	-11.5408
午得七百二十九又參之	-11.5408
已得二百四十三又參之	-11.5408
對用童男二人象教	-11.5408
鐘律通考	-11.5408
未得二千一百八十七又參之	-11.5409
屏	-11.5409
奮厲	-11.5409
隋煬帝	-11.5409
恨	-11.5409
綿	-11.5409
非周制也	-11.5409
三分所生去其一分以下生	-11.5409
者莫如	-11.5409
詎	-11.5409
寵	-11.5409
霄	-11.5409
填詞	-11.5409
夙夜	-11.5409
禡	-11.541
組	-11.541
勤而不怨	-11.541
匡	-11.541
財匱	-11.541
熹	-11.541
竇公	-11.541
閼	-11.541
八尺曰仞	-11.5411
越裳	-11.5411
左執簧	-11.5411
吹曰含少	-11.5411
掦	-11.5411
歌鹿鳴三終	-11.5411
硬	-11.5411
矇	-11.5411
朱干玉戚以舞大武	-11.5411
以六樂之㑹正舞位	-11.5411
羽數四十八	-11.5411
散聲生九徽	-11.5412
黃鐘笙黃鐘笙	-11.5412
蹋	-11.5412
孝子相戒以養	-11.5412
微又九因至纎位住得	-11.5412
黃鐘歌磬黃鐘編磬	-11.5412
宮商角徵羽	-11.5412
面冪	-11.5412
黃鐘簫黃鐘簫	-11.5412
十二詩譜	-11.5412
十一萬八千九十八	-11.5413
變宫大角	-11.5413
容一千二百黍	-11.5413
三十斤為鈞	-11.5413
無算樂	-11.5413
直已而陳	-11.5413
術曰以下生者倍其實三其法	-11.5413
四寸一分八釐三毫	-11.5413
奏無射歌夾鐘舞大武以享先祖	-11.5413
設而不作	-11.5413
僣天子	-11.5414
布戎	-11.5414
呂氏春秋	-11.5414
松	-11.5414
擊頌磬笙磬	-11.5414
着	-11.5414
紀之以三平之以六	-11.5414
下管擊應鼓	-11.5414
查	-11.5414
黃鐘歌鐘黃鐘編鐘	-11.5414
以金錞和鼓	-11.5414
寸納分子之	-11.5414
林鐘瑟林鐘	-11.5414
連比例	-11.5415
與此同意	-11.5415
鋒	-11.5415
後周玉尺	-11.5415
十二銖則是累九十黍以	-11.5415
析為八十一分計八十一	-11.5415
愧	-11.5415
摭	-11.5415
大師大祭祀	-11.5415
瑶	-11.5415
鼗倚于頌磬西紘	-11.5415
鹿鳴四牡皇皇者華	-11.5415
一分九釐一釐九毫一毫九絲以之生十	-11.5415
六尺有六寸	-11.5415
𦵏	-11.5415
以身為度	-11.5415
羮	-11.5415
憚	-11.5415
竒偶	-11.5415
篚	-11.5415
蘇夔	-11.5415
商之次故還用正聲為角	-11.5415
樂人宿縣于阼階東笙磬西面其南笙鐘	-11.5415
讙	-11.5416
隐	-11.5416
甕	-11.5416
大樂與天地同和	-11.5416
叟	-11.5416
終而復始	-11.5416
荀朂笛譜	-11.5416
虎賁	-11.5416
帥瞽登歌令奏擊拊	-11.5416
十分其銑去二以為鉦	-11.5416
弦為姑洗與第五弦散聲應按第	-11.5416
九絲八忽	-11.5416
弦為太蔟與第三弦散聲應按第	-11.5416
一均之聲	-11.5417
活	-11.5417
鉛	-11.5417
去二分以為舞廣	-11.5417
十六兩為斤	-11.5417
唐開元禮	-11.5417
疎宻	-11.5417
六絲七忽	-11.5417
馬氏	-11.5417
之為釐法三三之為毫法一三之為絲法	-11.5417
千一百八十七得一萬九千六百八十三	-11.5417
景表尺	-11.5417
舞干羽于兩階	-11.5417
亦皆黄鍾本數也	-11.5417
以副十二月十二各以三成故置	-11.5417
犬	-11.5417
百物不失	-11.5417
丹水	-11.5417
授舞者兵	-11.5417
皆可以生之	-11.5417
三分五釐三毫五絲五忽三微三纎九塵	-11.5417
住	-11.5418
鼖鼓維鏞	-11.5418
數内約以	-11.5418
餘數以分法二千一百八十七除之得	-11.5418
太簇塤南吕	-11.5418
南吕歌鐘南吕編鐘太簇歌鐘太簇編鐘	-11.5418
跳	-11.5418
帷	-11.5418
變宫生徴	-11.5418
桴	-11.5418
宫商徴羽	-11.5418
聖朝太樂	-11.5418
南吕歌舞太簇歌	-11.5418
簫笛色	-11.5418
乾之初九	-11.5418
朋友	-11.5418
姑洗之數六十四主三月下生應	-11.5418
笙南吕笙太簇笙太簇笙南吕瑟南吕	-11.5418
鐘編磬林鐘編磬太簇編磬南吕編磬	-11.5418
長六寸一萬九千六百八十三分寸之	-11.5418
黄鐘笙林鐘笙太簇笙南吕笙黄鐘	-11.5418
由是第之	-11.5419
羗	-11.5419
鐘編鐘林鐘編鐘太簇編鐘南吕編鐘	-11.5419
以和邦國	-11.5419
星紀	-11.5419
六寸二分九釐九毫六絲	-11.5419
圓之徑	-11.5419
帽	-11.5419
跬	-11.5419
瑟林鐘瑟太簇瑟南吕瑟	-11.5419
磬無射歌磬	-11.5419
陽六為律	-11.5419
古之神瞽考中聲而量之以制度律均鍾	-11.5419
鐘歌林鐘歌太簇歌南吕歌	-11.5419
鐘琴林鐘琴太簇琴南吕琴	-11.5419
黃鐘笙林鐘笙太簇笙南吕笙黃鐘	-11.5419
黃鐘簫林鐘簫	-11.5419
無射歌磬無射編磬仲吕	-11.542
為實九億	-11.542
屨	-11.542
不相凌	-11.542
未酉亥	-11.542
榖雨	-11.542
鐘歌磬林鐘歌磬太簇歌磬南吕歌磬	-11.542
鐘歌鐘林鐘歌鐘太簇歌鐘南吕歌鐘	-11.542
凡小祭祀小樂事鼓	-11.542
律學新説	-11.542
蔡氏新書	-11.542
大戴禮	-11.542
聲淫及商	-11.542
改煎金錫則不耗不耗然後權之權之	-11.5421
李照范鎮	-11.5421
𦙍	-11.5421
扇	-11.5421
司馬光	-11.5421
整齊	-11.5421
跋膝	-11.5421
妓	-11.5421
舞林鐘歌鐘林鐘編鐘	-11.5422
迭相為經	-11.5422
膺	-11.5422
一絃二絃	-11.5422
六微七纎	-11.5422
北面坐	-11.5422
十二律還相為宫	-11.5422
禽獸	-11.5422
仲吕琴仲吕篴無射	-11.5422
□􁕡□	-11.5422
杜䕫	-11.5422
為某調	-11.5422
髙昌	-11.5422
賓牟賈	-11.5422
𤣥酒	-11.5422
二千龠	-11.5422
登歌下管	-11.5423
乍	-11.5423
摝	-11.5423
南吕琴南吕篴太簇	-11.5423
瑕	-11.5423
熊氏云	-11.5423
圜其外	-11.5423
𬎼賓	-11.5424
肅肅	-11.5424
鳧	-11.5424
黑漆	-11.5424
小分八	-11.5424
朱文公	-11.5424
自然之妙	-11.5424
寅與亥合	-11.5424
瑣	-11.5424
三分損益隔八相生	-11.5424
太簇歌磬太簇編磬南吕	-11.5425
山海經	-11.5425
散扣	-11.5425
貼	-11.5425
明朱載堉撰律吕精義内篇	-11.5425
百度得數而有常	-11.5425
四寸一分八釐	-11.5425
相求之率	-11.5425
虵	-11.5426
無正文	-11.5426
饋食	-11.5426
三寸六分六釐	-11.5426
箴	-11.5426
緫	-11.5427
析木	-11.5427
四分七百	-11.5427
流蘇	-11.5427
玉路	-11.5427
左丘明	-11.5427
驁夏	-11.5427
黒漆	-11.5427
祭蜡	-11.5427
既不可行當有以通之	-11.5428
鄭衛之聲	-11.5428
高麗	-11.5428
十一萬八千	-11.5428
若樂九變則人鬼可得而禮矣	-11.5428
行葦	-11.5428
甲申	-11.5428
以律計	-11.5429
由此推之	-11.5429
大吕為角則南吕為宫太	-11.5429
甘州	-11.5429
錢徑八分	-11.5429
之制歟	-11.5429
也一寸九分	-11.543
執競	-11.543
别是一	-11.543
朱漆	-11.5431
輪扇	-11.5431
㣲七纎	-11.5431
嗣音	-11.5431
與此不同	-11.5431
鬼享	-11.5432
雍徹	-11.5432
姑洗搏牘鏞琴	-11.5432
絲竹匏土	-11.5432
三四五六	-11.5432
槌	-11.5433
龢	-11.5433
人可罷	-11.5433
㣲五纎	-11.5433
第十三弦	-11.5433
夾鐘歌無射	-11.5433
清樂部	-11.5433
㣲四纎	-11.5434
竟不能	-11.5434
頼	-11.5434
衮	-11.5434
㣲八纎	-11.5435
四隅	-11.5435
皆以銅為之	-11.5435
鼛鼔	-11.5435
顔師古	-11.5436
夷則五寸五分五釐一毫	-11.5436
太史公律書	-11.5436
廞樂器	-11.5436
支辰	-11.5436
淺深	-11.5436
二百六十	-11.5437
上仲宫中聲之宫聲髙於羽	-11.5437
下管象	-11.5437
近代雅樂	-11.5438
芝	-11.5438
端冕	-11.5438
舊注曰	-11.5438
轉留	-11.5438
天球	-11.5438
二尺九寸	-11.5439
溺音	-11.5439
愛敬	-11.5439
周官樂師	-11.544
偉	-11.544
五萬九千四十九絲	-11.5441
二十七二十七	-11.5441
夏后	-11.5441
定為徵	-11.5441
錯雜	-11.5442
竊意	-11.5442
六十七忽	-11.5443
林鐘起宫	-11.5444
濓	-11.5444
錯誤	-11.5445
凡六十聲	-11.5445
頌塤	-11.5445
漳	-11.5445
八寸為尺	-11.5446
講求	-11.5446
之𩔖是也	-11.5446
之所同也	-11.5447
調按十一徽彈第	-11.5447
待詔	-11.5447
貢士	-11.5447
羲和	-11.5448
脩短	-11.5449
聲者莫不	-11.545
畯	-11.545
男子	-11.545
解曰此黄鐘	-11.5451
宋武帝	-11.5452
自古有之	-11.5452
第六位	-11.5453
據此則	-11.5453
將帥	-11.5454
閏月	-11.5454
銅斛	-11.5454
㕘分	-11.5454
譬猶	-11.5454
於文	-11.5454
三百四十七	-11.5455
三分損益之説	-11.5455
孝思	-11.5455
六十四卦	-11.5455
九徽十徽	-11.5456
鄭伯	-11.5456
襄陽	-11.5457
博山	-11.5458
弦為無射與十一弦散聲應按第	-11.5458
以義起	-11.5459
自然相應	-11.5459
博依	-11.5459
箕子	-11.546
埋管	-11.546
長四尺五寸	-11.546
河東	-11.5462
五絃為角	-11.5463
則聲濁	-11.5463
王公以下	-11.5464
亦無不可	-11.5465
最低	-11.5465
史傳	-11.5467
神靈	-11.5468
太簇特磬	-11.5469
倍其實	-11.5469
十分去	-11.5472
奏太和	-11.5472
未確	-11.5472
擊大鼓	-11.5472
則應于	-11.5473
升坐	-11.5474
曾子	-11.5474
文之以五聲播之以八音	-11.5476
深思	-11.5476
觀此則	-11.5478
契合	-11.5479
博士	-11.5479
性理	-11.548
竽瑟	-11.5481
流俗	-11.5481
按上為	-11.5481
推算	-11.5481
昭宗	-11.5482
三十五調	-11.5483
白玉	-11.5485
光地	-11.5485
三耦	-11.5486
帝堯	-11.5486
微妙	-11.5487
嘉賔	-11.5488
六忽七微八纎	-11.5489
朝廟	-11.5489
象兩儀	-11.5489
田祖	-11.549
素服	-11.5491
琴㫖	-11.5491
三飯	-11.5492
屢舞	-11.5492
繹如	-11.5493
華黍	-11.5494
賢人之	-11.5495
掌固	-11.5496
向使	-11.5496
第一章	-11.5497
司馬法	-11.5497
在卦則乾之九	-11.5497
右乃姑洗	-11.5498
賦詩	-11.5499
隂陽隂陽	-11.5501
五工勾	-11.5501
朱熹曰	-11.5502
白虎通曰	-11.5504
神聖	-11.5505
五常之	-11.5506
由是知	-11.5506
卒章	-11.5508
鑄金	-11.5508
與之相	-11.5511
臯鼓	-11.5512
縦黍	-11.5514
今教坊	-11.5514
郊廟之樂	-11.5515
八徽内	-11.5516
高宗	-11.5516
寸三分七釐	-11.5523
失之小	-11.5524
佾數	-11.5526
以三約	-11.5528
頌琴	-11.5529
不成調	-11.5529
盡於此矣	-11.553
雷鼔	-11.5532
龠也積	-11.5534
釁鐘	-11.5534
禮樂之教	-11.5535
變宮變徴	-11.5537
嘗觀	-11.554
可證	-11.554
子之一	-11.5541
為一終	-11.5542
舒和	-11.5543
比干	-11.5543
綱領	-11.5544
一隅	-11.5545
子夏曰	-11.5547
為寸法則	-11.5548
二十七絃	-11.5549
無射之角	-11.555
九七五	-11.5553
縱長	-11.5559
有如此者	-11.5563
正義曰	-11.5564
南吕起調	-11.5564
七三五	-11.5566
序官	-11.5567
㽔賔為羽	-11.5567
衆器	-11.5573
少師	-11.5579
夏侯	-11.5579
以致用	-11.5581
七百八十	-11.5582
為實數	-11.5588
解曲	-11.5588
六千五百六十一為一寸	-11.5589
百四十四律	-11.5589
天下之至	-11.5592
竝用	-11.5593
下生上生	-11.5595
長孫	-11.5596
與律相	-11.5602
凖法	-11.5602
八百七十	-11.5602
小呂	-11.5603
大吕之商	-11.5605
神解	-11.5613
百已上開	-11.5619
明初	-11.5621
華夷	-11.5622
大招	-11.5626
校定	-11.5629
著樂書	-11.5637
四寸二分	-11.5638
禮記所謂	-11.5643
聲而言	-11.5645
十二月律	-11.5648
舊圖	-11.5649
心術	-11.565
二千一百八十七為一寸	-11.5657
公卿大夫	-11.5662
一一二	-11.5663
二千二百三十六除之	-11.5664
太蔟之率	-11.5667
傳寫	-11.5668
領聲	-11.5679
六律五聲	-11.5684
鐃鼓	-11.5689
大壯	-11.5693
所獻	-11.5695
千年	-11.5699
然吕氏	-11.5705
律歴	-11.5705
欽定四庫全書樂書卷一百二十	-11.5711
大者謂之	-11.5726
百里	-11.5744
欽定四庫全書樂書卷一百七十	-11.575
大師掌六律六同以合隂陽之聲	-11.5751
震音	-11.5763
禮教	-11.5765
二尺一寸	-11.5768
者仁之	-11.577
羽徴角商	-11.5784
後代	-11.5787
弦散聲爲	-11.5793
六二九九	-11.5817
階西	-11.5818
黍之廣積	-11.5825
之舉也	-11.5832
南吕正律	-11.5833
朱載堉樂律全書	-11.5839
縱黍尺	-11.5839
執干戚	-11.5873
合尺勾	-11.5875
忽九微	-11.5882
之終也	-11.5883
二百九十	-11.5888
新法置姑洗之率七億九千三百七十	-11.5893
遵用	-11.5915
又不然	-11.5938
凰之鳴	-11.5957
先王所以	-11.5973
欽定四庫全書樂書卷一百八十	-11.5984
俗名	-11.5991
徴姑洗為羽	-11.5998
止于五	-11.6005
銘曰重	-11.6012
有三等	-11.6029
必始於	-11.6055
數之多	-11.6077
欽定四庫全書樂書卷四十	-11.6084
四一凡工	-11.6085
所𫝊	-11.609
方色	-11.6092
漢以來	-11.6115
大濩大武	-11.6125
而已今夫	-11.6126
尺工五六	-11.6139
變徵之聲	-11.6152
微濁	-11.616
宫聲八十一	-11.6178
中有椎	-11.6184
欽定四庫全書樂書卷一百六十	-11.6185
書律厯志	-11.6187
三十九分	-11.6192
南林姑太	-11.6199
一萬九千六百八十三分八千一百九十	-11.6212
不興舞	-11.6225
姑洗長六寸	-11.6247
大師小師	-11.6261
其餘諸	-11.6312
冬夏	-11.6349
以大吕為	-11.6357
一千一百	-11.6365
寸命作	-11.6384
欽定四庫全書苑洛志樂卷十	-11.639
出于自然	-11.6416
以人聲為	-11.6425
五分一釐	-11.6426
夷夾無仲黄林太南姑應㽔大	-11.645
欽定四庫全書樂律表㣲卷	-11.6473
備舉	-11.6483
成於樂	-11.6492
縱黍八十一分	-11.6501
絃緊	-11.6545
十七分四	-11.6552
假用黄	-11.6559
一十五分	-11.6562
雙角	-11.6599
叅軍	-11.6628
九除	-11.6639
三分六釐	-11.6645
變徵不用	-11.6658
圍八分	-11.6669
㽔賓鎛鐘	-11.6677
日至於澤中之方丘奏之若樂八	-11.6681
七尺曰仞	-11.6688
内周一寸	-11.669
置仲吕為實以	-11.6692
國語伶州鳩曰	-11.6708
管之長短	-11.6718
籥舞笙鼓	-11.6721
五聲六律十二管還相為宫	-11.6734
二纎新法置	-11.6734
何也葢	-11.6755
置無射為實以	-11.6755
二千五百	-11.6766
前第一孔	-11.6768
番	-11.6773
鵲	-11.6775
央	-11.6784
南姑應㽔大夷	-11.6793
亥十七萬七千一百四十七	-11.6793
國語伶州鳩	-11.6797
五章章四句	-11.6802
鏂	-11.6804
駒	-11.6804
靺	-11.6806
菽	-11.6807
蘋	-11.6807
亟	-11.6808
陳氏樂書	-11.6808
翰林院檢討毛竒齡撰	-11.6809
瓜	-11.6809
温良	-11.6809
孤兒	-11.681
皮弁素積	-11.681
棗	-11.681
以宫聲為本	-11.681
瓠	-11.681
神人以和	-11.681
纍	-11.6811
娥	-11.6811
天生自然	-11.6812
强弱	-11.6812
六字孔黄鐘清為	-11.6813
恕谷	-11.6814
貫珠	-11.6814
億三千	-11.6815
殫	-11.6815
憶	-11.6815
磬筦將將	-11.6816
眼	-11.6817
函宏	-11.6817
悌	-11.6818
丅	-11.6818
郊社	-11.6818
言而履之	-11.6818
凱風	-11.6818
耻	-11.6818
尼	-11.6819
匏竹利制	-11.6819
三三三七	-11.682
十七萬四千七百六十二	-11.682
鎛師掌金奏之	-11.682
虞廷	-11.682
髙漸離	-11.682
沼	-11.6821
瓊	-11.6822
鞮鞻	-11.6822
尖	-11.6822
竾	-11.6822
流入于南不歸于北	-11.6822
譟	-11.6822
也四十五日	-11.6822
祕	-11.6823
巷	-11.6823
於實第七位	-11.6823
鬯	-11.6824
彖	-11.6824
陪	-11.6824
恢	-11.6824
於實第八位	-11.6824
迴	-11.6824
清角清徵	-11.6825
韓邦奇	-11.6825
貉	-11.6825
孫竹之管	-11.6825
黄鐘大吕太簇	-11.6825
台	-11.6825
聲相應故生變變成方謂之音比	-11.6826
㢘	-11.6826
金石絲竹匏土革木	-11.6826
摹	-11.6826
柲	-11.6826
清濁之衷	-11.6826
尺有二寸	-11.6826
銳	-11.6826
鑚	-11.6826
在清濁之間	-11.6826
太祖皇帝	-11.6827
捉	-11.6827
亦是意也	-11.6827
庸詎	-11.6827
七一一五	-11.6827
再變而致臝物及山林之示	-11.6827
雒	-11.6827
一變而致羽物及川澤之示	-11.6828
者鮮矣	-11.6828
影	-11.6828
八尺為歩	-11.6828
朒	-11.6828
梢	-11.6828
刑罰	-11.6828
興於詩	-11.6828
之商大呂之商	-11.6828
筰	-11.6828
耀	-11.6828
林鐘上生太簇太簇下生南吕南吕	-11.6829
魂	-11.6829
祝融	-11.6829
庠	-11.6829
長七尺二寸	-11.6829
師曠之聰	-11.6829
律吕成書	-11.6829
八音以土為主	-11.6829
卵	-11.6829
舜彈五絃之琴	-11.6829
伍	-11.683
依新法算	-11.683
閡	-11.683
奏騶虞間若一	-11.683
小石調	-11.683
讖	-11.683
泰山	-11.683
惻	-11.683
郢	-11.6831
三千五百五十七	-11.6831
下生者三分去一上生者三分益一	-11.6831
休息	-11.6831
大瑟謂之灑	-11.6832
滌蕩其聲	-11.6832
四百八十七	-11.6832
歇指角	-11.6832
賓之初筵	-11.6832
車駕	-11.6832
䨇調	-11.6832
姑洗生應鍾	-11.6832
傲	-11.6832
徽至四徽	-11.6832
揷	-11.6832
詩言志歌永言	-11.6833
觝	-11.6833
邁	-11.6833
􁌹	-11.6833
教帗舞帥而舞社稷之祭祀	-11.6833
舞師掌教兵舞帥而舞山川之祭祀	-11.6833
秘傳	-11.6833
圍十分三釐八毫	-11.6833
五子之歌	-11.6833
稃	-11.6833
鋭	-11.6833
歧	-11.6834
白雪	-11.6834
維清奏象舞	-11.6834
復還其始	-11.6834
與天地之氣相應	-11.6834
鳳凰來儀	-11.6834
歇指調	-11.6834
大吕太蔟夾鍾姑洗仲吕	-11.6834
以騶虞為節	-11.6834
殷薦之上帝以配祖考	-11.6834
嵇	-11.6834
賚	-11.6834
馬融長笛賦	-11.6834
嘯	-11.6834
擾	-11.6834
侔	-11.6835
循環相生	-11.6835
琨	-11.6835
陜	-11.6835
細鈞有鐘無鎛昭其大也	-11.6835
分八十釐	-11.6835
另	-11.6835
李延年	-11.6835
憾	-11.6835
殊不思	-11.6835
湎	-11.6835
軷	-11.6835
穎	-11.6835
三五三五	-11.6835
喉舌	-11.6835
朱干玉戚以舞大武八佾以舞大夏	-11.6835
六八一七	-11.6836
大吕起宫黃變徴黃變宫	-11.6836
窒	-11.6836
螺	-11.6836
九德之歌	-11.6836
聽軍聲	-11.6836
其臋一寸其實一豆	-11.6836
和故百物皆化	-11.6836
相去一律則音節和相去二律則音節逺	-11.6836
行以肆夏	-11.6836
紹逺	-11.6836
叔孫通	-11.6837
蔡氏之書	-11.6837
分樂而序	-11.6837
璜	-11.6837
開元通寳	-11.6837
夾振之而駟伐盛威於中國	-11.6837
百世之下欲求	-11.6837
中春晝	-11.6837
正聲調法	-11.6837
嶰谷之竹	-11.6837
棣	-11.6837
無射起宫南變徴南變宫南角南羽南商	-11.6837
昻	-11.6837
臝物	-11.6837
神瞽考中聲	-11.6837
移風易俗莫善於樂	-11.6837
織	-11.6838
貝	-11.6838
建武銅尺	-11.6838
三分去一五十四以為	-11.6838
四十八以為羽三分益一六十四以為角	-11.6838
七正五清	-11.6838
駮	-11.6838
湮	-11.6838
韎師旄人	-11.6838
樂具入奏	-11.6838
商音金也	-11.6838
自諸侯出	-11.6838
六七八九十	-11.6838
大磬謂之毊	-11.6838
斟酌	-11.6838
金石有聲不考不鳴	-11.6838
予欲聞六律五聲八音	-11.6838
弦匏笙簧	-11.6838
右總論	-11.6838
仰瞻囘顧第	-11.6838
司干掌舞器	-11.6838
燔黍捭豚	-11.6838
六六七一七五	-11.6839
翰	-11.6839
墮	-11.6839
躁	-11.6839
以夾鍾為黄鍾	-11.6839
宫秋丁	-11.6839
朱襄氏	-11.6839
分三百三十	-11.6839
分而為二	-11.6839
孔緩為	-11.6839
徽定之實音為黄鍾散聲即林鍾六弦	-11.6839
罔	-11.6839
馬韓	-11.6839
大不踰宫細不過羽	-11.6839
樂其所自生	-11.6839
粗厲	-11.6839
裕	-11.6839
非人之所能為	-11.6839
享先妣	-11.6839
姚	-11.6839
為徴羽宫商角	-11.6839
又參之於戌得五萬九千	-11.6839
樂由天作	-11.6839
萬二千九百七十四	-11.684
可不戒哉	-11.684
大琴必以大瑟配之	-11.684
通禮義纂曰	-11.684
進一位命作立方積	-11.684
為實以分法二千一百八十七除之得	-11.684
迭以吹則中聲可得淺深以列則中氣可	-11.684
宋氏尺	-11.684
奏皇夏	-11.684
燥濕	-11.684
鄭衞	-11.684
旬有五日指	-11.684
釐八毫五絲	-11.684
樂記曰樂者非謂	-11.684
勘	-11.684
應劭曰	-11.684
乖舛	-11.684
彞	-11.684
槽	-11.684
禜	-11.684
徽定之實音為南吕散聲即姑洗四弦	-11.6841
為君商為臣角為民徴為事羽為物	-11.6841
調也其起調畢曲之律	-11.6841
躋	-11.6841
誤認	-11.6841
僚	-11.6841
叛	-11.6841
司戈盾	-11.6841
塤簫管	-11.6841
竹長三寸九分吹之	-11.6841
黜	-11.6841
王廷相	-11.6841
九十黍容千二百黍則空圍當有九方分	-11.6841
邢	-11.6841
吹四字按十徽定之實音為太	-11.6842
一千九百四十四	-11.6842
之率五億九千四百六十	-11.6842
十五萬七千四百六十四	-11.6842
周而復始	-11.6842
天寳中	-11.6842
殽	-11.6842
黄太姑蕤林南應	-11.6842
其所異者特	-11.6842
於義或然	-11.6842
質樸	-11.6842
不甚相逺	-11.6842
奏黄鐘歌大呂	-11.6842
分八十二釐	-11.6842
六百六十六	-11.6842
深奥	-11.6842
為長積千二百黍以為廣可見也夫	-11.6842
斜黍九十分	-11.6842
絙	-11.6842
鑠	-11.6843
禆	-11.6843
孝悌	-11.6843
序故羣物皆别	-11.6843
惟審度章云一黍之廣度之九十分黄	-11.6843
横黍之度	-11.6843
鏞鐘一振鐸二再作	-11.6843
黄無林仲夾黄無林仲夾黄無	-11.6843
播鞉	-11.6843
所由出也	-11.6843
三成而南四成而南國是疆五成而	-11.6843
武始而北出再成而滅商	-11.6843
樂律管見	-11.6843
狎	-11.6843
甘泉	-11.6843
舉而措之	-11.6843
韓非子	-11.6843
書大傳	-11.6843
短則聲清而	-11.6843
旬	-11.6843
腐	-11.6843
課	-11.6843
一寸二分四釐七毫	-11.6843
古者於旅也語	-11.6843
嘉量章則以千二百黍實其龠謹	-11.6843
角數六十四	-11.6844
塤太簇瑟太簇箎	-11.6844
夷則編鐘夾鐘	-11.6844
錯綜	-11.6844
升歌清廟下而管象	-11.6844
合生氣之和	-11.6844
餘律放此	-11.6844
㽔賔簫㽔賔簫	-11.6844
頂髙	-11.6844
冷謙	-11.6844
縣一鍾而尚拊大戴禮曰縣一磬而尚拊	-11.6844
無射所以宣布哲人之令徳示民軌儀也	-11.6844
謂舊鎛鐘	-11.6844
分故其實總得此數又以	-11.6844
此聲氣之元五音之正也	-11.6844
滑	-11.6844
鐘無射編鐘仲吕	-11.6844
五分九釐四毫	-11.6844
磬無射編磬仲吕	-11.6844
林鐘簫林鐘簫	-11.6844
篴仲吕篴夷則簫夾鐘簫無射簫仲吕簫	-11.6844
工五凡工	-11.6844
有凶豐地有肥瘠種有長短	-11.6844
鷄	-11.6844
夷則篴夾鐘	-11.6844
夷則編磬夾鐘	-11.6844
十五毫九十	-11.6845
四十三則釐法也九其二百四十三得二	-11.6845
大無夷仲夾大無夷仲夾大無	-11.6845
璣	-11.6845
淇	-11.6845
凡尺上一	-11.6845
奏順和	-11.6845
操弄	-11.6845
究竟	-11.6845
八風從律而不姦	-11.6845
南吕長五寸三分寸之一	-11.6845
婆娑	-11.6845
引舞持帗者左班一人云第	-11.6845
憂以天下	-11.6845
無射塤仲吕	-11.6845
笙夾鐘笙無射笙仲吕笙夷則塤夾鐘	-11.6845
狗	-11.6845
聾	-11.6845
㽔賔笙㽔賔笙	-11.6845
應鍾上生蕤賔	-11.6845
揀	-11.6845
量定不徒然正以時有水旱之差地有肥	-11.6845
天地自然之妙	-11.6846
在齊聞韶	-11.6846
擊筑	-11.6846
叔之離磬	-11.6846
獄	-11.6846
耗	-11.6846
太簇瑟太簇	-11.6846
瘠之異取黍大小未必得中	-11.6846
篴大吕篴姑洗簫應鐘簫	-11.6846
侑食	-11.6846
角又九分角之一而餘八分得	-11.6846
律吕本原	-11.6846
内黙具律寸分釐毫絲之法而又於此律	-11.6846
姑洗編鐘應鐘編鐘	-11.6846
為黄鍾置黄鍾半律	-11.6846
無夷蕤夾大無夷蕤夾大無夷	-11.6846
吞	-11.6846
天球在東序	-11.6846
莽歆	-11.6846
之所由起也	-11.6846
九之法分之則有終不可得而齊者	-11.6846
九微八纎	-11.6846
入門而金作	-11.6846
感物而動	-11.6846
瞽矇眡瞭	-11.6846
十一萬六千五百	-11.6846
琴太簇篴南吕簫南吕簫太簇簫太簇簫	-11.6847
欽定四庫全書律吕闡㣲卷	-11.6847
跗	-11.6847
如賔禮	-11.6847
笛五指聲應	-11.6847
篴林鐘篴太簇篴南吕篴	-11.6847
編磬大吕編磬姑洗笙應鐘笙	-11.6847
編鐘大吕編鐘姑洗編磬應鐘編磬	-11.6847
攢	-11.6847
三分二釐四毫二絲	-11.6847
不盈寸者十之所得為分	-11.6847
禮以地制	-11.6847
溫	-11.6847
緝	-11.6847
漁	-11.6847
沈約宋志	-11.6847
三百篇皆可	-11.6847
韓詩外傳	-11.6847
黄鐘之龠	-11.6847
參互	-11.6847
瞽瞍	-11.6847
酧	-11.6847
鼓瑟吹笙	-11.6847
儀禮鄉飲酒禮	-11.6847
空圍中廣九分	-11.6847
入月其氣即應或至中下旬間氣始應	-11.6847
梅	-11.6847
啞鐘	-11.6847
垣	-11.6847
愽	-11.6847
臣逸臣瑗謹詳周禮	-11.6847
餘數又以釐法二百四十三除之得	-11.6847
蔡邕銅龠銘曰	-11.6848
以八十一億乗之折半退位為實	-11.6848
八百二十為夾鐘之	-11.6848
姑洗生應鐘	-11.6848
浹	-11.6848
現	-11.6848
七忽一微一纎	-11.6848
不知奚據而云	-11.6848
正舞位	-11.6848
然後凖之凖之然後量之	-11.6848
庠序	-11.6848
斑	-11.6848
敘	-11.6848
有聲無辭	-11.6848
稽之度數	-11.6848
鐘夾鐘歌鐘	-11.6848
答臘	-11.6848
爪	-11.6849
姜氏	-11.6849
揺	-11.6849
磬夷則笙夾鐘笙無射笙仲吕笙夷則	-11.6849
下管鼗鼓	-11.6849
大扺	-11.6849
祀青帝	-11.6849
以三為一絲則得絲者	-11.6849
姑洗歌鐘應鐘歌鐘㽔	-11.6849
一萬六千三百八十四	-11.6849
天子將出	-11.6849
磬夾鐘歌	-11.6849
邀	-11.6849
歌磬大吕歌磬姑洗笙應鐘笙㽔	-11.6849
琴大吕琴姑洗簫應鐘簫㽔	-11.6849
鐘仲吕歌鐘	-11.6849
新法置黄鍾之率十億	-11.6849
攙	-11.6849
屑	-11.6849
二尺二寸五分	-11.6849
天下大定	-11.6849
以二十七為一毫則得毫者	-11.6849
公庭萬舞	-11.6849
從其方位加律其上以葭莩灰抑其内端	-11.6849
瑟大吕瑟姑洗琴應鐘琴㽔	-11.6849
白次之黄白之氣竭青白次之青白之氣	-11.6849
笙大吕笙姑洗瑟應鐘瑟㽔	-11.6849
警衆	-11.6849
雷霆	-11.6849
夾鐘歌磬夾鐘編磬夷則歌磬夷則編磬	-11.685
笙仲吕笙無射笙無射笙仲吕瑟仲吕	-11.685
鐘笙夾鐘笙夷則笙夷則笙夾鐘瑟夾鐘	-11.685
夷則歌舞夾鐘歌	-11.685
鼔役事	-11.685
琴仲吕琴夷則簫夾鐘簫無射簫仲吕簫	-11.685
簨	-11.685
仲吕歌鐘仲吕編鐘無射歌鐘無射編	-11.685
夷則之數五十一主七月上生夾	-11.685
夷則歌鐘夷則編鐘	-11.685
箇一千二百九十六為南吕之	-11.685
鐘夾鐘編鐘	-11.685
律吕闡㣲卷	-11.685
豳雅豳頌	-11.685
百獸	-11.685
載道而與之俱	-11.685
牧野	-11.685
二王之後	-11.685
粉	-11.685
亦何異此	-11.685
赫赫	-11.685
琴夷則篴夾鐘簫夾鐘簫夷則簫夷則簫	-11.685
琴無射篴仲吕簫仲吕簫無射簫無射簫	-11.685
真偽	-11.685
離騷	-11.685
禱	-11.6851
髙絙	-11.6851
佳黍	-11.6851
竇儼	-11.6851
黄鍾寸分釐毫絲之	-11.6851
故其詩曰	-11.6851
殘缺	-11.6851
澹	-11.6851
百五十釐	-11.6851
法置仲吕之率	-11.6851
為實以釐法二百四十三除之得	-11.6851
一尺一寸二分二釐四毫	-11.6851
無可取	-11.6851
嗄	-11.6851
曜	-11.6851
以起調畢曲為諸聲之綱	-11.6851
黍稷	-11.6852
幡	-11.6852
箇一千七百二十八為姑洗之	-11.6852
毎寸十分	-11.6852
迎牲	-11.6852
煙	-11.6852
增損	-11.6852
望臬五曰銅斛六曰古錢七曰建武	-11.6852
古人遺法	-11.6852
大司成	-11.6852
能之乎	-11.6853
凡為樂器	-11.6853
鐘為角太簇為徴姑洗為羽	-11.6853
利貞	-11.6853
紗	-11.6853
試騐	-11.6853
幕	-11.6853
之類舉矣	-11.6853
金元曲子	-11.6854
六尺為步	-11.6854
傾盃	-11.6854
尺長四分半所校古法有七	-11.6854
三千八百四十	-11.6854
立體為用	-11.6854
注疏	-11.6854
竭青氣次之然後可鑄	-11.6854
昊天	-11.6854
共為一終	-11.6855
貍	-11.6855
夀星	-11.6855
知聲而不知音	-11.6855
鼓人掌教六鼓四金之音聲以節聲樂	-11.6855
幢	-11.6855
三十六虡	-11.6855
領調字	-11.6855
之氣竭	-11.6855
孝皇帝室曰大	-11.6855
徴清為一調	-11.6855
陪臣	-11.6856
蹻	-11.6856
倡優	-11.6856
隠公	-11.6856
武徳之舞	-11.6857
奏九徳之歌	-11.6857
探本	-11.6857
明朱載堉撰律吕精義外篇	-11.6857
壎篪	-11.6858
褾	-11.6858
退一位	-11.6858
熊氏	-11.6858
捲	-11.6858
韓氏	-11.6858
立方積	-11.6859
嗇	-11.6859
應鐘生㽔賔	-11.6859
俗呼中管仙吕	-11.6859
鏄鐘	-11.6859
滕	-11.6859
按十徽定之實音為	-11.686
行而樂之	-11.686
乘輿	-11.686
牛鐸	-11.686
掆	-11.6861
羽無清聲	-11.6861
載芟	-11.6861
泮水	-11.6861
其序如此	-11.6861
夾鍾七寸四分三釐七毫三絲	-11.6861
禄山	-11.6862
注宫商	-11.6862
鐘磬二八	-11.6862
染	-11.6862
二千四十八	-11.6862
側垂	-11.6863
律歴志	-11.6863
此節言	-11.6863
曰此是降神之樂如黄	-11.6863
榖梁	-11.6863
揭	-11.6864
其四字放	-11.6864
容九方分	-11.6864
五絃七絃	-11.6864
紀綱	-11.6864
乘所得	-11.6864
不知而作	-11.6865
頌磬在西	-11.6865
一字一聲	-11.6865
曼聲	-11.6866
進賢冠	-11.6866
再乗	-11.6866
衣冠	-11.6867
恊律郎	-11.6867
變態	-11.6867
仲呂之率	-11.6867
四開以合九九	-11.6867
架二十四	-11.6868
旋宮之法	-11.6868
俗呼中吕宫	-11.6869
於是一絃	-11.6869
林鐘上生太簇	-11.6869
師延	-11.687
底簫	-11.687
黄鍾長十寸	-11.687
挎越	-11.687
以為樂節	-11.6871
劒器	-11.6872
九四八	-11.6872
籥篴	-11.6873
皆歸於	-11.6873
奏縵樂	-11.6873
變聲清聲	-11.6873
籥翟	-11.6874
袪	-11.6874
宋徽宗	-11.6874
既醉	-11.6875
暗合	-11.6875
寗	-11.6877
廵狩	-11.6877
西海	-11.6877
奏貍首	-11.6877
徹食	-11.6879
粗細	-11.6879
幸甚	-11.6879
魁	-11.688
第十一弦	-11.688
穆公	-11.6881
庶士	-11.6881
衡門	-11.6881
講武	-11.6882
張敔	-11.6883
同聲相應	-11.6883
八毫九絲六忽四微一纎	-11.6883
様制	-11.6883
因循	-11.6884
大輅	-11.6885
順逆	-11.6885
約率	-11.6885
複出	-11.6885
學記曰	-11.6886
天地之别	-11.6886
不可曉	-11.6887
賞諸侯	-11.6888
趙氏	-11.6888
説者以為	-11.6888
匕	-11.6889
皇華	-11.689
原只	-11.6891
象箾	-11.6892
奉詔	-11.6892
土示	-11.6893
指示	-11.6893
半周半徑相乗得	-11.6893
子游	-11.6893
六絲二忽	-11.6895
考驗	-11.6897
更増	-11.6899
甚精	-11.6901
所産	-11.6902
西域言	-11.6903
有取焉	-11.6903
燕享	-11.6903
旋宫之理	-11.6904
麗乎	-11.6906
能與於此	-11.6906
顧命	-11.6909
比較	-11.6909
導之以	-11.6911
愚見	-11.6912
千已上開	-11.6912
兩京	-11.6912
舊式	-11.6913
升殿	-11.6913
隋唐間	-11.6914
四十釐	-11.6914
明庶	-11.6914
賤工	-11.6915
長六寸六分	-11.6915
城侯	-11.6915
韓子	-11.6916
不肯	-11.6918
每嵗	-11.6919
三代之制	-11.6919
一十釐	-11.6919
五字調	-11.6921
廣陵	-11.6921
寸分釐毫絲之數	-11.6922
仲吕鈞	-11.6923
編磬夷則	-11.6925
斤兩	-11.6925
稍異	-11.6928
擇取	-11.6928
幽明	-11.6928
唐以前	-11.6928
不亦失	-11.6929
祖氏	-11.6931
鄭氏以為	-11.6932
黍秤	-11.6932
卒至於	-11.6932
之遺法	-11.6932
僕人	-11.6933
致太平	-11.6933
從来	-11.6934
何以稱	-11.6935
史稱	-11.6935
長夀	-11.6936
南山有	-11.6936
和暢	-11.6937
上元舞	-11.6937
隋氏	-11.6939
律管長短	-11.6939
師摯	-11.694
仲冬之	-11.694
之以十億	-11.6942
武舞之器	-11.6945
州縣	-11.6945
服色	-11.6946
箇一千一百五十二為應鐘之	-11.6948
所由來	-11.695
惟用其	-11.6951
因以名	-11.6954
所不及而	-11.6959
則應於	-11.6966
寸口	-11.6966
仲吕之羽	-11.6972
為實五億乗之六億六千七百四十一萬	-11.6972
有司奏	-11.6972
出納	-11.6976
考覈	-11.6977
合歡	-11.6978
清角清羽	-11.6982
隂也隂	-11.6985
黄鐘之九寸	-11.6986
刌節	-11.6988
耕藉	-11.6991
之半謂之	-11.6997
八三二	-11.7004
之常也	-11.7007
其終也	-11.7014
分八釐六毫	-11.7016
禮記明堂位	-11.702
七欽定四庫全書樂書卷	-11.7022
以舞為	-11.7041
青陽	-11.7042
箇一千四百五十八為林鐘之	-11.7042
立體之聲	-11.7048
升歌清廟下管象	-11.7051
不暇	-11.7052
五音之變	-11.7054
竒零	-11.7067
辨見	-11.7068
公羊傳	-11.7069
鎛鐘南吕特磬	-11.7072
㑹稽季	-11.7076
五六一二	-11.7081
考訂	-11.7083
何難	-11.7088
每一律	-11.709
朝饗	-11.7091
漢以後	-11.7094
一合凡工	-11.7117
近似	-11.7119
旋宫之義	-11.7121
覩矣	-11.7139
所異者	-11.7168
為宫則黄鍾為	-11.7169
曽子	-11.7175
隔二律	-11.7182
尺七寸五分	-11.7192
古者造	-11.7193
之有乎	-11.7198
若樂六變則天神皆降可得而禮矣凡樂	-11.7199
參考	-11.72
鍾長四寸二分	-11.7219
釐三毫三絲	-11.7244
共得二十八寸	-11.7248
象八卦	-11.725
搊箏	-11.7276
大予樂官	-11.7315
長短大小	-11.734
商吹合字按十	-11.7348
南林仲太	-11.7351
法置林鍾之率六億六千七百四十一萬	-11.7354
與此同	-11.7359
黄鍾為始	-11.7373
一與六	-11.7373
所及也	-11.7391
不妨	-11.74
勾一四合	-11.7425
二百寸	-11.7432
一寸四分四釐	-11.7433
各得其	-11.7436
十為法	-11.7443
一合尺工	-11.7446
九寸四分三釐八毫七絲四忽三微一纎	-11.7476
變律之説	-11.7493
或問周禮	-11.75
是圍十分三釐八毫徑三分四釐六毫也	-11.7509
形製	-11.7512
欽定四庫全書樂書卷一百三十	-11.7514
敎國子	-11.752
七寸四分九釐	-11.754
六分八釐	-11.7571
下生者倍其實得	-11.7586
六分一釐二毫	-11.7592
六百九十	-11.7612
三分去一之次故用子聲為羽	-11.7628
九千六百	-11.7633
書曰詩言志歌永言聲依永律和聲	-11.7649
陸費墀	-11.7679
一凡工尺	-11.7686
臥	-11.7691
九十四除之得一尺	-11.7701
七欽定四庫全書樂書卷一百	-11.7751
七分二釐	-11.7754
而信之	-11.7784
林太南姑應㽔大	-11.7816
漢前後志	-11.7826
倣古	-11.7836
羃百六十二寸深尺積一千六百二十寸	-11.7878
兩兩相	-11.789
實以寸法一萬九千六百八十三除之得	-11.7928
管長尺六孔為十二月音	-11.7932
樂律全書	-11.7936
三欽定四庫全書樂書卷	-11.7945
八除四十	-11.8016
箏筑	-11.802
而制之	-11.8043
姑應㽔大夷夾無	-11.8069
聲為律	-11.8136
薦脯醢	-11.8139
冬日至	-11.8154
聲最濁	-11.8167
無仲黄林太南	-11.8242
法置太蔟之率	-11.8251
夷則生夾鐘	-11.828
五寸三分三釐	-11.829
變則地示皆出可得而禮矣凡樂黄	-11.8299
性術之變盡於此矣	-11.8314
無仲黄林太南姑應㽔大夷	-11.832
以序出入舞者	-11.8335
漢京房	-11.8342
又九因至分位住	-11.8346
形諸動静	-11.836
摯	-11.8366
宫俗呼為正宫	-11.8371
○○○○○○○○	-11.8374
鵻	-11.8378
南蕤姑林	-11.8389
唐開元	-11.839
諷	-11.8391
君臣上下	-11.8399
箇二千一百八十七為黄鐘之	-11.84
恐其亂	-11.8413
追蠡	-11.8429
金聲而玉振之	-11.8433
為商之次故用子聲為角	-11.8433
霓	-11.8435
度之盡律	-11.8452
為孔則得	-11.8455
春誦夏弦大師詔之瞽宗	-11.8457
聲依永律和聲	-11.8459
汧	-11.8462
鞚	-11.8464
衮冕	-11.8464
稼穡	-11.8465
衎	-11.8466
疉	-11.8467
鑾	-11.8468
於實第五位	-11.8469
一字一彈	-11.8469
仲吕羽仲	-11.8472
三分一釐	-11.8473
俗呼濁亞	-11.8474
暵	-11.8475
漢前志	-11.8475
涕	-11.8476
俗呼亞	-11.8477
於第六位除實	-11.8477
笙師掌教龡	-11.8477
通卦驗	-11.8478
樂律表微	-11.8479
六六七四一九九二七	-11.8479
左延年	-11.848
粗以厲	-11.848
冕而總干	-11.848
於實第六位	-11.848
洋	-11.8481
節民心	-11.8481
寳龜	-11.8481
變徴又九分角之一而餘六分得	-11.8481
萋	-11.8481
脆	-11.8481
毫奇舊在	-11.8482
槁	-11.8482
芟	-11.8482
夲	-11.8482
株	-11.8483
押	-11.8484
無服之䘮	-11.8484
無體之禮	-11.8484
鶉	-11.8485
轅	-11.8485
木代匏	-11.8485
從下而上	-11.8486
昊	-11.8486
渤	-11.8486
盡即接所	-11.8486
順數隔八	-11.8486
佛	-11.8487
戮	-11.8487
闇	-11.8487
主以樂教	-11.8487
指三節為	-11.8487
盎	-11.8487
淚	-11.8487
陌	-11.8487
逆數隔六	-11.8487
崖	-11.8487
碎	-11.8487
億四千三百八十七萬四千三百一十二	-11.8487
夔教胄子	-11.8488
慈愛	-11.8488
提要欽定四庫全書經部九	-11.8488
樂律表微卷	-11.8488
六一五五一二	-11.8489
鳬	-11.8489
彝	-11.8489
殷人尚聲	-11.8489
而五聲始	-11.8489
那祀成湯	-11.8489
簾	-11.8489
櫓	-11.8489
為之長其神則為	-11.8489
教羽舞帥而舞四方之祭祀	-11.8489
馮定	-11.849
感於物而動故形於聲	-11.849
清明象天	-11.849
床	-11.849
奏黄鐘歌大吕	-11.849
輸	-11.849
之子上生	-11.849
律吕性情自然之變	-11.849
祭司寒	-11.849
聖經言樂	-11.849
蕤賔生大吕	-11.849
梵	-11.8491
所共曉	-11.8491
正應和同	-11.8491
筮	-11.8491
鳳翼	-11.8491
音制度第十	-11.8491
徃而不返	-11.8491
長孫紹逺	-11.8491
五郊迎氣	-11.8491
嘽緩	-11.8492
黏	-11.8492
三五五七五	-11.8492
勾芒	-11.8492
今之樂由古之樂	-11.8492
凡為樂器以十有二律為之數度	-11.8492
謗	-11.8492
大呂下生夷	-11.8492
吹曰舍少	-11.8492
聲應相保	-11.8492
九徽八徽之間	-11.8492
卧箜篌	-11.8492
陽下生隂隂上生陽	-11.8492
篍	-11.8493
觥	-11.8493
統于陽	-11.8493
於實第四位	-11.8493
劃	-11.8493
塨	-11.8493
梳	-11.8493
霞	-11.8493
䜿	-11.8493
劉曜渾天儀土圭尺	-11.8493
彛	-11.8493
禰	-11.8493
南吕無射應鐘	-11.8493
鬼神示	-11.8494
咽	-11.8494
廹	-11.8494
三九六八五	-11.8494
於實第三位	-11.8494
太姑蕤夷南應大	-11.8494
奏無射歌夾鍾舞大武以享先祖	-11.8494
邈	-11.8494
挽	-11.8494
恍惚	-11.8494
唐樂圖所𫝊	-11.8494
異音而同	-11.8494
俞	-11.8494
懲	-11.8494
權衡之輕重	-11.8494
興道諷誦言語	-11.8495
亂世之音	-11.8495
芼	-11.8495
肱	-11.8495
冀	-11.8495
丘歌南山有臺笙由儀	-11.8495
三變而致鱗物及丘陵之示	-11.8495
亦名廉法	-11.8495
隋開皇中	-11.8495
羽徵角商宫	-11.8495
為宫調聲字	-11.8495
督	-11.8495
臣愚竊謂	-11.8495
諾	-11.8495
好樂無荒	-11.8496
軟	-11.8496
鑑	-11.8496
分寸之萬二千九百七十四	-11.8496
一四一四二一三五六二三	-11.8496
孔子閒居	-11.8496
其致一也	-11.8496
寸以益上下	-11.8496
禮失求諸野	-11.8496
欘	-11.8496
君子於是語於是道古	-11.8496
一三三四八三九八五四一	-11.8496
有活法	-11.8497
針	-11.8497
儀禮大射鼗倚于頌磬西紘	-11.8497
蝕	-11.8497
牌	-11.8497
莫大焉	-11.8497
倕	-11.8497
糧	-11.8497
之母也故與	-11.8497
替	-11.8497
惲	-11.8497
簋	-11.8497
天五地六	-11.8497
邢雲路	-11.8497
其辰合鶉	-11.8497
荼	-11.8498
曳	-11.8498
者淮南所謂	-11.8498
此大武之第	-11.8498
而致毛物及墳衍之示五變而致介物及	-11.8498
少宮少商	-11.8498
倍律自乗所得即是	-11.8498
倍律自乗所得折半即是	-11.8498
林鐘起宮林鐘之	-11.8498
四徽至	-11.8498
墳衍	-11.8498
中央之律即	-11.8498
同民心出治道	-11.8498
塜	-11.8498
林夷南無應	-11.8498
太簇歌磬太簇編磬	-11.8499
遞上遞下	-11.8499
冶	-11.8499
前人所未發	-11.8499
太蔟夾鍾姑洗中呂蕤賔	-11.8499
寧府五聲歌訣	-11.8499
沈氏筆談	-11.8499
皮弁素積禓而舞大夏	-11.8499
王大明緜	-11.8499
右商之宮太蔟之	-11.8499
天尊地卑	-11.8499
祓	-11.8499
林鍾夷則南吕無射應鍾	-11.8499
不相通而律竟不成唐因聲制樂雖近	-11.8499
亦非是本朝承襲皆不能覺獨胡安定以	-11.8499
右角之宮夾鍾之宮一清右角之	-11.8499
清右商之商太蔟之商	-11.8499
清右變宮之徴大呂之徴	-11.8499
清變宮音右變宮之宮大呂之	-11.8499
舂牘應雅	-11.8499
鄧	-11.8499
渝	-11.8499
一七八一七九七四三六二	-11.85
喟	-11.85
雍熈	-11.85
無筭爵	-11.85
上黨秬黍	-11.85
竽與笙	-11.85
儆	-11.85
商夾鍾之商	-11.85
圍之謬其後韋昭之徒遂皆有徑三分之	-11.85
徴黄鍾之徴	-11.85
清右徴之徴姑洗之徴	-11.85
清右變宮之角大呂之角	-11.85
鎭	-11.85
孳	-11.85
四四五四四九三五九	-11.85
剖析	-11.85
姑洗起調姑洗畢曲	-11.85
則其數有所不	-11.85
一絃尚徵	-11.85
右徴之宮姑洗之	-11.85
圗宮音	-11.85
清右商之角太蔟之角	-11.85
清右角之角夾鍾之角	-11.85
移風易俗天下皆寧	-11.85
合焉凡此宫之旋而在	-11.85
趙子敬	-11.85
匾	-11.85
江河	-11.85
變徴與羽	-11.85
根數為六律	-11.85
每音中之調	-11.85
正律之實積半之即	-11.85
正律面幂進一位即	-11.85
蕩蕩	-11.85
詹卿以	-11.85
陽生於子至午而盡到未又生出一黄鍾	-11.85
清右商之徴太蔟之徴	-11.85
清右宮之角黄鍾之角	-11.85
直而温寛而栗剛而無虐簡而無傲	-11.85
陽六清之首	-11.85
非人力	-11.85
圓周四十容方九	-11.8501
以中聲為本	-11.8501
右羽之宮蕤賔之宮一清右羽之	-11.8501
清右角之徴夾鍾之徴	-11.8501
著律吕元聲	-11.8501
九十二釐七百五十一毫	-11.8501
祀先賢	-11.8501
宋仁宗	-11.8501
廞其樂器	-11.8501
霸	-11.8501
無毫釐之差	-11.8501
五聲歌訣	-11.8501
干戚羽旄	-11.8501
恰用六律而宮之	-11.8501
榦	-11.8501
清右變徴之徴中呂之徴	-11.8501
渺	-11.8501
盟	-11.8501
餘律皆放此	-11.8501
大夾中夷無五	-11.8502
摰	-11.8502
緻	-11.8502
林南應大太姑蕤	-11.8502
上字在器色	-11.8502
清右變徴之角中呂之角	-11.8502
潜	-11.8502
和邦國諧萬民	-11.8502
次吹四字	-11.8502
歌永言聲依永	-11.8502
陽唱宫	-11.8502
音則相嬗而為	-11.8502
黄鍾大呂太簇夾鍾	-11.8502
一八九二	-11.8502
綺	-11.8502
蜡百神	-11.8502
之數生若欲由	-11.8502
不拘某	-11.8502
形於言	-11.8502
七調中六律	-11.8502
商蕤賔之商	-11.8502
昭容樂	-11.8502
淮南不過以數之多寡為生之上下律吕	-11.8502
皇帝奏大	-11.8502
錙銖	-11.8502
鬻	-11.8502
箛	-11.8502
陽和徴	-11.8502
十三黍又三分黍之一	-11.8502
杪	-11.8503
在徵後	-11.8503
以降天神	-11.8503
九分之寸	-11.8503
賔林鍾六律遞上遞下	-11.8503
禮之初始諸飲食	-11.8503
金石絲竹樂之器也	-11.8503
黄氏樂典以	-11.8503
路鼓路鼗	-11.8503
遒	-11.8503
夷蕤夾大	-11.8503
秦箏	-11.8503
嬰	-11.8503
孔頴逹	-11.8503
音中之音	-11.8503
删	-11.8503
劉歆銅斛尺	-11.8503
始升則陽雖	-11.8503
清右羽之角蕤賔之角	-11.8503
除之亦得夾鍾是為	-11.8503
皇地祇	-11.8503
禮記郊特牲	-11.8504
疫	-11.8504
以六律層	-11.8504
宮音由本音而	-11.8504
索隠	-11.8504
右羽之徴蕤賔之徴	-11.8504
醉而出奏	-11.8504
寸之尺起度則	-11.8504
訥	-11.8504
觴	-11.8504
大呂夾鍾仲呂	-11.8504
醼	-11.8504
懾	-11.8504
瓢	-11.8504
順先王詩書禮樂以造士	-11.8504
三分六釐三毫二分五釐	-11.8504
升降之氣	-11.8504
容千二百黍積八百一十分	-11.8504
府二人史二人胥二人徒二十人	-11.8504
敎胄子	-11.8504
音中黄鍾之宫	-11.8504
次吹尺字	-11.8504
無射之數四十五主九月上生仲吕	-11.8504
也舊説以為	-11.8504
鄙俚	-11.8504
閟二變者	-11.8504
除之亦得太蔟是為	-11.8504
不入牲	-11.8504
九寸四分三釐八毫七絲四忽	-11.8504
之聲皆不當位反不如和峴舊樂之	-11.8505
摠	-11.8505
諺	-11.8505
只能為	-11.8505
于鼓鉦舞	-11.8505
貧	-11.8505
設業設虡崇牙樹羽	-11.8505
十四雜尺	-11.8505
四十九又參之於亥得	-11.8505
左氏所謂七音	-11.8505
是謂律娶妻	-11.8505
犧尊	-11.8505
陷	-11.8505
五毫四絲三忽	-11.8505
徽定之實音為仲吕散聲即黄鍾二弦	-11.8505
九分者方分也以破徑三分之法	-11.8505
推厯生律	-11.8505
韶濩	-11.8505
分八百九十	-11.8505
置我鞉鼓	-11.8505
舞咸池以祭地示	-11.8505
其方則西	-11.8505
祖考來格	-11.8505
三分二釐四毫	-11.8505
於申得六千五百六十一又參之於酉得	-11.8506
三尺一寸五分	-11.8506
慙	-11.8506
禦	-11.8506
上瞽四十人中瞽百人下瞽百有六十人	-11.8506
柞	-11.8506
宋陳𤾉撰論語訓義	-11.8506
樂正崇四術立四教	-11.8506
白露	-11.8506
除之亦得大吕是為	-11.8506
之夫也故與	-11.8506
或置應鍾為實以	-11.8506
箇一千九百四十四為太簇之	-11.8506
一徽定之實音為黄鍾散聲即夷則六弦	-11.8506
葆	-11.8506
萬分忽之五千六百四十五	-11.8506
五散五十徽	-11.8506
十徽九徽之間	-11.8506
可用為儀	-11.8506
祿	-11.8506
二十五弦盡用之	-11.8506
形而上者謂之道形而下者謂之器	-11.8506
翅	-11.8506
者皆以十二律為循環相生不知	-11.8506
贍	-11.8506
一寸一分一釐一毫一絲一忽一微一纎	-11.8506
之率為主求	-11.8506
以貍首為節	-11.8506
度律均鐘	-11.8506
神室奏	-11.8506
鑼	-11.8506
舜命夔	-11.8507
倭國	-11.8507
羊頭山黍	-11.8507
大數立焉	-11.8507
法度彰禮樂著	-11.8507
緦	-11.8507
令奏鐘鼓	-11.8507
師中士四人下士八人	-11.8507
煌	-11.8507
考工記㮚氏為量	-11.8507
譌	-11.8507
除之亦得姑洗是為	-11.8507
除之亦得應鍾是為	-11.8507
除之亦得黄鍾是為	-11.8507
非武音	-11.8507
乖戾	-11.8507
以是生黄鍾小素之首以成宫	-11.8507
太簇笙太簇笙	-11.8507
禓	-11.8507
而得此數	-11.8507
由黄鍾以至	-11.8507
六七八六	-11.8507
卑者之子不得舞宗廟之酎	-11.8507
風雨暴露改	-11.8507
一千六百龠	-11.8507
倡和清濁迭相為經	-11.8507
四寸九分九釐	-11.8507
或置南吕為實以	-11.8507
或置夾鍾為實以	-11.8507
或置姑洗為實以	-11.8507
或置林鍾為實以	-11.8507
漢魏以來	-11.8507
祭祀舞者既陳則授舞器既舞則受之	-11.8507
蔡元定律吕新書	-11.8507
配合為説耳未可以為	-11.8507
倍律之實積倍之即	-11.8507
倍律面幂進一位即	-11.8507
十九釐八十	-11.8507
府庫	-11.8507
正律内徑半律外徑	-11.8507
為聲氣之元其管最長故以黄	-11.8507
儻	-11.8507
合樂三終	-11.8508
僭用天子	-11.8508
土鼓龡豳詩以逆暑中秋夜迎寒亦如之	-11.8508
齊桓公	-11.8508
毛西河	-11.8508
漢高帝	-11.8508
皦如	-11.8508
笙入三成	-11.8508
箹	-11.8508
一釐四毫一絲六忽	-11.8508
特縣之磬	-11.8508
乃徵調之	-11.8508
或置太蔟為實以	-11.8508
田畯國祭蜡則龡豳頌擊土鼓以息老物	-11.8508
與人對語即指天曰孟春之氣至矣人	-11.8508
角徵之間	-11.8508
之所取正也	-11.8508
凡六樂皆文之以五聲播之以八音	-11.8508
徴之變宮	-11.8508
易曰同聲相應	-11.8508
末以相及中聲以降五降之後不容彈矣	-11.8508
楚茨	-11.8508
除之亦得仲吕是為	-11.8508
除之亦得林鍾是為	-11.8508
爾雅釋	-11.8508
五聲次第自是不足何者黄	-11.8508
錢樂之渾天儀尺後周	-11.8508
飜	-11.8508
冦	-11.8508
墻	-11.8508
通乎鬼神	-11.8508
稅	-11.8508
謂之旋旋蟲謂之幹	-11.8508
延夀	-11.8508
五聲六律十二管旋相為宫	-11.8508
顆	-11.8508
世本云	-11.8508
以三參物三三如九故黄	-11.8508
半徽一弦大吕為	-11.8508
告飽	-11.8508
成既終是名	-11.8508
皆以三乘	-11.8508
二分四釐二毫	-11.8509
一寸二分一釐一毫六絲七忽五微二纎	-11.8509
君子為能知樂	-11.8509
橫	-11.8509
無射長五寸	-11.8509
區區	-11.8509
七寸四分三釐	-11.8509
乗之滿千毫為釐	-11.8509
二分六釐四毫	-11.8509
四百九十九	-11.8509
寸上生者四因得	-11.8509
徳利用厚生	-11.8509
羣吏	-11.8509
除之亦得夷則是為	-11.8509
塤黃鐘瑟黃鐘箎	-11.8509
時惟此適與度量合故可用今時則不同	-11.8509
七九三七	-11.8509
珪	-11.8509
凡律空圍九分	-11.8509
籌	-11.8509
此六舞第	-11.8509
非秬黍之比也秬黍積	-11.8509
上生者四其法得	-11.8509
倍律内徑正律外徑	-11.8509
重時秤	-11.8509
黃鐘琴黃鐘篴	-11.8509
鎛鐘黃鐘特磬	-11.851
宫調曲也	-11.851
宮與商	-11.851
千金方	-11.851
漢魏而下	-11.851
牧歌等操	-11.851
三分七釐四毫	-11.851
不拘隔八相生	-11.851
實之以糠	-11.851
已上十二條名宫	-11.851
笙中之簧	-11.851
簫笛色譜	-11.851
除之亦得㽔賔是為	-11.851
除之亦得南吕是為	-11.851
㽔賔琴㽔賔篴	-11.851
宮一清右變	-11.851
欽定四庫全書鐘律通考卷	-11.851
特未定也	-11.851
謂之三事六府三事謂之九功九功之	-11.851
填	-11.851
黄鐘大吕太簇夾鐘	-11.851
塤姑洗瑟姑洗箎	-11.851
元熊朋來撰	-11.851
何以知其音之	-11.851
射人以射法治射儀王	-11.851
所生之律	-11.851
巡守	-11.851
籥章掌土鼓豳籥	-11.851
緐	-11.851
㓗	-11.851
之上有小	-11.851
倍律之實積	-11.851
圅鍾	-11.851
國語伶州鳩曰律所以立均出度也	-11.851
建徳六年	-11.851
或置黄鍾為實以	-11.851
水火金木土穀	-11.851
河右先生曰	-11.851
用吟之位	-11.851
第一弦為黄鍾	-11.851
近古矣然	-11.851
狼	-11.851
五分九釐四毫六絲	-11.851
黄鐘三分損一下生林鐘	-11.851
世之前之律者其亦求之於聲氣之元而	-11.851
此其大凡也今欲求聲氣之中而莫適	-11.851
䧟	-11.8511
伯氏吹壎仲氏吹篪	-11.8511
侍坐於	-11.8511
夫律長則聲濁而氣先至極	-11.8511
荷蕢	-11.8511
道五常之行	-11.8511
顔回	-11.8511
二律名為宫	-11.8511
圜丘方澤	-11.8511
律當變者有六故置一而六三之	-11.8511
徴清呂	-11.8511
鐘磬之縣	-11.8511
姑洗仲吕蕤賔	-11.8511
云律九九八十一故云八寸	-11.8511
六分為雌雄故曰十二	-11.8511
蕤姑太應南蕤姑太應南蕤姑	-11.8511
聿	-11.8511
劔	-11.8511
一釐八百	-11.8511
宮音得焉	-11.8511
五百五十一	-11.8511
商清呂	-11.8511
天下無道禮樂自諸侯出	-11.8511
徑一寸二分	-11.8511
五色成文而不亂	-11.8511
分一漢書云長九寸者九分之寸也	-11.8511
吕再生别名執始轉生四十八律	-11.8511
和順積中	-11.8511
女媧之笙簧	-11.8511
空積忽微	-11.8511
地示皆出	-11.8511
吕為羽上生	-11.8511
恪	-11.8511
□􁕩□	-11.8511
生非由	-11.8511
未二千一百八十七分一千	-11.8512
兩龠也	-11.8512
特磬太簇歌舞南吕歌舞太簇歌鐘	-11.8512
京房覺其如此故	-11.8512
六千七百一十	-11.8512
夾鐘鼗仲吕鼗	-11.8512
處作一孔吹之	-11.8512
頤	-11.8512
三分四釐三毫四絲八忽八微四纎	-11.8512
一寸四分八釐三毫一絲五忽五微三纎	-11.8512
六絲一忽五微五纎	-11.8512
南吕之數四十八主八月上生姑洗	-11.8512
勃	-11.8512
宸	-11.8512
嗜音	-11.8512
胡瑗阮逸	-11.8512
白紵	-11.8512
凡和樂亦如之	-11.8512
四分度之一	-11.8512
天下有道禮樂自天子出	-11.8512
一寸二分八釐三毫七絲二忽五微二纎	-11.8512
上圓下方	-11.8512
分三十七釐	-11.8512
武始而北出	-11.8512
三梁表尺實比晉前尺一尺二分二	-11.8512
㣲三纎	-11.8512
也每一音	-11.8512
元間大吕助宣物也	-11.8512
初學難曉	-11.8512
吕氏六月紀	-11.8512
棲	-11.8512
于西階上少東樂正先升北面立于其西	-11.8512
軒轅	-11.8512
朋	-11.8513
五忽九微四纎	-11.8513
除之所得億約為寸得應鍾應鍾長	-11.8513
除之所得億約為寸得林鍾林鍾長	-11.8513
以其鉦之長為之甬長	-11.8513
坤之初六	-11.8513
爼豆	-11.8513
二變圗也	-11.8513
偃武修文	-11.8513
猜	-11.8513
進旅退旅	-11.8513
撼動	-11.8513
松絃館琴譜	-11.8513
百一十五釐	-11.8513
綵	-11.8513
取竹之解谷生其竅厚	-11.8513
大吕簫大吕簫	-11.8513
正應正和同	-11.8513
而萬物生故曰一生二二生三三生萬物	-11.8513
為實以十億	-11.8513
乗之滿千	-11.8513
元志云	-11.8513
樂師掌國學之政	-11.8513
第一弦第二弦散聲	-11.8513
音之屬總序臣謹按	-11.8513
成帝時	-11.8513
除之亦得無射是為	-11.8513
不以律和之則其聲	-11.8513
之數具于此矣	-11.8513
半律之幂右	-11.8513
四間林鍾和展百事俾莫不任肅純恪也	-11.8513
􁆳	-11.8513
一寸三分九釐九毫九絲一忽二微二纎	-11.8514
九絲三忽二微八纎	-11.8514
除之所得億約為寸得無射無射長	-11.8514
二分二釐四毫	-11.8514
十七簧	-11.8514
已上則摩其旁	-11.8514
以十有二律為之度數	-11.8514
環拜	-11.8514
臬	-11.8514
一百八十七以九分之則為二百四十三	-11.8514
以二千一百八十七為一分則得分者	-11.8514
斯則韶之	-11.8514
裁衣尺	-11.8514
貴賤之等	-11.8514
鐘鼓樂作吹豆葉黄曲終樂止舞畢復位	-11.8514
除之所得億約為寸得夾鍾夾鍾長	-11.8514
五寸二分九釐七毫三絲一忽五微四纎	-11.8514
大吕之數七十六主十二月下生夷則	-11.8514
故其宫音在第	-11.8514
極則反	-11.8514
㓕	-11.8514
宮清呂	-11.8514
上生者四其法得四寸二十分	-11.8514
二十七為一毫	-11.8514
則變黄鐘為	-11.8514
正律通長退一位即	-11.8514
以八十一億乘之	-11.8514
再加一倍乃得	-11.8514
軒轅氏	-11.8515
八尺曰尋	-11.8515
搜	-11.8515
明朱載堉撰鄉飲詩樂譜	-11.8515
林鍾長五寸七	-11.8515
零九之八	-11.8515
五曰夷則所以詠歌九則平民無貳也	-11.8515
八萬二千九百四十四為大吕半之實計	-11.8515
或差造律未妙就如撼動取滿論理亦通	-11.8515
聲極長是為	-11.8515
身形如刀	-11.8515
申六千五百六十一分四千	-11.8515
損一下生南吕	-11.8515
數之下指其大者以明凡例也一三之而	-11.8515
弦歌干揚	-11.8515
五九四	-11.8515
劇	-11.8515
棘	-11.8515
裸	-11.8515
徴音正遇	-11.8515
厯同道	-11.8515
啓中黄之少宫	-11.8515
大鐘十分其鼓間以其一為之厚	-11.8515
量者龠合升斗斛	-11.8515
六寸六分七釐四毫一絲九忽九微二纎	-11.8515
為一分則共為八十一分約以	-11.8515
除之所得億約為寸得夷則夷則長	-11.8515
非宫則失其所	-11.8515
黄鍾之管長九寸	-11.8515
就置所得為實依後項乗除之	-11.8515
坐取觶	-11.8515
萬九千六百八十三為一寸則得寸者	-11.8515
欽定四庫全書瑟譜卷	-11.8515
異器而同	-11.8516
以聲為用	-11.8516
分八千一百九十二戌五萬九千	-11.8516
始平掘地得古銅尺	-11.8516
無不皆然	-11.8516
營援	-11.8516
禮樂皆得謂之有德	-11.8516
尺也依古尺更鑄銅律	-11.8516
九萬二千	-11.8516
翰林學士	-11.8516
戒之用休	-11.8516
含黄鍾以吐幹	-11.8516
一忽三微三纎	-11.8516
七寸四分九釐一毫五絲三忽五微三纎	-11.8516
堂上堂下堂上堂下夾鐘鎛鐘	-11.8516
歌鐘大吕歌鐘姑洗歌磬應鐘歌磬㽔	-11.8516
為黄鍾置黄鍾正律	-11.8516
箇七百二十九零	-11.8516
灑	-11.8516
以雅以南以籥不僭	-11.8516
磬氏為磬倨句一矩有半	-11.8516
以七百二十九歸之為	-11.8516
弦為仲吕與第六弦散聲應按第	-11.8516
用中黍	-11.8516
言黄鍾之宫者黄鍾	-11.8516
調復縵	-11.8516
牙齒舌唇	-11.8517
試驗	-11.8517
動天地感鬼神	-11.8517
凡舞有帗舞	-11.8517
出音孔	-11.8517
文始五行之舞	-11.8517
碩	-11.8517
賔與大夫	-11.8517
面徑七寸	-11.8517
全於君	-11.8517
塤夷則瑟夷則	-11.8517
簫大吕簫應鐘拊大吕拊	-11.8517
弦為黄鍾與第一弦散聲應按第	-11.8517
楯	-11.8517
孟秋	-11.8517
逆暑	-11.8517
府一人史一人胥二人徒二十人	-11.8517
軹	-11.8517
三分去一下生	-11.8517
二調之宫音皆在第	-11.8517
品一曰姑洗玉律二曰小吕玉律三	-11.8517
姦聲亂色	-11.8517
少宫王于中央也於	-11.8517
焦殺	-11.8517
虞夏之	-11.8517
西階上北面	-11.8517
而候之氣至者灰去	-11.8517
内收十八分為二寸	-11.8518
濮	-11.8518
二間夾鍾出四隙之細也	-11.8518
咢	-11.8518
和氣應者其政平猛氣應者其	-11.8518
夾鐘拊仲吕拊	-11.8518
折半為實九億	-11.8518
無射特磬無射特磬仲吕歌舞無射歌舞	-11.8518
鎛鐘㽔賓特磬	-11.8518
百穀	-11.8518
初獻六羽	-11.8518
大夫之子	-11.8518
在其前	-11.8518
執籥秉翟	-11.8518
弗得不	-11.8518
貴妃	-11.8518
二寸一分八釐七毫一絲五忽	-11.8518
吹鐃歌	-11.8518
字髙吹即	-11.8518
箇一千五百三十六為㽔賓之	-11.8518
縱又減	-11.8518
良耜	-11.8518
工四人二瑟瑟先	-11.8518
仲吕之實十三萬一千	-11.8518
髙下廻環	-11.8519
狸	-11.8519
去吹口三分	-11.8519
三分之毎分得	-11.8519
天之大數不過十二	-11.8519
得六十四以為角	-11.8519
境内	-11.8519
靈鼗孫竹之管空桑之琴瑟咸池之舞夏	-11.8519
二分九釐七毫三絲	-11.8519
塑	-11.8519
孔叢子	-11.8519
盥	-11.8519
誓	-11.8519
迪	-11.8519
報本反始	-11.8519
駉	-11.8519
鷰	-11.8519
緹	-11.8519
逆氣應之	-11.8519
安排	-11.8519
雲鑼	-11.8519
位之下之	-11.8519
為節或以	-11.8519
立于西階東	-11.8519
論倫無患	-11.8519
邱	-11.8519
一分設柱為	-11.8519
四五間為	-11.852
曰西京銅望臬四曰金錯	-11.852
陽生隂	-11.852
函鐘為宫	-11.852
封禪	-11.852
合七十八之數	-11.852
教國子小舞	-11.852
淫樂興焉	-11.852
襠	-11.852
弦之散聲俗名	-11.852
三分益一以上生	-11.852
七微二纎	-11.852
支離	-11.852
弼	-11.852
鍾髙下㢠環而	-11.852
翩翩者鵻	-11.852
齪	-11.852
俛	-11.8521
朽	-11.8521
封泰山	-11.8521
王射以騶虞	-11.8521
祀黑帝	-11.8521
諤	-11.8521
以十為寸法故有	-11.8521
簫笛色字譜	-11.8521
糺聲	-11.8521
變可以禮	-11.8521
豈徒然哉	-11.8521
軟舞	-11.8521
大吕歌舞㽔賓歌	-11.8521
釐强數	-11.8521
總干山立	-11.8521
單穆公曰	-11.8521
許氏	-11.8521
三絲三十	-11.8521
臂	-11.8522
沐	-11.8522
每寸十分	-11.8522
吹之以為黄鐘之宫	-11.8522
柱崇二寸七分	-11.8522
京房劉歆	-11.8522
大泉五十	-11.8522
好古之士	-11.8523
㸔	-11.8523
亦一時之制也	-11.8523
姤	-11.8523
繢	-11.8523
挾	-11.8523
不曉其義	-11.8523
寸三分設柱為	-11.8523
氣成象而	-11.8523
中隔八下生	-11.8523
登堂	-11.8523
右五鐘皆應	-11.8523
大業中	-11.8523
聰聽	-11.8523
調髙一律	-11.8523
除之所得億約為寸得姑洗姑洗長	-11.8523
萬邦	-11.8523
一以為鼓博	-11.8523
天神地祗人鬼	-11.8523
中隔六上生	-11.8523
六律五聲八音	-11.8523
除吹口	-11.8523
駢	-11.8524
無與焉	-11.8524
姦聲感人而	-11.8524
漢髙帝	-11.8524
災害	-11.8524
之篇是也盖取	-11.8524
㣲一纎	-11.8525
軀	-11.8525
四釐六毫一絲六忽	-11.8525
豳風	-11.8525
志太正	-11.8525
周官大宗伯	-11.8525
其説非是	-11.8525
至位樂止	-11.8525
下管播樂器令奏鼓	-11.8525
各得其所	-11.8526
丅分	-11.8526
焦氏	-11.8527
黍堪	-11.8527
幅廣	-11.8527
字調之宫實	-11.8527
鶴鳴	-11.8528
韗	-11.8528
採蓮	-11.8528
非律生於	-11.8528
深淺	-11.8528
應鍾散聲即蕤賔五弦夷則為	-11.8528
甬衡	-11.8529
塗山	-11.8529
乃其遺法也	-11.8529
掛	-11.8529
狐	-11.8529
伯子男	-11.8529
摦	-11.8529
唐貞元中	-11.853
奏元和	-11.853
圗議	-11.853
則深於	-11.853
摧	-11.853
仆	-11.853
清隔六上生	-11.853
格式	-11.853
解見上文	-11.853
二十六年	-11.8531
以言乎	-11.8531
受酬者	-11.8531
但作黄鍾	-11.8531
朝夕	-11.8531
不可得而知	-11.8531
所由作也	-11.8531
鉢	-11.8531
昭徳之舞	-11.8531
調也其調以	-11.8531
通神明	-11.8531
銑徑	-11.8532
卯二十七	-11.8532
之故其律	-11.8532
已見前	-11.8532
郡邑	-11.8532
支派也	-11.8532
嗟歎	-11.8533
四十三忽	-11.8533
按上爲	-11.8533
親廟在東惟我子孫永	-11.8533
莫敢	-11.8533
自是四樂各舉其一者而言之	-11.8534
京師	-11.8534
坐部伎	-11.8535
槍	-11.8535
郊祀天地	-11.8535
清隔八下生	-11.8535
朞	-11.8536
習熟	-11.8536
合為十一也	-11.8536
種種	-11.8536
周禮鼓人	-11.8536
莪	-11.8537
郭氏	-11.8537
燈	-11.8538
這便是	-11.8538
著録	-11.8538
稱萬嵗	-11.8539
御坐前	-11.8539
變在㽔賔	-11.8539
除之所得億約為寸得大吕	-11.8539
為至要	-11.8539
變宮變徵	-11.8539
繁簡	-11.8539
䖍	-11.854
三百二十四	-11.854
𤣥宗	-11.854
今太常寺	-11.854
無名指	-11.854
林鐘長六寸	-11.8541
冀州	-11.8541
勤政樓	-11.8541
少卿	-11.8541
菁	-11.8541
攅	-11.8542
舉成數	-11.8542
為正宮之	-11.8542
左傳國語	-11.8543
五十三忽	-11.8543
漢章帝	-11.8543
其時則秋	-11.8543
歸根	-11.8543
之樂宫在	-11.8543
順天道	-11.8546
二十豆	-11.8547
龜山	-11.8547
不易之理	-11.8548
服冕	-11.8548
長八尺二寸	-11.8549
博厚	-11.855
釋名曰	-11.855
錦繡	-11.855
以姑洗為宫	-11.855
擲	-11.8551
古註疏	-11.8551
民之志	-11.8551
賈氏	-11.8551
八分一釐	-11.8552
師襄	-11.8553
四百四十四	-11.8554
敎坊	-11.8554
革之屬	-11.8555
冷氏	-11.8556
之遺音也	-11.8558
臋之積	-11.8559
數千年	-11.856
流涕	-11.8561
箇一千三百六十五為夷則之	-11.8561
聲樂之象	-11.8561
濁漳	-11.8562
粲然	-11.8562
律娶妻	-11.8563
宗皇帝用大	-11.8564
他律為宫	-11.8565
則亦不成	-11.8566
乙字調	-11.8569
之謬説	-11.8575
鎛鐘仲吕特磬	-11.8579
以仲春之	-11.858
六寸八十一分寸之二十六	-11.8582
字之上有	-11.8586
第九徽	-11.8587
孔去吹口	-11.8588
以配天	-11.8589
絃生第	-11.8592
太師之職	-11.8594
微四十五纎	-11.8597
角九曲一	-11.8599
環如大	-11.8603
鎛鐘應鐘特磬	-11.8605
卷一第	-11.8615
破陣舞	-11.8617
變在無射	-11.8617
呂之變宮二清右變	-11.863
謹案	-11.8635
以人聲為主	-11.8636
黄鍾長八寸七	-11.8638
林南姑	-11.8641
調調以	-11.8645
禮運曰五聲六律十二管還相	-11.8651
百黍之重為今之二錢	-11.8651
七除四十	-11.8652
欽定四庫全書樂書卷七十	-11.8656
播之以八音金石土革絲木匏竹	-11.8657
聲正是	-11.8657
各自為	-11.8658
三欽定四庫全書樂書卷一百	-11.8665
前一位	-11.8667
則樂之所	-11.867
之斯為	-11.867
鐘林鐘太簇	-11.8679
調之角聲	-11.8681
古人制作	-11.8687
茫然	-11.869
千分以七百四十九為法除之得四十	-11.8732
應姑南太林黄仲無夾	-11.8741
一定之理	-11.8759
五二四	-11.8764
宫清而	-11.877
三與八	-11.8773
人所能為	-11.878
自絲以下雖非目力之所能分然既有其	-11.8783
聲按第	-11.8784
也答第	-11.8804
吕為之合	-11.8815
百六十毫	-11.882
宋儒論	-11.8829
六凡工尺凡	-11.8838
四五二	-11.8839
或置㽔賔為實以	-11.8839
周禮春官	-11.8858
者情之	-11.8884
一寸三分六釐	-11.8895
宮音正矣遇	-11.8926
毫七百二十	-11.8972
八釐有奇	-11.8998
䟽越	-11.9
十八斤	-11.9003
籥三孔	-11.9012
見禮書	-11.9046
以示戒	-11.9072
去一分下生	-11.9102
微六纖	-11.9129
朝賀	-11.915
勾工勾尺	-11.9154
知其誤	-11.9159
二三七三	-11.916
深尺積一千六百二十寸容十斗	-11.9199
絲為一毫	-11.9271
后廟	-11.9334
音得焉	-11.9398
大夏大濩	-11.9408
蕤姑大應	-11.9424
夷蕤姑大	-11.9445
嘗讀	-11.9447
朱載堉琴譜	-11.9457
或置大吕為實以	-11.9468
柄連底	-11.9564
或置夷則為實以	-11.9566
釐有奇少	-11.9573
重二斤	-11.9608
漢大予樂	-11.968
調以宫	-11.9707
絃同聲	-11.9735
徽相對	-11.975
毫六十九絲	-11.978
之數七十二主正月下生南吕	-11.9807
二六二九	-11.9842
十其廣之分以為長	-11.9842
鎛鐘林鐘特磬	-11.9898
清廟之瑟朱絃而䟽越	-11.9919
句三股四弦五	-11.9924
一尺四寸一分四釐二毫	-11.9926
大師掌六律六同以合隂陽之聲陽聲黄	-11.9963
七寸一分四釐三毫	-12.0013
春官大司樂	-12.0098
酣	-12.0101
一百三十四	-12.0118
半律之幂折半為	-12.0118
夾鐘生無射	-12.0231
黄南林仲太黄南林仲	-12.0249
絲二十四忽	-12.0276
夾無仲黄林太南姑應㽔大夷夾無仲黄	-12.028
藉田	-12.0302
七分五釐	-12.036
又於下法之上置	-12.0378
逑	-12.0387
六黄宫	-12.0391
之實計六十四箇	-12.0399
空圍九分積八百一十分	-12.04
七萬四千三百一十二	-12.0416
為實十億乗之九億四千三百八十	-12.0416
五億二千九百七十三萬	-12.0421
十尺為丈十丈為引	-12.0426
分又九因一遍至釐位住得	-12.0432
仲吕商仲	-12.0435
諗	-12.0436
趙彦肅	-12.0438
由中出	-12.0438
羊鼎	-12.0442
里許有	-12.0443
五者皆亂迭相陵	-12.0444
酸	-12.0447
分為一分	-12.045
九億忽	-12.0452
夷則羽夷	-12.0454
䜟	-12.0456
韭	-12.046
乎其不合者	-12.046
失傳已乆何也	-12.046
徽為中界	-12.046
曼	-12.046
大吕羽大	-12.0461
韓蘇	-12.0462
三佛齊	-12.0464
第一柱下按	-12.0464
韋表穅裏	-12.0464
阼	-12.0465
夙	-12.0465
曩	-12.0465
薦上帝配祖考	-12.0468
苴	-12.0468
桃葉	-12.0468
仁心仁聞	-12.0468
沚	-12.0469
相授受	-12.0469
三分七釐六毫	-12.047
離羣羊	-12.047
澣	-12.0472
仿	-12.0472
摺	-12.0472
天神皆降	-12.0473
之管也以黃鐘九寸分為	-12.0473
樂者音之所由生	-12.0473
旺	-12.0473
無射角無	-12.0474
潦	-12.0474
虹	-12.0474
鞮鞻氏掌四夷之樂與其聲歌	-12.0474
龜兹疎勒	-12.0474
唐侃	-12.0474
調借宫調	-12.0475
叠	-12.0476
仙呂調	-12.0476
界於濁	-12.0476
肜	-12.0476
沃	-12.0477
中正之雅	-12.0478
六七八一	-12.0478
庣旁九釐五毫	-12.0478
晷	-12.0479
徵角二調	-12.0479
醒	-12.048
普	-12.048
高禖	-12.048
林太南姑應㽔大夷夾無仲黄林太南姑	-12.048
絃十徽應三絃散聲	-12.0481
宋陳𤾉撰樂圗論俗部歌	-12.0481
呼逢二進一十得一	-12.0481
連近相得之音	-12.0481
下生者倍其實	-12.0483
瑾	-12.0483
六十零七五	-12.0483
暴厲之	-12.0483
吕不韋	-12.0483
汨	-12.0483
省文也	-12.0484
呼四七除二十八	-12.0484
不是過也	-12.0485
百丨百	-12.0485
金舂玉應	-12.0485
天子所以享元侯	-12.0485
九九六三五	-12.0485
俯仰詘伸	-12.0485
仲吕反生	-12.0486
坡	-12.0486
春誦夏弦	-12.0486
孰能與此	-12.0486
蓄	-12.0486
胸	-12.0486
合同而化	-12.0486
一千五百四十七	-12.0487
夹	-12.0487
入門而縣興	-12.0487
聖諭樂本解說	-12.0487
掖庭	-12.0487
三徽六徽八徽十一徽	-12.0487
娄	-12.0487
數十乗之而為	-12.0487
五二五九	-12.0487
清清清清	-12.0488
臨事而屡斷	-12.0488
黄仲無夾夷大㽔應姑南	-12.0488
六陽辰	-12.0488
不清不濁	-12.0488
文者能述	-12.0488
株離	-12.0488
獻六羽	-12.0489
春夏秋冬	-12.0489
八九八七一八一	-12.0489
應大夹仲蕤夷無	-12.0489
揲	-12.0489
管子地員	-12.0489
誌	-12.0489
奇齡	-12.0489
兌	-12.0489
自首至尾	-12.0489
于上之攠謂之隧	-12.0489
宫為聲之始	-12.0489
治安之風也小人之音	-12.0489
明於天地然後能興禮樂	-12.0489
姑洗長七寸九分三釐七毫	-12.049
位下法空	-12.049
溯	-12.049
風雅十二詩譜	-12.049
始於宫終於角	-12.049
泄	-12.049
咮	-12.049
奏㽔賓歌函鍾	-12.049
諄	-12.049
宋陳𤾉撰樂圖論雅部舞	-12.049
蠡縣	-12.049
發諸聲音	-12.0491
白狼	-12.0491
九平方分	-12.0491
二絃倍羽	-12.0491
簟	-12.0491
鐘尚羽石尚角	-12.0492
手舞足蹈	-12.0492
樂其所自成	-12.0492
厠	-12.0492
武盡美矣未盡善也	-12.0492
踴	-12.0492
篾	-12.0492
紳	-12.0492
逺取諸物	-12.0492
儛	-12.0492
琴長三尺六寸六分	-12.0492
皇言定聲録卷	-12.0492
舜作五絃之琴以歌南風	-12.0492
五寸六分三分一	-12.0492
一字一音之為古	-12.0493
欽定四庫全書古樂經傳卷	-12.0493
三一四一五九二	-12.0493
享元侯	-12.0493
先王之制音也奏中聲	-12.0493
挂	-12.0493
百四十五釐一百	-12.0493
祀天祭地	-12.0493
瞋目	-12.0493
一百四十一寸四	-12.0493
管每長一分	-12.0493
有鐘無鎛	-12.0493
流而不息	-12.0494
饑	-12.0494
未足以為	-12.0494
樂經元義	-12.0494
在藩邸	-12.0494
禮廢樂壞	-12.0494
二寸八分五釐六毫五絲六初	-12.0494
十五等尺	-12.0494
蒙恬	-12.0494
軍大獻	-12.0494
七八五三九八	-12.0494
其興也勃焉	-12.0494
字得羽絃之分定為羽立羽位以起調	-12.0494
楙	-12.0494
􁇊	-12.0494
做	-12.0494
三十六聲而已其間陽律不用變聲而黄	-12.0495
歌咏其聲	-12.0495
趙慎言	-12.0495
右臣逸臣瑗謹按	-12.0495
瞽矇掌九徳六詩之歌以役	-12.0495
諷刺	-12.0495
背四調	-12.0495
庳	-12.0495
同民心	-12.0495
領袖	-12.0495
百丄千	-12.0495
􁕍	-12.0495
反情以和	-12.0495
禮减而進以進為文	-12.0495
翳	-12.0495
教皇舞帥而舞旱暵之事	-12.0495
椅桐梓漆爰伐琴瑟	-12.0495
釐二百三十	-12.0495
奏無仲黄林太南姑	-12.0495
芽	-12.0495
先天八卦	-12.0496
調與不調	-12.0496
諛	-12.0496
糊	-12.0496
縱黍律尺	-12.0496
鐵拍板	-12.0496
寛裕肉好順成和動之音作而民慈愛	-12.0496
犍為郡	-12.0496
之所自生	-12.0496
宋陳晹撰樂圖論雅部歌	-12.0496
有合也有國故則否凡大合樂必遂養老	-12.0496
舅	-12.0496
奏大夷夾無仲黄林	-12.0496
字操縵前叚名曰金聲	-12.0496
恬	-12.0496
罰	-12.0496
四物五聲六律七音八風九歌以相成也	-12.0497
粗厲猛起奮末廣賁之音作而民剛毅	-12.0497
司馬温公	-12.0497
惻隠	-12.0497
相併共得二百寸	-12.0497
六萬五千五百三十六	-12.0497
侃	-12.0497
雷鼔雷鼗	-12.0497
坼	-12.0497
爵弁	-12.0498
考仲子之宫	-12.0498
喉齶舌齒脣	-12.0498
最為簡便	-12.0498
肉倍好	-12.0498
九寸外加一寸為尺	-12.0498
宫為君商為臣角為民徵為事羽為物	-12.0498
槀	-12.0498
節奏合而成文	-12.0498
言人人殊	-12.0498
六百四十七絲九百八十二忽	-12.0498
厘七毫三絲	-12.0498
四寸一分四釐二毫一絲三忽五㣲六纖	-12.0498
度之長短量之	-12.0498
牖	-12.0498
不容不然	-12.0498
冗	-12.0498
聲成文謂之音	-12.0498
周三一四一五九二六五	-12.0498
以千二百黍實	-12.0498
租	-12.0499
溝	-12.0499
變徴生商變商生羽變羽生角變角生宫	-12.0499
南夷之樂	-12.0499
甚盛之舉	-12.0499
袤十寸廣八寸	-12.0499
不入詩	-12.0499
二四一五四六八六四	-12.0499
一物而二名	-12.0499
女媧氏	-12.0499
媒	-12.0499
納音五行	-12.0499
宴蕃使	-12.0499
十七萬七千一百四十七此隂陽合徳氣	-12.0499
姑洗歌磬姑洗編磬	-12.0499
止容九百黍積止六百七分半如此則黄	-12.0499
勹	-12.0499
絲不如竹竹不如肉	-12.0499
蓮	-12.0499
風清月朗	-12.0499
五聲二變之七音	-12.0499
愛心感者其聲和以柔	-12.0499
樂盈而反以反為文	-12.0499
之尤小者也	-12.0499
應鍾隂黄鍾陽	-12.0499
竄	-12.0499
脞	-12.05
杪忽	-12.05
土示六變而致象物及天神	-12.05
教縵樂燕樂	-12.05
鄴	-12.05
取羊頭山黍用三等篩子篩之取中等者	-12.05
愴	-12.05
男左女右手中指	-12.05
豈不宜哉	-12.05
長尺有咫	-12.05
隋大業中	-12.05
五二四九四七四三六五	-12.05
侷	-12.05
名曰玉振	-12.05
執之以舞	-12.05
彼華者黍彼實者	-12.05
筋	-12.05
子寅辰午申戌	-12.05
以道制欲	-12.05
四三五九二九五二六四五六一八二五	-12.05
祀乎明堂而民知孝	-12.05
篁	-12.05
巡狩	-12.05
峙	-12.0501
許氏説文曰	-12.0501
如漆筩	-12.0501
乙凡不用	-12.0501
周召之治也	-12.0501
廸	-12.0501
僎	-12.0501
擅	-12.0501
嶽瀆	-12.0501
易慢之心	-12.0501
然所定之律不本	-12.0501
蔑	-12.0501
先祖是聽	-12.0501
六分其金而錫居一	-12.0501
息氣行	-12.0501
謝莊	-12.0501
推而上之	-12.0501
鵞	-12.0501
八寸二百四十三分寸之一百四	-12.0501
三分七厘六毫	-12.0501
八尺一寸廣一尺八寸	-12.0501
南風之歌	-12.0501
二十七為一寸三為一分一為三釐	-12.0501
以黄鍾十七萬七千一百四十七之數	-12.0501
凡國祈年于田祖龡豳雅擊土	-12.0501
加一寸以為尺	-12.0501
必和之以大故有鐘無鎛大	-12.0501
悼	-12.0501
葦籥伊耆氏之樂也	-12.0501
見乃謂之象形乃謂之	-12.0501
長九寸空圍九分容秬黍	-12.0501
黄鍾十七萬七千一百四十七之數則得	-12.0501
其風不周	-12.0501
奈	-12.0502
按彈内散扣外	-12.0502
麞	-12.0502
仄	-12.0502
伽	-12.0502
在山谷	-12.0502
亂則哀其事勤羽亂則危其財匱	-12.0502
荒其君驕商	-12.0502
賦比興	-12.0502
之所為也漢志不知出此乃欲加黄鍾一	-12.0502
孟康不察乃謂凡律圍徑不同各以圍	-12.0502
所以通中聲也	-12.0502
樂也者情之不可變者也	-12.0502
畢觜參	-12.0502
簡㨗	-12.0502
耨	-12.0502
誥	-12.0502
隂六清之首	-12.0502
稿	-12.0502
蔈而當一粟十二粟而當一寸	-12.0502
以八寸之尺起度則八尺為尋倍尋為常	-12.0502
三寸九分當為長九寸空徑三分之誤	-12.0502
仲吕生黄鐘	-12.0502
四除一十	-12.0502
奏夷則歌小呂舞大濩以享先妣	-12.0502
揚子太玄	-12.0502
斌	-12.0502
個二千四十八為大吕之	-12.0502
古法律管當實千二百粒黍今羊頭	-12.0502
宋書樂志	-12.0502
昔黄帝令伶倫作為律	-12.0502
脛	-12.0502
萹	-12.0503
迎暑	-12.0503
志意得廣焉執其干戚習其俯仰詘伸	-12.0503
聲音之道與政通	-12.0503
大小二等	-12.0503
郵	-12.0503
之主宰	-12.0503
豵	-12.0503
㝠符	-12.0503
三絃之十徽	-12.0503
上尺凡六	-12.0503
六寸八分一釐一毫	-12.0503
其容體比於禮其節比於樂	-12.0503
大合六代之樂	-12.0503
汙尊而抔飲蕢桴而土鼓猶若可以致	-12.0503
紫宸殿	-12.0503
自天子達於士降殺以兩	-12.0503
詡	-12.0503
以三寸九分為黄鍾	-12.0503
奏仲黄林太南姑應	-12.0503
涂	-12.0503
聲應相保曰和細大不踰曰平	-12.0503
衅而藏之	-12.0503
奬	-12.0503
與功偕	-12.0503
廓	-12.0503
伶倫自大夏之西乃之阮隃之	-12.0503
南吕簫南吕	-12.0503
奏夾無仲黄林太南	-12.0503
皆可以生之故曰黄鍾之宫律吕之本	-12.0503
纍纍	-12.0503
至治之世天地之氣合以生風	-12.0503
釐六百六十	-12.0503
散之桃林	-12.0503
内外周徑	-12.0504
聶崇義	-12.0504
膳	-12.0504
笙師所掌之篴	-12.0504
觜	-12.0504
四分八釐五毫	-12.0504
大樂必易大禮必簡	-12.0504
凡將起五音凡首	-12.0504
景靈宫	-12.0504
粗疎	-12.0504
蔵	-12.0504
一分容十三黍又	-12.0504
以之阮隃之下聽鳯	-12.0504
南吕歌鐘南吕編鐘	-12.0504
善民心	-12.0504
天地元音	-12.0504
帥巫而舞	-12.0504
湮滅	-12.0504
畜聚之臣	-12.0504
笙鏞以間鳥獸蹌蹌	-12.0504
管實得幾粒然後推而定法可也	-12.0504
開皇十年萬寳常所造律	-12.0504
一千六百二十寸	-12.0504
孺悲	-12.0505
靈鼔靈鼗	-12.0505
饗食諸侯序其樂事令奏	-12.0505
朱氏載堉曰	-12.0505
不舞不授器	-12.0505
内出銅律一部是萬寳常所造名水尺律	-12.0505
十一其長之分以為廣自然之數也	-12.0505
周禮冬官	-12.0505
四清聲之設正謂臣民相避以為尊卑	-12.0505
坤之六二	-12.0505
大不踰宫	-12.0505
孫侯氏四正具舉大夫君子	-12.0505
族黨聞之長	-12.0505
蕤賔長六寸八十一分寸之二十六	-12.0505
遂設三老五更羣老之席位焉適饌省醴	-12.0505
閨門聞之父子莫不和親	-12.0505
南吕笙南吕笙	-12.0505
天子乃帥三公九卿諸侯大夫親往視之	-12.0505
姑洗琴姑洗篴	-12.0505
姑洗笙姑洗笙	-12.0505
序宫中之事	-12.0505
是謂吕生子	-12.0505
祭祀宿縣遂以聲展之	-12.0505
答拜而樂闋	-12.0505
韋昭國語注	-12.0505
𨼆	-12.0505
後世不知出此而唯尺之求	-12.0505
徽定之實音為南吕散聲即姑洗六弦	-12.0505
以諧萬民	-12.0505
禮樂不可斯湏去身	-12.0505
楨	-12.0505
始改用	-12.0505
詩曰左手執籥右手秉翟	-12.0505
銑間謂之于于上謂之鼓鼓上謂之鉦	-12.0505
九寸好三寸	-12.0505
亶	-12.0505
隂中之陽	-12.0505
不可為訓	-12.0505
艷	-12.0505
三為一絲	-12.0505
不比於正音	-12.0505
先吹合字	-12.0505
小大莫處御于君所以燕以射則燕則譽	-12.0505
徐景安	-12.0505
而弗復服	-12.0505
一寸二十七為一分三為一釐一為三毫	-12.0505
鐶	-12.0505
瞍	-12.0505
雌雄	-12.0505
仲吕之數六十主四月極不生	-12.0505
之實音為仲吕散聲即大吕二弦夾鍾為	-12.0505
無相奪倫	-12.0505
貶	-12.0505
於子化生萬物者也	-12.0506
馘	-12.0506
已下則摩其耑	-12.0506
國子之倅	-12.0506
優劣	-12.0506
十九寸六百四十一分八百五十五釐	-12.0506
夫歌者直已而陳	-12.0506
淸	-12.0506
細分之則	-12.0506
來奏納夏臣有功奏章夏夫人	-12.0506
天下樂之故在廟朝聞之君臣莫不和敬	-12.0506
歌磬仲吕編磬	-12.0506
九三七二九八一四三三五三三	-12.0506
九四三五九二九五二六	-12.0506
五十三釐九十四毫四十二絲四十一忽	-12.0506
以六律為之音	-12.0506
南吕起調南吕畢曲旋宫第	-12.0506
徽定之實音為黄鍾散聲即林鍾二弦	-12.0506
春夏學干戈	-12.0506
林鍾長六寸六分七釐四毫	-12.0506
樂器圖様	-12.0506
郊特牲曰歌者在上匏竹在下	-12.0506
顓帝	-12.0506
九寸三分六釐四毫	-12.0506
紀陽氣之初以為	-12.0506
敖黄正	-12.0506
遯	-12.0506
若舞則勺	-12.0506
亡國之聲	-12.0506
以安賔客	-12.0506
彪	-12.0506
歌笙間合	-12.0506
三分損益之數往而不返	-12.0506
勸戒之	-12.0506
反人道之正	-12.0506
採桑	-12.0506
法祖孝孫云平陳後廢周玉尺律便用此	-12.0506
淒	-12.0506
滿尋訪古今恐不可用其晉梁尺量過	-12.0506
穅	-12.0506
笙詩六篇	-12.0506
護	-12.0506
趙耶利	-12.0506
六寸七分三分一	-12.0506
囚	-12.0506
圍十分二釐八毫	-12.0506
度量衡亦可以制律	-12.0506
林鍾為徵太蔟為商南吕為羽姑洗為角	-12.0506
梁法尺	-12.0506
舞所以節八音	-12.0506
所由起也重十有二銖權衡之所由起也	-12.0506
林仲夾黄無林仲夾黄無林仲夾	-12.0506
閻	-12.0507
㒺	-12.0507
七十二以三分之不盡二筭	-12.0507
五月建焉而辰在鶉首林鍾未之氣	-12.0507
十分之寸	-12.0507
太蔟三弦姑洗為	-12.0507
汚	-12.0507
舉正於中	-12.0507
萬四千九百七十六	-12.0507
適東序釋奠於先老	-12.0507
龍門之琴瑟	-12.0507
樂終而徳尊	-12.0507
應㽔大夷夾無仲黄林太南姑應㽔大夷	-12.0507
五寸六分三分二	-12.0507
五毫圍七分九	-12.0507
一千二百粒稱重十二銖兩之為一	-12.0507
以律管定尺乃是以天地之氣為	-12.0507
可得而禮矣	-12.0507
中士二人下士四人	-12.0507
圖次為	-12.0507
宫縣四面	-12.0507
忱	-12.0507
紊亂	-12.0507
今以周尺六尺四寸為歩	-12.0507
吐蕃	-12.0507
猷	-12.0507
苦竹俗呼	-12.0507
觀音竹此竹節長而厚内外皆可修治	-12.0507
金門山	-12.0507
以作動物	-12.0507
成也亦名曰	-12.0507
富貴	-12.0507
實曰秀南任也	-12.0507
注未明	-12.0507
用俾應復也	-12.0507
禮也者理之不可易者也	-12.0507
隂任陽事	-12.0507
非人之所能為也今其律之空圍不同	-12.0507
㓙	-12.0507
不悉載	-12.0507
以江東樂	-12.0507
半徽一弦黄鍾為	-12.0507
徽定之實音為黄鍾散聲即林鍾七弦	-12.0507
時有秋有冬	-12.0507
焉而辰在析木	-12.0507
相保而為和細大不踰而為平	-12.0507
相順若均之八音猶	-12.0507
縿	-12.0507
靴	-12.0507
黄鍾生林鍾林鍾生太蔟太蔟生南	-12.0507
黄鐘之管長九十	-12.0507
應鍾長五寸二分九釐七毫	-12.0508
佑	-12.0508
毫七十五絲	-12.0508
之位三分之而益一分其位則在	-12.0508
乾之九三	-12.0508
潤澤	-12.0508
中琴必以小瑟配之	-12.0508
也有以黄鍾之長均作	-12.0508
二分八厘	-12.0508
以下十一辰	-12.0508
詢衆庶	-12.0508
躑	-12.0508
釋箕子	-12.0508
南吕散聲即仲吕五弦林鍾為	-12.0508
林仲太黄無林仲太黄無林仲太	-12.0508
龠黄鐘之宫長九寸空圍九分容秬黍	-12.0508
禮者天地之序	-12.0508
西階之西頌磬東面其南	-12.0508
携	-12.0508
籩	-12.0508
其形介然有常有似於士君子之行	-12.0508
應鍾長四寸七分	-12.0508
致羽物	-12.0508
隂陽序次風雨時	-12.0508
七星管	-12.0508
不行此律之所以止於十二也	-12.0508
二千餘年	-12.0508
以樂侑食卒食以樂徹于造	-12.0508
大琴謂之離	-12.0508
歌笙入間歌合樂	-12.0508
笙入立于縣中西面	-12.0508
網	-12.0508
蹵毬	-12.0508
通而言之	-12.0508
錬	-12.0508
三絲四十七忽	-12.0508
以聽鳯	-12.0508
俻	-12.0508
用増損訛替之所致也周	-12.0508
下諸律圍徑以就黄鐘清聲	-12.0509
以度量者可以文載口傳與衆共知然不	-12.0509
輟	-12.0509
四望山川	-12.0509
淮南子天文訓	-12.0509
尊而不親	-12.0509
分兩側為用	-12.0509
律吕不易無姦物也	-12.0509
無有曲折之形焉所以立辨也故	-12.0509
改制大樂取京縣秬黍累尺成律鑄	-12.0509
者天地之全數也	-12.0509
而為仲吕仲吕之	-12.0509
貨泉重五銖	-12.0509
釐五十九毫	-12.0509
即以此同律度量頒于天下其後宣帝時	-12.0509
雖亦用此十七萬七千一百四十七之	-12.0509
黄鍾起調黄鍾畢曲旋宫第	-12.0509
上生者四其法得四寸二十八分	-12.0509
鵲巢采蘩采蘋	-12.0509
檜	-12.0509
裝	-12.0509
蕪	-12.0509
之廣度之九十分黄鐘之長一為一分	-12.0509
亦預焉	-12.0509
仁宗景祐三年	-12.0509
明集禮	-12.0509
無差異漢書食貨志云黄金方寸其重一	-12.0509
相去不逺	-12.0509
級	-12.0509
豈不信哉	-12.0509
一寸五分二釐六毫六絲一忽五微一纎	-12.0509
一寸八十一為一分九為一釐一為一毫	-12.0509
一徽定之實音為南吕散聲即仲吕六弦	-12.0509
之徳而其發則	-12.0509
之自然也顧自淮南	-12.0509
京房之六十律	-12.0509
六釐七十八毫一十一絲八十六忽五	-12.0509
分三百七十	-12.0509
則齊之以	-12.0509
合天地之化	-12.0509
嗟彼白華瑩然如	-12.0509
四十四忽萬分忽之五千六百四十五分	-12.0509
朱熹蔡元定	-12.0509
此則古人論律以九分為寸之明驗也	-12.0509
無射起調無射畢曲旋宫第	-12.0509
然仲吕之實一十三萬一千	-12.0509
等有不察耳	-12.0509
約十而為九	-12.0509
非有意於棄之實其重分累析至於無	-12.0509
聚訟	-12.051
坤之六四	-12.051
凡言分者皆	-12.051
急不知當時律之圍徑又果何如也	-12.051
是太祖遣尚書故蘇綽所造當時檢勘用	-12.051
薰仲吕為	-12.051
阜黄鍾為	-12.051
黄無林仲太黄無林仲太黄無	-12.051
宫細不過羽夫宫音之主也第以及羽	-12.051
一上一下	-12.051
夜三鼜	-12.051
不為他律役	-12.051
坤六爻	-12.051
後周市尺	-12.051
符㑹處多且平齊之始已用宣布今因而	-12.051
自相矛盾	-12.051
誄	-12.051
路鼓一應鼓二堂上堂下堂上堂下	-12.051
開皇官尺	-12.051
黄南林姑太黄南林姑太黄南林	-12.051
一百一十七分	-12.051
二萬六千二百四十四	-12.051
半律面羃三分	-12.051
君子立身	-12.051
薰姑洗為	-12.051
鐘磬鑮	-12.051
九寸為宫其曰宫五	-12.051
為徴吹四字按十	-12.051
又不盈分者十之所得為小分以其餘	-12.051
夷則五寸四分三分二商	-12.051
夾大應夷蕤夾大應夷蕤夾大應	-12.051
六百一十八為仲吕之	-12.051
樂出於虚	-12.051
戛擊鳴球搏拊琴瑟以詠	-12.051
焦尾至七徽	-12.051
蹈厲有節	-12.051
以和軍旅	-12.0511
吕長五寸九分三分二	-12.0511
堂下之治	-12.0511
弦為南呂與第十弦散聲應按第	-12.0511
據斗造律	-12.0511
潘岳	-12.0511
萬物育焉	-12.0511
飾以羽旄	-12.0511
一萬六千二百	-12.0511
今樂猶古	-12.0511
劉歆荀朂王朴	-12.0511
四九八九四八七三一六四七六七二一	-12.0511
明倪復撰	-12.0511
空積忽㣲	-12.0511
絲九百三十	-12.0511
貨布重二十五銖	-12.0511
鐘師凡樂事以鐘鼓奏九夏	-12.0511
靁鼔靁鼗	-12.0511
分者十之則其竒零無時而能盡雖泛以	-12.0511
固有不可得而紀者矣	-12.0511
林姑太應南林姑太應南林姑太	-12.0511
此後魏初及東西分國後周	-12.0511
除之所得億約為寸得仲吕仲吕長	-12.0511
八分三釐二毫三絲九忽二微八纎	-12.0511
躔	-12.0511
神樂觀	-12.0511
君子不取也	-12.0511
墟	-12.0511
氣應灰飛	-12.0511
九即十而取九者體之所以立約十而	-12.0511
奠酬而工升歌	-12.0511
為之六間以揚沈伏而黜散越也	-12.0511
男女無辨則亂升	-12.0511
隂陽之聲以為樂噐	-12.0511
頽	-12.0511
七六八七六六八一四九	-12.0511
八分五釐六毫七絲八忽三微七纎	-12.0511
姑洗得全分約以釐法則應	-12.0511
獨樂其志不厭其道	-12.0511
褘	-12.0511
因而九之九九八十一故黄鍾之數立焉	-12.0511
九分八釐九毫八絲八忽七微四纎	-12.0511
以正聲比子聲則子聲為半但先儒釋	-12.0511
大吕起調大吕畢曲旋宫第	-12.0511
姑洗起調姑洗畢曲旋宫第	-12.0511
或多或少皆是作者旁庣其腹使有盈	-12.0511
霧	-12.0511
午與未合	-12.0512
明則有禮樂幽則有鬼神	-12.0512
臨淄	-12.0512
中書令	-12.0512
黄鐘九寸下生則倍	-12.0512
壝	-12.0512
太常丞	-12.0512
尸出入奏肆夏牲出入奏昭夏四方	-12.0512
帥瞽登歌	-12.0512
方尺積千寸	-12.0512
綠	-12.0512
之数具于此矣	-12.0512
九十二釐七百五十毫	-12.0512
五聲大小之序	-12.0512
四寸十分八	-12.0512
天地之風氣正十二律定	-12.0512
娱	-12.0512
徑圍之分以十為法	-12.0512
懌	-12.0512
晉泰始十年	-12.0512
林姑太黄南林姑太黄南林姑太	-12.0512
治其飾	-12.0512
笛三指聲應	-12.0512
至烏其形圓重用之	-12.0512
舞大吕歌鐘大吕編鐘	-12.0512
之或増之則其	-12.0512
仲吕起調仲吕畢曲旋宫第	-12.0512
所以宣養六氣九徳也	-12.0512
二寸二分二釐二毫二絲二忽二微二纎	-12.0512
之變也管長九寸徑三分圍九分	-12.0512
來加文武二聲	-12.0512
分者十六萬二千一升積十六寸二分	-12.0512
律須撼乃容若以中者累尺雖復小稀實	-12.0512
者一萬六千二百一合積一寸六分二釐	-12.0512
而為無射無射之	-12.0512
軻	-12.0512
宋陳𤾉撰樂圗論雅部	-12.0512
制之禮義	-12.0512
鎛如鐘而大	-12.0512
髙而低	-12.0512
京房之六十律錢樂之	-12.0512
六寸上生則四其	-12.0512
上乙四六凡工	-12.0512
内庳外髙	-12.0512
化不時則不生	-12.0512
卯二十七分十六	-12.0512
君子之深教	-12.0512
拭	-12.0512
一徽定之實音為黄鍾散聲即夷則七弦	-12.0512
之聲少下不和故有變律	-12.0512
二十四銖為一兩	-12.0512
以開元錢之徑為	-12.0512
及射令奏騶虞詔諸侯以弓矢舞	-12.0512
曷嘗不	-12.0512
王出入令奏王夏	-12.0512
當位自得	-12.0512
百六十一毫	-12.0512
之律不動而滿計此二事之殊良	-12.0512
生大吕大吕生夷則夷則生夾	-12.0512
鎛鐘㽔賔特磬㽔賔特磬	-12.0512
一寸一分七釐七毫一絲八忽一微二纎	-12.0512
薰無射為	-12.0512
除之所得億約為寸得太蔟太蔟長八寸	-12.0512
嘴	-12.0513
黄門鼓吹	-12.0513
樂通倫理	-12.0513
振鷺	-12.0513
歌止舞止	-12.0513
燔	-12.0513
不拜受爵祭飲辯有脯醢不祭	-12.0513
二分六釐四毫八絲六忽五微七纎	-12.0513
五寸八分二釐四毫一絲一忽三	-12.0513
思文后稷	-12.0513
毫七絲三忽	-12.0513
毫釐秒忽之間今乃以不盡之	-12.0513
瀛	-12.0513
耳目聰明	-12.0513
西戎之樂也	-12.0513
豆葉黄	-12.0513
蹲再鼓皆舞進一步正立再鼓皆	-12.0513
飬老	-12.0513
坐取爵	-12.0513
則易之以小約九十黍之長中容千二百	-12.0513
二分七釐二毫六絲二忽六微九纎	-12.0513
八萬七千三百八十一小分二百四十三	-12.0513
四分三釐二毫七絲六忽八微二纎	-12.0513
律以之生五聲二變上下	-12.0513
於常疑今之大者正是其中	-12.0513
清生正也	-12.0513
勑	-12.0513
大吕長八寸二百四十三分寸之一百	-12.0513
王師大獻則令奏愷樂	-12.0513
空煩其文而為辭費	-12.0513
閨門之内	-12.0513
中實葭莩之灰以輕緹素覆律口	-12.0513
忽九十六微	-12.0513
除之所得億約為寸得蕤賔蕤賔長	-12.0513
除之所得億約為寸得黄鍾黄鍾長	-12.0513
尺終有一㑹且上黨之黍有異他鄉其色	-12.0513
有勲勞於天下	-12.0513
一釐八毫八絲九忽三微三纎	-12.0513
烏孫	-12.0514
儀禮大射儀	-12.0514
宅	-12.0514
岸	-12.0514
杳	-12.0514
賔牟賈	-12.0514
賞罰	-12.0514
張守節	-12.0514
感泣	-12.0514
武樂六成	-12.0514
之侈心乎	-12.0514
今太常寺鎛鐘	-12.0514
儲	-12.0514
六十七釐九十一毫一十六絲八十七忽	-12.0514
均作十寸	-12.0514
尺五尺為歩	-12.0514
景徳中	-12.0514
朝謁	-12.0514
比類以成其行	-12.0514
爐	-12.0514
還得十七萬七千一百四十七之數	-12.0514
鯨	-12.0514
三分五釐三毫五絲五忽三微三纎	-12.0514
六寸三分六釐三毫	-12.0514
對衝之例也	-12.0514
小分三百二十四	-12.0514
故曰得全	-12.0514
此尺者朂新尺也今尺者杜夔尺也	-12.0514
淹	-12.0514
調者起調畢曲皆	-12.0514
踈勒	-12.0514
閎	-12.0514
又為輪扇二十四埋地中以測二十四氣	-12.0514
姑洗拊姑洗鼗	-12.0514
餘四百五十一	-12.0514
一尺二寸五分九釐九毫二絲	-12.0514
糓	-12.0514
朋来	-12.0514
猗蘭	-12.0514
備舉其道不私其欲	-12.0514
射長四寸六千五百六十一分寸之六千	-12.0514
徒相大師僕人師相少師僕人士相上工	-12.0514
徵商羽角變宫變徵	-12.0514
賾	-12.0514
五十一釐六十七毫六十五絲四十八忽	-12.0514
五聲之正而	-12.0514
執越内弦右手相入	-12.0514
夷則起調夷則畢曲旋宫第	-12.0514
樂可作	-12.0514
黄中之色也	-12.0514
積分十七萬七千一百四十七	-12.0514
益一上生姑洗三分姑洗損一下生應	-12.0515
中者實其龠則是先得黄	-12.0515
九分三釐四毫三絲二忽九微三纎	-12.0515
八毫九絲八忽七微一纎	-12.0515
其為變正聲之法者以黄	-12.0515
因而九之九九八十一故黄鐘之數立焉	-12.0515
太簇簫南吕簫林鐘鼗南吕鼗姑洗鎛鐘	-12.0515
相生所得之律寸數半之以為子聲之律	-12.0515
義一義云半十二律正律為十二子聲之	-12.0515
變律之實以一	-12.0515
以四耦射二侯二獲二容樂以貍首七節	-12.0515
幻	-12.0515
之歌九㲈之舞於宗廟之中奏之	-12.0515
分五十九釐	-12.0515
大祭祀登歌擊拊	-12.0515
比干之墓	-12.0515
皓	-12.0515
三分七釐四毫五絲七忽六微七纎	-12.0515
乃席工于西階上少東	-12.0515
乃變徵位	-12.0515
之舞也其容	-12.0515
二十八宿	-12.0515
二義云從	-12.0515
出四時之㣲氣	-12.0515
十二律各自為宫以生五聲二變其黄	-12.0515
十五萬五千三百四十四	-12.0515
周旋中規折旋中矩	-12.0515
四絲四忽八微二纎	-12.0515
四隙四時之間氣㣲	-12.0515
夾鍾起調夾鍾畢曲旋宫第	-12.0515
子聲則四寸半又上下相生之法者以	-12.0515
小分四百三十二	-12.0515
林鍾之數五十四主六月上生太蔟	-12.0515
羌胡	-12.0515
聲之誤也	-12.0515
聲者不可與言音不知音者不可與言樂	-12.0515
象四時也	-12.0515
驚蟄	-12.0515
髙大食角	-12.0515
𤼵揚蹈厲	-12.0515
為夾鐘半之實計	-12.0515
釐九十七毫	-12.0515
鐘吹新律命之皆應梁武	-12.0515
以三耦射一侯一獲一容樂以采蘋五節	-12.0515
乙賤工也	-12.0515
萬舞有奕	-12.0515
林鍾南吕應鍾	-12.0515
樂以秬黍中者一黍之廣即為一分而	-12.0515
特磬姑洗歌舞應鐘歌舞姑洗歌鐘	-12.0515
三間中吕宣中氣也	-12.0515
九月陽氣上升隂氣	-12.0515
名其初臣歸功於上之義也大吕助陽宣	-12.0515
數不知數之自然在律	-12.0515
畸贏贅虧之積亦不得為此律矣	-12.0515
薰應鍾為	-12.0515
銘八十二字	-12.0515
三分益一得八寸五萬九千	-12.0516
合為六十聲是十二律之正聲也	-12.0516
四分八釐五毫七絲六忽五微九纎	-12.0516
笙入堂下磬南北面立	-12.0516
萬三千五百六十三	-12.0516
早晚	-12.0516
麓	-12.0516
拳	-12.0516
東門之枌	-12.0516
以别十二律其雄鳴為六雌鳴亦六以比	-12.0516
大吕琴大吕篴	-12.0516
眂瞭	-12.0516
藏萬物無射見者故可以徧布前哲之	-12.0516
飲卒觶	-12.0516
㽔賔塤大吕	-12.0516
不取圍徑皆同	-12.0516
不容彈者	-12.0516
十一月陽伏於下物始萌於	-12.0516
四分四釐五毫四絲四忽九微三纎	-12.0516
律緯云祖	-12.0516
阜夷則為	-12.0516
應南林姑太應南林姑太應南林	-12.0516
九十六半之得四寸五萬九千	-12.0516
八十八釐八十八毫八十八絲八十八忽	-12.0516
塤無射瑟無射箎	-12.0516
天地三月而為一時故祭祀三飯以為禮	-12.0516
得古周時玉律及鐘磬與新律聲韻闇同	-12.0516
月所候言皆無爽	-12.0516
釐一毫七絲	-12.0516
雷鼓雷鼗	-12.0516
閨	-12.0516
吕為宫乃以去滅為商執始	-12.0516
子糓秬黍	-12.0516
拗	-12.0516
㽔賔歌鐘㽔賔編鐘大吕歌	-12.0516
一釐二十七為一毫三為一絲一為三忽	-12.0516
互相校正	-12.0516
先相者皆左何瑟面鼓執越内	-12.0516
弦右手相入升自西階北面東	-12.0516
志曰伏羲作易紀陽氣之初以為律法	-12.0516
水火金木土榖	-12.0516
焦氏卦氣之學亦去四而為六十故其推	-12.0516
磬師掌教擊磬擊編鐘	-12.0516
隂氣為主委	-12.0516
四分七釐一毫九絲三忽七微一纎	-12.0517
實如法得長一寸凡得九寸命曰黄鐘之	-12.0517
揣	-12.0517
三寸八分四釐	-12.0517
家者流	-12.0517
度之九十分黄鍾之長一	-12.0517
周尺八尺為歩	-12.0517
恠	-12.0517
景王將鑄無射	-12.0517
杠	-12.0517
東平王蒼	-12.0517
裙	-12.0517
七十一釐四十七毫六十五絲一十九忽	-12.0517
上有似於賔主故可用之宗廟賔客以安	-12.0517
乃變宫位	-12.0517
之數以下生	-12.0517
六十六萬三千二百九十六	-12.0517
外旁有庣焉	-12.0517
律成其功發揚滯伏之氣而去散越者也	-12.0517
為實以毫法二十七除之得	-12.0517
諸侯之僭禮也	-12.0517
賛佐也	-12.0517
闗係	-12.0517
三忽五微五纎	-12.0517
二分九釐七毫	-12.0517
五十一釐一十	-12.0517
而為黄鍾黄鍾之	-12.0517
三寸七分四釐五毫七絲六忽七微六纎	-12.0517
傳曰中聲以降五降之後不容彈矣	-12.0517
弦為大吕與第二弦散聲應按	-12.0517
氣所動者其灰散人及風所動者其灰聚	-12.0517
趾	-12.0517
弧	-12.0517
以十寸為尺	-12.0518
西階之西頌磬	-12.0518
樂者心之動	-12.0518
民相避以為尊卑	-12.0518
寸餘數約以	-12.0518
應鐘上生㽔賔為	-12.0518
獻馘	-12.0518
蔟散聲即南吕七弦應鍾為	-12.0518
七萬三千七百二十八	-12.0518
倍律外周一寸	-12.0518
堂上堂下堂上堂下大吕鎛鐘	-12.0518
大吕歌磬大吕編磬	-12.0518
邵	-12.0518
介胄	-12.0518
不徹縣	-12.0518
詳見下文	-12.0518
貨布	-12.0518
𤼵於聲音	-12.0518
二分八釐八毫八絲三忽八微一纎	-12.0518
人之生也	-12.0518
孰與此哉	-12.0518
為十二律之窮變律之首也依京房書仲	-12.0518
聲斯達	-12.0518
鐘仲吕歌磬仲吕編磬	-12.0518
傀	-12.0519
二十四銖為兩	-12.0519
大樂與天地同和大禮與天地同節	-12.0519
形制于左右臣逸臣瑗	-12.0519
七千五百四十九萬七千四百七十二	-12.0519
合敬同愛	-12.0519
姑潔也洗濯也考合也言陽氣養生洗濯	-12.0519
枯穢改柯易葉也	-12.0519
釐又九因一遍至毫位住得	-12.0519
然後成韻而崇乃以仲	-12.0519
髻	-12.0519
暈	-12.0519
窪	-12.0519
有以召之	-12.0519
一尺五寸八分七釐四毫	-12.0519
上如抗	-12.0519
肥	-12.0519
一分八十一為一釐九為一毫一為一絲	-12.0519
旋為宮至	-12.0519
豻	-12.0519
為可據	-12.0519
轂	-12.0519
三寸九分六釐八毫五絲	-12.0519
鄭樵通志	-12.052
則易之以	-12.052
三分羽益一	-12.052
二寸九分七釐三毫	-12.052
五九四十五	-12.052
加倍則為	-12.052
太簇簫南吕簫林鐘拊南吕拊姑洗鎛鐘	-12.052
瀟湘水雲	-12.052
第次也	-12.052
魚麗之三	-12.052
睢	-12.052
巡舞列而撻其怠慢者	-12.052
若九與	-12.052
七弦散聲為	-12.052
胡笳十八拍	-12.052
以一絃為宫	-12.052
形見於樂	-12.052
則合兩	-12.052
裴耀卿	-12.052
分寸尺丈引也所以度長短也本起黄	-12.052
曰姑洗所以脩潔百物考神納賔也	-12.052
阜應鍾為	-12.052
字皆當	-12.0521
十一徽應五絃散聲	-12.0521
二百一十二	-12.0521
蔟為商姑洗為角林鍾為	-12.0521
長甬則震	-12.0521
三分六釐三毫九絲一忽三微二纎	-12.0521
二十三釐六	-12.0521
四牡騑騑	-12.0521
臣縱衰氣應者其君暴	-12.0521
萬二千九百七十四上生黄	-12.0521
衢	-12.0521
黄姑太姑	-12.0521
白練	-12.0521
左何瑟	-12.0521
竹聲不可以度調	-12.0521
歟必將	-12.0521
降自西階	-12.0521
生南吕南吕生姑洗姑洗生應鐘應鐘生	-12.0522
何也荅曰	-12.0522
拒	-12.0522
一尺四寸九分八釐三毫	-12.0522
大禹謨	-12.0522
韋元成	-12.0522
加中管字	-12.0522
有磬無鍾	-12.0522
僊	-12.0522
四分三釐二毫	-12.0522
房庻	-12.0522
一微七纎	-12.0523
必求合	-12.0523
長節者	-12.0523
刮	-12.0523
立我烝民	-12.0523
數理精藴	-12.0523
既歌而語以成之也言父子君臣長	-12.0523
萬舞洋洋	-12.0523
復與他律為役者同心一統之義也非黄	-12.0523
歌九磬之舞於宗廟之中奏之	-12.0524
清宫而不用	-12.0524
九百六十八為	-12.0524
眞偽	-12.0524
磬師掌教擊磬	-12.0524
夏家古尺	-12.0524
􁆗	-12.0524
也荆卿	-12.0524
乃奏夷則歌小吕舞大濩以享先妣	-12.0524
二分五釐五毫	-12.0525
韋昭杜預	-12.0525
五分四釐五毫	-12.0525
大指擘	-12.0525
榮衛	-12.0525
其遺制也	-12.0525
感人而順氣應之順氣成象而和樂興焉	-12.0525
八九七十二也	-12.0525
小鐘十分其鉦間以其一為之厚	-12.0525
鈕	-12.0525
為合十合為升十升為斗十斗為	-12.0525
三分之每分得	-12.0525
鍾律之學	-12.0525
一寸一分四釐三毫六絲六忽九微一纎	-12.0525
後周王朴	-12.0525
是詩特	-12.0525
祉	-12.0526
祭祀百物之神	-12.0526
子丑寅	-12.0526
引商刻羽	-12.0526
關雎鵲巢	-12.0526
亦此類	-12.0526
祠南郊	-12.0526
轐	-12.0526
鉉	-12.0526
古人制作之意也	-12.0526
何也答曰	-12.0526
莫甚焉	-12.0526
位自得而下生於	-12.0526
止得半聲	-12.0526
二微六纎	-12.0526
諸侯之宫縣	-12.0527
短簫鐃歌	-12.0527
抛	-12.0527
徳歌從	-12.0527
不見於經	-12.0527
縱黍之長	-12.0527
隂與陽	-12.0527
以三為法	-12.0527
放鄭聲逺佞人	-12.0528
鐘鼓既設一朝	-12.0528
苻堅	-12.0528
搖	-12.0528
時無射為	-12.0528
這	-12.0528
鍾為宫大吕為角太蔟為徵應鍾為羽	-12.0528
其狀似	-12.0528
案畫以求	-12.0528
炊	-12.0528
若樂六變則天神皆降可得而禮矣	-12.0529
易直子諒之心	-12.0529
鼎扃	-12.053
大司樂説宫角徵羽與七聲不合如何	-12.053
於黄鍾之重	-12.053
箋	-12.053
縱黍横黍	-12.053
三寸四分五釐	-12.0531
分一千四百五十八為	-12.0531
時姑洗為	-12.0531
諱	-12.0531
於殿上	-12.0531
損一分下生	-12.0531
檐	-12.0531
之二八十六枚而在一簴謂之堵	-12.0531
絲為絃則其聲應	-12.0531
五律為中管	-12.0532
積實八百一十分	-12.0532
此數起於黄鍾為宫	-12.0532
寸次四管	-12.0532
字為領聲名	-12.0532
氏配座以	-12.0532
為宫則以次圜轉	-12.0532
磐	-12.0533
四太羽中聲之羽聲低於宫	-12.0533
和繆不	-12.0534
謂其聲在前後二律之間	-12.0534
是理也	-12.0534
調當緊	-12.0535
與律合	-12.0535
譬如人之	-12.0535
褏	-12.0535
引而伸之	-12.0536
怠慢	-12.0536
父子君臣之節	-12.0536
逵	-12.0536
為四十九調	-12.0536
熊羆十二案	-12.0536
清商應七絃散聲二絃	-12.0536
異位是為母子	-12.0536
相生以至中吕	-12.0537
蕤南應南	-12.0537
甫田	-12.0537
誤作七	-12.0537
六除三十	-12.0538
夷則徴應四絃散聲四絃夷則徴取十	-12.0538
為徵清為	-12.0538
聲感人則其意	-12.0538
書大𫝊	-12.0539
位是為夫婦	-12.0539
黍數則	-12.054
也為一法	-12.054
蕤夷無	-12.0541
猛獸	-12.0542
小黄令焦延	-12.0542
法其法以	-12.0543
奏也繼夷則以夾鐘	-12.0543
六工凡六	-12.0545
候氣之法為室三重户閉塗釁必周密	-12.0546
五音十二律而為六十音因而六之	-12.0548
革帶烏皮履	-12.0549
○○○○○○○○○○○○○○	-12.055
姿	-12.0552
綦	-12.0552
絃於十徽八分應	-12.0554
鎗	-12.0555
五銖錢	-12.0555
冕而下如	-12.0556
犀	-12.0556
刁斗	-12.0556
新舊二	-12.0559
夾大應夷	-12.056
起奏在	-12.0561
皆可旋為宫	-12.0563
簮	-12.0563
所累之	-12.0564
夾無南林	-12.0564
至九變而	-12.0566
毋必之於秬黍則得之	-12.0567
音加之	-12.0567
眡瞭之職	-12.0571
篇之目	-12.0572
以七乗	-12.0574
之簫凡	-12.0574
祖皇帝用大	-12.0584
致其敬	-12.0587
正樂縣之位王宫縣諸侯軒縣	-12.0589
時仲吕為	-12.059
變在黄鐘	-12.0595
亦至焉	-12.0596
數多者	-12.0603
故淮南太史公之書其論此也已詳特房	-12.0606
長九寸空圍九分積八百一十分	-12.061
以黄金	-12.0613
宫逐羽	-12.0615
一十三釐五十六毫二十三絲七十三忽	-12.0619
非人所	-12.0621
相倡和	-12.0627
而吹之則為	-12.0641
一而得三	-12.0668
變林鐘為	-12.0675
君子不必親相與言也以禮樂相示而已	-12.0679
二錢半	-12.0681
三分黍之一以九十因之則一千二百也	-12.0686
馴致	-12.0693
二尺一寸六分	-12.0713
工勾尺工	-12.0718
原定為	-12.0721
黄鍾一律之	-12.0724
用七聲而	-12.0724
為他律之	-12.0742
分四釐奇	-12.075
伶州鳩曰古之神瞽考中聲而量之以制	-12.0754
夏日至於澤中之方丘奏之	-12.0778
長四寸二分三分二	-12.078
數八十一是	-12.0781
鐘夾鐘生無射無射生仲吕	-12.0813
分七釐八毫	-12.0828
何聲為	-12.0834
題朱載堉	-12.0868
五毫夫律以空圍之同故	-12.0895
九故黄鍾之	-12.0907
氣之始也	-12.0908
鎛鐘大吕特磬	-12.091
鞮鞻氏掌	-12.094
詠歌九	-12.0967
生育之	-12.0973
阜姑洗為	-12.1017
以其鉦為之銑間	-12.1026
樂律表㣲卷	-12.1058
後言律者	-12.1061
師所掌	-12.1128
而合乎亥一十七萬七千	-12.115
周公左召公右六成復綴以崇天子	-12.1165
方圖以	-12.124
徴音也由	-12.1308
羃百六十二寸	-12.1362
絃於八徽半應	-12.1377
四一工勾	-12.1422
寸四分二釐八毫	-12.1512
益一上生無射三分無射損一下生	-12.1576
氣應有早晚灰飛有多少	-12.1594
黄仲無夾夷大㽔應姑南太林黄仲無夾	-12.1618
共得二十八寸二分八釐四毫二絲	-12.1698
寸則共為九寸約以	-12.1783
損一下生大吕三分大吕益一上生	-12.1791
司樂以六律六同五聲八音六舞大合樂	-12.1822
一均之備	-12.1833
吹部有	-12.1852
之數六十八主二月下生無射	-12.1861
二寸三分三毫六絲六忽六秒	-12.2038
黄帝作律以玉	-12.2119
分為實上生者以一千乘之得五萬	-12.2157
舊法置五十	-12.2159
位曰大琴大瑟中琴小瑟四代之樂器也	-12.2201
宫羽徴角	-12.2217
五微二纎新法置	-12.224
無黄太姑仲林南	-12.2318
一千一百八十九	-12.2336
師掌敎	-12.2418
㽔賔歌函鐘舞大夏以祭山川	-12.2471
餘六千五百二十四	-12.248
夷大㽔應姑南太林黄仲無夾夷大㽔應	-12.2593
起積一千二百黍	-12.2596
徽外一尺	-12.2645
郷	-12.2669
古之神瞽考中聲而量之以制	-12.2699
肯	-12.2781
在卦則乾之	-12.2798
駸	-12.2807
執同律以聽軍聲	-12.2809
某絃為	-12.2827
七寸五分三分二	-12.283
食嘗無樂	-12.2833
弦按第十徽彈之令與笙音相同是為	-12.2837
下續商置	-12.284
毫為一釐	-12.2845
嘽	-12.285
黄鍾倍律面羃	-12.2866
六忽七微八	-12.2868
尸出入奏肆夏	-12.2877
一十分繇此之義起十二律之周徑然其	-12.2887
六欽定四庫全書樂書卷一百	-12.2892
十一微四十	-12.2901
百九十四分	-12.2904
半周半徑相乗	-12.2908
位以主調故為	-12.291
如京房律凖	-12.2915
喉㑹於	-12.2915
不學操縵不能安弦不學博依不能安詩	-12.2917
忽立方千	-12.2917
忽平方百	-12.2918
苹	-12.2919
不知變律之法但見仲吕反生不及黄	-12.2926
前者變而居	-12.2931
一建鼓在西階之東南面	-12.2932
莠	-12.2933
圃	-12.2935
簜在建鼓之間	-12.2935
至第六位為	-12.2935
僮	-12.2939
也樂書卷八十	-12.2941
趙彦肅所傳	-12.2941
響泉韻磬	-12.2942
為實實如法而一得	-12.2944
相禪之序	-12.2946
邈黎	-12.2946
掌院學士	-12.2947
又以次而卑也	-12.2947
可恨者	-12.2947
諏	-12.2948
吐谷渾	-12.2951
鄭中丞	-12.2951
方之斜弦	-12.2953
律數九九八十一以為宫	-12.2953
駰	-12.2954
亾	-12.2954
中間兩率	-12.2957
栩	-12.2958
而四分之則為	-12.2959
為九寸而度其圍徑如黄	-12.2959
為實開平方法除之	-12.2959
箇一千二百一十三為無射之	-12.296
如牛鳴窌中	-12.2961
柵	-12.2961
讀字訖	-12.2961
養老之珍具遂發咏焉	-12.2961
公輸子	-12.2962
一七四九	-12.2963
碑	-12.2964
採詩之官	-12.2964
出氣之孔	-12.2964
小分四百八十六	-12.2964
秫	-12.2965
楸	-12.2966
聳	-12.2967
古樂淪亡	-12.2967
清變聿	-12.2967
攜	-12.2968
評	-12.2968
不以規矩不能成方圓	-12.2968
吠	-12.2969
春入學舍菜合舞秋頒學合聲	-12.2969
絃全度亦	-12.2969
酇	-12.2969
竟山樂錄	-12.2969
北鎮毉巫閭	-12.2969
粧	-12.2969
平清瑟三調	-12.2969
平濁平清	-12.2969
相續為用	-12.297
閩	-12.2971
奨	-12.2971
妃故俱	-12.2971
哀以思	-12.2972
所以教諸侯之弟	-12.2972
用紙一條	-12.2973
巴渝	-12.2973
徳為之本以六律為之音	-12.2973
崑	-12.2973
毳	-12.2973
穋	-12.2974
道可載而與之俱	-12.2974
挨	-12.2974
􁋡	-12.2974
周以木徳王天下	-12.2974
所以教諸侯之	-12.2975
岡	-12.2975
艱	-12.2975
甸	-12.2975
窮本知變	-12.2975
毒	-12.2976
未既集	-12.2976
先教諭	-12.2976
二四六八十	-12.2976
壅	-12.2976
殁	-12.2976
氊	-12.2976
孽	-12.2976
互備故也	-12.2976
大侯九十參七十干五十	-12.2976
嘖	-12.2976
成為宮調中之	-12.2976
起調義取於	-12.2976
楰	-12.2977
動不存乎體	-12.2977
團	-12.2978
君子明於禮樂舉而錯之而已	-12.2978
各以一聲為	-12.2978
測圓總率	-12.2978
陶唐氏	-12.2978
十有三年舞勺成童舞象	-12.2978
讒	-12.2978
一獻之禮	-12.2978
後天卦	-12.2979
一三五七九	-12.2979
掌大師之縣	-12.2979
懋	-12.2979
漢安帝時	-12.2979
悽	-12.2979
樽酒簋貳	-12.2979
涓	-12.2979
竹取其自然圓	-12.298
䑓	-12.298
俗呼髙大石	-12.298
紕繆	-12.298
三絃獨下一徽	-12.298
批	-12.298
㽔大夷夾無仲黄黄鐘起	-12.298
山有樞	-12.298
窟	-12.2981
煑	-12.2981
之能事畢矣	-12.2981
隔八相生全圖	-12.2981
玉斗之容受	-12.2981
禖	-12.2981
妙則妙矣	-12.2982
筯	-12.2982
赦	-12.2982
畔	-12.2982
藏此二聲者葢	-12.2982
宋陳𤾉撰樂圗論吉禮	-12.2982
戚斧也	-12.2982
正名百物	-12.2982
然則如之何而可	-12.2982
寕	-12.2982
而志從以	-12.2982
音七聲十二律器色七字為七調還相為	-12.2982
累成尺	-12.2982
宫徵位用吟	-12.2982
朂乃部著作郎劉恭依周禮制尺所謂古	-12.2982
善琴者八十餘	-12.2982
怨以怒其政乖亡國之音哀以思其民困	-12.2983
擴	-12.2983
樂和民聲	-12.2983
聖人曰禮樂云	-12.2983
寂	-12.2983
鐘右五鐘	-12.2983
綘	-12.2983
格物窮理	-12.2983
七四九一五三五三八四	-12.2983
廬	-12.2983
七聲只五聲	-12.2983
廖	-12.2983
祭祀則龡而歌之燕亦如之	-12.2983
季氏舞八佾	-12.2983
將前紙條比	-12.2983
夷南無應	-12.2983
去商也但	-12.2984
長三寸九分者也	-12.2984
吕叔玉	-12.2984
痛	-12.2984
李氏學樂録卷一	-12.2985
一唱三嘆	-12.2985
以樂樂于賔賔許	-12.2985
椅	-12.2985
環下順數	-12.2985
禮義立則貴賤等	-12.2985
宫第二章第	-12.2985
沾	-12.2985
周官大胥以六樂之㑹正舞位	-12.2985
樂德樂語	-12.2985
環上逆數	-12.2985
鄭音好濫淫志	-12.2985
麟趾	-12.2985
坻	-12.2985
調十二律皆然黄	-12.2985
宫清商清角清	-12.2986
畎	-12.2986
食三老五更於太學天子	-12.2986
煩手淫聲	-12.2986
使師延作	-12.2986
十馬尾為一分	-12.2986
古人成説	-12.2986
大同而小異	-12.2986
置而不論	-12.2986
髙丈餘	-12.2986
國語曰金奏肆夏	-12.2986
大學衍義補	-12.2986
窌	-12.2986
以正生清	-12.2986
依七音琴第	-12.2986
大章章之也咸池備矣	-12.2986
孶	-12.2986
十分六釐三毫六絲八忽	-12.2987
所以鼓柷謂之	-12.2987
縈	-12.2987
蒯	-12.2987
佚	-12.2987
古之教者	-12.2987
呼八八除六十四	-12.2987
一徽四徽七徽十徽十三	-12.2987
何承天劉焯	-12.2987
皇極經世	-12.2987
二南之詩為之	-12.2987
以彭氏律法	-12.2987
孔皆閉	-12.2987
尺者十寸之尺	-12.2987
凡樂事相瞽	-12.2987
為股羃	-12.2987
翫	-12.2987
雍正庚戌	-12.2987
也所不貴者	-12.2987
祧	-12.2987
若合符節	-12.2987
鼓人凡祭祀百物之神鼓兵舞帗舞	-12.2987
兄嫂	-12.2987
四十零五之少宫位	-12.2987
祭事不縣	-12.2987
褒貶	-12.2987
食三老五更於	-12.2987
商人尚聲	-12.2988
若雉之鳴木	-12.2988
庖犧氏	-12.2988
不足深究	-12.2988
政以一其行刑以防其姦	-12.2988
節八音而行八風	-12.2988
系	-12.2988
之外即為宫調中之	-12.2988
五十四之徵位	-12.2988
涼	-12.2989
馨	-12.2989
廉法六百	-12.2989
堯作大章	-12.2989
扑	-12.2989
箎篴管	-12.2989
韶舞九成樂補	-12.2989
或難曰	-12.2989
昭華之琯	-12.2989
應二絃散聲	-12.2989
絃十徽即	-12.2989
蠶吐絲	-12.2989
象兵還振旅	-12.2989
於羽角之位	-12.2989
請曲縣	-12.2989
㳟	-12.2989
此其證也	-12.2989
漚	-12.2989
回邪曲直各歸其分	-12.2989
以九方分平置	-12.299
曰夔命汝典樂	-12.299
謂度本起於黄鍾之長	-12.299
閹	-12.299
聖祖仁皇帝論樂	-12.299
惕	-12.299
相間於立體為用	-12.299
若豕之負駭	-12.299
謎	-12.299
於二十八寸二分八釐	-12.299
湧	-12.299
交時之所以	-12.299
夷樂作於國門右辟	-12.299
擫	-12.299
為北鄙之聲其廢也忽焉	-12.299
仲吕再生	-12.299
姑蕤夷無應大夹	-12.299
涵	-12.299
相傳之誤也	-12.299
諳	-12.299
鋝	-12.299
鶵	-12.299
患於不	-12.299
秬黍千二百粒	-12.299
終身之憂	-12.299
不復為他律役之意與律書五聲	-12.2991
古樂之精	-12.2991
不為燥濕寒暑	-12.2991
南應大夹姑蕤夷	-12.2991
朔應二鞞	-12.2991
一絃倍徵	-12.2991
之和十九管之巢三十六簧之竽二十五	-12.2991
啟蟄之日	-12.2991
適音篇	-12.2991
最宻之率	-12.2991
其本在人心之感於物也	-12.2991
凡縣鐘磬半為堵全為肆	-12.2991
中和祗庸孝友	-12.2992
既和且平依我磬聲	-12.2992
張文収	-12.2992
徼	-12.2992
規矩準繩	-12.2992
一人不得其和	-12.2992
不亦冝乎	-12.2992
取半以下為投壺禮盡用之為射禮	-12.2992
淮南史漢	-12.2992
璋	-12.2992
阮咸譏其聲	-12.2992
音之用吟也	-12.2992
○□○○□□○	-12.2992
○□○○○□□○□○	-12.2992
不但止得	-12.2992
同次上第	-12.2992
周禮太師職	-12.2992
後世聖人易之以	-12.2992
有庣旁	-12.2992
樂酒無厭	-12.2992
笙鐘頌鐘	-12.2992
賅	-12.2992
赳赳武夫公侯	-12.2992
􁈡	-12.2992
帝使伶倫	-12.2992
裁其兩旁	-12.2992
問河右先生先生	-12.2992
以節聲樂以和軍旅以正田役	-12.2992
相為終始	-12.2992
岀	-12.2992
繭	-12.2992
反其所自生	-12.2992
樂御而射以禮	-12.2992
九四三八七四三一二	-12.2993
斯之謂歟	-12.2993
盤龍辟邪	-12.2993
一清三濁卑不踰尺髙不越腹	-12.2993
共得一十四寸一分四釐	-12.2993
方象地	-12.2993
天一生水	-12.2993
摛	-12.2993
七十五毫八百二十三絲九百九十一忽	-12.2993
二十二毫二百二十二絲二百二十二忽	-12.2993
在心為志發言為詩	-12.2993
掌擊笙磬	-12.2993
搥	-12.2993
作五弦之琴以歌南風	-12.2993
甲子乙丑	-12.2993
十方法二	-12.2994
宮生徴徴生商	-12.2994
傚	-12.2994
所以為璧也裁其兩旁以益上下所以為	-12.2994
八寸一分上下相生窮於應	-12.2994
命樂正習舞釋菜	-12.2994
審詩商	-12.2994
微末以象殺伐之氣	-12.2994
然朱氏又謂	-12.2994
厎	-12.2994
奎	-12.2994
度而志至焉者也故詩之所言在志不在	-12.2994
樂由天作禮以地制	-12.2994
為變宫第七變得	-12.2994
而三絃立	-12.2994
其廣之分以為長十一其長之分以為廣	-12.2994
絃羽轉為角	-12.2994
能成曲調	-12.2994
䙝	-12.2994
可以語可以道古	-12.2994
莞	-12.2994
大旅則陳之	-12.2994
曰雷出地奮豫先王以作樂	-12.2994
樂髓新經	-12.2994
生我之聲	-12.2994
繁遏渠	-12.2994
鎛為小鐘	-12.2994
師中士二人下士四人府	-12.2994
思悲翁	-12.2994
轉下與低接	-12.2994
但制尺求律便為堅	-12.2994
呼逢一進一十得一	-12.2994
後世儒者執守孤法	-12.2994
樂三闋然後出迎牲聲音之號所以詔告	-12.2994
詩者中聲之所止	-12.2994
踊	-12.2994
適饌省醴	-12.2994
吼	-12.2994
帥瞽而歌	-12.2994
高誘曰	-12.2994
隱間九尺	-12.2994
爾雅大塤謂之	-12.2995
盞	-12.2995
倡和清濁	-12.2995
二六四八六五七七三五八九八二三八	-12.2995
蕞	-12.2995
也以為度者以為長短之度也則周家十	-12.2995
以是圍九分之誤遂有徑三分之	-12.2995
作之時也祥	-12.2995
八音以絲為君絲以琴為君	-12.2995
内志正外體直	-12.2995
和曰先王之樂所以節百事也故有五節	-12.2995
節奏聲之飾也	-12.2995
若從徑三圍九之	-12.2995
三十二毫六百八十七絲六百一十七忽	-12.2995
四寸二分則其中間長短相距取用之數	-12.2995
如是而鑄之金	-12.2995
矣由之不才也	-12.2995
衆樂先之而已非能成之也	-12.2995
遡	-12.2995
譲	-12.2995
宋陳暘撰周禮訓義	-12.2996
兖	-12.2996
宙	-12.2996
神宗皇帝	-12.2996
孔子家語曰	-12.2996
□􁕠□􁕡□	-12.2996
奏采茨	-12.2996
挫	-12.2996
然後諸侯知所以敬五者天下之大	-12.2996
笴	-12.2996
角生姑洗姑洗生應鍾應鍾生	-12.2996
義不可不辨	-12.2996
許氏說文	-12.2996
安溪李氏	-12.2996
有逕庭	-12.2996
氣候晷刻	-12.2996
耽	-12.2996
颺	-12.2996
三十三毫五百四十八絲一百七十五忽	-12.2996
九寸以九因之得八寸一分應	-12.2996
釋奠大成樂	-12.2996
饗食賓射亦如之	-12.2996
椅桐梓漆	-12.2996
嘻	-12.2996
覇	-12.2996
司樂掌成均之法以治建國之學政	-12.2996
朝覲然後諸侯知所以臣耕	-12.2996
舜祠下得白玉琯	-12.2996
未免支離	-12.2996
轉上與髙接	-12.2996
以宫聲為用	-12.2996
凡射王奏騶虞諸侯奏貍首	-12.2996
愾	-12.2996
有精義存焉	-12.2996
絃緊一音旋為宫聲	-12.2996
分一百八十	-12.2996
絃之分轉為宫立宫位以主調遂為	-12.2996
自孟康以律之長十之一	-12.2997
蒿	-12.2997
后稷以配天宗祀文王於明堂以配上帝	-12.2997
鷩	-12.2997
太廟仲遂卒于垂壬午猶繹萬入去籥	-12.2997
又繼此而	-12.2997
五間南吕贊陽秀也	-12.2997
各當其分	-12.2997
注先鄭云	-12.2997
用竹律六十	-12.2997
鉏	-12.2997
之積實為法以	-12.2997
祭祀則鼓羽籥之舞	-12.2997
管吕之書	-12.2997
遶	-12.2997
雖見於經其詳不可得而知也	-12.2997
伶倫先得嶰谿之竹	-12.2997
六黄宫清聲之宫聲髙於羽	-12.2997
内穴孔而吹之以備黄	-12.2997
南應南姑	-12.2997
工字孔南吕	-12.2997
左執干右執戚	-12.2997
拽	-12.2997
檛	-12.2997
爾雅肉倍好謂之璧	-12.2997
聖人本隂陽别風聲審清濁	-12.2997
降而為二	-12.2997
隋劉焯	-12.2997
餘三寸九分零六毫	-12.2997
均之七聲以其	-12.2997
聲為始終是謂	-12.2997
境	-12.2998
□􁕚□􁕙□	-12.2998
射左射貍首右射騶虞而貫革之射息也	-12.2998
棟	-12.2998
浙	-12.2998
全度之散聲	-12.2998
綏我思成	-12.2998
齎	-12.2998
取一均間别其三寸九分	-12.2998
大昭小鳴和之道也	-12.2998
女媧始	-12.2998
工告樂備遂出	-12.2998
歸除之則得	-12.2998
田術三分益一得	-12.2998
絲為毫九毫為釐九釐為分九分為寸	-12.2998
聵	-12.2998
説之故言之言之不足故長言之	-12.2998
韶繼也夏大也殷周之樂盡矣	-12.2998
以九因之得四寸一分九釐四毫以此	-12.2998
古今樂律雜説并附錄辨	-12.2998
吾無以見聖人矣	-12.2998
四分五厘一毫六絲	-12.2998
尸出入則令奏肆夏牲出入則令奏昭夏	-12.2998
所以獻酬酳酢也所以官序貴賤各得其	-12.2998
王出入則令奏王夏	-12.2998
百一十二億七千三百七十二萬六千	-12.2998
皇帝室奏	-12.2998
寸八寸皆為尺矣	-12.2998
吕氏淮南子上下相生與司馬	-12.2998
有所受之也	-12.2998
又參之於寅得九又參之於夘得二十七	-12.2998
不猶愈於	-12.2998
以致鬼神示以和邦國以諧萬民以安	-12.2998
自北而南	-12.2998
王子年拾遺録	-12.2998
之一筆也	-12.2998
凑	-12.2998
明乎齊之音者見利而	-12.2998
有力而不能走	-12.2998
九寸之數管長四寸五分六月用為候氣	-12.2998
以象上帝玉磬之音	-12.2998
卄	-12.2998
治世之音安以樂其政和亂世之音	-12.2998
謐	-12.2998
顒	-12.2998
七徽為全度之半	-12.2999
不主故常	-12.2999
之情為制	-12.2999
也乃因而乗	-12.2999
凡祭祀饗射共其鐘笙之樂	-12.2999
堅實而	-12.2999
奏蕤賓歌函	-12.2999
少徴少羽	-12.2999
慰	-12.2999
憂樂以天下	-12.2999
所成之數盖九	-12.2999
所起之數隔	-12.2999
易犬馬	-12.2999
法曰置所得	-12.2999
而後世四清	-12.2999
腕	-12.2999
貫革之射	-12.2999
間歌三終合樂三終	-12.2999
陳祥道禮書	-12.2999
鵰	-12.2999
鷖	-12.2999
也此義亦	-12.2999
五毫三百七十五絲二百三十五忽	-12.2999
十二辰零鐘	-12.2999
大夹仲林夷無黄	-12.2999
戡	-12.2999
椑	-12.2999
雌雄之竹	-12.2999
饋饌	-12.2999
陽之辰也干	-12.2999
弦為大呂與第二弦散聲應按	-12.2999
蟄	-12.2999
擢	-12.2999
或偶用玉	-12.2999
說之故言之言之不足故長言之	-12.2999
鼠	-12.2999
以鍾鼓為節	-12.2999
也中庸曰	-12.2999
于社伐鼓于朝	-12.2999
已上該開	-12.2999
記曰歌之為言長言之也	-12.2999
變成方謂之音	-12.2999
隂陽皆錯亂而無倫非其本法也	-12.2999
三一一二五	-12.2999
之五聲故總其全體而命之曰黄	-12.2999
乘得一百寸	-12.2999
人生而靜	-12.2999
六寸八分一釐七毫九絲二忽	-12.2999
凡四方之以舞仕者屬焉	-12.2999
大鈞有鎛無鐘甚大無鎛鳴其細也	-12.2999
律依舊法算	-12.2999
次吹上字	-12.2999
永歌之不足故不知手之舞之足之蹈之	-12.2999
為下法用開方歸除法除之於	-12.2999
皆安其位	-12.2999
莆田李氏	-12.2999
竇	-12.2999
九十三萬七千二百九十八	-12.2999
十分其鉦間以其一為之厚	-12.3
詰	-12.3
一七七八七五	-12.3
譔	-12.3
千古未發	-12.3
孔開第	-12.3
底豫而天下之為父子者定	-12.3
五九三二七三七	-12.3
卿大夫奏采蘋士奏采蘩	-12.3
臍	-12.3
釘	-12.3
制禮作樂頒度量而天下大服	-12.3
稀	-12.3
奏肆夏賔拜酒主人	-12.3
寸為尺謬矣	-12.3
戌與卯合	-12.3
為遂六分其厚以其一為之深而圜之	-12.3
立靈星祠	-12.3
芮	-12.3
阬	-12.3
陿	-12.3
黽	-12.3
之外即為變宫調中之	-12.3
分夾而進事蚤濟也	-12.3
大鈞有鎛無鐘	-12.3
尺工尺一四	-12.3
數始於一成於三	-12.3
此所以祭先王之廟	-12.3
毫一百七十	-12.3
湊	-12.3
為衆樂之節	-12.3
砧	-12.3
遮	-12.3
鍾大而短則其聲疾而短聞	-12.3
平清瑟	-12.3
暢故不可用上而及半然後屬	-12.3001
一千五百四十七除之得次律	-12.3001
下上為正調下為清調	-12.3001
之宫而以其所穴之孔為黄	-12.3001
令去地尺餘灌之以水又以器盛水	-12.3001
六七八一一八六五四七五	-12.3001
同乎陽也	-12.3001
吕長六寸萬九千六百八十三	-12.3001
大饗不入牲其他皆如祭祀	-12.3001
奏肆夏公卒爵主人升受爵以下而樂闋	-12.3001
妻有服不舉樂於其側	-12.3001
情動於中	-12.3001
聞宫音使人	-12.3001
與商商與角	-12.3001
賔及庭	-12.3001
夷則徵夷	-12.3001
之聲無從而正	-12.3001
分之法而増益班志八字以就其	-12.3001
圍九分累黍容受不能相通遂廢一黍為	-12.3001
東都之亂樂律散	-12.3001
邕之時未亂當親見之又曉解律	-12.3001
膝	-12.3001
啼	-12.3001
悠悠	-12.3001
六十四之角位	-12.3001
凡六樂者文之以五聲播之以八音	-12.3001
前其柱則清後其柱則濁	-12.3001
鉦上謂之舞	-12.3001
水經註	-12.3001
親而不尊	-12.3001
詮	-12.3001
尺有四寸	-12.3001
清調以商為主平調以角為主	-12.3001
鍵	-12.3001
以金鐸通鼔	-12.3001
修身及家平均天下	-12.3001
南授生分烏	-12.3001
四十一毫六百四十四絲五百八十二忽	-12.3001
坦	-12.3001
天地之數五十有五	-12.3001
天然之妙	-12.3001
望敵知吉凶聞聲效勝負	-12.3001
武王伐殷	-12.3001
細抑大陵	-12.3001
翊	-12.3001
自此已後開至二十五位其術同前但	-12.3001
舂牘應雅以教祴樂	-12.3001
艾	-12.3001
角音木也	-12.3001
言隂應陽用事萬物	-12.3001
不以十二律節之則無以著夫五	-12.3001
倍應之聲靡不悉備	-12.3001
先儒未逹	-12.3001
刻日行	-12.3001
則十一律者又無所受以為本律之宫也	-12.3001
合朔伐鼓	-12.3001
和樂而不流	-12.3001
四尺五寸之琴	-12.3001
尺字孔林鐘為	-12.3001
復亂以飭歸	-12.3001
旄狄以舞之	-12.3001
此七調皆生於	-12.3001
羽角位用吟	-12.3001
荀朂笛律	-12.3001
言瑟不及琴	-12.3001
詩言其志也言之不足故嗟	-12.3001
賔入門而奏肆夏	-12.3001
賣	-12.3001
蹵鞠	-12.3001
鍾宫至夾鍾羽並用黄鍾起調黄鍾畢曲	-12.3001
鐘尚羽	-12.3001
驛	-12.3001
三品以上	-12.3001
四寸三分八釐五毫	-12.3002
呼二一添作五	-12.3002
言之不足故嗟嘆之嗟嘆之不足故	-12.3002
一一八六五四七五	-12.3002
禎	-12.3002
鍾多二斛	-12.3002
中吕上生黄鍾	-12.3002
以生空竅厚	-12.3002
其銘曰時文思索允臻其極	-12.3002
吕水尺實比晉前尺一尺一寸八分六	-12.3002
擊至夷則以下四管為宫之時臣民相越	-12.3002
於堂上事成而下	-12.3002
置一而九三之以為寸法者其術一也	-12.3002
鍼	-12.3002
□􁕕□􁕖□□􁕖□□􁕕□􁕖□	-12.3002
五二五三七一四五四	-12.3002
五分一厘三毫	-12.3002
其第六弦第七弦散	-12.3002
初散爲黄鍾濁聲初十徽	-12.3002
前方法内共得二	-12.3002
安豐王	-12.3002
於實第二位	-12.3002
樂在宗廟之中	-12.3002
液	-12.3002
無徽之分	-12.3002
萬物盛多	-12.3002
長樂陳氏曰	-12.3002
餘律首位	-12.3002
天三生木	-12.3003
窮於角其	-12.3003
纍纍乎端如貫珠	-12.3003
列管匏中施簧管端	-12.3003
坎音革	-12.3003
大禘大祫	-12.3003
屈茨琵琶	-12.3003
應二十四時	-12.3003
祖所自出	-12.3003
伯髙曰	-12.3003
奸	-12.3003
斛斯徵	-12.3003
衛靈公	-12.3003
除二變不用	-12.3003
一孔取三音	-12.3003
七音五音並	-12.3003
人心之動物使之然	-12.3003
以和邦國以諧萬民	-12.3003
凡樂圜鐘為宮黄	-12.3003
在十二律之外自為一	-12.3003
夫樂者象成者也	-12.3003
寸次之故黄鍾	-12.3003
愼	-12.3003
所升之数	-12.3003
烏孫公主	-12.3003
父有服宫中子不	-12.3003
疑七弦隔一調之六弦皆應	-12.3003
盛軌同律度量哲后通規臣等詳校前經	-12.3003
禮器曰縣鼓在西應鼓在東	-12.3003
笮	-12.3003
舞莫重於武宿夜	-12.3003
謂之慢如此則國之滅亡無日矣	-12.3003
頁至十	-12.3003
髠	-12.3003
年耕必有	-12.3003
或言照	-12.3003
煜	-12.3003
羽與散羽應也義各有當初不相須故不	-12.3003
調黄鐘變半之	-12.3003
首位一是一尺	-12.3003
一生二二生三三生萬物	-12.3003
開平方法除之得	-12.3003
圍中容九方分也	-12.3003
太簇為徴姑洗為羽	-12.3003
劭	-12.3003
蜜	-12.3003
宣八年辛巳有事于	-12.3003
頑	-12.3003
不深考	-12.3003
細調瑣曲	-12.3003
中吕還生黄鍾	-12.3003
知樂則幾於禮矣	-12.3003
自鶉及駟七列	-12.3003
乾之九二	-12.3003
司戈盾祭祀授舞者兵	-12.3003
大太夾姑仲	-12.3003
夷則三分夷則損一下生夾	-12.3003
如天之無不覆	-12.3003
然季氏謂	-12.3003
第七聲即第二聲	-12.3003
第六聲即第一聲	-12.3003
韋昭之時漢斛雖在而律不存矣康昭	-12.3003
九聲者以五正	-12.3003
以儀禮考之	-12.3003
六律六吕各有管故曰十二筒	-12.3003
則一與三者角與散角應也二與四者	-12.3003
執而鳴之以止	-12.3003
所含之少聲	-12.3003
洋洋乎如在其上如在其左右	-12.3003
為善曰此華夏舊聲雖隨俗改變大體	-12.3003
舉旌以宮偃旌以商	-12.3003
葛之覃兮施于中谷維葉	-12.3003
見胡瑗樂	-12.3003
阮逸胡瑗尺横累一百黍	-12.3003
隂律國語曰間	-12.3003
隋平陳	-12.3003
三其九得二十七	-12.3004
徽定之實音為仲吕散聲即黄鍾四弦	-12.3004
丹陽記	-12.3004
執始生去滅	-12.3004
有慈姥山	-12.3004
王褒賦	-12.3004
聲歌各有宜	-12.3004
以六耦射三侯三獲三容樂以騶虞九節	-12.3004
揖譲	-12.3004
𡨕	-12.3004
南北之揆七同	-12.3004
宇文周時	-12.3004
故表出之	-12.3004
比物以飾節	-12.3004
者樂録云	-12.3004
至之音始也其親底豫而天下化終也	-12.3004
芻	-12.3004
薦毛血	-12.3004
雖低不至於	-12.3004
一七一八	-12.3004
乃是以律之長自乗而因之以十	-12.3004
今之簫制	-12.3004
儷	-12.3004
出則征誅入則揖	-12.3004
十六丈二尺	-12.3004
建鼔在阼階西南鼔應鼙在其東	-12.3004
律以一尺二寸即為市尺	-12.3004
徳也下而管象示事也	-12.3004
惟禁小指	-12.3004
戻	-12.3004
為宮太簇為角姑洗為徴南呂為羽	-12.3004
環佩之聲	-12.3004
笏	-12.3004
籔	-12.3004
萬六千三百六十八忽	-12.3004
見温公尺	-12.3004
谿谷	-12.3004
避射位	-12.3004
金谿黄	-12.3004
龠容千二百黍重十二銖兩之為兩二十	-12.3004
一枚分作兩段全律半律各令一人吹之	-12.3004
上字孔仲吕為	-12.3004
不能貫知權量之法	-12.3004
之五聲皆自東而西相為次第其六弦㑹	-12.3004
之律一様二枚	-12.3004
九分惟黄鍾	-12.3004
加於人一等矣	-12.3004
四五六一八二五右乃應鍾倍律積	-12.3004
夾振之而駟伐	-12.3004
復用倒載干戈包之以虎皮將帥之士使	-12.3004
所以永吾	-12.3004
所樂之極	-12.3004
故角徴之間近徴	-12.3004
故謂之宣所以宣三王之徳也	-12.3004
曰建櫜然後天下知武王之不復用兵也	-12.3004
有五象五行也	-12.3004
横黍一百分	-12.3004
濁倍也低	-12.3004
為積分十七萬七千一百四十七黄鍾	-12.3004
特磬仲吕歌舞	-12.3004
特磬林鐘歌舞太簇歌舞林鐘歌鐘	-12.3004
盖謂此也	-12.3004
禮樂皆得謂之有徳	-12.3004
細鈞角	-12.3004
緊絃慢絃	-12.3004
肝而張齒湧吻謂之角	-12.3004
等不通律吕故康	-12.3004
黄鐘大吕太簇夾鐘姑洗仲吕	-12.3004
無從而生周之嘉量漢之銅斛皆不合其	-12.3004
十六萬二千	-12.3005
地四生金	-12.3005
達神明之徳	-12.3005
餘絃俱	-12.3005
寤寐	-12.3005
氣無滯隂亦無散陽	-12.3005
奏族夏客醉而出奏祴夏公出入奏驁夏	-12.3005
小大器用於是乎出	-12.3005
粟米法少二升八十一分升之二十二	-12.3005
紀之以三平之以六成於十二天之道也	-12.3005
若事有乖此聲則不和	-12.3005
七百五十絲	-12.3005
三分而去其乘適足以是生商	-12.3005
下管新宫笙入三成遂合鄉樂若舞則勺	-12.3005
主四月極不生	-12.3005
九夏之樂以王夏為	-12.3005
二分二厘四毫八絲	-12.3005
以其始鼓	-12.3005
冕而舞大武皮弁素積裼而舞大夏	-12.3005
削以嶧陽之桐	-12.3005
天子八八諸侯六八大夫四八士二八	-12.3005
容黍千二百	-12.3005
故律四十二吕三十六	-12.3005
柷以合樂而作之必鼓之欲	-12.3005
武坐也	-12.3005
濟河而西馬散之華山之陽而弗復	-12.3005
無射長四寸四分三分二應	-12.3005
總不出十二	-12.3005
者皆出於笙師所教無非竹音之雅樂也	-12.3005
肆夏昭夏納夏章夏齊夏族夏祴夏驁夏	-12.3005
胡安定律吕議曰	-12.3005
至亥得十七萬七千一百四十七	-12.3005
象雷其形象天其於樂	-12.3005
銲	-12.3005
鎛鐘無射特磬	-12.3005
鐘其南鑮皆南陳一建鼓在其南東鼓	-12.3005
間近宫收一聲少髙於宫故謂之變宫也	-12.3005
互藏其宅	-12.3005
律其黄鍾應古	-12.3005
四寸七分律長四寸二十七分寸之二十	-12.3005
隂陽相生自黄鐘始而左旋八八為伍	-12.3005
驗使不失其實也	-12.3005
梁表尺三	-12.3005
坤之上六	-12.3005
寰	-12.3005
子榖秬黍	-12.3005
於殿前	-12.3005
篇起調畢曲用	-12.3005
通不用商合一	-12.3005
摶牘鏞琴	-12.3005
熱	-12.3005
十有六人	-12.3005
南吕為徑三分圍九分無射為徑二分八	-12.3005
濵得古磬十六枚	-12.3005
窮髙極遠而測深厚	-12.3005
伶倫採竹	-12.3005
姥	-12.3005
舞上謂之甬甬上謂之衡	-12.3005
舞以動其容	-12.3005
八四六七四	-12.3005
木倨中矩句中鉤纍纍乎端如貫珠	-12.3005
生簫管竹	-12.3005
頒之天下	-12.3005
見利而讓	-12.3005
一寸七分七釐	-12.3005
不編者也	-12.3005
劾	-12.3005
十尺為丈	-12.3005
半二寸七分二釐五毫	-12.3005
古樂既亡	-12.3005
大吕十六萬五千八百八十八	-12.3005
子曰若非武音則何音也對曰有司失其	-12.3005
徴音使人樂	-12.3005
推而至于	-12.3005
欲于七聲之外加一黄	-12.3005
祭奏齊夏族人侍	-12.3005
聲氣之元也班固所謂黄帝使伶倫取竹	-12.3005
舞師馮肅	-12.3005
裴正以為舜開七始周制七音並不用八	-12.3005
魏延陵	-12.3005
三分三厘四毫	-12.3005
不殖貨利	-12.3005
五一九六八一九九四七四七五一七	-12.3005
仕於伶官	-12.3005
凡樂官掌其政令聽其治訟	-12.3005
君父有節臣子有義	-12.3005
圜而環之令	-12.3005
孔之籥豈其	-12.3005
宮大呂為角太簇為徴應	-12.3005
常歌工病其太濁歌不成聲私賂鑄工使	-12.3005
律述氣	-12.3005
既醉而出並受其福醉而不出是謂伐徳	-12.3005
朝日夕月	-12.3005
樂者天地之和禮者天地之序	-12.3005
樂者審一以定和	-12.3005
檿桑之絲徽以麗水之金軫以崑山之玉	-12.3005
母有服	-12.3005
聲七調皆生于	-12.3005
莱	-12.3005
閠	-12.3005
體中翕聲	-12.3005
黄鍾起子	-12.3005
立均出度	-12.3006
之龠圍徑容受可取四者之法交相	-12.3006
祖孝孫云相承傳是蔡邕銅	-12.3006
管長五寸三分律長五寸三分寸之一	-12.3006
太林黄仲無夾夷大㽔應姑南太林黄仲	-12.3006
褥	-12.3006
非弦不歌	-12.3006
非歌不弦	-12.3006
魚麗南有嘉魚南山有臺	-12.3006
及徹帥學士而歌徹	-12.3006
黄鐘小素之首以成宫	-12.3006
已薄則播	-12.3006
珮	-12.3006
七調不用羽調	-12.3006
以無射倍聲	-12.3006
信則十一律與度量權衡者得矣	-12.3006
八十三毫二百八十九絲一百六十五忽	-12.3006
其節之志以不失其事則功成而德行立	-12.3006
奏太簇歌應鐘舞咸池以祭地	-12.3006
故書同作銅	-12.3006
方有西有北	-12.3006
箑	-12.3006
一乘丑三	-12.3006
之雌雄故	-12.3006
乗圍必有三	-12.3006
九十四毫一百五十二絲四百二十五忽	-12.3006
二分五厘五毫	-12.3006
共鐘笙之樂	-12.3006
國有大故	-12.3006
如淳曰	-12.3006
寸三歸得	-12.3006
律吕之數或還或否	-12.3006
懐祖宗氣體則同呼吸相通	-12.3006
樂比舊樂下三律	-12.3006
祭祀則鼓羽籥之舞賔客饗食則亦如之	-12.3006
通其大數	-12.3006
隋書律志	-12.3006
淮南子天文	-12.3006
鐘鼓既設	-12.3006
有奇舊法置	-12.3006
分七百八十釐	-12.3007
為分十分為寸十寸為	-12.3007
神其来	-12.3007
止乎禮義	-12.3007
商者五帝之遺聲也商人識之故謂之商	-12.3007
宜陽金門山竹	-12.3007
昏姻冠笄	-12.3007
臨事而屢斷	-12.3007
闗雎葛覃卷耳	-12.3007
卷七上第	-12.3007
董仲舒	-12.3007
世罕知音反以	-12.3007
故别言之	-12.3007
林鍾夷則南呂無射應鍾五律	-12.3007
百黍之重為今之一錢	-12.3007
禮之用和為貴	-12.3007
酋	-12.3007
龔	-12.3007
䧺	-12.3007
之調皆得三分之次故用正律之聲	-12.3007
人用之故又名	-12.3007
仲春之月上丁命樂正習舞釋	-12.3007
八分八釐一毫八絲八忽九微四纎	-12.3007
其孔則無聲	-12.3007
分其亥之一十七萬七千一百四十七為	-12.3007
勢象羞惡之義三曰	-12.3007
囚使之行商容而復其位庶民弛政庶士	-12.3007
尚角匏竹	-12.3007
左手吹畢置於右手復取一律吹之	-12.3007
弦散聲微低	-12.3007
恵	-12.3007
撻	-12.3007
操之為言持也縵之為言緩也	-12.3007
有斷句	-12.3007
横黍為分之十寸也寸皆十分凡百分	-12.3007
漢志謂黄鍾之律九寸加一寸	-12.3007
漢書所載甚詳然不得其要史記所載甚	-12.3007
為堵全為肆	-12.3007
特磬南吕歌舞姑洗歌舞	-12.3007
畢參觜	-12.3007
聲之數也因	-12.3007
能以耳齊	-12.3007
臉	-12.3007
與人歌而善必使反之而後和之	-12.3007
豈其然乎	-12.3007
豈足怪哉	-12.3007
質直聲	-12.3007
合三分損益轉生十一律	-12.3007
塚	-12.3007
射為角吹四字按十一徽定之實音為太	-12.3007
岳内約有一肘	-12.3007
仙吕宫	-12.3007
以子榖秬黍中者一千二百實其龠	-12.3007
以樂舞教國子	-12.3007
得二十七又參之於辰得八十一又參之	-12.3007
變成方	-12.3007
闈	-12.3007
以一聲叶一字則古詩篇篇	-12.3007
塞上鴻	-12.3007
大師執同律以聽軍聲而詔吉凶	-12.3007
杭	-12.3007
辰與酉合	-12.3007
丑得三又參之於寅得九又參之於	-12.3008
亞飯干適楚三飯繚適蔡四飯缺適秦	-12.3008
以見度非度無以見律律不生於度與黍	-12.3008
合陰陽之聲	-12.3008
姊	-12.3008
後漢書律厯志云	-12.3008
有隂陽之分	-12.3008
焉三者行然後	-12.3008
西階之東	-12.3008
釀	-12.3008
鏘鏘	-12.3008
㣲九歸得	-12.3008
七月建焉而辰在鶉尾中吕已	-12.3008
三分益一再生黄	-12.3008
上生太簇為商下生南	-12.3008
之率十四兆	-12.3008
九百四十二忽	-12.3008
五微五百五十	-12.3008
傳稱黄帝命伶倫㫁竹長三寸九分而吹	-12.3008
六月建焉而辰在鶉火夷則申之氣	-12.3008
准此然	-12.3008
凡七十有八	-12.3008
分八百七十一釐八百	-12.3008
前廣後	-12.3008
動四氣之和	-12.3008
[...]
