<unk>	0
<s>	0
</s>	0
,	-2.28532
。	-2.88287
、	-3.90216
:	-4.68867
▁*	-4.85222
也	-5.08972
;	-5.14317
〕	-5.16271
者	-5.17913
「	-5.18847
》	-5.25186
▁〔	-5.27761
《	-5.28812
二	-5.30092
一	-5.30825
」	-5.40161
故	-5.40617
之	-5.46153
:「	-5.52741
為	-5.57324
?	-5.58242
的	-5.58791
。」	-5.60781
)	-5.6742
有	-5.74421
三	-5.76782
(	-5.78806
是	-5.8113
而	-5.87742
不	-5.9091
中	-5.92503
於	-5.92662
明	-5.94289
以	-5.94478
▁	-6.0199
無	-6.06692
心	-6.06778
法	-6.09104
等	-6.1348
此	-6.16428
如	-6.16571
與	-6.21669
人	-6.21934
行	-6.28019
在	-6.29034
即	-6.30653
四	-6.33851
若	-6.3448
言	-6.34945
經	-6.35027
曰	-6.35792
生	-6.35948
。】「	-6.37317
相	-6.38166
】	-6.38585
時	-6.40606
▁【	-6.41664
我	-6.46856
身	-6.51745
及	-6.531
說	-6.53761
。」【	-6.54582
其	-6.58528
得	-6.59242
見	-6.59289
分二	-6.61083
。(	-6.64783
佛	-6.64934
名	-6.65802
非	-6.65834
大	-6.67215
則	-6.67668
菩薩	-6.68246
因	-6.68912
-	-6.6955
依	-6.73556
自	-6.73725
從	-6.75678
謂	-6.76824
所	-6.78914
作	-6.79359
能	-6.81881
上	-6.82816
問	-6.84534
至	-6.84601
五	-6.85027
眾生	-6.85205
亦	-6.85221
彼	-6.85269
處	-6.88015
如來	-6.88869
云	-6.90413
後	-6.90964
他	-6.9112
!	-6.92066
應	-6.92904
如是	-6.93082
諸	-6.93497
或	-6.93685
已	-6.94639
又	-6.94734
肇	-6.94916
本	-6.96435
子	-6.96469
釋	-6.96997
受	-6.97046
初	-6.97904
道	-6.98248
義	-7.00149
了	-7.00711
事	-7.0182
對	-7.04421
▁|	-7.04573
。「	-7.04805
入	-7.07832
號	-7.08086
來	-7.08606
地	-7.09696
但	-7.0996
起	-7.10969
出	-7.1151
由	-7.12338
一切	-7.12656
多	-7.12748
前	-7.1381
常	-7.14384
成	-7.15106
欲	-7.1592
果	-7.17495
同	-7.17794
當	-7.18301
善	-7.18488
色	-7.18766
皆	-7.191
未	-7.19251
解	-7.19627
卯	-7.20037
下	-7.20677
空	-7.2103
答	-7.22834
住	-7.23762
智	-7.2491
世尊	-7.25053
〔	-7.25146
觀	-7.25298
天	-7.25533
可	-7.25937
論	-7.26239
知	-7.26857
意	-7.2884
苦	-7.29008
盡	-7.29521
寅	-7.30555
辰	-7.32327
體	-7.3318
丑	-7.33601
」。	-7.3405
卷	-7.34204
性	-7.3507
雖	-7.3516
。)	-7.3554
巳	-7.35904
六	-7.36903
眾	-7.37179
定	-7.3722
破	-7.37946
壬	-7.38351
念	-7.38505
和	-7.38853
緣	-7.38957
修	-7.39365
將	-7.39451
分三	-7.39957
理	-7.40254
今	-7.40534
用	-7.40735
王	-7.42394
想	-7.4265
所以	-7.42948
教	-7.43423
」,	-7.43436
願	-7.43648
真	-7.44424
辛	-7.44555
現	-7.4526
引	-7.4546
業	-7.46409
文	-7.46472
門	-7.46682
耶	-7.46807
己	-7.47378
正	-7.48202
結	-7.48283
先	-7.49469
難	-7.50542
斷	-7.5163
七	-7.51786
界	-7.52129
滅	-7.5234
癸	-7.52447
就	-7.52745
八	-7.53159
過	-7.53502
離	-7.53992
然	-7.5442
並	-7.5466
既	-7.55366
唵	-7.55942
去	-7.56136
樂	-7.56157
錄	-7.56643
淨	-7.56984
分	-7.56997
復	-7.5726
年	-7.57326
令	-7.57354
著	-7.57359
要	-7.59118
力	-7.59228
內	-7.59251
唯	-7.60337
煩惱	-7.60533
識	-7.60747
功德	-7.62602
》、《	-7.63131
取	-7.63339
次	-7.64068
外	-7.64109
汝	-7.65002
不能	-7.65045
須菩提	-7.65611
化	-7.65912
會	-7.65984
名為	-7.66193
求	-7.66447
標	-7.66607
聞	-7.66761
還	-7.68625
語	-7.68742
指	-7.69022
除	-7.69944
具	-7.70549
通	-7.72391
部	-7.72744
日	-7.73026
庚	-7.7343
都	-7.7361
云何	-7.73768
何	-7.73787
施	-7.73816
」【	-7.74658
約	-7.74749
斯	-7.74758
根	-7.74974
隨	-7.74997
到	-7.75069
罪	-7.754
光	-7.75662
境	-7.75963
解脫	-7.76019
分別	-7.76037
重	-7.76321
父母	-7.76421
。」「	-7.77102
午	-7.7745
別	-7.77456
立	-7.77465
捨	-7.7779
俱	-7.78146
世	-7.78804
十	-7.79512
開	-7.79936
第二	-7.80206
清淨	-7.80563
持	-7.80657
丁	-7.80726
即是	-7.81585
戒	-7.82229
?」	-7.82798
學	-7.84379
轉	-7.84553
你	-7.84677
證	-7.85102
實	-7.85276
方	-7.85414
請	-7.8694
便	-7.86995
命	-7.87016
.)	-7.8748
師	-7.8787
向	-7.87913
食	-7.88065
深	-7.8847
有情	-7.8863
水	-7.88684
使	-7.88997
共	-7.8929
生死	-7.89526
註釋	-7.89658
稱	-7.89688
聲	-7.90166
利	-7.90248
不同	-7.90658
德	-7.90992
餘	-7.91269
報	-7.91609
顯	-7.91767
惡	-7.91853
神	-7.92147
丙	-7.92157
供養	-7.92265
悉	-7.92543
大乘	-7.93509
喻	-7.9383
乃	-7.9399
異	-7.9435
止	-7.94747
信	-7.95071
那	-7.95174
修行	-7.9546
被	-7.95479
涅槃	-7.95863
九	-7.95947
勝	-7.9682
香	-7.97459
更	-7.97499
世間	-7.97557
法身	-7.97576
.	-7.97815
合	-7.98238
發	-7.98412
物	-7.98412
藏	-7.98606
總	-7.98745
慧	-7.98975
□...□	-7.99034
這	-7.99674
比丘	-8.00018
愛	-8.00682
攝	-8.00858
須	-8.01066
地獄	-8.01472
度	-8.01828
位	-8.02066
一卷	-8.02151
集	-8.02333
死	-8.02441
福	-8.02903
覺	-8.03576
T	-8.03578
親	-8.0405
方便	-8.04369
母	-8.04439
)。	-8.04667
廣	-8.0515
真言	-8.05195
宗	-8.05296
好	-8.05431
僧	-8.05558
聖	-8.06255
戊	-8.06337
悟	-8.06583
小	-8.07095
各	-8.07135
阿	-8.07287
舉	-8.07311
形	-8.07436
娑婆訶	-8.08041
極	-8.0861
爾時	-8.09052
火	-8.09522
妙	-8.09594
長	-8.09971
無有	-8.10066
耳	-8.10561
乙	-8.10773
今初	-8.10829
記	-8.10933
往	-8.11184
品	-8.11214
主	-8.11449
諸佛	-8.11561
必	-8.11822
執	-8.11916
觸	-8.1197
南無	-8.12659
a	-8.1288
何以故	-8.13964
傳	-8.1495
不得	-8.15234
遠	-8.15327
乃至	-8.15328
2	-8.15565
數	-8.15608
略	-8.15901
寶	-8.16434
且	-8.16439
菩提	-8.17029
照	-8.17138
坐	-8.1752
第一	-8.17681
是故	-8.18493
阿難	-8.19714
遍	-8.20544
病	-8.20551
帝	-8.20587
如此	-8.20925
眼	-8.21288
」(	-8.21389
分四	-8.21389
國	-8.2186
故論文言	-8.21986
智慧	-8.22694
思	-8.22784
貪	-8.22831
凡	-8.23057
第三	-8.23588
它	-8.23595
故言	-8.23628
字	-8.23754
三念佛	-8.24693
口	-8.2531
白	-8.25357
種	-8.25375
無量	-8.25641
他們	-8.25923
啊	-8.26281
情	-8.26343
家	-8.26849
諸比丘	-8.26995
類	-8.27214
平等	-8.27353
兩	-8.2745
目	-8.28331
把	-8.28512
現在	-8.2852
終	-8.2925
差別	-8.29835
禪	-8.30068
於彼	-8.30307
女	-8.31527
三界	-8.3168
所有	-8.32339
成就	-8.32518
無常	-8.33162
不可	-8.33219
風	-8.33252
劫	-8.3376
無相	-8.34011
所謂	-8.34109
自在	-8.34425
猶	-8.34505
動	-8.34611
具足	-8.35074
佛教	-8.35627
此二	-8.3587
佛言	-8.35902
世界	-8.35902
乎	-8.36304
月	-8.36631
可以	-8.36637
失	-8.36651
味	-8.37354
海	-8.37501
頭	-8.37953
凡夫	-8.38002
述	-8.38622
迷	-8.38893
精進	-8.39238
滿	-8.39824
安樂	-8.39962
無明	-8.40016
高	-8.40017
許	-8.40066
山	-8.40095
不應	-8.40265
之中	-8.40338
安	-8.40586
似	-8.40647
歸	-8.40799
夫	-8.40891
歡喜	-8.41156
衣	-8.4132
以為	-8.4137
1	-8.41701
羅	-8.42953
不見	-8.43094
看	-8.43264
諸法	-8.43668
圓滿	-8.43779
說法	-8.43838
卻	-8.44081
禮	-8.44157
我今	-8.44207
禪藏	-8.44209
經曰	-8.44223
此初	-8.44234
自然	-8.4437
始	-8.44514
白佛言	-8.44776
量	-8.44999
惑	-8.45239
聽	-8.45305
造	-8.45448
誰	-8.45747
金剛	-8.46186
二者	-8.46319
微	-8.46395
護	-8.46463
萬	-8.46567
書	-8.47041
存	-8.47055
流	-8.47241
示	-8.47347
因緣	-8.47644
尊	-8.47705
金	-8.47714
聚	-8.47973
順	-8.48059
□	-8.48256
不生	-8.48613
法界	-8.48663
然後	-8.49012
花	-8.49317
慈	-8.49353
故名	-8.49586
國王	-8.49589
少	-8.49728
妄	-8.50008
手	-8.5035
甲	-8.50666
該	-8.50726
之心	-8.50812
近	-8.50958
足	-8.51065
第	-8.51091
道場	-8.51369
出家	-8.51515
父	-8.51515
居	-8.52196
蘊	-8.52304
莫	-8.52381
此經	-8.52516
一切眾生	-8.52561
故云	-8.52639
她	-8.52911
3	-8.52931
千	-8.53165
我們	-8.53396
聲聞	-8.53903
頌	-8.53954
」、「	-8.54069
於此	-8.5409
疑	-8.541
是名	-8.54102
一時	-8.54108
莊嚴	-8.5453
是以	-8.54998
經典	-8.55162
像	-8.55418
忍	-8.55474
豈	-8.55712
如何	-8.55893
由於	-8.55907
之時	-8.56029
何故	-8.56078
5	-8.56111
不知	-8.56163
故知	-8.56351
7	-8.56377
慈悲	-8.56447
達	-8.56573
面	-8.56923
其中	-8.58149
自性	-8.58484
塵	-8.58506
釋曰	-8.58679
決定	-8.5949
舍利弗	-8.59672
疏	-8.60343
再	-8.60821
種種	-8.615
矣	-8.62037
鼻	-8.62064
無為	-8.62099
猶如	-8.62194
邪	-8.63077
悲	-8.63127
生起	-8.63454
第四	-8.63576
城	-8.63831
絕	-8.63915
解釋	-8.63922
恩	-8.63991
障	-8.64368
某	-8.64513
這個	-8.64671
。」】「	-8.64699
三寶	-8.64709
二釋	-8.64757
分明	-8.64969
如論	-8.6498
供	-8.65411
因此	-8.65541
乘	-8.65563
而不	-8.65623
又問	-8.65758
所說	-8.65777
加	-8.65906
爾	-8.65928
中有	-8.66068
散	-8.66492
僅	-8.66651
表	-8.66683
十方	-8.66825
敬	-8.66838
此是	-8.66918
殺	-8.672
加持	-8.67231
般若	-8.67529
粗	-8.67866
益	-8.68086
喜	-8.68187
增	-8.68366
哆	-8.68672
新	-8.68672
十二	-8.68724
真如	-8.688
無邊	-8.69157
亦無	-8.69254
囉	-8.69296
一一	-8.69338
之人	-8.69425
過去	-8.69492
遮	-8.69729
土	-8.69769
這些	-8.6992
樹	-8.70045
夜	-8.70208
弟子	-8.70276
二乘	-8.70544
象	-8.7058
偈	-8.70691
。」(	-8.70734
陀	-8.70755
魔	-8.71291
福德	-8.71332
此中	-8.71357
8	-8.71506
比	-8.71526
907	-8.71553
普	-8.72005
4	-8.72059
初中分	-8.72251
以此	-8.72647
全	-8.7271
列	-8.73084
竟	-8.73097
趣	-8.73776
因果	-8.74416
最	-8.74549
婆	-8.74552
波	-8.74857
句	-8.74925
伯	-8.74928
無漏	-8.75102
輪	-8.75195
發心	-8.75506
沒有	-8.7554
藥	-8.75547
小乘	-8.75769
大士	-8.76122
婆羅門	-8.76203
外道	-8.76524
百	-8.76541
壞	-8.76595
文字	-8.76681
譯	-8.76774
密	-8.76984
之法	-8.77638
興	-8.78167
經文	-8.78212
尚	-8.7836
6	-8.78537
之後	-8.78614
直	-8.78681
瞋	-8.78756
此三	-8.78775
悉皆	-8.7887
勸	-8.79076
息	-8.79088
路	-8.79175
北	-8.79233
尋	-8.79248
間	-8.79304
原	-8.79314
奉	-8.79561
清	-8.79756
續	-8.79783
次第	-8.80106
獨	-8.80421
佛說	-8.80486
無生	-8.80554
財	-8.8071
害	-8.80877
太子	-8.80888
久	-8.80928
摩訶	-8.81005
摩	-8.81099
肉	-8.81342
究竟	-8.81528
迴向	-8.81537
聖人	-8.8175
雜	-8.81848
已經	-8.81917
我等	-8.81929
強	-8.82331
伏	-8.82355
讚	-8.82434
計	-8.82455
他人	-8.82544
嚩	-8.82603
不住	-8.82649
諸眾生	-8.82721
養	-8.8284
伽	-8.83029
曾	-8.8379
研究	-8.83959
虛空	-8.83999
人天	-8.84069
正法	-8.84521
假	-8.84523
感	-8.84626
自己	-8.84774
甚	-8.84802
頌曰	-8.84825
顛倒	-8.84982
亦不	-8.85022
縛	-8.85493
不動	-8.85657
佛如來	-8.85835
一個	-8.85958
》(	-8.8608
據	-8.86173
孝	-8.86551
齊	-8.86604
智者	-8.8663
大眾	-8.8693
若有	-8.86962
大悲	-8.87001
未來	-8.8713
勿	-8.87299
思維	-8.87302
三昧	-8.87524
印	-8.87785
部分	-8.8792
宜	-8.8798
申	-8.88098
觀察	-8.88187
圓	-8.88332
均	-8.88352
歎	-8.88494
致	-8.88522
一念	-8.88577
?」【	-8.88605
速	-8.88799
誦	-8.89004
迦	-8.89007
沒	-8.89033
寧	-8.89037
裏	-8.89432
利益	-8.89532
功	-8.89686
關於	-8.89789
這樣	-8.89959
遂	-8.89999
淨土	-8.90263
權	-8.90678
積	-8.90683
仍	-8.90698
節	-8.90834
內外	-8.90874
光明	-8.90939
虛	-8.91086
永	-8.91241
法門	-8.91269
舌	-8.91294
犯	-8.91564
上述	-8.91645
四大	-8.91725
佛法	-8.91741
實相	-8.91759
邊	-8.91847
屬	-8.91922
告	-8.91959
亡	-8.92023
老	-8.92113
之因	-8.92378
禪定	-8.92748
華	-8.9283
傷	-8.92865
當時	-8.9296
底	-8.93018
貪著	-8.93031
由此	-8.93238
能生	-8.93291
輕	-8.93461
咒	-8.93608
可見	-8.93618
遇	-8.93704
等也	-8.93756
目錄	-8.93864
亂	-8.93949
什曰	-8.94007
蓋	-8.94125
辨	-8.94128
雲	-8.94176
帙	-8.94205
志	-8.94333
故曰	-8.94784
之理	-8.94977
俗	-8.95179
音	-8.95254
無我	-8.95486
內容	-8.95653
一切法	-8.9566
備	-8.95701
佛性	-8.95911
首	-8.96304
諸天	-8.96311
尾	-8.96648
▁《	-8.96968
輪迴	-8.97405
吽	-8.97433
哩	-8.97694
恭敬	-8.97752
訶	-8.97817
舍	-8.97845
雖然	-8.97978
亦名	-8.98207
今日	-8.98309
身心	-8.98317
獲	-8.98562
辭	-8.9858
一樣	-8.98705
名之為	-8.98736
遊	-8.99076
推	-8.99114
昔	-8.9974
沙門	-8.99924
收	-8.99993
不淨	-9.00088
何以得知	-9.00249
作為	-9.00257
成佛	-9.00391
燈	-9.00438
呢	-9.00444
第五	-9.00541
齋	-9.00669
制	-9.00673
哉	-9.01038
機	-9.01192
染	-9.01217
復次	-9.01302
心中	-9.01365
懷	-9.01573
無礙	-9.01573
祇	-9.01611
細	-9.01626
,」【	-9.0169
善惡	-9.01806
倒	-9.01922
自身	-9.01966
寺	-9.01978
三種	-9.02034
切	-9.02057
玄	-9.02061
易	-9.0213
殊勝	-9.0215
尊者	-9.02249
有三	-9.02352
大王	-9.02413
紙	-9.02435
尼	-9.02495
回	-9.02602
無上	-9.02745
治	-9.02975
習	-9.03027
受持	-9.03405
周	-9.03428
變	-9.03534
座	-9.03626
癡	-9.03843
元	-9.03874
釐米	-9.04079
皈依	-9.04629
總結	-9.04713
宣	-9.04771
迦葉	-9.04798
已下	-9.05009
陰	-9.05035
)「	-9.05062
一者	-9.05093
資	-9.05118
設	-9.05284
任	-9.05439
金剛經	-9.05608
進	-9.05703
野	-9.05935
講	-9.06086
靜	-9.06097
序	-9.06141
墮	-9.06157
疾	-9.06171
林	-9.0658
您	-9.06638
應知	-9.06861
寂滅	-9.06939
燒	-9.07211
置	-9.07273
維摩詰	-9.07572
提	-9.07629
三乘	-9.07809
每	-9.07889
如是我聞	-9.07938
眷屬	-9.08067
龍	-9.08312
惱	-9.08424
生滅	-9.08493
南	-9.08507
之所	-9.08551
君	-9.08567
有無	-9.08757
容	-9.0877
20	-9.08807
)(	-9.09043
簡	-9.09056
恒	-9.09062
消	-9.09216
載	-9.09416
可知	-9.09735
恐	-9.09818
對治	-9.09823
於意云何	-9.09942
篇	-9.09949
垂	-9.09953
漏	-9.09993
末	-9.10234
降	-9.10427
」。「	-9.10428
中的	-9.10445
麼	-9.10479
出生	-9.10671
現前	-9.10728
分五	-9.10996
反	-9.11181
瞋恚	-9.11471
所作	-9.11475
左	-9.11495
脫	-9.1155
放	-9.11567
精	-9.1176
幾	-9.11839
這種	-9.1213
半	-9.12519
待	-9.12561
善男子	-9.12682
娑	-9.12746
彌	-9.12853
懺悔	-9.13014
無所	-9.13118
惟	-9.13244
遣	-9.1343
邪見	-9.13452
守	-9.13458
所依	-9.13585
解結	-9.13928
無盡	-9.14056
文三	-9.14109
答曰	-9.14185
本文獻	-9.14651
法性	-9.1498
寂	-9.15045
三世	-9.15051
e	-9.15081
代	-9.15097
錄文完	-9.15161
贊	-9.15162
宗密	-9.15299
支	-9.15358
相應	-9.1539
因為	-9.15421
第六	-9.15441
相續	-9.15539
大藏經	-9.15634
救	-9.1565
ḥ	-9.15717
寶髻	-9.15876
兒	-9.15879
垢	-9.16003
一標	-9.16237
建立	-9.16312
之事	-9.16327
若爾	-9.16392
沙	-9.16637
依據	-9.16706
陳	-9.16775
棄	-9.16867
認為	-9.16889
氣	-9.16997
於我	-9.17255
最後	-9.17313
就是	-9.17316
之義	-9.17391
經云	-9.17408
靈	-9.17411
長者	-9.17461
珠	-9.175
受用	-9.1754
皆是	-9.17563
蓮花	-9.17634
古	-9.17657
善法	-9.17781
菩提心	-9.17785
廣大	-9.17796
受苦	-9.17799
亦應	-9.1811
馬	-9.18138
西	-9.1819
滿足	-9.18279
望	-9.18403
微塵	-9.1861
經錄	-9.18642
勤	-9.18672
落	-9.18675
嚴	-9.18753
十一	-9.18803
毒	-9.18817
河	-9.19268
神通	-9.1948
五陰	-9.19528
之道	-9.19722
若能	-9.19848
著錄	-9.19866
又解	-9.20018
有何	-9.20079
持戒	-9.20087
:『	-9.20181
懺	-9.20187
雙	-9.20216
仰	-9.20217
布施	-9.20298
隱	-9.20324
的人	-9.20325
?】「	-9.2045
娘	-9.20456
繫	-9.20472
有二	-9.20512
如下	-9.2067
若不	-9.20678
休	-9.20728
群	-9.2097
詞	-9.2113
縱	-9.21149
於是	-9.21188
種子	-9.21277
亦有	-9.21321
殊	-9.21402
喃	-9.21562
愚	-9.21669
該經	-9.21685
境界	-9.21692
辯	-9.21822
礙	-9.219
不善	-9.21916
寶藏	-9.22108
譬如	-9.2224
覆	-9.22419
布	-9.22465
堅	-9.22471
i	-9.22553
給	-9.22708
應當	-9.22746
本來	-9.23
煞	-9.23032
守護	-9.23634
生活	-9.23776
列名	-9.23779
大正藏	-9.23938
飲食	-9.23944
愚癡	-9.23969
淨名	-9.24115
承	-9.24252
爾時世尊	-9.24372
意識	-9.24374
果報	-9.24392
前後	-9.24496
園	-9.24555
若謂	-9.24661
非是	-9.24841
美	-9.24952
車	-9.24983
刻	-9.24996
助	-9.25004
補特伽羅	-9.25087
敬福經	-9.25119
亦是	-9.25127
敘	-9.25128
期	-9.2516
敦煌	-9.25162
室	-9.25218
阿羅漢	-9.2522
怖畏	-9.25231
青	-9.25356
無知	-9.25381
二種	-9.25398
特	-9.25454
憂	-9.25486
說明	-9.25496
點	-9.25537
一種	-9.25545
ā	-9.25586
是非	-9.25599
況	-9.25811
個	-9.26205
正念	-9.2629
六根	-9.26488
這一	-9.27045
安立	-9.27115
真實	-9.2718
走	-9.27343
撰	-9.27365
群生	-9.27536
朝	-9.27546
演	-9.2755
留	-9.27674
六度	-9.27727
寫	-9.27928
早	-9.2793
徒	-9.28171
律	-9.28249
右	-9.28252
毗	-9.28277
賊	-9.28396
梨	-9.28555
所以者何	-9.28606
視	-9.28625
吧	-9.28646
大海	-9.28714
開元錄	-9.28754
損	-9.28778
出三藏記集	-9.28857
題	-9.28876
願共	-9.28898
東	-9.28906
談	-9.28907
應該	-9.28938
□□	-9.29078
薩	-9.29138
旨	-9.29225
殘	-9.29426
文二	-9.29651
違	-9.2976
遠離	-9.29777
王子	-9.29888
實際	-9.30008
患	-9.30096
他的	-9.30434
自體	-9.30532
娑婆	-9.3062
三業	-9.30665
二明	-9.30747
怨	-9.30889
源	-9.30934
如幻	-9.3095
獻	-9.3103
吒	-9.31119
歲	-9.3118
一般	-9.31244
無間	-9.31454
顯現	-9.31469
不離	-9.31499
平	-9.31529
眾多	-9.31535
)。(	-9.3186
看到	-9.3195
骨	-9.31968
一心	-9.32002
毀	-9.32097
妄想	-9.32248
亦復如是	-9.32325
905	-9.32459
不起	-9.3249
善根	-9.32641
忘	-9.32799
39	-9.32931
背	-9.33168
注	-9.33303
文獻	-9.33455
中間	-9.33458
施捨	-9.33526
徵	-9.33673
產生	-9.33721
;」【	-9.33893
專	-9.3395
飛	-9.34036
頂	-9.34126
器	-9.34131
s	-9.34428
含	-9.34465
改	-9.34472
——	-9.34541
不受	-9.34708
所生	-9.34755
睹	-9.34758
得到	-9.34775
根據	-9.3478
惡趣	-9.34785
步	-9.34949
例	-9.35047
窮	-9.35118
三者	-9.35296
諦	-9.35298
u	-9.35342
忍辱	-9.35421
吾	-9.35463
自他	-9.3552
畫	-9.35572
報恩	-9.35613
彼於	-9.35687
不異	-9.35834
藏經	-9.35877
官	-9.35916
梵	-9.36064
法師	-9.36065
跡	-9.36093
r	-9.36119
鐵	-9.36167
交	-9.36178
兼	-9.36186
都是	-9.36285
那麼	-9.36321
圓珍	-9.36327
影	-9.36424
▁ca	-9.3645
雨	-9.36575
臨	-9.36629
退	-9.36697
所見	-9.36986
唐	-9.37027
此身	-9.37032
為了	-9.3712
,1	-9.37163
o	-9.37221
不思議	-9.37459
鬼神	-9.37511
!」	-9.3753
善哉	-9.37532
苦樂	-9.3755
若人	-9.37584
各種	-9.37596
端	-9.37633
正見	-9.37699
正覺	-9.38189
11	-9.38218
翻	-9.38283
了知	-9.38286
不斷	-9.38364
詣	-9.38393
錄文	-9.38451
欲界	-9.38488
宋	-9.38511
超	-9.38522
若無	-9.38558
暫	-9.38604
蒙	-9.38624
咸	-9.38634
互	-9.38642
黃	-9.38662
三明	-9.38667
一部	-9.38705
憑	-9.38721
稽首	-9.38779
差	-9.38814
生曰	-9.38954
中國	-9.38957
......	-9.38964
際	-9.39025
天地	-9.39048
遭	-9.39069
而生	-9.39079
具有	-9.39173
～	-9.3935
痛苦	-9.39482
百千	-9.39551
乞食	-9.39591
鬼	-9.3961
運	-9.39685
本無	-9.397
不可思議	-9.4006
之處	-9.40212
太	-9.40216
入藏錄	-9.40353
增長	-9.40384
秘密	-9.40386
題解	-9.40387
壽	-9.40628
能令	-9.40634
儀	-9.40684
惠	-9.40685
論述	-9.40691
十八	-9.40793
所知	-9.408
何以	-9.40845
釋迦	-9.40899
露	-9.41018
完全	-9.41404
啟	-9.41436
服	-9.41473
居士	-9.41482
一明	-9.41514
決	-9.41641
1.	-9.41882
一乘	-9.41975
『	-9.41991
發願	-9.42075
修道	-9.42127
聖者	-9.42165
有一	-9.42521
有關	-9.42612
附	-9.42703
我身	-9.42811
抄	-9.42815
常住	-9.42885
做	-9.42911
威儀	-9.42962
大德世尊	-9.42994
包括	-9.43039
日月	-9.43089
宮	-9.43102
石	-9.4328
十六	-9.4344
又云	-9.43549
必須	-9.43556
濟	-9.43672
穢	-9.43764
互相	-9.43788
還有	-9.43805
相同	-9.43862
之身	-9.43954
但是	-9.44045
思惟	-9.44075
以及	-9.44446
讀	-9.44486
不二	-9.44595
m	-9.44637
祖	-9.44687
凡聖	-9.44792
禁	-9.4491
一些	-9.44971
色界	-9.4498
比較	-9.45037
各各	-9.45194
著作	-9.45321
不成	-9.45356
出世	-9.45672
文殊	-9.45713
那些	-9.45832
沉	-9.45883
亦如是	-9.46008
唯有	-9.4623
陀羅尼	-9.46242
不可得	-9.46337
免	-9.46422
返	-9.46513
七日	-9.46635
底本	-9.4665
安住	-9.46891
帝釋	-9.46958
消災延壽藥師佛	-9.47179
三藏	-9.47219
接	-9.47284
圖	-9.47285
日本	-9.4741
人們	-9.4743
痛	-9.47464
12	-9.47489
▁D	-9.47566
質	-9.47578
餓鬼	-9.47594
總標	-9.47671
云云	-9.4769
)、「	-9.47995
之苦	-9.48151
無不	-9.48214
冥	-9.48308
盛	-9.48466
如是見	-9.48625
寂靜	-9.48636
成為	-9.48686
舊	-9.48741
任何	-9.48784
可得	-9.4893
同時	-9.49223
逐	-9.4925
同一	-9.49283
整理者	-9.49293
慢	-9.4948
詳	-9.49641
纔	-9.49726
24	-9.49845
帶	-9.49899
問題	-9.49974
彰	-9.49999
遺	-9.50025
建	-9.50089
為因	-9.50147
草	-9.50164
彼等	-9.50177
增上	-9.50248
依止	-9.5041
鉢	-9.50552
納	-9.50596
之果	-9.5065
汝等	-9.50698
毛	-9.50846
其心	-9.5095
較	-9.50987
諸菩薩	-9.51052
根本	-9.51056
察	-9.51087
按照	-9.51164
鳥	-9.51215
登	-9.51241
辰三	-9.51406
黑	-9.51493
校本	-9.51518
玉	-9.51601
泥	-9.51656
禪師	-9.5194
頓	-9.51976
情況	-9.52057
自心	-9.52076
誠	-9.52143
只	-9.52197
āḥ	-9.5251
耆那教	-9.52568
禮拜	-9.5304
累	-9.53187
鑒	-9.53189
賢	-9.53222
誓	-9.53256
冤	-9.53257
住處	-9.53336
歌讚	-9.53339
頁	-9.53369
通達	-9.53407
六道	-9.53434
是為	-9.53455
在此	-9.53471
虛妄	-9.53498
和合	-9.53523
世俗	-9.53674
科	-9.53681
唱	-9.53802
抄寫	-9.54063
彌勒	-9.54092
章	-9.54122
很	-9.54144
文云	-9.54208
修習	-9.54405
最勝	-9.54501
。9	-9.54509
9	-9.54552
四種	-9.54637
我所	-9.54649
法也	-9.54672
髮	-9.54702
葉	-9.54704
幻	-9.54728
災	-9.54788
發起	-9.54819
僧祐	-9.54876
第七	-9.54906
它們	-9.54909
此初也	-9.55107
思想	-9.55253
亦非	-9.5545
此四	-9.55459
有為	-9.55516
之相	-9.55755
適	-9.55856
多聞	-9.55947
問也	-9.56031
威	-9.56047
寒	-9.56221
焰	-9.56308
木	-9.5631
稱為	-9.56349
以上	-9.56551
典籍	-9.56615
法相	-9.56647
出現	-9.56671
相好	-9.56759
化身	-9.56807
五欲	-9.56951
有四	-9.57117
漸	-9.57181
甘露	-9.57223
帕瑪瓦蒂	-9.5725
我慢	-9.57403
其身	-9.5749
而言	-9.57519
念佛	-9.57574
揚	-9.57687
馱	-9.57727
羅漢	-9.57815
註	-9.57815
。」《	-9.57868
公	-9.57872
清涼	-9.5795
慮	-9.57978
40	-9.58023
臣	-9.5823
資料	-9.58234
熟	-9.5855
吉祥	-9.58562
雖有	-9.58665
佈施	-9.58678
別釋	-9.58733
所攝	-9.58834
念念	-9.58837
大師	-9.58981
若干	-9.58994
上來	-9.59162
宿	-9.59236
屬於	-9.5925
不是	-9.59298
缺	-9.59324
歸依	-9.59494
初中言	-9.59536
打	-9.59555
焉	-9.59561
謹	-9.59663
畏	-9.59706
王后	-9.59723
問疾	-9.59778
以後	-9.59816
作用	-9.59828
耆那教認為	-9.59914
生於	-9.59931
答言	-9.59942
乞	-9.59962
四諦	-9.59995
等者	-9.60013
名曰	-9.60038
無色	-9.60181
體性	-9.60197
女人	-9.60256
能成	-9.60258
文殊師利	-9.60351
漢	-9.60422
圓成	-9.60678
關	-9.60741
田	-9.60764
訖	-9.60885
爭	-9.60938
拏	-9.60994
笑	-9.61047
飲	-9.61051
成辦	-9.61089
七寶	-9.61094
拜	-9.61278
寬	-9.61352
劣	-9.614
不如	-9.6142
抄本	-9.61453
後世	-9.61455
一人	-9.61559
福田	-9.61582
亦如	-9.61598
大慈悲	-9.61801
復有	-9.61839
無心	-9.61889
不為	-9.61978
巧	-9.62094
29	-9.62126
終不	-9.62227
發現	-9.62518
殃	-9.62528
未能	-9.62535
整理	-9.62579
活動	-9.62662
於諸	-9.62678
仁	-9.62681
堂	-9.6286
於中	-9.62882
浮	-9.6289
越	-9.62909
萬行	-9.62916
解冤釋結	-9.63008
謝	-9.63021
十四	-9.63052
州	-9.63056
藥師	-9.6307
色身	-9.63118
典	-9.63195
參見	-9.63301
有二種	-9.63331
14	-9.63381
。』	-9.63515
是否	-9.63575
▁「	-9.63582
廣說	-9.63692
進行	-9.63708
天人	-9.63806
題記	-9.64063
不了	-9.64109
善女人	-9.64157
牛	-9.64274
不捨	-9.64306
同前	-9.64384
欲求	-9.64428
問答	-9.64497
左右	-9.64506
如法	-9.6451
堪	-9.6458
赤	-9.64592
連	-9.64594
淨度經	-9.64653
此時	-9.64668
案	-9.64687
四句	-9.64692
按	-9.64731
偏	-9.64744
大慈大悲	-9.64826
906	-9.64845
流通	-9.64853
法寶	-9.64866
或有	-9.64886
摧	-9.64911
池	-9.64935
本節意為	-9.65003
亦爾	-9.65184
如果	-9.65216
五百	-9.65285
民	-9.65339
而已	-9.65397
皆由	-9.65527
否	-9.65628
有異	-9.65669
此外	-9.65722
人民	-9.6574
當知	-9.65742
一切智	-9.65775
。10	-9.6586
星	-9.65885
之一	-9.65897
飯	-9.65958
如前	-9.66056
上下	-9.66118
固	-9.66184
歷	-9.66315
喪	-9.6636
懈怠	-9.66479
則無	-9.66579
逆	-9.66619
以來	-9.66648
所造	-9.66695
非有	-9.66709
三毒	-9.66714
契	-9.6673
摩尼	-9.66764
天下	-9.66895
獄	-9.66913
第八	-9.67
行者	-9.67128
我當	-9.67192
行人	-9.67359
有人	-9.67417
佛告	-9.67581
所言	-9.67599
熱	-9.67666
領	-9.6767
逢	-9.67898
其後	-9.67995
編	-9.68271
盜	-9.68277
有漏	-9.68288
圓明	-9.68428
若於	-9.68537
厭	-9.68572
五種	-9.68653
而起	-9.68787
廣解	-9.68815
是人	-9.6883
之門	-9.68834
堅固	-9.69031
送	-9.69201
世親論	-9.69578
兩種	-9.69599
畢	-9.69605
不信	-9.69758
須彌	-9.69864
判	-9.69947
血	-9.6996
至於	-9.69976
沒馱	-9.70027
乳	-9.70063
此事	-9.70066
元年	-9.70099
何況	-9.7019
21	-9.7023
非常	-9.70318
此云	-9.70821
不定	-9.70853
文四	-9.71043
今時	-9.71121
聖賢	-9.71285
諍	-9.7138
緣起	-9.71479
恭	-9.71584
此人	-9.71763
迹	-9.71781
勢	-9.71796
不著	-9.71842
怖	-9.71898
東域	-9.72145
懼	-9.7217
佛告阿難	-9.72197
在空衣派的刊本中	-9.72219
禮佛	-9.72241
佛土	-9.72447
僧法	-9.72483
諸有情	-9.72558
』	-9.72562
0	-9.72677
翻譯	-9.72796
志心	-9.72883
即為	-9.73155
22	-9.73191
自利	-9.73242
智昇	-9.73279
ya	-9.73332
延	-9.73506
此明	-9.73588
燃	-9.73608
10	-9.73623
士	-9.7364
A	-9.73654
法事	-9.73658
而得	-9.73704
可能	-9.73738
何謂	-9.73829
曩	-9.73844
一心頭面禮	-9.73855
憐憫	-9.7386
子二	-9.73872
ṃ	-9.73934
貧	-9.73968
看來	-9.74131
其時	-9.74304
此下	-9.74306
願我	-9.74481
;「	-9.74524
發菩提心	-9.74549
隸	-9.74589
弘	-9.74622
無形	-9.74688
四生	-9.74755
之外	-9.74756
亦可	-9.74774
地藏	-9.74829
多少	-9.74943
薩嚩	-9.75128
偽	-9.75208
投	-9.75237
配	-9.75249
灑	-9.75419
諸根	-9.75423
急	-9.75423
儀當演	-9.75449
僧人	-9.75469
融	-9.75483
驗	-9.75494
親友	-9.75506
忽	-9.75597
經論	-9.75686
心所	-9.75698
皮	-9.7571
瑟吒	-9.75712
擬	-9.7573
韻	-9.75778
卿	-9.75778
話	-9.75793
務	-9.75832
導師	-9.75929
大體	-9.75985
時間	-9.76006
禪宗	-9.76011
勞	-9.76085
一切有情	-9.76133
華嚴	-9.76143
參	-9.76332
無義	-9.76493
本節	-9.7663
名相	-9.76668
祗	-9.76689
佛身	-9.76749
這是	-9.76828
何所	-9.76921
t	-9.76981
史	-9.76985
無分別	-9.7699
編纂	-9.77067
流傳	-9.77094
如如	-9.77161
而成	-9.77168
方法	-9.77214
愈	-9.77279
g	-9.77287
劍	-9.77293
印度	-9.77295
敵	-9.77368
神力	-9.7739
為我	-9.77402
加行	-9.77424
怛	-9.77454
階	-9.77483
魚	-9.77595
賜	-9.77629
即興而說	-9.77658
所求	-9.77701
相違	-9.77741
如是知已	-9.77744
彌勒頌曰	-9.77803
驚	-9.77876
卷第	-9.7801
授記	-9.78014
學者	-9.78027
亦能	-9.78028
佛典	-9.78098
天神	-9.78139
諸經	-9.78148
成立	-9.7824
香花	-9.78387
非真	-9.78677
即有	-9.78692
而無	-9.78763
形態	-9.78765
大小	-9.78793
自有	-9.78834
誤	-9.78858
如來說	-9.79048
或為	-9.79067
廢	-9.79123
所緣	-9.79182
闕	-9.79407
校	-9.79454
男	-9.79521
第九	-9.79549
徹	-9.79563
軍	-9.7957
處處	-9.79631
曉	-9.79712
G	-9.79715
大聖	-9.79804
獲得	-9.7981
何等為	-9.79836
大臣	-9.79938
不在	-9.79985
考	-9.79997
的內容	-9.80011
正智	-9.80059
鬼王	-9.80085
生天	-9.80228
顧	-9.80308
義也	-9.8047
聖教	-9.80523
教主	-9.80827
夢	-9.80872
不識	-9.80957
國土	-9.80998
所得	-9.81035
不少	-9.81193
妻	-9.81271
伺	-9.81281
掌	-9.81308
不復	-9.81361
13	-9.81389
作者	-9.81419
收入	-9.81453
短	-9.81501
不作	-9.81518
就中	-9.81521
以下	-9.81564
酒	-9.81601
北新	-9.81628
涉	-9.81646
臥	-9.8165
割	-9.81665
呼	-9.81667
橫	-9.81727
弟	-9.8175
吉	-9.81768
謂之	-9.81787
偈頌	-9.81788
酉	-9.81827
自己的	-9.81831
維摩經	-9.81888
喜悅	-9.81941
天台	-9.82033
貴	-9.82142
斷除	-9.8216
萬法	-9.8219
薩婆	-9.82227
的是	-9.8225
雖復	-9.82334
無異	-9.82396
人身	-9.82409
非法	-9.82476
十種	-9.82524
。】「(	-9.82629
不須	-9.82637
以前	-9.82778
無始	-9.82841
西方	-9.82869
嚕	-9.82874
名稱	-9.82982
損害	-9.8315
經言	-9.8317
之力	-9.83312
最上	-9.83374
(「	-9.83379
過患	-9.83455
招	-9.83461
途	-9.83507
大孝釋迦牟尼佛	-9.83533
的研究	-9.83592
施主	-9.83802
借	-9.83812
時期	-9.8384
變化	-9.83887
能仁	-9.83913
泥犁	-9.83933
朋友	-9.83939
六塵	-9.84018
敘述	-9.8404
虎	-9.84043
導	-9.84053
住於	-9.84088
讀誦	-9.84097
消除	-9.84155
梵行	-9.84372
分六	-9.84405
富	-9.84419
敦煌遺書	-9.84466
信心	-9.84473
何處	-9.84492
色等	-9.84573
靜慮	-9.84641
。4	-9.84687
本經	-9.84709
嘆	-9.8475
不實	-9.84801
大德	-9.84904
十五	-9.85227
饒益	-9.85239
佛陀	-9.85297
報身	-9.85311
之罪	-9.85345
唯是	-9.85381
當然	-9.85388
須菩提言	-9.85453
不退	-9.85524
合掌	-9.85554
消滅	-9.85557
密教	-9.85682
才	-9.85767
在於	-9.85857
若見	-9.8589
索	-9.85892
段	-9.85911
薄	-9.85911
樹下	-9.85921
乾	-9.85945
茲	-9.85946
刀	-9.86025
潤	-9.86069
畜生	-9.86073
文軌	-9.86107
開始	-9.86307
二諦	-9.8639
十三	-9.86571
結合	-9.86601
四者	-9.86668
故說	-9.86693
授	-9.86699
身體	-9.86705
。6	-9.86803
普賢	-9.86888
剎那	-9.86892
不過	-9.86941
則有	-9.86984
ś	-9.87057
濁	-9.87138
一向	-9.87271
之間	-9.8745
無數	-9.87477
世人	-9.87498
暗	-9.8754
十地	-9.87545
心念	-9.87548
相似	-9.87691
頭陀	-9.87698
補	-9.8774
正是	-9.87763
悅	-9.87833
既無	-9.87857
濕	-9.87908
敷	-9.87989
16	-9.88028
謀	-9.88045
圍繞	-9.88047
責	-9.88104
△	-9.88193
散亂	-9.8821
解冤結菩薩	-9.88275
冤家	-9.88304
總持	-9.88307
又復	-9.8835
無記	-9.88366
闇	-9.8854
造作	-9.88548
祇有	-9.88595
提出	-9.88601
活	-9.88714
主要	-9.88892
障礙	-9.88894
希	-9.88959
聞法	-9.88963
於他	-9.88989
分十	-9.88994
友	-9.89064
亦即	-9.89228
2.	-9.89241
為說	-9.8939
指出	-9.89396
15	-9.89446
自二	-9.895
故名為	-9.89518
瑜伽	-9.8962
無人	-9.89645
擔	-9.89651
心無	-9.89863
欺	-9.89879
網	-9.89903
珍	-9.89916
殿	-9.89996
值	-9.90001
令其	-9.90043
叉	-9.90151
氏	-9.90154
娑嚩	-9.90169
寄	-9.9021
還是	-9.90266
金色	-9.9027
必有	-9.90284
讚揚	-9.903
伊呬	-9.90338
幡	-9.90356
封	-9.90362
觀音	-9.90426
調伏	-9.9049
此法	-9.90498
頂禮	-9.90507
失壞	-9.90609
:】「	-9.90633
二卷	-9.90662
希有	-9.90685
。7	-9.90821
之前	-9.90881
則為	-9.90926
怨敵	-9.90965
跋	-9.91007
各有	-9.91049
我見	-9.91154
言說	-9.91422
聽到	-9.91448
引用	-9.91461
而為	-9.91499
能知	-9.91509
如其所	-9.91556
張	-9.91567
大地	-9.91609
論文	-9.91626
是也	-9.91755
名字	-9.9181
法華	-9.91853
有相	-9.91899
比丘眾	-9.91949
之境	-9.92019
善巧	-9.92297
孝行	-9.92321
幽	-9.92336
微妙	-9.92429
見佛	-9.92456
折	-9.92478
琉璃	-9.9248
賀	-9.92509
江	-9.92522
不以	-9.92542
錢	-9.92643
不也世尊	-9.92717
統	-9.92859
利他	-9.92923
六識	-9.92965
隨順	-9.92984
對於	-9.93054
寫作	-9.93066
故不	-9.93074
故有	-9.9322
精勤	-9.93367
異熟	-9.93419
y	-9.9344
法者	-9.93488
安然	-9.93608
悔	-9.93645
記載	-9.93661
首題	-9.93661
攝受	-9.93669
此即	-9.93863
。8	-9.94015
若言	-9.94022
敬禮	-9.94095
若以	-9.94097
天上	-9.94188
事業	-9.94329
單	-9.94364
所撰	-9.9439
諸行	-9.94396
若時	-9.94673
奇	-9.94677
依此	-9.94693
性相	-9.94748
禮請	-9.94797
眉	-9.94841
一日	-9.94843
惡業	-9.94859
庶	-9.94861
怒	-9.94863
倍	-9.94879
兵	-9.94907
喬答摩	-9.9492
託	-9.94944
為虛妄	-9.95022
貞元	-9.95049
註疏	-9.9507
霑	-9.9507
奉獻	-9.95108
乖	-9.95187
精神	-9.95199
古今	-9.95213
寶石	-9.95291
疑偽經	-9.95336
實有	-9.95428
條	-9.95464
為人	-9.95487
讓	-9.95497
無校本	-9.95591
原因	-9.95667
ta	-9.95758
佛道	-9.95776
何不	-9.95791
波羅蜜	-9.95836
盲	-9.95892
億	-9.95991
眾等	-9.96028
所引	-9.96036
齋日	-9.96055
問曰	-9.96076
以不	-9.96099
不滅	-9.96179
〕「	-9.96188
為本	-9.96223
曾經	-9.96387
故應	-9.96389
。5	-9.9662
知道	-9.96656
三卷	-9.9666
不樂	-9.96669
至今	-9.96767
男女	-9.9679
場	-9.96801
空寂	-9.96841
於法	-9.96892
得道	-9.96904
文中	-9.96982
道理	-9.9725
腳	-9.9727
苦行	-9.97279
若是	-9.97302
春	-9.97303
.)」「	-9.97309
魯	-9.9734
灌頂	-9.97378
大方便佛報恩經	-9.97393
弱	-9.974
薩婆訶	-9.9745
有些沙門	-9.97485
另	-9.97502
意樂	-9.97561
?」「	-9.97581
另外	-9.97619
法華經	-9.97832
30	-9.97871
度脫	-9.97879
所成	-9.97928
並不	-9.97942
既有	-9.97976
善業	-9.98047
奉行	-9.98077
覓	-9.98113
儀軌	-9.98154
隨喜	-9.9816
25	-9.98248
起來	-9.98401
法中	-9.98505
緣覺	-9.9851
行也	-9.9851
見於	-9.98557
哀	-9.98602
」)	-9.98654
天台教典	-9.9896
影響	-9.98992
辦	-9.99006
侍	-9.99006
謗	-9.99009
所收	-9.99111
我要	-9.99119
淫	-9.99143
調	-9.99222
洗	-9.99264
叫	-9.99289
n	-9.99304
負	-9.99359
憶念	-9.99369
纏	-9.99382
則是	-9.99415
能斷	-9.99441
不盡	-9.99454
空生	-9.99515
入於	-9.99519
到了	-9.99543
三時	-9.99548
勤修	-9.99551
下至	-9.99552
捨身	-9.99578
寫本	-9.99657
雪	-9.99665
降伏	-9.99678
防	-9.99687
S	-9.99692
銘	-9.99698
/	-9.99698
項	-9.99732
眾苦	-9.99768
夜叉	-9.99776
能為	-9.99789
無著論云	-9.99823
薩哩嚩	-9.99837
結集	-9.99876
功能	-9.99881
開元入藏錄	-9.99965
波羅	-9.99992
就象	-10.0006
19	-10.0009
流轉	-10.0013
唯一	-10.0015
天子	-10.0019
壇	-10.0029
宗教	-10.0029
sya	-10.0037
變異	-10.0047
命終	-10.0055
廣釋	-10.0056
3.	-10.0057
夫人	-10.006
即無	-10.006
不覺	-10.0068
無垢	-10.0071
其人	-10.0075
經藏	-10.0077
應為	-10.01
46	-10.0102
若為	-10.0109
證菩提	-10.0109
故能	-10.0117
。」「1	-10.012
經中	-10.0124
現世	-10.0128
為二	-10.0129
而有	-10.0132
比丘尼	-10.0132
化生	-10.0136
成道	-10.0143
三十	-10.0146
酬	-10.015
淺	-10.0168
日常	-10.0172
保	-10.0179
丑三	-10.0193
無作	-10.0202
籍	-10.0203
尤	-10.021
過失	-10.0214
充滿	-10.0217
披	-10.0218
舒	-10.022
士夫	-10.0221
五根	-10.0223
祭	-10.0224
省	-10.0229
迴	-10.0229
稍	-10.0229
甚深	-10.0231
所欲	-10.0231
准	-10.0232
誦經	-10.0234
另一	-10.0238
大眾志誠	-10.0241
亡佚	-10.0249
滿月	-10.025
存在	-10.025
有所	-10.0251
決示三種悉地法	-10.0254
恨	-10.0254
卷四	-10.0257
益意經	-10.0265
度眾生	-10.0269
般若波羅蜜	-10.027
顯示	-10.0278
語言	-10.0281
此下二	-10.0283
三世諸佛	-10.0283
華嚴經	-10.0286
▁A	-10.0288
拔	-10.0289
生活中	-10.0305
普與	-10.0307
略釋	-10.0317
此為	-10.0321
實體	-10.0325
關係	-10.0331
良	-10.0335
一相	-10.0336
故經云	-10.034
受生	-10.0364
快樂	-10.0364
其義	-10.0399
此乃	-10.0412
即以	-10.0413
如上	-10.0419
所有的	-10.0419
不然	-10.0422
亦然	-10.0428
同樣	-10.0431
仙	-10.0447
族	-10.0451
及其	-10.0458
奴	-10.047
所為	-10.0471
曲	-10.0473
禍	-10.0476
蛇	-10.0477
!】「	-10.0484
自行	-10.0484
蘇	-10.0484
了了分明	-10.0485
努力	-10.049
研	-10.0494
義利	-10.0495
依怙	-10.0497
之言	-10.0498
內典錄	-10.0499
的情況	-10.0507
伏願	-10.0511
釋迦牟尼佛	-10.0512
不生不滅	-10.0517
皆為	-10.052
貪愛	-10.0522
善知識	-10.0523
摩耶	-10.0523
科儀	-10.0527
基本	-10.0541
顯果	-10.0543
現存	-10.0549
師子	-10.0556
法王	-10.0565
的經典	-10.0566
知見	-10.0576
譬	-10.0585
依處	-10.0588
入藏	-10.0591
無限	-10.0592
大慈	-10.0596
不依	-10.0598
十九	-10.0602
戒律	-10.0609
胎	-10.0613
頗	-10.0614
佛經	-10.0622
疑惑	-10.0633
na	-10.0638
佛果	-10.0645
」。)	-10.0658
天女	-10.0662
難量	-10.0667
或復	-10.0672
成正覺	-10.0675
認識	-10.0676
卷上	-10.0679
什麼	-10.0686
之功德	-10.069
詮	-10.0694
放逸	-10.0696
人中	-10.07
移	-10.0701
修多羅	-10.0704
念誦	-10.0708
我之	-10.0708
誰能	-10.0714
相對	-10.0718
17	-10.0719
皆得	-10.0721
種智	-10.0723
涅槃經	-10.0726
隔	-10.0729
婬	-10.0731
缽	-10.0732
追	-10.0734
如人	-10.0737
狂	-10.0739
防護	-10.0739
你們	-10.074
貫	-10.074
船	-10.0742
損惱	-10.0742
何時	-10.0744
刺	-10.0746
圓覺	-10.0747
吠	-10.0749
東方	-10.075
無畏	-10.0751
雄	-10.0752
響	-10.0755
依於	-10.0755
苦惱	-10.0758
〉	-10.0758
藉	-10.0759
菩薩摩訶薩	-10.0759
一句	-10.0759
滅盡	-10.0759
能除	-10.076
萬物	-10.0762
不壞	-10.0765
五道	-10.0769
鉢囉	-10.0771
幸	-10.0786
幸福	-10.0795
處所	-10.0799
尊重	-10.0805
減	-10.0819
不可以	-10.0827
如斯	-10.0827
立因	-10.0829
既然	-10.0833
一生	-10.0834
趣入	-10.0844
南方	-10.0847
宣揚	-10.0848
其所	-10.0854
音聲	-10.0856
一分	-10.0857
始終	-10.0871
顯然	-10.0903
悲心	-10.0904
姓	-10.0906
修善	-10.0908
私	-10.0914
滯	-10.0919
系統	-10.093
昇	-10.0931
祥	-10.0934
取捨	-10.0935
為真諦	-10.0943
4、	-10.0944
不許	-10.0944
五識	-10.0947
般	-10.0949
×	-10.0963
難得	-10.097
諸見	-10.0973
無法	-10.0973
履	-10.0979
六種	-10.0979
賢聖	-10.098
召	-10.0997
貪慾	-10.1
c	-10.1
塞	-10.1004
五蘊	-10.1005
冀	-10.1005
伸	-10.1006
楞嚴	-10.1006
畔	-10.1009
解冤結	-10.1012
而住	-10.1012
係	-10.1013
此名	-10.1013
赴	-10.1015
首先	-10.1015
夏	-10.1017
驅	-10.1017
分析	-10.1018
伴	-10.1019
蟲	-10.1023
角	-10.1025
吟偈	-10.1026
時代	-10.1027
提綱	-10.103
消災	-10.1032
壽量	-10.1033
不取	-10.1036
皆有	-10.1043
是其	-10.1044
三途	-10.1055
書寫	-10.1057
的業	-10.1061
大種	-10.1072
出於	-10.1075
真理	-10.1076
行道	-10.1078
無色界	-10.1086
第十	-10.1088
在家	-10.1099
略答	-10.1104
本身	-10.1114
壽命	-10.1115
即使	-10.1116
蓮	-10.1124
47	-10.1134
故稱	-10.1137
有五	-10.1142
不僅	-10.1142
我國	-10.1148
持如是	-10.115
是我	-10.1154
經題	-10.1155
〕《	-10.1165
是道場	-10.1173
眾人	-10.1187
而是	-10.1188
利養	-10.12
五者	-10.122
十七	-10.1221
若依	-10.1223
壽者	-10.123
不久	-10.1245
28	-10.1248
慧眼	-10.1249
別人	-10.1249
狀	-10.125
入儀	-10.1251
昏	-10.1252
塗	-10.1257
妻子	-10.1257
逃	-10.1259
更有一	-10.1259
暮	-10.1261
熱惱	-10.1263
產	-10.1268
後有	-10.1269
懸	-10.127
三千	-10.1272
不解	-10.1274
歡	-10.1274
嘗	-10.128
B	-10.1283
崇	-10.1285
希望	-10.1288
院	-10.1288
默	-10.1289
缽囉	-10.1289
法施	-10.129
輒	-10.1294
靈藥	-10.1294
斷疑	-10.1302
汝今	-10.1307
十齋日	-10.1308
俯降道場	-10.1309
累劫	-10.131
也就是說	-10.1311
方廣錩	-10.1311
心生	-10.1312
天眼	-10.1314
如虛空	-10.1329
出入	-10.133
號背	-10.133
遮止	-10.1333
世上	-10.1333
菩薩行	-10.1335
之意	-10.1338
五趣	-10.1341
表示	-10.1342
一身	-10.1346
然而	-10.1371
二年	-10.1372
全部	-10.1372
何為	-10.1375
三千大千世界	-10.1376
兩個	-10.1387
學處	-10.1387
有大	-10.1398
執持	-10.14
八十	-10.1401
真諦	-10.1405
之類	-10.1405
於己	-10.1411
有六	-10.1411
無用	-10.1423
一冊	-10.1424
因而	-10.1432
意云	-10.1434
而作	-10.1436
老死	-10.1444
本文	-10.1446
付	-10.1451
d	-10.1454
紅	-10.1472
不聽	-10.1475
罪業	-10.149
意為	-10.1492
空中	-10.1496
恆	-10.1516
並非	-10.1517
童子	-10.1531
心歸命禮	-10.1546
今言	-10.1552
澄	-10.1555
床	-10.1556
薩埵	-10.1558
畢竟	-10.1563
誡	-10.1564
素	-10.157
愛樂	-10.157
謬	-10.1574
塔	-10.1574
嫉妒	-10.1575
旁	-10.1575
里	-10.1575
積聚	-10.1575
牽	-10.1575
稽首和南	-10.1576
愧	-10.1577
北方	-10.1578
即非	-10.1579
8.	-10.1581
油	-10.1582
竭	-10.1584
富貴	-10.1587
諦聽	-10.1588
喚	-10.1591
三昧耶	-10.1592
稱揚	-10.1593
中國佛教	-10.1596
衣服	-10.1598
慧琳音義	-10.16
地藏王菩薩	-10.1604
永遠	-10.1608
傍生	-10.161
此五	-10.1617
不當	-10.1618
諸苦	-10.162
原文	-10.1622
種類	-10.1628
這樣的	-10.1639
武	-10.164
9、	-10.1646
父王	-10.1651
三門	-10.1654
正行	-10.1658
二十	-10.1658
別餘	-10.1662
來看	-10.1663
正文	-10.1667
整理本	-10.1669
名色	-10.167
恒沙	-10.1671
而去	-10.1677
罪惡	-10.168
所述	-10.1694
之名	-10.1696
非我	-10.1696
聞已	-10.1697
無餘	-10.1697
妙法	-10.1709
4.	-10.1722
遵	-10.1734
敢	-10.1741
四聲	-10.1748
所行	-10.1774
畜	-10.1775
大道	-10.1776
愚夫	-10.1788
甚多	-10.1803
意義	-10.1804
危	-10.1805
人法	-10.1824
彩	-10.1835
錯	-10.1848
繞	-10.1849
潔	-10.1849
離諸	-10.1851
儒	-10.1859
重罪	-10.186
闍	-10.1862
不足	-10.1862
繁	-10.1863
審	-10.1865
伊	-10.1866
得解脫	-10.1866
兄弟	-10.1874
是佛	-10.1874
奪	-10.1875
杖	-10.1875
vi	-10.1875
弗	-10.1875
毗盧	-10.1875
願賜	-10.1875
各自	-10.1876
能破	-10.1876
晚	-10.1879
于	-10.188
方式	-10.188
善友	-10.1881
教誡	-10.1882
無由	-10.1885
遍計	-10.1887
敕	-10.1893
優劣	-10.1893
如是等	-10.1894
所化	-10.1894
歷代三寶記	-10.1897
頌云	-10.1902
重要	-10.1908
直到	-10.1909
是菩薩行	-10.1909
業果	-10.191
宣說	-10.1912
空性	-10.1913
它的	-10.1921
分為	-10.1931
何用	-10.1932
我心	-10.1936
終日	-10.1942
瓶	-10.1943
無住	-10.1943
非色	-10.1944
其它	-10.1948
年代	-10.1948
未得	-10.1949
先生	-10.1964
尾題	-10.1977
儀文	-10.198
願力	-10.1981
殘片	-10.1986
難行	-10.1987
傾	-10.1992
未有	-10.1994
於佛	-10.2004
擊	-10.2009
覺悟	-10.2009
18	-10.2021
旋	-10.203
需要	-10.2032
吃	-10.2033
房	-10.2037
殺生	-10.2047
惡人	-10.2054
慈心	-10.2061
寂然	-10.2077
持經	-10.2079
有見	-10.2084
今當	-10.2084
經本	-10.2097
諦實	-10.2099
而且	-10.2108
這部	-10.2118
無自性	-10.2121
冊	-10.2123
現生	-10.2129
為其	-10.2131
慶	-10.2149
司	-10.2152
現行	-10.2153
攀緣	-10.216
宅	-10.2161
純	-10.2166
哭	-10.2166
看著	-10.2174
侵	-10.2174
眾經	-10.2174
五濁	-10.2174
御	-10.2175
組織	-10.2179
繼	-10.2179
保護	-10.2181
更無	-10.2183
蘭	-10.2186
有些	-10.2186
見聞	-10.2188
是為入不二法門	-10.2189
沙彌	-10.219
維德赫國王	-10.2191
此法會中	-10.2192
限	-10.2192
明受	-10.2193
珍寶	-10.2197
如我	-10.22
諸如來	-10.2203
的話	-10.2203
無病	-10.2205
我為	-10.2207
演說	-10.2209
一段	-10.2213
所講的	-10.2214
目前	-10.2216
和尚	-10.2217
此問	-10.2222
實法	-10.2224
證明	-10.2225
444	-10.2234
略說	-10.2242
此之	-10.2249
法雨	-10.2265
剎	-10.2267
肯定	-10.2267
淨信	-10.2272
違背	-10.2273
是何	-10.23
真經	-10.2303
無實	-10.2306
經名	-10.2308
此心	-10.2309
則非	-10.2318
本覺	-10.2326
廣明	-10.2326
的文字	-10.2338
相當	-10.2348
證得	-10.2352
達摩	-10.2357
後來	-10.2357
我想	-10.2358
此第二	-10.2368
最高	-10.2378
不自	-10.2385
亦當	-10.2386
其餘	-10.2403
若菩薩	-10.2404
支分	-10.2406
龍王	-10.241
論主	-10.2413
名號	-10.2415
通過	-10.242
為喻	-10.2437
慎	-10.244
二邊	-10.2444
勝解	-10.2445
自性無	-10.2449
23	-10.245
客	-10.2452
恣	-10.2453
亦云	-10.2455
是指	-10.2457
祈	-10.2459
無窮	-10.2461
一點	-10.2462
勵力	-10.2463
顏	-10.2464
諸佛菩薩	-10.2466
犢子	-10.2473
勇	-10.2474
誓願	-10.2481
P	-10.2482
雙親	-10.2483
晝夜	-10.2484
南無三滿多	-10.2485
鈔	-10.2485
銀	-10.2486
詩	-10.2488
饑	-10.2489
振	-10.2491
檢	-10.2492
南無大孝釋迦佛	-10.2493
睡	-10.2494
慕	-10.2497
心王菩薩	-10.2498
蓮華	-10.25
佛告須菩提	-10.25
真如佛性	-10.2504
靈藥智者	-10.2508
嬰兒	-10.2509
開元釋教錄	-10.2509
冥陽	-10.2511
為彼	-10.2513
發展	-10.2517
請問	-10.2518
壞滅	-10.2525
法會	-10.2529
令人	-10.2529
孤	-10.2531
祇是	-10.2534
往來	-10.2556
鉢羅	-10.2563
199	-10.2566
此下三	-10.2572
無定	-10.2573
身之	-10.2575
撰寫	-10.2575
的資料	-10.2591
27	-10.2595
無比	-10.26
人間	-10.2602
為體	-10.2605
紫	-10.2614
空界	-10.2616
應如是	-10.2623
正以	-10.2628
避	-10.2631
無著	-10.2646
相比	-10.2646
囑累經	-10.2651
年間	-10.2654
無疑	-10.2661
四方	-10.2664
波囉	-10.2664
轉變	-10.2666
正知	-10.2666
真正	-10.2673
八萬四千	-10.2683
無因	-10.2686
悲智	-10.269
有餘	-10.2698
佛事	-10.2699
碎	-10.2703
是菩提	-10.2707
散花	-10.2711
聖道	-10.2723
□□□	-10.2731
不染	-10.2736
憶	-10.2746
區別	-10.275
資糧	-10.2752
一問	-10.2758
瘡	-10.276
無上菩提	-10.2761
戶	-10.2767
亦為	-10.277
欲令	-10.2771
甘	-10.2786
三根	-10.2786
無所得	-10.2791
柱	-10.2798
得菩提	-10.2798
何能	-10.2799
佉	-10.28
烏	-10.2803
恥	-10.2805
派	-10.2805
教化	-10.2806
遲	-10.2806
棺	-10.2808
夷	-10.2809
洞	-10.281
仗	-10.2811
」。】「	-10.2812
訓	-10.2813
隨心	-10.2814
厚	-10.2814
世尊在舍衛城祇樹給孤獨	-10.2814
拉	-10.2817
格	-10.282
秦言	-10.2821
低	-10.2822
阿彌陀佛	-10.2823
菩提薩埵	-10.2824
麻	-10.2825
昔日	-10.2826
聖凡	-10.284
往昔	-10.2841
可參見	-10.2842
不會	-10.2844
汝當	-10.2845
肉眼	-10.2847
尋求	-10.285
金藏	-10.285
開示	-10.2854
昧	-10.2856
救苦	-10.2858
不行	-10.2859
入涅槃	-10.2862
的著作	-10.2865
利根	-10.2867
何者	-10.2868
恚	-10.2874
充	-10.2879
十惡	-10.2884
的典籍	-10.2909
諸人	-10.2909
知識	-10.2909
6.	-10.2912
五字	-10.2917
不用	-10.2926
並且	-10.293
一體	-10.2938
九種	-10.2943
無學	-10.2952
論云	-10.2954
諸煩惱	-10.2961
信解	-10.2968
5.	-10.2971
是則	-10.2972
一處	-10.2978
心不	-10.2991
為一	-10.2995
何須	-10.2997
此處	-10.3001
鄉	-10.3002
使用	-10.3006
六類	-10.3008
般若波羅蜜多	-10.3011
流行	-10.3016
無論	-10.3033
方面	-10.3033
忍受	-10.3047
佛語	-10.3048
來到	-10.3055
刊	-10.3064
而行	-10.3074
怪	-10.3075
應以	-10.308
許多	-10.3082
相等	-10.3095
版	-10.3095
婦	-10.3098
倫	-10.3102
完成	-10.3104
七種	-10.3104
讚禮	-10.3106
於身	-10.3113
有三種	-10.3113
伽陀	-10.3113
斷滅	-10.3114
享	-10.3116
臂	-10.3119
衰	-10.3123
不令	-10.3124
現身	-10.3126
純陀	-10.3133
黑暗	-10.3137
v	-10.3137
知其	-10.3138
溫	-10.3139
刑	-10.314
罰	-10.3141
巴	-10.3142
秘	-10.3142
布佐	-10.3143
米	-10.3144
抱	-10.3145
圓融	-10.3147
術	-10.3148
濫	-10.3149
鎮	-10.3151
染淨	-10.3151
試	-10.3152
如同	-10.3152
虔誠	-10.3156
遵循	-10.3156
優波離	-10.3158
寶塔	-10.3161
俄	-10.3162
阿難言	-10.3163
受請供養	-10.3164
料簡	-10.3166
這就是	-10.3168
異名	-10.3172
不應理	-10.3173
眾經目錄	-10.3176
長壽	-10.3178
示現	-10.3179
這一點	-10.318
1、	-10.318
護念	-10.3188
四明	-10.3207
而說	-10.321
以明	-10.3211
財物	-10.3211
我認為	-10.3215
加威	-10.3218
一切諸佛	-10.3221
行為	-10.3221
唯識	-10.3223
微細	-10.3226
寫經	-10.3226
最初	-10.3229
是法	-10.3231
失譯	-10.3233
實無	-10.3233
貪瞋	-10.3235
大千	-10.3241
九句	-10.3245
彌陀	-10.3246
32	-10.325
已上	-10.3251
而來	-10.3252
端嚴	-10.3257
上品	-10.3259
令得	-10.327
隆	-10.3275
伽耶	-10.3284
考察	-10.3291
或者	-10.3297
萬劫	-10.3299
嚩囉	-10.3301
不孝	-10.3306
洲	-10.3308
先後	-10.331
何者是	-10.3316
均為	-10.3331
可愛	-10.3335
以成	-10.3336
雪山	-10.3346
佛地	-10.3354
前二	-10.3355
你的	-10.3359
生命	-10.3366
而自	-10.3368
正在	-10.3368
毫無	-10.3376
發生	-10.3376
k	-10.3379
圍	-10.338
輝	-10.3383
2、	-10.3391
答也	-10.3395
即時	-10.3401
豈不	-10.3415
渡	-10.3416
有說	-10.342
喜樂	-10.3423
片	-10.3427
原子	-10.343
ra	-10.3432
鏡	-10.3432
亦不能	-10.3438
這裏	-10.3442
完	-10.345
亦得	-10.3451
隨其	-10.3453
整	-10.3458
諸聖	-10.3466
當作	-10.3468
輩	-10.3468
介紹	-10.3468
逝	-10.347
猛	-10.347
層	-10.3476
鼓	-10.3476
諱	-10.3477
佛告迦葉	-10.3478
墜	-10.348
狀態	-10.3481
怛囉	-10.3482
算	-10.3484
牟尼	-10.3484
卒	-10.3485
飄	-10.3486
我今稱讚	-10.3486
競	-10.3487
成佛道	-10.3488
戀	-10.3489
目連	-10.3491
摩利支	-10.3492
三塗	-10.3493
覽	-10.3494
祝	-10.3495
瑞	-10.3496
茶供養	-10.3496
豎	-10.3498
趨	-10.3498
禁戒	-10.3499
聰明	-10.3499
惟願慈悲常攝受	-10.35
例餘	-10.35
作是念	-10.3503
隋	-10.3504
由常看守心	-10.3504
北圖	-10.3505
端正	-10.3506
長短	-10.3506
寶積	-10.3508
從此	-10.3509
曼怛囉	-10.3509
詳細	-10.3511
裴休	-10.3511
I	-10.3513
眼根	-10.3515
現見	-10.3515
造像	-10.3515
施設	-10.3516
其事	-10.3517
不失	-10.3519
未曾	-10.3521
此等	-10.3528
兩重	-10.3528
應了了分明	-10.353
分齊	-10.3533
作佛	-10.3534
如理	-10.3535
壇場	-10.3538
都序	-10.3542
救護	-10.3544
共相	-10.3545
燃燈	-10.3545
理論	-10.3546
巍巍	-10.3548
一千	-10.3551
常時	-10.3552
無以	-10.3553
相互	-10.3556
眾生相	-10.3557
除了	-10.3563
在一起	-10.3566
大覺	-10.3574
出離	-10.3575
稱念	-10.3578
去來	-10.3579
一切皆	-10.3582
教誨	-10.3585
則不	-10.3586
大悲心	-10.3598
分八	-10.3606
無過	-10.3618
總明	-10.363
形式	-10.3633
離垢	-10.3635
假名	-10.3641
板	-10.3656
如意	-10.3659
大家	-10.3665
罪人	-10.3669
是經	-10.3672
死後	-10.3673
議	-10.3674
地方	-10.3681
長行	-10.3681
人見	-10.3689
洪	-10.3695
焚	-10.3702
主宰	-10.3705
是誰	-10.3712
既不	-10.3721
今此	-10.3721
北宋	-10.3724
八萬	-10.3732
當來	-10.3735
三十二相	-10.3743
從而	-10.3745
施與	-10.3745
教法	-10.375
大迦葉	-10.3752
之教	-10.376
準	-10.3761
不入	-10.3767
又有	-10.3769
之業	-10.3769
苦痛	-10.378
及以	-10.3783
梵王	-10.3786
不具	-10.3795
愁	-10.3797
界中	-10.38
殘卷	-10.3808
有對	-10.3809
天帝	-10.381
禁誓	-10.381
困	-10.3813
7.	-10.3814
陽	-10.3821
,10	-10.3822
入定	-10.3825
豈有	-10.3826
之性	-10.383
勇猛	-10.3837
陷	-10.3838
析	-10.3838
穿	-10.384
屈	-10.3843
鸚鵡	-10.3843
唇	-10.3845
歸去來	-10.3846
湛然	-10.3846
分七	-10.3846
鮮	-10.3847
飾	-10.3848
慳	-10.3848
坐於一旁	-10.3848
無論如何	-10.3849
摩訶薩	-10.3849
泉	-10.3851
瞻	-10.3855
藝	-10.3856
或觀察身內之	-10.3856
鞞	-10.3856
是時	-10.3867
束縛	-10.3867
大唐內典錄	-10.3868
婆希	-10.3868
今天	-10.387
禪源諸詮集都序	-10.3876
有一問答	-10.3878
似乎	-10.388
▁'	-10.3881
密咒	-10.3885
現量	-10.3889
更加	-10.3891
我佛	-10.3895
不敢	-10.3902
四禪	-10.3906
也是	-10.391
甚至	-10.391
不論	-10.3912
午三	-10.3913
放生	-10.3915
不及	-10.3917
並是	-10.392
從何	-10.3926
地區	-10.3928
化佛	-10.3959
生時	-10.396
各處	-10.3963
愆	-10.3965
彼岸	-10.3965
無方	-10.3975
?「	-10.3988
十分	-10.3992
哆囉	-10.3996
發阿耨多羅三藐三菩提心	-10.3996
如似	-10.3997
偽經	-10.4002
若論	-10.4004
第一義	-10.4011
自知	-10.4014
更有	-10.4017
皆從	-10.4025
不爾	-10.4026
污	-10.4027
令我	-10.4027
善行	-10.4032
結成	-10.4035
受戒	-10.4042
根塵	-10.405
說偈	-10.4052
五年	-10.4064
除罪	-10.4077
幻化	-10.408
汝心	-10.4086
不可能	-10.4092
佛教文獻	-10.4092
卷下	-10.4111
多種	-10.4111
又名	-10.4112
等等	-10.4125
長時	-10.4128
如實	-10.4133
子三	-10.4141
彼我	-10.4142
無緣	-10.4143
愚人	-10.4144
主人	-10.4148
排	-10.4155
如是如是	-10.4172
我言	-10.4175
井	-10.4182
黎	-10.4191
獸	-10.4197
偶	-10.4197
之方便	-10.4201
戰	-10.4202
域	-10.4205
圭峰	-10.4207
截	-10.4207
僕	-10.4208
呵	-10.4209
歷代	-10.4213
下來	-10.4214
大聖地藏王菩薩	-10.4216
忿	-10.4218
提到	-10.4218
裡	-10.422
已滅	-10.4221
財富	-10.4225
瓔珞	-10.4227
若復有人	-10.4228
45	-10.4229
北敦	-10.4229
博	-10.4232
享受	-10.4232
F	-10.4232
伏聞	-10.4235
本科儀	-10.4237
縫繢裝	-10.4237
三年	-10.4237
乃至成佛	-10.4238
孝子	-10.4239
身中	-10.424
鮑善恢	-10.424
品類	-10.4241
禪源諸詮集	-10.4242
災害	-10.4246
判斷	-10.4247
白衣	-10.4248
金剛經讚	-10.425
成了	-10.4251
修羅	-10.4253
為求	-10.4262
不從	-10.4263
身子	-10.4264
囉拏	-10.4265
收藏	-10.4269
何有	-10.4271
側	-10.4276
蹤	-10.4283
數量	-10.4285
作因	-10.4296
主張	-10.43
別錄	-10.4313
及諸	-10.4313
筆者	-10.4313
眼等	-10.4313
戒定慧	-10.4314
但在	-10.4317
以下是	-10.4321
十句	-10.4326
大藏	-10.4327
生歡喜	-10.4332
心裏	-10.4334
愍	-10.4337
有時	-10.4339
後者	-10.4339
仁者	-10.4344
無故	-10.4347
賴	-10.4351
於心	-10.4356
應是	-10.4361
故於	-10.4364
十二部經	-10.4365
26	-10.4369
得見	-10.4373
身上	-10.4376
迎	-10.4377
受記	-10.4378
深入	-10.4379
罪福	-10.438
苦者	-10.4381
認	-10.4383
共同	-10.4384
金棺	-10.4394
持齋	-10.4396
道德	-10.4399
無復	-10.4405
得聞	-10.4419
有七	-10.4423
有色	-10.4427
6、	-10.4429
盧	-10.4429
悉能	-10.4434
摧伏	-10.4438
此則	-10.4444
罪垢	-10.4456
一切諸法	-10.4472
無見	-10.4475
甲本	-10.4485
諸外道	-10.4487
三品	-10.4489
仍然	-10.4494
不絕	-10.4495
六通	-10.45
東西	-10.4508
難陀	-10.4516
無憂	-10.4521
所許	-10.4528
刻本	-10.453
她的	-10.4534
莫不	-10.4543
兩者	-10.4548
不可說	-10.4548
此由	-10.4551
有此	-10.4557
空無	-10.4559
引經	-10.4562
十善	-10.4563
而非	-10.457
華藏	-10.4572
周沙界	-10.4577
價值	-10.4577
佈	-10.4579
衛	-10.4581
戲	-10.4581
豈可	-10.4582
皇	-10.459
的一個	-10.4592
台	-10.4592
復有一解	-10.4593
羅剎	-10.4596
剪	-10.4596
府	-10.4596
卑	-10.4597
丈夫	-10.4597
所受	-10.4598
刀劍	-10.4598
銅	-10.4601
快	-10.4602
耀	-10.4602
奚	-10.4604
著衣持鉢	-10.4604
升	-10.4604
扶	-10.4604
辯才	-10.4604
怛姪他	-10.4605
樓	-10.4608
三摩地	-10.4609
拉雅納瓦蒂	-10.4609
讚歎	-10.461
祛	-10.461
善逝	-10.4615
男子	-10.4615
旋生	-10.4615
諾賀	-10.4617
如前所述	-10.4619
靈魂	-10.4623
因故	-10.4628
未見	-10.4629
諸罪	-10.4629
貞元入藏錄	-10.4632
3、	-10.4633
次序	-10.4633
倒想	-10.4634
廣破邪	-10.4634
之謂也	-10.4636
論曰	-10.4637
逼惱	-10.4639
同誦	-10.4642
無別	-10.4644
捨棄	-10.4645
三儀軌	-10.4656
儀至	-10.4657
來世	-10.4667
極為	-10.4667
h	-10.4672
把它	-10.4673
原來	-10.4681
雖不	-10.4683
作禮	-10.4686
有十	-10.4692
的原因	-10.4693
月光	-10.4698
能燒	-10.4698
出來	-10.4701
正信	-10.4703
一致	-10.4708
國中	-10.4721
岸	-10.4723
不堪	-10.4726
於一切	-10.4727
上面	-10.4744
施者	-10.4745
正說	-10.4747
自性成就	-10.4752
的關係	-10.476
作業	-10.4765
泥洹	-10.4766
其他	-10.477
僧伽	-10.4777
生死之	-10.4777
有其	-10.4778
總攝	-10.4787
護持	-10.4796
惜	-10.48
其實	-10.4802
化眾生	-10.4817
而白佛言	-10.482
。3	-10.4823
為他	-10.483
勉	-10.4831
唐代	-10.4832
五戒	-10.4843
其次	-10.4845
不與	-10.4845
偉大的	-10.4846
的文獻	-10.4856
苦海	-10.4856
名真	-10.4859
斷見	-10.4859
三空	-10.4866
從前	-10.4868
天王	-10.4872
性空	-10.4872
一直	-10.4874
此偈	-10.4888
由斯	-10.489
眼識	-10.4892
的作者	-10.4895
本節論述	-10.4897
人人	-10.4897
之結	-10.4904
之流	-10.4919
極微	-10.492
然則	-10.493
敦煌文獻	-10.4931
運載	-10.4937
嫌	-10.494
勝義	-10.494
明差別	-10.4945
va	-10.4959
佛子	-10.496
這裡	-10.4962
斫	-10.4963
那個	-10.4967
人心	-10.4968
其母	-10.4976
創	-10.4977
磨	-10.498
寶珠	-10.4983
營	-10.4989
未嘗	-10.4989
不說	-10.499
師子吼	-10.499
阿修羅	-10.499
倚	-10.499
曜	-10.4991
選	-10.4991
草木	-10.4991
十二因緣	-10.4992
暴	-10.4993
本性	-10.4994
自覺	-10.4995
科文	-10.4995
得阿耨多羅三藐三菩提	-10.4998
脈	-10.4999
壁	-10.4999
忻	-10.5
牒	-10.5
毒蛇	-10.5001
刃	-10.5001
斗	-10.5001
紛紛	-10.5002
紀	-10.5002
體相	-10.5003
名聞	-10.5003
男根	-10.5003
豐	-10.5005
捐	-10.5007
不忍	-10.5007
晝	-10.5007
擁護	-10.5007
巴伐菩提	-10.5008
條件	-10.5011
梵授王	-10.5011
奢	-10.5012
拾	-10.5012
應身	-10.5013
故無	-10.5013
縱橫	-10.5013
妨礙	-10.5015
大佛頂	-10.5016
刊雕	-10.5016
教導	-10.5016
篇幅	-10.502
勢力	-10.5021
殘缺	-10.5022
無非	-10.5023
經常	-10.5024
那樣	-10.5024
梵天	-10.5025
淨度三昧經	-10.5027
需	-10.5027
輕重	-10.503
坐禪	-10.5033
不應貪著	-10.504
重視	-10.505
▁C	-10.5051
十方世界	-10.5051
皆悉	-10.5054
有緣	-10.5057
禮世尊	-10.5059
改為	-10.506
號為	-10.5062
殺害	-10.5062
四法	-10.5065
彼諸	-10.507
求解脫	-10.507
道宣	-10.5074
是實	-10.5076
如彼	-10.5088
女子	-10.509
延壽	-10.5093
因由	-10.5097
讚曰	-10.5103
。(「	-10.5103
中說	-10.5103
咒唵	-10.5107
將來	-10.5117
實執	-10.512
隨意	-10.5121
受持讀誦	-10.5122
能與	-10.5125
實行	-10.5128
無得	-10.5131
所愛	-10.5131
漢文	-10.5141
們	-10.515
今生	-10.5165
三十二	-10.5166
若悟	-10.5167
》。《	-10.5168
豈非	-10.5169
法眼	-10.5172
俱生	-10.5182
第十一	-10.5183
迷情	-10.5189
aḥ	-10.5192
釋也	-10.5195
不通	-10.5197
應須	-10.5197
死時	-10.5202
ī	-10.5219
離苦	-10.5233
常樂	-10.5234
蜜	-10.5242
亦同	-10.5246
真性	-10.5249
冠	-10.5258
聞佛	-10.5259
三個	-10.5261
停	-10.5266
誠心	-10.5269
佛所	-10.5272
即便	-10.5275
人相	-10.5275
重重	-10.5276
大智	-10.5276
相也	-10.528
攝義	-10.5291
之自性	-10.5312
在他	-10.532
不達	-10.5323
齒	-10.5327
9.	-10.5327
孰	-10.5327
師為	-10.5328
皈	-10.534
積集	-10.5341
形成	-10.5346
見到	-10.5346
染著	-10.535
文化	-10.5351
之上	-10.5359
已知	-10.5361
若此	-10.5363
渴	-10.537
本願	-10.5372
直心	-10.5373
首楞嚴經	-10.5375
的著錄	-10.5376
怯弱	-10.5379
正觀	-10.5379
是從	-10.538
無上道	-10.5382
得名	-10.5383
觀待	-10.5385
之內	-10.5387
後人	-10.5391
心為	-10.5391
險	-10.5396
要求	-10.5397
恒常	-10.5397
束	-10.5399
是妄	-10.5399
採	-10.54
炎	-10.5401
冰	-10.5401
捧	-10.5403
須陀洹	-10.5403
薄伽梵	-10.5405
初中引經	-10.5409
透	-10.541
澤	-10.541
震	-10.5411
煩	-10.5411
西夏	-10.5412
胸	-10.5412
恃	-10.5412
可分為	-10.5412
荒	-10.5412
醜陋	-10.5413
炷	-10.5413
淵	-10.5413
耽	-10.5413
逸	-10.5415
淚	-10.5415
冬	-10.5417
資財	-10.5417
燭	-10.5418
優婆塞	-10.5418
浴	-10.5418
尺	-10.5419
效	-10.5419
芽	-10.5421
蹉	-10.5422
童	-10.5422
狗	-10.5424
漿	-10.5424
須臾	-10.5425
願罪消滅	-10.5425
孩兒	-10.5426
政	-10.5426
湯	-10.5426
斂	-10.5426
猛烈	-10.5426
舍利	-10.5427
當為	-10.5427
迦摩囉	-10.5428
之本	-10.5429
默然	-10.5429
賞	-10.5429
叡	-10.543
之情	-10.543
忠	-10.543
肢	-10.5431
瑜伽師地論	-10.5433
鬥爭	-10.5435
西明寺	-10.5436
費長房	-10.5437
天聖釋教	-10.5437
神變	-10.5438
獵	-10.5442
感官智	-10.5444
反映了	-10.5449
古代	-10.5449
嚩羅	-10.5449
心中了了分明	-10.545
卷數	-10.5451
大乘禪門	-10.5452
子一	-10.5455
寺院	-10.5461
無言	-10.5462
若欲	-10.5463
妄語	-10.547
今有解結	-10.547
世世	-10.5473
磧砂藏	-10.5474
著錄了	-10.5477
後代	-10.5477
法珍	-10.5481
所證	-10.5483
神我	-10.5485
六情	-10.5486
觀見	-10.5486
直至	-10.5487
修學	-10.5487
妙用	-10.549
優	-10.55
作損害	-10.5503
tad	-10.5506
資生	-10.5509
轉法輪	-10.5511
解說	-10.5511
心所法	-10.5512
從事	-10.5518
已畢	-10.5523
淨穢	-10.5523
之過患	-10.5527
四天下	-10.5531
甚大	-10.5531
遙	-10.5537
八難	-10.554
明淨	-10.5543
三身	-10.5546
八種	-10.555
不要	-10.5558
但能	-10.556
兩號	-10.5562
滅度	-10.5563
靡	-10.5571
得知	-10.5575
命的	-10.5578
入地獄	-10.5579
因中	-10.5582
總問	-10.5585
行願	-10.5594
從今	-10.5596
應有	-10.5598
師長	-10.5598
為主	-10.5603
能得	-10.5615
不輕	-10.5616
斯則	-10.5619
性質	-10.5624
異體	-10.5627
▁3	-10.5634
三重	-10.5636
作是	-10.5641
道安	-10.5651
無智	-10.5659
的部分	-10.5664
乃是	-10.5664
應無	-10.5665
受樂	-10.5667
無益	-10.5675
有法	-10.5676
汝於	-10.5679
如是思維	-10.5688
完整	-10.5689
敦煌遺書中	-10.5697
難思	-10.5702
彼此	-10.5703
眾生見	-10.5707
經說	-10.5708
不明	-10.5711
的形式	-10.5714
講的	-10.5717
玄奘	-10.5726
身根	-10.5732
之物	-10.5736
未知	-10.5738
不退轉	-10.5747
作法	-10.5749
的思想	-10.5755
妙香	-10.5756
兩卷	-10.5759
是如來	-10.5759
結界	-10.5768
刻經	-10.577
緣生	-10.5775
經過	-10.5779
此品	-10.5781
法王身	-10.5784
覺性	-10.5792
48	-10.5796
筆	-10.5804
各有所	-10.5806
依他	-10.5808
以是	-10.5815
而後	-10.5816
陀那	-10.5816
注意	-10.5817
正確	-10.582
苦集	-10.5821
預	-10.5825
明白	-10.5826
初文分	-10.583
商	-10.583
不安	-10.5831
令人喜悅適意	-10.5834
結構	-10.5837
不來	-10.5838
天台宗	-10.5838
區	-10.5838
放光	-10.584
徑	-10.5841
陀羅	-10.5843
一切諸	-10.5843
嫉	-10.5843
譏	-10.5844
叭囉	-10.5848
焦	-10.5848
村	-10.5848
稟	-10.5849
屠兒	-10.585
騰	-10.585
煙	-10.585
漫	-10.5851
環	-10.5852
屋	-10.5852
潛	-10.5852
胡	-10.5852
而能	-10.5853
毫	-10.5853
匠	-10.5853
L	-10.5853
秋	-10.5854
梵音	-10.5854
囚	-10.5855
奏	-10.5856
為之	-10.5856
餐	-10.5856
欣	-10.5857
孟	-10.5858
歷劫	-10.5859
無著論曰	-10.5859
丈六	-10.586
金銀	-10.586
以此之故	-10.5861
山林	-10.5861
誹謗	-10.5861
六入	-10.5861
聚落	-10.5862
這個偉大的人	-10.5863
王宮	-10.5865
如前所說	-10.5865
利用	-10.5865
祐	-10.5865
名義	-10.5865
恰	-10.5865
副	-10.5866
托鉢	-10.5869
恐怖	-10.587
貪嗔	-10.587
組成	-10.5871
降道場	-10.5873
直接	-10.5874
香積	-10.5876
達麼	-10.5876
經宣演	-10.588
災難	-10.5881
益物	-10.5882
悉達	-10.5885
諫	-10.5885
自恣	-10.5886
心地	-10.5887
僧寶	-10.5888
的時候	-10.5889
聞經	-10.5891
該文獻	-10.5899
行相	-10.5899
壽者相	-10.5916
不墮	-10.5925
若有人	-10.5929
□□□□	-10.593
表現	-10.5933
真智	-10.5933
見諦	-10.5933
得大	-10.594
大約	-10.5943
很高興	-10.5947
作饒益	-10.595
苦受	-10.5953
不殊	-10.5954
明珠	-10.5958
歸入	-10.5959
其光	-10.5961
我的	-10.5966
遍滿	-10.5985
計人	-10.5992
為難	-10.5995
可謂	-10.5995
應成	-10.5998
得失	-10.6002
l	-10.6003
不出	-10.6009
已來	-10.6021
不能得	-10.6029
誐	-10.603
明三種	-10.6034
苦難	-10.6035
得度	-10.604
我不	-10.6042
件	-10.6043
塵沙	-10.6051
一次	-10.606
回到	-10.6072
為善	-10.6073
六十	-10.6073
罪過	-10.6074
又言	-10.6075
多有	-10.6084
妄心	-10.6112
真常	-10.6112
欲得	-10.6115
苦滅	-10.6116
55	-10.6119
行事	-10.6122
逼	-10.6125
二空	-10.6127
而產生	-10.6132
分身	-10.6134
六波羅蜜	-10.6136
的佛教	-10.6138
非無	-10.614
上來所	-10.6142
法樂	-10.6145
部經典	-10.6146
嘉	-10.615
如是世尊	-10.6155
為當	-10.6155
依次	-10.6157
曹	-10.6158
於境	-10.6162
或謂	-10.6163
水中	-10.6166
時有	-10.6179
於自身	-10.618
英	-10.618
契經	-10.6181
非實	-10.6182
聽法	-10.6186
起於	-10.6191
非唯	-10.6209
時世尊	-10.621
千字文帙號	-10.6213
所謂的	-10.6216
為眾生	-10.6225
作是言	-10.6229
所詮	-10.6236
斷盡	-10.6238
羯	-10.6244
𩕳	-10.6245
鋒	-10.6249
朗	-10.625
塵勞	-10.6253
石刻	-10.6254
yo	-10.6258
物質	-10.6262
護法	-10.6263
來生	-10.6264
問言	-10.627
如有	-10.627
檀	-10.6272
或以	-10.6274
作了	-10.6281
干	-10.6281
規	-10.6283
拘	-10.6283
侶	-10.6283
如能	-10.6284
輾轉	-10.6288
慾望於此	-10.6288
穀	-10.6288
映	-10.6293
彼如是	-10.6293
四年	-10.6295
景	-10.6296
展	-10.6297
窣	-10.6298
纖毫	-10.6299
宣演	-10.63
牙	-10.63
兄	-10.6301
下文云	-10.6302
雅	-10.6302
臺	-10.6302
社	-10.6303
稻	-10.6303
阿吒力	-10.6303
魂	-10.6304
之差別	-10.6305
彈指	-10.6305
奈	-10.6305
四聖諦	-10.6307
這樣說	-10.6308
射	-10.6308
以體收相	-10.6309
亦不見	-10.6309
基	-10.631
凝	-10.631
逾	-10.631
探	-10.631
奇哉	-10.631
具體	-10.6311
地藏菩薩十齋日	-10.6312
歇	-10.6312
呈	-10.6313
善吉	-10.6313
增減	-10.6313
崩	-10.6315
欄第	-10.6316
堅牢	-10.6317
泡	-10.6317
費	-10.6318
安慰	-10.6318
若有善男子	-10.6319
三階教	-10.632
實踐	-10.6322
常能	-10.6323
永樂大典	-10.6326
巾	-10.6326
四天王	-10.6327
禮敬	-10.6329
H	-10.6329
心肝	-10.6329
樂受	-10.6329
阿那含經	-10.633
惟淨	-10.6331
生故	-10.6331
趙城金藏	-10.6333
口業	-10.6334
87	-10.6334
這個問題	-10.6336
立彼宗	-10.6337
戴	-10.6337
教授	-10.6338
於內	-10.634
所修	-10.6343
靈山	-10.6343
君子	-10.6343
不止	-10.6344
爛	-10.6347
順序	-10.6348
之地	-10.6348
仙人	-10.6348
作者不詳	-10.6349
疏文	-10.6353
息滅	-10.6353
兩字	-10.6356
婆囉	-10.6364
論述了	-10.6364
繫縛	-10.6367
《〈	-10.6368
三摩耶	-10.6373
貪欲	-10.6378
段落	-10.6382
不可見	-10.6383
佛寶	-10.6384
軌	-10.6385
百由旬	-10.6386
該號	-10.6386
來至	-10.6388
生物	-10.6393
完全智	-10.64
觀之	-10.6401
人的	-10.6411
不放逸	-10.6413
大乘經	-10.6417
何等	-10.6418
到經本	-10.6419
疾病	-10.6419
令彼	-10.6421
無念	-10.6425
生生	-10.6426
天宮	-10.6427
道言	-10.6429
前三	-10.643
受者	-10.6431
的記載	-10.6441
得果	-10.6442
果頭	-10.6451
無非是	-10.6454
地位	-10.6464
正道	-10.6465
所取	-10.6475
心淨	-10.6477
但有	-10.6482
07	-10.6484
如是說	-10.6488
耆那教的	-10.6491
摩囉	-10.6492
標題	-10.6494
我們可以	-10.6494
應供	-10.6498
為義	-10.6502
有八萬四千	-10.6503
世尊告	-10.6504
兒子	-10.6504
證真	-10.6507
得生	-10.6508
真身	-10.6509
得出	-10.6509
或在	-10.6512
能見	-10.6513
何因	-10.6513
地上	-10.6513
理解	-10.6515
的說法	-10.6517
十方諸佛	-10.6518
同體	-10.6519
證入	-10.6521
ni	-10.6524
p	-10.6529
彼無	-10.653
滅則	-10.6533
財寶	-10.6535
後際	-10.6538
六處	-10.6539
的時間	-10.6542
出世間	-10.6547
其福	-10.6549
正破	-10.655
方得	-10.6558
是菩薩	-10.6561
於世	-10.6561
或於	-10.6565
般若經	-10.6567
不敬	-10.6572
聞此	-10.658
普遍	-10.6591
以自	-10.6594
善人	-10.6595
餘處	-10.6595
賤	-10.6605
36	-10.662
不名	-10.6635
心也	-10.6636
有一個	-10.6636
一詞	-10.6636
此亦	-10.6647
信受	-10.665
本源	-10.6653
自相	-10.6655
我執	-10.6656
慈母	-10.6658
手執	-10.666
一字	-10.6667
之下	-10.6668
曾無	-10.6674
由是	-10.6678
論應知	-10.6678
善事	-10.6681
無量無邊	-10.6683
當時的	-10.6691
的地方	-10.6694
人物	-10.6697
相符	-10.6697
總之	-10.6698
譯為	-10.6698
憐	-10.6698
一切世間	-10.6706
故我	-10.6712
心王	-10.6722
證果	-10.6729
瞿曇	-10.6732
結跏趺坐	-10.6742
鉤	-10.6748
來此	-10.6749
堅持	-10.6751
佛母	-10.6752
謂於	-10.6753
太陽	-10.6754
屍	-10.6756
本師	-10.6756
陸	-10.6761
針	-10.6762
作損惱	-10.6763
軀	-10.6763
龕	-10.6765
故此	-10.6765
虔	-10.6767
冤讎	-10.6769
慰	-10.6769
管	-10.677
優婆夷	-10.6773
割肉	-10.6774
所斫	-10.6775
攬	-10.6775
誑	-10.6775
率	-10.6776
箭	-10.6777
瑩	-10.6778
汙	-10.6778
未知法中	-10.6779
謙	-10.6779
俱胝	-10.6779
諾	-10.678
膽	-10.6781
一心奉請	-10.6781
人所	-10.6781
相到	-10.6782
慈氏	-10.6783
囑	-10.6784
裝	-10.6784
稿	-10.6786
縣	-10.6786
擾	-10.6786
抑	-10.6787
於生死	-10.6787
怛他伽哆	-10.6787
欠	-10.6787
確	-10.6789
局	-10.6789
懇	-10.679
換	-10.6791
般涅槃	-10.6791
天上人間	-10.6792
腸	-10.6792
舉揚	-10.6792
震動	-10.6793
貝	-10.6793
校勘	-10.6794
歡樂	-10.6794
儘管	-10.6795
錯誤	-10.6795
康	-10.6795
唱題	-10.6795
詔	-10.6796
鳴	-10.6796
由於專心繫念而認清	-10.6797
慧琳	-10.6798
於世間一切事物也無所執取	-10.6798
超越	-10.6799
所樂	-10.6799
譯本	-10.6803
幫助	-10.6803
書籍	-10.6805
最澄	-10.6805
有八	-10.6807
高僧傳	-10.6808
領納	-10.6808
安置	-10.6809
地藏菩薩	-10.6809
不假	-10.6809
慈恩	-10.6811
收錄	-10.6812
損益	-10.6813
雖殊	-10.6813
美德	-10.6815
誠心仰請	-10.6816
胎生	-10.6818
隨逐	-10.682
運動	-10.682
般若得經	-10.6821
三種悉地法	-10.6821
應勵力	-10.6823
澄觀	-10.6824
信香	-10.6826
何曾	-10.6826
一旦	-10.6829
佛剎	-10.683
色彩	-10.683
憂惱	-10.6832
我應	-10.6833
染污	-10.684
迦葉菩薩	-10.6843
心王經	-10.6846
為道	-10.6848
三法	-10.6854
這說明	-10.6865
但由於	-10.6866
逐漸	-10.687
十力	-10.6871
修菩薩行	-10.6872
講說	-10.6875
一定	-10.6877
他是	-10.6883
不遠	-10.6886
85	-10.6888
虛名	-10.689
有別	-10.6891
之行	-10.6896
共住	-10.69
所說法	-10.6905
總答	-10.6909
破壞	-10.6912
不能自	-10.6912
悉地	-10.6912
是在	-10.6913
無眾生	-10.6913
所出	-10.6915
十八界	-10.6916
摩訶般若波羅蜜	-10.6928
他利	-10.6928
上文	-10.6928
應物	-10.6929
為何	-10.693
得此	-10.693
無能	-10.6931
疑經	-10.6932
明其	-10.6932
在我	-10.6935
諸欲	-10.6941
以何為	-10.6954
請你	-10.6961
百年	-10.6961
宗密的	-10.6962
見色	-10.6962
正明	-10.6965
十卷	-10.6967
即得	-10.6969
b	-10.6972
44	-10.6977
此論	-10.698
不合	-10.6982
有為法	-10.6984
魔王	-10.699
二智	-10.6998
色處	-10.7
佛國	-10.7001
直觀智	-10.7014
大量	-10.7015
額	-10.7022
—	-10.7025
妙理	-10.7029
極樂	-10.7029
皆能	-10.7034
前述	-10.7042
謂由	-10.7044
愛見	-10.7054
52	-10.7075
不聞	-10.7076
我此身	-10.7077
說此	-10.708
時節	-10.7086
大品	-10.7096
愛者	-10.7104
āni	-10.7104
為孝	-10.7107
杵	-10.7108
依彼	-10.7115
國家	-10.7116
身份	-10.7122
慈父	-10.7123
有疾	-10.7124
他們的	-10.713
得之	-10.7134
四部	-10.7136
不修	-10.714
得佛	-10.7151
高山寺本	-10.7155
善不善	-10.716
犯戒	-10.7164
所藏	-10.7167
閻浮提	-10.7175
非命	-10.7178
之際	-10.7183
不易	-10.719
誰為	-10.7199
復言	-10.7205
譯出	-10.7213
譯者	-10.7214
五官	-10.7221
因明	-10.7223
閉	-10.7223
法無我	-10.7228
住世	-10.7229
音義	-10.723
之者	-10.7232
跟	-10.7234
觀想	-10.7237
測	-10.7238
反映	-10.7245
身相	-10.7245
役	-10.7246
今世	-10.7248
飲酒	-10.7248
拙	-10.7249
以其	-10.7252
還同	-10.7252
歌	-10.7253
感受	-10.7254
天堂	-10.726
梵授	-10.7266
爪	-10.7267
疲	-10.7268
琉璃筒	-10.7269
傍	-10.7271
他方	-10.7271
C	-10.7273
等故	-10.7274
浪	-10.7275
D	-10.7275
麗	-10.7275
粗細	-10.7275
凶	-10.7277
特別	-10.7278
為斷此疑	-10.7279
蕩	-10.7279
訛	-10.7279
雁	-10.728
龍樹	-10.728
涼	-10.7281
弊	-10.7281
茶	-10.7281
奔	-10.7281
雞	-10.7281
俱有	-10.7282
婆羅	-10.7282
譬喻	-10.7283
瓦	-10.7283
一由旬純黃金色	-10.7283
腦	-10.7284
降魔	-10.7284
克	-10.7284
堆	-10.7285
寫經造像	-10.7286
曠	-10.7286
閻羅	-10.7287
森林	-10.7288
醒	-10.7288
駕	-10.7288
出品名	-10.7288
爰	-10.7288
訪	-10.7288
抉擇	-10.7288
狹	-10.7289
勘	-10.7289
滋	-10.7289
eka	-10.729
臥具	-10.729
罵	-10.729
盜賊	-10.7291
鹿	-10.7292
袈裟	-10.7293
梵志	-10.7294
嗚呼	-10.7295
仔細	-10.7296
拋	-10.7297
系	-10.7297
後三	-10.7298
86	-10.7299
峰	-10.7299
警策	-10.73
麥	-10.7301
引導	-10.7302
食肉者	-10.7303
信仰	-10.7304
忽然	-10.7305
迅速	-10.7306
聽到這些話	-10.7306
蘇那	-10.7306
淨度	-10.7306
安忍	-10.7307
塞那克	-10.7309
滿馱	-10.731
kā	-10.7311
色心	-10.7311
複合體	-10.7312
假使	-10.7313
佛為心王菩薩說頭陀經	-10.7313
種姓	-10.7313
佛之	-10.7316
見我	-10.7317
發菩提	-10.7319
力士	-10.7319
近代抄本	-10.7321
在內	-10.7321
宮殿	-10.7323
異也	-10.7323
依法	-10.7324
如其	-10.7327
願心	-10.7328
六趣	-10.7328
較多	-10.733
為諸	-10.7336
斷煩惱	-10.7339
根源	-10.734
永無	-10.734
妄識	-10.7341
文五	-10.7342
林中	-10.7343
實際上	-10.7343
懷疑	-10.7346
14、	-10.7351
夢中	-10.7353
卷二	-10.7355
復原	-10.7358
▁B	-10.7358
滿願	-10.7359
下品	-10.7368
本尊	-10.7369
恒時	-10.7369
為令	-10.7373
正好	-10.7373
此理	-10.7379
。—	-10.7381
想著	-10.7381
題名	-10.7382
須依	-10.7384
兩行	-10.7385
為此	-10.7387
排除	-10.7389
若許	-10.7389
千萬	-10.7409
乙本	-10.7417
亦應如是	-10.7426
其本	-10.7428
大菩薩	-10.743
只有	-10.7434
贍部洲	-10.7435
有的	-10.7435
至少	-10.7436
無所染	-10.7437
統一	-10.7437
煩惱障	-10.7441
於諸有情	-10.7442
的東西	-10.7443
拔苦	-10.7444
相貌	-10.7444
無滅	-10.7448
可能是	-10.7455
聞說	-10.7457
教義	-10.7463
一起	-10.7463
,15	-10.7467
既是	-10.7468
七年	-10.7471
」,「	-10.7475
門中	-10.7486
分成	-10.7486
雖無	-10.7489
不違	-10.7491
造罪	-10.7493
大法	-10.7497
若離	-10.75
些	-10.7501
二答	-10.7501
署	-10.7503
威德	-10.7508
止息	-10.7508
疏釋	-10.7509
悔過	-10.7515
故得	-10.7523
35	-10.7525
行孝	-10.7526
鄰	-10.7529
觀世音菩薩	-10.753
斷絕	-10.7543
聽了	-10.7546
烈	-10.7548
瞋心	-10.755
一法	-10.7558
藏外	-10.7559
的形態	-10.756
願消滅	-10.7562
離去	-10.7562
由彼	-10.7565
其父	-10.7565
手等	-10.7572
初地	-10.7576
日日不	-10.758
苦因	-10.7582
著我	-10.7583
各異	-10.7584
不悟	-10.759
諦實成就	-10.7593
ma	-10.7595
上的	-10.7616
此義	-10.7618
如佛	-10.7619
法無	-10.7619
不言	-10.7623
而於	-10.7629
二相	-10.7631
此後	-10.7641
仰啟	-10.7643
邪正	-10.765
異本	-10.7659
所在	-10.7662
神咒	-10.7663
日光	-10.7668
何事	-10.7668
即能	-10.7669
得益	-10.7674
厄	-10.7678
【	-10.7678
婆耶	-10.768
見此	-10.7682
從來	-10.7682
五逆	-10.7685
以彼	-10.7688
取其	-10.7689
普為	-10.7689
喻如	-10.7696
奴婢	-10.7698
恩愛	-10.7699
心性	-10.7707
生苦	-10.7711
電	-10.7712
者是	-10.7716
明因	-10.7722
慚愧	-10.7725
五分	-10.7726
諸種	-10.7727
煩惱性	-10.7727
見解	-10.7737
所有的人	-10.7739
佛眼	-10.7739
使者	-10.774
值得	-10.7741
夙	-10.7743
功用	-10.7745
於其	-10.7748
悟解	-10.7752
產生於	-10.7752
滴	-10.7754
即知	-10.7756
本人	-10.7758
自性成就之	-10.7759
善趣	-10.7763
本生	-10.7766
+	-10.7769
未曾有	-10.7769
無著論	-10.777
參差	-10.7778
迦旃延	-10.778
式	-10.7781
有過	-10.7782
有力	-10.7782
戒者	-10.7784
譽	-10.7785
粗重	-10.7789
末世	-10.779
苦滅道	-10.7793
佛心	-10.7795
又是	-10.7796
輔	-10.7799
曳	-10.7799
)《	-10.7799
程	-10.78
家祕	-10.7802
雷	-10.7804
bhāva	-10.7804
口中	-10.7806
範	-10.7806
孕	-10.7807
藍	-10.7807
若不爾者	-10.7807
掩	-10.7808
拂	-10.7808
盈	-10.7808
仁師	-10.7809
翳	-10.7809
蔭	-10.7809
降臨	-10.781
盤	-10.781
衰損	-10.781
扇	-10.7811
主治	-10.7811
綴接	-10.7812
羅網	-10.7812
一名	-10.7813
爐	-10.7813
文章	-10.7813
馬立奇	-10.7813
喧	-10.7814
泛	-10.7814
整個	-10.7814
威力	-10.7815
乍	-10.7815
驕慢	-10.7815
阿含經	-10.7815
孫	-10.7815
死者	-10.7815
誠心禮別	-10.7816
醉	-10.7816
是菩薩淨土	-10.7816
躬	-10.7817
包含	-10.7817
徐	-10.7817
以此驗	-10.7817
譬如有人	-10.7817
逮	-10.7818
遶	-10.7818
如今	-10.7819
憒鬧	-10.7819
珍貴	-10.7819
K	-10.782
灰	-10.7821
放棄	-10.7822
濃	-10.7822
遵守	-10.7825
甚多世尊	-10.7825
黑城本	-10.7825
晉	-10.7825
J	-10.7827
區分	-10.7827
的五種	-10.7829
塚間	-10.783
閱	-10.783
無所有	-10.783
勝鬘	-10.7833
加持誦	-10.7833
信士	-10.7833
調查	-10.7833
修得	-10.7835
中央	-10.7835
離欲	-10.7835
能與眾生	-10.7837
廣品歷章	-10.7837
所抄	-10.7838
怛羅	-10.7838
遍十方	-10.7839
其他經錄	-10.7839
明立論因	-10.7839
完全相同	-10.7841
好象	-10.7841
悉應	-10.7842
聖典智	-10.7843
今我	-10.7847
十八界中	-10.7847
皈依三寶	-10.7847
回答	-10.7849
今朝	-10.7849
行布施	-10.7849
何由	-10.7849
編撰	-10.7851
六賊	-10.7852
釋迦如來	-10.7853
得無生忍	-10.7853
波羅蜜多	-10.7854
喜捨	-10.7856
這麼	-10.7858
增補	-10.7865
白世尊	-10.7866
後時	-10.7868
下劣	-10.7871
世諦	-10.7875
周遍	-10.7878
是苦	-10.788
冤結	-10.7882
碑	-10.7882
此言	-10.7888
能持	-10.789
覺知	-10.7892
為什麼	-10.7895
法輪	-10.7898
大義	-10.79
但坐	-10.7901
萬善	-10.7901
惡念	-10.7901
願為	-10.7909
句子	-10.7915
法想	-10.7918
已得	-10.7919
未一	-10.7921
行之	-10.7922
等四	-10.7925
明種子	-10.793
若我	-10.7936
圓通	-10.7941
勝利	-10.7945
四眾	-10.7948
若有眾生	-10.7949
親近	-10.795
曼	-10.7957
一百	-10.7957
正義	-10.7957
之異	-10.7961
觀行	-10.7962
但以	-10.7967
諸善	-10.7968
各地	-10.7969
明代	-10.7971
大願	-10.7975
能取	-10.7976
慈尊	-10.7978
您的	-10.798
異門	-10.7981
難以	-10.7983
亦須	-10.7983
不喜	-10.7986
一切煩惱	-10.799
之王	-10.7994
須彌山	-10.8004
無染	-10.8006
正等	-10.8007
的影響	-10.8022
傳說	-10.8024
而在	-10.8024
道之	-10.8027
一如	-10.8029
二親	-10.8029
申三	-10.8032
色相	-10.8037
方知	-10.8037
非時	-10.8041
依持	-10.8043
妙音	-10.8043
嚩日囉	-10.805
現相	-10.805
見道	-10.8053
衣食	-10.8055
行禮	-10.8055
五眼	-10.8056
的註釋	-10.8058
聖眾	-10.806
要是	-10.8063
相關	-10.8069
他心	-10.8071
全文	-10.8076
說名	-10.8076
不任	-10.8078
釋迦牟尼	-10.8078
能使	-10.8079
甚難	-10.8081
流出	-10.8082
便能	-10.8082
皆空	-10.8084
的不同	-10.8086
法喜	-10.8086
作意	-10.8088
無求	-10.8091
之善	-10.8093
明顯	-10.8095
之大	-10.8098
兩節	-10.8101
得成	-10.8102
是空	-10.8104
欲明	-10.8104
saṃ	-10.8109
心是	-10.8111
六界	-10.8115
明四	-10.8119
不應瞋	-10.8119
法故	-10.812
的痛苦	-10.8123
說也	-10.8131
成熟	-10.8131
達囉	-10.8132
同為	-10.8137
頭上	-10.814
外凡	-10.8141
總是	-10.8144
pā	-10.8151
不等	-10.8161
事物	-10.8166
定慧	-10.8169
卷五	-10.8169
一劫	-10.817
放在	-10.8172
為先	-10.8173
之補特伽羅	-10.8181
的主要	-10.8183
戒行	-10.8184
四十九	-10.8188
為緣	-10.8189
九歲	-10.8189
所斷	-10.8189
諸佛子	-10.819
作如是	-10.8192
辟支	-10.8195
非一	-10.8196
不如法	-10.8199
此土	-10.8204
自性空	-10.8206
彌勒菩薩	-10.8209
亦未	-10.8214
此行	-10.8221
威神	-10.8226
從緣	-10.8228
正理	-10.8229
sa	-10.8236
可以肯定	-10.8236
若在	-10.8239
卷三	-10.824
不犯	-10.8242
身命	-10.8242
理無	-10.8245
見其	-10.8247
淨心	-10.8251
提供了	-10.8256
一解	-10.8257
告言	-10.8258
在前	-10.8259
別有	-10.8261
佛號	-10.8262
是由	-10.8263
調御	-10.8265
又如	-10.8275
ka	-10.8276
高興地	-10.8285
置於	-10.8287
行施	-10.8287
神明	-10.8289
或云	-10.8289
番	-10.8292
一節	-10.8301
後不久	-10.8302
指示	-10.8305
中道	-10.8308
添	-10.8311
勤精進	-10.8316
的一種	-10.8317
寶蓋	-10.8318
雖行	-10.8318
以何	-10.8324
揭	-10.8326
所用	-10.8327
斬	-10.833
向上	-10.8333
得授記	-10.8334
所說的	-10.8335
聯	-10.8336
獅子	-10.8336
維	-10.8337
僧法誦出經	-10.8338
都有	-10.8339
育	-10.834
楚	-10.8347
咎	-10.835
長行及偈	-10.835
薦	-10.835
枉	-10.835
增上慢	-10.8352
秦	-10.8352
綴	-10.8356
(?)	-10.8358
鈴	-10.8358
瑟	-10.8358
委	-10.8358
襲	-10.8358
詐	-10.8359
無貪	-10.8359
熾盛	-10.8359
臭	-10.836
輯	-10.836
死入地獄	-10.8361
茂	-10.8361
殖	-10.8362
斥	-10.8362
跪	-10.8362
沈	-10.8362
囊	-10.8362
泣	-10.8363
以是義故	-10.8363
亮	-10.8363
榮	-10.8363
焚燒	-10.8363
飢渴	-10.8363
練	-10.8365
杜	-10.8365
廓	-10.8365
楊	-10.8366
三藐三菩提	-10.8366
誘	-10.8366
怎麼	-10.8367
助伴	-10.8367
攝受報恩	-10.8367
債	-10.8367
裂	-10.8368
辱	-10.8369
竹	-10.837
大孝釋迦佛	-10.837
奧	-10.837
貪瞋癡	-10.837
豆	-10.8371
慇勤	-10.8372
舟	-10.8372
辭彙	-10.8373
模式	-10.8373
愚昧	-10.8373
美惡	-10.8374
入般涅槃	-10.8374
精舍	-10.8374
繩	-10.8375
拳	-10.8375
即從座起	-10.8375
霜	-10.8375
首殘	-10.8377
戌	-10.8377
無量劫來	-10.8378
降臨道場	-10.8378
高興	-10.8379
莫作是念	-10.8379
霞	-10.838
圖書館	-10.838
泯	-10.838
梁	-10.8381
敬拜	-10.8381
耽著	-10.8382
控制	-10.8383
江河	-10.8384
梵語	-10.8385
凡人	-10.8385
啟請	-10.8385
簡單	-10.8385
行處	-10.8385
戲論	-10.8386
作如是言	-10.8387
討論	-10.8387
法空	-10.8387
以下簡稱	-10.8388
祭祀	-10.8388
綜	-10.8389
涉及	-10.8392
帶來	-10.8392
十世紀	-10.8392
不再	-10.8393
在僧法誦出經中著錄	-10.8393
首尾	-10.8394
§9.2	-10.8394
儀式	-10.8395
思量	-10.8395
黃金	-10.8395
方按	-10.8396
任持	-10.8396
啟問	-10.8396
神足	-10.8398
空衣派刊本	-10.8398
教化眾生	-10.8406
長安	-10.8411
金口	-10.8414
達到	-10.8418
離開	-10.8418
具備	-10.8419
妙藥	-10.842
惡魔	-10.8422
大藏經的	-10.8422
非虛	-10.8423
形容	-10.8424
為正	-10.8425
不空	-10.8427
它是	-10.843
而修	-10.843
當生	-10.843
初明	-10.8435
無情	-10.8436
右半葉	-10.8439
願此	-10.844
法義	-10.8442
與此	-10.8443
抄經	-10.8443
菩薩成佛	-10.8447
奉持	-10.8449
明確	-10.8452
當於	-10.8453
我王	-10.8453
修福	-10.8457
消失	-10.846
惡口	-10.8465
如空	-10.8467
孝順	-10.8469
輕微	-10.847
總錄	-10.8471
萬億	-10.8479
正因	-10.8481
此答	-10.8483
?』	-10.8484
已生	-10.8484
引證	-10.8484
古人	-10.8484
的功德	-10.8485
13、	-10.8487
方能	-10.8492
等諸	-10.8495
心懷	-10.8496
所緣境	-10.85
且道	-10.8509
懺法	-10.8509
凡情	-10.8513
亦復	-10.8516
象王	-10.852
注釋	-10.852
漸漸	-10.8532
真空	-10.8537
生處	-10.8539
有四種	-10.8539
生死苦	-10.8542
難可	-10.8544
盡力	-10.8548
諸蘊	-10.8551
之恩	-10.8552
百億	-10.8552
實語	-10.8553
上方	-10.8553
tva	-10.8557
生瞋恚	-10.8559
特點	-10.8562
起心	-10.8563
來說	-10.8564
38	-10.8565
即成	-10.8572
女身	-10.8573
知足	-10.8577
意業	-10.8579
也有	-10.8583
一事	-10.8584
若由	-10.8586
是常	-10.8586
下是	-10.8586
有著	-10.8586
四海	-10.8593
釋論	-10.8595
願望	-10.8597
大都	-10.8614
三百	-10.8615
至誠	-10.8625
作大	-10.8629
的身體	-10.8631
願諸	-10.8631
薰	-10.8632
何名	-10.8633
性地	-10.8634
周錄	-10.8636
前說	-10.8636
未盡	-10.8637
令諸眾生	-10.8641
要須	-10.8642
明三	-10.8651
的確	-10.8653
既至	-10.8656
大苦	-10.8659
yā	-10.866
》,《	-10.8662
嚴淨	-10.8667
得人身	-10.8669
翻譯的	-10.8673
bh	-10.8673
手持	-10.8674
十億	-10.8678
有用	-10.8679
今將	-10.8683
能作	-10.8683
等同	-10.8687
於人	-10.8701
誐誐	-10.8704
諸惡	-10.8715
身也	-10.8716
書中	-10.8721
往生	-10.8742
某些	-10.8747
之文	-10.8748
一條	-10.8749
雖是	-10.875
罪愆	-10.8752
修證	-10.8759
自性不成	-10.8759
我聞	-10.876
增加	-10.8762
中無	-10.8765
若彼	-10.8765
均有	-10.8768
毛孔	-10.877
醫	-10.8773
下面	-10.8777
著相	-10.8784
華嚴宗	-10.879
佛及	-10.8791
那耶	-10.8795
聞之	-10.8799
擇	-10.8804
ād	-10.8806
不救	-10.8811
說完	-10.882
個如海量	-10.8822
與佛	-10.8827
ana	-10.8829
檀那	-10.8832
究	-10.8834
對照	-10.8839
眾聖	-10.8845
說之	-10.8848
之路	-10.8849
慚	-10.8852
的觀點	-10.8853
美妙	-10.8853
與我	-10.8854
三心	-10.8855
作福	-10.8858
有智者	-10.8859
更相	-10.886
前者	-10.8867
十戒	-10.8868
證知	-10.887
修成	-10.8874
分作	-10.8874
請師	-10.8877
出版	-10.8882
▁5	-10.8885
眾緣	-10.8889
旦	-10.8894
97	-10.8895
習氣	-10.8901
云何不	-10.8903
刪	-10.8904
倘	-10.8905
拈	-10.8908
獨立	-10.891
最為	-10.8917
應修	-10.8918
聖諦	-10.8923
奇妙稀有之法	-10.8933
為大	-10.8935
嘆佛	-10.8936
寢	-10.8938
𤙣	-10.8939
了達	-10.8939
荷	-10.894
有尋有伺	-10.894
涅	-10.8941
穢濁	-10.8943
衝	-10.8945
顯真	-10.8945
猛火	-10.8945
鳳	-10.8946
捉	-10.8947
及與	-10.8948
吐	-10.8948
毗婆沙師	-10.8948
陵	-10.8949
爺娘	-10.8949
盤陀	-10.8949
參考	-10.895
埋	-10.895
帛	-10.895
八住以上	-10.895
迦羅	-10.895
鬚	-10.8951
結果	-10.8951
省察	-10.8951
常樂我淨	-10.8952
伏願特垂	-10.8952
無生無滅	-10.8953
乾坤	-10.8953
渴仰	-10.8953
啼	-10.8953
巨	-10.8953
臣民	-10.8954
迫	-10.8954
賓	-10.8954
R	-10.8955
義理	-10.8955
討	-10.8955
ti	-10.8956
冷	-10.8956
敗	-10.8956
大王莫	-10.8956
跛	-10.8956
串習	-10.8957
揀	-10.8957
端直	-10.8957
伐	-10.8957
薩訶	-10.8957
尸羅	-10.8957
跋折	-10.8957
摘	-10.8958
睡眠	-10.8958
天竺	-10.8958
靠	-10.8959
尊貴	-10.8959
閻浮	-10.896
枯	-10.896
展轉	-10.896
宇宙	-10.896
藥師琉璃光王佛	-10.8961
吞	-10.8961
雙手合十	-10.8962
霧	-10.8962
恐懼	-10.8962
儀宣演	-10.8962
美女	-10.8962
安隱	-10.8963
永絕	-10.8963
革	-10.8963
郡	-10.8963
趙渢碑	-10.8964
李	-10.8964
世紀	-10.8964
恩德	-10.8964
達磨	-10.8965
有學	-10.8966
養育	-10.8967
當知是人	-10.8968
宋代	-10.8968
南北朝	-10.8968
誇	-10.8969
雜染	-10.8969
火宅	-10.897
使我	-10.8971
準備	-10.8972
魔旬	-10.8973
今欲	-10.8974
崔法珍	-10.8974
長養	-10.8974
來驗	-10.8975
全國	-10.8975
羊	-10.8976
者何	-10.8976
慳貪	-10.8978
難敵王	-10.8978
僧團	-10.8978
隋代	-10.8979
其餘部分未收	-10.898
但均未著錄見	-10.8981
析津志	-10.8981
爾許	-10.8982
三十七品	-10.8982
空有	-10.8983
若善男子	-10.8985
很多	-10.8985
遠近	-10.8985
何得	-10.8985
的大藏經	-10.8986
棄捨	-10.8987
真偽	-10.8987
虛假	-10.8988
充滿著	-10.8989
壽者見	-10.8989
十住	-10.8991
擬題	-10.8992
醫藥	-10.8992
亦以	-10.8992
這部經在	-10.8996
分割	-10.8997
極難	-10.8998
超過	-10.9002
人我	-10.9005
論師	-10.9006
由旬	-10.9006
學習	-10.9007
利物	-10.901
構成	-10.9011
願垂	-10.9011
受身	-10.9011
致力	-10.9012
合為一	-10.9014
是一	-10.9014
女神	-10.9019
字母	-10.902
密意	-10.9021
往往	-10.9022
二卷本	-10.9024
否則	-10.9025
墮地獄	-10.9025
此苦	-10.9026
的性質	-10.9027
尚未	-10.9028
帙號	-10.9028
形像	-10.9032
故非	-10.9032
二人	-10.9035
眾德	-10.9037
行善	-10.9038
暫時	-10.9042
無執受	-10.9042
即應	-10.9045
作如是說	-10.9048
摩細	-10.9051
七地	-10.9051
造下	-10.9054
譯作	-10.9056
妙覺	-10.9057
所譯	-10.9058
思念	-10.9059
此答也	-10.9059
故事	-10.9063
洪名	-10.9065
最大	-10.9067
脫離	-10.9074
傷害	-10.9076
明緣起	-10.9076
絕無	-10.9076
諸部	-10.9079
八解脫	-10.9079
三災	-10.908
得到了	-10.908
假立	-10.9081
難忍	-10.9081
實現	-10.9089
修持	-10.9093
初文	-10.9096
三昧經	-10.9097
答云	-10.91
。......	-10.9102
面前	-10.9102
結縛	-10.9104
▁6	-10.911
傳統	-10.9116
不念	-10.9119
明四種	-10.912
的一切	-10.9121
傳本	-10.9123
原本	-10.9124
向下	-10.9126
大將	-10.9133
病者	-10.9135
約緣	-10.9141
序分	-10.9144
五卷	-10.9148
大智者	-10.9148
外境	-10.915
川	-10.9153
道心	-10.9153
84	-10.9156
執著	-10.9159
存在於	-10.9159
發現了	-10.9159
意地	-10.9163
遊行	-10.9163
顯明	-10.9163
也沒有	-10.9164
聚集	-10.9166
七住	-10.9167
不待	-10.9168
今既	-10.9172
對境	-10.9174
咒南無	-10.9175
分為二	-10.9181
用智	-10.9183
為益	-10.9185
17、	-10.919
不轉	-10.9194
本自	-10.9196
文句	-10.9199
舌根	-10.92
時年	-10.9201
256	-10.9203
若作	-10.9203
有罪	-10.9205
捨離	-10.9206
10.	-10.921
長生	-10.9214
相忘	-10.9215
行動	-10.9216
令他	-10.9217
保存	-10.9222
出定	-10.9223
定心	-10.9224
譯經	-10.924
的名稱	-10.9244
是一個	-10.9245
31、	-10.9248
福慧	-10.9249
於前	-10.9264
不變	-10.9276
一件	-10.9278
我將	-10.9282
不可為	-10.9283
生善趣	-10.9284
實物	-10.9284
不欲	-10.9285
善心	-10.9285
像前	-10.9288
取相	-10.9288
家中	-10.9291
說者	-10.9292
常以	-10.9297
排列	-10.93
無為法	-10.9306
三有	-10.9307
不畏	-10.9309
全無	-10.931
五十	-10.9314
15、	-10.9318
無際	-10.9318
之主	-10.9319
實性	-10.932
成相	-10.932
我於	-10.9323
如雲	-10.9323
許為	-10.9329
32、	-10.9333
惡心	-10.9336
轉輪聖王	-10.9338
我自	-10.934
五體	-10.934
難知	-10.9341
這些話	-10.9342
之所能	-10.9342
都無	-10.9342
過去等	-10.9342
生信	-10.9343
ava	-10.935
義天	-10.9351
的願望	-10.9361
以求	-10.9362
yoga	-10.9365
顯然是	-10.9367
居住	-10.9375
體例	-10.9381
因為他	-10.9382
外化	-10.9383
理事	-10.9385
讓我	-10.939
一聲	-10.9394
從佛	-10.9398
真心	-10.9399
不忘	-10.9399
會啟	-10.9401
中有三	-10.9403
向他	-10.9406
尚有	-10.9408
前生	-10.9411
符	-10.9418
5、	-10.942
無一	-10.9422
慧心	-10.9424
禮懺	-10.9426
有二義	-10.943
分之	-10.9431
卷一	-10.9437
果故	-10.9437
足下	-10.9438
受到	-10.9442
此說	-10.9446
無違	-10.9447
未必	-10.9449
無差別	-10.9449
名利	-10.9451
麼囉	-10.9452
喉	-10.9452
於眾生	-10.9452
品經	-10.9452
妙善	-10.9455
為作	-10.9455
一家	-10.9457
18、	-10.9457
即此	-10.9459
遙見	-10.9465
智人	-10.9465
仇	-10.9466
鈍根	-10.9467
不貪	-10.9468
金剛般若	-10.947
同上	-10.9473
我有	-10.9475
那裏	-10.9483
睇	-10.9486
無生滅	-10.9486
輸	-10.9487
應該是	-10.9487
無性	-10.949
不去	-10.9492
成長	-10.9494
體也	-10.9496
生前	-10.9498
59	-10.9499
自由	-10.9502
同於	-10.9504
特徵	-10.9508
不亂	-10.9512
蔽	-10.9513
世尊在	-10.9516
依前	-10.9518
能發	-10.952
工作	-10.9521
不清	-10.9525
〈	-10.9526
法供養	-10.9527
雲南	-10.953
份	-10.953
學道	-10.9537
無名	-10.9538
四依	-10.954
永超	-10.9542
行持	-10.9544
彌凱耶	-10.9547
聞聲	-10.9547
團	-10.9548
慾	-10.955
之有情	-10.955
an	-10.9553
藥師尊	-10.9553
心識	-10.9553
不多	-10.9557
芬芳	-10.9558
度人	-10.9558
閒	-10.956
付囑	-10.9563
有多	-10.9563
應受	-10.9563
漏盡	-10.9563
不詳	-10.9563
寡	-10.9564
陰陽	-10.9564
識界	-10.9564
閑	-10.9565
恐畏	-10.9565
汁	-10.9566
維德赫	-10.9566
悖逆	-10.9567
逍遙	-10.9567
憎	-10.9567
工	-10.9568
告訴	-10.9569
子孫	-10.957
嚴飾	-10.957
下文	-10.9571
翠	-10.9571
壯	-10.9571
聞是	-10.9571
矜	-10.9571
旃檀	-10.9572
三相	-10.9572
馳	-10.9573
苟	-10.9574
淳	-10.9575
速疾	-10.9575
耆	-10.9576
嗟	-10.9576
八王日	-10.9576
煮	-10.9576
枳	-10.9577
薩婆怛他伽哆	-10.9578
躍	-10.9578
解除	-10.9578
道品	-10.9579
九品	-10.9579
丹	-10.9579
從無始	-10.958
餓	-10.958
背景	-10.958
剛	-10.9581
毗尼	-10.9581
羞	-10.9582
行住坐臥	-10.9582
蒂	-10.9583
液	-10.9583
登壇	-10.9584
E	-10.9584
悟入	-10.9584
策	-10.9585
昭	-10.9586
捲	-10.9586
採用	-10.9586
稠	-10.9586
渾	-10.9586
憂愁	-10.9586
或作	-10.9586
眷	-10.9586
武帝	-10.9586
創始	-10.9587
熾然	-10.9587
旗	-10.9587
難測	-10.9587
為他人說	-10.9587
塊	-10.9588
雪帝	-10.9588
給予	-10.9588
娑訶	-10.9589
普照	-10.9589
矛盾	-10.959
無罣礙	-10.959
癹吒	-10.959
曆	-10.959
規範	-10.959
猶如虛空	-10.959
感官	-10.9591
料	-10.9591
民間	-10.9592
吳	-10.9592
魅	-10.9592
以三十二相觀如來	-10.9592
哪	-10.9592
趙	-10.9592
進一步	-10.9592
昌	-10.9593
間錯	-10.9593
刀山	-10.9593
開敷	-10.9594
佚	-10.9595
材料	-10.9595
作此觀	-10.9595
另一方面	-10.9596
召請	-10.9597
化導	-10.9598
消亡	-10.9599
必然	-10.9599
不肯	-10.9603
大威力	-10.9603
斷臂	-10.9604
佛如來手	-10.9605
檀越	-10.9605
二空理	-10.9605
鐵城	-10.9605
仁宗	-10.9605
皆消滅	-10.9606
念彌陀	-10.9607
寶座	-10.9607
上至	-10.9607
讚頌	-10.9607
叢林	-10.9608
奉請	-10.9608
報恩會上	-10.9608
混合	-10.9609
雖非	-10.9609
西天	-10.9609
立刻	-10.961
者願施	-10.9612
師資	-10.9612
僧法尼	-10.9613
座上	-10.9615
使他	-10.9616
達摩一宗	-10.9616
以此為	-10.9617
不可量	-10.9618
為於父母	-10.9618
遺書	-10.9619
細微	-10.9619
猶有	-10.9619
音樂	-10.9619
普使	-10.962
抄錄	-10.962
會主	-10.9622
國王啊	-10.9624
藥師如來	-10.9624
母氏	-10.9624
萬德	-10.9625
生疑	-10.9626
機根	-10.9626
了別	-10.9626
空無所有	-10.9627
拘利耶王女蘇波婆沙	-10.9627
迷惑	-10.9631
感覺	-10.9631
寸	-10.9632
懷著	-10.9633
他心智	-10.9633
證實	-10.9634
變現	-10.9634
人之	-10.9634
分段	-10.9634
行詣	-10.9639
74	-10.9641
始覺	-10.9643
佛頂	-10.9645
之妙	-10.9649
是研究	-10.9652
無諍	-10.9652
內地	-10.9654
未生	-10.9654
應作	-10.9655
上座	-10.9659
少分	-10.966
頭陀經	-10.9661
至今生	-10.9665
三界中	-10.9666
它與	-10.9668
受罪	-10.967
的重要	-10.9671
依經	-10.9672
相反	-10.9675
墮落	-10.9677
相逢	-10.9678
首部	-10.968
實不	-10.9681
真妄	-10.9681
我師	-10.9682
所應	-10.9683
波囉密	-10.9688
疑問	-10.9689
疏云	-10.9691
1、「	-10.9693
體非	-10.9693
侍者	-10.9696
所謂道	-10.9698
道俗	-10.9699
生起因	-10.97
若能如是	-10.9703
死王	-10.9704
不堪任	-10.9706
不免	-10.9708
眾比丘	-10.9709
罪消滅	-10.9712
全身	-10.9715
其文	-10.9717
他身	-10.9719
應如是注意觀察其	-10.9719
大孝	-10.9725
有境	-10.9725
世界海	-10.9728
略出	-10.9731
在那裏	-10.9732
彼於自身他身兼顧注意觀察其	-10.9733
分離	-10.9734
日日	-10.9734
先須	-10.9736
彼於自身注意觀察其	-10.9737
報答	-10.9742
高尚	-10.9745
我會	-10.9749
āś	-10.9754
作沙門	-10.9756
所破	-10.9756
各別	-10.9758
香壇	-10.9758
不善業	-10.9759
中觀	-10.976
病苦	-10.9761
敬意	-10.9761
母子	-10.9761
眾善	-10.9774
方便智	-10.9778
已久	-10.9778
觀點	-10.9778
無二	-10.9786
啟白	-10.9786
唯願	-10.9787
持誦	-10.9788
斷常	-10.979
6、「	-10.9791
即名	-10.9792
妙伽陀	-10.9796
裝飾	-10.9802
文義	-10.9806
故以	-10.9811
佛在	-10.9811
破戒	-10.9817
既知	-10.9819
貪求	-10.982
依無	-10.9823
且如	-10.9824
二百	-10.9824
60	-10.9827
道地	-10.9828
土地	-10.983
供佛	-10.9831
見有	-10.9836
36、	-10.9837
得安樂	-10.9839
爾時如來	-10.984
初發心	-10.9844
道路	-10.9849
上身	-10.9852
上師	-10.9856
是諸	-10.9857
勝者	-10.9859
若約	-10.9862
rā	-10.9862
勸修	-10.9863
此第三	-10.9863
表明	-10.9864
善能	-10.9865
心者	-10.9865
今明	-10.987
十六種	-10.9878
下經云	-10.9879
內心	-10.9879
取得	-10.9882
j	-10.9883
乃可	-10.9884
98	-10.9884
己身	-10.9894
38、	-10.9898
休息	-10.9901
誦出	-10.9906
進入	-10.9908
三輪	-10.9915
九十	-10.9917
此第一	-10.9918
多羅	-10.992
因其	-10.9927
又曰	-10.9927
四蘊	-10.9933
不求	-10.9938
果位	-10.9944
理破	-10.9946
孔	-10.9946
.2	-10.9947
45、	-10.9947
行法	-10.995
律行	-10.9952
中有二	-10.9955
這些經典	-10.9957
二帙	-10.9957
婆伽	-10.9962
所錄	-10.9964
76	-10.9975
聽受	-10.9978
必定	-10.9978
此類	-10.998
常清淨	-10.9981
幢	-10.9981
是真	-10.9981
二法	-10.9982
所燒	-10.9983
五色	-10.9984
第二部分	-10.9985
令諸	-10.9993
不分別	-10.9994
三衣	-11.0002
擁	-11.0005
三界外	-11.0013
永離	-11.0015
的兒子	-11.0016
的特點	-11.0017
卷第一	-11.002
3)	-11.0021
相合	-11.0023
實無有法	-11.0025
變成	-11.0026
具說	-11.0028
向佛	-11.003
遷	-11.0032
諸佛如來	-11.0034
能壞	-11.0035
轉化	-11.0041
發明	-11.0042
二十八	-11.0043
皇帝	-11.0044
諸家	-11.0047
欲以	-11.0051
隨所	-11.0052
意根	-11.0053
較大	-11.0054
佛祖	-11.0054
誐囉	-11.0058
續藏	-11.0061
想必	-11.0062
之樂	-11.0064
方可	-11.0071
有心	-11.0079
身見	-11.008
應可	-11.0083
日夜	-11.0092
第一部分	-11.0092
(《	-11.0092
取證	-11.0098
皆因	-11.0099
諸有	-11.0102
一面	-11.0103
35、	-11.0103
43	-11.0107
捨壽	-11.0108
八部	-11.011
六個	-11.0113
以生	-11.0114
般若部	-11.0115
阿耨多羅三藐三菩提	-11.0116
內凡	-11.012
為宗	-11.0124
山中	-11.0132
佛以	-11.0134
線	-11.0134
香雲	-11.0134
得自在	-11.0135
悟道	-11.0139
此一	-11.014
用之	-11.0143
說有	-11.0145
即於	-11.015
失譯經	-11.0151
諸本	-11.0161
神王	-11.0161
19、	-11.0161
是即	-11.0162
喻於	-11.0166
身為	-11.0167
明行	-11.0174
初一	-11.0176
陀羅尼經	-11.0178
食物	-11.0178
義故	-11.018
根起	-11.0182
辦法	-11.0183
am	-11.0191
49、	-11.0192
四重	-11.0194
名數	-11.0195
皤	-11.0196
明立	-11.0196
法藏	-11.0197
庭	-11.0198
7、「	-11.0202
另有	-11.0202
報應	-11.0203
多方	-11.0207
明制	-11.0207
閻羅王	-11.0207
□□□□□	-11.0211
能立	-11.0211
予	-11.0212
現法	-11.0214
不食	-11.0215
佐	-11.0215
諸緣	-11.0217
掃	-11.0218
何故不	-11.0218
醯	-11.0221
傭	-11.0223
歷史	-11.0224
揮	-11.0226
八哥	-11.0227
諸多	-11.0228
禽	-11.0228
42、	-11.0229
昔時	-11.0231
求得	-11.0231
軟	-11.0232
枕	-11.0233
吹	-11.0234
驕	-11.0235
叉欲	-11.0235
踏	-11.0235
幼	-11.0236
欄	-11.0236
頸	-11.0237
久住	-11.0237
所逼	-11.0238
芥子	-11.0238
巖	-11.0239
海會聖賢	-11.024
溺	-11.024
髮際	-11.024
之日	-11.024
大罪	-11.0241
奢摩他	-11.0241
京	-11.0241
饒	-11.0242
阿伽	-11.0242
勝義諦	-11.0243
至佛所	-11.0243
從初	-11.0243
醜	-11.0243
突	-11.0243
谷	-11.0244
播	-11.0244
鎖	-11.0244
無去無來	-11.0244
郎	-11.0245
游	-11.0245
絲	-11.0246
嘿	-11.0246
盆	-11.0247
佛告諸比丘	-11.0247
擎	-11.0247
4)	-11.0247
同行	-11.0248
貧乏	-11.0248
沾	-11.0248
歎佛偈	-11.0248
無可	-11.0248
健	-11.0248
耕	-11.0249
朽	-11.0249
折磨	-11.0249
的具體	-11.025
生其國	-11.025
我愛執持	-11.0251
律儀	-11.0251
劬勞	-11.0251
刊刻	-11.0251
匝	-11.0252
皈命	-11.0253
亦猶如是	-11.0253
金剛般若波羅蜜經	-11.0253
毋	-11.0253
暢	-11.0254
縮	-11.0254
事物的	-11.0254
牢	-11.0254
夕	-11.0255
閏	-11.0255
團圓	-11.0255
庫	-11.0255
西域	-11.0256
投誠	-11.0256
割截	-11.0256
此下第二	-11.0256
匹	-11.0256
講堂	-11.0256
龜毛	-11.0257
朔	-11.0257
證盟	-11.0258
無數劫	-11.0258
志公	-11.0258
邏	-11.0258
虛偽	-11.0258
瑪	-11.0258
化物	-11.0259
首尾完整	-11.026
消息	-11.026
中品	-11.026
傲慢	-11.0261
天請問經疏	-11.0261
佩	-11.0261
錦	-11.0261
人法兩俱	-11.0261
羯磨	-11.0262
純潔	-11.0263
括	-11.0263
城市	-11.0264
威光	-11.0264
強調	-11.0264
稱之為	-11.0264
一日一夜	-11.0265
永元元年	-11.0265
章句	-11.0265
批評	-11.0265
設供	-11.0266
南宋	-11.0266
諸經要集	-11.0266
蔓	-11.0266
纂	-11.0267
偷盜	-11.0267
高麗	-11.0267
照明菩薩	-11.0268
阿吒力經典	-11.0268
自生	-11.0269
教示兩部祕要義	-11.027
平靜	-11.027
宗派	-11.027
謹慎	-11.027
哀憫	-11.027
這部經	-11.0271
三十三天	-11.0271
亦喻比丘身	-11.0271
末尾	-11.0272
阿鼻	-11.0272
公主	-11.0273
居家	-11.0275
的基礎上	-11.0275
該書	-11.0276
種性	-11.0276
又以	-11.0276
此中有	-11.0276
能詮	-11.0276
求利	-11.0277
號背面	-11.0279
75、	-11.0281
保持	-11.0281
艱苦	-11.0281
五識身	-11.0281
收集	-11.0282
回向	-11.0282
賀多	-11.0286
圓照	-11.0287
惟願	-11.0288
位置	-11.029
予以	-11.0292
七諦	-11.0295
靈文	-11.0297
補刊	-11.0297
前殘	-11.0298
對研究	-11.0298
就會	-11.0298
高僧	-11.03
數數	-11.03
大般若經	-11.0301
若如是者	-11.0303
頂上	-11.0311
縱使	-11.0312
三處	-11.0313
名言	-11.0315
利耶	-11.0315
陀囉	-11.0316
一類	-11.0317
相當於	-11.0319
再次	-11.032
有我相	-11.0322
若如是	-11.0324
眾生佛性	-11.0324
花雨	-11.0324
版心	-11.0326
二十四	-11.0327
常行	-11.0331
摩羅	-11.0335
無動	-11.0337
該目錄	-11.0337
重病	-11.0337
諸菩薩等	-11.0337
43、	-11.0338
81	-11.0339
祇要	-11.0341
園林	-11.0346
以智慧	-11.0353
造成	-11.036
三苦	-11.036
所致	-11.0361
很難	-11.0361
何日	-11.0367
莫問	-11.0372
之體	-11.0373
果因	-11.038
現疾	-11.0383
身業	-11.0384
誰多	-11.0386
照明	-11.0386
受苦相	-11.0386
現證	-11.0388
一年	-11.039
相遇	-11.0391
美麗的	-11.0393
形成的	-11.0394
修忍辱	-11.0397
乃知	-11.0399
心住	-11.0402
情況如	-11.0404
四攝	-11.0405
大多	-11.0406
志誠	-11.0408
提供	-11.0408
有德	-11.0408
故先	-11.0409
淨飯王	-11.0412
產生的	-11.0412
總體	-11.0414
法食	-11.042
絕於	-11.042
勤求	-11.0421
唯佛	-11.0421
不造	-11.0422
如經	-11.0423
今始	-11.0423
將其	-11.0426
來去	-11.0427
動搖	-11.0429
的區別	-11.0431
我是	-11.0432
百萬	-11.0432
尚不	-11.0433
不相違	-11.0437
四恩	-11.044
比如	-11.0441
諸善根	-11.0442
不顯	-11.0442
攝取	-11.0447
佛即	-11.045
辟支佛	-11.0454
之功	-11.0455
40、	-11.0459
冤業	-11.0461
能忍	-11.0463
懺儀	-11.0465
34、	-11.0475
若生	-11.0478
菩薩戒	-11.0483
特為	-11.0486
彼彼	-11.0492
。)(	-11.0492
所能	-11.0492
故復	-11.0493
常淨	-11.0495
較為	-11.0508
得涅槃	-11.0509
極其	-11.0509
願以	-11.0514
心相	-11.0529
會有	-11.053
唯依	-11.054
以至	-11.0542
大弟子	-11.0542
4、「	-11.0543
之香	-11.0544
永斷	-11.0546
研究者	-11.0554
轉依	-11.0555
迴光	-11.0561
引起	-11.0563
釋迦佛	-11.0565
父子	-11.0566
千劫	-11.057
三賢	-11.0573
性淨	-11.0575
8)	-11.0575
還要	-11.0578
所有眾生	-11.0579
教示	-11.058
的對象	-11.0584
有若干	-11.0584
妄念	-11.0585
依教	-11.0586
皆以	-11.0589
心口	-11.0589
彼有	-11.059
所感	-11.0594
業力	-11.0599
理中	-11.06
定中	-11.06
符合	-11.0601
生身	-11.0601
觀者	-11.0604
囉吽	-11.0604
死生	-11.061
有實	-11.0613
妄計	-11.0614
深心	-11.0616
現代	-11.0617
本論	-11.0617
境智	-11.0618
之見	-11.0618
眾罪	-11.0623
今日今	-11.0623
作此	-11.0624
與其	-11.0631
欲望	-11.0631
三卷本	-11.0631
成人	-11.0632
惑也	-11.0634
他成	-11.0636
珠寶	-11.0637
既得	-11.0649
5)	-11.065
降生	-11.0654
者多	-11.0655
所著	-11.0661
食者	-11.0665
六者	-11.0666
誦真言	-11.067
監	-11.0671
於其中	-11.0671
的第一	-11.0671
無障礙	-11.0675
得清淨	-11.0677
心要	-11.0681
信行	-11.0686
諸光	-11.0691
非實有	-11.0694
其上	-11.0695
得到的	-11.0699
拿	-11.0704
修心	-11.0707
療	-11.0707
諸王	-11.0708
三釋	-11.0709
道根	-11.0711
命在	-11.0712
八百	-11.0713
處於	-11.0714
其罪	-11.0716
空也	-11.072
至此	-11.0727
49	-11.0727
所由	-11.0729
三十年	-11.0734
孝道	-11.0737
清楚	-11.0747
33、	-11.0749
但念	-11.0752
難逃	-11.0752
不由	-11.0755
無等	-11.0755
執受	-11.0756
在何處	-11.0757
又來	-11.0762
誰人	-11.0763
今則	-11.0763
王言	-11.0766
故喻	-11.0771
所存	-11.0773
聞者	-11.0773
佛教的	-11.0777
取境	-11.0782
尊卑	-11.0787
生存	-11.0789
相離	-11.079
十二支法	-11.0792
無諸	-11.08
目的	-11.08
離於	-11.0803
滅罪	-11.0804
本處	-11.0813
過來	-11.0814
攝持	-11.0816
業身	-11.0817
益也	-11.0819
美麗	-11.0824
安心	-11.0825
註明	-11.0827
極大	-11.083
當證	-11.084
一切如來	-11.084
光中	-11.0841
有不少	-11.0841
糞	-11.0844
獲福	-11.0845
自見	-11.0857
之稱	-11.0861
罪行	-11.0867
何謂為	-11.0871
窟	-11.0871
沙數	-11.0874
行悲	-11.0875
若得	-11.0878
菩提相	-11.0882
五月	-11.0888
命也	-11.0889
樣	-11.0891
āṇi	-11.0895
我已	-11.0895
耳識	-11.0896
自四	-11.0896
闡提	-11.0896
知無我	-11.0899
至道	-11.0902
一合相	-11.0902
腹	-11.0908
施等	-11.0908
慈愍	-11.0911
實際是	-11.0912
立足生根	-11.0912
大智慧	-11.0913
等事	-11.0914
了了	-11.0915
心起	-11.0915
乏	-11.092
造業	-11.0922
劇	-11.0923
歸命	-11.0923
結勸	-11.0925
重擔	-11.0927
不改	-11.0928
若非	-11.0931
一品	-11.0933
冤債	-11.0933
竺法護	-11.0933
者少	-11.0935
棲	-11.0941
發意	-11.0941
身口意	-11.0942
季	-11.0945
維摩	-11.0946
我得	-11.0946
即不	-11.0946
竅隙	-11.0948
莊	-11.0948
嚕畔	-11.0948
讎	-11.0949
搖	-11.0949
混	-11.0949
罔	-11.0949
依心轉起	-11.0949
弭	-11.0949
毛端	-11.0949
眾等志誠	-11.095
祇陀林	-11.0951
毒藥	-11.0951
再再	-11.0951
論疏	-11.0952
晨	-11.0952
傅大士	-11.0952
溢	-11.0953
鬥	-11.0954
理智	-11.0954
右旋	-11.0954
尊勝破地獄法	-11.0954
持五戒	-11.0954
之極	-11.0955
柔	-11.0955
勵	-11.0955
三十二分	-11.0955
勒	-11.0956
萌	-11.0956
鴻	-11.0956
兆	-11.0957
綱	-11.0957
琴	-11.0958
菜	-11.0959
鸞宿本	-11.0959
津	-11.096
苾蒭	-11.096
錫	-11.096
段食	-11.096
娑囉	-11.0961
通達空性	-11.0961
筏	-11.0961
碧琉璃	-11.0961
托	-11.0961
壓	-11.0961
適悅	-11.0961
掉	-11.0961
海會佛菩薩	-11.0961
八句	-11.0962
鞭	-11.0962
幽冥	-11.0963
常見	-11.0963
坦	-11.0963
空故無	-11.0963
髻	-11.0963
通達空性之般若	-11.0963
忙	-11.0963
寧為多不	-11.0963
災殃	-11.0963
五分法身	-11.0963
臻	-11.0964
汲	-11.0965
瑪特維	-11.0965
而作佛事	-11.0965
叩	-11.0965
輕安	-11.0966
水陸	-11.0966
豐富	-11.0966
應許	-11.0966
時定	-11.0966
咽	-11.0967
籠	-11.0967
燄	-11.0967
鷹	-11.0967
修自他平等	-11.0967
朱	-11.0969
或兼察身內之生起與壞滅	-11.0969
生老病死	-11.0969
槍	-11.0969
詰	-11.097
布露	-11.097
二部	-11.097
貧窮	-11.097
領解	-11.0971
追悔	-11.0971
態	-11.0971
家庭	-11.0972
凡情上達大圓鏡	-11.0972
於善法	-11.0972
橋	-11.0972
怨親	-11.0972
進趣	-11.0972
驚訝	-11.0972
作是思維	-11.0974
流注	-11.0974
道果	-11.0974
少欲知足	-11.0974
財施	-11.0974
吟	-11.0974
純淨	-11.0975
我今為報	-11.0975
眼睛	-11.0976
上昇	-11.0976
房舍	-11.0976
一毫	-11.0977
燒香	-11.0978
趕快	-11.0978
經文可參見	-11.0978
回壇	-11.0978
逝世	-11.0978
時候	-11.0978
無罪	-11.0979
46、	-11.0979
繼續	-11.0979
禪悅	-11.0979
來至佛所	-11.0979
質礙	-11.098
諦義證得經	-11.098
青色	-11.098
恢復	-11.0981
幹	-11.0981
小兒	-11.0981
掌握	-11.0981
負財	-11.0981
偉大	-11.0982
無量劫	-11.0983
兩舌	-11.0983
勢至	-11.0983
V	-11.0983
佛性觀修善法	-11.0983
普供養	-11.0984
輪回	-11.0984
摩哩	-11.0984
鬼趣	-11.0985
正士	-11.0985
所得功德	-11.0986
保留	-11.0986
造經像	-11.0987
邐	-11.0987
範疇	-11.0988
kaṣāya	-11.0988
的最短壽命	-11.0989
追求	-11.0989
§4.4	-11.0989
遇善知識	-11.0989
得其	-11.0989
幾乎	-11.099
仁壽	-11.099
有生	-11.0991
芳	-11.0992
心要法門	-11.0992
由此可知	-11.0992
慈風	-11.0993
宣疏	-11.0993
亦有二種	-11.0995
獨覺佛	-11.0995
比量	-11.0996
中找到	-11.0997
發揮	-11.0998
未免	-11.0998
羅列	-11.1
使人	-11.1
隨機	-11.1002
趣向	-11.1002
安居	-11.1003
的行為	-11.1004
食肉	-11.1004
以致	-11.1005
陀耶	-11.1006
祖傳	-11.1008
腹中	-11.1008
聲音	-11.101
危險	-11.1012
註解	-11.1012
避免	-11.1013
因之	-11.1013
今者	-11.1016
法音	-11.1017
普光	-11.1018
故經言	-11.102
四問	-11.1021
發阿耨多羅三藐三菩提心者	-11.1021
作業相	-11.1022
在這	-11.1023
香味	-11.1023
感到	-11.1025
大正藏本	-11.1028
圓覺經	-11.1031
不以為	-11.1032
水月	-11.1032
耳根	-11.1033
四分	-11.1035
眾皆	-11.1038
部經	-11.1039
蘊界	-11.1039
八邪	-11.1042
的出現	-11.1042
恒河	-11.1043
初文分三	-11.1043
31	-11.1049
離開了	-11.1056
意謂	-11.1057
婦人	-11.1059
之義也	-11.1059
諦觀	-11.1061
不幸	-11.1061
記錄	-11.1062
可得福	-11.1069
弟子中	-11.1073
2、「	-11.1076
提及	-11.1081
出息	-11.1083
的特徵	-11.1084
大致	-11.1088
化人	-11.1089
無始以來	-11.109
無生法忍	-11.1092
造論	-11.1094
亦不應	-11.1094
覺天	-11.1099
天啊	-11.1101
彼於他人注意觀察其	-11.1101
接引	-11.1104
諸世間	-11.1105
空海	-11.1105
在懷	-11.1106
在這裡	-11.1109
既非	-11.1109
有智	-11.1119
今乃	-11.1119
是什麼	-11.1122
外求	-11.1124
大意	-11.1124
本土	-11.1124
願佛	-11.1125
著名	-11.1126
福業	-11.1128
bha	-11.1134
是為最	-11.1136
入山	-11.1139
於餘	-11.1141
前際	-11.1147
同類	-11.1148
眾中	-11.1149
不勤	-11.1152
離此	-11.1152
千生	-11.1154
自證	-11.1155
可以在	-11.1155
受之	-11.1157
化之	-11.1163
這一切	-11.1166
能如是	-11.1168
不息	-11.1174
光輝	-11.1178
攝諸	-11.1183
云何住	-11.1184
勸人	-11.1184
卷中	-11.1185
實施	-11.1187
後二	-11.1189
自下	-11.1189
滅除	-11.1196
收經	-11.1199
nā	-11.12
進而	-11.12
三尊	-11.1201
不曾	-11.1202
而立	-11.121
觀察法	-11.1213
眾生與	-11.1215
修慧	-11.1215
三摩	-11.1217
94	-11.1218
則無有	-11.1219
如夢	-11.1219
有形	-11.1222
無主	-11.1223
祇能	-11.1228
於先	-11.1228
有因	-11.1229
之想	-11.1233
依報	-11.1235
設有	-11.1237
多分	-11.1242
的意思	-11.1242
願意	-11.1243
十行	-11.1243
與彼	-11.1246
」;「	-11.1247
並在	-11.125
聞道	-11.1252
每一	-11.1254
6)	-11.1254
經卷	-11.1255
證涅槃	-11.1256
13.	-11.1257
道中	-11.126
(6	-11.126
行菩提心	-11.1265
正使	-11.1268
見性	-11.1268
離處	-11.1269
明壞	-11.1271
提到的	-11.1274
應斷	-11.1275
他在	-11.1275
他作	-11.1276
於空	-11.1276
瞋恨	-11.1276
而現	-11.1279
自說	-11.1281
pra	-11.1282
文詞	-11.1283
法海	-11.1286
何云	-11.129
微點	-11.1293
二列名	-11.1296
看看	-11.1297
加以	-11.1301
雖多	-11.1305
彼亦	-11.1309
終無	-11.1309
著地	-11.1313
智也	-11.1314
舍衛城	-11.1314
生者	-11.1314
始於	-11.1316
8、「	-11.1316
何物	-11.1318
令心	-11.1319
和上	-11.1326
12.	-11.1333
人無我	-11.1334
坐於	-11.1336
死相	-11.1337
59、	-11.1337
世尊說	-11.1338
波若	-11.1339
如常	-11.1342
無想	-11.1347
許彼	-11.1349
前來	-11.135
迦囉	-11.1355
此六	-11.1355
化主	-11.1356
怛他誐多	-11.1358
欲見	-11.1364
之福	-11.1365
學說	-11.137
六師	-11.137
德也	-11.1373
心目	-11.1374
萬歲	-11.1376
自得	-11.1377
眾生之	-11.138
他說	-11.1382
樂聞	-11.1385
pa	-11.1391
30、	-11.1393
三大	-11.1395
內有	-11.1395
名也	-11.1397
舌識	-11.14
受諸	-11.1402
眼見	-11.1414
當說	-11.1418
警策大眾	-11.142
於何處	-11.1424
於父母	-11.1425
既見	-11.1429
物體	-11.1436
見彼	-11.1438
而安立	-11.1441
候	-11.1441
自從	-11.1443
彼菩薩	-11.1448
生淨土	-11.1449
有序	-11.1452
品行	-11.1454
不立	-11.1455
空故	-11.146
善本	-11.146
花開	-11.1461
何可	-11.1466
不觀	-11.1473
圓珍的	-11.1474
迦耶	-11.1474
獨一	-11.1475
德行	-11.1479
妄見	-11.1479
不虛	-11.1485
之屬	-11.1488
真正的	-11.1488
5、「	-11.149
前人	-11.149
的藏經	-11.1495
感得	-11.1497
於後	-11.15
的解釋	-11.1501
寶髻的	-11.1501
隨行	-11.1501
濟度	-11.1502
佛門	-11.1503
誓言	-11.1504
自我	-11.1504
加之	-11.1506
悅意	-11.1507
不攝	-11.1507
有兩	-11.1511
十萬	-11.1518
本空	-11.1519
作惡	-11.1523
而以	-11.1526
諸師	-11.1526
無厭足	-11.1527
應歡喜	-11.1528
長大	-11.1533
隨從	-11.1536
有一定的	-11.1537
能害	-11.1537
非餘	-11.1541
有殊	-11.1543
常依	-11.1545
生瞋	-11.1549
為境	-11.1554
罪障	-11.156
前面	-11.1561
說言	-11.1561
化為	-11.1564
沒有任何	-11.1565
八識	-11.1565
58	-11.1565
此釋	-11.1565
說道	-11.1567
該經的	-11.1583
其言	-11.1585
有益	-11.1588
興趣	-11.159
重問	-11.1597
的重要資料	-11.1603
四十	-11.1605
朝時	-11.1606
是名為	-11.1613
大劫	-11.1617
一真	-11.1622
貌	-11.1624
則能	-11.1626
所居	-11.1637
孩子	-11.164
相故	-11.1641
所遮	-11.1643
害心	-11.1646
常在	-11.165
自在轉	-11.1651
78、	-11.1659
醫王	-11.166
香水	-11.166
見者	-11.1662
所有一切	-11.1665
斷惑	-11.1667
眼目	-11.1669
代表	-11.1676
差別故	-11.1679
性故	-11.1681
正答	-11.1682
名為佛	-11.1684
三惡道	-11.1685
10、	-11.1687
界應如實知見	-11.1687
41、	-11.1692
無識	-11.1692
第十三	-11.1694
見法	-11.1696
虧	-11.1697
於外	-11.1699
貪心	-11.17
我若	-11.1703
羝	-11.1704
自調	-11.1707
地水火風	-11.1708
沐	-11.1708
祠	-11.1708
常持	-11.1709
擾亂	-11.171
竊	-11.171
48、	-11.1711
凌	-11.1711
蓬	-11.1711
赦	-11.1711
煉	-11.1711
905/1	-11.1712
髓	-11.1713
熾	-11.1714
珊	-11.1714
勃馱喃	-11.1714
聞思	-11.1716
毗盧遮那	-11.1716
津梁	-11.1717
第一義諦	-11.1717
黨	-11.1718
尅	-11.1718
暖	-11.172
藥師寺本	-11.1721
之首	-11.1721
擲	-11.1721
飽	-11.1722
聊	-11.1722
三曼	-11.1722
握	-11.1723
促	-11.1723
闡	-11.1723
妖	-11.1723
沸	-11.1723
唎	-11.1724
咬	-11.1724
貨	-11.1724
貞	-11.1724
欽	-11.1724
堅毅	-11.1724
劃	-11.1724
惹	-11.1725
何妨	-11.1725
報恩德真言	-11.1725
信仰性佛教	-11.1725
坐在一旁	-11.1725
激	-11.1725
肅	-11.1725
湖	-11.1726
迄	-11.1726
塔寺	-11.1727
有大神通	-11.1727
迥	-11.1727
法句經	-11.1727
體現	-11.1727
墨	-11.1728
蕩滌	-11.1728
荷負	-11.1728
此陀羅尼	-11.1728
騎	-11.1728
吏	-11.1728
詎	-11.1728
浩浩	-11.1728
廚	-11.1729
擾擾	-11.173
吸	-11.173
頰	-11.1731
可與	-11.1731
糧	-11.1731
劉	-11.1732
猶豫	-11.1732
來護法	-11.1732
如法應和	-11.1732
衰退消失	-11.1733
俯	-11.1733
單元	-11.1733
人間天上	-11.1733
見聞覺知	-11.1733
tri	-11.1733
纖	-11.1733
恐怕	-11.1734
後說	-11.1734
嗣	-11.1734
伴侶	-11.1734
怨賊	-11.1735
宇	-11.1735
掛	-11.1735
警覺	-11.1735
紛	-11.1735
金剛經纂	-11.1735
四十齒	-11.1735
障礙有對	-11.1736
喝	-11.1737
弄	-11.1737
注心要法門	-11.1737
徒勞	-11.1737
隊	-11.1738
何待言	-11.1738
以是因緣	-11.1739
自從曠劫	-11.1739
伽藍	-11.1739
厭患	-11.1739
敦煌禪籍	-11.1739
不能救	-11.1739
嗜	-11.1739
賢首	-11.174
瑜珈	-11.174
償	-11.174
902	-11.174
不盡有為	-11.174
儒則	-11.1741
所喜愛	-11.1741
苗	-11.1741
發大心	-11.1741
最上乘	-11.1741
怕	-11.1741
矢吹	-11.1741
陋	-11.1741
逕	-11.1742
五百年	-11.1742
陶	-11.1743
僕使	-11.1743
持用布施	-11.1743
迷亂	-11.1744
狂妄	-11.1744
執為我	-11.1744
如來廣孝十種報恩道場儀	-11.1744
姑	-11.1744
房山石經	-11.1745
淺深	-11.1745
認真	-11.1745
即興說	-11.1745
三階佛法	-11.1745
鑒別	-11.1746
三藐三佛陀	-11.1746
攻擊	-11.1746
志心皈命禮	-11.1746
分九	-11.1746
宿命	-11.1747
孝養父母	-11.1747
阿那律	-11.1748
藥草	-11.1748
世尊所	-11.1748
寬狹	-11.1748
綰	-11.1749
呵責	-11.1749
占	-11.175
聯係	-11.175
怎樣	-11.175
廻向	-11.175
布薩	-11.1751
天授	-11.1751
覆護	-11.1751
愛河	-11.1751
昏沉	-11.1752
角度	-11.1752
明體	-11.1753
程度	-11.1753
單位	-11.1754
技	-11.1754
文繁	-11.1754
增益	-11.1755
今日道場	-11.1755
考證	-11.1755
七識	-11.1755
女兒	-11.1756
藏經洞	-11.1756
懷胎	-11.1756
據作者原註	-11.1758
摧壞	-11.1758
諸仁者	-11.1758
金輪	-11.1758
不住無為	-11.1759
民眾	-11.1759
一一光明	-11.176
寶髻本緣	-11.176
悲傷	-11.176
父母恩難報	-11.1761
摩那	-11.1762
正法輪	-11.1762
是有	-11.1762
重大	-11.1762
用典	-11.1762
大唐	-11.1763
這一問題	-11.1763
值得注意的是	-11.1764
奉親	-11.1764
長老	-11.1766
影像	-11.1766
因明入正理論	-11.1767
撰述	-11.1767
爭論	-11.1767
中縫	-11.1768
塵塵	-11.1768
以斯	-11.1769
獨覺	-11.1769
況復	-11.177
接著	-11.177
三婆嚩	-11.177
中尊	-11.1771
20、	-11.1772
憫	-11.1773
重宣	-11.1774
所聞	-11.1776
變得	-11.1776
使其	-11.1777
星宿	-11.1777
如來藏	-11.1778
商人	-11.1779
可任意	-11.1779
而白世尊	-11.178
制止	-11.1782
是何物	-11.1783
非不	-11.1783
世界的	-11.1785
以大悲	-11.1785
復次須菩提	-11.1787
列數	-11.1787
個別	-11.1789
(2)	-11.1789
入道	-11.1793
誦念	-11.1796
瑜伽論	-11.1797
任意	-11.1799
已說	-11.18
白衣派刊本	-11.1801
取蘊	-11.1801
這位	-11.1804
十月	-11.1805
論其	-11.1806
宣念	-11.1806
雖在	-11.1808
由他	-11.1808
大門第	-11.1809
唯有一	-11.1809
困難	-11.1809
生門	-11.181
常自	-11.181
即從	-11.181
一切時中	-11.1813
慧命	-11.1813
是一種	-11.1814
喻比丘	-11.1814
悲愍故	-11.1814
言之	-11.1815
aṇa	-11.1815
自在王	-11.1817
著述	-11.1818
是知	-11.1819
皆名	-11.182
得悟	-11.1821
為解脫	-11.1822
的結構	-11.1825
如來所說	-11.1826
種族	-11.1828
汝所許	-11.1829
深信	-11.1831
念處	-11.1833
空義	-11.1833
vā	-11.1834
衣食等	-11.1834
第十五	-11.1834
若住	-11.1837
不但	-11.1838
勿令	-11.1838
普施	-11.1842
這篇	-11.1843
隨轉	-11.1845
比丘說	-11.1845
何處不	-11.185
別立	-11.1851
寶髻王	-11.1852
經律論	-11.1853
除煩惱障	-11.1856
此飯	-11.1857
聲聞地	-11.186
我亦	-11.1861
愛著	-11.1864
如是之人	-11.1868
信樂	-11.1868
俱空	-11.1868
為除	-11.1869
9、「	-11.1871
下座	-11.1871
修苦行	-11.1873
據說	-11.1873
釋云	-11.1874
已離	-11.1874
一片	-11.1876
為子	-11.188
三祗	-11.1881
例如	-11.1883
所稱	-11.1884
無難	-11.1886
00	-11.1886
令諸有情	-11.1888
還復	-11.189
前文	-11.1891
本書	-11.1893
並有	-11.1894
月一日	-11.1895
為顯	-11.1898
能力	-11.1898
有暇	-11.1899
0.	-11.1899
斷結	-11.1903
初禪	-11.1904
諸漏	-11.1904
止觀	-11.1906
應思	-11.1908
令入	-11.191
天聖	-11.1912
死亡	-11.1912
百劫	-11.1915
此下四	-11.192
廣答	-11.192
纔能	-11.1922
後一	-11.1924
遍法界	-11.1925
指教	-11.1931
拔除	-11.1932
中流	-11.1936
漢譯	-11.1941
弘道	-11.1941
左手	-11.1942
三生	-11.1945
又一解	-11.1946
證信	-11.1954
無時	-11.1954
苦行者	-11.1957
此齋	-11.1959
義者	-11.1963
佛為	-11.1965
得罪	-11.1969
62	-11.197
是故我	-11.1975
法生	-11.1978
致使	-11.1981
撰成	-11.1982
諦下有	-11.1982
身量	-11.1986
一毛	-11.1987
之惑	-11.199
遮彼	-11.1992
的存在	-11.1993
自非	-11.1993
44、	-11.1995
26、	-11.1998
37、	-11.1998
斯陀含	-11.1998
中亦有	-11.2003
90	-11.2004
當死	-11.2005
章疏	-11.2008
51、	-11.2008
世界上	-11.201
毫光	-11.201
27、	-11.2011
道人	-11.2012
如山	-11.2012
無倒	-11.2014
是處	-11.2015
若未	-11.2016
是不	-11.2018
非求	-11.2019
為性	-11.2019
不滿	-11.202
功德之	-11.2021
大力	-11.2023
以表	-11.2028
辛苦	-11.203
違緣	-11.2032
自度	-11.2032
有執受	-11.2033
諦實成就之	-11.2042
882	-11.2044
自稱	-11.2049
實智	-11.2049
增加了	-11.205
等法	-11.2056
體用	-11.2056
無邊功德	-11.2056
42	-11.2061
識住	-11.2063
第十二	-11.2067
獄中	-11.2069
一遍	-11.2069
一合	-11.2071
別答	-11.2075
答所以	-11.2075
72、	-11.2076
是耆那教	-11.2077
91	-11.2084
是身	-11.2085
hā	-11.2086
法花	-11.2087
皆同	-11.2089
尚無	-11.209
此約	-11.209
知有	-11.2092
相傳	-11.2093
俗人	-11.2095
指出的	-11.2096
為粗	-11.2102
與法	-11.2105
非理	-11.2106
三問	-11.2107
是理	-11.211
於菩薩	-11.2111
佛教典籍	-11.2112
三德	-11.2113
佛名	-11.2115
為友	-11.212
開悟	-11.2123
天帝釋	-11.2127
之所依	-11.2127
之殊	-11.2128
該詞	-11.213
高貴	-11.2132
夢見	-11.2136
外國	-11.2136
佛菩薩	-11.2143
明義	-11.2145
於何	-11.2149
相待	-11.2158
dha	-11.2161
惡鬼	-11.2162
亦生	-11.2162
某一	-11.2164
一個人	-11.2169
成菩提	-11.2169
那時	-11.217
其果	-11.2174
等人	-11.2178
欲解	-11.2178
此次	-11.2181
義同	-11.2182
應機	-11.2183
不可言	-11.2185
就有	-11.2189
為身	-11.2192
道教	-11.2193
學人	-11.2194
餘法	-11.2199
的目錄	-11.2202
昔有	-11.2204
今聞	-11.2207
得以	-11.2207
故佛言	-11.221
法喻	-11.2217
見已	-11.2217
。』」	-11.2219
有識	-11.2223
摩耶夫人	-11.2224
類似	-11.2224
大梵天	-11.2232
報言	-11.2233
未作	-11.2235
別名	-11.2239
兩人	-11.2239
不死	-11.2242
理性	-11.2244
淨想	-11.225
難見	-11.2254
非謂	-11.2255
蘊等	-11.2258
知覺	-11.2258
的論述	-11.226
一味	-11.2261
了一些	-11.2264
我故	-11.2268
性等	-11.2274
天龍	-11.2276
種異本	-11.2278
盲人	-11.228
相違品	-11.2285
龍天	-11.2285
情塵	-11.2287
莎	-11.2289
會要	-11.2298
諸功德	-11.2301
此書	-11.2306
辛二	-11.2308
尸	-11.2308
而坐	-11.2309
四卷	-11.2316
境界有對	-11.2319
王經	-11.232
食之	-11.2324
版本	-11.2327
觀心	-11.2333
僧眾	-11.234
不如是	-11.234
二十行	-11.2341
像法	-11.2342
集會	-11.2348
不順	-11.2348
乃為	-11.2349
從彼	-11.2351
佛像	-11.2353
乃能	-11.2357
曾有	-11.2357
力量	-11.2359
相關的	-11.2362
92	-11.2362
而未	-11.2363
緣故	-11.2367
自能	-11.2368
確定	-11.2369
誨	-11.2373
著錄的	-11.2376
68、	-11.2377
武周	-11.2381
無失	-11.2386
為細	-11.239
不妄	-11.2392
最多	-11.2396
無從	-11.2396
了他	-11.2399
之患	-11.2399
另一個	-11.2401
所起	-11.2405
之語	-11.2405
能摧	-11.2408
淨飯	-11.241
佛足	-11.2412
很快	-11.2416
十二種	-11.2416
冤業罪消滅	-11.2417
善知	-11.2417
亦不可	-11.2421
若當	-11.2423
見之	-11.2425
十方三世	-11.2431
五行	-11.2432
到底	-11.2433
55、	-11.2434
特別是	-11.2435
獨自	-11.2437
二問	-11.2438
明中有	-11.2444
法律	-11.2445
六結	-11.2446
了她	-11.2447
地區的	-11.2453
是個	-11.2453
前四	-11.2454
異相	-11.2454
也就	-11.2455
求佛	-11.2458
終於	-11.246
引文	-11.246
佛弟子	-11.2461
若起	-11.2463
力故	-11.2465
是大	-11.2468
入藏的	-11.2469
一紙	-11.247
一切時	-11.2471
同歸	-11.2474
的基本	-11.248
偷	-11.2484
初生	-11.2485
仁王	-11.249
明師	-11.2492
於十方	-11.2492
啖	-11.2497
地前	-11.2499
找	-11.2499
當他	-11.2501
殷	-11.2501
出自	-11.2501
毗捨佉	-11.2502
其舌	-11.2503
含靈	-11.2503
互為	-11.2506
肝	-11.2507
有差別	-11.2509
故不應	-11.2513
不收	-11.2514
具戒	-11.2515
至心	-11.2518
的寶石	-11.2519
此物	-11.2519
上一部	-11.2521
斧	-11.2523
觸處	-11.2526
阿難陀	-11.2527
望著	-11.2528
爾時摩耶夫人	-11.253
有佛	-11.2531
因地	-11.2531
智度論	-11.2534
意思	-11.2536
南都本	-11.2537
包	-11.2539
論究	-11.2539
觀世音	-11.2539
無尋唯伺	-11.254
明初	-11.254
楊枝	-11.254
改變	-11.2542
廣博	-11.2542
何人	-11.2542
釘	-11.2543
吼	-11.2544
一切佛	-11.2545
密語	-11.2546
祿	-11.2548
攀	-11.2548
如其次第	-11.2548
賧	-11.255
禱	-11.255
大法對受	-11.255
踴	-11.255
耗	-11.2551
tat	-11.2551
措	-11.2552
廻	-11.2552
婚	-11.2552
裁	-11.2553
狼	-11.2553
千里	-11.2553
眾生者	-11.2553
裹	-11.2553
大精進	-11.2554
百千劫	-11.2554
郁	-11.2554
阿須倫	-11.2554
殆	-11.2555
應如是布施	-11.2555
城邑	-11.2555
自無主宰	-11.2556
蠲除	-11.2556
酬罔極	-11.2556
汝身	-11.2556
屍林	-11.2557
葬	-11.2557
隙	-11.2559
十六行	-11.2559
肩	-11.2559
虞	-11.2559
轂	-11.2559
如文	-11.256
乃至四句偈等	-11.256
陣	-11.256
電光	-11.256
時中	-11.256
捕	-11.2561
乃可取食	-11.2561
宴	-11.2561
芬馥	-11.2561
循	-11.2562
室羅筏	-11.2562
開受供養	-11.2562
坐臥具	-11.2562
疲厭	-11.2562
垂慈	-11.2563
魏	-11.2563
稀	-11.2563
盡其所有	-11.2563
所願	-11.2563
諂	-11.2563
煙雲	-11.2564
𠷑吒	-11.2564
沐浴	-11.2564
沉淪	-11.2564
雕	-11.2564
粟	-11.2564
不增不減	-11.2565
忿怒	-11.2565
步步	-11.2565
世法	-11.2565
時維摩詰來	-11.2566
曠野	-11.2566
因緣心論頌	-11.2566
金錫	-11.2566
快哉	-11.2567
蜂	-11.2567
贅	-11.2567
其福勝彼	-11.2567
眼等五根	-11.2568
胞胎	-11.2568
貴賤	-11.2568
唯成有漏	-11.2569
疊	-11.2569
重複	-11.2569
云何降伏其心	-11.2569
羸	-11.2569
撥	-11.2569
成書於	-11.257
敬白清淨	-11.2571
首殘尾全	-11.2571
瞻仰	-11.2571
農	-11.2572
聲聞緣覺	-11.2572
觸之受	-11.2572
貯	-11.2572
莖	-11.2572
甘地瑪蒂	-11.2572
今日已往去	-11.2572
魔軍	-11.2572
牧牛人	-11.2573
薦取	-11.2573
臉	-11.2574
大果	-11.2574
屏	-11.2574
是則名為	-11.2575
永不復退轉	-11.2575
恐人生	-11.2575
深淺	-11.2576
較量	-11.2576
在在	-11.2576
大抵	-11.2577
悲願	-11.2577
作何業	-11.2577
入壇	-11.2577
亥	-11.2577
儘是	-11.2578
婦女	-11.2578
周圓	-11.2578
課	-11.2579
甜	-11.2579
邪魔	-11.2579
天龍八部	-11.2579
普禮聖眾真言	-11.2579
協	-11.258
下賤	-11.258
怛你也他	-11.258
龍興寺	-11.2581
阿闍梨	-11.2581
正真	-11.2581
敦	-11.2581
剛強	-11.2582
負力	-11.2582
自念	-11.2582
華蓋	-11.2583
金剛五禮	-11.2583
1254	-11.2583
弘教大師	-11.2583
參禮	-11.2583
或因	-11.2584
(1)	-11.2584
為基礎	-11.2584
這樣做	-11.2585
的要求	-11.2585
幸運	-11.2585
返照	-11.2585
專注	-11.2585
本性清淨	-11.2586
若自	-11.2586
謹白	-11.2586
無處不	-11.2587
範圍	-11.2587
零	-11.2587
突出	-11.2587
可度	-11.2587
妙行	-11.2587
良緣	-11.2587
翻譯經典	-11.2587
光臨法會	-11.2588
自作自成	-11.2588
宗旨	-11.2588
北京	-11.2588
朕	-11.2588
或是	-11.2589
延昌	-11.2589
多出	-11.2589
贊歎	-11.2589
殘損	-11.2589
絕望	-11.2589
存亡	-11.2589
風格	-11.259
地神	-11.259
脩	-11.259
天請問經	-11.259
加護	-11.259
奈何	-11.2591
假使有人	-11.2591
入胎	-11.2591
頓教	-11.2591
初心	-11.2592
憐愍	-11.2593
應了了分明尚未生起之	-11.2596
方圓	-11.2596
-'	-11.2597
尚存	-11.2597
典據	-11.2598
群迷	-11.2599
安惠	-11.2599
本節論述的是對	-11.26
此因	-11.26
缺少	-11.26
積德	-11.2601
立即	-11.2602
象馬	-11.2603
踴出	-11.2603
廣無邊	-11.2603
復以	-11.2604
未來不生	-11.2604
毀禁	-11.2604
諸家雜述	-11.2604
某種	-11.2605
報恩寺	-11.2606
出家者	-11.2607
已在我國地	-11.2607
納受	-11.2608
百五十	-11.2608
被收入	-11.2608
火燒	-11.2609
同嘆	-11.2609
長久	-11.2611
無盡藏	-11.2612
離生死	-11.2612
故先說	-11.2613
覺察	-11.2613
隨彼	-11.2614
西夏本	-11.2615
臨終	-11.2617
也可以	-11.2618
大法王	-11.2618
詳盡	-11.2619
五宗錄	-11.2619
心境	-11.262
印證	-11.262
帝那	-11.262
二根	-11.262
梵文	-11.2621
憂悔	-11.2621
勸請	-11.2621
何必	-11.2623
的事	-11.2623
談論	-11.2624
不能生	-11.2625
鼻根	-11.2626
一切善法	-11.2629
表述	-11.263
殷勤	-11.2631
豁	-11.2631
daśa	-11.2633
心口身	-11.2633
不可稱	-11.2633
假設	-11.2634
第十四	-11.2636
無量壽佛	-11.2638
會中	-11.2639
禮別	-11.264
而見	-11.264
安得	-11.2641
的方式	-11.2641
故令	-11.2641
的其他	-11.2641
反映出	-11.2645
分位	-11.2646
敵人	-11.2648
23、	-11.2648
把它們	-11.2651
示其	-11.2651
敬仰	-11.2653
原卷	-11.2657
之方	-11.2658
淨戒	-11.266
未曾有也	-11.2662
聖位	-11.2663
無相乃	-11.2663
末後	-11.2663
未久	-11.2665
在這裏	-11.2665
▁2	-11.2666
輪王	-11.2668
順緣	-11.2669
詳見	-11.267
接受	-11.2673
接觸	-11.2673
勿使	-11.2674
尋常	-11.2675
無受	-11.2675
次下	-11.2676
太虛	-11.2677
正確的	-11.2679
慈覺	-11.268
的依據	-11.268
取水	-11.2681
對首	-11.2682
厭離	-11.2683
開發	-11.2683
諸大眾	-11.2689
七月	-11.269
發露	-11.269
慧日	-11.2692
覺觀	-11.2698
共通	-11.2699
悟理	-11.27
智障	-11.2702
歡喜地	-11.2703
位於	-11.2703
供養者	-11.2704
乘義	-11.2706
得見如來	-11.2709
依正	-11.271
之初	-11.271
別別	-11.2713
飛行	-11.2718
應如何	-11.2725
教僧	-11.273
過程中	-11.2732
今得	-11.2732
佛境界	-11.2732
其內容	-11.2733
歷史上	-11.2733
已有	-11.2734
多劫	-11.2734
是因為	-11.2736
41	-11.2739
從座	-11.274
文書	-11.2743
一毛孔	-11.2747
四大種	-11.2748
故名如來	-11.275
始從	-11.275
受佛	-11.2751
知恩	-11.2752
非由	-11.2753
你就	-11.2754
以之為	-11.2754
信禮	-11.2757
聲緣	-11.2757
善也	-11.2758
空花	-11.2758
應觀	-11.2761
眾神	-11.2763
字體	-11.2764
餘九	-11.2764
寫於	-11.2767
無分別智	-11.277
得福	-11.277
通於	-11.2771
彼之	-11.2773
煩惱之	-11.2777
無量眾生	-11.278
汝何	-11.278
了悟	-11.2781
國師	-11.2781
90、	-11.2783
娑伽	-11.2784
能造	-11.2785
自相續	-11.2788
解者	-11.2788
長子	-11.2789
將護	-11.279
謗也	-11.279
這兒的	-11.279
神光	-11.2793
有智慧	-11.2796
安寧	-11.2796
聲色	-11.2797
我說	-11.2798
勤行	-11.2799
立名	-11.2801
斷也	-11.2808
大論	-11.2809
好惡	-11.2814
印度佛教	-11.2815
心意	-11.2815
即生	-11.2817
佛前	-11.2817
衣鉢	-11.2817
深義	-11.2819
sam	-11.2825
走向	-11.2827
諦實無	-11.2829
之難	-11.2832
悅意之	-11.2833
正如	-11.2837
之支分	-11.2838
諸佛之	-11.2841
62、	-11.2843
。」3	-11.2845
);「	-11.2847
人皆	-11.2851
通常	-11.2852
無常義	-11.286
利生	-11.2861
加上	-11.2862
依照	-11.2863
世界中	-11.2865
之別	-11.2867
上人	-11.2868
聽聞	-11.287
與他	-11.2871
寶蓮華	-11.2873
無別體	-11.2874
無對	-11.2875
這兩部	-11.2878
有何益	-11.2882
因時	-11.2884
於道	-11.2885
明教	-11.2886
復何	-11.2889
現於	-11.2891
心想	-11.2893
三脫	-11.2893
少欲	-11.2896
有無量	-11.2897
大藏經史	-11.2899
即見	-11.29
捨命	-11.2906
彼二	-11.2908
它們的	-11.291
行乞	-11.2911
法全	-11.2915
二義	-11.2915
正報	-11.2916
74、	-11.292
異同	-11.2922
□□□□□□□□□	-11.2923
有限	-11.2924
當念	-11.2927
不得名	-11.293
有滅	-11.2936
之有	-11.2939
更無別	-11.2941
其親	-11.2943
下卷	-11.2949
六行	-11.295
無苦	-11.295
不可具	-11.2953
五通	-11.2956
,......	-11.2956
於此身	-11.2958
七卷	-11.2959
有偈	-11.2971
題目	-11.2972
難事	-11.2973
應化	-11.2977
相見	-11.2977
常為	-11.2978
所明	-11.2978
為佛	-11.2978
我的身體	-11.2984
不惜	-11.2985
化現	-11.2986
而死	-11.2987
等持	-11.2987
是這樣	-11.2987
能緣	-11.2988
誐哩	-11.2991
等虛空	-11.2992
光照	-11.2994
諸比丘眾	-11.2997
亦不得	-11.3
唯為	-11.3002
經法	-11.3003
15.	-11.3005
卷六	-11.3006
是法身	-11.3007
深恩	-11.3008
63、	-11.3008
願彼	-11.3009
手中	-11.3009
婆嚩	-11.301
外有	-11.301
即法身	-11.3013
三解釋	-11.3013
聞慧	-11.3014
但從	-11.302
大悲觀世音	-11.3022
為樂	-11.3026
的力量	-11.3029
□□□□□□□	-11.3029
烈火	-11.3031
又於	-11.3032
唯得	-11.3033
定是	-11.3033
據此	-11.3035
受其	-11.3036
欲貪	-11.3049
色中	-11.305
故須	-11.305
處理	-11.3051
之徒	-11.3053
告阿難	-11.3057
衣等	-11.3058
異生	-11.3059
有了	-11.3062
到佛所	-11.3064
把他	-11.3064
不向	-11.3068
於上	-11.307
不隨	-11.3071
集中	-11.3071
阿難尊者	-11.3072
勤奮	-11.308
廣如	-11.3084
深經	-11.3084
即滅	-11.3085
佛不	-11.3092
並無	-11.3092
訶囉	-11.3094
有愛	-11.3094
有所緣	-11.31
無欲	-11.3108
共有	-11.3112
言教	-11.3113
正教	-11.3118
法體	-11.312
可能性	-11.3121
可取	-11.3121
持齋戒	-11.3124
頻	-11.3124
來了	-11.3125
右手	-11.3126
61、	-11.3126
了義	-11.3128
汝可	-11.3129
由來	-11.3134
是無漏	-11.3134
阿那	-11.3144
隨時	-11.3146
難遇	-11.3147
諸大菩薩	-11.315
請為	-11.3156
五重	-11.3158
隨一	-11.3162
相比較	-11.3165
齋戒	-11.317
三月	-11.317
.5	-11.3174
父母之	-11.3181
眾集	-11.3182
菩提果	-11.3186
業障	-11.319
無說	-11.3197
禪觀	-11.3198
心俱	-11.3198
身垂	-11.3202
更為	-11.3206
如何得	-11.3207
都沒有	-11.3208
而不能	-11.3208
入無為	-11.3211
事實	-11.3216
嚴持	-11.3216
故現	-11.3216
受報	-11.3217
當得	-11.3218
道也	-11.3219
28、	-11.3222
上天	-11.3226
為有	-11.3226
天花	-11.3227
善得	-11.3229
中國人	-11.323
總目	-11.3232
妙寶	-11.3234
妄起	-11.3235
官屬	-11.3236
初學	-11.3246
不應有	-11.3256
印咒	-11.3259
有求	-11.326
險道	-11.3262
其理	-11.3262
和其他	-11.3268
獲得正覺	-11.3269
所需	-11.3272
信者	-11.3275
能了	-11.3282
經疏	-11.3284
堪任	-11.3289
的壽量	-11.3294
地獄中	-11.3294
部分內容	-11.3297
高尚的	-11.3298
對我	-11.3298
高下	-11.3305
通道	-11.3305
二障	-11.3306
如來身	-11.3309
彼處	-11.331
三句	-11.3311
門下	-11.3316
如是一切	-11.3317
邦	-11.3319
甚為	-11.3324
母親	-11.3325
為利他	-11.3327
願得	-11.3328
個性	-11.3332
復云何	-11.3334
卜	-11.3334
之位	-11.3341
本子	-11.3341
捨衛城	-11.3345
是事	-11.3349
即是佛	-11.3349
亦得名	-11.335
聾	-11.3355
佛國土	-11.3357
異於	-11.3358
定須	-11.3362
於汝	-11.3364
但道	-11.3365
為說法	-11.3366
時人	-11.3369
一部分	-11.3371
在位	-11.3375
從其	-11.3376
所列	-11.3377
鈍	-11.3379
這兩	-11.338
宰	-11.3382
法國	-11.3384
問云	-11.3386
長者子	-11.3391
在中國	-11.3392
為比丘	-11.3393
無生忍	-11.3396
之水	-11.3397
送給	-11.3398
起行	-11.3398
全是	-11.3398
愍念	-11.3399
興福	-11.3403
dh	-11.3405
燈供養	-11.3409
三皈	-11.341
二十五	-11.3412
得言	-11.3413
是對	-11.3417
作諸	-11.3419
女孩	-11.342
僧祐的	-11.3421
善德	-11.3425
曷為	-11.3425
時年十	-11.3425
燈光	-11.3427
如此處言	-11.3428
明依	-11.3429
磧砂	-11.3429
五代	-11.343
後得	-11.3432
買	-11.3436
薪	-11.3438
婆伽婆	-11.3439
M	-11.344
苑	-11.3441
了一個	-11.3443
銜接	-11.3444
筍	-11.3445
兔	-11.3445
縫	-11.3445
含情	-11.3447
為不淨	-11.3448
分類	-11.3449
無著無縛無脫	-11.3449
粘	-11.345
俾	-11.345
世出世間	-11.3451
一切罪	-11.3451
藪	-11.3452
儻	-11.3454
熏	-11.3454
灼	-11.3455
欲生	-11.3457
得解	-11.3457
骷髏	-11.3457
柳	-11.3457
廣引彈事	-11.3458
禰	-11.3458
嬈	-11.3459
奴僕	-11.3459
願我等所求如意	-11.346
市	-11.346
羯摩	-11.346
毀辱	-11.3461
眉間	-11.3461
瞬	-11.3462
癹	-11.3462
穴	-11.3462
成實論	-11.3462
良醫	-11.3462
奉養	-11.3463
坑	-11.3463
欺誑	-11.3464
羅睺羅	-11.3464
癩病患者善覺	-11.3464
胎藏界	-11.3464
報佛恩	-11.3464
鷲	-11.3465
援	-11.3465
樓閣	-11.3465
允	-11.3466
湧	-11.3466
眠	-11.3466
赤真珠	-11.3467
鳩	-11.3467
頑	-11.3467
慌	-11.3467
縛脫	-11.3468
傾虔	-11.3468
臃	-11.3468
於此經	-11.3468
舞	-11.3468
0、「	-11.3468
謹當宣	-11.3468
感格	-11.3469
惶	-11.3469
敷座	-11.3469
如我解佛所說義	-11.347
噉	-11.347
波浪	-11.347
掉舉	-11.3471
信受奉行	-11.3471
壤	-11.3471
如說修行	-11.3471
滾	-11.3471
儲	-11.3472
墳	-11.3472
窺	-11.3472
澀	-11.3472
脂	-11.3473
浮圖	-11.3473
湛	-11.3474
楞伽經	-11.3474
肉團	-11.3474
pañca	-11.3475
我滅度後	-11.3475
螺文	-11.3475
諦實空	-11.3475
塵剎	-11.3475
渠	-11.3476
抗	-11.3476
瘟疫	-11.3476
查	-11.3476
顫	-11.3476
論自釋云	-11.3476
猶若虛空	-11.3476
為種	-11.3476
探討	-11.3477
字樣	-11.3477
89	-11.3477
什物	-11.3477
頭腦	-11.3477
揭諦	-11.3478
曠劫	-11.3478
舍利弗尊者	-11.3478
入菩薩行論	-11.3478
英俊	-11.3478
遼代	-11.3479
站	-11.3479
驢	-11.3479
道場清淨眾	-11.3479
阻	-11.3479
骨肉	-11.3479
每月十齋日	-11.3479
此生	-11.3479
明尋伺	-11.348
穩	-11.348
綺語	-11.348
漚	-11.348
增福壽	-11.3481
所緣有對	-11.3481
具足色身	-11.3481
碧	-11.3481
世尊在捨衛城	-11.3482
開導	-11.3482
療治	-11.3482
罕	-11.3482
更何待言	-11.3482
憔悴	-11.3483
塵垢	-11.3483
非常高興	-11.3483
警	-11.3483
不可保信	-11.3483
閣	-11.3483
嚼	-11.3483
玄奘法師	-11.3484
頭頂	-11.3484
波羅密多	-11.3484
挫	-11.3484
細滑	-11.3484
模	-11.3484
悉皆消滅	-11.3485
應諾	-11.3485
詠	-11.3485
呂	-11.3486
美貌	-11.3486
輕蔑	-11.3486
劍樹	-11.3486
頂禮佛足	-11.3487
統治	-11.3487
枯竭	-11.3487
紹	-11.3487
漂亮	-11.3487
火急	-11.3487
平滿	-11.3487
瀝	-11.3487
百姓	-11.3488
收歸入藏	-11.3489
圭峰禪師	-11.3489
安排	-11.3489
鑄	-11.3489
四部弟子	-11.3489
諧	-11.3489
東晉	-11.349
清淨法身毗盧遮那佛	-11.349
舊抄本	-11.349
紅瑪瑙	-11.349
饒益有情	-11.3491
龍興寺經藏	-11.3491
擯	-11.3491
高座	-11.3491
權威	-11.3491
慘	-11.3491
久近	-11.3492
傾向	-11.3492
佛頂心陀羅尼經	-11.3492
何異	-11.3492
梵夾裝	-11.3492
若了依他	-11.3492
聞經眾等罪消滅	-11.3493
縛羅	-11.3493
照片	-11.3493
法筵	-11.3493
喫	-11.3493
預流	-11.3494
珍珠	-11.3494
巨大的	-11.3494
週	-11.3494
南無地藏王菩薩	-11.3494
微塵數	-11.3495
複雜	-11.3495
欣喜	-11.3495
我於爾時	-11.3495
藥師佛解	-11.3495
速證	-11.3496
應如	-11.3497
動靜	-11.3497
古今譯經圖紀	-11.3497
其德	-11.3498
戰勝	-11.3498
提婆	-11.3498
巨海	-11.3498
ṛ	-11.3498
所有的人都	-11.3499
樣態	-11.3499
輪轉	-11.3499
早期	-11.3499
故致斯	-11.3499
曲折	-11.3499
虔信	-11.3499
形狀	-11.35
乘也	-11.35
星光神	-11.35
的最長壽命	-11.35
愚迷	-11.35
意向性	-11.3501
侍從	-11.3501
覆障	-11.3502
eṣu	-11.3502
惠辯	-11.3502
此日齋者	-11.3502
各個	-11.3502
型	-11.3502
性質相同	-11.3502
我們知道	-11.3502
美味	-11.3503
勸導	-11.3503
花巾	-11.3503
真人	-11.3503
修禪定	-11.3503
所知障	-11.3503
平安	-11.3504
應了了分明已生起之	-11.3504
不懈	-11.3504
darśana	-11.3505
二相本來	-11.3505
發表	-11.3505
大周刊定眾經目錄	-11.3506
何期	-11.3507
注想	-11.351
賤人	-11.3511
能斫	-11.3511
若行	-11.3513
道諦	-11.3513
戒條	-11.3513
大哭	-11.3513
物質性的	-11.3514
阿彌	-11.3514
地瑟吒	-11.3514
七竅	-11.3516
傳承	-11.3516
存在著	-11.3516
報復必更激	-11.3517
祖師	-11.3517
96、	-11.3517
智惠	-11.3518
指導	-11.3518
施三	-11.3519
直須	-11.352
480	-11.3521
大日經	-11.3521
病患	-11.3523
勤苦	-11.3524
▁pañca	-11.3526
專門	-11.3527
有礙	-11.3529
一切種智	-11.3529
報障	-11.353
誦持	-11.3532
各各當	-11.3532
父親	-11.3532
殿上	-11.3534
二字	-11.3534
慈愍故	-11.3536
月十五日	-11.3537
判定	-11.3537
集中在	-11.3537
承當	-11.3537
舉動	-11.3539
利害	-11.354
黎明	-11.354
11.	-11.3542
除遣	-11.3542
放光明	-11.3544
重新	-11.3546
經籍	-11.3546
金剛禮	-11.3547
合也	-11.3547
彼非	-11.3547
立誓	-11.3548
別解	-11.3548
普通	-11.3549
para	-11.3551
有分	-11.3551
哆耶	-11.3552
論文自	-11.3553
作罪	-11.3555
殘存	-11.3557
稱述	-11.356
不移	-11.356
求懺悔	-11.3561
喜歡	-11.3562
▁甲本	-11.3563
不得自在	-11.3564
識性	-11.3565
現象	-11.3565
等同於	-11.3566
與前	-11.3566
jñāna	-11.357
無作相	-11.357
宿業	-11.3571
句話	-11.3572
香供養	-11.3575
依憑	-11.3576
佛藏經	-11.3578
物品	-11.3578
緣境	-11.358
辯論	-11.3582
於世間	-11.3583
良因	-11.3583
肉體	-11.3583
八月	-11.3583
知之	-11.3585
為言	-11.3587
難得之	-11.3587
空觀	-11.3588
57、	-11.3591
即彼	-11.3594
諸業	-11.3594
十信	-11.3594
吾今	-11.3594
吾我	-11.3595
界攝	-11.3595
54、	-11.3596
轉深	-11.3597
多生	-11.3598
之識	-11.3598
灑淨	-11.3599
的狀態	-11.36
以智	-11.36
如前說	-11.3601
無私	-11.3601
成壞	-11.3602
爾時須菩提	-11.3604
捨之	-11.3605
雖得	-11.3605
十八種	-11.3609
該卷	-11.3609
之火	-11.3609
德位	-11.3612
在天上	-11.3613
於所	-11.3613
投地	-11.3615
帝王	-11.3616
密言	-11.3616
無所畏	-11.3616
大樂	-11.3618
師教	-11.3619
損生	-11.3622
數論	-11.3623
對三寶	-11.3624
正宗	-11.3625
惡行	-11.3626
端坐	-11.3626
斷行	-11.3628
.)」「(	-11.3629
雖說	-11.3629
至孝	-11.363
滿空	-11.363
大怖畏	-11.3631
無涯	-11.3639
示行	-11.364
名為菩薩	-11.3642
的欲望	-11.3647
流浪	-11.3648
無乘	-11.3649
單獨	-11.365
的工作	-11.3651
有情義利	-11.3652
所加	-11.3653
看者見佛在	-11.3655
共許	-11.3655
如電	-11.3656
性命	-11.3656
空間	-11.3659
眾香	-11.3662
八苦	-11.3664
親愛	-11.3665
其間	-11.3669
不應爾	-11.3672
報父母	-11.3682
其唯	-11.3684
順從	-11.3685
不容	-11.3686
不繫	-11.3686
能感	-11.3689
為有情	-11.3693
守護心	-11.3693
轉成	-11.3698
四住	-11.3699
深遠	-11.3699
五部	-11.3702
邪觀	-11.3702
字號	-11.3706
請求	-11.3708
由心	-11.3709
四人	-11.3709
?」(	-11.3711
於有情	-11.3712
後面	-11.3712
諸尊	-11.3715
承受	-11.3715
又不	-11.3715
能障	-11.3719
相攝	-11.3722
108	-11.3723
回心	-11.3724
雜相	-11.3725
我已經	-11.3726
的各種	-11.3727
65、	-11.3729
階段	-11.373
自愛	-11.373
在外	-11.373
故世親論	-11.3731
法雲	-11.3737
五門	-11.3737
金色光	-11.3738
而復	-11.3741
諸法空	-11.3743
利樂	-11.3744
境故	-11.3744
寫卷	-11.3747
妙供	-11.3748
中放	-11.3749
的人們	-11.375
隨緣	-11.3754
南無僧伽	-11.3756
相配	-11.3756
自三	-11.3757
並沒有	-11.3757
亦滅	-11.3758
依有	-11.3759
實由	-11.376
切以	-11.376
苦趣	-11.376
參校	-11.3762
謂若	-11.3764
大菩提	-11.3769
心花	-11.3772
法座	-11.3772
罪墮	-11.3772
śa	-11.3773
此第四	-11.3773
分為三	-11.3779
色陰	-11.3781
口出	-11.3782
註疏本	-11.3782
可滅	-11.3783
時長	-11.3783
真金	-11.3784
今為	-11.3784
曾於	-11.3784
業道	-11.3786
更不	-11.3788
相近	-11.379
大數	-11.3792
當受	-11.3792
極大的	-11.3792
何益	-11.3793
的問題	-11.3794
以往	-11.3795
豈能	-11.3797
鐵圍山	-11.3797
常無常	-11.3802
有多種	-11.3805
的出處	-11.3806
過去諸佛	-11.3807
必要	-11.3811
551	-11.3811
天真	-11.3811
da	-11.3814
故論云	-11.3824
只是	-11.3827
我今為	-11.3828
兜率	-11.3833
當年	-11.3834
即今	-11.3836
種行願	-11.3838
母胎	-11.3838
50、	-11.3841
非心	-11.3842
則成	-11.3844
福多	-11.3845
的經錄	-11.3847
無量功德	-11.3848
的引文	-11.3849
受此	-11.385
滅已	-11.3851
身內	-11.3851
前此	-11.3855
須知	-11.3855
求道	-11.3859
個個	-11.386
我能	-11.3862
是能	-11.3862
彼法	-11.3862
觀身	-11.3868
無我相	-11.3869
其中有	-11.387
不現	-11.3871
釋則	-11.3873
障也	-11.3874
同真	-11.3887
無差	-11.3889
境上	-11.3889
是諸眾生	-11.3892
因生	-11.3892
眾色	-11.3892
自苦	-11.3894
不無	-11.3897
所作的	-11.3898
此味	-11.3898
六欲	-11.3898
信也	-11.39
一一色	-11.3901
何者為	-11.3903
制心	-11.3906
雖知	-11.3909
惡名	-11.3909
不避	-11.3909
廣略	-11.3909
逃脫	-11.3913
這時	-11.3913
常與	-11.3919
悉是	-11.3921
3、「	-11.3923
亦空	-11.3925
八戒	-11.3928
體解	-11.3932
立見	-11.3939
應在	-11.3941
。」4	-11.3942
是佛性	-11.3942
依然	-11.3944
歸依佛	-11.3945
明果	-11.3945
說是法	-11.3946
釋難	-11.3948
心常	-11.3949
空聲	-11.3953
是身如	-11.3954
明捨	-11.3956
有許多	-11.3958
有病	-11.396
二句	-11.396
的題記	-11.3962
為欲	-11.3971
憂苦	-11.3972
他自己	-11.3979
為是	-11.398
時時	-11.398
明有	-11.3983
得衣食	-11.3985
成佛果	-11.3987
釋業	-11.3988
發現的	-11.3993
解脫者	-11.3993
愚者	-11.3994
為誰	-11.3996
眾僧	-11.3996
日持齋	-11.4001
滿中	-11.4004
定為	-11.4008
享樂	-11.4012
妄生	-11.4013
道場儀	-11.4015
六百	-11.4016
ānām	-11.4017
自滅	-11.4021
我以	-11.4022
如來不	-11.4024
末法	-11.4024
行出世	-11.4025
身雖	-11.4025
慧力	-11.4031
空中無	-11.4031
今後	-11.4034
虛空藏菩薩	-11.4034
80、	-11.4035
犯罪	-11.4038
識等	-11.4039
二合	-11.404
in	-11.4041
王之	-11.4049
亦如此	-11.4049
出三界	-11.405
紫金	-11.4051
於佛法	-11.4053
天界	-11.4056
即被	-11.4058
雖云	-11.4058
但他	-11.4059
施食	-11.406
常用	-11.406
人也	-11.4063
六時	-11.4067
無障	-11.407
坐下	-11.4072
其性	-11.4075
彼生	-11.4079
為底本	-11.4081
執實	-11.4082
85、	-11.4084
而求	-11.4085
大勢至菩薩	-11.4088
花供養	-11.409
於諸法	-11.4092
有邊	-11.4093
你自己	-11.4095
經首	-11.4101
於涅槃	-11.4107
應生	-11.4108
亦皆	-11.4109
在敦煌遺書中	-11.4109
善果	-11.4109
對此	-11.4113
其體	-11.412
態度	-11.412
供養諸佛	-11.4121
略有	-11.4122
所持	-11.4123
心寂	-11.4126
77、	-11.4127
齋食	-11.4134
異熟果	-11.4137
而受	-11.4137
無所依	-11.4142
將會	-11.4144
持此	-11.4144
卷八	-11.4145
若唯	-11.4148
歸真	-11.4151
325	-11.4154
言曰	-11.4155
祗是	-11.4157
一方	-11.4157
大理	-11.4162
功德海	-11.4168
以偈	-11.418
為首	-11.418
諸境	-11.4187
世間所有	-11.4188
榮耀	-11.419
未至	-11.419
海中	-11.4192
做了	-11.4193
無所緣	-11.4197
微劣	-11.4205
生成	-11.4205
907。	-11.4207
來時	-11.4211
60、	-11.4216
宴坐	-11.4221
部著作	-11.4224
書名	-11.4225
他把	-11.4228
忉利天	-11.4228
十王	-11.4234
大藏佛	-11.4236
於過去	-11.4238
法水	-11.4242
雖同	-11.4245
所述的	-11.4249
無道	-11.425
之極也	-11.4251
覺心	-11.4251
略明	-11.4259
他為	-11.4263
理成	-11.4264
行癡	-11.4268
為報	-11.4268
的作用	-11.427
海水	-11.4274
之量	-11.4278
明能	-11.4279
藥叉大將	-11.4279
於大乘	-11.4282
或說	-11.4288
之對治	-11.4289
得利	-11.429
非但	-11.4292
錄校	-11.4294
能行	-11.4295
生解	-11.4296
部典籍	-11.4303
總相	-11.4305
於自	-11.4306
明見	-11.4308
七者	-11.431
對彼	-11.4313
幻事	-11.4314
等苦	-11.4318
由我	-11.4321
已還	-11.4322
未離	-11.4323
阿僧祗劫	-11.4323
比丘僧	-11.4324
本來無	-11.4334
淨壇	-11.4336
兩段	-11.4336
這個人	-11.4337
別體	-11.4339
安立為	-11.4345
請答	-11.4346
得暇滿	-11.4347
一切經	-11.4347
先問	-11.4348
強弱	-11.4349
閱讀	-11.4352
司命	-11.4357
開解	-11.4362
便是	-11.4366
的結論	-11.4375
遍行	-11.4377
眾相	-11.4377
藏本	-11.4378
編纂者	-11.4383
之過	-11.4383
已後	-11.4386
豁然	-11.4387
的年代	-11.4391
婆沙師	-11.4392
之次	-11.4394
地獄等	-11.4395
藥叉	-11.4398
圈	-11.4398
無量壽	-11.4402
如火	-11.4404
偉	-11.4408
為蘊	-11.4411
而出	-11.4412
諸經論	-11.4416
正由	-11.442
引用的	-11.4421
受其大苦	-11.4423
阿那含	-11.4424
其道	-11.4424
戍涅馱	-11.4424
林間	-11.4426
白雲	-11.4428
罔極	-11.443
督	-11.443
莫能	-11.443
概	-11.443
正月	-11.4431
摧毀	-11.4432
慾望	-11.4436
行成	-11.4437
7)	-11.4439
於今	-11.4439
64、	-11.4439
無尋無伺	-11.4439
景德	-11.444
所住	-11.4441
識滅	-11.4442
侯	-11.4445
懈	-11.4445
都不	-11.4446
恆沙	-11.4446
散入諸髮	-11.4447
一心奉請藥師護教	-11.4447
鸞宿	-11.4447
軸	-11.4448
完備	-11.4448
八十種好	-11.4449
妹	-11.4449
螺髻	-11.4449
鉢頭	-11.4451
級	-11.4453
婉轉下垂	-11.4453
戌涅	-11.4453
正心	-11.4454
卵	-11.4454
四生六道	-11.4455
今為舉揚	-11.4455
漂	-11.4455
柔軟可愛	-11.4457
膝	-11.4457
悉陀夜	-11.4457
(10	-11.4458
趙智鳳	-11.4458
娜	-11.4458
妒	-11.4458
入無餘	-11.4459
昊天	-11.446
舍利卜怛囉	-11.446
或怨家為	-11.446
溪	-11.446
關節	-11.446
疲勞	-11.446
募	-11.4461
鍐	-11.4461
彈	-11.4462
長一丈	-11.4462
緒	-11.4462
無來無去	-11.4462
入菩薩行論廣解卷	-11.4462
金剛臺	-11.4462
名有執受	-11.4462
窗	-11.4463
清信士	-11.4463
百千萬億	-11.4463
筋	-11.4463
何由得	-11.4463
遁	-11.4463
莎婆	-11.4463
濡	-11.4464
愉快	-11.4464
毗耶離	-11.4464
行事鈔	-11.4464
衡	-11.4464
鱗	-11.4464
寐	-11.4464
潭	-11.4465
牆	-11.4465
曇	-11.4465
灌	-11.4466
熱鐵輪	-11.4466
五戒十善	-11.4466
以果收因	-11.4467
憤	-11.4467
掣	-11.4467
諮	-11.4467
艷	-11.4468
隻	-11.4468
光目女	-11.4468
底瑟吒	-11.4468
拖	-11.4468
組	-11.4468
豬	-11.4469
義理性佛教	-11.4469
憶念我昔	-11.447
莽	-11.447
腰	-11.447
頃	-11.447
難陀尊者	-11.447
根本拔除	-11.447
炬	-11.447
勃陀	-11.4471
剝	-11.4471
禳	-11.4471
皆向上靡	-11.4471
拯	-11.4471
聖顏	-11.4471
自食	-11.4472
得聞是經	-11.4472
所及	-11.4473
秉	-11.4473
揣	-11.4473
苗芽	-11.4473
炭	-11.4473
摧折	-11.4473
庵	-11.4473
堂堂	-11.4474
道品等行	-11.4474
簸	-11.4474
憶持	-11.4474
謾	-11.4474
儀範	-11.4474
饑渴	-11.4474
復有一人	-11.4475
膿	-11.4476
佛祖統記	-11.4476
佳	-11.4476
焚香	-11.4476
加持發菩提心真言	-11.4476
兮	-11.4476
新唐書	-11.4476
兩本	-11.4477
宏	-11.4477
流出二光	-11.4477
凡庸	-11.4477
沉溺	-11.4477
首尾均殘	-11.4478
鋪	-11.4478
王中之王	-11.4478
婉轉相著	-11.4478
所感之土	-11.4478
俾令	-11.4478
佛教全書	-11.4478
正遍知	-11.4478
遼	-11.4479
蟠龍	-11.4479
恭謹	-11.4479
祭則致其嚴	-11.4479
偃	-11.448
晚唐	-11.448
剖	-11.448
撲	-11.448
北魏	-11.448
梁武帝	-11.448
那時候	-11.448
耐	-11.4481
樂小法者	-11.4481
鬧	-11.4481
莎嚩	-11.4481
閃	-11.4482
塔廟	-11.4482
該經軌	-11.4482
到彼岸	-11.4482
歡悅	-11.4482
泰	-11.4482
評	-11.4482
擺脫	-11.4482
街	-11.4482
如槁木	-11.4483
美好	-11.4483
腋	-11.4483
嗎	-11.4484
此有	-11.4484
歟	-11.4484
通塞	-11.4484
三觀澄明	-11.4484
天監四年	-11.4484
挂	-11.4484
社會	-11.4484
呬	-11.4484
岩	-11.4484
tra	-11.4485
遲疑	-11.4485
具諸功德	-11.4485
說是語	-11.4486
怙	-11.4486
松	-11.4486
遐	-11.4486
文義相	-11.4486
飲水	-11.4486
兔角	-11.4486
姚	-11.4486
諭	-11.4487
玄宗	-11.4487
如千日	-11.4487
今此道場	-11.4487
大批	-11.4487
rtha	-11.4487
耳遙聞	-11.4487
澆	-11.4488
考慮	-11.4488
臘	-11.4488
數過百卷	-11.4488
銷釋金剛經科儀	-11.4488
扶持	-11.4488
疲苦	-11.4488
淫慾	-11.4488
莊嚴佛土	-11.4488
1002	-11.4488
甘露灑	-11.4489
天竺國菩提達摩禪師論	-11.4489
圍遶	-11.4489
隋唐	-11.4489
微笑	-11.4489
窺基	-11.4489
倉	-11.4489
阿羅訶	-11.4489
以恒河沙等身布施	-11.4489
龍象	-11.449
已沐雲臨	-11.449
公元	-11.449
缺乏	-11.449
考慮到	-11.4491
修訂	-11.4491
陞	-11.4491
陪	-11.4491
一切經音義	-11.4491
鮑善恢題記	-11.4492
光緒	-11.4492
槃陀	-11.4492
目之為	-11.4493
法處所攝	-11.4493
整理本的底	-11.4493
東域傳燈目錄	-11.4494
豈容	-11.4494
獨居	-11.4494
號哭	-11.4494
仁慈	-11.4494
牧	-11.4494
乾城	-11.4495
的標準	-11.4495
田主	-11.4495
六年	-11.4495
一切有為法	-11.4495
或觀察諸法之	-11.4495
把握	-11.4495
頓悟	-11.4496
召集	-11.4496
掌中	-11.4496
亦未為歷代大藏經所收	-11.4496
首殘尾存	-11.4496
奧義	-11.4497
坐臥	-11.4497
任運	-11.4497
無慾	-11.4497
峻	-11.4497
稱彼岸	-11.4497
西夏佛教	-11.4497
明來處	-11.4497
韻音	-11.4497
92、	-11.4498
利益安樂	-11.4498
歷代經錄	-11.4498
范	-11.4499
聖心	-11.4499
§9.1	-11.4499
首尾題	-11.4499
激情	-11.4499
相鄰	-11.4499
無量壽經	-11.45
福壽	-11.45
(513)	-11.45
明教興意	-11.45
§4.2	-11.4501
ū	-11.4501
告訴我	-11.4501
消磨	-11.4501
光亮身	-11.4501
未審	-11.4501
黃門	-11.4502
污濁	-11.4502
神奇	-11.4502
端肅	-11.4502
世尊如是說	-11.4503
妙難思	-11.4503
布囉	-11.4503
le	-11.4503
這部經典	-11.4503
密切	-11.4504
.)】「	-11.4504
nāma	-11.4504
俊	-11.4504
明受苦樂	-11.4504
七毛	-11.4505
脫落	-11.4505
上中下	-11.4506
奇異	-11.4507
山脈	-11.4507
顯隱	-11.4508
般若心經	-11.4508
一切萬法	-11.4508
諷誦	-11.4509
未達	-11.4509
歎未曾有	-11.4509
已經亡佚	-11.4509
恣意	-11.4511
雜經錄	-11.4511
鹽官	-11.4512
含識	-11.4512
若聞	-11.4513
念阿彌陀佛	-11.4513
賢善	-11.4515
妙喜	-11.4517
請您	-11.4517
四智	-11.4517
稱作	-11.4517
靈光	-11.4518
護國	-11.4519
面目	-11.4519
解乘義	-11.4521
妙嚴	-11.4521
可分成	-11.4522
香氣	-11.4523
不能銜接	-11.4523
而不知者	-11.4524
知心	-11.4524
簡略	-11.4524
諍論	-11.4525
除去	-11.4525
卷十四	-11.4525
下接	-11.4525
八法	-11.4526
法身非	-11.4528
持戒比丘	-11.4528
合蓋	-11.4528
資具	-11.4528
應供養	-11.4529
▁M	-11.4529
議論	-11.4529
自性清淨	-11.453
最近	-11.453
的信仰	-11.453
月蓋	-11.4531
別簡	-11.4531
流轉生死	-11.4531
愛敬	-11.4535
生冤債	-11.4536
增上緣	-11.4537
明闇	-11.4537
領眾	-11.4539
共計	-11.4539
故應勵力	-11.4539
間隔	-11.454
奉為	-11.454
水月觀音	-11.4542
謗佛	-11.4544
釋梵	-11.4545
推斷	-11.4549
著名的	-11.455
兩耳	-11.455
方始	-11.455
所繫	-11.455
善無畏	-11.4551
心迷	-11.4551
三檀	-11.4551
成功	-11.4551
名之	-11.4553
法名	-11.4553
▁乙本	-11.4554
續藏本	-11.4555
三儀軌中	-11.4556
禪那	-11.4556
分散	-11.4557
到達	-11.4557
海藏	-11.4558
萬億那由他	-11.4558
但使	-11.456
一批	-11.456
動作	-11.456
果也	-11.456
二門	-11.4562
兩品	-11.4565
有我	-11.4565
對他	-11.4566
甘心	-11.4566
我檀那	-11.4566
領受	-11.4567
海會	-11.4568
以還	-11.4569
諸化佛	-11.457
普同	-11.4571
通三界	-11.4576
入滅	-11.4576
濕生	-11.4577
寂天	-11.4579
之願	-11.458
眾誦	-11.4581
所寫	-11.4584
行苦	-11.4585
之數	-11.4585
mā	-11.4587
頭陀法	-11.4587
位中	-11.4589
理趣	-11.4589
無退轉	-11.4593
出來的	-11.4595
眼觀	-11.4596
的種種	-11.4596
來到了	-11.4597
他們都	-11.4598
此皆	-11.4598
普願	-11.4599
三十萬	-11.4602
十二入	-11.4602
石窟	-11.4604
他們會	-11.4605
58、	-11.4606
端身	-11.4607
傳世	-11.4607
不開	-11.4608
所載	-11.4609
參與	-11.461
如來者	-11.4613
〕(?)	-11.4614
對待	-11.4614
停止	-11.4616
妙相	-11.4617
妙果	-11.4618
何等人	-11.4618
不妄語	-11.4619
行宮	-11.4619
引述	-11.4619
獨處	-11.462
普皆	-11.4621
云何修行	-11.4621
今有	-11.4621
果滿	-11.4622
73、	-11.4624
為淨	-11.4626
不一	-11.4628
ch	-11.4628
三千大千	-11.4635
時維摩詰	-11.4637
四周	-11.4638
等四種	-11.4639
律中	-11.4639
一行	-11.464
解義	-11.4641
解脫道	-11.4642
等覺	-11.4642
若遇	-11.4643
願菩提心	-11.4643
三部	-11.4647
的物質	-11.4649
事情	-11.4653
一邊	-11.4654
□□□□□□	-11.4657
佛慧	-11.4661
相容	-11.4661
一心歸命禮	-11.4664
由其	-11.4664
生靈	-11.4664
先當	-11.4665
如本無	-11.4666
大小乘	-11.4666
慈悲心	-11.4667
修我慢	-11.4667
tā	-11.4668
於佛前	-11.4669
不歸	-11.4671
影印	-11.4671
咽喉	-11.4672
從上述	-11.4673
當觀	-11.4673
復請	-11.4673
受苦時	-11.4677
古佛	-11.468
上乘	-11.468
親緣	-11.4683
不妨	-11.4683
生活在	-11.4685
難報	-11.4689
法界眾生	-11.4689
唯於	-11.469
與修道	-11.4692
求法	-11.4695
其數	-11.4696
常存	-11.4696
是邪	-11.4697
堪忍	-11.4699
其意	-11.4699
82、	-11.4701
化城	-11.4703
能遮	-11.4708
的翻譯	-11.4709
初標	-11.471
具體的	-11.4715
難聞	-11.4717
修因	-11.4717
18.	-11.4726
彼自性	-11.4726
傳入	-11.4727
五義	-11.4727
上了	-11.4731
是無記	-11.4731
莫大	-11.4733
尋其	-11.4736
73	-11.4737
有可能	-11.4738
而今	-11.4739
虛空藏	-11.4741
無本	-11.4741
所緣緣	-11.4742
其名	-11.4743
阿羅漢果	-11.4744
受形	-11.4744
金身	-11.4745
即攝	-11.4749
的形成	-11.475
之報	-11.4752
伽囉	-11.4752
四處	-11.4753
來自	-11.4754
之用	-11.4754
百歲	-11.476
以法為	-11.4761
佛意	-11.4762
所以在	-11.4766
八者	-11.477
93、	-11.4773
攝益	-11.4773
捨置	-11.4773
我願	-11.4776
立為	-11.4778
的傳統	-11.4779
之所以	-11.478
婆婆	-11.4781
1)	-11.4785
終時	-11.4785
紅蓮	-11.4789
廣長舌相	-11.4789
序中	-11.479
寧可	-11.479
的理論	-11.4791
明受用	-11.4794
文有	-11.4795
僅唯	-11.4795
上聖	-11.4796
或現	-11.4796
淨水	-11.48
何緣	-11.4802
顯了	-11.4804
第十七	-11.4804
所餘	-11.4805
丙本	-11.4805
集福	-11.4805
真如性	-11.4806
』,	-11.4808
非道	-11.481
明別	-11.4811
即是空	-11.4813
寶瓶	-11.4815
次為	-11.4816
彼補特伽羅	-11.4818
佛亦	-11.4827
能捨	-11.4828
不應說	-11.4829
無竟	-11.483
事相	-11.483
是假	-11.4831
行文	-11.4832
道法	-11.4833
合理	-11.4836
十二年	-11.4836
生因	-11.4836
五方	-11.4839
無起	-11.4839
98、	-11.4841
教理	-11.4841
法身真言	-11.4841
修淨土	-11.4844
本清淨	-11.4845
墮惡趣	-11.4846
名智	-11.4848
四力	-11.485
前明	-11.4854
能所	-11.4855
都會	-11.4857
ha	-11.4857
的態度	-11.4859
不宜	-11.486
金容	-11.486
真淨	-11.4861
實事	-11.4862
信佛	-11.4862
14.	-11.4866
以諸	-11.4867
多多	-11.4868
收有	-11.4868
之根本	-11.4871
▁7	-11.4871
八大	-11.4872
夫言	-11.4878
置之	-11.4881
四月	-11.4881
眾行	-11.4882
回光	-11.4886
雜明	-11.4888
能了知	-11.4891
五佛	-11.4892
應該說	-11.4892
能證	-11.4896
他所	-11.49
結論	-11.4903
為佛事	-11.4904
城中	-11.4904
正當	-11.4906
為君	-11.4908
限於	-11.4909
四事	-11.4909
於一切法	-11.4911
此本	-11.4912
佛藏	-11.4917
每個	-11.4918
名大	-11.4919
地界	-11.4921
微言	-11.4924
非空	-11.4927
67、	-11.4928
隨處	-11.4929
方面的	-11.4929
應令	-11.4932
因義	-11.4935
與其他	-11.4935
敦煌地區	-11.4938
惑盡	-11.4942
▁第四	-11.4942
別行	-11.4942
供養佛	-11.4945
凡心	-11.4945
過於	-11.4947
天眼遙	-11.4949
常將	-11.4949
身語	-11.495
彼國	-11.4953
即隨	-11.4955
業的	-11.4955
師云	-11.4955
行蘊	-11.4957
報恩者	-11.4961
法成	-11.4963
釋煩惱	-11.4971
的國家	-11.4972
無壽者	-11.4972
能深	-11.4972
有眾多	-11.4973
正直	-11.4981
又此	-11.4982
身識	-11.4987
來迎	-11.4987
知一切法	-11.4988
食時	-11.4996
不能知	-11.5
上地	-11.5002
經教	-11.5005
是為了	-11.5005
rī	-11.5006
若知	-11.5007
的意義	-11.5008
者必	-11.501
成世界	-11.5012
想要的	-11.5013
密多	-11.5016
化作	-11.5018
善解	-11.5025
曾為	-11.5025
亦與	-11.5026
此先	-11.5027
此節	-11.503
先於	-11.5031
本國	-11.5036
為真	-11.5036
火所燒	-11.5037
除滅	-11.5038
的整理	-11.5039
為王	-11.5041
下有	-11.5041
苦想	-11.5043
四句偈	-11.5052
這一部分	-11.5056
根境	-11.5057
不還	-11.5059
的故事	-11.506
六事	-11.5062
的淨修林	-11.5063
示有	-11.5066
安能	-11.5067
亦許	-11.5069
它們是	-11.507
何其	-11.507
能救	-11.507
惟有	-11.5072
71、	-11.5072
汝已	-11.5073
所觸	-11.5074
食等	-11.5075
貪等	-11.5078
具六	-11.5079
除其	-11.5085
即須	-11.5086
差異	-11.5087
能盡	-11.5088
復能	-11.5088
隨欲	-11.5097
三萬二千	-11.5103
一性	-11.5104
四靜慮	-11.511
中沒有	-11.511
施戒	-11.5111
生天上	-11.5111
悉知	-11.5112
5.3	-11.5114
敷演	-11.5115
不生滅	-11.5118
出處	-11.5121
十個	-11.5124
在人	-11.5125
相隨	-11.5125
實義	-11.5127
法報	-11.5127
662	-11.5128
萬有	-11.5133
如上所	-11.5134
依儀	-11.5136
謂即	-11.5145
不離於	-11.5145
實為	-11.5147
所緣故	-11.5149
▁a	-11.5151
二見	-11.5157
世界空	-11.5161
七個	-11.5162
以神力	-11.5165
而動	-11.5166
不類	-11.517
52、	-11.5177
為宣揚	-11.5178
有過失	-11.5181
十年	-11.5183
能成就	-11.5183
樂欲	-11.5185
場所	-11.5186
一切苦	-11.5187
眾會	-11.5188
莫非	-11.5189
在世	-11.5189
以慧	-11.5191
五境	-11.5191
鐵圍	-11.5198
惑者	-11.52
成阿羅漢	-11.5204
應屬	-11.5204
其形	-11.5205
不屬	-11.5205
雖已	-11.5205
(2	-11.5207
故立	-11.5209
三菩提	-11.5209
無相之	-11.5213
等三種	-11.5213
離心	-11.522
有五種	-11.5221
對象	-11.5224
於苦	-11.5225
山川	-11.5228
79、	-11.523
阿利	-11.5232
個月	-11.5234
此室	-11.5241
彼怨敵	-11.5241
一物	-11.5243
無福	-11.5245
苦果	-11.5249
欲使	-11.525
不感	-11.5251
處在	-11.5257
河沙	-11.5257
已作	-11.5258
非彼	-11.5259
宗章疏	-11.5263
ty	-11.5265
不顧	-11.5269
猶如天	-11.5271
經目錄	-11.5272
中根	-11.5272
於三寶	-11.5276
而言之	-11.5282
19.	-11.5289
頌文	-11.5291
文本	-11.5292
不能忍	-11.5295
有五百	-11.5296
答難	-11.5297
鼻識	-11.5298
人道	-11.5298
手足	-11.5299
大夫	-11.5303
在其中	-11.5307
勝前	-11.5313
不齊	-11.5315
無塵	-11.5318
已成	-11.5322
不被	-11.5324
不應作	-11.5327
能以	-11.5329
令眾生	-11.5331
常實	-11.5339
之智	-11.5342
擇滅	-11.5346
九百	-11.5346
這兒	-11.535
編號	-11.5351
。」7	-11.5354
教團	-11.5358
功德聚	-11.5359
懂	-11.536
罪失	-11.537
品第三十	-11.5371
敦煌遺書中的	-11.5372
答以	-11.5373
居處	-11.5374
共為	-11.5386
蒲	-11.5386
號中	-11.5391
在其	-11.5393
將此	-11.5395
如是修	-11.5398
的生命	-11.5398
明知	-11.5398
敦煌佛教	-11.54
邊看者見佛在	-11.54
為證	-11.5401
來講	-11.5402
的時代	-11.5402
。」6	-11.5403
我從	-11.5404
集僧	-11.5405
53、	-11.5407
惡趣苦	-11.541
離色	-11.5413
可說	-11.5414
前世	-11.5417
來源	-11.5424
用了	-11.5426
三世冤	-11.543
道次第	-11.5431
敦煌文獻中	-11.5435
人生	-11.5435
雖則	-11.544
無損	-11.544
刻石	-11.5445
227	-11.5447
正定	-11.5455
相結	-11.5455
起大悲	-11.5457
大人	-11.5459
色如	-11.5459
跋囉	-11.5462
事已	-11.5463
兩部	-11.5464
俱盧	-11.5464
論中	-11.547
親自	-11.547
與尋	-11.5471
清淨慧菩薩	-11.5472
而下	-11.5473
十方佛	-11.5474
我希望	-11.5477
勝果	-11.5478
同意	-11.548
如星	-11.5481
解也	-11.5482
的認識	-11.5485
諸神	-11.5489
▁(	-11.549
部分的	-11.5492
佛智	-11.5493
虎吽	-11.5493
體寂	-11.5494
應現	-11.5494
79	-11.5499
求菩提	-11.55
先修	-11.5502
二十二	-11.5503
應勤	-11.5504
頂相	-11.5506
丁二	-11.5506
說咒	-11.5511
等流	-11.5513
成文	-11.5513
獵人	-11.5513
而不是	-11.5515
情除	-11.5519
構	-11.5522
中提到	-11.5525
枝	-11.5525
律師	-11.5536
賀囉	-11.554
濟群	-11.554
與之	-11.5541
與心	-11.5541
后	-11.5544
的分類	-11.5544
但因	-11.5545
其因	-11.5545
異見	-11.5546
諷	-11.5546
即由	-11.5547
菩薩心	-11.5552
後生	-11.5553
秀	-11.5554
或問	-11.5554
戟	-11.5555
孫陀利	-11.5555
嗅	-11.5557
那波那	-11.5559
庸	-11.556
從本以來	-11.556
蟾	-11.5561
眸	-11.5561
庾	-11.5562
併	-11.5563
那謨	-11.5563
難報志心皈命禮	-11.5563
阿闍梨眾賢	-11.5563
鳥獸	-11.5564
艱	-11.5564
黠	-11.5564
卵生	-11.5564
答第三問	-11.5564
瞻禮	-11.5565
鄙	-11.5565
贖	-11.5565
捺	-11.5566
大周	-11.5566
渺	-11.5566
入不二法門	-11.5567
不覺不知	-11.5567
嘌	-11.5567
轉輪王	-11.5567
律藏	-11.5568
百歲光陰	-11.5568
蹈	-11.5568
三藐三菩陀	-11.5568
鶴	-11.5568
又乃或為	-11.5569
辱罵	-11.5569
脾	-11.5569
衢	-11.5569
皮肉	-11.5569
老病死	-11.5569
尾虔娘	-11.5569
婉轉	-11.5569
丈	-11.557
之安樂	-11.557
玩	-11.557
獅	-11.557
危脆	-11.557
馨香	-11.557
痕	-11.557
母𩕳	-11.557
爍	-11.5571
恩光	-11.5571
秤	-11.5571
就中有二	-11.5571
滔滔	-11.5571
甯	-11.5571
凡所	-11.5573
操	-11.5573
材	-11.5573
大善	-11.5573
慈童	-11.5574
馳散	-11.5574
戾	-11.5574
瀾	-11.5574
閑靜	-11.5575
正統	-11.5575
顛狂	-11.5575
鼻孔	-11.5575
挺	-11.5575
滌	-11.5575
忉利天宮	-11.5576
陀囉尼	-11.5576
日至心進念	-11.5576
姿	-11.5576
視之如	-11.5576
飢	-11.5576
空閑	-11.5576
恤	-11.5577
緣起緣性	-11.5577
姪他	-11.5577
得樂	-11.5577
訥	-11.5578
淩	-11.5578
赫	-11.5578
訴	-11.5578
禍福	-11.5578
折伏	-11.5579
金剛已還	-11.5579
頂上旋	-11.5579
鑿	-11.5579
無窮無盡	-11.5579
六類冤債	-11.5579
俱舍論	-11.558
拒	-11.558
昏衢	-11.558
餘里	-11.558
躁	-11.558
艱辛	-11.558
背恩	-11.558
應作如是觀	-11.5581
彼無用故	-11.5581
緊	-11.5581
萬里	-11.5581
浮囊	-11.5581
拱	-11.5581
可以看出	-11.5581
仿	-11.5581
舍宅	-11.5582
冒地	-11.5582
站起來	-11.5582
湛然常住	-11.5582
會昌廢佛	-11.5582
乾闥婆	-11.5583
厘米	-11.5583
舌二根	-11.5583
還入	-11.5583
王捨城	-11.5583
遵奉	-11.5583
可怖	-11.5583
沖	-11.5583
唯求自利	-11.5583
大毗盧遮那成道經	-11.5583
象狀如	-11.5583
dvi	-11.5584
削	-11.5584
緊那羅	-11.5584
嶺	-11.5584
第一義空	-11.5584
鉢囉底	-11.5584
所不能及	-11.5584
随	-11.5584
因緣心論釋	-11.5584
肘	-11.5584
盧吉	-11.5585
入菩薩行論廣解佛子津梁釋	-11.5585
頗囉	-11.5585
100	-11.5585
原件	-11.5585
頂戴	-11.5585
叭羅	-11.5585
不可思量	-11.5585
富樓那	-11.5585
好醜	-11.5586
繪	-11.5586
榜	-11.5586
超昇	-11.5586
千百億	-11.5586
能仁自在	-11.5586
胸臆	-11.5586
雪嚕畔	-11.5586
侯沖	-11.5586
娶	-11.5587
逞	-11.5587
退失	-11.5587
香飯	-11.5587
慳吝	-11.5587
屠	-11.5587
傲物	-11.5587
東西南北	-11.5587
威勢	-11.5587
甄	-11.5588
偽撰	-11.5588
皆令	-11.5588
月光童子	-11.5588
彼人	-11.5588
馥	-11.5589
最上之寶	-11.5589
非有非無	-11.5589
孟列夫	-11.5589
勇猛精進	-11.5589
誐誐曩	-11.5589
考訂	-11.5589
如來有所說法	-11.5589
裸	-11.5589
閻王	-11.5589
奮發	-11.5589
晦	-11.5589
掉悔	-11.5589
開元舊錄部分	-11.5589
這批	-11.5589
介	-11.559
不垢不淨	-11.559
莫測	-11.559
解冤結菩薩摩訶薩	-11.559
牢獄	-11.559
夜已過	-11.559
纖毫亦無	-11.559
柴	-11.559
五百弟子	-11.5591
秫帝	-11.5591
鉢頭摩	-11.5591
下部殘缺	-11.5591
哪些	-11.5591
催	-11.5591
祇樹給孤獨園	-11.5591
興奮	-11.5591
修五戒十善	-11.5591
防止	-11.5591
錢財	-11.5592
意味著	-11.5592
洋	-11.5592
網羅	-11.5593
職	-11.5593
仰告	-11.5593
山河	-11.5593
八十隨形好	-11.5593
君臣	-11.5594
夫婦	-11.5594
誰言得	-11.5594
菩提妙心	-11.5594
風吹	-11.5594
興福禪師	-11.5594
不能見如來	-11.5594
霄	-11.5594
目犍連	-11.5594
何關	-11.5594
冤親	-11.5594
入中論	-11.5594
尋找	-11.5594
巡	-11.5595
詢	-11.5595
金剛界大法對受	-11.5595
一盲人摸觸象	-11.5595
廣百論疏	-11.5595
四無量心	-11.5595
如紺琉璃	-11.5595
負命	-11.5595
頓漸	-11.5596
排斥	-11.5596
堅定不移	-11.5596
有五百色	-11.5596
被人輕賤	-11.5596
官員	-11.5596
縣令	-11.5597
如來滅後	-11.5597
蓮臺	-11.5597
高下執	-11.5597
基本一致	-11.5597
觀見腐屍	-11.5597
無緣慈	-11.5597
身中三毒	-11.5597
工巧	-11.5598
藥師求解結	-11.5598
當於何	-11.5598
萬古	-11.5598
錯亂	-11.5598
行至同欄第	-11.5598
識宿命	-11.5598
粘葉裝	-11.5599
墓地觀	-11.5599
汗	-11.5599
英雄	-11.5599
勸君	-11.5599
受想行識	-11.56
酌	-11.56
洽	-11.56
雜類	-11.56
鞠躬	-11.56
第一波羅蜜	-11.5601
云何於此經	-11.5601
燒道根	-11.5601
冤家債主	-11.5601
Ф	-11.5602
坦然	-11.5602
崇高	-11.5602
情期	-11.5602
未為我國歷代大藏經所收	-11.5602
衍	-11.5603
逼迫	-11.5603
奈良	-11.5603
遭逢	-11.5603
惡友	-11.5604
尋訪	-11.5604
息諍論	-11.5604
暇滿難得	-11.5604
醒悟	-11.5604
梵文原文	-11.5604
六衰	-11.5604
自己的生命	-11.5604
亞	-11.5604
大臣們	-11.5604
解脫知見	-11.5604
修禪	-11.5605
須彌山王	-11.5605
奶	-11.5605
澄神	-11.5605
植物	-11.5605
香花一心奉請	-11.5605
喪失	-11.5605
廣泛	-11.5605
讚譽	-11.5606
持鉢	-11.5606
阻止	-11.5606
酬恩	-11.5606
阿闍黎	-11.5607
偶然	-11.5607
即興而說偈	-11.5607
南無日月光	-11.5607
§7.1	-11.5607
名號品	-11.5608
將軍	-11.5608
夫妻	-11.5608
文殊般若經	-11.5608
四念處	-11.5609
bheda	-11.5609
爾時佛母	-11.5609
yoḥ	-11.5609
持戒律	-11.5609
永劫	-11.5609
割註	-11.5609
如是已說	-11.5609
除罪一千	-11.5609
抱持	-11.561
無所從來	-11.561
499	-11.561
人法俱	-11.561
永不	-11.561
實非	-11.561
即令	-11.561
得四沙門果	-11.561
華嚴瓔珞經	-11.561
難敵	-11.561
pari	-11.5611
藏文本	-11.5611
難議	-11.5611
根器	-11.5611
存文相當於	-11.5611
計劃	-11.5611
那些婆羅門	-11.5612
▁Hahn	-11.5612
太山府君下	-11.5612
ṭ	-11.5612
▁二十九日	-11.5612
正加法	-11.5612
▁二十八日	-11.5612
法王家	-11.5612
▁我受持不	-11.5612
幻師	-11.5612
唯我	-11.5612
過咎	-11.5612
本願經	-11.5612
心猶未	-11.5613
日下舊聞考	-11.5613
佛教經典	-11.5613
推測	-11.5613
萬像	-11.5613
§2.3	-11.5613
梵釋寺	-11.5613
普供養真言	-11.5614
難逢	-11.5614
怛那	-11.5614
劫奪	-11.5614
為師	-11.5615
城裏	-11.5615
凌人	-11.5616
我得阿羅漢道	-11.5616
連綴	-11.5616
昇天	-11.5616
▁十八日	-11.5617
美食	-11.5617
室哩	-11.5617
▁二十三日	-11.5618
筵開	-11.5618
校正	-11.5618
祛除	-11.5618
殊方	-11.5618
半偈	-11.5618
皆發阿耨多羅三藐三菩提心	-11.5619
層次	-11.5619
鄰虛	-11.562
顏色	-11.562
愚情	-11.562
尋伺	-11.5621
第三時中	-11.5621
剎土	-11.5621
偽妄	-11.5621
雙林	-11.5621
上妙	-11.5621
雜亂	-11.5622
詳情	-11.5622
修煉	-11.5622
願承	-11.5622
大目犍連	-11.5623
達摩禪師論	-11.5623
寶頂	-11.5623
三界外惑	-11.5623
勝劣	-11.5624
這兩種	-11.5624
大疏	-11.5624
於他有情	-11.5624
釋氏	-11.5624
色蘊	-11.5625
手腳耳	-11.5625
你為什麼	-11.5625
床座	-11.5627
之緣	-11.5627
若有比丘	-11.5628
十色界	-11.5628
遂乃	-11.5628
信徒	-11.5629
次列	-11.5629
◇(	-11.5629
我欲	-11.5629
不能遮	-11.5629
針對	-11.5631
內宮	-11.5631
無德	-11.5632
琉璃界	-11.5632
虛實	-11.5632
(§4.3	-11.5633
最終	-11.5634
紅色	-11.5634
鑒照	-11.5634
初成正覺	-11.5634
宿世	-11.5634
該疏	-11.5634
遍法界中	-11.5635
▁十五日	-11.5635
法幢	-11.5636
傳燈	-11.5636
未來世	-11.5636
超然	-11.5636
俱有因	-11.5636
諸學處	-11.5636
一切賢聖	-11.5637
三人	-11.5637
所因	-11.5637
有萬億那由他	-11.5638
名婆伽婆	-11.5639
萬種	-11.564
竺法護譯	-11.564
請問經	-11.5642
稱歎	-11.5643
能作是念	-11.5643
羅漢果	-11.5643
信奉	-11.5644
生死輪迴	-11.5645
親疏	-11.5645
尼師	-11.5645
本心	-11.5646
三十五佛	-11.5647
369	-11.5647
六根清淨	-11.5648
對治力	-11.5649
卷十五	-11.565
華嚴部	-11.565
大丈夫	-11.565
圓超	-11.5652
至德	-11.5653
長劫	-11.5654
新集	-11.5654
有闕	-11.5654
之士	-11.5655
(1	-11.5656
長夜	-11.5656
知曉	-11.5657
一概	-11.5657
諸天神	-11.5659
理實	-11.5659
第十六	-11.566
修改	-11.5661
四分律	-11.5661
jīva	-11.5662
普令	-11.5663
金相	-11.5663
誰知	-11.5663
四德	-11.5664
每日	-11.5664
藥王	-11.5664
供具	-11.5665
我母	-11.5665
權智	-11.5665
生盲	-11.5665
中外	-11.5665
dāna	-11.5666
好看	-11.5666
窮子	-11.5668
先亡	-11.5668
即非菩薩	-11.5671
超出	-11.5672
清淨無染	-11.5673
70、	-11.5674
所說之	-11.5675
佑	-11.5676
經版	-11.5676
重恩	-11.5677
人們的	-11.5677
菩提行	-11.5678
容易	-11.5679
為避	-11.5679
求證	-11.568
禪學	-11.568
發無上正真道意	-11.568
猶勝	-11.568
堅定	-11.5681
並如論	-11.5681
遇緣	-11.5682
有異也	-11.5683
卷末	-11.5683
纏繞	-11.5683
不相應	-11.5684
無量法門	-11.5684
皆非	-11.5685
的誓言	-11.5685
如幻化	-11.5688
七齋	-11.5689
邊地	-11.569
香火	-11.569
長遠	-11.5691
真乘	-11.5691
墮地	-11.5693
詣佛	-11.5693
住在	-11.5695
無我觀	-11.5696
遭受	-11.5697
若說	-11.5699
後期	-11.5699
作佛事	-11.57
反對	-11.5701
相連	-11.5701
歲月	-11.5702
名叫	-11.5702
明緣	-11.5707
亦非身	-11.5707
惠眼	-11.5708
生怖畏	-11.571
損失	-11.5713
應捨	-11.5714
直下	-11.5714
唯應	-11.5714
淨行	-11.5716
三暮	-11.5716
山王	-11.5717
須信	-11.5717
損壞	-11.5718
無伺	-11.5718
所屬	-11.5719
有四義	-11.572
善財	-11.5723
88、	-11.5724
般若觀	-11.5725
九地	-11.5727
諸紙	-11.5729
已備	-11.5729
與佛教的	-11.5729
相承	-11.573
吽泮	-11.5731
的意見	-11.5733
聖主	-11.5733
或名	-11.5733
無妨	-11.5734
造惡	-11.5735
思慧	-11.5735
非正	-11.5737
生死涅槃	-11.5737
法性非	-11.5739
在他的	-11.574
增上生	-11.574
慧光	-11.5741
無高下	-11.5741
無常等	-11.5742
行因	-11.5742
感應	-11.5743
三才	-11.5743
於煩惱	-11.5744
廣分別	-11.5744
這個孩子	-11.5745
悲號	-11.5747
動地	-11.5747
有斯	-11.5748
明了	-11.5748
利益眾生	-11.5749
28)	-11.5749
解時	-11.575
在當時	-11.5752
顯密	-11.5753
的事情	-11.5753
當令	-11.5754
修空性	-11.5755
觀諸法	-11.5755
□□□□□□□□□□	-11.5756
是顛倒	-11.5758
了所有的	-11.5761
日改為	-11.5766
涅槃心	-11.5768
痛苦的	-11.5771
已竟	-11.5771
流入	-11.5771
居於	-11.5772
起惑	-11.5775
五乘	-11.5775
亦不成	-11.5776
墮於	-11.5778
大集	-11.5779
非此	-11.578
八中第	-11.5784
的寫本	-11.5784
右兩個半葉	-11.5785
379	-11.5785
或弟子	-11.5787
善男子善女人	-11.579
縱令	-11.579
從生	-11.579
恭聞	-11.5792
亦非我	-11.5793
。」5	-11.5793
以外	-11.5795
主持	-11.5799
親友等	-11.58
修菩提心	-11.58
受著	-11.5801
爾所	-11.5801
隨身	-11.5802
的地位	-11.5802
bandha	-11.5803
名別	-11.5804
非凡	-11.5807
短小	-11.5809
新編	-11.581
所觀	-11.5813
諸供養	-11.5814
昔在	-11.5819
非倒	-11.582
遮遣	-11.582
anā	-11.5827
菩提者	-11.5827
這兩個	-11.5828
時王	-11.5828
唯除	-11.5831
此菩薩	-11.5833
上首	-11.5834
聚義	-11.5836
如意樹	-11.5837
講經	-11.584
鬘	-11.5842
菩薩慈悲	-11.5848
說法者	-11.5849
粗大	-11.5849
繫屬	-11.5849
大門分	-11.5851
境想	-11.5851
祇在	-11.5852
解行	-11.5853
為依	-11.5854
定水	-11.5855
我等有情	-11.5855
明法身	-11.5858
不停	-11.5865
一境	-11.5865
ayo	-11.5866
無取	-11.5866
他看著	-11.5867
vy	-11.5869
雜經	-11.5869
ja	-11.5872
覺道	-11.5873
非法相	-11.5875
將明	-11.5875
義準	-11.5877
聖號	-11.5878
550	-11.5881
自守	-11.5882
度一切	-11.5884
隨念	-11.5885
任何人	-11.5887
若修	-11.5888
par	-11.5888
實有者	-11.589
色聲	-11.589
坐已	-11.5893
成故	-11.5896
偈言	-11.5896
瑜伽者	-11.5897
空無相	-11.5898
其有	-11.5902
應寶	-11.5904
出水	-11.5907
的施捨	-11.5909
十智	-11.591
非小	-11.591
以道	-11.5912
現存的	-11.5912
敷陳	-11.5913
為解	-11.5914
卷第三	-11.5916
如是觀	-11.5917
下方	-11.5919
為害	-11.5919
我即	-11.592
成就眾生	-11.5922
漏識	-11.5923
不來不	-11.5924
意欲	-11.5926
心持誦	-11.5926
皆無	-11.5929
現知	-11.5929
看見	-11.593
粗言	-11.5931
具諸	-11.5935
53	-11.5936
諸位	-11.5938
至第	-11.5939
死已	-11.594
人空	-11.594
聽說	-11.5942
眼觸	-11.5946
人趣	-11.595
蓋為	-11.5951
隨煩惱	-11.5956
四面	-11.5958
悉由	-11.5965
16.	-11.5968
寶花	-11.5969
序文	-11.5969
中國人所撰	-11.597
會得	-11.5974
凡愚	-11.5974
見一	-11.5975
不能盡	-11.598
不知道	-11.5982
之我慢	-11.5983
天下之	-11.5985
的產生	-11.5986
集眾	-11.5992
而不作	-11.5995
無異也	-11.5995
的活動	-11.5995
典籍的	-11.5995
一世	-11.5996
想要	-11.5999
別本	-11.6001
所集	-11.6002
其相	-11.6004
心外	-11.6005
第三時	-11.6006
......」	-11.6008
105	-11.6008
證成	-11.6012
於受	-11.6014
瞬間	-11.6015
與眾生	-11.6016
賢者	-11.6017
四果	-11.6017
通解	-11.602
未成	-11.602
先天	-11.602
一切處	-11.6022
尾秫	-11.6023
示入	-11.6023
此三種	-11.6025
心靈	-11.6025
四魔	-11.6025
之境界	-11.6027
今已	-11.6029
無表	-11.6029
即是菩提	-11.6031
176	-11.6033
為依據	-11.6033
戒體	-11.6035
時諸比丘	-11.6035
常寂	-11.6035
淨色	-11.6035
多次	-11.6037
應非	-11.6037
悲哀	-11.6039
八解	-11.6039
眾生實	-11.6041
無上佛菩提	-11.6041
令一切	-11.6043
本為	-11.6043
惡知識	-11.6044
為眾生說	-11.6051
思議	-11.6051
菩薩僧	-11.6052
釋名	-11.606
藏教	-11.6061
帶有	-11.6062
的卷數	-11.6066
形如	-11.6067
當成	-11.6069
能度	-11.6074
化他	-11.6075
放心	-11.6076
一切功德	-11.6076
十四種	-11.6078
舉身	-11.608
何如	-11.608
有尋	-11.608
的密教	-11.608
意在	-11.609
他世	-11.6091
當知是	-11.6095
之疾	-11.6095
道安的	-11.6096
此中無	-11.6096
皆應	-11.6098
150	-11.6099
其一	-11.6101
名為結	-11.6102
將知	-11.6103
著衣	-11.6105
離煩惱	-11.6105
以示	-11.6111
——《	-11.6118
謂以	-11.6123
也可	-11.6123
世有	-11.6125
一切人	-11.6127
anta	-11.6127
智海	-11.6127
身不淨	-11.6128
多身	-11.6131
兩俱	-11.6136
年十歲	-11.6136
品第二十	-11.6139
皆用	-11.6139
起大悲心	-11.6139
之一分	-11.614
經部	-11.6146
圓光	-11.6146
妙樂	-11.6148
乃有	-11.6152
的蓮花	-11.6155
更生	-11.6156
終不以	-11.6157
難遭	-11.6158
中最	-11.6158
禪定解脫	-11.6163
受想	-11.6164
依緣	-11.6165
過度	-11.6166
所獲	-11.6167
見聞者	-11.6167
迷心	-11.6168
或時	-11.6168
邪道	-11.6169
本也	-11.6173
惟是	-11.6178
富有	-11.6188
善住	-11.6189
心遙	-11.6191
一帶	-11.6192
可以發現	-11.6194
雲集	-11.62
未悟	-11.62
一下	-11.6202
右邊	-11.6202
綜合	-11.6204
自性分別	-11.6206
將它	-11.6209
眾生界	-11.621
可解	-11.6211
苦空	-11.6212
75	-11.6213
方成	-11.6223
必有所	-11.6224
謂從	-11.6224
這樣一	-11.6225
見障	-11.623
名為法	-11.6231
住者	-11.6231
住地	-11.6232
應念	-11.6234
如水	-11.6235
青蓮	-11.6245
施予	-11.6251
出現的	-11.6256
更無他	-11.626
會理	-11.627
諸大	-11.6271
辯也	-11.6272
佛行	-11.6273
大寶	-11.6276
四趣	-11.6276
所制	-11.6281
如來得阿耨多羅三藐三菩提	-11.6282
五辛	-11.6283
非根	-11.6284
何以故者	-11.6285
天空	-11.629
善為	-11.629
謂是	-11.6292
人形	-11.6293
時稱	-11.6293
佛色身	-11.6297
史上	-11.6297
自宗	-11.6298
自空	-11.6302
相即是非相	-11.6304
一剎那	-11.6307
亦唯	-11.6309
十經	-11.6316
之病	-11.6316
群品	-11.6318
約法身	-11.6318
定業	-11.6319
此十	-11.6319
而問	-11.6323
進行了	-11.6324
三禪	-11.6328
滿五	-11.6339
月輪	-11.6339
非為	-11.6356
該本	-11.6356
明法	-11.6357
小心	-11.6359
謂言	-11.6359
俱來	-11.6363
相同的	-11.6363
若但	-11.6364
而常	-11.6364
。」〔	-11.637
即是其	-11.637
於諸佛	-11.6374
之父	-11.6379
示真	-11.638
所食	-11.6385
其善	-11.6385
又若	-11.6389
無他	-11.6392
可分	-11.6393
恩重	-11.6396
也就是	-11.6399
通理	-11.6399
得成就	-11.6401
先答	-11.6402
為名	-11.6403
入諸	-11.6405
佛所說	-11.6407
理也	-11.6408
阿難白佛	-11.6408
抄寫的	-11.641
不可取	-11.6413
,30	-11.6417
依舊	-11.6422
明無明	-11.6424
菩薩說	-11.6424
盡其	-11.6429
所照	-11.643
等觀	-11.6433
四品	-11.6439
大乘之	-11.6439
於諸眾生	-11.644
不難	-11.6442
眾生故	-11.6443
不存在	-11.6446
之食	-11.645
令我得	-11.6455
意界	-11.6457
微妙法	-11.6458
89、	-11.6458
十五日	-11.6459
次三	-11.6463
白文	-11.6465
怛他誐哆	-11.6472
56、	-11.648
大字	-11.6481
一周	-11.6482
ara	-11.6484
即解脫	-11.6485
雖見	-11.6486
廣為	-11.6492
即與	-11.6493
王舍城	-11.6494
而入	-11.6498
二利	-11.6499
代抄本	-11.6504
21、	-11.6506
國人	-11.6506
yaḥ	-11.651
為自身	-11.6511
無信	-11.6513
無我亦無	-11.6518
一月	-11.652
眾生苦	-11.6521
本末	-11.6522
存有	-11.6522
斷諸	-11.6523
可不	-11.6524
當初	-11.6526
實難	-11.6527
rasa	-11.653
dā	-11.6535
皆作	-11.6535
摩訶般若	-11.6538
個階段	-11.654
惡道	-11.6549
夫有	-11.6549
聲聞人	-11.655
不勞	-11.6553
報得	-11.6553
即至	-11.6553
不分	-11.6555
應時	-11.6556
流光	-11.6558
食人	-11.6559
(19	-11.656
定生	-11.6564
是道	-11.6566
顯正	-11.6567
一解言	-11.6567
可證	-11.657
除彼	-11.658
戒相	-11.6581
空名	-11.6582
當以	-11.6593
暇	-11.6593
勝相	-11.6594
不自知	-11.6597
住了	-11.66
經中稱	-11.6602
101	-11.6603
今復	-11.6603
難堪	-11.6603
畏懼	-11.6604
要義	-11.6605
之體性	-11.6605
法之中	-11.6606
四智圓	-11.6606
的注釋	-11.6611
大戒	-11.6611
於五欲	-11.6614
應恭敬	-11.6616
則名	-11.6619
知彼	-11.6623
又前	-11.6628
願王	-11.6631
99、	-11.6632
界內	-11.6633
文學	-11.6636
今於	-11.6638
是聲聞	-11.6638
豈得	-11.6639
又為	-11.6643
受持讀誦此經	-11.6645
有什麼	-11.6647
綿	-11.6648
害眾生	-11.665
三乘之	-11.6652
的歷史	-11.6652
問道	-11.6653
的最	-11.6658
譯場	-11.6661
道行	-11.6663
似海	-11.6665
因緣生	-11.6665
八年	-11.6665
而取	-11.6665
明識	-11.6666
不破	-11.6668
苦等	-11.6668
壞故	-11.6671
看到這個	-11.6677
一佛	-11.6678
不顛倒	-11.6679
與汝	-11.6681
豈無	-11.6683
相應法	-11.6689
當自	-11.6689
菩提心者	-11.6691
編成	-11.6694
藥師海會	-11.6697
自侵	-11.6701
有所得	-11.6701
值遇	-11.6701
而我	-11.6704
日出	-11.6704
所立	-11.6705
仍不	-11.6712
你要	-11.6717
無功	-11.6717
餘三	-11.6718
並行	-11.6721
伽羅	-11.6721
皆懺悔	-11.6723
可分別	-11.6727
餘人	-11.6727
若取	-11.6732
論自	-11.6734
智悲	-11.6735
發表在	-11.6735
身肉	-11.6735
4(	-11.6738
提出的	-11.674
暇滿	-11.674
佛如來足	-11.6746
法無有	-11.6752
覺體	-11.6755
沉默	-11.6759
空衣派	-11.676
為一切眾生	-11.676
正修	-11.6762
但沒有	-11.6768
諸法相	-11.6768
五誓	-11.6772
肯	-11.6773
欲樂	-11.6774
有三十二	-11.6782
三滿哆	-11.6782
論證	-11.6783
普及	-11.6783
刀杖	-11.6784
sā	-11.6784
惡見	-11.6784
樹林	-11.6785
死屍	-11.6786
僧法誦出	-11.6792
略為一聚	-11.6793
百千萬	-11.6794
潤生	-11.6795
由汝	-11.6796
製	-11.6798
漸次	-11.6799
常令	-11.6803
甘旨	-11.6804
星君	-11.6804
§1.1	-11.6805
亨	-11.6806
特定	-11.6806
竺	-11.6808
萇	-11.6809
而彼處言	-11.681
娑隸哩	-11.681
嗔	-11.6811
的發展	-11.6812
瞿	-11.6813
嬉	-11.6813
陳明光	-11.6813
給孤獨	-11.6814
觀其	-11.6814
戍涅	-11.6814
筵	-11.6814
爇	-11.6814
故論答云	-11.6814
蠲	-11.6815
什	-11.6815
閈	-11.6815
余	-11.6815
瑟恥帝	-11.6815
楞嚴會上	-11.6816
一異	-11.6816
魄	-11.6816
淵源	-11.6817
為養	-11.6817
上二界	-11.6817
大足石刻	-11.6817
紅塵	-11.6817
豪	-11.6817
怠	-11.6817
嶽	-11.6817
閻浮檀	-11.6818
狐狸	-11.6818
第二單元	-11.6818
云何名	-11.6819
年正月一日改為	-11.6819
当	-11.6819
膩	-11.6819
墀	-11.6819
沒溺	-11.6819
複印件	-11.6819
二十偈	-11.6819
利鈍	-11.682
娑嚩婆嚩	-11.6821
彼我相忘	-11.6821
替	-11.6821
去後留恩	-11.6821
思益經	-11.6821
偉大的聖者啊	-11.6821
埵	-11.6821
輕慢	-11.6821
牟	-11.6822
赫赫	-11.6822
是緣覺人	-11.6822
人非人	-11.6822
昭昭	-11.6822
得福多不	-11.6822
貧富	-11.6822
自利利他	-11.6823
賢愚	-11.6823
异門	-11.6823
踴躍	-11.6823
無閡	-11.6823
塵不染塵	-11.6824
帝釋天	-11.6824
典治	-11.6824
舅	-11.6824
變為	-11.6824
優曇	-11.6824
犁	-11.6824
調伏其心	-11.6825
推乾就濕	-11.6825
雇	-11.6825
如夢幻泡影	-11.6825
趺	-11.6825
波旬	-11.6825
膿血	-11.6825
日月星辰	-11.6825
緇流	-11.6825
三學	-11.6826
柔和	-11.6826
十二月禮佛	-11.6826
登彼岸	-11.6826
姊	-11.6826
酷	-11.6826
僻	-11.6826
慈悲喜捨	-11.6826
仰告諸佛諸菩薩	-11.6826
大千沙界	-11.6826
惹耶	-11.6826
囑累	-11.6827
紺	-11.6827
皆大歡喜	-11.6827
壇場內外悉清淨	-11.6827
膺	-11.6827
貧困	-11.6827
烏鴉	-11.6827
啞	-11.6828
喪則致其哀	-11.6828
袋	-11.6828
離一切諸相	-11.6828
厲	-11.6828
憎愛	-11.6828
去世後	-11.6828
得聖人心	-11.6828
審諦	-11.6829
勤劬	-11.6829
貧女	-11.6829
波濤	-11.6829
佛在世時	-11.6829
即興自說	-11.6829
酸	-11.6829
不可愛樂	-11.683
無上瑜伽派	-11.683
珊瑚	-11.683
時眾得益	-11.683
退失菩提心	-11.683
企	-11.683
直饒	-11.683
或在林中	-11.683
閉塞	-11.683
複	-11.683
商迦羯	-11.683
歎佛宣疏	-11.683
殺戮	-11.683
無盡意菩薩	-11.683
卿主	-11.683
皎	-11.6831
秘密伽陀	-11.6831
剎帝利	-11.6831
獻水妖	-11.6831
跏趺坐	-11.6831
遊戲	-11.6831
dharma	-11.6831
狐疑	-11.6832
縷	-11.6832
聞經佛子罪消滅	-11.6832
為一小殘片	-11.6832
嚩囉拏	-11.6832
壇前教誡	-11.6832
閑居	-11.6832
誐帝	-11.6832
之孝也	-11.6832
幽玄	-11.6833
福報	-11.6833
愿	-11.6833
孽	-11.6833
鼎	-11.6833
汩	-11.6833
死王使者	-11.6833
趙氏	-11.6833
族姓	-11.6833
雀	-11.6833
暫停	-11.6834
撮	-11.6834
喻若	-11.6834
薰習	-11.6834
掠	-11.6834
婚禮	-11.6834
儉	-11.6834
開壇門部陀羅尼	-11.6834
嘍	-11.6834
之所由生	-11.6835
垢穢	-11.6835
士夫之身	-11.6835
薩怛嚩	-11.6835
聞佛所說	-11.6835
遊歷	-11.6835
一首	-11.6835
盞	-11.6836
明教大師	-11.6836
嘴	-11.6836
延齡	-11.6836
厥	-11.6836
煎	-11.6836
若以色見我	-11.6836
敲	-11.6836
月八日	-11.6836
良藥	-11.6836
慶喜	-11.6836
筌	-11.6836
規模	-11.6837
邑	-11.6837
萬端	-11.6837
兩相	-11.6837
褒	-11.6837
幾時休	-11.6837
善財童子	-11.6837
煥	-11.6837
佛如來手十指	-11.6837
然此	-11.6837
更多	-11.6837
員	-11.6837
哀愍	-11.6837
屎尿	-11.6838
敦煌地區的大藏經	-11.6838
鉢羅底	-11.6838
憍	-11.6838
琳	-11.6838
如來設教	-11.6838
願此善力	-11.6838
增一阿含經	-11.6838
覆蔽	-11.6838
坦然平	-11.6838
不應住色生心	-11.6838
儒釋兼濟	-11.6838
恒河沙數	-11.6838
啄	-11.6838
世俗諦	-11.6839
陀羅尼藏無邊	-11.6839
粒	-11.6839
晶	-11.6839
描述	-11.6839
眾生如來度者	-11.6839
以具足相	-11.6839
未聞	-11.6839
狐	-11.6839
溥	-11.6839
統領	-11.6839
色等五境	-11.684
攜	-11.684
進退	-11.684
到這裏來	-11.684
志心勤禮拜	-11.684
迷情見有	-11.684
真俗混融	-11.684
盧舍那佛	-11.684
謗方等經	-11.684
的責任	-11.6841
愍傷	-11.6841
尊勝破地獄儀軌	-11.6841
昏迷	-11.6841
鏘	-11.6841
傳到敦煌	-11.6841
充足	-11.6841
是人行邪道	-11.6841
皆是佛法	-11.6841
過此	-11.6841
誰有復誰無	-11.6841
目前尚無法	-11.6841
撫	-11.6841
語默	-11.6841
甚麼	-11.6841
雪山不得為譬	-11.6841
四瀆	-11.6841
般若波羅蜜多心經	-11.6841
稽	-11.6842
愉快地	-11.6842
永元二年	-11.6842
百官	-11.6842
柰	-11.6842
號為底本	-11.6842
芻	-11.6842
所修諸善	-11.6842
各自不同	-11.6842
哀憐	-11.6842
殄	-11.6842
價直	-11.6842
猊	-11.6842
祕	-11.6843
差殊	-11.6843
那微涅	-11.6843
變易	-11.6843
波吒離村	-11.6843
蘭膏發	-11.6843
翼	-11.6843
懇禱	-11.6843
全貌	-11.6843
斑	-11.6844
牛羊	-11.6844
先身有	-11.6844
雍	-11.6844
散花行道	-11.6844
探究	-11.6844
證無生忍	-11.6844
摩訶薩埵	-11.6844
頁上第	-11.6844
數論師	-11.6845
賢德	-11.6845
饌	-11.6845
如佛所說	-11.6845
敷座而坐	-11.6845
待考	-11.6845
胞	-11.6845
志心勤	-11.6845
如芭蕉	-11.6845
深厚	-11.6845
是法平等	-11.6845
陷入	-11.6845
敏	-11.6846
思考	-11.6846
恐畏長者	-11.6846
皆共成佛道	-11.6846
說三乘	-11.6846
森林裏	-11.6846
誑惑	-11.6847
需要的人	-11.6847
沮喪	-11.6847
异熟	-11.6847
綰疊	-11.6847
几	-11.6847
站立一旁	-11.6847
寫成	-11.6847
濟濟皆	-11.6847
剜	-11.6847
交參	-11.6847
分裂	-11.6847
頗有眾生	-11.6847
挽	-11.6847
柔軟	-11.6847
藥師護教	-11.6848
悲憐	-11.6848
諸佛佛子	-11.6848
偏袒	-11.6848
壹	-11.6848
災禍	-11.6848
對病應	-11.6848
飽滿	-11.6848
籌	-11.6849
眼淚	-11.6849
善護念諸菩薩	-11.6849
是一致的	-11.6849
巴利堯巴姆	-11.6849
乾慧	-11.6849
圓滿報身盧舍那佛	-11.6849
景祐	-11.6849
版片號	-11.6849
獨特	-11.685
尚應	-11.685
湧出	-11.685
以何因緣	-11.685
抓	-11.685
吽吽	-11.685
律儀戒	-11.6851
這番	-11.6851
蘆	-11.6851
遏阿暗惡	-11.6851
函	-11.6851
皇宮	-11.6851
心中充滿了	-11.6851
調和	-11.6851
涼土	-11.6851
應無所住	-11.6852
善哉善哉	-11.6852
內涵	-11.6852
賧子	-11.6852
播抳	-11.6852
菩提樹下	-11.6852
即可	-11.6852
利濟	-11.6852
呼吸	-11.6852
藥師海會佛菩薩	-11.6852
始終無變	-11.6852
密嚴	-11.6852
糊	-11.6853
實如聖教	-11.6853
四維	-11.6853
吾今為汝	-11.6853
孝養	-11.6853
謙和	-11.6853
真言歌讚	-11.6853
獼猴	-11.6854
大概是	-11.6854
尊崇	-11.6854
贊揚	-11.6854
佛告舍利弗	-11.6854
繼承	-11.6854
讚嘆	-11.6854
索取	-11.6854
樂音樹下	-11.6854
金剛以還	-11.6855
謙下	-11.6855
枝葉	-11.6855
白毫	-11.6855
三千界	-11.6856
開闡	-11.6856
童瑋先生	-11.6856
血肉	-11.6856
伏願不違本誓	-11.6856
妖魔	-11.6856
大智度論	-11.6856
嘆德宣疏	-11.6856
作如是想	-11.6856
䂮	-11.6856
六類冤家	-11.6857
熏成	-11.6857
香木	-11.6857
不損	-11.6857
淨三業	-11.6857
漸頓	-11.6857
結尾部分	-11.6858
加持獻	-11.6858
說罪	-11.6859
叢書	-11.6859
尖刀	-11.6859
那尾	-11.6859
阿鼻地獄	-11.6859
二乘之人	-11.6859
矢吹慶輝	-11.6859
精誠	-11.6859
接近	-11.6859
非所應	-11.686
而不乖	-11.686
厭惡	-11.686
英國	-11.686
波羅提木叉	-11.686
第十九	-11.6861
地府	-11.6861
nirjarā	-11.6861
貞元新定釋教目錄	-11.6861
大莊嚴寺	-11.6862
七寺本	-11.6862
karma	-11.6862
長者維摩詰	-11.6862
▁二十四日	-11.6862
非色非	-11.6862
§8.2	-11.6862
brahm	-11.6862
不相干	-11.6862
時向東方禮佛	-11.6862
śubha	-11.6862
談談	-11.6863
可變身	-11.6863
理定	-11.6863
anu	-11.6863
貞觀	-11.6863
祇園	-11.6863
末伽	-11.6864
經律異相	-11.6864
這部著作	-11.6864
隨文說明	-11.6864
最遲	-11.6864
而至	-11.6864
一切法平等	-11.6864
以名	-11.6864
愛慾	-11.6864
el	-11.6865
nava	-11.6865
天大將軍下	-11.6865
煩惱敵	-11.6865
佛如來眼	-11.6865
呈現	-11.6866
悲痛	-11.6866
娑婆世界	-11.6866
天眼通	-11.6867
煩惱怨敵	-11.6867
刺刀扎	-11.6867
墮惡道	-11.6868
事本末	-11.6868
眾生病	-11.6869
鳩摩羅什譯	-11.6869
喜慶	-11.6869
遵循著	-11.6869
風輪	-11.687
長房	-11.687
具三	-11.687
成就無邊	-11.687
禪詮	-11.687
天監元年出	-11.6871
引用了	-11.6871
覆藏	-11.6871
和合僧	-11.6871
紀錄	-11.6871
規定	-11.6872
善良	-11.6872
墮於地獄	-11.6872
有三問答	-11.6872
乘般若	-11.6873
具一切智	-11.6873
通序	-11.6874
始末	-11.6875
治國	-11.6875
施命為	-11.6875
周流	-11.6875
贊寧	-11.6875
祖父母	-11.6875
可靠	-11.6876
放棄了	-11.6876
§7.16	-11.6876
假立名	-11.6876
傳記錄	-11.6876
▁十四日	-11.6876
▁三十日	-11.6877
多饒	-11.6877
下限	-11.6878
下經言	-11.6879
平復	-11.6879
何勞	-11.6879
虛誑	-11.688
盡讚揚	-11.688
認識對象	-11.688
不名菩薩	-11.688
弘願	-11.688
嚩囉那	-11.688
這個數字	-11.6881
弘深	-11.6881
天仙	-11.6881
百味	-11.6882
便以	-11.6882
酬答	-11.6882
這稱為	-11.6882
法苑	-11.6882
充滿了	-11.6882
17.	-11.6883
真詮	-11.6883
為中心	-11.6883
念釋迦牟尼佛	-11.6883
參照	-11.6884
四天王下	-11.6884
名為實智	-11.6884
管理	-11.6885
開元	-11.6885
名增上慢	-11.6885
誤解	-11.6885
集禪源諸論關要	-11.6885
安息	-11.6886
法中王	-11.6886
順流	-11.6886
如蓬	-11.6886
法處攝	-11.6886
尋光	-11.6887
淨國	-11.6887
摩利支天	-11.6888
感情	-11.6888
壬寅年	-11.6889
清淨三業	-11.6889
難免	-11.6889
無礙解脫	-11.689
不適	-11.689
▁丙本	-11.689
法之供養	-11.6891
焰慧	-11.6891
明二智	-11.6891
去吧	-11.6892
一切眾生皆	-11.6892
設立	-11.6892
)+《	-11.6894
▁p	-11.6895
長期	-11.6895
光陰	-11.6895
永伏	-11.6895
是故佛說	-11.6896
七返	-11.6897
妄情	-11.6897
僧俗	-11.6897
一百三十卷	-11.6897
列舉	-11.6897
結束	-11.6898
總歎	-11.6898
說已	-11.6898
一枝	-11.6899
供養三寶	-11.6899
爾時太子	-11.6899
無聞	-11.6899
舊云	-11.69
身心清淨	-11.6901
在家菩薩	-11.6901
名譽	-11.6901
第三部分	-11.6902
光明藏	-11.6902
堪受	-11.6904
念釋迦	-11.6904
因陀羅	-11.6905
號釋迦牟尼	-11.6905
淨治	-11.6905
▁tri	-11.6905
信手	-11.6906
咸令	-11.6906
凡屬	-11.6908
所有這些	-11.6908
施寶	-11.6908
地獄等苦	-11.6909
慈親	-11.691
那伽	-11.691
明宗旨	-11.691
不住涅槃	-11.691
未熟	-11.691
貪味	-11.6911
調善	-11.6911
濟群生	-11.6911
境亡	-11.6911
名為方便智	-11.6913
總計	-11.6913
寶積經	-11.6913
狀若	-11.6914
欲達無生	-11.6914
恐難	-11.6916
金蓮	-11.6916
嚩汝	-11.6916
報告	-11.6917
萬形	-11.6917
境中	-11.6919
多數	-11.6919
漸次而	-11.692
致敬	-11.6921
出生死	-11.6921
情況下	-11.6922
遮那	-11.6922
五項	-11.6922
院本	-11.6923
修齋	-11.6924
尤其是	-11.6925
役使	-11.6925
蘊中	-11.6926
護命	-11.6926
當來生	-11.6927
信忍	-11.6928
為淨土因	-11.6928
景德本	-11.6929
傳授	-11.6929
問題的	-11.6929
之深	-11.693
諸阿羅漢	-11.693
重輕	-11.6931
即得解脫	-11.6931
年輕	-11.6931
66、	-11.6932
特意	-11.6932
明鏡	-11.6932
唯心	-11.6932
走來	-11.6932
」。《	-11.6934
少年	-11.6935
無處	-11.6935
妙旨	-11.6935
只能	-11.6936
常不動	-11.6936
夜分	-11.6936
大乘經典	-11.6936
稱量	-11.6937
餘二	-11.6937
識蘊	-11.6938
念觀世音菩薩	-11.6938
仍復	-11.6938
入室	-11.6938
知法	-11.6939
真實性	-11.694
悟本心	-11.6941
四行	-11.6941
淺行	-11.6941
心生歡喜	-11.6942
四十二	-11.6942
於朝時	-11.6943
苦哉	-11.6943
所作皆	-11.6944
值佛	-11.6944
造藏	-11.6944
時有一	-11.6945
從本節	-11.6946
已修	-11.6946
很大	-11.6946
座下	-11.6947
作此解	-11.6948
及其它	-11.6952
323	-11.6953
馱囉	-11.6953
堅住	-11.6954
聲聞乘	-11.6955
作何	-11.6955
前進	-11.6955
業報	-11.6955
863	-11.6956
直緣	-11.6957
破戒者	-11.6958
集學	-11.696
具體情況	-11.696
保安	-11.696
閻羅王下	-11.696
寧知	-11.6963
於此日	-11.6963
告諸大眾	-11.6966
三說	-11.6967
眾寶	-11.6969
從後	-11.6969
八風	-11.697
初期	-11.697
若佛	-11.6971
障閉	-11.6974
故問	-11.6976
還歸	-11.6977
但說	-11.6977
使他們	-11.6978
明生	-11.6979
得勝	-11.6979
忍辱波羅蜜	-11.6979
命根	-11.6979
兩句	-11.698
大象	-11.698
為諸菩薩	-11.6981
故道	-11.6981
勸善	-11.6982
極度	-11.6986
侵欺	-11.6987
名相之	-11.6988
指決定	-11.6989
性體	-11.6989
又見	-11.6989
99	-11.6991
唱言	-11.6992
真如理	-11.6993
明其故	-11.6993
業海	-11.6994
出土	-11.6995
隨物	-11.6995
不愛	-11.6996
的原子	-11.6996
明壽量	-11.6998
轉勝	-11.6998
奉事	-11.6999
妙光	-11.7
究其	-11.7001
起身	-11.7003
兩件	-11.7003
禪門	-11.7003
列入	-11.7003
無行	-11.7004
大人相	-11.7006
凡有	-11.7006
自證分	-11.7006
:(1)	-11.7008
乘體	-11.7008
首先是	-11.701
應感	-11.701
成益	-11.7011
此地獄	-11.7011
的抄本	-11.7012
如日	-11.7013
六和	-11.7015
請法	-11.7015
天衣	-11.7017
一國	-11.7017
七遍	-11.7019
死苦	-11.7021
清淨心	-11.7022
心田	-11.7022
滅度者	-11.7024
增入	-11.7025
地獄苦	-11.7026
近佛	-11.7026
含生	-11.7027
金剛般若經	-11.7028
略標	-11.7028
未足	-11.7029
奉上	-11.7031
王子時	-11.7031
執取	-11.7032
十處	-11.7032
而不捨	-11.7036
不昧	-11.7037
69、	-11.7037
察心	-11.7044
一子	-11.7045
食用	-11.7049
劫盡	-11.7049
地面	-11.7049
請世尊	-11.7052
諸波羅蜜	-11.7054
兢兢誐	-11.7054
五輪	-11.7055
平等性	-11.7055
關心	-11.7057
未滿	-11.7057
死去	-11.7057
開通	-11.7058
五蓋	-11.7058
果頭有	-11.7061
稱名	-11.7065
萬事	-11.7066
以知	-11.7067
問佛	-11.7071
每月	-11.7071
諸佛所說	-11.7073
可憐	-11.7074
弘誓	-11.7076
法身大士	-11.7077
誰有	-11.7078
所執	-11.7079
確認	-11.7079
花園	-11.7079
阿婆	-11.708
無所住	-11.708
亦深	-11.7081
牛王	-11.7082
習學	-11.7082
474	-11.7083
pūrva	-11.7083
禁誓者	-11.7085
不見於	-11.7085
並稱	-11.7086
度苦	-11.7086
簡擇	-11.7088
金子	-11.7091
恆河	-11.7093
大涅槃	-11.7093
下凡	-11.7094
於自他	-11.7095
應勤精進	-11.7099
肉身	-11.71
謂如來	-11.7101
的變化	-11.7102
從這個	-11.7102
或許	-11.7103
功德云何	-11.7103
未了	-11.7105
所請	-11.7109
舌相	-11.7109
的千字文帙號	-11.711
分法	-11.7111
降此	-11.7111
prad	-11.7114
十九年	-11.7115
神祇	-11.7115
的發現	-11.7118
丁三	-11.7121
直得	-11.7121
新學	-11.7121
光臨	-11.7122
事訖	-11.7122
為親	-11.7129
十齋	-11.7133
於他人	-11.7137
為父母	-11.7137
大部分	-11.7137
隨著	-11.7137
諸餘	-11.7138
內部	-11.7138
偉大的人	-11.7142
三部分	-11.7147
必先	-11.7148
大城	-11.7148
所積	-11.7148
佛面	-11.7149
rati	-11.7149
受食	-11.7149
三究竟	-11.7149
特定的	-11.715
一念起	-11.7151
為臣	-11.7152
一般的	-11.7153
明不善	-11.7153
不煞	-11.7156
到底是	-11.7158
感興	-11.7161
十六卷	-11.7161
有無如	-11.7162
經主	-11.7163
別義	-11.7163
修因果	-11.7164
之類也	-11.7165
諸念	-11.7165
就坐	-11.7168
一張	-11.7169
不問	-11.7171
不厭	-11.7172
個性的	-11.7176
斷其	-11.7177
作加持	-11.7177
此唯	-11.7178
於真如	-11.7179
受生死	-11.718
初傳	-11.718
以手	-11.7181
而得解脫	-11.7183
的榮耀	-11.7183
終至	-11.7184
惡觀	-11.7184
畢竟無	-11.7187
飛鳥	-11.7187
是故如來	-11.7192
都緣	-11.7192
也同樣	-11.7193
其大	-11.7193
你若	-11.7194
所傳	-11.7195
外現	-11.7196
/□□□□□□□□	-11.7198
爾時世尊見	-11.7201
是故名為	-11.7204
佛陀耶	-11.7204
95、	-11.7205
宮中	-11.7205
害人	-11.7207
為究竟	-11.7208
色法	-11.7208
av	-11.7208
煞害	-11.721
悉為	-11.7212
而反	-11.7212
0)	-11.7214
一卷本	-11.7215
大般若	-11.722
汝應	-11.722
一方面	-11.7222
住持	-11.7223
明燈	-11.7224
不惟	-11.7224
無妄想	-11.7225
假有	-11.7225
明所依	-11.7227
造惡業	-11.7227
觀眾生	-11.7232
端的	-11.7233
勝進	-11.7234
存在的	-11.7234
頗有	-11.7234
ayaḥ	-11.7236
最後的	-11.7236
受自性不成	-11.7237
白佛	-11.7242
廣顯	-11.7244
我曹	-11.7253
所記	-11.7253
至聖	-11.7255
說完這些	-11.7255
傳譯	-11.7258
又乃	-11.7259
孝心	-11.7259
之異名	-11.726
此道	-11.7263
為病	-11.7265
人供養	-11.7268
諸趣	-11.7268
復得	-11.7269
無端	-11.7276
如斯之	-11.7277
自性有	-11.7279
如來說非	-11.728
行人觀	-11.7282
勝心	-11.7285
八個	-11.7288
福物	-11.7288
五更	-11.7289
語業	-11.7291
。」8	-11.7293
77	-11.7294
復無	-11.7295
報本	-11.7297
亦令	-11.7299
尊經	-11.7303
猶尚	-11.7304
走上	-11.7305
福利	-11.7305
五句	-11.7307
其旨	-11.7309
天樂	-11.7313
/(	-11.7313
相擊	-11.7315
三祇	-11.7318
超勝	-11.732
供養如來	-11.7321
亦勝	-11.7321
緣塵	-11.7324
神聖	-11.7325
之源	-11.7327
無滯	-11.7327
緣相	-11.7331
彼苦	-11.7332
何假	-11.7332
為例	-11.7332
最勝天	-11.7333
有較大的	-11.7334
諸臣	-11.7336
即是法身	-11.7337
善力	-11.7338
順理	-11.7339
恒河沙	-11.734
是當時	-11.7341
四百	-11.7341
之過失	-11.7343
此性	-11.7346
莫知	-11.7346
將身	-11.7348
逐一	-11.7349
四結	-11.7351
失去	-11.7352
而食	-11.7353
中原	-11.7355
六卷	-11.7356
ānāṃ	-11.7358
毗婆	-11.7358
等眼	-11.736
名何等	-11.7366
中強	-11.7367
恒河中所有沙	-11.7371
大迦旃延尊者	-11.7374
如白	-11.7379
成就菩提	-11.738
正智觀	-11.7383
一代	-11.7383
upa	-11.7386
何意	-11.7386
於我何	-11.7387
在敦煌文獻中	-11.7388
斛	-11.7393
佛功德	-11.7393
亦隨	-11.7401
意識到	-11.7402
決不	-11.7403
觀念	-11.7403
忍心	-11.7405
起大邪見	-11.7405
正常	-11.7406
明月	-11.7408
八正	-11.7417
諸所有	-11.7417
解王	-11.7419
中際	-11.7419
九者	-11.7424
飯食已	-11.743
苦本	-11.7431
為實	-11.7432
藏文	-11.7434
第一個	-11.7435
耳聽	-11.7435
下註	-11.7439
有四問	-11.7441
讚佛	-11.7445
知苦	-11.7448
十二願	-11.7448
錄文二	-11.7449
以己	-11.745
顯著	-11.7453
將欲	-11.7454
嚩那	-11.7457
梵天界	-11.7461
淨修林	-11.7461
88	-11.7469
是佛語	-11.7472
勝會	-11.7478
觀空	-11.7481
可觀	-11.7482
無畏法	-11.7483
異念	-11.7485
確有	-11.7488
若不能	-11.7492
與聖	-11.7493
明自性	-11.7493
在拙	-11.7495
無他事	-11.7496
及涅槃	-11.7497
堪稱	-11.75
鄰國	-11.75
相資	-11.7503
外護	-11.7505
入理	-11.7506
同異	-11.7507
物我	-11.7507
nām	-11.7507
受教	-11.7508
初句	-11.751
受佛教	-11.7511
念請	-11.7515
明覺	-11.7516
的微點	-11.7517
如大海	-11.7517
兜率天	-11.7518
施捨了	-11.7518
疑心	-11.7524
戊二	-11.7527
業緣	-11.7528
定入	-11.7528
香山	-11.7531
開方便	-11.7531
後七	-11.7533
把他們	-11.7534
隸屬	-11.7535
法器	-11.7536
無有相	-11.7537
功德力	-11.7541
出觀	-11.7543
識海	-11.755
均作	-11.7551
太子下	-11.7552
欲天	-11.756
作福德	-11.7561
如於	-11.7565
一帙	-11.7568
花壇	-11.7568
更有何	-11.7574
可食	-11.7574
無戒	-11.7576
然其	-11.7579
不離身	-11.758
分為十	-11.7583
必得	-11.7586
51	-11.7587
之障	-11.7587
止住	-11.7589
齊修	-11.7599
忘心	-11.7601
發言	-11.7601
七覺	-11.7603
69	-11.7605
億萬	-11.7608
層燈	-11.7611
在世上	-11.7611
的宗教	-11.7616
非假	-11.7618
後念	-11.762
廣大願	-11.7623
能作者	-11.7625
合會	-11.7625
如釋	-11.7627
大性	-11.7628
謂心	-11.763
即除	-11.7631
敦煌地區的	-11.7635
下地	-11.7638
進修	-11.7645
無香	-11.7645
那囉	-11.7646
即涅槃	-11.7648
昧於	-11.7653
除煩惱	-11.7654
之藥	-11.7658
一統	-11.7659
之興	-11.766
及其他	-11.7662
與母	-11.7665
是慧	-11.7665
十界	-11.7666
非直	-11.767
保存在	-11.7674
第十八	-11.7683
的兩倍	-11.7685
諸惑	-11.7687
諸魔	-11.7691
外見	-11.7691
離我	-11.7694
火輪	-11.7696
不動搖	-11.7696
生喜	-11.7698
彼若	-11.7698
不動者	-11.7699
智慧深	-11.7701
相識	-11.7702
此解	-11.7703
三行	-11.7705
常隨	-11.7708
云何是	-11.771
亦稱	-11.771
秫陀	-11.7714
滿三千大千世界	-11.7714
說三十二相	-11.7716
立身	-11.7719
紙張	-11.7723
難尋	-11.7724
能分別	-11.7726
從他	-11.773
不平等	-11.773
本號	-11.7732
會也	-11.7734
198	-11.7734
清淨故	-11.7735
無相貌	-11.7741
無災	-11.7744
受苦者	-11.7746
別境	-11.7746
是舊	-11.7749
tan	-11.775
聖智	-11.7752
如何說	-11.7753
為眷屬	-11.7754
而發	-11.7754
立論	-11.7757
為諸有情	-11.7759
三分	-11.7763
妙吉祥	-11.7764
以弘	-11.7765
無取捨	-11.7769
如來悉知	-11.7769
專心	-11.7773
▁南無	-11.7775
諸如	-11.7775
四藥	-11.7776
中覓	-11.7777
大約是	-11.7778
妨	-11.7783
二十六	-11.7786
境識	-11.779
ak	-11.7791
輪迴者	-11.7793
是有漏	-11.7794
難行苦	-11.7795
是定	-11.7796
大施捨	-11.78
起見	-11.7803
心不動	-11.7808
使命	-11.7811
(50	-11.7812
戒品	-11.7818
是般若	-11.7818
三覺	-11.7818
一食	-11.7819
遍覆	-11.782
樂於	-11.7821
造諸	-11.7824
三十六	-11.7824
後末世	-11.7824
斯等	-11.7825
觀如來	-11.7828
施恩	-11.783
卷七	-11.783
祗有	-11.7831
太宗	-11.7832
即將	-11.7833
願聞	-11.7839
21.	-11.7842
令知	-11.7845
世界性	-11.7845
若無有	-11.7847
云何言	-11.7849
敦煌遺書中發現	-11.7852
一輪	-11.7853
人情	-11.7853
應說	-11.7853
成虛	-11.7854
業苦	-11.7856
即捨	-11.7856
佛出世	-11.786
證據	-11.786
五千	-11.7865
下部	-11.7866
無眼	-11.7866
百卷	-11.7868
ed	-11.787
無殊	-11.7876
不具足	-11.7877
都在	-11.7878
寂照	-11.7878
幸得	-11.788
後來的	-11.7885
但它	-11.7886
為障	-11.7886
令身	-11.7887
無限的	-11.7887
到此	-11.789
恨不	-11.7895
即不生	-11.7898
娑羅	-11.7899
花鬘	-11.79
心神	-11.79
空理	-11.7901
▁八日	-11.7902
ant	-11.7906
身戒	-11.7908
虛空界	-11.7909
如真	-11.791
不取相	-11.791
出現在	-11.7911
遠行	-11.7914
向前	-11.7915
兩肩	-11.792
求涅槃	-11.7921
得法眼淨	-11.7923
本意	-11.7924
夫求	-11.7925
過程	-11.7926
於苦海	-11.793
住世間	-11.793
人類	-11.7931
施佛	-11.7931
不高	-11.7936
種相	-11.794
指南	-11.7941
並皆	-11.7949
寶物	-11.7951
為首的	-11.7951
相續之	-11.7952
諸經中	-11.7956
大火	-11.7956
的序言	-11.7958
之花	-11.7962
》),	-11.7967
亦非有	-11.7968
琉璃光	-11.7971
講解	-11.7974
是偽經	-11.7974
涯	-11.7976
謂彼	-11.7978
無彼此	-11.7978
佛答	-11.7987
火中	-11.7988
說涅槃	-11.7988
那摩	-11.799
年左右	-11.7992
中復有	-11.7994
向外	-11.7995
往詣	-11.7996
無禮	-11.8012
為度	-11.8012
佛者	-11.8013
短時	-11.8013
先以	-11.8016
證阿羅漢	-11.8017
漸輕微	-11.8019
十二部	-11.8027
蘊攝	-11.803
仍有	-11.8034
不載	-11.8035
天魔	-11.804
菩薩地	-11.8041
心行	-11.8041
令悟	-11.8043
白衣派	-11.8043
te	-11.8049
如海量	-11.805
之辭	-11.8055
觀無常	-11.8057
救我	-11.8057
倒在地上	-11.8058
佛與	-11.8059
執彼	-11.8059
自招	-11.8072
若就	-11.8077
八地	-11.8085
一定的	-11.8085
很可能	-11.8086
入城乞食	-11.8087
可信	-11.8091
.3	-11.8092
生人間	-11.8096
大乘者	-11.8097
為護	-11.8101
禮儀	-11.8101
雖異	-11.8105
縒	-11.8114
想念	-11.8114
動轉	-11.8117
被傷	-11.8118
太山	-11.8121
以有	-11.8121
色聚	-11.8121
且大	-11.8121
去也	-11.8123
如來種	-11.8125
龜	-11.813
驚怖	-11.813
08、	-11.8131
琉璃光佛	-11.8132
關聯	-11.8133
菩薩能	-11.8134
常修	-11.8136
法性無	-11.8139
開明	-11.8142
約有	-11.8142
大事	-11.8144
眾聖賢	-11.8148
進道	-11.815
悉以	-11.8153
功勳	-11.8158
同名	-11.8159
330	-11.8161
叢	-11.8162
頭骨	-11.8163
願行	-11.8164
終不得	-11.8165
千萬億	-11.8167
理由	-11.8171
邏輯	-11.8173
有情苦	-11.8174
悅耳	-11.8178
非異	-11.8185
身長	-11.8188
毫無所	-11.8189
獻供	-11.8191
大方便	-11.8194
金山	-11.8195
能引	-11.8198
生善	-11.82
205	-11.8201
體系	-11.8202
此為大海所具有之第	-11.8202
rya	-11.8203
戒經	-11.8204
用心	-11.8207
語法	-11.8208
其過	-11.8216
常願奉母往見一切	-11.8217
自纏	-11.8217
戍	-11.8218
綱要	-11.8223
五德弟子	-11.8225
鳩摩羅什	-11.8225
食肉之人	-11.8226
千輻輪相	-11.8226
覩	-11.8226
百二十	-11.8226
果重擔	-11.8226
慧方便	-11.8228
炙	-11.8228
瑟恥	-11.823
妙喜世界	-11.8232
芒果林	-11.8232
繫念	-11.8232
潰	-11.8232
玉毫	-11.8233
走狩	-11.8233
後心	-11.8234
269	-11.8234
然後乃消	-11.8235
辜	-11.8236
冒	-11.8236
餝	-11.8237
此室常	-11.8238
磚	-11.8238
親眷	-11.8238
盟修奉	-11.8238
一一極微	-11.8238
糠	-11.8238
踐	-11.8239
憲	-11.8239
邀	-11.824
有空性相	-11.824
這就是正	-11.824
直說語言	-11.8241
啼哭	-11.8241
罹	-11.8241
為利	-11.8241
勤加	-11.8241
伽伽那	-11.8241
妻妾	-11.8241
泣血	-11.8242
植	-11.8242
提婆達多	-11.8243
剩	-11.8243
丘陵	-11.8244
不取不捨	-11.8244
鑽	-11.8244
明代的	-11.8244
跳	-11.8244
諸相非相	-11.8244
百論	-11.8245
顛	-11.8245
法本無	-11.8245
三業六根悉清淨	-11.8245
地藏菩薩本願經	-11.8245
頗更有	-11.8245
則失	-11.8245
的價值	-11.8245
孃	-11.8246
求不得苦	-11.8246
盲龜	-11.8246
妃	-11.8246
應先	-11.8246
03、	-11.8247
㗚	-11.8247
大黑天神	-11.8247
鐵匠之子純陀	-11.8247
三滿多	-11.8248
猛利	-11.8248
三慧	-11.8249
喝囉怛那	-11.8249
很清楚	-11.8249
老子	-11.8249
囉怛那	-11.825
日照開	-11.825
除蓋障	-11.825
楞伽	-11.825
晃	-11.825
銳	-11.825
安閒	-11.825
故有斯問	-11.825
以為有我	-11.825
能滅	-11.8251
繁榮	-11.8251
現法樂住	-11.8251
瘥	-11.8252
嘔	-11.8252
彎	-11.8252
荼	-11.8252
判官	-11.8252
感佛義	-11.8252
無第二尋	-11.8252
聖線	-11.8252
謫	-11.8253
灌注	-11.8253
青黃	-11.8253
伺相應	-11.8253
蠡文	-11.8253
失利	-11.8253
惱亂	-11.8253
鉀	-11.8253
柄	-11.8253
膜	-11.8254
如是無量	-11.8254
來詣佛所	-11.8254
攫	-11.8254
屆	-11.8254
哭泣	-11.8254
踰	-11.8254
加持字母陀羅尼	-11.8254
滑	-11.8254
受持四句偈	-11.8255
弘揚	-11.8255
填	-11.8255
為母說法	-11.8255
毗婆沙	-11.8255
谷響	-11.8255
pr	-11.8255
凋	-11.8256
廟堂	-11.8256
忤	-11.8256
映飾	-11.8256
筭	-11.8256
說得福德多	-11.8256
楞	-11.8256
如露亦如電	-11.8256
答第二問	-11.8256
燸	-11.8256
是名大身	-11.8256
無有是處	-11.8256
勅	-11.8257
還沒有	-11.8257
北京圖書館	-11.8257
寶頂山	-11.8257
斷三界惑盡	-11.8257
何啻	-11.8257
優波	-11.8257
獻蓋	-11.8257
身口意業	-11.8257
七寶以用	-11.8258
渡河	-11.8258
阿耨菩提	-11.8258
親戚	-11.8258
或在虛室	-11.8258
十二神王	-11.8258
微弱	-11.8258
梁朝傅大士頌金剛經	-11.8259
叮嚀	-11.8259
手捉	-11.8259
奇特	-11.8259
枷鎖	-11.8259
牛王目	-11.8259
隧道	-11.8259
入正位	-11.8259
忌	-11.8259
悲泣	-11.8259
四十二字母	-11.8259
跋提	-11.8259
毀譽	-11.8259
灣	-11.8259
証	-11.8259
押	-11.8259
耐他怨害忍	-11.8259
籌量	-11.8259
無法可說	-11.8259
禽獸	-11.8259
無實無虛	-11.826
馳騁	-11.826
憶念不忘	-11.826
羽	-11.826
從定中起	-11.826
梭	-11.826
來世當得作佛	-11.826
虎狼	-11.826
無有出期	-11.8261
香爐	-11.8261
蠢	-11.8261
攢	-11.8261
舍婆提	-11.8261
擔荷	-11.8261
純孝	-11.8261
迷頭認影	-11.8261
疑也	-11.8261
暫時停	-11.8261
浩	-11.8261
貧賤	-11.8262
勇毅	-11.8262
曾為舉揚	-11.8262
恕	-11.8262
踞	-11.8262
孤貧	-11.8262
以音聲求我	-11.8262
鞭撻	-11.8262
戈	-11.8262
銷	-11.8262
俱為妄所	-11.8262
正念思惟	-11.8262
爐炭	-11.8262
爽	-11.8262
5699	-11.8262
鐫刻	-11.8263
寶滿三千	-11.8263
繫綴	-11.8263
聽到這話	-11.8263
雪山童子大菩薩	-11.8263
世尊金口親宣示	-11.8263
映奪	-11.8263
兜	-11.8264
商賈	-11.8264
綵女	-11.8264
奄	-11.8264
寶曇花菩薩	-11.8264
膊	-11.8264
跋提耶	-11.8264
辟	-11.8264
兜羅棉	-11.8264
咄	-11.8264
腑	-11.8264
聞此語	-11.8265
禮別聖賢	-11.8265
阿鍐覽唅欠	-11.8265
打罵	-11.8265
煎熬	-11.8265
皮膚	-11.8265
菩薩總持法	-11.8265
唐末	-11.8265
契真常	-11.8265
連貫	-11.8266
眼等諸根	-11.8266
良賁	-11.8266
鹿野	-11.8266
瞻視	-11.8266
迭	-11.8266
囉夜耶	-11.8266
拭	-11.8266
證空便	-11.8267
叔	-11.8267
莫不歡喜	-11.8267
應允	-11.8267
餓死	-11.8267
一心皈命禮常住三寶	-11.8267
伎樂	-11.8267
空寂無生	-11.8267
頭面禮足	-11.8267
呵罵	-11.8267
僕役	-11.8267
白牛	-11.8267
軟語	-11.8268
眾生度盡	-11.8268
如金翅鳥	-11.8268
朝廷	-11.8268
肆	-11.8268
粉	-11.8268
頭頂寶石	-11.8268
匱乏	-11.8268
妙臂	-11.8268
惟願聖慈	-11.8268
何慮不	-11.8268
疊疊	-11.8268
寂寞	-11.8268
本文獻未為我國歷代經錄所	-11.8268
云何應住	-11.8268
調柔	-11.8268
得福無量	-11.8268
洗滌	-11.8269
龍宮	-11.8269
彌凱耶尊者	-11.8269
昏昏	-11.8269
淹	-11.8269
刀斫	-11.8269
真宰	-11.8269
庇護	-11.8269
象馬車步	-11.8269
靈樹	-11.8269
玄鑒	-11.8269
螺	-11.8269
提謂波利	-11.827
羅什	-11.827
摧殘	-11.827
暴虐	-11.827
膏	-11.827
威武	-11.827
國王難敵	-11.827
胡跪	-11.827
懇祈	-11.827
▁斯	-11.827
穆	-11.827
安世高	-11.827
同圓種智	-11.8271
繞塔	-11.8271
而為供養	-11.8271
肥	-11.8271
守護正知	-11.8271
玲	-11.8271
龍蛇	-11.8271
現藏雲南省	-11.8271
被溺	-11.8271
亦滿三千大千世界	-11.8271
在地	-11.8271
骸骨	-11.8271
吠那	-11.8271
搜	-11.8271
優秀	-11.8271
可怕的	-11.8271
阿含	-11.8271
蓋纏	-11.8271
堯	-11.8271
需求	-11.8271
掌平	-11.8271
(1026)	-11.8271
剃	-11.8272
修此觀	-11.8272
執我乃	-11.8272
所在之處	-11.8272
誌	-11.8272
謹畏	-11.8272
翳燈幻	-11.8272
長老須菩提	-11.8272
何必更	-11.8272
香花燈塗	-11.8272
各運志誠	-11.8272
吻合	-11.8273
勸勉	-11.8273
雕造	-11.8273
根鈍	-11.8273
沿襲	-11.8273
廢棄	-11.8273
慣	-11.8273
心滅境	-11.8273
所節抄	-11.8274
迄今	-11.8274
終無趣寂	-11.8274
四念住	-11.8274
的許可	-11.8274
社稷	-11.8274
聰慧	-11.8274
六十二見	-11.8274
無有少法	-11.8274
毅	-11.8274
大方	-11.8274
法席	-11.8274
淋	-11.8274
哀受我請	-11.8274
審視	-11.8274
無諍三昧	-11.8274
伴佐	-11.8274
登正覺	-11.8274
豈況	-11.8274
鍾	-11.8275
昆	-11.8275
人空法亦空	-11.8275
生起之束縛	-11.8275
的姑娘	-11.8275
芝	-11.8275
赫然	-11.8275
無言無說	-11.8275
蝶裝	-11.8275
喊	-11.8275
蘇那尊者	-11.8275
伏願承佛神力	-11.8275
共諍	-11.8275
結婚	-11.8275
南北	-11.8275
他人之苦	-11.8276
色蘊攝	-11.8276
依阿練若	-11.8276
郊	-11.8276
開雕	-11.8276
島	-11.8276
貢	-11.8276
十方三世一切諸佛	-11.8276
左半葉	-11.8276
大圓鏡智	-11.8276
阿吒力僧	-11.8276
善思念之	-11.8277
宰官	-11.8277
拼	-11.8277
忉利天上	-11.8277
遜	-11.8277
白骨	-11.8277
捶	-11.8277
賈	-11.8277
處攝	-11.8277
卡	-11.8277
琅	-11.8277
亦復然	-11.8277
八家秘錄	-11.8277
肌肉	-11.8277
春秋	-11.8277
菀	-11.8277
大般涅槃經佛母品	-11.8278
蚊虻	-11.8278
每紙	-11.8278
度生權	-11.8278
成等正覺	-11.8278
不太可能	-11.8278
哆哩	-11.8278
怛囉喃	-11.8278
戍涅多	-11.8278
紀讚	-11.8278
此中攝	-11.8278
大理國	-11.8278
酥	-11.8278
唾	-11.8278
配合	-11.8279
哲學	-11.8279
打破	-11.8279
竺法護譯經	-11.8279
乞經狀	-11.8279
雕印	-11.8279
一切冤家離	-11.8279
儼	-11.8279
▁eka	-11.8279
莊嚴佛士	-11.8279
法師布露	-11.828
著者不詳	-11.828
十三法師	-11.828
任何時中	-11.828
徹底	-11.828
忘心頓證	-11.828
清涼池	-11.828
大廳	-11.828
順天府	-11.828
九橫	-11.828
使全世界	-11.828
短命	-11.828
於當來世	-11.828
酥油	-11.828
五百天女	-11.8281
文彩	-11.8281
百分不及一	-11.8281
聽到這個	-11.8281
獄卒	-11.8281
中觀師	-11.8281
七級	-11.8281
如來有肉眼	-11.8281
恢	-11.8281
簇	-11.8281
盂	-11.8281
唐高宗	-11.8282
初日分	-11.8282
8386	-11.8282
大明咒經	-11.8282
劉王	-11.8282
扣	-11.8282
大方廣佛華嚴經	-11.8282
或兼察	-11.8282
寇	-11.8282
之生起與壞滅	-11.8283
增進	-11.8283
有身非	-11.8283
夾註	-11.8283
去來今	-11.8283
六根六塵	-11.8283
在欲而	-11.8283
更鼓打	-11.8283
六道四生	-11.8283
慈覺禪師	-11.8283
嚴格	-11.8284
鮮花	-11.8284
中國僧人	-11.8284
蔣唯心	-11.8284
卑下	-11.8284
念藥師琉璃光佛	-11.8284
田中良昭	-11.8284
六波羅密	-11.8285
常住三寶	-11.8285
陰功	-11.8285
嘆德	-11.8285
有疾菩薩	-11.8285
站在	-11.8286
月亮	-11.8286
傳入雲南	-11.8286
完全依據	-11.8286
龍神	-11.8286
的基礎	-11.8286
如何棄捨	-11.8286
諸長者子	-11.8286
弘法寺	-11.8286
作津梁	-11.8286
變作	-11.8286
尤其	-11.8286
補充	-11.8287
無想定	-11.8287
衰老	-11.8287
工具	-11.8287
斷除人我	-11.8287
頁下欄第	-11.8287
mati	-11.8288
刊定眾經目錄	-11.8288
所說應知	-11.8288
楚毒	-11.8288
李有棠	-11.8288
能測	-11.8288
八萬劫	-11.8288
我等今日	-11.8288
服務	-11.8288
高卑	-11.8288
敦煌出土	-11.8289
無瑕	-11.8289
利他兼	-11.8289
如汝所說	-11.8289
剎海	-11.8289
無數倍	-11.8289
違越	-11.8289
virata	-11.8289
戒淨	-11.8289
玉女	-11.8289
sthiti	-11.8289
大目犍連尊者	-11.8289
明業用	-11.8289
蓮池	-11.829
迦爾巴住神	-11.829
ādiṣu	-11.829
明諸大乘	-11.829
adhi	-11.829
個半葉	-11.829
習慣義觀	-11.829
離散星	-11.829
千江	-11.829
牛頭	-11.829
穿著	-11.829
光讚般若	-11.829
可綴接	-11.829
察命下	-11.829
kṣetra	-11.8291
guṇa	-11.8291
祝福	-11.8291
瞋饞	-11.8291
蘇波婆沙	-11.8291
標文可	-11.8291
空界色	-11.8291
神授	-11.8291
首部文字與	-11.8291
婆羅多地區	-11.8291
viṃśati	-11.8291
五蔭	-11.8292
千古	-11.8292
心滿意足	-11.8292
散壞	-11.8292
器世成	-11.8292
ich	-11.8292
趨向	-11.8292
▁華嚴經卷	-11.8292
藏於	-11.8292
前程	-11.8292
忽爾	-11.8292
nir	-11.8292
您應該	-11.8292
明確地	-11.8292
植在	-11.8292
達摩所傳	-11.8292
依他起	-11.8293
§9.3	-11.8293
違情	-11.8293
完全一致	-11.8293
所生之處	-11.8293
藥王如來	-11.8293
opa	-11.8293
kāya	-11.8293
所有的國王	-11.8294
不可窮	-11.8294
海印	-11.8294
兩派	-11.8294
無令	-11.8294
輕毀	-11.8295
解冤結真言	-11.8295
甚深法藏	-11.8295
纏縛	-11.8295
不如其一	-11.8295
追念	-11.8295
沉思	-11.8295
潔淨	-11.8295
業的滅盡狀態	-11.8296
同前云云	-11.8296
佳名	-11.8296
位因陀羅	-11.8296
皈救	-11.8296
受持菩提心	-11.8296
王子啊	-11.8296
花台	-11.8296
如來金口	-11.8297
佛頂心觀世音	-11.8297
她們	-11.8297
明攝法分齊	-11.8297
風雨	-11.8297
難產七日	-11.8297
疏記部	-11.8297
般若得道經	-11.8297
句偈	-11.8297
中國佛教典籍	-11.8298
巧計	-11.8298
正覺之路	-11.8298
夾	-11.8298
二后	-11.8298
克什曼德拉	-11.8298
百千萬分	-11.8298
低微	-11.8298
善巧方便	-11.8299
略有不同	-11.8299
龍女	-11.8299
感動	-11.8299
無暇	-11.8299
源流	-11.83
奇妙	-11.83
台門	-11.83
拈出	-11.83
毀壞	-11.83
金史	-11.83
所具有的	-11.83
保留了	-11.8301
怨家	-11.8301
無上士	-11.8301
南無大孝釋迦牟尼佛	-11.8301
無與等	-11.8302
慧燈	-11.8302
頭陀乞食	-11.8303
帖	-11.8303
口氣	-11.8303
聽完	-11.8303
了解	-11.8303
悲廣大	-11.8304
某日	-11.8304
第四章	-11.8304
輕賤	-11.8304
清潔	-11.8305
所不欲	-11.8305
器世間	-11.8305
西國	-11.8305
具壽	-11.8305
原註	-11.8305
癡愛	-11.8305
炷香	-11.8305
涅槃含	-11.8306
塔下	-11.8306
譜系	-11.8306
sapta	-11.8306
體一如	-11.8306
非色非心	-11.8307
維那	-11.8307
承許	-11.8307
行款	-11.8307
派別	-11.8307
毀戒	-11.8307
學菩薩行	-11.8308
大寶積經	-11.8308
單白	-11.8309
年之久	-11.8309
去做	-11.8309
禁止	-11.8309
是故當知	-11.831
刊施	-11.831
便謝	-11.831
行孝道	-11.8311
史記	-11.8311
作是觀	-11.8311
詞句	-11.8311
清虛	-11.8311
尋思	-11.8311
聖典	-11.8311
墮三惡道	-11.8312
術語	-11.8312
遺教	-11.8312
父母生	-11.8312
以為莊嚴	-11.8313
遣使	-11.8313
太陽經	-11.8313
亦必被割	-11.8313
現狀	-11.8314
收錄了	-11.8314
所冀	-11.8315
香嚴	-11.8315
己利	-11.8315
錄校時	-11.8316
法上錄	-11.8316
▁丁本	-11.8316
頭頂上	-11.8318
良由	-11.8318
回國	-11.8318
作佛因	-11.8319
倍常	-11.8319
懺主	-11.8319
項光	-11.832
惡法	-11.832
回答說	-11.832
逢難	-11.8321
的殘餘	-11.8321
支持	-11.8322
含藏	-11.8322
你應該	-11.8322
某某	-11.8322
正式	-11.8323
計度	-11.8323
照抄	-11.8323
周圍	-11.8323
有何差別	-11.8324
藥品	-11.8324
順忍	-11.8325
十七行	-11.8325
疑經錄	-11.8326
般若波羅蜜經	-11.8327
當須	-11.8327
遣除	-11.8328
第一群	-11.8328
財利	-11.8328
憂念	-11.8328
喜愛	-11.8329
獨坐	-11.8329
流通分	-11.8329
兩部分	-11.833
臨法會	-11.833
否定	-11.833
久安	-11.833
七事供養	-11.8331
打開	-11.8331
久長	-11.8331
明通塞	-11.8331
是名莊嚴	-11.8332
立志	-11.8332
離所知	-11.8332
欲心	-11.8333
你要是	-11.8333
推求	-11.8334
聖財	-11.8334
咒水	-11.8334
能說	-11.8335
隱顯	-11.8336
不思議解脫	-11.8336
而有差別	-11.8337
俱舍	-11.8337
君主	-11.8337
願兒	-11.8337
證無生	-11.8338
明相攝	-11.8338
▁t	-11.8338
我輩	-11.8338
覺華	-11.8338
經軌	-11.8339
記載了	-11.8339
長辭	-11.8339
層層	-11.8339
(78	-11.8339
尊高	-11.834
願當來	-11.8342
佛母經	-11.8342
演變	-11.8342
棄之	-11.8343
自作自	-11.8343
普度	-11.8344
之神	-11.8344
千眼	-11.8344
舉手	-11.8345
積極	-11.8345
普利	-11.8346
大善知識	-11.8346
菩提離所	-11.8346
輪迴生死	-11.8346
祇能是	-11.8347
諸女	-11.8348
契經中	-11.8348
結習	-11.8349
寶劍	-11.8349
是名世界	-11.835
不飲酒	-11.835
十地菩薩	-11.8351
在目前	-11.8352
夢幻	-11.8352
入真	-11.8354
斯事	-11.8355
無邊量	-11.8355
墮三塗	-11.8356
小序	-11.8357
相對應	-11.8357
衛經	-11.8357
正語	-11.8357
曷為而	-11.8359
他的兒子	-11.8361
既亡	-11.8361
簡要	-11.8361
德滿	-11.8361
阿羅	-11.8362
六七	-11.8362
初中文	-11.8364
老病	-11.8364
誠言	-11.8364
聽了這些話	-11.8364
多端	-11.8364
七日已	-11.8364
三十地獄	-11.8366
佛法僧	-11.8366
勸修行	-11.8367
慈悲主	-11.8367
的過程中	-11.8368
無為蘊	-11.8368
堪為	-11.8369
感通	-11.8369
師父	-11.837
陰文	-11.837
劫數	-11.8371
獲益	-11.8371
證無為	-11.8371
此第三問	-11.8371
是我子	-11.8372
井中	-11.8372
無定相	-11.8372
貪利	-11.8372
致令	-11.8373
理即無	-11.8373
堅實法	-11.8373
盲者	-11.8374
看時不	-11.8374
普聞	-11.8374
轉增	-11.8375
善了知	-11.8375
找到	-11.8377
欲滅	-11.8377
失傳	-11.8378
直指	-11.8378
所纏	-11.8378
帝主	-11.8379
徒眾	-11.8379
狀如	-11.8379
燈王	-11.838
遇到	-11.838
創作	-11.8381
初靜慮	-11.8382
正篇	-11.8383
法無盡	-11.8384
歸依處	-11.8385
本節作	-11.8385
數目	-11.8387
即是佛性	-11.8388
自性涅槃	-11.8388
例子	-11.8388
有漏因	-11.8389
組織的	-11.8389
令眾	-11.839
機緣	-11.839
貪好	-11.839
別序	-11.8391
25.	-11.8392
何故唯	-11.8392
無一物	-11.8392
善女人發阿耨多羅三藐三菩提心	-11.8394
香風	-11.8394
是名說法	-11.8395
國主	-11.8395
160	-11.8395
且第一	-11.8396
即此意	-11.8396
一切怖畏	-11.8397
地利	-11.8397
真宗	-11.8399
皆成	-11.8399
對機	-11.84
善法天	-11.84
一說	-11.8402
;(2)	-11.8403
過去滅	-11.8403
孝論	-11.8405
補處	-11.8405
萬境	-11.8405
完成於	-11.8408
孰能	-11.8409
是名為心	-11.8409
地哩	-11.8409
悉圓滿	-11.841
走近	-11.841
得免	-11.8411
妙法身	-11.8411
僅就	-11.8411
反問	-11.8411
聞思修	-11.8412
所染	-11.8413
欲達	-11.8414
多以	-11.8415
無相施	-11.8415
明所受	-11.8416
的感受	-11.8416
傳記	-11.8418
舉止	-11.8419
果之因	-11.8419
生五百	-11.8419
偷僧	-11.842
無厭	-11.842
礙非	-11.8421
都可以	-11.8421
亦等	-11.8421
如是等人	-11.8421
煩惱賊	-11.8422
舉喻	-11.8424
新修	-11.8424
▁10	-11.8424
修六度	-11.8424
唯得一	-11.8425
kāla	-11.8427
誦密言	-11.8428
例同	-11.8429
到處	-11.843
亂起	-11.843
宗親	-11.8435
得所	-11.8436
所有功德	-11.8437
研究價值	-11.8438
還國	-11.8438
大辯	-11.8438
心所等	-11.844
八位	-11.8441
勝德	-11.8441
三世如來	-11.8441
仁王般若	-11.8442
如聾	-11.8444
疏鈔	-11.8444
取我	-11.8444
整理時	-11.8444
悟真空	-11.8445
更須	-11.8445
必不	-11.8447
水火	-11.8447
海會眾聖賢	-11.8448
自古	-11.8448
睹見	-11.8448
皈依了	-11.8449
都把	-11.845
亦如前	-11.845
如盲	-11.8452
非礙	-11.8454
如下文	-11.8454
▁S	-11.8455
無間獄	-11.8456
夙業	-11.8457
如蓮花	-11.8457
無眾生相	-11.8459
寂寂	-11.8459
依人	-11.8459
面上	-11.846
方來	-11.8463
集諦	-11.8463
總別	-11.8464
釋文	-11.8466
無缺	-11.8466
纏綿	-11.8467
後答	-11.847
雖即	-11.847
諸居士	-11.8471
喻顯	-11.8471
但當	-11.8472
各不相	-11.8473
生兜率天	-11.8475
要行	-11.8476
作三種	-11.8476
供養父母	-11.8476
是故不應	-11.8479
給我	-11.848
自己的身體	-11.8481
從頭	-11.8483
澡浴	-11.8483
耆那教經典	-11.8483
錄文時	-11.8484
三十七	-11.8486
清淨法身	-11.8488
sarva	-11.8489
由煩惱	-11.8491
標宗	-11.8491
直云	-11.8491
諸眷屬	-11.8491
若人言	-11.8492
盛行	-11.8494
化度	-11.8494
dravya	-11.8495
惡語	-11.8496
生彼國	-11.8496
不空譯	-11.8496
其舍	-11.8496
22.	-11.8497
與思想	-11.8497
存心	-11.8498
實語者	-11.8498
已盡	-11.85
其餘的	-11.8501
惱害	-11.8501
頗為	-11.8502
又象	-11.8503
地點	-11.8503
不闕	-11.8503
即其事	-11.8504
示同	-11.8504
sat	-11.8504
好樂	-11.8506
豈知	-11.8509
高勝	-11.851
知金剛	-11.8512
不瞋	-11.8514
舊譯	-11.8516
骨一處	-11.8517
父母俱	-11.8519
於學處	-11.852
注意到	-11.8523
執教	-11.8526
解脫處	-11.8526
阿耶	-11.8527
大慧	-11.8527
不言而	-11.8528
道樹	-11.8529
佛神力	-11.853
皆具足	-11.8532
法身無相	-11.8533
之危	-11.8533
體空	-11.8535
卷十	-11.8535
相待故	-11.8536
苦苦	-11.8537
受我	-11.8537
本疏	-11.8538
因有	-11.8539
多疑	-11.8541
合成	-11.8541
雙行	-11.8542
從佛聞	-11.8543
見到了	-11.8543
號文獻	-11.8544
順次	-11.8547
可以三十二相	-11.8547
佛涅槃	-11.8548
違害	-11.8549
的妻子	-11.8549
無關	-11.8549
抄出	-11.855
為方便	-11.8553
動念	-11.8554
祇為	-11.8554
王位	-11.8558
苦所逼	-11.8558
聲相	-11.8558
理須	-11.8559
於六道	-11.856
何曾不	-11.856
既深	-11.856
無價寶	-11.8561
聖意	-11.8563
身亡	-11.8563
齒印	-11.8565
著錄在	-11.8566
成三皈	-11.8567
śeṣā	-11.8574
顯用	-11.8575
明住處	-11.8575
其功德	-11.8576
波羅密咒	-11.8577
演法	-11.858
孝感	-11.858
暇滿所依	-11.8583
歲時	-11.8588
為求解脫	-11.8589
為患	-11.8591
親知	-11.8591
參用	-11.8592
世俗有	-11.8593
顛倒見	-11.8593
要用	-11.8595
性自空	-11.8595
有關的	-11.8596
若犯	-11.8596
正應	-11.8596
聲等	-11.8596
謂欲	-11.8598
。」(「	-11.86
攝念	-11.86
』。」	-11.8602
所量	-11.8606
三障	-11.8607
的僧人	-11.8608
真語	-11.8608
唯然	-11.8608
人畜	-11.8609
為成辦	-11.861
一殘片	-11.8615
的全部	-11.8617
等四法	-11.8617
方名	-11.8618
編號為	-11.8619
也不會	-11.862
大富	-11.8621
色等四	-11.8621
十號	-11.8624
▁唵	-11.8624
不礙	-11.8626
於閻浮提	-11.8626
囉耶	-11.8626
熱地獄	-11.8627
禮也	-11.8627
願悉	-11.8629
天香	-11.8629
所迷	-11.863
直向	-11.863
所受用	-11.8631
即色	-11.8632
似為	-11.8633
之形	-11.8636
佛菩提	-11.8636
足以	-11.8637
大足	-11.8637
的母親	-11.8639
顯德	-11.864
含有	-11.8643
題為	-11.8644
境界故	-11.8644
的內容與	-11.8645
有十四	-11.8645
依附	-11.8646
明正義	-11.8646
釋種	-11.8647
諸情	-11.8648
遭遇	-11.865
此蓋	-11.8653
及種種	-11.8653
皆言	-11.8654
善神	-11.8655
欲言	-11.8656
擇法	-11.8657
供獻	-11.8658
須達	-11.8658
苦厄	-11.8661
略義	-11.8664
於欲界	-11.8664
諸賢聖	-11.8665
能稱	-11.8667
真如何	-11.867
為宴坐	-11.8671
如經說	-11.8671
(8	-11.8674
353	-11.8674
善巧者	-11.8675
能住	-11.8675
行忍辱	-11.8678
前境	-11.8679
禪宗僧人	-11.868
私心	-11.8681
和光	-11.8687
定力	-11.8689
或師	-11.8694
果實	-11.8694
為人說	-11.8696
vidh	-11.8699
我之苦	-11.8699
即合	-11.8707
命欲	-11.8708
功過	-11.8711
寫的	-11.8711
功行	-11.8712
為惡	-11.8714
事須	-11.8714
相接	-11.8714
取滅	-11.8718
問候	-11.8718
是身無	-11.8719
觀法	-11.8719
此遮	-11.8719
是相續	-11.872
心印	-11.872
節經文	-11.8722
的文章	-11.8725
亦同此	-11.8725
當來之	-11.8725
六句	-11.8727
違犯	-11.8728
罪根	-11.8732
自離	-11.8735
斷三界	-11.8735
無貪著	-11.8735
行為的	-11.8737
(12	-11.8738
而致	-11.8743
與伯	-11.8743
有如此	-11.8744
不至	-11.8746
完美的	-11.8746
頭陀行	-11.8747
續名	-11.8753
淨性	-11.8759
來向	-11.8759
垢染	-11.8759
大帝	-11.876
一鉢	-11.876
燈明	-11.8763
三麼	-11.8767
,50	-11.8769
施為	-11.877
19)	-11.877
負心	-11.8772
化納	-11.8775
尚不能	-11.8775
淨智	-11.8777
原作	-11.878
妄言	-11.8782
於彼等	-11.8782
先王	-11.8782
何由可	-11.8784
登上	-11.8786
並將	-11.8787
以為名	-11.8788
習種	-11.8789
當了	-11.879
入三昧	-11.879
非因	-11.8791
異處	-11.8793
難勝	-11.8794
不知所	-11.8794
種善根	-11.8797
有百	-11.8797
208	-11.8799
此花	-11.8803
皆可	-11.8804
此下五	-11.8806
圓滿相	-11.8808
因乘	-11.8808
願今	-11.8809
一切菩薩	-11.881
有必要	-11.8811
是無上	-11.8815
告諸	-11.8816
▁ā	-11.8817
薩婆若	-11.8819
依因	-11.8819
名修多羅	-11.8823
十類	-11.8827
及眼	-11.8827
毗輸	-11.8829
性離	-11.883
不返	-11.8831
bhyaḥ	-11.8832
丁本	-11.8834
諦實有	-11.8835
其源	-11.8835
夜半	-11.8835
非親	-11.8842
敬心	-11.8848
不應於	-11.8848
是淨	-11.885
悲濟	-11.885
中道不	-11.8852
諸異本	-11.8852
」。】「(	-11.886
西方極樂	-11.886
猶若	-11.8863
其中的	-11.8863
蓋是	-11.8867
大恩	-11.8873
該文	-11.8873
畢竟空	-11.8874
即使是	-11.8875
為上	-11.8875
迷悶	-11.8878
相續生	-11.8881
偈贊	-11.8881
等三法	-11.8883
真應	-11.8887
而興	-11.8888
小乘以	-11.8891
若虛空	-11.8892
或約	-11.8895
ādi	-11.8896
錄文一	-11.8898
24.	-11.8898
已將	-11.8904
拔出	-11.8904
自可	-11.8904
繫在	-11.8906
無物	-11.8907
.3.	-11.8907
收在	-11.8908
聞義	-11.8911
何時我	-11.8915
寧有	-11.8915
為人輕賤	-11.8916
廣義	-11.8918
俱解脫	-11.8919
造色	-11.892
的請求	-11.892
無造	-11.892
等法界	-11.8922
紙為	-11.8926
非非法	-11.8933
齋食已	-11.8941
六天	-11.8951
卷第二	-11.8951
修善法	-11.8953
給你	-11.8954
說是經	-11.8956
但就	-11.8958
的結果	-11.896
仍然是	-11.896
有誤	-11.8963
說此經	-11.8965
三密	-11.8966
是故說	-11.8966
根識	-11.8968
:「26	-11.8968
疑偽經中	-11.897
彼自在	-11.897
他會	-11.8971
於諸菩薩	-11.8972
無生無	-11.8974
即是如來	-11.8976
與上述	-11.8976
因而生	-11.8977
業生	-11.8979
分功德	-11.8982
第二品	-11.8988
當來末	-11.8993
樂著	-11.8995
幻化之	-11.8995
悲愍	-11.8998
福與	-11.8998
修忍	-11.8999
於此處	-11.9001
它又	-11.9004
無瞋	-11.901
法忍	-11.9013
顯得	-11.9018
還能	-11.9021
具五	-11.9023
學家	-11.9024
阿僧祇	-11.9026
論及	-11.9026
六地	-11.903
自死	-11.903
住相	-11.9031
總說	-11.9032
人遠	-11.9035
二菩提心	-11.9036
報應之	-11.9037
作諸惡	-11.9039
必能	-11.9039
不告	-11.9042
前所說	-11.9042
仍是	-11.9045
著有	-11.9046
尚能	-11.9051
不知何	-11.9052
即於彼	-11.9053
義門	-11.9056
方廣	-11.9057
的排列	-11.906
飛天	-11.9064
修定	-11.9065
此差別	-11.9065
極重	-11.9071
面對	-11.9074
佛乘	-11.9077
ur	-11.9079
傳統的	-11.908
淨妙	-11.9081
不能發	-11.9084
遠見	-11.9084
相端嚴	-11.9085
唯有佛	-11.9085
妄緣	-11.9086
通化	-11.9087
對治法	-11.9087
之師	-11.9087
離生	-11.9091
十室	-11.9094
未來世中	-11.9098
善根成	-11.9098
無老死	-11.91
悟無生	-11.9104
請佛	-11.9107
諸罪垢	-11.9109
藏書	-11.9109
為勝	-11.911
我愛	-11.9114
無慧	-11.9115
十門	-11.9116
不名為	-11.9116
緣受	-11.9116
的佛經	-11.9118
經板	-11.912
空聚	-11.9121
受請	-11.9126
出現了	-11.9127
所收的	-11.9128
編纂的	-11.9131
351	-11.9134
次第為	-11.9135
600	-11.9147
不可以身	-11.9149
品第十	-11.9149
主要是	-11.9149
他礙	-11.9152
遂即	-11.9154
我心中	-11.9154
勝妙	-11.9159
何可得	-11.9163
三世十方	-11.9163
一座	-11.9165
之甚	-11.9166
起貪	-11.9171
無方分	-11.9174
行乞食	-11.919
剎塵	-11.919
此請	-11.9191
善來	-11.9191
枳帝	-11.9193
我仍	-11.9194
持四句	-11.9196
行品	-11.9196
為伯	-11.9198
雖不能	-11.9199
救眾生	-11.9199
施無畏	-11.9201
眾生意	-11.9203
望於	-11.9208
列出	-11.921
應非有	-11.921
這與	-11.9211
非菩薩	-11.9211
三十五	-11.9214
日囉斛	-11.9214
破諸	-11.9217
六義	-11.9218
所攝持	-11.9219
上述兩	-11.9221
是故彼	-11.9223
實相義	-11.9225
法身佛	-11.9225
為一切有情	-11.9231
支身	-11.9233
能離諸	-11.9237
佛得阿耨多羅三藐三菩提	-11.9237
對疑偽經	-11.9238
725	-11.9242
水流	-11.9245
聞名	-11.9249
廣開	-11.925
古聖	-11.9252
有一天	-11.9256
署名	-11.9258
深行	-11.9266
薩嚩怛他誐	-11.9274
5(	-11.9275
天降	-11.9277
宗密在	-11.9279
月照	-11.928
來無得	-11.9282
雖處	-11.9284
不倒	-11.9285
王命	-11.9287
故勸	-11.9288
一念心	-11.9291
四無量	-11.9294
普賢菩薩	-11.9306
極樂世界	-11.9307
當勤	-11.9308
施捨給	-11.9309
他還	-11.9322
誓度	-11.933
先已	-11.9331
200	-11.9332
入息	-11.9335
前心	-11.9341
亡者	-11.9341
齊一	-11.9344
頓證	-11.9346
▁9	-11.9346
觀門	-11.9353
個字	-11.936
對該	-11.9362
āt	-11.9364
寅五	-11.9369
貪生	-11.937
外緣	-11.9373
火焚	-11.9377
諸怖畏	-11.938
左邊	-11.9381
的裝飾	-11.9382
法相宗	-11.9382
智照	-11.9387
淨業	-11.9389
無度	-11.9392
貪染	-11.9392
大乘理	-11.9399
任何一	-11.9407
何以名	-11.9408
便可	-11.9411
勝諸天	-11.9413
自絕	-11.9414
之談	-11.9414
五願	-11.942
境若	-11.9424
二十三	-11.9425
依性	-11.9425
修多羅內	-11.9428
āya	-11.9429
為我所	-11.943
兩類	-11.9432
有生滅	-11.9434
此喻	-11.9435
再三	-11.944
舍利弗等	-11.9446
異空	-11.9454
戒等	-11.9454
不減	-11.9454
及十方	-11.9454
何謂正	-11.9455
佛世界	-11.9456
有待	-11.9463
曷	-11.9465
人亦如是	-11.9475
得病	-11.9477
大聖人	-11.9479
持律	-11.9479
不必	-11.9479
不請	-11.948
給他	-11.9481
所印	-11.9481
自他互換	-11.9483
大義利	-11.9489
如須彌	-11.949
取出	-11.9492
舉佛	-11.9494
則真	-11.9498
不休	-11.9499
謂色	-11.95
天趣	-11.9502
未成佛	-11.9503
是經卷	-11.9506
何在	-11.9509
值得注意	-11.951
個方面	-11.9515
得十六	-11.9517
相次	-11.9517
言語	-11.9517
有個	-11.9518
眾生空	-11.9525
不持齋	-11.953
漸增	-11.9531
莊嚴身	-11.9535
實無所	-11.9536
贈	-11.9537
了妄	-11.9539
第二十九	-11.9541
示人	-11.9549
遍觀	-11.9552
妄境	-11.9555
切勿	-11.9559
起信	-11.9569
至佛	-11.9573
歸為	-11.9575
達摩系	-11.9576
即指	-11.9578
車輪	-11.958
優鉢	-11.9585
等多種	-11.9586
又稱	-11.9589
時年十三	-11.9593
乃見	-11.9598
無蹤	-11.9599
三思	-11.9599
南無僧	-11.9604
」)。	-11.9609
當為汝說	-11.9613
大士觀	-11.9617
齊證	-11.9625
尋即	-11.9626
無價	-11.9627
給了	-11.9627
作何事	-11.9627
別問	-11.9629
śeṣ	-11.9631
故名一切法	-11.9641
幾許	-11.9645
把你	-11.9647
他國	-11.9647
因之而	-11.9648
常念	-11.9649
得衣	-11.9651
幻夢	-11.9652
產生的漏	-11.9656
超三界	-11.9662
ga	-11.9669
存於	-11.967
水上	-11.967
的幸福	-11.9673
難過	-11.9674
合明	-11.9674
中也有	-11.9679
自取	-11.968
宗密撰	-11.9683
碑文	-11.9685
戒法	-11.969
他已經	-11.9693
澡	-11.9697
一見	-11.9701
食已	-11.9701
往到	-11.9702
勉力	-11.9707
新譯	-11.9712
同居	-11.9722
)、《	-11.9723
觸滅	-11.9724
三類	-11.9727
批	-11.9729
有損	-11.9733
虛無	-11.9734
是念	-11.9738
歸敬	-11.9739
心法	-11.9747
能成辦	-11.9751
賢劫	-11.9753
回家	-11.9757
二十九	-11.9765
識所緣	-11.9774
有一人	-11.9777
守戒	-11.9778
心若	-11.9779
照耀	-11.9779
193	-11.978
中國北京圖書館藏	-11.979
且立	-11.9795
遍三千	-11.9796
最初的	-11.98
順天府志	-11.9802
均無	-11.9803
如牛	-11.9809
如赤	-11.9811
增補的	-11.9812
133	-11.9813
頭戴	-11.9815
若干種	-11.9829
得理	-11.9832
śr	-11.9836
起瞋	-11.984
僧祇	-11.9841
離言說	-11.9845
分義	-11.9847
上來禮請	-11.9856
oda	-11.9858
亦是空	-11.9861
千字文	-11.9861
印本	-11.9862
賊寇	-11.9864
求樂	-11.9864
夭	-11.9866
怡	-11.9866
必當	-11.9868
得佛道	-11.9868
荷擔	-11.9869
特殊的	-11.9869
yāḥ	-11.987
盧舍那	-11.9873
旬	-11.9875
恭敬禮	-11.9876
於我身	-11.9878
◇	-11.9881
一念之善	-11.9882
阿鞞比丘	-11.9882
賤價之醫	-11.9883
願令	-11.9884
然燈佛	-11.9886
勇士	-11.9886
心中喜	-11.9887
樂果	-11.9888
治病	-11.9888
閻羅天子	-11.9888
九十八使	-11.9889
得到解脫	-11.989
歸依解冤結菩薩	-11.9892
為什麼要	-11.9893
昂	-11.9893
矛	-11.9894
石女兒	-11.9894
杯	-11.9897
勃	-11.9898
1009	-11.9898
假誑	-11.9898
佛告淨度	-11.9898
長宴	-11.9899
明所緣	-11.9899
謂有一類	-11.99
月光神	-11.99
祁	-11.99
波利秫	-11.99
悖	-11.99
皰	-11.9902
養則致其樂	-11.9902
遑	-11.9902
jñā	-11.9902
承佛神力	-11.9902
八功德水	-11.9903
髏	-11.9903
十楞	-11.9903
於其毛端	-11.9903
仇讎	-11.9903
地瑟恥多	-11.9903
憍慢	-11.9904
睿宗	-11.9904
加持淨三業真言	-11.9904
妖怪	-11.9904
明確的	-11.9904
訊	-11.9905
栽	-11.9905
之冤債也	-11.9905
持法律	-11.9905
新學菩薩	-11.9905
鴿	-11.9905
翔	-11.9906
瘡疣	-11.9906
蝕	-11.9906
內凡惑	-11.9907
虔娘	-11.9907
阿耨多	-11.9907
如實知見	-11.9907
八萬法蘊	-11.9907
語言翻修多羅	-11.9907
尖	-11.9907
把自己	-11.9908
儘	-11.9908
持九齋	-11.9908
炎炎	-11.9908
蝦	-11.9908
戮	-11.9909
皆歸	-11.9909
絹	-11.9909
寧馨	-11.991
得有乘義	-11.991
遽	-11.991
誦百生冤結	-11.991
修持梵行	-11.991
苦諦	-11.991
傳世文獻	-11.9911
作緣也	-11.9911
簿	-11.9911
五濁惡世	-11.9911
四大海水	-11.9911
居則致其敬	-11.9911
腎	-11.9911
奸	-11.9912
言語道斷	-11.9912
釀	-11.9912
慰喻之	-11.9912
悉見是	-11.9912
那伽薩瑪拉	-11.9912
菩	-11.9912
不起法忍	-11.9913
佇	-11.9913
壘	-11.9913
嗅香	-11.9913
恩難報母	-11.9913
摩枲	-11.9913
矩	-11.9913
佛報恩經	-11.9913
入聖	-11.9913
一生補處	-11.9913
則見如來	-11.9913
疾疫	-11.9913
怛囉夜耶	-11.9914
琉璃光王佛	-11.9914
揖	-11.9914
潮	-11.9914
嚩室憐	-11.9914
豹	-11.9914
俱寂	-11.9914
是微塵眾	-11.9915
眾生之類	-11.9915
隸哩	-11.9915
和僧	-11.9915
人集錄	-11.9915
怨憎會苦	-11.9915
昇沉	-11.9915
霏	-11.9915
睫	-11.9915
露堂堂	-11.9915
放金色光	-11.9915
硬	-11.9915
沽	-11.9915
住心門	-11.9915
出現於世	-11.9915
大我慢者	-11.9915
如是沙等恒	-11.9916
朋	-11.9916
謹按	-11.9916
殍	-11.9916
。」「8、	-11.9916
浮木	-11.9916
品上生者	-11.9916
蓮華藏世界	-11.9916
寶頂山石窟	-11.9916
怛他蘗多	-11.9916
悟心門	-11.9916
織	-11.9916
鐸	-11.9916
萬民	-11.9916
佈地	-11.9917
今正是時	-11.9917
蠢動	-11.9917
隨次配釋	-11.9917
教內文字真如	-11.9917
奢摩	-11.9917
蒼	-11.9918
賣	-11.9918
隨其所應	-11.9918
灌清淨醍醐甘露	-11.9918
乾達婆	-11.9918
詵	-11.9918
歡娛	-11.9918
珂	-11.9918
圍繞眾髮	-11.9918
抵	-11.9919
別來幾度春光	-11.9919
竊盜	-11.9919
歿後	-11.9919
苦空無常	-11.9919
辟支羅漢	-11.9919
嗚	-11.9919
皈敬	-11.9919
趕緊	-11.9919
不異語者	-11.9919
􅶻	-11.9919
栖	-11.992
庶幾	-11.992
於虛空中	-11.992
從三昧起	-11.992
恩難報父	-11.992
叫喚	-11.992
'	-11.992
穿透	-11.992
千萬億那由他	-11.992
曹溪水	-11.992
強健	-11.992
漠	-11.992
海洋	-11.9921
腮	-11.9921
若有見	-11.9921
歌舞	-11.9921
福祿	-11.9921
三種悉地	-11.9921
捕魚	-11.9921
N	-11.9921
樊	-11.9921
固定	-11.9921
瀆	-11.9921
莫作是說	-11.9921
歌羅	-11.9921
客塵	-11.9921
具足諸相見	-11.9921
太陰	-11.9922
毗舍	-11.9922
餘事	-11.9922
封疆	-11.9922
三明六通	-11.9922
心常安住	-11.9922
察心門	-11.9922
跋日囉	-11.9922
彼諸補特伽羅	-11.9922
舟航	-11.9922
款	-11.9923
軒	-11.9923
汝若作是念	-11.9923
牲	-11.9923
四色成山	-11.9923
囂	-11.9923
熾盛光王佛	-11.9923
南無阿	-11.9923
忙忙	-11.9923
橋樑	-11.9923
溟	-11.9923
覺心門	-11.9923
祀	-11.9923
糾	-11.9924
勳	-11.9924
§4.3	-11.9924
罪垢多除	-11.9924
作是語	-11.9924
此下第三	-11.9924
墓	-11.9924
羝那	-11.9924
設齋	-11.9924
枲	-11.9924
銜	-11.9924
宿習	-11.9924
雷音	-11.9925
佛復告	-11.9925
冤憎	-11.9925
聚義是蘊	-11.9925
力行持	-11.9925
懷著喜悅	-11.9925
駒澤大學	-11.9925
竹林	-11.9925
嚩嚕	-11.9925
非有想非無想	-11.9926
石室	-11.9926
精瑩	-11.9926
鷲嶺	-11.9926
威嚴	-11.9926
光明遍照	-11.9926
收拾	-11.9926
缽頭麼	-11.9926
裕	-11.9926
單框	-11.9926
無明緣行	-11.9926
未為歷代大藏經所收	-11.9926
見種種色	-11.9926
窮困	-11.9926
彙	-11.9927
廣施無遮	-11.9927
我今結界到	-11.9927
慧炬	-11.9927
盧迦	-11.9927
諦察法忍	-11.9927
𤚥	-11.9927
伏願諸佛菩薩	-11.9927
喘	-11.9927
因緣心釋論開決記	-11.9927
止此室	-11.9927
此明二宗	-11.9927
厭倦	-11.9927
館	-11.9927
救脫菩薩	-11.9927
屢	-11.9927
護國司南抄	-11.9927
豁開	-11.9928
馭	-11.9928
成敗	-11.9928
諸具欲	-11.9928
混雜	-11.9928
粗惡語	-11.9928
翁	-11.9928
。」「5、	-11.9928
利生接物	-11.9928
無量微塵數	-11.9928
然燈佛所	-11.9928
屍體	-11.9928
金仙	-11.9928
阻攔	-11.9928
志心稱念藥師	-11.9928
掌壇法師	-11.9928
過去心不可得	-11.9928
紫磨黃金	-11.9928
得聖定	-11.9928
黑繩	-11.9928
鈐	-11.9928
淡	-11.9928
罷	-11.9928
享解脫之樂	-11.9928
十纏	-11.9928
無生正觀	-11.9928
爾時世尊而說偈言	-11.9929
庇	-11.9929
前念	-11.9929
諸宗禪言	-11.9929
斷常俱不	-11.9929
證盟修奉	-11.9929
至於今日	-11.9929
未來心不可得	-11.9929
一歷耳根	-11.9929
凝然湛寂	-11.9929
并	-11.9929
械	-11.9929
會集人天	-11.9929
次第答前	-11.9929
崛	-11.9929
第一時陞座	-11.9929
若復有人於此經中	-11.9929
輝煌	-11.9929
潞州	-11.993
燒熱	-11.993
聞經深解	-11.993
湛然不動	-11.993
梵唄	-11.993
夜嚩那	-11.993
發無上菩提心	-11.993
靄	-11.993
讚十種恩	-11.993
皇后	-11.993
驕傲	-11.993
犢	-11.993
楷	-11.9931
支節	-11.9931
誕生	-11.9931
熙	-11.9931
答第四問	-11.9931
人人具足	-11.9931
公案	-11.9931
不勞勵力	-11.9931
昭彰	-11.9931
刀兵	-11.9931
則為非住	-11.9931
結跏趺	-11.9931
宵	-11.9932
夭亡	-11.9932
慨	-11.9932
猶如伊字	-11.9932
寶炬	-11.9932
狹劣	-11.9932
不可具見	-11.9932
破彼轉計	-11.9932
魔宮	-11.9932
精潔	-11.9932
紇	-11.9932
性地以上	-11.9932
流浪生死	-11.9932
佛在金棺	-11.9932
題材	-11.9932
行於布施	-11.9932
叭	-11.9932
補闕	-11.9932
人身長大	-11.9932
互換	-11.9933
絡	-11.9933
我從今日	-11.9933
嬌	-11.9933
各種各樣的	-11.9933
焰焰	-11.9933
各派	-11.9933
如自在天宮	-11.9933
欽崇	-11.9933
答第一問	-11.9933
董氏	-11.9933
十二月禮佛文	-11.9933
疱	-11.9933
迅	-11.9933
大千世界	-11.9933
民族	-11.9933
十惡五逆	-11.9933
瞞	-11.9933
雲南阿吒力僧	-11.9933
那羅延	-11.9934
丸	-11.9934
佛說是經已	-11.9934
一個巴利堯巴姆	-11.9934
讓我們	-11.9934
隨心所欲	-11.9934
到岸	-11.9934
哀哉	-11.9934
濩湯	-11.9934
月三日改為	-11.9934
華方田	-11.9934
家宅	-11.9934
禪河隨浪	-11.9934
弘道尼	-11.9935
梯	-11.9935
陸光祖	-11.9935
利刀	-11.9935
掃蕩	-11.9935
超絕	-11.9935
廂	-11.9935
若福德有實	-11.9935
則為有佛	-11.9935
請世尊入般涅槃	-11.9935
沼	-11.9935
殼	-11.9935
二智心中	-11.9935
庫藏	-11.9935
明來暗	-11.9935
廳	-11.9935
世報	-11.9935
幽顯	-11.9935
望聖慈悲	-11.9935
浸	-11.9936
七心界	-11.9936
此為佛教所具第	-11.9936
志心歸命禮	-11.9936
網縵	-11.9936
師子之座	-11.9936
皺	-11.9936
得為乘體	-11.9936
有餘師說	-11.9936
金剛杵	-11.9936
報父母恩德	-11.9936
懷孕	-11.9936
生生世世	-11.9936
蕩盡	-11.9936
麟	-11.9936
方隅	-11.9936
奮	-11.9936
遨	-11.9936
箕	-11.9936
河水	-11.9936
常用科儀	-11.9936
猶如日輪	-11.9936
漢文譯本	-11.9936
侍奉	-11.9936
棘	-11.9936
揚州	-11.9936
欲覓無生	-11.9936
背境向心	-11.9936
夾紙	-11.9936
寫於日本	-11.9936
篆	-11.9936
佛說法	-11.9937
縵	-11.9937
怯	-11.9937
於面門	-11.9937
識體體	-11.9937
錯簡	-11.9937
驚奇	-11.9937
施門通六	-11.9937
灰燼	-11.9937
率爾	-11.9937
鼓勵	-11.9937
嚩羅賀	-11.9937
而取佛土	-11.9937
跨	-11.9937
罵詈	-11.9937
蹇	-11.9938
鉤鎖	-11.9938
七寶詎能過	-11.9938
剛剛	-11.9938
礦	-11.9938
佛所制	-11.9938
轍	-11.9938
不永滅	-11.9938
三千世界	-11.9938
母作子	-11.9938
不立知解	-11.9938
要假離	-11.9938
雙面抄寫	-11.9938
阿闍	-11.9938
波羅奈	-11.9939
無漏智	-11.9939
頁下第	-11.9939
皆是虛妄	-11.9939
詛	-11.9939
瘟	-11.9939
募刻	-11.9939
朗朗	-11.9939
旱	-11.9939
崇敬	-11.9939
我是汝	-11.9939
稽首歸依解冤結菩薩	-11.9939
聖道流	-11.9939
具大悲心	-11.9939
宮廷	-11.9939
百千日月	-11.9939
匠手	-11.9939
堪嗟	-11.9939
如來所得法	-11.9939
斯坦因	-11.9939
純金	-11.9939
者孝於	-11.9939
隨念分別	-11.9939
戌涅多	-11.9939
蓄	-11.9939
忖	-11.9939
分為六種	-11.994
淮	-11.994
祭司	-11.994
昔時稱善	-11.994
紗	-11.994
挑	-11.994
楞嚴海會佛菩薩	-11.994
如摩尼珠	-11.994
手足柔軟	-11.994
阿難應諾	-11.994
歌利王	-11.994
眾生的利益	-11.994
學術界	-11.9941
寒冰	-11.9941
城祇樹給孤獨園	-11.9941
大中祥符	-11.9941
拍	-11.9941
棋	-11.9941
標聖位	-11.9941
法界所攝	-11.9941
知心門	-11.9941
荊棘林中業火生	-11.9941
補特伽羅及蘊	-11.9941
迷津	-11.9941
之技最高	-11.9941
艱辛道	-11.9941
阿毗達磨	-11.9941
燥	-11.9941
評價	-11.9941
俯垂	-11.9941
的原則	-11.9941
雙行小字	-11.9941
邪淫	-11.9941
摩訶迦盧尼	-11.9942
多陀阿竭	-11.9942
復有五事	-11.9942
積集資糧	-11.9942
扎	-11.9942
伯希和	-11.9942
牛耕	-11.9942
惟希納受鑒丹	-11.9942
遺憾的是	-11.9942
蘊上假	-11.9942
套	-11.9942
parā	-11.9942
首楞嚴	-11.9942
鹿王	-11.9942
身諸毛孔	-11.9942
聖者之王	-11.9942
屍骸	-11.9942
以大願力	-11.9942
曩謨	-11.9943
圓珍在寫	-11.9943
官府	-11.9943
代苦得樂	-11.9943
旦夕	-11.9943
無非亦無	-11.9943
組成部分	-11.9943
解結除冤	-11.9943
別解脫戒	-11.9943
禁忌	-11.9943
了了分明尚未生起之	-11.9943
初住已上	-11.9944
姊妹	-11.9944
金剛三昧經	-11.9944
呼喚	-11.9944
腭	-11.9944
如來舉身	-11.9944
生難遭想	-11.9944
耆闍	-11.9944
登寶座	-11.9944
出世之孝	-11.9944
如來有佛眼	-11.9944
篤	-11.9944
吸收	-11.9944
不可稱量	-11.9944
蟻	-11.9944
鑊	-11.9944
佛頂尊勝陀羅尼	-11.9944
蒭	-11.9944
最後的解脫	-11.9944
聖者巴伐菩提	-11.9944
利養恭敬	-11.9944
陰司	-11.9944
編集	-11.9945
枝節	-11.9945
忍耐	-11.9945
俗諦	-11.9945
一心頭面	-11.9945
唯外四界	-11.9945
形骸	-11.9945
犯四重禁	-11.9945
互相爭吵	-11.9945
匪	-11.9945
增盛	-11.9945
孝為宗	-11.9945
念藥王藥上菩薩	-11.9945
頭上的寶石	-11.9945
尊勝幢菩薩	-11.9945
無沒生	-11.9945
姆	-11.9945
觀自在菩薩	-11.9945
隅	-11.9945
寒冷	-11.9946
中興元年	-11.9946
示同人事	-11.9946
法界一分	-11.9946
亦自性不成	-11.9946
家產	-11.9946
。」「4、	-11.9946
佛說金剛經纂	-11.9946
洗浴	-11.9946
行偈語	-11.9946
四十八願	-11.9946
甚為希有	-11.9946
說八萬四千諸妙相好	-11.9946
蹄	-11.9946
世間之孝	-11.9946
初靜慮中	-11.9946
給孤獨園	-11.9946
推尋	-11.9946
緇	-11.9946
摩訶摩耶	-11.9947
負責	-11.9947
辯正論	-11.9947
說明了	-11.9947
鉅	-11.9947
衷	-11.9947
非擇滅	-11.9947
甘美	-11.9947
六朝文	-11.9947
因時有果	-11.9947
稻麻竹葦	-11.9947
陛下	-11.9947
苦逼	-11.9947
無終隨縛	-11.9947
無想天	-11.9947
八十種隨形好	-11.9948
查考	-11.9948
如來有法眼	-11.9948
謬誤	-11.9948
吻	-11.9948
慶幸	-11.9948
殺生害命	-11.9948
奧旨	-11.9948
應墮惡道	-11.9948
驚惶	-11.9948
幻女	-11.9948
江泌	-11.9948
復前行	-11.9948
方軌	-11.9948
的名字	-11.9948
不墮寒冰地獄	-11.9948
紅白	-11.9948
進修名	-11.9948
善付囑諸菩薩	-11.9948
禪策問答	-11.9948
水府	-11.9949
劫盜	-11.9949
大孝釋迦	-11.9949
自然消滅	-11.9949
問訊	-11.9949
喜怒	-11.9949
漢地佛教	-11.9949
高祖	-11.9949
疑悔	-11.9949
indriya	-11.9949
寒熱	-11.9949
念賢劫千佛	-11.9949
借助	-11.9949
人空法亦	-11.9949
邀請	-11.9949
彈訶	-11.995
達麼耶	-11.995
三儀軌之一	-11.995
地水火風空	-11.995
不墮某某地獄	-11.995
戳	-11.995
暴流	-11.995
通達佛道	-11.995
龍興寺供養	-11.995
如來有慧眼	-11.995
婁	-11.995
経	-11.995
討論會	-11.995
鈸	-11.995
難盡讚揚	-11.995
注視著	-11.995
.3413	-11.995
南北朝時期	-11.995
即非一切法	-11.995
燒香供養	-11.995
克服	-11.995
等閒	-11.9951
互不相	-11.9951
無上正覺	-11.9951
藥師教主	-11.9951
輦	-11.9951
不墮鑊湯地獄	-11.9951
以要言之	-11.9951
繆荃孫	-11.9951
膝下	-11.9951
馴	-11.9951
娑娑	-11.9951
祈禱	-11.9951
曇曜	-11.9951
禪籍	-11.9951
禪源諸詮	-11.9951
精專	-11.9951
鹽	-11.9951
兩個方面	-11.9951
所以得知	-11.9951
4443	-11.9952
心可印	-11.9952
限制	-11.9952
最為第一	-11.9952
如來無所說	-11.9952
僧伽藍	-11.9952
混亂	-11.9952
寧捨生命	-11.9952
明昌四年	-11.9952
頁上欄第	-11.9952
舌根上	-11.9952
象徵	-11.9952
如來有天眼	-11.9952
主要依據	-11.9953
>	-11.9953
剋	-11.9953
比較複雜	-11.9953
śruta	-11.9953
所問經	-11.9953
加持獻花寶座真言	-11.9953
世尊及僧眾	-11.9953
參加	-11.9953
金鈴	-11.9953
(1027)	-11.9953
珠網	-11.9953
編排	-11.9953
古提幹那居士	-11.9953
大昊天寺	-11.9953
自相矛盾	-11.9953
艱難	-11.9953
§1.3	-11.9953
殘爛	-11.9953
裏紙	-11.9953
殘害	-11.9953
帙皮	-11.9954
真慈	-11.9954
南無達摩	-11.9954
具足萬行	-11.9954
節節	-11.9954
宣講正法	-11.9954
禮慈尊	-11.9954
韓	-11.9954
空衣派刊本無	-11.9954
補救	-11.9954
穢土	-11.9955
(§3.2	-11.9955
俗姓	-11.9955
這篇文獻	-11.9955
香塗	-11.9955
有密切關係	-11.9955
卡文德	-11.9955
大乘起世論	-11.9955
王后甘地瑪蒂	-11.9955
antara	-11.9955
āsrava	-11.9955
彙編	-11.9955
在佛教中	-11.9955
§9.4	-11.9955
gati	-11.9956
之束縛如何	-11.9956
財產	-11.9956
尾演	-11.9956
deśa	-11.9956
坐在那裏	-11.9956
楊廣	-11.9956
濁世	-11.9956
李誦	-11.9956
sth	-11.9956
大因陀羅天	-11.9956
bharata	-11.9956
是逆觀	-11.9956
背痛	-11.9956
guṇā	-11.9956
明造論因	-11.9956
尼泊爾	-11.9957
中間住神	-11.9957
維德哈地區	-11.9957
▁戊本	-11.9957
凝集生	-11.9957
常童子天	-11.9957
空衣派刊本此節為	-11.9957
亙	-11.9957
衲衣	-11.9957
圓音	-11.9957
契真如	-11.9957
,55/68	-11.9957
saṃkhyeya	-11.9957
相關的典籍	-11.9957
精華	-11.9957
採取	-11.9957
三階教文獻	-11.9957
親眼見到	-11.9957
場大界	-11.9957
隨眠	-11.9957
大佛名經	-11.9957
§5.4	-11.9957
漏得以產生	-11.9957
釋迦譜	-11.9957
開皇三寶錄	-11.9957
持齋除罪一千劫	-11.9957
leśyā	-11.9957
除罪一千劫	-11.9957
武王	-11.9958
§8.1	-11.9958
五嶽	-11.9958
§8.10	-11.9958
sūkṣma	-11.9958
則凡聖一	-11.9958
期望	-11.9958
通達無我	-11.9958
頭皮	-11.9958
q	-11.9958
修崇	-11.9958
尾殘	-11.9958
釋迦氏略譜	-11.9958
samyaktva	-11.9958
pramatta	-11.9958
人與法相	-11.9958
uddhi	-11.9958
這兒指	-11.9958
palyopama	-11.9958
八正道	-11.9958
嚴土	-11.9959
佛事不同	-11.9959
敦煌僧人	-11.9959
kriyā	-11.9959
兵刃	-11.9959
心王菩薩說頭陀經	-11.9959
粗穢濁位	-11.9959
萬九千	-11.9959
遺失	-11.9959
伺察	-11.9959
誐多	-11.9959
修自他相換	-11.9959
這般	-11.9959
方寸	-11.9959
誥	-11.9959
伏願六通	-11.9959
802	-11.9959
十八種物	-11.9959
了了分明已棄	-11.9959
▁pudgalā	-11.9959
於然燈佛所	-11.9959
審覆翻經大德	-11.996
有數種	-11.996
śabda	-11.996
念盧舍那佛	-11.996
存活	-11.996
有關資料	-11.996
讓他們	-11.996
咦	-11.996
雜述錄	-11.996
§9.38	-11.9961
初長行	-11.9961
皇家官藏	-11.9961
人的壽命	-11.9961
馬鳴	-11.9961
慣習	-11.9961
披尋記	-11.9961
群臣	-11.9961
古印度	-11.9962
須菩提是樂阿蘭那行	-11.9962
維持	-11.9962
黃昏	-11.9962
輯佚	-11.9962
塗供養	-11.9962
必假	-11.9962
不生滅色心	-11.9962
眼藥	-11.9962
kha	-11.9962
暫歇	-11.9963
墮阿鼻地獄	-11.9963
十方國土	-11.9963
紹知伽	-11.9963
一段話	-11.9963
被當作	-11.9963
普濟	-11.9963
僧祐自己	-11.9963
淺識	-11.9963
這樣一個	-11.9963
創造	-11.9963
牽引	-11.9963
陽文	-11.9964
金剛頂	-11.9964
為是僧	-11.9964
勸發菩提心	-11.9964
貫通	-11.9964
根三昧安詳而出	-11.9964
唯此一	-11.9964
承認	-11.9964
意淨	-11.9965
騰空	-11.9965
聯屬	-11.9965
無所有處	-11.9965
頸上	-11.9965
則非凡夫	-11.9965
遍昭	-11.9965
思慮	-11.9965
奏樂	-11.9965
禪門之法	-11.9966
金華	-11.9966
四無所畏	-11.9966
行至第	-11.9966
抄經錄	-11.9966
永平	-11.9966
舍衛國	-11.9966
無有高下	-11.9966
烤	-11.9967
應如是知	-11.9967
風氣	-11.9967
弘景	-11.9967
黃金色	-11.9967
鞠	-11.9967
闍耶	-11.9967
青山	-11.9967
親宣說	-11.9967
聞妙法	-11.9968
通局	-11.9968
壇𡒌	-11.9968
段文字	-11.9968
弘忍	-11.9968
列舉了	-11.9968
夜夢	-11.9968
記憶	-11.9968
置記	-11.9968
煞父	-11.9969
316	-11.9969
細細	-11.9969
普賢王	-11.9969
闡述	-11.9969
消失了	-11.9969
清流	-11.9969
svā	-11.9969
的意願	-11.997
得其便	-11.997
論衡	-11.997
八聖道	-11.997
吾師	-11.9971
設帝	-11.9971
蹉過	-11.9971
最短	-11.9971
享受著	-11.9971
接受了	-11.9971
孔中	-11.9972
哀號	-11.9972
報謝	-11.9972
的光芒	-11.9972
如上所說	-11.9972
我諸弟子	-11.9972
散落	-11.9972
稱呼	-11.9972
車乘	-11.9973
南齊	-11.9973
感得淨土	-11.9973
章安	-11.9973
寶貴	-11.9973
聚散	-11.9973
密教教法	-11.9973
友好	-11.9974
能除生死	-11.9974
897	-11.9974
亡失	-11.9974
洗過	-11.9974
僧侶	-11.9974
漸證	-11.9974
愛滅	-11.9974
悅樂	-11.9975
王之姜	-11.9975
祗好	-11.9975
本節解釋	-11.9975
界作微塵	-11.9975
頓超	-11.9975
竺法	-11.9975
伸供養	-11.9975
回頭	-11.9975
如來藏觀	-11.9975
有萬般	-11.9975
開受我	-11.9976
可以認識	-11.9976
皆得成就	-11.9977
解粘	-11.9977
歷位	-11.9977
無著論名	-11.9977
校量	-11.9977
其他經典	-11.9978
念地藏菩薩	-11.9978
木石	-11.9978
文闍	-11.9978
草書	-11.9978
有為無為	-11.9978
親承	-11.9978
sparśa	-11.9979
指具有	-11.9979
今時比丘	-11.9979
至世尊所	-11.9979
無住涅槃	-11.998
卷舒	-11.998
智慧光明	-11.998
雖然可以	-11.998
不與取	-11.998
歷然	-11.9981
軌則	-11.9981
不如有人能斷酒	-11.9981
天人師	-11.9981
東土	-11.9981
消災延壽藥師佛南無	-11.9981
說是沙	-11.9981
迦哩	-11.9981
堅忍	-11.9982
是名微塵	-11.9982
非一異	-11.9982
北京圖書館藏	-11.9983
頻經五百	-11.9983
其爪	-11.9983
修淨土行	-11.9983
天鼓	-11.9983
禮拜真言	-11.9984
佛胸	-11.9984
非空亦非	-11.9985
善星	-11.9985
大迦旃延	-11.9985
串修	-11.9985
毗耶	-11.9986
有礙非	-11.9986
同欄第	-11.9986
精妙	-11.9986
齊全	-11.9986
是名善法	-11.9987
雜華	-11.9987
為多不	-11.9988
唯識論	-11.9988
大奇	-11.9988
恩波	-11.9988
學佈施	-11.9989
偏執	-11.9989
口舌	-11.9989
菩薩不受福德	-11.9989
獨尊	-11.999
所不及	-11.999
人集錄於十二	-11.999
曹宗壽	-11.999
原書	-11.999
此第四問	-11.999
婆羅多	-11.999
不間	-11.999
他的身體	-11.999
五彩	-11.999
科事	-11.9991
本世紀	-11.9991
咸共	-11.9991
還存在	-11.9992
虛妄分別	-11.9992
如是降伏其心	-11.9993
即入般涅槃	-11.9993
享用	-11.9993
華香	-11.9993
雙方	-11.9994
完全不同	-11.9995
濟物	-11.9995
一切女人	-11.9995
別離	-11.9995
西天有一	-11.9995
處所攝	-11.9995
》+《	-11.9995
阿密	-11.9996
智嚴	-11.9997
契理	-11.9997
西藏	-11.9997
地獄變	-11.9997
為人子	-11.9997
表裏	-11.9997
北圖本	-11.9998
等諸大菩薩	-11.9998
遠承	-11.9998
三寸	-11.9998
如紅蓮	-11.9998
積塵	-11.9998
捨身命	-11.9999
萬象	-11.9999
而為說法	-12
不現前	-12
暫捨	-12.0001
七歲	-12.0001
四攝法	-12.0002
二諦理	-12.0002
其得失	-12.0002
至無餘	-12.0003
滿虛空	-12.0003
食啖	-12.0003
尊者啊	-12.0004
校記	-12.0004
不倦	-12.0004
只要	-12.0005
牟尼佛	-12.0005
種種莊嚴	-12.0005
南宗	-12.0005
尚且	-12.0006
寶雲	-12.0006
取得身	-12.0006
如朗	-12.0006
因時無	-12.0006
一相續	-12.0006
當何所	-12.0007
顯揚	-12.0007
如是甚深	-12.0007
法華部	-12.0007
繫著	-12.0008
但意義	-12.0008
遍莊嚴	-12.0009
真語者	-12.001
止誦	-12.001
須行智	-12.001
說八十種好	-12.001
釋迦方	-12.0011
免難	-12.0012
開啟	-12.0013
殘破	-12.0013
某甲	-12.0013
五陰山	-12.0013
應善巧	-12.0013
諸毛	-12.0014
帶著	-12.0014
病惱	-12.0014
根機	-12.0015
首過	-12.0015
榮耀的	-12.0016
號叫	-12.0016
除尋	-12.0016
故名無記	-12.0016
饒益眾生	-12.0017
燈主	-12.0017
星辰	-12.0018
棄除	-12.0018
領起	-12.0019
願乞	-12.0019
俱亡	-12.0019
修念佛	-12.0019
奉命	-12.002
三業清淨	-12.002
嚴重	-12.002
無漏種	-12.002
任汝	-12.0021
變壞	-12.0021
還包括	-12.0021
由何	-12.0021
尊親	-12.0021
之分位	-12.0021
諸菩薩眾	-12.0021
個人	-12.0022
的可能性	-12.0022
阿難大眾	-12.0022
的一部分	-12.0024
因人相	-12.0024
我的話	-12.0025
靈通	-12.0026
一念隨	-12.0026
)+	-12.0027
或臣	-12.0027
給侍	-12.0029
法空人	-12.0029
清淨大眾	-12.0029
安樂住	-12.003
皤囉	-12.003
平和	-12.003
煩惱盡	-12.0033
在此將	-12.0033
堪能	-12.0034
互用	-12.0034
觀音菩薩	-12.0034
依般若波羅蜜多	-12.0034
兩目	-12.0035
須安	-12.0035
載錄	-12.0036
闕本	-12.0036
非不有	-12.0036
三十五佛名禮懺文	-12.0036
我於彼	-12.0037
人天眼	-12.0037
阿羅漢眾	-12.0037
270	-12.0038
資料來源	-12.0038
究竟涅槃	-12.0038
第一譯	-12.0038
捨惡	-12.0038
是乘	-12.0038
起慈心	-12.004
事畢	-12.004
據說是	-12.0041
乃往	-12.0041
福聚	-12.0041
懸在	-12.0041
不屬於	-12.0043
蘊所攝	-12.0043
第二句	-12.0044
我等亦	-12.0044
真誠	-12.0044
因果俱	-12.0044
不拘	-12.0045
鉤心	-12.0045
解決	-12.0045
詳論	-12.0046
大地眾生	-12.0046
遍滿虛空	-12.0047
加被	-12.0047
梵云	-12.0048
斷肉	-12.0048
亦能壞	-12.0049
一百卷	-12.0049
敬重	-12.0049
377	-12.005
妙莊嚴	-12.005
往返	-12.0051
的女孩	-12.0051
日益	-12.0051
尾部	-12.0052
就是僧法誦出經	-12.0052
獲取	-12.0052
大導師	-12.0052
如龍王	-12.0053
機會	-12.0054
妙高	-12.0055
尊勝	-12.0056
古之	-12.0056
tapas	-12.0056
般若波羅密	-12.0057
之所致	-12.0057
真容	-12.0057
納入	-12.0057
作用義	-12.0058
已蒙	-12.0059
設教	-12.0059
難窮	-12.0059
一切法空	-12.0059
向誰	-12.006
妄執	-12.006
但它們	-12.0061
卷十三	-12.0061
諸天女	-12.0061
全本	-12.0061
異類	-12.0062
為鈍	-12.0062
十九行	-12.0062
來告	-12.0062
反復	-12.0063
從天上	-12.0064
雲散	-12.0064
助緣	-12.0064
下殘	-12.0064
第二譯	-12.0065
萬死	-12.0065
離間	-12.0065
為漢代失譯	-12.0065
赤蓮華	-12.0066
高聲	-12.0068
化人天	-12.0068
重增	-12.0068
消盡	-12.0069
高慢	-12.007
始名	-12.0071
言詮	-12.0072
上看來	-12.0072
起信論	-12.0072
宛如	-12.0073
慈愛	-12.0075
外凡惑	-12.0076
醫治	-12.0076
六度次	-12.0076
若無想	-12.0076
以方便	-12.0077
所抄的	-12.0077
豈復	-12.0077
不恚	-12.0078
承事	-12.0078
慈光	-12.0079
宗風	-12.0079
道吾	-12.0081
美名	-12.0082
護之	-12.0083
見佛性	-12.0083
重障	-12.0083
咒願	-12.0084
自今以	-12.0084
參差不	-12.0084
其類	-12.0085
明眼識	-12.0086
全彰	-12.0087
更高	-12.0087
皆圓滿	-12.0087
要比	-12.0088
佛口	-12.0088
偈明	-12.0088
略舉	-12.0089
爭得	-12.0089
徵釋	-12.009
聞密語	-12.0091
其迹	-12.0091
三轉法輪	-12.0092
相結合	-12.0092
淨土之行	-12.0092
識達	-12.0094
像王	-12.0094
阿字	-12.0097
亂意	-12.0097
釋放	-12.0099
願速	-12.0099
門戶	-12.01
必死	-12.01
滿足了	-12.01
諦義	-12.0102
原由	-12.0102
光觸	-12.0103
洗心	-12.0106
理密	-12.0106
功成	-12.0107
化身佛	-12.011
▁P	-12.011
無我所	-12.011
數百千	-12.0111
釋詞	-12.0111
燦燦	-12.0112
普念	-12.0112
縱或	-12.0112
敦煌本	-12.0116
塵界	-12.0117
世尊曾	-12.0117
精進力	-12.0118
大醫王	-12.0119
味境	-12.012
決定性	-12.012
馬上	-12.0121
眼俱	-12.0121
遵依	-12.0122
輸睇	-12.0123
小異	-12.0124
普現	-12.0125
卷尾	-12.0125
渴望	-12.0126
與北新	-12.0126
受人尊	-12.0127
一切大眾	-12.0128
論偈	-12.0128
指命	-12.0128
而實無	-12.0128
名阿耨多羅三藐三菩提	-12.0129
疏抄	-12.013
善思維	-12.013
此一段	-12.0131
獨善	-12.0131
普天	-12.0132
適時	-12.0133
淨衣	-12.0135
故道言	-12.0135
勿起	-12.0137
完成了	-12.0138
五十三	-12.0139
三乘教	-12.014
離二邊	-12.014
輸檀	-12.014
刪除	-12.0142
皆已	-12.0143
合道	-12.0143
何由得有	-12.0143
達你	-12.0144
問維摩詰	-12.0147
人倫	-12.0147
聖德	-12.0148
散眾	-12.0149
假號	-12.015
圓應	-12.0151
卷三十	-12.0151
功德無量	-12.0151
今現在	-12.0153
須要	-12.0154
福勝	-12.0154
勤修善法	-12.0155
幽明	-12.0158
應勉力	-12.0158
的殘卷	-12.0159
十二門	-12.0159
勝報	-12.0159
邪命	-12.016
可喜	-12.016
明暗	-12.0161
敬信	-12.0162
始知	-12.0162
眾花	-12.0163
為敷揚	-12.0163
無有分別	-12.0164
□□□□□□□□	-12.0165
有高下	-12.0166
報德	-12.0172
沒有一點	-12.0172
真言唵	-12.0172
的考察	-12.0172
一切種	-12.0172
覺了	-12.0172
知眾生心	-12.0173
大唐西域	-12.0173
佛贊	-12.0175
故鄉	-12.0175
無自在	-12.0175
履行	-12.0176
國王和	-12.0176
伽他	-12.0178
不廢	-12.0179
念佛功德	-12.018
而世人	-12.018
當爾	-12.0181
的經本	-12.0181
菩薩所行	-12.0182
有六義	-12.0183
色塵	-12.0184
至極	-12.0184
聖化	-12.0186
四種智	-12.0187
施命	-12.0187
無別有	-12.0188
孰為	-12.0188
鼻出	-12.0188
無作者	-12.0188
所治	-12.0189
能斷煩惱	-12.0189
悉清淨	-12.0191
亦非理	-12.0191
諸智者	-12.0193
路上	-12.0193
無過失	-12.0193
佛制	-12.0193
即是涅槃	-12.0193
況我	-12.0195
坐斷	-12.0195
分乃至	-12.0195
壇儀	-12.0195
存一紙	-12.0196
入城	-12.0196
慎之	-12.0197
發戒	-12.0197
上都	-12.0197
更求	-12.0197
此之二	-12.0198
了百	-12.0199
十德	-12.0199
萬行首楞嚴	-12.02
先且	-12.0201
了好	-12.0202
萬色	-12.0202
盡此	-12.0203
皆然	-12.0203
彼土	-12.0203
眾類	-12.0208
很可能是	-12.0209
或讚	-12.0211
殺子	-12.0213
等無間緣	-12.0214
的主體	-12.0216
大雲	-12.0216
六月	-12.0217
最後身	-12.0218
此下明	-12.0218
未始	-12.0219
彼諸有情	-12.022
良為	-12.0221
地水	-12.0222
不應住	-12.0224
真土	-12.0226
緣觸	-12.0227
修諸善	-12.0228
之嫌	-12.0229
方乃	-12.0232
幻人	-12.0232
二資糧	-12.0232
有五千	-12.0233
無慚	-12.0233
作障礙	-12.0235
定名為	-12.0235
德業	-12.0236
沒生	-12.0236
三濁	-12.0237
生滅滅	-12.024
掃除心	-12.0242
以下稱	-12.0243
mār	-12.0243
知音	-12.0244
879	-12.0245
初文二	-12.0248
類性	-12.0249
分德	-12.025
福德聚	-12.0251
言詞	-12.0252
何種	-12.0253
齊名	-12.0254
運心	-12.0255
汝師	-12.0255
如寶印	-12.0255
僧正	-12.0256
願母	-12.0256
心戒	-12.0256
現在諸佛	-12.0259
適合	-12.026
治生	-12.026
對像	-12.026
後五百	-12.0262
涅槃樂	-12.0262
妙門	-12.0264
則壞	-12.0264
關中	-12.0266
現蓋	-12.0266
歸來	-12.0267
地獄王	-12.0269
塵境	-12.0269
千子	-12.027
強大	-12.0271
前既	-12.0272
作梵	-12.0281
出無量	-12.0281
無餘涅槃	-12.0283
皆隨喜	-12.0285
便著	-12.0287
出家後	-12.0287
其福德	-12.0289
密法	-12.0291
見有人	-12.0292
琉璃地	-12.0294
隨次	-12.0295
須以	-12.0296
為鈍根	-12.0296
所從來	-12.0297
所疑	-12.0302
為奴婢	-12.0302
昔經	-12.0309
不相等	-12.031
名為解脫	-12.031
諸佛盡	-12.031
lok	-12.0312
至尊	-12.0312
造化	-12.0314
主意	-12.0315
隨分	-12.0316
可看	-12.0316
六親	-12.0317
園中	-12.0317
海眾	-12.0318
印文	-12.0322
873	-12.0323
加持菩薩	-12.0324
即哩	-12.0324
所畫	-12.0327
四十四	-12.0327
妙智	-12.0328
上士	-12.0328
功德日	-12.0328
188	-12.033
不受人	-12.033
觸犯	-12.033
喻破	-12.0331
變成了	-12.0333
將顯	-12.0335
七重	-12.0335
有梵王	-12.0344
唯取	-12.0346
失其所	-12.0346
觀慧	-12.0347
童子下	-12.0349
有三義	-12.0351
清淨慧	-12.0352
大施主	-12.0352
三科	-12.0354
稱意	-12.0354
障難	-12.0356
最早	-12.0357
隨文	-12.0357
所積集	-12.0358
是身為	-12.0358
持淨戒	-12.0358
另二	-12.0359
卑賤	-12.0362
真境	-12.0362
性水	-12.0368
我自己	-12.0371
能愈	-12.0371
實無有	-12.0373
色無色	-12.0376
en	-12.0382
及乘	-12.0383
詣佛所	-12.0386
必由	-12.0386
立教	-12.0386
始行	-12.0386
有廢	-12.0389
將兩	-12.0389
遠道	-12.039
三畫	-12.039
娑羅樹	-12.0392
道理有	-12.0392
aṃ	-12.0393
帶回	-12.0395
菩提之妙	-12.0395
應勤修	-12.0396
可使	-12.04
不淫	-12.04
又有三	-12.0401
552	-12.0402
舉起	-12.0407
面見	-12.0408
既立	-12.0408
貴人	-12.041
三際	-12.0412
再見	-12.0413
為佛弟子	-12.0413
得無生	-12.0415
三身佛	-12.042
成無上道	-12.0421
雜行	-12.0421
稱頌	-12.0424
mi	-12.0429
澄清	-12.0429
於大海	-12.0431
心不安	-12.0432
讚我	-12.0436
盡無餘	-12.0437
懂得	-12.0438
七難	-12.0438
十歲	-12.0439
經文正文	-12.0441
施給	-12.0441
當持	-12.0441
人頭	-12.0442
不放	-12.0444
走過	-12.0444
萬二千	-12.0448
所得法	-12.0449
能生果	-12.0453
俱知	-12.0454
眾具	-12.0454
手足等	-12.0455
王國	-12.0455
十五卷	-12.0459
勝事	-12.046
生盲之	-12.0464
高宗	-12.0466
入於佛	-12.0469
唯觀	-12.0474
文六	-12.0475
土中	-12.0478
至耳	-12.0481
30.	-12.0483
如果不	-12.0487
五逆罪	-12.049
一部是	-12.0492
寶山	-12.0494
若謂彼	-12.0495
把她	-12.0497
得好	-12.0498
是境界有對	-12.05
更受	-12.0501
決心	-12.0506
魔佛	-12.0507
寺中	-12.0507
寺主	-12.0507
當時佛教	-12.051
聖果	-12.051
真是菩薩	-12.051
除一切苦	-12.0511
論語	-12.0515
僧尼	-12.0524
雖樂	-12.0525
城人	-12.0525
落在	-12.0526
師徒	-12.0527
內世間出世間兩階人發菩提心同異法	-12.0529
香焚	-12.0529
五母	-12.0529
無色中	-12.053
一切父母	-12.0534
名無記	-12.0535
當云何	-12.0535
個文獻	-12.0536
已經被	-12.0538
並不是	-12.0542
的證據	-12.0545
(17	-12.0548
輪等	-12.0551
正覺的誓言	-12.0553
若有所	-12.0554
▁8	-12.0554
凡夫及	-12.0558
所傷	-12.0559
妄相	-12.0563
應聲	-12.0564
碎為	-12.0566
正勤	-12.0568
報恩心	-12.0568
孔流	-12.0569
惡聲	-12.0571
受命	-12.0572
的偈頌	-12.0573
之雨	-12.0574
名執	-12.0577
的譯者	-12.0577
非諦實	-12.0582
此比	-12.0582
終身	-12.0583
不遂	-12.0584
於無我	-12.0587
擁有	-12.0589
即告	-12.0591
大略	-12.0592
多求	-12.0593
主體	-12.0594
照地	-12.0595
為他人	-12.0599
不應貪	-12.06
(18	-12.0601
出還	-12.0605
方所	-12.0606
性海	-12.0609
見癡	-12.0609
修治	-12.0609
清淨道	-12.0611
▁密	-12.0612
淨眼	-12.0612
亦無常	-12.0617
後漢	-12.0619
第三品	-12.0622
他們說	-12.0622
眼開	-12.0622
千人	-12.0622
捨受	-12.0623
337	-12.0631
vad	-12.0634
下去	-12.0636
莫起	-12.0638
千卷	-12.0639
文物	-12.0639
超於	-12.064
菩薩爾時	-12.0641
明清	-12.0642
遍身	-12.0644
迎送	-12.0645
的辦法	-12.0646
世間之人	-12.0646
求正覺的	-12.0648
破除	-12.0648
解去	-12.0655
天台教典是	-12.0656
是三昧	-12.0659
充分	-12.066
始生	-12.0664
的紙張	-12.0674
的全文	-12.0675
此二人	-12.068
千金	-12.0682
二者生	-12.0682
有首題	-12.0684
不續	-12.0685
隨後	-12.0688
此非我	-12.0692
為他所	-12.0695
五德	-12.0704
間斷	-12.0704
若無人	-12.0705
月在	-12.0706
所施	-12.0711
捨離諸	-12.0712
觀己	-12.0716
餘有情	-12.0717
行大慈	-12.0727
會大眾	-12.0731
迦葉佛	-12.0736
兩倍	-12.0744
這幾	-12.0756
著文字	-12.0757
舊錄	-12.0758
中息	-12.0758
不觀待	-12.0766
名題	-12.0767
64	-12.0769
□□□□□□□□□□□□	-12.0769
右繞	-12.0773
26.	-12.0776
譯人	-12.078
沒有了	-12.0787
盡斷	-12.0793
隨世	-12.0796
情行	-12.0796
的享樂	-12.0806
諦實之	-12.0815
行直心	-12.0823
如瓶	-12.0825
是按照	-12.083
128	-12.0832
汝何不	-12.0832
同虛空	-12.0834
dhika	-12.0836
制教	-12.0839
在流傳	-12.0841
心陀羅尼	-12.0843
道世	-12.0855
證無上菩提	-12.0857
是一邊	-12.0861
所知境	-12.0863
善安住	-12.0869
爾時維摩詰語	-12.087
通過對	-12.0872
若人皈依	-12.0874
的譯經	-12.0877
法塵	-12.0878
慧學	-12.0881
於相續	-12.0882
不休息	-12.0883
甘露法	-12.0884
迴心	-12.0886
無漏心	-12.0886
is	-12.0898
本文獻是	-12.0905
無惱	-12.0909
莫見	-12.0922
aś	-12.0923
能作損害	-12.0925
妙好	-12.0928
在日本	-12.0928
272	-12.093
爾時應	-12.0936
總名	-12.094
不見佛	-12.094
愛欲	-12.0946
大梵天王	-12.0949
(14	-12.0952
明唱	-12.0953
中有相	-12.0955
禮義	-12.0964
即無明	-12.0966
愛護	-12.0968
從現存	-12.0969
能損	-12.097
遍入	-12.0972
可以知道	-12.0972
原意	-12.0976
主僧	-12.0978
難解	-12.0979
應思維	-12.098
大用	-12.0983
願成就	-12.0983
餘五	-12.0987
面向	-12.0992
種修習	-12.0994
爾時世尊告	-12.0994
本是一	-12.0999
輪迴苦	-12.1021
抄寫年代	-12.1027
寂滅為	-12.1028
個問題	-12.1032
部類	-12.1033
燦爛	-12.104
普光菩薩	-12.1044
不應起	-12.1048
大威德	-12.1065
乞叉	-12.1071
上述資料	-12.1073
雲影	-12.1076
無動如來	-12.1079
得作佛	-12.1081
所有沙數	-12.1085
咒力	-12.1097
是諸恒河	-12.1102
8～	-12.1108
汝等當	-12.1111
諸苦惱	-12.1112
問題上	-12.1117
能變	-12.1117
婆娑	-12.1129
幾部	-12.1129
法城	-12.1135
味受	-12.1138
果頭無	-12.1141
遮羅	-12.1148
無有法得阿耨多羅三藐三菩提	-12.1148
非情	-12.115
拙著	-12.1152
色力	-12.1157
三乘人	-12.1157
×3	-12.1162
編入	-12.1175
她看著	-12.1177
現藏	-12.1183
一瞬間	-12.1184
虛度	-12.1193
不相續	-12.1197
彌陀佛	-12.1212
白豪中	-12.1215
ebhy	-12.1226
是明闇	-12.1227
心靜	-12.1228
ram	-12.1236
佛教學	-12.1249
中國人所撰佛教	-12.1253
能受用	-12.1257
664	-12.1259
要論	-12.127
於彼不應	-12.1273
的福利而	-12.1275
聖母	-12.1277
āvar	-12.1279
無得無	-12.1282
均是	-12.1282
教目錄	-12.1289
對阿吒力教	-12.129
能見色	-12.1291
諸餓鬼	-12.1294
自家	-12.1305
品文	-12.1314
德行的	-12.1316
一百二十	-12.1324
此座	-12.1326
竟有何	-12.1326
隨其所	-12.1333
於何時	-12.1335
極樂國	-12.1337
波羅密	-12.134
君王	-12.1342
善現	-12.1346
違理	-12.1371
者不詳	-12.1371
雲飛	-12.1372
而來的	-12.1373
過之後	-12.1373
寶網	-12.1378
自在義	-12.138
盡所有	-12.1385
疆	-12.1388
說一合相	-12.139
啟導	-12.1392
:「19	-12.1394
水澄	-12.1402
利眾生	-12.1406
贍部洲的	-12.1413
受諸苦	-12.1419
。102	-12.1425
這件事	-12.1437
忍之	-12.1442
充遍	-12.1443
sama	-12.1443
增壽	-12.1444
縱廣	-12.1447
能知之	-12.1452
95	-12.1452
能拔	-12.146
彼於自身注意觀察	-12.1463
再生族	-12.1464
九齋	-12.1471
彼於自身他身兼顧注意觀察	-12.1472
大因緣	-12.1481
不住於	-12.1481
無取無	-12.1483
卻沒有	-12.1485
一明欲	-12.1488
寂滅無	-12.1492
淨香壇	-12.1493
留下	-12.1499
羅耶	-12.1508
菩薩乘	-12.1509
於此世	-12.151
身平等	-12.1512
欲發菩提	-12.1517
逆罪	-12.1518
誦出的	-12.1518
編輯	-12.1519
插	-12.1522
無像	-12.1525
福智	-12.1525
金剛寶	-12.1528
南無佛陀	-12.153
行六波羅蜜	-12.1536
伏惑	-12.1544
第三群	-12.1549
千般	-12.1555
閻	-12.1565
意識界	-12.1571
掃除	-12.1572
五百比丘	-12.1578
憂患	-12.1584
特色	-12.1585
宮住神	-12.1591
吝	-12.1594
高廣	-12.16
理論的	-12.16
ṅ	-12.1604
半葉	-12.161
能至心	-12.161
極多	-12.1613
如大師	-12.1613
歡喜園	-12.1617
月日	-12.1621
浴池	-12.1622
億那由他	-12.163
帝網	-12.1635
分十一	-12.1638
毫無疑問	-12.1642
典主	-12.1642
開壇	-12.1642
六十二	-12.1644
之所作	-12.1644
不乖	-12.1649
非善法	-12.1651
三十三	-12.1652
的疑偽經	-12.1655
解義不同	-12.1659
畢竟不生	-12.1661
而未嘗	-12.1663
dravy	-12.1671
德無邊	-12.1678
可忘	-12.1679
最好	-12.1685
西域記	-12.1685
豎宗立教	-12.1686
懺罪	-12.1692
空生聞	-12.1696
1010	-12.1701
亦寧	-12.1704
退轉	-12.1719
人天果	-12.1733
讀經	-12.1735
865	-12.1737
便把	-12.1738
皆發無上正真道意	-12.1741
不相待	-12.1749
ath	-12.1753
花嚴	-12.1754
我若向	-12.1756
無論是	-12.176
三千界內	-12.176
行了禮	-12.1771
證解脫	-12.1776
慈覺頌	-12.1779
正思	-12.1781
頓除	-12.1782
拈提	-12.1791
燃燒著	-12.1793
解結真言	-12.1801
皈依佛	-12.1801
602	-12.1803
諸冤	-12.1807
ākāśa	-12.181
與他人	-12.1813
邪境	-12.1818
害母	-12.1818
當墮	-12.1834
本來空	-12.1838
其所欲	-12.1841
im	-12.1849
形成了	-12.1854
忉利	-12.1856
非恒有	-12.1857
愛網	-12.1859
鐵床	-12.186
觀因緣	-12.1862
濡濕	-12.1865
十匝	-12.1866
持火燒之	-12.1866
禮懺文	-12.1867
入一相門	-12.1867
緣聚會	-12.1868
談到	-12.187
悲憫	-12.1871
鐘	-12.1871
方便智所緣	-12.1871
錯謬	-12.1871
▁jīv	-12.1875
結歎	-12.1875
是皆不能	-12.1877
曀	-12.1877
持正法	-12.1877
七層	-12.1877
這段話	-12.1877
安國	-12.1879
爾時阿難	-12.188
清信女	-12.188
鬻	-12.1881
獷	-12.1882
捧足	-12.1884
萬字	-12.1885
摶食	-12.1885
陷阱	-12.1885
燋爛	-12.1887
疣	-12.1887
心生重悔	-12.1888
晏坐	-12.1889
四蘊性故	-12.189
與我授記	-12.1891
憑神咒	-12.1891
四十里	-12.1892
說偈嘆佛	-12.1892
閃麼	-12.1892
di	-12.1892
遍照	-12.1893
出五色光明	-12.1893
天中天	-12.1893
如白頗	-12.1893
無得無證	-12.1893
暑	-12.1894
膚	-12.1895
互為配紙	-12.1895
蓋瓦扎	-12.1895
以相收體	-12.1895
發起序	-12.1895
日本學者	-12.1896
護世	-12.1896
箱	-12.1896
菴羅	-12.1896
有利於	-12.1896
岳	-12.1896
梟	-12.1896
齡	-12.1897
嫁	-12.1897
有十四色	-12.1897
住不可思議解脫菩薩	-12.1897
毫不	-12.1898
非想非非想天	-12.1898
解空第一	-12.1898
孔雀色無	-12.1898
聰	-12.1899
尊敬的	-12.1899
虛凝	-12.19
西國語	-12.19
高七多羅樹	-12.19
或有一類	-12.19
中國僧人所撰	-12.19
病則致其憂	-12.1901
外道六師	-12.1901
佛滅度後	-12.1901
喇	-12.1901
頓漸偏圓	-12.1901
襟	-12.1901
餘相應法	-12.1901
是此神王	-12.1901
淨度三昧	-12.1901
捨戒還俗	-12.1901
流布	-12.1901
楞嚴解冤釋結道場儀	-12.1901
我於世世	-12.1902
阿惟越致	-12.1902
墮阿鼻獄	-12.1902
眶	-12.1902
奮迅	-12.1903
翅	-12.1903
梵磨	-12.1903
上靡入於髮際	-12.1903
如融紫金光相	-12.1903
燈炬	-12.1903
行緣識	-12.1903
阿耨哆	-12.1903
寵	-12.1903
鷲峰	-12.1903
摩訶母捺	-12.1903
忉	-12.1903
寧夏	-12.1903
萬般	-12.1903
蔡	-12.1904
淪	-12.1904
泣淚	-12.1904
挖	-12.1904
消融	-12.1904
各各別異	-12.1904
靈山會上	-12.1904
因緣觀智	-12.1904
栂尾本	-12.1904
愆瑕	-12.1904
肚	-12.1904
儔	-12.1905
從生至生	-12.1905
無主攝持之	-12.1905
不認盲	-12.1905
車軸	-12.1905
疫	-12.1906
鬥諍	-12.1906
兇	-12.1906
衰退	-12.1907
善男信女	-12.1907
非想非非想處	-12.1907
寒凍	-12.1907
僻執	-12.1907
胡音	-12.1907
右脅	-12.1907
坐一面	-12.1908
觀經變	-12.1908
初地已上	-12.1908
解義趣	-12.1908
官主禁	-12.1908
燋	-12.1908
薄伽	-12.1908
佛如來足趺	-12.1909
627	-12.1909
桃	-12.1909
天人發無上正真道意	-12.1909
愛別離苦	-12.1909
鞭笞	-12.1909
豪強	-12.1909
禾	-12.1909
玷	-12.1909
貪婬	-12.1909
此為破戒者第	-12.1909
爾時屠兒	-12.191
所執持	-12.191
以體收緣	-12.191
綠	-12.191
菩薩摩訶莎	-12.191
喝散	-12.191
相好端嚴	-12.1911
輞	-12.1911
績	-12.1911
萬八千	-12.1911
為若此也	-12.1911
收因結果	-12.1911
青者勝青蓮	-12.1911
拋棄	-12.1912
疎	-12.1912
無明住地	-12.1912
佛說藥師灌頂	-12.1912
此十八界攝	-12.1912
今將密語	-12.1912
於身不應貪著	-12.1912
妙湛	-12.1913
有慧方便解	-12.1913
不動不出	-12.1913
應當勵力	-12.1913
請你告訴我	-12.1913
道成羅漢	-12.1913
鑑	-12.1913
無邊誓願	-12.1913
漂流	-12.1913
賷持	-12.1913
檀波羅蜜	-12.1913
。」「7、	-12.1914
天神真言	-12.1914
第一單元	-12.1914
韈	-12.1914
紅華金光	-12.1914
[...]
