<unk>	0
<s>	0
</s>	0
/	-3.61246
)	-4.10294
(	-4.12416
之	-4.31483
)(	-4.56185
以	-4.85833
丨丨	-4.94473
為	-4.98235
也	-5.02054
而	-5.03355
曰	-5.33808
有	-5.34741
者	-5.493
其	-5.50723
▁	-5.53307
於	-5.55164
丨	-5.66227
不	-5.7707
人	-5.79807
則	-5.88624
詩	-5.9001
一	-5.90696
上	-5.92223
子	-5.97439
與	-6.02809
中	-6.05671
王	-6.05929
大	-6.08045
見	-6.08254
無	-6.10003
自	-6.14536
下	-6.15825
時	-6.20121
至	-6.24189
傳	-6.26635
行	-6.27137
如	-6.29862
在	-6.3117
又	-6.31989
三	-6.37025
書	-6.37318
出	-6.37458
言	-6.37882
生	-6.39133
山	-6.40535
及	-6.42113
皆	-6.43735
故	-6.46152
事	-6.48002
所	-6.48435
乃	-6.49926
使	-6.50544
公	-6.51906
于	-6.51995
天	-6.52285
文	-6.53086
得	-6.55816
水	-6.56143
後	-6.58051
令	-6.60214
此	-6.61923
作	-6.63641
日	-6.64816
道	-6.64842
相	-6.66404
二	-6.69542
入	-6.70218
名	-6.7059
爲	-6.71275
長	-6.72687
云	-6.78737
若	-6.78828
多	-6.80786
是	-6.81041
明	-6.81901
用	-6.81928
成	-6.82088
五	-6.82326
將	-6.83016
矣	-6.83447
謂	-6.83873
官	-6.83976
同	-6.84119
帝	-6.84415
今	-6.84451
乎	-6.85567
馬	-6.86764
當	-6.87047
從	-6.8709
方	-6.8733
知	-6.87409
欲	-6.88294
正	-6.89403
國	-6.89615
非	-6.89847
石	-6.89947
君	-6.90062
金	-6.90314
可	-6.91393
風	-6.92354
地	-6.92429
四	-6.93862
亦	-6.95184
復	-6.95232
焉	-6.95355
白	-6.97219
元	-6.98068
命	-6.99225
因	-6.99592
重	-6.99766
禮	-7.00075
髙	-7.01393
州	-7.01509
平	-7.01808
張	-7.01985
李	-7.02036
丨丨丨	-7.02051
遂	-7.03287
然	-7.03429
前	-7.03765
居	-7.0398
立	-7.04063
已	-7.05102
歸	-7.05109
心	-7.05784
臣	-7.05797
門	-7.05843
等	-7.06265
即	-7.06479
南	-7.07858
周	-7.07922
常	-7.08114
食	-7.08618
必	-7.08955
漢	-7.10067
賦	-7.10182
陳	-7.1074
家	-7.11061
或	-7.11837
兵	-7.12097
唐	-7.1239
通	-7.12447
來	-7.12874
小	-7.13262
何	-7.13831
經	-7.1414
取	-7.14402
東	-7.14816
去	-7.14887
玉	-7.15367
民	-7.15745
初	-7.15769
聞	-7.1638
數	-7.16499
我	-7.165
法	-7.16616
安	-7.16916
先	-7.1773
城	-7.17825
雲	-7.18221
清	-7.18863
能	-7.19908
分	-7.20007
軍	-7.21079
未	-7.21258
春	-7.21749
樂	-7.22331
主	-7.22353
西	-7.22506
齊	-7.23262
注	-7.23749
善	-7.23856
雖	-7.24225
六	-7.24452
字	-7.24766
神	-7.24839
陽	-7.25511
光	-7.25638
和	-7.2611
九	-7.27573
月	-7.2759
晉	-7.2769
既	-7.27969
朝	-7.28036
士	-7.30058
舉	-7.30222
師	-7.3026
諸	-7.30545
請	-7.30637
過	-7.30653
本	-7.3066
起	-7.30729
合	-7.30951
北	-7.31153
夫	-7.31179
内	-7.31458
盡	-7.31776
置	-7.3182
又曰	-7.32087
始	-7.32092
問	-7.32751
花	-7.33187
處	-7.33673
劉	-7.33754
義	-7.33832
還	-7.3424
徳	-7.34257
思	-7.34326
逺	-7.34539
氣	-7.34785
外	-7.35637
氏	-7.35945
易	-7.36362
守	-7.36815
黄	-7.36914
龍	-7.3715
死	-7.37503
車	-7.37581
深	-7.37775
觀	-7.38218
身	-7.38281
衣	-7.38548
封	-7.38624
聲	-7.38935
服	-7.393
宋	-7.39362
世	-7.39584
史	-7.40108
發	-7.40594
吾	-7.40753
以為	-7.40837
進	-7.4094
惟	-7.4133
志	-7.4142
實	-7.41584
物	-7.41789
梁	-7.42331
宜	-7.42816
天下	-7.43536
耳	-7.44289
新	-7.44339
酒	-7.44723
年	-7.44954
開	-7.45722
稱	-7.45745
兩	-7.4578
少	-7.45871
夜	-7.46527
學	-7.4673
求	-7.47081
制	-7.47139
古	-7.47146
流	-7.47575
賜	-7.47858
華	-7.48037
女	-7.48109
論	-7.48743
縣	-7.49048
記	-7.49166
並	-7.49265
詔	-7.49894
直	-7.50071
節	-7.50322
武	-7.50461
坐	-7.50491
望	-7.50814
猶	-7.51306
木	-7.51391
定	-7.51573
好	-7.51802
應	-7.52048
度	-7.52339
田	-7.52602
且	-7.52903
秋	-7.54001
飛	-7.54004
青	-7.54541
衆	-7.54605
秦	-7.54858
受	-7.55326
色	-7.55676
意	-7.5572
㑹	-7.56174
興	-7.56675
八	-7.5695
宫	-7.57179
十	-7.57486
奏	-7.57534
治	-7.57566
江	-7.57862
侯	-7.58064
廣	-7.58071
郡	-7.58342
嘗	-7.59075
火	-7.59435
拜	-7.5957
親	-7.59663
魏	-7.5999
集	-7.60594
甚	-7.60783
間	-7.61
土	-7.6107
難	-7.61075
府	-7.61138
七	-7.61729
尚	-7.62249
魚	-7.62373
父	-7.63412
異	-7.64437
信	-7.64586
送	-7.64892
理	-7.64986
任	-7.6562
草	-7.65645
樹	-7.65882
不能	-7.66132
左	-7.6686
丨丨丨丨	-7.67271
都	-7.67501
凡	-7.67597
加	-7.67805
更	-7.67811
表	-7.67969
獨	-7.67999
不可	-7.68035
老	-7.68923
趙	-7.69281
路	-7.69501
卿	-7.69528
語	-7.69587
客	-7.70213
各	-7.70607
林	-7.70755
頭	-7.70786
兮	-7.70831
寒	-7.71286
獻	-7.71728
香	-7.72125
口	-7.72512
河	-7.73023
絶	-7.73166
錢	-7.73569
共	-7.73757
屬	-7.73795
司	-7.74081
反	-7.74295
引	-7.74476
夏	-7.74534
辭	-7.74595
伯	-7.74704
奉	-7.75122
吏	-7.75696
海	-7.7589
臨	-7.75943
舊	-7.76024
修	-7.76412
楚	-7.76627
靈	-7.7668
素	-7.7669
登	-7.77327
卒	-7.77516
雨	-7.7802
母	-7.78328
象	-7.79204
百	-7.79562
著	-7.79636
星	-7.79708
遷	-7.79874
景	-7.79957
足	-7.80275
謂之	-7.80363
歌	-7.80483
兼	-7.80574
遣	-7.80774
位	-7.80896
利	-7.80973
建	-7.81213
便	-7.81238
宗	-7.81986
餘	-7.8212
載	-7.82272
除	-7.82621
音	-7.82715
政	-7.8284
對	-7.82858
隂	-7.82863
動	-7.83008
别	-7.83366
失	-7.8364
輕	-7.83935
貴	-7.83947
功	-7.84145
賢	-7.843
殺	-7.85071
降	-7.8516
德	-7.8538
萬	-7.85432
近	-7.85842
亂	-7.85889
許	-7.85972
遊	-7.861
紀	-7.86268
終	-7.86499
固	-7.86631
賊	-7.8722
楊	-7.87235
代	-7.87679
授	-7.87705
每	-7.87718
致	-7.88089
止	-7.88271
益	-7.88322
次	-7.88397
竹	-7.8854
首	-7.88604
孫	-7.88957
空	-7.89008
章	-7.89092
牛	-7.89424
似	-7.89453
臺	-7.89967
▁(	-7.90011
御	-7.9006
所以	-7.90114
哉	-7.90255
比	-7.90273
改	-7.90532
謝	-7.90548
執	-7.90589
美	-7.90595
原	-7.90641
朱	-7.90645
鄭	-7.90751
葉	-7.9098
掌	-7.90988
視	-7.91006
布	-7.92161
聖	-7.92223
圖	-7.92696
曲	-7.93075
號	-7.93116
宣	-7.93269
隨	-7.93484
性	-7.94052
連	-7.94134
議	-7.94195
不得	-7.94427
敬	-7.94466
而不	-7.94607
天子	-7.94672
盛	-7.94936
勝	-7.95018
交	-7.95239
體	-7.95401
解	-7.95668
冠	-7.95769
爾	-7.95801
力	-7.96011
陵	-7.96115
仁	-7.96352
祖	-7.96388
詩丨丨	-7.96542
就	-7.96676
畫	-7.96759
殿	-7.96782
化	-7.96867
極	-7.97341
目	-7.97374
省	-7.9772
韓	-7.98046
變	-7.98487
召	-7.98541
設	-7.98651
情	-7.98652
紅	-7.98747
燕	-7.98753
疾	-7.98769
列	-7.99011
亡	-7.99637
詳	-7.99713
飲	-7.99883
高	-7.99922
具	-8.00132
率	-8.00267
祭	-8.00321
右	-8.00371
真	-8.00428
懐	-8.01164
戰	-8.01327
承	-8.016
部	-8.02155
胡	-8.02711
精	-8.0281
惡	-8.03047
容	-8.03522
室	-8.03706
赤	-8.03798
崇	-8.03944
野	-8.04033
破	-8.04114
莫	-8.04165
向	-8.04666
鳥	-8.05222
散	-8.05232
備	-8.05332
才	-8.05375
俱	-8.05669
吳	-8.06063
留	-8.06241
告	-8.06821
乗	-8.0691
被	-8.07379
手	-8.07405
典	-8.07611
轉	-8.07702
虎	-8.07707
持	-8.08127
寄	-8.08169
果	-8.08422
落	-8.08479
遺	-8.08731
滿	-8.09118
𤣥	-8.0913
将	-8.09194
遇	-8.09212
病	-8.0936
昭	-8.09384
珠	-8.09537
造	-8.09589
計	-8.09819
左右	-8.09994
形	-8.10121
説	-8.10282
杜	-8.10291
往	-8.10467
泉	-8.10596
喜	-8.10804
堂	-8.10805
曹	-8.11246
垂	-8.11293
結	-8.11334
教	-8.11506
羣	-8.11687
伏	-8.11697
徐	-8.11836
幸	-8.12072
良	-8.12482
權	-8.12786
寳	-8.12808
職	-8.12905
越	-8.12986
孝	-8.13057
鳴	-8.1307
𫝊	-8.13241
選	-8.13386
羅	-8.134
嚴	-8.13439
尊	-8.13556
彼	-8.1376
威	-8.13852
衛	-8.13876
里	-8.14054
簡	-8.14293
宿	-8.14331
増	-8.14433
於是	-8.14481
仙	-8.14557
尚書	-8.14719
指	-8.1473
紫	-8.1494
要	-8.15625
后	-8.15626
收	-8.15732
嵗	-8.15844
悉	-8.15944
丹	-8.15985
射	-8.16036
謀	-8.16368
廢	-8.16463
積	-8.1664
太	-8.1672
顧	-8.16737
擊	-8.16834
藏	-8.17022
延	-8.17439
厚	-8.17634
養	-8.18363
市	-8.18547
舞	-8.18908
池	-8.19072
半	-8.19329
郎	-8.19374
澤	-8.1956
皇	-8.19772
離	-8.19934
雪	-8.20023
廟	-8.20133
薄	-8.2035
魯	-8.20706
誠	-8.20813
但	-8.20853
豈	-8.20936
諸侯	-8.21043
角	-8.21162
種	-8.21222
寧	-8.21279
汝	-8.21471
器	-8.21507
儀	-8.21819
濟	-8.21833
詩曰	-8.2198
序	-8.22235
斷	-8.22243
太守	-8.2234
雜	-8.22344
三年	-8.22516
贈	-8.22963
業	-8.22965
夢	-8.23251
忠	-8.23606
順	-8.23708
罪	-8.23789
帶	-8.24521
微	-8.24743
禁	-8.25146
切	-8.25174
聽	-8.25233
將軍	-8.25252
攻	-8.25417
恩	-8.25555
愛	-8.25643
孤	-8.25685
咸	-8.26015
說	-8.26074
營	-8.26273
大夫	-8.26342
孔	-8.26441
永	-8.26534
納	-8.26787
領	-8.26982
疑	-8.27071
叔	-8.27181
賞	-8.27287
尋	-8.27416
蓋	-8.27486
疏	-8.27494
太子	-8.27593
羊	-8.27739
休	-8.27803
斯	-8.27885
刑	-8.27894
昔	-8.27897
嘉	-8.28101
寺	-8.28113
窮	-8.2828
依	-8.28387
補	-8.28469
榮	-8.28699
千	-8.28992
露	-8.28993
唯	-8.29288
▁又	-8.2945
伐	-8.29569
録	-8.2999
試	-8.30137
由	-8.30361
負	-8.30688
苦	-8.30834
願	-8.31004
邑	-8.31065
適	-8.31279
感	-8.31362
春秋	-8.31511
可以	-8.31669
罷	-8.31708
充	-8.31902
推	-8.31979
陸	-8.32029
松	-8.32174
敗	-8.32413
枝	-8.32486
俗	-8.32579
勞	-8.32618
冬	-8.32847
毛	-8.3312
考	-8.3314
邊	-8.33237
并	-8.33285
移	-8.33344
妻	-8.33607
識	-8.33686
期	-8.33879
薦	-8.34053
仲	-8.34099
據	-8.34105
恐	-8.3412
類	-8.34446
闕	-8.34515
鎮	-8.34536
放	-8.34634
庭	-8.3468
太祖	-8.34832
徒	-8.34866
亭	-8.34988
騎	-8.35156
質	-8.35176
浮	-8.35187
給	-8.35204
慶	-8.35694
施	-8.35732
顯	-8.35884
樓	-8.35932
到	-8.35991
竒	-8.36169
退	-8.36259
烏	-8.36264
游	-8.36286
折	-8.36292
鄉	-8.36387
運	-8.3639
商	-8.3677
傷	-8.36912
篇	-8.37009
附	-8.37163
存	-8.37233
久	-8.37446
達	-8.37456
僧	-8.37546
来	-8.37611
甲	-8.37624
羽	-8.37677
弟	-8.37794
郭	-8.37806
筆	-8.37887
題	-8.37921
崔	-8.37953
蜀	-8.38052
末	-8.3819
幽	-8.3827
兒	-8.38315
谷	-8.38414
升	-8.38429
照	-8.38776
卷	-8.38919
井	-8.39177
私	-8.39238
不知	-8.39334
驚	-8.39569
川	-8.39771
鼓	-8.39828
按	-8.3985
舍	-8.39867
之所	-8.40163
祀	-8.40425
端	-8.40542
特	-8.40585
百姓	-8.40641
溪	-8.40737
怒	-8.41156
全	-8.41177
報	-8.4128
昌	-8.41646
覆	-8.42278
温	-8.42355
履	-8.42356
姓	-8.42393
歴	-8.42502
陛下	-8.4287
資	-8.42884
者也	-8.43182
務	-8.432
忽	-8.43582
律	-8.43611
不敢	-8.43779
申	-8.43816
呼	-8.43977
調	-8.44062
二年	-8.44062
獲	-8.44292
丘	-8.44296
塞	-8.44305
監	-8.44404
揚	-8.44479
夷	-8.44515
盖	-8.4459
面	-8.44643
迎	-8.44651
追	-8.44693
虞	-8.44751
孟	-8.44765
約	-8.4481
參	-8.45027
走	-8.4535
智	-8.45405
户	-8.45877
沈	-8.45898
横	-8.46278
一人	-8.46492
息	-8.4719
惠	-8.47192
賀	-8.47217
保	-8.47308
工	-8.47319
含	-8.47423
詞	-8.47459
龜	-8.4749
宅	-8.47654
君子	-8.47676
呉	-8.47701
英	-8.47709
勢	-8.47826
符	-8.47888
急	-8.48075
盧	-8.4808
雄	-8.48148
婦	-8.48233
接	-8.48257
邪	-8.48318
船	-8.48347
管	-8.48542
之後	-8.48574
席	-8.48602
秀	-8.48653
憂	-8.48698
克	-8.48809
畢	-8.48862
哀	-8.49206
宴	-8.49246
藥	-8.49284
蘭	-8.4934
細	-8.4938
髙祖	-8.49421
敵	-8.49427
閣	-8.49817
班	-8.50343
投	-8.50696
雅	-8.51285
舟	-8.5138
博	-8.51525
醉	-8.51575
堅	-8.51744
待	-8.51749
韋	-8.51853
沙	-8.51955
州刺史	-8.5203
誅	-8.52655
免	-8.52713
漢書	-8.52759
滅	-8.5281
再	-8.53022
虚	-8.53106
須	-8.53137
所謂	-8.53394
聚	-8.53458
殷	-8.53524
唐書	-8.53615
詣	-8.53765
霜	-8.53776
房	-8.53988
耶	-8.54023
如此	-8.54578
棄	-8.54613
乘	-8.54647
園	-8.54679
雙	-8.54723
逐	-8.54743
圍	-8.54869
豐	-8.54933
懼	-8.55164
錦	-8.55205
洞	-8.55441
元年	-8.55677
隋	-8.55909
戎	-8.56044
十二	-8.56144
乾	-8.56251
恭	-8.56256
訓	-8.57014
懸	-8.57016
懷	-8.57022
衡	-8.57069
根	-8.57221
察	-8.57334
朕	-8.57416
采	-8.57686
爵	-8.57918
總	-8.58041
奔	-8.58071
候	-8.58106
怨	-8.5814
仍	-8.58556
祠	-8.58637
蘇	-8.58743
𢎞	-8.58783
吉	-8.5895
波	-8.59319
肉	-8.59341
福	-8.59475
統	-8.59546
翼	-8.59563
季	-8.59569
累	-8.59697
笑	-8.5971
塵	-8.59741
條	-8.59834
戒	-8.59894
隆	-8.60099
蕭	-8.60113
委	-8.60141
危	-8.60155
曰吾	-8.60203
骨	-8.60452
影	-8.6065
屋	-8.60872
太宗	-8.61017
而已	-8.61025
銅	-8.61047
翠	-8.61149
銀	-8.61207
厯	-8.6126
禹	-8.61408
絲	-8.61477
曉	-8.61574
院	-8.61602
假	-8.61697
釋	-8.61713
司馬	-8.61731
闗	-8.61736
天地	-8.61929
毎	-8.62005
朝廷	-8.6208
武帝	-8.6232
第	-8.62345
賈	-8.62356
寶	-8.62423
辨	-8.62705
歩	-8.62904
雞	-8.62933
富	-8.63293
爭	-8.63314
逆	-8.63742
湖	-8.63866
孔子	-8.63969
蒙	-8.63982
習	-8.6412
刀	-8.64203
辟	-8.64222
赴	-8.64314
甘	-8.64347
佛	-8.64448
機	-8.64694
康	-8.64828
關	-8.64833
征	-8.64931
宰相	-8.64953
侍	-8.65049
米	-8.65176
䇿	-8.65245
晉書	-8.65256
徴	-8.65369
尾	-8.65543
徃	-8.6586
駕	-8.66422
殊	-8.6644
寵	-8.66451
之間	-8.66606
墨	-8.66864
牧	-8.66932
念	-8.67046
栁	-8.6726
麗	-8.67364
案	-8.67398
鶴	-8.67504
繼	-8.67506
友	-8.67549
籍	-8.68297
振	-8.68297
緑	-8.68362
芳	-8.68393
飾	-8.68473
一名	-8.68825
兄	-8.69083
乞	-8.69131
是以	-8.69356
隠	-8.69403
茂	-8.69496
刻	-8.69756
品	-8.69771
皮	-8.69873
熟	-8.70363
宻	-8.70413
覺	-8.70526
郊	-8.70614
頗	-8.70784
嗣	-8.7079
詠	-8.70794
鼎	-8.7084
予	-8.71008
徙	-8.71047
盤	-8.71055
背	-8.71105
鹽	-8.71128
隱	-8.71288
示	-8.7133
橋	-8.71445
鳯	-8.71497
勿	-8.7212
夫人	-8.72218
丁	-8.72236
狀	-8.7228
討	-8.72462
黒	-8.72504
讓	-8.72527
害	-8.72639
役	-8.727
獸	-8.72783
却	-8.72786
葢	-8.72837
歲	-8.73114
京師	-8.73155
亮	-8.73668
刺	-8.73771
仰	-8.73842
後漢書	-8.73863
强	-8.73978
然後	-8.74232
碧	-8.74243
杖	-8.74247
貞	-8.7433
鹿	-8.74337
量	-8.74529
史記	-8.74594
漸	-8.74599
京	-8.74657
後漢	-8.7481
尤	-8.75086
縱	-8.75123
畏	-8.7527
式	-8.75348
慮	-8.75425
先生	-8.75633
茶	-8.75707
肅	-8.75746
對曰	-8.75781
阿	-8.76188
佐	-8.76212
貢	-8.76234
讀	-8.76237
敢	-8.76303
雷	-8.76337
一日	-8.76375
均	-8.76432
桑	-8.76492
暴	-8.76574
淵	-8.76743
無所	-8.76819
粟	-8.76837
弓	-8.77333
屈	-8.77339
千里	-8.77386
襲	-8.77455
差	-8.77502
早	-8.77513
族	-8.77635
犯	-8.77821
誰	-8.77824
朔	-8.77965
脩	-8.78151
逸	-8.78162
操	-8.78201
至於	-8.78566
曰此	-8.78677
索	-8.78695
湯	-8.78726
夕	-8.78755
屯	-8.7878
短	-8.78803
獄	-8.79059
震	-8.79126
琴	-8.79248
味	-8.79474
壁	-8.79526
弱	-8.79556
范	-8.79569
齋	-8.79574
貫	-8.79662
避	-8.7968
巖	-8.79783
儒	-8.79835
之事	-8.79858
馳	-8.79869
館	-8.7997
徵	-8.80199
泰	-8.80388
最	-8.80541
憲	-8.80593
鏡	-8.80648
不足	-8.80666
蔡	-8.80688
洪	-8.80847
兄弟	-8.80891
曽	-8.81004
周禮	-8.81027
愈	-8.8107
專	-8.81301
農	-8.81446
夀	-8.81537
為之	-8.81558
責	-8.81702
荒	-8.81944
宮	-8.82038
盈	-8.82062
喪	-8.82233
環	-8.82366
勸	-8.82391
階	-8.8249
顔	-8.82673
輔	-8.82702
况	-8.82815
署	-8.83033
莊	-8.83079
賔	-8.83141
畧	-8.83195
撫	-8.83197
旗	-8.83375
回	-8.83521
幾	-8.83889
弗	-8.8405
鳳	-8.84054
庶	-8.84058
支	-8.84073
鬼	-8.84073
煙	-8.8409
斬	-8.84099
印	-8.84341
社	-8.84667
悲	-8.84681
徑	-8.8473
傾	-8.84742
術	-8.8476
梅	-8.84948
齒	-8.84967
救	-8.85199
余	-8.85241
維	-8.85284
植	-8.85292
斗	-8.85402
堯	-8.85436
帥	-8.85605
陶	-8.85823
妙	-8.85913
他	-8.85939
寛	-8.8596
啓	-8.85967
密	-8.86033
扵	-8.86305
干	-8.86582
戴	-8.86634
洛	-8.86642
戲	-8.86772
蛇	-8.86926
渠	-8.86987
輿	-8.87006
傅	-8.87199
不如	-8.87216
繁	-8.87258
舒	-8.87306
苑	-8.87343
二人	-8.87419
革	-8.87429
瑞	-8.87586
長安	-8.87633
允	-8.87719
頌	-8.87724
違	-8.8773
舜	-8.87731
尹	-8.87922
增	-8.88009
衰	-8.88029
丞相	-8.88056
勤	-8.88091
謹	-8.88208
聖人	-8.88495
源	-8.88502
凝	-8.88607
患	-8.8871
抱	-8.88749
而後	-8.88974
裴	-8.89012
財	-8.89013
諫	-8.8902
看	-8.89025
規	-8.89041
人也	-8.89111
輒	-8.89157
逹	-8.89282
蒲	-8.89559
超	-8.8967
眀	-8.89691
述	-8.89777
奴	-8.89841
鍾	-8.89935
會	-8.89995
程	-8.90291
招	-8.90428
陰	-8.90517
續	-8.90662
厥	-8.90737
左傳	-8.9078
材	-8.90876
逢	-8.90904
稍	-8.91188
柱	-8.91255
錫	-8.91303
日月	-8.91317
㣲	-8.91501
答	-8.91517
皇帝	-8.91525
薛	-8.91526
談	-8.91933
忘	-8.91935
鴻	-8.9203
榖	-8.9221
覽	-8.92236
泥	-8.92425
助	-8.92452
珍	-8.92471
配	-8.92504
禄	-8.92516
晚	-8.92557
岸	-8.92658
兹	-8.92724
吕	-8.92749
勇	-8.92759
擇	-8.92788
彦	-8.92795
四年	-8.92875
荆	-8.92998
彌	-8.93218
歳	-8.93374
五年	-8.93389
是也	-8.93464
鐵	-8.93466
眼	-8.93585
竊	-8.93815
之地	-8.93826
虜	-8.93865
裏	-8.93947
暮	-8.93964
淮	-8.94089
乆	-8.9427
贊	-8.94346
其後	-8.94383
嶺	-8.94513
虛	-8.94628
桃	-8.94758
桂	-8.95024
卧	-8.95043
決	-8.95151
卜	-8.95322
險	-8.95416
竟	-8.95466
防	-8.95881
壇	-8.9597
巧	-8.96056
輙	-8.96185
丞	-8.96208
慎	-8.96394
側	-8.96493
穆	-8.96641
皇后	-8.96726
步	-8.96747
禍	-8.96975
侵	-8.96996
倚	-8.97013
略	-8.97095
雍	-8.97316
貧	-8.97375
副	-8.97482
劒	-8.97623
損	-8.97638
穴	-8.97676
賤	-8.97869
葬	-8.97919
紙	-8.98219
註	-8.98279
繫	-8.98289
碑	-8.98383
殘	-8.98504
柳	-8.98582
耕	-8.98608
愁	-8.98676
謁	-8.98801
訪	-8.98853
静	-8.98882
塗	-8.9891
純	-8.98956
格	-8.98985
决	-8.99075
不及	-8.99085
衞	-8.99137
中有	-8.99208
吐	-8.99396
講	-8.99428
費	-8.9952
某	-8.99683
旁	-8.99985
牙	-9.00128
宰	-9.00259
旦	-9.00511
柔	-9.0061
辰	-9.00786
莫不	-9.00842
軒	-9.01024
祥	-9.01124
蟲	-9.01133
圓	-9.01293
烈	-9.01326
鐘	-9.0136
愚	-9.01464
界	-9.01507
書曰	-9.01612
占	-9.01676
希	-9.01686
寢	-9.01815
恨	-9.01923
毁	-9.01951
矢	-9.01977
壽	-9.02137
之法	-9.02173
採	-9.02355
燭	-9.02495
輪	-9.02684
築	-9.02776
争	-9.02875
策	-9.02909
傳曰	-9.03114
遵	-9.03172
卑	-9.03395
津	-9.03422
吹	-9.03686
介	-9.03726
晨	-9.03768
啟	-9.03937
禽	-9.04018
何以	-9.04051
聞之	-9.04057
旣	-9.04223
尺	-9.04321
御史	-9.04428
學士	-9.0448
幹	-9.04519
儉	-9.04589
麥	-9.04636
奪	-9.04765
翁	-9.05022
之士	-9.05086
不見	-9.05366
䘮	-9.05575
供	-9.05603
厲	-9.05643
四方	-9.05751
使人	-9.05756
刺史	-9.05865
壯	-9.05922
錄	-9.05962
勲	-9.06007
校	-9.06042
撰	-9.0612
子孫	-9.06322
甫	-9.06418
優	-9.06496
之道	-9.06643
境	-9.06803
氷	-9.06858
享	-9.06902
趨	-9.07047
韻	-9.07049
援	-9.07133
劍	-9.07146
拂	-9.07578
黄帝	-9.07703
陣	-9.07746
馮	-9.0782
侍中	-9.07848
有司	-9.07981
蒼	-9.08064
買	-9.0817
編	-9.08175
血	-9.08253
璧	-9.08332
歎	-9.08764
袁	-9.08846
映	-9.08886
仕	-9.09128
吴	-9.0914
者皆	-9.09245
潤	-9.09459
名曰	-9.09486
僕	-9.0951
偏	-9.09775
紹	-9.09779
勒	-9.0986
牀	-9.0996
人之	-9.10037
循	-9.10104
恒	-9.10213
扶	-9.10264
銘	-9.10485
謙	-9.10564
渡	-9.10651
倉	-9.10678
巢	-9.10787
扇	-9.10821
飯	-9.10835
巳	-9.10879
而無	-9.10892
尉	-9.10928
融	-9.10948
督	-9.11007
冰	-9.1109
縁	-9.11119
禮記	-9.11183
以爲	-9.11365
之中	-9.1146
桓	-9.11583
巨	-9.11591
潛	-9.11639
穿	-9.11654
其所	-9.11914
奮	-9.12016
靡	-9.12034
邉	-9.12066
句	-9.12146
閒	-9.12199
導	-9.12291
審	-9.12295
三月	-9.12424
杜甫	-9.12494
拔	-9.12555
羣臣	-9.12632
歡	-9.12667
姑	-9.12711
妾	-9.12727
肆	-9.1284
以來	-9.12908
晝	-9.12988
帳	-9.13005
有所	-9.13051
詔曰	-9.13177
而去	-9.1328
宏	-9.13742
蕃	-9.14019
司徒	-9.14043
擬	-9.14299
黨	-9.14326
銜	-9.14385
産	-9.14388
貪	-9.14586
燈	-9.1465
逰	-9.14692
邦	-9.14711
屢	-9.14904
宋史	-9.14935
童	-9.14986
披	-9.15176
宇	-9.15209
沉	-9.15286
霧	-9.15308
從之	-9.15433
妃	-9.15545
澄	-9.15639
閑	-9.15658
未嘗	-9.15672
瓊	-9.15736
隔	-9.1591
枕	-9.15912
託	-9.15972
掩	-9.16012
屏	-9.16055
吟	-9.16233
董	-9.16255
騰	-9.16274
速	-9.16303
勅	-9.16318
貨	-9.16601
員	-9.16638
不為	-9.16948
詩見	-9.16969
減	-9.17132
文帝	-9.1718
鮮	-9.17415
科	-9.17505
廬	-9.17532
佩	-9.17544
太后	-9.17682
峻	-9.17798
舎	-9.17857
基	-9.17921
己	-9.17947
鸞	-9.17949
秩	-9.17975
賣	-9.18024
茍	-9.18165
迹	-9.18224
眞	-9.18225
之言	-9.18297
婦人	-9.18322
敦	-9.18353
子曰	-9.18415
萬物	-9.18535
岳	-9.18827
怪	-9.18891
昏	-9.18908
彈	-9.18999
犬	-9.19004
㫖	-9.19049
公子	-9.19223
麻	-9.19297
肥	-9.19479
六年	-9.19741
百官	-9.19756
卦	-9.19801
糧	-9.20101
判	-9.20158
停	-9.20232
鑄	-9.20299
二十	-9.20452
叛	-9.20472
付	-9.20614
廷	-9.20751
遣使	-9.2079
旋	-9.20804
困	-9.20851
匈奴	-9.20922
大將軍	-9.21114
曰我	-9.21145
記曰	-9.21681
響	-9.21742
腹	-9.21759
豪	-9.21884
男	-9.21918
誤	-9.21926
蔽	-9.21931
寜	-9.21949
裁	-9.21986
不復	-9.22009
荷	-9.22026
十年	-9.22154
東南	-9.22255
閉	-9.22402
烟	-9.22496
驅	-9.22554
寡	-9.22596
擢	-9.22751
㸃	-9.22805
之禮	-9.22838
天下之	-9.2289
俊	-9.22941
又有	-9.22957
伊	-9.22993
五色	-9.23207
故事	-9.23397
輸	-9.23439
江南	-9.23449
煩	-9.23455
蠻	-9.23568
故曰	-9.23647
敏	-9.23699
於此	-9.23833
狗	-9.23863
豫	-9.23937
例	-9.24155
競	-9.24184
盗	-9.24229
三公	-9.24294
辛	-9.24464
盜	-9.24514
墓	-9.24576
黑	-9.2476
之時	-9.2484
太尉	-9.2486
知其	-9.24861
熱	-9.24885
燒	-9.24904
辱	-9.24963
頃	-9.25033
庸	-9.25043
否	-9.25064
漏	-9.25079
禪	-9.25162
上下	-9.25272
當時	-9.25301
遲	-9.2534
效	-9.25603
哭	-9.25617
慈	-9.25644
䕶	-9.25685
弊	-9.25763
旅	-9.2577
萬里	-9.25876
藻	-9.25915
霞	-9.26048
不同	-9.2623
見上	-9.26296
疎	-9.26342
淺	-9.26365
竇	-9.26376
河南	-9.26489
峰	-9.26537
戸	-9.26598
藩	-9.26929
育	-9.26938
洛陽	-9.26991
南史	-9.26994
姬	-9.27016
戍	-9.27034
慕	-9.27155
周公	-9.27256
之子	-9.27286
有丨丨	-9.27311
足以	-9.27429
補藻	-9.27455
倫	-9.27543
狐	-9.27587
偶	-9.27592
剛	-9.276
翻	-9.27651
強	-9.27657
即位	-9.27659
鄧	-9.27827
冷	-9.27872
罰	-9.28154
織	-9.28269
白居易	-9.28295
也今	-9.28322
祝	-9.28328
錯	-9.28333
帛	-9.28355
雉	-9.28392
没	-9.28488
旌	-9.28515
曜	-9.28657
繡	-9.28671
父母	-9.28804
将軍	-9.28821
由是	-9.28899
堪	-9.28918
削	-9.28944
割	-9.29037
畜	-9.29102
毒	-9.29121
姦	-9.29146
髪	-9.2922
出入	-9.29304
使者	-9.29651
暉	-9.29678
熊	-9.29688
丨丨之	-9.29742
隂陽	-9.29802
鼔	-9.29855
大臣	-9.29952
賓	-9.29955
單	-9.30103
四時	-9.30198
文章	-9.30234
獵	-9.30286
傍	-9.30416
文王	-9.30476
菜	-9.30532
靜	-9.30606
庫	-9.30629
今日	-9.30633
激	-9.30636
鑿	-9.30883
軌	-9.30945
三日	-9.30964
痛	-9.30968
粉	-9.30989
圗	-9.31031
偽	-9.31212
踰	-9.31451
凌	-9.31581
也故	-9.31582
國家	-9.3159
殺之	-9.31604
欽	-9.31697
消	-9.31773
凉	-9.31849
彊	-9.31861
主簿	-9.31894
麟	-9.31916
豆	-9.31968
曾	-9.32116
繞	-9.32164
以此	-9.32173
絳	-9.32283
預	-9.32456
不以	-9.32476
河東	-9.32517
蕩	-9.32518
村	-9.32559
公主	-9.32628
之心	-9.328
遭	-9.32865
光武	-9.32954
偃	-9.32971
練	-9.33049
蠶	-9.33073
攝	-9.33226
翔	-9.3326
跡	-9.333
之制	-9.33327
佳	-9.33469
以上	-9.33561
躬	-9.33627
晴	-9.33704
沒	-9.3379
芝	-9.33828
朗	-9.33867
司空	-9.33909
棲	-9.3399
洗	-9.33993
局	-9.34004
凶	-9.34069
賛	-9.34097
侍郎	-9.34481
博士	-9.3458
必有	-9.3461
冦	-9.34668
𤓰	-9.34752
未有	-9.34782
製	-9.34791
染	-9.34833
叙	-9.34845
徹	-9.34933
抑	-9.35176
七年	-9.35182
暗	-9.35319
瞻	-9.35491
繇	-9.35554
奚	-9.35599
墜	-9.35633
箭	-9.35806
妄	-9.35836
遽	-9.35886
不過	-9.35978
頓	-9.35993
繩	-9.36133
三十	-9.36201
翰	-9.36241
有一	-9.36248
裘	-9.36429
冀	-9.36501
亦有	-9.36544
寫	-9.36602
一曰	-9.36612
饑	-9.3666
遥	-9.36759
靖	-9.37094
竝	-9.37115
忌	-9.37169
弄	-9.37221
皆有	-9.3743
貌	-9.37521
狂	-9.37567
之上	-9.37585
長史	-9.37695
猛	-9.37716
八月	-9.37749
叢	-9.37804
籠	-9.37844
價	-9.37957
酬	-9.38029
借	-9.38059
淮南	-9.38071
葛	-9.3824
潔	-9.38338
衍	-9.38435
中書	-9.38457
𨽻	-9.38521
草木	-9.38564
囚	-9.3871
浪	-9.38741
驗	-9.38788
□	-9.38915
倒	-9.38943
以下	-9.39002
辯	-9.39011
晏	-9.39089
峯	-9.39125
誦	-9.3928
帝曰	-9.39372
稽	-9.39531
醫	-9.39542
蓮	-9.39548
鼻	-9.39575
前後	-9.39953
五月	-9.40026
儲	-9.40048
囊	-9.40064
浦	-9.40315
盟	-9.40356
廻	-9.40449
晦	-9.40527
赦	-9.40584
竭	-9.40607
乳	-9.40615
庾	-9.40663
束	-9.40756
弟子	-9.40781
藝	-9.40858
樊	-9.40865
其子	-9.40959
悟	-9.41028
淫	-9.41066
住	-9.41118
豹	-9.41243
文武	-9.41433
古今	-9.41463
觸	-9.41638
夾	-9.41667
枯	-9.41902
十月	-9.41979
只	-9.42075
茅	-9.4216
抗	-9.42175
上有	-9.42192
雀	-9.42199
底	-9.42205
人皆	-9.42315
勑	-9.42385
節度使	-9.42393
之意	-9.42397
膏	-9.42496
崖	-9.42586
主人	-9.42705
後魏	-9.42832
逼	-9.42934
藉	-9.4295
渉	-9.43064
尸	-9.43096
霸	-9.43161
其事	-9.43208
斜	-9.43278
幼	-9.43279
脚	-9.43386
穀	-9.43513
缺	-9.43526
澗	-9.4355
之名	-9.43623
捕	-9.43721
荀	-9.43726
衝	-9.43801
可謂	-9.43934
潭	-9.43956
公卿	-9.43978
契	-9.43989
字子	-9.44013
之人	-9.44027
鄰	-9.44052
絃	-9.44139
綺	-9.44259
晋	-9.44285
災	-9.44302
鴈	-9.44406
聴	-9.44419
彭	-9.44471
想	-9.44507
時有	-9.44588
喻	-9.44639
之義	-9.44873
輦	-9.4491
譜	-9.44996
旱	-9.4503
冲	-9.45172
與之	-9.45277
逃	-9.45284
遠	-9.45316
毋	-9.45374
範	-9.45611
鱗	-9.45654
擁	-9.45801
像	-9.45899
焚	-9.45966
座	-9.46072
恵	-9.46122
祐	-9.46245
襄	-9.46264
厭	-9.4627
鼠	-9.46287
洲	-9.46324
幕	-9.46352
緩	-9.46408
自是	-9.46483
食之	-9.46496
提	-9.46511
展	-9.46587
俾	-9.46677
内外	-9.46684
綱	-9.4669
第一	-9.46694
限	-9.46773
課	-9.46783
曰君	-9.46813
西北	-9.46822
網	-9.47114
犀	-9.47165
巾	-9.47247
檢	-9.47248
絹	-9.47371
賦曰	-9.47392
褒	-9.4742
切並音	-9.4745
誕	-9.47508
績	-9.47622
仗	-9.47653
鑒	-9.47711
敷	-9.47822
整	-9.48098
晩	-9.48147
諭	-9.48191
牽	-9.48212
窺	-9.48323
聘	-9.48411
鄙	-9.48471
墮	-9.4884
渾	-9.48851
壺	-9.49106
為人	-9.49183
包	-9.49211
巴	-9.49255
無不	-9.49298
宗廟	-9.49373
迴	-9.49555
國之	-9.49559
篤	-9.49611
炎	-9.49806
用之	-9.4984
垣	-9.49917
韓愈	-9.49937
諌	-9.50201
曰臣	-9.50259
惜	-9.50423
倍	-9.50618
圭	-9.50712
宋書	-9.50747
額	-9.50843
淮南子	-9.50909
太常	-9.50924
四海	-9.51061
姚	-9.51169
本朝	-9.51196
諱	-9.51341
詐	-9.51408
眉	-9.51476
爰	-9.51547
九月	-9.51624
兆	-9.51637
十五	-9.51716
播	-9.51797
以其	-9.51908
阻	-9.51914
社稷	-9.51949
八年	-9.51996
臂	-9.52141
不可以	-9.5216
泣	-9.52268
中國	-9.52297
憶	-9.5265
漆	-9.5266
羞	-9.528
滋	-9.52866
弼	-9.52878
開元	-9.52881
驛	-9.52909
其中	-9.52955
曠	-9.52987
黄金	-9.53025
東西	-9.53045
其人	-9.53047
暢	-9.53077
桐	-9.53144
㑹稽	-9.53215
五十	-9.53292
明堂	-9.53311
泛	-9.53324
山川	-9.5334
鈎	-9.53399
之日	-9.53428
驕	-9.53495
郎中	-9.53506
亷	-9.53544
趣	-9.53566
徽	-9.53799
都督	-9.53857
訟	-9.53942
膺	-9.53964
𩔖	-9.54094
耀	-9.54282
唱	-9.54317
髮	-9.54435
棗	-9.54445
悦	-9.54585
蟬	-9.54667
所在	-9.54734
六月	-9.54767
敎	-9.54855
惑	-9.55023
杯	-9.55181
秉	-9.55228
雕	-9.5523
拒	-9.55397
迷	-9.55398
妖	-9.55498
詩云	-9.55595
警	-9.55606
専	-9.55707
黃	-9.55841
高祖	-9.55897
則有	-9.55985
有餘	-9.55995
明日	-9.56011
貶	-9.56027
饗	-9.56274
子弟	-9.56321
呂	-9.56325
○	-9.56392
黍	-9.56455
是時	-9.56485
普	-9.56486
風雨	-9.56609
之功	-9.56637
節度	-9.56694
攸	-9.56858
磨	-9.56893
武王	-9.57203
蘇軾	-9.57264
擅	-9.57265
欺	-9.57324
雁	-9.57487
濕	-9.57593
出於	-9.57737
觧	-9.57815
㧞	-9.57843
廵	-9.58075
蓬	-9.58195
數十	-9.5824
湛	-9.58347
頻	-9.58385
渚	-9.5848
莊子	-9.5867
電	-9.58755
釣	-9.58909
䑕	-9.58939
樞	-9.58992
父子	-9.59017
荆州	-9.59063
創	-9.59117
▁丨	-9.59228
賔客	-9.59247
溢	-9.59365
彩	-9.59375
西南	-9.59383
嵩	-9.59425
瓦	-9.59448
北史	-9.59501
敕	-9.59608
十二月	-9.59663
坊	-9.59668
酌	-9.59726
碎	-9.59736
至于	-9.59941
羙	-9.59945
舌	-9.5999
祚	-9.60217
三百	-9.6025
雖有	-9.60292
坡	-9.60386
同上	-9.6041
灰	-9.60454
蒸	-9.60457
誓	-9.60489
寇	-9.60587
帷	-9.60615
彰	-9.6064
灌	-9.60725
冝	-9.60798
幣	-9.60801
綿	-9.6081
注云	-9.60836
午	-9.60848
戈	-9.60922
脫	-9.60977
鄴	-9.61024
囘	-9.61047
偉	-9.61155
綴	-9.61235
又云	-9.61237
稷	-9.61245
浩	-9.61287
乏	-9.61335
排	-9.61402
板	-9.61461
薪	-9.61473
魏書	-9.6162
恥	-9.61629
暑	-9.61708
薨	-9.61736
從事	-9.61737
邵	-9.62054
勁	-9.62145
七月	-9.622
忍	-9.62241
號曰	-9.62345
緒	-9.62365
王者	-9.6238
丈	-9.62466
胥	-9.62603
太原	-9.62614
腰	-9.62624
冊	-9.62675
公孫	-9.62683
㦸	-9.62761
鞭	-9.62854
覩	-9.63049
譽	-9.63051
脱	-9.63063
何如	-9.63145
嬰	-9.63222
潮	-9.63243
綠	-9.6326
單于	-9.6331
之外	-9.63326
挺	-9.63358
淳	-9.63444
甞	-9.63519
恃	-9.63534
爽	-9.63644
爾雅	-9.63651
綏	-9.63788
九年	-9.63796
奇	-9.63913
勉	-9.63948
橘	-9.64003
懿	-9.64063
訖	-9.64077
殆	-9.64219
慙	-9.64276
臯	-9.64344
小人	-9.64363
東海	-9.64436
矜	-9.64466
不與	-9.64508
醜	-9.64563
四月	-9.64661
者為	-9.64671
祗	-9.64675
簾	-9.64753
而死	-9.64799
溝	-9.64866
弔	-9.64875
一時	-9.6488
李白	-9.64905
古之	-9.64935
匪	-9.65107
壊	-9.65162
坤	-9.65194
饒	-9.65211
婢	-9.65361
不用	-9.65477
曰昔	-9.65485
摩	-9.65496
後世	-9.6558
黎	-9.65582
湘	-9.65603
不受	-9.65615
濁	-9.65689
潘	-9.65699
飢	-9.65731
取其	-9.65746
栗	-9.65857
匹	-9.65954
踐	-9.66115
飲酒	-9.66138
距	-9.66153
正月	-9.66169
随	-9.66354
道士	-9.66354
狄	-9.66372
值	-9.66387
㓜	-9.66493
潜	-9.66604
區	-9.66744
莖	-9.66748
収	-9.66864
裂	-9.66908
州縣	-9.66922
卓	-9.6694
活	-9.67023
時人	-9.67197
俯	-9.67339
菊	-9.67378
羌	-9.67379
祈	-9.67438
不肯	-9.67473
焦	-9.67522
翟	-9.67526
鵲	-9.67541
㡬	-9.67564
其上	-9.67612
荅	-9.67642
皇太子	-9.67643
揺	-9.67694
之數	-9.67705
生於	-9.67729
受命	-9.67906
不相	-9.67907
宛	-9.67916
巫	-9.6805
世祖	-9.68122
十六	-9.68151
稅	-9.68179
有功	-9.6822
屠	-9.68261
廉	-9.68287
五百	-9.68312
槐	-9.68332
爛	-9.6845
也又曰	-9.68556
遐	-9.68584
河北	-9.68768
斂	-9.68791
姿	-9.68839
鳩	-9.68839
孟子	-9.68893
各有	-9.69064
壘	-9.6925
弦	-9.69298
㠯	-9.69312
之下	-9.69347
冕	-9.69349
孰	-9.69431
項	-9.69433
稻	-9.69455
二月	-9.69497
愧	-9.69525
也夫	-9.69611
湏	-9.69627
夫子	-9.69714
徧	-9.6981
進士	-9.69954
讀書	-9.70073
擒	-9.70146
不出	-9.70474
遼	-9.70508
洽	-9.70517
亦不	-9.70574
低	-9.70601
崩	-9.70716
段	-9.70788
寸	-9.7089
乖	-9.70923
也又	-9.70977
捨	-9.71039
十八	-9.71138
嫌	-9.71209
握	-9.71234
其言	-9.71254
伍	-9.7126
者以	-9.71425
柏	-9.71456
膳	-9.71462
而為	-9.7151
悔	-9.71555
北齊	-9.71731
標	-9.71745
鈞	-9.71923
見之	-9.7193
艾	-9.71939
抵	-9.71982
十一月	-9.72005
准	-9.72027
拘	-9.72101
袖	-9.7212
隴	-9.72158
輝	-9.72197
裳	-9.72372
視之	-9.72426
羮	-9.72497
帖	-9.72506
十三	-9.72545
南陽	-9.72545
皆以	-9.72721
之際	-9.72777
途	-9.72794
陷	-9.72991
圃	-9.73126
斥	-9.7319
宵	-9.73192
綬	-9.73206
吏部	-9.73238
障	-9.73368
協	-9.73382
牆	-9.73451
緯	-9.73554
為丨丨	-9.73608
鎭	-9.73634
滑	-9.73635
渭	-9.73635
十一	-9.73734
閭	-9.7374
戚	-9.73801
硯	-9.73827
明帝	-9.73841
纔	-9.73843
把	-9.73955
魏志	-9.73979
禦	-9.74014
揚州	-9.74025
掾	-9.74184
中興	-9.7426
弩	-9.74269
飲食	-9.74341
誣	-9.74364
其家	-9.74425
突	-9.74522
得其	-9.74629
古者	-9.74691
棘	-9.74691
七十	-9.74797
古人	-9.74799
暫	-9.74823
黙	-9.74892
陂	-9.74964
曰卿	-9.7499
嗟	-9.7504
鑑	-9.75081
百里	-9.75162
之屬	-9.75171
諸將	-9.75196
東北	-9.75211
𥘉	-9.75259
綵	-9.75282
歛	-9.75376
苗	-9.75395
其名	-9.754
漢書曰	-9.75405
秦王	-9.75512
誥	-9.75552
阜	-9.75567
自然	-9.7561
不食	-9.75672
魂	-9.75761
南北	-9.75778
玄	-9.75784
鬱	-9.7586
祿	-9.75966
而出	-9.76014
君之	-9.7607
先是	-9.76183
太平	-9.76309
簿	-9.76314
五代	-9.76329
几	-9.76387
牢	-9.76393
鷹	-9.76414
突厥	-9.76445
㳺	-9.76624
肇	-9.76899
都尉	-9.77013
者不	-9.77129
補註	-9.77136
纓	-9.77262
以示	-9.77269
啼	-9.77289
陪	-9.77312
富貴	-9.77374
言之	-9.77378
算	-9.77423
壤	-9.7755
擾	-9.77609
郡國	-9.77765
鋒	-9.77791
不勝	-9.77939
所居	-9.77942
聊	-9.77961
之徒	-9.77961
筵	-9.78015
臧	-9.78055
數百	-9.78215
淚	-9.78257
油	-9.7826
駭	-9.7831
娶	-9.78358
三人	-9.78375
袍	-9.78381
了	-9.78394
憐	-9.78406
西域	-9.78478
岐	-9.78615
頂	-9.78629
上書	-9.7863
丗	-9.78866
之職	-9.78911
遜	-9.78947
牲	-9.78991
俟	-9.79001
截	-9.79072
淡	-9.79102
而下	-9.79118
成都	-9.79259
紛	-9.7926
風俗	-9.79275
之則	-9.79345
旬	-9.79353
柄	-9.79472
一作	-9.79586
憑	-9.79596
匿	-9.79682
六十	-9.79885
豕	-9.79994
邁	-9.80033
䝉	-9.80066
喬	-9.80074
輩	-9.80189
宣帝	-9.80198
判官	-9.80258
山在	-9.80332
嫁	-9.80401
陋	-9.80575
欲以	-9.80891
滯	-9.80908
玩	-9.80952
三千	-9.80953
毅	-9.81083
挾	-9.81102
韶	-9.81167
大如	-9.81191
曰今	-9.8123
暖	-9.81444
東方	-9.81468
恤	-9.81552
匡	-9.81645
冶	-9.81653
婚	-9.81669
鬼神	-9.81704
係	-9.81711
猿	-9.8183
斤	-9.81837
上言	-9.81839
天地之	-9.81849
謨	-9.81951
四人	-9.82041
取之	-9.82132
恱	-9.82208
汗	-9.82244
棺	-9.82245
鬚	-9.82265
摧	-9.82375
如是	-9.82479
有大	-9.82503
塘	-9.82659
内史	-9.82678
昇	-9.82738
兔	-9.82775
䧟	-9.82895
化為	-9.82949
諸軍	-9.83059
探	-9.83072
𦵏	-9.83238
謬	-9.83326
虹	-9.83407
飄	-9.83416
五行	-9.83451
掠	-9.83503
濫	-9.83508
髙宗	-9.83536
邱	-9.8357
大小	-9.83591
寓	-9.83592
人有	-9.83624
熙	-9.83626
舍人	-9.83694
揖	-9.83786
鬬	-9.83844
中丞	-9.83937
答曰	-9.83944
不許	-9.84016
不從	-9.84018
少府	-9.84033
黜	-9.84035
虧	-9.84177
狼	-9.84245
門外	-9.84277
不至	-9.84451
漿	-9.84574
賴	-9.84615
戮	-9.84637
着	-9.84767
有三	-9.84772
珪	-9.84774
而行	-9.84877
貳	-9.84903
知之	-9.84958
郡縣	-9.84978
眠	-9.84989
靣	-9.85075
罔	-9.85159
嶽	-9.85181
山中	-9.85275
其餘	-9.85289
南山	-9.85294
淑	-9.85335
椒	-9.85419
斧	-9.8542
鵠	-9.85431
叅	-9.85481
禾	-9.85489
矯	-9.85661
之官	-9.8567
見其	-9.85686
竈	-9.85714
禮樂	-9.85772
劾	-9.85831
僕射	-9.85856
纂	-9.85902
無以	-9.85917
不在	-9.85922
驢	-9.85951
裕	-9.85967
莽	-9.86289
本草	-9.86308
訴	-9.86332
磬	-9.86343
慧	-9.86374
岡	-9.86452
吞	-9.86466
是故	-9.86536
􁀙	-9.86551
逮	-9.8663
既而	-9.86726
裔	-9.86808
皓	-9.86894
蜜	-9.86955
聼	-9.86961
有人	-9.86973
促	-9.86979
枉	-9.86995
海内	-9.8701
緣	-9.87018
刃	-9.87043
廷尉	-9.8708
見一	-9.87307
死者	-9.87322
校尉	-9.87383
在位	-9.87409
姜	-9.87422
南方	-9.87426
故也	-9.87469
際	-9.8761
歟	-9.8768
函	-9.8775
也其	-9.87855
坎	-9.87961
之内	-9.87985
属	-9.8799
場	-9.88116
那	-9.88149
隊	-9.88198
王子	-9.8822
士卒	-9.88271
析	-9.88406
不行	-9.88425
十四	-9.88438
漕	-9.88469
鬻	-9.8851
二千石	-9.8853
契丹	-9.88565
鬭	-9.88597
東都	-9.8863
東坡	-9.88639
揮	-9.88874
至是	-9.88926
壓	-9.88932
毫	-9.89074
縣令	-9.89094
而有	-9.89113
者必	-9.89166
沃	-9.89198
山東	-9.89255
二子	-9.89314
其地	-9.89322
二曰	-9.89373
得之	-9.89393
學者	-9.89449
女子	-9.89452
衣服	-9.89498
沛	-9.89558
文公	-9.89578
瑶	-9.89638
宗室	-9.89645
舅	-9.89675
遁	-9.89684
丨丨而	-9.89798
浸	-9.89904
號為	-9.89986
餌	-9.90017
篆	-9.90101
疆	-9.90179
頒	-9.90233
諧	-9.90254
䑓	-9.90301
歎曰	-9.90359
門下	-9.90382
軫	-9.90459
媚	-9.90502
州郡	-9.9052
芒	-9.90601
涉	-9.90639
京兆	-9.90647
陟	-9.90679
穢	-9.90712
税	-9.908
不忍	-9.90809
先王	-9.90819
得一	-9.90837
相與	-9.90897
今之	-9.90998
叟	-9.91002
餅	-9.91019
成王	-9.91031
至今	-9.91069
埋	-9.9108
呈	-9.91087
翰林	-9.91112
墳	-9.91135
曰夫	-9.91154
勃	-9.91165
貞觀	-9.91222
老子	-9.91258
文學	-9.91367
本傳	-9.91457
妻子	-9.91595
矩	-9.91664
剪	-9.91754
咎	-9.91759
其母	-9.91792
奢	-9.91894
飽	-9.91911
吐蕃	-9.91968
然而	-9.9217
政事	-9.92204
曰汝	-9.92216
而成	-9.92376
頸	-9.92448
疲	-9.92456
柴	-9.9259
詢	-9.92675
管子	-9.92781
貝	-9.92787
天之	-9.92816
擊之	-9.92972
岑	-9.92981
舊唐書	-9.93029
杏	-9.93076
贍	-9.93183
敝	-9.93197
浴	-9.93251
服之	-9.93254
併	-9.93387
君臣	-9.93402
括	-9.93447
遍	-9.93563
奸	-9.93578
衣冠	-9.93605
瑩	-9.9364
侈	-9.93855
鷄	-9.93949
亟	-9.94043
公曰	-9.94048
䖍	-9.94055
壞	-9.94066
罕	-9.94079
檀	-9.94101
駿	-9.9411
郢	-9.94117
人間	-9.94129
减	-9.94139
冢	-9.94275
冬至	-9.94314
奠	-9.94478
上曰	-9.94479
雒	-9.94487
劇	-9.94507
枚	-9.9452
明年	-9.94527
以待	-9.94582
汴	-9.94626
寂	-9.94659
混	-9.94682
以自	-9.94718
山谷	-9.94781
隅	-9.94829
卵	-9.94873
膝	-9.94888
欵	-9.94958
䟽	-9.94968
云云	-9.95038
層	-9.95042
乂	-9.95092
纎	-9.95154
域	-9.95217
國朝	-9.95221
飬	-9.95312
腸	-9.95355
蜂	-9.95443
漫	-9.95474
仄	-9.95485
誘	-9.95491
祭祀	-9.95514
攀	-9.95562
掃	-9.95622
状	-9.95682
肩	-9.95704
元稹	-9.95712
究	-9.95753
健	-9.95834
如何	-9.95873
丸	-9.95894
隐	-9.95898
輅	-9.95916
蓄	-9.95932
檄	-9.95935
太傅	-9.95956
故人	-9.95965
萌	-9.95981
桓公	-9.96028
炙	-9.9606
租	-9.96088
沮	-9.9617
問曰	-9.96261
璽	-9.96273
絡	-9.96298
巡	-9.96341
令人	-9.96424
江陵	-9.96461
街	-9.965
貯	-9.96588
月令	-9.96594
藤	-9.96602
慢	-9.96622
箴	-9.96693
昧	-9.96714
江淮	-9.96723
漁	-9.96784
膽	-9.96787
竿	-9.96787
恣	-9.96853
寃	-9.96932
不言	-9.97018
擲	-9.97082
哲	-9.97122
輕重	-9.97162
然則	-9.97276
亞	-9.97321
十餘	-9.97353
不足以	-9.97442
晏子	-9.97476
濤	-9.97506
恢	-9.97527
募	-9.97538
南海	-9.97551
葵	-9.97562
効	-9.97579
牒	-9.9761
膠	-9.97658
諸子	-9.97694
觴	-9.97696
寅	-9.97718
台	-9.97725
夲	-9.97827
太學	-9.97875
山有	-9.9802
之任	-9.98027
其國	-9.98069
不欲	-9.98225
挂	-9.98241
饋	-9.98287
阮	-9.98313
仙人	-9.98348
於丨丨	-9.98356
級	-9.98465
準	-9.98505
宫中	-9.98539
芙蓉	-9.98682
之氣	-9.98758
餉	-9.98809
烹	-9.98879
凖	-9.99036
陸機	-9.99099
冒	-9.99148
一年	-9.99152
水經注	-9.99253
欣	-9.9929
豫章	-9.99308
帝王	-9.9946
傑	-9.99466
跪	-9.99476
譏	-9.99555
而還	-9.99596
笛	-9.99631
谿	-9.99798
其父	-9.9983
躍	-9.99878
奈何	-9.99905
詩丨	-9.99994
三曰	-10.0007
完	-10.0009
者有	-10.001
鮑	-10.0012
灑	-10.0017
眷	-10.002
注曰	-10.0027
閲	-10.0028
言其	-10.0028
論語	-10.0034
數千	-10.0035
朋	-10.0038
涼	-10.0055
蟻	-10.0061
許之	-10.0069
睡	-10.0069
従	-10.007
貽	-10.0071
白馬	-10.0075
人主	-10.0077
僅	-10.0095
于是	-10.0101
杜牧	-10.0109
上帝	-10.0114
剖	-10.0117
四十	-10.0124
熈	-10.0132
鉤	-10.0135
孔子曰	-10.0138
爐	-10.0145
是為	-10.0149
入朝	-10.0167
尚書令	-10.0168
霄	-10.0169
神仙	-10.0171
搆	-10.0174
寡人	-10.0178
麾	-10.0186
潰	-10.019
糾	-10.0197
萬人	-10.0198
臥	-10.0198
紹興	-10.0209
五日	-10.0222
乍	-10.0224
國公	-10.0229
妓	-10.023
返	-10.0232
隣	-10.0234
測	-10.0239
不然	-10.0251
尼	-10.0258
豈不	-10.0264
快	-10.0265
有二	-10.0269
少年	-10.0274
得失	-10.0278
水中	-10.0288
孚	-10.0293
煥	-10.03
梓	-10.03
何為	-10.0302
詭	-10.0322
後周	-10.033
家人	-10.0335
隋書	-10.0337
譬如	-10.0338
咨	-10.034
恪	-10.0343
齊王	-10.0349
脂	-10.035
是謂	-10.0354
邀	-10.0354
明月	-10.0355
仁宗	-10.0356
曰丨丨	-10.0366
筍	-10.0366
仲尼	-10.0368
鳬	-10.0369
畝	-10.0372
諸州	-10.0373
粲	-10.0381
塔	-10.0384
溺	-10.0385
塲	-10.0385
俄	-10.0385
饌	-10.0385
邈	-10.0392
瑟	-10.0397
蟹	-10.0399
禱	-10.0405
秘	-10.0408
凍	-10.0409
諸王	-10.0411
下有	-10.0411
莫能	-10.0417
車駕	-10.042
慰	-10.0421
馭	-10.0421
勵	-10.0427
譚	-10.0432
之術	-10.0433
壑	-10.0435
拾	-10.0438
改為	-10.0446
團	-10.0454
之臣	-10.0455
銷	-10.0462
廣韻	-10.048
蔡邕	-10.0481
東宫	-10.0482
笏	-10.0491
其下	-10.0495
料	-10.0496
畔	-10.0504
晝夜	-10.0507
一切	-10.0512
誡	-10.0512
翳	-10.0524
敞	-10.0527
語曰	-10.0528
人心	-10.0538
榜	-10.0546
童子	-10.0546
人以	-10.0552
其實	-10.0554
窗	-10.0556
樂府	-10.056
閔	-10.056
狹	-10.0562
王莽	-10.0565
軸	-10.0581
窟	-10.0584
㓂	-10.0584
如故	-10.0585
笑曰	-10.06
男女	-10.0602
岀	-10.0628
丨丨丨丨丨	-10.0635
軍中	-10.0635
之國	-10.0644
數日	-10.0645
盆	-10.0645
西方	-10.0648
鏤	-10.065
歌曰	-10.0654
其心	-10.0654
彪	-10.0654
三十六	-10.0656
銓	-10.0658
諸生	-10.067
數年	-10.067
劉禹錫	-10.0673
北方	-10.0676
縷	-10.0693
平生	-10.0698
无	-10.07
戾	-10.0701
其間	-10.0703
何也	-10.0704
霍	-10.0704
唐韻	-10.0709
瓶	-10.0712
太史	-10.0712
悼	-10.0715
足下	-10.072
城中	-10.0737
齊書	-10.074
箕	-10.0745
元帝	-10.0748
耗	-10.0761
構	-10.0762
僚	-10.0767
組	-10.0768
之類	-10.0774
濯	-10.0786
襄陽	-10.079
脉	-10.0793
好學	-10.0795
終日	-10.0797
較	-10.0799
頴	-10.0805
陛	-10.0808
諡	-10.0817
柯	-10.0819
催	-10.0821
之聲	-10.0822
聳	-10.0823
伎	-10.0823
伺	-10.0825
兎	-10.0826
頼	-10.0831
民之	-10.0835
三代	-10.0837
一百	-10.0838
忿	-10.0838
泰山	-10.0841
閏	-10.0847
榆	-10.0851
摘	-10.0854
證	-10.0859
轡	-10.0865
蹈	-10.0872
抽	-10.0873
春風	-10.0876
戯	-10.088
貸	-10.0883
乃以	-10.0884
謂曰	-10.0888
株	-10.0902
禘	-10.0904
或曰	-10.0911
謗	-10.0912
楚王	-10.0914
憤	-10.0918
平原	-10.0933
之利	-10.0936
不識	-10.0942
之文	-10.0942
乙	-10.0943
布衣	-10.0946
炭	-10.0966
㨗	-10.0968
逺近	-10.097
之樂	-10.0975
翅	-10.0978
稀	-10.0981
神明	-10.0983
檻	-10.0983
泊	-10.0986
賢者	-10.0988
吏民	-10.0991
衮	-10.0993
白雲	-10.0995
駐	-10.1003
參軍	-10.1006
仇	-10.1007
裝	-10.1012
聰	-10.1022
不宜	-10.1028
其身	-10.1028
先帝	-10.1031
天文	-10.1033
二十四	-10.1047
恕	-10.1052
冥	-10.1056
衫	-10.1066
不聽	-10.1069
逝	-10.107
肝	-10.1072
及其	-10.1073
十里	-10.1077
異之	-10.1083
墻	-10.109
邕	-10.1098
狀如	-10.1103
淨	-10.1109
琰	-10.1112
中山	-10.1115
國人	-10.1118
廣陵	-10.1122
邸	-10.1126
者亦	-10.113
詰	-10.114
添	-10.1159
瑜	-10.116
周官	-10.1166
閱	-10.1168
況	-10.1171
為一	-10.118
齎	-10.1181
苞	-10.1181
使君	-10.1181
梨	-10.1182
汙	-10.1187
再拜	-10.1188
琳	-10.1191
相如	-10.1195
魄	-10.1198
九州	-10.1199
樵	-10.1203
汲	-10.1204
初為	-10.1209
札	-10.1211
十萬	-10.1219
諷	-10.122
百餘	-10.1223
郡守	-10.1224
踈	-10.1225
𤣥宗	-10.1225
斑	-10.1225
不絶	-10.1227
者其	-10.1231
襟	-10.1234
捧	-10.1237
疊	-10.1238
話	-10.1242
功臣	-10.1245
沈約	-10.1246
三軍	-10.1255
不聞	-10.1264
庚	-10.127
道路	-10.1271
貴人	-10.1274
裙	-10.1275
孝武	-10.1276
檢校	-10.1277
濬	-10.1279
所得	-10.1286
元和	-10.1287
䕫	-10.1291
八十	-10.1293
文字	-10.13
紂	-10.1302
小兒	-10.1303
安得	-10.1306
島	-10.1308
胄	-10.1319
臘	-10.132
之勢	-10.1332
斬之	-10.1337
亦曰	-10.1346
俄而	-10.1351
終不	-10.1353
淹	-10.1361
筭	-10.1363
之志	-10.1367
大司馬	-10.1384
庾信	-10.1386
五代史	-10.1394
御史大夫	-10.1395
甄	-10.1396
淪	-10.1397
或以	-10.14
臣聞	-10.1404
以成	-10.142
演	-10.142
逾	-10.1432
宰臣	-10.1432
闢	-10.1439
之故	-10.1439
筠	-10.144
澹	-10.1441
活套	-10.1444
態	-10.1448
其妻	-10.145
曰子	-10.1451
自古	-10.146
版	-10.146
辦	-10.1471
仁義	-10.1483
太公	-10.1484
耳目	-10.1495
二字	-10.1498
七日	-10.1501
陸游	-10.1502
鬢	-10.1508
千金	-10.1508
元史	-10.1514
梁簡文帝	-10.1527
而歸	-10.1534
事類	-10.1534
之不	-10.1538
無窮	-10.1538
肅宗	-10.1542
其意	-10.1544
傳云	-10.1544
觀之	-10.1553
煮	-10.1558
不應	-10.156
益州	-10.156
五經	-10.1563
第二	-10.1566
佞	-10.1566
之美	-10.1568
拾遺	-10.157
祖宗	-10.1571
峽	-10.1573
脯	-10.1575
隙	-10.1576
蘆	-10.1591
汝南	-10.1592
魏文帝	-10.1599
長沙	-10.1601
片	-10.1603
之位	-10.1603
偷	-10.1606
浚	-10.1607
從容	-10.161
人物	-10.1614
苔	-10.1614
嗜	-10.1618
羸	-10.1618
揚雄	-10.1623
刼	-10.1625
匠	-10.1626
跨	-10.1631
朽	-10.1636
縈	-10.1646
丨丨丨丨丨丨丨丨	-10.165
桀	-10.1651
賁	-10.1659
架	-10.1663
文選	-10.1666
而生	-10.1667
艱	-10.1672
十七	-10.1674
進退	-10.1676
尅	-10.1685
廼	-10.1687
闇	-10.1688
璋	-10.1689
十日	-10.1702
朴	-10.1715
相國	-10.1726
膚	-10.1733
液	-10.1734
諒	-10.1739
濡	-10.174
無復	-10.1756
粥	-10.1762
婁	-10.1765
以告	-10.1766
汁	-10.1768
攜	-10.177
畿	-10.1774
巻	-10.1776
百萬	-10.1777
未能	-10.1788
為相	-10.1789
憚	-10.179
奥	-10.1794
甕	-10.1803
不當	-10.181
中外	-10.1811
故名	-10.1815
史記曰	-10.1823
殺人	-10.1824
藍	-10.1827
僻	-10.1844
無事	-10.1845
十二年	-10.185
蔚	-10.1855
者非	-10.1858
不失	-10.186
蛟	-10.1862
夙	-10.1866
巷	-10.1871
嘆	-10.1878
喧	-10.188
侍御史	-10.1887
瀆	-10.1893
紋	-10.1896
捷	-10.1898
厨	-10.1906
副使	-10.1909
上疏	-10.1913
魁	-10.1918
二百	-10.192
之才	-10.192
臻	-10.1922
殿中	-10.1928
鋭	-10.1931
栖	-10.1931
之初	-10.1931
郷	-10.1932
猷	-10.1932
北海	-10.1933
太和	-10.1938
閩	-10.1944
霽	-10.1945
陳留	-10.1945
贖	-10.1952
髻	-10.1962
溫	-10.1962
其一	-10.1964
雌	-10.1969
鴨	-10.1974
長者	-10.1977
衢	-10.198
士大夫	-10.1984
之用	-10.1987
先主	-10.1992
忠臣	-10.1995
乃止	-10.2
行之	-10.2008
邢	-10.2013
不入	-10.2017
漢武	-10.2023
蔣	-10.2034
肯	-10.2041
嶠	-10.2049
漢王	-10.2063
穎	-10.2072
皷	-10.2072
綸	-10.2073
有罪	-10.2073
逕	-10.2073
護	-10.2074
為政	-10.2074
州府	-10.2076
轂	-10.2084
金石	-10.2085
伸	-10.2085
四曰	-10.2088
以聞	-10.2092
驥	-10.2098
叩	-10.21
鶯	-10.2104
簫	-10.2106
㫁	-10.211
彭城	-10.2117
軰	-10.2118
屯田	-10.212
員外	-10.2124
換	-10.2128
斛	-10.2129
打	-10.2132
綽	-10.2133
之精	-10.2135
不通	-10.2138
愍	-10.2143
國語	-10.2144
互	-10.2144
流涕	-10.2153
堤	-10.2165
奕	-10.2166
朝夕	-10.2171
不若	-10.2173
莫敢	-10.2178
倦	-10.2181
壻	-10.2183
男子	-10.2183
備用	-10.2186
甘露	-10.2186
駟	-10.219
圜	-10.2201
之節	-10.2203
醴	-10.2203
詔書	-10.2204
之所以	-10.2216
嘯	-10.2216
笙	-10.2217
簪	-10.2222
中郎將	-10.2225
犢	-10.2228
懲	-10.2229
弁	-10.223
䕃	-10.2232
樽	-10.2235
者曰	-10.2237
成對	-10.2248
虐	-10.2248
圎	-10.2251
百年	-10.2253
譲	-10.2255
王公	-10.2262
也言	-10.2277
栢	-10.2281
之役	-10.2286
相見	-10.229
洞庭	-10.2292
豈可	-10.2292
之謂	-10.2292
奏事	-10.2293
五人	-10.2296
不死	-10.2304
孫權	-10.2304
山海經	-10.2304
致仕	-10.2308
張華	-10.2308
置酒	-10.2309
藴	-10.2329
叚	-10.2336
昆	-10.2342
姓名	-10.2346
噐	-10.2349
為大	-10.2351
當世	-10.2352
制度	-10.2352
裹	-10.2354
▁丨丨	-10.2357
綾	-10.2363
姊	-10.2365
車馬	-10.2366
堯舜	-10.2367
傲	-10.2369
寕	-10.2375
糴	-10.238
丨丨之丨	-10.2382
成帝	-10.2386
也若	-10.2386
餞	-10.2388
明皇	-10.2391
禀	-10.2391
之民	-10.2394
無人	-10.2419
葦	-10.243
釐	-10.2431
儼	-10.2432
燧	-10.2433
處士	-10.2438
旨	-10.244
率衆	-10.2447
也然	-10.2448
潁	-10.2448
不忘	-10.245
或有	-10.2456
疇	-10.2457
三輔	-10.2459
千人	-10.2459
賓客	-10.2461
幽州	-10.2464
江東	-10.2467
愼	-10.247
宦	-10.2486
娥	-10.2486
誨	-10.2493
劉向	-10.2493
人情	-10.2495
封禪	-10.2497
瓜	-10.2501
雒陽	-10.2502
拱	-10.2502
沖	-10.2516
龍門	-10.2516
填	-10.252
少卿	-10.2527
牋	-10.2527
至此	-10.2529
美人	-10.2536
宫室	-10.2537
箋	-10.2539
怠	-10.2541
給事中	-10.2542
十三年	-10.2548
胎	-10.2548
是非	-10.2548
班固	-10.2551
中書令	-10.2556
常侍	-10.2565
以禮	-10.2567
者則	-10.2575
遼東	-10.2585
譬	-10.2591
龎	-10.2594
徳宗	-10.2595
賦詩	-10.2605
鞍	-10.2607
其文	-10.2609
帝以	-10.2619
侃	-10.2642
遏	-10.2642
世家	-10.2643
搏	-10.265
已上	-10.2651
祭酒	-10.2656
崑崙	-10.2658
天子之	-10.2665
酸	-10.2675
睦	-10.2682
之説	-10.2685
王曰	-10.269
濃	-10.2695
正韻	-10.2701
爪	-10.2708
城南	-10.2708
腐	-10.2712
常以	-10.2712
又以	-10.2725
遮	-10.2726
之家	-10.2727
元豐	-10.2728
唐太宗	-10.273
甲子	-10.2733
真宗	-10.2733
太師	-10.2742
用兵	-10.2743
不堪	-10.2746
迫	-10.275
縮	-10.2756
不成	-10.2757
弛	-10.2758
伴	-10.276
皮日休	-10.2765
釁	-10.2767
甸	-10.2776
御史中丞	-10.2778
其罪	-10.2779
絮	-10.2783
該	-10.2786
床	-10.2787
掘	-10.2792
自此	-10.2796
睿	-10.2804
西京	-10.2806
禁中	-10.2807
甘泉	-10.2808
有五	-10.281
荅曰	-10.281
汾	-10.281
太平御覽卷第	-10.2814
捐	-10.2816
大事	-10.2817
羡	-10.2821
荘	-10.2823
禮部	-10.2824
雋	-10.2825
舊制	-10.2826
河内	-10.2837
十人	-10.2838
功曹	-10.2849
子也	-10.2851
粗	-10.2851
一旦	-10.2855
後為	-10.286
蹄	-10.2861
郡王	-10.2866
諸道	-10.2876
閤	-10.2886
三尺	-10.2886
孝子	-10.2891
研	-10.2896
闊	-10.2897
神武	-10.2903
曰公	-10.2905
廓	-10.2907
持節	-10.2913
之患	-10.2915
芻	-10.2915
家貧	-10.2917
稼	-10.2918
丕	-10.2919
山水	-10.292
三司	-10.2922
蠲	-10.2923
讐	-10.2923
縛	-10.2924
庶人	-10.2928
求之	-10.2937
以備	-10.2938
蠧	-10.2939
册	-10.2939
風吹	-10.2942
億	-10.2944
鐡	-10.2946
不合	-10.2949
相公	-10.2949
揆	-10.295
之政	-10.2952
簟	-10.2954
與人	-10.2957
挽	-10.2969
夏侯	-10.297
奉和	-10.297
行人	-10.2973
俸	-10.2977
汎	-10.2978
劔	-10.2988
晉侯	-10.299
知名	-10.2992
琮	-10.2995
而不能	-10.2997
拙	-10.2997
覇	-10.2998
𬒳	-10.3001
庻	-10.301
稜	-10.3021
執政	-10.3024
之盛	-10.3026
髙麗	-10.3034
何處	-10.3035
齊人	-10.3036
不易	-10.3036
趙王	-10.3039
李嶠	-10.3043
説文	-10.3045
周書	-10.3048
滴	-10.305
汪	-10.3055
曰朕	-10.3055
勾	-10.3056
鄒	-10.3056
梟	-10.3057
坦	-10.3063
萬餘	-10.3072
十九	-10.3073
綜	-10.3083
虢	-10.3093
第三	-10.3107
曰天	-10.3113
山林	-10.3123
繒	-10.3138
宥	-10.3139
輟	-10.3144
丨之丨	-10.3146
氏之	-10.3147
脈	-10.3152
切音	-10.3153
凢	-10.3154
度支	-10.3158
蝶	-10.316
之衆	-10.316
銳	-10.316
威儀	-10.3163
一卷	-10.3164
自稱	-10.3164
碩	-10.3167
孝文	-10.3167
撃	-10.3168
南郊	-10.3169
妹	-10.317
泄	-10.3171
璞	-10.3178
者謂之	-10.3183
而立	-10.3183
汚	-10.3184
天道	-10.3187
戀	-10.3196
釵	-10.3196
謁者	-10.3198
不盡	-10.32
叱	-10.3201
觀其	-10.3208
則天	-10.3213
陜	-10.3217
虵	-10.3223
潁川	-10.3226
股	-10.3226
父老	-10.3229
後主	-10.3232
黄門	-10.3239
讒	-10.324
往往	-10.324
苖	-10.3244
桞	-10.3246
賜之	-10.3248
羲	-10.3255
若此	-10.3256
名也	-10.3257
閻	-10.3263
轅	-10.3266
往來	-10.3268
山下	-10.3272
五帝	-10.3274
將士	-10.3276
駒	-10.3279
狎	-10.328
於天	-10.3282
唐書曰	-10.3287
吉凶	-10.3292
酉陽雜俎	-10.3294
而止	-10.3297
粒	-10.33
之餘	-10.3301
聞其	-10.3303
零	-10.3307
九日	-10.3309
紗	-10.3311
躡	-10.3317
簷	-10.3325
幅	-10.3326
不動	-10.3329
太廟	-10.3332
籌	-10.3335
迭	-10.3337
時為	-10.3345
誼	-10.3347
岱	-10.3353
之物	-10.3361
殖	-10.3373
鐸	-10.3375
寔	-10.3376
郭璞	-10.3383
之風	-10.3384
繭	-10.3385
老人	-10.339
煎	-10.339
用事	-10.3396
帆	-10.3397
別	-10.3399
之命	-10.3401
帝紀	-10.3403
貴賤	-10.3408
始皇	-10.341
赫	-10.3417
贄	-10.3421
若有	-10.3425
韜	-10.3431
文曰	-10.3431
聖人之	-10.3433
長吏	-10.3438
欒	-10.3439
牟	-10.3446
炳	-10.3447
笞	-10.3448
敘	-10.3449
大業	-10.3449
中宗	-10.3449
齊侯	-10.3453
荀子	-10.3454
餐	-10.3456
隴西	-10.3462
慕容	-10.3462
江淹	-10.3466
楷	-10.3466
故能	-10.3468
蔬	-10.3472
遂以	-10.3476
替	-10.3487
國有	-10.349
貂	-10.3491
愆	-10.3491
之處	-10.3493
丈夫	-10.3493
九十	-10.3497
霑	-10.3497
㝠	-10.3503
祕	-10.3504
孕	-10.3504
郤	-10.3504
旄	-10.351
通鑑	-10.3512
大怒	-10.3515
則不	-10.3517
皆為	-10.3518
桃花	-10.352
沐	-10.3522
斫	-10.3524
核	-10.3531
十一年	-10.3533
幡	-10.3534
不覺	-10.354
婆	-10.3541
不容	-10.3554
通典	-10.3555
醒	-10.3558
豈有	-10.3565
望之	-10.3567
太山	-10.3571
字伯	-10.358
軾	-10.3583
顔色	-10.3597
歇	-10.3599
見於	-10.3607
太極	-10.3609
粹	-10.361
之難	-10.3611
華山	-10.3613
歐陽	-10.3616
踏	-10.362
變化	-10.363
芬	-10.3641
未知	-10.3646
縑	-10.3651
莒	-10.3655
峙	-10.3655
諸儒	-10.3657
貞元	-10.3659
可汗	-10.3664
筮	-10.3665
纒	-10.3667
多少	-10.3686
衙	-10.3686
縣有	-10.3695
之書	-10.3696
未及	-10.3703
曹公	-10.3712
屑	-10.3713
曹植	-10.3717
見前	-10.3717
脅	-10.3719
繪	-10.3726
觀察使	-10.373
終身	-10.3732
牖	-10.3736
殿前	-10.3737
炊	-10.3744
管仲	-10.3751
針	-10.3753
宸	-10.3756
蘓	-10.3758
譙	-10.376
亢	-10.3762
歆	-10.3774
夭	-10.3779
不免	-10.3782
萃	-10.3784
之世	-10.3785
以後	-10.3795
神宗	-10.3796
問之	-10.3804
讎	-10.3807
於外	-10.3809
今年	-10.3813
侮	-10.3814
東方朔	-10.3817
毛詩	-10.3818
鋪	-10.3822
日中	-10.3826
官屬	-10.3834
為侍中	-10.3835
堆	-10.3837
車騎	-10.3837
踵	-10.384
丨其丨	-10.3842
倡	-10.3849
侍御	-10.3854
人君	-10.3858
四字	-10.3858
人多	-10.3859
召見	-10.386
誄	-10.3863
一朝	-10.387
皇甫	-10.387
破之	-10.3878
技	-10.3878
祁	-10.3885
十五年	-10.3888
𦙍	-10.3891
并州	-10.3902
疋	-10.3903
失其	-10.3913
漢武帝	-10.3914
羽林	-10.3915
顗	-10.3922
彫	-10.3925
慘	-10.3938
徐州	-10.3943
叶	-10.3944
隄	-10.3945
毗	-10.3945
之重	-10.3946
耆	-10.3949
曰若	-10.3951
形如	-10.3968
翊	-10.3971
數萬	-10.3974
陌	-10.3975
憲宗	-10.3976
之變	-10.3976
久之	-10.3979
千萬	-10.3979
矛	-10.3979
宫人	-10.3983
他日	-10.3989
而退	-10.399
萬國	-10.3993
朔方	-10.3994
逵	-10.3997
麋	-10.4003
寤	-10.4004
者乎	-10.401
王氏	-10.4016
漢中	-10.4018
俞	-10.4027
白日	-10.4027
賂	-10.4032
青州	-10.4033
銘曰	-10.4034
煬帝	-10.4042
駢	-10.4043
禽獸	-10.4048
十四年	-10.4055
人所	-10.4056
晟	-10.4059
志曰	-10.4064
鸚鵡	-10.4067
楹	-10.4071
所生	-10.4075
金銀	-10.4076
鄉里	-10.4078
二十年	-10.4081
罵	-10.4083
燎	-10.4085
郁	-10.4085
於人	-10.4093
繇是	-10.4096
屨	-10.41
灘	-10.4103
元祐	-10.4104
捉	-10.4105
扈	-10.4105
太白	-10.4106
咏	-10.411
之情	-10.4112
擔	-10.4116
吏部尚書	-10.4119
於上	-10.4121
丨丨丨丨丨丨	-10.4122
之象	-10.4124
何必	-10.4125
有異	-10.4129
袴	-10.4131
肺	-10.4134
羈	-10.4136
彛	-10.4141
榻	-10.4144
蟠	-10.4144
番	-10.4153
恬	-10.4155
嬌	-10.4155
雛	-10.4158
群	-10.4158
傳見	-10.4163
建武	-10.4166
摶	-10.4169
謫	-10.417
列子	-10.417
軟	-10.4171
是日	-10.4172
鵞	-10.4172
八百	-10.4175
賈誼	-10.4179
鯉	-10.4184
延年	-10.4185
酉	-10.4188
囂	-10.4189
帽	-10.419
咽	-10.4195
議者	-10.4195
徼	-10.4199
詎	-10.4204
之徳	-10.4216
神農	-10.4216
瓌	-10.4217
記云	-10.4219
竦	-10.4232
怯	-10.4233
西河	-10.4235
大王	-10.4237
復置	-10.4238
國史	-10.4238
昨	-10.424
顛	-10.424
其功	-10.4244
各一人	-10.4249
嶺南	-10.4249
之君	-10.4256
諸侯之	-10.4261
起居	-10.4273
鳥獸	-10.4273
愷	-10.4273
何所	-10.4275
渴	-10.4283
婉	-10.4286
謡	-10.4287
沸	-10.4288
渤海	-10.429
臭	-10.4294
耻	-10.4301
人名	-10.4303
馴	-10.4303
竄	-10.4311
秋風	-10.4312
來朝	-10.4314
三品	-10.4319
鵝	-10.4319
諸公	-10.4325
東漢	-10.433
扉	-10.4333
渙	-10.4337
乾坤	-10.4339
因以	-10.4343
越王	-10.4346
三字	-10.4347
前漢	-10.4347
大者	-10.4349
萬年	-10.4352
臣等	-10.4353
大將	-10.4355
籬	-10.4357
啄	-10.436
琵琶	-10.4372
長子	-10.4373
䨇	-10.4375
淮南子曰	-10.4377
梁書	-10.4395
戢	-10.4402
叅軍	-10.4405
冨	-10.4408
滛	-10.4408
抱朴子	-10.4411
四面	-10.4411
曙	-10.4413
者多	-10.4416
西山	-10.442
諸葛亮	-10.4422
太僕	-10.4422
無有	-10.4424
蔓	-10.4428
教授	-10.4432
風流	-10.4438
字仲	-10.4443
而復	-10.4447
蔵	-10.4457
散騎常侍	-10.446
敖	-10.4462
癡	-10.4463
棊	-10.4467
的	-10.447
㸔	-10.4472
壅	-10.4475
不信	-10.448
金玉	-10.4485
之道也	-10.4486
聨	-10.4488
沙門	-10.4494
文宗	-10.4495
居之	-10.4497
撓	-10.4499
褐	-10.4502
自有	-10.4506
治之	-10.4508
二十五	-10.4509
受之	-10.451
已下	-10.4511
可為	-10.4513
拳	-10.4523
昔者	-10.4535
控	-10.4535
爻	-10.454
脊	-10.4541
惡之	-10.4541
孝經	-10.4544
不已	-10.4546
僣	-10.4548
之學	-10.4548
冀州	-10.455
邯鄲	-10.4551
廣州	-10.4553
跳	-10.4555
白虎	-10.4559
曰臣聞	-10.4564
堰	-10.457
楚子	-10.4572
滌	-10.4573
河西	-10.4578
之罪	-10.458
千餘	-10.4583
宣王	-10.4584
建安	-10.4586
録曰	-10.4587
彤	-10.4587
謚	-10.459
則為	-10.4592
廬山	-10.4592
梯	-10.4593
各一	-10.46
鈴	-10.4601
景帝	-10.4606
書云	-10.4607
般	-10.4608
梁元帝	-10.4609
而能	-10.461
博學	-10.4613
傳記	-10.4613
故以	-10.4615
屏風	-10.4617
於前	-10.4618
訊	-10.4625
隕	-10.4627
代宗	-10.4627
寒暑	-10.4632
豚	-10.4642
洋	-10.4642
什	-10.4643
豔	-10.4644
舂	-10.4649
貲	-10.4652
㕔	-10.4659
於天下	-10.466
姪	-10.4661
不自	-10.4661
少時	-10.4663
欽定四庫全書	-10.4666
多所	-10.4667
代之	-10.4676
中央	-10.4677
五星	-10.4679
以求	-10.4681
起於	-10.4682
沂	-10.4683
剥	-10.4684
兖州	-10.4686
大笑	-10.4687
熾	-10.4691
五曰	-10.4692
清風	-10.4693
二千	-10.4695
冩	-10.4701
苟	-10.4701
涕	-10.4708
周之	-10.4725
之狀	-10.4729
苛	-10.4739
沼	-10.4744
亨	-10.4747
托	-10.4757
有四	-10.4759
寺詩	-10.4759
乃命	-10.4762
翹	-10.4768
漲	-10.4769
徘徊	-10.4771
潘岳	-10.4772
廊	-10.4773
亥	-10.4773
獻之	-10.4778
牡丹	-10.4781
楚人	-10.4781
曰陛下	-10.4783
其聲	-10.479
不必	-10.4791
㢘	-10.4793
之師	-10.4793
攻之	-10.4796
其志	-10.4799
或云	-10.4801
討之	-10.4802
咸陽	-10.4802
者謂	-10.4803
後至	-10.4804
蒿	-10.4806
之山	-10.4807
酷	-10.4811
之本	-10.4814
弋	-10.4817
灼	-10.4817
忝	-10.4822
丑	-10.4826
四夷	-10.4827
冐	-10.4827
太宰	-10.4829
大驚	-10.4834
射之	-10.4835
未至	-10.4838
嘆曰	-10.484
為名	-10.4845
武陵	-10.4846
滕	-10.4848
翫	-10.4848
天寳	-10.4851
梵	-10.4857
真人	-10.486
土地	-10.4862
歐	-10.4863
暨	-10.4869
位至	-10.487
蕪	-10.488
酣	-10.4881
而入	-10.4886
有道	-10.4891
晉陽	-10.4891
償	-10.4892
生子	-10.4894
其形	-10.4896
未可	-10.4897
以供	-10.4898
與其	-10.4898
僖	-10.4899
昻	-10.49
之計	-10.4909
可得	-10.491
出為	-10.4911
之始	-10.4911
注丨丨	-10.4913
因名	-10.4916
沾	-10.4918
于丨丨	-10.4919
故有	-10.4921
拾遺記	-10.493
悅	-10.4932
偕	-10.4937
春日	-10.4938
江西	-10.4938
謂之丨丨	-10.4939
𨕖	-10.4939
陽侯	-10.4945
武昌	-10.4946
平陽	-10.495
蕙	-10.4952
羔	-10.4955
以獻	-10.4957
征伐	-10.4957
東觀	-10.496
年少	-10.4966
為國	-10.4967
易林	-10.4969
其民	-10.497
沿	-10.4971
撥	-10.4975
蓮花	-10.4976
請以	-10.4979
黄河	-10.498
琛	-10.4983
之長	-10.4987
爾雅曰	-10.4987
小者	-10.4989
氐	-10.4995
騁	-10.4998
天命	-10.5
梧	-10.5001
上元	-10.5001
晞	-10.5008
數百人	-10.5008
坑	-10.5015
臣之	-10.5018
邇	-10.5021
施行	-10.503
九江	-10.5035
韓信	-10.5037
左傳曰	-10.5044
所宜	-10.5046
日夜	-10.5046
雍州	-10.5056
耿	-10.5062
煖	-10.5066
萊	-10.5066
翦	-10.507
儀禮	-10.5072
王室	-10.5073
夫婦	-10.5075
杜甫詩	-10.5075
𢃄	-10.5078
驟	-10.5089
西漢	-10.509
鼈	-10.5094
安國	-10.5098
切集韻韻㑹	-10.5104
舘	-10.5105
瑕	-10.5108
問其故	-10.511
藪	-10.5115
茹	-10.5116
世之	-10.5122
棟	-10.5126
三十里	-10.5129
嗚呼	-10.5133
栁宗元	-10.5134
道也	-10.5139
喚	-10.5139
誇	-10.5142
晉書曰	-10.5142
列侯	-10.5144
丹陽	-10.5144
模	-10.5146
不知其	-10.5146
欄	-10.5147
歐陽修	-10.5148
無異	-10.5151
漂	-10.5152
遣人	-10.5162
經曰	-10.5169
賚	-10.5173
郊祀	-10.5174
所殺	-10.5174
法度	-10.5174
流水	-10.5186
名為	-10.5188
山詩	-10.519
何不	-10.5193
未必	-10.5194
子産	-10.5195
螺	-10.5209
孺	-10.5226
迥	-10.5226
卞	-10.5228
繕	-10.5228
闈	-10.523
艮	-10.5235
猶有	-10.5235
安定	-10.5237
寘	-10.5237
官至	-10.5239
張説	-10.5241
相望	-10.5242
系	-10.5245
水旱	-10.5249
鎧	-10.5253
殯	-10.5259
亦以	-10.5266
聰明	-10.5266
員外郎	-10.5269
禇	-10.5271
王勃	-10.5275
雜記	-10.5276
腦	-10.5281
悍	-10.5281
金陵	-10.5289
伊尹	-10.529
寒食	-10.5292
百餘人	-10.5293
曷	-10.5296
梁武帝	-10.5297
有此	-10.531
三寸	-10.5314
八卦	-10.5315
謂其	-10.5316
幘	-10.5316
自今	-10.5317
評	-10.5318
筋	-10.5322
箱	-10.5323
相傳	-10.5332
慚	-10.5334
劉氏	-10.5344
閨	-10.5344
鉢	-10.5348
聞而	-10.5357
不顧	-10.5358
在於	-10.536
訣	-10.5361
之說	-10.5364
秦始皇	-10.5368
鄭𤣥	-10.5371
賦丨丨	-10.5371
君子之	-10.5372
寮	-10.5372
暇	-10.5373
蠟	-10.5377
騷	-10.5377
嚮	-10.5377
啖	-10.5378
沔	-10.5378
凋	-10.5385
秀才	-10.5388
嫡	-10.5391
此人	-10.5396
氊	-10.5401
幄	-10.5401
而不知	-10.5403
周易	-10.5415
粧	-10.542
相去	-10.5423
須臾	-10.5424
千年	-10.5428
所出	-10.5436
晷	-10.5444
髙帝	-10.5445
百僚	-10.5446
隸	-10.5446
縫	-10.5448
不利	-10.5448
無常	-10.5449
兄子	-10.5457
僭	-10.5457
京城	-10.5462
妍	-10.5465
永嘉	-10.5468
稱其	-10.5468
以金	-10.5469
出自	-10.547
第五	-10.5475
鞠	-10.5475
應制詩	-10.5479
杜預	-10.5481
人事	-10.5481
拊	-10.5481
一言	-10.5482
不疑	-10.5487
大将軍	-10.5495
斾	-10.5502
王安石	-10.5505
衣食	-10.5505
螭	-10.5515
言於	-10.5515
而至	-10.552
嬴	-10.5523
篋	-10.5523
必以	-10.5526
字文	-10.5534
丨丨注	-10.5537
河中	-10.5539
慿	-10.5548
而自	-10.5549
王維	-10.555
曵	-10.5553
故謂之	-10.5554
公羊	-10.5555
濶	-10.5561
開府	-10.5563
瘦	-10.5569
復為	-10.5572
俎	-10.558
弭	-10.5583
世説	-10.559
一月	-10.5598
療	-10.56
王孫	-10.5602
令史	-10.5605
城郭	-10.5609
邾	-10.5614
已而	-10.5616
乃得	-10.5622
陽氣	-10.5628
轍	-10.5629
河陽	-10.5635
所見	-10.564
軍事	-10.5642
遶	-10.5645
雲中	-10.5646
恊	-10.5647
其義	-10.5651
駱	-10.5653
三分	-10.5654
蹤	-10.566
茗	-10.5666
亦無	-10.5667
蕭何	-10.5667
丙	-10.5671
曄	-10.5673
軀	-10.5682
明經	-10.5686
掖	-10.5687
不待	-10.5692
駮	-10.57
在上	-10.5704
五千	-10.5707
之音	-10.571
人不	-10.571
待之	-10.5713
山之	-10.5713
廩	-10.5715
齡	-10.5717
而上	-10.572
魏王	-10.572
中人	-10.5726
屍	-10.5736
鄉人	-10.5739
之弊	-10.574
鳯凰	-10.5746
近臣	-10.5752
掛	-10.5763
衆人	-10.5765
更始	-10.5767
必先	-10.5768
行事	-10.5771
鉛	-10.5772
樸	-10.5772
此其	-10.5774
不止	-10.5775
楓	-10.5778
廹	-10.578
芽	-10.5783
一也	-10.5788
說文	-10.5789
殻	-10.5792
𤼵	-10.5793
武后	-10.5794
匣	-10.5798
利害	-10.5799
有聲	-10.5803
庇	-10.5804
王母	-10.5809
竅	-10.5809
頥	-10.5811
曳	-10.5811
參差	-10.5814
麒麟	-10.5819
冉	-10.5822
萍	-10.5822
成功	-10.5826
涇	-10.5826
褚	-10.5826
輯	-10.5826
屐	-10.5827
妝	-10.5828
廐	-10.5828
累遷	-10.5829
曼	-10.5837
呼為	-10.5839
頽	-10.5841
為丞相	-10.5843
一枝	-10.5843
凱	-10.5843
賞罰	-10.5846
珮	-10.585
以致	-10.5851
百人	-10.5854
髯	-10.5857
舎人	-10.5864
一員	-10.5869
旒	-10.5874
陀	-10.5879
江左	-10.588
王建	-10.5881
名山	-10.5881
以相	-10.5883
豈非	-10.5885
鄂	-10.5888
之末	-10.589
貎	-10.5893
諸司	-10.5894
後人	-10.5901
殿下	-10.5902
洎	-10.591
項羽	-10.5911
平章事	-10.5917
相繼	-10.5922
景公	-10.5925
▁杜甫	-10.5927
六合	-10.5933
之乃	-10.5936
飲之	-10.594
亭詩	-10.5942
紆	-10.5944
言語	-10.5944
噉	-10.5945
或問	-10.5946
槩	-10.5947
其次	-10.5951
栽	-10.5954
械	-10.5956
大人	-10.596
馥	-10.5961
搖	-10.5961
九卿	-10.5962
東觀漢記曰	-10.5964
俠	-10.5977
在此	-10.5981
宣武	-10.5984
將帥	-10.5986
蝗	-10.5986
蠻夷	-10.5987
中尉	-10.599
逋	-10.5992
人為	-10.5992
攘	-10.5993
稚	-10.5995
城門	-10.6001
涵	-10.6002
張說	-10.6003
為天下	-10.6003
畆	-10.6006
愛之	-10.6006
蹙	-10.601
為太子	-10.6012
奴婢	-10.6013
給事	-10.6013
字元	-10.6015
奏曰	-10.6016
然也	-10.6016
精神	-10.6018
四百	-10.602
餓	-10.6021
蠅	-10.6023
在外	-10.6023
騫	-10.6023
弃	-10.6024
中原	-10.6025
闥	-10.6026
劫	-10.6027
蹇	-10.603
史官	-10.6031
事君	-10.6031
椎	-10.6033
杞	-10.6034
其職	-10.6037
作丨丨	-10.6045
顒	-10.6046
迅	-10.6047
禹貢	-10.6047
侔	-10.6056
囿	-10.6063
曰王	-10.6064
渥	-10.6065
大明	-10.6069
左氏	-10.6071
線	-10.6078
朱子	-10.608
而反	-10.6083
謝靈運	-10.6088
廪	-10.6089
眺	-10.6089
后稷	-10.609
而進	-10.6091
于此	-10.6091
京兆尹	-10.6094
笥	-10.6097
寝	-10.61
綰	-10.6101
彬	-10.6102
不祥	-10.6103
肌	-10.6106
人家	-10.6109
救之	-10.611
鉞	-10.612
不善	-10.6121
憎	-10.6128
皁	-10.6131
頤	-10.6132
未聞	-10.6142
之兵	-10.6142
所至	-10.6145
墟	-10.6148
十六年	-10.6157
以前	-10.6161
前代	-10.6165
軒轅	-10.6166
牡	-10.6166
為君	-10.617
金城	-10.6171
舄	-10.6174
亘	-10.6177
建康	-10.6178
六典	-10.6178
翰林學士	-10.6181
垢	-10.6182
奬	-10.6183
曇	-10.6183
匱	-10.6186
祫	-10.6188
巽	-10.6188
陸龜蒙	-10.6188
吳王	-10.6195
祇	-10.6205
它	-10.621
江湖	-10.6211
厠	-10.6213
制曰	-10.6214
乃令	-10.6225
李賀	-10.6228
别駕	-10.6231
駁	-10.6231
三十年	-10.6232
執事	-10.6233
岫	-10.6235
官吏	-10.6236
灾	-10.6238
軍士	-10.6239
鈔	-10.6239
温庭筠	-10.624
正義	-10.624
晉王	-10.6243
金吾	-10.6245
隘	-10.6245
宋朝	-10.625
其道	-10.6251
後唐	-10.6256
提舉	-10.6261
大敗	-10.6262
賦見	-10.6264
大抵	-10.6264
白玉	-10.6264
及第	-10.6264
珠玉	-10.6266
劭	-10.6268
於地	-10.6271
㤗	-10.6272
兾	-10.6274
無私	-10.6279
驂	-10.6279
旂	-10.628
珥	-10.6282
所用	-10.6282
子貢	-10.6282
戰國	-10.6287
上詳	-10.6294
之服	-10.6295
王師	-10.6302
一物	-10.6302
鴛鴦	-10.6303
後有	-10.6307
菱	-10.631
嘲	-10.631
押	-10.6313
詩話	-10.6313
可也	-10.6313
之理	-10.6316
世宗	-10.6316
娘	-10.6317
張衡	-10.6318
清明	-10.6318
瑾	-10.6318
印綬	-10.6319
嘗與	-10.6321
奉使	-10.6322
褥	-10.6322
菩薩	-10.6328
媒	-10.6329
之門	-10.6331
其能	-10.6331
覃	-10.6334
瓘	-10.6336
宇文	-10.6336
琉璃	-10.6337
亦如之	-10.6343
忤	-10.6345
喙	-10.6349
矣然	-10.635
韋應物	-10.6357
數人	-10.6362
皎	-10.6364
陞	-10.6364
玊	-10.6368
皇太后	-10.637
畨	-10.6371
北面	-10.6372
少有	-10.638
黄鍾	-10.6382
先王之	-10.6388
猥	-10.6397
渡江	-10.6398
眇	-10.6402
不去	-10.6405
冡	-10.6405
七百	-10.6406
蛾	-10.6409
千載	-10.641
十七年	-10.6411
後漢書曰	-10.6414
大理	-10.6422
非常	-10.6427
守之	-10.6427
既至	-10.6429
而得	-10.6431
公事	-10.6438
易之	-10.6439
可乎	-10.644
猪	-10.6443
辜	-10.6444
秋日	-10.6444
袂	-10.6445
上黨	-10.6446
緋	-10.6446
陸游詩	-10.6447
桓温	-10.6455
為左	-10.646
梅花	-10.6461
噫	-10.6463
者所以	-10.6463
▁又曰	-10.6465
瘡	-10.6468
所言	-10.6469
頑	-10.6471
洩	-10.6477
叔父	-10.6479
長生	-10.6479
釡	-10.6486
無遺	-10.6491
諾	-10.6492
涯	-10.6492
相對	-10.6496
覧	-10.6496
禮義	-10.6497
衣裳	-10.6499
兵部	-10.65
涸	-10.6502
琦	-10.6502
彘	-10.6505
糓	-10.6509
驪	-10.6509
妨	-10.6509
之性	-10.6514
若不	-10.6516
江水	-10.6516
河間	-10.6524
詩書	-10.6527
曰吾聞	-10.6528
玉堂	-10.6534
東門	-10.6535
瓠	-10.6537
奄	-10.6537
所為	-10.6538
民間	-10.6539
為右	-10.654
趾	-10.654
望見	-10.6541
奏請	-10.6541
之亂	-10.6543
其數	-10.6548
三萬	-10.6552
軍旅	-10.6555
中書舍人	-10.6556
埤雅	-10.6558
醢	-10.6558
龔	-10.656
不改	-10.6563
葱	-10.6563
騶	-10.6564
百官志	-10.6565
家有	-10.6565
贓	-10.6565
夏至	-10.6566
賢人	-10.6569
佚	-10.6571
關中	-10.6576
騐	-10.6579
此則	-10.658
瘞	-10.6581
黯	-10.6581
之號	-10.6588
胃	-10.6589
砌	-10.659
勘	-10.6591
若乃	-10.6592
不就	-10.6593
鍼	-10.6597
水火	-10.6602
物也	-10.6606
兵法	-10.6606
縞	-10.6608
闗中	-10.6615
自謂	-10.6617
)○	-10.6619
鴉	-10.6622
固辭	-10.6623
尚書郎	-10.6625
金史	-10.6626
昭王	-10.6629
其利	-10.6631
以明	-10.6631
扶風	-10.6635
邦國	-10.6638
兵馬	-10.6639
之力	-10.6641
所作	-10.6645
其色	-10.6648
菴	-10.6649
姻	-10.6651
陰陽	-10.6652
徐陵	-10.6654
虬	-10.6656
石室	-10.6657
自言	-10.6658
若是	-10.6659
太保	-10.6665
欲令	-10.6668
斃	-10.6672
論曰	-10.6683
謐	-10.6689
莊子曰	-10.6689
岩	-10.669
之業	-10.6695
楊萬里	-10.6698
宗正	-10.67
之恩	-10.6701
詹	-10.6704
第四	-10.6705
縱横	-10.6707
棠	-10.6708
南面	-10.6708
乃使	-10.6714
穹	-10.6716
鷺	-10.6718
加以	-10.6723
漳	-10.6724
六經	-10.6727
不下	-10.6731
襄公	-10.6733
盗賊	-10.6736
從者	-10.674
懇	-10.6746
經史	-10.6749
縣西	-10.6749
羗	-10.675
雲笈七籖	-10.6752
萬民	-10.6758
久矣	-10.6759
戰國䇿	-10.6773
是月	-10.6776
齧	-10.6777
武功	-10.6779
監察御史	-10.6781
紺	-10.6783
叡	-10.6784
漬	-10.6785
夜半	-10.6786
曰是	-10.6792
海中	-10.6795
張九齡	-10.6795
滎陽	-10.6796
弓矢	-10.6797
北斗	-10.68
陽城	-10.6801
之儀	-10.6802
親戚	-10.6803
甌	-10.6804
歙	-10.6806
参	-10.6807
陽縣	-10.6809
數月	-10.6811
麴	-10.6813
昂	-10.6813
水經	-10.6815
李氏	-10.6816
國王	-10.6822
有石	-10.6824
𥙷藻	-10.6824
措	-10.6825
蓬萊	-10.6829
逄	-10.6831
說文曰	-10.6832
桃李	-10.6839
頰	-10.6848
恂	-10.6849
中軍	-10.6852
一寸	-10.6854
其本	-10.6855
歴代	-10.6864
裾	-10.6867
為我	-10.6869
卿大夫	-10.6871
内有	-10.6872
讌	-10.6873
千秋	-10.6875
㡌	-10.6877
不安	-10.6877
貟	-10.688
其衆	-10.688
鼓吹	-10.6882
耽	-10.6884
大軍	-10.6885
欠	-10.6887
明宗	-10.6887
后土	-10.6889
一字	-10.6892
儒者	-10.6894
噬	-10.69
未得	-10.6901
蓼	-10.6902
留守	-10.6904
光禄大夫	-10.6911
于時	-10.6913
公私	-10.6913
及諸	-10.6914
諸葛	-10.692
鷗	-10.6923
粤	-10.6924
乗輿	-10.6924
禮記曰	-10.6929
百寮	-10.6932
扣	-10.6934
薰	-10.6936
綃	-10.6937
辟雍	-10.6939
亦可	-10.694
糞	-10.6945
訛	-10.6948
豎	-10.695
號令	-10.6954
賜以	-10.6954
河圖	-10.6956
范成大	-10.6956
常有	-10.6956
當以	-10.6958
對曰臣	-10.6967
二十八	-10.6968
諫曰	-10.6968
梗	-10.6971
畦	-10.6973
蘿	-10.6975
陜西	-10.6975
光明	-10.6977
遂為	-10.6979
始於	-10.6979
刋	-10.6979
不肖	-10.6981
於民	-10.6984
南郡	-10.6988
伏羲	-10.6989
隗	-10.6989
常山	-10.6989
不明	-10.699
豫州	-10.6992
繆	-10.6995
拯	-10.6996
總管	-10.7002
挹	-10.7005
蚌	-10.7005
魏武	-10.7006
朝服	-10.7007
十九年	-10.7014
子路	-10.7015
燃	-10.7015
卯	-10.7016
譯	-10.7018
中郎	-10.7021
之形	-10.7022
不解	-10.7022
鳳凰	-10.7024
上林	-10.7025
▁李	-10.7027
其法	-10.7029
逞	-10.7033
球	-10.7034
甚多	-10.7036
骨肉	-10.7037
閎	-10.7043
善惡	-10.7051
漠	-10.7054
有疾	-10.7056
於朝	-10.7056
摯	-10.7068
穗	-10.7068
渡河	-10.7075
易曰	-10.7075
無忌	-10.7076
譴	-10.708
悖	-10.7085
菽	-10.7085
不問	-10.7087
上天	-10.7088
酪	-10.7088
郡太守	-10.709
啇	-10.7094
置之	-10.7095
撲	-10.7104
不知所	-10.7108
即日	-10.7111
所欲	-10.7111
薊	-10.7112
長短	-10.7114
様	-10.7118
文書	-10.7119
楯	-10.7121
庠	-10.7123
鵬	-10.7124
宜令	-10.7133
言曰	-10.7137
禮也	-10.7144
至徳	-10.7145
以象	-10.7149
侍讀	-10.7149
埽	-10.7149
不樂	-10.715
盎	-10.7152
同心	-10.7156
五里	-10.7162
十八年	-10.7162
後宫	-10.717
而卒	-10.7171
帝即位	-10.7175
七十二	-10.7178
羨	-10.7178
孟郊	-10.7188
之南	-10.7189
五六	-10.7193
山南	-10.7194
視其	-10.7197
由此	-10.7197
鬛	-10.72
滄	-10.7202
顥	-10.7204
不避	-10.7206
濵	-10.7207
千餘人	-10.7209
之要	-10.7211
何足	-10.7215
堡	-10.7219
森	-10.7221
其君	-10.7223
梅堯臣	-10.7225
六軍	-10.7226
嫗	-10.7231
外戚	-10.7233
大喜	-10.7237
吾子	-10.7239
弑	-10.724
欲得	-10.724
十有二	-10.7242
在前	-10.7243
跋	-10.7259
歎息	-10.726
宼	-10.7261
醇	-10.7261
闔	-10.7264
緝	-10.7266
章句	-10.7268
股肱	-10.727
艶	-10.727
不息	-10.7281
此言	-10.7283
安能	-10.7286
大國	-10.7287
詩序	-10.7288
之神	-10.7293
脣	-10.7297
奎	-10.7307
不亦	-10.7308
煑	-10.731
盾	-10.731
晉人	-10.7311
䘏	-10.7314
有常	-10.7314
宋史樂志	-10.7317
南齊	-10.7322
脾	-10.7322
銖	-10.7323
直言	-10.7323
嘉之	-10.7324
盜賊	-10.7324
五榖	-10.7326
未盡	-10.7326
東陽	-10.7326
白鹿	-10.7328
雩	-10.7328
日暮	-10.7331
武帝時	-10.7331
虗	-10.7331
佗	-10.7333
名臣	-10.7338
膾	-10.7342
簮	-10.7342
青龍	-10.7345
屈原	-10.7346
青雲	-10.7346
檜	-10.7346
夏日	-10.7347
曰某	-10.7347
籥	-10.7351
販	-10.7352
自殺	-10.7353
司馬相如	-10.7353
郡公	-10.7353
叔孫	-10.7353
其才	-10.7356
與語	-10.7356
於時	-10.7362
坂	-10.7366
城下	-10.737
字叔	-10.7379
上表	-10.738
領軍	-10.7381
㑹要	-10.7383
元日	-10.7388
漢之	-10.7391
禪師	-10.7397
緘	-10.7398
江夏	-10.7402
螢	-10.7404
失之	-10.7405
知人	-10.7406
損益	-10.7406
一嵗	-10.7416
政和	-10.7417
諸國	-10.742
枝葉	-10.7425
沿革	-10.7429
梁王	-10.743
薫	-10.7431
户部	-10.7432
携	-10.7433
怒曰	-10.7434
西王母	-10.7435
大旱	-10.7436
飭	-10.7436
徂	-10.7439
賞賜	-10.7439
礪	-10.7442
棹	-10.7442
確	-10.7445
侯景	-10.7445
將兵	-10.7448
太上	-10.7452
迺	-10.7453
冗	-10.7455
之體	-10.7457
高宗	-10.7466
未幾	-10.7468
縳	-10.747
釋名	-10.748
者乃	-10.7484
不生	-10.7485
以来	-10.7488
鋤	-10.749
浄	-10.7492
之流	-10.7498
妬	-10.7499
之實	-10.75
闡	-10.75
為主	-10.7506
終始	-10.7509
於道	-10.751
世子	-10.7516
亦作	-10.7518
行者	-10.7523
故云	-10.7523
縣南	-10.7524
㓕	-10.7525
瑀	-10.7525
懋	-10.7527
不能自	-10.7532
去之	-10.7533
挫	-10.7535
衡山	-10.7535
長樂	-10.7536
壮	-10.7539
鮑照	-10.754
蛤	-10.7541
不加	-10.7541
竟不	-10.7546
兇	-10.7554
尖	-10.7556
狩	-10.7558
若夫	-10.7558
紳	-10.7559
潦	-10.756
指揮	-10.7563
士人	-10.7563
謝安	-10.7571
燔	-10.7571
透	-10.7571
當有	-10.7571
墉	-10.7572
睢	-10.7573
衷	-10.7581
本紀	-10.7583
而不可	-10.7583
鮮卑	-10.7583
濳	-10.7583
三國	-10.7584
剡	-10.7591
六百	-10.7592
僉	-10.7593
他人	-10.7595
三世	-10.7597
以給	-10.7597
訥	-10.7599
鹵	-10.7603
水出	-10.7603
復有	-10.7615
瞽	-10.7619
厄	-10.7619
侍從	-10.7622
芥	-10.763
怡	-10.7633
教之	-10.7638
楚辭	-10.7639
海上	-10.7641
南有	-10.7642
翮	-10.7643
昆弟	-10.7648
都賦	-10.765
有才	-10.7651
晃	-10.7653
則無	-10.7655
中書侍郎	-10.7655
江上	-10.7656
牛馬	-10.7657
捲	-10.7658
曲江	-10.7659
次韻	-10.766
賑	-10.7662
拍	-10.7665
愿	-10.767
炬	-10.7673
認	-10.7676
髙下	-10.768
元年正月	-10.7681
不起	-10.7683
塹	-10.7685
孺子	-10.7686
年老	-10.7687
峭	-10.7688
摇	-10.7693
雲氣	-10.7695
特進	-10.7697
歸之	-10.7697
穫	-10.7698
待詔	-10.7698
萬世	-10.77
玉女	-10.7704
矣而	-10.7704
大義	-10.7705
子夏	-10.7707
天竺	-10.7711
法令	-10.7711
蚊	-10.7715
侍臣	-10.772
嶷	-10.772
衘	-10.7726
烝	-10.7726
誅之	-10.7726
使之	-10.7727
太一	-10.7728
孝宗	-10.7728
水上	-10.7729
虎賁	-10.7729
風雲	-10.7733
燥	-10.7734
王命	-10.7734
衛尉	-10.7738
左僕射	-10.7738
寨	-10.7738
問其	-10.7738
旌旗	-10.774
故其	-10.774
之㑹	-10.7741
昱	-10.7743
河水	-10.7747
塩	-10.7751
鞏	-10.7752
千户	-10.7753
甥	-10.7754
痕	-10.7754
以報	-10.7761
處分	-10.7762
行營	-10.7763
黄龍	-10.7763
彥	-10.7764
知制誥	-10.7767
之憂	-10.7768
秦漢	-10.7768
繹	-10.7773
泌	-10.7775
陳書	-10.7776
干戈	-10.7778
其勢	-10.7781
蕊	-10.7784
一篇	-10.7787
更名	-10.7787
宦者	-10.7787
未嘗不	-10.7788
觜	-10.7789
濱	-10.7789
則是	-10.7792
願陛下	-10.7793
奐	-10.7795
南宫	-10.7797
下車	-10.7797
江海	-10.7797
無他	-10.7798
數千人	-10.7801
為郎	-10.7805
城西	-10.7806
魏志曰	-10.7807
受其	-10.7812
梢	-10.7817
猶未	-10.7819
止於	-10.7819
此乃	-10.7821
無敢	-10.7825
灣	-10.7829
悠悠	-10.783
慷慨	-10.7831
功名	-10.7833
壯士	-10.7845
釀	-10.7848
朝士	-10.7851
承天	-10.7857
隻	-10.7859
一石	-10.7862
中庸	-10.7862
安石	-10.7864
驃騎	-10.7864
榛	-10.7867
於庭	-10.7868
溥	-10.787
而食	-10.7873
而來	-10.7877
而作	-10.7878
詣闕	-10.7879
顆	-10.7879
湧	-10.7883
武徳	-10.7884
而未	-10.7886
雖不	-10.7888
尚書省	-10.7893
二州	-10.7893
濮	-10.7893
於是乎	-10.7893
刑罰	-10.7894
巒	-10.7894
晋書	-10.7895
韓非子	-10.79
十餘年	-10.7901
蒼梧	-10.7909
奉天	-10.7912
之使	-10.7912
貴妃	-10.7917
事之	-10.7917
盃	-10.792
忽有	-10.792
搜	-10.792
十餘萬	-10.7923
茲	-10.7924
嵇康	-10.7925
鎖	-10.7929
因其	-10.793
無罪	-10.7931
捍	-10.7938
芸	-10.7944
沛公	-10.7946
王元	-10.7949
詵	-10.795
鑄錢	-10.7954
顓頊	-10.7954
圖書	-10.7959
封侯	-10.7959
惲	-10.7959
纖	-10.7959
俘	-10.7964
釋之	-10.7967
珊瑚	-10.7968
者三	-10.7969
焦氏易林	-10.798
戰於	-10.7983
天寶	-10.7983
而求	-10.7985
者何	-10.7985
蔑	-10.7985
數十人	-10.7986
清河	-10.7987
無道	-10.7987
䕶軍	-10.7988
柑	-10.7989
辭曰	-10.7991
兕	-10.7993
轉運使	-10.7993
可用	-10.7994
永平	-10.7999
以事	-10.8
裴度	-10.8002
誰能	-10.8005
麓	-10.8007
而知	-10.8008
山海經曰	-10.802
藏之	-10.802
會稽	-10.802
佇	-10.8023
以問	-10.8025
嘗有	-10.8026
大赦	-10.8032
天官	-10.8035
插	-10.8036
蜀志	-10.8038
穆宗	-10.8039
國子	-10.8041
稱之	-10.8048
其有	-10.8049
爲之	-10.805
惟有	-10.8052
呵	-10.8067
一夕	-10.8067
腎	-10.8068
鄭伯	-10.807
禮之	-10.8074
詡	-10.8079
拓	-10.8085
夷狄	-10.8087
任昉	-10.8089
也且	-10.809
當為	-10.8091
依舊	-10.8093
丨又	-10.8093
惰	-10.8095
賄	-10.8099
長孫	-10.81
鄭谷	-10.81
琢	-10.8101
在天	-10.8104
應之	-10.8104
人謂	-10.8107
可見	-10.811
而弗	-10.8115
遙	-10.8115
藁	-10.8115
朝㑹	-10.8121
忠信	-10.8126
而起	-10.8128
王褒	-10.813
薑	-10.8132
朝野	-10.8133
六人	-10.8136
之禍	-10.814
弘	-10.8141
捜	-10.8145
胸	-10.8145
王粲	-10.8147
曺	-10.8148
友人	-10.815
莊宗	-10.815
馬援	-10.8151
之分	-10.8154
覲	-10.8157
之辭	-10.8159
視事	-10.8162
蓍	-10.8163
鉅	-10.8165
吕氏春秋	-10.8166
謂之曰	-10.8168
小字	-10.817
而致	-10.817
大都督	-10.8173
轄	-10.8176
古文	-10.8177
宣宗	-10.8179
愔	-10.8179
為上	-10.8185
陁	-10.8189
人臣	-10.8189
以功	-10.8189
臯陶	-10.8191
為司徒	-10.8193
誌	-10.8193
無功	-10.8194
戌	-10.8198
殄	-10.82
抄	-10.8204
諸路	-10.8207
五品	-10.821
稱為	-10.8213
生而	-10.8213
諸郡	-10.8214
黄庭堅	-10.8219
一家	-10.822
先君	-10.8221
芋	-10.8222
劣	-10.8224
退而	-10.8228
此皆	-10.8231
正色	-10.8232
分野	-10.8234
亳	-10.8241
太陽	-10.8242
宿衛	-10.8242
挈	-10.8243
怖	-10.8245
而欲	-10.8246
阮籍	-10.8247
三王	-10.8247
一尺	-10.8248
鯨	-10.8248
朝臣	-10.8248
因而	-10.8248
前有	-10.8251
漢興	-10.8253
其弟	-10.8256
腥	-10.8261
庖	-10.8263
公侯	-10.8263
作詩	-10.8264
以正	-10.8265
有差	-10.8269
浮雲	-10.827
歌舞	-10.8275
外國	-10.8281
何人	-10.8282
牘	-10.8287
旃	-10.8288
㕘	-10.829
無可	-10.8292
所有	-10.8294
皂	-10.8294
西京雜記	-10.83
琴瑟	-10.8302
盍	-10.8304
曝	-10.8306
儻	-10.8306
傭	-10.8307
大水	-10.8308
一枚	-10.8309
將以	-10.8312
丨丨兮	-10.8313
耦	-10.8315
著作	-10.8317
立功	-10.8318
有詔	-10.8319
禮儀	-10.8326
幢	-10.8331
道徳	-10.8333
所以為	-10.8334
筐	-10.8336
次之	-10.8337
非其	-10.8338
引兵	-10.8341
幕府	-10.8341
嫂	-10.8342
酋	-10.8342
之野	-10.8343
二十七	-10.8347
紐	-10.8347
蜃	-10.8351
椽	-10.8357
欲使	-10.8359
孟嘗君	-10.836
轉運	-10.8362
大雨	-10.8364
入海	-10.8364
牛羊	-10.8366
也吾	-10.8366
以兵	-10.837
侍宴	-10.8373
柵	-10.8376
邠	-10.8379
鳶	-10.8383
圉	-10.8385
縹	-10.8387
無益	-10.8391
不暇	-10.8393
澆	-10.8397
六曰	-10.8399
秘書	-10.8403
鎬	-10.8405
納之	-10.8405
罄	-10.841
乃有	-10.8413
色如	-10.8415
御史臺	-10.8418
輔政	-10.8421
自知	-10.8422
徇	-10.8432
不治	-10.8433
赭	-10.8433
叩頭	-10.8437
麤	-10.8439
王導	-10.844
祜	-10.844
東京	-10.8442
患之	-10.8443
山陽	-10.8454
靄	-10.8454
作亂	-10.8456
大同	-10.8456
逍遥	-10.8457
丹青	-10.8462
廣漢	-10.8469
葺	-10.8469
分為	-10.8481
作樂	-10.8481
后妃	-10.8483
其首	-10.8484
未見	-10.8487
軍國	-10.8488
八人	-10.8489
宗紀	-10.849
之前	-10.8495
嵩山	-10.8495
武子	-10.85
韭	-10.8501
釋奠	-10.8501
立於	-10.8503
黛	-10.8507
養之	-10.8513
▁白居易	-10.8517
璜	-10.8519
壹	-10.8524
責之	-10.8524
鄭注	-10.8525
紛紛	-10.8526
不平	-10.8528
縣東	-10.853
嘗為	-10.8532
父兄	-10.8533
宋玉	-10.8534
緇	-10.8535
靑	-10.8538
而已矣	-10.8538
泗	-10.8539
漢有	-10.8542
孔雀	-10.8542
李徳裕	-10.8543
謝朓	-10.8549
至尊	-10.8552
錢塘	-10.8552
閉門	-10.8553
毬	-10.8553
不取	-10.8555
蚤	-10.8558
矣夫	-10.8558
周旋	-10.8562
王道	-10.8563
記室	-10.8566
造化	-10.8568
事也	-10.8568
貺	-10.8569
袁紹	-10.857
祧	-10.8574
蛟龍	-10.8575
馨	-10.8576
▁唐書	-10.8576
祉	-10.8579
東平	-10.8584
王敦	-10.8586
或謂	-10.8588
遯	-10.8592
嬖	-10.8592
亦名	-10.8593
倣	-10.8593
簇	-10.86
之遺	-10.8602
中書門下	-10.8604
交趾	-10.8605
二日	-10.8606
鶻	-10.8617
忠孝	-10.862
籙	-10.8621
之費	-10.8623
主之	-10.8624
暈	-10.8629
諮	-10.8631
奔走	-10.8632
五尺	-10.8633
萬户	-10.8633
乎其	-10.8634
刈	-10.8634
校書	-10.8635
得人	-10.8637
為文	-10.8637
死而	-10.8638
兖	-10.8639
物之	-10.8644
改元	-10.8647
大風	-10.865
國用	-10.8652
禆	-10.8652
蘇軾詩	-10.8654
裒	-10.8658
艱難	-10.8658
睂	-10.8662
三老	-10.8663
黔	-10.8663
帯	-10.8667
傳注	-10.8668
奈	-10.8669
蟄	-10.867
王儉	-10.8671
朂	-10.8674
一等	-10.8677
昉	-10.8679
表曰	-10.8682
疾病	-10.8682
東風	-10.8685
牽牛	-10.8685
瘠	-10.8687
南康	-10.8689
笋	-10.8692
庶子	-10.8693
與我	-10.8694
可使	-10.8696
不滿	-10.8699
以身	-10.87
同姓	-10.8702
之異	-10.8703
從此	-10.8705
非一	-10.8708
星辰	-10.8712
日出	-10.8713
始也	-10.8716
何時	-10.8717
熒惑	-10.8717
又置	-10.8719
牕	-10.8721
釋名曰	-10.8724
正直	-10.8726
道人	-10.8731
學校	-10.8732
所司	-10.8733
周人	-10.8735
土人	-10.8738
大破之	-10.874
猛獸	-10.8744
門人	-10.8748
因此	-10.8753
臣下	-10.8753
弱冠	-10.8756
陸雲	-10.8758
禍福	-10.8758
新羅	-10.876
翡翠	-10.8761
揭	-10.8761
縣北	-10.8762
南越	-10.8764
而言	-10.8768
丨丨丨丨丨丨丨	-10.8769
慝	-10.877
柰	-10.877
數里	-10.8772
都䕶	-10.8772
免官	-10.8785
弧	-10.8787
歸於	-10.8789
盪	-10.879
颺	-10.879
文子	-10.8791
佑	-10.8792
尊卑	-10.8793
倩	-10.8793
為司空	-10.8797
白石	-10.8797
二萬	-10.8799
揚子	-10.8801
撤	-10.8802
皇子	-10.8804
江漢	-10.8806
春夏	-10.8809
其門	-10.881
天上	-10.881
足矣	-10.8812
曩	-10.8814
分明	-10.8821
殃	-10.8822
宣城	-10.8822
儁	-10.8823
狡	-10.8823
聖王	-10.8824
不稱	-10.8824
朋友	-10.8827
槖	-10.8834
隴右	-10.8835
驍	-10.8836
覈	-10.8839
母曰	-10.8841
竪	-10.8842
豈能	-10.8846
何故	-10.8848
緡	-10.8848
東山	-10.8852
幔	-10.8855
錡	-10.8857
不敬	-10.8859
門生	-10.886
發兵	-10.8866
鞅	-10.8869
一品	-10.8869
其先	-10.8871
宋之問	-10.8872
虎豹	-10.8873
有光	-10.8873
拭	-10.8875
明一統志丨丨	-10.8876
其徳	-10.8882
航	-10.8883
夔	-10.8886
不便	-10.8887
犧	-10.8888
茵	-10.8888
大道	-10.8888
茸	-10.8889
八尺	-10.8894
將相	-10.8895
孽	-10.8897
至矣	-10.8899
袒	-10.89
劵	-10.8901
鑠	-10.8901
禎	-10.8904
州人	-10.8905
呌	-10.891
陳平	-10.8911
初置	-10.8915
㝷	-10.8915
職事	-10.8921
如丨丨	-10.8922
試之	-10.8927
隰	-10.893
殫	-10.8931
歷	-10.8931
廂	-10.8932
禮曰	-10.8932
箇	-10.8932
也遂	-10.8939
糜	-10.894
奏之	-10.894
槍	-10.8942
濟南	-10.8943
椿	-10.8944
之路	-10.8947
湍	-10.8949
不可得	-10.8951
襄王	-10.8955
紇	-10.8962
與弟	-10.8969
𣙜	-10.8969
有兩	-10.8971
有事	-10.8976
之北	-10.8979
堦	-10.8985
孫子	-10.8986
范陽	-10.8988
可以為	-10.8992
渇	-10.8994
藕	-10.8995
店	-10.8996
唐虞	-10.9
不須	-10.9
可觀	-10.9005
玠	-10.9005
之矣	-10.9005
何謂	-10.9006
滂	-10.9007
昶	-10.9007
人之所	-10.9008
矣故	-10.9009
之謀	-10.9016
其屬	-10.902
字公	-10.9021
所知	-10.9023
州都督	-10.9026
先後	-10.9027
恠	-10.9027
祔	-10.9031
神人	-10.9034
甑	-10.9042
刻石	-10.9043
而民	-10.9044
中正	-10.9044
同時	-10.9044
議論	-10.9047
旻	-10.9051
神龍	-10.9053
卉	-10.9055
可愛	-10.9057
宗族	-10.906
槃	-10.9061
李商隱	-10.9061
扆	-10.9062
旬日	-10.9062
而走	-10.9063
鍊	-10.9063
不求	-10.9065
則知	-10.9066
之首	-10.9066
武庫	-10.907
敢不	-10.9073
塊	-10.9073
曰何	-10.9075
曽子	-10.9077
名士	-10.9077
得罪	-10.9083
躁	-10.9084
從弟	-10.9085
九品	-10.9086
明府	-10.9091
彧	-10.9091
刁	-10.9092
紀綱	-10.9093
靈臺	-10.9094
六尺	-10.9094
乃出	-10.9094
漢末	-10.9095
之極	-10.9097
複	-10.9099
著作郎	-10.91
腹心	-10.9104
盲	-10.9107
城東	-10.9109
髓	-10.9112
大功	-10.9118
叔向	-10.9123
司農	-10.9123
脆	-10.9124
秃	-10.9125
或作	-10.9126
两	-10.9127
以賜	-10.9128
粮	-10.9129
實録	-10.913
斬首	-10.9133
葩	-10.9136
鴟	-10.9141
杳	-10.9141
批	-10.9144
百二十	-10.9148
郎官	-10.9148
商賈	-10.9148
𢎞農	-10.9149
又名	-10.915
之權	-10.9152
五十里	-10.9152
蠡	-10.9155
洪範	-10.9155
元嘉	-10.9157
重之	-10.9157
昬	-10.9159
艦	-10.9166
燕王	-10.9168
吸	-10.9176
傳初	-10.9176
人生	-10.9178
之西	-10.9178
詹事	-10.918
投之	-10.918
之孫	-10.9183
溜	-10.9187
氛	-10.919
之器	-10.9191
醪	-10.9195
礙	-10.9196
襦	-10.9196
禮畢	-10.9197
不離	-10.9199
錦繡	-10.9203
祥符	-10.9204
霍光	-10.9209
起兵	-10.9209
彖	-10.9213
北山	-10.9213
梳	-10.9215
董卓	-10.9217
舉進士	-10.9221
昔有	-10.9221
者得	-10.9222
和氣	-10.9224
邃	-10.9224
樂章	-10.9227
雞鳴	-10.923
自為	-10.9231
嬪	-10.9231
等皆	-10.9232
食貨志	-10.9232
者即	-10.9234
琬	-10.9234
人謂之	-10.9235
猴	-10.9236
蒐	-10.9237
為尚書	-10.9239
西戎	-10.9241
于天	-10.9245
之妙	-10.9246
觀者	-10.9252
形似	-10.9253
櫻桃	-10.9256
筒	-10.9257
二女	-10.9259
十卷	-10.926
表裏	-10.926
乾元	-10.9262
吝	-10.9262
華陽	-10.9271
棃	-10.9274
間有	-10.9275
獨不	-10.9277
送之	-10.928
皇朝	-10.9283
堂上	-10.9283
德宗	-10.9284
江州	-10.9285
王府	-10.9286
癸	-10.9286
蘇秦	-10.9287
喉	-10.9291
黄道	-10.9291
唇	-10.9294
教化	-10.93
濛	-10.9301
孟浩然	-10.9305
不幸	-10.9307
柳宗元	-10.9308
城内	-10.9309
闌	-10.9315
文昌	-10.9321
深入	-10.9322
兊	-10.9322
臼	-10.9325
云此	-10.9326
軍節度使	-10.9326
上人	-10.9329
二寸	-10.9329
郵	-10.9329
涕泣	-10.9333
財物	-10.9336
國初	-10.9336
貧賤	-10.9337
伽	-10.934
其制	-10.9341
五百里	-10.9342
得以	-10.9342
授之	-10.9342
之交	-10.9345
眩	-10.9348
智者	-10.9348
治天下	-10.9348
而天下	-10.935
即此	-10.9352
呉王	-10.9352
子胥	-10.9352
中大夫	-10.9353
▁宋史	-10.9354
五寸	-10.9358
▁王	-10.936
不得已	-10.9361
彞	-10.9363
酒酣	-10.9365
欣然	-10.9366
切集韻	-10.9366
因之	-10.9366
詔以	-10.9367
姓氏	-10.9368
先人	-10.937
得免	-10.9371
以安	-10.9371
樹下	-10.9373
浙	-10.9375
萬餘人	-10.9375
境内	-10.9375
聽之	-10.9379
蠱	-10.9381
又何	-10.9382
鹵簿	-10.9382
有神	-10.9386
蜀人	-10.9388
天門	-10.9389
畋	-10.9391
各以	-10.9393
飛去	-10.9398
於齊	-10.9398
二十里	-10.94
山河	-10.9404
國中	-10.9405
之教	-10.9408
開府儀同三司	-10.941
罹	-10.9416
二十三	-10.9418
溟	-10.9419
中使	-10.9423
所部	-10.9425
魴	-10.9425
其俗	-10.9426
錐	-10.9427
二十二	-10.9428
魯人	-10.9429
司馬光	-10.9435
説苑	-10.9437
豬	-10.9438
之水	-10.9439
内侍	-10.9443
之議	-10.9444
府君	-10.9448
砂	-10.9452
溉	-10.9455
廬江	-10.9455
盛徳	-10.9459
使臣	-10.9459
樂天	-10.9459
有名	-10.946
次第	-10.946
鹹	-10.9461
之失	-10.9461
於世	-10.9461
醬	-10.9462
璘	-10.9463
不立	-10.9464
子儀	-10.9465
為太尉	-10.9467
議郎	-10.9468
讃	-10.948
稔	-10.9482
水陸	-10.9483
先賢	-10.9486
而食之	-10.9488
丨詳	-10.949
鄭氏	-10.9492
出門	-10.9495
曰大	-10.9496
何事	-10.9497
家語	-10.9497
北有	-10.9499
疫	-10.95
能為	-10.95
孔融	-10.9501
矣今	-10.9502
寐	-10.9502
元氣	-10.9503
元帥	-10.9504
塢	-10.9507
訾	-10.9507
▁詩	-10.9509
莫若	-10.9509
曹操	-10.951
萼	-10.951
有天下	-10.9511
莊公	-10.9513
諫官	-10.9514
瀾	-10.9515
百家	-10.9516
二十一	-10.9517
稠	-10.9518
不中	-10.9523
柘	-10.9525
聖賢	-10.9527
杭州	-10.9527
巵	-10.9527
肴	-10.9529
者如	-10.9529
官軍	-10.953
顔延之	-10.9531
胷	-10.9533
明珠	-10.9534
猶在	-10.9534
明主	-10.9536
鉏	-10.954
菌	-10.954
狥	-10.9541
詔令	-10.9543
藍田	-10.9543
五采	-10.9546
非有	-10.9549
方今	-10.955
斌	-10.9551
以濟	-10.9552
湖南	-10.9553
也此	-10.9554
空中	-10.9554
入於	-10.9556
光禄	-10.9556
𫝊曰	-10.9563
詆	-10.9567
太常卿	-10.9567
戊	-10.9567
嘗以	-10.9569
李白詩	-10.957
卭	-10.957
衾	-10.957
墀	-10.9573
北門	-10.9576
國子監	-10.9577
不可不	-10.9578
飾以	-10.9578
之歌	-10.958
於下	-10.958
扶桑	-10.9581
天台	-10.9587
璫	-10.9588
儔	-10.9589
匏	-10.9589
夙夜	-10.959
其年	-10.9594
笠	-10.9597
飛鳥	-10.9598
沈佺期	-10.9599
瑗	-10.9599
立春	-10.9601
峴	-10.9605
大破	-10.9609
三原	-10.9611
開元中	-10.9614
於中	-10.9614
豁	-10.9617
道者	-10.9618
郊廟	-10.9619
杵	-10.9621
有竒	-10.9625
平王	-10.9626
猗	-10.9627
素問	-10.9627
賦云	-10.9628
魏晉	-10.9629
張儀	-10.963
嬉	-10.9633
崧	-10.9633
於市	-10.9633
大學	-10.9634
手足	-10.9635
䖏	-10.9635
甜	-10.9643
於内	-10.9644
揔	-10.9645
僑	-10.9645
右僕射	-10.9648
現	-10.965
梁州	-10.9661
青山	-10.9661
岑參	-10.9663
乎對曰	-10.9663
江總	-10.9663
郄	-10.9665
隂陽之	-10.9668
殞	-10.9668
有六	-10.967
著書	-10.967
凉州	-10.9678
綘	-10.9678
窻	-10.9679
杲	-10.968
蘇頲	-10.9682
門户	-10.9683
丈人	-10.9691
榦	-10.9692
爲人	-10.9692
墨子	-10.9694
侍講	-10.9695
馬融	-10.9698
矟	-10.97
文獻通考	-10.9707
師古曰	-10.9708
白鶴	-10.9709
矧	-10.9712
忻	-10.9713
天文志	-10.9715
媿	-10.9715
如意	-10.9719
奉詔	-10.9721
石門	-10.9722
▁蘇軾	-10.9723
人掌	-10.9723
於後	-10.9725
玉海	-10.9726
臣竊	-10.9726
小吏	-10.9732
鈿	-10.9732
山上	-10.9732
諸君	-10.9732
▁下詳	-10.9735
精兵	-10.9737
顏	-10.9739
薤	-10.9739
酺	-10.9741
宫殿	-10.9742
阪	-10.9742
帝王之	-10.9744
瑣	-10.9744
死生	-10.9744
挑	-10.9745
不任	-10.9746
忠義	-10.9746
棋	-10.9749
謂人曰	-10.9749
金帛	-10.975
躋	-10.975
容貌	-10.975
人少	-10.9751
不服	-10.9751
人無	-10.9753
九重	-10.9754
七尺	-10.9758
蔥	-10.9758
太清	-10.9759
於河	-10.976
斵	-10.9762
所由	-10.9763
疑其	-10.9764
居士	-10.9765
惠帝	-10.9769
者衆	-10.9771
耐	-10.9771
蝦	-10.9776
熙寧	-10.9778
别有	-10.9781
通判	-10.9781
寗	-10.9783
翕	-10.9784
賢良	-10.9785
詩集	-10.9787
二年正月	-10.9788
燉煌	-10.9794
道之	-10.9795
蚩尤	-10.9795
三百六十	-10.9796
三百里	-10.9797
李紳	-10.9797
曽孫	-10.98
終於	-10.9802
千石	-10.9805
董仲舒	-10.9807
晁	-10.9808
雷霆	-10.9809
艷	-10.981
三十二	-10.9815
秋冬	-10.9817
不獲	-10.9818
箸	-10.982
禳	-10.9824
多矣	-10.9825
西湖	-10.9826
爼	-10.9827
舉兵	-10.983
以通	-10.9832
窠	-10.9833
始置	-10.9843
官制	-10.9843
挿	-10.9843
户口	-10.9843
霜雪	-10.9846
切説文	-10.9848
蛙	-10.985
朶	-10.9853
有白	-10.9858
相似	-10.9858
臣請	-10.9858
法師	-10.9859
之色	-10.986
監軍	-10.9867
者矣	-10.9868
涌	-10.9869
頗有	-10.987
諫議大夫	-10.9876
羆	-10.9877
􁁊	-10.9878
去其	-10.9878
戰國策	-10.9879
者以為	-10.9883
嫩	-10.9895
衛將軍	-10.9897
平地	-10.9898
十餘人	-10.9899
以歸	-10.99
宇宙	-10.99
人倫	-10.9902
石上	-10.9903
杭	-10.9903
羿	-10.991
昴	-10.991
舡	-10.9913
博物志	-10.9918
序曰	-10.992
娛	-10.992
貍	-10.992
言事	-10.992
睿宗	-10.9926
明公	-10.9926
事不	-10.9928
聖徳	-10.9928
浣	-10.9929
庭中	-10.9931
書生	-10.9931
入于	-10.9932
以至	-10.9932
令尹	-10.9933
地理	-10.9933
成公	-10.9935
人言	-10.9936
鑾	-10.9936
未足	-10.9937
車服	-10.9937
堵	-10.9937
中常侍	-10.9938
筯	-10.9941
百丈	-10.9942
遞	-10.9942
還家	-10.9947
宣和	-10.9948
遇之	-10.9949
皇天	-10.995
或謂之	-10.9961
諸軍事	-10.9968
乃作	-10.9969
苻	-10.997
霖	-10.997
慶厯	-10.9972
識者	-10.9972
磧	-10.9984
未成	-10.9985
椀	-10.9987
在丨丨	-10.9989
為本	-10.999
謳	-10.9991
皆在	-10.9993
荼	-10.9996
行幸	-10.9997
不變	-11.0001
綦	-11.0001
滄海	-11.0001
張籍	-11.0004
消息	-11.0006
部落	-11.0007
京邑	-11.0008
待制	-11.0009
字季	-11.0009
倪	-11.001
主上	-11.0013
愬	-11.0016
追之	-11.0016
之田	-11.0019
攬	-11.002
逐之	-11.0021
黼	-11.0023
庶幾	-11.0025
不畏	-11.0025
大赦天下	-11.003
古詩	-11.0031
雲母	-11.0031
太元	-11.0031
人或	-11.0033
長三尺	-11.0034
者言	-11.0039
氣也	-11.0039
無子	-11.0039
小國	-11.0042
即事詩	-11.0044
之女	-11.0048
經術	-11.0048
何得	-11.005
吏人	-11.0062
太康	-11.0069
世說	-11.007
龕	-11.0071
皎然	-11.0072
昭宗	-11.0074
棄之	-11.0075
叨	-11.0082
產	-11.0084
逺矣	-11.0085
莎	-11.0085
至則	-11.0087
牓	-11.009
黄門侍郎	-11.0093
與諸	-11.0097
豪傑	-11.0098
李商隠	-11.0104
四寸	-11.0104
駝	-11.0105
千嵗	-11.0105
安樂	-11.0106
陶侃	-11.0107
蟾	-11.0107
鹽鐵	-11.0115
城北	-11.0117
州牧	-11.0118
論衡	-11.0124
惇	-11.0126
琨	-11.0129
懦	-11.013
有九	-11.013
地理志	-11.013
柩	-11.0132
唐書地理志	-11.0133
形勢	-11.0139
仞	-11.0141
窘	-11.0143
不逮	-11.0148
大雅	-11.015
甚厚	-11.0166
石頭	-11.0169
非所以	-11.0171
埃	-11.0172
嘉禾	-11.0173
噴	-11.0175
下邳	-11.0177
稟	-11.0178
二原	-11.0179
曰丨	-11.018
吐谷渾	-11.0184
先天	-11.0184
之子也	-11.0186
也从	-11.0188
蝨	-11.0189
法也	-11.0189
長於	-11.019
可知	-11.0191
縣官	-11.0193
農夫	-11.0197
縠	-11.0198
即以	-11.0199
王融	-11.0205
示之	-11.0211
三等	-11.0212
烽	-11.0212
曰今日	-11.0215
倖	-11.0215
暝	-11.0216
無所不	-11.0217
張良	-11.0221
六國	-11.0221
穆公	-11.0223
山澤	-11.0225
曰彼	-11.0226
𨼆	-11.0226
如初	-11.023
瀛	-11.0233
為郡	-11.0234
公羊傳	-11.0234
藹	-11.0237
百司	-11.0241
功徳	-11.0243
鍾山	-11.0245
授以	-11.0245
以應	-11.0248
不克	-11.025
汜	-11.0253
其神	-11.0257
為天子	-11.0258
國子祭酒	-11.0264
罽	-11.0264
三子	-11.027
君王	-11.0274
之德	-11.0276
掇	-11.0278
伐之	-11.0279
髦	-11.0285
相應	-11.0287
死於	-11.0288
數十里	-11.0289
暄	-11.029
盞	-11.0294
述異記	-11.0295
卿等	-11.0296
亭長	-11.0297
皆是	-11.0299
延夀	-11.0302
太武	-11.0306
愛其	-11.0311
企	-11.0312
乗馬	-11.0316
槎	-11.0323
錢起	-11.0323
河南尹	-11.0324
必死	-11.0326
猫	-11.0328
之明	-11.0334
欹	-11.0334
山西	-11.0336
嘏	-11.0336
商人	-11.0341
雪詩	-11.0342
聿	-11.0345
佳人	-11.0347
昭公	-11.0348
中和	-11.0349
自非	-11.035
噪	-11.035
繋	-11.0352
朝日	-11.0352
㪚	-11.0352
百歩	-11.0354
甲兵	-11.0355
自後	-11.0357
稽首	-11.0358
不倦	-11.0358
不測	-11.0359
祭之	-11.0362
者或	-11.0363
四十里	-11.0363
自以為	-11.0364
之資	-11.0364
朝政	-11.0367
莫之	-11.0367
笳	-11.0369
有司奏	-11.0371
載記	-11.0371
縣屬	-11.0373
王制	-11.0374
為民	-11.0375
海棠	-11.0376
之東	-11.0376
秦之	-11.0378
猜	-11.0378
石勒	-11.0379
太平興國	-11.0382
荆南	-11.0384
熏	-11.0389
告之	-11.0389
▁劉	-11.0393
竒之	-11.0395
芍藥	-11.0396
自若	-11.0401
迨	-11.0402
野人	-11.0402
有過	-11.0403
数	-11.0403
今以	-11.0404
曰天子	-11.0407
悉以	-11.0409
卽	-11.0411
鎻	-11.0414
以是	-11.0415
則必	-11.0417
不納	-11.0419
之遂	-11.0423
為宰相	-11.0424
拆	-11.0427
新安	-11.0429
所能	-11.0431
獺	-11.0437
以授	-11.0437
斐	-11.0438
永安	-11.044
装	-11.044
左丞	-11.044
十數	-11.0443
臨川	-11.0446
無聲	-11.0447
五聲	-11.045
之論	-11.045
璟	-11.045
天監	-11.045
懽	-11.045
唾	-11.0451
之典	-11.0452
山人	-11.0456
鵰	-11.0458
聾	-11.0463
踞	-11.0464
五官	-11.0464
牝	-11.0465
鞫	-11.0467
秋夜	-11.0467
紘	-11.0469
百工	-11.047
乃至	-11.0472
鷰	-11.0474
齊桓公	-11.0475
隧	-11.0478
金華	-11.0479
賦序	-11.0479
以奉	-11.0482
部員外郎	-11.0484
召公	-11.0486
及至	-11.0488
宋史食貨志	-11.0488
丨為丨	-11.0489
所載	-11.049
皆得	-11.0491
乎曰	-11.0491
供奉	-11.0493
之具	-11.0495
時號	-11.0495
大夏	-11.0501
至京師	-11.0501
出則	-11.0501
北伐	-11.0503
至孝	-11.0503
相思	-11.0507
西征	-11.0508
藏於	-11.0509
衆皆	-11.0511
不正	-11.0512
黿	-11.0513
芮	-11.0514
踊	-11.0515
其書	-11.052
東流	-11.0521
扁鵲	-11.0522
良久	-11.0524
刪	-11.0525
不修	-11.0527
乃與	-11.0528
便宜	-11.0528
天聖	-11.0531
洪武	-11.0532
章帝	-11.0537
中流	-11.0538
乃遣	-11.0538
殽	-11.0538
淸	-11.0539
檐	-11.0552
盂	-11.0552
風俗通	-11.0552
百餘里	-11.0552
荆州刺史	-11.0553
以進	-11.0556
亦然	-11.0559
幾何	-11.056
紈	-11.0561
獅子	-11.0561
徳之	-11.0563
不廢	-11.0565
宣子	-11.0565
摛	-11.0565
哀帝	-11.0571
師子	-11.0573
嘗謂	-11.0578
自守	-11.0579
酒泉	-11.0582
行臺	-11.0582
許渾	-11.0586
出納	-11.0588
巴蜀	-11.0589
書記	-11.0591
曰非	-11.0598
從官	-11.0599
池中	-11.06
其氣	-11.0602
砥	-11.0602
諺曰	-11.0603
慄	-11.0604
愽	-11.0606
貴戚	-11.0611
二三	-11.0612
潞	-11.0613
䜛	-11.0614
莘	-11.0616
受業	-11.0618
肘	-11.0618
孔氏	-11.062
必不	-11.062
率兵	-11.0622
瘴	-11.0628
瀉	-11.0628
也乃	-11.0629
寂寞	-11.0629
棣	-11.063
鈍	-11.063
其位	-11.0632
如玉	-11.0632
亦何	-11.0632
常平	-11.0632
八十一	-11.0634
之主	-11.0635
出身	-11.0636
冬日	-11.0639
薦之	-11.064
匹夫	-11.0645
殺其	-11.0646
郡中	-11.0648
白衣	-11.0649
鏃	-11.0651
覆之	-11.0651
苻堅	-11.0653
泮	-11.0653
長城	-11.0654
敬宗	-11.0655
食邑	-11.0657
皆不	-11.0658
題詩	-11.066
遂與	-11.066
文辭	-11.0664
涓	-11.0665
已來	-11.0666
可得而	-11.0675
汀	-11.0679
唯有	-11.0679
萬石	-11.0679
為吏	-11.0681
京口	-11.0682
需	-11.0682
帝問	-11.0682
拒之	-11.0683
則曰	-11.0683
金人	-11.0687
鶉	-11.0688
於東	-11.0691
士之	-11.0694
一時之	-11.0694
所害	-11.0698
笄	-11.0704
勣	-11.0708
王羲之	-11.0708
毓	-11.0713
以手	-11.0717
之威	-11.0717
曰善	-11.0718
一見	-11.0729
蜀郡	-11.0731
良馬	-11.0732
暠	-11.0732
隋煬帝	-11.0734
漢書地理志	-11.074
善之	-11.0741
慨然	-11.075
以次	-11.0751
詩人	-11.0753
萬物之	-11.0756
不逺	-11.0756
雖然	-11.0756
豳	-11.0756
榭	-11.0757
越人	-11.0757
則天下	-11.0759
區區	-11.076
祕書	-11.0763
草書	-11.0769
侣	-11.0769
洛水	-11.0769
卿士	-11.077
順帝	-11.0774
使持節	-11.0774
儒學	-11.0776
逖	-11.0777
宋史禮志	-11.0777
姚合	-11.0777
器物	-11.0778
字君	-11.0782
洒	-11.0782
君也	-11.0784
服其	-11.0785
腴	-11.0785
木為	-11.0786
是其	-11.0791
僮	-11.0792
府庫	-11.0792
嵐	-11.0794
棧	-11.0794
已有	-11.0794
其行	-11.0795
行至	-11.0795
和之	-11.0798
引見	-11.0798
冇	-11.08
續漢書	-11.0801
永樂	-11.0805
切集韻韻	-11.0807
牌	-11.0811
大官	-11.0814
舉人	-11.0814
舊事	-11.0816
穰	-11.0817
受禪	-11.0821
於國	-11.0822
江都	-11.0822
議曰	-11.0823
有徳	-11.0823
離騷	-11.0825
承㫖	-11.0826
一身	-11.0827
弇	-11.0832
涪	-11.0834
毳	-11.0835
開門	-11.0836
廸	-11.0837
昭穆	-11.0838
使其	-11.0838
僊	-11.0844
世人	-11.0845
謹按	-11.0846
文士	-11.085
建元	-11.0851
城縣	-11.0851
窓	-11.0851
大㑹	-11.0855
死罪	-11.0856
更相	-11.0856
不一	-11.0856
三嵗	-11.0858
愉	-11.0858
乃知	-11.0858
變而	-11.0861
憫	-11.0862
使民	-11.0864
賈逵	-11.0865
以充	-11.0868
帝乃	-11.0873
漾	-11.0873
陸贄	-11.0875
蹕	-11.0876
少而	-11.0876
果然	-11.0876
長官	-11.0877
雖無	-11.0879
哀公	-11.088
以定	-11.0882
車騎將軍	-11.0882
下詔	-11.0883
楮	-11.0885
楚國	-11.0887
主者	-11.0889
甚衆	-11.0892
鄭注云	-11.0893
䜟	-11.0896
不舉	-11.0897
鉉	-11.0897
以時	-11.0898
吳志	-11.0899
湊	-11.09
之又曰	-11.0902
恚	-11.0903
夣	-11.0909
之次	-11.0912
淮西	-11.0913
聖主	-11.0913
此時	-11.0913
大恱	-11.0913
仆	-11.0913
功成	-11.0914
七星	-11.0916
是年	-11.0917
祼	-11.0918
稹	-11.0918
成敗	-11.0918
耨	-11.0919
吉甫	-11.0922
之謂也	-11.0924
之化	-11.0925
吠	-11.0925
何用	-11.0925
羲和	-11.0926
者是	-11.0929
其性	-11.0929
不拜	-11.0933
在下	-11.0935
其主	-11.0936
頋	-11.0937
䧏	-11.0938
李斯	-11.0939
諸将	-11.0941
戰于	-11.0941
無禮	-11.0942
數百里	-11.0943
在州	-11.0946
言行録	-11.0947
平原君	-11.0948
年年	-11.0948
賦得	-11.0949
祭天	-11.0949
鬰	-11.0951
皆如	-11.0952
永昌	-11.0952
二十六	-11.0954
登髙	-11.0954
存亡	-11.0958
婦女	-11.0958
盡其	-11.0959
則民	-11.0962
過人	-11.0962
鍳	-11.0965
選舉	-11.0966
郡人	-11.0967
稼穡	-11.0967
餽	-11.0967
郝	-11.0968
考之	-11.097
豈得	-11.0977
疵	-11.0979
言者	-11.0984
稱善	-11.0987
徃來	-11.0987
事者	-11.0988
驩	-11.099
第六	-11.0993
過之	-11.0994
北征	-11.0994
婚姻	-11.0996
桂陽	-11.0996
十丈	-11.0996
贏	-11.0996
自號	-11.0997
少子	-11.0998
日月之	-11.0999
未央	-11.1001
白水	-11.1003
者無	-11.1003
松柏	-11.1006
不仁	-11.101
髠	-11.1014
九天	-11.1015
人者	-11.1018
蔕	-11.1018
亶	-11.1018
輿地	-11.1019
之望	-11.1019
奪其	-11.102
楫	-11.102
建中	-11.1023
乾道	-11.1023
何能	-11.1026
在朝	-11.1028
瑤	-11.1029
福建	-11.103
非所	-11.1031
大悦	-11.1032
近世	-11.1034
遣使者	-11.1034
隂氣	-11.104
仁者	-11.1044
自以	-11.1044
掣	-11.1046
一云	-11.1048
雲夢	-11.1051
督郵	-11.1055
杓	-11.1058
外有	-11.1059
从	-11.1059
與兄	-11.106
入山	-11.1061
大司農	-11.1061
天帝	-11.1063
賜爵	-11.1064
富人	-11.1068
人力	-11.1068
張氏	-11.1076
鄱陽	-11.1076
宋書禮志	-11.1077
居處	-11.1079
韓魏	-11.1082
五萬	-11.1082
顯宗	-11.1082
嫉	-11.1087
可食	-11.1088
人民	-11.109
僖公	-11.1091
所造	-11.1092
齊民要術	-11.1095
天成	-11.11
無為	-11.1102
黙然	-11.1103
司馬遷	-11.1103
獨孤	-11.1106
扁	-11.111
山濤	-11.1111
迂	-11.1112
何其	-11.1113
嘶	-11.1113
使我	-11.1114
以治	-11.1121
淮陽	-11.1122
五等	-11.1124
百尺	-11.1126
幃	-11.1127
徃徃	-11.1127
酒食	-11.1128
梧桐	-11.1132
可憐	-11.1134
如有	-11.1135
莭	-11.1138
鑰	-11.1139
擕	-11.114
一千	-11.1144
之域	-11.1149
菰	-11.1151
殤	-11.1152
菲	-11.1152
王肅	-11.1153
蔗	-11.1154
以觀	-11.1154
曰凡	-11.1154
蜡	-11.1155
曰爾	-11.1155
文心雕龍	-11.1156
一夜	-11.1159
升降	-11.1163
山上有	-11.1165
兵部尚書	-11.1166
至元	-11.1168
憾	-11.1168
撞	-11.1169
清濁	-11.1172
之勞	-11.1173
黍稷	-11.1179
用也	-11.1181
天王	-11.1181
之可	-11.1184
百金	-11.1188
猾	-11.1196
孝友	-11.1198
白帝	-11.1204
馮翊	-11.1206
八音	-11.1207
宋璟	-11.1207
罪人	-11.1208
廵狩	-11.1208
韓偓	-11.1209
臨淄	-11.1209
文宣	-11.121
莫如	-11.1219
犯法	-11.122
聮	-11.1221
明徳	-11.1222
者又	-11.1227
有小	-11.1227
民有	-11.123
鬯	-11.1237
武帝紀	-11.1237
二王	-11.124
從兄	-11.1241
器械	-11.1244
先聖	-11.1244
北極	-11.1245
凡有	-11.1246
州總管	-11.1254
召之	-11.1255
元康	-11.1256
不歸	-11.1259
一丈	-11.1262
始有	-11.1263
又作	-11.1264
優劣	-11.1265
刑部	-11.1271
鉅鹿	-11.1276
韻詩	-11.128
石為	-11.1281
七人	-11.1284
垂拱	-11.1284
鼉	-11.1285
缶	-11.1287
廖	-11.1288
臨江	-11.1291
之宜	-11.1291
珣	-11.1292
四尺	-11.1292
徽宗	-11.1295
卜筮	-11.1297
逺方	-11.1299
嵗時	-11.13
其政	-11.1301
則其	-11.1305
樓詩	-11.1306
姒	-11.1313
嘉祐	-11.1313
范蠡	-11.1316
汲黯	-11.1319
起居注	-11.1319
其弊	-11.132
白虎通	-11.1321
為吏部尚書	-11.1324
焉其	-11.1325
讚	-11.1329
願得	-11.1329
帝命	-11.133
故不	-11.1331
䋲	-11.1332
明矣	-11.1334
規矩	-11.1335
於秦	-11.1336
覬	-11.1341
不願	-11.1344
紫微	-11.1345
如今	-11.1346
師曠	-11.1346
不仕	-11.1346
攷	-11.1347
安危	-11.1347
也非	-11.135
永明	-11.135
渭水	-11.1351
慨	-11.1352
郭子儀	-11.1352
霓	-11.1353
陶潛	-11.1355
流血	-11.1356
㳟	-11.1357
大司徒	-11.1358
部曲	-11.1359
田宅	-11.1362
得道	-11.1363
季孫	-11.1365
避之	-11.1366
獠	-11.1366
治國	-11.1367
鮓	-11.1369
各有差	-11.1369
大呼	-11.1372
室中	-11.1377
治平	-11.1377
之義也	-11.1379
不厭	-11.138
為天	-11.1381
不義	-11.1382
難得	-11.1382
脛	-11.1385
萬嵗	-11.1385
西有	-11.1386
絞	-11.1386
骸	-11.1387
鎔	-11.1387
三五	-11.1387
估	-11.1388
觀察	-11.1388
帝令	-11.1389
有頃	-11.1389
州諸軍事	-11.139
飛龍	-11.1393
選人	-11.1395
元宗	-11.1395
鑪	-11.1399
荻	-11.1399
緫	-11.1401
絺	-11.1401
右手	-11.1402
其外	-11.1402
澣	-11.1404
百日	-11.1405
襃	-11.1409
上疏曰	-11.1409
無一	-11.1409
鄭人	-11.1411
覔	-11.1411
熈寧	-11.1412
相連	-11.1416
獻帝	-11.1417
荘子	-11.1417
鶩	-11.1421
魯國	-11.1427
仲舒	-11.143
姨	-11.1431
蘂	-11.1431
晉武帝	-11.1432
未甞	-11.1434
醴泉	-11.1435
白居易詩	-11.1436
經畧	-11.1436
乆之	-11.1439
舟中	-11.144
當今	-11.144
天水	-11.1442
蝕	-11.1443
躔	-11.145
尚有	-11.1451
勺	-11.1452
石崇	-11.1453
所聞	-11.1455
與子	-11.1455
志在	-11.1456
勝之	-11.146
必欲	-11.1464
三卷	-11.1466
人知	-11.1468
珂	-11.147
雲雨	-11.1473
也臣	-11.1473
樂也	-11.1475
反覆	-11.1478
風起	-11.1479
泓	-11.1479
不作	-11.1479
蹊	-11.1479
剽	-11.148
相承	-11.1481
下士	-11.1489
自陳	-11.1489
廏	-11.1494
士庶	-11.1503
人曰	-11.1503
二増	-11.1505
說苑	-11.1507
左手	-11.1509
齊國	-11.151
大帝	-11.1513
如此則	-11.1514
為司	-11.1517
伯夷	-11.1518
毀	-11.152
遼史	-11.1522
折衝	-11.1523
四品	-11.1524
當其	-11.1524
元好問	-11.1524
璽書	-11.1526
北地	-11.1528
一行	-11.1529
雨雪	-11.153
韓子	-11.1534
悠	-11.1539
耒	-11.1539
聞之曰	-11.154
八九	-11.1543
夜夢	-11.1544
瞿	-11.1546
五湖	-11.1549
史館	-11.155
殿上	-11.1552
鼓琴	-11.1554
皆用	-11.1556
肅然	-11.1556
琅邪	-11.1556
山海	-11.156
爾乃	-11.156
受詔	-11.1563
惻	-11.1563
十餘里	-11.1564
雹	-11.1564
獨立	-11.1568
兢	-11.1568
列傳	-11.1571
多有	-11.1576
禕	-11.1576
留後	-11.1577
神女	-11.1577
綱紀	-11.1578
燮	-11.1579
織女	-11.158
安可	-11.158
於今	-11.1581
二十餘	-11.1587
布帛	-11.1589
孟子曰	-11.1592
曰願	-11.1592
器用	-11.1593
詶	-11.1593
宋書符瑞志	-11.1594
為貴	-11.1594
於斯	-11.1596
然其	-11.1597
在後	-11.1598
以避	-11.1598
始興	-11.1599
慤	-11.1603
一斗	-11.1604
惠王	-11.1606
駱賔王	-11.1606
伊川	-11.1607
悽	-11.1608
諸人	-11.1613
㐮	-11.1614
者名	-11.1615
從其	-11.1616
軼	-11.1617
墾	-11.1618
攻城	-11.1619
衿	-11.1621
施於	-11.1622
臨海	-11.1623
夘	-11.1624
荆公	-11.1625
是用	-11.1626
北軍	-11.1628
之治	-11.1629
𫉬	-11.163
神靈	-11.163
藝文類聚	-11.163
哺	-11.163
司𨽻	-11.1631
長慶	-11.1633
之舊	-11.1633
舫	-11.1634
殿中侍御史	-11.1635
安帝	-11.1636
掲	-11.1637
傳時	-11.1641
刑法	-11.1641
月中	-11.1642
夸	-11.1642
一舉	-11.1644
武臣	-11.1644
傳論	-11.1645
罷之	-11.1646
羽翼	-11.1646
之賢	-11.1647
非也	-11.1648
切正韻	-11.1648
察之	-11.1649
魯公	-11.1649
擣	-11.1649
求其	-11.1652
日食	-11.1652
異於	-11.1653
北齊書	-11.1656
嬰兒	-11.1658
狸	-11.1661
蠕蠕	-11.1661
舊典	-11.1664
旭	-11.1665
州節度使	-11.1671
石榴	-11.1671
者莫不	-11.1672
壬	-11.1674
天時	-11.1676
餙	-11.1676
變為	-11.1676
臆	-11.1677
一二	-11.1677
無疆	-11.1683
李靖	-11.1683
周室	-11.1685
仰視	-11.1687
出師	-11.1689
小子	-11.1689
其處	-11.1691
為御史大夫	-11.1693
劉子	-11.1693
圖詩	-11.1695
祝融	-11.1698
瓚	-11.1704
頷	-11.1705
五味	-11.1705
貫休	-11.1705
蕉	-11.1707
迦	-11.1709
所獲	-11.1709
天性	-11.1709
也所以	-11.1709
晉國	-11.1715
詔曰朕	-11.1715
臨淮	-11.1717
蹶	-11.1721
鳯翔	-11.1724
聖朝	-11.1725
也昔	-11.1726
姥	-11.1728
庾亮	-11.1729
萬騎	-11.1729
甚矣	-11.173
云是	-11.173
為王	-11.1731
建炎	-11.1732
鼇	-11.1733
為博士	-11.1734
吳郡	-11.1734
浹	-11.1735
不進	-11.1736
世間	-11.1736
律令	-11.174
之妻	-11.1741
之别	-11.1742
大體	-11.1743
菑	-11.1743
財用	-11.1744
北郊	-11.1747
禄山	-11.1748
英雄	-11.1749
徳行	-11.1751
此二	-11.1754
少昊	-11.1756
一種	-11.1757
應天	-11.1757
又為	-11.1757
常在	-11.1757
之方	-11.1758
年十五	-11.1761
燄	-11.1761
從軍	-11.1771
稽古	-11.1772
新論	-11.1772
至道	-11.1773
淳化	-11.1773
河朔	-11.1773
無極	-11.1774
南蠻	-11.1778
劑	-11.178
樓上	-11.1782
筝	-11.1786
考功	-11.1786
今人	-11.1788
來降	-11.179
至公	-11.179
列於	-11.1791
宗即位	-11.1791
同年	-11.1791
腕	-11.1792
再三	-11.1795
焚之	-11.1795
秦人	-11.1796
不由	-11.1796
數千里	-11.1798
以利	-11.1799
嘉其	-11.1804
忽見	-11.1804
闘	-11.1807
東有	-11.1807
京都	-11.1811
中書舎人	-11.1812
二年詔	-11.1813
問於	-11.1817
地而	-11.1819
走馬	-11.1819
馬上	-11.1819
禮官	-11.1823
明王	-11.1824
五行志	-11.1835
思之	-11.1842
四門	-11.1842
淳于	-11.1848
瓢	-11.1848
推之	-11.1848
不爲	-11.1849
官府	-11.1849
扞	-11.185
清白	-11.185
閶闔	-11.1851
供養	-11.1853
麝	-11.1853
延壽	-11.1853
其可	-11.1857
齊名	-11.1859
燼	-11.1861
乘輿	-11.1862
花詩	-11.1869
元年詔	-11.187
長編	-11.1872
派	-11.1877
能言	-11.1877
百川	-11.1878
禮部尚書	-11.1878
之䇿	-11.1879
周文	-11.1879
綂	-11.1879
顧謂	-11.188
白首	-11.188
七里	-11.1882
猶存	-11.1884
在焉	-11.1885
虞世南	-11.1885
去年	-11.1887
臨軒	-11.1887
果有	-11.1889
沓	-11.189
日行	-11.1891
祖父	-11.1891
購	-11.1891
丨丨坡	-11.1892
帝謂	-11.1896
恐其	-11.1896
吕氏春秋曰	-11.1897
黜陟	-11.1898
樓船	-11.1899
四方之	-11.1899
覿	-11.19
昕	-11.1904
參政	-11.1905
零陵	-11.1911
秘書監	-11.1912
千乗	-11.1914
便是	-11.1915
竺	-11.1915
之象也	-11.1916
本末	-11.1918
吁	-11.1919
杪	-11.192
而用之	-11.192
也於是	-11.1922
辨其	-11.1922
監司	-11.1924
城上	-11.1925
箏	-11.1926
經云	-11.1926
稱職	-11.1929
之吏	-11.193
前世	-11.1931
緬	-11.1935
嚼	-11.1936
盥	-11.1937
彈琴	-11.1941
劉歆	-11.1943
鴈門	-11.1944
霹靂	-11.1945
武成	-11.1946
臺閣	-11.1955
宦官	-11.1955
安世	-11.1958
哈	-11.1959
欲其	-11.1961
連珠	-11.1962
橫	-11.1963
韻並	-11.197
隨時	-11.1974
太隂	-11.1974
八風	-11.1975
門内	-11.1975
其時	-11.1977
本無	-11.1979
命之	-11.198
大宛	-11.1985
漢魏	-11.1986
醖	-11.1986
吳興	-11.1987
其狀	-11.1988
諶	-11.199
建國	-11.1992
釘	-11.1992
緜	-11.1994
雖復	-11.1994
未易	-11.1994
趍	-11.1996
唐人	-11.1996
靈帝	-11.1997
之序	-11.1998
難以	-11.1999
察其	-11.2002
不悦	-11.2002
事有	-11.2002
而又	-11.2003
月餘	-11.2005
同列	-11.2006
櫛	-11.2007
令狐	-11.2007
止之	-11.2008
抜	-11.2008
緹	-11.2009
昭帝	-11.2012
五音	-11.2013
明道	-11.2014
各自	-11.2014
用此	-11.2014
乃自	-11.2017
舊章	-11.2018
河伯	-11.2022
周禮曰	-11.2023
肱	-11.2023
杉	-11.2024
最為	-11.2024
可不	-11.2025
駙馬	-11.2026
復以	-11.2026
一門	-11.2026
漢家	-11.2026
從而	-11.2027
港	-11.2027
形勝	-11.2028
王侯	-11.2029
廡	-11.203
隼	-11.2031
售	-11.2032
以法	-11.2035
善射	-11.2041
虺	-11.2044
行而	-11.2045
日月星辰	-11.2049
闕下	-11.2053
扼	-11.2053
冬月	-11.2054
此山	-11.2055
其大	-11.2055
六寸	-11.2056
為小	-11.2059
音樂	-11.2059
順天	-11.206
盧綸	-11.206
曲禮	-11.2061
二員	-11.2062
即今	-11.2062
公車	-11.2066
之稱	-11.2066
論者	-11.2067
嶂	-11.2067
之期	-11.2068
不時	-11.2068
花開	-11.2071
讞	-11.2072
堂下	-11.2076
莫知	-11.208
並同	-11.208
嶼	-11.208
耆老	-11.2082
博物	-11.2082
但以	-11.2083
楚之	-11.2084
而易	-11.2085
有文	-11.2085
閭里	-11.209
小大	-11.2091
修撰	-11.2093
日在	-11.2095
東向	-11.2102
與王	-11.2102
其力	-11.2103
西海	-11.2105
季氏	-11.2105
江河	-11.2109
迄	-11.2109
鳳翔	-11.211
訝	-11.2112
師道	-11.2119
烏孫	-11.2119
第七	-11.2121
識之	-11.2122
故得	-11.2122
以養	-11.2123
▁晉書	-11.2125
獄訟	-11.2126
璠	-11.2127
甚有	-11.2129
汶	-11.213
債	-11.2131
貞觀中	-11.2132
臨朝	-11.2138
數十萬	-11.2138
輈	-11.2138
首尾	-11.2144
閼	-11.2145
此亦	-11.2146
楊素	-11.2147
萇	-11.2147
武德	-11.2154
伏以	-11.2156
並為	-11.2156
所不	-11.2157
外傳	-11.2158
者當	-11.2159
一分	-11.216
故為	-11.2163
經籍	-11.2164
㒺	-11.2169
多士	-11.2169
南唐	-11.2176
比之	-11.2176
何者	-11.2177
世傳	-11.2178
光照	-11.218
不好	-11.218
雲霧	-11.2183
鄣	-11.2184
丐	-11.2186
匝	-11.2187
同郡	-11.2188
忽然	-11.2189
先朝	-11.2189
束帛	-11.219
勰	-11.219
鹽鐵論	-11.2193
六卿	-11.2195
每至	-11.2196
沫	-11.2199
青衣	-11.22
秦州	-11.2204
曰余	-11.2205
二尺	-11.2207
楊氏	-11.2207
咸平	-11.2209
一室	-11.221
而非	-11.221
治民	-11.221
七八	-11.2211
熹	-11.2213
所當	-11.2215
百疋	-11.2215
鬟	-11.2216
南征	-11.2217
行道	-11.2217
項王	-11.2221
炎帝	-11.2222
智伯	-11.2224
方士	-11.2224
亦為	-11.2224
羊祜	-11.2226
黄初	-11.2229
改名	-11.2232
悶	-11.2232
在東	-11.2233
荔枝	-11.2234
漢制	-11.2237
而好	-11.224
也是故	-11.224
為廷尉	-11.2241
戎狄	-11.2242
太湖	-11.2244
萬事	-11.2246
蒼生	-11.2246
有女	-11.2247
之險	-11.2252
各置	-11.2252
三四	-11.2254
大中	-11.226
雲南	-11.226
㳂	-11.2262
弗能	-11.2263
奏聞	-11.2263
中書省	-11.2266
將至	-11.2268
吳人	-11.2268
西川	-11.227
靈公	-11.227
翥	-11.2271
媪	-11.2273
治亂	-11.2274
文徳	-11.2274
酥	-11.2275
龜兹	-11.2277
俯仰	-11.2279
聞奏	-11.2281
伏惟	-11.2283
也是以	-11.2283
荔	-11.2284
下馬	-11.2284
地方	-11.2286
白雪	-11.2288
攅	-11.229
惕	-11.229
某官	-11.2292
所稱	-11.2293
相逢	-11.2294
唐李	-11.2297
都官	-11.2299
司直	-11.2303
禮部侍郎	-11.2304
陳蕃	-11.2304
訶	-11.2304
猨	-11.2305
近代	-11.2305
薩	-11.2306
二年二月	-11.2306
犂	-11.2307
王充論衡	-11.2307
東郡	-11.2307
太平御覽	-11.2309
聞於	-11.2309
糟	-11.2311
見人	-11.2311
休息	-11.2314
相率	-11.2319
飼	-11.2319
俶	-11.232
入見	-11.2323
清異録	-11.2323
寺碑	-11.2325
一方	-11.2327
養生	-11.2331
者何也	-11.2331
齋戒	-11.2331
刄	-11.2334
於心	-11.2336
開皇	-11.2339
方丈	-11.234
麾下	-11.2343
人才	-11.2344
朝堂	-11.2345
少陽	-11.2346
納言	-11.2346
萬邦	-11.2347
還宫	-11.2347
時雨	-11.2347
其辭	-11.2349
河上	-11.235
覘	-11.2352
揣	-11.2353
也注	-11.2353
蹋	-11.2354
遂使	-11.2357
講武	-11.2357
襪	-11.2359
固守	-11.2362
酢	-11.2362
邏	-11.2363
安知	-11.2364
慶雲	-11.2364
出其	-11.2365
以救	-11.2365
籟	-11.2366
自相	-11.2371
苑中	-11.2373
時年	-11.2374
勤勞	-11.2374
琪	-11.2376
之先	-11.2376
一百二十	-11.2376
以死	-11.2381
讀之	-11.2382
一雙	-11.2384
寖	-11.2384
宋書樂志	-11.2385
七曰	-11.2385
甚盛	-11.2393
著於	-11.2393
豫州刺史	-11.2393
山陵	-11.2396
賫	-11.2397
之至也	-11.24
其所以	-11.2402
千餘里	-11.2402
定州	-11.2403
與天	-11.2404
夏后氏	-11.2405
琅	-11.2406
朞	-11.2406
八分	-11.2407
其官	-11.2407
長老	-11.2409
道中	-11.241
唐制	-11.2411
遺事	-11.2413
醮	-11.2413
食其	-11.2413
職方	-11.2415
皆出	-11.2416
一生	-11.2419
六七	-11.242
破賊	-11.2423
蘇武	-11.2427
吼	-11.2427
鐫	-11.2428
是知	-11.2428
榴	-11.2428
所致	-11.243
三年正月	-11.2434
不踰	-11.2437
之室	-11.2438
大戴禮	-11.2441
▁又丨丨	-11.2444
奭	-11.2445
官爵	-11.2445
殁	-11.2445
紏	-11.2446
安西	-11.2452
兵革	-11.2455
芹	-11.2459
為樂	-11.246
有能	-11.2461
出丨丨	-11.2463
學官	-11.2463
劉長卿	-11.2464
之宫	-11.2468
未定	-11.2471
瓣	-11.2474
觚	-11.2474
仰天	-11.2476
四分	-11.248
翌日	-11.248
賛曰	-11.2483
和尚	-11.2485
潄	-11.2486
公孫𢎞	-11.2487
何由	-11.2487
大海	-11.2489
每嵗	-11.249
抛	-11.249
畱	-11.249
交州	-11.2492
迎之	-11.2493
征討	-11.2495
武都	-11.2496
▁張	-11.2496
韋莊	-11.2499
鴿	-11.25
獻公	-11.2502
水精	-11.2503
欝	-11.2505
為害	-11.2508
地中	-11.2511
丈餘	-11.2513
平公	-11.2515
塟	-11.2515
一曲	-11.2516
嗜酒	-11.2517
進曰	-11.2517
工部	-11.2517
豈無	-11.2518
擘	-11.2518
配天	-11.2519
入水	-11.2519
塜	-11.252
撻	-11.252
圜丘	-11.2521
芳草	-11.2522
箠	-11.2523
天神	-11.2525
無由	-11.2529
在内	-11.2531
百世	-11.2532
藜	-11.2533
五百人	-11.2534
青青	-11.2535
誚	-11.2537
輿服志	-11.2537
桂林	-11.2538
合於	-11.2539
豐年	-11.254
為尚書令	-11.254
儀同	-11.2543
隱居	-11.2543
龍虎	-11.2544
酈	-11.2547
不可勝	-11.2548
頃之	-11.2549
皆可	-11.2549
莢	-11.255
隳	-11.255
國君	-11.2552
不遇	-11.2552
將來	-11.2553
柱國	-11.2554
每有	-11.2554
隠居	-11.2554
後魏書曰	-11.2554
頌曰	-11.2557
方干	-11.2557
韓文	-11.2558
十五里	-11.256
鏗	-11.2561
渝	-11.2561
無能	-11.2561
楊栁	-11.2562
經卷	-11.2563
湯武	-11.2565
中書監	-11.2566
之月	-11.2568
處處	-11.2572
者惟	-11.2574
舟楫	-11.2575
華隂	-11.2576
其情	-11.2577
右軍	-11.258
碁	-11.258
僃	-11.2581
五穀	-11.2581
謟	-11.2583
徭	-11.2584
臣也	-11.2588
等州	-11.259
所著	-11.2591
貢舉	-11.2592
汴州	-11.2594
東觀漢記	-11.2594
萬機	-11.2594
登山	-11.2594
是何	-11.2595
倨	-11.2596
擎	-11.2597
痩	-11.2597
主客	-11.2598
景雲	-11.2599
人人	-11.2599
慟	-11.2601
不事	-11.2603
得此	-11.2604
以助	-11.2604
吾聞	-11.2605
楸	-11.2605
亭侯	-11.2605
吏部侍郎	-11.2606
雷電	-11.2608
曰諾	-11.2609
睛	-11.2613
奏議	-11.2613
泚	-11.2614
於君	-11.2614
無量	-11.2614
簧	-11.2615
奨	-11.2615
撮	-11.2615
抱朴子曰	-11.2618
之弟	-11.2618
先儒	-11.2619
六帖	-11.2619
鷂	-11.2621
漢初	-11.2621
𥙷註	-11.2623
悌	-11.2623
出于	-11.2625
勛	-11.2626
訢	-11.2626
生死	-11.2626
吳越	-11.2627
景徳	-11.2629
㸑	-11.2629
民無	-11.263
一片	-11.2633
閫	-11.2633
寥	-11.264
鴻臚	-11.2641
葭	-11.2642
入城	-11.2642
建隆	-11.2644
蹲	-11.2644
為善	-11.2645
吿	-11.2645
問之曰	-11.2646
處之	-11.2648
也然則	-11.2648
三千人	-11.265
東郭	-11.265
王后	-11.2653
酤	-11.2658
行則	-11.2661
者先	-11.2662
都城	-11.2666
㢲	-11.2673
畵	-11.2674
同日	-11.2675
魏徴	-11.2678
泰始	-11.2678
璣	-11.2683
安車	-11.2689
奩	-11.2691
苴	-11.2693
總論	-11.2693
之竒	-11.27
春分	-11.27
顓	-11.2701
白露	-11.2701
今後	-11.2705
八寸	-11.2706
大鴻臚	-11.2706
少監	-11.2706
東至	-11.2706
瘳	-11.2707
不異	-11.2707
雲笈七籤	-11.2707
珉	-11.2708
戴叔倫	-11.2708
百神	-11.2708
録事	-11.2709
既成	-11.271
曰寡人	-11.2711
輕薄	-11.2711
異也	-11.2715
非不	-11.2716
貧者	-11.2721
㝢	-11.2723
桓帝	-11.2724
立廟	-11.2726
畏之	-11.2729
無聞	-11.2729
安平	-11.273
冬夏	-11.273
井中	-11.2731
之運	-11.2732
名丨丨	-11.2733
生民	-11.2734
集序	-11.2734
仲春	-11.2735
騏驥	-11.2735
佯	-11.2736
繳	-11.2736
之表	-11.2737
上柱國	-11.2737
幻	-11.2738
三朝	-11.2743
遺之	-11.2745
也謂	-11.2745
人以為	-11.2746
善政	-11.2748
畤	-11.2749
東夷	-11.2749
白頭	-11.275
頓首	-11.2751
今君	-11.2752
成人	-11.2753
三省	-11.2754
居中	-11.2757
鏁	-11.2757
浙江	-11.2757
單衣	-11.2758
即是	-11.2758
暹	-11.2759
此非	-11.276
曰古者	-11.276
部郎中	-11.2762
櫓	-11.2764
以禦	-11.2767
以防	-11.2768
曾子	-11.2768
甚美	-11.2769
大厯	-11.277
五嶽	-11.2771
自立	-11.2771
學問	-11.2771
謂左右曰	-11.2772
三代之	-11.2774
後進	-11.2774
有八	-11.2774
為三	-11.2776
隷	-11.2779
薨子	-11.278
曰天下	-11.278
騖	-11.2783
成子	-11.2783
獨坐	-11.2784
雖欲	-11.2784
叫	-11.2786
懾	-11.2786
者雖	-11.2789
存焉	-11.2789
十斤	-11.2789
失色	-11.2789
張公	-11.2789
塵埃	-11.279
立為	-11.279
乃召	-11.2791
清廟	-11.2791
與君	-11.2793
所向	-11.2795
近日	-11.2797
萬頃	-11.2801
因循	-11.2803
上䟽	-11.2805
和親	-11.2806
先登	-11.2806
寡君	-11.2806
可否	-11.2808
補闕	-11.281
門之外	-11.2812
夜光	-11.2812
矣又曰	-11.2815
大雪	-11.2817
瑱	-11.2818
過於	-11.2818
紵	-11.2819
山隂	-11.282
世俗	-11.282
歸來	-11.282
蘄	-11.2822
東郊	-11.2823
髙山	-11.2827
乆矣	-11.2829
俛	-11.2829
賜物	-11.2829
不以為	-11.2831
善為	-11.2832
有一人	-11.2832
無過	-11.2834
封建	-11.2836
昊天	-11.2837
此所謂	-11.2837
風俗通曰	-11.2838
萬五千	-11.284
在乎	-11.284
通天	-11.2842
積石	-11.2843
若無	-11.2845
雅樂	-11.2845
穉	-11.2847
味甘	-11.2847
築城	-11.2848
一原	-11.2848
𧰼	-11.2856
崑	-11.2858
中官	-11.2858
洮	-11.286
朋黨	-11.286
自得	-11.2863
花落	-11.2863
楊維楨	-11.2865
前驅	-11.2865
二品	-11.2866
范仲淹	-11.2868
豊	-11.2868
乃可	-11.2869
監門	-11.2871
金錢	-11.2871
紀曰	-11.2873
弓弩	-11.2875
罍	-11.2875
曰聞	-11.2878
賞之	-11.2879
王禹偁	-11.2881
磔	-11.2882
杜詩	-11.2885
親王	-11.2886
續漢書曰	-11.2887
泝	-11.2888
也疏	-11.289
無餘	-11.289
呪	-11.2892
兩京	-11.2893
英宗	-11.2893
迪	-11.2897
李陵	-11.2898
宋人	-11.2898
經義	-11.2898
者以其	-11.2899
無名	-11.2899
曰可	-11.2899
上聞	-11.29
令曰	-11.2902
一體	-11.2903
所執	-11.2904
經營	-11.2906
熲	-11.2907
遘	-11.2912
缾	-11.2913
倉卒	-11.2913
詔賜	-11.2917
太初	-11.292
之飾	-11.292
安在	-11.2926
徐州刺史	-11.2926
僞	-11.2926
李勣	-11.2928
神主	-11.2929
宛轉	-11.2929
尤甚	-11.2931
事詳	-11.2931
所過	-11.2931
驃騎將軍	-11.2932
謝曰	-11.2934
潯陽	-11.2936
牧守	-11.294
其兄	-11.2941
其體	-11.2942
之迹	-11.2942
茨	-11.2943
敲	-11.2943
和平	-11.2944
上古	-11.2944
大梁	-11.2946
劉備	-11.2949
昊	-11.2949
㕔事	-11.2952
佩刀	-11.2955
夏后	-11.2955
為御史中丞	-11.2957
㓗	-11.2961
芟	-11.2961
諸侯王	-11.2962
之祥	-11.2962
延之	-11.2963
刑獄	-11.2963
者並	-11.2966
蕭蕭	-11.2966
髀	-11.2967
朝鮮	-11.2967
始終	-11.2968
武侯	-11.297
二十一年	-11.2971
二十人	-11.2972
髙士	-11.2972
首領	-11.2974
攫	-11.2974
鱠	-11.2974
駿馬	-11.2975
吻	-11.2975
農桑	-11.2975
賈島	-11.2976
園中	-11.2977
師古	-11.2978
器也	-11.2979
矣又	-11.298
皇極	-11.2985
也補	-11.2986
蘇轍	-11.2986
數丈	-11.2987
復生	-11.2987
必當	-11.2988
大江	-11.2988
麞	-11.2988
有遺	-11.2988
知己	-11.299
乃為	-11.2991
瀨	-11.2992
楊子	-11.2994
天人	-11.2995
故知	-11.2996
洞天	-11.2998
万	-11.3005
穆王	-11.3005
濠	-11.3005
權衡	-11.3006
以和	-11.3007
君命	-11.3007
入室	-11.301
開國	-11.3012
隨之	-11.3012
進賢	-11.3014
蕚	-11.3014
肅肅	-11.3014
七廟	-11.3015
下獄	-11.3016
太官	-11.3016
而可	-11.3017
今欲	-11.3017
晳	-11.3018
固有	-11.3021
丹砂	-11.3024
樗	-11.3024
魏武帝	-11.3026
之㫖	-11.3028
都統	-11.3034
二十九	-11.3035
張文	-11.3038
新序	-11.3038
宣公	-11.3039
之尊	-11.3041
涼州	-11.3045
查	-11.3045
平章	-11.3049
鞋	-11.305
粱	-11.305
杼	-11.3052
時事	-11.3052
又改	-11.3053
祀之	-11.3055
言不	-11.3057
桴	-11.3057
覓	-11.3059
▁後漢書	-11.3064
又問	-11.3065
木蘭	-11.3065
樞宻	-11.3065
十五日	-11.3066
樂志	-11.3069
夕陽	-11.307
而莫	-11.307
三禮	-11.3071
賜帛	-11.3071
五兵	-11.3071
浮屠	-11.3073
朔望	-11.3075
諸色	-11.3076
末年	-11.3078
遣將	-11.308
一聲	-11.3083
講論	-11.3084
侯伯	-11.3084
鉦	-11.3085
一度	-11.3085
晏子曰	-11.3085
康王	-11.3087
文成	-11.3088
欲與	-11.3089
潢	-11.3089
朝貢	-11.3089
閽	-11.309
飱	-11.3092
捶	-11.3094
有力	-11.3094
兼領	-11.3095
新城	-11.3096
柿	-11.3098
一事	-11.3098
敇	-11.3099
飴	-11.3099
哲宗	-11.3101
置於	-11.3105
識其	-11.3107
囬	-11.3109
李廣	-11.311
入門	-11.3112
炫	-11.3113
漢髙祖	-11.3116
聲聞	-11.3118
而况	-11.3118
執法	-11.3119
泳	-11.312
秋水	-11.312
等並	-11.312
帥師	-11.3122
一萬	-11.3123
蘭臺	-11.3124
譎	-11.3125
無故	-11.3128
以義	-11.3131
瞰	-11.3136
地也	-11.3136
相接	-11.3137
諂	-11.3139
大禮	-11.314
睹	-11.3142
趙氏	-11.3146
都指揮使	-11.3146
入宫	-11.3147
知我	-11.3149
兩人	-11.3152
鳯皇	-11.3153
收其	-11.3153
黄鐘	-11.3155
或言	-11.3156
綈	-11.3157
積年	-11.3157
瑋	-11.316
所重	-11.316
篁	-11.316
諌曰	-11.316
霖雨	-11.3161
宋公	-11.3164
去聲	-11.3165
𣗳	-11.3167
長公主	-11.3168
巔	-11.3168
刳	-11.3171
悴	-11.3171
至誠	-11.3171
治道	-11.3172
公輔	-11.3173
未嘗有	-11.3176
立秋	-11.3176
食者	-11.3178
駑	-11.3178
百斤	-11.3178
言也	-11.3182
而長	-11.3182
元載	-11.3183
南風	-11.3183
卒子	-11.3185
茫	-11.3187
開成	-11.3187
忙	-11.3187
此事	-11.319
黠	-11.3191
而坐	-11.3191
蘋	-11.3194
合歡	-11.3195
一子	-11.3196
二丈	-11.3196
謝莊	-11.3198
學生	-11.3199
中道	-11.32
亡命	-11.3201
開封	-11.3203
一株	-11.3203
邨	-11.3205
松栢	-11.3211
人亦	-11.3213
時政	-11.3214
彭祖	-11.3215
義也	-11.3216
定公	-11.3217
霆	-11.3218
春色	-11.3218
乃復	-11.3219
來者	-11.322
隋文帝	-11.3223
輓	-11.3224
閹	-11.3224
光禄勲	-11.3224
之曲	-11.3229
將有	-11.323
成周	-11.323
落花	-11.323
倭	-11.3232
韓琦	-11.3234
貉	-11.3236
復舊	-11.3237
正始	-11.3244
淄	-11.3244
不意	-11.3244
魏氏	-11.3245
秋分	-11.3246
其説	-11.3247
山北	-11.3249
江山	-11.3249
鮪	-11.325
三十五	-11.3252
延英	-11.3252
絲竹	-11.3253
好惡	-11.3254
法苑珠林	-11.3255
金剛	-11.3255
文王之	-11.3255
翩翩	-11.3256
啜	-11.3257
不朽	-11.3258
九寸	-11.3259
貼	-11.326
五丈	-11.3261
何異	-11.3263
遊於	-11.3263
甲寅	-11.3264
始生	-11.3264
去官	-11.3265
林邑	-11.3266
翩	-11.3267
珽	-11.3268
韓詩外傳	-11.3269
憚之	-11.3269
釜	-11.3269
廢帝	-11.327
一里	-11.327
廟堂	-11.3272
譖	-11.3273
蒼蒼	-11.3273
音律	-11.3273
膩	-11.3274
三里	-11.3274
得無	-11.3282
歌丨丨	-11.3283
所及	-11.3286
六百石	-11.3293
當死	-11.3294
本州	-11.3296
杏花	-11.3299
未發	-11.33
而歌	-11.33
之粟	-11.3301
可畏	-11.3301
拖	-11.3302
囷	-11.3302
宋書曰	-11.3303
不給	-11.3303
髙陽	-11.3304
伐齊	-11.3305
謀反	-11.3305
天雨	-11.3305
山堂肆考	-11.3306
有七	-11.3307
宗伯	-11.331
永興	-11.3314
而東	-11.3315
有金	-11.3315
三足	-11.3316
伯玉	-11.3318
交阯	-11.3318
志云	-11.3321
月明	-11.3324
义	-11.3324
京畿	-11.3325
蘇州	-11.3327
海水	-11.3328
典禮	-11.3329
號丨丨	-11.3333
勉之	-11.3335
幷	-11.3337
鄆	-11.3339
滔	-11.3341
為亂	-11.3342
夜行	-11.3343
齊魯	-11.3345
赫赫	-11.3348
乃詔	-11.3348
軻	-11.3348
世稱	-11.3351
塚	-11.3353
其親	-11.3353
大司空	-11.3354
舸	-11.3355
艘	-11.3355
槽	-11.3356
黷	-11.3356
禮記月令	-11.3357
亦猶	-11.3358
性好	-11.336
東魏	-11.3361
蒯	-11.3365
天府	-11.3366
而亡	-11.3367
四五	-11.3369
其禮	-11.3369
荆軻	-11.337
廣平	-11.3372
可與	-11.3373
兩頭	-11.3374
縉紳	-11.3375
信之	-11.3378
西園	-11.3379
以天下	-11.338
云何	-11.338
陽春	-11.3382
鄉侯	-11.3386
炤	-11.3387
黄雀	-11.3388
澧	-11.339
處也	-11.339
之右	-11.3395
於衆	-11.3395
登樓	-11.3396
冠冕	-11.3401
竽	-11.3402
越絶書	-11.3404
盡心	-11.3405
其日	-11.3406
城外	-11.3406
縦	-11.3407
通於	-11.3407
初學記	-11.3407
咫尺	-11.3408
長卿	-11.3408
爪牙	-11.3411
孰能	-11.3411
不備	-11.3412
羣公	-11.3416
老父	-11.3417
遂至	-11.3417
左思	-11.3418
䄂	-11.3422
不答	-11.3426
落日	-11.3428
而南	-11.3429
太行	-11.343
衆生	-11.3432
相持	-11.3435
而不得	-11.3436
不喜	-11.3444
為御史	-11.3449
少傅	-11.3452
繼之	-11.3452
霰	-11.3452
臍	-11.3454
逈	-11.3456
忩	-11.3457
朝陽	-11.3462
帝嚳	-11.3465
靴	-11.3465
而行之	-11.3467
非其人	-11.3471
嗇	-11.3471
漁父	-11.3475
玉帛	-11.3476
成文	-11.3477
復何	-11.3478
六藝	-11.3478
仍令	-11.3482
子良	-11.3487
兵士	-11.3487
帝親	-11.3488
終身不	-11.349
而為之	-11.3494
昔在	-11.3495
所服	-11.3499
異姓	-11.3503
更生	-11.3505
儲光羲	-11.3507
河洛	-11.3509
王使	-11.351
非吾	-11.351
故鄉	-11.3515
以私	-11.3516
致之	-11.3517
於西	-11.3517
嵇	-11.3519
行也	-11.352
鸛	-11.3521
不屈	-11.3524
其味	-11.3525
之語	-11.3525
在京	-11.3525
帙	-11.3527
乃是	-11.3527
弟也	-11.3528
件	-11.3529
士民	-11.3533
小而	-11.3533
井田	-11.3534
推官	-11.3536
王戎	-11.3538
神道碑	-11.3539
命也	-11.354
九華	-11.354
正位	-11.3541
韓詩	-11.3542
呼之	-11.3542
沅	-11.3543
沽	-11.3544
小學	-11.3545
毛詩曰	-11.3547
命有司	-11.3553
當年	-11.3554
戸部	-11.3556
恐懼	-11.3557
傳贊	-11.3558
玲瓏	-11.3558
鑚	-11.3559
産業	-11.3559
舛	-11.3559
篇曰	-11.3561
聲色	-11.3561
不虞	-11.3562
則又	-11.3564
進止	-11.3564
四子	-11.3565
國家之	-11.3568
漕運	-11.357
衛侯	-11.357
霏	-11.3572
璇	-11.3573
出塞	-11.3576
菖蒲	-11.3576
生于	-11.3577
盡力	-11.358
國傳	-11.3581
青陽	-11.3586
奪之	-11.3587
不移	-11.3588
内則	-11.3589
縣地	-11.359
也後	-11.359
胙	-11.359
脇	-11.359
麄	-11.3593
江中	-11.3596
孫氏	-11.3597
度量	-11.3598
許敬宗	-11.3601
天氣	-11.3602
行軍	-11.3602
太微	-11.3602
其業	-11.3602
考課	-11.3602
地名	-11.3606
眞人	-11.3607
徤	-11.3608
莫有	-11.3608
驪山	-11.3608
張掖	-11.3609
帷幄	-11.3611
之本也	-11.3613
遣其	-11.3614
李膺	-11.3615
論議	-11.3615
國在	-11.3617
季子	-11.3618
行禮	-11.3618
靡不	-11.3618
梁冀	-11.3621
中間	-11.3623
櫂	-11.3624
喜曰	-11.3624
本名	-11.3627
嵗月	-11.3627
雷雨	-11.3627
七夕	-11.3628
卒於	-11.3628
擯	-11.3628
之舞	-11.3631
用其	-11.3632
如雲	-11.3632
圖之	-11.3633
進封	-11.3633
魏公	-11.3635
世本	-11.3635
軍節度	-11.3637
鐃	-11.3638
惶	-11.3639
近者	-11.364
遂成	-11.3642
而忘	-11.3645
非人	-11.3645
詘	-11.3645
紊	-11.3646
閬	-11.3646
委以	-11.3647
荆山	-11.3648
縣界	-11.3649
四望	-11.3649
字彦	-11.3655
兩儀	-11.3656
吕氏	-11.3657
聶	-11.3657
磯	-11.3658
葅	-11.3662
梁武	-11.3662
㕘軍	-11.3663
其用	-11.3663
亦云	-11.3663
望風	-11.3668
未敢	-11.3672
懐詩	-11.3672
入丨丨	-11.3674
百八十	-11.3674
萬方	-11.3674
正字	-11.3676
瓉	-11.3678
摭	-11.3678
峩	-11.3679
鑣	-11.3679
天柱	-11.368
信也	-11.3681
風塵	-11.3683
濟濟	-11.3683
若使	-11.3684
得志	-11.3685
節儉	-11.3686
少好學	-11.3687
劉毅	-11.3688
掖庭	-11.369
太史公	-11.3691
頭上	-11.3692
燿	-11.3695
豺狼	-11.3695
張耒	-11.3695
避暑	-11.3696
四星	-11.3696
惆悵	-11.3698
樂之	-11.3698
生者	-11.3699
吾所	-11.37
胡人	-11.3703
今陛下	-11.3704
舶	-11.3705
相遇	-11.3707
何敢	-11.3708
澈	-11.3714
王珪	-11.3715
侑	-11.3715
韓子曰	-11.3716
唐史	-11.3717
巫山	-11.3719
髙適	-11.372
不可復	-11.3721
文襄	-11.3723
道德	-11.3724
在西	-11.3725
日南	-11.3727
死不	-11.3727
樞宻使	-11.3728
大亂	-11.3729
乃還	-11.373
欲求	-11.373
者哉	-11.3731
亭亭	-11.3732
騶虞	-11.3733
取諸	-11.3735
上書言	-11.3738
第十	-11.3743
上皇	-11.3743
遂得	-11.3743
孔帖	-11.3744
茂陵	-11.3747
所歸	-11.3759
李晟	-11.376
得丨丨	-11.376
亦自	-11.3762
景仁	-11.3763
其名曰	-11.3763
司空圖	-11.3764
▁李白	-11.3765
褰	-11.3766
京兆府	-11.3766
西門	-11.3769
漢文帝	-11.377
字士	-11.377
委之	-11.3776
相隨	-11.3778
笑之	-11.3783
太簇	-11.3784
澤中	-11.3785
歌行	-11.3786
埒	-11.3786
千仞	-11.3787
五品以上	-11.3788
此物	-11.3788
京官	-11.379
群臣	-11.3791
尚書左僕射	-11.3791
敵人	-11.3794
皮弁	-11.3796
刹	-11.38
刷	-11.38
籩	-11.38
甯	-11.3801
丹陽尹	-11.3803
李泌	-11.3803
偹	-11.3805
猶可	-11.3805
方正	-11.3806
冊府元龜	-11.3807
百嵗	-11.3808
無定	-11.381
濟北	-11.3811
甲午	-11.3812
百户	-11.3814
各以其	-11.3816
顚	-11.3818
為京兆尹	-11.3819
出奔	-11.382
權徳輿	-11.3822
聞見	-11.3823
腹中	-11.3823
是嵗	-11.3824
職掌	-11.3825
人語	-11.3827
政令	-11.3828
論之	-11.383
乃取	-11.3831
與民	-11.3832
水流	-11.3835
白樂天	-11.3835
醯	-11.3837
二十五年	-11.3837
怕	-11.3839
聦	-11.3839
六十四	-11.384
有子	-11.384
始以	-11.3841
二分	-11.3841
凌雲	-11.3843
吏士	-11.3846
相謂曰	-11.3846
學道	-11.3846
明一統志	-11.3848
漁陽	-11.3849
互相	-11.3849
終無	-11.385
匃奴	-11.3852
太乙	-11.3852
▁陸游	-11.3853
歸家	-11.3855
嗤	-11.3856
不學	-11.3857
能使	-11.3857
秋月	-11.3859
流沙	-11.3861
從事中郎	-11.3861
興元	-11.3862
所未	-11.3862
▁庾信	-11.3862
土之	-11.3862
呼曰	-11.3863
始得	-11.3865
委任	-11.3867
於家	-11.3867
大觀	-11.3867
萬計	-11.387
六日	-11.3871
與同	-11.3871
譛	-11.3872
髙昌	-11.3872
景龍	-11.3873
舅姑	-11.388
典籍	-11.3881
庚子	-11.3884
玉牒	-11.3885
以道	-11.3885
三皇	-11.3885
四時之	-11.3887
中行	-11.3887
諳	-11.3887
閒居	-11.3888
是則	-11.389
務在	-11.3891
每年	-11.3894
幽明	-11.3897
上谷	-11.3902
不親	-11.3903
悵	-11.3905
眄	-11.3906
疑之	-11.3906
雍州刺史	-11.3906
窈窕	-11.3908
逓	-11.3908
淮隂	-11.3909
亦謂之	-11.391
簿書	-11.391
貧民	-11.3914
丨丨丨也	-11.3916
養老	-11.3916
鍾離	-11.3917
一増	-11.3917
長興	-11.3918
曾孫	-11.3921
宋齊	-11.3924
陬	-11.3924
古今注	-11.3924
直學士	-11.3925
睢陽	-11.3927
鞾	-11.3928
一夫	-11.3928
太始	-11.3928
燕趙	-11.393
而動	-11.3935
不輟	-11.3937
名之曰	-11.3939
寰	-11.3939
景祐	-11.3939
文侯	-11.394
其音	-11.3942
仁傑	-11.3945
事皆	-11.3947
九族	-11.3948
固請	-11.3948
頡	-11.3949
百王	-11.3949
流離	-11.395
流星	-11.3951
省中	-11.3951
册府元龜卷	-11.3951
桓子	-11.3953
菊花	-11.3956
無二	-11.3958
䦨	-11.3959
絶其	-11.3959
腫	-11.3959
上問	-11.3959
韻㑹	-11.396
異同	-11.3964
性命	-11.3964
大駕	-11.3964
于闐	-11.3966
漢陽	-11.3966
而居	-11.3968
在南	-11.3968
不登	-11.3971
都邑	-11.3972
州司馬	-11.3974
絢	-11.3976
之始也	-11.3976
姑洗	-11.398
神州	-11.3983
國子博士	-11.3984
安之	-11.3987
禦之	-11.3988
内殿	-11.3991
緩急	-11.3993
愛人	-11.3993
夏禹	-11.3993
湜	-11.3994
飇	-11.3994
目之	-11.3995
於水	-11.3995
碣	-11.3996
子男	-11.3998
太常博士	-11.3998
儒術	-11.3999
人面	-11.3999
虞舜	-11.4
岷	-11.4001
水草	-11.4006
鷙	-11.4009
夢見	-11.401
槊	-11.4011
槁	-11.4014
功業	-11.4015
羣生	-11.4016
建業	-11.4016
三光	-11.4016
我心	-11.4017
自然之	-11.4017
分别	-11.4018
於大	-11.4018
之害	-11.4019
水土	-11.402
不是	-11.4022
少孤	-11.4022
不和	-11.4023
其背	-11.4023
太府	-11.4026
凄	-11.4028
所敗	-11.403
五更	-11.4031
纛	-11.4033
煉	-11.4033
數也	-11.4036
如之何	-11.4036
狄仁傑	-11.4037
已成	-11.4039
惡其	-11.4039
浙西	-11.4041
經緯	-11.4041
其任	-11.4041
犁	-11.4043
比干	-11.4043
初生	-11.4045
掉	-11.4046
鄧禹	-11.4047
令丞	-11.4049
髣髴	-11.4049
之能	-11.4049
火燒	-11.405
聯	-11.4052
堂堂	-11.4053
諤	-11.4055
長江	-11.4057
官司	-11.4057
天寒	-11.4058
簡子	-11.4062
帝怒	-11.4065
春秋曰	-11.4066
二公	-11.4068
武宗	-11.4068
之選	-11.4068
莫知其	-11.407
下至	-11.4071
翼翼	-11.4072
有言	-11.4073
此之謂	-11.4074
管子曰	-11.4076
成而	-11.4077
泛舟	-11.4079
庾肩吾	-11.408
亦當	-11.4081
耆舊	-11.4082
不雨	-11.4082
安南	-11.4084
澡	-11.4085
其在	-11.4086
㤙	-11.4087
芝草	-11.4089
籍田	-11.4089
賭	-11.409
孔安國	-11.409
五刑	-11.4091
不拘	-11.4092
西魏	-11.4092
吾將	-11.4093
年二十	-11.4093
有志	-11.4094
封為	-11.4095
客有	-11.4096
曲阜	-11.4096
怪之	-11.4096
詩賦	-11.4097
以文	-11.4098
而巳	-11.41
以取	-11.4101
聞者	-11.4101
聖明	-11.4101
見寄詩	-11.4101
香爐	-11.4102
力戰	-11.4104
初仕	-11.4104
摹	-11.4105
鬲	-11.4105
躭	-11.4106
頡利	-11.4106
剔	-11.4106
蜩	-11.4107
其狀如	-11.4107
宰輔	-11.4108
化爲	-11.4109
凡三	-11.4109
春官	-11.411
竹林	-11.411
騎都尉	-11.411
根本	-11.4111
口中	-11.4111
樓臺	-11.4116
晉大夫	-11.4116
左右皆	-11.4117
李固	-11.4119
獻子	-11.4119
汧	-11.412
拜為	-11.412
攄	-11.4121
謠	-11.4121
田獵	-11.4122
堞	-11.4123
而不敢	-11.4125
公田	-11.4126
儀注	-11.4127
重耳	-11.4128
髙平	-11.4128
放之	-11.413
殷勤	-11.4132
東萊	-11.4133
草堂	-11.4133
樂器	-11.4134
位在	-11.4136
坼	-11.4136
在官	-11.4136
桷	-11.4139
抃	-11.4139
禧	-11.4141
爨	-11.4141
終南	-11.4143
災異	-11.4143
於王	-11.4143
織成	-11.4144
為治	-11.4144
舉其	-11.4146
行於	-11.4146
與夫	-11.4147
天馬	-11.4153
笑而	-11.4154
郗	-11.4154
國獻	-11.4156
百九十	-11.4157
紱	-11.4157
庵	-11.4157
孫綽	-11.4159
不違	-11.4159
螯	-11.4159
燾	-11.416
孫皓	-11.4162
林甫	-11.4164
漢水	-11.4164
官人	-11.4165
昭儀	-11.4165
大使	-11.4167
善屬文	-11.4168
以制	-11.4172
二百里	-11.4173
撾	-11.4175
曰不然	-11.4178
勇士	-11.4178
太上皇	-11.418
開寳	-11.4183
其根	-11.4186
其理	-11.4186
逆旅	-11.4191
合而	-11.4192
圖畫	-11.4193
譬之	-11.4195
事則	-11.4195
在郡	-11.4195
所愛	-11.4195
一角	-11.4196
矦	-11.4197
雨露	-11.4197
絶人	-11.4198
池上	-11.4201
樞宻院	-11.4204
新豐	-11.4206
洛中	-11.4207
蒜	-11.4207
雲漢	-11.421
年八十	-11.4213
烏桓	-11.4214
而受	-11.4214
汰	-11.4215
尚方	-11.4217
處置	-11.4217
字道	-11.4218
山頂	-11.4219
為首	-11.422
朱泚	-11.4221
顙	-11.4223
帝嘗	-11.4229
鬪	-11.4229
迸	-11.423
謾	-11.4232
桀紂	-11.4232
形容	-11.4232
瀑布	-11.4233
糶	-11.4234
神仙傳	-11.4236
陳造	-11.4237
世世	-11.4239
百一十	-11.4242
𥙷	-11.4243
曲直	-11.4244
剝	-11.4246
求賢	-11.4246
以實	-11.4247
取士	-11.4247
交通	-11.4249
壟	-11.4249
薺	-11.4251
復還	-11.4251
經傳	-11.4251
不孝	-11.4252
孝武帝	-11.4255
簒	-11.4259
五月五日	-11.426
哭之	-11.426
江表	-11.4261
數尺	-11.4261
皇祐	-11.4262
之未	-11.4262
以俟	-11.4263
虞集	-11.4265
師傅	-11.4266
蜀王	-11.4266
廨	-11.4267
二十萬	-11.4268
祖考	-11.4268
耜	-11.4268
蟋蟀	-11.4269
▁漢書	-11.4271
琥珀	-11.4271
餒	-11.4271
劉孝綽	-11.4274
王衍	-11.4274
李林甫	-11.4275
乃去	-11.4277
律吕	-11.4278
之容	-11.428
湖州	-11.4281
重陽	-11.4281
等使	-11.4283
遒	-11.4284
耘	-11.4286
捫	-11.4286
何有	-11.4289
無憂	-11.429
黃帝	-11.4292
七十里	-11.4293
宣帝時	-11.4294
切說文	-11.4295
如來	-11.4297
咄	-11.43
水晶	-11.43
馬祖常	-11.4305
釋文	-11.4306
簡文	-11.4308
始知	-11.4308
傅𤣥	-11.4309
先祖	-11.4313
明一統志丨丨山在	-11.4315
不殺	-11.4315
李益	-11.4316
夢中	-11.4318
隗囂	-11.4319
祖母	-11.4322
伏見	-11.4322
紿	-11.4325
赤眉	-11.4325
不報	-11.4326
諦	-11.4327
玳瑁	-11.4327
五世	-11.4327
女為	-11.4329
甲乙	-11.433
工部尚書	-11.4331
之半	-11.4331
櫟	-11.4334
塗山	-11.4335
而小	-11.4335
續補	-11.4335
無形	-11.4337
零落	-11.4337
封疆	-11.4337
之務	-11.4339
茫茫	-11.434
藿	-11.434
怒而	-11.434
隲	-11.4341
遣之	-11.4342
前殿	-11.4342
帔	-11.4343
上方	-11.4345
年十二	-11.4346
奢侈	-11.4346
崇文	-11.4347
用心	-11.4347
姚崇	-11.4351
年七十	-11.4354
不恱	-11.4354
腊	-11.4356
鍔	-11.4358
萎	-11.4359
亦非	-11.4359
人主之	-11.4359
墅	-11.436
偈	-11.4363
甘露降	-11.4363
色青	-11.4363
東井	-11.4366
無用	-11.4366
周公之	-11.4369
五岳	-11.437
必能	-11.437
冢宰	-11.4372
光弼	-11.4373
必得	-11.4373
召入	-11.4373
太史令	-11.4374
山石	-11.4375
相近	-11.4377
三辰	-11.4377
攢	-11.4378
經書	-11.4378
贅	-11.4379
驤	-11.4379
夫以	-11.4382
娯	-11.4384
邑人	-11.4384
可知矣	-11.4385
永和	-11.4385
獲其	-11.4393
謂侍臣曰	-11.4394
而西	-11.4394
合浦	-11.4395
仲子	-11.4395
周瑜	-11.4395
俱為	-11.4396
四千	-11.4397
威將軍	-11.4398
動而	-11.4398
玷	-11.4399
田家	-11.44
輜重	-11.4401
南極	-11.4402
昵	-11.4402
喜怒	-11.4405
器之	-11.4405
剛柔	-11.4405
趙孟	-11.4405
吾家	-11.4406
部尚書	-11.4407
之廟	-11.4408
上清	-11.4409
丨丨而丨丨	-11.4411
玉樹	-11.4411
斿	-11.4412
要害	-11.4414
此是	-11.4414
不害	-11.4418
九成	-11.4419
晉陵	-11.4422
為業	-11.4423
入其	-11.4424
楨	-11.4424
談論	-11.4425
桓𤣥	-11.4426
不常	-11.4427
見二	-11.4429
螫	-11.443
兵部侍郎	-11.4431
禋	-11.4432
臣以	-11.4432
登第	-11.4434
光祿大夫	-11.4435
薔薇	-11.4436
王王	-11.4436
狙	-11.4439
涖	-11.4439
險阻	-11.4441
本漢	-11.4442
執金吾	-11.4443
出兵	-11.4445
珎	-11.4445
於海	-11.4446
東歸	-11.4446
日光	-11.4448
二卷	-11.445
來歸	-11.4451
發於	-11.4453
倘	-11.4453
𦍑	-11.4453
荆楚	-11.4455
歐公	-11.4455
畀	-11.4455
婿	-11.4456
太倉	-11.4458
伶	-11.4459
叔孫通	-11.4459
中夜	-11.4461
荆棘	-11.4462
瀝	-11.4463
箜篌	-11.4465
陳氏	-11.4465
良乆	-11.4467
後生	-11.4469
老母	-11.447
灞	-11.447
四十九	-11.4471
但見	-11.4471
兒童	-11.4472
本作	-11.4472
論事	-11.4474
上官	-11.4474
安民	-11.4475
色白	-11.4476
帝遣	-11.4476
於周	-11.4477
黄色	-11.4477
字景	-11.4479
甲辰	-11.4481
玦	-11.4482
於路	-11.4484
餳	-11.4486
糖	-11.4487
漢祖	-11.4487
幟	-11.4487
周制	-11.449
百官表	-11.4491
時稱	-11.4491
喘	-11.4492
房𤣥齡	-11.4494
者欲	-11.4495
以東	-11.4495
毛羽	-11.4497
進爵	-11.4497
實為	-11.4498
武公	-11.4498
明一統志丨丨在	-11.4499
入内	-11.4501
石虎	-11.4501
冊府元龜曰	-11.4504
賜金	-11.4506
立祠	-11.4506
鳧	-11.4507
有丨丨丨	-11.4507
羣書	-11.4507
帝幸	-11.4507
一代	-11.4508
因問	-11.4511
孫叔敖	-11.4512
故吏	-11.4515
數十年	-11.4515
三星	-11.4516
中得	-11.4516
温泉	-11.4517
之瑞	-11.4519
䟦	-11.4522
不妄	-11.4522
若以	-11.4523
呉興	-11.4523
麋鹿	-11.4524
斟	-11.4525
帝堯	-11.4526
手詔	-11.4527
志丨丨	-11.4529
以白	-11.4532
無此	-11.4532
經年	-11.4534
國事	-11.4534
伏誅	-11.4534
於楚	-11.4535
所親	-11.4535
之靈	-11.4536
豺	-11.4541
容止	-11.4543
伏兵	-11.4544
臠	-11.4546
安邑	-11.4546
絜	-11.4547
元始	-11.455
焚香	-11.4553
臣恐	-11.4554
之大者	-11.4555
小臣	-11.4557
苕	-11.4561
家無	-11.4562
蒼龍	-11.4563
西至	-11.4564
阨	-11.4564
淮南王	-11.4569
厯數	-11.457
五原	-11.4571
其方	-11.4573
隋書曰	-11.4576
盡忠	-11.4578
羲之	-11.4578
臣子	-11.4579
同異	-11.4581
漢書云	-11.4582
𦕈	-11.4582
七嵗	-11.4583
纊	-11.4584
蘚	-11.4584
卬	-11.4585
佃	-11.4587
起家	-11.4588
有赤	-11.4589
民力	-11.4589
薛能	-11.4591
藉田	-11.4591
榖梁	-11.4595
吾君	-11.4597
蜀中	-11.4597
則可	-11.4597
入蜀	-11.4597
義兵	-11.4599
鹿鳴	-11.4599
何哉	-11.46
蒲萄	-11.4602
搴	-11.4603
及長	-11.4603
孰與	-11.4604
褊	-11.4606
力士	-11.4606
一心	-11.4606
魏文侯	-11.4607
而罷	-11.461
溝洫	-11.461
無心	-11.4611
不得不	-11.4612
無足	-11.4613
職官	-11.4614
且夫	-11.4616
之甚	-11.4618
冏	-11.4621
款	-11.4621
恩澤	-11.4622
樹木	-11.4622
娱	-11.4622
侍衛	-11.4623
懶	-11.4624
早春	-11.4625
雲臺	-11.4628
正旦	-11.4629
太子太傅	-11.4629
多不	-11.4629
敬之	-11.4631
秋毫	-11.4632
法言	-11.4633
神也	-11.4634
靈武	-11.4636
二郡	-11.4638
穆穆	-11.4638
須㬰	-11.4639
何可	-11.4639
幌	-11.4639
廣徳	-11.464
牧羊	-11.464
朱衣	-11.464
守令	-11.464
欲知	-11.4641
如舊	-11.4642
非禮	-11.4643
欲殺	-11.4645
謝承後漢書曰	-11.4653
輕騎	-11.4654
州長史	-11.4655
四瀆	-11.4656
檣	-11.4658
緗	-11.466
縟	-11.4662
南渡	-11.4662
復見	-11.4663
而望	-11.4665
心腹	-11.4666
楊炯	-11.4666
親友	-11.4669
明君	-11.467
以徳	-11.467
王僧孺	-11.4672
二者	-11.4672
以待之	-11.4675
其德	-11.4676
搔	-11.4677
騂	-11.4677
門前	-11.4678
經典	-11.4679
月詩	-11.4679
昆明池	-11.468
户部侍郎	-11.4682
並見	-11.4685
此又	-11.4687
有時	-11.4688
河源	-11.4689
營田	-11.4692
化之	-11.4695
下丨	-11.4695
張湯	-11.4698
漢使	-11.4699
憩	-11.4699
鴛	-11.47
今若	-11.4703
之於是	-11.4703
贊曰	-11.4705
二里	-11.4706
翠羽	-11.4707
人莫	-11.4708
滇	-11.4709
之句	-11.4711
久不	-11.4711
官也	-11.4712
僵	-11.4715
沆	-11.4716
㓙	-11.4716
有禮	-11.4717
黏	-11.4718
孩	-11.4718
磴	-11.4719
飡	-11.4719
不能得	-11.472
非禮也	-11.472
𤣥武	-11.4721
不禁	-11.4722
裨	-11.4722
而治	-11.4724
深山	-11.4724
安撫	-11.4724
形於	-11.4724
父之	-11.4726
林木	-11.4727
孝明	-11.473
黥	-11.473
四十五	-11.473
師友	-11.4731
地利	-11.4732
百辟	-11.4733
駞	-11.4734
大澤	-11.4734
蘖	-11.4735
歌之曰	-11.4736
死亡	-11.4736
之符	-11.4737
君長	-11.4737
摠	-11.4737
為中書令	-11.4737
異物	-11.4738
譬猶	-11.4738
砦	-11.4738
偪	-11.4739
旦夕	-11.474
南昌	-11.4741
堯舜之	-11.4742
儒林	-11.4743
士皆	-11.4744
鄭公	-11.4746
出遊	-11.4748
千古	-11.4748
襄子	-11.4749
文集	-11.4749
種之	-11.4751
孟春	-11.4751
嘗從	-11.4752
𤨏	-11.4753
柰何	-11.4754
六律	-11.4754
軍民	-11.4755
蓴	-11.4755
離離	-11.4755
上人詩	-11.4756
羽毛	-11.4756
音聲	-11.4756
居詩	-11.4756
术	-11.4757
三州	-11.4759
齊桓	-11.476
事實	-11.4761
又詔	-11.4761
集賢	-11.4762
地有	-11.4763
不使	-11.4764
親親	-11.4764
司命	-11.4765
舊有	-11.4766
所奏	-11.4768
百匹	-11.477
真珠	-11.4771
尺寸	-11.4772
八座	-11.4775
有鳥	-11.4775
夫差	-11.4775
而終	-11.4778
上流	-11.4781
日日	-11.4781
有客	-11.4782
大行	-11.4783
車載	-11.4783
陽太守	-11.4784
墓誌	-11.4793
縶	-11.4794
鐘鼓	-11.4796
三月三日	-11.4796
三十三	-11.4796
一世	-11.4796
文明	-11.4797
武威	-11.4797
閤門	-11.4798
耄	-11.4798
之興	-11.4802
朱雀	-11.4804
時時	-11.4805
凡十	-11.4807
冠軍	-11.4808
玉山	-11.4808
南州	-11.481
軍吏	-11.481
山多	-11.481
鋸	-11.4811
猶如	-11.4811
善相	-11.4814
南至	-11.4815
世有	-11.4815
衛大將軍	-11.4815
沐浴	-11.4817
為刺史	-11.4818
行狀	-11.4819
赦之	-11.482
考其	-11.482
臨水	-11.4821
周天	-11.4821
方言	-11.4822
不置	-11.4824
涿	-11.4826
舩	-11.4828
此謂	-11.4829
年十三	-11.4832
上殿	-11.4833
城邑	-11.4833
雖在	-11.4833
塋	-11.4833
每月	-11.4834
菁	-11.4836
伉	-11.4838
用人	-11.484
上卿	-11.4841
又曰王	-11.4845
人馬	-11.4846
衮冕	-11.485
六品	-11.4851
輻	-11.4851
昆吾	-11.4851
之材	-11.4853
伐木	-11.4853
神龜	-11.4854
孝王	-11.4855
美女	-11.4855
便殿	-11.4855
任之	-11.4857
四年正月	-11.4861
戶	-11.4861
其徒	-11.4863
所獻	-11.4864
墓誌銘	-11.4864
趙簡子	-11.4865
薇	-11.4866
建平	-11.4867
不窮	-11.4867
紹聖	-11.4867
三年詔	-11.4869
彝	-11.4874
棄官	-11.4874
其術	-11.4875
張敞	-11.4876
後來	-11.488
方寸	-11.488
韓王	-11.488
居易	-11.4881
永寧	-11.4881
壬子	-11.4881
編修	-11.4883
徳音	-11.4885
㑹于	-11.4886
也因	-11.4888
季秋	-11.489
龍蛇	-11.4891
互見	-11.4892
其半	-11.4892
碧玉	-11.4893
至德	-11.4893
門下省	-11.4894
困於	-11.4894
兩省	-11.4895
不知何	-11.4896
其精	-11.4896
也按	-11.4897
社稷之	-11.4898
假節	-11.4899
灋	-11.49
宣慰	-11.49
無厭	-11.4903
食不	-11.4904
劉晏	-11.4904
蔬食	-11.4904
乳母	-11.4906
季夏	-11.4906
勸農	-11.4907
齊已	-11.4908
二十六年	-11.4909
蠢	-11.491
腋	-11.491
伐楚	-11.491
黎陽	-11.4911
名曰丨丨	-11.4911
不愛	-11.4913
屣	-11.4915
駟馬	-11.4915
南京	-11.4915
咸池	-11.4916
四原	-11.4916
應對	-11.4916
其城	-11.4917
敗之	-11.4917
徳裕	-11.4922
千葉	-11.4922
至大	-11.4922
八曰	-11.4924
昔人	-11.4925
利而	-11.4925
豈惟	-11.4925
讜	-11.4927
穴中	-11.4928
同平章事	-11.4929
戰士	-11.4929
不假	-11.4929
羅隠	-11.493
魚鼈	-11.4932
之敗	-11.4932
百五十	-11.4933
刮	-11.4934
又遣	-11.4934
盌	-11.4934
丨丨詳	-11.4935
故稱	-11.4938
辟為	-11.4938
失道	-11.4942
几杖	-11.4942
不甚	-11.4942
二年三月	-11.4945
與衆	-11.4946
黒色	-11.4947
子雲	-11.4947
十倍	-11.4949
何憂	-11.495
跛	-11.495
不遺	-11.4952
三百人	-11.4953
白龍	-11.4953
翎	-11.4954
思歸	-11.4954
率土	-11.4956
郃	-11.496
公家	-11.4962
廊廟	-11.4962
也凡	-11.4963
縣尉	-11.4963
同州	-11.4964
三丈	-11.4964
呂氏春秋	-11.497
有美	-11.497
彚	-11.4971
百花	-11.4972
曖	-11.4972
尚可	-11.4972
諫議	-11.4973
而難	-11.4973
王者之	-11.4976
庚申	-11.4977
清水	-11.498
校書郎	-11.498
傅咸	-11.4982
恭儉	-11.4983
天下無	-11.4983
送李	-11.4983
害之	-11.4985
才學	-11.4985
廣大	-11.4987
永徽	-11.4988
之端	-11.499
▁元稹	-11.4992
追封	-11.4995
勝負	-11.4995
紬	-11.4996
雌雄	-11.4998
其他	-11.4999
恭惟某官	-11.5
進位	-11.5001
皆曰	-11.5004
盼	-11.5004
彭蠡	-11.5006
鶚	-11.5006
齊師	-11.5007
濟河	-11.5007
改封	-11.5008
鯁	-11.5009
軍人	-11.501
蕭條	-11.5011
忱	-11.5013
刖	-11.5013
新書	-11.5015
其源	-11.5016
散騎	-11.5018
乘馬	-11.5021
謚曰	-11.5022
諡曰	-11.5024
振旅	-11.5024
清流	-11.5027
不設	-11.5027
九尺	-11.5027
不辭	-11.5027
地形	-11.5027
石壁	-11.5028
經學	-11.5028
節制	-11.5029
翕然	-11.503
死矣	-11.503
京房	-11.5031
鄭康成	-11.5034
又東	-11.5035
之基	-11.5035
千疋	-11.5037
伐鄭	-11.5038
之誠	-11.5039
君子以	-11.5042
郎將	-11.5044
所貴	-11.5045
文武官	-11.5045
代王	-11.5047
鉗	-11.5049
中出	-11.5049
有似	-11.5051
子思	-11.5052
地勢	-11.5052
駙馬都尉	-11.5053
郡縣丨丨	-11.5053
無數	-11.5053
遂令	-11.5054
咸通	-11.5056
憲章	-11.5057
三十餘	-11.5057
白色	-11.5058
之善	-11.5059
所賜	-11.5061
九章	-11.5061
地下	-11.5063
方岳	-11.5064
知音	-11.5064
致其	-11.5064
吹笛	-11.5065
今者	-11.5066
梁書曰	-11.5066
可知也	-11.5066
胡廣	-11.5066
亾	-11.5069
以代	-11.5069
若干	-11.5069
命婦	-11.507
因謂	-11.5071
公族	-11.5071
魏徵	-11.5072
定制	-11.5073
覊	-11.5073
諌議大夫	-11.5074
公孫述	-11.5075
青州刺史	-11.5076
乗之	-11.5077
者甚衆	-11.5078
十餘日	-11.5081
直上	-11.5084
四川	-11.5084
一斤	-11.5085
衆心	-11.5086
見稱	-11.5089
焉故	-11.509
二十八宿	-11.5091
杜荀鶴	-11.5092
不來	-11.5092
臉	-11.5094
飛燕	-11.5094
馳騁	-11.5095
僖宗	-11.5095
何益	-11.5098
籩豆	-11.5099
世隆	-11.51
至如	-11.51
所不能	-11.5102
宫門	-11.5104
申公	-11.5105
箕子	-11.5107
貢獻	-11.5107
于公	-11.5107
之為言	-11.5107
更為	-11.5109
黼黻	-11.511
颯	-11.5111
相屬	-11.5111
四十八	-11.5112
酉陽	-11.5112
簋	-11.5115
彗	-11.5117
日至	-11.5118
物有	-11.5121
齊書曰	-11.5124
儋	-11.5125
修身	-11.5125
菹	-11.5127
熊羆	-11.5129
時論	-11.5129
魏明帝	-11.5129
善人	-11.5131
諸山	-11.5132
又令	-11.5132
異人	-11.5132
宗廟之	-11.5133
飲水	-11.5139
無得	-11.5143
投壺	-11.5145
飈	-11.5145
不勞	-11.5145
▁韓愈	-11.5146
田園	-11.5146
喫	-11.5149
漁者	-11.5149
縻	-11.5149
饑寒	-11.5149
安期	-11.5149
庚午	-11.5149
竊以	-11.5151
當得	-11.5152
不載	-11.5153
羣芳譜	-11.5153
大中祥符	-11.5155
雨詩	-11.5156
長驅	-11.5157
魏博	-11.5158
入貢	-11.516
瑯琊	-11.5161
北至	-11.5163
西施	-11.5167
瑰	-11.5167
十餘丈	-11.5167
御製	-11.5172
賢士	-11.5173
擢為	-11.5175
意氣	-11.5175
所食	-11.5175
涎	-11.5176
月下	-11.5179
武安	-11.5179
夫子之	-11.5181
春秋時	-11.5182
寺僧	-11.5183
生焉	-11.5186
羅隱	-11.5186
羯	-11.5186
宋王欽若等撰	-11.5189
丁亥	-11.5189
陶𢎞景	-11.519
南詔	-11.5191
扃	-11.5191
曰妾	-11.5193
赤道	-11.5195
信都	-11.5197
七寳	-11.5198
定天下	-11.5198
月夜	-11.5198
増又曰	-11.52
劉表	-11.52
一州	-11.5202
鎰	-11.5203
張祜	-11.5204
子厚	-11.5204
葉似	-11.5204
始祖	-11.5205
百揆	-11.5208
妻之	-11.521
五方	-11.521
昨夜	-11.5212
李咸用	-11.5212
御府	-11.5212
煌煌	-11.5213
乞骸骨	-11.5217
不忠	-11.5221
儉約	-11.5223
人自	-11.5224
皇甫謐	-11.5227
土木	-11.5227
儀同三司	-11.5228
鍾繇	-11.5229
不減	-11.523
鴆	-11.523
纉	-11.523
之寳	-11.5232
崔駰	-11.5233
塡	-11.5233
儆	-11.5233
其黨	-11.5234
傳序	-11.5238
送客	-11.5238
尚書右僕射	-11.5241
忽聞	-11.5243
重於	-11.5244
宫闕	-11.5246
得意	-11.5248
煦	-11.5249
慶之	-11.5249
為此	-11.5249
施之	-11.5249
矣其	-11.525
之戰	-11.5251
海外	-11.5252
屯兵	-11.5254
周禮司	-11.5257
母弟	-11.5257
尚書左丞	-11.5258
伐蜀	-11.5259
衞將軍	-11.5259
明旦	-11.526
財貨	-11.5261
之親	-11.5263
無患	-11.5263
王國	-11.5264
追贈	-11.5266
賜姓	-11.5267
縣西北	-11.5268
致逺	-11.5268
亦復	-11.5268
鯀	-11.5268
三輔黄圖	-11.527
礫	-11.5271
何承天	-11.5271
躬自	-11.5273
光宅	-11.5273
燠	-11.5273
漢官	-11.5273
入關	-11.5276
浮圖	-11.5276
靈運	-11.5276
戎馬	-11.5276
往見	-11.5276
召為	-11.528
南人	-11.5282
過也	-11.5282
莫知所	-11.5283
濮陽	-11.5287
洋洋	-11.5288
一國	-11.5288
禮志	-11.5289
元年二月	-11.529
浙東	-11.5291
虫	-11.5291
百濟	-11.5293
何遜	-11.5294
氈	-11.5295
不實	-11.5296
以興	-11.5298
廬陵	-11.53
廣志曰	-11.53
周勃	-11.5302
欲為	-11.5302
為誰	-11.5303
者猶	-11.5303
絶句	-11.5303
以水	-11.5306
溉田	-11.5309
陸龜䝉	-11.5311
翺翔	-11.5311
我以	-11.5312
謔	-11.5314
之誅	-11.5314
泣曰	-11.5315
卻	-11.5315
宋史藝文志	-11.5316
若能	-11.5317
布政	-11.5318
撫軍	-11.532
而取	-11.5322
文中子	-11.5323
候之	-11.5323
不獨	-11.5323
葉如	-11.5325
一歲	-11.5326
威名	-11.5326
南向	-11.5327
七月七日	-11.5327
相識	-11.5329
跂	-11.533
二十三年	-11.533
禘祫	-11.533
有寵	-11.533
一杯	-11.533
一名丨丨	-11.533
正朔	-11.5332
屛	-11.5332
論道	-11.5333
者可	-11.5334
已後	-11.5334
此為	-11.5339
後復	-11.534
淇	-11.534
然猶	-11.534
賈人	-11.5341
太祝	-11.5343
斷其	-11.5344
小雅	-11.5345
黄鵠	-11.5345
冠帶	-11.5348
瑒	-11.5348
圻	-11.5348
戊午	-11.5349
無知	-11.535
除之	-11.5351
魏收	-11.5351
宣州	-11.5351
又與	-11.5352
天保	-11.5353
耳今	-11.5354
過江	-11.5354
化成	-11.5354
王世充	-11.5355
舉手	-11.5358
歩騎	-11.5358
若水	-11.5363
上公	-11.5363
一郡	-11.5364
有數	-11.5365
治兵	-11.5366
之俗	-11.5366
嗣位	-11.5367
然自	-11.5367
孝亷	-11.5367
無愧	-11.5367
精舍	-11.5368
上見	-11.537
臣僚	-11.537
軍門	-11.5371
之側	-11.5371
六十里	-11.5373
戊申	-11.5374
然有	-11.5374
斟酌	-11.5375
耒耜	-11.5375
誰與	-11.5375
擿	-11.5378
國也	-11.538
石渠	-11.538
夫妻	-11.5381
為散騎常侍	-11.5381
集賢院	-11.5382
之源	-11.5383
義理	-11.5384
唐書百官志	-11.5384
顯慶	-11.5385
霜露	-11.5386
可取	-11.5389
木之	-11.5389
物以	-11.5391
自給	-11.5392
萬六千	-11.5392
湫	-11.5393
鑽	-11.5394
方知	-11.5395
生徒	-11.5395
衆多	-11.5396
録尚書事	-11.5397
宜以	-11.5399
暮春	-11.5399
上士	-11.54
倅	-11.5401
女樂	-11.5402
三事	-11.5403
天意	-11.5404
厯代	-11.5405
二世	-11.5405
滋味	-11.5406
教民	-11.5409
稗	-11.5415
潘尼	-11.5416
故號	-11.5418
百代	-11.5419
不思	-11.542
在地	-11.542
九齡	-11.5422
吏部郎	-11.5428
闔閭	-11.5429
太極殿	-11.543
未詳	-11.5433
内附	-11.5434
㑹昌	-11.5435
能致	-11.5437
為皇太子	-11.5437
入地	-11.5438
若何	-11.5439
都下	-11.5439
朝覲	-11.544
辛巳	-11.5441
赤色	-11.5442
日新	-11.5445
後又	-11.5445
鯤	-11.5447
郎中令	-11.545
席上	-11.5452
之好	-11.5452
唐初	-11.5452
橙	-11.5453
山名	-11.5454
國無	-11.5455
著述	-11.5456
遇害	-11.5457
友善	-11.5458
象牙	-11.5458
嚢	-11.5459
嘉靖	-11.5461
旡	-11.5462
肖	-11.5462
司天	-11.5462
樂毅	-11.5463
於野	-11.5464
此地	-11.5464
時人謂之	-11.5464
山居	-11.5465
尓	-11.5468
在家	-11.5468
為人所	-11.5469
能以	-11.5471
陜州	-11.5471
元年四月	-11.5473
詩見一	-11.5473
使使	-11.5473
瀑	-11.5473
晉文公	-11.5474
仲秋	-11.5474
御前	-11.5476
繚	-11.5476
昭明	-11.5477
稱疾	-11.5478
光輝	-11.5478
如其言	-11.5479
膏腴	-11.548
犒	-11.548
天祐	-11.548
江州刺史	-11.5481
大寒	-11.5482
司冦	-11.5482
尚書僕射	-11.5488
無恙	-11.5489
而笑	-11.5489
帳中	-11.5489
馬蹄	-11.5491
和元年	-11.5491
華州	-11.5493
輔國將軍	-11.5494
兵車	-11.5495
鈐	-11.5495
為五	-11.5496
爍	-11.5497
與李	-11.5498
天中記	-11.55
萬古	-11.5503
傳遷	-11.5503
歸國	-11.5503
餘慶	-11.5504
宋史輿服志	-11.5505
新野	-11.5506
遷都	-11.5506
不到	-11.5506
賊衆	-11.5507
義士	-11.5508
元忠	-11.5508
廣雅曰	-11.5509
將何	-11.551
袁宏	-11.5511
牀下	-11.5512
不負	-11.5512
劾奏	-11.5512
後代	-11.5513
之以為	-11.5513
焉又曰	-11.5514
讙	-11.5515
一部	-11.5515
畫地	-11.5517
宗子	-11.5517
澀	-11.552
經筵	-11.552
琅玕	-11.552
野王	-11.552
屬縣	-11.5521
不定	-11.5522
雅頌	-11.5523
列國	-11.5526
執之	-11.5527
書院	-11.5527
顔回	-11.5528
不經	-11.5529
長大	-11.5533
在坐	-11.5535
春秋繁露	-11.5536
沴	-11.5537
曲水	-11.5537
淤	-11.5538
靳	-11.5538
輔國	-11.5538
太子詹事	-11.5538
夀春	-11.554
簡易	-11.554
莅	-11.554
李端	-11.5542
所藏	-11.5543
為大將軍	-11.5543
入秦	-11.5543
十分	-11.5544
奉法	-11.5544
西京雜記曰	-11.5544
之良	-11.5549
蘭陵	-11.555
一頭	-11.555
發明	-11.5551
于河	-11.5554
下流	-11.5556
此所以	-11.5557
民皆	-11.5558
中庭	-11.556
刑部尚書	-11.5561
陳琳	-11.5561
連山	-11.5563
宋史河渠志	-11.5563
政教	-11.5564
元鼎	-11.5564
不盈	-11.5564
林鍾	-11.5566
乎此	-11.5566
韻會	-11.5568
百物	-11.557
之陽	-11.5571
為之語曰	-11.5571
並有	-11.5571
行部	-11.5573
名號	-11.5574
▁下	-11.5575
抱朴子外	-11.5577
劉琨	-11.5578
張騫	-11.5578
瘁	-11.5578
晉卿	-11.5578
辭以	-11.5579
字長	-11.5579
馬歩	-11.558
從征	-11.5581
領兵	-11.5581
指揮使	-11.5582
諛	-11.5582
九疑	-11.5584
籜	-11.5586
獄吏	-11.5586
一斛	-11.5587
國士	-11.5587
諸縣	-11.5588
大衍	-11.5592
不少	-11.5592
而用	-11.5593
無雙	-11.5596
萬一	-11.5596
渺	-11.5596
洪水	-11.5597
曹掾	-11.5597
三門	-11.5598
纁	-11.5599
五侯	-11.56
鯉魚	-11.5602
澮	-11.5605
魏軍	-11.5606
者與	-11.5608
二十二年	-11.5608
古有	-11.561
上客	-11.5611
天降	-11.5611
端午	-11.5612
周穆王	-11.5615
炯	-11.5616
葬之	-11.5617
南嶽	-11.5617
孔叢子	-11.5623
亦如	-11.5625
之機	-11.5625
風化	-11.5626
三十人	-11.5627
大畧	-11.5628
親自	-11.5628
青天	-11.563
制也	-11.563
皆從	-11.563
中秋	-11.5632
鄧艾	-11.5632
實有	-11.5634
無怨	-11.5635
無主	-11.5635
如此者	-11.5636
之最	-11.5637
如人	-11.5637
嵗餘	-11.5638
升堂	-11.564
此三	-11.5642
蘓軾	-11.5642
為先	-11.5643
甃	-11.5643
媵	-11.5644
琯	-11.5645
培	-11.5645
一疋	-11.5646
唐明皇	-11.5646
一大	-11.5646
數嵗	-11.5648
官職	-11.5648
行在	-11.5648
丁未	-11.5649
天禧	-11.565
泠	-11.5652
千五百	-11.5652
同知	-11.5655
中書郎	-11.5657
侍者	-11.5657
列宿	-11.5658
存者	-11.5659
衡陽	-11.5661
懼而	-11.5661
一小	-11.5661
汭	-11.5662
樂安	-11.5662
三川	-11.5662
唐六典	-11.5663
老而	-11.5664
之宗	-11.5664
親征	-11.5664
林中	-11.5665
法駕	-11.5665
博物志曰	-11.5665
纘	-11.5666
貞元中	-11.5667
聫	-11.5667
教以	-11.5668
辛丑	-11.5669
巴陵	-11.5669
江北	-11.5669
而更	-11.5669
盛德	-11.5669
石季龍	-11.5671
奉朝請	-11.5673
毆	-11.5673
何物	-11.5675
其前	-11.5676
第八	-11.5678
知有	-11.5679
見天	-11.568
封爵	-11.5683
詩風	-11.5683
鷓鴣	-11.5683
曰予	-11.5684
日照	-11.5684
士女	-11.5685
怙	-11.5685
悚	-11.5686
尚未	-11.5688
枹	-11.5688
盛夏	-11.5688
醫藥	-11.5688
辛未	-11.5688
勇力	-11.5689
興師	-11.5689
家事	-11.5693
大吕	-11.5695
為太傅	-11.5695
一升	-11.5697
尺餘	-11.5698
女也	-11.5699
家家	-11.5699
蜘蛛	-11.5699
良史	-11.5699
四皓	-11.5699
犬馬	-11.5699
立碑	-11.5701
縣東南	-11.5701
山寺	-11.5703
癭	-11.5703
孟夏	-11.5703
華林園	-11.5704
後果	-11.5706
些	-11.5706
三載	-11.5707
不反	-11.5708
曰先生	-11.5708
蹟	-11.5708
父為	-11.5709
不道	-11.5709
而殺之	-11.5709
死也	-11.5711
掌邦	-11.5711
其口	-11.5712
東晉	-11.5713
諸曹	-11.5716
武平	-11.5717
俗謂之	-11.5717
陸賈	-11.5717
能知	-11.5721
驄	-11.5721
存乎	-11.5724
者吾	-11.5724
四年詔	-11.5725
吕后	-11.5725
丙午	-11.5726
帚	-11.5726
兀	-11.5726
繡衣	-11.5727
之母	-11.5727
璿	-11.5728
卿相	-11.5728
高帝	-11.573
州城	-11.573
工人	-11.5732
論語曰	-11.5733
仁人	-11.5734
者悉	-11.5738
列女傳	-11.5739
菩提	-11.5739
崔浩	-11.5739
騾	-11.574
黄門郎	-11.574
樞密	-11.5742
故舊	-11.5742
鮒	-11.5743
奏言	-11.5744
應劭	-11.5745
帝時	-11.5746
逶迤	-11.5747
禊	-11.5748
巍巍	-11.575
臺省	-11.575
文粹	-11.5751
以清	-11.5752
晉中興書曰	-11.5752
鐘磬	-11.5752
廷珪	-11.5754
下筆	-11.5755
道術	-11.5756
周文王	-11.5756
優游	-11.5758
為大司馬	-11.576
之境	-11.576
丘陵	-11.5764
箔	-11.5768
巘	-11.577
梭	-11.577
成湯	-11.577
子由	-11.5771
澁	-11.5771
翬	-11.5771
蒨	-11.5771
綉	-11.5771
孟冬	-11.5774
净	-11.5774
縣人	-11.5777
造父	-11.5778
萬二千	-11.5778
成帝時	-11.5779
師事	-11.578
紫色	-11.5782
凡所	-11.5782
而輕	-11.5782
欽若	-11.5782
留意	-11.5783
萬八千	-11.5783
椹	-11.5784
不煩	-11.5785
不令	-11.5785
伯樂	-11.5786
於江	-11.5787
枳	-11.5788
衛士	-11.5789
於諸侯	-11.579
諜	-11.5791
伋	-11.5791
佛法	-11.5792
袁桷	-11.5793
東川	-11.5794
鎗	-11.5794
盻	-11.5795
筴	-11.5796
挑戰	-11.5797
驍勇	-11.5797
岷山	-11.5798
大禹	-11.5798
之美者	-11.5798
我我	-11.5801
狀元	-11.5802
羽儀	-11.5802
令其	-11.5803
御書	-11.5803
博通	-11.5803
左右曰	-11.5804
坐客	-11.5806
詳定	-11.5807
九人	-11.5807
將行	-11.5807
曰秦	-11.5808
有龍	-11.5809
開封府	-11.581
睨	-11.581
之功也	-11.5811
籖	-11.5812
降者	-11.5814
尊者	-11.5814
橈	-11.5815
公府	-11.5817
朝賀	-11.5817
身自	-11.5817
中國之	-11.5819
所舉	-11.5821
義興	-11.5822
夏官	-11.5822
三才	-11.5823
符瑞	-11.5828
春詩	-11.583
五行之	-11.583
蜚	-11.5831
三家	-11.5832
仁也	-11.5835
旗幟	-11.5838
石城	-11.5838
義方	-11.5839
命曰	-11.584
翰林院	-11.5841
髙第	-11.5841
財賦	-11.5842
天生	-11.5843
風月	-11.5844
崇寧	-11.5845
定國	-11.5849
瀘	-11.5851
不還	-11.5851
二十八年	-11.5852
哥	-11.5852
洞冥記	-11.5853
帳下	-11.5853
經略	-11.5853
圖曰	-11.5853
制置	-11.5853
張載	-11.5854
潞州	-11.5854
聲名	-11.5854
曰不可	-11.5855
以威	-11.5855
既無	-11.5855
懌	-11.5856
朕以	-11.5856
只是	-11.5858
壽春	-11.5858
二十餘年	-11.5858
少尹	-11.5859
筦	-11.5862
與天地	-11.5863
以丨丨丨	-11.5863
二縣	-11.5863
光彩	-11.5863
之辰	-11.5864
左將軍	-11.5865
林寺	-11.5866
儒生	-11.5868
袋	-11.5871
摽	-11.5872
者宜	-11.5872
穆天子傳	-11.5873
郯	-11.5873
辛亥	-11.5875
王旦	-11.5876
漢時	-11.5876
大火	-11.5877
拉	-11.5877
虀	-11.5878
屬文	-11.5879
百斛	-11.588
開丨丨	-11.5881
今世	-11.5882
改容	-11.5882
已死	-11.5882
少者	-11.5883
居民	-11.5883
漢世	-11.5885
尊師	-11.5888
經綸	-11.589
實封	-11.5892
乗車	-11.5895
橘柚	-11.5895
盛衰	-11.5896
貿	-11.5896
老夫	-11.5896
錬	-11.5898
闚	-11.59
之曰此	-11.5901
連理	-11.5902
砧	-11.5902
朝議	-11.5902
回紇	-11.5902
意欲	-11.5903
酎	-11.5903
姊妹	-11.5904
顔師古	-11.5905
二十七年	-11.5905
其内	-11.5906
於南	-11.5908
獨行	-11.5908
夷簡	-11.5909
輔臣	-11.591
恒山	-11.591
否則	-11.5911
三千里	-11.5912
亡者	-11.5914
河南府	-11.5914
一本	-11.5919
洛書	-11.592
餼	-11.592
旛	-11.5921
兩浙	-11.5921
帝欲	-11.5921
濟隂	-11.5922
廟碑	-11.5923
蔭	-11.5924
欲立	-11.5925
賢才	-11.5925
不順	-11.5925
家世	-11.5925
莞	-11.5928
有黄	-11.5929
為翰林學士	-11.5929
孝悌	-11.593
湖中	-11.593
楚師	-11.593
杜陵	-11.5931
不聴	-11.5932
至於此	-11.5932
兖州刺史	-11.5935
春草	-11.5937
李羣玉	-11.5937
大魚	-11.5938
晡	-11.594
滄浪	-11.594
有識	-11.5941
風土記	-11.5941
驃騎大將軍	-11.5942
心也	-11.5942
蔡州	-11.5944
流行	-11.5948
隋書禮儀志	-11.5948
下大夫	-11.5949
鈕	-11.595
語云	-11.5951
制作	-11.5954
北風	-11.5957
禺	-11.5959
而心	-11.5959
亦宜	-11.596
為正	-11.5962
事親	-11.5965
羣下	-11.5965
檝	-11.5968
俄頃	-11.597
紫雲	-11.5971
之臺	-11.5971
諍	-11.5973
車師	-11.5978
未央宫	-11.5979
西郊	-11.5981
後園	-11.5983
之規	-11.5983
誑	-11.5984
由來	-11.5984
溷	-11.5984
其皮	-11.5985
琚	-11.5985
正殿	-11.5986
糗	-11.5987
嘗於	-11.5987
撿	-11.5987
凡此	-11.599
創業	-11.599
㕓	-11.5991
五嵗	-11.5991
八千	-11.5992
南安	-11.5992
方圓	-11.5993
西伯	-11.5995
一經	-11.5997
潤州	-11.5998
理也	-11.5998
於魯	-11.5999
釋氏	-11.6
為三公	-11.6001
也君	-11.6004
之政令	-11.6005
壬午	-11.6005
北京	-11.6007
國學	-11.6007
與俱	-11.6009
西平	-11.601
紓	-11.601
雜詩	-11.6011
其室	-11.6011
徐夤	-11.6011
入闗	-11.6013
摯虞	-11.6014
十疋	-11.6014
手自	-11.6016
金門	-11.6016
涿郡	-11.6016
無乃	-11.6016
無間	-11.6017
衆軍	-11.6017
如飛	-11.602
虞卿	-11.602
之榮	-11.602
扈從	-11.6022
四海之	-11.6022
魏郡	-11.6023
長二尺	-11.6023
所取	-11.6024
陸㳺	-11.6024
南國	-11.6025
殉	-11.6025
硬	-11.6026
繅	-11.6026
先鋒	-11.6029
故老	-11.6029
爕	-11.6031
荀朂	-11.6031
者各	-11.6032
忘其	-11.6032
之智	-11.6034
圖籍	-11.6036
地震	-11.6036
之力也	-11.6039
使天下	-11.604
也是	-11.604
數萬人	-11.6042
以此為	-11.6042
人能	-11.6042
為二	-11.6045
一隻	-11.6045
大興	-11.6045
自投	-11.6048
▁陳	-11.6048
瓮	-11.6049
以父	-11.605
兌	-11.6051
道家	-11.6052
吕覽	-11.6052
姑蘇	-11.6052
鞬	-11.6052
者死	-11.6052
吾欲	-11.6054
我有	-11.6055
難也	-11.6055
琇	-11.6055
不齊	-11.6058
行路	-11.6059
唐書禮樂志	-11.6059
蕭望之	-11.6062
正言	-11.6063
長而	-11.6067
相次	-11.6068
離宫	-11.6068
岱宗	-11.6068
玉帶	-11.6068
郡吏	-11.607
鴞	-11.607
勒兵	-11.6072
白帖	-11.6072
死後	-11.6072
至乃	-11.6072
▁南史	-11.6075
令長	-11.6075
醋	-11.6075
揚州刺史	-11.6077
繖	-11.6079
卿為	-11.608
老翁	-11.608
鼔吹	-11.608
名儒	-11.608
松江	-11.6081
異記	-11.6082
而實	-11.6084
為丨丨丨	-11.6084
大學士	-11.6086
餘人	-11.6088
百草	-11.6088
長八尺	-11.6089
千八百	-11.6091
分其	-11.6092
抱朴	-11.6093
去後	-11.6093
氓	-11.6096
故言	-11.6096
酉陽雜爼	-11.6096
雲起	-11.6097
搗	-11.6099
瑞應	-11.6101
褘	-11.6101
朕意	-11.6101
屬國	-11.6103
徐鉉	-11.6103
俗呼	-11.6105
應聲	-11.6106
縣西南	-11.6107
居人	-11.6109
中州	-11.611
今乃	-11.6113
安縣	-11.6114
暐	-11.6114
善於	-11.6114
譟	-11.6114
百步	-11.6114
渦	-11.6114
兆民	-11.6116
嶺表	-11.6116
闍	-11.6116
瀛洲	-11.6117
生靈	-11.6117
臺上	-11.6119
璆	-11.612
刑法志	-11.6122
閣下	-11.6123
以南	-11.6124
下第	-11.6125
前日	-11.6127
乎哉	-11.6128
之質	-11.6128
夷吾	-11.6129
四足	-11.613
億萬	-11.6132
平陵	-11.6132
旣而	-11.6132
隨風	-11.6134
齊景公	-11.6134
涇原	-11.6135
無限	-11.6135
平定	-11.6135
既有	-11.6136
開花	-11.6136
即時	-11.6136
樂正	-11.6136
李元	-11.6136
丨丨花	-11.6136
居官	-11.6138
賈充	-11.6139
顔子	-11.6139
萬歲	-11.6139
辛苦	-11.6139
九錫	-11.6139
宫詞	-11.614
冽	-11.6141
天漢	-11.6142
其說	-11.6142
親故	-11.6143
䛕	-11.6143
解衣	-11.6146
雖多	-11.6148
並以	-11.6149
進軍	-11.615
之過	-11.6151
司勲	-11.6151
親近	-11.6153
元吉	-11.6154
事畢	-11.6154
史記天官書	-11.6158
莫大於	-11.6158
目為	-11.6158
以勸	-11.6159
以為然	-11.616
遑	-11.616
飜	-11.6161
帝御	-11.6161
中心	-11.6164
氣之	-11.6166
祖宗之	-11.6166
六代	-11.6167
鎮州	-11.6167
北宫	-11.6167
張禹	-11.6167
臨終	-11.617
三十七	-11.617
美之	-11.617
不得入	-11.617
身死	-11.617
别傳曰	-11.6174
尚書曰	-11.6176
無疑	-11.6178
古制	-11.6178
郝經	-11.6181
騎兵	-11.6181
秘閣	-11.6181
未㡬	-11.6182
自安	-11.6182
言我	-11.6183
列子曰	-11.6183
非是	-11.6184
輕車	-11.6185
鵲巢	-11.6185
水仙	-11.6186
曰丨丨丨丨	-11.6187
而失	-11.6188
博覽	-11.6191
羣后	-11.6193
無已	-11.6193
老弱	-11.6194
揖讓	-11.6194
異苑	-11.6196
皆以為	-11.6196
眸	-11.6196
蔡京	-11.6197
姓苑	-11.6197
統軍	-11.6198
將死	-11.6198
水又東	-11.6199
為左右	-11.62
壬寅	-11.62
魅	-11.6201
討賊	-11.6201
有變	-11.6201
今天下	-11.6204
置左右	-11.6205
撝	-11.6207
洙	-11.6207
漉	-11.6208
臨事	-11.6209
人得	-11.6209
元元	-11.6211
王業	-11.6213
與賊	-11.6213
鮑叔	-11.6215
倐	-11.6216
温嶠	-11.6216
參知政事	-11.6219
方伯	-11.622
得其人	-11.622
七寸	-11.6221
衆庶	-11.6222
賢而	-11.6226
憇	-11.6227
校獵	-11.6227
朝官	-11.6228
景福	-11.6228
囀	-11.6228
小學紺珠丨丨	-11.6229
㑹於	-11.6229
艇	-11.6229
窄	-11.623
歌詩	-11.623
功德	-11.6232
張喬	-11.6232
一百五十	-11.6232
甚於	-11.6232
滄州	-11.6233
無辜	-11.6234
官品	-11.6234
糠	-11.6235
之兆	-11.6238
天福	-11.6238
今夫	-11.6242
載之	-11.6245
呉郡	-11.6246
之族	-11.6249
詩山	-11.6249
明也	-11.625
惱	-11.6252
御者	-11.6252
四部	-11.6252
撒	-11.6254
穂	-11.6254
右丞	-11.6254
呉志	-11.6254
已前	-11.6255
九鼎	-11.6256
泣下	-11.6256
尺二寸	-11.6256
天心	-11.6257
亦能	-11.6258
甘棠	-11.6258
復來	-11.626
檀弓	-11.6261
過此	-11.6262
文思	-11.6262
欲殺之	-11.6263
和帝	-11.6264
今古	-11.6264
惠公	-11.6266
原隰	-11.6266
梁山	-11.6267
元和中	-11.6268
本司	-11.627
則不能	-11.627
也雖	-11.627
内官	-11.627
而獨	-11.6271
袵	-11.6271
若今	-11.6271
已定	-11.6271
琅琊	-11.6272
扶南	-11.6273
俚	-11.6274
軍至	-11.6274
食肉	-11.6275
有若	-11.6276
三山	-11.6278
何在	-11.6278
靈芝	-11.628
其死	-11.628
四十餘	-11.6281
德之	-11.6281
甲申	-11.6285
西都	-11.6285
兵器	-11.6286
梅堯臣詩	-11.6287
累世	-11.6289
詰之	-11.6292
斬其	-11.6294
虯	-11.6295
尋常	-11.6297
曦	-11.6297
顔淵	-11.6298
閟	-11.6299
思慮	-11.63
仲文	-11.63
為氏	-11.63
相親	-11.63
始為	-11.63
其私	-11.6302
三十四	-11.6303
少師	-11.6306
禁軍	-11.6309
不滅	-11.631
五子	-11.6312
王昌齡	-11.6313
方鎮	-11.6314
有隙	-11.6314
嘗聞	-11.6315
絰	-11.6315
可作	-11.6316
王濬	-11.6316
銑	-11.6317
驃	-11.6318
百七十	-11.6318
櫝	-11.6318
揀	-11.6319
多事	-11.632
鏘	-11.632
馳道	-11.6323
詩雲	-11.6324
當作	-11.6325
負薪	-11.6326
真定	-11.6327
西南夷	-11.6327
司業	-11.6327
晉書王	-11.6328
不遷	-11.6329
之珍	-11.633
傷人	-11.6331
自隨	-11.6331
侯王	-11.6332
獨有	-11.6332
請為	-11.6332
千丈	-11.6333
以下皆	-11.6333
李公	-11.6333
利也	-11.6335
以立	-11.6336
分兵	-11.6337
𦂳	-11.6338
蝦蟇	-11.6338
以玉	-11.6338
壝	-11.6339
在北	-11.634
荀卿	-11.634
漣	-11.634
計之	-11.6344
漢兵	-11.6345
法者	-11.6346
共工	-11.6348
太中大夫	-11.6349
漢文	-11.6349
以佐	-11.635
縉	-11.6353
音義	-11.6353
獄中	-11.6356
仁夀	-11.6356
鄉黨	-11.6356
之效	-11.6356
十匹	-11.6356
臣願	-11.6356
安禄山	-11.6357
王仲	-11.6357
戊寅	-11.6358
報之	-11.6358
千里之	-11.636
二百四十	-11.636
䑛	-11.6361
賽	-11.6362
其類	-11.6362
不撓	-11.6363
波斯	-11.6363
儷	-11.6363
竊見	-11.6365
軋	-11.6366
瑪瑙	-11.6368
交易	-11.6368
謡曰	-11.637
宗祀	-11.6371
龍朔	-11.6371
庠序	-11.6371
問何	-11.6372
上封事	-11.6373
騎士	-11.6374
禁止	-11.6374
滅之	-11.6375
仍舊	-11.6377
李綱	-11.6377
其手	-11.6378
自天	-11.6382
歧	-11.6382
穽	-11.6384
曰宋	-11.6384
文詞	-11.6387
歿	-11.6387
魔	-11.6388
者若	-11.6388
画	-11.6388
繢	-11.6389
▁唐	-11.6391
碑銘	-11.6399
院詩	-11.64
西州	-11.6403
效之	-11.6403
不降	-11.6404
號泣	-11.6405
每見	-11.6405
雲霞	-11.6406
望詩	-11.6407
留之	-11.6407
臣愚	-11.6407
馬周	-11.6411
鍜	-11.6411
粢盛	-11.6411
餘皆	-11.6411
好事者	-11.6412
謩	-11.6412
鮮于	-11.6413
曰君子	-11.6414
為荆州刺史	-11.6414
景陽	-11.6414
越州	-11.6414
聖德	-11.6415
予之	-11.6415
州有	-11.6417
奉和聖製	-11.6417
風至	-11.6418
汝等	-11.6418
所行	-11.6418
孔光	-11.6419
一面	-11.6419
四十二	-11.642
而多	-11.642
楊柳	-11.6422
風生	-11.6422
願以	-11.6422
每日	-11.6424
太𤣥經	-11.6424
而不見	-11.6425
士也	-11.6426
坐而	-11.6427
匕	-11.6428
温公	-11.6429
悝	-11.6429
不恤	-11.643
▁劉禹錫	-11.643
天錫	-11.6431
李吉甫	-11.6433
民不	-11.6434
屹	-11.6434
别為	-11.6438
久而	-11.6438
兮丨丨	-11.6439
項籍	-11.6439
市人	-11.644
過失	-11.6442
齊有	-11.6443
為賊所	-11.6444
主事	-11.6445
増置	-11.6445
年春正月	-11.6445
雲陽	-11.6446
勞苦	-11.6446
登城	-11.6446
動静	-11.6447
乗勝	-11.6448
李頎	-11.6449
於南郊	-11.645
剋	-11.6452
千乘	-11.6453
范雲	-11.6454
悛	-11.6455
既已	-11.6455
諸葛恪	-11.6456
淘	-11.6456
制禮	-11.6458
網羅	-11.6459
王宫	-11.6459
林宗	-11.6461
赤烏	-11.6461
華林	-11.6462
民以	-11.6462
崑山	-11.6463
以小	-11.6464
登歌	-11.6465
而哭	-11.6465
帑	-11.6466
乃更	-11.6467
之姿	-11.647
許昌	-11.6471
湘東王	-11.6474
汨	-11.6474
纍	-11.6475
文德	-11.6475
睇	-11.6476
三升	-11.6477
五分	-11.6478
别置	-11.6478
騎射	-11.6479
姝	-11.648
也故曰	-11.648
盛於	-11.648
白雀	-11.648
將吏	-11.6482
渾天	-11.6482
其葉	-11.6482
之冠	-11.6484
蛾眉	-11.6484
秉政	-11.6484
于上	-11.6485
佛寺	-11.6487
黄老	-11.6487
天河	-11.6488
學之	-11.6488
東征	-11.6489
西陵	-11.649
吞之	-11.6492
乎夫	-11.6493
以疾	-11.6493
毘	-11.6495
以廣	-11.6496
陳後主	-11.6497
樓賦	-11.6498
鞶	-11.6498
治中	-11.6499
肄	-11.6499
神光	-11.65
顧問	-11.6501
▁杜牧	-11.6503
翰墨	-11.6505
六宫	-11.6508
古今姓纂	-11.6508
法制	-11.6509
四世	-11.6509
蘇子	-11.6511
國政	-11.6511
餓死	-11.6512
九州之	-11.6514
入則	-11.6515
武將軍	-11.6515
有德	-11.6515
以知	-11.6521
師曰	-11.6521
北辰	-11.6521
非徒	-11.6521
充國	-11.6522
庚寅	-11.6522
得名	-11.6523
死人	-11.6523
肌膚	-11.6524
擊破之	-11.6527
色黄	-11.6528
君子不	-11.6529
馬燧	-11.6529
累日	-11.6531
瞳	-11.6533
建徳	-11.6534
吴王	-11.6534
其故	-11.6536
主司	-11.6537
形體	-11.654
黄花	-11.6541
明於	-11.6542
聲也	-11.6543
相從	-11.6544
必須	-11.6544
女媧	-11.6545
官者	-11.6549
張仲	-11.6549
秫	-11.655
十歩	-11.655
鐺	-11.655
竇憲	-11.6552
聲如	-11.6552
太學博士	-11.6554
桂樹	-11.6554
藩鎮	-11.6555
斯文	-11.6556
大象	-11.6557
魚龍	-11.6557
之意也	-11.6557
為世	-11.6558
尚在	-11.656
坐事	-11.6561
風動	-11.6561
承明	-11.6562
三十日	-11.6564
曹參	-11.6564
于朝	-11.6565
君有	-11.6565
滓	-11.6566
鱣	-11.6566
淮水	-11.6567
孤竹	-11.6568
聰敏	-11.6571
髙樓	-11.6572
出處	-11.6574
其美	-11.6574
大樹	-11.6575
名譽	-11.6575
葡萄	-11.6577
餘杭	-11.6579
宗人	-11.6579
之戒	-11.6579
賦丨	-11.6584
西向	-11.6585
麈尾	-11.6585
竹詩	-11.6586
單父	-11.6587
荇	-11.6588
本草丨丨	-11.6589
媯	-11.6589
不憂	-11.6589
隈	-11.659
秦伯	-11.6592
朝野僉載	-11.6593
椘	-11.6594
湮	-11.6595
地官	-11.6595
佐命	-11.6596
不失其	-11.6596
不才	-11.6598
莫非	-11.6599
賜宴	-11.66
凡人	-11.6601
終南山	-11.6601
誰家	-11.6602
自此始	-11.6602
者蓋	-11.6604
唐書李	-11.6605
成也	-11.6607
埋之	-11.6609
漢唐	-11.6611
待罪	-11.6612
湏臾	-11.6612
幸得	-11.6613
武皇帝	-11.6613
戊辰	-11.6616
凉風	-11.6616
鄭元	-11.6618
棄其	-11.6619
晉公	-11.6619
顔真卿	-11.662
花木	-11.662
亡也	-11.662
昌言	-11.662
以祀	-11.6621
其節	-11.6624
徽之	-11.6624
則生	-11.6625
地道	-11.6625
良田	-11.6626
稱臣	-11.6627
年十四	-11.6627
又言	-11.6629
心如	-11.6631
掾屬	-11.6633
棟梁	-11.6634
盤龍	-11.6634
民心	-11.6636
棄市	-11.6636
以降	-11.6636
正人	-11.6637
應時	-11.6639
有節	-11.664
堙	-11.664
而就	-11.664
不著	-11.664
先師	-11.6641
之深	-11.6641
守節	-11.6642
建言	-11.6643
疏云	-11.6643
王起	-11.6644
之積	-11.6646
知也	-11.6646
次于	-11.6647
以木	-11.6647
澳	-11.6647
同中書門下平章事	-11.6648
所屬	-11.6649
趙嘏	-11.665
退之	-11.6652
魏人	-11.6656
丨丨之丨丨	-11.6656
朏	-11.6657
鼙	-11.6657
其末	-11.6657
明光	-11.6658
濩	-11.6659
鄭國	-11.666
敢言	-11.666
郡有	-11.6662
蛻	-11.6663
而歎曰	-11.6663
𧖟	-11.6663
今已	-11.6664
宜春	-11.6664
立法	-11.6664
樞機	-11.6665
谷口	-11.6666
文采	-11.6666
今有	-11.6667
出焉	-11.6668
矢石	-11.6669
己巳	-11.667
乎若	-11.6671
規模	-11.6672
爾其	-11.6672
生男	-11.6674
十洲記	-11.6675
文獻	-11.6676
死之	-11.6677
罟	-11.6678
固已	-11.6682
騎馬	-11.6683
膠東	-11.6685
鞮	-11.6685
多寡	-11.6685
㤀	-11.6687
秤	-11.6689
襄城	-11.6689
皆稱	-11.6693
髙允	-11.6693
淳熙	-11.6695
興國	-11.6696
承慶	-11.6697
蒼頭	-11.6698
來獻	-11.6699
也漢	-11.6703
唐末	-11.6705
以鐵	-11.6706
大辟	-11.6706
明鏡	-11.6706
不聼	-11.6707
厓	-11.6707
山之陽	-11.6707
二年四月	-11.6708
不擇	-11.6708
大潰	-11.6708
叠	-11.6709
新聲	-11.6709
疾苦	-11.6709
舍利	-11.6709
尊號	-11.671
二十四年	-11.6711
一道	-11.6712
賻	-11.6712
長孫無忌	-11.6713
東宮	-11.6713
文雅	-11.6714
仲尼曰	-11.6719
無敵	-11.6721
渭橋	-11.6722
類也	-11.6723
序云	-11.6724
實錄	-11.6725
太室	-11.6725
改作	-11.6726
貓	-11.6728
藝文	-11.6729
本道	-11.6729
峒	-11.673
行義	-11.673
之貴	-11.673
老子曰	-11.6731
娑	-11.6732
洹	-11.6733
癖	-11.6733
提刑	-11.6735
元年三月	-11.6736
劉禹	-11.6736
於明堂	-11.6737
盧仝	-11.6737
無射	-11.674
丙子	-11.674
玉清	-11.6741
白居	-11.6742
不交	-11.6743
各有所	-11.6743
黄巾	-11.6744
黄滔	-11.6744
赴闕	-11.6746
正也	-11.6746
知政事	-11.6747
萬斛	-11.6747
親屬	-11.6747
榮之	-11.6749
中有一	-11.6749
民多	-11.6751
如流	-11.6753
時節	-11.6754
筩	-11.6756
呉人	-11.6757
甲戌	-11.6758
堕	-11.6759
知州	-11.6759
無忘	-11.676
歸于	-11.676
萬歳	-11.6763
令公	-11.6764
短長	-11.6765
四角	-11.6765
大中大夫	-11.6766
其始	-11.6767
重光	-11.6768
從子	-11.6768
波濤	-11.6768
敝邑	-11.677
陽令	-11.6772
槿	-11.6773
崑崙山	-11.6773
少室	-11.6775
田疇	-11.6775
縣東北	-11.6776
縵	-11.6778
孳	-11.6778
禍亂	-11.6779
淒	-11.678
浩浩	-11.6782
今在	-11.6783
非獨	-11.6784
豈敢	-11.6784
碾	-11.6785
相生	-11.6785
有意	-11.6787
一發	-11.6788
之𩔖	-11.6789
晉宋	-11.6789
之華	-11.6789
帝意	-11.6793
秦官	-11.6793
中立	-11.6794
以表	-11.6798
左拾遺	-11.6801
莱	-11.6803
武皇	-11.6803
妣	-11.6803
睫	-11.6803
爇	-11.6804
欲去	-11.6806
避難	-11.6808
異時	-11.6808
大定	-11.6808
上書曰	-11.6809
伏惟陛下	-11.6811
達於	-11.6811
五雲	-11.6812
成於	-11.6813
太妃	-11.6813
雜俎	-11.6814
召對	-11.6814
給之	-11.6815
孝行	-11.6818
獲罪	-11.6818
以為不可	-11.6819
彎	-11.6819
茅山	-11.682
五十餘	-11.6821
荔支	-11.6822
絶倫	-11.6823
蓐	-11.6823
州别駕	-11.6823
跌	-11.6824
六曹	-11.6825
蕨	-11.6826
諲	-11.6827
壠	-11.6828
說苑曰	-11.6828
貢士	-11.6829
雲門	-11.6829
聞君	-11.6829
五彩	-11.6831
何曽	-11.6832
經過	-11.6833
大衆	-11.6833
神器	-11.6837
大懼	-11.6838
褒貶	-11.6839
利用	-11.6841
戒之	-11.6843
牧馬	-11.6843
宗社	-11.6844
酒肉	-11.6844
衞尉	-11.6845
使至	-11.6845
之責	-11.6845
中朝	-11.6845
暴雨	-11.6846
租賦	-11.6847
蜺	-11.6847
必無	-11.6848
冤	-11.6849
棒	-11.6852
老病	-11.6852
南門	-11.6853
免於	-11.6853
常為	-11.6853
許由	-11.6853
賜錢	-11.6857
藝文志	-11.6858
廣州刺史	-11.6858
期於	-11.6859
動則	-11.6861
北人	-11.6861
合肥	-11.6861
樞密院	-11.6862
藏書	-11.6862
採藥	-11.6862
白鷺	-11.6867
比於	-11.6868
子敬	-11.6872
疽	-11.6873
文子曰	-11.6873
朕甚	-11.6873
中郎将	-11.6874
𣲖	-11.6874
淳于髠	-11.6874
呼吸	-11.6874
闞	-11.6874
今朝	-11.6874
建章	-11.6876
言行	-11.6877
戊子	-11.6877
文君	-11.6878
姦邪	-11.6878
癸亥	-11.6878
異苑曰	-11.6879
廚	-11.6881
黄白	-11.6881
積薪	-11.6881
血氣	-11.6882
徭役	-11.6883
供奉官	-11.6884
九里	-11.6884
日夕	-11.6884
元景	-11.6887
以資	-11.6889
皆自	-11.6892
畿内	-11.6893
王叔	-11.6894
大都	-11.6896
山髙	-11.6896
振武	-11.6897
祠部	-11.6897
䂓	-11.6898
者盖	-11.6899
甲士	-11.6899
一女	-11.69
㑹同	-11.6901
之策	-11.6901
䙝	-11.6901
曹唐	-11.6903
盡矣	-11.6903
魏略曰	-11.6903
欽明	-11.6904
皆無	-11.6904
之福	-11.6905
自當	-11.6906
禁之	-11.6907
建武中	-11.6909
期而	-11.691
武城	-11.691
通作	-11.691
討論	-11.6912
國史補	-11.6913
玉門	-11.6916
上郡	-11.6916
注謂	-11.6917
伯父	-11.6918
公權	-11.6918
一官	-11.692
燋	-11.6922
望氣	-11.6922
乾徳	-11.6922
靚	-11.6923
盧照鄰	-11.6924
周禮考工記	-11.6924
長鳴	-11.6924
豨	-11.6925
奏樂	-11.6925
漢紀	-11.6925
燕雀	-11.6928
出鎮	-11.6928
引軍	-11.6931
圍之	-11.6932
物而	-11.6933
積雪	-11.6933
無言	-11.6933
招討使	-11.6935
而相	-11.6935
平城	-11.6938
以西	-11.6938
道中詩	-11.6939
厲王	-11.6943
而不用	-11.6943
各異	-11.6944
地祗	-11.6945
在東宫	-11.6945
葆	-11.6946
墮地	-11.6947
㑹稽太守	-11.6947
横行	-11.6947
報曰	-11.6947
成公綏	-11.6947
在我	-11.6948
殳	-11.6948
診	-11.6948
篠	-11.6949
禹錫	-11.6951
新語	-11.6952
戰敗	-11.6952
果得	-11.6952
名位	-11.6953
孜孜	-11.6953
萬四千	-11.6953
未若	-11.6954
其尾	-11.6954
諫諍	-11.6955
賢能	-11.6956
孫逖	-11.6957
敏中	-11.6957
農事	-11.6961
恭敬	-11.6961
冡宰	-11.6961
糝	-11.6963
白虎通曰	-11.6963
人呼	-11.6963
帝使	-11.6964
霍山	-11.6965
書奏	-11.6965
表云	-11.6967
劉曜	-11.6968
𡨕	-11.6969
五祀	-11.6972
者唯	-11.6973
粘	-11.6973
弹	-11.6974
直指	-11.6975
直道	-11.6975
文館	-11.6977
殿庭	-11.6977
一一	-11.6978
名實	-11.6978
三年二月	-11.6981
汾隂	-11.6982
諺	-11.6982
于今	-11.6984
備矣	-11.6985
鞞	-11.6986
二國	-11.6987
交錯	-11.6987
亞夫	-11.6987
曰請	-11.6989
其失	-11.699
此心	-11.699
宋王	-11.6992
閩中	-11.6993
恍	-11.6994
筌	-11.6995
云我	-11.6996
甍	-11.6996
尚存	-11.6996
無失	-11.6997
封之	-11.6997
清泉	-11.6997
抹	-11.6999
我家	-11.6999
干將	-11.7
失所	-11.7003
以遺	-11.7005
遣吏	-11.7006
不犯	-11.7006
張子	-11.7007
司𨽻校尉	-11.701
西風	-11.701
考工記	-11.701
錄事	-11.7013
法律	-11.7015
龍池	-11.7016
君何	-11.7016
天授	-11.7016
回鶻	-11.7016
謝公	-11.7016
埀	-11.7017
▁宋	-11.7017
懈	-11.7018
石橋	-11.7018
正統	-11.7019
國語曰	-11.702
常衮	-11.7021
乃引	-11.7022
知禮	-11.7022
金盤	-11.7024
所立	-11.7025
喟然	-11.7026
布被	-11.7027
溪水	-11.7028
大徳	-11.7029
遺風	-11.7029
可容	-11.7029
異日	-11.7031
隍	-11.7031
非無	-11.7033
匡衡	-11.7034
數四	-11.7034
治也	-11.7036
往者	-11.7037
氣力	-11.7037
動揺	-11.7037
又謂	-11.7037
白公	-11.7039
晉師	-11.704
州里	-11.7041
祥瑞	-11.7041
而逺	-11.7041
鑊	-11.7042
都督府	-11.7042
願為	-11.7043
壬申	-11.7043
揉	-11.7044
月照	-11.7044
芰	-11.7044
龍泉	-11.7045
愛民	-11.7045
下民	-11.7046
丁酉	-11.7046
五禮	-11.7047
府長史	-11.7047
民也	-11.7047
無非	-11.705
不差	-11.705
葛洪	-11.705
何則	-11.7054
而遣之	-11.7059
義陽	-11.7059
水軍	-11.7059
鶡	-11.706
大寳	-11.7064
泯	-11.7066
相知	-11.7066
橐	-11.7066
周流	-11.7066
樂工	-11.7066
孟氏	-11.7067
太平之	-11.7068
孔明	-11.707
晁錯	-11.7071
爵位	-11.7071
吉日	-11.7071
三河	-11.7074
大計	-11.7075
世為	-11.7076
戰勝	-11.7076
太常少卿	-11.7078
地上	-11.7078
應有	-11.7079
躬耕	-11.7079
河海	-11.708
懷詩	-11.7082
成臯	-11.7083
善騎射	-11.7084
吾與	-11.7085
鷁	-11.7086
之罪也	-11.7089
不周	-11.7091
糊	-11.7092
盡日	-11.7093
出家	-11.7093
夏侯湛	-11.7094
緌	-11.7094
猶能	-11.7094
也然而	-11.7095
名家	-11.7095
中都	-11.7095
蒞	-11.7095
集於	-11.7096
黻	-11.7098
亦未	-11.71
之祭	-11.7101
故君子	-11.7101
表請	-11.7103
丁巳	-11.7108
户部尚書	-11.7108
大慙	-11.7108
一莖	-11.7109
中二千石	-11.7111
吏卒	-11.7111
鳥也	-11.7111
為齊	-11.7111
少帝	-11.7113
太真	-11.7114
所治	-11.7114
夏月	-11.7114
具以	-11.7115
去矣	-11.7115
難為	-11.7115
伊洛	-11.7115
相攻	-11.7115
凜	-11.7116
占曰	-11.7116
漑	-11.7118
來聘	-11.7119
著作佐郎	-11.712
踐祚	-11.712
筆談	-11.7121
莊周	-11.7122
飛入	-11.7122
知此	-11.7124
乃立	-11.7124
穆之	-11.7124
謇	-11.7124
犇	-11.7124
鴻鵠	-11.7125
地為	-11.7125
之差	-11.7126
如水	-11.7126
築室	-11.7129
苑囿	-11.7129
大聖	-11.713
次子	-11.713
之所在	-11.7133
可致	-11.7136
盧氏	-11.7137
矣若	-11.7137
田野	-11.7139
乙亥	-11.7139
神祗	-11.7139
巍	-11.7139
自云	-11.7139
嗔	-11.7139
大赦改元	-11.714
旁有	-11.714
嘘	-11.714
之固	-11.7141
陳蔡	-11.7142
因事	-11.7142
饑饉	-11.7143
死則	-11.7143
取一	-11.7143
木也	-11.7144
冬至日	-11.7144
妥	-11.7144
李華	-11.7144
千斛	-11.7145
矣乃	-11.7146
千二百	-11.7147
言無	-11.7148
大率	-11.7149
湖上	-11.715
一兩	-11.7151
比年	-11.7151
邊境	-11.7151
者不得	-11.7152
臨安	-11.7153
官名	-11.7153
金匱	-11.7155
禮經	-11.7156
管絃	-11.7158
老矣	-11.7158
中牟	-11.7159
龍鱗	-11.7159
於郊	-11.716
輔之	-11.7162
退朝	-11.7162
為第一	-11.7162
王家	-11.7164
天有	-11.7164
縣侯	-11.7164
戮力	-11.7165
陸倕	-11.7167
渾儀	-11.7167
師旅	-11.7168
所滅	-11.7168
班師	-11.7168
平子	-11.7169
到官	-11.7173
謝𤣥	-11.7174
而益	-11.7175
從政	-11.7175
班超	-11.7177
十斛	-11.7177
好古	-11.7178
軍使	-11.7179
外内	-11.7179
仲宣	-11.718
凡六	-11.7181
高麗	-11.7185
既定	-11.7187
癸巳	-11.7187
論功	-11.7189
即皇帝位	-11.719
不法	-11.7191
之卒	-11.7192
道武	-11.7195
以酒	-11.7195
黄鍾之	-11.7196
物色	-11.7196
百三十	-11.7197
西面	-11.7198
至其	-11.7199
門者	-11.7199
之木	-11.7201
浩然	-11.7202
仇池	-11.7203
在人	-11.7203
三江	-11.7203
上令	-11.7203
龍驤	-11.7204
大儒	-11.7205
寢疾	-11.7207
第九	-11.7209
慾	-11.721
易也	-11.721
嶮	-11.7211
茅屋	-11.7212
壬辰	-11.7214
既平	-11.7214
罸	-11.7215
有如	-11.7216
建議	-11.7219
弈	-11.7219
明徹	-11.7219
病者	-11.7224
孝恭	-11.7225
龍朔二年改	-11.7225
燦	-11.7225
新亭	-11.7228
隋唐	-11.7229
無方	-11.723
墳墓	-11.723
仲夏	-11.7232
其族	-11.7233
與汝	-11.7233
引去	-11.7233
丹書	-11.7235
園林	-11.7235
征西	-11.7237
人呼為	-11.7237
出一	-11.7237
噲	-11.7238
世界	-11.7238
無害	-11.7238
一級	-11.7239
初平	-11.7239
煜	-11.7239
如聞	-11.724
丁丑	-11.724
庚辰	-11.7241
母子	-11.7242
悰	-11.7243
太牢	-11.7243
於京師	-11.7243
爵禄	-11.7244
常與	-11.7245
太𤣥	-11.7247
何言	-11.7247
矣此	-11.7248
之制也	-11.7248
寡婦	-11.7248
典刑	-11.7249
日有	-11.725
乎天	-11.725
世號	-11.7252
三司使	-11.7252
從祀	-11.7253
二君	-11.7255
仰觀	-11.7257
右將軍	-11.7257
皃	-11.7258
圈	-11.7258
猛虎	-11.7259
乙丑	-11.726
▁水經注	-11.7261
以祭	-11.7264
己亥	-11.7264
旐	-11.7264
擊鼓	-11.7264
叱之	-11.7265
韋昭	-11.7265
歸去	-11.7265
三十卷	-11.7265
頲	-11.7266
等議	-11.7268
景文	-11.7268
祝曰	-11.7269
詞丨丨	-11.7271
祕書監	-11.7272
其流	-11.7274
文帝紀	-11.7274
惟其	-11.7274
能屬文	-11.7274
遺愛	-11.7274
相通	-11.7275
武陵王	-11.7275
徙居	-11.7278
忠良	-11.7278
以為常	-11.728
殷浩	-11.7282
太華	-11.7282
人道	-11.7282
其二	-11.7283
當是	-11.7283
自矜	-11.7283
鄰人	-11.7283
圖經	-11.7285
必為	-11.7285
在側	-11.7286
切並	-11.7286
六畜	-11.7287
殪	-11.7287
跣	-11.7288
劉孝威	-11.7288
綝	-11.7289
所好	-11.729
寂寥	-11.729
為太常	-11.7291
今日之	-11.7291
任重	-11.7292
禽經	-11.7293
耕者	-11.7294
如彼	-11.7295
每一	-11.7297
希烈	-11.7297
以彰	-11.7297
七政	-11.7298
酋長	-11.7298
詩我	-11.7299
李尤	-11.73
酷吏	-11.7301
北平	-11.7301
字孝	-11.7301
桓榮	-11.7302
端拱	-11.7302
市井	-11.7305
洛陽令	-11.7306
轉輸	-11.7306
豪右	-11.7307
而舞	-11.7309
無逸	-11.7309
金花	-11.731
蹻	-11.7311
子罕	-11.7312
龜山	-11.7312
樊噲	-11.7314
乃退	-11.7316
豈知	-11.7316
絃歌	-11.7318
珠璣	-11.732
無情	-11.732
並出	-11.7321
立身	-11.7321
愴	-11.7322
於漢	-11.7323
如晉	-11.7325
竟陵	-11.7325
推誠	-11.7325
大師	-11.7326
一匹	-11.7326
改易	-11.7326
貨財	-11.7327
暇日	-11.7329
驚曰	-11.733
之賜	-11.733
自生	-11.7331
秋官	-11.7331
龍首	-11.7333
約束	-11.7335
潼	-11.7336
以臨	-11.7339
近侍	-11.734
鎛	-11.7341
屩	-11.7341
百榖	-11.7341
意也	-11.7342
王筠	-11.7343
視朝	-11.7346
樹上	-11.7346
事多	-11.7347
佩玉	-11.7347
斷獄	-11.7348
幽王	-11.7349
累年	-11.7349
千匹	-11.735
為學士	-11.7351
雨中	-11.7351
逺遊	-11.7352
大石	-11.7353
素服	-11.7358
既得	-11.7358
他官	-11.7358
所作也	-11.736
地氣	-11.736
九月九日	-11.736
一節	-11.7361
坻	-11.7364
㺯	-11.7364
廟詩	-11.7364
宴羣臣	-11.7365
李絳	-11.7365
昌黎	-11.7366
重華	-11.7367
而泣	-11.7367
洗馬	-11.7367
阡陌	-11.7368
起自	-11.7368
奉迎	-11.7371
堂詩	-11.7371
以從	-11.7373
玉篇	-11.7373
人望	-11.7374
不休	-11.7375
賢臣	-11.7378
亦是	-11.7379
即令	-11.7381
簴	-11.7381
十二人	-11.7382
會要	-11.7382
連年	-11.7383
永初	-11.7384
意者	-11.7387
征虜將軍	-11.7388
賃	-11.7389
疏見	-11.7389
跗	-11.739
太息	-11.739
仕宦	-11.7391
能行	-11.7392
矣吾	-11.7392
束晳	-11.7392
臺榭	-11.7393
勾踐	-11.7393
瑇瑁	-11.7395
萬緡	-11.7395
不發	-11.7396
一軍	-11.7397
結實	-11.7397
管内	-11.74
忠貞	-11.7404
絶域	-11.7405
歲時	-11.7407
悲鳴	-11.7408
幽人	-11.7408
髙祖紀	-11.7409
三統	-11.741
摩訶	-11.7412
蟾蜍	-11.7413
屬車	-11.7417
小學紺珠	-11.7417
賣之	-11.7417
歌聲	-11.7419
誰謂	-11.7419
比丘	-11.7421
不能用	-11.7422
繫之	-11.7423
官以	-11.7423
古人之	-11.7423
百畝	-11.7423
玉衡	-11.7424
便於	-11.7425
更有	-11.7426
之私	-11.7427
之盟	-11.7428
殺傷	-11.743
六龍	-11.7431
雲間	-11.7431
坦之	-11.7431
士馬	-11.7431
不務	-11.7432
有事於	-11.7433
璩	-11.7434
堂前	-11.7434
並行	-11.7435
兠	-11.7436
不重	-11.7438
當此之時	-11.7439
㨿	-11.7439
苧	-11.744
房中	-11.744
其頭	-11.744
夐	-11.7441
金山	-11.7441
不衰	-11.7442
善也	-11.7442
圯	-11.7442
雜録	-11.7443
劉基	-11.7443
凡四	-11.7444
私第	-11.7446
者不可	-11.7449
牛酒	-11.745
不救	-11.7451
亦不能	-11.7452
總領	-11.7456
雜事	-11.7456
誦之	-11.7457
白金	-11.746
雨師	-11.7461
昆明	-11.7461
聞其名	-11.7463
髙堂	-11.7463
位於	-11.7464
金谷	-11.7464
王逢	-11.7465
秋霜	-11.7466
罌	-11.7466
孟津	-11.7468
一笑	-11.747
宓	-11.747
亦皆	-11.747
三元	-11.7471
東園	-11.7471
因縁	-11.7473
皎皎	-11.7474
羣臣皆	-11.7474
七十餘	-11.7474
吴志	-11.7475
洛邑	-11.7475
進之	-11.7475
客曰	-11.7476
宣撫	-11.7478
在職	-11.748
安仁	-11.7482
之訓	-11.7484
丨注	-11.7485
隨其	-11.7485
髙明	-11.7485
至死	-11.7486
玉石	-11.7487
九真	-11.7489
孑	-11.7489
丨丨杜	-11.749
然亦	-11.7491
馮道	-11.7491
氏女	-11.7495
楊國忠	-11.7497
園詩	-11.7497
上馬	-11.7497
老君	-11.7498
更無	-11.7498
以丨丨為	-11.75
之貳	-11.7501
而猶	-11.7501
兩手	-11.7501
司馬彪	-11.7502
之疾	-11.7506
還京師	-11.7507
嫁娶	-11.7508
祓	-11.751
一㸃	-11.7511
宴集	-11.7512
禰衡	-11.7518
遺書	-11.7518
張昭	-11.7522
君臣之	-11.7522
軺	-11.7524
吕布	-11.7524
兩端	-11.7524
水利	-11.7525
臣以為	-11.7525
如神	-11.7525
爾時	-11.7528
作書	-11.7528
今吾	-11.7529
奉公	-11.7531
清淨	-11.7531
徐廣	-11.7533
誰知	-11.7533
還至	-11.7533
餘衆	-11.7533
宋史曰	-11.7533
三族	-11.7535
鎮撫	-11.7535
愠	-11.7536
莊王	-11.7537
朝霞	-11.7539
錦衣	-11.7539
桃源	-11.7539
福州	-11.754
幰	-11.754
聆	-11.754
周王	-11.754
嘗見	-11.7541
壌	-11.7541
礬	-11.7542
紀事	-11.7542
榱	-11.7542
稍稍	-11.7542
敵國	-11.7542
敗績	-11.7544
鄒陽	-11.7544
改曰	-11.7544
嘗問	-11.7544
其友	-11.7547
明帝時	-11.7548
唐無名氏	-11.7548
崑崙之	-11.7548
能自	-11.755
闗東	-11.755
女工	-11.7551
氏掌	-11.7551
九流	-11.7552
先驅	-11.7553
風霜	-11.7553
恨不	-11.7553
以全	-11.7553
舊名	-11.7555
歸心	-11.7555
梁沈約	-11.7556
南岳	-11.7556
簡文帝	-11.7557
个	-11.7558
珍寳	-11.7559
衣錦	-11.756
碣石	-11.756
四十年	-11.7561
千戸	-11.7563
川澤	-11.7563
林下	-11.7563
賢愚	-11.7564
容與	-11.7564
漢髙	-11.7564
威武	-11.7565
刺之	-11.7566
採桑	-11.7567
在中	-11.7571
龍尾	-11.7572
能作	-11.7573
賊帥	-11.7573
夷則	-11.7573
者是也	-11.7573
珏	-11.7575
室家	-11.7577
者莫	-11.7577
空虚	-11.7577
紫宸	-11.7578
亡國	-11.758
宣徳	-11.7581
作丨	-11.7581
前漢書	-11.7582
中孚	-11.7582
呉越	-11.7582
蝸	-11.7583
移書	-11.7584
揲	-11.7585
宴詩	-11.7585
田單	-11.7586
才能	-11.7586
衆星	-11.7586
建昌	-11.7586
然如	-11.7586
責其	-11.7587
甚得	-11.7587
雖未	-11.7589
丙辰	-11.7591
請降	-11.7592
羅浮	-11.7592
日用	-11.7592
趙普	-11.7593
於我	-11.7593
四郊	-11.7593
教坊	-11.7594
少好	-11.7594
為太	-11.7594
瀟湘	-11.7595
何罪	-11.7595
一目	-11.7596
郞	-11.7596
者爲	-11.7598
其腹	-11.7598
閏月	-11.7599
必在	-11.7602
象也	-11.7603
閑居	-11.7604
有闕	-11.7605
能否	-11.7608
顧命	-11.7611
將欲	-11.7611
邯	-11.7611
臣臣	-11.7611
景星	-11.7612
為己	-11.7612
之年	-11.7614
罔不	-11.7616
㳙	-11.7617
别離	-11.7617
不可得而	-11.7617
精誠	-11.7617
于外	-11.7618
但有	-11.7618
故實	-11.7619
富者	-11.7619
太甲	-11.762
在兹	-11.7621
元年八月	-11.7622
觥	-11.7623
其王	-11.7625
人士	-11.7627
端門	-11.7629
加於	-11.7629
旰	-11.7632
立夏	-11.7633
漢氏	-11.7634
耕種	-11.7635
王事	-11.7636
唐堯	-11.7637
子貢曰	-11.7638
變易	-11.7638
特賜	-11.7639
顧况	-11.7641
領之	-11.7641
淖	-11.7642
而北	-11.7643
草創	-11.7644
李德裕	-11.7646
茅茨	-11.7646
魏文	-11.7646
劉裕	-11.7647
知是	-11.7647
如山	-11.7649
備禮	-11.765
第五倫	-11.765
舉而	-11.765
常服	-11.765
與共	-11.7651
又無	-11.7652
勿令	-11.7654
喬木	-11.7655
吳越春秋	-11.7655
朝見	-11.7656
始見	-11.7657
其目	-11.7657
萬錢	-11.7657
昨日	-11.7659
守道	-11.7661
易林丨丨	-11.7663
蓑	-11.7667
龍驤將軍	-11.7667
五藏	-11.7667
睠	-11.7669
瞋目	-11.767
皋	-11.767
不存	-11.7674
而視之	-11.7674
河橋	-11.7675
千六百	-11.7675
宋史兵志	-11.7675
康叔	-11.7677
之災	-11.7677
多言	-11.7678
封泰山	-11.768
勿復	-11.7681
曰唐	-11.7683
今則	-11.7685
伯禽	-11.7685
學士院	-11.7689
人問	-11.769
承嗣	-11.769
者也故	-11.7691
平聲	-11.7692
辰星	-11.7692
擇其	-11.7694
曬	-11.7695
昜	-11.7696
顔氏家訓	-11.7697
二儀	-11.7698
成化	-11.7698
巴郡	-11.7699
宮中	-11.77
用度	-11.77
登科	-11.77
魯君	-11.7701
烈士	-11.7701
戰而	-11.7701
其來	-11.7701
貨賄	-11.7702
有序	-11.7703
士元	-11.7704
舉孝亷	-11.7705
楚辭曰	-11.7706
冬官	-11.7707
曰善哉	-11.7707
車輪	-11.7708
隋開皇	-11.7708
貴重	-11.7709
子文	-11.771
鷲	-11.7711
分置	-11.7712
不寐	-11.7712
朝歌	-11.7712
也一曰	-11.7713
犧牲	-11.7715
一介	-11.7715
沛國	-11.7716
剌	-11.7719
上謂	-11.7719
金色	-11.7721
在其中	-11.7721
蒂	-11.7723
億兆	-11.7723
滉	-11.7724
▁史記	-11.7727
三者	-11.7733
所推	-11.7734
崤	-11.7734
王良	-11.7735
始作	-11.7736
職在	-11.7737
季龍	-11.7737
巨源	-11.7738
乃見	-11.7739
青牛	-11.7739
論其	-11.774
鍾㑹	-11.7741
紀勝	-11.7743
文繡	-11.7744
終不能	-11.7744
千牛	-11.7744
禮者	-11.7745
韋氏	-11.7746
家富	-11.7746
衲	-11.7747
異物志	-11.7747
勻	-11.7748
慣	-11.7748
河漢	-11.7749
泗水	-11.775
軍容	-11.775
又見	-11.775
配享	-11.7751
所求	-11.7751
仁恕	-11.7752
字也	-11.7753
博聞	-11.7754
作歌	-11.7756
夢得	-11.7756
守臣	-11.7756
九百	-11.7757
少與	-11.7757
為友	-11.7757
異常	-11.7758
五絃	-11.7759
鬱林	-11.7759
丨而丨	-11.7759
方外	-11.7759
文皇帝	-11.776
漁人	-11.776
廣武	-11.776
阿房	-11.7761
謝之	-11.7762
惟恐	-11.7763
賦役	-11.7767
豈以	-11.7768
飄飄	-11.7768
風采	-11.7769
大政	-11.777
有定	-11.7771
追尊	-11.7771
夤	-11.7771
溺死	-11.7771
詮	-11.7772
詬	-11.7773
三十萬	-11.7773
何晏	-11.7773
妒	-11.7774
菅	-11.7774
則止	-11.7774
髭	-11.7774
址	-11.7774
奉先	-11.7775
過半	-11.7775
王逸	-11.7776
之操	-11.7777
孫楚	-11.7779
仲淹	-11.778
送至	-11.7781
酒家	-11.7782
孝弟	-11.7783
進取	-11.7784
順時	-11.7786
倉庫	-11.7786
目前	-11.7786
當國	-11.7786
復入	-11.7788
請罪	-11.7791
而今	-11.7792
青色	-11.7794
魏州	-11.7795
者至	-11.7797
旟	-11.7797
毁之	-11.7797
焰	-11.7798
兵曹	-11.7799
乙酉	-11.7799
遐邇	-11.7799
畚	-11.78
上林苑	-11.7801
成就	-11.7801
黄雲	-11.7801
藺	-11.7802
風雷	-11.7802
必敗	-11.7803
於兹	-11.7803
文武之	-11.7803
各二	-11.7804
禁兵	-11.7804
芬芳	-11.7805
大饗	-11.7806
留心	-11.7806
天涯	-11.7808
兵甲	-11.7808
散官	-11.7809
於廟	-11.7809
而趨	-11.781
皇王	-11.781
元年十月	-11.7811
為都督	-11.7812
雪中	-11.7813
其儀	-11.7816
虞夏	-11.7817
老成	-11.7819
雖小	-11.7819
臛	-11.7822
晦日	-11.7822
天下之士	-11.7823
萬匹	-11.7824
頺	-11.7824
愜	-11.7824
入侍	-11.7825
大理寺	-11.7826
其舊	-11.7826
獲免	-11.7826
自今已後	-11.7828
堇	-11.7828
而祭	-11.7828
有青	-11.7828
臨洮	-11.7829
祭法	-11.7829
憂國	-11.783
多以	-11.7831
霤	-11.7833
之丨丨也	-11.7834
宋史選舉志	-11.7834
公卿大夫	-11.7835
梨花	-11.7836
易以	-11.7837
周行	-11.7837
諸部	-11.7837
乙巳	-11.7838
之勤	-11.7838
樂者	-11.7839
語録	-11.7841
不可得也	-11.7841
又送	-11.7843
父母之	-11.7844
復命	-11.7848
以討	-11.7849
者豈	-11.785
列仙傳	-11.7851
者因	-11.7853
本姓	-11.7857
令民	-11.7857
殷周	-11.7857
五銖	-11.7858
長沙王	-11.7859
二升	-11.7861
彗星	-11.7861
讓之	-11.7861
八方	-11.7861
又加	-11.7863
厚薄	-11.7863
王隱晉書曰	-11.7864
神氣	-11.7864
汝州	-11.7866
皆言	-11.7866
元年七月	-11.7867
生人	-11.7868
輿服	-11.7868
黄衣	-11.7868
伏願	-11.7869
皆非	-11.7871
里有	-11.7874
作一	-11.7874
萱	-11.7875
客至	-11.7875
朕之	-11.7877
孝景	-11.7877
相和	-11.7877
上都	-11.7878
秣陵	-11.7878
詈	-11.7878
貢禹	-11.7878
狠	-11.7879
掬	-11.7879
夜則	-11.7879
凡五	-11.788
不勝其	-11.7884
吳楚	-11.7884
也猶	-11.7885
千百	-11.7886
金帶	-11.7886
渭南	-11.7888
使相	-11.7888
失火	-11.7889
羅漢	-11.789
中宫	-11.7892
惔	-11.7893
其將	-11.7893
萬家	-11.7893
太醫	-11.7895
禹湯	-11.7898
丙寅	-11.79
逗	-11.7903
聚衆	-11.7903
谷永	-11.7904
窒	-11.7904
徒以	-11.7904
起居郎	-11.7905
之備	-11.7905
之勲	-11.7905
熒	-11.7906
堯時	-11.7907
無所用	-11.7907
㕑	-11.7907
通鑑唐	-11.7907
親臨	-11.7908
縝	-11.7909
歉	-11.7911
斷絶	-11.7911
孝廉	-11.7911
四象	-11.7911
拂衣	-11.7913
權貴	-11.7914
獨無	-11.7914
入學	-11.7915
年十八	-11.7915
賜名	-11.7915
至日	-11.7915
日入	-11.7916
之科	-11.7919
王祥	-11.7921
明其	-11.7923
虡	-11.7923
長幼	-11.7923
流民	-11.7925
論云	-11.7926
邦之	-11.7926
甚急	-11.7927
慶忌	-11.7927
蚓	-11.7929
玉壺	-11.7929
蝟	-11.7931
善言	-11.7931
保其	-11.7932
居此	-11.7932
季冬	-11.7933
魏相	-11.7934
張正見	-11.7935
五升	-11.7936
丹墀	-11.7936
府兵	-11.7937
晉州	-11.7938
王惲	-11.7938
世事	-11.7941
任城	-11.7941
増唐	-11.7942
萬姓	-11.7942
一條	-11.7942
盟于	-11.7944
白璧	-11.7944
不虚	-11.7945
釣魚	-11.7946
鼓之	-11.7947
録云	-11.7949
同於	-11.7949
郢州	-11.7949
崔光	-11.7949
輔弼	-11.7949
為將	-11.7952
使者曰	-11.7952
堅守	-11.7953
長楊	-11.7953
人也少	-11.7954
异	-11.7954
辛酉	-11.7955
偓	-11.7956
去就	-11.7957
褁	-11.7957
帝自	-11.7958
碓	-11.7958
殷人	-11.7958
中庶子	-11.796
永元	-11.7961
與劉	-11.7962
未免	-11.7962
千騎	-11.7965
待以	-11.7966
宜加	-11.7968
元老	-11.7969
長嘯	-11.797
輔相	-11.7973
宕	-11.7976
前王	-11.7978
行旅	-11.7979
兵至	-11.798
行宫	-11.7981
暎	-11.7981
大射	-11.7981
測曰	-11.7982
舟人	-11.7984
急就篇	-11.7984
豸	-11.7986
不分	-11.7986
感激	-11.7988
李邕	-11.7988
山下有	-11.7991
韓愈詩	-11.7992
劉楨	-11.7996
黄鳥	-11.7996
夏商	-11.7998
五卷	-11.7998
永康	-11.7999
土為	-11.7999
十二律	-11.8
景王	-11.8
切集韻韻會	-11.8001
舞者	-11.8002
二州刺史	-11.8003
之喪	-11.8004
▁北史	-11.8004
源出	-11.8005
護軍	-11.8006
落丨丨	-11.8007
之寵	-11.8007
鼓瑟	-11.8007
多難	-11.8007
不收	-11.8009
君父	-11.8009
上計	-11.8011
定陶	-11.8011
善畫	-11.8012
義倉	-11.8013
商君	-11.8013
明德	-11.8015
長一尺	-11.8016
肅清	-11.8016
成名	-11.8017
風波	-11.8018
文同	-11.802
一樹	-11.802
百石	-11.8021
建初	-11.8022
非常之	-11.8025
衛将軍	-11.8026
而不言	-11.8026
鳳皇	-11.8028
犯者	-11.8028
者使	-11.8029
成章	-11.8029
縣公	-11.803
千斤	-11.803
姚興	-11.8032
六官	-11.8033
楊億	-11.8034
六十四卦	-11.8034
寳應	-11.8036
螟	-11.8036
已久	-11.8037
盈尺	-11.8038
无咎	-11.8038
秦秦	-11.8038
分司	-11.8039
赤子	-11.8039
盧思道	-11.8039
儺	-11.804
慈母	-11.804
巴西	-11.8041
簡公	-11.8042
上下相	-11.8043
酈道元水經注	-11.8044
兵書	-11.8045
小心	-11.8045
實如	-11.8046
語人曰	-11.8046
監察	-11.8047
則思	-11.8047
不可以不	-11.8049
德行	-11.8051
之黨	-11.8051
為給事中	-11.8051
時謂	-11.8051
大理卿	-11.8053
不習	-11.8054
及此	-11.8055
而問之	-11.8055
勤於	-11.8056
長一丈	-11.8057
從父	-11.8057
不可用	-11.8057
姤	-11.806
和糴	-11.806
宴樂	-11.806
告之曰	-11.8062
鰥寡	-11.8063
事業	-11.8063
勾當	-11.8063
八十里	-11.8064
前將軍	-11.8065
州治	-11.8065
范曄	-11.8066
舟師	-11.8066
匠人	-11.8066
注見	-11.8067
不軌	-11.8068
詛	-11.8068
十有五	-11.8069
里中	-11.807
兵起	-11.8072
請於	-11.8072
官及	-11.8072
方術	-11.8074
豈獨	-11.8076
命之曰	-11.8076
土山	-11.8077
不自安	-11.8077
王荆公	-11.8081
天子乃	-11.8082
錄曰	-11.8085
遄	-11.8086
墾田	-11.8086
不悟	-11.8087
帝從之	-11.8087
朐	-11.8087
七品	-11.8088
磚	-11.8088
秦昭王	-11.8089
匈	-11.8091
水泉	-11.8092
誰敢	-11.8093
則失	-11.8094
一統志	-11.8094
遥望	-11.8097
曽不	-11.8098
武官	-11.8099
四靣	-11.8099
即為	-11.8099
歐陽公	-11.8099
出征	-11.8099
團扇	-11.81
按察	-11.8102
曰吾欲	-11.8102
疇昔	-11.8102
從駕	-11.8102
歸路	-11.8103
令狐楚	-11.8105
荷花	-11.8107
不遜	-11.8108
三十一	-11.811
篙	-11.8112
楚詞	-11.8117
筮之	-11.8117
有水	-11.8117
濺	-11.8117
憔悴	-11.8118
一何	-11.8118
彀	-11.8118
坐於	-11.8118
刀筆	-11.8119
瘧	-11.812
之勇	-11.812
丨以丨	-11.8121
隄防	-11.8121
當是時	-11.8123
不飲	-11.8124
潭州	-11.8124
其器	-11.8125
天子以	-11.8125
付之	-11.8126
奉表	-11.8127
梁陳	-11.8127
與客	-11.8128
六師	-11.8128
文義	-11.8129
為侍御史	-11.8129
發其	-11.8129
咸以	-11.8131
叔度	-11.8132
多者	-11.8135
斯人	-11.8136
不敢言	-11.8136
因請	-11.8137
公綽	-11.8138
嶧	-11.8138
其旁	-11.8138
長平	-11.8139
不可為	-11.814
殱	-11.814
應制	-11.8141
後庭	-11.8143
有虞氏	-11.8145
茄	-11.8145
匭	-11.8147
飛來	-11.8148
百獸	-11.8149
丙申	-11.815
安息	-11.8151
王濟	-11.8155
太常寺	-11.8157
管輅	-11.8158
圓丘	-11.8161
始出	-11.8161
髙后	-11.8164
豹尾	-11.8164
極言	-11.8165
及卒	-11.8165
金縷	-11.8165
年九十	-11.8166
馮異	-11.8167
東面	-11.8168
其為人	-11.8169
驍騎	-11.817
四卷	-11.817
日者	-11.8172
陌上	-11.8173
啓曰	-11.8173
相類	-11.8174
出水	-11.8174
通事舍人	-11.8175
殿最	-11.8176
謁見	-11.8178
溝壑	-11.8178
夜宿	-11.818
海陵	-11.8181
前軍	-11.8181
出獵	-11.8182
坡詩	-11.8183
不見其	-11.8184
丨丨丨丨也	-11.8184
之刑	-11.8185
若之何	-11.8186
魏舒	-11.8186
風氣	-11.8187
五事	-11.8188
羣吏	-11.8188
天下之大	-11.8188
以火	-11.8189
山堂肆考曰	-11.8189
為患	-11.8189
所撰	-11.819
超然	-11.8192
服也	-11.8193
壁立	-11.8194
四塞	-11.8194
承制	-11.8194
壷	-11.8195
益州刺史	-11.8195
將校	-11.8196
可任	-11.8196
咸寧	-11.8196
敗走	-11.8197
漚	-11.8198
撼	-11.8198
承平	-11.8199
乙未	-11.8199
以御	-11.8199
名馬	-11.82
嬾	-11.82
被甲	-11.82
相得	-11.82
僥倖	-11.8201
沙漠	-11.8201
玉泉	-11.8201
也蓋	-11.8202
多故	-11.8202
富民	-11.8203
建立	-11.8203
王延	-11.8204
又嘗	-11.8204
三十八	-11.8204
赴之	-11.8204
柞	-11.8204
夜聞	-11.8206
蒼頡	-11.8207
元年五月	-11.8207
赤壁	-11.8208
樓下	-11.8209
順宗	-11.821
初入	-11.8212
紛紜	-11.8213
元首	-11.8213
彦章	-11.8215
所經	-11.8215
之所由	-11.8216
合璧	-11.8218
遨	-11.822
父也	-11.822
貞觀初	-11.8221
豈徒	-11.8221
小事	-11.8221
行於世	-11.8222
天寳中	-11.8222
鈆	-11.8224
舊宅	-11.8224
關東	-11.8224
言此	-11.8225
漱	-11.8225
刻木	-11.8225
冠軍將軍	-11.8225
病也	-11.8226
好事	-11.8226
百篇	-11.8226
酆	-11.8226
絕	-11.8226
詔下	-11.8227
乃拜	-11.8227
彭澤	-11.8227
黝	-11.8227
秀實	-11.8228
官皆	-11.8228
方千里	-11.8229
欲取	-11.8229
▁元史	-11.823
壚	-11.823
郭氏	-11.8231
一錢	-11.8231
乃能	-11.8231
青絲	-11.8232
無端	-11.8232
若欲	-11.8232
可惜	-11.8232
本官	-11.8233
我何	-11.8234
題曰	-11.8235
博陵	-11.8235
梁孝王	-11.8236
宰執	-11.8237
其夜	-11.8237
漢舊儀	-11.8238
注師古曰	-11.8238
君侯	-11.8238
供給	-11.824
黄霸	-11.8241
背上	-11.8242
尭	-11.8245
著名	-11.8247
㵼	-11.8251
虎狼	-11.8252
歩兵	-11.8253
婆娑	-11.8253
燕昭王	-11.8253
上供	-11.8254
符堅	-11.8254
評事	-11.8254
者此	-11.8254
宋謝維新撰	-11.8256
百錢	-11.8256
鷃	-11.8256
盤石	-11.8257
考績	-11.8257
鮫	-11.8257
飾之	-11.8258
姑臧	-11.826
田租	-11.8261
元狩	-11.8262
五十萬	-11.8262
當與	-11.8263
為秦	-11.8263
不熟	-11.8263
五日一	-11.8264
碑文	-11.8268
五家	-11.8269
周顗	-11.827
萬七千	-11.8271
天威	-11.8272
也盖	-11.8274
懿宗	-11.8274
韓維	-11.8274
自漢	-11.8275
癸未	-11.8275
歡喜	-11.8276
韞	-11.8276
樂舞	-11.8277
文帝時	-11.8277
號哭	-11.8277
癸酉	-11.8278
兩岸	-11.8278
紙筆	-11.8279
遂絶	-11.828
跖	-11.828
郊特牲	-11.828
舉秀才	-11.8281
蹔	-11.8281
秦時	-11.8282
段成式	-11.8282
舟車	-11.8283
河渠	-11.8285
起舞	-11.8287
灌夫	-11.8288
還都	-11.8289
偏將軍	-11.829
茍有	-11.829
太皇太后	-11.8292
曰此兒	-11.8293
靈王	-11.8294
精騎	-11.8294
同歸	-11.8294
助之	-11.8295
二枚	-11.8295
而待	-11.8296
多識	-11.8296
度支尚書	-11.8296
星也	-11.8296
之口	-11.8298
陸遜	-11.8299
良工	-11.8299
前鋒	-11.83
時務	-11.8301
記事	-11.8301
無度	-11.8301
學書	-11.8302
東壁	-11.8302
得仙	-11.8302
焉得	-11.8304
菓	-11.8304
烱	-11.8305
擒之	-11.8306
何患	-11.8306
白雉	-11.8306
堊	-11.8306
浮橋	-11.8309
侶	-11.8309
郭林宗	-11.831
可矣	-11.8311
相當	-11.8312
開闢	-11.8313
隂山	-11.8313
麵	-11.8314
三台	-11.8314
後遂	-11.8315
之禁	-11.8315
榼	-11.8316
者今	-11.8319
辱之	-11.8319
何以知之	-11.8319
繫獄	-11.832
燒之	-11.8321
生長	-11.8321
以旌	-11.8323
其要	-11.8325
天下之人	-11.8325
於物	-11.8326
參議	-11.8326
途中	-11.8329
五常	-11.8329
雨後	-11.833
内侍省	-11.833
正則	-11.8331
遡	-11.8332
足為	-11.8332
富弼	-11.8333
授官	-11.8333
洪州	-11.8334
洄	-11.8336
觀詩	-11.8336
單騎	-11.8337
黄巢	-11.8337
甿	-11.8337
児	-11.8338
職官志	-11.8338
訐	-11.8339
戸口	-11.8339
流矢	-11.8339
逢吉	-11.8341
不知也	-11.8341
疏曰	-11.8341
闋	-11.8344
蕩蕩	-11.8344
趙充國	-11.8344
間以	-11.8345
相顧	-11.8345
季春	-11.8346
獨處	-11.8348
帝崩	-11.8348
左傳云	-11.835
南史齊	-11.835
甘心	-11.8351
尉遲	-11.8352
祭也	-11.8353
風飄	-11.8354
公等	-11.8357
赤心	-11.8357
見于	-11.8357
雜以	-11.8359
諸大夫	-11.836
種種	-11.8361
亡其	-11.8361
獻文	-11.8362
者故	-11.8363
雜志	-11.8365
武士	-11.8365
穡	-11.8366
嫌疑	-11.8367
羣飛	-11.8367
武備	-11.8368
遣使獻	-11.8369
誠能	-11.837
狀若	-11.837
萬福	-11.8371
錢帛	-11.8371
其害	-11.8371
還京	-11.8373
滑稽	-11.8375
淮海	-11.8375
往来	-11.8375
萬卷	-11.8375
定襄	-11.8375
入覲	-11.8379
淵明	-11.8379
八極	-11.838
禰	-11.8381
陳倉	-11.8382
鄰國	-11.8382
有五色	-11.8382
大節	-11.8382
十圍	-11.8382
後嗣	-11.8384
釀酒	-11.8385
蕤	-11.8385
驎	-11.8385
龍興	-11.8385
潼關	-11.8386
帝舜	-11.8387
忘憂	-11.8387
明明	-11.8388
歴年	-11.8388
窈	-11.8388
昭昭	-11.8389
為臣	-11.8389
出戰	-11.8389
左遷	-11.8389
巡狩	-11.8391
曰此非	-11.8391
慱	-11.8393
僂	-11.8393
賜絹	-11.8394
宋祁	-11.8395
蘭亭	-11.8395
雷公	-11.8396
長七尺	-11.8396
之府	-11.8396
武夷	-11.8398
日蝕	-11.8401
讀曰	-11.8402
汾陽	-11.8404
焚其	-11.8405
一歳	-11.8405
黎元	-11.8406
黎庶	-11.8406
青鳥	-11.8407
服飾	-11.8409
城在	-11.841
自來	-11.841
神名	-11.8411
以教	-11.8412
元年六月	-11.8413
與卿	-11.8413
湟	-11.8413
沈約宋書曰	-11.8414
對䇿	-11.8414
一百四十	-11.8414
此意	-11.8416
故使	-11.8416
傍有	-11.8417
涇州	-11.8419
清異錄	-11.8419
晉有	-11.842
之間謂之	-11.8421
集于	-11.8422
紫氣	-11.8422
封於	-11.8423
斧鉞	-11.8423
穀梁	-11.8423
不惑	-11.8425
其中有	-11.8425
不能為	-11.8425
於天子	-11.8425
驗之	-11.8425
所掌	-11.8427
來年	-11.8428
萬乗	-11.8429
鎮軍	-11.843
田中	-11.843
仕至	-11.8431
承恩	-11.8432
曰夫子	-11.8433
書佐	-11.8433
宣帝紀	-11.8433
尤善	-11.8433
元年九月	-11.8434
錢物	-11.8434
官員	-11.8435
廙	-11.8436
疾風	-11.8436
其生	-11.8436
胸中	-11.8437
車中	-11.8437
躬親	-11.8437
如一	-11.8437
陽公主	-11.8439
前人	-11.8439
四岳	-11.844
晉中興書	-11.844
屬焉	-11.844
状如	-11.8441
捜神記	-11.8443
海西	-11.8443
侏儒	-11.8443
莠	-11.8444
湄	-11.8445
太子少傅	-11.8446
崔氏	-11.8447
篇云	-11.8447
虔	-11.8448
北闕	-11.8448
玉人	-11.8448
萬三千	-11.8448
謝恩	-11.8449
咸亨	-11.8449
至若	-11.845
得幸	-11.845
大歴	-11.8451
竹木	-11.8451
藥石	-11.8451
之急	-11.8451
因號	-11.8452
雷震	-11.8453
之目	-11.8453
是吾	-11.8454
始至	-11.8455
制其	-11.8455
慶歴	-11.8456
雲龍	-11.8458
蜀漢	-11.8459
南吕	-11.8459
其水	-11.846
則非	-11.8461
以足	-11.8461
康居	-11.8461
将士	-11.8462
威震	-11.8462
所制	-11.8462
郭子	-11.8464
總章	-11.8466
拜相	-11.8466
祈雨	-11.8467
事見	-11.8468
大木	-11.847
不亂	-11.847
癸丑	-11.847
少隂	-11.8471
劓	-11.8472
幽居	-11.8473
糺	-11.8474
常伯	-11.8474
縣丞	-11.8474
租庸	-11.8475
湘州	-11.8475
者輙	-11.8476
為東	-11.8476
糲	-11.8476
十畝	-11.8477
存問	-11.848
或以為	-11.848
訪之	-11.8482
逺望	-11.8483
詩野	-11.8483
舊史	-11.8485
太子舍人	-11.8486
先入	-11.8488
銅錢	-11.8488
名字	-11.8489
不竭	-11.8491
文理	-11.8494
而返	-11.8495
齊楚	-11.8495
竟無	-11.8496
瑶池	-11.8496
馬牛	-11.8498
不均	-11.8498
聽政	-11.8498
楊雄	-11.85
嚙	-11.85
陵侯	-11.8502
憐之	-11.8502
璵	-11.8503
有何	-11.8503
綢繆	-11.8504
恩信	-11.8504
震動	-11.8504
雍容	-11.8505
毫釐	-11.8506
𠂻	-11.8506
酲	-11.8507
帝召	-11.8507
失職	-11.8507
喝	-11.8508
季札	-11.8508
八陣	-11.8509
思其	-11.851
所繇	-11.8511
不書	-11.8512
别墅	-11.8512
泗州	-11.8512
三品以上	-11.8514
我朝	-11.8515
堯典	-11.8515
子房	-11.8516
慟哭	-11.8516
惡人	-11.8517
庶民	-11.8519
律厯志	-11.8519
河清	-11.852
不審	-11.852
儒雅	-11.852
周書曰	-11.8521
邴	-11.8522
▁杜	-11.8522
紫芝	-11.8522
小民	-11.8523
為務	-11.8523
變色	-11.8525
漏刻	-11.8526
咀	-11.8526
▁皮日休	-11.8526
之精也	-11.8527
陘	-11.8528
别名	-11.8528
棼	-11.8528
椅	-11.8529
敢忘	-11.853
匕首	-11.853
丁謂	-11.8532
敬則	-11.8533
太夫人	-11.8533
元史世祖紀	-11.8533
之墟	-11.8533
相聞	-11.8534
挽歌	-11.8534
亊	-11.8534
士衆	-11.8535
三昧	-11.8536
狐裘	-11.8537
則易	-11.8537
國夫人	-11.8537
錦袍	-11.8539
就第	-11.854
▁宋書	-11.8542
不惜	-11.8543
裔孫	-11.8543
漠漠	-11.8544
鸞鳯	-11.8544
虱	-11.8546
欲見	-11.8546
一端	-11.8546
者葢	-11.8547
陳陶	-11.8548
定其	-11.8548
白髪	-11.8548
叢生	-11.855
一葉	-11.855
總載	-11.8551
安敢	-11.8552
史書	-11.8553
冨貴	-11.8553
崗	-11.8554
山池	-11.8554
憂之	-11.8556
自取	-11.8556
周太祖	-11.8557
濞	-11.8557
熖	-11.8558
歴陽	-11.8558
羶	-11.8558
貧人	-11.8559
乘之	-11.8559
戱	-11.8559
尤重	-11.856
常恐	-11.856
鮑溶	-11.8561
▁魏書	-11.8561
幙	-11.8561
吾心	-11.8561
兑	-11.8562
為中書侍郎	-11.8562
協律	-11.8563
里人	-11.8563
斗牛	-11.8564
懼其	-11.8566
位次	-11.8566
故城	-11.8566
二年八月	-11.8567
不傷	-11.8567
香氣	-11.8568
轉相	-11.8568
諸臣	-11.8568
千歳	-11.8569
季布	-11.857
禮器	-11.8573
西羌	-11.8573
俸禄	-11.8574
貧窮	-11.8575
百數	-11.8575
韓非	-11.8577
上聲	-11.8577
貴者	-11.8577
尋陽	-11.8579
二物	-11.858
年五十	-11.8582
嫁女	-11.8582
竹葉	-11.8583
安有	-11.8585
痺	-11.8585
婕妤	-11.8586
二十卷	-11.8587
於陵	-11.8587
方平	-11.8587
短小	-11.859
瀕	-11.8591
天理	-11.8591
漢記	-11.8592
二百餘	-11.8592
亦已	-11.8596
聽其	-11.8597
臧否	-11.8599
豈其	-11.8603
秦穆公	-11.8604
秦觀	-11.8604
而觀之	-11.8605
感動	-11.8605
號稱	-11.8606
元后	-11.8606
又按	-11.8606
九子	-11.8606
郷里	-11.8607
是之謂	-11.8608
君家	-11.8609
辟邪	-11.861
霜降	-11.861
三十九	-11.861
作賦	-11.8611
所記	-11.8612
之應	-11.8612
精氣	-11.8613
水出焉	-11.8614
饔	-11.8616
郡丞	-11.8616
諸家	-11.8616
怛	-11.8617
史臣	-11.8618
謝罪	-11.8619
王畿	-11.862
無名氏	-11.8621
初除	-11.8622
竹杖	-11.8622
犬戎	-11.8622
知貢舉	-11.8622
商音	-11.8623
聞有	-11.8624
而化	-11.8624
磐	-11.8625
吹笙	-11.8626
少女	-11.863
劉公	-11.863
服䖍	-11.863
周成王	-11.8631
大家	-11.8632
發憤	-11.8633
掾史	-11.8633
惟新	-11.8634
忠直	-11.8634
遜位	-11.8635
所置	-11.8636
日久	-11.8637
徳威	-11.8638
下詔曰	-11.8638
▁齊書	-11.8639
積水	-11.864
李景	-11.864
常州	-11.8642
手持	-11.8644
畎	-11.8645
同居	-11.8646
如雪	-11.8649
商旅	-11.865
鳳閣	-11.8651
宋書武帝紀	-11.8651
晉書天文志	-11.8652
從風	-11.8652
黔首	-11.8653
漢書五行志	-11.8654
以德	-11.8654
失禮	-11.8655
大川	-11.8655
不能制	-11.8655
鄆州	-11.8655
逸民	-11.8656
淺深	-11.8658
宮室	-11.8658
元初	-11.8658
露布	-11.8659
作相	-11.866
為梁	-11.8662
此官	-11.8663
大統	-11.8666
衆寡	-11.8667
閃	-11.8667
則不然	-11.8667
通用	-11.867
朝儀	-11.867
冠者	-11.8671
祲	-11.8671
孝孫	-11.8671
用力	-11.8671
嘔	-11.8672
逃亡	-11.8672
相府	-11.8672
佺	-11.8673
所望	-11.8673
上中下	-11.8674
己酉	-11.8674
元年改	-11.8675
蘧	-11.8675
嵓	-11.8675
瑶臺	-11.8676
楚楚	-11.8677
害也	-11.8677
文史	-11.8677
剰	-11.8678
自出	-11.8678
五斗	-11.8678
夜郎	-11.8679
閥	-11.8679
之詞	-11.868
始自	-11.868
僚屬	-11.8681
精明	-11.8681
登封	-11.8681
湖廣	-11.8681
花下	-11.8682
遣兵	-11.8683
武夫	-11.8685
移於	-11.8686
章奏	-11.8687
沁	-11.8687
不返	-11.8688
作此	-11.8688
氣如	-11.8688
依依	-11.8689
精於	-11.8691
少牢	-11.8692
百四十	-11.8693
􁈍	-11.8693
傅元	-11.8693
宫商	-11.8693
皇孫	-11.8694
𥜗	-11.8696
之候	-11.8696
威靈	-11.8696
其質	-11.8696
稱疾不	-11.8697
其鋒	-11.8699
所感	-11.8699
正當	-11.87
北邊	-11.87
入閣	-11.87
堯之	-11.87
昭君	-11.8701
羅鄴	-11.8701
惋	-11.8702
溲	-11.8703
内臣	-11.8703
攪	-11.8704
郇	-11.8704
飲馬	-11.8706
蕭然	-11.8706
連城	-11.8707
三郡	-11.8707
源流	-11.8708
天下事	-11.871
為帝	-11.8711
宗師	-11.8711
不能無	-11.8712
丞郎	-11.8712
應詔詩	-11.8713
善歌	-11.8714
内府	-11.8714
一百六十	-11.8714
金丹	-11.8714
進見	-11.8715
死傷	-11.8715
導引	-11.8717
事對	-11.8717
端正	-11.8717
與戰	-11.8719
宣示	-11.872
麑	-11.8721
問焉	-11.8722
四國	-11.8722
珠簾	-11.8723
乎吾	-11.8723
詔使	-11.8723
北向	-11.8725
微時	-11.8726
駘	-11.8726
鞍馬	-11.8727
襖	-11.8729
貧無	-11.8729
罩	-11.8729
菟	-11.8729
氂	-11.873
小過	-11.8732
感悟	-11.8733
薦舉	-11.8733
倉廩	-11.8734
讖	-11.8734
宜陽	-11.8735
入官	-11.8736
不足為	-11.8736
仁孝	-11.8738
神䇿	-11.8739
祈禱	-11.874
王郎	-11.874
不爾	-11.8741
元龜	-11.8743
朝請	-11.8744
以紀	-11.8745
十嵗	-11.8746
中星	-11.8748
徐幹	-11.8748
嘗言	-11.8748
疾也	-11.8748
寓居	-11.8749
至長安	-11.8749
兩漢	-11.8749
祀天	-11.875
之譽	-11.8752
不豫	-11.8753
兒女	-11.8753
世系	-11.8753
前事	-11.8753
事物紺珠	-11.8753
彼此	-11.8754
必至	-11.8755
大河	-11.8755
春申君	-11.8756
仙芝	-11.8757
取於	-11.8757
外家	-11.8758
扄	-11.8759
裸	-11.8759
出行	-11.8759
原杜氏通典曰	-11.876
聞道	-11.876
太和中	-11.8764
北史魏	-11.8765
二年六月	-11.8766
貢賦	-11.8767
牛僧孺	-11.8768
詔問	-11.8768
捕之	-11.8768
孝宣	-11.877
荆門	-11.8771
得賢	-11.8771
萬象	-11.8771
司寇	-11.8772
塞下	-11.8773
遂定	-11.8773
升平	-11.8774
之雄	-11.8775
三師	-11.8776
遂命	-11.8776
未始	-11.8776
真卿	-11.8779
乃請	-11.8779
氣象	-11.8781
一陽	-11.8782
嵬	-11.8783
則可以	-11.8783
阡	-11.8784
未畢	-11.8784
槌	-11.8785
璉	-11.8787
柟	-11.8787
埶	-11.8787
二千人	-11.8788
玉藻	-11.8788
蹴	-11.8788
三年三月	-11.8789
媛	-11.8789
其樹	-11.879
才子	-11.8793
自昔	-11.8793
纚	-11.8793
曰古之	-11.8794
酌酒	-11.8794
泉水	-11.8795
家僮	-11.8796
西行	-11.8797
知命	-11.8797
户牖	-11.8798
劒南	-11.8798
斯言	-11.8798
為中書舍人	-11.8799
内出	-11.8799
丨丨飛	-11.8801
置一	-11.8803
龍山	-11.8803
黄庭	-11.8804
儒林傳	-11.8805
楊萬里詩	-11.8806
而與之	-11.8807
典故	-11.8807
赫連	-11.881
即墨	-11.881
黄山	-11.8812
林逋	-11.8813
武王伐紂	-11.8813
蘇峻	-11.8814
夬	-11.8814
淋	-11.8814
衒	-11.8814
女弟	-11.8815
四日	-11.8815
書禹貢	-11.8816
嘿	-11.8817
齋詩	-11.8817
茭	-11.8817
五十五	-11.8817
戎服	-11.8818
其女	-11.8818
鐙	-11.8819
世謂	-11.8819
埭	-11.8821
武元衡	-11.8822
攝提	-11.8822
防禦	-11.8823
翠微	-11.8825
韓公	-11.8827
聖王之	-11.8827
援筆	-11.8828
土中	-11.8828
虞人	-11.8829
鷹揚	-11.8835
倐忽	-11.8835
非時	-11.8836
三章	-11.8838
生擒	-11.8838
以刀	-11.8841
補案	-11.8841
王庭	-11.8841
能得	-11.8842
八嵗	-11.8843
疾篤	-11.8843
射雉	-11.8843
揜	-11.8845
拄	-11.8845
七分	-11.8846
暌	-11.8848
其居	-11.8848
祏	-11.8848
中夏	-11.8848
孝伯	-11.8848
立朝	-11.8849
楊梅	-11.885
本𫝊	-11.885
鬱鬱	-11.8853
守禦	-11.8854
字敬	-11.8854
者為之	-11.8855
崔鴻	-11.8855
韓滉	-11.8856
歎其	-11.8856
事必	-11.8857
因令	-11.8857
三増	-11.8858
崔融	-11.8858
將何以	-11.886
嗇夫	-11.8861
塞外	-11.8862
病死	-11.8862
祕閣	-11.8864
慕之	-11.8864
乾祐	-11.8866
時方	-11.8867
元年十二月	-11.8867
路人	-11.8867
承業	-11.8869
助教	-11.8869
以拒	-11.8869
别詩	-11.8871
岌	-11.8871
應鍾	-11.8871
以便	-11.8872
熬	-11.8872
其謀	-11.8872
書事詩	-11.8873
殿門	-11.8873
祛	-11.8873
伍子胥	-11.8874
晁補之	-11.8874
者不過	-11.8874
因氏焉	-11.8874
身長八尺	-11.8874
縣吏	-11.8874
玭	-11.8875
落葉	-11.8876
流入	-11.8876
北堂書鈔	-11.8876
于前	-11.8876
魯連	-11.8876
徐勉	-11.8876
稱曰	-11.8877
纈	-11.8877
家財	-11.8877
孟軻	-11.8878
得金	-11.8878
二年五月	-11.8878
為河南尹	-11.8878
匄	-11.8879
謙之	-11.8879
遼西	-11.8879
袁盎	-11.888
開元初	-11.8883
甲科	-11.8884
勞而	-11.8885
子羽	-11.8885
聨句	-11.8886
近於	-11.8888
宫女	-11.889
大厦	-11.8891
所領	-11.8892
四維	-11.8893
府中	-11.8895
晉平公	-11.8896
書籍	-11.8896
恐非	-11.8897
律中	-11.8898
北狄	-11.8899
延陵	-11.8901
説文曰	-11.8901
那得	-11.8901
狀似	-11.8902
駛	-11.8902
公使	-11.8903
矚	-11.8903
清浄	-11.8903
不預	-11.8903
不流	-11.8903
妻妾	-11.8904
守備	-11.8905
聞人	-11.8906
三面	-11.8907
尸子曰	-11.8911
太平公主	-11.8911
廣西	-11.8911
御座	-11.8914
守正	-11.8916
考試	-11.8917
不敢復	-11.8918
投水	-11.8919
二等	-11.892
寒氣	-11.8922
何氏	-11.8923
避地	-11.8925
歳時	-11.8925
李洞	-11.8926
尚父	-11.8926
矣遂	-11.8926
賢不肖	-11.8927
出軍	-11.8927
所從	-11.893
美玉	-11.8931
豆盧	-11.8933
洵	-11.8933
棨	-11.8934
視聽	-11.8934
峡	-11.8934
上巳	-11.8934
李商隐	-11.8935
君不見	-11.8935
兵馬使	-11.8935
言訖	-11.8936
焉能	-11.8936
小人之	-11.8936
國貢	-11.8936
獻王	-11.8937
塼	-11.8937
内庫	-11.8937
四十六	-11.8938
養性	-11.8938
平侯	-11.8938
仲冬	-11.8938
營室	-11.8939
七國	-11.8939
其面	-11.894
中元	-11.894
能通	-11.8941
昭義	-11.8941
使君詩	-11.8943
楊炎	-11.8944
年號	-11.8946
始安	-11.8948
所受	-11.8948
嵗星	-11.8948
安置	-11.8949
復出	-11.8949
磁	-11.8949
留别	-11.8951
扵是	-11.8951
買臣	-11.8951
搜神記	-11.8953
筆硯	-11.8954
以喻	-11.8954
因得	-11.8955
談笑	-11.8955
瞑	-11.8956
公叔	-11.8956
者常	-11.8957
盛時	-11.8958
州界	-11.8959
洛陽伽藍記	-11.8959
色赤	-11.896
為諸侯	-11.896
帕	-11.8961
嗚	-11.8962
城池	-11.8962
都亭	-11.8965
請問	-11.8966
法曹	-11.8967
丨丨丨之丨	-11.8967
彎弓	-11.8967
㩁	-11.8968
太宗時	-11.897
縣名	-11.897
也原	-11.897
魯望	-11.8971
吳中	-11.8973
六氣	-11.8974
家屬	-11.8974
銓衡	-11.8975
齊神武	-11.8977
康成	-11.8978
四萬	-11.8979
外官	-11.898
都監	-11.898
牛角	-11.8981
袤	-11.8981
諸夏	-11.8982
樣	-11.8983
陽平	-11.8983
悦之	-11.8986
號丨丨丨	-11.8986
皇城	-11.8986
吹之	-11.8987
煒	-11.8988
陸士衡	-11.8989
曹爽	-11.899
鴻漸	-11.899
四鎮	-11.899
苦寒	-11.899
庭前	-11.899
以罪	-11.899
楊震	-11.899
史記封禪書	-11.8991
悄	-11.8993
一百三十	-11.8993
惹	-11.8993
抉	-11.8993
究其	-11.8995
希夷	-11.8995
大荒	-11.8997
廣川	-11.8998
軍糧	-11.8998
墩	-11.8999
家貧無	-11.9
師掌	-11.9
秘書郎	-11.9001
機務	-11.9003
月朔	-11.9003
講學	-11.9004
貴嬪	-11.9005
廣雅	-11.9005
為義	-11.9006
捕魚	-11.9007
唐髙祖	-11.9008
微子	-11.9008
春雨	-11.9009
不可使	-11.9012
央	-11.9012
東野	-11.9013
碭	-11.9013
援琴	-11.9014
倕	-11.9014
乃謂	-11.9015
當代	-11.9015
也至於	-11.9016
大樂	-11.9017
吾道	-11.9018
拏	-11.9019
丨丨香	-11.902
薛道衡	-11.9022
不察	-11.9024
張翥	-11.9024
年四十	-11.9025
傳今	-11.9026
西蜀	-11.9027
桓譚	-11.9029
漢書郊祀志	-11.9029
元稹詩	-11.9029
頃刻	-11.9031
不急	-11.9032
丘山	-11.9032
果如	-11.9034
貴於	-11.9034
格物	-11.9034
非我	-11.9035
曰此是	-11.9035
一統	-11.9037
牛𢎞	-11.9037
流俗	-11.9038
鮮明	-11.9039
延州	-11.9039
在昔	-11.9041
以補	-11.9042
帷帳	-11.9043
不調	-11.9044
修徳	-11.9044
才名	-11.9046
駰	-11.9046
天后	-11.9047
百六十	-11.9047
然後知	-11.9047
黎民	-11.9047
槨	-11.9048
果毅	-11.9048
迎春	-11.9049
亡矣	-11.9049
陽門	-11.905
五臟	-11.905
五十四	-11.905
萬全	-11.9051
蛩	-11.9052
四年二月	-11.9053
身體	-11.9054
粲然	-11.9056
萬夫	-11.9057
將歸	-11.9057
莫測	-11.9059
焉用	-11.9059
應璩	-11.906
亦在	-11.906
恥之	-11.9061
車上	-11.9062
將作	-11.9064
潔白	-11.9064
戰死	-11.9065
交結	-11.9066
二十九年	-11.9066
也或曰	-11.9066
所不及	-11.9068
俗云	-11.9068
于地	-11.9068
害人	-11.907
榮辱	-11.9071
亦同	-11.9071
箎	-11.9071
彦博	-11.9071
入洛	-11.9072
朝宗	-11.9072
誰可	-11.9074
〇	-11.9074
鴻臚卿	-11.9075
錮	-11.9076
遁去	-11.9076
其變	-11.9076
咒	-11.9076
辛卯	-11.9076
龐	-11.9077
家法	-11.9077
貟外	-11.9077
峩峩	-11.9079
人不知	-11.9079
而往	-11.9079
絆	-11.9079
鷙鳥	-11.908
事宜	-11.908
親信	-11.908
相州	-11.9081
䆒	-11.9081
列仙傳曰	-11.9082
炷	-11.9083
不惟	-11.9084
二龍	-11.9084
成侯	-11.9084
宿衞	-11.9085
吕蒙	-11.9086
修之	-11.9087
而愈	-11.9087
上夀	-11.9088
者咸	-11.909
萱草	-11.909
盤庚	-11.909
以慰	-11.9091
未有不	-11.9091
好生	-11.9092
我欲	-11.9092
鹿角	-11.9093
飢寒	-11.9096
中山王	-11.9096
麻姑	-11.9096
制誥	-11.9097
羅浮山	-11.9097
九嬪	-11.9098
皇朝事實	-11.9098
其祖	-11.9099
從來	-11.9099
續㑹要	-11.9099
玉璽	-11.9099
而前	-11.91
三篇	-11.91
丞一人	-11.9101
光華	-11.9102
衆咸	-11.9103
於太廟	-11.9104
衛青	-11.9104
鬐	-11.9104
徐邈	-11.9105
蝎	-11.9105
掌之	-11.9105
常居	-11.9105
為副	-11.9106
瀬	-11.9107
東序	-11.9107
南史曰	-11.9107
刑政	-11.9107
璹	-11.9108
王涯	-11.9108
至自	-11.911
薩都拉	-11.911
范睢	-11.911
韓詩外傳曰	-11.9111
不敢以	-11.9111
牛尾	-11.9111
唐志	-11.9111
自負	-11.9112
䆳	-11.9112
不可食	-11.9113
陳子昂	-11.9113
于庭	-11.9114
此花	-11.9114
祖廟	-11.9114
楚莊王	-11.9115
自新	-11.9116
書契	-11.9117
後改	-11.9117
進兵	-11.9118
美惡	-11.9118
四州	-11.9119
千門	-11.912
巴東	-11.9122
鍾離意	-11.9123
河流	-11.9124
尚食	-11.9125
命駕	-11.9126
意在	-11.9126
帝前	-11.9127
族人	-11.9128
而加	-11.9128
秦軍	-11.9128
薛宣	-11.9129
乞食	-11.9131
有靈	-11.9133
奉養	-11.9133
四里	-11.9133
悔之	-11.9134
蚯蚓	-11.9135
所願	-11.9135
癘	-11.9136
鐶	-11.9137
春水	-11.9137
㽔	-11.9138
歘	-11.9138
助祭	-11.9139
一戰	-11.914
市中	-11.9142
感而	-11.9143
之澤	-11.9143
保定	-11.9146
以寛	-11.9146
人性	-11.9146
西階	-11.9147
亦多	-11.9147
召拜	-11.9147
後漢書輿服志	-11.9148
計其	-11.9149
臺詩	-11.9149
園池	-11.9149
曲阿	-11.9149
無違	-11.915
如雨	-11.9151
謝賜	-11.9154
而外	-11.9154
龍飛	-11.9155
依前	-11.9155
其子孫	-11.9156
獲之	-11.9157
大唐	-11.9159
歎服	-11.9159
山崩	-11.9162
水清	-11.9162
千鈞	-11.9162
等處	-11.9164
一半	-11.9165
龍圖	-11.9166
珩	-11.9167
雇	-11.9168
番禺	-11.9169
曽祖	-11.917
狐狸	-11.9171
三重	-11.9171
金印	-11.9172
窶	-11.9172
筏	-11.9173
乃發	-11.9175
之事也	-11.9175
南朝	-11.9176
唐韻集韻韻㑹正	-11.9177
固當	-11.9177
三歲	-11.9178
新婦	-11.9178
愕	-11.9179
入相	-11.9179
異端	-11.9179
六韜	-11.918
元禮	-11.9181
時人稱	-11.9181
修道	-11.9182
蔡襄	-11.9182
不諱	-11.9183
相賀	-11.9184
戎車	-11.9186
窮極	-11.9187
周禮大	-11.9187
潯	-11.9188
朕躬	-11.9188
俱在	-11.9188
比肩	-11.919
思逺	-11.919
吹簫	-11.9191
鷸	-11.9191
春宫	-11.9191
元結	-11.9193
委曲	-11.9193
弱水	-11.9194
省事	-11.9194
辭去	-11.9194
朓	-11.9197
元帝時	-11.9197
昔日	-11.9197
貙	-11.9197
好音	-11.9197
篚	-11.9198
罝	-11.9198
氏族	-11.9199
物故	-11.9199
華蓋	-11.92
張衡西京賦	-11.9201
頊	-11.9201
得玉	-11.9201
其計	-11.9201
虚實	-11.9202
蒔	-11.9204
九龍	-11.9205
長久	-11.9206
冬則	-11.9207
郡邑	-11.9207
使得	-11.9207
望之如	-11.9209
城陽	-11.9209
說曰	-11.9211
帝王世紀曰	-11.9212
為陽	-11.9213
烽火	-11.9214
宣諭	-11.9215
漢明帝	-11.9215
元濟	-11.9216
則死	-11.9216
澄清	-11.9219
止于	-11.9219
因言	-11.9219
渠帥	-11.9219
遂入	-11.922
對曰臣聞	-11.9222
循環	-11.9223
天光	-11.9226
元昊	-11.9228
舉止	-11.9228
之列	-11.9228
忠言	-11.9228
徳明	-11.9229
光祿	-11.9229
嗅	-11.9229
蒋	-11.923
帟	-11.923
宣布	-11.923
枷	-11.923
淅	-11.923
丁卯	-11.9231
驚駭	-11.9231
祟	-11.9231
又使	-11.9232
聲音	-11.9232
蓬蒿	-11.9232
三府	-11.9233
岑文本	-11.9234
人持	-11.9235
池水	-11.9236
所乗	-11.9236
以銀	-11.9236
鎮東	-11.9236
家語曰	-11.9237
工部侍郎	-11.9237
折節	-11.9237
南中	-11.9238
斛律	-11.9239
故作	-11.924
泉州	-11.924
▁左傳	-11.9242
易簡	-11.9242
櫻	-11.9242
梁昭明太子	-11.9243
也對曰	-11.9243
沉香	-11.9243
順流	-11.9244
區宇	-11.9244
六千	-11.9245
娶妻	-11.9245
方物	-11.9246
人事部	-11.9247
三種	-11.9248
發揮	-11.9249
亦謂	-11.9249
因以名	-11.9249
當道	-11.925
白沙	-11.9251
一百八十	-11.9252
有疑	-11.9252
仍以	-11.9253
離别	-11.9255
雞犬	-11.9256
概	-11.9257
我當	-11.9258
喪亂	-11.9258
芷	-11.9259
賦歛	-11.9259
廣志	-11.926
二千里	-11.926
罔極	-11.926
不得與	-11.926
討平之	-11.9261
闐	-11.9262
有所不	-11.9262
掃除	-11.9263
歐陽詹	-11.9263
無際	-11.9263
傳言	-11.9264
宜都	-11.9264
何爲	-11.9264
遇雨	-11.9265
耿介	-11.9266
材官	-11.9266
漢官儀	-11.9267
不省	-11.9268
元戎	-11.9269
非法	-11.927
咸稱	-11.9271
文質	-11.9273
水銀	-11.9273
蜀志曰	-11.9273
仙客	-11.9273
能無	-11.9274
五十六	-11.9275
逺者	-11.9275
列女	-11.9276
唐書食貨志	-11.9276
雙闕	-11.9276
垠	-11.9278
令一人	-11.9279
千樹	-11.9279
除名	-11.9279
黔中	-11.9279
東行	-11.928
不留	-11.9282
曽無	-11.9282
天池	-11.9283
絙	-11.9283
庻人	-11.9283
之工	-11.9284
出城	-11.9284
一處	-11.9284
囚徒	-11.9284
飛白	-11.9285
無水	-11.9286
不告	-11.9286
蚩	-11.9286
州縣官	-11.9287
醤	-11.9288
科舉	-11.9288
本於	-11.9289
禮記曲禮	-11.9291
做	-11.9293
曲折	-11.9293
煬	-11.9293
少長	-11.9295
作者	-11.9295
鐘聲	-11.9295
什一	-11.9296
新法	-11.9297
甘蔗	-11.9298
擊破	-11.9299
外孫	-11.9299
侍坐	-11.93
次於	-11.9301
告於	-11.9301
聖㫖	-11.9301
故謂	-11.9302
水潦	-11.9303
征之	-11.9303
歸田	-11.9303
赤帝	-11.9304
南流	-11.9304
遂殺	-11.9304
因是	-11.9305
太祖曰	-11.9306
修行	-11.9307
青松	-11.9309
居於	-11.931
過丨丨	-11.931
韓愈送	-11.9311
烏程	-11.9312
方欲	-11.9313
為重	-11.9313
元符	-11.9313
九經	-11.9313
上意	-11.9316
四體	-11.9317
還鄉	-11.9317
持重	-11.9317
舉動	-11.9317
南平	-11.9318
沬	-11.9318
我獨	-11.9318
報國	-11.9318
一宿	-11.9319
御定駢字類編卷	-11.9319
逺人	-11.932
豫章王	-11.932
不復見	-11.932
緼	-11.9321
讜言	-11.9321
大武	-11.9321
清儉	-11.9322
鄭司農云	-11.9322
磑	-11.9323
修國史	-11.9323
何武	-11.9323
翣	-11.9323
留侯	-11.9323
胷中	-11.9323
最多	-11.9324
吉祥	-11.9324
哭泣	-11.9326
大矣	-11.9328
尊賢	-11.9328
一足	-11.9328
黄昏	-11.933
之倫	-11.933
稲	-11.9331
西流	-11.9333
孝敬	-11.9334
清平	-11.9334
自固	-11.9334
惜之	-11.9334
以為榮	-11.9334
員外詩	-11.9336
秣	-11.9336
并州刺史	-11.9336
三峽	-11.9336
安道	-11.9336
蕭瑀	-11.9337
趙魏	-11.9337
即便	-11.9337
之詔	-11.9343
駑馬	-11.9343
遂有	-11.9344
五大夫	-11.9346
皆能	-11.9346
枇杷	-11.9347
散騎侍郎	-11.9349
乙卯	-11.9349
苓	-11.9351
黄庭内景經	-11.9351
臣不敢	-11.9351
舁	-11.9352
恡	-11.9353
吏部郎中	-11.9353
求諸	-11.9353
特立	-11.9354
良醫	-11.9354
魯哀公	-11.9356
伯陽	-11.9356
在長安	-11.9357
不先	-11.936
不遑	-11.936
分紀	-11.9363
先知	-11.9363
東家	-11.9364
為法	-11.9365
魯侯	-11.9365
秋色	-11.9368
降於	-11.937
異物志曰	-11.937
良吏	-11.9371
將出	-11.9372
始立	-11.9373
衛人	-11.9374
上將軍	-11.9376
善書	-11.9377
二種	-11.9377
立成	-11.9378
霓裳	-11.9379
道宗	-11.9379
降之	-11.938
魯之	-11.938
鄭箋	-11.938
子母	-11.9381
千尋	-11.9383
靈山	-11.9384
薳	-11.9384
趂	-11.9385
湎	-11.9385
幽蘭	-11.9385
証	-11.9385
君君	-11.9385
物皆	-11.9386
人之心	-11.9386
韈	-11.9387
都虞候	-11.9387
以招	-11.9388
月氏	-11.9388
免之	-11.939
名將	-11.939
寒泉	-11.939
賜食	-11.9391
行止	-11.9394
如絲	-11.9397
之類也	-11.9397
之財	-11.9398
▁下見	-11.9398
元年以	-11.9399
功封	-11.94
閣詩	-11.94
香草	-11.9402
此書	-11.9402
庶政	-11.9402
取人	-11.9403
民田	-11.9406
夜深	-11.9406
多力	-11.9406
豈若	-11.9407
南城	-11.9407
周武王	-11.9407
謝承後漢書	-11.9407
繆公	-11.9408
二星	-11.9409
人姓	-11.9409
▁淮南子	-11.9409
乃奏	-11.941
僧孺	-11.9411
府事	-11.9411
疑是	-11.9412
伏生	-11.9412
腹下	-11.9413
大智度論	-11.9414
其妙	-11.9415
偃蹇	-11.9415
晏然	-11.9415
今我	-11.9415
四朝	-11.9415
犍	-11.9416
賀知章	-11.9416
漢書禮樂志	-11.9416
婆羅門	-11.9417
帝帝	-11.9418
李光弼	-11.9419
閭閻	-11.942
下令	-11.942
岳陽	-11.9421
曰昨	-11.9422
科斗	-11.9422
子産曰	-11.9423
監國	-11.9423
初拜	-11.9424
居喪	-11.9426
濟陽	-11.9426
靈龜	-11.9426
建興	-11.9427
鄭州	-11.9427
安人	-11.9428
名節	-11.9428
品物	-11.9429
三年四月	-11.943
相視	-11.943
娣	-11.9431
漢宫	-11.9431
無留	-11.9431
肉刑	-11.9433
鶡冠子	-11.9433
譏之	-11.9434
▁以上	-11.9435
不得過	-11.9436
所乘	-11.9437
莫得	-11.9437
帝與	-11.9438
其肉	-11.9439
其禍	-11.9439
合諸侯	-11.9439
其足	-11.944
髙皇帝	-11.944
太子洗馬	-11.944
庚戌	-11.944
文翁	-11.944
漢室	-11.9441
所惡	-11.9441
趺	-11.9442
之羙	-11.9442
安豐	-11.9442
蛛	-11.9443
鍵	-11.9443
悸	-11.9444
函谷	-11.9444
冉冉	-11.9444
挟	-11.9444
賢聖	-11.9445
去職	-11.9445
虎符	-11.9445
則謂之	-11.9446
郎君	-11.9446
以杖	-11.9446
受封	-11.9447
秦皇	-11.9447
両	-11.9448
譁	-11.9449
擊匈奴	-11.9449
自外	-11.9449
二年七月	-11.945
宣室	-11.945
曰昔者	-11.9453
屬官有	-11.9454
龍舟	-11.9454
奮擊	-11.9454
者輒	-11.9455
尺許	-11.9457
當塗	-11.9457
吏事	-11.9457
戰功	-11.9457
輔佐	-11.9459
東城	-11.9459
不茍	-11.9462
惟此	-11.9463
悉皆	-11.9464
湘水	-11.9464
列仙	-11.9465
不除	-11.9465
寛饒	-11.9466
造次	-11.9468
孛	-11.9469
前行	-11.9469
雲飛	-11.947
自持	-11.9472
穿井	-11.9472
廽	-11.9472
光庭	-11.9473
國忠	-11.9475
老臣	-11.9475
疚	-11.9476
方畧	-11.9476
謹案	-11.9477
釧	-11.9478
塾	-11.9478
桂州	-11.9478
荐	-11.9478
貰	-11.9479
王績	-11.948
飫	-11.948
百里奚	-11.9481
真君	-11.9481
周必大	-11.9481
梁國	-11.9481
十篇	-11.9483
水經注曰	-11.9483
推其	-11.9484
祀典	-11.9485
舊例	-11.9485
分遣	-11.9486
屈伸	-11.9486
利於	-11.9487
袁粲	-11.9487
各賜	-11.9487
之愛	-11.9488
享之	-11.9493
黄庭堅詩	-11.9494
曰聖人	-11.9494
十三人	-11.9494
東都事畧	-11.9494
進御	-11.9494
王吉	-11.9495
鰌	-11.9501
隤	-11.9501
荑	-11.9502
己未	-11.9502
素有	-11.9502
眡	-11.9502
一無所	-11.9503
膓	-11.9503
槀	-11.9504
後因	-11.9505
今臣	-11.9505
最後	-11.9506
誹謗	-11.9506
神異經	-11.9506
饋食	-11.9507
恰	-11.9508
中土	-11.9509
時珍曰	-11.9509
珙	-11.9509
下官	-11.9509
扁舟	-11.9509
李嘉祐	-11.9511
即命	-11.9512
青石	-11.9512
反叛	-11.9514
攻戰	-11.9515
複道	-11.9515
行矣	-11.9516
萬貫	-11.9517
王君	-11.9518
僧尼	-11.9518
杜佑	-11.9522
形狀	-11.9523
信乎	-11.9524
後母	-11.9525
祭器	-11.9525
手書	-11.9526
黒水	-11.9527
夾道	-11.953
永言	-11.953
骸骨	-11.9531
軛	-11.9532
一路	-11.9532
鵾	-11.9533
戡	-11.9533
致祭	-11.9533
滸	-11.9534
旺	-11.9535
關西	-11.9535
埏	-11.9535
孜	-11.9536
為人臣	-11.9536
起于	-11.9537
上命	-11.9537
魏國	-11.9538
竣	-11.9538
衽	-11.9539
菘	-11.9539
皆云	-11.9539
猶豫	-11.954
莊嚴	-11.9541
巨石	-11.9541
横流	-11.9542
人意	-11.9544
貂蟬	-11.9545
晶	-11.9546
而勿	-11.9546
容儀	-11.9547
二八	-11.9547
示人	-11.9549
三斗	-11.9552
撫之	-11.9552
六宗	-11.9554
哀矜	-11.9557
上將	-11.9557
袁術	-11.9557
京東	-11.9558
侍御詩	-11.956
朱博	-11.956
壇上	-11.9561
朱門	-11.9562
魯大夫	-11.9563
威福	-11.9564
殺戮	-11.9564
必自	-11.9565
麕	-11.9565
刑書	-11.9565
霍去病	-11.9567
失於	-11.9567
諸弟	-11.9567
荘宗	-11.9567
未之有也	-11.9567
壍	-11.9567
袪	-11.9568
館職	-11.9568
逌	-11.9569
吾當	-11.9569
何須	-11.9569
五千人	-11.957
突騎	-11.957
東閣	-11.957
將作大匠	-11.957
而君	-11.9571
咸和	-11.9571
拾遺記曰	-11.9571
有舊	-11.9573
咨嗟	-11.9574
東西南北	-11.9575
十道	-11.9576
臣之所	-11.9577
權勢	-11.9578
遣使朝貢	-11.9578
學術	-11.9578
螢火	-11.9579
乎且	-11.9579
卜之	-11.9579
帝賜	-11.9581
高下	-11.9582
畏其	-11.9583
當先	-11.9583
百餘萬	-11.9586
立于	-11.9587
之助	-11.9588
大戰	-11.9588
宛然	-11.9588
部下	-11.9589
王尊	-11.9589
外無	-11.9589
甚大	-11.9589
哀之	-11.9589
掾吏	-11.959
計吏	-11.959
云昔	-11.959
松詩	-11.9591
起丨丨	-11.9592
不能言	-11.9594
矣且	-11.9594
茀	-11.9595
夏州	-11.9595
為僕射	-11.9595
有虞	-11.9597
羃	-11.9599
南斗	-11.9599
賖	-11.9599
十二辰	-11.96
褭	-11.9601
如淳曰	-11.9602
傘	-11.9602
可行	-11.9603
謂曰卿	-11.9603
不斷	-11.9604
左傳晉	-11.9606
藩籬	-11.9608
冀州刺史	-11.9608
青春	-11.9609
五嶺	-11.9609
三百五十	-11.9611
上章	-11.9613
丗祖	-11.9614
文物	-11.9615
矣哉	-11.9617
卿雲	-11.9617
襄州	-11.9618
歸鄉里	-11.9618
晦朔	-11.9618
八荒	-11.9619
髙氏	-11.962
儼然	-11.962
近郊	-11.9622
常從	-11.9622
其側	-11.9623
種樹	-11.9624
之主也	-11.9625
元魏	-11.9626
藺相如	-11.9627
以北	-11.9627
大哉	-11.9628
崔嵬	-11.963
荃	-11.963
設官	-11.9631
相向	-11.9631
百餘年	-11.9634
倉廪	-11.9636
夢溪筆談	-11.9636
無幾	-11.9636
以仁	-11.9638
都鄙	-11.9639
寳鼎	-11.964
賢於	-11.9642
巖下	-11.9642
巨萬	-11.9644
及即位	-11.9647
小名	-11.9648
夜月	-11.9649
者必有	-11.9649
親愛	-11.9652
興化	-11.9652
性剛	-11.9654
九河	-11.9655
子瞻	-11.9657
黿鼉	-11.9658
靺鞨	-11.966
各二人	-11.966
墊	-11.966
汾水	-11.966
酹	-11.9662
天子諸侯	-11.9662
魯肅	-11.9662
椁	-11.9662
軍於	-11.9663
䏻	-11.9663
廣南	-11.9663
四十萬	-11.9663
華元	-11.9664
渤	-11.9664
不墜	-11.9665
君道	-11.9665
次曰	-11.9666
喉舌	-11.9666
五年正月	-11.9668
初無	-11.9669
台州	-11.967
之言也	-11.967
唐開元	-11.967
甲胄	-11.967
熟視	-11.9671
似丨丨	-11.9671
不充	-11.9672
跪而	-11.9675
詔有司	-11.9675
夏則	-11.9676
雲霄	-11.9676
三臺	-11.9678
送人	-11.9678
十載	-11.9678
行酒	-11.968
生日	-11.9681
元皇帝	-11.9681
年二月	-11.9681
以别	-11.9681
告于	-11.9683
無虞	-11.9685
佩之	-11.9686
千頃	-11.9687
皦	-11.9689
謝承	-11.9691
囹圄	-11.9691
者固	-11.9691
道里	-11.9692
十六日	-11.9692
楊花	-11.9694
趙王倫	-11.9695
時議	-11.9695
凑	-11.9696
金沙	-11.9698
禁錮	-11.9699
一器	-11.9701
以候	-11.9701
黄泉	-11.9703
集解	-11.9703
大駭	-11.9704
昭徳	-11.9705
九歌	-11.9706
管仲曰	-11.9707
此日	-11.9707
示以	-11.9708
視之乃	-11.9708
誰為	-11.9708
陳郡	-11.9708
未見其	-11.9709
帝曰朕	-11.9714
朝廷以	-11.9715
栅	-11.9715
華夷	-11.9716
兼御史大夫	-11.9716
武丁	-11.9718
照耀	-11.9719
方進	-11.9719
一隅	-11.972
四増	-11.9722
之由	-11.9722
格物總論	-11.9723
稱賀	-11.9723
玉環	-11.9725
毛詩正	-11.9725
未平	-11.9725
小山	-11.9725
年六十	-11.9726
櫃	-11.9726
瞬	-11.9726
藐	-11.9726
藂	-11.9727
為前鋒	-11.9727
大舉	-11.9727
樂記	-11.9728
罷相	-11.9729
下吏	-11.9729
號爲	-11.9729
安撫使	-11.973
皆由	-11.973
古樂府	-11.973
能令	-11.973
如龍	-11.973
殊死	-11.973
尤為	-11.973
之鄉	-11.9732
判度支	-11.9732
作丨丨丨	-11.9732
涇渭	-11.9733
遣子	-11.9733
厲聲	-11.9733
舊臣	-11.9733
錢榖	-11.9734
治獄	-11.9734
母也	-11.9736
即死	-11.9737
被誅	-11.9737
昌邑	-11.9739
英華	-11.974
甘泉宫	-11.9742
舉事	-11.9742
縣治	-11.9742
小功	-11.9743
止之曰	-11.9744
初封	-11.9744
其議	-11.975
哀樂	-11.9751
宗正卿	-11.9752
萬乗之	-11.9752
致死	-11.9752
河間王	-11.9752
四科	-11.9753
為諫議大夫	-11.9753
閘	-11.9753
城守	-11.9754
政治	-11.9754
隋置	-11.9755
躅	-11.9756
奕奕	-11.9756
追至	-11.9756
手中	-11.9757
都人	-11.9757
㗖	-11.9758
洞㝠記	-11.976
侍立	-11.9764
為吏部侍郎	-11.9764
不欺	-11.9764
緱氏	-11.9765
軍政	-11.9765
故聖人	-11.9766
四壁	-11.9767
等官	-11.9767
升天	-11.9768
千畝	-11.9769
以輔	-11.9769
康節	-11.9769
伯牙	-11.977
能治	-11.9771
嘉賔	-11.9772
祭服	-11.9774
詔命	-11.9774
和樂	-11.9776
仲父	-11.9777
所統	-11.9777
仭	-11.9777
子皮	-11.9777
以金銀	-11.9778
鼗	-11.9779
穆帝	-11.9779
龍文	-11.978
神異	-11.9781
閨門	-11.9781
厮	-11.9781
大匠	-11.9782
襲爵	-11.9782
居上	-11.9783
麽	-11.9788
年三十	-11.9788
孝昭	-11.9788
猩猩	-11.9788
二三子	-11.9789
纍纍	-11.9789
掃地	-11.9789
娟	-11.9789
釋迦	-11.9789
列星	-11.979
制勝	-11.979
晉安	-11.979
麫	-11.9791
甓	-11.9792
驅之	-11.9793
櫜	-11.9794
厲公	-11.9795
九疇	-11.9796
馬戴	-11.9796
哨	-11.9796
淮北	-11.9797
數寸	-11.9797
出使	-11.9797
赤城	-11.9797
疾疫	-11.9798
婚禮	-11.9799
一束	-11.9801
爾雅翼	-11.9801
掌書記	-11.9802
始封	-11.9802
漳水	-11.9803
昭陽	-11.9803
甚者	-11.9808
顯名	-11.9809
餘姚	-11.9809
集曰	-11.981
經費	-11.981
明帝紀	-11.981
河曲	-11.9811
都司	-11.9811
沙苑	-11.9811
扶持	-11.9812
入口	-11.9813
傾覆	-11.9814
此豈	-11.9815
冬十月	-11.9815
犨	-11.9816
大路	-11.9817
龍頭	-11.9817
不論	-11.9817
薈	-11.9817
大治	-11.9819
鄭玄	-11.9819
締	-11.9819
㠶	-11.982
樞密使	-11.982
南夷	-11.982
委質	-11.9822
而取之	-11.9822
建寧	-11.9823
賀蘭	-11.9824
馬邑	-11.9826
先零	-11.9829
廣東	-11.983
來貢	-11.983
曹氏	-11.983
百事	-11.983
便可	-11.983
詔獄	-11.983
毎至	-11.9831
雨水	-11.9832
遷徙	-11.9832
金馬	-11.9833
寡欲	-11.9834
集韻	-11.9836
樓閣	-11.9838
鈐轄	-11.9838
則能	-11.9838
穆子	-11.9839
相善	-11.9839
夜雨	-11.9839
筑	-11.9843
丨丨丨坡	-11.9843
詩見山	-11.9844
傷心	-11.9844
語言	-11.9844
今夕	-11.9845
所加	-11.9847
獼猴	-11.9847
平樂	-11.985
望月	-11.985
鸜鵒	-11.985
將去	-11.9851
庭樹	-11.9851
簸	-11.9851
銛	-11.9851
流亡	-11.9851
夏四月	-11.9852
初以	-11.9852
璡	-11.9852
不私	-11.9852
苦之	-11.9853
蘇軾次韻	-11.9853
其花	-11.9854
魚躍	-11.9854
楚有	-11.9855
北流	-11.9855
犬吠	-11.9856
寂寂	-11.9856
怪石	-11.9857
異乎	-11.9857
徒跣	-11.9857
應龍	-11.9858
於彼	-11.9858
隋書音樂志	-11.9858
忳	-11.986
秋雨	-11.986
雁門	-11.9861
二石	-11.9861
嗟乎	-11.9862
食貨	-11.9862
祖逖	-11.9863
東道	-11.9863
伽藍	-11.9865
驄馬	-11.9865
此鳥	-11.9865
夏口	-11.9866
所養	-11.9866
難知	-11.9866
有雙	-11.9869
歸附	-11.987
之服也	-11.987
邦家	-11.9871
祈福	-11.9872
禽之	-11.9872
漢儀	-11.9872
趙郡	-11.9875
王𢎞	-11.9875
二家	-11.9876
噎	-11.988
摰	-11.988
食人	-11.9881
紀年	-11.9881
徳義	-11.9881
劉克莊	-11.9882
赬	-11.9882
語林	-11.9882
羹	-11.9883
元光	-11.9883
宋均	-11.9883
摸	-11.9884
厝	-11.9885
為飾	-11.9885
蠃	-11.9886
立冬	-11.9886
諮議	-11.9888
傳父	-11.9888
一女子	-11.9888
鳥名	-11.9889
觀象	-11.989
畫一	-11.9896
為災	-11.9897
李義	-11.9899
五十人	-11.9899
水灌	-11.99
龍馬	-11.99
繫囚	-11.9901
不辨	-11.9901
風雅	-11.9902
笈	-11.9902
丨丨開	-11.9902
並用	-11.9903
宫内	-11.9906
軍器	-11.9907
旬月	-11.9907
繫辭	-11.9908
神物	-11.9908
非復	-11.9909
武陽	-11.991
左右丞	-11.991
良臣	-11.9911
壬戌	-11.9911
洽聞	-11.9912
明朝	-11.9913
馬步	-11.9913
邳	-11.9914
賾	-11.9914
七歲	-11.9915
不乏	-11.9916
烏鵲	-11.9916
引之	-11.9917
張融	-11.9917
桎梏	-11.9917
藜藿	-11.9918
鸞鳳	-11.9919
而藏之	-11.9919
元年十一月	-11.992
階下	-11.9921
無外	-11.9923
賜死	-11.9923
日知	-11.9925
糚	-11.9926
公議	-11.9927
勇也	-11.9927
應劭曰	-11.9927
固讓	-11.9928
並詳	-11.9929
臣妾	-11.993
玉盤	-11.9931
二年九月	-11.9931
自我	-11.9933
朱明	-11.9933
為質	-11.9935
戰陣	-11.9937
千四百	-11.9937
二年十月	-11.9937
元凱	-11.9937
晉紀	-11.9939
又復	-11.994
典謨	-11.994
愛子	-11.994
註丨丨	-11.9941
夾鍾	-11.9941
鯽	-11.9942
大将	-11.9944
六甲	-11.9945
於其間	-11.9945
皆令	-11.9946
良將	-11.9946
嗚咽	-11.9947
叔向曰	-11.9947
顔氏	-11.9948
値	-11.9949
鍤	-11.995
紫宫	-11.995
霏霏	-11.995
威王	-11.9951
血流	-11.9956
官舍	-11.9958
刑部侍郎	-11.9959
司農卿	-11.9959
典選	-11.996
異焉	-11.996
部二	-11.9961
朱紫	-11.9962
班彪	-11.9962
盛則	-11.9964
戲之曰	-11.9964
潁川太守	-11.9965
昭陵	-11.9966
罵曰	-11.9966
行列	-11.9967
厯志	-11.9968
不可謂	-11.9969
漢書食貨志	-11.9969
荆王	-11.997
皇太	-11.9973
貨殖	-11.9973
二篇	-11.9973
萬金	-11.9974
以本官	-11.9976
亦不可	-11.9976
文翰	-11.9976
漢宣帝	-11.9976
窮困	-11.9977
名器	-11.9978
爰有	-11.9979
杵臼	-11.998
勔	-11.998
必使	-11.9981
栝	-11.9982
其物	-11.9982
鷹隼	-11.9982
暴露	-11.9982
中士	-11.9984
千金之	-11.9984
分散	-11.9984
珪璋	-11.9984
轝	-11.9985
百千	-11.9986
用刑	-11.9986
大用	-11.9987
鄴中記	-11.9987
一百一十	-11.9987
豈宜	-11.9988
伏望	-11.9988
未安	-11.999
未嘗見	-11.999
者斬	-11.9992
其音如	-11.9993
又曰劉	-11.9993
危亡	-11.9997
嗣宗	-11.9998
祠堂	-11.9998
覆以	-11.9998
漢人	-11.9999
人部	-12
西土	-12.0001
徐氏	-12.0002
楚州	-12.0002
議欲	-12.0003
犀象	-12.0005
黄鉞	-12.0006
之秀	-12.0006
▁元	-12.0007
檢討	-12.0007
雲如	-12.0008
銅鐵	-12.0008
暴風	-12.001
李百藥	-12.0011
為限	-12.0011
李夫人	-12.0012
少保	-12.0012
何也曰	-12.0012
楚客	-12.0013
有謀	-12.0013
蘇舜欽	-12.0013
興兵	-12.0013
軿	-12.0014
淹留	-12.0014
贑	-12.0015
綻	-12.0019
堪為	-12.0019
載籍	-12.002
孝惠	-12.002
澗水	-12.0021
耶律	-12.0022
要之	-12.0023
夜中	-12.0023
林泉	-12.0024
雍熙	-12.0027
國名	-12.0028
誤矣	-12.0028
孝寛	-12.003
不能盡	-12.0032
盧植	-12.0032
赫然	-12.0032
嘗夢	-12.0032
射殺	-12.0033
白魚	-12.0033
秘書省	-12.0034
不達	-12.0035
弓箭	-12.0035
御馬	-12.0036
牡丹詩	-12.0037
之手	-12.0039
之微	-12.0039
不過一	-12.004
晏殊	-12.004
犍為	-12.004
續文獻通考曰	-12.004
皮為	-12.0041
人形	-12.0041
節義	-12.0041
風聲	-12.0042
崛	-12.0042
天台山	-12.0042
繫於	-12.0042
三日而	-12.0042
非惟	-12.0043
習之	-12.0044
鑄銅	-12.0044
蹀	-12.0045
螽	-12.0046
神功	-12.0046
早秋	-12.0047
王十朋	-12.0047
天皇	-12.0048
陳思王	-12.0048
子姪	-12.0049
憙	-12.0049
牙門	-12.0049
夹	-12.0049
飛雲	-12.005
三年五月	-12.005
四牡	-12.0051
假令	-12.0051
以孝聞	-12.0052
厥後	-12.0052
曰王者	-12.0053
調和	-12.0058
安得不	-12.0058
魏元忠	-12.0059
子華子	-12.0061
七世	-12.0061
以女妻之	-12.0063
為尚書郎	-12.0063
毛傳	-12.0064
凡諸	-12.0064
竹箭	-12.0065
致書	-12.0066
少康	-12.0067
庶績	-12.0067
張協	-12.0068
革命	-12.0069
孝義	-12.0069
勇者	-12.0069
成康	-12.007
白羽	-12.007
雪山	-12.007
光耀	-12.0071
皆成	-12.0071
天禄	-12.0072
萬斤	-12.0072
詳見	-12.0073
任賢	-12.0073
兩耳	-12.0073
幬	-12.0074
大暑	-12.0075
躓	-12.0077
本草集解	-12.0077
㐫	-12.0077
襍	-12.0077
罇	-12.0079
籃	-12.0079
𨗳	-12.0079
即有	-12.0081
慵	-12.0081
翰苑	-12.0081
妄言	-12.0082
塗炭	-12.0085
未為	-12.0085
不競	-12.0088
向日	-12.0088
勿使	-12.009
大農	-12.0092
少游	-12.0093
四十三	-12.0093
千三百	-12.0093
王朗	-12.0094
皆然	-12.0094
張元	-12.0094
趙盾	-12.0094
海岱	-12.0094
之巧	-12.0095
故地	-12.0096
不直	-12.0096
暴虐	-12.0096
恭王	-12.0096
劍南	-12.0097
襲封	-12.0099
諭之	-12.01
上尊號	-12.0101
當復	-12.0102
太古	-12.0102
美酒	-12.0103
雪霜	-12.0105
聚斂	-12.0105
流注	-12.0105
子午	-12.0105
欲伐	-12.0106
建州	-12.0107
而言曰	-12.0108
御定韻府拾遺卷	-12.0108
煇	-12.0109
斲	-12.0109
看丨丨	-12.011
瀹	-12.011
之過也	-12.011
王季	-12.0112
典章	-12.0112
飄颻	-12.0113
仁厚	-12.0113
樂浪	-12.0113
掘之	-12.0114
竊聞	-12.0114
步騎	-12.0116
烘	-12.0117
賀循	-12.0117
豈容	-12.0118
職云	-12.0119
意甚	-12.012
桑麻	-12.0121
共食	-12.0121
鳥飛	-12.0123
寛大	-12.0124
年十七	-12.0124
武藝	-12.0126
而言之	-12.0126
括地	-12.0127
生生	-12.0127
有佳	-12.0129
老者	-12.0129
廣文	-12.0129
服食	-12.0131
安陸	-12.0131
盡得	-12.0131
晉起居注	-12.0132
被髪	-12.0134
五服	-12.0135
在彼	-12.0136
佛像	-12.0137
汝隂	-12.0138
白起	-12.0138
韓魏公	-12.014
涔	-12.0141
瘤	-12.0141
湯湯	-12.0141
慰勞	-12.0141
頳	-12.0141
叙事	-12.0142
皇考	-12.0143
曰然則	-12.0143
伯仁	-12.0143
程子	-12.0143
皆死	-12.0144
苐	-12.0144
平帝	-12.0144
䧺	-12.0145
瞋	-12.0145
緑葉	-12.0145
涘	-12.0146
春光	-12.0146
因取	-12.0146
昇平	-12.0147
㛰	-12.0147
犀角	-12.0148
戍卒	-12.0148
儒宗	-12.015
壙	-12.015
大蛇	-12.0151
刑名	-12.0151
倍之	-12.0152
天地之間	-12.0153
靈州	-12.0154
鄜	-12.0155
離散	-12.0155
髙廟	-12.0156
以免	-12.0156
可復	-12.0156
分為二	-12.0156
石鼓	-12.0157
元孫	-12.0157
歴代事實	-12.0158
東廵	-12.0159
宋史職官志	-12.0161
已得	-12.0161
北靣	-12.0161
𤣥齡	-12.0161
隆興	-12.0162
五老	-12.0162
衡州	-12.0162
折其	-12.0163
軍法	-12.0163
落落	-12.0165
一統志曰	-12.0165
請命	-12.0166
服御	-12.0167
先公	-12.0168
之行也	-12.017
七千	-12.0171
丙戌	-12.0172
是夜	-12.0172
未明	-12.0176
稽顙	-12.0177
有情	-12.0177
本國	-12.0179
因命	-12.0179
瀍	-12.018
擠	-12.0181
宋元嘉	-12.0182
南望	-12.0182
丨丨丨丨丨丨丨丨丨	-12.0182
攻圍	-12.0183
陳子昻	-12.0183
刑者	-12.0183
三百餘	-12.0184
弗敢	-12.0185
千七百	-12.0185
之英	-12.0187
崇徳	-12.0188
丙吉	-12.0188
有毒	-12.0188
生平	-12.0188
丘園	-12.0189
前史	-12.0189
只有	-12.0191
不施	-12.0193
此兒	-12.0194
欲用	-12.0194
乎遂	-12.0194
瑟瑟	-12.0194
獨見	-12.0195
夫何	-12.0195
建大	-12.0195
我皇	-12.0196
者耶	-12.0196
殺我	-12.0196
無毒	-12.0197
川谷	-12.0198
而滅	-12.0198
贈之	-12.0198
有限	-12.0199
令典	-12.0199
攻其	-12.02
唐武徳	-12.02
遣中使	-12.02
之夕	-12.0201
煙霞	-12.0202
自代	-12.0202
今復	-12.0202
魯恭	-12.0203
遇一	-12.0204
無益於	-12.0204
有角	-12.0205
儀仗	-12.0205
同中書門下三品	-12.0207
馘	-12.0207
教人	-12.0207
之饒	-12.0209
宫掖	-12.021
潼闗	-12.0211
俱有	-12.0211
語林曰	-12.0211
杜陽雜編	-12.0211
沈攸之	-12.0212
唐張	-12.0212
一千五百	-12.0213
盤中	-12.0213
如火	-12.0213
昔周	-12.0214
導之	-12.0214
是矣	-12.0215
𤣥鳥	-12.0215
寰宇記	-12.0217
等級	-12.0217
金鑾	-12.0219
其妻子	-12.0219
師敗績	-12.022
夜宴	-12.0221
此之謂也	-12.0222
象天	-12.0223
安都	-12.0225
王隠晉書	-12.0225
清江	-12.0225
館閣	-12.0225
先君之	-12.0229
數升	-12.0229
白狼	-12.0229
精微	-12.0231
婺	-12.0232
管寧	-12.0233
望海	-12.0234
義熈	-12.0235
大兵	-12.0236
博山	-12.0236
阮咸	-12.0236
得錢	-12.0237
楠	-12.0239
誠信	-12.024
羽葆	-12.0242
頌序	-12.0242
竒兵	-12.0243
鸚	-12.0244
平太守	-12.0244
夷陵	-12.0245
芾	-12.0245
靖康	-12.0246
遂止	-12.0246
斡	-12.0246
殊不	-12.0247
必勝	-12.0247
諸將皆	-12.0248
湘中	-12.0248
平旦	-12.0248
此云	-12.0249
郛	-12.0249
首陽	-12.0249
四十七	-12.025
母死	-12.0251
公正	-12.0252
驍衛	-12.0252
赤龍	-12.0252
穠	-12.0253
退居	-12.0253
機杼	-12.0254
韓退之	-12.0255
半月	-12.0256
愚謂	-12.0257
自居	-12.0257
代郡	-12.0257
攸之	-12.0258
其選	-12.0258
涇陽	-12.0258
掖門	-12.026
應侯	-12.0261
君其	-12.0262
歎曰吾	-12.0262
逸少	-12.0262
風神	-12.0262
二百五十	-12.0263
也古者	-12.0263
或至	-12.0264
未暇	-12.0264
月滿	-12.0264
等共	-12.0266
次序	-12.0268
人神	-12.0268
上親	-12.027
爰自	-12.027
喇	-12.027
羣小	-12.0271
大敗之	-12.0272
進號	-12.0272
商山	-12.0273
南豐	-12.0274
魚鱗	-12.0274
虓	-12.0276
蚡	-12.0277
蓊	-12.0277
釗	-12.0278
山頭	-12.0278
桶	-12.0279
為陛下	-12.0279
二帝	-12.0279
偃師	-12.028
綆	-12.0281
誘之	-12.0281
涂	-12.0281
其文曰	-12.0282
大位	-12.0282
荀彧	-12.0282
偁	-12.0282
晉武	-12.0283
安州	-12.0284
三日不	-12.0285
月俸	-12.0286
終朝	-12.0287
将帥	-12.0287
雲物	-12.0287
臺諫	-12.0288
丨於丨	-12.0288
有殊	-12.0288
饒州	-12.0288
請依	-12.0293
若斯	-12.0294
囊盛	-12.0296
無比	-12.0296
復用	-12.0298
指麾	-12.0299
降神	-12.0301
等物	-12.0302
杜氏	-12.0302
不可勝數	-12.0304
即今之	-12.0304
加之以	-12.0305
隨事	-12.0305
清談	-12.0307
螻蟻	-12.0308
不能禁	-12.0309
兵事	-12.0309
將安	-12.031
洫	-12.0311
期年	-12.0311
豈復	-12.0312
穏	-12.0312
趙孟頫	-12.0313
仁愛	-12.0313
陔	-12.0313
西門豹	-12.0313
紡績	-12.0315
滑州	-12.0315
之數也	-12.0315
踣	-12.0315
其端	-12.0317
時人謂	-12.0317
清香	-12.0317
令天下	-12.0318
觶	-12.0318
淮泗	-12.0318
列聖	-12.0319
不得已而	-12.032
麟趾	-12.0321
青黄	-12.0321
姦人	-12.0321
選用	-12.0322
甘雨	-12.0322
畜之	-12.0322
拒戰	-12.0323
其材	-12.0323
三墳	-12.0324
入市	-12.0325
唐貞觀	-12.0326
范成大詩	-12.0327
母母	-12.0327
數百萬	-12.0328
不如一	-12.0328
司諫	-12.0329
邦國之	-12.033
自傷	-12.033
延齡	-12.033
櫟陽	-12.0331
木葉	-12.0331
任職	-12.0332
初起	-12.0332
日磾	-12.0333
梁丘	-12.0333
先至	-12.0333
講讀	-12.0335
神仙傳曰	-12.0335
周廻	-12.0337
門下侍郎	-12.0338
去地	-12.0338
汲冢周書	-12.034
同遊	-12.0342
細雨	-12.0342
緄	-12.0344
而不為	-12.0344
左馮翊	-12.0345
遂去	-12.0345
苾	-12.0346
繼母	-12.0346
櫳	-12.0346
紡	-12.0348
蝴蝶	-12.0348
漢光武	-12.0348
髙臺	-12.0349
之時也	-12.0349
夫家	-12.0349
文彩	-12.035
筆記	-12.035
天下之事	-12.035
給其	-12.0351
東阿	-12.0351
鱗甲	-12.0354
所進	-12.0355
垍	-12.0356
為最	-12.0356
馨香	-12.0357
冕服	-12.0359
三年一	-12.0359
召問	-12.0359
東堂	-12.036
虎丘	-12.0361
其惡	-12.0361
為監察御史	-12.0362
不附	-12.0362
略曰	-12.0364
其價	-12.0366
開平	-12.0366
皇家	-12.0366
了無	-12.0367
盛事	-12.0367
十許	-12.0368
白茅	-12.0369
唯唯	-12.0369
學業	-12.0371
地圖	-12.0371
井水	-12.0371
孟嘗	-12.0372
擊賊	-12.0374
惟陛下	-12.0374
未遑	-12.0374
臣雖	-12.0374
巉	-12.0375
滿堂	-12.0376
鵷	-12.0376
孝公	-12.0378
兵攻	-12.0378
献	-12.0379
斚	-12.038
鱉	-12.0381
乃求	-12.0381
龍鳳	-12.0382
别傳	-12.0383
元武	-12.0385
搢紳	-12.0385
其右	-12.0385
踴	-12.0385
荆湖	-12.0385
不殊	-12.0386
副元帥	-12.0386
羣玉	-12.0388
長陵	-12.0389
生物	-12.0389
二十日	-12.0389
有犯	-12.039
見上注	-12.0392
我今	-12.0394
范氏	-12.0394
獻納	-12.0395
王霸	-12.0395
頴川	-12.0395
𤣥黄	-12.0396
明白	-12.0399
方得	-12.0399
一縣	-12.0401
雅有	-12.0401
豢	-12.0403
唐因之	-12.0404
張安世	-12.0406
可勝	-12.0406
對酒	-12.0408
姦臣	-12.0409
景初	-12.041
寛厚	-12.041
威重	-12.041
而降	-12.041
名教	-12.041
華歆	-12.0411
忘歸	-12.0411
曛	-12.0412
洞房	-12.0412
無别	-12.0413
自成	-12.0413
長安中	-12.0413
兜	-12.0413
甖	-12.0414
箴曰	-12.0414
俗人	-12.0416
已盡	-12.0417
方面	-12.0419
深淺	-12.042
漢志	-12.0422
申明	-12.0422
重榮	-12.0422
世充	-12.0425
告成	-12.0426
崔元	-12.0427
宰夫	-12.0427
衛瓘	-12.0428
魂魄	-12.0429
六爻	-12.043
令左右	-12.0432
千歲	-12.0432
招討	-12.0432
曰大丈夫	-12.0433
爰及	-12.0433
玩之	-12.0433
轉運司	-12.0433
乃罷	-12.0434
且死	-12.0437
白髮	-12.0437
為羣	-12.0438
孝文時	-12.0438
天下皆	-12.0438
近年	-12.0439
微風	-12.044
戰者	-12.0441
越裳	-12.0442
團練	-12.0443
青蠅	-12.0443
娶婦	-12.0443
漪	-12.0444
瑄	-12.0444
吊	-12.0445
大姓	-12.0445
淬	-12.0445
棚	-12.0447
謝惠連	-12.0447
人臣之	-12.0449
貟外郎	-12.045
借問	-12.045
為黄門侍郎	-12.045
述異	-12.045
囑	-12.045
金紫	-12.045
畯	-12.0451
第三子	-12.0451
造作	-12.0451
星主	-12.0454
輟耕録	-12.0454
首山	-12.0454
人君之	-12.0454
以享	-12.0456
宋武帝	-12.0457
傾城	-12.0457
渡水	-12.0457
為荆州	-12.0457
南行	-12.0458
採訪使	-12.0458
自今以後	-12.0458
不濟	-12.046
謀議	-12.0461
實在	-12.0462
逆順	-12.0462
異聞	-12.0463
墨子曰	-12.0463
京西	-12.0463
六州	-12.0465
是夕	-12.0465
四鄰	-12.0466
等各	-12.0467
白刃	-12.0467
鄉閭	-12.0467
仲堪	-12.0468
方言曰	-12.0468
元勲	-12.0468
務農	-12.0469
方回	-12.0469
稷契	-12.0469
斯民	-12.047
嘗詣	-12.047
莫之能	-12.047
數倍	-12.0471
青徐	-12.0472
錞	-12.0473
軺車	-12.0474
既入	-12.0474
於己	-12.0474
仁義之	-12.0475
不過三	-12.0475
建德	-12.0475
鶬	-12.0476
張茂	-12.0477
于天下	-12.0477
縹緲	-12.0477
以賜之	-12.0477
非常人	-12.0478
兗	-12.0478
在心	-12.0478
洧	-12.0479
順風	-12.0479
張耳	-12.0479
闓	-12.0479
弥	-12.048
子女	-12.048
瀦	-12.0481
銚	-12.0481
雲仙雜記	-12.0483
西城	-12.0484
井陘	-12.0485
以賑	-12.0485
含章	-12.0487
城西北	-12.0487
遊仙詩	-12.0489
之殊	-12.049
因留	-12.0491
范滂	-12.0491
吾今	-12.0491
除授	-12.0494
並起	-12.0494
年長	-12.0496
先王以	-12.0497
初立	-12.0499
四十一	-12.0501
召至	-12.0503
時天下	-12.0504
驅馳	-12.0506
世謂之	-12.0507
華陽國志	-12.0508
自此始也	-12.0508
皇后傳	-12.0509
夷人	-12.0511
出迎	-12.0511
猱	-12.0513
凌波	-12.0513
不患	-12.0514
通考	-12.0514
榖梁傳	-12.0515
未曽	-12.0515
宂	-12.0516
僦	-12.0516
斆	-12.0516
不計	-12.0516
葬於	-12.0516
炮	-12.0516
第宅	-12.0518
之限	-12.0519
芊	-12.052
上京	-12.0521
神道	-12.0521
三國志	-12.0521
囊中	-12.0523
八品	-12.0524
朱鳥	-12.0526
殺身	-12.0527
雜物	-12.0528
若神	-12.0528
孫登	-12.0528
中領軍	-12.0531
禮運	-12.0533
既出	-12.0534
皇皇	-12.0535
此類	-12.0536
祭先	-12.0537
而獲	-12.0538
劉峻	-12.054
清溪	-12.0541
朝雲	-12.0542
螘	-12.0542
明察	-12.0542
瑛	-12.0544
以文章	-12.0545
壼	-12.0545
江浙	-12.0546
陲	-12.0546
攣	-12.0547
罅	-12.0547
養馬	-12.0547
儕	-12.0549
窳	-12.0549
為長史	-12.0549
風寒	-12.0549
党項	-12.0549
燕人	-12.055
煤	-12.055
彚苑	-12.0551
暾	-12.0551
嗜欲	-12.0552
穰苴	-12.0552
不可測	-12.0552
居家	-12.0552
驚起	-12.0553
西曹	-12.0553
上虞	-12.0555
於是乃	-12.0555
軍府	-12.0555
唐虞之	-12.0556
隋大業	-12.0557
洞中	-12.0558
丨有丨	-12.0558
敬仲	-12.0559
白黒	-12.0559
喪服	-12.0559
同志	-12.0561
漢置	-12.0561
名重	-12.0561
刻漏	-12.0564
三歳	-12.0564
白兎	-12.0565
▁明一統志丨丨	-12.0567
選士	-12.057
不伐	-12.057
間道	-12.0571
竹帛	-12.0573
岳州	-12.0574
鼃	-12.0574
軒冕	-12.0574
飄風	-12.0575
奉常	-12.0576
池塘	-12.0576
𤣥圃	-12.0576
鏑	-12.0576
金精	-12.0577
一人掌	-12.0579
不憚	-12.0579
二府	-12.0579
李希烈	-12.058
己卯	-12.0581
檠	-12.0581
淙	-12.0581
通典曰	-12.0583
箋云	-12.0583
相反	-12.0584
侍兒	-12.0584
之任也	-12.0584
九折	-12.0584
鄖	-12.0585
附庸	-12.0585
太素	-12.0586
半夜	-12.0586
匙	-12.0586
同僚	-12.0588
京房易	-12.0589
隋末	-12.0589
崇政殿	-12.059
海南	-12.059
悉令	-12.059
兩府	-12.059
後數日	-12.0592
舉賢良	-12.0593
諫大夫	-12.0595
進奉	-12.0595
羣官	-12.0595
不開	-12.0596
亭記	-12.0597
秘書丞	-12.0597
獨孤及	-12.0597
四姓	-12.0597
峴山	-12.0598
相告	-12.06
闔門	-12.0601
幕下	-12.0601
青玉	-12.0603
幽谷	-12.0607
長㓜	-12.0608
多聞	-12.0608
蔽日	-12.0609
愛敬	-12.0609
並宜	-12.0609
繩墨	-12.061
鈞天	-12.061
羣牧	-12.0612
正義曰	-12.0612
率府	-12.0612
羣盗	-12.0615
柝	-12.0615
笮	-12.0615
郊迎	-12.0616
十一欽定四庫全書	-12.0617
十二欽定四庫全書	-12.0617
杜鵑	-12.0617
殛	-12.0617
逆賊	-12.0617
兩兩	-12.0617
造物	-12.0619
乾符	-12.0619
乾封	-12.062
别立	-12.062
潤澤	-12.0621
蠭	-12.0621
明習	-12.0621
澤潞	-12.0621
率騎	-12.0622
必待	-12.0623
右相	-12.0624
紫薇	-12.0624
路寢	-12.0625
莧	-12.0626
木石	-12.0626
先農	-12.0626
太宗嘗	-12.0627
字徳	-12.0627
萬世之	-12.0628
飛泉	-12.0628
奏曰臣	-12.0629
大化	-12.0632
元君	-12.0632
射獵	-12.0633
舉孝廉	-12.0634
彭越	-12.0635
南陽太守	-12.0635
子游	-12.0636
維摩	-12.0637
甚重	-12.0637
以太牢	-12.0638
不妨	-12.0638
選部	-12.0638
豫章太守	-12.0639
唐武德	-12.0639
天平	-12.0639
緑水	-12.0641
是爲	-12.0641
行陣	-12.0641
工商	-12.0642
宴㑹	-12.0642
中書侍郎平章事	-12.0643
前秦	-12.0644
貧富	-12.0644
所忌	-12.0644
親疎	-12.0645
敷奏	-12.0645
篤學	-12.0646
不驚	-12.0647
白鳥	-12.0648
敢告	-12.0649
鰕	-12.0649
百有餘	-12.0649
崆峒	-12.0649
瑊	-12.0652
伾	-12.0652
龍城	-12.0652
玉京	-12.0653
論衡曰	-12.0654
繻	-12.0655
殂	-12.0655
𢷬	-12.0657
待我	-12.0659
周庾信	-12.0659
自足	-12.066
[...]
