<unk>	0
<s>	0
</s>	0
也	-3.92744
之	-3.99269
/	-4.06086
者	-4.48519
以	-4.50841
)(	-4.53225
而	-4.61625
則	-4.66783
)	-4.80811
(	-4.81302
為	-4.83991
其	-5.12572
有	-5.14898
不	-5.30922
於	-5.32523
故	-5.33839
謂	-5.41473
曰	-5.43314
與	-5.62222
言	-5.66894
此	-5.69026
是	-5.77893
皆	-5.7958
一	-5.81864
無	-5.86098
亦	-5.95878
人	-5.99409
于	-5.99605
云	-6.00484
禮	-6.04326
及	-6.06285
至	-6.06488
在	-6.07566
上	-6.09726
大	-6.11046
用	-6.11145
如	-6.16485
矣	-6.20501
所	-6.21533
自	-6.21831
又	-6.22382
若	-6.24466
注	-6.25633
下	-6.25925
同	-6.26679
中	-6.27392
行	-6.27587
反	-6.2762
三	-6.29613
事	-6.34041
▁	-6.34452
王	-6.35771
祭	-6.36289
子	-6.36917
時	-6.39172
君	-6.40463
乃	-6.4138
服	-6.4413
非	-6.44454
二	-6.46158
正	-6.50674
當	-6.51481
爲	-6.52218
猶	-6.54357
出	-6.55686
焉	-6.57084
使	-6.57349
凡	-6.57856
今	-6.58866
後	-6.59701
大夫	-6.59711
主	-6.60165
從	-6.62826
即	-6.62956
明	-6.6449
見	-6.64967
必	-6.6674
士	-6.67058
作	-6.69194
音	-6.70076
公	-6.70198
既	-6.703
入	-6.70997
然	-6.72605
乎	-6.73047
主人	-6.7307
諸侯	-6.73208
立	-6.75064
相	-6.75143
所以	-6.76381
文	-6.77663
官	-6.78118
或	-6.79682
○	-6.79744
四	-6.80502
已	-6.80734
命	-6.81546
得	-6.82528
先	-6.8276
五	-6.82831
受	-6.8322
前	-6.85672
食	-6.87206
雖	-6.88442
成	-6.91515
日	-6.91828
物	-6.92024
天子	-6.92733
賓	-6.92921
樂	-6.93093
疏	-6.94084
,	-6.9419
賔	-6.94694
設	-6.94835
知	-6.94884
國	-6.94953
名	-6.95131
道	-6.96643
取	-6.96833
天	-6.97408
民	-6.97832
始	-6.98862
可	-7.00807
本	-7.00927
尊	-7.01454
地	-7.01476
合	-7.02601
重	-7.02746
謂之	-7.04086
夫	-7.04451
右	-7.05371
親	-7.05375
内	-7.0582
以為	-7.07077
長	-7.0708
位	-7.07474
生	-7.08557
復	-7.09342
外	-7.10146
六	-7.10581
未	-7.11857
方	-7.12052
齊	-7.12313
臣	-7.12469
尸	-7.13083
舉	-7.13958
數	-7.14057
書	-7.14315
掌	-7.15364
令	-7.15515
將	-7.15586
獻	-7.1582
各	-7.15843
耳	-7.15875
周	-7.15998
分	-7.16277
義	-7.16432
所謂	-7.16579
稱	-7.16933
之禮	-7.18704
次	-7.20396
制	-7.20571
車	-7.21915
之事	-7.22256
宜	-7.22757
諸	-7.22828
小	-7.23604
南	-7.24046
惟	-7.24318
居	-7.2436
東	-7.25405
拜	-7.26385
治	-7.26798
九	-7.26836
執	-7.27634
法	-7.27761
能	-7.28416
字	-7.28435
案	-7.28506
水	-7.28577
朝	-7.28674
去	-7.28762
神	-7.28785
而已	-7.29401
西	-7.29414
經	-7.30161
遂	-7.30255
升	-7.30397
安	-7.30838
兩	-7.31194
欲	-7.31549
等	-7.3242
加	-7.32932
實	-7.3373
蓋	-7.34179
進	-7.3437
父	-7.34753
衣	-7.34972
喪	-7.35082
陳	-7.35285
是也	-7.35547
而不	-7.36933
馬	-7.38177
門	-7.38322
通	-7.38542
徳	-7.39211
多	-7.39581
降	-7.39612
何	-7.40444
廟	-7.41992
射	-7.42642
心	-7.43083
因	-7.43501
者也	-7.44029
不可	-7.44182
陽	-7.44326
祖	-7.44721
異	-7.44805
祀	-7.45081
易	-7.4586
傳	-7.45968
田	-7.4611
辭	-7.46424
死	-7.46514
來	-7.46787
聲	-7.4697
屬	-7.47276
初	-7.47293
氏	-7.47302
但	-7.47357
故云	-7.47491
爵	-7.47506
節	-7.47544
處	-7.47734
和	-7.50361
止	-7.50478
致	-7.50723
告	-7.50959
七	-7.51
冠	-7.51263
祝	-7.51389
象	-7.51393
家	-7.51674
古	-7.51857
北	-7.52209
問	-7.5282
夏	-7.53207
宫	-7.53371
敬	-7.53607
直	-7.53649
定	-7.53845
請	-7.5392
學	-7.549
不得	-7.55764
唯	-7.5775
女	-7.58083
平	-7.58136
土	-7.58347
縣	-7.58418
且	-7.58459
奉	-7.58471
席	-7.58626
引	-7.58989
師	-7.59056
左	-7.59159
奠	-7.60337
常	-7.60739
坐	-7.60864
註曰	-7.60985
氣	-7.61539
母	-7.61555
興	-7.61604
月	-7.62695
為之	-7.62737
共	-7.62949
山	-7.62982
八	-7.63139
器	-7.63254
之時	-7.63302
體	-7.6335
宗	-7.6336
備	-7.63573
帝	-7.63717
教	-7.64117
酒	-7.64482
終	-7.6495
視	-7.65112
據	-7.65219
由	-7.65511
説	-7.66086
州	-7.66546
就	-7.66599
婦	-7.66758
職	-7.6752
並	-7.67739
别	-7.67747
玉	-7.678
衆	-7.67841
尚	-7.67873
者謂	-7.68242
者以	-7.68389
更	-7.68511
近	-7.69164
以其	-7.70005
歸	-7.70217
世	-7.70241
身	-7.70758
守	-7.70858
牲	-7.70987
容	-7.71066
葢	-7.71178
元	-7.71607
侯	-7.71662
載	-7.71839
授	-7.7186
應	-7.72251
不言	-7.72868
著	-7.7307
適	-7.73526
▁(	-7.73539
辟	-7.73551
葬	-7.73586
鄭	-7.73646
卿	-7.7371
廣	-7.73781
善	-7.73854
介	-7.73861
卒	-7.73946
司	-7.73954
殺	-7.74154
還	-7.74184
餘	-7.74558
薦	-7.75497
以下	-7.75697
故曰	-7.75723
布	-7.75905
變	-7.75957
年	-7.76322
周禮	-7.76336
鄉	-7.77398
武	-7.77684
盡	-7.78235
十	-7.78249
記	-7.78396
儀	-7.78513
而後	-7.78552
髙	-7.79775
志	-7.80864
畢	-7.81067
論	-7.81225
度	-7.81648
意	-7.81915
置	-7.8193
㑹	-7.82089
彼	-7.82546
御	-7.82639
政	-7.82734
少	-7.82748
然後	-7.82796
三年	-7.82834
可以	-7.8298
燕	-7.83008
也云	-7.83277
章	-7.83319
說	-7.83693
爾	-7.83842
功	-7.83978
木	-7.84512
室	-7.84752
具	-7.84999
固	-7.85363
養	-7.8568
足	-7.86125
逺	-7.86198
過	-7.86273
依	-7.86392
奏	-7.86521
隂	-7.86542
天下	-7.86924
盖	-7.87584
對	-7.87823
封	-7.88038
鄭氏曰	-7.88264
刑	-7.88597
色	-7.88945
哭	-7.88994
序	-7.89055
兼	-7.89207
不敢	-7.89369
比	-7.89515
婦人	-7.89742
君子	-7.89796
不能	-7.8996
首	-7.89972
特	-7.90077
之後	-7.90437
金	-7.90552
俱	-7.90826
期	-7.91184
。	-7.9125
疏曰	-7.91301
兵	-7.91407
哀	-7.91427
賜	-7.91975
順	-7.92031
退	-7.92119
火	-7.92314
享	-7.92817
發	-7.92963
俎	-7.93532
間	-7.93655
起	-7.93787
春	-7.94004
兄弟	-7.94037
后	-7.94282
之義	-7.94333
角	-7.94528
德	-7.94643
夫人	-7.94719
詩	-7.95056
仁	-7.95079
鼓	-7.9566
聞	-7.95903
哉	-7.95997
貴	-7.9658
己	-7.96759
理	-7.97029
詔	-7.98301
注云	-7.9836
伯	-7.99054
建	-7.99291
之所	-7.99529
郊	-7.99677
列	-7.99786
衰	-7.99913
我	-7.99959
軍	-7.99973
之屬	-8.00192
深	-8.00719
故也	-8.01007
鄭注	-8.01459
除	-8.0214
盛	-8.02455
白	-8.02493
之法	-8.02594
晉	-8.03237
觀	-8.03352
切	-8.03496
疑	-8.03684
辨	-8.03983
至於	-8.04031
亂	-8.04245
改	-8.0447
利	-8.04931
求	-8.05746
司馬	-8.06185
廢	-8.06262
北面	-8.0632
孝	-8.0669
孫	-8.0682
議	-8.0689
魯	-8.06971
考	-8.07502
飲	-8.07521
秋	-8.07636
春秋	-8.07979
有司	-8.08037
禁	-8.08204
新	-8.08239
如此	-8.08365
難	-8.08738
戒	-8.08978
飾	-8.09048
解	-8.09204
堂	-8.09208
虞	-8.09386
獨	-8.09441
之意	-8.09765
承	-8.09801
百	-8.09804
孔子	-8.10023
/)	-8.10126
陵	-8.10302
惡	-8.10487
殷	-8.10586
失	-8.10805
扵	-8.1154
贊	-8.11629
工	-8.11885
漢	-8.11895
交	-8.11973
情	-8.12021
典	-8.12262
不同	-8.12822
昭	-8.13092
一人	-8.13355
信	-8.13572
幣	-8.13617
似	-8.13685
任	-8.13731
張	-8.13948
釋	-8.14591
星	-8.14962
黄	-8.15222
祭祀	-8.15831
是以	-8.15844
極	-8.15868
訖	-8.1608
亦如之	-8.16265
半	-8.16544
報	-8.16556
皆有	-8.16791
客	-8.16932
太	-8.17414
要	-8.17491
散	-8.17609
總	-8.17657
襲	-8.17692
好	-8.18288
歌	-8.18338
并	-8.18378
也故	-8.18426
社	-8.1854
面	-8.18718
嵗	-8.19036
饗	-8.19183
音義	-8.19242
徹	-8.1948
修	-8.19565
可知	-8.19665
酌	-8.19726
魚	-8.19889
待	-8.19935
宋	-8.2025
疾	-8.20489
註	-8.21063
表	-8.21064
輕	-8.21071
亡	-8.21148
舞	-8.21201
父母	-8.21451
府	-8.21696
力	-8.21713
都	-8.21984
指	-8.22183
質	-8.22279
繼	-8.22379
皇帝	-8.22587
旣	-8.22613
聖	-8.22855
言之	-8.22902
鼎	-8.22946
律	-8.23016
豆	-8.23253
藏	-8.23465
純	-8.23514
厚	-8.23595
施	-8.23778
冬	-8.24056
豈	-8.24076
存	-8.24148
牛	-8.24218
之制	-8.24454
衛	-8.24465
䘮	-8.24913
免	-8.25051
代	-8.25176
族	-8.25224
示	-8.25411
弓	-8.2552
其所	-8.25578
者以其	-8.2576
左右	-8.25879
老	-8.25926
賢	-8.25979
石	-8.26059
類	-8.26141
甚	-8.26208
大功	-8.26271
吾	-8.26436
帶	-8.26695
庶子	-8.27004
宿	-8.27035
某	-8.27122
每	-8.27568
史	-8.27629
再	-8.27978
卜	-8.28007
釋曰	-8.28018
)○	-8.28284
矢	-8.28296
風	-8.28721
皇	-8.29158
斂	-8.29257
流	-8.29609
天地	-8.29747
按	-8.30051
臨	-8.30283
勞	-8.30523
思	-8.30606
清	-8.30812
城	-8.30821
之道	-8.30933
絶	-8.31108
卷	-8.31544
形	-8.31584
卑	-8.31683
杖	-8.31809
語	-8.31825
十二	-8.31962
此言	-8.32345
妻	-8.32452
手	-8.32681
卿大夫	-8.32702
聘	-8.32815
羽	-8.32827
乗	-8.33179
揖	-8.33294
唐	-8.33643
嘗	-8.33776
正義鄭氏康成曰	-8.33867
動	-8.343
率	-8.34301
吉	-8.34769
舊	-8.34846
商	-8.34882
有所	-8.34883
宮	-8.34957
口	-8.35017
美	-8.35184
殯	-8.35571
畫	-8.35827
殿	-8.36016
主婦	-8.36095
壇	-8.36697
周公	-8.36714
東面	-8.37355
人之	-8.37587
全	-8.37607
差	-8.37745
望	-8.3792
之服	-8.38162
誠	-8.38452
将	-8.38871
統	-8.3896
省	-8.39085
達	-8.39308
而無	-8.39433
端	-8.39659
配	-8.39702
貢	-8.40124
末	-8.4021
孔	-8.40398
舍	-8.40428
之中	-8.40483
旅	-8.40506
宣	-8.40965
造	-8.41046
庶	-8.4105
然則	-8.41185
聖人	-8.41396
里	-8.41491
篇	-8.41726
脩	-8.41798
宗廟	-8.41894
讀	-8.41934
路	-8.4194
使者	-8.42089
上下	-8.42278
小功	-8.42439
弔	-8.42677
詳	-8.427
羊	-8.42859
徒	-8.42974
圖	-8.43088
弗	-8.43588
也此	-8.436
均	-8.43708
曲	-8.43755
野	-8.43816
而言	-8.43914
之類	-8.43927
之言	-8.44371
逆	-8.4443
斯	-8.44554
之數	-8.4459
則有	-8.44668
益	-8.44899
不以	-8.44996
肉	-8.4522
罪	-8.45318
先王	-8.45437
須	-8.45509
皮	-8.45632
以上	-8.45739
龍	-8.46027
聽	-8.46146
愛	-8.4615
又曰	-8.462
澤	-8.46363
河	-8.46479
約	-8.46731
積	-8.46776
西面	-8.46827
故知	-8.46861
旁	-8.47147
迎	-8.47458
私	-8.47459
朝服	-8.4747
亦有	-8.47608
圭	-8.47663
三月	-8.47679
萬	-8.47923
古者	-8.48075
開	-8.48267
帥	-8.48618
莫	-8.4871
毋	-8.48774
遷	-8.48822
計	-8.49139
恐	-8.49379
號	-8.49581
龜	-8.49705
簡	-8.49797
監	-8.49825
許	-8.49929
之間	-8.50004
素	-8.50433
向	-8.50793
也若	-8.51023
管	-8.51079
嚴	-8.51187
習	-8.51252
役	-8.51484
推	-8.51601
於此	-8.5163
送	-8.51849
便	-8.51915
闕	-8.51943
化	-8.52004
勝	-8.52018
覆	-8.52239
𤣥	-8.52272
雜	-8.52312
洗	-8.5301
裳	-8.53051
仍	-8.53133
屨	-8.53179
饌	-8.53406
邑	-8.537
禘	-8.53803
南面	-8.53889
羞	-8.53945
專	-8.5396
財	-8.54149
賦	-8.54235
儀禮	-8.54296
筮	-8.54347
隨	-8.54488
者皆	-8.54546
大夫士	-8.54565
原	-8.54616
醴	-8.54716
横	-8.55711
不知	-8.56254
市	-8.56536
登	-8.56719
祔	-8.56872
往	-8.57095
再拜	-8.57375
離	-8.57518
參	-8.57605
式	-8.57609
折	-8.57982
妾	-8.58112
他	-8.58201
稍	-8.58201
如初	-8.58229
頭	-8.58273
羣	-8.5835
麻	-8.58753
斷	-8.58832
崇	-8.59018
恩	-8.59347
紀	-8.59438
申	-8.59859
久	-8.59874
納	-8.60385
叔	-8.60596
尊卑	-8.60873
賤	-8.60937
之位	-8.61161
鼔	-8.61461
何以	-8.6157
其餘	-8.62026
側	-8.62067
略	-8.62122
量	-8.623
良	-8.62603
不及	-8.62805
齊衰	-8.62884
姑	-8.62909
華	-8.63504
二人	-8.63511
接	-8.63551
俗	-8.6356
其事	-8.63648
尊者	-8.63737
息	-8.63739
采	-8.63778
附	-8.63784
草	-8.63795
楚	-8.6397
也言	-8.64019
不用	-8.6414
梁	-8.64371
也凡	-8.64426
宰	-8.64466
衡	-8.64532
孤	-8.64538
微	-8.64543
寢	-8.64633
詣	-8.6475
弟	-8.64763
飯	-8.64927
目	-8.65138
伐	-8.65345
青	-8.654
棺	-8.65435
必有	-8.65477
禮也	-8.65493
無所	-8.65537
柩	-8.6587
乘	-8.65932
誤	-8.65993
四時	-8.66034
赤	-8.66158
傷	-8.66175
秦	-8.66335
甲	-8.66608
領	-8.66729
班	-8.6693
給	-8.66993
司徒	-8.67167
保	-8.67177
門外	-8.67382
階	-8.67587
男子	-8.67626
之地	-8.67721
不足	-8.6781
豐	-8.67868
謹	-8.6787
户	-8.67983
使人	-8.68254
訓	-8.68393
天子諸侯	-8.68403
又云	-8.68435
眀	-8.68726
男	-8.68802
百官	-8.69236
邦	-8.69246
巾	-8.69304
毛	-8.69507
之文	-8.6953
强	-8.69621
後世	-8.69629
助	-8.69708
王之	-8.69874
鬼神	-8.69987
周官	-8.70294
江	-8.70349
明堂	-8.70611
(○	-8.70616
薄	-8.70673
房	-8.70741
邪	-8.71063
酬	-8.71241
朱	-8.71742
諸侯之	-8.71762
福	-8.71768
持	-8.71825
牧	-8.72075
革	-8.72414
者亦	-8.72507
之外	-8.72528
則不	-8.72664
米	-8.72886
禄	-8.73035
移	-8.73162
之上	-8.73191
謀	-8.73314
灋	-8.73607
日月	-8.73694
靈	-8.73768
俟	-8.73842
歲	-8.73941
之人	-8.74017
祠	-8.7431
句	-8.74444
爼	-8.74524
故以	-8.74558
垂	-8.74976
光	-8.75009
吏	-8.75166
聚	-8.75223
攝	-8.75237
於是	-8.75251
景	-8.7537
稷	-8.75396
屋	-8.75422
四方	-8.75453
會	-8.75657
業	-8.75707
帛	-8.75731
即位	-8.7577
肆	-8.7585
元年	-8.75937
孔疏	-8.76487
朔	-8.76805
祥	-8.76899
文王	-8.76994
圍	-8.77087
墓	-8.77122
使之	-8.77352
各有	-8.77357
敎	-8.77627
調	-8.77734
獸	-8.77769
則以	-8.77926
東西	-8.7798
徴	-8.78021
之節	-8.78037
鳥	-8.78047
征	-8.78072
恭	-8.78151
山川	-8.78221
夷	-8.7863
三日	-8.78954
足以	-8.79095
乾	-8.792
權	-8.79206
精	-8.79266
祼	-8.79395
病	-8.79413
袒	-8.79511
違	-8.79631
察	-8.79782
天子之	-8.7985
刻	-8.79918
仲	-8.80212
禮樂	-8.80299
夜	-8.80351
永	-8.80454
顯	-8.80457
例	-8.80584
鍾	-8.80686
感	-8.80799
結	-8.8094
孝子	-8.80992
宗子	-8.81106
喪服	-8.8117
佐	-8.81241
二十	-8.81285
衣服	-8.81491
性	-8.81576
井	-8.82137
被	-8.82185
種	-8.82201
黍	-8.82235
丘	-8.82413
之名	-8.825
几	-8.8279
之下	-8.82834
不可以	-8.82905
館	-8.83243
連	-8.83488
下文	-8.8359
君之	-8.8364
材	-8.83997
嘉	-8.84019
嫌	-8.84369
辰	-8.84535
兆	-8.84703
昏	-8.84712
邦國	-8.84723
禮記	-8.85042
敢	-8.85251
之喪	-8.85329
冕	-8.85487
者案	-8.85514
萬物	-8.85575
不見	-8.85575
豕	-8.85578
牢	-8.85655
齒	-8.85782
二年	-8.85838
犯	-8.85894
假	-8.86012
凶	-8.86099
盟	-8.8613
皇后	-8.86136
鄭云	-8.86157
越	-8.86441
干	-8.86479
行之	-8.8652
肅	-8.8654
為主	-8.86588
子曰	-8.86731
擇	-8.86806
高	-8.8699
斬	-8.87053
放	-8.87108
兄	-8.87168
虚	-8.87202
讓	-8.87257
遺	-8.87286
五十	-8.87298
大射	-8.87433
羣臣	-8.87463
其禮	-8.87613
鄭鍔曰	-8.87613
農	-8.87789
條	-8.87799
用之	-8.88017
尺	-8.88076
蕙田案	-8.8816
咸	-8.88204
趨	-8.88317
骨	-8.88834
孔氏曰	-8.88879
之子	-8.89012
賈疏	-8.89094
人君	-8.89107
則是	-8.89116
世子	-8.89163
遇	-8.89281
膳	-8.89307
祭之	-8.89535
子孫	-8.89594
威	-8.89824
答	-8.89842
細	-8.89931
穆	-8.90081
賛	-8.90086
之心	-8.90118
賔客	-8.90152
留	-8.90284
漸	-8.90342
之前	-8.90346
宰夫	-8.90386
注曰	-8.90405
憂	-8.90584
敵	-8.9066
也其	-8.90672
絰	-8.90678
隂陽	-8.90876
竟	-8.9088
之物	-8.90952
屈	-8.91037
味	-8.91181
竹	-8.91543
步	-8.91678
充	-8.91786
此經	-8.92016
社稷	-8.9205
月令	-8.92083
太祖	-8.92151
可也	-8.92168
踊	-8.922
出入	-8.92304
慎	-8.92455
禮之	-8.92723
適子	-8.93051
歟	-8.93089
諡	-8.93119
才	-8.93249
胡	-8.93386
緦	-8.93411
天下之	-8.93423
務	-8.93448
至于	-8.93462
讀為	-8.93548
之説	-8.93655
縁	-8.93769
最	-8.9383
醢	-8.93861
三公	-8.93908
又有	-8.94018
祫	-8.94173
殊	-8.94361
未有	-8.94372
委	-8.94463
空	-8.94503
果	-8.94515
之儀	-8.94585
伏	-8.94682
收	-8.94704
巳	-8.94933
也案	-8.94939
三十	-8.94979
歩	-8.95045
行禮	-8.95052
庶人	-8.95073
劉	-8.95145
笄	-8.95159
佐食	-8.95437
而下	-8.95457
少牢	-8.95639
練	-8.95677
郡	-8.95702
集	-8.95829
不必	-8.9593
絲	-8.95932
之處	-8.95978
亦不	-8.96093
畧	-8.96169
繫	-8.96172
寧	-8.96474
筵	-8.96625
害	-8.96706
而有	-8.96762
轉	-8.96918
遣	-8.9693
侑	-8.97042
耕	-8.97233
召	-8.9724
公子	-8.97261
戰	-8.97295
悉	-8.97299
徧	-8.97564
夕	-8.97619
揚	-8.97664
之内	-8.97691
誓	-8.97933
鄭康成曰	-8.98088
以待	-8.98102
尤	-8.98149
聘禮	-8.98177
夫子	-8.98303
博	-8.98311
不復	-8.98316
丁	-8.98416
其實	-8.98427
武王	-8.98443
苟	-8.98448
戎	-8.98463
来	-8.98571
盥	-8.98615
跪	-8.98658
尚書	-8.98699
之辭	-8.98718
姓	-8.98748
鬼	-8.98767
李	-8.98885
上文	-8.98938
卒哭	-8.99058
祈	-8.99154
林	-8.99155
小斂	-8.99268
司射	-8.9932
言其	-8.99607
算	-8.99705
決	-8.99798
苦	-9.00019
忠	-9.00054
僕	-9.00065
輿	-9.00261
雨	-9.0042
倍	-9.00534
者此	-9.00608
飲食	-9.00772
飲酒	-9.00868
營	-9.00888
庭	-9.00959
諱	-9.00998
嫁	-9.01019
不為	-9.01036
厭	-9.01386
旌	-9.01441
克	-9.01473
駕	-9.01501
皆以	-9.01517
占	-9.01587
負	-9.01759
災	-9.01863
獲	-9.01877
敦	-9.01892
避	-9.01952
之日	-9.01974
不過	-9.01982
擯	-9.02022
舜	-9.02222
擯者	-9.024
毎	-9.024
慶	-9.02506
恒	-9.02551
取其	-9.02618
觶	-9.02621
欲其	-9.02779
孰	-9.02852
幽	-9.0287
短	-9.0289
不與	-9.02898
穀	-9.02963
斬衰	-9.03116
貴賤	-9.03136
殤	-9.03234
防	-9.03463
延	-9.03589
特牲	-9.03779
贈	-9.03932
死者	-9.03959
閒	-9.03965
成人	-9.03991
皮弁	-9.04007
燕禮	-9.04078
魏	-9.04087
黒	-9.04317
酢	-9.04386
内外	-9.04389
束	-9.04436
川	-9.04493
、	-9.0459
其義	-9.04605
勸	-9.04626
雖有	-9.04696
男女	-9.04723
賈	-9.048
舎	-9.04809
偏	-9.04829
頒	-9.04833
寒	-9.04991
受之	-9.05036
窮	-9.05185
旗	-9.05256
慮	-9.05375
減	-9.05445
徐	-9.05514
上介	-9.05952
國君	-9.05958
識	-9.05959
歳	-9.06041
厲	-9.06177
校	-9.06204
國之	-9.06239
當為	-9.06261
藉	-9.06266
資	-9.06292
侍	-9.06326
子男	-9.06429
輪	-9.06472
堂上	-9.0651
碑	-9.06749
舅	-9.06816
之官	-9.06906
呼	-9.06947
棄	-9.06948
不在	-9.07091
敖氏繼公曰	-9.0712
禹	-9.07134
徑	-9.07146
陰	-9.07331
淫	-9.07381
也然	-9.07407
審	-9.07594
嗣	-9.07661
服之	-9.07698
追	-9.07764
逹	-9.07772
無服	-9.07791
耦	-9.0788
畜	-9.07883
氏曰	-9.08269
否	-9.0829
毁	-9.08313
之職	-9.08531
敗	-9.08691
立于	-9.08797
含	-9.08909
廬	-9.09066
夾	-9.09089
徃	-9.09197
鄭司農云	-9.09242
出於	-9.09296
弦	-9.09329
衞	-9.0946
維	-9.09471
答拜	-9.09505
髙祖	-9.09633
速	-9.09696
前後	-9.0983
大宰	-9.09982
黨	-9.10079
責	-9.10083
亦然	-9.10207
見於	-9.10225
予	-9.10287
樹	-9.10558
幅	-9.10779
證	-9.1111
惠	-9.11118
急	-9.11254
下大夫	-9.11344
候	-9.11379
大事	-9.11437
昌	-9.11486
隆	-9.1152
况	-9.11572
黍稷	-9.1166
王氏曰	-9.1172
太子	-9.1191
璧	-9.12107
宗人	-9.12187
擊	-9.12231
𦵏	-9.12258
古人	-9.12389
其位	-9.12542
副	-9.12596
民之	-9.12628
纓	-9.1282
鐘	-9.12871
術	-9.13035
籩	-9.13124
六十	-9.13404
磬	-9.13588
之義也	-9.13646
友	-9.13726
壻	-9.13783
朋友	-9.13804
錯	-9.13914
鳴	-9.13917
復位	-9.14187
罷	-9.14236
一日	-9.14331
熟	-9.14587
𫝊	-9.14663
而為	-9.14688
歴	-9.14692
荒	-9.14869
蔽	-9.15115
王制	-9.15463
弟子	-9.15491
衆賔	-9.15494
濟	-9.15531
此云	-9.15656
試	-9.15782
講	-9.15861
上公	-9.1604
有事	-9.16101
堅	-9.16107
危	-9.16253
錫	-9.16365
是故	-9.16368
君臣	-9.16407
寡	-9.16449
患	-9.1646
勿	-9.16502
正月	-9.16974
故謂之	-9.16984
述	-9.17
以禮	-9.17029
冬至	-9.17162
從之	-9.17229
昆弟	-9.17242
事也	-9.17441
者言	-9.17447
於外	-9.17454
笙	-9.17586
夫婦	-9.17606
之等	-9.17615
税	-9.17721
執事	-9.17756
部	-9.17811
為一	-9.17877
富	-9.17933
䟽	-9.18001
罰	-9.18159
立於	-9.18197
周之	-9.18279
賓客	-9.18376
在上	-9.18421
禽	-9.18543
補	-9.18704
暴	-9.18722
所用	-9.18731
雉	-9.18735
周人	-9.18804
詩云	-9.18833
選	-9.18928
曲禮	-9.18947
受命	-9.19143
綏	-9.19489
滅	-9.19565
専	-9.19602
甸	-9.1967
塗	-9.19761
朱子	-9.19874
輔	-9.19922
佩	-9.20022
寛	-9.20043
五年	-9.20248
休	-9.20364
榖	-9.20368
之祭	-9.20406
古之	-9.20431
距	-9.20483
鄭氏	-9.20759
包	-9.20843
供	-9.20868
成王	-9.20971
湯	-9.21053
以此	-9.21111
吉凶	-9.2114
裘	-9.21305
躬	-9.21364
故不	-9.2137
崩	-9.21649
傳曰	-9.2171
背	-9.21749
以爲	-9.21785
斗	-9.21805
之說	-9.22006
脯	-9.22036
肺	-9.22108
縮	-9.2221
七十	-9.22298
四年	-9.22451
循	-9.22506
摯	-9.22673
主於	-9.22782
限	-9.23141
圜	-9.23367
展	-9.23673
十二月	-9.23704
幸	-9.23728
縫	-9.23749
千	-9.23781
壺	-9.23797
妃	-9.24025
古文	-9.2408
築	-9.24171
五帝	-9.24175
東方	-9.24199
録	-9.24255
冝	-9.24304
主君	-9.24324
則知	-9.24346
也今	-9.24437
環	-9.24491
忘	-9.24506
亦以	-9.2455
刺	-9.24858
反位	-9.24878
明矣	-9.24905
學者	-9.25004
貨	-9.25225
海	-9.25235
竒	-9.25248
籍	-9.25386
司空	-9.2541
左傳	-9.25624
畏	-9.25815
儒	-9.2582
雲	-9.25901
吳	-9.25905
篚	-9.25929
豫	-9.25932
幾	-9.25958
蒲	-9.26025
倫	-9.26078
矣故	-9.26185
而行	-9.26357
扶	-9.26429
柔	-9.26522
膚	-9.26607
葛	-9.2671
繩	-9.26713
泰	-9.26786
虎	-9.2709
文武	-9.27357
同姓	-9.27643
徵	-9.27678
賞	-9.27711
慈	-9.27774
五月	-9.27815
太廟	-9.27816
大宗	-9.28048
大斂	-9.28128
萬民	-9.28248
旦	-9.28287
振	-9.28324
也夫	-9.28597
邊	-9.28622
髽	-9.28773
㣲	-9.28786
顧	-9.28864
可知也	-9.28934
異於	-9.29034
拜送	-9.29099
也又	-9.29147
黄鍾	-9.29279
昭穆	-9.29405
胥	-9.29579
赴	-9.29629
莊	-9.29753
去聲	-9.29776
腥	-9.29821
愚	-9.29888
已下	-9.30206
王者	-9.30251
郷	-9.30297
啟	-9.30337
厥	-9.30341
秩	-9.30432
堯	-9.30487
帷	-9.30519
鄭注云	-9.3073
者不	-9.3082
抑	-9.31018
宴	-9.31026
而后	-9.31059
知其	-9.31102
又以	-9.31193
;	-9.31222
寸	-9.31239
於君	-9.31255
故言	-9.31301
小臣	-9.31351
之南	-9.31392
何也	-9.31401
壹	-9.31402
運	-9.31458
幼	-9.31559
則無	-9.31607
戸	-9.31623
而出	-9.31654
掩	-9.31733
舅姑	-9.31939
品	-9.31989
叙	-9.32001
𤼵	-9.32222
於人	-9.32328
祧	-9.32329
宅	-9.32398
至此	-9.32507
謝	-9.32732
敖氏曰	-9.32735
季	-9.32968
貌	-9.32974
彌	-9.33017
朝廷	-9.3313
勤	-9.33223
辱	-9.33229
爭	-9.33301
大小	-9.3336
孟子	-9.33485
編	-9.33532
漆	-9.33581
禫	-9.33902
九月	-9.3397
潔	-9.34014
百姓	-9.34056
増	-9.34058
侯伯	-9.34184
之禮也	-9.34194
及其	-9.34441
餕	-9.34499
温	-9.34538
犬	-9.34555
或曰	-9.34665
其親	-9.34783
君命	-9.3486
不當	-9.34957
昔	-9.34983
塞	-9.35007
康	-9.35048
饋	-9.35157
早	-9.35186
之事也	-9.35256
導	-9.35267
大師	-9.3528
祭服	-9.3532
世婦	-9.35374
左氏傳	-9.35518
也然則	-9.35599
隱	-9.35602
天地之	-9.3569
貫	-9.3569
雍	-9.35699
深衣	-9.35726
仕	-9.35811
獄	-9.35831
寳	-9.35848
弁	-9.35869
上帝	-9.35996
攷	-9.36088
之樂	-9.36191
錢	-9.36238
見其	-9.36318
父子	-9.36326
關	-9.36385
所云	-9.36481
舒	-9.36504
西方	-9.3651
升堂	-9.36705
未嘗	-9.36869
鄉射	-9.37013
貳	-9.37028
之神	-9.37097
雞	-9.37101
諫	-9.37103
堂下	-9.37111
血	-9.37267
格	-9.3739
榮	-9.37537
啓	-9.3757
宗伯	-9.37582
其身	-9.37592
▁疏	-9.37648
鹽	-9.37847
鎮	-9.37948
十五	-9.38014
中央	-9.38096
道也	-9.38269
互	-9.38295
歛	-9.38389
従	-9.38541
入門	-9.38683
鉶	-9.38773
沈	-9.38819
之使	-9.38876
十有二	-9.38969
南北	-9.39137
莫不	-9.39297
賢者	-9.39385
午	-9.39411
后稷	-9.39419
冢宰	-9.39476
誅	-9.39665
之道也	-9.39711
𤣥端	-9.3972
十一	-9.39807
尋	-9.39825
履	-9.40027
慢	-9.40143
與其	-9.40236
攻	-9.40278
未聞	-9.40439
版	-9.4052
行事	-9.40537
煩	-9.40585
只	-9.40606
之氣	-9.4062
匕	-9.40749
詩曰	-9.40774
腊	-9.40804
匹	-9.40828
闗	-9.40901
孟	-9.40918
香	-9.40979
聴	-9.41018
單	-9.41078
屏	-9.41145
一曰	-9.41234
人情	-9.41315
命之	-9.41376
一也	-9.41572
索	-9.41652
四人	-9.41678
衆賓	-9.41679
桓	-9.41682
則其	-9.41729
贄	-9.4173
辯	-9.4174
其數	-9.41769
之西	-9.41894
真	-9.41923
緦麻	-9.41977
隠	-9.41994
稅	-9.42001
弊	-9.42151
奔	-9.42197
十月	-9.42232
牆	-9.42237
預	-9.42264
削	-9.4238
撫	-9.42466
者若	-9.42472
雜記	-9.42516
無不	-9.42574
烝	-9.42584
旅酬	-9.42593
圓	-9.42679
繁	-9.42705
憲	-9.42762
京	-9.42812
教之	-9.42892
游	-9.4298
非也	-9.43004
百里	-9.43015
桑	-9.4304
亦當	-9.4308
三耦	-9.43282
釋曰云	-9.43362
有三	-9.43367
趙	-9.43388
衽	-9.43457
況	-9.43488
椁	-9.43506
灌	-9.4354
籩豆	-9.43707
國家	-9.43708
簋	-9.43747
若有	-9.43761
爲之	-9.43764
救	-9.43797
弱	-9.43957
耶	-9.44004
相見	-9.44011
三獻	-9.4421
制度	-9.44212
㫖	-9.44319
銘	-9.44328
肩	-9.4434
而立	-9.44437
柄	-9.4444
牀	-9.44462
襄	-9.44498
疏云	-9.44637
奪	-9.44658
損	-9.44825
倚	-9.44872
臺	-9.44878
綴	-9.44947
執事者	-9.44955
十六	-9.44956
之臣	-9.44981
薨	-9.44996
界	-9.44998
下士	-9.45114
之理	-9.45116
妄	-9.45183
有常	-9.45196
黑	-9.45344
東南	-9.45423
曹	-9.45547
脱	-9.45567
七月	-9.45602
遭	-9.458
懐	-9.45825
可知矣	-9.45929
甫	-9.45971
西北	-9.46053
於廟	-9.46116
亦是	-9.46151
贊者	-9.46189
祭天	-9.46253
喜	-9.46313
養老	-9.46382
第	-9.46515
幹	-9.46546
繅	-9.4662
為上	-9.46713
庸	-9.46738
翼	-9.46749
於禮	-9.4679
祖廟	-9.46861
優	-9.46862
燭	-9.46882
逸	-9.46907
必以	-9.46925
為君	-9.47003
陸	-9.47027
怨	-9.47031
所以為	-9.47057
六年	-9.4709
恤	-9.47381
中庸	-9.47416
不拜	-9.47499
取之	-9.47738
寶	-9.47746
貞	-9.47829
有二	-9.47836
之士	-9.47866
乏	-9.48029
夢	-9.48132
雷	-9.48328
受爵	-9.4837
不云	-9.48409
吕	-9.48464
稽	-9.48507
願	-9.48596
所言	-9.48623
小宰	-9.48655
蔡	-9.48656
為正	-9.48682
訟	-9.48783
〇	-9.4882
在下	-9.48922
露	-9.48929
饋食	-9.48964
欽定四庫全書	-9.48982
倉	-9.4902
之灋	-9.49043
肝	-9.49163
不從	-9.49164
嚴陵方氏曰	-9.49183
三分	-9.49232
謙	-9.49242
不合	-9.49257
則曰	-9.49405
遵	-9.49416
大宗伯	-9.49442
不降	-9.49482
境	-9.4951
汝	-9.49579
齋	-9.49583
賈氏曰	-9.49642
戚	-9.49689
釁	-9.49691
戴	-9.49972
割	-9.50174
以告	-9.50201
二月	-9.50205
父之	-9.50228
禱	-9.5027
遠	-9.50297
朝夕	-9.50376
其子	-9.50503
仰	-9.50668
三人	-9.50756
先生	-9.50797
則為	-9.50811
輕重	-9.50832
皇太子	-9.50861
爵弁	-9.50923
禰	-9.50993
遊	-9.51006
賵	-9.5105
染	-9.5108
裼	-9.51155
以來	-9.51238
其中	-9.5139
此謂	-9.51463
國中	-9.51468
鄉大夫	-9.51557
東北	-9.51645
者必	-9.51726
明日	-9.51766
禮畢	-9.51891
孔子曰	-9.51923
必先	-9.51998
縱	-9.52144
於天子	-9.52155
冊	-9.52206
傅	-9.52242
四十	-9.52247
協	-9.52256
三代	-9.52376
喻	-9.52382
不足以	-9.52425
蟲	-9.52437
盈	-9.52438
四寸	-9.5261
絃	-9.5272
愈	-9.52733
黼	-9.52778
公卿	-9.52807
如字	-9.52849
以見	-9.52859
皆是	-9.52862
長子	-9.52881
鬯	-9.52893
檀弓	-9.52949
弓矢	-9.52973
祿	-9.53029
無事	-9.53052
兮	-9.5313
以時	-9.53163
僭	-9.53169
淺	-9.53182
再拜稽首	-9.5325
陛下	-9.5328
尹	-9.53423
下同	-9.53551
司正	-9.53703
契	-9.53704
浴	-9.53751
頌	-9.53755
粟	-9.53759
没	-9.53759
始死	-9.53776
䇿	-9.53796
不相	-9.53815
牲體	-9.53823
其服	-9.53875
厯	-9.53876
䙝	-9.5389
衍	-9.54014
侵	-9.54023
注釋曰云	-9.54044
曽	-9.54072
不忍	-9.54116
勺	-9.54334
威儀	-9.54338
池	-9.54339
朱子曰	-9.54342
以後	-9.54363
次之	-9.54392
考之	-9.54461
夀	-9.54499
大喪	-9.54509
之長	-9.54521
規	-9.54597
也音義	-9.54598
註云	-9.54644
藝	-9.54694
喪禮	-9.54703
之情	-9.54708
此則	-9.54856
集説曰	-9.54893
擬	-9.54917
費	-9.55095
沒	-9.55135
也孔氏曰	-9.55211
較	-9.55281
黄帝	-9.55344
纁	-9.55461
五祀	-9.55583
在外	-9.55718
異姓	-9.55738
士喪禮	-9.55752
乆	-9.55789
人所	-9.55852
之東	-9.55886
饗食	-9.55977
鑿	-9.56094
司士	-9.56143
植	-9.56154
其後	-9.56264
破	-9.56316
溝	-9.56385
既葬	-9.56416
以象	-9.56435
稻	-9.56451
當時	-9.56455
禮者	-9.56461
淳	-9.56524
注釋曰	-9.56538
座	-9.56647
以至	-9.56659
撰	-9.56681
敬也	-9.56693
菹	-9.56738
樂之	-9.56777
韋	-9.56822
郎	-9.56841
有餘	-9.56889
所掌	-9.56922
先王之	-9.5711
蕃	-9.57202
尊也	-9.57249
亦曰	-9.57255
雅	-9.57302
析	-9.57352
其地	-9.57369
源	-9.57429
在西	-9.57467
此亦	-9.57479
大臣	-9.57666
淮	-9.57692
菜	-9.57734
長者	-9.57755
之廟	-9.57825
射人	-9.57832
王昭禹曰	-9.57835
馭	-9.57852
吉祭	-9.57946
小人	-9.57946
七年	-9.57965
支	-9.57966
勇	-9.58011
譏	-9.58141
懼	-9.58147
時也	-9.58184
蠶	-9.58218
若然	-9.58299
大國	-9.58376
竊	-9.58621
緩	-9.58651
之功	-9.58796
坎	-9.58859
者蓋	-9.58908
其君	-9.58941
昏禮	-9.58967
累	-9.58994
韓	-9.58998
絞	-9.59107
各一	-9.59113
竝	-9.59129
皆用	-9.59243
徽	-9.59329
然也	-9.5937
可謂	-9.59379
準	-9.5942
逐	-9.59522
經文	-9.59565
者非	-9.59644
五行	-9.5977
賔主	-9.5985
於上	-9.5986
強	-9.60041
卦	-9.60059
先後	-9.60108
怒	-9.60133
三年之喪	-9.60201
別	-9.60227
閭	-9.60302
皆在	-9.60311
旬	-9.60321
多少	-9.60327
丈	-9.60365
覲	-9.60415
軍旅	-9.60416
璋	-9.6045
天之	-9.60479
北上	-9.60499
畿内	-9.60782
尾	-9.60816
小宗	-9.6086
偶	-9.6094
方氏曰	-9.60968
以示	-9.61019
併	-9.61021
袂	-9.6115
丞	-9.61174
巫	-9.61255
噐	-9.61269
事之	-9.61384
大學	-9.61401
楊	-9.61425
西南	-9.61467
忽	-9.61531
以授	-9.61581
泉	-9.61717
偽	-9.6175
成服	-9.62052
昬	-9.62064
對曰	-9.62074
獲者	-9.62078
禍	-9.6214
不然	-9.62167
士之	-9.62197
大史	-9.62202
羮	-9.62311
不入	-9.62334
醮	-9.62381
異也	-9.62438
儐	-9.62503
寝	-9.62544
二者	-9.62645
鵠	-9.62653
鄉飲酒	-9.62662
十一月	-9.62679
八月	-9.62697
賀	-9.62977
徙	-9.62981
儉	-9.63086
緫	-9.63254
亦如	-9.63294
親之	-9.63351
鹿	-9.63356
之用	-9.63394
牙	-9.63428
娶	-9.6348
祭器	-9.63487
六月	-9.63509
卑者	-9.63649
在東	-9.63706
之實	-9.63724
智	-9.6384
治之	-9.63884
東上	-9.63903
樂正	-9.63925
今文	-9.63985
巡	-9.6402
杜	-9.64078
有功	-9.64087
曽子	-9.64372
設之	-9.64385
諸臣	-9.64405
致其	-9.64543
伸	-9.64549
如是	-9.64603
緇	-9.64646
測	-9.64673
九十	-9.64681
狹	-9.64714
南向	-9.64785
女子	-9.64842
子弟	-9.64938
食之	-9.64949
丹	-9.64997
滿	-9.65001
不祭	-9.65129
范	-9.65202
於内	-9.65308
士大夫	-9.65329
墨	-9.65349
冰	-9.65491
荅拜	-9.65516
八十	-9.65522
作樂	-9.65587
拾	-9.65611
冠者	-9.65658
其制	-9.65841
三者	-9.65941
狄	-9.6596
冒	-9.65973
注疏	-9.66029
蜡	-9.6608
路寢	-9.66161
閉	-9.66182
物也	-9.66267
念	-9.66269
遽	-9.66314
玉藻	-9.66485
經云	-9.66645
於其	-9.66804
之親	-9.66962
𤣥謂	-9.67017
正義曰	-9.6705
蒙	-9.67074
是其	-9.67135
觚	-9.67257
以前	-9.67276
記曰	-9.67281
在室	-9.67284
或為	-9.67317
爾雅	-9.67365
姦	-9.67384
道路	-9.67393
至尊	-9.67428
狀	-9.67453
烏	-9.67471
弧	-9.6754
醬	-9.67545
剛	-9.6758
圜丘	-9.6765
亦謂	-9.67654
上士	-9.67681
童子	-9.67757
或以	-9.67819
符	-9.67826
繹	-9.67896
縷	-9.67909
不親	-9.6797
在前	-9.67971
懸	-9.68028
自然	-9.68054
大祥	-9.68098
兹	-9.68125
亦無	-9.68247
缺	-9.68285
於王	-9.68339
雖不	-9.68342
第二	-9.6836
都鄙	-9.68429
同也	-9.68506
而入	-9.68541
燔	-9.68581
神主	-9.68651
臭	-9.68663
之北	-9.68675
羣吏	-9.68717
當作	-9.68756
進退	-9.68765
旋	-9.6877
去其	-9.68778
庶羞	-9.688
田獵	-9.68943
僖	-9.69116
北方	-9.69124
柱	-9.69179
員	-9.69275
於下	-9.69356
藻	-9.69444
止於	-9.69536
而云	-9.69644
逺近	-9.69657
門内	-9.69763
卒爵	-9.69815
王后	-9.69898
或有	-9.70027
上大夫	-9.70036
十三	-9.70091
不易	-9.70128
采地	-9.70169
敝	-9.70194
鮮	-9.70256
裏	-9.70404
國子	-9.70414
樂作	-9.70524
諭	-9.70607
辨其	-9.70743
糾	-9.70777
其名	-9.70862
輅	-9.70886
踰	-9.71008
宗本紀	-9.71027
宫室	-9.71078
讀如	-9.71112
所生	-9.712
之際	-9.71282
四月	-9.7144
幕	-9.71473
鄙	-9.71563
隋	-9.71607
勢	-9.71766
科	-9.71852
記云	-9.71918
其文	-9.71949
畿	-9.72009
從者	-9.72116
惑	-9.72219
緣	-9.72317
𨽻	-9.72374
瑞	-9.72391
諸公	-9.7241
升自西階	-9.72511
楹	-9.72538
大祝	-9.72654
或作	-9.72655
千里	-9.72699
餼	-9.72719
者其	-9.72737
所當	-9.72742
大夫之	-9.72754
四海	-9.72786
裁	-9.72788
轂	-9.72804
南方	-9.72855
貧	-9.72884
朕	-9.72928
皆同	-9.72938
而祭	-9.72982
九年	-9.72995
緯	-9.73066
見之	-9.73142
若今	-9.73147
掌之	-9.73147
根	-9.73221
遲	-9.73244
旱	-9.73314
則此	-9.73417
翟	-9.73456
為大	-9.73657
太宰	-9.73686
麥	-9.73689
天道	-9.73721
豚	-9.73727
財用	-9.73728
洛	-9.73758
照	-9.73786
法也	-9.73823
效	-9.73863
荆	-9.73946
服也	-9.73961
允	-9.7412
二曰	-9.74232
下云	-9.74289
者所以	-9.74357
得其	-9.74386
拘	-9.74387
之民	-9.74395
幂	-9.74426
祊	-9.74479
疆	-9.74601
族人	-9.74875
鄉遂	-9.74889
軌	-9.74929
播	-9.74931
一尺	-9.74934
致命	-9.74964
掌其	-9.74993
觧	-9.7501
而又	-9.75093
祭酒	-9.75172
忌	-9.75352
勉	-9.75397
春秋傳曰	-9.75399
陽氣	-9.75455
亨	-9.75468
葉	-9.75574
者是	-9.75592
脫	-9.75621
奚	-9.75632
注謂	-9.75634
侯氏	-9.75711
此禮	-9.75749
八年	-9.75834
東向	-9.75841
禹貢	-9.75849
於堂	-9.75928
陳之	-9.75937
書曰	-9.75954
義也	-9.75976
陶	-9.76022
太史	-9.76027
踐	-9.76043
五服	-9.76203
栗	-9.76206
五寸	-9.76285
大司徒	-9.76289
院	-9.76342
之政	-9.76486
道之	-9.76504
盤	-9.76513
此皆	-9.76639
㑹同	-9.76647
集説	-9.76659
之家	-9.76707
大夫以上	-9.76755
賊	-9.76788
静	-9.76817
樂止	-9.7688
之末	-9.76979
物之	-9.77011
先儒	-9.77037
刃	-9.77038
貪	-9.77151
曽祖	-9.77155
亦云	-9.77213
三曰	-9.77301
股	-9.77375
施於	-9.77378
職云	-9.77436
降一等	-9.77463
記者	-9.77522
旒	-9.77603
雩	-9.77605
苴	-9.77649
今之	-9.77754
却	-9.77771
草木	-9.77794
大饗	-9.77811
坫	-9.77813
討	-9.77824
不忘	-9.77863
勅	-9.77868
命婦	-9.77891
困	-9.77934
其本	-9.77966
媵	-9.77972
郊特牲	-9.77994
瑟	-9.78053
生者	-9.78126
共其	-9.78129
賓主	-9.78137
傳云	-9.78149
大司樂	-9.78219
卿大夫士	-9.78219
不出	-9.78252
其心	-9.78291
巧	-9.78329
宻	-9.78347
冕服	-9.78383
侍中	-9.78393
后土	-9.78401
牽	-9.78415
綱	-9.78448
以事	-9.78481
不變	-9.78522
而為之	-9.78565
名也	-9.78603
恥	-9.78667
十年	-9.78788
卜筮	-9.78857
不盡	-9.78909
不服	-9.78911
曉	-9.7894
束帛	-9.78957
翣	-9.78969
為母	-9.79131
不如	-9.79136
二十四	-9.79324
四尺	-9.79391
正祭	-9.79428
設于	-9.79512
朝覲	-9.79536
皆如	-9.79595
爨	-9.79746
如此則	-9.79749
養之	-9.79772
穿	-9.79788
衾	-9.7992
因其	-9.79954
冠禮	-9.7996
殺之	-9.80005
之所以	-9.8007
怪	-9.80149
在左	-9.8016
其聲	-9.80206
神之	-9.80209
飱	-9.80225
組	-9.80331
而成	-9.80498
伍	-9.80503
閣	-9.80592
成也	-9.80652
天官	-9.80722
其職	-9.80752
祗	-9.80931
髪	-9.80967
其意	-9.80971
浮	-9.80998
之月	-9.81012
將命	-9.8102
續	-9.81031
蕭	-9.81036
醫	-9.81055
獵	-9.81066
坊	-9.81108
援	-9.81109
蒼	-9.81263
痛	-9.81296
内則	-9.81324
公羊	-9.81358
甘	-9.81358
反又	-9.81384
提	-9.81455
此時	-9.81505
其次	-9.81511
貝	-9.81546
衣裳	-9.816
蜃	-9.81751
非禮	-9.81777
州長	-9.81884
射者	-9.8189
寜	-9.81907
外朝	-9.81959
之徳	-9.81959
故有	-9.81973
相對	-9.82049
其人	-9.82064
不舉	-9.82119
旂	-9.8212
王命	-9.82135
為其	-9.82188
板	-9.82301
士禮	-9.8232
親親	-9.82402
六卿	-9.82437
皆為	-9.82465
禮有	-9.82492
大祭祀	-9.82494
禮義	-9.82524
之命	-9.82553
左氏	-9.82556
喪紀	-9.82571
基	-9.82603
祀之	-9.82768
侈	-9.82789
春官	-9.82858
授之	-9.82869
篤	-9.82903
親者	-9.82912
已上	-9.82944
氷	-9.83014
之䘮	-9.8308
其説	-9.83261
此篇	-9.83282
底	-9.83362
馮	-9.83487
决	-9.8353
襚	-9.83531
不至	-9.83585
人心	-9.83612
回	-9.83629
宇	-9.8367
致之	-9.83689
畝	-9.83695
以次	-9.83722
各以其	-9.83726
則亦	-9.83751
策	-9.8378
瀆	-9.83847
父在	-9.83854
係	-9.83858
祖宗	-9.83863
孔氏	-9.83907
挾	-9.84003
三等	-9.84061
人也	-9.84084
文公	-9.84107
肥	-9.84161
之大	-9.84256
學士	-9.84279
竭	-9.84304
瓦	-9.84316
檢	-9.84415
輈	-9.84441
繼公謂	-9.84537
禦	-9.84663
彛	-9.8468
詞	-9.84736
之國	-9.8474
怠	-9.8488
曰某	-9.84908
禽獸	-9.84952
庫	-9.84997
暑	-9.85004
未必	-9.85012
緌	-9.85066
吉禮	-9.85084
靡	-9.85117
争	-9.85119
小國	-9.85132
粱	-9.85188
大司馬	-9.85189
覲禮	-9.85221
吹	-9.85292
窆	-9.85323
茅	-9.85346
六官	-9.85412
其情	-9.85414
域	-9.85511
不使	-9.85569
抱	-9.85596
此所以	-9.8561
焉故	-9.85625
晉侯	-9.85652
失之	-9.8576
藥	-9.85882
不欲	-9.85917
敖	-9.86048
非常	-9.86117
奥	-9.8613
西向	-9.86216
乞	-9.86229
礼	-9.86272
則民	-9.86323
拜受	-9.86354
秀	-9.86376
羅	-9.86421
不應	-9.8646
粥	-9.86466
矣然	-9.86553
詳見	-9.86562
驗	-9.86566
眡	-9.86679
又案	-9.8668
所在	-9.8669
名曰	-9.86757
錦	-9.86814
劉氏曰	-9.86867
玄	-9.86872
三百	-9.86917
程	-9.86983
弛	-9.87122
園	-9.87131
敘	-9.8714
脊	-9.87221
貨賄	-9.87244
長短	-9.87287
之意也	-9.87356
黃	-9.87359
辛	-9.87409
不行	-9.87433
室中	-9.87464
郊祀	-9.87479
韠	-9.87493
子之	-9.87542
荅	-9.87581
埋	-9.87607
姑姊妹	-9.87642
燎	-9.87656
冪	-9.87671
世佐案	-9.87786
在内	-9.8782
寅	-9.87863
其國	-9.87868
舟	-9.87873
一等	-9.87969
烈	-9.88041
其上	-9.881
主人之	-9.88179
戈	-9.88273
其一	-9.88357
鴈	-9.88444
秉	-9.88467
奄	-9.88471
飛	-9.88472
郤	-9.88484
者即	-9.88588
無常	-9.88639
操	-9.88667
士冠禮	-9.88761
非特	-9.88775
驅	-9.88802
之政令	-9.88808
灰	-9.88836
招	-9.88866
執之	-9.88899
猶有	-9.88959
馬氏曰	-9.89013
五日	-9.89027
六寸	-9.89103
二字	-9.89257
西上	-9.89312
諸矦	-9.89422
蕩	-9.89493
地官	-9.89519
也蓋	-9.89524
是謂	-9.89525
牖	-9.89547
無文	-9.89549
謁	-9.89613
不宜	-9.89638
其辭	-9.89651
非禮也	-9.89664
以成	-9.89803
停	-9.89888
右手	-9.89939
亦可	-9.89942
助祭	-9.89985
而止	-9.90039
殽	-9.90041
産	-9.90063
靜	-9.901
焚	-9.90125
獄訟	-9.90147
隅	-9.90338
其妻	-9.90363
之序	-9.90443
閏	-9.90475
用布	-9.90485
膳夫	-9.90487
嚮	-9.90504
乖	-9.9051
欽	-9.9052
是為	-9.90535
土地	-9.90544
舌	-9.90574
五人	-9.90801
黄道	-9.90884
於朝	-9.90891
酳	-9.90902
官府	-9.90922
震	-9.90994
三尺	-9.91004
之聲	-9.91007
中士	-9.91017
到	-9.91039
長兄弟	-9.91073
在此	-9.91294
不敢以	-9.91354
稽首	-9.91385
小祥	-9.91393
筓	-9.91423
廵	-9.91503
論語	-9.91522
十九	-9.91528
飬	-9.91547
祖禰	-9.91585
之餘	-9.91673
行也	-9.91691
汁	-9.9181
機	-9.91861
繡	-9.91942
瞽	-9.91947
於地	-9.91964
懿	-9.91971
呂	-9.91975
故鄭云	-9.9198
長幼	-9.92018
不食	-9.92034
膏	-9.92101
始於	-9.92111
密	-9.92155
亦得	-9.92254
可見	-9.92434
魚腊	-9.92435
聼	-9.92465
共之	-9.92474
三寸	-9.92474
變於	-9.92477
赦	-9.92629
十四	-9.92636
第一	-9.92654
謬	-9.92665
閑	-9.9274
𤣥酒	-9.9274
王肅	-9.92845
諸子	-9.9285
蕙田案以上	-9.92864
孔氏穎達曰	-9.92875
姪	-9.92953
設於	-9.9305
魄	-9.9308
之詩	-9.93099
茍	-9.93111
乙	-9.93147
升降	-9.93179
皆然	-9.93201
曾	-9.93237
其言	-9.93287
落	-9.93336
博士	-9.9334
素服	-9.93365
柩車	-9.9338
位於	-9.93611
沙	-9.93611
腹	-9.93618
不待	-9.93621
沐浴	-9.93647
吉服	-9.9376
在後	-9.93805
整	-9.93866
當以	-9.93906
此文	-9.93913
祭禮	-9.93968
數也	-9.94022
亦用	-9.94061
歎	-9.94093
栁	-9.94099
題	-9.94178
走	-9.94231
陳氏	-9.94285
捧	-9.94285
之至也	-9.9429
慕	-9.94293
壊	-9.94322
一寸	-9.94346
之本	-9.94489
君也	-9.94514
育	-9.94517
南郊	-9.94519
衮	-9.94586
丈夫	-9.94619
繒	-9.94662
喪祭	-9.94718
祭也	-9.94735
墳	-9.94745
其時	-9.94832
名之	-9.94882
之器	-9.94884
上言	-9.94888
輻	-9.94912
:「	-9.94985
𤣥冕	-9.94989
喪事	-9.95011
周制	-9.95021
内宰	-9.95095
小宗伯	-9.95232
太常	-9.95239
生於	-9.95277
寓	-9.95318
陛	-9.95335
少退	-9.95369
在廟	-9.95398
髮	-9.95421
筐	-9.9546
殷人	-9.95472
五聲	-9.95509
視之	-9.9551
先祖	-9.95544
宫中	-9.95553
非謂	-9.95556
奠爵	-9.95571
嘏	-9.9569
始祖	-9.95736
桃	-9.95817
奠于	-9.95877
涖	-9.95887
熊	-9.95895
祭法	-9.95943
於天下	-9.95962
四方之	-9.96
飾也	-9.96067
則非	-9.9607
於天	-9.96082
藏之	-9.96112
饔	-9.9614
霤	-9.96142
外内	-9.96206
沐	-9.96214
羔	-9.96345
錄	-9.96408
不杖	-9.96409
刀	-9.96439
百物	-9.96506
以樂	-9.96573
軫	-9.96588
事畢	-9.96675
也既	-9.9668
郭	-9.96803
司服	-9.96804
車馬	-9.96824
以致	-9.96869
之書	-9.96895
第三	-9.96964
壁	-9.9705
也天子	-9.9709
故鄭	-9.97136
懷	-9.97255
俯	-9.97311
仁義	-9.97341
故事	-9.97369
方氏慤曰	-9.97386
以明	-9.97392
正義	-9.97517
英	-9.97524
太宗	-9.97608
注同	-9.9766
遂人	-9.9771
迹	-9.97719
投	-9.97862
慝	-9.97903
矦	-9.97927
矣此	-9.97956
下有	-9.97967
之異	-9.98031
者據	-9.98034
皇太后	-9.98048
與此	-9.98213
七寸	-9.98257
宗婦	-9.98282
女君	-9.983
稼	-9.9839
庠	-9.98394
其間	-9.9841
貴者	-9.98498
以義	-9.98549
無射	-9.9856
是月也	-9.98579
求之	-9.98655
失禮	-9.98682
珍	-9.98772
不敬	-9.98816
齎	-9.98846
判	-9.98855
賻	-9.98873
以治	-9.98974
歡	-9.99001
而巳	-9.99007
柴	-9.99021
麤	-9.99038
代之	-9.99206
得以	-9.99263
埽	-9.99292
鉤	-9.9939
秋官	-9.99501
天神	-9.99603
濁	-9.99639
以下皆	-9.99679
祀天	-9.99701
適孫	-9.99708
庭實	-9.99759
斿	-9.99773
冀	-9.99852
□	-9.9987
禮儀	-9.99927
夏后氏	-9.99933
之始	-10.0006
以備	-10.0012
在南	-10.0015
壙	-10.0015
仲春	-10.0022
位也	-10.0024
邸	-10.0024
中庭	-10.0025
脯醢	-10.0026
為大夫	-10.0032
之次	-10.0061
者明	-10.0062
其民	-10.0062
祭祀之	-10.0064
而生	-10.0065
歆	-10.0068
僅	-10.0068
曾祖	-10.0069
蚤	-10.0081
唯有	-10.0083
夏官	-10.0088
壝	-10.0094
也但	-10.0099
廉	-10.01
春秋傳	-10.0108
八寸	-10.0116
告于	-10.0117
入於	-10.0117
考工記	-10.0121
之尊	-10.0123
地之	-10.0123
湆	-10.0126
反下同	-10.0127
職曰	-10.0128
濫	-10.0129
為禮	-10.013
訝	-10.0131
饔餼	-10.0132
乗車	-10.0135
皆不	-10.0136
西階	-10.0141
竈	-10.0143
買	-10.0149
入于	-10.0156
三命	-10.0157
之分	-10.0158
内史	-10.0164
以正	-10.0176
姑洗	-10.0178
女子子	-10.0183
琴瑟	-10.0184
本又作	-10.0185
武帝	-10.019
陪	-10.0194
麗	-10.0205
禪	-10.0205
二寸	-10.0209
俾	-10.0209
好惡	-10.0222
西階上	-10.0224
小大	-10.0227
姜	-10.0227
大牢	-10.0228
恵	-10.0233
其徳	-10.0234
拂	-10.0236
亭	-10.0237
使民	-10.0241
六鄉	-10.0244
僖公	-10.0249
之别	-10.025
五色	-10.0255
相應	-10.0258
上射	-10.0261
以祭	-10.0263
淵	-10.0263
櫛	-10.0264
壯	-10.0265
首絰	-10.0272
者葢	-10.0272
祖父母	-10.0276
言之則	-10.0282
丑	-10.0284
自是	-10.029
康成	-10.0292
遣使	-10.0292
子游	-10.0293
笏	-10.0293
而不可	-10.0299
東房	-10.0303
知之	-10.0306
大行人	-10.0307
不備	-10.0312
樂器	-10.0318
弁絰	-10.0323
隔	-10.0323
增	-10.0324
段	-10.0325
國語	-10.0332
寺	-10.0334
夏殷	-10.0336
寄	-10.0336
戾	-10.0345
而行之	-10.0346
罔	-10.0356
拜之	-10.0356
五官	-10.0364
失其	-10.0365
父兄	-10.0367
祭地	-10.0374
亷	-10.0379
主國	-10.038
太祝	-10.0385
樂也	-10.0391
紐	-10.0395
洗爵	-10.0401
筭	-10.0402
完	-10.0405
饑	-10.0405
北向	-10.0406
統於	-10.0407
古今	-10.0407
是時	-10.0408
故其	-10.0409
而不言	-10.0428
晝	-10.0429
北靣	-10.0431
也故曰	-10.0444
親迎	-10.0445
不正	-10.045
太后	-10.0453
朝聘	-10.0454
而死	-10.0455
誦	-10.0456
者何	-10.0463
中國	-10.0465
滌	-10.0471
胙	-10.0475
六人	-10.0478
凖	-10.0478
殆	-10.0491
釋奠	-10.0494
刑罰	-10.0496
付	-10.0499
創	-10.05
在於	-10.0501
也大夫	-10.0501
險	-10.0507
加於	-10.0513
觀之	-10.0516
于王	-10.0517
所執	-10.0519
御史	-10.053
則必	-10.0542
人道	-10.0545
人之所	-10.0552
六遂	-10.0556
京師	-10.0559
者盖	-10.0566
欺	-10.0569
除喪	-10.057
當在	-10.0572
如今	-10.0581
輒	-10.0583
九州	-10.0583
鄭註	-10.0593
然而	-10.0595
日月星辰	-10.0596
為節	-10.0597
䘮服	-10.0602
為人	-10.0603
大僕	-10.0604
慈母	-10.0608
蠻	-10.0608
亦謂之	-10.0611
未能	-10.0616
泥	-10.0618
一分	-10.062
通典	-10.062
矩	-10.062
太尉	-10.0622
生時	-10.0625
之右	-10.063
之色	-10.0632
其志	-10.0636
衮冕	-10.0638
八人	-10.0638
異者	-10.0639
以俟	-10.0641
有四	-10.0645
𤣥冠	-10.0646
而非	-10.0646
之妻	-10.0648
與人	-10.065
楅	-10.065
事者	-10.0654
一節	-10.0657
而民	-10.0658
不特	-10.0669
南上	-10.0676
故用	-10.0676
沃	-10.068
位在	-10.0681
涂	-10.0681
巾車	-10.0683
織	-10.0691
也鄭司農云	-10.0694
聖人之	-10.0694
於民	-10.0697
忠信	-10.0699
哀公	-10.07
於中	-10.0702
弔服	-10.0703
明器	-10.071
凡祭祀	-10.071
卽	-10.071
飭	-10.0716
㓜	-10.0719
棘	-10.0724
不通	-10.0725
筋	-10.0728
上有	-10.073
子夏	-10.0731
其他	-10.0738
初獻	-10.074
得之	-10.0741
禮器	-10.0742
亞獻	-10.0742
君子之	-10.0749
不失	-10.075
不受	-10.0751
戮	-10.0754
死則	-10.0754
正服	-10.0757
之初	-10.076
居喪	-10.0762
臂	-10.0772
廟中	-10.0778
不成	-10.0779
之田	-10.0786
凢	-10.0788
士虞禮	-10.0791
五分	-10.0794
禾	-10.0796
萊	-10.0796
殺也	-10.0799
豈有	-10.0801
死而	-10.0802
易氏曰	-10.0803
以行	-10.0806
推之	-10.0811
自有	-10.0816
皆得	-10.082
也疏	-10.0824
事君	-10.0828
睦	-10.0828
該	-10.084
擾	-10.0843
亞	-10.0845
之正	-10.0846
坤	-10.0851
不勝	-10.0852
舉其	-10.0853
遂以	-10.0858
顔	-10.0862
王朝	-10.0864
以出	-10.0869
祖父	-10.0869
山澤	-10.0872
握	-10.088
釐	-10.0886
朝踐	-10.0888
随	-10.0888
奠之	-10.0892
箕	-10.0892
則用	-10.0902
告之	-10.0904
與夫	-10.0908
六尺	-10.0911
簫	-10.0923
而退	-10.0923
大禮	-10.0924
鄭康成	-10.0927
舄	-10.0929
無所不	-10.0932
祖考	-10.0934
鄭氏謂	-10.0939
湇	-10.0945
所宜	-10.0946
而用之	-10.0947
其下	-10.0948
近郊	-10.0948
誣	-10.0949
鬱鬯	-10.0958
禮官	-10.0964
孟春	-10.0968
二十五	-10.0976
呉	-10.098
無子	-10.0984
臣子	-10.0991
父母之喪	-10.0994
琮	-10.1
觀其	-10.1001
亦非	-10.1004
廟門	-10.1004
轅	-10.1005
非是	-10.1007
戒之	-10.1014
子思	-10.1021
瘞	-10.1026
九寸	-10.1027
邱	-10.1034
亥	-10.1041
而已故	-10.1048
敖氏	-10.1048
不稱	-10.1049
投壺	-10.105
九嬪	-10.1053
桓公	-10.1053
夾室	-10.1055
个	-10.107
貸	-10.1078
縞	-10.1079
重者	-10.108
所居	-10.108
行者	-10.1081
一命	-10.1087
四曰	-10.1094
狗	-10.1096
罍	-10.1101
公卿大夫	-10.1103
夏至	-10.1104
鬱	-10.1113
普	-10.1115
滑	-10.1115
東序	-10.1121
炙	-10.1124
齊侯	-10.1128
之差	-10.1129
巡守	-10.113
漢書	-10.1137
黎	-10.1145
他國	-10.115
所載	-10.1159
己之	-10.1166
春夏	-10.1171
之謂也	-10.1171
惰	-10.1175
貶	-10.1177
犧	-10.1183
喪大記	-10.1191
誰	-10.1196
練冠	-10.1199
王氏	-10.1201
湏	-10.1202
大廟	-10.1206
在堂	-10.1207
而能	-10.1212
猛	-10.1216
脅	-10.1217
致爵	-10.1227
絳	-10.123
於是乎	-10.1231
于此	-10.1233
其家	-10.124
芳	-10.1243
為三	-10.1248
之賦	-10.1253
僣	-10.1253
枕	-10.1253
政事	-10.1258
賛者	-10.1258
是也云	-10.1258
者彼	-10.1259
抗	-10.1262
禮部	-10.1263
郝氏曰	-10.1265
起居	-10.1272
絜	-10.1279
燕射	-10.1283
正也	-10.1284
五曰	-10.1292
芻	-10.1305
傾	-10.1305
小學	-10.1307
先君	-10.1312
主之	-10.1313
暫	-10.1316
如何	-10.1318
熙	-10.132
士介	-10.1322
茂	-10.1334
逮	-10.1343
賜之	-10.1346
冢	-10.1347
反命	-10.1349
姊妹	-10.1349
余	-10.1359
漏	-10.1366
柳	-10.1372
十八	-10.1375
言語	-10.1381
之左	-10.1382
治其	-10.1383
即此	-10.1391
何也曰	-10.1394
方氏	-10.1397
萌	-10.1397
故書	-10.1403
不自	-10.142
委積	-10.1423
服期	-10.1425
此所謂	-10.1426
霸	-10.1429
百工	-10.1429
琴	-10.143
十二年	-10.1433
次第	-10.1445
岳	-10.145
託	-10.1451
家語	-10.1456
告於	-10.1457
襄公	-10.1468
小司徒	-10.1472
十七	-10.1475
嫡	-10.1477
亢	-10.1483
奠於	-10.1484
晚	-10.1488
而弗	-10.1488
於國	-10.1489
賤者	-10.1491
聞之	-10.1493
禘祫	-10.1495
四分	-10.1496
不可不	-10.1503
黄氏曰	-10.1504
而上	-10.1508
藩	-10.1513
拜賔	-10.1514
則當	-10.1521
笑	-10.1528
司㑹	-10.1529
反哭	-10.153
又言	-10.1543
待之	-10.1543
固有	-10.1546
也君	-10.1547
之治	-10.1549
于門外	-10.1552
神位	-10.1552
毒	-10.1553
直云	-10.1566
之稱	-10.1566
亦為	-10.1567
紹	-10.157
事而	-10.1576
醉	-10.158
畔	-10.1586
之閒	-10.1587
聽之	-10.1588
酳尸	-10.1589
斧	-10.159
祭肺	-10.1594
故君子	-10.1597
之學	-10.1602
於己	-10.1611
谷	-10.1615
蘇	-10.162
頃	-10.1631
雖無	-10.1631
覺	-10.1631
史記	-10.1638
胾	-10.1646
幄	-10.1656
項	-10.1658
四面	-10.166
始也	-10.1666
區	-10.1673
位于	-10.1675
典瑞	-10.1681
不絶	-10.1685
也周禮	-10.1687
以爵	-10.1689
者欲	-10.1695
去之	-10.1697
云凡	-10.1697
渠	-10.1703
所為	-10.1712
再命	-10.1714
不容	-10.1718
1	-10.1729
之體	-10.1733
敷	-10.1738
虧	-10.174
其父	-10.1751
札	-10.1753
無算爵	-10.1755
三揖	-10.1761
五采	-10.1767
其長	-10.1772
中霤	-10.1777
一時	-10.1778
言之也	-10.179
穴	-10.1797
珠	-10.1797
職事	-10.1798
為妻	-10.18
二日	-10.1802
鑊	-10.1805
秋冬	-10.1809
鼻	-10.1818
驕	-10.1819
纚	-10.1827
膳宰	-10.1828
四郊	-10.1833
在北	-10.1838
有六	-10.1839
下殤	-10.1845
澄曰	-10.1845
籥	-10.1849
其氣	-10.185
其法	-10.1852
盧	-10.1856
為尸	-10.1864
阿	-10.1865
軒	-10.1872
苗	-10.1873
墮	-10.1875
出于	-10.1878
盡其	-10.1879
靣	-10.1885
湖	-10.1888
之恩	-10.1894
魂	-10.1896
也又曰	-10.1899
儐尸	-10.1908
酉	-10.1911
借	-10.1911
在右	-10.1912
夫家	-10.1925
柶	-10.1927
夫之	-10.1934
季秋	-10.1935
置於	-10.1936
之美	-10.1943
載之	-10.1945
則謂之	-10.1952
有異	-10.1954
而反	-10.1958
巷	-10.1958
於門外	-10.1962
者如	-10.1965
內	-10.1965
自此	-10.1965
在國	-10.1972
敏	-10.1972
溺	-10.1974
而復	-10.1982
也士	-10.1983
廷	-10.1987
者或	-10.1988
宗室	-10.1993
聨	-10.1995
非一	-10.1996
此章	-10.2003
之教	-10.2004
鄰	-10.2009
冡宰	-10.2009
林鍾	-10.2009
五十里	-10.2013
政令	-10.2015
直言	-10.2024
髙下	-10.2032
七日	-10.2036
士師	-10.2037
也且	-10.2038
而不敢	-10.2051
驚	-10.2054
鈞	-10.2056
祖母	-10.2056
所由	-10.2059
神也	-10.206
問之	-10.2063
衆主人	-10.2067
它	-10.2071
唱	-10.2076
日在	-10.2084
人為	-10.2088
二尺	-10.2088
為父	-10.2093
之世	-10.2094
詐	-10.2095
紳	-10.2095
亦在	-10.2098
混	-10.2108
粗	-10.212
相去	-10.212
其功	-10.2121
童	-10.2123
引之	-10.2124
車之	-10.2124
蹕	-10.2128
臧	-10.2128
禳	-10.2136
匡	-10.2138
悔	-10.2138
阼階	-10.2138
諸儒	-10.2139
既殯	-10.214
臣之	-10.2142
几筵	-10.2143
繢	-10.2148
醴酒	-10.215
二十七	-10.2159
中有	-10.2159
有罪	-10.2165
釋曰此	-10.2165
妨	-10.2167
讀爲	-10.2168
小歛	-10.2173
而不知	-10.2176
小行人	-10.2183
尺二寸	-10.2186
消	-10.2187
若夫	-10.2189
闔	-10.221
而言也	-10.2212
除之	-10.2213
故得	-10.2215
從母	-10.2218
兩端	-10.222
其臣	-10.2223
𢎞	-10.2232
舊説	-10.2233
盜	-10.2236
即是	-10.2236
奔喪	-10.224
陳設	-10.2243
猶言	-10.2243
迎尸	-10.2247
主人主婦	-10.225
此記	-10.2252
鴻	-10.2253
行人	-10.2257
翦	-10.226
訛	-10.2263
也不言	-10.227
終始	-10.2272
也𤣥謂	-10.2288
五世	-10.2288
而致	-10.2295
近於	-10.2296
濯	-10.23
樂師	-10.2301
在位	-10.2304
曾子	-10.2304
之形	-10.2307
絰帶	-10.2307
倦	-10.231
焉則	-10.2311
未知	-10.2312
嶽	-10.2319
所得	-10.2326
偃	-10.2327
事故	-10.2328
豈可	-10.2332
是矣	-10.2332
其形	-10.2334
為本	-10.2346
往來	-10.2348
隂氣	-10.2363
守之	-10.2364
不許	-10.237
其體	-10.2377
㡬	-10.2378
而用	-10.2386
警	-10.2387
鳥獸	-10.2389
矜	-10.2391
未成	-10.2394
雙	-10.2394
二分	-10.2399
徳之	-10.24
有五	-10.2402
送之	-10.2403
王宫	-10.2404
頗	-10.2408
扱	-10.2413
損益	-10.2413
宥	-10.2419
繆	-10.242
吾子	-10.243
五百里	-10.243
人掌	-10.2438
皆作	-10.2445
至誠	-10.2446
事親	-10.2447
卻	-10.2448
朝事	-10.2452
使大夫	-10.2453
正義敖氏繼公曰	-10.2457
獻之	-10.2459
孝經	-10.2461
繞	-10.2464
旌旗	-10.247
者先	-10.2475
廵守	-10.2475
之變	-10.2482
也葢	-10.2487
來朝	-10.2488
明其	-10.2492
經傳	-10.2494
儒者	-10.2497
八尺	-10.2497
壞	-10.2498
彞	-10.2504
解之	-10.2508
其神	-10.2508
其說	-10.2509
尊之	-10.251
褻	-10.251
房中	-10.251
四時之	-10.2516
倡	-10.2527
兵車	-10.2541
黨正	-10.2545
配天	-10.2547
河南	-10.2548
簠	-10.2549
女御	-10.2549
子路	-10.255
堯舜	-10.2554
垣	-10.2554
不止	-10.2556
立廟	-10.2557
禮志	-10.2567
其有	-10.257
皆謂	-10.2572
鄉師	-10.2572
上生	-10.258
拜受爵	-10.258
悦	-10.2585
騎	-10.2587
妾子	-10.2591
辭也	-10.2599
相為	-10.26
取矢	-10.2607
十五年	-10.2608
稽顙	-10.2611
彊	-10.2615
公邑	-10.262
由是	-10.2621
達於	-10.2623
棗	-10.2625
人以	-10.2626
朝日	-10.2628
曠	-10.2631
荀	-10.2633
一體	-10.2644
未詳	-10.2648
公侯	-10.2649
舉之	-10.2652
禮殺	-10.2654
司冦	-10.2654
人主	-10.2656
于是	-10.2657
禜	-10.2658
褖衣	-10.2666
薦脯醢	-10.2675
伊	-10.2676
山隂陸氏曰	-10.2676
奠觶	-10.2676
麋	-10.2677
之度	-10.2681
九職	-10.2683
也以其	-10.2683
十一年	-10.2685
緇布冠	-10.27
而不能	-10.2706
政教	-10.2712
子貢	-10.2713
邦國之	-10.2717
其屬	-10.2719
姬	-10.2723
者也故	-10.2724
拊	-10.2724
四望	-10.2726
曽孫	-10.2726
南鄉	-10.2737
古禮	-10.2739
合樂	-10.2739
十日	-10.2741
將軍	-10.2744
迫	-10.2744
衆庶	-10.2747
相似	-10.2751
匠人	-10.2752
虛	-10.2752
者欲見	-10.2752
别子	-10.2757
有事於	-10.2759
臘	-10.2762
脾	-10.2764
特牲少牢	-10.2765
䕶	-10.2773
正其	-10.2774
三十六	-10.2778
附庸	-10.2781
其道	-10.2782
賣	-10.2786
氣也	-10.2788
出迎	-10.2788
皮弁服	-10.2792
神明	-10.2793
槃	-10.2801
為後	-10.2807
反注同	-10.2807
器也	-10.2809
有服	-10.2818
迭	-10.2819
祔於	-10.2822
卯	-10.2827
紘	-10.2829
有子	-10.2835
也鄭氏曰	-10.2836
一名	-10.2846
未可	-10.2846
文子	-10.2848
措	-10.2848
希	-10.2848
臯	-10.2849
則又	-10.2851
也古者	-10.286
莊公	-10.2865
之失	-10.2878
云云	-10.2881
設席	-10.2883
髀	-10.2886
人皆	-10.289
受其	-10.2892
於大夫	-10.291
其色	-10.2917
出門	-10.292
不信	-10.293
釋菜	-10.2931
樂者	-10.2934
天府	-10.294
書之	-10.2948
文王之	-10.2962
晏	-10.2962
紛	-10.2965
覿	-10.2966
也若然	-10.2967
長三尺	-10.2968
執玉	-10.2968
晦	-10.2971
仁者	-10.2973
未至	-10.2978
斥	-10.2979
君所	-10.2981
鄉人	-10.2986
飽	-10.2997
事則	-10.2997
繇	-10.3002
骼	-10.3003
建國	-10.3005
也諸侯	-10.3026
不善	-10.3028
誄	-10.3031
木為	-10.3035
羊豕	-10.3038
一年	-10.304
豆籩	-10.3041
之象	-10.3041
以生	-10.3042
故先	-10.3044
尊於	-10.3046
紫	-10.3046
謂若	-10.3047
後人	-10.3054
歸於	-10.3065
夷則	-10.3067
悖	-10.307
泰山	-10.3074
蔵	-10.3075
茵	-10.3076
曰吾	-10.3078
塾	-10.308
殯宫	-10.3089
棜	-10.3089
非正	-10.3092
為賓	-10.3095
獻尸	-10.3097
五禮	-10.31
哭之	-10.3102
先言	-10.3108
祭社	-10.311
父卒	-10.3113
不明	-10.3115
俊	-10.312
錫衰	-10.3121
後鄭	-10.3121
易曰	-10.3127
大吕	-10.3128
七廟	-10.3129
誤矣	-10.3131
無主	-10.3134
不若	-10.3135
裂	-10.3136
圭璋	-10.3136
也必	-10.3136
酒正	-10.3139
荼	-10.3141
不改	-10.315
衆子	-10.3152
繋	-10.3154
受幣	-10.3157
以相	-10.316
於室	-10.316
衆人	-10.3163
蒐	-10.3168
局	-10.3172
宰相	-10.3173
隸	-10.3176
同於	-10.3178
食者	-10.3178
陳氏曰	-10.3181
成周	-10.3183
韜	-10.3184
他人	-10.3186
。」	-10.3188
今此	-10.3194
安得	-10.3195
庚	-10.3196
之黨	-10.3197
狐	-10.32
肆師	-10.32
相接	-10.3207
乃得	-10.3211
車駕	-10.3212
將以	-10.3215
應鍾	-10.3218
洽	-10.3219
集說	-10.3221
西序	-10.3223
報之	-10.323
然後可以	-10.3234
降自西階	-10.3235
教民	-10.3236
於公	-10.3237
練祥	-10.324
祭於	-10.3242
薦之	-10.3242
悲	-10.3254
禮以	-10.3254
釋之	-10.3256
者按	-10.3257
之冠	-10.326
司宫	-10.326
掌客	-10.326
翔	-10.3263
晨	-10.3263
小事	-10.3268
苑	-10.3272
西面北上	-10.3277
鄭氏康成曰	-10.3278
以共	-10.329
要絰	-10.3292
為壇	-10.3293
下記云	-10.3298
之篇	-10.3299
左傳云	-10.3299
之盛	-10.3301
一獻	-10.3301
也敖氏曰	-10.3302
皇氏	-10.3309
風雨	-10.3314
並同	-10.3316
乎曰	-10.3317
絹	-10.3322
居處	-10.3326
征伐	-10.3326
而言之	-10.3329
戌	-10.3329
髙宗	-10.333
而祭之	-10.3332
長樂陳氏曰	-10.3338
觸	-10.3341
於郊	-10.3345
豈非	-10.3346
者凡	-10.3349
别於	-10.335
有徳	-10.3352
髦	-10.3355
王所	-10.3355
熬	-10.3359
2	-10.3361
所行	-10.3362
未葬	-10.3362
三王	-10.3363
善也	-10.3364
家禮	-10.3367
弔者	-10.3367
次序	-10.337
箭	-10.3372
萬民之	-10.3374
季冬	-10.3375
六服	-10.3375
公田	-10.3379
之而已	-10.338
主人拜	-10.3383
疏曰此	-10.3383
罋	-10.3387
吕氏曰	-10.3388
在朝	-10.339
而知	-10.3402
斛	-10.3403
别有	-10.3404
左手	-10.3405
御者	-10.3408
究	-10.3409
昭公	-10.3416
壤	-10.3421
苞	-10.3422
所出	-10.3428
大裘	-10.3429
尊故	-10.343
玉路	-10.3435
上經	-10.3436
主人降	-10.3437
夘	-10.3438
之節也	-10.3441
拭	-10.3451
五刑	-10.3455
高祖	-10.3455
奮	-10.3468
潤	-10.347
此一節	-10.3477
匪	-10.3482
轡	-10.3484
無窮	-10.3489
相與	-10.349
不須	-10.3491
祝辭	-10.3492
所服	-10.3492
之屬也	-10.3493
掌邦	-10.3497
而已矣	-10.3499
中衣	-10.3502
鄭伯	-10.3507
十四年	-10.3508
眂	-10.3515
閔	-10.3516
經言	-10.3521
公曰	-10.3521
張氏曰	-10.3522
凝	-10.3522
者謂之	-10.3523
其用	-10.3524
今以	-10.3527
舞者	-10.3528
於庭	-10.3529
瞻	-10.3533
疎	-10.3537
不廢	-10.3537
膠	-10.3541
仲尼	-10.3554
從祀	-10.3555
各有所	-10.3555
禮經	-10.3557
豈不	-10.3557
此之謂	-10.3563
同居	-10.3564
輦	-10.3566
為重	-10.3568
各以	-10.357
於諸侯	-10.3571
遣奠	-10.3573
門之外	-10.3575
愧	-10.3581
檀弓云	-10.3583
漿	-10.3591
于堂	-10.3592
若不	-10.3595
本作	-10.3596
搏	-10.3597
糧	-10.3599
卜日	-10.36
但言	-10.36
明堂位	-10.3603
銅	-10.3605
其物	-10.3607
括髮	-10.3608
故特	-10.3609
恭敬	-10.3613
季春	-10.3613
甒	-10.3613
著之	-10.3623
官之長	-10.3624
星辰	-10.3626
馳	-10.3629
而未	-10.3632
俛伏興	-10.3633
一事	-10.3641
紒	-10.3647
亦與	-10.365
内侍	-10.3654
皆云	-10.3654
下文云	-10.3659
鄭以	-10.3659
大抵	-10.3662
饗禮	-10.3662
函	-10.3662
澮	-10.3664
以求	-10.3668
太常卿	-10.3672
君親	-10.3672
親也	-10.3677
太陽	-10.3678
揖讓	-10.3678
庿	-10.3679
酌獻	-10.3681
孝弟	-10.3681
為人後者	-10.3681
而歸	-10.3683
私覿	-10.3687
詔曰	-10.3688
顓頊	-10.3689
開元禮	-10.3696
聲音	-10.3698
貳車	-10.3701
丞相	-10.3704
處也	-10.3709
此是	-10.3713
之女	-10.3715
搢笏	-10.3716
與諸侯	-10.3718
忍	-10.3721
未嘗不	-10.3724
又設	-10.3724
輕者	-10.3725
玉府	-10.3727
誥	-10.3728
所以明	-10.3731
而使	-10.3734
袍	-10.3742
頓	-10.3744
所有	-10.3744
第四	-10.3745
桐	-10.3748
孚	-10.3749
下射	-10.3752
而得	-10.3753
故稱	-10.3761
有虞氏	-10.3762
萬世	-10.3762
場	-10.3765
以教	-10.377
典禮	-10.3771
獻公	-10.3774
厚薄	-10.3775
者自	-10.3775
無非	-10.3775
既有	-10.3776
署	-10.3778
服者	-10.3781
至是	-10.3781
一百	-10.3782
入室	-10.3784
為下	-10.3784
礿	-10.3786
陣	-10.3789
遣車	-10.3792
枚	-10.3794
可乎	-10.3795
闇	-10.3796
吐	-10.3797
鸞	-10.3797
嚌	-10.3799
服不	-10.38
今日	-10.3803
之車	-10.3808
四升	-10.3809
拜賓	-10.3809
之患	-10.3811
壽	-10.3813
郊社	-10.3814
見于	-10.3814
天時	-10.3815
鄭知	-10.382
洪	-10.3827
和之	-10.383
從其	-10.3837
人臣	-10.3837
為賔	-10.3839
督	-10.384
同故	-10.3842
蓍	-10.3843
以道	-10.3849
聘享	-10.3851
賓賓	-10.3853
犧牲	-10.3854
公孫	-10.3856
百二十	-10.3867
如常儀	-10.3869
括	-10.3877
収	-10.3879
杜註	-10.3882
若無	-10.3883
入學	-10.3885
哭踊	-10.3887
披	-10.3887
水旱	-10.3891
帝王	-10.3891
徇	-10.3894
誤也	-10.3901
檀弓曰	-10.3902
賔長	-10.3907
價	-10.3912
文獻通考	-10.3912
右記	-10.3912
為義	-10.3914
慤	-10.3914
庶民	-10.3926
其力	-10.3926
州府	-10.3927
知禮	-10.3928
于朝	-10.393
祭先	-10.3933
視朝	-10.3936
之極	-10.3936
列於	-10.3938
計之	-10.3941
開元	-10.3946
藏於	-10.3947
而見	-10.3951
九賦	-10.3954
之宜	-10.3957
皆所以	-10.396
是已	-10.3968
弑	-10.3971
綦	-10.3971
賄	-10.3972
書其	-10.3975
狩	-10.3976
魯之	-10.398
裹	-10.3981
于廟	-10.3982
隆殺	-10.3983
射禮	-10.3983
繭	-10.3985
氣之	-10.3986
鎛	-10.3989
矣又	-10.3991
乎此	-10.3995
士妻	-10.3997
成踊	-10.3997
暢	-10.3999
義理	-10.4004
未得	-10.4004
仲秋	-10.4006
甸人	-10.4007
一物	-10.4011
諧	-10.4012
山林	-10.4012
其行	-10.4015
注言	-10.4016
也盖	-10.4017
而哭	-10.4017
庻	-10.4021
存焉	-10.4025
時祭	-10.4027
當爲	-10.4028
不哭	-10.403
使其	-10.4033
生也	-10.4037
人民	-10.4045
值	-10.4048
侯中	-10.405
于公	-10.4054
不免	-10.4054
屬於	-10.4061
黻	-10.4064
譬	-10.4069
彝	-10.407
時有	-10.407
服斬	-10.4077
廞	-10.408
禮樂之	-10.408
其罪	-10.4082
粢盛	-10.4082
乾學案	-10.4084
一家	-10.4084
就位	-10.4092
勒	-10.4097
載師	-10.4097
十三年	-10.4099
之志	-10.4104
橋	-10.4104
莒	-10.4109
疾病	-10.4115
實之	-10.4115
奢	-10.4116
濡	-10.4117
者對	-10.4117
甞	-10.4118
又何	-10.4123
泛	-10.4127
矯	-10.4131
棟	-10.4132
為貴	-10.414
廣狹	-10.4145
秒	-10.4147
婢	-10.4148
滋	-10.4153
魯人	-10.4156
先入	-10.416
東階	-10.4161
之類是也	-10.4164
軹	-10.4164
者乎	-10.4165
六曰	-10.417
鄰國	-10.4173
之行	-10.4173
葦	-10.4178
皆可	-10.4179
軸	-10.4182
二百	-10.4183
杞	-10.4184
滛	-10.4184
摩	-10.4185
咎	-10.4186
明水	-10.4186
賈氏公彦曰	-10.4188
鄉飲酒禮	-10.4191
當從	-10.4192
日食	-10.4197
為二	-10.4197
埋之	-10.4198
了	-10.4198
並行	-10.4202
駒	-10.4206
旄	-10.4207
生人	-10.4216
勲	-10.4217
風俗	-10.4218
乃以	-10.4219
罇	-10.4222
詔王	-10.4227
邉	-10.4229
無異	-10.423
之常	-10.4232
烹	-10.4237
世室	-10.4241
阼	-10.4245
芟	-10.4247
其節	-10.4254
百畝	-10.4257
由此	-10.4258
知此	-10.4258
用事	-10.4267
服其	-10.4269
樓	-10.4269
者但	-10.4274
大祖	-10.4279
薛	-10.4283
郡國	-10.429
必知	-10.4292
之舞	-10.4296
泲	-10.4302
上擯	-10.4309
公羊傳	-10.4322
乎其	-10.433
之貌	-10.4333
禮文	-10.4333
未盡	-10.4335
亦同	-10.4335
遥	-10.4341
加以	-10.4341
賔射	-10.4343
藪	-10.4346
溢	-10.4347
或問	-10.435
冬官	-10.4354
聖王	-10.4354
3	-10.4355
刋	-10.4357
衝	-10.4358
玊	-10.4359
登歌	-10.4365
搢	-10.4369
騶虞	-10.4373
孟子曰	-10.4373
雜記云	-10.4374
八音	-10.4385
可得而	-10.4385
人者	-10.4387
隂陽之	-10.4387
詰	-10.4392
校人	-10.4398
乘車	-10.4398
則否	-10.4399
善惡	-10.4401
玉帛	-10.4404
皆當	-10.4406
五等	-10.4406
酏	-10.4411
季氏	-10.442
爓	-10.4424
其祖	-10.4428
常服	-10.4431
夾鍾	-10.4432
春分	-10.4438
矣而	-10.444
鬲	-10.4444
冥	-10.4445
制禮	-10.4445
寵	-10.4448
公之	-10.445
以自	-10.4455
敖繼公曰	-10.4456
肵俎	-10.4457
朝夕哭	-10.4459
㦸	-10.4461
從父昆弟	-10.4471
槀	-10.4471
未及	-10.4473
皆從	-10.4475
鼗	-10.4475
箋	-10.4478
宗廟之	-10.4479
結之	-10.448
生而	-10.4482
合於	-10.4482
一條	-10.4482
鑄	-10.4484
視其	-10.4484
入廟	-10.4486
詢	-10.4486
祭義	-10.4487
分為	-10.4489
之具	-10.449
而來	-10.4496
從服	-10.4496
渭	-10.4496
架	-10.4498
則自	-10.4501
帥其屬	-10.4508
纂	-10.4515
食也	-10.4516
晋	-10.4516
凉	-10.4518
三讓	-10.4524
貍	-10.4526
或言	-10.4531
雕	-10.4531
橫	-10.4532
有司徹	-10.4532
陽也	-10.4532
摶	-10.4535
取於	-10.4536
奇	-10.4549
愼	-10.4551
也君子	-10.4552
啐酒	-10.4552
奏請	-10.4554
箱	-10.4555
尊尊	-10.4556
陰陽	-10.456
荘	-10.4561
人鬼	-10.4563
老者	-10.4565
而不及	-10.457
曲禮云	-10.4571
入門左	-10.4572
以布	-10.4572
雪	-10.4572
阼階下	-10.4575
嬪	-10.4577
使臣	-10.4578
西階下	-10.4581
者當	-10.4584
而往	-10.4589
緝	-10.459
行而	-10.4593
杜子春云	-10.4596
堪	-10.4599
昬禮	-10.4599
孤卿	-10.4602
屬之	-10.4602
受服	-10.4604
此據	-10.4606
以供	-10.461
終於	-10.4612
臑	-10.4618
鋪	-10.462
綬	-10.4622
瓚	-10.4624
夲	-10.4625
相生	-10.4631
夏時	-10.4634
為政	-10.4637
其儀	-10.464
尊長	-10.4643
易之	-10.4644
者乃	-10.4648
敵者	-10.4654
此又	-10.4654
賓出	-10.4654
愚謂	-10.4656
樂記	-10.4658
輸	-10.4658
吿	-10.466
以養	-10.4669
内朝	-10.4674
六軍	-10.4676
起於	-10.4676
之為言	-10.4676
煮	-10.4677
諌	-10.4678
大路	-10.4683
祝史	-10.4691
孟冬	-10.4692
𧃊	-10.4695
類也	-10.4697
之母	-10.4697
嘉靖	-10.4698
侯國	-10.4701
命數	-10.471
各自	-10.471
逃	-10.4712
不敢當	-10.4713
數之	-10.4718
變而	-10.4718
浸	-10.4719
可以為	-10.472
信也	-10.472
分别	-10.4724
以和	-10.4724
一嵗	-10.4734
卵	-10.4736
文章	-10.4739
賔降	-10.474
下生	-10.4751
子産	-10.4753
斤	-10.4754
取諸	-10.4755
郊勞	-10.4755
燕飲	-10.4755
法度	-10.476
王畿	-10.4763
舍人	-10.4764
朋	-10.4766
帝本紀	-10.4769
殷之	-10.4772
執圭	-10.4775
重故	-10.4779
行道	-10.478
也方氏曰	-10.4781
布席	-10.4781
阜	-10.4782
胄	-10.4785
鼏	-10.4786
熱	-10.4787
度量	-10.4789
席前	-10.4796
階上	-10.4799
階間	-10.4804
兵器	-10.481
執弓	-10.4811
南吕	-10.4812
或謂	-10.4812
盥洗	-10.4817
闊	-10.4818
當用	-10.482
牡	-10.4822
不安	-10.4828
祀五帝	-10.483
外宗	-10.4831
其性	-10.4833
禮則	-10.4833
文也	-10.4834
釋曰自此盡	-10.4835
障	-10.4841
之徒	-10.4847
之飾	-10.4849
之事故	-10.485
賓降	-10.485
也知	-10.4851
或云	-10.4853
井田	-10.4857
小雅	-10.4859
尊而	-10.486
叔父	-10.4861
殘	-10.4862
祐	-10.4863
於賔	-10.4864
醯	-10.4877
愚按	-10.4879
小者	-10.4881
筮日	-10.4882
酌酒	-10.4883
衰裳	-10.4893
為之服	-10.4894
遜	-10.4895
三飯	-10.4899
也嚴陵方氏曰	-10.4902
賔賔	-10.4903
城郭	-10.4908
凡此皆	-10.4911
揜	-10.4913
隧	-10.4914
神農	-10.4919
皆言	-10.4919
唐虞	-10.492
邇	-10.4923
不立	-10.493
凶服	-10.4939
肆夏	-10.4943
低	-10.4944
公食大夫	-10.4949
屯	-10.4949
所作	-10.495
獻官	-10.495
國有	-10.4951
簠簋	-10.4952
㸃	-10.4954
者雖	-10.496
囚	-10.4962
奴	-10.4964
綍	-10.4968
劍	-10.4968
攷之	-10.4973
忌日	-10.4973
既練	-10.4974
此二	-10.4976
無過	-10.4977
者惟	-10.4983
大帶	-10.4984
為民	-10.4985
爰	-10.4988
者矣	-10.4989
乃命	-10.4991
大祭	-10.4991
陽厭	-10.4992
然後能	-10.4996
后妃	-10.5001
通用	-10.5004
訊	-10.5005
假令	-10.5009
只是	-10.501
皇考	-10.5012
重言	-10.5014
隊	-10.5016
父母之	-10.5017
自為	-10.502
大門外	-10.5022
辦	-10.5023
門西	-10.5024
觳	-10.5027
司農	-10.5027
小記	-10.5028
臣下	-10.5028
而可	-10.5031
顔色	-10.5032
鳩	-10.5038
人倫	-10.5039
之大者	-10.5041
騰	-10.5042
地示	-10.5045
為位	-10.505
津	-10.5053
不和	-10.5054
六宫	-10.5062
先聖	-10.507
嘉禮	-10.5072
司寇	-10.5074
相近	-10.5074
岀	-10.5078
薪	-10.5078
二十八	-10.5079
之容	-10.5082
丗	-10.5084
帨	-10.5084
熈	-10.5086
已有	-10.5087
不同者	-10.5092
史二人	-10.5094
也主人	-10.5095
賔客之	-10.5098
租	-10.5102
褒	-10.5104
詘	-10.5104
正之	-10.5105
實以	-10.5109
少者	-10.5112
祫祭	-10.5112
太師	-10.5114
而加	-10.5117
楚子	-10.512
所受	-10.5121
廩	-10.5127
燒	-10.5129
用牲	-10.5136
兼有	-10.5137
不可以不	-10.5138
陳於	-10.5141
寒暑	-10.5142
其類	-10.5149
誘	-10.515
陸氏佃曰	-10.5155
醴齊	-10.5156
昧	-10.5157
雁	-10.5159
複	-10.5159
三百六十	-10.5164
于西階上	-10.5168
受田	-10.5169
曽子問	-10.5169
飾之	-10.5177
一度	-10.5178
蕙田案此	-10.5185
徳行	-10.5191
庫門	-10.5191
曾孫	-10.5192
張子曰	-10.5195
不中	-10.5195
仇	-10.5197
上云	-10.5202
各二	-10.5203
有此	-10.5206
禋	-10.521
之吏	-10.521
以尊	-10.5211
爵者	-10.5214
大功以上	-10.5218
鐵	-10.5219
正禮	-10.5219
又音	-10.5221
沮	-10.5224
紂	-10.523
咨	-10.5231
用玉	-10.5235
者三	-10.5237
也春秋傳曰	-10.5238
欲使	-10.5241
一月	-10.5245
以祀	-10.5253
枝	-10.5253
額	-10.5253
亮	-10.5254
梅	-10.5256
朝廟	-10.5256
閤門	-10.5257
食禮	-10.5258
降而	-10.5259
之利	-10.5263
先儒謂	-10.5266
郷射	-10.5267
授受	-10.5267
塵	-10.5268
敕	-10.5271
漬	-10.5273
娣	-10.5274
大府	-10.5275
學之	-10.5282
三千	-10.5286
妣	-10.5295
若此	-10.5298
靖	-10.5298
齊衰三月	-10.5299
洪武	-10.5301
亦宜	-10.5302
大夫之子	-10.5303
者既	-10.5305
斚	-10.5306
盆	-10.531
其外	-10.5311
圉	-10.5318
入門右	-10.532
法則	-10.5321
之耳	-10.5324
合之	-10.5328
賓長	-10.5332
陟	-10.5333
脊脅	-10.5334
重也	-10.5337
互見	-10.5338
若是	-10.5338
耳目	-10.5338
軷	-10.5342
太平	-10.5352
際	-10.5358
覆之	-10.5359
澄	-10.537
出而	-10.5374
射則	-10.5382
屢	-10.5392
應門	-10.5393
案此	-10.5393
虞祭	-10.5401
漢時	-10.5402
之席	-10.5405
降階	-10.5408
聽命	-10.5411
有道	-10.5414
夷狄	-10.5417
蜀	-10.5419
則可	-10.5421
為天子	-10.5431
一篇	-10.5433
者見	-10.5434
司常	-10.5437
自稱	-10.5437
節也	-10.5438
葛帶	-10.5438
凶事	-10.5441
玄端	-10.5448
奠幣	-10.5448
盎齊	-10.5449
以東	-10.5451
其母	-10.5452
於太廟	-10.5452
箇	-10.5452
必用	-10.5457
紼	-10.5458
無有	-10.546
則服	-10.5462
示民	-10.5462
繼父	-10.547
艾	-10.547
零	-10.5479
君薨	-10.5482
與君	-10.5483
先鄭	-10.5492
湛	-10.5495
為先	-10.5502
璜	-10.5509
篆	-10.5518
繼母	-10.5518
岐	-10.5519
婁	-10.5522
金路	-10.5522
有疾	-10.5522
禬	-10.5523
六典	-10.5523
備矣	-10.5525
汙	-10.5526
郊特牲云	-10.5526
即席	-10.5528
凡言	-10.5529
於前	-10.553
路門	-10.5534
閲	-10.5535
亦不可	-10.554
三辭	-10.5541
陷	-10.5547
逺郊	-10.5547
降服	-10.5548
攸	-10.5548
樂章	-10.5551
其日	-10.5552
一丈	-10.5559
輴	-10.556
太僕	-10.556
絇	-10.5564
此三	-10.5566
䟽曰	-10.5566
入告	-10.5566
倒	-10.5567
小功以下	-10.5572
十六年	-10.5575
其官	-10.5579
故名	-10.558
億	-10.5581
緒	-10.5584
㕓	-10.5585
遍	-10.5588
猶未	-10.5589
也疏曰	-10.5592
以知	-10.5593
日中	-10.56
鄭司農	-10.5601
番	-10.5609
中門	-10.5615
之君	-10.5619
所能	-10.5619
士庶子	-10.562
則不可	-10.5622
柯	-10.5624
穢	-10.5624
降於	-10.5626
嫂	-10.5627
帳	-10.5628
匠	-10.5632
也詩云	-10.5633
舉觶	-10.5634
璧琮	-10.5635
哲	-10.5636
者因	-10.5637
容貌	-10.564
變也	-10.5642
毫	-10.5642
私人	-10.5643
為尊	-10.5643
物而	-10.5647
乃有	-10.5648
兄弟之	-10.5655
諸父	-10.5656
郊天	-10.5658
譽	-10.566
慰	-10.566
監本	-10.5661
紅	-10.5661
亦皆	-10.5662
鄭𤣥	-10.5668
長殤	-10.5668
宣王	-10.567
鐘鼓	-10.568
也是故	-10.5682
朞	-10.5685
多寡	-10.5686
二等	-10.5686
有爵者	-10.5688
之首	-10.5698
釋文	-10.5701
郷飲酒	-10.5704
方百里	-10.5705
鞠衣	-10.5707
當有	-10.571
饗之	-10.5715
故能	-10.5715
異于	-10.5717
於父	-10.5718
富貴	-10.5718
是亦	-10.572
鈎	-10.5721
圗	-10.5722
以降	-10.5723
漢志	-10.5726
皆非	-10.5736
酢主人	-10.5737
三酒	-10.5738
十分	-10.5742
禰廟	-10.5745
其廟	-10.5749
奏肆夏	-10.5756
十人	-10.5759
五廟	-10.5759
十里	-10.576
峻	-10.5762
其始	-10.5762
巢	-10.5764
飪	-10.5765
頂	-10.5765
殺牲	-10.5766
醤	-10.5768
融	-10.5772
厥明	-10.5779
崔	-10.5779
腸胃	-10.5781
前一日	-10.5783
仁也	-10.5786
此乃	-10.5786
北郊	-10.5788
道徳	-10.5789
如之何	-10.579
凶荒	-10.5791
先師	-10.5791
無可	-10.5793
為異	-10.5797
祭宗廟	-10.5802
劒	-10.5804
明年	-10.5808
之期	-10.5814
禮曰	-10.5817
便也	-10.5821
憑	-10.5824
禭	-10.5826
之位也	-10.5831
飲之	-10.5833
不知其	-10.5834
也世佐案	-10.5835
之奠	-10.5838
置之	-10.5842
如其	-10.5842
奏樂	-10.5842
五者	-10.5845
的	-10.5847
正嵗	-10.5847
劉氏	-10.5849
祭則	-10.5851
右个	-10.5855
匏	-10.586
故知此	-10.5863
而藏之	-10.5864
居中	-10.5864
為臣	-10.5866
宋史	-10.5866
次於	-10.5869
董	-10.5869
訪	-10.5869
在天	-10.587
耆	-10.5871
大戴禮	-10.5871
少儀	-10.5879
制之	-10.5879
歸之	-10.5881
鄉里	-10.5882
粉	-10.5883
所以致	-10.5883
瑱	-10.5883
骨肉	-10.5884
无	-10.5884
愚案	-10.5884
莞	-10.5887
禮成	-10.5887
4	-10.5887
少進	-10.5887
制其	-10.589
為首	-10.5898
墻	-10.5907
想	-10.591
何為	-10.5913
不違	-10.5913
玉藻云	-10.5913
括髪	-10.5919
察其	-10.5921
辭洗	-10.5926
雖非	-10.5927
夭	-10.5929
文帝	-10.5932
季夏	-10.5933
知者	-10.5934
所陳	-10.5938
裼衣	-10.594
分寸之	-10.5941
弼	-10.5942
帯	-10.5944
降席	-10.5947
公事	-10.5949
升歌	-10.5949
諸侯有	-10.5949
縣師	-10.595
反下	-10.5951
三卿	-10.5953
枲	-10.5956
故不言	-10.5956
天理	-10.596
户外	-10.596
人有	-10.5962
譲	-10.5963
墉	-10.5963
廛	-10.5963
膺	-10.5964
耜	-10.5965
衆也	-10.5965
延平周氏曰	-10.5968
蠲	-10.5968
採	-10.5968
于上	-10.5971
嗟	-10.5972
齊衰以下	-10.5974
中間	-10.5975
五齊	-10.5986
頸	-10.5989
儲	-10.5991
許諾	-10.5994
陸氏	-10.5995
之方	-10.5996
暇	-10.5997
庶幾	-10.6
賢能	-10.6001
卒食	-10.6003
晏子	-10.6004
陳鼎	-10.6004
昔者	-10.6006
弭	-10.6007
自古	-10.601
但以	-10.601
牟	-10.6011
之時也	-10.6012
衆介	-10.6015
者證	-10.6017
以表	-10.6017
恐其	-10.6021
本無	-10.6023
義服	-10.6025
此不言	-10.6025
之罪	-10.6025
則先	-10.6026
親疏	-10.6026
囿	-10.6027
小子	-10.603
何得	-10.6031
訃	-10.6032
父在為母	-10.6036
何如	-10.6038
與主人	-10.6038
不問	-10.6041
東面北上	-10.6041
也古文	-10.6042
第五	-10.6043
其可	-10.6048
有德	-10.605
也或曰	-10.6051
筮尸	-10.6051
恕	-10.6051
通論	-10.6053
納采	-10.6059
愛之	-10.606
相連	-10.6064
之辭也	-10.6064
於士	-10.6066
惟有	-10.6066
纊	-10.607
㫁	-10.6071
昆	-10.6073
燔柴	-10.6074
赤道	-10.6077
仁宗	-10.608
司市	-10.6081
而去	-10.6082
於義	-10.6088
宿衛	-10.6089
玩	-10.6089
爪	-10.609
糗	-10.6091
本於	-10.6092
不嫌	-10.6093
彰	-10.6093
之朝	-10.6095
卒伍	-10.6099
人子	-10.6099
羊俎	-10.61
于天	-10.6106
而自	-10.6108
名為	-10.6108
省文	-10.6113
皇祖	-10.6114
也鄭	-10.6114
製	-10.6114
故此	-10.6115
安也	-10.6116
治民	-10.6116
此等	-10.6117
皆無	-10.6117
備也	-10.6118
將幣	-10.6121
先升	-10.6121
菑	-10.6132
恃	-10.6132
祭統	-10.6134
北面東上	-10.6137
滕	-10.6137
祇	-10.6137
名官	-10.6138
終身	-10.614
兩旁	-10.6141
賓介	-10.6144
存乎	-10.6145
麟	-10.6153
潛	-10.6154
之爵	-10.6154
惜	-10.6155
概	-10.6155
席上	-10.6155
賔尸	-10.6155
首服	-10.6157
七十二	-10.6158
於寢	-10.6161
寡人	-10.6162
國事	-10.6166
設官	-10.6168
昆弟之子	-10.617
主人獻	-10.6173
九州之	-10.6176
逢	-10.6179
八十一	-10.6179
三軍	-10.6183
薦俎	-10.6185
有竒	-10.6185
重於	-10.6189
曰君	-10.6189
水之	-10.6192
貉	-10.6193
昊天上帝	-10.6198
太學	-10.6199
粢	-10.6199
大歛	-10.6202
是故君子	-10.6211
袪	-10.6212
則止	-10.6215
觴	-10.6216
邾	-10.6218
坡謂	-10.6222
支子	-10.623
公主	-10.6232
大都	-10.6233
玄謂	-10.6235
公食大夫禮	-10.6244
般	-10.6245
卓	-10.6245
羣官	-10.6246
鐸	-10.6248
官之屬	-10.6251
韍	-10.6254
之饌	-10.6254
禮書	-10.6254
墠	-10.6254
以享	-10.6255
案周禮	-10.6257
久矣	-10.6264
三升	-10.627
大明	-10.627
仗	-10.6272
百世	-10.6272
闑	-10.6274
袖	-10.6276
行則	-10.6276
灼	-10.6277
齊人	-10.6282
覽	-10.6282
賴	-10.6282
矛	-10.6283
兔	-10.6283
又無	-10.6283
所共	-10.6283
於周	-10.6285
多矣	-10.6292
三代之	-10.6302
五百	-10.6303
貍首	-10.6303
管仲	-10.6304
釋獲者	-10.6305
九分	-10.6306
承重	-10.6306
凡此	-10.6308
致仕	-10.6309
主人辭	-10.631
階下	-10.6312
天王	-10.6313
於南郊	-10.6313
是非	-10.6313
行於	-10.6316
子云	-10.6317
互相	-10.6319
稼穡	-10.6321
庾	-10.6324
哭盡哀	-10.6327
不聞	-10.6332
其序	-10.6336
於堂上	-10.6336
今人	-10.6338
庶孫	-10.6338
謂諸侯	-10.634
幣帛	-10.6341
滯	-10.6344
百年	-10.6345
清酒	-10.6345
漁	-10.6345
左還	-10.6349
州縣	-10.635
折俎	-10.6351
喪主	-10.6351
大圭	-10.6355
不由	-10.6356
故於	-10.6358
是日	-10.6358
邦國都鄙	-10.6359
卧	-10.636
門東	-10.6361
言之者	-10.6364
甚矣	-10.6365
先公	-10.6365
為飾	-10.6367
大侯	-10.6371
諸侯則	-10.6374
而不得	-10.6379
隷	-10.6379
儀注	-10.638
正位	-10.6383
筥	-10.6387
狎	-10.6388
為陽	-10.6392
七尺	-10.6392
則不得	-10.6393
賔出	-10.6394
之性	-10.6395
有節	-10.6396
來弔	-10.6401
知所	-10.6402
適婦	-10.6403
甥	-10.6403
趣	-10.6403
一廟	-10.6407
長㓜	-10.6407
告朔	-10.6408
裕	-10.6415
江氏永曰	-10.6416
三重	-10.6417
之服也	-10.6419
以聽	-10.6419
别也	-10.6426
器物	-10.6427
溝洫	-10.6428
冠而	-10.6428
太簇	-10.643
不同也	-10.6432
級	-10.6432
房户	-10.6433
亦名	-10.6435
柏	-10.6438
齊戒	-10.6444
陋	-10.6452
三加	-10.6452
韶	-10.6452
渾	-10.6453
在今	-10.6454
大夫則	-10.6455
正寢	-10.6457
公族	-10.6458
既夕	-10.6459
鼙	-10.6462
道藝	-10.6462
此三者	-10.6464
飾以	-10.6464
陳氏禮書	-10.6472
有喪	-10.6473
宗族	-10.6474
本亦作	-10.6474
成於	-10.6477
舂	-10.6481
常禮	-10.6485
五穀	-10.6487
宵	-10.6489
除服	-10.6492
功衰	-10.6492
梓	-10.6494
聲之誤也	-10.6496
庶母	-10.6496
畿外	-10.6496
巨	-10.6496
今時	-10.6499
松	-10.65
瞽宗	-10.6503
𤓰	-10.6503
無二	-10.6504
成之	-10.6508
止也	-10.6511
卒觶	-10.6514
居其	-10.6516
為士	-10.6517
懲	-10.6517
至矣	-10.6517
濮	-10.6518
終也	-10.6522
進士	-10.6522
謂王	-10.6523
是之謂	-10.6525
用其	-10.6526
半徑	-10.6528
絺	-10.653
公食	-10.6535
伯禽	-10.6535
於後	-10.6536
周公之	-10.6538
醯醢	-10.6539
上佐食	-10.6539
置于	-10.6552
从	-10.6552
寫	-10.6556
傍	-10.6558
某氏	-10.6558
駁	-10.656
乃云	-10.6561
蹙	-10.6562
賈人	-10.6565
比於	-10.6566
之數也	-10.6566
使某	-10.6568
在家	-10.6574
縣鄙	-10.6575
無疑	-10.6575
哭者	-10.6576
度數	-10.6576
得失	-10.658
匱	-10.6581
菹醢	-10.6592
附於	-10.6592
封禪	-10.6597
扃	-10.66
可見矣	-10.6601
燋	-10.6607
濕	-10.6607
蕤	-10.6608
兩頭	-10.6609
舉旅	-10.6609
其理	-10.6615
准	-10.662
二尺二寸	-10.662
賁	-10.662
皆與	-10.6621
於家	-10.6623
吉事	-10.6625
羹	-10.6625
清廟	-10.6625
之精	-10.6625
封疆	-10.6627
昴	-10.6628
王國	-10.6633
稱其	-10.6635
筵前	-10.6641
曾子問	-10.6643
秬鬯	-10.6647
鄉飲	-10.6652
合祭	-10.6655
奉之	-10.6659
門人	-10.666
下棺	-10.6661
讎	-10.6662
祖奠	-10.6666
也是以	-10.6667
祭者	-10.667
是知	-10.6675
疏謂	-10.6675
妙	-10.6677
甲子	-10.6681
内子	-10.6682
詔相	-10.6686
下經	-10.6686
遞	-10.6687
此即	-10.6688
會同	-10.6688
不設	-10.6693
成公	-10.6694
此條	-10.6694
晝夜	-10.67
師氏	-10.6703
姓名	-10.6703
拜送爵	-10.6705
有大	-10.6706
銀	-10.6708
為己	-10.6709
虞卒哭	-10.6711
篋	-10.6712
剡	-10.6713
訖乃	-10.6713
尋常	-10.6715
禮運	-10.6717
以玉	-10.672
妹	-10.6722
如常	-10.6727
也敖氏繼公曰	-10.6729
與此同	-10.673
佩玉	-10.673
非有	-10.673
異矣	-10.6731
陳于	-10.6736
嗣子	-10.6737
命者	-10.6738
燕寢	-10.6739
為諸侯	-10.6741
降殺	-10.6742
神位前	-10.6744
反徐	-10.6747
擅	-10.6757
燕居	-10.6758
祭之日	-10.6758
因之	-10.6759
賜予	-10.6765
其常	-10.6767
所取	-10.6768
自酢	-10.6768
七升	-10.6768
季孫	-10.6773
此意	-10.6774
衆兄弟	-10.6776
司儀	-10.6777
門之内	-10.6779
不厭	-10.6779
闢	-10.6781
昏姻	-10.6783
之祀	-10.6783
六十四	-10.6786
喪冠	-10.6787
日出	-10.6794
立春	-10.6796
為文	-10.6797
王制云	-10.68
筆	-10.6801
▁同上	-10.6809
熊氏	-10.6811
其財	-10.6821
改正	-10.6824
三百里	-10.6824
豹	-10.6826
扇	-10.6827
羙	-10.6827
祈榖	-10.6828
士則	-10.6833
外命婦	-10.6833
祔祭	-10.6833
天命	-10.6836
清明	-10.6842
殳	-10.6845
涉	-10.6846
鑒	-10.6847
刑之	-10.6847
次國	-10.6848
盜賊	-10.6849
司命	-10.6851
欲以	-10.6851
所食	-10.6852
玉人	-10.6856
者舉	-10.686
大次	-10.6863
各一人	-10.6865
尊祖	-10.6868
期而	-10.6869
然其	-10.6871
干戚	-10.6875
其祭	-10.6877
遷尸	-10.6878
大戴	-10.6879
執爵	-10.6879
又作	-10.6883
既夕禮	-10.6885
確	-10.6885
曰天子	-10.6886
既祭	-10.6889
亦必	-10.6891
妻子	-10.6891
淑	-10.6893
大武	-10.6896
坐取	-10.6896
所引	-10.6898
上服	-10.6899
凡祭	-10.69
所建	-10.6907
烖	-10.6908
三者皆	-10.6909
以金	-10.6913
拱	-10.6913
黜	-10.6916
攝主	-10.6918
正體	-10.6918
命龜	-10.6918
其利	-10.692
金奏	-10.6922
律吕	-10.6924
在地	-10.6925
凡有	-10.6926
禮故	-10.693
尊賢	-10.6931
五味	-10.6934
之時則	-10.6936
聞喪	-10.6937
牢禮	-10.6938
皇氏云	-10.6938
辨之	-10.6939
吉時	-10.6939
促	-10.694
文王世子	-10.6941
廢置	-10.6941
治朝	-10.6943
臣禮	-10.6948
於心	-10.695
特豚	-10.6952
本末	-10.6953
泣	-10.6956
特牲禮	-10.6957
同義	-10.6958
輕故	-10.6958
雀	-10.6958
三牲	-10.6959
洫	-10.696
姪娣	-10.696
膴	-10.6961
盥手	-10.6963
牝	-10.6965
今從	-10.6967
之義故	-10.6967
以從	-10.6967
以觀	-10.6967
方千里	-10.6969
服緦	-10.6969
雜記曰	-10.6971
所司	-10.6974
所治	-10.6975
盛徳	-10.6978
記之	-10.6979
之役	-10.698
課	-10.6983
狼	-10.6984
文書	-10.6995
士䘮禮	-10.6996
鐘磬	-10.6997
九章	-10.6999
降復位	-10.7001
王使	-10.7002
撻	-10.7002
矣夫	-10.7005
此明	-10.7008
絞帶	-10.7009
鳳	-10.7011
爵禄	-10.7015
側室	-10.7018
之號	-10.7019
同時	-10.7021
教以	-10.7022
宫正	-10.7026
把	-10.7027
遏	-10.7029
豳	-10.703
内有	-10.703
亟	-10.7031
獻酬	-10.7032
宏	-10.7032
莫敢	-10.7032
上聲	-10.7032
世祖	-10.7032
略之	-10.7035
盾	-10.7035
擩	-10.7036
求其	-10.7038
用幣	-10.7039
鞠	-10.7043
潘	-10.7044
革路	-10.7044
王事	-10.7047
九獻	-10.7047
績	-10.7048
家臣	-10.7049
笲	-10.7049
釋服	-10.7049
吴	-10.7049
蓄	-10.7051
蒸	-10.7051
輙	-10.7052
所祭	-10.706
可用	-10.7061
之論	-10.7065
後乃	-10.7066
禮賓	-10.7067
故使	-10.7072
撥	-10.7072
要之	-10.7072
壅	-10.7073
看	-10.7074
鄭司農曰	-10.7075
王父	-10.7076
所以養	-10.7078
雄	-10.7078
又不	-10.7082
諾	-10.7084
長也	-10.7086
之德	-10.7087
十七年	-10.709
大傳	-10.7091
職掌	-10.7093
樂舞	-10.7098
柷	-10.7098
則從	-10.71
六分	-10.71
所以别	-10.71
據此	-10.7101
廣大	-10.7105
衣也	-10.7106
無私	-10.7107
牛羊	-10.7113
也者案	-10.7113
宣公	-10.7114
教國子	-10.7116
祭日	-10.7121
内府	-10.7121
爻	-10.7122
賔介	-10.7122
珥	-10.7124
此二者	-10.7124
血氣	-10.7124
尚質	-10.7126
而俟	-10.7128
之衣	-10.713
旜	-10.7132
遺人	-10.7134
所立	-10.7136
哀戚	-10.7137
夏之	-10.7141
截	-10.7142
夙興	-10.7144
此説	-10.7148
饒	-10.715
其在	-10.7158
中者	-10.7159
職方	-10.716
相親	-10.7161
水火	-10.7163
矣故曰	-10.7163
其能	-10.7169
大夫禮	-10.7172
東靣	-10.7174
則天子	-10.7175
大蔟	-10.7176
適人	-10.7177
五升	-10.7178
舊說	-10.7178
心也	-10.7182
故引	-10.7184
拾取矢	-10.719
瑕	-10.7195
治天下	-10.7195
諸王	-10.7197
聘問	-10.7198
不踰	-10.7199
父為	-10.7199
是月	-10.7202
九尺	-10.7206
有九	-10.7211
為名	-10.7212
不齊	-10.7212
生子	-10.7213
寡君	-10.7214
以入	-10.7219
者鄭	-10.7224
又引	-10.7228
盎	-10.7231
訾	-10.7236
在中	-10.7237
侮	-10.7237
賤也	-10.724
于外	-10.724
欒	-10.7241
韋弁	-10.7242
所乗	-10.7249
象路	-10.7251
金石	-10.7254
四者	-10.7254
冬夏	-10.7261
祔廟	-10.7262
不顧	-10.7264
無後	-10.7264
州里	-10.7265
來聘	-10.7268
惡之	-10.7274
去國	-10.7275
為善	-10.7275
禁令	-10.7276
郊廟	-10.7277
黄鐘	-10.7279
雉門	-10.7279
巻	-10.728
俛	-10.7283
凶禮	-10.7283
乃出	-10.7287
拒	-10.7289
冕而	-10.729
拜辱	-10.7291
于社	-10.7292
今云	-10.7295
升數	-10.7298
射之	-10.7298
賓射	-10.7298
之善	-10.7299
哭泣	-10.73
公侯伯子男	-10.7301
尸侑	-10.7303
皷	-10.7305
無數	-10.7309
不動	-10.731
下至	-10.731
皆曰	-10.7313
事神	-10.7315
玉藻曰	-10.7318
其器	-10.7318
某子	-10.7322
輤	-10.7323
閏月	-10.7324
后之	-10.7324
于室	-10.7325
冬十月	-10.7326
槩	-10.7327
一拜	-10.7328
少南	-10.7329
暮	-10.7331
渉	-10.7331
之例	-10.7335
求諸	-10.7339
於父母	-10.7342
尉	-10.7343
無節	-10.7345
吉日	-10.7346
死於	-10.7346
堵	-10.7349
輩	-10.7353
其牲	-10.7353
母死	-10.7354
年正月	-10.7355
旐	-10.7355
后夫人	-10.7356
設洗	-10.7356
之令	-10.7358
祚	-10.7358
其德	-10.7362
如是則	-10.7364
不殊	-10.7364
賓之	-10.7364
第一星	-10.7365
六鄉之	-10.7365
也繼公謂	-10.7367
典命	-10.7373
而服	-10.7375
刺史	-10.7375
墜	-10.7378
武子	-10.7381
以馭其	-10.7383
著其	-10.7384
執其	-10.7384
著於	-10.7384
君尊	-10.7388
中殤	-10.7391
隂厭	-10.7392
酬賔	-10.7396
上卿	-10.7397
臣等	-10.7399
鏃	-10.74
飧	-10.74
禀	-10.7406
勝者	-10.7414
而降	-10.7415
注正義曰	-10.7417
犆	-10.7421
胖	-10.7421
排	-10.7421
敬之	-10.7421
五室	-10.7422
下言	-10.7422
既𦵏	-10.7426
茶	-10.7426
加冠	-10.7427
少牢饋食禮	-10.743
膳羞	-10.7432
陳氏祥道曰	-10.7433
熊氏云	-10.7438
衛侯	-10.7438
曲禮曰	-10.7439
不一	-10.744
八分	-10.7442
神宗	-10.7442
引之者證	-10.7446
仲冬	-10.7446
獻賔	-10.7448
銜	-10.7448
其大	-10.7452
鳯	-10.7452
仲夏	-10.7453
加爵	-10.7455
楣	-10.7457
之明日	-10.7459
無尸	-10.7465
西南面	-10.7468
鼈	-10.7471
精神	-10.7475
繶	-10.7478
於祖	-10.7478
腎	-10.748
神靈	-10.748
之以為	-10.7481
太公	-10.7485
從祖	-10.7486
心之	-10.7497
紕	-10.7498
於西階上	-10.75
必待	-10.75
凍	-10.7503
於尸	-10.7504
異故	-10.7505
民數	-10.7506
其書	-10.7507
主祭	-10.7508
脀	-10.751
悼	-10.7515
不諱	-10.7518
誕	-10.7522
鑑	-10.7523
莭	-10.7526
成禮	-10.7529
也又云	-10.753
徹之	-10.7531
戒令	-10.7535
子姓	-10.7536
藉田	-10.7536
迎賔	-10.7541
虞祔	-10.7541
有序	-10.7541
刪	-10.7542
瘠	-10.7543
兼言	-10.7545
線	-10.7545
成而	-10.7546
榛	-10.7546
以此為	-10.755
辭曰	-10.7556
軍事	-10.7558
享之	-10.7559
㠯	-10.756
車也	-10.756
肫	-10.7563
布帛	-10.7564
旁親	-10.7567
孔氏穎逹曰	-10.7568
過於	-10.7568
之室	-10.7569
夏四月	-10.7572
巡狩	-10.7573
枋	-10.7574
麻衣	-10.7574
衰絰	-10.7576
二廟	-10.7578
不取	-10.7578
逺者	-10.758
御座	-10.7581
任之	-10.7588
成功	-10.759
邦治	-10.7592
詠	-10.7593
不離	-10.7597
或爲	-10.7598
舉哀	-10.7598
百神	-10.76
北堂	-10.76
祁	-10.7602
形如	-10.7612
卿士	-10.7612
歴代	-10.7614
孝也	-10.7614
戍	-10.7616
昊天	-10.7617
之婦	-10.7622
縣之	-10.7623
説文	-10.7626
族師	-10.7627
一句	-10.7627
行列	-10.7629
所設	-10.7629
六升	-10.7636
存者	-10.7637
銖	-10.7641
二百里	-10.7642
問於	-10.7642
毅	-10.7643
則已	-10.7643
右還	-10.7646
此論	-10.7649
孤子	-10.7651
召公	-10.7653
讀書	-10.7654
合諸侯	-10.7654
設奠	-10.7655
今按	-10.7655
而除	-10.7658
不書	-10.7659
以給	-10.7664
相承	-10.7669
王子	-10.7669
也方氏慤曰	-10.7671
註疏	-10.7674
摇	-10.7676
與祭	-10.7676
所以然者	-10.7676
亦從	-10.7676
尺五寸	-10.7678
炎	-10.7679
何所	-10.7679
拜稽顙	-10.7684
弣	-10.7688
衣冠	-10.7688
圃	-10.769
衣之	-10.7693
於鬼神	-10.7693
于篚	-10.7695
不得以	-10.7695
廡	-10.7699
之語	-10.7702
耆老	-10.7703
乳	-10.7703
九式	-10.7706
國人	-10.7708
也惟	-10.771
辠	-10.7712
簧	-10.7713
者尊	-10.7715
升自阼階	-10.7717
意也	-10.7723
禮云	-10.7725
諸侯以	-10.7726
之律	-10.7732
致館	-10.7736
者唯	-10.7737
孝子之	-10.7737
之事則	-10.7737
櫜	-10.7738
恨	-10.774
竇	-10.7741
蟄	-10.7743
一夫	-10.7744
臣也	-10.7745
遼	-10.775
也山隂陸氏曰	-10.7754
四代	-10.7755
陳氏澔曰	-10.7755
北向立	-10.7756
迎牲	-10.7759
内宗	-10.7761
大火	-10.7762
蓋以	-10.7763
周旋	-10.7765
繼之	-10.7766
於賓	-10.7766
清濁	-10.7767
世之	-10.777
四夷	-10.7775
妻之	-10.7775
後漢	-10.7778
以定	-10.7784
杜氏	-10.7786
愆	-10.7786
菲	-10.7787
羡	-10.7788
元士	-10.779
圜土	-10.7792
北首	-10.7793
謙也	-10.7797
漢儒	-10.7797
教也	-10.7797
大雅	-10.7797
東西面	-10.7799
王制曰	-10.78
後言	-10.7803
生物	-10.7804
皋	-10.7808
偪	-10.781
從而	-10.7811
所主	-10.7811
竅	-10.7813
㸑	-10.7814
大夫以下	-10.7814
太常寺	-10.7814
神座	-10.7814
虐	-10.7816
䖍	-10.7817
紹興	-10.7819
都邑	-10.7821
為角	-10.7822
悲哀	-10.7831
成均	-10.7831
袒免	-10.7832
濶	-10.7833
固辭	-10.7834
素裳	-10.7834
膾	-10.7838
大胥	-10.7838
貺	-10.784
辭之	-10.784
亦未	-10.7841
西北面	-10.7845
爲主	-10.7847
自外	-10.7848
而天下	-10.7848
治兵	-10.785
宦	-10.7853
必使	-10.7855
鷩冕	-10.7862
盗	-10.7864
也右	-10.7864
四十八	-10.7865
於神	-10.7868
鷹	-10.7868
朽	-10.787
畆	-10.7873
于房	-10.7874
鉦	-10.7875
其南	-10.7881
二十五月	-10.7882
所從	-10.7882
主于	-10.7883
自相	-10.7885
䖏	-10.7886
杠	-10.7888
彦	-10.789
鄉射禮	-10.7891
而居	-10.7892
接神	-10.7896
所欲	-10.7898
定制	-10.7903
六藝	-10.7904
之過	-10.7906
以安	-10.7908
形體	-10.7911
稾	-10.7912
卑故	-10.7914
近臣	-10.7915
云天子	-10.7915
所記	-10.7917
陂	-10.7918
也周	-10.7921
物者	-10.7924
之所在	-10.7925
習射	-10.7926
字之誤也	-10.7926
當然	-10.7929
虎賁	-10.7931
祀典	-10.7931
毳	-10.7931
而設	-10.7931
斜	-10.7932
以致其	-10.7933
敢不	-10.7935
印	-10.7936
炭	-10.7936
爾雅云	-10.7938
服小功	-10.7939
宗廟之祭	-10.7941
嵗時	-10.7941
庭中	-10.7941
沂	-10.7945
豚解	-10.7947
不著	-10.7947
世宗	-10.7949
則雖	-10.7949
四百里	-10.7951
不得為	-10.7951
以證	-10.7956
於明堂	-10.7962
兕	-10.7963
鬴	-10.7971
易以	-10.7974
服齊衰	-10.7976
酌者	-10.7976
其所以	-10.7977
祭事	-10.7977
文不具	-10.7978
夏正	-10.7981
本國	-10.7982
不得不	-10.7984
節文	-10.7986
範	-10.7987
談	-10.7988
像	-10.7991
其生	-10.7996
土為	-10.7997
配以	-10.8
武舞	-10.8
鄉之	-10.8004
三采	-10.8005
貞觀	-10.8005
於時	-10.8008
而升	-10.8008
治也	-10.8009
氏之	-10.801
騐	-10.8011
塟	-10.8012
肂	-10.8012
脚	-10.8012
大門	-10.8012
執燭	-10.8014
始有	-10.8016
祭以	-10.8018
豪	-10.8024
兩手	-10.8027
不至於	-10.8027
下士二人	-10.8029
糞	-10.8033
變服	-10.8033
蠱	-10.8034
平生	-10.8035
日月之	-10.8036
禁之	-10.8041
則令	-10.8042
杜預	-10.8042
都家	-10.8043
爾雅曰	-10.8045
參之	-10.8047
以素	-10.8049
之辨	-10.8055
有過	-10.8058
退而	-10.8059
寇	-10.806
佚	-10.8064
姊	-10.8065
数	-10.8066
鄧	-10.8066
地而	-10.8069
為期	-10.8079
所尊	-10.8081
遷主	-10.8081
婦人之	-10.8081
君使	-10.8084
禮賔	-10.8085
軾	-10.8085
閤	-10.8086
金玉	-10.8089
有天下	-10.809
姒	-10.8091
肇	-10.8092
不貳	-10.8093
嘆	-10.8094
以立	-10.8097
以至於	-10.8097
之俎	-10.8097
寢廟	-10.8101
天子之禮	-10.8106
先王制禮	-10.8108
孟夏	-10.8109
大卜	-10.8111
為敬	-10.8111
吕氏大臨曰	-10.8113
於道	-10.8115
非其	-10.8118
祭于	-10.8119
馬融	-10.8126
獮	-10.8131
瘍	-10.8131
子為	-10.8132
扉	-10.8133
而實	-10.8136
不獨	-10.814
莫能	-10.8142
配之	-10.8143
七曰	-10.8143
此其	-10.8146
揖之	-10.8147
使知	-10.8151
卿大夫之	-10.8153
與士	-10.8154
有時	-10.8156
腰	-10.816
姆	-10.8162
犢	-10.8162
於大	-10.8163
又加	-10.8164
二十一	-10.8167
繚	-10.8167
禮事	-10.8168
戲	-10.817
來者	-10.817
表裏	-10.8174
於俎	-10.8174
賜爵	-10.8174
一員	-10.8175
則得	-10.8176
冦	-10.8184
太牢	-10.8186
其爵	-10.8187
在焉	-10.8188
山虞	-10.8194
冡	-10.8197
大樂正	-10.8199
則稱	-10.82
二十三	-10.8203
存疑鄭氏康成曰	-10.8203
從事	-10.8206
倅	-10.8207
其材	-10.8207
喪之	-10.8208
斝	-10.8208
魯公	-10.8212
㑹計	-10.8215
相合	-10.822
在所	-10.822
鬼神之	-10.8221
一章	-10.8222
賔之	-10.8224
體也	-10.8224
殷周	-10.8226
居之	-10.8226
叔孫	-10.823
用此	-10.8231
兼用	-10.8231
受獻	-10.8232
無事則	-10.8239
之序也	-10.824
圭璧	-10.8243
瞽矇	-10.8245
兎	-10.8245
既畢	-10.8248
五星	-10.8248
將行	-10.8248
五尺	-10.8251
無定	-10.8252
前代	-10.8254
故雖	-10.8257
字從	-10.8259
不異	-10.826
烝嘗	-10.8263
承天	-10.8267
郊特牲曰	-10.8267
定其	-10.8268
古制	-10.827
之重	-10.8271
於物	-10.8274
其右	-10.8276
西房	-10.8278
也注釋曰云	-10.8281
於身	-10.8283
梓人	-10.8284
廟見	-10.8285
大夫有	-10.8287
其首	-10.8287
責之	-10.8288
止于	-10.8288
琢	-10.8293
胃	-10.8293
者衆	-10.8294
生之	-10.8295
䝉	-10.8296
也今文	-10.8297
抵	-10.8297
臣召南	-10.8298
南靣	-10.8298
於主人	-10.83
可得	-10.83
二伯	-10.8301
叛	-10.8302
在庭	-10.8303
降神	-10.8304
小祝	-10.8314
明此	-10.8315
枉	-10.8317
汚	-10.8318
得用	-10.8321
拜至	-10.8321
曽子問曰	-10.8323
二者皆	-10.8324
曰此	-10.8327
先帝	-10.8328
焉此	-10.8335
一國	-10.8335
朝諸侯	-10.8337
也王氏曰	-10.8338
質明	-10.834
劑	-10.8341
三品	-10.8345
輯	-10.8346
尸也	-10.8347
列國	-10.8348
手足	-10.8349
汎	-10.8349
啐	-10.8349
賞罰	-10.835
以齒	-10.835
疑衰	-10.8353
為主故	-10.8356
勞者	-10.8358
制也	-10.836
欲見	-10.8365
貢賦	-10.8367
逺矣	-10.8369
亦猶	-10.837
廬陵胡氏曰	-10.837
亡者	-10.837
廂	-10.8373
十有一	-10.8373
矣若	-10.8373
十八年	-10.8374
鱗	-10.8375
鬻	-10.8377
有定	-10.8378
人事	-10.8388
肄	-10.8392
辨正	-10.8394
分之	-10.8394
哭於	-10.8394
𤣥孫	-10.8399
爲君	-10.8402
者嫌	-10.8403
親盡	-10.8409
也此言	-10.8409
徳也	-10.8416
當室	-10.8418
兖	-10.842
三侯	-10.8421
碩	-10.8423
綪	-10.8423
不定	-10.8424
耗	-10.8425
王公	-10.8427
貴貴	-10.8434
公館	-10.8436
田野	-10.8437
穆公	-10.8439
於事	-10.8443
伯父	-10.8444
二祧	-10.8445
天子以	-10.8446
之大小	-10.8449
貎	-10.8451
一一	-10.8452
車徒	-10.8453
也按	-10.8454
掘	-10.8455
民有	-10.8459
齊車	-10.8462
士服	-10.8465
乗馬	-10.8468
倍之	-10.8469
矣今	-10.847
其夫	-10.847
五方	-10.8471
何必	-10.8472
綌	-10.8472
五度	-10.8472
裨	-10.8473
士昏禮	-10.8474
七分	-10.8475
需	-10.8476
褘衣	-10.8477
筴	-10.8478
僕人	-10.8479
婚	-10.848
異耳	-10.8481
蹈	-10.8485
不聽	-10.8485
于郊	-10.8491
後者	-10.8494
齍	-10.8497
尚有	-10.8499
不能自	-10.85
貯	-10.85
縓	-10.8501
旣葬	-10.8502
公侯伯	-10.8502
饎	-10.8502
詩言	-10.8504
則凡	-10.8505
多故	-10.8506
遣官	-10.8506
山陵	-10.8507
諸侯大夫	-10.8507
射也	-10.8511
舉奠	-10.8512
長安	-10.8513
三刻	-10.8514
尊敬	-10.8519
縣北	-10.8519
煎	-10.852
之事云	-10.8521
五嶽	-10.8525
要服	-10.8526
馭夫	-10.8528
憚	-10.8528
耻	-10.8529
珪	-10.853
什一	-10.853
正脊	-10.8531
殖	-10.8532
及於	-10.8535
不升	-10.8536
則宜	-10.8536
進也	-10.8538
中和	-10.854
九貢	-10.8543
尸俎	-10.8546
於子	-10.8548
在其中	-10.855
方澤	-10.8551
為證	-10.8558
二十九	-10.856
以下至	-10.8562
次引	-10.8568
立定	-10.8575
習禮	-10.8576
于君	-10.8578
退復位	-10.8579
連言	-10.8579
䋫	-10.8581
司几筵	-10.8584
袁	-10.8585
就其	-10.8586
司裘	-10.8586
属	-10.8587
合而	-10.859
之類也	-10.8591
辟之	-10.8592
其事也	-10.8594
竊案	-10.8597
者多	-10.8598
制服	-10.86
丈八尺	-10.86
不坐	-10.8601
爵弁服	-10.8601
韎	-10.8601
隂也	-10.8602
為士者	-10.8603
有禮	-10.8605
無廟	-10.8606
于房中	-10.8607
二事	-10.8608
抽	-10.8609
灾	-10.8613
大故	-10.8613
未安	-10.8617
薦新	-10.8618
小功緦麻	-10.8619
或用	-10.8621
繹祭	-10.8622
以詔	-10.8624
之象也	-10.8628
反又音	-10.8634
量人	-10.8635
田役	-10.8635
蛇	-10.8635
山林川澤	-10.8635
六宗	-10.8638
謨	-10.8638
則諸侯	-10.8639
周書	-10.8643
甸師	-10.8644
所以示	-10.8648
大寢	-10.8649
善者	-10.8649
相當	-10.865
殿上	-10.865
五兵	-10.8654
之宗	-10.8654
迎賓	-10.8656
此與	-10.8657
也澄曰	-10.8659
失之矣	-10.8662
泄	-10.8663
以仁	-10.8664
大社	-10.8665
頓首	-10.8666
終喪	-10.8666
之材	-10.8668
三十里	-10.867
疏此	-10.8671
大射禮	-10.8673
使卿	-10.8676
祖之	-10.8677
耳若	-10.8678
士喪	-10.8678
於左	-10.8686
乃可	-10.8687
所自	-10.8688
耒	-10.8691
子張	-10.8691
鞶	-10.8692
犧尊	-10.8692
炮	-10.8692
賑	-10.8694
獻祝	-10.8696
磬折	-10.8697
象天	-10.8702
樂以	-10.8706
皆北面	-10.8706
事謂	-10.8715
求神	-10.8717
從王	-10.872
為宫	-10.872
棗栗	-10.872
加席	-10.8721
于天子	-10.8721
因以	-10.8725
必於	-10.8726
遭喪	-10.8726
不致	-10.8727
三虞	-10.8729
則君	-10.873
聘義	-10.873
特牲饋食禮	-10.8733
而遂	-10.8735
掌次	-10.8736
月之	-10.8739
寢門	-10.8741
叔向	-10.8742
花	-10.8742
萃	-10.8744
負侯	-10.8744
駟	-10.8746
也注正義曰	-10.8746
之布	-10.8747
莫非	-10.8749
葬者	-10.8749
從上	-10.8751
道者	-10.8751
乃退	-10.8752
小寢	-10.8755
定公	-10.8756
之祖	-10.8756
賓客之	-10.8761
對曰某	-10.8762
日至	-10.8763
席末	-10.8766
東壁	-10.8767
閭師	-10.8769
瓉	-10.8769
無爵	-10.877
與大夫	-10.8774
改葬	-10.8774
故不得	-10.8778
土圭	-10.878
而葬	-10.8781
中大夫	-10.8782
物皆	-10.8783
七人	-10.8784
正直	-10.8786
特言	-10.8787
他日	-10.8789
之法也	-10.8789
不辭	-10.8791
揆	-10.8791
為父母	-10.8791
更有	-10.8792
自天子	-10.8792
可行	-10.8792
堂西	-10.8795
平行	-10.8795
為父後者	-10.8795
擇日	-10.88
壘	-10.8802
舉鼎	-10.8803
炊	-10.8804
大閲	-10.8805
掖	-10.8805
宛	-10.8805
下室	-10.8806
丈二尺	-10.8806
離肺	-10.8807
西夾	-10.8807
説見	-10.8807
為宗	-10.8809
也若夫	-10.8819
惟其	-10.8819
理之	-10.882
涗	-10.8821
小君	-10.8821
東夾	-10.8822
揉	-10.8824
禮制	-10.8824
正統	-10.8827
醢人	-10.8827
下大夫二人	-10.8829
農事	-10.8829
無正文	-10.883
涼	-10.8832
榆	-10.8834
河東	-10.8835
不毁	-10.8838
媒	-10.884
小聘	-10.884
之殤	-10.8841
西鄉	-10.8841
者何也	-10.8844
扑	-10.8844
陞	-10.8846
于主人	-10.8847
譏之	-10.8848
歸于	-10.8849
勾	-10.8849
能知	-10.8851
也唯	-10.8853
主人拜送	-10.8853
笴	-10.8856
報反	-10.886
虞夏	-10.8862
計其	-10.8864
為隂	-10.8864
鬱人	-10.8865
用樂	-10.8868
五路	-10.8869
繼禰	-10.887
不順	-10.8872
平聲	-10.8872
為其母	-10.8873
既不	-10.8874
燕朝	-10.8874
瑑	-10.8878
故須	-10.8879
上地	-10.8879
燧	-10.888
黙	-10.888
母妻	-10.8881
繼祖	-10.8882
黄鍾之	-10.8883
諸家	-10.8884
注鄭司農云	-10.8889
小史	-10.889
邢	-10.889
百人	-10.8891
非時	-10.8896
變除	-10.8896
又為	-10.8899
迎之	-10.89
祭時	-10.8903
莫之	-10.8904
其政	-10.8905
仲子	-10.8906
親疎	-10.8907
復有	-10.891
前文	-10.8912
眉	-10.8912
不可得而	-10.8913
丙	-10.8913
閭胥	-10.8914
出則	-10.8915
之要	-10.8919
謂此	-10.8922
私親	-10.8925
死生	-10.8926
主人以下	-10.8926
宰臣	-10.8927
春秋書	-10.8928
本服	-10.8929
而使之	-10.893
髻	-10.8931
無復	-10.8931
木路	-10.8931
所見	-10.8932
嚌之	-10.8932
敎之	-10.8933
存之	-10.8935
孝宗	-10.8935
贏	-10.8936
姻	-10.8938
者以此	-10.8942
之權	-10.8946
七祀	-10.8949
廪	-10.8951
相通	-10.8954
君賜	-10.8954
以明之	-10.8955
阻	-10.8961
証	-10.8961
習之	-10.8963
繪	-10.8963
佑	-10.8965
沿	-10.8966
誅賞	-10.8966
郝氏敬曰	-10.8967
聯	-10.8968
不仁	-10.8968
曽子曰	-10.897
無别	-10.8972
五榖	-10.8973
將有	-10.8975
司民	-10.8976
帝嚳	-10.8979
五等諸侯	-10.898
命有司	-10.8982
也孔氏穎達曰	-10.8984
天子乃	-10.8984
賈氏	-10.8985
楊氏	-10.8987
大羮	-10.8987
嫌於	-10.8987
偏西	-10.8988
三十二	-10.8992
升自	-10.8992
生民	-10.8996
地祗	-10.8997
子婦	-10.9001
蜡祭	-10.9003
無飾	-10.9004
為兄弟	-10.9006
所養	-10.9007
所知	-10.9009
二十六	-10.901
大射正	-10.9011
婦人不	-10.9013
下管	-10.9016
者是也	-10.9016
異居	-10.9019
日之	-10.9019
聽其	-10.9025
殷禮	-10.9027
配享	-10.9028
蕤賓	-10.9031
盞	-10.9033
圈	-10.9034
功臣	-10.9034
為祖	-10.9037
而東	-10.904
曰寡君	-10.9043
乾肉	-10.9043
之本也	-10.9045
白虎通	-10.9045
朝賀	-10.9046
暨	-10.9047
無禮	-10.9047
扆	-10.9048
擁	-10.9048
虡	-10.9049
鯀	-10.905
檐	-10.905
天文	-10.9053
之勢	-10.9055
嬪婦	-10.9058
也長樂陳氏曰	-10.9059
亳	-10.9061
為天	-10.9062
乃升	-10.9066
掃	-10.9071
攘	-10.9072
親王	-10.9073
問曰	-10.9073
爵止	-10.9074
穫	-10.9074
逼	-10.9076
㝠	-10.9077
降出	-10.9078
禮無	-10.9079
親屬	-10.9084
而作	-10.9088
文云	-10.909
爾雅釋	-10.9094
小樂正	-10.9095
當如	-10.91
两	-10.9101
紙	-10.9101
易服	-10.9102
㮚	-10.9106
煇	-10.9106
所以教	-10.9108
樞	-10.9109
總論	-10.911
天子諸侯之	-10.9112
不爲	-10.9116
以法	-10.9116
緇布	-10.9121
釋幣	-10.9123
自今	-10.9126
於祖廟	-10.9127
經直云	-10.913
告神	-10.913
君不	-10.9131
過也	-10.9131
太蔟	-10.9132
則易	-10.9135
秋分	-10.9136
辜	-10.9137
官府之	-10.9137
也詩曰	-10.914
于下	-10.9143
皆由	-10.9145
性之	-10.9146
中書	-10.9151
妥	-10.9153
飲食之	-10.9154
酬賓	-10.9154
所稱	-10.9156
始終	-10.9156
》	-10.9157
以徳	-10.9158
王城	-10.916
羔裘	-10.916
於墓	-10.9162
朝位	-10.9162
多也	-10.9165
户内	-10.9167
出母	-10.9167
坐而	-10.9168
尸食	-10.9169
孤卿大夫	-10.9174
唐書	-10.9178
縣南	-10.9178
不踊	-10.9179
川澤	-10.9179
同日	-10.9183
布帶	-10.9183
無足	-10.9184
賔禮	-10.9185
隨其	-10.9187
償	-10.9188
詩書	-10.9189
活	-10.9189
其容	-10.9189
灂	-10.9191
三年之	-10.9192
為序	-10.9196
聲之	-10.9201
祭畢	-10.9203
室老	-10.9204
用力	-10.9208
一端	-10.9211
間有	-10.9216
紊	-10.9216
先拜	-10.922
閽人	-10.9221
欽定義疏	-10.9221
輕於	-10.9224
論語云	-10.9225
本也	-10.9225
無罪	-10.9225
牧人	-10.9231
可為	-10.9234
就次	-10.9238
亦不得	-10.9239
將祭	-10.924
居前	-10.9243
馬氏睎孟曰	-10.9243
此月	-10.9244
糴	-10.9245
偕	-10.9246
也至於	-10.9246
桀	-10.9246
亦可以	-10.9247
然亦	-10.9249
趾	-10.925
奠者	-10.9251
朝覲㑹同	-10.9256
於東	-10.9257
一官	-10.9262
光武	-10.9264
之身	-10.9269
参	-10.9271
實于	-10.9272
鬭	-10.9272
降洗	-10.9273
祝文	-10.9275
程子	-10.9276
廹	-10.9276
奈何	-10.9279
其尊	-10.9279
席也	-10.9279
相次	-10.928
六律	-10.928
與賓	-10.9284
子男之	-10.9284
人不	-10.9286
長衣	-10.9287
和也	-10.9289
合葬	-10.929
之賜	-10.9291
饋獻	-10.9293
革帶	-10.9293
師田	-10.9294
耳非	-10.9294
上篇	-10.9295
之制也	-10.9295
坐祭	-10.9297
既得	-10.9298
有一	-10.9298
士虞	-10.9298
煖	-10.9303
煑	-10.9304
民無	-10.9304
帟	-10.9304
乗之	-10.9305
竁	-10.9305
逺而	-10.9308
若干	-10.931
雖同	-10.9314
都督	-10.9316
先農	-10.9316
此非	-10.9319
以承	-10.9324
今乃	-10.9328
黄氏	-10.9329
向外	-10.9329
衰麻	-10.933
旗物	-10.933
王者之	-10.9331
楬	-10.9331
迴	-10.9331
禆	-10.9333
匜	-10.9333
調和	-10.9334
大人	-10.9335
致敬	-10.9336
也馬氏曰	-10.9339
疾也	-10.9342
齊衰期	-10.9343
朔月	-10.9344
感動	-10.9345
受酢	-10.9349
不息	-10.9349
少牢禮	-10.935
相類	-10.9352
素冠	-10.9354
傳命	-10.9354
也婦人	-10.9355
不生	-10.9361
化之	-10.9362
則同	-10.9366
兄弟之子	-10.9367
也引	-10.937
十升	-10.937
等皆	-10.937
親戚	-10.9375
豈得	-10.9376
用之於	-10.9379
眡其	-10.9379
考其	-10.938
在乎	-10.9381
不去	-10.9381
不可得	-10.9382
糝	-10.9383
六畜	-10.9385
蕡	-10.9386
平常	-10.9386
而必	-10.9386
遂師	-10.9387
冠昏	-10.939
前言	-10.9391
讐	-10.9391
汲	-10.9391
所致	-10.9391
甿	-10.9392
喪服傳	-10.9393
蘭	-10.9394
射義	-10.9395
入就位	-10.9395
李氏	-10.9397
聖賢	-10.9402
正謂	-10.9402
許嫁	-10.9402
玉幣	-10.9402
害人	-10.9404
故鄭注	-10.9406
請事	-10.9408
升就席	-10.9411
不答拜	-10.9411
謂君	-10.9413
妖	-10.9415
發於	-10.9417
陳列	-10.9417
每一	-10.9418
上古	-10.9419
降拜	-10.9419
鋭	-10.9423
故必	-10.9426
天下之大	-10.9428
豐年	-10.9432
夫禮	-10.9436
不能無	-10.9438
以敬	-10.9439
服大功	-10.9443
左个	-10.9443
某甫	-10.9443
以物	-10.9444
論之	-10.9444
而廢	-10.9444
正齒位	-10.9444
治國	-10.9444
隙	-10.9445
復命	-10.9446
但有	-10.9446
議曰	-10.9449
改元	-10.945
之誤	-10.9454
東堂	-10.9455
莽	-10.9455
諸侯之大夫	-10.9456
者取	-10.946
納之	-10.9461
國語曰	-10.9461
並用	-10.9462
降其	-10.9464
冶	-10.9469
簟	-10.947
技	-10.9472
牛羊豕	-10.9474
麾	-10.9475
簾	-10.9475
疫	-10.9477
競	-10.9478
不肖	-10.9479
荆州	-10.9481
大子	-10.9481
伯叔	-10.9483
於西	-10.9486
隴	-10.9487
五代	-10.9488
祝祝	-10.9491
必須	-10.9492
乃行	-10.9494
在房	-10.9494
若今時	-10.9497
賔升	-10.9499
三終	-10.9502
之所生	-10.9503
為四	-10.9504
慶源輔氏曰	-10.9505
改服	-10.9505
𥘉	-10.9505
踵	-10.9506
亮反	-10.9509
視朔	-10.9511
制作	-10.9516
相因	-10.9517
僚	-10.9517
加于	-10.9517
四字	-10.9519
禮之大	-10.9519
掌王之	-10.952
衆寡	-10.9522
鄭引	-10.9525
就席	-10.9527
涖卜	-10.9528
鬛	-10.9528
而起	-10.9531
眀堂	-10.9536
亦因	-10.954
以木	-10.954
網	-10.9541
燕樂	-10.9542
以麻	-10.9542
凱	-10.9542
不敢自	-10.9543
一切	-10.9547
進之	-10.9553
八曰	-10.9556
亦作	-10.9556
變化	-10.9558
簭	-10.9558
之難	-10.9559
紟	-10.9561
已見	-10.9563
則不能	-10.9564
奎	-10.9567
干戈	-10.9567
尸入	-10.9567
為長	-10.9568
張氏爾岐曰	-10.9568
之所由	-10.9568
庻子	-10.9573
於樂	-10.9577
故亦	-10.9578
其冠	-10.9579
處之	-10.9591
服問	-10.9592
喪大記曰	-10.9594
掌其政令	-10.9598
太隂	-10.9598
虞庠	-10.9602
周語	-10.9603
宗之	-10.9608
棺椁	-10.9609
祭祀賔客	-10.9612
倣此	-10.9615
致齊	-10.9619
而易	-10.962
隐	-10.9622
謹案	-10.9625
顧命	-10.9626
替	-10.9626
二王之後	-10.9626
曰天	-10.9628
器用	-10.9628
出嫁	-10.9628
西北隅	-10.963
祭祀之禮	-10.963
以節	-10.9631
西靣	-10.9632
之門	-10.9634
獻子	-10.9634
或謂之	-10.9635
而還	-10.9637
大享	-10.9638
燕食	-10.9641
東楹	-10.9641
榖梁傳	-10.9642
秋七月	-10.9642
何休	-10.9645
各掌其	-10.9645
過失	-10.9646
而坐	-10.9647
在堂下	-10.9648
成物	-10.9651
答曰	-10.9652
嗚呼	-10.9652
撓	-10.9652
醜	-10.9653
下地	-10.9654
邵	-10.9655
合食	-10.9656
渡	-10.9659
二十五年	-10.9664
謂天子	-10.9664
西階上北面	-10.9665
太和	-10.9665
不辨	-10.9666
祭薦	-10.9673
宁	-10.9678
兒	-10.9679
朴	-10.9682
將出	-10.9685
引詩	-10.9686
卜人	-10.9686
耀	-10.9688
牲牢	-10.969
之始也	-10.9693
以朝	-10.9693
彼云	-10.9694
鉅	-10.9695
坐於	-10.9695
敖君善曰	-10.9696
則可以	-10.9703
事天	-10.9707
盟于	-10.9707
東都	-10.971
與民	-10.971
繕	-10.9713
腐	-10.9713
彭	-10.9714
浩	-10.9714
据	-10.9715
應氏曰	-10.9715
諸侯之禮	-10.9715
睿	-10.9716
頒之	-10.9717
書於	-10.972
不可易	-10.9721
葬後	-10.9727
禮不	-10.9728
刑殺	-10.973
所施	-10.973
予之	-10.9731
為小	-10.9731
侍郎	-10.9739
蛤	-10.974
撃	-10.974
芒	-10.9741
柞	-10.9742
脂	-10.9744
適人者	-10.9744
酸	-10.9746
出自	-10.9746
約之	-10.9748
周家	-10.975
服斬衰	-10.9752
不失其	-10.9753
升殿	-10.9753
不可考	-10.9754
丁亥	-10.9754
倣	-10.9757
讀之	-10.9758
鄉黨	-10.9758
四百	-10.9762
孺子	-10.9763
為子	-10.9763
大常	-10.9764
蕃國	-10.9765
驂	-10.9767
簿	-10.9767
踰年	-10.977
穹	-10.977
纒	-10.9774
䘮大記	-10.9774
非所以	-10.9775
皇皇	-10.9777
稟	-10.9778
國之君	-10.978
從容	-10.9781
九室	-10.9784
前期	-10.9785
既成	-10.9786
釋曰案	-10.9787
傳重	-10.979
不加	-10.9791
汾	-10.9792
以水	-10.9793
不止於	-10.9793
加一等	-10.9794
理也	-10.9795
三十年	-10.9796
影	-10.9796
之式	-10.9798
椑	-10.9799
施之	-10.9801
止言	-10.9801
氐	-10.9801
得為	-10.9802
朔望	-10.9804
石林葉氏曰	-10.9804
盡也	-10.9806
下及	-10.981
先設	-10.9811
擊鼓	-10.9812
而食	-10.982
水出	-10.9821
其方	-10.9824
雍人	-10.9825
教者	-10.9826
衰服	-10.983
不得已	-10.9832
共王	-10.9835
名之曰	-10.9835
當是	-10.9836
二丈	-10.9841
逺也	-10.9845
孝孫	-10.9847
重而	-10.9847
豻	-10.9853
府史	-10.9853
以報	-10.9854
二員	-10.9854
宮中	-10.9858
踰月	-10.9858
王季	-10.9862
同其	-10.9862
曰子	-10.9863
三事	-10.9863
孔氏頴達曰	-10.9863
為六	-10.9864
涕	-10.9865
跡	-10.9868
周禮春官	-10.9871
賢人	-10.9872
彼此	-10.9873
羨	-10.9877
𤣥衣	-10.9879
采邑	-10.988
司馬法	-10.9881
罕	-10.9882
以盛	-10.9883
祭祀則	-10.9883
邦之	-10.9889
五服之	-10.989
樊	-10.989
腴	-10.9895
則異	-10.9896
堊室	-10.9896
齋戒	-10.9899
斂之	-10.9902
不載	-10.9902
不洗	-10.9905
主人出	-10.9907
比之	-10.9907
者宜	-10.9908
賓升	-10.9913
遷廟	-10.9914
為九	-10.9915
府二人	-10.9916
而至於	-10.9917
三夫人	-10.992
山東	-10.9921
祭而	-10.9925
三正	-10.9925
所以尊	-10.9927
朝士	-10.9933
曏	-10.9934
有大小	-10.994
車服	-10.9942
其北	-10.9943
狀如	-10.9944
庖	-10.9945
故舉	-10.9946
備物	-10.9948
主人受	-10.9952
問名	-10.9952
餘夫	-10.9953
東北面	-10.9954
門入	-10.9954
儀節	-10.9955
所藏	-10.9955
亦自	-10.9958
鄭氏以	-10.9958
以朱	-10.9959
士無	-10.9959
人之道	-10.9961
前經	-10.9963
有義	-10.9965
聽政	-10.9968
𫝊曰	-10.9972
無他	-10.9976
諸侯之國	-10.9977
者不得	-10.9979
肘	-10.998
大功以下	-10.998
各異	-10.9982
臣某	-10.9982
纎	-10.9982
与	-10.9984
陸氏曰	-10.9984
為耦	-10.9985
不齒	-10.9985
司宼	-10.9985
扈	-10.9986
菽	-10.9986
乃入	-10.9986
狂	-10.9989
因而	-10.9989
有事則	-10.9993
動而	-10.9996
省牲	-11
反覆	-11.0002
無疆	-11.0003
明徳	-11.0004
諸官	-11.0006
申生	-11.0006
五節	-11.0011
賙	-11.0012
孔氏曰此一節論	-11.0016
衿	-11.0016
肅拜	-11.0017
及諸	-11.0017
陽之	-11.0018
緇衣	-11.002
弃	-11.002
一成	-11.0029
尊之也	-11.003
從君	-11.003
設饌	-11.0031
其死	-11.0035
侯伯子男	-11.0035
臆	-11.0039
非直	-11.0039
斬衰三年	-11.004
讀祝	-11.0041
質也	-11.0044
紏	-11.0047
釀	-11.0047
交錯	-11.0047
當與	-11.0047
親喪	-11.005
以上皆	-11.0051
而拜	-11.0051
案聘禮	-11.0052
疏布	-11.0054
農夫	-11.0055
房外	-11.0062
其勢	-11.0067
送死	-11.007
饗燕	-11.0073
上中下	-11.0074
此下	-11.0074
主人答拜	-11.0074
當其	-11.0075
無嫌	-11.0076
冉	-11.0076
曷	-11.0078
僻	-11.0078
曲直	-11.0079
洪範	-11.0079
身之	-11.0082
正饌	-11.0084
丁巳	-11.0086
禋祀	-11.0088
升成拜	-11.0089
四瀆	-11.009
家之	-11.0091
北面立	-11.0091
祭五祀	-11.0092
徃來	-11.0093
萬物之	-11.0093
嵗之	-11.0095
㳺	-11.0097
内人	-11.0098
糟	-11.0102
掌教	-11.0103
羽籥	-11.0105
酒食	-11.0106
明神	-11.0108
逹於	-11.0109
所以自	-11.0109
祭天地	-11.0115
祥祭	-11.0117
其來	-11.0118
也周官	-11.0121
楹間	-11.0123
未見	-11.0124
四命	-11.0125
取爵	-11.0126
送神	-11.0129
一幅	-11.0129
隨時	-11.0129
下車	-11.0131
入廟門	-11.0133
不亦	-11.0134
議者	-11.0135
沽	-11.0138
王子弟	-11.0138
周禮曰	-11.0139
内賔	-11.014
籠	-11.0142
文飾	-11.0142
病也	-11.0145
不杖期	-11.0145
綿	-11.0145
成數	-11.015
相變	-11.015
大雩	-11.0152
東行	-11.0152
舊制	-11.0154
徹者	-11.0155
主人不	-11.0157
三嵗	-11.0157
書儀	-11.0157
淺深	-11.0158
蔡氏	-11.0158
則去	-11.0159
弩	-11.0162
不吉	-11.0164
未明	-11.0164
皆謂之	-11.0164
得民	-11.0167
圎	-11.0169
添	-11.0171
油	-11.0174
日用	-11.0177
嵗終	-11.018
四豆	-11.0181
冀州	-11.0181
心喪	-11.0183
期也	-11.0184
而無所	-11.0184
朝㑹	-11.0184
謁者	-11.0184
司書	-11.0186
雖在	-11.0186
之孫	-11.0187
一作	-11.0188
俱有	-11.0188
比長	-11.0189
甬	-11.0193
為王	-11.0195
設俎	-11.0195
晉人	-11.0197
稱名	-11.0197
之深	-11.0197
興起	-11.0197
彈	-11.0197
致祭	-11.02
動也	-11.0204
之絰	-11.0205
未成服	-11.0205
本文	-11.0206
餌	-11.0207
三字	-11.0207
殺其	-11.0209
昨	-11.0211
平日	-11.0216
雖異	-11.0219
十有二人	-11.0222
之類皆	-11.0223
利也	-11.0224
十七篇	-11.0229
鼓人	-11.023
言凡	-11.0233
十二律	-11.0234
囘	-11.0236
侯道	-11.0236
脛	-11.0236
元豐	-11.0236
中氣	-11.0237
稱子	-11.0238
明帝	-11.0238
皆坐	-11.0241
半之	-11.0243
庖人	-11.0245
二十二	-11.0246
蕤賔	-11.0247
是一	-11.0248
今既	-11.0248
今言	-11.0254
吉冠	-11.0255
輇	-11.0256
揔	-11.0258
家事	-11.0259
成文	-11.0259
貴臣	-11.0259
銳	-11.026
而弔	-11.0261
不弔	-11.0261
遷之	-11.0263
繐衰	-11.0263
諒	-11.0264
筍	-11.0264
耒耜	-11.0266
而終	-11.0267
古之人	-11.0267
如晉	-11.0268
囊	-11.0268
状	-11.0269
故無	-11.027
溫	-11.0271
其先	-11.0273
凡四	-11.0273
以火	-11.0273
棄之	-11.0275
財物	-11.0275
矣其	-11.0275
君有	-11.0277
秦漢	-11.028
三辰	-11.0281
拜也	-11.0287
是也其	-11.0288
神座前	-11.0288
識之	-11.0291
何謂	-11.0292
射位	-11.0298
貢士	-11.0299
有差	-11.03
幷	-11.03
醋	-11.03
雲氣	-11.0303
視學	-11.0308
不時	-11.0311
四角	-11.0316
敖氏繼公曰此	-11.032
有虞氏之	-11.032
什	-11.0322
有加	-11.0323
戊	-11.0324
恐非	-11.0325
謚	-11.0325
皆據	-11.0327
釋弓	-11.0328
禴	-11.0328
悟	-11.0329
搖	-11.0331
商賈	-11.0331
覩	-11.0331
摰	-11.0331
尚饗	-11.0333
即位于	-11.0334
祖姑	-11.0335
振旅	-11.034
而謂之	-11.0342
闋	-11.0344
制國用	-11.0344
乃設	-11.0347
殷祭	-11.0352
問其	-11.0354
乃降	-11.0358
又按	-11.0359
為句	-11.036
苛	-11.0362
也孔子	-11.0363
為人後	-11.0364
近者	-11.0364
屠	-11.0366
指揮	-11.0368
方丘	-11.0371
尊于	-11.0378
釋獲	-11.0381
云爾	-11.0382
在寢	-11.0385
辟君	-11.0385
則所謂	-11.0386
云主人	-11.0386
封人	-11.0387
辟雍	-11.0389
也者此	-11.0389
衫	-11.039
敬宗	-11.0392
孕	-11.0393
府史胥徒	-11.0394
宋公	-11.0394
父死	-11.0394
者如此	-11.0398
此服	-11.04
逺之	-11.0401
所加	-11.0404
絲枲	-11.0405
不同故	-11.0405
司弓矢	-11.0406
梓宫	-11.0407
中軍	-11.0415
以奉	-11.0415
所尚	-11.0416
之可也	-11.0419
江南	-11.0422
舊君	-11.0422
十九年	-11.0425
修身	-11.0426
羶	-11.0426
公命	-11.0426
述命	-11.0427
教人	-11.0428
塋	-11.0429
中心	-11.0429
有别	-11.043
乃後	-11.043
分而	-11.0431
蔬	-11.0432
注此	-11.0433
寘	-11.0433
虢	-11.0433
武公	-11.0435
尊者之	-11.0435
小祭祀	-11.0436
親而	-11.0436
之㑹	-11.0438
放此	-11.0444
以封	-11.0446
吕氏	-11.045
生氣	-11.045
如前	-11.0451
俟于	-11.0455
大射儀	-11.0455
得伸	-11.0455
劣	-11.0457
挈	-11.0458
嫁者	-11.0461
不别	-11.0462
曷為	-11.0462
本紀	-11.0463
四隅	-11.0465
答再拜	-11.0466
蓼	-11.0467
應之	-11.0468
其父母	-11.0468
逺日	-11.0471
度之	-11.0473
商祝	-11.0474
其末	-11.0474
總名	-11.0475
稻粱	-11.0476
将軍	-11.0477
文舞	-11.048
民心	-11.0481
士冠	-11.0485
諸州	-11.0486
士卑	-11.0487
周天	-11.0489
昆弟之	-11.0489
真宗	-11.049
朱緑	-11.0491
扄	-11.0493
有爵	-11.0494
德行	-11.0495
而西	-11.0496
終獻	-11.0498
其私	-11.0505
也又案	-11.0505
鄭謂	-11.0506
則能	-11.0507
第六	-11.0509
相成	-11.0511
之甚	-11.0512
以隂	-11.0513
不可廢	-11.0514
也釋曰	-11.0516
弇	-11.0518
近之	-11.0519
頤	-11.0521
戶	-11.0522
適妻	-11.0523
性也	-11.0524
呈	-11.0525
雖未	-11.0525
南北面	-11.0526
捷	-11.0526
至元	-11.0527
夏后氏之	-11.0527
輝	-11.0528
與否	-11.0528
重其	-11.0533
與天地	-11.0535
一音	-11.0536
樂官	-11.0537
燕則	-11.0537
大夫之禮	-11.0541
從夫	-11.0544
偏東	-11.0545
鄉學	-11.0545
箴	-11.0551
磨	-11.0552
幦	-11.0552
無時	-11.0552
繫於	-11.0554
縿	-11.0554
恱	-11.0555
於親	-11.0556
内事	-11.0557
䕫	-11.0558
閱	-11.0561
蒯	-11.0562
謁者引	-11.0562
聽朔	-11.0566
李氏曰	-11.0567
所不能	-11.0568
五行之	-11.0568
阼階上	-11.0574
之終	-11.0577
中興	-11.0578
變易	-11.058
為神	-11.0581
噫	-11.0585
杼	-11.0585
嚌肺	-11.0586
璽	-11.0586
升席	-11.0586
溪	-11.0586
私臣	-11.0588
返	-11.0588
姜嫄	-11.0592
正色	-11.0592
庶婦	-11.0593
垂之	-11.0596
便是	-11.0596
教化	-11.0599
不答	-11.06
封建	-11.0601
次于	-11.061
太守	-11.0611
侍衛	-11.062
趙氏曰	-11.062
屑	-11.062
之端	-11.062
不辟	-11.0621
莫重於	-11.0621
為國	-11.0621
磔	-11.0622
宮室	-11.0623
二王後	-11.0623
六反	-11.0624
不已	-11.0624
繫之	-11.0625
六世	-11.0626
惡也	-11.0628
為介	-11.0631
大䘮	-11.0631
遂行	-11.0633
杜注	-11.0635
同宗	-11.0638
臣僚	-11.0639
是不	-11.0641
丈夫婦人	-11.0646
牒	-11.0649
挺	-11.065
伊尹	-11.0652
尼	-11.0653
不俟	-11.0655
者不敢	-11.0655
重席	-11.0655
學禮	-11.0656
瓜	-11.0656
於東方	-11.0656
遐	-11.0657
百世不遷	-11.0657
送賔	-11.0659
以酒	-11.066
侯伯之	-11.066
屬焉	-11.066
二句	-11.0663
地中	-11.0663
貌也	-11.0665
英宗	-11.0667
臨之	-11.0668
死者之	-11.0669
漳	-11.067
作主	-11.0673
重耳	-11.0674
公有司	-11.0676
爵也	-11.0676
居廬	-11.0677
與天	-11.0679
不敢與	-11.0681
嚳	-11.0682
街	-11.0683
今世	-11.0684
寄公	-11.0684
師保	-11.0686
稱王	-11.0691
于俎	-11.0693
之為物	-11.0693
七十里	-11.0694
𤣥纁	-11.0694
左胖	-11.0695
民而	-11.0696
掌事者	-11.0697
雅頌	-11.0697
豆實	-11.0698
而難	-11.0699
重服	-11.0702
此之謂也	-11.0703
郊野	-11.0704
見君	-11.0705
禮辭	-11.0705
順也	-11.0705
肉袒	-11.0707
出户	-11.0708
則為之	-11.0708
用兵	-11.071
于太廟	-11.071
祭其	-11.0714
臣妾	-11.0715
姑姊妹女子子	-11.0717
靈座	-11.0718
士賤	-11.072
㢘	-11.072
天地之間	-11.0721
三拜	-11.0721
司馬正	-11.0723
徹俎	-11.0725
九族	-11.0726
委貌	-11.0729
抗木	-11.073
所命	-11.073
葛絰	-11.0732
大門内	-11.0734
與賔	-11.074
與衆	-11.0743
青陽	-11.0747
在路	-11.0748
詛	-11.0749
上下之	-11.075
河北	-11.075
異同	-11.0752
淹	-11.0753
衈	-11.0755
正義曰此	-11.076
九夏	-11.0761
四拜	-11.0763
利害	-11.0767
以防	-11.0773
君在	-11.0773
酬幣	-11.0776
天子七廟	-11.0776
養馬	-11.0777
侍者	-11.0779
此節	-11.0779
片	-11.078
徒二十人	-11.0781
使副	-11.0782
養也	-11.0784
土之	-11.0785
賔入	-11.0786
忿	-11.0787
卒爵拜	-11.0787
顈	-11.0788
莫大於	-11.079
凶年	-11.079
大祀	-11.0791
立後	-11.0792
爲一	-11.0793
於理	-11.0793
禮儀使	-11.0794
曰古者	-11.0795
脩身	-11.0795
致禮	-11.0798
牽牛	-11.0798
世本	-11.08
牛馬	-11.08
萬國	-11.0803
孔疏云	-11.0805
刑官	-11.0806
皆降	-11.0811
吉也	-11.0811
四世	-11.0811
始生	-11.0813
叅	-11.0814
無聲	-11.0816
斷之	-11.0816
少府	-11.0816
四品	-11.0816
親廟	-11.0817
奸	-11.0818
日行	-11.0819
祭祀賓客	-11.0819
示其	-11.0819
官司	-11.0823
以進	-11.0823
殺人	-11.0823
禮部尚書	-11.0825
揖入	-11.0825
安府	-11.0831
母之	-11.0832
戰國	-11.0834
刑禁	-11.0835
貨財	-11.0836
平地	-11.0837
賓禮	-11.0838
出封	-11.0839
差之	-11.084
通之	-11.0841
蜃車	-11.0841
方五百里	-11.0842
地氣	-11.0842
四十九	-11.0848
肩臂臑	-11.0849
僧	-11.0851
郡縣	-11.0852
熹	-11.0852
飢	-11.0852
軓	-11.0853
能盡	-11.0854
絀	-11.0854
鄉士	-11.0854
官屬	-11.0855
書云	-11.0855
嫂叔	-11.0857
恪	-11.0857
書傳	-11.0858
凡邦之	-11.0859
後世之	-11.0859
夷衾	-11.086
子春	-11.086
綃	-11.0861
故知是	-11.0863
弁師	-11.0865
納徴	-11.0868
曰昔	-11.087
又反	-11.0873
行乎	-11.0873
拜者	-11.0874
此義	-11.0874
視濯	-11.0875
父祖	-11.0875
致齋	-11.0877
程子曰	-11.0881
民間	-11.0882
之典	-11.0883
拔	-11.0885
食音嗣	-11.0887
翰	-11.0888
隕	-11.0888
乃能	-11.0888
張子	-11.0889
超	-11.0889
方伯	-11.089
道車	-11.089
以合	-11.0893
穀梁	-11.0895
跪奏	-11.0895
以西	-11.0896
喪者	-11.0897
:	-11.0898
重行	-11.0901
聰明	-11.0901
畤	-11.0901
貧賤	-11.0901
閔公	-11.0902
門左	-11.0904
服𤣥端	-11.0905
異義	-11.0907
此類	-11.091
九人	-11.091
者謂若	-11.0912
司盟	-11.0914
達之	-11.0914
君夫人	-11.0915
故聖人	-11.0915
以食	-11.0916
昭明	-11.0917
劉執中曰	-11.092
有命	-11.0921
也朱子曰	-11.0921
至親	-11.0924
為難	-11.0925
以辨	-11.0926
一刻	-11.0927
喬	-11.0927
周頌	-11.0927
大祫	-11.0927
禱祠	-11.0928
一定	-11.0928
有事于	-11.0929
為中	-11.0929
玉爵	-11.0929
市朝	-11.0933
西向立	-11.0934
功布	-11.0934
韭	-11.0936
鍾磬	-11.0936
許之	-11.0936
康王	-11.0938
之麻	-11.094
6	-11.0941
之多寡	-11.0944
追尊	-11.0944
法者	-11.0945
大功之喪	-11.0947
上下相	-11.0948
哀樂	-11.0948
學也	-11.0949
男女之	-11.095
之小者	-11.095
韻	-11.0951
途	-11.0953
所好	-11.0956
為樂	-11.0957
曰凡	-11.0958
之貳	-11.0958
鄕	-11.0959
時事	-11.0961
不堪	-11.0964
僎	-11.0964
既受	-11.0968
互言之	-11.0968
珍異	-11.097
外祖父母	-11.0971
張氏	-11.0974
故也云	-11.0975
反服	-11.0976
此特	-11.0978
尸之	-11.0979
周則	-11.0985
欠	-11.0985
文明	-11.0985
載柩	-11.0985
初死	-11.0985
裨冕	-11.0986
先王之制	-11.0987
瓊	-11.0988
而南	-11.0989
云大夫	-11.099
菆	-11.0991
劉歆	-11.0993
管子	-11.0993
公所	-11.0995
而進	-11.0996
以手	-11.0996
巴	-11.0999
服制	-11.0999
哀痛	-11.0999
之祭也	-11.1001
緦服	-11.1001
史氏曰	-11.1002
說屨	-11.1003
說文	-11.1004
所聚	-11.1004
納幣	-11.1004
長而	-11.1008
旌節	-11.1011
百畆	-11.1011
設几	-11.1011
不主	-11.1013
醆	-11.1013
貴人	-11.1014
不告	-11.1017
誨	-11.1019
朼	-11.1021
天子居	-11.1021
枯	-11.1023
刑人	-11.1029
大功小功	-11.103
儺	-11.1031
之議	-11.1034
其恩	-11.1035
中道	-11.1036
諸事	-11.1036
禮之所	-11.1037
酒醴	-11.1037
青州	-11.1037
射事	-11.1038
襚者	-11.1038
主人洗	-11.104
緇帶	-11.1041
惡其	-11.1045
跗	-11.1049
以達	-11.105
孟秋	-11.1051
泮	-11.1051
可使	-11.1052
佛	-11.1052
不惟	-11.1053
夙夜	-11.1054
拜賜	-11.1055
泗	-11.1055
安能	-11.1055
輕服	-11.1055
極其	-11.1056
所止	-11.1058
而欲	-11.1058
鎮圭	-11.1058
虎豹	-11.1059
推而	-11.1059
其要	-11.106
眚	-11.1061
沛	-11.1061
王后之	-11.1061
以君命	-11.1062
固不	-11.1063
洛陽	-11.1068
國學	-11.1069
時亦	-11.1069
三成	-11.1071
無父	-11.1071
母喪	-11.1072
節之	-11.1074
所惡	-11.1078
周知	-11.1079
備禮	-11.1082
夙	-11.1084
是天子	-11.1085
二十年	-11.1089
猶在	-11.109
毳冕	-11.1091
偹	-11.1092
之長殤	-11.1093
存疑	-11.1097
施于	-11.1101
辛巳	-11.1101
也郝氏曰	-11.1102
寕	-11.1103
䘮禮	-11.1106
所用之	-11.1109
尊君	-11.111
為體	-11.111
世俗	-11.1112
既虞	-11.1112
寢門外	-11.1112
鑮	-11.1114
用少牢	-11.1116
於房中	-11.1117
治者	-11.1117
以利	-11.1118
彤	-11.1118
子某	-11.1119
委曲	-11.112
袗	-11.1124
欲令	-11.1125
節奏	-11.1125
集說曰	-11.1125
霜	-11.1126
三時	-11.1127
和樂	-11.1127
追王	-11.1129
昆蟲	-11.113
有如此者	-11.1133
氏云	-11.1133
舜之	-11.1142
禘祭	-11.1142
之適	-11.1143
小戴	-11.1143
自然之	-11.1144
若其	-11.1145
塗之	-11.1145
可不	-11.1145
不假	-11.1146
不得過	-11.1148
盛之	-11.1149
義而	-11.115
之弊	-11.1153
下堂	-11.1155
於我	-11.1155
乃復	-11.1155
陳其	-11.1156
上曰	-11.1156
民之所	-11.1156
冠弁	-11.1156
伺	-11.1157
而進之	-11.1158
倨	-11.116
大夫尊	-11.116
葦席	-11.1164
其味	-11.1164
不可復	-11.1165
加減	-11.1165
而獨	-11.1166
小師	-11.1166
縣東	-11.1166
注釋曰知	-11.1169
本有	-11.117
貴於	-11.1173
今案	-11.1174
北極	-11.1174
三族	-11.1175
不得與	-11.1175
受弔	-11.1176
未敢	-11.1176
於堂下	-11.1178
從父	-11.1178
席西	-11.118
三鼎	-11.1181
在軍	-11.1184
鶉	-11.1185
是也若	-11.1185
其出入	-11.1186
楊氏曰	-11.1188
者各	-11.1189
一升	-11.1189
東西相向	-11.1195
請期	-11.1195
設其	-11.1195
國門	-11.1198
三節	-11.1198
酒尊	-11.12
鄉飲酒之禮	-11.1202
車右	-11.1205
朝獻	-11.1211
改為	-11.1212
告備	-11.1214
軍禮	-11.1216
以己	-11.122
所以象	-11.1221
養人	-11.1223
匿	-11.1224
叩	-11.1224
公服	-11.1227
之私	-11.1227
三老五更	-11.123
養其	-11.123
門中	-11.1231
咸池	-11.1232
絮	-11.1234
事鬼神	-11.1235
姨	-11.1236
南陳	-11.1236
擯相	-11.1237
炎帝	-11.1237
明乎	-11.124
之左右	-11.124
治人	-11.1244
致仕者	-11.1244
西階前	-11.1245
異其	-11.1245
以應	-11.1246
而不用	-11.1246
十度	-11.1247
曾子問曰	-11.1248
宜有	-11.125
豎	-11.1253
九等	-11.1254
於房	-11.1254
食肉	-11.1255
以制	-11.1257
稍食	-11.1257
奏之	-11.1259
黝	-11.1261
塊	-11.1261
暗	-11.1262
取象	-11.1262
者重	-11.1263
黼黻	-11.1263
勑	-11.1264
許其	-11.1264
大夫降	-11.1267
徼	-11.1267
各得其	-11.1271
喪服小記	-11.1274
鞠躬拜興拜興平身	-11.1274
寸半	-11.1274
慮其	-11.1275
以通	-11.1276
送賓	-11.1277
之以禮	-11.1282
明王	-11.1284
㑹稽	-11.1285
屈而	-11.1286
即上	-11.1286
先祖之	-11.1287
祀昊天上帝	-11.1287
之禮故	-11.1289
在人	-11.129
為大夫者	-11.1291
其初	-11.1291
庶人在官者	-11.1292
死事	-11.1295
乘馬	-11.1295
瞿	-11.1296
恊	-11.1297
辟廱	-11.1298
皆如初	-11.1299
施行	-11.1301
鞠躬	-11.1303
禫祭	-11.1305
承上	-11.1307
設尊	-11.1307
又在	-11.1308
乎且	-11.131
繼别	-11.1313
羣士	-11.1314
州亦為	-11.1314
擯者出請	-11.1319
大夫士之	-11.1323
虚爵	-11.1323
以地	-11.1325
禓	-11.1325
摡	-11.1325
無算	-11.1326
大比	-11.1327
授人	-11.1328
束帛加璧	-11.1329
洒	-11.1331
考妣	-11.1332
足矣	-11.1332
北面西上	-11.1333
飲福	-11.1335
捕	-11.1335
是士	-11.1335
於他	-11.1335
告利成	-11.1337
君臣之義	-11.1337
閩	-11.1338
牖下	-11.1339
不孝	-11.134
於學	-11.1341
其質	-11.1341
盛禮	-11.1347
辟積	-11.1347
純吉	-11.1349
時刻	-11.1351
袷	-11.1358
遂大夫	-11.1362
月朔	-11.1362
答之	-11.1363
彼注云	-11.1363
社稷之	-11.1364
皇子	-11.1365
決拾	-11.1366
阼階東	-11.1367
其類也	-11.1367
核	-11.1369
勞之	-11.1369
加勺	-11.1372
鼜	-11.1375
有兩	-11.1378
禮所以	-11.1378
職内	-11.1382
知非	-11.1383
六百	-11.1383
馬氏	-11.1384
禁止	-11.1384
不解	-11.1385
尸柩	-11.1387
明知	-11.1392
不專	-11.1392
禮神	-11.1392
日入	-11.1392
三年之䘮	-11.1393
之征	-11.1395
在野	-11.1395
又從而	-11.1397
膝	-11.1401
立飲	-11.1402
礙	-11.1402
初喪	-11.1403
數者	-11.1405
夏小正	-11.1405
丈四尺	-11.1405
奉安	-11.1405
五品	-11.1406
重意	-11.1406
𦙍	-11.1408
桂	-11.1409
禮書卷	-11.141
兩邊	-11.1411
執事官	-11.1412
有數	-11.1412
士以	-11.1415
内官	-11.1417
先王以	-11.1418
為徴	-11.1419
也竊案	-11.1422
則天下	-11.1424
受賜	-11.1424
致事	-11.1425
守祧	-11.143
將至	-11.1431
千乘	-11.1431
政和	-11.1433
於社	-11.1433
郷大夫	-11.1434
見諸侯	-11.1435
陳器	-11.1437
笥	-11.1437
職幣	-11.1438
籌	-11.1438
鹹	-11.1439
去一	-11.1439
筮人	-11.1439
太皇太后	-11.144
惇	-11.1442
降等	-11.1442
辭其	-11.1442
於大廟	-11.1443
裴	-11.1443
以輔	-11.1445
與尸	-11.1446
同用	-11.1448
仁人	-11.1452
服其服	-11.1453
亦異	-11.1454
辟領	-11.1454
按此	-11.1455
不興	-11.1456
趣馬	-11.1459
妻之父母	-11.146
君大夫士	-11.1463
文武官	-11.1463
縣西	-11.1466
内之	-11.1466
車旗	-11.1468
之官也	-11.1468
殃	-11.1468
其餘皆	-11.1469
之遺	-11.1469
成其	-11.147
此四者	-11.1471
言此者	-11.1471
牲幣	-11.1472
懈	-11.1473
四矢	-11.1473
大音泰	-11.1473
橈	-11.1474
之郊	-11.1475
住	-11.1475
君父	-11.1476
飫	-11.1477
祭社稷	-11.1481
不求	-11.1481
其祀	-11.1483
敖氏曰此	-11.1483
廏	-11.1484
其哀	-11.1485
義故	-11.1486
太室	-11.1488
甚明	-11.1489
正歲	-11.149
自稱曰	-11.1491
至周	-11.1491
皆出	-11.1493
此經云	-11.1494
嗣君	-11.1495
山在	-11.1496
獻賓	-11.1499
之名也	-11.15
此句	-11.15
漢之	-11.1505
面位	-11.1506
馴	-11.1509
同意	-11.151
譜	-11.1511
鞭	-11.1511
解經	-11.1511
顛	-11.1512
猛獸	-11.1513
揚州	-11.1513
澡	-11.1513
洞	-11.1514
淡	-11.1514
廐	-11.1515
賂	-11.1515
葢以	-11.1517
虞書	-11.1518
畫之	-11.1519
亡則	-11.152
男子之	-11.1521
鍾鼓	-11.1521
亦應	-11.1523
前驅	-11.1523
當云	-11.1528
旅師	-11.153
其禄	-11.153
涚	-11.1533
居左	-11.1535
則主人	-11.1535
繼世	-11.1536
星在	-11.1537
所及	-11.1539
宣帝	-11.1543
御僕	-11.1543
束之	-11.1544
九卿	-11.1544
亦不敢	-11.1545
剥	-11.1547
酇	-11.1547
一里	-11.1548
夫子曰	-11.1548
乗矢	-11.1549
此說	-11.155
舊唐書	-11.1551
以幣	-11.1552
不具	-11.1553
胡氏	-11.1556
居堊室	-11.1556
神祗	-11.1558
東榮	-11.1558
卿大夫以下	-11.1563
而飲	-11.1566
自此至	-11.1568
俎者	-11.1569
簪	-11.1573
盖以	-11.1576
但云	-11.1576
勤勞	-11.1577
彫	-11.1578
麄	-11.1579
哭位	-11.1579
柎	-11.1581
云某	-11.1582
雖不同	-11.1582
跛	-11.1582
嗜	-11.1582
薌	-11.1584
鄭氏鍔曰	-11.1584
叶	-11.1584
不肯	-11.1586
善則	-11.1586
天帝	-11.1588
殺於	-11.159
互文	-11.1591
圭瓚	-11.1591
載於	-11.1592
喪大記云	-11.1592
而治	-11.1594
愷	-11.1594
地以	-11.1595
先王所以	-11.1599
其音	-11.1599
於其上	-11.1601
主國君	-11.1601
反劉	-11.1602
又非	-11.1604
主人阼階上	-11.1604
禮意	-11.1607
在殯	-11.1608
琥璜	-11.1611
案特牲	-11.1611
功成	-11.1612
以别	-11.1613
歌者	-11.1613
大水	-11.1615
椎	-11.1615
辛亥	-11.1616
鮑	-11.1616
多而	-11.1617
見賢遍反	-11.1617
襌	-11.1618
諸侯之臣	-11.1618
凌	-11.1621
内小臣	-11.1621
丕	-11.1621
所傳	-11.1622
或在	-11.1623
逺人	-11.1623
凡三	-11.1626
嫁女	-11.1626
是諸侯	-11.1628
疑於	-11.1629
以是為	-11.1631
尸者	-11.1634
東郊	-11.1635
白布	-11.1636
存其	-11.1638
形於	-11.1639
而發	-11.164
順之	-11.164
所以安	-11.1643
執觶	-11.1644
外府	-11.1644
執以	-11.1645
役之	-11.165
父族	-11.1651
席于	-11.1652
叚	-11.1653
元日	-11.1653
神州	-11.1654
饋奠	-11.1654
闈門	-11.1658
相繼	-11.1658
樹之	-11.1661
上章	-11.1663
五家	-11.1669
鼎俎	-11.1673
野人	-11.1675
戎路	-11.1676
國公	-11.1676
於右	-11.1677
禮節	-11.1679
朝君	-11.168
此數	-11.1682
可疑	-11.1682
俎實	-11.1682
方十里	-11.1683
諡曰	-11.1684
酬酢	-11.1685
廊	-11.1685
捍	-11.1687
圻	-11.1687
缶	-11.1692
凡喪	-11.1694
仲吕	-11.1695
合升	-11.1695
故因	-11.1697
以配	-11.1697
三之一	-11.17
將有事	-11.1702
士卒	-11.1703
論語曰	-11.1703
自上	-11.1704
不臣	-11.1707
割牲	-11.1708
中春	-11.1708
再拜訖	-11.171
凡諸侯	-11.1713
體之	-11.1713
四國	-11.1714
客位	-11.1714
父母喪	-11.1718
韎韐	-11.172
先聖先師	-11.1721
柲	-11.1721
曾子曰	-11.1721
寺人	-11.1723
麛	-11.1724
迷	-11.1726
國用	-11.1727
簞	-11.1727
分職	-11.1728
贊王	-11.1729
貽	-11.173
於司徒	-11.1732
旨	-11.1732
正義曰此一節論	-11.1735
亦通	-11.1738
非所	-11.1739
必自	-11.174
二采	-11.1741
東海	-11.1742
始封	-11.1743
千乗	-11.1743
記人	-11.1745
雖曰	-11.1749
娶妻	-11.1749
三禮	-11.175
不暇	-11.175
于國	-11.1752
銑	-11.1753
少而	-11.1756
送逆	-11.1756
榭	-11.1757
鏤	-11.1759
藍田吕氏曰	-11.1761
巽	-11.1762
經義	-11.1763
此注	-11.1766
内命婦	-11.1769
陽縣	-11.1769
於彼	-11.1769
祏	-11.177
失於	-11.177
如字又	-11.1772
尺有二寸	-11.1773
在旁	-11.1775
議禮	-11.1776
庻人	-11.1777
不遺	-11.1779
自若	-11.1779
此官	-11.1782
不樂	-11.1782
玄酒	-11.1782
父喪	-11.1784
醆酒	-11.1787
已成	-11.1787
挽	-11.1796
鈴	-11.1797
而外	-11.1799
庇	-11.1799
蔡邕	-11.18
如上	-11.1802
司㓂	-11.1802
外事	-11.1804
旟	-11.1805
艮	-11.1805
朝享	-11.1806
厲禁	-11.1806
庶姓	-11.1807
小都	-11.1809
太傅	-11.1812
皆稱	-11.1813
坊記	-11.1813
天子有	-11.1814
記文	-11.1816
得立	-11.1817
廩人	-11.1817
當楣	-11.1817
師役	-11.1818
既祥	-11.1818
動作	-11.182
六尺六寸	-11.1823
以外	-11.1825
三度	-11.1826
重屋	-11.1832
辨其物	-11.1832
穆穆	-11.1834
于庭	-11.1835
弓之	-11.1836
匝	-11.1837
必欲	-11.1838
藴	-11.1838
士庶	-11.1838
汪	-11.1842
始至	-11.1843
嶺	-11.1844
之氣也	-11.1847
在下者	-11.1848
北面拜	-11.1849
府庫	-11.185
人道之	-11.1851
祝融	-11.1853
為主人	-11.1854
善之	-11.1854
五哭	-11.1856
卑於	-11.1856
獨言	-11.1857
主人再拜	-11.1858
所以敬	-11.186
有聲	-11.1861
未定	-11.1861
後漢書	-11.1861
而已此	-11.1862
燔從	-11.1862
者為其	-11.1862
一身	-11.1863
戎右	-11.1865
大合樂	-11.1866
十有五	-11.1868
朄	-11.1869
美也	-11.1869
嫁娶	-11.187
告廟	-11.187
傳言	-11.1872
黄金	-11.1872
不幸	-11.1872
饌于	-11.1872
當事	-11.1873
寔	-11.1874
承擯	-11.1876
眡瞭	-11.1876
盛氏世佐曰	-11.1876
讀曰	-11.1876
内賓	-11.1876
有八	-11.1877
姜氏	-11.1878
鍵	-11.1878
無怨	-11.1879
仕者	-11.188
母在	-11.1881
號令	-11.1882
王禮	-11.1884
尚齒	-11.1884
於篚	-11.1884
神惠	-11.1884
南首	-11.1884
鉶羮	-11.1886
交於	-11.1886
内則曰	-11.1887
韭菹	-11.1891
癸	-11.1891
餘論	-11.1893
樂志	-11.1893
西堂	-11.1894
以盡	-11.1896
禮教	-11.1896
詩所謂	-11.1896
所以成	-11.1898
親受	-11.19
而歌	-11.19
沃盥	-11.1903
麻絰	-11.1903
苴絰	-11.1903
便其	-11.1904
方士	-11.1904
輓	-11.1908
幬	-11.1909
志意	-11.1909
之風	-11.191
祉	-11.1915
戎車	-11.1923
尊號	-11.1924
和之曲	-11.1925
木之	-11.1925
戎事	-11.1926
堯典	-11.1926
駑馬	-11.1928
將葬	-11.1928
别為	-11.1932
澤虞	-11.1933
平時	-11.1934
長六寸	-11.1934
授尸	-11.1935
在門外	-11.1937
令奏	-11.1937
自此以下	-11.1939
卑而	-11.1939
順其	-11.1942
刲	-11.1944
月數	-11.1945
革車	-11.1947
嵩	-11.1949
三家	-11.1951
蠻夷	-11.1953
扞	-11.1953
三丈	-11.1954
存異	-11.1955
篇首	-11.1955
常事	-11.1956
之事而	-11.1956
陪鼎	-11.1957
君母	-11.1958
泉府	-11.1958
聲也	-11.1958
文武之	-11.1959
拜位	-11.1961
其治	-11.1969
于賓	-11.1969
大夫之喪	-11.1969
帶絰	-11.197
饗帝	-11.1971
九度	-11.1972
誅之	-11.1974
不殺	-11.1978
榖梁	-11.1979
近而	-11.1979
考證	-11.198
既言	-11.1983
常朝	-11.1983
躋	-11.1983
緑	-11.1984
朔日	-11.1985
三分去一	-11.1986
榦	-11.1987
俘	-11.1987
於棺	-11.1989
左執	-11.1989
咏	-11.199
作龜	-11.1991
官名	-11.1991
適堂西	-11.1991
持之	-11.1992
於壇	-11.1993
工商	-11.1993
為左	-11.1996
長殤中殤	-11.1997
各以其物	-11.1998
因事	-11.1999
之盟	-11.2
當門	-11.2
凡六	-11.2001
王室	-11.2004
毛血	-11.2004
有功者	-11.2008
之交	-11.201
王道	-11.2013
度也	-11.2017
之半	-11.2018
方其	-11.2019
紱	-11.2019
簀	-11.202
鮪	-11.2023
迄	-11.2024
原隰	-11.2024
尸出	-11.2025
繅藉	-11.2025
笄纚	-11.2025
虞衡	-11.2026
弔於	-11.2026
伊川	-11.2028
及葬	-11.2029
玩好	-11.203
鹿鳴	-11.2031
文徳	-11.2034
於阼	-11.2035
本是	-11.2038
贊冠者	-11.2038
于豆	-11.2039
賔主人	-11.2043
三老	-11.2044
踈	-11.2046
罰之	-11.2046
地方	-11.2047
貴其	-11.2049
參分	-11.205
侑幣	-11.205
廟門之外	-11.2051
而先	-11.2053
送葬	-11.2053
侯服	-11.2054
主人揖	-11.2054
林麓	-11.2054
愛人	-11.2054
動物	-11.2055
非必	-11.2055
百六十	-11.2057
厚也	-11.206
櫝	-11.2061
自當	-11.2062
同但	-11.2064
情也	-11.2064
季子	-11.2067
盟詛	-11.2068
路門外	-11.2071
義云	-11.2075
首飾	-11.2076
與民同	-11.2079
者取其	-11.208
無知	-11.208
遵者	-11.2084
紗	-11.2085
陜西	-11.2086
其失	-11.2088
則不服	-11.2091
所以正	-11.2095
辭讓	-11.2096
捨	-11.2097
之力	-11.2098
稱之	-11.2098
由其	-11.2099
人人	-11.2099
特牲饋食	-11.2099
迂	-11.2101
兩楹之間	-11.2101
問喪	-11.2103
臡	-11.2104
門閭	-11.2105
居民	-11.2106
義者	-11.2107
者天子	-11.2107
愍	-11.2107
絶之	-11.2108
古法	-11.2108
東堂下	-11.2108
士庶人	-11.2108
又謂	-11.2109
崑崙	-11.211
其子孫	-11.211
立社	-11.2111
官師	-11.2111
公宫	-11.2112
尸尸	-11.2113
侯之	-11.2114
良馬	-11.2114
齊衰大功	-11.2116
攝事	-11.2118
郎中	-11.2119
酺	-11.212
東鄉	-11.2123
郝	-11.2124
矣案	-11.2125
實爵	-11.2126
㝛	-11.2126
禮器云	-11.2127
溉	-11.2131
不疑	-11.2131
可通	-11.2131
前有	-11.2133
盛於	-11.2134
於市	-11.2135
頻	-11.2135
珽	-11.2135
樸	-11.2137
僉	-11.2138
所使	-11.2139
正室	-11.2139
大義	-11.2139
曺	-11.214
經度	-11.2141
入壙	-11.2141
官吏	-11.2142
睿宗	-11.2143
明堂位曰	-11.2143
使之相	-11.2144
何哉	-11.2144
為夫之	-11.2145
學校	-11.2146
夕月	-11.2146
雍州	-11.2147
分明	-11.2148
帥師	-11.2153
在車	-11.2154
而受	-11.2155
不報	-11.2157
從獻	-11.2158
王宫之	-11.2159
無益	-11.2161
牷	-11.2162
父没	-11.2165
器之	-11.2165
各於其	-11.2168
周以	-11.2168
發明	-11.2168
彌尊	-11.2169
多者	-11.2169
公子之	-11.217
致福	-11.2174
㕘	-11.2174
袒決遂	-11.2174
李嘉㑹曰	-11.2175
疇	-11.2175
刑部尚書秦蕙田撰	-11.2178
躐	-11.2179
爽	-11.2179
百一十	-11.2179
緹	-11.2179
卒洗	-11.218
虞人	-11.218
不釋	-11.2181
察之	-11.2181
斟酌	-11.2181
不重	-11.2182
大樂	-11.2183
服齊衰三月	-11.2183
9	-11.2184
先行	-11.2188
千人	-11.2188
功徳	-11.219
其教	-11.2191
經不言	-11.2191
至今	-11.2191
此一經	-11.2196
木主	-11.2197
文義	-11.2198
自飲	-11.2199
諸侯來朝	-11.2205
釋曰言	-11.2205
餞	-11.2206
帚	-11.2207
移之	-11.2208
輟	-11.2208
夏商	-11.2209
仞	-11.221
减	-11.221
妾之	-11.2211
異名	-11.2214
尚右	-11.2215
歐陽	-11.2215
乎故	-11.2217
為將	-11.2217
嗇	-11.2219
容體	-11.2219
而後行	-11.2219
時享	-11.222
與上	-11.222
總章	-11.222
未殯	-11.222
詳於	-11.2223
之弟	-11.2225
涇	-11.2226
今文無	-11.2227
又問	-11.223
百五十	-11.2236
一方	-11.2236
一歲	-11.2236
舉肺	-11.2237
再獻	-11.2238
三享	-11.2239
莊子	-11.2241
焉其	-11.2242
他邦	-11.2243
宗祀	-11.2244
女氏	-11.2246
臯陶	-11.2246
與君同	-11.2246
東宫	-11.2248
若非	-11.2248
珠玉	-11.2248
於天地	-11.225
樂則	-11.225
龜筮	-11.2251
罟	-11.2253
藁	-11.2253
乂	-11.2253
西階東	-11.2256
郵	-11.2257
並如	-11.2258
孔氏曰此	-11.2258
隈	-11.2259
自立	-11.2259
為五	-11.2261
配位	-11.2262
之堂	-11.2262
無明文	-11.2264
必告	-11.2265
三朝	-11.2267
如一	-11.2269
曰禮	-11.2271
胥徒	-11.2273
縣西北	-11.2275
魂氣	-11.2275
未忍	-11.2276
疏曰云	-11.2278
食則	-11.2285
爵命	-11.2289
親祀	-11.2291
駭	-11.2293
徳行道藝	-11.2294
未成人	-11.2295
展衣	-11.2295
以實	-11.2295
形而	-11.2297
以類	-11.2297
齊衰三年	-11.2297
善而	-11.2298
埶	-11.2299
也書曰	-11.2301
乞言	-11.2303
卜之	-11.2303
二十三年	-11.2303
六牲	-11.2304
畮	-11.2304
祝版	-11.2306
尊所	-11.2307
士相見	-11.2308
7	-11.2309
于東方	-11.2312
未發	-11.2321
之器也	-11.2321
殷奠	-11.2323
腸	-11.2324
别言	-11.2325
和而	-11.2325
所以待	-11.2326
次日	-11.2327
本朝	-11.2327
侍臣	-11.2328
然非	-11.2328
芼	-11.233
魁	-11.2332
勸之	-11.2333
豻侯	-11.2336
岱	-11.2336
小卿	-11.2339
大呂	-11.234
財賦	-11.234
大夏	-11.2341
為始	-11.2341
歠	-11.2343
帷幕	-11.2346
凡國之	-11.2348
縣都	-11.2348
刑者	-11.2351
天子之士	-11.2352
如儀	-11.2354
萑	-11.2355
父命	-11.2355
則兼	-11.2356
長尺	-11.2356
冠子	-11.2359
帝曰	-11.2359
先君之	-11.236
户西	-11.236
地域	-11.2361
進而	-11.2362
丈尺	-11.2364
于四方	-11.2364
悠	-11.2364
乎天	-11.2365
厞	-11.2368
膊	-11.2369
受福	-11.237
二尺四寸	-11.237
古者天子	-11.2371
轝	-11.2371
耄	-11.2371
諸公卿	-11.2371
百有二十	-11.2372
于西	-11.2372
數則	-11.2373
衆耦	-11.2374
系	-11.2375
早晚	-11.2376
驪	-11.2378
坐奠	-11.2381
有成	-11.2381
之財	-11.2384
而徃	-11.2385
與此異	-11.2386
不分	-11.2387
同處	-11.2388
致饔餼	-11.2388
不備禮	-11.2388
士之子	-11.2389
宫縣	-11.2392
正朔	-11.2392
南門	-11.2392
禮同	-11.2394
殿前	-11.2395
晷	-11.2395
環絰	-11.2395
樂歌	-11.2398
闈	-11.2401
中士二人	-11.2402
聮	-11.2402
去冠	-11.2403
乃是	-11.2404
讙	-11.2404
不獲	-11.2405
大略	-11.2405
思之	-11.2406
宿戒	-11.2406
襦	-11.2407
鄼	-11.2407
在官	-11.2407
言之耳	-11.2407
百家	-11.2407
天氣	-11.2409
君弔	-11.2409
上文云	-11.2409
嬴	-11.241
詔告	-11.241
内羞	-11.241
曰請	-11.2411
黄裳	-11.2412
天地四方	-11.2412
吴氏	-11.2414
四十五	-11.2418
天性	-11.2418
兩壺	-11.242
一代	-11.2421
亦當然	-11.2423
固已	-11.2425
文省	-11.2425
在郊	-11.2426
人之情	-11.2429
兼之	-11.243
至大	-11.2431
纁裳	-11.2432
傳之	-11.2434
先鄭云	-11.2435
笛	-11.2436
牲用	-11.2437
笠	-11.244
四代之	-11.2441
向上	-11.2441
立夏	-11.2442
昭穆之	-11.2442
輁軸	-11.2443
縟	-11.2443
獸人	-11.2444
邁	-11.2444
小射正	-11.2445
葵	-11.2445
南呂	-11.2446
有時而	-11.2446
都家之	-11.2447
適士	-11.2448
欑	-11.2448
躁	-11.2449
緩急	-11.2449
詩人	-11.2449
統于	-11.245
方明	-11.2451
主人西面	-11.2452
立司正	-11.2453
廟制	-11.2456
五經	-11.2457
鞏	-11.2458
周道	-11.2461
未備	-11.2461
無後者	-11.2463
其詳	-11.2464
誠意	-11.2466
訂	-11.2468
者案周禮	-11.247
而求	-11.2471
於殯	-11.2471
布衣	-11.2473
射御	-11.2474
武功	-11.2475
受命于	-11.2476
德也	-11.2478
比其	-11.2479
錦衣	-11.2479
其室	-11.2483
侔	-11.2483
俞	-11.2483
欣	-11.2484
絛	-11.2485
嬖	-11.2485
脉	-11.2486
取弓矢	-11.2489
大白	-11.2492
迎神	-11.2493
于中庭	-11.2494
得與	-11.2494
素韠	-11.2495
白屨	-11.2498
四日	-11.25
有主	-11.25
為限	-11.2504
能行	-11.2504
未有不	-11.2506
之弓	-11.2508
世世	-11.2512
階前	-11.2512
親之也	-11.2514
正當	-11.2515
也者謂	-11.2519
荒政	-11.2521
斵	-11.2522
嬰	-11.2523
萬夫	-11.2523
中士四人	-11.2523
見天子	-11.2524
敬之至也	-11.2525
其正	-11.2525
軍將	-11.2525
醓醢	-11.2526
穎	-11.2526
盛也	-11.2527
參差	-11.2527
焦	-11.2529
言君子	-11.2534
内饔	-11.2535
戈㦸	-11.2535
實行	-11.2535
亦稱	-11.2537
無遺	-11.2537
門也	-11.2537
劉音	-11.2538
之均	-11.2538
王宮	-11.254
朝祖	-11.2542
也注釋曰	-11.2545
二骨	-11.2545
贊唱	-11.2547
婦女	-11.2549
掌訝	-11.255
社主	-11.255
列反	-11.2551
里宰	-11.2551
自盡	-11.2553
鄭意	-11.2553
以皮	-11.2554
畨	-11.2554
司兵	-11.2555
六者	-11.2555
必由	-11.2557
西塾	-11.2558
神道	-11.2562
諸侯相	-11.2562
曰我	-11.2563
𩔖	-11.2563
▁春官	-11.2564
爛	-11.2564
苫	-11.2564
醯醬	-11.2565
教令	-11.2567
問者	-11.2568
以逆	-11.2569
陳衣	-11.257
殺禮	-11.257
釋算	-11.257
治亂	-11.2571
賈䟽	-11.2572
公再拜	-11.2573
雖然	-11.2573
尸飲	-11.2574
納吉	-11.2574
約劑	-11.2575
先人	-11.2576
三門	-11.2576
褥	-11.2581
西楹	-11.2584
所定	-11.2585
俠	-11.2586
五牢	-11.2589
焉爾	-11.259
十二辰	-11.259
嘗之	-11.259
幽明	-11.2591
之中而	-11.2591
用財	-11.2593
又次之	-11.2593
僞	-11.2595
而分	-11.2595
水土	-11.2596
肴	-11.2596
上尊	-11.2597
所後	-11.2598
為于偽反	-11.2602
頍	-11.2602
蟄蟲	-11.2603
者主人	-11.2603
攝之	-11.2603
伯仲	-11.2604
戰于	-11.2604
蟬	-11.2605
用辛	-11.2605
所舉	-11.2606
祈穀	-11.2607
百八十	-11.2608
充人	-11.2608
爲其	-11.2608
則不敢	-11.2609
惡者	-11.2609
外親	-11.261
時日	-11.2611
弗敢	-11.2612
之禍	-11.2613
麋鹿	-11.2613
銘旌	-11.2614
將射	-11.2615
喪祝	-11.2616
母弟	-11.2618
媒氏	-11.262
始入	-11.2625
張侯	-11.2625
也孔子曰	-11.2625
亦兼	-11.2625
5	-11.2626
降自	-11.2629
勘	-11.2636
於北郊	-11.2639
爲母	-11.2639
萬里	-11.2641
醴婦	-11.2642
逰	-11.2642
也春秋	-11.2643
梏	-11.2645
猶可	-11.2645
之文也	-11.2646
探	-11.2648
計反	-11.2649
時人	-11.2649
不命	-11.2651
卒哭而	-11.2653
所存	-11.2653
其異者	-11.2654
否則	-11.2655
波	-11.2655
滌濯	-11.2655
人謂	-11.2659
廟門外	-11.266
入海	-11.266
㑹於	-11.2662
奔䘮	-11.2662
長六尺	-11.2662
以充	-11.2663
五物	-11.2664
不識	-11.2665
羣神	-11.2666
而北	-11.267
舎人	-11.2671
施惠	-11.2673
不倦	-11.2676
液	-11.2678
君服	-11.2679
乘之	-11.268
殺而	-11.268
詩小雅	-11.2681
東井	-11.2683
第七	-11.2684
苖	-11.2685
後鄭不從	-11.2686
繂	-11.2686
期之喪	-11.2686
標	-11.2686
襲裘	-11.2689
蓍龜	-11.2696
注釋	-11.2696
大聘	-11.2696
持節	-11.2697
籩人	-11.2698
交接	-11.27
縞冠	-11.2703
貴乎	-11.2703
而已然	-11.2703
愛敬	-11.2705
左首	-11.2707
大徳	-11.2712
以成其	-11.2714
車上	-11.2714
相朝	-11.2715
經曰	-11.2715
各三	-11.2716
坐祭立飲	-11.272
衷	-11.272
冐	-11.2721
之葛	-11.2722
激	-11.2723
即今	-11.2724
燕禮大射	-11.2726
私面	-11.2726
使無	-11.2727
加之	-11.273
健	-11.273
報也	-11.2731
叢	-11.2731
為法	-11.2731
笙磬	-11.2732
右胖	-11.2733
與前	-11.2733
上賔	-11.2734
剛柔	-11.2735
諸公卿大夫	-11.2737
濟濟	-11.274
壬	-11.2742
二十九年	-11.2742
鬯人	-11.2743
以文	-11.2743
情而	-11.2744
所貢	-11.2744
軍中	-11.2744
兆民	-11.2746
之誠	-11.2746
圉人	-11.2746
冠義	-11.2746
司勲	-11.2748
地道	-11.275
賈公彦	-11.2751
飲酒之禮	-11.2751
為庶母	-11.2752
自後	-11.2753
騂	-11.2754
助之	-11.2755
義同	-11.2755
四門	-11.2756
鄉射記	-11.2756
以序	-11.2759
飯含	-11.2761
三章	-11.2762
多則	-11.2763
雖尊	-11.2763
所求	-11.2765
敔	-11.2766
保氏	-11.2766
雖多	-11.2768
坼	-11.2769
正柩	-11.2769
土鼓	-11.2772
受享	-11.2773
曰諾	-11.2774
受酬者	-11.2777
元祐	-11.2779
同名	-11.278
家邑	-11.2781
也〇	-11.2782
城縣	-11.2783
於禰	-11.2783
不吉則	-11.2787
二官	-11.2788
本或作	-11.2788
可矣	-11.2788
等官	-11.2792
容有	-11.2792
東門	-11.2793
以白	-11.2795
縣士	-11.2796
可知云	-11.2797
以經	-11.2797
總言	-11.2798
又與	-11.2799
治事	-11.2801
𣙗	-11.2803
則無以	-11.2805
飲者	-11.2805
於四方	-11.2806
某官	-11.2806
横渠張氏曰	-11.2807
蹄	-11.2808
征之	-11.2809
副使	-11.281
凟	-11.281
以補	-11.2811
於阼階	-11.2814
又當	-11.2814
孟月	-11.2815
近世	-11.2816
常祭	-11.2817
通解	-11.2819
居右	-11.2819
六等	-11.282
即所謂	-11.282
攝盛	-11.282
適次	-11.282
各從其	-11.2822
帥其	-11.2823
孺	-11.2826
而趨	-11.2826
環人	-11.2826
於鼎	-11.2828
降之	-11.2828
相揖	-11.2829
旅食	-11.2831
陽聲	-11.2831
可與	-11.2835
然後可	-11.2836
拜洗	-11.2836
屬也	-11.2837
王出	-11.2838
不拜既爵	-11.2841
嫡子	-11.2842
往往	-11.2842
無敢	-11.2843
及郊	-11.2843
獻卿	-11.2847
裼襲	-11.2849
者由	-11.2849
之正也	-11.2849
之年	-11.2849
是年	-11.2849
九夫	-11.285
裔	-11.2851
因名	-11.2851
殁	-11.2851
不可以無	-11.2852
也者以其	-11.2852
贊禮唱	-11.2853
雖以	-11.2853
施舍	-11.2855
襲衣	-11.2858
二千石	-11.2858
其半	-11.2859
采蘋	-11.2861
髙明	-11.2861
相為服	-11.2862
商人	-11.2864
不足則	-11.2864
甸服	-11.2864
釋經	-11.2865
誘射	-11.2865
之廣	-11.2867
適寢	-11.2869
通乎	-11.2869
陜	-11.2871
射宫	-11.2871
今年	-11.2871
而益	-11.2871
可以觀	-11.2871
尺寸	-11.2872
皇天	-11.2873
歲終則	-11.2874
而取	-11.2875
為差	-11.2877
鷩	-11.2878
案禮	-11.2879
請射	-11.288
等差	-11.2881
脰	-11.2881
命曰	-11.2882
知有	-11.2883
鋒	-11.2885
射之侯	-11.2886
常平	-11.2887
以五	-11.2888
鷄	-11.2888
山陰陸氏曰	-11.2888
厠	-11.2888
填	-11.2889
轍	-11.2889
甕	-11.289
升階	-11.2892
葱	-11.2892
水潦	-11.2893
隰	-11.2893
鄂	-11.2894
闕狄	-11.2897
子男五	-11.2898
以射	-11.2899
特以	-11.2901
如有	-11.2902
侯伯七	-11.2902
於夏	-11.2903
舉爵	-11.2904
者得	-11.2904
遷於	-11.2906
十二度	-11.2908
而已若	-11.2908
入設	-11.2911
至極	-11.2916
庶人之	-11.2917
前導	-11.2924
敖説	-11.2924
由左	-11.2924
邃	-11.2925
臣民	-11.2926
既無	-11.2928
馨	-11.2928
溥	-11.2929
無道	-11.2931
弋	-11.2931
大同	-11.2933
德之	-11.2934
在堂上	-11.2936
妖祥	-11.2937
及執事	-11.2938
之所能	-11.2938
之父	-11.2939
得禮	-11.2941
除其	-11.2941
陽府	-11.2942
射時	-11.2944
精氣	-11.2948
下篇	-11.2952
郊祭	-11.2954
元帝	-11.2954
中地	-11.2957
之狀	-11.2958
天子親	-11.2962
聘使	-11.2964
徐音	-11.2965
制為	-11.2965
冠之	-11.2969
哭于	-11.297
下士四人	-11.2971
之目	-11.2972
傚	-11.2972
左執爵	-11.2975
以其有	-11.2976
服服之	-11.2977
選士	-11.2978
不同而	-11.2979
為夫	-11.298
自明	-11.2981
賢也	-11.2981
不窮	-11.2985
徒四人	-11.2985
蔣	-11.2985
而忘	-11.2986
祀事	-11.299
卒射	-11.2991
西東面	-11.2992
常祀	-11.2993
得有	-11.2993
拜于	-11.2995
也張氏曰	-11.2995
象其	-11.2997
既已	-11.2998
式灋	-11.2999
聘君	-11.3001
志云	-11.3001
其黨	-11.3002
萬五千	-11.3003
是禮	-11.3003
二十八年	-11.3004
澣	-11.3005
他故	-11.3005
成事	-11.3005
垢	-11.3005
于大夫	-11.3005
薙	-11.3007
命夫命婦	-11.301
兖州	-11.301
封國	-11.3012
犀	-11.3013
爲上	-11.3013
其善	-11.3014
尊同	-11.3015
冲	-11.3016
疏曰案	-11.3016
鴽	-11.3017
帷荒	-11.3019
之舊	-11.3021
五獻	-11.3025
師都	-11.3027
于南郊	-11.3029
獻大夫	-11.303
一个	-11.3031
謂祭	-11.3034
百步	-11.3037
别廟	-11.3042
可考	-11.3045
無筭爵	-11.3047
緦小功	-11.305
君子以	-11.305
灑	-11.3051
雖欲	-11.3051
丸	-11.3052
以起	-11.3053
獻功	-11.3054
徐州	-11.3055
所過	-11.3057
煙	-11.3058
皆再拜	-11.306
百官府	-11.3062
又哭	-11.3063
賓揖	-11.3065
於尊者	-11.3066
相距	-11.3067
出房	-11.3068
百四十	-11.3069
八百	-11.307
緦衰	-11.3071
均平	-11.3072
山罍	-11.3074
凡為	-11.3076
由便也	-11.3076
者也云	-11.3082
杖期	-11.3082
二百四十	-11.3083
麻帶	-11.3083
深淺	-11.3084
揄狄	-11.3085
女巫	-11.3085
收斂	-11.3086
衍文	-11.3086
進酒	-11.3088
又取	-11.3088
為孝	-11.309
獻工	-11.3091
於中庭	-11.3091
未可以	-11.3094
詔之	-11.3095
弔之	-11.3096
太常博士	-11.3096
以救	-11.3097
孔安國	-11.3099
虞氏	-11.3099
順而	-11.3102
豈能	-11.3103
有疑	-11.3103
言行	-11.3104
蔑	-11.3105
八豆	-11.3105
者而言	-11.3108
當依	-11.3109
于尸	-11.311
救之	-11.311
純衣	-11.3111
文理	-11.3112
而已不	-11.3113
武宗	-11.3114
遂士	-11.3114
少師	-11.3114
弗能	-11.3115
配食	-11.3116
無餘	-11.3117
變禮	-11.3118
食舉	-11.3119
爵韠	-11.312
於宫中	-11.312
所由生	-11.3123
君喪	-11.3123
禮器曰	-11.3125
執笏	-11.3125
天子崩	-11.3128
啓殯	-11.3134
馮尸	-11.3135
欲得	-11.3135
哭止	-11.3139
七體	-11.314
必當	-11.314
球	-11.314
大功章	-11.3143
名山大川	-11.3143
每嵗	-11.3144
王侯	-11.3144
圭瓉	-11.3144
主乎	-11.3145
蕃王	-11.3147
㑹之	-11.3148
為田	-11.315
考工	-11.3151
乃更	-11.3151
縣正	-11.3152
莫不有	-11.3153
天産	-11.3155
汭	-11.3156
樂闋	-11.3158
有室	-11.316
告事畢	-11.316
達于	-11.3164
至徳	-11.3165
上至	-11.3165
服不氏	-11.3166
職文	-11.3166
魯有	-11.3167
矣凡	-11.3167
媵爵	-11.3169
還宫	-11.3171
無形	-11.3172
侍從	-11.3174
恣	-11.3178
亦言	-11.3178
相息亮反	-11.3178
傲	-11.3178
七星	-11.3179
中士下士	-11.3179
之别也	-11.3179
不祥	-11.3179
兩相	-11.318
周法	-11.3181
緘	-11.3182
臝	-11.3183
大旅	-11.3184
瓶	-11.3184
躍	-11.3184
事尸	-11.3184
㑹其	-11.3186
絇繶純	-11.3186
疑其	-11.3188
人欲	-11.319
則天	-11.3193
異宫	-11.3193
餘皆	-11.3197
乎哉	-11.3197
外則	-11.3197
以右手	-11.3198
等級	-11.3199
必因	-11.32
以獻	-11.32
之處也	-11.3202
仲月	-11.3202
九江	-11.3203
為後者	-11.3207
而有所	-11.3207
則民不	-11.3207
雖不言	-11.3211
相助	-11.3212
禮與	-11.3215
元和	-11.3216
之上下	-11.3217
一爵	-11.3218
大夫妻	-11.3219
䘮紀	-11.322
弓弩	-11.322
作止爵	-11.3221
畺	-11.3221
所有事	-11.3222
東西向	-11.3222
升壇	-11.3223
憤	-11.3223
《	-11.3224
押	-11.3225
不作	-11.3226
歌舞	-11.3227
降立	-11.3227
拜謝	-11.3229
入自	-11.323
引此	-11.3232
已久	-11.3232
者言之	-11.3234
尸酢	-11.3236
也故書	-11.3236
兩楹間	-11.3236
但不	-11.3237
宗廟社稷	-11.3238
或以為	-11.3239
順時	-11.324
承上文	-11.324
家人	-11.3242
最為	-11.3242
戈盾	-11.3243
而卒	-11.3245
訝受	-11.3248
古人之	-11.325
為殤	-11.325
石經	-11.3251
者言其	-11.3251
始冠	-11.3254
為其父母	-11.3257
淮無	-11.3258
料	-11.3258
以詔王	-11.3258
于門	-11.3263
盗賊	-11.3263
驟	-11.3263
禮記注疏卷	-11.3263
米禾	-11.3264
於門	-11.3266
辟音避	-11.3267
長樂劉氏曰	-11.3267
憾	-11.3267
過矣	-11.3269
薦馬	-11.3272
之列	-11.3273
畀	-11.3274
政和禮	-11.3274
事事	-11.3274
尸謖	-11.3276
共一	-11.3277
使有司	-11.3277
近南	-11.3279
而服之	-11.3283
衆多	-11.3283
徳者	-11.3285
之徳也	-11.3285
三物	-11.3287
名號	-11.3287
為仁	-11.3287
之墓	-11.3288
難以	-11.3289
為度	-11.3291
一字	-11.3292
鄉飲酒鄉射	-11.3293
大司冦	-11.3293
其食	-11.3294
冢人	-11.3296
伯魚	-11.3298
享禮	-11.33
厨	-11.3301
艱	-11.3301
仍有	-11.3304
出軍	-11.3306
縣西南	-11.3307
睹	-11.3307
月祭	-11.3307
以象天	-11.3308
亡國之	-11.3308
形容	-11.331
闑西	-11.3312
一人舉觶	-11.3314
外有	-11.3314
薦右	-11.3316
王社	-11.3317
之屬是也	-11.3317
誌	-11.3317
華蟲	-11.3318
長賔	-11.3319
也易曰	-11.3321
長樂	-11.3323
先以	-11.3327
罷民	-11.3327
亦不能	-11.3328
通稱	-11.3332
長尺二寸	-11.3333
而去之	-11.3333
之側	-11.3335
陔	-11.3336
既云	-11.3336
一卷	-11.3337
以来	-11.3339
之税	-11.3339
奏事	-11.3342
而待	-11.3344
出次	-11.3344
縢	-11.3345
以璧	-11.3345
鉞	-11.3347
冊府元龜	-11.3348
成帝	-11.3349
卒事	-11.3349
隘	-11.335
斃	-11.335
蓋亦	-11.3351
重禮	-11.3351
告王	-11.3353
苽	-11.3354
田里	-11.3356
所以治	-11.3357
亦當有	-11.3357
十有二月	-11.3358
徒八人	-11.3359
以孝	-11.3359
日景	-11.336
之積	-11.3361
兵部	-11.3361
繐	-11.3363
相和	-11.3364
戸西	-11.3365
而知其	-11.3365
篇名	-11.3365
之後乃	-11.3367
美惡	-11.3368
之野	-11.3369
民事	-11.337
以聞	-11.337
非但	-11.3371
音同	-11.3371
自卑	-11.3371
老人	-11.3372
潁	-11.3373
章甫	-11.3375
乎上	-11.3375
告祭	-11.3375
不顯	-11.3375
几席	-11.3378
以見其	-11.3378
二千	-11.338
而受之	-11.338
並立	-11.3381
太一	-11.3381
君子之道	-11.3382
得獻	-11.3384
潄	-11.3384
之迹	-11.3384
胳	-11.3384
肉也	-11.3384
傳文	-11.3386
和氣	-11.3389
突	-11.3389
霍	-11.339
有所不	-11.3392
琥	-11.3393
淮南子	-11.3394
百縣	-11.3395
嵗終則	-11.3395
鱐	-11.3396
更無	-11.3398
弄	-11.3398
而小	-11.3399
以往	-11.3399
爲大夫	-11.3401
出廟門	-11.3405
其貳	-11.3406
司農云	-11.3406
舊典	-11.3406
稻米	-11.3407
酒漿	-11.3408
主人升	-11.341
三日而	-11.3411
一朝	-11.3412
逺方	-11.3414
在廟門外	-11.3414
九飯	-11.3415
其布	-11.3415
功德	-11.3416
束錦	-11.3418
之限	-11.3419
以名	-11.3421
依禮	-11.3422
所感	-11.3423
之不可	-11.3425
在西階	-11.3425
而兼	-11.3426
君之所	-11.3427
丘陵	-11.3431
莖	-11.3434
其業	-11.3434
團	-11.3435
燥	-11.3435
於死者	-11.3436
沉	-11.3437
以此坊民	-11.3438
壓	-11.3439
擘	-11.3441
佞	-11.3441
星黄經	-11.3442
姚	-11.3443
私事	-11.3444
之讎	-11.3446
濬	-11.3446
嘗禘	-11.3449
與羣臣	-11.3449
二代	-11.3451
在我	-11.3452
敬故	-11.3453
歸饔餼	-11.3454
用器	-11.3455
變徴	-11.3455
而射	-11.3456
補之	-11.3457
小斂奠	-11.3457
授主人	-11.3458
取脯	-11.3462
誠信	-11.3465
手執	-11.3466
縫之	-11.3467
非獨	-11.3467
王業	-11.3467
與之同	-11.3468
潦	-11.3469
指其	-11.347
彼注	-11.347
皆先	-11.3473
以禮樂	-11.3474
去杖	-11.3475
祍	-11.3477
膟膋	-11.3478
中星	-11.3478
祝號	-11.3478
摭	-11.3478
前王	-11.3479
疊	-11.348
羣廟	-11.3482
壟	-11.3482
佳	-11.3482
柷敔	-11.3483
不便	-11.3483
彘	-11.3486
王巡守	-11.3486
其象	-11.3486
戎狄	-11.3488
飾棺	-11.3489
久而	-11.3493
十尺	-11.3493
直以	-11.3493
此詩	-11.3494
止之	-11.3495
筮宅	-11.3497
餘人	-11.3497
殷勤	-11.3497
九功	-11.3498
然後有	-11.3498
三世	-11.3499
也存疑鄭氏康成曰	-11.3499
是大夫	-11.3503
不察	-11.3507
南京	-11.3508
司門	-11.3508
合舞	-11.3508
立秋	-11.3508
相酬	-11.3511
少北	-11.3512
簿書	-11.3512
在西方	-11.3512
首尾	-11.3513
及卿大夫	-11.3515
諸臣之	-11.3516
通達	-11.3518
祖妣	-11.3518
下記	-11.352
賢而	-11.352
二千五百	-11.3522
都鄙之	-11.3524
絡	-11.3525
之旁	-11.3525
二十四年	-11.3525
荷	-11.3526
由右	-11.3526
桃茢	-11.3526
漢法	-11.3529
鄫	-11.3529
臣有	-11.353
誤作	-11.3531
不敢降	-11.3532
高下	-11.3533
為天下	-11.3533
嫁母	-11.3536
康成謂	-11.3537
教之以	-11.3538
䘮祭	-11.3539
其肉	-11.3539
不可以為	-11.354
逕	-11.354
不除	-11.354
序官	-11.3541
非無	-11.3541
者一人	-11.3541
交相	-11.3544
佐之	-11.3548
以此言之	-11.355
賓入	-11.355
棧	-11.3554
至階	-11.3556
毁廟之主	-11.3559
屈也	-11.3561
享先王	-11.3562
民猶	-11.3562
所獲	-11.3564
太保	-11.3564
胥八人徒八十人	-11.3565
肵	-11.3565
受命於	-11.3565
徹饌	-11.3566
永樂	-11.3566
宋史禮志	-11.3566
敖氏謂	-11.3567
不與焉	-11.3567
縣東北	-11.3567
孽	-11.3568
以尊降	-11.3568
鸞刀	-11.3569
縣東南	-11.3571
二刻	-11.3573
體解	-11.3574
日數	-11.3574
不惑	-11.3574
止哭	-11.3575
作其	-11.3576
新宫	-11.3577
六變	-11.3578
時已	-11.3578
所聞	-11.358
變宫	-11.358
有功徳	-11.3581
之長短	-11.3582
同是	-11.3585
詔書	-11.3586
于賔	-11.3587
之昆弟	-11.3587
羞庶羞	-11.3593
鄭註云	-11.3593
無方	-11.3593
為主而	-11.3594
祭殤	-11.3595
使相	-11.3595
地理志	-11.3597
更爵	-11.3598
在其南	-11.3601
路鼓	-11.3603
命某	-11.3604
告也	-11.3605
實於	-11.3606
委人	-11.3606
裧	-11.3608
幘	-11.3609
恐有	-11.361
兩君相見	-11.361
易也	-11.361
盛者	-11.3611
韇	-11.3611
瓠	-11.3611
闕之	-11.3613
求得	-11.3613
之術	-11.3613
恭儉	-11.3614
芬	-11.3614
中外	-11.3615
性命	-11.3619
二十七月	-11.362
樽	-11.362
他事	-11.3621
鄉飲酒義	-11.3623
卜葬	-11.3625
春秋時	-11.3627
取法	-11.3629
俎豆	-11.363
熊氏曰	-11.3631
中書令	-11.3633
猶存	-11.3634
盛德	-11.3635
營室	-11.3636
衆官	-11.3639
親耕	-11.3639
洗酌	-11.3639
道路之	-11.3642
皆因	-11.3642
豫州	-11.3643
五十六	-11.3645
私喪	-11.3645
儀仗	-11.3646
宜用	-11.3647
變動	-11.3648
王莽	-11.3651
為父後	-11.3651
人多	-11.3652
庪	-11.3652
門右	-11.3653
之人也	-11.3655
其目	-11.3655
以陽	-11.3655
尺六寸	-11.3656
疾者	-11.3656
彪	-11.3657
五十四	-11.3657
摧	-11.3658
聘禮云	-11.3658
其内	-11.3658
乃奠	-11.366
居倚廬	-11.3662
虹	-11.3662
葬日	-11.3662
由便	-11.3662
槐	-11.3663
不常	-11.3663
徹帷	-11.3665
為師	-11.3666
今依	-11.3666
三月而葬	-11.3667
州黨	-11.3667
跪進	-11.3669
節氣	-11.3669
恐未	-11.3671
而不失	-11.3671
僕射	-11.3672
適四方	-11.3675
為舊君	-11.3675
十五升	-11.3676
師古曰	-11.3677
鶉火	-11.3678
鄭義	-11.3678
八成	-11.3681
于東	-11.3682
不勝者	-11.3684
四節	-11.3684
小祀	-11.3686
小而	-11.3688
徹去	-11.3691
於古	-11.3692
君子不	-11.3692
四岳	-11.3696
第十	-11.3698
伋	-11.3699
孟獻子	-11.3699
耕者	-11.3701
器械	-11.3703
二子	-11.3704
毓	-11.3705
檀	-11.3706
幽州	-11.3706
勃	-11.3706
鞮	-11.3707
度以	-11.3709
䑕	-11.3709
四等	-11.3709
樂人	-11.371
任其	-11.3712
也記曰	-11.3712
少牢云	-11.3713
地有	-11.3718
異國	-11.3719
成徳	-11.3723
右執	-11.3728
詳之	-11.3729
用酒	-11.3729
畢乃	-11.373
在他國	-11.3733
所守	-11.3733
五音	-11.3733
者哉	-11.3733
化民	-11.3734
筮之	-11.3735
文字	-11.3735
無服也	-11.3738
無由	-11.3738
服服	-11.374
為美	-11.374
而祔	-11.3741
演	-11.3742
狐裘	-11.3743
之主也	-11.3743
殯後	-11.3745
三統	-11.3747
中大夫二人	-11.3748
伊耆氏	-11.3749
二十六年	-11.3749
學記	-11.3749
質劑	-11.375
魚鼈	-11.375
蒩	-11.3751
鬼神示	-11.3754
趙孟	-11.3755
為婦	-11.3757
跪奏請	-11.376
曲而	-11.376
赤舄	-11.376
又拜	-11.3761
其年	-11.3761
給事中	-11.3762
四度	-11.3762
常在	-11.3763
者皆是	-11.3763
尚左	-11.3764
書名	-11.3764
土均	-11.3766
云掌	-11.3767
以南	-11.3768
列國之	-11.377
以五采	-11.3772
和順	-11.3773
使人弔	-11.3775
不滿	-11.3776
熊侯	-11.3776
恐不	-11.3778
頫	-11.378
孝文	-11.378
改易	-11.378
正方	-11.3781
祠堂	-11.3782
注引	-11.3783
降自阼階	-11.3783
金錫	-11.3784
脤	-11.3786
便於	-11.3787
黜陟	-11.3789
褚	-11.3789
孔氏頴逹曰	-11.379
逾	-11.379
惻	-11.3791
脡	-11.3791
之任	-11.3791
以青	-11.3793
齒於	-11.3795
雲門	-11.3795
僖祖	-11.3798
自得	-11.3799
皆屬	-11.3801
千二百	-11.3806
吏反	-11.3807
天文志	-11.3808
殷國	-11.3808
二十一年	-11.3809
期服	-11.381
故但	-11.381
横者	-11.3811
曏者	-11.3812
交角	-11.3816
思念	-11.3817
而况	-11.3817
莫如	-11.3818
許慎	-11.3818
防其	-11.3818
綏祭	-11.3819
貴妾	-11.382
以覆	-11.382
已後	-11.3821
襢	-11.3821
𤣥裳	-11.3824
」	-11.3824
九旗	-11.3824
以歸	-11.3825
相得	-11.3826
􁆡	-11.3827
則亂	-11.3829
以竹	-11.383
群	-11.383
七度	-11.383
異制	-11.3831
閾	-11.3831
厚者	-11.3832
婉	-11.3833
大成	-11.3834
舛	-11.3834
揭	-11.3834
緜	-11.3835
温公	-11.3837
要帶	-11.3837
服衮冕	-11.3839
之中央	-11.384
招魂	-11.384
王圻續通考	-11.3841
四海之内	-11.3842
卦者	-11.3845
獻士	-11.3845
為昭	-11.3845
祭祀之事	-11.3845
難知	-11.3846
九里	-11.3849
禮俗	-11.385
擇士	-11.3851
國朝	-11.3851
之比	-11.3856
8	-11.3856
亦先	-11.386
弔臨	-11.386
句龍	-11.3862
不遷	-11.3863
燕私	-11.3864
諸侯亦	-11.3865
大車	-11.3865
尸東	-11.3866
所不及	-11.3867
而舞	-11.3868
别立	-11.3869
堊	-11.3869
三年而	-11.3873
迎氣	-11.3875
揮	-11.3877
於衆	-11.3877
朝直遥反	-11.3877
亦取	-11.3879
遙	-11.388
勁	-11.388
圭田	-11.3882
講武	-11.3882
之法以	-11.3882
冇	-11.3882
以日易月	-11.3882
焉故曰	-11.3883
媚	-11.3884
兮反	-11.3885
齍盛	-11.3887
諸父昆弟	-11.389
於東序	-11.3893
不義	-11.3893
前章	-11.3893
爲父	-11.3893
尊親	-11.3894
宗子之家	-11.3895
于中	-11.3895
不思	-11.3897
不能盡	-11.3897
其遺	-11.3898
助也	-11.3899
者示	-11.3902
不酢	-11.3902
古樂	-11.3903
自祭	-11.3903
春正月	-11.3904
從官	-11.3907
八簋	-11.3913
之觶	-11.3914
帝崩	-11.3916
在俎	-11.3916
出奔	-11.3917
士之喪	-11.3918
刮	-11.3918
之幣	-11.3919
正中	-11.3919
南山	-11.3919
能使	-11.392
之所為	-11.392
乃止	-11.3921
凡五	-11.3921
旅上帝	-11.3922
一周	-11.3922
冗	-11.3923
笙師	-11.3924
賓尸	-11.3925
俎也	-11.3926
繼之以	-11.3927
始封之君	-11.3928
胥二人徒二十人	-11.3929
齊齊	-11.3929
九儀	-11.3929
圭璋特	-11.3929
項氏曰	-11.3929
㨗	-11.3931
知人	-11.3931
殺者	-11.3931
褶	-11.3932
讀禮通考卷	-11.3932
爲妻	-11.3932
六豆	-11.3933
掃除	-11.3934
未足	-11.3934
加隆	-11.3935
典儀	-11.3937
無失	-11.3938
擇其	-11.3938
墳墓	-11.3938
也天子諸侯	-11.3939
而已其	-11.3941
下體	-11.3942
記言	-11.3942
執爵者	-11.3945
則帥	-11.3946
在東方	-11.3946
制如	-11.3948
不知何	-11.3949
者象	-11.3951
于阼階上	-11.3952
聰	-11.3952
生則	-11.3952
導之	-11.3953
易爵	-11.3953
後代	-11.3953
為次	-11.3956
乗輿	-11.3956
不可無	-11.3957
禮直官	-11.3958
内心	-11.3959
天子以下	-11.396
襃	-11.3961
宫伯	-11.3962
麗於	-11.3964
學官	-11.3964
昭子	-11.3965
醇	-11.3966
禡	-11.3967
察也	-11.3968
之曲	-11.3968
紞	-11.3968
徒役	-11.3969
大行	-11.3971
穆王	-11.3971
内司服	-11.3973
九州之外	-11.3973
紆	-11.3973
攻之	-11.3974
北鄉	-11.3975
可食	-11.3976
薦羞	-11.3979
讀法	-11.3979
相問	-11.3982
以昭穆	-11.3985
殺矢	-11.3987
祈禱	-11.3987
筵几	-11.3988
内壝	-11.399
魏晉	-11.399
主人先	-11.3991
賔揖	-11.3991
送終	-11.3992
象地	-11.3994
用鴈	-11.3994
中正	-11.3995
味也	-11.3997
其過	-11.3997
每日	-11.3997
軍旅田役	-11.3998
從車	-11.3998
二條	-11.4
一是	-11.4002
杜子春讀	-11.4004
毁廟	-11.4005
宜從	-11.4005
如賔禮	-11.4007
六度	-11.401
君之命	-11.401
夏祝	-11.4014
大定	-11.4014
有尸	-11.4014
縮執	-11.4014
祭一壇	-11.4015
漆之	-11.4015
執爵以興	-11.4016
六尺有六寸	-11.4016
以助	-11.4017
豢	-11.4019
一時之	-11.402
屬官	-11.4021
軍法	-11.4021
深衣之	-11.4022
也者言	-11.4023
老而	-11.4024
王有	-11.4026
祥禫	-11.4027
稽其	-11.4028
同位	-11.403
庠序	-11.403
所貴	-11.4031
主喪	-11.4031
籥師	-11.4032
之衆寡	-11.4032
主人之北	-11.4036
之言也	-11.4037
嚴父	-11.4038
經緯	-11.4039
箙	-11.4039
正聲	-11.4041
譏其	-11.4044
後來	-11.4046
之倫	-11.4047
王姬	-11.4049
十萬	-11.4051
詩大雅	-11.4052
而授之	-11.4052
薦熟	-11.4054
既奠	-11.4056
以聴	-11.4057
用輴	-11.4057
通禮	-11.4057
酌膳	-11.4057
土神	-11.4057
君子有	-11.4058
金華應氏曰	-11.4062
柢	-11.4062
毗	-11.4064
薦孰	-11.4066
偷	-11.4066
盍	-11.4067
椇	-11.4069
嗇夫	-11.4071
二十里	-11.4072
則廢	-11.4073
宜以	-11.4074
士相見禮	-11.4074
一説	-11.4075
聴之	-11.4076
合族	-11.4076
也於是	-11.4077
在其中矣	-11.4079
坐奠觶	-11.4081
之所出	-11.4081
為穆	-11.4081
則合	-11.4085
案禮記	-11.4085
二度	-11.4086
下拜	-11.4087
力行	-11.4087
順天	-11.4088
異乎	-11.4092
祔於祖	-11.4093
出乎	-11.4095
殿中	-11.4096
千四百	-11.4096
五章	-11.4097
已前	-11.4098
「	-11.4102
出笏	-11.4103
與己	-11.4104
而可以	-11.4104
墾	-11.4107
殉	-11.4107
三分寸之二	-11.4108
四星	-11.4109
尅	-11.411
郭璞	-11.411
羸	-11.411
禮法	-11.4111
之靈	-11.4111
其惡	-11.4111
徂	-11.4112
三孤	-11.4112
巖	-11.4112
四體	-11.4113
瑶爵	-11.4114
士有	-11.4114
益之	-11.4116
祲	-11.4117
鹵簿	-11.4117
之效	-11.4118
東南面	-11.4118
函鍾	-11.4118
䘮事	-11.412
安車	-11.4121
死日	-11.4122
媵觶	-11.4123
小國之君	-11.4127
皆取	-11.4128
適室	-11.413
不苟	-11.413
配帝	-11.4131
掌共	-11.4131
實觶	-11.4132
洗觶	-11.4132
音聲	-11.4133
權衡	-11.4137
地祇	-11.4137
閉藏	-11.4137
之大者也	-11.4138
酌醴	-11.4138
入于房	-11.4138
十二章	-11.4141
慶父	-11.4142
詳定	-11.4144
職方氏	-11.4147
嘉石	-11.4149
神御	-11.4149
為商	-11.415
以飾	-11.4151
於西階	-11.4151
若欲	-11.4154
悼公	-11.4155
社祭	-11.4158
堇	-11.4158
與尊者	-11.4159
内則云	-11.4159
之衆	-11.4159
仙	-11.416
昵	-11.416
以將	-11.4162
于鼎	-11.4163
隮	-11.4165
歳終	-11.4166
本天	-11.4168
害於	-11.4168
酌以	-11.4169
衣衾	-11.4171
之禁令	-11.4171
天下國家	-11.4174
舉觶者	-11.4175
各依	-11.4177
初時	-11.4179
與大夫同	-11.4181
骨體	-11.4182
塤	-11.4185
適庶	-11.4188
乳母	-11.419
江漢	-11.419
孔氏曰此明	-11.4191
執戈	-11.4197
聚也	-11.4197
蠧	-11.4198
漱	-11.4198
左旋	-11.4199
䘏	-11.4201
敢用	-11.4203
凡樂	-11.4204
絺綌	-11.4206
嗣王	-11.4206
室户	-11.4207
問大夫	-11.4208
女之	-11.4211
手拜	-11.4211
龍輴	-11.4213
女家	-11.4213
賞之	-11.4214
各反	-11.4214
之所用	-11.4217
涖之	-11.4217
薦豆	-11.4219
畧之	-11.422
太原	-11.422
同服	-11.4223
先代	-11.4226
甲午	-11.4227
褥位	-11.4227
以王命	-11.4228
宫中之	-11.4228
輕也	-11.4228
設祭	-11.4231
不豫	-11.4232
舜典	-11.4234
地平	-11.4235
九穀	-11.4235
爲正	-11.4235
屬民	-11.4236
祼獻	-11.4239
此事	-11.424
期年	-11.424
舉足	-11.4243
賈氏公彥曰	-11.4246
阮	-11.4246
後儒	-11.4247
迨	-11.4248
饁	-11.425
駮	-11.425
每月	-11.4251
降奠于篚	-11.4251
婚姻	-11.4253
君子之所	-11.4253
厚於	-11.4256
太祖廟	-11.4258
命士	-11.4258
將帥	-11.4266
散齊	-11.4266
合為一	-11.4268
矣然則	-11.427
不均	-11.4272
佐王	-11.4272
兆域	-11.4272
哉故	-11.4273
屬于	-11.4276
無藉	-11.4276
加之以	-11.4277
自左	-11.4278
反一音	-11.4278
見王	-11.4279
私家	-11.428
也昔	-11.4282
酎	-11.4283
卑也	-11.4284
警戒	-11.4285
所入	-11.4286
荘公	-11.4287
財也	-11.4288
卜師	-11.4288
司禄	-11.4289
而與之	-11.429
存亡	-11.4292
矣且	-11.4293
卓子	-11.4293
孝子之心	-11.4294
字之誤	-11.4294
一世	-11.4295
祭名	-11.4295
也後世	-11.4297
師也	-11.4297
㕔	-11.4297
長丁丈反	-11.4297
翬	-11.43
内外之	-11.43
以禦	-11.43
臨時	-11.4301
司尊彛	-11.4301
亾	-11.4301
萍	-11.4302
八度	-11.4304
故於此	-11.4304
而不相	-11.4306
六品以下	-11.4306
食粥	-11.4306
在國中	-11.4308
傳辭	-11.4308
不可行	-11.4309
諸生	-11.4309
為害	-11.431
禍福	-11.431
立扵	-11.4312
者此謂	-11.4312
殿下	-11.4312
六樂	-11.4313
吏部	-11.4313
何也蓋	-11.4313
春秋之時	-11.4315
君無	-11.4316
君若	-11.4317
父沒	-11.4317
變于	-11.432
國之大事	-11.432
諸侯七	-11.4324
百日	-11.4324
尚文	-11.4325
而言之則	-11.4326
太古	-11.4326
禮之正	-11.4326
衡山	-11.4327
𤣥鳥	-11.4328
閒田	-11.4331
𤣥堂	-11.4331
孝敬	-11.4332
位次	-11.4333
常法	-11.4333
小臣師	-11.4334
未甞	-11.4334
中節	-11.4335
之多少	-11.4336
罪人	-11.4338
楊氏復曰	-11.4339
何其	-11.4341
九百	-11.4341
貳之	-11.4342
望其	-11.4343
夔	-11.4343
擔	-11.4343
霜露	-11.4344
數十	-11.4345
騶	-11.4346
規矩	-11.4346
這	-11.4347
鶩	-11.4347
二説	-11.4348
相聘	-11.4348
射中	-11.4349
白黒	-11.4352
愿	-11.4353
神人	-11.4354
徵令	-11.4356
萬人	-11.4356
酒脯	-11.4359
此因	-11.4359
清河	-11.4361
每事	-11.4363
庶老	-11.4364
為甚	-11.4364
始得	-11.4365
凡賔客	-11.4365
之心也	-11.4365
無變	-11.4366
元年正月	-11.4366
享太廟	-11.4371
而信	-11.4372
始見	-11.4372
攷其	-11.4372
維持	-11.4373
固當	-11.4375
正旦	-11.4376
所親	-11.4376
嫁於	-11.4377
不逺	-11.4377
劉向	-11.4378
備具	-11.4379
之所以為	-11.438
動則	-11.438
既設	-11.4381
為加爵	-11.4381
見之也	-11.4382
嫁反	-11.4387
酌奠	-11.4388
竽	-11.4388
忒	-11.439
從祖昆弟	-11.4392
伯夷	-11.4392
癸酉	-11.4394
賓拜	-11.4394
翁	-11.4396
軒轅	-11.4396
今考	-11.4396
不儐尸	-11.4397
托	-11.4398
所賜	-11.4398
覇	-11.4398
庭燎	-11.44
本乎	-11.44
以疑之	-11.4401
西壁	-11.4402
大道	-11.4405
哭諸	-11.4405
所乘	-11.4406
本親	-11.4407
太祖之廟	-11.4407
恐懼	-11.4407
少牢饋食	-11.441
象胥	-11.441
若然則	-11.4411
逺故	-11.4411
杖者	-11.4412
寒氣	-11.4412
可否	-11.4417
號曰	-11.4419
之長也	-11.4421
肅肅	-11.4424
不徒	-11.4425
禮記曰	-11.4425
齊斬	-11.4425
一國之	-11.4426
以茅	-11.443
鐲	-11.4431
諸侯以下	-11.4431
二節	-11.4432
分為三	-11.4433
兩下	-11.4433
胷	-11.4434
於魯	-11.4435
羣吏之治	-11.4438
而言則	-11.4438
疋	-11.4438
無受	-11.4438
公士	-11.4438
為七	-11.4439
厭降	-11.4439
鬬	-11.444
諂	-11.444
那	-11.4441
羣后	-11.4441
册	-11.4441
禧	-11.4441
禘郊	-11.4444
岸	-11.4444
所獻	-11.4445
祭酒啐酒	-11.4446
太官令	-11.4447
是也此	-11.4449
設折俎	-11.445
先是	-11.4452
如齊	-11.4453
地産	-11.4454
主人親	-11.4455
乃言	-11.4456
而盡	-11.4456
直有	-11.4459
奔走	-11.4459
而後可	-11.4462
經無	-11.4462
臯門	-11.4463
此以下	-11.4466
於司馬	-11.4466
其樂	-11.4467
唯君	-11.4467
可任者	-11.4469
左氏曰	-11.4469
槀人	-11.4473
後五日	-11.4473
人數	-11.4475
不奪	-11.4477
崔氏	-11.4481
與王	-11.4481
一品	-11.4483
東膠	-11.4484
天下之人	-11.4485
船	-11.4485
賔拜	-11.4485
四馬	-11.4486
所論	-11.4487
懋	-11.4487
糶	-11.4487
三恪	-11.4488
某日	-11.4488
隣	-11.4489
朝見	-11.4489
而後有	-11.4489
之子也	-11.449
誼	-11.449
廟號	-11.4492
菁	-11.4493
臥	-11.4493
穰	-11.4493
羈	-11.4495
庚午	-11.4495
于地	-11.4496
陳幣	-11.4497
大蜡	-11.4498
鴆反	-11.4499
之輕重	-11.45
丁未	-11.4501
以義起	-11.4501
三分之	-11.4501
而已故曰	-11.4502
根本	-11.4504
平公	-11.4504
禖	-11.4506
而推	-11.4506
乃立	-11.4506
容也	-11.4507
各隨	-11.4509
章句	-11.4509
壇墠	-11.4511
而陳之	-11.4518
三爵	-11.4519
于東序	-11.452
十五日	-11.4521
身有	-11.4522
亦各	-11.4522
曰吾聞	-11.4528
思其	-11.4528
樂節	-11.4528
大計	-11.4529
侯伯之卿	-11.4531
曰朕	-11.4533
王及后之	-11.4534
朝天子	-11.4534
戴記	-11.4535
母之父母	-11.4537
𫉬	-11.4538
爲人	-11.4538
誠也	-11.4539
告者	-11.4539
階西	-11.4541
之属	-11.4543
赤色	-11.4543
也曲禮曰	-11.4545
布之	-11.4545
祭山川	-11.4546
諸司	-11.4546
鉶南	-11.4546
二十八宿	-11.4548
逺則	-11.4548
之志也	-11.455
璽節	-11.455
婦人踊	-11.4552
復逆	-11.4556
宋人	-11.4556
貧者	-11.4556
之詞	-11.4557
所以防	-11.4559
所後者	-11.456
奠酬	-11.4561
于寢	-11.4566
書言	-11.4567
所據	-11.4567
一室	-11.4567
國子監	-11.4567
故在	-11.4568
君之喪	-11.4572
不敢辭	-11.4572
疏言	-11.4573
者亦以	-11.4574
主人乃	-11.4574
于民	-11.4576
大室	-11.4577
用之以	-11.4577
卣	-11.4579
縳	-11.458
為宮	-11.458
敬心	-11.4581
也此謂	-11.4581
正其位	-11.4583
高宗	-11.4583
求福	-11.4584
象尊	-11.4585
上士二人	-11.4586
校尉	-11.4587
石梁王氏曰	-11.4588
粲	-11.4589
明白	-11.459
志在	-11.459
譯	-11.459
于明堂	-11.4591
九升	-11.4592
酹	-11.4592
皁	-11.4592
右手執	-11.4592
祭禰	-11.4593
相左	-11.4594
爐	-11.4594
於廟門外	-11.4595
著免	-11.4597
書契	-11.4598
一位	-11.4598
慟	-11.4598
荀子	-11.46
栗階	-11.4601
巾之	-11.4601
撫之	-11.4601
相稱	-11.4602
造化	-11.4604
之適子	-11.4607
有善	-11.4607
公之昆弟	-11.4608
上賓	-11.4612
日視朝	-11.4612
於其間	-11.4613
受馬	-11.4613
朝大夫	-11.4616
收族	-11.4616
王政	-11.4617
者為之	-11.4618
?」	-11.4619
天之道	-11.4623
賔西階上	-11.4626
之害	-11.4628
也通論	-11.4628
緼	-11.4628
以興	-11.4629
于周	-11.463
祭祀共	-11.463
全體	-11.4631
匕湇	-11.4631
親往	-11.4632
明德	-11.4634
之酒	-11.4634
主人送	-11.4634
蒼璧	-11.4635
武王伐紂	-11.4636
建寅之月	-11.4637
平王	-11.4637
舊章	-11.4637
皆以為	-11.4641
瘞埋	-11.4641
力役	-11.4641
戊辰	-11.4642
太常卿引皇帝	-11.4643
▁並	-11.4644
入大門	-11.4646
一十	-11.4647
為卿大夫	-11.4648
大王	-11.4649
丈反	-11.4652
往而	-11.4653
大禘	-11.4654
尚未	-11.4659
均之	-11.4663
其舊	-11.4667
素衣	-11.4668
未畢	-11.4668
千五百	-11.4669
皆立	-11.467
參分其	-11.4672
偽反	-11.4672
殷制	-11.4673
京兆	-11.4676
而取之	-11.4677
服大裘	-11.4677
空首	-11.4677
王介甫曰	-11.4678
筮者	-11.4681
有長短	-11.4681
台	-11.4682
件	-11.4682
胎	-11.4683
之出入	-11.4685
巳下	-11.4685
組纓	-11.4685
陰陽之	-11.4685
乃用	-11.4686
田畯	-11.4688
興受	-11.4689
相向	-11.4689
於室中	-11.469
附于	-11.4691
甲乙	-11.4692
卜郊	-11.4692
訝士	-11.4693
為社	-11.4696
哀情	-11.4696
穀梁傳	-11.4698
其仁	-11.4698
其變	-11.4698
十一度	-11.4698
無介	-11.4698
雒	-11.47
元嘉	-11.4703
王安石	-11.4706
為右	-11.4707
宣子	-11.4708
其實一也	-11.4709
師友	-11.4709
精微	-11.4711
水經注	-11.4713
官職	-11.4713
分為二	-11.4718
内治	-11.4719
呉氏	-11.4719
之稱也	-11.4719
外位	-11.472
先嗇	-11.472
祔于	-11.4721
此五者	-11.4727
央	-11.4727
壷	-11.4728
則受	-11.4729
用木	-11.4729
譌	-11.4729
新安朱氏曰	-11.473
閷	-11.473
在阼階	-11.4731
牌	-11.4732
鏞	-11.4732
不粥於市	-11.4732
胸	-11.4733
縛	-11.4733
禮輕	-11.4734
酋	-11.4736
爲于僞反	-11.4736
俯伏興	-11.4736
承之	-11.4737
聽事	-11.4737
固非	-11.4737
車載	-11.4737
纔	-11.4737
矣蓋	-11.4738
使下大夫	-11.4742
副貳	-11.4743
左手執	-11.4745
先儒以	-11.4747
坐取爵	-11.4747
象魏	-11.4749
葬時	-11.4749
惡惡	-11.475
反本	-11.475
考校	-11.4752
士之妻	-11.4754
别之	-11.4755
無問	-11.4757
爵位	-11.4757
入次	-11.4758
癘	-11.4758
四廟	-11.4759
孰謂	-11.4761
母之黨	-11.4762
承㫖	-11.4763
祭告	-11.4766
之景	-11.4769
孝武	-11.4772
陽生	-11.4773
推之則	-11.4774
服三年	-11.4775
三十九	-11.4777
冩	-11.4777
丹墀	-11.4777
所自出	-11.4778
吝	-11.4781
嫌其	-11.4782
二十七年	-11.4783
小禮	-11.4783
枓	-11.4783
大馭	-11.4785
頥	-11.4785
所習	-11.4786
聖人制禮	-11.4786
芹	-11.4788
篇末	-11.4788
戊寅	-11.4788
與父同	-11.4789
史四人	-11.4789
進賢	-11.4789
自内	-11.4789
注古文	-11.4791
為君之	-11.4792
泲之	-11.4794
二三子	-11.4794
節制	-11.4795
不登	-11.4796
重輕	-11.4798
其或	-11.4801
拜訖	-11.4802
大旂	-11.4804
潞	-11.4804
尚書省	-11.4805
己巳	-11.4805
夏曰	-11.4807
於其中	-11.4808
委之	-11.4809
從柩	-11.4811
之細	-11.4811
為之節	-11.4811
拜迎	-11.4813
燕饗	-11.4815
責其	-11.4816
左人	-11.4816
最髙	-11.4816
其居	-11.4817
第八	-11.4818
笄而	-11.4823
百歩	-11.4824
賔席	-11.4825
露紒	-11.4826
爲後	-11.4827
衍字	-11.4827
長大	-11.4828
啼	-11.4828
朝事之豆	-11.4828
是皆	-11.4829
脇	-11.483
管人	-11.483
四人胥四人徒四十人	-11.483
鬠	-11.483
挹	-11.4832
然猶	-11.4832
喪荒	-11.4833
侍食	-11.4834
建大常	-11.4834
吳氏澄曰	-11.4834
穉	-11.4834
綂	-11.4835
藍	-11.4837
依舊	-11.4837
禮之變	-11.4837
貫之	-11.4838
去扑	-11.4841
賔客之禮	-11.4841
三日成服	-11.4841
禮直官引	-11.4841
間傳	-11.4841
又東	-11.4841
諸侯相朝	-11.4842
並列	-11.4843
綴於	-11.4846
右主人獻	-11.4849
禮略	-11.4852
交擯	-11.4853
授時	-11.4856
可任	-11.4857
世佐案此	-11.4858
力政	-11.4859
再重	-11.4861
有黍稷	-11.4863
尊南	-11.4863
有先後	-11.4863
禮運云	-11.4865
去地	-11.4865
三篇	-11.4868
儒行	-11.4869
十五度	-11.4871
不更	-11.4871
伐鄭	-11.4873
三三	-11.4874
宿賔	-11.4874
剪	-11.4875
國風	-11.4876
韣	-11.4878
虞主	-11.488
白虎	-11.4881
屬吏	-11.4881
不克	-11.4882
眷	-11.4882
征役	-11.4884
皮帛	-11.4885
絺冕	-11.4887
假借	-11.4887
見於經	-11.4889
免絰	-11.4891
賔辭	-11.4892
六師	-11.4895
樂工	-11.4896
上𧃊	-11.4896
帥之	-11.4899
鼓吹	-11.49
九御	-11.4902
四十里	-11.4903
亨人	-11.4904
太社	-11.4904
正鵠	-11.4905
受玉	-11.4906
法式	-11.4909
即吉	-11.4911
大矣	-11.4911
三里	-11.4912
之儀也	-11.4912
武成	-11.4917
大將軍	-11.4922
敬事	-11.4923
琖	-11.4925
簜	-11.4925
以束帛	-11.4926
鐃	-11.4927
鋝	-11.4927
宜矣	-11.4928
倨句	-11.4928
牽牲	-11.4929
僚友	-11.4929
於阼階上	-11.493
荅曰	-11.493
不雨	-11.4932
所畏	-11.4934
旃	-11.4934
蕪	-11.4936
臣為君	-11.4938
齋郎	-11.4939
皆不言	-11.494
安之	-11.494
滋味	-11.494
者多矣	-11.494
尺八寸	-11.4942
射侯	-11.4943
酒肉	-11.4946
二物	-11.4947
乆矣	-11.4948
諸侯禮	-11.4948
師帥	-11.4949
晉書	-11.4949
故自	-11.495
人者也	-11.495
邑宰	-11.495
歲時	-11.4951
其師	-11.4951
不達	-11.4951
王親	-11.4952
大約	-11.4952
郝仲輿曰	-11.4952
乃成	-11.4953
非古	-11.4956
四時之祭	-11.496
姜氏曰	-11.4961
崇酒	-11.4963
疏按	-11.4964
博學	-11.4966
天地社稷	-11.4971
不從政	-11.4972
又因	-11.4972
註謂	-11.4973
十二人	-11.4973
韗	-11.4973
軍吏	-11.4974
君子不以	-11.4975
祭法云	-11.4976
提舉	-11.4978
鄭目録云	-11.4979
布政	-11.4979
六日	-11.4979
大夫五	-11.4982
詁	-11.4984
飲酒食肉	-11.4984
宜在	-11.4984
推此	-11.4984
匶	-11.4985
虗	-11.4985
勵	-11.4987
牽之	-11.4988
立冬	-11.4989
立法	-11.4991
患難	-11.4991
一舉	-11.4993
蔚	-11.4993
復生	-11.4993
左傳曰	-11.4998
薄於	-11.4998
魯禮	-11.4998
釋曰知	-11.5003
辛未	-11.5004
精麤	-11.5006
尊嚴	-11.5012
司巫	-11.5012
醫師	-11.5012
二十人	-11.5013
腊人	-11.5013
獻酢	-11.5014
5.	-11.5015
無辭	-11.5015
安得不	-11.5015
衆臣	-11.5016
升筵	-11.5016
禮辭許	-11.5019
和平	-11.502
配上帝	-11.5021
薛氏曰	-11.5023
大夫之妾	-11.5026
五更	-11.5029
不可用	-11.5029
五冕	-11.503
三年正月	-11.503
並無	-11.5032
浙	-11.5032
擊之	-11.5032
通考	-11.5033
囂	-11.5033
皂	-11.5034
粉米	-11.5034
蝕	-11.5036
而致事	-11.5037
壬午	-11.5037
乙酉	-11.5037
奉禮郎	-11.5038
於此者	-11.5038
一節論	-11.5039
乙丑	-11.5039
舞大武	-11.5041
匣	-11.5041
于其上	-11.5041
康叔	-11.5042
執鎮圭	-11.5044
詩序	-11.5045
大辰	-11.5046
因時	-11.5046
服皮弁	-11.5047
下士一人	-11.5047
相傳	-11.5048
在道	-11.505
土功	-11.505
三面	-11.5056
不論	-11.5057
有司奏	-11.5058
諸侯之士	-11.5058
諸神	-11.5059
民知	-11.506
牛牲	-11.506
既卒哭	-11.5061
用皮	-11.5061
工歌	-11.5062
隨之	-11.5062
注釋曰此	-11.5065
並是	-11.5065
是用	-11.5066
主人位	-11.5067
罰爵	-11.5069
達乎	-11.5069
半寸	-11.507
無樂	-11.5072
大閱	-11.5073
諸侯夫人	-11.5073
食食	-11.5074
賔位	-11.5074
於上帝	-11.5074
又自	-11.5075
少故	-11.5075
加豆	-11.5075
延尸	-11.5075
療	-11.5077
而勿	-11.5078
焉耳	-11.5078
齡	-11.5079
而朝	-11.508
典婦功	-11.5081
鬄	-11.5081
所教	-11.5081
伏羲	-11.5082
明非	-11.5083
三昭三穆	-11.5084
俱是	-11.5084
即上文	-11.5084
行下孟反	-11.5084
綆	-11.5085
依注音	-11.5086
者以經云	-11.5089
昌本	-11.5089
降堂	-11.5091
毛詩	-11.5091
孳	-11.5091
雨水	-11.5091
以叙	-11.5092
文承	-11.5092
葷	-11.5092
齧	-11.5092
楚人	-11.5093
三品以上	-11.5093
皇地祗	-11.5093
各如其	-11.5094
雖是	-11.5095
見矣	-11.5095
血祭	-11.5096
門關	-11.5096
萬舞	-11.5098
向下	-11.5102
八風	-11.5103
流行	-11.5106
所造	-11.5106
待事	-11.5107
大功之末	-11.5108
非徒	-11.5109
終日	-11.511
祝先	-11.511
改設	-11.511
所制	-11.5111
近北	-11.5112
不然則	-11.5113
少儀曰	-11.5114
古之君子	-11.5117
後大宗	-11.5117
之中有	-11.5119
習舞	-11.5119
冊寶	-11.5121
禁其	-11.5122
山西	-11.5124
戸内	-11.5127
甑	-11.5128
采蘩	-11.5128
為列	-11.5129
歲終	-11.5129
從政	-11.5129
壇壝	-11.5129
非古也	-11.513
儥	-11.5131
宿尸	-11.5132
俱在	-11.5132
㽔	-11.5133
鞅	-11.5135
窺	-11.5136
髙禖	-11.5136
司中司命	-11.5137
畛	-11.5138
以知其	-11.5138
嵗星	-11.5139
秦人	-11.514
戸外	-11.514
等議	-11.5141
七百	-11.5141
室内	-11.5141
飾之以	-11.5142
靈公	-11.5144
句股	-11.5145
牡麻絰	-11.5146
刄	-11.5147
二星	-11.5147
二豆	-11.5148
太上皇	-11.5151
西楹西	-11.5152
執政	-11.5153
孟子所謂	-11.5154
徐氏	-11.5154
必親	-11.5155
日而殯	-11.5156
急也	-11.5157
序進	-11.5158
經禮	-11.5158
國政	-11.516
臨事	-11.516
不虚	-11.5163
又謂之	-11.5163
為人子者	-11.5163
代哭	-11.5165
而稱	-11.5165
爲賔	-11.5168
吳氏	-11.5171
安石	-11.5171
薦腥	-11.5171
明史	-11.5172
記其	-11.5175
䋲	-11.5178
主婦獻尸	-11.5178
坐奠爵拜	-11.5179
鬰	-11.5179
孟子言	-11.5182
詳矣	-11.5182
奉天	-11.5183
二十二年	-11.5184
四十二	-11.5184
曜	-11.5184
掠	-11.5185
相反	-11.5185
北辰	-11.5185
六行	-11.5185
水草	-11.5187
周易	-11.5188
怛	-11.5188
燔燎	-11.5188
祀方明	-11.5188
月日	-11.5189
大棺	-11.5191
而教之	-11.5191
劵	-11.5191
法令	-11.5191
蒿	-11.5191
南宫	-11.5191
不税	-11.5193
官刑	-11.5193
軍旅之	-11.5193
踐阼	-11.5194
戊申	-11.5195
饌具	-11.5196
海内	-11.5198
祝佐食	-11.5199
未冠	-11.5202
黄琮	-11.5205
又其外	-11.5207
不爭	-11.5207
三十五	-11.5208
還玉	-11.5211
大河	-11.5213
五事	-11.5214
六飲	-11.5216
廟在	-11.5217
之西南	-11.5218
顯考	-11.5218
降盥	-11.5218
縵	-11.5218
祭僕	-11.5221
時雨	-11.5223
在喪	-11.5224
而不為	-11.5225
又不可	-11.5227
見於外	-11.5227
生死	-11.5228
三絃	-11.5228
儒有	-11.5229
為非禮	-11.523
秘	-11.5231
三十三	-11.5231
户牖	-11.5232
亡矣	-11.5233
酒人	-11.5234
賦貢	-11.5234
諸母	-11.5235
膋	-11.5236
綵	-11.5237
賓辭	-11.5237
於斯	-11.5238
康誥	-11.524
腒	-11.5241
不害	-11.5241
豈特	-11.5241
以木鐸	-11.5241
自由也	-11.5241
餈	-11.5242
明衣	-11.5242
又再拜	-11.5242
不拜受爵	-11.5243
而知之	-11.5244
天位	-11.5245
五禮通考卷	-11.5246
熊虎	-11.5247
駿	-11.525
節度	-11.5252
而不亂	-11.5255
升一等	-11.5255
在門東	-11.5256
之道故	-11.5257
揖讓升	-11.526
宗法	-11.5261
不相襲	-11.5262
洗南	-11.5264
應天	-11.5264
七世	-11.5265
不經	-11.5265
八法	-11.5266
晉文公	-11.5267
主人獻尸	-11.5268
西堂下	-11.5268
勞苦	-11.5269
既虞卒哭	-11.5272
篇云	-11.5277
見乎	-11.5278
之禄	-11.528
府君	-11.5282
下經云	-11.5283
錞	-11.5283
以少為貴	-11.5287
褎	-11.5287
劓	-11.5287
而就	-11.5288
芻薪	-11.5288
雝	-11.5289
建子	-11.529
產	-11.529
洩	-11.5291
竟而	-11.5292
螻	-11.5292
也坡謂	-11.5294
三馬	-11.5294
同色	-11.5294
竄	-11.5295
胥四人徒四十人	-11.5296
熾	-11.5297
少皥	-11.5297
棣	-11.5298
亦反	-11.5298
兵革	-11.5298
一井	-11.5298
國賓	-11.5298
於宗廟	-11.5298
癸亥	-11.5298
丁丑	-11.5299
民力	-11.5299
不預	-11.5299
星紀	-11.53
無所用	-11.5301
固無	-11.5303
禮終	-11.5306
郢	-11.5306
體魄	-11.5307
示有	-11.5308
之候	-11.5308
容止	-11.5309
版位	-11.5309
斯禁	-11.531
貴賤之等	-11.531
連文	-11.531
在位者皆再拜	-11.531
社稷宗廟	-11.5311
獻繭	-11.5315
大備	-11.5318
萬二千	-11.5318
交于	-11.5321
之妙	-11.5322
經書	-11.5323
同類	-11.5324
敢不敬	-11.533
予一人	-11.533
樂聲	-11.5331
其左	-11.5332
致其敬	-11.5334
庀	-11.5335
繼公謂此	-11.5336
終之以	-11.5337
鄉射禮曰	-11.5337
致死	-11.5339
善道	-11.534
父子君臣	-11.5341
閎	-11.5341
杜子春	-11.5341
筲	-11.5341
權制	-11.5343
禮記云	-11.5343
不稅	-11.5344
聫	-11.5344
赫	-11.5344
絶句	-11.5344
獻禽	-11.5344
則不然	-11.5346
陘	-11.5346
勾龍	-11.5346
喜怒哀樂	-11.5347
以順	-11.5347
牛人	-11.5347
上旬	-11.5347
母之喪	-11.5348
孔悝	-11.5349
魂魄	-11.535
甲寅	-11.535
鄭氏注	-11.5351
燕義	-11.5353
堂東	-11.5354
不趨	-11.5354
不修	-11.5355
助祭者	-11.5355
先期	-11.5356
教坊	-11.5357
慈愛	-11.5358
之東南	-11.5359
后世子	-11.536
近人	-11.536
壹拜	-11.5363
説屨	-11.5363
朝王	-11.5365
内豎	-11.5365
始加	-11.5366
門外位	-11.5368
亂反	-11.5368
記所謂	-11.5369
練而	-11.537
侍坐於	-11.5371
殿庭	-11.5374
九伐	-11.5375
使天下	-11.5378
酢主人主人	-11.5379
者必有	-11.5381
生焉	-11.5381
而從之	-11.5383
兄弟之喪	-11.5386
過時	-11.5388
書所謂	-11.5388
欲知	-11.5389
豕脀	-11.5391
長長	-11.5392
抗席	-11.5393
撞	-11.5393
相交	-11.5394
大赤	-11.5394
始立學	-11.5395
先王制	-11.5395
方色	-11.5396
三分益一	-11.5396
村	-11.5396
將去	-11.5397
城門	-11.5397
用醴	-11.5398
執璧	-11.5398
厭飫	-11.54
先見	-11.5401
遺詔	-11.5403
睢	-11.5404
沖	-11.5404
事成	-11.5407
不説	-11.5408
六職	-11.5411
十有六人	-11.5411
著尊	-11.5413
盡矣	-11.5415
所問	-11.5417
敺	-11.5418
推其	-11.5418
與天子同	-11.5419
尸答拜	-11.5419
色赤	-11.542
處士	-11.542
几杖	-11.5424
二十五家	-11.5428
宗廟之中	-11.5429
二人舉觶	-11.5429
其誠	-11.5431
械	-11.5431
三十一	-11.5433
而施	-11.5434
羅氏	-11.5435
同牢	-11.5435
于序端	-11.5436
一星	-11.5438
遥反	-11.544
常行	-11.5444
媺	-11.5445
取妻	-11.5446
小異	-11.5447
建寅	-11.5448
盛服	-11.5449
又見	-11.545
搜	-11.545
庳	-11.5451
毀	-11.5451
蚳	-11.5452
季武子	-11.5453
莊敬	-11.5453
大夫之適子	-11.5454
城隍	-11.5455
鏘	-11.5455
非聖人	-11.5456
降于	-11.5457
亶	-11.5458
岱宗	-11.5459
惟言	-11.5459
上庠	-11.546
東西南北	-11.5461
之夕	-11.5462
盥饋	-11.5464
諸軍	-11.5466
稍人	-11.5467
役事	-11.5467
大功之親	-11.5467
厭於	-11.5472
己丑	-11.5472
執俎	-11.5474
呂氏	-11.5479
無筭	-11.5479
百七十	-11.5479
子思曰	-11.548
年二十	-11.548
與子	-11.5484
玉几	-11.5485
因此	-11.5485
人物	-11.5487
成就	-11.5487
教學	-11.5488
之獄	-11.5489
地事	-11.5492
陳用之曰	-11.5493
以别之	-11.5494
帑	-11.5494
軨	-11.5496
服䖍	-11.5496
朝奠	-11.5496
主皮	-11.5497
奉幣	-11.5497
一毫	-11.5497
衣食	-11.5498
諒闇	-11.55
杭	-11.5501
矧	-11.5502
合而言之	-11.5503
比年	-11.5503
簷	-11.5503
漫	-11.5504
顓	-11.5505
次舍	-11.5506
諷	-11.5506
與音餘	-11.5507
尊東	-11.5508
使各	-11.5508
固不可	-11.5508
五岳	-11.5508
茀	-11.5509
二十七日	-11.551
與客	-11.5513
周室	-11.5513
飲畢	-11.5515
秫	-11.5516
大槩	-11.5518
凡賓客	-11.552
小司冦	-11.5523
之殊	-11.5525
所以順	-11.5526
左右各	-11.5527
祭侯	-11.5527
有上下	-11.5527
天災	-11.5527
之所自出	-11.5528
覆手	-11.5533
正俎	-11.5535
將事	-11.554
千萬	-11.554
於館	-11.554
中聲	-11.5541
畿外諸侯	-11.5542
羽舞	-11.5542
國老	-11.5543
卿大	-11.5544
主人迎	-11.5544
禮之本	-11.5545
殤服	-11.5545
乾坤	-11.5549
迆	-11.555
趙氏	-11.555
素車	-11.555
讀如字	-11.555
官爵	-11.5552
掌事	-11.5553
潰	-11.5555
甄	-11.5556
本訛作	-11.5556
又如字	-11.5557
三年大比	-11.5557
拄	-11.5557
栢	-11.5557
奉禮	-11.5557
畎	-11.5558
狥	-11.5558
箸	-11.5559
丙午	-11.556
出降	-11.556
汜	-11.556
彼據	-11.556
與彼	-11.5561
大賔客	-11.5563
甲申	-11.5564
有闕	-11.5565
臣道	-11.5567
裳帷	-11.5568
衣裘	-11.5569
緦麻三月	-11.5569
阼俎	-11.5571
而動	-11.5574
壺尊	-11.5574
郊禘	-11.5574
於圜丘	-11.5578
帷堂	-11.5579
先王先公	-11.5581
占者	-11.5584
女史	-11.5585
雨師	-11.559
上辛	-11.5593
則必有	-11.5593
角反	-11.5594
淮南	-11.5597
祖考之	-11.5598
獻酒	-11.5598
供養	-11.5599
定位	-11.5605
子游曰	-11.5606
女子子適人者	-11.5607
死亡	-11.5608
待賔客	-11.5608
無室	-11.561
牖前	-11.561
簴	-11.561
贍	-11.5611
墟	-11.5614
徒跣	-11.5614
殿中監	-11.5614
噍	-11.5615
饗婦	-11.5615
禨	-11.5617
衢	-11.5618
聘於	-11.5621
占夢	-11.5622
佐車	-11.5623
孔氏曰自此至	-11.5623
亦隨	-11.5623
外門	-11.5623
于西階	-11.5624
起復	-11.5625
恩義	-11.5626
大夫之庶子	-11.5626
不來	-11.5627
為宗子	-11.5627
不敢專	-11.5629
龍旂	-11.5631
生母	-11.5632
親親也	-11.5633
徽宗	-11.5633
然必	-11.5633
史官	-11.5634
四牡	-11.5636
稱君	-11.5638
不必言	-11.5638
孔氏穎達曰此論	-11.5641
承命	-11.5644
三官	-11.5645
東漢	-11.5648
雜説	-11.5648
傳曰何以	-11.5651
君子之於	-11.5656
造士	-11.5657
何耶	-11.5658
二卿	-11.5658
重翟	-11.5659
祭統曰	-11.5659
効	-11.566
鍛	-11.5661
病者	-11.5661
條屬	-11.5661
贖	-11.5662
星去極	-11.5663
樂音洛	-11.5664
斲	-11.5665
悅	-11.5666
受勞問者	-11.5666
考工記曰	-11.5668
蠃	-11.5668
寗	-11.5669
棖	-11.5669
芮	-11.567
昏義	-11.567
寡君之老	-11.5671
七章	-11.5672
所祭者	-11.5674
甲戌	-11.5676
取觶	-11.5676
精粗	-11.5676
光明	-11.5678
去飾	-11.5679
不出於	-11.5679
諸侯卿大夫	-11.5685
康子	-11.5687
四靈	-11.5688
水漿	-11.5689
物生	-11.5691
主人酌	-11.5691
十一升	-11.5692
立尸	-11.5692
子㳺	-11.5693
三等之	-11.5693
在其後	-11.5694
中旦	-11.5697
必得	-11.5699
别子之	-11.5702
以佐王	-11.5702
若是者	-11.5703
先妣	-11.5705
亦多	-11.5709
星經	-11.5711
電	-11.5712
而後可以	-11.5715
煬	-11.5716
李氏如圭曰	-11.5716
詭	-11.5717
出大門	-11.5717
麋臡	-11.5718
聿	-11.5718
竿	-11.5719
父母之䘮	-11.5719
讒	-11.572
凡卜	-11.5721
遷于	-11.5721
事酒	-11.5721
公㑹	-11.5722
三尺三寸	-11.5723
湘	-11.5724
宫人	-11.5725
陵在	-11.5725
郡王	-11.5726
乙亥	-11.5727
尺一寸	-11.5727
卽位	-11.5728
皆是也	-11.5731
柩東	-11.5732
出圭	-11.5733
而下皆	-11.5735
苟有	-11.5735
勇力	-11.5735
繩屨	-11.5736
相待	-11.5736
其他如	-11.5737
曽祖父母	-11.5738
於堂西	-11.574
近也	-11.574
斬衰者	-11.5742
之甚也	-11.5744
並言	-11.5745
為長子三年	-11.5748
先時	-11.5749
犧象	-11.5749
各有差	-11.575
憲宗	-11.575
年月	-11.575
公室	-11.5753
雜裳	-11.5756
結於	-11.5756
關市	-11.5757
未嫁	-11.5761
鳬	-11.5761
特立	-11.5762
耨	-11.5765
春時	-11.5766
肱	-11.5767
妻為夫	-11.5769
女父	-11.577
侍儀	-11.5771
大古	-11.5771
隋書	-11.5771
梠	-11.5771
涸	-11.5772
于廟門外	-11.5773
法制	-11.5774
驛	-11.5775
夷槃	-11.5776
儷皮	-11.5776
少昊	-11.5778
主黨	-11.5779
跪奠	-11.5779
雛	-11.578
射節	-11.5781
挾矢	-11.5781
召南	-11.5785
再祭	-11.5785
表記	-11.5789
父母在	-11.579
武帝本紀	-11.5791
主人哭	-11.5797
軍行	-11.5797
有漸	-11.5798
金革	-11.58
周衰	-11.5801
焉夫	-11.5801
吉笄	-11.5803
敬姜	-11.5806
有變	-11.5808
既陳	-11.581
相沿	-11.5811
符節	-11.5812
葬于	-11.5814
釡	-11.5815
用剛日	-11.5816
每門	-11.5816
纛	-11.5818
及庭	-11.582
朱白蒼	-11.5821
鄭氏以為	-11.5821
奕	-11.5821
碎	-11.5823
律中	-11.5824
尺四寸	-11.5824
尤為	-11.5825
鎭	-11.5825
物成	-11.5825
不可勝	-11.5826
貟	-11.5826
無功	-11.5827
奉慰	-11.5831
槁	-11.5831
屈繅	-11.5831
今從方本	-11.5832
虎士	-11.5832
在此者	-11.5835
傑	-11.5835
門户	-11.5836
不過三	-11.584
屈之	-11.584
素沙	-11.584
之屬皆	-11.5841
司射命	-11.5841
納賔	-11.5843
致禽	-11.5844
互相備也	-11.5845
相侵	-11.5849
㑹諸侯	-11.585
中宗	-11.585
用素	-11.5853
感人	-11.5853
不入公門	-11.5855
齊魯	-11.5857
中都	-11.586
不得祭	-11.5861
而已非	-11.5861
不得已而	-11.5862
宗廟之禮	-11.5865
有遺	-11.5867
使宰夫	-11.5868
南方之	-11.5868
三分之一	-11.5868
若是則	-11.5869
五品以上	-11.587
襲絰	-11.5871
二年正月	-11.5872
轄	-11.5876
州刺史	-11.5876
羽物	-11.5877
尺有五寸	-11.5881
振鐸	-11.5881
荁	-11.5882
陽律	-11.5882
翰林	-11.5882
翠	-11.5883
他物	-11.5885
袵	-11.5885
甚多	-11.5886
三桓	-11.5886
裸	-11.5888
駐	-11.5891
蓬	-11.5891
其徒	-11.5893
舉尸	-11.5893
受醴	-11.5893
無儐	-11.5893
玉敦	-11.5894
牙璋	-11.5895
異代	-11.5896
鄭據	-11.5897
一頭	-11.5897
二十而冠	-11.5898
軒縣	-11.5901
釋奠於	-11.5901
三年喪	-11.5903
是也有	-11.5903
同姓之	-11.5904
注今文	-11.5905
少頃	-11.5906
屏風	-11.5908
泛齊	-11.5909
馬政	-11.5909
入竟	-11.5916
釋宫	-11.5918
嫌疑	-11.5919
曹伯	-11.5919
世叔	-11.592
無主後	-11.5923
不煩	-11.5926
自漢	-11.5926
也存疑	-11.5926
未嫁者	-11.5932
君子曰	-11.5932
刈	-11.5932
儐者	-11.5932
幠	-11.5933
以恩	-11.5933
悞	-11.5934
習其	-11.5934
犬馬	-11.5935
三耦卒射	-11.5936
應氏鏞曰	-11.5937
響	-11.5937
第九	-11.5937
正義曰此一經	-11.5939
樵	-11.5939
以為飾	-11.5939
戊午	-11.594
賈逵	-11.5941
浪反	-11.5941
渳	-11.5942
耿	-11.5943
大綱	-11.5943
沔	-11.5943
辭令	-11.5944
又命	-11.5944
麗于	-11.5944
枉矢	-11.5946
一處	-11.5946
之所同	-11.5947
顔子	-11.5948
親愛	-11.5949
辛卯	-11.5949
卿一人	-11.5949
祀地	-11.5949
致飲	-11.5951
幣玉	-11.5953
於其君	-11.5955
雖已	-11.5957
所掌者	-11.5958
公家	-11.5959
将命	-11.5961
東首	-11.5962
十三月	-11.5963
賤故	-11.5963
令尹	-11.5964
之次也	-11.5965
瑞節	-11.5969
臨川	-11.5969
不仕	-11.597
五人帝	-11.5972
及階	-11.5972
讀從	-11.5974
者不過	-11.5974
得其正	-11.5974
北齊	-11.5975
不恭	-11.5976
弔禮	-11.5977
樂備	-11.5978
觶南	-11.5979
小胥	-11.598
八卦	-11.598
師長	-11.598
出宫	-11.5981
已下皆	-11.5983
帀	-11.5985
鵲	-11.5989
為之主	-11.5989
陳祥道	-11.599
示之以	-11.5991
命士以上	-11.5993
廵狩	-11.5994
所射	-11.5995
輟朝	-11.5995
孔子之言	-11.5995
視牲	-11.5996
瑗	-11.5997
夏采	-11.5997
杝	-11.5997
快	-11.5998
所以重	-11.5998
豬	-11.5998
鄒	-11.5999
一軍	-11.6001
妻妾	-11.6003
三百人	-11.6003
一百二十	-11.6003
其大者	-11.6004
或可	-11.6004
壬申	-11.6004
削幅	-11.6004
圖案	-11.6005
稱賀	-11.6006
鄉老	-11.6006
侍立	-11.601
諸侯之卿	-11.601
大夫已上	-11.6011
三司	-11.6011
女子子在室	-11.6012
不越	-11.6012
十三度	-11.6018
除去	-11.6018
宫門	-11.6018
西河	-11.602
四章	-11.6021
所愛	-11.6023
笙入	-11.6023
皆應	-11.6024
王者之後	-11.6027
内兄弟	-11.6028
路寝	-11.6028
方岳	-11.6029
五等之	-11.6033
子夏曰	-11.6035
十徽	-11.6035
長四寸	-11.6036
亦如此	-11.6037
敖云	-11.6038
之變也	-11.6039
但用	-11.604
舞師	-11.6041
之用也	-11.6042
王曰	-11.6045
脈	-11.6047
二十五里	-11.6047
瓦甒	-11.6047
使其屬	-11.6049
贊者引	-11.605
鮮魚鮮腊	-11.605
正月之吉	-11.6051
上士四人	-11.6051
成拜	-11.6051
薧	-11.6051
合乎	-11.6052
獻佐食	-11.6052
大學士	-11.6054
果蓏	-11.6055
為人臣	-11.6055
兼官	-11.6055
龠	-11.6057
句芒	-11.606
序西南	-11.6064
堂塗	-11.6064
私朝	-11.6064
麻布	-11.6064
卒受者	-11.6066
旄人	-11.6069
序立	-11.607
疏案	-11.6071
行幸	-11.6074
文王武王	-11.6074
喪家	-11.6074
於四郊	-11.6076
用牛	-11.6077
其皮	-11.6078
徳音	-11.6078
忍反	-11.608
挼	-11.6085
一辭	-11.6088
安國	-11.609
於君也	-11.609
舞蹈	-11.6091
四十六	-11.6091
歌鹿鳴	-11.6092
執鴈	-11.6096
徒四十人	-11.6096
附㑹	-11.6097
后宫	-11.6099
境内	-11.61
世叔父	-11.6102
粹	-11.6103
者欲其	-11.6103
樊纓	-11.6104
歷	-11.6104
殄	-11.6104
芾	-11.6105
模	-11.6105
惠公	-11.6106
無據	-11.6107
點	-11.6107
則無所	-11.6107
紵	-11.6108
羃	-11.6108
楚茨	-11.6109
愉	-11.6109
辛丑	-11.611
庚戌	-11.6111
希冕	-11.6112
既定	-11.6112
聨事	-11.6113
弓人	-11.6115
臼	-11.6115
㬥	-11.6116
鄰里	-11.6116
小輪	-11.6117
至扵	-11.6117
文侯	-11.612
神明之	-11.6121
崇牙	-11.6122
右几	-11.6123
汶	-11.6123
練後	-11.6126
授之以	-11.6127
以次而	-11.6128
黄赤	-11.6131
於壙	-11.6134
鄙師	-11.6138
用犢	-11.6139
三王之	-11.6141
待其	-11.6142
城南	-11.6142
祀天神	-11.6144
聲色	-11.6147
吉則	-11.6147
三分其	-11.6148
卿大夫皆	-11.6148
明堂位云	-11.6149
即下文	-11.615
上經云	-11.6151
聖人所以	-11.6152
于阼	-11.6153
申明	-11.6154
長五寸	-11.6154
三行	-11.6156
踊襲	-11.6159
治道	-11.616
奭	-11.6161
銓	-11.6162
膷	-11.6162
䧟	-11.6162
於四時	-11.6162
特縣	-11.6165
一鄉	-11.6166
下卿	-11.6166
以杖即位	-11.6167
遮	-11.6167
四圭	-11.6171
三星	-11.6171
謂此也	-11.6172
一石	-11.6174
三十一年	-11.6174
下並同	-11.6175
命筮	-11.6176
于西方	-11.6176
四方百物	-11.6178
植物	-11.6181
以治之	-11.6182
情性	-11.6182
白虎通云	-11.6185
孫氏	-11.6187
苟敬	-11.6187
也孟子曰	-11.6188
衆賔長	-11.6189
凡七	-11.6191
註鄭司農云	-11.6191
滅性	-11.6193
少儀云	-11.6193
夫死	-11.6194
六字	-11.6194
而踊	-11.6199
享祀	-11.6201
矣但	-11.6202
天下之事	-11.6202
祭統云	-11.6202
二品	-11.6206
大寒	-11.6207
月食	-11.6208
以為常	-11.6208
于祖廟	-11.6209
掌節	-11.621
餙	-11.6212
恆	-11.6216
坐祭遂飲	-11.6216
蟻	-11.6217
槨	-11.6217
儷	-11.6218
紛紛	-11.6219
懇	-11.622
耕藉	-11.6221
楔	-11.6221
傳曰何以期也	-11.6222
區區	-11.6222
翊	-11.6224
發揚	-11.6225
中門外	-11.6226
兵車之	-11.6226
匪頒	-11.6227
薦脀	-11.6232
納亨	-11.6233
同異	-11.6234
登車	-11.6237
外内命婦	-11.6238
日躔	-11.6238
霍山	-11.6238
契丹	-11.6238
送者	-11.6239
愛親	-11.624
逆祀	-11.6241
圉師	-11.6242
廣二寸	-11.6244
冠六升	-11.6247
貶於	-11.6247
九榖	-11.6249
大旱	-11.6252
大畧	-11.6258
待放	-11.6264
本非	-11.6264
也此云	-11.6265
行聘	-11.6266
傷人	-11.6267
尸尊	-11.6269
而奉之	-11.627
位尊	-11.6271
鼖	-11.6273
縚	-11.6273
所以通	-11.6273
棧車	-11.6273
庾氏	-11.6275
掉	-11.6276
至孝	-11.6276
仕於	-11.6277
中士八人	-11.6278
蝗	-11.6281
負之	-11.6281
賓答拜	-11.6283
淸	-11.6286
蒲筵	-11.6286
簨	-11.6288
漢魏	-11.6289
屈伸	-11.6289
交際	-11.629
服緦麻	-11.6291
班首	-11.6291
上下皆	-11.6292
角柶	-11.6292
所以致其	-11.6293
正朝	-11.6294
鄭志	-11.6298
太甲	-11.6302
歡樂	-11.6303
中吕	-11.6304
恐人	-11.6306
倚廬	-11.631
獻侑	-11.6311
南順	-11.6318
服朝服	-11.6318
而頒之	-11.6318
識其	-11.6319
鄭君	-11.6323
魯國	-11.6324
以爵授	-11.6325
舉賢	-11.6325
玄冠	-11.6326
四事	-11.6326
乾之	-11.6327
告主人	-11.6327
布深衣	-11.6328
八升	-11.6328
匕湆	-11.6329
菅	-11.633
志反	-11.633
腰絰	-11.633
盛時	-11.6331
人生	-11.6332
劾	-11.6332
不拘	-11.6333
舊本	-11.6334
不得用	-11.6335
協律郎	-11.6338
幔	-11.6339
事物	-11.6339
翕	-11.634
餓	-11.6342
文采	-11.6342
小斂後	-11.6342
羌	-11.6342
無害	-11.6342
以其冠為受	-11.6343
者亦謂	-11.6343
丁卯	-11.6343
三易	-11.6344
掌固	-11.6345
下達	-11.6345
斟酒	-11.6347
桴	-11.6348
玄冕	-11.6348
七政	-11.6349
與王同	-11.6349
於其國	-11.635
漢人	-11.635
在彼	-11.635
則知其	-11.6354
於東郊	-11.6354
稽之	-11.6355
中書門下	-11.6356
百事	-11.6356
路馬	-11.6357
既拜	-11.6366
戒具	-11.6366
除䘮	-11.6366
車騎	-11.6366
之費	-11.6369
潔清	-11.6373
于堂西	-11.6377
含玉	-11.6379
綸	-11.6383
竊謂	-11.6384
大率	-11.6384
本生	-11.6384
六宮	-11.6385
農云	-11.6386
覜	-11.6387
之域	-11.6387
佐后	-11.6387
給事	-11.6389
觀承案	-11.639
庛	-11.6391
公答再拜	-11.6392
憎	-11.6392
楯	-11.6393
浹	-11.6393
五土	-11.6394
緅	-11.6394
景帝	-11.6394
北墉下	-11.6396
㤙	-11.6396
劔	-11.6401
鉏	-11.6401
竹箭	-11.6402
成湯	-11.6403
通事舍人引	-11.6403
於民者	-11.6404
積聚	-11.6406
凡十	-11.6406
駔	-11.6406
王妃	-11.6408
末擯	-11.6409
光禄	-11.641
文武百官	-11.6412
尊賔	-11.6413
正義曰此一節明	-11.6416
帗舞	-11.6417
經意	-11.642
太府	-11.6421
國外	-11.6421
朱氏	-11.6424
改饌	-11.6427
小功章	-11.6428
地利	-11.6431
春秋之義	-11.6432
甲兵	-11.6433
孔子言	-11.6434
宣布	-11.6436
此其所以	-11.6438
互文也	-11.6438
别于	-11.6439
足以見	-11.6444
者明其	-11.6445
祭前	-11.6445
挑	-11.6445
異姓之	-11.6447
簫管	-11.6448
冔	-11.6448
升車	-11.645
不升堂	-11.645
自西階	-11.6451
頴	-11.6451
日月星	-11.6451
而治之	-11.6452
蟈	-11.6452
陽城	-11.6454
均人	-11.6455
㪚	-11.6455
不徹	-11.6455
教法	-11.6457
肺脊	-11.646
私恩	-11.646
小記曰	-11.6461
淄	-11.6462
魂帛	-11.6465
兵甲	-11.6465
所以節	-11.6467
靈臺	-11.6468
廟堂	-11.6468
西京	-11.6468
黃鍾	-11.6469
房戸	-11.647
告官	-11.647
漿人	-11.6473
從釋文	-11.6473
啐之	-11.6481
貧民	-11.6483
宫刑	-11.6484
設盥	-11.6486
遲速	-11.6486
婦贊者	-11.6487
墨車	-11.6487
乎外	-11.6489
郡今	-11.649
純凶	-11.649
林氏曰	-11.649
十一分	-11.6491
五絃	-11.6493
并州	-11.6494
質故	-11.6495
用束帛	-11.6496
伯姬	-11.6496
曲折	-11.6497
稱公	-11.65
注釋曰案	-11.65
也藍田吕氏曰	-11.6502
畱	-11.6507
粤	-11.6508
子為母	-11.6509
瑜	-11.6509
精意	-11.651
于上帝	-11.6512
茨	-11.6512
諜	-11.6513
慊	-11.6515
㨎	-11.6515
執之以	-11.6516
杓	-11.6517
衙門	-11.6517
在東序	-11.6517
四阿	-11.652
民居	-11.6521
百乗	-11.6521
薑桂	-11.6522
中書省	-11.6523
蒲席	-11.6524
廟庭	-11.6524
君臣上下	-11.6526
尚左手	-11.6528
禮尚	-11.6528
制禄	-11.6529
納徵	-11.653
短脅	-11.653
三者之	-11.6532
其所當	-11.6533
而食之	-11.6533
言動	-11.6534
兩籩	-11.6535
亦據	-11.6538
匕俎	-11.6541
充實	-11.6543
不奪人	-11.6543
冬日至	-11.6544
婦人髽	-11.6546
大夫與士	-11.6546
死喪	-11.6547
逆降	-11.6547
江淮	-11.6547
為貴也	-11.6549
十二分	-11.655
於奥	-11.6551
相配	-11.6551
中矩	-11.6553
降筵	-11.6555
肯	-11.6558
禮家	-11.6561
將欲	-11.6561
喪服小記云	-11.6561
坐尸	-11.6562
貞元	-11.6562
及衆賓	-11.6563
案儀禮	-11.6563
倉人	-11.6563
王氏詳說曰	-11.6565
公羊傳云	-11.6565
觜	-11.6566
兊	-11.6568
膮	-11.6569
員外郎	-11.6569
横木	-11.657
俶	-11.6571
馘	-11.6571
是也然	-11.6571
徐氏師曾曰	-11.6571
月令曰	-11.6573
攢	-11.6573
翼翼	-11.6573
無間	-11.6573
杯	-11.6574
西行	-11.6574
於舅姑	-11.6575
僑	-11.6575
追師	-11.6575
宸	-11.6576
設楅	-11.6576
龕	-11.6577
凶札	-11.6578
之名物	-11.6579
居室	-11.6579
外饔	-11.6579
隱公	-11.658
絲衣	-11.6581
其有不	-11.6583
賢良	-11.6583
疏衰	-11.6589
為出母	-11.659
司馬師	-11.6593
再加	-11.6593
已過	-11.6593
誓戒	-11.6595
吕反	-11.6598
斗柄	-11.66
一旦	-11.6601
諸侯之卿大夫	-11.6601
奠于篚	-11.6602
合語	-11.6602
常侍	-11.6605
侯反	-11.6607
下皆同	-11.6607
請見	-11.6612
報功	-11.6612
食饗	-11.6612
八州	-11.6613
敢告	-11.6615
正義曰此一節	-11.6618
長賓	-11.6619
朝夕奠	-11.6619
邦事	-11.6621
元史	-11.6621
納射器	-11.6622
亦由	-11.6624
等事	-11.6625
皥	-11.6625
膱	-11.6626
阨	-11.6626
捲	-11.6626
而言之也	-11.6627
中堂	-11.6628
繫于	-11.6628
秬	-11.6629
鍼	-11.663
之物故	-11.6631
先王之禮	-11.6631
銜枚	-11.6631
北面答拜	-11.6631
𬒮	-11.6631
苹	-11.6632
六經	-11.6632
之所宜	-11.6635
其灋	-11.6635
下殤小功	-11.6636
冬至日	-11.6636
疏數	-11.6637
恩輕	-11.6637
再拜稽首公	-11.6637
弔喪	-11.6638
諸侯不得	-11.664
中月而禫	-11.6641
三十七	-11.6642
二俎	-11.6642
旣殯	-11.6643
於其位	-11.6643
孫婦	-11.6644
服事	-11.6645
望祀	-11.6646
居外	-11.6647
己未	-11.6648
不審	-11.6648
龍門	-11.6648
虎皮	-11.6649
通謂之	-11.665
執贄	-11.6654
列于	-11.6656
鍾師	-11.6657
文官	-11.6658
以勸	-11.6661
鄭説	-11.6662
四之一	-11.6663
聖人制	-11.6667
五里	-11.6667
著明	-11.6667
襄王	-11.667
專指	-11.6675
梱	-11.6676
祭五帝	-11.6676
孔疏謂	-11.6678
重出	-11.6679
一邊	-11.668
妾為君	-11.668
天地之氣	-11.6681
刖	-11.6681
注䟽	-11.6682
可推	-11.6683
國有大	-11.6685
主人酬賔	-11.6686
畋	-11.6686
親始死	-11.6686
五百人	-11.6686
樞宻	-11.6687
也雖然	-11.6687
紃	-11.6688
王氏詳説曰	-11.6688
監察御史	-11.669
臻	-11.669
於西方	-11.6691
做	-11.6691
出征	-11.6691
声	-11.6691
頑	-11.6691
祜	-11.6692
頎	-11.6692
節目	-11.6692
皮馬	-11.6693
利用	-11.6701
授几	-11.6702
有大功	-11.6704
致飱	-11.6705
十有六	-11.6706
阼階上北面	-11.6706
卿大夫之喪	-11.6707
盡心	-11.6708
素積	-11.6709
七里	-11.6709
而不知其	-11.671
兵事	-11.6713
四夷之	-11.6713
魏氏	-11.6714
執紼	-11.6715
助王	-11.6716
在己	-11.6716
乗禽	-11.6718
也陳氏祥道曰	-11.6719
魯頌	-11.6719
授爵	-11.6721
其義一也	-11.6722
州牧	-11.6725
至敬	-11.6726
崔氏云	-11.6728
信矣	-11.6728
社稷五祀	-11.6729
安樂	-11.6729
賔與大夫	-11.6729
升首	-11.673
之仁也	-11.673
十六度	-11.6734
刑法	-11.6734
以組	-11.6736
執幣	-11.6739
不可使	-11.6741
頒賜	-11.6742
藏焉	-11.6743
公辭	-11.6743
第二十	-11.6743
公卿大夫士	-11.6743
黄目	-11.6743
郊外	-11.6744
仆	-11.6744
慨	-11.6747
五齊三酒	-11.6747
食貨志	-11.6748
官長	-11.6749
景公	-11.675
鷙	-11.675
鐘師	-11.675
儆	-11.675
愾	-11.6753
股肱	-11.6753
八佾	-11.6753
蓐收	-11.6753
枝葉	-11.6754
粒	-11.6754
紺	-11.6754
贊引引	-11.6755
敬慎	-11.6757
小記云	-11.6758
建武	-11.6759
形似	-11.6759
盤庚	-11.6762
辛酉	-11.6762
不腆	-11.6764
女宫	-11.6764
公卿大夫之	-11.6765
道理	-11.6766
春禘	-11.6766
大賓客	-11.6767
犯禁	-11.6767
川衡	-11.6769
不賔尸	-11.6776
知其所	-11.6777
長史	-11.6779
干舞	-11.6779
惟恐	-11.6781
辟音	-11.6783
大功九月	-11.6783
神坐	-11.6785
五屬	-11.6785
南風	-11.6786
達常	-11.6787
十五里	-11.6788
盡物	-11.679
如今之	-11.6792
之兩旁	-11.6795
澤宫	-11.6796
象物	-11.6796
九十六	-11.6796
刌	-11.68
舊法	-11.6803
君臣父子	-11.6803
大斂奠	-11.6804
餘子	-11.6804
所以表	-11.6804
齊家	-11.6805
司𨽻	-11.6806
小司寇	-11.6806
皮革	-11.6806
用刑	-11.6806
犒	-11.6807
熙寧	-11.6808
倮	-11.6808
怍	-11.6808
又案以上	-11.6808
叟	-11.6808
小次	-11.6809
腵脩	-11.681
昇	-11.681
分寸之一	-11.6811
州郡	-11.6811
揖讓如初	-11.6812
髺髪	-11.6812
亦北面	-11.6813
也云凡	-11.6813
光禄卿	-11.6815
𤣥枵	-11.6815
蜩	-11.6817
揚觶	-11.6818
魯侯	-11.6819
子為父	-11.6822
父子兄弟	-11.6823
案士喪禮	-11.6824
羊人	-11.6824
賀循	-11.6824
獸侯	-11.6829
房中南面	-11.6832
謂大夫士	-11.6833
建立	-11.6834
伏見	-11.6834
西面位	-11.6835
壇上	-11.6837
八尊	-11.6837
疏引	-11.6839
寤	-11.684
瓦大	-11.684
宰執	-11.6841
母黨	-11.6842
往弔	-11.685
雩祀	-11.6854
巫祝	-11.6854
輪人	-11.6854
人功	-11.6855
何嘗	-11.6856
聖人作	-11.686
垼	-11.6864
筠	-11.6864
上衣	-11.6864
佾	-11.6868
前期三日	-11.6868
户東	-11.6868
與音預	-11.687
莎	-11.6871
喙	-11.6872
孔氏曰此一節明	-11.6872
朱紘	-11.6873
地職	-11.6874
棲	-11.6875
六篇	-11.6875
百僚	-11.6875
終事	-11.6877
闑東	-11.6877
旅衆也	-11.6878
旅賁	-11.6879
貿	-11.688
狐白	-11.6881
受朝	-11.6882
司馬之屬	-11.6884
長八寸	-11.6884
夫妻	-11.6885
丹朱	-11.6886
也此皆	-11.6888
望瘞	-11.6889
以此知	-11.689
窮民	-11.6891
俠拜	-11.6891
城中	-11.6894
視斂	-11.6896
卒哭後	-11.6901
官制	-11.6901
八家	-11.6902
不能行	-11.6903
成化	-11.6904
用桑	-11.6905
讀禮	-11.6908
醮子	-11.6909
子事父母	-11.6909
尊神	-11.691
東階下	-11.691
問卿	-11.6912
食飲	-11.6912
有徳者	-11.6912
更衣	-11.6912
覆棺	-11.6913
於廟門	-11.6916
漢初	-11.6916
新物	-11.6917
乎孔子曰	-11.6917
萬邦	-11.692
西面立	-11.692
身體	-11.692
儼	-11.6921
禄位	-11.6921
祭肉	-11.6922
溺於	-11.6922
下旬	-11.6923
父母舅姑	-11.6925
必有所	-11.6925
士喪禮云	-11.6927
一變	-11.6927
桯	-11.6927
小臣正	-11.6928
香案	-11.6929
梗	-11.693
缺項	-11.6931
贅	-11.6931
葅	-11.6931
曾祖父母	-11.6931
兌	-11.6933
杵	-11.6934
餒	-11.6935
萬年	-11.6936
髙紫超曰	-11.6937
媯	-11.6937
奔喪者	-11.6937
冢子	-11.6938
可觀	-11.6938
註曰鄭司農云	-11.6939
如之何孔子曰	-11.694
刑書	-11.694
王之所	-11.6942
庚寅	-11.6943
象限	-11.6944
敢辭	-11.6944
命之曰	-11.6945
之下殤	-11.6946
相變也	-11.6948
禮之常	-11.6949
各得	-11.6949
崇敬	-11.6949
序昭穆	-11.6951
南陽	-11.6952
也賈氏公彦曰	-11.6953
千餘	-11.6953
練祭	-11.6954
在阼	-11.6956
散齋	-11.6958
萬事	-11.6959
絶祭	-11.6959
程氏	-11.6961
三歲	-11.6962
墓地	-11.6962
韋昭	-11.6964
正禮也	-11.6965
門東北面	-11.6966
秋時	-11.697
為禮也	-11.6971
萬石	-11.6973
而推之	-11.6974
所奏	-11.6974
特設	-11.6974
眾	-11.6974
合衆	-11.6975
思慮	-11.6976
過乎	-11.6977
閒民	-11.6979
昊	-11.6979
授幣	-11.698
次路	-11.6984
北面揖	-11.6986
飮	-11.6988
雖得	-11.699
遑	-11.6992
義倉	-11.6992
行春令則	-11.6993
洋洋	-11.6993
為始祖	-11.6994
麓	-11.6995
依命數	-11.6995
鹿中	-11.6997
縶	-11.6997
至此乃	-11.6998
憐	-11.6999
史佚	-11.7
得其宜	-11.7
工部	-11.7
徒從	-11.7002
朐	-11.7003
頌磬	-11.7003
糾其	-11.7005
將來	-11.7005
縣界	-11.7007
邦用	-11.7007
九變	-11.7007
盈縮	-11.7009
地名	-11.701
也陳氏澔曰	-11.7011
休息	-11.7017
八命	-11.7018
隨入	-11.7018
度半	-11.7018
漢唐	-11.7019
冠帶	-11.7021
幽王	-11.7021
展幣	-11.7022
上耦	-11.7024
踰越	-11.7024
二家	-11.7026
擯者請	-11.7027
期喪	-11.7032
又别	-11.7032
外兄弟	-11.7032
凡物	-11.7035
異日	-11.7035
擯介	-11.7036
于堂下	-11.7037
待諸侯	-11.7038
未除	-11.7038
博厚	-11.7039
義取	-11.704
其害	-11.704
於路寢	-11.7043
黒水	-11.7043
充耳	-11.7043
答云	-11.7044
衺	-11.7045
伯子男	-11.7045
庶人無	-11.7053
無征	-11.7053
婦為舅姑	-11.7057
弁服	-11.7057
三十八	-11.7058
茢	-11.7059
覈	-11.7059
漢興	-11.706
不敏	-11.7061
敬叔	-11.7061
南北之中	-11.7062
浪	-11.7063
方相氏	-11.7063
跳	-11.7063
酬主人	-11.7064
馨香	-11.7065
近代	-11.7065
與此不同	-11.7065
未嘗有	-11.7067
箋云	-11.7068
微子	-11.707
主人之贊者	-11.7072
祀天地	-11.7072
小斂大斂	-11.7074
况於	-11.7075
三條	-11.7075
毛氏曰	-11.7075
即今之	-11.7075
璋瓚	-11.708
通行	-11.7082
而繼之以	-11.7082
人之性	-11.7083
獻爵	-11.7084
牛耳	-11.7091
升屋	-11.7093
天子賜	-11.7094
於國中	-11.7095
晉國	-11.7095
分引	-11.7096
行旅酬	-11.7097
分野	-11.7097
路車	-11.71
南面東上	-11.7102
實柴	-11.7103
從父兄弟	-11.7107
制幣	-11.711
縰	-11.711
繼嗣	-11.7113
秋嘗冬烝	-11.7113
稚	-11.7115
鳥獸之	-11.7116
另	-11.7116
授綏	-11.7116
洛誥	-11.7116
朱綠	-11.7117
文質	-11.7117
黷	-11.7117
傳記	-11.7118
寐	-11.7118
車一乘	-11.7118
咳	-11.7119
四丈	-11.7119
上時掌反	-11.7119
耐	-11.7119
十有二旒	-11.712
格物	-11.7121
所以致敬	-11.7121
厭翟	-11.7122
也故以	-11.7122
猷	-11.7122
親徹	-11.7122
相須	-11.7122
涿	-11.7125
於門内	-11.7125
月朔日	-11.7127
地理	-11.7127
坐取觶	-11.7131
主簿	-11.7131
庚辰	-11.7131
跪取	-11.7132
郝氏	-11.7134
犬豕	-11.7136
後至者	-11.7137
昨日	-11.7137
式法	-11.7138
香草	-11.7139
三才	-11.714
相代	-11.7141
舅犯	-11.7142
以獻尸	-11.7143
實于篚	-11.7144
無違	-11.7146
庿門	-11.7147
不責	-11.7149
侍坐	-11.7149
。6.	-11.715
請命	-11.7151
不可通	-11.7153
豈無	-11.7154
應對	-11.7155
教官	-11.7155
階東	-11.7155
世子生	-11.7156
公羊傳曰	-11.7162
難行	-11.7163
特牲云	-11.7165
兩圭	-11.7165
南面西上	-11.7166
鄭司	-11.7167
酒罇	-11.7167
刀反	-11.7168
不怨	-11.7169
胥師	-11.7172
詔侑	-11.7174
鏄	-11.7175
挫	-11.7175
十寸	-11.7176
躬行	-11.7176
少西	-11.7176
百王	-11.7177
死牢	-11.7179
炤	-11.7179
方盛	-11.7179
一絃	-11.718
翰林學士	-11.718
者不必	-11.7181
異於生	-11.7181
無服者	-11.7181
翳	-11.7182
蟹	-11.7182
未滿	-11.7182
跪讀	-11.7183
薰	-11.7184
偝	-11.7184
㐮	-11.7187
夫音扶	-11.7187
銷	-11.7187
髙堂生	-11.7188
骸	-11.7188
冕弁	-11.7189
奄人	-11.719
甘泉	-11.719
饗神	-11.7192
為獻主	-11.7193
唯據	-11.7193
用緇	-11.7194
送尸	-11.7196
參侯	-11.7197
御史大夫	-11.7199
廢疾	-11.7201
龜蛇	-11.7202
先薦	-11.7203
素弁	-11.7204
尚書令	-11.7208
辯獻	-11.7209
周公制禮	-11.7215
中丞	-11.7217
取俎	-11.7218
不在於	-11.7219
司關	-11.7222
當心	-11.7225
以嵗時	-11.7227
為一體	-11.7229
四種	-11.723
其他皆如	-11.7231
妾母	-11.7232
句讀	-11.7234
爟	-11.7235
夫之昆弟	-11.7239
有三等	-11.724
劭	-11.7243
葬奠	-11.7243
涵	-11.7244
階閒	-11.7244
愠	-11.7245
氊	-11.7247
層	-11.7247
相弔	-11.7249
兩角	-11.7249
什伍	-11.7249
男女有别	-11.7249
四時祭	-11.725
詐偽	-11.7251
庶㡬	-11.7253
三年喪畢	-11.7253
孝慈録	-11.7253
壬寅	-11.7253
搢笏跪	-11.7254
叩頭	-11.7254
士虞記	-11.7255
夏后氏以	-11.7255
老子	-11.7256
二章	-11.7257
男巫	-11.7258
廣明	-11.7259
孟氏	-11.7259
輕喪	-11.7261
威武	-11.7262
在京	-11.7264
以别於	-11.7267
太常卿奏	-11.7269
報本	-11.7273
素錦	-11.7275
用麻	-11.7278
執披	-11.7281
公私	-11.7281
昭昭	-11.7282
百榖	-11.7285
聴其	-11.7288
史書	-11.7289
瓦器	-11.7291
還相為	-11.7292
故次之	-11.7292
今亡	-11.7292
而致之	-11.7294
古之道	-11.7294
乘矢	-11.7296
士昬禮	-11.7297
在室者	-11.7298
分左右	-11.7299
五丈	-11.7299
亦存焉	-11.73
十五升布	-11.7301
正君臣	-11.7301
乙未	-11.7301
釜	-11.7304
得天下	-11.7305
牡麻	-11.7306
振容	-11.7306
胾醢	-11.7307
入閤	-11.7308
千八百	-11.7308
吁	-11.7309
窒	-11.7309
所以盛	-11.7309
髙氏誘曰	-11.7313
孑	-11.7313
惕	-11.7314
正義賈氏公彦曰	-11.7314
蚍蜉	-11.7314
剝	-11.7315
雞人	-11.7316
安定	-11.7318
小功五月	-11.7319
玉齍	-11.7319
亂世	-11.732
樂樂	-11.7322
勉强	-11.7322
先王之所以	-11.7323
先王之於	-11.7325
重喪	-11.7326
嘏辭	-11.7327
洛邑	-11.733
少長	-11.733
而正之	-11.7332
王府	-11.7332
鼎爼	-11.7333
林衡	-11.7333
物色	-11.7333
盡哀	-11.7334
知然者	-11.7334
寸二分	-11.7336
靈座前	-11.7336
婦道	-11.7336
麋侯	-11.7337
兩階	-11.7341
所以助	-11.7343
以太牢	-11.7344
歴反	-11.7345
人力	-11.7345
日新	-11.7346
河間	-11.735
九經	-11.7351
發問	-11.7352
祭祖	-11.7352
遣人	-11.7354
進坐	-11.7354
故記者	-11.7355
西序東面	-11.7355
誠敬	-11.7357
賓客之禮	-11.7361
祠祭	-11.7363
卑賤	-11.7364
樂記曰	-11.7365
膰	-11.7365
劫	-11.7367
輢	-11.7367
鳶	-11.7371
四尺四寸	-11.7371
薪芻	-11.7372
于圜丘	-11.7373
表貉	-11.7374
爇	-11.7375
賢者能者	-11.7375
執皮者	-11.7375
不匱	-11.7376
刼	-11.7377
弔服加麻	-11.7377
尚書云	-11.7378
或疑	-11.738
閾外	-11.7381
曳	-11.7382
馬牛	-11.7382
六寢	-11.7383
民多	-11.7386
疾趨	-11.7387
其先祖	-11.7388
新主	-11.7389
所生之	-11.7391
盟約	-11.7392
六尊	-11.7392
鐘鼔	-11.7394
聽治	-11.7396
宜令	-11.7396
見於君	-11.7399
旦反	-11.7399
世次	-11.74
賔黨	-11.74
不寧	-11.7402
以節之	-11.7403
長二尺	-11.7403
四旁	-11.7403
諸親	-11.7406
皆放此	-11.7408
兵舞	-11.7409
教世子	-11.741
燒之	-11.7411
朝堂	-11.7411
神示	-11.7412
扶持	-11.7415
冠服	-11.7415
于其位	-11.7416
食邑	-11.7417
下注云	-11.7419
授宰	-11.7419
跣	-11.7421
先蠶	-11.7424
沈齊	-11.7424
長脅	-11.7425
素端	-11.7428
去極	-11.7429
各以其爵	-11.743
相保	-11.743
牘	-11.743
故先言	-11.7431
華山	-11.7432
坏	-11.7432
儳	-11.7433
鎧	-11.7434
蔓	-11.7434
寂	-11.7436
何休云	-11.7437
薪蒸	-11.7437
降殺以兩	-11.7438
素委貌	-11.7438
禁民	-11.7438
三禮圖	-11.7438
搢扑	-11.7438
臨川王氏曰	-11.7438
户牖之間	-11.744
頽	-11.7441
寧之曲	-11.7441
大喪廞	-11.7441
逡	-11.7441
王及后世子	-11.7442
耤	-11.7442
千畝	-11.7443
夷樂	-11.7443
刉	-11.7443
三牢	-11.7444
口徑	-11.7445
勾芒	-11.7446
于阼階	-11.7451
魯莊公	-11.7451
也爾雅曰	-11.7451
發聲	-11.7453
畫繢	-11.7455
居䘮	-11.7456
十二次	-11.746
嘉薦	-11.7463
拾踊	-11.7463
皇上	-11.7467
公劉	-11.7469
冠八升	-11.7471
戎馬	-11.7472
昕	-11.7473
昔酒	-11.7478
不熟	-11.7484
設薦俎	-11.7485
形制	-11.7486
告成	-11.749
闗市	-11.7491
伏惟	-11.7493
帝后	-11.7494
食甚	-11.7495
魯君	-11.7495
凡殤	-11.7495
國有大事	-11.7496
實沈	-11.7496
官府都鄙	-11.7497
其倫	-11.7498
治其政令	-11.7499
囷	-11.7501
元侯	-11.7501
慘	-11.7502
㐫	-11.7502
四足	-11.7502
揄	-11.7502
宫聲	-11.7504
好呼報反	-11.7505
分之一	-11.7506
連衣裳	-11.7506
木鐸	-11.7507
謗	-11.7507
蕢	-11.7508
年春王正月	-11.7508
袝	-11.7509
父在則	-11.7509
曰臣聞	-11.7512
各當其	-11.7512
嫡孫	-11.7514
敬讓	-11.7515
才藝	-11.7516
明㑹典	-11.7518
條理	-11.7523
闔門	-11.7524
光祿	-11.7524
答拜受爵	-11.7527
者以其記	-11.7532
孝慈	-11.7533
祀山川	-11.7537
徴令	-11.7538
廣雅	-11.7539
天子視學	-11.7541
五十步	-11.7542
北斗	-11.7543
為司正	-11.7545
奉祀	-11.7546
阼階西	-11.7548
諸路	-11.755
亦以此	-11.755
上之人	-11.7551
大宗子	-11.7551
魯語	-11.7552
古昔	-11.7557
財貨	-11.7558
􁉛	-11.7559
女功	-11.756
陪位	-11.756
蜼	-11.7562
辟正主	-11.7564
甗	-11.7564
赬	-11.7565
倪	-11.7565
帽	-11.7566
御史臺	-11.7568
桁	-11.7568
淆	-11.7568
餅	-11.7569
幞頭	-11.7569
檜	-11.7569
麕	-11.7571
禆冕	-11.7571
賓黨	-11.7571
丙寅	-11.7572
請坐	-11.7573
中士四人下士八人	-11.7573
共為一	-11.7574
鞂	-11.7574
治水	-11.7574
疲	-11.7575
璣	-11.7576
據此則	-11.7577
九命	-11.7578
追逺	-11.7578
籥章	-11.7579
四簋	-11.758
晉鼓	-11.7581
以言其	-11.7582
曲阜	-11.7582
田賦	-11.7586
干侯	-11.7588
各服其服	-11.7593
私意	-11.7594
尊崇	-11.7595
齊桓公	-11.7596
大行人云	-11.76
庶昆弟	-11.7602
尚存	-11.7606
班固	-11.7606
鄰長	-11.7608
爲壇	-11.7608
相隨	-11.7608
剛日	-11.761
有慶	-11.7612
一種	-11.7613
諏	-11.7616
十四度	-11.7616
恒山	-11.762
客使	-11.762
各設	-11.762
先王之時	-11.762
以為節	-11.7621
神之所	-11.7625
品物	-11.7625
旊	-11.7627
鍜	-11.7628
明齋王氏曰	-11.763
撮	-11.763
佃	-11.7631
靈威仰	-11.7631
前三日	-11.7632
斾	-11.7632
心舌	-11.7633
兼掌	-11.7635
切肺	-11.7636
掌祭祀	-11.7637
踊如初	-11.7637
糜	-11.7638
晉書天文志	-11.7638
頖宫	-11.7639
軍社	-11.764
殿門	-11.764
隂陽之氣	-11.764
㤗	-11.764
販	-11.7642
何獨	-11.7643
侍御	-11.7643
櫟	-11.7645
如儐	-11.7646
髀不升	-11.7646
告賔	-11.7646
祭義云	-11.7649
主婦亞獻	-11.765
衰冠	-11.765
任地	-11.7654
差等	-11.7655
室家	-11.7655
尊賓	-11.766
典絲	-11.766
不失職	-11.766
大荒	-11.7661
挼祭	-11.7664
商旅	-11.7666
日中而	-11.7667
之等皆	-11.7667
小舞	-11.7669
穆叔	-11.7669
禮異也	-11.7674
期日	-11.7675
告具	-11.7676
服除	-11.7677
升祔	-11.7678
不悖	-11.768
序從	-11.7682
小要	-11.7683
唐制	-11.7688
角觶	-11.7688
欬	-11.769
異位	-11.7691
陰氣	-11.7691
圜鍾	-11.7693
門闗	-11.7694
鈔	-11.7694
合聚	-11.7696
舘	-11.7696
宫商	-11.7697
笭	-11.7697
建子之月	-11.7697
冨	-11.7697
族類	-11.7698
刷	-11.7698
俟君	-11.7699
不逮	-11.7699
頼	-11.7699
先薦寢廟	-11.7699
公許	-11.7699
戴氏	-11.77
秃	-11.77
各置	-11.77
囯	-11.7701
不肖者	-11.7703
君臣同	-11.7704
斗斛	-11.7704
匠師	-11.7707
王與后	-11.7707
注釋曰鄭知	-11.7707
匏竹	-11.7708
以竹為之	-11.771
有廢疾	-11.771
癸巳	-11.7711
乙卯	-11.7711
下管象	-11.7712
建鼓	-11.7713
執爵興	-11.7716
奉迎	-11.7717
閭里	-11.7719
南門之外	-11.7724
萬億	-11.7726
車前	-11.7726
受封	-11.7727
于室中	-11.7727
戎僕	-11.7728
無𤣥酒	-11.7728
竹器	-11.7731
北面再拜	-11.7731
尤甚	-11.7733
最尊	-11.7735
已嫁	-11.7735
周禮所謂	-11.7736
視聽	-11.7738
者莫如	-11.7738
未免	-11.774
矢人	-11.7742
玉輅	-11.7742
漢制	-11.7742
千六百	-11.7744
坐奠爵	-11.7746
惠伯	-11.7747
難得	-11.7749
差降	-11.7751
横脊	-11.7751
不復用	-11.7752
授祭	-11.7754
故在此	-11.7756
祭於公	-11.7758
埴	-11.776
稱孝	-11.776
量度	-11.7761
宋衛湜撰	-11.7762
所以勸	-11.7762
燅	-11.7763
姓氏	-11.7763
鹿皮	-11.7764
燾	-11.7765
縠	-11.7765
都尉	-11.7765
擊鼔	-11.7765
盡飾	-11.7766
甲胄	-11.7769
夏日至	-11.7769
昬姻	-11.777
吞	-11.777
以多為貴	-11.777
襃衣	-11.777
鈍	-11.7771
壬辰	-11.7771
聊	-11.7771
大夫三廟	-11.7772
嗣位	-11.7773
更定	-11.7773
莠	-11.7774
法象	-11.7774
朱裏	-11.7775
單言	-11.7782
弑其君	-11.7783
為喪主	-11.7785
竟内	-11.7787
府四人	-11.779
林鐘	-11.7793
是也案	-11.7796
好仁	-11.7797
對文	-11.7797
成規	-11.78
鄭氏釋	-11.7803
在官者	-11.7806
祖配	-11.7807
幾於	-11.7808
玉器	-11.7809
道德	-11.781
郊之祭	-11.781
黨正飲酒	-11.781
以安之	-11.7812
代父	-11.7812
如賓禮	-11.7814
丗子	-11.7815
罇罍	-11.7816
三光	-11.7816
釋辭	-11.7816
致積	-11.7816
致饗	-11.7817
南北向	-11.782
大㑹同	-11.782
向内	-11.7821
士與大夫	-11.7823
丈六尺	-11.7829
朌	-11.7829
滓	-11.7831
龍衮	-11.7833
綽	-11.7833
作亂	-11.7833
大喪共	-11.7836
水泉	-11.7836
所出之	-11.7837
擣	-11.7839
掌其戒令	-11.7839
十一飯	-11.784
柘	-11.784
此六者	-11.784
奠觶于薦	-11.784
不親迎	-11.7842
三醮	-11.7842
七宿	-11.7843
文王世子曰	-11.7844
襢衣	-11.7845
汗	-11.7845
受酬	-11.7846
宵衣	-11.7846
五十畝	-11.7847
天下之民	-11.7848
孔子曰吾	-11.7849
木材	-11.7851
為人子	-11.7854
西面拜	-11.7854
執摯	-11.7854
三个	-11.7856
己亥	-11.7856
冠七升	-11.7858
用組	-11.7858
氣至則	-11.7859
二年二月	-11.786
豈必	-11.7862
天宗	-11.7863
文德	-11.7868
范氏	-11.7871
荅再拜	-11.7874
東面南上	-11.7876
主人荅拜	-11.7876
于北郊	-11.7877
㫖酒	-11.788
?	-11.7882
0	-11.7884
振動	-11.7884
毋得	-11.7886
贊禮	-11.7887
整齊	-11.7888
結反	-11.7888
尸酢主人	-11.7889
食醫	-11.789
側階	-11.7891
大軍旅	-11.7892
大夫之臣	-11.7894
羲	-11.7896
五十弓	-11.7897
下士八人	-11.7899
歉	-11.7899
西東向	-11.7899
逋	-11.79
昧爽	-11.79
宋陳祥道撰	-11.7902
案鄭注	-11.7902
鄭剛中曰	-11.7902
掾	-11.7903
二百一十國	-11.7904
在洗東	-11.7904
凡四方之	-11.7905
答一拜	-11.7906
䜴	-11.7906
旞	-11.7909
鄉射之禮	-11.791
大倫	-11.7912
比方	-11.7914
六冕	-11.7914
任器	-11.7915
特牲記	-11.7915
粟米	-11.7916
集傳	-11.7917
商聲	-11.7917
澤藪	-11.7919
强弱	-11.792
同姓異姓	-11.792
尤重	-11.792
有二種	-11.792
急於	-11.7923
來格	-11.7926
己酉	-11.7927
雜說	-11.7927
動静	-11.7928
天地宗廟	-11.7929
生萬物	-11.7931
祭末	-11.7932
勝負	-11.7935
就筵	-11.7937
下篚	-11.7941
四類	-11.7946
翰林院	-11.7946
紀綱	-11.7948
恒星	-11.795
親祠	-11.795
百畮	-11.795
肅敬	-11.7951
不相因	-11.7952
周禮天官	-11.7952
唐宋	-11.7952
永嘉	-11.7952
也然而	-11.7952
軍賦	-11.7953
襟	-11.7953
八柄	-11.7957
用璧	-11.7958
仁聖	-11.7958
大麾	-11.7958
其孰能	-11.7959
箎	-11.7961
髤	-11.7962
幃	-11.7962
丙子	-11.7963
搢大圭	-11.7964
鼖鼓	-11.7965
踊無算	-11.7968
侍御史	-11.7969
得申	-11.797
鞉	-11.797
衎	-11.797
血毛	-11.7971
送幣	-11.7971
砥	-11.7971
鹿盧	-11.7971
屈狄	-11.7972
禮儀使奏請	-11.7972
膞	-11.7973
秋氣	-11.7973
陳饌	-11.7973
擢	-11.7973
戀	-11.7973
六章	-11.7975
猗	-11.7976
疏材	-11.7976
夜明	-11.7978
不敢私	-11.7979
循行	-11.798
十有四	-11.7982
舉肺脊	-11.7983
畜聚	-11.7984
丁酉	-11.7985
司爟	-11.7986
引春秋	-11.7987
甸師氏	-11.7988
縣内	-11.7989
親踈	-11.7989
也案此	-11.7992
受其幣	-11.7993
論道	-11.7996
削杖	-11.7997
東遷	-11.7997
心之所	-11.8003
君使卿	-11.8003
用特牲	-11.8006
壬子	-11.8007
大燭	-11.8008
以歲時	-11.8008
邇臣	-11.8008
入大學	-11.8009
内外皆	-11.8012
廣四寸	-11.8012
項中	-11.8014
戰勝	-11.8016
旣練	-11.8021
不出門	-11.8021
八嵗	-11.8026
農民	-11.8028
不能備	-11.8028
醳	-11.8028
禮記郊特牲	-11.8029
以待事	-11.803
貼	-11.8031
歸宗	-11.8031
賞地	-11.8032
通事舍人	-11.8032
周禮訂義卷	-11.8033
脡脊	-11.8036
帶下	-11.8036
皆出於	-11.8037
王先生曰	-11.8037
皮弁素積	-11.8037
黏	-11.8038
還罇所	-11.804
不勝其	-11.804
於是始	-11.8041
服輕	-11.8041
酪	-11.8042
公家之	-11.8042
竽笙	-11.8042
分緯北	-11.8042
醍齊	-11.8042
以北為上	-11.8043
冠冕	-11.8045
螟	-11.8046
得吉	-11.8049
庚子	-11.8051
各本訛作	-11.8051
陪臣	-11.8051
典儀唱	-11.8052
版圖	-11.8053
遷徙	-11.8053
所以厚	-11.8054
於廟中	-11.8056
於上而	-11.8058
於君所	-11.8059
餘財	-11.806
丘甸	-11.806
自貶	-11.8062
下句	-11.8064
官詣	-11.8065
黃帝	-11.8066
具饌	-11.8067
八變	-11.8068
先儒以為	-11.8073
大射云	-11.8073
初度	-11.8075
賦税	-11.8076
布幕	-11.8076
左袒	-11.8077
腊用	-11.8078
羮定	-11.8078
近日	-11.808
典籍	-11.8083
四者皆	-11.8087
案燕禮	-11.8087
進御	-11.8089
魯哀公	-11.809
所須	-11.8092
不知禮	-11.8095
笮	-11.8096
鞞	-11.8096
直𨽻	-11.8097
如初儀	-11.8097
蒨	-11.8098
侇	-11.81
凌人	-11.81
搔	-11.8102
拙	-11.8104
賓席	-11.8104
眡滌濯	-11.8105
上夀	-11.8105
罄	-11.8106
欄	-11.8106
鏡	-11.8107
賚	-11.8108
榜	-11.8108
徭役	-11.8108
接見	-11.8108
夹	-11.8108
髙帝	-11.8108
兩楹	-11.8108
晞	-11.8108
遼東	-11.811
護	-11.811
文昌	-11.8111
分緯南	-11.8111
券	-11.8112
寛裕	-11.8112
畫雲氣	-11.8114
百九十	-11.8116
孫為祖	-11.8117
兄弟弟子	-11.8121
經記	-11.8123
廪人	-11.8124
南海	-11.8125
當楅	-11.8125
鎛師	-11.8128
至小祥	-11.813
孔䟽	-11.8131
丹陛	-11.8131
可畏	-11.8132
君牽牲	-11.8134
凶器	-11.8143
取肺	-11.8144
襲斂	-11.8144
户竈	-11.8145
次輪	-11.8145
肺石	-11.8147
千一百	-11.815
就坐	-11.8156
祀上帝	-11.8158
八算	-11.8158
庶物	-11.8159
度分	-11.8165
公之孤	-11.8166
楚語	-11.8167
國有大故	-11.8168
以明其	-11.8168
有君道	-11.8169
筍虡	-11.8169
請問	-11.8171
制禮作樂	-11.8172
插	-11.8173
敞	-11.8173
斁	-11.8173
臐	-11.8174
晳	-11.8174
由前	-11.8174
㓙	-11.8174
侑食	-11.8175
募	-11.8175
鉤楹	-11.8175
陳君舉曰	-11.8176
自酌	-11.8176
五十里之國	-11.8177
樿	-11.8178
甯	-11.8178
鎬	-11.8178
任民	-11.8178
查	-11.8179
培	-11.8179
閻	-11.8179
剽	-11.818
溲	-11.818
禍烖	-11.818
丙戌	-11.818
壑	-11.8181
不可奪	-11.8181
即皇帝位	-11.8183
集議	-11.8188
舍奠	-11.8189
將冠者	-11.819
追胥	-11.819
婦順	-11.8191
罍洗	-11.8194
大濩	-11.8198
大國之孤	-11.82
得其所	-11.82
揖譲	-11.8202
節度使	-11.8202
再虞	-11.8207
是月也命	-11.8208
百族	-11.8208
用大牢	-11.821
濟水	-11.821
幣餘	-11.8215
左臂	-11.8216
類造	-11.8216
祭脯醢	-11.8217
禮畧	-11.8217
殊不知	-11.8217
哲宗	-11.8217
各就位	-11.822
:『	-11.8221
大宗伯云	-11.8222
簡易	-11.8223
有輕重	-11.8224
罍尊	-11.8227
納賓	-11.823
牧野	-11.8231
楹閒	-11.8235
火星	-11.8236
騑	-11.8236
神席	-11.8237
揷	-11.8237
鴻臚寺	-11.8239
楷	-11.8239
撤	-11.824
適子庶子	-11.824
豕俎	-11.8241
除害	-11.8242
彗	-11.8242
樞宻院	-11.8242
證反	-11.8242
鹵	-11.8242
祓	-11.8243
髢	-11.8243
莅	-11.8243
五人為伍	-11.8244
豆間	-11.8245
龡	-11.8245
▁天官	-11.8245
德行道藝	-11.8246
喧	-11.8246
無正文故	-11.8247
一溢米	-11.825
朝夕哭位	-11.825
六材	-11.8252
政刑	-11.8253
煦	-11.8254
阪	-11.8254
地貢	-11.8254
靑	-11.8255
七十五	-11.8259
如尸禮	-11.8259
于堂上	-11.826
禽獻	-11.8261
以次出	-11.8262
匙	-11.8264
禮運曰	-11.8264
六十四井	-11.8264
性情	-11.8268
秦伯	-11.8269
國城	-11.8273
通上下	-11.8277
賓館	-11.8278
不測	-11.8278
舂人	-11.828
敎民	-11.8282
北宫	-11.8283
立卒爵	-11.8285
聞之曰	-11.8285
豈徒	-11.8287
殺戮	-11.8287
寓於	-11.829
從吉	-11.8291
奠訖	-11.8293
萬嵗	-11.8294
八十四	-11.8296
供奉	-11.8298
十四分	-11.8299
朝儀	-11.8299
千里之外	-11.8299
不可變	-11.83
崇徳	-11.8302
迎于門外	-11.8303
著朝服	-11.8304
民之父母	-11.8305
别録	-11.8306
宜依	-11.8307
生齒	-11.8308
北面再拜稽首	-11.831
髠	-11.831
耕耨	-11.831
㒒	-11.8311
臨喪	-11.8313
齊衰之喪	-11.8313
犂	-11.8314
大裘而冕	-11.8314
縞冠素紕	-11.8315
達禮	-11.8315
娣姒	-11.8315
誡	-11.8316
行秋令則	-11.8316
秅	-11.8317
廣袤	-11.8317
簇	-11.8317
險阻	-11.8318
茲	-11.8319
經界	-11.832
廻	-11.8321
擊拊	-11.8322
浦	-11.8324
若後世	-11.8326
贊禮者引	-11.8326
少卿	-11.8327
案上文	-11.8327
勲勞	-11.8328
亳社	-11.8328
紇	-11.8328
大夫四命	-11.8329
役使	-11.833
荀子曰	-11.833
案春秋	-11.8331
乙巳	-11.8332
息民	-11.8334
躬耕	-11.8336
采色	-11.8337
適母	-11.8342
嵗徧	-11.8344
稽古	-11.8347
更端	-11.835
五百家	-11.8351
河内	-11.8352
郷遂	-11.8352
殯葬	-11.8354
堂室	-11.8357
宗祝	-11.8357
絶族	-11.8358
慶賞	-11.8358
新死者	-11.8358
賔答拜	-11.8358
故下云	-11.8358
賞賜	-11.8362
䙝衣	-11.8366
弔焉	-11.8366
警衆	-11.8367
以木為之	-11.8367
流民	-11.8367
寸六分	-11.8368
卿大夫之妻	-11.8371
二籩	-11.8375
弦歌	-11.8379
樞密	-11.8379
景長	-11.8379
覘	-11.8384
羊肉湇	-11.8384
講義曰	-11.8385
袡	-11.8385
閒傳	-11.8386
儻	-11.8387
搢圭	-11.8387
礪	-11.8387
騷	-11.8388
虎蜼	-11.8388
斈	-11.8389
臺門	-11.839
詢衆庶	-11.839
殯宮	-11.8391
四望山川	-11.8393
斯須	-11.8393
鄭解	-11.8393
鳴鞭	-11.8393
臊	-11.8393
百里之國	-11.8393
六郷	-11.8394
尸坐	-11.8398
執觶興	-11.8398
洮	-11.8401
觀察	-11.8401
鄴	-11.8403
代脅	-11.8404
三農	-11.8404
目録	-11.8405
先擊	-11.8406
嘉賔	-11.8407
饋食之豆	-11.8408
僞反	-11.841
政治	-11.8412
十一體	-11.8413
大昕	-11.8413
心術	-11.8416
幕人	-11.8417
恩惠	-11.842
形鹽	-11.8422
未嘗無	-11.8422
之行也	-11.8423
降立于	-11.8424
于廟門	-11.8425
奠鴈	-11.8429
稱孤	-11.843
後放此	-11.843
鄉先生	-11.843
不敢忘	-11.8431
職金	-11.8431
主人坐奠爵	-11.8433
陳侯	-11.8434
長八尺	-11.8435
周召	-11.8435
周尺	-11.8436
亦異於	-11.8437
案少牢	-11.8438
阼階前	-11.8438
飲酒禮	-11.8439
髙卑	-11.844
褘	-11.8441
城北	-11.8445
閽	-11.8447
東平	-11.8448
迓	-11.845
五鼎	-11.845
千載	-11.845
一尺二寸	-11.8452
熏	-11.8453
璂	-11.8454
揃	-11.8454
眼	-11.8454
悌	-11.8455
聲和	-11.8455
詳見喪	-11.8456
羲和	-11.8458
末世	-11.8459
土地之圖	-11.846
鴻臚	-11.846
醴賔	-11.846
琰	-11.8461
方慤曰	-11.8462
彜	-11.8462
五千	-11.8463
炬	-11.8463
忠臣	-11.8463
隄	-11.8463
鰭	-11.8463
下及注同	-11.8463
祭義曰	-11.8463
飲卒爵	-11.8464
被出	-11.8464
舊讀	-11.8464
鄊	-11.8464
固以請	-11.8465
升自東階	-11.8465
虜	-11.8465
司馬光	-11.8465
壬戌	-11.8466
世父母叔父母	-11.8466
辝	-11.8466
四時之田	-11.8467
中央土	-11.8468
趙盾	-11.8468
垂繅	-11.8469
字誤	-11.8472
曲沃	-11.8472
議論	-11.8472
纁裏	-11.8474
至壙	-11.8476
縱横	-11.8479
商頌	-11.8481
學習	-11.8483
建邦	-11.8485
武徳	-11.8485
脯脩	-11.8491
甲辰	-11.8497
之重者	-11.85
肆長	-11.8505
漢水	-11.8507
在大門外	-11.8508
母卒	-11.8512
歸藏	-11.8514
繼體	-11.8516
!	-11.8521
祝嘏	-11.8522
百萬	-11.8523
鄉射記曰	-11.8523
大傳曰	-11.8524
往哭	-11.8524
青帝	-11.8525
並去聲	-11.8526
篹	-11.8526
瞭	-11.8527
梧	-11.8528
皮侯	-11.8528
瘳	-11.8529
倫理	-11.8531
槱燎	-11.8531
醯人	-11.8531
封土	-11.8532
正之侯	-11.8533
狭	-11.8534
縑	-11.8535
苞筲	-11.8536
至是乃	-11.8537
藝文志	-11.8538
都城	-11.8539
互相備	-11.8539
酌鬱鬯	-11.8539
執羔	-11.854
注釋曰言	-11.8541
癸丑	-11.8542
輴車	-11.8542
設牀	-11.8545
禮主於	-11.8553
邾子	-11.8553
魏書	-11.8553
是以鄭云	-11.8555
思慕	-11.8555
於禮者	-11.8557
長幼之序	-11.8559
魚肉	-11.8561
蕙田案以上記	-11.8567
▁檀弓	-11.857
差次	-11.8574
諸侯五廟	-11.8574
不必盡	-11.8575
轉相	-11.8575
鄭氏云	-11.8575
▁夏官	-11.8576
朝哭	-11.8577
繼髙祖	-11.8579
二百五十	-11.858
均輪	-11.8582
柔日	-11.8582
致力	-11.8582
武后	-11.8582
舞器	-11.8583
各因其	-11.8589
滎	-11.859
分獻官	-11.8591
新廟	-11.8592
帖	-11.8593
堅固	-11.8594
鐙	-11.8596
列宿	-11.8598
半周	-11.8599
妬	-11.8599
梡	-11.8599
親近	-11.86
鑣	-11.86
端冕	-11.86
於殯宫	-11.86
侏儒	-11.8601
譴	-11.8601
各不同	-11.8601
於阼階下	-11.8602
䧏	-11.8602
聘禮記	-11.8602
袴	-11.8603
壮	-11.8603
俸	-11.8603
攫	-11.8603
眇	-11.8604
齊僕	-11.8604
殛	-11.8605
君在阼	-11.8606
括髮袒	-11.8606
孔穎達	-11.8607
炳	-11.8607
以左手	-11.8608
原本	-11.861
禮緯	-11.861
四鎮	-11.8611
東方之饌	-11.8611
白牡	-11.8611
敗績	-11.8612
挍	-11.8615
綺	-11.8615
冢婦	-11.8617
三刺	-11.8618
卧反	-11.862
再娶	-11.862
詳畧	-11.862
色白	-11.8623
向南	-11.8623
兩面	-11.8624
説文云	-11.8626
嵗月	-11.8627
職嵗	-11.8627
哭成踊	-11.8628
歌詩	-11.8629
皇極	-11.8632
親䟽	-11.8632
兩畔	-11.8635
歡心	-11.8636
賈公彦曰	-11.8637
見舅姑	-11.8637
方一里	-11.8638
餞尸	-11.8638
受觶	-11.8639
亦未嘗	-11.864
無赦	-11.8641
夕哭	-11.8642
十八日	-11.8643
禍亂	-11.8643
夷牀	-11.8645
隆慶	-11.8646
中郎	-11.8647
語類	-11.8647
仁恩	-11.8647
贈送	-11.8649
東箱	-11.865
癸未	-11.8651
政敎	-11.8652
家廟	-11.8653
練衣	-11.8656
交龍	-11.8656
鄭𤣥云	-11.8658
眡朝	-11.8658
理財	-11.866
孝友	-11.866
𨽻僕	-11.8661
牲器	-11.8662
▁曲禮	-11.8662
相減	-11.8662
褖	-11.8664
囬	-11.8665
再期	-11.8669
黄門侍郎	-11.8674
鸞和	-11.8674
娶婦	-11.8675
耡	-11.8676
大王王季	-11.8676
鐏	-11.8676
挩手	-11.8677
素帶	-11.8677
坐卒爵	-11.8677
隋書禮儀志	-11.8677
諮	-11.8678
由是觀之	-11.8679
治官府	-11.8679
淵泉	-11.868
艱難	-11.868
明旦	-11.8682
長九寸	-11.8683
姑姊	-11.8685
含襚	-11.8687
聚衆	-11.869
於西郊	-11.8691
嗜欲	-11.8695
嘗鉶	-11.8697
由足	-11.8698
不為殤	-11.87
報魄	-11.8701
審矣	-11.8701
降服大功	-11.8704
于門西	-11.8705
八灋	-11.8708
旁尊	-11.8709
二十五人	-11.8709
王弧	-11.8711
井牧	-11.8712
凡樂事	-11.8712
好善	-11.8713
待賓客	-11.8717
東即位	-11.8718
禘嘗	-11.872
夕幣	-11.8721
學問	-11.8728
豫章	-11.8733
九旒	-11.8735
也然此	-11.8736
相參	-11.8737
先路	-11.8738
周南召南	-11.8741
不可闕	-11.8742
鍔	-11.8743
復扶又反	-11.8744
骹	-11.8745
舊圖	-11.8746
羣廟之主	-11.8746
着	-11.8746
齊桓	-11.8747
菁菹	-11.8748
兼服之	-11.8748
别彼列反	-11.8749
畚	-11.8749
鼠	-11.8749
須臾	-11.875
芡	-11.8751
簒	-11.8751
先後之序	-11.8752
以肝從	-11.8754
綢	-11.8754
孔頴達	-11.8754
夫之地	-11.8754
漕	-11.8755
腯	-11.8755
不命之士	-11.8756
羞進也	-11.8757
穆宗	-11.8757
侈袂	-11.8757
紡	-11.8757
孔氏穎達曰此明	-11.8757
蒼梧	-11.876
匰	-11.876
獻衆賔	-11.8761
警蹕	-11.8761
慶賀	-11.8762
喜怒	-11.8763
興賢能	-11.8764
祝酌奠	-11.8765
詹事	-11.8769
長養	-11.8771
應鐘	-11.8772
鴈行	-11.8775
六瑞	-11.8775
牀上	-11.8777
主人酬賓	-11.8778
異於生也	-11.878
乾魚	-11.8782
餘地	-11.8786
宿衞	-11.8789
吉拜	-11.879
軍旅㑹同	-11.8793
萬井	-11.8795
入户	-11.8795
安得有	-11.8796
請諡	-11.8797
授使者	-11.8797
祭祀志	-11.88
貴妃	-11.8805
伐木	-11.8806
在門西	-11.881
所以異於	-11.881
獻羔	-11.8811
掔	-11.8813
初昏	-11.8813
設官分職	-11.8813
啇	-11.8814
臣竊	-11.8814
六府	-11.8815
天寳	-11.8816
之氣乗之也	-11.8818
柝	-11.882
肆獻祼	-11.882
注正義曰案	-11.882
塲	-11.882
襯	-11.8821
中門之外	-11.8821
趺	-11.8822
㛰	-11.8822
畿内諸侯	-11.8822
納采問名	-11.8822
喚	-11.8824
以某妃配某氏	-11.8825
無可疑	-11.8826
闡	-11.8827
大祀天地于南郊	-11.8827
仂	-11.8827
裝	-11.8828
舁	-11.8828
誰能	-11.8828
為人父	-11.8828
詣罍洗	-11.8829
纚笄	-11.8831
哀公問	-11.8831
是故先王	-11.8831
未之聞	-11.8831
丙辰	-11.8832
以此推之	-11.8832
髙皇帝	-11.8832
野外	-11.8832
髙廟	-11.8833
裼裘	-11.8835
魯昭公	-11.8835
庚申	-11.8837
用柔日	-11.8839
百石	-11.884
大夫之妻	-11.884
中斗建	-11.8843
於是時	-11.8845
外孫	-11.8846
虎門	-11.885
成熟	-11.8851
太妃	-11.8852
旅擯	-11.8856
煎和	-11.8857
窮理	-11.8862
循其	-11.8863
仲遂	-11.8864
十餘年	-11.8866
習武	-11.8869
都宗人	-11.887
廣三寸	-11.8871
孔子弟子	-11.8872
慈己	-11.8874
西階西	-11.8874
度中旦	-11.8874
十二幅	-11.8876
笫	-11.8876
君襚	-11.8877
胡氏曰	-11.8878
月半	-11.8878
𤣥武	-11.888
歲實	-11.8881
引周禮	-11.8881
于禰	-11.8883
韓詩	-11.8884
葉氏	-11.8886
輔臣	-11.8888
聯事	-11.8889
安危	-11.8889
未暇	-11.889
相濟	-11.8893
天地之道	-11.8895
胡氏銓曰	-11.8896
在塗	-11.8896
柏車	-11.8896
稜	-11.8897
大司成	-11.8897
芸	-11.8897
龜筴	-11.8898
野廬氏	-11.8898
眞	-11.8899
柱楣	-11.8899
媺惡	-11.89
逡遁	-11.89
饗射	-11.89
㧞	-11.89
共工	-11.89
季康子	-11.8901
飲不勝者	-11.8901
掛	-11.8902
顔淵	-11.8902
褰	-11.8902
拂几	-11.8902
事死如事生	-11.8903
𤣥宗	-11.8903
幄帟	-11.8903
當室之白	-11.8904
特舉	-11.8905
屋漏	-11.8906
戊子	-11.8906
稌	-11.8907
尸卒爵	-11.8908
慈惠	-11.8908
文繡	-11.8908
不虧	-11.8911
伐鼓	-11.8912
牲牷	-11.8915
▁疏此	-11.8916
其山鎮曰	-11.8917
東流	-11.8919
輔氏曰	-11.8919
私獻	-11.8921
左庶子	-11.8923
第四十	-11.8923
輔相	-11.8925
名篇	-11.8926
連山	-11.8927
長吏	-11.8929
正二刻	-11.8929
洗西	-11.8929
掌舍	-11.893
青白	-11.8932
變通	-11.8936
薦爼	-11.8936
未審	-11.8937
臣於君	-11.8941
律呂	-11.8941
二鬴	-11.8947
與士同	-11.8949
霜降	-11.8952
未仕	-11.8952
媵爵者	-11.8953
聖人之道	-11.8953
徹豆	-11.8956
明水火	-11.8957
四十四	-11.8958
九斿	-11.8959
悼子	-11.896
廟祧	-11.8961
司尊彝	-11.8967
命去侯	-11.8967
禾稼	-11.8967
聦	-11.8967
萬家	-11.8968
未小斂	-11.8968
盡階不升堂	-11.897
秣	-11.897
逞	-11.8971
邾人	-11.8971
􁏐	-11.8972
怡	-11.8972
劇	-11.8973
奏陔	-11.8973
方之色	-11.8973
哀次	-11.8973
各為一	-11.8974
于是乎	-11.8975
矇	-11.8975
糓	-11.8975
二年八月	-11.8977
俯仰	-11.8978
扣	-11.8978
還音旋	-11.8979
懾	-11.898
揖遜	-11.8981
疵	-11.8981
驪姬	-11.8981
元年春正月	-11.8981
生育	-11.8983
丙申	-11.8984
濵	-11.8986
四籩	-11.8988
田百畝	-11.899
許多	-11.8991
舉動	-11.8994
初一刻	-11.8994
次詣	-11.8995
喪服小記曰	-11.8997
六節	-11.8997
己卯	-11.9001
豈容	-11.9002
乘禽	-11.9004
以式法	-11.9004
時候	-11.9006
不稽顙	-11.9009
何也盖	-11.9013
魯郊	-11.9015
祗候	-11.9015
於階下	-11.9017
盛饌	-11.9018
非其人	-11.9019
各就其	-11.902
無以異	-11.902
以下皆再拜	-11.902
列位	-11.9022
案下文	-11.9022
車僕	-11.9024
孝思	-11.9024
慶府	-11.9025
犯命	-11.9025
。3.	-11.9027
北壁	-11.9029
賔館	-11.9032
壎	-11.9036
鄉飲鄉射	-11.9039
韐	-11.9041
授從者	-11.9046
上公九命	-11.9046
蹶	-11.9047
髲	-11.9048
詆	-11.9048
百寮	-11.9048
屛	-11.9048
觥	-11.905
甎	-11.905
蔥	-11.9051
葵菹	-11.9052
振祭嚌之	-11.9052
擊柝	-11.9053
晡	-11.9054
聴命	-11.9055
如邦人	-11.9055
譁	-11.9055
盧植	-11.9055
升歌清廟	-11.9055
構	-11.9056
西序端	-11.9056
理㑹	-11.9057
儗	-11.9058
脾析	-11.9059
今文曰	-11.9059
子栁	-11.906
漆車	-11.9062
妾祖姑	-11.9062
女奴	-11.9065
大司寇	-11.9066
宗彝	-11.9066
䘮服小記	-11.9068
靈鼓	-11.9068
中庭北面	-11.9069
未足以	-11.9072
司士掌	-11.9076
奔喪禮	-11.9077
移民	-11.9077
各以其所	-11.9082
當是時	-11.9084
誠心	-11.9085
有隆殺	-11.9086
車輪	-11.9088
湖廣	-11.9091
東南隅	-11.9095
惠帝	-11.91
一獻之禮	-11.91
相尊敬	-11.9103
第三十	-11.9103
官員	-11.9104
勇反	-11.9104
祫享	-11.9104
綃衣	-11.9107
摘	-11.911
氣志	-11.911
箕子	-11.9111
酌盎齊	-11.9111
感生帝	-11.9115
頖	-11.9117
司烜	-11.9118
湅	-11.9118
嶡	-11.912
不舉樂	-11.912
訴	-11.9121
紖	-11.9121
禇	-11.9122
綠	-11.9125
以韋為之	-11.9127
軟	-11.9127
喪祭之禮	-11.9127
為方百里者	-11.9127
馮相氏	-11.9128
孝悌	-11.9128
運行	-11.9128
亞終獻	-11.9131
下放此	-11.9133
東門之外	-11.9134
掌其禁令	-11.9134
金縢	-11.9134
麇	-11.9134
筵席	-11.9135
亞祼	-11.9135
十有九	-11.9136
親而不尊	-11.9138
喪服記	-11.9138
潤澤	-11.9138
縵樂	-11.9138
賓與大夫	-11.9139
於大門外	-11.9144
字或作	-11.9147
小兒	-11.9149
親之心	-11.9151
千三百	-11.9152
上香	-11.9152
疾醫	-11.9154
季友	-11.9156
禮部侍郎	-11.9157
未見其	-11.9157
六耦	-11.9159
祔葬	-11.9165
師旅	-11.9166
六品	-11.9167
十五分	-11.9168
全書	-11.9168
齊斬之	-11.9173
忠孝	-11.9174
未必然	-11.9175
赴告	-11.9175
萬九千	-11.9177
大衍	-11.9177
施之於	-11.9181
肅宗	-11.9182
掌王后	-11.9183
主人拜賔	-11.9183
以素為	-11.9186
有明文	-11.9187
諸侯自相	-11.919
盛黍稷	-11.9193
司尊彞	-11.9195
瑶	-11.9195
比毗志反	-11.9196
大中祥符	-11.9198
椽	-11.9199
車輦	-11.9199
郷人	-11.92
沴	-11.92
閽寺	-11.92
椸	-11.92
用茅	-11.9201
廓	-11.9202
報本反始	-11.9202
肉湆	-11.9203
斉	-11.9203
仭	-11.9203
優劣	-11.9203
鶴	-11.9204
㤀	-11.9204
食肉飲酒	-11.9208
籑	-11.9209
以西為上	-11.9209
幡	-11.9209
獺祭魚	-11.921
出請入告	-11.9212
未𦵏	-11.9212
階西東面	-11.9212
戸牖	-11.9213
𤣥㝠	-11.9214
蝸	-11.9215
質素	-11.9216
如上儀	-11.9217
兄弟之妻	-11.9217
敝邑	-11.9219
於此時	-11.9219
轉運	-11.922
門右北面	-11.9221
又明日	-11.9222
脱屨	-11.9224
祭鉶	-11.9226
載旜	-11.9228
己身	-11.9231
比類	-11.9231
三升半	-11.9234
河南府	-11.9235
諸篇	-11.9236
文王廟	-11.9238
不敢斥	-11.9238
中從下	-11.924
田僕	-11.9244
登堂	-11.9246
周禮大宗伯	-11.9246
不下堂	-11.9247
黄門	-11.9247
問疾	-11.9247
耆欲	-11.9248
緯書	-11.9251
白黑	-11.9251
往来	-11.9253
五十歩	-11.9254
世禄	-11.9261
顯著	-11.9263
奪情	-11.9264
棺束	-11.9267
在西郊	-11.9268
宣宗	-11.9268
若然此	-11.9271
舞大夏	-11.9273
相識	-11.9273
謖	-11.9274
六簋	-11.9276
葉氏夢得曰	-11.9278
驅逆之車	-11.9279
司諫	-11.9279
斯民	-11.928
乱	-11.9281
鐡	-11.9281
大羹	-11.9281
煥	-11.9282
西郊	-11.9282
遁	-11.9282
驚蟄	-11.9284
初初刻	-11.9285
澡麻	-11.9285
皓	-11.9285
黒色	-11.9287
垂拱	-11.9288
君與夫人	-11.9289
不可不慎	-11.9289
二尺五寸	-11.9291
天地四時	-11.9294
羣有司	-11.9294
澗	-11.9295
成童	-11.9295
女之父母	-11.9296
所識	-11.9297
祭羣小祀	-11.9297
元年二月	-11.9299
一人而已	-11.9299
罔極	-11.93
古亂反	-11.93
正歳	-11.9302
嬰齊	-11.9302
大烖	-11.9303
作起也	-11.9304
躬親	-11.9306
故繼之以	-11.9307
布總	-11.931
鬯酒	-11.931
泰壇	-11.9315
所㑹	-11.9316
太祖太宗	-11.9316
祖之所自出	-11.9323
盧氏	-11.9325
末介	-11.9327
司約	-11.9334
帗	-11.9335
一箇	-11.9339
重其事	-11.934
諸太祝	-11.934
廋人	-11.9344
羊肉湆	-11.9346
東塾	-11.9347
札喪	-11.9348
父老	-11.9349
奠爵于篚	-11.9352
袤	-11.9352
最重	-11.9352
户部	-11.9353
傋	-11.9354
渥	-11.9354
甸稍縣都	-11.9355
奠摯	-11.9355
愚按此	-11.9355
涖臨也	-11.9355
寃	-11.9356
以當邦賦	-11.9356
禺	-11.9356
董仲舒	-11.9357
蟜	-11.9357
鈇鉞	-11.9358
無服之殤	-11.936
􁈘	-11.936
老幼	-11.9361
節服氏	-11.9361
䰞	-11.9362
莱	-11.9362
箭笄	-11.9364
賈誼	-11.9365
禮神之玉	-11.9365
忠恕	-11.9366
禒衣	-11.9366
籩豆簠簋	-11.9367
羽旄	-11.9367
分寸	-11.9368
尊卑之差	-11.937
先行燕禮	-11.9371
中曉	-11.9373
失其義	-11.9374
京城	-11.9374
拜君命	-11.9382
未知其	-11.9382
司儀云	-11.9383
臨朝	-11.9384
九十弓	-11.9388
失其所	-11.9389
卜宅	-11.939
加于俎	-11.9391
不告㫖	-11.9392
和之樂	-11.9394
黒屨	-11.9394
儐使者	-11.9395
共奉之	-11.9397
門外之西	-11.9398
北洗	-11.94
古外反	-11.9405
北海	-11.9409
七絃	-11.9412
内贊奏	-11.9413
来聘	-11.9415
年老	-11.9416
主人再拜稽首	-11.9416
聖人因	-11.9418
肺肝	-11.9421
悖逆	-11.9421
尊卑異	-11.9423
百乘	-11.9425
耦射	-11.9425
㝷	-11.9428
懌	-11.943
徐邈	-11.943
卝	-11.9432
邦交	-11.9433
惡笄	-11.9434
篪	-11.9434
周氏諝曰	-11.9436
啜	-11.9436
勞逸	-11.9437
售	-11.9437
八蜡	-11.9438
圍去一	-11.9439
輮	-11.9439
蚩尤	-11.9439
拜其辱	-11.9439
氾	-11.9441
奉君命	-11.9442
羔豚	-11.9443
太樂令	-11.9445
巡行	-11.9448
秘書	-11.9449
緡	-11.945
閉塞	-11.9451
賢不肖	-11.9453
加一命	-11.9453
瑞玉	-11.9463
􁐋)	-11.9464
坐委	-11.9465
未仕者	-11.9467
相離	-11.9473
加環絰	-11.9474
簡稽	-11.9478
永平	-11.9479
酬酒	-11.9482
非禮不	-11.9483
親廟四	-11.9483
五采玉	-11.9485
東萊	-11.9487
出戸	-11.9487
泗水	-11.949
吕刑	-11.9491
遂從之	-11.9491
成之曲	-11.9492
罇二	-11.9492
姑之子	-11.9494
朝會	-11.9495
庫門内	-11.9499
專掌	-11.9505
宼	-11.951
年十五	-11.951
減殺	-11.9512
換	-11.9512
上尊號曰	-11.9512
朂	-11.9513
公薨	-11.9514
麛裘	-11.9514
罽	-11.9514
褧	-11.9516
于户西	-11.9516
祀竈	-11.9516
叱	-11.9516
仲尼燕居	-11.9517
㲈	-11.9517
䄠	-11.9517
蹇	-11.9518
撟	-11.9518
祈年	-11.9519
顙	-11.952
明史禮志	-11.952
兩階之間	-11.9521
麴	-11.9521
焞	-11.9521
干盾	-11.9522
開皇	-11.9525
皇祐	-11.9526
溝瀆	-11.9528
下大夫四人	-11.953
歌清廟	-11.953
注釋曰先鄭	-11.9532
隋唐	-11.9534
平原	-11.9537
金史	-11.9537
孰能	-11.9537
判官	-11.954
矢箙	-11.9541
顯慶	-11.9541
鬱金	-11.9542
媵御	-11.9545
宫架	-11.9548
仍舊	-11.9548
執匕	-11.9549
再醮	-11.9551
天子諸矦	-11.9552
釋曰自此至	-11.9555
黍稷稻粱	-11.9555
鄉邑	-11.9555
奠菜	-11.9561
𢎞治	-11.9562
冠昬	-11.9563
田禄	-11.9568
一百四十	-11.9569
各得其所	-11.9578
旁殺	-11.9579
酌醴齊	-11.9581
左衽	-11.9583
救日	-11.9584
楚師	-11.9585
肖	-11.9586
杜蕢	-11.9588
定天下	-11.9589
酋矛	-11.959
豳詩	-11.959
皇姑	-11.959
齊莊	-11.9591
登其夫家	-11.9592
敬之至	-11.9593
卷一百	-11.9593
正弦	-11.9593
無聲之樂	-11.9593
逓	-11.9593
君不親	-11.9593
椹	-11.9594
輔氏廣曰	-11.9595
秸	-11.9595
次賔羞	-11.9596
跋	-11.9596
縦	-11.9596
閫	-11.9597
飪一牢	-11.9597
夷矛	-11.9597
稀	-11.9598
位卑	-11.9598
愁	-11.9599
犯軷	-11.9599
佗	-11.9599
瑚	-11.9599
怠惰	-11.9602
抄	-11.9602
詡	-11.9603
下畔	-11.9605
加于肵	-11.9605
黔	-11.9605
贊者承傳	-11.9606
横渠	-11.9606
濮王	-11.9606
彈琴	-11.9606
此三事	-11.9607
汴	-11.9608
案喪服	-11.9608
衞侯	-11.9609
繅席	-11.961
如主人服	-11.9611
司嗇	-11.9612
菹豆	-11.9613
薦豆籩	-11.9617
壻家	-11.9617
禘黄帝	-11.9618
㑹典	-11.962
年月日	-11.9621
幾何	-11.9626
轉移	-11.9629
未練	-11.963
厭冠	-11.963
執轡	-11.9631
與此不同者	-11.9633
衮衣	-11.9634
卑幼	-11.9638
十有八	-11.964
討論	-11.9641
拜稽首	-11.9645
扱地	-11.9646
嫁於大夫	-11.9651
與天地同	-11.9655
右第	-11.966
羣小祀	-11.9661
北南向	-11.9662
先王因	-11.9664
矣而又	-11.9667
疚	-11.967
磬師	-11.9671
瑣	-11.9671
賖	-11.9673
􁆴	-11.9674
昃	-11.9675
齊側皆反	-11.9676
詎	-11.9676
九夫為井	-11.9677
椹質	-11.9677
俊選	-11.9678
鹿臡	-11.9678
芥	-11.9679
啓蟄	-11.968
未知孰是	-11.968
召誥	-11.9681
潜	-11.9681
蓐	-11.9682
不可過	-11.9683
通論陳氏祥道曰	-11.9684
春朝	-11.9684
周禮注疏卷	-11.9684
十九分	-11.9684
特豕	-11.9685
敖繼公云	-11.9686
鄆	-11.9687
尊罍	-11.9688
異爵者	-11.9692
臆説	-11.9692
未之有也	-11.9692
裳色	-11.9694
鄢	-11.9696
衆賓長	-11.9696
見于君	-11.9697
虚危	-11.97
賜諡	-11.9702
司宮	-11.9702
十七度	-11.9704
沈氏	-11.9704
敢問	-11.9704
吾聞	-11.9708
車戰	-11.9713
于坫	-11.9718
三日而殯	-11.9719
其至也	-11.9721
功烈	-11.9723
距地	-11.9728
十三日	-11.973
迎送	-11.9734
五斗	-11.9735
其所欲	-11.9736
奉神主	-11.9737
所厭	-11.9737
忠厚	-11.9738
五个	-11.9741
選擇	-11.9744
剏	-11.9752
房中之羞	-11.9752
窻	-11.9753
縈	-11.9754
陵寢	-11.9754
從才用反	-11.9754
曰孝孫某	-11.9755
太常禮院	-11.9755
主人獻賔	-11.9756
九嬪世婦	-11.9759
彄	-11.9759
􁈹	-11.9759
讇	-11.976
出自東房	-11.976
非所以為	-11.9761
𤯝	-11.9761
隻	-11.9762
麤細	-11.9762
谿	-11.9765
息老物	-11.9765
淪	-11.9767
開封府	-11.9769
棜禁	-11.977
吕氏春秋	-11.977
暘	-11.9771
析木	-11.9771
焚香	-11.9772
司業	-11.9773
有多寡	-11.9773
元年十一月	-11.9776
刑戮	-11.9781
各隨其	-11.9782
象生時	-11.9782
司險	-11.9782
左𫝊	-11.9789
鄭讀	-11.9789
忘哀	-11.9794
結上文	-11.9796
吏治	-11.9799
親酌	-11.9799
一級	-11.98
折爼	-11.9804
定陶	-11.9806
饗食燕	-11.9807
從祖祖父	-11.9809
致太平	-11.981
四方之神	-11.9811
復寢	-11.9814
王廵守	-11.9821
建隆	-11.9822
七十弓	-11.9822
敢問何	-11.9824
消長	-11.9826
驁	-11.9829
拚	-11.9833
躋僖公	-11.9836
籔	-11.9837
春夏秋冬	-11.9838
奉先殿	-11.9838
南北以堂深	-11.9839
菅屨	-11.9839
聚柝	-11.9839
祭于豆間	-11.984
旱暵	-11.984
葺	-11.984
稅衣	-11.984
粻	-11.984
彚	-11.9841
渙	-11.9841
司干	-11.9841
盲	-11.9842
慙	-11.9845
季札	-11.9846
逝	-11.9847
飴	-11.9847
東楹之西	-11.9847
在四郊	-11.9848
牂	-11.9849
殤與無後	-11.9851
招摇	-11.9852
蘇氏	-11.9853
孝經緯	-11.9854
哀子某	-11.9855
大赦	-11.9855
每室	-11.9856
之外又有	-11.9856
太祖本紀	-11.9857
嵗一見	-11.9857
弟妻	-11.9862
夜半	-11.9863
索鬼神	-11.9864
周禮地官	-11.9865
聚斂	-11.9865
左肩	-11.9866
南郷	-11.9869
親蠶	-11.9873
越席	-11.9874
路門之外	-11.9874
卒斂	-11.9875
梁州	-11.9876
漢武帝	-11.9877
終身不	-11.9878
正義曰案	-11.9878
於壇上	-11.9878
司馬法曰	-11.9878
雜色	-11.9879
北牖下	-11.988
俟時而	-11.9889
御柩	-11.9892
不迎尸	-11.9892
聲相近	-11.9895
緯度	-11.9898
何疑	-11.9902
賢否	-11.9903
三分寸之一	-11.9903
異其名	-11.9904
上个	-11.9906
判縣	-11.991
鍚	-11.9913
匹夫	-11.9913
肌	-11.9916
風化	-11.9921
緆	-11.9921
以為民極	-11.9921
豺	-11.9922
律厯志	-11.9922
去起吕反	-11.9922
均其稍食	-11.9922
散帶垂	-11.9922
朱子語類	-11.9924
彖	-11.9925
方嶽	-11.9928
陔夏	-11.9928
其職云掌	-11.9932
養國老	-11.9933
閟宫	-11.9933
詩書禮樂	-11.9934
衝牙	-11.9937
小國之卿	-11.994
赤帝	-11.9943
帝即位	-11.9947
吉禘	-11.995
以授主婦	-11.9952
嘗羞	-11.9954
自此始	-11.9955
擯者辭	-11.9956
牀笫	-11.9956
猶去也	-11.9957
㑹聚	-11.9961
福禄	-11.9963
晉語	-11.9972
度支	-11.9972
男女之别	-11.9973
告㫖	-11.9977
九棘	-11.9979
斟	-11.9983
譬如	-11.9986
魚麗	-11.9987
前二日	-11.9987
軍将	-11.9987
奠玉幣	-11.9988
焫蕭	-11.9996
景靈宫	-11.9997
咡	-11.9997
恙	-11.9997
轛	-11.9997
𤣥衣纁裳	-12
挟	-12
鉉	-12.0001
邈	-12.0003
卞	-12.0003
加灰	-12.0004
文宣王	-12.0004
期而小祥	-12.0004
屨無絇	-12.0007
曩	-12.0008
堤	-12.0009
寖	-12.0009
膷臐膮	-12.0009
淖	-12.0009
交擯三辭	-12.001
燕出入	-12.0011
五禮通考卷二百	-12.0012
所生母	-12.0013
燮	-12.0014
太極	-12.0014
丈夫踊	-12.0017
左僕射	-12.0021
鄭答	-12.0021
田税	-12.0025
司稼	-12.0028
筋力	-12.0028
太常卿奏請	-12.0029
黨服	-12.003
如字徐	-12.003
自然之理	-12.0031
長七寸	-12.0032
亦可謂之	-12.0046
禮記王制	-12.0047
西階之西	-12.0048
户西南面	-12.0053
於人心	-12.0053
加麻	-12.0055
祼圭	-12.0055
行聘享	-12.0057
私館	-12.0058
總結	-12.0059
神恵	-12.0062
荀卿	-12.0062
繒為之	-12.0067
疾徐	-12.0071
駱	-12.0073
郭氏曰	-12.0074
教灋	-12.0075
弑君	-12.0077
蜎	-12.008
揺	-12.0082
哨	-12.0084
旬有一日	-12.0084
六畜車輦	-12.0084
國子之倅	-12.0086
布憲	-12.0087
伉	-12.0087
致膳	-12.0088
縂	-12.0088
當前束	-12.0088
千古	-12.0089
腠	-12.0091
絞紟衾	-12.0091
槃匜	-12.0091
足以盡	-12.0092
萑席	-12.0094
淨	-12.0094
䕃	-12.0094
眩	-12.0095
渝	-12.0095
司烜氏	-12.0096
􁊾	-12.0096
婺	-12.0097
導引	-12.0097
二百一十六	-12.0098
堲周	-12.0099
苴麻	-12.0103
本於天	-12.0104
潁川	-12.0105
挂	-12.0105
韲	-12.0106
息司正	-12.0107
形象	-12.0109
湯武	-12.011
呂氏曰	-12.011
疑惑	-12.011
憂戚	-12.0112
斧依	-12.0114
積石	-12.0119
蒼龍	-12.012
舉麾	-12.0123
為二率	-12.0125
許氏	-12.0125
冡人	-12.013
猶善也	-12.0133
主人之左	-12.0149
梁山	-12.015
躔	-12.0153
逺别	-12.0159
房室	-12.0159
。《	-12.0161
盬	-12.0168
别尊卑	-12.0169
乗墨車	-12.0169
坦	-12.017
彭蠡	-12.0172
禮記集說卷	-12.0172
存異鄭氏康成曰	-12.0173
案此下	-12.0173
禘郊祖宗	-12.0173
薺	-12.0173
誓衆	-12.0173
悽愴	-12.0174
澆	-12.0174
鎬京	-12.0175
無妨	-12.0175
飱牽	-12.0177
天地之和	-12.0177
長五尺	-12.0179
伐紂	-12.0179
娣姒婦	-12.0183
凡祭祀共	-12.0183
舜禹	-12.0184
趙文子	-12.0186
有故而	-12.0189
卿六命	-12.0189
南嚮	-12.0191
公子之妻	-12.0194
阻固	-12.0196
堂下之樂	-12.0196
瑑飾	-12.0198
西方東面北上	-12.02
擯者告	-12.0203
滄	-12.0204
太卜	-12.0206
質正也	-12.0208
毎月	-12.0208
黄鍾之宫	-12.0209
第十三	-12.0209
輪崇	-12.0213
薛氏	-12.0223
衰三升	-12.0225
母之黨服	-12.0225
僕人正	-12.0228
韓侯	-12.0235
故特言	-12.0237
而斗建	-12.0238
帝堯	-12.0241
綱紀	-12.0245
以此而言	-12.0246
世叔父母	-12.0246
主人之吏	-12.025
鑚	-12.0252
景皇帝	-12.0253
觵	-12.0254
拾取	-12.0254
圭璋璧琮	-12.0254
鏗	-12.0254
鑽	-12.0255
掌建邦之	-12.0255
竊意	-12.0256
詒	-12.0256
四十七	-12.0257
兑	-12.0258
靁	-12.0258
爵祿	-12.0258
縁衣	-12.0258
來觀禮	-12.0258
駹	-12.0259
黼裘	-12.026
汲汲	-12.026
父母妻長子	-12.026
刳	-12.0261
稠	-12.0261
散垂	-12.0262
泯	-12.0263
暉	-12.0263
農功	-12.0264
髙祖之父	-12.0264
誑	-12.0265
五家為比	-12.0265
秬黍	-12.0265
參分庭一在南	-12.0266
穡	-12.0267
匈奴	-12.0267
衣領	-12.0268
螢	-12.0269
罹	-12.0269
卒哭成事	-12.027
執皮帛	-12.027
孝經云	-12.0271
晝漏	-12.0271
嶽鎮海瀆	-12.0271
杅	-12.0272
豳風	-12.0273
大臠	-12.0275
西向北上	-12.0277
東西廂	-12.0278
文王世子云	-12.028
東面致命	-12.0283
棺柩	-12.0284
災傷	-12.0287
苴杖	-12.0288
徐趨	-12.0298
東西之中	-12.0298
東夷	-12.0299
羊豕魚腊	-12.0299
詳議	-12.03
方壺	-12.0301
祖庶母	-12.031
祫禘	-12.0316
戴聖	-12.0324
各象其	-12.0329
斬衰章	-12.0329
致潔	-12.0331
子臯	-12.0338
觀此則	-12.0339
朔月月半	-12.0339
􁇲	-12.0341
剔	-12.0341
揄翟	-12.0342
黝堊	-12.0343
君子小人	-12.0343
釘	-12.0343
食菜果	-12.0343
饎爨	-12.0344
棺飾	-12.0344
洗在北堂	-12.0344
散騎常侍	-12.0345
三分損益	-12.0345
晁	-12.0347
蠯	-12.0348
郕	-12.0348
疈辜	-12.0349
崔靈恩	-12.035
道而行	-12.035
景祐	-12.035
三公八命	-12.0351
雹	-12.0351
宋史天文志	-12.0351
忝	-12.0353
凷	-12.0354
瞽瞍	-12.0355
鄉遂大夫	-12.0355
五世則遷	-12.0357
俊士	-12.0358
賈師	-12.0358
西階之東	-12.0359
充滿	-12.0362
于大廟	-12.0362
一尺八寸	-12.0363
乾豆	-12.0364
素几	-12.0365
人情之所	-12.0365
司射之南	-12.0365
留守	-12.0368
災害	-12.037
陰厭	-12.0371
降二等	-12.0372
無服之喪	-12.0373
墳衍	-12.0374
桓圭	-12.0376
參軍	-12.0383
緩刑	-12.0386
降輿	-12.0387
陳澔曰	-12.0389
握手	-12.039
祧廟	-12.039
可食者	-12.0393
第十一	-12.04
司救	-12.0403
賞田	-12.0405
左右前後	-12.0409
車一乗	-12.0412
甫刑	-12.0413
郭氏	-12.0414
濩	-12.0416
羽毛	-12.0419
布絞	-12.0422
盝	-12.0423
五分去一	-12.0426
諦	-12.0428
四圭有邸	-12.0428
覸	-12.0428
禘其祖之所自出	-12.0428
扃鼏	-12.0431
驩	-12.0431
恂	-12.0432
堩	-12.0436
王居明堂禮	-12.0436
平邦國	-12.0437
髺髮	-12.0439
知音智	-12.044
恬	-12.044
河間獻王	-12.044
芝	-12.0441
璁	-12.0441
毁瘠	-12.0441
夏至日	-12.0442
鋌	-12.0442
圜壺	-12.0445
從祖父	-12.0447
其餘則否	-12.0447
父母兄弟	-12.0448
邳	-12.0449
通論孔氏穎達曰	-12.045
辭不得命	-12.045
何以知之	-12.0452
禫月	-12.0455
爵韋	-12.0456
大功之殤	-12.0456
師傅	-12.0457
記禮者	-12.046
十丈	-12.046
與彼同	-12.0463
麻葛	-12.047
北面北上	-12.0476
先王之制禮	-12.0476
陳明器	-12.0488
孤卿大夫士	-12.0489
子罕	-12.0491
禮樂之器	-12.0491
王與諸侯	-12.0492
之律應	-12.0497
化育	-12.0499
鄕射	-12.0504
廬舍	-12.0506
邕	-12.0511
肫胳	-12.0512
爼豆	-12.0513
鼛	-12.0514
何也葢	-12.0514
共粢盛	-12.0515
北向西上	-12.0515
執幂者	-12.0515
薦血腥	-12.0517
再拜送	-12.0517
洗升實觶	-12.0519
搢三挾一个	-12.0519
禮記集説卷	-12.0519
廼	-12.0519
桀紂	-12.052
靧	-12.0521
桷	-12.0521
負薪	-12.0522
皡	-12.0522
蘓	-12.0522
哭不絶聲	-12.0523
祛	-12.0523
畫龍	-12.0523
君之尊	-12.0523
規模	-12.0524
嗣舉奠	-12.0526
斑	-12.0526
茫	-12.0527
骴	-12.0527
嘉祐	-12.0528
建焉而辰在	-12.0528
錮	-12.0528
劬	-12.0529
餘方百里者	-12.0529
體敵	-12.0529
桓楹	-12.053
繁纓	-12.0532
靈星	-12.0532
之辰也	-12.0533
夷盤	-12.0533
刌肺	-12.0536
如前儀	-12.0536
詛祝	-12.0544
奉天殿	-12.055
升西階	-12.0554
羨道	-12.0556
入公門	-12.0559
獻尸尸	-12.0561
衣而養老	-12.0561
條目	-12.0566
賦稅	-12.0571
兄弟之服	-12.0572
恒矢	-12.0573
告飽	-12.0575
練而歸	-12.0578
退反位	-12.0578
于阼階下	-12.0582
哭無時	-12.0586
其徳行	-12.0587
冠笄	-12.0589
丘乗	-12.059
面枋	-12.06
之氣乘之也	-12.06
􁀎	-12.0601
戴徳	-12.0604
莫知其	-12.0604
廣二尺	-12.0606
匄	-12.0606
床	-12.0608
恢	-12.0608
樴	-12.0609
釋曰此經	-12.0609
哀未忘	-12.0609
鳯凰	-12.0611
怵	-12.0611
日有食之	-12.0611
鬽	-12.0612
庋	-12.0612
簨虡	-12.0613
捐	-12.0613
戊戌	-12.0614
黃氏曰	-12.0614
淇	-12.0615
天駟	-12.0617
剰	-12.0618
肸	-12.0619
肄習	-12.062
士一命	-12.0622
釁廟	-12.0623
十二旒	-12.0627
年春二月	-12.0629
轂末	-12.063
奠贄	-12.0634
豹侯	-12.0636
冶氏	-12.0638
四夷之樂	-12.0639
羊鉶	-12.0641
某官某	-12.0643
東京	-12.0644
品節	-12.0644
御幄	-12.0645
遷主藏	-12.0646
伯叔父	-12.0652
二十九日	-12.0653
岐山	-12.0653
告旨	-12.0655
八十里	-12.0657
藪澤	-12.067
門外東方	-12.0671
飲訖	-12.0671
誦詩	-12.0673
夏禹	-12.0674
叄	-12.0676
司儀職	-12.0676
闗雎	-12.0685
禎	-12.0689
臬	-12.0691
翹	-12.0692
瀦	-12.0693
曵	-12.0693
聽誓	-12.0694
右旋	-12.0694
有似於	-12.0694
醷	-12.0694
桎梏	-12.0696
脆	-12.0697
吏部尚書	-12.0697
無體之禮	-12.0697
稔	-12.0697
罍水	-12.0697
西牆下	-12.0698
君行一臣行二	-12.0698
裙	-12.0698
朗	-12.0699
洎	-12.0701
適士二廟	-12.0702
瘦	-12.0702
象觚	-12.0702
遯	-12.0702
陳及之曰	-12.0703
治直吏反	-12.0703
窬	-12.0703
璋瓉	-12.0703
崧	-12.0703
献	-12.0704
存疑賈氏公彦曰	-12.0704
腶脩	-12.0704
薑	-12.0705
園圃	-12.0705
繻	-12.0706
杜佑	-12.0706
紾	-12.0706
剖	-12.0707
編磬	-12.0709
失節	-12.0709
宰我	-12.0711
司虣	-12.0711
反又如字	-12.0712
西南隅	-12.0713
禕衣	-12.0713
奠於篚	-12.0714
沭	-12.0714
衰八升	-12.0716
羊燔	-12.0718
兩髀	-12.0719
逺邇	-12.072
于户内	-12.0721
一百五十	-12.0725
案曲禮云	-12.0726
敖說	-12.0733
聖人之所	-12.074
月而禫	-12.0742
糾察	-12.0743
地勢	-12.0749
滎陽	-12.0751
餘弦	-12.0757
戒百官	-12.0759
六彛	-12.076
雲漢	-12.0762
百穀	-12.0764
餕餘	-12.0772
曲裾	-12.0778
姦聲	-12.0778
在位者皆	-12.078
覃	-12.0781
疥	-12.0785
逵	-12.0785
趙商問	-12.0787
欵	-12.0788
直室東隅	-12.0788
盂	-12.0789
葉氏曰	-12.0789
十八度	-12.0789
媿	-12.0789
入門而右	-12.0789
挋	-12.0789
强有力	-12.0791
縓縁	-12.0791
夾庾	-12.0791
泠	-12.0791
郯	-12.0791
禘嚳	-12.0792
呉氏澄曰	-12.0793
博三寸	-12.0793
汧	-12.0794
中士二人下士四人府二人史二人	-12.0795
器皿	-12.0795
朝覲宗遇	-12.0797
薊	-12.0798
年秋八月	-12.0798
窟	-12.0801
跨	-12.0801
簟席	-12.0802
彩	-12.0803
薦血	-12.0806
王及后	-12.0806
瓦棺	-12.0806
衙	-12.0809
誦訓	-12.081
傳寫	-12.0815
衛尉	-12.0815
夾鐘	-12.0815
説文作	-12.0819
年河決	-12.0819
祈雨	-12.0821
用太牢	-12.0823
門内之右	-12.0823
白舄	-12.0824
案喪大記	-12.0825
詩頌	-12.0826
裘冕	-12.0827
坡	-12.0828
君與臣	-12.083
校比	-12.0831
守王宫	-12.0833
巾覆	-12.0834
故明之	-12.0834
轂長	-12.0834
致詞	-12.0845
籥舞	-12.0847
參考	-12.0847
天地隂陽	-12.085
啓㑹	-12.085
未許嫁	-12.0851
五架	-12.0851
每歲	-12.0859
遺體	-12.0859
雅樂	-12.086
。4.	-12.0863
比耦	-12.0864
長一尺	-12.0869
日南至	-12.0869
霆	-12.0875
舅之子	-12.0875
細切	-12.0876
伶	-12.0876
尚書大傳	-12.0876
重直龍反	-12.0878
𧖟	-12.0878
顛倒	-12.0879
司刺	-12.0879
洗升酌	-12.088
縪	-12.088
妾為女君	-12.0881
苐	-12.0881
天皇大帝	-12.0882
悝	-12.0882
遷廟之主	-12.0883
阜蕃	-12.0883
貊	-12.0883
諛	-12.0884
栽	-12.0885
於序端	-12.0885
闓	-12.0885
建丑	-12.0885
白布深衣	-12.0886
户牖間	-12.0886
漠	-12.0886
疾疫	-12.0887
交於神明	-12.0887
束髪	-12.0888
綅	-12.0889
四枚	-12.0891
勝國之社	-12.0893
視朝之服	-12.0893
截然	-12.0893
藪牧	-12.0895
置閏	-12.0895
五常之	-12.0895
雞鳴	-12.0898
引之證	-12.0899
白布冠	-12.0899
車之輪	-12.0901
良善也	-12.0902
志慮	-12.0912
碣	-12.0914
求諸陽	-12.0915
沂水	-12.0915
封域	-12.0922
統於尊	-12.0923
潔白	-12.0929
先王之道	-12.093
荀卿曰	-12.0939
存疑孔氏穎達曰	-12.0939
門下侍郎	-12.094
徑一尺	-12.0941
聶氏	-12.0941
祖顓頊	-12.0956
第十二	-12.0959
祕	-12.0962
祴	-12.0962
鷖	-12.0963
翿	-12.0965
翻	-12.0969
瘍醫	-12.0969
大學在郊	-12.0971
睦婣	-12.0971
屬音燭	-12.0971
芥醬	-12.0973
仄	-12.0973
溝渠	-12.0973
下士二人府一人史一	-12.0974
埒	-12.0975
折衷	-12.0975
吟	-12.0976
幎目	-12.0977
鮒	-12.0977
尸酢主婦	-12.0978
不亦可乎	-12.0978
門東北面西上	-12.0978
韔	-12.0979
雋	-12.0979
吹笙	-12.0979
道揆	-12.098
棠	-12.0981
命於其君	-12.0981
之本意	-12.0981
洋	-12.0982
鬰鬯	-12.0983
伍長	-12.0984
轐	-12.0985
二以並	-12.0987
繫世	-12.0987
立四廟	-12.0989
柴望	-12.0991
救日月	-12.0992
注及下同	-12.0994
得與於祭	-12.0995
去王城	-12.0997
埽除	-12.1002
喝	-12.1002
南北郊	-12.1002
温良	-12.1003
寢疾	-12.1009
伯叔父母	-12.1011
陸佃曰	-12.1012
祭酺	-12.1015
于壇上	-12.1017
南嶽	-12.1017
西階東北面	-12.1024
郊丘	-12.1028
天子至士	-12.1028
少傅	-12.1029
七十五人	-12.103
宗彛	-12.1037
春秋左氏傳	-12.104
南流至	-12.1042
追享	-12.1045
玉海	-12.1048
敦厚	-12.1052
條狼氏	-12.1058
儀禮經傳通解	-12.1058
懽	-12.1059
竪	-12.106
送迎	-12.1061
薛平仲曰	-12.1061
沾	-12.1061
侏	-12.1061
篠	-12.1062
射鳥氏	-12.1065
當事則弁絰	-12.1065
說文云	-12.1065
薤	-12.1065
疈	-12.1066
椒	-12.1067
韭菹醓醢	-12.1067
奏外辦	-12.1067
軰	-12.1067
茹	-12.1068
矰矢	-12.1068
琬圭	-12.1069
焚萊	-12.1069
唁	-12.1069
評	-12.1069
不亦宜乎	-12.1069
浚	-12.1072
裁制	-12.1072
考績	-12.1072
䜛	-12.1072
魏文侯	-12.1073
尸未入	-12.1073
丈三尺	-12.1075
莘	-12.1076
割亨	-12.1076
中士二人下士四人府二人史	-12.1077
絃散聲	-12.1077
血腥	-12.1079
寡君使某	-12.108
香案前	-12.1081
葛絰帶	-12.1081
流沙	-12.1084
宴羣臣	-12.1085
注及下	-12.1091
門外之右	-12.1094
年七十	-12.1095
月而卒哭	-12.1101
别為一	-12.1105
享於太廟	-12.1108
用騂	-12.1109
土方氏	-12.1119
稽考	-12.1123
諸侯朝天子	-12.1129
降下也	-12.1131
元年三月	-12.1132
所由興	-12.1133
。2.	-12.1134
候氣	-12.1141
鉤邊	-12.1141
茆	-12.1143
婦事舅姑	-12.115
変	-12.1151
唾	-12.1152
和鸞	-12.1153
持弓矢審固	-12.1154
攜	-12.1154
士二人府一人史二人徒四人	-12.1155
檠	-12.1155
保章氏	-12.1156
萬七千	-12.1156
韋氏	-12.1156
㓂	-12.1156
交龍為旂	-12.1156
酷	-12.1157
蟠	-12.1157
朔日有食之	-12.1158
寢苫枕塊	-12.1158
菴	-12.1158
萬三千	-12.1158
形貌	-12.1158
隄防	-12.1159
六代之樂	-12.116
肝膋	-12.116
百辟卿士	-12.1161
揲	-12.1163
駑	-12.1164
明集禮	-12.1165
皇天上帝	-12.1166
杏	-12.1167
而不自知	-12.1168
應鼙	-12.1168
加元服	-12.1168
休戚	-12.117
不反兵	-12.1171
屋粟	-12.1173
齊衰杖期	-12.1178
二一見	-12.1179
唐太宗	-12.1181
軍帥	-12.1185
助祭之服	-12.1187
人長八尺	-12.119
五行之氣	-12.1196
葛屨	-12.12
案士冠禮	-12.1208
組繫	-12.1213
羞膳	-12.1213
捌	-12.1213
一百三十	-12.122
稍稍	-12.1222
遠近	-12.1225
建邦國	-12.1229
韋弁服	-12.1232
千五百里	-12.1233
朋黨	-12.124
刑獄	-12.1242
内矩分	-12.1243
淅	-12.1243
孝惠	-12.1246
財利	-12.1248
鄉許亮反	-12.1248
楔齒	-12.1249
拜既爵	-12.125
蔡氏徳晉曰	-12.1251
僬	-12.1251
灸	-12.1251
共音恭	-12.1252
喪服四制	-12.1252
啻	-12.1255
[...]
