<unk>	0
<s>	0
</s>	0
之	-4.03094
以	-4.72382
而	-4.80838
者	-4.89385
為	-4.91174
也	-4.9492
其	-5.10564
一	-5.2319
則	-5.28791
有	-5.37563
不	-5.46216
/	-5.48124
於	-5.50214
(	-5.55121
人	-5.64401
兵	-5.68098
)	-5.71659
大	-5.81345
將	-5.82657
至	-5.85375
軍	-5.85431
用	-5.90161
與	-5.92129
曰	-5.93266
如	-5.9347
無	-5.94872
在	-5.97515
賊	-5.97579
自	-5.99339
中	-6.00538
出	-6.03109
下	-6.06652
上	-6.07076
三	-6.07929
此	-6.08755
二	-6.09849
或	-6.11758
皆	-6.14539
行	-6.15741
若	-6.15939
入	-6.25243
水	-6.25272
所	-6.26286
城	-6.26981
後	-6.28664
使	-6.28761
又	-6.30073
及	-6.31708
即	-6.33199
州	-6.33248
四	-6.3341
矣	-6.34251
故	-6.34344
時	-6.37061
可	-6.38047
敵	-6.39449
▁	-6.39781
戰	-6.42219
地	-6.43124
凡	-6.43306
必	-6.43834
乃	-6.43872
得	-6.45191
日	-6.45976
各	-6.48852
我	-6.51253
令	-6.52639
五	-6.53398
山	-6.5343
陣	-6.54933
亦	-6.55112
欲	-6.56319
前	-6.58589
當	-6.59379
天	-6.61358
分	-6.63452
子	-6.64531
守	-6.64746
馬	-6.65444
能	-6.68878
方	-6.69248
先	-6.69603
長	-6.70257
道	-6.70269
南	-6.7099
來	-6.7117
多	-6.72462
于	-6.72672
從	-6.73306
北	-6.74705
内	-6.74731
今	-6.7571
見	-6.76213
事	-6.76354
非	-6.77314
去	-6.7789
是	-6.78436
合	-6.78804
立	-6.79065
主	-6.79946
等	-6.80858
王	-6.81376
營	-6.82289
取	-6.83339
小	-6.84291
知	-6.8469
法	-6.85283
六	-6.85946
西	-6.86271
相	-6.86313
言	-6.86558
外	-6.87713
東	-6.88171
進	-6.8859
火	-6.8916
攻	-6.89591
起	-6.90108
衆	-6.90425
生	-6.90687
勝	-6.91815
置	-6.92077
發	-6.9431
因	-6.95403
過	-6.95565
利	-6.96217
擊	-6.97023
門	-6.97322
處	-6.98988
八	-6.99521
髙	-7.00035
平	-7.01073
謂	-7.01364
不可	-7.0179
路	-7.02393
作	-7.04049
成	-7.04117
雖	-7.04409
死	-7.04629
夫	-7.04631
乎	-7.0469
兩	-7.04924
已	-7.04932
安	-7.05064
遂	-7.05115
正	-7.05168
風	-7.05359
重	-7.05572
明	-7.05575
國	-7.05653
名	-7.06351
金	-7.06379
每	-7.06578
定	-7.07257
氣	-7.07509
船	-7.08233
)(	-7.08414
復	-7.08431
數	-7.08963
通	-7.09872
官	-7.09878
不能	-7.10415
車	-7.10714
木	-7.11126
師	-7.11294
口	-7.11924
七	-7.12344
同	-7.12489
須	-7.12628
計	-7.12646
神	-7.12905
右	-7.13121
敗	-7.14025
未	-7.14673
石	-7.15459
臣	-7.15481
民	-7.15609
頭	-7.16393
居	-7.16646
勢	-7.16676
公	-7.16994
隊	-7.17172
本	-7.17576
然	-7.18678
心	-7.19726
開	-7.19827
常	-7.19926
宜	-7.20972
焉	-7.21556
備	-7.21617
吾	-7.22802
縣	-7.23468
卒	-7.23505
身	-7.23926
九	-7.24101
命	-7.24176
白	-7.24408
伏	-7.2449
旗	-7.24534
十	-7.25286
河	-7.25331
且	-7.25922
間	-7.2743
既	-7.28038
退	-7.28767
亂	-7.29493
次	-7.29673
急	-7.30368
諸	-7.30602
逺	-7.31701
騎	-7.32108
盡	-7.32382
殺	-7.32413
何	-7.33296
可以	-7.33622
力	-7.33771
耳	-7.33879
張	-7.34332
土	-7.34355
破	-7.34472
不得	-7.34537
齊	-7.34908
設	-7.34939
武	-7.35264
動	-7.3631
止	-7.3641
士	-7.3744
漢	-7.37602
左	-7.37819
變	-7.37962
陽	-7.38022
左右	-7.38065
舉	-7.38126
加	-7.38147
實	-7.3868
易	-7.38801
家	-7.39458
/)	-7.39526
直	-7.39852
夜	-7.40157
手	-7.40216
俱	-7.40255
便	-7.41066
謀	-7.41109
但	-7.42776
難	-7.42933
應	-7.43954
歸	-7.44272
犯	-7.44419
近	-7.44439
海	-7.44595
走	-7.44649
步	-7.44988
聞	-7.45038
陳	-7.4612
信	-7.46729
並	-7.46889
深	-7.46974
隨	-7.47266
失	-7.47331
鎮	-7.47516
制	-7.47739
唐	-7.4809
治	-7.48797
固	-7.48877
并	-7.49126
百	-7.49218
甲	-7.49345
文	-7.4995
所以	-7.50669
更	-7.50784
星	-7.51264
而不	-7.51344
約	-7.52456
反	-7.52495
食	-7.52813
惟	-7.53052
黄	-7.53269
月	-7.5338
少	-7.54007
善	-7.54162
遣	-7.54236
砦	-7.54442
廣	-7.54534
要	-7.55436
乘	-7.56254
江	-7.56434
初	-7.58361
之法	-7.58453
周	-7.58467
彼	-7.59064
吳	-7.5926
功	-7.59317
角	-7.59619
以為	-7.59791
鼓	-7.60331
界	-7.60439
向	-7.61216
首	-7.62183
足	-7.62452
秦	-7.62516
半	-7.6269
衝	-7.63242
輕	-7.64052
臨	-7.64316
高	-7.64324
請	-7.64684
打	-7.64684
君	-7.64766
圍	-7.6481
箭	-7.65915
天下	-7.66308
視	-7.66448
服	-7.66478
敵人	-7.66547
度	-7.67007
圖	-7.67234
形	-7.68484
收	-7.68587
爲	-7.68945
牌	-7.69026
由	-7.69238
㑹	-7.69648
還	-7.6965
散	-7.69693
連	-7.69761
布	-7.7023
經	-7.71376
大將	-7.71815
書	-7.71998
號	-7.72169
餘	-7.73238
邊	-7.7378
聲	-7.74231
據	-7.75252
沙	-7.75516
郡	-7.75884
鐵	-7.75952
青	-7.76206
險	-7.76442
領	-7.76759
飛	-7.76784
鎗	-7.76836
操	-7.76907
楚	-7.77353
恐	-7.7777
列	-7.77878
屬	-7.78158
率	-7.78304
他	-7.78416
共	-7.78511
云	-7.78613
府	-7.78769
任	-7.78773
放	-7.7885
伐	-7.79912
之地	-7.79976
絶	-7.80023
堅	-7.80027
坐	-7.80291
横	-7.8041
建	-7.81094
面	-7.8141
到	-7.81642
舟	-7.81675
仍	-7.81708
晉	-7.81865
竒	-7.82087
望	-7.82149
遇	-7.82223
報	-7.82225
轉	-7.82832
親	-7.83239
亡	-7.84299
將軍	-7.8438
往	-7.84722
候	-7.84934
賞	-7.84951
别	-7.85099
屯	-7.85181
所謂	-7.854
義	-7.85443
色	-7.85598
年	-7.85715
甚	-7.85928
教	-7.86214
草	-7.86705
射	-7.86798
引	-7.86873
獨	-7.8694
魏	-7.87477
聽	-7.87534
始	-7.87653
就	-7.87775
流	-7.87888
士卒	-7.87976
東至	-7.87999
論	-7.88335
德	-7.88402
離	-7.88429
港	-7.88562
一作	-7.89263
强	-7.89405
救	-7.89734
雲	-7.89862
再	-7.89869
致	-7.90029
背	-7.90351
古	-7.90383
節	-7.90397
擊之	-7.90494
順	-7.905
之所	-7.90732
寇	-7.91049
一人	-7.91312
舊	-7.91392
萬	-7.91476
龍	-7.91497
川	-7.91637
田	-7.91794
解	-7.92021
降	-7.92064
照	-7.9255
問	-7.92825
物	-7.93137
虚	-7.93138
議	-7.93362
原	-7.93491
勇	-7.93757
和	-7.9381
都	-7.93813
總	-7.94081
客	-7.94312
橋	-7.94317
虜	-7.9443
弩	-7.94438
威	-7.95521
關	-7.95704
全	-7.96016
中軍	-7.9618
目	-7.96517
稱	-7.96624
哉	-7.97118
智	-7.97272
勿	-7.97316
隂	-7.9733
梁	-7.97356
砲	-7.97387
求	-7.97535
傳	-7.97829
元	-7.98005
弱	-7.98032
選	-7.98051
具	-7.9858
然後	-7.98659
留	-7.99015
嚴	-7.99059
李	-7.99111
機	-7.9966
東南	-7.99753
習	-7.9979
集	-7.99812
追	-8.0028
悉	-8.00313
傷	-8.00515
新	-8.01023
施	-8.0122
光	-8.0171
意	-8.01891
造	-8.02719
疾	-8.0273
果	-8.02744
弓	-8.0284
嘗	-8.03012
交	-8.03399
前後	-8.03559
厚	-8.03607
異	-8.0399
獲	-8.04111
葢	-8.04416
防	-8.04482
尚	-8.04966
持	-8.05079
給	-8.06161
徳	-8.06454
千	-8.06478
精	-8.0653
務	-8.07343
是也	-8.07389
興	-8.07418
樂	-8.07442
不知	-8.07508
斬	-8.07561
依	-8.07831
宋	-8.08128
藥	-8.08259
刀	-8.08501
保	-8.08993
被	-8.09187
權	-8.09393
逆	-8.09477
赤	-8.0975
堡	-8.09785
冦	-8.0981
盛	-8.10043
奔	-8.10275
三軍	-8.1097
指	-8.11098
顧	-8.11178
尾	-8.11321
陷	-8.11463
吉	-8.11508
湖	-8.11582
猶	-8.1203
密	-8.12338
毎	-8.12421
結	-8.12524
十二	-8.12552
惡	-8.12596
積	-8.12708
疑	-8.12709
比	-8.12772
執	-8.12906
縱	-8.13088
塘	-8.13158
部	-8.13383
官兵	-8.13514
久	-8.13735
回	-8.13824
西北	-8.1384
聚	-8.1395
辰	-8.14098
支	-8.14109
劉	-8.14174
説	-8.14224
志	-8.14689
衛	-8.14969
觀	-8.15369
世	-8.15496
塞	-8.15562
懼	-8.15954
胡	-8.16345
太	-8.16975
兼	-8.17024
歩	-8.17067
受	-8.17511
管	-8.17612
闗	-8.17767
皷	-8.17924
司	-8.18177
謂之	-8.18304
東北	-8.18509
好	-8.18545
宿	-8.18876
趙	-8.19195
帥	-8.19501
来	-8.19585
夏	-8.19663
著	-8.1971
銀	-8.198
莫	-8.19818
渡	-8.19829
接	-8.19947
築	-8.19982
移	-8.20169
却	-8.20484
益	-8.2068
理	-8.2103
陰	-8.21091
廢	-8.21151
越	-8.21744
者也	-8.21785
速	-8.218
而已	-8.21968
徒	-8.22086
畢	-8.22313
棄	-8.22584
按	-8.22955
糧	-8.23028
鋭	-8.23179
貴	-8.23346
專	-8.235
空	-8.23552
慮	-8.23948
竹	-8.24161
輪	-8.24214
畏	-8.24709
毒	-8.24809
末	-8.24969
附	-8.24993
壘	-8.25013
雨	-8.25358
調	-8.25514
哨	-8.26293
告	-8.26393
害	-8.26456
審	-8.26591
刑	-8.26658
驚	-8.27365
對	-8.27799
帝	-8.28245
朝	-8.28379
宻	-8.28592
克	-8.28715
之人	-8.28974
襲	-8.29073
决	-8.29317
擒	-8.2939
逐	-8.29497
之兵	-8.29715
徑	-8.29843
勞	-8.30046
稍	-8.30355
攻城	-8.30401
陵	-8.30452
素	-8.30644
待	-8.3067
載	-8.30838
蓋	-8.30983
伏兵	-8.31202
期	-8.31266
邑	-8.31333
似	-8.31354
之間	-8.31415
擇	-8.31826
怒	-8.31929
軍中	-8.32064
仁	-8.32068
圓	-8.32255
乗	-8.32277
許	-8.32647
憂	-8.32679
索	-8.32696
清	-8.32747
濟	-8.32859
申	-8.33111
故曰	-8.33254
拒	-8.33437
除	-8.33473
不敢	-8.33505
示	-8.33692
伍	-8.33753
罪	-8.33971
覆	-8.34061
禁	-8.34208
禦	-8.34396
號令	-8.34408
斷	-8.34415
黑	-8.34454
如此	-8.34532
脚	-8.34562
野	-8.34679
矢	-8.35201
會	-8.35346
其所	-8.35458
終	-8.355
燒	-8.35957
寨	-8.36025
西南	-8.36197
趨	-8.36243
詐	-8.36503
諸將	-8.36528
差	-8.3665
危	-8.36689
林	-8.3679
卷	-8.36939
進退	-8.37013
落	-8.37737
討	-8.3786
皮	-8.37985
牛	-8.38
槍	-8.38091
統	-8.38137
鄉	-8.38225
夷	-8.38256
谷	-8.38261
雜	-8.38492
占	-8.38552
濶	-8.38554
語	-8.38762
推	-8.38769
宫	-8.38865
誅	-8.39008
主將	-8.39112
爾	-8.39201
字	-8.39434
乾	-8.39434
容	-8.39625
詔	-8.39727
量	-8.39887
耶	-8.39901
環	-8.39953
蛇	-8.40088
畧	-8.4027
於是	-8.40376
不許	-8.40423
封	-8.40488
而後	-8.40501
樓	-8.40549
曲	-8.40724
潛	-8.40774
之時	-8.41131
極	-8.41561
争	-8.41651
折	-8.41674
泊	-8.41754
至於	-8.4181
避	-8.41901
爭	-8.42094
二十	-8.42257
赴	-8.42382
虎	-8.42812
改	-8.4298
城中	-8.43101
是謂	-8.43103
鼔	-8.43151
役	-8.43324
翼	-8.43759
鋪	-8.43769
登	-8.43819
征	-8.44104
烏	-8.44134
謹	-8.44321
情	-8.4451
援	-8.44623
存	-8.44657
條	-8.45137
薄	-8.45142
送	-8.45235
鬭	-8.45474
政	-8.45566
抵	-8.45588
誠	-8.45989
寧	-8.46636
南至	-8.46877
阻	-8.46956
徐	-8.47206
吏	-8.47285
代	-8.47616
斗	-8.47823
熟	-8.47863
修	-8.47868
患	-8.48025
老	-8.48273
㸃	-8.48452
某	-8.48654
恃	-8.48668
将	-8.48697
之以	-8.48816
是以	-8.49002
私	-8.49353
馳	-8.49354
賢	-8.49744
識	-8.49981
嵗	-8.50051
八陣	-8.50188
奪	-8.50323
招	-8.5048
帶	-8.50653
負	-8.50723
策	-8.50987
器	-8.51047
闕	-8.51063
緩	-8.51154
掠	-8.51249
棍	-8.51348
拔	-8.514
四面	-8.51711
岀	-8.51727
思	-8.51803
宗	-8.51995
徃	-8.52127
舍	-8.52424
魚	-8.52512
用之	-8.5275
叛	-8.52755
召	-8.52911
䕶	-8.53093
衣	-8.53253
兵起	-8.5361
城上	-8.53669
短	-8.53788
滅	-8.53831
表	-8.53832
不及	-8.53932
泥	-8.53971
三百	-8.54259
血	-8.5465
上下	-8.54899
類	-8.54967
浦	-8.54983
太宗	-8.55357
彊	-8.55449
該	-8.55523
北至	-8.55736
里	-8.55774
住	-8.55783
震	-8.56025
楊	-8.56151
况	-8.56274
於此	-8.56369
戎	-8.56389
象	-8.56596
羣	-8.56748
侯	-8.56748
記	-8.5714
闊	-8.57487
窮	-8.57775
黒	-8.57779
境	-8.58101
不過	-8.58191
副	-8.58266
陸	-8.58443
臺	-8.58537
第一	-8.58584
的	-8.58641
板	-8.58667
學	-8.58934
豈	-8.59029
不利	-8.5946
最	-8.59615
諸侯	-8.5963
敢	-8.59728
盖	-8.59743
困	-8.59752
察	-8.59752
控	-8.60023
遺	-8.60216
細	-8.6025
病	-8.60266
呼	-8.60431
銃	-8.60436
三十	-8.60631
無所	-8.60651
逼	-8.60851
資	-8.60865
溪	-8.60936
契丹	-8.61004
之處	-8.61016
官軍	-8.61108
己	-8.61169
也故	-8.61233
雄	-8.61351
用兵	-8.61693
禮	-8.61745
竿	-8.61846
達	-8.61861
歴	-8.61862
編	-8.61925
驗	-8.61927
工	-8.61944
銳	-8.61989
灰	-8.62002
忽	-8.62105
燕	-8.62117
三十里	-8.62297
二百	-8.62451
參	-8.62692
之道	-8.62985
延	-8.63066
旁	-8.63153
喜	-8.63368
整	-8.63385
鳴	-8.63798
費	-8.63815
壁	-8.64058
詳	-8.64328
氏	-8.64412
南北	-8.64633
二人	-8.6484
臨陣	-8.64859
掩	-8.65203
雙	-8.65239
免	-8.65286
註曰	-8.65369
暴	-8.65483
以上	-8.65569
鋒	-8.65595
督	-8.65669
人馬	-8.65731
五十	-8.65832
者斬	-8.6594
油	-8.66056
考	-8.66106
錢	-8.66108
體	-8.66218
偽	-8.66276
一日	-8.66737
大敗	-8.66895
羅	-8.66916
西至	-8.66922
澤	-8.67149
蜀	-8.67237
四十	-8.67262
良	-8.67389
符	-8.67424
術	-8.67478
蔽	-8.67646
養	-8.67664
決	-8.67675
探	-8.67678
干	-8.67694
者皆	-8.67712
微	-8.67737
遠	-8.67843
募	-8.67854
藏	-8.67926
花	-8.68354
虛	-8.68667
說	-8.68689
奉	-8.68778
諸軍	-8.68846
嶺	-8.68941
盜	-8.68998
化	-8.69176
之類	-8.69249
千里	-8.69597
繫	-8.69622
華	-8.69633
㧞	-8.69677
充	-8.69943
之勢	-8.70167
財	-8.7021
足以	-8.70223
呉	-8.70344
愚	-8.70374
授	-8.70409
強	-8.70459
羽	-8.70463
看	-8.70527
咸	-8.70528
只	-8.70841
性	-8.70878
委	-8.71038
器械	-8.71088
出入	-8.71266
位	-8.71326
息	-8.71367
漸	-8.71429
斯	-8.71458
不足	-8.71577
遁	-8.71591
深入	-8.71596
迎	-8.71635
鬬	-8.71749
洞	-8.71771
乆	-8.71773
我兵	-8.71974
而無	-8.72071
潮	-8.72137
巧	-8.72231
福	-8.72335
井	-8.72502
潰	-8.72752
之士	-8.73135
尅	-8.73226
垂	-8.73254
辨	-8.73298
東西	-8.73575
守禦	-8.73579
均	-8.73653
愛	-8.73678
不可以	-8.73879
酒	-8.74017
練	-8.74061
鑿	-8.7412
地方	-8.74214
助	-8.74564
永	-8.7474
旣	-8.75111
抽	-8.75115
恩	-8.7512
補	-8.75148
奮	-8.752
戒	-8.75235
攻之	-8.75302
遷	-8.75312
兵船	-8.75315
太白	-8.75446
市	-8.75542
不如	-8.75626
枝	-8.75631
壯	-8.7566
滿	-8.7571
程	-8.75893
運	-8.75923
幾	-8.75928
之後	-8.75952
池	-8.76026
景	-8.76073
投	-8.76114
忌	-8.76231
富	-8.76243
軍士	-8.76381
刻	-8.76589
聴	-8.7667
責	-8.76694
舎	-8.7694
算	-8.77297
突	-8.77442
守城	-8.77456
揚	-8.77622
崑山	-8.77914
無不	-8.77996
天地	-8.78447
把	-8.7854
簡	-8.78798
庶	-8.78876
䇿	-8.78907
萬人	-8.78936
䧟	-8.79045
尤	-8.79115
弓弩	-8.79482
把總	-8.7963
旌旗	-8.79758
宼	-8.79839
眼	-8.79911
毛	-8.79947
一面	-8.80092
必有	-8.80145
劍	-8.80243
遲	-8.80707
願	-8.80711
柵	-8.8075
牙	-8.80797
巳	-8.80846
朱	-8.80866
忠	-8.80897
省	-8.80937
大小	-8.8101
鈎	-8.81212
一隊	-8.8149
夾	-8.81661
奇	-8.81713
竒兵	-8.81731
料	-8.81757
暗	-8.81831
米	-8.81847
撃	-8.81848
奸	-8.81945
第二	-8.81973
孤	-8.82145
午	-8.82158
迫	-8.82638
五十里	-8.82763
注	-8.82872
鄭	-8.82908
猛	-8.82908
畫	-8.8302
六十里	-8.83038
其地	-8.83072
倭	-8.83125
侵	-8.83269
查	-8.83462
切	-8.83493
才	-8.83501
職	-8.83555
飲	-8.83658
怯	-8.83789
式	-8.83913
𫝊	-8.84032
而來	-8.84116
奏	-8.84374
丁	-8.84468
墪	-8.84601
警	-8.85029
經曰	-8.8541
假	-8.85586
本朝	-8.85657
貫	-8.85695
驅	-8.85806
骨	-8.85926
誤	-8.85935
源	-8.85984
御	-8.86025
罷	-8.86065
之用	-8.86172
之中	-8.86226
罰	-8.86322
之事	-8.86334
真	-8.86433
寅	-8.86487
禍	-8.86569
寡	-8.86639
將士	-8.86656
之外	-8.86806
州界	-8.86861
靜	-8.86919
紙	-8.86947
損	-8.8699
温	-8.87046
太湖	-8.87269
而進	-8.87437
人之	-8.87595
一時	-8.8763
格	-8.87666
昔	-8.87705
一百	-8.87953
貪	-8.88017
限	-8.88044
淺	-8.88058
凶	-8.8807
紀	-8.88099
鳥	-8.88099
㓂	-8.88138
項	-8.88435
刃	-8.88461
隘	-8.88488
往來	-8.88514
偏	-8.886
一曰	-8.88713
規	-8.88959
旋	-8.89
適	-8.89037
輒	-8.89116
閉	-8.89133
章	-8.89174
祭	-8.89181
饑	-8.89227
竒正	-8.8926
城下	-8.89382
而去	-8.89608
相去	-8.89872
駐	-8.89929
六十	-8.8995
柱	-8.89951
刺	-8.90084
驕	-8.90245
商	-8.90277
裝	-8.90287
昏	-8.90308
革	-8.9039
設伏	-8.90396
聖	-8.9045
靈	-8.90674
隋	-8.90688
使人	-8.90731
捕	-8.90909
例	-8.9103
校	-8.91092
昌	-8.91216
撫	-8.91515
所在	-8.91554
繼	-8.91569
茍	-8.91655
根	-8.91684
敎	-8.9171
牧	-8.91863
一名	-8.91957
鹽	-8.92023
製	-8.92036
兵法	-8.92093
太乙	-8.92183
承	-8.92189
大將軍	-8.92267
俟	-8.92332
敵之	-8.9241
缺	-8.92462
三日	-8.92534
者有	-8.92568
紅	-8.92589
蘇州	-8.92637
撥	-8.92966
七十里	-8.9298
聼	-8.92985
在於	-8.9319
倉	-8.93247
額	-8.93253
賜	-8.93387
㝷	-8.935
隠	-8.93522
盈	-8.93589
塗	-8.9362
出戰	-8.93948
不用	-8.94
大軍	-8.94108
泉	-8.94225
寒	-8.94468
卿	-8.94771
惑	-8.95153
種	-8.95157
端	-8.95279
寳	-8.95489
知其	-8.9556
險阻	-8.95569
逃	-8.9574
蘇松	-8.95908
巡	-8.95918
而為	-8.96087
浮	-8.96456
戍	-8.96529
春	-8.9663
業	-8.96713
輜重	-8.96762
四十里	-8.96824
曹	-8.96884
弊	-8.96931
朝廷	-8.96973
厯	-8.97011
吳淞江	-8.97042
辭	-8.97169
又有	-8.97222
其下	-8.97249
以備	-8.97269
節制	-8.97311
裏	-8.97355
材	-8.97464
入城	-8.98008
又曰	-8.98057
愈	-8.9807
隔	-8.98151
包	-8.98154
葉	-8.98156
苦	-8.98198
􁀙	-8.98199
係	-8.98248
蘇	-8.98484
秋	-8.98648
其後	-8.98901
團	-8.98991
完	-8.99038
懸	-8.99042
邀	-8.99084
兵士	-8.99162
羊	-8.99246
特	-8.99268
寶	-8.99271
弗	-8.9936
鐡	-8.99363
㣲	-8.994
了	-8.99446
單	-8.99477
繩	-8.99533
而行	-8.99582
狀	-8.99693
四方	-8.99736
在外	-8.99736
郭	-8.99839
架	-8.99872
束	-8.99958
傍	-8.99977
靖	-9.00102
掌	-9.00115
囚	-9.00121
衡	-9.00231
預	-9.0025
太倉	-9.00325
雷	-9.00465
也夫	-9.00603
陣法	-9.00604
穿	-9.00647
輔	-9.00962
汝	-9.01237
晝	-9.01294
東南至	-9.01351
不同	-9.01393
低	-9.01797
沈	-9.01831
倒	-9.01885
劉家河	-9.0192
松江	-9.0232
水兵	-9.03063
底	-9.03131
専	-9.03133
吐蕃	-9.03159
㕘將	-9.03763
涇	-9.03889
司馬	-9.04017
㓙	-9.04033
蕃	-9.0409
指揮	-9.04126
肉	-9.04213
十五	-9.04247
尺	-9.04276
有所	-9.04295
樹	-9.04297
縁	-9.04328
増	-9.04349
水陸	-9.04391
礮	-9.0448
岸	-9.04663
五百	-9.04725
丑	-9.04736
音	-9.0477
之日	-9.04991
冬	-9.05008
宣	-9.05119
姦	-9.05151
形勢	-9.05206
提	-9.05229
千人	-9.05252
垜	-9.05286
賞罰	-9.0536
焚	-9.05375
倍	-9.05377
之際	-9.05411
儀	-9.0555
房	-9.05608
出兵	-9.05608
幸	-9.05617
試	-9.05916
十里	-9.0593
火器	-9.06178
從之	-9.06269
斤	-9.06357
矢石	-9.06361
捷	-9.06502
略	-9.06705
之術	-9.06831
幕	-9.06832
名曰	-9.06835
斬之	-9.06838
唯	-9.06906
怨	-9.06956
座	-9.07182
洋	-9.07325
五里	-9.07365
我軍	-9.0783
其衆	-9.07965
巡司	-9.08004
短兵	-9.08071
伯	-9.08084
疲	-9.08101
誘	-9.08135
百姓	-9.08152
班	-9.08173
屋	-9.08175
竊	-9.0818
吏士	-9.08205
傾	-9.08221
妄	-9.08228
户	-9.08269
巢	-9.08538
違	-9.08826
也若	-9.08977
孰	-9.09187
一兩	-9.09224
各有	-9.09259
晝夜	-9.09269
丈	-9.09344
仰	-9.09372
露	-9.09419
䝉	-9.09464
守之	-9.0948
頓	-9.09528
激	-9.09528
大夫	-9.09542
第三	-9.09758
為一	-9.10635
斜	-9.10711
本府	-9.10764
飢	-9.10819
荆	-9.10834
竭	-9.10917
者不	-9.11067
城門	-9.1109
韓	-9.11112
不必	-9.11271
國家	-9.11389
振	-9.11506
静	-9.11924
祖	-9.11972
藝	-9.12006
吹	-9.12039
戌	-9.12056
踰	-9.12183
沿海	-9.12491
員	-9.12609
栁	-9.12612
百人	-9.12684
佐	-9.12781
遊	-9.12794
寛	-9.12859
二十里	-9.1289
畨	-9.13342
羌	-9.13346
不動	-9.13397
匈奴	-9.13493
京	-9.1355
早	-9.13554
局	-9.13584
盤	-9.13591
禦之	-9.13717
二曰	-9.13836
有餘	-9.13981
納	-9.14095
而出	-9.14198
遼	-9.14205
行軍	-9.14774
技	-9.14796
汁	-9.14816
麻	-9.14861
循	-9.14884
孫	-9.14929
輙	-9.14936
惠	-9.14942
頗	-9.14955
者必	-9.14994
内外	-9.15167
隂陽	-9.15172
數十	-9.1527
江南	-9.15542
之衆	-9.15582
洛	-9.1578
其勢	-9.1614
涉	-9.16147
十六	-9.16178
恭	-9.16335
□	-9.16342
壓	-9.16388
將帥	-9.16545
割	-9.1666
若干	-9.1682
百里	-9.1683
勒	-9.17165
暈	-9.17403
突厥	-9.17433
二千	-9.1745
挑	-9.17583
准	-9.17629
鬼	-9.17637
配	-9.17647
其心	-9.17675
毁	-9.17684
𦂳	-9.177
卑	-9.17756
奚	-9.17765
天子	-9.17767
農	-9.17775
休	-9.17785
險要説	-9.17833
訖	-9.17838
必勝	-9.1791
以防	-9.17913
磨	-9.17913
蠻	-9.17984
五尺	-9.18145
故也	-9.18145
賊舟	-9.18482
併	-9.18596
塹	-9.1866
九十里	-9.1873
金山	-9.18784
之制	-9.18808
為正	-9.18927
麾	-9.18959
地形	-9.18993
古人	-9.19212
濠	-9.19222
弦	-9.19228
裹	-9.19235
殘	-9.19246
牆	-9.19255
寜	-9.1926
車騎	-9.19291
之數	-9.19482
妙	-9.19503
得其	-9.19638
常熟	-9.19688
也今	-9.19785
之患	-9.19817
懷	-9.19917
衞	-9.20178
臨時	-9.20226
酉	-9.20373
者為	-9.20422
三千	-9.20483
烟	-9.205
三曰	-9.2059
卯	-9.20656
縛	-9.20688
抗	-9.20703
亥	-9.20843
變化	-9.20853
假令	-9.20891
雖有	-9.21046
險要	-9.21129
縣界	-9.21333
為竒	-9.21408
十萬	-9.21422
討之	-9.21439
大戰	-9.21443
監	-9.2159
臨敵	-9.2168
湯	-9.21716
其法	-9.21737
率衆	-9.21742
挾	-9.21746
流星	-9.21828
有兵	-9.2183
雞	-9.22001
截	-9.22095
𤣥	-9.22106
津	-9.22133
曉	-9.2221
吴	-9.2223
𤼵	-9.22233
浪	-9.22267
今日	-9.22317
要害	-9.22352
皆有	-9.22404
光武	-9.22538
賊至	-9.22647
二十四	-9.22874
州縣	-9.22948
不出	-9.23137
固守	-9.23137
孔	-9.23152
遏	-9.23216
效	-9.23334
女	-9.23421
李靖	-9.2343
煙	-9.23629
超	-9.23712
逸	-9.2381
太宗曰	-9.24145
升	-9.24352
之賊	-9.24447
之計	-9.24511
哨官	-9.24511
㨗	-9.24726
腹	-9.24778
衰	-9.24805
天下之	-9.24835
立定	-9.24999
銅	-9.25094
八十	-9.25156
予	-9.2519
籍	-9.2526
屢	-9.25313
騎兵	-9.25355
引兵	-9.25582
二里	-9.25719
狹	-9.25914
使其	-9.26156
肅	-9.26165
斬首	-9.2617
長鎗	-9.2625
室	-9.26384
風雨	-9.26391
者亦	-9.2647
馬軍	-9.26497
二丈	-9.26617
伺	-9.26676
洪	-9.26747
東北至	-9.26755
美	-9.26805
幽州	-9.2682
怠	-9.26853
不見	-9.26864
囘	-9.26867
霧	-9.26872
不戰	-9.26898
城外	-9.26991
不拘	-9.27282
虞	-9.27326
率兵	-9.27374
出軍	-9.27393
中國	-9.27432
五寸	-9.27626
死者	-9.27738
皇	-9.27948
剛	-9.28041
逺近	-9.28073
慎	-9.282
𨽻	-9.28247
扇	-9.28291
摧	-9.28308
父	-9.28318
筒	-9.28331
殊	-9.28364
灾	-9.28367
以其	-9.28378
松	-9.28386
城内	-9.28402
塲	-9.28406
紹	-9.28406
廟	-9.2841
戮	-9.28411
聖人	-9.28541
喪	-9.2862
向前	-9.28787
之利	-9.28877
崇明	-9.28895
游	-9.28919
未嘗	-9.29063
隊長	-9.29121
營中	-9.29469
烽	-9.29503
不然	-9.29524
駕	-9.2956
覺	-9.29634
玉	-9.29679
仲	-9.29701
靣	-9.29724
梯	-9.29836
巨	-9.29886
太公	-9.29904
俗	-9.29908
律	-9.29933
粟	-9.30036
藉	-9.30047
有功	-9.30176
三月	-9.30222
級	-9.30323
之情	-9.30463
旗幟	-9.3066
篇	-9.31086
在前	-9.31102
出於	-9.31201
扼	-9.31246
没	-9.31372
一軍	-9.31387
脱	-9.31483
堰	-9.31489
屈	-9.31524
徙	-9.31594
香	-9.316
遮	-9.31631
溝	-9.31653
秘	-9.31666
韓信	-9.31785
江隂	-9.31901
捍	-9.31918
否	-9.32061
五行	-9.32344
虚實	-9.32524
族	-9.32893
亦可	-9.32971
火藥	-9.32992
籌	-9.33253
録	-9.33258
擺	-9.33269
粗	-9.33284
潜	-9.33302
懐	-9.33309
亮	-9.33324
擁	-9.33329
隱	-9.33333
跳	-9.33338
尊	-9.33351
燈	-9.33393
四曰	-9.33428
防守	-9.33443
曹操	-9.33447
黨	-9.33684
天目	-9.3385
隊伍	-9.33981
旅	-9.34343
之氣	-9.34477
以待	-9.34598
十八	-9.34598
標	-9.34636
必死	-9.34673
三尺	-9.34774
拳	-9.34784
福船	-9.34791
壕	-9.34796
縣治	-9.34828
塵	-9.3493
獸	-9.3493
圗	-9.3499
勸	-9.34994
握	-9.34994
必須	-9.35043
杜	-9.35117
墻	-9.35168
勝負	-9.35788
握竒	-9.35946
總管	-9.36073
利害	-9.36275
擲	-9.36374
救之	-9.36387
庸	-9.36389
節度	-9.36532
維	-9.36616
價	-9.36637
泰	-9.36672
膽	-9.36674
柴	-9.36696
悦	-9.36748
榮	-9.36751
上海	-9.36752
途	-9.36775
鳥銃	-9.36803
慶	-9.36887
距	-9.3693
第	-9.36972
遇敵	-9.37019
盗	-9.37125
一斤	-9.37133
不便	-9.37383
聞之	-9.37386
憲	-9.3742
居民	-9.37489
二年	-9.37501
百步	-9.37509
亦有	-9.37615
之於	-9.37663
先鋒	-9.37699
數千	-9.37839
四尺	-9.37957
吕	-9.38043
之心	-9.38227
正兵	-9.38393
則有	-9.38403
硝	-9.38431
坑	-9.38442
觧	-9.38482
穴	-9.38515
其國	-9.38574
元年	-9.38576
與敵	-9.3861
登岸	-9.38631
黄帝	-9.38893
亦不	-9.38949
一千	-9.38975
以下	-9.39066
返	-9.39414
因而	-9.39441
西北至	-9.39445
法曰	-9.39621
淮	-9.39662
匹	-9.39671
步兵	-9.39729
母	-9.40165
崇	-9.40191
徴	-9.40209
碎	-9.40218
側	-9.40254
諭	-9.40328
窺	-9.40334
拿	-9.40388
中有	-9.40421
豐	-9.40426
一尺	-9.4048
三百里	-9.40551
將官	-9.40722
一枝	-9.40845
者以	-9.40997
齒	-9.4101
何以	-9.41272
沙船	-9.41344
繞	-9.4136
層	-9.41397
人心	-9.41459
乏	-9.41579
戸	-9.41607
填	-9.41749
乙	-9.41813
帳	-9.41848
乞	-9.4205
肆	-9.42058
柔	-9.42061
在乎	-9.4207
隙	-9.42071
述	-9.42112
徵	-9.42115
逢	-9.42121
欺	-9.42125
精兵	-9.42126
印	-9.42134
禽	-9.42144
累	-9.42163
日暈	-9.422
攻其	-9.42337
箇	-9.42342
隻	-9.42472
山川	-9.42873
疋	-9.4313
氣如	-9.43132
州刺史	-9.43146
雲氣	-9.43227
五曰	-9.43272
感	-9.43312
而還	-9.43531
頃	-9.43594
五人	-9.43597
華亭	-9.4365
忘	-9.43658
櫓	-9.43673
史	-9.43745
也凡	-9.43779
成功	-9.43796
蕩	-9.43809
擾	-9.43851
增	-9.43877
敬	-9.4393
沉	-9.4396
竟	-9.43978
挫	-9.4401
在内	-9.44014
駐隊	-9.44015
縣城	-9.44133
曹公	-9.44137
内地	-9.44184
頭目	-9.4423
濬	-9.44353
拒之	-9.44371
正月	-9.44395
不和	-9.44539
武侯	-9.44682
軍法	-9.44695
之上	-9.44767
數萬	-9.4482
何謂	-9.44828
是故	-9.4499
其將	-9.45031
日辰	-9.45097
以來	-9.45123
營壘	-9.45186
墜	-9.45256
拘	-9.45289
剪	-9.45391
偃	-9.45434
膏	-9.45651
牽	-9.45662
扶	-9.4577
誓	-9.45809
創	-9.45809
博	-9.45814
収	-9.45817
灌	-9.45823
者所以	-9.45837
属	-9.45848
響	-9.459
分合	-9.4621
一員	-9.46274
古之	-9.46578
分兵	-9.46654
必先	-9.46666
着	-9.46696
軸	-9.46886
衆寡	-9.46904
營陣	-9.47003
段	-9.47213
斧	-9.47358
顯	-9.47371
凌	-9.47539
嘉	-9.47572
暮	-9.476
劫	-9.4761
掛	-9.47636
濕	-9.47674
稽	-9.47683
紫	-9.47707
綿	-9.47719
念	-9.47761
邉	-9.47775
疏	-9.47797
尖	-9.47811
冒	-9.47915
一萬	-9.47947
柘林	-9.47962
緩急	-9.48015
青龍	-9.48077
千餘人	-9.4811
跨	-9.48123
四人	-9.48281
三人	-9.48315
如何	-9.48328
於外	-9.48398
殺之	-9.48427
應援	-9.48572
行伍	-9.48598
昭	-9.48651
三分	-9.48654
此謂	-9.48692
港口	-9.48737
長短	-9.48838
應之	-9.48898
十四	-9.48925
步騎	-9.49084
東門	-9.49204
刼	-9.49207
可擊	-9.49324
錯	-9.49326
裂	-9.49365
三里	-9.49369
必敗	-9.49429
其間	-9.49435
之内	-9.49534
獻	-9.49556
味	-9.49568
值	-9.49678
付	-9.49689
避之	-9.49704
讓	-9.49716
渠	-9.49732
釋	-9.49734
煎	-9.49766
詣	-9.49767
厭	-9.49768
金人	-9.49777
髙祖	-9.49828
築城	-9.49834
十一	-9.49925
人皆	-9.50039
十人	-9.50285
之名	-9.5046
不從	-9.5054
金鼓	-9.50691
明日	-9.50723
以此	-9.50806
大兵	-9.50829
賊衆	-9.50973
霸	-9.51015
借	-9.51213
三兩	-9.51392
烈	-9.51441
道路	-9.51455
未有	-9.51475
排	-9.51546
片	-9.5156
狼	-9.51569
貧	-9.51575
掲	-9.51612
亟	-9.51626
匿	-9.51649
停	-9.51674
魯	-9.51718
迴	-9.51718
遽	-9.51733
寺	-9.51742
眞	-9.51766
熒惑	-9.51798
三年	-9.51818
茂	-9.51832
京口	-9.5184
萬一	-9.51856
縱横	-9.51891
零	-9.51973
海防	-9.52029
辰星	-9.52064
軍行	-9.52252
戰隊	-9.52293
孟	-9.52451
行營	-9.52513
黄浦	-9.52663
四百	-9.52747
山東	-9.52839
南門	-9.52878
認	-9.53002
者非	-9.53088
畜	-9.53137
地勢	-9.53152
兵馬	-9.532
遍	-9.53245
追之	-9.53318
風雲	-9.5342
進止	-9.53471
各兵	-9.53471
嘉定	-9.53472
疎	-9.5349
盧	-9.53496
不明	-9.5352
貯	-9.53562
粉	-9.53585
序	-9.53614
驛	-9.53619
浸	-9.53662
黎	-9.53669
減	-9.53672
熱	-9.53683
歟	-9.53696
豆	-9.53715
分為	-9.5373
談	-9.5375
峻	-9.53763
俾	-9.53784
繁	-9.53792
桿	-9.53793
弛	-9.53807
荒	-9.53819
纔	-9.53828
蒲	-9.53839
洗	-9.53864
者可	-9.53979
兵家	-9.54015
改為	-9.54091
如有	-9.54099
則無	-9.54205
相應	-9.54338
之具	-9.5441
二萬	-9.54469
千餘	-9.54674
之意	-9.54697
艘	-9.54794
戰陣	-9.54895
其形	-9.54995
婁	-9.55242
下營	-9.55244
不為	-9.55271
之義	-9.55288
多少	-9.55353
則為	-9.5541
採	-9.55452
押	-9.55514
右手	-9.5557
何也	-9.55587
貢	-9.55623
總兵	-9.55658
曾	-9.55678
胥	-9.55689
一凡	-9.5569
典	-9.55726
卓	-9.55744
鞭	-9.5576
卧	-9.55774
岳	-9.55792
另	-9.558
薪	-9.55808
冀	-9.5583
坤	-9.55843
耕	-9.55852
釘	-9.55858
邪	-9.5586
抑	-9.55868
慢	-9.5587
倭寇	-9.55904
狗	-9.55914
七十	-9.55916
互	-9.55953
武藝	-9.56006
五星	-9.56096
先是	-9.56392
之師	-9.56418
河東	-9.5644
吳江	-9.56451
有警	-9.56547
對曰	-9.56657
小門	-9.56673
有竒	-9.56729
可用	-9.56732
不足以	-9.56795
煩	-9.56852
憚	-9.56966
八十里	-9.57034
測	-9.571
之要	-9.57147
不通	-9.57243
主人	-9.57397
二尺	-9.57426
五千	-9.57568
日月	-9.57624
挑戰	-9.57627
庚	-9.57653
蒼	-9.57705
欽	-9.57788
禄	-9.57789
演	-9.5783
祐	-9.57836
鹿	-9.5789
較	-9.57904
臂	-9.57938
閲	-9.57955
數百	-9.57965
叅將	-9.57975
姑	-9.57981
渾	-9.57996
辱	-9.58011
披	-9.58059
捕盜	-9.58112
不勝	-9.58243
太公曰	-9.58307
一半	-9.58397
以致	-9.58451
河北	-9.58465
山林	-9.58905
居中	-9.58978
江北	-9.58981
腰	-9.5908
春秋	-9.59181
人也	-9.59291
春秋時	-9.5934
之道也	-9.59345
敝	-9.5948
也然	-9.59523
舉兵	-9.59533
相持	-9.59562
艦	-9.59829
兵法曰	-9.59926
為用	-9.59995
二百里	-9.60005
旬	-9.60011
觀其	-9.60074
壊	-9.6008
者即	-9.60086
有事	-9.60102
砂	-9.60135
將兵	-9.60147
盟	-9.6015
僅	-9.60161
觸	-9.60168
飾	-9.60168
飽	-9.60174
攻守	-9.60202
地利	-9.60205
亷	-9.60205
朔	-9.60212
居之	-9.60212
不相	-9.60256
戰則	-9.60367
浙江	-9.60469
次之	-9.60476
無錫	-9.60697
軍門	-9.60969
戰勝	-9.61187
取勝	-9.61199
寸	-9.61252
大水	-9.61281
領兵	-9.61294
奇兵	-9.61451
君子	-9.61531
雪	-9.61644
堪	-9.61679
賊船	-9.61701
歲	-9.61705
一帶	-9.61723
大勝	-9.61751
後世	-9.61776
三沙	-9.61853
行陣	-9.61864
曰吾	-9.61906
叅	-9.61977
其兵	-9.62088
你	-9.62168
令人	-9.62186
取之	-9.62192
郎	-9.62203
斫	-9.6221
荆州	-9.62231
傅	-9.62244
埋	-9.62272
健	-9.62324
豫	-9.62325
漏	-9.62334
浚	-9.62335
粮	-9.62342
􁁊	-9.62357
艾	-9.62359
鮮	-9.62363
供	-9.62363
倚	-9.62367
鉦	-9.62368
柄	-9.62371
曰今	-9.62374
削	-9.62377
騰	-9.62377
混	-9.62387
因其	-9.62465
而不能	-9.62618
連坐	-9.62648
而下	-9.62679
大敗之	-9.62683
無以	-9.62721
其中	-9.62818
人主	-9.62926
不備	-9.62936
十餘萬	-9.62968
各以	-9.63328
取其	-9.63406
死地	-9.63447
矣然	-9.63451
其事	-9.63455
之民	-9.635
庭	-9.63665
一體	-9.63845
由是	-9.63852
賴	-9.63965
勁	-9.64008
信地	-9.64088
殿	-9.64127
鼻	-9.64286
蕭	-9.64448
藤	-9.64461
又以	-9.64464
爵	-9.64482
此為	-9.64492
庫	-9.64494
夘	-9.64543
迷	-9.64551
護	-9.64559
爛	-9.6458
貨	-9.64582
呈	-9.64585
弟	-9.64595
戈	-9.64606
蒙	-9.6462
蓄	-9.64627
孫子	-9.64634
跡	-9.64657
瓦	-9.64661
抱	-9.64672
泄	-9.64684
龜	-9.64697
辯	-9.64711
都督	-9.64714
屠	-9.64726
國之	-9.6474
弓矢	-9.64774
針	-9.64794
有三	-9.64803
萬物	-9.64898
鉛子	-9.649
乘之	-9.65015
前後左右	-9.65083
撃之	-9.65188
究	-9.65246
沿	-9.65272
之所以	-9.6545
為主	-9.65473
月蝕	-9.65529
以便	-9.65531
網	-9.65581
即以	-9.65867
二兩	-9.65958
丹陽	-9.6599
遣將	-9.66025
十三	-9.66332
五月	-9.66449
盜賊	-9.66531
自然	-9.66572
第四	-9.66588
署	-9.666
島	-9.66638
攔	-9.66659
北門	-9.66671
後漢	-9.66771
莊	-9.66829
透	-9.66834
隆	-9.66835
邨	-9.66857
擅	-9.66864
驟	-9.6689
而入	-9.66917
障	-9.66918
漫	-9.66923
村	-9.66924
覘	-9.66937
勤	-9.66938
扎	-9.66953
儲	-9.6698
雲梯	-9.66984
戴	-9.66988
基	-9.66994
囊	-9.67011
犬	-9.67016
賊自	-9.67036
黃	-9.67039
戰者	-9.67044
抄	-9.67064
併力	-9.67067
弓兵	-9.6708
平時	-9.67198
嘉靖	-9.67272
枕	-9.67322
驍勇	-9.67361
而用之	-9.6737
陸兵	-9.67393
天員	-9.67417
上有	-9.67434
者謂之	-9.67439
一旦	-9.67504
之國	-9.67735
火箭	-9.67738
不測	-9.67769
不止	-9.67887
設備	-9.68089
以待之	-9.68101
不在	-9.68107
百户	-9.6818
五十人	-9.68224
國初	-9.68306
與賊	-9.68375
賊來	-9.68396
西方	-9.68442
大陣	-9.68654
捉	-9.68707
枚	-9.68713
忍	-9.68883
僧	-9.68974
燧	-9.68982
抛	-9.69009
不可用	-9.69078
墓	-9.69137
康	-9.69161
釁	-9.69166
賦	-9.6917
太祖	-9.69178
叔	-9.69195
堂	-9.69199
辛	-9.69227
吐	-9.69234
番	-9.69237
續	-9.69275
汲	-9.69276
啓	-9.69294
廵	-9.69306
謝	-9.69317
檄	-9.69329
月暈	-9.69355
腿	-9.69359
勾	-9.69363
於後	-9.69372
賤	-9.69376
壞	-9.69378
憑	-9.69379
岡	-9.6938
棒	-9.69403
托	-9.69423
亦如之	-9.69524
千户	-9.69632
説曰	-9.69646
之説	-9.69653
寳山	-9.69669
大海	-9.69677
甲子	-9.69797
待其	-9.69912
制勝	-9.70134
大抵	-9.70357
潤	-9.7048
百萬	-9.70812
五分	-9.70927
在後	-9.70988
之南	-9.71114
奮擊	-9.71167
不宜	-9.71321
乃可	-9.71457
曽	-9.71462
殺賊	-9.71508
協	-9.71526
不絶	-9.71536
者則	-9.71543
六曰	-9.71564
在我	-9.71567
水戰	-9.71579
受敵	-9.71641
滚	-9.71647
獵	-9.71659
賈	-9.71719
彭	-9.71735
遵	-9.71735
劒	-9.71748
旱	-9.71773
殆	-9.71773
項羽	-9.71786
蒺藜	-9.71795
其道	-9.71805
壅	-9.71806
栅	-9.71817
淵	-9.71817
廬	-9.71833
捨	-9.71836
準	-9.71843
辦	-9.71864
弓箭	-9.71972
交鋒	-9.72
嵩	-9.72053
與之	-9.72158
草木	-9.72297
遇賊	-9.72405
首尾	-9.72453
莫不	-9.72483
出海	-9.725
三十六	-9.72527
王師	-9.72615
十日	-9.72672
已上	-9.72833
中間	-9.72834
智者	-9.72851
每一	-9.72937
三萬	-9.72948
不至	-9.72996
迹	-9.72997
衝兵	-9.73021
火攻	-9.73031
知縣	-9.73079
恤	-9.73096
之功	-9.73096
金星	-9.73116
客大將	-9.73194
添	-9.73201
哨至	-9.7348
之形	-9.73548
操練	-9.73672
惜	-9.73718
恱	-9.73757
六尺	-9.73784
不復	-9.73817
未可	-9.73868
佯	-9.73902
迭	-9.74035
最為	-9.74055
波	-9.74151
不入	-9.74156
搗	-9.74158
斂	-9.74181
輸	-9.74266
怪	-9.74272
幽	-9.74274
拽	-9.74278
脩	-9.74285
題	-9.74295
搏	-9.74299
鳯	-9.74304
尉	-9.74322
逹	-9.74334
有司	-9.74347
中央	-9.74356
出其不意	-9.74356
履	-9.74403
工食	-9.74419
留都	-9.74459
郡城	-9.74473
知之	-9.74484
屯田	-9.74603
五日	-9.74677
大江	-9.74716
大門	-9.74785
言之	-9.75082
今之	-9.75104
皆可	-9.75423
之變	-9.75517
五兩	-9.75559
立功	-9.75802
勵	-9.75868
福山	-9.75897
之理	-9.76056
或有	-9.7607
太倉州	-9.76141
頂	-9.76234
靖江	-9.76258
帯	-9.76267
訓	-9.76296
一分	-9.76358
線	-9.76398
軌	-9.76421
鞍	-9.76443
瘡	-9.7648
鄰	-9.76617
四年	-9.76628
儒	-9.7663
常以	-9.76682
减	-9.76685
不意	-9.76718
袋	-9.76724
凖	-9.76736
漆	-9.76794
綂	-9.76794
席	-9.76812
賀	-9.76845
鑚	-9.76853
巷	-9.76853
講	-9.76858
者勝	-9.76896
歇	-9.76906
雍	-9.76915
勾陳	-9.76928
亦無	-9.76997
䡴	-9.77068
二十五	-9.77087
由此	-9.77135
也此	-9.77258
太守	-9.7726
進兵	-9.77287
而前	-9.7756
有五	-9.77669
兩邊	-9.77753
下有	-9.77768
笑	-9.77852
或用	-9.77872
一里	-9.77872
分布	-9.77958
行列	-9.77994
無事	-9.78065
水草	-9.78091
善用兵者	-9.78105
七百	-9.78237
戰於	-9.78248
自是	-9.78258
鎮江	-9.78326
之故	-9.78354
六里	-9.78425
是為	-9.78685
四月	-9.78744
五百人	-9.78817
者當	-9.79089
來攻	-9.79162
錫	-9.79176
次第	-9.79211
幷	-9.79261
瀆	-9.79295
交戰	-9.79297
本隊	-9.79307
虞候	-9.7934
詭	-9.79342
搜	-9.79358
南方	-9.79396
塊	-9.79402
虹	-9.79412
淫	-9.79417
拜	-9.79419
坎	-9.7942
渉	-9.79434
兇	-9.79438
訪	-9.79469
訓練	-9.79474
叢	-9.79486
舞	-9.79487
廷	-9.795
北方	-9.79511
竈	-9.79543
間諜	-9.79545
燭	-9.79598
也其	-9.79731
强弱	-9.79765
白虎	-9.79824
豈能	-9.79856
一箇	-9.79938
後魏	-9.79956
古者	-9.80068
三面	-9.80144
防禦	-9.80187
而擊之	-9.80204
陣圖	-9.80268
之權	-9.8037
山谷	-9.8038
牛馬	-9.8055
平日	-9.80591
之象	-9.8071
一層	-9.80715
一路	-9.80892
漢王	-9.80898
而至	-9.80906
備之	-9.81114
篇第	-9.81131
勝也	-9.81229
無功	-9.81264
隴	-9.81273
敗走	-9.81607
輕騎	-9.81721
其機	-9.81737
丹	-9.81913
季	-9.81926
裕	-9.81993
鍾	-9.82001
漁	-9.82058
鏃	-9.82067
偷	-9.82072
歡	-9.82131
彈	-9.82133
兒	-9.82138
籠	-9.82146
展	-9.82196
懿	-9.82203
様	-9.82212
䑕	-9.82232
縳	-9.82241
昧	-9.82247
斃	-9.82247
教塲	-9.8234
一丈	-9.82459
七月	-9.82466
藏身	-9.82556
練兵	-9.8269
而不知	-9.82751
海洋	-9.82753
追擊	-9.82822
居前	-9.82904
砦東至	-9.82938
其人	-9.82941
衛所	-9.8297
髙下	-9.82982
一處	-9.83001
大潰	-9.83084
上流	-9.83097
而退	-9.8315
陣中	-9.83199
敵若	-9.83368
無窮	-9.83369
而復	-9.83412
遣人	-9.83435
方可	-9.83472
孔明	-9.83476
十月	-9.83509
起兵	-9.83532
七里	-9.83572
出師	-9.83609
間道	-9.83638
其次	-9.83655
必以	-9.83705
剋	-9.83726
法也	-9.83774
數日	-9.83838
無備	-9.83873
天時	-9.83937
諸葛亮	-9.83965
得以	-9.8397
而能	-9.84094
等處	-9.84114
十一月	-9.84136
一陣	-9.84229
奈何	-9.84246
為客	-9.84306
可得	-9.84393
四兩	-9.84435
見其	-9.84447
臯	-9.84547
溺	-9.84566
十九	-9.84575
無常	-9.84637
魁	-9.84666
綏	-9.84713
亭	-9.84774
墨	-9.8479
制之	-9.84801
豪	-9.84824
研	-9.84846
毅	-9.84871
碗	-9.84899
壽	-9.84905
揺	-9.84921
丸	-9.84921
換	-9.84943
懈	-9.84943
之徒	-9.84961
硬	-9.84969
凢	-9.84972
燃	-9.85006
萬餘	-9.85029
豪傑	-9.85031
銜枚	-9.85048
崩	-9.85054
猪	-9.85066
鬼神	-9.85083
圍之	-9.8511
靖曰	-9.85126
套	-9.8513
幡	-9.85138
翰	-9.85144
不下	-9.85185
或問	-9.85254
凡戰	-9.85372
兩旁	-9.85465
乎此	-9.85474
之力	-9.8549
其城	-9.85511
七日	-9.85576
十步	-9.85732
糧道	-9.85871
賊若	-9.8594
前軍	-9.8597
登城	-9.85999
左手	-9.8603
拒馬	-9.8607
又於	-9.86201
開門	-9.86276
哨長	-9.86317
料敵	-9.86499
我則	-9.86642
壤	-9.86778
入海	-9.86788
遁去	-9.86871
捍禦	-9.87115
我師	-9.87138
先以	-9.87159
若敵	-9.87236
句	-9.87247
各船	-9.87279
我之	-9.87353
為賊所	-9.87434
所向	-9.87499
與戰	-9.87511
殺人	-9.87521
若不	-9.87568
八人	-9.87579
課	-9.87617
促	-9.87643
挽	-9.87654
殃	-9.87702
甘	-9.87718
卜	-9.87723
咎	-9.8774
閘	-9.87742
嚮	-9.87744
髪	-9.87759
設險	-9.87777
荀	-9.87791
英	-9.87793
買	-9.87794
桅	-9.8781
妖	-9.87817
丘	-9.8782
握機	-9.87823
倦	-9.87824
閒	-9.87828
之戰	-9.8783
錐	-9.87856
宛	-9.87874
質	-9.87879
純	-9.87884
洩	-9.87934
虛實	-9.87985
生擒	-9.88015
衝鋒	-9.88026
𤣥武	-9.88071
甲士	-9.88118
即時	-9.88172
長驅	-9.8821
也又	-9.88304
舊制	-9.88313
哨探	-9.88435
一聲	-9.88435
之言	-9.88438
答	-9.88496
蘭	-9.885
天道	-9.88502
之路	-9.88537
此其	-9.8862
公曰	-9.88639
海中	-9.88666
相連	-9.88754
或曰	-9.88874
乘勝	-9.88883
謂其	-9.88902
圍城	-9.89008
手執	-9.89033
對敵	-9.89102
行則	-9.89244
列陣	-9.89267
上城	-9.89448
城池	-9.89466
所居	-9.89469
四里	-9.89561
大吉	-9.89569
東魏	-9.89584
第五	-9.89597
大呼	-9.8975
敵兵	-9.89763
肯	-9.89776
大破之	-9.89811
逐之	-9.89816
兩頭	-9.8989
諜	-9.89891
二月	-9.89933
將死	-9.89956
東方	-9.8996
或如	-9.89971
十五里	-9.90099
布陣	-9.90113
木為	-9.90126
其制	-9.90133
風后	-9.90154
破之	-9.90219
西南至	-9.90263
六月	-9.90273
兩軍	-9.90298
暇	-9.90303
肩	-9.9055
二百五十	-9.90558
淨	-9.9057
殷	-9.90606
戊	-9.90615
峽	-9.90632
薛	-9.9065
甲長	-9.90661
搭	-9.90666
董	-9.9067
遥	-9.9067
謙	-9.90672
仙	-9.90683
纂	-9.90696
五萬	-9.90721
蘆	-9.90724
活	-9.90733
閃	-9.90733
范	-9.90739
偶	-9.9074
侮	-9.90755
阿	-9.90756
災	-9.9076
氊	-9.90763
軟	-9.90764
其餘	-9.90766
圌山	-9.90769
劔	-9.90775
晦	-9.90783
桑	-9.90785
衢	-9.90788
㫖	-9.90798
仁厚	-9.90798
檢	-9.90801
杖	-9.90804
脫	-9.90808
白旗	-9.90811
黄旗	-9.90816
寄	-9.9083
鄧	-9.90831
艮	-9.90835
躬	-9.90853
筅	-9.90855
者多	-9.9086
鈀	-9.90877
水路	-9.91018
之北	-9.91073
遊兵	-9.91133
撓	-9.91178
其功	-9.91217
衝突	-9.91243
旗鼓	-9.91269
里北至	-9.91279
策應	-9.91339
子曰	-9.91342
陣也	-9.91388
洛陽	-9.91447
金皷	-9.91578
三丈	-9.91681
不肯	-9.91707
而西	-9.91714
主算	-9.91821
良將	-9.91885
得之	-9.91943
勉	-9.91969
首級	-9.91994
步卒	-9.92015
道也	-9.92103
未知	-9.92172
有二	-9.92274
出竒	-9.92417
棚	-9.92506
不整	-9.92607
一把	-9.92642
主兵	-9.92694
藍	-9.92696
賊兵	-9.92697
城郭	-9.92728
戰也	-9.92754
四十五里	-9.92924
㕘	-9.92979
長安	-9.92997
諫	-9.93005
此時	-9.93068
之謀	-9.93079
統領	-9.93164
弩手	-9.93251
一由	-9.93334
十歩	-9.93396
襄	-9.93525
曠	-9.93549
弰	-9.93611
熊	-9.93637
掘	-9.93643
澗	-9.9365
徹	-9.93653
妻	-9.93654
五六	-9.93689
快	-9.93697
冠	-9.93725
穀	-9.93728
甲寅	-9.93743
希	-9.93759
踏	-9.93759
區	-9.93762
僕	-9.93767
緣	-9.93775
所部	-9.93777
梢	-9.93784
攝	-9.93785
牢	-9.93793
館	-9.93794
扣	-9.93794
彌	-9.93795
掣	-9.93796
踐	-9.93797
貳	-9.93798
朕	-9.93811
遞	-9.93817
沮	-9.9382
撒	-9.93835
奴	-9.93837
掃	-9.93838
乍	-9.93851
左右廂	-9.93967
六國	-9.94039
既而	-9.9406
其用	-9.94081
太原	-9.94087
茅	-9.94143
此則	-9.94181
不容	-9.94192
無故	-9.94279
接戰	-9.94332
十年	-9.94465
如此則	-9.94498
為末	-9.94719
為營	-9.9472
故能	-9.94781
誰	-9.94858
不虞	-9.94858
相對	-9.94866
相與	-9.9488
矣故	-9.94896
可謂	-9.9493
郊	-9.94963
甚多	-9.94964
軍旅	-9.94988
海口	-9.9502
耳目	-9.95162
不進	-9.95285
書曰	-9.95859
仗	-9.95928
十二月	-9.95935
曺公	-9.95951
每隊	-9.96051
沒	-9.96113
墩	-9.96162
逓	-9.96256
豈有	-9.96278
八月	-9.96349
而上	-9.96423
皆為	-9.9645
耆民	-9.96472
此皆	-9.96618
部落	-9.96642
互相	-9.96665
尹	-9.967
雲如	-9.96795
攸	-9.96797
擄	-9.96811
鎖	-9.96813
齎	-9.9686
輿	-9.96865
㫁	-9.96865
鑒	-9.96866
姚	-9.96891
産	-9.96896
姓名	-9.96899
科	-9.96899
戳	-9.9691
舟楫	-9.96916
哭	-9.96916
馭	-9.96925
竅	-9.96956
濁	-9.96957
世充	-9.96958
街	-9.96964
若此	-9.9699
乖	-9.96998
亢	-9.97
槳	-9.97005
矟	-9.97019
衙門	-9.97022
九月	-9.97031
勇者	-9.97033
建徳	-9.97075
主客	-9.9715
動靜	-9.97168
彰	-9.97226
林木	-9.97271
江陰	-9.97276
吳淞	-9.97435
所見	-9.97467
軍令	-9.97782
吾軍	-9.97815
之機	-9.97969
宜興	-9.98031
數十人	-9.98042
為將	-9.98088
人所	-9.98096
手足	-9.98113
而走	-9.98143
使敵	-9.98193
亦以	-9.98283
刺史	-9.98466
糧食	-9.98543
於内	-9.98635
六百	-9.9874
因敵	-9.98802
筏	-9.98815
為天	-9.98834
夜則	-9.98871
之狀	-9.98888
堅守	-9.98942
後周	-9.98946
不失	-9.9898
國朝	-9.99024
自古	-9.99029
相接	-9.99045
常州	-9.99052
不若	-9.99057
旦	-9.99082
二寸	-9.99097
相近	-9.99214
失其	-9.99216
中原	-9.99311
陛下	-9.99344
戰而	-9.99426
者充	-9.9953
八日	-9.99559
一月	-9.99621
三四	-9.99731
放火	-9.99732
即是	-9.9975
之役	-9.99884
發兵	-9.9992
十七	-9.99935
者斬之	-9.99943
毋	-9.99961
漕	-9.99966
南滙	-9.99977
㦸	-9.9998
絞	-10.0002
轅	-10.0003
見之	-10.0005
昴	-10.0007
欵	-10.0008
穰苴	-10.0009
霜	-10.0009
詞	-10.001
苗	-10.0011
悍	-10.0012
漠	-10.0012
厲	-10.0013
允	-10.0013
嘴	-10.0014
臥	-10.0015
絳	-10.0016
兹	-10.0016
導	-10.0017
嘉興	-10.0018
衍	-10.0018
勅	-10.0018
迂	-10.0018
掩襲	-10.0019
榖	-10.0019
賣	-10.0019
嗣	-10.002
眀	-10.002
痛	-10.0021
舖	-10.0025
倶	-10.0026
女牆	-10.0027
牛皮	-10.0027
讀	-10.0028
婦人	-10.0034
當時	-10.0035
渡河	-10.0039
欲得	-10.0042
將領	-10.0049
戰士	-10.0056
破敵	-10.0057
石灰	-10.0065
只是	-10.0067
旌	-10.0068
西門	-10.0069
彗	-10.0073
二十步	-10.0074
多寡	-10.0075
為敵所	-10.0075
君臣	-10.0077
莫能	-10.0091
壯士	-10.0093
不可不	-10.0093
九宫	-10.0094
遇警	-10.0095
部伍	-10.0095
於敵	-10.0095
敵必	-10.0098
至城下	-10.0102
預備	-10.0109
不分	-10.0109
各一	-10.012
而不可	-10.0122
前進	-10.0126
叙	-10.0149
垣	-10.0153
不聽	-10.0161
變為	-10.0162
賊首	-10.0168
長洲	-10.0182
楚子	-10.0184
厥	-10.0188
客兵	-10.0195
給與	-10.0199
大旗	-10.0203
以兵	-10.0209
用車	-10.022
涼	-10.0225
然則	-10.0225
勝之	-10.0226
將吏	-10.0233
此地	-10.0239
夜半	-10.025
之禍	-10.0253
若有	-10.0255
守者	-10.0265
矣而	-10.0266
挨	-10.0268
渭	-10.0268
方陣	-10.027
便於	-10.0278
必由	-10.0285
後手	-10.0289
上來	-10.0297
不居	-10.0302
䑸	-10.0306
備倭	-10.0307
則用	-10.0309
不行	-10.0323
敵臺	-10.0324
陸路	-10.0328
廂	-10.0332
脂	-10.0334
搖	-10.0335
必不	-10.0336
𢎞	-10.0337
厰	-10.0338
税	-10.0339
頭上	-10.0339
帛	-10.0341
暑	-10.0342
巽	-10.0343
撞	-10.0343
麥	-10.0344
消	-10.0344
裁	-10.0344
歌	-10.0344
版	-10.0345
邦	-10.0346
閣	-10.0347
迅	-10.0347
闢	-10.0349
島寇	-10.0349
舒	-10.0349
遶	-10.0349
疆	-10.0349
璘	-10.0351
慕容	-10.0352
搶	-10.0352
鉞	-10.0353
庻	-10.0354
兵器	-10.0355
其氣	-10.0355
夕	-10.0355
之前	-10.0356
玩	-10.0356
軍營	-10.0356
朱雀	-10.0356
擡	-10.036
及其	-10.0362
其力	-10.0363
奸細	-10.0365
鄴	-10.0367
八卦	-10.0374
世衡	-10.038
所當	-10.038
太陽	-10.0381
州治	-10.0383
其意	-10.0383
單于	-10.0384
金山衛	-10.0388
若曽	-10.0393
首領	-10.0395
安能	-10.0399
也是以	-10.0409
南沙	-10.0413
用命	-10.0415
向來	-10.0425
平望	-10.0435
炭	-10.0438
大王	-10.0441
擊敗之	-10.0441
進攻	-10.0446
黄河	-10.045
險易	-10.0459
水軍	-10.0465
輕重	-10.0472
陸行	-10.048
一字	-10.0486
彼此	-10.0486
無益	-10.0491
為上	-10.0502
也一	-10.0508
後軍	-10.0527
天地之	-10.0531
以爲	-10.0531
其上	-10.0542
百二十里	-10.0544
士衆	-10.0552
一云	-10.0555
營寨	-10.0565
阜	-10.0567
於前	-10.0572
一哨	-10.0595
射之	-10.0606
括	-10.0609
不成	-10.0614
巴	-10.0617
炬	-10.0623
械	-10.0627
輩	-10.0627
不知其	-10.0636
牡	-10.0638
西山	-10.0641
為號	-10.0643
見敵	-10.0647
駭	-10.0653
蔡	-10.0666
桶	-10.0671
三者	-10.0672
蟲	-10.0673
躍	-10.0676
故名	-10.0679
脊	-10.0683
起於	-10.0685
俊	-10.0685
叡	-10.0686
帆	-10.0687
梅	-10.0687
槽	-10.0688
都督府	-10.069
貌	-10.069
匠	-10.0691
躡	-10.0692
兆	-10.0692
胷	-10.0692
現	-10.0693
恒	-10.0693
鷄	-10.0693
醜	-10.0694
半斤	-10.0694
礟	-10.0696
忿	-10.0696
友	-10.0696
掉	-10.0697
二十八宿	-10.0699
勲	-10.07
餌	-10.07
余	-10.07
頻	-10.0701
豎	-10.0701
堤	-10.0702
偃月	-10.0702
挿	-10.0704
飛鳥	-10.0705
而知	-10.0705
選鋒	-10.0712
蘇州府	-10.0714
件	-10.072
往往	-10.073
吳淞所	-10.073
縱火	-10.0733
武徳	-10.0737
而自	-10.0747
皆以	-10.0747
遇有	-10.0765
十斤	-10.0765
丹徒	-10.0769
如是	-10.077
三千人	-10.0781
應變	-10.0784
桂	-10.0784
受命	-10.0784
甚衆	-10.0785
至此	-10.0791
車輪	-10.0794
者斬一	-10.0799
八尺	-10.0801
江口	-10.0804
古今	-10.0804
五色	-10.0808
前行	-10.0813
降者	-10.0822
為陣	-10.0822
則民	-10.0823
矣若	-10.0827
脚下	-10.0828
攻圍	-10.0829
秦王	-10.0835
攻擊	-10.0841
二十五里	-10.0844
陸戰	-10.0844
奪其	-10.0845
曰此	-10.0863
故不	-10.0864
八百	-10.0871
二分	-10.0874
六甲	-10.0875
長城	-10.0875
糞	-10.0891
白茆	-10.0891
望見	-10.0896
孝	-10.0899
而有	-10.0902
卦	-10.0903
人有	-10.0919
乃令	-10.0923
之謂	-10.0926
以示	-10.0929
其民	-10.0929
其志	-10.0932
者此	-10.0969
千六百	-10.0982
孰為	-10.0989
一錢	-10.099
四隊	-10.0993
丙	-10.0996
一刻	-10.1003
侍	-10.101
相遇	-10.1011
一十	-10.1015
十餘	-10.1016
汛	-10.1018
被賊	-10.1018
儉	-10.1035
腦	-10.1036
焦	-10.1042
浩	-10.1043
屯兵	-10.1043
揮	-10.1045
節度使	-10.1045
冷	-10.1046
跪	-10.1046
日入酉	-10.1048
設兵	-10.1049
競	-10.1049
飯	-10.1049
乂	-10.1049
㨿	-10.105
蠻夷	-10.105
九軍	-10.105
飬	-10.1051
武王問太公曰	-10.1051
泣	-10.1052
擬	-10.1052
趣	-10.1052
芻	-10.1052
矛	-10.1053
顛	-10.1054
絹	-10.1054
釐	-10.1054
憤	-10.1055
晚	-10.1055
社	-10.1057
㐫	-10.1058
誤事	-10.1058
虎翼	-10.1059
鹿角	-10.1061
如前	-10.1064
剃	-10.1065
長一丈	-10.1065
莫敢	-10.1066
浙直	-10.1066
引軍	-10.1069
精鋭	-10.107
用其	-10.1073
為名	-10.1073
亦然	-10.1077
敗也	-10.1079
仁義	-10.1081
青邨	-10.1083
於人	-10.1084
一方	-10.1086
崑山縣	-10.1097
人事	-10.1099
不克	-10.1103
太平	-10.1113
劉河	-10.1114
大者	-10.1121
際	-10.1122
何如	-10.1123
用此	-10.1124
兵以	-10.1124
藥線	-10.1126
饒	-10.1129
每日	-10.113
副使	-10.1131
百餘	-10.1133
鴛鴦陣	-10.1134
垜口	-10.1139
舟師	-10.114
不畏	-10.1143
率然	-10.1143
善用	-10.1146
官府	-10.1148
所宜	-10.1149
狀如	-10.1168
甲兵	-10.1174
即便	-10.119
夾攻	-10.1192
松江府	-10.1212
禦敵	-10.1217
晉師	-10.1217
四時	-10.122
不聞	-10.122
古法	-10.1229
敵將	-10.1237
發放	-10.1239
之衝	-10.1241
者不可	-10.1242
難以	-10.1243
諸營	-10.1244
戰國	-10.1244
可也	-10.1249
地有	-10.1249
四十里南至	-10.1254
易於	-10.1261
應敵	-10.1263
曰天	-10.1273
之費	-10.1274
為將者	-10.1279
之法也	-10.1282
制度	-10.1285
實用	-10.1291
敵國	-10.1297
無敵	-10.1301
待之	-10.1301
兵少	-10.1311
勿令	-10.1322
不可攻	-10.1324
常山	-10.1326
相當	-10.1327
莽	-10.1331
破賊	-10.1332
人人	-10.134
日中	-10.1345
悔	-10.1346
每人	-10.1347
入營	-10.1354
起火	-10.1356
未定	-10.1357
戰車	-10.1363
矩	-10.1367
肥	-10.1368
百五十里	-10.1369
三十五里	-10.1379
令其	-10.1393
凉	-10.1396
縮	-10.1399
灘	-10.1401
纛	-10.1408
而又	-10.141
隄	-10.141
鋼	-10.1412
股	-10.1413
則不	-10.1414
枯	-10.1414
佚	-10.1414
煉	-10.1414
馮	-10.1415
讒	-10.1416
屏	-10.1417
綱	-10.1418
簿	-10.1418
惰	-10.1418
愬	-10.1418
者謂	-10.1418
蹈	-10.1419
絲	-10.1419
屍	-10.1419
貼	-10.1419
凡兵	-10.142
玠	-10.142
鉄	-10.142
日出卯	-10.142
渴	-10.1421
睡	-10.1422
誕	-10.1423
表裏	-10.1424
悟	-10.1424
踈	-10.1424
陣於	-10.1424
恨	-10.1424
赦	-10.1425
墮	-10.1425
畱	-10.1426
凝	-10.1427
嗚呼	-10.1429
讐	-10.1429
不齊	-10.1432
慣	-10.1432
東京	-10.1435
𣲖	-10.1435
僻	-10.1436
瞭望	-10.1438
五百里	-10.1446
江防	-10.1453
方色	-10.1453
賊必	-10.1457
陰陽	-10.146
至是	-10.1464
出洋	-10.1473
兩翼	-10.1474
不暇	-10.148
而我	-10.1485
不惟	-10.1486
此法	-10.1491
客勝	-10.1508
八分	-10.1512
之陣	-10.1524
有憂	-10.1524
魏將	-10.1531
自相	-10.1534
非有	-10.1534
不定	-10.1538
合戰	-10.154
無遺	-10.1545
鄉兵	-10.1558
有備	-10.1566
之妙	-10.1573
兵夫	-10.1586
在焉	-10.1591
進軍	-10.1592
各營	-10.1602
利而	-10.1603
大風	-10.1609
不服	-10.161
入寇	-10.1611
大驚	-10.162
吳人	-10.162
二十八	-10.1625
靡	-10.1634
勝者	-10.1643
浙	-10.1647
水中	-10.1657
其陣	-10.1658
其名	-10.1658
無有	-10.166
不欲	-10.166
二日	-10.166
賊已	-10.167
加之	-10.1674
三星	-10.1675
十里西至	-10.168
豈不	-10.1683
相救	-10.1704
一也	-10.1709
州城	-10.1712
二三	-10.1714
天門	-10.1715
二宫	-10.1716
先行	-10.1722
將校	-10.1733
縣境	-10.1733
戰鬭	-10.1734
軍至	-10.1734
嘉定縣	-10.1739
有四	-10.1742
門外	-10.1753
在上	-10.1753
毬	-10.1758
賊勢	-10.1759
事機	-10.1761
今後	-10.1771
五方	-10.1771
袁	-10.1772
出城	-10.1776
而用	-10.1781
洮	-10.1781
栢	-10.1785
衆心	-10.1785
劄	-10.1785
滑	-10.1786
眉	-10.1789
夀	-10.179
派	-10.179
海上	-10.1792
俘	-10.1793
晨	-10.1793
醫	-10.1794
堠	-10.1795
樵	-10.1795
部署	-10.18
侃	-10.18
此之謂	-10.1801
廹	-10.1802
鈔	-10.1803
穆	-10.1803
酌	-10.1804
錄	-10.1804
叉	-10.1804
那	-10.1805
五人為伍	-10.1805
两	-10.1805
舗	-10.1806
梗	-10.1806
暫	-10.1806
醋	-10.1806
耀	-10.1806
繡	-10.1808
喧	-10.1808
狂	-10.1809
絕	-10.181
义	-10.1811
寵	-10.1811
爲之奈何太公曰	-10.1812
呐喊	-10.1812
祖宗	-10.1813
晟	-10.1813
兵備道	-10.1813
氐	-10.1813
急攻	-10.1813
稟	-10.1814
曰賊	-10.1819
箕	-10.182
約束	-10.1821
慶厯中	-10.1821
腹心	-10.1823
斬獲	-10.1824
更畨	-10.1825
川沙	-10.1831
老弱	-10.1832
甕	-10.1835
勇怯	-10.1835
四門	-10.1835
不言	-10.1839
呉淞江	-10.1839
西界	-10.184
為我	-10.1844
便宜	-10.1848
周圍	-10.185
犯之	-10.1856
遣兵	-10.1856
角聲	-10.1857
左右前後	-10.1857
六十四	-10.186
火毬	-10.1864
江海	-10.1873
不堪	-10.1879
用起	-10.188
使之	-10.1886
聞賊	-10.1891
之方	-10.1892
之罪	-10.1906
至州	-10.1908
邀擊	-10.191
百八十里	-10.1911
行者	-10.1915
諸郡	-10.1916
數百人	-10.1918
鳴金	-10.1919
擊賊	-10.1922
而歸	-10.1929
元帥	-10.1944
遣使	-10.1953
三寸	-10.1964
視之	-10.1972
偏將	-10.1983
地名	-10.199
要路	-10.1996
水口	-10.2001
又云	-10.2007
守備	-10.201
施行	-10.2011
一百二十里	-10.2022
八里	-10.2024
退走	-10.2028
十分	-10.203
一百二十	-10.2033
大衆	-10.2039
蹙	-10.2044
為正兵	-10.205
一百五十	-10.2051
殊不知	-10.2062
一座	-10.2065
以拒	-10.2066
賊徒	-10.2074
不免	-10.2078
不可勝	-10.2085
長江	-10.2088
陣前	-10.2089
然而	-10.2096
分遣	-10.2102
其言	-10.2116
隅	-10.2125
軍吏	-10.213
盞	-10.213
難於	-10.213
踵	-10.2137
帥師	-10.2147
其身	-10.2151
不可擊	-10.2153
十八里	-10.2161
漲	-10.2163
之圖	-10.2166
當先	-10.2167
李筌	-10.2171
酋	-10.2179
五方旗	-10.2187
不得已	-10.219
瞭	-10.2191
砍	-10.2191
圏	-10.2192
効	-10.2192
爪	-10.2192
翻	-10.2195
胸	-10.2196
腫	-10.2196
十二年	-10.2198
禀	-10.2199
濵	-10.2199
以正	-10.22
拍	-10.22
桀	-10.2202
託	-10.2202
胃	-10.2202
泛	-10.2204
閭	-10.2206
傔	-10.2206
勦	-10.2207
堆	-10.2207
宴	-10.2207
幅	-10.2208
吞	-10.2209
紛	-10.221
圮	-10.221
彬	-10.2211
恥	-10.2211
脇	-10.2211
優	-10.2211
鳥翔	-10.2212
喝	-10.2213
甘草	-10.2214
人以	-10.2214
契	-10.2216
對樓	-10.2217
戲	-10.2219
安營	-10.2221
士不	-10.2221
飲食	-10.2226
府城	-10.2227
軍事	-10.223
敗之	-10.2231
聲援	-10.2235
兩軍相當	-10.2241
皇帝	-10.2241
流血	-10.2249
摩	-10.225
大約	-10.2252
輕兵	-10.2252
七寸	-10.2256
九年	-10.2257
務要	-10.2258
藤牌	-10.2259
所敗	-10.2266
羊山	-10.2274
殺殺	-10.2281
便利	-10.2281
遊軍	-10.2299
縣地	-10.2301
八隊	-10.2303
三隊	-10.2309
狼兵	-10.2312
未得	-10.2312
其家	-10.2312
部曲	-10.2313
楚師	-10.2313
堅壁	-10.2315
是時	-10.2315
小者	-10.2323
復為	-10.2332
野利	-10.2335
孫子曰	-10.2341
違者	-10.2347
或作	-10.235
豈可	-10.2351
水闗	-10.2351
之屬	-10.2359
武進	-10.2367
天橋	-10.2376
外有	-10.238
賊遂	-10.2383
傳曰	-10.2384
有賊	-10.2398
一二	-10.2407
之令	-10.241
四竒	-10.2414
可行	-10.2425
萬餘人	-10.243
南曰	-10.2432
進步	-10.2436
千九百	-10.2442
之精	-10.2443
亦不能	-10.2444
要衝	-10.2446
先後	-10.2447
填星	-10.2453
方圓	-10.2457
五兵	-10.2459
軍馬	-10.2459
則知	-10.2466
不當	-10.2475
為一隊	-10.2481
三十人	-10.2486
金鼔	-10.2488
前手	-10.2488
一戰	-10.2498
亦曰	-10.25
亦多	-10.2509
六花	-10.251
伊	-10.2514
一丈五尺	-10.2523
也故曰	-10.2538
夾擊	-10.2544
砲石	-10.2547
里西至	-10.2548
不信	-10.2551
賊人	-10.2553
前隊	-10.2563
嵗星	-10.2563
軫	-10.2566
見賊	-10.2569
彗星	-10.2571
蓬	-10.2577
八千	-10.2586
城堡	-10.2595
遙	-10.2595
邇	-10.2595
泖	-10.2596
八宫	-10.26
韶	-10.2601
拏	-10.2603
介	-10.2605
在此	-10.2606
置州	-10.2606
蜂	-10.2607
蹄	-10.261
疊	-10.2611
尺寸	-10.2612
燔	-10.2613
右為末	-10.2613
斥	-10.2613
曜	-10.2613
謬	-10.2614
煮	-10.2614
鄉導	-10.2614
羊馬城	-10.2615
跳盪	-10.2615
乳	-10.2615
藩	-10.2615
鼎	-10.2615
遁走	-10.2615
做	-10.2616
黄石公	-10.2616
陂	-10.2616
汴	-10.2618
哀	-10.2618
逰	-10.2619
樁	-10.262
呌	-10.2621
氷	-10.2621
騐	-10.2621
郤	-10.2622
日夜	-10.2623
盆	-10.2623
天地風雲	-10.2623
筆	-10.2624
寓	-10.2624
蘓	-10.2625
兔	-10.2625
天罡	-10.2625
之事也	-10.2625
喊	-10.2626
柳	-10.2626
照前	-10.2626
植	-10.2626
孫權	-10.2627
租	-10.2627
院	-10.2628
兵防考	-10.2628
槩	-10.263
纒	-10.2631
已而	-10.2631
殄	-10.2631
刄	-10.2632
招善	-10.2633
或雲氣	-10.2635
一齊	-10.2636
一城	-10.2638
巾	-10.2639
洪武	-10.2641
江東	-10.2641
紹興	-10.2643
動静	-10.2646
埋伏	-10.2649
器具	-10.2651
單騎	-10.2657
四維	-10.2666
大而	-10.267
利於	-10.2672
伍法	-10.2673
出而	-10.2676
號為	-10.2676
行師	-10.2677
指揮使	-10.2683
之家	-10.2683
當道	-10.2684
布列	-10.2688
麾下	-10.2693
五錢	-10.2696
僧兵	-10.2701
大將囚	-10.2702
五斤	-10.2705
城週圍	-10.2715
當其	-10.272
尚書	-10.2726
者乎	-10.2729
周公	-10.274
二錢	-10.2742
一升	-10.2743
而南	-10.2745
四夷	-10.275
精神	-10.2762
八寸	-10.2762
結陣	-10.2766
之物	-10.2769
力戰	-10.2788
河南	-10.2793
矣今	-10.2795
如此者	-10.2804
善戰者	-10.2805
司馬法	-10.2806
於天下	-10.2807
領兵官	-10.2808
百歩	-10.2814
川州	-10.2822
城邑	-10.2825
俱在	-10.2834
子午	-10.2836
一則	-10.2837
以次	-10.2839
者任	-10.2846
士民	-10.2847
郡縣	-10.2852
兵不	-10.2878
迎敵	-10.2881
自此	-10.2885
習之	-10.2887
唐置	-10.2887
止於	-10.289
所長	-10.289
四角	-10.2891
下馬	-10.2892
一十八	-10.2894
新城	-10.2895
其軍	-10.2902
隨時	-10.2907
砦在	-10.2911
公子	-10.2919
之使	-10.2921
者敗	-10.2924
見於	-10.2925
者無	-10.2928
或由	-10.2929
自固	-10.293
此是	-10.2948
步軍	-10.2953
以鐵	-10.2966
然其	-10.2968
上用	-10.2973
郡守	-10.2985
十二里	-10.2991
孫武	-10.2994
諸沙	-10.2995
以竒	-10.3
濱	-10.3003
其説	-10.3003
措	-10.3004
紅旗	-10.3012
百餘里	-10.3018
江中	-10.302
后	-10.3021
桓	-10.3022
二郡	-10.3024
以禦	-10.3025
童	-10.3028
樊	-10.303
烽火	-10.3032
軍器	-10.3032
先據	-10.3032
汗	-10.3036
膝	-10.3036
忻	-10.3037
什	-10.3037
椒	-10.3043
羈	-10.3043
灣	-10.3044
揚州	-10.3045
幹	-10.3045
晴	-10.3046
猝	-10.3047
黔	-10.3047
坡	-10.3048
頑	-10.3049
倫	-10.3049
焰	-10.3049
大洋	-10.3049
桃	-10.305
膊	-10.305
毫	-10.3051
膠	-10.3051
誡	-10.3051
五十步	-10.3052
撫按	-10.3052
喉	-10.3052
苻堅	-10.3054
暉	-10.3054
燥	-10.3054
貸	-10.3054
暢	-10.3054
縫	-10.3055
苟	-10.3055
鄙	-10.3055
䘮	-10.3055
炊	-10.3056
慈	-10.3056
阨	-10.3056
絡	-10.3056
鎚	-10.3057
尸	-10.3057
饋	-10.3057
祿	-10.3057
慰	-10.3057
地也	-10.3057
詰	-10.3057
牒	-10.3057
令士卒	-10.3058
而易	-10.3058
仇	-10.3058
湏	-10.3059
竄	-10.3059
㡬	-10.306
消息	-10.3061
霹靂	-10.3061
祠	-10.3061
懦	-10.3063
土兵	-10.3064
奎	-10.3064
杵	-10.3065
曳	-10.3066
須臾	-10.3067
漿	-10.3067
焚劫	-10.3067
縋	-10.3067
管仲	-10.3068
敏	-10.307
伯升	-10.3072
夾浦	-10.3073
精銳	-10.3074
溪洞	-10.3077
四隅	-10.3078
晉侯	-10.3081
戰船	-10.3082
用間	-10.3084
經畧	-10.3087
矣一	-10.3091
施於	-10.3093
地道	-10.3096
唐太宗	-10.3097
誅之	-10.3099
吳起	-10.3101
子儀	-10.3106
其實	-10.3106
逼近	-10.3111
後有	-10.3112
晉人	-10.3116
六軍	-10.3116
船隻	-10.3117
三宫	-10.3118
奔走	-10.3118
影	-10.3118
占之	-10.3124
安危	-10.3131
徃來	-10.3134
而止	-10.3135
一寸	-10.3138
以木	-10.3141
平原	-10.3151
動則	-10.3151
癸	-10.3153
其數	-10.3156
火光	-10.316
劉備	-10.3166
分為二	-10.3168
救援	-10.3176
五代	-10.3183
前有	-10.3194
江陵	-10.3195
數千人	-10.3197
文王	-10.3199
歩騎	-10.32
其利	-10.3211
者可使	-10.3215
丈餘	-10.3219
則可以	-10.3224
二州	-10.3226
以重	-10.3231
相拒	-10.3232
在軍	-10.3232
六寸	-10.3239
以守	-10.3244
有伏兵	-10.3252
二隊	-10.3259
參將	-10.3264
七曰	-10.3265
恐其	-10.3271
無復	-10.3276
三十里北至	-10.3278
餉	-10.3283
當以	-10.3286
擒之	-10.329
中置	-10.329
官旗	-10.329
數十里	-10.3301
城上人	-10.3306
决戰	-10.3311
在城	-10.3314
放砲	-10.3314
賊將	-10.3314
則止	-10.3326
觀之	-10.3328
六千	-10.3331
大小將	-10.3332
而致	-10.3349
事宜	-10.3351
珥	-10.3356
六合	-10.3358
營内	-10.3359
賢者	-10.3359
二十六	-10.336
為第一	-10.3366
海鹽	-10.3367
任之	-10.3372
四海	-10.3385
我以	-10.3386
馬步	-10.3394
淮南	-10.3395
鑼	-10.3396
用人	-10.3404
驍	-10.3404
唵	-10.3411
生於	-10.3415
軍於	-10.3419
武帝	-10.3419
而已矣	-10.3429
二斤	-10.3443
有無	-10.3451
攻具	-10.3453
在縣	-10.3458
兵大起	-10.3463
兵有	-10.3463
壬	-10.3464
賊退	-10.3466
利在	-10.3473
天文	-10.3479
擂	-10.3481
輕敵	-10.3481
七年	-10.3485
詩	-10.3486
而立	-10.3487
巫	-10.3488
入江	-10.3488
閑	-10.3489
定州	-10.3491
也惟	-10.3492
之䇿	-10.3494
訣	-10.3496
六壬	-10.3497
豹	-10.3498
二名	-10.3498
三爿沙	-10.35
治之	-10.3501
雇	-10.3502
水流	-10.3502
聨	-10.3502
如山	-10.3503
丞	-10.3503
者使	-10.3504
漢之	-10.3504
随	-10.3505
蚩尤	-10.3505
析	-10.3505
替	-10.3505
嫌	-10.3506
従	-10.3506
姓	-10.3507
攘	-10.3507
珠	-10.3508
駐劄	-10.3508
伎	-10.3509
婦女	-10.351
琳	-10.351
岐	-10.3511
萇	-10.3512
愼	-10.3512
棹	-10.3512
相望	-10.3512
撲	-10.3512
迺	-10.3512
彦	-10.3513
掎角	-10.3513
溢	-10.3514
仙芝	-10.3514
縦	-10.3514
澄	-10.3515
欠	-10.3515
賔	-10.3517
瓶	-10.3518
槌	-10.3518
莊宗	-10.3518
所臨	-10.3518
日蝕	-10.3519
窄	-10.3521
東曰	-10.3522
磚石	-10.3522
疫	-10.3523
禹	-10.3524
震澤	-10.3525
羽林	-10.3527
財物	-10.3529
賞罸	-10.3532
妻子	-10.3534
之謂也	-10.3535
遠近	-10.3542
兩端	-10.3544
十二辰	-10.3547
文王曰	-10.355
以至	-10.355
直符	-10.3553
俄而	-10.3557
示之	-10.3559
太陰	-10.356
春汛	-10.3562
等項	-10.3562
牙旗	-10.3562
客挾	-10.3566
必無	-10.3567
勿與戰	-10.3567
一條	-10.3569
本縣	-10.3569
呼曰	-10.3577
之險	-10.358
吳縣	-10.358
之策	-10.3581
待他	-10.3586
登明	-10.3586
天衡	-10.359
之志	-10.3594
秦之	-10.3596
四分	-10.3597
十五里北至	-10.3605
二十五人	-10.3605
一營	-10.3607
則國	-10.3616
星者	-10.3619
調度	-10.3625
凡遇	-10.3627
武王曰	-10.3629
月犯	-10.3646
不敢近	-10.3646
一部	-10.3649
兵備	-10.3651
中國之	-10.3664
七尺	-10.3667
凡軍中	-10.367
以制	-10.3673
四陣	-10.3683
城樓	-10.3686
論兵	-10.369
形如	-10.3697
城北	-10.3704
地户	-10.3705
哨船	-10.3705
以成	-10.3709
當敵	-10.3713
水火	-10.3714
内有	-10.3714
軍敗	-10.3715
渡江	-10.3716
竹木	-10.3719
七星	-10.3721
雲中	-10.3724
以應之	-10.3727
賊見	-10.373
通計	-10.3733
夜間	-10.3744
以前	-10.3746
南岸	-10.3748
相合	-10.375
可不	-10.3752
拒守	-10.3754
鹽州	-10.3756
鼓譟	-10.3758
磚	-10.3763
之官	-10.3764
四萬	-10.3765
一宫	-10.3769
無失	-10.3772
分野	-10.3772
三江	-10.3784
精騎	-10.3787
欲其	-10.3788
汾	-10.3796
敵有	-10.3796
棄之	-10.38
之卒	-10.3802
如賊	-10.3807
麟	-10.3809
幟	-10.3809
笑曰	-10.3811
六宫	-10.3813
可見	-10.3814
士馬	-10.3819
受之	-10.3823
而制	-10.3828
重兵	-10.3831
四寸	-10.3842
於上	-10.3845
矣此	-10.3854
始擊將	-10.3865
令軍中	-10.3873
戰必	-10.3875
平地	-10.3879
三百人	-10.3881
第十	-10.3892
一百七十	-10.3894
譬	-10.3894
西魏	-10.3896
主大將	-10.3899
哨守	-10.3901
而求	-10.3904
舉火	-10.3904
教習	-10.3914
金城	-10.3928
其鋒	-10.3937
隨其	-10.3941
療	-10.3949
吳子	-10.395
右軍	-10.3955
礦	-10.3958
電	-10.3959
獄	-10.396
登髙	-10.3961
𤓰	-10.3964
城池考	-10.3965
熬	-10.3965
有力	-10.397
錦	-10.3972
摘	-10.3977
亞	-10.3979
官塘	-10.398
𠞰	-10.398
册	-10.398
撰	-10.398
韋	-10.3981
俯	-10.3981
炮	-10.3982
徼	-10.3983
狐	-10.3983
覩	-10.3983
陶	-10.3983
宋許洞撰	-10.3983
捺	-10.3984
閱	-10.3984
延州	-10.3984
鐸	-10.3984
壇	-10.3985
棘	-10.3985
邏	-10.3985
場	-10.3985
皷譟	-10.3986
黙	-10.3986
峙	-10.3987
惶	-10.3987
宮	-10.3987
禾	-10.3989
社稷	-10.3989
老鸛嘴	-10.3989
奈何太公曰	-10.399
烏珠	-10.399
劇	-10.399
捧	-10.3991
與我	-10.3991
赴之	-10.3991
盪	-10.3991
木城	-10.3991
犇	-10.3992
倡	-10.3992
薦	-10.3992
裙	-10.3993
劉裕	-10.3993
曲阿	-10.3993
毘陵	-10.3993
冝	-10.3993
狼筅	-10.3994
稜	-10.3995
休息	-10.3995
刅	-10.3996
江淮	-10.3996
髮	-10.3997
兎	-10.3997
人多	-10.3997
雉	-10.3998
巡邏	-10.3999
寫	-10.3999
許浦	-10.4
二哨	-10.4
喇叭	-10.4001
河莊	-10.4001
一斗	-10.4001
篷	-10.4001
可勝	-10.4002
而反	-10.4002
悖	-10.4003
庚申	-10.4004
許洞曰	-10.4004
漁船	-10.4006
明徹	-10.4008
逼城	-10.4008
是日	-10.4009
築堡	-10.4012
五丈	-10.4014
酋長	-10.4015
䇿應	-10.4017
常熟縣	-10.4019
截殺	-10.4023
日出	-10.4027
赤色	-10.4029
違令	-10.403
吳越	-10.4034
㑹哨	-10.4035
甲申	-10.4036
之境	-10.4037
後行	-10.4037
多而	-10.4042
一説	-10.4043
十兩	-10.4052
洞子	-10.4057
鼓聲	-10.4058
其所以	-10.4059
樓船	-10.406
相生	-10.4066
興兵	-10.4068
四宫	-10.4072
主目	-10.4075
勇力	-10.4078
一十五	-10.4087
吳淞江口	-10.4087
於海	-10.4087
使賊	-10.4092
凡軍行	-10.4092
備禦	-10.4093
左角	-10.4094
成都	-10.4095
順風	-10.4101
佐之	-10.4103
天雨	-10.4104
二十日	-10.4119
修築	-10.4119
不到	-10.4126
文武	-10.4132
水寨	-10.4135
有大	-10.4141
奇正	-10.4141
聲勢	-10.4148
即今	-10.4156
衆人	-10.416
陷陣	-10.4163
為方陣	-10.417
軍節度	-10.4177
死戰	-10.4179
以戰	-10.4186
所用	-10.4187
仍令	-10.4187
焚其	-10.419
以威	-10.4192
不可使	-10.4195
軍政	-10.4211
人力	-10.4214
算短	-10.4216
一切	-10.4218
豈非	-10.4219
歩兵	-10.4228
據險	-10.4228
無定	-10.4235
事者	-10.4235
矣夫	-10.4236
已定	-10.4236
石門	-10.4239
夏州	-10.4241
諸國	-10.4245
立營	-10.4248
星在	-10.4253
六七	-10.4259
兵家之	-10.4268
趙軍	-10.4269
否則	-10.4275
利器	-10.4278
勇而	-10.4288
許之	-10.4289
西行	-10.4302
國有	-10.4303
人情	-10.4309
滅之	-10.4309
賢人	-10.4316
夜遁	-10.4317
乎曰	-10.4322
其情	-10.4327
大砲	-10.433
執旗	-10.433
數年	-10.433
北控	-10.4336
他棍	-10.434
從此	-10.4341
去處	-10.4345
之難	-10.4346
戰守	-10.4352
未必	-10.4355
固有	-10.4357
九十	-10.4358
敵衆	-10.4361
千萬	-10.4367
分數	-10.4367
覽	-10.4368
軍餘	-10.4372
打下	-10.4378
至于	-10.4382
揀	-10.4383
有聲	-10.4385
倘	-10.4388
之神	-10.4395
前竒	-10.4398
察其	-10.4402
别有	-10.4403
副將	-10.4412
也太宗曰	-10.4414
不中	-10.4415
一夜	-10.4417
戰死	-10.4421
以求	-10.4424
上將	-10.4426
髙山	-10.4431
蠱	-10.4441
軍次	-10.4443
此所謂	-10.4449
大事	-10.445
十餘里	-10.4451
其妙	-10.4453
檀	-10.4454
弝	-10.4458
筋	-10.4461
啟	-10.4462
速戰	-10.4462
觜	-10.4464
礙	-10.447
火發	-10.4472
菜	-10.4472
賂	-10.4473
金瘡	-10.4474
隣	-10.4474
灌之	-10.4475
采	-10.4475
闔	-10.4476
溧陽	-10.4477
懾	-10.4478
以利	-10.4478
鍊	-10.4479
磧	-10.448
貞	-10.4481
鵝	-10.4481
成敗	-10.4481
遭	-10.4481
孝寛	-10.4482
叫	-10.4482
融	-10.4482
綴	-10.4483
窘	-10.4483
罕	-10.4483
匝	-10.4483
搆	-10.4484
之術也	-10.4484
武王曰善哉	-10.4486
攅	-10.4486
蒸	-10.4487
繪	-10.4487
陞	-10.4487
渤海	-10.4487
弔	-10.4488
珍	-10.4489
者或	-10.4489
揣	-10.449
法令	-10.449
晏	-10.449
羸	-10.449
簇	-10.4491
秉	-10.4491
禽獸	-10.4491
𢎞治	-10.4491
鬱	-10.4492
矯	-10.4492
弇	-10.4492
杓	-10.4493
所得	-10.4493
脅	-10.4493
拾	-10.4498
狥	-10.4498
總督	-10.4498
喻	-10.4498
繼之	-10.4499
父母	-10.4499
龍虎鳥蛇	-10.45
吉凶	-10.4502
撤	-10.4502
驍騎	-10.4503
神后	-10.4504
未見	-10.4504
弭	-10.4506
倭患	-10.4506
退縮	-10.4508
召募	-10.4509
四季	-10.4515
遊擊	-10.4516
武王	-10.4516
人君	-10.4523
衣服	-10.4524
班師	-10.4525
出沒	-10.4529
四正	-10.4531
襲之	-10.4531
夜五十	-10.4533
挨牌	-10.4534
未嘗不	-10.4541
東行	-10.4552
為賊	-10.4554
某處	-10.4556
殺傷	-10.4558
束伍	-10.4561
出没	-10.4564
為五	-10.4567
主挾	-10.4568
自守	-10.4568
十五年	-10.4569
獲其	-10.4571
石湖	-10.4573
似宜	-10.4578
曰我	-10.4581
唐初	-10.4588
一枚	-10.4589
乘其	-10.4597
逺望	-10.4604
不精	-10.4606
全勝	-10.4615
勝敗	-10.4616
無他	-10.4618
於城上	-10.4625
上海縣	-10.4631
生鐵	-10.4632
氣衰	-10.4637
中黄	-10.4643
若遇	-10.4643
所獲	-10.4643
南城	-10.4644
各哨	-10.4648
突入	-10.4649
總兵官	-10.465
提兵	-10.4651
正東	-10.4653
以為然	-10.4654
收兵	-10.466
靈州	-10.466
月城	-10.4669
先登	-10.4674
名將	-10.4686
此書	-10.4689
募兵	-10.4697
賊中	-10.4703
地軸	-10.4705
計也	-10.4707
部下	-10.4708
諸部	-10.471
未有不	-10.4712
天上	-10.4712
戰不勝	-10.4713
放銃	-10.4714
寇至	-10.4714
也何也	-10.4714
紀效新書卷	-10.4719
而遁	-10.4723
諸将	-10.4724
皆用	-10.4725
敢有	-10.4729
戍守	-10.473
赤雲	-10.4732
去其	-10.4732
擊大破之	-10.4735
人之所	-10.4741
潭	-10.4746
倭賊	-10.4747
無忌	-10.4764
六年	-10.4773
七十二	-10.4774
而趨	-10.4775
遼東	-10.4775
未至	-10.4782
人民	-10.4787
當有	-10.4788
而作	-10.4789
軍民	-10.4789
持重	-10.479
援兵	-10.4793
三十二	-10.4805
河西	-10.4813
氣勢	-10.4814
臨戰	-10.4827
民間	-10.4833
焚之	-10.4836
手法	-10.4838
而成	-10.4843
金壇	-10.4847
行事	-10.4855
領之	-10.4857
而天下	-10.4861
以東	-10.4879
驅之	-10.4881
亦難	-10.4885
伐之	-10.4891
非常	-10.4892
將有	-10.4895
諳	-10.4898
杭	-10.4901
前哨	-10.4919
進戰	-10.4922
竹箔沙	-10.4926
冐	-10.4926
三五	-10.4931
鎗刀	-10.4938
絶其	-10.494
中京	-10.4941
悞	-10.4943
祥	-10.4948
凡三	-10.4948
昔者	-10.4949
常鎮	-10.495
得勝	-10.4954
逺來	-10.4956
火燒	-10.496
鉛	-10.4962
魏軍	-10.497
至今	-10.4977
無疑	-10.4987
小吉	-10.4987
飄	-10.4988
趕	-10.4989
一件	-10.4993
虧	-10.4993
致其	-10.4994
本營	-10.4995
蕪湖	-10.4996
稀	-10.4996
鈍	-10.4998
洲	-10.4999
鎧	-10.4999
不應	-10.4999
光弼	-10.5001
迄	-10.5002
渚	-10.5005
尋	-10.5006
炒	-10.5006
誣	-10.5007
爽	-10.5008
評	-10.5008
葛	-10.5008
武經總要後集卷	-10.501
橛	-10.501
恣	-10.501
囉	-10.501
艱	-10.5011
沸	-10.5011
宇文	-10.5012
桄	-10.5014
滋	-10.5015
懲	-10.5015
天之	-10.5015
樓櫓	-10.5015
沃	-10.5015
宏	-10.5015
百戰百勝	-10.5015
迥	-10.5016
楓橋	-10.5016
驚擾	-10.5016
頼	-10.5016
贊	-10.5016
況	-10.5016
明戚繼光撰	-10.5017
腰刀	-10.5017
他皆倣此	-10.5018
不救	-10.5018
翎	-10.5018
捐	-10.5018
粘	-10.5018
鮮卑	-10.5019
袖	-10.5019
綂領	-10.5019
脈	-10.5019
緒	-10.502
雖多	-10.5021
徧	-10.5021
舵工	-10.5021
攀	-10.5021
風濤	-10.5021
交趾	-10.5021
焚掠	-10.5022
輛	-10.5023
枉	-10.5024
日風從	-10.5024
軍䜟曰	-10.5025
頸	-10.5025
奪之	-10.5026
煑	-10.5027
綏州	-10.5029
洞庭	-10.5031
福建	-10.5033
戒嚴	-10.5033
上者	-10.5037
再拜	-10.5038
不來	-10.5042
六畜	-10.5042
京師	-10.5046
忠義	-10.5047
胥口	-10.5049
流矢	-10.5049
鳴鼓	-10.505
傳報	-10.505
餘衆	-10.5051
前面	-10.5055
數百里	-10.5058
夜四十	-10.5062
子孫	-10.5062
克之	-10.5065
日暮	-10.5068
相克	-10.507
成化	-10.5075
合而	-10.5076
前鋒	-10.5078
萬里	-10.5082
海岸	-10.5082
東下	-10.5088
發火	-10.5088
上風	-10.5091
每遇	-10.5092
是夜	-10.5097
則易	-10.5099
旗一面	-10.5102
四日	-10.5104
於城	-10.5107
騎士	-10.5107
來援	-10.5109
徳安	-10.511
齊發	-10.5113
所轄	-10.5114
海塘	-10.5119
凡軍	-10.5119
方畧	-10.5131
照依	-10.5133
則衆	-10.5134
其君	-10.5144
征伐	-10.5144
隊頭	-10.5146
府治	-10.5153
哉故	-10.5154
教師	-10.5156
分為三	-10.5159
死矣	-10.5159
半兩	-10.516
諸將皆	-10.5162
隨身	-10.5162
利則	-10.5162
所過	-10.5164
我當	-10.5169
河陽	-10.5178
北曰	-10.5179
員名	-10.518
來降	-10.5182
一十里	-10.5183
險隘	-10.5183
衞所	-10.5187
一船	-10.5188
殺將	-10.5196
七刻	-10.5203
南郡	-10.5207
者是	-10.5208
麟州	-10.5211
涼州	-10.5218
通行	-10.522
府州	-10.5222
俟賊	-10.5222
無形	-10.5223
散而	-10.5228
勝光	-10.5233
吳王	-10.5236
綑打	-10.5241
統兵	-10.5245
日本	-10.5245
同心	-10.5251
四十里西至	-10.5252
運河	-10.5252
三斤	-10.5255
十里南至	-10.5255
可恃	-10.5262
縱之	-10.5263
先用	-10.5263
齊人	-10.5265
為首	-10.5269
鳴者	-10.5272
用也	-10.5274
臣謂	-10.5282
惟有	-10.5283
必不能	-10.5286
於野	-10.5292
山口	-10.5301
率師	-10.5307
八錢	-10.5315
二刻	-10.5319
之利害	-10.5321
土地	-10.5321
賊寇	-10.5323
起而	-10.5326
可容	-10.5329
有能	-10.5332
五年	-10.5335
卒然	-10.5338
代之	-10.5339
喫	-10.5341
餘皆	-10.5349
大隊	-10.5365
推之	-10.5371
追至	-10.5372
不待	-10.5375
百餘人	-10.5375
人無	-10.5379
養之	-10.5383
咸平中	-10.5387
俟其	-10.539
行令	-10.5409
二縣	-10.541
一年	-10.5415
明白	-10.5423
而降	-10.5426
謀也	-10.5434
一戰而	-10.544
不顧	-10.5441
戰于	-10.5442
合於	-10.5444
一十五里	-10.5444
其境	-10.5446
二也	-10.5451
數十萬	-10.5452
授之	-10.546
先令	-10.5461
則必	-10.5462
依次	-10.5463
而設	-10.5463
諸隊	-10.5468
也敵	-10.547
則我	-10.5472
築土	-10.5473
其死	-10.5474
赤氣	-10.5479
器用	-10.5484
其西	-10.5487
城西	-10.5488
未盡	-10.5488
遂大敗	-10.5493
名為	-10.5493
而東	-10.5494
時有	-10.5496
其義	-10.5498
敷	-10.5502
先出	-10.5503
以軍法	-10.5504
第二層	-10.5505
毗	-10.5514
譟	-10.5517
祝	-10.5521
義也	-10.5521
日久	-10.5522
臨事	-10.5524
狄	-10.5527
攻取	-10.5536
牝	-10.5539
兵無	-10.5541
熈	-10.5544
熾	-10.5546
鍋	-10.5548
台	-10.5553
察之	-10.5553
㴱	-10.5554
肘	-10.5554
梓	-10.5555
畆	-10.5556
之才	-10.5557
噐	-10.5557
晩	-10.5558
甫	-10.5559
等謹案	-10.5561
犒	-10.5561
牀	-10.5561
客星	-10.5562
天地風雲龍虎鳥蛇	-10.5563
脆	-10.5563
葦	-10.5563
恕	-10.5564
兄弟	-10.5565
品	-10.5565
以正合以竒勝	-10.5565
行至	-10.5565
揚帆	-10.5565
繕	-10.5565
巖	-10.5566
宰	-10.5566
拆	-10.5567
太公所謂	-10.5567
皋	-10.5567
襍	-10.5567
囂	-10.5568
為兵	-10.5568
雌	-10.5568
譽	-10.5568
江南經畧	-10.5568
英雄	-10.5568
絙	-10.5568
播	-10.5569
天罡加	-10.5569
墟	-10.5569
銜	-10.557
醉	-10.5571
如之何	-10.5571
旱寨	-10.5571
囬	-10.5571
滸墅	-10.5571
逕	-10.5572
潁	-10.5572
絆	-10.5572
登陸	-10.5573
訛	-10.5573
晝則	-10.5573
二十二	-10.5574
擄掠	-10.5574
可擊也	-10.5574
汚	-10.5574
箱	-10.5574
陀	-10.5574
祗	-10.5574
龜兹	-10.5574
不盡	-10.5574
疾病	-10.5575
咽喉	-10.5576
縱兵	-10.5576
字圩	-10.5576
家浜	-10.5576
殺其	-10.5576
夷狄	-10.5578
含	-10.5578
璋	-10.5578
寢	-10.5579
偉	-10.558
海濵	-10.558
知節	-10.558
軰	-10.5581
悅	-10.5581
佛狼機	-10.5583
二十三	-10.5583
琰	-10.5585
哄	-10.5587
渭州	-10.5588
哨隊長	-10.5588
延陵	-10.5588
我也	-10.5592
裨將	-10.5593
掌印官	-10.5593
字號	-10.5594
百九十	-10.5596
即墨	-10.5598
五隊	-10.56
積聚	-10.56
有光	-10.56
大星	-10.5602
烟火	-10.5602
諸水	-10.5604
根本	-10.5606
文字	-10.5606
前校	-10.5608
令軍	-10.5611
䕶塘	-10.5611
協守	-10.5613
有限	-10.5614
元昊	-10.5615
襄陽	-10.5615
天氣	-10.5618
殿後	-10.5624
長洲縣	-10.5624
一百里	-10.5625
用木	-10.5626
聚散	-10.5627
伺其	-10.5632
相繼	-10.5634
即將	-10.5637
打一	-10.5639
賊掠	-10.5643
長技	-10.5646
進則	-10.5654
恐賊	-10.5656
止用	-10.5663
二百人	-10.5668
入境	-10.5669
渡水	-10.5672
故以	-10.5673
如是則	-10.568
大總管	-10.5681
朔方	-10.5683
力不能	-10.5685
秦人	-10.5689
而勿	-10.5692
勇敢	-10.5693
所指	-10.5697
十名	-10.5708
先發	-10.5712
屯於	-10.5714
青旗	-10.5722
不覺	-10.5726
横行	-10.5728
武進縣	-10.5728
而言	-10.5741
可知	-10.5745
立於	-10.5745
旗號	-10.5749
反是	-10.5751
臣聞	-10.5751
其計	-10.5753
未易	-10.5758
濟河	-10.576
同罪	-10.5762
五湖	-10.5763
得失	-10.5769
重賞	-10.577
土河	-10.5773
數人	-10.5776
北通	-10.5777
以車	-10.5777
蝕	-10.5777
而死	-10.5779
里西南至	-10.5779
既至	-10.578
石頭	-10.578
宋時	-10.5783
圓陣	-10.5797
無風	-10.58
冬至	-10.58
赴敵	-10.5801
五名	-10.5802
屬之	-10.5815
斷其	-10.5818
與夫	-10.5824
戰法	-10.5825
添設	-10.5826
斬其	-10.5831
第七	-10.5834
色赤	-10.5834
者雖	-10.5836
處所	-10.5836
也雖然	-10.5837
三門	-10.5844
用之則	-10.5851
引去	-10.5852
下流	-10.5861
神明	-10.5862
學者	-10.5863
於中	-10.5867
風起	-10.5873
制敵	-10.5878
伐木	-10.5889
拔之	-10.5889
其首	-10.5896
無法	-10.5897
不獨	-10.5908
直入	-10.5909
遏賊	-10.5912
城東	-10.5913
九里	-10.5915
不可得	-10.5922
所臨之	-10.5926
莫如	-10.593
大臣	-10.5931
賊巢	-10.5937
之兆	-10.5943
見則	-10.5949
而實	-10.5951
所能	-10.596
八曰	-10.597
如故	-10.5973
形者	-10.5976
吾之	-10.5978
全軍	-10.5979
第六	-10.5985
軍糧	-10.5986
二千人	-10.5987
决勝	-10.5989
計之	-10.5991
使不得	-10.5991
若賊	-10.5993
然也	-10.5997
須用	-10.6001
上司	-10.6006
賊大敗	-10.6008
必矣	-10.6012
驢	-10.6015
旺	-10.6023
上施	-10.6024
以義	-10.6026
用火	-10.6027
將發	-10.6027
漢武	-10.603
個	-10.6033
之期	-10.6036
强弩	-10.6036
破軍殺將	-10.6037
内迫	-10.6037
使彼	-10.6039
有伏	-10.6039
率騎	-10.6043
其營	-10.6044
轄	-10.6046
出竒兵	-10.6053
也昔	-10.6054
之備	-10.6056
各自	-10.606
趙王	-10.6063
者同	-10.6075
恐有	-10.6087
失利	-10.6087
其禍	-10.6094
決勝	-10.6097
覇	-10.6097
失事	-10.6103
四百里	-10.6105
武侯問曰	-10.6112
壩	-10.6121
火兵	-10.6125
親兵	-10.6131
火門	-10.6131
八年	-10.6132
阡能	-10.6136
霆	-10.6138
你們	-10.6138
鎻	-10.6139
鷹	-10.6143
炎	-10.6144
芒	-10.6144
棗	-10.6145
稅	-10.6145
前衝	-10.6146
官一員	-10.6146
營前沙	-10.6147
瓊	-10.6148
改今名	-10.6148
彎	-10.6149
匱	-10.6149
舌	-10.6151
佞	-10.6152
牟	-10.6152
捲	-10.6154
陜	-10.6154
雋	-10.6154
壮	-10.6154
誦	-10.6154
崗	-10.6154
紂	-10.6155
顔	-10.6155
剉	-10.6156
谿	-10.6156
墅	-10.6156
粒	-10.6157
區區	-10.6157
焙	-10.6157
擊破之	-10.6158
為今之計	-10.6158
勑	-10.6158
澱山湖	-10.6158
雅	-10.6159
湧	-10.616
竇	-10.616
總論	-10.6161
蹤	-10.6161
譎	-10.6161
罐	-10.6162
蹲	-10.6162
倖	-10.6162
圜	-10.6162
不肖	-10.6162
斧鉞	-10.6163
潔	-10.6163
育	-10.6163
銷	-10.6163
蕃部	-10.6163
鼈	-10.6163
之威	-10.6164
斛	-10.6164
無得	-10.6164
縣境考	-10.6164
敦	-10.6164
止則	-10.6165
此所以	-10.6165
鬪	-10.6165
倣此	-10.6165
嬰	-10.6166
幣	-10.6166
冗	-10.6166
祥符中	-10.6168
忙	-10.6168
奔潰	-10.6169
沿江	-10.6169
餅	-10.617
廣狹	-10.617
世忠	-10.6172
擂皷	-10.6172
左廂	-10.6174
惟以	-10.6174
彦章	-10.6178
視其	-10.618
為界	-10.618
髙麗	-10.618
勞苦	-10.618
韓魏	-10.6182
門戸	-10.6183
楊舍	-10.6183
安豐	-10.6187
慮其	-10.619
擊走之	-10.6193
一卷	-10.6195
㸃皷	-10.6197
恐懼	-10.6197
屯守	-10.6198
狼山	-10.6199
女子	-10.6207
衝之	-10.6207
有喜	-10.6207
一官	-10.6208
智勇	-10.6209
此五者	-10.621
民壯	-10.6212
數里	-10.6213
而取	-10.6214
塘報	-10.6217
觀望	-10.6217
以火	-10.6218
倉卒	-10.6219
淮安	-10.622
鎮江府	-10.622
之西	-10.6221
勝敵	-10.6221
萬全	-10.6221
黑氣	-10.6223
被圍	-10.6224
敵樓	-10.6225
數千里	-10.6226
欲戰	-10.6226
前去	-10.6226
白氣	-10.6229
四哨	-10.623
中外	-10.6238
軍上氣	-10.6239
積石	-10.6241
宜令	-10.6242
四十里北至	-10.6244
大斧	-10.6246
經云	-10.6247
必使	-10.6251
不滿	-10.6252
勇士	-10.6256
建為	-10.6257
突至	-10.6262
直抵	-10.6263
乃為	-10.6267
本軍	-10.6269
華亭縣	-10.627
詐為	-10.6271
四刻	-10.6272
旗色	-10.6276
兩軍相	-10.6278
先遣	-10.6284
敵人之	-10.6286
結營	-10.6287
登山	-10.6287
沙民	-10.6295
嵗月	-10.6296
氣也	-10.6298
遇有警	-10.6301
之長	-10.6303
戰敗	-10.6304
乘間	-10.6305
水泉	-10.6307
車戰	-10.6313
四十八	-10.6316
反間	-10.6317
襲其	-10.6322
兵出	-10.6323
北風	-10.6323
得志	-10.6324
悉衆	-10.6328
羈縻州	-10.6328
一法	-10.6333
上游	-10.6334
居後	-10.6336
大舉	-10.6339
突出	-10.6341
一大	-10.6345
士心	-10.6345
鋭陣	-10.6349
化州	-10.6355
督兵	-10.6359
分守	-10.6363
六陣	-10.6368
安西	-10.6369
相機	-10.6369
之首	-10.6377
即為	-10.6377
舊法	-10.6378
之資	-10.6379
以攻	-10.6382
不離	-10.6385
二層	-10.6389
彼之	-10.6391
朔州	-10.6392
孔明之	-10.6396
有急	-10.6402
急出	-10.6403
不重	-10.6404
而動	-10.6407
擒斬	-10.641
之位	-10.6412
不受	-10.6414
敵情	-10.6416
軍人	-10.6421
不固	-10.6423
以濟	-10.6425
各沙	-10.6434
收拾	-10.6437
如何而	-10.644
水關	-10.6442
乎靖曰	-10.6447
▁(	-10.6447
風勢	-10.6447
勒兵	-10.6452
不致	-10.6452
吾欲	-10.6452
我欲	-10.6453
方營	-10.6459
二千五百	-10.6462
方許	-10.6464
方面	-10.6468
一根	-10.6469
賞銀	-10.6472
攻敵	-10.6474
八兩	-10.6486
未發	-10.649
在地	-10.6492
不易	-10.6492
而觀其	-10.6499
他人	-10.6499
至夜	-10.65
之可也	-10.6501
十數	-10.6507
知兵	-10.6511
布之	-10.6512
賊路	-10.6513
何能	-10.6517
六百里	-10.6521
三百六十	-10.6525
八門	-10.6526
雄州	-10.6531
水利	-10.6531
處置	-10.6535
百戸	-10.6535
無能	-10.6537
收其	-10.6542
亡地	-10.6543
大率	-10.6543
衆多	-10.6544
大刀	-10.6544
士皆	-10.6553
車馬	-10.6555
六十步	-10.6556
事也	-10.6557
之善	-10.6567
安置	-10.657
崇明縣	-10.6577
也盖	-10.658
陣者	-10.6585
各隊	-10.6588
歸路	-10.6603
不思	-10.6605
巡哨	-10.6618
敵陣	-10.6621
莒	-10.6626
一步	-10.6627
高下	-10.6629
為盗	-10.6635
堅固	-10.6642
之命	-10.6646
週圍	-10.6652
行止	-10.6653
不濟	-10.6661
城壘	-10.6665
於我	-10.6668
轉戰	-10.6674
左右各	-10.6676
城夫	-10.668
而不敢	-10.668
鴛鴦	-10.6682
為最	-10.6684
有所不	-10.6689
東路	-10.6692
此又	-10.6693
先動	-10.6694
長一尺	-10.6696
以犯	-10.671
且如	-10.6712
蠻界	-10.6713
遇夜	-10.6721
戎馬	-10.6721
行人	-10.6724
人數	-10.6728
者宜	-10.6729
兵至	-10.673
呉淞	-10.6735
即日	-10.6737
日暈有	-10.674
野戰	-10.6745
其前	-10.6747
合無	-10.6752
須先	-10.6753
安得	-10.6754
鏢	-10.6755
亘	-10.6759
硫	-10.676
九尺	-10.6763
窩	-10.6763
擔	-10.6764
麗	-10.6764
以後	-10.6764
肺	-10.6765
磁	-10.6766
硫黄	-10.6766
羊馬墻	-10.6767
纏	-10.677
肚	-10.6771
麵	-10.6771
耆	-10.6771
人家	-10.6771
夢	-10.6772
戀	-10.6772
鑄	-10.6772
澁	-10.6773
穢	-10.6773
王曰	-10.6773
舶	-10.6773
報兵馬事	-10.6774
涪	-10.6774
簳	-10.6776
之號	-10.6777
控扼	-10.6777
圖原闕	-10.6777
歳	-10.6777
蹶	-10.6778
市舶	-10.6778
即須	-10.6778
钁	-10.6778
彩	-10.6778
滙	-10.6778
瞰	-10.6778
太白隂經	-10.6779
靠	-10.6779
相交	-10.6779
党項	-10.678
雀	-10.678
勘	-10.678
淳	-10.678
荷	-10.678
李勣	-10.678
牙帳	-10.678
嚙	-10.6781
䟽	-10.6781
灼	-10.6781
秩	-10.6782
為中軍	-10.6782
攜	-10.6782
遜	-10.6782
衆軍	-10.6782
隴右	-10.6782
怕	-10.6782
筭	-10.6783
牂牁	-10.6783
矣但	-10.6783
袍	-10.6784
案	-10.6784
虐	-10.6784
樂毅	-10.6784
蛇蟠	-10.6784
旂	-10.6785
函	-10.6786
沔	-10.6786
兄	-10.6786
百萬之衆	-10.6787
敬業	-10.6787
春夏	-10.6787
笛	-10.6787
孫臏	-10.6788
以刑	-10.6788
鳳	-10.6788
逞	-10.6788
摶	-10.6788
羗	-10.6789
斥堠	-10.6789
挈	-10.679
隋開皇	-10.679
鈴	-10.679
馳突	-10.679
澹	-10.679
錢糧	-10.679
三丈浦	-10.6791
戊午	-10.6791
佩	-10.6792
梟	-10.6792
贖	-10.6792
像	-10.6793
而民	-10.6793
田單	-10.6793
矜	-10.6794
耐	-10.6795
之類是也	-10.6796
鮎魚口	-10.6796
掌號	-10.6796
甲辰	-10.6796
㸔	-10.6797
貽	-10.6797
普	-10.6798
北抵	-10.6799
棲	-10.6799
陽城湖	-10.68
孚	-10.68
楚人	-10.6802
用兵之道	-10.6802
率精騎	-10.6805
乃以	-10.6805
天乙	-10.6807
以安	-10.6808
噴筒	-10.6808
登泊	-10.6808
周旋	-10.681
不善	-10.681
熟鐵	-10.6811
夢見	-10.6813
孫士	-10.6814
王世充	-10.6814
其舟	-10.6816
閶門	-10.6818
不攻	-10.6819
車駕	-10.6822
追逐	-10.6822
三泖	-10.6822
南滙所	-10.6823
至若	-10.6824
以順	-10.6825
明堂	-10.6827
又復	-10.6828
誘之	-10.6832
教練	-10.6832
一般	-10.6833
彼我	-10.6835
張良	-10.6839
攻打	-10.6839
木柵	-10.6841
一身	-10.6842
持久	-10.6843
父子	-10.6843
存亡	-10.6845
以西	-10.6846
賞賜	-10.6848
往年	-10.6849
莫知所	-10.685
山下	-10.6851
有奇	-10.6854
後殿	-10.6854
接應	-10.6857
第二陣	-10.6859
愚謂	-10.686
興師	-10.6862
民兵	-10.6862
四千人	-10.6863
亦必	-10.6864
或雲氣如	-10.6867
襲我	-10.6868
待彼	-10.687
言於	-10.6871
出東方	-10.6879
一隅	-10.688
宣王	-10.6881
官司	-10.6883
挨次	-10.6891
金銀	-10.6895
防之	-10.6895
莫知	-10.6896
之節	-10.6899
五刻	-10.6901
散走	-10.6905
引退	-10.6906
州西	-10.691
不傳	-10.6916
相兼	-10.6921
與人	-10.6924
亦須	-10.6935
内附	-10.6938
奔北	-10.6946
求之	-10.6954
敵營	-10.6954
聽其	-10.6954
四步	-10.6955
内應	-10.6957
白雲	-10.6959
腰牌	-10.6959
此用	-10.6965
輕車	-10.6965
所屬	-10.6966
將不	-10.6968
禦寇	-10.697
失於	-10.697
皆在	-10.6974
不平	-10.6977
若夫	-10.6978
克敵	-10.6979
而戰	-10.6985
同知	-10.6986
去就	-10.6989
監軍	-10.699
蕃界	-10.6995
乎故	-10.7008
萬二千	-10.7011
有衆	-10.7012
擊鼓	-10.7016
得地	-10.7016
毒藥	-10.7017
巡檢司	-10.7018
陣各	-10.7021
日旁	-10.703
與其	-10.7039
施設	-10.7043
俱發	-10.7052
環州	-10.7056
三十步	-10.7058
于後	-10.7071
兵多	-10.7077
舊城	-10.7078
不守	-10.7081
大石	-10.7082
焉耳	-10.7083
與諸將	-10.7084
營法	-10.7092
相視	-10.7101
其外	-10.7104
世之	-10.7108
鎗頭	-10.7114
先將	-10.7119
營前	-10.713
軍伍	-10.7131
據之	-10.7131
法制	-10.7139
進殺	-10.7141
以此為	-10.7142
猶未	-10.7143
各令	-10.7146
戰不	-10.7146
者天	-10.7149
發矢	-10.7153
一丈二尺	-10.7162
心也	-10.7163
兵憲	-10.7166
而得	-10.717
矣乃	-10.7177
四望	-10.7178
南抵	-10.7186
蘭州	-10.7187
以禦之	-10.7187
一百六十里	-10.7187
刑罰	-10.719
并州	-10.7191
尤為	-10.7192
則前	-10.7199
無禮	-10.7201
或謂	-10.7202
術也	-10.7204
車上	-10.7207
三代	-10.7212
小人	-10.7212
西安	-10.7214
城裏	-10.7218
爲之	-10.7221
以是	-10.7225
不繼	-10.7229
信也	-10.7231
隨之	-10.7233
在下	-10.7235
一本	-10.7236
本職	-10.7238
養兵	-10.724
之論	-10.724
三郡	-10.7243
甲午	-10.7244
羈縻	-10.7245
望其	-10.7247
則是	-10.7248
也又曰	-10.7251
乃止	-10.7255
黄色	-10.7261
之便	-10.7263
主之	-10.7272
重而	-10.7273
一尺二寸	-10.7275
也非	-10.7277
色青	-10.7279
六千人	-10.7281
將至	-10.7283
以觀其	-10.7284
人持	-10.7285
答曰	-10.7285
不順	-10.7291
之宜	-10.7293
去而	-10.7293
制陣	-10.7295
隨軍	-10.7296
舉動	-10.7299
策也	-10.73
十字	-10.7302
三箇	-10.7307
所管	-10.7309
燕趙	-10.7316
擊賊於	-10.7317
二軍	-10.732
白茒	-10.7321
無人	-10.7333
有警急	-10.7339
用鐵	-10.7347
此必	-10.7349
鼓而	-10.735
在野	-10.735
不獲	-10.7354
相見	-10.7355
兩陣	-10.7355
唱	-10.7361
而後可	-10.7364
一隻	-10.7369
四星	-10.7374
知我	-10.7374
敵上	-10.7378
地多	-10.7379
千四百	-10.7379
雖然	-10.7382
必得	-10.7383
亡國	-10.7383
言語	-10.7385
也遂	-10.7387
有雲	-10.739
之憂	-10.739
相守	-10.7391
弱者	-10.7401
按兵	-10.7404
選兵	-10.7404
本港	-10.7413
于是	-10.7416
亾	-10.7417
􁴖	-10.7418
咒	-10.7418
二步	-10.7423
正統	-10.7423
湮	-10.7425
獠	-10.7428
諠譁	-10.743
域	-10.743
鏜	-10.7431
俱要	-10.7431
無異	-10.7432
曰善	-10.7432
犀	-10.7433
啖	-10.7434
榆	-10.7434
里界首北至契丹界無鋪	-10.7435
五十里至	-10.7436
賛	-10.7436
􁁜	-10.7436
罸	-10.7436
廻	-10.7437
互市	-10.7438
窟	-10.7438
霍	-10.7439
床	-10.744
幔	-10.7441
嘉靖甲寅	-10.7441
帖	-10.7441
昻	-10.7442
校尉	-10.7442
鈞	-10.7442
塵埃	-10.7443
筈	-10.7443
茲	-10.7444
䭾	-10.7444
匪	-10.7445
揭	-10.7445
岑	-10.7445
踢	-10.7445
宅	-10.7446
喚	-10.7446
脉	-10.7446
涸	-10.7446
鵲	-10.7446
詢	-10.7446
扺	-10.7446
繇	-10.7446
奠	-10.7447
嘶	-10.7447
蔓	-10.7448
莫大於	-10.7448
女真	-10.7449
聘	-10.7449
劉家港	-10.7449
浜	-10.745
寒暑	-10.745
淮揚	-10.745
每堠另設瞭守弓兵五名	-10.745
園	-10.745
勃	-10.745
倭舶	-10.7451
欄	-10.7451
竝	-10.7451
滯	-10.7452
譚	-10.7452
昀	-10.7452
靖康	-10.7453
佛	-10.7453
鼠	-10.7453
販	-10.7453
話	-10.7453
菱	-10.7453
匀	-10.7454
蠟	-10.7454
何辯之葢	-10.7456
丙午	-10.7456
女墻	-10.7456
衆寡不敵	-10.7456
伸	-10.7456
深入敵境	-10.7457
範	-10.7457
禱	-10.7457
東西南北	-10.7458
㳺	-10.7458
贅	-10.7458
蠡口	-10.7459
烏桓	-10.7459
己酉	-10.746
險要說	-10.746
金帛	-10.7461
竹筒	-10.7461
繆	-10.7462
燈籠	-10.7462
仲達	-10.7462
奏請	-10.7462
懈怠	-10.7463
糧餉	-10.7464
海州	-10.7464
比較	-10.7464
謂諸將曰	-10.7465
七宫	-10.7465
軒轅	-10.7465
牛羊	-10.7467
因地	-10.7469
提督	-10.7469
西域	-10.747
擾亂	-10.747
遲速	-10.7471
右廂	-10.7472
瓜	-10.7474
相傳	-10.7474
牽制	-10.7475
髙歡	-10.7475
蔡公	-10.7475
驚駭	-10.7476
不安	-10.7477
青邨所	-10.7478
三軍之衆	-10.7478
盛衰	-10.7478
尚未	-10.748
不可測	-10.748
子弟	-10.7481
協力	-10.7481
嚴肅	-10.7482
遊騎	-10.7485
靈武	-10.7485
兩岸	-10.7488
其書	-10.749
被傷	-10.7491
馬隆	-10.7492
遇於	-10.7492
禍福	-10.75
建議	-10.7501
擊刺	-10.7502
偏師	-10.7503
長史	-10.7504
七鴉港	-10.7507
旬日	-10.7507
德威	-10.7508
行儉	-10.7508
若從	-10.751
半渡	-10.7511
不合	-10.7511
斷絶	-10.7512
陳兵	-10.7513
招安	-10.7514
故地	-10.7514
一百名	-10.7514
衛青	-10.7517
令行	-10.7517
腹内	-10.7519
將李	-10.752
即令	-10.752
北邊	-10.7525
砦在州西	-10.7527
吏卒	-10.7528
晉王	-10.7531
當視	-10.7531
其神	-10.7536
門内	-10.7536
示弱	-10.7538
十餘日	-10.754
其謀	-10.7542
望之	-10.7543
呉起	-10.7543
治兵	-10.7544
王者	-10.7544
齊進	-10.7548
不問	-10.7549
餘級	-10.7554
其黨	-10.7554
衆皆	-10.7556
所由	-10.7559
而行之	-10.7567
口中	-10.7574
擒獲	-10.7576
中分	-10.7578
信之	-10.758
信義	-10.7581
千户所	-10.7582
差人	-10.7587
伏威	-10.7588
死傷	-10.759
五音	-10.7595
委官	-10.7602
校上	-10.7603
不識	-10.7603
疑之	-10.7607
原設	-10.761
火炬	-10.7612
曲陣	-10.7614
欲以	-10.7618
并力	-10.7623
待敵	-10.7627
北行	-10.7631
三刻	-10.7632
孔明八陣	-10.7634
失之	-10.7636
車之	-10.7638
多用	-10.7644
其才	-10.7644
大寒	-10.765
出塞	-10.7656
六分	-10.7658
嚴警	-10.766
良相	-10.766
小舟	-10.7663
於下	-10.7668
左軍	-10.7674
於天	-10.7674
三國	-10.7675
或以	-10.7676
以權	-10.7677
雨水	-10.7679
二隻	-10.7682
姦人	-10.7685
以竹	-10.7685
將佐	-10.7688
常有	-10.7691
性命	-10.7692
舊有	-10.7692
七十餘	-10.77
所載	-10.77
黑雲	-10.7717
設弓兵四十名往來巡邏	-10.7723
堅陣	-10.7724
三錢	-10.7727
青海	-10.7734
乎夫	-10.7736
大亂	-10.7736
為患	-10.7738
如遇	-10.7738
迎之	-10.7744
則不可	-10.7748
督戰	-10.7751
無一	-10.7751
不窮	-10.7752
有雲如	-10.7756
天王	-10.7756
遂以	-10.7758
亦不可	-10.7759
每軍	-10.7768
不用命	-10.7769
代州	-10.7771
寛大	-10.7772
為右	-10.7773
若是	-10.7774
長兵	-10.7781
先至	-10.7784
三司	-10.7785
刑賞	-10.7786
用力	-10.7791
要在	-10.78
敗賊於	-10.7803
吳郡	-10.781
不均	-10.7826
百里西至	-10.7829
平安	-10.7831
後竒	-10.7835
飛報	-10.7841
若非	-10.7843
賊境	-10.7845
罔	-10.7851
也葢	-10.7852
慶州	-10.7853
不時	-10.786
在陣	-10.786
刀曰	-10.7864
不起	-10.7865
間也	-10.7871
圖之	-10.7878
以擊	-10.788
而待	-10.7882
數萬人	-10.7882
討賊	-10.7885
能制	-10.7896
人亦	-10.7897
不已	-10.7899
多則	-10.7899
勿用	-10.7899
北面	-10.79
填壕	-10.7904
修城	-10.7905
保州	-10.7907
合則	-10.7907
各照	-10.7908
每營	-10.7908
将軍	-10.791
利于	-10.7911
不可輕	-10.7924
處分	-10.7925
次日	-10.7926
甲胄	-10.7927
七軍	-10.7928
▁一	-10.7929
兵勇	-10.793
伍長	-10.7933
事不	-10.7936
江湖	-10.7938
至矣	-10.7942
鴈行	-10.7945
魏人	-10.795
賞之	-10.795
以充	-10.7951
遇之	-10.7954
久之	-10.796
生路	-10.7971
其權	-10.7977
師次	-10.7984
為國	-10.7986
器也	-10.7986
南至州	-10.7992
急擊	-10.7992
兵衆	-10.8
為便	-10.8012
皆斬	-10.8013
足下	-10.8013
今置	-10.8013
善於	-10.8018
十五日	-10.8026
旗皷	-10.8027
東出	-10.8029
則不能	-10.8029
晉軍	-10.8031
民力	-10.8033
而為之	-10.8036
下令	-10.8039
登犯	-10.804
小陣	-10.8041
須令	-10.8042
察敵	-10.8044
賊復	-10.8046
長二丈	-10.8047
門户	-10.8047
死之	-10.8047
嚴備	-10.8055
敵騎	-10.8056
山路	-10.8056
星曰	-10.8057
摩訶	-10.8061
然非	-10.8067
無錫縣	-10.8069
陣内	-10.8071
一百三十	-10.8071
兵敗	-10.8073
六刻	-10.8074
悞事	-10.8075
為難	-10.8075
大懼	-10.808
二子	-10.8082
長五尺	-10.8082
從中	-10.8086
中心	-10.8092
軍兵	-10.8093
各隨	-10.8095
隂謀	-10.8098
夏至	-10.8098
向下	-10.8104
下至	-10.8106
等官	-10.8107
法度	-10.8113
一朝	-10.8116
註	-10.8116
賊由	-10.8119
善射	-10.8119
潢	-10.812
不死	-10.812
茶	-10.8125
爭先	-10.813
畏之	-10.813
瑊	-10.8131
之象也	-10.8135
用一	-10.8136
受其	-10.8138
砒	-10.8139
有變	-10.8141
鶴	-10.8141
腸	-10.8142
一更	-10.8143
煜	-10.8146
腐	-10.8146
杆	-10.8148
无	-10.815
中路	-10.8151
糠	-10.8152
近城	-10.8153
翊	-10.8153
㢘	-10.8154
坊	-10.8154
球	-10.8154
木時	-10.8155
裴	-10.8155
戶	-10.8155
穏	-10.8155
裏壕	-10.8156
蠡	-10.8156
所以能	-10.8157
斾	-10.8157
正北	-10.8157
杏	-10.8157
淹	-10.8158
䖏	-10.8158
應天	-10.8158
駒	-10.8159
陡	-10.8159
桐	-10.8159
甃	-10.8159
喬	-10.8159
受其害	-10.8159
夔	-10.8159
盤詰	-10.816
幢	-10.816
蔑	-10.8161
碍	-10.8161
兌	-10.8161
吐谷渾	-10.8161
擣	-10.8162
證	-10.8162
沛	-10.8162
吁	-10.8162
耗	-10.8162
䕫	-10.8163
叩	-10.8163
鑑	-10.8163
逈	-10.8163
擊客算	-10.8163
敵雖	-10.8164
弓箭手	-10.8164
財帛	-10.8164
千户一員	-10.8164
其罪	-10.8164
銕	-10.8165
拙	-10.8165
殱	-10.8165
㗖	-10.8165
擢	-10.8166
郭子儀	-10.8166
東晉	-10.8166
判官	-10.8166
扞	-10.8166
遮蔽	-10.8166
廉	-10.8167
住劄	-10.8167
辟	-10.8167
鬆	-10.8167
巡檢	-10.8167
渇	-10.8167
札	-10.8167
仲逹	-10.8167
北至界首約	-10.8168
泖湖	-10.8168
萊	-10.8168
敖	-10.8168
孫呉	-10.8168
糾	-10.8169
紀律	-10.8169
虢	-10.8169
襟	-10.8169
罵	-10.8169
票	-10.8169
撚	-10.817
批	-10.8171
茜涇	-10.8171
戰鋒隊	-10.8171
餓	-10.8172
峰	-10.8172
曉諭	-10.8172
崔	-10.8173
舵	-10.8173
駟	-10.8173
當其衝	-10.8173
蔣	-10.8174
吾三軍	-10.8174
拐	-10.8174
採探	-10.8174
濫	-10.8175
男女	-10.8176
張煜	-10.8176
巡撫	-10.8176
俞	-10.8177
屑	-10.8177
熙	-10.8177
牽牛	-10.8177
鼓之	-10.8177
之器	-10.8178
開闔	-10.8179
顆	-10.8179
任人	-10.8179
鑽	-10.818
泒	-10.8181
加季	-10.8182
世祖	-10.8183
操演	-10.8183
附郭	-10.8184
取首級	-10.8184
葑門	-10.8185
二十七	-10.8186
照舊	-10.8186
措置	-10.8189
欲知	-10.8189
八九	-10.819
之文	-10.819
臨日辰	-10.819
驚潰	-10.8191
也如	-10.8191
多方	-10.8192
渭南	-10.8193
永樂	-10.8195
建業	-10.8196
高祖	-10.8196
等兵	-10.8196
奮勇	-10.8197
茶山	-10.8199
他若使一	-10.8199
則能	-10.8199
淮隂	-10.82
浮橋	-10.8201
巡視	-10.8203
周禮	-10.8203
而發	-10.8203
戮力	-10.8203
軍上氣如	-10.8204
咒曰	-10.8205
以應	-10.8206
審察	-10.8208
賊所	-10.8208
元帝	-10.8208
割耳	-10.8208
甚盛	-10.8209
彼若	-10.8209
各置	-10.821
一尺五寸	-10.8212
三次	-10.8213
而輕	-10.8214
者是也	-10.8216
兩傍	-10.8218
成列	-10.8219
不逺	-10.8221
直𨽻	-10.8222
銳士	-10.8226
不常	-10.8226
曠野	-10.8229
給賞	-10.8231
生員	-10.8233
者惟	-10.8234
建德	-10.8239
彊弱	-10.824
為竒兵	-10.8241
羣臣	-10.8242
遊都	-10.8243
反覆	-10.8243
旋風	-10.8243
十八日	-10.8243
郡古	-10.8244
十三年	-10.8245
不失其	-10.8252
若曾	-10.8253
設有	-10.8253
陳湖	-10.8255
算得	-10.8257
運道	-10.8258
久矣	-10.8259
敗軍	-10.826
修復	-10.8261
流水	-10.8263
飛龍	-10.8264
覇州	-10.8264
每嵗	-10.8268
道宗	-10.8271
胡騎	-10.8273
善守者	-10.8277
為君	-10.8277
黄龍	-10.8277
刀鎗	-10.8279
以助	-10.8279
京城	-10.8285
動而	-10.8285
吳楚	-10.8285
探馬	-10.8288
甚易	-10.8289
三十餘	-10.8295
行法人	-10.8295
三等	-10.8297
利也	-10.8299
立表	-10.8302
此之謂也	-10.8303
白茒港	-10.8304
此三者	-10.8304
者正	-10.8305
設使	-10.8308
七十五人	-10.8316
大營	-10.8316
掩擊	-10.8316
而爲	-10.8318
相向	-10.8319
順勢	-10.8319
動者	-10.832
赤氣如	-10.8323
合為一	-10.8323
敗於	-10.8324
家橋	-10.8327
湖水	-10.8329
之助	-10.8331
散亂	-10.8332
不可也	-10.8336
皆不	-10.8337
建州	-10.8343
西曰	-10.8343
其術	-10.8344
各官	-10.8344
此非	-10.8346
初至	-10.8349
一定之	-10.835
敵來	-10.8353
移營	-10.8355
大業	-10.8355
承平	-10.8362
水門	-10.8365
太子	-10.8366
復還	-10.8369
諫曰	-10.8376
此亦	-10.8376
乘勢	-10.8382
就是	-10.8384
旗旛	-10.8385
有罪	-10.8386
以通	-10.8388
信旗	-10.8389
即此	-10.8392
流突	-10.8394
二千里	-10.8396
務令	-10.8397
神器	-10.8398
不論	-10.8401
守令	-10.8408
營壁	-10.8408
陽縣	-10.8415
敵者	-10.8419
所執	-10.8419
屯戍	-10.8423
正道也	-10.8424
木石	-10.8429
向敵	-10.843
相同	-10.8433
之本	-10.8437
一各船	-10.8445
伏於	-10.8445
大家	-10.8445
臨城	-10.8445
救兵	-10.8447
陳平	-10.8448
九地	-10.8449
南通	-10.8456
長沙	-10.8457
游兵	-10.8458
莫若	-10.8469
作亂	-10.8473
四五	-10.8478
盡數	-10.8479
之地也	-10.8481
為率	-10.8483
其政	-10.8484
此乃	-10.8485
占曰	-10.8486
一心	-10.8486
北至契丹界	-10.8489
則自	-10.8493
河水	-10.8498
自有	-10.8504
城守	-10.8504
勿使	-10.8511
去城	-10.8512
門旗	-10.8513
如風	-10.8513
用水	-10.8522
將戰	-10.8524
兵甲	-10.8527
憚之	-10.8537
乘我	-10.8544
必經	-10.8546
孤軍	-10.8547
十餘人	-10.855
而敗	-10.8556
長牌	-10.8558
追及	-10.8563
則士卒	-10.857
十八年	-10.8571
自安	-10.8573
不設	-10.8575
潤州	-10.8584
權宜	-10.8586
小隊	-10.8588
人自	-10.8594
大破	-10.8596
公主	-10.8597
行法人手執	-10.8598
色着	-10.8602
别為	-10.8606
乗之	-10.8607
戰無	-10.861
所置	-10.8612
便可	-10.8618
戰鬬	-10.8621
方其	-10.8623
小民	-10.8624
而使之	-10.8624
不犯	-10.8628
三十六里	-10.8633
四散	-10.8634
戰大破之	-10.8635
法尚	-10.8637
車營	-10.8637
近日	-10.8641
聖人之	-10.8642
為先鋒	-10.8643
漢兵	-10.8643
入陣	-10.8644
直陣	-10.8645
乗其	-10.8651
之責	-10.8654
人員	-10.8658
任其	-10.8664
其歸路	-10.8665
能使	-10.8666
拒戰	-10.8672
舟山	-10.8675
不退	-10.8682
日時	-10.8683
逮	-10.8684
先定	-10.8684
銃手	-10.8688
土城	-10.8688
都將	-10.8688
猶有	-10.8692
不住	-10.8693
旛	-10.8693
擊之賊	-10.8695
援之	-10.8696
歸順	-10.8696
向外	-10.8702
將無	-10.8704
也所謂	-10.8706
敗績	-10.8707
大車	-10.8707
之時也	-10.8707
舉旗	-10.8709
海寇	-10.8714
敗亡	-10.8717
各持	-10.8722
之遺	-10.8723
二十里南至	-10.8724
一千五百	-10.8736
須知	-10.8738
大船	-10.8742
旗頭	-10.8744
土人	-10.8746
中校	-10.875
易州	-10.875
懼而	-10.8768
分明	-10.8771
别將	-10.8774
以敗	-10.8777
原州	-10.8777
人等	-10.8778
来攻	-10.8783
大義	-10.8788
夜襲	-10.8789
聞鼓	-10.8795
皆不可	-10.8795
古城	-10.8796
其内	-10.8811
乘風	-10.8813
賊軍	-10.8817
丙辰	-10.8821
千金	-10.8824
未及	-10.8825
死生	-10.8829
竒功	-10.883
北境	-10.8832
之恩	-10.8833
進至	-10.8839
先見	-10.8841
首尾相	-10.8848
亦名	-10.8849
孟瀆	-10.885
以當	-10.8853
則彼	-10.8855
百一十里	-10.8857
必能	-10.8863
萬騎	-10.8864
諸將曰	-10.8867
二十人	-10.8867
外餘	-10.8868
十丈	-10.8868
火時	-10.887
奄	-10.8872
八陣之法	-10.8879
妨	-10.8885
之初	-10.889
地理	-10.8891
以騎	-10.8896
玉女	-10.8897
觔	-10.8898
為重	-10.89
者豈	-10.8901
聮	-10.8902
蔚	-10.8904
倣	-10.8905
一發	-10.8906
若欲	-10.8908
北山	-10.8909
巴豆	-10.8909
秦軍	-10.891
判	-10.891
績	-10.891
山西	-10.8911
偏禆	-10.8911
崑	-10.8912
茄	-10.8912
十隻	-10.8913
撈	-10.8913
傑	-10.8914
擎	-10.8915
仆	-10.8916
週	-10.8916
晒乾	-10.8916
隰	-10.8916
𦍑	-10.8916
啗	-10.8918
兵備副使任公環	-10.8918
詎	-10.8918
腕	-10.8918
航	-10.8918
耿	-10.8919
㳂	-10.892
頒	-10.892
火入	-10.8921
糊	-10.8921
父母妻子	-10.8921
瑄	-10.8921
糓	-10.8921
庚辛	-10.8921
尉繚子	-10.8921
麪	-10.8922
戚	-10.8922
鏁	-10.8922
角木蛟	-10.8923
稠	-10.8923
于前	-10.8924
愧	-10.8924
廿	-10.8925
瀕	-10.8925
崖	-10.8925
軍如是者斬之	-10.8925
楯	-10.8926
潘	-10.8926
漏泄	-10.8926
堵	-10.8926
躁	-10.8927
煤	-10.8927
怖	-10.8927
剽掠	-10.8927
六日	-10.8928
昂	-10.8929
橫	-10.8929
畝	-10.8929
輯	-10.8929
儘	-10.8929
縻	-10.8929
閏	-10.8929
顔色	-10.8929
姜	-10.893
秀	-10.893
者其南路也	-10.893
状	-10.893
磕	-10.893
翳	-10.893
笠	-10.893
幼	-10.893
聫	-10.893
庇	-10.893
總兵俞大猷	-10.893
邱	-10.893
諌	-10.8931
犄角	-10.8931
悲	-10.8931
罹	-10.8932
歛	-10.8932
苻	-10.8932
鬚	-10.8933
淝水	-10.8933
遮隔	-10.8934
埤	-10.8934
壑	-10.8934
賓	-10.8934
頃刻	-10.8934
扁	-10.8935
使敵人	-10.8935
禹貢	-10.8935
猶豫	-10.8935
譁	-10.8935
勺	-10.8935
刷	-10.8936
𢷬	-10.8936
軍䜟有曰	-10.8936
井陘	-10.8936
袁紹	-10.8936
在縣治東南	-10.8936
新洋江	-10.8936
諱	-10.8936
昇	-10.8937
夥	-10.8938
二萬人	-10.8938
奢	-10.8938
店	-10.8939
串	-10.8939
蠶	-10.8939
六花陣	-10.8939
器仗	-10.8939
讎	-10.8939
爐	-10.8939
籬	-10.8939
罩	-10.8939
僑	-10.894
電擊	-10.894
淤	-10.8941
藁	-10.8943
估	-10.8943
渺	-10.8943
滎陽	-10.8943
木驢	-10.8944
延孝	-10.8944
僉事	-10.8944
嘆	-10.8944
戾	-10.8944
范陽	-10.8945
鵞	-10.8945
一日一夜	-10.8945
魴	-10.8946
抄掠	-10.8946
夏駕浦	-10.8946
祜	-10.8946
庶幾	-10.8947
彭越	-10.8948
四兩八錢	-10.8948
真宗	-10.8949
雲氣如	-10.8949
豕	-10.895
常州府	-10.8951
艇	-10.8952
扒	-10.8953
仲文	-10.8953
草烏	-10.8953
丞相	-10.8954
飲酒	-10.8954
百瀆	-10.8955
羣盜	-10.8955
糧運	-10.8955
殆盡	-10.8955
講武	-10.8956
楊素	-10.8958
漲天	-10.8959
無光	-10.8962
團結	-10.8962
兩廂	-10.8964
步戰	-10.8965
黎明	-10.8966
蒼山	-10.8966
陜西	-10.8966
井泉	-10.8966
不得輒	-10.897
初三日	-10.8972
其勢必	-10.8972
甲戌	-10.8972
黄魚	-10.8973
乙庚	-10.8975
𦂳要	-10.8975
逆順	-10.8976
曰吾聞	-10.8977
婁門	-10.8977
戰袍	-10.8978
六丙	-10.8982
甲巳	-10.8983
望樓	-10.8984
空虚	-10.8987
之智而	-10.899
趕上	-10.8991
山之陽	-10.8992
天下兵起	-10.8993
統制	-10.8994
二十一日	-10.8994
强者	-10.8996
衆而	-10.8997
未幾	-10.8997
起對曰	-10.9001
四百五十里	-10.9004
左右翼	-10.9006
又為	-10.9006
奔散	-10.9007
倭船	-10.9008
之東	-10.9008
之義也	-10.9011
夜戰	-10.9012
又次之	-10.9013
橋梁	-10.9014
禆將	-10.9017
即於	-10.9017
捉生	-10.9017
後用	-10.9018
奔衝	-10.9019
重慶	-10.9019
而亡	-10.9028
交界	-10.9029
同里	-10.9029
施放	-10.903
算長和	-10.903
鳥雲	-10.9034
皂旗	-10.9036
勢者	-10.9036
急則	-10.9037
分付	-10.9039
鋭卒	-10.9041
梁兵	-10.9044
二升	-10.9044
詳見	-10.9047
放箭	-10.9047
部隊	-10.9048
離散	-10.9048
王翦	-10.9049
為前鋒	-10.9053
不能救	-10.9055
其分野	-10.9055
數附	-10.9057
山澤	-10.906
危急	-10.906
洋山	-10.9066
左竒	-10.907
者哉	-10.9071
開弓	-10.9071
右角	-10.9071
靴	-10.9072
採捕	-10.9073
調發	-10.9073
隴西	-10.9073
野營	-10.9074
長和	-10.9074
勝矣	-10.9074
歸於	-10.9075
乃遣	-10.9076
殺去	-10.9076
各分	-10.9078
其北	-10.9093
車徒	-10.9093
晉將	-10.9094
兵强	-10.9094
不忍	-10.9094
髙橋	-10.9096
鐵索	-10.9096
自將	-10.91
月糧	-10.9101
孰與	-10.9103
府縣	-10.9107
北城	-10.9107
陽城	-10.9113
清道	-10.9113
趙括	-10.9115
擇其	-10.9116
馬邑	-10.9116
自可	-10.9119
令軍士	-10.9123
無虞	-10.9123
神機	-10.9124
以避	-10.9126
陸地	-10.9128
之門户	-10.9132
敵境	-10.9133
死亡	-10.9134
周制	-10.9135
攻城人	-10.9135
相剋	-10.9137
勁兵	-10.9137
福山港	-10.9138
金兵	-10.914
萬衆	-10.9141
圍繞	-10.9148
治亂	-10.9148
救火	-10.915
權謀	-10.9152
州東	-10.9154
在其中	-10.9155
凡攻城	-10.9156
臣下	-10.9156
而往	-10.9158
得人	-10.9159
等分	-10.9161
無警	-10.9162
一卒	-10.9163
用騎	-10.9164
武舉	-10.9168
時刻	-10.9176
非吾	-10.9187
者此之謂	-10.9188
並同	-10.919
知府	-10.9191
五十餘	-10.9192
蛟	-10.9193
望敵	-10.9193
宜州	-10.9196
長一丈二尺	-10.9201
後人	-10.9201
老營	-10.9201
五十歩	-10.9203
數月	-10.9204
感其	-10.9206
每更	-10.9206
羣賊	-10.9208
一重	-10.9212
三部	-10.9214
白氣如	-10.9215
木日	-10.9216
家口	-10.9216
張公	-10.9217
兩手	-10.9219
上置	-10.9223
多者	-10.9225
敵人必	-10.9225
獨山	-10.9227
藍旗	-10.9231
水攻	-10.9237
行法	-10.9239
百里北至	-10.9242
五千人	-10.9242
為度	-10.9243
平易	-10.9243
一伍	-10.9245
其色	-10.9246
三百步	-10.9247
辨其	-10.9247
所擒	-10.9248
西戎	-10.9248
之右	-10.9255
兵防	-10.9257
者並	-10.926
百四十	-10.9271
者死	-10.9271
於是乎	-10.9272
而我兵	-10.9274
來者	-10.9279
候之	-10.9279
政令	-10.9279
以誘之	-10.928
芒角	-10.9282
於君	-10.9291
中朝	-10.9293
每船	-10.9293
主帥	-10.9294
之製	-10.9298
正道	-10.9299
甚矣	-10.93
他日	-10.9302
當前	-10.9302
今人	-10.9306
曰不然	-10.9307
者也故	-10.931
解圍	-10.9312
一夫	-10.9313
部分	-10.9314
愛人	-10.9318
我亦	-10.9323
鎗手	-10.9323
馬上	-10.9332
道德	-10.9335
七百里	-10.9335
三畧	-10.9336
海道	-10.9342
而起	-10.9342
聽令	-10.9346
十三日	-10.9349
之聲	-10.935
懷逺	-10.935
湖中	-10.9353
女頭	-10.9355
雲陽	-10.9359
西河	-10.936
東通	-10.9361
亦當	-10.9363
不煩	-10.9371
石城	-10.9373
賊帥	-10.9373
清明	-10.9376
之禮	-10.9378
必出	-10.938
有死	-10.938
打他	-10.9383
當歸	-10.9383
三員	-10.9384
有誅	-10.9384
上來者	-10.9384
彼必	-10.9385
為妙	-10.9386
以拒之	-10.9386
之分野	-10.9388
騎隊	-10.939
可用也	-10.939
大喜	-10.9391
防備	-10.9393
敎戰	-10.9397
使用	-10.94
其時	-10.9405
三十日	-10.9406
益州	-10.9408
一舟	-10.9413
此名	-10.9415
五合	-10.9415
二枝	-10.9422
終於	-10.9422
數倍	-10.9424
之利也	-10.9428
以告	-10.9428
鎮海	-10.943
致死	-10.9435
投之	-10.9438
都巡檢	-10.9446
宥	-10.9447
雖曰	-10.9447
勉之	-10.9447
縣之	-10.9448
向後	-10.9455
耳今	-10.9457
郡漢	-10.9457
可以勝	-10.9457
三服	-10.9459
之音	-10.9462
十里北至	-10.9465
九分	-10.9473
警備	-10.9476
賊營	-10.9477
如飛	-10.9477
州三百五十里	-10.9481
掩其	-10.9482
散地	-10.9482
滄	-10.9483
在官	-10.9484
上安	-10.9487
者名曰	-10.949
八陣圖	-10.949
以觀	-10.949
急擊之	-10.9492
外營	-10.95
軍使	-10.9503
在船	-10.9504
分界	-10.9508
平川	-10.9511
王相	-10.9512
則不然	-10.9513
惟恐	-10.9519
交通	-10.9523
責其	-10.9526
五部	-10.9531
一道	-10.9531
漢中	-10.9539
三枝	-10.954
公孫	-10.954
大要	-10.9545
各軍	-10.9554
得地利	-10.9555
三州	-10.9556
或從	-10.9556
其威	-10.9558
令諸軍	-10.956
遂破	-10.9562
聽用	-10.9566
生事	-10.957
分為五	-10.957
四十步	-10.9572
所為	-10.9572
皆由	-10.9576
勞而	-10.9581
縣砦	-10.9587
秋冬	-10.9589
不賞	-10.9589
入賊境	-10.9594
所設	-10.9594
則曰	-10.9601
二十一	-10.9602
制其	-10.9602
必克	-10.9603
助之	-10.9606
隨地	-10.9612
則又	-10.9612
齊力	-10.9613
而定	-10.9616
令我	-10.9617
世將	-10.9618
以歸	-10.9622
者乃	-10.963
近則	-10.9637
十箇	-10.9639
諸山	-10.9642
知敵	-10.9651
耳若	-10.9655
二百五十里	-10.9657
所據	-10.9662
需	-10.9669
以禮	-10.9672
西控	-10.9673
甕城	-10.9673
權也	-10.9675
擂鼓	-10.9678
中人	-10.9679
傷人	-10.9681
止有	-10.9681
明主	-10.9681
戰不利	-10.9687
居人	-10.9688
畫地	-10.9693
不教	-10.9694
但有	-10.9696
以相	-10.9696
可為	-10.9698
使民	-10.9699
我就	-10.9699
威令	-10.9701
大山	-10.9705
陳規	-10.9706
而言之	-10.9711
隂國	-10.9715
也茍	-10.9718
宫格	-10.9719
不疑	-10.9721
何所	-10.9723
定海	-10.9726
無令	-10.9727
兩隊	-10.9728
外無	-10.9728
水深	-10.9729
葑	-10.9733
乾姜	-10.9733
僅可	-10.9736
装	-10.9736
鴉	-10.9737
潑	-10.9739
上書	-10.974
丙丁	-10.974
烽堠	-10.9743
新竈沙	-10.9744
用衆	-10.9744
瘥	-10.9744
如無	-10.9745
犂	-10.9747
有六	-10.9747
抹	-10.9748
符契	-10.9749
肋	-10.975
宇	-10.9751
路入	-10.9752
燎	-10.9752
栗	-10.9753
堵截	-10.9753
寂	-10.9753
鈐轄	-10.9753
織	-10.9753
闇	-10.9753
鐙	-10.9753
各處	-10.9754
核	-10.9755
蠲	-10.9755
沂	-10.9755
窠	-10.9755
缶	-10.9755
戯	-10.9756
勃勃	-10.9756
恊	-10.9757
重地	-10.9757
鄯州	-10.9757
聳	-10.9758
拱	-10.9759
挺	-10.9759
富貴	-10.9759
僞	-10.9759
不移	-10.9759
轡	-10.9759
村鋪	-10.976
為害	-10.976
呉子曰	-10.9761
戈矛	-10.9761
聰	-10.9761
譙	-10.9761
渦	-10.9761
文王問太公曰	-10.9761
鳥嘴銃	-10.9761
三竒	-10.9762
)□(	-10.9762
宋曾公亮等撰	-10.9762
攢	-10.9762
敲	-10.9763
燬	-10.9763
撿	-10.9764
僥倖	-10.9764
蹂踐	-10.9764
凋	-10.9764
鎮戎軍	-10.9764
聚劫	-10.9764
川沙堡	-10.9765
之功也	-10.9765
鈐	-10.9765
冲	-10.9765
蟻附	-10.9765
保障	-10.9766
舜	-10.9766
杜塞無門	-10.9766
宋曽公亮等撰故事	-10.9766
也吾則	-10.9766
潘美	-10.9766
噫	-10.9767
塜	-10.9767
洒	-10.9767
韃	-10.9767
鍬	-10.9767
鐘	-10.9768
飭	-10.9768
㢲	-10.9768
樞	-10.9769
鴻	-10.9769
猫	-10.9769
二十里至	-10.9769
僅以身免	-10.9769
尾火虎	-10.9769
櫃	-10.9769
雁行	-10.9769
兵家類提要	-10.9769
徤	-10.977
芻糧	-10.977
乾壽	-10.977
欽定四庫全書子部二	-10.977
翟	-10.977
虎豹	-10.9771
慨	-10.9771
階	-10.9771
戊戌	-10.9771
奔牛鎮	-10.9771
葫蘆	-10.9771
懐恩	-10.9771
真定府	-10.9771
蒿	-10.9771
何患	-10.9771
叚	-10.9771
汰	-10.9772
玊	-10.9772
以逸待勞	-10.9772
孰與己	-10.9772
乙卯	-10.9772
颶風	-10.9772
八八六十四	-10.9772
劫掠	-10.9772
齋	-10.9772
綵	-10.9772
葺	-10.9772
奥	-10.9772
鄧艾	-10.9772
環繞	-10.9772
彀	-10.9772
竪	-10.9773
盾	-10.9773
轆轤	-10.9773
商賈	-10.9773
疲倦	-10.9773
訟	-10.9773
綘	-10.9773
太平興國中	-10.9773
糜	-10.9773
峭	-10.9773
熖	-10.9773
羨	-10.9774
裔	-10.9774
簾	-10.9774
淳化中	-10.9774
李繼隆	-10.9774
試之	-10.9774
煬帝	-10.9774
綠	-10.9775
誇	-10.9775
有所恃	-10.9775
范蠡	-10.9775
千餘里	-10.9775
駿馬	-10.9775
合而為一	-10.9775
口舌	-10.9776
虹蜺	-10.9776
戢	-10.9776
檑	-10.9777
堞	-10.9777
寳山寨	-10.9778
憊	-10.9779
艱難	-10.9779
聞鼓聲	-10.9779
礁	-10.978
嵗月日時	-10.978
粥	-10.9781
孝恭	-10.9781
朋	-10.9782
莫測	-10.9782
諠	-10.9782
鶻	-10.9782
千戸所	-10.9782
鎮海衞	-10.9783
平旦	-10.9783
鴈門	-10.9783
欲使	-10.9783
鳴鑼	-10.9783
唐開元中	-10.9784
北狄	-10.9784
𫝊送	-10.9784
資財	-10.9785
浙西	-10.9786
日日食兵起	-10.9786
川路	-10.9786
遊奕	-10.9786
月天門在	-10.9786
沛公	-10.9787
諸葛	-10.9788
轉軸	-10.9788
將來	-10.9791
雷電	-10.9792
城隍	-10.9792
貴賤	-10.9792
左右虞候	-10.9792
慶厯	-10.9793
空中	-10.9793
貞觀中	-10.9793
四十里至	-10.9793
六十四陣	-10.9794
加仲	-10.9795
成臯	-10.9796
為凖	-10.9796
分之一	-10.9797
造船	-10.9798
關繫	-10.9799
勁弩	-10.9799
嶼	-10.9801
尤甚	-10.9801
向裏	-10.9803
先主	-10.9803
躍馬	-10.9805
相為	-10.9805
我得	-10.9807
名之曰	-10.9811
天魁	-10.9811
南境	-10.9813
分䑸	-10.9814
保全	-10.9815
有定	-10.9816
餘黨	-10.9817
虜掠	-10.9819
禮樂	-10.9819
周浦	-10.982
第八	-10.9821
中旦	-10.9822
建康	-10.9822
從魁	-10.9822
雄黄	-10.9823
太隂	-10.9823
百五十	-10.9824
勿疑	-10.9824
以徇	-10.983
素書	-10.9831
是也所謂	-10.9833
齊侯	-10.9835
詭道	-10.9835
衆十萬	-10.9837
風潮	-10.9837
抛入陣	-10.9837
魚腹	-10.9838
千總	-10.984
彊弩	-10.984
應募	-10.984
白者	-10.9841
守捉	-10.9841
謂曰	-10.9842
曲直	-10.9843
警急	-10.9844
閉門	-10.9844
旗鼔	-10.9845
又在	-10.9851
子銃	-10.9852
也况	-10.9854
平江	-10.9856
呉師	-10.9858
宫外迫	-10.986
外國	-10.9861
四十人	-10.9861
民無	-10.9863
文帝	-10.9865
相聞	-10.9866
於晉	-10.9873
觀敵	-10.9874
預知	-10.9874
古制	-10.9875
月空	-10.9877
分道	-10.9878
潛師	-10.9879
材力	-10.9879
先驅	-10.988
奪氣	-10.9882
謂之曰	-10.9883
何益	-10.9886
官吏	-10.9886
退保	-10.9889
亦為	-10.989
右竒	-10.9893
未戰	-10.9894
洞當	-10.9894
兵務	-10.9898
更始	-10.9899
目視	-10.99
者可擊也	-10.9901
精熟	-10.9901
報功	-10.9902
在營	-10.991
乘馬	-10.9911
復回	-10.9912
七十里西至	-10.9914
乗勝	-10.9918
後隊	-10.9918
其下有	-10.992
於城下	-10.992
漢軍	-10.9926
潛伏	-10.9927
他如	-10.9929
又令	-10.9933
口糧	-10.9933
其輜重	-10.9933
長槍	-10.9935
岸上	-10.9937
晉陽	-10.9939
從容	-10.9941
剛日	-10.9941
繼進	-10.9943
使無	-10.9943
北斗	-10.9951
或又曰	-10.9955
地下	-10.9958
江左	-10.9962
三才	-10.9962
共計	-10.9963
主兵起	-10.9963
國人	-10.9964
五行之	-10.9967
營室	-10.9969
巢穴	-10.9969
直至	-10.9977
握竒經	-10.9979
氣象	-10.9979
嶺南	-10.998
振武	-10.9984
與太乙	-10.9986
大㓙	-10.9987
邕州	-10.9992
而北	-10.9993
而攻之	-10.9994
變色	-10.9994
占地	-10.9995
不多	-10.9998
諸家	-11.0001
之政	-11.0006
少却	-11.0007
七十里北至	-11.0008
直前	-11.001
馳入	-11.0012
止宿	-11.0013
不敢出	-11.0014
把守	-11.0014
烏合	-11.0014
打殺	-11.0018
四十餘	-11.0021
離合	-11.0024
以左手	-11.0025
孔子	-11.0026
入太湖	-11.0027
以固	-11.0032
亦宜	-11.0038
饗	-11.004
復來	-11.0043
塞之	-11.0043
列於	-11.0049
射殺	-11.0051
吳江縣	-11.0052
徐行	-11.0052
胄	-11.0052
清水	-11.0056
分投	-11.0057
力大	-11.0062
計謀	-11.0065
北伐	-11.0066
不擊	-11.0067
小船	-11.0068
為精	-11.0072
則難	-11.0073
以取	-11.0075
在彼	-11.0075
用此法	-11.008
士之	-11.008
壕外	-11.0081
所築	-11.0083
習戰	-11.0085
安都	-11.009
必行	-11.0091
其他	-11.0091
湖州	-11.0091
勢甚	-11.0094
東流	-11.0095
乃退	-11.0099
陣之法	-11.0105
論將	-11.0105
守城人	-11.0106
不避	-11.0108
三萬人	-11.0109
也言	-11.0112
失地	-11.0119
長圍	-11.0119
三十五	-11.0121
以誘	-11.0126
而堅	-11.0129
三刑	-11.0131
始至	-11.0133
十五里南至	-11.014
足矣	-11.0147
勇也	-11.0153
去非	-11.0153
把總兵船	-11.0154
中夜	-11.0156
海外	-11.0157
三指	-11.0157
賊不能	-11.0159
為法	-11.016
曰彼	-11.0162
旗上	-11.0167
奔牛	-11.0173
四十九	-11.0182
不過三	-11.0184
古之善	-11.0184
百官	-11.0185
蘇常	-11.0189
不嚴	-11.019
不因	-11.0191
得宜	-11.0193
也是故	-11.0194
所以為	-11.0195
大功	-11.02
直衝	-11.0206
非人	-11.0209
本處	-11.0216
若能	-11.0216
▁兵	-11.0216
惡之	-11.022
齊王	-11.0221
不能及	-11.0221
其生	-11.0221
守禦人	-11.0232
下施	-11.0238
大怒	-11.0242
四郡	-11.0244
縱賊	-11.0244
舉青旗	-11.0249
十七日	-11.025
分為四	-11.0257
平居	-11.0258
十三里	-11.0258
未敢	-11.0258
不辨	-11.0263
船上	-11.0264
納之	-11.0269
以法	-11.027
已久	-11.0273
事君	-11.0284
發引	-11.029
網船	-11.0292
八方	-11.0293
書之	-11.0294
二箇	-11.0296
起至	-11.0296
乾糧	-11.0298
自退	-11.03
追賊	-11.03
不與	-11.0303
過人	-11.0304
以上者	-11.0305
謁	-11.0305
術數	-11.0306
生氣	-11.0309
為務	-11.0311
以五	-11.0316
兵力	-11.0321
在辰	-11.0324
生死	-11.0325
直當	-11.0326
之至也	-11.0328
三十七	-11.0329
或遇	-11.0333
步法	-11.0336
涿	-11.0345
上功	-11.0347
其處	-11.0349
白馬	-11.0349
於心	-11.0351
須是	-11.0356
等船	-11.0357
八百里	-11.0358
前營	-11.0364
勿與	-11.0366
其在	-11.0371
砦城	-11.0371
五月賊	-11.0376
為亂	-11.0377
旁有	-11.0378
雜於	-11.0378
十一日	-11.0385
二十斤	-11.0387
期於	-11.0389
寡人	-11.039
東有	-11.0392
黑者	-11.0396
無非	-11.0398
武經總要前集卷十	-11.0402
欽定四庫全書武經總要前集卷十	-11.0404
入山	-11.0406
土時	-11.041
石浦	-11.041
究其	-11.0414
舊地	-11.0417
一副	-11.0419
曰昔	-11.0421
無私	-11.0428
矣然而	-11.0431
赴中軍	-11.0434
牌下	-11.0435
四起	-11.0436
各設	-11.0436
十二名	-11.0437
長洲之	-11.0441
兵食	-11.0442
久而	-11.0445
一舉	-11.0447
鼓音	-11.0452
選練	-11.0456
兵貴	-11.046
五十六	-11.0462
賊近	-11.0463
亦不得	-11.0464
柘林賊	-11.0464
士卒皆	-11.0468
戒之	-11.047
失機	-11.0471
子通	-11.0471
動衆	-11.0471
立為	-11.0471
安定	-11.0477
十隊	-11.0483
戰大敗之	-11.0504
不能入	-11.0514
十一里	-11.0515
正南	-11.0516
執牌	-11.0528
翦	-11.0536
將棍	-11.0536
是知	-11.0537
水上	-11.0537
來我	-11.0539
敵来	-11.0542
有曰	-11.0558
擊大敗之	-11.0562
如虎	-11.0562
不可當	-11.0565
探報	-11.0565
戰棚	-11.0569
一十六	-11.0574
若將	-11.0576
太湖之	-11.0576
有警則	-11.0576
地廣	-11.0582
如法	-11.0582
虎鈐經卷	-11.0584
手持	-11.0587
人之力	-11.0592
十六隊	-11.0595
以少擊衆	-11.0596
有暴兵	-11.0597
逆行	-11.0602
翔	-11.0605
州境	-11.0607
以智	-11.061
者葢	-11.061
收軍	-11.0618
婦	-11.0619
在城外	-11.0622
見我	-11.0624
馬歩	-11.0628
必當	-11.063
十五里西	-11.0631
有過	-11.0636
連珠	-11.0637
燒之	-11.0641
彼衆我寡	-11.0642
豨	-11.0642
獐	-11.0643
晒	-11.0646
臨之	-11.0647
熟戸	-11.0647
三座	-11.065
州在戎州南	-11.0652
益以	-11.0653
醫巫閭山	-11.0653
傳之	-11.0654
乃得	-11.0655
窪	-11.0655
機而	-11.0657
酬	-11.0657
僉	-11.0658
刪	-11.0659
這	-11.0659
釵	-11.066
揆	-11.0661
樺	-11.0662
堯	-11.0662
龍騰	-11.0663
紋	-11.0664
海船	-11.0664
蒜	-11.0664
排叉木	-11.0664
虗	-11.0664
臨洮	-11.0664
十分一萬二千五百	-11.0664
睿	-11.0665
萌	-11.0665
叱	-11.0665
砒霜	-11.0665
者取	-11.0665
先王之	-11.0666
項籍	-11.0667
壺	-11.0667
瘟	-11.0667
伏羲	-11.0667
其東	-11.0667
匡	-11.0667
受降城	-11.0668
檻	-11.0668
蹖	-11.0668
潦	-11.0668
順安軍	-11.0669
盔	-11.0669
向上	-11.0669
坂	-11.0669
搬運	-11.067
河圖帝覽嬉曰	-11.067
鬻	-11.067
偵	-11.067
戊癸	-11.067
昆陽	-11.067
戎馬來路	-11.067
徽	-11.067
滓	-11.0671
乾隆四十六年	-11.0671
貲	-11.0671
宫其神	-11.0671
撃大破之	-11.0671
乍浦	-11.0672
武經總要	-11.0672
瑱	-11.0672
穗	-11.0672
飼	-11.0673
蔚州	-11.0673
鐶	-11.0673
輻	-11.0673
拖	-11.0673
第九	-11.0674
拗	-11.0674
殪	-11.0674
惇	-11.0674
㡌	-11.0674
匈	-11.0674
陣間容陣隊間容隊	-11.0675
以生牛皮	-11.0675
舸	-11.0675
碇	-11.0675
酷	-11.0675
颺	-11.0675
丙申	-11.0675
幄	-11.0676
宇文泰	-11.0676
厮	-11.0676
淡	-11.0676
座窩舖	-11.0677
瘴	-11.0677
歸師勿遏	-11.0677
堅壁清野	-11.0677
艟	-11.0677
纜	-11.0677
噴	-11.0677
螺	-11.0678
廣信軍	-11.0678
郷	-11.0678
鼔譟	-11.0678
痢	-11.0678
廩	-11.0678
動搖	-11.0678
錡	-11.0678
司馬懿	-11.0678
北至界首	-11.0678
綜	-11.0678
罌	-11.0678
冰	-11.0678
辛酉	-11.0678
望亭	-11.0678
跑	-11.0678
撼	-11.0679
祈	-11.0679
唐公順之	-11.0679
换	-11.0679
疎虞	-11.0679
誑	-11.0679
腹背受敵	-11.068
財貨	-11.068
溪澗	-11.068
鞏	-11.068
蹂	-11.068
享	-11.068
恪	-11.068
人自為戰	-11.0681
一百四十	-11.0681
沖	-11.0681
握奇	-11.0681
梭	-11.0682
嗟夫	-11.0682
偹	-11.0682
百死在	-11.0682
四尺五寸	-11.0682
舷	-11.0682
岩	-11.0683
長吳二縣	-11.0683
縣出賊	-11.0683
披靡	-11.0683
客杜塞無門	-11.0683
撑	-11.0684
濞	-11.0684
鎮撫	-11.0684
宫室	-11.0684
氣律中	-11.0685
茫	-11.0685
九千	-11.0685
姬	-11.0685
後漢末	-11.0685
舂	-11.0685
汎	-11.0685
放起火三枝	-11.0685
臨淄	-11.0685
克寛	-11.0685
伊尹	-11.0686
頴	-11.0686
詡	-11.0686
撮	-11.0686
殫	-11.0686
以北	-11.0687
瘧	-11.0687
丘陵	-11.0687
鹽盜	-11.0687
菴	-11.0688
男子	-11.0688
置砦	-11.0688
延伯	-11.0688
險阨	-11.0688
擠	-11.0688
日時加	-11.0689
裴緒	-11.0689
右虞候	-11.0689
酸	-11.069
嚼	-11.069
鳥獸	-11.069
李淳風曰	-11.0691
巡視旗	-11.0691
孟河	-11.0691
四面受敵	-11.0692
泚	-11.0692
媯州	-11.0693
武牢	-11.0693
究治	-11.0693
公祏	-11.0693
馬蹟	-11.0693
交兵	-11.0693
漢髙帝	-11.0694
五龍橋	-11.0694
婁塘	-11.0694
治以軍法	-11.0695
瓮	-11.0695
不得以	-11.0695
增築	-11.0695
瘡口	-11.0695
㓕	-11.0697
該管	-11.0697
水東	-11.0697
濱海	-11.0698
鼎足	-11.0698
白虹	-11.0698
入敵境	-11.0698
如前法	-11.0698
貨物	-11.0698
丁卯	-11.0699
侯景	-11.07
都監	-11.0701
角聲絶	-11.0701
諸羌	-11.0701
火砲	-11.0701
上建	-11.0701
直搗	-11.0701
大半	-11.0702
一百八十里	-11.0703
童子	-11.0703
夜郎	-11.0703
伺候	-11.0705
兵起入	-11.0706
利鈍	-11.0708
十九日	-11.0708
對壘	-11.0709
亭亭	-11.0709
是之謂	-11.0709
外兵	-11.0711
井田	-11.0711
錯亂	-11.0711
至要	-11.0712
招集	-11.0713
四課	-11.0713
當事者	-11.0715
小兒	-11.0716
木瀆	-11.0716
遁出海	-11.0717
而守	-11.0718
近岸	-11.0718
盗賊	-11.0719
方寸	-11.072
雷公六律曰天一	-11.072
積薪	-11.072
崇文	-11.072
破之必矣	-11.072
揚聲	-11.072
兩邉	-11.0721
上京	-11.0721
舉白旗	-11.0721
水勢	-11.0722
黑氣如	-11.0726
忻州	-11.0726
押官	-11.0727
五面	-11.0727
其精	-11.0727
誓衆	-11.073
可及	-11.0731
歴代	-11.0732
保結	-11.0733
酒食	-11.0733
淺深	-11.0734
突圍	-11.0734
少林	-11.0735
大角	-11.0737
玉門	-11.0738
色黄	-11.0739
貧民	-11.0739
驍將	-11.074
六庚	-11.0741
南渡	-11.0741
袁尚	-11.0742
連環	-11.0742
深一丈	-11.0742
選士	-11.0743
四丈	-11.0744
膽勇	-11.0745
即變為	-11.0745
數丈	-11.0747
為備	-11.0748
幾何	-11.0749
初一日	-11.0749
强盛	-11.0749
捉馬	-11.0751
天獄	-11.0753
砦鋪	-11.0753
死焉	-11.0754
追奔	-11.0754
八團	-11.0754
調遣	-11.0755
賊豈能	-11.0759
歎曰	-11.0759
良民	-11.0759
焉一曰	-11.076
者以其	-11.0762
十倍	-11.0762
此四者	-11.0764
而言則	-11.0764
准前	-11.0766
横塘	-11.0768
神宗	-11.077
靖曰臣	-11.0771
然無	-11.0774
衡軸	-11.0776
聽候	-11.0778
二百名	-11.0779
附近	-11.0781
不祥	-11.0781
一片	-11.0782
轉關	-11.0782
地分	-11.0783
清河	-11.0784
鄉民	-11.0785
勿容	-11.0785
吕城	-11.0785
朝陽	-11.0786
谷口	-11.0787
向背	-11.0787
卷甲	-11.0789
四靣	-11.0791
之類皆	-11.0792
歩卒	-11.0792
善惡	-11.0794
弗能	-11.0795
保甲	-11.0795
候望	-11.0796
未决	-11.0797
犯塞	-11.0798
烽子	-11.0799
李廣	-11.0801
後脚	-11.0801
三升	-11.0802
有赤氣	-11.0803
總要	-11.0803
溺死	-11.0804
存乎	-11.0807
一百五十里	-11.0808
自知	-11.0808
直指	-11.081
元初	-11.0811
伏路	-11.0812
使我	-11.0813
盡力	-11.0815
有十	-11.0816
申明	-11.0816
用兵之法	-11.0816
而欲	-11.0817
震動	-11.0817
老生	-11.0818
海水	-11.082
夏國	-11.0822
有功者	-11.0823
砲手	-11.0825
泉水	-11.0826
隂手	-11.0827
之弊	-11.0828
洋中	-11.0828
依前	-11.0833
黄連	-11.0833
失色	-11.0833
二陣	-11.0837
竹箔	-11.0839
遂至於	-11.0839
被殺	-11.0844
出征	-11.0846
偃旗	-11.0846
之勢也	-11.0846
藥箭	-11.0846
馬燧	-11.0846
上下相	-11.0847
去皮	-11.0848
所殺	-11.0853
亡命	-11.0856
譬如	-11.0856
一個	-11.0857
致有	-11.0857
戰具	-11.0859
衝要	-11.0862
中山	-11.0862
二十萬	-11.0866
十六日	-11.0867
不是	-11.0868
前京	-11.0868
殺來	-11.0869
川口	-11.0869
秦師	-11.0869
用兵者	-11.0869
聚衆	-11.087
以代	-11.0877
安在	-11.0879
此輩	-11.0882
上黨	-11.0884
於吳淞江	-11.0886
一應	-11.0886
約二十里	-11.0888
謀士	-11.0888
而變	-11.089
而示之	-11.0891
何也曰	-11.0893
各帶	-11.0894
每戰	-11.0895
等率	-11.0897
黒水	-11.0901
二百八十	-11.0902
功次	-11.0903
六步	-11.0904
統軍	-11.0904
凡有	-11.0905
故城	-11.0906
屬邑	-11.0906
以明	-11.091
一舉而	-11.0912
大捷	-11.0913
東控	-11.0913
中使	-11.0913
以扼	-11.0915
小砲	-11.0915
畏懼	-11.0916
禁令	-11.0918
一歲	-11.0919
近者	-11.0922
一疋	-11.0927
諸君	-11.0928
於軍門	-11.0932
不可無	-11.0933
賊據	-11.0934
原無	-11.0936
諸鎮	-11.0938
千百	-11.0939
一百三十里	-11.0939
一百一十里	-11.0939
他處	-11.0943
善者	-11.0948
欽定四庫全書武經總要前集卷	-11.0948
武經總要前集卷	-11.0949
水兵船	-11.0951
假如	-11.0952
濛	-11.0955
舊名	-11.096
出哨	-11.0962
潰散	-11.0962
領衆	-11.0963
鎮西	-11.0967
要之	-11.0972
官捕	-11.0973
相率	-11.0974
人之心	-11.0975
三卷	-11.0981
重則	-11.0982
黄氣	-11.0985
者何也	-11.0987
南山	-11.0988
不如法	-11.0989
操法	-11.0991
乃是	-11.0992
尚有	-11.0993
亦得	-11.0996
九曰	-11.0997
十四日	-11.0998
濟水	-11.1
西接	-11.1003
臨江	-11.1004
欽定四庫全書武經總要後集卷	-11.1005
更無	-11.1005
兵勢	-11.1006
攻戰	-11.1015
次於	-11.102
而當	-11.1021
曺公之	-11.1022
也至於	-11.1023
兵起犯	-11.1026
避難	-11.1027
亦可以	-11.1028
十萬之衆	-11.1031
殺獲	-11.1031
然皆	-11.1031
二座	-11.1033
不可恃	-11.1033
統之	-11.1033
賊數	-11.1034
必中	-11.1034
爭地	-11.1041
不完	-11.1041
喜曰	-11.1048
之亂	-11.1055
決戰	-11.1056
每夜	-11.106
然後可以	-11.1061
候其	-11.1074
執事	-11.1075
山中	-11.1078
北界	-11.1078
所生	-11.108
既定	-11.108
擇日	-11.1081
二十四日	-11.1081
守也	-11.1081
宜用	-11.1081
神武	-11.1083
攻伐	-11.1083
已下	-11.1084
人謂	-11.1087
入吳淞江	-11.1089
誘敵	-11.109
我朝	-11.1091
逆戰	-11.1095
立隊	-11.1096
之所在	-11.1096
不在於	-11.1097
一等	-11.1098
不得已而	-11.111
暴兵	-11.1114
任事	-11.1114
戰必勝	-11.1117
殺他	-11.1119
須防	-11.1129
離城	-11.1129
之色	-11.1133
不可以不	-11.1133
邵	-11.1138
契丹界	-11.1138
黄白	-11.1141
如雨	-11.1143
四百人	-11.1149
南都	-11.115
二將	-11.1152
棚上	-11.1153
而返	-11.1155
數重	-11.1161
不能用	-11.1162
凡將	-11.1163
前脚	-11.1165
運糧	-11.1169
一百四十里	-11.1171
一百九十	-11.1174
其來	-11.1175
七百五十	-11.1183
危矣	-11.1192
曰若	-11.1204
之敗	-11.1207
義士	-11.1216
三道	-11.1218
隋置	-11.122
為奇	-11.122
驅馳	-11.1225
又加	-11.1226
多有	-11.1226
邊將	-11.1227
必用	-11.1234
五更	-11.1235
用藥	-11.1235
大木	-11.1236
辰巳	-11.1237
無所用	-11.124
者主	-11.1252
莫州	-11.1253
舉賢	-11.1253
誰與	-11.1256
又能	-11.1256
然亦	-11.1256
縣總論	-11.1257
善守	-11.1266
月十六日	-11.1267
火星	-11.1267
其流	-11.1268
也乃	-11.127
閔行	-11.1273
雖不	-11.1273
其誰	-11.1274
又謂	-11.1276
丈夫	-11.1278
一寸五分	-11.1281
故有	-11.1283
之制也	-11.1285
邑人	-11.1286
兩行	-11.1287
弩箭	-11.129
惑衆	-11.129
未合	-11.129
關中	-11.129
忽有	-11.129
相屬	-11.1293
如鳥	-11.1293
大畧	-11.1304
其半	-11.1305
山陽	-11.1305
人衆	-11.1306
門樓	-11.1308
後發	-11.1315
及至	-11.1318
以遏	-11.1322
軍出	-11.1323
欽定四庫全書武經總要後集卷十	-11.1326
初出	-11.1329
銃砲	-11.1333
俱照	-11.1335
衆兵	-11.1336
一百六十	-11.1336
其職	-11.1339
拒敵	-11.1345
領軍	-11.1345
懼其	-11.1352
澧	-11.1352
叛者	-11.1353
先入	-11.1354
乘城	-11.136
之害	-11.1361
五陣之	-11.1363
氣盛	-11.1366
長六尺	-11.1368
而非	-11.137
擺列	-11.1372
取敗	-11.1373
行賞	-11.1374
之例	-11.1378
先得	-11.1378
之世	-11.138
皆然	-11.1385
船頭	-11.139
敵也	-11.1391
該府	-11.1391
日支	-11.1394
城垜	-11.1397
梁軍	-11.14
如是者	-11.1411
邑也	-11.1427
應用	-11.143
有制	-11.1433
者無不	-11.1434
命將	-11.1434
以繩	-11.1439
同前	-11.1445
水日	-11.1452
欽定四庫全書虎鈐經卷	-11.1453
八面	-11.1456
陣法也	-11.1463
騎將	-11.1468
疑兵	-11.1469
必破	-11.1469
四合	-11.1475
戰兵	-11.1478
中州	-11.1479
所直	-11.1481
用刀	-11.1483
威勢	-11.1485
乃命	-11.1486
仍照	-11.1492
用事	-11.1498
用好	-11.15
安衆	-11.1504
一總	-11.1506
河橋	-11.1511
所破	-11.1511
外向	-11.1513
當令	-11.1515
火牛	-11.1525
銀兩	-11.1529
及於	-11.1532
之始	-11.1534
竹為	-11.1534
豐州	-11.154
欲退	-11.155
樂於	-11.1553
知彼	-11.1555
令不行	-11.1555
皂	-11.1556
莫有	-11.1559
輕地	-11.1564
然後可	-11.1565
何則	-11.1569
妙在	-11.157
神鎗	-11.1579
州軍	-11.1582
必自	-11.1584
怒而	-11.1594
車以	-11.1604
尺餘	-11.1609
武威	-11.1611
辰州	-11.1612
氣力	-11.1615
七鴉	-11.1624
身先	-11.1628
常令	-11.1628
卒至	-11.1629
心服	-11.1631
逐一	-11.1631
不須	-11.1634
人共	-11.1636
龎	-11.1637
蹟	-11.1639
十七里	-11.164
瀘州	-11.1641
隍	-11.1643
蜋	-11.1643
颶	-11.1644
欽定四庫全書紀效新書卷	-11.1645
秋糧米	-11.1645
宋信嘴	-11.1646
抺	-11.1646
逐北	-11.1647
喘	-11.1647
夷獠	-11.1647
白色	-11.1647
戎人	-11.1649
且戰且	-11.165
黔州	-11.1652
如愚見	-11.1652
搽	-11.1653
覆其	-11.1653
賜今名	-11.1654
何哉	-11.1654
坦	-11.1655
西戰利正東利方陣舉白旗雲氣從西來	-11.1656
濡	-11.1656
大利	-11.1656
鴨	-11.1657
矛㦸	-11.1659
錠	-11.1659
狡	-11.166
海滄	-11.166
鎭	-11.166
捍海塘	-11.166
彤	-11.1662
嶽	-11.1663
鋸	-11.1663
哲	-11.1663
丁壬	-11.1664
搬	-11.1664
璚	-11.1665
濃	-11.1665
邈	-11.1665
蒐	-11.1665
㪷	-11.1665
耻	-11.1666
熒	-11.1666
萬世	-11.1667
深溝髙壘	-11.1667
苑	-11.1667
擘	-11.1667
冶	-11.1667
釡	-11.1667
手把銃	-11.1667
漳	-11.1668
邳	-11.1668
染	-11.1668
剥	-11.1668
贍	-11.1668
囘紇	-11.1668
度於辰在	-11.1668
緝	-11.1669
蝟	-11.1669
繚	-11.1669
刈	-11.1669
聾	-11.1669
砦在縣東	-11.1669
檐	-11.1669
月合宿	-11.1669
者俱	-11.1669
三十三	-11.1669
吳子問孫武曰	-11.1669
畔	-11.167
傘	-11.167
男	-11.167
邯鄲	-11.167
蓐	-11.167
陌刀	-11.167
朽	-11.167
轍	-11.1671
趙充國	-11.1671
倐忽	-11.1671
涕	-11.1671
七浦塘	-11.1671
眙	-11.1671
宵	-11.1671
臆	-11.1671
臭	-11.1672
賊首蕭顯	-11.1672
砍刀	-11.1672
苖	-11.1673
複	-11.1673
瘦	-11.1674
即發	-11.1674
徭	-11.1674
謨	-11.1674
厄	-11.1674
斬首數千級	-11.1674
赫	-11.1674
獨孤及	-11.1674
倍道兼行	-11.1674
戌亥	-11.1674
朴	-11.1675
詳見各圖説於後	-11.1675
舉赤旗	-11.1675
明唐順之撰	-11.1675
歆	-11.1675
袤	-11.1675
萬徹	-11.1675
什伍	-11.1675
嵐	-11.1675
慘	-11.1676
都部署	-11.1676
翅	-11.1676
狭	-11.1676
次以	-11.1676
孰肯	-11.1676
兮	-11.1676
不可不察也	-11.1677
陣令各軍	-11.1677
涯	-11.1677
太乙助主	-11.1677
苛	-11.1677
单	-11.1677
蓼	-11.1677
有五一曰	-11.1677
眷	-11.1677
冦徳安	-11.1677
虎牢	-11.1677
之神惟神	-11.1677
尚饗	-11.1677
𨗳	-11.1678
銖	-11.1678
揖	-11.1678
兑	-11.1678
一人為	-11.1678
糴	-11.1678
禡	-11.1678
翁家港	-11.1678
叠	-11.1679
吼	-11.1679
莘	-11.1679
擊柝	-11.1679
騷動	-11.1679
巡捕	-11.168
築長城	-11.168
絞車	-11.168
僕射	-11.168
弄	-11.168
崇韜	-11.168
至道中	-11.168
餒	-11.168
○	-11.168
鳴皷	-11.168
辛巳	-11.168
厨	-11.168
東戰利正西利鋭陣舉赤旗雲氣從東來	-11.168
慄	-11.1681
即此地	-11.1681
沽	-11.1681
張士誠	-11.1681
爛溪	-11.1681
原野	-11.1682
凍	-11.1682
皆其信地	-11.1682
兵備任公環	-11.1682
嗣源	-11.1682
萃	-11.1682
孝徳	-11.1682
之學	-11.1683
蓮	-11.1683
踴躍	-11.1683
田賦	-11.1683
筯	-11.1684
則如之何武曰	-11.1684
穽	-11.1684
墾	-11.1685
它	-11.1685
世隆	-11.1685
紹斌	-11.1685
梢砲	-11.1686
生獠	-11.1686
新塲	-11.1686
蒭	-11.1686
鼙	-11.1686
邢	-11.1686
斜堰	-11.1687
不亂	-11.1687
轉輸	-11.1687
不審	-11.1688
催	-11.1688
帝王之	-11.1688
両	-11.1688
里去東京	-11.1689
虞侯	-11.1689
水調下	-11.1689
壽春	-11.1689
軼	-11.169
海島	-11.169
聰明	-11.169
為左翼	-11.169
牲	-11.1691
嗣昭	-11.1691
平肩滿射	-11.1691
祀	-11.1691
錯雜	-11.1691
柁	-11.1692
倍之	-11.1692
都尉	-11.1693
感泣	-11.1693
阿保機	-11.1693
豈敢	-11.1693
敵上氣	-11.1694
巫咸曰	-11.1694
不甚	-11.1694
百餘騎	-11.1694
岳飛	-11.1694
醫藥	-11.1694
杭州	-11.1695
魄	-11.1696
穩	-11.1696
聲音	-11.1696
冊	-11.1697
如一	-11.1697
黥布	-11.1698
勢必	-11.1698
往返	-11.1698
風汛	-11.1698
江灣	-11.1698
四肢	-11.1699
碾	-11.17
疑惑	-11.17
炅	-11.17
纓	-11.17
之餘	-11.1701
要害之地	-11.1702
財賦	-11.1702
使臣	-11.1703
蒼船	-11.1704
五色旗	-11.1705
包港	-11.1705
先天	-11.1705
伍隊長	-11.1706
倭宼	-11.1707
太倉衞	-11.1707
溪谷	-11.1707
金湯	-11.1708
通判	-11.1708
㑹稽郡	-11.1708
查考	-11.1709
演習	-11.1709
走舸	-11.1711
鹿園	-11.1711
吉㓙	-11.1712
一哨官	-11.1712
五千騎	-11.1714
五穀	-11.1714
接境	-11.1715
時賊	-11.1716
可汗	-11.1716
天皇	-11.1716
勇猛	-11.1717
逃亡	-11.1718
征討	-11.1718
秦伯	-11.1718
陽郡	-11.1719
規避	-11.1719
愈甚	-11.1719
角音	-11.172
壬子	-11.1721
劄營	-11.1722
隴山	-11.1722
不得輙	-11.1722
都御史	-11.1722
良久	-11.1723
真義	-11.1724
先起	-11.1724
入我	-11.1724
聲息	-11.1725
不露	-11.1726
槍刀	-11.1726
前後䡴	-11.1727
鈎連	-11.1727
要能	-11.1729
攻縣城	-11.173
膽氣	-11.1731
毋得	-11.1732
束手	-11.1732
率諸軍	-11.1733
短刀	-11.1733
田野	-11.1733
皆是	-11.1734
半濟	-11.1734
此處	-11.1735
二十九日	-11.1735
甘心	-11.1735
吳將	-11.1736
疾速	-11.1737
長三尺	-11.1737
李陵	-11.1738
粮道	-11.1739
材士	-11.174
不可行	-11.174
飄風	-11.1741
新築	-11.1742
左右校	-11.1743
石勒	-11.1745
土山	-11.1746
八部	-11.1747
億萬	-11.1747
掲起	-11.1749
殺敵	-11.1749
厚薄	-11.1751
三十斤	-11.1752
順逆	-11.1755
驚恐	-11.1755
數尺	-11.1758
衣食	-11.1759
把總官	-11.1759
整齊	-11.176
南京	-11.1761
忠信	-11.1762
自率	-11.1765
吳地	-11.1767
既無	-11.1768
北岸	-11.1771
崑山之	-11.1771
宣言	-11.1773
精微	-11.1775
其道有三由	-11.1775
糧盡	-11.1776
婁江	-11.1776
星辰	-11.1778
七八尺	-11.1779
是書	-11.1779
高招	-11.178
悉以	-11.1781
順流	-11.1781
平陸	-11.1782
伏虎	-11.1785
亦非	-11.1785
雖欲	-11.1785
某官	-11.179
立法	-11.1794
南牧	-11.1796
生靈	-11.1797
驚亂	-11.18
學士	-11.18
兵馬使	-11.18
㑹議	-11.18
止許	-11.1802
卒伍	-11.1802
皆可以	-11.1804
支更	-11.1805
中攔	-11.1806
牡陣	-11.1806
中腰	-11.1807
乘機	-11.1808
告急	-11.1809
交州	-11.1809
叅將二宫	-11.181
太逺	-11.1811
强而	-11.1813
險難	-11.1814
在道	-11.1815
楊進	-11.182
黑旗	-11.182
衡陣	-11.1821
知此	-11.1823
諸將皆曰	-11.1824
事體	-11.1831
掩殺	-11.1832
家港	-11.1834
俱是	-11.1836
所傳	-11.1838
深草	-11.1838
餘丁	-11.184
皆死	-11.1841
全隊	-11.1842
進逼	-11.1843
婁縣	-11.1845
天文總論曰	-11.1847
可蔽	-11.1849
回頭	-11.1852
大戸	-11.1852
藥弩	-11.1852
先謀	-11.1854
有大風	-11.1855
再加	-11.1858
三九	-11.1859
查得	-11.186
髙壘	-11.1862
收回	-11.1863
我用	-11.1864
計一千	-11.1865
不敢輕	-11.1873
必待	-11.1874
北路	-11.1875
皆無	-11.1888
轉身	-11.1889
貫之	-11.1889
遣其將	-11.1889
召諸	-11.1891
各該	-11.1891
州二百里	-11.1891
攻械	-11.1896
廣固	-11.1897
開府	-11.1898
十二日	-11.1899
失次	-11.1905
四面各	-11.1909
陷于	-11.191
忘其	-11.1912
給發	-11.1913
勇夫	-11.1915
地里	-11.1917
伏藏	-11.1918
郢州	-11.1918
二十八日	-11.1921
一句	-11.1922
不解	-11.1923
坐視	-11.1924
貴人	-11.1927
秦州	-11.1928
卦為	-11.1929
伊吾	-11.193
部落為	-11.193
猶可	-11.1931
退則	-11.1931
明年	-11.1932
廣武	-11.1937
士伍	-11.1937
乃召	-11.1939
大司馬	-11.1941
威名	-11.1943
不貴	-11.1944
望風	-11.1944
二部	-11.1945
其理	-11.1947
每月	-11.1951
軍額	-11.1954
諜者	-11.1954
保長	-11.1958
已成	-11.1958
終日	-11.1959
賢士	-11.196
己未	-11.1961
四條	-11.1966
平列	-11.1968
衝陣	-11.1968
俱出	-11.197
本總	-11.1976
所作	-11.1977
一遍	-11.1978
千乘	-11.1979
於軍	-11.198
不肅	-11.1987
吳師	-11.1987
所忌	-11.1988
出西方	-11.1989
威武	-11.199
一如	-11.1992
魚貫而	-11.1992
以為常	-11.1996
篇第五十	-11.1997
地居	-11.1999
興州	-11.2004
浦口	-11.2005
兵數	-11.2005
入火	-11.2006
花法	-11.2007
須要	-11.2011
其目	-11.2012
伏路人	-11.2017
明賞罰	-11.2021
潰圍	-11.2021
明月	-11.2023
所習	-11.2025
從便	-11.2025
聲言	-11.2028
自亂	-11.203
其下有兵	-11.2032
水入	-11.2034
矣其	-11.2036
有道	-11.2038
也然而	-11.2042
一篇	-11.2043
五度	-11.2047
不得渡	-11.2051
還營	-11.2052
無處不	-11.2053
分流	-11.2055
隂山	-11.2057
不勝其	-11.2061
大兵起	-11.2061
煙火	-11.2061
涿州	-11.2063
專用	-11.2066
揚兵	-11.2071
渡海	-11.2073
相次	-11.2075
哉夫	-11.2076
武備	-11.2077
唐天寳	-11.2085
賊黨	-11.2087
上言	-11.2088
相通	-11.2091
廣東	-11.2091
司兵	-11.2092
不求	-11.2093
一竒	-11.2097
大將死	-11.2099
蹙之	-11.2107
勵士	-11.2109
海門	-11.2112
營門	-11.2113
示衆	-11.2115
招軍	-11.2121
整隊	-11.2124
争利	-11.2127
分散	-11.213
君命	-11.2131
教戰	-11.2143
不令	-11.2144
可知也	-11.2148
以圖	-11.2148
靡不	-11.2148
地狹	-11.2152
不可用也	-11.2152
諸門	-11.2153
千戸	-11.2154
正正	-11.2157
本官	-11.2166
火磚	-11.2168
白茆港	-11.2171
火犯	-11.2175
厥後	-11.22
二面	-11.2201
白晝	-11.2202
多設	-11.2203
設法	-11.2205
之迹	-11.2205
死士	-11.2211
子反	-11.2212
必是	-11.2213
治馬	-11.2213
應接	-11.2214
多疑	-11.222
一級	-11.2221
退軍	-11.2222
在軍中	-11.2226
機宜	-11.2228
七十八	-11.2228
南陽	-11.2236
所存	-11.2243
一萬二千五百	-11.2244
每名	-11.2247
十餘艘	-11.2249
也亦	-11.225
號令一	-11.2251
務使	-11.2257
以定	-11.2257
之臣	-11.2259
守將	-11.226
一劍	-11.2261
不堅	-11.2262
後面	-11.2264
若在	-11.2265
夫將	-11.2273
只用	-11.2276
賊騎	-11.2277
昭王	-11.2281
後哨	-11.2288
又無	-11.2289
左右二	-11.2289
必棄	-11.2292
王在	-11.2295
使士卒	-11.2296
務在	-11.2298
外迫	-11.2299
復置	-11.2301
請於	-11.2303
升為	-11.2305
不敢進	-11.2307
欲謀	-11.2309
避其	-11.2312
為之備	-11.2312
不過一	-11.2313
一架	-11.2315
重罪	-11.2315
之設	-11.2315
人性	-11.2317
兼用	-11.2318
而滅	-11.232
之性	-11.2333
二十七里	-11.2335
九星	-11.2339
以皮	-11.2343
里三十步	-11.2345
營於	-11.2351
欽定四庫全書虎鈐經卷十	-11.2352
六十里北至	-11.2363
擊殺	-11.2368
而來則	-11.237
州西南	-11.237
宜于	-11.237
守隘	-11.2373
常以我	-11.2378
出江	-11.2381
六員	-11.2385
算長	-11.2386
見而	-11.2387
炭火	-11.2389
中軍船	-11.2395
得天下	-11.2398
數也	-11.2399
不願	-11.24
始知	-11.2401
俱有	-11.2406
不可追	-11.2415
士有	-11.2416
二百六十里	-11.2416
緩之	-11.2417
得所	-11.2417
其狀	-11.2418
虎鈐經卷十	-11.2421
十餘丈	-11.2422
中軍號令	-11.2426
不務	-11.2427
勝氣	-11.2427
各有所	-11.243
賊壘	-11.2433
可守	-11.2433
常熟之	-11.2435
而不得	-11.2443
子為	-11.2444
處山之	-11.2445
隨即	-11.2446
神名	-11.2448
北距	-11.2449
必取	-11.245
邊壕	-11.2453
之盛	-11.2453
面受敵	-11.2453
一家	-11.2459
各執	-11.2463
大剪	-11.2463
無罪	-11.2463
出奇	-11.2463
塞外	-11.2472
當用	-11.2479
月日	-11.2479
不變	-11.2479
方向	-11.2482
極其	-11.2486
加以	-11.2489
短打	-11.2489
以進	-11.2494
沙兵	-11.2495
逸而	-11.2497
江河	-11.2497
長二尺	-11.2499
近賊	-11.25
軍威	-11.2504
亦皆	-11.2505
陳於	-11.2506
郢	-11.251
陣勢	-11.2513
百四十里	-11.2519
之用也	-11.2523
重者	-11.2525
郡治	-11.2528
甚至	-11.2531
寇賊	-11.2531
一次	-11.2533
無患	-11.2541
其地有	-11.2542
之勞	-11.2546
兵禦之	-11.2548
九十三	-11.2548
非時	-11.2549
者亡	-11.255
馬隊	-11.2553
故善戰者	-11.2561
積數	-11.2564
以捍	-11.2565
無足	-11.2567
嘉湖	-11.2569
嘗聞	-11.2573
一兩六錢	-11.2579
先擊	-11.258
每哨	-11.2581
置營	-11.2581
賊果	-11.259
之失	-11.2591
有數	-11.2592
長七寸	-11.2594
銀若干	-11.2601
撓之	-11.2601
兵革	-11.2603
依此	-11.2607
雉堞	-11.2608
不舉	-11.2612
兵三千	-11.2613
乃自	-11.2623
人臣	-11.2624
二路	-11.2625
女頭墻	-11.2627
青雲	-11.2628
士氣	-11.2628
魏武	-11.2631
士大夫	-11.2631
衝擊	-11.2637
不息	-11.2639
之辰	-11.2641
公乃	-11.2644
致賊	-11.2648
軍法示衆	-11.2651
舉事	-11.2651
闊一丈	-11.2651
復戰	-11.2652
禆	-11.2654
兵雖	-11.2655
一十八里	-11.2655
俯伏	-11.2656
吳縣之	-11.2682
以資	-11.269
之多寡	-11.2693
馬嶺	-11.2696
乙夘	-11.2698
三百三十	-11.2702
俄	-11.2706
是皆	-11.2708
抵城下	-11.2709
呪	-11.271
陸費墀	-11.2711
西邊	-11.2712
刀手	-11.2715
所言	-11.2716
從者	-11.2718
為辭	-11.2721
本州	-11.2722
次看	-11.2725
亦是	-11.2727
五十人為一隊	-11.2729
五疋	-11.2729
五步	-11.2729
作法	-11.2739
一十四	-11.2739
其聲	-11.2741
不設備	-11.2741
如初	-11.2745
止是	-11.2745
遂為	-11.2745
汛時	-11.2745
小國	-11.2746
然有	-11.2747
熏	-11.2748
去地	-11.2749
就將	-11.2749
跟	-11.2752
緯	-11.2757
先王	-11.2759
作陣	-11.2761
一枝令千户一員領泊	-11.2761
保安軍	-11.2762
抛入彼陣	-11.2762
欝	-11.2763
羅夫子	-11.2763
出行法人念	-11.2765
九州	-11.2765
刁斗	-11.2765
抜	-11.2765
柘	-11.2766
為細末	-11.2766
厠	-11.2767
雕	-11.2768
北平軍	-11.2768
禳	-11.2768
紿	-11.2768
噐械	-11.2769
廆	-11.2769
筌	-11.2769
平洋沙	-11.2769
邊防	-11.277
安肅軍	-11.277
龕	-11.2771
豫州	-11.2771
蜜	-11.2771
塼	-11.2771
淯井鹽	-11.2772
儻	-11.2772
釣橋	-11.2772
劌曰未可	-11.2773
淀	-11.2773
柯	-11.2773
塡	-11.2773
隸	-11.2774
者杖一百	-11.2774
葱嶺	-11.2774
七千五百	-11.2774
站	-11.2774
曹涇	-11.2774
丙辛	-11.2774
尿	-11.2774
唐武徳中	-11.2774
箭筈	-11.2775
肌	-11.2775
麤	-11.2775
賄	-11.2775
川沙窪	-11.2775
渝	-11.2776
滴	-11.2776
潼	-11.2776
絃	-11.2777
阪	-11.2777
慝	-11.2777
碩	-11.2777
筠	-11.2777
雲起	-11.2777
跌	-11.2778
吒吒	-11.2778
縣水陸路考	-11.2778
天禧中	-11.2778
闔閭	-11.2779
唐李筌撰	-11.2779
香煙砦	-11.2779
治以軍法一	-11.2779
死地則戰	-11.2779
鮑	-11.2779
宜避自	-11.278
帝曰	-11.278
建炎	-11.278
薩	-11.278
黄山門	-11.278
頡利	-11.278
芷	-11.2781
設弓兵四十名往來巡邏所屬烽堠	-11.2781
謗	-11.2781
淖	-11.2782
迎戰	-11.2782
箆籬	-11.2782
休咎	-11.2782
疑有伏兵	-11.2782
嘯聚	-11.2782
第一百六十	-11.2782
翁	-11.2783
包裹	-11.2783
攻城圍邑	-11.2783
顚	-11.2783
作虎聲	-11.2783
勇冠三軍	-11.2783
撘	-11.2783
晋	-11.2783
登陴	-11.2783
觸處為首	-11.2783
庾	-11.2783
瀚海	-11.2784
礬	-11.2784
親戚	-11.2784
鱗	-11.2784
宵遁	-11.2784
是要各兵	-11.2784
主挾客㕘將	-11.2784
茅草	-11.2785
妾	-11.2785
畜産	-11.2785
睦	-11.2785
屈突通	-11.2785
梆	-11.2785
鵬	-11.2785
瑕	-11.2785
星夜	-11.2786
緑	-11.2786
聊	-11.2786
周而復始	-11.2786
柴草	-11.2786
黠	-11.2786
兵備僉事任公環	-11.2786
婆	-11.2786
紛紛紜紜	-11.2786
洎	-11.2786
祁	-11.2786
薛仁貴	-11.2786
馳驟	-11.2786
晦㝠	-11.2786
叔琮	-11.2786
裘	-11.2787
棧	-11.2787
塔	-11.2787
濮	-11.2787
釣	-11.2787
桞	-11.2787
欒	-11.2787
貶	-11.2788
斟酌	-11.2788
縶	-11.2788
剽	-11.2788
奈	-11.2788
桐油	-11.2788
潮汐	-11.2788
軀	-11.2788
大小將迫	-11.2788
畜牧	-11.2788
咨	-11.2789
握竒之數	-11.2789
繳	-11.2789
不知破法	-11.2789
官兵知破	-11.2789
龎涓	-11.2789
淄青	-11.2789
闘	-11.2789
宣慰	-11.2789
敗兆也	-11.2789
四頭八尾	-11.279
爪牙	-11.279
淘	-11.279
堂堂	-11.279
銑	-11.279
些	-11.279
﨑	-11.279
戚繼光	-11.279
慿	-11.279
孝逸	-11.279
客目掩	-11.279
沮澤	-11.279
噬	-11.2791
株	-11.2791
膺	-11.2791
舁	-11.2792
迨	-11.2792
寃	-11.2792
俘斬	-11.2792
鄜延	-11.2792
絮	-11.2792
脯	-11.2792
千墪浦	-11.2793
鄢	-11.2793
安慶	-11.2793
􁒀	-11.2793
羌戎	-11.2793
想	-11.2793
或擊其	-11.2793
綸	-11.2793
開拓	-11.2793
陸涇壩	-11.2793
材士強弩	-11.2794
拯	-11.2794
蔴	-11.2794
瞬息	-11.2794
舫	-11.2794
蘆葦	-11.2794
諸葛孔明	-11.2794
唇	-11.2794
荳	-11.2794
寰	-11.2794
隕	-11.2795
畏我	-11.2795
招諭	-11.2795
飛狐	-11.2795
牛角尖	-11.2796
回原	-11.2796
賈詡	-11.2796
互為聲援	-11.2797
俘虜	-11.2797
贈	-11.2797
十三篇	-11.2797
刼掠	-11.2798
用法	-11.2799
督撫	-11.2799
張掖	-11.2799
晙	-11.2799
五行傳曰	-11.2799
肘腋	-11.2799
冒頓	-11.2799
闉	-11.28
狡猾	-11.28
果毅	-11.28
榆林	-11.28
回紇	-11.28
揲	-11.2801
三矢中二移逺五步又能不離左右即于	-11.2801
台州	-11.2801
巨艦	-11.2801
插	-11.2801
延袤	-11.2802
寇舶	-11.2802
搜伏	-11.2802
篙	-11.2803
豹尾	-11.2803
駕馭	-11.2803
筞	-11.2803
萬户府	-11.2803
品字	-11.2803
癸丑	-11.2803
裳	-11.2803
汜水	-11.2804
溝渠	-11.2804
敗衂	-11.2804
百戰	-11.2804
豫章	-11.2804
迄今	-11.2804
智伯	-11.2804
砦二十五里	-11.2805
各門	-11.2805
甲乙	-11.2805
瑞	-11.2805
蕭銑	-11.2805
糧儲	-11.2805
甲乙日	-11.2805
勞逸	-11.2805
褒	-11.2806
華蕩	-11.2806
孝傑	-11.2806
軍法重治	-11.2807
勇悍	-11.2807
梅李	-11.2807
分毫	-11.2808
二百七十里	-11.2808
聚兵	-11.2809
經略	-11.2809
慕容垂	-11.2809
荆溪	-11.2809
什物	-11.281
稽留	-11.2811
無過	-11.2812
秦將	-11.2812
侵尅	-11.2812
不可勝計	-11.2813
木波	-11.2813
兵書	-11.2813
製造	-11.2814
監司	-11.2814
止之	-11.2815
荆湖	-11.2816
四名	-11.2816
大衝	-11.2816
乏絶	-11.2817
太倉衛	-11.2817
丙丁日	-11.2817
邇來	-11.2817
加孟	-11.2818
志𤣥	-11.2818
轉運	-11.2818
孤虚	-11.2818
倭冦	-11.2818
蒙衝	-11.2819
教閲	-11.2819
琮	-11.2819
技藝	-11.282
介子	-11.2821
三才陣	-11.2821
執之	-11.2822
指麾	-11.2823
奉詔	-11.2823
嚴整	-11.2823
采石	-11.2824
賢愚	-11.2825
窮冦	-11.2825
識認	-11.2826
悉為	-11.2826
果敢	-11.2826
修理	-11.2827
義烏兵	-11.2829
何如耳	-11.2829
奔突	-11.283
佯北	-11.283
安亭	-11.2831
辨認	-11.2831
持滿	-11.2832
列之	-11.2832
丙子	-11.2832
具區	-11.2833
首尾相應	-11.2834
太微	-11.2836
每歲	-11.2837
五里西至	-11.2837
馳逐	-11.2837
交代	-11.2838
客星入	-11.2839
斫營	-11.2841
吹打	-11.2842
建為州	-11.2842
黒氣	-11.2843
三百餘里	-11.2843
垜夫	-11.2845
横林	-11.2846
叛逆	-11.2846
渡浦	-11.2847
參連	-11.2848
蜀諸葛亮	-11.2849
無患矣	-11.2849
胥門	-11.285
接濟	-11.285
箭鑿	-11.2853
處州	-11.2854
仁貴	-11.2854
寛平	-11.2855
馳報	-11.2855
𦂳急	-11.2855
唐市	-11.2855
庭光	-11.2857
海潮	-11.2857
薄而	-11.2858
分寸	-11.286
二十七日	-11.2861
隂雨	-11.2862
敎成	-11.2862
鄰國	-11.2862
殿前	-11.2863
渭水	-11.2863
是否	-11.2866
西距	-11.2866
存節	-11.2867
二百步	-11.2868
次序	-11.2869
遁甲	-11.2869
等以	-11.2871
力屈	-11.2872
豈惟	-11.2874
南海	-11.2874
突騎	-11.2876
宋元	-11.2876
治罪	-11.288
義烏	-11.288
兖州	-11.2882
愛民	-11.2882
二十三日	-11.2883
為前	-11.2883
世襲	-11.2883
何處	-11.2884
賊若自	-11.2884
如其言	-11.2885
思奮	-11.2887
凡出軍	-11.2887
高帝	-11.2888
軍餉	-11.2888
賊乃	-11.2889
盧龍	-11.2893
戰艦	-11.2894
不堪用	-11.2894
改易	-11.2896
古稱	-11.2896
矣或曰	-11.2896
輕鋭	-11.2896
嚴刑	-11.2897
團營	-11.2897
公叔	-11.29
勝墪	-11.2906
二十里西至	-11.2908
却月	-11.2908
曰虜	-11.291
而食	-11.2911
可否	-11.2911
壯勇	-11.2912
不節	-11.2915
之極	-11.2915
而後動	-11.2916
五堰	-11.2916
北庭	-11.2916
立春	-11.2917
将士	-11.2917
飛梯	-11.2918
六十五	-11.292
天下之勢	-11.2921
火日	-11.2921
我國家	-11.2921
折衝	-11.2923
三十歩	-11.2923
示以	-11.2923
仰天	-11.2924
利便	-11.2926
如何靖曰	-11.2926
落旗	-11.2926
守垜	-11.2928
備矣	-11.293
腹中	-11.293
對手	-11.2931
李靖六花陣	-11.2931
智高	-11.2931
諸邑	-11.2931
大黄	-11.2932
小利	-11.2935
成擒	-11.2935
兵非	-11.2935
此船	-11.2936
六丁	-11.2938
陸門	-11.294
不可妄	-11.2941
威德	-11.2941
虎頭	-11.2941
重修	-11.2945
無制	-11.2947
射箭	-11.2948
為疑兵	-11.295
八字	-11.2951
忽見	-11.2953
逐隊	-11.2955
彼將	-11.2957
不相救	-11.2957
張弩	-11.2961
金陵	-11.2961
衛公	-11.2961
踵軍	-11.2962
之固	-11.2965
主憂	-11.2967
天下之事	-11.2968
他小門	-11.2972
委之	-11.2972
威加	-11.2973
實在	-11.2974
他刀	-11.2976
以俟	-11.2979
夷人	-11.2982
甚難	-11.2982
弩射	-11.2984
三合	-11.2985
相似	-11.2989
一百八十	-11.2989
順州	-11.2996
第一隊	-11.2996
人丁	-11.2997
凡軍營	-11.3
候騎	-11.3002
家沙	-11.3002
長則	-11.3002
所掠	-11.3004
又如	-11.3005
分掠	-11.301
而不用	-11.3012
歩軍	-11.3012
一變為	-11.3012
二十名	-11.3013
尤宜	-11.3014
二口	-11.3016
石橋	-11.3016
顯州	-11.3017
進士	-11.302
左面	-11.302
永州	-11.302
標鎗	-11.3021
務須	-11.3022
全師	-11.3027
九九	-11.3029
始築	-11.303
盡知	-11.303
探賊	-11.3031
旺相	-11.3033
龍頭	-11.3034
名雖	-11.3034
候風	-11.3034
而更	-11.3037
南向	-11.304
今廢	-11.3041
發機	-11.3051
外洋	-11.3052
北征	-11.3053
一盞	-11.3055
六兩	-11.3059
附子	-11.306
者皆斬	-11.3061
置州以	-11.3064
疋布	-11.3067
復遣	-11.3073
邊兵起	-11.3074
二百六十	-11.3078
以誅	-11.3079
賊来	-11.3081
馳至	-11.3081
無事則	-11.3086
親率	-11.309
建安	-11.309
人畜	-11.3093
有兵起	-11.3094
敢死之士	-11.3098
境内	-11.3103
王莽	-11.3104
可施	-11.3105
軍校	-11.3107
金壇縣	-11.3107
一段	-11.3108
查照	-11.3114
侵犯	-11.3115
向西	-11.3115
所領	-11.3118
奏曰	-11.312
有隂謀	-11.3125
難易	-11.3129
軍必敗	-11.3132
矣於是	-11.3136
七十里西	-11.3139
知人	-11.3141
二百七十	-11.3141
之理也	-11.3143
本鎮	-11.315
隨宜	-11.3153
二尺五寸	-11.3157
經過	-11.3159
照常	-11.3159
進鎗	-11.316
而不疑	-11.3161
十面	-11.3162
師敗績	-11.3163
二百八十里	-11.3164
唐公	-11.3165
夜行	-11.3165
輕舉	-11.317
滄州	-11.3172
營州	-11.3176
内顧	-11.318
舉烽	-11.3184
以問	-11.3186
出境	-11.3186
生還	-11.3187
等五	-11.3191
方位	-11.3191
不可得而	-11.3194
天順	-11.3194
兵戍守	-11.3197
待我	-11.3204
長橋	-11.3207
髙阜	-11.321
備也	-11.3213
吉時	-11.3213
篇第四十	-11.3214
得敵人	-11.3216
相間	-11.3216
則可	-11.3218
散去	-11.3219
難制	-11.3221
壕塹	-11.3221
年月	-11.3223
六月賊	-11.3228
懸於	-11.3231
而不亂	-11.3233
書云	-11.3237
有形	-11.3238
功臣	-11.324
之機也	-11.324
西抵	-11.3243
以吾	-11.3244
一遇	-11.3249
自保	-11.325
鎮星	-11.3251
打去	-11.3255
並須	-11.3259
於其中	-11.326
陣亡	-11.3261
是月	-11.3261
降附	-11.3262
敵近	-11.3263
能致	-11.3264
横木	-11.3265
無害	-11.3265
聼中軍	-11.328
賊攻縣城	-11.3281
以輕騎	-11.3287
也夫兵	-11.3287
道徳	-11.329
制宜	-11.3293
相雜	-11.3293
兵餉	-11.3295
以精騎	-11.3295
不得進	-11.3298
己丑	-11.3303
前列	-11.3306
五鄉	-11.3306
各色	-11.3309
交相	-11.3309
二國	-11.3312
等鎮	-11.3312
自當	-11.3314
天陣	-11.3315
私相	-11.3316
傳令	-11.3317
王霸	-11.3319
其要	-11.332
諸處	-11.332
求賢	-11.3322
濟師	-11.3323
國之君	-11.3326
俱起	-11.3334
南星	-11.3338
十萬衆	-11.3342
於淮	-11.3343
頭車	-11.3344
國亡	-11.3344
山如	-11.3346
鳥集	-11.335
公正	-11.335
擺開	-11.3358
論或問	-11.3359
禁軍	-11.3359
一他	-11.3363
支塘	-11.3363
也向來	-11.3368
遺失	-11.3371
數騎	-11.3372
又置	-11.3372
未安	-11.3375
决於	-11.3379
沿城	-11.338
㸃放	-11.338
一端	-11.3381
但見	-11.3381
即各	-11.3385
以獻	-11.3391
十有六	-11.3398
强敵	-11.34
河朔	-11.3401
治國	-11.3401
放時	-11.3405
其車	-11.3411
遂斬	-11.3415
其傍	-11.3422
巡江	-11.3424
為主人	-11.3432
大威	-11.3434
三辰	-11.3434
五十二	-11.3449
王公	-11.345
以力	-11.3453
舉黄旗	-11.3455
不特	-11.3456
耳其	-11.3466
平曰	-11.347
内亂	-11.3481
一府	-11.3484
至海口	-11.3486
者此也	-11.3491
藏於	-11.3492
百餘級	-11.3494
即還	-11.3494
八八	-11.35
萬計	-11.3501
三條	-11.3502
之秋	-11.3504
鬭戰	-11.3509
二府	-11.3511
不能勝	-11.3511
欽定四庫全書紀效新書卷十	-11.3513
馬頭	-11.3514
左傳	-11.352
一千四百	-11.3525
於將	-11.3526
練鄉兵	-11.3526
五十斤	-11.3527
神將	-11.353
分給	-11.3531
西洋	-11.3532
大指	-11.3534
資糧	-11.3536
十六步	-11.3541
之職	-11.3541
率皆	-11.3543
相參	-11.3544
自稱	-11.3551
不預	-11.3552
塘水	-11.3554
牌手	-11.3561
為八陣	-11.3563
所短	-11.3564
料其	-11.3578
勢難	-11.358
三重	-11.3582
四十六	-11.3587
有私	-11.3591
以數	-11.3598
而應之	-11.3601
江西	-11.3601
前驅	-11.3605
神氣	-11.3605
飛刀	-11.361
諸寨	-11.3615
者復	-11.3616
下城	-11.3622
癸巳	-11.3637
有大水	-11.3641
守土	-11.3643
在人	-11.3644
八丈	-11.3646
練士	-11.3663
先進	-11.3666
中營	-11.3668
五間	-11.3673
大同	-11.3675
竒伏	-11.3676
註曰有	-11.3681
嗟乎	-11.3681
副總兵	-11.3682
與士卒	-11.3683
隨州	-11.3684
三百七十	-11.3696
誘我	-11.37
並解	-11.3701
入港	-11.3702
來犯	-11.3704
其耳目	-11.3706
預為	-11.3715
砲響	-11.3718
圍地	-11.3719
隊五十人	-11.3721
一試	-11.3723
欲降	-11.3728
五十里西	-11.373
麓	-11.3741
自餘	-11.3743
常法	-11.3748
嘉定之	-11.3748
為輔	-11.3749
非獨	-11.3754
之士有	-11.3757
新河	-11.3758
五百五十	-11.376
白水	-11.3765
當頭	-11.3765
中傷	-11.3766
就擒	-11.3769
復合	-11.3772
大港	-11.3772
陸路官	-11.378
可撃	-11.3786
戰鋒	-11.3789
等賜	-11.3792
即止	-11.3793
以分其	-11.3796
衝敵	-11.3803
於己	-11.3803
不妄	-11.3806
刀法	-11.3807
然須	-11.381
國朝洪武初	-11.3814
此藥	-11.3825
又設	-11.3831
福人	-11.3832
引水	-11.3834
繼以	-11.3838
百里西南至	-11.3839
為盜	-11.3846
所以備	-11.3846
亦照	-11.3855
馳車	-11.3856
齊入	-11.3873
於江南	-11.3876
相顧	-11.3877
日引去	-11.3878
吾當	-11.3886
而乘之	-11.3886
十五萬	-11.3889
地控	-11.3889
必輕	-11.39
放砲三箇	-11.3907
慎勿	-11.3908
風氣	-11.3908
城壁	-11.3913
海内	-11.3914
漸漸	-11.3915
石州	-11.392
皆當	-11.3921
通太湖	-11.3923
龍蛇	-11.3924
之變也	-11.3924
巳為	-11.3924
己亥	-11.3926
固請	-11.393
待賊	-11.3934
海防官	-11.3937
一千八百	-11.3939
二篇	-11.3939
立威	-11.394
般	-11.394
此器	-11.3947
疑其	-11.3952
州郡	-11.3957
巡司弓兵	-11.3957
而禍	-11.3961
武經	-11.3965
閶	-11.3966
鶉	-11.3973
相逺	-11.3978
之次	-11.3979
付之	-11.3983
打放	-11.3983
魚麗	-11.3994
豁	-11.3994
次于	-11.3996
馴	-11.3996
炙	-11.3999
椀	-11.4002
州三百里西	-11.4002
則伏必	-11.4003
曼頭山	-11.4005
酣	-11.4005
址	-11.4007
王者之	-11.4008
峯	-11.4009
長二丈五尺	-11.4009
合蟬	-11.4009
喪其	-11.401
元諒	-11.4011
皁角	-11.4012
該管官	-11.4013
撩	-11.4014
瀘	-11.4014
鞋	-11.4014
輜	-11.4014
拓	-11.4015
江漢	-11.4016
矮	-11.4016
售	-11.4016
奬	-11.4016
商英	-11.4016
拐子馬	-11.4017
兵卒	-11.4017
勣	-11.4018
漂	-11.4018
吃	-11.4018
淑	-11.4018
棋	-11.4019
四面諸州	-11.4019
西南戰利東北利方陣舉白旗雲氣從西	-11.4019
弼	-11.4019
巴蜀	-11.4019
樵採	-11.402
檢校	-11.402
煆	-11.402
鉗	-11.4021
篾	-11.4021
千户所營在	-11.4021
昆	-11.4021
睥睨	-11.4022
承平日久	-11.4022
鎔	-11.4022
謂左右曰	-11.4023
確	-11.4023
來逺砦	-11.4023
真卿	-11.4023
一十三	-11.4023
盞口將軍	-11.4023
噪	-11.4024
秤	-11.4024
笋	-11.4024
穰	-11.4024
衙	-11.4024
敕	-11.4024
倩	-11.4024
許洞	-11.4024
卵	-11.4025
摯	-11.4026
筋力	-11.4026
迢迢	-11.4026
史思明	-11.4026
張兩翼	-11.4026
御史	-11.4026
茹	-11.4027
賞賚	-11.4027
桔橰	-11.4027
設弓兵四十名徃來巡邏	-11.4027
呵	-11.4027
茆	-11.4027
荻	-11.4027
膠淺	-11.4027
釵鈀	-11.4027
者任一人	-11.4027
義軍	-11.4027
笳	-11.4028
翕	-11.4028
父兄	-11.4028
悶	-11.4028
河湟	-11.4028
佛郎機	-11.4028
敬猷	-11.4028
四竒四正	-11.4028
剝	-11.4029
諭以禍福	-11.4029
骨朶	-11.4029
相迎	-11.4029
梧	-11.4029
弁	-11.4029
遡	-11.4029
兠	-11.4029
旄	-11.4029
愁	-11.403
計邑之險要有	-11.403
侯暉	-11.403
武宻曰	-11.403
繋	-11.403
鹽盜出没	-11.403
千仞	-11.403
所患者	-11.4031
莖	-11.4031
䜛	-11.4031
史記	-11.4031
粹	-11.4031
綽	-11.4031
兊	-11.4031
斛律	-11.4031
身先士卒	-11.4031
窻	-11.4031
儲蓄	-11.4031
賫	-11.4031
總兵湯克寛	-11.4031
來打我	-11.4031
嫉	-11.4032
七丫	-11.4032
馘	-11.4032
慕	-11.4032
嘉靖三十三年	-11.4032
療馬	-11.4032
戎狄	-11.4032
珙	-11.4032
齧	-11.4033
茸	-11.4033
知彼知己	-11.4033
酈	-11.4033
稼	-11.4033
朱涇	-11.4034
盲	-11.4034
藪	-11.4034
治金瘡	-11.4034
畿	-11.4034
百粤	-11.4034
太乙雖助	-11.4034
湘	-11.4034
釗	-11.4034
蟻	-11.4034
䋲	-11.4035
為邊患	-11.4035
放銃一箇	-11.4035
騁	-11.4035
呼吸	-11.4035
蟠	-11.4035
曷	-11.4035
柏	-11.4035
訊	-11.4035
爆	-11.4035
廐	-11.4035
維某載歳次某甲某月朔某日某將軍某	-11.4035
懷恩	-11.4035
畵	-11.4036
江岸	-11.4036
不可勝紀	-11.4036
圎	-11.4036
景徳中	-11.4036
晉文公	-11.4036
錞	-11.4036
鵲臺	-11.4036
湊	-11.4037
疇	-11.4037
傲	-11.4037
由是觀之	-11.4037
曵	-11.4037
峴	-11.4037
撅	-11.4037
狠	-11.4037
潼關	-11.4037
椗	-11.4037
芟	-11.4037
糧塘里長	-11.4037
揚子江	-11.4037
巡撫都御史	-11.4037
民壮弓兵	-11.4037
陣於卦屬	-11.4037
犁	-11.4038
殽	-11.4038
肇	-11.4038
轂	-11.4038
謂人樂	-11.4038
布城	-11.4038
嗣業	-11.4038
淤塞	-11.4038
相夾	-11.4038
㗋	-11.4038
官兵擊敗之	-11.4038
􁏄	-11.4038
沐	-11.4039
謝𤣥	-11.4039
千斤	-11.4039
樟	-11.4039
枹	-11.4039
賠	-11.4039
芝	-11.4039
突門	-11.404
南洋	-11.404
繩索	-11.404
尊卑	-11.404
灑	-11.404
甲子乙丑	-11.404
元瓘	-11.404
裡	-11.404
恂	-11.404
桔	-11.404
策之上也	-11.404
微妙	-11.404
懽	-11.404
青邨南滙	-11.4041
祚	-11.4041
放起火	-11.4041
七里橋	-11.4041
睛	-11.4041
𦙍	-11.4041
歘	-11.4041
戊辰己巳	-11.4041
鼔則為之	-11.4041
彦卿	-11.4041
賁	-11.4042
橘	-11.4042
渠魁	-11.4042
鶯	-11.4042
孝感縣	-11.4042
謙溥	-11.4042
腋	-11.4042
葉謝	-11.4042
庚子辛	-11.4042
瑋	-11.4042
婁金狗	-11.4042
扯	-11.4042
魚鹽	-11.4042
昆明	-11.4042
春秋時楚伐	-11.4042
鳳翔	-11.4042
鄖	-11.4042
潞	-11.4042
黄窪	-11.4043
䖍	-11.4043
蕃戎	-11.4043
思摩	-11.4043
剛柔	-11.4043
鋤	-11.4043
中軍高處	-11.4043
恐怖	-11.4043
羅店	-11.4043
墳	-11.4044
鏖戰	-11.4044
偏裨	-11.4044
莫之能	-11.4044
軍火器械	-11.4044
團練	-11.4044
贏	-11.4044
每畆	-11.4044
斥候	-11.4045
霍邑	-11.4045
烙	-11.4045
亭障	-11.4045
數起於五而終於八	-11.4045
黷	-11.4045
横瀝	-11.4045
甲寅乙卯	-11.4045
羞	-11.4045
滸	-11.4045
皮窩	-11.4045
以城降	-11.4045
譏	-11.4046
追趕	-11.4046
興世	-11.4046
韓世忠	-11.4046
妃	-11.4046
訴	-11.4046
幇	-11.4046
猾	-11.4047
梨花	-11.4047
誌	-11.4047
寐	-11.4047
天衝	-11.4047
人也是十	-11.4047
女土蝠	-11.4047
亨	-11.4047
殁	-11.4047
圻	-11.4048
沮洳	-11.4048
汾湖	-11.4048
躡其後	-11.4048
㐮	-11.4048
鼓噪	-11.4048
瞻	-11.4048
戴頭上	-11.4048
天牢	-11.4048
堕	-11.4049
俸	-11.4049
烏泥涇	-11.405
者不出	-11.405
肝	-11.405
蟾	-11.405
練祁	-11.405
蘄	-11.405
廬舍	-11.405
假托	-11.4051
木葉山	-11.4051
墪堡	-11.4051
穹	-11.4051
奕	-11.4051
鎌	-11.4051
相謂曰	-11.4052
凑	-11.4052
絡繹	-11.4052
此堡之所當設	-11.4052
踈宻	-11.4052
洺	-11.4053
龍仙	-11.4053
攙	-11.4054
烽燧	-11.4054
演武塲	-11.4054
聨絡	-11.4054
振旅	-11.4054
寅時	-11.4054
知縣楊芷	-11.4054
摧鋒	-11.4055
青澗	-11.4055
麋	-11.4055
刋	-11.4055
亞父	-11.4056
騎之致敗	-11.4056
議者謂	-11.4057
黍	-11.4057
陳蔡	-11.4057
憾	-11.4057
稻草	-11.4057
元韶	-11.4057
横亘	-11.4058
新市平林	-11.4058
知縣王鈇	-11.4058
馮異	-11.4059
吕䝉	-11.4059
衣資	-11.4059
為右翼	-11.4059
時八刻	-11.4059
輓	-11.4059
挺身	-11.406
赴臺下	-11.406
之日位應	-11.406
高歡	-11.406
挂	-11.4061
乎曰不然	-11.4061
宣撫	-11.4061
安陸縣	-11.4061
冐頓	-11.4061
亞夫	-11.4062
㸑	-11.4062
閘港	-11.4062
闌	-11.4062
吹長聲	-11.4062
㑹稽	-11.4062
夔州	-11.4062
僧辨	-11.4062
海防論	-11.4063
公孫𢎞曰	-11.4063
疎密	-11.4064
翃	-11.4064
頭人身長一丈面	-11.4065
油燭	-11.4066
漢武帝	-11.4066
天官書曰	-11.4066
一十四里	-11.4066
水陸官兵	-11.4066
孝文	-11.4066
納音	-11.4066
焚燒	-11.4067
蘇州衞	-11.4067
奸雄	-11.4068
遷徙	-11.4068
停泊	-11.4068
六七尺	-11.4069
紙錢	-11.407
遺棄	-11.407
泰山	-11.407
一二三四	-11.407
滚手	-11.407
吹角	-11.4071
己巳	-11.4071
合肥	-11.4073
徃徃	-11.4073
起磕	-11.4074
鹽徒	-11.4074
更迭	-11.4075
亘天	-11.4075
天棓	-11.4075
押隊	-11.4076
鐵勒	-11.4076
髙五丈	-11.4076
隋末	-11.4077
鄰近	-11.4077
狃於	-11.4077
水因地	-11.4077
凖備	-11.4077
陜州	-11.4077
客星守	-11.4078
急備之	-11.4078
輕㨗	-11.4078
長七尺	-11.4079
滆湖	-11.4079
丙寅	-11.408
先軫	-11.408
中書	-11.408
赴援	-11.4082
餘倣此	-11.4082
布袋	-11.4083
更番	-11.4083
焚舟	-11.4083
鷹船	-11.4083
二十餘人	-11.4083
唐髙祖	-11.4083
西有	-11.4084
闗羽	-11.4084
定襄	-11.4084
縱火焚	-11.4085
張皇	-11.4085
克日	-11.4085
厰内	-11.4086
博士	-11.4087
專委	-11.4087
三百餘人	-11.4088
非計也	-11.4088
鍾離	-11.4088
金銅	-11.4089
長八尺	-11.4089
存審	-11.409
有破軍	-11.409
隔絶	-11.4091
辰上神	-11.4091
唱殺	-11.4091
樊城	-11.4092
偏禆將	-11.4092
徃来	-11.4092
分派	-11.4094
強弩	-11.4094
只管	-11.4094
五人為	-11.4097
其地東至	-11.4097
遥見	-11.4097
室家	-11.4098
親督	-11.4098
馳告	-11.4098
諸湖	-11.4099
重斂	-11.41
樓鋪	-11.41
惜乎	-11.4101
珥邨	-11.4102
公祐	-11.4104
智識	-11.4104
若無人	-11.4105
人之將也	-11.4105
善兵者	-11.4106
將相	-11.4107
第一層	-11.4108
𤓰州	-11.4109
金玉	-11.411
徃年	-11.411
鳥銃手	-11.4111
如雷霆	-11.4111
貫月	-11.4111
奏聞	-11.4113
綵淘港	-11.4113
元禮	-11.4114
支給	-11.4114
巨石	-11.4115
二百餘里	-11.4117
禍亂	-11.4117
司空	-11.4117
專管	-11.4118
丑未	-11.4118
太嵗	-11.4118
自來	-11.4119
風俗	-11.4119
單手	-11.412
四十斤	-11.412
寇患	-11.412
因謂	-11.412
通漕	-11.412
五百餘人	-11.4121
水桶	-11.4121
青浦	-11.4121
倭變	-11.4121
李筌曰	-11.4122
後熾	-11.4122
㝷常	-11.4124
先抛	-11.4124
禄山	-11.4125
奄至	-11.4126
低頭	-11.4126
桓公	-11.4127
必有伏兵	-11.4128
最難	-11.4128
失位	-11.4128
臨境	-11.413
白刃	-11.413
武昌	-11.413
收藏	-11.4131
囚死	-11.4131
右哨	-11.4132
嵗久	-11.4134
權衡	-11.4135
往来	-11.4135
風雷	-11.4136
糧草	-11.4136
交雜	-11.4137
遼主	-11.4137
監生	-11.414
忠臣	-11.414
陳錢	-11.414
西羌	-11.414
江水	-11.4141
悉降	-11.4143
疾戰	-11.4143
逆流	-11.4143
適宜	-11.4143
皷聲	-11.4143
率所部	-11.4143
不敷	-11.4145
又其次	-11.4145
屯聚	-11.4145
志云	-11.4147
洞口	-11.4147
該總	-11.4147
唐浦	-11.4147
適其	-11.4147
郡邑	-11.4148
每根	-11.4149
養民	-11.4149
曰將軍	-11.4149
一萬四千	-11.4156
興亡	-11.4157
子玉	-11.4157
髙低	-11.4157
海濱	-11.4158
操畢	-11.4158
本位	-11.4159
無慮	-11.416
忽然	-11.4161
即古之	-11.4163
神水	-11.4163
海虞	-11.4163
居其中	-11.4166
和解	-11.4168
良臣	-11.417
變而為	-11.4171
以䕶	-11.4173
秋分	-11.4173
侵奪	-11.4174
形之	-11.4174
得利	-11.4175
然亦有	-11.4176
公私	-11.4176
丁未	-11.4176
所求	-11.4177
設疑	-11.4181
五十名	-11.4181
五墓	-11.4181
孟瀆河	-11.4181
各州縣	-11.4183
不敢動	-11.4183
思明	-11.4183
議論	-11.4184
火繩	-11.4184
唐末	-11.4184
道規	-11.4185
陵犯	-11.4186
請降	-11.4187
繞城	-11.4187
立秋	-11.4187
五升	-11.4189
又名	-11.4192
未免	-11.4196
凡五星	-11.4196
四仲	-11.4197
威敵	-11.4197
武陵	-11.4199
三日内	-11.4202
可入	-11.4204
從間道	-11.4204
七斗	-11.4206
乗間	-11.4206
向往	-11.4208
聞知	-11.4208
帳下	-11.421
禁止	-11.4211
主勝聞賊備	-11.4214
始於	-11.4214
東壁	-11.4215
宋武	-11.4217
折木	-11.4218
併入	-11.4221
二條	-11.4224
東境	-11.4226
湖口	-11.4227
不乏	-11.4229
本末	-11.423
諸將請	-11.4231
加意	-11.4234
前來	-11.4234
此二者	-11.4237
王侯	-11.4238
萬國	-11.4239
宜速	-11.4242
死罪	-11.4243
尖頭	-11.4243
天庭	-11.4247
良馬	-11.4247
萬變	-11.4253
龍門	-11.4255
乗髙	-11.4259
類皆	-11.426
官渡	-11.4265
而猶	-11.4265
塞門	-11.4266
人之言	-11.4266
月建	-11.4267
武德	-11.4269
伏兵發	-11.4269
福浙	-11.4271
髙帝	-11.4274
北去	-11.4274
刼營	-11.4277
力勝	-11.4277
欲去	-11.428
營伍	-11.4281
杭嘉	-11.4281
俱可	-11.4284
二十兩	-11.4286
澤州	-11.4286
之警	-11.4286
宫内迫	-11.4289
馳騎	-11.4289
南行	-11.4289
方今	-11.4289
之過也	-11.429
二十里北至	-11.4292
轉動	-11.4292
不庭	-11.4293
相害	-11.4296
䧟陣	-11.4297
十有八	-11.4297
空營	-11.4299
木牌	-11.4303
逆風	-11.4304
擲下	-11.4305
敢死士	-11.4308
楚將	-11.431
勢孤	-11.4311
效死	-11.4311
與突厥	-11.4312
者必先	-11.4314
長蛇	-11.4315
而不窮	-11.4319
道濟	-11.4319
頃之	-11.432
為地道	-11.4325
砦控	-11.4327
相稱	-11.4327
項王	-11.4328
相聚	-11.433
化及	-11.434
致悞	-11.4341
何由	-11.4341
其次則	-11.4345
曰是	-11.4347
列營	-11.4347
毎營	-11.4348
依法	-11.4348
未到	-11.4348
戎州	-11.4348
今已	-11.4348
止之曰	-11.435
駕使	-11.4351
不為備	-11.4353
而蝕	-11.4355
甚明	-11.4356
大振	-11.4357
萬夫	-11.4358
十五里西南至	-11.436
為直陣	-11.4362
率步騎	-11.4363
鼓旗	-11.4366
鬭敵	-11.4366
謀反	-11.4367
東都	-11.4371
一晝夜	-11.4372
行千里	-11.4374
主大將一宫	-11.4376
逓相	-11.4377
犯縣境	-11.4378
專守	-11.438
湯武	-11.4383
彼既	-11.4384
奈何曰	-11.4385
意氣	-11.4386
星入月	-11.4388
數郡	-11.439
戰大勝	-11.4392
未經	-11.4393
盡善	-11.4394
治力	-11.4395
無食	-11.4397
湖南	-11.4397
二十四人	-11.4398
打開	-11.4402
賜物	-11.4406
髙聲	-11.4407
專一	-11.4408
柱四	-11.4412
居外	-11.4414
形名	-11.4418
江海之	-11.4418
墜下	-11.4419
次立	-11.4427
而後戰	-11.4427
仍置	-11.4429
果能	-11.443
廣船	-11.4434
水患	-11.4434
駐軍	-11.4437
授以	-11.4442
歸之	-11.4444
不逮	-11.4449
同法	-11.4453
打成	-11.4457
陣形	-11.4461
火鼔	-11.4461
認旗	-11.4463
諸葛亮八陣	-11.4463
有風雨	-11.4467
不聴	-11.4468
之符長	-11.4479
兵仗	-11.4479
布置	-11.4481
設或	-11.4484
以為固	-11.4485
未能	-11.45
裝束	-11.4502
重治	-11.4506
先往	-11.4508
固已	-11.4512
不與戰	-11.4513
先年	-11.4513
與己	-11.4517
打來	-11.4518
東西二	-11.4521
二千三百	-11.4521
即用	-11.4522
王濬	-11.4524
大㨗	-11.4525
接壤	-11.4526
棄城	-11.4526
一馬	-11.4528
今號	-11.4529
靖江縣	-11.4532
大澤	-11.454
前代	-11.4547
軍資	-11.455
浮於	-11.4553
遂平	-11.4555
不雨	-11.456
盤門	-11.456
取魏	-11.4563
二十九	-11.4565
百三十里南至	-11.457
主客俱不利各宜固守主聞賊備東	-11.4574
謀臣	-11.4574
占其	-11.4576
故謂之	-11.4576
助我	-11.4578
形其	-11.4587
文法	-11.4587
執器械	-11.4589
從旁	-11.4597
勿戰	-11.46
空地	-11.4604
二百里南至	-11.4609
臣以	-11.4615
失行	-11.4615
也或曰	-11.4619
一百步	-11.4621
如不	-11.4623
以其地	-11.4623
不真	-11.4628
而從之	-11.4629
與語	-11.4633
晉之	-11.4635
銳兵	-11.4637
蜀人	-11.4643
上洋	-11.4645
同隊	-11.4645
火鎗	-11.4646
為筏	-11.4646
自立	-11.4647
者五百里	-11.4648
其下國	-11.4655
丹陽縣	-11.466
相及	-11.4661
逐賊	-11.4663
西通	-11.4666
欲歸	-11.4673
良法	-11.4673
重大	-11.4676
於市	-11.4676
春秋時楚	-11.4677
六十萬	-11.4678
素無	-11.4679
龍潭	-11.4679
五十七	-11.468
八刻	-11.468
復建	-11.4694
山嶺	-11.4695
則百	-11.47
六門	-11.4703
致勝	-11.4705
解甲	-11.4706
三千五百	-11.4706
用寡	-11.4708
應卒	-11.4715
於城内	-11.4715
其材	-11.4716
曰汝	-11.4719
百長	-11.4722
官目	-11.473
田州	-11.4731
丈八尺	-11.4737
天生	-11.4743
伏起	-11.4743
倍於	-11.475
南至黄河	-11.4756
四面俱	-11.4759
每每	-11.476
則願	-11.4769
智則	-11.4774
鼓譟而	-11.4779
設重兵	-11.4783
不能制	-11.4784
五十五里	-11.4792
七經曰	-11.4792
無極	-11.4799
移屯	-11.48
再行	-11.48
輕便	-11.4807
火石	-11.4826
地界	-11.4827
闊三	-11.484
李靖曰	-11.485
心力	-11.4852
以木為	-11.4852
有流星	-11.4856
之名而	-11.4859
叙州	-11.4869
回軍	-11.4874
騎馬	-11.4883
城垣	-11.4883
再三	-11.4884
三人為	-11.4885
兵刃	-11.4894
不然則	-11.4896
毎將	-11.4898
故善用兵者	-11.4903
於城外	-11.4904
師徒	-11.4906
合勢	-11.4907
亦易	-11.4914
火夫	-11.4915
築之	-11.4933
衆鳥	-11.4933
之時先	-11.4936
塘橋	-11.4938
鈎鎗	-11.4939
困賊	-11.4939
出迎	-11.4942
青色	-11.4946
機事	-11.4955
已備	-11.4962
罪同	-11.4973
月十二日	-11.4979
三世	-11.4988
尺八寸	-11.5003
都指揮使	-11.5004
衝入	-11.5006
栁州	-11.5007
施用	-11.5014
受兵	-11.502
無方	-11.5024
如雲	-11.5024
地險	-11.5025
不差	-11.5039
急移營	-11.5044
壁壘	-11.5045
欲殺	-11.5047
割首	-11.5059
置陣	-11.506
相關	-11.5061
分列	-11.5062
䧟於	-11.5064
兩重	-11.5067
東漢	-11.5078
髙處	-11.5079
放煙	-11.508
二寸五分	-11.5105
魚貫	-11.5112
宜興縣	-11.5126
六經曰	-11.5136
徑一尺	-11.5138
南蠻	-11.5151
無分	-11.5152
先為	-11.5155
九百里	-11.5162
皆以此	-11.517
凡射	-11.5172
引之	-11.5174
北枕	-11.5176
喪敗	-11.5187
邨鎮	-11.5206
東北行	-11.521
手牌	-11.5214
可克	-11.5225
報警	-11.5232
捕魚	-11.5233
二百三十里	-11.5244
襲擊	-11.5248
射手	-11.5251
茍能	-11.5252
十有四	-11.5261
丁巳	-11.5273
五座	-11.5273
背後	-11.5291
茅竹	-11.53
而惡	-11.5302
所不備	-11.5316
所著	-11.5318
諭之	-11.5325
暨	-11.5341
論功	-11.5341
大雪	-11.5346
客勝聞賊備	-11.5352
徇	-11.5363
每車	-11.5381
而外	-11.5382
以寡擊衆	-11.539
長一尺五寸	-11.5392
鋭氣	-11.5397
相殺	-11.5406
鄰墩	-11.5407
掌印	-11.5408
賢而	-11.5409
復進	-11.5411
暈再重	-11.5411
𨽻之	-11.5412
氣色	-11.5414
移置	-11.5418
􁳆	-11.5419
雷霆	-11.542
暴風	-11.5424
盧溪	-11.5426
狃	-11.5428
皁	-11.5429
犯邊	-11.5431
與金合	-11.5432
洪徳砦	-11.5432
某官某	-11.5432
不可舉事用兵	-11.5433
天下者天下	-11.5433
雙河口	-11.5433
順安砦	-11.5434
公孫𢎞	-11.5435
不能禦	-11.5436
猛將之氣	-11.5437
蠱蟲	-11.5437
賃	-11.5438
所以獨用	-11.5438
鴈	-11.544
徉	-11.5442
盈縮	-11.5442
擦	-11.5443
宫天目陰徳	-11.5444
不灰木	-11.5444
頰	-11.5444
盧鏜	-11.5444
吊	-11.5445
頥	-11.5445
霾	-11.5446
篤	-11.5446
陷馬坑	-11.5446
埭	-11.5446
清水窪	-11.5446
州析出	-11.5448
蓊	-11.5448
汙	-11.5448
闖	-11.5449
捶	-11.5449
紊亂	-11.5449
孫武之	-11.545
淪	-11.545
拂	-11.545
窺留都	-11.545
清逺軍	-11.5451
周世宗	-11.5451
州五百六十里	-11.5451
跣	-11.5451
開一門	-11.5451
我軍上	-11.5451
冥	-11.5452
龍首經曰	-11.5452
箭晝五十	-11.5452
尉遲迥	-11.5452
鋋	-11.5452
甑	-11.5453
醪	-11.5453
羆	-11.5453
欽定四庫全書太白隂經卷	-11.5454
秣	-11.5454
嗜	-11.5454
個共重	-11.5454
泗	-11.5454
䜿	-11.5455
交綏	-11.5455
偘	-11.5455
府同知任環	-11.5455
尼	-11.5456
馳騁	-11.5456
蝎	-11.5456
北征録曰	-11.5456
濤	-11.5457
右水陸可通之道凡十有	-11.5457
揷	-11.5457
登舟沙	-11.5457
硃砂	-11.5457
甬	-11.5457
曄	-11.5457
桃花港	-11.5457
醜奴	-11.5457
朗	-11.5457
陶宅	-11.5458
騾	-11.5458
㤗	-11.5459
骸	-11.5459
李希烈	-11.5459
粥飲	-11.5459
覔	-11.5459
堂堂之陣	-11.5459
魂	-11.5459
巡按御史周公如斗	-11.5459
伸縮	-11.5459
咬	-11.5459
艨艟	-11.5459
魔	-11.546
逆鬚	-11.546
塹濠	-11.546
甓	-11.546
卑濕	-11.546
就於本	-11.546
癸酉	-11.546
髙家嘴	-11.546
待其衰	-11.546
董卓	-11.5461
右以方陣為	-11.5461
蕃族	-11.5461
侍郎	-11.5461
剿	-11.5461
沒其家	-11.5461
日午時	-11.5462
客見陣利先動出軍宜	-11.5462
灋	-11.5462
㤙	-11.5462
盧循	-11.5462
豈肯	-11.5462
肢	-11.5463
漬	-11.5463
勃律	-11.5463
何言乎	-11.5463
驍悍	-11.5463
騷	-11.5463
志氣	-11.5464
恁	-11.5464
相為犄角	-11.5464
府佐一員專督	-11.5464
廣袤	-11.5464
武王問太公曰引兵深入諸侯之地	-11.5464
亥子丑時客	-11.5464
新塘橋	-11.5464
迤	-11.5464
塢	-11.5464
礨	-11.5464
曲間容曲	-11.5464
雷雨	-11.5465
客聞賊備東北第	-11.5465
縑	-11.5465
禧	-11.5465
蔵	-11.5465
曾門經曰	-11.5465
獅子	-11.5465
茭	-11.5465
菌	-11.5465
剡	-11.5466
鷙鳥	-11.5466
壬寅癸卯	-11.5466
澳	-11.5466
瑾	-11.5466
礪	-11.5466
猊	-11.5466
談兵者	-11.5466
滌	-11.5466
䍐幵	-11.5466
部下兵船	-11.5466
沙磧	-11.5467
償	-11.5467
泡	-11.5467
滄海	-11.5467
嶴	-11.5467
黄蠟	-11.5467
分合為變	-11.5467
賦斂	-11.5467
折衝果毅	-11.5467
㒺	-11.5467
相為表裏	-11.5467
巻	-11.5467
掀	-11.5467
掌號笛	-11.5467
嵒	-11.5467
巴延	-11.5467
諛	-11.5467
縱布四	-11.5468
乙巳火	-11.5468
天時地利	-11.5468
不利宜固守聞賊備西南第	-11.5468
奎木狼	-11.5468
孛	-11.5468
減竈	-11.5468
壬子癸丑	-11.5468
惮	-11.5468
淡水門	-11.5468
虞鼔動肅儀仗	-11.5468
南翔	-11.5469
在縣治南	-11.5469
巡捕官	-11.5469
淵藪	-11.5469
瀕海	-11.5469
丘墓	-11.5469
軋	-11.5469
鸛	-11.5469
桴	-11.5469
膂力	-11.5469
句容	-11.5469
孟瀆堡	-11.5469
章練塘	-11.5469
島人能之沙民亦能之	-11.5469
毎箇重	-11.5469
隳	-11.5469
野無所掠	-11.5469
紛紛	-11.5469
百萬之師	-11.547
厚三寸	-11.547
箭鏃	-11.547
大非川	-11.547
躱	-11.547
羊馬牆	-11.547
增減	-11.547
碑	-11.547
雍熈中	-11.547
黄栢	-11.547
紓	-11.547
佳	-11.547
圭	-11.547
舩	-11.547
討平之	-11.547
防範	-11.5471
卜筮	-11.5471
必由之道也	-11.5471
謂將士曰	-11.5471
磊	-11.5472
帙	-11.5472
荘	-11.5472
賭	-11.5472
不出一年	-11.5472
溝澗	-11.5472
廵檢	-11.5472
用此例	-11.5472
韓都司	-11.5472
鴟頭	-11.5472
鑰	-11.5472
攬	-11.5473
他棍尾	-11.5473
圍漢王於滎陽	-11.5473
圉	-11.5473
鐃	-11.5473
舉黑旗	-11.5473
賀魯	-11.5473
辛卯	-11.5473
舘	-11.5473
麄	-11.5473
狐疑	-11.5473
么	-11.5473
吹喇叭	-11.5473
未成列	-11.5473
骸骨	-11.5474
感恩	-11.5474
飢渇	-11.5474
長一丈六尺	-11.5474
烏合之衆	-11.5474
韓彭	-11.5474
臨洺	-11.5474
莫敖	-11.5474
莱	-11.5475
彼兵臨我我兵	-11.5475
屯重兵	-11.5475
衣甲器械	-11.5475
六十八步	-11.5475
拴	-11.5475
刹	-11.5475
問答	-11.5475
堙	-11.5475
感激	-11.5475
廟堂	-11.5475
泖橋	-11.5475
者有間其	-11.5475
皓	-11.5475
推演	-11.5475
眩	-11.5475
饌	-11.5475
斌	-11.5475
𦵏	-11.5476
侯君集	-11.5476
亢金龍	-11.5476
憲院	-11.5476
鈸	-11.5476
如何太公曰	-11.5476
兢	-11.5476
慕恩	-11.5476
渾瑊	-11.5476
從事於	-11.5476
震駭	-11.5476
心月狐	-11.5476
逵	-11.5476
逾	-11.5476
州在瀘州西南	-11.5476
悮	-11.5477
軍馬軍次	-11.5477
墊	-11.5477
拊	-11.5477
欒書	-11.5477
㠶	-11.5477
諒	-11.5477
腹裏	-11.5478
太倉嘉定	-11.5478
何謂也靖曰	-11.5478
州為治所	-11.5478
白礬	-11.5478
顱	-11.5478
無能為也	-11.5478
齊桓公	-11.5478
汪	-11.5478
葬	-11.5478
郊野	-11.5479
乙亥	-11.5479
巡按御史	-11.5479
恵	-11.5479
狄青	-11.5479
陞賞	-11.5479
侯景反	-11.5479
邇年	-11.5479
則利為	-11.5479
田塍	-11.5479
伴	-11.5479
前秦苻堅	-11.5479
昏暗	-11.5479
筋角	-11.5479
者其北路也	-11.5479
覈	-11.5479
攩	-11.5479
百餘年	-11.548
市井	-11.548
濃煎	-11.548
陷沒	-11.548
甥	-11.548
福山堡	-11.548
起土山	-11.548
諾	-11.548
乾寧軍	-11.5481
五十三人	-11.5481
下謀上	-11.5481
摔鈸響收	-11.5481
乙丑	-11.5481
壬戌	-11.5482
水缸	-11.5482
收貯	-11.5482
刀斧	-11.5482
他打來	-11.5482
被擄	-11.5482
唯亭	-11.5482
昭達	-11.5482
筩	-11.5482
貪狼	-11.5482
計神戌此局	-11.5483
雨雪	-11.5483
修葺	-11.5483
有制之兵	-11.5483
繒	-11.5483
賦役	-11.5483
曝	-11.5483
岢嵐軍	-11.5484
零農桑絲折絹	-11.5484
㓜	-11.5484
窄狹	-11.5484
紏	-11.5484
隰州	-11.5484
平原曠野	-11.5485
壘石	-11.5485
屈曲	-11.5485
神樞經曰	-11.5485
犢	-11.5485
風應候軍民寧泰之兆也風自	-11.5485
千墪	-11.5486
宋武帝	-11.5486
百七十步	-11.5486
慚	-11.5486
羸弱	-11.5486
汞	-11.5486
閻	-11.5487
壬辰	-11.5487
排比	-11.5487
不外乎	-11.5487
初二日	-11.5487
障蔽	-11.5487
雌雄	-11.5488
禦捍	-11.5488
障塞	-11.5488
失措	-11.5488
齋戒	-11.5488
中軍座船	-11.5488
該把總	-11.5488
李光弼	-11.5488
捕盗	-11.5488
驚撓	-11.5488
追擊敗之	-11.5488
丁酉	-11.5489
王羆	-11.5489
猿	-11.5489
查㸃	-11.5489
新津	-11.5489
李晟	-11.5489
藴	-11.549
寳寅	-11.549
激勸	-11.549
叢林	-11.549
絶倫	-11.549
萬勝	-11.549
員役	-11.5491
號哭	-11.5491
烏程	-11.5491
揚塵	-11.5491
有識者	-11.5491
繼倫	-11.5491
不堪命	-11.5492
毁折	-11.5492
之體也	-11.5492
逃遁	-11.5492
忠孝	-11.5492
盤旋	-11.5492
也一劉家河	-11.5492
蘓松	-11.5493
烏梅肉	-11.5493
初五日	-11.5493
真偽	-11.5493
本朝建	-11.5494
如死灰	-11.5494
烏孫	-11.5494
戊己日	-11.5494
侵掠	-11.5494
泥塗	-11.5494
郡太守	-11.5494
申酉	-11.5494
旗纛	-11.5495
使賊不得	-11.5495
件件	-11.5496
周亞夫	-11.5496
隄防	-11.5496
散漫	-11.5496
燈架	-11.5496
父老	-11.5496
疾疫	-11.5497
陷穽	-11.5497
長八寸	-11.5498
陷于賊	-11.5499
委曲	-11.5499
招撫	-11.5499
用大木	-11.55
長一丈五尺	-11.55
險狹	-11.55
朝夕	-11.55
弔敦	-11.55
躓	-11.55
萬歲	-11.55
此騎之	-11.55
告諭	-11.5501
乞降	-11.5502
湖泖	-11.5502
長九尺	-11.5502
史稱	-11.5502
辰戌	-11.5503
不侔	-11.5503
良乆	-11.5503
孫策	-11.5503
禦海洋	-11.5504
徑趨	-11.5505
損益	-11.5505
仔細	-11.5505
為上策	-11.5505
隣國	-11.5505
沿邊	-11.5506
招搖	-11.5506
曰彼衆我寡	-11.5506
丁丑	-11.5506
天下有事	-11.5507
戰數合	-11.5508
兩浙	-11.5508
外其餘	-11.5508
習藝	-11.5509
砲架	-11.551
州在州西	-11.5511
闊五尺	-11.5511
肉毒	-11.5511
江洋	-11.5511
徒費	-11.5514
薄城下	-11.5514
别奏	-11.5514
循義	-11.5515
長四寸	-11.5515
辛未	-11.5515
塘涇	-11.5516
者亦斬一	-11.5516
摧陷	-11.5516
萬二千五百人	-11.5517
寅申	-11.5517
派定	-11.5517
元忠	-11.5517
吉㐫	-11.5518
潭州	-11.5519
賞格	-11.5519
或者曰	-11.552
戰酣	-11.5521
鐵束	-11.5521
抽回	-11.5521
楊舎	-11.5523
教戒	-11.5524
船艦	-11.5524
羌虜	-11.5525
十八度	-11.5526
横涇	-11.5526
矣雖然	-11.5526
唐李靖	-11.5527
令第十	-11.5527
千餘騎	-11.5527
後漢初	-11.5527
天后	-11.5528
闗隘	-11.5529
愚人	-11.5529
實效	-11.553
府治南	-11.553
帝符	-11.553
枕其十	-11.553
徙治	-11.5532
猶存	-11.5533
修徳	-11.5534
除仰斜留	-11.5535
築壘	-11.5536
練湖	-11.5536
日出寅	-11.5536
用木馬	-11.5536
務期	-11.5536
耶况	-11.5537
者亦斬	-11.5538
伍隊	-11.5539
通典	-11.554
勢不得不	-11.554
與之俱	-11.554
攻刼	-11.554
炭山	-11.5541
一千名	-11.5541
亟宜	-11.5542
鞍馬	-11.5542
數挑戰	-11.5542
畨身	-11.5544
當斬	-11.5544
縣城池考	-11.5545
解鞍	-11.5545
下令曰	-11.5546
文昌	-11.5548
不拘何	-11.5548
習熟	-11.5549
張涇	-11.555
府庫	-11.555
偷營	-11.555
在洋	-11.555
於城南	-11.555
條議	-11.555
二十二日	-11.5551
僅能	-11.5551
千餘兩	-11.5551
金剛	-11.5552
銀夏	-11.5552
傳送	-11.5553
滑州	-11.5553
東距	-11.5554
我太祖	-11.5554
精選	-11.5555
乘潮	-11.5555
焉太宗曰	-11.5555
世興	-11.5555
掘地	-11.5555
被害	-11.5556
收泊	-11.5556
安静	-11.5557
或赤雲	-11.5557
選擇	-11.5558
丁巳土	-11.556
如之何曰	-11.556
二十六日	-11.556
告報	-11.5561
轉鬭	-11.5561
賊衆大	-11.5562
虎狼	-11.5562
鐡騎	-11.5562
都司	-11.5563
赴救	-11.5563
功曹	-11.5563
若干名	-11.5564
智慮	-11.5565
呪曰	-11.5565
不利為主	-11.5565
常例	-11.5566
器甲	-11.5566
墩軍	-11.5566
而已哉	-11.5566
都支	-11.5566
逺探	-11.5569
黑色	-11.5569
得敵之	-11.5571
申嚴	-11.5571
止息	-11.5572
始畢	-11.5572
表請	-11.5574
犯境	-11.5575
雪山	-11.5576
七十里南	-11.5577
齊唱	-11.5577
自恃	-11.5579
輕銳	-11.558
衣甲	-11.558
長蕩	-11.558
海路	-11.5581
登高	-11.5582
少許	-11.5582
日月暈	-11.5582
即此地也	-11.5584
流星犯	-11.5584
私開	-11.5586
怯弱	-11.5586
則去之	-11.5587
巢柘林	-11.5589
儒者	-11.5589
通畨	-11.559
真正	-11.5593
機巧	-11.5594
數百步	-11.5595
設疑兵	-11.5595
也故善	-11.5596
陽太守	-11.5596
孫子謂	-11.5597
壬癸	-11.5598
更代	-11.5598
接連	-11.5598
因地形	-11.56
未食	-11.5601
偽漢	-11.5602
兼領	-11.5602
北渡	-11.5602
秦末	-11.5602
子女	-11.5603
貪利	-11.5604
大駭	-11.5605
盡銳	-11.5607
破滅	-11.5608
雞子	-11.5609
事務	-11.5612
貯水	-11.5612
者食之	-11.5612
關梁	-11.5613
誠信	-11.5614
過枝	-11.5614
永安	-11.5618
大䑸	-11.5619
擊匈奴	-11.562
初築	-11.5623
選精騎	-11.5623
我我則	-11.5623
天寶	-11.5624
出不意	-11.5628
各一員	-11.5629
蕃漢	-11.5629
素習	-11.563
團長	-11.5632
五層	-11.5633
威嚴	-11.5634
銳卒	-11.5635
入西界	-11.5637
二百一十	-11.5639
同類	-11.5641
充國	-11.5641
白衣	-11.5641
分配	-11.5642
内侵	-11.5642
整肅	-11.5644
鼻中	-11.5645
兵衛	-11.5646
射打	-11.5647
稍退	-11.5647
北接	-11.5648
高橋	-11.5649
云云	-11.5652
預先	-11.5652
青草	-11.5655
牧馬	-11.5656
聖王	-11.5656
上帝	-11.5657
君集	-11.5658
二三里	-11.5659
二丈四尺	-11.5659
令各軍	-11.566
突擊	-11.5661
視聽	-11.5662
春分	-11.5665
東井	-11.5665
南侵	-11.5667
内迫始擊將	-11.5671
静待	-11.5671
涇州	-11.5673
好漢	-11.5675
嚴固	-11.5675
安仁	-11.5677
急速	-11.5681
州一百三十里	-11.5682
宣子	-11.5682
三櫓	-11.5684
而起者	-11.5686
在賊境	-11.569
與之戰	-11.5693
海都	-11.5694
三皇	-11.5698
書生	-11.5699
陷騎	-11.5704
其來也	-11.5704
涉水	-11.5705
多積	-11.5707
孫武子	-11.5712
智力	-11.5714
震恐	-11.5715
悔之	-11.5717
乏食	-11.5718
異常	-11.5718
壘石為	-11.5719
丈二尺	-11.572
孰謂	-11.5728
註曰道	-11.5728
交錯	-11.5728
同志	-11.573
沙耆民	-11.573
鋒利	-11.5733
庸將	-11.5734
勝敗之	-11.5738
惜其	-11.5738
不軌	-11.5739
以制之	-11.5741
不滿百	-11.5744
無定河	-11.5744
文書	-11.5745
文度	-11.5751
險固	-11.5751
在酉	-11.5758
飲水	-11.5763
于謹	-11.5766
火速	-11.5769
到彼	-11.5769
流而下	-11.5774
已上各	-11.5775
渭北	-11.5775
生理	-11.5777
砲車	-11.5779
龍且	-11.5779
得其心	-11.5781
萬民	-11.5781
獲利	-11.5784
天虎	-11.5785
新安	-11.5787
謹守	-11.5787
其狀如	-11.5792
即位	-11.5792
别隊	-11.5797
數目	-11.5798
三寳	-11.5799
隂平	-11.5799
至本府	-11.58
揀選	-11.5801
非特	-11.5804
一帯	-11.5819
二種	-11.5822
州四百里西	-11.5824
竒哨	-11.5828
二把	-11.5828
銀二分	-11.5829
立夏	-11.583
不諳	-11.5833
入井	-11.5834
覽之	-11.5835
領隊	-11.5837
行遲	-11.5837
風聲	-11.5838
攻梁	-11.5838
哨馬	-11.5838
借人	-11.5841
正義	-11.5842
雖甚	-11.5844
凡占	-11.5848
每年	-11.585
嚴督	-11.5851
例論	-11.5857
舟船	-11.5859
有所不能	-11.5859
人人自	-11.586
但聞	-11.5861
平蜀	-11.5861
其所欲	-11.5865
聼令	-11.5866
食盡	-11.5868
路絶	-11.587
自恃其	-11.587
八十里西	-11.5871
大小門	-11.5872
爭利	-11.5873
併兵	-11.5881
篇第二十	-11.5882
兵法曰凡	-11.5886
異心	-11.5887
成就	-11.5897
事例	-11.5897
留心	-11.5898
重築	-11.5899
曰陛下	-11.5901
此特	-11.5906
城寨	-11.591
遼河	-11.5913
無算	-11.5919
逐日	-11.592
急難	-11.5921
兩足	-11.5921
變易	-11.5924
移營避之	-11.5927
誰能	-11.5928
計議	-11.5933
天倉	-11.5937
營田	-11.5939
哨官一員	-11.594
南宫	-11.5943
戍兵	-11.5944
匹馬	-11.5945
其間有	-11.5949
二十五步	-11.5952
軍都指揮使	-11.5956
江都	-11.5961
而觀之	-11.5962
孫吳	-11.5962
有大功	-11.5968
天井	-11.5975
分統	-11.5979
二里半	-11.598
五里東至	-11.598
九刻	-11.5981
澧州	-11.5987
為守備	-11.5993
潛行	-11.6003
得其實	-11.6009
丑寅	-11.6013
急宜	-11.6015
皆出於	-11.6021
戊子	-11.6022
縱敵	-11.6023
宥州	-11.6037
力士	-11.6039
以强弩	-11.6041
間容	-11.6048
人户	-11.6051
所傷	-11.6053
習水戰	-11.6059
海港	-11.6059
汾州	-11.6061
也殊不知	-11.6073
前項	-11.6078
始建	-11.6078
種火	-11.6083
孝武	-11.6084
馬糞	-11.6105
而不顧	-11.6106
兵船分	-11.6109
伐魏	-11.6117
閔行鎮	-11.6123
本朝咸平	-11.6125
一員統	-11.6127
五萬人	-11.6127
罔不	-11.6134
追殺	-11.6142
女主	-11.615
天下亂	-11.6158
池深	-11.616
督同	-11.616
年力	-11.6164
民田	-11.6177
重傷	-11.6186
前層	-11.6189
不恤	-11.6191
北至蕃界	-11.6212
追斬	-11.6212
令者誅	-11.6216
巳午	-11.6224
十有一	-11.6226
以上並	-11.6245
卒難	-11.6247
預定	-11.6259
剪殺	-11.629
寡矣	-11.6297
遼水	-11.6313
尺許	-11.6319
四隻	-11.6325
速進	-11.6329
失國	-11.6343
星占	-11.635
操巡	-11.637
帶甲	-11.6373
光芒	-11.6386
持乆	-11.6397
得之於	-11.6401
如狼	-11.6408
至太倉	-11.6425
遂潰	-11.6434
鎮設弓兵四十名往來巡邏	-11.644
天寳中	-11.6446
報主將	-11.6456
探敵	-11.6458
相離	-11.6462
郊迎	-11.6481
不使	-11.6482
九經曰	-11.6493
叅將雖發	-11.6518
安化	-11.6541
衣裝	-11.6551
散而為	-11.6557
北五里	-11.6574
凉州	-11.6578
隘口	-11.6582
西岸	-11.6584
饗士	-11.6588
戊子己	-11.6595
行持	-11.6624
桂州	-11.6626
也衆以我為	-11.6628
不和主大將	-11.6629
養兵銀	-11.6646
渡淮	-11.6654
邕	-11.6666
邛	-11.6667
忠勇	-11.6677
哨報	-11.6686
廣福	-11.6695
撫士	-11.6707
國富	-11.6726
丹徒縣	-11.6726
相應援	-11.6727
國有兵	-11.6743
三軍之士	-11.6766
之類亦	-11.6784
李繼遷	-11.68
在縣治西南	-11.6803
本朝太平興國中	-11.6807
勺零	-11.6813
勝之道也	-11.6825
子丑	-11.6878
以致勝	-11.6881
州在戎州西南	-11.6918
俱斬	-11.6932
用火器	-11.6966
所以致	-11.697
按部	-11.6971
頭低	-11.6972
大將發利為客見陣利先動出軍宜	-11.6972
兖	-11.6981
一千三百	-11.6996
歎	-11.7003
披甲	-11.7012
單擺	-11.7017
罡	-11.7024
百尺	-11.7061
斗魁	-11.7068
薊	-11.707
其信地則	-11.7073
裝藥	-11.7074
砦四十里北至	-11.7077
三門具五將發	-11.708
晃	-11.7081
甘州	-11.7084
珮	-11.7086
三千六百	-11.7087
功業	-11.7089
草屋	-11.7091
兵之大	-11.7091
神䇿軍	-11.7096
陲	-11.7096
煨	-11.7097
靜邊鎮	-11.7097
鉤	-11.7099
籌陰誦	-11.7099
猺	-11.71
楷	-11.7102
簞	-11.7103
諸葛武侯	-11.7104
按皇華四達記	-11.7105
稻田	-11.7105
葱	-11.7105
蘸	-11.7105
黄石公三畧	-11.7106
啄	-11.7106
煅	-11.7106
州至百坡州	-11.7108
何博士備論	-11.7108
閃賺是花鎗	-11.7109
眠	-11.7111
司馬穰苴	-11.7111
末柸	-11.7111
竇建德	-11.7111
霄	-11.7111
脾	-11.7112
疼痛	-11.7112
揉	-11.7112
墩堠	-11.7112
呵呵	-11.7113
壬午	-11.7114
朶	-11.7115
梨	-11.7115
岷	-11.7115
古北口	-11.7115
瀾	-11.7115
昊	-11.7115
莫之敢	-11.7116
謡	-11.7116
曹瑋	-11.7116
貝	-11.7116
紐	-11.7116
趂	-11.7116
鍤	-11.7116
泓	-11.7116
朝野僉	-11.7116
衂	-11.7117
兵家類	-11.7117
副都頭副兵馬使以上	-11.7117
立効治馬	-11.7117
虎鈐經	-11.7117
莅	-11.7118
韜鈐	-11.7118
狼毒	-11.7118
捕盜舵工	-11.7118
邦政	-11.7118
師之屯致	-11.7118
萬二千五百人為軍	-11.7118
巡撫軍門	-11.7118
棠	-11.7118
孝恪	-11.7118
杜佑	-11.7119
蝶	-11.7119
陟	-11.7119
勍敵	-11.7119
第三層	-11.7119
杉灰	-11.7119
李弼	-11.7119
鞍轡	-11.7119
麻陽兵	-11.7119
郵	-11.7119
推諉	-11.7119
斗四升	-11.712
能一一而設備也惟當摘其中之尤要者	-11.712
臻	-11.712
汝曹	-11.712
甃以磚石	-11.712
捻	-11.712
瓦氏	-11.712
訾	-11.712
横陽河	-11.712
俞大猷	-11.712
惟通單騎	-11.712
趐	-11.712
常川操練	-11.712
袁氏	-11.712
遴	-11.712
覻	-11.712
凡戰之道	-11.712
簸	-11.712
掠諸邨鎮	-11.7121
杲	-11.7121
鈎䥥	-11.7121
獺	-11.7121
弋	-11.7121
休廢囚死	-11.7121
敵衆我寡	-11.7121
審知賊	-11.7122
姪	-11.7122
武王問太公曰引兵深入諸侯之地與敵	-11.7122
笮	-11.7122
𣺌	-11.7122
匙	-11.7122
長蕩湖	-11.7122
天覆地載	-11.7122
年月日時	-11.7122
當此之時	-11.7122
僰	-11.7122
廵捕官	-11.7122
蹬	-11.7122
巡司在吳江縣東	-11.7122
希烈	-11.7123
迦	-11.7123
州至羅巖州	-11.7123
縷	-11.7123
排方陣	-11.7123
陸門四座	-11.7123
曼	-11.7123
張郃	-11.7124
有虞氏	-11.7124
箠	-11.7124
𤓰涇	-11.7124
蛤	-11.7124
畀	-11.7124
墌	-11.7124
天官時日	-11.7124
恠	-11.7124
滔	-11.7124
王江涇	-11.7124
葭	-11.7124
蔡廟	-11.7124
溫	-11.7124
是役也	-11.7124
廪	-11.7124
臧	-11.7124
詭譎	-11.7124
塚	-11.7124
弧	-11.7125
城可屠	-11.7125
椽	-11.7125
絶其糧道	-11.7125
緡	-11.7125
在縣城西北	-11.7125
縣後沙	-11.7125
八槳船	-11.7125
趙奢	-11.7125
汛畢無警	-11.7125
四河口	-11.7126
緊	-11.7126
鋒鏑	-11.7126
掩其不備	-11.7126
陘	-11.7126
辛苦	-11.7126
一客大將一宫	-11.7126
兵者詭道也	-11.7126
風伯雨師	-11.7127
楞	-11.7127
燒酒	-11.7127
韓厥	-11.7127
碣	-11.7127
蠻獠	-11.7127
偕	-11.7127
周尉繚撰	-11.7127
砦在縣東三程	-11.7127
軍各二千八百人	-11.7127
是以明其	-11.7127
兩圍七寸	-11.7127
餽	-11.7127
鉅鹿	-11.7127
慟	-11.7127
五八門杜主大將㕘將不出中宫始擊將	-11.7127
天鵞聲	-11.7128
鄂	-11.7128
商舶	-11.7128
妖氛	-11.7128
脰	-11.7128
韻	-11.7128
利為客見陣利先動出軍宜正	-11.7128
倐	-11.7128
何也靖曰	-11.7128
尉遲敬徳	-11.7128
三十四年乙卯	-11.7128
僇力	-11.7128
剖	-11.7128
縣倭患事蹟	-11.7128
諸道兵	-11.7128
霹靂戰車	-11.7128
劉牢之	-11.7129
五十人為隊	-11.7129
李抱真	-11.7129
釜	-11.7129
蘇定方	-11.7129
合河津	-11.7129
攪匀	-11.7129
勾踐	-11.7129
楔	-11.7129
黄石公素書	-11.7129
搶掠	-11.7129
躱閃	-11.7129
餱糧	-11.7129
臠	-11.7129
隋大業	-11.7129
袴	-11.713
縵	-11.713
諂	-11.713
即孫子之	-11.713
毘	-11.713
一體坐罪	-11.713
仍其舊	-11.713
唃	-11.713
辰戌丑未	-11.713
鄜州	-11.713
三畧直解	-11.713
也此一節言	-11.713
罰工食	-11.713
於邙山	-11.7131
卯此局	-11.7131
摔鈸響	-11.7131
勝聞賊備西北竒兵西北伏兵利辰巳時	-11.7131
吕后	-11.7131
百餘艘	-11.7131
損壞	-11.7131
捜	-11.7131
活潑	-11.7131
己未火時庚申辛酉木時壬戌癸亥水時	-11.7131
乾坤艮巽	-11.7132
竇泰	-11.7132
模	-11.7132
翔鳥	-11.7132
招討使	-11.7132
罨頭木	-11.7132
不得已則鬭	-11.7132
牲牢	-11.7132
先聲後實	-11.7132
在縣治東北	-11.7132
大破楚軍	-11.7132
腥	-11.7132
衷	-11.7132
槃	-11.7132
慢慢	-11.7133
十萬之師	-11.7133
扳	-11.7133
掛搭	-11.7133
液	-11.7133
瀦	-11.7133
學武藝	-11.7133
玉門經曰	-11.7133
虵	-11.7133
乙未金時丙申丁酉火時戊戌己亥木時	-11.7133
以恩信	-11.7133
口作犬聲	-11.7133
圖篇第六十	-11.7133
地耳在戊	-11.7133
十二將兵	-11.7133
示之以弱	-11.7133
祭祀	-11.7133
互相策應	-11.7133
利則進不利則	-11.7133
映	-11.7133
苓	-11.7134
荅	-11.7134
斬馬刀	-11.7134
重地則掠	-11.7134
景祐	-11.7134
知州熊桴	-11.7134
豺狼	-11.7134
)􁀙(	-11.7134
屠羊説	-11.7134
旬天目在庚	-11.7134
蕭顯	-11.7134
元和中	-11.7134
酪	-11.7134
丁未水時戊申己酉土時庚戌辛亥金時	-11.7134
癸未木時甲申乙酉水時丙戌丁亥土時	-11.7134
丕	-11.7134
甘結	-11.7135
嘔	-11.7135
蠢	-11.7135
米一石	-11.7135
窕	-11.7135
木時壬辰	-11.7135
火時庚寅	-11.7135
磔	-11.7135
遐	-11.7135
净	-11.7135
恬	-11.7135
惻	-11.7135
斬首數百級	-11.7135
西北戰利東南利曲陣舉黑旗雲氣從西	-11.7135
逋	-11.7135
金匱經曰	-11.7135
巂	-11.7135
未萌	-11.7135
殊死戰	-11.7136
經緯	-11.7136
芥	-11.7136
踞	-11.7136
也列河	-11.7136
日丙子丁丑水時戊寅己	-11.7136
態	-11.7136
蓄積	-11.7136
李嗣源	-11.7136
北客聞賊備東南第	-11.7136
時庚辰	-11.7136
迤西	-11.7136
辛丑	-11.7136
晁	-11.7136
冕	-11.7136
罄	-11.7136
北征錄曰	-11.7136
古之名將	-11.7136
扣工食	-11.7136
不出三年	-11.7136
廏	-11.7136
喧嚷	-11.7136
値	-11.7136
啟閉	-11.7136
南戰利正北利圓陣舉黄旗雲氣從南來	-11.7137
圯	-11.7137
蔑不勝矣	-11.7137
之為愈	-11.7137
糟	-11.7137
閤	-11.7137
皝	-11.7137
安守忠	-11.7137
杼	-11.7137
隧	-11.7137
始擊將大神客算	-11.7137
餙	-11.7137
諸侯之師	-11.7137
娑	-11.7138
渠丘	-11.7138
軍步軍次	-11.7138
夏税小麥	-11.7138
昴日雞	-11.7138
夀春	-11.7138
雄勇津	-11.7138
褐	-11.7138
燦	-11.7138
彭陽城	-11.7138
鑲	-11.7138
澱山	-11.7138
上㑹桄	-11.7139
周瑜	-11.7139
憩	-11.7139
杯	-11.7139
鬛	-11.7139
偪	-11.7139
蓆	-11.7139
桀紂	-11.7139
佑	-11.7139
不與焉	-11.7139
撩亂	-11.7139
干戈	-11.7139
攫	-11.7139
燄	-11.7139
睹	-11.7139
兵家者流	-11.7139
跋	-11.7139
呂	-11.714
更戰更息	-11.714
觀釁	-11.714
庻幾	-11.714
六韜	-11.714
悚	-11.714
狎	-11.714
四竒四正龍虎鳥蛇	-11.714
鈇	-11.714
三百四十步	-11.714
廨	-11.714
薪芻	-11.714
閫	-11.7141
蚓	-11.7141
迯	-11.7141
張月鹿	-11.7141
波濤	-11.7141
䝉遜	-11.7141
僚	-11.7141
月節影長	-11.7141
晉王存朂	-11.7141
故明君	-11.7141
錦州	-11.7142
隊長隊長	-11.7142
拍竿	-11.7142
畢月烏	-11.7142
菉豆	-11.7142
鈎鐮	-11.7142
甪直	-11.7142
膂	-11.7142
李漢瓊	-11.7142
俘獲	-11.7142
滛	-11.7142
災祥	-11.7142
不出三日	-11.7142
雙嶼港	-11.7143
不得輒動	-11.7143
璧水㺄	-11.7143
寅午戌	-11.7143
胃土雉	-11.7143
井木犴	-11.7143
劑	-11.7143
孺	-11.7143
一窩蜂	-11.7143
倭舶之來	-11.7143
疏濬	-11.7143
記之記之	-11.7143
四錢八分	-11.7143
守陴者	-11.7143
昶	-11.7143
渰	-11.7143
蜺	-11.7143
鹵	-11.7143
未足為	-11.7143
參水猿	-11.7143
貢賦	-11.7144
一百二十五人	-11.7144
尙	-11.7144
跳躍	-11.7144
譙縱	-11.7144
屹然	-11.7144
五代梁	-11.7144
匾	-11.7144
擂皷吹天鵞聲	-11.7144
重霞	-11.7144
雙燈	-11.7144
鵰	-11.7144
三兩二錢	-11.7144
閒暇	-11.7144
鰍	-11.7144
遙克	-11.7145
不明敵人之	-11.7145
櫳	-11.7145
廟州門	-11.7145
鳩	-11.7145
利為主見陣利後動出軍宜正	-11.7145
癸亥	-11.7145
驍雄	-11.7145
島宼	-11.7145
潯	-11.7145
斗木獬	-11.7145
駢	-11.7145
之罪也	-11.7145
弓袋	-11.7146
長一丈三尺	-11.7146
應弦而倒	-11.7146
危月燕	-11.7146
物件	-11.7146
缺伍	-11.7146
攷	-11.7146
自己之	-11.7146
巫臣	-11.7147
洶	-11.7147
都司梁鳳	-11.7147
媚	-11.7147
栁土獐	-11.7147
輕佻	-11.7147
京房曰	-11.7147
憫	-11.7147
高麗	-11.7147
主客勝負	-11.7147
簡邨	-11.7147
張商英	-11.7148
勤惰	-11.7148
冡	-11.7148
不知所為	-11.7148
巳酉丑	-11.7148
官兵擊走之	-11.7148
旬陰在丁	-11.7148
處聚劫	-11.7148
桕	-11.7148
一區處	-11.7149
夙	-11.7149
之别名	-11.7149
嘉興府	-11.7149
危殆	-11.7149
築堡議	-11.7149
平坦	-11.7149
壬癸日	-11.7149
後漢光武	-11.715
肅宗	-11.715
左肩	-11.715
軍法施行	-11.715
瀉	-11.7151
麻油	-11.7151
恢復	-11.7151
鄉宦	-11.7151
軒	-11.7151
暴虐	-11.7151
昴星	-11.7151
澱湖	-11.7151
匣	-11.7151
隠隠	-11.7152
倉庫	-11.7152
稷	-11.7152
流劫	-11.7152
燕尾炬	-11.7152
齊呌	-11.7152
熟户	-11.7152
瞬	-11.7152
雍熙	-11.7153
鐵鍋	-11.7153
顛倒	-11.7153
疾擊其	-11.7153
以觀其變	-11.7153
爵賞	-11.7153
射獵	-11.7153
齊景公	-11.7153
景慈	-11.7153
窩主	-11.7153
時壬午	-11.7154
繼隆	-11.7154
亾地	-11.7154
故址	-11.7154
牛頭山	-11.7154
馬鞍山	-11.7154
出死力	-11.7154
門起者軍民不利也	-11.7154
猛獸	-11.7155
之羽翼	-11.7155
眇	-11.7155
合先有	-11.7155
軫水蚓	-11.7155
張聲勢	-11.7155
吉祥	-11.7155
景宗	-11.7155
水灌城	-11.7155
賀若弼	-11.7155
畞	-11.7155
彘	-11.7155
姦邪	-11.7156
兩腋	-11.7156
轉運使	-11.7156
克㨗	-11.7157
迅疾	-11.7157
三更船	-11.7157
抛入	-11.7158
優劣	-11.7158
天寶中	-11.7158
不可也非	-11.7158
中郎將	-11.7158
甲巳之日	-11.7159
宣歙	-11.7159
激勵	-11.7159
玉門闗	-11.7159
算外即	-11.7159
機械	-11.7159
災變	-11.7159
季龍	-11.716
最妙	-11.716
損壊	-11.716
楊氏	-11.716
時丙寅	-11.7161
哉太宗曰	-11.7161
登劫	-11.7161
小將挾客	-11.7161
熲	-11.7162
巴陵	-11.7162
初七日	-11.7162
闊狹	-11.7163
東南隅	-11.7163
特勒	-11.7163
之而觀其無	-11.7163
糧額	-11.7163
布帛	-11.7163
擅離	-11.7163
遂擒之	-11.7163
害霸也	-11.7164
所恃者	-11.7165
歧	-11.7165
武后	-11.7165
副總管	-11.7165
教藝	-11.7165
指揮朱	-11.7166
為上䇿	-11.7166
被犯之營	-11.7166
所從來	-11.7166
蛇藤	-11.7166
撫巡	-11.7167
墪臺	-11.7167
宿三星	-11.7167
稽查	-11.7167
邀截	-11.7167
將下軍	-11.7167
握機經	-11.7167
明旦	-11.7167
五百六十	-11.7168
㸃查	-11.7168
秣馬	-11.7168
影射	-11.7168
烏舍	-11.7169
地後䡴	-11.7169
海舶	-11.7169
加賦	-11.7169
十七度	-11.717
出戰之時	-11.717
夏后氏	-11.717
認棍	-11.717
死者甚衆	-11.717
尤妙	-11.7171
闗東之	-11.7171
從外入	-11.7171
種落	-11.7171
隄備	-11.7171
乘輿	-11.7171
督察	-11.7172
廢毁	-11.7172
翻身	-11.7172
受禍	-11.7172
四員	-11.7173
覆没	-11.7173
撓亂	-11.7173
不過五尺	-11.7173
酒泉	-11.7173
格鬬	-11.7173
九姓	-11.7174
以其私	-11.7174
懐光	-11.7174
收斂	-11.7175
吕布	-11.7175
州四百二十里	-11.7175
巡警	-11.7175
一百二十步	-11.7177
宿四星	-11.7177
把總船旗心用色邊用色帶用色	-11.7177
難測	-11.7178
適均	-11.7178
涇原	-11.7178
峽口	-11.7179
混雜	-11.7179
故次之以	-11.7179
七十餘里	-11.7179
疋一丈	-11.7179
聨屬	-11.718
月九日	-11.718
江津	-11.7181
積米	-11.7181
一員管	-11.7181
保定軍	-11.7182
刺客	-11.7182
總管府	-11.7182
大連珠	-11.7182
遏寇	-11.7183
㝷邑	-11.7183
六纛	-11.7183
在我軍上	-11.7184
夜半生甲子	-11.7184
擄民	-11.7186
叅將八宫	-11.7187
畏避	-11.7187
盤龍	-11.7187
擅動	-11.7187
牌一面	-11.7188
釋甲	-11.7189
諭之曰	-11.7189
扶胥	-11.719
之兆也或	-11.7191
巡按	-11.7191
加減	-11.7192
畏怯	-11.7192
蘇郡	-11.7192
戎夷	-11.7192
遵照	-11.7192
少頃	-11.7194
修造	-11.7194
免罪	-11.7194
曽經	-11.7196
什長	-11.7196
保甲長	-11.7197
卦名	-11.7197
新涇	-11.7198
牝陣	-11.7199
料理	-11.7199
油紙	-11.7199
廵船	-11.7201
三壩	-11.7202
鄉里	-11.7202
荆楚	-11.7202
圏外	-11.7203
竹竿	-11.7204
官爵	-11.7205
符節	-11.7205
到城下	-11.7206
劉表	-11.7206
幕府	-11.7206
施恩	-11.7206
文牒	-11.7207
鹽鐵	-11.7208
升旗	-11.7209
白扇	-11.7209
駐節	-11.7209
薛公	-11.7209
孟明	-11.721
藥末	-11.721
伐蜀	-11.721
母船	-11.7211
便捷	-11.7212
以月將加時	-11.7212
調募	-11.7213
不妨	-11.7213
可保無	-11.7213
元戎	-11.7215
運轉	-11.7216
稍却	-11.7217
板橋	-11.7217
總說	-11.7217
薊州	-11.7217
迭相	-11.7217
鎮撫使	-11.7217
禦我	-11.7217
四十餘里	-11.7218
迭進	-11.7218
川澤	-11.722
中蠱	-11.722
逃歸	-11.722
隋唐	-11.722
伏匿	-11.7221
虛聲	-11.7221
戰國時	-11.7222
出軍行師	-11.7222
寡少	-11.7223
相續	-11.7223
龍虎	-11.7223
六合曰	-11.7225
水漲	-11.7226
疑懼	-11.7227
䕶送	-11.7227
二十丈	-11.7228
震懼	-11.7229
二百餘人	-11.723
長鎗手	-11.723
更休	-11.723
戎虜	-11.723
防閑	-11.7232
𨽻焉	-11.7232
浮海	-11.7232
府藏	-11.7232
凡興師	-11.7233
王郎	-11.7233
尹山	-11.7235
雷公	-11.7236
山島	-11.7237
給銀	-11.7237
驚疑	-11.7238
蔡州	-11.724
守殷	-11.724
狹路	-11.7241
二十三年	-11.7242
死喪	-11.7242
驛馬	-11.7243
乗機	-11.7243
二十餘里	-11.7244
詩曰	-11.7244
迎擊之	-11.7245
户口	-11.7245
沙泥	-11.7246
防毒	-11.7247
賢君	-11.7247
竿首	-11.7248
髙三尺	-11.7248
積雪	-11.7249
裕乃	-11.725
七國之	-11.7252
各船亦	-11.7252
逃走	-11.7252
新書	-11.7254
五箇	-11.7255
久留	-11.7255
天蓬	-11.7255
傷害	-11.7256
陸費墀欽定四庫全書	-11.7256
計四百	-11.7256
追襲	-11.7257
被擒	-11.7257
先零	-11.7258
幷州	-11.7259
平突厥	-11.726
倭亂	-11.7261
為無用	-11.7262
鬼門	-11.7263
不可與戰	-11.7263
五六尺	-11.7264
山頂	-11.7266
破格	-11.7267
簡易	-11.7267
隠伏	-11.7267
斜路	-11.7267
輜重隊	-11.7268
無所掠	-11.7269
長四丈	-11.7271
趙魏	-11.7271
李宻	-11.7271
環列	-11.7272
禦宼	-11.7272
奮力	-11.7273
者反其	-11.7273
朝義	-11.7274
蓬星	-11.7274
牆内	-11.7274
臨戎	-11.7279
夫人之	-11.728
與敵遇	-11.7282
新橋	-11.7283
親附	-11.7283
凡對敵	-11.7284
則人死	-11.7284
申請	-11.7284
脱去	-11.7286
始末	-11.7287
李密	-11.7287
約一里	-11.7288
無措	-11.7289
和徳	-11.7289
每人給	-11.7289
何足以	-11.729
欽州	-11.729
金時甲	-11.7291
排陣	-11.7292
臨期	-11.7294
近的	-11.7296
肥水	-11.7297
天下之變	-11.7297
人事而已	-11.7298
凡下營	-11.7298
負固	-11.7298
主客俱不利各宜固守主聞賊備	-11.7298
徳威	-11.7299
立愈	-11.7299
力疲	-11.7299
古法曰	-11.7299
老君	-11.7299
者俱斬	-11.7301
者未之有也	-11.7301
喜怒	-11.7301
廣陵	-11.7302
大河之	-11.7302
入貢	-11.7302
庶乎	-11.7304
乘危	-11.7305
此其所以	-11.7306
民財	-11.7307
下營法	-11.7309
恩威	-11.731
萬古	-11.7311
精練	-11.7313
方略	-11.7315
受圍	-11.7318
蕭何	-11.7319
暗門	-11.7321
始擊將吕申客算	-11.7325
立冬	-11.7325
分為左右	-11.7326
都共	-11.7328
垜長	-11.7329
侍中	-11.7331
烏蠻	-11.7332
神靈	-11.7335
神化	-11.7336
月支	-11.7336
軍需	-11.7336
出天門	-11.7336
舊號	-11.7338
西北至州	-11.7341
本體	-11.7342
戎車	-11.7342
李横	-11.7344
血氣	-11.7344
十二度	-11.7345
親屬	-11.7346
營柵	-11.7347
驚懼	-11.7348
所用者	-11.7348
祝曰	-11.7348
可戰也	-11.7351
賢臣	-11.7352
氣銳	-11.7356
十有七	-11.736
軍法示衆一	-11.7361
色黒	-11.7361
學習	-11.7362
三千餘人	-11.7365
難免	-11.7365
師老	-11.7367
曰今日之	-11.7367
奏置	-11.7369
控制	-11.7369
訶訶	-11.7375
髙宗	-11.7385
朝廷命	-11.7388
日沒	-11.7388
撥兵船	-11.739
北至上京	-11.7391
規矩	-11.7397
半年	-11.7401
將無威	-11.7414
頂上	-11.7418
是日賊	-11.7418
水時丙	-11.742
里界首北至契丹界	-11.7442
任環	-11.7442
必有謀	-11.7453
受詔	-11.7457
我逸	-11.7458
巴城	-11.7465
校四陣	-11.7468
誰何	-11.7478
之行也	-11.7485
十有五	-11.7487
淮北	-11.7489
巡司在縣治西	-11.7501
而乗之	-11.7509
天裂	-11.7509
賊不來	-11.751
有所未	-11.7518
驢馬	-11.752
荆州占曰	-11.7522
軍䜟	-11.7524
倘有	-11.7529
生疎	-11.753
二丈六尺	-11.7535
之星也	-11.7537
部族	-11.7538
可知矣	-11.7546
五百步	-11.7566
者隨所	-11.757
可不慎	-11.7576
莒人	-11.7591
巳午未時主	-11.7603
使者曰	-11.7604
所賴	-11.7635
邛州	-11.7659
據要害	-11.7665
孫公	-11.767
也嗟乎	-11.768
南至中京	-11.7681
言語不	-11.7681
驚動	-11.7691
篇第八	-11.7701
來挑戰	-11.7727
遇賊船	-11.7732
一十七里	-11.7745
敗之兆	-11.7752
不利宜固守聞賊備東南第	-11.781
水時甲	-11.7817
至莫州	-11.7826
三千名	-11.7828
濟江	-11.7835
長一里	-11.7859
平凉	-11.7875
十六陣	-11.7884
用之物	-11.7894
陽羡	-11.791
擐甲	-11.7926
審候	-11.7937
暴兵至	-11.795
北至契丹界無鋪	-11.7977
則三軍之	-11.7981
江南北	-11.804
洪武二年	-11.8042
擊之勝	-11.8046
必勝之道	-11.8077
邵州	-11.8095
西二十里	-11.8097
十五里東至	-11.8117
遂大破	-11.8117
賊乃退	-11.8123
十六度	-11.8126
蛇盤	-11.813
主客俱不利各宜固守主聞賊備西	-11.8149
延安	-11.8167
綑打一	-11.818
二千八百	-11.8193
拾遺	-11.82
主客俱不利各宜固守主聞賊備正	-11.8206
齒欲	-11.8219
里許	-11.8225
十三度	-11.8227
羡	-11.8264
海湖	-11.8285
得其力	-11.8291
而敵不	-11.8291
百里東北至	-11.8301
至嘉定	-11.8312
百里西北至	-11.8329
敵虚實	-11.8366
人逺來	-11.8395
營之内	-11.8424
五里南至	-11.8494
十餘座	-11.8511
機權	-11.8572
其巢穴	-11.8641
永寧砦	-11.8654
去西京	-11.8655
戰破之	-11.8665
饒州	-11.867
荆州占曰月	-11.868
頭尖	-11.8686
選精兵	-11.8699
城之氣出而	-11.8737
爲一卒名曰	-11.8743
之禍軍䜟曰	-11.8771
朔方節度	-11.8795
部勒	-11.8803
百八十步	-11.8814
徑二寸	-11.8829
在府治東南	-11.8829
𨽻中軍都督府	-11.8836
星天文總論曰	-11.8857
六千八百	-11.892
十三經曰	-11.894
宜固守聞賊備西南第	-11.8943
未之有也	-11.8949
一百一十	-11.8949
未申時主	-11.8959
旬地兵在	-11.8982
萬姓	-11.9018
旗幡	-11.903
船一隻	-11.9038
他若使	-11.904
賊首徐海	-11.9042
寸許	-11.905
長短相	-11.9062
欽定四庫全書武編前集卷	-11.9064
除仰斜留一丈	-11.9065
念呪曰	-11.9067
祥符	-11.9073
聖賢之	-11.9075
射罔	-11.9076
各軍手執	-11.9078
餘竒為握竒	-11.9078
貞觀	-11.9079
源口南至	-11.908
𤣥謨	-11.9081
蓋天下然後能	-11.9083
八門杜	-11.9083
嗟	-11.9084
宜行令	-11.9085
敘	-11.9087
旬六庚在	-11.9087
上克下	-11.9088
聲如雷	-11.9089
楊家橋	-11.909
天禧中築東	-11.9091
屎	-11.9093
閩	-11.9094
慶厯中築東至	-11.9094
頴胄	-11.9094
拳棍	-11.9095
嗣徽	-11.9095
秪	-11.9096
軍法責懲	-11.9097
竇建徳	-11.9098
礦徒	-11.9099
即投籌轉安	-11.9099
籲	-11.91
廓	-11.91
靜邊砦	-11.9101
瞎征	-11.9101
摶霄	-11.9101
竒正相變	-11.9102
治以重罪	-11.9102
因而誤事者	-11.9102
椎	-11.9102
瓢灰	-11.9103
金花銀	-11.9103
陣令各軍作犬聲	-11.9103
鴟	-11.9103
在縣治東	-11.9103
瘀	-11.9104
胞	-11.9104
至道中五路出師	-11.9104
哨則認	-11.9104
州至羅巖州四十里至州四百四十里	-11.9105
弓門砦	-11.9106
顫	-11.9106
叨	-11.9106
甎	-11.9106
康定中	-11.9106
吊腿	-11.9106
桂陽監	-11.9106
仝	-11.9107
哥舒翰	-11.9107
窰	-11.9107
戊己	-11.9108
彚	-11.9108
胯	-11.9108
僖	-11.9109
襪	-11.911
嚙於海	-11.911
新漲沙	-11.911
符勘	-11.911
鉅	-11.911
燮	-11.911
椓	-11.9111
戰鋒等隊	-11.9111
松亭關	-11.9111
淄	-11.9111
開元中	-11.9111
齊威王	-11.9112
五行置章于	-11.9112
夜不收	-11.9113
韜	-11.9113
挟	-11.9113
聿	-11.9113
荆城港	-11.9113
人學戰敎成	-11.9113
一枝令百户一員領泊	-11.9114
無地分馬	-11.9114
節制之師	-11.9114
下明鄭若曽撰	-11.9114
可突千	-11.9114
牌架手把銃	-11.9114
看大總管處	-11.9114
遂解閼與之圍	-11.9114
韓魏之君	-11.9114
爿	-11.9115
爲之柰何太公曰	-11.9115
倭人入寇	-11.9115
僨事	-11.9115
漣	-11.9115
麽	-11.9115
遮匐	-11.9115
尾閭	-11.9116
暖	-11.9116
哨官哨官	-11.9116
閬	-11.9116
孫武云	-11.9116
狼糞	-11.9116
月初四日	-11.9116
桑乾河	-11.9116
鏨	-11.9116
滕	-11.9116
陳讚	-11.9116
粤	-11.9116
周家橋	-11.9117
有益於	-11.9117
甘肅	-11.9117
鞠	-11.9117
細辛	-11.9117
隷	-11.9117
淬	-11.9117
寘	-11.9117
吳元濟	-11.9117
戰必大勝	-11.9117
百二十具	-11.9117
鈕	-11.9117
海防僉事董公邦政	-11.9117
湟水	-11.9117
雁	-11.9117
天地前衝	-11.9118
栖	-11.9118
正正之旗	-11.9118
諺云	-11.9118
戡	-11.9118
罳	-11.9118
徳順軍	-11.9118
糗	-11.9118
寳山洋	-11.9118
澱	-11.9118
順江洲	-11.9119
軾	-11.9119
念咒曰	-11.9119
擂鼔	-11.9119
竦	-11.9119
遊奕小探	-11.9119
一帶賊路	-11.9119
娯	-11.9119
王者愼勿	-11.9119
侵掠如火	-11.912
百户十員	-11.912
苧	-11.912
谿谷	-11.912
驚怖	-11.912
磯	-11.912
者不坐一	-11.912
越我前後	-11.912
為一卒名曰	-11.9121
蘇松常鎮四郡	-11.9121
碧	-11.9121
茒	-11.9121
擊其惰歸	-11.9121
白露屋	-11.9121
養兵之費	-11.9121
篆	-11.9121
䥥	-11.9121
兵不血刃	-11.9121
手前一尺	-11.9121
月已蝕而	-11.9121
耽	-11.9122
驥	-11.9122
日入戌	-11.9122
苴	-11.9122
愆	-11.9122
彪	-11.9122
撇	-11.9122
緋	-11.9122
撾	-11.9122
昨	-11.9122
爲敵所	-11.9122
困乏	-11.9122
巖穴	-11.9122
劉錡	-11.9122
守禦千户所	-11.9122
崔浩	-11.9122
搶擄	-11.9122
織女	-11.9122
元甲子第	-11.9123
分為四枝	-11.9123
松脂	-11.9123
皆曰非所及也	-11.9123
大猷	-11.9123
慣熟	-11.9124
菉葭浜	-11.9124
童便	-11.9124
金木水火土	-11.9124
雹	-11.9124
有説焉	-11.9124
睨	-11.9124
破陣樂	-11.9124
寧逺砦	-11.9124
真義舖	-11.9124
葉謝鎮	-11.9124
葛榮	-11.9124
詬	-11.9124
陬	-11.9124
除仰斜留六尺五寸	-11.9124
丁字回	-11.9124
儂	-11.9124
瑟	-11.9124
妬	-11.9125
漢書藝文志	-11.9125
白鶴江	-11.9125
霍去病	-11.9125
知縣萬思謙	-11.9125
鵶	-11.9125
彼知破法	-11.9125
攻趙趙使	-11.9125
為吐蕃所	-11.9125
以將兵士卒	-11.9125
八卦而轉居於	-11.9125
雞啄	-11.9125
鞨	-11.9125
繹	-11.9125
僕固懷恩	-11.9125
相顧失色	-11.9125
穣	-11.9125
妓	-11.9125
扈	-11.9125
宫囚客㕘將	-11.9125
咤	-11.9126
角聲一鼓聲	-11.9126
天下莫當	-11.9126
綬	-11.9126
僕固懐恩	-11.9126
喋	-11.9126
新開河	-11.9126
岑彭	-11.9126
摽	-11.9126
洽	-11.9126
馬跡山	-11.9126
兩翼後援	-11.9126
為月朔則	-11.9126
鹿耳四夾軸	-11.9126
劣	-11.9126
恃吾有	-11.9127
鹹	-11.9127
子母砲	-11.9127
輕舸	-11.9127
涕泣	-11.9127
襟帶	-11.9127
隊間容隊	-11.9127
工匠	-11.9127
羊腸	-11.9127
在縣城南	-11.9127
奔走可擊	-11.9127
槊	-11.9127
炫	-11.9127
五栁口鋪	-11.9127
劉禪	-11.9127
斑	-11.9127
盍	-11.9127
帑	-11.9127
以衆擊寡	-11.9127
禦却之	-11.9128
幽薊	-11.9128
璹	-11.9128
澤潞	-11.9128
宇文士及	-11.9128
斧鑕	-11.9128
鉛鐵	-11.9128
八八之數	-11.9128
煞	-11.9128
􁀊	-11.9128
保全功臣	-11.9128
欽定四庫全書尉繚子卷	-11.9128
蹷	-11.9128
鍛	-11.9128
陴	-11.9128
下扇桄	-11.9128
鑿地道	-11.9128
壬寅	-11.9128
詮	-11.9128
党	-11.9129
諺	-11.9129
隱匿	-11.9129
癰	-11.9129
夸	-11.9129
掇	-11.9129
昵	-11.9129
㕘究	-11.9129
炊㸑	-11.9129
胡家港	-11.9129
擕	-11.9129
洞庭兩山	-11.9129
皎	-11.9129
胡盧河	-11.9129
道之正者也	-11.9129
制形兵因敵	-11.9129
受招安	-11.9129
琬	-11.9129
直符時加	-11.9129
節度副使	-11.9129
縣備寇水陸路考東	-11.9129
覬	-11.9129
隗囂	-11.9129
能有其有者安貪人之有者殘	-11.9129
斬首示衆	-11.913
空壁逐	-11.913
煉蜜	-11.913
石晉割賂	-11.913
龔	-11.913
以鐵鏁	-11.913
四通八達	-11.913
窊	-11.913
膚	-11.913
多方以誤之	-11.913
寖	-11.913
束葦	-11.913
殞	-11.913
湮塞	-11.913
聴角聲	-11.913
虜魏王豹	-11.913
望斗人	-11.913
校尉司馬部後居地如法	-11.913
誥	-11.913
馬蝗	-11.913
十二子用麻	-11.913
隋煬帝	-11.9131
舛	-11.9131
鄆	-11.9131
桃花	-11.9131
僱	-11.9131
刁	-11.9131
草城川	-11.9131
一兩人大門對打	-11.9131
春汛時月	-11.9131
花靨	-11.9131
居庸關	-11.9131
屈伸	-11.9131
求戰不得	-11.9131
爲之柰何太公曰凡	-11.9131
闡	-11.9131
駱元光	-11.9131
㴞	-11.9131
一跪一揖	-11.9131
二千人派之	-11.9131
工料銀	-11.9131
狹隘	-11.9131
北戰利正南利曲陣舉黑旗雲氣從北來	-11.9131
筐	-11.9132
滏	-11.9132
洳	-11.9132
混江龍	-11.9132
玄	-11.9132
發客㕘將	-11.9132
刧	-11.9132
浄	-11.9132
賓客	-11.9132
閫外之	-11.9132
鼉	-11.9132
帷	-11.9132
新羅國	-11.9132
晝夜不息	-11.9132
殲	-11.9132
澇	-11.9132
芻粟	-11.9132
髀	-11.9132
把總劉堂	-11.9132
者敗候也	-11.9132
舉赤旗雲氣從東南來客勝聞賊備	-11.9132
若敖之	-11.9132
虎賁	-11.9132
雖格叅將發依依利	-11.9132
筮	-11.9133
每營共	-11.9133
貎	-11.9133
黄田港	-11.9133
掖	-11.9133
扄	-11.9133
我衆彼寡	-11.9133
知徳安府	-11.9133
微炒	-11.9133
纎	-11.9133
薛仁杲	-11.9133
弓弝	-11.9133
紛擾	-11.9133
賑	-11.9133
响	-11.9133
尉遲逈	-11.9133
摺法也名	-11.9133
相為掎角	-11.9133
雞項	-11.9133
賀蘭山	-11.9133
黄泗浦	-11.9133
主客俱不利各宜固守主	-11.9134
宫天目地主主算	-11.9134
鄉𨗳	-11.9134
贓	-11.9134
率兵討之	-11.9134
腹背受敵恐非萬全	-11.9134
漊	-11.9134
客聞賊備正西第	-11.9134
宫天目大威	-11.9134
嘉靖三十二年	-11.9134
子此局	-11.9134
國朝吳元年	-11.9134
熖硝	-11.9134
房琯	-11.9134
揚威武	-11.9134
箕水豹	-11.9134
亥夘	-11.9134
今之議者	-11.9134
卭	-11.9134
坐作進退	-11.9134
嫚	-11.9134
年月日具官某謹	-11.9134
曺操	-11.9134
鼂錯	-11.9134
㳟	-11.9134
憐	-11.9134
泊蔡洲	-11.9134
畨王死	-11.9134
嘉靖癸丑	-11.9135
仕	-11.9135
倪	-11.9135
葛從周	-11.9135
主勝聞賊備東北竒兵東北伏兵利	-11.9135
百人為卒	-11.9135
九天之上	-11.9135
拄	-11.9135
脛	-11.9135
往年倭寇	-11.9135
弓弩砲石	-11.9135
巢窟	-11.9135
趋	-11.9135
輟	-11.9135
四正四竒	-11.9135
街巷	-11.9135
臾	-11.9136
煙焰	-11.9136
羈縻而已	-11.9136
鵝項	-11.9136
唧筒	-11.9136
愎	-11.9136
曹洪	-11.9136
冼	-11.9136
非善之善者也	-11.9136
兕	-11.9136
室火猪	-11.9136
胷臆	-11.9136
衮	-11.9136
鳳㸃頭	-11.9136
)􁁊(	-11.9137
入他境	-11.9137
千變萬化	-11.9137
巡江御史	-11.9137
年貌	-11.9137
皇甫嵩	-11.9137
謫	-11.9137
賊勢重大	-11.9137
鵠	-11.9137
黒闥	-11.9137
皷噪	-11.9137
齕	-11.9137
白土口鋪	-11.9137
谷瀆港	-11.9137
三丈五尺	-11.9138
四陣為竒	-11.9138
者乃所以	-11.9138
曹彬	-11.9138
燈籠一盞	-11.9138
筋骨	-11.9138
吕巷	-11.9138
甘德曰	-11.9138
詵	-11.9138
踣	-11.9138
族帳	-11.9138
莫善於	-11.9138
蔡廟港	-11.9138
諸葛瞻	-11.9138
卲	-11.9138
曵柴	-11.9138
煙熖	-11.9138
陣被破賊首念咒作	-11.9138
嘯	-11.9138
楫	-11.9138
歷	-11.9138
賤而勇者	-11.9138
教訓	-11.9139
景德中	-11.9139
靖曰臣按	-11.9139
不可不詳	-11.9139
手撚茅草	-11.9139
沙苑	-11.9139
申子辰	-11.9139
磁石	-11.9139
聴鼓聲	-11.9139
副隊頭	-11.9139
洶湧	-11.9139
矢下如雨	-11.9139
緜	-11.9139
詰旦	-11.9139
主將見破	-11.9139
岌	-11.9139
饋餉	-11.9139
祕	-11.9139
劒閣	-11.9139
西南隅	-11.9139
燼	-11.9139
客大將發利為客見陣利先動出軍宜	-11.9139
乙酉	-11.914
狩	-11.914
兵備副使	-11.914
短兵相接	-11.914
槖	-11.914
聼吹擺隊伍喇叭	-11.914
至直塘	-11.914
中國之長技	-11.914
六七八九	-11.914
方鎭	-11.914
致人而不致於人	-11.914
鏡	-11.914
卻	-11.914
惠亮正通	-11.914
憑陵	-11.914
每更一十	-11.914
勝兆也	-11.914
謟	-11.914
魚鼈	-11.914
光顔	-11.914
六韜卷第	-11.914
摭	-11.914
犨	-11.914
重二斤	-11.9141
靜戎	-11.9141
天衡地軸	-11.9141
吻	-11.9141
天罡加孟	-11.9141
斬獲首級	-11.9141
歉	-11.9141
閩中	-11.9141
燉煌	-11.9141
隐	-11.9141
房日兔	-11.9141
欣	-11.9141
用者有法	-11.9141
䖟	-11.9141
匄	-11.9141
死者千餘人	-11.9141
豢	-11.9141
錘	-11.9141
五千七百六十	-11.9141
恡	-11.9141
成安君	-11.9141
旗黄邊一面	-11.9141
詰朝	-11.9141
形人而我無形	-11.9141
𤣥感	-11.9141
戌亥時客	-11.9142
元至元	-11.9142
漾	-11.9142
田宅	-11.9142
祝阿	-11.9142
陪	-11.9142
上明鄭若曾撰	-11.9142
姑息	-11.9142
張守珪	-11.9142
茫茫	-11.9142
蛛	-11.9142
主將臨陣黙念	-11.9142
之色屬	-11.9142
十二將兵陣	-11.9142
攬英雄之心	-11.9142
汭	-11.9142
溱	-11.9142
鑊	-11.9142
臼	-11.9142
范蠡樂毅	-11.9142
辛夘	-11.9143
耕種	-11.9143
拽砲人	-11.9143
令素行	-11.9143
驅擄	-11.9143
㙮	-11.9143
以入於海	-11.9143
唤	-11.9143
蜀將姜維	-11.9143
閙	-11.9143
叔展	-11.9143
宋老生	-11.9143
蟠曲	-11.9143
顏	-11.9143
旍立	-11.9143
二十里西北至	-11.9143
埃	-11.9143
自刎	-11.9143
鐵蝎尾	-11.9144
驚蟄	-11.9144
徭役	-11.9144
與士卒同	-11.9144
猴	-11.9144
如驅羣羊	-11.9144
刳	-11.9144
鳴鑼三通	-11.9144
寶貨	-11.9144
怒濤	-11.9144
仇怨	-11.9144
躔	-11.9144
遹	-11.9144
仁愿	-11.9145
造其營	-11.9145
丁夘	-11.9145
秀實	-11.9145
榆關	-11.9145
瞽	-11.9145
哭泣	-11.9145
抝	-11.9145
不足恃也	-11.9145
夘酉	-11.9145
岀其不意	-11.9145
搜索	-11.9145
為將領者	-11.9145
甄	-11.9145
網羅	-11.9145
三沙下脚	-11.9145
台温	-11.9145
士卒輕刑	-11.9145
尼雅滿	-11.9145
爵位	-11.9145
屛	-11.9146
佩刀	-11.9146
甘苦	-11.9146
一擊十	-11.9146
炁	-11.9146
鳴金大吹打	-11.9146
規模	-11.9146
郡漢屬	-11.9146
羿	-11.9146
钂	-11.9146
隠匿	-11.9146
疏勒	-11.9146
天後衝	-11.9147
大將雖格	-11.9147
諷	-11.9147
扵	-11.9147
宋太祖	-11.9147
寇若自	-11.9147
燕晉之師	-11.9147
被城上人	-11.9147
侈	-11.9147
凡與敵戰	-11.9147
溯	-11.9147
秣馬蓐食	-11.9147
榦	-11.9147
若知破法令	-11.9147
黃浦	-11.9147
後漢更始初	-11.9148
調戧	-11.9148
變化無窮	-11.9148
攪	-11.9148
孫皓	-11.9148
伍子胥	-11.9148
則爭為	-11.9148
之戰人也	-11.9148
南翔鎮	-11.9148
嫌疑	-11.9148
天都山	-11.9148
棚樓	-11.9148
譎詐	-11.9148
州在瀘州東南	-11.9148
拓隊	-11.9148
旗藍邊一面	-11.9148
天居兩端	-11.9149
犀角	-11.9149
星日馬	-11.9149
海壖	-11.9149
綺	-11.9149
晉武帝	-11.9149
涵	-11.9149
漏洩	-11.9149
炭灰	-11.9149
犒設	-11.9149
陣可以破	-11.9149
七月七日	-11.915
勝敗之氣	-11.915
沾	-11.915
祁連山	-11.915
彈腿	-11.915
鞅	-11.915
瑯	-11.9151
城可攻	-11.9151
辰星與太白	-11.9151
丁字步	-11.9151
雙鳯	-11.9151
不便於事	-11.9151
攻狄	-11.9151
璠	-11.9151
觜火猴	-11.9151
巡緝	-11.9151
一鑚打開	-11.9151
妖異	-11.9151
旗紅邊一面	-11.9151
結營之地	-11.9151
寸小徑二寸八分	-11.9151
宰相	-11.9152
聽中軍船	-11.9152
主算二十五八門杜主大將	-11.9152
鹽鐵塘	-11.9152
哱囉各起身	-11.9152
毘陵郡	-11.9152
視軍情	-11.9152
駞	-11.9152
焰硝	-11.9153
紆	-11.9153
踊	-11.9153
牕	-11.9153
伊都	-11.9153
鉛錫	-11.9153
刀楯	-11.9153
灣曲	-11.9153
前赤後	-11.9153
相保也	-11.9153
戊寅	-11.9153
席卷	-11.9153
舅	-11.9153
伯魯	-11.9154
疁	-11.9154
丁壯	-11.9154
宗室	-11.9154
畢昴	-11.9154
五月五日	-11.9154
士彥	-11.9154
孫武所謂	-11.9154
鏢鎗	-11.9154
蓍	-11.9154
鷄鳴	-11.9154
安堵	-11.9154
反吟	-11.9155
㸃檢	-11.9155
東行厯	-11.9155
一時之利	-11.9155
一陣之中	-11.9155
各還本	-11.9155
鎮海衛	-11.9155
巳亥	-11.9156
星之使也	-11.9156
齊安門	-11.9156
入郢	-11.9156
砦在軍城	-11.9156
稔	-11.9156
竒正分合	-11.9156
茨	-11.9156
拱手	-11.9156
誰肯	-11.9156
黑闥	-11.9156
朂	-11.9157
緝捕	-11.9157
升麻	-11.9157
虚日鼠	-11.9157
帳幕	-11.9157
攻其所必	-11.9158
梁武帝	-11.9158
劄老營	-11.9158
諳山川	-11.9158
兵船㑹哨	-11.9158
祇	-11.9158
霪	-11.9158
不許擅	-11.9158
不曰戰而曰	-11.9158
流涕	-11.9158
鼓一聲	-11.9159
僅存	-11.9159
璧	-11.9159
述昆州	-11.9159
飢飽	-11.9159
樵蘇	-11.916
唱名	-11.916
掣肘	-11.916
後魏末	-11.916
漕渠	-11.916
伏吟	-11.9161
望彼軍上	-11.9161
分為三隊	-11.9161
應山縣	-11.9161
殘害	-11.9161
烟塵	-11.9161
蜀先主	-11.9161
以彰其	-11.9161
聼㸃皷	-11.9161
赤虹	-11.9161
陸遜	-11.9161
不得已而用之	-11.9162
焚其積聚	-11.9162
王晙	-11.9162
三十里西南至	-11.9162
朝鮮	-11.9162
有鬭心	-11.9162
攝提	-11.9162
長一丈八尺	-11.9162
至崑山縣界	-11.9162
黄帝占曰	-11.9162
管子曰	-11.9162
冠帶	-11.9162
勞佚	-11.9162
將軍死金	-11.9162
站立	-11.9162
一死賊	-11.9162
把總等官	-11.9162
爇	-11.9162
枝葉	-11.9162
挽弓	-11.9162
烏舍曰	-11.9162
附錄	-11.9163
下垂者	-11.9163
前平頭	-11.9164
官吏軍民	-11.9164
日月星辰	-11.9164
整頓	-11.9164
之令得行於	-11.9164
扛	-11.9164
疲弊	-11.9164
較之兵船不如也	-11.9164
主客俱不利各宜固守主聞賊備東北	-11.9164
庚午辛	-11.9165
解擴	-11.9165
都虞候	-11.9165
有憂色	-11.9165
母銃	-11.9165
三十里西北至	-11.9165
倒戈	-11.9165
傅藥	-11.9165
全隊斬	-11.9165
鎗來扎我	-11.9166
吳璘	-11.9166
空隙	-11.9166
以鐵騎	-11.9166
穿鑿	-11.9166
止痛	-11.9166
者由其	-11.9166
移檄	-11.9166
丹徒鎮	-11.9166
浮囊	-11.9167
寧波	-11.9167
明何良臣撰	-11.9167
無所不至	-11.9167
是行也	-11.9167
籌海圖編	-11.9167
宦	-11.9167
把總指揮	-11.9168
房屋	-11.9168
教演	-11.9168
概	-11.9168
縣尹	-11.9168
招誘	-11.9168
楹	-11.9168
墜軍中者	-11.9168
板屋	-11.9168
凶器	-11.9169
姥	-11.9169
邨落	-11.9169
延津	-11.9169
元慶	-11.9169
破陣作鴉聲	-11.9169
杜預	-11.9169
姦雄	-11.917
撫循	-11.917
所乘馬	-11.917
財寳	-11.9171
而居乎	-11.9171
田獵	-11.9172
遏之於	-11.9172
崎	-11.9172
車戰之法	-11.9172
沙灘	-11.9172
之所起起自	-11.9172
噙化	-11.9173
火藥桶	-11.9173
野獸	-11.9173
活動	-11.9174
舊額	-11.9174
内掌印	-11.9174
隠蔽	-11.9174
申包胥	-11.9174
孤虛	-11.9175
審琦	-11.9175
七十里東南至	-11.9175
監督	-11.9176
送納	-11.9176
蒲筏	-11.9176
一陣之間	-11.9177
究問	-11.9177
逰環	-11.9177
自東北而	-11.9177
縱兵擊之	-11.9177
寶寧	-11.9178
呉淞江口	-11.9179
紙砲	-11.9179
期三年	-11.9179
以備緩急	-11.9179
以挑之	-11.9179
何謂練	-11.9179
窮困	-11.9179
㓙將也主	-11.9179
旋風砲	-11.918
七曜	-11.918
皮革	-11.918
日無光	-11.918
號簿	-11.918
通人行	-11.918
鬭艦	-11.918
倭性	-11.9181
松陵	-11.9181
日水時	-11.9181
踰越	-11.9181
捍衛	-11.9182
重疊	-11.9182
兵船一枝	-11.9183
哨捕	-11.9183
丁寧	-11.9183
否耶	-11.9183
鞭箭	-11.9183
砲座	-11.9184
約五百里	-11.9184
險峻	-11.9185
弗克	-11.9185
篇為第	-11.9186
較量	-11.9186
且戰且行	-11.9186
腰間	-11.9186
藝精	-11.9187
蒼龍	-11.9187
神祠	-11.9187
延宗	-11.9187
居四隅	-11.9188
差錯	-11.9188
報平安	-11.9188
十一度	-11.9188
俗傳	-11.919
西陲	-11.919
魚麗陣	-11.9191
不可勝數	-11.9191
重鎧	-11.9191
定舗	-11.9192
渡濠	-11.9192
仆地	-11.9193
針四更船	-11.9193
每五垜	-11.9194
任其事	-11.9194
戎裝	-11.9194
反為所	-11.9194
効死	-11.9194
風發屋折木	-11.9195
咸池	-11.9195
土豪	-11.9195
三十二隊	-11.9195
松郡	-11.9195
劫奪	-11.9196
討突厥	-11.9196
保靖	-11.9196
萬隻	-11.9196
寒尅	-11.9198
濶二丈	-11.9199
千里之外	-11.9199
計六百	-11.92
愛惜	-11.92
姦詐	-11.9201
交㑹之	-11.9202
無所容	-11.9204
如愚見須	-11.9204
巴師	-11.9205
少林僧	-11.9205
弓兵烽	-11.9206
地後衝	-11.9206
别種	-11.921
讓功	-11.9211
寅卯	-11.9212
浙東	-11.9212
堠附	-11.9213
封識	-11.9213
挨隊	-11.9214
從其言	-11.9217
武庫	-11.9218
甚妙	-11.9218
息肩	-11.922
師卦	-11.9224
快利	-11.9225
迷失	-11.9226
不敢逼	-11.9227
叅將不出中宫	-11.9228
主人勝	-11.9232
請於朝	-11.9232
成擒矣	-11.9235
設竒伏	-11.9236
日氣色	-11.9239
節度去西京	-11.9241
鶉火	-11.9243
紫河	-11.9247
犯觜	-11.9248
魁罡	-11.9253
豈特	-11.9281
天潢	-11.9286
上中下三	-11.9289
受降	-11.9289
百二十里西南至	-11.9291
情偽	-11.9295
初契丹	-11.9296
暨陽	-11.9316
戰必不利	-11.9341
輕凌	-11.9363
何也蓋	-11.9369
三千八百	-11.9373
患其不	-11.9377
衝其中	-11.9393
費銀	-11.9394
官㕔	-11.9399
行戰鋒	-11.941
控其要	-11.9412
者爲天	-11.9418
兵貴神速	-11.9434
萬餘衆	-11.9463
功烈	-11.9477
私財	-11.9501
節度去西京二千	-11.9513
級生擒	-11.9513
喜慶	-11.9529
識字	-11.955
十四度	-11.9561
據洛	-11.9591
乘其未	-11.9591
十二斤	-11.9625
放火箭	-11.9661
風后握竒	-11.9662
山麓	-11.9669
漢書曰	-11.9675
十四經曰	-11.972
雪深	-11.9725
砦二十里西	-11.9741
客叅將四宫	-11.9753
五百人為一	-11.9772
星所屬	-11.9777
上取第	-11.9782
兵之勝	-11.9789
鴈行陣	-11.9793
篇第二	-11.9805
李牧	-11.9805
其敝而	-11.9822
職掌	-12.0044
江之水	-12.0065
陣也六花	-12.0082
率大衆	-12.0117
狼牙釘十	-12.0139
四百七十	-12.0183
一萬七千	-12.0267
至西界	-12.0289
濬江	-12.032
軍上雲	-12.0339
國朝洪武二	-12.0364
為主宜固守聞賊備西北第	-12.0391
十步之内	-12.0411
兩八錢	-12.0451
狼牙釘	-12.0485
除之不盡者命起	-12.0487
之日吏神	-12.0495
千六百里	-12.0635
有分地	-12.0697
十五丈	-12.0729
蛟龍	-12.0775
寸六分	-12.0832
至長洲縣界	-12.0842
紫濛川	-12.085
勝克敵	-12.0881
十里之外	-12.0957
月十三日	-12.0967
吉破陣用	-12.1014
月十五日	-12.1025
舉黒旗	-12.1057
月十四日	-12.1134
㕔	-12.1323
李靖六花	-12.1361
㕘將不出中宫始擊將	-12.137
都䕶府	-12.1386
千八百七十	-12.1409
百七十四	-12.1415
湖之水	-12.1455
上中下	-12.1478
叅將不出中宫始擊將	-12.1487
裨	-12.1528
綵淘	-12.1534
岢嵐	-12.1536
侔	-12.1537
特蓬殺	-12.154
各該將領	-12.1544
太平興國	-12.1545
與賊相近	-12.1559
靛	-12.156
和叅將雖	-12.1564
篷蓆	-12.1566
鐺	-12.1569
發一矢	-12.1569
具大皷	-12.1569
萬兵已上大角	-12.1569
薫	-12.157
壳	-12.1573
坤貞	-12.1574
每百斤銀三兩	-12.1577
第二第三指	-12.158
湟	-12.1581
一川之口	-12.1582
蝮	-12.1583
神臂弩	-12.1583
腎	-12.1583
農桑絲折絹一	-12.1584
瞭角嘴	-12.1587
羙	-12.1588
浮萍	-12.1589
天下偃兵	-12.159
枕封侯	-12.1591
瓦亭砦	-12.1592
溧	-12.1593
秣陵	-12.1594
水洛城	-12.1594
則精散於	-12.1594
烟毬	-12.1594
藤蔓	-12.1595
里半北至界首約二十	-12.1596
我搖花鎗乃	-12.1596
駿	-12.1597
潁胄	-12.1597
霖	-12.1597
時庚午	-12.1598
斲	-12.1598
清澗城	-12.1598
而使吾軍之不	-12.1598
聲應管當以	-12.1598
床穰砦	-12.1599
金匱經	-12.1599
甃以甓	-12.1601
膿	-12.1601
􁐍	-12.1601
每當汛期	-12.1601
爍	-12.1601
爺	-12.1601
日至臨前	-12.1601
跽	-12.1602
藕	-12.1602
交趾蘇武州	-12.1602
黛	-12.1602
為之限隔	-12.1602
饑飽勞逸	-12.1602
勔	-12.1602
罇	-12.1602
不可擊若在吾軍	-12.1602
四殺没	-12.1602
寧化軍	-12.1602
新集可擊	-12.1603
鍵	-12.1603
字為合第	-12.1603
阮	-12.1604
右各等分為	-12.1605
豈能飛渡哉	-12.1605
諄諄翕翕徐與人言者失	-12.1605
兀剌赤	-12.1605
館又五十里至	-12.1605
都廵檢使	-12.1605
僇	-12.1606
𤓰儀京口	-12.1606
蹇叔	-12.1606
採菱港	-12.1606
右𨽻金山衛	-12.1606
崔毖	-12.1606
韋孝寛為	-12.1607
捕舵兵夫	-12.1608
大七小七	-12.1608
揣摩	-12.1608
辛未土時壬申癸酉金時甲戌乙亥火時	-12.1608
你劄我我拏	-12.1608
駱駝	-12.1608
鮝	-12.1608
盤山托	-12.1608
約二里西北至軍約	-12.1608
瘞	-12.1608
來巡哨有警飛報總兵遊擊	-12.1608
獨出獨入	-12.1609
仰腕	-12.1609
靈匣經曰	-12.1609
則變發在	-12.1609
劵	-12.1609
埠	-12.1609
將佐三員領	-12.1609
柔逺砦	-12.1609
治坊砦	-12.1609
俎	-12.161
不戒可擊	-12.161
寸厚三分	-12.161
皡	-12.161
艕	-12.161
瘠	-12.161
邁	-12.161
無險可恃即	-12.161
盧子闗	-12.161
臈	-12.161
善騎射	-12.161
常川操練民壯	-12.161
氿	-12.161
華池鎮	-12.161
館又七十里至	-12.161
洪武元年建設弓兵四十名往來巡邏	-12.161
管小砦	-12.161
膽礬	-12.1611
琪	-12.1611
之其術一也	-12.1611
安而動之	-12.1611
阸	-12.1611
三隊合為一隊	-12.1611
𢎞讓	-12.1611
淝	-12.1611
篐	-12.1611
猫竹	-12.1612
步立一人	-12.1612
如環無端	-12.1612
閃賺花鎗上	-12.1612
兵備副使熊公桴	-12.1612
奮不顧身	-12.1612
安北都䕶	-12.1612
路乃間道也	-12.1612
不得使容一營	-12.1612
巡司在府治	-12.1612
此乃匈奴天	-12.1612
爲之奈何起對曰	-12.1612
棓	-12.1612
董摶霄	-12.1612
章猷按先師論著	-12.1612
涎	-12.1612
隗	-12.1613
都護府	-12.1613
商鞅	-12.1613
戎瀘	-12.1613
嬰兒	-12.1613
臍	-12.1613
風汛時月	-12.1613
也太宗曰朕	-12.1613
灰瓶	-12.1613
箒	-12.1613
九十九泉	-12.1613
其衆可合而不可離可用而不可疲	-12.1613
栒	-12.1613
陁	-12.1613
汧	-12.1614
縂	-12.1614
闗鍵	-12.1614
分彼己	-12.1614
躬擐甲胄	-12.1614
蓍龜	-12.1614
剗	-12.1614
宜坤州	-12.1614
蝦蟇	-12.1614
黜	-12.1614
其間港汊浩繁岐路錯雜不可勝	-12.1614
凹	-12.1614
募義勇	-12.1614
鍼	-12.1614
䇿之上也	-12.1615
優恤	-12.1615
威逺砦	-12.1615
宋曽公亮等撰邊防	-12.1615
屈剌	-12.1615
杳	-12.1615
眉間有	-12.1615
羊狀砦	-12.1615
團騎兵陣於	-12.1615
孟子所謂	-12.1615
害良善	-12.1615
旃	-12.1615
晡	-12.1616
瀝	-12.1616
遊兵行哨竒兵設伏輕兵出襲焉斯可矣	-12.1616
月戊辰	-12.1616
平戎萬全陣	-12.1616
大戰客勝	-12.1616
弓兵民壯	-12.1616
愍	-12.1616
玦	-12.1616
胎	-12.1616
駐蹕	-12.1616
䦨	-12.1616
沿途	-12.1616
綑打一百割耳	-12.1616
之地也彼則不能	-12.1616
年月日某謹禡于	-12.1616
貢舶	-12.1616
蹉	-12.1616
京房易傳曰	-12.1616
砦在武崗縣界南至縣	-12.1616
絺疵	-12.1616
官兵擊却之	-12.1616
心怖可擊	-12.1617
令軍中曰有以軍事諫者死秦軍	-12.1617
去邯鄲三十里	-12.1617
疽	-12.1617
輅轤谷	-12.1617
㝠	-12.1617
分定信地	-12.1617
排叉柱	-12.1617
無中生有	-12.1617
劉河七鴉	-12.1617
炊爨	-12.1617
鬭伯比	-12.1617
黄窪港	-12.1617
五名帶馬一匹住守瞭望	-12.1617
平壤城	-12.1617
温酒調下	-12.1617
押官一人隊頭	-12.1617
日終不見	-12.1617
昻頭髙	-12.1617
璃	-12.1617
視其轍登軾而望之曰可矣遂逐齊師既	-12.1617
長五丈毎條	-12.1618
辭不受	-12.1618
夲	-12.1618
民而民無不	-12.1618
齊人三鼓劌曰可矣齊師敗績公	-12.1618
仁杲	-12.1618
曩	-12.1619
症	-12.1619
划	-12.1619
駱	-12.1619
醎	-12.1619
蓑	-12.1619
譖	-12.1619
聯	-12.1619
色明客勝月	-12.1619
府守城官兵考	-12.1619
曰是不然	-12.1619
繕完	-12.1619
士卒迷惑	-12.1619
砦在縣東一程	-12.1619
者勝候也	-12.1619
若敵先来攻	-12.1619
賊攻南滙所	-12.1619
早晚	-12.1619
屹	-12.1619
僉事董公邦政	-12.1619
告以利害	-12.1619
臘	-12.1619
發屋折木	-12.1619
孽	-12.162
或彼不	-12.162
水陸並進	-12.162
誹	-12.162
使賊不測多少又以人馬逼戰刀不如棒	-12.162
大將軍中營建出	-12.162
海防養兵之銀	-12.162
牐版	-12.162
荆軻	-12.162
方七宿共	-12.162
舒鳩	-12.162
蹴	-12.162
賊將李歸仁	-12.1621
李左車	-12.1621
鄢陵之	-12.1621
之所致也	-12.1621
本路置州兵及朝廷遣禁	-12.1621
薛延陁	-12.1621
柏山口鋪	-12.1621
金明砦	-12.1621
丐	-12.1621
報賊情	-12.1621
眯	-12.1621
購	-12.1621
囉囉	-12.1621
實擊虚	-12.1621
新舊二	-12.1621
詳著各圖説於後	-12.1621
諧	-12.1621
二年癸丑閏三月賊	-12.1621
太倉鎮海二衛	-12.1621
夾渭而軍	-12.1621
床子弩	-12.1621
形者我先居之必	-12.1621
玉堂	-12.1621
總督侍郎胡公宗憲	-12.1621
哉王之問也	-12.1621
山路闊處約一百步狹處約一十步	-12.1621
鍫	-12.1621
髙宗占曰月	-12.1621
攤	-12.1622
者聚爲一卒名曰	-12.1622
聚不散	-12.1622
部署以下兵官	-12.1623
繕甲兵	-12.1623
無不一當百	-12.1623
韉	-12.1623
險阻可恃	-12.1623
仲尼	-12.1623
千人中擇	-12.1623
子午卯酉	-12.1623
將婁宇	-12.1623
尺闊六尺	-12.1623
束部伍	-12.1623
桓𤣥	-12.1623
獄囚	-12.1623
百户二員	-12.1623
秀州塘	-12.1623
鬐	-12.1623
一總訣歌	-12.1623
吳越之咽喉	-12.1623
曰某乙等	-12.1623
犀兕	-12.1623
與之安與之危	-12.1623
辯太乙統宗寳鑑諸葛亮	-12.1623
陣數動移	-12.1623
兵馬鈐轄	-12.1623
䑓	-12.1624
鈞聲以夜軍之	-12.1624
人也作事	-12.1624
甜	-12.1624
掩映	-12.1624
青崗峽	-12.1624
亂軍引勝	-12.1624
下營擇地	-12.1624
娱	-12.1624
我可以往彼可以來	-12.1624
授子房	-12.1624
裏壕垠上	-12.1624
乃解去	-12.1624
以軍法處治	-12.1624
巍	-12.1624
揮戈	-12.1624
杆二百輛共	-12.1624
澌	-12.1624
兔毛川	-12.1624
州至㑹野州	-12.1624
者傷王之	-12.1624
泝	-12.1625
窩舖二十六座雉堞	-12.1625
副佩刀八分一萬口陌刀二分	-12.1625
卧帳中	-12.1625
古道口鋪約	-12.1625
楚師必遁晉人從之楚師宵	-12.1625
咄	-12.1626
布政司	-12.1626
楊家路	-12.1626
豚	-12.1626
磚石弓弩箭	-12.1626
覷	-12.1626
誼	-12.1626
譜	-12.1626
劈	-12.1626
叱咤	-12.1626
建議築堡	-12.1626
咸平中陷今為偽	-12.1626
大國三軍	-12.1626
廕	-12.1626
政不立	-12.1626
犬吠	-12.1626
畚	-12.1626
綦	-12.1626
義軍弓箭手	-12.1626
者豈非其機在	-12.1626
膩	-12.1626
頼之徒	-12.1626
駑	-12.1626
三十七萬五千	-12.1626
伊實特穆爾	-12.1626
晉末妖賊孫恩	-12.1626
無曠㳟	-12.1626
結賛曰清水	-12.1626
里至州四百七十	-12.1626
鮫	-12.1626
襲擊之此	-12.1626
黥	-12.1626
柩	-12.1626
者人有其一皆可使之也	-12.1626
嗚	-12.1626
丫	-12.1627
盪各兵	-12.1627
醮	-12.1627
建隆中	-12.1627
戰棚上下	-12.1627
拇	-12.1627
㦸楯	-12.1627
不容於不	-12.1627
濳	-12.1627
驕矜	-12.1627
以生牛革	-12.1627
圍地則謀	-12.1627
宫於五音屬	-12.1627
西軍亦鼓而舉	-12.1627
隋漢王諒作亂遣其	-12.1627
商販	-12.1627
諉	-12.1627
霑	-12.1628
不暇可擊	-12.1628
珉	-12.1628
定訖以善弧矢者	-12.1628
晉將遁矣	-12.1628
登髙丘	-12.1628
部分其合圍地虞候先擇	-12.1628
馬軍八十隊	-12.1628
西魏將楊忠	-12.1628
餘八千七百五十人	-12.1628
黄旗為圓陣	-12.1628
袂	-12.1628
敞	-12.1628
無乃不可乎	-12.1628
嗔	-12.1628
圯橋	-12.1628
漢王患之請割滎陽以西	-12.1628
秦始皇	-12.1628
氓	-12.1628
溳	-12.1628
秋毫	-12.1628
糶	-12.1628
軍一千一百二十名	-12.1628
不習兵所謂擁市人而戰不足圖也	-12.1628
匾擔沙	-12.1628
團出營	-12.1628
建寧砦	-12.1628
杠	-12.1628
簽	-12.1628
蜂蠆有毒	-12.1628
譲	-12.1628
路道之正也	-12.1628
阱	-12.1628
以應之次東軍鼓而舉	-12.1628
青旗為直陣	-12.1628
下鼻浦	-12.1629
東南戰利西北利銳陣	-12.1629
客見陣利先動出軍宜東北戰利西南	-12.1629
主勝聞賊備西南奇兵西南伏兵利	-12.1629
旰	-12.1629
栿	-12.1629
籓	-12.1629
船五隻	-12.1629
不得不與我戰者攻其所必救也	-12.1629
陣或數十人或百人	-12.1629
袒	-12.1629
俠	-12.163
慌	-12.163
薳	-12.163
藍汁	-12.163
城上守禦人	-12.163
悽	-12.163
閩浙	-12.163
碟	-12.163
臂使指	-12.163
遣其子	-12.163
􁇣	-12.163
巔	-12.163
蝠	-12.163
醴	-12.163
公孫述	-12.163
旗即方為	-12.163
膁	-12.163
蘆荻	-12.163
鑊底潭	-12.163
長二尺四寸	-12.163
黄丹一	-12.163
丘阜	-12.163
乳香	-12.163
枕而卧	-12.163
河莊閘	-12.163
洞庭東山	-12.163
人何得而稱	-12.163
兗	-12.163
嶮	-12.163
曰糧少	-12.163
溟渤	-12.163
結陣以待之	-12.163
諭以逆順	-12.163
貢獻	-12.163
進三步	-12.163
鄧曼	-12.163
鑛	-12.163
馭戎嚴整	-12.163
不足以理則用	-12.163
二两半	-12.163
各府州縣	-12.163
噲	-12.163
客勝聞賊備西北奇兵西北伏兵	-12.163
客大小將挾主大將	-12.163
嵗黄幡在	-12.163
第二角聲動前行向左後行向右兩端	-12.163
自古之政也	-12.163
至火山軍	-12.163
致祭于	-12.163
鄉設弓兵三十名往來巡邏	-12.163
醬	-12.163
􁌙	-12.163
勍	-12.163
氛	-12.163
一局甲子丙子戊子庚子壬子太乙在	-12.163
咽	-12.163
冢	-12.163
罏	-12.163
泯	-12.163
能而示之不能用而示之不用	-12.163
項王為人	-12.163
僣	-12.163
不得方軌騎不得成列	-12.163
二局乙丑丁丑己丑辛丑癸丑太乙在	-12.163
明劉寅撰	-12.163
留都之門户	-12.163
蒲坂	-12.163
走大梁	-12.163
錦繡	-12.163
桔柣之門	-12.163
汶	-12.163
一尺九寸	-12.1631
成敗之機	-12.1631
堯舜	-12.1631
白溝河	-12.1631
翹	-12.1631
暝	-12.1631
洞庭西山	-12.1631
閭閻	-12.1631
大山之端	-12.1631
怏	-12.1631
羯	-12.1631
鴨子河	-12.1631
麋鹿	-12.1631
之主能以	-12.1631
五局戊辰庚辰壬辰甲辰丙辰太乙在	-12.1631
公亮等	-12.1631
分以上責成	-12.1631
前禦其前後禦其後左防其左右防其右	-12.1631
千戸所營在	-12.1631
扁身中攔	-12.1631
搥	-12.1631
新門砦	-12.1631
景徳初	-12.1631
月犯熒惑	-12.1631
栁泉鎮	-12.1631
瑒	-12.1631
矛盾	-12.1631
計神子此局太乙助客	-12.1631
諸侯救鄭楚師夜遁鄭人將奔桐	-12.1631
道自西京	-12.1631
鐏	-12.1631
陣圖黄帝五行之	-12.1631
上扇桄二	-12.1632
東北竒兵東北伏兵利	-12.1632
長一尺八寸闊五寸厚三	-12.1632
木馬子	-12.1632
無地分兵	-12.1632
構	-12.1632
譙道福	-12.1632
造浮梁	-12.1632
六局己巳辛巳癸巳乙巳丁巳太乙在	-12.1632
守潼闗	-12.1632
者一舟之人皆	-12.1632
達奚長儒	-12.1632
卬	-12.1632
佯北勿從	-12.1632
倚仗	-12.1632
文篇第七十	-12.1632
東至涇州	-12.1632
溝壍	-12.1632
隨機應變	-12.1632
無策矣	-12.1632
卞	-12.1633
名山大川	-12.1633
唐龍鎮	-12.1633
撻	-12.1633
敵樓戰棚	-12.1633
榜	-12.1633
脹	-12.1633
郭知運	-12.1633
黄巾賊	-12.1633
以武剛車自環為營	-12.1633
圍之數重	-12.1633
孔彦舟	-12.1633
府疆界考	-12.1633
游兵行哨竒兵設伏輕兵出襲焉斯可矣	-12.1633
為今之計莫若	-12.1633
砦在縣東南一程	-12.1633
碓	-12.1633
至新林	-12.1633
蕭同知	-12.1633
郭元振	-12.1633
鋌	-12.1633
開逺砦	-12.1633
鬃	-12.1633
徑一尺二寸仰斜三	-12.1633
二寸闊五寸厚三	-12.1633
陣未整	-12.1633
重賞之下必有勇夫	-12.1633
北至界首嶽嶺路約	-12.1633
墉	-12.1633
宣言曰吾	-12.1633
澶	-12.1633
中哨百户	-12.1633
蕭瑀	-12.1633
退無遽走	-12.1633
局丙寅戊寅庚寅壬寅甲寅太乙在	-12.1634
座雉堞三千	-12.1634
森	-12.1634
五了浜	-12.1634
呉子謂	-12.1634
开	-12.1634
辯武經總要	-12.1634
駃	-12.1634
先擊祝阿自旦攻城未	-12.1634
嚇	-12.1634
所當之國	-12.1634
敵所愛	-12.1634
浹	-12.1634
倉廩	-12.1634
副偏將	-12.1634
在月北	-12.1634
府土賊要害	-12.1634
斬首萬級	-12.1634
斬馘	-12.1634
款	-12.1634
漢果數挑戰楚軍不出	-12.1634
狐狸	-12.1634
白龍蕩	-12.1634
盤詰奸細	-12.1634
肄	-12.1634
賦税	-12.1634
連坐有差	-12.1634
酧	-12.1634
乾興砦	-12.1634
依依利主見陣利後動出軍宜	-12.1634
厮敦	-12.1634
孱	-12.1634
肅逺砦	-12.1634
葛隆鎮	-12.1634
虎丘山	-12.1634
赫連勃勃	-12.1634
鍜	-12.1634
者聚爲一卒	-12.1634
祏	-12.1634
南戰利正北利圓陣舉黃旗雲氣從南來	-12.1634
叅將發依依利主見陣利後動出軍宜正	-12.1634
尺自上扇	-12.1634
一角令其衆得奔歸鍾城	-12.1635
程遐等	-12.1635
背水陣	-12.1635
以風潮為主	-12.1635
其卒自行自止其兵或縱或横其追	-12.1635
姜維	-12.1635
恐不及見利恐不得	-12.1635
更戍外又領鄉軍義勇	-12.1635
瘁	-12.1635
算和大將發利為主見陣利後動出軍宜	-12.1635
統成一大陣	-12.1635
延陁	-12.1635
之日夜半生	-12.1635
僨	-12.1635
蒯	-12.1635
及丁未針	-12.1635
對他手	-12.1635
各該地方	-12.1635
煖	-12.1635
湯璹	-12.1635
牌三十六三分一更傳牌七餘一百七十	-12.1635
處暑七月中	-12.1635
謐	-12.1635
人隊失	-12.1635
勁悍	-12.1635
堅壁固守	-12.1635
據為巢穴	-12.1635
楓涇	-12.1635
百發百中	-12.1635
賊衆我寡	-12.1635
其西路也由	-12.1635
寅卯辰時	-12.1635
州七百五十里	-12.1635
欽定四庫全書守城録卷	-12.1635
氣所臨為	-12.1635
沙門島	-12.1635
玘	-12.1635
瓊管	-12.1635
紇	-12.1635
太乙在二	-12.1636
原繁洩駕以三軍軍其前使曼伯與子元	-12.1636
軍軍其後燕人畏鄭三軍而不虞制人	-12.1636
逺近險易	-12.1636
匈奴大入	-12.1636
柘林川沙	-12.1636
陰主客算	-12.1636
雙鳳	-12.1637
以繩繫	-12.1637
陸門六座	-12.1637
武備廢弛	-12.1637
知府方亷	-12.1637
駐官兵以為守禦之計其餘亦惟以	-12.1637
和項王	-12.1637
孟瀆包港	-12.1637
弧矢	-12.1637
張步據齊地	-12.1637
惕	-12.1637
擯	-12.1637
晦朔	-12.1637
有進死	-12.1637
漢將耿弇討	-12.1637
砦守之東至	-12.1637
肌肉	-12.1637
風雨雪霧	-12.1637
一工銀三分	-12.1637
六盤山	-12.1637
啼	-12.1637
坐喝曰	-12.1637
宸	-12.1637
方圓曲直鋭	-12.1637
獠甘	-12.1637
讙	-12.1637
馬超韓遂	-12.1637
鴨緑江	-12.1637
㬋	-12.1637
主勝聞賊備東南竒兵東南伏兵利	-12.1637
部長一里二百七十	-12.1637
二尺七寸	-12.1637
張良陳平	-12.1637
旁縣詡因其兵散日夜	-12.1637
不可不厚也	-12.1637
廊廟之	-12.1637
狐鳴	-12.1637
覘知之	-12.1637
北豫州刺史	-12.1637
舉朱旗	-12.1637
郵亭	-12.1637
隊如偃月形為	-12.1637
東南客聞賊備東北第四十	-12.1638
餌兵勿食	-12.1638
不報者	-12.1638
大將迫主客俱不利各宜固守主聞賊備	-12.1638
揑	-12.1638
一千四百四十	-12.1638
箭三𤼵	-12.1638
婪	-12.1638
䂓	-12.1638
觸類而長	-12.1638
吭	-12.1638
源之水	-12.1638
漢雜處	-12.1638
菽	-12.1638
販鹽	-12.1638
懇	-12.1638
饉	-12.1638
驩	-12.1638
佯不知而	-12.1638
出垜外	-12.1638
匏	-12.1638
可疑之人	-12.1638
啞	-12.1638
外岡鎮	-12.1638
庄	-12.1638
廓清	-12.1638
無雲而雨	-12.1638
獨樹營	-12.1638
班猫	-12.1638
相為聲援	-12.1638
行法人咒曰	-12.1638
訝	-12.1638
間其君臣	-12.1638
香蘭	-12.1638
勇夫水兵	-12.1638
天聖砦	-12.1638
官兵禦却之	-12.1638
挹注	-12.1638
能柔能剛	-12.1638
長敎成合之	-12.1638
韋雲起	-12.1638
騎下臨平野使士卒目見旌旗耳聞	-12.1638
石五斗	-12.1639
戈㦸	-12.1639
八十里北至契丹界無鋪東北至	-12.1639
千人千人學戰	-12.1639
此兵之利	-12.1639
武車驍騎	-12.1639
娶	-12.1639
曰天下竒才	-12.1639
酋豪	-12.1639
蝎尾	-12.1639
巴城湖	-12.1639
蓉	-12.1639
守門人	-12.1639
澚	-12.1639
賊乃遁去	-12.1639
摺	-12.1639
琴	-12.1639
作猫聲	-12.1639
溝瀆	-12.1639
飛鶚	-12.1639
春秋時晉師伐	-12.1639
悠	-12.1639
臨朐	-12.1639
九局壬申甲申丙申戊申庚申太乙在	-12.1639
八局辛未癸未乙未丁未己未太乙在	-12.1639
斬首四十餘級	-12.1639
莫重於	-12.1639
褚	-12.1639
轝	-12.1639
麴	-12.1639
十一局甲戌丙戌戊戌庚戌壬戌太乙在	-12.1639
堯叟	-12.1639
孝景之	-12.1639
怯懦	-12.1639
搖櫓	-12.1639
昱	-12.1639
煦	-12.1639
管山後夷人丁口	-12.1639
者必能使人	-12.1639
至中央土河	-12.1639
與公等	-12.1639
陣之類也	-12.1639
零者大將握之	-12.1639
鴦	-12.1639
客算二十五八門杜客大將	-12.164
四百一十六	-12.164
不利為客宜固守聞賊備東北第	-12.164
喙	-12.164
苻丕	-12.164
𥜗	-12.164
狸	-12.164
十二局乙亥丁亥己亥辛亥癸亥太乙在	-12.164
不利為客宜固守聞賊備正	-12.1641
虚實二壘	-12.1641
陽縣界一百	-12.1641
適於用	-12.1641
淯	-12.1641
嬰城自守	-12.1641
相依附	-12.1641
十局癸酉乙酉丁酉己酉辛酉太乙在	-12.1641
國失政	-12.1641
壹	-12.1641
奎婁	-12.1641
室韋	-12.1641
朦	-12.1641
利一害	-12.1641
塟	-12.1641
暐	-12.1641
有懼色	-12.1641
棼	-12.1641
步立標標眼大	-12.1641
歪	-12.1641
氣如雙蛇	-12.1641
與賊相遇	-12.1641
之盡獲其	-12.1642
淳于瓊	-12.1642
戰無不勝	-12.1642
覊	-12.1642
𣅿	-12.1642
㸃睛深而	-12.1642
琨	-12.1642
鏐	-12.1642
辯太乙統宗寳鑑	-12.1642
船旗心用色邊用色帶用色	-12.1642
前後左右中五	-12.1642
南丹州	-12.1642
衲	-12.1642
泗涇	-12.1642
耨	-12.1642
知縣祝乾壽	-12.1642
哥	-12.1642
嚮𨗳	-12.1642
翁紹宗	-12.1642
七十二里北至	-12.1642
不可無一焉	-12.1642
公輸般	-12.1642
分吾良卒密有所伏敵	-12.1642
四頭八尾觸處為首敵衝其中兩頭皆救	-12.1642
卓起雙燈	-12.1642
安東都護	-12.1642
居艮為	-12.1642
於中途	-12.1642
鍾管長	-12.1642
海中占曰	-12.1642
理故耐	-12.1642
自北門出	-12.1642
言善惡如其言	-12.1642
者人有其一不可使	-12.1643
鞴	-12.1643
圍師必闕	-12.1643
大厯中	-12.1643
浴	-12.1643
客算短大將	-12.1643
檣	-12.1643
孝順洋	-12.1643
樽	-12.1644
葭葦	-12.1644
翼火蛇	-12.1644
各得其所	-12.1644
共該銀	-12.1644
埃塵	-12.1644
非戰船也	-12.1644
孤之罪也	-12.1644
宋曽公亮等撰制度	-12.1644
有殺氣	-12.1644
筌蹄	-12.1644
鍋一口	-12.1644
齊之技擊	-12.1644
綾	-12.1644
膏腴之地	-12.1644
遨	-12.1644
隋文帝	-12.1644
入月三日	-12.1644
扞禦	-12.1644
水次倉	-12.1644
猾夏	-12.1644
者欲因其	-12.1644
鐮	-12.1644
貨賂	-12.1644
無所往則	-12.1644
冉	-12.1644
君命有所不受	-12.1644
挫衂	-12.1644
挾主叅將	-12.1644
瑩	-12.1644
一當百	-12.1644
一十二面	-12.1645
亂礁洋	-12.1645
不傳之秘	-12.1645
不戰而屈人之兵	-12.1645
長八尺五寸	-12.1645
東抵海	-12.1645
圖一首張煜之所演也	-12.1645
暈而珥	-12.1645
逃亾	-12.1645
雲如車輪	-12.1645
欽定四庫全書武編後集卷	-12.1645
藝文志	-12.1645
其可得乎	-12.1645
加仲神在門	-12.1645
彷	-12.1645
燈燭	-12.1645
蜃	-12.1645
踏空版内	-12.1645
難與爭鋒	-12.1645
霖雨	-12.1645
卹	-12.1645
孔明之八陣	-12.1645
若築此堡	-12.1645
路者居	-12.1645
馬蹟大衢	-12.1645
賊之來也	-12.1646
枷	-12.1646
盡獲之	-12.1646
唐朱泚之亂李	-12.1646
屈瑕	-12.1646
軍禮也	-12.1646
李衛公問對	-12.1646
日戌時	-12.1646
芒硝	-12.1646
殛	-12.1646
迍	-12.1646
新竈沙宋信嘴	-12.1646
離而為八	-12.1646
毗杖節	-12.1646
為三覆以待之	-12.1646
蔥	-12.1646
漢王諒	-12.1646
焉支山	-12.1646
其國彌	-12.1646
千百年	-12.1646
禀訖	-12.1647
紿之曰	-12.1647
勢者可以自	-12.1647
嫉賢	-12.1647
檝	-12.1647
崤	-12.1648
腹内險要	-12.1648
儼	-12.1648
千户所營在衞治西	-12.1648
知縣楊旦	-12.1648
二十二三風二十七八風	-12.1648
司馬文王	-12.1648
回翔	-12.1648
杜伏威	-12.1648
箸	-12.1648
聞之大喜	-12.1648
臀	-12.1648
以廉隅二法	-12.1648
僧珍	-12.1648
刊	-12.1648
有干令犯禁者揭之免於罪知而弗揭全	-12.1648
桓文之節制	-12.1648
因風縱火	-12.1648
陂澤	-12.1648
秦宗權	-12.1648
乘勝逐北	-12.1649
天或圓而不動	-12.1649
聼吹哱囉起身	-12.1649
贅疣	-12.1649
勝負未决	-12.1649
引而向	-12.1649
武王伐紂	-12.1649
莫先於	-12.1649
佐貳官	-12.1649
四獸之陣	-12.1649
爻	-12.1649
鄞	-12.1649
𢎞農	-12.1649
休戚	-12.1649
曠日持久	-12.1649
秦之鋭士	-12.1649
置樓謂之	-12.1649
荀林父	-12.1649
勝不相讓敗不相救	-12.165
蒲津	-12.165
軍上有氣	-12.165
梁天監	-12.165
倉猝	-12.165
一體連坐	-12.165
至常熟之南門	-12.165
巡徼	-12.1651
李綱曰	-12.1651
鬼金羊	-12.1651
攙越	-12.1651
蘇軾	-12.1651
陵寢	-12.1651
宿直日	-12.1651
樸	-12.1651
白蜆	-12.1651
旦暮	-12.1651
汝輩	-12.1651
索一十條	-12.1651
葆	-12.1651
鼓舞之	-12.1651
𣙜	-12.1651
唐行鎮	-12.1651
看但見舉	-12.1651
讋	-12.1651
如率然率然者常山	-12.1651
蛇也擊其首則尾至擊其尾則首至	-12.1651
之變不可勝	-12.1652
燈一盞	-12.1652
追奔逐北	-12.1652
遺址	-12.1652
大戰流血	-12.1652
如羣羊	-12.1652
曰今兵少不敵	-12.1652
渙	-12.1652
驀	-12.1652
鳴金三聲	-12.1652
之獸也曰	-12.1652
儔	-12.1652
卦也曰	-12.1652
梨花擺頭	-12.1652
城在縣西	-12.1652
帽	-12.1653
賂誘	-12.1653
不利宜固守聞賊備西南第三十	-12.1653
今之時將	-12.1653
用武之地	-12.1653
在月背	-12.1653
勢不兩立	-12.1653
做飯	-12.1653
一伍一隊	-12.1653
春秋戰國	-12.1653
炸	-12.1653
驚惶	-12.1653
屈虹	-12.1653
或又問	-12.1653
敗軍之氣	-12.1653
湴	-12.1653
王反國	-12.1653
者我用其	-12.1653
五行傳曰天雨	-12.1653
某日教	-12.1653
蛇貫日	-12.1653
而速去	-12.1653
杪	-12.1654
慙	-12.1654
醒	-12.1654
團練鄉兵	-12.1655
委指揮一員	-12.1655
機不可失	-12.1655
何色旗	-12.1655
有名無實	-12.1655
犴	-12.1655
閑武藝	-12.1655
却以左手打開右手打	-12.1655
府屬六縣夏税小麥	-12.1655
柴薪	-12.1655
為得計	-12.1655
函谷	-12.1655
犯之而破	-12.1655
端倪	-12.1655
者聚為一卒名曰	-12.1655
膠漆	-12.1655
埒	-12.1655
因山為	-12.1655
詘	-12.1656
乾隆四十五年	-12.1656
其故態	-12.1656
十不當一	-12.1656
運斗樞曰	-12.1656
天下而王之	-12.1656
躪	-12.1656
乾歸曰益州	-12.1656
曦	-12.1656
荆襄	-12.1656
辛亥	-12.1656
僭	-12.1657
袁術	-12.1657
練土著	-12.1657
鑵	-12.1657
舉監生員	-12.1657
氐土貉	-12.1657
致仕	-12.1657
哨官哨長	-12.1657
三八二十四	-12.1659
狹處三	-12.1659
嵌	-12.1659
倍道旋師	-12.1659
引兵東下	-12.1659
推轂	-12.1659
苪	-12.1659
因糧於敵	-12.1659
爵祿	-12.1659
不可居也	-12.1659
宫本宫風来	-12.1659
萬之衆侵伐之地不及五	-12.1659
肉袒	-12.1659
不過五五	-12.166
天皇若與	-12.166
窑	-12.166
無窮之變	-12.166
曲而向	-12.166
驅市人	-12.166
謝艾	-12.166
因地制形	-12.166
李嗣昭	-12.166
葵	-12.166
剏	-12.166
取於民	-12.166
救敗之師	-12.166
鑾	-12.166
其國豈不	-12.166
十步立標標眼如	-12.166
百餘萬石	-12.1662
愾	-12.1662
主軍勝客軍	-12.1662
唐裴行儉	-12.1662
租税	-12.1662
光仕	-12.1662
也使敵不可	-12.1663
圏裏	-12.1663
若干人為	-12.1663
叭喇唬	-12.1663
璽	-12.1663
長四尺闊	-12.1663
紘	-12.1663
聼摔鈸響	-12.1663
不患無	-12.1663
种	-12.1663
宿值日	-12.1663
雖小而	-12.1664
許諾	-12.1664
銓	-12.1664
計神丑此局	-12.1664
蟹	-12.1664
悴	-12.1664
如意車	-12.1664
水戰之具	-12.1664
舵樓	-12.1664
或專取於	-12.1664
皷譟而進	-12.1664
紀綱	-12.1665
有大風雨	-12.1666
設備之大畧也	-12.1666
笠澤	-12.1666
諍	-12.1666
五星守犯	-12.1666
殻	-12.1666
彩畫	-12.1666
為熟一試	-12.1666
頭人身長六尺五寸面	-12.1666
窮匱	-12.1666
鐵原砦	-12.1667
麞	-12.1667
恁是如何	-12.1667
孟康曰	-12.1667
祝耼	-12.1667
曲折相	-12.1669
每服一錢	-12.1669
囑	-12.1669
小陽汛	-12.1669
艌	-12.1669
天乙貴人	-12.1669
十八僧	-12.1669
而無膽者臨敵	-12.1669
稻	-12.1669
縈	-12.1669
司馬仲逹	-12.167
人開閉	-12.167
滚剃	-12.1671
爨	-12.1672
軍行在路	-12.1673
黄帝之陣	-12.1673
層又退	-12.1673
凱旋	-12.1673
前右二哨	-12.1673
頭人身長四尺五寸面	-12.1673
見塵起	-12.1673
而訓之	-12.1674
各分信地	-12.1674
榮衰安怨成壞	-12.1674
韓曺	-12.1674
長塘湖	-12.1675
莊賈	-12.1675
霜雪	-12.1675
阮逸	-12.1675
半濟而擊	-12.1677
五倍子	-12.1677
尺一東起	-12.1677
鐵篐	-12.168
具篇則取為	-12.168
正謂此	-12.1681
之精也居大	-12.1681
拍位	-12.1681
未易猝	-12.1682
官二員	-12.1682
二客大將二	-12.1682
正西戰利正東利方陣	-12.1683
艎	-12.1684
星者出正	-12.1684
吃曩	-12.1684
吉將也主	-12.1684
而膽不充則	-12.1685
此十者	-12.1686
囚主客俱不利各宜固守主聞賊備	-12.1687
將可以當	-12.1688
鮑叔	-12.1688
彦超	-12.1691
桿高一丈	-12.1694
有戰功	-12.1695
上中下上中下	-12.1696
船易馬	-12.1706
焉有因	-12.1706
至横山	-12.1707
為謀主	-12.1709
先為不可勝以待敵之可勝	-12.1709
靛青	-12.1711
所墜之	-12.1711
無刑破	-12.1712
雖衆其將可走	-12.1712
州北百里	-12.1715
三十八名	-12.1716
路行立	-12.1717
脚跟	-12.1722
如壊山	-12.1739
行敎之	-12.1756
秋糧米一十	-12.1772
州於將為	-12.1781
至檀州	-12.1787
時若雲	-12.1792
口鋪北至界首	-12.1807
長某人	-12.182
兵鎮守	-12.1821
兵一枝於此	-12.1839
列陣以待	-12.1861
堅壁不與	-12.1901
北至界首一十	-12.1908
日上神	-12.1924
戰佯不	-12.1925
臯蘭	-12.1956
里其鋪有蕃漢十人守把東南至保州約	-12.1962
入軫兵	-12.1993
無首從同罪	-12.2021
砦太平興國中築	-12.2022
竹籖	-12.203
十一經曰	-12.2031
事時加辰未鳴其上	-12.2038
座雉堞一千	-12.2044
至蕃界十五里	-12.2052
斤四兩	-12.2054
國之利器	-12.2076
一丈七尺	-12.2082
沙下脚	-12.2102
戰利西南利直陣舉青旗雲氣從東北來	-12.2114
十里官塘	-12.2133
篇第七十	-12.2156
方之宿	-12.2161
六尺五寸	-12.2161
冬之月	-12.2241
五尺七寸	-12.2278
年移置	-12.2301
可操者	-12.2304
暈珥	-12.2388
城之東南	-12.241
響一聲	-12.2439
寸七分	-12.2628
百六十里至	-12.2652
迎謁	-12.2845
得賊城	-12.2861
可制也	-12.2901
甲己之日	-12.2959
州四百七十里	-12.3131
善將者	-12.3174
大將雖格㕘將發	-12.3191
募敢死	-12.3254
將卒不	-12.3352
百七十里南至	-12.3386
擐	-12.3441
咒曰唵唵	-12.3484
至西州	-12.3624
秦伐韓	-12.3878
唐垂拱	-12.3962
星篇第八十	-12.3978
巳午未時	-12.4003
二兩四錢	-12.43
至女真界	-12.4302
調度守城内有選鋒軍餘土兵共三百名	-12.4345
烏油靴跨	-12.4368
太平興國中築在	-12.4411
分影長	-12.443
籖	-12.4442
戰自辰至	-12.445
契丹國舊地	-12.4462
百八十八	-12.4521
咸平初	-12.4566
由白家橋	-12.4573
嘉靖三十四年	-12.4641
宫發主㕘將	-12.4645
主算三十二長	-12.4645
億	-12.4704
魚臺口	-12.471
䜟	-12.4743
利直陣舉青旗雲氣從東北來	-12.4778
唐開元	-12.4813
月將加時	-12.4823
江豚油	-12.483
弩能射	-12.4849
汜	-12.487
者不知其伐吾	-12.4878
至二十兩止	-12.4879
無敵神牌	-12.4884
莆	-12.4885
四為正四為竒	-12.4886
㫁腸草	-12.4887
之計可謂能	-12.4889
矣而窮於	-12.4889
也敵意吾	-12.4891
氣罰見	-12.4891
油糧戸	-12.4897
堅城未	-12.4897
拌	-12.4899
陽起石	-12.4901
貞坤悔為	-12.4901
利為主見陣利後動出軍宜	-12.4902
碗口銃	-12.4905
螋	-12.4907
蠼	-12.4907
痒	-12.4907
萬之衆而天下莫當者誰曰	-12.4907
賊界相逢	-12.4908
江靣約濶	-12.4909
尺五寸七分	-12.491
均則不能相	-12.491
鬢	-12.491
韓信擊趙	-12.4911
礶	-12.4912
㸃過吹大角引第	-12.4912
土著之民	-12.4912
馲駞㑹	-12.4912
通泰二州	-12.4914
石昌鎮	-12.4914
至熟戸北至	-12.4914
何歟曰	-12.4914
州又五十里至	-12.4914
䧟堅陳敗強敵	-12.4916
同則不能相	-12.4916
懷寧砦	-12.4916
淚	-12.4918
微乎微乎至於無	-12.4918
杞	-12.4918
濾	-12.4918
一人知高聲	-12.4918
以左手監住右手刺	-12.4918
始擊將大炅客算	-12.4919
硤	-12.492
散宜生	-12.492
篩	-12.492
不可求之於	-12.492
也無所恃其	-12.492
一水平鎗來	-12.4922
秦隴鳯翔階成	-12.4922
五更一㸃	-12.4922
裏城裏壕	-12.4922
赤魯村鋪	-12.4922
提綱曰	-12.4923
廣門村鋪	-12.4923
羖	-12.4924
亟去無留	-12.4924
和尚原	-12.4924
有分有合	-12.4924
安能爾乎	-12.4924
州舊田州管下	-12.4924
弓兵民壮	-12.4924
益利路	-12.4924
進行法人手執黄旗	-12.4924
五八門杜客大將㕘將不出中宫計神	-12.4925
竒内之正	-12.4926
三日三夜	-12.4926
三竒吉門	-12.4926
有海塘而無海港	-12.4926
絞車連弩自副	-12.4926
詗	-12.4926
以左手第二指	-12.4926
填平壕	-12.4926
熨	-12.4926
矛㦸扶胥	-12.4926
膘	-12.4926
萬安砦	-12.4926
韁	-12.4926
將帥者必與士卒同	-12.4927
滋味而共	-12.4927
和丸如	-12.4927
惴	-12.4927
合七勺	-12.4928
蔬	-12.4928
屬蔣州	-12.4928
拌匀	-12.4928
庖	-12.4928
慎之慎之	-12.4928
旌旗動者亂也吏怒者倦也	-12.4928
宋神宗皇帝	-12.4928
後唐同光	-12.4928
桑白皮	-12.4928
秦家符	-12.4928
送至填	-12.4928
共作一箇	-12.4928
浦又東合	-12.4928
姻	-12.4929
馬家庄鋪	-12.4929
缸	-12.4929
懶	-12.493
涿鹿之	-12.493
頷	-12.493
或聚或散	-12.493
渣	-12.493
又八十里至	-12.493
結公城	-12.493
蚤	-12.493
那地州	-12.493
左手監住右手一抹刀他若使一	-12.493
臨仲為	-12.493
以州為治所本路置州兵及朝廷遣禁	-12.4932
震澤底定	-12.4932
更戍外又領熟戸蕃	-12.4932
内外四層	-12.4932
錯結裹	-12.4932
䧟堅陳敗歩騎	-12.4932
懋	-12.4932
此一等也	-12.4932
艦外不見	-12.4933
胡公宗憲	-12.4933
歸徳川	-12.4934
莫甚焉	-12.4934
有海港而無海塘	-12.4934
正徳七年知	-12.4934
州九日程	-12.4934
至新安舖	-12.4934
里南至儀州	-12.4934
丹頭砦	-12.4934
廣張旗幟	-12.4934
東臨大海	-12.4934
浙江提督都御史王公忬	-12.4934
許家庄鋪	-12.4934
紊	-12.4934
行船人北土素無舟楫莫不驚以為神	-12.4935
昔者良將之用兵有	-12.4935
無有就知在軍中有無	-12.4935
白蛇弄風	-12.4935
大麻子	-12.4936
或絶敵糧道或邀	-12.4936
信國公湯和	-12.4936
步卒七十二人甲士三人	-12.4936
為誑事	-12.4936
舴	-12.4936
酗	-12.4936
三月每料加	-12.4936
將不先言	-12.4936
張花村鋪	-12.4936
懌	-12.4936
撥草尋蛇	-12.4936
時為四殺没時	-12.4936
獲源砦	-12.4936
萼	-12.4936
􁆢	-12.4936
陌	-12.4936
鉢	-12.4936
投諸河	-12.4936
簞醪者	-12.4936
與士卒同流而	-12.4936
每隔一隊	-12.4937
軍士許歴	-12.4937
不嫌於	-12.4937
謁公行	-12.4937
糒	-12.4937
苨	-12.4937
日在丙	-12.4937
司馬灋卷	-12.4937
梧桐子大	-12.4937
獒	-12.4937
莭	-12.4937
邠寧環慶路	-12.4937
髙家沙三爿沙	-12.4937
事時加亥夘鳴其上有	-12.4937
千户所為塘二	-12.4937
形者不能行軍不用鄉導者不能得地利	-12.4937
是也古有	-12.4937
有兩珥	-12.4937
泳	-12.4937
軍必厚集其陣以待之不然必敗	-12.4937
鷟	-12.4937
泝流而	-12.4938
誨	-12.4938
十一萬二百八十人	-12.4938
陣此東十里有渭曲可先據以待之遂進	-12.4938
大黄參連弩	-12.4939
欲戰者無附	-12.4939
無迎水流	-12.4939
䧏	-12.4939
薺	-12.4939
有竒有正	-12.4939
鬬船力不鬬人力	-12.4939
國朝洪武七年	-12.4939
廣源州	-12.4939
假道於	-12.4939
醇	-12.4939
巡按御史尚公維持	-12.4939
憶	-12.4939
拓䟦	-12.4939
敵雖聖智莫之能識	-12.4939
正徳元年	-12.4939
涌	-12.4939
燁	-12.4939
綰絆	-12.4939
設防制勝	-12.4939
通塞川	-12.4939
禪	-12.494
戒不許傳於不	-12.494
間可得而使也因是而知之故	-12.494
忒	-12.4941
婚	-12.4941
勇似怯	-12.4941
日在庚	-12.4941
之而知得失之計作之而知動	-12.4941
在之面倂力動手無賊之面亦	-12.4941
如蹈無人之境	-12.4941
帆罟	-12.4941
正而無竒	-12.4941
每面二人防看	-12.4941
而知死生之地角之而知有餘不足之處	-12.4941
萬一世變	-12.4941
風與天時合	-12.4941
股肱羽翼	-12.4941
事時加巳酉鳴其上有酒食	-12.4941
兵勇共七百	-12.4941
東山巡司	-12.4941
烏鳴其上王相	-12.4941
砦在州東北	-12.4941
而日時計得	-12.4941
藎	-12.4941
藏身令軍士頭裹	-12.4941
賊首王直	-12.4941
龍驤將軍	-12.4942
百舸為前	-12.4942
形之敵必從之	-12.4942
戕	-12.4943
梅山洞	-12.4943
荼	-12.4943
秦漢時	-12.4943
㵼	-12.4943
張良韓信序次兵法	-12.4943
欽定四庫全書子部二提要	-12.4943
無不正無不竒	-12.4943
南橋鎮	-12.4943
戚木涇	-12.4943
有兵兵罷	-12.4943
䍐开	-12.4943
事時加丑戌鳴其上有	-12.4943
亟肄以罷	-12.4943
兵攻其不意	-12.4943
及其未濟	-12.4943
孫公宏軾	-12.4943
白氣貫日	-12.4943
砦在武崗縣界東至縣	-12.4943
襠	-12.4943
軍井未達將不言	-12.4943
順職之吏	-12.4943
勇者不得獨進怯者不得獨退	-12.4943
轤	-12.4943
以待之無恃其不攻恃吾有所不可攻	-12.4944
始撃將	-12.4944
猋	-12.4944
裴緒新令	-12.4944
侯之謀者不能豫交不知山林險阻沮澤	-12.4944
們	-12.4945
欽定四庫全書陣紀卷	-12.4945
伏羌砦	-12.4945
踏弩河	-12.4945
其不意攻其無備	-12.4945
牂	-12.4945
舉鵰旗	-12.4945
放静砲	-12.4945
者其東路也	-12.4945
者國之幹	-12.4945
違主將一時之令者斬	-12.4945
勢長拳	-12.4945
巨力之士	-12.4945
得守禦之要	-12.4945
猛毅之士	-12.4945
三日内有雨	-12.4945
六凶神藏	-12.4945
張世李孝義	-12.4945
至常州之西門	-12.4945
互為首尾	-12.4945
後開條	-12.4945
揚州府泰興縣	-12.4945
於内而富於外	-12.4945
東谷砦	-12.4945
槎	-12.4945
猛將氣	-12.4945
盪奇兵馬軍	-12.4945
至隴州	-12.4945
邵陽州	-12.4945
風揚陣	-12.4945
館又九十里至	-12.4945
公曰不可既濟而未成列又以告公曰未	-12.4945
可抵郡城若自	-12.4945
弁山鋪	-12.4945
戢梨	-12.4945
牽挽之	-12.4945
磽	-12.4945
艷	-12.4945
魁為地衡陣	-12.4945
分作二枝一枝	-12.4945
張煜之所演也	-12.4946
禇	-12.4946
無恃其不	-12.4946
王承宗	-12.4946
之抱玉	-12.4946
師衆號百萬相州刺史李神雋閉門自守	-12.4946
李靖兵法曰諸	-12.4946
沌	-12.4946
壘閼與非趙地也	-12.4946
篇則取為	-12.4946
分為七軍中軍四千人	-12.4947
炷	-12.4947
仁義禮智	-12.4947
以月將加正時	-12.4947
貊	-12.4947
辰上見大	-12.4947
你拏鎗還鎗我拏鎗你劄我我	-12.4947
屢經戰陣	-12.4947
綁	-12.4947
隨處可登	-12.4947
庶民者國	-12.4947
也敵未困	-12.4947
枲	-12.4947
治力前拒	-12.4947
益不既多乎	-12.4947
能禦而不能殺	-12.4947
謀夫策士	-12.4947
軍行右轅	-12.4947
左右四軍各二千六百人	-12.4947
憇	-12.4947
春分二月中	-12.4947
春秋時齊師伐魯	-12.4947
武王曰何以知之太公曰	-12.4947
浙江巡按御史胡公宗憲	-12.4947
為主將之位也牙帳	-12.4947
然不能一一而設	-12.4947
玩愒	-12.4947
田土寛平	-12.4947
祅	-12.4947
禎	-12.4947
袵	-12.4947
西川節度	-12.4947
以多勝敵	-12.4947
兵部尚書	-12.4947
右常置城上	-12.4947
安國鎮	-12.4947
宣威砦	-12.4947
山前投	-12.4947
延真島	-12.4947
搪	-12.4947
擅調官軍	-12.4947
有半暈	-12.4947
泌	-12.4947
用陣法而勝者	-12.4947
聰遣從弟暢	-12.4947
船應備器械數目大	-12.4947
見有二珥四珥而蝕有	-12.4947
鄒繼芳	-12.4947
面陣夾以行	-12.4947
郃	-12.4948
各照常年事規與各部兵船互相策應	-12.4948
我不欲戰	-12.4948
也布陣之法	-12.4948
悔將何及	-12.4948
睂	-12.4948
三軍之衆可使	-12.4948
其新至便可擊之即造浮橋於渭令軍人	-12.4948
受敵而無敗者竒正是也	-12.4948
者不禁因夜開城門衆咸憚服莫有去者	-12.4948
里北至界首約三十	-12.4948
鬬伯比	-12.4948
以東南東北二隅	-12.4948
敵無備出而勝之敵若有備出而不勝難	-12.4948
檀道濟到彦之	-12.4948
自鄴以北列陣數十里	-12.4948
明鄭若曾撰	-12.4949
呐	-12.4949
丁字不成八字不	-12.4949
至保徳軍	-12.4949
在府城東	-12.4949
上城守禦一	-12.4949
鞌	-12.4949
蹔	-12.4949
䆳	-12.4949
篠	-12.4949
力戰死之賊	-12.4949
峽口砦二十里	-12.4949
嶸	-12.4949
庖犧氏	-12.4949
狗脚木	-12.4949
珽	-12.4949
著横括	-12.4949
蟒	-12.4949
驤	-12.4949
圗論者所以正	-12.4949
夏氏占曰	-12.4949
戚漴墪	-12.4949
杆每杆每出藥	-12.4949
為閣道外	-12.4949
瓌	-12.4949
神臂弓	-12.4949
籍没其家	-12.4949
路南至府州	-12.4949
宫内迫客㕘將	-12.4949
第二陣第三陣第四陣亦如之	-12.495
剌	-12.495
閉門不納	-12.495
卷甲而趨日夜不處倍道兼行百里而	-12.495
所在此步兵之地也車騎二不當一土山	-12.495
野此車騎之地也	-12.495
一兩八錢三十出共藥三斤六兩	-12.495
之興也伊摰在夏周之興也吕牙在	-12.495
十分三萬七千	-12.495
叶	-12.495
大破之盡燔其糧	-12.495
山與賊相遇賊	-12.495
旗色上黄報兵馬事	-12.495
留二十八日不行復益増壘秦間	-12.495
與之遇以驕之彼驕我怒而後可克	-12.495
與諸隊不同各自	-12.495
蠣	-12.4951
笞	-12.4951
鳶	-12.4951
犯參伐兵起	-12.4951
周文育	-12.4951
垢	-12.4951
笓	-12.4951
天聖中築	-12.4951
可前可後此長㦸之地也劒楯三不當一	-12.4951
思過半矣	-12.4951
李大亮	-12.4951
熕	-12.4951
相近平地淺	-12.4951
箬	-12.4951
葦竹蕭草木	-12.4951
誰敢不	-12.4951
賊攻府城	-12.4951
邠寧節度	-12.4951
四面合圍	-12.4951
小陵河	-12.4951
彼勞我逸	-12.4951
春秋時衛人以燕師伐鄭	-12.4951
暘	-12.4951
楊茂言	-12.4951
田重進	-12.4951
癡	-12.4951
風揚雲垂龍飛虎翼鳥翔蛇蟠	-12.4951
􁗒	-12.4951
人者推為	-12.4951
伯州犂	-12.4951
儋	-12.4951
右江三州	-12.4951
小小險要	-12.4951
庸人逐之囚子	-12.4951
後船後船	-12.4951
懦而無謀	-12.4951
或三或五	-12.4951
提督都御史周公珫	-12.4951
敵所逼不及築城壘或因山河險	-12.4951
皆自若既至圍屯大放火營中驚亂	-12.4951
總督尚書張公經	-12.4951
菴院寺觀	-12.4951
詔裴行儉	-12.4951
鏽	-12.4951
齊湣王出奔	-12.4951
𢃄	-12.4951
蟄	-12.4951
秃	-12.4952
十不當一平陵相逺川谷居間仰	-12.4952
枝葉茂接此矛鋋之地也長㦸	-12.4952
臨下此弓弩之地也短兵百不當一兩	-12.4952
與衆同非國工也	-12.4952
以孔萇為	-12.4952
其旋風四脚亦	-12.4952
彌亘數里	-12.4952
本處散立第一	-12.4952
脣	-12.4952
言於衆曰	-12.4952
風破膽	-12.4952
首以窠盛石大小多少	-12.4952
三宿而逸曰庸師衆羣蠻聚焉不如	-12.4952
上三人為一處處有數百騎令所在揚塵	-12.4952
且起王卒合而後進	-12.4952
令趙奢將兵救之	-12.4952
兵民雜守	-12.4952
引而去之令敵半出而擊之利	-12.4952
後周末楊堅	-12.4952
扣除其	-12.4952
摇	-12.4952
莒城燕師長驅平齊	-12.4952
莫之敢攖	-12.4952
舊縣治也	-12.4952
兵行哨竒兵設伏輕兵出襲焉斯可矣	-12.4953
殖	-12.4953
者衆人之所	-12.4953
圍師必缺	-12.4953
方圓曲直銳	-12.4953
望雲縣	-12.4953
兾	-12.4953
大同小異	-12.4953
令長吳二縣動支公帑	-12.4953
或坐或起	-12.4953
亦頗能	-12.4953
劉天和	-12.4953
動莫神於不意	-12.4953
吾逺之敵近之吾迎之敵背之軍	-12.4953
帋	-12.4953
張張有闊狹左䏶右	-12.4953
從中水取廣漢使羸弱乘髙	-12.4953
拐子陣	-12.4953
菑	-12.4953
薛萬均	-12.4953
鳳凰	-12.4953
三股魚叉	-12.4953
之屏翰也	-12.4953
冬不服裘夏不操扇雨不張	-12.4953
劒南節度	-12.4953
坯	-12.4953
年上神	-12.4953
穫	-12.4953
親御大軍	-12.4953
轉禍為福	-12.4953
鞦	-12.4953
上鋭下方	-12.4953
之死地而後生	-12.4953
仲文以羸師	-12.4953
使騎刼代	-12.4953
先則弊後則懾	-12.4953
公理使諜知之果屯兵於河陽内城以	-12.4953
夜從間道出人抱束薪所歴道有問者	-12.4953
天聖中置	-12.4953
定邊砦	-12.4953
將檀讓擁衆數萬	-12.4953
小落門砦	-12.4953
把過船釘鎗	-12.4953
投之亡地然後存	-12.4953
摘其中之尤要者建寨柵剏團營	-12.4953
桓謙屯	-12.4953
派買汛米	-12.4953
白鶴溪	-12.4953
臣下有謀	-12.4953
荆川唐公	-12.4953
輦	-12.4953
離府太逺	-12.4953
鼙鼓之音	-12.4953
以牛革	-12.4953
髙陽關	-12.4954
寥	-12.4954
七十二局之數	-12.4954
不動如山難知如	-12.4954
竿力所制人挽其端而投之其車推	-12.4954
麩	-12.4954
嫻	-12.4954
子儀陣以待之預選	-12.4954
害然後能為勝敗	-12.4954
據柘林為巢	-12.4954
斷敵糧道	-12.4954
柣	-12.4954
次小於中箭其牙一發諸箭齊起及七百	-12.4954
蕩廟橋	-12.4954
衝方勝車輪	-12.4954
迅雷不及掩耳	-12.4954
里鋪西北約	-12.4954
頭其次左右將各主士伍為行列皆以金	-12.4954
馬皆有副倍道兼行東	-12.4954
獅	-12.4954
駝	-12.4954
癘	-12.4955
芳	-12.4955
陋	-12.4955
馬端臨	-12.4955
張其四翼	-12.4955
獷	-12.4955
端末未見人莫能知	-12.4955
下唇欲	-12.4955
山對峙	-12.4955
淋	-12.4955
獨流砦	-12.4955
䕶門墻	-12.4955
出黄虎無功而退賊	-12.4955
别有函封付齡石	-12.4955
得其死力	-12.4955
曰至白帝乃開諸軍雖進未知處分至白	-12.4955
道有四由	-12.4955
亥時此時	-12.4955
以弱勝强	-12.4955
兵而兵自足	-12.4955
噉	-12.4955
大不然夫	-12.4955
按黒地而	-12.4955
時加申子鳴其上	-12.4955
無不備具	-12.4955
百戰不殆	-12.4955
簡監住	-12.4955
者藏於九地之下善攻者動於九天之上	-12.4955
訓練汛時仍於	-12.4955
之所以全勝者軍政	-12.4955
之所以為威者號令	-12.4955
之所以輕戰者用	-12.4955
之職掌也各	-12.4955
之號十有二	-12.4955
也牙帳利	-12.4955
二曰火積三曰火輜四曰火庫五曰火隊	-12.4955
以强凌弱	-12.4955
傷勿在	-12.4955
兩旗交	-12.4955
兵以詐立以利動	-12.4955
兵派住	-12.4955
副元帥李光弼	-12.4955
劉表遣劉備北侵至	-12.4955
勒浪等族	-12.4955
南面而王齊齊人	-12.4955
吳越錢氏	-12.4955
命也故將無還	-12.4955
因以為名	-12.4955
壘未成	-12.4955
將軍捧賜	-12.4955
平北將軍胡僧祐	-12.4955
康祖等	-12.4955
所以一人之耳目	-12.4955
故其疾如風其徐如林	-12.4955
旗為節制其初起圍張翼隨山林地勢無	-12.4955
旨	-12.4955
樂毅畏誅而不敢歸以伐齊為名實欲	-12.4955
澧川砦	-12.4955
爲鳥雲之陳	-12.4955
甸	-12.4955
盞口將軍大連珠	-12.4955
籐	-12.4955
縣後匾擔二沙	-12.4955
總督都御史楊公宜	-12.4955
義興縣	-12.4955
腰受一斗五升	-12.4955
請誘之子庚從之戰于庸浦	-12.4955
賊首鄧文俊林碧川沈南山等分	-12.4955
賞子孫後嗣	-12.4955
養由基	-12.4955
騎三萬討矩屯	-12.4955
齊七十餘城	-12.4955
三三五五	-12.4955
前後可設伏也	-12.4955
卑而驕之	-12.4956
守珪曰彼衆我寡	-12.4956
張守珪為𤓰州刺史	-12.4956
智與衆同非	-12.4956
遊火箱	-12.4956
勝伐江陵聲言徐道覆	-12.4956
建業而桓謙自長安入蜀	-12.4956
為循黨荀林所破林	-12.4956
等赴援朝廷至潯陽	-12.4956
艾以氊自裹	-12.4956
㑹師于臨品	-12.4956
力疲怠賊乃乘間得入排城延伯軍大敗	-12.4956
在草莽	-12.4956
壘相去七里遣使招矩時暢卒至矩未暇	-12.4956
子幹阻川為營賊軍不得水數日人馬	-12.4956
庸人曰楚不足與戰矣遂不設備楚子乘	-12.4956
杆每杆每出藥八錢五十出共藥二斤半	-12.4956
竿竿上安轆轤以繩挽	-12.4956
門百戰百敗當以計取之可令羸兵弱馬	-12.4956
馬盂十分一萬二千五百	-12.4956
佛陽口鋪	-12.4956
厨人濮	-12.4956
築城於故海鹽賊	-12.4956
猥	-12.4957
膞	-12.4957
太宗敬徳躍馬大呼横刺雄信墜馬賊	-12.4957
平原廣澤	-12.4957
守城機要	-12.4957
州四百里南至	-12.4957
建炎徳安守禦録	-12.4957
扄鑰	-12.4957
指揮一員統領	-12.4957
出其陣後	-12.4957
必傷於飽日暮道逺必數上下寧勞於人	-12.4957
時魁罡加日	-12.4957
曹成李宏	-12.4957
櫈	-12.4957
禦戰死之賊	-12.4957
跋扈	-12.4957
銅鑼一面	-12.4957
馬不傷於末必傷於始不傷於	-12.4957
􁆫	-12.4957
䕶營軍	-12.4957
井字開方	-12.4957
今地設弓兵七十名往來巡邏	-12.4957
以誘之觀賊之勢必渡水交兵萬均請	-12.4957
嘉靖三十一年壬子七月	-12.4957
在盧山縣界南至縣	-12.4957
執紙葢而直衝	-12.4957
塾	-12.4957
大將居中諸部連繞四頭八尾觸處為首	-12.4957
宜倣古	-12.4957
弱之以位奪之以國	-12.4957
待敵若敵先居之引而去之勿從也	-12.4957
按察司僉事	-12.4957
搴旗斬將	-12.4957
擔各兵自備用篾盔一頂	-12.4957
日夜霖雨旬日不止	-12.4957
李抱玉	-12.4957
東至州三十里西	-12.4957
沿海營堡	-12.4957
湛	-12.4957
聞金聲	-12.4957
舵二門椗	-12.4957
謀何患乎不從哉	-12.4957
譴	-12.4957
適中之地	-12.4957
鵒	-12.4957
以速為䇿	-12.4957
冀州之域	-12.4957
四千三百二十	-12.4957
如其未潰可令首尾	-12.4957
州至羅巖州二里至州四百七十八里	-12.4957
已疲倦去我既逺必不見疑及其未集須	-12.4957
日凶正	-12.4957
時雍州刺史魯宗之自	-12.4957
給帳一口食幕	-12.4957
者無所施其	-12.4957
若皆疑惑慶之請獨取之於是	-12.4957
蘇氏曰	-12.4957
褥	-12.4957
讓他先起穿	-12.4957
進五步殺	-12.4957
鎮川堡	-12.4957
靖化堡	-12.4957
鯨鯢	-12.4957
恢	-12.4957
利害相半	-12.4958
皆逐天文氣候	-12.4958
兵形象水	-12.4958
吾族家妻妾令安堵	-12.4958
單又收民金得千鎰令即墨富豪	-12.4958
擊之何往不尅	-12.4958
有輕我心	-12.4958
用扇拍拍	-12.4958
輒有喜色	-12.4958
季梁曰楚人	-12.4958
愛民可煩	-12.4958
武俊營	-12.4958
池間相去一尺五寸間有通水	-12.4958
羣盜蜂起	-12.4958
譬如驕子不可用也	-12.4958
遇且攻其右右無良焉必敗偏敗衆乃攜	-12.4958
齎金幣	-12.4958
不能還安危之機不及終日賊以軍無後	-12.4958
八角口鋪	-12.4958
勢聚散之形勝負之理賞罰之信因是而	-12.4958
子將八人	-12.4958
安靜勿	-12.4958
封之於朝	-12.4958
故人主深曉上畧則能任賢	-12.4958
極人臣之位以	-12.4958
狗號口鋪	-12.4958
赴或謂宗之未可測道規乃	-12.4958
進不能戰退	-12.4958
還師罷軍	-12.4958
里北至軍城砦	-12.4958
飛轅寨	-12.4958
客大將迫主	-12.4958
㕘將二宫發	-12.4958
六天空	-12.4959
州本朝改今名	-12.4959
疋一丈九尺	-12.4959
藥傅之	-12.4959
其形正方	-12.4959
戰世充驍將單雄信領騎直	-12.4959
有義之士	-12.4959
曰楊家	-12.4959
必爭之地	-12.4959
曰調客兵	-12.4959
樓八座	-12.4959
魏之武卒	-12.4959
􁇠	-12.4959
唐李愬	-12.4959
太宗問李靖曰	-12.4959
太宗曰深乎	-12.4959
州阿保機所建	-12.4959
曹家溝	-12.4959
永樂十四年	-12.4959
濺	-12.4959
秦璠王艮	-12.4959
移剌馬	-12.4959
谷吐渾	-12.4959
兵負而趨走號	-12.4959
劓皆怒堅守惟恐見得	-12.4959
器長短相間分方面外而立如遇打賊隨	-12.4959
寸柄長三尺	-12.4959
師衆以順為武	-12.4959
待敵若敵先居之盈而勿從不盈而從之	-12.4959
急則失威儀而	-12.4959
懼燕軍之劓所得齊卒置之前行與我戰	-12.4959
摺陣法也名	-12.4959
撦	-12.4959
斷斷乎	-12.4959
更皷一面小皷	-12.4959
月十六日上班	-12.4959
板谷口鋪	-12.4959
武王曰敵人知我	-12.4959
殊形異狀	-12.4959
殺平民	-12.4959
氣以作兵法文昌以命將	-12.4959
無以異於	-12.4959
無鬭志	-12.4959
燕人聞之如其言城中人見齊諸降者	-12.4959
聚兵井陘口稱二十萬	-12.4959
腑	-12.4959
行數百里其勢糧食必在後願	-12.4959
逼城而陣有輕我心	-12.4959
遂請與操相見	-12.4959
陳人益	-12.4959
㸃卓旗則	-12.4959
以上賞而禮之名曰	-12.4959
來攻城城内兵力甚弱裕	-12.4959
則賊騎至	-12.4959
勿與戰彼前不得	-12.4959
匿衆若已遁	-12.4959
千騎夜	-12.4959
存亡之階	-12.4959
嵬	-12.4959
把總楊尚英	-12.4959
招信淮隂	-12.4959
於乘丘齊師乃還晉	-12.4959
春秋時齊師宋師次于郎	-12.4959
權威一與而不可	-12.4959
渾渾圓長	-12.4959
絶其輜重足下深溝	-12.4959
與柘林賊合	-12.4959
芟刈	-12.4959
賞得而聚之名曰	-12.4959
逵曰休	-12.4959
非極致	-12.4959
馬一匹	-12.4959
􁔷	-12.4959
所乘駿馬	-12.496
所向皆靡	-12.496
寧朔將軍	-12.496
第一百一	-12.496
中龍駒島	-12.496
命一偏將	-12.496
瓉	-12.496
操又與遂書	-12.496
朱旗掉角音動左右各復本	-12.496
臣反虜乎	-12.496
驢六分七千五百頭鞍	-12.496
不違晦	-12.496
仍照前法	-12.496
可得聞乎太公曰	-12.496
圍道山鋪	-12.496
地有所不爭	-12.496
壯而頑頓與許蔡疾楚政楚令尹死其師	-12.496
射甲箭	-12.496
將軍皇甫	-12.496
帆檣之	-12.496
心者可共固守軍人見其誠信皆無異志	-12.496
忸	-12.496
所謂先人以奪其心賊見吾兵必走	-12.496
掠其牛馬	-12.496
棓二分二千五百張馬軍及陌刀並以啄	-12.496
毡	-12.496
牌二分二千五百面馬	-12.496
至嶽嶺口鋪約	-12.496
裼	-12.496
退不得還吾竒兵絶其後野無	-12.496
門具將發利爲主見陣利後動出軍宜	-12.496
溥	-12.496
葫	-12.496
上下兩層	-12.496
吟	-12.496
懷中吐月	-12.4961
陣間容陣	-12.4961
烘	-12.4961
澠	-12.4961
嘗議設	-12.4961
狼牙棒	-12.4961
結交於諸侯	-12.4961
而請和者謀也	-12.4961
其疾如風	-12.4961
騖	-12.4961
出出絶閉之	-12.4961
可躡而	-12.4961
宋何去非撰	-12.4961
凜	-12.4961
孑	-12.4961
巡司洪武三年建於	-12.4961
後魏万俟醜奴	-12.4961
把鐵斧	-12.4961
晝不見日夜不見星月	-12.4961
民壯二百七十七名	-12.4961
相隨任所居止於是羣情喜悦兵即四散	-12.4961
罨	-12.4961
三會口鋪	-12.4961
九遍用劍	-12.4961
兵夫列船式平時在船四面擺	-12.4961
叅將李逢時	-12.4961
團兵勇建寨柵以守以禦其餘亦惟以遊	-12.4961
宋開寳	-12.4961
將者國之輔	-12.4961
懟	-12.4961
所遺財物	-12.4961
氣有盛衰	-12.4961
[...]
