<unk>	0
<s>	0
</s>	0
之	-4.26307
/	-4.58044
以	-4.61931
為	-4.73101
(	-4.8717
)	-4.91277
而	-4.91394
也	-5.14917
其	-5.40524
有	-5.40529
曰	-5.40624
者	-5.46229
王	-5.5051
子	-5.57586
▁	-5.60274
不	-5.60724
於	-5.62095
與	-5.66369
人	-5.73479
)(	-5.83965
及	-5.88049
時	-5.99814
自	-5.99987
至	-6.00104
大	-6.0079
于	-6.01297
使	-6.03293
上	-6.06518
無	-6.07218
則	-6.09708
事	-6.12485
一	-6.14972
公	-6.15159
乃	-6.16476
中	-6.18843
故	-6.22365
皆	-6.23602
又	-6.24735
言	-6.25208
行	-6.27314
所	-6.2909
出	-6.32868
見	-6.3367
令	-6.37005
在	-6.37206
後	-6.37706
氏	-6.40093
遂	-6.40521
等	-6.40591
國	-6.41288
復	-6.417
帝	-6.42854
立	-6.44171
入	-6.47339
相	-6.4741
三	-6.48031
將	-6.52257
今	-6.53449
生	-6.54734
從	-6.54914
亦	-6.55505
矣	-6.55615
文	-6.57003
道	-6.57823
得	-6.59167
兵	-6.59725
元	-6.60339
書	-6.61151
州	-6.62249
下	-6.63706
封	-6.64613
此	-6.64851
死	-6.64964
欲	-6.65481
知	-6.68039
臣	-6.68242
如	-6.68609
二	-6.69712
作	-6.70164
城	-6.70658
非	-6.71111
君	-6.71619
謂	-6.7184
陳	-6.72667
請	-6.73024
因	-6.76528
齊	-6.77341
官	-6.7766
成	-6.78732
乎	-6.79076
當	-6.79252
平	-6.80487
明	-6.81034
周	-6.81065
命	-6.81125
初	-6.81234
用	-6.81663
軍	-6.82229
是	-6.8246
多	-6.82633
天	-6.82754
張	-6.83106
卒	-6.83667
名	-6.83847
山	-6.8514
焉	-6.86207
正	-6.87764
同	-6.88272
即	-6.88614
安	-6.8865
五	-6.89357
我	-6.89501
已	-6.89903
可	-6.90309
民	-6.90688
歸	-6.90737
長	-6.911
方	-6.91261
云	-6.91567
必	-6.92554
年	-6.92584
若	-6.93321
南	-6.93635
居	-6.93709
李	-6.95546
侯	-6.95922
秦	-6.97863
晉	-6.97899
以為	-6.99422
然	-7.00042
聞	-7.00089
地	-7.00123
傳	-7.00167
世	-7.00178
何	-7.00909
殺	-7.00944
先	-7.01029
守	-7.01653
詔	-7.01729
還	-7.01798
魏	-7.0196
劉	-7.02276
日	-7.02557
諸	-7.03375
四	-7.03409
馬	-7.03423
主	-7.03496
去	-7.04155
重	-7.04834
取	-7.0514
進	-7.05869
父	-7.06212
家	-7.06335
未	-7.06541
常	-7.06578
禮	-7.06587
水	-7.08395
遷	-7.08743
師	-7.09746
漢	-7.09863
吾	-7.10305
既	-7.10796
通	-7.11741
武	-7.11794
善	-7.12126
義	-7.12673
始	-7.12828
字	-7.13105
楚	-7.13285
宋	-7.13553
遣	-7.14456
賊	-7.14864
且	-7.14974
東	-7.1591
趙	-7.16173
法	-7.16966
定	-7.17381
並	-7.17436
徳	-7.17612
能	-7.18714
西	-7.18851
拜	-7.19307
伯	-7.20098
衆	-7.20422
士	-7.20454
将	-7.20729
雖	-7.21461
天下	-7.21958
㑹	-7.22324
分	-7.22775
内	-7.22886
陽	-7.23777
前	-7.23786
加	-7.23985
縣	-7.24921
數	-7.24994
梁	-7.25019
起	-7.25082
稱	-7.25525
門	-7.25969
北	-7.26087
樂	-7.26118
問	-7.26427
舉	-7.266
求	-7.27081
夫	-7.28192
髙	-7.28198
服	-7.28486
爲	-7.28996
少	-7.29818
置	-7.2995
史	-7.30017
盡	-7.30348
心	-7.31134
弟	-7.31146
反	-7.31436
興	-7.31529
朝	-7.31579
或	-7.32039
食	-7.32936
不可	-7.3348
賜	-7.3357
信	-7.33791
六	-7.33945
金	-7.34683
受	-7.35356
小	-7.358
石	-7.35863
坐	-7.35864
光	-7.37017
鄭	-7.37317
宗	-7.37632
過	-7.37725
意	-7.37983
議	-7.38085
田	-7.38858
來	-7.39103
降	-7.39192
宜	-7.39281
發	-7.39537
除	-7.39648
治	-7.39942
和	-7.40024
九	-7.40532
親	-7.40565
奉	-7.41485
位	-7.41809
尚	-7.41958
不能	-7.42034
攻	-7.42037
甚	-7.42268
母	-7.42303
論	-7.42489
郡	-7.42681
女	-7.43503
制	-7.44788
亡	-7.44861
白	-7.45108
政	-7.45202
合	-7.45348
外	-7.45429
都	-7.45586
敗	-7.45681
本	-7.45751
左	-7.46105
耳	-7.4673
失	-7.46916
魯	-7.46947
唐	-7.47156
權	-7.47264
三年	-7.47323
改	-7.47485
代	-7.47838
難	-7.47941
府	-7.4811
經	-7.48241
孫	-7.48315
謀	-7.49164
召	-7.49739
逺	-7.50115
任	-7.50342
元年	-7.51047
深	-7.51922
應	-7.52396
好	-7.52612
易	-7.53132
惟	-7.53895
亂	-7.54109
夏	-7.54382
於是	-7.54666
廣	-7.54785
志	-7.54872
實	-7.54917
撰	-7.5499
二年	-7.55119
益	-7.55515
太子	-7.55583
身	-7.55978
思	-7.56115
車	-7.56179
固	-7.56554
辭	-7.56951
吳	-7.57041
八	-7.57219
授	-7.58369
共	-7.5844
處	-7.58563
衛	-7.58587
語	-7.58804
學	-7.5913
直	-7.59187
祖	-7.59227
建	-7.59399
賢	-7.59651
宫	-7.60031
奏	-7.60042
各	-7.60045
破	-7.60503
告	-7.60598
陵	-7.60714
卿	-7.6075
神	-7.60875
獨	-7.60974
嘗	-7.61263
猶	-7.62178
韓	-7.62301
力	-7.62492
異	-7.62608
功	-7.62819
古	-7.63122
表	-7.63132
景	-7.63279
執	-7.63491
率	-7.63874
許	-7.6434
計	-7.64986
諸侯	-7.65155
黄	-7.65227
龍	-7.65254
清	-7.65275
忠	-7.66986
度	-7.67855
章	-7.67876
后	-7.68068
楊	-7.68268
利	-7.68399
吏	-7.6899
屬	-7.69013
宣	-7.69291
十	-7.69386
風	-7.6943
右	-7.69599
戰	-7.69796
領	-7.69909
理	-7.70291
引	-7.71058
説	-7.71076
物	-7.71095
觀	-7.711
聲	-7.71578
哉	-7.71715
七	-7.72014
胡	-7.72159
修	-7.72208
疾	-7.72396
昭	-7.72455
貴	-7.72573
鎮	-7.72612
更	-7.72615
誅	-7.72642
罪	-7.72847
土	-7.73144
伐	-7.7348
兼	-7.73728
不得	-7.73936
每	-7.74086
越	-7.74629
河	-7.74969
邑	-7.75017
止	-7.75269
孝	-7.75334
留	-7.75358
次	-7.75551
敬	-7.76683
口	-7.76689
絶	-7.76847
號	-7.77168
燕	-7.77533
開	-7.77934
望	-7.78099
臨	-7.78322
徐	-7.79021
并	-7.792
太守	-7.79292
華	-7.79563
仁	-7.79635
罷	-7.79697
終	-7.79851
致	-7.79936
間	-7.79994
徙	-7.80332
勝	-7.81297
節	-7.81531
音	-7.81531
嗣	-7.81611
新	-7.82114
俱	-7.82472
便	-7.82551
據	-7.82747
曹	-7.82856
江	-7.83279
擊	-7.83783
/)	-7.83908
省	-7.83947
左右	-7.84174
就	-7.84265
將軍	-7.84545
太祖	-7.84951
恐	-7.8506
集	-7.85061
討	-7.85084
廢	-7.85165
兩	-7.85168
圖	-7.85339
首	-7.85929
路	-7.86025
圍	-7.86129
盛	-7.86505
衣	-7.8684
而不	-7.86917
性	-7.86977
妻	-7.87064
御	-7.87841
保	-7.87895
凡	-7.8833
德	-7.88452
遇	-7.88522
威	-7.88555
紀	-7.88739
免	-7.88765
氣	-7.88773
别	-7.88942
朱	-7.88967
流	-7.88984
大夫	-7.89116
比	-7.8915
素	-7.89244
司	-7.90051
邪	-7.90115
病	-7.90171
舊	-7.90691
高	-7.90736
天子	-7.91023
惡	-7.91563
轉	-7.92281
悉	-7.9248
延	-7.92516
送	-7.92596
叔	-7.92992
餘	-7.93513
記	-7.93542
老	-7.93813
崇	-7.93871
獻	-7.94405
懐	-7.94478
疑	-7.94734
果	-7.95263
懼	-7.95386
備	-7.9577
尚書	-7.95829
夷	-7.96035
案	-7.96252
玉	-7.96458
切	-7.96509
刑	-7.9665
汝	-7.96688
爾	-7.96731
滅	-7.9712
怒	-7.97255
承	-7.97313
典	-7.97383
納	-7.97395
歴	-7.9743
營	-7.9769
被	-7.97775
百	-7.97928
部	-7.98013
濟	-7.98028
收	-7.98046
厚	-7.98336
走	-7.98451
四年	-7.98486
良	-7.98549
往	-7.99169
所以	-7.9921
布	-7.99274
儀	-7.99423
登	-7.99508
火	-7.99857
雲	-7.99902
百姓	-7.99923
變	-8.00146
隨	-8.00192
載	-8.00355
職	-8.00546
著	-8.00601
尊	-8.0092
順	-8.01136
萬	-8.01663
皇	-8.01698
私	-8.01729
唯	-8.01821
咸	-8.01857
嚴	-8.01872
視	-8.01975
顯	-8.021
客	-8.0242
謝	-8.02599
追	-8.02798
夜	-8.02799
幸	-8.03228
里	-8.03446
姓	-8.03506
克	-8.03722
敵	-8.03751
之後	-8.03806
解	-8.03831
公子	-8.03894
林	-8.03923
木	-8.04047
海	-8.04066
原	-8.04132
足	-8.04245
商	-8.04518
寧	-8.04817
迎	-8.05157
近	-8.0517
附	-8.05252
退	-8.05442
恩	-8.05731
錢	-8.05782
教	-8.05989
奔	-8.06075
逆	-8.06126
才	-8.06801
遺	-8.07049
聖	-8.07199
永	-8.07438
業	-8.07449
伏	-8.07632
選	-8.07752
隂	-8.07886
仲	-8.08011
薨	-8.08114
昌	-8.08458
喜	-8.08485
要	-8.08933
朝廷	-8.09038
太	-8.09895
秋	-8.1006
誠	-8.10096
五年	-8.10573
太后	-8.10774
扵	-8.11261
廟	-8.11649
會	-8.11739
急	-8.11744
列	-8.11766
推	-8.12776
彊	-8.12859
約	-8.13108
願	-8.13269
由	-8.13292
允	-8.13548
詩	-8.13613
斬	-8.13617
襲	-8.13887
持	-8.14011
獲	-8.1403
慶	-8.14042
連	-8.14087
春	-8.14448
交	-8.14494
祭	-8.14719
報	-8.15033
具	-8.15249
酒	-8.15411
月	-8.15459
陛下	-8.15475
乗	-8.15577
尋	-8.15613
不敢	-8.16004
申	-8.16118
豈	-8.16488
将軍	-8.16576
輕	-8.16585
監	-8.16741
牛	-8.17103
叛	-8.17337
靈	-8.17339
說	-8.17355
對	-8.17494
真	-8.17549
向	-8.17625
屯	-8.17728
温	-8.17772
星	-8.17943
郭	-8.17986
動	-8.18382
特	-8.1841
按	-8.18566
武帝	-8.1858
設	-8.18653
適	-8.18868
禁	-8.18937
亮	-8.18988
六年	-8.19036
恭	-8.19096
来	-8.19126
兄	-8.19216
青	-8.19233
室	-8.19716
榮	-8.1989
象	-8.199
容	-8.19994
頭	-8.20077
怨	-8.20084
邊	-8.20182
乞	-8.20205
嘉	-8.20334
春秋	-8.20433
達	-8.21037
戎	-8.21787
詣	-8.21795
賞	-8.21898
冬	-8.22017
曰吾	-8.22057
色	-8.22088
贈	-8.2223
祀	-8.22542
棄	-8.22559
市	-8.22717
害	-8.22774
化	-8.23117
鄉	-8.23125
衞	-8.23699
顧	-8.23898
給	-8.24045
寳	-8.24268
人也	-8.24518
皇后	-8.24587
孔子	-8.24727
虜	-8.25193
救	-8.25253
勸	-8.25424
參	-8.25583
掌	-8.25603
臺	-8.25659
愛	-8.25671
輔	-8.25879
但	-8.25969
徴	-8.26342
諫	-8.26426
簡	-8.26963
操	-8.27066
夫人	-8.27324
頗	-8.27585
注	-8.27694
造	-8.27757
手	-8.27868
蔡	-8.27961
對曰	-8.28155
目	-8.28164
𢎞	-8.28504
冠	-8.28574
督	-8.28888
傷	-8.28898
莫	-8.29082
司馬	-8.29193
勿	-8.29282
類	-8.29338
虎	-8.29379
蜀	-8.29379
寵	-8.29654
仍	-8.29734
依	-8.29954
再	-8.29995
輙	-8.30018
犯	-8.30133
負	-8.30244
如此	-8.30389
季	-8.30447
葬	-8.30478
考	-8.30521
末	-8.30552
七年	-8.30569
結	-8.30593
極	-8.30651
薦	-8.31113
射	-8.31153
騎	-8.31207
移	-8.31321
辟	-8.31427
杜	-8.31546
器	-8.31589
羅	-8.316
即位	-8.31617
英	-8.31689
吉	-8.31734
堅	-8.31911
統	-8.32015
賦	-8.32058
沈	-8.32065
皇帝	-8.32171
憂	-8.32187
施	-8.32685
務	-8.3273
散	-8.32937
嵗	-8.32968
昔	-8.33638
䇿	-8.33777
文帝	-8.33858
休	-8.345
舍	-8.35049
智	-8.35065
隆	-8.35088
哀	-8.35148
草	-8.35224
爵	-8.35246
聞之	-8.35275
存	-8.35817
殿	-8.35871
美	-8.36127
離	-8.36228
福	-8.36233
繼	-8.3631
虞	-8.3632
充	-8.36342
卷	-8.36379
京	-8.36437
期	-8.36524
甲	-8.36601
質	-8.36838
而已	-8.37046
赤	-8.37069
待	-8.37106
責	-8.37124
惠	-8.37309
不知	-8.37346
獄	-8.3743
情	-8.375
帥	-8.37675
雄	-8.37992
曲	-8.38334
寕	-8.38372
乘	-8.38476
賀	-8.38555
侍中	-8.38834
指	-8.38955
眀	-8.39638
其後	-8.39661
積	-8.40004
殺之	-8.40168
紹	-8.40213
薄	-8.40403
郎	-8.40519
危	-8.40875
呉	-8.40883
喪	-8.40945
全	-8.40962
族	-8.41061
康	-8.41082
無所	-8.41087
孟	-8.41147
孤	-8.4149
己	-8.41927
三月	-8.41984
宿	-8.41993
京師	-8.42055
勞	-8.4234
體	-8.42379
禹	-8.42396
可以	-8.4261
范	-8.42611
徒	-8.42663
晋	-8.429
撫	-8.42994
蕭	-8.43027
弗	-8.43096
憲	-8.43253
假	-8.44023
盖	-8.44134
一人	-8.44365
脩	-8.44389
宻	-8.44398
殷	-8.44709
崩	-8.44858
逹	-8.4495
察	-8.45237
孔	-8.45338
八年	-8.45354
闕	-8.45649
雍	-8.45765
謂之	-8.45942
窮	-8.45993
竟	-8.46042
久	-8.46253
援	-8.46275
澤	-8.46379
息	-8.46559
彼	-8.46673
盟	-8.46838
羣	-8.46917
慮	-8.46923
魚	-8.46951
丁	-8.47001
黨	-8.47018
略	-8.47065
精	-8.47094
聽	-8.47176
斯	-8.47564
累	-8.47579
徃	-8.4762
放	-8.47705
十年	-8.47896
超	-8.4819
阿	-8.48261
詳	-8.48367
釋	-8.48519
勇	-8.48944
祠	-8.48945
泰	-8.49057
羣臣	-8.49179
呼	-8.49369
博	-8.49504
籍	-8.49531
苦	-8.49852
禍	-8.50006
斷	-8.50054
兄弟	-8.50171
游	-8.50351
飲	-8.50403
養	-8.50606
密	-8.50656
争	-8.50688
讓	-8.50721
征	-8.50997
是以	-8.51078
畧	-8.5113
運	-8.51234
侵	-8.51295
州刺史	-8.51346
御史	-8.51424
塞	-8.5149
畢	-8.51699
陸	-8.51706
習	-8.51713
夀	-8.51781
俗	-8.51941
之所	-8.52166
弱	-8.52171
振	-8.52359
寺	-8.52386
丹	-8.52467
豐	-8.52624
不足	-8.52909
朕	-8.53149
堂	-8.53202
勢	-8.53357
大臣	-8.53442
雜	-8.53452
朔	-8.53553
暴	-8.53678
䓁	-8.53758
湯	-8.53868
工	-8.5391
佐	-8.53973
患	-8.54025
賈	-8.5428
畏	-8.5502
升	-8.55467
之子	-8.55599
邱	-8.55625
到	-8.55708
明年	-8.55902
野	-8.56195
丘	-8.56218
吕	-8.56269
富	-8.5635
司徒	-8.56371
逐	-8.564
穆	-8.56464
尹	-8.56465
遵	-8.56544
馮	-8.56597
役	-8.5663
屈	-8.56635
予	-8.56763
資	-8.56867
雅	-8.56876
端	-8.57034
種	-8.57075
奪	-8.57091
然後	-8.57109
兒	-8.57541
傅	-8.5755
都督	-8.57635
調	-8.5772
試	-8.57924
禄	-8.57939
九年	-8.57988
蓋	-8.57989
者也	-8.57998
敢	-8.58049
竒	-8.58223
舜	-8.58223
吴	-8.5823
一卷	-8.58364
貞	-8.58697
揚	-8.59205
助	-8.59349
尤	-8.59466
微	-8.59541
不如	-8.59641
樹	-8.59751
遣使	-8.59932
徵	-8.59975
律	-8.60257
户	-8.60295
謙	-8.60671
僧	-8.60824
識	-8.60889
補	-8.61302
從之	-8.61334
烈	-8.6137
洛	-8.61464
妃	-8.61543
偽	-8.61558
署	-8.61613
桓	-8.61846
使人	-8.61856
費	-8.61872
疏	-8.61929
角	-8.62026
勒	-8.62043
爭	-8.62086
川	-8.62094
感	-8.62148
垂	-8.62274
衡	-8.62372
盧	-8.62397
洪	-8.62665
敦	-8.6278
他	-8.62814
寛	-8.63393
由是	-8.63705
肅	-8.64027
河南	-8.64085
侍	-8.64227
强	-8.64269
接	-8.64269
丞相	-8.6446
曰此	-8.64475
也今	-8.64569
録	-8.64606
襄	-8.64701
闗	-8.64808
最	-8.64865
二人	-8.65126
半	-8.65151
滿	-8.65182
戒	-8.65468
第	-8.65682
飛	-8.65797
專	-8.65883
形	-8.66025
藏	-8.66109
赴	-8.66381
總	-8.66679
防	-8.66703
卒子	-8.66762
大將軍	-8.66785
違	-8.6683
茂	-8.6694
刺	-8.66953
之事	-8.67244
述	-8.67536
羊	-8.67684
太尉	-8.67887
折	-8.67961
誤	-8.6826
勤	-8.68379
聚	-8.68437
馳	-8.68483
慎	-8.68517
友	-8.68631
太宗	-8.68641
毁	-8.68718
䝉	-8.68764
君子	-8.68863
謹	-8.69123
六月	-8.69307
歌	-8.69801
十二	-8.69925
牧	-8.6993
諌	-8.70214
覆	-8.70369
術	-8.70495
避	-8.70617
革	-8.70682
貢	-8.70701
衰	-8.70753
長史	-8.7083
翼	-8.7139
桓公	-8.71636
㫖	-8.71784
機	-8.71824
所謂	-8.71908
投	-8.71978
于是	-8.72053
畫	-8.7211
淂	-8.7224
序	-8.72261
堯	-8.7237
財	-8.72475
盗	-8.72635
委	-8.72786
厯	-8.7286
兮	-8.73144
戍	-8.73432
是為	-8.73741
忽	-8.73882
舟	-8.73912
訓	-8.73928
乆	-8.73943
雨	-8.74035
干	-8.74072
崔	-8.74082
逼	-8.74216
長安	-8.74249
是時	-8.74324
烏	-8.74351
縱	-8.74431
條	-8.74524
勲	-8.74563
羽	-8.74701
班	-8.74714
符	-8.74793
諭	-8.7523
随	-8.75231
匈奴	-8.75382
婦	-8.75382
例	-8.75467
震	-8.75509
隋	-8.75521
鄧	-8.75554
稍	-8.75728
欽	-8.75793
薛	-8.75891
九月	-8.75971
碑	-8.76162
為之	-8.76233
姑	-8.76375
冝	-8.76381
觧	-8.76684
决	-8.76705
豫	-8.7673
殊	-8.7673
關	-8.76823
房	-8.77048
副	-8.77048
之間	-8.77211
候	-8.77376
似	-8.77556
二月	-8.77565
虚	-8.77631
毛	-8.77692
背	-8.77746
索	-8.77983
不及	-8.78033
蘇	-8.78163
字子	-8.78228
壽	-8.78509
秀	-8.78523
横	-8.78559
隠	-8.78835
夏四月	-8.78923
須	-8.79
累遷	-8.79186
而後	-8.79187
妾	-8.79268
招	-8.79269
夢	-8.7946
子孫	-8.7976
庭	-8.798
司空	-8.79966
示	-8.80064
十二月	-8.80219
仕	-8.80269
鼓	-8.80606
逸	-8.80701
儉	-8.80755
亭	-8.80857
五月	-8.80918
谷	-8.80941
荆	-8.81339
霸	-8.81455
貪	-8.8152
勅	-8.81612
寒	-8.81881
靖	-8.81983
敏	-8.82134
講	-8.82355
何以	-8.82435
冬十月	-8.82541
謁	-8.82608
洛陽	-8.82689
不從	-8.827
築	-8.82702
彌	-8.8273
鳥	-8.8273
驚	-8.82773
遼	-8.8301
恒	-8.83166
公孫	-8.83218
辱	-8.83234
榖	-8.83328
面	-8.83365
乾	-8.83435
儒	-8.83453
維	-8.83506
融	-8.83582
空	-8.83688
廷	-8.83695
賔	-8.83757
奴	-8.83914
其子	-8.84004
不許	-8.84124
淵	-8.84145
丞	-8.84228
冦	-8.84332
况	-8.84391
歩	-8.84426
竊	-8.84465
卜	-8.84539
歲	-8.84575
使者	-8.84598
戴	-8.8473
論曰	-8.8491
決	-8.85057
又有	-8.85108
篇	-8.85237
䕶	-8.85251
冀	-8.85348
袁	-8.85352
武王	-8.85751
䘮	-8.85795
厥	-8.85804
支	-8.85976
厲	-8.86126
駕	-8.86206
毋	-8.86263
秋七月	-8.86285
險	-8.863
啓	-8.86529
差	-8.86617
之地	-8.8694
衍	-8.86946
莫不	-8.86995
懷	-8.8707
愈	-8.87101
輿	-8.87473
河東	-8.87566
郊	-8.87697
舒	-8.87782
辨	-8.87818
神武	-8.87824
困	-8.87956
寡人	-8.88333
速	-8.88339
泉	-8.88478
有所	-8.88544
均	-8.88767
米	-8.88885
姦	-8.88886
倫	-8.88914
祥	-8.88919
髙祖	-8.88969
二十	-8.89086
俊	-8.8909
之言	-8.89348
邉	-8.89536
農	-8.89634
許之	-8.89693
宅	-8.89752
囚	-8.8978
㧞	-8.89839
赦	-8.89845
余	-8.89905
程	-8.90046
策	-8.90076
管	-8.9032
弼	-8.90579
辰	-8.90734
葢	-8.90753
災	-8.90779
不見	-8.90852
八月	-8.90938
禽	-8.91121
念	-8.91184
杖	-8.91303
庶	-8.91408
淮	-8.91419
鹵	-8.91607
希	-8.91653
擢	-8.91697
以下	-8.91701
姚	-8.91717
董	-8.91722
拒	-8.91729
公主	-8.91747
拔	-8.91924
曰我	-8.91994
託	-8.92446
彦	-8.92552
導	-8.92722
配	-8.93102
帶	-8.93161
讀	-8.93184
貧	-8.93331
格	-8.93362
漸	-8.93368
履	-8.93383
池	-8.93404
戦	-8.93768
幽	-8.93796
至於	-8.93893
船	-8.93931
者皆	-8.93997
回	-8.94046
哭	-8.94068
峻	-8.94091
曽	-8.94105
純	-8.94138
宴	-8.9418
世家	-8.9436
落	-8.94362
千	-8.94468
科	-8.94541
毅	-8.94592
而還	-8.94656
奮	-8.94684
韋	-8.94759
前後	-8.948
周公	-8.95122
遊	-8.95271
僕	-8.95277
不為	-8.95278
頃	-8.95427
故事	-8.95481
𦵏	-8.95642
陶	-8.95744
忌	-8.95828
誣	-8.95928
旦	-8.95952
粟	-8.96308
源	-8.96316
文公	-8.96598
増	-8.96719
蠻	-8.96842
姬	-8.96846
莊	-8.96863
懿	-8.96958
鼎	-8.97029
荒	-8.97088
従	-8.97328
歳	-8.97526
式	-8.97549
校	-8.97574
羌	-8.97591
屢	-8.97879
百官	-8.97956
基	-8.98021
辯	-8.98043
量	-8.98092
匡	-8.98146
界	-8.98213
䟽	-8.98258
蘭	-8.98307
其所	-8.98336
藥	-8.98418
鄴	-8.98458
單于	-8.98476
既而	-8.98487
詐	-8.9852
墓	-8.98556
彭	-8.98561
恨	-8.98787
早	-8.98829
未嘗	-8.98858
嬰	-8.98957
井	-8.99059
妄	-8.99272
男	-8.99527
逃	-8.99567
之士	-8.9959
十一年	-8.99692
席	-8.99732
屋	-8.9974
不過	-8.99815
幹	-8.99821
循	-8.99871
宰	-8.99929
寜	-8.99961
君之	-9.00088
社稷	-9.0011
莽	-9.00113
鍾	-9.00422
境	-9.00671
大将軍	-9.00802
優	-9.00961
覽	-9.01243
先是	-9.01277
知其	-9.01279
幾	-9.01316
葉	-9.01474
橋	-9.0155
庸	-9.01601
顔	-9.01662
預	-9.01705
介	-9.01824
荆州	-9.01911
普	-9.01977
擇	-9.01985
有司	-9.01988
岳	-9.02005
与	-9.02087
尸	-9.02408
皮	-9.02472
𤣥	-9.02575
至是	-9.02603
損	-9.02682
以來	-9.02739
渠	-9.02804
茍	-9.03125
飾	-9.03195
羙	-9.03219
十二年	-9.03265
浮	-9.03267
卓	-9.03481
誰	-9.03613
尉	-9.03621
卑	-9.03653
刺史	-9.03702
内外	-9.03824
十一月	-9.03914
毎	-9.03943
續	-9.04134
光武	-9.04138
藩	-9.04216
松	-9.04249
陷	-9.04368
𣸪	-9.04634
熊	-9.04683
刻	-9.04699
恵	-9.04751
倉	-9.05005
寇	-9.05031
貶	-9.05088
契丹	-9.05101
刀	-9.05126
付	-9.05398
以此	-9.05485
貨	-9.05556
𥘉	-9.05588
耶	-9.05642
中山	-9.05719
至于	-9.05807
諸將	-9.05921
鳴	-9.06035
占	-9.0608
十卷	-9.0613
先生	-9.06164
豪	-9.06164
割	-9.06393
聖人	-9.065
黄帝	-9.06565
肆	-9.06786
以其	-9.06829
宏	-9.06954
史記	-9.07098
曰君	-9.07128
聘	-9.07181
軌	-9.0785
閣	-9.07882
沒	-9.07883
十三年	-9.07899
四方	-9.07907
珍	-9.07915
啟	-9.08044
奚	-9.08077
園	-9.08185
采	-9.08351
文王	-9.08356
曰臣	-9.08457
扶	-9.08544
愚	-9.08546
秦王	-9.08591
輒	-9.08594
答	-9.0865
三日	-9.08677
明帝	-9.087
忘	-9.08764
賤	-9.08824
苑	-9.08977
抑	-9.09118
从	-9.09121
湖	-9.09141
單	-9.09206
猛	-9.09404
饑	-9.09415
國家	-9.09424
甘	-9.0972
舞	-9.09861
耕	-9.09967
寶	-9.10042
不復	-9.10123
辛	-9.10165
劾	-9.10249
在位	-9.10319
一日	-9.10403
聼	-9.10446
審	-9.10562
鎭	-9.10729
桑	-9.108
材	-9.10801
宰相	-9.10803
嵩	-9.10841
而去	-9.10909
傾	-9.10913
上書	-9.11141
文武	-9.11148
没	-9.11154
印	-9.11194
規	-9.11257
貫	-9.11257
太原	-9.11369
尚書令	-9.11387
寔	-9.11414
鬼	-9.11491
江陵	-9.11688
内史	-9.11708
側	-9.11788
訪	-9.11795
死者	-9.11813
其事	-9.12042
甫	-9.12084
悦	-9.12254
自是	-9.12425
邦	-9.12507
享	-9.12554
趨	-9.12566
㣲	-9.12612
笑	-9.12685
壁	-9.12718
欲以	-9.12934
父子	-9.12942
偃	-9.13003
天地	-9.13019
竹	-9.13095
数	-9.13272
沙	-9.13337
潛	-9.13357
也夫	-9.13401
掠	-9.13408
未有	-9.13471
太常	-9.13709
如故	-9.13838
斬之	-9.13911
有功	-9.14199
凶	-9.14236
弟子	-9.14279
黒	-9.14439
人之	-9.14534
鴻	-9.14662
十五年	-9.14801
而死	-9.15031
館	-9.15075
國人	-9.15205
十四年	-9.15234
中國	-9.15253
不受	-9.15369
員	-9.15404
劍	-9.15695
削	-9.15709
斗	-9.16
所在	-9.16584
産	-9.16605
階	-9.16874
蕃	-9.16891
知之	-9.17103
聴	-9.17146
三十	-9.17183
寢	-9.17201
篤	-9.17406
䖏	-9.17593
而無	-9.17606
大司馬	-9.17736
寄	-9.17766
悲	-9.17818
公卿	-9.17869
秩	-9.17909
兆	-9.17919
慈	-9.17953
巴	-9.18027
蒲	-9.18092
皇太子	-9.18284
鄙	-9.18413
裴	-9.18418
戮	-9.18524
諡	-9.18602
弑	-9.18721
㓂	-9.18754
䧟	-9.18802
舎	-9.18806
儲	-9.1883
率衆	-9.18845
捕	-9.19045
不肯	-9.19071
誘	-9.19086
三公	-9.1911
後世	-9.19112
之心	-9.19128
國公	-9.19166
南陽	-9.19178
徽	-9.19265
樓	-9.1928
楚王	-9.19457
景公	-9.19508
剛	-9.19726
誕	-9.19835
糧	-9.19972
是也	-9.20009
戲	-9.20117
旗	-9.2018
禦	-9.20223
遜	-9.20374
亷	-9.20412
博士	-9.20626
範	-9.20626
翟	-9.20704
兹	-9.2072
𧺫	-9.20738
𫝊	-9.20745
與之	-9.20765
繫	-9.20815
天下之	-9.21004
根	-9.21018
出為	-9.21111
㨗	-9.21159
植	-9.212
銀	-9.21212
詞	-9.21267
弓	-9.21339
黜	-9.21441
仁宗	-9.21443
専	-9.21597
遠	-9.21687
佛	-9.21706
細	-9.21853
津	-9.21916
之禮	-9.2193
狀	-9.21953
弊	-9.22076
叙	-9.22214
晏	-9.22296
抗	-9.22396
陞	-9.22402
露	-9.22416
淫	-9.22444
不以	-9.22509
先帝	-9.22513
錫	-9.22515
秉	-9.22528
減	-9.22534
以上	-9.22735
宗廟	-9.22767
肉	-9.22839
仇	-9.22846
三卷	-9.22851
静	-9.22896
郡縣	-9.22931
穀	-9.22963
漢中	-9.23028
攝	-9.23092
旁	-9.23141
效	-9.23157
陰	-9.2317
骨	-9.23205
州郡	-9.23318
罰	-9.23319
偉	-9.23443
戸	-9.2347
澄	-9.23603
河北	-9.23782
二子	-9.2386
祐	-9.23934
又曰	-9.23963
寡	-9.23967
伊	-9.24027
句	-9.24033
豹	-9.24041
驕	-9.24261
晏子	-9.2434
躬	-9.24411
妻子	-9.24469
談	-9.24482
鳯	-9.24492
𨽻	-9.24661
撃	-9.24707
校尉	-9.24728
上下	-9.24829
仰	-9.24887
爽	-9.249
旱	-9.24959
討之	-9.25139
尾	-9.25241
逮	-9.25274
㑹稽	-9.25306
今日	-9.25376
雷	-9.25382
足以	-9.25544
訟	-9.25546
㳺	-9.25589
判	-9.25598
騰	-9.25616
小人	-9.25847
擅	-9.25882
山東	-9.25924
血	-9.26052
焚	-9.26099
渉	-9.26107
婦人	-9.26129
頌	-9.26134
矯	-9.26207
都尉	-9.26247
彭城	-9.2628
曾	-9.26379
不至	-9.26439
不與	-9.26452
時有	-9.26632
醉	-9.26921
成王	-9.27182
牙	-9.27216
冲	-9.27291
戚	-9.27676
匿	-9.27718
毒	-9.27727
社	-9.27739
必有	-9.27776
屠	-9.27792
樊	-9.27811
祝	-9.27853
矢	-9.27914
十六年	-9.28001
渡	-9.28063
借	-9.28101
泣	-9.28118
紫	-9.28284
黎	-9.28314
慕	-9.28353
諡曰	-9.28494
香	-9.28528
隱	-9.28576
遭	-9.28601
奸	-9.28649
郡公	-9.28656
可謂	-9.28747
為人	-9.28762
壯	-9.28849
属	-9.28858
父母	-9.28867
靡	-9.28872
千里	-9.28993
盈	-9.292
恪	-9.2951
整	-9.29575
庫	-9.29599
夕	-9.29686
贊	-9.29805
吏民	-9.29885
元帝	-9.29996
巢	-9.30017
後主	-9.30064
之時	-9.30127
幼	-9.30225
珠	-9.30443
荘	-9.30473
覺	-9.30638
也故	-9.30934
擊之	-9.30947
東宫	-9.30986
鹿	-9.31203
熙	-9.31218
紂	-9.31244
頓	-9.31245
裕	-9.31293
関	-9.31396
瑞	-9.31442
江南	-9.31564
士卒	-9.31686
却	-9.31745
主簿	-9.31969
淮南	-9.32023
虛	-9.32256
盜	-9.32303
恃	-9.32321
燒	-9.32497
襄公	-9.32501
十五	-9.32573
絳	-9.32664
狄	-9.32701
筆	-9.32767
麗	-9.32831
欺	-9.3284
完	-9.32899
擬	-9.32922
太傅	-9.32963
停	-9.32971
閉	-9.32989
児	-9.33062
抱	-9.33126
不行	-9.33187
之意	-9.333
王子	-9.33472
乃止	-9.33485
花	-9.33552
題	-9.33587
脱	-9.33687
纂	-9.3384
姜	-9.33864
曰昔	-9.33917
逢	-9.33943
朗	-9.34031
諸子	-9.34072
祚	-9.34078
刼	-9.34089
迹	-9.34291
誦	-9.34404
西北	-9.34644
東南	-9.34744
殘	-9.34854
趣	-9.3495
之道	-9.35145
出入	-9.35327
短	-9.3535
遼東	-9.35371
否	-9.35395
飬	-9.35405
柔	-9.35426
十七年	-9.35484
痛	-9.35604
貳	-9.35635
莭	-9.35646
邵	-9.35656
譚	-9.35717
幣	-9.3578
受命	-9.35798
餉	-9.35832
二卷	-9.35945
亦有	-9.36034
之法	-9.36154
長子	-9.36228
卧	-9.36274
之義	-9.36335
▁(	-9.36422
両	-9.36612
歡	-9.36721
陣	-9.36774
十月	-9.36802
賂	-9.36821
輸	-9.36906
徑	-9.36983
了	-9.36983
言之	-9.37076
孝文	-9.37212
子弟	-9.37249
買	-9.37341
郡國	-9.37344
謚	-9.37364
績	-9.37379
倍	-9.37392
育	-9.37432
不用	-9.37592
状	-9.37636
莒	-9.37649
裁	-9.3812
㓜	-9.38206
錄	-9.38234
繁	-9.3838
曰今	-9.38431
荀	-9.38502
瑾	-9.38523
當時	-9.38556
諸軍	-9.38568
是嵗	-9.38601
供	-9.38603
賣	-9.38655
㡬	-9.38661
浩	-9.38675
宇	-9.38681
齊人	-9.3871
粲	-9.38787
齊王	-9.38838
掩	-9.38979
踰	-9.3899
何如	-9.3901
彪	-9.39161
諸王	-9.39263
惑	-9.39362
懸	-9.39388
廬	-9.39428
歎	-9.39495
湛	-9.39572
孝武	-9.39574
胥	-9.39621
栁	-9.3983
遽	-9.39837
作亂	-9.39847
邢	-9.39856
燕王	-9.39944
國之	-9.40082
岐	-9.40185
一年	-9.40207
欽定四庫全書	-9.40316
其國	-9.40336
距	-9.40405
不聽	-9.40438
院	-9.40487
恢	-9.40571
僖	-9.40633
諱	-9.40652
偏	-9.40685
齒	-9.40824
墨	-9.40919
昭公	-9.41282
童	-9.41309
龜	-9.41637
渾	-9.41669
其家	-9.41705
遁	-9.41822
宛	-9.41909
蒙	-9.41971
車駕	-9.41982
麻	-9.4199
譽	-9.42078
堪	-9.42089
限	-9.42106
殆	-9.42152
三人	-9.42234
賔客	-9.4224
品	-9.42246
瞻	-9.42252
劒	-9.42316
悔	-9.42476
弔	-9.42532
救之	-9.42775
無不	-9.42876
詔曰	-9.42926
孰	-9.42946
自殺	-9.43148
蔽	-9.43228
䘚	-9.43324
給事中	-9.43328
閭	-9.43334
臧	-9.43408
吏部	-9.43419
丕	-9.43432
輅	-9.43502
昭烈	-9.43568
昭王	-9.43575
書曰	-9.43612
鹽	-9.43664
狐	-9.43815
鑄	-9.43979
以爲	-9.44025
奈何	-9.44029
有罪	-9.44079
畜	-9.44093
創	-9.44115
斥	-9.44263
忍	-9.44326
不勝	-9.44328
鳳	-9.44328
揚州	-9.44397
咎	-9.44413
芳	-9.44443
含	-9.44493
增	-9.44503
政事	-9.44503
不可以	-9.44546
其父	-9.4459
世子	-9.44683
之功	-9.4495
開府儀同三司	-9.44965
壊	-9.44967
瓊	-9.44977
宮	-9.45026
一曰	-9.45034
銅	-9.45036
壇	-9.45174
頋	-9.45257
盟于	-9.45301
公曰	-9.45336
塗	-9.4536
見之	-9.45502
襄陽	-9.45514
獵	-9.45553
步	-9.45562
璧	-9.45633
葛	-9.45798
湏	-9.45853
王曰	-9.4586
十萬	-9.45934
忿	-9.45957
檄	-9.45989
競	-9.46162
曜	-9.46193
十八年	-9.46234
不然	-9.46331
綱	-9.46367
宣帝	-9.46395
吏部尚書	-9.46489
皇太后	-9.46553
破之	-9.4664
後魏	-9.46732
太平	-9.46813
以告	-9.46849
不同	-9.46884
柱	-9.46916
不出	-9.47029
沉	-9.47038
四月	-9.4704
擒	-9.4714
又以	-9.47528
其母	-9.4758
子曰	-9.47625
緩	-9.4768
潰	-9.47713
仙	-9.47799
環	-9.47874
怪	-9.48097
竇	-9.48139
大敗	-9.48283
勉	-9.48327
礼	-9.48327
稽	-9.48342
明日	-9.4849
後漢	-9.48555
夫子	-9.48575
管仲	-9.48647
侍郎	-9.48708
閒	-9.48709
改封	-9.48744
黙	-9.48771
皆以	-9.48833
十六	-9.48849
好學	-9.48858
娶	-9.48995
鑒	-9.49002
熟	-9.49047
彛	-9.49173
夏五月	-9.49173
驅	-9.49389
五十	-9.49425
參軍	-9.49457
帛	-9.49489
不忍	-9.49556
用之	-9.49654
進士	-9.49656
學士	-9.49668
頻	-9.4972
巫	-9.49754
曰子	-9.49858
壘	-9.49916
曰卿	-9.49921
皆有	-9.49975
旋	-9.50093
時人	-9.50128
起兵	-9.50186
邾	-9.50266
之徒	-9.50308
韶	-9.50311
潘	-9.5035
瑜	-9.50369
巧	-9.50407
帝曰	-9.50428
肥	-9.50516
之人	-9.50568
其地	-9.50581
麟	-9.50811
號曰	-9.50864
編	-9.5088
沛	-9.50996
蕩	-9.51045
之日	-9.51061
莊公	-9.51078
淳	-9.51091
後為	-9.51186
賛	-9.5124
濬	-9.51318
乙	-9.5135
誓	-9.51368
之制	-9.51436
閔	-9.51483
仗	-9.51493
􁀙	-9.51554
翰	-9.51563
憤	-9.51619
錯	-9.51667
蒼	-9.51724
突厥	-9.51766
惜	-9.51767
募	-9.5188
西南	-9.51917
黑	-9.51919
嶺	-9.52039
訖	-9.52066
君臣	-9.52182
正月	-9.52281
從事	-9.52305
不應	-9.52305
□	-9.52358
入朝	-9.52388
竭	-9.5247
人皆	-9.5252
稷	-9.52592
匹	-9.52648
岀	-9.52931
不宜	-9.53073
第一	-9.53343
宗室	-9.5338
東北	-9.53428
歛	-9.53432
趙王	-9.53497
繇	-9.53592
潜	-9.53614
之中	-9.53694
恕	-9.53723
突	-9.53757
藉	-9.5383
綏	-9.53876
採	-9.53981
成都	-9.54107
齋	-9.54134
二十年	-9.54137
頼	-9.54156
廵	-9.54251
喬	-9.54313
亦不	-9.54443
城中	-9.54457
更始	-9.54478
三百	-9.54712
皓	-9.54722
郢	-9.54887
十三	-9.55019
盤	-9.55175
乃以	-9.55218
奢	-9.55255
散騎常侍	-9.55271
已而	-9.55279
而立	-9.55284
洞	-9.55322
驗	-9.55368
縁	-9.55578
棺	-9.55623
高祖	-9.55813
勑	-9.55951
改元	-9.56023
狗	-9.56029
郷	-9.5605
曹操	-9.56103
午	-9.56217
其衆	-9.56307
煩	-9.56418
所殺	-9.56472
於此	-9.56476
垣	-9.56521
取之	-9.5655
誅之	-9.56602
沮	-9.56637
擁	-9.56664
檢	-9.56753
晦	-9.56835
東海	-9.56857
屏	-9.5694
説文	-9.57005
伍	-9.57073
改為	-9.57104
廷尉	-9.57116
賓	-9.57127
久之	-9.57132
係	-9.5716
髪	-9.57279
凖	-9.57299
海内	-9.57386
夲	-9.57542
狂	-9.57564
聰	-9.57707
曺	-9.5774
斬首	-9.57813
鐵	-9.57826
激	-9.57826
提	-9.57853
欵	-9.5787
旅	-9.58204
叚	-9.58229
翁	-9.58273
是故	-9.58282
大怒	-9.58369
一時	-9.58505
大王	-9.5851
晝	-9.58628
局	-9.5865
京兆	-9.58656
郎中	-9.58714
醫	-9.5874
而歸	-9.58833
獸	-9.58957
銘	-9.59
雞	-9.59158
不欲	-9.59221
平陽	-9.59399
祁	-9.5945
列傳	-9.59558
古今	-9.59603
攸	-9.59607
隐	-9.59709
練	-9.59792
雪	-9.59815
鮮	-9.59862
十一	-9.59865
歎曰	-9.59883
何為	-9.599
尺	-9.6005
諷	-9.60083
錦	-9.60276
其言	-9.60279
妖	-9.60323
無以	-9.6035
古之	-9.60368
束	-9.60432
自稱	-9.6047
髙帝	-9.60475
的	-9.60486
侃	-9.60535
平公	-9.60635
妙	-9.60647
子也	-9.60656
耿	-9.60669
暉	-9.60757
溪	-9.60806
苗	-9.60883
曉	-9.61031
敞	-9.61085
亨	-9.61114
益州	-9.61122
舉兵	-9.61218
阻	-9.61253
明堂	-9.61266
殺人	-9.61292
神宗	-9.61366
算	-9.61388
二千石	-9.61479
吳王	-9.61515
如是	-9.61543
婁	-9.61589
之國	-9.61613
東西	-9.61664
巨	-9.61678
日月	-9.61754
犬	-9.61856
缺	-9.61962
數十	-9.61967
逰	-9.61985
先王	-9.62083
越王	-9.62141
曰夫	-9.62145
霍	-9.62145
鮑	-9.62301
成公	-9.6243
張儀	-9.62471
致仕	-9.62491
諸将	-9.62653
五百	-9.62729
桀	-9.62827
潁川	-9.63058
某	-9.63311
圗	-9.63327
遲	-9.63343
緒	-9.634
十九年	-9.63486
悟	-9.6368
虢	-9.63737
郡守	-9.63792
禪	-9.63802
琴	-9.63815
併	-9.63918
七月	-9.64017
秋八月	-9.6416
大赦	-9.64168
乆之	-9.64205
旌	-9.64227
其餘	-9.64237
挾	-9.64288
我師	-9.64299
蛇	-9.64314
兄子	-9.64371
汝南	-9.64455
褒	-9.64459
其罪	-9.64485
課	-9.64609
鄰	-9.647
靈公	-9.64769
䧏	-9.64824
継	-9.64852
擾	-9.64868
虐	-9.64933
萬人	-9.64994
中書	-9.65049
鐘	-9.65086
答曰	-9.65109
孔子曰	-9.65109
拘	-9.65167
級	-9.6528
地震	-9.65342
彬	-9.65343
晉陽	-9.65344
稅	-9.6537
枝	-9.65434
之上	-9.65446
𬒳	-9.65552
伐鄭	-9.65583
故曰	-9.65626
韓魏	-9.65676
倚	-9.65683
開府	-9.65703
貌	-9.6579
庾	-9.65853
攻之	-9.65947
敝	-9.66019
住	-9.66042
岸	-9.66061
儁	-9.66071
愍	-9.66095
之役	-9.66102
駿	-9.66165
艾	-9.66171
姊	-9.66241
之臣	-9.66255
男女	-9.66266
不克	-9.66313
契	-9.66476
四海	-9.66512
段	-9.66697
昇	-9.66733
饒	-9.66751
収	-9.66834
宼	-9.6692
相國	-9.6701
十八	-9.67029
穆公	-9.67077
矜	-9.67147
舅	-9.67171
廵撫	-9.67233
以示	-9.67342
警	-9.67399
雖有	-9.67425
疆	-9.67426
暢	-9.67463
戰于	-9.67487
台	-9.67492
侯景	-9.67494
罕	-9.67509
河内	-9.67528
讒	-9.6764
眞	-9.67679
冬十一月	-9.67701
三千	-9.67749
恥	-9.67751
貸	-9.67836
滕	-9.67953
䕫	-9.67983
上曰	-9.67986
襃	-9.67989
譜	-9.68033
譲	-9.68042
醜	-9.68042
吐	-9.68073
為政	-9.68076
中郎將	-9.68095
之名	-9.68143
文學	-9.68156
酋	-9.68214
綜	-9.68244
項	-9.6835
用事	-9.6835
伐之	-9.6848
有餘	-9.68509
穿	-9.68534
鮮卑	-9.68675
功臣	-9.68714
伐我	-9.68718
琳	-9.68743
㝎	-9.68769
桃	-9.68837
百里	-9.68886
邕	-9.68967
敕	-9.69014
臯	-9.69015
冊	-9.69163
祗	-9.69177
鋭	-9.69211
世祖	-9.69227
像	-9.69443
恤	-9.69492
家人	-9.69617
發兵	-9.69639
掾	-9.69682
桂	-9.69757
文章	-9.69887
沖	-9.69898
以待	-9.69929
賜爵	-9.69985
俟	-9.70057
邯鄲	-9.70093
貴人	-9.70111
抵	-9.70113
乏	-9.7013
不報	-9.70196
持節	-9.70219
乂	-9.70225
上疏	-9.70334
祈	-9.70419
惠王	-9.7056
平王	-9.70577
執政	-9.70603
也而	-9.7063
昶	-9.70693
疎	-9.70695
諸生	-9.707
數年	-9.70758
其妻	-9.70763
夾	-9.70769
大破	-9.70786
強	-9.70869
淑	-9.7087
御史中丞	-9.70962
繆	-9.70994
嫌	-9.71055
頴	-9.71065
贍	-9.71097
郡王	-9.71193
南北	-9.71294
僕射	-9.7139
楷	-9.71524
波	-9.71642
侈	-9.71706
亟	-9.71916
讀書	-9.71971
十四	-9.72
死之	-9.72003
寅	-9.72062
熈	-9.72064
裂	-9.72083
婚	-9.72103
釁	-9.72135
河西	-9.72492
括	-9.72716
遂以	-9.72731
不利	-9.72733
尅	-9.72751
左傳	-9.72769
平原	-9.72776
不在	-9.72789
切説文	-9.7279
人主	-9.72802
胄	-9.72896
活	-9.72913
廣陵	-9.72934
謬	-9.72937
扈	-9.72962
卒於	-9.72968
孚	-9.72989
其人	-9.72998
不言	-9.73022
悼	-9.73029
而出	-9.73119
説苑	-9.73139
襄王	-9.73252
滛	-9.73328
劭	-9.7333
鑿	-9.73377
簿	-9.73469
効	-9.73548
黃	-9.73629
然則	-9.7383
矩	-9.73834
甲子	-9.73898
灌	-9.73924
豫章	-9.73976
協	-9.741
徐州	-9.74163
饗	-9.74185
言於	-9.74205
帰	-9.74248
今改正	-9.743
上言	-9.74307
麥	-9.74467
北齊	-9.74582
照	-9.74591
額	-9.74667
先主	-9.74689
杞	-9.74751
西域	-9.74765
晚	-9.7477
詔書	-9.74929
之君	-9.74933
或云	-9.74948
不足以	-9.74955
為太子	-9.75011
獻公	-9.75016
莫敢	-9.75036
壮	-9.75053
戈	-9.75078
㝷	-9.75095
叡	-9.75191
㕥	-9.75244
丹陽	-9.75269
伺	-9.753
渭	-9.75309
傍	-9.7532
武昌	-9.75404
帝崩	-9.75417
衝	-9.7552
光禄大夫	-9.75534
安定	-9.75555
呂	-9.75656
其君	-9.7569
敎	-9.75706
復為	-9.7578
飯	-9.75786
大破之	-9.75818
夏六月	-9.75845
靜	-9.75853
以兵	-9.75874
十七	-9.75932
欣	-9.76067
閑	-9.76161
二百	-9.76174
長沙	-9.76297
肇	-9.76318
晨	-9.7636
营	-9.7639
譏	-9.76503
䖍	-9.76562
牀	-9.76691
之故	-9.76874
鬬	-9.76882
穴	-9.76884
嫁	-9.77057
飢	-9.77059
鄒	-9.77246
称	-9.77254
彈	-9.77277
棘	-9.77288
或曰	-9.77298
太武	-9.77318
軍事	-9.77345
謂曰	-9.77359
隂陽	-9.77364
不免	-9.77437
以聞	-9.77448
播	-9.77498
十餘	-9.77566
將兵	-9.77581
牢	-9.77621
佞	-9.77718
未可	-9.77866
氐	-9.77899
太師	-9.77912
數千	-9.77956
伐齊	-9.77975
多所	-9.77984
二十一年	-9.78049
鸞	-9.78153
厭	-9.78194
少府	-9.78319
藝	-9.78378
墮	-9.7842
裔	-9.78435
不食	-9.78448
爰	-9.78615
齎	-9.78627
茅	-9.78678
咨	-9.78695
昏	-9.7874
樞	-9.78756
流涕	-9.78795
恣	-9.78802
有大	-9.78891
州人	-9.78903
武公	-9.78946
得其	-9.78975
旣	-9.79029
瓦	-9.79034
堡	-9.79047
訴	-9.79083
之際	-9.79159
曠	-9.79161
牽	-9.79193
之罪	-9.79263
綽	-9.79282
謗	-9.79285
之難	-9.79288
租	-9.79363
數百	-9.79407
駐	-9.79461
謨	-9.79475
軍中	-9.79497
覇	-9.79537
祿	-9.79566
洽	-9.79678
䑓	-9.7971
卒贈	-9.79747
節度	-9.79757
賁	-9.79772
之計	-9.79823
用兵	-9.79837
㢤	-9.79952
輩	-9.80046
大事	-9.80052
者為	-9.80107
傑	-9.80165
南京	-9.80193
劇	-9.80208
何也	-9.80209
隴	-9.80222
淺	-9.80223
不當	-9.80235
溢	-9.8038
哲	-9.80385
鬭	-9.8046
味	-9.80469
甞	-9.80533
慰	-9.80574
子胥	-9.80588
之所以	-9.80607
焦	-9.80661
蘓	-9.80689
喻	-9.80713
不絶	-9.80713
中興	-9.80716
四人	-9.80744
腹	-9.80748
真宗	-9.80767
大子	-9.80808
飲酒	-9.80822
楚人	-9.80884
鞭	-9.80962
詔以	-9.81017
睦	-9.81031
憚	-9.81078
建安	-9.81107
子産	-9.81139
為司徒	-9.81193
見其	-9.81246
巳	-9.81258
未至	-9.81282
乖	-9.81327
世宗	-9.81403
輔政	-9.81435
及其	-9.81456
洲	-9.8155
冢	-9.81576
徹	-9.81699
宫室	-9.81813
絹	-9.81835
愷	-9.81862
等皆	-9.81917
琰	-9.82014
相與	-9.82042
皇子	-9.82197
宣武	-9.8223
献	-9.823
僅	-9.82467
人心	-9.8247
妹	-9.82489
官至	-9.8249
奇	-9.82494
詭	-9.82508
聞其	-9.82508
珪	-9.82701
當世	-9.82702
濫	-9.82714
賄	-9.82782
俄而	-9.82835
展	-9.82847
無子	-9.82908
忠臣	-9.8294
富貴	-9.82981
之下	-9.83008
寝	-9.83039
鈞	-9.83063
進封	-9.83139
萬物	-9.83169
詠	-9.8321
引兵	-9.83311
縣侯	-9.83369
遐	-9.83414
㐮	-9.83491
百萬	-9.8353
也从	-9.83578
士大夫	-9.8358
墜	-9.83605
忤	-9.83631
不相	-9.8382
中書令	-9.83829
知名	-9.83849
寨	-9.83897
文宣	-9.83907
軍節度使	-9.83988
碩	-9.84049
塵	-9.84117
觸	-9.84124
彰	-9.84273
追贈	-9.84337
風俗	-9.84341
徧	-9.84354
脅	-9.8441
僚	-9.84477
閲	-9.84611
斤	-9.84616
亭侯	-9.84645
為司空	-9.84654
陳留	-9.84656
顗	-9.84674
詩曰	-9.84738
溝	-9.84771
山川	-9.84826
出奔	-9.84846
佩	-9.84857
大小	-9.85053
未幾	-9.85063
未及	-9.85097
罔	-9.85118
未詳	-9.85156
諸郡	-9.8517
叱	-9.85311
閻	-9.85313
齊侯	-9.85338
西河	-9.85465
一百	-9.855
隴西	-9.8552
璽	-9.85521
廉	-9.8556
廼	-9.85577
賴	-9.85579
太僕	-9.85593
鞅	-9.85678
中外	-9.85696
為相	-9.85711
之亂	-9.85802
文子	-9.85829
甲申	-9.85885
六十	-9.85923
終不	-9.8594
足下	-9.85972
敷	-9.8599
琅邪	-9.86007
者必	-9.86063
五卷	-9.86165
諸軍事	-9.86204
二十五年	-9.8621
固辭	-9.86238
叔父	-9.86239
逵	-9.86262
代之	-9.86384
讐	-9.86387
取其	-9.86422
至此	-9.86463
一名	-9.86478
耻	-9.86536
枉	-9.8655
行之	-9.86555
蠕蠕	-9.86556
經一卷	-9.86627
巖	-9.86769
亢	-9.86773
跪	-9.86786
晉人	-9.86855
并州	-9.86996
之子也	-9.87
嶽	-9.871
冕	-9.87147
構	-9.87206
緯	-9.87222
畔	-9.87283
偶	-9.87338
聞而	-9.87387
駟	-9.87389
惡之	-9.87398
大都督	-9.8741
婢	-9.87455
滅之	-9.87457
演	-9.87496
厲公	-9.87509
僭	-9.87523
曰若	-9.87576
晉侯	-9.87648
宣王	-9.87651
璋	-9.87704
料	-9.87734
奕	-9.8774
名曰	-9.87742
飲食	-9.8782
也又	-9.87867
浦	-9.87932
不聼	-9.87936
豫州刺史	-9.87949
其弟	-9.87958
建武	-9.87964
嶷	-9.87998
之衆	-9.88062
頃之	-9.88074
大水	-9.88085
豈不	-9.88134
暮	-9.88138
初為	-9.88268
也若	-9.88315
帳	-9.88354
人情	-9.88391
四時	-9.88411
潔	-9.88435
江西	-9.88437
號為	-9.88536
車騎將軍	-9.88669
汪	-9.88683
會稽	-9.8872
祭酒	-9.88725
慙	-9.88728
閤	-9.88838
字伯	-9.88876
燭	-9.88955
蟲	-9.88981
七十	-9.89109
漢王	-9.89185
勁	-9.89215
甄	-9.89236
較	-9.89237
荆州刺史	-9.89366
那	-9.89465
五日	-9.89502
勃	-9.89518
老子	-9.89554
二州	-9.89566
無道	-9.8966
驛	-9.89674
輦	-9.89703
析	-9.89715
絲	-9.8973
帝以	-9.89749
琛	-9.89763
視之	-9.89768
薨子	-9.89792
邀	-9.89846
縣公	-9.89846
曰臣聞	-9.8989
尼	-9.90003
進爵	-9.90078
詢	-9.9019
區	-9.90207
布衣	-9.90236
為侍中	-9.903
冀州	-9.90305
王室	-9.90325
宥	-9.90365
贖	-9.90366
俸	-9.90384
魏王	-9.9044
囘	-9.90448
滎陽	-9.90493
㤗	-9.90538
而有	-9.90582
耆	-9.90786
三十年	-9.90803
門下	-9.90836
綬	-9.90904
議者	-9.90961
汾	-9.90979
上黨	-9.91011
邸	-9.91229
顒	-9.91242
歆	-9.9132
慧	-9.91323
遂與	-9.91376
王師	-9.91377
狼	-9.91394
税	-9.91418
矦	-9.91453
竄	-9.91462
邈	-9.91464
再拜	-9.91486
朔日有食之	-9.91497
鋒	-9.91567
卦	-9.91607
俞	-9.91695
豈可	-9.91729
泥	-9.91744
辦	-9.91963
俾	-9.91969
若此	-9.92108
扵是	-9.92223
凌	-9.92234
者不	-9.92242
是月	-9.92269
鐸	-9.92284
祕	-9.92299
涼	-9.92318
中有	-9.92402
魁	-9.92446
跡	-9.9246
丗	-9.92467
慕容	-9.92504
安國	-9.92566
而行	-9.92614
太公	-9.92654
織	-9.92696
泰山	-9.92709
該	-9.92728
炎	-9.92756
訊	-9.92765
把	-9.92781
遣人	-9.92891
得失	-9.929
幽州	-9.92929
大軍	-9.92934
滋	-9.92949
夏侯	-9.93123
紀年	-9.93196
雙	-9.93311
悼公	-9.93386
乃使	-9.93398
五人	-9.93439
三萬	-9.93486
其名	-9.93499
囂	-9.93505
涉	-9.93556
不合	-9.93557
以禮	-9.93565
四十	-9.93696
荷	-9.93801
哀公	-9.93971
披	-9.94055
牟	-9.9409
不死	-9.94093
副使	-9.94093
遥	-9.94156
不淂	-9.94174
舍人	-9.94276
五千	-9.94366
所得	-9.94447
安得	-9.94483
太保	-9.94541
二十三年	-9.94583
歟	-9.94592
壹	-9.94629
侍御史	-9.94698
刃	-9.94773
人也父	-9.94782
宫中	-9.94795
紅	-9.94838
浚	-9.94854
集十卷	-9.94868
也其	-9.94908
咸陽	-9.95013
中軍	-9.95034
字仲	-9.95075
乃遣	-9.95105
有一	-9.95157
學者	-9.95172
數萬	-9.95182
一旦	-9.95236
衣服	-9.95247
未能	-9.95287
建康	-9.95341
栢	-9.95345
戾	-9.95386
仲尼	-9.95397
丈	-9.9544
不若	-9.95444
鑑	-9.95457
領軍	-9.95548
王莽	-9.95558
官屬	-9.95571
亦曰	-9.95608
萌	-9.95622
减	-9.95628
千人	-9.95706
石頭	-9.95744
俄	-9.95774
畿	-9.95829
襲爵	-9.95972
賢者	-9.96133
漏	-9.96134
挺	-9.96135
溺	-9.96173
之志	-9.96185
不信	-9.96191
各有	-9.96195
伐楚	-9.96206
少子	-9.96208
大業	-9.96224
敗之	-9.96227
誡	-9.96253
恊	-9.96275
由此	-9.96362
宦	-9.96463
滯	-9.96465
豆	-9.96624
幕	-9.96628
百餘	-9.96638
倭	-9.96642
二十卷	-9.96648
芝	-9.96675
二十二年	-9.9672
佗	-9.96741
不肖	-9.96771
煜	-9.96839
慢	-9.96903
惠公	-9.9691
不通	-9.9692
巾	-9.96963
季氏	-9.96971
始皇	-9.97004
者以	-9.97021
羡	-9.9703
常侍	-9.97136
嬴	-9.97232
曰汝	-9.97242
印綬	-9.97243
女子	-9.97423
鄭伯	-9.9744
渤海	-9.97503
臂	-9.97511
之世	-9.97546
莫能	-9.9755
以自	-9.97593
而下	-9.97606
座	-9.97617
宇文	-9.97639
劉氏	-9.9764
異之	-9.97646
釐	-9.97661
永安	-9.97752
膳	-9.97759
為太尉	-9.978
王者	-9.9781
大義	-9.97824
蔣	-9.97836
潤	-9.97902
太史	-9.97975
為丞相	-9.97991
北伐	-9.98005
誼	-9.98056
隣	-9.98068
戰於	-9.98181
患之	-9.98212
御史大夫	-9.98296
雲中	-9.98297
逺近	-9.98305
青州	-9.98315
脫	-9.98339
待之	-9.98347
笑曰	-9.9843
其先	-9.98435
乃與	-9.98477
誥	-9.98499
十餘萬	-9.98543
所居	-9.98551
神農	-9.98596
孫權	-9.9863
東陽	-9.98877
雉	-9.98913
太宰	-9.9894
文襄	-9.9901
之外	-9.99068
諧	-9.9909
無忌	-9.99148
守之	-9.992
潁	-9.99216
昧	-9.99266
混	-9.99399
耀	-9.99578
惇	-9.99592
衣冠	-9.99619
東方	-9.99632
謁者	-9.99649
賑	-9.99662
不就	-9.99692
冐	-9.99714
瑕	-9.99942
握	-9.9995
也且	-9.99964
大國	-10.0004
為王	-10.0009
靣	-10.0012
儼	-10.0013
斌	-10.002
壬午	-10.0021
句踐	-10.0021
翊	-10.0025
三十卷	-10.0038
不入	-10.004
綸	-10.0042
太和	-10.0045
圉	-10.005
着	-10.0051
送之	-10.0051
甲午	-10.0052
況	-10.0054
譙	-10.0054
貲	-10.0056
道路	-10.0057
鬼神	-10.0065
不下	-10.0068
大同	-10.0072
二十四	-10.0074
版	-10.0079
五經	-10.008
排	-10.0082
蠻夷	-10.0086
蔑	-10.0086
仁義	-10.0092
監軍	-10.0094
太學	-10.0098
郁	-10.0109
捨	-10.0124
不成	-10.0125
豈有	-10.0126
殺其	-10.0132
渡江	-10.0132
鬻	-10.0139
冡	-10.0139
楚子	-10.0151
返	-10.0156
諸臣	-10.0158
禮樂	-10.016
千餘人	-10.0161
篆	-10.0162
莊子	-10.0164
氷	-10.0168
定公	-10.0178
箕	-10.0182
柱國	-10.0183
嶠	-10.0192
之師	-10.0205
小國	-10.0206
廢帝	-10.0209
縣令	-10.0211
五帝	-10.0211
列侯	-10.0212
得免	-10.0219
而卒	-10.0219
護	-10.0227
旬	-10.0227
民之	-10.0227
其意	-10.0235
人也少	-10.0237
免官	-10.0242
尼雅滿	-10.0242
者亦	-10.0243
㳟	-10.0249
止之	-10.025
邁	-10.025
恂	-10.0253
所言	-10.0257
之内	-10.0258
亦以	-10.0262
十九	-10.0274
銓	-10.0274
無罪	-10.0277
河間	-10.0279
互	-10.028
必不	-10.0286
歸之	-10.0287
韻	-10.0292
數月	-10.0297
之説	-10.0304
不聞	-10.0306
帯	-10.0306
請以	-10.0306
從者	-10.0308
為一	-10.0316
輪	-10.033
龎	-10.0336
為大	-10.0345
冬十二月	-10.0348
行臺	-10.0349
三十六	-10.0354
糾	-10.0356
後宫	-10.0357
將士	-10.036
倒	-10.0362
何不	-10.0365
北海	-10.0372
立是為	-10.0375
敖	-10.0379
柄	-10.0388
薊	-10.0388
八十	-10.0391
重耳	-10.0396
州總管	-10.0417
庚子	-10.0417
為亂	-10.0418
劔	-10.0419
安石	-10.042
噐	-10.0421
人有	-10.0423
從弟	-10.0439
踐	-10.0441
復以	-10.0444
之則	-10.0446
寃	-10.0447
般	-10.0452
所為	-10.0452
制度	-10.0467
所敗	-10.0468
汴	-10.0471
裘	-10.0472
俘	-10.0496
得之	-10.0496
則有	-10.0499
凱	-10.0507
而不能	-10.0507
賞賜	-10.0514
楽	-10.0516
兵部尚書	-10.0517
二世	-10.0521
隙	-10.0522
謫	-10.0533
笞	-10.0533
伊尹	-10.0534
如何	-10.0541
墳	-10.0543
三軍	-10.0548
上表	-10.0553
關中	-10.0558
侮	-10.0561
帥師	-10.0562
儀同三司	-10.0562
繩	-10.0563
縛	-10.0564
窺	-10.0564
殯	-10.0567
于齊	-10.0579
孟子	-10.0582
阜	-10.0583
酷	-10.0583
冶	-10.0584
無復	-10.0584
應之	-10.0588
藻	-10.0592
長吏	-10.0592
之命	-10.0596
假節	-10.0605
屯田	-10.0614
有三	-10.0615
荅	-10.0616
萇	-10.062
斂	-10.0622
阮	-10.0622
徽宗	-10.0633
閩	-10.0644
𢾗	-10.0646
其中	-10.0646
朝夕	-10.0651
公使	-10.0653
之禍	-10.0653
王氏	-10.066
殿中	-10.0664
文侯	-10.0668
之官	-10.0677
秋九月	-10.0681
其民	-10.0687
陋	-10.0688
曰王	-10.069
數日	-10.0698
不忘	-10.0698
琦	-10.07
鄉里	-10.0702
雍州刺史	-10.0703
於秦	-10.0705
䕶軍	-10.0706
寗	-10.0707
辛未	-10.0709
山陽	-10.0716
下邳	-10.0718
清河	-10.0719
天文	-10.072
亳	-10.0724
宦者	-10.074
去之	-10.074
其身	-10.0741
健	-10.0741
禱	-10.0742
納之	-10.0752
夷吾	-10.0752
隔	-10.0752
陜西	-10.0762
之後也	-10.0763
庻	-10.0763
望之	-10.0765
卞	-10.0768
各有差	-10.0771
昱	-10.0773
江東	-10.0777
舌	-10.0792
鄉侯	-10.0794
膺	-10.0795
故也	-10.0797
讎	-10.0798
勵	-10.0801
究	-10.0802
兖州	-10.0803
壤	-10.0807
以疾	-10.081
湘	-10.0825
㦸	-10.0828
弩	-10.083
帝即位	-10.083
箭	-10.0833
促	-10.0833
古人	-10.0842
甲辰	-10.0844
恬	-10.0859
倡	-10.086
庚	-10.0863
簡子	-10.0867
二十四年	-10.0869
門外	-10.0871
隗	-10.0878
成帝	-10.0883
以求	-10.0883
乙酉	-10.0886
漕	-10.0888
泄	-10.0892
軰	-10.0892
梅	-10.0893
晝夜	-10.0893
有異	-10.0894
於齊	-10.0913
駭	-10.0917
淹	-10.0919
無功	-10.0919
揚州刺史	-10.0923
紇	-10.0923
證	-10.0925
僑	-10.0926
指揮	-10.0938
不顧	-10.0943
相見	-10.0956
之類	-10.0956
宣公	-10.0957
漢有	-10.0971
柴	-10.0983
萬餘人	-10.0984
塟	-10.0985
闗中	-10.0987
出於	-10.0992
囊	-10.1001
江夏	-10.1004
而止	-10.1005
濮	-10.1009
部曲	-10.1016
案范書	-10.1025
三子	-10.1025
疋	-10.103
而退	-10.1036
冨	-10.1037
追封	-10.105
者非	-10.105
兖	-10.1053
之術	-10.1054
尚書郎	-10.1057
岱	-10.1058
𤓰	-10.1059
偹	-10.1062
盗賊	-10.1065
沔	-10.1066
𥙷	-10.1069
消	-10.1071
摩	-10.1071
啇	-10.1072
彧	-10.1075
不問	-10.1083
與其	-10.109
乙未	-10.1095
精兵	-10.1095
嗟	-10.11
丙子	-10.1104
縳	-10.111
十里	-10.1117
昻	-10.1117
之屬	-10.1119
梁王	-10.1122
譖	-10.1122
賜之	-10.1129
罵	-10.1129
系	-10.1129
奄	-10.1134
為國	-10.1135
桐	-10.1136
屍	-10.1138
為名	-10.1138
節度使	-10.114
周易	-10.1148
武子	-10.1149
姓名	-10.1154
事君	-10.1158
隊	-10.116
康王	-10.1163
洋	-10.1164
本紀	-10.1169
汗	-10.1178
數百人	-10.1187
男子	-10.1189
莊王	-10.1189
追之	-10.1199
來朝	-10.1204
夀春	-10.122
陽侯	-10.1226
是年	-10.1227
枕	-10.1229
愧	-10.123
十餘年	-10.1232
崖	-10.1234
殿下	-10.1237
千户	-10.124
腹心	-10.1242
曰公	-10.1242
之患	-10.1249
豫州	-10.1251
見殺	-10.1255
滑	-10.1258
車騎	-10.1262
逞	-10.1263
睢	-10.1264
進退	-10.1266
翻	-10.1269
十二卷	-10.1272
萊	-10.1276
白馬	-10.1276
眀帝	-10.1277
問曰	-10.128
是日	-10.1284
齊桓公	-10.1292
雋	-10.1296
漆	-10.1297
輕重	-10.1302
惲	-10.1303
臣聞	-10.1313
昬	-10.1319
宗族	-10.1324
矣今	-10.1324
價	-10.1328
祖宗	-10.1335
武成	-10.1335
東平	-10.1336
長者	-10.1347
以成	-10.1349
恱	-10.135
軒	-10.1354
髮	-10.1356
上帝	-10.1359
域	-10.136
三輔	-10.1362
獻子	-10.1362
陜	-10.137
羲	-10.1375
冉	-10.1384
冰	-10.1385
雀	-10.1387
者乎	-10.1388
製	-10.1389
綝	-10.1397
之利	-10.1397
他日	-10.1401
望出	-10.1402
自此	-10.1405
一作	-10.1408
天之	-10.1414
壬辰	-10.1416
遏	-10.1418
不納	-10.142
昆	-10.1424
人以	-10.1427
江州	-10.1435
次于	-10.1441
其年	-10.1449
陂	-10.1451
生子	-10.1452
琬	-10.1453
弛	-10.1455
不易	-10.1462
留守	-10.1466
牲	-10.147
稍遷	-10.1472
盾	-10.1473
新城	-10.1474
鶴	-10.1479
不聴	-10.148
濁	-10.1481
弄	-10.1482
簡公	-10.1484
壺	-10.1485
受之	-10.1486
艱	-10.15
深入	-10.1504
其志	-10.1506
不已	-10.1508
姬姓	-10.1509
綿	-10.1514
什	-10.1514
趙氏	-10.1519
謐	-10.1521
有司奏	-10.1524
時年	-10.1524
城下	-10.1525
秘	-10.154
所害	-10.1542
二萬	-10.1545
球	-10.1546
李氏	-10.1547
捐	-10.1552
快	-10.1553
尚書左僕射	-10.1554
南郡	-10.1559
無事	-10.1562
言其	-10.1575
札	-10.1575
巷	-10.1578
令尹	-10.158
疲	-10.1581
豕	-10.1584
州縣	-10.1586
中書侍郎	-10.1588
開元	-10.1594
二千	-10.1595
既至	-10.1597
黄門	-10.1602
眉	-10.161
誨	-10.1613
群	-10.1613
不善	-10.1614
壞	-10.1615
曰不可	-10.1626
天命	-10.1641
甲寅	-10.1645
皆為	-10.1645
弁	-10.1645
怠	-10.1649
至今	-10.1651
古者	-10.1655
大學士	-10.166
漢書	-10.1669
北地	-10.1674
紏	-10.1676
辛亥	-10.1677
冒	-10.1679
公薨	-10.1681
謀反	-10.1685
疇	-10.1686
魯人	-10.1689
又遣	-10.1694
周禮	-10.1697
戊子	-10.1703
太康	-10.1704
有二	-10.1704
測	-10.1708
檀	-10.171
矣而	-10.1712
穢	-10.1713
後周	-10.1714
諒	-10.1734
不識	-10.1739
晃	-10.1742
辛丑	-10.1743
饋	-10.1743
四卷	-10.1744
從容	-10.1746
其實	-10.175
以報	-10.1751
宣子	-10.1755
眷	-10.1757
乎對曰	-10.1762
臣請	-10.1765
乙亥	-10.1771
永平	-10.1778
軍士	-10.1779
攷	-10.1779
在外	-10.1779
柳	-10.1779
都御史	-10.1786
居之	-10.1788
琮	-10.179
靈王	-10.1791
寡君	-10.1791
曰天	-10.1793
芒	-10.1795
戊午	-10.1807
龔	-10.1809
以歸	-10.1811
菜	-10.1813
所至	-10.1814
嫡	-10.1817
之民	-10.182
先王之	-10.1825
亥	-10.1826
觀之	-10.183
英宗	-10.1835
臣之	-10.184
丙寅	-10.1841
尋陽	-10.185
億	-10.1865
草木	-10.1868
詰	-10.1873
戌	-10.188
兵馬	-10.188
詣闕	-10.1887
十人	-10.1892
不安	-10.1892
其心	-10.1916
其上	-10.1916
善之	-10.1921
二十七年	-10.1929
寓	-10.1934
摯	-10.1934
之任	-10.1937
愛之	-10.194
翔	-10.1945
肩	-10.1947
九州	-10.1949
楚之	-10.195
左氏	-10.1954
諸國	-10.1956
中正	-10.1959
耳目	-10.1961
季孫	-10.1964
字元	-10.1966
八百	-10.1966
圭	-10.1972
帝王	-10.1976
己巳	-10.1976
曰朕	-10.1976
膝	-10.1978
廹	-10.198
子貢	-10.1982
丁未	-10.1987
不祥	-10.1994
以備	-10.1998
寸	-10.2001
死而	-10.2003
圓	-10.2005
為右	-10.2005
而反	-10.2016
虧	-10.2022
得罪	-10.2027
朝政	-10.2033
確	-10.2037
玩	-10.2041
諸州	-10.2042
踈	-10.2044
二十五	-10.2049
宫人	-10.2049
太廟	-10.2054
詹	-10.2055
軫	-10.206
從事中郎	-10.2061
西方	-10.2072
庚午	-10.2073
陟	-10.2074
毗	-10.2079
伏誅	-10.2081
塲	-10.2082
曼	-10.2083
大赦天下	-10.2088
徐州刺史	-10.2108
丁亥	-10.2109
浙江	-10.211
其一	-10.2113
羞	-10.2114
數千人	-10.2115
譴	-10.2115
州諸軍事	-10.2116
劫	-10.2118
癸未	-10.2121
其功	-10.2128
扶風	-10.213
行人	-10.2139
不失	-10.2141
少有	-10.2141
七日	-10.2147
摧	-10.215
日夜	-10.2165
永嘉	-10.2171
又為	-10.2171
遇害	-10.2173
廣州	-10.2176
曰寡人	-10.2176
琨	-10.2178
朋	-10.2178
詡	-10.2178
揖	-10.2179
拒之	-10.2179
年表	-10.218
丙午	-10.218
文字	-10.2186
國語	-10.219
之家	-10.2191
百餘人	-10.2208
不明	-10.221
欒	-10.2212
乃令	-10.2212
博學	-10.2213
劉裕	-10.2214
村	-10.2215
因此	-10.2221
字文	-10.2225
孟嘗君	-10.224
禎	-10.2243
又云	-10.2243
涼州	-10.2245
粮	-10.2247
茶	-10.2248
斃	-10.2249
傲	-10.2252
斛	-10.2268
萬里	-10.2276
坊	-10.2279
王命	-10.2281
二十六年	-10.2284
禦之	-10.2284
通判	-10.2286
眼	-10.2293
恵王	-10.2296
長樂	-10.2299
十日	-10.23
中常侍	-10.2302
謚曰	-10.2303
濠	-10.2305
之才	-10.2306
顥	-10.2307
公㑹諸侯	-10.2313
鈔	-10.2316
己亥	-10.2317
瑗	-10.2318
漁	-10.2322
塔	-10.2325
参	-10.2325
為主	-10.2335
主人	-10.2337
濟南	-10.234
及諸	-10.2343
緣	-10.2349
久矣	-10.2352
丙辰	-10.2353
道武	-10.2355
庚申	-10.2356
值	-10.2357
上以	-10.2359
兖州刺史	-10.2368
九卿	-10.238
奎	-10.2382
無禮	-10.2387
宋朝	-10.2387
巡	-10.2387
乳	-10.2389
輯	-10.239
將以	-10.2392
衛尉	-10.2403
太監	-10.241
暨	-10.2414
諮	-10.2418
自以	-10.2419
丙	-10.2421
問之	-10.2424
只	-10.2424
淮南子	-10.2426
丁巳	-10.2427
闇	-10.2427
渡河	-10.2428
人臣	-10.2431
之勢	-10.2432
是非	-10.2433
二十八年	-10.2433
乃還	-10.2437
大鴻臚	-10.2439
悅	-10.244
孝王	-10.2445
戊辰	-10.2458
大統	-10.246
中丞	-10.2461
􁁊	-10.2467
尚書左丞	-10.2468
于時	-10.247
賓客	-10.2471
受其	-10.2488
之數	-10.2507
于秦	-10.2507
百人	-10.2519
不得已	-10.2519
貽	-10.2522
迷	-10.2524
沙門	-10.2525
功曹	-10.253
溥	-10.2532
截	-10.2532
蓄	-10.2533
禮部	-10.2534
𤼵	-10.2537
眞宗	-10.2554
也臣	-10.2554
兵部	-10.2557
者則	-10.2558
親戚	-10.256
曽孫	-10.2562
坤	-10.2562
己丑	-10.2567
佳	-10.2567
内侍	-10.2569
所部	-10.2569
苻堅	-10.257
包	-10.257
亾	-10.257
㓕	-10.2572
晟	-10.2573
給事	-10.2575
黄金	-10.2578
汲	-10.2578
五行	-10.2578
中大夫	-10.2579
金人	-10.2598
為君	-10.26
吐谷渾	-10.2604
事之	-10.2604
其下	-10.2606
繞	-10.2606
即日	-10.2607
䑕	-10.2607
楚師	-10.261
賜死	-10.2611
矣夫	-10.2614
字叔	-10.2618
庙	-10.2632
岑	-10.2633
不平	-10.2634
庚寅	-10.2635
中原	-10.2636
辛巳	-10.2638
萬餘	-10.2639
途	-10.2641
慶之	-10.2652
言者	-10.2657
怒曰	-10.2658
蠲	-10.2662
城門	-10.2667
丁酉	-10.2669
苛	-10.2669
令史	-10.2675
圖一卷	-10.2678
吞	-10.2678
鈎	-10.268
在此	-10.2685
所生	-10.2691
衛將軍	-10.27
江州刺史	-10.2701
奐	-10.2703
嘉之	-10.2704
稱其	-10.2706
辛酉	-10.2707
外戚	-10.2708
断	-10.271
番	-10.2716
諫曰	-10.2721
孝公	-10.2741
癸酉	-10.2746
天地之	-10.2748
底	-10.2752
奴婢	-10.2753
教授	-10.2759
謂其	-10.2764
南宫	-10.2772
三代	-10.2774
蠶	-10.2777
直言	-10.2779
西京	-10.2781
縦	-10.2781
雍州	-10.2783
施行	-10.2784
不服	-10.2785
曰陛下	-10.2785
鐡	-10.2786
熱	-10.2789
之初	-10.2789
憑	-10.279
之道也	-10.2791
郡太守	-10.2798
堯舜	-10.2805
大悦	-10.2808
問其故	-10.2809
父兄	-10.281
起家	-10.2812
三司	-10.2812
逋	-10.2812
江左	-10.2815
以来	-10.2816
己酉	-10.2819
駱	-10.282
鼔	-10.2821
椘	-10.2822
繒	-10.2822
壬子	-10.2823
絃	-10.2825
中書監	-10.2826
澹	-10.2828
不便	-10.283
之學	-10.283
以功	-10.2838
少卿	-10.2843
朝臣	-10.2848
乙丑	-10.2852
重之	-10.2852
之樂	-10.2858
骨肉	-10.2859
瓘	-10.286
山中	-10.286
自立	-10.2862
可也	-10.2864
人多	-10.2865
曰吾聞	-10.2892
瀆	-10.2893
准	-10.2896
煬帝	-10.2896
求之	-10.2898
模	-10.29
黄門侍郎	-10.2901
王敦	-10.2902
徇	-10.2905
子路	-10.2911
時為	-10.2912
于此	-10.2912
是歳	-10.2915
諸侯之	-10.292
監國	-10.2923
嘗與	-10.2924
翰林	-10.2926
之情	-10.2926
江淮	-10.2928
禾	-10.2933
酬	-10.2933
璫	-10.2933
几	-10.2934
先君	-10.2934
常以	-10.2937
法度	-10.2938
進位	-10.2942
總管	-10.2943
嬖	-10.2948
一切	-10.2949
不自	-10.295
世本	-10.2954
奏事	-10.2959
年少	-10.2963
圖之	-10.2964
諶	-10.2965
成功	-10.2965
頸	-10.2968
後有	-10.2971
少昊	-10.2971
晞	-10.2971
剋	-10.2973
諸葛亮	-10.2973
洩	-10.2974
伏羲	-10.2992
陪	-10.2993
東門	-10.2994
尚書僕射	-10.2998
戊寅	-10.3001
崇禎	-10.3006
涕泣	-10.301
王使	-10.3016
不悦	-10.3018
朝士	-10.3022
若不	-10.3023
曰是	-10.3024
有詔	-10.3025
孝子	-10.3028
筠	-10.3032
亦為	-10.3032
勘	-10.3037
而入	-10.304
竈	-10.3043
戊申	-10.3044
廣漢	-10.3045
然而	-10.3046
頗有	-10.3047
失之	-10.3058
征伐	-10.3058
六人	-10.306
宿衛	-10.306
大驚	-10.3069
遣其	-10.3073
行事	-10.3075
歙	-10.3077
不止	-10.3078
鞏	-10.308
皷	-10.3081
令人	-10.3085
雖然	-10.3086
大風	-10.3087
潭	-10.3088
失其	-10.3092
羽林	-10.3098
髙陽	-10.3101
之變	-10.3114
所知	-10.3116
庶子	-10.3117
繋	-10.3118
俠	-10.3118
佚	-10.312
沐	-10.3121
栗	-10.3123
雲南	-10.3124
襄子	-10.3125
董卓	-10.3129
之議	-10.3131
廬江	-10.3132
叔孫	-10.3134
一朝	-10.3136
不獲	-10.3137
從征	-10.3147
河陽	-10.3149
竟不	-10.3151
甚厚	-10.3152
曇	-10.3153
彂	-10.3155
評	-10.3157
貴妃	-10.3159
畨	-10.316
媚	-10.316
不知其	-10.3162
詩云	-10.3163
元昊	-10.3164
願陛下	-10.3171
訛	-10.3171
中尉	-10.3179
郤	-10.3181
百年	-10.319
叩	-10.319
壬寅	-10.3191
丁丑	-10.3192
衢	-10.3192
癸巳	-10.3193
舉進士	-10.3194
壬申	-10.3194
禮記	-10.3195
皇上	-10.3195
鏡	-10.3195
不堪	-10.3198
不必	-10.3198
蔵	-10.3199
于楚	-10.3201
退而	-10.3202
延年	-10.3205
皇甫	-10.3207
召見	-10.3213
韜	-10.3221
北方	-10.3225
可汗	-10.323
家貧	-10.3233
父老	-10.3234
膽	-10.3238
國中	-10.3242
自為	-10.3243
聖人之	-10.3259
馮翊	-10.326
簒	-10.3263
殉	-10.3266
如晉	-10.3266
蘇秦	-10.3269
械	-10.3269
瑋	-10.3273
寫	-10.3274
騫	-10.3277
相繼	-10.328
九江	-10.3281
孺	-10.3285
晉國	-10.3286
齊國	-10.3288
也然	-10.3292
石勒	-10.3294
特進	-10.3297
而殺之	-10.33
對曰臣	-10.3301
之㑹	-10.3302
於天下	-10.3307
酌	-10.3307
敗走	-10.3307
朴	-10.3308
所欲	-10.3311
驃騎將軍	-10.3312
曲沃	-10.3314
元嘉	-10.3319
石虎	-10.332
薦之	-10.3321
安帝	-10.3322
千餘	-10.3336
未㡬	-10.3343
終身	-10.3344
甸	-10.3347
殖	-10.3347
碎	-10.3349
其黨	-10.335
狎	-10.3351
大司農	-10.3352
東都	-10.3353
十餘人	-10.3354
其文	-10.3356
吹	-10.3359
及長	-10.3364
逐之	-10.337
遂為	-10.3371
召之	-10.3373
宗正	-10.3378
盜賊	-10.3378
晉王	-10.3379
燮	-10.3381
榜	-10.3384
標	-10.3386
癸丑	-10.3387
薪	-10.3387
㫁	-10.339
下獄	-10.339
或有	-10.339
飽	-10.339
囬	-10.3392
可得	-10.3392
並為	-10.3403
召公	-10.3403
徼	-10.3404
第二	-10.341
視事	-10.3412
也乃	-10.3414
椒	-10.3419
梟	-10.3419
欲令	-10.3419
庚辰	-10.3424
愼	-10.3427
吟	-10.3429
瓌	-10.3435
𢎞農	-10.3436
者多	-10.3436
同姓	-10.3437
下詔	-10.3438
丑	-10.3449
坦	-10.3449
曰善	-10.3456
亞	-10.3461
鳩	-10.3461
四百	-10.3462
萬世	-10.3462
網	-10.3464
愔	-10.3466
有疾	-10.3467
蹈	-10.347
牛馬	-10.347
沂	-10.3482
為左	-10.3488
豊	-10.3492
曰何	-10.3492
若有	-10.3492
以安	-10.3499
丙申	-10.3501
自守	-10.3501
墻	-10.3503
迄	-10.3505
糴	-10.3505
有道	-10.3507
射之	-10.3507
彤	-10.3508
埋	-10.3508
汙	-10.351
人物	-10.3514
有才	-10.3517
千金	-10.3521
嘆	-10.3521
夫差	-10.353
肅宗	-10.3531
姿	-10.3534
記一卷	-10.3535
其有	-10.3536
釋之	-10.3536
臯陶	-10.3537
翰林學士	-10.3539
諸儒	-10.3541
有子	-10.3545
唱	-10.3546
綰	-10.355
两	-10.355
牆	-10.355
之兵	-10.357
有五	-10.3571
卒官	-10.3574
災異	-10.3575
廖	-10.358
册	-10.3581
苞	-10.3583
羸	-10.3583
元舊	-10.3584
慷慨	-10.3587
逄	-10.3588
鉏	-10.3591
袁紹	-10.36
䘏	-10.3601
吾子	-10.3603
枚	-10.3604
昆弟	-10.3607
入宫	-10.3608
朝野	-10.3613
又言	-10.3613
鉅鹿	-10.3615
追尊	-10.3617
探	-10.3623
有此	-10.3624
償	-10.3626
公羊	-10.3628
食之	-10.3633
▁子	-10.3637
太妃	-10.3638
風俗通	-10.3643
麾	-10.3643
王孫	-10.3643
亦無	-10.3644
簡文	-10.365
中郎	-10.3652
哈	-10.3657
佑	-10.3657
旨	-10.3659
癸亥	-10.366
封禪	-10.3661
陽虎	-10.3662
僖公	-10.3665
青州刺史	-10.3665
㢘	-10.3665
寘	-10.3666
悍	-10.3667
昔者	-10.367
以前	-10.368
雒	-10.369
褚	-10.3693
紛	-10.3703
交趾	-10.3706
終日	-10.3707
召為	-10.371
天道	-10.3713
賜以	-10.3725
榆	-10.3735
獨不	-10.3736
帖	-10.3741
遣使者	-10.3743
偕	-10.3745
雕	-10.3746
鼻	-10.3747
山西	-10.375
迫	-10.375
二十萬	-10.3754
置酒	-10.3755
不容	-10.3755
桓温	-10.3755
入于	-10.3759
大喜	-10.3762
繡	-10.3771
衣食	-10.3776
之謀	-10.3777
未知	-10.3779
管子	-10.3779
以是	-10.3781
以問	-10.3785
范蠡	-10.3785
怯	-10.3788
熲	-10.3805
東魏	-10.3806
以後	-10.3807
睿	-10.3809
言曰	-10.3813
也吾	-10.3813
東郡	-10.3816
驃騎	-10.3816
庶人	-10.382
臣謹按	-10.3822
埶	-10.3824
覩	-10.3825
之位	-10.3825
逾	-10.3825
臻	-10.3825
順帝	-10.3826
顯宗	-10.3827
叔向	-10.3829
叩頭	-10.3839
元帥	-10.3841
與秦	-10.3841
信之	-10.3844
鉞	-10.3852
準	-10.3854
諸公	-10.3857
倖	-10.3862
柏	-10.3865
枯	-10.3866
暫	-10.3867
百僚	-10.3869
沛公	-10.3872
杲	-10.3875
猶有	-10.3884
之敗	-10.3885
癸	-10.3886
因之	-10.389
無他	-10.3895
粤	-10.3898
祔	-10.39
煥	-10.3901
召還	-10.3901
智伯	-10.3901
舘	-10.3902
㽞	-10.3903
門人	-10.3903
一言	-10.3904
大將	-10.3905
彘	-10.3912
熾	-10.3912
于晉	-10.3913
猷	-10.3924
之業	-10.3926
從兄	-10.3927
懲	-10.3931
洗	-10.3936
道士	-10.3936
廸	-10.3936
驍	-10.3943
鞠	-10.3945
車馬	-10.3947
孽	-10.3948
僻	-10.3949
從子	-10.3952
臣竊	-10.3953
之號	-10.3967
虗	-10.3986
夙	-10.3986
其書	-10.3988
自號	-10.399
舊制	-10.3991
中書舍人	-10.3991
五色	-10.3992
暹	-10.3993
為民	-10.3997
不起	-10.4006
己未	-10.4011
朔方	-10.4013
永昌	-10.4015
鄆	-10.4016
東京	-10.4024
沿	-10.4024
左將軍	-10.4024
知制誥	-10.4027
自今	-10.4034
綺	-10.4035
定國	-10.4058
入城	-10.4062
函	-10.4064
甥	-10.4067
璞	-10.4067
成子	-10.4071
恚	-10.4071
谿	-10.4072
羿	-10.4072
溫	-10.4072
奉使	-10.4077
豎	-10.4079
為大司馬	-10.4083
兵起	-10.4087
部落	-10.4087
吴王	-10.4088
之節	-10.4091
二十八	-10.4094
開封	-10.4095
死罪	-10.41
或言	-10.4101
裳	-10.4104
次子	-10.4106
或謂	-10.4112
㸃	-10.4112
戯	-10.4113
二十九年	-10.4114
諤	-10.4115
金銀	-10.4121
非所以	-10.4123
桓子	-10.4129
弱冠	-10.4131
諸葛	-10.4136
苖	-10.415
論語	-10.4152
療	-10.4152
裏	-10.4153
驟	-10.4154
懋	-10.4154
平原君	-10.4154
染	-10.4155
望見	-10.4167
諸大夫	-10.4175
訣	-10.4176
等並	-10.4178
國王	-10.4181
遮	-10.4181
城内	-10.4183
疑之	-10.4184
郃	-10.4189
抄	-10.4189
是謂	-10.4191
顓頊	-10.4191
藍	-10.4191
魯侯	-10.4192
武侯	-10.4194
愆	-10.4195
耗	-10.4195
汚	-10.4196
毫	-10.4198
駒	-10.4198
圃	-10.4199
虎賁	-10.4202
將帥	-10.4203
開門	-10.4212
使持節	-10.4221
壻	-10.4225
穎	-10.4236
軾	-10.4238
金陵	-10.4239
驩	-10.4239
王王	-10.4241
冀州刺史	-10.4245
范書	-10.4245
士民	-10.4252
自古	-10.4255
范陽	-10.4256
明公	-10.4259
拱	-10.426
而得	-10.4262
不盡	-10.4266
與我	-10.4269
塘	-10.427
丈夫	-10.427
何必	-10.4272
撤	-10.4274
於外	-10.4275
鉤	-10.4278
覧	-10.4278
匪	-10.4281
非也	-10.4282
輝	-10.4288
城郭	-10.4294
風雨	-10.4295
夷狄	-10.4295
穆王	-10.4302
不治	-10.431
益州刺史	-10.4314
不拜	-10.4319
冏	-10.4321
與王	-10.4321
㘴	-10.4324
之重	-10.4325
騐	-10.4326
之書	-10.4328
去官	-10.4334
嗣位	-10.434
使使	-10.434
秦之	-10.434
至矣	-10.434
洪武	-10.4359
毓	-10.4361
其間	-10.4362
齊師	-10.4362
訥	-10.4362
少年	-10.4366
盍	-10.4369
景帝	-10.4377
之聲	-10.4388
譬	-10.4388
鄂	-10.4392
孝經	-10.4392
渙	-10.4407
乙巳	-10.4408
爱	-10.4409
金帛	-10.441
驥	-10.441
翦	-10.4412
伎	-10.4416
未必	-10.4417
文成	-10.4421
犢	-10.4425
哀王	-10.4428
不疑	-10.4432
伐宋	-10.4432
獻之	-10.4435
與語	-10.4436
閉門	-10.4437
常山	-10.4443
幽王	-10.4443
因以	-10.4445
若是	-10.4445
僣	-10.4446
涇	-10.4446
國事	-10.4451
搆	-10.4453
綵	-10.4453
耽	-10.4453
春正月	-10.4455
記室	-10.4455
銜	-10.4457
厨	-10.4461
不義	-10.4465
忠義	-10.4471
討平之	-10.4474
躍	-10.4486
判官	-10.4487
䜟	-10.449
南山	-10.4491
閱	-10.4493
扇	-10.4495
之職	-10.4495
拂	-10.4495
魏軍	-10.4496
立功	-10.4498
攻城	-10.4498
歴位	-10.4503
南方	-10.4506
滿洲語	-10.4506
鄫	-10.4507
三王	-10.451
兵法	-10.4514
禮之	-10.4515
乃命	-10.4515
六卷	-10.4521
聞之曰	-10.4523
非常	-10.4523
太常卿	-10.4523
也原	-10.4525
遣兵	-10.4526
凝	-10.4527
不果	-10.4527
者三	-10.453
郝	-10.4536
自陳	-10.4536
日中	-10.4536
三國	-10.4537
此言	-10.4537
驢	-10.4539
國有	-10.454
元年春正月	-10.4541
填	-10.4542
刁	-10.4542
暑	-10.4542
弦	-10.4543
瑶	-10.4544
湖廣	-10.4544
各一人	-10.4548
或以	-10.4548
周之	-10.4552
而進	-10.4552
為文	-10.456
出兵	-10.4561
奪其	-10.4561
之孫	-10.4563
昉	-10.4571
衮	-10.4571
孝武帝	-10.4574
受禪	-10.4576
匱	-10.4576
荣	-10.4576
主事	-10.4577
紙	-10.458
踵	-10.4583
廻	-10.4584
訣一卷	-10.4584
禆	-10.4585
廩	-10.4587
蔚	-10.4589
九十	-10.4591
潞	-10.4594
浙	-10.4597
南海	-10.4598
而復	-10.4598
可乎	-10.4602
已下	-10.4604
孺子	-10.4605
繕	-10.4606
鄉人	-10.4616
尚書右僕射	-10.4617
悪	-10.4624
熒惑	-10.4625
馥	-10.4626
當以	-10.4626
又與	-10.4627
邇	-10.4628
捷	-10.4631
人事	-10.4631
臘	-10.4632
迎之	-10.4634
赫	-10.4647
章句	-10.4648
太白	-10.4651
響	-10.4654
北征	-10.4655
欲立	-10.4662
觴	-10.4665
所獲	-10.4667
人也祖	-10.4668
以身	-10.4671
体	-10.4671
數十人	-10.4672
嘆曰	-10.4676
書云	-10.4677
金城	-10.4677
以致	-10.468
大旱	-10.468
有天下	-10.4681
忠賢	-10.4687
曰彼	-10.4699
於楚	-10.4702
北平	-10.4704
三分	-10.4704
憚之	-10.4708
立為	-10.4711
泓	-10.4712
剖	-10.4716
無敢	-10.4719
哀帝	-10.4723
六國	-10.4724
之弟	-10.4728
固守	-10.4734
信都	-10.4734
司𨽻校尉	-10.4735
壬	-10.4738
衆軍	-10.4741
無有	-10.4748
牒	-10.4752
詆	-10.4753
唐虞	-10.4754
瑩	-10.4755
帷	-10.4758
壓	-10.4759
款	-10.4763
蚤	-10.4765
板	-10.4766
不屈	-10.4768
赤眉	-10.477
往來	-10.4773
自謂	-10.4775
疾病	-10.4777
故不	-10.4777
定州	-10.4791
早卒	-10.4793
憐	-10.4793
年老	-10.4798
粛	-10.4801
銳	-10.4801
苟	-10.4806
挟	-10.4806
師于	-10.4809
千萬	-10.4812
引為	-10.4814
禮部尚書	-10.4815
食邑	-10.482
行幸	-10.4825
晉師	-10.4827
脚	-10.484
替	-10.4843
揮	-10.4845
彩	-10.4846
乃得	-10.485
必死	-10.4853
叟	-10.4853
輔臣	-10.4857
鴈門	-10.4858
元祐	-10.4859
執事	-10.4861
撓	-10.4868
二年春正月	-10.487
髙麗	-10.4872
不進	-10.4875
大人	-10.4877
來聘	-10.4877
南昌	-10.488
霧	-10.4887
時事	-10.4889
建鄴	-10.489
永元	-10.4891
贓	-10.4891
棟	-10.4893
刪	-10.4894
緡	-10.4894
灰	-10.4894
元康	-10.4896
籌	-10.4897
不立	-10.4897
二女	-10.4898
刑罰	-10.4907
錦衣	-10.4911
民間	-10.4912
上谷	-10.4915
服之	-10.4918
掘	-10.4923
僧辯	-10.4926
禁中	-10.4929
病卒	-10.4933
以死	-10.4933
姻	-10.4934
不樂	-10.4936
山陵	-10.494
廓	-10.4941
憎	-10.4944
韓子	-10.4944
襄十	-10.4946
弑其君	-10.4949
敗績	-10.4953
謂之曰	-10.4956
上䟽	-10.4956
攻魏	-10.4959
周官	-10.496
貴賤	-10.4961
諸君	-10.4969
延夀	-10.4971
不忠	-10.4977
悖	-10.4978
入見	-10.4979
南郊	-10.498
坎	-10.4981
斧	-10.4984
至尊	-10.4987
引見	-10.499
秦秦	-10.4992
録尚書事	-10.4992
奔齊	-10.4993
女為	-10.4998
恐其	-10.4998
不載	-10.4998
月餘	-10.5002
四夷	-10.5006
肯	-10.5013
此其	-10.5023
成侯	-10.5023
開皇	-10.5025
乗輿	-10.5026
以為然	-10.5026
皇考	-10.5027
奠	-10.5031
股	-10.5033
廐	-10.5034
二十一	-10.5035
㩀	-10.5036
㑹于	-10.5037
代王	-10.504
為天下	-10.5043
黔	-10.5046
西平	-10.5048
遷于	-10.5052
安之	-10.5052
何故	-10.5058
乃出	-10.506
鄭人	-10.5064
而欲	-10.5066
僉	-10.5067
因而	-10.5068
沃	-10.5072
変	-10.5073
后稷	-10.5074
磨	-10.5077
搏	-10.5077
卒年七十	-10.508
繹	-10.5083
鼓吹	-10.5087
也於是	-10.509
烏桓	-10.5091
三千人	-10.5104
不動	-10.5104
議郎	-10.5106
祭祀	-10.5107
岡	-10.5112
苻	-10.5112
國除	-10.5113
禧	-10.5113
嗜	-10.5114
訾	-10.5116
閎	-10.5123
於前	-10.5129
魴	-10.5129
歐陽	-10.5129
加侍中	-10.5137
是歲	-10.5147
一也	-10.515
戰國	-10.5153
固請	-10.5154
利害	-10.5156
禘	-10.5158
暗	-10.516
論者	-10.5166
戊	-10.5166
建元	-10.5167
正徳	-10.5167
隘	-10.5168
寤	-10.5168
獲其	-10.5168
壅	-10.5171
字季	-10.5173
琅邪王	-10.5175
宦官	-10.5181
崔杼	-10.5183
之矣	-10.5191
財物	-10.5192
襄二十	-10.52
經畧	-10.5205
朝鮮	-10.5206
著書	-10.5207
筮	-10.5209
迭	-10.5213
城南	-10.5214
芻	-10.5215
春申君	-10.5221
長公主	-10.5226
稱之	-10.5228
者其	-10.5228
又使	-10.5236
中行	-10.5242
二王	-10.5245
土地	-10.5248
都下	-10.5248
俯	-10.525
司𨽻	-10.5253
滇	-10.5257
正統	-10.5258
自知	-10.5258
天子之	-10.5258
參知政事	-10.526
東都事略卷	-10.5261
問其	-10.5263
托	-10.5264
禀	-10.5265
膏	-10.5266
京口	-10.527
未聞	-10.5272
吳興	-10.5274
夏人	-10.5277
欲殺	-10.5277
而生	-10.5278
加散騎常侍	-10.5279
收其	-10.528
字公	-10.529
腰	-10.5295
天水	-10.5298
聚衆	-10.5299
永興	-10.5301
眀年	-10.5302
衆皆	-10.5303
此書	-10.5303
今君	-10.5309
為天子	-10.5309
黍	-10.5313
嗚呼	-10.5314
三老	-10.5315
合肥	-10.5318
相傳	-10.5323
五星	-10.5336
烏孫	-10.5343
紳	-10.5347
為尚書	-10.5348
頒	-10.5348
劳	-10.535
非所	-10.535
蠡	-10.5355
夭	-10.5358
知人	-10.5359
再遷	-10.5361
曰非	-10.5362
度支	-10.5365
姪	-10.5367
近臣	-10.5373
儀同	-10.5381
零	-10.5384
也君	-10.5386
矣然	-10.5387
上書言	-10.5389
於朝	-10.5391
閏	-10.5395
措	-10.5399
昂	-10.54
挫	-10.5401
繪	-10.5403
祕書監	-10.5404
柯	-10.5404
經史	-10.5404
墟	-10.5406
𦙍	-10.5408
水旱	-10.5409
偷	-10.5409
王導	-10.5413
之說	-10.5415
縂	-10.5421
之謂	-10.5422
真定	-10.5423
京城	-10.5424
畝	-10.5427
臣下	-10.5428
季子	-10.5429
桂陽	-10.5431
先後	-10.5437
所宜	-10.5439
也遂	-10.5441
南征	-10.5441
六卿	-10.5444
屡	-10.5447
同郡	-10.5448
掃	-10.5451
浸	-10.5451
下車	-10.5454
䜛	-10.5454
之形	-10.5457
二十七	-10.5461
雒陽	-10.5463
棄之	-10.5465
譯	-10.5469
周文	-10.547
其主	-10.5478
左僕射	-10.548
萬暦	-10.5482
所作	-10.5483
臣等	-10.5485
之族	-10.5485
黙然	-10.5485
二曰	-10.5488
樂安	-10.5488
玄	-10.5489
其才	-10.5492
主上	-10.5497
䕃	-10.55
酺	-10.5502
桓元	-10.5505
進軍	-10.5506
克之	-10.5507
可為	-10.5513
而弗	-10.5514
之用	-10.5519
吉凶	-10.5521
吳郡	-10.5527
隷	-10.5527
及至	-10.5528
卿士	-10.553
疾篤	-10.5531
武都	-10.5541
河南尹	-10.5541
勾	-10.5541
狹	-10.5546
纓	-10.5546
位至	-10.5546
酈	-10.5549
蝗	-10.5551
樞密使	-10.5553
太皇太后	-10.5556
得志	-10.5558
大明	-10.556
集二卷	-10.5562
得一	-10.5569
出塞	-10.5569
上疏曰	-10.5571
陽城	-10.5573
隕	-10.5575
不幸	-10.5581
員外郎	-10.5581
為我	-10.559
犀	-10.5592
袍	-10.5592
稱為	-10.5593
戢	-10.5593
鎬	-10.5595
闢	-10.5595
組	-10.5595
綴	-10.5595
曄	-10.5595
濮陽	-10.5595
狥	-10.5596
弭	-10.5596
輟	-10.5596
闔廬	-10.5596
治之	-10.56
率兵	-10.5615
辜	-10.5618
相持	-10.5619
桓帝	-10.5623
三十里	-10.5624
伐陳	-10.5629
义	-10.5633
安都	-10.5636
暠	-10.5638
何所	-10.5639
街	-10.5642
禕	-10.5642
泗	-10.5644
鬱	-10.5645
箴	-10.5646
第三	-10.5646
若何	-10.5647
禽獸	-10.5648
法令	-10.5656
其兄	-10.5657
棗	-10.5658
交通	-10.5659
辭曰	-10.566
鍾離	-10.566
上柱國	-10.5661
隅	-10.5664
承天	-10.5667
北面	-10.5675
世之	-10.5675
芮	-10.5678
敬王	-10.5688
西伯	-10.5688
嵗餘	-10.5689
人所	-10.569
吿	-10.5692
新野	-10.5693
二字	-10.5694
璉	-10.5697
不改	-10.5697
齊神武	-10.5705
曰不然	-10.5708
不取	-10.5715
為司馬	-10.572
宜陽	-10.5722
論一卷	-10.5728
蚩尤	-10.5739
亊	-10.574
五代	-10.574
擲	-10.5741
或作	-10.5742
憾	-10.5742
光禄勲	-10.5743
椿	-10.5743
不去	-10.5747
朝貢	-10.5752
功名	-10.5754
儒者	-10.5756
趙盾	-10.5757
為尚書令	-10.5758
鎮撫	-10.5759
官軍	-10.5759
忠孝	-10.5762
太元	-10.5764
吏士	-10.5764
雖不	-10.5766
無異	-10.5777
濤	-10.5781
數十萬	-10.5782
歴代	-10.5782
之風	-10.5785
長孫	-10.5786
有聲	-10.5788
敦煌	-10.5789
柵	-10.579
丁卯	-10.5791
騶	-10.5791
燧	-10.5792
入為	-10.5792
敢不	-10.5795
都䕶	-10.5799
少時	-10.5799
當有	-10.5799
傳云	-10.5808
冬至	-10.5812
古文	-10.5813
山隂	-10.5815
八人	-10.5817
者有	-10.5818
奏請	-10.5824
稜	-10.5835
知縣	-10.5836
曷	-10.5837
愽	-10.5837
乃自	-10.5842
曰諾	-10.5842
腐	-10.5843
又何	-10.5843
貝	-10.5844
乃復	-10.5846
領兵	-10.5848
瑀	-10.585
陽平	-10.5853
舎人	-10.5857
莫如	-10.5858
永樂	-10.5858
始興	-10.5865
執之	-10.5872
非其	-10.5876
子夏	-10.5877
閹	-10.5878
侍講	-10.5881
嶺南	-10.5882
京都	-10.5887
㱕	-10.5887
觀其	-10.5889
伸	-10.589
刋	-10.589
它	-10.5893
霜	-10.5893
左丞	-10.5897
曰可	-10.5903
茹	-10.5903
自成	-10.5909
不答	-10.591
君也	-10.5917
太中大夫	-10.5919
總兵	-10.5921
今之	-10.5922
浪	-10.5927
而求	-10.5929
大行	-10.593
蹇	-10.5933
鉉	-10.5933
鄖	-10.5934
稚	-10.5942
案范	-10.5942
汜	-10.5943
砦	-10.5945
爾朱榮	-10.5948
便宜	-10.5953
隴右	-10.5953
之盛	-10.5958
出知	-10.5959
神明	-10.597
同知	-10.5976
武陵	-10.5978
斬其	-10.5978
欲與	-10.5981
共公	-10.5982
弘	-10.5984
不解	-10.5986
絡	-10.5986
世隆	-10.5986
影	-10.5987
鍼	-10.5988
叢	-10.5988
顛	-10.5989
障	-10.599
攜	-10.599
辛卯	-10.5991
安邑	-10.5992
告之	-10.5993
渚	-10.5994
之前	-10.5994
艦	-10.5995
蒐	-10.5997
賜姓	-10.5999
凉	-10.5999
自有傳	-10.6005
平生	-10.6006
徙封	-10.6006
顓	-10.6007
存亡	-10.6008
淮陽	-10.601
懐王	-10.6012
不能用	-10.6014
而亡	-10.6016
故人	-10.6018
教之	-10.6019
倦	-10.6019
有事	-10.602
楚國	-10.6023
詔獄	-10.6027
帝遣	-10.6028
行至	-10.6028
乃召	-10.6031
為都督	-10.6031
衆人	-10.6033
漢兵	-10.6036
而能	-10.6038
晉文公	-10.604
粗	-10.6042
衆心	-10.6043
此則	-10.6043
不修	-10.6045
轡	-10.6045
訢	-10.6053
參政	-10.606
漁陽	-10.6061
弋	-10.6062
禮也	-10.6065
號令	-10.6067
未得	-10.6081
未嘗不	-10.6082
宋人	-10.6083
嘉靖	-10.6085
五萬	-10.6088
蘄	-10.6088
分兵	-10.6089
之南	-10.6091
第四	-10.6092
輜重	-10.6097
携	-10.6097
和帝	-10.6098
進兵	-10.6098
南面	-10.6104
炳	-10.6104
大梁	-10.6107
大理	-10.6109
麾下	-10.6112
來奔	-10.6113
一萬	-10.6114
奔走	-10.6118
周室	-10.612
集二十卷	-10.6124
必以	-10.6124
之憂	-10.613
陛	-10.6132
○	-10.6133
責之	-10.6135
歐	-10.6135
奉詔	-10.6136
攘	-10.6137
哲宗	-10.6138
黃帝	-10.614
殁	-10.6142
頂	-10.6144
棲	-10.6145
馭	-10.6145
母弟	-10.6148
伋	-10.6148
鮑叔	-10.6153
春三月	-10.6154
跋	-10.6154
嬰齊	-10.6159
為氏	-10.616
威儀	-10.616
建業	-10.6167
於上	-10.6171
禮義	-10.6175
際	-10.6176
軍國	-10.6177
為皇太子	-10.6185
臨朝	-10.6185
張氏	-10.6186
復置	-10.6187
無窮	-10.6187
處之	-10.619
乙卯	-10.619
烝	-10.6192
嚮	-10.6196
服其	-10.6197
軍旅	-10.6198
女也	-10.6201
歎息	-10.6206
自若	-10.6209
大亂	-10.621
為帝	-10.6213
見而	-10.6214
建初	-10.6215
死於	-10.6223
使其	-10.6225
城陽	-10.6227
同心	-10.6229
征討	-10.623
之力	-10.6232
未定	-10.6237
炎帝	-10.6241
轉運使	-10.6242
所著	-10.6243
中道	-10.6245
䝉遜	-10.6246
翠	-10.6246
炙	-10.6248
瓚	-10.6249
犯法	-10.6249
柩	-10.6249
纔	-10.625
鳥獸	-10.6251
丹陽尹	-10.6252
卭	-10.6253
之女	-10.6253
劉備	-10.6253
足矣	-10.6254
黄門郎	-10.6256
無人	-10.6257
行於世	-10.6264
之文	-10.6266
議論	-10.6275
選舉	-10.6277
灼	-10.6285
興師	-10.6291
泛	-10.6294
兀	-10.6294
躡	-10.6295
藴	-10.6296
樞密副使	-10.6298
佯	-10.6298
子良	-10.6298
弇	-10.6298
萬户	-10.6299
技	-10.63
年七十	-10.6301
購	-10.6304
)□(	-10.6305
苐	-10.6307
進曰	-10.6309
遼西	-10.6314
秦昭王	-10.6322
人間	-10.6325
二十九	-10.6334
為質	-10.6337
建徳	-10.6341
七人	-10.6341
燕趙	-10.6342
勦	-10.6342
有過	-10.6344
昕	-10.6346
厄	-10.6347
示之	-10.6349
趙武	-10.6349
三郡	-10.6352
髠	-10.6357
又詔	-10.6361
詧	-10.6369
前代	-10.6369
正色	-10.6383
有人	-10.6384
兵至	-10.639
見於	-10.6392
内附	-10.6394
愉	-10.6397
乗勝	-10.6398
酉	-10.6398
境内	-10.6399
靈帝	-10.64
甚衆	-10.6401
秦師	-10.6404
慶封	-10.6405
吕氏春秋	-10.6409
詩書	-10.6409
柰何	-10.6409
案范書本傳	-10.641
嘗為	-10.6414
賦詩	-10.6415
之末	-10.6416
必先	-10.6421
西戎	-10.6423
建興	-10.6428
有隙	-10.6429
勛	-10.6431
昭二十	-10.6435
功封	-10.6435
生而	-10.6437
車師	-10.6444
堵	-10.6445
分為	-10.6448
𣣔	-10.6451
揆	-10.6452
七百	-10.6452
忻	-10.6453
囯	-10.6453
生於	-10.6456
亶	-10.6458
璽書	-10.6458
數人	-10.6461
我我	-10.6462
赦之	-10.6468
許昌	-10.6471
朝議	-10.6471
拜為	-10.6477
其義	-10.6483
淳于	-10.6484
勒兵	-10.6484
而自	-10.6485
三曰	-10.6487
何謂	-10.6487
越人	-10.6493
圍之	-10.6496
不任	-10.65
猝	-10.6501
朂	-10.6501
語在	-10.6502
樂毅	-10.6503
魂	-10.6504
塩	-10.6506
裒	-10.6507
堕	-10.6507
澗	-10.6507
南安	-10.6508
聘于	-10.651
籠	-10.651
二日	-10.651
反覆	-10.651
奉朝請	-10.6511
扁鵲	-10.6512
集五卷	-10.6521
百户	-10.6522
以明	-10.6543
不可不	-10.6544
相率	-10.6546
遷都	-10.6549
十五卷	-10.6553
零陵	-10.6555
右僕射	-10.6558
以奉	-10.6559
霄	-10.656
元和	-10.656
二十二	-10.656
鱗	-10.656
一家	-10.656
廪	-10.6562
魯國	-10.6562
蔓	-10.6563
力戰	-10.6564
子思	-10.6564
府庫	-10.6564
公私	-10.6565
庇	-10.6565
出公	-10.6569
春二月	-10.6571
今年	-10.6571
遂至	-10.6572
甚有	-10.6574
甚多	-10.6575
以正	-10.6578
匠	-10.658
武陵王	-10.6581
定王	-10.6582
䏻	-10.6587
鉅	-10.6589
騎都尉	-10.66
縣伯	-10.66
入海	-10.66
逖	-10.66
覈	-10.6609
蘭陵	-10.6609
鯀	-10.661
中郎将	-10.6612
冤	-10.6616
蒼梧	-10.6616
斫	-10.6616
處士	-10.6626
不加	-10.6627
髙平	-10.6629
野王	-10.6632
委以	-10.6633
為令尹	-10.6637
中官	-10.664
成十	-10.664
萬騎	-10.664
出自	-10.664
有差	-10.6648
受業	-10.6652
後人	-10.6652
于王	-10.6653
承制	-10.6664
輔國將軍	-10.6669
鵠	-10.667
太子太傅	-10.6671
則可	-10.6677
不廢	-10.6677
四子	-10.6678
魯君	-10.668
中書郎	-10.6683
莫若	-10.6683
初置	-10.6687
知府	-10.6691
大笑	-10.6694
因其	-10.6695
本朝	-10.6697
所親	-10.6699
安南	-10.67
三世	-10.6702
輕騎	-10.6706
其次	-10.6712
與同	-10.6713
偪	-10.6713
説之	-10.6714
軒轅	-10.6716
鄱陽	-10.6719
大呼	-10.672
声	-10.6721
不仕	-10.6721
竒之	-10.6723
倪	-10.6725
豪傑	-10.6729
徃徃	-10.6741
師曠	-10.6743
景王	-10.6744
人者	-10.6745
晉楚	-10.6748
損益	-10.6749
其族	-10.6749
必敗	-10.675
将士	-10.6753
自言	-10.6769
邃	-10.6771
釣	-10.6772
匹夫	-10.6775
閏月	-10.6775
遍	-10.6776
隰	-10.6778
闡	-10.6779
以濟	-10.678
郯	-10.678
雎	-10.6781
鯉	-10.6781
家語	-10.6782
安能	-10.6783
事也	-10.6789
于朝	-10.679
餓	-10.6792
者曰	-10.6795
廣平	-10.6796
而不知	-10.6801
旬日	-10.6802
八卷	-10.6803
自然	-10.6804
楊素	-10.6805
建平	-10.6806
家屬	-10.6808
軍敗	-10.6808
則無	-10.6808
太山	-10.6809
已死	-10.6812
光祿大夫	-10.6815
先登	-10.6816
靈太后	-10.6821
孫氏	-10.6822
福建	-10.6824
遂入	-10.6825
衷	-10.6826
販	-10.6827
䆒	-10.6827
而民	-10.6828
㝠	-10.6828
此乃	-10.683
尔	-10.683
詘	-10.6831
諮議參軍	-10.6832
國也	-10.6832
公叔	-10.6833
大功	-10.6833
蓬	-10.6834
以事	-10.6834
淚	-10.6835
烹	-10.6837
京兆尹	-10.684
元孫	-10.6842
問於	-10.6843
陕西	-10.6851
百家	-10.6852
大懼	-10.686
稱臣	-10.6864
東至	-10.6869
匄	-10.6869
畆	-10.687
擊破之	-10.6872
七十二	-10.6873
内臣	-10.6874
欲使	-10.6876
隋文帝	-10.6877
卯	-10.6879
進號	-10.6881
漳	-10.6882
堤	-10.6882
悝	-10.6883
不滿	-10.6883
轅	-10.6885
妨	-10.6885
與俱	-10.6886
亡命	-10.6886
譛	-10.6887
上有	-10.6887
愁	-10.6888
各一	-10.6894
軼	-10.6896
縂兵	-10.6902
孟氏	-10.6907
忠信	-10.6908
不敬	-10.6908
獻帝	-10.6909
不避	-10.6911
山谷	-10.6913
禍福	-10.6915
河上	-10.6916
其本	-10.6916
昭十	-10.6924
帝乃	-10.6926
尭	-10.6928
而使	-10.6931
而况	-10.6932
璠	-10.6932
熹	-10.6933
殄	-10.6935
千戸	-10.6939
屑	-10.694
為秦	-10.694
窘	-10.6941
皂	-10.6941
則不	-10.6941
褐	-10.6943
別	-10.6943
若之何	-10.6944
伐秦	-10.6946
降者	-10.6949
梁州刺史	-10.6951
哀侯	-10.6951
而成	-10.6957
受詔	-10.6958
以救	-10.696
諡曰文	-10.6962
故城	-10.6964
不道	-10.6971
周人	-10.6974
後以	-10.6976
嘉其	-10.6976
以天下	-10.6979
姚興	-10.6981
共王	-10.6986
臨江	-10.6986
而天下	-10.6997
班師	-10.6998
小兒	-10.7
歸于	-10.7
嬪	-10.7003
項羽	-10.7004
下有	-10.7005
順天	-10.7007
三年春正月	-10.701
自立為	-10.7018
其門	-10.7019
拾遺	-10.7021
録一卷	-10.7022
前鋒	-10.7022
記云	-10.7026
降之	-10.7027
交州	-10.7031
歌曰	-10.7034
數萬人	-10.7035
無常	-10.7037
奏之	-10.7037
将兵	-10.7039
猶未	-10.7039
其能	-10.7039
溉	-10.7041
命也	-10.7044
乆矣	-10.7045
黄龍	-10.7046
衛侯	-10.7046
豈非	-10.7047
扼	-10.7049
緝	-10.705
陳蔡	-10.7051
竦	-10.7052
餙	-10.7052
凢	-10.7053
而君	-10.7053
昵	-10.7053
除名	-10.7053
潮	-10.7054
朋黨	-10.7055
撫軍	-10.7055
奨	-10.7055
呵	-10.7055
君子之	-10.7058
夣	-10.7058
五里	-10.7061
汎	-10.7062
稽首	-10.7066
不亦	-10.7067
王元	-10.7068
初封	-10.7071
幘	-10.7077
法一卷	-10.7077
縣子	-10.708
威名	-10.7086
西魏	-10.7087
通志卷	-10.7091
其首	-10.7091
與魏	-10.7093
吳人	-10.7094
之戰	-10.7095
諫議大夫	-10.7098
懌	-10.71
陳氏	-10.71
就國	-10.7101
户部	-10.7102
名為	-10.7102
州牧	-10.7102
七卷	-10.7104
揺	-10.7105
巴陵	-10.7105
歩騎	-10.7107
未之	-10.7108
稻	-10.7108
殃	-10.7108
燔	-10.7109
搜	-10.7111
暇	-10.7111
國子祭酒	-10.7114
孔氏	-10.7115
杜預	-10.7118
你	-10.712
羈	-10.7121
仲堪	-10.7122
豈能	-10.7126
右將軍	-10.7127
千八百	-10.7129
毛詩	-10.7134
公㑹	-10.7145
曰天下	-10.7146
班固	-10.7146
與人	-10.715
日食	-10.715
水陸	-10.7162
死亡	-10.7163
禮儀	-10.7164
錄尚書事	-10.7169
晏子曰	-10.7169
峯	-10.7169
之徳	-10.7171
緑	-10.7174
漢之	-10.7175
成敗	-10.7181
宋公	-10.7184
書奏	-10.7185
王公	-10.7189
舟師	-10.7189
平章	-10.72
小子	-10.7201
安平	-10.7201
臨淮	-10.7209
開國	-10.7211
大夏	-10.7211
寐	-10.7216
梓	-10.7217
癸卯	-10.7218
貂	-10.7218
為前鋒	-10.7219
瘞	-10.722
槐	-10.7222
泊	-10.7222
懼而	-10.7222
扞	-10.7225
尚史卷	-10.7225
廕	-10.7225
梁武	-10.7226
弗許	-10.7227
蔡邕	-10.723
之美	-10.7231
有四	-10.7236
新安	-10.7238
縊	-10.7241
王儉	-10.7241
歴陽	-10.7243
所以為	-10.7248
奉命	-10.725
秦州	-10.7252
棄市	-10.7258
美人	-10.7258
夫婦	-10.7258
而起	-10.7259
濵	-10.7259
天監	-10.7261
告急	-10.7266
周書	-10.7267
諸縣	-10.7268
孕	-10.7272
按金史	-10.7273
此人	-10.7274
每有	-10.7274
復舊	-10.7274
迥	-10.7274
灾	-10.7276
閣臣	-10.7278
以罪	-10.7278
兎	-10.7279
著作郎	-10.728
不稱	-10.728
大敗之	-10.728
拯	-10.7281
頑	-10.7282
入闗	-10.7285
伐蜀	-10.7286
所過	-10.7287
復有	-10.7291
攸之	-10.7295
世紀	-10.7296
四川	-10.7296
之理	-10.7303
欽宗	-10.7307
即以	-10.7308
惠帝	-10.7313
明經	-10.7316
聰明	-10.7317
救鄭	-10.7319
弗能	-10.7319
請為	-10.7322
甚矣	-10.7324
故能	-10.7326
時政	-10.7328
三品	-10.7329
駮	-10.733
猥	-10.7336
洮	-10.7337
貎	-10.7337
轂	-10.7338
拓	-10.7339
舉秀才	-10.7346
不豫	-10.7349
豈得	-10.7353
無知	-10.7354
吾君	-10.7354
梁州	-10.7356
朝服	-10.7358
終始	-10.7361
太史公	-10.7362
復入	-10.7364
韓非子	-10.7364
年八十	-10.7365
注云	-10.7365
官爵	-10.7366
以義	-10.7368
然也	-10.7368
敝邑	-10.7369
二州刺史	-10.7371
曰然	-10.7374
以應	-10.7378
第五	-10.7379
頓首	-10.7382
疑其	-10.7383
乃立	-10.7385
犂	-10.7389
寮	-10.7389
有名	-10.739
黎陽	-10.739
猜	-10.7396
不中	-10.7397
矛	-10.7398
言官	-10.7398
逝	-10.7399
四面	-10.7399
埽	-10.7399
璟	-10.74
郊祀	-10.7402
牡	-10.7402
二國	-10.7404
之於是	-10.7406
使君	-10.7409
㑹諸侯之大夫	-10.7411
戎狄	-10.7414
海陵	-10.7417
華陽	-10.742
江都	-10.7424
何足	-10.7425
識者	-10.7425
平陵	-10.7427
異姓	-10.7427
復與	-10.7429
甲兵	-10.7429
害之	-10.7432
上流	-10.7434
末年	-10.7434
是其	-10.7434
蜀人	-10.7435
戰敗	-10.7437
嗟乎	-10.744
齊楚	-10.744
祇	-10.7441
使臣	-10.7442
趙鞅	-10.7445
廣州刺史	-10.7446
汶	-10.7446
穰	-10.7447
道子	-10.7447
白起	-10.7448
過人	-10.7448
刄	-10.7451
萬國	-10.7451
授之	-10.7451
未盡	-10.7451
篡	-10.7452
不自安	-10.7453
其利	-10.7455
紿	-10.7456
楨	-10.7457
祖父	-10.7458
傉檀	-10.7459
龜兹	-10.7461
與楚	-10.7467
何得	-10.7467
二十三	-10.7468
地方	-10.747
為刺史	-10.7471
司馬懿	-10.7471
婦女	-10.748
致之	-10.7484
貢獻	-10.7486
少孤	-10.7491
事不	-10.7492
未見	-10.7492
為郡	-10.7496
城守	-10.7497
臣恐	-10.7498
委任	-10.75
厲王	-10.7502
所滅	-10.7502
㑹諸侯	-10.7504
在前	-10.7505
玠	-10.7506
先人	-10.7506
中書舎人	-10.7509
卬	-10.751
想	-10.751
爛	-10.751
隄	-10.7511
萬計	-10.7511
堰	-10.7511
駁	-10.7512
徙居	-10.7514
紘	-10.7514
同時	-10.7515
字景	-10.7516
三十萬	-10.7518
曰無	-10.7525
膠	-10.7529
劉毅	-10.7531
州府	-10.7535
來降	-10.7538
齊之	-10.7543
親征	-10.7547
三州	-10.7548
淮南王	-10.7551
二十人	-10.7554
其所以	-10.7557
萬年	-10.7558
至京師	-10.7564
置之	-10.7567
封侯	-10.7571
油	-10.7572
行而	-10.7572
䛇	-10.7572
肹	-10.7573
留之	-10.7582
吕覽	-10.7584
太上	-10.7588
奭	-10.759
貴戚	-10.7593
然之	-10.7594
謂人曰	-10.7595
以相	-10.7599
於諸侯	-10.76
新序	-10.7604
十餘日	-10.7608
曰請	-10.7609
之門	-10.7611
不意	-10.7611
有寵	-10.7612
勉之	-10.7613
食其	-10.7615
絶其	-10.7615
五十里	-10.7616
李斯	-10.7623
于周	-10.7623
訐	-10.7625
覬	-10.7628
慶父	-10.7629
百二十	-10.7631
冠軍	-10.7633
章獻	-10.7635
太清	-10.7638
之北	-10.7639
獻文	-10.7641
死子	-10.7643
為太傅	-10.7643
僖二十	-10.7643
其城	-10.7644
所見	-10.7645
故有	-10.7648
所聞	-10.7652
死後	-10.7654
安樂	-10.7657
和親	-10.7657
亦作	-10.7661
聊	-10.7662
史官	-10.7663
幽州刺史	-10.7664
三皇	-10.7668
廢立	-10.7672
踰年	-10.7676
白虎	-10.7678
士誠	-10.768
於人	-10.768
不一	-10.7682
伏兵	-10.7682
軍至	-10.7682
也昔	-10.7683
鬚	-10.7687
狡	-10.7689
一等	-10.7689
國子博士	-10.7689
卒於家	-10.769
當死	-10.769
剪	-10.7691
不仁	-10.7692
以故	-10.7697
十有二	-10.7698
奏曰	-10.7698
黄巾	-10.77
不可得	-10.7704
数十	-10.7704
南康	-10.7707
文書	-10.771
又作	-10.7714
元顯	-10.7716
更名	-10.7721
三百人	-10.7723
縣男	-10.7725
頃公	-10.7725
水軍	-10.7729
多矣	-10.7729
之服	-10.773
群臣	-10.7732
懿公	-10.7734
加以	-10.7737
萬民	-10.7739
不能自	-10.7745
侵我	-10.7745
以次	-10.7745
無私	-10.7746
妬	-10.7746
海上	-10.7748
楚楚	-10.7751
别駕	-10.7753
安世	-10.7753
乞骸骨	-10.7755
入關	-10.7757
大雨	-10.7759
卒于	-10.776
言語	-10.7765
孫子	-10.7774
孝友	-10.7777
刑部	-10.7782
蔡侯	-10.7784
年三十	-10.7793
山林	-10.7796
一月	-10.7798
隸	-10.7798
少師	-10.78
陽縣	-10.7801
庠	-10.7802
志云	-10.7802
童子	-10.7802
還都	-10.7803
庚戌	-10.7807
汰	-10.7808
縉	-10.7808
懦	-10.7808
慝	-10.781
給事黄門侍郎	-10.781
一子	-10.7811
胙	-10.7812
年二十	-10.7813
於晉	-10.782
焚之	-10.782
甘茂	-10.7825
賞罰	-10.7826
避之	-10.7829
之始	-10.7831
大舉	-10.7833
遂殺	-10.7834
萬機	-10.7835
問于	-10.7837
於民	-10.784
之西	-10.7844
遣子	-10.7844
討賊	-10.7846
吾欲	-10.7852
髙宗	-10.7852
以私	-10.7854
朽	-10.786
貴州	-10.7861
攀	-10.7863
媯	-10.7866
蒸	-10.7866
而至	-10.7866
大司空	-10.7868
前將軍	-10.7868
竝	-10.7869
伯父	-10.787
相如	-10.7871
牋	-10.7871
駙馬都尉	-10.7871
粥	-10.7872
烏珠	-10.7872
曰必	-10.7873
還京師	-10.7875
一嵗	-10.7876
化為	-10.7876
興宗	-10.7876
勃海	-10.7878
舉孝亷	-10.7879
祜	-10.7879
在郡	-10.7881
以待之	-10.7886
箕子	-10.7886
以為不可	-10.7886
後復	-10.7887
卒年六十	-10.7892
復遣	-10.7894
撃之	-10.7895
成化	-10.7895
曹公	-10.7901
儒學	-10.791
非有	-10.7911
不測	-10.7914
不法	-10.7914
𢡟	-10.7915
璜	-10.7916
繼之	-10.7917
梁武帝	-10.7918
田宅	-10.7918
諌曰	-10.792
𥙿	-10.7921
粹	-10.7924
人父	-10.7924
丸	-10.7928
梗	-10.7929
金石	-10.7934
餌	-10.7934
惰	-10.7935
棠	-10.7936
乃歸	-10.7937
器械	-10.7939
友諒	-10.794
三嵗	-10.7941
長平	-10.7944
年六十	-10.7945
又謂	-10.7948
之政	-10.7948
襲封	-10.7949
小字	-10.7952
于天下	-10.7952
甚盛	-10.7953
山南	-10.7963
島	-10.7964
妻之	-10.7967
舍之	-10.797
者悉	-10.7971
三十一年	-10.7973
於時	-10.7976
應天	-10.7977
居正	-10.7977
人君	-10.7977
勝之	-10.798
酒泉	-10.7981
戒之	-10.7987
有變	-10.7989
淡	-10.7992
年十五	-10.7994
摶	-10.7994
瞿	-10.7994
賢人	-10.7996
蟬	-10.7996
上皇	-10.7996
縣官	-10.7996
不順	-10.7997
愬	-10.7997
之詩	-10.7997
武城	-10.7998
顧謂	-10.8001
奉迎	-10.8004
不知所	-10.8004
疫	-10.8006
于外	-10.8006
西周	-10.8006
秦人	-10.8012
子元	-10.8014
長城	-10.8015
其勢	-10.8016
坦之	-10.8017
而走	-10.8017
平之	-10.8025
大名	-10.8027
保定	-10.803
時論	-10.8032
人民	-10.8032
一千	-10.8033
遣將	-10.8038
中山王	-10.804
築城	-10.804
明主	-10.8045
無益	-10.8046
昜	-10.8047
鞍	-10.8047
内閣	-10.805
轍	-10.8051
猾	-10.8051
慚	-10.8054
弓矢	-10.8055
党	-10.8055
戀	-10.8055
糓	-10.8055
三晉	-10.8056
執法	-10.8058
工部尚書	-10.8059
吐蕃	-10.8059
百寮	-10.806
更相	-10.8063
罷之	-10.8066
其可	-10.8068
盎	-10.8078
縣有	-10.8082
尚書右丞	-10.8082
遇之	-10.8084
衛将軍	-10.8084
無遺	-10.8088
傳曰	-10.8089
王安石	-10.8091
國無	-10.8095
秦州刺史	-10.8099
龍門	-10.81
槩	-10.8107
上意	-10.8109
十三卷	-10.811
籓	-10.8113
此二	-10.8115
儋	-10.8116
樵	-10.8116
燾	-10.8117
中領軍	-10.812
則民	-10.8122
至孝	-10.8122
逺矣	-10.8124
難以	-10.8125
帝嚳	-10.8125
之物	-10.8129
稱疾不	-10.8129
進攻	-10.813
武威	-10.8131
國用	-10.8137
人或	-10.814
漢陽	-10.8143
西至	-10.8144
五等	-10.8146
員外	-10.8146
彗	-10.8149
之失	-10.815
遂滅	-10.8152
君命	-10.8153
六軍	-10.8154
珽	-10.8156
言事	-10.8156
一篇	-10.816
趙簡子	-10.8165
武功	-10.8166
涕	-10.8167
在朝	-10.8167
復何	-10.8168
謝罪	-10.8168
莘	-10.8169
所執	-10.8169
自以為	-10.817
臨川	-10.8172
齊魯	-10.8173
捍	-10.8174
賚	-10.8174
傭	-10.8174
宋右廸功郎鄭樵漁仲撰	-10.8176
荼	-10.8178
麤	-10.818
場	-10.818
莫有	-10.8181
無可	-10.8181
股肱	-10.8181
兵革	-10.8182
黄鐘	-10.8182
北宫	-10.8184
卵	-10.8188
不救	-10.8192
容貌	-10.8194
至徳	-10.8198
下士	-10.82
伐晉	-10.8203
按原書	-10.8209
悉以	-10.8211
陕	-10.8211
又問	-10.8216
以討	-10.8222
見害	-10.8224
入洛	-10.823
召入	-10.8233
獻王	-10.8233
望風	-10.8236
而言	-10.8237
崧	-10.8237
祧	-10.8237
征西將軍	-10.824
甲戌	-10.8242
為司	-10.8246
月令	-10.8246
令狐	-10.8252
之餘	-10.8266
亦如之	-10.8266
平侯	-10.8269
為後	-10.8272
又令	-10.8277
即皇帝位	-10.8286
襄城	-10.8291
劵	-10.8294
竺	-10.8295
其議	-10.8296
丙戌	-10.8297
世為	-10.8298
打	-10.8302
有徳	-10.8302
怖	-10.8302
勰	-10.8302
太平興國	-10.8303
經術	-10.8303
慘	-10.8304
拳	-10.8305
看	-10.8306
無故	-10.8307
薳	-10.8309
縑	-10.8309
黯	-10.8312
諾	-10.8313
為御史	-10.8314
廬陵	-10.8321
袁術	-10.8321
老人	-10.8324
名士	-10.8331
軍人	-10.8336
曾孫	-10.834
遁去	-10.834
魯公	-10.834
韓信	-10.8341
孝昭	-10.8342
不願	-10.8344
人無	-10.835
頡	-10.8353
五六	-10.8354
此皆	-10.836
王琳	-10.836
禇	-10.836
散騎侍郎	-10.8363
任之	-10.8364
㤙	-10.8366
脈	-10.8366
羮	-10.8366
覘	-10.8367
机	-10.8368
治天下	-10.837
坐事	-10.837
跨	-10.837
懇	-10.837
暐	-10.8371
羔	-10.8374
儀注	-10.8374
金紫光禄大夫	-10.8375
堅守	-10.8375
千五百	-10.8376
全忠	-10.8378
綱紀	-10.8381
北至	-10.8388
諸部	-10.839
五百人	-10.8391
如此則	-10.8399
三十三年	-10.84
而未	-10.8405
晉大夫	-10.8405
故得	-10.841
姒	-10.8413
自有	-10.842
中人	-10.8421
郡中	-10.8422
二郡	-10.8422
相去	-10.8424
故地	-10.8424
欲為	-10.8425
如其	-10.8426
翳	-10.8427
蓼	-10.8428
鉄	-10.843
六百	-10.843
拾	-10.843
也父	-10.8432
禮部侍郎	-10.8432
為郎	-10.8432
踐阼	-10.8433
覃	-10.8433
欲得	-10.8434
鎧	-10.8434
二縣	-10.8435
璩	-10.8435
五百里	-10.8436
割地	-10.8436
註	-10.8436
杼	-10.8438
曰然則	-10.8438
臨淄	-10.8438
入秦	-10.8443
安危	-10.8451
雲陽	-10.8453
不孝	-10.8453
公族	-10.8454
齡	-10.8457
曰秦	-10.8458
天祚	-10.8463
初立	-10.8463
者乃	-10.8466
之恩	-10.8473
出師	-10.8475
爾雅	-10.8477
四曰	-10.8479
范氏	-10.8479
謚文	-10.8479
率騎	-10.8486
慱	-10.8486
拊	-10.849
應侯	-10.8491
巴蜀	-10.8491
納言	-10.8492
臼	-10.8492
虵	-10.8493
麋	-10.8495
顔色	-10.8495
裝	-10.8495
呈	-10.8496
渴	-10.8496
張掖	-10.85
磬	-10.85
郡人	-10.8501
庾亮	-10.8501
寂	-10.8502
者莫不	-10.8507
也及	-10.8509
有識	-10.8509
偏將軍	-10.8511
欲殺之	-10.8517
所破	-10.8518
并州刺史	-10.8526
之氣	-10.8528
在後	-10.8532
稱疾	-10.8534
城人	-10.8536
乎曰	-10.8538
有竒	-10.8538
倉卒	-10.8539
五品	-10.8539
與子	-10.854
林父	-10.8541
安陸	-10.8542
此時	-10.8543
夀陽	-10.8543
少好學	-10.8547
案此	-10.8548
旻	-10.8553
忱	-10.8556
少而	-10.8557
咸平	-10.8558
監察御史	-10.8559
非是	-10.856
衘	-10.856
行也	-10.8561
胸	-10.8561
袖	-10.8563
鄭氏	-10.8565
控	-10.8565
以書	-10.8565
請降	-10.8566
夙夜	-10.8566
龕	-10.8567
將有	-10.8568
平定	-10.8568
厠	-10.8569
許諾	-10.8571
聰敏	-10.8573
公事	-10.8574
之語	-10.8574
國政	-10.8574
在於	-10.8574
秦漢	-10.8574
不知也	-10.8574
田氏	-10.8581
管仲曰	-10.8582
侯子	-10.8582
出戰	-10.8584
廷臣	-10.8584
三十二	-10.8592
元景	-10.8595
於天	-10.8598
前軍	-10.8599
語曰	-10.8599
遜位	-10.8602
憲宗	-10.8605
不事	-10.8609
二三	-10.861
四萬	-10.8618
歇	-10.8619
賊帥	-10.8619
宵	-10.862
脉	-10.862
参軍	-10.862
牢之	-10.862
杯	-10.8621
鴈	-10.8624
曩	-10.8624
出于	-10.8625
往往	-10.8625
劉向	-10.8626
躁	-10.8627
椎	-10.8627
漫	-10.8627
梧	-10.8629
祝融	-10.8634
母曰	-10.8637
亡國	-10.8638
祕書	-10.8641
昨	-10.8642
主者	-10.8644
昭儀	-10.8645
之母	-10.8648
詔令	-10.8649
易之	-10.8653
百疋	-10.8654
左遷	-10.8654
四州	-10.866
六十四	-10.8664
皇天	-10.8665
未發	-10.8667
曰今日	-10.867
陰陽	-10.8674
闔	-10.8681
之論	-10.8681
之要	-10.8682
怡	-10.8682
車服	-10.8684
奔于	-10.8685
郵	-10.8685
娥	-10.8686
頥	-10.8687
粉	-10.869
鴆	-10.869
五子	-10.8692
諜	-10.8694
餞	-10.8694
諛	-10.8694
君何	-10.8696
羆	-10.8697
摘	-10.8697
渝	-10.8698
孫叔敖	-10.87
王道	-10.8702
掖	-10.8705
此事	-10.8705
徴為	-10.8706
才學	-10.8706
大赦改元	-10.871
與諸	-10.8712
與弟	-10.8714
覲	-10.8719
上怒	-10.8722
奔晉	-10.8727
待詔	-10.873
上聞	-10.8731
祖母	-10.8731
宣徳	-10.8737
牛酒	-10.8739
夏口	-10.8744
曰願	-10.8744
當是時	-10.8745
曽子	-10.8747
下大夫	-10.8748
魏氏	-10.875
之賢	-10.8753
宗人	-10.8754
戊戌	-10.8755
狩	-10.8756
諂	-10.8756
徤	-10.8757
窟	-10.8759
嫂	-10.876
漂	-10.876
挽	-10.8761
甘泉	-10.8766
於周	-10.8767
艱難	-10.8771
執金吾	-10.8772
國寳	-10.8776
罪人	-10.8777
集一卷	-10.8778
臨終	-10.8782
諭之	-10.8784
尚有	-10.8789
宣城	-10.8791
及即位	-10.8792
棄官	-10.8792
魏郡	-10.8795
善射	-10.8801
有常	-10.8801
曰大	-10.8802
尊號	-10.8803
俱為	-10.8805
奉表	-10.8805
其職	-10.8805
涿郡	-10.8806
天保	-10.8808
死不	-10.8808
之弊	-10.8809
魏武	-10.881
帳下	-10.8812
趙魏	-10.8813
處分	-10.8819
商人	-10.882
其辭	-10.8822
北師	-10.8822
水火	-10.8823
白帝	-10.8824
撻	-10.8824
府長史	-10.8826
道也	-10.8827
稱善	-10.8828
封為	-10.883
他人	-10.8831
之分	-10.8833
桀紂	-10.8834
以東	-10.8835
建文	-10.8839
大興	-10.8841
工部	-10.8844
在州	-10.8846
羣下	-10.8851
諫官	-10.8853
以獻	-10.8855
莫之	-10.8855
罷兵	-10.8856
上郡	-10.8858
戰勝	-10.886
謝安	-10.8863
所重	-10.8863
以供	-10.8867
東觀	-10.8868
衛人	-10.8869
不終	-10.8871
康叔	-10.8871
戰死	-10.8872
詩一卷	-10.8874
國子	-10.8875
其行	-10.8876
兼侍中	-10.8879
威王	-10.8883
後至	-10.8884
封建	-10.8885
破賊	-10.8886
其妻子	-10.8886
拙	-10.8887
字君	-10.8889
脂	-10.8898
莖	-10.89
何罪	-10.8901
城外	-10.8902
如齊	-10.8906
士庶	-10.8907
朝歌	-10.891
通鑑	-10.8911
至自	-10.8914
卒諡曰	-10.8915
表請	-10.8916
蕭何	-10.8917
所用	-10.8918
之望	-10.8919
千秋	-10.8919
劉表	-10.8922
字彦	-10.8924
赴之	-10.8929
行者	-10.8929
九品	-10.893
不倦	-10.8931
百餘里	-10.8932
家居	-10.8932
不害	-10.8936
乗馬	-10.8937
康公	-10.8939
無後	-10.894
西征	-10.8943
在上	-10.8943
南直	-10.8947
甚得	-10.8949
國君	-10.8951
六合	-10.8951
于民	-10.8954
楯	-10.8955
殂	-10.8955
中宗	-10.8958
旄	-10.8958
可不	-10.8959
其位	-10.896
淪	-10.896
為吏	-10.896
犒	-10.8961
鞫	-10.8961
及帝	-10.8961
郕	-10.8962
洎	-10.8962
帝親	-10.8963
姑臧	-10.8963
著作	-10.8968
鼠	-10.8969
又按	-10.8969
志在	-10.8974
萬一	-10.8975
五千人	-10.8978
獲免	-10.8981
内有	-10.8989
終身不	-10.899
遂有	-10.8991
昭侯	-10.8994
列子	-10.8999
乞師	-10.8999
前驅	-10.8999
先朝	-10.9003
之東	-10.9007
智者	-10.9007
事者	-10.9009
為天	-10.9009
千二百	-10.901
士馬	-10.9013
複	-10.9015
千餘里	-10.9019
當為	-10.902
批	-10.902
封爵	-10.9021
安陵	-10.9021
上天	-10.9024
核	-10.9026
桞	-10.9027
選侍	-10.9029
己卯	-10.903
醫藥	-10.903
囿	-10.903
四十里	-10.9031
傳一卷	-10.9032
蚡	-10.9033
不守	-10.9035
卒年五十	-10.9035
依舊	-10.9038
以通	-10.9039
以本官	-10.904
廆	-10.9049
之費	-10.9049
珣	-10.9051
不暇	-10.9051
為大夫	-10.9051
為此	-10.906
於内	-10.9061
頽	-10.9065
耳今	-10.9065
年十三	-10.9067
功徳	-10.9069
穆之	-10.9072
敗於	-10.9075
皆如	-10.9078
方今	-10.9081
牧守	-10.9085
以實	-10.9086
仲淹	-10.9088
數千里	-10.9088
所能	-10.909
詹事	-10.9094
北京	-10.9094
夸	-10.9097
坑	-10.9098
趙髙	-10.9098
天竺	-10.9099
塹	-10.9099
小白	-10.9099
實録	-10.9102
不和	-10.9103
哀十	-10.9109
華元	-10.9111
不殺	-10.9115
領軍將軍	-10.9115
慟哭	-10.9115
徳宗	-10.9116
律令	-10.9117
未敢	-10.9122
授以	-10.9122
白公	-10.9122
提舉	-10.9123
又改	-10.9125
身死	-10.9126
守令	-10.9127
征之	-10.9129
矣故	-10.9133
之路	-10.9133
矣又	-10.9136
以和	-10.9136
獠	-10.9138
北門	-10.9139
京邑	-10.9141
騎射	-10.9141
失色	-10.9143
有言	-10.9144
公侯	-10.9148
王妃	-10.915
太官	-10.915
肅然	-10.9152
與兄	-10.9155
西山	-10.9156
朔日有蝕之	-10.9159
如其言	-10.9162
貯	-10.9162
銷	-10.9163
盡力	-10.9164
搗	-10.9164
將相	-10.9164
蹙	-10.9166
千載	-10.9167
諸侯王	-10.9167
藪	-10.9169
合諸侯	-10.9169
婉	-10.917
東海王越	-10.9171
第六	-10.9171
皆不	-10.9172
凡所	-10.9172
不求	-10.9173
退保	-10.9176
城北	-10.9177
簡王	-10.9179
公室	-10.9179
藏之	-10.918
遺詔	-10.9185
十四卷	-10.9188
至於此	-10.9191
酒酣	-10.9194
昭子	-10.9195
城西	-10.9195
獲罪	-10.9199
廣東	-10.9199
蒯	-10.9201
争之	-10.9202
壯士	-10.9213
君王	-10.9215
恵公	-10.9222
天寳	-10.9228
瑄	-10.9229
指揮使	-10.9229
擔	-10.9232
旃	-10.9233
蠱	-10.9234
株	-10.9236
惡其	-10.9237
樸	-10.9237
刑部尚書	-10.9238
饌	-10.9238
贄	-10.9238
吏部郎	-10.924
軀	-10.9241
山澤	-10.9245
葬之	-10.9245
一軍	-10.9247
虎牢	-10.9248
孰與	-10.9253
吾聞	-10.9253
憂之	-10.9257
佐之	-10.9259
牛羊	-10.926
比干	-10.9262
墨子	-10.9269
義士	-10.927
為左右	-10.927
其謀	-10.9276
道徳	-10.9276
秦兵	-10.9277
共工	-10.9277
推官	-10.9281
而作	-10.9281
人人	-10.9282
過之	-10.9282
永明	-10.9283
計也	-10.9285
櫟	-10.9289
太宰嚭	-10.9294
義熙	-10.9294
瑱	-10.9296
論功	-10.9296
嫗	-10.9298
查	-10.93
仲父	-10.9301
卽	-10.9303
猗	-10.9303
轄	-10.9305
凍	-10.9305
其將	-10.9305
脯	-10.9306
袒	-10.9306
郄	-10.9307
登進士第	-10.9307
河中	-10.9309
諸人	-10.931
五官	-10.931
旦夕	-10.9311
屯兵	-10.9311
其徳	-10.9315
極言	-10.9315
稱王	-10.9316
荆軻	-10.9318
同州	-10.9324
其兵	-10.9326
青龍	-10.9329
不時	-10.9333
非一	-10.9335
追至	-10.9336
何敢	-10.9342
以父	-10.9342
予之	-10.9344
韓王	-10.9345
吕氏	-10.9346
繆公	-10.9347
泰始	-10.9347
委之	-10.9349
東夷	-10.935
固讓	-10.935
南陽太守	-10.9351
至長安	-10.9351
不待	-10.9351
相攻	-10.9354
搃	-10.9355
武后	-10.9359
三尺	-10.936
守仁	-10.9361
爕	-10.9361
避難	-10.9361
帑	-10.9362
曰先生	-10.9364
十五里	-10.9365
駢	-10.9366
少康	-10.9366
皆在	-10.9367
壬戌	-10.9368
諸侯之師	-10.937
攻趙	-10.9372
鷹	-10.9374
殽	-10.9375
蠧	-10.9377
抜	-10.9377
吝	-10.9379
榻	-10.9379
裹	-10.9381
碧	-10.9382
為卿	-10.9382
車騎将軍	-10.9383
地而	-10.9385
高麗	-10.9389
故吏	-10.939
纘	-10.9392
内官	-10.9393
魏晉	-10.9394
并力	-10.9401
劾奏	-10.9402
延之	-10.9403
素服	-10.9407
當今	-10.9408
叅	-10.9409
東征	-10.9416
門生	-10.9416
門户	-10.9418
新亭	-10.9419
于河	-10.9422
賢而	-10.9423
並以	-10.9428
燕山	-10.9429
親信	-10.9429
於世	-10.943
方正	-10.9432
一二	-10.9435
城陷	-10.9437
斬獲	-10.9437
酣	-10.9439
其道	-10.944
劣	-10.9442
畤	-10.9443
廙	-10.9445
擢為	-10.9445
病死	-10.9447
鹽鐵	-10.9447
軻	-10.9449
且夫	-10.945
豁	-10.9451
之色	-10.9451
蜚	-10.9453
人倫	-10.9455
慨然	-10.9456
死生	-10.9457
王叔	-10.9458
不逮	-10.9459
矯詔	-10.9459
與戰	-10.946
周旋	-10.9461
甲戍	-10.9461
則是	-10.9463
君其	-10.9463
不以為	-10.9464
亡也	-10.9467
曰爾	-10.9468
義也	-10.9468
今若	-10.9472
無過	-10.9475
五嵗	-10.9476
其俗	-10.9476
衞將軍	-10.9476
矣若	-10.9477
景宗	-10.9478
後除	-10.9478
焚其	-10.948
大如	-10.9483
宋衛	-10.9484
成周	-10.9489
之妻	-10.949
於下	-10.9491
洪武中	-10.9494
子女	-10.9502
鎮守	-10.9502
多有	-10.9512
箇	-10.9512
以西	-10.9512
建州	-10.9512
夷簡	-10.9513
紐	-10.9513
尚之	-10.9513
魏文侯	-10.9514
民有	-10.9514
義陽	-10.9515
亦可	-10.9517
添	-10.9517
譎	-10.952
映	-10.952
秃	-10.9521
勇士	-10.9521
闔閭	-10.9522
為人臣	-10.9528
服闋	-10.9528
山水	-10.953
山崩	-10.9531
城東	-10.9531
永和	-10.9534
而食	-10.9535
寢疾	-10.9536
百金	-10.9536
於道	-10.9539
天和	-10.9548
之長	-10.9551
為大將軍	-10.9553
不附	-10.9554
燕京	-10.9561
不親	-10.9561
劉曜	-10.9563
女直	-10.9564
諸路	-10.9574
誰能	-10.9579
善於	-10.9579
中牟	-10.958
不軌	-10.9586
縶	-10.9586
慟	-10.9588
呌	-10.9589
冗	-10.9589
妓	-10.9592
筭	-10.9592
聖徳	-10.9593
縮	-10.9595
之辭	-10.9596
王崩	-10.9598
小吏	-10.9599
仕至	-10.9601
勃勃	-10.9603
擊破	-10.9605
復歸	-10.9608
常為	-10.9608
武定	-10.9609
願得	-10.9611
謚忠	-10.9612
見于	-10.9614
盡忠	-10.9618
貧民	-10.9622
蔡京	-10.9623
蜀郡	-10.9625
二十里	-10.9625
五原	-10.9625
至則	-10.9629
將死	-10.9631
得臣	-10.9636
人不	-10.9637
立皇子	-10.9638
所愛	-10.9642
年四十	-10.9647
聽之	-10.9649
之象	-10.9649
朞	-10.9651
兇	-10.9652
儉約	-10.9653
司直	-10.9653
单	-10.9654
詩序	-10.9655
青陽	-10.9656
何能	-10.9657
廣西	-10.9657
甘露	-10.9658
孜	-10.9659
瓜	-10.9659
玊	-10.9659
換	-10.9661
貞觀	-10.9661
悌	-10.9662
之音	-10.9662
既立	-10.9667
而上	-10.9667
多少	-10.9667
世世	-10.9668
親屬	-10.9671
同日	-10.9673
婚姻	-10.9674
禹貢	-10.9678
杭	-10.9679
鄢陵	-10.968
也先	-10.9683
若水	-10.9685
下令	-10.9689
西陵	-10.9693
為東	-10.9695
陶侃	-10.9696
令其	-10.9698
於君	-10.9703
切責	-10.9705
餘衆	-10.9708
八十一	-10.9708
職事	-10.9709
太甲	-10.972
於市	-10.9721
王后	-10.9721
秦伯	-10.9722
總督	-10.9724
圜	-10.9726
平城	-10.9727
綦	-10.9729
天王	-10.973
流人	-10.973
伴	-10.9731
撥	-10.9733
懽	-10.9733
疵	-10.9735
葦	-10.9737
滔	-10.9738
虹	-10.9738
涇原	-10.9738
蘆	-10.9738
殞	-10.9739
抽	-10.9739
善屬文	-10.9739
復見	-10.974
不説	-10.9742
太子太保	-10.9742
為臣	-10.9746
廷弼	-10.9747
四十年	-10.9747
者並	-10.9748
朝堂	-10.975
有禮	-10.9751
攻圍	-10.9754
憙	-10.9757
公及	-10.9758
林邑	-10.9758
武平	-10.9758
既已	-10.9758
善騎射	-10.9758
大體	-10.9759
其説	-10.976
不息	-10.9761
國史	-10.9762
所載	-10.9763
不得入	-10.9764
為賊所	-10.9765
謂左右曰	-10.9765
矣且	-10.9768
公公	-10.977
湣王	-10.977
諸弟	-10.9774
萬歲	-10.9781
老弱	-10.9783
臣子	-10.9785
主之	-10.9787
光禄	-10.9787
用人	-10.9788
不冝	-10.9789
奏言	-10.979
鄢	-10.9793
攻齊	-10.9796
軍師	-10.9796
七里	-10.98
帝王之	-10.98
燈	-10.9803
以定	-10.9805
錮	-10.9805
燎	-10.9807
幡	-10.9807
炭	-10.9808
之處	-10.9809
廂	-10.9809
婆	-10.9809
驪姬	-10.9809
尤甚	-10.9812
誄	-10.9812
年十二	-10.9812
驃騎大將軍	-10.9812
淮北	-10.9813
禁錮	-10.9814
大定	-10.9817
冠軍將軍	-10.9818
大兵	-10.9818
事皆	-10.9821
餘黨	-10.9825
▁年	-10.9825
永寧	-10.9825
鄭元	-10.9826
盛徳	-10.9827
於國	-10.9828
韓琦	-10.983
于我	-10.983
章帝	-10.9831
作樂	-10.9831
伯宗	-10.9831
征西	-10.9832
康居	-10.9832
明徳	-10.9833
降于	-10.984
明矣	-10.9848
嘉靖中	-10.9851
而已矣	-10.9853
恭王	-10.9856
百日	-10.9856
辟為	-10.9862
至北京	-10.9866
之本	-10.9867
不變	-10.9867
與齊	-10.9868
連年	-10.9875
槃	-10.9877
皎	-10.9878
大辟	-10.9878
能為	-10.9879
莱	-10.988
种	-10.9881
吳起	-10.9882
著作佐郎	-10.9883
斐	-10.9884
公車	-10.9884
魏帝	-10.9884
塢	-10.9885
電	-10.9885
旂	-10.9885
碁	-10.9886
朝廷以	-10.9887
荔	-10.9889
不給	-10.9892
一事	-10.9892
為長史	-10.9893
濟北	-10.9894
因氏焉	-10.9896
于諸侯	-10.9897
者衆	-10.99
驍勇	-10.99
性好	-10.9903
尚方	-10.9904
太子詹事	-10.9907
黄鍾	-10.991
后土	-10.991
承宗	-10.9919
社稷之	-10.992
可用	-10.9922
以避	-10.9923
江北	-10.9924
少帝	-10.9925
經義	-10.9925
遣使朝貢	-10.9925
小臣	-10.9926
於是乎	-10.9928
家有	-10.993
沈約	-10.9933
瑟	-10.9933
參将	-10.9934
稼	-10.994
摇	-10.9941
失利	-10.9941
人之所	-10.9944
而好	-10.9944
輔國	-10.9944
其聲	-10.9946
書傳	-10.9947
以徇	-10.9948
生于	-10.9948
攻破	-10.995
鵬	-10.995
吾將	-10.9951
武徳	-10.9952
起於	-10.9955
懾	-10.9955
楼	-10.9955
烟	-10.9956
皆曰	-10.9956
于天	-10.9956
丙戍	-10.9957
義宣	-10.9957
瞽	-10.9958
瑒	-10.9959
庖	-10.996
王侯	-10.996
者所以	-10.9962
邏	-10.9965
不舉	-10.9969
二十六	-10.9969
上邽	-10.997
贈侍中	-10.997
得人	-10.997
之主	-10.9972
有異志	-10.9977
帥衆	-10.9986
飲之	-10.9989
被誅	-10.999
伯夷	-10.9996
來歸	-10.9999
必欲	-10.9999
曰聞	-11.0002
庶長	-11.0004
涿	-11.0006
還至	-11.0006
名也	-11.001
罪也	-11.0015
二十餘	-11.0016
濟隂	-11.0018
東周	-11.0018
泣曰	-11.002
聶	-11.0024
東府	-11.0027
叅知政事	-11.0028
秣陵	-11.0029
入其	-11.0029
之野	-11.003
片	-11.0031
令丞	-11.0031
謝曰	-11.0032
餽	-11.0032
斟	-11.0032
臥	-11.0033
陘	-11.0033
嘯	-11.0034
都城	-11.0034
研	-11.0034
藁	-11.0035
杜預注	-11.0035
團	-11.0036
里克	-11.0036
於魏	-11.0036
奢侈	-11.0036
浴	-11.0036
城在	-11.0037
逃歸	-11.0037
州防禦使	-11.0037
之黨	-11.0037
臭	-11.0037
縣人	-11.0038
經略	-11.0041
慕容垂	-11.0045
皝	-11.0045
郎中令	-11.0046
加都督	-11.0047
者無	-11.0047
宣十	-11.0048
三族	-11.0049
三百里	-11.0049
穰侯	-11.005
之誅	-11.0051
一字	-11.0052
神仙	-11.006
不覺	-11.006
高帝	-11.0062
集三卷	-11.0062
神主	-11.0062
自後	-11.0063
趙趙	-11.0065
四年春正月	-11.0067
韓詩	-11.0068
民無	-11.0069
桓王	-11.0072
于魯	-11.0073
人馬	-11.0073
楚莊王	-11.0074
大㑹	-11.0076
之儀	-11.0076
報之	-11.0077
大夫種	-11.0079
田單	-11.008
穆宗	-11.0081
帝命	-11.0082
喜曰	-11.0084
斡里雅布	-11.009
復還	-11.0091
吾所	-11.0098
楊氏	-11.0098
元元	-11.01
云云	-11.0101
祭之	-11.0105
奬	-11.0109
南至	-11.0109
噲	-11.0109
罸	-11.011
士衆	-11.011
啼	-11.0111
憶	-11.0111
仁者	-11.0113
隗囂	-11.0113
仆	-11.0113
其死	-11.0115
按此	-11.0115
因言	-11.0116
釗	-11.0118
不韋	-11.0119
大抵	-11.0119
城邑	-11.0123
其官	-11.0126
徵為	-11.0128
猶在	-11.0128
定州刺史	-11.0128
所稱	-11.013
郭氏	-11.0131
其徒	-11.0133
字士	-11.0133
天啓	-11.0133
師道	-11.0134
左右皆	-11.0135
此亦	-11.0136
不由	-11.0144
聖王	-11.0145
盆	-11.0145
而身	-11.0146
西夏	-11.0147
元旧	-11.0147
老母	-11.0148
於後	-11.015
大計	-11.0155
治亂	-11.0155
復命	-11.0156
又嘗	-11.0157
方進	-11.0157
累世	-11.0158
僮	-11.0158
郢州	-11.0158
百八十	-11.016
形勢	-11.0166
河水	-11.0169
太子中庶子	-11.0169
大司徒	-11.0169
以觀	-11.0171
友善	-11.0172
玘	-11.0173
議曰	-11.0173
異同	-11.0178
闕下	-11.018
學校	-11.0184
曽祖	-11.0184
邦昌	-11.0185
洪範	-11.0186
絞	-11.0187
有文	-11.0187
詵	-11.0188
纎	-11.0188
世充	-11.0189
璽綬	-11.019
邴	-11.019
所致	-11.0191
利而	-11.0192
猶以	-11.0194
在官	-11.0194
死矣	-11.0195
佐命	-11.0195
不降	-11.0199
有頃	-11.02
常有	-11.02
千六百	-11.0207
靈臺	-11.0207
地志	-11.0208
未足	-11.0209
者以為	-11.0211
正義	-11.0214
敬則	-11.0215
下獄死	-11.0216
張華	-11.0219
右丞	-11.022
金史	-11.0221
尋除	-11.0221
出鎮	-11.0221
卿大夫	-11.0221
東萊	-11.0225
在東宫	-11.0229
千乗	-11.023
舊典	-11.023
相望	-11.023
嘗以	-11.0231
初平	-11.0235
率其	-11.0235
請救	-11.0236
乘輿	-11.0236
起居	-11.0237
羣臣皆	-11.0238
必無	-11.0242
威將軍	-11.0243
不雨	-11.0243
漢興	-11.025
四部	-11.0252
永初	-11.0253
鍳	-11.0256
守臣	-11.0256
黼	-11.0257
乱	-11.0257
水中	-11.0258
飭	-11.0262
察之	-11.0262
鳳翔	-11.0264
鳯翔	-11.0264
畋	-11.0265
寒暑	-11.0266
四國	-11.0266
反叛	-11.0266
區區	-11.0267
秦使	-11.0269
引去	-11.0271
郈	-11.0272
比之	-11.0275
耶律	-11.0278
秀才	-11.0279
代郡	-11.0279
謡	-11.028
既定	-11.028
葛榮	-11.028
猶不	-11.028
嘗謂	-11.0281
使我	-11.0283
憐之	-11.0285
之力也	-11.0287
涪	-11.0289
者矣	-11.0292
喪服	-11.0294
帝謂	-11.0295
河橋	-11.0296
爵為	-11.0298
伐魯	-11.0302
常與	-11.0302
爵位	-11.0304
珠玉	-11.0308
此所謂	-11.0309
還家	-11.0309
之過	-11.0312
嘗有	-11.0318
盡心	-11.0321
晉平公	-11.0321
遣之	-11.0323
司馬光	-11.0326
登城	-11.0326
漢使	-11.0326
未易	-11.0328
因謂	-11.0329
東海王	-11.033
恐懼	-11.0331
孛	-11.0334
也此	-11.0334
奥	-11.0335
媪	-11.0335
讙	-11.0336
士也	-11.0339
不省	-11.034
年十四	-11.034
礪	-11.0341
羌胡	-11.0341
百世	-11.0341
賜名	-11.0344
濕	-11.0344
士竒	-11.0345
鮒	-11.0345
除之	-11.0345
檢校	-11.0348
齊名	-11.0348
請罪	-11.035
蘇峻	-11.0353
沛國	-11.0356
後進	-11.0357
居官	-11.0358
為魏	-11.0358
彗星見	-11.0359
還朝	-11.036
郡丞	-11.0361
若夫	-11.0364
子朝	-11.0367
世有	-11.0369
悼王	-11.037
聖賢	-11.0371
改名	-11.0373
雖無	-11.0374
字世	-11.0374
精騎	-11.0376
衛大將軍	-11.0378
之迹	-11.0384
起居注	-11.0386
帝令	-11.0386
千匹	-11.0388
湘東王	-11.0389
真人	-11.0391
帝幸	-11.0394
戰而	-11.0396
不好	-11.0397
恩信	-11.0398
良久	-11.04
太子舍人	-11.04
芬	-11.0404
字道	-11.0405
需	-11.0407
年五十	-11.0411
燕人	-11.0413
倩	-11.0413
澆	-11.0414
弹	-11.0415
馴	-11.0415
璁	-11.0416
散騎	-11.0417
跳	-11.0417
郗	-11.0418
膚	-11.0418
闥	-11.0419
陁	-11.042
誌	-11.042
弃	-11.0421
以充	-11.0422
不亦可乎	-11.0423
中二千石	-11.0423
藺	-11.0423
捶	-11.0424
節制	-11.0424
伍子胥	-11.0425
瀛	-11.0427
要害	-11.0427
湯武	-11.0429
三十二年	-11.043
人謂	-11.0431
名臣	-11.0431
傾覆	-11.0434
國號	-11.0435
稱職	-11.0435
部郎	-11.0439
卿等	-11.0442
庻人	-11.0443
城䧟	-11.0444
去職	-11.0445
可使	-11.0445
賢良	-11.0445
天聖	-11.0447
並有	-11.0449
前世	-11.0452
是後	-11.0453
終於	-11.0454
晉君	-11.0455
二十餘年	-11.0457
七十里	-11.0457
九人	-11.0457
多不	-11.0457
弗聽	-11.0459
已上	-11.0461
義兵	-11.0463
議欲	-11.0471
被害	-11.0478
僉事	-11.0479
漢魏	-11.0481
欣然	-11.0482
曰天子	-11.0483
建昌	-11.0483
人少	-11.0484
衡山	-11.0486
年號	-11.0487
得無	-11.0488
炫	-11.049
冷	-11.0492
紗	-11.0493
磐	-11.0494
年十八	-11.0494
侍臣	-11.0494
巻	-11.0495
押	-11.0495
烏丸	-11.0496
爪	-11.0498
丐	-11.0498
腸	-11.0498
鏤	-11.0499
蓮	-11.0499
不朝	-11.0499
装	-11.05
闘	-11.0501
季札	-11.0502
勣	-11.0506
薨諡曰	-11.0508
于宋	-11.0512
陸遜	-11.0513
縱横	-11.0513
其禮	-11.0514
引軍	-11.0514
手詔	-11.0515
憂懼	-11.0516
以徳	-11.052
次曰	-11.052
不反	-11.0522
親臨	-11.0524
二三子	-11.0524
鄰國	-11.0525
三十七	-11.0525
丁謂	-11.0529
伐吳	-11.0535
遷侍中	-11.0537
太一	-11.0539
七千	-11.054
敵人	-11.0545
王僧辯	-11.0545
友人	-11.0566
知伯	-11.0568
亡者	-11.0569
更立	-11.057
六尺	-11.057
壬戍	-11.057
戊戍	-11.0572
今陛下	-11.0573
髦	-11.0573
麴	-11.0574
勤王	-11.0574
恭帝	-11.0574
擕	-11.0574
聲色	-11.0574
有神	-11.0574
磔	-11.0574
彥	-11.0575
魋	-11.0575
濶	-11.0575
濱	-11.0576
靳	-11.0576
嫉	-11.0576
姜維	-11.0577
上令	-11.0577
洵	-11.0578
黥	-11.0579
進爵為公	-11.0579
邠	-11.0581
識之	-11.0584
陽人	-11.0585
陽太守	-11.0585
十數	-11.0588
帝怒	-11.0588
正直	-11.0589
乎夫	-11.0592
九卷	-11.0592
士人	-11.0596
本草	-11.0596
定陶	-11.0597
亷頗	-11.0598
師事	-11.0599
豈敢	-11.0601
五曰	-11.0604
百一十	-11.0605
不遜	-11.0612
軍吏	-11.0615
長驅	-11.0617
逆之	-11.0617
為人所	-11.0619
節儉	-11.0619
臣也	-11.0623
崔氏	-11.0624
一見	-11.0625
千三百	-11.0632
長於	-11.0635
也原作	-11.0637
屬國	-11.0639
千七百	-11.064
大恱	-11.064
三十餘	-11.064
曰孤	-11.0641
經傳	-11.0641
而見	-11.0642
濟河	-11.0642
南都	-11.0643
云何	-11.0645
天錫	-11.0645
百濟	-11.0646
沆	-11.0648
彭祖	-11.0651
貟	-11.0651
當國	-11.0652
夔	-11.0653
峽	-11.0653
吏部侍郎	-11.0654
曰夫子	-11.0654
𬋩	-11.0654
博陵	-11.0655
邯	-11.0655
是則	-11.0655
絀	-11.0656
㡌	-11.0656
范仲淹	-11.0656
百九十	-11.0657
氊	-11.0657
哥	-11.0658
而忘	-11.0658
之交	-11.0659
西門	-11.0662
户部尚書	-11.0662
干戈	-11.0662
征虜將軍	-11.0664
黄初	-11.0665
大饑	-11.0665
失守	-11.0667
華山	-11.0668
公孫述	-11.0668
元豐	-11.0671
也後	-11.0671
善政	-11.0671
山海經	-11.0672
騭	-11.0673
二百里	-11.0674
朝㑹	-11.0675
歸而	-11.0675
相應	-11.0676
撫之	-11.0676
仲子	-11.0679
愛其	-11.0685
而用之	-11.0689
無所不	-11.0692
不可復	-11.0692
東昏	-11.0694
三十五	-11.0696
女弟	-11.0702
三禮	-11.0702
大用	-11.0703
五年春正月	-11.0704
無一	-11.0709
宗周	-11.0712
不備	-11.0715
章武	-11.0715
乃更	-11.0719
之害	-11.0719
呉王	-11.0721
不登	-11.0722
與晉	-11.0724
有云	-11.0724
康子	-11.0727
敵國	-11.0728
南平	-11.073
唯有	-11.073
東郭	-11.073
歸國	-11.073
煬	-11.073
滂	-11.0731
聿	-11.0732
宫門	-11.0732
道濟	-11.0733
挈	-11.0734
媿	-11.0735
焉及	-11.0735
侍從	-11.0735
匃奴	-11.0735
為博士	-11.0736
老矣	-11.0736
捧	-11.0736
竿	-11.0737
瓛	-11.0741
至南京	-11.0742
王曰善	-11.0742
禅	-11.0742
五十餘	-11.0745
善惡	-11.0746
子貢曰	-11.0747
所向	-11.0749
衞尉	-11.075
親近	-11.0751
意如	-11.0754
鄧禹	-11.0757
還宫	-11.076
與李	-11.0764
距之	-11.0765
也是故	-11.0765
郊廟	-11.0766
親自	-11.0768
者死	-11.0772
膠東	-11.0774
執中	-11.0775
王肅	-11.0777
曹氏	-11.0778
廵狩	-11.0778
清河王	-11.0779
可見	-11.0782
此非	-11.0783
趙郡	-11.0784
絶人	-11.0786
户口	-11.0789
州觀察使	-11.0794
之䇿	-11.0795
從其	-11.0796
年十七	-11.0797
積年	-11.0798
之盟	-11.0804
舉哀	-11.0806
獨孤	-11.0806
伏法	-11.0807
怨望	-11.0808
為正	-11.0808
文十	-11.0808
都官尚書	-11.0809
數嵗	-11.0811
文忠	-11.0812
竣	-11.0814
釋奠	-11.0815
絮	-11.0816
鷄	-11.0816
骸	-11.0816
嘏	-11.0816
宋王稱撰	-11.0817
存者	-11.0819
府事	-11.0819
使者曰	-11.082
錡	-11.082
都指揮	-11.0821
不濟	-11.0821
已定	-11.0822
敢言	-11.0823
糞	-11.0823
有星孛于	-11.0825
寰宇記	-11.0826
為長	-11.0828
之先	-11.0831
婼	-11.0834
上前	-11.0836
皆出	-11.084
萬石	-11.084
隨之	-11.0842
仲孫	-11.0843
第十	-11.0846
王府	-11.0847
盡其	-11.0848
素與	-11.0848
入貢	-11.0854
東下	-11.0855
出身	-11.0857
大者	-11.0859
三十五年	-11.0859
第一百	-11.0863
九鼎	-11.0868
門之外	-11.0869
而致	-11.0873
躬自	-11.0873
伯玉	-11.0874
逺方	-11.0874
齊齊	-11.0875
無乃	-11.0876
為諸侯	-11.0876
所出	-11.0881
乃去	-11.0881
豫章王	-11.0884
孝寛	-11.0885
太后臨朝	-11.0887
荘王	-11.0888
郤至	-11.0889
羲之	-11.0892
也非	-11.0894
魄	-11.0895
沾	-11.0896
守備	-11.0896
㛰	-11.0896
裨	-11.0896
䨇	-11.0897
斜	-11.0898
鵲	-11.0899
皃	-11.0899
沸	-11.09
皆得	-11.09
行軍總管	-11.0901
隧	-11.0904
杭州	-11.0904
八千	-11.0907
如魯	-11.0907
子儀	-11.091
伐魏	-11.0911
西海	-11.0915
藍田	-11.0915
之資	-11.0917
呼為	-11.0918
列女傳	-11.0918
𬒳執	-11.0919
武臣	-11.0919
大吕	-11.0919
配享	-11.0922
下吏	-11.0925
徳之	-11.0932
如初	-11.0932
孫皓	-11.0933
忌之	-11.0933
臨海	-11.0934
上京	-11.0938
昊	-11.0938
其任	-11.094
然其	-11.0941
求去	-11.0942
乎且	-11.0945
叅軍	-11.0946
吕布	-11.0946
蒙古語	-11.0946
四品	-11.0948
者又	-11.095
助之	-11.0951
為樂	-11.0952
金玉	-11.0957
遺之	-11.096
成臯	-11.0965
之流	-11.0965
奉天	-11.0968
欒氏	-11.0969
非其人	-11.0971
巽	-11.0975
揭	-11.0975
鄣	-11.0977
諸道	-11.0978
相州	-11.098
惶	-11.098
齊景公	-11.098
謟	-11.098
暱	-11.0983
徂	-11.0984
讌	-11.0984
屨	-11.0985
盂	-11.0985
爾雅曰	-11.0986
兾	-11.0986
黜陟	-11.0988
三代之	-11.0988
軍民	-11.099
悛	-11.0992
武陽	-11.0993
禮畢	-11.0993
来朝	-11.0996
為楚	-11.0998
夏后氏	-11.1
見東觀記	-11.1002
戮之	-11.1002
事秦	-11.1002
避地	-11.1003
欲去	-11.1004
將至	-11.1009
並見	-11.1009
三十六年	-11.1011
有能名	-11.1011
姜姓	-11.1012
以金	-11.1013
漠	-11.1017
繼遷	-11.102
金錢	-11.102
奪之	-11.1021
而自立	-11.1024
合而	-11.103
對曰臣聞	-11.103
州里	-11.1033
立廟	-11.1038
不恤	-11.1038
秦始皇	-11.1042
者謂之	-11.1045
行參軍	-11.1046
永楽	-11.105
周武帝	-11.1052
如舊	-11.1052
交阯	-11.1057
南伐	-11.1057
亦何	-11.1058
魏魏	-11.1059
王僚	-11.106
入蜀	-11.1061
舛	-11.1062
瑛	-11.1062
汭	-11.1063
講武	-11.1064
噬	-11.1065
牌	-11.1065
捉	-11.1066
抃	-11.1066
颺	-11.1067
伐衛	-11.1067
淄	-11.1067
冥	-11.1067
踊	-11.1067
太學博士	-11.1069
鄯善	-11.107
駝	-11.107
笙	-11.1071
豳	-11.1073
踞	-11.1074
侯莫陳	-11.1074
自出	-11.1074
徃來	-11.1075
漿	-11.1076
後軍	-11.1077
皆以為	-11.1079
犀首	-11.1079
與韓	-11.1079
之神	-11.108
尚書省	-11.108
也是以	-11.1081
廣武	-11.1081
更為	-11.1083
進賢	-11.1084
且以	-11.1085
湘州刺史	-11.1086
晉陵	-11.1089
與張	-11.1092
千石	-11.1093
統軍	-11.1098
小者	-11.11
首尾	-11.1101
相對	-11.1102
治國	-11.1106
殺我	-11.1111
丈人	-11.1113
江上	-11.1114
涼州刺史	-11.1114
晋陽	-11.1114
苐一	-11.1115
因留	-11.1115
也初	-11.1116
卒於官	-11.1117
奔魯	-11.1118
黄河	-11.1121
親親	-11.1122
等議	-11.1124
之罪也	-11.1124
屈原	-11.1125
善者	-11.1125
居喪	-11.1129
以法	-11.113
乘勝	-11.1131
義渠	-11.1131
太伯	-11.1132
伐趙	-11.1135
任城	-11.1136
子髙	-11.1136
又欲	-11.1138
遼陽	-11.114
告于	-11.1141
倣	-11.1143
殮	-11.1144
少傅	-11.1144
舟山	-11.1144
剽	-11.1146
聦	-11.1147
瓉	-11.1148
做	-11.1148
渥	-11.1148
日南	-11.1148
昺	-11.115
禺	-11.1152
㪚	-11.1152
既成	-11.1153
矟	-11.1154
猛獸	-11.1154
羯	-11.1154
知開封府	-11.1158
長官司	-11.1161
表裏	-11.1161
哭之	-11.1161
一國	-11.1162
北郊	-11.1163
勞之	-11.1163
宣宗	-11.1165
又請	-11.1169
字長	-11.117
曲赦	-11.1171
之遺	-11.1176
君長	-11.1177
文義	-11.1177
四十餘	-11.1181
而食之	-11.1181
人才	-11.1183
之歌	-11.1183
不能得	-11.1184
恨之	-11.1184
君若	-11.1188
大通	-11.119
於東	-11.1193
之實	-11.1195
重華	-11.1196
是何	-11.1197
稱帝	-11.1198
以功封	-11.1202
居處	-11.1213
敬之	-11.1213
掾屬	-11.1215
再三	-11.1219
仲文	-11.122
如楚	-11.122
可觀	-11.1222
安陽	-11.1223
見稱	-11.1223
蒍	-11.1224
今天下	-11.1224
以利	-11.1226
縷	-11.1229
此為	-11.123
不逺	-11.123
曵	-11.1233
以軍功	-11.1233
覊	-11.1234
楹	-11.1235
仇池	-11.1235
于闐	-11.1236
啖	-11.1236
諸葛恪	-11.1237
葵	-11.1237
層	-11.1237
催	-11.1238
試之	-11.1238
幢	-11.1238
知也	-11.1239
以給	-11.1241
苴	-11.1242
人言	-11.1242
召試	-11.1244
不畏	-11.1244
章惇	-11.1245
祉	-11.1246
魯衛	-11.1246
願大王	-11.1248
文選	-11.1249
各以	-11.1252
武安君	-11.1254
宫殿	-11.1255
切説	-11.1255
參議	-11.1265
犍為	-11.1265
為主簿	-11.1266
清白	-11.1267
霍光	-11.1268
畏之	-11.1268
貧賤	-11.1268
悉平	-11.1269
水出	-11.1269
懷王	-11.1269
也願	-11.1269
辭以	-11.1269
尋而	-11.127
夏后	-11.127
之别	-11.1277
得以	-11.1279
詔賜	-11.1279
中宫	-11.128
伯升	-11.128
掖庭	-11.128
者或	-11.128
尚未	-11.1284
本姓	-11.1284
歸於	-11.1285
鴻臚	-11.1286
建國	-11.1287
且曰	-11.1289
猶豫	-11.1289
悔之	-11.1293
未嘗有	-11.1294
無名	-11.1298
陽翟	-11.1298
召對	-11.1304
國家之	-11.1306
山海	-11.131
又置	-11.1311
鼓琴	-11.1312
驂	-11.1313
攬	-11.1314
有能	-11.1314
十餘里	-11.1314
畧同	-11.1316
墾	-11.1316
四十卷	-11.1316
兔	-11.1317
万	-11.1318
車駕還宫	-11.1319
化及	-11.1319
何可	-11.1319
餐	-11.132
䄂	-11.1323
安西	-11.1324
山下	-11.1324
蹶	-11.1326
廞	-11.1327
可知	-11.1328
齊桓	-11.1328
禮官	-11.1331
惔	-11.1332
海西	-11.1332
青徐	-11.1335
武庫	-11.1335
二百四十	-11.1336
縣北	-11.1339
遂行	-11.1342
尊卑	-11.1345
所由	-11.1346
歸附	-11.1347
太史令	-11.1356
一門	-11.1357
雖欲	-11.1357
流血	-11.1357
書記	-11.136
號哭	-11.1361
分遣	-11.1363
過於	-11.1367
侯伯	-11.1369
後漢書	-11.1371
治民	-11.1371
守宰	-11.1375
髙第	-11.1379
韓厥	-11.138
趙衰	-11.138
弘治	-11.138
邳	-11.1382
城破	-11.1384
東山	-11.1393
為皇太后	-11.1395
七嵗	-11.1396
前殿	-11.1401
者謂	-11.1401
外國	-11.1401
鎮南	-11.1401
古史卷	-11.1402
尝	-11.1402
雌	-11.1403
起為	-11.1404
蕪	-11.1405
異日	-11.1406
牘	-11.1408
明宗	-11.1408
侍御	-11.1409
越絶書	-11.1409
慿	-11.141
噉	-11.141
土木	-11.1413
臣聞之	-11.1416
南門	-11.1417
其在	-11.1424
示以	-11.1429
祕書郎	-11.1431
士匄	-11.1432
臣所	-11.1433
觀察	-11.1433
之半	-11.1436
死于	-11.1438
母子	-11.1439
秦楚	-11.1442
囚之	-11.1443
非吾	-11.1445
子文	-11.1446
秉政	-11.1447
遂使	-11.1449
皇帝諱	-11.1449
一里	-11.1449
其私	-11.1452
安豐	-11.1454
義興	-11.1454
莊宗	-11.1455
司農	-11.1456
小大	-11.1457
中都	-11.1458
國初	-11.146
憂也	-11.146
皆從	-11.146
然猶	-11.1461
利用	-11.1462
州團練使	-11.1462
高陽	-11.1463
講學	-11.1464
兵攻	-11.1467
西州	-11.1467
四門	-11.1468
還報	-11.1469
國䇿	-11.147
濟陽	-11.1471
號泣	-11.1472
本名	-11.1478
移書	-11.148
未成	-11.148
侍讀	-11.1483
洙	-11.1486
都督中外諸軍事	-11.1487
上士	-11.1488
遂絶	-11.1489
忝	-11.149
掲	-11.149
良夫	-11.1491
遞	-11.1492
於吳	-11.1493
醇	-11.1493
挹	-11.1493
怙	-11.1493
航	-11.1493
刳	-11.1494
著述	-11.1494
皖	-11.1495
欲誅	-11.1496
渇	-11.1498
在下	-11.1499
其計	-11.15
其故	-11.1502
瘠	-11.1503
亦非	-11.1503
萬戸	-11.1508
毁之	-11.1509
其室	-11.151
必為	-11.151
何其	-11.1511
始有	-11.1511
廵按	-11.1514
官府	-11.1515
七十餘	-11.1517
氏改為	-11.1519
自將	-11.1519
五國	-11.152
立祠	-11.1521
爾雅云	-11.1524
吏人	-11.1525
曰吾欲	-11.1526
民心	-11.1529
誰敢	-11.1532
荆南	-11.1533
從父	-11.1533
在職	-11.1534
刺之	-11.1536
我以	-11.1539
完顔	-11.154
手書	-11.1542
之體	-11.1546
應對	-11.1546
羣小	-11.1552
也祖	-11.1556
不臣	-11.1557
湘州	-11.1559
之威	-11.1561
安侯	-11.1561
同列	-11.1565
開寳	-11.1568
師傅	-11.1569
入郢	-11.157
其情	-11.1571
本無	-11.1571
視其	-11.1573
欒書	-11.1576
禳	-11.1576
與趙	-11.1577
伶	-11.1578
富人	-11.1578
羗	-11.1578
𠡠	-11.1578
安民	-11.1581
朐	-11.1582
不歸	-11.1582
趙王倫	-11.1582
晩	-11.1583
帽	-11.1583
栖	-11.1583
鹵簿	-11.1584
莅	-11.1585
棣	-11.1585
下至	-11.1586
延熹	-11.1586
飄	-11.1587
鳬	-11.1588
蘇代	-11.159
少保	-11.1591
鑄錢	-11.1594
昆吾	-11.1594
异	-11.1596
文曰	-11.1597
去長安	-11.1597
草創	-11.1598
可以為	-11.16
黄帝之	-11.1602
居于	-11.1602
䝉古軍	-11.1602
河間王	-11.1603
去就	-11.1603
有如	-11.161
不虞	-11.1611
西安	-11.1613
令長	-11.1619
京房	-11.1619
英雄	-11.1621
珍寳	-11.1621
為尚書左僕射	-11.1624
安成	-11.1624
于是乎	-11.1628
闗東	-11.163
以伐	-11.1631
未甞	-11.1633
性剛	-11.1634
先君之	-11.1634
既不	-11.1636
僖十	-11.1637
寛厚	-11.1638
五世	-11.1639
紀綱	-11.164
明帝即位	-11.1641
不負	-11.1643
右軍	-11.1645
祭仲	-11.1646
謀殺	-11.1648
脩之	-11.165
公曰善	-11.165
秦穆公	-11.1652
薩	-11.1655
譜一卷	-11.1658
之田	-11.1659
立其弟	-11.1659
謀之	-11.1659
魏文帝	-11.1662
概	-11.1663
數百里	-11.1663
趾	-11.1663
隆之	-11.1664
搖	-11.1666
副之	-11.1666
義康	-11.1666
牖	-11.1668
貧者	-11.1668
非禮	-11.1668
左右曰	-11.1669
罹	-11.167
盪	-11.167
䋲	-11.1671
菑	-11.1672
儆	-11.1672
謇	-11.1673
皇帝廟號	-11.1674
鑠	-11.1675
司冦	-11.1675
一級	-11.1677
遣將軍	-11.168
乎其	-11.1681
大率	-11.1685
笑而	-11.1687
五寸	-11.1688
殿前	-11.1688
衣裳	-11.1688
攻秦	-11.1689
三川	-11.1692
改正	-11.1693
出降	-11.1694
不正	-11.1699
名山	-11.17
公仲	-11.1706
第三子	-11.1708
元感	-11.1709
也是	-11.171
不䏻	-11.1711
鄭鄭	-11.1713
所統	-11.1713
韓起	-11.1716
者何也	-11.1719
其親	-11.1721
有志	-11.1721
三寸	-11.1722
與周	-11.1725
國亡	-11.1726
一戰	-11.1727
至京	-11.1727
而動	-11.1728
可與	-11.1729
交結	-11.173
經書	-11.1731
遼史	-11.1732
北軍	-11.1733
字孝	-11.1734
㽔	-11.1734
反國	-11.1735
𢎞正	-11.1735
西羌	-11.1736
當作	-11.1736
子男	-11.1738
濓	-11.174
度支尚書	-11.1743
心腹	-11.1744
人也舉進士	-11.1745
平州	-11.1746
胎	-11.1748
宸	-11.1749
論議	-11.1749
原書	-11.1754
頠	-11.1755
㣲子	-11.1755
皇弟	-11.1755
企	-11.1757
䧺	-11.1757
度遼將軍	-11.1757
瘳	-11.1757
紆	-11.1758
九族	-11.176
槖	-11.1761
冩	-11.1761
為盟主	-11.1764
司徒左長史	-11.1764
哀之	-11.1765
也王曰	-11.1765
晦日有食之	-11.1765
督郵	-11.1769
其子孫	-11.177
可得而	-11.177
太子少傅	-11.177
為庶人	-11.1773
乾歸	-11.1774
而來	-11.1775
用其	-11.1775
時議	-11.1776
其夜	-11.1776
可知矣	-11.1779
可望	-11.1781
為嗣	-11.1781
盧循	-11.1782
手足	-11.1782
州别駕	-11.1782
猶可	-11.1783
曹爽	-11.1786
新書	-11.1787
天官	-11.1803
休息	-11.1804
不能制	-11.1805
立公子	-11.1806
不早	-11.1806
四世	-11.1809
事畢	-11.1809
滄	-11.181
臣不敢	-11.181
時帝	-11.1812
有謀	-11.1814
輔之	-11.1815
思之	-11.1816
亭長	-11.1817
推之	-11.1821
可法	-11.1821
湟	-11.1825
世襲	-11.1829
於魯	-11.1829
三十七年	-11.1835
吾不	-11.1835
欲求	-11.1841
筵	-11.1843
焉用	-11.1843
其外	-11.1843
迪	-11.1843
涖	-11.1844
矣王	-11.1845
舉事	-11.1847
迂	-11.1847
一時之	-11.1848
無恙	-11.1849
頤	-11.1849
身長八尺	-11.1851
嘉禾	-11.1851
炊	-11.1851
侔	-11.1852
消息	-11.1852
佺期	-11.1852
南單于	-11.1853
甕	-11.1853
贑	-11.1853
天性	-11.1853
泌	-11.1854
彦博	-11.1856
死士	-11.1862
百里奚	-11.1863
為吏部尚書	-11.1863
堯舜之	-11.1865
一云	-11.1868
縣東	-11.1869
羣公	-11.187
過失	-11.187
昭穆	-11.1875
子思曰	-11.1877
廣徳	-11.1879
自固	-11.1881
安在	-11.1881
豫章太守	-11.1884
怨之	-11.1887
以賜	-11.1888
圖書	-11.1888
則天下	-11.1889
建寧	-11.189
漢軍	-11.1891
樂府	-11.1892
成人	-11.1894
子西	-11.1895
科臣	-11.1899
一品	-11.1901
記室參軍	-11.1901
諸司	-11.1903
有六	-11.1905
衛君	-11.1906
丹朱	-11.1909
易曰	-11.1912
考功	-11.1912
所取	-11.1912
石城	-11.1914
乃作	-11.1916
十二里	-11.1925
甌	-11.1925
巒	-11.1925
䔥	-11.1929
鞮	-11.1932
第二子	-11.1932
犧	-11.1932
衛鄭	-11.1933
旭	-11.1934
儒生	-11.1934
艘	-11.1935
天門	-11.1935
殤公	-11.1935
尉遲迥	-11.1937
煖	-11.1938
亘	-11.1938
龍驤將軍	-11.1939
涓	-11.1939
軍還	-11.1939
喪亂	-11.194
陀	-11.194
灑	-11.1942
敬宣	-11.1943
子反	-11.1944
太初	-11.1944
不妄	-11.1944
甯	-11.1944
上封事	-11.1944
侠	-11.1945
欲用	-11.1945
鄧艾	-11.1945
事覺	-11.1946
錢塘	-11.1946
髻	-11.1946
莫知	-11.1947
陳蕃	-11.1947
不對	-11.1947
賈逵	-11.1947
驎	-11.1948
文辭	-11.195
以進	-11.195
温嶠	-11.195
白衣	-11.1951
必當	-11.1951
使還	-11.1951
器用	-11.1954
振旅	-11.1956
無怨	-11.1959
曾祖	-11.1963
諮議	-11.1964
衆咸	-11.1965
日蝕	-11.1967
者輙	-11.1967
還京	-11.1967
姓也	-11.197
今吾	-11.197
良臣	-11.197
附庸	-11.1974
以免	-11.1975
終無	-11.1975
以防	-11.1978
凉州	-11.1982
分野	-11.1984
不務	-11.1985
投之	-11.1986
大王之	-11.1988
者甚衆	-11.1988
監司	-11.1989
仕周	-11.1991
三十人	-11.1991
百戸	-11.1992
使民	-11.1994
禽之	-11.1994
受封	-11.1994
過江	-11.1996
君而	-11.1999
何憂	-11.2
徴拜	-11.2001
所司	-11.2001
帝從之	-11.2001
其時	-11.2002
亦云	-11.2005
即墨	-11.2007
封疆	-11.2007
也公曰	-11.2008
威福	-11.2009
無此	-11.2013
為治	-11.2014
幸得	-11.2014
大駕	-11.2014
祫	-11.2015
羣書	-11.2016
霖	-11.2016
汝隂	-11.2019
肝	-11.2022
殛	-11.2023
怒而	-11.2024
盤庚	-11.2026
疊	-11.2026
勇力	-11.2027
兵部侍郎	-11.2028
舊臣	-11.2028
江夏王義恭	-11.2029
萃	-11.203
犁	-11.203
都司	-11.203
鎻	-11.2032
俛	-11.2032
庚戍	-11.2033
槊	-11.2034
產	-11.2034
東師	-11.2034
乃至	-11.2036
日磾	-11.2041
置左右	-11.2046
先入	-11.205
㐮王	-11.2053
更以	-11.2054
南鄭	-11.206
百匹	-11.2062
宋齊	-11.2063
許以	-11.2063
曲阿	-11.2065
孝亷	-11.2066
二千人	-11.2067
不甚	-11.2072
不離	-11.2072
江漢	-11.2074
壮士	-11.2074
吳師	-11.2079
使至	-11.2082
同異	-11.2082
又無	-11.2083
酋長	-11.2085
家事	-11.2092
巴東	-11.2095
曾子	-11.2096
公輔	-11.2096
惟有	-11.2098
左丞相	-11.21
臣願	-11.2101
以禦	-11.2102
太行	-11.2102
為漢	-11.2105
一部	-11.2105
吳越	-11.2105
軍門	-11.2107
吳楚	-11.2108
大将	-11.211
仰天	-11.211
攻其	-11.2111
後拜	-11.2113
夜半	-11.2113
天意	-11.2113
不即	-11.2115
在東	-11.2117
禹之	-11.2121
荘公	-11.2123
緘	-11.2124
糺	-11.2125
愿	-11.2126
鬲	-11.2126
驤	-11.2126
大戰	-11.2126
既平	-11.2126
歩兵校尉	-11.2126
趍	-11.2127
文育	-11.2127
郇	-11.2128
千四百	-11.2128
復立	-11.2128
媵	-11.2128
竇憲	-11.213
稠	-11.2131
襄國	-11.2133
嘗問	-11.2133
若以	-11.2136
朋友	-11.2136
後遷	-11.2137
之域	-11.2137
聖主	-11.2138
陵侯	-11.2138
無極	-11.2138
昌言	-11.2139
侯王	-11.2139
袁粲	-11.2141
所及	-11.2143
僭號	-11.2143
都統	-11.2143
弗與	-11.2145
成梁	-11.2147
字敬	-11.2148
往者	-11.2148
君君	-11.2151
而終	-11.2154
宓	-11.2157
羣公子	-11.2157
文伯	-11.2158
何事	-11.2159
衆庶	-11.216
千餘家	-11.216
神靈	-11.2161
以下皆	-11.2161
和尚	-11.2162
知我	-11.2163
詔遣	-11.2165
昌邑	-11.2166
子罕	-11.2167
物也	-11.2169
相結	-11.217
矣遂	-11.217
信也	-11.2172
宿衞	-11.2172
在今	-11.2173
音律	-11.2177
進取	-11.2179
又從	-11.218
攻陷	-11.2183
四千	-11.2183
等州	-11.2184
十倍	-11.2185
却之	-11.2187
鄭國	-11.2188
之不可	-11.2188
奈	-11.2188
辟雍	-11.2188
妄言	-11.219
以太牢	-11.2192
而遣之	-11.2193
矣乃	-11.2193
寡人之	-11.2197
田租	-11.2197
文徳	-11.2198
道人	-11.2199
攻楚	-11.22
騷	-11.2202
十六卷	-11.2205
官吏	-11.2206
六州	-11.2206
話	-11.2207
魏人	-11.2207
何用	-11.2209
考之	-11.2209
寳夤	-11.221
祏	-11.2212
獄訟	-11.2212
移鎮	-11.2215
為變	-11.2215
㣧	-11.2215
緜	-11.2216
二里	-11.2216
有㫖	-11.2216
遯	-11.2217
將作大匠	-11.2218
珥	-11.2218
東莞	-11.2218
尋遷	-11.2219
礦	-11.222
觀者	-11.2221
孝惠	-11.2221
成湯	-11.2221
醢	-11.2221
門下侍郎	-11.2223
安車	-11.2223
部衆	-11.2227
吳興太守	-11.2228
亦謂之	-11.2229
吏卒	-11.223
河外	-11.2232
仲禮	-11.2235
唐因之	-11.2235
公如晉	-11.2236
博覽	-11.2236
嗜酒	-11.2237
單騎	-11.2241
建武二年	-11.2242
則必	-11.2242
遂圍	-11.2244
也對曰	-11.2246
餘皆	-11.2249
邊事	-11.2251
請和	-11.2254
左光禄大夫	-11.2254
而不得	-11.2255
東平王	-11.2263
等官	-11.2266
者即	-11.2267
六經	-11.2267
千騎	-11.2268
中國之	-11.227
皆降	-11.227
焉耆	-11.227
樂陵	-11.2271
生民	-11.2273
而不可	-11.2274
於地	-11.2276
季友	-11.2278
事多	-11.228
泣下	-11.2281
人望	-11.2282
其制	-11.2283
來攻	-11.2283
臣之所	-11.2285
去其	-11.2286
間道	-11.2286
刑獄	-11.2286
幾何	-11.2291
學生	-11.2292
一寸	-11.2296
麓	-11.2298
之序	-11.2299
於西	-11.2301
傳中	-11.2302
三司使	-11.2304
吾聞之	-11.2305
晷	-11.2305
地理	-11.2306
婺	-11.2306
之宜	-11.2306
享之	-11.2307
事在	-11.2307
謝病	-11.2308
竟陵	-11.2308
眇	-11.2308
耐	-11.2308
嬉	-11.2308
縠	-11.2309
代立	-11.231
嚭	-11.231
征西大將軍	-11.2311
然亦	-11.2312
臨洮	-11.2313
日有食之	-11.2313
稔	-11.2313
幅	-11.2314
肘	-11.2314
揣	-11.2315
豚	-11.2317
五大夫	-11.2317
六百石	-11.2317
齧	-11.2317
袴	-11.2317
文宗	-11.2318
倨	-11.2319
咸和	-11.232
蘇軾	-11.2321
淳于髠	-11.2321
居中	-11.2323
文王之	-11.2323
於韓	-11.2324
重其	-11.2324
其大	-11.2326
以重	-11.2327
爭之	-11.2328
性命	-11.2329
簒位	-11.233
徵拜	-11.2331
太極殿	-11.2332
索隠	-11.2334
主父	-11.2334
大逆	-11.2334
拒守	-11.2335
軍次	-11.2337
乳母	-11.2337
人士	-11.2338
者吾	-11.2339
薨於	-11.2339
但以	-11.234
史楚	-11.234
立太子	-11.234
恵子	-11.234
繫獄	-11.2341
建議	-11.2342
歴一卷	-11.2344
凡三	-11.2344
三里	-11.2346
共立	-11.2349
如之何	-11.2351
堂上	-11.2353
萬七千	-11.2356
去疾	-11.236
後改	-11.2362
千乘	-11.2364
在内	-11.2364
身自	-11.2364
居民	-11.2365
漢末	-11.2369
臣意	-11.2371
笑之	-11.2373
五榖	-11.2374
燕燕	-11.2374
所有	-11.2376
以此為	-11.2376
于國	-11.2378
巴西	-11.2379
意欲	-11.238
乃謂	-11.2381
宋史	-11.2382
雩	-11.2384
興兵	-11.2386
貳師	-11.2388
銖	-11.2389
上官	-11.2389
已有	-11.239
以全	-11.2392
遇賊	-11.2392
氏女	-11.2394
生者	-11.2394
荐	-11.2395
患也	-11.2397
集三十卷	-11.2397
固有	-11.2399
詈	-11.2399
爻	-11.24
修徳	-11.24
之舊	-11.24
童貫	-11.2402
教化	-11.2402
太昊	-11.2402
聖朝	-11.2403
剥	-11.2404
甲士	-11.2406
三十四年	-11.2407
曰善哉	-11.2407
蕪湖	-11.2407
王翦	-11.2408
惧	-11.2408
子期	-11.2409
煙	-11.241
鏞	-11.241
陌	-11.2411
蹄	-11.2411
濯	-11.2412
之謂也	-11.2413
峙	-11.2413
皆死	-11.2414
以孝聞	-11.2415
正始	-11.2416
能屬文	-11.2416
驃騎将軍	-11.2417
時年四十	-11.2417
新都	-11.2418
州大中正	-11.242
臨菑	-11.242
其業	-11.2421
河隂	-11.2422
棄其	-11.2423
靖王	-11.2423
嘉祐	-11.2423
富弼	-11.2424
其弊	-11.2424
四十八	-11.2425
詩傳	-11.2425
驪	-11.2425
姜氏	-11.2432
旌旗	-11.2432
后父	-11.2433
棄疾	-11.2435
外内	-11.2437
綱目	-11.2437
從官	-11.2438
軍於	-11.2439
百五十	-11.2441
今在	-11.2442
根本	-11.2446
姦邪	-11.2447
勞苦	-11.2448
家世	-11.2452
鎮東	-11.2453
王郎	-11.2453
巴郡	-11.2457
山在	-11.2458
有兩	-11.246
在西	-11.2462
第七	-11.2462
請命	-11.2465
莊帝	-11.2469
大言	-11.247
者唯	-11.247
矣君	-11.2471
民不	-11.2472
上林	-11.2482
萬二千	-11.2483
者是	-11.2484
建武中	-11.2486
行省	-11.2488
本末	-11.249
变	-11.2493
造父	-11.2495
蔬	-11.2495
以拒	-11.2496
診	-11.2496
道術	-11.2497
蹕	-11.2499
雝	-11.2501
長水校尉	-11.2501
欽定四庫全書御定歴代紀事年表卷	-11.2502
虞卿	-11.2503
䛕	-11.2504
誹謗	-11.2504
兵事	-11.2505
􁁻	-11.2506
于戚	-11.2507
不赦	-11.2508
瘡	-11.2508
杵臼	-11.2509
别有	-11.251
漢武帝	-11.2513
年十六	-11.2513
外家	-11.252
稱制	-11.2522
獄中	-11.2523
何由	-11.2523
從此	-11.2523
庶幾	-11.2524
義恭	-11.2524
關羽	-11.2525
)􁁊(	-11.2525
此之謂	-11.2525
二嵗	-11.2528
尹氏	-11.2529
法也	-11.2529
士開	-11.2529
孝伯	-11.2531
擾亂	-11.2532
其政	-11.2532
無度	-11.2532
二君	-11.2536
遣其將	-11.2538
為御史中丞	-11.254
其法	-11.254
國子監	-11.254
義真	-11.2541
帝堯	-11.2543
不才	-11.2544
義之	-11.2545
事平	-11.2549
次第	-11.2551
張昭	-11.2551
慶忌	-11.2551
赦天下	-11.2552
别將	-11.2552
之女也	-11.2553
財用	-11.2553
刻石	-11.2553
所歸	-11.2558
萬五千	-11.2563
居守	-11.2563
而泣	-11.2566
通志卷一百	-11.2569
延州	-11.257
海中	-11.257
王師敗績	-11.2573
軍糧	-11.2573
五聲	-11.2577
於宋	-11.2578
為本	-11.2579
高宗	-11.2579
同盟	-11.2582
雖在	-11.2586
皇孫	-11.2587
職方	-11.2587
欲還	-11.2589
鯤	-11.2594
乙夘	-11.2595
四岳	-11.2595
夹	-11.2595
駰	-11.2595
藤	-11.2596
四十二	-11.2596
漢志	-11.2596
姑洗	-11.2596
廢之	-11.2596
掛	-11.2598
癡	-11.2599
璣	-11.2599
其形	-11.26
中兵參軍	-11.26
潼闗	-11.2601
禁止	-11.2601
名位	-11.2602
眩	-11.2602
涌	-11.2602
太常少卿	-11.2602
大中祥符	-11.2602
鷙	-11.2604
讓之	-11.2604
皆此類也	-11.2604
有父風	-11.2604
后妃	-11.2606
箱	-11.2606
暄	-11.2606
軸	-11.2606
枀	-11.2607
嘲	-11.2607
未平	-11.2608
地名	-11.2609
廬陵王	-11.2609
始得	-11.261
胡亥	-11.261
不作	-11.2611
漢制	-11.2617
髙熲	-11.2618
不誅	-11.2618
州吁	-11.2619
懼其	-11.2619
趙普	-11.2622
說苑	-11.2625
同官	-11.2625
入冦	-11.2626
復召	-11.2626
杜氏	-11.2626
中使	-11.2629
晏嬰	-11.2629
李牧	-11.2634
而前	-11.2635
一郡	-11.2635
安撫	-11.2636
音樂	-11.2638
晉州	-11.2639
兵擊	-11.2641
門者	-11.2642
新蔡	-11.2643
將攻	-11.2644
獲之	-11.2647
陳倉	-11.265
自安	-11.2654
我也	-11.2659
而輕	-11.2659
晉之	-11.266
稱藩	-11.2661
岷	-11.2661
勿復	-11.2661
顓帝	-11.2661
出見	-11.2661
一方	-11.2662
靈武	-11.2663
内屬	-11.2668
有大志	-11.2668
者一	-11.2668
而東	-11.267
等謀	-11.2672
微子	-11.2672
王恭	-11.2675
歸家	-11.2677
武丁	-11.2679
靈運	-11.2679
乃退	-11.2679
六千	-11.2681
曰余	-11.2681
以病	-11.2683
北邊	-11.2683
一貫	-11.2685
少與	-11.2685
魯陽	-11.2685
上庸	-11.2686
有風	-11.2688
檻	-11.2688
旺	-11.2689
歌一卷	-11.2689
衙	-11.2689
太倉	-11.2691
茟	-11.2694
弗克	-11.2694
鑾	-11.2694
工部侍郎	-11.2695
饑饉	-11.2696
籥	-11.2696
為相國	-11.2697
炬	-11.2697
呼曰	-11.2697
醒	-11.2697
寖	-11.2698
匹磾	-11.2698
景仁	-11.2698
宣府	-11.2699
從而	-11.2699
纒	-11.2699
醴	-11.2699
鴟	-11.27
彫	-11.2701
撫臣	-11.2701
懈	-11.2702
不憂	-11.2702
中流矢	-11.2703
欽定四庫全書通志卷一百	-11.2703
穆子	-11.2705
軍司馬	-11.2706
方伯	-11.2708
圈	-11.2708
而不敢	-11.2712
其禍	-11.2713
出而	-11.2714
百四十	-11.2715
其臣	-11.2717
夷則	-11.2718
)􁀙(	-11.2727
晉宋	-11.273
我兵	-11.2731
鎮江	-11.2737
百三十	-11.2737
並起	-11.2737
祀之	-11.2737
丹徒	-11.2737
風流	-11.2738
布帛	-11.2741
畿内	-11.2741
豪右	-11.2742
之事也	-11.2742
明改	-11.2743
肉刑	-11.2743
族子	-11.2744
秦軍	-11.2747
封于	-11.2747
州來	-11.2748
二品	-11.2751
萬全	-11.2755
威震	-11.2755
以謝	-11.2756
彭城王	-11.2756
指揮僉事	-11.2757
三十一	-11.2757
諸公子	-11.276
敗我	-11.276
留意	-11.276
黨與	-11.2761
都指揮使	-11.2763
前将軍	-11.2767
百六十	-11.2767
荘子	-11.2769
聞命	-11.2771
期年	-11.2773
以上史	-11.2774
出則	-11.2775
慤	-11.2775
親故	-11.2776
臺閣	-11.2779
城濮	-11.2779
矣吾	-11.2781
周制	-11.2781
三府	-11.2783
不愛	-11.2783
事上	-11.2784
荆王	-11.2785
戶	-11.2785
和平	-11.2786
點	-11.2789
言也	-11.2789
凡十	-11.279
無主	-11.279
重兵	-11.2792
姫	-11.2795
吠	-11.2795
瓠	-11.2795
我者	-11.2796
樞密院	-11.2796
黠	-11.2797
大典	-11.2798
女媧	-11.2798
自投	-11.2798
以南	-11.2799
何益	-11.2801
亦然	-11.2801
章邯	-11.2802
忤㫖	-11.2803
樂浪	-11.2803
隰朋	-11.2804
梓宫	-11.2804
為列侯	-11.2805
為首	-11.2806
十二人	-11.2806
尋為	-11.2807
淳化	-11.2808
精鋭	-11.2809
華隂	-11.281
出居	-11.2813
初除	-11.2815
怪之	-11.2816
歌舞	-11.2816
二年春	-11.2818
歸鄉里	-11.2821
後與	-11.2822
疏勒	-11.2824
因問	-11.2824
紹興	-11.2827
可否	-11.2829
奉法	-11.2829
始也	-11.283
于鄭	-11.2832
於鄴	-11.2832
追諡	-11.2833
不異	-11.2834
亡國之	-11.2835
淮隂	-11.2836
第八	-11.2837
復出	-11.2837
牙門	-11.2842
齊有	-11.2843
將何以	-11.2848
梁國	-11.2851
為之奈何	-11.2852
東阿	-11.2852
崔浩	-11.2854
民力	-11.2859
郊迎	-11.2861
己而	-11.2861
大心	-11.2865
即此	-11.2865
幽公	-11.2867
府君	-11.2871
而哭	-11.2874
止之曰	-11.2875
儒術	-11.2875
舂	-11.2877
欲攻	-11.2878
中庶子	-11.2879
羕	-11.2879
欽若	-11.288
今欲	-11.2881
戎服	-11.2881
㽔賔	-11.2882
燕兵	-11.2884
何人	-11.2884
為御史大夫	-11.2885
書與	-11.2885
慨	-11.2885
東歸	-11.289
使公子	-11.289
髯	-11.2891
讞	-11.2892
砲	-11.2893
三桓	-11.2893
資政殿學士	-11.2894
䴡	-11.2896
起義	-11.2896
兕	-11.2896
胷	-11.2897
知州	-11.2897
咄	-11.2898
親王	-11.2899
蟠	-11.2899
軹	-11.29
刖	-11.2903
太醫	-11.2903
汾隂	-11.2904
善人	-11.2905
天順	-11.2906
卜筮	-11.2909
哭泣	-11.2909
關東	-11.291
戰士	-11.2913
常在	-11.2914
御史中尉	-11.2916
郤克	-11.2916
將何	-11.2917
慰勞	-11.2918
威權	-11.2923
簡文帝	-11.2923
轉運	-11.2926
閭里	-11.2926
矣於是	-11.2927
既得	-11.2929
一種	-11.293
軍司	-11.2935
過矣	-11.2936
流民	-11.2936
不赴	-11.2937
晉有	-11.2937
持重	-11.2939
無得	-11.2943
塞外	-11.2944
三萬人	-11.2946
金華	-11.2948
奏議	-11.2948
一代	-11.2949
曰前	-11.2952
音義	-11.2952
從祀	-11.2953
魏郡太守	-11.2956
今者	-11.2958
次之	-11.2958
武將軍	-11.296
及此	-11.296
四郡	-11.2961
一夫	-11.2962
中流	-11.2963
六七	-11.2968
留心	-11.297
莊十	-11.297
無能	-11.2971
詳見	-11.2973
左師	-11.2973
勸進	-11.2973
二部	-11.2974
又徙	-11.2975
此何	-11.2976
允恭	-11.2977
治兵	-11.2978
農桑	-11.2979
首領	-11.2979
苦之	-11.2981
師還	-11.2981
普通	-11.2981
榮之	-11.2981
典籍	-11.2983
齊使	-11.2983
亡矣	-11.2983
下馬	-11.2984
位在	-11.2984
寕夏	-11.2984
閔公	-11.2984
之教	-11.2986
水土	-11.299
美之	-11.2991
張良	-11.2991
之宫	-11.2993
纍	-11.2994
猪	-11.2995
闓	-11.2995
征南	-11.2995
樞密直學士	-11.2996
翫	-11.2996
鄗	-11.2996
阪	-11.2997
上卿	-11.2997
驁	-11.2999
僧䖍	-11.2999
圻	-11.3
賊衆	-11.3
明道	-11.3001
儻	-11.3003
澶淵	-11.3003
讚	-11.3007
才能	-11.3007
為内應	-11.3007
鬱林	-11.3008
不戰	-11.3009
無射	-11.3013
所立	-11.3014
犬戎	-11.3016
弗敢	-11.3017
絶之	-11.3018
臨軒	-11.3018
恒山	-11.302
精神	-11.3022
賀蘭	-11.3023
宰輔	-11.3023
持之	-11.3024
北有	-11.3027
之次	-11.3029
直隷	-11.303
孔子孔子	-11.3032
無餘	-11.3033
十八卷	-11.3033
所置	-11.3034
河圖	-11.3034
果然	-11.3038
壽春	-11.3038
譏之	-11.304
各自	-11.3042
陳軫	-11.3043
二帝	-11.3045
無辜	-11.3051
帝自	-11.3051
孟孫	-11.3052
國名	-11.3054
進士授	-11.3055
就第	-11.3055
不遣	-11.3058
其将	-11.3059
自相	-11.3059
復封	-11.306
成化中	-11.306
地下	-11.3062
貢舉	-11.3062
皆稱	-11.3068
其軍	-11.3068
六日	-11.3071
澶州	-11.3072
秦必	-11.3073
代為	-11.3074
太祖曰	-11.3074
天穆	-11.3074
閬	-11.3075
既無	-11.3076
王允	-11.3078
而更	-11.3079
先聖	-11.3083
曰晉	-11.3084
若能	-11.3085
王莽時	-11.3085
餓死	-11.3086
客星	-11.3088
表求	-11.3089
圍城	-11.3091
遺書	-11.3091
拉	-11.3092
流離	-11.3093
臣以	-11.3093
釡	-11.3094
賜錢	-11.3095
蛮	-11.3095
求其	-11.3096
遇春	-11.3096
安王	-11.3097
文季	-11.3097
㓗	-11.3097
迅	-11.3098
龐	-11.3098
垢	-11.31
僞	-11.31
喜怒	-11.31
撝	-11.3101
惕	-11.3101
典籖	-11.3101
梯	-11.3102
襟	-11.3102
鮪	-11.3103
欲伐	-11.3103
椽	-11.3103
帷幄	-11.3105
敇	-11.3106
過也	-11.3106
之裔	-11.3106
驍騎將軍	-11.3107
曰楚	-11.3111
可知也	-11.3119
謝晦	-11.3119
于京師	-11.3121
孝宗	-11.3121
軍主	-11.3122
乃可	-11.3124
天時	-11.3125
入侍	-11.3128
商君	-11.3131
設伏	-11.3131
桓公曰	-11.3131
帝大怒	-11.3133
朝賀	-11.3133
亡歸	-11.3133
崩子	-11.3135
周公之	-11.3137
濟江	-11.3138
其日	-11.3138
客卿	-11.3139
不休	-11.3139
名號	-11.3141
求救	-11.3142
形於	-11.3143
孝行	-11.3145
李膺	-11.3145
租賦	-11.3146
四寸	-11.3146
園陵	-11.3146
而與之	-11.3148
河朔	-11.3149
范作	-11.3151
好惡	-11.3151
師敗績	-11.3154
不可謂	-11.3155
折節	-11.3156
西討	-11.3159
舉動	-11.3164
大衆	-11.3165
賈后	-11.3167
不知何	-11.3167
一夕	-11.3168
不違	-11.3171
項王	-11.3172
奉先	-11.3173
犯塞	-11.3173
十疋	-11.3176
竟以	-11.3182
施之	-11.3182
四十九	-11.3187
入長安	-11.319
管子對曰	-11.3192
方畧	-11.3194
蒲坂	-11.3197
功成	-11.3197
趋	-11.3197
十一卷	-11.3198
上欲	-11.3198
嗇	-11.3198
無聞	-11.3199
通鑑綱目	-11.3201
卹	-11.3201
吳吳	-11.3202
紵	-11.3202
須臾	-11.3203
為晉	-11.3203
箠	-11.3203
殱	-11.3203
今王	-11.3204
誑	-11.3205
琇	-11.3205
優劣	-11.3206
彌牟	-11.3206
煮	-11.3206
悴	-11.3206
峒	-11.3206
從平	-11.3206
不輟	-11.3208
耦	-11.3209
爪牙	-11.321
縂督	-11.321
𤱔	-11.321
于大	-11.3211
已來	-11.3211
經筵	-11.3211
病篤	-11.3212
擊匈奴	-11.3213
塗山	-11.3214
困於	-11.3214
果有	-11.3215
賻	-11.3215
事泄	-11.3216
險阻	-11.3216
滑臺	-11.3216
進止	-11.3219
為車騎將軍	-11.3219
太常博士	-11.3219
為善	-11.3224
髙皇帝	-11.3224
楚昭王	-11.3226
陳人	-11.3228
道家	-11.3229
六里	-11.3229
其過	-11.323
功業	-11.3235
無厭	-11.3235
遂罷	-11.3237
太極	-11.3237
自非	-11.3239
景祐	-11.3241
臣以為	-11.3241
劉璋	-11.3242
泗水	-11.3242
兵敗	-11.3243
之國也	-11.3243
雲夢	-11.3244
女樂	-11.3245
東井	-11.3245
御史臺	-11.3248
南頓	-11.3249
附之	-11.3254
之墓	-11.3254
而可	-11.3255
小民	-11.3255
自當	-11.3255
曹參軍	-11.3256
無患	-11.3257
為散騎常侍	-11.3257
配天	-11.3259
恭儉	-11.326
充國	-11.3261
字徳	-11.3261
召陵	-11.3263
以北	-11.3263
拜侍中	-11.3264
亦當	-11.3265
侵地	-11.3266
叔孫氏	-11.3269
皆是	-11.3269
大海	-11.3271
本國	-11.3272
文秀	-11.3273
西行	-11.3274
曰寡君	-11.3275
不協	-11.3279
賢士	-11.3282
子皮	-11.3283
金山	-11.3286
任用	-11.3287
元属	-11.3287
亦自	-11.3289
厚恩	-11.3291
被甲	-11.3294
不來	-11.3295
所當	-11.3296
責其	-11.3297
闈	-11.3297
六世	-11.3298
請罷	-11.33
領縣	-11.3301
厮	-11.3301
旒	-11.3301
以慰	-11.3301
命婦	-11.3302
六萬	-11.3302
僉都御史	-11.3302
檜	-11.3303
侯國	-11.3303
行義	-11.3303
沅	-11.3303
安西將軍	-11.3305
天下事	-11.3305
昴	-11.3305
召拜	-11.3305
阿那瓌	-11.3306
霑	-11.3307
付廷尉	-11.3307
春秋戰國異辭卷	-11.3308
砥	-11.3309
諸侯皆	-11.3311
出亡	-11.3312
田忌	-11.3313
沈攸之	-11.3314
史有傳	-11.3314
死傷	-11.3314
校書郎	-11.3316
卻	-11.3317
塋	-11.3317
贇	-11.3317
四分	-11.3318
痤	-11.3318
正徳中	-11.3319
鮮虞	-11.3322
逃亡	-11.3324
晉安王	-11.3329
世居	-11.3329
出征	-11.333
必矣	-11.3332
乃詔	-11.3332
不交	-11.3334
臣稱曰	-11.3339
者惟	-11.334
以廣	-11.3342
暴虐	-11.3343
廟庭	-11.3343
為逆	-11.3345
後又	-11.3347
大道	-11.3347
矢石	-11.3348
之狀	-11.3354
亡人	-11.3355
請立	-11.3355
及諸侯之大夫	-11.3355
東晉	-11.3356
二郡太守	-11.3356
承㫖	-11.3359
監門	-11.3364
以白	-11.3364
其為人	-11.3365
中書省	-11.3366
諸城	-11.3367
四十五	-11.3367
至城下	-11.3368
代宗	-11.3368
不敢言	-11.3369
有故	-11.3369
八里	-11.3369
初拜	-11.337
部下	-11.337
其手	-11.3371
之親	-11.3372
天光	-11.3373
見者	-11.3375
刺殺	-11.3376
之極	-11.3378
與劉	-11.338
魏將	-11.338
悼子	-11.3382
一身	-11.3383
事已	-11.3386
稱尊號	-11.3387
四十二年	-11.3388
進至	-11.3388
太和中	-11.3388
萬嵗	-11.3389
寒心	-11.3389
扶南	-11.3392
乎此	-11.3393
其女	-11.3395
厰	-11.3395
元氏	-11.3395
陳侯	-11.3395
千餘級	-11.3395
龍圖閣直學士	-11.3397
蹤	-11.3398
南朝	-11.3399
部尚書	-11.3399
無宇	-11.3399
者得	-11.3399
烏紳	-11.3403
北斗	-11.3404
夷陵	-11.3405
新平	-11.3407
治平	-11.3409
笏	-11.3409
腦	-11.341
菴	-11.341
以叛	-11.3411
餒	-11.3411
孩	-11.3414
愛民	-11.3414
剡	-11.3415
之本也	-11.3416
上命	-11.3416
洞庭	-11.3416
辠	-11.3417
臣臣	-11.3417
乗之	-11.3417
謾	-11.3417
太子洗馬	-11.3417
綾	-11.3418
茲謂	-11.3418
五郡	-11.3419
之廟	-11.3419
掾史	-11.3421
不煩	-11.3425
鐘鼓	-11.3425
侍者	-11.3429
得見	-11.343
必能	-11.343
欲自	-11.3432
曹叡	-11.3433
空虚	-11.3433
往見	-11.3434
謀誅	-11.3435
宋師	-11.3435
名譽	-11.3436
天禧	-11.3437
未拜	-11.3437
守禦	-11.3442
吕䝉	-11.3445
東伐	-11.3446
道規	-11.3448
行父	-11.3452
廷和	-11.3452
劉琨	-11.3458
下官	-11.3461
戮力	-11.3461
乃引	-11.3469
十三里	-11.347
呉郡	-11.3471
圖經	-11.3472
明王	-11.3473
通好	-11.3474
八萬	-11.3475
遂定	-11.3475
悦之	-11.3478
為皇后	-11.3478
作詩	-11.348
楚使	-11.3481
達蘭	-11.3483
汝等	-11.3484
一百卷	-11.3486
也秦	-11.3486
三縣	-11.3486
臧孫	-11.3487
擅權	-11.3487
盧氏	-11.3492
獨與	-11.3493
年九十	-11.3494
鎮軍	-11.3496
不従	-11.3497
城縣	-11.3498
得幸	-11.3498
曰嗚呼	-11.3501
十六里	-11.3501
立皇后	-11.3505
惜之	-11.3505
遙	-11.3511
三星	-11.3512
闚	-11.3512
入居	-11.3513
徙都	-11.3514
為害	-11.3515
弟也	-11.3515
居士	-11.3516
爨	-11.3516
倘	-11.3516
謝之	-11.3517
粒	-11.3517
中央	-11.3517
綂	-11.3517
撒	-11.3518
南蠻校尉	-11.3519
通直散騎常侍	-11.3519
筋	-11.352
聞其名	-11.352
襍	-11.352
日久	-11.3521
愠	-11.3522
為小	-11.3522
礼部	-11.3523
漢家	-11.3523
墳墓	-11.3524
諸侯之大夫	-11.3525
不可勝	-11.3527
登科	-11.3527
橘	-11.3527
霽	-11.3527
奉車都尉	-11.3527
謳	-11.3527
相謂曰	-11.3528
素有	-11.3529
俶	-11.3531
失國	-11.3533
樓船	-11.3533
白水	-11.3536
送至	-11.3538
由余	-11.3538
生口	-11.3542
見知	-11.3543
之喪	-11.3548
雨雪	-11.3549
卒以	-11.355
吾與	-11.355
崇文	-11.355
不喜	-11.3551
羊舌	-11.3553
揚雄	-11.3553
於庭	-11.3554
五刑	-11.3554
符瑞	-11.3558
子建	-11.3559
顧命	-11.3559
射殺	-11.356
昭帝	-11.3562
弘治中	-11.3563
去矣	-11.3563
君有	-11.3564
劉歆	-11.3565
疾苦	-11.3565
九錫	-11.3566
誰可	-11.3566
從駕	-11.3567
放之	-11.3569
存問	-11.357
退走	-11.3571
相屬	-11.3573
乎吾	-11.3574
衛士	-11.3574
殤	-11.3575
漢武	-11.3575
南討	-11.3575
而用	-11.3576
今臣	-11.3577
相遇	-11.3578
奉公	-11.3581
嵗時	-11.3583
舊事	-11.3585
大畧	-11.3585
護軍	-11.3587
敢有	-11.3587
上問	-11.3588
之義也	-11.3589
既死	-11.3593
宋氏	-11.3594
之性	-11.3596
河清	-11.3601
正言	-11.3602
上馬	-11.3603
右丞相	-11.3607
秦滅	-11.3608
先遣	-11.3608
聖明	-11.3611
皆言	-11.3611
乃請	-11.3612
意者	-11.3613
▁弟	-11.3614
武宗	-11.3616
兵入	-11.3619
綎	-11.362
馬融	-11.362
㦲	-11.3621
濡	-11.3623
佃	-11.3623
弘光中	-11.3626
而歸之	-11.3627
豔	-11.3627
貭	-11.3629
埀	-11.363
售	-11.363
祕書丞	-11.3631
道而	-11.3635
欒盈	-11.3636
商賈	-11.3637
相承	-11.3637
應龍	-11.3638
當與	-11.3644
耆老	-11.3645
邊境	-11.3645
筮之	-11.3645
合浦	-11.3646
都官	-11.3651
後事	-11.3651
幕府	-11.3652
無憂	-11.3652
不生	-11.3653
勤勞	-11.3654
抵罪	-11.3654
省入	-11.3657
宗伯	-11.3657
産業	-11.3657
改容	-11.3658
圍宋	-11.3658
酒食	-11.366
南兖州刺史	-11.366
建中	-11.3662
始祖	-11.3664
也帝	-11.3664
委質	-11.3664
平地	-11.3665
時方	-11.3667
當立	-11.3668
孝景	-11.3669
左将軍	-11.3669
不拘	-11.3671
南郡太守	-11.3671
與共	-11.3672
良乆	-11.3673
官司	-11.3676
稱病	-11.3677
致書	-11.3677
數十里	-11.3677
闗内侯	-11.3678
六十里	-11.3679
不觧	-11.368
愛人	-11.3681
不得志	-11.3683
靈州	-11.3683
忠良	-11.3683
到官	-11.3685
茂陵	-11.3687
自此始	-11.3689
梁山	-11.3689
而外	-11.3691
最為	-11.3696
氏族	-11.3697
學問	-11.3698
始置	-11.3699
従之	-11.37
刑法	-11.3702
日至	-11.3703
守節	-11.3704
政令	-11.3707
穀梁	-11.3708
都邑	-11.3709
南奔	-11.3711
申生	-11.3712
卒後	-11.3712
天雨	-11.3713
必亡	-11.3714
待罪	-11.3715
一清	-11.3717
至誠	-11.3718
禋	-11.3718
使告	-11.3723
茲	-11.3725
鵉	-11.3726
梵	-11.3728
國策	-11.3729
果如	-11.3729
醮	-11.373
尋以	-11.373
駙馬	-11.373
居庸	-11.3731
鈴	-11.3731
恩澤	-11.3731
豈其	-11.3734
折衝	-11.3735
堆	-11.3735
詬	-11.3735
之精	-11.3735
笄	-11.3736
瑣	-11.3736
皆不就	-11.3737
户部侍郎	-11.3737
郭璞	-11.3737
儔	-11.3737
子昇	-11.3739
酸	-11.3739
朝見	-11.374
大理寺	-11.374
矣其	-11.374
有間	-11.3742
凋	-11.3742
韓詩外傳	-11.3743
為大都督	-11.3747
僚佐	-11.3748
若欲	-11.3749
問之曰	-11.3749
與焉	-11.3751
王𢎞	-11.3751
夫子之	-11.3754
不須	-11.3754
烏程	-11.3755
經學	-11.3755
威信	-11.3757
挑戰	-11.3758
于下	-11.3758
守将	-11.3758
未至而	-11.3759
王國	-11.3759
崔光	-11.376
其屬	-11.376
樂平	-11.3761
率師	-11.3762
請老	-11.3763
饑寒	-11.3763
四里	-11.3765
力竭	-11.3767
虢公	-11.3767
仰視	-11.3767
晉晉	-11.3768
石室	-11.3769
八卦	-11.3769
元公	-11.3772
經典	-11.3774
正朔	-11.3774
漢初	-11.3774
周瑜	-11.3775
一語	-11.3776
長生	-11.3777
更生	-11.378
不能禁	-11.3783
新法	-11.3784
忠烈	-11.3785
撫按	-11.3785
諸將皆	-11.3787
而惡	-11.379
徒以	-11.379
三朝	-11.3792
征虜	-11.3793
令曰	-11.3793
河州	-11.3794
論其	-11.3794
百工	-11.3794
人謂之	-11.3797
分别	-11.3797
滄州	-11.3798
於我	-11.38
事有	-11.38
伊都	-11.38
江水	-11.3801
田常	-11.3802
為廷尉	-11.3802
書生	-11.3803
以臨	-11.3803
詔有司	-11.3805
南向	-11.3805
以俟	-11.3806
也因	-11.3807
明皇	-11.3808
弑君	-11.3809
互相	-11.3811
武庚	-11.3812
周君	-11.3812
武帝時	-11.3813
南陽王	-11.3813
叔向曰	-11.3814
虜其	-11.3814
者咸	-11.3815
推誠	-11.3818
今據	-11.3818
桓侯	-11.3818
驍騎	-11.3818
數十年	-11.3819
銜之	-11.382
為宰相	-11.3821
斷其	-11.3821
慶州	-11.3822
一無所	-11.3824
縱兵	-11.3826
而朝	-11.3831
昭明	-11.3831
豨	-11.3831
元徽	-11.3832
對曰昔	-11.3832
故其	-11.3833
入内	-11.3833
治水	-11.3834
賈人	-11.3834
則非	-11.3834
好士	-11.3835
等共	-11.3836
時務	-11.3836
曹彬	-11.3837
别封	-11.384
迨	-11.384
徭	-11.3841
敬宗	-11.3845
養之	-11.3845
簾	-11.3845
左賢王	-11.3845
努	-11.3845
之器	-11.3845
曹仁	-11.3845
跣	-11.3845
贈太師	-11.3846
城上	-11.3847
梓潼	-11.3847
旗幟	-11.3848
殺傷	-11.3848
爾朱兆	-11.3849
戱	-11.3849
務在	-11.385
老而	-11.3852
翕然	-11.3853
將伐	-11.3853
西土	-11.3854
魏收	-11.3854
萹	-11.3854
肱	-11.3856
大潰	-11.3857
布政使	-11.3857
鉢	-11.3857
其難	-11.3858
麒麟	-11.3858
楊愔	-11.3859
晉獻公	-11.386
察其	-11.3862
法司	-11.3862
所賜	-11.3862
朔日食	-11.3863
死也	-11.3866
輕車	-11.3867
景文	-11.3869
鎮北	-11.3869
湣公	-11.3871
以勸	-11.3874
為盗	-11.3875
所云	-11.3877
與諸侯	-11.388
竹書	-11.3881
求見	-11.3881
㑹稽太守	-11.3886
專權	-11.3886
南越	-11.3886
伯陽	-11.3888
歸罪	-11.3888
臣愚以為	-11.3891
純仁	-11.3892
不踰	-11.3893
左軍	-11.3893
王業	-11.3896
屬文	-11.3897
伏地	-11.3898
具以	-11.3898
餘姚	-11.3902
十七卷	-11.3902
東討	-11.3902
徐兖	-11.3903
瑯琊	-11.3906
我軍	-11.3907
無用	-11.3908
敬兒	-11.3913
等俱	-11.3914
將來	-11.3914
宣和	-11.3914
中立	-11.3915
焉其	-11.3916
若使	-11.3917
鮮于	-11.3917
將吏	-11.3919
類也	-11.3921
上生	-11.3921
願王	-11.3922
四十六	-11.3924
安集	-11.3924
大行臺	-11.3924
晳	-11.3925
歸心	-11.3927
軍前	-11.3927
也按	-11.3927
於河	-11.3928
廣寕	-11.3931
諡曰忠	-11.3932
在焉	-11.3932
詛	-11.3934
立于	-11.3936
於路	-11.3937
求為	-11.3938
胡廣	-11.3939
翕	-11.394
欲因	-11.3942
以才	-11.3943
伐呉	-11.3944
艮	-11.3944
百司	-11.3945
能無	-11.3945
申公	-11.3945
度河	-11.3946
讃	-11.3946
蔡人	-11.3947
編修	-11.3947
雄州	-11.3947
河洛	-11.3948
子服	-11.3948
秦繆公	-11.3949
譁	-11.3949
三家	-11.3949
▁月	-11.3949
曲阜	-11.3951
鯁	-11.3951
帝使	-11.3952
哩	-11.3952
杏	-11.3953
撲	-11.3954
愎	-11.3954
虓	-11.3955
駘	-11.3955
瑁	-11.3956
不習	-11.3956
有何	-11.3956
諳	-11.3956
誇	-11.3957
神人	-11.3957
祼	-11.3958
貺	-11.3959
咸以	-11.396
豺狼	-11.396
畱	-11.396
元吉	-11.3961
仁人	-11.3961
䡖	-11.3962
巡狩	-11.3962
翹	-11.3962
感悟	-11.3962
徒跣	-11.3963
則又	-11.3963
簪	-11.3964
内地	-11.3965
鬷	-11.3965
督䕶	-11.3966
霖雨	-11.3967
定逺	-11.3967
典禮	-11.3967
復用	-11.397
約束	-11.3972
變而	-11.3973
緩急	-11.3973
生也	-11.3973
僣號	-11.3974
為患	-11.3976
蜀王	-11.3978
將行	-11.3978
堅壁	-11.3981
兼散騎常侍	-11.3981
羲和	-11.3982
瀛州	-11.3982
遣将	-11.3983
賞之	-11.3985
擁兵	-11.399
大姓	-11.3992
立為皇后	-11.3993
者言	-11.3995
千九百	-11.3998
潞州	-11.3998
孔叢子	-11.3999
徽之	-11.3999
不令	-11.4
禁之	-11.4004
不可為	-11.4007
父為	-11.401
載之	-11.4011
山上	-11.4011
伯禽	-11.4012
以助	-11.4016
篤學	-11.4017
忠於	-11.4017
今子	-11.4017
所望	-11.4018
八十里	-11.4019
文正	-11.402
士遜	-11.4021
華氏	-11.4021
莾	-11.4025
謀議	-11.4025
七廟	-11.4027
帝舜	-11.4027
震動	-11.4028
後從	-11.4028
白石	-11.4031
大説	-11.4032
擁衆	-11.4032
難也	-11.404
不允	-11.404
虚實	-11.4041
殿内	-11.4043
或勸	-11.4045
下書	-11.4046
為賊	-11.4047
而獨	-11.4048
曰凡	-11.4049
文侯曰	-11.4051
招之	-11.4052
太原王	-11.4054
宣撫	-11.4055
陵遲	-11.4057
學官	-11.4057
合葬	-11.4058
而罷	-11.4058
事實	-11.4059
景隆	-11.406
義疏	-11.406
妥	-11.4061
撞	-11.4062
使使者	-11.4062
鄜	-11.4062
龢	-11.4064
廡	-11.4064
培	-11.4064
褁	-11.4064
兑	-11.4065
廊	-11.4065
劓	-11.4065
籬	-11.4067
尋復	-11.4067
能以	-11.4067
尚可	-11.4068
猶存	-11.4068
媒	-11.407
炤	-11.407
有寵於	-11.407
絜	-11.4071
吕不韋	-11.4071
失職	-11.4072
與賊	-11.4073
厚加	-11.4074
遁走	-11.4074
閽	-11.4075
葺	-11.4076
以清	-11.4076
羣僚	-11.4077
彭生	-11.4077
蔬食	-11.4078
叔仲	-11.4081
臺城	-11.4082
太上皇	-11.4084
堯臣	-11.4085
此三	-11.4089
按察使	-11.409
君必	-11.4091
而歎曰	-11.4091
出城	-11.4091
齊秦	-11.4091
不達	-11.4092
東遷	-11.4093
夏商	-11.4095
國遣使朝貢	-11.4096
縣省入	-11.4097
攻韓	-11.4099
間有	-11.4102
復相	-11.4103
朝于	-11.4104
晏子對曰	-11.4105
所推	-11.4107
即今	-11.4108
上疏言	-11.411
賈充	-11.411
数千	-11.411
西面	-11.4111
舉兵反	-11.4115
遣軍	-11.4115
孫恩	-11.4116
從軍	-11.4118
正統中	-11.4118
江表	-11.4121
忽有	-11.4123
官職	-11.4125
難之	-11.4128
郢州刺史	-11.4129
渭南	-11.4129
中䕶軍	-11.413
木為	-11.413
行路	-11.4131
施於	-11.4131
共攻	-11.4132
自保	-11.4132
武安	-11.4133
何如對曰	-11.4133
復興	-11.4135
復請	-11.4138
衆議	-11.4138
權貴	-11.4139
若敖	-11.4139
論事	-11.4142
聽政	-11.4145
廬州	-11.4147
二千餘人	-11.4149
朔望	-11.415
歸徳	-11.4152
為二	-11.4153
異議	-11.4154
乃使人	-11.4155
王薨	-11.4159
伐韓	-11.4159
至親	-11.416
平西	-11.4161
嚳	-11.4163
還鄉里	-11.4165
立其子	-11.4168
不實	-11.4168
東漢	-11.4169
不先	-11.417
屬之	-11.4171
必至	-11.4175
經云	-11.4176
伽	-11.418
中黄門	-11.418
莎車	-11.418
燿	-11.4181
不决	-11.4181
諸葛誕	-11.4181
掖門	-11.4182
征南大將軍	-11.4182
同中書門下平章事	-11.4182
如此者	-11.4182
斟酌	-11.4182
員外散騎常侍	-11.4182
淩	-11.4183
司隸校尉	-11.4183
其屍	-11.4183
篋	-11.4184
延慶	-11.4184
吳漢	-11.4184
等率	-11.4185
驃騎大將軍開府儀同三司	-11.4186
敘	-11.4187
誠能	-11.4187
鰥寡	-11.4188
以養	-11.4189
睡	-11.4189
認	-11.419
暕	-11.4191
束帛	-11.4192
徳行	-11.4193
建言	-11.4193
䟽請	-11.4193
范雎	-11.4195
于市	-11.4195
彪之	-11.4196
比至	-11.4198
史記作	-11.4199
于陳	-11.4199
前有	-11.42
以治	-11.42
何有	-11.4201
先鋒	-11.4202
異於	-11.4203
叱之	-11.4203
事發	-11.4208
羽翼	-11.4208
公府	-11.4209
始平	-11.4214
落職	-11.4215
字思	-11.4215
又一卷	-11.4215
骸骨	-11.4219
歲餘	-11.422
三十八	-11.422
日行	-11.422
荀息	-11.4221
六年春正月	-11.4224
行成	-11.4226
異也	-11.4226
平齊	-11.4227
大罪	-11.4227
平涼	-11.4231
呉人	-11.4233
供養	-11.4236
鳯陽	-11.4238
政和	-11.4239
竇氏	-11.4244
司州刺史	-11.4245
十斤	-11.4246
入於	-11.4249
免之	-11.4253
東林	-11.4253
拜議郎	-11.4254
仕齊	-11.4257
時年五十	-11.4258
之過也	-11.4259
失道	-11.426
諸羌	-11.426
大國之	-11.4263
前漢	-11.4263
地也	-11.4264
范同	-11.4265
作大	-11.4266
鍾㑹	-11.4266
且言	-11.4267
高皇帝	-11.4268
公田	-11.4268
而南	-11.4269
帝亦	-11.4272
李固	-11.4273
暈	-11.4274
咸寧	-11.4276
容止	-11.4277
帝欲	-11.4277
洪水	-11.4281
追擊	-11.4281
之句	-11.4281
遺令	-11.4282
報仇	-11.4284
萬匹	-11.4286
所撰	-11.4287
上乃	-11.4289
鳯凰	-11.4292
越騎校尉	-11.4292
建隆	-11.4293
亡走	-11.4293
捜	-11.4293
耒	-11.4294
氏為皇后	-11.4294
琵琶	-11.4295
嗣王	-11.4295
菽	-11.4295
屯騎校尉	-11.4296
毆	-11.4297
伷	-11.4298
小邾	-11.4299
簡子曰	-11.4299
摭	-11.4299
牝	-11.4299
墾田	-11.4299
欠	-11.43
阬	-11.43
寰	-11.4301
陳留王	-11.4301
蠟	-11.4302
狄道	-11.4302
冡宰	-11.4304
函谷	-11.4306
改易	-11.4306
竪	-11.4308
蒿	-11.4308
陳平	-11.4309
楚有	-11.4309
車騎大將軍	-11.431
王曰寡人	-11.4311
未下	-11.4311
淑妃	-11.4312
如前	-11.4312
封於	-11.4312
之弟也	-11.4316
軍法	-11.4318
吉祥	-11.4321
顔淵	-11.4323
餘人	-11.4325
深相	-11.4326
竒兵	-11.4327
亡去	-11.4327
大禮	-11.4329
髙辛	-11.433
擊敗之	-11.433
三年春	-11.4331
者猶	-11.4331
而歌	-11.4332
問以	-11.4332
胡公	-11.4332
先軫	-11.4332
乎遂	-11.4333
為三公	-11.4334
居於	-11.4334
曰古之	-11.4335
公卿以下	-11.4336
疾疫	-11.4336
十五日	-11.4337
以威	-11.4339
之後為	-11.4341
及諸侯	-11.4342
侯卒子	-11.4344
大象	-11.4345
機密	-11.4346
在坐	-11.4346
小名	-11.4349
刺客	-11.435
謂宜	-11.435
出軍	-11.4355
始封	-11.4357
諡曰恭	-11.4358
有闕	-11.4359
九嵗	-11.436
大位	-11.436
為大王	-11.4362
則知	-11.4362
求賢	-11.4364
之吏	-11.4364
奏聞	-11.4364
各置	-11.4365
洛陽令	-11.4365
其數	-11.4366
畏其	-11.4366
之具	-11.4371
拔之	-11.4371
黄老	-11.4374
而坐	-11.4375
亦謂	-11.4375
三十九	-11.4377
走之	-11.438
之險	-11.4383
稽古	-11.4383
所舉	-11.4384
屬縣	-11.4385
擊大破之	-11.4388
繼隆	-11.4389
之大者	-11.439
尋拜	-11.439
於長安	-11.4392
張魯	-11.4392
大寳	-11.4394
自漢	-11.4394
周周	-11.4396
改授	-11.4398
辞	-11.4398
當是	-11.4401
臣愚	-11.4401
報曰	-11.4403
因請	-11.4405
緄	-11.4406
屯于	-11.4406
先賢	-11.4406
亂也	-11.4406
睢陽	-11.4406
楚滅	-11.4407
璿	-11.4408
於漢	-11.441
一舉	-11.4411
齊王冏	-11.4411
糜	-11.4412
嵇	-11.4412
侵鄭	-11.4413
畀	-11.4413
鎮西將軍	-11.4413
直史館	-11.4413
燼	-11.4414
床	-11.4414
袤	-11.4414
伉	-11.4415
之功也	-11.4416
嗣君	-11.4416
殿中侍御史	-11.4416
唘	-11.4417
誚	-11.4417
同知樞密院事	-11.4418
建威將軍	-11.4418
犨	-11.4419
朏	-11.4419
修起居注	-11.4419
賈誼	-11.4419
錐	-11.4419
蓍	-11.4421
范睢	-11.4422
曰當	-11.4424
萬六千	-11.4425
邦彦	-11.4427
㑹議	-11.4428
仲舒	-11.4428
遂破	-11.4429
死則	-11.4432
李廣	-11.4435
死事	-11.4435
太僕卿	-11.4435
皇祐	-11.4435
吉甫	-11.4436
湛之	-11.4436
防禦	-11.4437
周氏	-11.4438
雨雹	-11.444
謀曰	-11.4441
咎犯	-11.4441
不辱	-11.4442
在天	-11.4444
羣盗	-11.4444
者不得	-11.4445
攻殺	-11.4445
合從	-11.4446
家無	-11.4446
省事	-11.4447
後唐	-11.4448
詔曰朕	-11.4448
従事	-11.445
詩賦	-11.4451
伐鄭鄭	-11.4452
威武	-11.4454
東堂	-11.4455
上殿	-11.4457
以降	-11.4457
南吕	-11.4458
㧞之	-11.4459
安淂	-11.4461
桓十	-11.4461
堯之	-11.4462
妻妾	-11.4462
部員外郎	-11.4462
廬江太守	-11.4463
何者	-11.4463
使來	-11.4463
意氣	-11.4464
曰古者	-11.4466
遂成	-11.4468
知禮	-11.4471
庻子	-11.4473
於帝	-11.4474
二十餘萬	-11.4475
寳應	-11.4476
休之	-11.4476
咸康	-11.4479
景和	-11.4486
莒人	-11.4489
來告	-11.4491
攻取	-11.4492
古有	-11.4492
同謀	-11.4495
萬乗之	-11.4497
即拜	-11.4497
一尺	-11.4497
元妃	-11.4498
嘿	-11.4499
不戰而	-11.45
帝甚	-11.45
長君	-11.4501
傷之	-11.4503
荆楚	-11.4505
髙昌	-11.4505
追奔	-11.4505
鎮西	-11.4508
鎮惡	-11.4509
梁冀	-11.451
危亡	-11.4512
不犯	-11.4513
三事	-11.4513
以國為氏	-11.4515
長陵	-11.4519
天之所	-11.452
民多	-11.452
散走	-11.4521
之首	-11.4521
辛夘	-11.4521
平南將軍	-11.4522
魯之	-11.4524
套	-11.4524
易也	-11.4524
而易	-11.4524
同平章事	-11.4525
傕	-11.4526
玉帛	-11.4526
髀	-11.4527
是吾	-11.4527
平西將軍	-11.4529
有舊	-11.4529
多見	-11.453
霞	-11.4531
鎮之	-11.4531
䕶羌校尉	-11.4532
三千餘人	-11.4532
慄	-11.4532
脛	-11.4533
赭	-11.4533
與君	-11.4533
天興	-11.4535
太子太子	-11.4535
太子少保	-11.4536
涂	-11.4537
涸	-11.4537
儀禮	-11.4537
郜	-11.4537
這	-11.4538
本郡	-11.4538
裙	-11.4538
懐公	-11.4539
䟦	-11.4539
四星	-11.4539
頃襄王	-11.454
先師	-11.4541
豺	-11.4542
而行之	-11.4543
爾朱	-11.4543
孫林父	-11.4543
而西	-11.4544
傳國	-11.4547
考課	-11.4548
南有	-11.4548
收之	-11.4549
者哉	-11.455
見一	-11.455
新興	-11.4551
長短	-11.4552
變色	-11.4553
數為	-11.4553
者豈	-11.4554
太守劉	-11.4555
小黄門	-11.4555
立之是為	-11.4558
威徳	-11.4558
酒肉	-11.4562
祀南郊	-11.4564
袁氏	-11.4564
三十三	-11.4564
來者	-11.4566
五十年	-11.4566
復拜	-11.4568
領州	-11.4568
涇州	-11.4569
百餘萬	-11.457
宋宋	-11.4572
仲尼曰	-11.4575
延平	-11.4575
而笑	-11.4579
大治	-11.4579
邑人	-11.458
實為	-11.4581
建立	-11.4584
臨之	-11.4585
聞者	-11.4585
夷人	-11.4586
美女	-11.4588
閨	-11.4588
好古	-11.4589
何至	-11.459
宗祀	-11.4591
實有	-11.4592
今日之事	-11.4592
年長	-11.4593
三十九年	-11.4595
其狀	-11.4598
卜之	-11.4599
不撓	-11.4599
㑹諸侯于	-11.4601
載記	-11.4601
韋昭	-11.4603
申侯	-11.4607
諸曹	-11.4608
少好	-11.461
華州	-11.4611
安置	-11.4612
而立之	-11.4614
後將軍	-11.4615
秦晉	-11.4615
隠公	-11.4616
大悅	-11.4616
上謂	-11.4616
之舞	-11.4616
中州	-11.4621
者此	-11.4621
挑	-11.4621
國相	-11.4625
又加	-11.4628
▁諫	-11.4628
王季	-11.4629
赫連	-11.4633
愍帝	-11.4634
平陳	-11.4636
籙	-11.4638
肜	-11.464
釐侯	-11.4641
盡殺	-11.4643
擿	-11.4644
訶	-11.4644
人以為	-11.4644
勔	-11.4645
僇	-11.4647
凡六	-11.4647
騁	-11.4647
店	-11.4647
政教	-11.4647
囊瓦	-11.4648
縝	-11.4649
態	-11.4649
剝	-11.4649
八嵗	-11.465
髙下	-11.465
所奏	-11.4651
峴	-11.4651
頴胄	-11.4651
保全	-11.4652
光祿勲	-11.4652
問疾	-11.4652
之由	-11.4652
餅	-11.4653
蔡確	-11.4654
㤀	-11.4655
弧	-11.4655
贏	-11.4656
賊平	-11.4656
贈司空	-11.4656
髙密	-11.4656
鄴城	-11.4657
百七十	-11.4657
尚在	-11.4658
罃	-11.4659
𦍑	-11.466
鄱陽王	-11.466
穉	-11.4661
農夫	-11.4661
䕶軍將軍	-11.4661
卒弟	-11.4663
應天府	-11.4664
并前	-11.4664
州刾史	-11.4664
性至孝	-11.4665
始為	-11.4665
昆彌	-11.4665
期而	-11.4665
眀徹	-11.4665
譬之	-11.4665
不得其	-11.4666
三等	-11.4668
其舊	-11.4668
彼此	-11.467
禁兵	-11.4672
下生	-11.4672
器物	-11.4675
子之言	-11.4676
帝紀	-11.4677
帝於	-11.4677
王旦	-11.4677
夏州	-11.4677
還為	-11.4677
列於	-11.4678
有九	-11.4678
元謨	-11.4679
入魏	-11.468
奔楚	-11.4682
得書	-11.4684
戰不利	-11.4685
是夜	-11.4688
之福也	-11.4688
為平	-11.4689
分其地	-11.469
不可用	-11.4691
為右僕射	-11.4693
師友	-11.4693
先至	-11.4694
上開府	-11.4696
西有	-11.4696
至大	-11.4696
上軍	-11.4698
少主	-11.47
此三者	-11.4702
博聞	-11.4705
懼乃	-11.4706
四十一	-11.4706
鄉黨	-11.4708
信義	-11.4709
傳首	-11.4709
追斬	-11.4712
武康	-11.4718
晉主	-11.472
在南	-11.4721
置一	-11.4724
因以為	-11.4724
為太師	-11.4726
入門	-11.4726
吏事	-11.4727
也臣聞	-11.4727
梁元帝	-11.4728
便是	-11.473
遂令	-11.4732
進討	-11.4732
太陽	-11.4732
對曰君	-11.4732
上將軍	-11.4733
北討	-11.4734
有八	-11.4734
殿上	-11.4737
坐法	-11.4738
臨川王	-11.4739
亦多	-11.4739
進據	-11.4741
必得	-11.4744
大宛	-11.4744
郡界	-11.4746
進圍	-11.4747
廢也	-11.4747
也不如	-11.4748
圍鄭	-11.4748
之福	-11.4749
滅亡	-11.4749
蕭氏	-11.475
東觀記	-11.4752
王宫	-11.4753
州明	-11.4754
故名	-11.4757
冠帶	-11.4757
召問	-11.4758
三年而	-11.4759
縫	-11.4759
於今	-11.476
五校	-11.476
東道	-11.4763
方一卷	-11.4763
堂下	-11.4764
濛	-11.4765
待以	-11.4766
皆可	-11.4766
斾	-11.4769
姚萇	-11.4771
死人	-11.4771
御定歴代紀事年表	-11.4771
遂奔	-11.4772
中散大夫	-11.4774
歿	-11.4774
並進	-11.4775
輓	-11.4775
三部	-11.4776
卿言	-11.4777
虎賁中郎將	-11.4777
魯王	-11.4777
針	-11.4778
舉賢良方正	-11.4778
方略	-11.4779
瑤	-11.478
奄至	-11.4782
老臣	-11.4783
上虞	-11.4784
騷動	-11.4784
彊盛	-11.4785
引還	-11.4785
昭宗	-11.4785
黄鉞	-11.4787
國之大	-11.4787
嬴姓	-11.4787
蝕	-11.4788
所誅	-11.479
詰之	-11.4792
人莫	-11.4795
二萬人	-11.4795
清平	-11.4797
晉魯宋	-11.4797
與諸將	-11.4798
父曰	-11.4798
是矣	-11.4798
之寳	-11.4799
至洛陽	-11.48
條例	-11.48
向髙	-11.48
甲科	-11.48
永楽中	-11.4801
以我為	-11.4801
門内	-11.4801
學術	-11.4802
定䇿	-11.4803
乃釋	-11.4803
之舉	-11.4804
孔融	-11.4805
靡不	-11.4808
其誰	-11.4809
東安	-11.4811
宥之	-11.4812
意在	-11.4817
紹聖	-11.4817
築室	-11.4818
伐我取	-11.4819
安可	-11.482
皆非	-11.482
分野元	-11.482
法律	-11.4822
第九	-11.4822
應聲	-11.4824
化貞	-11.4825
不禁	-11.4825
延壽	-11.4826
陽氣	-11.4826
禍及	-11.4828
外有	-11.4829
太息	-11.4829
錢唐	-11.483
諡曰貞	-11.483
祭天	-11.483
歸朝	-11.4831
有七	-11.4831
黔中	-11.4832
交州刺史	-11.4832
秋冬	-11.4834
葉公	-11.4834
不悟	-11.4838
王猛	-11.4839
為周	-11.4839
致其	-11.484
公子光	-11.4846
樂之	-11.4846
化之	-11.4852
不恱	-11.4852
凡有	-11.4855
督師	-11.4856
定天下	-11.4856
衡陽	-11.4857
矣此	-11.4857
昌黎	-11.4859
勝負	-11.486
孝明	-11.4867
起自	-11.4867
不恭	-11.4869
每至	-11.4869
廣川	-11.4869
投水	-11.487
嗣立	-11.4871
之勞	-11.4871
羡之	-11.4874
笛	-11.4875
惻	-11.4876
事必	-11.4878
近者	-11.4878
二寸	-11.4879
封安	-11.4879
至扵	-11.488
避亂	-11.488
九里	-11.488
近代	-11.4881
蛟	-11.4882
戎馬	-11.4885
愕	-11.4886
國士	-11.4886
其二	-11.4886
滌	-11.4886
久不	-11.4887
降為	-11.4888
上尊號	-11.4888
蒋	-11.4889
蠆	-11.4889
復令	-11.4889
烮	-11.4889
詎	-11.4892
恠	-11.4893
樽	-11.4893
坐免官	-11.4894
杳	-11.4894
徭役	-11.4895
撾	-11.4895
為尚書右僕射	-11.4896
恨不	-11.4899
緬	-11.49
明元	-11.49
提督	-11.4901
筞	-11.4901
斛律	-11.4901
城父	-11.4901
楚公子	-11.4902
其友	-11.4903
熾磐	-11.4904
之異	-11.4904
即帝位	-11.4905
其祖	-11.4906
檀弓	-11.4914
因令	-11.4915
沙漠	-11.4915
或問	-11.4916
父死	-11.4918
数百	-11.4918
天生	-11.4919
所制	-11.4921
正色曰	-11.4922
檻車	-11.4922
主帥	-11.4923
改属	-11.4924
始以	-11.4926
選用	-11.4926
位次	-11.4928
三十八年	-11.493
復使	-11.4932
得全	-11.4936
蘭臺	-11.4936
諸鎮	-11.4938
之稱	-11.4938
吳郡太守	-11.4939
對曰夫	-11.4939
被執	-11.4939
魯哀公	-11.494
之勲	-11.494
夏禹	-11.4941
皆由	-11.4941
益封	-11.4942
一夜	-11.4947
府中	-11.4947
帝意	-11.4948
平蜀	-11.4951
離散	-11.4951
有女	-11.4951
興復	-11.4952
髙歡	-11.4952
責以	-11.4954
馬援	-11.4955
劉聰	-11.4955
食肉	-11.4957
曰昔者	-11.4958
更封	-11.4959
輕薄	-11.4964
事下	-11.4966
犯者	-11.4966
赴援	-11.4967
開封人	-11.4968
族弟	-11.4969
天心	-11.4972
三十四	-11.4973
土山	-11.4973
乘馬	-11.4974
親愛	-11.4975
書佐	-11.4976
至公	-11.4978
致命	-11.4978
而滅	-11.4979
取士	-11.498
景徳	-11.4981
退還	-11.4982
孔叢	-11.4983
以制	-11.4984
相善	-11.4984
冢宰	-11.4987
隆慶	-11.4993
風俗通云	-11.4993
舅氏	-11.4994
遂廢	-11.4994
魏冉	-11.4996
千疋	-11.4998
闖	-11.4999
西城	-11.5
有遺	-11.5
戰功	-11.5001
暦	-11.5003
陜州	-11.5006
遇疾	-11.5006
論衡	-11.5006
于吳	-11.5008
已甚	-11.5011
其力	-11.5011
毘	-11.5012
杜陵	-11.5015
勱	-11.5015
璘	-11.5016
橐	-11.5016
𫀆	-11.5017
剔	-11.5017
喙	-11.5017
蘧伯玉	-11.5017
褥	-11.5018
正光	-11.5018
勺	-11.5019
金紫光祿大夫	-11.5019
餘杭	-11.502
兠	-11.502
築長城	-11.5021
頃王	-11.5023
埋之	-11.5023
黔首	-11.5023
尉遲	-11.5024
都督僉事	-11.5027
湖南	-11.5027
左氏春秋	-11.5027
巋	-11.5028
吾家	-11.5028
葱嶺	-11.5029
項籍	-11.503
清濁	-11.5032
勸之	-11.5033
月氏	-11.5033
復叛	-11.5034
曰吾聞之	-11.5035
姬生	-11.5036
頓邱	-11.5036
廢后	-11.5037
初名	-11.5037
不朽	-11.5043
先零	-11.5046
治道	-11.5046
惠卿	-11.5048
殺戮	-11.5049
征北	-11.5049
而誅	-11.5051
無害	-11.5051
徼外	-11.5054
汾州	-11.5054
弑逆	-11.5055
太㣲	-11.5055
朕甚	-11.5057
有力	-11.5058
秘書	-11.5058
縣南	-11.5059
石門	-11.5059
忠貞	-11.5059
部伍	-11.506
按察	-11.506
交易	-11.5062
京畿	-11.5063
而問曰	-11.5064
徃来	-11.5066
事見	-11.5068
請於	-11.5069
舊恩	-11.5071
羅索	-11.5071
歸彦	-11.5071
而去之	-11.5074
叔帶	-11.5078
泉州	-11.5082
又奏	-11.5082
諺曰	-11.5084
歴官	-11.5084
我及	-11.5086
漢室	-11.5086
於是乃	-11.5089
不少	-11.509
陽門	-11.5093
甘心	-11.5094
之利也	-11.5094
太興	-11.5095
合謀	-11.5096
欲立之	-11.5096
北海王	-11.5096
方平	-11.5097
自取	-11.5099
而内	-11.51
盡禮	-11.5106
九日	-11.5108
君父	-11.5109
莫知所	-11.5111
新羅	-11.5113
大政	-11.5113
二公	-11.5115
百口	-11.5115
非子	-11.5117
一心	-11.5118
先驅	-11.5121
帝位	-11.5121
鄭州	-11.5121
歸魏	-11.5123
一世	-11.5123
孝莊	-11.5123
七萬	-11.5124
可立	-11.5126
子嬰	-11.5128
為荆州刺史	-11.513
薬	-11.513
和龍	-11.5131
擄	-11.5131
以資	-11.5132
諸父	-11.5133
及第	-11.5135
御府	-11.5136
鶻	-11.5136
㨿	-11.5138
紊	-11.5138
銑	-11.514
汧	-11.514
謔	-11.514
湫	-11.5141
閠	-11.5141
越嶲	-11.5142
司州	-11.5142
請先	-11.5142
賜爵關内侯	-11.5143
城門校尉	-11.5143
蟜	-11.5144
延齡	-11.5144
隲	-11.5144
秦惠王	-11.5145
十嵗	-11.5145
用此	-11.5146
戴公	-11.5146
桓叔	-11.5147
廢太子	-11.5147
肸	-11.5147
罄	-11.5147
歴年	-11.5147
在北	-11.5148
撫軍將軍	-11.5149
數有	-11.5149
定襄	-11.515
萬八千	-11.515
吳越春秋	-11.515
自請	-11.515
沮渠	-11.5151
荀子	-11.5154
供奉官	-11.5156
姦臣	-11.5156
累日	-11.5157
詔使	-11.5158
闔門	-11.5159
汴京	-11.5159
乃有	-11.5161
五音	-11.5163
相府	-11.5164
常從	-11.5165
先儒	-11.5168
虎豹	-11.5169
切齒	-11.5169
丹陽太守	-11.5169
上元	-11.5175
之基	-11.5176
聖公	-11.5179
丞相亮	-11.518
因以為氏	-11.5182
單衣	-11.5184
六曰	-11.5184
立為皇太子	-11.5185
汝州	-11.5186
後嗣	-11.5187
既入	-11.5188
為魯	-11.5189
發覺	-11.519
目之	-11.5191
名聞	-11.5192
亦皆	-11.5194
室中	-11.5198
齊大夫	-11.5199
仁孝	-11.52
拒戰	-11.52
自負	-11.5202
後漢有	-11.5202
通典	-11.5204
最後	-11.5204
居家	-11.5205
日出	-11.5209
徳明	-11.521
勢必	-11.5211
朕意	-11.5211
子姓	-11.5211
興平	-11.5212
騎士	-11.5214
忠言	-11.5214
行禮	-11.5215
帝問	-11.5215
昌平	-11.5216
十三人	-11.5216
合於	-11.5217
傳言	-11.5217
髙山	-11.5219
其處	-11.5219
給之	-11.5223
之身	-11.5226
明旦	-11.5227
宋興	-11.523
討平	-11.5231
目夷	-11.5231
未立	-11.5234
䝉古	-11.5234
不爾	-11.5237
安州	-11.5239
思明	-11.524
馬邑	-11.5242
騎兵	-11.5244
客有	-11.5245
何哉	-11.5245
舉人	-11.5248
流亡	-11.5248
彗星	-11.5248
奉㫖	-11.525
沛郡	-11.525
紹宗	-11.5252
進見	-11.5253
無所用	-11.5253
謀臣	-11.5255
優詔	-11.5256
遂去	-11.5257
禮遇	-11.5259
一石	-11.526
知之矣	-11.5261
夘	-11.5261
當此之時	-11.5262
蓺	-11.5263
紛紛	-11.5263
在我	-11.5263
平北將軍	-11.5264
主客	-11.5266
華林園	-11.5266
駞	-11.5266
自來	-11.5267
曰君子	-11.5268
鬰	-11.5269
稀	-11.5269
死之日	-11.527
此必	-11.527
哈宻	-11.527
几杖	-11.527
坡	-11.5271
陸渾	-11.5271
錦繡	-11.5271
倜儻	-11.5272
圍邯鄲	-11.5272
􁞗	-11.5273
征東將軍	-11.5273
鞬	-11.5273
廣固	-11.5274
天保初	-11.5275
又命	-11.5275
州刺史諡曰	-11.5275
國之政	-11.5276
二十餘人	-11.5277
不佞	-11.5278
興國	-11.5278
之權	-11.5279
蘇威	-11.528
鼓譟	-11.5281
也凡	-11.5283
明府	-11.5286
髙唐	-11.5288
乎若	-11.5288
俱死	-11.5288
楚伐	-11.5288
孝文帝	-11.529
桓𤣥	-11.5291
襲殺	-11.5293
牧犍	-11.5293
呉越	-11.5293
懐徳	-11.5294
子玉	-11.5294
乎今	-11.5294
大震	-11.5297
崇徳	-11.5297
姦人	-11.5299
始終	-11.5299
言于	-11.5299
補闕	-11.53
将以	-11.5302
有大功	-11.5304
五十二	-11.5304
孔甲	-11.5305
在所	-11.5306
一百二十	-11.5306
詔贈	-11.5307
髙氏	-11.5307
募兵	-11.5307
所行	-11.5309
機宻	-11.5309
右賢王	-11.5311
而為之	-11.5312
四方之	-11.5312
舜之	-11.5313
伯爵	-11.5317
譙王	-11.5317
乞降	-11.5318
於家	-11.5318
白鹿	-11.5318
於野	-11.5319
一州	-11.5319
丞相御史	-11.532
為尚書郎	-11.5321
六嵗	-11.5322
齊宣王	-11.5323
來救	-11.5324
一星	-11.5324
儒林	-11.5324
民也	-11.5325
自餘	-11.5326
今又	-11.5327
閼	-11.5328
元舊一	-11.5329
雅有	-11.533
所知也	-11.533
乃發	-11.5331
相連	-11.5331
轉相	-11.5332
馬超	-11.5332
嬰兒	-11.5334
治中	-11.5334
若無	-11.5336
乃知	-11.5338
九真	-11.5342
安人	-11.5345
文皇帝	-11.5346
無疑	-11.5348
者故	-11.5348
氏焉	-11.5351
永樂中	-11.5353
稱㫖	-11.5353
五十四	-11.5354
要離	-11.5355
將中軍	-11.5357
隠居	-11.5357
皇統	-11.5358
千斛	-11.5358
遂得	-11.5358
出外	-11.5359
何也對曰	-11.5363
其尸	-11.5365
而不用	-11.5367
有意	-11.5367
不亡	-11.5368
以順	-11.537
天皇	-11.537
不存	-11.5371
修撰	-11.5372
行宫	-11.5372
國學	-11.5372
教民	-11.5372
一物	-11.5373
官名	-11.5374
蔡州	-11.5375
食盡	-11.5377
分散	-11.5378
母憂	-11.5378
吁	-11.5379
公家	-11.538
無赦	-11.5381
日益	-11.5381
部分	-11.5383
守道	-11.5383
韓氏	-11.5384
亰	-11.5386
紞	-11.5386
罽	-11.5388
手自	-11.539
摩訶	-11.5391
舶	-11.5391
褘	-11.5391
伐齊齊	-11.5392
唾	-11.5392
妺	-11.5393
陬	-11.5393
涯	-11.5393
既有	-11.5394
藹	-11.5394
鄶	-11.5395
鋪	-11.5395
峭	-11.5396
檀道濟	-11.5397
噫	-11.5397
樞宻院	-11.5397
扣	-11.5397
噪	-11.5397
進爵為侯	-11.5397
大澤	-11.5397
阨	-11.5398
聃	-11.5398
大名府	-11.5398
紛紜	-11.5399
粱	-11.5399
媾	-11.5399
闞	-11.54
非法	-11.5401
洒	-11.5401
金國	-11.5402
襲之	-11.5403
柬	-11.5404
季孫行父	-11.5405
江湖	-11.5405
已至	-11.5406
之為人	-11.5408
大單于	-11.5409
善長	-11.5409
右師	-11.541
莵	-11.541
亳州	-11.541
齊髙帝	-11.5411
以保	-11.5412
文彦博	-11.5413
立子	-11.5413
率歩騎	-11.5413
四尺	-11.5413
縗	-11.5414
魏國	-11.5414
南廵	-11.5415
走入	-11.5416
奚齊	-11.5416
移檄	-11.5417
明君	-11.5418
在周	-11.5418
牽牛	-11.5418
督撫	-11.5421
重任	-11.5422
氐羌	-11.5423
帝每	-11.5424
漢人	-11.5425
使天下	-11.5427
凡諸	-11.5431
常州	-11.5435
夜遁	-11.5436
不察	-11.5438
安東	-11.5438
其用	-11.544
留中	-11.5441
帥師伐	-11.5441
公孫僑	-11.5441
不發	-11.5444
郭云	-11.5445
楚懐王	-11.5446
及還	-11.5446
既出	-11.5448
之孫也	-11.5448
八日	-11.545
遂斬	-11.545
所造	-11.5451
圍我	-11.5451
小心	-11.5452
惟庸	-11.5452
府州	-11.5454
安知	-11.5455
奮擊	-11.5457
止於	-11.5458
文華	-11.5459
兵勢	-11.546
十八里	-11.5462
齊魏	-11.5462
母喪	-11.5462
行軍	-11.5463
度量	-11.5463
祿山	-11.5464
虞舜	-11.5465
于人	-11.5467
長史司馬	-11.5467
太祖太祖	-11.5468
髙士	-11.5468
子産曰	-11.5469
而遁	-11.547
治也	-11.5473
四十萬	-11.5473
姓氏	-11.5474
中京	-11.5476
之至也	-11.5476
五部	-11.5477
丈餘	-11.548
豈以	-11.5482
無由	-11.5482
東郡太守	-11.5482
千古	-11.5482
水上	-11.5483
子敬	-11.5485
景初	-11.5485
山戎	-11.5486
對䇿	-11.549
有是	-11.549
為揚州刺史	-11.549
子游	-11.5492
百石	-11.5493
入殿	-11.5493
士之	-11.5495
上幸	-11.5495
祖考	-11.5498
眀元	-11.5499
爵一級	-11.55
破其	-11.55
水西	-11.5501
渊	-11.5501
七尺	-11.5501
辱之	-11.5503
也然則	-11.5503
春夏	-11.5504
外孫	-11.5504
厯數	-11.5505
肅侯	-11.5505
賦以	-11.5506
為參軍	-11.5506
斷絶	-11.5507
征東	-11.5509
世稱	-11.5511
臨事	-11.5513
權勢	-11.5513
假道	-11.5515
右諫議大夫	-11.5515
經年	-11.5516
嘉平	-11.5516
有成	-11.5517
裔孫	-11.5518
稼穡	-11.5518
崑崙	-11.5518
偵	-11.5519
㴱	-11.5522
繚	-11.5522
荅曰	-11.5522
潢	-11.5522
晉公䕶	-11.5522
自剄	-11.5523
肄	-11.5523
嵬	-11.5524
位特進	-11.5524
匈	-11.5524
㒺	-11.5525
韋孝寛	-11.5525
鈐轄	-11.5526
舊章	-11.5526
江寧	-11.5526
橫	-11.5526
淨	-11.5527
殫	-11.5528
在家	-11.5528
匕	-11.5528
盡矣	-11.5529
尺寸	-11.5529
平昌	-11.553
棧	-11.553
繻	-11.553
師敗	-11.553
自焚	-11.5531
騑	-11.5532
二弟	-11.5532
不知所為	-11.5534
猜忌	-11.5534
孝悌	-11.5534
終不能	-11.5534
叛逆	-11.5535
流沙	-11.5535
伐燕	-11.5536
絢	-11.5536
入㓂	-11.5537
魯魯	-11.5537
平子	-11.5537
連山	-11.5538
火燒	-11.5538
承聖	-11.554
浮屠	-11.5542
相秦	-11.5544
殷浩	-11.5545
六宫	-11.5546
步騎	-11.5547
甘露降	-11.5547
元宗	-11.5548
殿門	-11.5548
熙寧	-11.5551
劉牢之	-11.5552
弑之	-11.5552
兵少	-11.5553
已破	-11.5556
天順中	-11.5559
正旦	-11.556
乾侯	-11.556
僧孺	-11.5561
疑焉	-11.5561
司馬遷	-11.5561
申屠	-11.5561
也雖然	-11.5562
窮困	-11.5563
為己	-11.5569
事敗	-11.557
出門	-11.5576
和之	-11.5576
慶厯	-11.5577
非敢	-11.5578
東城	-11.5579
元年正月	-11.5579
詔不許	-11.558
未有不	-11.5582
副都御史	-11.5585
不釋	-11.5586
任職	-11.5587
好讀書	-11.5587
徴還	-11.5587
不厭	-11.5587
前日	-11.5587
便冝	-11.5588
邵陵王	-11.5588
良玉	-11.5591
之主也	-11.5594
兖豫	-11.5595
太子建	-11.5595
書院	-11.5598
為郎中	-11.5601
所服	-11.5601
元皇帝	-11.5602
率諸侯	-11.5603
討破之	-11.5603
為務	-11.5605
昌意	-11.5606
都監	-11.5607
河東太守	-11.5609
後數日	-11.561
流星	-11.561
不榖	-11.5612
僧珍	-11.5612
遣還	-11.5613
經籍	-11.5613
雅好	-11.5614
臨晉	-11.5616
計吏	-11.5617
女真	-11.5618
之來	-11.562
訛言	-11.562
章奏	-11.562
之㫖	-11.5622
王浚	-11.5624
順陽	-11.5625
楚靈王	-11.5629
能言	-11.563
晏然	-11.5632
于前	-11.5633
隂平	-11.5634
子姪	-11.5635
欲反	-11.5635
出補	-11.5636
安逺	-11.5636
兵士	-11.5636
于魏	-11.5637
四縣	-11.5639
韃靼	-11.564
九世	-11.5641
河南王	-11.5642
葱	-11.5645
也陛下	-11.5648
小學	-11.5649
潼關	-11.5649
二丈	-11.565
枹罕	-11.5652
擯	-11.5652
諌官	-11.5652
沼	-11.5653
與漢	-11.5653
宕昌	-11.5653
之策	-11.5654
逡廵	-11.5654
五十萬	-11.5654
舸	-11.5655
上方	-11.5655
脊	-11.5655
疽	-11.5657
瀘	-11.5657
蓐	-11.5658
虬	-11.5658
泝	-11.5659
頰	-11.5659
怏怏	-11.566
鎮軍將軍	-11.5661
咽	-11.5661
丁夘	-11.5662
元起	-11.5662
詔下	-11.5662
秘書監	-11.5663
靚	-11.5663
翰林院	-11.5664
貴嬪	-11.5665
舉茂才	-11.5665
兵車	-11.5669
負芻	-11.5669
未央宫	-11.5669
督諸軍	-11.5671
數百萬	-11.5673
朱异	-11.5673
尸子	-11.5673
友徳	-11.5673
彊弩	-11.5674
師中	-11.5675
在任	-11.5676
孟津	-11.568
從攻	-11.5681
其學	-11.5681
也又曰	-11.5681
人臣之	-11.5682
延熙	-11.5682
諸蠻	-11.5683
稍稍	-11.5684
不振	-11.5685
萬疋	-11.5686
惟陛下	-11.5688
遠近	-11.5688
妖言	-11.5688
生平	-11.5689
搃兵	-11.569
未安	-11.569
江海	-11.5691
水經	-11.5693
深自	-11.5693
仙人	-11.5695
自居	-11.5699
南徐州刺史	-11.5702
乃罷	-11.5703
僚屬	-11.5705
爵禄	-11.5707
而殺	-11.5707
無足	-11.5708
山河	-11.5712
宣言	-11.5712
良馬	-11.5713
呼之	-11.5713
立碑	-11.5713
西上	-11.5715
能得	-11.5715
遂止	-11.5717
向戍	-11.5718
尤善	-11.5719
族人	-11.5721
時天下	-11.5721
其術	-11.5721
我何	-11.5723
張永	-11.5724
也孔子曰	-11.5726
為先	-11.5727
上洛	-11.573
遂以為	-11.573
覆之	-11.5732
六寸	-11.5732
欲相	-11.5733
萬斛	-11.5734
以手	-11.5735
其半	-11.5735
雖小	-11.5735
釐公	-11.5737
大官	-11.5738
禍亂	-11.5739
發喪	-11.574
潁川太守	-11.574
元成	-11.5744
太夫人	-11.5744
為太常	-11.5745
慈母	-11.5745
蘇州	-11.5745
無成	-11.5746
齊將	-11.5746
使持節都督	-11.5748
伯益	-11.5749
惠文王	-11.5749
▁又	-11.5751
近侍	-11.5752
今已	-11.5752
子胥曰	-11.5752
車載	-11.5753
校書	-11.5754
公怒	-11.5754
甚急	-11.5754
多士	-11.5756
曰予	-11.5757
如意	-11.5762
之戒	-11.5763
無别	-11.5763
近世	-11.5764
鄧州	-11.5764
▁宗	-11.5764
慶歴	-11.5765
雨水	-11.5765
子輿	-11.5767
皇祖	-11.5767
詩説	-11.5772
為副	-11.5773
凡四	-11.5774
慮其	-11.5774
不移	-11.5776
初即位	-11.5777
風儀	-11.5777
生死	-11.5777
南渡	-11.5778
韓非	-11.5779
豈惟	-11.578
東向	-11.578
罪當	-11.578
廕一子	-11.5781
簡易	-11.5782
乾坤	-11.5784
瓶	-11.5784
金墉	-11.5784
脇	-11.5784
郟	-11.5784
斧鉞	-11.5785
紱	-11.5786
貙	-11.5786
闊	-11.5787
悚	-11.5787
唐貞觀	-11.5787
吕夷簡	-11.5787
覿	-11.5788
㲄	-11.5788
塊	-11.5789
隳	-11.579
舄	-11.579
鎖	-11.5791
洛水	-11.5791
啣	-11.5791
相拒	-11.5791
紓	-11.5792
聳	-11.5793
當陽	-11.5793
景伯	-11.5793
為業	-11.5793
珉	-11.5794
臠	-11.5794
薫	-11.5796
獄吏	-11.5796
侯景之亂	-11.5796
祠祀	-11.5798
北燕	-11.5799
官兵	-11.58
絰	-11.58
佩刀	-11.5801
自云	-11.5801
魯昭公	-11.5802
帝王世紀	-11.5802
追思	-11.5802
作逆	-11.5803
張方	-11.5803
存之	-11.5805
桂林	-11.5805
晏駕	-11.5806
邾人	-11.5807
各以其	-11.5807
假借	-11.5808
賊至	-11.5809
侯安都	-11.5812
御正	-11.5812
驕恣	-11.5813
三命	-11.5814
全斌	-11.5814
世務	-11.5814
尚存	-11.5814
當其	-11.5815
職官	-11.5815
晉王廣	-11.5816
文集	-11.5817
數里	-11.5818
而棄之	-11.5818
楊駿	-11.5819
虞夏	-11.582
辭讓	-11.582
南平王	-11.5823
夫以	-11.5824
狄人	-11.5827
王者之	-11.583
二也	-11.583
禪位	-11.5833
正平	-11.5834
河内太守	-11.5834
兩人	-11.5835
家口	-11.5837
令天下	-11.5838
仍以	-11.5839
所不能	-11.584
入境	-11.584
遂立	-11.584
上遣	-11.584
請行	-11.5842
延陵	-11.5843
梁陳	-11.5846
春秋之義	-11.5847
有司請	-11.5848
不奪	-11.5849
謀欲	-11.585
少以	-11.5852
贖罪	-11.5854
甚見	-11.5856
竊聞	-11.5859
書籍	-11.5862
招集	-11.5862
首陽	-11.5863
水灌	-11.5865
行矣	-11.5865
分道	-11.5868
二年正月	-11.5869
西陽	-11.5869
梁益	-11.587
蜀郡太守	-11.5871
髙廟	-11.5872
天祐	-11.5872
而後可	-11.5875
大恐	-11.5876
室韋	-11.5877
司馬昭	-11.5881
孝昌	-11.5883
既誅	-11.5886
乃拜	-11.5886
流水	-11.5887
三載	-11.5888
其鋒	-11.589
郡兵	-11.5894
反正	-11.5898
娛	-11.5899
論之	-11.5899
每嵗	-11.5902
嘗從	-11.5902
南徐州	-11.5903
乃見	-11.5904
永平中	-11.5905
大駭	-11.5906
七國	-11.5907
預云	-11.5908
孝文皇帝	-11.5908
在京	-11.5909
申叔	-11.591
誤也	-11.5911
所忌	-11.5912
軍政	-11.5913
八九	-11.5913
齊湣王	-11.5913
九百	-11.5918
叶	-11.5918
喧	-11.5919
管仲對曰	-11.5919
澧	-11.592
延昌	-11.592
欲廢	-11.5921
低	-11.5922
猴	-11.5922
雛	-11.5922
熊廷弼	-11.5923
溷	-11.5923
乍	-11.5924
酆	-11.5924
本州	-11.5924
直集賢院	-11.5925
􁃽	-11.5925
耄	-11.5925
卿相	-11.5925
舉孝廉	-11.5926
磁	-11.5926
井田	-11.5926
再拜稽首	-11.5926
廣陵王	-11.5927
鄊	-11.5927
四字	-11.5927
君臣之	-11.5927
鵝	-11.5928
僵	-11.593
𠂻	-11.593
以取	-11.5931
翌日	-11.5931
夷三族	-11.5931
射聲校尉	-11.5932
翅	-11.5932
留後	-11.5932
元年春	-11.5933
而絶	-11.5934
班劒	-11.5934
歩兵	-11.5935
書闕	-11.5935
右正言	-11.5936
九疇	-11.5937
其前	-11.5937
二百餘	-11.5937
榆林	-11.5938
因事	-11.5938
不可勝計	-11.5939
晉使	-11.594
鍾繇	-11.5941
青苗	-11.5942
竊見	-11.5943
南城	-11.5943
武皇帝	-11.5945
聚歛	-11.5945
蒼頭	-11.5946
直道	-11.5946
變化	-11.5947
進忠	-11.5947
隂陽之	-11.5947
五尺	-11.5947
貞元	-11.5948
七歲	-11.5949
仁夀	-11.5951
難得	-11.5954
亞夫	-11.5955
其父母	-11.5955
歸順	-11.5957
左衛將軍	-11.5958
汝南太守	-11.5959
蘇子曰	-11.5959
慧景	-11.5961
方士	-11.5962
國内	-11.5964
林甫	-11.5967
舂陵	-11.5968
知己	-11.5969
謂曰卿	-11.597
昭成	-11.597
無咎	-11.5971
非我	-11.5972
長老	-11.5973
太孫	-11.5974
宫内	-11.5976
左馮翊	-11.5981
從政	-11.5986
尚主	-11.5991
乃率	-11.5994
失望	-11.5995
亦不能	-11.5996
出境	-11.5998
自代	-11.5999
器也	-11.5999
又知	-11.6004
此四	-11.6004
沈尹	-11.6006
自得	-11.6006
萬九千	-11.6008
四嵗	-11.601
伊吾	-11.6014
冬月	-11.6015
諸家	-11.6016
走馬	-11.6018
八尺	-11.6018
召忽	-11.602
安息	-11.602
又多	-11.6021
下軍	-11.6021
升平	-11.6021
使相	-11.6023
入河	-11.6024
諫者	-11.6027
二星	-11.6029
為中軍	-11.603
屈建	-11.603
虞帝	-11.6031
潭州	-11.6032
貴重	-11.6032
錦衣衛	-11.6032
子琮	-11.6035
誅戮	-11.6035
諸樊	-11.6035
何異	-11.6038
喻之	-11.6039
北虜	-11.6042
物情	-11.6043
前事	-11.6044
多故	-11.6046
而返	-11.6047
為功曹	-11.6048
斷獄	-11.6049
散官	-11.605
寛和	-11.6051
煦	-11.6051
瀕	-11.6053
其害	-11.6053
碭	-11.6054
兼領	-11.6056
武衛	-11.6056
所好	-11.6057
郍	-11.6058
福州	-11.6058
幄	-11.6058
未決	-11.6058
夫人生	-11.6059
擴	-11.6059
眠	-11.6059
六品	-11.6059
浣	-11.6059
澮	-11.606
僥倖	-11.6061
謀逆	-11.6061
枳	-11.6062
隻	-11.6062
順流	-11.6062
於京師	-11.6063
五官中郎將	-11.6063
狃	-11.6063
貉	-11.6064
三歲	-11.6064
湏臾	-11.6064
此類	-11.6064
萬三千	-11.6065
翩	-11.6065
拍	-11.6065
無徳	-11.6066
喉	-11.6068
郅	-11.6069
必大	-11.6069
沈慶之	-11.607
鎮南將軍	-11.607
公宫	-11.607
蟻	-11.6072
曰此非	-11.6072
西門豹	-11.6073
伍員	-11.6074
以象	-11.6077
沙苑	-11.608
伊闕	-11.608
為詩	-11.6084
元末	-11.6084
亦宜	-11.6085
大掠	-11.6085
創業	-11.6085
又聞	-11.6087
後患	-11.6087
石氏	-11.6087
鄂侯	-11.6088
霸先	-11.6089
詩有	-11.6089
門徒	-11.609
敗楚	-11.6092
雖未	-11.6094
有虞	-11.6095
八寸	-11.6095
境上	-11.6098
不返	-11.6099
乎王曰	-11.61
張郃	-11.61
熈宗	-11.61
東土	-11.6102
鍾山	-11.6103
可畏	-11.6104
皆用	-11.6105
諡文	-11.6105
東昬	-11.6105
文武之	-11.6105
轉輸	-11.6106
神龍	-11.6107
敢問	-11.6107
為齊王	-11.6108
答之	-11.6108
教以	-11.6109
七品	-11.6112
為使持節	-11.6113
贊曰	-11.6114
云黄帝	-11.6115
當塗	-11.6116
文詞	-11.6116
諸臣傳	-11.6116
憲王	-11.6116
大矣	-11.6119
力士	-11.6119
眀日	-11.612
平陸	-11.612
永康	-11.6121
日暮	-11.6122
便殿	-11.6122
常山王	-11.6123
原作	-11.6123
射獵	-11.6123
太子太師	-11.6126
乃下詔	-11.6128
義軍	-11.6133
與民	-11.6135
在側	-11.6135
建義	-11.6138
所掠	-11.6138
涿州	-11.614
一十	-11.614
于秦秦	-11.6141
副将軍	-11.6142
六縣	-11.6142
識其	-11.6142
刑名	-11.6146
非徒	-11.6146
為太宰	-11.6148
端門	-11.6148
仕郡	-11.6149
去年	-11.6149
失禮	-11.615
太牢	-11.6151
以益	-11.6151
大尹	-11.6152
財貨	-11.6153
累年	-11.6153
後因	-11.6153
盧龍	-11.6155
賂遺	-11.6156
送京師	-11.6156
畏服	-11.6157
今作	-11.6157
諸大臣	-11.6159
為太保	-11.616
之口	-11.6161
漢祖	-11.6161
守將	-11.6161
以補	-11.6161
張飛	-11.6162
吏部郎中	-11.6163
歸命	-11.6163
今我	-11.6163
文昌	-11.6165
相隨	-11.6166
將殺	-11.6166
軍資	-11.6168
不圖	-11.6168
力争	-11.617
厯代	-11.6172
漢水	-11.6173
領䕶	-11.6173
丞相府	-11.6174
賢才	-11.6175
亦能	-11.6175
山之陽	-11.6176
切諫	-11.6178
親政	-11.6178
反者	-11.6179
將戰	-11.618
糧盡	-11.618
漢唐	-11.6181
安用	-11.6182
平仲	-11.6184
曲直	-11.6186
舉止	-11.6186
太簇	-11.6187
州主簿	-11.6188
政府	-11.6188
陽生	-11.6189
三鎮	-11.6189
彊秦	-11.619
龍虎	-11.6191
不得立	-11.6194
上大夫	-11.6195
力不能	-11.6195
其色	-11.6196
土官	-11.6196
潦	-11.6196
堞	-11.6196
洧	-11.6197
人也其先	-11.6197
婆羅門	-11.6198
一室	-11.6198
賍	-11.6198
乹	-11.6199
森	-11.6199
何患	-11.6199
世俗	-11.62
不思	-11.62
漳水	-11.62
邾子	-11.62
榖梁	-11.62
棊	-11.6201
固已	-11.6201
如今	-11.6202
申包胥	-11.6202
克明	-11.6203
無乃不可乎	-11.6203
憫	-11.6203
晡	-11.6204
哨	-11.6204
髙祖受禪	-11.6204
清儉	-11.6204
仞	-11.6204
彖	-11.6205
匝	-11.6205
湜	-11.6206
罪之	-11.6206
件	-11.6206
笥	-11.6206
越王句踐	-11.6207
梨	-11.6207
椁	-11.6208
間行	-11.6208
居外	-11.6208
扁	-11.6209
廷議	-11.6209
盲	-11.621
叛者	-11.621
㑹試	-11.6211
于衛	-11.6212
詔復	-11.6212
如周	-11.6212
華林	-11.6213
故城在	-11.6214
㔻	-11.6217
發病	-11.622
東行	-11.6222
梁氏	-11.6225
虎牙	-11.6226
亦欲	-11.6228
佛寺	-11.6229
自刎	-11.6229
固執	-11.623
太后崩	-11.6232
滋甚	-11.6232
寡欲	-11.6232
辭不受	-11.6233
延綏	-11.6234
今日之	-11.6234
天神	-11.6234
哀姜	-11.6235
閣部	-11.6235
三篇	-11.6236
縱火	-11.6237
出獵	-11.6237
有力焉	-11.6238
以寛	-11.6238
亦猶	-11.6239
娶于	-11.624
陳王	-11.6241
天章閣待制	-11.6242
宣太后	-11.6243
武帝即位	-11.6244
起而	-11.6245
開封府	-11.6247
仁恕	-11.6247
倍之	-11.6247
荀卿	-11.6251
四十四年	-11.6251
太宗即位	-11.6252
息民	-11.6253
録尚書	-11.6254
惑之	-11.6254
鼓之	-11.6255
復起	-11.6256
田獵	-11.6257
國書	-11.6257
渠帥	-11.6258
廣平王	-11.6258
復位	-11.6259
名之曰	-11.6262
七寸	-11.6264
藩鎮	-11.6264
重黎	-11.6264
太守王	-11.6266
薛公	-11.6266
國朝	-11.6267
罵曰	-11.6269
者今	-11.6269
吾言	-11.627
閨門	-11.627
與之言	-11.6275
安仁	-11.6275
又自	-11.6275
聚兵	-11.6276
而不言	-11.6276
改葬	-11.6277
少監	-11.6278
五十人	-11.6278
還復	-11.628
魯大夫	-11.6281
贈太尉	-11.6282
游道	-11.6285
金寳	-11.6287
中軍將軍	-11.6287
不茍	-11.6288
縣吏	-11.6289
不遺	-11.6292
如有	-11.6293
秦將	-11.6295
有加	-11.6296
其說	-11.6297
著名	-11.6297
救趙	-11.6298
乃解	-11.63
三丈	-11.63
練兵	-11.6305
二年春二月	-11.6308
數四	-11.6308
馮異	-11.6309
侍衛	-11.631
文臣	-11.6311
儉素	-11.6312
後徙	-11.6313
單馬	-11.6315
此謂	-11.6315
州鎮	-11.6319
列在	-11.6319
宗廟之	-11.6321
徳裕	-11.6323
薨時年	-11.6326
父祖	-11.633
濳	-11.6331
上嘗	-11.6331
上古	-11.6331
乾徳	-11.6331
亦見	-11.6333
附郭元舊	-11.6334
興化	-11.6334
外祖	-11.6336
扆	-11.6336
曰不如	-11.6337
本意	-11.6337
不得進	-11.6338
兌	-11.6339
楫	-11.6339
㥄	-11.634
衮冕	-11.634
王珪	-11.6341
食禄	-11.6341
鴦	-11.6342
其姦	-11.6342
成都王頴	-11.6343
乘之	-11.6344
岑彭	-11.6344
液	-11.6346
廵檢	-11.6347
江夏王	-11.6348
覔	-11.6348
賊首	-11.6348
端拱	-11.6348
裸	-11.6348
盱	-11.6349
鷹揚	-11.6349
隋志	-11.635
也今君	-11.6352
之期	-11.6353
于庭	-11.6354
與宋	-11.6354
蒨	-11.6354
斑	-11.6355
廉頗	-11.6356
棨	-11.6357
救我	-11.6357
原官	-11.6358
吳子	-11.6358
闗西	-11.636
以觀其	-11.6361
忠直	-11.6361
萇𢎞	-11.6361
喪父	-11.6363
彊兵	-11.6364
尋加	-11.6365
將亡	-11.6365
十九卷	-11.6365
范中行氏	-11.6365
故舊	-11.6365
萬安	-11.6368
刀筆	-11.6369
屬籍	-11.6373
好施	-11.6373
欲復	-11.6374
攻戰	-11.6378
藥師	-11.638
一經	-11.6382
有古	-11.6382
及弟	-11.6382
為先鋒	-11.6383
淮泗	-11.6383
慕之	-11.6384
相齊	-11.6385
無疆	-11.6385
石為	-11.6385
不失其	-11.639
人家	-11.639
自縊	-11.6392
遣使來	-11.6392
赧王	-11.6393
文子曰	-11.6396
捕得	-11.6399
權重	-11.64
貴臣	-11.6401
宗社	-11.6402
堯佐	-11.6406
語及	-11.6407
每一	-11.6409
亦在	-11.6409
郎將	-11.641
傅太后	-11.641
善言	-11.6411
受學	-11.6414
日月之	-11.6414
不敢進	-11.6415
莫大於	-11.6416
曰大王	-11.6417
奉行	-11.6417
云此	-11.6417
安慶	-11.6418
犬馬	-11.642
数萬	-11.642
酒色	-11.6421
原任	-11.6424
辟之	-11.6426
乃定	-11.6427
者固	-11.6427
以其子	-11.6429
家臣	-11.6433
出迎	-11.6433
賊賊	-11.6437
供給	-11.6438
嫁娶	-11.6438
南岸	-11.6438
不可知	-11.6439
雹	-11.6441
不爲	-11.6443
相近	-11.6444
太祖征	-11.6445
伏見	-11.6446
未行	-11.6446
得罪於	-11.6448
羣后	-11.6451
行營	-11.6451
通州	-11.6452
直入	-11.6458
無錫	-11.6458
獻皇后	-11.6459
單父	-11.646
有命	-11.6462
継光	-11.6464
仲逺	-11.6466
等撰	-11.6468
㐮陽	-11.6469
夏至	-11.6472
天柱	-11.6474
幸而	-11.6474
惡也	-11.6476
擒之	-11.6477
㓜而	-11.6479
國公謚	-11.648
璨	-11.6483
㓙	-11.6484
蹻	-11.6484
隂謀	-11.6485
學業	-11.6485
賢能	-11.6485
曰此兒	-11.6485
服御	-11.6486
湊	-11.6486
荀林父	-11.6486
鄀	-11.6486
砂	-11.6487
子羽	-11.6488
輔國将軍	-11.6488
正聲	-11.6488
皋	-11.6488
土人	-11.6488
鶴鳴	-11.6488
富民	-11.6488
人相食	-11.649
䝉恬	-11.649
以刀	-11.6491
洛州刺史	-11.6491
故謂之	-11.6492
蜜	-11.6492
畧曰	-11.6493
百揆	-11.6494
入塞	-11.6494
勳	-11.6494
科道	-11.6496
經三卷	-11.6496
劉淵	-11.6496
質直	-11.6497
何氏	-11.6497
後母	-11.6498
具言	-11.6498
不能守	-11.6499
唐武徳	-11.6501
四十人	-11.6502
右北平	-11.6503
山北	-11.6504
縣界	-11.6505
乃免	-11.6506
多難	-11.6506
野人	-11.6506
奉世	-11.6508
擊走之	-11.6509
官渡	-11.651
環慶	-11.651
文仲	-11.6513
計事	-11.6513
部將	-11.6513
不決	-11.6514
髙陵	-11.6516
京東	-11.6516
仍令	-11.6518
列國	-11.6518
縣東南	-11.6518
漁父	-11.6519
献忠	-11.6521
武衛將軍	-11.6522
記三卷	-11.6523
救宋	-11.6523
物故	-11.6524
一分	-11.6525
録事	-11.6526
無恤	-11.6527
或為	-11.6529
何則	-11.6529
不可得也	-11.6529
慈聖	-11.653
侍坐	-11.653
相州刺史	-11.6534
七星	-11.6534
王安	-11.6534
賦役	-11.6535
孔丘	-11.6536
凡二十	-11.6536
當得	-11.6537
名振	-11.6538
數言	-11.6539
此之謂也	-11.654
觀望	-11.654
獨無	-11.654
孝慈	-11.6541
賢臣	-11.6542
芒山	-11.6543
法駕	-11.6544
高平	-11.6545
來獻	-11.6546
去而	-11.6546
二千里	-11.6546
一女	-11.6548
南道	-11.6549
冠服	-11.655
承業	-11.6551
諸夏	-11.6551
符命	-11.6552
逺者	-11.6554
相似	-11.6554
凡五	-11.6554
親族	-11.6555
景明	-11.6558
擊賊	-11.6558
東有	-11.6559
其咎	-11.656
其令	-11.656
說之	-11.6561
公曰寡人	-11.6564
爲人	-11.6564
成徳	-11.6564
吾何	-11.6568
則吾	-11.657
隔絶	-11.6572
荆揚	-11.6574
外傳	-11.6576
其樂	-11.6576
其墓	-11.6577
王晏	-11.6577
将帥	-11.6579
入室	-11.6579
陸終	-11.6581
伯姬	-11.6583
夜郎	-11.6583
之俗	-11.6584
已成	-11.6585
紫宫	-11.6585
舞陽	-11.6586
無親	-11.6586
盡誅	-11.6589
偃師	-11.659
遷尚書	-11.6592
黷	-11.6594
不得已而	-11.6597
永眀	-11.6598
諫大夫	-11.6598
甚重	-11.6602
又以為	-11.6603
議以為	-11.6605
已久	-11.6607
遂不復	-11.6607
王子朝	-11.6607
代州	-11.6609
智勇	-11.6609
北道	-11.6612
之例	-11.6613
援兵	-11.6614
田嬰	-11.6614
秦國	-11.6614
乃入	-11.6615
讜	-11.6617
帝召	-11.6618
永為	-11.6619
淮水	-11.6622
喟然	-11.6622
黶	-11.6624
盥	-11.6626
偁	-11.6626
埒	-11.6627
晁	-11.6629
其背	-11.6629
斜谷	-11.6629
坼	-11.6629
江隂	-11.663
長興	-11.663
緇	-11.6631
愛子	-11.6633
惋	-11.6633
褊	-11.6633
三苗	-11.6634
榛	-11.6634
悉令	-11.6635
𣙜	-11.6635
恩禮	-11.6635
中夜	-11.6636
酖	-11.6636
樗	-11.6637
不亦難乎	-11.6637
因是	-11.6637
遣使貢獻	-11.6638
迴	-11.6638
不著	-11.6639
叔孫豹	-11.664
未之有也	-11.6644
周公旦	-11.6644
廟碑	-11.6645
成吉思	-11.6646
自經	-11.6646
臧氏	-11.6646
和士開	-11.6646
經營	-11.6646
擢用	-11.6647
賦斂	-11.6647
莫大焉	-11.6647
須句	-11.6647
賦歛	-11.6648
左長史	-11.6648
浮海	-11.665
及楚平	-11.665
琴瑟	-11.665
得其人	-11.665
司理	-11.6655
傷人	-11.6656
居䘮	-11.6657
増邑	-11.6658
通于	-11.6658
既以	-11.6659
共事	-11.6661
太府	-11.6661
坐事免	-11.6661
乗車	-11.6662
次日	-11.6663
北狄	-11.6664
曹丕	-11.6668
五十卷	-11.6668
著於	-11.6669
從叔	-11.6669
井中	-11.667
大節	-11.6673
金吾	-11.6673
淵明	-11.6674
大略	-11.6675
而棄	-11.6675
舉奏	-11.6676
宣帝時	-11.6676
管蔡	-11.6677
候之	-11.6677
朝覲	-11.6679
山賊	-11.6679
百餘級	-11.668
王韶	-11.6684
之意也	-11.6686
無備	-11.6688
勿與	-11.6688
公碑	-11.6689
有戰功	-11.669
自裁	-11.669
驚曰	-11.669
蜀漢	-11.6693
佐吏	-11.6694
其他	-11.6698
宣徳中	-11.6699
康成	-11.67
其辭曰	-11.6702
致死	-11.6703
疾甚	-11.6703
改年	-11.6704
焉故	-11.6706
杜伯	-11.6707
恥之	-11.6707
陸機	-11.6708
太安	-11.6708
▁諌	-11.6708
魯連	-11.671
尊賢	-11.671
九州之	-11.6713
未見其	-11.6713
景㤗	-11.6715
殆盡	-11.6716
博物	-11.6717
不能救	-11.6718
乃封	-11.6719
孰能	-11.672
曲陽	-11.6721
賜爵闗内侯	-11.6721
衞君	-11.6724
相聚	-11.6725
曰嘻	-11.6725
武氏	-11.6725
分書	-11.6726
比年	-11.673
四十七	-11.6732
文㐮	-11.6733
廟號	-11.6733
固非	-11.6733
汲郡	-11.6735
㑹同	-11.6735
京官	-11.6736
不論	-11.6736
對之	-11.6738
義理	-11.6738
萬乘之	-11.6739
已得	-11.674
威重	-11.674
曹休	-11.6742
不審	-11.6743
遯甲	-11.6744
蔡叔	-11.6744
景穆	-11.6747
字次	-11.675
書言	-11.6753
嵗星	-11.6753
百餘日	-11.6753
部将	-11.6754
民事	-11.6756
奏免	-11.676
周武	-11.676
納王	-11.676
曰何故	-11.6762
伐莒	-11.6763
名儒	-11.6764
而崩	-11.6764
及聞	-11.6765
二城	-11.6766
眚	-11.6766
始知	-11.6767
劾之	-11.6767
悸	-11.6768
暁	-11.6769
張遼	-11.6769
延禧	-11.677
父喪	-11.6771
如流	-11.6772
翰林侍讀學士	-11.6772
厝	-11.6772
龍朔二年改	-11.6773
迦	-11.6773
门	-11.6773
畵	-11.6774
歷	-11.6774
買臣	-11.6775
命之曰	-11.6775
佟	-11.6776
躋	-11.6777
癘	-11.6778
舒嚕	-11.6779
宸濠	-11.678
聽事	-11.678
勾踐	-11.6781
㐮公	-11.6781
綘	-11.6782
鴨	-11.6782
質子	-11.6782
攄	-11.6782
祺	-11.6783
備禮	-11.6783
以彰	-11.6784
平原王	-11.6784
歔欷	-11.6785
琅琊	-11.6785
沽	-11.6785
䙝	-11.6785
狼狽	-11.6785
鎔	-11.6785
安成王	-11.6786
睹	-11.6786
袪	-11.6787
鎮東將軍	-11.6788
相接	-11.6788
孟明	-11.6788
信陵君	-11.679
宇文述	-11.679
褚淵	-11.679
大會	-11.6792
削籍	-11.6793
遂降	-11.6794
元象	-11.6794
但當	-11.6794
朞年	-11.6797
圖䜟	-11.6797
胡人	-11.6799
我死	-11.6799
北歸	-11.6799
踰月	-11.6801
忘其	-11.6802
東郊	-11.6802
説者	-11.6803
亂政	-11.6807
省中	-11.6808
子午	-11.6811
動静	-11.6812
母死	-11.6812
湖州	-11.6812
賜帛	-11.6813
上使	-11.6813
猛虎	-11.6814
嫡子	-11.6815
敎授	-11.6818
克用	-11.682
我師敗績	-11.6822
王爵	-11.6825
北中郎將	-11.6826
陽武	-11.683
諸梁	-11.683
上親	-11.6832
才人	-11.6834
管叔	-11.6834
而廢	-11.6835
感動	-11.6835
制置	-11.6839
遂取	-11.684
庭中	-11.6841
報國	-11.6842
中間	-11.6842
蔡澤	-11.6843
罷去	-11.6845
十七里	-11.6847
謂所親曰	-11.6847
無所得	-11.6847
仁壽	-11.6854
武元	-11.6854
危矣	-11.6855
子駟	-11.6856
語云	-11.6856
建文中	-11.6858
七百里	-11.6861
之責	-11.6861
唐李	-11.6863
鄧太后	-11.6864
水草	-11.6866
共和	-11.6866
布政	-11.6866
吕梁	-11.6866
用心	-11.6867
謂我	-11.6867
諡曰宣	-11.6867
道周	-11.6873
極論	-11.6873
神州	-11.6875
願君	-11.6875
延安	-11.6876
百數	-11.6877
子雲	-11.6877
妻張氏	-11.6878
偽為	-11.6878
等各	-11.6879
專政	-11.688
不還	-11.6881
因與	-11.6883
而不見	-11.6884
舉手	-11.6885
兵器	-11.6887
志氣	-11.689
不敢復	-11.6896
憲章	-11.6896
懐逺	-11.6896
孥	-11.6897
譙周	-11.6898
僑如	-11.6899
永定	-11.6899
必危	-11.6899
㮚	-11.69
子仲	-11.6902
死焉	-11.6902
囚徒	-11.6904
諍	-11.6905
寺人	-11.6908
以進士	-11.6909
罷歸	-11.6911
來伐	-11.6911
見親	-11.6913
寛仁	-11.6913
靺鞨	-11.6914
自齊	-11.6915
生男	-11.6917
稿	-11.6917
猿	-11.6918
戡	-11.6918
冒頓	-11.6919
瘁	-11.6919
獨立	-11.6919
不收	-11.6919
韙	-11.6922
兢	-11.6923
圜丘	-11.6923
前人	-11.6924
稟	-11.6924
癸夘	-11.6924
辭焉	-11.6925
為丹陽尹	-11.6925
柟	-11.6925
瞋目	-11.6925
朶	-11.6925
不悅	-11.6926
屐	-11.6926
何面目	-11.6926
弱而	-11.6926
戩	-11.6927
諸夷	-11.6927
跌	-11.6927
夜夢	-11.6928
百斤	-11.6928
出其不意	-11.6928
阻兵	-11.6928
鏜	-11.6929
䰟	-11.6929
薰	-11.693
黄祖	-11.693
為翰林學士	-11.6931
餼	-11.6931
養生	-11.6931
為之語曰	-11.6932
未遑	-11.6932
肺	-11.6932
鋤	-11.6932
臧否	-11.6932
彦之	-11.6933
惶恐	-11.6934
肉袒	-11.6934
清水	-11.6935
債	-11.6935
未决	-11.6935
鏘	-11.6935
超宗	-11.6937
之右	-11.6938
鏗	-11.6938
未有所	-11.6938
方欲	-11.6938
吕后	-11.6939
緱氏	-11.6939
莢	-11.694
解職	-11.694
竇融	-11.6941
自盡	-11.6941
自持	-11.6942
事親	-11.6942
浮橋	-11.6943
也昔者	-11.6945
請問	-11.6945
右扶風	-11.6946
殿中尚書	-11.6946
哉夫	-11.6947
一星在	-11.6948
白日	-11.6949
朝儀	-11.6951
軍留後	-11.6952
肅慎	-11.6954
右衛將軍	-11.6955
親賢	-11.6955
三傳	-11.6955
側目	-11.6955
暴風	-11.6955
郷里	-11.6957
名家	-11.6957
聼之	-11.6957
曰何謂也	-11.6959
揚州牧	-11.6962
齊宋	-11.6963
其材	-11.6964
其大夫	-11.6966
乃先	-11.6967
名器	-11.6968
于郊	-11.6969
貴盛	-11.697
兵亂	-11.6971
欲見	-11.6971
誦之	-11.6973
不堪命	-11.6973
欲先	-11.6975
赤烏	-11.6976
外黄	-11.6976
隂山	-11.6977
定十	-11.6979
黄道	-11.698
響應	-11.6981
遺命	-11.6984
者數十人	-11.6986
即令	-11.6987
櫟陽	-11.6991
宗憲	-11.6992
太微	-11.6992
歴數	-11.6992
有文才	-11.6994
忽然	-11.6994
天下大亂	-11.6994
連和	-11.6995
改作	-11.6995
夫餘	-11.6996
變易	-11.7
乞休	-11.7002
豈無	-11.7004
縣西	-11.7004
周師	-11.7004
六師	-11.7005
糧食	-11.7006
訟者	-11.7008
晉武帝	-11.701
歸義	-11.701
不競	-11.7013
又破	-11.7013
好色	-11.7014
以為常	-11.7014
右将軍	-11.7014
周文王	-11.7015
太學生	-11.7016
多事	-11.7017
建元元年	-11.702
配食	-11.7021
何無忌	-11.7023
不為也	-11.7023
象形	-11.7023
八音	-11.7024
至都	-11.7025
六十卷	-11.7025
守城	-11.7027
新豐	-11.7028
明詔	-11.7028
天統	-11.7029
五十六	-11.7029
來援	-11.7029
所著有	-11.7031
府司馬	-11.7032
六部	-11.7033
位侍中	-11.7038
二篇	-11.704
諸書	-11.704
倉庫	-11.7041
而問焉	-11.7042
皮氏	-11.7043
風角	-11.7044
曰何不	-11.7047
得脱	-11.7048
楊文	-11.7049
廣陽	-11.705
用度	-11.7054
公著	-11.7054
守正	-11.7055
奔命	-11.7056
任事	-11.7059
子房	-11.7059
伯禹	-11.7063
廨	-11.7067
俱有	-11.7069
玉門	-11.7069
蘇氏	-11.707
沴	-11.707
在長安	-11.7071
百歩	-11.7071
絺	-11.7072
東國	-11.7072
郡邑	-11.7072
仲雍	-11.7072
派	-11.7072
俚	-11.7073
告歸	-11.7074
攻䧟	-11.7074
於洛陽	-11.7075
怫	-11.7076
諌議大夫	-11.7077
刑部侍郎	-11.7077
集賢校理	-11.7077
急攻	-11.7078
脣	-11.7078
顧問	-11.7078
鄠	-11.7078
襦	-11.7079
坂	-11.7079
囉	-11.7079
袵	-11.708
古制	-11.708
湎	-11.708
荀彧	-11.708
臆	-11.7081
柘	-11.7081
逓	-11.7081
壑	-11.7081
徐羡之	-11.7082
稹	-11.7082
盃	-11.7082
羙人	-11.7083
圎	-11.7084
聾	-11.7085
公主拜駙馬都尉	-11.7085
有憂色	-11.7085
兵甲	-11.7085
穰苴	-11.7086
容貎	-11.7086
略陽	-11.7086
示天下	-11.7086
則不能	-11.7087
老成	-11.7087
命有司	-11.7087
孔安國	-11.7087
狠	-11.7089
文姜	-11.7089
導之	-11.709
一舉而	-11.709
蹇叔	-11.709
開皇初	-11.7091
甚美	-11.7091
華容	-11.7091
定策	-11.7091
河曲	-11.7092
狐偃	-11.7092
孟軻	-11.7092
勇也	-11.7093
雖復	-11.7094
所記	-11.7095
鋹	-11.7095
伊洛	-11.7097
合兵	-11.7098
十四里	-11.7098
北行	-11.7099
武闗	-11.71
孟昶	-11.71
忠武	-11.7102
常平	-11.7102
赤狄	-11.7102
長女	-11.7102
貢士	-11.7105
逆旅	-11.7109
之言也	-11.7111
不懌	-11.7112
樂器	-11.7112
河伯	-11.7116
兼侍讀	-11.7116
光祿	-11.7117
建武元年	-11.7119
南宋	-11.7119
西伐	-11.712
目録	-11.712
大雪	-11.7121
不能對	-11.7121
之願也	-11.7123
安撫使	-11.7123
譬如	-11.7123
不幸而	-11.7125
元义	-11.7127
放縱	-11.713
師古	-11.7131
餘慶	-11.7133
淮夷	-11.7133
欲取	-11.7136
傅亮	-11.7136
宫城	-11.7137
千數	-11.7138
建武初	-11.7139
白金	-11.7139
南陽人	-11.714
上音	-11.714
於斯	-11.7142
外人	-11.7143
不詳	-11.7143
入援	-11.7145
宋玉	-11.7145
遇赦	-11.7148
重慶	-11.7149
躬親	-11.7149
羣官	-11.7151
作書	-11.7153
登州	-11.7156
之月	-11.7158
又敗	-11.7158
周宣王	-11.7159
舉進士為	-11.716
始安	-11.716
永寕	-11.716
亦已	-11.716
三道	-11.7162
改姓	-11.7163
庸人	-11.7163
光殿	-11.7165
𤣥孫	-11.7165
士女	-11.7165
過禮	-11.7166
兩端	-11.7166
振武	-11.7167
于太廟	-11.7169
為誰	-11.7169
師次	-11.717
嘗言	-11.7171
動則	-11.7171
忠誠	-11.7172
益甚	-11.7173
北鄙	-11.7173
顯名	-11.7173
生靈	-11.7174
薨于	-11.7175
季連	-11.7175
西宫	-11.7177
襄州	-11.7178
松江	-11.7178
不預	-11.7179
自劾	-11.7179
屬焉	-11.7179
同産	-11.7181
莫知其	-11.7182
鎮將	-11.7183
以應之	-11.7184
有備	-11.7184
首虜	-11.7184
著稱	-11.7185
改鎮	-11.7188
北走	-11.719
助教	-11.7191
知之乎	-11.7193
臨賀	-11.7199
賜物	-11.72
講論	-11.7201
十一里	-11.7204
議之	-11.7205
魯肅	-11.7206
大夫皆	-11.7207
異焉	-11.7208
馬上	-11.7209
誰與	-11.721
遣弟	-11.721
仕進	-11.7213
諸陵	-11.7215
盛衰	-11.7216
西曹	-11.7218
兊	-11.7218
恩寵	-11.7219
皆當	-11.722
黨人	-11.7221
逌	-11.7222
不能下	-11.7223
南土	-11.7223
幷	-11.7224
窃	-11.7224
鈍	-11.7225
聀	-11.7226
珂	-11.7226
先祖	-11.7227
為驃騎將軍	-11.7228
顚	-11.7229
欝	-11.7229
鄔	-11.7229
乃奏	-11.723
殪	-11.7231
巫蠱	-11.7231
刈	-11.7232
夬	-11.7232
僊	-11.7232
斿	-11.7233
祕閣	-11.7233
邠州	-11.7233
摰	-11.7234
蒞	-11.7234
秀之	-11.7234
河間王顒	-11.7234
抉	-11.7235
壌	-11.7235
箋	-11.7235
所領	-11.7235
逐北	-11.7235
鑊	-11.7235
費禕	-11.7236
攝政	-11.7236
㕘	-11.7236
詔許之	-11.7236
少長	-11.7237
征南將軍	-11.7237
無終	-11.7237
鎮北將軍	-11.7238
臺省	-11.7238
司命	-11.7239
大雅	-11.7239
汁	-11.7239
姓苑	-11.7239
被圍	-11.724
衫	-11.724
不可勝數	-11.7241
薛安都	-11.7241
白龍	-11.7241
公卿議	-11.7242
南蠻	-11.7243
枝葉	-11.7245
天下之士	-11.7245
無敵	-11.7246
煬帝即位	-11.7246
刺史二千石	-11.7247
秦㧞	-11.7248
前此	-11.7248
所經	-11.7249
崔暹	-11.7249
狀如	-11.725
亰師	-11.725
存焉	-11.7251
光禄卿	-11.7253
突騎	-11.7254
淮陽王	-11.7254
又别	-11.7254
右手	-11.7255
有若	-11.7256
壽陽	-11.7257
遼國	-11.726
吾是以	-11.726
子臧	-11.7261
尤為	-11.7262
因循	-11.7263
居人	-11.7264
熹平	-11.7265
韓子外	-11.7266
来歸	-11.7267
者也今	-11.7267
也彼	-11.7271
悰	-11.7272
臣之罪	-11.7273
帝號	-11.7273
僧達	-11.7274
視朝	-11.7275
以功遷	-11.7276
光照	-11.7276
清約	-11.7282
罪惡	-11.7282
下流	-11.7282
不伐	-11.7282
諭以	-11.7283
吾國	-11.7284
之漸	-11.7284
俱入	-11.7284
公弼	-11.7285
故君子	-11.7285
唯唯	-11.7285
繫之	-11.7286
凡此	-11.7287
上疏陳	-11.7289
邵陵	-11.7289
御覽	-11.7291
必不敢	-11.7293
妖賊	-11.7294
歳餘	-11.7295
詩人	-11.7295
訪之	-11.7297
不得見	-11.7299
庶民	-11.73
北人	-11.7302
曰國家	-11.7302
四日	-11.7303
嘉興	-11.7304
恵帝	-11.7304
帝不許	-11.7306
吉射	-11.7306
二旬	-11.7308
士鞅	-11.7309
鞭之	-11.731
當朝	-11.7312
俱進	-11.7314
衆潰	-11.7316
渡淮	-11.7317
寡言	-11.7319
不遵	-11.732
文筆	-11.7322
魏太武	-11.7323
發遣	-11.7325
易傳	-11.7325
進屯	-11.7328
左手	-11.7328
王渾	-11.7332
曰嗟乎	-11.7333
長子也	-11.7334
星辰	-11.7334
易簡	-11.7335
妄也	-11.7335
勸帝	-11.7335
下詔曰	-11.7336
削爵	-11.7337
彭越	-11.7339
駿馬	-11.7343
去病	-11.7344
廵行	-11.7345
憂國	-11.7346
朱然	-11.7346
也且夫	-11.7349
以父任為	-11.735
字希	-11.7352
康生	-11.7354
五穀	-11.7355
聲援	-11.7355
死獄中	-11.7356
士㑹	-11.7358
尋卒	-11.7361
仕梁	-11.7361
文公文公	-11.7362
尹文	-11.7364
大獲	-11.7364
四十三年	-11.7364
思政	-11.7365
管子曰	-11.7365
定陵	-11.7367
杜云	-11.7369
本傳	-11.7369
吾不能	-11.737
不患	-11.7371
刑政	-11.7375
壼	-11.7375
殺賊	-11.7377
有他	-11.7378
豎子	-11.738
齊威王	-11.7382
廽	-11.7382
胃	-11.7382
摠督	-11.7384
宂	-11.7384
􁉒	-11.7384
斆	-11.7384
中庸	-11.7385
路明改府	-11.7385
淇	-11.7386
煎	-11.7386
舫	-11.7386
簫	-11.7386
鉗	-11.7386
嘉納	-11.7387
欤	-11.7387
拷	-11.7387
引軍還	-11.7387
安東將軍	-11.7388
日月星辰	-11.7388
鑰	-11.7388
姐	-11.7388
羊祜	-11.7389
魏興	-11.7389
琪	-11.7389
犫	-11.7389
西鄙	-11.7389
竅	-11.739
已去	-11.7391
姊妹	-11.7391
竟陵王子良	-11.7391
芉	-11.7392
為尚書僕射	-11.7392
惶懼	-11.7392
挿	-11.7392
犧牲	-11.7392
荀躒	-11.7393
由此觀之	-11.7393
架	-11.7393
夏國	-11.7393
為左僕射	-11.7394
地利	-11.7394
沐浴	-11.7397
假黄鉞	-11.7397
事勢	-11.7398
岌	-11.7398
王公以下	-11.7398
弘光𥘉追贈	-11.7399
季孫意如	-11.7399
穣侯	-11.74
不繼	-11.74
為雍州刺史	-11.74
朓	-11.7401
姚泓	-11.7401
心膂	-11.7401
中貴人	-11.7401
虎狼	-11.7402
乎哉	-11.7402
並出	-11.7403
校獵	-11.7404
為功	-11.7404
穆帝	-11.7405
馳驛	-11.7405
偏師	-11.7405
舒鳩	-11.7405
千斤	-11.7407
一統	-11.7408
泗州	-11.7409
不可失也	-11.7409
曰大丈夫	-11.741
四十八年	-11.7411
應鐘	-11.7411
短長	-11.7412
𢎞農太守	-11.7413
彦卿	-11.7413
不直	-11.7414
或以為	-11.7415
後庭	-11.7418
十二律	-11.7418
為大司空	-11.7422
羣蠻	-11.7423
無狀	-11.7424
元凶	-11.7426
其邑	-11.7426
朝請	-11.743
孤竹	-11.7432
徳義	-11.7433
承平	-11.7434
任約	-11.7435
来聘	-11.7435
髙后	-11.7435
吾當	-11.7436
國𥘉	-11.7438
一丈	-11.7441
李崇	-11.7441
惜其	-11.7443
大㨗	-11.7444
與匈奴	-11.7445
云堯	-11.745
孟春	-11.7452
㑹齊侯	-11.7454
覺之	-11.7455
生徒	-11.7456
地形	-11.7456
海外	-11.7457
甚重之	-11.7458
文德	-11.7458
清静	-11.7458
賜金	-11.7458
周武王	-11.7458
聖宗	-11.7461
咸稱	-11.7461
臣妾	-11.7463
宜令	-11.7464
年十一	-11.7466
不可得而	-11.7466
善用兵	-11.7466
諡曰簡	-11.7467
此豈	-11.7469
亦稱	-11.7469
不可以不	-11.747
自矜	-11.7471
坐免	-11.7471
求救於	-11.7473
李順	-11.7473
攻宋	-11.7476
牛𢎞	-11.7477
北山	-11.7478
兩河	-11.748
今宜	-11.748
諸營	-11.748
七十五	-11.7482
五城	-11.7482
吴人	-11.7483
天監初	-11.7483
儒雅	-11.7484
上書請	-11.7484
納其言	-11.7487
未就	-11.7488
舉國	-11.749
太建	-11.7491
大猷	-11.7492
領司徒	-11.7493
不屈死	-11.7493
舎之	-11.7494
七年春正月	-11.7497
魏絳	-11.7498
三千里	-11.7498
劉豫	-11.7499
以固	-11.7503
昔在	-11.7506
閔王	-11.7507
侯爵	-11.7509
十有三	-11.751
計議	-11.7512
許焉	-11.7514
嘗詣	-11.7515
司㓂	-11.7516
君子不	-11.7516
旗鼓	-11.7516
今大王	-11.752
子爵	-11.7524
方城	-11.7524
入京	-11.7525
天下之人	-11.7527
知樞密院事	-11.7527
之飾	-11.7528
應時	-11.7531
文士	-11.7531
遶	-11.7533
卒年八十	-11.7533
翺	-11.7534
朱氏	-11.7534
營室	-11.7536
遣吏	-11.7536
俎	-11.7537
縉紳	-11.7538
親友	-11.7538
戕	-11.7538
李克	-11.7538
赱	-11.7539
西路	-11.7539
元符	-11.7539
鑿齒	-11.754
鴉	-11.754
左氏傳	-11.7541
徙鎮	-11.7541
孝悌力田	-11.7541
都察院	-11.7542
西向	-11.7542
泯	-11.7542
魏舒	-11.7543
掦	-11.7543
愚臣	-11.7543
踏	-11.7543
嗣宗	-11.7544
弗及	-11.7544
范中行	-11.7544
唐叔	-11.7546
養老	-11.7546
外事	-11.7546
社禝	-11.7546
簮	-11.7546
皇甫謐	-11.7547
加元服	-11.7547
聨	-11.7547
朔日	-11.7547
員外散騎侍郎	-11.7548
糶	-11.7548
帖木児	-11.7548
别将	-11.7549
塗炭	-11.7549
石顯	-11.755
聰慧	-11.7551
機務	-11.7551
統萬	-11.7551
刦	-11.7552
潁州	-11.7552
以司空	-11.7552
季孫宿	-11.7553
國師	-11.7553
昪	-11.7555
弓弩	-11.7557
違命	-11.7558
姓纂	-11.756
勸農	-11.7561
言於帝曰	-11.7562
管夷吾	-11.7562
翬	-11.7562
之恥	-11.7562
所遣	-11.7562
呉興	-11.7563
大丞相	-11.7566
武士	-11.7566
北朝	-11.7566
招誘	-11.7567
舅姑	-11.7567
俗呼	-11.7567
歎其	-11.7567
旬月	-11.7567
免為庶人	-11.7568
削奪	-11.7569
相救	-11.7569
皇后諱	-11.7569
分寸	-11.7569
進用	-11.7569
御座	-11.757
君子也	-11.757
忘之	-11.7571
旦日	-11.7572
扶蘇	-11.7572
戒嚴	-11.7572
踐土	-11.7573
博渉	-11.7574
荀偃	-11.7574
神器	-11.7575
兵討之	-11.7576
長八尺	-11.7578
律吕	-11.7579
積粟	-11.7581
悲泣	-11.7583
恐非	-11.7584
七十三	-11.7584
帝聞之	-11.7585
咸謂	-11.7585
徐氏	-11.7586
萬邦	-11.7587
求和	-11.7588
何以知之	-11.7588
起復	-11.7588
引咎	-11.759
制禮	-11.759
聞知	-11.759
上章	-11.7591
耕籍田	-11.7592
遼東太守	-11.7593
曰子之	-11.7593
萬一千	-11.7597
士英	-11.7601
毋得	-11.7603
奔還	-11.7605
三才	-11.7608
之後有	-11.7609
伐邾	-11.7609
字孟	-11.7611
三百六十	-11.7611
三千餘	-11.7612
欲引	-11.7613
恭謹	-11.7616
武藝	-11.7616
寳器	-11.7618
秦趙	-11.7619
白虎通	-11.762
千一百	-11.7621
王欽若	-11.7621
吾先君	-11.7623
舜禹	-11.7624
者也故	-11.7625
建威	-11.7626
百嵗	-11.7627
字休	-11.7627
以功拜	-11.7628
雖多	-11.7628
亡後	-11.7629
所養	-11.7629
告我	-11.7631
特加	-11.7632
前諸	-11.7633
專諸	-11.7634
與卿	-11.7634
應詔	-11.7635
胡服	-11.7635
必將	-11.7636
復來	-11.7642
胡騎	-11.7647
豈容	-11.7648
五服	-11.7648
入隋	-11.7656
北去	-11.7656
上疏諫	-11.7657
古作	-11.7658
孝綽	-11.7659
晋侯	-11.7661
戦死	-11.7662
王敬則	-11.7664
求成	-11.7664
在其中	-11.7666
殺身	-11.7669
冉有	-11.7669
幼而	-11.767
劉湛	-11.767
摠	-11.7671
東閣	-11.7672
之境	-11.7674
夷齊	-11.7675
繼嗣	-11.7678
官制	-11.7678
分明	-11.768
傳記	-11.7681
厚賂	-11.7682
以女妻之	-11.7683
反攻	-11.7685
平原君曰	-11.7685
乃悉	-11.7686
加兵	-11.7686
給其	-11.7688
上夀	-11.7688
蒼生	-11.7689
禖	-11.7691
談論	-11.7693
三河	-11.7694
􁅊	-11.7696
潯	-11.7698
事急	-11.77
詁	-11.77
景平	-11.7701
令民	-11.7701
徳林	-11.7703
冦準	-11.7704
隂氣	-11.7704
旰	-11.7704
從征伐	-11.7704
倉頡	-11.7705
顏	-11.7706
䔍	-11.7707
别種	-11.7707
强秦	-11.7709
仕魏	-11.7709
櫓	-11.7709
意甚	-11.771
家無餘財	-11.7711
挂	-11.7711
伯夷叔齊	-11.7712
孝閔帝踐阼	-11.7712
騖	-11.7712
五品以上	-11.7712
于長安	-11.7713
歎曰吾	-11.7714
也一曰	-11.7715
歐陽脩	-11.7715
垂簾	-11.7716
莫肯	-11.7716
璆	-11.7716
十世	-11.7716
丼	-11.7717
鑲白旗漢軍	-11.7717
永徳	-11.7717
齮	-11.7717
李鍇撰	-11.7717
辟公府	-11.7717
藩邸	-11.7718
薇	-11.7718
帛各有差	-11.7718
滑稽	-11.7718
必致	-11.7719
宋鄭	-11.7719
築壘	-11.772
則不然	-11.772
曇朗	-11.7721
撫慰	-11.7722
奉承	-11.7722
俯仰	-11.7722
固諫	-11.7722
不設	-11.7723
八年春正月	-11.7723
璵	-11.7723
以城降	-11.7724
全琮	-11.7724
暾	-11.7726
三年封	-11.7727
不具	-11.7728
聞之大怒	-11.7728
夏竦	-11.7728
驕奢	-11.7729
天平	-11.773
乞罷	-11.773
宜速	-11.7731
一再	-11.7732
讜言	-11.7733
方明	-11.7734
李傕	-11.7737
武帝受禪	-11.774
關西	-11.7741
南郡王	-11.7741
冨貴	-11.7743
韓子内	-11.7743
目前	-11.7744
若干	-11.7749
竭力	-11.7751
賦一卷	-11.7752
守偹	-11.7752
外兵	-11.7752
聞之乃	-11.7753
二千五百	-11.7756
皆不得	-11.7757
漁者	-11.776
文雅	-11.7761
不敢當	-11.7761
名將	-11.7761
大聖	-11.7761
尤精	-11.7763
災害	-11.7763
始興王	-11.7763
永建	-11.7763
戍卒	-11.7764
且欲	-11.7764
哀毁	-11.7764
錢帛	-11.7765
不能言	-11.7765
三省	-11.7765
自隨	-11.7766
異物	-11.7767
輔弼	-11.7767
多智	-11.7768
不敢出	-11.777
家財	-11.777
里至	-11.7771
浮華	-11.7772
典農	-11.7772
所逼	-11.7772
襄二	-11.7772
許州	-11.7773
文表	-11.7773
反間	-11.7774
諡法	-11.7774
聽其	-11.7776
無愧	-11.7776
聊城	-11.7778
嚴整	-11.7779
神龜	-11.7779
大疫	-11.778
將殺之	-11.7781
長幼	-11.7782
雍邱	-11.7783
乞食	-11.7783
罷相	-11.7784
任重	-11.7787
有言曰	-11.7791
成名	-11.7792
盆子	-11.7793
萬乗	-11.7793
三旬	-11.7794
以後事	-11.7795
奔宋	-11.7797
追謚	-11.7799
崇祖	-11.7801
悲夫	-11.7803
不及此	-11.7804
明年春	-11.7804
傳檄	-11.7804
昆陽	-11.7805
于晉晉	-11.7805
仁厚	-11.7806
每見	-11.7807
碑隂	-11.7807
同母弟	-11.7809
平江	-11.781
升降	-11.7811
三十餘人	-11.7811
哉今	-11.7811
楚國之	-11.7812
地勢	-11.7813
不敵	-11.7814
受敵	-11.7816
輕兵	-11.7817
往年	-11.7818
未畢	-11.7818
廬山	-11.7821
遂亡	-11.7823
而後行	-11.7823
乞伏	-11.7823
塞下	-11.7825
其器	-11.7826
聖王之	-11.7826
子展	-11.7833
黎民	-11.7835
釋氏	-11.7836
好禮	-11.7836
上諭	-11.7837
有文集	-11.7838
攻具	-11.784
祠部	-11.7842
五丈	-11.7844
和氣	-11.7845
歸漢	-11.7848
亡奔	-11.785
寺碑	-11.7855
甚謹	-11.7856
菩薩	-11.7857
常居	-11.7858
蒯聵	-11.7858
鄄	-11.7861
郞	-11.7862
爼	-11.7863
發卒	-11.7864
七世	-11.7864
置百官	-11.7865
蜺	-11.7866
衿	-11.7867
蜂	-11.7867
本作	-11.7867
徙知	-11.7867
㪚騎常侍	-11.7868
公卿大夫	-11.7869
緫	-11.7869
圯	-11.787
漲	-11.787
己夘	-11.787
書一卷	-11.787
端明殿學士	-11.7871
嫚	-11.7871
鹹	-11.7871
郾	-11.7871
賽	-11.7871
始作	-11.7871
無寵	-11.7871
麇	-11.7872
煑	-11.7872
様	-11.7872
蹂	-11.7873
寶夤	-11.7873
有急	-11.7874
之象也	-11.7874
毉	-11.7874
雇	-11.7874
蠅	-11.7875
呪	-11.7876
鐔	-11.7876
執其手	-11.7876
秭歸	-11.7877
敺	-11.7877
峰	-11.7877
倉廪	-11.7878
孝武西遷	-11.7878
竇武	-11.7878
匣	-11.7878
聮	-11.788
無益於	-11.788
諸葛瑾	-11.788
武興	-11.788
親率	-11.788
直閤將軍	-11.7881
為光禄大夫	-11.7881
進爵為王	-11.7882
景侯	-11.7882
䂓	-11.7882
其子弟	-11.7882
剛直	-11.7882
樗里子	-11.7882
摛	-11.7883
外無	-11.7883
徐孝嗣	-11.7884
蔿	-11.7884
碣石	-11.7885
萬四千	-11.7885
旦暮	-11.7886
騶忌	-11.7887
畜牧	-11.7887
皇城	-11.7887
獨孤信	-11.7887
稷契	-11.7887
冠軍将軍	-11.7887
庫狄	-11.7888
自縊死	-11.789
元忠	-11.789
與盟	-11.7892
辯士	-11.7893
廟堂	-11.7894
天下之大	-11.7895
一依	-11.7895
悉降	-11.7895
舉賢良	-11.7896
詰責	-11.7897
降附	-11.7897
設壇	-11.7897
益州牧	-11.7898
三善	-11.7898
吉安	-11.7899
辛苦	-11.7901
左道	-11.7902
忠厚	-11.7902
郷薦	-11.7904
辟召	-11.7904
陷陣	-11.7907
暴露	-11.7908
廢黜	-11.7909
而釋之	-11.791
從祖	-11.7911
齊州刺史	-11.7911
江夏太守	-11.7911
賢不肖	-11.7912
攻燕	-11.7912
論死	-11.7914
折其	-11.7915
明德	-11.7916
太常丞	-11.7916
州安置	-11.792
果毅	-11.792
應募	-11.7921
豪彊	-11.7922
齊受禪	-11.7922
東宮	-11.7923
自然之	-11.7923
惠文	-11.7925
兩國	-11.7926
碩徳	-11.7931
勃然	-11.7932
長沙王	-11.7933
所惡	-11.7933
廣陽王	-11.7934
從孫	-11.7935
奔赴	-11.7935
又明年	-11.7935
浮圖	-11.7936
祁山	-11.7937
吏二千石	-11.794
為世子	-11.794
庭堅	-11.7942
聞之怒	-11.7943
以為宜	-11.7943
聲聞	-11.7944
文皇	-11.7946
恃其	-11.7946
宜加	-11.7946
漕運	-11.7947
萬暦中	-11.7948
聖躬	-11.795
其母曰	-11.7952
一卷右	-11.7952
為大司徒	-11.7953
其二子	-11.7954
業興	-11.7957
原州	-11.7957
招納	-11.7958
乃以為	-11.796
既久	-11.7962
光明	-11.7962
代還	-11.7962
趙孟	-11.7962
所幸	-11.7965
南走	-11.7969
勞問	-11.797
汝才	-11.797
繼母	-11.7971
淂罪	-11.7973
長久	-11.7973
還第	-11.7974
嗣昌	-11.7977
奏可	-11.7982
縣邑	-11.7982
大眼	-11.7984
副都	-11.7985
種類	-11.7992
大河	-11.7992
臣節	-11.7994
不能止	-11.7995
其遺	-11.7996
處父	-11.7996
趙襄子	-11.7997
者為之	-11.7999
諸卿	-11.8002
率諸軍	-11.8003
忠臣也	-11.8005
数日	-11.8008
四百里	-11.801
孫䇿	-11.8011
敝邑之	-11.8012
唯陛下	-11.8014
史晉	-11.8015
衛鞅	-11.8015
下民	-11.8016
越越	-11.8017
行部	-11.8017
靖難	-11.8018
初建	-11.8019
後代	-11.8019
輿服	-11.8022
林鍾	-11.8023
六宗	-11.8024
娘	-11.8025
經緯	-11.8025
譟	-11.8026
叔夜	-11.8027
獨行	-11.8029
䕶衛	-11.8029
同志	-11.8029
炅	-11.8029
湾	-11.8029
遘	-11.803
蘭州	-11.8031
乗間	-11.8031
莬	-11.8031
雁	-11.8033
弗知	-11.8033
以千數	-11.8033
小過	-11.8034
喚	-11.8035
斬賊	-11.8035
過半	-11.8035
馨	-11.8035
㦯	-11.8035
右春坊	-11.8036
捽	-11.8036
貰	-11.8037
郗鑒	-11.8037
鰥寡孤獨	-11.8037
郿	-11.8037
自解	-11.8038
釘	-11.8038
陽亭侯	-11.8038
汨	-11.8039
沌	-11.8039
豕韋	-11.8039
澠池	-11.8039
疾惡	-11.804
蘧	-11.804
絲竹	-11.804
啜	-11.804
内殿	-11.8041
億萬	-11.8041
氛	-11.8041
垂拱	-11.8041
苑囿	-11.8041
太始	-11.8042
犇	-11.8042
盛夏	-11.8043
尫	-11.8043
鬪	-11.8043
仄	-11.8043
擠	-11.8044
斵	-11.8045
堙	-11.8045
因奏	-11.8045
以百數	-11.8046
慕容暐	-11.8046
還鄴	-11.8046
安南將軍	-11.8046
沃野	-11.8047
便弓馬	-11.8047
宫闈	-11.8047
黿	-11.8048
祖廟	-11.8048
夏侯淵	-11.805
從討	-11.8051
崇明	-11.8053
吾心	-11.8053
頴川	-11.8053
都督同知	-11.8053
良霄	-11.8055
拱手	-11.8056
侵宋	-11.8056
受納	-11.8056
日甚	-11.8057
當今之	-11.8057
棄城	-11.8058
夜襲	-11.8058
清明	-11.806
青溪	-11.8061
嗇夫	-11.8062
司州牧	-11.8062
孔光	-11.8063
常恐	-11.8063
四十六年	-11.8064
流言	-11.8069
訓導	-11.8071
夀夢	-11.8071
甲乙	-11.8071
茍有	-11.8073
豆盧	-11.8074
母弟也	-11.8075
太上皇帝	-11.8075
明習	-11.8078
石經	-11.8081
率所部	-11.8082
帝崩于	-11.8083
掩其	-11.8083
之咎	-11.8084
大江	-11.8084
引入	-11.8085
飛鳥	-11.8085
代立是為	-11.8085
鉅萬	-11.8088
前部	-11.8088
之譽	-11.8089
四十三	-11.8089
責成	-11.809
晨夜	-11.809
典故	-11.8093
一員	-11.8096
北侵	-11.8097
子丕	-11.8097
與相見	-11.8097
二百五十	-11.81
晋人	-11.81
母妻	-11.8105
有流星	-11.8106
南康王	-11.8108
祖宗之	-11.8108
不聽遂	-11.8108
侯食邑	-11.8108
供奉	-11.8109
不敏	-11.811
幽并	-11.811
裴度	-11.8111
舉朝	-11.8113
凡八	-11.8114
發憤	-11.8115
否則	-11.8119
分為二	-11.812
内應	-11.8121
不恊	-11.8121
服色	-11.8123
大不敬	-11.8126
王崩子	-11.8129
叛晉	-11.813
輔佐	-11.8131
張衡	-11.8131
虞氏	-11.8132
畢萬	-11.8133
叔寳	-11.8135
伐我我	-11.8141
惑衆	-11.8141
為之備	-11.8141
於江陵	-11.8142
風化	-11.8142
桓氏	-11.8143
大火	-11.8144
三十餘年	-11.8145
萬死	-11.8146
周章	-11.8146
西道	-11.8147
既葬	-11.8147
部大人	-11.8148
右光禄大夫	-11.8149
師旅	-11.8152
遣其将	-11.8153
滁州	-11.8154
私門	-11.8154
之時也	-11.8155
滕薛杞小邾	-11.8158
拜謝	-11.816
侑	-11.8161
周太祖	-11.8163
飾以	-11.8164
濟濟	-11.8165
州界	-11.8165
竟不能	-11.8166
秦韓	-11.8167
督學	-11.8168
順昌	-11.817
五十七	-11.8171
公曰諾	-11.8174
寰宇	-11.8176
而擊之	-11.8178
然性	-11.8179
震懼	-11.8179
過度	-11.818
詣京師	-11.818
北境	-11.8181
送還	-11.8181
長社	-11.8182
奏罷	-11.8182
喪事	-11.8183
三臺	-11.8184
賜絹	-11.8185
祥符	-11.8185
言路	-11.8188
謖	-11.819
樞宻	-11.8191
上下相	-11.8191
孔明	-11.8192
有殊	-11.8195
錬	-11.8195
舉火	-11.8195
車駕至自	-11.8196
在荆州	-11.8197
大業中	-11.8197
鄩	-11.8197
上儀同	-11.8198
族兄	-11.8198
吕光	-11.8199
龍圖閣學士	-11.82
寳元	-11.82
浞	-11.8201
濩	-11.8201
証	-11.8201
沓	-11.8201
峡	-11.8202
頵	-11.8203
宋蘇轍撰	-11.8204
能否	-11.8205
東徙	-11.8205
擣	-11.8205
陳勝	-11.8207
訕	-11.8209
嘔血	-11.8209
曳	-11.8209
沫	-11.8209
梁主	-11.8209
之樞謹按	-11.821
觀文殿學士	-11.821
賃	-11.821
馳騁	-11.821
繳	-11.821
文信侯	-11.8211
孜孜	-11.8211
頷	-11.8212
曹利用	-11.8213
来降	-11.8213
持久	-11.8214
威嚴	-11.8214
仇讎	-11.8215
副将	-11.8216
遙光	-11.8217
本書	-11.8217
精銳	-11.8217
番禺	-11.8218
累擢至	-11.8218
宫女	-11.8219
率多	-11.8219
不調	-11.822
九章	-11.8221
渉獵	-11.8221
撃破之	-11.8221
法制	-11.8221
筦	-11.8222
夫槩	-11.8222
畜産	-11.8222
必勝	-11.8222
信任	-11.8225
以為榮	-11.8225
驃騎大将軍	-11.8226
率所領	-11.8226
便可	-11.8227
湘東	-11.8227
周文育	-11.8228
談笑	-11.8228
涇陽君	-11.8229
二妃	-11.8229
知永興軍	-11.823
可任	-11.8231
隆安	-11.8232
占候	-11.8233
考績	-11.8233
之死也	-11.8234
曰主上	-11.8235
宗廟社稷	-11.8237
五縣	-11.8237
方面	-11.8238
郎官	-11.8239
迎立	-11.8242
在京師	-11.8242
其渠帥	-11.8243
北單于	-11.8243
樹下	-11.8244
夾攻	-11.8245
亡秦	-11.8245
下廷尉	-11.8246
檢討	-11.8249
林鐘	-11.8249
不念	-11.825
欽定重訂大金國志卷	-11.8251
屏風	-11.8252
避席	-11.8253
地廣	-11.8254
以疾辭	-11.8255
叔武	-11.8255
齊亡	-11.8256
大帥	-11.8257
江中	-11.8259
太湖	-11.8259
潘美	-11.8259
慶陽	-11.8262
殷勤	-11.8263
名字	-11.8264
積聚	-11.8265
直學士	-11.8266
不諱	-11.8266
制詔	-11.8267
與同郡	-11.8267
襲破	-11.8269
切直	-11.8271
莫大	-11.8271
東陽太守	-11.8273
顔子	-11.8275
乃收	-11.8275
左司馬	-11.8275
不用命	-11.8276
平章事	-11.8277
文館	-11.8277
天下之事	-11.8278
王朗	-11.8279
茂才	-11.8281
唐書	-11.8281
衞大將軍	-11.8281
燕師	-11.8286
享太廟	-11.8289
生擒	-11.829
不祀	-11.8291
救火	-11.8292
奔散	-11.8295
即位是為	-11.8297
溺死	-11.8299
罔不	-11.8302
司寇	-11.831
戸部	-11.8312
關内侯	-11.8313
曰先帝	-11.8314
見疑	-11.8317
其禄	-11.8318
所薦	-11.8318
叔敖	-11.8322
一介	-11.8322
疏請	-11.8323
時年六十	-11.8323
不得行	-11.8324
圖籍	-11.8324
羽儀	-11.8325
北兵	-11.8325
形如	-11.8326
欲以為	-11.8328
賢愚	-11.8329
諸吕	-11.8329
字茂	-11.833
材官	-11.8339
登極	-11.8341
叔牙	-11.8342
侍宴	-11.8343
洛邑	-11.8345
千户所	-11.8346
獲全	-11.8346
上大怒	-11.8347
古人之	-11.8347
皆伏誅	-11.8348
夜中	-11.8349
選曹	-11.835
竟無	-11.835
虞仲	-11.8354
三年春二月	-11.8354
尋轉	-11.8355
五鹿	-11.8356
乎孔子曰	-11.8358
百有餘	-11.8359
李彪	-11.836
十五萬	-11.836
㡬何	-11.8361
家業	-11.8361
周世宗	-11.8364
廣宗	-11.8364
承恩	-11.8364
穆叔	-11.8365
西南夷	-11.8365
自結	-11.8367
云禹	-11.8367
灵	-11.8368
郡國志	-11.8369
如是則	-11.837
九域志	-11.837
弢	-11.8372
曰某	-11.8372
引退	-11.8373
貿	-11.8373
逯	-11.8373
羨	-11.8373
之為人也	-11.8374
㫤	-11.8374
謂羣臣曰	-11.8374
奉養	-11.8375
宋國	-11.8375
欽定重訂契丹國志卷	-11.8375
馬頭	-11.8376
宕	-11.8377
鎗	-11.8377
逍遥	-11.8378
不知何許人	-11.8378
六十五	-11.8379
舟楫	-11.8379
有功封	-11.838
槀	-11.838
子圉	-11.838
另	-11.838
郫	-11.838
迺	-11.8381
烽	-11.8381
記十卷	-11.8381
栩	-11.8381
弈	-11.8381
湧	-11.8382
仭	-11.8382
㐲	-11.8382
漢王諒	-11.8382
臣僚	-11.8382
邲	-11.8382
阿那肱	-11.8383
殳	-11.8383
帙	-11.8383
幟	-11.8383
受降	-11.8383
㺯	-11.8384
神廟	-11.8384
庵	-11.8385
磧	-11.8385
教坊	-11.8386
夫子曰	-11.8387
纉	-11.8388
娱	-11.8388
也詩云	-11.8388
乃許之	-11.8388
防風	-11.8388
賵	-11.8389
孝嗣	-11.8389
母兄	-11.8389
彭城王義康	-11.8389
腫	-11.839
郡功曹	-11.839
萬家	-11.8391
濡須	-11.8392
告急於	-11.8392
欲害	-11.8392
大慙	-11.8393
楮	-11.8393
無所見	-11.8394
河中府	-11.8395
樓煩	-11.8395
仲康	-11.8396
徽宗即位	-11.8397
波斯	-11.8398
敬容	-11.8398
夢見	-11.8398
敬仲	-11.8399
天監元年	-11.84
雅樂	-11.8403
别有傳	-11.8405
編脩	-11.8406
洗馬	-11.8406
夐	-11.8406
内監	-11.841
子路曰	-11.8412
號慟	-11.8412
作色	-11.8414
公子申	-11.8415
昭二	-11.8415
為謀主	-11.8415
彭澤	-11.8417
任昉	-11.8419
非但	-11.8423
統和	-11.8424
離心	-11.8424
召爲	-11.8424
南燕	-11.8426
魚石	-11.8428
輕財	-11.843
閤門	-11.8432
青冀	-11.8432
西中郎	-11.8432
五祀	-11.8432
請託	-11.8432
破趙	-11.8433
不遑	-11.8434
饒州	-11.8437
射姑	-11.8438
從哲	-11.8439
修國史	-11.8442
首輔	-11.8442
乃遣使	-11.8444
拜司空	-11.8444
厲聲	-11.8445
五嶽	-11.8446
能用	-11.8448
子晳	-11.8449
邱氏	-11.845
元載	-11.8452
誅滅	-11.8453
大怒曰	-11.8453
八品	-11.8454
顯徳	-11.8454
籍田	-11.8457
異端	-11.8457
通和	-11.8457
道里	-11.8458
顯達	-11.8458
編年	-11.8459
於秦秦	-11.8462
養子	-11.8463
千百	-11.8472
高第	-11.8474
廷尉卿	-11.8476
商英	-11.8477
輔相	-11.8478
十郡	-11.8478
善撫	-11.848
未嘗見	-11.8481
年十九	-11.8482
公孫龍	-11.8483
答云	-11.8484
林宗	-11.8486
賢聖	-11.8487
合戰	-11.8491
法興	-11.8492
不𧺫	-11.8494
自誓	-11.8494
何獨	-11.8495
功德	-11.8495
畏憚	-11.8498
見誅	-11.85
得天下	-11.8501
二級	-11.8503
書目	-11.8504
待命	-11.8504
之行也	-11.8504
天降	-11.8505
土崩	-11.8506
論難	-11.8507
發䘮	-11.8508
東園	-11.8508
所憚	-11.851
父母之	-11.851
祀典	-11.851
為大司農	-11.851
以萬數	-11.8511
千餘騎	-11.8513
兄弟並	-11.8515
青衣	-11.852
煌	-11.852
歸葬	-11.8521
京西	-11.8521
專任	-11.8524
五十一	-11.8525
孫秀	-11.8527
髙車	-11.853
心動	-11.8534
眀公	-11.8535
父子兄弟	-11.8536
刘	-11.8539
無慮	-11.8539
王衍	-11.8539
猺	-11.8541
荀寅	-11.8543
叔陵	-11.8544
賜予	-11.8545
懸瓠	-11.8548
不睦	-11.8548
十八人	-11.8548
一體	-11.8548
溱	-11.8549
茫	-11.8549
知諫院	-11.855
緋	-11.8551
𨼆	-11.8551
蠭	-11.8552
㳂	-11.8552
大長秋	-11.8553
泠	-11.8553
衂	-11.8553
憺	-11.8553
哲宗即位	-11.8553
鼐	-11.8554
瞞	-11.8555
蚪	-11.8555
怛	-11.8556
鳳凰	-11.8556
嶮	-11.8556
轢	-11.8557
报	-11.8557
威振	-11.8557
以厭	-11.8557
嗾	-11.8558
潼	-11.8558
爐	-11.8558
㐫	-11.8558
遒	-11.8559
氾	-11.856
卲	-11.8561
案范書闕	-11.8562
泚	-11.8562
九尺	-11.8563
鷺	-11.8563
名實	-11.8565
中書博士	-11.8565
非禮也	-11.8565
之始也	-11.8565
龍驤将軍	-11.8566
謫戍	-11.8566
廢帝即位	-11.8566
不再	-11.8567
化大行	-11.8567
湮	-11.8568
數十篇	-11.8569
大禹	-11.8569
武王伐紂	-11.8569
樂羊	-11.8569
雞鳴	-11.857
芝龍	-11.857
傒	-11.8572
左衞將軍	-11.8572
還洛陽	-11.8573
嚻	-11.8573
鄄城	-11.8577
摠兵	-11.8577
西陽王	-11.8578
田子方	-11.8578
其面	-11.8579
侵掠	-11.8584
而觀之	-11.8585
成帝時	-11.8585
欲速	-11.8587
數十騎	-11.8588
七八	-11.8589
操行	-11.859
俘斬	-11.859
諫諍	-11.8591
顔回	-11.8591
云舜	-11.8591
句容	-11.8592
告之曰	-11.8592
仁宗即位	-11.8593
姑孰	-11.8593
小異	-11.8593
至鄴	-11.8594
聲如雷	-11.8597
馳馬	-11.8598
與之盟	-11.8598
春秋時	-11.86
可取	-11.86
露布	-11.8602
杜衍	-11.8603
焚燒	-11.8603
彭寵	-11.8604
淮安	-11.8605
處羅	-11.8607
語人曰	-11.8607
頗知	-11.8608
叔業	-11.8612
還屯	-11.8613
以成其	-11.8613
率府	-11.8613
三百石	-11.8614
狐疑	-11.8614
于謹	-11.8617
上從之	-11.8618
勝兵	-11.8618
自効	-11.8619
杜門	-11.8621
詐稱	-11.8622
甚惡之	-11.8623
六百里	-11.8623
宫掖	-11.8624
南豫州刺史	-11.8624
以下至	-11.8626
奉聖	-11.8626
有虞氏	-11.8632
希烈	-11.8635
畧地	-11.8636
老夫	-11.8637
令軍中	-11.8637
髙陽氏	-11.8639
稱之曰	-11.8639
安敢	-11.8639
之所由	-11.8644
于齊齊	-11.8645
宣帝即位	-11.8648
開平	-11.8649
霸王之	-11.8649
加之以	-11.865
成紀	-11.8651
曹掾	-11.8652
共擊	-11.8654
都督府	-11.8655
六十六	-11.8656
而進之	-11.8656
原吉	-11.8657
神宗曰	-11.8657
戰破之	-11.8658
昌期	-11.8658
公子成	-11.8664
追論	-11.8664
十餘丈	-11.8664
子也母曰	-11.8665
夷夏	-11.8667
幸臣	-11.8667
僉書	-11.8668
弋陽	-11.8669
不愧	-11.8673
御前	-11.8677
皇極	-11.8677
以贖	-11.8679
襄陵	-11.8681
下令曰	-11.8682
為别駕	-11.8682
氣候	-11.8682
六壬	-11.8684
董賢	-11.8685
長兄	-11.8685
咸以為	-11.8686
雲臺	-11.8686
絳州	-11.8686
海道	-11.8687
水災	-11.8691
唐太宗	-11.8691
郡吏	-11.8693
誓書	-11.8694
在蜀	-11.8695
季父	-11.8695
略地	-11.8696
專制	-11.8698
貨賄	-11.8698
百神	-11.87
率軍	-11.87
黒水	-11.8705
遷尚書令	-11.8706
六十八	-11.8712
求援	-11.8712
財利	-11.8713
叔文	-11.8714
邪正	-11.8714
軍功	-11.8716
直指	-11.8718
城池	-11.8718
督府	-11.8718
曰方今	-11.8719
太戊	-11.8719
長㓜	-11.872
灘	-11.8721
偓	-11.8722
馳入	-11.8724
翥	-11.8727
悠	-11.8727
鳴鼓	-11.8727
南部	-11.8728
浹	-11.8728
臾	-11.8728
馹	-11.8729
扉	-11.8729
文欽	-11.873
𤨏	-11.873
劑	-11.873
馘	-11.8731
既敗	-11.8731
淯	-11.8732
燬	-11.8733
董仲舒	-11.8733
延陵季子	-11.8733
偼伃	-11.8734
嗤	-11.8734
李雄	-11.8734
佐史	-11.8734
濟南王	-11.8735
綠	-11.8735
昩	-11.8736
涿鹿	-11.8736
傳首京師	-11.8737
詔從之	-11.8737
以母老	-11.8737
衰絰	-11.8737
九原	-11.8737
圓丘	-11.8738
卆	-11.8739
蕚	-11.8739
僂	-11.874
龍見	-11.874
天下幸甚	-11.874
醴泉	-11.8741
缶	-11.8742
騾	-11.8742
曰是何	-11.8742
増置	-11.8743
鞌	-11.8744
郴	-11.8744
諦	-11.8745
愛幸	-11.8745
釋褐	-11.8746
追還	-11.8746
征虜将軍	-11.8746
陵廟	-11.8747
閹人	-11.8748
果得	-11.8748
曇首	-11.8748
禮敬	-11.8748
乘車	-11.8749
征西将軍	-11.8749
丁零	-11.875
招降	-11.8751
朱鮪	-11.8752
建安中	-11.8752
齋戒	-11.8752
弓馬	-11.8753
墓誌	-11.8756
車駕幸	-11.8756
歌之曰	-11.8756
晉魯齊宋	-11.8757
大中大夫	-11.8759
燕昭王	-11.876
冠冕	-11.8761
千餘户	-11.8762
廢興	-11.8762
位號	-11.8762
聶政	-11.8762
西郊	-11.8764
儀制	-11.8765
歌詩	-11.8766
昔漢	-11.8766
無益也	-11.8766
必克	-11.8767
臨刑	-11.8768
耕種	-11.8769
荆州牧	-11.8769
百物	-11.8772
霍氏	-11.8773
所劾	-11.8774
今𨽻	-11.8776
興師伐	-11.8778
貪殘	-11.8779
言之於	-11.8779
貧窮	-11.8781
尤多	-11.8781
阿房	-11.8782
應劭	-11.8783
来奔	-11.8783
傳於世	-11.8784
講官	-11.8789
部署	-11.8792
殷周	-11.8792
髙辛氏	-11.8793
還長安	-11.8797
其宅	-11.8798
子頽	-11.8799
十丈	-11.8799
免歸	-11.8802
仁愛	-11.8803
兩宫	-11.8803
威惠	-11.8807
於明堂	-11.8809
雍門	-11.8809
與中國	-11.881
每年	-11.8811
游吉	-11.8812
孝宣	-11.8814
革命	-11.8815
發射	-11.8818
河決	-11.8819
合祭	-11.882
北匈奴	-11.8823
遺愛	-11.8823
豈復	-11.8825
之遴	-11.8826
潤州	-11.8832
白雲	-11.8833
等率衆	-11.8835
謹案	-11.8835
伐紂	-11.8837
感其	-11.8841
孔父	-11.8841
封都亭侯	-11.8842
呂后	-11.8842
巫臣	-11.8844
竟陵王	-11.8847
公子雍	-11.8847
五年春	-11.8847
儀一卷	-11.885
爵賞	-11.8851
尚公主	-11.8851
附㑹	-11.8852
曰自古	-11.8852
諡曰康	-11.8853
楚伐鄭	-11.8854
世紀云	-11.8856
多識	-11.8856
獻馬	-11.8858
西華	-11.8859
而復之	-11.8859
遑	-11.8859
兵彊	-11.886
流俗	-11.8861
五千餘人	-11.8862
欲襲	-11.8865
猶不能	-11.8866
為諸生	-11.8867
白太后	-11.8867
梁邱	-11.8867
既失	-11.8868
也故曰	-11.8868
送葬	-11.8869
八十四	-11.8869
為中書令	-11.8869
務農	-11.887
雲氣	-11.8871
白氣	-11.8872
忠正	-11.8874
第五子	-11.8875
侍左右	-11.8877
者數百人	-11.8878
也然而	-11.888
養母	-11.8882
震恐	-11.8884
二十日	-11.8885
四年春	-11.8886
齊武帝	-11.8887
御戎	-11.8889
孝文時	-11.889
吏治	-11.889
逆順	-11.889
艶	-11.8893
未央	-11.8895
房陵	-11.8897
陳夀	-11.8899
四十四	-11.89
論三卷	-11.8902
閩越	-11.8903
顔氏	-11.8903
侗	-11.8903
奔衛	-11.8904
就學	-11.8904
蕭道成	-11.8905
為光禄勲	-11.8905
受教	-11.8906
豢	-11.8906
明帝時	-11.8908
嫁之	-11.8909
颯	-11.891
鄯	-11.891
適齊	-11.8911
彭蠡	-11.8911
什一	-11.8912
婿	-11.8912
太白晝見	-11.8913
泮	-11.8913
洪州	-11.8913
鼈	-11.8913
珙	-11.8913
上疏請	-11.8914
縻	-11.8914
睨	-11.8914
吴興	-11.8914
蹟	-11.8914
鄂勒歡	-11.8914
不怠	-11.8914
表例説	-11.8914
烈士	-11.8915
枷	-11.8915
路明	-11.8916
鼔吹	-11.8916
陳羣	-11.8916
刹	-11.8916
鞶	-11.8917
冺	-11.8917
畫地	-11.8917
彞	-11.8917
典選	-11.8917
塡	-11.8917
事無大小	-11.8918
搴	-11.8918
竟坐	-11.8919
漬	-11.8919
安北將軍	-11.892
杜弢	-11.892
菲	-11.892
芈	-11.892
典刑	-11.892
郛	-11.8921
不亦宜乎	-11.8921
因家焉	-11.8921
濰	-11.8921
惮	-11.8922
浄	-11.8922
珮	-11.8922
姨	-11.8922
商周	-11.8923
安釐王	-11.8924
督責	-11.8924
縞	-11.8924
詮	-11.8924
哀哉	-11.8924
艸	-11.8924
騶虞	-11.8924
銅印	-11.8925
禹偁	-11.8925
荆棘	-11.8926
三百五十	-11.8926
五十三	-11.8926
涖盟	-11.8927
隤	-11.8927
憚其	-11.8928
感激	-11.8928
承旨	-11.8929
殷景仁	-11.8929
篤於	-11.893
嚚	-11.893
斌卿	-11.8931
閼氏	-11.8932
樓緩	-11.8932
楚楚王	-11.8933
松栢	-11.8933
武威太守	-11.8933
崙	-11.8934
鄭許曹	-11.8934
白公勝	-11.8935
解褐	-11.8936
元氣	-11.8936
延岑	-11.8938
左光祿大夫	-11.8939
俘獲	-11.8941
世本云	-11.8941
驍果	-11.8942
鄞縣	-11.8944
被殺	-11.8944
輿駕	-11.8946
租税	-11.8946
如松	-11.8946
禰	-11.8946
七曜	-11.8947
河决	-11.8948
乞歸	-11.8949
羣盜	-11.8951
大饗	-11.8953
將納	-11.8955
水溢	-11.8956
二千餘里	-11.8957
以功授	-11.8957
艾陵	-11.896
大月氏	-11.896
左都御史	-11.8962
不俟	-11.8962
清靜	-11.8963
子太叔	-11.8967
鄆州	-11.8967
氣力	-11.8967
優游	-11.8967
天津	-11.8968
遷散騎常侍	-11.8969
君之所	-11.897
家奴	-11.897
臨安	-11.8971
丑父	-11.8972
甚嘉之	-11.8976
而射之	-11.8977
秦本紀	-11.8977
大宗伯	-11.8978
不敢犯	-11.898
趙穿	-11.8987
女壻	-11.8987
又二卷	-11.8988
劉隗	-11.8988
諸種	-11.8988
為貴人	-11.8989
武靈王	-11.8989
張温	-11.899
犯罪	-11.899
府參軍	-11.8991
未報	-11.8992
水之上	-11.8994
三郤	-11.8994
元顥	-11.8995
未知所	-11.8996
近日	-11.8998
軍校	-11.9001
歸魯	-11.9005
隋文	-11.9006
苗裔	-11.9009
横行	-11.9009
輔導	-11.9009
知杭州	-11.9011
龍泉	-11.9012
集賢	-11.9014
僭位	-11.9015
後将軍	-11.9015
殺害	-11.9015
親黨	-11.9017
三墳	-11.9019
招致	-11.9019
假令	-11.9023
哀樂	-11.9023
薨諡	-11.9023
一百八十	-11.9027
大漸	-11.9029
二百人	-11.9029
肖	-11.903
遼人	-11.9034
五千里	-11.9037
贈司徒	-11.9037
周顗	-11.9039
公及諸侯	-11.9041
下有司	-11.9041
楚令尹	-11.9042
列女	-11.9044
慕容氏	-11.9044
驪山	-11.9045
馬歩	-11.9046
昭昭	-11.9046
六十一	-11.9048
遂自殺	-11.9049
不能克	-11.9053
地動	-11.9055
嵗在	-11.9056
七十人	-11.9057
辰星	-11.9057
詔公卿	-11.9061
身被	-11.9066
多怨	-11.9066
軍大敗	-11.9073
親幸	-11.9075
宰臣	-11.9075
四十餘萬	-11.9078
不得過	-11.9078
地圖	-11.9079
遂殺之	-11.9079
名節	-11.9084
躬耕	-11.9085
淸	-11.9087
解圍	-11.9087
中㫖	-11.9087
揚威	-11.9088
暘	-11.909
琅	-11.909
狷	-11.9092
学	-11.9094
連戰	-11.9094
荆山	-11.9094
鄭注	-11.9094
慼	-11.9094
太極前殿	-11.9095
吊	-11.9095
介幘	-11.9096
州軍事	-11.9097
帝許之	-11.9097
觚	-11.9097
矧	-11.9098
䁀	-11.9098
申明	-11.9099
室家	-11.9099
穫	-11.9099
楚大夫	-11.91
􁄂	-11.91
鈐	-11.9101
拱辰	-11.9101
刷	-11.9102
往来	-11.9102
逕	-11.9102
湼	-11.9102
璇	-11.9103
范曄	-11.9103
盻	-11.9103
郟敖	-11.9103
如魯聘	-11.9103
納哈出	-11.9103
彜	-11.9104
大理評事	-11.9104
垂涕	-11.9105
净	-11.9105
曷為	-11.9105
莋	-11.9106
勢傾	-11.9106
顙	-11.9106
隋煬帝	-11.9106
薊州	-11.9107
不受命	-11.9107
四星在	-11.9107
踣	-11.9107
告人曰	-11.9108
棒	-11.9109
礼部尚書	-11.911
提婆	-11.911
道不拾遺	-11.911
沮渠䝉遜	-11.911
闌	-11.9112
槨	-11.9112
中吕	-11.9113
酸棗	-11.9113
濟北王	-11.9113
一歲	-11.9116
宇文泰	-11.9117
涽王	-11.9117
移宫	-11.9118
子亹	-11.9119
新建	-11.912
有功者	-11.912
蜂起	-11.912
莊襄王	-11.9121
最知名	-11.9121
著姓	-11.9121
豪桀	-11.9121
副元帥	-11.9122
為郡吏	-11.9122
侯瑱	-11.9123
張邦昌	-11.9123
錄尚書	-11.9124
玉璽	-11.9124
翟璜	-11.9125
定律令	-11.9125
年月	-11.9126
鄉邑	-11.9127
援琴	-11.9127
金印	-11.9127
陳謝	-11.9128
從父弟	-11.913
三級	-11.913
詣廷尉	-11.9131
者多矣	-11.9131
封其子	-11.9131
愚謂	-11.9132
明月	-11.9132
漢川	-11.9132
許由	-11.9133
東面	-11.9136
時人以為	-11.9137
城隍	-11.9137
城成周	-11.9139
宗親	-11.914
赤心	-11.9141
歸報	-11.9141
此兒	-11.9143
蒲城	-11.9145
不能盡	-11.9147
突圍	-11.9147
代孫	-11.9149
斯言	-11.9149
宫闕	-11.9152
閭邱	-11.9152
同里	-11.9153
母病	-11.9155
擇其	-11.9155
不荅	-11.9157
有政績	-11.9158
臨清	-11.9159
十餘嵗	-11.9161
為之請	-11.9163
薨無子	-11.9163
賢君	-11.9163
内寵	-11.9164
拜郎中	-11.9166
孝義	-11.9167
奏記	-11.9168
皇覽	-11.9172
聲名	-11.9173
大綱	-11.9175
厚禮	-11.9176
六畜	-11.9178
以懲	-11.9179
喪還	-11.918
牛車	-11.918
炳之	-11.918
田疇	-11.9183
隋初	-11.9184
康成注	-11.9184
王濬	-11.9184
五教	-11.9186
被髪	-11.9186
叔姬	-11.9187
晚年	-11.9189
華州刺史	-11.9189
交游	-11.919
白狄	-11.9191
皇女	-11.9195
解衣	-11.9199
義陽王	-11.9203
遣騎	-11.9203
五藏	-11.9203
遣使請	-11.9206
譖之	-11.9207
博通	-11.9207
非獨	-11.9208
清節	-11.9208
以上皆	-11.921
春秋左氏	-11.9211
積石	-11.9213
輿馬	-11.922
五十五	-11.9221
更衣	-11.9221
范雲	-11.9222
疑獄	-11.9223
子澄	-11.9223
公子棄疾	-11.9223
荆人	-11.9224
聘於	-11.9227
禪師	-11.9228
寡婦	-11.9231
思歸	-11.9232
文明太后	-11.9232
愛士	-11.9234
瀛州刺史	-11.9236
大匠	-11.9237
荒服	-11.9238
遷徙	-11.9238
教訓	-11.9239
語之曰	-11.9242
重熙	-11.9244
隋開皇	-11.9247
乾元	-11.9247
七十六	-11.9255
一人掌	-11.9256
衡州	-11.926
入寇	-11.9261
兵威	-11.9268
親舊	-11.9268
言笑	-11.9269
㑹赦	-11.9269
郅支	-11.9269
病甚	-11.9273
鏃	-11.9273
與之同	-11.9273
騰蛟	-11.9274
五湖	-11.9275
草書	-11.9276
周大夫	-11.9278
黁	-11.9278
豸	-11.9279
碣	-11.9279
畮	-11.9279
姦宄	-11.928
揚聲	-11.928
礟	-11.9282
煽	-11.9282
祅	-11.9282
帳中	-11.9283
祓	-11.9284
器服	-11.9285
帖木真	-11.9285
櫛	-11.9285
持節都督	-11.9286
鉛	-11.9286
五兵尚書	-11.9286
葆	-11.9287
筴	-11.9287
阼	-11.9288
拏	-11.9288
賀若弼	-11.9288
邯郸	-11.9288
襲父爵	-11.9288
耿弇	-11.9289
贅	-11.9289
鍜	-11.929
菌	-11.929
逈	-11.929
迸	-11.929
菁	-11.929
掉	-11.9291
煇	-11.9291
汲黯	-11.9292
魚鼈	-11.9292
筐	-11.9293
樊噲	-11.9293
櫬	-11.9294
佾	-11.9294
眄	-11.9294
顆	-11.9295
鎰	-11.9295
北郭	-11.9295
邰	-11.9296
䆳	-11.9297
孝孺	-11.9297
掇	-11.9297
鬢	-11.9298
勿令	-11.9299
新林	-11.93
賊黨	-11.9301
者不可勝數	-11.9302
宣仁后	-11.9302
去聲	-11.9304
此二人	-11.9304
晢	-11.9304
侣	-11.9305
槐里	-11.9306
呉漢	-11.9306
不可奪	-11.9307
蜡	-11.9308
武川	-11.9309
匕首	-11.931
嬖人	-11.9311
互市	-11.9312
矯㫖	-11.9313
昊天	-11.9315
公子糾	-11.9315
郢城	-11.9316
蕭幹	-11.9319
而封之	-11.932
首惡	-11.932
戍主	-11.9321
臨汝	-11.9323
方從哲	-11.9323
瓦解	-11.9324
愚者	-11.9325
汶山	-11.9328
鄙人	-11.9332
韓宣子	-11.9332
休範	-11.9333
所不及	-11.9334
達奚	-11.9334
以文章	-11.9335
於陣	-11.9336
唐志	-11.9337
太后太后	-11.9337
湟中	-11.9339
永徽	-11.934
寢廟	-11.9341
良吏	-11.9341
謁者僕射	-11.9347
海濵	-11.9348
凝之	-11.9349
記二卷	-11.935
風雲	-11.9353
周廸	-11.9353
百倍	-11.9353
痛惜	-11.9355
臣願陛下	-11.9356
良嗣	-11.9356
曰臣聞之	-11.9357
立春	-11.9357
報怨	-11.9358
長七尺	-11.9359
秦孝公	-11.936
應接	-11.936
膠西	-11.936
再傳	-11.9363
者以其	-11.9365
此臣之所	-11.9368
懐敏	-11.9369
非特	-11.937
樓上	-11.9372
瑯琊王	-11.9377
開皇中	-11.9379
頓首曰	-11.9381
匡救	-11.9381
後園	-11.9381
田乞	-11.9381
薨贈	-11.9383
東走	-11.9383
良佐	-11.9386
表薦	-11.9387
徳勝	-11.9388
兵五千	-11.9388
天下之心	-11.9389
濟州	-11.939
帝不從	-11.9396
進擊	-11.9396
水泉	-11.94
求退	-11.94
二州諸軍事	-11.9401
騎馬	-11.9402
右司馬	-11.9402
嵩山	-11.9403
依漢	-11.9406
悉衆	-11.9406
相印	-11.9409
定陶王	-11.9411
佛法	-11.9411
修理	-11.9412
𤓰州	-11.9414
動衆	-11.9417
都鄉侯	-11.9418
殿省	-11.9418
薦舉	-11.9419
上大將軍	-11.9421
享國	-11.9421
二百萬	-11.9421
三十日	-11.9423
四十一年	-11.9423
海州	-11.9424
馳還	-11.9427
華夏	-11.9427
歸第	-11.9433
滎	-11.9436
還鎮	-11.9437
委政	-11.9438
公子圍	-11.944
北廵	-11.9441
朕躬	-11.9443
五斛	-11.9444
上不許	-11.9448
為上卿	-11.9452
呼延	-11.9453
六十萬	-11.9454
立為太子	-11.9457
寧陵	-11.9457
隆禮	-11.946
吴郡	-11.9462
於南郊	-11.9465
走出	-11.9465
事迹	-11.9467
斡	-11.9468
畯	-11.9468
数人	-11.9469
逆謀	-11.947
攀龍	-11.9473
蒲州	-11.9473
咲	-11.9474
為琅邪王	-11.9475
晦日有蝕之	-11.9476
祖約	-11.9476
邊郡	-11.9476
韓愈	-11.9477
彝	-11.9477
洺	-11.9478
太蔟	-11.9478
劉永	-11.9479
楚成王	-11.9479
嫪毐	-11.948
顕	-11.948
葭	-11.948
棐	-11.948
寥	-11.948
衾	-11.948
鬯	-11.9481
鸚鵡	-11.9481
州團練副使	-11.9481
灸	-11.9481
笠	-11.9482
萬餘級	-11.9482
杵	-11.9482
毐	-11.9482
鳶	-11.9483
思話	-11.9483
膏腴	-11.9483
庻吉士	-11.9485
酤	-11.9485
蘿	-11.9485
稽顙	-11.9485
跖	-11.9485
个	-11.9486
大將軍梁冀	-11.9487
驃騎大将軍開府儀同三司	-11.9488
渢	-11.9489
姞	-11.949
淖	-11.949
帑藏	-11.949
慠	-11.949
不悛	-11.9492
瘦	-11.9493
飛龍	-11.9493
㒷	-11.9493
幽冀	-11.9493
藺相如	-11.9493
倐	-11.9493
泣涕	-11.9494
子孫以國為氏	-11.9494
身長七尺	-11.9494
録事參軍	-11.9494
羽林監	-11.9496
弗得	-11.9496
滬	-11.9497
皇后父	-11.9501
三百餘人	-11.9501
至江陵	-11.9501
突入	-11.9502
墳籍	-11.9504
被髮	-11.9504
條奏	-11.9505
之甚也	-11.9506
曹郎	-11.9507
長江	-11.9508
固辭不受	-11.9508
鹽池	-11.9508
東甌	-11.9509
政理	-11.951
譏其	-11.9511
侍中領	-11.9512
與其弟	-11.9513
無恨	-11.9514
宜都	-11.9515
保吉	-11.9515
家僮	-11.9516
南北郊	-11.9517
乙弗	-11.9517
盟誓	-11.952
卑辭	-11.9522
蠲除	-11.9522
枝江	-11.9524
離石	-11.9524
廣陵太守	-11.9525
第宅	-11.9526
共工氏	-11.9526
中書門下	-11.9527
貧人	-11.9527
居巢	-11.9531
使副	-11.9533
田成子	-11.9535
静帝	-11.9536
豫讓	-11.9537
流涕曰	-11.9537
天下莫不	-11.9538
義勇	-11.9538
梟首	-11.9539
弗聼	-11.9539
貴幸	-11.9539
夫妻	-11.9541
嶺表	-11.9545
徴舒	-11.9547
金幣	-11.9547
羣臣議	-11.9548
諸兄	-11.9549
遣使詣	-11.955
外援	-11.9551
使公孫	-11.9553
甚悦	-11.9554
屯聚	-11.9556
孝弟	-11.9557
閩中	-11.9557
龍興	-11.9557
諸侯伐鄭	-11.956
五萬人	-11.9562
𢎞微	-11.9563
諺	-11.9566
司宼	-11.9566
馳赴	-11.957
伐越	-11.957
居攝	-11.9571
桓榮	-11.9575
諸侯諸侯	-11.9575
成康	-11.9576
不乏	-11.9578
忽見	-11.9581
左都督	-11.9581
帝嘉之	-11.9581
大儒	-11.9582
易牙	-11.9584
節義	-11.9584
謙讓	-11.9587
陽處父	-11.9588
聽命	-11.959
尚書吏部郎	-11.9594
大罵	-11.9595
制服	-11.9597
長三尺	-11.9599
予一人	-11.96
咸寕	-11.9601
門戸	-11.9603
庶政	-11.9603
樊城	-11.9605
十一人	-11.9607
六十三	-11.9607
楊忠	-11.9613
何足以	-11.9614
東昌	-11.9614
老父	-11.9618
明察	-11.9618
何容	-11.9618
微行	-11.9619
擊鼓	-11.9621
行臺尚書	-11.9626
少游	-11.963
北向	-11.9632
田恒	-11.9632
諱改	-11.9635
襄邑	-11.9637
任尚	-11.964
雷霆	-11.9641
震怒	-11.9643
連結	-11.9643
昭徳	-11.9644
曰昨	-11.9644
白首	-11.9644
承嗣	-11.9647
刎	-11.9648
危懼	-11.9649
謹厚	-11.9649
丁母憂	-11.9651
渦	-11.9652
不飲酒	-11.9655
加罪	-11.9657
九十六	-11.9657
麒	-11.9659
兼并	-11.9659
風后	-11.966
閫	-11.966
洸	-11.9665
邘	-11.9666
諫止	-11.9667
卷三十	-11.9668
無忘	-11.9668
時則有	-11.9669
靴	-11.967
墅	-11.967
桶	-11.9671
喇	-11.9671
閘	-11.9671
崇信	-11.9671
金章紫綬	-11.9672
釜	-11.9672
天下亂	-11.9672
長沙王乂	-11.9673
畎	-11.9674
坐誅	-11.9674
問左右	-11.9674
鶉	-11.9675
㑹稽王道子	-11.9676
造次	-11.9677
椒房	-11.9677
四十五年	-11.9677
暖	-11.9678
窶	-11.9678
壙	-11.9678
新昌	-11.9678
運糧	-11.9678
縋	-11.9678
十分	-11.9678
値	-11.9678
葭萌	-11.9679
柤	-11.9679
蛾	-11.9679
泫	-11.9679
皇妣	-11.9679
頎	-11.968
搢紳	-11.9681
溝壑	-11.9681
勗	-11.9681
紺	-11.9681
吕公著	-11.9682
見而竒之	-11.9682
殷仲堪	-11.9682
紈	-11.9683
鍊	-11.9683
征北將軍	-11.9683
栁元景	-11.9683
娣	-11.9684
璡	-11.9684
屬國都尉	-11.9684
氓	-11.9685
軍諮祭酒	-11.9685
建儲	-11.9685
萬數	-11.9685
姥	-11.9686
染干	-11.9686
浙東	-11.9686
者百餘人	-11.9686
奚斤	-11.9686
清簡	-11.9687
毁瘠	-11.9688
杜佑	-11.9688
五銖錢	-11.9688
孝㢘	-11.9688
嚢	-11.9688
交章	-11.969
宣㫖	-11.9691
披靡	-11.9691
面縛	-11.9691
列為諸侯	-11.9691
宗正卿	-11.9693
太府卿	-11.9694
公孫瓚	-11.9694
配饗	-11.9694
神宗即位	-11.9695
遭母憂	-11.9695
疏言	-11.9696
㑹稽内史	-11.9696
奉祠	-11.9697
寗喜	-11.9698
閶	-11.9699
京師地震	-11.97
致祭	-11.9701
數百騎	-11.9703
叛臣	-11.9704
軍務	-11.9705
浚儀	-11.9706
洛州	-11.9707
燕雲	-11.9707
孤寡	-11.9707
以為功	-11.9708
荆蠻	-11.9708
儒士	-11.9711
史記世家	-11.9711
東廵	-11.9713
地皇	-11.9714
威靈	-11.9715
爾朱氏	-11.9716
兩浙	-11.9717
辭色	-11.9717
資産	-11.9719
仲德	-11.9719
栁城	-11.972
義興太守	-11.972
遵謙	-11.9723
陳留太守	-11.9729
奔潰	-11.9731
令僕	-11.9732
隊主	-11.9733
地理志	-11.9733
於太廟	-11.9734
范不載	-11.9737
萬世之	-11.9737
全活	-11.9738
府藏	-11.9739
北土	-11.9741
國體	-11.9741
來歙	-11.9742
姓纂云	-11.9742
使於齊	-11.9742
李憲	-11.9744
巨萬	-11.9744
星隕	-11.9746
所生母	-11.9746
九寸	-11.9749
陪臣	-11.9749
都市	-11.975
嫁女	-11.9753
夢陽	-11.9764
石乞	-11.9766
建安王	-11.9768
殺掠	-11.9771
貽書	-11.9773
之謂乎	-11.9776
諸姬	-11.9776
甲仗	-11.9777
景宣	-11.9781
被創	-11.9782
高車	-11.9783
智力	-11.9784
考察	-11.9785
賊勢	-11.9787
阜陵	-11.9788
甚嚴	-11.9788
早亡	-11.9793
不敢動	-11.9794
忠彦	-11.9795
采石	-11.9797
孫峻	-11.9798
歎服	-11.98
懼禍	-11.9801
縣西北	-11.9803
離宫	-11.9804
良史	-11.9805
告老	-11.9806
為中書侍郎	-11.9808
百辟	-11.9809
譙國	-11.9811
四塞	-11.9812
西川	-11.9812
于鄴	-11.9817
素善	-11.9818
南臺	-11.9819
六十七	-11.982
而不知其	-11.9821
甘陵	-11.9821
荘帝	-11.9821
仲叔	-11.9825
以功進	-11.9825
昌邑王	-11.9826
卒諡	-11.9827
剛毅	-11.9827
問其故對曰	-11.9828
忌諱	-11.9829
西鄉	-11.9829
羣神	-11.9832
不惑	-11.9833
世蕃	-11.9834
交廣	-11.9835
十萬之衆	-11.9836
曰美哉	-11.9839
抗表	-11.9843
馳道	-11.9849
權衡	-11.985
聖母	-11.985
哀慟	-11.9852
門下省	-11.9853
糧運	-11.9853
命左右	-11.9854
友愛	-11.9856
敬憚	-11.986
未到	-11.986
穆侯	-11.9861
修身	-11.9861
甚見親	-11.9861
聲譽	-11.9862
右都御史	-11.9864
新除	-11.9865
駑	-11.9867
布政司	-11.9867
莒邾	-11.9869
袂	-11.9869
悶	-11.987
耴	-11.9871
宋蕭常撰	-11.9872
癰	-11.9872
宇宙	-11.9872
皁	-11.9872
甑	-11.9873
墩	-11.9874
犄角	-11.9874
珝	-11.9875
㳫	-11.9875
讟	-11.9875
平東將軍	-11.9875
司馬彪	-11.9875
孝經論語	-11.9876
难	-11.9877
崤	-11.9877
緹騎	-11.9877
醜奴	-11.9878
歹	-11.9878
系本	-11.9878
咸陽王禧	-11.9878
朱雀	-11.9879
沍	-11.988
百餘年	-11.988
籕	-11.988
螭	-11.988
槁	-11.988
茨	-11.9881
硯	-11.9881
十有七	-11.9881
徘徊	-11.9881
琢	-11.9882
㗖	-11.9882
嗚咽	-11.9882
庠序	-11.9882
俳	-11.9882
四海之内	-11.9883
䍐	-11.9883
腕	-11.9883
貝勒	-11.9884
弋仲	-11.9884
三年正月	-11.9884
通五經	-11.9886
茵	-11.9887
眞宗即位	-11.9887
皇長子	-11.9887
据	-11.9887
黥布	-11.9887
清河王懌	-11.9887
蓄積	-11.9888
伯茂	-11.9888
錄事參軍	-11.9888
鮮卑寇	-11.9889
繢	-11.989
倉廩	-11.989
羽葆	-11.9891
崩弟	-11.9891
上疏曰臣聞	-11.9892
大戴禮	-11.9893
免冠	-11.9893
鴻臚卿	-11.9894
以他事	-11.9895
嘆息	-11.9897
穆皇后	-11.9898
愕然	-11.9898
扵此	-11.9899
㢘頗	-11.99
狐突	-11.99
驅馳	-11.99
拜散騎常侍	-11.99
積官至	-11.9901
祥瑞	-11.9901
六年春	-11.9902
元勲	-11.9902
博物志	-11.9903
宋孝武	-11.9903
叔虞	-11.9904
羊酒	-11.9904
辭甚	-11.9905
公子騑	-11.9906
夏姬	-11.9907
渠彌	-11.9908
急務	-11.9909
大理卿	-11.9909
言事者	-11.9909
衆十餘萬	-11.991
太祝	-11.9911
孝成王	-11.9911
廬舍	-11.9911
凡七	-11.9912
卒于家	-11.9913
二百石	-11.9913
臧質	-11.9913
有此姓	-11.9913
按原書作	-11.9914
衛尉卿	-11.9915
帝踐阼	-11.9915
萬餘口	-11.9916
職貢	-11.9916
何忌	-11.9917
齊伐魯	-11.992
巫咸	-11.9921
滄海	-11.9922
通顯	-11.9924
自贖	-11.9926
驕人	-11.9932
不奉詔	-11.9933
為元帥	-11.9933
潰圍	-11.9935
桓謙	-11.9935
踰城	-11.9935
滑州	-11.9945
窮治	-11.9945
楊彪	-11.9946
升堂	-11.9947
為祟	-11.995
霍山	-11.9951
私通	-11.9953
食采於	-11.9954
妾聞	-11.9957
稱萬嵗	-11.996
魯桓公	-11.996
氏有二	-11.9963
五十一年	-11.9964
其所長	-11.9964
疑惑	-11.9964
重賞	-11.9966
殿最	-11.9966
嘗夢	-11.9967
領縣二	-11.9967
司馬師	-11.997
惠伯	-11.997
子囊	-11.9971
胥臣	-11.9973
侵蔡	-11.9974
累擢	-11.9974
慰諭	-11.9976
字巨	-11.9977
青山	-11.9978
崇勲	-11.9979
朱序	-11.9979
報聘	-11.9981
為河南尹	-11.9984
孔子聞之曰	-11.9984
惠開	-11.9986
擢拜	-11.9987
冉閔	-11.9988
反側	-11.9989
仇讐	-11.9992
行陣	-11.9992
和好	-11.9994
以為憂	-11.9994
景素	-11.9996
封泰山	-11.9996
甚敬	-11.9996
誤矣	-11.9997
不湏	-11.9997
竊謂	-12.0005
孝緒	-12.0006
四十九年	-12.0009
帝笑曰	-12.0011
請謁	-12.0014
淮南太守	-12.0015
百五十里	-12.0015
重幣	-12.0023
躬行	-12.0027
等五人	-12.003
恐不能	-12.0031
絳侯	-12.0033
元嘉中	-12.0034
季歴	-12.0034
伐木	-12.0035
加開府	-12.0038
何故對曰	-12.0039
惟恐	-12.004
奔梁	-12.0042
牀下	-12.0043
時人稱	-12.0048
勇敢	-12.0049
鳯皇	-12.0051
科舉	-12.0053
濙	-12.0054
昌朝	-12.0055
弔祭	-12.0057
外紀	-12.0058
張角	-12.0061
高廟	-12.0061
久留	-12.0061
文翰	-12.0063
明年復	-12.0064
又五日	-12.0064
辭謝	-12.0065
河右	-12.0065
夾鐘	-12.0066
還洛	-12.0066
其可乎	-12.0067
妣	-12.0069
文武官	-12.0071
罪狀	-12.0072
罟	-12.0074
凛	-12.0076
逢吉	-12.0076
龍圖閣待制	-12.0077
蹴	-12.0078
緜竹	-12.0078
躭	-12.0078
孳	-12.0078
賈昌朝	-12.0079
隣國	-12.0079
魯仲連	-12.0079
聪	-12.0079
舊都	-12.008
郳	-12.008
罔上	-12.008
戊巳校尉	-12.0081
氂	-12.0081
芟	-12.0081
詿誤	-12.0081
悽	-12.0081
釀	-12.0081
刅	-12.0081
舡	-12.0081
躓	-12.0082
不減	-12.0082
十有四	-12.0083
桎梏	-12.0083
欽定四庫全書補歴代史表卷	-12.0083
𨗳	-12.0083
現	-12.0083
楚滅之	-12.0084
肴	-12.0084
甘粛	-12.0084
武王克商	-12.0085
動揺	-12.0086
謠	-12.0086
桂陽王休範	-12.0086
燁	-12.0086
問焉曰	-12.0088
何晏	-12.0088
張衡云	-12.0088
齕	-12.0088
别部	-12.0088
以老病	-12.0088
為太子時	-12.0089
新附	-12.0089
遣其子	-12.009
詳議	-12.0091
蒜	-12.0091
緤	-12.0091
琚	-12.0092
威烈王	-12.0092
指麾	-12.0092
到彦之	-12.0093
凡三十	-12.0094
掌書記	-12.0095
逆戰	-12.0095
開元禮	-12.0095
逃竄	-12.0095
無諱	-12.0096
侈靡	-12.0097
楊元感	-12.0098
一無所受	-12.0098
飢寒	-12.0099
萬餘騎	-12.0099
五采	-12.0101
尊重	-12.0102
林木	-12.0103
拂衣	-12.0104
莫得	-12.0105
處耘	-12.0105
僧綽	-12.0105
報聞	-12.0106
廷麟	-12.0106
姑熟	-12.0106
全軍	-12.0106
庶事	-12.0109
僧祐	-12.0109
力屈	-12.011
譬猶	-12.011
元兇	-12.0111
不可不察	-12.0111
公子重耳	-12.0114
郤氏	-12.0114
籍其家	-12.0115
商鞅	-12.0118
玩好	-12.0119
郭黙	-12.0119
擇日	-12.012
嫌疑	-12.012
横江	-12.0121
程嬰	-12.0122
將下軍	-12.0124
華歆	-12.0124
錫爵	-12.0125
咸熙	-12.0126
聞喜	-12.0126
白溝	-12.0126
若訥	-12.0127
逃去	-12.0131
陶謙	-12.0131
古人有言	-12.0132
歩卒	-12.0133
曹芳	-12.0135
以女妻	-12.0136
公會諸侯	-12.0136
牲用	-12.0136
厲聲曰	-12.0137
車裂	-12.0138
支孫	-12.0138
豈宜	-12.0139
至于今	-12.014
乃歎曰	-12.0141
臨陣	-12.0143
出遊	-12.0144
太子舎人	-12.0144
八座	-12.0146
惜哉	-12.0146
聚徒	-12.0147
赴闕	-12.0148
夀州	-12.0151
食采	-12.0152
荆湖	-12.0152
隴西太守	-12.0154
妄矣	-12.0159
立為王	-12.0163
畏威	-12.0167
政化	-12.0167
入覲	-12.0167
飲馬	-12.0168
郎吏	-12.0173
京兆人	-12.0173
平凉	-12.0175
遣使獻	-12.0176
決一卷	-12.0177
鄉曲	-12.0179
上尊號曰	-12.018
周勃	-12.0184
文帝即位	-12.0185
勤學	-12.0186
祝史	-12.019
莫可	-12.019
朕心	-12.0191
應鍾	-12.0192
于王城	-12.0192
曲江	-12.0193
公子公子	-12.0194
誣奏	-12.0204
靈寳	-12.0204
移居	-12.0204
為司𨽻校尉	-12.0205
特賜	-12.0207
諸侯㑹	-12.0209
四年春二月	-12.021
劉繇	-12.0211
尉氏	-12.0213
諡曰武	-12.0217
濟隂王	-12.0219
短兵	-12.0219
酣飲	-12.0225
參軍事	-12.0232
司農卿	-12.0233
河南太守	-12.0236
單伯	-12.0236
唐僧	-12.0238
桓帝時	-12.0239
不然則	-12.024
妻王氏	-12.0242
任城王	-12.025
自效	-12.025
[...]
