<unk>	0
<s>	0
</s>	0
/	-3.6427
也	-3.73319
之	-3.90446
(	-4.30476
)(	-4.34964
)	-4.37598
而	-4.41732
以	-4.62692
者	-4.80818
為	-4.85169
則	-4.90491
其	-4.98895
有	-5.12499
曰	-5.13692
言	-5.23547
於	-5.49419
不	-5.49556
故	-5.50066
反	-5.50755
○	-5.52409
是	-5.62979
此	-5.68531
矣	-5.70409
謂	-5.72477
音	-5.72908
云	-5.76268
與	-5.77951
無	-5.8393
如	-5.92074
于	-5.942
人	-5.95451
皆	-5.99938
亦	-6.05591
然	-6.06122
大	-6.11041
自	-6.12327
在	-6.16159
一	-6.16534
又	-6.18624
▁	-6.20016
作	-6.20929
非	-6.20951
王	-6.21921
乎	-6.31423
所	-6.32669
子	-6.33556
見	-6.3498
至	-6.35238
今	-6.38719
乃	-6.42138
我	-6.43219
即	-6.43289
爲	-6.45158
詩	-6.46317
上	-6.50258
時	-6.54863
猶	-6.55081
同	-6.5687
耳	-6.58009
行	-6.59717
既	-6.60585
下	-6.60592
用	-6.62794
及	-6.63947
中	-6.6562
以為	-6.6574
當	-6.67257
已	-6.68472
事	-6.69427
生	-6.69705
得	-6.70239
正	-6.71363
焉	-6.77565
相	-6.78043
所以	-6.7954
天	-6.82534
能	-6.83038
必	-6.83239
君	-6.83248
可	-6.83447
若	-6.84748
傳	-6.85646
禮	-6.85781
從	-6.86402
出	-6.86603
國	-6.87055
使	-6.87308
周	-6.87803
本	-6.88041
字	-6.88068
雖	-6.88438
文	-6.88446
成	-6.88819
樂	-6.89584
民	-6.90337
多	-6.90526
三	-6.91224
或	-6.92147
所謂	-6.93387
明	-6.93721
後	-6.94201
名	-6.96779
將	-6.97423
文王	-6.97777
女	-6.98515
始	-6.98633
叶	-7.00132
諸侯	-7.00289
居	-7.01531
何	-7.02207
謂之	-7.02363
知	-7.03562
方	-7.03612
爾	-7.03912
命	-7.04389
意	-7.04842
公	-7.05124
夫	-7.05369
小	-7.06437
之意	-7.06763
水	-7.06907
二	-7.07251
實	-7.0892
説	-7.08958
彼	-7.11061
來	-7.11234
止	-7.11572
日	-7.12519
取	-7.12588
且	-7.13014
欲	-7.13098
思	-7.13227
義	-7.14396
古	-7.14424
心	-7.14828
蓋	-7.14861
長	-7.16177
興	-7.16541
五	-7.16721
聲	-7.16944
君子	-7.17326
序	-7.17924
惟	-7.17978
哉	-7.181
篇	-7.19417
道	-7.19428
先	-7.21256
稱	-7.21717
/)	-7.22064
如此	-7.23083
因	-7.23114
物	-7.23171
善	-7.23644
服	-7.23986
去	-7.24472
處	-7.24584
未	-7.25055
似	-7.25259
)○	-7.25979
食	-7.26293
美	-7.26691
切	-7.2734
合	-7.27344
地	-7.27903
立	-7.28178
之事	-7.29033
祭	-7.29746
是也	-7.3071
山	-7.30938
韻	-7.32037
馬	-7.32743
不能	-7.32961
安	-7.33102
入	-7.33481
四	-7.34446
此詩	-7.36256
天子	-7.36811
齊	-7.36958
主	-7.37301
而不	-7.37517
復	-7.38072
鄭	-7.3845
但	-7.39444
賦也	-7.39601
兮	-7.4039
好	-7.41025
陳	-7.41118
世	-7.41464
車	-7.41818
不可	-7.42075
通	-7.42947
指	-7.42983
風	-7.434
臣	-7.43405
歸	-7.43417
宜	-7.44272
遂	-7.44996
注	-7.46264
重	-7.46455
氏	-7.4727
常	-7.47856
田	-7.48236
周公	-7.48347
徳	-7.48375
木	-7.48759
白	-7.49341
葢	-7.5005
亂	-7.50107
而已	-7.5157
魚	-7.52284
師	-7.52616
凡	-7.53487
士	-7.53536
解	-7.54053
之時	-7.55005
六	-7.55056
疏	-7.55069
甚	-7.55127
經	-7.55632
說	-7.55775
求	-7.56707
東	-7.57233
力	-7.5748
維	-7.57725
朝	-7.57733
易	-7.57747
言其	-7.57765
直	-7.57972
前	-7.58076
舉	-7.58235
平	-7.58301
武王	-7.58557
南	-7.58709
▁(	-7.58743
逺	-7.59051
刺	-7.60049
賦	-7.60632
大夫	-7.60642
治	-7.60922
,	-7.61159
衆	-7.61252
盛	-7.61307
之詩	-7.61471
燕	-7.62217
者也	-7.62525
夏	-7.62656
親	-7.62797
可以	-7.63078
毛	-7.63261
陽	-7.6353
草	-7.6378
載	-7.63814
書	-7.64024
比	-7.64202
定	-7.64794
盡	-7.64937
語	-7.64981
固	-7.65408
深	-7.65427
盖	-7.6545
家	-7.65897
章	-7.65944
成王	-7.65971
黄	-7.66063
武	-7.66512
外	-7.66791
終	-7.68317
分	-7.68975
侯	-7.69324
異	-7.69395
受	-7.69998
貌	-7.70162
故曰	-7.70346
神	-7.70391
屬	-7.70503
諸	-7.70711
土	-7.70945
按	-7.7126
内	-7.71558
身	-7.72329
由	-7.72491
兩	-7.73513
歌	-7.7407
九	-7.74257
和	-7.74477
德	-7.75128
憂	-7.75332
衛	-7.75373
釋	-7.76114
尚	-7.76146
天下	-7.77619
伐	-7.77966
引	-7.78248
法	-7.79359
不得	-7.79731
别	-7.79968
信	-7.80124
爾雅	-7.80318
旣	-7.80478
獨	-7.80632
豈	-7.80664
莫	-7.8125
惡	-7.81718
疑	-7.81765
西	-7.82722
初	-7.82801
觀	-7.83056
衣	-7.83062
數	-7.83991
賢	-7.84418
共	-7.84521
魯	-7.84678
難	-7.85144
近	-7.85392
類	-7.85419
敬	-7.85489
七	-7.85549
告	-7.85962
。	-7.86169
不知	-7.86874
訓	-7.86965
發	-7.87146
辭	-7.87193
箋云	-7.87201
極	-7.87315
城	-7.87538
廣	-7.87649
之後	-7.87861
往	-7.88068
據	-7.88273
色	-7.88634
氣	-7.89105
一名	-7.89197
喻	-7.89275
死	-7.89878
葉	-7.89895
父	-7.90281
母	-7.90478
政	-7.90752
之辭	-7.90835
令	-7.90895
晉	-7.9105
孔氏曰	-7.91274
徒	-7.9156
兄弟	-7.91562
月	-7.91711
之人	-7.9233
俱	-7.92475
首	-7.92816
射	-7.93069
變	-7.93786
縣	-7.94005
至於	-7.94072
注云	-7.94125
詩人	-7.94151
尊	-7.94223
謀	-7.95704
問	-7.95919
起	-7.96194
制	-7.96319
華	-7.96784
亡	-7.97109
容	-7.97147
伯	-7.97912
斯	-7.97913
漢	-7.97953
祀	-7.98008
足	-7.98159
戒	-7.98296
酒	-7.98738
體	-7.98761
次	-7.99254
周禮	-7.99435
怨	-7.99474
致	-8.00202
商	-8.00756
殷	-8.00776
勞	-8.01272
過	-8.01571
髙	-8.0182
應	-8.01892
望	-8.02516
苦	-8.02827
視	-8.02948
予	-8.03239
備	-8.03313
年	-8.03421
流	-8.03623
封	-8.03777
考	-8.03941
殺	-8.04022
失	-8.04117
就	-8.04477
志	-8.0451
順	-8.04537
鳥	-8.04655
官	-8.04849
都	-8.04917
夫人	-8.0493
節	-8.04989
之義	-8.05068
讀	-8.05247
人之	-8.05256
設	-8.05475
赤	-8.05494
適	-8.05582
而後	-8.05689
傳曰	-8.05805
益	-8.06204
采	-8.06482
北	-8.06673
之言	-8.07127
各	-8.07131
理	-8.07135
帝	-8.07338
箋	-8.0743
左傳	-8.07556
三章	-8.07559
州	-8.07607
汝	-8.07712
春	-8.07925
論	-8.0804
度	-8.08065
少	-8.08182
興也	-8.08189
聞	-8.08341
孔	-8.08359
厚	-8.08462
象	-8.09291
秦	-8.094
門	-8.09676
教	-8.09714
頌	-8.09954
疾	-8.10157
春秋	-8.10235
之所	-8.10283
将	-8.10288
雨	-8.10363
小人	-8.10428
室	-8.11017
養	-8.11084
百	-8.11502
卒	-8.12556
河	-8.12864
進	-8.13259
舊	-8.13379
執	-8.13563
更	-8.13689
情	-8.13708
婦人	-8.1375
間	-8.13994
宣王	-8.14021
種	-8.14306
祖	-8.14362
著	-8.14827
新	-8.1504
句	-8.15328
許	-8.15649
尤	-8.15706
桑	-8.1583
愛	-8.15906
婦	-8.16034
兵	-8.16081
位	-8.16593
他	-8.16666
承	-8.1682
功	-8.16912
尸	-8.17251
説文云	-8.17345
特	-8.1747
加	-8.1747
澤	-8.17561
曲	-8.1788
張	-8.18271
申	-8.18373
獻	-8.18604
者以	-8.18875
宗	-8.18985
微	-8.19096
學	-8.19101
雅	-8.19504
秋	-8.1969
玉	-8.19836
胡	-8.19927
廟	-8.19984
右	-8.20706
左	-8.20715
降	-8.21029
十	-8.21195
隂	-8.21515
述	-8.21543
傷	-8.21547
以爲	-8.21844
之心	-8.21903
是以	-8.21924
楚	-8.22077
鳴	-8.22087
原	-8.22153
唐	-8.22937
依	-8.2319
羊	-8.24279
化	-8.24368
升	-8.24604
口	-8.24879
己	-8.25566
於是	-8.26067
廢	-8.26167
一章	-8.26325
吾	-8.26468
夷	-8.26487
薄	-8.26511
交	-8.26593
㑹	-8.2668
鼓	-8.26704
此章	-8.26733
動	-8.27104
其所	-8.27514
父母	-8.27525
不敢	-8.27817
嘗	-8.2822
翻	-8.2856
賢者	-8.28686
火	-8.29175
戎	-8.29241
二章	-8.29403
餘	-8.29433
衞	-8.29447
也箋云	-8.29466
言之	-8.29752
之地	-8.29884
宋	-8.30133
之間	-8.30226
修	-8.3064
飛	-8.30732
牛	-8.30938
朱	-8.30995
御	-8.31303
性	-8.32064
遷	-8.32068
俗	-8.32169
孝	-8.32232
邑	-8.32344
目	-8.32368
恐	-8.3239
弓	-8.32811
病	-8.32868
徐	-8.33239
老	-8.33404
四方	-8.3345
具	-8.33579
不同	-8.33602
星	-8.3374
集	-8.33897
説文	-8.34074
而無	-8.3418
飲	-8.34474
繼	-8.34743
報	-8.34857
而言	-8.35036
然則	-8.35119
誠	-8.35142
唯	-8.35156
之道	-8.35388
舞	-8.35443
喜	-8.35448
元	-8.35507
念	-8.35554
鄭氏曰	-8.35555
集傳	-8.35758
之説	-8.3588
任	-8.36111
克	-8.36123
朱子	-8.36539
八	-8.36557
改	-8.36572
然後	-8.36739
絶	-8.36857
詳	-8.3714
宫	-8.37197
聖人	-8.37344
感	-8.3748
𫝊	-8.37511
助	-8.37577
職	-8.37609
並	-8.37854
要	-8.37874
畢	-8.38026
至于	-8.3814
被	-8.38292
皮	-8.38304
淫	-8.38622
又曰	-8.38734
無所	-8.38803
石	-8.39221
守	-8.39344
對	-8.39825
后稷	-8.39994
息	-8.40556
久	-8.40788
記	-8.4094
存	-8.41062
愚按	-8.41311
以下	-8.41535
幽王	-8.41593
此言	-8.41623
也言	-8.42081
賔	-8.42299
飾	-8.42365
辨	-8.42587
呼	-8.42679
之禮	-8.42752
兼	-8.42868
小雅	-8.43124
故以	-8.43194
首章	-8.43229
龍	-8.43283
羣	-8.43373
有所	-8.43397
青	-8.43656
湯	-8.43823
昭	-8.43831
期	-8.4394
卷	-8.44043
享	-8.4422
爵	-8.44353
利	-8.44463
太	-8.44481
建	-8.44677
叔	-8.44875
純	-8.44975
清	-8.44995
先王	-8.4515
之中	-8.45193
敗	-8.45262
留	-8.45336
配	-8.45377
顧	-8.45394
質	-8.45438
况	-8.45726
郊	-8.45802
毛傳	-8.46005
害	-8.46133
也此	-8.46182
私	-8.46515
誤	-8.4652
遺	-8.46883
周之	-8.46945
全	-8.47041
保	-8.47068
積	-8.47146
寧	-8.4734
冬	-8.47887
總	-8.47925
角	-8.48184
也故	-8.48242
見其	-8.48433
歟	-8.48487
民之	-8.48533
毛氏曰	-8.48634
畏	-8.48738
末	-8.48956
率	-8.49107
為之	-8.49206
勝	-8.49362
里	-8.49431
嵗	-8.49628
光	-8.49717
附	-8.49838
福	-8.49885
野	-8.49906
豐	-8.50141
待	-8.50179
皇	-8.50196
滅	-8.50307
强	-8.50524
責	-8.50619
羽	-8.50622
器	-8.50963
軍	-8.51366
還	-8.51412
庶	-8.51495
聖	-8.51535
懐	-8.51629
□	-8.51632
施	-8.51673
朱氏曰	-8.51711
金	-8.51719
高	-8.51849
樹	-8.5192
乗	-8.5213
烏	-8.52248
夜	-8.52288
形	-8.52362
丘	-8.52743
寒	-8.52904
孔子	-8.53016
於此	-8.53268
王之	-8.53357
禍	-8.53505
辟	-8.53929
友	-8.54169
良	-8.5429
離	-8.5432
顯	-8.54441
矢	-8.54514
向	-8.54519
戰	-8.54588
開	-8.54691
邪	-8.549
故云	-8.55263
棄	-8.55293
布	-8.55386
只	-8.55416
耶	-8.55491
棘	-8.55563
貴	-8.55835
孫	-8.55957
故知	-8.56165
之名	-8.56868
果	-8.56997
不必	-8.57088
之子	-8.57195
昏	-8.57397
萬	-8.57598
稷	-8.57603
威	-8.57958
計	-8.58037
柔	-8.58344
便	-8.58469
弗	-8.58604
勤	-8.58662
獸	-8.58801
何以	-8.5888
必有	-8.58893
亦有	-8.58946
揚	-8.59072
除	-8.59095
四章	-8.5919
仁	-8.59272
来	-8.59389
又云	-8.59494
專	-8.59658
國人	-8.59938
衰	-8.60027
虎	-8.60032
子孫	-8.60289
后	-8.60425
紀	-8.60474
結	-8.60648
式	-8.60683
左右	-8.60766
嘉	-8.60782
忽	-8.60905
不言	-8.6092
覆	-8.61167
等	-8.61261
急	-8.61614
遇	-8.62161
陸	-8.62323
代	-8.62421
魏	-8.62431
永	-8.62464
祝	-8.63108
賜	-8.63379
罪	-8.6345
隨	-8.63467
舍	-8.63555
榖	-8.63627
史	-8.63736
儀	-8.63922
奏	-8.64081
大雅	-8.64176
轉	-8.64217
梁	-8.64494
穀	-8.64679
號	-8.6487
堂	-8.6493
鄭氏	-8.65363
宣	-8.65413
竹	-8.65561
匪	-8.657
推	-8.65914
細	-8.65984
祭祀	-8.66041
古人	-8.66058
錫	-8.66153
怒	-8.66261
之徳	-8.66354
文武	-8.66371
文王之	-8.6638
輕	-8.66392
案	-8.66511
列	-8.66583
人君	-8.66793
役	-8.66867
翼	-8.67177
追	-8.67282
武公	-8.67455
哀	-8.67655
習	-8.67751
召公	-8.67904
陵	-8.68058
掌	-8.68146
散	-8.68219
臨	-8.68246
仲	-8.68357
乘	-8.68627
業	-8.68872
豳	-8.68907
假	-8.69064
置	-8.69226
皆有	-8.69257
者皆	-8.69438
其事	-8.69443
聽	-8.69448
蟲	-8.69477
受命	-8.69546
連	-8.69678
暴	-8.69843
旅	-8.69908
則是	-8.69954
花	-8.70122
后妃	-8.70294
荒	-8.70362
納	-8.70544
曹	-8.70805
僖公	-8.70895
聚	-8.70917
熟	-8.70953
蒲	-8.71241
路	-8.71332
韓	-8.71417
之類	-8.71463
後世	-8.71833
上帝	-8.71876
上下	-8.7211
尾	-8.72155
厲	-8.72238
吉	-8.72253
手	-8.72299
威儀	-8.72355
爾雅云	-8.72356
弟	-8.72753
以此	-8.72781
持	-8.72847
奉	-8.73068
達	-8.73177
牲	-8.7333
之詞	-8.73545
登	-8.73575
嫁	-8.73718
救	-8.73724
窮	-8.73752
然而	-8.74155
公劉	-8.74545
公子	-8.74632
襄公	-8.74692
户	-8.74824
休	-8.74923
根	-8.75061
林	-8.7514
當時	-8.75464
妻	-8.75567
歴	-8.75677
嚴	-8.75832
其心	-8.75877
召	-8.75909
頭	-8.75952
斷	-8.76152
表	-8.76195
願	-8.76244
以見	-8.76353
耕	-8.7643
不以	-8.76495
素	-8.76545
李	-8.76596
懷	-8.76626
饗	-8.76679
富	-8.76734
之說	-8.77205
無不	-8.77516
取其	-8.7757
飲酒	-8.77736
不足	-8.7795
羙	-8.78061
庭	-8.78105
昔	-8.78144
黒	-8.78174
卿	-8.78324
用之	-8.78761
未有	-8.78869
虞	-8.78911
露	-8.79304
邦	-8.79489
姓	-8.79508
申伯	-8.79661
落	-8.8015
肆	-8.80441
故言	-8.80451
禾	-8.8066
造	-8.80814
足以	-8.80888
危	-8.81063
禹	-8.81226
之貌	-8.81227
駕	-8.81262
桓	-8.81273
史記	-8.81401
黃	-8.81467
惠	-8.81485
古者	-8.81587
則有	-8.81697
其實	-8.81847
冠	-8.81895
味	-8.81897
之功	-8.81975
工	-8.82096
甫	-8.82133
謹	-8.8228
以其	-8.82395
并	-8.82397
干	-8.8249
朱傳	-8.82536
者謂	-8.82608
精	-8.82626
遠	-8.82674
才	-8.82728
闕	-8.82754
須	-8.82851
莊公	-8.82856
姑	-8.82878
說文云	-8.82963
王者	-8.82983
男	-8.83085
侵	-8.83429
旦	-8.83448
烝	-8.83532
可謂	-8.8363
薪	-8.83661
黍	-8.83672
禘	-8.83694
條	-8.83807
背	-8.8393
患	-8.84082
通作	-8.84087
卜	-8.84223
輯録	-8.84256
衡	-8.84374
薦	-8.844
農	-8.84502
紂	-8.84553
畫	-8.84568
羣臣	-8.84733
輔	-8.84885
菜	-8.84929
𤣥	-8.84935
奔	-8.8514
堅	-8.85183
真	-8.85195
苟	-8.85278
㣲	-8.85316
厥	-8.85362
愈	-8.85456
甲	-8.85457
知其	-8.85604
垂	-8.85802
卑	-8.85823
喪	-8.85835
其君	-8.85909
之故	-8.85974
靡	-8.86026
絲	-8.86083
革	-8.86133
宿	-8.86179
每	-8.86213
天命	-8.8626
鮮	-8.86456
君臣	-8.86582
扵	-8.86647
酌	-8.86803
裳	-8.86924
最	-8.87017
介	-8.8713
幽	-8.87142
皆以	-8.87394
牧	-8.87436
側	-8.87555
慎	-8.87599
豆	-8.87677
愚	-8.87684
旁	-8.88159
均	-8.88238
可見	-8.88302
可知	-8.88469
洛	-8.88542
七月	-8.88689
康	-8.88729
箋曰	-8.8878
漸	-8.88787
匹	-8.88818
又有	-8.88839
獲	-8.88872
脩	-8.88976
管	-8.88978
之情	-8.89103
詩曰	-8.89144
徃	-8.89356
茂	-8.89389
崇	-8.89441
註	-8.89512
閔	-8.89622
則其	-8.89665
面	-8.89671
不如	-8.89776
契	-8.89884
抑	-8.89896
國之	-8.89902
苗	-8.89981
逆	-8.90272
欲其	-8.90427
濟	-8.90508
鄭箋	-8.90641
房	-8.90655
鳩	-8.90708
屋	-8.90767
歎	-8.90791
誰	-8.90889
龜	-8.91139
雉	-8.91241
忠	-8.91314
釋文	-8.91472
也今	-8.91523
勿	-8.91669
傳云	-8.91673
禄	-8.91679
栗	-8.91734
其意	-8.91866
雜	-8.91922
虚	-8.92021
吕	-8.92095
詞	-8.92235
不見	-8.92296
孟子	-8.92817
三年	-8.92858
忘	-8.93055
請	-8.9309
敢	-8.93197
杜	-8.932
从	-8.93369
使之	-8.93585
收	-8.9363
鹿	-8.93642
冝	-8.93701
宗廟	-8.93757
天之	-8.93822
麻	-8.93931
文公	-8.9397
鄭云	-8.93975
者亦	-8.94034
舒	-8.94146
音義	-8.94174
出於	-8.94174
比也	-8.94194
靈	-8.94221
淺	-8.94285
族	-8.94337
劉	-8.94371
其後	-8.94432
主人	-8.94518
楊	-8.94905
之樂	-8.94998
而有	-8.95429
黑	-8.95469
刑	-8.95476
録	-8.95578
蘇氏曰	-8.95624
孔曰	-8.95632
平王	-8.95711
否	-8.95824
差	-8.9589
當作	-8.96043
未嘗	-8.96171
早	-8.96227
避	-8.96272
營	-8.96437
簡	-8.96451
肉	-8.96567
蘇	-8.9708
圖	-8.97222
六月	-8.97387
千	-8.97476
毛云	-8.97561
賓	-8.97743
退	-8.97998
江	-8.98089
巳	-8.98103
岐	-8.98298
也又	-8.9848
束	-8.98499
不過	-8.98656
天下之	-8.98963
乆	-8.98971
不然	-8.99199
履	-8.99265
舜	-8.99387
擇	-8.99445
景	-8.99472
本作	-8.9951
識	-8.99608
慮	-8.99616
故謂之	-9.00007
所云	-9.00073
淮夷	-9.00094
擊	-9.00096
京	-9.00376
仍	-9.00444
韓詩	-9.00455
歲	-9.00479
敎	-9.00599
氏曰	-9.00668
而又	-9.00757
大王	-9.00934
補	-9.00971
再	-9.01048
五章	-9.01129
示	-9.01474
之上	-9.01557
逐	-9.01648
其説	-9.01744
或曰	-9.01819
征	-9.01905
送	-9.01997
速	-9.01998
不用	-9.01998
不可以	-9.02239
之法	-9.02304
昭公	-9.02338
牡	-9.0238
蠶	-9.02583
王氏曰	-9.02748
懼	-9.03
況	-9.03009
不復	-9.03058
貫	-9.03079
省	-9.03233
悲	-9.03304
諸侯之	-9.03309
彊	-9.03368
朋友	-9.03408
半	-9.03547
佩	-9.03554
繫	-9.03681
如字	-9.03776
接	-9.03821
之文	-9.03919
鄉	-9.03977
君之	-9.04067
社	-9.0411
二字	-9.04123
兄	-9.04221
嗣	-9.04512
越	-9.04541
移	-9.0469
席	-9.04704
坐	-9.0476
違	-9.04867
典	-9.04873
略	-9.04901
蔽	-9.04947
人心	-9.04972
盈	-9.05038
日月	-9.05111
之盛	-9.05308
殆	-9.05314
讒	-9.05334
臺	-9.05403
弱	-9.05427
慶	-9.05501
恭	-9.05564
勸	-9.05748
而作	-9.0588
其徳	-9.05917
迎	-9.05964
司	-9.05968
朱曰	-9.06072
負	-9.06346
端	-9.06413
約	-9.06571
授	-9.06717
莫不	-9.06728
丁	-9.06749
昌	-9.0703
本草	-9.07156
以興	-9.0728
桓公	-9.07319
毛氏	-9.0758
毛曰	-9.07618
悔	-9.07634
徂	-9.07664
禮記	-9.07675
天子之	-9.07766
厲王	-9.07769
雲	-9.07957
防	-9.0796
格	-9.08156
徹	-9.08356
亦不	-9.0839
枝	-9.08473
寵	-9.08506
舟	-9.08518
之所以	-9.08608
滿	-9.08695
之辭也	-9.0878
不及	-9.08852
調	-9.08862
下章	-9.08918
草木	-9.08976
豈不	-9.09247
黍稷	-9.0942
悦	-9.09457
賤	-9.09622
麥	-9.09733
祈	-9.0987
泉	-9.09877
之臣	-9.09933
未必	-9.10137
辰	-9.10193
集說	-9.10199
莖	-9.10242
之外	-9.10244
壽	-9.10265
川	-9.10312
府	-9.10486
之德	-9.10593
解見	-9.10725
游	-9.10734
之美	-9.10755
勇	-9.10893
是詩	-9.10903
烈	-9.10989
二句	-9.11183
密	-9.11445
六章	-9.11479
乾	-9.11504
男女	-9.11588
孔氏	-9.1167
及其	-9.11734
說文	-9.11831
之世	-9.11927
雞	-9.12092
海	-9.12102
者為	-9.12149
祥	-9.1223
恩	-9.12301
下同	-9.12324
其子	-9.12329
攻	-9.12609
蒙	-9.12665
也鄭箋	-9.12698
梅	-9.12834
詩之	-9.12858
旱	-9.12902
相與	-9.12915
狄	-9.13209
藏	-9.13486
畧	-9.13569
猶言	-9.13774
姜	-9.13816
叛	-9.13893
𤼵	-9.14033
其義	-9.14106
之屬	-9.1414
狐	-9.14141
見於	-9.14225
!	-9.14235
四國	-9.1438
粟	-9.14381
莊姜	-9.14416
諫	-9.14428
堯	-9.14429
下文	-9.14437
舎	-9.14438
荼	-9.14454
仕	-9.1448
之國	-9.14532
也夫	-9.14594
驕	-9.14615
大也	-9.14705
孔疏	-9.14816
犬	-9.1484
子之	-9.14845
帶	-9.14978
漢書	-9.15097
從之	-9.15184
使我	-9.15198
旋	-9.15203
三章章四句	-9.1521
如是	-9.15241
監	-9.15327
莊	-9.15409
妄	-9.15486
基	-9.1556
一人	-9.15716
季	-9.15762
嘆	-9.15866
室家	-9.15878
亦以	-9.15943
殊	-9.16003
伏	-9.16045
徧	-9.16056
鼔	-9.16119
也然	-9.16298
専	-9.16471
宣公	-9.16509
寢	-9.16569
王季	-9.16613
上章	-9.16736
朱註	-9.16779
之下	-9.16987
遊	-9.17078
朝廷	-9.17156
王室	-9.17236
序曰	-9.1728
較	-9.17296
託	-9.17319
剛	-9.17485
察	-9.17644
隱	-9.17858
統	-9.17903
艾	-9.17907
女子	-9.1794
循	-9.1825
繹	-9.18418
勢	-9.18435
横	-9.18485
之處	-9.18505
材	-9.18523
香	-9.18668
池	-9.18762
壯	-9.18966
歳	-9.18977
蕭	-9.18997
縱	-9.19007
疏曰	-9.19162
米	-9.19207
貝	-9.19292
井	-9.19307
我之	-9.1932
趨	-9.19381
蒿	-9.19496
卿大夫	-9.1951
所以為	-9.19642
萬物	-9.19662
豕	-9.19712
此篇	-9.19762
借	-9.1982
覺	-9.19857
觧	-9.19897
甘	-9.20132
逹	-9.20186
襄	-9.202
弁	-9.2022
浮	-9.20288
第	-9.20294
勉	-9.20315
圭	-9.2043
客	-9.20458
貪	-9.20493
十月	-9.20505
幾	-9.20623
裘	-9.2077
先祖	-9.20895
不相	-9.20941
充	-9.21077
不應	-9.21081
黎	-9.21114
輔氏曰	-9.21203
夀	-9.21425
者言	-9.21569
古之	-9.21595
秀	-9.21694
夫婦	-9.21697
其人	-9.2171
谷	-9.21721
當是	-9.21754
茅	-9.21921
巢	-9.21962
隠	-9.22212
中國	-9.22264
又言	-9.22269
四牡	-9.22305
空	-9.22382
例	-9.22387
織	-9.22419
會	-9.22459
葛	-9.22462
王命	-9.2251
折	-9.2256
沈	-9.22608
國語	-9.22664
參	-9.22793
毁	-9.23044
綏	-9.23139
詩云	-9.23164
毛鄭	-9.23192
其地	-9.23205
則又	-9.23407
尺	-9.23614
明矣	-9.23786
短	-9.24064
天地	-9.24094
強	-9.24236
其言	-9.2424
今之	-9.24261
也按	-9.24264
荆	-9.24516
卿士	-9.24675
無有	-9.24829
之語	-9.24858
放	-9.24875
陰	-9.2509
咸	-9.25095
末章	-9.25149
夕	-9.25202
皆是	-9.25248
敵	-9.25255
又以	-9.25282
不忘	-9.25549
笙	-9.25566
亦云	-9.2563
也蓋	-9.25797
得之	-9.25867
䟽	-9.25875
之物	-9.2591
醜	-9.2592
儀禮	-9.25966
在位	-9.25974
使人	-9.2611
謝	-9.26242
沃	-9.26273
斥	-9.26306
不當	-9.26369
如何	-9.26374
敦	-9.2656
妾	-9.26563
潔	-9.26601
繁	-9.26672
律	-9.26717
朱子曰	-9.26786
昊天	-9.26807
寡	-9.26821
博	-9.26952
周人	-9.27002
亦曰	-9.27035
築	-9.27075
夫子	-9.27134
以上	-9.27175
鄭曰	-9.27222
皇父	-9.27237
疆	-9.2725
為一	-9.27254
譽	-9.27277
四月	-9.27443
人所	-9.27446
植	-9.27468
我心	-9.27528
雀	-9.27535
戾	-9.27561
也毛傳	-9.27647
後人	-9.27765
君子之	-9.27772
雷	-9.27813
矣然	-9.27817
蕩	-9.2785
召南	-9.27869
娶	-9.27886
緩	-9.27892
甚矣	-9.27924
泥	-9.27974
詩中	-9.27992
桃	-9.28028
供	-9.28033
正月	-9.28085
南山	-9.28143
田獵	-9.28162
恤	-9.28277
續	-9.28295
李氏曰	-9.28302
其身	-9.28484
禦	-9.28504
塗	-9.28545
穴	-9.28583
醉	-9.28873
誅	-9.28924
福禄	-9.29065
爭	-9.29684
月令	-9.29707
閒	-9.29836
同姓	-9.29856
則知	-9.2994
疏云	-9.30088
宻	-9.30099
之事也	-9.30105
叙	-9.30408
寛	-9.30428
可知矣	-9.30506
太王	-9.30604
染	-9.30641
䑕	-9.30836
庸	-9.30967
缺	-9.30985
作詩	-9.30986
育	-9.31187
各有	-9.31221
雪	-9.3133
不為	-9.31449
榮	-9.31536
趙	-9.31586
遭	-9.31655
鎬	-9.31748
郭	-9.31924
鹿鳴	-9.31961
答	-9.32104
之意也	-9.32168
關雎	-9.32227
矜	-9.32271
事也	-9.32458
至此	-9.32567
矣故	-9.32612
求之	-9.32844
雖有	-9.32874
正義曰	-9.32939
禽	-9.33002
務	-9.33214
規	-9.33372
災	-9.3339
召伯	-9.33531
先生	-9.33639
也若	-9.33665
泰	-9.33702
貎	-9.33831
却	-9.33947
證	-9.33967
一句	-9.34015
貢	-9.34056
三十	-9.34195
編	-9.34215
厭	-9.34261
支	-9.3429
王氏	-9.34373
㫖	-9.34399
之日	-9.34413
禮義	-9.34457
底	-9.34515
仰	-9.34585
康公	-9.34625
羅	-9.34638
以比	-9.34647
其民	-9.34679
孚	-9.34863
闗雎	-9.34965
之前	-9.34971
其辭	-9.34983
太子	-9.35028
此則	-9.35073
此亦	-9.35116
詩序	-9.35167
佐	-9.35183
震	-9.35351
曷	-9.35361
振	-9.35366
在於	-9.35431
温	-9.35547
不已	-9.35547
之際	-9.35548
思之	-9.35563
扶	-9.3568
反覆	-9.35761
豫	-9.36053
子曰	-9.36101
麟	-9.36119
兹	-9.36124
自然	-9.36178
境	-9.36211
三月	-9.36242
尹氏	-9.36305
讓	-9.36312
孟	-9.36372
盟	-9.36419
傅	-9.36529
以自	-9.36546
騶虞	-9.36551
夢	-9.36672
玩	-9.36949
毒	-9.3695
旂	-9.36966
伊	-9.36996
奠	-9.37049
者非	-9.37196
誦	-9.37209
圓	-9.37211
阿	-9.37339
之行	-9.37386
竟	-9.37388
吳	-9.37423
故其	-9.37462
竊	-9.37626
篤	-9.37646
吉甫	-9.37677
逸	-9.37793
葵	-9.37824
勞苦	-9.37836
卒章	-9.38069
山川	-9.38096
命之	-9.3822
禮樂	-9.38246
羔裘	-9.38296
錯	-9.3837
熊	-9.38401
髪	-9.38439
周南	-9.38496
玁狁	-9.38537
征伐	-9.38597
崩	-9.3882
宴	-9.38883
塞	-9.38936
畝	-9.38983
其情	-9.3907
孔氏穎達曰	-9.39074
所作	-9.39095
延	-9.391
朔	-9.39122
僖	-9.39278
所言	-9.39335
學者	-9.39411
之服	-9.39434
其國	-9.39454
界	-9.39546
反叶	-9.39632
鼎	-9.39647
困	-9.39726
宅	-9.39767
刻	-9.39786
敖	-9.39786
暮	-9.3992
譖	-9.39962
穆公	-9.39997
閑	-9.40033
毛公	-9.40087
生於	-9.40165
偏	-9.40182
集傳賦也	-9.40375
衍	-9.40499
胥	-9.40527
明堂	-9.40614
武王之	-9.4081
之使	-9.40946
其德	-9.41067
市	-9.41153
其上	-9.41194
毛詩	-9.4127
燕禮	-9.41287
竭	-9.41483
他人	-9.41522
而下	-9.41562
二年	-9.41597
以禮	-9.41628
國風	-9.4171
變風	-9.41755
國家	-9.41764
英	-9.41791
貧	-9.41849
茹	-9.41891
秉	-9.41927
雍	-9.41991
讀如	-9.4213
拜	-9.42266
其聲	-9.42387
姜嫄	-9.42392
儉	-9.42532
穆	-9.4263
豐年	-9.42814
兔	-9.42824
奪	-9.42842
所用	-9.42855
可為	-9.4294
聴	-9.4296
肅	-9.43001
磬	-9.43002
虐	-9.43068
則不	-9.43071
時也	-9.43113
黄鳥	-9.43208
曾	-9.43217
鐘	-9.43251
悉	-9.43289
百姓	-9.43333
穫	-9.43398
孔云	-9.43428
檜	-9.43437
以喻	-9.43446
其說	-9.43472
審	-9.43536
辟廱	-9.43598
蒼	-9.43632
笑	-9.43659
人情	-9.43686
媵	-9.43883
相應	-9.43901
源	-9.44012
戴	-9.44049
關	-9.44161
招	-9.4418
庶幾	-9.4436
賊	-9.44407
東方	-9.44486
忌	-9.44571
瑟	-9.44804
賔客	-9.44968
今人	-9.44988
杞	-9.45197
有此	-9.45208
曽	-9.45253
男子	-9.45271
符	-9.45317
闗	-9.45446
禁	-9.45512
賢人	-9.45518
煩	-9.45521
仲山甫	-9.45683
如此則	-9.45736
晚	-9.45778
車馬	-9.45919
助祭	-9.45949
智	-9.45992
畜	-9.46042
戸	-9.46153
遣	-9.46194
病也	-9.46275
伐木	-9.46454
者蓋	-9.46497
陶	-9.46885
八章	-9.46991
𤓰	-9.47004
詠	-9.47044
究	-9.47058
得其	-9.47182
李曰	-9.47185
狼	-9.4719
琴瑟	-9.4721
十二	-9.47242
斗	-9.47262
偶	-9.47312
韓侯	-9.47397
回	-9.47439
凶	-9.47585
非也	-9.47622
亦可	-9.47638
未詳	-9.47739
權	-9.47831
躬	-9.47864
詩言	-9.47904
慕	-9.47909
敷	-9.47986
寜	-9.48013
童	-9.48076
鴟鴞	-9.48103
副	-9.48142
而成	-9.48162
孝子	-9.48249
欽定四庫全書	-9.48304
誓	-9.48308
繇	-9.48327
稼	-9.48519
樂也	-9.48547
江漢	-9.48571
弋	-9.48598
厯	-9.48643
褒姒	-9.48649
決	-9.48912
七章	-9.49088
之志	-9.49165
西戎	-9.49174
稻	-9.49233
齒	-9.49238
之理	-9.49268
刀	-9.49467
恒	-9.49558
三百	-9.4958
漆	-9.49618
食之	-9.49633
靈臺	-9.49682
䘮	-9.49788
惑	-9.4979
鬱	-9.49841
司馬	-9.49919
飢	-9.50034
險	-9.50036
藻	-9.50038
取之	-9.50047
不我	-9.5009
安得	-9.50103
孰	-9.50131
俎	-9.50195
舊説	-9.50243
奄	-9.50253
幸	-9.50288
葦	-9.50457
肥	-9.50599
協	-9.50685
兆	-9.50705
此章言	-9.50809
耦	-9.50816
罔	-9.50924
懸	-9.50958
灌	-9.51055
怠	-9.51137
援	-9.51164
諷	-9.51216
所見	-9.51324
可食	-9.51354
陟	-9.51402
渉	-9.5143
獵	-9.51447
逝	-9.51474
其餘	-9.51584
繩	-9.51594
贈	-9.51706
不在	-9.51916
韋	-9.51939
曉	-9.52009
猶有	-9.52081
亦非	-9.52248
預	-9.52261
眀	-9.52263
矣而	-9.52283
候	-9.52364
那	-9.52445
屈	-9.52448
可以為	-9.52622
籥	-9.52728
隆	-9.52766
刈	-9.52775
稍	-9.52788
先公	-9.52887
文姜	-9.5296
小序	-9.53058
翟	-9.53063
四句	-9.53136
之聲	-9.53212
二南	-9.53228
環	-9.53315
鼠	-9.53482
消	-9.53604
單	-9.53713
索	-9.53752
東都	-9.53768
妃	-9.54121
破	-9.54125
樂之	-9.54147
二十	-9.54248
遽	-9.54273
程	-9.54284
其中	-9.54311
蘭	-9.54313
先儒	-9.54326
之制	-9.54364
鶴	-9.54446
免	-9.54576
之君	-9.5459
允	-9.54656
弦	-9.54672
序云	-9.54758
論語	-9.54856
而歸	-9.54872
程子曰	-9.54922
京師	-9.54979
隰	-9.55002
即位	-9.55026
只是	-9.55084
芳	-9.55237
飲食	-9.55275
行役	-9.55288
戍	-9.55296
何為	-9.55349
亦作	-9.55467
夲	-9.55532
有功	-9.55559
亦是	-9.55571
走	-9.55588
羞	-9.55712
淵	-9.55713
倉	-9.55725
痛	-9.55758
斧	-9.55776
鴈	-9.55801
即此	-9.55813
渭	-9.55903
狂	-9.55961
藉	-9.55983
傍	-9.56061
咏	-9.56122
則以	-9.56174
不宜	-9.56239
樊	-9.56261
突	-9.56312
碩人	-9.5632
故為	-9.56403
倫	-9.56441
攸	-9.56457
聲也	-9.56604
稼穡	-9.56606
領	-9.56612
到	-9.56625
徙	-9.56671
皆言	-9.56678
今曰	-9.567
而行	-9.56755
鄙	-9.56919
周頌	-9.57015
之大	-9.571
併	-9.57108
于天	-9.57121
之士	-9.57197
慢	-9.57233
在上	-9.57338
暇	-9.57351
者必	-9.57422
巨	-9.5744
歩	-9.57464
看	-9.57482
遲	-9.57536
静	-9.57554
議	-9.57576
嫡	-9.5763
法度	-9.5764
蔡	-9.57649
忍	-9.57733
之福	-9.57789
脱	-9.57818
漆沮	-9.57875
斂	-9.57882
大國	-9.57935
拘	-9.57959
以成	-9.58014
二人	-9.58068
骨	-9.5827
東南	-9.58277
衆多	-9.583
曹氏曰	-9.58309
之狀	-9.58391
以待	-9.58469
域	-9.58479
先王之	-9.58501
啓	-9.58538
毋	-9.58652
累	-9.58788
蛇	-9.58798
導	-9.58803
了	-9.5884
也朱註	-9.58968
輔氏廣曰	-9.58974
决	-9.59015
祫	-9.59119
百里	-9.59134
板	-9.59163
謂其	-9.59177
慶源輔氏曰	-9.59343
太平	-9.59407
何也	-9.59431
而生	-9.5945
不足以	-9.59503
黨	-9.59563
但言	-9.59615
小子	-9.59621
牽	-9.59625
不善	-9.59656
委	-9.59883
清廟	-9.59962
播	-9.60047
辭也	-9.60135
包	-9.60241
故詩人	-9.60402
彌	-9.60414
豈有	-9.60455
鎬京	-9.60455
苞	-9.60542
軌	-9.60586
于此	-9.60622
隅	-9.60673
巧	-9.60703
道也	-9.60739
旟	-9.60789
此時	-9.60804
紫	-9.60853
踐	-9.60996
盛也	-9.61012
集説	-9.61023
綱	-9.61065
者乃	-9.6109
燕飲	-9.61114
行之	-9.61128
詩者	-9.61155
形容	-9.61165
大抵	-9.61216
人也	-9.61262
孤	-9.61292
吹	-9.61308
之稱	-9.6135
若此	-9.61389
余	-9.61471
陸璣	-9.61531
矣此	-9.61556
迫	-9.61563
廬	-9.61815
削	-9.61839
誘	-9.61922
雄	-9.6193
氷	-9.62011
不自	-9.62045
咨	-9.62084
恃	-9.62085
驅	-9.62099
牆	-9.62132
梓	-9.6214
鬯	-9.6219
先後	-9.6227
鵲	-9.62368
鵲巢	-9.62368
顔	-9.62473
照	-9.62519
洽	-9.62523
狩	-9.62525
丹	-9.62661
安也	-9.62677
豹	-9.62699
攷	-9.62708
財	-9.6271
猗	-9.62744
暑	-9.628
者有	-9.62817
考之	-9.62896
傾	-9.6291
蘇氏	-9.6292
郡	-9.62987
驚	-9.63027
俾	-9.63043
髮	-9.63058
賞	-9.63168
資	-9.63169
謬	-9.63184
畆	-9.63204
貞	-9.63371
錄	-9.63391
咎	-9.63396
其文	-9.63547
譬	-9.63555
王曰	-9.63585
步	-9.63654
常棣	-9.63715
則非	-9.63748
投	-9.63804
有天下	-9.6386
徳之	-9.6392
毛傳曰	-9.64011
以致	-9.64033
邁	-9.64086
周道	-9.64088
於天	-9.641
不與	-9.64152
遏	-9.64167
恥	-9.64175
甸	-9.6419
衣服	-9.64328
曲沃	-9.64478
而自	-9.64568
臧	-9.64652
俟	-9.64707
驗	-9.64935
其下	-9.64937
腹	-9.64975
敏	-9.6502
庚	-9.6506
於人	-9.65096
僭	-9.65234
而能	-9.65258
一曰	-9.65308
不從	-9.65368
子夏	-9.65413
蕃	-9.6543
南仲	-9.6552
五年	-9.65532
某	-9.65592
媚	-9.65602
眉	-9.65627
潛	-9.65647
生民	-9.65663
蓼	-9.6571
而不能	-9.6589
鶉	-9.65937
肅肅	-9.65989
牝	-9.66001
婉	-9.66012
當為	-9.66014
帥	-9.66018
谷風	-9.66056
而非	-9.66095
倚	-9.66122
叶音	-9.66157
水中	-9.66163
丗	-9.66182
不忍	-9.66239
幼	-9.66298
冇	-9.66343
白華	-9.66348
宫室	-9.66499
王肅	-9.66516
正義	-9.6654
之内	-9.66574
國君	-9.66589
僅	-9.66605
尋	-9.66694
也然則	-9.66719
物之	-9.66747
亦無	-9.66927
優	-9.67106
?	-9.67261
荷	-9.67302
瓜	-9.67332
涉	-9.67385
自有	-9.67441
次章	-9.67458
屢	-9.67566
不欲	-9.67611
而不知	-9.67734
孔氏穎逹曰	-9.67881
牙	-9.67921
殽	-9.67922
之初	-9.67972
段	-9.67977
其為	-9.68137
相類	-9.68146
牛羊	-9.68163
禱	-9.68204
尚書	-9.68216
親迎	-9.68252
榆	-9.68312
美也	-9.68352
題	-9.68456
不至	-9.68492
昬	-9.68518
旗	-9.68531
哲	-9.68539
者以其	-9.68545
十五	-9.68552
犯	-9.68575
其時	-9.68598
相似	-9.687
辛	-9.68785
政事	-9.68918
四年	-9.68929
爰	-9.68937
禹貢	-9.68952
太師	-9.69006
偽	-9.69059
美之	-9.69092
失其	-9.69103
鬼	-9.69266
大車	-9.69409
討	-9.69442
従	-9.69458
風雨	-9.69511
整	-9.6953
美其	-9.69592
蔓	-9.69604
寓	-9.69606
旄	-9.69611
亟	-9.69634
周室	-9.69744
鑿	-9.69786
紅	-9.69805
鵠	-9.69853
靖	-9.6999
不明	-9.70014
商頌	-9.70212
王事	-9.70217
桐	-9.70247
旌	-9.7025
武庚	-9.70265
渠	-9.70364
藥	-9.70366
迹	-9.70374
析	-9.70401
鸞	-9.70534
棗	-9.70632
之實	-9.70653
一篇	-9.70782
其所以	-9.70831
不信	-9.70841
靜	-9.70853
僕	-9.70857
姬	-9.7094
倒	-9.70966
栁	-9.7097
文王之徳	-9.71
麗	-9.71141
言我	-9.7122
之什	-9.71271
鴻	-9.71288
出車	-9.71353
懲	-9.7136
譏	-9.71408
壊	-9.71506
因以	-9.71518
而得	-9.71523
血	-9.71526
徴	-9.71555
衆也	-9.71557
古音	-9.71658
鬼神	-9.71665
之女	-9.71667
州吁	-9.7172
冕	-9.71724
於外	-9.71736
矣又	-9.71906
競	-9.71914
鍾	-9.7204
侮	-9.72073
量	-9.72157
係	-9.72256
岸	-9.72279
采薇	-9.72372
翰	-9.72374
嗟	-9.72419
左氏	-9.72565
晦	-9.72571
非一	-9.72675
無窮	-9.72742
南方	-9.72771
燎	-9.72808
一時	-9.72858
今日	-9.7289
農夫	-9.72921
縁	-9.72972
長也	-9.73014
弑	-9.7303
效	-9.73055
几	-9.73134
柄	-9.7314
勤勞	-9.73168
想	-9.73176
周官	-9.73183
則無	-9.73219
管蔡	-9.73347
武功	-9.73384
淫亂	-9.73438
瓠	-9.73508
大臣	-9.73514
愛之	-9.73732
壺	-9.73807
是為	-9.73839
桀	-9.7388
之月	-9.73892
吐	-9.73928
見之	-9.73979
敝	-9.73989
邊	-9.73998
以後	-9.74048
盧	-9.74133
有常	-9.74173
淮	-9.74249
通用	-9.74279
緝	-9.74304
有餘	-9.74362
光明	-9.74409
椒	-9.74423
大射	-9.74465
以告	-9.74552
無以	-9.74565
韓詩作	-9.74579
鑒	-9.74588
訟	-9.746
樗	-9.74616
述其	-9.74641
八月	-9.74741
之職	-9.74779
地名	-9.74894
嫌	-9.7493
旨	-9.74947
故能	-9.75081
箋正義曰	-9.75277
化之	-9.75335
甫田	-9.75366
嶽	-9.75445
亦名	-9.7555
行也	-9.75553
望之	-9.75623
邶	-9.75695
増	-9.75768
周家	-9.75791
周公之	-9.75804
柳	-9.75868
部	-9.75874
去聲	-9.75877
當以	-9.75897
遵	-9.76016
五月	-9.76264
中心	-9.76286
賴	-9.76427
筵	-9.76521
上文	-9.76543
大小	-9.7657
渚	-9.76621
往來	-9.76652
祖考	-9.76732
曹曰	-9.76763
而出	-9.76819
屨	-9.76825
亨	-9.77028
曽孫	-9.77088
法也	-9.77124
而復	-9.7714
之官	-9.77173
飽	-9.77197
詩意	-9.77198
限	-9.77263
駁	-9.77389
億	-9.77471
而來	-9.77505
歐陽	-9.77581
畿内	-9.77582
得以	-9.77613
隂陽	-9.77669
寺人	-9.77671
占	-9.77708
當從	-9.77778
魯頌	-9.77788
宣姜	-9.77788
用兵	-9.77948
不安	-9.77949
也孔疏	-9.78045
裏	-9.78074
鐘鼓	-9.78206
侈	-9.78267
濁	-9.78292
不待	-9.78298
之多	-9.78328
羮	-9.78466
警	-9.78493
恨	-9.78498
鵻	-9.78516
舌	-9.78581
嘏	-9.7862
即今	-9.78625
桓叔	-9.78789
其功	-9.78816
釐	-9.7888
霜	-9.78886
圍	-9.789
貽	-9.7894
之神	-9.78957
譜	-9.79005
之變	-9.79012
七年	-9.7908
粲	-9.79165
則曰	-9.79169
網	-9.79267
鷺	-9.79292
以來	-9.79309
二月	-9.79332
必先	-9.79338
讒人	-9.79352
宰	-9.79388
其葉	-9.79476
此意	-9.79536
澗	-9.7955
下民	-9.79567
毎	-9.79574
螽斯	-9.7959
講	-9.79644
為大	-9.79688
之甚	-9.79718
上言	-9.79722
萊	-9.79747
董氏曰	-9.79805
陳氏曰	-9.79834
棲	-9.7994
嚴氏曰	-9.79971
之謂也	-9.80005
朋	-9.80091
則必	-9.80202
不知其	-9.80305
之時也	-9.80383
鄭氏康成曰	-9.80428
為正	-9.80434
瞻	-9.80449
邦國	-9.80521
者其	-9.80521
貉	-9.80575
攘	-9.80647
畔	-9.8065
于是	-9.80707
匏	-9.80708
寐	-9.80811
輯	-9.80844
菑	-9.80861
蒸	-9.80885
事而	-9.80901
琴	-9.80941
及於	-9.80947
訛	-9.81018
旐	-9.81045
鳲鳩	-9.81058
嚴緝	-9.81086
不一	-9.81175
矛	-9.81196
苖	-9.81263
之賢	-9.81292
東西	-9.81334
其職	-9.81503
幣	-9.81511
虛	-9.81538
休息	-9.81631
仇	-9.81676
泉水	-9.81685
為主	-9.81831
觀其	-9.8185
元年	-9.81887
始生	-9.81889
山甫	-9.81909
賚	-9.81924
臭	-9.81955
徵	-9.81963
嚴氏粲曰	-9.81979
輿	-9.81995
者是	-9.82015
縫	-9.82019
宮	-9.82112
戈	-9.8215
三章章六句	-9.82168
宛	-9.82318
埤雅	-9.82339
愼	-9.8239
之風	-9.82453
𤣥鳥	-9.8247
受之	-9.82527
有二	-9.82534
蟋蟀	-9.82572
謙	-9.82577
潰	-9.82598
詩傳	-9.82766
宇	-9.82783
為諸侯	-9.82794
竝	-9.82822
揚之水	-9.8283
中庸	-9.82878
先言	-9.82983
園	-9.83028
浸	-9.83053
其詩	-9.83075
作樂	-9.83139
二反	-9.83152
鄘	-9.83176
之至也	-9.83216
邰	-9.83238
則亦	-9.83376
草也	-9.83377
尹	-9.83381
此説	-9.83407
卦	-9.83521
舊說	-9.83614
貳	-9.83691
䟽曰	-9.83702
啟	-9.83708
徑	-9.83718
騏	-9.83722
安成劉氏曰	-9.83723
所當	-9.83741
呉	-9.83765
春秋傳	-9.83873
賈	-9.83901
穗	-9.83944
輪	-9.8398
其夫	-9.83994
寄	-9.84034
所在	-9.84049
釋文曰	-9.841
喬	-9.84101
撫	-9.84147
頗	-9.84161
之始	-9.84282
之序	-9.84359
楚茨	-9.84373
為君	-9.84387
内外	-9.84483
觀之	-9.84498
何哉	-9.84524
其禮	-9.84577
之命	-9.84581
怪	-9.84619
思其	-9.84649
弓矢	-9.84686
曾孫	-9.84745
范	-9.84783
成湯	-9.84822
土地	-9.84826
濯	-9.84946
始於	-9.85026
千里	-9.85037
酢	-9.8505
襲	-9.85084
寫	-9.85234
燔	-9.85258
的	-9.85268
祿	-9.85328
伋	-9.85331
之氣	-9.85355
脂	-9.85368
榛	-9.85376
醻	-9.85388
誤矣	-9.85445
薇	-9.85446
冰	-9.8546
殘	-9.85491
不止	-9.85517
松	-9.85532
不顯	-9.85585
有徳	-9.85625
止於	-9.85715
聘	-9.85728
幹	-9.85729
服之	-9.85798
機	-9.85947
奮	-9.8595
茍	-9.85992
以見其	-9.86076
歡	-9.86098
父子	-9.86138
爾雅曰	-9.86166
在天	-9.86195
誣	-9.86215
什	-9.86288
在下	-9.86327
人皆	-9.86331
而去	-9.86344
必以	-9.86381
魚麗	-9.86407
大師	-9.86419
挾	-9.86419
稽	-9.86424
程氏曰	-9.86456
或謂之	-9.86475
盛貌	-9.86497
舄	-9.86607
齊侯	-9.86635
飬	-9.8665
吏	-9.86669
溝	-9.86708
善也	-9.86722
一種	-9.86866
鴞	-9.86872
艸	-9.86949
前後	-9.86982
憂心	-9.86985
祼	-9.87057
選	-9.87129
岐山	-9.87447
此皆	-9.87574
輩	-9.87592
齊人	-9.87606
鮪	-9.87608
水之	-9.87667
出入	-9.87672
其名	-9.87676
之祭	-9.87687
歐陽氏曰	-9.87714
屏	-9.87757
瑞	-9.8778
採	-9.87822
而不敢	-9.87841
甘棠	-9.87854
櫟	-9.87884
九月	-9.87895
菽	-9.87943
恵	-9.87949
之禍	-9.87964
丈	-9.87998
緇衣	-9.88025
風俗	-9.88034
言文王	-9.88041
無所不	-9.88057
轡	-9.88074
朱子云	-9.88134
註云	-9.88144
不肯	-9.88168
逃	-9.88247
孔子曰	-9.88249
匡	-9.88254
以明	-9.88412
疎	-9.88418
憂之	-9.88455
未知	-9.88456
南國	-9.88471
柞	-9.88487
饑	-9.88508
争	-9.88537
般	-9.88541
使臣	-9.88599
康成	-9.88609
濟濟	-9.88614
是其	-9.88635
四海	-9.88701
混	-9.88737
懿	-9.88743
之政	-9.88809
於王	-9.88834
當在	-9.88837
産	-9.8885
所為	-9.88891
此所謂	-9.88909
至矣	-9.88951
亂也	-9.88966
戒之	-9.89128
而不得	-9.89297
皆云	-9.89315
鞠	-9.89347
上有	-9.89365
聖人之	-9.89451
未見	-9.8951
萬民	-9.89514
之長	-9.89581
乙	-9.89611
摯	-9.89654
把	-9.89676
喙	-9.89678
之末	-9.89679
征夫	-9.89711
之象	-9.89742
刺幽王也	-9.89747
燕樂	-9.89808
罍	-9.8982
惜	-9.89842
和平	-9.89888
績	-9.89903
鉤	-9.8991
又謂	-9.89933
方叔	-9.90007
其志	-9.90012
箕	-9.9002
一日	-9.90037
流言	-9.90098
牢	-9.90102
陸璣云	-9.90139
譛	-9.90146
烈祖	-9.90204
之業	-9.90268
蓄	-9.90354
則可以	-9.90375
提	-9.90378
也音義	-9.90379
戎車	-9.90398
武丁	-9.90437
毛傳云	-9.90552
今按	-9.90565
王后	-9.90605
紹	-9.90621
朱氏公遷曰	-9.9083
藍	-9.90847
波	-9.90848
皆為	-9.90882
成功	-9.90902
翼翼	-9.9091
盤	-9.90938
為天子	-9.90959
欺	-9.91069
之民	-9.91084
東山	-9.91098
今乃	-9.91109
皆以為	-9.91198
止也	-9.91226
昏姻	-9.91325
來朝	-9.91355
豈弟	-9.91363
大者	-9.91394
廣大	-9.9144
不出	-9.91514
亦當	-9.91579
惟其	-9.91598
渡	-9.91608
萬邦	-9.91674
庶人	-9.91761
是時	-9.91843
自是	-9.9186
泮	-9.91882
蟬	-9.91895
馳	-9.9194
閟宫	-9.91964
階	-9.91987
不易	-9.91991
獄	-9.92068
社稷	-9.92085
壞	-9.92092
受福	-9.92115
歸之	-9.92131
本亦作	-9.92139
行者	-9.92152
所居	-9.92175
畿	-9.92244
括	-9.923
西北	-9.92321
即是	-9.92336
粱	-9.92352
本又作	-9.92395
大姒	-9.92434
和也	-9.92499
眷	-9.92511
繫之	-9.92543
蝗	-9.92547
奥	-9.92554
閉	-9.92577
者謂之	-9.92623
反又	-9.92666
荅	-9.92701
緜	-9.92739
有道	-9.92755
王業	-9.92777
不合	-9.92885
祗	-9.92932
正也	-9.92987
損	-9.93042
文義	-9.93045
含	-9.93069
雌	-9.93079
亦如	-9.93082
不行	-9.93134
宗周	-9.93144
吕記	-9.93186
偕	-9.93197
望其	-9.9327
誤作	-9.93283
知之	-9.93331
倡	-9.93487
聿	-9.93528
神明	-9.93533
掩	-9.9361
運	-9.93654
或作	-9.93706
膏	-9.93748
禽獸	-9.93751
戲	-9.93756
諸儒	-9.93845
佗	-9.93923
輯錄	-9.93951
四章章四句	-9.94011
場	-9.94024
之難	-9.94101
圃	-9.94121
之廟	-9.94124
卵	-9.94239
在此	-9.9426
勺	-9.94312
而不可	-9.94344
潤	-9.9436
也箋正義曰	-9.94362
卷耳	-9.94365
無常	-9.94391
馮	-9.94513
敬也	-9.94538
大學	-9.94548
商之	-9.94555
贊	-9.94604
大如	-9.94612
傳正義曰	-9.94676
何所	-9.94686
鯉	-9.94706
詩緝	-9.94719
如之何	-9.94724
赫	-9.94768
深矣	-9.94792
帛	-9.94803
溢	-9.94824
緯	-9.94888
恣	-9.9491
箴	-9.94952
奚	-9.94978
雒	-9.94992
不獨	-9.95222
轂	-9.95225
萌	-9.95275
相親	-9.95296
驂	-9.9537
茨	-9.95407
淇	-9.95443
稱王	-9.95598
蠻	-9.95619
不若	-9.95668
郭璞曰	-9.95677
王制	-9.95704
洗	-9.95764
校	-9.95771
綴	-9.95789
引詩	-9.9592
而小	-9.95981
彭	-9.95991
滋	-9.96013
弔	-9.96083
進退	-9.9611
蜀	-9.96297
雞鳴	-9.96344
沮	-9.96356
所載	-9.96413
憂思	-9.96505
茀	-9.96506
歛	-9.96511
觸	-9.96545
乎此	-9.96583
固有	-9.96595
牖	-9.96652
舅	-9.96653
歆	-9.96698
其道	-9.96765
辱	-9.96779
三句	-9.96792
非是	-9.96865
殖	-9.96879
非謂	-9.96927
誕	-9.96943
虹	-9.96957
班	-9.96997
其始	-9.97003
告之	-9.97065
風化	-9.97091
戚	-9.97136
終南	-9.9721
一物	-9.97266
拔	-9.97269
諡	-9.97297
釋詁文	-9.973
多矣	-9.97322
儒	-9.97378
鄭以	-9.9748
褒	-9.9753
詔	-9.97539
虞惇按	-9.97577
齋	-9.97579
與此	-9.97582
豈可	-9.97683
其性	-9.97706
諱	-9.97775
戎狄	-9.97784
宣王之	-9.97786
皆可	-9.97798
於周	-9.97835
者不	-9.97902
之詩也	-9.97928
無禮	-9.9796
文章	-9.97983
拒	-9.98017
邇	-9.98054
諌	-9.98071
本於	-9.98112
創	-9.98219
物也	-9.9828
滑	-9.98292
但以	-9.98313
版	-9.98326
髙宗	-9.98396
之本	-9.98415
序言	-9.98457
經文	-9.98464
内則	-9.98474
詳見	-9.98586
夙夜	-9.98587
不盡	-9.98612
豳風	-9.98632
璧	-9.98693
竒	-9.98719
祭仲	-9.98762
馬之	-9.98784
章句	-9.98795
六年	-9.98808
時事	-9.98949
駒	-9.98976
》	-9.98984
祭天	-9.99002
囿	-9.99036
司徒	-9.99038
慈	-9.99069
西伯	-9.99102
岳	-9.99125
伐之	-9.99266
隔	-9.99327
一詩	-9.99353
未可	-9.99423
大武	-9.99492
之數	-9.99504
推之	-9.99541
耆	-9.99582
溥	-9.99585
總論	-9.99725
展	-9.99737
然其	-9.99934
伯禽	-9.9994
錢	-9.99963
思念	-9.99963
興起	-9.99968
致其	-9.99991
祭之	-10.0001
晝	-10.0009
藝	-10.0013
治之	-10.0014
試	-10.0015
或謂	-10.002
小國	-10.0027
肯	-10.003
教之	-10.0035
夾	-10.0037
采之	-10.0039
愚謂	-10.0039
完	-10.004
堪	-10.0044
之耳	-10.0055
也且	-10.0056
所生	-10.0059
敬之	-10.006
采蘩	-10.0065
無疆	-10.0068
古今	-10.007
農事	-10.007
此又	-10.0073
阜	-10.0089
服也	-10.0089
上天	-10.0097
一事	-10.0108
笄	-10.0114
枝葉	-10.0115
聊	-10.0115
訓為	-10.0118
雙	-10.0118
術	-10.0118
萬年	-10.012
昭明	-10.0127
没	-10.0133
亦猶	-10.0135
阪	-10.0141
漕	-10.0143
䜛	-10.0155
視之	-10.0157
鋪	-10.016
北山	-10.0167
以前	-10.0169
活	-10.017
悠悠	-10.0172
方言	-10.0176
異於	-10.0179
失之	-10.0181
灼	-10.0182
亂世	-10.0183
書曰	-10.0185
字義	-10.0187
不能自	-10.0188
桑扈	-10.0195
其有	-10.0197
籩豆	-10.0198
也盖	-10.0198
圉	-10.0198
者如	-10.0198
𢎞	-10.0199
亦通	-10.0201
或以	-10.0204
二章言	-10.0208
又名	-10.0209
之衆	-10.0218
則民	-10.0219
以正	-10.022
炙	-10.0224
柏	-10.0226
聞之	-10.0229
范氏曰	-10.0231
久矣	-10.0232
筆	-10.0243
之至	-10.0246
不逺	-10.0248
阻	-10.025
沙	-10.025
芑	-10.0251
小者	-10.0252
不容	-10.0256
跡	-10.0258
公之	-10.0259
於君	-10.0268
驪	-10.0272
左傳云	-10.0273
汝墳	-10.0277
憎	-10.0278
寳	-10.0278
草蟲	-10.0283
若是	-10.0287
道路	-10.0288
之化	-10.0291
道之	-10.0305
緑	-10.0315
郎反	-10.0316
惠公	-10.032
作者	-10.0325
兕	-10.0325
天降	-10.0326
責之	-10.0328
湑	-10.0329
悟	-10.0331
于周	-10.0333
晉侯	-10.0336
辨之	-10.0339
以此為	-10.0339
泮宫	-10.0339
項	-10.0346
言語	-10.0351
之道也	-10.0352
諸家	-10.0354
芣苢	-10.0355
軒	-10.0356
組	-10.036
太姒	-10.0363
菹	-10.037
衛之	-10.0372
引此詩	-10.0373
為善	-10.0383
皇考	-10.0384
也孔云	-10.0385
膺	-10.0389
其能	-10.0392
神之	-10.0398
有三	-10.0399
先君	-10.04
之人也	-10.0406
而未	-10.0408
雝	-10.0408
杕杜	-10.0413
刪	-10.0414
緫	-10.0414
王姬	-10.0416
逺矣	-10.0427
禮也	-10.0432
翳	-10.0435
初生	-10.0435
苕	-10.0436
狀	-10.0443
晏	-10.0447
者又	-10.0451
賁	-10.0459
健	-10.0467
浚	-10.047
者故	-10.047
朱氏	-10.0473
伐崇	-10.0474
孫炎曰	-10.0474
蘇曰	-10.0475
亦然	-10.0475
行禮	-10.0476
隼	-10.0489
狹	-10.0491
諸臣	-10.0494
昧	-10.0495
壁	-10.0499
盡其	-10.0503
爲之	-10.0503
鄭伯	-10.0504
也既	-10.0506
駿	-10.0507
之車	-10.0508
中有	-10.0521
悖	-10.0522
而言也	-10.0523
四時	-10.0529
在東	-10.0531
於天下	-10.0532
説文作	-10.0534
配天	-10.0534
憂也	-10.0536
采蘋	-10.0538
之深	-10.0539
邱	-10.0544
莪	-10.0545
悼	-10.0547
三公	-10.0548
偃	-10.0548
摧	-10.0548
暴虐	-10.0549
佳	-10.0553
截	-10.0566
衣裳	-10.0567
之正	-10.0569
亳	-10.057
皆謂	-10.0573
普	-10.0574
異姓	-10.0575
養老	-10.0576
䝉	-10.0576
皮弁	-10.0577
周召	-10.0578
雁	-10.0578
者惟	-10.0581
既見君子	-10.0586
言天	-10.0589
一節	-10.0591
苓	-10.0603
又作	-10.0606
菅	-10.0609
赫赫	-10.061
棣	-10.0611
仲春	-10.0614
鄰	-10.0631
巾	-10.0632
王肅云	-10.0636
庻	-10.0637
冀	-10.0637
葉似	-10.0642
以相	-10.0644
攝	-10.0647
遂以	-10.0649
荆楚	-10.065
二者	-10.065
斬	-10.0653
無良	-10.0654
里反	-10.0654
慰	-10.0656
邶鄘	-10.0658
覯	-10.0659
其臣	-10.066
為王	-10.0665
王者之	-10.0667
二詩	-10.0668
注同	-10.0668
狡童	-10.067
魴	-10.0681
熱	-10.0685
隕	-10.0686
黼	-10.0687
葛藟	-10.0688
嚮	-10.0689
給	-10.069
迨	-10.069
翔	-10.0691
四方之	-10.0691
之詩曰	-10.0695
筐	-10.0695
猛	-10.0696
不可不	-10.07
左傳曰	-10.0702
車之	-10.0702
用事	-10.0704
也凡	-10.0704
蘆	-10.0707
詢	-10.071
名也	-10.0727
或云	-10.0728
濕	-10.073
呂	-10.0735
岐周	-10.0738
互	-10.0741
憚	-10.0745
增	-10.0746
大明	-10.0747
考工記	-10.0749
璋	-10.0751
禮儀	-10.0754
夷狄	-10.0756
親親	-10.0763
亦謂	-10.0767
趣	-10.0769
羔羊	-10.0769
湏	-10.0771
而思	-10.0772
陋	-10.0774
垣	-10.0775
郎	-10.0781
起興	-10.0784
侯伯	-10.0793
蹶	-10.0797
摇	-10.0801
拾	-10.0802
卽	-10.0803
采芑	-10.0803
操	-10.0804
弛	-10.0804
一語	-10.0804
而知	-10.0806
鱣	-10.0806
之詞也	-10.0813
賜之	-10.0815
庶民	-10.0816
俱作	-10.0826
其色	-10.0827
墜	-10.0828
成康	-10.0829
逢	-10.083
亭	-10.0832
其本	-10.0832
芹	-10.0834
午	-10.0834
太祖	-10.0834
朝服	-10.0836
北方	-10.0841
蘩	-10.0857
相近	-10.0857
脫	-10.0858
於上	-10.0868
無罪	-10.087
四馬	-10.0873
舉其	-10.0876
朝夕	-10.0881
無復	-10.0884
三星	-10.0885
恱	-10.0887
樂記	-10.0887
不絶	-10.089
錦	-10.0895
田祖	-10.0905
騂	-10.0905
王朝	-10.0906
饒	-10.0917
榦	-10.0918
鼓鐘	-10.092
壹	-10.092
而立	-10.0925
僻	-10.0929
踰	-10.093
叢生	-10.0933
俊	-10.0936
鳥獸	-10.0939
鳯	-10.0942
邠	-10.0946
淑	-10.0947
鴛鴦	-10.095
故有	-10.0951
反音	-10.0953
或有	-10.0965
孫子	-10.0968
鐵	-10.0969
山之	-10.0972
親之	-10.0973
距	-10.0977
寸	-10.0978
遐	-10.0988
西方	-10.099
行而	-10.0991
其母	-10.0992
笱	-10.1001
毫	-10.1004
祠	-10.1005
甚明	-10.1008
和樂	-10.1037
善人	-10.1037
涇	-10.1042
五十	-10.1046
以求	-10.1053
懈	-10.1058
誨	-10.1061
弊	-10.1064
絃	-10.1066
之色	-10.1076
兄弟之	-10.1077
酬	-10.1083
皆作	-10.1084
乃是	-10.1084
其間	-10.1086
顔色	-10.1102
十三	-10.1108
螽	-10.1108
劉氏瑾曰	-10.1115
彤弓	-10.1119
四十	-10.1119
膚	-10.1121
去之	-10.1124
辯	-10.1125
成之	-10.1128
此詩言	-10.1138
侍	-10.1141
㡬	-10.1147
卬	-10.1149
魯詩	-10.1157
媒	-10.1162
此序	-10.1162
小大	-10.1168
寘	-10.1174
祊	-10.1174
蜉蝣	-10.1175
旒	-10.1177
其來	-10.1181
吕氏曰	-10.1184
鷹	-10.1185
既成	-10.1188
賦也毛傳	-10.1194
可見矣	-10.1197
詩人之意	-10.1197
訊	-10.1204
寤	-10.1208
敘	-10.1209
銜	-10.1209
夭	-10.1221
二物	-10.1228
饑饉	-10.1234
之為言	-10.1238
兎	-10.1239
九州	-10.1245
言王	-10.1248
人者	-10.1248
邢	-10.1254
三章皆	-10.1254
中興	-10.1255
塵	-10.1264
昆夷	-10.1267
始終	-10.1267
氓	-10.1268
無可	-10.1268
二章章四句	-10.1269
之罪	-10.1269
収	-10.127
世子	-10.1273
而欲	-10.1278
助之	-10.1279
祭服	-10.1282
心之憂矣	-10.1286
皆在	-10.1288
政教	-10.1295
維其	-10.1295
髦	-10.1296
肩	-10.1297
而見	-10.1298
覩	-10.1298
人以	-10.1307
之異	-10.1314
頑	-10.1323
崔	-10.1323
臣子	-10.1324
雖無	-10.1324
腓	-10.1325
梟	-10.1335
叢	-10.1338
其可	-10.1356
藩	-10.1356
畀	-10.1358
陸疏	-10.1361
居之	-10.1362
原隰	-10.1363
既有	-10.1366
成周	-10.1366
尊卑	-10.1369
父母之	-10.1378
刺之	-10.1381
此云	-10.1383
罹	-10.1385
相承	-10.1392
不失	-10.1393
品	-10.14
之主	-10.1413
在外	-10.1415
袪	-10.1417
生子	-10.1421
前章	-10.1422
徳音	-10.1427
抱	-10.1428
西南	-10.1431
衆妾	-10.1431
蘋	-10.144
狐裘	-10.1443
召穆公	-10.1444
纓	-10.145
止于	-10.145
文王之德	-10.1452
未聞	-10.1453
湯孫	-10.1455
不息	-10.1456
人臣	-10.1474
紙	-10.1476
天子諸侯	-10.1476
其詞	-10.1486
婦人之	-10.1488
行道	-10.149
小而	-10.1494
繡	-10.1508
明其	-10.1509
激	-10.1509
虧	-10.1511
次第	-10.1517
作於	-10.1517
二國	-10.152
不敬	-10.152
為惡	-10.152
蓋以	-10.1523
于王	-10.1524
有罪	-10.1524
又能	-10.1525
庭燎	-10.1535
莠	-10.1536
涼	-10.1537
雖不	-10.1539
爼	-10.1541
不平	-10.1554
獻公	-10.1556
泛	-10.156
以時	-10.1562
影	-10.1569
穢	-10.1572
可也	-10.1583
罟	-10.1598
擾	-10.1601
因其	-10.1605
之徒	-10.1616
時邁	-10.1619
者盖	-10.1624
絳	-10.1626
罰	-10.1627
郭璞云	-10.163
濡	-10.1635
鈴	-10.1635
臣之	-10.1636
明也	-10.164
明王	-10.1647
求賢	-10.1649
之常	-10.1652
顛	-10.1655
樂只君子	-10.1657
極其	-10.1658
聼	-10.1661
庾	-10.1661
耜	-10.1661
篇中	-10.1662
揭	-10.1662
在今	-10.1663
不成	-10.1663
事之	-10.1663
七十	-10.1667
可知也	-10.1681
之義也	-10.1682
大任	-10.1685
義同	-10.1688
戢	-10.1694
枚	-10.1694
是非	-10.1694
詛	-10.1697
注曰	-10.1701
送之	-10.1706
非獨	-10.1709
如此而	-10.1714
勑	-10.1715
墻	-10.1723
何其	-10.1726
謂我	-10.1726
濫	-10.1728
毛以	-10.173
微子	-10.173
宏	-10.1749
之失	-10.1752
不暇	-10.1756
也葢	-10.1756
茂盛	-10.1761
明是	-10.1762
太公	-10.1765
夀考	-10.1767
音同	-10.1769
之甚也	-10.1769
豈弟君子	-10.1771
故稱	-10.1774
巷伯	-10.1774
不入	-10.1776
猶未	-10.178
晨	-10.178
談	-10.1783
乖	-10.1785
遜	-10.1785
三家	-10.1787
婚	-10.1788
薄言	-10.1788
正直	-10.1794
獨言	-10.1794
此說	-10.18
岡	-10.1806
忠厚	-10.1809
肇	-10.1811
行葦	-10.1818
十年	-10.1822
瑕	-10.183
不通	-10.1831
民心	-10.1832
雲漢	-10.1837
雅頌	-10.1838
小人之	-10.1839
釋名云	-10.184
可用	-10.1842
皆非	-10.1843
峻	-10.1844
東征	-10.1844
於民	-10.1845
滛	-10.1846
惡之	-10.1853
豈非	-10.1858
故次之以	-10.1859
之節	-10.1864
又音	-10.1867
非特	-10.187
兵車	-10.1875
臯	-10.1877
慘	-10.1878
陷	-10.1879
擬	-10.1883
三軍	-10.1883
未至	-10.1884
於下	-10.1889
承上	-10.189
燕燕	-10.1892
取義	-10.1893
之善	-10.1893
醴	-10.1896
次序	-10.1902
小弁	-10.1903
自古	-10.1903
之亂	-10.1904
下有	-10.1908
於其	-10.1909
成王之	-10.191
予之	-10.1913
闢	-10.1914
猶云	-10.1914
十二年	-10.1915
之候	-10.1915
頸	-10.1918
之患	-10.1918
雎鳩	-10.1925
或以為	-10.1925
記曰	-10.193
三百篇	-10.1932
》、	-10.1932
出于	-10.1936
天命之	-10.1944
非有	-10.1952
秋冬	-10.1956
字從	-10.196
巷	-10.1963
酒食	-10.1964
得失	-10.1964
之極	-10.1966
善惡	-10.1968
鸛	-10.1968
者此	-10.197
皆同	-10.197
此以	-10.1973
倉庚	-10.1974
㓜	-10.1975
中央	-10.1977
使民	-10.1978
者是也	-10.198
治也	-10.1982
意也	-10.1982
家室	-10.1985
三章言	-10.1986
外傳	-10.1993
籍	-10.2
對曰	-10.2003
戴公	-10.2004
旬	-10.2005
汚	-10.2007
云爾	-10.2015
桑中	-10.2016
也但	-10.202
康王	-10.2025
太原	-10.2026
也或曰	-10.2028
白色	-10.2033
大而	-10.2035
股	-10.2035
駱	-10.2037
稅	-10.2037
之性	-10.2048
始也	-10.2052
者葢	-10.207
汙	-10.2073
穆穆	-10.2073
伐鄭	-10.2083
而終	-10.2086
其羽	-10.2092
之可	-10.2092
鄂	-10.2096
之勞	-10.2099
葭	-10.21
南北	-10.2102
將帥	-10.2106
燭	-10.2107
柏舟	-10.2108
軫	-10.2108
殷之	-10.2118
之位	-10.2119
以示	-10.2119
東萊曰	-10.2128
之木	-10.2128
是謂	-10.2128
有司	-10.2131
暗	-10.2135
佩玉	-10.2135
青蠅	-10.2143
犬戎	-10.2144
首章言	-10.2154
吁	-10.2163
矦	-10.2165
前篇	-10.2167
費	-10.217
凱風	-10.217
者何	-10.2175
喜樂	-10.2175
多也	-10.2182
康叔	-10.2185
頃	-10.2191
己之	-10.2192
說文作	-10.2198
簧	-10.22
皆得	-10.2205
剥	-10.2205
反下同	-10.221
何不	-10.2214
九年	-10.2216
稱其	-10.2222
九章	-10.2232
餞	-10.2233
亮	-10.2234
椓	-10.2234
確	-10.2236
鳥之	-10.2237
墨	-10.2241
輻	-10.2242
不聞	-10.2243
東遷	-10.2244
無疑	-10.225
讀詩	-10.2252
文王之化	-10.2265
躍	-10.2265
言之則	-10.2266
刺王	-10.2267
蜩	-10.2268
巫	-10.227
薺	-10.2274
黍離	-10.2276
郭璞	-10.2278
求其	-10.2282
豐本	-10.2282
之用	-10.2287
鄭注	-10.2293
陸佃云	-10.2295
有大	-10.2295
棠	-10.2295
中之	-10.2295
飾也	-10.2306
東人	-10.2308
女之	-10.2312
首尾	-10.2313
於我	-10.2319
説者	-10.232
孟子曰	-10.2321
虢	-10.2323
瑱	-10.2325
眞	-10.2331
容貌	-10.2332
豵	-10.2332
頒	-10.2332
黄帝	-10.2333
公尸	-10.2346
之思	-10.235
》《	-10.2354
秩秩	-10.2355
分别	-10.2356
員	-10.2357
見棄	-10.2358
其樂	-10.2358
芾	-10.2363
劬勞	-10.2364
饁	-10.2364
萍	-10.2367
高宗	-10.2371
鳳	-10.2372
正義曰毛以為	-10.2374
天道	-10.2381
瘁	-10.2384
不免	-10.2384
而且	-10.2387
未得	-10.2387
助也	-10.2391
君也	-10.2394
過也	-10.2394
詒	-10.2396
曲禮	-10.2396
德之	-10.2398
伊尹	-10.2399
賛	-10.2399
而食	-10.24
僣	-10.2401
駟	-10.2402
饋	-10.2402
罔極	-10.2411
於詩	-10.2415
其初	-10.2416
殺之	-10.2418
人倫	-10.242
陳氏	-10.242
而已矣	-10.2422
愧	-10.2424
宗族	-10.2427
梧桐	-10.2428
及時	-10.2428
之飾	-10.243
之勢	-10.243
于外	-10.2433
翕	-10.2434
董	-10.2438
施於	-10.2443
奢	-10.2459
人道	-10.2462
迂	-10.2463
楚辭	-10.2464
人而	-10.2466
東門	-10.2468
漢廣	-10.2469
十四	-10.2469
赤色	-10.247
公族	-10.2477
醢	-10.2478
易曰	-10.2481
申后	-10.2487
士之	-10.2488
之首	-10.2493
焚	-10.2495
萑	-10.2497
廹	-10.2499
蜂	-10.2502
華谷嚴氏曰	-10.2504
東北	-10.2512
曰我	-10.2518
明徳	-10.2523
兩章	-10.2524
祁祁	-10.253
天理	-10.2531
之盛也	-10.2531
之體	-10.2531
敕	-10.2532
芼	-10.2532
則當	-10.2546
無道	-10.2549
以供	-10.2549
聖賢	-10.2553
緒	-10.2554
衛人	-10.2556
入於	-10.2558
悅	-10.2562
動也	-10.2566
刃	-10.2566
伍	-10.2567
韠	-10.2572
脚	-10.2573
言之也	-10.2573
申之	-10.2575
何反	-10.2577
無事	-10.2581
為此	-10.2583
壽考	-10.2584
者乎	-10.2592
字从	-10.2596
滯	-10.2599
韓詩云	-10.2601
沒	-10.2602
鱗	-10.2602
多士	-10.2602
之學	-10.2604
之野	-10.2606
轅	-10.2607
淇水	-10.2611
自謂	-10.2613
猶可	-10.2617
見于	-10.262
序説	-10.2625
而為之	-10.2626
之大者	-10.2628
徐方	-10.263
秬	-10.2633
蹙	-10.2634
狗	-10.264
鄭箋云	-10.2647
入于	-10.2657
簋	-10.2663
十六	-10.2664
相見	-10.2664
鎮	-10.2665
魯人	-10.2669
公侯	-10.2669
伐柯	-10.2673
而至於	-10.2673
睦	-10.2674
非徒	-10.2674
之作	-10.2677
程子	-10.2686
記云	-10.2687
國名	-10.269
多福	-10.2691
無一	-10.2691
羔	-10.2692
暴公	-10.2693
路寢	-10.2699
范氏處義曰	-10.2702
廣雅	-10.2702
樛木	-10.2705
之憂	-10.2705
酉	-10.2707
明明	-10.2707
倍	-10.2728
所得	-10.273
曰此	-10.2735
饌	-10.2737
二公	-10.2739
也蘇氏曰	-10.2741
大事	-10.2742
已有	-10.2742
汎	-10.275
者矣	-10.2752
衮	-10.2756
而長	-10.2758
類也	-10.2761
牟	-10.2761
鰥	-10.2768
耘	-10.2768
者多	-10.277
也此詩	-10.277
列國	-10.277
凌	-10.2771
漏	-10.2771
鳶	-10.2775
竹書	-10.2781
上公	-10.2784
長大	-10.2784
便是	-10.2786
臣下	-10.2787
王師	-10.2789
名為	-10.2792
於廟	-10.2792
推本	-10.2794
苴	-10.2802
鳬	-10.2806
不窋	-10.2807
澣	-10.281
公田	-10.2813
鄭康成	-10.2821
言此	-10.2824
愆	-10.283
零	-10.2836
鴟	-10.2839
泣	-10.284
融	-10.2841
樸	-10.2842
撰	-10.2843
此二	-10.2848
故以為	-10.2849
明堂位	-10.2849
矣今	-10.285
劉向	-10.285
今從	-10.2856
治其	-10.2857
天地之	-10.2857
三篇	-10.2867
是故	-10.2868
炎	-10.2869
烹	-10.2871
艱	-10.2872
碩	-10.2873
柱	-10.2873
愁	-10.2875
之由	-10.2875
齊桓	-10.2878
特牲	-10.2882
曠	-10.2888
伐檀	-10.2892
恐其	-10.2894
后稷之	-10.2896
周書	-10.2898
郊祀	-10.2901
以封	-10.2906
山有	-10.2907
故名	-10.2909
既言	-10.291
返	-10.2911
斯干	-10.2915
將將	-10.2915
有德	-10.2916
王國	-10.2918
其惡	-10.2919
西周	-10.2921
歌之	-10.2924
三分	-10.2924
列於	-10.2926
哀公	-10.2929
泮水	-10.2934
亦謂之	-10.2941
纍	-10.2946
珍	-10.2948
堇	-10.295
溱洧	-10.2951
同時	-10.2954
不特	-10.2954
秩	-10.2955
桓王	-10.2956
莫之	-10.2958
李氏	-10.2962
吉士	-10.2965
國中	-10.2967
薛	-10.2967
也古者	-10.2974
藿	-10.2976
燕射	-10.2977
章八句	-10.2978
叶居	-10.2978
靈公	-10.2979
駮	-10.298
希	-10.298
柯	-10.298
慝	-10.2981
轍	-10.2982
巡守	-10.2984
槩	-10.299
力反	-10.2995
讒言	-10.2996
一韻	-10.2997
未能	-10.3003
盾	-10.3013
為政	-10.3013
据	-10.3016
飯	-10.3016
搏	-10.3017
郭注	-10.3021
凉	-10.3021
靷	-10.3024
此所以	-10.3026
以至	-10.3027
從容	-10.3027
候人	-10.3036
我以	-10.3045
其家	-10.3047
乂	-10.3052
乳	-10.3052
纒	-10.3053
奔走	-10.3053
瞽	-10.3055
皆不	-10.3055
卷阿	-10.3055
之餘	-10.3058
在野	-10.306
夙	-10.3061
迷	-10.3064
藴	-10.3083
吕氏	-10.3083
縮	-10.3084
頼	-10.3085
踈	-10.3088
隋	-10.3088
成而	-10.309
即所謂	-10.3091
皇祖	-10.3098
一字	-10.311
郭云	-10.3111
謂此	-10.3113
大田	-10.3114
所出	-10.3117
無衣	-10.3118
則此	-10.3118
輒	-10.3122
王道	-10.3123
有事	-10.3127
懌	-10.3128
此人	-10.3134
荀子	-10.3136
遥	-10.3139
梁山	-10.3141
氣象	-10.3141
蒹葭	-10.3141
芮	-10.3147
引之	-10.3147
所宜	-10.315
彭彭	-10.3157
蓬	-10.3158
頻	-10.3158
憲	-10.3158
囊	-10.316
昏禮	-10.3162
賓客	-10.3163
襃姒	-10.3163
三十里	-10.3165
也愚按	-10.3177
以歸	-10.3177
往往	-10.318
征役	-10.3183
充耳	-10.3184
此乃	-10.3192
烝民	-10.3194
婁	-10.3196
采菽	-10.3201
斾	-10.3206
相土	-10.3207
何必	-10.3209
在朝	-10.3219
自得	-10.3219
非禮	-10.3226
鴇	-10.3227
觥	-10.3229
河南	-10.3236
艱難	-10.3239
風之	-10.3241
焉則	-10.3247
何人	-10.325
詩有	-10.3251
公羊	-10.3252
阮	-10.3262
瓦	-10.3264
值	-10.3265
嬖	-10.3265
得見	-10.327
不遑	-10.3271
隰有	-10.3282
之君子	-10.3284
者所以	-10.3285
而止	-10.3288
十月之交	-10.3294
衆人	-10.3296
毖	-10.3298
葛覃	-10.3301
木也	-10.3302
閲	-10.3305
楚丘	-10.3305
冒	-10.3306
而使	-10.3306
駵	-10.333
綢繆	-10.3332
其位	-10.3333
戊	-10.3336
割	-10.3337
輦	-10.334
姦	-10.3341
人之所	-10.3342
滌	-10.3344
上章言	-10.3347
天保	-10.3354
五色	-10.336
燕饗	-10.336
語意	-10.3361
作此	-10.3373
囚	-10.3374
麌	-10.3375
語辭	-10.3378
雝雝	-10.3379
共伯	-10.338
振振	-10.3382
得其所	-10.3389
苑	-10.3399
補音	-10.3405
婚姻	-10.3407
自言	-10.3407
也二章	-10.3408
而實	-10.3409
謗	-10.3409
弭	-10.341
處也	-10.341
韓奕	-10.341
田畯	-10.3412
濶	-10.3412
褎	-10.3414
八尺	-10.3414
而巳	-10.3426
用此	-10.3426
六師	-10.3435
其一	-10.3435
五反	-10.3435
恭敬	-10.3439
之歌	-10.344
詩所謂	-10.3441
釣	-10.3449
㸔	-10.345
狡	-10.3451
判	-10.3453
樂易	-10.3456
而言之	-10.3459
鼻	-10.3459
明言	-10.346
錢氏曰	-10.3477
水鳥	-10.3478
堂下	-10.348
也鄭曰	-10.3481
常武	-10.3481
秣	-10.3485
信也	-10.3488
由此	-10.3492
妖	-10.3492
此與	-10.3494
十六年	-10.3494
諸篇	-10.3497
鳧	-10.3498
地也	-10.3503
正是	-10.3504
賤者	-10.351
而大	-10.3511
書傳	-10.3512
其室家	-10.3516
之樂歌	-10.3521
羹	-10.3522
鴻鴈	-10.3523
如彼	-10.3526
凢	-10.3531
文武之	-10.3531
之惡	-10.3532
誤也	-10.354
熾	-10.354
盛徳	-10.3541
下國	-10.3543
鄭以為	-10.3546
經傳	-10.3546
鼉	-10.3555
穉	-10.3559
視朝	-10.356
黜	-10.3561
優游	-10.3565
蕨	-10.3565
出而	-10.3568
其行	-10.3572
嘉賔	-10.3576
於是乎	-10.3578
日食	-10.3589
覲	-10.3589
既醉	-10.359
衝	-10.3596
將以	-10.3599
所思	-10.3601
之役	-10.3601
托	-10.3601
成也	-10.3601
攜	-10.3602
之㫖	-10.3607
也詩曰	-10.3608
夏正	-10.361
清明	-10.3612
疾也	-10.3615
德音	-10.3616
心也	-10.3619
揖	-10.3621
福祿	-10.3622
可畏	-10.3623
少牢	-10.3624
其政	-10.3628
翦	-10.363
彫	-10.3631
置之	-10.3632
魯侯	-10.3634
扈	-10.3634
家父	-10.3636
庇	-10.3638
王風	-10.3655
後漢	-10.366
莘	-10.3665
之謀	-10.3667
小戎	-10.3668
四章言	-10.367
脊	-10.3671
彼其之子	-10.3673
後儒	-10.3675
附庸	-10.3676
者當	-10.3676
文王受命	-10.368
生于	-10.368
宛丘	-10.3686
世之	-10.3692
劉氏曰	-10.3699
雨雪	-10.3703
鄭氏謂	-10.3707
蝃蝀	-10.3708
簟	-10.3714
不思	-10.3717
思文	-10.3722
王政	-10.3723
壻	-10.3729
以樂	-10.3731
公卿	-10.3733
集傳興也	-10.3737
賢妃	-10.3739
忠臣	-10.3745
也爾雅	-10.3747
莞	-10.3748
為人	-10.3749
練	-10.375
麟趾	-10.375
在彼	-10.3752
毗	-10.3752
八年	-10.3753
之精	-10.3757
也案	-10.3761
北風	-10.3766
無子	-10.377
祈父	-10.3771
以及	-10.3777
臣工	-10.3778
訴	-10.3778
終也	-10.3779
而致	-10.378
未盡	-10.3785
竦	-10.3786
暢	-10.3789
雩	-10.3791
鋭	-10.3794
執競	-10.3794
文徳	-10.3794
也故曰	-10.3804
路車	-10.3808
軸	-10.3809
則能	-10.3812
亦為	-10.3819
不食	-10.3821
葛屨	-10.383
税	-10.3831
之所為	-10.3831
之形	-10.3833
邢疏	-10.3836
芻	-10.3838
成其	-10.384
昔者	-10.3842
釋之	-10.3848
兒	-10.3851
之妻	-10.3858
毛氏萇曰	-10.3862
九罭	-10.3862
霸	-10.3863
糾	-10.3864
拂	-10.3867
有聲	-10.3867
穿鑿	-10.3868
杖	-10.3872
維清	-10.3875
安樂	-10.3887
不正	-10.3887
獻之	-10.3893
之事而	-10.3898
盗	-10.3902
萋萋	-10.3902
卭	-10.3903
㦸	-10.3903
其常	-10.3909
與其	-10.3915
終風	-10.3917
百官	-10.3918
淑女	-10.392
譚	-10.3921
素絲	-10.3922
之心也	-10.393
䕶	-10.3939
不勝	-10.3939
荑	-10.3939
盜	-10.394
侑	-10.3942
控	-10.3944
彰	-10.3944
贅	-10.3946
伸	-10.3948
思古	-10.3953
人民	-10.3955
妹	-10.3958
萬舞	-10.3963
良人	-10.3966
者由	-10.3967
士卒	-10.3974
喈喈	-10.3977
絜	-10.3982
願其	-10.3982
斁	-10.3983
巧言	-10.3987
相對	-10.399
成就	-10.399
人君之	-10.3996
河上	-10.4001
大東	-10.401
南有嘉魚	-10.4013
如一	-10.4014
之先	-10.4016
讎	-10.4017
以備	-10.402
季女	-10.4021
張氏曰	-10.4022
者名	-10.4024
噫嘻	-10.4024
使其	-10.403
絲衣	-10.4039
之别	-10.404
下篇	-10.4046
家人	-10.4049
犧	-10.4051
鼈	-10.4056
麋	-10.4058
枸	-10.406
逼	-10.4061
干旄	-10.4062
笠	-10.4065
十二月	-10.4069
當有	-10.4072
幽王之	-10.4094
軾	-10.4095
此類	-10.4097
張子曰	-10.41
河水	-10.41
証	-10.41
枯	-10.4102
周南召南	-10.4104
晉人	-10.4112
福也	-10.4117
測	-10.4118
義理	-10.4119
滅之	-10.4119
明年	-10.4122
者即	-10.4124
宜其	-10.4125
溺	-10.4128
箱	-10.4131
安能	-10.4134
肄	-10.4136
而民	-10.4137
填	-10.4141
襍	-10.4141
芒	-10.4142
相合	-10.4142
家語	-10.4148
潔白	-10.4152
經云	-10.4154
由是	-10.4157
新昏	-10.4158
序者	-10.4161
也傳正義曰	-10.4165
刺幽王	-10.417
株林	-10.4173
詩記	-10.4173
不均	-10.4175
淪	-10.4175
騶	-10.4176
館	-10.4177
盤庚	-10.4177
捨	-10.4178
作此詩	-10.4179
集于	-10.4184
無人	-10.4186
令人	-10.419
天官	-10.4198
秦仲	-10.42
念之	-10.4207
所引	-10.4207
跂	-10.4211
葉如	-10.4212
柴	-10.4212
孕	-10.4214
郷	-10.4216
乏	-10.4219
譌	-10.4223
厚也	-10.4224
門内	-10.4224
不可得而	-10.4228
諸詩	-10.423
三代	-10.4233
今考	-10.4233
曰吾	-10.4243
上之	-10.4244
釋文云	-10.4251
殷武	-10.4252
還歸	-10.4255
罷	-10.4257
俯	-10.4257
殿	-10.4257
迭	-10.4259
檀	-10.426
甥	-10.4261
溫	-10.4261
引此	-10.4267
大序	-10.4268
以安	-10.427
何時	-10.4271
患難	-10.4276
之舊	-10.4277
綠	-10.4279
賢女	-10.4279
其妻	-10.4283
稱之	-10.4283
其憂	-10.4287
數也	-10.4289
擊鼓	-10.4289
尚有	-10.429
大夫士	-10.4291
飄	-10.4292
吴	-10.4294
亦同	-10.4294
芟	-10.4296
韻亦叶	-10.4296
噐	-10.4297
六句	-10.4298
刺其	-10.4299
主於	-10.4299
之誤	-10.4301
綿	-10.4301
赤芾	-10.4304
安定	-10.4306
載馳	-10.4308
上之人	-10.431
逺也	-10.4315
五帝	-10.4316
者自	-10.432
備也	-10.4321
而往	-10.4322
濮	-10.4323
以養	-10.4324
俗呼	-10.4324
廉	-10.4336
矯	-10.4341
㸃	-10.4343
貨	-10.4343
其子孫	-10.4349
我將	-10.435
如玉	-10.4353
所指	-10.4354
息也	-10.4355
東萊	-10.4356
翅	-10.4356
行列	-10.4359
成文	-10.436
鄒	-10.4365
泰山	-10.4368
七子	-10.4369
要之	-10.4371
三監	-10.4378
筮	-10.4378
阜螽	-10.438
祚	-10.438
穡	-10.438
舂	-10.4381
局	-10.4381
國史	-10.4383
而不見	-10.4384
帝嚳	-10.4386
藏之	-10.4386
無非	-10.4389
牧人	-10.4389
御者	-10.4391
其罪	-10.4393
苦菜	-10.4394
潤澤	-10.4397
楸	-10.4406
云云	-10.4408
下言	-10.4409
魯之	-10.4412
之來	-10.4416
陸氏	-10.4418
以事	-10.4419
㝠	-10.442
挹	-10.442
冦	-10.4421
為樂	-10.4421
歸于	-10.4423
大率	-10.4426
諸矦	-10.4426
在内	-10.4428
箇	-10.4429
作于	-10.443
訛言	-10.4434
世世	-10.4435
其類	-10.4436
木𤓰	-10.4443
湛	-10.4444
麕	-10.4453
未有不	-10.4455
卧	-10.4459
檢	-10.4459
脊令	-10.4464
去其	-10.4467
之久	-10.447
晨風	-10.4474
唐風	-10.4474
髙大	-10.4476
行則	-10.4477
正與	-10.4478
可通	-10.4483
春秋書	-10.4484
陽縣	-10.4488
是用	-10.4491
祇	-10.4498
逮	-10.45
也毛曰	-10.4502
沚	-10.4503
列女傳	-10.4503
鵰	-10.4503
種之	-10.4505
杜預	-10.4505
變而	-10.4511
鄭𤣥	-10.4513
忠信	-10.4521
欲以	-10.4523
章六句	-10.4523
為興	-10.4531
明白	-10.4536
方伯	-10.4537
如雲	-10.4539
謀之	-10.4539
長發	-10.454
雕	-10.4541
促	-10.4544
蹻蹻	-10.4544
廼	-10.4545
以祀	-10.4547
十篇	-10.4548
去也	-10.4552
故不	-10.4557
為異	-10.4557
名曰	-10.4564
死亡	-10.4564
一朝	-10.4566
荘	-10.4567
沼	-10.4569
相戒	-10.4569
篇云	-10.457
逺而	-10.4572
隂雨	-10.4573
間有	-10.4578
劉氏	-10.4579
王事靡盬	-10.458
人主	-10.4581
拊	-10.4584
抽	-10.4587
𦙍	-10.4588
吞	-10.4589
爨	-10.459
十八	-10.4593
門外	-10.4597
古文	-10.4609
所由	-10.4611
虡	-10.4614
至是	-10.462
不來	-10.462
在廟	-10.4623
未成	-10.4624
蹈	-10.4627
坎	-10.4628
遍	-10.4628
同意	-10.4629
無他	-10.4632
也周禮	-10.4633
缶	-10.4634
正其	-10.4636
定其	-10.4644
詩說	-10.4645
莊子	-10.4645
狀如	-10.4647
宵	-10.4654
程曰	-10.466
傳以	-10.4661
凡伯	-10.4664
其事也	-10.4664
不顧	-10.4667
直言	-10.4669
綦	-10.4673
憐	-10.4676
以下皆	-10.4679
童子	-10.4683
豈能	-10.4687
作詩者	-10.4688
乃以	-10.469
猗嗟	-10.4695
存之	-10.4697
四尺	-10.4702
小星	-10.4702
禋祀	-10.4703
黻	-10.4709
狎	-10.471
蟊賊	-10.471
棫樸	-10.4711
𩔖	-10.4713
虺	-10.4714
自傷	-10.4715
亦未	-10.4718
荘公	-10.4721
尊之	-10.4723
水草	-10.4724
而求	-10.4724
其勢	-10.4727
囘	-10.4734
桃夭	-10.4735
亶	-10.4739
聲音	-10.474
荀	-10.4743
貍	-10.4745
意思	-10.4746
草名	-10.4747
者或	-10.4749
疚	-10.4749
粗	-10.475
惡也	-10.4752
脯	-10.4753
焉故	-10.476
之事故	-10.4764
之所由	-10.4765
者正	-10.4766
公孫	-10.4767
后妃之	-10.4769
玉藻	-10.4771
也此言	-10.4772
唐棣	-10.4773
簡兮	-10.4774
則不可	-10.4775
〇	-10.4779
其舊	-10.4782
享之	-10.4782
話	-10.4784
修徳	-10.4784
子貢傳	-10.4784
李氏樗曰	-10.479
埤雅云	-10.479
堂上	-10.4793
墮	-10.4795
行露	-10.4796
既見	-10.4797
者如此	-10.4803
先人	-10.4804
既已	-10.4807
一説	-10.4808
汾	-10.4813
十一年	-10.4814
三千	-10.4814
大夫妻	-10.4823
棄其	-10.4824
説文曰	-10.4825
妙	-10.4825
六尺	-10.4829
墉	-10.483
際	-10.4833
燥	-10.4834
奭	-10.4834
遡	-10.4835
暫	-10.4836
藪	-10.4837
歸於	-10.4837
吉日	-10.4843
一身	-10.4848
久也	-10.4849
釋草	-10.4856
刺厲王	-10.4866
之誠	-10.4868
王城	-10.4868
矣夫	-10.4868
下泉	-10.4869
黒色	-10.4871
孫炎	-10.4872
絺	-10.4876
祐	-10.4876
栩	-10.4878
九十	-10.4878
斤	-10.4878
孌	-10.4878
迺	-10.488
知此	-10.4881
都邑	-10.4882
之俗	-10.4887
水出	-10.489
夸	-10.489
大夫刺幽王也	-10.4891
長而	-10.4892
之北	-10.4906
姜氏	-10.4909
其形	-10.4912
疊	-10.4916
幅	-10.4917
鮮明	-10.4918
耽	-10.4919
彛	-10.4919
橋	-10.4921
氐	-10.4921
饎	-10.4921
思無邪	-10.4922
迄	-10.4924
不以為	-10.4924
讐	-10.4926
變雅	-10.4929
人事	-10.493
恪	-10.4953
執事	-10.4956
殳	-10.496
犀	-10.4961
貶	-10.4964
亦可以	-10.4964
顛倒	-10.4964
來歸	-10.4966
小旻	-10.4967
旃	-10.4968
雌雄	-10.4968
寢廟	-10.4969
子男	-10.4969
鄭風	-10.497
菼	-10.4971
離散	-10.4971
乎其	-10.4985
無異	-10.4986
人謂之	-10.499
六十	-10.4993
之别名	-10.4994
堅固	-10.4994
䖍	-10.4996
裼	-10.4997
之教	-10.5
十五年	-10.5
酷	-10.5
穿	-10.5003
振鷺	-10.5006
輈	-10.501
旄丘	-10.501
章四句	-10.5016
九族	-10.5019
氏云	-10.5021
一體	-10.5021
平易	-10.5023
為義	-10.5029
郭註	-10.5035
用賢	-10.504
寝	-10.5042
為天	-10.5049
覽	-10.5049
又何	-10.505
興師	-10.505
蚤	-10.5051
朕	-10.5052
漁	-10.5053
而行之	-10.5054
齊桓公	-10.5059
人掌	-10.5062
也箋	-10.5066
無知	-10.5068
信之	-10.5068
在西	-10.5068
萬世	-10.507
中宗	-10.507
終身	-10.5076
耳非	-10.5092
嘉魚	-10.5092
鵙	-10.5094
嚴華谷	-10.5094
皆無	-10.5095
煑	-10.5099
二篇	-10.5099
班固	-10.5106
佞	-10.5108
洵	-10.511
其力	-10.5111
宜為	-10.5112
車攻	-10.5117
而用之	-10.512
物而	-10.512
陸農師	-10.5125
四篇	-10.513
捕	-10.5134
當如	-10.5134
不惟	-10.5135
傲	-10.5136
孽	-10.5136
也鄭	-10.5137
漬	-10.5138
熙	-10.5139
蓼蕭	-10.514
褐	-10.5142
羣小	-10.5144
文也	-10.5145
鄭氏以	-10.5149
悠	-10.5153
頌之	-10.5156
无	-10.5167
理之	-10.5171
義也	-10.5173
諧	-10.5177
壇	-10.518
士大夫	-10.518
尹吉甫	-10.5182
烈烈	-10.5183
蓺	-10.5183
苹	-10.5184
自此	-10.5185
風也	-10.5187
居處	-10.5187
捄	-10.5188
之東	-10.5194
三嵗	-10.5203
所止	-10.5206
以象	-10.5207
下云	-10.5216
飭	-10.5218
而王	-10.5219
闇	-10.5219
其馬	-10.522
不恤	-10.5222
珠	-10.5223
釡	-10.5223
無斁	-10.5223
遲遲	-10.5225
嗜	-10.5226
儆	-10.5226
煮	-10.5227
竄	-10.5227
荇菜	-10.5229
五采	-10.523
此心	-10.523
亥	-10.523
陳其	-10.523
貊	-10.5232
而至	-10.5236
之類是也	-10.5238
樂章	-10.5238
之宜	-10.524
不可以不	-10.524
為美	-10.5242
别有	-10.5247
之田	-10.5248
豐水	-10.5251
心之	-10.5253
十九	-10.5254
有節	-10.526
善道	-10.5261
筍	-10.5262
天意	-10.5263
樂歌	-10.5264
遁	-10.5266
樂而	-10.5268
十里	-10.527
彘	-10.527
孝經	-10.5271
鳳凰	-10.5272
未嘗不	-10.5274
屬也	-10.528
貴賤	-10.5281
下土	-10.5284
一國	-10.5286
訪	-10.5294
竊意	-10.5301
後章	-10.5303
軷	-10.5304
子貢	-10.5305
也彼	-10.5306
總聞曰	-10.5307
歸而	-10.5308
事君	-10.5309
緜緜	-10.5309
所致	-10.531
核	-10.5312
鴇羽	-10.5312
合樂	-10.5312
脅	-10.5313
為周	-10.5318
松柏	-10.5322
撥	-10.5326
愛其	-10.5329
不歸	-10.5333
也又曰	-10.5334
說文曰	-10.5335
既以	-10.5336
周語	-10.5339
詩以	-10.5344
發明	-10.5345
合於	-10.5351
一章言	-10.5356
濵	-10.5356
能使	-10.5359
之生	-10.5359
南陔	-10.5359
挈	-10.5359
忿	-10.5361
寶	-10.5363
下句	-10.5363
胄	-10.5363
灰	-10.5366
故君子	-10.5368
委曲	-10.537
不服	-10.5371
之過	-10.5381
歸也	-10.5383
刺時也	-10.5387
驂馬	-10.539
未定	-10.5394
令徳	-10.5394
情性	-10.5396
不順	-10.5397
鉦	-10.5398
今王	-10.5398
父之	-10.5399
而遂	-10.54
與子	-10.5401
兔罝	-10.5403
寇	-10.5403
汁	-10.5403
崧髙	-10.5404
而入	-10.5404
樞	-10.5406
亞	-10.5407
必不	-10.5413
豳雅	-10.5416
謨	-10.5422
許慎	-10.5425
耳若	-10.5434
宗子	-10.5439
紞	-10.5441
姻	-10.5444
木名	-10.5444
韭	-10.5445
大司馬	-10.5446
詐	-10.5446
禰	-10.5447
鞞	-10.5448
仁人	-10.5449
它	-10.5449
金縢	-10.545
鉞	-10.545
三后	-10.545
故得	-10.5452
兩句	-10.5452
男女相	-10.5452
也君子	-10.5452
掲	-10.5452
追述	-10.5459
微弱	-10.5459
信南山	-10.546
所陳	-10.5463
首句	-10.5465
十一	-10.5472
附㑹	-10.5477
當依	-10.548
也鄭云	-10.548
於諸侯	-10.5482
墳	-10.5487
胡不	-10.5492
陂	-10.5494
涖	-10.5494
君子偕老	-10.5495
憤	-10.5497
書云	-10.5499
涇水	-10.55
亦孔之	-10.5501
簫	-10.5502
相從	-10.5507
賢才	-10.5511
序以為	-10.5516
上篇	-10.5517
合而	-10.5522
大義	-10.5526
如此故	-10.5533
翬	-10.5534
而天下	-10.5536
應之	-10.5537
靣	-10.5539
臻	-10.554
快	-10.5541
抗	-10.5542
骨肉	-10.5542
熠燿	-10.5545
管叔	-10.555
爵弁	-10.5554
於義	-10.5557
貴者	-10.5563
相去	-10.5567
此其	-10.5571
其在	-10.5573
之母	-10.5573
豈無	-10.5578
憯	-10.5579
跋	-10.5582
埽	-10.5583
漢儒	-10.5584
於文王	-10.5586
蔚	-10.5586
噫	-10.5587
至誠	-10.5588
實有	-10.5589
今以	-10.559
土田	-10.5594
湛露	-10.5596
也惟	-10.5599
仁義	-10.56
饗之	-10.561
𫝊正義曰	-10.5611
無期	-10.5612
詩義	-10.5614
水名	-10.5618
族人	-10.5618
士女	-10.5619
風雅頌	-10.562
之恩	-10.5621
未敢	-10.5622
之閒	-10.5623
指其	-10.5623
芄蘭	-10.5625
賀	-10.5625
芸	-10.5627
旱麓	-10.563
奕奕	-10.5631
握	-10.5631
赴	-10.5631
重言	-10.5635
叶蒲	-10.564
古公	-10.5642
至今	-10.5645
親戚	-10.5647
此非	-10.5649
此之謂	-10.565
陟彼	-10.5654
奈何	-10.5655
亦何	-10.5658
嚴氏	-10.566
魯公	-10.5664
從而	-10.5672
駉	-10.5672
沱	-10.5673
芃芃	-10.5675
卉	-10.5676
召旻	-10.5678
葬	-10.5679
節南山	-10.568
逰	-10.5681
無定	-10.5681
荆州	-10.5685
夏后氏	-10.5687
所行	-10.5697
𫝊曰	-10.5698
齊詩	-10.5699
於天子	-10.5702
首言	-10.5705
終日	-10.5707
之器	-10.5711
受天	-10.5712
與我	-10.5712
春官	-10.5712
又按	-10.5713
文云	-10.5716
頽	-10.5719
之基	-10.5719
葍	-10.5719
暵	-10.5721
地官	-10.5722
緣	-10.5723
無文	-10.5724
以風	-10.5725
廣雅云	-10.5726
碩鼠	-10.5727
輸	-10.5728
鹽	-10.5729
新臺	-10.5737
淮南子	-10.5738
放此	-10.5742
湯湯	-10.5742
不克	-10.5743
日出	-10.5743
本無	-10.5744
其兄	-10.5746
韋昭	-10.5746
司空	-10.5749
籩	-10.5751
水經注	-10.5757
定之方中	-10.576
之詩言	-10.5761
宫中	-10.5762
翺翔	-10.5767
稚	-10.5767
復有	-10.5768
亦如之	-10.577
津	-10.577
洋洋	-10.5772
縢	-10.5773
不知何	-10.578
田事	-10.5783
洛邑	-10.5785
皆指	-10.579
令聞	-10.579
愬	-10.5797
言無	-10.5798
不義	-10.58
本或作	-10.58
不知所	-10.5807
姒	-10.5807
黙	-10.5814
流離	-10.5815
戴媯	-10.5815
潜	-10.5815
訏	-10.5816
緇	-10.5816
纔	-10.5816
酤	-10.5818
為喻	-10.5818
構	-10.5819
戮	-10.5821
柘	-10.5822
然亦	-10.5823
聚也	-10.5824
之助	-10.5826
若曰	-10.5831
二音	-10.5842
粒	-10.5852
䇿	-10.5853
君子指	-10.5856
傷之	-10.5856
而可	-10.5857
也三章	-10.5858
能盡	-10.5859
鄭𤣥云	-10.5861
亦必	-10.5862
寅	-10.5864
觶	-10.5865
之西	-10.5867
鈎	-10.5867
豐鎬	-10.5872
孟春	-10.5878
清人	-10.5879
言外	-10.588
淫奔	-10.5882
急難	-10.5886
大邦	-10.5888
惟恐	-10.5892
冬至	-10.5895
以行	-10.5898
杜預云	-10.59
皆用	-10.59
覃	-10.5904
㬥	-10.591
羡	-10.5911
斯民	-10.5913
公羊傳	-10.5913
着	-10.5913
旅酬	-10.5914
紛	-10.5914
騰	-10.5915
何如	-10.5922
其生	-10.5928
而上	-10.5936
特以	-10.5938
號令	-10.594
趾	-10.5954
瓊	-10.5955
甚於	-10.5956
偕老	-10.5956
𨽻	-10.5957
讀為	-10.5957
溪	-10.5957
閭	-10.5958
竹竿	-10.5959
田野	-10.5959
二子	-10.596
庶㡬	-10.5964
展衣	-10.5964
室家之	-10.5965
齊侯之子	-10.5965
㑹同	-10.5967
一作	-10.5973
疆理	-10.5975
不祥	-10.5976
詩人之	-10.5976
故謂	-10.5976
始有	-10.5978
恐懼	-10.598
則可	-10.5981
孝孫	-10.5982
其他	-10.5984
鄭人	-10.5988
甞	-10.5989
教化	-10.5989
糧	-10.599
!《	-10.5995
長短	-10.5996
小宛	-10.5996
五日	-10.5997
以配	-10.5999
之交	-10.6001
樂官	-10.6001
傚	-10.6003
菁菁者莪	-10.6003
之子于歸	-10.6005
做	-10.6006
嗚呼	-10.6007
頓	-10.6007
馭	-10.6009
承上章	-10.6012
其終	-10.6012
木之	-10.6013
耳然	-10.6017
未及	-10.602
十有二	-10.6025
叶韻	-10.603
武成	-10.6032
又不	-10.6039
禍亂	-10.6041
其命	-10.6041
我獨	-10.6041
職云	-10.6042
世家	-10.6044
皆然	-10.6044
觀之則	-10.6045
老者	-10.6045
良反	-10.6048
二種	-10.6049
此之謂也	-10.6051
諒	-10.6052
愚按此	-10.6052
也詩人	-10.6054
淳	-10.6055
眉夀	-10.6058
二章章六句	-10.6059
腐	-10.6059
摽	-10.6061
薨	-10.6061
其體	-10.6063
素冠	-10.6065
有不	-10.6068
然後可以	-10.6068
之勤	-10.6073
於齊	-10.6073
功也	-10.6074
于飛	-10.6075
建國	-10.6076
譬如	-10.6077
莫如	-10.6077
臆	-10.609
然有	-10.6093
冥	-10.6097
蓍	-10.6097
磨	-10.61
尊者	-10.61
守之	-10.61
闊	-10.6101
諸國	-10.6101
賂	-10.6105
黄耉	-10.6106
良耜	-10.6107
枲	-10.6113
謂文王	-10.6113
受其	-10.6114
周王	-10.6116
聞其	-10.612
管子	-10.6127
蜡	-10.6128
百辟	-10.6133
六軍	-10.6138
之鳥	-10.6139
異也	-10.6139
思歸	-10.6142
鳬鷖	-10.6145
誇	-10.6146
洪範	-10.6149
祁	-10.6149
奸	-10.6149
饔	-10.6149
棄之	-10.615
沸	-10.615
凝	-10.615
古之人	-10.6152
亹亹	-10.6154
低	-10.6154
六義	-10.6156
二十五	-10.6157
自為	-10.6161
可不	-10.6163
也朱曰	-10.6167
國也	-10.6172
其親	-10.618
説見	-10.6181
豪	-10.6188
不類	-10.6188
大禘	-10.6188
替	-10.619
佚	-10.6192
蘇氏轍曰	-10.6194
而不及	-10.6194
山在	-10.6199
以徳	-10.6203
尚可	-10.6203
易之	-10.6203
盡也	-10.6206
本草云	-10.6206
鄉射	-10.6211
異義	-10.6211
所以能	-10.622
廷	-10.6227
四夷	-10.6228
之計	-10.6238
坤	-10.6242
豈得	-10.6242
甚多	-10.6243
不堪	-10.6244
霍	-10.6244
形似	-10.6245
䧟	-10.6247
浪	-10.6248
繒	-10.6248
之次	-10.6249
熈	-10.6249
諸夏	-10.625
用力	-10.6252
以起興	-10.6255
何得	-10.6256
精神	-10.6257
山林	-10.6257
叚	-10.6265
厓	-10.6266
諸侯也	-10.6271
而作此詩	-10.6273
宣王時	-10.6275
蠅	-10.6278
以報	-10.6281
春夏	-10.6281
篤厚	-10.6286
湯之	-10.6288
潘	-10.6288
袂	-10.6292
無間	-10.6294
箭	-10.6296
陽氣	-10.6297
豚	-10.6299
之利	-10.6309
無厭	-10.6309
在公	-10.6312
屑	-10.6315
南山有臺	-10.6316
在前	-10.6317
告於	-10.6318
杜氏	-10.632
不和	-10.6326
河東	-10.6327
二雅	-10.6329
其外	-10.6335
朱子謂	-10.6341
狄人	-10.6341
分明	-10.6342
徳也	-10.6342
子云	-10.6344
垢	-10.6345
繆	-10.6345
拱	-10.6346
匪風	-10.6346
蠋	-10.6346
躁	-10.6347
好賢	-10.6352
根本	-10.6356
六轡	-10.6358
賢臣	-10.6358
而無所	-10.6367
所稱	-10.6369
皇矣	-10.637
終於	-10.6371
反注同	-10.6374
左氏傳	-10.6375
載之	-10.6378
盛而	-10.638
不求	-10.6391
庖	-10.6393
惕	-10.6393
朱氏善曰	-10.6393
汜	-10.6393
之所謂	-10.6394
於彼	-10.6395
祜	-10.6395
亦與	-10.6398
飱	-10.6399
車前	-10.6402
亦自	-10.6404
既得	-10.6405
髙山	-10.6412
地理志	-10.6412
不取	-10.6414
所能	-10.6414
戒其	-10.6414
孔疏云	-10.6424
留之	-10.6426
清酒	-10.6428
薁	-10.6433
宗室	-10.6435
冢	-10.6437
因反	-10.6441
於後	-10.6441
羅氏	-10.6443
卯	-10.6444
俶	-10.6445
深逺	-10.6447
憫	-10.6447
沉	-10.6447
壬	-10.6447
寡人	-10.6448
乗馬	-10.6458
召虎	-10.6459
同心	-10.6461
制度	-10.6463
牧野	-10.6464
序詩者	-10.6471
之草	-10.6472
秦風	-10.6477
姜姓	-10.6482
衞之	-10.6486
東萊吕氏曰	-10.6488
祉	-10.6489
楹	-10.649
丑	-10.6493
詩文	-10.6496
嘯	-10.6497
民事	-10.6497
爛	-10.6499
月出	-10.6499
眉壽	-10.6504
别名	-10.651
家之	-10.651
繼之	-10.6516
未見君子	-10.6517
鳴鳩	-10.6524
故舊	-10.6525
民人	-10.6527
上聲	-10.6528
肆夏	-10.6534
鄭氏以為	-10.6535
捷	-10.654
袁	-10.6542
扞	-10.6543
㧞	-10.6544
勸之	-10.6545
閒暇	-10.6546
淇奥	-10.6547
廩	-10.6547
漚	-10.6548
額	-10.6548
緌	-10.6549
謹案	-10.655
得賢	-10.6562
衡門	-10.6563
農人	-10.6564
雄雉	-10.6567
金路	-10.6567
論曰	-10.6568
維此	-10.6569
志云	-10.657
凡人	-10.6575
人謂	-10.6579
之方	-10.6581
洪	-10.6584
琢	-10.6585
賢也	-10.6585
嚳	-10.6589
鬛	-10.6595
絺綌	-10.6595
斑	-10.6596
耄	-10.6597
樂器	-10.6598
姪娣	-10.6598
杼	-10.6599
竈	-10.66
養也	-10.6601
然矣	-10.6602
白駒	-10.6603
厲公	-10.6607
王使	-10.6608
長樂劉氏曰	-10.6609
緑衣	-10.6609
瓠葉	-10.6612
箋以	-10.6616
歸寧	-10.6621
洲	-10.6622
侯國	-10.6622
如字又	-10.6623
態	-10.6624
三日	-10.6624
後漢書	-10.6626
止言	-10.6628
肅雝	-10.6629
江南	-10.6632
洛水	-10.6633
畱	-10.6641
有客	-10.6641
萋	-10.6642
綬	-10.6644
於内	-10.6644
一方	-10.6645
禮之	-10.6645
壅	-10.6646
卜筮	-10.6647
勾	-10.6649
施于	-10.6653
用其	-10.6653
如今	-10.6656
大夫之	-10.666
澮	-10.6661
皆曰	-10.6666
互相	-10.6666
者多矣	-10.6667
猷	-10.6671
衣食	-10.6673
治兵	-10.668
古義	-10.6684
鳥也	-10.6684
受天命	-10.6686
不聽	-10.6688
馳驅	-10.6689
莒	-10.6692
雨無正	-10.6693
詭隨	-10.6696
泄泄	-10.6696
祛	-10.6696
禡	-10.6697
山東	-10.6697
纘	-10.6698
近於	-10.6699
鬭	-10.6699
鞗革	-10.67
緡	-10.6702
冕服	-10.6702
時有	-10.6705
載芟	-10.6705
陰陽	-10.6706
羆	-10.6708
夏官	-10.6711
得所	-10.6711
無怨	-10.6712
未安	-10.6714
作人	-10.6717
説詩	-10.6718
不幸	-10.672
感動	-10.6721
三詩	-10.6722
衿	-10.6724
朔方	-10.6725
而不言	-10.6726
之旁	-10.6726
所及	-10.6727
危亡	-10.6734
說者	-10.6734
宜有	-10.6735
徳而	-10.674
歌舞	-10.674
已成	-10.6741
黄曰	-10.6745
秦人	-10.6745
弃	-10.6745
墓門	-10.6748
凖	-10.6749
障	-10.675
昆吾	-10.675
注謂	-10.6752
字書	-10.6753
之所在	-10.6754
用以	-10.6755
一言	-10.6759
如齊	-10.6763
不可得	-10.6768
訖	-10.6768
笑語	-10.6773
有成	-10.6784
其氣	-10.6785
明德	-10.6789
論之	-10.6792
不得歸	-10.6795
蘀	-10.6796
者豈	-10.6796
扁	-10.6801
彤管	-10.6802
穹	-10.6802
采苓	-10.6803
徽	-10.6803
惟有	-10.6804
久而	-10.6805
而况	-10.6807
洫	-10.6811
不寧	-10.6813
以定	-10.6816
正謂	-10.682
為韻	-10.682
王心	-10.6822
進也	-10.6828
之義故	-10.6828
在我	-10.6833
周制	-10.6834
近之	-10.6834
國事	-10.6834
集註	-10.6835
之厚	-10.6839
東周	-10.6841
揆	-10.6843
封於	-10.6846
長安	-10.6846
之不可	-10.6847
裒	-10.6848
牀	-10.6853
憑	-10.6853
其儀	-10.6853
或疑	-10.6855
兕觥	-10.6856
不親	-10.6858
自立	-10.6859
女蘿	-10.6859
則自	-10.686
之言也	-10.6864
蘇公	-10.6864
于齊	-10.6865
其理	-10.6865
夏之	-10.6869
終始	-10.687
輕重	-10.6871
美而	-10.6872
春秋傳曰	-10.6877
俾爾	-10.6881
養之	-10.6882
隴	-10.689
不識	-10.6891
八十	-10.6897
鞉	-10.6898
升歌	-10.6899
瞻卬	-10.69
祭時	-10.6901
所有	-10.6901
韔	-10.6903
晳	-10.6904
奴	-10.6905
風雅	-10.6908
謔	-10.6909
蟻	-10.6915
又引	-10.6916
故序	-10.692
定本	-10.6924
故舉	-10.6924
義曰	-10.6924
前二章	-10.6928
謀猶	-10.6929
百神	-10.6935
郊特牲	-10.6949
納之	-10.6951
必待	-10.6952
降福	-10.6952
民皆	-10.6954
矩	-10.6954
惰	-10.6956
可見其	-10.6958
畎	-10.6958
黍苗	-10.6962
人有	-10.6962
念其	-10.6964
不得已	-10.6965
母之	-10.6968
雖欲	-10.6975
良馬	-10.6975
出奔	-10.6981
菲	-10.6981
鬼方	-10.6983
邪僻	-10.6988
假樂	-10.6989
而不用	-10.6993
朝歌	-10.6994
膳	-10.6997
日之	-10.6998
急也	-10.7
為國	-10.7003
裂	-10.7005
碩䑕	-10.7005
汲	-10.7007
卓	-10.7009
遯	-10.701
睆	-10.701
考槃	-10.7011
菜也	-10.7013
秬鬯	-10.7013
大戴禮	-10.7014
歐	-10.7014
男女之	-10.7017
飄風	-10.7019
好貌	-10.7023
保介	-10.7025
本義	-10.7031
祖宗	-10.7037
故先	-10.7039
之實也	-10.704
之子孫	-10.7041
善言	-10.7042
事者	-10.7045
而相	-10.7046
遷于	-10.705
央	-10.7052
猶曰	-10.7055
丰	-10.7055
祭而	-10.7056
氣之	-10.7056
雍州	-10.7059
歐陽氏	-10.7061
圜	-10.7066
措	-10.7067
葢以	-10.7068
薍	-10.7068
改為	-10.7068
琫	-10.7068
者雖	-10.7072
之時則	-10.7074
軍士	-10.7077
其制	-10.7085
相傳	-10.7091
粲曰	-10.7095
盡力	-10.7097
二三	-10.7099
時詩	-10.71
芍藥	-10.7102
采采	-10.7103
從王	-10.7108
桑柔	-10.7112
躋	-10.7113
騐	-10.7114
興也毛傳	-10.7114
岀	-10.7115
皇皇者華	-10.7116
綸	-10.7117
一夫	-10.7119
學校	-10.712
服事	-10.7122
皆從	-10.7123
毛以為	-10.7124
召康公	-10.7125
縣西	-10.713
遑	-10.7131
蹶父	-10.7131
四寸	-10.7134
爾雅注	-10.7136
各以其	-10.7138
祭也	-10.7139
尚未	-10.7139
若夫	-10.7141
自以為	-10.7141
成人	-10.7142
後同	-10.7143
捋	-10.7148
分為	-10.7151
神農	-10.7152
不臧	-10.7152
不至於	-10.7158
欲使	-10.7159
化為	-10.7161
不然則	-10.7162
奏之	-10.7165
鳧鷖	-10.7167
絡	-10.7168
也又云	-10.7168
弼	-10.7168
鄶	-10.7169
墓	-10.7169
下二句	-10.7173
胡為	-10.7175
振旅	-10.7175
銘	-10.7177
之分	-10.7178
不得不	-10.7179
訓詁	-10.7183
經㫖曰	-10.7184
也於是	-10.7185
西都	-10.7187
五行	-10.7189
耳故	-10.7191
角弓	-10.7192
叶羽	-10.7194
以禦	-10.7194
弟子	-10.7194
黑色	-10.7194
民勞	-10.7195
師氏	-10.7196
不爲	-10.7196
可乎	-10.7197
即今之	-10.7201
北門	-10.7203
鑣	-10.7207
專言	-10.7208
重耳	-10.7213
三者	-10.7214
讀詩記	-10.7214
之美者	-10.7216
祭法	-10.7217
孔叢子	-10.7219
而先	-10.722
宥	-10.7221
淮南	-10.7222
膝	-10.7222
區	-10.7224
何也曰	-10.7224
摽有梅	-10.7225
郿	-10.7225
凋	-10.7228
山名	-10.7229
左𫝊	-10.723
次之	-10.7234
我則	-10.7236
夫人之	-10.7249
涕	-10.7255
蔓生	-10.7263
師尹	-10.7268
匕	-10.7269
武夫	-10.7273
逕	-10.7274
猱	-10.7274
巻	-10.7274
泲	-10.7276
景山	-10.7276
纁	-10.7276
犉	-10.7277
栘	-10.7278
馘	-10.7278
昴	-10.7279
隙	-10.7279
鬻	-10.728
可疑	-10.7282
五穀	-10.7286
昭假	-10.7294
而意	-10.7295
非必	-10.73
日以	-10.7302
施之	-10.7316
群	-10.7316
梧	-10.7321
於心	-10.7325
功徳	-10.7325
若以	-10.7327
減	-10.7327
按此	-10.7328
得人	-10.7328
洒	-10.7329
勲	-10.7329
妥	-10.7329
之水	-10.733
沐	-10.733
随	-10.7331
荻	-10.7331
九夏	-10.7331
鶖	-10.7333
三曰	-10.7333
蓴	-10.7333
荇	-10.7335
婦子	-10.7335
可信	-10.7337
詩本	-10.7337
以刺之	-10.7344
盛大	-10.7344
其用	-10.7348
者言其	-10.7351
保其	-10.7351
故又	-10.7352
矣若	-10.7355
其祖	-10.7356
亂而	-10.7356
不改	-10.7361
氣也	-10.7361
昭王	-10.7367
章七句	-10.7369
祭畢	-10.737
其根	-10.7372
女功	-10.7372
師旅	-10.7375
失時	-10.7376
蟊	-10.7377
三字	-10.7379
小明	-10.7381
之禮也	-10.7382
射之	-10.7382
十七年	-10.7384
漢志	-10.7384
三章章八句	-10.7385
摘	-10.7385
擅	-10.7386
蟄	-10.7387
壤	-10.739
重也	-10.7391
馴	-10.7391
祖廟	-10.7393
溝洫	-10.7394
牽牛	-10.7395
賢者之	-10.7396
之意而	-10.7397
怨曠	-10.7399
為文王	-10.74
渭水	-10.74
之墟	-10.74
之師	-10.7402
能為	-10.7403
大功	-10.7408
生而	-10.7409
詩書	-10.7412
之貎	-10.7419
三國	-10.7423
於時	-10.7423
騷	-10.7435
泄	-10.7438
属	-10.7438
於禮	-10.7439
欽	-10.744
之樂也	-10.7441
言采其	-10.7442
熏	-10.7443
韎韐	-10.745
烈考	-10.7458
與人	-10.7458
伯兮	-10.7476
而忘	-10.7479
無度	-10.7481
爾雅釋	-10.7484
縣南	-10.7485
非以	-10.7486
警戒	-10.7486
豝	-10.7487
申公	-10.7488
届	-10.7491
竿	-10.7492
莫敢	-10.7493
昊天有成命	-10.7494
褊	-10.7495
𥘉	-10.7496
凍	-10.7496
銳	-10.7497
曰昔	-10.7502
迎之	-10.7503
有五	-10.7503
自我	-10.7504
無射	-10.751
黄色	-10.7511
祀文王	-10.7513
入渭	-10.7515
故因	-10.7524
之國也	-10.7525
生之	-10.7525
草木之	-10.7525
魯桓	-10.7527
繫於	-10.7528
恐非	-10.7529
王所	-10.7531
所以致	-10.7531
二説	-10.7532
二尺	-10.7535
之家	-10.7535
正以	-10.7536
責其	-10.7536
人之情	-10.7539
栒	-10.7545
葅	-10.7546
聲聞	-10.7547
之苦	-10.7548
此即	-10.7549
皆所以	-10.7549
杭	-10.7551
郡縣志	-10.7552
涇陽	-10.7552
我者	-10.7554
而起	-10.7559
於前	-10.756
陸璣曰	-10.7563
之本也	-10.7566
傳言	-10.7566
其尾	-10.7568
不作	-10.757
從其	-10.7571
無羊	-10.7572
矣但	-10.7578
后妃之徳	-10.7579
思齊	-10.758
葛生	-10.7581
貞女	-10.7583
紂之	-10.7584
周公作	-10.7587
叶滿	-10.7587
威武	-10.7589
周大夫	-10.7593
衛侯	-10.7594
當用	-10.7596
十三年	-10.7596
上二句	-10.7598
嗣王	-10.7598
匏有苦葉	-10.7602
複	-10.7603
敝笱	-10.7604
渾	-10.7605
詭	-10.7605
舝	-10.7605
父兄	-10.7607
所至	-10.7609
翁	-10.761
應門	-10.7611
衛風	-10.7619
故詩	-10.7624
河北	-10.7626
天作	-10.7632
射者	-10.7633
下濕	-10.7637
封之	-10.764
后土	-10.7642
之詩則	-10.7647
築室	-10.7647
昆	-10.765
嘽嘽	-10.7658
始見	-10.7658
蘇傳	-10.7659
剝	-10.766
南陽	-10.766
彩	-10.7661
信乎	-10.7661
宼	-10.7662
遄	-10.7662
繋	-10.7663
燒	-10.7665
無邪	-10.7665
爾雅作	-10.7667
輙	-10.7667
玉篇	-10.7675
莫能	-10.7685
故特	-10.7688
稷之	-10.7695
作頌	-10.7697
其父	-10.7698
食我	-10.7698
于下	-10.7709
策	-10.771
民不	-10.7711
五十里	-10.7713
晏子	-10.7717
偪	-10.7717
昬姻	-10.7717
焦	-10.7718
幡幡	-10.7719
之南	-10.772
二語	-10.7721
然非	-10.7723
寔	-10.7724
在後	-10.7728
内有	-10.773
周行	-10.7732
伐西戎	-10.7732
而謂之	-10.7733
有駜	-10.7737
軍旅	-10.7738
安得不	-10.7742
懿公	-10.7743
妻子	-10.7746
羣飛	-10.7747
徐州	-10.7748
初無	-10.775
以證	-10.7754
為説	-10.7758
正風	-10.7763
並同	-10.7764
七羊	-10.7765
蘖	-10.7768
失道	-10.777
仁厚	-10.7773
柞棫	-10.7773
紕	-10.7773
必然	-10.7774
而猶	-10.7776
冩	-10.7778
鉤膺	-10.7782
為比	-10.7784
於中	-10.7787
范氏	-10.7791
皇皇	-10.7796
所滅	-10.7797
之備	-10.7798
莫肯	-10.7802
日月之	-10.7805
何足	-10.7808
既畢	-10.7808
道其	-10.781
於地	-10.7811
堯舜	-10.7811
救之	-10.7812
而好	-10.7813
如是則	-10.7814
勞而	-10.7818
許氏	-10.7822
天心	-10.7822
白者	-10.7823
葑	-10.7826
字林	-10.7826
德也	-10.7829
皮為	-10.783
剔	-10.7831
踵	-10.7832
茲	-10.7833
平聲	-10.7833
之害	-10.7834
毛詩序曰	-10.7834
萃	-10.7837
出師	-10.7838
織女	-10.7851
國有	-10.7854
發發	-10.7855
定也	-10.7858
誥	-10.7862
自相	-10.7865
公劉之	-10.787
内史	-10.7875
玉藻云	-10.7875
然如	-10.7876
勞之	-10.788
親愛	-10.788
葽	-10.7882
亡也	-10.7883
釁	-10.7883
玄	-10.7883
東門之墠	-10.7885
串	-10.7886
逍遥	-10.7888
妬	-10.7891
麤	-10.7891
以盡	-10.7891
㨗	-10.7893
之地也	-10.7893
膠	-10.7895
枕	-10.7895
冀其	-10.7896
以至於	-10.7896
貓	-10.7897
閑習	-10.7898
夫家	-10.7904
辜	-10.791
状	-10.7912
哲人	-10.7913
字又作	-10.7914
無害	-10.7916
佑	-10.7918
語曰	-10.7919
後乃	-10.7921
碩大	-10.7927
為天下	-10.7928
十七	-10.7928
安之	-10.7929
異名	-10.7936
文選注	-10.7938
樵	-10.7939
禖	-10.7944
驟	-10.7945
歌詠	-10.7946
沓	-10.7946
河廣	-10.7947
沛	-10.7947
刺時	-10.7948
錡	-10.7948
往也	-10.7949
陣	-10.7951
止息	-10.7952
殷商	-10.7952
前日	-10.7952
唱	-10.7952
鏤	-10.7952
旣見君子	-10.7953
括地志	-10.7954
為證	-10.7955
武王伐紂	-10.7957
鳯凰	-10.7961
有四	-10.7962
同列	-10.7963
歸期	-10.797
諸侯以	-10.7972
而心	-10.7972
十四年	-10.7972
之馬	-10.7975
李迂仲曰	-10.7979
則雖	-10.7979
途	-10.7981
之流	-10.7983
嘉賓	-10.7987
所自	-10.799
石經	-10.7992
喪亂	-10.7993
孫炎云	-10.7993
老而	-10.7997
言武王	-10.7998
本其	-10.8001
凱	-10.8002
令德	-10.8002
戍役	-10.8004
愛君	-10.8004
蔑	-10.8004
其威儀	-10.8005
之明	-10.8007
眼	-10.8007
蓷	-10.8007
楫	-10.8008
妨	-10.8009
莫我	-10.801
哭	-10.801
腰	-10.801
色也	-10.8013
亦在	-10.8013
五人	-10.8013
禾稼	-10.8014
獨行	-10.8021
播種	-10.8023
中間	-10.8023
莫大於	-10.8025
其皮	-10.8027
釋言文	-10.803
序說	-10.8032
何氏	-10.8036
為卿士	-10.8036
上二章	-10.8038
季冬	-10.804
中者	-10.8041
明星	-10.8042
後王	-10.8043
性情	-10.8044
極言	-10.8045
㑹諸侯	-10.8045
天性	-10.8048
定天下	-10.8052
祝其	-10.8054
礼	-10.8055
稌	-10.8058
褧	-10.8058
始封	-10.8059
疑之	-10.806
蔞	-10.806
鶚	-10.8063
遵大路	-10.8066
僚友	-10.8067
告成	-10.8067
禋	-10.8068
筋	-10.807
無明文	-10.8071
翿	-10.8072
叔于田	-10.8073
蕩蕩	-10.8073
非常	-10.8074
綱紀	-10.8077
周京	-10.808
此章則	-10.8087
度其	-10.8089
相棄	-10.8089
正祭	-10.8091
陳曰	-10.8092
可考	-10.8095
房中	-10.8096
不能用	-10.8096
得之矣	-10.8096
大矣	-10.8097
僚	-10.8099
無日	-10.8102
乗車	-10.8109
此詩之	-10.811
鄭唯	-10.8114
臼	-10.8118
同歸	-10.8119
芘	-10.8119
娣	-10.812
夷王	-10.812
隐	-10.812
蔡邕	-10.8123
何彼穠矣	-10.8123
鬰	-10.8123
秠	-10.8123
下二章	-10.8125
耳此	-10.8126
協韻	-10.8126
其失	-10.8127
聽之	-10.8127
備矣	-10.8131
故作此詩	-10.8132
難通	-10.8135
治國	-10.8135
請命	-10.8136
交錯	-10.8136
故於	-10.8138
二水	-10.8138
之親	-10.8144
陸佃	-10.8148
為長	-10.8148
有力	-10.8152
而稱	-10.8153
又自	-10.8155
扶風	-10.8156
嚴粲云	-10.8157
之疾	-10.8165
言不	-10.8165
從事	-10.8167
渡河	-10.8169
矣蓋	-10.8171
之孫	-10.8173
祭義	-10.8176
先世	-10.8177
翩	-10.8177
鱨	-10.8178
亦得	-10.818
祧	-10.8181
也左傳	-10.8182
不失其	-10.8182
王氏安石曰	-10.8183
㸑	-10.8183
戌	-10.8183
梗	-10.8183
季札	-10.8184
玷	-10.8184
醫	-10.8185
疑其	-10.8185
冢宰	-10.8185
斿	-10.8189
非不	-10.819
首陽	-10.8191
大魚	-10.8193
束之	-10.8198
共姜	-10.82
總名	-10.82
相通	-10.8208
民也	-10.821
從毛	-10.821
卒子	-10.8211
者衆	-10.8212
之樂歌也	-10.8216
申言	-10.8216
夏小正	-10.8219
唁	-10.8219
歎其	-10.8221
蠻荆	-10.8223
我所	-10.8226
飛而	-10.8227
有文	-10.8228
二曰	-10.8228
婦道	-10.8228
鏞	-10.8234
在堂	-10.8235
溼	-10.8237
閔予小子	-10.8238
之類也	-10.8239
燮	-10.8239
禮記云	-10.824
潁	-10.824
椒聊	-10.8242
㳺	-10.8242
也觀	-10.8242
婆娑	-10.8243
丙	-10.8244
料	-10.8244
諭	-10.8245
伐紂	-10.8245
㫁	-10.8246
云凡	-10.8246
顛覆	-10.8248
韍	-10.8251
服馬	-10.8255
不能忘	-10.8255
勞心	-10.8258
報之	-10.8269
新田	-10.8269
整齊	-10.8269
于天子	-10.8271
二百	-10.8271
水上	-10.8274
縣有	-10.8276
青色	-10.8277
河内	-10.8288
其車	-10.8289
亂之	-10.8293
變化	-10.8295
何氏楷曰	-10.8295
政令	-10.83
黏	-10.8303
涵	-10.8303
閨門	-10.8304
戀	-10.8305
濩	-10.8305
叶胡	-10.8306
繭	-10.8307
後二章	-10.8307
相助	-10.8308
錫命	-10.8308
因之	-10.8308
白馬	-10.831
鄭謂	-10.8312
不備	-10.8315
乘馬	-10.8316
按左傳	-10.8316
也王氏曰	-10.8317
多言	-10.8319
成王之時	-10.8322
方百里	-10.8324
主婦	-10.8328
式微	-10.833
序以	-10.833
皆由	-10.8339
成王時	-10.8339
薦之	-10.834
器也	-10.8344
于彼	-10.8344
賢而	-10.8345
又與	-10.8346
大宗	-10.8348
匠人	-10.8348
二義	-10.835
所建	-10.8356
遹	-10.8358
粹	-10.8361
無敢	-10.8363
推其	-10.8363
旌旗	-10.8364
䙝	-10.8364
糓	-10.8369
每章	-10.8373
可哀	-10.8374
或者	-10.8374
意者	-10.8375
鷂	-10.8376
城在	-10.8376
於衛	-10.8379
申培説	-10.838
為節	-10.8382
為上	-10.8384
南行	-10.8385
十八年	-10.8386
魚之	-10.8388
天子之禮	-10.8392
憂傷	-10.8393
能自	-10.8393
烈文	-10.8395
又案	-10.8399
在位者	-10.8403
此章又	-10.8403
此事	-10.8406
秦之	-10.8406
執其	-10.8407
亦多	-10.8409
泳	-10.8411
堵	-10.8414
為二	-10.8415
游女	-10.8415
之服也	-10.8417
何故	-10.8417
瞻彼洛矣	-10.8421
粉	-10.8423
蹄	-10.8423
盱	-10.8424
渴	-10.8424
耀	-10.8424
姞	-10.8424
屬之	-10.8425
脆	-10.8425
纚	-10.8425
傷悲	-10.8425
寤寐	-10.8427
璜	-10.8428
厭厭	-10.8429
將亡	-10.8432
附録	-10.8437
難也	-10.8439
閟	-10.8441
有光	-10.8441
豈以	-10.8443
不畏	-10.8444
子弟	-10.8449
者猶	-10.8452
下武	-10.8453
而不忘	-10.8458
靜女	-10.8458
髙下	-10.846
攝政	-10.8466
乃能	-10.8471
憂其	-10.8473
何能	-10.8473
徳行	-10.8474
春秋時	-10.8475
不得其所	-10.8476
既曰	-10.8476
其勞	-10.8477
鰋	-10.8478
由於	-10.8479
可與	-10.8481
湖	-10.8482
這	-10.8483
之私	-10.8484
跪	-10.8485
何元子	-10.8485
噬	-10.8485
胎	-10.8486
頴	-10.8488
安寧	-10.8489
不得為	-10.8489
析薪	-10.849
比之	-10.8496
舒緩	-10.8496
讀者	-10.8497
經營	-10.8497
父母兄弟	-10.8498
尤為	-10.85
於國	-10.8504
幽公	-10.8505
已而	-10.8511
李廵曰	-10.8512
于野	-10.8513
經言	-10.8514
該	-10.8515
在其中	-10.8521
之遺	-10.8521
十畝	-10.8522
他國	-10.8522
時已	-10.8528
天子所	-10.853
破斧	-10.8532
時而	-10.8536
有瞽	-10.8538
百兩	-10.8538
怛	-10.8542
屯	-10.8543
愾	-10.8544
於事	-10.8544
裹	-10.8545
將至	-10.8546
知有	-10.8547
緝熙	-10.8547
靁	-10.8549
陸徳明	-10.8551
録之	-10.8551
冡	-10.8552
容止	-10.8552
檀弓	-10.8552
以義	-10.8552
毛氏以為	-10.8553
時人	-10.8561
蒐	-10.8566
殷勤	-10.8568
死喪	-10.8575
之詩而	-10.8577
方且	-10.858
射義	-10.858
之書	-10.8582
非其	-10.8582
于廟	-10.8584
黎侯	-10.8589
所感	-10.859
怒也	-10.8594
愛民	-10.8595
夫婦之	-10.8596
五章言	-10.8597
倦	-10.8604
姊	-10.8605
虜	-10.8605
蓮	-10.8606
蜮	-10.8607
於朝	-10.8607
蔵	-10.8608
崔嵬	-10.8609
墐	-10.8609
療	-10.8609
者固	-10.861
羌	-10.8611
圗	-10.8611
以我為	-10.8615
宜臼	-10.8616
以享	-10.8616
簡狄	-10.8617
過於	-10.8618
祭於	-10.862
豈可以	-10.8621
百世	-10.8623
文德	-10.8623
而使之	-10.8624
之興	-10.8625
其室	-10.8628
能敬	-10.8629
溉	-10.8635
詁訓	-10.8636
公曰	-10.8638
服飾	-10.864
而進	-10.8641
淫奔之	-10.8642
之容	-10.8645
是之謂	-10.8646
朝㑹	-10.8651
䜛人	-10.8651
如此也	-10.8657
並言	-10.8657
諏	-10.8658
缾	-10.8661
沬	-10.8662
不變	-10.8664
頂	-10.8666
貆	-10.8667
緜蠻	-10.8668
反又音	-10.8668
襃	-10.867
歎美	-10.8671
勁	-10.8672
臂	-10.8673
尖	-10.8673
皓	-10.8674
在家	-10.8675
順也	-10.8676
又以為	-10.8677
干禄	-10.868
而易	-10.8681
何獨	-10.8682
算	-10.8682
膳夫	-10.8682
蓋言	-10.8683
桃蟲	-10.8685
女子之	-10.8687
太甲	-10.8688
也以其	-10.8694
治亂	-10.8697
不僭	-10.8701
安知	-10.8702
將有	-10.8702
亹	-10.8703
異耳	-10.8704
其福	-10.8705
抵	-10.8707
山海經	-10.8707
是已	-10.8709
皇王	-10.8712
為民	-10.8713
誰謂	-10.8713
為小	-10.8714
不得已而	-10.8717
彤	-10.8725
若有	-10.8726
大祖	-10.8726
化行	-10.8727
無已	-10.8728
亦言	-10.8728
汲汲	-10.8729
我我	-10.873
呼為	-10.8732
懽	-10.8732
代之	-10.8733
演	-10.8733
隣	-10.8734
權輿	-10.8734
通名	-10.8735
礙	-10.8735
賄	-10.8737
名篇	-10.8738
孟子所謂	-10.8739
將率	-10.8739
軓	-10.8741
四岳	-10.8742
叶陽韻	-10.8744
介圭	-10.8746
加以	-10.8746
鷮	-10.8746
四矢	-10.8747
字作	-10.8748
釋詁云	-10.8749
亦不可	-10.8749
渭陽	-10.8749
絶之	-10.8749
禮器	-10.8751
焉此	-10.8752
而安	-10.8754
此其所以	-10.8757
徳者	-10.8757
宛然	-10.876
辟公	-10.876
大伯	-10.8766
勉之	-10.8772
篇名	-10.8775
其大	-10.8783
都人士	-10.8785
鳥名	-10.8787
之時而	-10.8788
在焉	-10.8788
慘慘	-10.879
有别	-10.8791
昔日	-10.8791
齊子	-10.8794
之效	-10.8795
鈞	-10.8796
二王之後	-10.8797
亷	-10.8797
之逺	-10.8797
所乗	-10.8798
不妬忌	-10.8799
詆	-10.8799
兩驂	-10.88
鬷	-10.8801
吉凶	-10.8801
錫之	-10.8802
積累	-10.8803
梨	-10.8803
邑也	-10.8808
祭統	-10.8808
大道	-10.881
故次	-10.881
舜之	-10.8812
亦以為	-10.8814
周禮注	-10.8814
魚藻	-10.8814
烝嘗	-10.8817
福之	-10.8818
獻尸	-10.8819
而憂	-10.882
縣北	-10.8825
今俗	-10.8826
之類皆	-10.8826
宴樂	-10.8826
制禮	-10.8828
人材	-10.8828
而歌	-10.8828
好善	-10.8832
木瓜	-10.8836
我乎	-10.8839
解之	-10.8849
諸書	-10.8849
劣	-10.8853
寒暑	-10.8853
怙	-10.8855
炮	-10.8857
載見	-10.886
上句	-10.886
皁	-10.886
呼天	-10.8861
美刺	-10.8861
周旋	-10.8861
繳	-10.8861
未嘗有	-10.8865
人心之	-10.8866
乞	-10.8868
之總名	-10.8873
夷姜	-10.8874
毛訓	-10.8875
所取	-10.8879
幽王之時	-10.8879
于人	-10.8881
之郊	-10.8882
不止於	-10.8883
辨其	-10.8883
夫以	-10.8889
成公	-10.889
其事而	-10.8891
後言	-10.8893
不足信	-10.8893
以刺	-10.8894
莖葉	-10.8897
功業	-10.8897
大火	-10.8901
今日之	-10.8902
六篇	-10.8906
方言云	-10.8909
出自	-10.891
地而	-10.8915
大國之	-10.8915
任用	-10.8916
付	-10.8916
廢則	-10.8916
安民	-10.8917
澤中	-10.8919
璣	-10.8919
丕	-10.8921
徃來	-10.8924
禽經	-10.8924
秫	-10.8925
湎	-10.8926
罩	-10.8926
相視	-10.8927
以起	-10.8929
二章三章	-10.8929
舅姑	-10.8929
則以為	-10.8931
鄭樵	-10.8932
鬱鬯	-10.8936
曹氏	-10.8941
齊魯	-10.8942
好惡	-10.8943
隂氣	-10.8945
后夫人	-10.8945
于上	-10.895
盖以	-10.8951
又當	-10.8957
以此詩為	-10.8958
不稱	-10.8958
有定	-10.8959
淺深	-10.8959
爾之	-10.8961
太史	-10.8961
黃鳥	-10.8963
正言	-10.8963
逺近	-10.8965
此句	-10.8969
安於	-10.8971
之祥	-10.8972
不可知	-10.8974
所封	-10.8976
有文章	-10.898
多少	-10.8981
始祖	-10.8982
鱧	-10.8983
平日	-10.8984
詹	-10.8984
慨	-10.8985
我行其野	-10.8985
紽	-10.8988
斯螽	-10.8993
廵守	-10.8994
綏綏	-10.8994
車上	-10.8995
一統志	-10.8995
政之	-10.8996
文王武王	-10.9
文王有聲	-10.9007
不中	-10.9007
吾君	-10.9008
與夫	-10.9009
飲食之	-10.9009
民無	-10.9009
百年	-10.9013
得天下	-10.9019
小心	-10.9028
下四句	-10.9029
豳頌	-10.9032
處之	-10.9033
叶上	-10.9034
而不可得	-10.9035
用心	-10.9036
共公	-10.9039
詁	-10.9043
縣東	-10.9043
叙其	-10.9045
佽	-10.9046
翹翹	-10.9048
褰裳	-10.9048
邉	-10.905
勅	-10.9052
脣	-10.9055
之期	-10.9057
蔽芾	-10.9058
泗	-10.9059
贄	-10.9059
我王	-10.9063
以朱	-10.9066
下垂	-10.9068
武事	-10.9073
男子之	-10.9074
盛德	-10.9077
文王之典	-10.9083
有異	-10.9087
嫁娶	-10.9087
已反	-10.9088
戒也	-10.9089
謀也	-10.9089
汶	-10.9095
而卒	-10.9098
前三章	-10.9099
而發	-10.9103
何休	-10.9104
大原	-10.9107
而詩人	-10.9107
董氏	-10.9109
一嵗	-10.9109
樹之	-10.9111
叶奬	-10.9111
山有樞	-10.9112
於乎	-10.9112
罕	-10.9113
嚴云	-10.9113
不由	-10.9113
諼	-10.9114
裕	-10.9116
罝	-10.9116
占夢	-10.9117
樂者	-10.9117
壮	-10.9117
為亂	-10.9118
必無	-10.9118
亢	-10.9118
生契	-10.9119
飫	-10.9119
言已	-10.9119
頍弁	-10.912
是一	-10.912
菉	-10.912
皷	-10.912
搆	-10.9122
玖	-10.9123
熊羆	-10.9123
已見	-10.9125
之羙	-10.9126
其左右	-10.9126
廣韻	-10.9126
則已	-10.9129
旻天	-10.9129
盛時	-10.9133
舉之	-10.9134
必有所	-10.9135
觀此	-10.9135
舞者	-10.9139
申侯	-10.914
不加	-10.9141
之意故	-10.9143
窮極	-10.9143
其華	-10.9148
總角	-10.9148
素衣	-10.915
一年	-10.9157
以承	-10.9161
而歸之	-10.9162
辟雍	-10.9162
始作	-10.9169
不解	-10.917
和而	-10.9172
自責	-10.9172
兩服	-10.9175
豐城朱氏曰	-10.9178
羅瑞良	-10.9179
栲	-10.9179
所執	-10.9179
櫜	-10.918
從役	-10.918
槃	-10.9182
銍	-10.9184
遼	-10.9185
纉	-10.9186
巾車	-10.9186
也集傳	-10.9195
聞音曰	-10.9195
叔段	-10.9195
同義	-10.9196
天子以	-10.9196
功臣	-10.9197
日中	-10.9198
宗廟之祭	-10.9201
小異	-10.9204
白虎通	-10.9206
不動	-10.9212
得而	-10.9216
百穀	-10.9216
最為	-10.9218
夏商	-10.9219
金玉	-10.9224
荏	-10.9225
醉而	-10.9226
出征	-10.9228
美人	-10.9229
墟	-10.9232
曰天	-10.9232
鄭音	-10.9233
由其	-10.9235
者言之	-10.9236
自作	-10.9236
色之	-10.9237
子嗟	-10.9238
而死	-10.9239
尺二寸	-10.924
戎事	-10.9241
鞫	-10.9245
蟲也	-10.9247
交相	-10.9248
樂音洛	-10.9248
近世	-10.9249
不去	-10.925
蕪	-10.925
民俗	-10.9252
虞惇曰	-10.9252
商人	-10.9255
則我	-10.9257
之喻	-10.9257
歐陽曰	-10.926
所歸	-10.9261
陟降	-10.9262
之處也	-10.9263
北流	-10.9266
江淮	-10.9266
證之	-10.9268
司馬法	-10.9269
曽不	-10.927
南有	-10.9275
白茅	-10.9278
書之	-10.9278
辯說	-10.9279
皆稱	-10.928
衆多也	-10.928
所以爲	-10.9288
為風	-10.929
下而	-10.929
通典	-10.9292
可觀	-10.9296
天子之命	-10.9297
受封	-10.9301
衛武公	-10.9302
虞人	-10.9308
粢	-10.9308
道而	-10.9309
輝	-10.9309
鄧	-10.931
役車	-10.9311
摶	-10.9312
問之	-10.9313
茆	-10.9315
不受	-10.9317
詩記曰	-10.9317
珩	-10.9317
虵	-10.9318
芮伯	-10.9319
非無	-10.932
得此	-10.9325
室也	-10.9325
揚雄	-10.9326
獻酬	-10.9327
而去之	-10.9327
襄王	-10.9331
季秋	-10.9331
設為	-10.9332
檉	-10.9334
以往	-10.9334
之大夫	-10.9337
朱傳云	-10.9338
告以	-10.9346
法則	-10.9347
長庚	-10.9348
以酒	-10.9349
及于	-10.9352
孺	-10.9356
郭氏	-10.9357
我思	-10.9361
師衆	-10.9362
一旦	-10.9362
誰能	-10.9363
萬夫	-10.937
駟驖	-10.937
文舞	-10.9373
四字	-10.9373
棫	-10.9375
其長	-10.9375
訪落	-10.9377
求福	-10.9378
何楷曰	-10.9378
稺	-10.9379
爪	-10.9379
漣	-10.9379
忘其	-10.938
奇	-10.938
牆有茨	-10.938
信讒	-10.9382
函	-10.9383
屋漏	-10.9384
祝融	-10.9385
鷄	-10.9385
教民	-10.9387
勒	-10.9387
以御	-10.9389
則天	-10.9394
兼言	-10.9396
行人	-10.9398
庫	-10.94
亦甚	-10.9408
有二種	-10.9409
輔氏	-10.9409
僕夫	-10.941
者因	-10.9415
教誨	-10.9416
陸璣疏云	-10.9418
語詞	-10.9419
聰	-10.9422
賢君	-10.9422
誅之	-10.9423
興而	-10.9427
音義同	-10.9427
此義	-10.9437
不得其	-10.9438
袒	-10.944
惄	-10.9441
恕	-10.9444
奕	-10.9445
俱是	-10.9445
拳	-10.9446
墠	-10.9446
常服	-10.9446
蓼莪	-10.9448
啖	-10.9449
野有蔓草	-10.945
宗廟之	-10.945
羨	-10.945
縷	-10.9451
殷其靁	-10.9451
霰	-10.9452
臯陶	-10.9453
亡國	-10.9454
孔安國	-10.9454
莫非	-10.9457
朝諸侯	-10.9457
公行	-10.9458
祀之	-10.9458
爽	-10.9459
於魯	-10.9472
孝友	-10.9473
美好	-10.9473
三物	-10.9476
得名	-10.9477
私人	-10.9479
城縣	-10.9481
致之	-10.9482
而細	-10.9483
之迹	-10.9488
所據	-10.9489
祭禮	-10.9491
者今	-10.9492
心焉	-10.9493
以祭	-10.9494
殷王	-10.9496
朋友之	-10.9502
比興	-10.9503
作是詩	-10.9504
降此	-10.9506
之始也	-10.9508
䕃	-10.951
噦噦	-10.951
相接	-10.951
冨	-10.9513
授之	-10.9513
瓚	-10.9513
煌煌	-10.9514
揜	-10.9514
滔滔	-10.9517
以授	-10.9517
聨	-10.9517
仲尼	-10.9519
篪	-10.9519
早晚	-10.952
魯國	-10.9522
垤	-10.9522
徧也	-10.9524
合之	-10.9524
以生	-10.9525
伐淮夷	-10.9525
與天	-10.953
之情也	-10.9534
何等	-10.954
豐氏本	-10.954
耳今	-10.9545
仁也	-10.9546
昊	-10.9547
倬	-10.9547
相連	-10.9548
四章皆	-10.9549
反沈	-10.9549
來牟	-10.955
太任	-10.955
集注	-10.9551
不肖	-10.9551
君子萬年	-10.9553
不與我	-10.9553
有子	-10.9557
令儀	-10.9558
郊特牲云	-10.9559
治民	-10.956
博士	-10.9561
不齊	-10.9562
二之日	-10.9565
不樂	-10.9565
來助祭	-10.9568
以祈	-10.9568
百福	-10.9569
相呼	-10.957
頌禱	-10.9572
容刀	-10.9577
其君子	-10.9577
餼	-10.9577
起也	-10.9578
今我	-10.9579
悄	-10.958
閱	-10.958
停	-10.9582
于京	-10.9582
太廟	-10.9583
民間	-10.9584
鎛	-10.9585
澤陂	-10.9587
論云	-10.9587
鶴鳴	-10.9591
昭穆	-10.9592
此四	-10.9593
小毖	-10.9593
張子	-10.9594
顔師古	-10.9597
見矣	-10.9598
隸	-10.9599
末句	-10.96
宣王中興	-10.9602
穆王	-10.9602
乎又	-10.9603
固非	-10.9604
祈穀	-10.9605
未甞	-10.9607
終不	-10.9609
與女	-10.9611
相配	-10.9612
韓詩外傳	-10.9618
故作是詩也	-10.9621
詩之意	-10.9622
酒醴	-10.9623
禮文	-10.9624
近而	-10.9625
文王之時	-10.9625
唐虞	-10.9627
乘車	-10.9627
六卿	-10.9629
則不能	-10.963
郇	-10.9631
白虎通云	-10.9632
迅	-10.9632
再言	-10.964
為文	-10.964
文選	-10.9643
曹氏粹中曰	-10.9647
㣲子	-10.9648
挑	-10.9649
狼跋	-10.965
搖	-10.965
於經	-10.965
詩序曰	-10.9651
圭璧	-10.9653
鼗	-10.9653
齊女	-10.9653
怡	-10.9654
􁂶	-10.9656
胙	-10.9657
同車	-10.9657
陸璣疏	-10.9657
朱註賦也毛傳缺	-10.9661
也四章	-10.9661
古注	-10.9663
釋鳥	-10.9663
什一	-10.9664
由庚	-10.9665
好色	-10.9667
立國	-10.9667
瓉	-10.9667
忒	-10.967
子指	-10.9672
邶鄘衛	-10.9672
實事	-10.9674
説苑	-10.9674
一二	-10.9675
天人	-10.9676
各有所	-10.9676
當然	-10.9676
瞻彼	-10.9676
而告之	-10.9682
乃云	-10.9683
緩也	-10.9686
取彼	-10.9689
于公	-10.9689
民居	-10.969
所都	-10.9691
以助	-10.9693
之側	-10.9695
▁賦也	-10.9698
歌者	-10.9698
同類	-10.9699
起於	-10.97
古詩	-10.9701
作歌	-10.9703
之衰	-10.9706
釋木	-10.9707
刺忽	-10.9708
夲又作	-10.9709
反側	-10.971
詩皆	-10.971
尤甚	-10.9715
瑳	-10.9716
纎	-10.9716
枉	-10.9719
止乎禮義	-10.9719
曾不	-10.972
韶	-10.9721
䲭鴞	-10.9721
乆矣	-10.9722
緝熈	-10.9722
晉國	-10.9724
蝱	-10.9725
矣乃	-10.9726
腫	-10.9728
猶能	-10.973
業業	-10.9731
鄭衛	-10.9732
則此詩	-10.9732
諸姬	-10.9737
天生	-10.974
言歸	-10.9741
譏之	-10.9742
侍御	-10.9746
而居	-10.9746
結之	-10.9746
美惡	-10.9747
無愧	-10.9747
有娀	-10.9749
蘋藻	-10.9753
一意	-10.9753
以立	-10.9755
庶士	-10.9757
衣之	-10.9758
出宿	-10.9759
凡言	-10.9763
序所謂	-10.9763
附之	-10.9767
青青	-10.977
義亦	-10.9771
叔向	-10.9771
不爽	-10.9773
蓋亦	-10.9774
第一	-10.9776
子者	-10.9778
於樂	-10.9779
水流	-10.978
此正	-10.9781
六詩	-10.9781
今觀	-10.9782
文王以	-10.9782
夘	-10.9785
􁂎	-10.9786
袖	-10.9787
亦皆	-10.9789
朗	-10.9789
㒺	-10.9789
寺	-10.9789
曰君	-10.979
亾	-10.9791
鐸	-10.9791
悌	-10.9791
厖	-10.9793
六反	-10.9794
似之	-10.9794
出其東門	-10.9795
此二句	-10.9796
罪罟	-10.98
非人	-10.9801
所以自	-10.9805
未艾	-10.9811
則天下	-10.9813
爾雅翼	-10.982
不察	-10.9821
在周	-10.9825
和之	-10.9825
自守	-10.9828
固已	-10.983
可以見	-10.9838
遣之	-10.984
此蓋	-10.9842
或言	-10.9845
維何	-10.9845
嚴氏云	-10.9849
陳古	-10.985
叶户	-10.9852
寕	-10.9854
此是	-10.9856
黄氏佐曰	-10.9857
江有汜	-10.9857
鷊	-10.9857
鄭聲	-10.9858
瓞	-10.9858
濱	-10.9858
莎雞	-10.9859
為首	-10.986
嬰	-10.9861
各自	-10.9861
涘	-10.9862
茇	-10.9862
飾之	-10.9862
漂	-10.9863
枌	-10.9864
干戈	-10.9865
莢	-10.9865
而亡	-10.9876
庶乎	-10.9877
叶謨	-10.9878
味甘	-10.9878
而飲	-10.988
者以此	-10.988
皇天	-10.9881
善於	-10.9887
既平	-10.9888
所從	-10.9891
遷於	-10.9892
製	-10.9892
淫風	-10.9895
學詩	-10.9896
陸氏曰	-10.9899
始言	-10.9902
之威	-10.9904
得其時	-10.9906
歐陽公	-10.9908
靡所	-10.9908
能以	-10.9913
其服	-10.9915
五句	-10.9915
亦可謂	-10.9916
長三尺	-10.9921
小臣	-10.9922
豬	-10.9924
禪	-10.9925
無私	-10.9925
喈	-10.9926
仲夏	-10.9927
偷	-10.9927
及此	-10.9927
有女同車	-10.9928
名之曰	-10.9928
射禮	-10.9928
以介景福	-10.9929
也朱子	-10.9929
拙	-10.9931
晋	-10.9931
揄	-10.9931
嬴	-10.9932
銀	-10.9933
之年	-10.9933
弄	-10.9934
鄉遂	-10.9936
者若	-10.9936
橘	-10.9936
反復	-10.9936
之所以為	-10.9936
一丈	-10.9938
無過	-10.9939
體也	-10.994
方其	-10.9941
哀我	-10.9942
不恭	-10.9942
黄氏曰	-10.9949
柔嘉	-10.9951
一人之	-10.9952
注疏	-10.9952
衛國	-10.9957
子産	-10.9958
從軍	-10.9962
本紀	-10.9966
君子有	-10.9968
遂人	-10.9974
鄭譜	-10.9975
不回	-10.9976
三人	-10.9977
之具	-10.9983
在衛	-10.9983
三良	-10.9988
涯	-10.9988
有禮	-10.9992
程氏	-10.9993
陜	-10.9996
又如	-10.9996
賔之初筵	-10.9996
不是	-10.9997
遣戍役	-10.9998
知其為	-10.9998
耻	-10.9998
袍	-10.9999
相反	-10.9999
鐃	-11
許氏謙曰	-11
緎	-11.0002
麓	-11.0003
冽	-11.0003
士冠禮	-11.0004
其先祖	-11.0004
鐡	-11.0004
耨	-11.0005
著於	-11.0006
髙祖	-11.0007
一端	-11.0007
我有	-11.0011
朝覲	-11.0013
生者	-11.0013
著其	-11.0015
厚而	-11.0018
動而	-11.0019
不敢不	-11.0021
西人	-11.0024
興者	-11.0028
之易	-11.0029
各反	-11.0031
哉此	-11.0031
其㫖	-11.0032
人力	-11.0034
天下之人	-11.0036
腹心	-11.0037
猶在	-11.0038
不可求	-11.004
一時之	-11.0042
其居	-11.0051
可據	-11.0052
度也	-11.0052
不獲	-11.0055
此詩人	-11.0057
百畝	-11.0057
所欲	-11.0061
作豐	-11.0064
而加	-11.0065
為名	-11.0067
穎	-11.0068
嘒	-11.0068
歸美	-11.0069
肝	-11.0074
螟蛉	-11.0075
而益	-11.0075
汎汎	-11.0077
君子謂	-11.0077
珌	-11.0078
也是以	-11.0079
莊公之	-11.008
武王克商	-11.008
參差	-11.0081
行潦	-11.0082
洧	-11.0083
寡婦	-11.0085
貍首	-11.0086
車服	-11.0088
勤於	-11.009
之舞	-11.0096
道理	-11.0098
泛言	-11.0098
百榖	-11.0101
人才	-11.0102
羅願云	-11.0103
釀	-11.0104
勞使臣	-11.0104
常在	-11.0106
于君	-11.0106
正義曰言	-11.0107
嗟歎	-11.0107
山中	-11.0107
之多也	-11.0111
不修	-11.0113
而知其	-11.0113
自稱	-11.0114
無使	-11.0114
為詩	-11.0116
之可也	-11.0117
專以	-11.012
遑暇	-11.0122
理也	-11.0123
在梁	-11.0131
七廟	-11.0132
時王	-11.0135
隮	-11.0135
房中之樂	-11.0136
鴻雁	-11.0139
廵	-11.014
蓫	-11.014
疐	-11.014
禴	-11.0141
坰	-11.0141
裔	-11.0141
揉	-11.0142
不可考	-11.0142
叟	-11.0143
滸	-11.0144
既設	-11.0144
瘞	-11.0144
所刺	-11.0146
被文王之化	-11.0148
笙磬	-11.0149
朱芾	-11.0149
姝	-11.015
而弗	-11.0152
鵜	-11.0152
猴	-11.0154
雖然	-11.0154
學問	-11.0155
一說	-11.0156
誦之	-11.0157
箋疏	-11.0164
有一	-11.0167
召之	-11.0167
邶風	-11.0168
帝命	-11.0169
反徐	-11.0178
食也	-11.0179
爾殽	-11.0182
前王	-11.0184
王都	-11.0186
竊脂	-11.0187
子如	-11.0187
不可食	-11.0189
之端	-11.0194
乃謂	-11.0198
安在	-11.0199
蠶事	-11.0203
當是時	-11.0206
蘓	-11.0209
王制云	-11.021
東門之枌	-11.021
畏之	-11.0211
淮浦	-11.0212
君子至止	-11.0213
有周	-11.0213
中谷有蓷	-11.0214
總言	-11.0214
浴	-11.0215
獨以	-11.0215
混夷	-11.0216
我心則	-11.0216
鴆	-11.0216
文王既	-11.0216
訂	-11.0217
酸	-11.0217
掃	-11.0218
隘	-11.0218
何草不黄	-11.0219
暱	-11.022
師傅	-11.022
丁丁	-11.022
泌	-11.0223
言之耳	-11.0224
一尺	-11.0224
補傳曰	-11.0224
篤公劉	-11.0225
徐鍇云	-11.0227
之小者	-11.0227
柷	-11.0228
也至於	-11.0229
昏亂	-11.0233
君子不	-11.0235
而還	-11.0235
好音	-11.024
與之同	-11.0245
專指	-11.0247
之論	-11.0248
二南之	-11.0248
湛樂	-11.0249
宰夫	-11.0253
序謂	-11.0254
汶水	-11.0255
殷人	-11.0256
害也	-11.0262
矣且	-11.0262
共和	-11.0263
三歲	-11.0265
為衣	-11.0267
祭祀之	-11.0267
易傳	-11.0267
其父母	-11.0268
知所	-11.0269
聰明	-11.0272
詩所	-11.0276
喜其	-11.0277
無所不至	-11.0277
不能制	-11.028
民所	-11.028
帥師	-11.0281
肺	-11.0286
四種	-11.0286
圻	-11.0287
在郊	-11.0287
蔬	-11.029
君所	-11.029
俗謂之	-11.0292
風而	-11.0293
為先	-11.0295
俾我	-11.0297
荀卿	-11.0298
以順	-11.0299
龍旂	-11.03
饗禮	-11.0302
趙孟	-11.031
食者	-11.0311
其才	-11.0312
中衣	-11.0313
動之	-11.0322
呂氏	-11.0322
嘏辭	-11.0324
夭夭	-11.0325
也嚴氏曰	-11.0326
亦用	-11.0328
無遺	-11.033
天實	-11.0332
水經	-11.0334
之貴	-11.0343
逼反	-11.0344
所以然者	-11.0351
郊禖	-11.0352
志在	-11.0352
苕之華	-11.0353
不仁	-11.036
率循	-11.036
蹂	-11.036
信矣	-11.0361
戕	-11.0363
之病	-11.0364
勃	-11.0364
頰	-11.0364
幽州人謂之	-11.0365
耐	-11.0366
戲謔	-11.0367
檿	-11.0368
情之	-11.0369
冶	-11.037
附錄	-11.037
者宜	-11.037
戚施	-11.037
失所	-11.0371
皆當	-11.0374
名物	-11.0375
及爾	-11.0376
乎故	-11.0377
夏姬	-11.0379
筥	-11.0379
矣於是	-11.0379
老成	-11.038
色白	-11.0382
淮水	-11.0384
百禄	-11.0385
呼報	-11.0386
横木	-11.0388
存亡	-11.0389
使我心	-11.0393
謂天	-11.0393
存者	-11.0393
之最	-11.0394
殘賊	-11.0394
民莫不	-11.0396
平地	-11.0401
修身	-11.0401
即指	-11.0403
自悔	-11.0403
而作是詩也	-11.0406
諸侯助祭	-11.0407
始至	-11.0408
之才	-11.0408
莫莫	-11.0411
坊	-11.0412
廟中	-11.0414
為重	-11.0416
其弟	-11.0417
文意	-11.0421
為常	-11.0423
惡木	-11.0426
集於	-11.0427
萇楚	-11.043
上四句	-11.0431
藚	-11.0432
野有死麕	-11.0432
鞅	-11.0432
屺	-11.0433
黽勉	-11.0433
縞	-11.0433
屠	-11.0434
愠	-11.0434
孑	-11.0435
羝	-11.0435
閣	-11.0436
嬪	-11.0436
其鳴	-11.0437
諸侯有	-11.0438
鬵	-11.0439
户郎	-11.044
汭	-11.0441
裁	-11.0441
也鄭氏	-11.0441
之皮	-11.0442
焦穫	-11.0442
忠愛	-11.0443
銚	-11.0443
塤	-11.0444
八音	-11.0451
何嘗	-11.0452
在南	-11.0455
采其	-11.0455
詩作	-11.0456
十餘	-11.0457
籥舞	-11.0458
勉强	-11.0458
之儀	-11.0458
詩經	-11.0458
功成	-11.046
曰王	-11.046
三歳	-11.046
妣	-11.0461
必是	-11.0462
白金	-11.0464
有大小	-11.0464
賦也鄭箋	-11.0465
多有	-11.0469
周公所作	-11.0469
井田	-11.0469
敬天	-11.047
北面	-11.0471
孝思	-11.0471
治田	-11.0472
已然	-11.0472
戒懼	-11.0473
所治	-11.0474
可得而	-11.0479
不但	-11.0479
楚子	-11.0482
之終	-11.0483
逺行	-11.0486
之初生	-11.0489
八鸞	-11.0489
者也故	-11.0492
此物	-11.0495
視其	-11.0497
莎	-11.0498
胡公	-11.0499
告于	-11.0499
乆而	-11.0502
其善	-11.0504
而祭	-11.0506
油	-11.0508
憂國	-11.0509
鰥寡	-11.0509
懿王	-11.051
隈	-11.0511
翩翩	-11.0512
人之心	-11.0512
詩人以	-11.0513
叔父	-11.0513
埸	-11.0514
邾	-11.0514
俄	-11.0515
塈	-11.0516
馨香	-11.0516
千乗	-11.0516
賜也	-11.0517
概	-11.0517
序曰刺	-11.0517
胷	-11.0517
昏姻之	-11.0518
所以得	-11.0518
何爲	-11.0518
斛	-11.0519
於理	-11.0519
赤舄	-11.052
益之	-11.052
虞芮	-11.052
列子	-11.0525
荷華	-11.0525
亮反	-11.0528
而始	-11.0528
寒泉	-11.0529
景公	-11.0531
執之	-11.0531
也惟其	-11.0533
遂以為	-11.0533
不盈	-11.0534
取妻	-11.0535
帝王	-11.0537
蒹	-11.0537
其美	-11.0538
有兩	-11.0539
享其	-11.054
車右	-11.0542
並無	-11.0542
正雅	-11.0542
饋食	-11.0543
截然	-11.0544
諸侯來朝	-11.0544
表裏	-11.0546
不見答	-11.0546
江東	-11.0547
化而	-11.0548
吕氏春秋	-11.055
乃可	-11.0552
之頌	-11.0552
度之	-11.056
因此	-11.0563
孝子之	-11.057
雖未	-11.0571
深衣	-11.0572
以朝	-11.0576
以俟	-11.058
追王	-11.058
承上章言	-11.0581
嘒嘒	-11.0585
馮翊	-11.0585
螟	-11.0585
汕	-11.0586
傑	-11.0587
民之所	-11.0588
自見	-11.0589
魄	-11.0589
番	-11.0589
殄	-11.059
説得	-11.059
甜	-11.0592
洩	-11.0592
矣豈	-11.0592
鄉飲酒	-11.0593
可作	-11.0593
往而	-11.0597
甚大	-11.0597
相怨	-11.0599
老人	-11.0599
諸侯皆	-11.06
復興	-11.0601
僖公之	-11.0604
亦不能	-11.0605
豳詩	-11.0605
柔順	-11.0607
發端	-11.0615
張仲	-11.0615
以成其	-11.0615
兩端	-11.0619
過時	-11.0619
之美也	-11.062
大意	-11.062
遷岐	-11.062
君命	-11.0621
霜降	-11.0622
豫州	-11.0624
震動	-11.0625
小木	-11.0625
惑於	-11.0627
陳風	-11.063
以道	-11.063
髙克	-11.0631
同音	-11.0633
惡而	-11.0634
大路	-11.0634
長養	-11.0635
勤苦	-11.0636
所存	-11.0636
微而	-11.0637
頌僖公	-11.064
其次	-11.0641
豳地	-11.0643
疑於	-11.0648
服䖍	-11.0649
夲亦作	-11.0651
噂	-11.0658
傷已	-11.0659
飼	-11.0662
皇甫謐	-11.0664
松栢	-11.0665
科	-11.0665
餙	-11.0665
疆埸	-11.0665
蜥蜴	-11.0667
為可	-11.0668
樊纓	-11.067
古今注	-11.0672
託言	-11.0677
離騷	-11.0679
七十里	-11.0679
以兵	-11.0682
衆民	-11.0685
徐音	-11.0685
信厚	-11.0689
有九	-11.0694
為害	-11.0694
政治	-11.0697
〇鄭氏曰	-11.0699
許氏曰	-11.07
直以	-11.0704
之證	-11.0705
八句	-11.0708
而與之	-11.0712
故使	-11.0712
安處	-11.0715
何由	-11.0716
乃有	-11.072
人多	-11.072
於己	-11.072
繹祭	-11.0723
意在	-11.0727
釋草云	-11.0728
以治	-11.0728
書所謂	-11.0733
其首	-11.0733
別	-11.0736
也此章言	-11.0738
帨	-11.0739
坻	-11.074
挽	-11.074
厄	-11.074
賈誼	-11.074
以奉	-11.0741
婢	-11.0741
云何	-11.0741
探	-11.0741
燕兄弟	-11.0742
征之	-11.0743
蛾	-11.0746
而用	-11.0747
者但	-11.0747
明君	-11.0748
怨之	-11.075
王介甫曰	-11.0751
居東	-11.0752
其流	-11.0754
太康	-11.0756
於郊	-11.0757
之宫	-11.0762
百畆	-11.0763
懲創	-11.0764
百泉	-11.0766
興者喻	-11.0766
交交	-11.0766
享祀	-11.0767
大命	-11.0767
但云	-11.077
所不及	-11.0772
諸侯之國	-11.0774
孰能	-11.0775
又加	-11.0776
數之	-11.0782
叔伯	-11.0782
也此章	-11.0787
以慰	-11.0787
哉故	-11.0788
舍人曰	-11.0788
叶于	-11.0788
漢之	-11.079
一月	-11.079
相繼	-11.0791
見王	-11.0792
治天下	-11.0794
字異	-11.0796
1	-11.08
非一人	-11.0802
固當	-11.0805
2	-11.0807
陳之	-11.0807
叔兮伯兮	-11.0809
無所依	-11.0809
韜	-11.0809
事神	-11.081
忮	-11.0812
恊	-11.0813
䏻	-11.0813
護	-11.0814
也吕氏曰	-11.0815
吟	-11.0815
盬	-11.0816
沿	-11.0816
鄭漁仲	-11.0816
郵	-11.0818
人之言	-11.0819
漫	-11.0821
雖曰	-11.0822
菀	-11.0822
以致其	-11.0823
失禮	-11.0823
以善	-11.0826
巡狩	-11.0826
何物	-11.0827
不使	-11.0827
馬融	-11.0829
口反	-11.083
始于	-11.083
大王王季	-11.0831
次言	-11.0831
釜	-11.0832
經營四方	-11.0832
武舞	-11.0834
南土	-11.0835
與上	-11.0837
荆舒	-11.0837
黄白	-11.0839
河之	-11.084
之心而	-11.0842
晉之	-11.0842
既同	-11.0843
〇毛氏曰	-11.0846
李巡曰	-11.0847
而作是詩	-11.0848
一云	-11.0849
待之	-11.0849
皆能	-11.0853
擇其	-11.0854
祈年	-11.0854
補傳	-11.0856
賔尸	-11.0858
張氏	-11.0859
泂酌	-11.0861
二十七	-11.0862
周室之	-11.0863
不令	-11.0866
意同	-11.0867
營室	-11.0873
齊一	-11.0874
其過	-11.0875
故此	-11.088
衞人	-11.0883
之言則	-11.0884
䖏	-11.0885
長者	-11.0888
縿	-11.089
通篇	-11.0891
出則	-11.0891
絶無	-11.0891
瑣	-11.0891
所乘	-11.0892
餉	-11.0892
剪	-11.0892
陟岵	-11.0893
駰	-11.0893
邢昺	-11.0893
窈窕	-11.0893
不愆	-11.0894
隧	-11.0894
泯	-11.0895
國在	-11.0895
勺藥	-11.0895
東方未明	-11.0895
苐	-11.0896
準	-11.0896
無已也	-11.0896
黄氏	-11.0896
縣西南	-11.0899
夫人姜氏	-11.09
可以爲	-11.09
燕安	-11.09
濯濯	-11.0901
酒誥	-11.0901
祭事	-11.0901
三尺	-11.0902
不徒	-11.0903
地之	-11.0904
為辭	-11.0906
鸇	-11.0907
東流	-11.0907
達於	-11.0908
神靈	-11.0909
變也	-11.0911
在道	-11.0911
不可解	-11.0912
之緒	-11.0913
則將	-11.0914
吕東萊曰	-11.0917
文字	-11.0924
主之	-11.0925
東海	-11.0925
乆也	-11.0931
七尺	-11.0937
不可信	-11.0939
來者	-11.0943
時世	-11.0944
淑善	-11.0947
巡	-11.0953
伯服	-11.0956
與鄭	-11.0958
境内	-11.0959
五尺	-11.0961
嗇	-11.0961
之篇	-11.0962
與國	-11.0964
掘	-11.0964
防有鵲巢	-11.0965
保之	-11.0965
為尸	-11.0966
柔木	-11.0966
在于	-11.0966
札	-11.0966
慆	-11.0967
鶉之奔奔	-11.0968
猶存	-11.0968
砥	-11.0969
怨而	-11.097
毛氏以	-11.097
簒	-11.0972
欵	-11.0974
恫	-11.0974
糞	-11.0976
窒	-11.0976
耒耜	-11.0976
有時而	-11.0977
此詩之作	-11.0978
蠆	-11.0978
是矣	-11.0978
排	-11.0979
輯録輔氏曰	-11.0979
之妃	-11.098
奚斯	-11.098
中興之	-11.0982
欲求	-11.0983
頓丘	-11.0986
為雅	-11.0986
有角	-11.0986
大全	-11.0986
前漢	-11.0986
居於	-11.0987
修德	-11.0988
作詩以	-11.099
中節	-11.0994
仕者	-11.0995
集韻	-11.1001
好徳	-11.1002
指為	-11.1002
白虎	-11.1003
恩澤	-11.1004
夜飲	-11.1005
四詩	-11.1006
淵淵	-11.1006
相好	-11.1007
為人所	-11.1009
□□	-11.102
愚人	-11.1021
乃命	-11.1022
世本	-11.1022
而興	-11.1024
第二	-11.103
在國	-11.1039
何人斯	-11.1039
之域	-11.1041
蔓延	-11.1041
謡	-11.1041
誤以	-11.1043
者哉	-11.1043
皆自	-11.1045
自天子	-11.1045
瘉	-11.1047
鮎	-11.1048
萱	-11.1048
罶	-11.1048
桂	-11.1049
縶	-11.1049
㓂	-11.105
膴	-11.105
銎	-11.1051
欣	-11.1051
者欲	-11.1051
鳦	-11.1052
之朝	-11.1052
諛	-11.1052
其先	-11.1053
逵	-11.1053
賣	-11.1053
籧篨	-11.1053
而言則	-11.1053
矧	-11.1054
大風	-11.1054
人自	-11.1054
懇	-11.1055
駭	-11.1055
髙岡	-11.1055
教以	-11.1056
豳公	-11.1056
萬國	-11.1057
多辟	-11.1058
困於	-11.106
而已故	-11.1061
蘀兮	-11.1061
不廢	-11.1061
周原	-11.1062
凶年	-11.1063
廛	-11.1063
起而	-11.1064
既備	-11.1066
臣僕	-11.1067
田也	-11.1069
載驅	-11.107
南箕	-11.1071
厚矣	-11.1073
為飾	-11.1074
不定	-11.1077
贈之	-11.1077
莫知其	-11.1079
近也	-11.1081
繼以	-11.1081
文王時	-11.1085
德行	-11.1094
其神	-11.1094
樂其	-11.1095
厲王之	-11.1095
圃田	-11.1098
注引	-11.1101
金奏	-11.1104
故取	-11.1106
進而	-11.1106
又使	-11.1108
去而	-11.1108
信其	-11.1111
之號	-11.1112
株	-11.1114
求助	-11.1114
讀之	-11.1119
范曰	-11.1121
美者	-11.1123
喻王	-11.1123
𬒳	-11.1123
漸漸之石	-11.1125
樓	-11.1126
十一月	-11.1126
螫	-11.1126
遙	-11.1126
禀	-11.1126
祔	-11.1127
無時	-11.1128
脾	-11.1131
察之	-11.1131
逞	-11.1131
憮	-11.1131
規模	-11.1132
匿	-11.1132
霑	-11.1132
之仁	-11.1132
彝	-11.1133
豜	-11.1133
所施	-11.1134
闋	-11.1135
匡衡	-11.1136
甑	-11.1137
蜾蠃	-11.1137
披	-11.1137
將歸	-11.1137
不能已	-11.1139
仙	-11.1139
大人	-11.1139
見得	-11.1141
純嘏	-11.1141
在中	-11.1141
隰桑	-11.1144
與子同	-11.1144
君子有酒	-11.1145
禮法	-11.1146
庶子	-11.1146
耆老	-11.1147
餘皆	-11.1148
富貴	-11.1151
發語辭	-11.1154
與羣臣	-11.1155
高大	-11.1155
蔡氏	-11.1157
子思	-11.1157
形於	-11.1157
子國	-11.1157
逺人	-11.1159
奉璋	-11.1161
自知	-11.1163
之不如也	-11.1164
伐玁狁	-11.1168
實為	-11.1169
重在	-11.1169
子衿	-11.1171
豈其	-11.1171
自當	-11.1172
漿	-11.1173
其業	-11.1176
無角	-11.1178
王芻	-11.1181
不可復	-11.1182
自外	-11.1189
又謂之	-11.119
退而	-11.119
與爾	-11.1194
之華	-11.1195
立於	-11.1199
既為	-11.12
伶	-11.1204
僞	-11.1205
衎	-11.1205
培	-11.1206
如此其	-11.1206
睂	-11.1207
船	-11.1208
未免	-11.1209
蕪菁	-11.1209
紵	-11.1209
幷	-11.1209
儉嗇	-11.121
儲	-11.121
釋訓云	-11.121
匊	-11.121
五章章四句	-11.1211
觀此詩	-11.1211
騫	-11.1212
所歌	-11.1213
樅	-11.1215
作此詩以	-11.1215
民力	-11.1216
羖	-11.1216
有狐	-11.1216
太王王季	-11.1217
埋	-11.1217
君子陽陽	-11.1218
互見	-11.1218
銅	-11.1219
嘉客	-11.1221
在其中矣	-11.1222
死者	-11.1222
鄭氏云	-11.1228
周地	-11.1228
相依	-11.1229
天之所	-11.1229
形如	-11.1232
兖州	-11.1233
中林	-11.1236
北狄	-11.1238
不死	-11.1241
禮書云	-11.1242
尊也	-11.1248
大鼓	-11.125
害人	-11.1253
之重	-11.1253
雖多	-11.1254
饗燕	-11.1255
盡其心	-11.1256
必至	-11.1257
幽厲	-11.126
貪人	-11.126
是亦	-11.1261
仲子	-11.1263
臣民	-11.1266
集傳以為	-11.1267
匹也	-11.127
臧善也	-11.1271
出遊	-11.1271
故先言	-11.1272
沔水	-11.1274
可憂	-11.1275
時祭	-11.1276
昊天上帝	-11.128
則宜	-11.1281
德而	-11.1283
椅	-11.1283
畬	-11.1284
文王有	-11.1286
隊	-11.1287
博物志	-11.1287
睢	-11.1287
有酒	-11.1287
煖	-11.1288
三山李氏曰	-11.1288
閔公	-11.1289
姚	-11.129
戯	-11.129
字與	-11.129
邦之	-11.129
甚美	-11.129
萑葦	-11.1292
險阻	-11.1293
且以	-11.1293
長尺	-11.1293
礪	-11.1293
二家	-11.1294
觩	-11.1294
叶徒	-11.1294
王化	-11.1296
邵	-11.1296
太牢	-11.1298
立卒子	-11.1299
順天	-11.13
危殆	-11.13
樂則	-11.13
盡瘁	-11.1301
鷦	-11.1302
又為	-11.1305
蒼蒼	-11.1306
蒿也	-11.1311
總之	-11.1313
姬姓	-11.1313
而微	-11.1315
三卿	-11.1319
之賜	-11.132
郝氏云	-11.132
箕子	-11.1322
則所謂	-11.1322
疇	-11.1323
便見	-11.1323
在乎	-11.1323
此經	-11.1326
三爵	-11.1327
誠心	-11.1328
乃言	-11.133
毳衣	-11.1331
其禍	-11.1332
季氏	-11.1333
為大夫	-11.1334
馬祖	-11.1335
而思之	-11.1335
文理	-11.1335
田犬	-11.1335
不瑕	-11.1338
止則	-11.1338
之状	-11.1341
孔氏云	-11.1343
光也	-11.1345
香草	-11.1348
和順	-11.1348
得罪	-11.1353
音亦	-11.1355
鄭説	-11.1356
祀天	-11.1357
極矣	-11.1357
陽陽	-11.1357
魯莊公	-11.1357
樂以	-11.136
志也	-11.1362
𧖟	-11.1364
稂	-11.1367
可愛	-11.1368
删	-11.1369
賦比興	-11.1369
畨	-11.1369
勞來	-11.137
弧	-11.137
詰	-11.1371
回遹	-11.1371
委蛇	-11.1371
袞	-11.1373
繪	-11.1373
許穆夫人	-11.1374
有害	-11.1376
胡氏	-11.1376
魂	-11.1378
淫泆	-11.1378
雄狐	-11.1378
彊禦	-11.1379
圭瓚	-11.1379
陌	-11.138
甥舅	-11.138
茅蒐	-11.1382
卣	-11.1382
誼	-11.1385
逸詩	-11.1386
云大	-11.1387
歎之	-11.1389
存焉	-11.1398
質也	-11.1399
飛則	-11.1403
玉之	-11.141
大社	-11.141
仲秋	-11.141
所自出	-11.1414
可使	-11.1415
既戒	-11.1417
二事	-11.1417
百禮	-11.142
為一物	-11.1421
長貌	-11.1422
不甚	-11.1426
豈必	-11.1429
𦂳	-11.1431
鱒	-11.1435
亦從	-11.1436
也聞音曰	-11.1438
不我知	-11.1438
娶妻	-11.1439
昭考	-11.144
漆水	-11.1441
光大	-11.1441
論其	-11.1441
以玉	-11.1444
髢	-11.1446
而不知其	-11.1446
䜴	-11.1447
豺	-11.1447
獸名	-11.1448
失之矣	-11.1448
釋獸	-11.1448
綢	-11.1451
閨	-11.1452
邂逅	-11.1452
兢	-11.1452
喤喤	-11.1453
黄耇	-11.1453
暖	-11.1453
讙	-11.1454
腸	-11.1454
蕳	-11.1454
馨	-11.1454
荘姜	-11.1454
挺	-11.1457
鷦鷯	-11.1458
晤	-11.1458
阼階	-11.1459
朝隮	-11.146
諸父	-11.1461
聘禮	-11.1462
重複	-11.1465
仍叔	-11.1467
而得之	-11.1467
又如字	-11.1467
公歸	-11.1469
車舝	-11.147
而喜	-11.1472
恐是	-11.1472
地理	-11.1473
帝乙	-11.1474
劉曰	-11.1476
尊賢	-11.1476
未見其	-11.1479
詠歌	-11.1481
非所以	-11.1482
豔	-11.1482
不念	-11.1482
以避	-11.1484
祭宗廟	-11.1488
服䖍云	-11.149
有美	-11.149
而美	-11.1494
兩旁	-11.1497
謝氏曰	-11.1499
可以觀	-11.1499
語也	-11.1499
故下	-11.15
矣故曰	-11.15
詩人述	-11.1501
世而	-11.1502
前人	-11.1503
徳盛	-11.1503
之衣	-11.1503
悔過	-11.1506
獲福	-11.1507
二說	-11.1507
如山	-11.1508
按周禮	-11.1508
亦似	-11.151
子孫衆多	-11.151
念彼	-11.1511
不可易	-11.1512
不同也	-11.1513
晉文公	-11.1513
南征	-11.1513
察其	-11.1516
三終	-11.1516
之黨	-11.152
君王	-11.1524
王畿	-11.1524
無益	-11.1526
城郭	-11.1528
指文王	-11.1528
廪	-11.1529
夜如何其	-11.1529
此理	-11.1531
紓	-11.1532
蘞	-11.1533
說見	-11.1533
羈	-11.1534
鯊	-11.1534
譴	-11.1534
墾	-11.1534
噣	-11.1535
淹	-11.1535
洞	-11.1535
粺	-11.1535
改作	-11.1535
瞿瞿	-11.1535
毅	-11.1536
保安	-11.1537
穈	-11.1538
葚	-11.1538
台	-11.1538
㑹于	-11.1539
鞉鼓	-11.1539
報反	-11.1539
頃筐	-11.154
配之	-11.154
蕡	-11.154
伶官	-11.154
壼	-11.154
董曰	-11.1543
至於此	-11.1543
而獨	-11.1546
不遲	-11.1546
斃	-11.1547
為我	-11.1549
商周	-11.1551
沔	-11.1552
歎辭	-11.1553
繼其	-11.1557
失國	-11.1558
夙夜在公	-11.1559
靈星	-11.156
與諸侯	-11.1564
圖經云	-11.1565
更有	-11.1566
我友	-11.1571
其字	-11.1573
耳目	-11.1576
之功也	-11.1578
約之	-11.1579
静女	-11.1583
文王之詩	-11.1584
奄有	-11.1584
大㫖	-11.1585
通釋	-11.1586
之例	-11.1588
人能	-11.1589
以車	-11.159
疏謂	-11.1592
自警	-11.1592
羽翼	-11.1592
因名	-11.1593
而從之	-11.1593
之祖	-11.1596
嚴粲	-11.1598
盡矣	-11.1599
從鄭	-11.1602
之等	-11.1605
也爾雅云	-11.1606
言彼	-11.1606
憂懼	-11.1606
亦惟	-11.1607
頷	-11.161
禮記曰	-11.161
毛義	-11.1611
紡	-11.1612
多故	-11.1614
罄	-11.1615
丘中有麻	-11.1616
獫狁	-11.1617
山有扶蘇	-11.1617
姆	-11.1618
有杕之杜	-11.1618
裳裳者華	-11.162
白露	-11.162
安危	-11.1621
鴨	-11.1621
徇	-11.1622
咮	-11.1622
而祭之	-11.1622
瑶	-11.1622
叠	-11.1622
庠	-11.1622
且多	-11.1623
維天之命	-11.1623
將仲子	-11.1624
而外	-11.1624
央央	-11.1625
買	-11.1625
取諸	-11.1625
之要	-11.1626
繢	-11.1626
曰古者	-11.1627
横渠	-11.1627
彼此	-11.1628
雊	-11.1629
即政	-11.1629
幽王時	-11.1629
大宗伯	-11.163
鱣鮪	-11.163
宮室	-11.1631
為武王	-11.1631
束薪	-11.1632
者能	-11.1635
下及	-11.1637
謂諸侯	-11.1637
以繩	-11.1638
丘氏曰	-11.164
不專	-11.1641
音聲	-11.1643
其友	-11.1644
叶古	-11.1645
事則	-11.1648
禾之	-11.1652
已甚	-11.1654
頌聲	-11.1654
一一	-11.1656
則謂之	-11.1656
其非	-11.1659
郝	-11.1659
殊不知	-11.166
六寸	-11.1662
固不	-11.1665
匠	-11.1666
征行	-11.1667
立言	-11.1667
汾水	-11.1668
正如	-11.1668
不可以為	-11.1672
表記	-11.1683
莊王	-11.1683
乎天	-11.1685
以福	-11.1686
大貌	-11.1687
五篇	-11.1689
為謀	-11.1691
桑之	-11.1696
球	-11.1696
而必	-11.1696
自强	-11.17
㓗	-11.1702
勵	-11.1703
畒	-11.1704
叶莫	-11.1704
百辟卿士	-11.1704
曀	-11.1705
安得有	-11.1705
曼	-11.1706
廏	-11.1706
淑人君子	-11.1707
思得	-11.1708
孔氏謂	-11.1712
浮浮	-11.1713
人云	-11.1714
杏	-11.1715
其所為	-11.1715
幽閒	-11.1715
祫祭	-11.1715
軹	-11.1717
之間謂之	-11.1717
晉陽	-11.172
與此同	-11.1721
助祭者	-11.1721
尊而	-11.1722
采葛	-11.1722
歸矣	-11.1726
勞苦而	-11.1727
宣布	-11.1727
故刺之	-11.1729
生物	-11.1732
先君之	-11.1734
燕享	-11.1735
酒漿	-11.1737
鳴者	-11.1741
見前	-11.1742
視爾	-11.1747
此等	-11.1748
莫知	-11.1749
疏引	-11.1751
語録	-11.1753
三王	-11.1754
孫毓	-11.1757
任之	-11.1757
全篇	-11.1761
奏樂	-11.1761
其序	-11.1764
所美	-11.1767
之遺風	-11.177
正變	-11.1772
自誓	-11.1773
維持	-11.1773
鞏	-11.1775
鷙	-11.1779
媯	-11.178
者將	-11.1784
盛之	-11.1785
可證	-11.1786
誑	-11.1786
萬物之	-11.1788
瘠	-11.1788
畛	-11.1788
固無	-11.1789
刋	-11.1789
蒺藜	-11.179
一家	-11.1791
之事則	-11.1792
綃	-11.1792
癸	-11.1793
陶陶	-11.1793
不得志	-11.1795
晝夜	-11.1798
虎皮	-11.1798
後序	-11.1798
三寸	-11.18
公路	-11.1804
漸漸	-11.1804
離離	-11.1804
王室之	-11.1805
為太子	-11.1805
傳訓	-11.1805
傷也	-11.1806
其容	-11.1807
云我	-11.1808
洪水	-11.1808
之山	-11.1809
非但	-11.1812
射御	-11.1812
以金	-11.1813
可畏也	-11.1813
醉者	-11.1813
大水	-11.1816
情狀	-11.1816
西階	-11.1818
上下相	-11.1818
所爲	-11.1823
史克	-11.1824
有序	-11.1825
江漢之	-11.1826
切音	-11.1826
第三章	-11.1826
抑抑	-11.1827
君臣之	-11.1829
南畝	-11.183
下士	-11.183
繼世	-11.1832
羣臣之	-11.1833
都賦	-11.1836
同州	-11.1837
蔽也	-11.1839
西京	-11.1842
虞書	-11.1844
不然也	-11.1848
新廟	-11.185
樂府	-11.1851
斯人	-11.1852
主祭者	-11.1853
人物	-11.1856
之訓	-11.1856
等語	-11.1857
有遺	-11.1858
良心	-11.1858
濳	-11.1864
無足	-11.1865
欲得	-11.1865
射則	-11.1866
豐本作	-11.1866
無聲	-11.1866
臨川王氏曰	-11.1867
䟽云	-11.1867
頎	-11.1868
繼續	-11.1868
皆述	-11.187
廻	-11.187
麀鹿	-11.1871
其廟	-11.1872
揺	-11.1872
冔	-11.1872
瀆	-11.1874
標	-11.1875
曳	-11.1876
纂	-11.1876
韎	-11.1877
蜃	-11.1878
則先	-11.1878
囂囂	-11.1882
人欲	-11.1882
周公攝政	-11.1883
吠	-11.1883
常有	-11.1886
不問	-11.1887
勤儉	-11.1888
二十八年	-11.1891
晉語	-11.1892
七日	-11.1892
改正	-11.1894
三事	-11.1895
獨處	-11.1896
六服	-11.1896
相因	-11.1897
喬木	-11.1903
清揚	-11.1904
有善	-11.1904
不少	-11.1905
述之	-11.1906
文侯	-11.1909
又從而	-11.1909
韻㑹	-11.191
此詩為	-11.1911
以終	-11.1911
覲禮	-11.1914
道徳	-11.1916
之中有	-11.1916
之所能	-11.1918
其官	-11.1918
以和	-11.1924
天神	-11.1926
故鄭	-11.1927
生后稷	-11.1929
不能無	-11.193
君子如	-11.1931
竊謂	-11.1931
二寸	-11.1932
朱子以	-11.1941
𤣥王	-11.1944
而南	-11.1948
刺莊公	-11.1949
有理	-11.1951
遂謂	-11.1952
任其	-11.1953
受天之祜	-11.1955
淡	-11.1957
慄	-11.1957
丸	-11.1958
鄰國	-11.1958
告語	-11.1959
脉	-11.1961
謁	-11.1961
佛	-11.1961
當日	-11.1962
子都	-11.1962
塾	-11.1962
璞	-11.1963
戎服	-11.1964
不難	-11.1966
薰	-11.1966
變文	-11.1966
綺	-11.1967
予小子	-11.1973
我躬	-11.1973
章言	-11.1973
所依	-11.1976
柴望	-11.1977
穆叔	-11.198
亦宜	-11.1982
疾威	-11.1985
與下	-11.1986
君子行役	-11.1987
導之	-11.1988
免於	-11.199
自后稷	-11.1993
有車馬	-11.1995
天下無	-11.2
諷誦	-11.2001
居室	-11.2001
書序	-11.2002
迎周公	-11.2005
自安	-11.2006
未為	-11.2007
傅㑹	-11.2012
亦稱	-11.2013
自取	-11.2017
東方之	-11.202
年豐	-11.202
始得	-11.2022
以保	-11.2024
成章	-11.2025
告之以	-11.203
不覺	-11.2031
曲禮云	-11.2032
褖衣	-11.2041
汝之	-11.2041
髀	-11.2043
金飾	-11.2044
骭	-11.2045
嚏	-11.2045
枳	-11.2046
歐陽氏修曰	-11.2046
言君子	-11.2046
滕	-11.2047
下章言	-11.2048
吪	-11.2048
隹	-11.2048
侜	-11.2048
鶯	-11.2048
囷	-11.2049
槖	-11.2049
也昔	-11.2051
喧	-11.2053
仄	-11.2053
尉	-11.2053
淫者	-11.2057
柔弱	-11.2057
不愧	-11.2057
自謂也	-11.2058
也孫炎曰	-11.2059
大叔于田	-11.2064
朱子以為	-11.2065
軾前	-11.2067
太史公	-11.2072
管仲	-11.2074
和鸞	-11.2074
集傳比也	-11.2076
而棄	-11.208
則不然	-11.208
楚詞	-11.208
何謂	-11.2081
所定	-11.2082
亡矣	-11.2083
常道	-11.2083
與汝	-11.2084
豈敢	-11.2085
平王東遷	-11.2086
宗國	-11.2089
鄭箋曰	-11.209
戎馬	-11.2092
二星	-11.2093
新宫	-11.2094
入河	-11.2094
之心則	-11.2095
益甚	-11.2095
采邑	-11.2095
興體	-11.2097
獸之	-11.2099
承上文	-11.2099
止是	-11.2101
以望	-11.2106
秦伯	-11.2108
七世	-11.211
之良	-11.211
其節	-11.2113
此文王	-11.2114
則同	-11.2115
此語	-11.2116
忘憂	-11.2116
時則	-11.2117
後凡	-11.2118
外之	-11.212
宛丘之	-11.212
兩字	-11.2121
故雖	-11.2122
西安府	-11.2122
同一	-11.2123
而逺	-11.2125
淮南子云	-11.2126
。《	-11.2128
斐	-11.2129
渝	-11.213
䟦	-11.2131
多難	-11.2132
廐	-11.2132
繹思	-11.2132
巔	-11.2132
得禮	-11.2133
壘	-11.2133
䘏	-11.2133
貽我	-11.2134
摰	-11.2135
牂	-11.2136
當與	-11.2136
恬	-11.2137
胸	-11.2137
倨	-11.2138
為說	-11.2138
茹藘	-11.2139
明日	-11.214
薨薨	-11.214
無信	-11.214
不醉	-11.214
致此	-11.2141
黝	-11.2141
乃所以	-11.2142
有美一人	-11.2142
鋤	-11.2143
楚楚	-11.2143
也春秋	-11.2144
五榖	-11.2148
禦侮	-11.2148
非一日	-11.215
卜之	-11.215
而不自知	-11.2151
十九年	-11.2151
丁寧	-11.2155
而不已	-11.2155
南郊	-11.2159
武王時	-11.2163
雜記	-11.2164
于衛	-11.2165
四曰	-11.2165
逸樂	-11.2168
華黍	-11.2169
主祭	-11.2169
以答	-11.217
發矢	-11.2173
張曰	-11.2174
自修	-11.2177
而盡	-11.218
申毛	-11.2181
序刺	-11.2182
經㫖曰此	-11.2182
事見	-11.2185
相樂	-11.2185
妻之	-11.2187
百人	-11.219
南方之	-11.2194
之不如	-11.2195
如雨	-11.2195
以皮	-11.2197
娛	-11.2201
田中	-11.2203
有六	-11.2203
必欲	-11.2206
逑	-11.2212
於此而	-11.2216
天下之事	-11.2217
萇	-11.2217
禍福	-11.2219
潨	-11.2219
魏風	-11.2219
晛	-11.2219
武王既	-11.222
無逸	-11.222
無可奈何	-11.222
萎	-11.2221
悴	-11.2221
孟姜	-11.2221
祝頌	-11.2222
繞	-11.2222
碎	-11.2223
皎	-11.2223
三百五篇	-11.2223
盡善	-11.2224
崇牙	-11.2224
戚戚	-11.2225
掇	-11.2225
繕	-11.2226
酋	-11.2227
官之長	-11.2227
以薦	-11.2228
與民同	-11.2228
惻	-11.2229
柞櫟	-11.2229
有儀	-11.2232
言天命	-11.2233
功烈	-11.2235
而鳴	-11.2238
成矣	-11.224
事畢	-11.2241
也黄曰	-11.2242
桃李	-11.2247
必自	-11.2247
實非	-11.2248
見本篇	-11.2248
母家	-11.2251
不厭	-11.2251
嗟嘆	-11.2253
逮下	-11.2256
之光	-11.2257
美色	-11.2257
據此則	-11.2257
者以為	-11.2259
邦家	-11.2259
毳	-11.2261
誦詩	-11.2261
漢水	-11.2262
公與	-11.2262
以燕	-11.2263
從此	-11.2266
州牧	-11.2266
所以安	-11.2267
終則	-11.2268
車馬之	-11.2269
鄠縣	-11.227
北伐	-11.227
本根	-11.2271
親近	-11.2275
無由	-11.2277
集傳謂	-11.2277
爾雅所謂	-11.2285
本俱作	-11.2292
以素	-11.2294
宣子	-11.2296
摻	-11.2296
太宗	-11.2298
聲譽	-11.23
懐思	-11.23
蒼天	-11.2301
潦	-11.2302
其徳之	-11.2302
滅亡	-11.2303
疑即	-11.2304
湘	-11.2305
家邦	-11.2305
或在	-11.2306
鄒氏泉曰	-11.2308
鐲	-11.2309
藟	-11.2309
蝕	-11.231
寮	-11.231
桴	-11.2311
謫	-11.2311
錢氏	-11.2312
言天之	-11.2312
撃	-11.2313
太伯	-11.2314
稔	-11.2315
巴	-11.2315
崧高	-11.2317
紲	-11.2317
不可勝	-11.232
申培說	-11.2322
武貌	-11.2322
綠衣	-11.2323
安居	-11.2323
卷十	-11.2324
柚	-11.2324
背上	-11.2327
在水	-11.2327
兔絲	-11.2327
未明	-11.2329
永歎	-11.2329
善則	-11.2329
是皆	-11.233
以共	-11.233
蠭	-11.233
取興	-11.2332
以防	-11.2332
為法	-11.2333
孔甚	-11.2335
結實	-11.2344
大徳	-11.2348
遷都	-11.2348
民之父母	-11.2348
而遷	-11.2349
但有	-11.2351
家事	-11.2355
死而	-11.2355
見人	-11.2355
更無	-11.2356
講武	-11.2357
而取之	-11.2359
相謂	-11.236
大亂	-11.2362
釋詁	-11.2364
佐食	-11.2365
未必然	-11.2367
著明	-11.237
别為	-11.2373
以取	-11.2373
降神	-11.2374
大木	-11.2375
色如	-11.2376
築城	-11.2378
也孟子曰	-11.2379
國家之	-11.2381
楊氏曰	-11.2383
至周	-11.2384
此詩與	-11.2384
三正	-11.2384
敬止	-11.2385
文子	-11.239
禮有	-11.2391
窶	-11.2391
豐草	-11.2394
思慮	-11.2395
騋	-11.2396
獨居	-11.2396
二十四	-11.2396
猗猗	-11.2396
如是而	-11.2399
赦	-11.2399
東門之池	-11.24
獫	-11.2401
繼之以	-11.2401
豈不爾思	-11.2402
靈沼	-11.2402
皋	-11.2403
貺	-11.2403
鞹	-11.2404
戒成王	-11.2404
傳謂	-11.2405
菣	-11.2405
而動	-11.2405
特言	-11.2405
衾	-11.2405
譙	-11.2406
扇	-11.2406
之典	-11.2406
我心傷悲	-11.2406
葱	-11.2407
則用	-11.2408
京兆	-11.2409
耒	-11.241
䋲	-11.2412
太宰	-11.2414
群臣	-11.2415
栵	-11.2415
詩稱	-11.2418
七月之詩	-11.2418
者唯	-11.2418
分而	-11.2419
災害	-11.242
恤我	-11.2422
文公之	-11.2422
象其	-11.2422
自我也	-11.2422
據此	-11.2424
著之	-11.2424
叶後	-11.2424
按爾雅	-11.2425
不殄	-11.2425
此祭	-11.2427
觀者	-11.243
〇朱氏曰	-11.2431
祝之	-11.2431
能知	-11.2431
者爲	-11.2436
幽州	-11.2436
出兵	-11.2438
音節	-11.2439
詩多	-11.244
亦已	-11.2443
雖非	-11.2443
夫婦之道	-11.2444
可得	-11.2447
南海	-11.2448
憂勤	-11.2448
功德	-11.245
亡國之	-11.2451
推而	-11.2453
騁	-11.2455
誰與	-11.2455
宋人	-11.2456
無據	-11.2457
亦能	-11.2459
後嗣	-11.2459
方有	-11.2459
教令	-11.246
魯桓公	-11.2462
詩詞	-11.2464
夏至	-11.2464
以身	-11.2465
堯之	-11.2465
䜛言	-11.2467
王既	-11.2468
故今	-11.2469
乃得	-11.2474
文作	-11.2475
此文	-11.2484
其歸	-11.2484
脂膏	-11.2488
郤	-11.2488
象舞	-11.2489
鍼	-11.2491
無競	-11.2492
紼	-11.2493
苛	-11.2493
先儒謂	-11.2493
翹	-11.2493
盍	-11.2493
夔	-11.2495
鞗	-11.2495
恁地	-11.2495
渙	-11.2496
韋弁	-11.2496
欽欽	-11.2496
曲盡	-11.2497
詩人言	-11.2497
徐鉉	-11.2498
琚	-11.25
緄	-11.2501
比於	-11.2505
黄金	-11.2505
目之	-11.2506
之漸	-11.2506
相隨	-11.2511
萬夀	-11.2511
於家	-11.2512
革路	-11.2513
惟此	-11.2516
史伯	-11.2516
君臣相	-11.2518
矣是	-11.252
也〇	-11.2521
其足	-11.2523
之妙	-11.2523
所處	-11.2524
不朝	-11.2524
文王世子	-11.2525
定為	-11.2525
且有	-11.2526
昌盛	-11.2531
孟夏	-11.2532
不生	-11.2537
王乃	-11.2538
述職	-11.2539
美宣王	-11.2539
也是詩	-11.2539
駿大	-11.254
唐棣之華	-11.2543
營營	-11.2543
本末	-11.2543
詩亡	-11.2544
之深也	-11.2547
即此詩	-11.2547
正義曰作	-11.2548
以手	-11.2551
心之所	-11.2552
無辜	-11.2552
陽韻	-11.2555
滿也	-11.2561
衰世	-11.2566
之為物	-11.2568
云古者	-11.2568
通志	-11.2569
全體	-11.2571
羊牛	-11.2573
㦧	-11.2574
而深	-11.2575
世亂	-11.2576
過而	-11.2578
方社	-11.2579
汾沮洳	-11.258
轄	-11.2581
千乘	-11.2582
跨	-11.2582
炊	-11.2585
呂氏祖謙曰	-11.2585
杻	-11.2586
吕祖謙	-11.2586
綂	-11.2586
美周公	-11.2586
夢夢	-11.2587
嬖妾	-11.2587
故箋	-11.2589
枸杞	-11.2589
礿	-11.2589
實維	-11.259
封禪	-11.2591
嫉	-11.2592
泰誓	-11.2593
非真	-11.2593
堯典	-11.2594
之景	-11.2594
故思	-11.2594
未足	-11.2595
諸公	-11.2597
鷙鳥	-11.2599
清濁	-11.2601
于東	-11.2603
士昏禮	-11.2604
集傳云	-11.2604
閔之	-11.2604
直云	-11.2606
趣馬	-11.2606
崇丘	-11.2608
連言	-11.2612
以我	-11.2615
憂勞	-11.2616
以類	-11.2617
虞夏	-11.2618
於女	-11.2619
後世之	-11.2621
相求	-11.2622
四嶽	-11.2622
相和	-11.2625
濬	-11.2626
縣東北	-11.2627
無酒	-11.2634
昭侯	-11.2634
不違	-11.2634
長尾	-11.2638
將雨	-11.2638
然後可	-11.2638
之飛	-11.2638
歸士	-11.2638
山西	-11.2639
曷為	-11.2641
詩為	-11.2641
者舉	-11.2642
惡者	-11.2645
乎哉	-11.2646
不時	-11.2646
落之	-11.2648
焉其	-11.265
易林	-11.2651
多以	-11.2652
宋公	-11.2655
畢而	-11.2655
徐戎	-11.2655
笙詩	-11.2655
鄭說	-11.2658
斨	-11.2659
於斯	-11.2661
問於	-11.2661
宜矣	-11.2664
以救	-11.2665
嗟乎	-11.2666
甚逺	-11.2666
天時	-11.2668
狃	-11.2668
形勢	-11.267
伐商	-11.2671
戰而	-11.2671
為頌	-11.2673
灑	-11.2675
雅頌之	-11.2676
菁菁	-11.2676
蠱	-11.2676
遒	-11.2676
本詩	-11.2677
俗作	-11.2678
我覯之子	-11.2678
屆	-11.2678
疲	-11.2679
菁莪	-11.2679
摩	-11.2681
明哲	-11.2681
櫛	-11.2683
寰宇記	-11.2683
侵削	-11.2684
縣西北	-11.2684
夣	-11.2686
鄭之	-11.2686
粢盛	-11.2687
毳冕	-11.2687
當通作	-11.269
皆謂之	-11.2692
樊光	-11.2698
於野	-11.2702
以德	-11.2703
私田	-11.2706
此所以為	-11.2707
某氏	-11.271
十千	-11.2711
於四方	-11.2711
文王之所以	-11.2714
篇内	-11.2715
正經	-11.2716
上帝之	-11.2718
知非	-11.2718
夏時	-11.2719
等篇	-11.2724
既定	-11.2727
何疑	-11.2728
終不可	-11.2729
周公以	-11.273
文勢	-11.273
息亮	-11.2733
俱在	-11.2733
州今	-11.2736
無俾	-11.2736
危也	-11.2737
譖人	-11.274
三五	-11.2741
推原	-11.2741
但見	-11.2745
旻	-11.2746
續序	-11.2747
右手	-11.2748
土功	-11.2749
著也	-11.2752
之詩以	-11.2754
叶訖	-11.2757
桓桓	-11.2758
室人	-11.2758
荆蠻	-11.2761
大司徒	-11.2762
斯言	-11.2763
行事	-11.2763
音洛	-11.2767
囯	-11.2767
淠淠	-11.2768
萹	-11.2768
再三	-11.277
吝	-11.277
而不顧	-11.277
鱮	-11.2771
解頥	-11.2771
軰	-11.2772
字亦作	-11.2774
脛	-11.2774
遂言	-11.2774
頡	-11.2774
響	-11.2774
使得	-11.2775
玊	-11.2778
將去	-11.2778
螢	-11.2779
犧尊	-11.278
子路	-11.2782
工夫	-11.2782
吹笙	-11.2784
八寸	-11.2784
求神	-11.2786
淮上	-11.2786
天之命	-11.2787
若謂	-11.2787
六家詩名物疏卷	-11.2788
直指	-11.2789
迷亂	-11.2789
休休	-11.279
乃為	-11.2793
草木疏	-11.2793
此特	-11.2797
實如	-11.2797
勞矣	-11.28
鄘風	-11.28
刺詩	-11.2803
困窮	-11.2805
啟明	-11.2806
今河南	-11.2806
洛陽	-11.2811
▁鄭云	-11.2811
烕	-11.2812
齊之	-11.2814
受禄	-11.2816
味苦	-11.2817
第四章	-11.2817
賦而興也	-11.2821
私恩	-11.2821
亡而	-11.2822
天下之民	-11.2825
牖下	-11.2825
而求之	-11.2825
而舞	-11.2827
勸勉	-11.2827
分陜	-11.2827
采地	-11.283
正色	-11.2832
五祀	-11.2835
本意	-11.2835
傳意	-11.2835
龜山	-11.2837
鄭詩	-11.2839
縣東南	-11.2843
不忒	-11.2843
異同	-11.2844
異者	-11.2845
以善道	-11.2846
足以見	-11.2846
不遇	-11.2847
始出	-11.2849
以為刺	-11.2851
薄也	-11.2853
齊襄	-11.2853
不勝其	-11.2854
牧馬	-11.2855
故城在	-11.2857
以從	-11.2857
所憂	-11.2859
之忠	-11.286
珈	-11.2861
菘	-11.2861
痗	-11.2861
昵	-11.2862
壑	-11.2862
溱	-11.2863
貔	-11.2863
魯語	-11.2864
襌	-11.2864
諶	-11.2864
芃	-11.2865
區區	-11.2865
槁	-11.2865
荏染	-11.2865
冐	-11.2866
麟之趾	-11.2866
杵	-11.2866
腥	-11.2868
租	-11.2868
神人	-11.2868
僴	-11.2869
肇祀	-11.2871
大姜	-11.2871
韓姞	-11.2873
之感	-11.2874
紛紛	-11.2875
勉勉	-11.2876
徒御	-11.2876
則思	-11.2877
舒遲	-11.2877
綱領	-11.2879
知其必	-11.2879
先嗇	-11.2882
兩髦	-11.2882
鳥隼	-11.2882
衛宏	-11.2883
外則	-11.2883
誨之	-11.2883
淫奔者	-11.2885
新昬	-11.2885
興而比也	-11.2886
爵命	-11.2888
不倦	-11.2889
陳佗	-11.2889
百夫	-11.289
國勢	-11.289
宣王命	-11.289
揚州	-11.2894
既多	-11.2895
易見	-11.2895
畏天	-11.2895
少而	-11.2895
牲體	-11.2896
亦不必	-11.2896
難知	-11.2896
所服	-11.2898
不侮	-11.2898
無兄弟	-11.2901
也毛傳曰	-11.2901
莊伯	-11.2901
罪人	-11.2902
孟冬	-11.2903
既至	-11.2904
長幼	-11.2906
察也	-11.2907
毛意	-11.2908
羣廟	-11.2911
二者皆	-11.2911
感發	-11.2913
棄我	-11.2914
久役	-11.2914
勞也	-11.2915
祈榖	-11.2916
其數	-11.2917
以佐	-11.2921
鐘鼔	-11.2926
末章言	-11.2929
夏屋	-11.2929
叶紙韻	-11.2931
故此詩	-11.2931
以水	-11.2933
之妹	-11.2934
其衣服	-11.2936
良士	-11.2941
之所致	-11.2941
首飾	-11.2945
刺襄公	-11.2946
蜴	-11.2952
㓕	-11.2953
一心	-11.2953
慤	-11.2956
雉鳴	-11.2958
園有桃	-11.2958
煇	-11.2958
七月流火	-11.2959
此君子	-11.2959
順流	-11.2959
旱既大甚	-11.2959
所食	-11.296
巖	-11.296
顚	-11.296
蜜	-11.296
不妒忌	-11.2961
售	-11.2961
憾	-11.2961
頌者	-11.2962
剖	-11.2962
其枝	-11.2962
詈	-11.2963
需	-11.2963
恂	-11.2963
是爲	-11.2963
韡韡	-11.2965
鮐	-11.2965
彞	-11.2965
夷矛	-11.2968
捍	-11.2969
縫裳	-11.2969
四始	-11.297
遂為	-11.2971
人言	-11.2972
不利	-11.2973
寛大	-11.2976
武公之	-11.2976
徙都	-11.2978
黒黍	-11.2979
暴虎	-11.2979
之卒章	-11.2979
燕羣臣	-11.2982
瑾	-11.2983
魚服	-11.2987
本有	-11.2992
也易曰	-11.2993
至此而	-11.2994
隴西	-11.2995
孺子	-11.2996
和鳴	-11.2997
詞也	-11.2999
以後之詩	-11.2999
而和	-11.3
青州	-11.3
言爾	-11.3002
雖異	-11.3002
異乎	-11.3004
酒也	-11.3006
既無	-11.3007
不能自已	-11.3011
深入	-11.3014
讀書	-11.3014
深淺	-11.3014
鄭司農	-11.3016
足矣	-11.3017
水土	-11.3017
與燕	-11.3018
告神	-11.3019
好之	-11.3021
平林	-11.3022
於物	-11.3022
鄭桓公	-11.3023
詩譜	-11.3028
乎若	-11.3028
叶支韻	-11.3029
篇首	-11.3031
喪服	-11.3031
生長	-11.3032
百室	-11.3035
王業之	-11.3036
我馬	-11.3038
若無	-11.3038
發於	-11.3038
則不得	-11.3039
所望	-11.3039
安有	-11.3043
本非	-11.3044
不淑	-11.3045
無家	-11.3047
按史記	-11.3048
線	-11.3049
瘨	-11.3049
桷	-11.3052
正朔	-11.3052
岵	-11.3052
之福也	-11.3053
縛	-11.3055
陳啟源曰	-11.3055
綽	-11.3055
超	-11.3055
女曰雞鳴	-11.3056
藐藐	-11.3056
衡笄	-11.3057
升堂	-11.3057
愉	-11.3058
滔	-11.3058
以敬	-11.3059
職方氏	-11.3059
麃	-11.306
弩	-11.3061
蔡人	-11.3061
無所歸咎	-11.3061
動則	-11.3062
榛楛	-11.3062
舛	-11.3062
鷄鳴	-11.3063
燧	-11.3063
奏肆夏	-11.3065
防閑	-11.3066
歴反	-11.3066
鋈	-11.3067
大封	-11.3067
切矣	-11.3071
太白	-11.3072
郊外	-11.3072
侯氏	-11.3074
不遺	-11.3075
倣此	-11.3075
師掌	-11.3076
從行	-11.3078
萬壽	-11.3078
欲令	-11.3079
見君子	-11.308
同姓之	-11.3081
叶鐵	-11.3081
長子	-11.3085
大叔	-11.3088
號呼	-11.309
前言	-11.3092
小君	-11.3093
尊敬	-11.3093
以勸	-11.3094
周家之	-11.3095
故詩曰	-11.3095
一等	-11.3096
戎兵	-11.3096
鄉樂	-11.3097
以足	-11.3099
命服	-11.3099
鄭司農云	-11.31
殷殷	-11.31
盡心	-11.3104
春分	-11.3105
深思	-11.3107
方盛	-11.3108
殄絶	-11.3108
為伯	-11.311
甫侯	-11.3112
為公	-11.3116
擇士	-11.3116
犯禮	-11.3117
納采	-11.3118
顯明	-11.312
蓋自	-11.3122
毛色	-11.3123
雖不同	-11.3124
註曰	-11.3124
知我	-11.3129
交㑹	-11.313
章首	-11.3135
相告	-11.3136
之兆	-11.3137
晞	-11.3138
嶷	-11.314
惟以	-11.3142
守成	-11.3142
因時	-11.3142
之一字	-11.3146
樛	-11.3146
驔	-11.3146
埤	-11.3147
正矣	-11.3147
迴	-11.3147
偹	-11.3148
始則	-11.3149
雖小	-11.3149
稀	-11.315
棧	-11.3151
大將	-11.3151
諦	-11.3151
餴	-11.3152
羑里	-11.3153
旭	-11.3153
所以成	-11.3153
之意言	-11.3154
叶虚	-11.3154
未嫁	-11.3154
鼓瑟	-11.3154
念爾祖	-11.3154
峙	-11.3154
美貌	-11.3155
惡惡	-11.3155
穂	-11.3156
窺	-11.3156
鋒	-11.3157
九嬪	-11.3158
映	-11.3158
暨	-11.3159
鶬	-11.3159
肴	-11.3159
祉福	-11.3159
淇澳	-11.316
韓城	-11.316
璊	-11.316
助我	-11.3162
楷	-11.3163
敬慎	-11.3164
董仲舒	-11.3164
聽訟	-11.3166
輅	-11.3166
次章言	-11.3167
而推	-11.3168
以竹	-11.3168
魚鼈	-11.3169
旨酒	-11.3172
農桑	-11.3176
凡祭祀	-11.3178
大故	-11.318
猨	-11.3181
答之	-11.3181
自樂	-11.3185
送尸	-11.3186
其末	-11.319
匱	-11.3191
滎陽	-11.3192
監視	-11.3192
嗟嗟	-11.3195
歸唁	-11.3197
二叔	-11.3198
齊家	-11.32
象服	-11.3201
鳴則	-11.3202
曾孫之	-11.3202
淮南子曰	-11.3202
▁孔云	-11.3203
言后妃	-11.3204
也其曰	-11.3205
郭璞曰今	-11.3213
郊天	-11.3214
正指	-11.3216
鐘磬	-11.3217
相救	-11.3218
窮也	-11.3218
告祭	-11.3222
楚人	-11.3222
言汝	-11.3229
皆與	-11.3232
在河南	-11.3233
也今按	-11.3234
下流	-11.3244
農官	-11.3246
媛	-11.3246
歗	-11.3247
瞿	-11.3247
擣	-11.3247
上士	-11.3247
靑	-11.3248
桋	-11.3249
好仇	-11.3249
覬	-11.325
坦	-11.325
槱	-11.3251
馵	-11.3251
耿	-11.3251
日月星辰	-11.3251
鞭	-11.3251
司服	-11.3252
囂	-11.3252
東門之楊	-11.3252
督	-11.3252
彦	-11.3253
譎	-11.3253
斾斾	-11.3253
藤	-11.3253
繅	-11.3254
寖	-11.3255
圎	-11.3255
撻	-11.3255
哿	-11.3256
蔽膝	-11.3256
栢	-11.3257
比而賦也	-11.3258
諺	-11.3258
釋器云	-11.3258
庶人之	-11.3259
侵伐	-11.326
而觀之	-11.326
仁心	-11.3262
公義	-11.3263
椐	-11.3264
罰爵	-11.3264
不好	-11.3265
麻麥	-11.3266
晉獻公	-11.3269
捕魚	-11.3269
土中	-11.3272
被之	-11.3273
憂患	-11.3275
六經	-11.3275
四驪	-11.3275
言成王	-11.3279
易得	-11.3279
凡詩	-11.3284
字解	-11.3286
鄭衞	-11.3287
大衆	-11.3287
深也	-11.3287
坊記	-11.3287
也朱子曰	-11.3291
得其宜	-11.3292
㫖酒	-11.3292
所經	-11.3293
予美	-11.3296
先民	-11.3297
車鄰	-11.3297
以天下	-11.3298
東至	-11.33
從征役	-11.33
即上章	-11.3301
心憂	-11.3303
而安之	-11.3303
皆通	-11.3306
備禮	-11.3306
武王崩	-11.3306
鳥鳴	-11.3306
騂牡	-11.3307
伯勞	-11.3307
第三	-11.3307
和氣	-11.3309
雅翼云	-11.3309
初年	-11.3311
有賢	-11.3312
淫奔之詩	-11.3315
美石	-11.3316
可采	-11.3316
蓋謂	-11.3316
而後可以	-11.3317
四方之國	-11.3317
衛文公	-11.3318
改嵗	-11.3318
又見	-11.3319
同上	-11.332
經界	-11.332
存其	-11.3323
而後可	-11.3323
近者	-11.3326
已至	-11.3328
羊反	-11.333
以美之	-11.3331
以言其	-11.3333
楊氏	-11.3335
説詩者	-11.3336
古之君子	-11.3338
用人	-11.3339
毛詩序	-11.3341
意味	-11.3341
翟羽	-11.3342
古字	-11.3342
鼛	-11.3347
蠲	-11.3347
起居	-11.3347
者何也	-11.335
穧	-11.335
忉忉	-11.335
誚	-11.3351
螣	-11.3351
瑩	-11.3351
齊民要術	-11.3351
能致	-11.3351
液	-11.3352
縭	-11.3352
鬈	-11.3355
瓊華	-11.3355
悔悟	-11.3355
非子	-11.3355
盼	-11.3356
君婦	-11.3357
終而	-11.3358
不務	-11.3359
狂惑	-11.3359
而不為	-11.336
鞶	-11.3361
穹窒	-11.3362
者特	-11.3362
則無所	-11.3362
均平	-11.3363
沮水	-11.3363
輔佐	-11.3365
必非	-11.3365
𤣥端	-11.3365
於宗廟	-11.3366
不可忘	-11.3367
敦弓	-11.3367
天子親	-11.3368
黄流	-11.3369
無實	-11.3372
與祭	-11.3377
也徐鍇云	-11.3378
居居	-11.3379
而歌之	-11.3382
王道之	-11.3383
於神	-11.339
青黒	-11.3394
未歸	-11.3397
讀詩者	-11.3398
失位	-11.3398
其婦	-11.34
章十二句	-11.3401
之境	-11.3402
篇次	-11.3402
問其	-11.3405
數十	-11.3406
職事	-11.341
使然	-11.341
讀作	-11.3411
不淫	-11.3412
以是為	-11.3412
逸豫	-11.3412
哀侯	-11.3413
祭祀之禮	-11.3413
美武公	-11.3415
白楊	-11.3415
不敢必	-11.3416
大哉	-11.3416
也歟	-11.3417
其君之	-11.3417
流水	-11.3422
因以為	-11.3423
而棄之	-11.3425
雖在	-11.3427
衣冠	-11.3428
傷今	-11.3431
彼注云	-11.3431
有年	-11.3436
相須	-11.3438
賔主	-11.3438
詩詁	-11.3441
者無不	-11.3441
䑓	-11.3445
者先	-11.3445
卒爵	-11.3446
稜	-11.3448
國之君	-11.3448
筐筥	-11.3449
紆	-11.3449
成王既	-11.3449
惓惓	-11.3449
病矣	-11.345
究究	-11.3451
在户	-11.3451
器械	-11.3452
之地而	-11.3452
應劭	-11.3452
人之道	-11.3452
侯反	-11.3453
既歸	-11.3453
詩辭	-11.3453
倘	-11.3453
侮慢	-11.3453
矜寡	-11.3454
幝	-11.3455
我有嘉賔	-11.3455
醒	-11.3455
是也此	-11.3455
甘瓠	-11.3455
鶻	-11.3456
殉	-11.3457
台背	-11.3457
衷	-11.3458
來聘	-11.3458
加於	-11.3458
尨	-11.3459
可生食	-11.3461
秦漢	-11.3461
定之	-11.3462
徙居	-11.3462
蝎	-11.3462
奉祭祀	-11.3464
武帝	-11.3464
所以刺	-11.3464
荆揚	-11.3465
螢火	-11.3465
者可以	-11.3466
也書曰	-11.3466
皆取	-11.3469
凡此皆	-11.3473
陸本	-11.3474
隨之	-11.3474
豆實	-11.3475
亦因	-11.3477
華谷	-11.3478
我心憂傷	-11.348
不禁	-11.3481
此詩乃	-11.3483
之通稱	-11.3485
以供祭祀	-11.349
之人而	-11.349
首二句	-11.3491
臯門	-11.3493
用韻	-11.3494
號曰	-11.3496
之之辭也	-11.3497
錦衣	-11.3499
可爲	-11.35
禮運	-11.35
不詳	-11.3501
其心之	-11.3501
三里	-11.3501
公事	-11.3501
陸氏云	-11.3501
鼓舞	-11.3502
分之	-11.3503
百二十	-11.3505
聘問	-11.3506
大河	-11.3506
歸周	-11.3508
疾病	-11.3512
哉蓋	-11.3513
故其辭	-11.3516
在北	-11.3518
辭意	-11.3519
内治	-11.352
嘉樂	-11.3521
貪殘	-11.3523
誠敬	-11.3529
己者	-11.3529
因而	-11.3529
有過	-11.3529
三十六	-11.3529
朝事	-11.3529
文王在上	-11.353
内則云	-11.3532
氏掌	-11.3535
周衰	-11.3537
勉其	-11.3541
窈	-11.3544
歷	-11.3545
伺	-11.3546
趯趯	-11.3546
牽合	-11.3546
之乆	-11.3546
而多	-11.3547
憶	-11.3548
跲	-11.3548
歌此詩	-11.3548
皂	-11.3548
塡	-11.3549
沃若	-11.3549
渥	-11.355
洒埽	-11.355
行父	-11.355
餓	-11.355
錫之以	-11.3551
煽	-11.3551
尚存	-11.3551
武丁孫子	-11.3552
耉	-11.3552
芽	-11.3552
訩	-11.3552
潮	-11.3553
邦家之基	-11.3553
掎	-11.3554
賓之初筵	-11.3555
橫	-11.3556
顙	-11.3556
跗	-11.3557
濛	-11.3557
脅驅	-11.3557
重較	-11.3558
碩大也	-11.3559
飲餞	-11.356
白石	-11.356
公室	-11.3563
潘父	-11.3564
本以	-11.3564
鷖	-11.3564
發之	-11.3566
不啻	-11.357
致太平	-11.3573
墨子	-11.3576
芬香	-11.3577
感格	-11.3577
其害	-11.3577
而文王	-11.3577
情意	-11.3577
以食	-11.3578
室中	-11.3584
其詩曰	-11.3585
之盛而	-11.3586
而不來	-11.3588
韓國	-11.3588
不須	-11.3589
故作是詩	-11.3593
而生子	-11.3593
四人	-11.3593
西面	-11.3594
故引	-11.3597
少也	-11.3598
災異	-11.3598
明非	-11.3603
爵位	-11.3605
江東呼為	-11.3605
謬矣	-11.3609
白雲	-11.3609
乎我	-11.3611
啓明	-11.3612
商王	-11.3612
朱𫝊	-11.3617
武也	-11.3618
四之日	-11.3619
傷其	-11.362
丈夫	-11.3629
所求	-11.3629
無二	-11.3629
□)	-11.363
他日	-11.3631
於兄弟	-11.3631
足也	-11.3633
周正	-11.3634
郊廟	-11.3637
顧念	-11.364
和聲	-11.3641
楚語	-11.3643
:	-11.3646
厥徳	-11.3647
君子于役	-11.3647
菁	-11.3648
戶	-11.3649
焉是	-11.3649
時作	-11.365
不知我	-11.365
乎且	-11.365
囬	-11.365
使臣之	-11.3651
佃	-11.3651
酋矛	-11.3652
制禮作樂	-11.3652
朴	-11.3653
膋	-11.3654
名物疏	-11.3654
膍	-11.3655
耗	-11.3655
宦	-11.3656
十章	-11.3656
觽	-11.3656
枋	-11.3656
純亦不已	-11.3656
鳯皇	-11.3657
系	-11.3657
伴奐	-11.3657
洛誥	-11.3657
勸戒	-11.3657
楮	-11.3658
來至	-11.3658
飢渴	-11.3658
淒	-11.3659
漾	-11.3659
歸咎	-11.3659
相同	-11.366
者莫	-11.3661
戴勝	-11.3662
私情	-11.3663
龡	-11.3664
不指	-11.3665
玉磬	-11.3666
親迎之禮	-11.3669
伯夷	-11.367
五聲	-11.367
扶蘇	-11.367
之材	-11.367
合為一	-11.3673
邠州	-11.3674
郭璞云今	-11.3679
稷契	-11.3679
叶於	-11.3679
重言之	-11.3682
當知	-11.3683
孔疏曰	-11.3683
亦取	-11.3684
以此知	-11.3684
十句	-11.3686
在河	-11.3687
難以	-11.3687
薄姑	-11.3688
之殊	-11.3689
之所及	-11.3689
復言	-11.369
詩之所	-11.3693
顯顯	-11.3696
釋詩	-11.3698
也况	-11.3699
之法也	-11.3701
恩意	-11.3702
各一	-11.3705
光顯	-11.3709
不踰	-11.3709
各得其所	-11.371
何以知	-11.371
懿徳	-11.371
繼之曰	-11.3712
異故	-11.3712
無極	-11.3712
郊禘	-11.3714
非復	-11.3714
不常	-11.3714
旣成	-11.3715
取譬	-11.3716
旣醉	-11.3716
其俗	-11.3717
其大者	-11.3719
亦將	-11.3726
尾長	-11.3732
連屬	-11.3734
亦不得	-11.3735
雅翼	-11.3735
天子命	-11.3743
或問	-11.3746
賦云	-11.3749
藎	-11.3751
為侯伯	-11.3752
顧命	-11.3753
悸	-11.3754
彼都人士	-11.3754
韘	-11.3755
豐氏	-11.3756
兊	-11.3756
祋	-11.3756
漢地理志	-11.3757
蕨薇	-11.3757
繚	-11.3758
擁	-11.3758
冡宰	-11.3758
渇	-11.3759
悍	-11.3759
霆	-11.376
鬬	-11.376
抒	-11.376
搜	-11.3761
呶	-11.3761
爇	-11.3761
徃也	-11.3762
顚倒	-11.3762
菫	-11.3762
帝謂文王	-11.3762
圭瓉	-11.3763
雜佩	-11.3763
帷	-11.3765
用騂	-11.3765
譏其	-11.3765
幣帛	-11.3769
欲見	-11.377
扶持	-11.3771
一國之	-11.3773
赤棠	-11.3774
不得有	-11.3776
禦之	-11.3776
舊章	-11.3778
臆説	-11.3779
語助也	-11.378
而退	-11.3782
斧斨	-11.3783
鳩也	-11.3783
露積	-11.3786
王迹	-11.3787
伐宻	-11.3789
烏頭	-11.379
稱文王	-11.3793
何用	-11.3793
農功	-11.3796
刺幽	-11.3797
故以興	-11.3799
思語辭	-11.38
宵行	-11.3802
前此	-11.3806
天之所以	-11.3807
一宿	-11.3808
孔碩	-11.381
為酒	-11.3811
者三	-11.3812
分為二	-11.3814
不弔	-11.3815
詩説	-11.3818
能繼	-11.382
許人	-11.382
后妃之德	-11.382
告王	-11.3827
深廣	-11.3829
羣神	-11.3829
之人皆	-11.3838
相逺	-11.3838
取魚	-11.3839
中原	-11.3839
幾何	-11.3843
加之以	-11.3844
顯相	-11.3849
字或作	-11.3849
節之	-11.385
對越	-11.3851
至親	-11.3853
加之	-11.3854
保身	-11.3855
膽	-11.3857
紒	-11.3859
禍亂之	-11.3859
住	-11.386
已久	-11.386
衮衣	-11.3861
俗本	-11.3862
饟	-11.3862
濮氏曰	-11.3862
月食	-11.3862
丱	-11.3862
麄	-11.3863
山谷	-11.3863
欣欣	-11.3864
芋	-11.3866
壎	-11.3867
錯衡	-11.3867
憲憲	-11.3868
言不可	-11.387
細腰	-11.387
矣盖	-11.387
而兼	-11.3871
小鳥	-11.3871
靳	-11.3872
電	-11.3872
段曰	-11.3873
蔡叔	-11.3874
曲折	-11.3876
放逐	-11.3877
營謝	-11.3877
無徳	-11.3877
考工記云	-11.3877
古制	-11.3879
苟反	-11.388
不以禮	-11.3881
白桐	-11.3881
未已	-11.3882
□(	-11.3883
急於	-11.3883
和羮	-11.3884
自恣	-11.3885
聖王	-11.3892
所尚	-11.3893
者彼	-11.3894
中和	-11.3896
仲冬	-11.3896
于内	-11.3897
㽔	-11.3898
歎息	-11.3898
心星	-11.3898
久而不	-11.3899
日用	-11.3903
不可使	-11.3903
五世	-11.3908
致亂	-11.3912
朔日	-11.3912
凡此	-11.3912
特舉	-11.3916
也一曰	-11.3917
專為	-11.3918
各異	-11.3923
忠告	-11.3923
女桑	-11.3923
駕車	-11.3923
此女	-11.3927
可惡	-11.3929
方將	-11.3931
荒淫	-11.3932
調和	-11.3933
象形	-11.3933
萬人	-11.3941
善射	-11.3943
叶先韻	-11.3944
言后稷	-11.3944
視彼	-11.3945
之車也	-11.3946
刺宣王也	-11.3947
獨舉	-11.3947
利害	-11.3948
瞽矇	-11.3948
尼	-11.395
大槩	-11.3951
異矣	-11.3952
土宜	-11.3955
乎蓋	-11.3955
無德	-11.3957
蠢	-11.3958
鬩	-11.3959
者則以	-11.396
而我獨	-11.3961
食魚	-11.3961
俟我於	-11.3961
取喻	-11.3961
物理	-11.3962
矇	-11.3962
行下孟反	-11.3963
曵	-11.3963
噉	-11.3963
惔	-11.3965
駓	-11.3965
孔氏穎	-11.3965
兢兢	-11.3966
鴥	-11.3966
涌	-11.3968
騎	-11.3968
臄	-11.3969
爻	-11.3969
益母	-11.397
沈湎	-11.397
果臝	-11.397
中軍	-11.397
樽	-11.397
芥	-11.3971
農夫之慶	-11.3971
二十一	-11.3971
惡人	-11.3972
松蘿	-11.3972
不替	-11.3973
無節	-11.3973
佼	-11.3973
教國子	-11.3974
窘	-11.3975
傳寫	-11.3978
無所考	-11.3978
樂正	-11.398
田器	-11.398
政敎	-11.3984
兵車之	-11.3984
為徳	-11.3987
申生	-11.3988
百蠻	-11.3988
痛也	-11.3989
周之所以	-11.399
不敢自	-11.3991
東方之日	-11.3991
城隅	-11.3992
泉源	-11.3994
赫然	-11.3996
以南	-11.3997
二伯	-11.3998
公所	-11.3998
於昭于天	-11.3999
皆訓	-11.4
誠有	-11.4
長丈	-11.4003
圖經	-11.4003
君臣上下	-11.4003
行道也	-11.4004
易也	-11.4006
矣君子	-11.4007
皮弁服	-11.4008
雎	-11.4012
本義曰	-11.4013
周公成王	-11.4014
飛揚	-11.4016
得志	-11.4017
軍行	-11.4018
肖	-11.4018
官名	-11.402
末二句	-11.402
趙氏	-11.4021
祼將	-11.4021
嫁者	-11.4021
〇孔氏曰	-11.4022
不可得也	-11.4024
器物	-11.4024
人所作	-11.4025
隂陽和	-11.4026
遥反	-11.4027
立于	-11.4028
無得	-11.4031
入水	-11.4031
詩緝曰	-11.4033
引韓	-11.4035
為近	-11.4036
以恩	-11.4037
則無以	-11.404
以利	-11.4041
孔頴達	-11.4042
若以為	-11.4042
遣使	-11.4044
魏國	-11.4044
為司徒	-11.4048
此數	-11.405
匪解	-11.405
也朱子云	-11.4052
大麥	-11.4052
不妄	-11.4057
大司樂	-11.406
麀	-11.4061
致也	-11.4062
浦	-11.4064
也嚴云	-11.4064
密也	-11.4066
髻	-11.4066
鸞聲	-11.4067
木槿	-11.4068
立廟	-11.4068
四牡騑騑	-11.4069
燬	-11.4069
天子燕諸侯	-11.4069
縳	-11.407
肅敬	-11.407
夙興夜寐	-11.4071
菊	-11.4071
憔悴	-11.4071
逄	-11.4072
成徳	-11.4072
胡庭芳曰	-11.4073
謚	-11.4073
魚梁	-11.4073
殻	-11.4073
以洽百禮	-11.4073
穎達	-11.4074
慿	-11.4074
胥相也	-11.4075
樂師	-11.4075
丞	-11.4075
民之訛言	-11.4076
豋	-11.4077
祓除	-11.4077
叶魚	-11.4077
性情之正	-11.4078
虎賁	-11.4078
又無	-11.4078
禚	-11.4079
懼也	-11.4079
野人	-11.408
簡簡	-11.408
菅茅	-11.408
荍	-11.4081
白雜毛	-11.4084
傳箋	-11.4084
終焉	-11.4085
遭此	-11.4088
車徒	-11.4089
潰亂	-11.409
光華	-11.409
必求	-11.4092
遷徙	-11.4093
北反	-11.4099
君子小人	-11.4101
能治	-11.4102
流民	-11.4103
斥王	-11.4103
舉也	-11.4105
失其常	-11.4109
說者謂	-11.4109
陳蔡	-11.4115
醢人	-11.4117
無所用	-11.4118
變易	-11.412
其角	-11.412
遺我	-11.4123
互文	-11.4124
箋謂	-11.4126
干城	-11.4127
惠王	-11.4128
遭亂	-11.4134
舟人	-11.4135
朝陽	-11.4135
此豈	-11.4137
則心	-11.414
據詩	-11.4145
後來	-11.4146
景福	-11.4146
周自	-11.4147
又非	-11.415
有似	-11.4153
燕私	-11.4154
匍匐	-11.4154
獨無	-11.4156
髙飛	-11.4157
不悟	-11.4157
周南之	-11.416
欲歸	-11.4164
懼而	-11.4164
未然	-11.4166
作邑	-11.4167
乃成	-11.4167
也如此則	-11.4171
召伯所	-11.4173
盛服	-11.4173
茁	-11.4174
羣公	-11.4175
兎罝	-11.4175
俔	-11.4175
意其	-11.4175
鬒	-11.4176
鄉飲酒禮	-11.4178
輓	-11.4178
鸋鴂	-11.4178
興意	-11.4179
媒妁	-11.4179
楨	-11.4181
棟	-11.4181
彈	-11.4181
所以尊	-11.4181
畔援	-11.4181
所謂伊人	-11.4181
陳少南	-11.4182
點	-11.4183
閏	-11.4184
盎	-11.4185
槐	-11.4185
言文王之	-11.4186
頍	-11.4186
公尸燕飲	-11.4187
叅	-11.4188
毛詩注疏卷	-11.4188
箎	-11.4188
雚	-11.4189
城楚丘	-11.4191
蠧	-11.4192
衞宏	-11.4192
平陽	-11.4192
漕邑	-11.4192
而有之	-11.4193
周本紀	-11.4197
虎豹	-11.4198
象骨	-11.4198
郇伯	-11.4199
二十九	-11.4201
荏菽	-11.4204
太姜	-11.4204
姊妹	-11.4204
容儀	-11.4205
外事	-11.4205
二十五年	-11.4205
水旁	-11.4207
于天下	-11.4208
夏氏	-11.4208
士服	-11.4217
居民	-11.4217
虢公	-11.4217
不循	-11.4219
陳祥道云	-11.422
虐政	-11.4222
誘之	-11.4223
反下	-11.4223
思君子	-11.4224
三代之	-11.4228
守宫	-11.4231
勇力	-11.4232
又復	-11.4232
各以	-11.4233
求友	-11.4233
者歟	-11.4233
而廢	-11.4235
王之所	-11.4236
文考	-11.4237
悲傷	-11.4238
簡書	-11.4238
文母	-11.4238
目前	-11.4239
偶然	-11.424
夏后	-11.424
必曰	-11.4244
莽	-11.4246
徹法	-11.4246
篇末	-11.4246
思望	-11.4247
動其	-11.4247
白魚	-11.4249
此詩之意	-11.4253
以制	-11.4253
相為	-11.4253
平正	-11.4254
吕曰	-11.4254
說者以	-11.4256
以自警	-11.4256
凡三	-11.4257
齊風	-11.4258
則賢者	-11.4258
為后	-11.4259
六章言	-11.4259
工歌	-11.426
正義云	-11.4261
於庭	-11.4266
想見	-11.4267
受爵	-11.427
讒者	-11.4271
正大	-11.4272
天下皆	-11.4274
從人	-11.4274
有捄	-11.4277
隰有萇楚	-11.4279
顯然	-11.4279
義未詳	-11.428
而忽	-11.4281
伐鼓	-11.4281
俚	-11.4283
土鼓	-11.4284
朝廟	-11.4284
椹	-11.4284
漘	-11.4284
此禮	-11.4285
於宋	-11.4285
吕氏祖謙曰	-11.4286
不著	-11.4286
南陔白華華黍	-11.4287
愷	-11.4288
繾綣	-11.4288
僾	-11.4288
傭	-11.4288
七章言	-11.429
譁	-11.429
諄諄	-11.4291
假寐	-11.4291
愔	-11.4292
日在	-11.4292
澄	-11.4293
褊急	-11.4294
刑罰	-11.4295
獮	-11.4296
赬	-11.4296
揣	-11.4297
賞罰	-11.4298
魴魚	-11.4301
執政	-11.4302
詩人美之	-11.4309
血氣	-11.4311
取法	-11.4311
一見	-11.4311
婚姻之	-11.4312
祀成湯	-11.4313
祭于	-11.4314
可居	-11.4314
迎牲	-11.4316
紀綱	-11.4322
字同	-11.4324
書言	-11.4325
叔虞	-11.4326
不可廢	-11.4327
喜怒	-11.4328
上下之情	-11.4329
大豆	-11.433
于我	-11.4334
奈	-11.4335
中道	-11.4336
何以不	-11.4337
皇大也	-11.4342
二矛	-11.4344
我欲	-11.4346
淫女	-11.4348
四方之綱	-11.4348
代為	-11.4353
水厓	-11.4355
音烏	-11.4357
水泉	-11.4358
未幾	-11.4358
祭四方	-11.4361
致敬	-11.4362
埤雅曰	-11.4363
聖徳	-11.4364
于嗟	-11.4365
將祭	-11.4365
人人	-11.4366
其屬	-11.4366
而就	-11.4367
一角	-11.4369
乾餱	-11.4371
賔射	-11.4372
純一	-11.4372
之威儀	-11.4372
風雅之	-11.4372
祭地	-11.4372
朱註賦也	-11.4373
一箇	-11.4376
漢世	-11.438
芩	-11.4381
青白	-11.4383
懟	-11.4383
能安	-11.4385
正人	-11.4388
終南山	-11.439
蘿	-11.4391
而殺之	-11.4391
殺人	-11.4395
麞	-11.4396
儇	-11.4396
民情	-11.4396
麐	-11.4396
豔妻	-11.4396
舊説以為	-11.4397
宁	-11.4397
鸞刀	-11.4398
炤	-11.4398
豈無他人	-11.4398
桑蟲	-11.4399
浩	-11.4399
延蔓	-11.4399
綌	-11.4399
偉	-11.4399
百堵	-11.4399
姚氏舜牧曰	-11.4399
震驚	-11.4399
楅衡	-11.44
猜	-11.44
鄗	-11.44
冲	-11.4401
碑	-11.4403
闥	-11.4404
緼	-11.4405
江漢之滸	-11.4405
鼔鐘	-11.4405
梁輈	-11.4406
然後為	-11.4407
又因	-11.4408
其衆	-11.4408
南面	-11.4408
賈公彦	-11.4408
盈滿	-11.441
祀事	-11.4412
平平	-11.4414
司馬遷	-11.4414
鄭意	-11.4414
焉得	-11.4415
廣狹	-11.4416
有功於	-11.4417
二十九年	-11.442
十一篇	-11.442
得衆	-11.4421
如飴	-11.4421
陰雨	-11.4424
郭注云	-11.4425
近小人	-11.4426
兩言	-11.4429
非直	-11.4429
不斥	-11.4429
二后	-11.4429
又將	-11.4433
薛君	-11.4436
則易	-11.4437
所從來	-11.4439
正當	-11.4442
配君子	-11.4442
四星	-11.4442
人衆	-11.4445
古語	-11.4445
稱美	-11.4447
月令云	-11.4451
不舉	-11.4451
遐不	-11.4452
如是之	-11.4452
生育	-11.4455
君子所	-11.4457
為下	-11.4457
赤者	-11.4457
熾盛	-11.446
色黄	-11.4465
布榖	-11.4468
田車	-11.4472
於穆	-11.448
安舒	-11.4481
辭氣	-11.4484
以為樂	-11.4485
劉瑾	-11.4485
寘之	-11.4487
政衰	-11.4487
喪其	-11.4488
之志也	-11.4489
正同	-11.4492
采桑	-11.4492
營丘	-11.4496
近郊	-11.4496
木上	-11.4496
鰷	-11.4497
仲春之月	-11.4498
而遽	-11.4499
明堂位云	-11.4499
齊地	-11.4502
天變	-11.4502
白蒿	-11.4503
烖	-11.4503
炰	-11.4504
何者	-11.4505
贖	-11.4505
戩	-11.4507
雛	-11.4507
郁李	-11.4507
騅	-11.4508
玼	-11.4508
篆	-11.4509
褘衣	-11.4509
𫉬	-11.451
凡百君子	-11.4511
蔞蒿	-11.4511
在河北	-11.4511
糾糾	-11.4511
橐	-11.4511
謠	-11.4512
餌	-11.4512
阿衡	-11.4514
凛	-11.4514
架	-11.4514
枤杜	-11.4514
藜	-11.4514
奄有四方	-11.4516
踖踖	-11.4516
貿	-11.4517
廬陵	-11.4517
禘祫	-11.4518
賦也朱註	-11.4518
猪	-11.4518
綏安也	-11.4518
有竒	-11.4522
先生曰	-11.4523
先王之澤	-11.4526
思周道	-11.4529
觀詩	-11.4529
游龍	-11.453
亦可見矣	-11.4531
方十里	-11.4532
無餘	-11.4532
沮漆	-11.4534
戰國	-11.4535
宣王之時	-11.4537
髙明	-11.4538
也鄭以	-11.4539
民樂	-11.4541
母子	-11.4542
陜西	-11.4544
蘇轍云	-11.4545
一本	-11.4547
施施	-11.4549
射人	-11.4552
得民	-11.4554
本訓	-11.4554
當然也	-11.4554
牲用	-11.4556
爵禄	-11.4557
寡君	-11.4561
爲政	-11.4562
所化	-11.4562
以開	-11.4565
相成	-11.4569
為室家	-11.457
無棄	-11.457
二十二	-11.4572
之象也	-11.4572
我謀	-11.4573
念母	-11.4573
亦未嘗	-11.4578
篇章	-11.4579
入覲	-11.4584
南風	-11.4584
川澤	-11.4585
芬	-11.4585
反徐又	-11.4585
兖	-11.4586
于太廟	-11.4587
福禄來	-11.4588
荼苦菜	-11.459
王安石	-11.4592
地理志云	-11.4593
祝願	-11.4593
節儉	-11.4593
之常也	-11.4594
出封	-11.4594
不可用	-11.4597
支韻	-11.4602
憂恤	-11.4602
公侯之	-11.4607
詩之作	-11.4608
食肉	-11.4611
武王之功	-11.4612
以為飾	-11.4612
鉶	-11.4613
復扶又反	-11.4613
秭	-11.4615
坼	-11.4615
允信也	-11.4617
啄	-11.4617
廓	-11.4617
豈不懷歸	-11.4618
濆	-11.4619
鵩	-11.4619
徐氏	-11.4619
四牡騤騤	-11.462
瓊琚	-11.462
狠	-11.4621
與之燕	-11.4621
一日不見	-11.4622
裝	-11.4622
啼	-11.4622
京兆府	-11.4622
昕	-11.4623
針	-11.4623
駾	-11.4624
胡氏曰	-11.4625
邸	-11.4625
稟	-11.4626
鮑	-11.4627
黔	-11.4627
束帛	-11.4628
檖	-11.4628
康誥	-11.4629
蹟	-11.4629
軛	-11.4629
丙穴	-11.463
柟	-11.463
黍稷稻粱	-11.4631
朽	-11.4631
圖之	-11.4631
祀武王	-11.4631
閔周也	-11.4631
司常	-11.4632
旆	-11.4633
螗	-11.4633
鸒斯	-11.4633
成王之詩	-11.4635
蠻夷	-11.4637
間歌	-11.4638
杜注	-11.4639
收斂	-11.4639
橡	-11.464
祭文王	-11.464
不可為	-11.4642
序意	-11.4647
伐密	-11.4648
正道	-11.4649
必用	-11.465
季春	-11.4653
自南	-11.4656
思慕	-11.4656
之樂章	-11.4661
務農	-11.4663
斷之	-11.4663
皆因	-11.4665
得稱	-11.4667
刺其君	-11.4668
所自作	-11.4669
臨之	-11.4669
註謂	-11.4669
李迂仲	-11.467
之效也	-11.4674
紂都	-11.4676
飛鳴	-11.4678
居中	-11.4678
異經	-11.4679
如晉	-11.4679
國亂	-11.4679
固不可	-11.4681
亦豈	-11.4681
列反	-11.4681
兵事	-11.4682
三倍	-11.4683
守義	-11.4683
乃知	-11.4684
亂政	-11.4685
不可從	-11.4685
聽言	-11.4687
箋正義曰以	-11.4687
感傷	-11.469
太學	-11.469
于時	-11.4692
既祭	-11.4692
民生	-11.4694
殷紂	-11.4695
而美之	-11.4698
所以養	-11.4699
說詩	-11.47
不怨	-11.4703
語辭也	-11.4705
是一物	-11.4708
流行	-11.4713
羅願	-11.4713
母弟	-11.4715
以實	-11.4726
不流	-11.4727
吹之	-11.4729
陪	-11.4729
訿訿	-11.473
之説也	-11.4731
合祭	-11.4732
他書	-11.4733
無將大車	-11.4734
殪	-11.4734
世家云	-11.4735
軧	-11.4735
萬壽無疆	-11.4735
鄭國	-11.4735
鏃	-11.4736
學記	-11.4736
嬛	-11.4736
祭之明日	-11.4736
其車三千	-11.4736
瘏	-11.4737
閑閑	-11.4737
本艸	-11.4738
子孫保之	-11.4738
廱	-11.474
現	-11.474
繩證	-11.474
玦	-11.474
瞻彼洛矣維水泱泱	-11.474
鑑	-11.4741
悠悠蒼天此何人哉	-11.4741
緻	-11.4741
泥泥	-11.4742
萬億及秭	-11.4742
八家	-11.4742
三年之喪	-11.4742
佌佌	-11.4743
燠	-11.4743
郡國志	-11.4743
兔爰	-11.4743
正考甫	-11.4744
俴	-11.4745
二詩皆	-11.4745
荼毒	-11.4745
麾	-11.4746
此解	-11.4747
圭璋	-11.4748
▁曹曰	-11.4749
車中	-11.4749
為田	-11.4749
集傳以	-11.4751
麰	-11.4751
為甚	-11.4751
冠弁	-11.4752
歐陽修	-11.4753
禘祭	-11.4753
威虐	-11.4753
振羽	-11.4754
庶羞	-11.4757
不驚	-11.476
土宇	-11.4761
令善	-11.4762
封域	-11.4765
其材	-11.4766
飲酒之禮	-11.4766
同行	-11.4771
以禮樂	-11.4771
▁毛云	-11.4772
韓氏	-11.4777
渡水	-11.4778
曾子	-11.4783
鞠衣	-11.4784
大帶	-11.479
故此章	-11.479
高山	-11.479
自比	-11.479
止居	-11.4792
今既	-11.4792
檀車	-11.4794
難得	-11.4796
季夏	-11.4798
故國人	-11.4802
無韻	-11.4803
靡有	-11.4803
鄭志	-11.4805
勸農	-11.4806
治世	-11.4806
毛氏曰興也	-11.4806
一夕	-11.4808
風俗之	-11.4813
地中	-11.4813
我身	-11.4814
念我	-11.4815
侯爵	-11.4817
無别	-11.4817
為患	-11.4817
不逮	-11.4818
日益	-11.4818
之名也	-11.4818
狐白	-11.4819
語助	-11.4822
喻君子	-11.4824
啟行	-11.4825
也詳見	-11.4827
不可犯	-11.4829
來嫁	-11.483
國政	-11.4832
可刺	-11.4834
曽子	-11.4837
至春	-11.4838
粲然	-11.4839
之艱難	-11.4841
後日	-11.4841
不親迎	-11.4842
鍜	-11.4843
三復	-11.4844
事理	-11.4844
新鄭	-11.4845
芮良夫	-11.4846
一之日	-11.4846
沓沓	-11.4848
蕃衍	-11.485
翩翩者鵻	-11.485
楰	-11.4851
杕	-11.4851
塒	-11.4852
惇	-11.4852
翻亦	-11.4852
赭	-11.4852
盆	-11.4852
六轡在手	-11.4852
鳸	-11.4853
坎坎	-11.4853
貯	-11.4853
範	-11.4854
跳	-11.4854
又申	-11.4855
檜君	-11.4857
不苟	-11.4857
冊	-11.4857
肌	-11.4859
愚意	-11.486
追稱	-11.486
王孫	-11.4861
瞻仰	-11.4861
穜	-11.4861
從死	-11.4861
棃	-11.4861
眡	-11.4863
鍛	-11.4863
苟無	-11.4863
厲王時	-11.4864
大於	-11.4865
韓嬰	-11.4865
剛柔	-11.4867
聽其	-11.4867
劉歆	-11.4868
賦詩	-11.4868
先妣	-11.4869
出使	-11.487
郭璞注	-11.4871
尚在	-11.4872
封建	-11.4875
不知其何	-11.4875
爰於也	-11.4876
習射	-11.4879
小兒	-11.4879
小民	-11.488
野處	-11.488
良是	-11.4881
戰于	-11.4885
之所同	-11.4885
定星	-11.4888
入聲	-11.4889
但知	-11.4889
九命	-11.489
善政	-11.4892
邪正	-11.4894
之甚者	-11.4894
對言	-11.4896
九反	-11.4903
女史	-11.4904
四時之	-11.4904
待禮	-11.4906
五等	-11.4907
抑詩	-11.4908
之態	-11.4912
譏刺	-11.4913
之風俗	-11.4914
以節	-11.4917
自來	-11.492
皇華	-11.4922
不能救	-11.4924
全在	-11.4926
▁按	-11.493
當如此	-11.493
如醉	-11.4931
韋昭云	-11.4933
者不過	-11.4935
今案	-11.4936
號為	-11.4936
公羊傳曰	-11.4938
秉心	-11.4939
敎之	-11.4941
舍人	-11.4943
無功	-11.4945
廟門	-11.4946
如菼	-11.4948
東郡	-11.4949
七篇	-11.495
庻人	-11.4951
畜之	-11.4951
矣至於	-11.4955
如此然	-11.4958
躐	-11.4961
衛女	-11.4961
之所有	-11.4962
薁李	-11.4963
仆	-11.4964
不輕	-11.4965
矣而又	-11.4965
大享	-11.4966
匈奴	-11.4966
亦由	-11.4966
㕓	-11.4967
峯	-11.4967
觴	-11.4967
克明	-11.4967
紏	-11.4968
祺	-11.4968
諾	-11.4968
悠悠我思	-11.4969
漠	-11.4969
蹐	-11.4969
以便	-11.497
臘	-11.497
栖	-11.497
美宣王也	-11.497
韵	-11.4971
芭	-11.4971
鑠	-11.4971
篡	-11.4972
徵舒	-11.4972
以禮自防	-11.4973
陳藏器	-11.4973
可美	-11.4974
所聞	-11.4974
􁈍	-11.4975
雅樂	-11.4976
成王業	-11.4976
牝牡	-11.4977
淫佚	-11.4977
異于	-11.4978
彼反	-11.4981
鍾鼓	-11.4982
考室	-11.4983
鄂侯	-11.4984
民之所以	-11.4984
適當	-11.4985
無縱詭隨以謹	-11.4986
盧令	-11.4987
其狀	-11.4987
而射之	-11.4989
亦應	-11.4991
毛説	-11.4991
成法	-11.4994
改元	-11.4996
論詩	-11.4997
受釐	-11.4997
北斗	-11.4998
衮冕	-11.5
孔䟽	-11.5
君徳	-11.5003
一代之	-11.5005
瞻望	-11.5005
泥中	-11.5005
死生	-11.5005
楛	-11.5006
猶且	-11.5006
兼有	-11.5007
周禮司	-11.501
其夫之	-11.5011
字誤	-11.5014
司正	-11.5015
歸哉	-11.5017
五六	-11.5018
盛矣	-11.5021
莫若	-11.5022
六鄉	-11.5024
青蒿	-11.5025
世次	-11.5026
李廵	-11.5026
仕於	-11.5027
農夫之	-11.5029
故不言	-11.5029
不遠	-11.503
成師	-11.5038
國語云	-11.5041
不聰	-11.5041
在岐	-11.5045
祖妣	-11.5046
猗與	-11.5051
安然	-11.5054
甘心	-11.5055
三者皆	-11.5055
舊説以	-11.5057
仁者	-11.506
孔穎達	-11.506
烝然	-11.5061
備物	-11.5061
可從	-11.5062
三等	-11.5062
附於	-11.5064
同穴	-11.5065
不書	-11.5066
北郊	-11.5069
一家之	-11.507
履霜	-11.5075
稂莠	-11.5076
瀌瀌	-11.5077
揥	-11.5078
在宫	-11.5079
也𫝊正義曰	-11.5079
作室	-11.5079
中冓	-11.5079
岷	-11.508
季氏本曰	-11.5081
恚	-11.5082
塲	-11.5082
促織	-11.5082
筭	-11.5083
壙	-11.5084
託為	-11.5084
斜	-11.5084
霽	-11.5084
竅	-11.5085
𡵨	-11.5085
䘮亂	-11.5085
按説文	-11.5085
瘳	-11.5085
燼	-11.5085
蹌	-11.5086
奰	-11.5086
秘	-11.5087
邀	-11.5087
禮意	-11.5088
謝疊山曰	-11.5089
不屬	-11.5089
中谷	-11.5089
睍睆	-11.5089
王應麟	-11.509
條枚	-11.5091
蓑	-11.5091
沂	-11.5093
叶筆	-11.5093
彼何人斯	-11.5094
林木	-11.5095
擊鼔	-11.5095
斷章	-11.5095
既衰	-11.5095
服之以	-11.5096
婦寺	-11.5099
于貉	-11.5104
中陵	-11.5105
漢書作	-11.5107
轡首	-11.5107
形體	-11.5108
之瑞	-11.5108
厥後	-11.5108
訪問	-11.5109
委積	-11.511
不留	-11.5112
請期	-11.5114
緑色	-11.5116
月光	-11.5116
相當	-11.5117
於汝	-11.5117
强暴	-11.5118
豈復	-11.5119
令善也	-11.512
生焉	-11.512
則下	-11.5122
毛𫝊	-11.5123
金罍	-11.5123
然後能	-11.5125
本文	-11.5127
盛衰	-11.5128
葭蘆	-11.513
以文王為	-11.513
棠棣	-11.5136
鷺羽	-11.5137
不離	-11.5137
於寢	-11.514
長轂	-11.514
常人	-11.5141
述其事	-11.5143
冬官	-11.5146
百物	-11.5147
中正	-11.515
十畆	-11.5153
迎公	-11.5157
進御	-11.5158
和柔	-11.516
流泉	-11.5161
賦役	-11.5162
伐楚	-11.5164
千嵗	-11.5164
庫門	-11.5167
射夫	-11.5169
其始也	-11.5173
徐鍇	-11.5173
君臣之義	-11.5177
樂書	-11.5177
大燭	-11.5177
為下國	-11.5177
常事	-11.5184
豐邑	-11.5185
字當作	-11.5188
相䑕	-11.5189
將欲	-11.5191
能保	-11.5191
賙	-11.5193
鸒	-11.5193
孝侯	-11.5195
耇	-11.5196
嗚	-11.5196
祝君	-11.5196
故知是	-11.5196
附著	-11.5197
不審	-11.5197
騑	-11.52
進戒	-11.52
蜡祭	-11.5201
采采芣苢	-11.5201
姪	-11.5201
拇	-11.5201
剡	-11.5202
灾	-11.5202
于嗟乎騶虞	-11.5202
禘嚳	-11.5202
淒淒	-11.5202
自求多福	-11.5203
搢	-11.5203
岨	-11.5203
閽	-11.5203
冷	-11.5204
拳拳	-11.5204
知我者謂我心憂不知我者謂我何求	-11.5204
聦	-11.5205
魯道有蕩齊子	-11.5205
而可以	-11.5205
銷	-11.5206
軜	-11.5206
瓣	-11.5207
擯	-11.5207
窈窕淑女	-11.5207
監謗	-11.5208
良朋	-11.5208
劒	-11.5208
帳	-11.5208
其端	-11.5209
漢書注	-11.521
郝敬云	-11.521
添	-11.5211
終之以	-11.5212
鷕	-11.5212
祀髙宗	-11.5212
嫉妬	-11.5213
侯中	-11.5214
寡妻	-11.5215
日行	-11.5216
厭翟	-11.5219
典刑	-11.5219
蒲盧	-11.5219
曲阜	-11.5219
鄭武公	-11.5224
造舟	-11.5225
狩獵	-11.5226
為大武之	-11.5226
叶新	-11.5227
王雎	-11.523
冬夏	-11.5232
正禮	-11.5234
適子	-11.5235
后妃之化	-11.5235
左傳稱	-11.5236
來格	-11.5237
謂此也	-11.5238
故先生	-11.5239
不謹	-11.524
于衞	-11.5243
命不易	-11.5244
千畝	-11.5244
討之	-11.5251
顧氏	-11.5251
一事而	-11.5252
秦穆公	-11.5253
轉而	-11.5255
此盖	-11.5256
也孔子曰	-11.5256
保守	-11.5259
成王周公	-11.526
西歸	-11.5261
俗呼為	-11.5262
衛邑	-11.5267
孔氏以為	-11.5268
離居	-11.5269
一發	-11.5272
按春秋	-11.5273
門之外	-11.5275
急疾	-11.5277
此詩所謂	-11.5279
西土	-11.5282
孔甚也	-11.5283
不可曉	-11.5284
舊矣	-11.5284
佐助	-11.5286
天禄	-11.5288
美徳	-11.5289
為虐	-11.529
驅之	-11.5299
指王也	-11.5302
愛敬	-11.5303
各不同	-11.5305
故老	-11.5308
入室	-11.5311
鮀	-11.5312
成熟	-11.5314
而垂	-11.5314
齡	-11.5315
淺毛	-11.5315
為之歌	-11.5316
逈	-11.5316
大寒	-11.5317
苟有	-11.5317
昭昭	-11.5318
之言曰	-11.5319
两	-11.5319
髦士	-11.532
熹	-11.532
不美	-11.532
提提	-11.5321
朅	-11.5321
今夕何夕	-11.5322
蠜	-11.5323
管蔡流言	-11.5323
交交桑扈	-11.5324
崒	-11.5324
在原	-11.5324
陸德明	-11.5325
不瑕有害	-11.5325
儺	-11.5325
小心翼翼	-11.5325
駟鐵	-11.5325
忱	-11.5325
欠	-11.5326
魚麗于罶	-11.5327
虗	-11.5327
簀	-11.5327
黷	-11.5327
昔我往矣	-11.5327
儕	-11.5327
膾	-11.5327
隷	-11.5327
賈逵	-11.5327
輢	-11.5328
育材	-11.5328
商之孫子	-11.5328
憩	-11.5328
衢	-11.5328
鯇	-11.5329
印	-11.5329
龎	-11.5329
泚	-11.5329
舒徐	-11.5329
太常	-11.5332
二子乘舟	-11.5334
平王之孫	-11.5335
緑竹	-11.5335
鞏固	-11.5335
鴉	-11.5335
游環	-11.5336
廟門外	-11.5337
十五里	-11.5338
悞	-11.5338
夫婦相	-11.5339
帝堯	-11.5339
周公東征	-11.5343
字訓	-11.5343
成王康王	-11.5344
采卷耳	-11.5348
曹風	-11.5348
俗語	-11.5348
公堂	-11.535
歡樂	-11.5351
不假	-11.5351
頷下	-11.5353
之徳也	-11.5354
釐侯	-11.5356
衞國	-11.5358
棘心	-11.5364
其柄	-11.5364
重斂	-11.5365
所願	-11.5365
唐人	-11.5366
頃公	-11.5368
自殺	-11.5368
吉禘	-11.5371
碩女	-11.5371
可勝	-11.5372
穀梁傳	-11.5373
小人在位	-11.5373
豐氏本作	-11.5374
燕寢	-11.5383
嚴敬	-11.5384
莊子曰	-11.5384
君天下	-11.5386
路史	-11.5387
傷己	-11.5388
親賢	-11.5389
寒氣	-11.539
諸説	-11.539
族類	-11.5394
世婦	-11.54
不能行	-11.54
十萬	-11.5402
詩所云	-11.5409
角反	-11.5409
彼注	-11.541
不免於	-11.5411
便有	-11.5412
二十八	-11.5413
齊力	-11.5415
相鼠	-11.5416
繼伐	-11.5417
耕者	-11.542
編詩	-11.5422
下皆同	-11.5422
亦未必	-11.5428
者異矣	-11.5429
乞言	-11.5429
天理之	-11.5435
箋正義曰箋以	-11.5437
陸氏佃曰	-11.5437
雲雨	-11.544
嚶嚶	-11.5441
歆羡	-11.5442
果能	-11.5443
東萊呂氏曰	-11.5444
整飭	-11.5444
醓醢	-11.5444
笛	-11.5444
𥙷	-11.5445
王賜	-11.5445
肻	-11.5445
纊	-11.5446
秔	-11.5447
息浪	-11.5448
楘	-11.5449
逾	-11.5449
薛君章句	-11.545
霏	-11.545
蹇	-11.5451
沾	-11.5454
俱有	-11.5454
楊園	-11.5454
君民	-11.5455
効	-11.5455
勉強	-11.5456
遣使臣	-11.5457
布帛	-11.5459
百歩	-11.5462
之裘	-11.5463
蝮	-11.5463
受其福	-11.5463
鼓鍾	-11.5464
度量	-11.5466
示我以	-11.5466
北堂	-11.5467
三農	-11.5469
反韓詩作	-11.5473
郊特牲曰	-11.5474
君子之所	-11.5474
者必有	-11.5474
古禮	-11.5475
明著	-11.5476
忽然	-11.5476
甘草	-11.5477
大饗	-11.5477
孫毓云	-11.5477
節節	-11.5478
議論	-11.5479
配上帝	-11.548
賜姓	-11.5483
頌禱之辭	-11.5484
故其詩	-11.5485
嫁於諸侯	-11.5485
賢士	-11.5485
憂念	-11.5488
張衡	-11.549
之意同	-11.5491
卒章言	-11.5491
燕居	-11.5495
伯仲	-11.5497
專主	-11.5498
欲王	-11.5499
武王能	-11.55
矣然則	-11.55
不如是	-11.5501
告之曰	-11.5501
禹之功	-11.5503
克商	-11.5504
一本作	-11.5504
悲反	-11.5504
親睦	-11.5504
肥泉	-11.5504
田畝	-11.5506
多寡	-11.5511
疑亦	-11.5511
好人	-11.5514
夏南	-11.5514
在左	-11.552
危難	-11.5524
相表裏	-11.5525
老成人	-11.5526
爲善	-11.5532
愈深	-11.5533
由儀	-11.5536
繁霜	-11.554
水旱	-11.554
末言	-11.5542
之情而	-11.5542
諸本	-11.5543
對文	-11.5544
倣	-11.5547
理㑹	-11.5548
釋經	-11.5549
三耦	-11.5552
服淮夷	-11.5553
餐	-11.5558
一物而	-11.5559
朝直遥反	-11.5559
汧	-11.556
汔	-11.5562
未秀	-11.5563
餱	-11.5563
襭	-11.5565
家齊	-11.5567
周公居東	-11.5567
咺	-11.5567
淢	-11.5568
漢之廣矣不可泳思江之永矣不可方思	-11.5568
嗣子	-11.5568
載馳載驅	-11.5568
柎	-11.5568
紳	-11.5569
噎	-11.5569
退食自公	-11.5569
𤓰瓞	-11.5569
反又如字	-11.557
鼙	-11.557
殁	-11.5571
貟	-11.5571
圖云	-11.5571
宗祀	-11.5571
蒲北	-11.5574
嫄	-11.5574
未可知也	-11.5574
晦翁	-11.5574
驪姬	-11.5574
皥	-11.5574
好攻戰	-11.5574
廵狩	-11.5575
耕田	-11.5575
觜	-11.5575
螓	-11.5575
爕	-11.5575
辟雝	-11.5575
杙	-11.5576
攀	-11.5576
闗闗	-11.5576
鉶羮	-11.5576
燔炙	-11.5578
養人	-11.5579
不寐	-11.5579
武王之事	-11.5579
淫詩	-11.5581
周禮云	-11.5582
棧車	-11.5583
既成而	-11.5586
侯維也	-11.5586
頌禱之詞	-11.5587
所聚	-11.5587
緝緝	-11.5588
衞侯	-11.5591
之極也	-11.5592
今世	-11.5592
大都	-11.5593
必至於	-11.5596
鳥羽	-11.5597
朋友相	-11.5598
偃師	-11.56
鼓聲	-11.5601
京周	-11.5603
先儒以	-11.5604
如此説	-11.5606
貞潔	-11.5607
時物	-11.5607
侯度	-11.561
疾痛	-11.561
棣棣	-11.561
酌酒	-11.5611
丘中	-11.5611
哀哉	-11.5615
大姬	-11.5615
貞信	-11.5618
大猷	-11.5619
曽是	-11.562
照臨	-11.562
小麥	-11.5623
上加	-11.5624
何處	-11.5625
時是也	-11.5626
服從	-11.5629
也三章言	-11.5629
以求之	-11.5632
豳人	-11.5633
詩人因	-11.5634
莫敢不	-11.5635
并言	-11.5635
殊不	-11.5636
能官人	-11.5636
邑居	-11.5637
也郭璞曰	-11.5642
無有不	-11.5643
亦異	-11.5646
孟子云	-11.5647
治事	-11.5648
日夜	-11.5656
軍中	-11.5657
充實	-11.5657
至扵	-11.5657
韓詩外傳云	-11.5658
有威儀	-11.566
託興	-11.566
公羊傳云	-11.5666
三叔	-11.5669
崧	-11.5671
嘉美	-11.5678
不載	-11.5681
弈	-11.5684
狐貍	-11.5684
書稱	-11.5688
鉏	-11.569
璲	-11.5693
睿	-11.5693
毛如字鄭	-11.5694
邈	-11.5695
痒	-11.5695
睠	-11.5695
禮記注	-11.5696
大典缺卷	-11.5697
偲	-11.5697
蔓菁	-11.5697
籩豆有踐	-11.5697
層	-11.5698
昨	-11.5698
撮	-11.5698
魁	-11.5698
唇	-11.5699
逋	-11.5699
女士	-11.5699
嶺	-11.57
侵侮	-11.5701
彭氏曰	-11.5701
霧	-11.5701
婉孌	-11.5702
茶	-11.5702
樹木	-11.5702
順從	-11.5703
零露	-11.5703
成形	-11.5705
文茵	-11.5705
過矣	-11.5707
下管	-11.5708
貧賤	-11.571
伊人	-11.5711
苟能	-11.5711
又次	-11.5712
十三國	-11.5713
不嫌	-11.5714
疾驅	-11.5715
鬱金	-11.5716
相次	-11.5717
自西	-11.5717
濮陽	-11.5717
緩急	-11.5719
鄒忠𦙍云	-11.572
深長	-11.572
非其人	-11.572
孝王	-11.5721
荆棘	-11.5723
而刺之	-11.5726
終篇	-11.5726
懼其	-11.5727
受命作周	-11.5727
郭璞謂	-11.5729
識者	-11.5731
籥章	-11.5737
最大	-11.5737
泉流	-11.5737
見小雅	-11.574
夷厲	-11.5742
食禮	-11.5746
凡祭	-11.5749
末年	-11.5749
牛角	-11.5753
大苦	-11.5754
所以教	-11.5756
敢問	-11.5756
遂歌	-11.5757
前驅	-11.5762
也若然	-11.5765
有事於	-11.5765
性善	-11.5769
王基	-11.577
以該	-11.5771
象路	-11.5771
商丘	-11.5772
撥亂	-11.5775
回邪	-11.5776
未知何	-11.5777
一歲	-11.5782
岐陽	-11.5786
大飲	-11.5786
矣况	-11.5788
諸侯之風	-11.579
在室	-11.5792
古序	-11.5795
子餘	-11.5795
桑間	-11.5799
安我	-11.5803
於其間	-11.5804
秦晉	-11.5805
在塗	-11.5812
害於	-11.5813
厚之至也	-11.5814
疊山謝氏曰	-11.5814
之氣象	-11.5815
㤗	-11.5816
世室	-11.5818
不敢斥	-11.5818
錐	-11.5818
悶	-11.5819
刪詩	-11.5819
受此	-11.5819
闐闐	-11.582
酸棗	-11.582
糯	-11.582
絞	-11.5821
蓆	-11.5821
疷	-11.5821
焞	-11.5822
穰	-11.5823
美目	-11.5823
摯而有别	-11.5823
崖	-11.5824
臨淄	-11.5825
鵂鶹	-11.5825
場圃	-11.5826
五升	-11.5827
昆蟲	-11.5827
陵苕	-11.5828
鄭註	-11.5828
凄	-11.5828
滌濯	-11.5829
朱子不詳其世	-11.583
邦家之光	-11.583
昔我	-11.5831
國都	-11.5831
空谷	-11.5832
稻粱	-11.5833
欲去	-11.5833
西方之	-11.5834
懷思	-11.5837
叶麌韻	-11.5838
日景	-11.5838
嵗時	-11.5839
歌鹿鳴	-11.5842
所記	-11.5843
益大	-11.5845
早夜	-11.5846
慮其	-11.5846
薦熟	-11.5847
私意	-11.5851
〇蘇氏曰	-11.5852
大夫行役	-11.5853
嘉穀	-11.5855
平其心	-11.5855
軍事	-11.5856
四簋	-11.5856
輔廣云	-11.5857
熟食	-11.5858
嘉榖	-11.5859
安集	-11.586
先代	-11.5862
洛反	-11.5866
衛宣公	-11.5867
陳列	-11.587
官人	-11.5871
戎路	-11.5873
節度	-11.5874
此其所以為	-11.5874
朝王	-11.5875
後宫	-11.5875
其類也	-11.5877
相屬	-11.5878
與上章	-11.588
尊嚴	-11.588
以别之	-11.5882
叶許	-11.5888
衆盛	-11.5888
逸逸	-11.5888
而成之	-11.5889
必能	-11.589
東夷	-11.5892
終朝	-11.5893
宋玉	-11.5893
四足	-11.5896
福禄之	-11.5896
州里	-11.5897
醜惡	-11.5898
降喪	-11.5901
為不善	-11.5902
代商	-11.5903
陟角	-11.5903
付之	-11.5904
尊大	-11.5904
韻未詳	-11.5908
志意	-11.5912
大行人	-11.5917
不可掩	-11.5918
述毛	-11.5919
常處	-11.5919
求我	-11.592
人之善	-11.5923
蘇轍	-11.5925
時節	-11.5926
報之以	-11.593
夏殷	-11.5931
矣又曰	-11.5934
一歳	-11.5936
執轡如組	-11.5936
揚起	-11.5936
隱公	-11.5939
當此之時	-11.5941
明甚	-11.5942
㢘	-11.5943
無疑矣	-11.5946
騋牝三千	-11.5947
車下李	-11.5947
儐	-11.5947
錦衣狐裘	-11.5948
蕘	-11.5948
癙	-11.5948
下章放此	-11.5949
襋	-11.5949
紃	-11.595
惡聲之鳥	-11.5951
蒨	-11.5952
祕	-11.5953
迪	-11.5954
犢	-11.5954
重穋	-11.5955
霍叔	-11.5955
我徂東山慆慆不歸我來自東零雨其濛	-11.5956
不倫	-11.5956
麋鹿	-11.5956
咨嗟	-11.5956
慶源	-11.5956
其肉	-11.5956
主臣謹奉教	-11.5957
里巷	-11.5957
公子頑	-11.5958
蜘蛛	-11.5958
賤妾	-11.5959
豈亦	-11.5959
平居	-11.5962
正義曰此	-11.5963
隔句韻	-11.5964
大夫以上	-11.5964
纛	-11.5965
大體	-11.5965
輕車	-11.5966
日有食之	-11.5968
此二章	-11.5969
報上	-11.5974
富辰	-11.5974
不再	-11.5975
徳澤	-11.5976
鄭州	-11.5983
生意	-11.5985
從禽	-11.5987
紫色	-11.5989
祝鳩	-11.5989
國亡	-11.5989
馬蓼	-11.5989
可取	-11.5991
陸農師曰	-11.5992
王天下	-11.5993
千古	-11.5996
不越	-11.5998
右助	-11.6
方岳	-11.6
孝敬	-11.6002
哀傷	-11.6003
愬之	-11.6005
戒王	-11.6013
如璧	-11.6014
不敢當	-11.6023
已盡	-11.6023
六禮	-11.6024
喻賢者	-11.6024
之本意	-11.6026
釋言云	-11.6026
周徧	-11.6027
白牡	-11.6027
聲色	-11.603
温恭	-11.603
不可通	-11.6033
器用	-11.6035
無以異	-11.6039
其地在	-11.6039
下體	-11.604
千載	-11.6041
齊國	-11.6047
奉天	-11.6047
說詩者	-11.6047
深切	-11.6048
所掌	-11.605
不善者	-11.6051
而後已	-11.6052
天子之卿	-11.6054
先儒以為	-11.6054
五寸	-11.6056
如後世	-11.6065
褘	-11.6066
檻	-11.6066
驄	-11.6069
憂之而	-11.607
彚	-11.6072
菡萏	-11.6073
鹹	-11.6074
豆籩	-11.6075
奨	-11.6075
其味	-11.6076
不一而足	-11.6078
逍遙	-11.6079
以茅	-11.6079
幭	-11.6079
巘	-11.608
昆弟	-11.6081
瘼	-11.6081
憂心孔疚	-11.6081
鏘	-11.6081
指斥	-11.6082
圜丘	-11.6082
溷	-11.6082
聯	-11.6082
不顯其光	-11.6082
酆	-11.6083
兾	-11.6083
以為戒	-11.6084
徴舒	-11.6084
萬福	-11.6084
蛟	-11.6085
章末	-11.6085
追琢	-11.6086
痡	-11.6086
誠意	-11.6088
苽	-11.6088
圻父	-11.6089
穫稻	-11.6089
大祭	-11.6094
文王之事	-11.6094
衰亂之	-11.6096
周之盛時	-11.6097
三百六十	-11.6098
可想	-11.6099
巧婦	-11.61
殷道	-11.6102
式用也	-11.6102
驅禽	-11.6106
叶養	-11.6111
蟲蟲	-11.6111
禍患	-11.6112
雍容	-11.6114
齎反	-11.6114
四十里	-11.6114
殷士	-11.6121
夷平也	-11.6122
耳非謂	-11.6122
潰潰	-11.6124
尋常	-11.6125
中山	-11.6125
百工	-11.6128
之次第	-11.613
故以喻	-11.613
之所宜	-11.6131
箋以為	-11.6131
諸兄	-11.6131
武王封	-11.6133
稱其服	-11.6135
兵革	-11.6135
此述	-11.6136
所述	-11.6138
容飾	-11.6139
南畆	-11.6139
論衡	-11.6139
比也毛傳	-11.6142
雍雍	-11.6146
條理	-11.6147
之故而	-11.6148
作亂	-11.6151
並作	-11.6152
然後知	-11.6154
失職	-11.6154
間色	-11.6154
元戎	-11.6158
江東呼	-11.6161
勞役	-11.6161
紙韻	-11.6162
笙入	-11.6162
甲士	-11.6162
定公	-11.6162
於道路	-11.6165
令終	-11.6165
發夕	-11.6166
詩人之言	-11.6168
而言之也	-11.6172
秋官	-11.6174
顧我	-11.6175
宻人	-11.6176
而食之	-11.6178
北方之	-11.6179
所殺	-11.6185
列于	-11.6186
一章二章	-11.6187
奏鼓	-11.6187
以為法	-11.6188
古雅	-11.6189
何以異	-11.6189
期於	-11.6191
傳興也	-11.6195
使天下	-11.6196
与	-11.6197
相間	-11.6197
閼	-11.6202
取名	-11.6202
已焉哉天實為之謂之何哉	-11.6203
瘦	-11.6203
鵝	-11.6204
未知其	-11.6204
固結	-11.6204
春酒	-11.6205
黽	-11.6205
饉	-11.6205
王志長曰	-11.6207
諗	-11.6208
絆	-11.6208
范逸齋	-11.6208
泭	-11.6208
惴惴	-11.6208
簸	-11.6209
峱	-11.6209
濃	-11.6209
程伯休父	-11.6209
掊克	-11.621
鳯翔府	-11.621
癉	-11.6211
本國	-11.6211
嘅	-11.6211
谷中	-11.6211
靦	-11.6212
佻	-11.6212
罛	-11.6212
陀	-11.6213
臥	-11.6213
地利	-11.6213
譴怒	-11.6214
􁈹	-11.6214
綴旒	-11.6214
萬夀無疆	-11.6215
黍苖	-11.6215
絮	-11.6215
騵	-11.6215
閫	-11.6215
漸漬	-11.6216
茺蔚	-11.6216
湜湜	-11.6219
祭之日	-11.622
幕	-11.6221
忮害	-11.6222
邁行也	-11.6224
知其不可	-11.6228
澤蘭	-11.6229
而告之曰	-11.6229
靡靡	-11.6233
屢舞	-11.6233
驕驕	-11.6233
相比	-11.6235
増釋	-11.6235
天文	-11.6237
改過	-11.6238
諸大夫	-11.6239
容色	-11.624
形容其	-11.6242
而不厭	-11.6242
夷平	-11.6243
下文言	-11.6244
既嫁	-11.6246
定居	-11.6247
色赤	-11.6247
福履	-11.6253
面目	-11.6253
毛鄭皆	-11.6253
濟隂	-11.6254
不可測	-11.6263
祭社	-11.6264
大誥	-11.6268
異國	-11.6269
不怒	-11.627
司射	-11.627
𤣥孫	-11.627
莘國	-11.6272
極至也	-11.6275
陳靈	-11.6277
八百	-11.6278
不能盡	-11.6278
敏疾	-11.6279
無枝	-11.628
猶謀也	-11.6281
聖德	-11.6281
安息	-11.6284
史記云	-11.6284
七寸	-11.6288
枝條	-11.6291
元老	-11.6291
最多	-11.6291
州府	-11.6292
山海經云	-11.6293
惡鳥	-11.6295
天子之所	-11.6297
澤宫	-11.6297
從公	-11.63
冀州	-11.63
避狄	-11.6301
俱見	-11.6303
狂狡	-11.6308
三章四章	-11.631
靈囿	-11.6312
君心	-11.6317
鄭國之	-11.6317
須是	-11.6317
一寸	-11.6319
甓	-11.6322
大祫	-11.6323
有莘	-11.6326
哆	-11.6331
變小雅	-11.6331
種類	-11.6332
荀子云	-11.6333
㡳	-11.6336
思治	-11.6337
不敢斥言	-11.6337
禮記作	-11.6338
慰勞	-11.6339
粉米	-11.6339
維予與女	-11.634
渠渠	-11.634
未可知	-11.6341
嘲	-11.6341
啇	-11.6342
騢	-11.6343
歌詩	-11.6343
帷裳	-11.6343
蝘蜓	-11.6344
砠	-11.6344
闍	-11.6344
劍	-11.6344
顓頊	-11.6345
雝雝喈喈	-11.6345
誠實	-11.6345
沮洳	-11.6346
遮	-11.6346
誅管蔡	-11.6346
茫	-11.6346
魴鱧	-11.6346
􁂋	-11.6346
軟	-11.6346
入此室處	-11.6347
按原本	-11.6347
鬚	-11.6347
喘息	-11.6348
伎	-11.6349
寂	-11.6349
晁	-11.6349
塞耳	-11.6349
泱泱	-11.635
胃	-11.635
玉瓚	-11.6351
浸潤	-11.6352
密人	-11.6355
毛萇	-11.6356
哀此	-11.6356
今江東呼	-11.6357
猿	-11.6357
噳	-11.6357
王家	-11.6358
北人	-11.6359
二十五里	-11.636
治内	-11.6361
補反	-11.6363
故云然	-11.6363
舉趾	-11.6364
尚父	-11.6365
于是乎	-11.6368
倡而	-11.6374
事業	-11.6376
賓尸	-11.6376
無事則	-11.6377
始行	-11.6377
樂與賢	-11.6377
免禍	-11.6378
不聴	-11.638
䇿命	-11.6381
五齊	-11.6381
相似而	-11.6381
省耕	-11.6382
未足以	-11.6383
廣志	-11.6384
繩繩	-11.6385
出話	-11.6385
動作	-11.6389
篇序曰	-11.6389
儒者	-11.6391
雲氣	-11.6391
所詠	-11.6396
沃沃	-11.6402
鋪陳	-11.6402
夕陽	-11.6403
子仲	-11.6404
脩身	-11.6404
蝤蠐	-11.6407
何歟	-11.641
驪山	-11.6413
回反	-11.6414
灼反	-11.6418
十日	-11.6421
冕而	-11.6423
喻諸侯	-11.6424
𤣥黄	-11.6428
感人	-11.6431
樂記曰	-11.6432
豳國	-11.6434
使之然	-11.6437
縣鼓	-11.6448
五章皆	-11.6448
凡民	-11.645
倫反	-11.6456
各得其	-11.6457
大射禮	-11.646
後三章	-11.6464
茸	-11.6469
尤非	-11.6469
破字	-11.6472
瑣瑣	-11.6472
訌	-11.6473
不濡	-11.6475
不移	-11.6475
仁愛	-11.6475
稠	-11.6476
敦琢	-11.6476
觱	-11.6476
奬	-11.6476
蒻	-11.6478
栽	-11.6479
楨榦	-11.6479
四馬皆	-11.6479
小豆	-11.6479
胾	-11.6479
適異國	-11.648
聲之和	-11.648
箾	-11.648
瀰	-11.648
二子乗舟	-11.6481
蠡	-11.6481
居岐之陽	-11.6481
髦俊	-11.6482
彼君子女	-11.6482
銶	-11.6482
鯿	-11.6482
鼒	-11.6482
帑	-11.6482
煙	-11.6482
墍	-11.6483
筏	-11.6483
認	-11.6484
愿	-11.6484
祓	-11.6484
穄	-11.6484
簟茀	-11.6484
黜陟	-11.6485
貧富	-11.6485
鄉射禮	-11.6486
譲	-11.6486
江沱	-11.6486
吕覽	-11.6487
為裘	-11.6487
而訴之	-11.6489
玩味	-11.6491
嗣續	-11.6491
専言	-11.6491
差池	-11.6492
天駟	-11.6493
禦寒	-11.6495
背叛	-11.6496
踐履	-11.6496
寓於	-11.6496
伊何	-11.6498
以勞之	-11.6499
而為此	-11.65
西雝	-11.6501
檜曹	-11.6501
釋畜	-11.6502
奔奔	-11.6502
尊祖	-11.6503
失其所	-11.6504
禦亂	-11.6505
腹下	-11.6505
我有嘉賓	-11.6506
委葉	-11.6508
按此篇永樂	-11.6509
大難	-11.6509
報功	-11.6511
民困	-11.6511
釋名	-11.6512
二十四年	-11.6514
四方皆	-11.6515
平夷	-11.6517
嗣位	-11.6518
以為比	-11.6521
惠愛	-11.6524
逺方	-11.6524
第十	-11.6527
七月篇	-11.6527
亦猶是也	-11.653
若有所	-11.6531
詩緝云	-11.6531
地勢	-11.6533
生商	-11.6537
𤣥冕	-11.6538
鄒氏	-11.6551
田馬	-11.6551
大斗	-11.6551
楚宫	-11.6552
敬仲	-11.6553
未易	-11.6558
哀痛	-11.6559
天帝	-11.6559
錫爾	-11.656
休父	-11.6563
祖父	-11.6564
蓋指	-11.6565
滎	-11.6565
與否	-11.6566
邑名	-11.6568
讒佞	-11.6569
白粱	-11.6569
答曰	-11.6571
雜色	-11.6574
美哉	-11.6577
可以見其	-11.6578
吾心	-11.6579
序爵	-11.6579
幸其	-11.6582
后稷配天	-11.6583
之所欲	-11.6584
可憐	-11.6584
辯說此	-11.6594
於此乎	-11.6596
檻泉	-11.6597
▁朱註	-11.6601
陔	-11.6604
終不能	-11.6604
糝	-11.6611
荐	-11.6611
愍	-11.6612
輯録通釋曰	-11.6612
炳	-11.6612
糗	-11.6612
郁	-11.6613
鮦	-11.6613
厲王之時	-11.6614
地里志	-11.6614
増釋許氏曰	-11.6614
芙蕖	-11.6615
茜	-11.6615
言觀其旂	-11.6615
貼	-11.6615
筩	-11.6616
取象	-11.6617
彪	-11.6617
輟	-11.6617
飶	-11.6617
龠	-11.6618
紘	-11.6618
瘵	-11.6618
之美而	-11.6618
凡四	-11.6618
情性之正	-11.6618
紊	-11.6619
王氏以為	-11.6619
霾	-11.6619
觼	-11.6619
瑀	-11.6619
喩	-11.662
窟	-11.662
椇	-11.6621
詎	-11.6621
觚	-11.6621
憂心悄悄	-11.6621
未備	-11.6621
襟	-11.6621
自北而南	-11.6622
斚	-11.6622
告利成	-11.6622
涓	-11.6622
稱伯	-11.6623
遵循	-11.6623
㫄	-11.6623
髙辛氏	-11.6623
奏象舞	-11.6624
琇	-11.6624
隳	-11.6624
能如是	-11.6624
佶	-11.6625
斝	-11.6626
組綬	-11.6626
肆筵	-11.6627
諷詠	-11.6629
無理	-11.6629
節奏	-11.663
能以禮	-11.6631
大羮	-11.6631
薪蒸	-11.6631
清静	-11.6637
後丗	-11.6638
修泮宫	-11.6639
題下	-11.6643
兵器	-11.6643
屈原	-11.6644
侵陵	-11.6645
朝聘	-11.6648
所以深	-11.6649
箕斗	-11.6649
何時而	-11.6651
備舉	-11.6652
𤣥冠	-11.6654
天子六軍	-11.6655
大壊	-11.6659
孔穎達云	-11.666
張本	-11.666
葉圓	-11.6663
愚按此章	-11.6663
醉飽	-11.6663
濟盈	-11.6664
人亦有言	-11.6665
奉養	-11.6667
獻賔	-11.6667
愆過	-11.6667
舉奠	-11.667
三足	-11.6675
刺亂也	-11.6676
爲惡	-11.6679
始成	-11.668
詞氣	-11.6683
崇侯	-11.669
高岡	-11.6698
一類	-11.6699
媒氏	-11.6699
華蟲	-11.6699
以王事	-11.6702
之資	-11.6706
自逸	-11.6707
如鳥之	-11.6712
最後	-11.6715
刑法	-11.6716
任賢	-11.6717
匹夫	-11.6717
都城	-11.6719
趨事	-11.672
難易	-11.672
通義	-11.6722
齊襄公	-11.6722
歸寜	-11.6723
以戒成王	-11.6723
歐氏	-11.6723
相愛	-11.6724
髙位	-11.6728
思古人	-11.673
十二章	-11.6734
被讒	-11.6738
不斷	-11.6738
並行	-11.674
惟恐其	-11.6742
《	-11.6745
後患	-11.6749
甚易	-11.6749
瘥	-11.675
諂	-11.675
飮	-11.675
戰戰兢兢	-11.675
綜	-11.6751
顒	-11.6751
外内	-11.6751
籬	-11.6751
莝	-11.6752
頌美	-11.6752
黄氏櫄曰	-11.6753
皃	-11.6754
騧	-11.6754
箸	-11.6755
蚩尤	-11.6755
鏡	-11.6755
羜	-11.6756
兌	-11.6756
相符	-11.6756
季札觀樂	-11.6756
氐羌	-11.6756
金厄	-11.6758
臾	-11.6758
換	-11.6758
霤	-11.6758
懆	-11.6758
無忌	-11.6758
棘急也	-11.6759
睹	-11.676
蜻	-11.6761
暴亂	-11.6761
沖沖	-11.6761
蓛	-11.6762
流涕	-11.6762
誠信	-11.6762
伴	-11.6763
豕韋	-11.6763
榛栗	-11.6765
不測	-11.6766
豐本俱作	-11.6766
四章章八句	-11.6767
題肩	-11.6767
嫡妾	-11.6768
媿	-11.6768
縞衣	-11.6772
改易	-11.6772
日光	-11.6772
切總聞曰	-11.6774
昔人	-11.6774
誰敢	-11.6775
升降	-11.6775
舊都	-11.6775
永嘆	-11.6775
逺志	-11.6775
平淮夷	-11.6776
晚寒	-11.6776
加爵	-11.6777
嘉殽	-11.6778
今陜西	-11.6778
榖善也	-11.6781
言此者	-11.6782
惡無禮	-11.6783
禾黍	-11.6787
歸功於	-11.6787
疆界	-11.6788
天文志	-11.6789
有餘力	-11.679
四章五章	-11.679
朱子亦	-11.6792
一條	-11.6793
盡廢	-11.6795
特生	-11.6797
復生	-11.6797
螗蜩	-11.6798
穆侯	-11.6799
宋襄公	-11.6799
威靈	-11.68
陸疏云	-11.6801
叔孫	-11.6806
為朋	-11.6807
小司徒	-11.6807
高下	-11.6807
符云	-11.6808
竭力	-11.6809
菜名	-11.681
城齊	-11.6811
卑賤	-11.6814
水火	-11.6815
既没	-11.6817
蘇氏云	-11.6818
章五句	-11.682
大夫之妻	-11.682
陽月	-11.682
執持	-11.6824
相感	-11.6824
道德	-11.6827
賢聖	-11.6827
字林云	-11.6831
本㫖	-11.6832
十二篇	-11.6833
三十年	-11.6836
火星	-11.6837
鄭訓	-11.684
釋木云	-11.6841
審矣	-11.6845
曰吾聞	-11.6846
皆出於	-11.6846
之祭也	-11.6846
惡疾	-11.6847
七感	-11.6852
我心之憂	-11.6855
木理	-11.6857
相遇	-11.6862
美盛	-11.6864
太室	-11.6867
極言其	-11.6867
疑周公	-11.6868
其所當	-11.6871
見賢遍反	-11.6878
申培	-11.6881
驕人	-11.6882
脩徳	-11.6889
所獲	-11.6889
岱	-11.689
非聖人	-11.6891
縐絺	-11.6891
蔦	-11.6891
二丈	-11.6891
魃	-11.6893
騤騤	-11.6893
不得終養	-11.6893
東宫	-11.6893
山隂陸氏曰	-11.6894
牂牂	-11.6894
数	-11.6894
秉心塞淵	-11.6894
觱沸	-11.6894
黍稷方華	-11.6895
禎祥	-11.6895
為于偽反	-11.6896
秃	-11.6896
自土沮漆	-11.6896
抜	-11.6896
蹢	-11.6897
息民	-11.6897
莧	-11.6897
而不去	-11.6897
太子宜臼	-11.6897
岐豐之地	-11.6898
辦	-11.6898
朱氏道行曰	-11.69
禁止	-11.6901
偈	-11.6901
踊躍	-11.6901
汗	-11.6901
魗	-11.6901
徂往也	-11.6901
脩德	-11.6902
淄	-11.6903
澀	-11.6903
㪚	-11.6903
冬日	-11.6904
稑	-11.6905
季本云	-11.6905
燕喜	-11.6905
鹿鳴之什	-11.6906
新畬	-11.6906
青黄	-11.6907
髙峻	-11.6907
怠慢	-11.6907
裒聚	-11.6911
章三句	-11.6912
御車	-11.6912
正位	-11.6915
稱頌	-11.692
考證	-11.692
字之義	-11.6921
蘓氏	-11.6921
栭	-11.6923
士與女	-11.6924
古今字	-11.6927
博雅	-11.6927
今人謂之	-11.6928
世道	-11.6929
溺於	-11.6929
伊威	-11.693
輔翼	-11.6932
鮮原	-11.6932
反哺	-11.6933
他詩	-11.6933
鄭注云	-11.6935
左旋	-11.6935
純色	-11.694
武備	-11.6943
孔頴達云	-11.6952
左𫝊曰	-11.6953
冬月	-11.6953
唐叔	-11.6953
在位之人	-11.696
舊臣	-11.6973
和好	-11.6975
舉動	-11.6976
玉石	-11.6979
之厚也	-11.6981
革車	-11.6986
簡易	-11.699
奄人	-11.6992
君道	-11.6992
周邦	-11.6995
而知之	-11.6996
無縱詭隨	-11.7
將寒	-11.7001
並稱	-11.7007
之善者	-11.7008
幽王之世	-11.7011
皮革	-11.7015
何暇	-11.7016
公姓	-11.7017
等詩	-11.7017
儉而	-11.7021
五經	-11.7022
手足	-11.7022
惜其	-11.7023
鶻鳩	-11.7023
上黨	-11.7025
磋	-11.7027
蕮	-11.7028
櫬	-11.7029
鄢	-11.7032
嶧	-11.7033
彼君子兮	-11.7034
毀	-11.7035
兑	-11.7036
啜	-11.7037
禮畢	-11.7037
羣公先正	-11.7037
南有樛木	-11.7037
攬	-11.7038
怳	-11.7038
参	-11.7038
團	-11.7038
大牢	-11.7039
祲	-11.7039
粘	-11.7039
閻	-11.7039
扤	-11.7039
柲	-11.704
趍	-11.704
謐	-11.704
鞙鞙	-11.704
縈	-11.704
糲	-11.7041
田畯至喜	-11.7041
幦	-11.7041
豈特	-11.7041
臨其穴惴惴其慄彼蒼者天	-11.7042
虺蜴	-11.7042
能制	-11.7042
倖	-11.7042
無一毫	-11.7042
服之無斁	-11.7042
虆	-11.7042
淪胥	-11.7043
玈	-11.7043
注旄	-11.7043
十畝之間	-11.7043
嶞	-11.7044
遟	-11.7044
倩	-11.7044
乃如之人	-11.7045
孝孫有慶	-11.7045
薄伐玁狁	-11.7045
變風始作	-11.7045
櫄	-11.7046
擔	-11.7047
陵遲	-11.705
此章言其	-11.705
不巳	-11.7051
鼔瑟	-11.7052
王命召虎	-11.7053
豉	-11.7053
稱公	-11.7054
衆鳥	-11.7055
螽斯羽	-11.7055
省文	-11.7058
亶父	-11.7058
周易	-11.706
甚善	-11.7063
稽首	-11.7063
祭祀之事	-11.7064
親疎	-11.7065
息淺	-11.7067
辟君也	-11.7069
開花	-11.7069
習習	-11.707
池水	-11.7071
觧見	-11.7073
衞宣公	-11.7074
江漢之間	-11.7075
正相反	-11.7079
大約	-11.7081
賓主	-11.7082
宗社	-11.7082
然而盛	-11.7086
涇渭	-11.7087
甲兵	-11.7087
音律	-11.709
文王之心	-11.709
裳衣	-11.7091
造周	-11.7094
王命召伯	-11.7097
春日	-11.7099
事親	-11.7099
家道	-11.7103
郭璞以為	-11.7104
子亹	-11.7105
可恃	-11.7107
林中	-11.7108
遠矣	-11.7113
天下之心	-11.7117
衰微	-11.712
文中子	-11.7123
夏小正云	-11.7123
固宜	-11.7123
寄生	-11.7127
三英	-11.7132
韓詩説	-11.7141
商邑	-11.7144
白鳥	-11.7147
有大功	-11.7149
髙子	-11.7151
麻衣	-11.7151
之聲也	-11.7156
飴	-11.7159
如今之	-11.7161
叶牛	-11.7163
悔仕	-11.7163
來告	-11.7165
於政事	-11.7166
信哉	-11.7171
六七	-11.7172
漢唐	-11.7173
又問	-11.7173
觿	-11.7173
好呼報反	-11.7174
蓬蓬	-11.7174
長久	-11.7175
簿	-11.7175
吾聞	-11.7176
郃陽	-11.7178
萼	-11.7179
闞	-11.7179
肥羜	-11.7179
艶	-11.7183
驩	-11.7183
揮	-11.7183
蜎蜎	-11.7184
常棣之華	-11.7184
歉	-11.7184
芒芒	-11.7184
燕燕于飛	-11.7184
闉	-11.7184
梟鴟	-11.7185
衛女思歸	-11.7185
媚于天子	-11.7185
咽咽	-11.7185
東坡	-11.7185
綏我思成	-11.7185
永言配命	-11.7186
旻天疾威	-11.7186
祀中宗	-11.7186
時物之變	-11.7187
綠竹	-11.7187
捐	-11.7187
憬	-11.7187
所以示	-11.7187
羸	-11.7188
泣血	-11.7188
個	-11.7188
鵞	-11.7188
覇	-11.7188
李時珍	-11.7188
尤多	-11.7189
椎	-11.719
蒼蠅之聲	-11.719
蘄	-11.719
顧炎武	-11.719
滮	-11.719
老子	-11.7191
來㑹	-11.7192
其效	-11.7192
几几	-11.7193
創業	-11.7193
穠	-11.7194
鷹揚	-11.7195
蒲栁	-11.7195
又見其	-11.7195
黄佐云	-11.7195
轉移	-11.7196
繹繹	-11.7197
庻幾	-11.7197
經典	-11.7197
少皥	-11.7197
狀其	-11.7198
諸侯之禮	-11.7198
開國	-11.7199
文武之業	-11.72
追貊	-11.7201
鄧元錫云	-11.7201
将帥	-11.7202
弑君	-11.7204
杞棘	-11.7206
載則也	-11.7207
小宗伯	-11.7209
三酒	-11.721
楊慎	-11.7212
淮北	-11.7214
詩攷	-11.722
改字	-11.7224
歸往	-11.7226
不幸而	-11.7226
考成也	-11.7229
左昭	-11.7233
順徳	-11.7234
柰何	-11.7234
單厚	-11.7234
高克	-11.7236
獨宿	-11.7238
以自樂	-11.724
石經作	-11.724
親征	-11.7241
兵甲	-11.7247
於是始	-11.7247
終朝采	-11.7247
源出	-11.7252
外方	-11.7254
嘉種	-11.7257
黎民	-11.7257
特立	-11.7259
佼人	-11.7263
繼述	-11.7264
三萬	-11.7266
譜云	-11.7269
等事	-11.7271
保右	-11.7272
不忍去	-11.7273
入藥	-11.7278
我客	-11.7285
以是知	-11.7286
齎	-11.7286
藹藹	-11.7291
王氏云	-11.7294
害民	-11.7294
俗名	-11.7294
世變	-11.7294
顯父	-11.7297
肅然	-11.7299
以金為	-11.7304
儼	-11.7305
公卿大夫	-11.7306
困于	-11.7306
得福	-11.7308
除去	-11.7308
無所據	-11.731
豈真	-11.7311
入海	-11.7313
不僣	-11.7317
苣	-11.732
美其徳	-11.732
韋昭注	-11.7322
莊子云	-11.7323
稙	-11.7324
􁀆	-11.7325
閟宮	-11.7325
謝邑	-11.7326
駘	-11.7327
民之攸塈	-11.7327
悠逺	-11.7327
絛	-11.7327
長數寸	-11.7328
勻	-11.7328
穋	-11.7328
思之切	-11.7328
狐狸	-11.7329
洌	-11.7329
謝氏枋得曰	-11.7329
悛	-11.7329
得罪於	-11.733
浼	-11.733
伐晉	-11.733
蝘	-11.7331
晢	-11.7332
飛鳥	-11.7332
櫂	-11.7332
每懐靡及	-11.7333
捷捷	-11.7334
路寝	-11.7334
洋	-11.7334
晴	-11.7334
沫	-11.7335
授衣	-11.7335
醇	-11.7335
瘡	-11.7335
輊	-11.7336
薅	-11.7336
子仲之子	-11.7336
有司徹	-11.7336
負蠜	-11.7336
鼐	-11.7336
尹吉甫美宣王也	-11.7336
籠	-11.7337
昄	-11.7338
咽	-11.7338
懆懆	-11.7338
狹而長	-11.7338
羲	-11.7338
裯	-11.7339
仲氏	-11.7339
月令孟春	-11.7339
顒顒	-11.7339
退食	-11.734
維予小子	-11.734
燋	-11.7341
皆可食	-11.7341
繫于	-11.7341
肜	-11.7342
以其婦子	-11.7342
鳴蜩	-11.7343
景亳	-11.7343
燐	-11.7343
以上皆	-11.7346
媵妾	-11.7346
諼草	-11.7348
筓	-11.7348
臆說	-11.735
周之王業	-11.7352
趙岐	-11.7353
洧水	-11.7354
遷鎬	-11.7356
五豝	-11.7361
候反	-11.7362
牛馬	-11.7363
申公説	-11.7367
講師	-11.7369
酒器	-11.7373
威嚴	-11.7377
車載	-11.7378
典禮	-11.7379
布穀	-11.7384
與天同	-11.7384
多才	-11.7386
黄髪	-11.7386
無所歸	-11.7387
為菹	-11.739
敦厚	-11.7392
許多	-11.7393
毛傳以為	-11.7395
將何所	-11.7398
歸功	-11.7402
時所作	-11.7402
來求	-11.7402
采緑	-11.7403
自此以下	-11.7408
師尚父	-11.7408
世徳	-11.7414
失徳	-11.7419
全詩	-11.7421
昬禮	-11.7423
一例	-11.7439
形狀	-11.7439
矣而猶	-11.7442
周公召公	-11.7447
中候	-11.7451
五兵	-11.7454
其成功	-11.7458
救亂	-11.7458
夸毗	-11.7458
互言之	-11.7458
畿外	-11.7461
秦穆	-11.7465
先聖	-11.7466
自勉	-11.7466
二十三	-11.7467
叶職韻	-11.7467
吁嗟	-11.7472
頥	-11.7474
惸	-11.7474
梯	-11.7474
逝我梁	-11.7475
新安胡氏曰	-11.7475
鱨鯊	-11.7477
楅	-11.7477
車輪	-11.7477
湄	-11.7477
袺	-11.7478
豈不懐歸	-11.7478
之歡心	-11.7479
伉	-11.7479
喪禮	-11.7479
中心是悼	-11.7479
織組	-11.7479
舞大武	-11.748
袢	-11.748
以雅以南	-11.748
脈	-11.748
獻子	-11.7481
文王之道	-11.7481
宼虐	-11.7481
正考父	-11.7482
桃之夭夭	-11.7482
無可疑者	-11.7483
驅逆之車	-11.7483
古公亶父	-11.7483
報以介福萬壽無疆	-11.7483
道化	-11.7483
薈蔚	-11.7483
赤舄几几	-11.7484
菀栁	-11.7484
迥	-11.7484
褰	-11.7486
性好	-11.7487
郢	-11.7487
天氣	-11.7487
韎韋	-11.7487
蒯	-11.7487
聞其聲	-11.7488
蓐	-11.7488
右扶風	-11.749
素韠	-11.749
好逑	-11.7491
東方朔	-11.7491
鏄	-11.7492
凶荒	-11.7492
采詩	-11.7492
光輝	-11.7494
巾反	-11.7497
死麕	-11.7499
炎帝	-11.75
栗栗	-11.75
與天合	-11.75
舉醻	-11.7504
髙辛	-11.7505
鱒魴	-11.7505
垂帶	-11.7506
序云刺	-11.751
姓名	-11.7513
都鄙	-11.7514
啓行	-11.7517
李氏云	-11.7517
尊貴	-11.7518
程子云	-11.752
三十一年	-11.7523
不見荅	-11.7527
信䜛	-11.7529
習俗	-11.7529
長逺	-11.753
合流	-11.7534
車軸	-11.7536
淵深	-11.7542
東遷後	-11.7543
桑土	-11.7545
内轡	-11.7546
美材	-11.7547
毛詩集解卷	-11.7549
詩卷第	-11.755
待洛	-11.7556
金錫	-11.7557
氣勢	-11.7557
來假	-11.756
戍申	-11.7561
家法	-11.7561
羣公子	-11.7562
世本云	-11.7564
豈獨	-11.7565
賦而興	-11.7566
婦功	-11.7573
見逐	-11.7574
致力	-11.7577
縫中	-11.7578
王逸	-11.758
未審	-11.7582
與之謀	-11.7585
五章六章	-11.7589
藉田	-11.7603
百夫之	-11.7605
首二章	-11.7608
遷豳	-11.761
與之俱	-11.7614
蜤	-11.7614
徐土	-11.7617
襢	-11.7619
拮据	-11.7624
惑于	-11.7624
歇	-11.7626
懸瑱	-11.7626
曀曀	-11.7628
孔疏引	-11.7628
為狄所滅	-11.7629
交龍為旂	-11.7629
肱	-11.763
鴥彼飛隼	-11.7631
冦虐	-11.7631
斫	-11.7631
衽	-11.7631
挈壺氏	-11.7632
瞻卬昊天	-11.7632
阮徂共	-11.7632
价	-11.7632
有虞氏	-11.7632
委蛇委蛇	-11.7632
佩觿	-11.7632
飧	-11.7633
展誠也	-11.7633
鶩	-11.7633
愴	-11.7633
俞	-11.7633
瑲	-11.7633
齧	-11.7633
斑鳩	-11.7634
王事多難	-11.7634
芬芳	-11.7634
菶菶萋萋	-11.7634
適子之館兮還予授子之粲兮	-11.7635
畦	-11.7635
孳	-11.7635
媾	-11.7635
刑于寡妻	-11.7635
教民稼穡	-11.7636
亦可通	-11.7636
虢石父	-11.7637
切磋琢磨	-11.7637
畿内諸侯	-11.7638
貞靜	-11.7638
滎澤	-11.7638
緇布	-11.7639
斵	-11.764
負荷	-11.7641
貸	-11.7641
鷩	-11.7641
八簋	-11.7642
糜	-11.7642
冠緌	-11.7642
雞棲	-11.7643
休戚	-11.7645
茅秀	-11.7646
夾漈	-11.7646
荼蓼	-11.7647
張揖	-11.7647
元舅	-11.7649
晚矣	-11.765
粟米	-11.7651
􁀙	-11.7651
鮮明貌	-11.7653
邶鄘衞	-11.7656
玁狁之故	-11.7657
二米	-11.7661
若是其	-11.7663
嚴坦叔曰	-11.7664
媚愛	-11.7664
韻讀如	-11.7666
安得而不	-11.7667
宋桓公	-11.7668
心志	-11.7669
左襄	-11.7671
並舉	-11.7672
鳥䑕	-11.7673
入門	-11.7674
不敢忘	-11.7675
元氣	-11.7679
車馬之盛	-11.7679
香氣	-11.768
大毛公	-11.768
交際	-11.7681
孝弟	-11.7683
成禮	-11.7684
蒼蠅	-11.7685
出門	-11.7685
可謂善	-11.7696
衞武公	-11.7698
五教	-11.7701
祭天地	-11.7704
羽舞	-11.7704
職韻	-11.7704
告君	-11.7705
遇雨	-11.7706
西征	-11.771
韓愈	-11.7712
絶句	-11.7715
岡陵	-11.7718
孝公	-11.7722
楚茨篇	-11.7723
采葑	-11.7723
曹氏云	-11.7725
省視	-11.773
五路	-11.7732
進賢	-11.7733
思其君子	-11.7738
所任	-11.7739
治道	-11.7744
嵩	-11.775
情欲	-11.7755
居攝	-11.7756
郭璞註	-11.776
相保	-11.776
隠公	-11.7763
今攷	-11.7768
昭于天	-11.777
顯著	-11.777
史遷	-11.7773
未有室家	-11.7775
蘝	-11.7778
俶載南畝	-11.7779
鎧	-11.778
一書	-11.7783
忘我	-11.7783
雷霆	-11.7783
蛇蛇	-11.7784
恢	-11.7784
鵓鳩	-11.7784
芣	-11.7785
濟濟蹌蹌	-11.7785
戁	-11.7785
櫻	-11.7785
鰋鯉	-11.7786
王事靡盬憂我父母	-11.7786
自古有年	-11.7786
司嗇	-11.7786
閔其君子	-11.7786
徳性	-11.7786
詵詵	-11.7786
秸	-11.7787
惨	-11.7787
鰋鮎	-11.7788
栝樓	-11.7788
肈	-11.7788
抱朴子	-11.7788
流彘	-11.779
蓁蓁	-11.779
斷章取義	-11.7793
猥	-11.7793
腊	-11.7794
匪報也永以為好也	-11.7794
干祿	-11.7795
詒遺	-11.7795
鄉黨	-11.7795
町	-11.7795
三事大夫	-11.7795
嘏主人	-11.7796
板板	-11.7796
菟絲	-11.7796
淺陋	-11.7797
無聊	-11.7797
感悟	-11.7805
蕭蕭	-11.7805
戒農官	-11.7805
江水	-11.7806
立是為	-11.7809
畝丘	-11.781
差擇	-11.781
送迎	-11.7813
眷顧	-11.7813
豈不知	-11.7813
悠久	-11.7816
咸陽	-11.7817
蠻方	-11.7817
喻小人	-11.7819
采取	-11.782
何耶	-11.7821
第二章	-11.7824
祭社稷	-11.7824
職掌	-11.7824
引爾雅	-11.7828
哀樂	-11.783
海内	-11.7832
有常度	-11.7835
訓釋	-11.7835
而後能	-11.7843
箋義	-11.7845
逺慮	-11.7846
正寢	-11.7854
六孔	-11.7856
詩人本	-11.7856
高祖	-11.7857
歸附	-11.7863
驅馳	-11.7864
左翼	-11.7865
少牢饋食	-11.7866
豳民	-11.7866
禽經云	-11.7873
喪亡	-11.7874
忝	-11.7875
魯地	-11.7875
岐下	-11.7878
諸侯之朝	-11.7879
但見其	-11.7882
有菀	-11.7886
永久	-11.7888
此二詩	-11.7889
賦體	-11.7899
揖讓	-11.79
箕星	-11.7901
平王時	-11.7905
冬祭	-11.7908
見於詩	-11.7909
逺聞	-11.791
未可信	-11.7911
如濡	-11.7915
錫福	-11.7917
親族	-11.7917
王之爪牙	-11.7918
凄凄	-11.7932
鶪	-11.7932
人而無儀	-11.7934
學詩者	-11.7935
無非無儀	-11.7935
鞅掌	-11.7936
將安將樂	-11.7936
每懷靡及	-11.7936
瀾	-11.7937
鴂	-11.7937
瞭	-11.7938
尰	-11.7938
吹沙	-11.7938
王于興師	-11.7938
斤斤	-11.7939
兢兢業業	-11.7939
不遑啓處	-11.794
簪	-11.794
皇王烝哉	-11.794
啄粟	-11.794
爪牙	-11.794
氿泉	-11.7941
熒	-11.7941
讙譁	-11.7941
儦儦	-11.7942
懦	-11.7942
武王烝哉	-11.7942
逷	-11.7943
飛戾天	-11.7943
故詩以	-11.7944
澤及四海	-11.7944
藾蕭	-11.7945
韌	-11.7945
無算爵	-11.7945
魴鱮	-11.7946
壠	-11.7946
擲	-11.7947
郭云今	-11.7947
沖	-11.7947
六尺六寸	-11.7947
恰	-11.7948
吟咏	-11.7948
太和	-11.7948
隤	-11.7948
惠順也	-11.7949
泥塗	-11.7949
鑊	-11.7949
遞	-11.7949
衝牙	-11.795
妯	-11.795
不自為政	-11.795
而不怨	-11.795
放恣	-11.795
司右	-11.7951
尹吉	-11.7951
甿	-11.7951
㳫	-11.7951
城朔方	-11.7952
愚謂此	-11.7952
平上通韻	-11.7952
兒齒	-11.7953
倒置	-11.7953
箋云此言	-11.7955
滮池	-11.7955
優柔	-11.7958
居東二年	-11.7959
連文	-11.796
漢武帝	-11.7963
莪蒿	-11.7964
奏大武	-11.7964
紫赤	-11.7966
涂	-11.7966
涇州	-11.7968
何𤣥子曰	-11.7971
徳化	-11.7972
九寸	-11.7973
三恪	-11.7976
輔廣	-11.798
說苑	-11.7981
窮困	-11.7983
先王之道	-11.7987
天地之間	-11.7988
合歡	-11.7989
與之相	-11.7989
夫人之徳	-11.7989
故作此詩以	-11.799
比體	-11.7991
在涇	-11.7991
莎草	-11.7991
肯來	-11.7995
報祭	-11.7995
通雅	-11.8002
州長	-11.8002
詞意	-11.8003
青黑	-11.8013
從獻	-11.8021
干舞	-11.8022
釀酒	-11.8033
詩㫖	-11.8036
遺忘	-11.8037
相背	-11.8049
託於	-11.8058
安天下	-11.8058
茂草	-11.8062
州人謂之	-11.8063
水經注云	-11.8063
百一十	-11.8066
鯋	-11.8075
微賤	-11.8075
季歴	-11.8085
之盛如此	-11.8085
;	-11.8087
桑扈竊脂	-11.8087
猗儺	-11.809
接續	-11.809
熲	-11.8092
女子有行	-11.8093
穰穰	-11.8093
唪唪	-11.8095
唈	-11.8095
王后烝哉	-11.8096
倅	-11.8096
臠	-11.8096
鑿矣	-11.8096
椽	-11.8097
幠	-11.8097
虺虺	-11.8098
四牡孔阜	-11.8098
文王伐崇	-11.8098
積柴	-11.8098
掊	-11.8098
駑馬	-11.8099
㑹齊侯于	-11.8099
危亂	-11.81
青桐	-11.8101
貛	-11.8101
嘵嘵	-11.8101
艽野	-11.8101
詘	-11.8101
三分天下有其二	-11.8102
陸農師謂	-11.8102
杜子春	-11.8103
蹻	-11.8103
吕氏家塾讀詩記卷第	-11.8103
申甫	-11.8103
森	-11.8103
困病	-11.8104
棲棲	-11.8105
式序在位	-11.8105
彼姝者子	-11.8105
饔餼	-11.8105
釃	-11.8105
烘	-11.8106
槲	-11.8107
峨	-11.8107
訧	-11.8107
訝	-11.8107
鷩冕	-11.8109
燕同姓	-11.8109
對舉	-11.8109
拜稽首	-11.811
郊祀天地	-11.811
男女失時	-11.811
平去通韻	-11.811
絰	-11.811
南方之原	-11.8111
犧牲	-11.8112
瀰瀰	-11.8112
蔕	-11.8114
霜露	-11.8114
信任	-11.8114
成王即政	-11.8114
遊蕩	-11.8115
錞	-11.8115
蜋蜩	-11.8118
八蜡	-11.8118
叶尼	-11.8119
太平之時	-11.8121
成洛邑	-11.8121
禄父	-11.8122
祖謙	-11.8124
水涯	-11.8124
左傳注	-11.813
不素餐	-11.8133
亂離	-11.8136
係於	-11.8141
淫昏	-11.8147
不囘	-11.8147
衆士	-11.8147
諸侯之服	-11.8149
出涕	-11.8153
敬慎威儀	-11.8156
詳味	-11.8159
熟讀	-11.8159
豫章	-11.8162
李巡	-11.8176
允信	-11.8177
東房	-11.8179
四時之祭	-11.8183
大蜡	-11.8189
任事	-11.8192
兩手	-11.8195
吕氏春秋云	-11.8195
夙興	-11.8206
御史	-11.8209
齊魯韓	-11.821
樂胥	-11.8212
刺晉	-11.8216
貢賦	-11.822
諸友	-11.8221
朋友之義	-11.8227
曰美哉	-11.8238
五百里	-11.8246
以豉	-11.8248
鍭	-11.8249
可喜	-11.8251
存心	-11.8251
疧	-11.8252
官守	-11.8253
刑政	-11.8254
罪人斯得	-11.8255
宗伯	-11.8256
緊	-11.8257
畇畇	-11.8258
杝	-11.8258
匝	-11.8258
壓	-11.8259
各奏爾能	-11.8259
槮	-11.8259
驒	-11.8259
武人東征	-11.826
狥	-11.826
寗	-11.826
煒	-11.826
崇侯虎	-11.826
欒欒	-11.826
春日遲遲	-11.8261
鸎	-11.8261
熄	-11.8261
未堪家多難	-11.8261
執訊獲醜	-11.8261
采蘩祁祁	-11.8262
贏	-11.8262
罦	-11.8262
礱	-11.8262
蘡薁	-11.8262
川谷	-11.8262
蜚	-11.8262
有赤白	-11.8262
邅	-11.8263
敞	-11.8263
愷悌	-11.8263
犂	-11.8264
祀事孔明	-11.8264
蟲飛薨薨	-11.8264
杯	-11.8264
崔靈恩集注	-11.8264
遣戍	-11.8264
琛	-11.8265
枸檵	-11.8265
無思不服	-11.8265
㤙	-11.8265
吿	-11.8265
頏	-11.8266
大阜	-11.8266
瓝	-11.8266
令聞不已	-11.8267
洸洸	-11.8267
淚	-11.8267
虫	-11.8267
屢盟	-11.8267
勸以義	-11.8268
東西南北	-11.8268
蓬蒿	-11.8269
變風變雅	-11.827
月令仲夏	-11.827
旟旐	-11.827
菽麥	-11.827
倉廩	-11.827
簠	-11.8271
醬	-11.8271
天運	-11.8271
殊異	-11.8272
甯	-11.8273
竹書紀年	-11.8273
兵革不息	-11.8273
鍾鼔	-11.8275
各别	-11.8277
承上章而言	-11.8277
獻羔	-11.8277
楡	-11.8277
鵜鶘	-11.828
呼父母	-11.8281
後世子孫	-11.8282
室家之道	-11.8282
執熱	-11.8285
荆葵	-11.8286
黄鍾	-11.8286
有三種	-11.8291
頌磬	-11.8291
君臣父子	-11.8293
田間	-11.8293
南宫	-11.8295
己意	-11.8298
蒙戎	-11.8299
日進	-11.8304
緝續	-11.8304
困苦	-11.8305
孔疏謂	-11.8313
楚邱	-11.8314
人情之所	-11.8315
樂工	-11.8315
同僚	-11.8316
師曠	-11.8319
郝氏	-11.8319
毛曰興也	-11.8322
神祗	-11.8325
可否	-11.8335
衰薄	-11.8337
引詩作	-11.8341
早起	-11.8342
文武成康之	-11.8342
大武之樂	-11.8343
祭統云	-11.8344
在途	-11.8346
緯書	-11.8352
州吁弑	-11.8353
小學	-11.8355
忍心	-11.8356
卒嵗	-11.8359
韻補	-11.8367
羊桃	-11.8368
必須	-11.8371
養父母	-11.8372
定本云	-11.8372
有娀氏	-11.8375
甚詳	-11.838
降下也	-11.838
然茂盛	-11.8382
知之矣	-11.8385
父祖	-11.8393
何氏謂	-11.8394
鄭忽	-11.8394
七星	-11.8395
三詩皆	-11.8405
學士	-11.8407
豳七月	-11.8411
徒衆	-11.8412
朄	-11.8416
百步	-11.8416
㴱	-11.8416
受祖	-11.8416
㦲	-11.8417
驈	-11.8417
下孟	-11.8418
晰	-11.8419
値	-11.842
荓蜂	-11.842
羗	-11.842
蟋蟀在堂	-11.842
怖	-11.8421
掤	-11.8421
滂	-11.8421
犴	-11.8421
攪	-11.8421
駿厖	-11.8422
饇	-11.8422
蹶蹶	-11.8422
弁師	-11.8422
雉鳴求其牡	-11.8422
隩	-11.8422
愒	-11.8423
還定安集	-11.8423
夙早也	-11.8423
緇衣羔裘	-11.8424
兕觥其觩	-11.8425
斲	-11.8425
罿	-11.8425
婦人謂嫁曰歸	-11.8426
隻	-11.8426
呈	-11.8426
吟詠	-11.8426
耿耿	-11.8427
樂得淑女	-11.8427
葅醢	-11.8427
婆	-11.8427
東莱	-11.8427
䲭	-11.8427
不績其麻	-11.8427
栝	-11.8428
㑹朝	-11.8428
幡	-11.8428
麴	-11.8428
呦呦	-11.8428
栢舟	-11.8428
扱	-11.8428
具俱也	-11.8429
桑中要我乎上宫送我乎淇之上矣	-11.8429
鑄	-11.8429
先祖是皇	-11.8429
二王後	-11.8429
爰及	-11.8429
慆慆	-11.8429
躡	-11.843
逝往也	-11.843
螟螣	-11.843
軝	-11.8431
援神契	-11.8431
薊	-11.8431
隄	-11.8432
槄	-11.8432
喚	-11.8432
皦	-11.8433
藏冰	-11.8433
壽考不忘	-11.8433
網罟	-11.8433
於太廟	-11.8433
鼛鼓	-11.8433
后妃夫人	-11.8433
上去通韻	-11.8434
韐	-11.8434
投壺	-11.8434
煁	-11.8434
鉏里	-11.8434
樂而不淫	-11.8434
窠	-11.8435
乖戾	-11.8435
誡	-11.8436
聚斂	-11.8437
塞淵	-11.8437
荒蕪	-11.8438
䪐	-11.8438
甗	-11.8438
瓦器	-11.8438
伏羲	-11.8439
迫逐	-11.8439
營宫室	-11.8439
藹然	-11.844
祈社稷	-11.844
運斗樞	-11.8441
寝廟	-11.8442
蕚	-11.8443
暴疾	-11.8443
儀容	-11.8445
強暴	-11.8447
山頂	-11.845
火田	-11.8451
苟且	-11.8453
支離	-11.8453
丹朱	-11.8453
趨利	-11.8456
徃徃	-11.8456
稷黍	-11.8457
儼然	-11.8457
辛苦	-11.8459
宜其室家	-11.846
兼比	-11.8472
錦文	-11.8474
告戒	-11.8475
千五百	-11.8475
舊解	-11.8477
愛惜	-11.8479
二十六	-11.8485
天錫	-11.8488
于付	-11.8492
恵公	-11.8494
畜養	-11.8499
少壯	-11.8505
少儀	-11.8507
異其名	-11.8507
古者天子	-11.8508
强盛	-11.8508
不足據	-11.8509
信宿	-11.8509
洧反	-11.8511
多端	-11.8512
不知其所	-11.8516
受王命	-11.8517
先王之法	-11.8518
七里	-11.8522
朝踐	-11.8523
整肅	-11.8527
舅氏	-11.853
失節	-11.8532
嚴父	-11.8533
德澤	-11.8537
怨怒	-11.8538
唯唯	-11.8539
愚按此詩	-11.8546
魯僖公	-11.856
河圖	-11.856
白黒	-11.8567
光武	-11.8567
果何	-11.8568
戸郎	-11.8569
並列	-11.8571
公宫	-11.8571
汾王	-11.8577
八鸞鏘鏘	-11.8585
禓	-11.8585
技	-11.8586
慾	-11.8587
騂剛	-11.8587
克昌厥後	-11.8587
牡丹	-11.8587
蕙	-11.8587
躍躍	-11.8587
率由舊章	-11.8587
吼	-11.8587
佩璲	-11.8588
毓	-11.8588
弗躬弗親	-11.8588
浹	-11.8588
忖度	-11.8588
郝敬曰	-11.8588
巖巖	-11.8589
芙蓉	-11.8589
明證	-11.859
毁廟之主	-11.859
慍	-11.859
遨遊	-11.859
劇	-11.8591
葭菼	-11.8591
誕降嘉種	-11.8591
傲慢	-11.8591
鄫	-11.8591
想像	-11.8591
蘆菔	-11.8592
能循法度	-11.8592
鞞琫	-11.8592
旄牛尾	-11.8594
肇禋	-11.8594
恠	-11.8594
此四句	-11.8595
差忒	-11.8595
蹌蹌	-11.8595
顓	-11.8595
憒	-11.8595
不敢怠遑	-11.8595
崔靈恩	-11.8596
遐逺也	-11.8596
大風有隧	-11.8596
霄	-11.8596
羅泌	-11.8596
欽定四庫全書經部三	-11.8596
冥冥	-11.8597
拓	-11.8597
荓	-11.8598
金舄	-11.8598
泊	-11.8598
樹檀	-11.8598
恐未然	-11.8599
幟	-11.86
弼鄘	-11.86
豈伊異人	-11.86
王姬之車	-11.8601
大名府	-11.8601
闡	-11.8601
纒綿	-11.8601
羅網	-11.8601
驁	-11.8601
梂	-11.8601
已焉哉	-11.8602
象弭	-11.8602
振振君子歸哉歸哉	-11.8602
像	-11.8604
鉅	-11.8604
洿	-11.8605
逓	-11.8605
荘子	-11.8605
衍義云	-11.8606
毅總	-11.8607
少昊	-11.8609
㣲弱	-11.8609
漢書地理志	-11.8609
鬲	-11.861
岐山之陽	-11.861
偕行	-11.861
齍	-11.8611
其義一也	-11.8612
南軒	-11.8618
諷王	-11.862
諸侯之師	-11.862
烹魚	-11.8621
夫子刪	-11.8622
竊嘗	-11.8624
前漢書	-11.8626
奉祭	-11.8626
瞻視	-11.8628
刺文姜	-11.8629
憂之深	-11.863
父母終	-11.8635
畏忌	-11.8636
蒲末	-11.864
程邑	-11.864
濮州	-11.8641
河南府	-11.8642
配帝	-11.8648
考牧	-11.865
寛廣	-11.865
魯莊	-11.8651
反一音	-11.8656
無忝	-11.8658
戾天	-11.8658
未得歸	-11.866
滿補	-11.8662
朱鳥	-11.8663
温温	-11.8663
車牽	-11.8665
躬行	-11.8669
衞風	-11.8676
倬然	-11.8686
欽定四庫全書毛詩集解卷	-11.8688
岐豐	-11.869
謝氏	-11.8691
臯應	-11.8696
叙其事	-11.8696
離别	-11.8703
死䘮	-11.8714
肥美	-11.8715
獻功	-11.8716
有此理	-11.8719
不匱	-11.8726
念亂	-11.8727
黨正	-11.873
一成之	-11.873
姜女	-11.873
私燕	-11.8734
盛貎	-11.8743
在沙	-11.8744
年老	-11.8745
孫士	-11.8747
㚄	-11.8753
難乃旦反	-11.8753
寁	-11.8757
于嗟麟兮	-11.8757
漑	-11.8757
捫	-11.8757
酬酢	-11.8758
渰	-11.8758
讁	-11.8758
毚	-11.8758
灃	-11.8758
嗿	-11.876
欒	-11.876
上帝甚蹈	-11.876
椘	-11.876
受禄于天	-11.8761
憖	-11.8761
將翺將翔	-11.8761
鹵	-11.8761
神降之福	-11.8761
鑿鑿	-11.8762
瞻彼淇奥	-11.8762
西南隅	-11.8762
䰞	-11.8762
震電	-11.8762
薖	-11.8763
驛	-11.8763
遨	-11.8763
歡欣	-11.8763
湝湝	-11.8763
旒縿	-11.8763
受福無疆	-11.8763
保其身	-11.8763
辛卯	-11.8763
洵信也	-11.8764
樔	-11.8764
絹	-11.8764
驛驛	-11.8765
無冬無夏	-11.8765
成王之孚	-11.8765
梴	-11.8766
聳	-11.8766
濰	-11.8766
綱紀四方	-11.8767
郝仲輿	-11.8768
暢轂	-11.8768
箋正義	-11.8769
型	-11.8769
襮	-11.8769
慇慇	-11.8769
嶭	-11.8769
北亳	-11.877
内小臣	-11.877
惸獨	-11.8771
烟	-11.8772
敔	-11.8773
蛣	-11.8776
選擇	-11.8776
江湖	-11.8776
牆屋	-11.8776
膏澤	-11.878
濟水	-11.8782
服飾之盛	-11.8783
蔓草	-11.8783
奄息	-11.8785
不我顧	-11.8787
揆度	-11.879
哲婦	-11.879
貝錦	-11.8791
尋繹	-11.8792
愛慕	-11.8794
良善也	-11.8794
毛鄭之說	-11.8795
釋畜云	-11.8799
强弱	-11.88
各從其	-11.88
車一乗	-11.8803
貴族	-11.8805
玉路	-11.8807
聖人之化	-11.8807
商紂	-11.8809
市由	-11.8812
忠孝	-11.8813
敎民	-11.8813
僖侯	-11.8814
河西	-11.8816
邪辟	-11.8818
郊社	-11.8825
東方明	-11.8826
迫切	-11.8832
㑹聚	-11.8833
文武之功	-11.8835
小宰	-11.8836
烝衆也	-11.8836
祈報	-11.8837
鳥飛	-11.8842
建鼓	-11.8844
檜風	-11.8846
蠐螬	-11.8846
王莽	-11.8849
不失職	-11.8863
南越	-11.8864
詩之體	-11.8878
来朝	-11.8891
流連	-11.8893
滌滌	-11.8896
句法	-11.8898
水溢	-11.8899
文王曰咨咨女殷商	-11.89
告神明	-11.8903
周語云	-11.8903
以騶虞為	-11.8904
伯益	-11.8911
其宜也	-11.8912
無算	-11.8913
籍田	-11.8914
在鎬京	-11.8916
初昏	-11.8919
海邦	-11.8925
輯録解頥曰	-11.8926
阼	-11.8926
噲	-11.8927
饛	-11.8927
蓱	-11.8928
陳啓源曰	-11.8928
喓喓	-11.8929
仞	-11.893
腔	-11.8931
訕	-11.8931
苟亦無然	-11.8932
趙盾	-11.8932
刺晉昭公也	-11.8932
􁈞	-11.8932
髲	-11.8932
㭬	-11.8933
温柔敦厚	-11.8933
谿	-11.8933
翶翔	-11.8934
褻	-11.8934
禆	-11.8934
奐	-11.8934
歧	-11.8934
餳	-11.8935
挫	-11.8935
奄有下國	-11.8935
狐白裘	-11.8936
喉舌	-11.8936
帖	-11.8936
似續妣祖	-11.8937
淠	-11.8937
麒麟	-11.8937
臧善	-11.8937
朂	-11.8938
侣	-11.8938
赳赳	-11.8938
是用大諫	-11.8938
報賽	-11.8938
孥	-11.8939
召誥	-11.894
勿替	-11.894
文王陟降在帝左右	-11.894
邦畿	-11.894
四方既平	-11.8941
竽	-11.8941
邪幅	-11.8941
朱綅	-11.8942
四尺四寸	-11.8942
名山大川	-11.8943
矛㦸	-11.8943
椿	-11.8943
威儀反反	-11.8943
嫩	-11.8943
費誓	-11.8943
講武類禡	-11.8944
先薦寢廟	-11.8944
詩補傳卷	-11.8944
從夏南	-11.8945
碧	-11.8946
之上濁	-11.8946
鷃	-11.8946
揷	-11.8947
武宿夜	-11.8949
以為酒食	-11.895
式法也	-11.8953
諸娣	-11.8957
詩作於	-11.8957
陶隱居云	-11.8959
二十三年	-11.896
太僕	-11.8961
所能及	-11.8964
孤特	-11.8965
陶唐	-11.8974
毛傳訓	-11.8974
互易	-11.8975
失其道	-11.8978
厲王之世	-11.8978
文武受命	-11.8979
小子侯	-11.898
從征	-11.8981
此詩所言	-11.8982
籩實	-11.8982
暑退	-11.8983
甘雨	-11.8987
太過	-11.8989
淫威	-11.8989
今江東	-11.8992
申吕	-11.8996
依附	-11.8997
爵弁服	-11.8998
左手	-11.9001
對揚	-11.9005
孤立	-11.9009
榖梁	-11.901
五嶽	-11.9011
從事於	-11.9015
厚薄	-11.9017
被棄	-11.9018
恭順	-11.902
長舌	-11.9034
潔清	-11.9038
召康公戒成王	-11.9045
食粟	-11.9045
請妻	-11.9046
驪馬	-11.905
甫草	-11.9061
敬戒	-11.9068
縱欲	-11.9071
鄭莊公	-11.9071
坐視	-11.9073
方舟	-11.9076
按說文	-11.9079
自從也	-11.9081
見於經	-11.9081
陶隠居	-11.9082
幽深	-11.9083
不稱其服	-11.9084
釃酒	-11.909
盛飾	-11.9096
之不若也	-11.9099
爾雅又云	-11.9099
䔰	-11.9099
狭	-11.91
虓	-11.91
茂盛貌	-11.9101
紲袢	-11.9101
慅	-11.9103
鍚	-11.9103
紐	-11.9103
正大夫離居	-11.9105
子有衣裳	-11.9105
固未嘗	-11.9105
终	-11.9106
寃	-11.9107
定本集注	-11.9108
女嫁	-11.9108
課	-11.9108
盪	-11.9108
役使不均	-11.9108
有女如玉	-11.9108
胡逝我梁	-11.9108
畞	-11.9109
宜民宜人	-11.9109
瑲瑲	-11.9109
企	-11.9109
維子之故	-11.911
日月告凶	-11.911
狁	-11.911
祀文王於明堂	-11.911
播厥百穀	-11.9111
鑣鑣	-11.9111
袵	-11.9111
闈	-11.9112
蠑螈	-11.9112
臨衝	-11.9112
濟濟多士	-11.9112
戡	-11.9113
徼	-11.9113
嗟乎不承權輿	-11.9114
茷茷	-11.9114
我疆我理	-11.9114
禕	-11.9114
歐陽子曰	-11.9114
呌	-11.9114
故連言之	-11.9115
鰱	-11.9115
蟄蟄	-11.9115
月令季冬	-11.9115
漙	-11.9116
烝畀祖妣	-11.9116
枹	-11.9117
涵泳	-11.9117
比而賦	-11.9117
介爾景福	-11.9117
孝子行役	-11.9117
侵阮	-11.9117
怨而不怒	-11.9118
毛詩稽古編卷	-11.9118
惜乎	-11.9119
月恭校上總纂	-11.9119
伐鼛	-11.9119
輯録嚴氏曰	-11.912
毛傳興也朱註同	-11.912
昀	-11.9121
陛下	-11.9124
旱災	-11.9124
高辛氏	-11.9124
髙朗	-11.9126
鼓簧	-11.9129
宗尊也	-11.9129
丘阿	-11.913
戾至也	-11.9132
龜蒙	-11.9133
豹飾	-11.9134
僕掌	-11.9139
蔀	-11.9141
古音考音	-11.9141
抑揚	-11.9145
宋儒	-11.9149
之遺民	-11.9154
歆饗	-11.9156
羔羊之皮	-11.9158
策命	-11.9158
鯉魚	-11.9159
選徒	-11.916
類甚多	-11.9161
丘陵	-11.9163
恩義	-11.9163
辯説	-11.9163
此詩作於	-11.9166
伯恭	-11.9168
謀慮	-11.917
甫大也	-11.9176
縱横	-11.9185
歸之於天	-11.9206
月令仲春	-11.9207
抱子	-11.9225
駜	-11.9225
蒐田	-11.9226
無愧於	-11.9227
深蒲	-11.9231
陳祥道	-11.9234
叶真韻	-11.9236
吕東萊	-11.9238
登歌	-11.9242
北林	-11.9243
賢人君子	-11.9249
訖力	-11.9254
西河	-11.9255
可笑	-11.9257
無此意	-11.9257
二十年	-11.9267
復歸	-11.9267
齊姜	-11.9269
二南之詩	-11.9277
弢	-11.9277
今我不樂	-11.9282
縝	-11.9283
十有一	-11.9283
歇驕	-11.9284
媟	-11.9284
曜	-11.9285
薫	-11.9285
敢不拜	-11.9286
稹	-11.9286
闔	-11.9287
妒	-11.9287
獺	-11.9287
曰歸曰歸	-11.9288
薿	-11.9288
謹荷	-11.9289
教成之祭	-11.9289
既醉既飽	-11.9289
涕泣	-11.9289
寇虐	-11.9289
臺笠緇撮	-11.9289
下上其音	-11.9289
四牡彭彭	-11.9289
糦	-11.9289
不醉無歸	-11.929
縂	-11.929
隕墜	-11.929
文侯之命	-11.929
諄	-11.929
我生之初	-11.929
司馬相如	-11.9291
訾	-11.9291
晦菴	-11.9291
帝王世紀	-11.9292
疵	-11.9292
秀葽	-11.9292
妍	-11.9292
翟茀	-11.9292
逸周書	-11.9293
悔恨	-11.9293
駕彼四牡	-11.9293
淑姬	-11.9293
岐山之下	-11.9293
工祝致告	-11.9293
耋	-11.9294
定本作	-11.9294
翠	-11.9294
蔣	-11.9294
酌醴	-11.9295
憂之甚	-11.9295
周禮籥章	-11.9295
鎭	-11.9296
酬幣	-11.9296
亘	-11.9296
宗彛	-11.9297
裼衣	-11.9298
毛炰	-11.9298
傾覆	-11.9299
薄言采芑	-11.9299
閎夭	-11.9301
中冓之言	-11.9302
雷電	-11.9302
鄰里	-11.9303
伊川	-11.9305
徤	-11.9305
璂	-11.9305
㮚	-11.9306
屏蔽	-11.9306
璋瓚	-11.9307
韋弁服	-11.9308
軷祭	-11.9308
太公望	-11.9308
甚病	-11.9312
未晞	-11.9312
爰爰	-11.9312
大射儀	-11.9312
淮徐	-11.9314
歩卒	-11.9314
假借	-11.9316
后稷肇祀	-11.9318
奉王命	-11.932
釋天云	-11.9322
乘舟	-11.9325
太子忽	-11.9325
十二里	-11.9326
終三十里	-11.9327
仇方	-11.9328
朱英	-11.933
夏桀	-11.9331
穆姬	-11.9333
所不取	-11.9339
矇瞍	-11.9343
酒殽	-11.9344
七襄	-11.9344
田疇	-11.9344
唯恐	-11.9353
初筵	-11.9356
祀郊禖	-11.9359
兗州	-11.9359
載始也	-11.936
陸本作	-11.9367
金石	-11.9369
譬彼	-11.9369
聖人存	-11.9369
序以為刺	-11.937
顔師古云	-11.9374
主人獻	-11.9377
職云凡	-11.938
苾芬	-11.9381
所係	-11.9382
父母先祖	-11.9383
一叚	-11.9385
懐春	-11.9387
耕種	-11.9387
慰安	-11.9395
何自而	-11.9395
儀刑	-11.9396
項氏	-11.9403
淺近	-11.9404
昭伯	-11.9407
氏之女	-11.9408
山隰	-11.9411
心之憂	-11.942
圖謀	-11.9422
其車服	-11.9425
爾雅翼云	-11.9427
封康叔	-11.9429
炰烋	-11.9429
有益於	-11.9434
濟渡	-11.9435
田甫田	-11.9451
田狩	-11.9454
風俗通	-11.9456
餤	-11.9456
檾	-11.9458
藕	-11.9459
衘	-11.9462
仳	-11.9463
迓	-11.9464
梀	-11.9465
穽	-11.9465
漼	-11.9465
陸氏璣曰	-11.9465
魚在在藻	-11.9466
不自我先不自我後	-11.9466
每有良朋	-11.9466
姥	-11.9467
蜺	-11.9468
萋斐	-11.9468
闕翟	-11.9468
造舟為梁	-11.9468
百世不遷	-11.9469
雨雪霏霏	-11.947
六月徂暑	-11.947
蹤	-11.947
伾伾	-11.947
燕朋友故舊	-11.947
在河之洲	-11.9471
糠	-11.9471
緵	-11.9471
娓	-11.9471
伐大商	-11.9471
床	-11.9471
謳	-11.9471
爓	-11.9471
理或然也	-11.9471
鞃	-11.9472
雨我公田遂及我私	-11.9472
弓矢斯張	-11.9472
慙	-11.9472
我心寫兮	-11.9472
天子之學	-11.9472
揵	-11.9473
閩	-11.9473
菴	-11.9473
儉不中禮	-11.9473
翛	-11.9473
明明在下	-11.9473
叶有韻	-11.9474
未知孰是	-11.9474
琢磨	-11.9474
螘	-11.9475
綫	-11.9475
纏	-11.9475
俯仰	-11.9475
穿屋	-11.9475
繄	-11.9476
求賢審官	-11.9477
姜嫄之廟	-11.9477
王室如燬	-11.9478
有一毫	-11.9478
顚覆	-11.9478
以作六師	-11.9478
模	-11.9478
蕑	-11.9479
十五國風	-11.9479
儀式刑	-11.9479
繡黼	-11.948
菼薍	-11.948
紫赤色	-11.948
諸盩	-11.9481
瓊瑰	-11.9481
禹貢徐州	-11.9482
勞歸士	-11.9482
溱與洧	-11.9482
詵	-11.9482
殺太子	-11.9483
芘芣	-11.9483
髳	-11.9483
威儀技藝	-11.9483
明馮復京撰	-11.9485
克能也	-11.9485
鮥	-11.9486
動股	-11.9486
規諫	-11.9486
授几	-11.9486
譚大夫	-11.9487
真氏曰	-11.949
周自后稷	-11.9491
高辛	-11.9492
並進	-11.9493
鴽	-11.9495
雒邑	-11.9498
廬舍	-11.9499
陶隠居云	-11.95
九圍	-11.9502
徒役	-11.9507
鄉飲	-11.9509
嵩髙	-11.951
惡菜	-11.9512
日瘁	-11.9512
粒食	-11.9513
白斾	-11.9518
朱色	-11.9525
儀刑文王	-11.9528
雉門	-11.9535
佼好	-11.9536
南亳	-11.9539
鸞鑣	-11.9541
男女淫奔	-11.9548
杜伯	-11.9549
茹度	-11.9551
不畏明	-11.9553
許嫁	-11.9557
五刀	-11.9562
安逸	-11.9569
洵美且	-11.9575
十餘年	-11.9584
蜩螗	-11.9589
新邑	-11.9592
安静	-11.9601
得詩意	-11.9602
玉佩	-11.9607
孔頴逹	-11.961
十有五	-11.9618
縣界	-11.9629
􁀾	-11.9634
輶	-11.9636
美菜	-11.9638
褓	-11.9641
絇	-11.9642
三百里	-11.9645
大音泰	-11.9648
臬	-11.9649
不入我門	-11.9649
蒲坂	-11.9649
赫赫業業	-11.965
皎皎白駒	-11.965
騑騑	-11.965
懮	-11.965
掘閲	-11.9651
為公子裘	-11.9652
有兔斯首	-11.9652
在廟中	-11.9652
様	-11.9652
恍	-11.9653
此邦之人	-11.9653
周道如砥	-11.9654
王氏應麟曰	-11.9654
有匪君子	-11.9654
集于苞栩	-11.9654
㳟	-11.9654
葱珩	-11.9654
莤	-11.9655
靖共爾位	-11.9655
楨幹	-11.9655
䦧	-11.9655
陸氏徳明曰	-11.9655
塜	-11.9655
禫	-11.9655
址	-11.9656
古音考	-11.9656
練冠	-11.9656
時周之命	-11.9656
堤	-11.9656
祀先王先公	-11.9656
百里奚	-11.9656
乍	-11.9657
八月萑葦	-11.9657
腦	-11.9657
勗	-11.9658
涔	-11.9658
盲	-11.9658
樂且有儀	-11.9659
東徙渡河	-11.9659
洸	-11.966
翯	-11.966
煢	-11.966
疆場	-11.966
昏以為期	-11.966
豻	-11.966
菶	-11.9661
佻佻	-11.9662
鵯	-11.9662
切磋	-11.9663
惻怛	-11.9663
乾坤	-11.9663
戴嬀	-11.9663
不失其聖	-11.9663
蠨蛸	-11.9663
楊用修	-11.9665
緇布冠	-11.9666
泮林	-11.9667
曽氏曰	-11.9671
鷯	-11.9672
祈祈	-11.9672
蓄積	-11.9673
耿介	-11.9677
乾豆	-11.9677
開冰	-11.9677
迷陽	-11.9679
賔筵	-11.968
曹植	-11.9682
顯允	-11.9682
狀似	-11.9684
鷮雉	-11.9685
劉公瑾云	-11.9688
周禮大宗伯	-11.9689
嚴肅	-11.969
戎狄之間	-11.9692
匐	-11.9693
源流	-11.9695
保佑	-11.9695
卒盡也	-11.9695
厲王之亂	-11.9699
後放此	-11.9701
倫理	-11.9702
繼嗣	-11.9703
互異	-11.9704
不失其馳	-11.9708
洽比	-11.971
密須	-11.9711
經歴	-11.9712
棄賢	-11.9712
樂有子	-11.9715
贈送	-11.9716
蘇頌	-11.9716
才老	-11.9717
鄭氏之說	-11.972
揖揖	-11.9721
河干	-11.9747
以漸而	-11.9748
刺宣姜	-11.9751
厭倦	-11.9766
王命南仲	-11.9767
字之誤	-11.9769
先王之制	-11.979
獲罪	-11.9792
宫廟	-11.9792
衣錦	-11.9797
得其道	-11.9808
所自來	-11.9817
穀梁	-11.9822
遏止	-11.9824
小者謂之	-11.9828
呱	-11.9832
湥	-11.9834
泮宮	-11.9835
昬椓	-11.9835
漳	-11.9836
艸木	-11.9836
邛	-11.9836
縶其馬	-11.9836
訃	-11.9836
夲或作	-11.9837
掠	-11.9837
為王前驅	-11.9837
杲	-11.9837
大王王季文王	-11.9837
婣	-11.9838
蟠	-11.9839
杞桋	-11.9839
惽怓	-11.9839
古字通用	-11.9839
喉	-11.9839
濬哲	-11.984
虞惇按此詩	-11.984
螻蛄	-11.984
𣏌	-11.984
卞	-11.9842
聮	-11.9842
在父母家	-11.9842
郝氏敬曰	-11.9842
萬里	-11.9842
匹夫匹婦	-11.9842
貃	-11.9843
殃	-11.9844
榎	-11.9844
章首二句	-11.9844
閨門之内	-11.9845
不食生物	-11.9845
擬議	-11.9845
銑	-11.9846
詣	-11.9846
仲氏任	-11.9846
斧斤	-11.9846
禾麻菽麥	-11.9846
季文子	-11.9846
求諸陽	-11.9846
撓	-11.9846
孔子刪詩	-11.9846
堆	-11.9846
奄有下土	-11.9847
求其雌	-11.9847
桑黮	-11.9847
太戊	-11.9848
嗟我婦子	-11.9848
俟俟	-11.9848
祚𦙍	-11.9848
狸	-11.9849
冢土	-11.9849
眩	-11.985
幩	-11.985
心乎愛	-11.985
訣别	-11.985
嬉	-11.985
先代之後	-11.9851
昆吾夏桀	-11.9851
藩籬	-11.9851
兩君相見之樂	-11.9851
軀	-11.9852
藐	-11.9852
子金子	-11.9852
澣濯	-11.9853
肉汁	-11.9853
舉成數	-11.9853
鄭氏詩譜	-11.9853
硬	-11.9853
酣	-11.9853
㑹男女	-11.9853
莫大于	-11.9853
月令孟冬	-11.9854
熠	-11.9854
肄習	-11.9854
郊野	-11.9855
楊栁	-11.9856
虺蛇	-11.9856
不能餐	-11.9856
追咎	-11.9856
烽	-11.9857
放逸	-11.9857
陸機	-11.9859
翟雉	-11.986
隔句	-11.9861
英荼	-11.9863
鳳皇	-11.9864
順理	-11.9867
其實一也	-11.9869
怨懟	-11.9869
口舌	-11.9871
楊舟	-11.9872
武王伐商	-11.9874
伯竒	-11.9874
周公制禮	-11.9875
維彼碩人實勞我心	-11.9875
清潔	-11.988
和諧	-11.988
百五十	-11.9886
賚予	-11.9886
皇矣篇	-11.9886
車一乘	-11.9887
憂讒	-11.9888
堂堂	-11.989
杜預注	-11.9891
後並同	-11.9891
風俗通云	-11.9892
温柔	-11.9892
笑貌	-11.9899
捋取	-11.9903
駟馬	-11.9903
禄位	-11.9904
駁馬	-11.9904
不可一日	-11.9907
賈氏	-11.9907
王安石云	-11.9908
刺榆	-11.9908
躬親	-11.9914
祖甲	-11.9914
敬之至也	-11.9916
王者之風	-11.9919
釋草文	-11.9922
魏唐	-11.9926
樂得賢	-11.9933
七百里	-11.9943
忠厚之意	-11.9951
蘭草	-11.9961
文王之聖	-11.9963
同姓諸侯	-11.9965
虞度	-11.9975
諸舅	-11.9986
吳氏	-11.9991
親蠶	-11.9993
專征	-11.9999
哺	-12.0002
奉宗廟	-12.0007
畏懼	-12.0013
輾	-12.0022
諏謀度詢	-12.0027
潧	-12.0028
羔裘豹袪	-12.0028
長張丈反	-12.0029
方伯連帥	-12.003
械	-12.0031
韣	-12.0031
罽	-12.0031
叔孫穆子	-12.0031
騋牝	-12.0031
進御於君	-12.0032
不解于位	-12.0032
峰	-12.0032
聞跡曰	-12.0033
嘌	-12.0033
胡能有定	-12.0033
莫之敢指	-12.0033
壟	-12.0033
胡氏一桂曰	-12.0033
黼黻	-12.0034
囘遹	-12.0034
帝省其山	-12.0034
牛蘈	-12.0034
宐	-12.0034
弘	-12.0034
憂深思逺	-12.0034
蠃	-12.0034
小球大球	-12.0034
鴝鵒	-12.0035
戰國䇿	-12.0035
發乎情	-12.0035
蹶厥生	-12.0035
爰居爰處	-12.0035
覊	-12.0035
賚我思成	-12.0036
率場啄粟	-12.0036
虎蜼	-12.0036
不弔昊天	-12.0036
榮夷公	-12.0036
母也天只不諒人只	-12.0036
媚于庶人	-12.0036
揔	-12.0036
温温恭人	-12.0037
播厥百榖	-12.0037
矣期我乎	-12.0037
散宜生	-12.0037
汪	-12.0037
片	-12.0038
程大昌	-12.0038
戈與祋	-12.0038
豈曰無衣	-12.0038
積行累功	-12.0038
飲之食之教之誨之命彼後車謂之載之	-12.0038
虺隤	-12.0038
依其在京	-12.0039
罩罩	-12.0039
我躬不閲遑恤我後	-12.0039
樂只君子遐不	-12.0039
賈誼新書	-12.004
嬪御	-12.004
公遷曰	-12.004
鎮圭	-12.004
以那為首	-12.004
田百畝	-12.0041
瘣	-12.0041
篤其慶	-12.0042
潞	-12.0042
參昴	-12.0042
澶	-12.0042
蒤	-12.0042
采蕭穫菽	-12.0042
或燔或炙	-12.0042
穆穆皇皇	-12.0042
衮衣繡裳	-12.0042
震疊	-12.0043
喜怒哀樂	-12.0043
之爲言	-12.0043
男女及時	-12.0044
熯	-12.0045
獄訟	-12.0046
軼	-12.0046
嘉卉	-12.0047
洒掃	-12.0047
典瑞	-12.0047
克勝也	-12.0047
尚書大傳	-12.0048
芝	-12.0048
孟津	-12.005
敖敖	-12.005
所受之	-12.0052
􁊈	-12.0054
數百年	-12.0055
東萊先生	-12.0056
牧誓	-12.0057
此與下章	-12.0058
楙	-12.0059
爪牙之士	-12.0065
繁露	-12.0067
無所逃	-12.0068
職主也	-12.0072
扶老	-12.0076
李巡云	-12.0078
送舅	-12.0079
俊士	-12.008
約束	-12.0091
享獻也	-12.0091
娛樂	-12.0095
永懐	-12.0096
賞賜	-12.0099
弗勝	-12.0103
依倚	-12.0108
采綠	-12.011
上章既言	-12.0113
百餘里	-12.0118
孔子曰吾	-12.0122
即就也	-12.013
星辰	-12.0134
勞逸	-12.0135
恤民	-12.0149
建旐	-12.0151
𤣥酒	-12.0154
山之陽	-12.0159
騂牛	-12.0164
何人哉	-12.019
國君夫人	-12.0198
姑姊	-12.0198
得其性	-12.0199
非有他	-12.0201
側巾	-12.0206
居亳	-12.0207
皐	-12.0222
才智	-12.0222
椅梓	-12.0224
咥	-12.0225
拆	-12.0225
宗彞	-12.0225
冉	-12.0226
矢如破	-12.0226
共音恭	-12.0227
膠膠	-12.0228
鸞聲噦噦	-12.0228
胡寧忍予	-12.0229
復周公之宇	-12.0229
耑	-12.0229
嵬	-12.0229
補正云	-12.0229
耆定爾功	-12.023
雋	-12.023
茵	-12.023
鏘鏘	-12.023
娠	-12.0231
鋈續	-12.0231
厭厭夜飲	-12.0231
菟	-12.0231
番番	-12.0231
實勞我心	-12.0231
庶無罪悔	-12.0232
冺	-12.0232
好賢如緇衣	-12.0232
忻	-12.0232
范氏祖禹曰	-12.0232
弓弩	-12.0232
筦	-12.0232
莭	-12.0233
轢	-12.0233
如蠻如髦	-12.0233
翮	-12.0233
謖	-12.0233
閔公二年	-12.0233
討賊	-12.0234
甕	-12.0234
匪降自天	-12.0234
駢	-12.0234
政煩賦重	-12.0234
熇熇	-12.0234
虞芮質成	-12.0234
敺	-12.0235
醓	-12.0235
韗	-12.0235
瓢	-12.0235
棲遲	-12.0235
九域志	-12.0235
慧	-12.0236
視爾如荍	-12.0236
俘	-12.0236
陟降庭止	-12.0236
蛬	-12.0236
惙惙	-12.0237
肅肅兔罝	-12.0237
簸揚	-12.0237
呻吟	-12.0238
汨	-12.0238
彌爾性	-12.0239
丸丸	-12.0239
薈	-12.0239
王錫韓侯	-12.0239
爽鳩	-12.024
自羊徂牛	-12.024
刀鞘	-12.024
本草圖經	-12.024
殞	-12.0241
怭怭	-12.0241
嬖褒姒	-12.0242
四鍭	-12.0243
𦵏	-12.0243
肥牡	-12.0243
黯	-12.0244
召伯聽訟	-12.0244
衮職	-12.0244
擘	-12.0245
篚	-12.0246
選鋒	-12.0246
冰泮	-12.0246
醜衆也	-12.0246
絶有力	-12.0246
錯雜	-12.0247
粥	-12.0247
渠略	-12.0247
奮揚	-12.0248
舜典	-12.0249
逢逢	-12.025
乃棄爾輔	-12.0253
錯簡	-12.0253
縮酒	-12.0254
以竹為之	-12.0254
不知何據	-12.0258
有文采	-12.0258
宣王北伐	-12.0259
戎翟	-12.0261
可以履霜	-12.0261
倉卒	-12.0262
除害	-12.0262
叶藥韻	-12.0262
不可不謹	-12.0263
孔氏穎達謂	-12.0265
右享	-12.0272
管管	-12.0272
菀茂	-12.0272
我心憂	-12.0273
翽翽	-12.0277
巡行	-12.0277
餱糧	-12.0283
恩惠	-12.0288
孔頴逹云	-12.0289
與鄭同	-12.0289
皇后	-12.0291
為此詩者	-12.0291
蔓于野	-12.0292
宜爾子孫	-12.0293
魚網	-12.03
除喪	-12.0301
如字徐	-12.0303
木蓼	-12.0307
市井	-12.0309
榖梁傳	-12.0317
意若曰	-12.0319
何如哉	-12.032
君臣之間	-12.032
葑菲	-12.0321
賓射	-12.0322
萬二千五百	-12.0325
錯亂	-12.0334
品物	-12.0343
比而興也	-12.0343
國無政	-12.0363
季友	-12.0364
精氣	-12.0364
義亦通	-12.0385
弨	-12.0395
武功縣	-12.0407
所資	-12.041
駉駉	-12.042
秣其馬	-12.0421
敢取是	-12.0421
將恐將懼	-12.0423
倭遲	-12.0424
餘同傳正義曰	-12.0425
配以后稷	-12.0426
訣	-12.0426
满	-12.0426
鬄	-12.0428
藁	-12.0428
懰	-12.0428
氛	-12.0429
州吁之暴	-12.0429
蔈	-12.043
絢	-12.0431
陳氏祥道	-12.0431
詩三百一言以蔽之曰思無邪	-12.0431
燔柴	-12.0432
謟	-12.0432
嘽	-12.0432
虢檜	-12.0433
蜣	-12.0433
有如此者	-12.0433
泣涕	-12.0433
敝予又	-12.0433
玁	-12.0433
悦懌	-12.0433
喟	-12.0434
禎	-12.0434
是詩三章皆賦也	-12.0434
享于祖考	-12.0434
杼柚	-12.0434
不畏彊禦	-12.0434
恝	-12.0434
竇	-12.0434
駿奔走	-12.0434
瀉	-12.0435
愽	-12.0435
摹	-12.0435
敬爾威儀	-12.0435
薌	-12.0435
擕	-12.0435
簒弑	-12.0436
斟酌	-12.0436
菡蓞	-12.0436
烝烝	-12.0437
嫉妒	-12.0437
鳥隼曰旟	-12.0437
西北隅	-12.0437
轊	-12.0438
髧	-12.0438
子太叔	-12.0438
封於邰	-12.0438
蚣蝑	-12.0438
戈矛	-12.0439
不崇朝	-12.0439
釵	-12.0439
璆	-12.0439
刺晉獻公也	-12.0439
宋桓夫人	-12.044
蒐狩	-12.044
葛覃卷耳	-12.044
覺悟	-12.0441
悽	-12.0441
艮	-12.0442
江漢常武	-12.0442
屏翰	-12.0444
餾	-12.0445
詩序補義卷	-12.0445
鷽	-12.0445
河間獻王	-12.0446
王肅述毛	-12.0446
輶車	-12.0446
歌謠	-12.0447
曲沃武公	-12.0447
男女以正	-12.0448
鄧州	-12.0448
踰年	-12.0448
英英	-12.0448
春秋繁露	-12.0449
迂曲	-12.045
歌謡	-12.045
炎火	-12.0451
蜀葵	-12.0452
所由來	-12.0452
輯録朱子曰	-12.0457
與此不同	-12.046
周禮春官	-12.0464
宣驕	-12.0465
可想見	-12.0469
鬱結	-12.0475
莊子所謂	-12.0481
和睦	-12.0484
山楸	-12.0485
二十六年	-12.0486
迅疾	-12.0487
被甲	-12.0491
邑姜	-12.0491
永巷	-12.0495
秉執	-12.0496
陳靈公	-12.051
儒林傳	-12.0516
至是始	-12.054
顔師古注	-12.0549
征討	-12.055
墨車	-12.0551
羣臣嘉賓	-12.0554
叶歌韻	-12.0569
蠶績	-12.0625
僮僮	-12.0626
説為長	-12.0626
揄翟	-12.0627
大侯既抗	-12.0627
疢	-12.0627
鱓	-12.0628
杜元凱	-12.0629
陿隘	-12.063
、	-12.063
如琢如磨	-12.0631
旆旆	-12.0632
暄	-12.0633
子兮子兮	-12.0633
慱慱	-12.0633
湛湛露斯	-12.0633
翺	-12.0634
透	-12.0634
人之云亡	-12.0634
十四篇	-12.0635
緝熙敬止	-12.0635
驕慢	-12.0635
燦	-12.0635
瓶	-12.0636
為鬼為蜮	-12.0636
彼美淑姬可與晤	-12.0636
駑	-12.0636
睡	-12.0637
整暇	-12.0637
其封域在	-12.0637
夀考不忘	-12.0637
日居月諸	-12.0638
殤	-12.0638
蓼蓼	-12.0638
㫖苕	-12.0638
堅緻	-12.0638
我行不來	-12.0638
詮	-12.0638
萬福攸同	-12.0639
來方禋祀	-12.0639
語助辭	-12.0639
鍳	-12.064
貽我來牟	-12.064
覧	-12.064
浩浩	-12.064
佩韘	-12.064
个	-12.064
中田有廬	-12.064
搔首	-12.0641
方叔率止	-12.0641
彷	-12.0641
桑中溱洧	-12.0641
不能奮飛	-12.0641
啍啍	-12.0641
言私其豵	-12.0641
黜申后	-12.0641
幢	-12.0641
稗	-12.0641
禮儀卒度	-12.0642
憂愁	-12.0642
鄒肇敏曰	-12.0642
縦	-12.0642
帯	-12.0642
艷	-12.0642
明星煌煌	-12.0642
武王克殷	-12.0642
暘	-12.0642
腴	-12.0642
蟘	-12.0642
飢渇	-12.0643
椓杙	-12.0643
萬民是若	-12.0643
娱	-12.0643
彷彿	-12.0643
垝	-12.0643
酲	-12.0643
三星在天	-12.0643
髙渠彌	-12.0643
獻羔祭韭	-12.0644
纁裳	-12.0644
浹洽	-12.0644
京師之野	-12.0644
瑤	-12.0644
寺少卿嚴虞惇撰	-12.0645
踴躍	-12.0645
南土是保	-12.0646
亞祼	-12.0646
晉文侯	-12.0646
鱅	-12.0646
尗	-12.0646
翻豐本作	-12.0647
宗子維城	-12.0647
覯見也	-12.0647
虢鄶	-12.0648
雖無好友	-12.0648
琴瑟鐘鼓	-12.0648
昧旦	-12.0648
陷溺	-12.0648
天人之際	-12.0649
郭景純	-12.065
楚焞	-12.0651
六韜	-12.0652
求諸隂	-12.0653
零落	-12.0654
沈括	-12.0656
伋壽	-12.0656
根株	-12.0658
獻酢	-12.0659
充滿	-12.0659
乾隆	-12.066
朔月	-12.0664
執轡	-12.0668
工役	-12.0683
書大傳	-12.0685
種植	-12.0687
烏路	-12.0693
免喪	-12.0696
三十三年	-12.0697
長八尺	-12.0701
朝廷之上	-12.0705
千畆	-12.0707
一國之事	-12.0717
積聚	-12.0722
率之以	-12.073
讀詩質疑卷	-12.074
孤獨	-12.0747
青驪	-12.0767
藥草	-12.0768
贊美	-12.0769
汎彼柏舟	-12.0777
伯翳	-12.0779
菽大豆也	-12.0783
華谷嚴氏	-12.0786
踰時	-12.0798
猛獸	-12.0809
特牲少牢	-12.082
莵	-12.0832
芄	-12.0833
有力如虎	-12.0834
職思其居	-12.0834
俁俁	-12.0835
淇園之竹	-12.0836
于胥樂兮	-12.0837
既取我子	-12.0838
洵直且侯	-12.0838
殱	-12.0839
麑	-12.0839
厎	-12.0839
沼沚	-12.0839
戱	-12.0839
畟畟	-12.084
樂而不淫哀而不傷	-12.084
云誰之思	-12.084
春秋所書	-12.084
縠	-12.084
大邦有子	-12.084
謂他人父	-12.084
牣	-12.084
煩撋	-12.084
成王不敢康	-12.0841
率由羣匹	-12.0841
有其義而亡其辭	-12.0841
綵	-12.0842
墾闢	-12.0842
顧我則笑	-12.0842
㛰	-12.0842
可不戒哉	-12.0842
鴶鵴	-12.0842
頤	-12.0843
其虚其邪既亟只且	-12.0843
南東其畝	-12.0843
膟膋	-12.0843
衣繡裳	-12.0843
杻檍	-12.0844
另	-12.0844
習習谷風	-12.0844
遭家不造	-12.0844
孟仲子	-12.0844
旅醻	-12.0844
以引以翼	-12.0844
堅韌	-12.0844
酷烈	-12.0844
譽髦斯士	-12.0845
楀	-12.0845
抑抑威儀	-12.0845
􁈡	-12.0845
祝祭于祊	-12.0846
不親九族	-12.0846
不樂其生	-12.0846
我是用憂	-12.0846
所見以起興	-12.0846
以享以祀	-12.0846
舟楫	-12.0847
脰	-12.0848
奢侈	-12.0848
旂旐央央	-12.0848
以意逆志	-12.0849
柔嘉維則	-12.0849
錫我百朋	-12.0849
劉向列女傳	-12.0849
舎人曰	-12.085
彧彧	-12.085
濊濊	-12.0851
規矩	-12.0851
漦	-12.0851
杳	-12.0852
䳺	-12.0852
渙散	-12.0852
闓	-12.0853
粻	-12.0853
皇輿表	-12.0853
蓴菜	-12.0853
灼灼	-12.0855
當依元本改正	-12.0855
之心為心	-12.0855
二矛重	-12.0856
梓榆	-12.0856
四牡奕奕	-12.0856
夏之四月	-12.0857
珠玉	-12.0857
孔仲達	-12.0857
吕記朱傳	-12.0857
塚	-12.0858
歸寧父母	-12.0858
納幣	-12.0859
懲艾	-12.086
羡卒	-12.0863
簡擇	-12.0864
蕃息	-12.0866
廷内	-12.0866
左右前後	-12.0867
收穫	-12.0869
秉持	-12.0871
展轉	-12.0873
受其禍	-12.0877
岐周之地	-12.0877
駉篇	-12.0878
翦商	-12.0881
踰越	-12.0882
第五章	-12.0883
草蟲鳴	-12.0889
庶姜	-12.0891
莫定也	-12.0892
伯子男	-12.0901
兮不狩不獵胡瞻爾庭有縣	-12.0913
叶寘韻	-12.0923
千二百	-12.0928
廣二尺	-12.0938
三洲	-12.0956
嚴整	-12.0957
今人呼	-12.0957
基業	-12.0972
所能致	-12.0984
安成劉氏	-12.0997
檀木	-12.1009
平上通	-12.1046
劬	-12.1046
惠此中國	-12.1047
髲髢	-12.1048
貧窶	-12.1049
咢	-12.105
暉	-12.1051
唐棣栘	-12.1051
經始勿亟	-12.1051
勇力之士	-12.1052
擢	-12.1052
天命𤣥鳥降而生商	-12.1052
貈	-12.1052
𤨏	-12.1053
狂童之狂	-12.1053
壝	-12.1053
欝	-12.1054
翰飛戾天	-12.1054
射夫既同	-12.1054
何彼襛矣	-12.1054
姻亞	-12.1055
潝潝	-12.1055
搤	-12.1055
卻	-12.1055
昂	-12.1055
帝作邦作對	-12.1056
鳧葵	-12.1056
十萬曰億	-12.1056
時靡有爭	-12.1057
饙	-12.1057
詳其世	-12.1057
無有後艱	-12.1057
廬陵羅氏曰	-12.1057
榱	-12.1058
㫖且多	-12.1058
狄入衛	-12.1058
弇	-12.1058
籊籊	-12.1058
踞	-12.1058
素絲五紽	-12.1058
用之鄉人	-12.1058
禹貢冀州	-12.1058
儔	-12.1058
訏謨	-12.1059
自堂徂基	-12.1059
嗟行之人胡不比焉人無兄弟胡不佽焉	-12.1059
公孫碩膚	-12.1059
峩峩	-12.1059
不期而㑹	-12.1059
𤣥衣纁裳	-12.1059
盻	-12.106
觱發	-12.106
示慈惠	-12.106
盥	-12.106
拚	-12.106
魚在于沼	-12.106
芻蕘	-12.106
螻	-12.106
湆	-12.1061
㷀	-12.1061
我客戾止	-12.1061
宜其家人	-12.1061
蒂	-12.1061
疚病也	-12.1061
馮馮	-12.1061
今我來思	-12.1061
辰彼碩女	-12.1061
日月方奥	-12.1061
子子孫孫	-12.1061
一稃二米	-12.1062
曄	-12.1062
二王之後來助祭	-12.1062
吉蠲	-12.1062
寛綽	-12.1062
侔	-12.1062
陳氏鵬飛曰	-12.1062
樂具入奏	-12.1063
羊蹄	-12.1063
明昭有周	-12.1063
桑間濮上	-12.1063
隕蘀	-12.1063
灌溉	-12.1063
尺有二寸	-12.1063
藝文志	-12.1064
鋂	-12.1064
涎	-12.1065
曾孫來止	-12.1065
劑	-12.1065
百僚	-12.1066
公徒三萬	-12.1066
柔韌	-12.1066
筐篚	-12.1066
闗雎之應	-12.1066
跋涉	-12.1067
本草注曰	-12.1067
賚般	-12.1068
故易傳以	-12.1068
涸	-12.1068
蕰	-12.107
戒飭	-12.107
褥	-12.1071
厲王無道	-12.1071
國之將亡	-12.1071
心如結	-12.1072
放縱	-12.1073
竹書紀	-12.1073
麥秀	-12.1075
牲牢	-12.1077
鳥獸草木	-12.1079
父子兄弟	-12.1079
匹耦	-12.108
不足恃	-12.1081
叔叚	-12.1082
執訊	-12.1082
菹醢	-12.1084
堂下之樂	-12.1086
桀紂	-12.1089
不可泳	-12.1091
〇王氏曰	-12.1096
遭讒	-12.1103
斬伐	-12.1103
千耦	-12.1109
謨郎	-12.111
豈肯	-12.1113
𦂳承	-12.1114
季孫	-12.1125
車箱	-12.1125
封疆	-12.1126
以后稷配	-12.1129
耕籍	-12.1135
下管象	-12.1139
温厚	-12.1141
傅御	-12.1148
種殖	-12.1159
樸樕	-12.1188
莫肯夙夜	-12.1209
女子有行逺父母兄弟	-12.1211
素餐	-12.1227
鞫窮	-12.1233
萯	-12.1252
開封府	-12.1258
溯	-12.1263
載飛載止	-12.1264
君子攸躋	-12.1264
蝀	-12.1265
踧踧	-12.1265
為異餘同	-12.1266
樲	-12.1267
縐	-12.1267
遡洄	-12.1267
沈氏守正曰	-12.1268
教猱升木	-12.1268
夜未央	-12.1268
甽	-12.1269
洮	-12.1269
眸	-12.1269
以象骨為之	-12.1269
先祖匪人	-12.127
王在靈囿	-12.127
曰予未有室家	-12.1271
王在在鎬	-12.1271
悝	-12.1271
蠻貊	-12.1271
升自西階	-12.1272
躭	-12.1272
如切如磋	-12.1272
鬌	-12.1272
駸駸	-12.1272
所美非美	-12.1272
伎伎	-12.1273
聾	-12.1273
挾四鍭	-12.1273
勞心忉忉	-12.1274
湯孫奏假	-12.1274
勩	-12.1274
姤	-12.1274
虔	-12.1274
哀三良	-12.1274
兩驂不猗	-12.1275
濔	-12.1275
彼茁者葭	-12.1275
娣姪	-12.1275
岌	-12.1275
湧	-12.1275
倬彼雲漢	-12.1275
肚	-12.1275
以社以方	-12.1276
秋報社稷	-12.1276
矛盾	-12.1276
鱉	-12.1276
其葉湑湑	-12.1276
惠此南國	-12.1276
閔馬父	-12.1276
掇拾	-12.1277
靡不有初鮮克有終	-12.1277
和樂且湛	-12.1277
閎	-12.1277
周公相成王	-12.1277
忡	-12.1277
恐未必然	-12.1278
院	-12.1278
减	-12.1278
逖	-12.1278
幻	-12.1278
赫赫宗周	-12.1278
寛裕	-12.1279
茨蒺藜	-12.1279
坡	-12.1279
誹	-12.1279
鼔鍾	-12.1279
白茅包	-12.1279
潢	-12.1279
王伯厚	-12.1279
韓宣子	-12.1279
滴	-12.1279
不畏于天	-12.128
金履祥	-12.128
鵲巢之應	-12.128
陟降厥士	-12.128
珮	-12.128
剏	-12.128
踟蹰	-12.128
煎	-12.128
山有苞櫟	-12.128
汋	-12.128
不顧其後	-12.1281
尺寸	-12.1282
攫	-12.1282
與毛同	-12.1282
其君也哉	-12.1282
珕	-12.1282
瑜	-12.1283
迋	-12.1283
小人得志	-12.1283
三百赤芾	-12.1283
笰	-12.1284
宗廟宫室	-12.1284
大伯王季	-12.1285
温潤	-12.1285
在南山之陽	-12.1286
契闊	-12.1287
犯軷	-12.1288
蕃育	-12.1291
燕薁	-12.1291
象箾	-12.1292
廬舎	-12.1292
板屋	-12.1293
菜茹	-12.1294
王氏則以	-12.1295
扆	-12.1295
皆此意也	-12.1296
獻醻	-12.1299
清靜	-12.1302
穀善也	-12.1305
鶉火	-12.1307
射之侯	-12.1308
君臣之分	-12.1311
貫革	-12.1311
設几	-12.1315
蒲柳	-12.1316
後漢書注	-12.1318
乗舟	-12.1321
儀禮鄉飲酒	-12.1327
辰時也	-12.133
方五百里	-12.1334
林有樸	-12.1341
詠歎	-12.1363
詩之本意	-12.1363
馳騁	-12.1376
俴駟	-12.1383
未可據	-12.1389
安其居	-12.1389
欽定四庫全書讀詩質疑卷	-12.1404
百八十	-12.1418
滑縣	-12.1418
五方之	-12.142
百六十	-12.1422
柰	-12.1423
湛湛	-12.1451
祀五帝	-12.1464
霡霂	-12.1465
張三侯	-12.1473
有蒲與荷	-12.1474
絡緯	-12.1481
匪其止共	-12.1487
暬	-12.1487
悪	-12.1487
蚱蜢	-12.1488
平去通	-12.1488
容兮遂兮垂帶悸兮	-12.1489
不亦宜乎	-12.1489
九月授衣	-12.1489
右手秉翟	-12.1489
躋升也	-12.149
駽	-12.1491
劉執中曰	-12.1491
士也罔極	-12.1492
為龍為光	-12.1492
適子之館	-12.1492
丁丈	-12.1493
以永今朝	-12.1493
諮	-12.1493
拯	-12.1493
聖敬日躋	-12.1493
誰適與謀	-12.1494
自西徂東	-12.1494
優㳺	-12.1494
妘姓	-12.1494
苧	-12.1495
白鷢	-12.1495
璫	-12.1495
山脊曰岡	-12.1496
籌	-12.1496
豪骭	-12.1496
冲冲	-12.1496
徨	-12.1496
朝夕從事	-12.1496
佩其象揥	-12.1496
蘇子由	-12.1497
抄	-12.1497
僛僛	-12.1497
蟪蛄	-12.1497
湑湑	-12.1497
淮水之上	-12.1497
令儀令色	-12.1497
遘	-12.1498
四鍭如樹	-12.1498
橛	-12.1498
泠	-12.1498
亂離瘼	-12.1498
淅	-12.1498
既見君子云何不樂	-12.1498
郟	-12.1498
有空大谷	-12.1498
紑	-12.1498
埆	-12.1499
姻婭	-12.1499
臨事而懼	-12.1499
獻豜于公	-12.1499
栲山樗	-12.1499
駪駪	-12.1499
羀	-12.1499
彖	-12.1499
枚枚	-12.15
踰梁山	-12.15
奮伐荆楚	-12.15
蔭	-12.15
景命有僕	-12.15
瓊英	-12.15
遊戲	-12.15
滺	-12.15
鈔	-12.15
絅	-12.1501
采薇采薇	-12.1501
拂髦	-12.1502
篧	-12.1502
册	-12.1502
播百榖	-12.1502
季孫行父	-12.1502
郕	-12.1502
息老物	-12.1502
白圭之玷	-12.1502
謝曼卿	-12.1502
褕翟	-12.1503
宂	-12.1503
徒御不驚	-12.1503
棘匕	-12.1503
俛	-12.1503
平陳與宋	-12.1503
燕婉之求	-12.1503
亦流于淇	-12.1503
淫風大行	-12.1503
靶	-12.1504
神嗜飲食	-12.1504
澁	-12.1504
以木為之	-12.1504
淸	-12.1505
遵養時晦	-12.1505
朝生暮死	-12.1505
女子有行逺	-12.1505
桐椅	-12.1505
炫	-12.1505
維日不足	-12.1505
蠍	-12.1506
榭	-12.1506
周公居攝	-12.1506
不可不慎	-12.1506
肅雍	-12.1507
掩兔	-12.1507
三尺三寸	-12.1507
韎韐有奭	-12.1507
噰	-12.1508
衣以裼之	-12.1508
松桷	-12.1508
不夙則莫	-12.1508
鑿冰	-12.1509
塊	-12.1509
元戎十乗	-12.1509
月出之光	-12.1509
瀏	-12.1511
龍盾	-12.1513
江漢之域	-12.1514
大國三軍	-12.1514
急迫	-12.1516
感慨	-12.1517
阡	-12.1518
矜莊	-12.1518
鑿空	-12.1518
祀高宗	-12.1521
召南之國	-12.1525
敷布	-12.1525
男女相棄	-12.1527
伊洛	-12.1527
表驕	-12.1528
萬井	-12.1529
農祥	-12.1533
倌人	-12.1543
形迹	-12.1549
勉之以正	-12.1552
景大也	-12.1565
士喪禮	-12.1587
無待於	-12.1589
滑州	-12.161
體製	-12.163
害稼	-12.1631
自得之貌	-12.1631
司裘	-12.1646
鹿鳴之三	-12.1646
子孫繩繩	-12.1664
首四句	-12.1674
厚於民	-12.1676
中唐有甓	-12.1684
翣	-12.1712
絿	-12.1713
冓	-12.1714
黎之臣子	-12.1715
襺	-12.1715
枯槁	-12.1716
式遏寇虐	-12.1716
處昌慮反	-12.1716
思須與漕	-12.1716
蔌	-12.1716
禜	-12.1717
靡神不舉	-12.1717
麒	-12.1718
烝衎烈祖	-12.1718
幪幪	-12.1718
贍	-12.1719
食桑葚	-12.1719
好是懿徳	-12.1719
壹發五豝	-12.172
酳尸	-12.172
篇臣聞	-12.172
駝	-12.172
陟彼北山言采其杞	-12.172
評	-12.1721
稲	-12.1721
餕	-12.1721
紛紜	-12.1721
篤生武王	-12.1721
腆	-12.1722
妻子好合	-12.1722
仇讎	-12.1722
縊	-12.1722
鏤膺	-12.1723
喓喓草蟲	-12.1723
四月秀葽	-12.1723
攜手同行	-12.1723
豊	-12.1723
永言孝思	-12.1724
去入通韻	-12.1724
任賢使能	-12.1724
百卉具腓	-12.1724
蘦	-12.1724
伯氏吹壎	-12.1725
入其阻	-12.1725
誘掖	-12.1725
祈榖于上帝	-12.1726
靡室靡家	-12.1726
解頤	-12.1726
莫往莫來	-12.1726
睘睘	-12.1726
蜩蟬也	-12.1726
墳墓	-12.1726
拚飛	-12.1726
念我獨兮	-12.1726
邂逅相遇	-12.1726
窔	-12.1726
日就月將	-12.1726
其桐其椅	-12.1726
載芟良耜	-12.1726
鞠訩	-12.1726
宜兄宜弟	-12.1727
淪陷	-12.1727
纖	-12.1727
無然畔援	-12.1727
殱我良人如可贖兮人百其身	-12.1727
降福簡簡	-12.1727
栩杼	-12.1727
醉而不出	-12.1727
自今以始	-12.1728
瘍	-12.1728
昧爽	-12.1728
摇摇	-12.1728
勞還率	-12.1728
悒	-12.1728
椅桐	-12.1728
崑崙	-12.1728
漢廣汝墳	-12.1729
在宗載考	-12.1729
彜	-12.1729
鸛鳴于垤	-12.1729
及公子同歸	-12.1729
養老乞言	-12.1729
豺虎	-12.1729
二十八宿	-12.1729
有洸有潰	-12.1729
屈此羣醜	-12.173
誌	-12.173
頖宫	-12.173
袵席	-12.173
秬秠	-12.173
淆	-12.173
貽我握椒	-12.1731
果蓏	-12.1731
雰	-12.1731
內	-12.1731
炭	-12.1731
㪺	-12.1731
汰	-12.1732
以玉為之	-12.1732
襛	-12.1733
碩大且卷	-12.1733
殷墟	-12.1733
㐮公	-12.1733
狂夫瞿瞿	-12.1734
子貢傳申培説	-12.1734
耀州	-12.1734
煌	-12.1734
樹之榛栗	-12.1735
賡歌	-12.1735
築牆	-12.1735
伋夀	-12.1735
畮	-12.1735
便捷	-12.1735
二矛重弓	-12.1736
屛	-12.1736
藋	-12.1737
簠簋	-12.1737
玄鳥	-12.1738
連錢	-12.1738
兖州府	-12.1738
五技	-12.1738
稍稍	-12.1738
珪	-12.1739
幄	-12.1739
聚歛	-12.1739
要其終	-12.174
鷗	-12.1741
渙渙	-12.1742
各隨其	-12.1742
黎侯寓	-12.1743
山有栲	-12.1743
掘地	-12.1747
周禮大司樂	-12.1749
鴛	-12.1752
以古道	-12.1754
郯子	-12.1754
績麻	-12.1754
有取於	-12.1763
委任	-12.1767
至此為第	-12.1771
所居之地	-12.1774
因以為戒	-12.1775
烝進也	-12.1785
釋詁文箋正義曰	-12.1796
之子于征	-12.1864
王命卿士	-12.1878
禹貢雍州	-12.1879
兎爰	-12.1925
苕陵苕	-12.1945
簨	-12.1945
受爵不讓	-12.1948
麃麃	-12.1949
銖	-12.1949
悠悠蒼天	-12.1949
陛	-12.195
情慾	-12.195
讟	-12.195
毚兔	-12.1951
陘	-12.1951
晣晣	-12.1951
曺	-12.1951
如臨深淵	-12.1952
鼖鼓	-12.1952
好樂無荒	-12.1952
柔逺能邇	-12.1952
不稼不穡胡取禾三百	-12.1953
實始翦商	-12.1953
窈糾	-12.1953
黽勉畏去	-12.1953
姣	-12.1954
諠譁	-12.1954
閔管蔡之失道	-12.1954
于桑田	-12.1954
文武維后	-12.1954
踽踽	-12.1954
糲米	-12.1955
繂	-12.1955
無毁我室	-12.1955
四方攸同	-12.1955
掖	-12.1956
董氏逌曰	-12.1956
姿	-12.1956
我其收之	-12.1956
無易由言	-12.1956
降福孔皆	-12.1956
漚麻	-12.1956
服其命服	-12.1956
肇基王迹	-12.1956
荊	-12.1957
正陽之月	-12.1957
斬伐四國	-12.1957
百爾君子	-12.1957
再拜稽首	-12.1958
訿	-12.1958
禳	-12.1958
携	-12.1958
薕	-12.1958
手如柔荑	-12.1958
驪山之禍	-12.1958
惠于朋友	-12.1958
大封於廟	-12.1959
在宫肅肅在廟	-12.1959
風之正	-12.1959
緑竹猗猗	-12.1959
慚	-12.1959
檍	-12.196
公尸來燕	-12.196
娯	-12.196
僊僊	-12.196
極中也	-12.196
載起載行	-12.196
陾陾	-12.196
撩	-12.196
建旐設旄	-12.196
糟	-12.196
不得養其父母	-12.196
索綯	-12.1961
衣裳楚楚	-12.1961
蹙蹙	-12.1961
周雖舊邦其命維新	-12.1961
妻帑	-12.1961
抉	-12.1961
西有長庚	-12.1961
笑語卒獲	-12.1962
大庖不盈	-12.1962
簫管	-12.1962
飄風發發	-12.1962
旁紐	-12.1962
憂心慘慘	-12.1962
有卷者阿	-12.1962
漢天河也	-12.1962
殿屎	-12.1963
之驗也	-12.1963
楚莊王	-12.1963
耆艾	-12.1963
緍	-12.1963
維天有漢	-12.1964
欹	-12.1964
慉	-12.1964
珧	-12.1964
伯邑考	-12.1964
竹箭	-12.1964
孔子論詩	-12.1964
徐邈	-12.1965
蛆	-12.1965
邕	-12.1965
胡不萬年	-12.1966
夙夜匪解	-12.1966
耗敗	-12.1966
子貢傳闕文	-12.1966
周之列位	-12.1966
燔肉	-12.1966
朱康流曰	-12.1967
月令季秋	-12.1967
有條有梅	-12.1967
逸齋	-12.1967
焫蕭	-12.1968
永錫爾類	-12.1968
生民之什	-12.1968
釋蟲云	-12.1968
取狐狸	-12.1969
貞静	-12.1969
木桃木李	-12.197
[...]
