<unk>	0
<s>	0
</s>	0
/	-3.82996
)	-4.31525
(	-4.33698
之	-4.48603
以	-4.60608
)(	-4.78972
為	-4.82838
也	-5.01277
而	-5.13759
者	-5.45944
其	-5.544
曰	-5.54851
有	-5.6057
於	-5.63631
人	-5.75605
與	-5.77685
王	-5.78064
及	-5.81328
自	-5.84876
上	-5.8801
不	-5.88284
則	-5.92295
言	-5.92805
至	-5.93223
等	-6.09915
使	-6.11734
事	-6.16508
在	-6.16844
于	-6.18737
皆	-6.18809
今	-6.24077
無	-6.24222
時	-6.26222
大	-6.27009
一	-6.2842
所	-6.2974
故	-6.32652
乃	-6.32938
令	-6.35809
又	-6.36137
官	-6.42297
子	-6.42778
行	-6.42871
詔	-6.4354
復	-6.46668
中	-6.46855
此	-6.47434
出	-6.48291
▁	-6.50006
如	-6.50909
下	-6.50946
帝	-6.52472
知	-6.5278
兵	-6.55886
得	-6.57542
亦	-6.57924
將	-6.58415
見	-6.59956
已	-6.6022
欲	-6.61196
遂	-6.61381
即	-6.61726
矣	-6.62326
命	-6.62814
臣	-6.64901
當	-6.64989
切	-6.65154
入	-6.65839
用	-6.66351
書	-6.67652
謂	-6.67874
初	-6.68368
立	-6.69565
軍	-6.70435
三	-6.71753
公	-6.7274
若	-6.749
從	-6.74911
張	-6.75768
城	-6.76605
非	-6.76611
州	-6.76756
可	-6.77306
後	-6.77717
李	-6.78653
翻	-6.78853
請	-6.7903
因	-6.81142
同	-6.81697
日	-6.82649
然	-6.84769
文	-6.85528
元	-6.87529
道	-6.88362
安	-6.90304
奏	-6.90676
遣	-6.90755
國	-6.91592
置	-6.91958
縣	-6.92657
二	-6.9295
明	-6.93323
是	-6.93709
相	-6.94573
多	-6.94939
必	-6.95418
民	-6.96667
正	-6.96759
方	-6.97262
陳	-6.97803
或	-6.98651
作	-6.9882
取	-6.99001
劉	-7.04576
本	-7.04738
山	-7.05172
名	-7.05713
云	-7.06021
聞	-7.06362
成	-7.0644
雖	-7.07036
前	-7.07076
卒	-7.07235
馬	-7.08642
未	-7.0886
且	-7.09552
守	-7.09896
進	-7.10229
五	-7.10784
漢	-7.10835
罷	-7.10984
先	-7.11531
南	-7.12213
死	-7.12283
居	-7.12322
歸	-7.12549
分	-7.12713
平	-7.12743
乎	-7.13182
周	-7.13187
既	-7.13471
數	-7.15819
朝廷	-7.15921
賊	-7.17032
天	-7.18316
何	-7.18967
地	-7.19036
始	-7.19745
生	-7.19813
殺	-7.2029
去	-7.20356
水	-7.21032
還	-7.22263
以為	-7.22786
並	-7.2279
陛下	-7.23003
通	-7.2304
賜	-7.23197
降	-7.23217
宜	-7.23289
金	-7.23521
天下	-7.23581
魏	-7.23912
四	-7.24148
實	-7.24634
内	-7.25228
重	-7.26392
音	-7.26539
郡	-7.26698
議	-7.27365
我	-7.28229
合	-7.285
定	-7.28679
爲	-7.28762
長	-7.28853
傳	-7.28877
法	-7.29102
㑹	-7.29801
趙	-7.30119
東	-7.3013
封	-7.30888
耳	-7.3194
發	-7.32097
稱	-7.32446
除	-7.33058
治	-7.3335
按	-7.33661
不可	-7.34223
唐	-7.34245
西	-7.34284
字	-7.34334
盡	-7.34667
徳	-7.3475
常	-7.34813
府	-7.35884
諸	-7.36423
修	-7.36504
禮	-7.36617
主	-7.37211
改	-7.37725
各	-7.37971
外	-7.38563
年	-7.39042
召	-7.39211
能	-7.39436
乞	-7.39616
武	-7.39839
舉	-7.40317
君	-7.40367
北	-7.40475
直	-7.40819
齊	-7.40927
惟	-7.4145
衆	-7.41619
秦	-7.41634
焉	-7.41707
家	-7.41994
師	-7.42256
髙	-7.42487
起	-7.42541
來	-7.42848
意	-7.43071
據	-7.4391
許	-7.45047
求	-7.45171
宋	-7.45369
凡	-7.46088
應	-7.46979
朝	-7.47524
錢	-7.4763
士	-7.47678
兼	-7.47853
古	-7.4803
坐	-7.48227
晉	-7.48386
加	-7.48536
論	-7.4866
權	-7.48897
門	-7.49432
氏	-7.5074
義	-7.51396
不能	-7.51886
○	-7.5225
都	-7.5229
心	-7.52583
興	-7.52624
新	-7.52749
楊	-7.5383
問	-7.53899
攻	-7.54407
河	-7.54637
善	-7.54665
恐	-7.55026
世	-7.55205
親	-7.55325
吾	-7.55519
光	-7.55538
止	-7.55825
屬	-7.5597
司	-7.56442
過	-7.5658
更	-7.57331
和	-7.57716
兩	-7.57734
受	-7.57936
從之	-7.58064
計	-7.58143
小	-7.58424
信	-7.58518
宗	-7.58807
罪	-7.59036
梁	-7.59561
益	-7.59798
謀	-7.60211
六	-7.60235
處	-7.60928
深	-7.60979
廣	-7.61131
爾	-7.61227
近	-7.61747
石	-7.61932
服	-7.62835
鎮	-7.63171
侯	-7.63404
力	-7.63479
任	-7.63497
制	-7.6376
建	-7.63763
猶	-7.64108
尚	-7.64539
陽	-7.64628
逺	-7.64733
并	-7.64749
仍	-7.64847
舊	-7.64892
引	-7.65158
反	-7.66087
路	-7.66376
易	-7.66647
敵	-7.66709
十	-7.66956
白	-7.67004
固	-7.67145
思	-7.68949
留	-7.69361
失	-7.69615
田	-7.69717
奉	-7.69982
利	-7.70494
不得	-7.72041
望	-7.724
獨	-7.7287
夫	-7.73176
告	-7.73231
嘗	-7.7335
孫	-7.73358
志	-7.73482
九	-7.73567
但	-7.73886
經	-7.73943
政	-7.74083
開	-7.742
甚	-7.75093
觀	-7.75138
敗	-7.75209
廢	-7.75214
江	-7.7553
少	-7.76005
食	-7.7607
宫	-7.76685
卿	-7.76927
至是	-7.7693
免	-7.77121
樂	-7.77146
保	-7.77742
悉	-7.78168
楚	-7.78185
難	-7.78759
口	-7.79045
遷	-7.79372
吏	-7.79585
致	-7.7962
次	-7.79683
夏	-7.79895
間	-7.80222
朕	-7.80231
度	-7.80376
率	-7.80599
太后	-7.8178
代	-7.82142
如此	-7.82253
充	-7.82349
太子	-7.82976
史	-7.83274
首	-7.83385
往	-7.83396
先是	-7.83507
省	-7.83661
三年	-7.84309
特	-7.845
戰	-7.84709
章	-7.85193
亂	-7.85462
七	-7.85479
陵	-7.85575
具	-7.85895
理	-7.85992
元年	-7.86201
将	-7.86304
上曰	-7.86474
於是	-7.86632
納	-7.86765
紀	-7.87128
别	-7.87778
帥	-7.88253
辭	-7.88692
月	-7.88913
所以	-7.89464
父	-7.8953
黄	-7.89608
克	-7.89803
就	-7.90133
拜	-7.90142
選	-7.9023
獻	-7.90481
節	-7.90517
語	-7.90565
大臣	-7.90813
領	-7.90866
功	-7.9092
執	-7.91318
胡	-7.91327
比	-7.91338
八	-7.91724
三月	-7.9215
收	-7.92697
濟	-7.92715
忠	-7.92878
依	-7.92968
哉	-7.93121
鄭	-7.93134
二年	-7.93246
給	-7.93271
德	-7.93501
徐	-7.93702
布	-7.93748
再	-7.93773
承	-7.93961
異	-7.94108
衛	-7.94152
后	-7.94797
吳	-7.95234
願	-7.95511
圖	-7.95937
伯	-7.96192
燕	-7.96253
共	-7.96582
申	-7.96624
貴	-7.96753
擊	-7.96825
幸	-7.97219
職	-7.97265
宣	-7.9732
誅	-7.97528
差	-7.97817
約	-7.97825
備	-7.97977
載	-7.98299
清	-7.98663
左	-7.98712
賢	-7.98719
寧	-7.9902
仁	-7.99055
物	-7.99074
▁(	-7.99129
送	-7.99205
六月	-7.99374
嵗	-7.99418
龍	-7.99593
韓	-8.00171
全	-8.00648
汝	-8.00931
由	-8.01077
身	-8.01129
表	-8.01175
左右	-8.01361
位	-8.01453
勝	-8.01643
終	-8.01847
便	-8.02032
營	-8.02119
授	-8.02187
移	-8.02336
餘	-8.02396
説	-8.02399
九月	-8.02704
流	-8.02886
禁	-8.03115
對	-8.03141
號	-8.03181
遇	-8.03263
私	-8.03388
退	-8.0406
破	-8.04501
試	-8.05097
殿	-8.0515
每	-8.05547
集	-8.05592
永	-8.05842
威	-8.0589
部	-8.05929
海	-8.05981
疑	-8.06043
延	-8.06263
監	-8.06351
户	-8.06569
祖	-8.07256
須	-8.07601
徙	-8.07622
學	-8.07737
追	-8.0812
俱	-8.08228
責	-8.08293
要	-8.08299
彼	-8.08598
好	-8.0861
盖	-8.08697
車	-8.08904
考	-8.0896
徒	-8.09671
女	-8.09716
景	-8.099
誠	-8.09956
亡	-8.10353
順	-8.10503
五月	-8.10918
遣使	-8.1121
素	-8.11238
設	-8.11313
將軍	-8.11394
聖	-8.11563
契丹	-8.12102
解	-8.12681
朱	-8.12689
附	-8.12722
臨	-8.12751
二月	-8.13047
昭	-8.1308
昌	-8.13106
不知	-8.13111
邪	-8.13273
崇	-8.13338
不敢	-8.134
録	-8.13445
輕	-8.13446
恩	-8.13504
才	-8.13598
夜	-8.13701
屯	-8.13752
討	-8.13819
御	-8.13977
曹	-8.14155
天子	-8.14831
被	-8.14998
萬	-8.15019
神	-8.15047
蓋	-8.15135
豈	-8.15187
八月	-8.15376
丁	-8.15702
高	-8.15836
宰相	-8.15954
委	-8.16153
太	-8.16195
十二月	-8.1654
闕	-8.16911
報	-8.17179
孝	-8.17505
厚	-8.17547
務	-8.1755
魯	-8.17657
京	-8.17798
赴	-8.1788
土	-8.18016
惡	-8.18211
絶	-8.18328
春	-8.18557
詣	-8.1887
嚴	-8.19414
仲	-8.20259
蜀	-8.20276
犯	-8.2087
圍	-8.21001
怒	-8.2114
變	-8.21158
視	-8.21257
之人	-8.21385
聽	-8.21757
母	-8.22559
右	-8.22598
而不	-8.22922
慶	-8.23039
懼	-8.23627
疾	-8.23959
盛	-8.24025
林	-8.24051
十一月	-8.24954
金人	-8.25429
之地	-8.25859
華	-8.2586
持	-8.25916
造	-8.25978
薦	-8.26034
斬	-8.26156
越	-8.26168
而已	-8.2623
達	-8.26255
隂	-8.26271
奔	-8.2635
尚書	-8.26399
足	-8.2644
連	-8.26619
交	-8.26997
賞	-8.27065
繼	-8.27215
福	-8.27235
謂之	-8.27695
百	-8.27867
勿	-8.28301
尊	-8.28401
察	-8.28589
木	-8.29246
容	-8.29293
可以	-8.29402
果	-8.29611
聲	-8.29812
走	-8.29826
宻	-8.29945
衣	-8.29959
結	-8.29997
動	-8.30134
弟	-8.30468
向	-8.30537
指	-8.30869
喜	-8.30922
諭	-8.31005
臺	-8.31162
邑	-8.3122
郭	-8.31252
慮	-8.31314
風	-8.31322
原	-8.31361
散	-8.31619
良	-8.31655
伐	-8.31713
懐	-8.32239
遺	-8.32325
増	-8.32381
河北	-8.32449
例	-8.32466
寨	-8.32487
氣	-8.325
尋	-8.32542
注	-8.32627
節度使	-8.33192
獲	-8.33214
列	-8.33295
謝	-8.33311
陷	-8.33413
之意	-8.33518
甲	-8.3364
敬	-8.33974
斷	-8.34039
伏	-8.34171
夏四月	-8.3427
救	-8.34662
著	-8.34676
教	-8.34707
邊	-8.34962
隨	-8.35015
支	-8.35261
羣臣	-8.35388
皇帝	-8.35507
之後	-8.35717
葢	-8.3613
急	-8.36182
吉	-8.36435
逐	-8.36746
候	-8.36969
老	-8.37154
顧	-8.37163
嘉	-8.37249
真	-8.37319
久	-8.37389
里	-8.37493
闗	-8.37508
百姓	-8.37517
州縣	-8.37646
推	-8.37725
極	-8.37769
刑	-8.37783
補	-8.37874
病	-8.37896
冬十月	-8.38122
御史	-8.38363
市	-8.38408
稍	-8.38484
棄	-8.39023
記	-8.39335
到	-8.39337
籍	-8.39423
叛	-8.39845
康	-8.39927
然後	-8.39963
塞	-8.40068
以來	-8.40255
端	-8.40438
温	-8.406
諸侯	-8.40608
羅	-8.40673
京師	-8.40877
况	-8.41033
迎	-8.41066
雲	-8.41428
秋	-8.41431
冦	-8.41472
莫	-8.41585
廟	-8.41598
顯	-8.41835
害	-8.4187
秋七月	-8.42037
頗	-8.4206
州刺史	-8.42154
色	-8.42196
諸將	-8.42209
簡	-8.4238
存	-8.4252
朔	-8.42583
堅	-8.42768
業	-8.429
皇后	-8.42989
獄	-8.43217
襲	-8.43257
亮	-8.43323
鹽	-8.43365
密	-8.43557
决	-8.43563
誤	-8.43727
由是	-8.43735
榮	-8.43797
升	-8.4423
浚	-8.44291
䇿	-8.44353
玉	-8.44771
嗣	-8.44801
耶	-8.44812
四年	-8.44828
川	-8.4488
呉	-8.44979
屢	-8.45028
指揮	-8.45123
疏	-8.4534
博	-8.45397
泰	-8.45474
儀	-8.45486
關	-8.45663
登	-8.45749
手	-8.45755
己	-8.45933
夷	-8.45957
火	-8.46123
說	-8.46197
待	-8.46235
中書	-8.46296
息	-8.46707
太祖	-8.46787
專	-8.46809
安石	-8.46842
五年	-8.46847
澤	-8.46924
青	-8.4693
累	-8.47105
貶	-8.47159
資	-8.47482
殺之	-8.4777
寳	-8.48232
美	-8.48448
目	-8.48789
呼	-8.48965
河東	-8.49016
典	-8.49251
積	-8.49262
恭	-8.49285
蘇	-8.4943
綱	-8.49467
太守	-8.4967
蕭	-8.49865
第	-8.49964
勸	-8.50188
不足	-8.504
怨	-8.50561
咸	-8.50758
諸路	-8.5092
尤	-8.50955
草	-8.50976
役	-8.51072
輔	-8.5161
諸軍	-8.51795
國家	-8.52095
養	-8.52218
放	-8.52383
彦	-8.52438
格	-8.52515
薄	-8.52538
侵	-8.52732
回	-8.52769
祭	-8.52822
勞	-8.52824
騎	-8.52965
化	-8.53177
酒	-8.53312
戒	-8.5332
擇	-8.53327
院	-8.53547
虜	-8.53772
詳	-8.53863
商	-8.54028
黨	-8.54257
皇	-8.54339
滅	-8.54487
其後	-8.54753
二人	-8.54786
班	-8.54808
實録	-8.54842
祀	-8.54958
今日	-8.54987
以聞	-8.55123
吕	-8.5562
飛	-8.55735
烏	-8.55815
勢	-8.55866
徃	-8.56346
減	-8.56517
縁	-8.56658
故事	-8.57048
河南	-8.57055
頭	-8.57162
狀	-8.57168
運	-8.57225
太宗	-8.57417
既而	-8.57758
爭	-8.57897
付	-8.57959
助	-8.57961
叔	-8.58258
所謂	-8.58403
姓	-8.58434
掌	-8.58444
未嘗	-8.58498
鄉	-8.58668
執政	-8.58708
適	-8.58716
畧	-8.58731
有司	-8.59339
一日	-8.59412
憂	-8.59429
釋	-8.59526
敕	-8.59574
施行	-8.59689
一人	-8.59696
畢	-8.59819
鼎	-8.59871
之事	-8.6003
逆	-8.60046
謹	-8.60059
均	-8.6011
傷	-8.60219
聚	-8.60497
科	-8.60743
奪	-8.60802
隆	-8.61304
敢	-8.61349
統	-8.61561
負	-8.6192
遼	-8.61928
畏	-8.61961
習	-8.62024
室	-8.62173
避	-8.62327
轉	-8.62684
乗	-8.62712
大夫	-8.62776
折	-8.62952
縱	-8.63008
招	-8.63079
歴	-8.63166
阿	-8.63198
曽	-8.63225
杜	-8.63235
假	-8.63247
戎	-8.63258
期	-8.63403
配	-8.63427
不許	-8.63462
為之	-8.63536
振	-8.63602
孟	-8.63696
憲	-8.64073
會	-8.64191
却	-8.64253
米	-8.6431
末	-8.64323
中外	-8.64544
勒	-8.64562
洛	-8.64578
赦	-8.64634
宿	-8.64814
英	-8.64849
漸	-8.64986
紀修	-8.6518
之間	-8.65402
客	-8.6542
是日	-8.65468
無所	-8.65712
之子	-8.65731
費	-8.65745
遽	-8.65746
質	-8.65902
陜西	-8.66077
性	-8.66151
情	-8.666
操	-8.66713
患	-8.66912
春秋	-8.67019
他	-8.67223
希	-8.67349
愛	-8.67406
決	-8.67476
郎	-8.67531
昔	-8.67545
聞之	-8.67845
偽	-8.67864
總	-8.67878
射	-8.6792
斯	-8.68146
彊	-8.68285
强	-8.68322
至於	-8.68366
曲	-8.68371
俟	-8.68437
季	-8.68443
略	-8.68479
冬	-8.68623
副	-8.68843
示	-8.69165
舍	-8.69281
邉	-8.6934
先帝	-8.69409
故也	-8.69516
休	-8.69618
之心	-8.69668
讀	-8.69733
毎	-8.69984
體	-8.69993
速	-8.70051
来	-8.70213
條	-8.70242
賀	-8.70265
乆	-8.70362
紹	-8.70581
俊	-8.7062
貫	-8.707
糧	-8.70803
惠	-8.71139
防	-8.71187
薨	-8.7124
四方	-8.71247
案	-8.71255
殷	-8.71379
寵	-8.71453
不從	-8.71491
趨	-8.71593
師古曰	-8.71691
雜	-8.7179
對曰	-8.7189
牛	-8.71894
督	-8.71925
唯	-8.72066
六年	-8.72644
豐	-8.72763
施	-8.73026
何以	-8.7312
盧	-8.73503
參	-8.73551
匈奴	-8.73571
撫	-8.73584
丞相	-8.73631
横	-8.73646
星	-8.73667
曰吾	-8.73705
寺	-8.73883
築	-8.74067
諫	-8.74103
律	-8.7413
百官	-8.74258
懷	-8.74294
蔡	-8.74307
不當	-8.74343
崔	-8.74362
禍	-8.74619
征	-8.74725
之言	-8.74805
族	-8.74889
以下	-8.7502
有所	-8.75113
危	-8.75117
違	-8.75167
羣	-8.75179
妄	-8.75317
沈	-8.75492
索	-8.75571
千	-8.75585
自今	-8.75668
𢎞	-8.75685
程	-8.75763
司馬	-8.76151
舟	-8.76268
庶	-8.7635
虞	-8.76433
器	-8.76466
蠻	-8.76613
革	-8.76699
訓	-8.77066
豫	-8.7711
廷	-8.77256
劾	-8.77364
雄	-8.77474
淵	-8.77556
虎	-8.77707
自是	-8.77809
逹	-8.7781
離	-8.77941
者也	-8.7795
援	-8.78162
淮南	-8.78254
其事	-8.78349
又言	-8.7839
以上	-8.78574
詩	-8.7874
妻	-8.78777
之法	-8.78914
界	-8.79
暴	-8.79044
乘	-8.7913
雍	-8.7916
覆	-8.79223
趣	-8.79612
長安	-8.79799
提舉	-8.79881
戍	-8.79896
給事中	-8.79906
𤣥	-8.80168
淮	-8.80285
工	-8.80346
勇	-8.80385
渠	-8.80663
者皆	-8.80716
接	-8.81027
是月	-8.81101
谷	-8.81123
兄	-8.81232
預	-8.81401
允	-8.8142
庫	-8.81472
滿	-8.81525
今從	-8.81559
祠	-8.81608
江南	-8.81755
辨	-8.81803
靈	-8.81849
智	-8.81917
中國	-8.82
洪	-8.82007
于是	-8.82036
審	-8.82098
爵	-8.8218
循	-8.82323
隋	-8.82351
量	-8.82358
震	-8.82487
茍	-8.82499
侍	-8.82594
判	-8.82796
寛	-8.83001
種	-8.83422
𨽻	-8.83595
係	-8.83656
官吏	-8.83663
投	-8.8379
符	-8.83867
苦	-8.8441
歲	-8.84491
馮	-8.84581
不及	-8.8476
夀	-8.84959
薛	-8.85094
䝉	-8.85102
弼	-8.85299
精	-8.85412
超	-8.85469
干	-8.85506
謙	-8.85554
類	-8.85596
丘	-8.85624
印	-8.85651
房	-8.85723
遵	-8.8574
賈	-8.85785
傅	-8.86309
巻	-8.8651
垂	-8.86545
險	-8.86833
禄	-8.86969
諸州	-8.8713
士卒	-8.87156
喪	-8.87207
卷	-8.87292
限	-8.8735
境	-8.8736
輸	-8.87588
冀	-8.87779
毁	-8.87795
衡	-8.87941
戸	-8.88013
富	-8.88224
頃	-8.88284
二十	-8.88295
愈	-8.88338
未有	-8.88382
擢	-8.88452
調	-8.88468
小人	-8.88543
虚	-8.88606
式	-8.88633
毋	-8.88641
屈	-8.88843
繫	-8.89108
脩	-8.89126
寜	-8.89154
銀	-8.89272
增	-8.89331
面	-8.89338
十二	-8.89341
早	-8.89419
竟	-8.89505
使人	-8.89565
措置	-8.89585
讓	-8.89712
利害	-8.89795
孔	-8.90121
贈	-8.90142
幾	-8.90393
葬	-8.9042
裕	-8.90565
蕃	-8.90766
象	-8.90803
范	-8.90804
君子	-8.90958
之罪	-8.91062
旦	-8.91065
也今	-8.91066
竊	-8.91164
賦	-8.91269
藏	-8.91474
管	-8.91697
宴	-8.91893
魚	-8.92007
船	-8.92062
策	-8.92136
財	-8.9221
雨	-8.92229
落	-8.92348
穆	-8.92357
野	-8.92489
肅	-8.92502
堂	-8.92536
東南	-8.9264
橋	-8.9276
予	-8.92872
念	-8.92924
弱	-8.93067
微	-8.93179
掠	-8.93181
買	-8.9324
最	-8.93618
弗	-8.93704
七年	-8.93725
兒	-8.94225
兄弟	-8.94316
徴	-8.94331
十月	-8.94332
之時	-8.94427
識	-8.94687
冠	-8.9476
損	-8.9496
刺	-8.94984
不復	-8.9503
子孫	-8.95103
詞	-8.95106
額	-8.95289
董	-8.95388
魏主	-8.95851
友	-8.96012
七月	-8.96041
不為	-8.96079
錫	-8.9609
揚	-8.96131
専	-8.96133
輒	-8.96151
斬之	-8.96198
倫	-8.963
之士	-8.96502
普	-8.96526
輙	-8.96545
蒲	-8.96639
厯	-8.96705
争	-8.96706
帶	-8.97036
使者	-8.97106
致仕	-8.97127
竒	-8.97201
金主	-8.97446
奴	-8.97469
畫	-8.97474
不如	-8.9777
敦	-8.98054
甲子	-8.98315
太原	-8.98319
𫝊	-8.98406
文字	-8.9842
倉	-8.98451
通判	-8.98587
削	-8.98608
庭	-8.98641
都督	-8.9867
衰	-8.98779
擅	-8.98794
湖	-8.98799
孤	-8.98884
寶	-8.98996
陸	-8.99026
勲	-8.99065
城中	-8.99179
雅	-8.9929
困	-8.9943
臣等	-8.9952
姦	-8.99805
檜	-8.99835
不同	-9.00007
忽	-9.00065
否	-9.00366
洛陽	-9.00457
三日	-9.00565
即位	-9.00744
述	-9.00844
將士	-9.00986
十年	-9.01048
鄧	-9.01082
茶	-9.01111
窮	-9.01145
茂	-9.01192
惇	-9.01479
機	-9.01544
祖宗	-9.01604
䕶	-9.01886
飲	-9.01902
盗	-9.01952
通鑑	-9.01997
維	-9.02233
刺史	-9.02248
源	-9.02317
不過	-9.02358
其子	-9.0238
渡	-9.02459
曰此	-9.02633
仰	-9.02704
八年	-9.02731
吐蕃	-9.02806
佐	-9.03031
赤	-9.03128
校	-9.03286
而後	-9.03447
内外	-9.0348
山東	-9.0364
四月	-9.03704
參知政事	-9.03778
半	-9.03805
前後	-9.03844
之臣	-9.03882
之所	-9.03948
恕	-9.03967
政事	-9.04035
考異曰	-9.04099
僧	-9.04184
借	-9.04324
是以	-9.04353
尹	-9.04421
巴	-9.04451
宗室	-9.04458
錄	-9.045
殊	-9.04574
沙	-9.04605
祥	-9.04755
欽	-9.04781
秦檜	-9.04927
亟	-9.0498
規	-9.05015
韋	-9.05017
宏	-9.05052
沮	-9.05224
弊	-9.05441
葉	-9.0546
材	-9.05756
皇太后	-9.05772
禹	-9.05851
以通	-9.05917
池	-9.06072
辰	-9.06118
似	-9.06191
昨	-9.06283
與之	-9.0639
許之	-9.0646
講	-9.0649
上言	-9.06656
馳	-9.06732
㫖	-9.06774
優	-9.06834
入朝	-9.06839
辟	-9.06906
捕	-9.07019
引兵	-9.0719
員	-9.07215
羌	-9.07371
是時	-9.07534
拒	-9.07635
貢	-9.07787
逼	-9.07842
募	-9.0788
併	-9.07895
大將軍	-9.07969
邦	-9.08072
寇	-9.08097
人心	-9.08146
序	-9.08155
感	-9.08288
丹	-9.08347
俗	-9.08457
供	-9.08648
罰	-9.08651
盜	-9.08739
甫	-9.08802
靖	-9.08849
賣	-9.08856
用兵	-9.09002
哀	-9.09005
當時	-9.09012
税	-9.09089
誣	-9.0945
御史中丞	-9.09783
聴	-9.09803
莊	-9.0983
愚	-9.09911
秀	-9.10004
只	-9.10061
閣	-9.10107
郊	-9.10202
湯	-9.10478
乾	-9.10622
三司	-9.10847
牧	-9.10866
帝曰	-9.10921
减	-9.10994
嶺	-9.11143
莽	-9.11233
空	-9.11257
人也	-9.11347
上下	-9.11484
副使	-9.11916
公主	-9.11934
辛	-9.12053
改元	-9.12075
不行	-9.12144
官軍	-9.12147
純	-9.12169
刻	-9.12194
勤	-9.12291
天下之	-9.12465
儒	-9.12484
必有	-9.12486
羊	-9.12554
江淮	-9.12723
而去	-9.12804
拔	-9.12995
署	-9.13103
誘	-9.13181
囚	-9.13191
陣	-9.13381
監司	-9.13468
堡	-9.13502
泉	-9.13603
慈	-9.13608
潛	-9.1383
津	-9.13853
上書	-9.13865
背	-9.14081
余	-9.14235
顔	-9.14268
當考	-9.14357
黜	-9.14371
本路	-9.14582
貞	-9.1464
逃	-9.14746
俾	-9.14855
張浚	-9.14879
於此	-9.14952
擊之	-9.15015
江西	-9.15027
進士	-9.15051
占	-9.15166
曾	-9.15321
妃	-9.15415
衞	-9.15488
姑	-9.15556
斥	-9.15602
焚	-9.15644
秩	-9.15829
桓	-9.15896
徵	-9.16029
亭	-9.16031
盟	-9.16179
言之	-9.16189
叙	-9.16322
介	-9.16453
縣屬	-9.16464
不至	-9.16653
襄	-9.16699
角	-9.16712
王安石	-9.16747
農	-9.16775
遣人	-9.16874
突厥	-9.16934
䘮	-9.17035
西北	-9.17128
翰林學士	-9.17279
檢	-9.17288
又曰	-9.17299
詐	-9.17334
吴	-9.1735
眀	-9.17403
衍	-9.17604
袁	-9.17613
肆	-9.17621
質實	-9.17665
不以	-9.17795
確	-9.1785
擾	-9.1798
采	-9.17987
崩	-9.17995
太尉	-9.18031
隠	-9.18144
牒	-9.18244
用之	-9.18335
之道	-9.18602
使臣	-9.18615
行之	-9.18807
貪	-9.18928
軍士	-9.19002
館	-9.19065
甲申	-9.19144
以此	-9.19178
杖	-9.1948
軍中	-9.19491
忌	-9.19688
幽	-9.19729
欲以	-9.19841
尉	-9.1999
荒	-9.20308
欺	-9.2031
屋	-9.2045
是也	-9.20671
翼	-9.20688
虛	-9.20692
謁	-9.20836
毛	-9.20857
烈	-9.21013
鼓	-9.2108
所在	-9.21123
民間	-9.21151
編	-9.21163
慎	-9.2119
貨	-9.21493
諡	-9.2165
之際	-9.2178
丙午	-9.21785
夫人	-9.21897
明年	-9.22155
之計	-9.22184
已而	-9.22189
可汗	-9.22224
抑	-9.22227
太平	-9.22386
巳	-9.22417
翰	-9.22485
歡	-9.22525
其所	-9.22578
彌	-9.22612
乙亥	-9.22726
不肯	-9.22789
正月	-9.22855
亦不	-9.22875
而還	-9.2288
甲午	-9.22931
足以	-9.22966
懿	-9.22995
游	-9.23133
死者	-9.23157
人主	-9.23285
丙寅	-9.23338
擒	-9.23512
遊	-9.23517
状	-9.23562
稅	-9.23567
逸	-9.23587
珪	-9.23697
父子	-9.23721
節度	-9.23733
壽	-9.23912
侍中	-9.24071
藩	-9.24103
旁	-9.24337
人情	-9.24421
有功	-9.24681
歳	-9.24711
效	-9.24753
壬寅	-9.24804
壬申	-9.24873
又翻	-9.24898
知其	-9.249
士大夫	-9.24956
卜	-9.25082
此據	-9.25095
祐	-9.2512
敏	-9.25202
之民	-9.25212
國公	-9.25345
天地	-9.254
壊	-9.25468
舜	-9.25514
旗	-9.25515
戊寅	-9.25602
所言	-9.25694
是嵗	-9.25863
啟	-9.25913
㓂	-9.2592
元祐	-9.25924
鈔	-9.25969
託	-9.26013
訖	-9.26038
揚州	-9.26098
䧟	-9.26123
之禮	-9.26278
癸酉	-9.26368
轉運使	-9.26389
導	-9.26406
考異	-9.2652
豈可	-9.26527
柔	-9.26628
扶	-9.26769
剛	-9.268
乙丑	-9.26825
彭	-9.26932
鄴	-9.26932
扵	-9.26957
伊	-9.26989
羽	-9.27094
園	-9.27164
飾	-9.27227
輩	-9.27252
丙子	-9.27303
成都	-9.27312
價	-9.27353
辛未	-9.27391
宅	-9.27489
姚	-9.27552
甲寅	-9.27628
笑	-9.27642
耕	-9.27665
井	-9.27751
丙辰	-9.27892
照	-9.27958
建康	-9.27964
監察御史	-9.28064
丁亥	-9.28186
辛巳	-9.28311
擬	-9.285
奏事	-9.28501
形	-9.2851
寄	-9.28553
戊申	-9.28605
榖	-9.28633
履	-9.28693
凖	-9.28764
㣲	-9.28799
丁未	-9.28996
辛亥	-9.29165
舊作	-9.29171
寢	-9.2922
歩	-9.29239
庚申	-9.29253
徑	-9.29275
旱	-9.29338
有差	-9.29375
其家	-9.29412
四川	-9.29542
恨	-9.29595
基	-9.29643
堯	-9.29682
言者	-9.29695
竹	-9.29903
割	-9.29985
將兵	-9.30103
場	-9.30124
癸未	-9.3017
術	-9.30211
岳	-9.30225
廵	-9.30244
如何	-9.30257
蔽	-9.303
辛酉	-9.30328
襄陽	-9.3036
樞宻院	-9.30373
戊午	-9.30408
厥	-9.30739
熟	-9.31123
之功	-9.31145
壬子	-9.3116
庚寅	-9.31184
亷	-9.31264
宗廟	-9.31304
鍾	-9.31346
奮	-9.31375
戊辰	-9.31439
三省	-9.3147
丞	-9.31536
奚	-9.31653
九年	-9.31694
單于	-9.31796
収	-9.31843
己亥	-9.32014
卑	-9.32022
癸巳	-9.32183
諸王	-9.32197
不欲	-9.32214
壬午	-9.32287
一年	-9.32322
丁丑	-9.32427
討之	-9.32466
明日	-9.32483
樓	-9.32483
此事	-9.32485
賔	-9.32516
丁酉	-9.32686
出入	-9.32869
庚午	-9.32886
丙申	-9.32923
代之	-9.33081
其言	-9.33132
訪	-9.33134
句	-9.33175
不書	-9.33208
踰	-9.33217
駕	-9.33387
抗	-9.33533
癸亥	-9.33577
内侍	-9.3363
宮	-9.33653
粟	-9.33786
刀	-9.33815
子弟	-9.33943
甲辰	-9.33961
紹興	-9.34052
峻	-9.3413
乙巳	-9.34206
括	-9.34389
乃以	-9.34418
賤	-9.34537
輿	-9.34561
斗	-9.3459
災	-9.3464
社稷	-9.34685
綱目	-9.34844
抵	-9.34923
公事	-9.34978
壬辰	-9.34991
知之	-9.35144
㧞	-9.35168
乙未	-9.35176
蘭	-9.35204
鑑修	-9.35316
勅	-9.3544
文武	-9.35458
驛	-9.35478
曰我	-9.35496
戊子	-9.35634
奈何	-9.35639
司馬光	-9.35652
大軍	-9.35687
續	-9.35775
三百	-9.35839
驅	-9.35846
己酉	-9.35898
庚子	-9.35905
癸丑	-9.35963
三十	-9.36038
階	-9.36139
琦	-9.36209
傾	-9.36378
阻	-9.36558
忘	-9.36564
邵	-9.3658
松	-9.3663
之制	-9.36637
惑	-9.36659
春正月	-9.36837
己巳	-9.36848
誰	-9.3687
武帝	-9.36902
丁巳	-9.36935
没	-9.36938
沒	-9.37005
翻下同	-9.37015
詔以	-9.37019
雪	-9.37115
諌	-9.37158
孔子	-9.37185
悦	-9.37212
汴	-9.37291
辛丑	-9.37298
育	-9.37304
寒	-9.37343
攝	-9.37403
強	-9.3745
驕	-9.37546
鑄	-9.37788
不見	-9.37792
乙酉	-9.37838
不然	-9.3784
浩	-9.37884
可謂	-9.37954
幽州	-9.37965
之初	-9.37972
瑞	-9.38045
偏	-9.38064
雖有	-9.38143
桑	-9.3818
己未	-9.38261
絳	-9.38262
守臣	-9.38303
隱	-9.3832
藉	-9.38335
庚辰	-9.38403
驚	-9.38446
享	-9.38536
倚	-9.3861
辱	-9.38617
太皇太后	-9.38618
陰	-9.38697
竭	-9.38707
覺	-9.38804
陶	-9.38891
中原	-9.38897
學士	-9.38953
而無	-9.38966
轉運司	-9.38996
郡縣	-9.39041
寅	-9.39144
髙祖	-9.39239
瓊	-9.39243
單	-9.3925
逮	-9.39277
州郡	-9.39398
創	-9.39404
貸	-9.39447
又以	-9.39514
侍御史	-9.39669
訴	-9.39683
藥	-9.39926
冒	-9.39933
濬	-9.39936
䝉古	-9.39964
以本	-9.39982
絹	-9.40041
珍	-9.40067
步	-9.40145
雷	-9.40168
撰	-9.40203
其罪	-9.40232
吏部	-9.40278
甲戌	-9.40292
銅	-9.40335
判官	-9.40404
庸	-9.40504
冊	-9.40577
饑	-9.40581
復扶	-9.40789
側	-9.40878
細	-9.40937
将軍	-9.40965
壁	-9.40988
公子	-9.41162
周公	-9.41175
其衆	-9.41252
晏	-9.41353
京城	-9.41368
韶	-9.41396
詢	-9.41465
差遣	-9.415
己丑	-9.41648
凶	-9.41664
解題曰	-9.41694
御史臺	-9.41901
莫不	-9.41947
福建	-9.42029
諱	-9.42103
麟	-9.42299
竄	-9.42443
殿中侍御史	-9.42449
局	-9.42812
婦	-9.42839
幹	-9.42868
溪	-9.43055
午	-9.43074
匹	-9.43085
戴	-9.43298
元昊	-9.43339
矦	-9.43344
繁	-9.43403
依舊	-9.4352
檄	-9.43619
某	-9.43665
蒙	-9.43727
三人	-9.43734
神宗	-9.43763
以其	-9.43886
賢曰	-9.43937
蔡京	-9.43989
贊	-9.4415
悔	-9.4417
同平章事	-9.44173
駐	-9.4421
相度	-9.44238
準	-9.4424
進呈	-9.44252
以吕祖謙	-9.44255
其餘	-9.44401
厲	-9.44459
分註	-9.44536
不應	-9.44576
至于	-9.44579
糴	-9.44591
聖人	-9.4467
詔書	-9.4468
舒	-9.44852
以備	-9.44899
閉	-9.45005
其地	-9.45202
煩	-9.45481
司徒	-9.4555
珠	-9.45565
緩	-9.45577
牙	-9.45813
東西	-9.45852
皮	-9.4598
産	-9.46162
舎	-9.46183
不聽	-9.46347
後世	-9.46476
潰	-9.46603
挾	-9.46686
安石曰	-9.46695
匡	-9.46728
乙	-9.46746
恒	-9.46796
州軍	-9.4687
融	-9.46898
自稱	-9.46916
故有是命	-9.46975
不用	-9.47166
一旦	-9.47206
驗	-9.47243
答	-9.47325
裴	-9.47426
仕	-9.47541
渉	-9.47662
蒙古	-9.47664
讀曰	-9.47718
排	-9.4782
䟽	-9.48155
啓	-9.48312
受命	-9.4832
根	-9.48387
户部	-9.48458
標目修	-9.48583
之數	-9.48738
鳯	-9.48752
覽	-9.48777
歌	-9.48788
停	-9.48879
黙	-9.48902
出於	-9.48933
南北	-9.4899
毋得	-9.49223
料	-9.49254
恃	-9.49266
霸	-9.49285
唐主	-9.49296
嵩	-9.49319
曉	-9.49337
匿	-9.4937
章惇	-9.49523
儉	-9.49537
整	-9.49589
二州	-9.49673
淺	-9.49782
傳云	-9.49828
上以	-9.4989
辯	-9.49952
浮	-9.50031
丙戌	-9.50054
殆	-9.50067
而死	-9.50139
訟	-9.50209
知制誥	-9.50245
徽	-9.50317
荆	-9.50389
秉	-9.50549
課	-9.50722
無不	-9.50924
兵馬	-9.50969
以示	-9.51041
五百	-9.51089
邀	-9.51118
巧	-9.51219
公卿	-9.5126
不報	-9.51286
等皆	-9.51445
植	-9.51462
西南	-9.51473
都監	-9.51568
又有	-9.51602
以待	-9.51628
之患	-9.51746
遭	-9.51752
冝	-9.51861
五日	-9.51868
十一	-9.5187
淮西	-9.5189
陞	-9.51923
節制	-9.52337
東北	-9.52342
有罪	-9.52345
忠義	-9.52392
使之	-9.52428
露	-9.52503
鑑	-9.52574
願陛下	-9.52596
澄	-9.52605
荀	-9.52658
又云	-9.52661
忍	-9.5276
壬戌	-9.52793
骨	-9.52807
憤	-9.52852
不宜	-9.52914
稽	-9.52948
是為	-9.52967
環	-9.53059
曰今	-9.53118
臣僚	-9.53147
朔日有食之	-9.5317
地震	-9.53195
世忠	-9.53206
所部	-9.53228
晟	-9.53273
濫	-9.53336
入城	-9.53421
𦵏	-9.53468
不與	-9.53552
巨	-9.53555
靡	-9.5356
衝	-9.53648
戊戌	-9.53753
侍郎	-9.53776
寡	-9.53874
尚書省	-9.53945
閲	-9.5398
猛	-9.54049
本紀	-9.54097
翟	-9.54181
五十	-9.54208
二百	-9.54245
仁宗	-9.5426
徐州	-9.54265
盈	-9.54273
司空	-9.54368
君臣	-9.54409
奸	-9.54491
甘	-9.54533
豪	-9.54546
頓	-9.5463
本朝	-9.54711
上皇	-9.54714
冲	-9.54737
聼	-9.54758
丑	-9.54778
不克	-9.54785
保甲	-9.54819
箋按	-9.55001
湖南	-9.55073
妾	-9.55237
圗	-9.55247
属	-9.5528
一時	-9.55339
鐵	-9.55455
遁	-9.55472
至此	-9.55474
躬	-9.55522
全忠	-9.55567
裁	-9.55576
穀	-9.55745
他日	-9.55766
樹	-9.55772
皇太子	-9.55919
卓	-9.56027
皆有	-9.56039
趙鼎	-9.56067
短	-9.56075
席	-9.56278
尺	-9.56297
辦	-9.56342
輔臣	-9.56373
父母	-9.56396
樞	-9.56426
蕩	-9.5651
亦有	-9.56546
千里	-9.56553
之類	-9.56583
大事	-9.56594
迹	-9.56614
漕	-9.5662
乃止	-9.56656
國之	-9.5671
毒	-9.56721
中書舍人	-9.56722
之上	-9.56732
褒	-9.56933
静	-9.56968
世祖	-9.56978
宰臣	-9.57029
不已	-9.571
人皆	-9.57142
晉王	-9.57159
潜	-9.57372
邱	-9.57475
軍馬	-9.57498
岸	-9.57526
罕	-9.57638
纔	-9.5765
兆	-9.57698
弑	-9.57823
竇	-9.5785
譏	-9.57898
漏	-9.58048
黎	-9.58139
不受	-9.58191
未可	-9.58243
軍節度使	-9.58315
劄子	-9.58422
秋八月	-9.58446
庚戌	-9.58449
秦州	-9.58634
以前	-9.58646
以爲	-9.58673
旣	-9.58726
距	-9.58845
昏	-9.58859
實錄	-9.58922
恤	-9.58926
皇子	-9.58951
涉	-9.59107
將帥	-9.59202
拘	-9.59227
道路	-9.59233
入見	-9.59244
級	-9.5925
未幾	-9.59275
深入	-9.59294
段	-9.59315
更不	-9.59427
禮部	-9.59498
在京	-9.59612
僅	-9.59689
江陵	-9.59705
帳	-9.59762
僕	-9.59778
豈不	-9.60023
不在	-9.60042
奏請	-9.6005
壯	-9.60078
宰	-9.60114
死之	-9.60373
壘	-9.60387
數日	-9.60476
渾	-9.60504
曰陛下	-9.60548
傑	-9.60551
為名	-9.60591
中丞	-9.60639
取之	-9.60655
相繼	-9.60748
云云	-9.60768
無以	-9.60786
不若	-9.60955
舞	-9.61043
誕	-9.61151
涇原	-9.61262
之兵	-9.61266
屠	-9.613
宰執	-9.61305
舊制	-9.61332
男	-9.61426
萬人	-9.61438
去年	-9.61504
其人	-9.61509
巢	-9.61601
之故	-9.61602
倍	-9.61608
逵	-9.61618
潘	-9.61701
弓	-9.61725
佛	-9.61763
仙	-9.6178
疆	-9.6186
咎	-9.6201
麻	-9.62127
畜	-9.62327
完	-9.62581
如故	-9.62609
不出	-9.62627
十五	-9.62679
如此則	-9.62731
朗	-9.62742
吏部尚書	-9.62803
哈	-9.62833
發兵	-9.6288
用事	-9.63113
車駕	-9.63253
之義	-9.63256
宫中	-9.6328
及是	-9.6334
一切	-9.63354
之衆	-9.63441
斂	-9.63449
展	-9.63463
自殺	-9.63521
巡	-9.63557
乏	-9.63606
之子也	-9.63618
刼	-9.63652
知州	-9.63667
痛	-9.63694
皆以	-9.63717
惜	-9.63828
有餘	-9.63869
黒	-9.63903
晉陽	-9.63938
也故	-9.64056
之弊	-9.64059
擁	-9.64089
逢	-9.64089
儲	-9.64097
大赦	-9.64221
夕	-9.64263
㨗	-9.64355
之日	-9.64356
斤	-9.64381
夢	-9.64401
三千	-9.64426
寃	-9.64462
未能	-9.64487
殘	-9.64548
救之	-9.64587
押	-9.64642
壞	-9.64655
謫	-9.64675
之名	-9.64683
起兵	-9.64698
了	-9.6472
曰臣	-9.64734
破之	-9.64773
齎	-9.648
栁	-9.6485
南陽	-9.64957
副之	-9.64988
郡王	-9.65035
河西	-9.6514
庚	-9.65148
亮翻	-9.65248
兹	-9.65259
觧	-9.65281
夏五月	-9.65327
是年	-9.65381
之勢	-9.65403
渭	-9.65409
鹿	-9.65415
矢	-9.65465
荆州	-9.65528
辛卯	-9.6555
大敗	-9.65575
乃命	-9.65666
鄂	-9.65673
諷	-9.65797
未至	-9.65929
萬一	-9.65989
悟	-9.66085
䖍	-9.66202
尸	-9.66259
不相	-9.66285
伸	-9.66293
哭	-9.66334
議者	-9.66397
厭	-9.66514
今年	-9.6654
耗	-9.66558
一百	-9.66558
社	-9.66582
遼東	-9.66633
罷之	-9.66659
輕重	-9.66774
頒	-9.66817
丁卯	-9.66911
誓	-9.67014
之命	-9.6708
堪	-9.67192
傳曰	-9.67252
之議	-9.67299
𤼵	-9.67312
採	-9.67329
恥	-9.67371
頌	-9.67389
燾	-9.67451
所得	-9.67467
譽	-9.67481
泣	-9.67528
賴	-9.67677
其黨	-9.67727
壬	-9.67767
暉	-9.67793
夏人	-9.67906
誤也	-9.67974
姓名	-9.67992
開封府	-9.68011
勘	-9.68019
汗	-9.68027
之家	-9.6804
隊	-9.68174
遠	-9.68312
祚	-9.68317
彬	-9.68343
然則	-9.68475
數千	-9.68536
協	-9.68551
偽翻	-9.68553
賛	-9.68572
品	-9.68573
禦	-9.68579
錯	-9.68632
軾	-9.68651
切下	-9.68675
陜	-9.68683
壇	-9.6911
筆	-9.69207
提	-9.69278
藝	-9.69302
若不	-9.69308
諸道	-9.69375
前日	-9.69407
是非	-9.69448
貧	-9.69526
捷	-9.69599
吏民	-9.6962
監軍	-9.69636
鑒	-9.69638
洞	-9.69679
長史	-9.69733
湏	-9.69772
苑	-9.69888
曰朕	-9.69982
軍事	-9.69998
租	-9.70049
其間	-9.70074
西京	-9.70084
侍從	-9.70121
篇	-9.7029
巖	-9.70294
書曰	-9.70401
仗	-9.70415
冬十一月	-9.70435
出兵	-9.70439
屏	-9.7057
不合	-9.70594
南京	-9.70796
城下	-9.70879
渡江	-9.70937
秦王	-9.70998
其意	-9.71003
十六	-9.71043
史記	-9.71116
上批	-9.71124
丙	-9.713
乙卯	-9.71328
競	-9.7134
臧	-9.71348
故曰	-9.71388
妻子	-9.71435
晦	-9.71459
怪	-9.71465
東都	-9.71497
其父	-9.71505
鳴	-9.71584
數十	-9.71622
不勝	-9.7176
陟	-9.71783
議論	-9.71867
又詔	-9.71925
慕	-9.71973
所殺	-9.72037
垣	-9.72108
鄰	-9.72128
疲	-9.72194
仲淹	-9.72245
誅之	-9.72315
可也	-9.72351
髙麗	-9.72418
知縣	-9.72426
之徒	-9.72459
為相	-9.72502
復扶又翻	-9.72619
十萬	-9.72652
勉	-9.72692
靜	-9.72705
近臣	-9.72714
樊	-9.72715
激	-9.72725
賂	-9.72854
歛	-9.72889
以兵	-9.7295
之禍	-9.72988
庻	-9.73009
邸	-9.73227
金帛	-9.73377
攻之	-9.73445
不可不	-9.73455
明堂	-9.73503
謗	-9.73591
五千	-9.73687
脅	-9.73702
七日	-9.73714
遣兵	-9.73736
在今	-9.73777
不得已	-9.73786
太常	-9.73793
齒	-9.73824
拒之	-9.73825
遜	-9.73939
迫	-9.73946
俸	-9.74008
項	-9.74044
墓	-9.74093
抱	-9.74129
突	-9.74144
不足以	-9.74166
鄙	-9.74203
為一	-9.74213
諫官	-9.74233
宦官	-9.74364
鴻	-9.7437
宦者	-9.74382
亨	-9.74384
葛	-9.74456
丕	-9.74496
警	-9.74532
凌	-9.74543
之謀	-9.74602
二千	-9.74665
主簿	-9.74668
掩	-9.74721
如是	-9.74737
慢	-9.74741
孰	-9.74853
帛	-9.74902
巴延	-9.74942
幼	-9.74949
燒	-9.74987
尾	-9.74993
之外	-9.75002
旋	-9.75123
子也	-9.75135
随	-9.75139
在位	-9.75198
肇	-9.75362
臺諫	-9.75367
江東	-9.7548
撃	-9.7549
盗賊	-9.75564
虧	-9.75569
苗	-9.7572
摯	-9.75775
不必	-9.75792
詳定	-9.75792
祿	-9.75803
舉兵	-9.7586
不言	-9.75987
璘	-9.76
何如	-9.76013
鳳	-9.76051
大將	-9.76157
廣西	-9.76165
遂以	-9.7617
久之	-9.76201
作亂	-9.76211
事見	-9.76217
進退	-9.7622
滋	-9.76252
王師	-9.76267
十三	-9.76289
哲	-9.76335
中興	-9.76361
忿	-9.76416
本司	-9.76426
賞罰	-9.76481
脱	-9.76503
宇	-9.7652
彭城	-9.76613
伏誅	-9.76699
謨	-9.76756
疎	-9.76798
兩浙	-9.76846
未見	-9.7692
練	-9.76968
東宫	-9.76976
卧	-9.77004
篤	-9.77047
當作	-9.77054
惠卿	-9.7707
蠲	-9.77161
豈有	-9.77231
安國	-9.77288
所為	-9.77291
其名	-9.77297
契丹主	-9.77343
分兵	-9.77352
窺	-9.77365
所有	-9.77477
契	-9.77504
帝以	-9.7751
簿	-9.77577
復置	-9.77645
芳	-9.77698
禁中	-9.77785
戮	-9.77823
官司	-9.77878
獵	-9.77954
熊	-9.77968
癸卯	-9.78024
中山	-9.78026
攸	-9.78028
不便	-9.78062
軍民	-9.78114
所奏	-9.78124
恵	-9.7814
狂	-9.78148
言其	-9.78168
岐	-9.78198
書法	-9.78303
安得	-9.78312
太廟	-9.78336
旬	-9.78382
睿	-9.78447
至今	-9.78502
上疏	-9.78507
鋭	-9.78514
之志	-9.78528
數萬	-9.7855
以新	-9.78604
隔	-9.78674
坊	-9.78772
州防禦使	-9.78782
河陽	-9.78794
水經注	-9.78989
鈐轄	-9.78992
數百	-9.79049
範	-9.79056
真宗	-9.79155
頴	-9.7918
下同	-9.79232
渡河	-9.79257
取㫖	-9.79306
公孫	-9.79415
寕	-9.79432
乃詔	-9.79521
談	-9.7962
行營	-9.79649
太師	-9.7972
㓜	-9.79791
應副	-9.79829
消	-9.79832
健	-9.79889
之説	-9.8001
拱	-9.80018
則是	-9.80025
留後	-9.8005
推恩	-9.80076
肉	-9.80077
不可以	-9.80099
狄	-9.8017
韓琦	-9.80173
貝勒	-9.80263
留守	-9.80331
盤	-9.80379
未知	-9.80409
邊事	-9.80446
血	-9.80447
諸郡	-9.80503
世子	-9.80504
仍令	-9.80525
磨勘	-9.80551
注見	-9.80595
誼	-9.8064
齊王	-9.80678
上表	-9.80691
手詔	-9.80783
漢中	-9.80833
屯田	-9.80994
縣令	-9.81031
麥	-9.81038
㡬	-9.81096
太學	-9.81208
民力	-9.81309
従	-9.81312
其實	-9.81345
幣	-9.81471
仇	-9.81505
鈞	-9.81514
甞	-9.81641
之利	-9.81642
先朝	-9.81668
長吏	-9.81778
恪	-9.81822
復以	-9.81824
更名	-9.81922
戚	-9.82064
軌	-9.82066
閔	-9.82085
輦	-9.82162
非是	-9.82211
偃	-9.82232
撥	-9.82251
廉	-9.82319
□	-9.82382
公私	-9.824
得之	-9.82414
慰	-9.82419
不忍	-9.82425
河中	-9.82427
偉	-9.82491
下詔	-9.82502
紫	-9.82514
來降	-9.82534
得罪	-9.82565
戌	-9.82603
不免	-9.82681
都尉	-9.82728
乂	-9.82736
三公	-9.82794
請以	-9.82807
職事	-9.82812
宋主	-9.82846
自古	-9.8285
騰	-9.82986
者亦	-9.83009
湛	-9.83043
貳	-9.83094
校尉	-9.83211
束	-9.83298
今改	-9.83306
徹	-9.83344
浦	-9.83406
塗	-9.83522
醫	-9.83539
京兆	-9.83633
詆	-9.83638
祝	-9.8368
尼	-9.83732
憚	-9.8377
吐	-9.83819
之中	-9.83913
琳	-9.8393
大王	-9.83985
什	-9.83987
縣有	-9.84155
究	-9.84339
此時	-9.8439
隴	-9.84432
州團練使	-9.84517
互	-9.84588
沔	-9.84629
京西	-9.84667
溢	-9.84706
行在	-9.84744
廬	-9.84793
餉	-9.84798
御史大夫	-9.84806
鳥	-9.84847
十八	-9.84863
熙	-9.8496
日月	-9.85024
齋	-9.85062
添	-9.85101
琮	-9.85104
未及	-9.85182
銜	-9.85192
自此	-9.85294
在外	-9.85336
萬緡	-9.85346
墨	-9.85407
捨	-9.85432
之下	-9.85597
證	-9.85681
斌	-9.85702
刑部	-9.85727
册	-9.85736
定州	-9.85932
吏翻	-9.85944
四人	-9.85948
誦	-9.86014
囘	-9.86045
夏國	-9.86109
往往	-9.86113
相與	-9.86128
璋	-9.86299
雲南	-9.86312
將即亮翻	-9.8634
玠	-9.8634
管勾	-9.8644
香	-9.86472
酉	-9.86542
之官	-9.86868
奉使	-9.86875
鑿	-9.86948
彰	-9.86973
輪	-9.86974
岱	-9.87046
淳	-9.87087
本州	-9.87108
浸	-9.87136
己卯	-9.8715
公議	-9.87191
謬	-9.87276
鬻	-9.87292
京東	-9.87439
朔方	-9.87446
黃	-9.87516
台	-9.87531
克用	-9.87597
行下	-9.87641
貽	-9.87649
一路	-9.87651
燕王	-9.87732
諸司	-9.87812
大小	-9.8782
村	-9.87844
緒	-9.87875
)○	-9.88019
閤	-9.88033
夾	-9.88048
析	-9.88049
閑	-9.88058
邢	-9.88086
懲	-9.88127
緣	-9.88192
禽	-9.88335
桂	-9.88357
西域	-9.88357
得其	-9.88419
青州	-9.88436
皓	-9.88441
較	-9.88476
徧	-9.88513
耿	-9.88537
文彦博	-9.88594
之役	-9.88658
郢	-9.88722
翌日	-9.88749
熈	-9.88773
詭	-9.88779
取其	-9.88887
毅	-9.88924
含	-9.88984
李綱	-9.89017
臣恐	-9.89037
制置使	-9.8911
之則	-9.89122
胥	-9.89195
醉	-9.89211
無事	-9.89223
郡國	-9.89271
探	-9.893
不下	-9.89346
門下	-9.89378
千餘人	-9.89416
偕	-9.8948
耶律	-9.89516
換	-9.89527
王子	-9.89533
等州	-9.89572
蕃部	-9.89578
題	-9.89597
佑	-9.89643
等言	-9.89661
頼	-9.89737
赴闕	-9.89738
都統	-9.89749
百萬	-9.89749
選人	-9.89782
喻	-9.8979
大怒	-9.89804
姜	-9.89823
及其	-9.89836
國人	-9.89849
慕容	-9.89856
弛	-9.89961
花	-9.89981
二日	-9.9006
姬	-9.90169
昇	-9.90279
書之	-9.90281
戰于	-9.90351
蓄	-9.90352
瓘	-9.90381
内史	-9.9039
閻	-9.90495
何也	-9.90506
砦	-9.90541
往來	-9.90545
江州	-9.90545
二萬	-9.90546
劒	-9.90621
其心	-9.90633
㑹要	-9.90684
徇	-9.90742
敗之	-9.90769
詔自今	-9.90769
敇	-9.908
宛	-9.90801
十日	-9.90936
斛	-9.90983
四日	-9.91004
喬	-9.91065
淫	-9.9114
纂	-9.91215
柵	-9.91327
讒	-9.91332
聘	-9.91383
填	-9.91402
總管	-9.91406
蔡確	-9.9144
浙西	-9.91453
蔣	-9.91454
其國	-9.91498
伺	-9.91527
雲中	-9.91535
畨	-9.91576
釋之	-9.91687
富弼	-9.91725
譚	-9.91732
元帥	-9.91744
百里	-9.91751
都統制	-9.91762
為國	-9.91805
首領	-9.91836
潁	-9.91837
第一	-9.91853
瞻	-9.91856
諸子	-9.91963
大同	-9.92107
博士	-9.92129
鬼	-9.92135
以告	-9.92161
則有	-9.92249
之職	-9.92311
富貴	-9.92367
臯	-9.92383
者必	-9.92465
遲	-9.92536
炎	-9.9255
開封	-9.92575
詔令	-9.92611
曰汝	-9.92621
以後	-9.92653
虐	-9.92783
安南	-9.92803
而下	-9.9282
之政	-9.92884
無罪	-9.92987
缺	-9.92991
楚王	-9.93074
忤	-9.93097
托	-9.93109
漢書	-9.93114
已上	-9.9324
右正言	-9.93301
率衆	-9.93322
蘇軾	-9.93343
勑	-9.93449
改為	-9.93476
卿等	-9.93542
誨	-9.93552
官屬	-9.93591
之師	-9.93603
國事	-9.93666
泥	-9.93742
遥	-9.9375
閏月	-9.93768
閒	-9.93791
殺其	-9.939
文帝	-9.93922
禁軍	-9.94001
號令	-9.94051
三州	-9.94081
鎮江	-9.94137
戊	-9.9415
錦	-9.94163
伍	-9.94166
偶	-9.94197
郎中	-9.9422
皆不	-9.94223
城寨	-9.94234
癸	-9.94261
麗	-9.94278
王珪	-9.94338
資政殿學士	-9.94389
未必	-9.94494
宣諭	-9.94501
瑾	-9.94576
見之	-9.94588
必不	-9.94623
柴	-9.94672
兖州	-9.94682
喇	-9.94685
敷	-9.947
官爵	-9.94702
各有	-9.94704
叚	-9.94752
錡	-9.94759
出師	-9.94777
綏	-9.94797
閱	-9.94802
矯	-9.94899
暫	-9.94933
它	-9.9521
岳飛	-9.95228
呂	-9.95298
大破之	-9.95381
禀	-9.95548
婁	-9.95549
住	-9.956
庶幾	-9.95621
常平	-9.95654
四十	-9.95656
以来	-9.95691
緩急	-9.95783
韓世忠	-9.95813
隘	-9.95843
柱	-9.95901
旅	-9.9592
大喜	-9.95947
臣聞	-9.96002
罔	-9.96214
人馬	-9.96217
伏望	-9.9632
歎	-9.9658
柄	-9.96597
亥	-9.96598
武臣	-9.96676
宣撫使	-9.96684
風俗	-9.96703
文王	-9.96721
熹	-9.96761
鮮卑	-9.96768
臣下	-9.96839
佞	-9.96847
者並	-9.96889
枉	-9.96937
一曰	-9.96942
言事	-9.96962
此乃	-9.96966
後漢	-9.97021
帥衆	-9.9704
促	-9.97153
𦙍	-9.97155
賑	-9.97231
之任	-9.97246
無復	-9.97271
隄	-9.97279
三萬	-9.97283
四海	-9.97298
之理	-9.97322
婦人	-9.97331
鮮	-9.97336
踈	-9.97394
十四	-9.97443
聖㫖	-9.97452
薩	-9.97499
其母	-9.97513
逺近	-9.97522
之費	-9.97539
閤門	-9.97551
侂胄	-9.97582
人户	-9.97709
遼主	-9.97737
武王	-9.97784
卞	-9.97813
俘	-9.97824
陽縣	-9.97837
塔	-9.97877
誥	-9.97905
元豐	-9.97933
轍	-9.97979
廣州	-9.98064
五人	-9.98094
靣	-9.98108
安撫使	-9.98111
舅	-9.98142
曰卿	-9.98147
碑	-9.98147
戲	-9.98164
矜	-9.98459
拯	-9.98477
城縣	-9.98488
論列	-9.98528
太傅	-9.98554
法度	-9.98559
齊主	-9.98559
左傳	-9.98594
之變	-9.9864
益州	-9.98794
一員	-9.98825
悲	-9.98834
彦博	-9.9885
者多	-9.98855
提㸃刑獄	-9.98855
爽	-9.9887
莫敢	-9.98945
貌	-9.98977
舉人	-9.98982
功臣	-9.99001
流涕	-9.99046
何為	-9.99072
肯	-9.9909
諸将	-9.99132
成王	-9.99138
財用	-9.99149
敝	-9.9915
鎭	-9.99164
體量	-9.99176
贓	-9.99193
長子	-9.99358
也若	-9.99383
贍	-9.99473
十一年	-9.99511
皆為	-9.99559
數千人	-9.99592
銓	-9.99685
碩	-9.99753
海内	-9.99769
國子監	-9.99778
張俊	-9.99858
之語	-9.99876
烏珠	-9.99943
轉運判官	-9.99969
嫌	-9.9998
㑹稽	-9.99993
見其	-10
看詳	-10.0002
者以	-10.0005
汾	-10.0012
十二年	-10.0012
言於	-10.0014
數年	-10.0025
紅	-10.0025
縣西	-10.0026
且言	-10.0027
今不取	-10.0027
之術	-10.0031
嚮	-10.0032
而出	-10.0033
禦之	-10.0039
東魏	-10.005
姦邪	-10.0056
鸞	-10.0088
曜	-10.0088
成功	-10.0093
駭	-10.0097
倡	-10.0099
指揮使	-10.0101
得以	-10.0106
萬餘	-10.0108
諒	-10.0111
聖意	-10.0128
臨安	-10.0133
繩	-10.0135
進兵	-10.0143
饒	-10.0143
惡之	-10.015
曰君	-10.0157
隙	-10.0161
鬬	-10.0162
廵檢	-10.0162
効	-10.0165
該	-10.0166
凉	-10.0168
聰	-10.0185
提㸃	-10.0188
軰	-10.0193
釁	-10.0196
大計	-10.0197
尼瑪哈	-10.0207
童	-10.0209
力戰	-10.0211
二十年	-10.0212
門外	-10.0218
南郊	-10.022
大兵	-10.022
終不	-10.0223
觀察使	-10.0223
怠	-10.0228
彪	-10.0231
先王	-10.0235
也夫	-10.0243
無功	-10.0243
諤	-10.0244
也然	-10.0244
黄河	-10.025
所至	-10.0253
人君	-10.0254
稷	-10.026
溝	-10.0264
晚	-10.0264
立法	-10.0266
諡曰	-10.0266
赴行在	-10.0273
統制	-10.0274
潤	-10.0276
已有	-10.0279
批	-10.0281
縣北	-10.0283
譙	-10.0292
數月	-10.0318
長沙	-10.032
賓	-10.032
饗	-10.0322
奏乞	-10.0323
帥讀曰率	-10.0335
因言	-10.0337
圭	-10.0338
霍	-10.0338
歎曰	-10.0341
千人	-10.0342
宣撫司	-10.0364
恱	-10.0366
績	-10.0367
欲乞	-10.0373
安撫	-10.0377
聞奏	-10.0377
殺人	-10.0384
番	-10.0389
兵部尚書	-10.0401
棣	-10.0404
綰	-10.0411
包	-10.0412
撤	-10.0418
洋	-10.0419
和議	-10.0421
閭	-10.0421
蘓	-10.0423
儻	-10.0425
自陳	-10.0434
子曰	-10.0434
庾	-10.0434
從官	-10.044
尚書令	-10.0442
曹操	-10.0443
數百人	-10.0457
替	-10.0457
山西	-10.047
詰	-10.0471
杭州	-10.0473
淮東	-10.0488
日歴	-10.0489
延州	-10.0498
璽	-10.05
顥	-10.0504
待之	-10.0505
愧	-10.0505
亦以	-10.0505
榜	-10.0505
人之	-10.0505
即日	-10.0507
曰昔	-10.0517
下有	-10.0518
頻	-10.052
坦	-10.052
板	-10.0521
得失	-10.0525
廣陵	-10.0526
上曰朕	-10.0527
金銀	-10.0535
其弟	-10.0535
張本	-10.054
遁去	-10.0548
一名	-10.0551
來歸	-10.0557
差官	-10.0557
劉光世	-10.0558
近日	-10.0558
亦無	-10.0562
敵人	-10.0566
眷	-10.0572
平章	-10.0573
鄜延	-10.0576
特穆爾	-10.059
乖	-10.0592
今來	-10.0599
所居	-10.0601
娶	-10.0606
汪	-10.0608
傳修	-10.0621
劉摯	-10.0621
廹	-10.0629
僕射	-10.063
曠	-10.0631
王氏	-10.0634
甚衆	-10.0637
萬餘人	-10.0643
荆南	-10.0646
反覆	-10.0647
夷簡	-10.0649
開元	-10.0657
把	-10.0659
參軍	-10.0661
女真	-10.068
落職	-10.0683
守之	-10.0687
滯	-10.0691
可用	-10.0696
有此	-10.0698
酋	-10.0699
睦	-10.07
鞏	-10.0702
學者	-10.0711
寔	-10.0712
償	-10.0719
入冦	-10.0723
非所以	-10.0724
闗中	-10.0732
不顧	-10.0732
統制官	-10.0735
古者	-10.074
髙宗	-10.0745
俞	-10.0753
用翻	-10.0755
揆	-10.0766
中官	-10.0771
翁	-10.0774
直秘閣	-10.0778
扼	-10.0783
雞	-10.0786
諸縣	-10.0791
孚	-10.0794
為太子	-10.0798
諸臣	-10.0807
十五年	-10.0812
儼	-10.0813
巫	-10.0814
遣官	-10.0818
十餘	-10.0818
禪	-10.0821
況	-10.0825
湖廣	-10.0827
億	-10.0832
灌	-10.0833
不安	-10.0837
泗州	-10.0839
樞宻使	-10.084
自有	-10.0841
士民	-10.0845
精兵	-10.0851
朱全忠	-10.0851
盜賊	-10.0852
滕	-10.0852
一月	-10.0853
平陽	-10.0855
古今	-10.0861
為于偽翻	-10.0861
欽定四庫全書	-10.0863
後魏	-10.0868
欵	-10.0877
不利	-10.0879
不通	-10.0881
侃	-10.0883
刪	-10.0889
或有	-10.089
大司馬	-10.0893
古之	-10.0896
或曰	-10.0898
文學	-10.0899
出戰	-10.0904
宋白曰	-10.0904
檢校	-10.0905
樞密院	-10.0913
生事	-10.0917
齊侯	-10.0918
牢	-10.0919
艱	-10.0922
溥	-10.0925
光世	-10.0933
嫁	-10.0933
曰公	-10.094
安定	-10.0941
䕫	-10.0943
奬	-10.0944
不悦	-10.0944
參政	-10.0947
大水	-10.0948
萌	-10.095
郎官	-10.0957
朋黨	-10.0963
固守	-10.0971
于此	-10.0976
周禮	-10.0978
六十	-10.0979
斬首	-10.0984
而行	-10.0986
范仲淹	-10.0993
驟	-10.0994
懸	-10.0995
十七	-10.1002
緡	-10.1002
蘇轍	-10.1006
歟	-10.1007
東京	-10.1013
開府儀同三司	-10.102
湘	-10.1026
縣地	-10.1037
紙	-10.1043
峽	-10.1045
帥師	-10.1047
卒子	-10.1048
穿	-10.1054
禮部侍郎	-10.1062
者不	-10.1063
那	-10.1066
得人	-10.1074
當以	-10.1075
乃遣	-10.108
妖	-10.1094
墮	-10.1095
荷	-10.1098
衆心	-10.1104
僥倖	-10.1105
總兵	-10.1108
人臣	-10.1113
肥	-10.1119
而止	-10.1119
嶺南	-10.1124
建議	-10.1126
丁夘	-10.1135
祈	-10.1139
宿衛	-10.1143
贖	-10.1143
入對	-10.1147
宥	-10.1154
劉氏	-10.1158
熈河	-10.1158
請也	-10.1159
太常博士	-10.1177
人才	-10.118
止之	-10.1183
布衣	-10.1191
踐	-10.1193
軍前	-10.1195
腹心	-10.1199
不容	-10.12
璧	-10.121
猶未	-10.1215
兮	-10.1216
而歸	-10.1218
靈州	-10.1226
處分	-10.1229
十四年	-10.1231
勵	-10.1237
山在	-10.1241
率兵	-10.1242
二十萬	-10.1244
追之	-10.1248
舊紀	-10.1256
未敢	-10.1259
截	-10.127
祁	-10.1279
巡撫	-10.1279
㸃	-10.1282
者為	-10.1285
江浙	-10.1286
十餘萬	-10.1289
復為	-10.1295
一二	-10.1305
西川	-10.1311
晉侯	-10.1315
中書省	-10.1315
吏部侍郎	-10.1318
哩	-10.1329
十三年	-10.1338
平章事	-10.1339
戾	-10.1341
上意	-10.1342
龜	-10.1349
下獄	-10.1353
今後	-10.1353
姪	-10.1357
朝夕	-10.1361
天命	-10.1368
丈	-10.137
幕	-10.1377
改正	-10.138
行省	-10.1382
街	-10.1385
約束	-10.1389
萬里	-10.1391
耳目	-10.1394
牽	-10.1397
耆	-10.1397
三路	-10.1401
今若	-10.1405
澶州	-10.1418
晝夜	-10.1418
公著	-10.1419
除名	-10.1422
隂陽	-10.1431
之䇿	-10.1432
夏六月	-10.1435
中軍	-10.1435
附見	-10.1436
眞	-10.1441
瀆	-10.1443
糾	-10.1445
制度	-10.1448
用人	-10.1452
賜之	-10.146
愍	-10.146
由此	-10.146
帖	-10.1462
視事	-10.1464
上問	-10.1464
遮	-10.1466
並為	-10.1468
悼	-10.1468
庇	-10.1476
已下	-10.1476
周主	-10.1478
鼔	-10.1478
嬰	-10.1483
同列	-10.1485
勃	-10.1486
埽	-10.1488
蝗	-10.1488
内臣	-10.1499
弔	-10.1501
粗	-10.1505
諸生	-10.1506
次第	-10.1506
緡錢	-10.1507
民之	-10.1508
也又	-10.151
膺	-10.151
縣南	-10.1511
不聴	-10.1512
裔	-10.1513
何所	-10.1517
衆皆	-10.1517
撓	-10.1517
再拜	-10.1518
等處	-10.1522
處置	-10.1523
梅	-10.1524
製	-10.1528
飢	-10.1535
柳	-10.1536
未得	-10.1539
鳯翔	-10.154
攻城	-10.1541
武昌	-10.1544
僭	-10.1547
欲令	-10.1549
弃	-10.155
上帝	-10.1551
挺	-10.1551
汲	-10.1551
朔日食	-10.156
不疑	-10.1561
衮	-10.1563
不問	-10.1564
戈	-10.1565
繆	-10.1565
縣東	-10.1567
安危	-10.1571
旨	-10.1573
演	-10.1573
帥臣	-10.1574
崖	-10.1575
朝㫖	-10.1575
之國	-10.1576
河内	-10.1582
州觀察使	-10.1589
僚	-10.1592
弓箭手	-10.1595
兵部	-10.1601
日夜	-10.1606
朝直	-10.1612
遏	-10.1614
起復	-10.1621
播	-10.1622
之情	-10.1626
劇	-10.1626
亳	-10.1631
州府	-10.1637
其中	-10.1643
來朝	-10.1649
翰林	-10.1653
至京師	-10.1653
咨	-10.1657
生靈	-10.1659
罵	-10.1663
快	-10.1664
所載	-10.1666
數人	-10.1667
遂與	-10.1681
五代	-10.1684
八日	-10.1688
麾下	-10.169
從容	-10.1692
拉	-10.1695
而退	-10.1696
莒	-10.1701
光武	-10.1703
右諫議大夫	-10.1707
蒼	-10.1707
羡	-10.1712
潭	-10.1714
忠臣	-10.1716
梁王	-10.1717
綽	-10.1717
行臺	-10.1726
於外	-10.1726
原本	-10.1729
不絶	-10.1732
恣	-10.1735
臨安府	-10.1736
詔曰	-10.174
劉豫	-10.174
潮	-10.1743
難以	-10.1744
寖	-10.1744
熈寧	-10.1752
諫曰	-10.1756
事之	-10.1756
九域志	-10.176
閩	-10.1761
觀之	-10.1782
鞫	-10.179
新紀	-10.1794
媚	-10.1794
自言	-10.1799
暮	-10.1801
鐸	-10.1801
相見	-10.1802
劍	-10.1802
彈	-10.1803
七十	-10.1805
為人	-10.1809
為陛下	-10.1811
刃	-10.1815
四百	-10.1819
水旱	-10.1819
筠	-10.1825
其勢	-10.1825
淑	-10.1826
不須	-10.1833
洽	-10.1839
交趾	-10.184
再三	-10.184
氷	-10.184
禮部尚書	-10.1842
貴人	-10.1844
綸	-10.1848
姓也	-10.185
跡	-10.1857
得免	-10.186
箭	-10.1865
行遣	-10.1865
刑獄	-10.1869
府庫	-10.1871
六日	-10.1872
禮官	-10.1876
曽布	-10.1883
待罪	-10.1885
髪	-10.1885
溺	-10.1886
十人	-10.1892
待制	-10.1897
此言	-10.1897
自來	-10.1903
處之	-10.1903
二字	-10.1904
𣙜	-10.1909
潭州	-10.191
趙王	-10.1911
奕	-10.1918
區	-10.1921
無他	-10.1922
主上	-10.1928
詣闕	-10.1937
不平	-10.1947
水出	-10.1961
丁謂	-10.1969
守禦	-10.197
而卒	-10.1975
嘉祐	-10.198
算	-10.1988
十里	-10.1991
遥翻	-10.1993
立功	-10.1993
繇	-10.1996
到翻	-10.1997
大理寺	-10.2
天意	-10.2005
史炤釋文曰	-10.2005
奢	-10.2006
邦昌	-10.2011
朝政	-10.2013
史言	-10.2016
堰	-10.2016
執中	-10.2019
僣	-10.2019
奎	-10.2021
進攻	-10.2037
為大	-10.2038
乙夘	-10.204
余按	-10.205
薊	-10.2056
覘	-10.206
瑜	-10.2062
以安	-10.2062
摩	-10.2067
所宜	-10.2069
萬世	-10.2075
本傳	-10.2078
又遣	-10.2079
於上	-10.208
之北	-10.2082
洲	-10.2084
評	-10.2086
欽若	-10.2091
入貢	-10.2091
迪	-10.2091
鐡	-10.2092
更始	-10.2092
弩	-10.2103
一也	-10.2106
先後	-10.2108
不樂	-10.2111
望之	-10.2112
追封	-10.2112
亦可	-10.2114
大抵	-10.2115
懋	-10.2119
洗	-10.2122
守將	-10.2132
捍	-10.2134
㫁	-10.2139
神武	-10.214
泗	-10.2141
以致	-10.2144
諸部	-10.2144
相公	-10.2145
泰山	-10.2149
有隙	-10.2153
捐	-10.2168
國用	-10.2168
轉運副使	-10.2178
耻	-10.2184
殿下	-10.2187
沛	-10.219
乞罷	-10.2192
塲	-10.2193
恩澤	-10.2194
形勢	-10.2198
奏曰	-10.2199
銳	-10.22
沃	-10.2201
艾	-10.2201
豈得	-10.2204
絲	-10.2205
上殿	-10.2206
祗	-10.2206
貟	-10.2206
堤	-10.2208
昉	-10.2218
歸之	-10.2218
冗	-10.222
莫若	-10.2222
壻	-10.2222
并州	-10.2224
上章	-10.2225
不惟	-10.2226
勛	-10.2234
紀綱	-10.2236
禧	-10.2244
樞宻	-10.2246
叱	-10.2248
大理	-10.2251
氐	-10.2253
古人	-10.2261
所屬	-10.2261
輝	-10.2264
千餘	-10.2266
吐谷渾	-10.2269
豈能	-10.2269
劄	-10.2269
先生	-10.2276
緯	-10.2281
曰若	-10.2281
起居	-10.2289
世民	-10.2293
販	-10.2298
以歸	-10.2301
辛夘	-10.2306
部落	-10.2312
奇	-10.2319
制置	-10.2321
不盡	-10.2327
以次	-10.2329
悍	-10.2331
奪其	-10.2331
無異	-10.2335
赦天下	-10.2336
之物	-10.2337
清河	-10.2339
子儀	-10.234
苖	-10.2342
視之	-10.2343
濠	-10.2344
帝紀	-10.2348
宫室	-10.2351
乃與	-10.2351
同知	-10.2352
宗社	-10.2357
固辭	-10.2357
敗走	-10.2358
譖	-10.2362
黄帝	-10.2369
粲	-10.2377
皆在	-10.2377
字子	-10.2379
殂	-10.238
王莽	-10.2381
以為不可	-10.2383
兵部侍郎	-10.2402
所用	-10.2405
昧	-10.2405
師古	-10.2406
陛	-10.2409
李氏	-10.2409
豹	-10.2414
欠	-10.2421
高祖	-10.2423
贇	-10.2425
遞	-10.2428
五萬	-10.2431
以求	-10.2432
可否	-10.2438
朴	-10.2441
廣東	-10.2444
亢	-10.2446
布曰	-10.2449
墜	-10.2451
興元	-10.2458
奉詔	-10.2458
不聞	-10.246
披	-10.2465
東平	-10.2465
不易	-10.2468
錢物	-10.2469
必欲	-10.2475
何不	-10.248
貞觀	-10.2481
都指揮使	-10.2484
元帝	-10.2484
怯	-10.2485
時有	-10.249
經制	-10.2493
月日	-10.2503
讐	-10.2503
中書令	-10.2505
廷尉	-10.2513
將來	-10.2514
冕	-10.252
福州	-10.2522
泄	-10.2523
降指揮	-10.2526
而不能	-10.2527
訥	-10.2529
謂曰	-10.253
大破	-10.2542
度支	-10.2543
噐	-10.2544
湖北	-10.2544
治之	-10.2547
臂	-10.2548
岡	-10.2551
數十萬	-10.2559
潞	-10.2559
笞	-10.256
顒	-10.2563
三十里	-10.2565
太常少卿	-10.2574
賜名	-10.2576
耀	-10.2579
二子	-10.2585
焦	-10.2592
鞭	-10.2597
塹	-10.2599
之亂	-10.2602
涼	-10.2603
教授	-10.261
並依	-10.261
兼權	-10.2615
都督府	-10.2618
之世	-10.2618
山川	-10.2627
權發遣	-10.2628
行至	-10.2631
敞	-10.2633
郡守	-10.2638
晋	-10.2645
亦曰	-10.2647
刑部尚書	-10.2648
一事	-10.2651
召見	-10.2654
為于	-10.2665
大防	-10.2666
翊	-10.2667
十六年	-10.2667
寓	-10.2668
兖	-10.267
滑州	-10.267
嶽	-10.2679
又奏	-10.2679
使疏吏翻	-10.2682
宣帝	-10.2685
囂	-10.2687
貴妃	-10.2688
裂	-10.269
醜	-10.2692
臣竊	-10.2703
角翻	-10.2708
請降	-10.2714
玩	-10.2715
罪人	-10.2716
於天下	-10.272
塘	-10.2727
召還	-10.2727
艱難	-10.2734
其功	-10.2738
與其	-10.2741
佃	-10.2743
駢	-10.2744
削去	-10.2745
頥	-10.2746
遍	-10.2748
二千石	-10.2759
上聞	-10.2761
濮	-10.2763
號曰	-10.2767
關中	-10.2773
宫人	-10.2775
轉運	-10.2778
闢	-10.278
河朔	-10.2783
今從之	-10.2789
賔客	-10.279
舍人	-10.2792
本末	-10.2794
囊	-10.2795
腹	-10.2797
兩路	-10.2798
滎陽	-10.2807
朝直遥翻	-10.2814
侮	-10.2814
中郎將	-10.2817
歐陽修	-10.2818
鎬	-10.2819
綬	-10.2822
活	-10.2823
勝非	-10.2824
狹	-10.283
三司使	-10.2833
進築	-10.2834
經義	-10.2836
蘭州	-10.2838
永安	-10.2847
㸃檢	-10.285
轄	-10.2854
惟陛下	-10.2854
戰死	-10.2859
郊祀	-10.2862
大梁	-10.2862
茅	-10.2863
縛	-10.2865
根本	-10.2873
狐	-10.2877
掾	-10.2878
於朝	-10.2885
十九	-10.2888
完顔	-10.2895
抽	-10.2897
謀反	-10.2898
迭	-10.2898
所敗	-10.2898
似道	-10.29
無可	-10.2901
上黨	-10.2903
東海	-10.2905
旌	-10.2906
自將	-10.2908
家人	-10.291
城南	-10.2911
十六日	-10.2915
豪傑	-10.2921
騎兵	-10.2921
倣	-10.2923
臣愚	-10.2934
或謂	-10.2936
斃	-10.2936
宣撫	-10.2943
有詔	-10.2944
譴	-10.2945
亶	-10.2947
環慶	-10.2958
不載	-10.2962
蹈	-10.2966
左僕射	-10.2966
災異	-10.297
降詔	-10.297
邁	-10.2978
他人	-10.298
等路	-10.2981
大河	-10.2984
責授	-10.2985
知樞宻院事	-10.2986
平原	-10.2991
江翻	-10.2993
邏	-10.3002
奉天	-10.3003
災傷	-10.3004
永興	-10.3005
跪	-10.3007
安置	-10.301
十七年	-10.301
夲	-10.3013
㳺	-10.302
可見	-10.303
狼	-10.3031
不食	-10.3032
讎	-10.3035
凝	-10.3037
堯舜	-10.3039
失其	-10.3047
安能	-10.305
兩淮	-10.3054
綿	-10.3055
欣	-10.3059
吕翻	-10.3062
信之	-10.3062
見上	-10.307
飬	-10.307
陂	-10.3073
不堪	-10.3081
泌	-10.3081
隴西	-10.3084
部曲	-10.3087
己夘	-10.3088
苟	-10.3088
穴	-10.3089
浙東	-10.3093
人數	-10.31
行事	-10.3102
人材	-10.3102
商人	-10.3103
廣南	-10.3105
可為	-10.3109
甄	-10.311
注云	-10.311
郝	-10.311
靖康	-10.3115
之失	-10.3121
所云	-10.3123
其一	-10.3123
所當	-10.313
不幸	-10.3137
甚厚	-10.3138
河間	-10.314
梁主	-10.3142
安撫司	-10.3146
百人	-10.3148
酌	-10.3149
所獲	-10.3151
數十人	-10.3151
親戚	-10.3153
純仁	-10.3153
之西	-10.3158
楚州	-10.3158
滑	-10.3162
流民	-10.3162
也且	-10.3163
主之	-10.3165
上供	-10.3166
㤗	-10.3166
伏乞	-10.3167
芻	-10.3172
山陽	-10.3173
瑗	-10.3175
龔	-10.3177
汝南	-10.3178
旻	-10.3179
地理志	-10.3183
名曰	-10.3191
獸	-10.3193
帯	-10.3193
之路	-10.3195
叡	-10.3196
後宫	-10.3202
之弟	-10.3203
廷臣	-10.3207
之孫	-10.321
飲食	-10.3211
托克托	-10.3215
財賦	-10.3215
九日	-10.3217
䘏	-10.3226
弟子	-10.323
言臣	-10.3233
人言	-10.3233
哲宗	-10.324
榆	-10.324
其職	-10.3244
八十	-10.3244
王室	-10.3245
伏兵	-10.3245
楷	-10.3248
而有	-10.3251
諾	-10.326
太和	-10.3265
豈非	-10.3266
糧草	-10.3268
紂	-10.327
一等	-10.3272
平江	-10.3277
豆	-10.3283
有㫖	-10.3284
詠	-10.3284
晝	-10.3286
范陽	-10.3289
祔	-10.3292
之論	-10.3294
潞州	-10.3297
吕公著	-10.33
武氏	-10.3302
䕶軍	-10.3303
不止	-10.3303
妹	-10.3304
之才	-10.3306
最為	-10.3309
齊人	-10.3309
座	-10.331
而立	-10.3311
亦當	-10.3315
值	-10.3321
已見	-10.3324
沁	-10.3325
鬭	-10.3326
殿中	-10.3327
右丞	-10.3329
兄子	-10.3336
奉行	-10.3338
金國	-10.3344
漢王	-10.3347
瓌	-10.335
憾	-10.3354
冀州	-10.3367
駿	-10.3368
西賊	-10.3373
遣中使	-10.3373
牟	-10.3375
佳	-10.3375
鋒	-10.3382
冐	-10.339
鐘	-10.3391
恐其	-10.3399
觀望	-10.34
之内	-10.3401
二十四	-10.3403
慙	-10.341
團	-10.3413
並令	-10.3419
稱臣	-10.3424
四夷	-10.3427
枝	-10.3428
屯兵	-10.3434
准	-10.3438
竦	-10.3439
莫能	-10.344
守備	-10.3442
未聞	-10.3443
泊	-10.3443
為皇太子	-10.3447
繕	-10.345
童貫	-10.3451
白馬	-10.3452
户部侍郎	-10.3454
膳	-10.3455
故城	-10.3462
其民	-10.3464
沉	-10.3467
建安	-10.3468
底	-10.3468
授以	-10.347
沂	-10.3471
自謂	-10.3475
肅宗	-10.348
悖	-10.3481
恂	-10.3483
者非	-10.3484
吕大防	-10.349
矩	-10.3491
之屬	-10.3491
文書	-10.35
埶	-10.3501
大業	-10.3503
十八年	-10.3508
戸部	-10.351
為左	-10.3514
明帝	-10.3516
起居郎	-10.3517
廸	-10.352
两	-10.3521
之憂	-10.353
其君	-10.3531
發明	-10.3532
此皆	-10.3533
軍旅	-10.3536
上命	-10.3537
勾	-10.3538
返	-10.354
棟	-10.3541
不少	-10.3542
嘗為	-10.3542
洎	-10.3546
阜	-10.3549
所欲	-10.3551
估	-10.3551
鄆	-10.3552
朝臣	-10.3553
自為	-10.3555
元年春正月	-10.3555
摧	-10.3556
求去	-10.3562
昶	-10.357
者衆	-10.357
脫	-10.3573
不識	-10.3576
昆	-10.3585
城外	-10.3586
憑	-10.3594
賁	-10.3594
飭	-10.3595
中有	-10.3595
恢	-10.36
不明	-10.3606
冬十二月	-10.3607
右僕射	-10.361
賢者	-10.361
察其	-10.3611
責之	-10.3612
㕔	-10.3614
其才	-10.3618
犒	-10.362
参	-10.3621
為天下	-10.3622
第二	-10.3622
龍圖閣直學士	-10.3625
冶	-10.3628
伏望聖慈	-10.3628
討賊	-10.3637
法令	-10.3639
趙普	-10.364
可考	-10.364
之東	-10.3646
騐	-10.3647
降者	-10.3648
范純仁	-10.3648
扈	-10.3649
以進	-10.365
飲酒	-10.3651
上之	-10.3651
編管	-10.3652
召對	-10.3654
紹聖	-10.3656
三代	-10.3656
若此	-10.3657
波	-10.3659
秋九月	-10.366
之使	-10.3661
毗	-10.3665
欺罔	-10.3671
何故	-10.368
前此	-10.3685
後來	-10.3688
者乎	-10.3691
永樂	-10.3692
寘	-10.3693
浙江	-10.3694
權知	-10.3701
之黨	-10.3707
犬	-10.3712
帝命	-10.3714
紳	-10.3718
桀	-10.3722
弭	-10.3722
有大	-10.3722
回紇	-10.3724
掘	-10.3726
事體	-10.3728
孝宗	-10.3729
㦸	-10.3729
北面	-10.3732
一千	-10.3733
王巖叟	-10.3734
矣今	-10.3735
虢	-10.3737
入宫	-10.3739
奭	-10.374
帥讀	-10.3742
復遣	-10.3744
其下	-10.3745
朱勝非	-10.3745
尤甚	-10.375
逾	-10.3752
在此	-10.3756
磨	-10.3758
不死	-10.3759
方今	-10.3764
賄	-10.3764
眉	-10.3765
餘見通鑑	-10.3766
入于	-10.377
納之	-10.3771
朝鮮	-10.3772
因其	-10.3773
户部尚書	-10.3776
授之	-10.378
饋	-10.3783
奠	-10.3783
河決	-10.3783
去之	-10.3785
圓	-10.3791
直龍圖閣	-10.3791
置之	-10.3793
為亂	-10.3794
僻	-10.3796
琰	-10.3797
八百	-10.3798
王者	-10.38
薪	-10.38
囬	-10.38
都城	-10.3802
三十年	-10.3803
應之	-10.3807
彛	-10.3814
禾	-10.3815
朋	-10.3817
提刑	-10.3817
搆	-10.382
禮樂	-10.3822
春二月	-10.3823
國朝	-10.3823
侈	-10.3824
揖	-10.3829
癸夘	-10.3831
等事	-10.3832
檀	-10.3835
布哈	-10.3837
王旦	-10.384
荆湖	-10.384
蜀主	-10.3844
一言	-10.3846
聞其	-10.3849
今乃	-10.3851
輜重	-10.3852
帝怒	-10.3854
枕	-10.3857
世宗	-10.3857
雙	-10.3858
魁	-10.3858
切又	-10.3864
謚	-10.3866
帝王	-10.3867
曦	-10.3867
不自安	-10.3868
所過	-10.3868
退保	-10.3869
有竒	-10.387
大義	-10.3872
主管	-10.3874
所請	-10.3877
宇文	-10.388
史官	-10.3886
四面	-10.389
交通	-10.3892
藩鎮	-10.3892
親王	-10.3901
無得	-10.3902
護	-10.3911
男女	-10.3913
御前	-10.3914
覇	-10.3914
大驚	-10.3918
魯侯	-10.392
聰明	-10.3923
濤	-10.3926
差役	-10.3927
招討使	-10.3928
兩翻	-10.3928
以禮	-10.3931
上謂	-10.3932
受之	-10.3932
縣界	-10.3936
商賈	-10.3938
贄	-10.3943
永平	-10.3944
城西	-10.3946
笑曰	-10.3948
置酒	-10.3948
之敗	-10.3948
瑪	-10.395
曷	-10.395
曰率	-10.3953
憲宗	-10.3962
中書侍郎	-10.3963
不納	-10.3965
唱	-10.397
相州	-10.397
鄒	-10.3973
雍州	-10.3973
龎	-10.3978
催	-10.398
瑋	-10.398
國史	-10.3986
涇	-10.3986
十八日	-10.3986
桃	-10.3988
日食	-10.399
新法	-10.3993
王韶	-10.3996
渙	-10.4006
真定	-10.4007
上流	-10.4012
皇甫	-10.4013
徼	-10.4021
縁邊	-10.4021
巾	-10.4022
從事	-10.4023
議和	-10.4024
留之	-10.4026
器械	-10.4029
衙	-10.4031
因此	-10.4033
日厯	-10.4034
既至	-10.4036
晩	-10.4039
琪	-10.4039
婢	-10.404
居民	-10.4042
之風	-10.4051
一軍	-10.4052
茶鹽	-10.4059
市易	-10.4063
矣然	-10.4064
中尉	-10.4067
孟子	-10.4073
三十萬	-10.4075
京畿	-10.4077
有疾	-10.4078
城北	-10.408
佩	-10.408
縣西北	-10.4081
且曰	-10.4083
雋	-10.4083
閏	-10.4086
大體	-10.409
所見	-10.4093
吕頥浩	-10.4101
不一	-10.4102
凉州	-10.4103
吳王	-10.4104
副將	-10.4105
琛	-10.4108
州安置	-10.4112
熾	-10.4116
敎	-10.4119
無益	-10.412
觸	-10.4121
進用	-10.4121
俄	-10.4132
兼侍講	-10.4132
乃得	-10.4134
已定	-10.4136
上疏曰	-10.4136
萬年	-10.4139
即皇帝位	-10.4142
領兵	-10.4144
障	-10.4145
搜	-10.4145
忠賢	-10.4147
本志	-10.4148
靈武	-10.4151
聖徳	-10.4152
琅邪	-10.4157
英宗	-10.4157
使其	-10.416
甸	-10.4161
郤	-10.4162
孔子曰	-10.4164
皆云	-10.4164
上時掌翻	-10.4171
之南	-10.4173
解題曰按	-10.4174
三曰	-10.4179
壕	-10.418
成帝	-10.4182
宫觀	-10.4184
釐	-10.4194
豫州	-10.4203
僉	-10.4203
諸國	-10.4203
未盡	-10.4205
紀年	-10.4206
所書	-10.4206
呈	-10.4207
將即	-10.4209
河州	-10.4213
問之	-10.4213
為司空	-10.4214
繼之	-10.4219
劫	-10.4223
何必	-10.4225
貧民	-10.4229
昱	-10.4236
百司	-10.4237
戰於	-10.4241
易之	-10.4243
胄	-10.425
三千人	-10.4254
事有	-10.4258
受其	-10.4258
紿	-10.4262
域	-10.4262
是歲	-10.4265
安民	-10.4266
而入	-10.4269
遂罷	-10.4274
二曰	-10.4281
不法	-10.4283
為政	-10.4289
詔諸路	-10.429
兩省	-10.4292
翔	-10.4294
邈	-10.4297
區區	-10.4299
惲	-10.4299
考之	-10.4299
不忘	-10.4304
之恩	-10.4307
圖之	-10.4308
衣冠	-10.4311
杲	-10.4313
人多	-10.4315
馭	-10.4316
筭	-10.4319
而進	-10.4319
吕惠卿	-10.4322
為主	-10.4322
黑	-10.4322
以為然	-10.4325
輯	-10.4325
自守	-10.4326
築城	-10.4329
如有	-10.4338
球	-10.4339
途	-10.4339
貯	-10.4341
遐	-10.4342
北京	-10.4349
州人	-10.4349
易以	-10.4354
可乎	-10.4357
總兵官	-10.4357
又請	-10.4361
勒兵	-10.4369
大名	-10.4373
像	-10.4376
前代	-10.4385
直言	-10.4392
代州	-10.4392
可令	-10.4394
之望	-10.4395
自立	-10.4397
營田	-10.4398
未易	-10.4399
有言	-10.4399
無敢	-10.4401
踵	-10.4401
新城	-10.4403
士人	-10.4406
自然	-10.4407
猶有	-10.4409
燧	-10.4411
經畧司	-10.4413
大國	-10.4414
織	-10.4417
蟲	-10.4417
王欽若	-10.4418
之餘	-10.4419
二年春正月	-10.442
西人	-10.4425
六百	-10.4427
覩	-10.4435
于朝	-10.4448
劭	-10.4456
劵	-10.4457
乃復	-10.4457
稱帝	-10.4459
事理	-10.4466
中使	-10.4468
慶州	-10.4472
壅	-10.4472
城門	-10.4473
燭	-10.4476
為民	-10.4478
縣東北	-10.4478
誡	-10.4478
函	-10.4479
不失	-10.4482
少詩	-10.4486
縣東南	-10.4491
為太尉	-10.4492
徽猷閣待制	-10.4493
引去	-10.4496
典禮	-10.4496
同知樞宻院事	-10.4497
編修	-10.4501
進封	-10.4504
兩制	-10.4512
還宫	-10.4515
李克用	-10.4516
棘	-10.452
若有	-10.452
死於	-10.4521
酷	-10.4526
於民	-10.4533
陳留	-10.454
廬州	-10.4545
親屬	-10.4546
丹陽	-10.4547
桓公	-10.455
乆之	-10.4551
樞宻副使	-10.4553
師道	-10.4554
李憲	-10.4554
之文	-10.4555
散騎常侍	-10.4559
荘	-10.4559
攷	-10.4561
九江	-10.4562
輔政	-10.4564
班志	-10.4568
父老	-10.4568
君之	-10.4573
怒曰	-10.4573
改官	-10.4574
貲	-10.4575
珙	-10.4576
不滿	-10.4578
刋	-10.4578
窘	-10.4581
復用	-10.4584
利用	-10.459
甚多	-10.4591
罷去	-10.4592
其法	-10.4596
杞	-10.4597
外戚	-10.4603
西河	-10.4607
故城在今	-10.4608
邕	-10.4611
萬户	-10.4611
等奏	-10.462
潔	-10.462
銷	-10.4623
治直	-10.4624
公論	-10.4624
寫	-10.4628
十七日	-10.4632
苛	-10.4634
論事	-10.4643
沐	-10.4647
遷官	-10.465
封禪	-10.4651
必先	-10.4652
貼	-10.4652
朱熹	-10.4655
壓	-10.4657
之說	-10.4663
民田	-10.4665
不服	-10.4666
因以	-10.4667
而復	-10.4673
因而	-10.4678
俠	-10.4679
經略司	-10.4681
喧	-10.4681
治道	-10.4685
繹	-10.4689
簒	-10.47
羸	-10.47
其妻	-10.4705
等曰	-10.4706
牲	-10.471
十九年	-10.471
侍衛	-10.4712
槩	-10.4715
勘㑹	-10.4717
蠻夷	-10.4719
瓦	-10.472
酬	-10.4721
有三	-10.4723
槍	-10.4723
不可復	-10.4724
婚	-10.4725
疋	-10.4727
初置	-10.4731
建炎	-10.4736
而罷	-10.4738
汙	-10.4739
土地	-10.474
然而	-10.4741
中書舎人	-10.4743
集賢校理	-10.4744
總領	-10.4747
又令	-10.4757
迷	-10.4759
十二日	-10.4759
侯景	-10.476
堅守	-10.4761
二府	-10.4765
臣請	-10.4773
以獻	-10.4779
錢糧	-10.4779
金城	-10.4779
數所	-10.4782
杜佑曰	-10.4784
家屬	-10.4785
二十里	-10.4788
百餘	-10.4791
芮	-10.4791
蜀人	-10.4793
縣西南	-10.4795
班師	-10.4795
今欲	-10.4798
也臣	-10.4798
之盛	-10.48
紇	-10.4806
將佐	-10.4807
鄂州	-10.4809
奉表	-10.4811
百年	-10.4814
第三	-10.4817
羽林	-10.4817
仍舊	-10.4818
百餘人	-10.4818
隅	-10.4822
之所以	-10.4824
京朝官	-10.4827
左丞相	-10.483
為丞相	-10.4832
乃令	-10.4834
允文	-10.4838
近者	-10.4853
事君	-10.4854
城在	-10.4857
有一	-10.4858
回鶻	-10.4865
户口	-10.4868
晨	-10.4869
栗	-10.4871
暑	-10.4873
出降	-10.4873
詔㫖	-10.4873
破賊	-10.4874
杭	-10.4876
去處	-10.4878
妙	-10.4879
廪	-10.488
以報	-10.488
所陳	-10.4881
卯	-10.4884
起居舍人	-10.4884
臣子	-10.4884
扶風	-10.4886
爾等	-10.4889
珣	-10.4889
江北	-10.4891
暗	-10.4891
或以	-10.4892
三十六	-10.4894
邯鄲	-10.4895
召之	-10.4896
鄜延路	-10.4898
俯	-10.4901
雖不	-10.4901
上書言	-10.4905
愆	-10.4908
兩宫	-10.4908
兩人	-10.4912
萬石	-10.4914
械	-10.4915
大懼	-10.4916
牌	-10.4917
其身	-10.4922
廩	-10.4924
經筵	-10.4925
御筆	-10.4926
牓	-10.4929
以濟	-10.4929
揮	-10.4931
挫	-10.4933
者則	-10.4936
黄巢	-10.494
欲望	-10.4941
其説	-10.4943
金陵	-10.4943
孺	-10.4945
袍	-10.4949
多所	-10.4955
攜	-10.4955
天地之	-10.4962
鄭伯	-10.4978
内有	-10.4979
岀	-10.4979
濟南	-10.4982
魏王	-10.4983
十五日	-10.4984
失之	-10.499
憐	-10.4995
長知兩翻	-10.4996
等第	-10.5006
之君	-10.5009
奏言	-10.5017
兼領	-10.5017
羙	-10.5018
出城	-10.5018
臣所	-10.5024
而用之	-10.5029
具奏	-10.503
世家	-10.5033
其他	-10.5038
出奔	-10.5039
擊破之	-10.504
鞠	-10.5041
之號	-10.5045
北漢	-10.5049
舊傳	-10.5052
中正	-10.5052
觀其	-10.5057
諭以	-10.5061
壯士	-10.5061
翻又	-10.5061
犇	-10.5062
川陜	-10.5062
梓宫	-10.5063
河水	-10.5069
其徒	-10.507
每嵗	-10.5071
中都	-10.5073
者甚衆	-10.5074
因之	-10.5078
地名	-10.5078
般	-10.508
狗	-10.508
裝	-10.5081
今陛下	-10.5083
守忠	-10.5092
疑之	-10.5092
三分	-10.5094
攘	-10.5101
樞密使	-10.5104
及諸	-10.5105
水軍	-10.5107
其書	-10.5109
二十五	-10.5112
之力	-10.5118
景靈宫	-10.5118
濁	-10.5119
一嵗	-10.5121
大将軍	-10.5122
禁止	-10.5122
綜	-10.5123
滄州	-10.5123
境内	-10.5125
半年	-10.5126
縳	-10.5126
不暇	-10.5129
久矣	-10.5131
標	-10.5131
特進	-10.5132
夷狄	-10.5133
鑄錢	-10.5136
二聖	-10.5137
不取	-10.5137
兵至	-10.514
長樂	-10.5142
守令	-10.5143
縣官	-10.5146
知府	-10.5152
晉人	-10.5156
者悉	-10.5158
光禄大夫	-10.5165
匪	-10.5167
扇	-10.5169
邪正	-10.5174
非有	-10.5175
三軍	-10.5175
乃還	-10.5176
揺	-10.5178
當在	-10.5185
大舉	-10.5188
傍	-10.5189
官制	-10.519
上曰此	-10.5192
五代志	-10.5196
退而	-10.5196
建州	-10.5197
之權	-10.5199
言于	-10.5204
其數	-10.5205
勁	-10.5206
何足	-10.5206
商量	-10.5206
梟	-10.521
之難	-10.5213
以書	-10.5214
軍承宣使	-10.5219
平城	-10.5225
浙	-10.5226
殿前	-10.5227
梓	-10.523
夏州	-10.5231
經畧	-10.5232
正統	-10.5234
為節度使	-10.525
諫議大夫	-10.5252
所能	-10.5254
不獲	-10.5255
大學士	-10.5266
廼	-10.5268
藍	-10.5273
著作佐郎	-10.5274
以俟	-10.5275
紛紛	-10.5275
進取	-10.5275
飯	-10.5277
高麗	-10.5278
貝	-10.5281
居之	-10.5286
者乃	-10.529
未㡬	-10.5292
内附	-10.5293
閤門祗候	-10.5295
不實	-10.5295
弋	-10.5297
魏州	-10.5298
弁	-10.5299
宼	-10.5299
軍政	-10.53
狡	-10.5302
青唐	-10.5306
雄州	-10.5307
所生	-10.5307
諸處	-10.5312
總督	-10.5312
者有	-10.5315
䜛	-10.5319
付之	-10.532
時事	-10.532
蹙	-10.5321
為右	-10.5323
附此	-10.5324
但以	-10.5324
潁川	-10.5324
臺諌	-10.5325
泛	-10.5327
訊	-10.5328
懇	-10.533
以是	-10.5333
柏	-10.5336
咸陽	-10.5337
測	-10.5339
渥	-10.534
暨	-10.5341
沿邊	-10.5344
衣服	-10.5344
掌翻	-10.5348
䑓	-10.5356
蠧	-10.5358
遣其	-10.5359
逰	-10.5361
同州	-10.5362
畿	-10.5363
構	-10.5363
極言	-10.5366
政目	-10.5372
水陸	-10.5373
臣謂	-10.5374
璟	-10.5374
少府	-10.5379
涕泣	-10.5388
提舉司	-10.5388
不願	-10.5391
兵士	-10.5392
歆	-10.5396
而殺之	-10.5397
則無	-10.5397
輅	-10.5401
不待	-10.5404
戶	-10.5405
道士	-10.5405
四州	-10.5408
建武	-10.5408
詹	-10.5409
華州	-10.5409
斫	-10.541
尚有	-10.5411
與戰	-10.5412
繳	-10.5414
盡忠	-10.5416
除之	-10.5417
五帝	-10.5418
死罪	-10.5419
嫡	-10.5423
大風	-10.5426
世充	-10.5427
無過	-10.5429
員外郎	-10.5439
敵騎	-10.5439
麾	-10.5442
東方	-10.5444
其弊	-10.5445
抄	-10.5449
騎竒寄翻	-10.5449
懈	-10.5455
匱	-10.5459
執之	-10.5462
技	-10.5472
闇	-10.5473
部署	-10.548
改曰	-10.548
諸公	-10.5481
南朝	-10.5482
之學	-10.5487
為司徒	-10.549
入海	-10.5492
姊	-10.5495
晉主	-10.5495
下令	-10.5497
餘衆	-10.5498
山陵	-10.5502
見於	-10.5502
城東	-10.5508
帝即位	-10.5509
思明	-10.5513
俶	-10.5515
天章閣待制	-10.5517
今已	-10.5518
不進	-10.5518
嬖	-10.5519
年號	-10.5519
北方	-10.5519
爰	-10.5521
軫	-10.5521
文臣	-10.5521
工部尚書	-10.5522
者即	-10.5524
梁燾	-10.5527
簾	-10.5529
衆人	-10.5529
圍之	-10.553
自此始	-10.5537
藻	-10.5538
天聖	-10.5538
巖叟	-10.5542
島	-10.5546
分道	-10.555
蠶	-10.5556
給之	-10.5563
譛	-10.5564
北朝	-10.5565
故城在	-10.5566
文公	-10.5568
止於	-10.5568
括地志	-10.5574
如字	-10.5577
朝士	-10.5578
要害	-10.5581
不成	-10.5584
固請	-10.5585
嫉	-10.5588
叅	-10.56
汝愚	-10.56
之辭	-10.56
詔從之	-10.56
祭祀	-10.5601
銘	-10.5603
為天子	-10.5608
洙	-10.5609
籌	-10.5613
不知其	-10.5613
詩賦	-10.5616
居正	-10.563
敢言	-10.5631
謁者	-10.5634
出身	-10.5636
澗	-10.5641
春三月	-10.5641
羗	-10.5649
無故	-10.565
所向	-10.5654
瓚	-10.5655
韓侂胄	-10.5656
荅	-10.5657
隴右	-10.5659
涇州	-10.5663
未定	-10.5666
之位	-10.567
左丞	-10.5672
申明	-10.5672
交結	-10.5675
黄金	-10.5676
罷為	-10.5684
譯	-10.5687
應劭曰	-10.5696
隣	-10.5698
上乃	-10.5702
冢	-10.5703
今從實録	-10.5703
和州	-10.571
並罷	-10.5714
禘	-10.5715
永嘉	-10.5715
陜州	-10.5717
義勇	-10.5717
粮	-10.5719
之道也	-10.5719
鶴	-10.572
太保	-10.572
坤	-10.5723
進軍	-10.5724
疑其	-10.5727
柔然	-10.5727
地分	-10.5727
請罷	-10.573
以謂	-10.5731
休息	-10.5741
暢	-10.5743
曄	-10.5743
掖	-10.5743
敗績	-10.5744
廖	-10.5747
骨肉	-10.5749
修入	-10.575
招撫	-10.5752
而不知	-10.5753
歙	-10.5755
無有	-10.5759
淹	-10.5759
本部	-10.5759
下邳	-10.576
裏	-10.5761
悉以	-10.5765
塵	-10.5765
吳主	-10.5768
味	-10.5768
利州	-10.5769
行宫	-10.577
之害	-10.5773
之要	-10.5775
十餘年	-10.5777
經畧使	-10.5777
瑀	-10.5781
通典	-10.5788
講和	-10.5788
誤國	-10.5789
秘	-10.5791
註	-10.5791
舊法	-10.5798
兼侍讀	-10.58
楚人	-10.58
賞賜	-10.58
便宜	-10.5801
多少	-10.5802
常州	-10.5805
陋	-10.5808
亦言	-10.5812
瘞	-10.5812
圉	-10.5817
輕騎	-10.5818
所置	-10.582
北界	-10.5827
聖明	-10.5832
將校	-10.5833
翰林學士承㫖	-10.5835
碎	-10.5836
被執	-10.5839
足矣	-10.5839
罪惡	-10.5843
江都	-10.5843
征伐	-10.5846
十四日	-10.5849
乃是	-10.5852
因循	-10.5853
不忠	-10.586
至公	-10.5861
帝崩	-10.5861
同心	-10.5861
無忌	-10.5865
登城	-10.5869
赫	-10.5871
八人	-10.5872
旬日	-10.5874
六軍	-10.5875
棺	-10.5879
自知	-10.5881
太上皇帝	-10.5882
熙寧	-10.5883
混	-10.5889
邉事	-10.589
之處	-10.5891
兇	-10.5894
推官	-10.5898
不加	-10.5898
之重	-10.5898
臣言	-10.5902
寸	-10.5903
奏聞	-10.5904
北人	-10.5904
即以	-10.5904
欒	-10.5905
鄉里	-10.5908
糶	-10.5911
役法	-10.5912
廣漢	-10.5915
衛士	-10.5919
鄧州	-10.5922
諸科	-10.5925
卦	-10.5925
境上	-10.593
號為	-10.5931
樸	-10.5931
罷相	-10.5932
統軍	-10.5932
琬	-10.5933
記曰	-10.5936
將吏	-10.5937
民兵	-10.5938
六人	-10.5938
財物	-10.594
措	-10.5942
等以	-10.5942
晞	-10.5946
萬物	-10.5947
禮義	-10.595
第五	-10.5951
大禮	-10.5953
二十八	-10.5953
上欲	-10.5956
邠	-10.5956
得一	-10.5957
敖	-10.5957
姑息	-10.5958
畆	-10.5964
汝州	-10.5965
思之	-10.5967
慶厯	-10.5968
吳越	-10.5969
見錢	-10.5969
以疾	-10.5971
伐之	-10.5971
不測	-10.5977
讀書	-10.5978
燕京	-10.598
天子之	-10.5983
曰彼	-10.5985
人人	-10.5985
南詔	-10.5987
上怒	-10.5987
工部侍郎	-10.599
言路	-10.5992
豫章	-10.5999
稔	-10.5999
尚未	-10.6
方平	-10.6001
之始	-10.6002
北地	-10.6008
讜	-10.6014
彥	-10.6016
控	-10.6017
怨望	-10.6018
上有	-10.6019
不能自	-10.602
募兵	-10.6023
衙前	-10.6024
逐之	-10.6025
天祥	-10.6025
零	-10.6025
其志	-10.6026
論奏	-10.6026
招納	-10.6029
定國	-10.603
遂為	-10.6033
王宗	-10.6035
光弼	-10.6036
安西	-10.6038
常山	-10.6038
得㫖	-10.6038
而行之	-10.6039
悅	-10.6042
嗚呼	-10.6044
端明殿學士	-10.6045
繪	-10.6048
如舊	-10.6055
炳	-10.6058
遣將	-10.6066
必無	-10.6068
盍	-10.607
唐制	-10.6072
不信	-10.6087
欲與	-10.6088
縝	-10.6089
邕州	-10.6089
當是	-10.609
𤓰	-10.6091
北平	-10.6098
晃	-10.6099
事在	-10.6099
右丞相	-10.6104
上都	-10.6106
猥	-10.6107
愿	-10.6107
治平	-10.6107
是故	-10.6109
宣王	-10.6109
豫州刺史	-10.6112
雇	-10.6112
裘	-10.6114
乃使	-10.6117
為患	-10.612
中大夫	-10.6122
南山	-10.6122
鄆州	-10.6124
京官	-10.6125
蔡州	-10.6128
勾當	-10.613
莫如	-10.6132
主事	-10.6134
一方	-10.614
之吏	-10.6143
斧	-10.6144
劾奏	-10.6147
宜令	-10.6147
乗輿	-10.6148
昻	-10.6148
九州	-10.6152
乃可	-10.6156
臘	-10.6157
康王	-10.6157
涇原路	-10.6158
海州	-10.6159
之用	-10.616
欲立	-10.6162
妨	-10.6163
匠	-10.6163
陛下之	-10.6166
浪	-10.6168
邊臣	-10.6169
弘	-10.617
常侍	-10.6171
可得	-10.6172
者三	-10.6174
北流	-10.6179
故道	-10.618
熒惑	-10.6184
從子	-10.6186
牀	-10.6186
買馬	-10.6187
三輔	-10.6188
朝廷以	-10.6188
乃出	-10.6188
乘輿	-10.6195
擢用	-10.6197
為首	-10.6203
打	-10.6211
僖	-10.6212
乗勝	-10.6215
壮	-10.6215
耳今	-10.6222
無人	-10.6225
别無	-10.6225
安世	-10.6226
踰年	-10.6226
之實	-10.6227
不允	-10.6229
恢復	-10.623
萇	-10.6231
鮑	-10.6233
事實	-10.6235
不屈	-10.6237
我軍	-10.6239
中書門下	-10.6239
置司	-10.6239
則不	-10.624
逺方	-10.624
議事	-10.6241
問曰	-10.6242
兩河	-10.6245
韓絳	-10.6247
直史館	-10.6258
甥	-10.626
叩頭	-10.6261
言者論	-10.6264
郁	-10.6265
望風	-10.627
謂其	-10.6271
倒	-10.6277
兩府	-10.6278
几	-10.6284
愷	-10.6287
滔	-10.629
得志	-10.6291
時政	-10.6295
引見	-10.6296
以正	-10.6297
其城	-10.6297
脚	-10.6298
七百	-10.6299
餘黨	-10.6304
嗟	-10.6308
都司	-10.6311
薦之	-10.6312
賑濟	-10.6313
愛民	-10.6317
大金	-10.6322
葺	-10.6323
増入	-10.6323
名在	-10.6325
迄	-10.6328
劉裕	-10.6331
愬	-10.6333
臻	-10.6334
姦臣	-10.6335
畝	-10.6336
甲兵	-10.6337
餘皆	-10.634
亦非	-10.634
六曹	-10.6342
石勒	-10.6344
祇	-10.6345
學官	-10.6346
札	-10.6347
無名	-10.6348
趙氏	-10.6352
不可用	-10.6353
拂	-10.6355
復有	-10.6355
男子	-10.6356
國主	-10.6356
都部署	-10.6357
蛇	-10.6358
渤海	-10.6358
而又	-10.6364
歐陽	-10.6364
獨不	-10.6365
岑	-10.637
京口	-10.637
楊氏	-10.6372
皇城使	-10.6373
應天	-10.6374
淮陽	-10.6381
一朝	-10.6382
系	-10.6384
天道	-10.6384
自當	-10.6385
二帝	-10.6391
將相	-10.6391
徃來	-10.6391
復還	-10.6393
其主	-10.6394
御營	-10.6396
薛史	-10.6402
禄山	-10.6402
禱	-10.6404
仍以	-10.6405
覬	-10.6406
穎	-10.6407
猷	-10.6409
之㑹	-10.6413
兵攻	-10.6415
事皆	-10.6419
首尾	-10.6422
可行	-10.6427
璠	-10.6428
吕夷簡	-10.6428
可知	-10.643
祕	-10.6432
館職	-10.6434
武功	-10.6434
供職	-10.6435
帝幸	-10.6436
五百人	-10.6437
二十七	-10.6439
之主	-10.6441
盱眙	-10.6441
神主	-10.6444
叔父	-10.6447
事也	-10.6448
綂	-10.6448
不恤	-10.645
對曰臣	-10.6452
長驅	-10.6457
特賜	-10.646
東陽	-10.6461
違者	-10.6463
防禦使	-10.6466
司農寺	-10.6466
以成	-10.6467
明矣	-10.6468
仁義	-10.647
不預	-10.6474
備禦	-10.6474
塟	-10.6478
殆盡	-10.6478
繋	-10.6478
郭子儀	-10.6479
黍	-10.6479
夙夜	-10.648
二王	-10.6481
王建	-10.6482
夀春	-10.6483
以列	-10.6485
異議	-10.6486
千户	-10.6488
聖心	-10.6494
為害	-10.6495
從者	-10.6495
膽	-10.6495
劉錡	-10.6498
逐路	-10.6499
沆	-10.6499
羞	-10.65
范祖禹	-10.6502
寝	-10.6505
拒守	-10.6507
郷	-10.6507
上時	-10.6507
張氏	-10.651
民有	-10.6514
海陵	-10.6515
為此	-10.652
襄王	-10.6523
頥浩	-10.6525
四曰	-10.6532
奉祠	-10.6541
見前	-10.6543
所論	-10.6543
嘆	-10.6544
賚	-10.6551
蔡卞	-10.6556
患之	-10.6557
若干	-10.6559
芝	-10.656
學校	-10.6561
陳乞	-10.6566
克之	-10.6567
壤	-10.6568
弄	-10.6568
觀文殿大學士	-10.657
不治	-10.6572
太僕	-10.6573
拓	-10.6573
竝	-10.6574
生民	-10.6575
人民	-10.6578
蔵	-10.6581
灼	-10.6589
澹	-10.659
委任	-10.6594
擒之	-10.6596
盡力	-10.6596
集議	-10.6597
安在	-10.6597
過失	-10.6599
有無	-10.6602
諧	-10.6603
勝負	-10.6603
江夏	-10.6605
封樁	-10.6605
宗族	-10.6606
累年	-10.6607
輟	-10.6609
以慰	-10.6611
乞令	-10.6612
訐	-10.6612
免役	-10.6616
伏望陛下	-10.6618
則必	-10.6618
嵗月	-10.6619
轉官	-10.6622
鳳翔	-10.6623
三年春正月	-10.6625
惰	-10.6626
僑	-10.6628
𦍑	-10.6628
亳州	-10.663
黔	-10.663
簽書	-10.6633
萬騎	-10.6635
當國	-10.6641
四千	-10.6644
使疏	-10.6644
民心	-10.6645
也陛下	-10.6649
疇	-10.6652
之戒	-10.6654
添差	-10.6655
何可	-10.6658
武都	-10.6659
昌言	-10.666
魏博	-10.6661
經術	-10.6663
聚衆	-10.6664
但云	-10.6665
親征	-10.6668
馮翊	-10.6668
徳音	-10.6677
遣其將	-10.6682
府界	-10.6683
庠	-10.6685
遣還	-10.6685
臣之	-10.6686
故以	-10.669
相持	-10.6694
二三	-10.6695
漢人	-10.6695
猝	-10.6696
衣食	-10.6698
錢帛	-10.67
懦	-10.67
泚	-10.6702
不立	-10.6704
恬	-10.6705
告之	-10.6705
有才	-10.6716
今之	-10.6718
之氣	-10.6727
留意	-10.6728
邢州	-10.6728
其議	-10.6731
南面	-10.6734
大功	-10.6735
鄭州	-10.6735
特與	-10.674
無一	-10.6743
各置	-10.6743
以為言	-10.6747
加以	-10.6748
峒	-10.6748
其兄	-10.675
覺察	-10.6755
偵	-10.676
今日之	-10.6764
煥	-10.6766
合肥	-10.6769
陕西	-10.6769
新舊	-10.6773
嶠	-10.6774
進奉	-10.6779
鴈門	-10.6782
後周	-10.6782
售	-10.6782
上幸	-10.6784
諸君	-10.6786
之前	-10.6788
此則	-10.6789
皆無	-10.679
罷兵	-10.679
太史	-10.6803
助之	-10.6815
章疏	-10.6815
建徳	-10.6816
祿山	-10.6816
錦州	-10.6822
甚矣	-10.6825
收其	-10.6827
出塞	-10.6832
委之	-10.6836
朕意	-10.6837
又欲	-10.6837
詔有司	-10.6838
代王	-10.6842
數萬人	-10.6846
汚	-10.6848
倉卒	-10.685
紘	-10.6854
稹	-10.6856
稱賀	-10.6857
傲	-10.6858
論之	-10.6859
四時	-10.6863
大中	-10.6868
祖宗之	-10.6869
五十里	-10.687
言曰	-10.6874
以救	-10.6875
峴	-10.6875
戩	-10.6876
綵	-10.6878
彧	-10.6879
之詔	-10.688
事者	-10.688
三品	-10.6883
顗	-10.6883
吹	-10.6883
領之	-10.6885
從之詔	-10.6888
貟外郎	-10.689
交州	-10.6891
招安	-10.6893
竟不	-10.6896
濠州	-10.6896
為御史大夫	-10.6896
倖	-10.6899
慧	-10.6902
七人	-10.6903
无	-10.6903
相去	-10.6904
建言	-10.6905
欲使	-10.6908
勒停	-10.6909
受詔	-10.6911
諸軍事	-10.6912
公曰	-10.6916
城郭	-10.6917
起於	-10.6923
苻	-10.6925
責其	-10.6925
天之	-10.693
之勞	-10.6936
沈括	-10.6937
石頭	-10.6938
𢎞農	-10.6941
吝	-10.6943
楚子	-10.6947
議之	-10.6949
繡	-10.6956
前軍	-10.6957
躁	-10.6958
自相	-10.6959
又音	-10.696
灋	-10.6963
承平	-10.6968
琨	-10.6969
倭	-10.6971
五路	-10.6973
元符	-10.6975
為侍中	-10.6978
以應	-10.698
互相	-10.6981
邠州	-10.6982
隸	-10.6983
欲用	-10.6988
盛徳	-10.699
之策	-10.699
愛之	-10.6991
承制	-10.6996
而來	-10.6999
宣仁	-10.7
又如字	-10.7002
不動	-10.7004
熙河	-10.7004
賫	-10.7007
凡三	-10.7008
而上	-10.7008
城上	-10.7008
隳	-10.7008
刑罰	-10.7009
沿	-10.701
在於	-10.7011
人有	-10.7015
三等	-10.7019
又命	-10.7019
追尊	-10.702
既得	-10.7023
樞宻院言	-10.7023
之行	-10.7027
戰敗	-10.7029
安可	-10.703
中宗	-10.7032
氏為皇后	-10.7033
有二	-10.7033
四路	-10.7033
論語	-10.7033
諭之	-10.7035
瑕	-10.7036
從弟	-10.7038
四十里	-10.7038
数	-10.7038
於前	-10.7041
睢	-10.7042
而能	-10.7045
舌	-10.7046
獠	-10.7049
改名	-10.7054
謂之曰	-10.7056
以待之	-10.7058
網	-10.7061
遣之	-10.7063
語言	-10.7063
王元	-10.7064
河南府	-10.7065
弓手	-10.7065
環慶路	-10.7077
綱紀	-10.708
州居住	-10.7087
罹	-10.7088
夏竦	-10.7089
通州	-10.709
河東路	-10.7095
御集	-10.7098
訛	-10.71
樞密	-10.7101
不避	-10.7102
二員	-10.7104
父兄	-10.7108
駱	-10.711
奉迎	-10.7111
垂簾	-10.7112
㢘	-10.7117
武宗	-10.7117
墻	-10.7117
宋公	-10.7117
上疏言	-10.7119
無遺	-10.7119
異時	-10.7123
軍器	-10.7124
太上皇	-10.7125
統領	-10.7129
取士	-10.7137
三王	-10.7138
駙馬都尉	-10.7138
将士	-10.7139
之長	-10.714
大呼	-10.714
陪	-10.7142
天下幸甚	-10.7142
洩	-10.7144
繞	-10.7146
何由	-10.7154
遂命	-10.7156
宗弼	-10.7161
佗	-10.717
交阯	-10.7173
皇祐	-10.7177
之門	-10.7179
興師	-10.7182
見在	-10.7186
熱	-10.7189
外任	-10.719
歩騎	-10.7191
髙下	-10.7192
皆得	-10.7194
城陷	-10.7195
晉州	-10.7197
遷都	-10.72
握	-10.72
其先	-10.72
新除	-10.7201
掃	-10.7202
王命	-10.7203
我師	-10.7205
文章	-10.7205
其有	-10.7206
恊	-10.7207
此亦	-10.7209
蕃官	-10.721
赦之	-10.7217
染	-10.7218
恚	-10.7221
韓縝	-10.7221
澤州	-10.7221
訓練	-10.7225
恐非	-10.7228
立子	-10.7228
無窮	-10.7229
將官	-10.7234
意欲	-10.7234
亦如之	-10.7238
之業	-10.7239
棄市	-10.7242
注曰	-10.7243
若以	-10.7244
無子	-10.7245
賜以	-10.7247
倘	-10.7248
月餘	-10.725
無道	-10.7252
南郡	-10.7252
之迹	-10.7255
未嘗不	-10.7256
亦自	-10.7262
徃徃	-10.7262
有天下	-10.7263
自成	-10.7266
發運使	-10.7267
馬軍	-10.7268
無厭	-10.7269
㕘	-10.727
右司諫	-10.7271
亦未	-10.7272
丙戍	-10.7273
灾	-10.7274
漢陽	-10.7275
焚其	-10.7275
用心	-10.7276
存亡	-10.7284
所舉	-10.7285
韓維	-10.7289
宣和	-10.7297
忱	-10.7297
討論	-10.7298
鉤	-10.73
抜	-10.73
暠	-10.7303
數所角翻	-10.7303
萬全	-10.7308
今既	-10.7313
冬至	-10.7316
天文	-10.7316
戢	-10.7318
棄之	-10.7318
多不	-10.7319
前鋒	-10.732
五品	-10.732
水經	-10.7321
奏議	-10.7322
皆以為	-10.7325
徳裕	-10.7325
銅錢	-10.7327
兵敗	-10.7328
甲戍	-10.7331
牆	-10.7331
隗	-10.7331
既已	-10.7331
已死	-10.7332
烏桓	-10.7336
臣願陛下	-10.7348
保全	-10.7349
生擒	-10.7351
潼闗	-10.7353
乘勝	-10.7354
監司郡守	-10.7355
斡	-10.7356
提刑司	-10.7358
紛	-10.7358
臨朝	-10.7358
開門	-10.7361
二千人	-10.7369
逃亡	-10.7372
猜	-10.7376
初無	-10.7377
粉	-10.7378
帝意	-10.7378
阮	-10.738
山南	-10.738
栢	-10.738
東至	-10.7386
殿前司	-10.7388
銖	-10.739
其上	-10.7391
官員	-10.7392
許州	-10.7396
提要	-10.7398
知諫院	-10.7402
軍法	-10.7402
興州	-10.7403
道也	-10.7405
殯	-10.7405
慟哭	-10.7408
犀	-10.7412
永昌	-10.7412
募人	-10.7415
兵馬使	-10.7416
援兵	-10.742
而自	-10.7424
墳	-10.7426
奨	-10.7426
樞宻直學士	-10.7429
絀	-10.7432
祧	-10.7434
不稱	-10.7435
寧逺	-10.7435
倪	-10.7436
廓	-10.7441
不正	-10.7443
國家之	-10.7446
捧	-10.7447
十餘人	-10.745
漢兵	-10.745
其次	-10.7453
卨	-10.7454
而反	-10.7455
雉	-10.7455
已行	-10.7463
大雨	-10.7465
送之	-10.7466
抃	-10.7469
調發	-10.747
二十一	-10.747
表請	-10.7473
黎陽	-10.7473
和好	-10.7474
宻院	-10.7479
繼遷	-10.7479
漢主	-10.748
老弱	-10.7481
祥符	-10.7481
其謀	-10.7485
漆	-10.7485
嶷	-10.7488
官錢	-10.7488
髮	-10.7489
酋長	-10.7491
時人	-10.7493
好呼	-10.7494
魏人	-10.7495
提舉官	-10.7497
經營	-10.7498
士馬	-10.7499
的	-10.7505
凡有	-10.7507
無辜	-10.7509
玄	-10.7513
大悦	-10.7514
挽	-10.7514
黜陟	-10.7517
渝	-10.7517
王公	-10.7517
懷光	-10.7519
鬼神	-10.7519
正人	-10.7521
元和	-10.7523
命官	-10.7529
駮	-10.7529
之半	-10.7532
有闕	-10.7537
姦人	-10.7539
黼	-10.7539
豈敢	-10.7539
賜死	-10.7542
降于	-10.7542
舖	-10.7542
詩曰	-10.7544
且令	-10.7545
百官表	-10.755
供奉官	-10.7554
非也	-10.7556
漁	-10.756
不以為	-10.756
示之	-10.7561
之節	-10.7564
收復	-10.7567
籠	-10.7567
修築	-10.7567
扞	-10.7568
驍	-10.7571
甘泉	-10.7571
沛公	-10.7571
之過	-10.7571
洵	-10.7571
之死	-10.7578
國王	-10.7579
此其	-10.7581
卭	-10.7582
努	-10.7584
南方	-10.7587
濵	-10.7588
為是	-10.7589
不自	-10.7593
藴	-10.7594
認	-10.7594
注見前	-10.7594
自後	-10.7597
扎	-10.7602
烏孫	-10.7603
宋史	-10.7607
内地	-10.761
南海	-10.761
其位	-10.7612
東門	-10.7613
武藝	-10.7617
不入	-10.7617
愔	-10.7617
任使	-10.7618
焚之	-10.7618
頗有	-10.762
礪	-10.7622
或言	-10.7624
覈	-10.7625
穢	-10.7625
訾	-10.763
亦作	-10.7633
瀘州	-10.7634
樁	-10.7638
女子	-10.764
三鎮	-10.7641
卒于	-10.7644
無由	-10.7645
駁	-10.7645
而天下	-10.765
非其人	-10.7652
曼	-10.7653
淪	-10.7655
一夕	-10.7656
和親	-10.7661
諭之曰	-10.7661
張方平	-10.7662
修撰	-10.7664
五里	-10.7664
之末	-10.7667
以圖	-10.7668
為我	-10.7668
二十三	-10.7669
曰天	-10.7671
工部	-10.7673
所致	-10.7677
持節	-10.7678
渡淮	-10.7678
妄言	-10.7681
太中大夫	-10.7682
有過	-10.7684
印綬	-10.7685
叩	-10.7686
取索	-10.7687
諌官	-10.769
所親	-10.7691
檢㑹	-10.7691
可不	-10.7695
婦女	-10.77
戍兵	-10.7701
從才用翻	-10.7708
招諭	-10.7708
以所部	-10.7709
東流	-10.7709
作過	-10.7709
開府	-10.7712
標目	-10.7715
一一	-10.7715
亡命	-10.7717
事勢	-10.772
其軍	-10.7724
擊敗之	-10.7725
覿	-10.7726
至是始	-10.7727
以罪	-10.7728
版	-10.7729
所行	-10.7729
嗜	-10.773
越王	-10.773
咸平	-10.7731
獲其	-10.7733
笏	-10.7734
以奉	-10.7741
實為	-10.7741
辜	-10.7744
少保	-10.7751
汴州	-10.7752
不知所	-10.7754
相國	-10.7754
好惡	-10.7754
韜	-10.7756
乃自	-10.7757
知樞密院事	-10.7758
明公	-10.7759
進曰	-10.776
即此	-10.7761
司農	-10.7763
給事	-10.7763
蔑	-10.7764
蘇州	-10.7766
孝皇帝	-10.7766
孟翻	-10.7767
太宰	-10.7767
列侯	-10.7767
良臣	-10.7771
未安	-10.7776
臣以為	-10.7777
臣願	-10.7778
篇曰	-10.7781
政令	-10.7782
都䕶	-10.7783
又與	-10.7783
滄	-10.7786
宸	-10.7786
西山	-10.7787
上元	-10.7791
縣人	-10.7796
又聞	-10.7797
不能制	-10.7801
者聽	-10.7804
泉州	-10.7806
必以	-10.781
北門	-10.7812
廣平	-10.7812
漕臣	-10.7816
歸附	-10.7817
鳩	-10.782
衝替	-10.7822
侍讀	-10.7823
𥘉	-10.7825
降之	-10.7828
相應	-10.7829
奉聖㫖	-10.7829
二十二	-10.783
以給	-10.7833
科舉	-10.7834
驍勇	-10.7836
中國之	-10.7837
手書	-10.7838
見上卷	-10.784
刑部侍郎	-10.7841
不善	-10.7843
者其	-10.7843
陽侯	-10.7845
入内	-10.7845
詵	-10.7848
大都督	-10.7849
吞	-10.7851
未嘗有	-10.7854
勤王	-10.7856
申嚴	-10.7864
饑民	-10.787
以防	-10.7871
徳明	-10.7872
東郡	-10.7874
少卿	-10.7878
漂	-10.7881
諶	-10.7881
諮	-10.7882
皇弟	-10.7882
固已	-10.7883
四萬	-10.7884
景祐	-10.7884
四年春正月	-10.7885
復命	-10.7887
逋	-10.7889
州界	-10.7891
分遣	-10.7892
汴京	-10.7895
在上	-10.7897
不得不	-10.7897
闔	-10.7899
鋪	-10.7901
左司諫	-10.7902
兾	-10.7902
觧題曰	-10.7902
事宜	-10.7902
校書郎	-10.7904
皆死	-10.7904
店	-10.7908
招降	-10.791
志在	-10.7927
綴	-10.793
泣曰	-10.7932
行密	-10.7933
尋陽	-10.7934
更相	-10.7936
畔	-10.7936
乞下	-10.7938
邾	-10.794
帝問	-10.7943
此書	-10.7943
承天	-10.7945
為宰相	-10.7947
任之	-10.7949
繒	-10.7951
知人	-10.7956
暇	-10.7959
迎之	-10.796
鎮州	-10.7961
夙	-10.7961
侍講	-10.7961
西戎	-10.7963
噶	-10.7966
畧曰	-10.7967
非常	-10.7968
欲殺	-10.7968
涪	-10.7969
壽春	-10.797
敵兵	-10.7971
䕃	-10.7973
故地	-10.7974
項羽	-10.7976
不給	-10.7979
萬五千	-10.7981
馮京	-10.7981
今以	-10.7981
和糴	-10.7982
承㫖	-10.7983
觀文殿學士	-10.7986
詔諭	-10.7988
蕃漢	-10.7988
領軍	-10.7989
遣使者	-10.7989
講求	-10.7992
至矣	-10.7993
若水	-10.7994
教之	-10.7994
難得	-10.7996
還朝	-10.7997
合格	-10.7997
以身	-10.7997
斡里雅布	-10.7998
姻	-10.7999
太監	-10.8002
隕	-10.8004
生子	-10.8004
歸于	-10.8005
間道	-10.8007
尊號	-10.8008
庶人	-10.8009
部將	-10.8013
同日	-10.8017
六萬	-10.8021
賈似道	-10.8022
治亂	-10.8024
素與	-10.8026
太常寺	-10.8027
一家	-10.8028
王曽	-10.8031
凡五	-10.8032
奄	-10.8033
京兆尹	-10.8034
西平	-10.8034
上謂輔臣曰	-10.8035
上從之	-10.8035
勿復	-10.8043
逢吉	-10.8044
冩	-10.8045
異同	-10.805
枯	-10.8051
敵國	-10.8052
雖欲	-10.8054
犯法	-10.8061
不肖	-10.8063
上䟽	-10.8067
剽	-10.8068
書云	-10.807
建中	-10.8071
禍福	-10.8071
沖	-10.8071
乃召	-10.8076
宗正	-10.8077
憫	-10.8077
有勞	-10.8079
遺詔	-10.808
是夕	-10.8082
額森	-10.8083
其首	-10.8084
城守	-10.8084
之私	-10.8086
九十	-10.8086
諡忠	-10.8089
未行	-10.8095
有異	-10.8095
越州	-10.8097
依前	-10.8098
用此	-10.8099
為盗	-10.81
捉	-10.8101
所薦	-10.8102
長城	-10.8103
諸人	-10.8104
張掖	-10.8106
漫	-10.8107
釗	-10.8107
駒	-10.8108
迨	-10.8109
庶㡬	-10.8111
長孫	-10.8114
明州	-10.8116
失職	-10.8117
學士院	-10.812
山谷	-10.8121
宦	-10.8123
其利	-10.8128
不答	-10.813
欲自	-10.813
池州	-10.8132
詬	-10.8135
矣故	-10.8135
至城下	-10.8135
之禁	-10.8136
謐	-10.8137
孫權	-10.8139
之美	-10.814
六十里	-10.8142
别有	-10.8144
金兵	-10.8147
軍人	-10.815
王曰	-10.8152
衛侯	-10.8154
日録	-10.8159
逕	-10.8159
所出	-10.8159
江上	-10.8163
別	-10.8167
夏侯	-10.8171
此意	-10.8171
大赦改元	-10.8173
刑名	-10.8174
多矣	-10.8174
上令	-10.8176
三省樞宻院	-10.8179
國體	-10.8179
舊臣	-10.8179
為帝	-10.8179
從才	-10.8183
仁厚	-10.8184
年少	-10.8184
以拒	-10.8186
曰善	-10.8186
之本	-10.8187
戰士	-10.819
酺	-10.8192
尚書左丞	-10.8195
中常侍	-10.8195
縉	-10.8196
時為	-10.82
除授	-10.8202
禮畢	-10.8204
平日	-10.8208
割地	-10.8213
高宗	-10.8218
稟	-10.8222
附㑹	-10.8223
偹	-10.8225
太公	-10.8226
精鋭	-10.8226
都省	-10.8229
察訪	-10.8232
拒戰	-10.8232
隋志	-10.8234
詔罷	-10.8234
鉞	-10.8235
通好	-10.8236
増置	-10.8244
駐蹕	-10.8247
更有	-10.8248
疾病	-10.8249
竊聞	-10.825
即今	-10.825
猶言	-10.825
模	-10.8251
安燾	-10.8251
則可	-10.8252
姓譜	-10.8259
唐之	-10.8262
屬官	-10.8262
遷延	-10.8266
昭義	-10.8267
見賢	-10.8268
又不	-10.8271
降授	-10.8274
艦	-10.8274
計置	-10.8275
重兵	-10.8276
礙	-10.8276
詡	-10.8277
聲言	-10.8279
雀	-10.828
之險	-10.828
足下	-10.8281
洪州	-10.8289
一道	-10.8289
先王之	-10.829
則天下	-10.8291
可使	-10.8292
舟師	-10.8293
報國	-10.8294
違法	-10.83
一萬	-10.8302
稜	-10.8305
采石	-10.8306
行者	-10.8308
所費	-10.8311
不得其	-10.8313
翦	-10.8316
孽	-10.8316
善惡	-10.8318
搏	-10.832
許以	-10.832
嘗與	-10.8321
畤	-10.8326
大旱	-10.8326
二分	-10.8327
十三日	-10.8331
見任	-10.8331
大用	-10.8331
忌之	-10.8331
千秋	-10.8332
或云	-10.8334
諳	-10.8334
人所	-10.8337
𤦺	-10.8337
閹	-10.8339
膚	-10.8341
伊尹	-10.8342
望見	-10.8343
稱疾	-10.8347
荆襄	-10.8349
不由	-10.8349
袁紹	-10.8351
延夀	-10.8351
漕司	-10.8353
之徳	-10.8353
皆非	-10.8354
武威	-10.8354
膠	-10.8355
大司農	-10.8355
而得	-10.8356
言陛下	-10.8358
天祐	-10.836
即命	-10.8361
始終	-10.8361
無疑	-10.8368
狎	-10.8368
渭州	-10.8368
當書	-10.8368
役錢	-10.8373
薦舉	-10.8374
衢	-10.8376
金吾	-10.8378
伐鄭	-10.8379
不敢言	-10.838
非所	-10.8382
不逮	-10.8384
行人	-10.8387
山縣	-10.8388
至尊	-10.8389
成敗	-10.839
夘	-10.8394
不遜	-10.8397
好呼到翻	-10.8398
且以	-10.8398
帷	-10.8399
范宗尹	-10.8399
以事	-10.84
谿	-10.8402
繫囚	-10.8405
有常	-10.8406
猶在	-10.8407
職名	-10.8407
鎮撫	-10.8408
漁陽	-10.8408
間有	-10.8411
聊	-10.8415
王彦	-10.8416
小國	-10.8417
尋以	-10.8418
郢州	-10.8418
城内	-10.8422
漳	-10.8422
以供	-10.8425
朂	-10.8426
魏以	-10.8427
燔	-10.8428
兵法	-10.8429
巽	-10.8429
諸書	-10.8431
今又	-10.8431
稚	-10.8432
副總管	-10.8433
者謂	-10.8435
冇	-10.8435
終身	-10.8436
長者	-10.8438
牛羊	-10.844
牽制	-10.844
嘗言	-10.8441
入官	-10.8442
而東	-10.8444
羣小	-10.8445
裴度	-10.8446
䜟	-10.845
所聞	-10.845
為姦	-10.8452
一官	-10.8455
其兵	-10.8459
用度	-10.8459
異日	-10.846
本無	-10.846
㪚	-10.8461
固當	-10.8461
君父	-10.8463
此月	-10.8466
單騎	-10.8467
朔州	-10.8471
論議	-10.8472
建成	-10.848
聞而	-10.848
方畧	-10.8483
選擇	-10.8484
上亦	-10.8484
兵柄	-10.8484
乳	-10.8485
唐太宗	-10.8487
衷	-10.8488
初見	-10.8489
常以	-10.8489
黜之	-10.8497
廂	-10.8498
明宗	-10.85
經略	-10.8501
立為	-10.8501
地界	-10.8502
宿州	-10.8503
黨人	-10.8504
者或	-10.8504
入中	-10.8506
葵	-10.8507
以城降	-10.8509
漕運	-10.8512
又使	-10.8513
原書作	-10.8513
善之	-10.8514
迥	-10.8514
頸	-10.8516
年月	-10.8516
還從宣翻	-10.8517
人望	-10.8518
臺官	-10.8518
蔚	-10.8519
陽人	-10.8521
都虞候	-10.8523
令有司	-10.8524
弓矢	-10.8525
八千	-10.8526
北邊	-10.8527
清臣	-10.8527
有徳	-10.8528
臨江	-10.8529
龜兹	-10.853
後患	-10.8532
今復	-10.8532
自安	-10.8532
大赦天下	-10.8535
環州	-10.8535
箕	-10.8535
一面	-10.8537
龍門	-10.8539
是何	-10.8539
處士	-10.854
鉉	-10.8543
各一	-10.8543
濳	-10.8544
大理寺丞	-10.8544
梗	-10.8547
殖	-10.8549
諡文	-10.8551
之資	-10.8553
件	-10.8556
永州	-10.8559
逞	-10.856
州牧	-10.856
曰臣聞	-10.8562
大行	-10.8563
帑	-10.8568
居中	-10.8568
相率	-10.857
二十二日	-10.8574
鞅	-10.8575
誌	-10.8575
稱之	-10.8576
宣州	-10.8578
覧	-10.8578
軒	-10.8579
此非	-10.8579
樂音	-10.8581
止令	-10.8582
寂	-10.8583
賊衆	-10.8585
歷	-10.8589
沿江	-10.8591
大使	-10.8591
藁	-10.8599
諸將皆	-10.86
將至	-10.8601
西界	-10.8602
致書	-10.8605
門下侍郎	-10.8606
摘	-10.8606
少子	-10.8608
伎	-10.8608
皷	-10.8609
錢榖	-10.8609
紆	-10.861
庚戍	-10.8613
瑩	-10.8613
秀州	-10.8614
不順	-10.8616
何人	-10.8618
乃罷	-10.8623
列傳	-10.8624
湖州	-10.8625
南安	-10.8626
王倫	-10.8626
湜	-10.8634
三道	-10.8635
州治	-10.8636
亞	-10.8636
州編管	-10.8639
毀	-10.8639
􁀙	-10.8641
殄	-10.8641
邢恕	-10.8643
茹	-10.8644
不才	-10.8644
治天下	-10.8645
山林	-10.8646
論其	-10.8646
典故	-10.8648
使民	-10.8648
劉備	-10.8649
太祖皇帝	-10.865
所知	-10.8652
處昌	-10.8652
已為	-10.8653
頡	-10.8655
慤	-10.8655
聖人之	-10.8656
所稱	-10.8656
文宗	-10.8657
文武官	-10.8657
直集賢院	-10.8667
張邦昌	-10.8667
儁	-10.867
二也	-10.867
安州	-10.8671
前世	-10.8672
二十四日	-10.8672
驢	-10.8674
粥	-10.8675
磔	-10.8676
官物	-10.8677
二縣	-10.8678
今天下	-10.8678
並行	-10.8678
更工	-10.8679
以夲	-10.8681
韓信	-10.8683
汜	-10.8687
當有	-10.8688
三百人	-10.8689
而南	-10.8692
改命	-10.8692
涿州	-10.8694
新安	-10.8695
敢不	-10.8699
上謂宰執曰	-10.8701
凡四	-10.8701
平生	-10.8702
鼻	-10.8703
以其子	-10.8707
汰	-10.8707
旦夕	-10.8708
因事	-10.8709
皆曰	-10.871
饒州	-10.8712
覃	-10.8713
衛尉	-10.8718
前去	-10.8719
盟于	-10.8719
壺	-10.8722
逃歸	-10.8723
二十日	-10.8723
義理	-10.8726
遂至	-10.8726
經略使	-10.8729
信都	-10.873
莭	-10.873
䑕	-10.873
或作	-10.8732
敦煌	-10.8732
寤	-10.8733
艘	-10.8734
陽城	-10.8734
雕	-10.8735
滛	-10.8736
至是復	-10.8738
其將	-10.874
㳂	-10.8748
論者	-10.8748
可取	-10.8748
請自今	-10.8749
大江	-10.8749
崧	-10.8751
罪狀	-10.8752
廟號	-10.8753
淮北	-10.8754
淮安	-10.8755
圜丘	-10.8756
是夜	-10.8758
車騎將軍	-10.8758
欲得	-10.8759
秦鳯	-10.8761
莊宗	-10.8762
剥	-10.8764
太子中允	-10.8764
敘	-10.8766
保定	-10.8767
不去	-10.877
孝武	-10.877
余謂	-10.877
立廟	-10.877
濮陽	-10.877
管仲	-10.8773
貢舉	-10.8777
茂貞	-10.878
北海	-10.8783
祭酒	-10.8785
衛將軍	-10.8786
止是	-10.8787
紊	-10.8788
希烈	-10.8791
戰守	-10.8791
郊廟	-10.8793
其能	-10.8793
部族	-10.8794
入蜀	-10.8794
畀	-10.8795
歸順	-10.8795
壹	-10.8795
相望	-10.8796
軍於	-10.8796
無禮	-10.8799
桓温	-10.8801
不意	-10.8803
使天下	-10.8805
百餘里	-10.8805
人事	-10.8806
嘆曰	-10.8806
邀擊	-10.8815
蘄	-10.8816
授官	-10.8816
武安	-10.8819
兩月	-10.8821
不逺	-10.8821
貼黄	-10.8821
延慶	-10.8823
廣南西路	-10.8824
以東	-10.8824
羣盗	-10.8826
鴆	-10.8827
桐	-10.8829
為刺史	-10.883
何敢	-10.883
旺	-10.8831
既不	-10.8831
嗣位	-10.8832
濟河	-10.8833
劉安世	-10.8833
兵少	-10.8835
數千里	-10.8838
以私	-10.8842
兵於	-10.8845
二十八日	-10.8847
日久	-10.8851
忠厚	-10.8851
舉官	-10.8853
所貴	-10.8855
嗣源	-10.8857
軍興	-10.8861
之體	-10.8862
征討	-10.8862
城人	-10.8863
皆言	-10.8863
訪聞	-10.8865
百僚	-10.8865
大名府	-10.8866
猶豫	-10.8869
却之	-10.887
中人	-10.887
㑹于	-10.8871
降户	-10.8871
為額	-10.8872
涿	-10.8873
事不	-10.8875
貝州	-10.8875
聶	-10.8882
黄門	-10.8883
未可知	-10.8883
吿	-10.8884
廂軍	-10.8886
凢	-10.8888
運糧	-10.8904
承宗	-10.8908
年十月	-10.8915
只是	-10.8922
亘	-10.8923
帝遣	-10.8924
嚕	-10.8926
以實	-10.8933
在朝	-10.8934
戰國	-10.8938
鬱	-10.8946
皆降	-10.8953
樂音洛	-10.8953
以死	-10.8953
為朝廷	-10.8953
軍使	-10.8953
擲	-10.8954
墟	-10.8957
長知	-10.8963
其情	-10.8965
凡十	-10.8965
必能	-10.8966
以取	-10.8966
朝奉郎	-10.8972
平州	-10.8972
但當	-10.8973
功名	-10.8973
邊防	-10.8973
事覺	-10.8977
萬貫	-10.8978
不思	-10.898
飽	-10.8981
槐	-10.8982
芮翻	-10.8982
武功大夫	-10.8982
不協	-10.8983
壬戍	-10.8983
巡檢	-10.8984
縁邉	-10.8985
殱	-10.8988
鎮撫使	-10.8989
臣嘗	-10.899
郡治	-10.8991
金州	-10.8991
闕下	-10.8992
永寧	-10.8995
頃之	-10.8996
而未	-10.8999
赴之	-10.9001
各舉	-10.9001
稱其	-10.9003
有變	-10.9004
並與	-10.9006
五曰	-10.9006
蹇	-10.9008
淤	-10.9009
大震	-10.9009
不畏	-10.9009
乞依	-10.9009
鹽鐵	-10.9012
煙	-10.9012
䝉古主	-10.9014
濶	-10.9014
舘	-10.9015
以明	-10.9017
汎	-10.9017
殺傷	-10.9018
有五	-10.9022
李光	-10.9022
不知何	-10.9023
耕種	-10.9023
衡翻	-10.9024
詔賜	-10.9025
北伐	-10.9029
比年	-10.9029
建國	-10.9031
曩	-10.9031
鵬	-10.9034
其死	-10.9034
浪翻	-10.9037
合兵	-10.9037
歸於	-10.904
二十六	-10.904
等議	-10.904
喜曰	-10.9044
枚	-10.9045
闊	-10.9045
而成	-10.9045
可與	-10.9046
周之	-10.9052
義陽	-10.9053
詔曰朕	-10.9056
城邑	-10.9058
於内	-10.9058
之樂	-10.9059
應援	-10.9059
内降	-10.9059
三國	-10.9059
汾州	-10.9061
去嵗	-10.9063
太康	-10.9064
以北	-10.9066
考證	-10.9068
遍翻	-10.9071
紀脩	-10.9072
聨	-10.9072
伏見	-10.9073
原州	-10.9075
誑	-10.9078
未足	-10.9079
相攻	-10.9081
東下	-10.9084
曹彬	-10.9088
言近	-10.9088
河南尹	-10.9091
推行	-10.9091
曽孫	-10.9092
本錢	-10.9092
呉王	-10.9095
光州	-10.91
忠信	-10.91
上諭	-10.9102
自餘	-10.9102
不殺	-10.9103
劔	-10.9108
党項	-10.9109
河上	-10.9109
驥	-10.911
跨	-10.9111
武后	-10.9112
守城	-10.9115
武徳	-10.9115
西方	-10.9117
相接	-10.912
不果	-10.9122
遂入	-10.9123
為御史	-10.9123
帝王之	-10.9124
軍校	-10.9124
招討	-10.9125
上谷	-10.9125
僧格	-10.9126
多寡	-10.9127
保州	-10.9129
當世	-10.9129
遼西	-10.913
李成	-10.913
揀	-10.9131
瑶	-10.9134
刪去	-10.9136
竢	-10.9136
延年	-10.9137
祉	-10.9138
以問	-10.9139
剖	-10.9141
又嘗	-10.9142
菜	-10.9142
萊	-10.9143
諸葛亮	-10.9143
埋	-10.9144
死亡	-10.9148
悔之	-10.915
惡其	-10.9151
分為	-10.9152
三衙	-10.9154
曰夫	-10.9155
母弟	-10.9156
黨與	-10.9157
于外	-10.9158
雨雹	-10.9158
補外	-10.9158
北軍	-10.9158
之請也	-10.9162
禍亂	-10.9163
遣其子	-10.9164
絶其	-10.9164
官職	-10.917
風雨	-10.9172
扆	-10.9172
漢之	-10.9173
美人	-10.9174
何罪	-10.9174
九卿	-10.9184
大辟	-10.9184
精騎	-10.9185
大元	-10.9185
熈河路	-10.9186
謂左右曰	-10.919
矣而	-10.9192
裳	-10.9195
成都府	-10.9195
具言	-10.9198
湯思退	-10.9199
幾何	-10.9199
下流	-10.9199
命有司	-10.9202
慘	-10.9203
使相	-10.9203
迂	-10.9205
林甫	-10.9205
陘	-10.9206
芒	-10.9208
郡太守	-10.9208
上自	-10.9208
於市	-10.9208
張守	-10.921
靳	-10.9212
其半	-10.9213
及此	-10.9217
景帝	-10.9218
也上曰	-10.9221
忠良	-10.9224
臨淮	-10.9226
資序	-10.9227
羲	-10.9227
六國	-10.9228
土木	-10.9229
出使	-10.923
种諤	-10.9231
黯	-10.9231
糓	-10.9234
謝罪	-10.9237
廬江	-10.9238
實封	-10.9239
已成	-10.924
淑妃	-10.9241
竊恐	-10.9241
今日之事	-10.9241
皆出	-10.9244
事件	-10.9245
忠孝	-10.925
討平之	-10.925
田租	-10.925
嘗以	-10.9258
皆是	-10.9258
海道	-10.926
近侍	-10.9261
五千人	-10.9262
尚書右丞	-10.9263
磧	-10.9266
将帥	-10.9267
篆	-10.9268
五六	-10.9273
惟恐	-10.9273
所立	-10.9273
還至	-10.9274
度牒	-10.9275
新録	-10.9276
漢武帝	-10.9277
瑄	-10.9277
諂	-10.9279
廟堂	-10.9281
外國	-10.9282
俄而	-10.9287
若是	-10.9289
何事	-10.929
十五萬	-10.9291
實有	-10.9293
江左	-10.9295
大掠	-10.9296
起發	-10.9297
者惟	-10.9299
為先	-10.93
又何	-10.93
始有	-10.9301
禎	-10.9303
明詔	-10.9308
趙汝愚	-10.931
天寳	-10.9312
其私	-10.9312
天下事	-10.9313
兵力	-10.9316
又按	-10.9317
軍至	-10.9318
太行	-10.9319
十九日	-10.9319
保明	-10.9321
宗皇帝	-10.9321
天變	-10.9321
都人	-10.9321
私意	-10.9321
不能用	-10.9325
倉庫	-10.9325
按察	-10.9326
縮	-10.9328
名也	-10.9332
不曽	-10.9333
龕	-10.9336
行軍司馬	-10.9338
則當	-10.934
詩云	-10.934
僧道	-10.934
漠	-10.9344
氏為	-10.9345
兵勢	-10.9346
法司	-10.9347
真州	-10.9348
封還	-10.9349
所司	-10.935
御批	-10.935
西路	-10.935
中宫	-10.9351
冉	-10.9358
引對	-10.936
獲罪	-10.9361
即令	-10.9362
𤣥宗	-10.9363
内殿崇班	-10.9364
矢石	-10.9366
貢獻	-10.9367
琴	-10.9369
仙芝	-10.9372
桂州	-10.9376
執政大臣	-10.9376
經費	-10.9378
察之	-10.9379
責以	-10.9379
十餘日	-10.938
兩朝	-10.9383
無備	-10.9383
至誠	-10.9384
追至	-10.9384
六合	-10.9385
三百里	-10.9386
之弟也	-10.9387
非其	-10.9389
其直	-10.9389
急攻	-10.939
景徳	-10.9392
權臣	-10.9393
陵寢	-10.9393
建康府	-10.9395
第四	-10.9397
邇	-10.9402
其本	-10.9405
一戰	-10.941
西門	-10.9411
殿中丞	-10.9411
仍詔	-10.9413
不令	-10.9413
監當	-10.9414
詳議	-10.9416
不起	-10.9417
然猶	-10.9417
無一人	-10.942
從而	-10.942
盡心	-10.9423
今嵗	-10.9426
朱本	-10.9427
復入	-10.943
婆	-10.943
泓	-10.9432
條上	-10.9432
庶子	-10.9432
曰是	-10.9434
根究	-10.9436
石門	-10.9437
會稽	-10.9437
而起	-10.9439
禁兵	-10.9443
昌朝	-10.9443
等官	-10.9447
太祖太宗	-10.9455
朞	-10.9458
進入	-10.9458
食邑	-10.9461
不附	-10.9461
不降	-10.9462
㝷	-10.9462
裒	-10.9462
見今	-10.9465
仍命	-10.9465
蓬	-10.9467
年七月	-10.9467
十一日	-10.9468
數目	-10.9469
勦	-10.9476
即是	-10.9477
衆議	-10.9478
虎牢	-10.948
温州	-10.9482
請令	-10.9483
敏中	-10.9485
於道	-10.9487
先次	-10.9489
母后	-10.949
二十七日	-10.949
十數	-10.9491
山下	-10.9491
未甞	-10.9493
時方	-10.9494
衡州	-10.9494
不聼	-10.9495
羨	-10.9495
等各	-10.9496
乞降	-10.9497
等並	-10.9497
草木	-10.9497
鞫之	-10.9497
逓	-10.9498
㸔詳	-10.9499
紏	-10.95
溫	-10.9501
表裏	-10.9502
雱	-10.9506
進討	-10.9506
為變	-10.9513
謂宜	-10.9513
何得	-10.9516
一子	-10.9518
條具	-10.9519
大興	-10.9522
與我	-10.9523
撫諭	-10.9527
人不	-10.9527
宣武	-10.9528
冡	-10.9529
資政殿大學士	-10.953
賜錢	-10.9533
擇其	-10.9534
舊例	-10.954
歸國	-10.954
徽宗	-10.9542
彗	-10.9542
禆	-10.9542
不可得	-10.9543
臣今	-10.9543
久不	-10.9544
弟也	-10.9546
際	-10.9546
有寵	-10.9546
百二十	-10.9546
者謂之	-10.9549
有能	-10.9551
威福	-10.9552
為正	-10.9555
所作	-10.9557
舊録	-10.9558
行軍	-10.9561
莘	-10.9562
黙然	-10.9565
曰天下	-10.9565
史炤	-10.9567
為質	-10.9567
萬民	-10.9569
渚	-10.957
已得	-10.9571
報之	-10.9572
東川	-10.9572
經曰	-10.9573
為國家	-10.9575
為後	-10.9575
荀紀	-10.9576
之儀	-10.9577
懐恩	-10.9578
近習	-10.9579
畏之	-10.9579
巷	-10.9579
以行	-10.958
瀛	-10.958
於下	-10.9586
不可勝計	-10.9587
開封府界	-10.9588
西至	-10.9589
嘉之	-10.959
都大	-10.9592
閤門祇候	-10.9595
再任	-10.9596
各以	-10.9599
昵	-10.9602
徂	-10.9602
慿	-10.9602
水災	-10.9604
多方	-10.9605
所由	-10.9608
七千	-10.9609
僖祖	-10.9613
同知樞密院事	-10.9614
軍務	-10.9616
為大司馬	-10.9618
畋	-10.9618
振武	-10.9619
洺州	-10.9621
鉅	-10.9621
覲	-10.9622
諸葛	-10.9623
陳瓘	-10.9625
代宗	-10.9628
傳作	-10.9629
州名	-10.963
儔	-10.9632
膝	-10.9632
録尚書事	-10.9634
董卓	-10.9642
曰天子	-10.9643
卒於	-10.9645
不詳	-10.9645
臣前	-10.9646
莊公	-10.9648
異論	-10.9649
元帥府	-10.9651
土兵	-10.9656
車騎	-10.9661
射之	-10.9663
可惜	-10.9663
毆	-10.9666
當是時	-10.9668
膏	-10.9669
閎	-10.9669
躡	-10.9669
燕山	-10.9669
遵守	-10.9671
尚可	-10.9673
移書	-10.9675
杜預	-10.9676
政府	-10.9677
戯	-10.9679
門下省	-10.968
而陛下	-10.9681
簽	-10.9682
士氣	-10.9683
律令	-10.9683
無此	-10.9685
孝文	-10.9688
士誠	-10.9688
上曰卿	-10.9693
提舉江州太平觀	-10.9696
躍	-10.9697
制置司	-10.9698
更張	-10.9698
緘	-10.9699
漢紀	-10.9703
失守	-10.9705
並以	-10.9706
北至	-10.9706
西夏	-10.9707
尤為	-10.9707
參議	-10.971
忻	-10.9711
錢塘	-10.9711
教化	-10.9716
還京師	-10.9718
言官	-10.9718
嘗有	-10.9722
建元	-10.9724
言今	-10.9726
非特	-10.9726
又問	-10.9727
賞之	-10.9727
士庶	-10.9728
又東	-10.9728
上親	-10.9729
倦	-10.973
涼州	-10.9732
泣下	-10.9733
光祖	-10.9735
頤	-10.9736
禕	-10.9737
令史	-10.9737
餌	-10.9739
甲士	-10.9739
嘉定	-10.9739
佯	-10.9741
丗	-10.9742
並許	-10.9743
軍食	-10.9744
王黼	-10.9744
以新舊	-10.9747
近世	-10.9748
延安	-10.9753
今依	-10.9757
千萬	-10.9758
屍	-10.9759
綺	-10.976
義兵	-10.9762
尋復	-10.9762
租賦	-10.9763
汶	-10.9764
舉行	-10.9764
所記	-10.9765
其狀	-10.9765
銀絹	-10.9767
曇	-10.977
屬之	-10.977
綝	-10.9771
峯	-10.9773
南康	-10.9774
官為	-10.9774
剽掠	-10.9775
又謂	-10.9776
人主之	-10.9777
依條	-10.9778
車師	-10.9781
自新	-10.9782
揭	-10.9784
因請	-10.9784
者當	-10.9787
忠直	-10.9789
朝貢	-10.9789
范鎮	-10.979
始此	-10.9791
五分	-10.9791
十五里	-10.9792
皆可	-10.9794
霍光	-10.9796
五原	-10.9797
上嘗	-10.9797
不雨	-10.9798
惠帝	-10.9799
記云	-10.98
事迹	-10.9802
洮	-10.9802
入寇	-10.9804
直祕閣	-10.9805
昭儀	-10.9806
遼陽	-10.9807
購	-10.9807
畿内	-10.9809
油	-10.981
失於	-10.981
故能	-10.9812
所上	-10.9813
兩軍	-10.9821
節鉞	-10.9821
元吉	-10.9828
言語	-10.983
召募	-10.983
未下	-10.9832
祜	-10.9834
扈從	-10.9835
差人	-10.9836
次于	-10.9836
想	-10.9839
蕭何	-10.984
二十九	-10.9843
尋又	-10.9844
睿宗	-10.9844
汧	-10.9847
中書樞宻院	-10.985
毫	-10.9851
鎮江府	-10.9851
仲尼	-10.9852
其說	-10.9853
記聞	-10.9853
誰敢	-10.9854
椿	-10.9856
掖庭	-10.9856
賞錢	-10.9859
二十六日	-10.9861
至長安	-10.9863
戎狄	-10.9866
大亂	-10.9867
荆州刺史	-10.9868
設伏	-10.9868
去位	-10.9869
必須	-10.987
徙居	-10.9872
朱光庭	-10.9872
汭	-10.9873
緬	-10.9875
戊戍	-10.9875
驩	-10.9876
跋	-10.9877
帝謂	-10.9878
武德	-10.988
即時	-10.988
道成	-10.9881
國初	-10.9882
遇害	-10.9885
天書	-10.9885
新傳	-10.9887
不時	-10.9889
上音	-10.989
之功也	-10.9898
宗廟社稷	-10.99
失利	-10.9902
曰王	-10.9904
步騎	-10.9906
定襄	-10.9906
燮	-10.9908
韓忠彦	-10.9909
二十一年	-10.9911
廬舍	-10.9912
詰之	-10.9915
復舊	-10.9915
請和	-10.9918
豈無	-10.992
皇考	-10.9922
故謂之	-10.9922
乞賜	-10.9923
以助	-10.9924
擾民	-10.9924
下馬	-10.9924
一次	-10.9925
必死	-10.9927
必為	-10.9928
存之	-10.9932
此人	-10.9933
之狀	-10.9935
府州	-10.9936
終日	-10.9937
幄	-10.9939
縦	-10.9942
公輔	-10.9942
濮州	-10.9944
順天	-10.9948
澶	-10.9951
州城	-10.9952
主帥	-10.9952
青苗	-10.9954
瀛州	-10.9955
商旅	-10.9955
者又	-10.9956
髙帝	-10.9957
千緡	-10.9958
都堂	-10.9961
安平	-10.9962
縣尉	-10.9964
雒	-10.9964
麟府	-10.9967
非獨	-10.9967
以南	-10.9968
后稷	-10.9968
恐懼	-10.9969
所掠	-10.9971
非一	-10.9974
為文	-10.9974
軍于	-10.9975
著為令	-10.9976
闡	-10.9978
霧	-10.9979
頊	-10.9979
鄉人	-10.9981
天性	-10.9983
權勢	-10.9986
唐末	-10.9996
下户	-10.9999
既罷	-11.0002
比之	-11.0003
襄州	-11.0004
分置	-11.0008
新書	-11.0009
女為	-11.0009
並無	-11.001
穰	-11.0011
南昌	-11.0011
邦彦	-11.0012
何益	-11.0012
出界	-11.0013
韓𤦺	-11.0014
奔走	-11.0018
虎賁	-11.0018
共議	-11.0022
力辭	-11.0022
防秋	-11.0028
德宗	-11.003
城池	-11.0034
附之	-11.0036
廢立	-11.004
降於	-11.0041
朝堂	-11.0042
補官	-11.0043
羣盜	-11.0045
南宫	-11.0046
走馬承受	-11.0047
銑	-11.0048
以魏	-11.0048
語及	-11.0051
李茂貞	-11.0054
定議	-11.0057
犯者	-11.006
侵擾	-11.0061
當從	-11.0061
禮也	-11.0061
踰月	-11.0066
差除	-11.0066
不息	-11.007
不守	-11.007
林希	-11.0072
安樂	-11.0075
皇城	-11.0077
以張	-11.0077
其故	-11.0079
驤	-11.0079
以充	-11.0079
寗	-11.0082
者何	-11.0082
正當	-11.0083
殿直	-11.0083
王府	-11.0084
罷以	-11.0084
股肱	-11.0085
是歳	-11.0086
酒泉	-11.0089
國夫人	-11.0092
事下	-11.0094
王徳	-11.0097
九人	-11.0101
据	-11.0103
章奏	-11.0103
監國	-11.0104
無狀	-11.0107
下至	-11.0109
疊	-11.0111
轉對	-11.0111
一帶	-11.0114
不多	-11.0114
稻	-11.0115
贏	-11.0116
二十五日	-11.0117
岳州	-11.0118
小事	-11.0118
天水	-11.0119
矛	-11.0126
也乃	-11.0127
特書	-11.013
其道	-11.0131
切說文	-11.0132
簽書樞宻院事	-11.0137
所繫	-11.0137
社稷之	-11.0139
併力	-11.014
外人	-11.0142
殺戮	-11.0146
伋	-11.0147
誓書	-11.015
攀	-11.0151
叢	-11.0152
邊境	-11.0153
寡人	-11.0154
奴婢	-11.0155
為翰林學士	-11.0157
夀陽	-11.0158
汝曹	-11.0158
李繼	-11.0162
天錫	-11.0165
少年	-11.0167
也於是	-11.0168
王安石曰	-11.017
田宅	-11.017
為人所	-11.0171
為君	-11.0178
曲直	-11.0178
七八	-11.0178
聲色	-11.0179
貴州	-11.0179
近年	-11.018
亦云	-11.018
未决	-11.0184
賈昌朝	-11.0186
著作郎	-11.0187
鷹	-11.0189
兊	-11.019
軍統制	-11.019
控扼	-11.019
降户江翻	-11.019
虞允文	-11.0192
盡其	-11.0192
草制	-11.0193
使還	-11.0193
港	-11.0194
余靖	-11.0195
此語	-11.0196
惜之	-11.0197
來者	-11.0199
至則	-11.0199
軍儲	-11.0203
其門	-11.0203
數百里	-11.0204
諜	-11.0205
北使	-11.0205
萬匹	-11.0205
二十人	-11.0206
已久	-11.0206
五十萬	-11.0209
不戰	-11.021
宗子	-11.0213
聖朝	-11.0213
思恭	-11.0218
簽書樞密院事	-11.0218
國政	-11.022
猶不	-11.022
漢唐	-11.0221
鄂特凌古	-11.0221
不任	-11.0222
其害	-11.0223
小民	-11.0225
也昔	-11.0226
灘	-11.0229
加恩	-11.0229
埒	-11.023
敗死	-11.0235
磁	-11.0237
滅之	-11.0239
感動	-11.024
連年	-11.0241
徒以	-11.0243
心腹	-11.0245
永興軍	-11.0246
將以	-11.0248
大明	-11.0248
當先	-11.0249
賑之	-11.025
夔	-11.0251
一百五十	-11.0251
四鎮	-11.0253
曺	-11.0257
譜	-11.0258
尚在	-11.0258
聚兵	-11.0259
隨軍	-11.0259
此數	-11.0263
帝乃	-11.0263
安之	-11.0264
貿易	-11.0264
之至是	-11.0265
馬邑	-11.0265
黠	-11.0265
亦不可	-11.0266
所取	-11.0267
能否	-11.0271
終始	-11.0271
陳執中	-11.0274
餘人	-11.0275
神明	-11.028
竊見	-11.0282
貞元	-11.0283
朕甚	-11.0284
曾布	-11.0286
蠡	-11.0292
以謝	-11.0293
有何	-11.0295
固有	-11.0296
同時	-11.0296
生於	-11.0296
請行	-11.0298
為三	-11.0299
戀	-11.0299
臨時	-11.03
為治	-11.03
戬	-11.0301
已至	-11.0303
來上	-11.0303
六千	-11.0304
無常	-11.0308
何時	-11.0311
陳州	-11.0316
一身	-11.032
洪武	-11.0321
梁州	-11.0322
職官	-11.0323
猶可	-11.0324
臣雖	-11.0325
种	-11.0327
瑊	-11.0329
入閣	-11.0331
太白晝見	-11.0331
之福	-11.0333
福建路	-11.0338
宣徽使	-11.0341
延壽	-11.0343
惠王	-11.0344
知潭州	-11.0345
節度副使	-11.0346
凡所	-11.0356
謹按	-11.0357
豎	-11.0357
出于	-11.0359
光逺	-11.0363
一州	-11.0363
猾	-11.0367
霜	-11.0369
隐	-11.0369
鑾	-11.0369
都元帥	-11.0373
甚於	-11.0373
鄱陽	-11.0374
聞者	-11.0374
瑛	-11.0374
稠	-11.0374
玉牒	-11.0377
撃之	-11.0378
髙平	-11.0379
移文	-11.0383
萬七千	-11.0385
商州	-11.0385
便殿	-11.0386
故有是詔	-11.0388
竊以	-11.0388
嬪	-11.0388
兼侍中	-11.0393
雍州刺史	-11.0394
時已	-11.0394
熲	-11.0395
倨	-11.0395
勿以	-11.0396
家居	-11.0397
仆	-11.0401
之耳	-11.0401
之女	-11.0403
佚	-11.0403
此必	-11.0404
州事	-11.0404
上遣	-11.0406
緝	-11.0406
眼	-11.0406
㓕	-11.0407
令人	-11.0408
赦書	-11.0408
天下之人	-11.0409
小臣	-11.0412
選差	-11.0412
安禮	-11.0414
鎔	-11.0415
舎人	-11.0419
達蘭	-11.0426
五行	-11.0427
㐮	-11.0431
涕	-11.0432
北漢主	-11.0434
鄜	-11.0438
縣置	-11.0442
夜半	-11.0442
遷于	-11.0445
為前鋒	-11.0445
年十二月	-11.0448
恐誤	-11.0448
武舉	-11.0449
愼	-11.0449
所賜	-11.0449
楯	-11.045
乆矣	-11.045
貴戚	-11.0451
死而	-11.0453
阿珠	-11.0454
宗澤	-11.0455
以下皆	-11.0456
東路	-11.0456
祖宗以來	-11.0457
帝欲	-11.0458
數十里	-11.0459
以資	-11.046
若使	-11.046
少傅	-11.0462
君子小人	-11.0462
至大	-11.0463
水利	-11.0464
俘獲	-11.0466
出錢	-11.0467
其文	-11.0469
偽齊	-11.0469
之惡	-11.047
都轉運使	-11.047
堯俞	-11.0473
良玉	-11.0475
搢紳	-11.0476
條例	-11.0476
自保	-11.0476
懽	-11.0476
凱	-11.0476
携	-11.0477
撲	-11.0477
然之	-11.0477
一分	-11.0477
更工衡翻	-11.0477
璉	-11.0478
宣城	-11.0478
鄜州	-11.048
於今	-11.048
平時	-11.0481
坑	-11.0481
朱泚	-11.0481
奉安	-11.0482
之賢	-11.0482
頂	-11.0482
甚者	-11.0483
至京	-11.0483
是謂	-11.0484
出自	-11.0488
為尚書	-11.0489
陽郡	-11.0489
武公	-11.0489
天心	-11.0492
非便	-11.0497
以西	-11.0502
分析	-11.0502
俟其	-11.0503
富民	-11.0504
過人	-11.0505
瑱	-11.0505
左遷	-11.0506
上封事	-11.0507
㓙	-11.0509
暹	-11.0511
帝從之	-11.0511
大理評事	-11.0512
賽	-11.0512
昕	-11.0515
立皇子	-11.0517
恤翻	-11.0517
朝野	-11.0519
乳母	-11.0521
安陸	-11.0522
程頥	-11.0522
所遣	-11.0523
三朝	-11.0525
治兵	-11.0526
太妃	-11.0526
沼翻	-11.0529
邁翻	-11.053
被殺	-11.0531
此所謂	-11.0534
泰州	-11.0535
故翻	-11.0535
嵗時	-11.0537
子羽	-11.0538
炤	-11.0539
閫	-11.054
黄履	-11.0543
縣漢	-11.0544
專權	-11.0544
慝	-11.0545
人物	-11.0548
牋	-11.0548
臣不敢	-11.055
耽	-11.0553
餞	-11.0554
不决	-11.0554
師中	-11.0555
偷	-11.0555
寺觀	-11.0556
可知矣	-11.0561
入奏	-11.0562
元元	-11.0563
不解	-11.0564
不中	-11.0568
何謂	-11.0571
以討	-11.0572
江湖	-11.0572
務在	-11.0574
南渡	-11.0575
也按	-11.0576
矣又	-11.0581
今附見	-11.0582
鄭氏	-11.0582
之期	-11.0583
之聲	-11.0583
罔上	-11.0584
明白	-11.0585
塗炭	-11.0587
降㫖	-11.0588
企	-11.0589
寺監	-11.059
相視	-11.0591
團結	-11.0592
崇韜	-11.0597
而西	-11.0597
之備	-11.0599
其子孫	-11.0599
詹事	-11.0604
蕃兵	-11.0604
李清臣	-11.0604
所據	-11.0605
分别	-11.0606
萬三千	-11.0606
其可	-11.061
好學	-11.0614
十餘里	-11.0615
政和	-11.0617
舉主	-11.0619
上京	-11.062
羣下	-11.0621
大書	-11.0621
登州	-11.0623
邃	-11.0624
條約	-11.0624
薦翻	-11.0625
異姓	-11.0625
所定	-11.0625
方士	-11.0628
與賊	-11.0628
館閣	-11.0628
閉門	-11.0628
急務	-11.0629
遂復	-11.0632
狠	-11.0633
安用	-11.0633
曲沃	-11.0634
後人	-11.0634
曹州	-11.0635
知揚州	-11.0638
之舊	-11.0642
名為	-11.0645
機務	-11.0647
開皇	-11.0649
二世	-11.065
秉政	-11.065
吉州	-11.0655
秦漢	-11.0656
識者	-11.0656
六州	-11.0656
戒之	-11.0658
参知政事	-11.0658
絳州	-11.0659
者雖	-11.0659
瘠	-11.0659
漢軍	-11.066
涯	-11.0662
闕失	-11.0664
處昌吕翻	-11.0665
拆	-11.0665
莫之	-11.0668
不得過	-11.0668
罷免	-11.0669
不改	-11.0669
兵馬鈐轄	-11.0673
復言	-11.0673
衛州	-11.0674
而民	-11.0675
定逺	-11.0683
自取	-11.0684
免官	-11.0687
賊勢	-11.0687
曰爾	-11.069
昭公	-11.069
語曰	-11.0692
雖已	-11.0693
世之	-11.0696
獨孤	-11.0697
翰林侍讀學士	-11.0697
初議	-11.0698
天禧	-11.0698
粹	-11.0699
陛下以	-11.07
祖禹	-11.0701
復何	-11.0702
鉅鹿	-11.0703
於人	-11.0703
出為	-11.0703
顓	-11.0704
之孫也	-11.0705
仍賜	-11.0706
養之	-11.0706
從其請	-11.0708
以紀	-11.0711
憂懼	-11.0711
上不許	-11.0713
忠彦	-11.0721
武皇帝	-11.0724
禹貢	-11.0724
進對	-11.0725
挈	-11.0725
復召	-11.0726
辰州	-11.0731
懐州	-11.0733
堂除	-11.0734
滂	-11.0735
惡烏	-11.0735
鈎	-11.0735
叟	-11.0736
橫	-11.0736
經史	-11.0738
刁	-11.0738
昨日	-11.0739
芻粟	-11.074
上召	-11.074
别將	-11.074
五百里	-11.074
旗幟	-11.0741
釣	-11.0744
載記	-11.0745
憂之	-11.0748
一體	-11.0748
魏書	-11.075
桂陽	-11.075
惟有	-11.0751
教閲	-11.0751
悉平	-11.0756
必行	-11.0757
為界	-11.0758
内殿	-11.0758
戰艦	-11.076
出賣	-11.0761
字伯	-11.0769
然也	-11.0771
吕頤浩	-11.0773
濕	-11.0774
看	-11.0775
李全	-11.0775
昂	-11.0778
中傷	-11.0779
朝議	-11.0779
此豈	-11.0779
晡	-11.0779
員外	-11.078
宰輔	-11.078
國中	-11.0784
之族	-11.0784
物料	-11.0785
事務	-11.0786
祫	-11.0787
賢才	-11.0787
擁兵	-11.0788
懌	-11.0789
疏入	-11.079
食之	-11.079
重行	-11.0791
恭儉	-11.0792
未成	-11.0795
始得	-11.0796
舉動	-11.0796
素有	-11.0797
縱横	-11.0798
録云	-11.0799
墓誌	-11.08
字仲	-11.0801
引兵還	-11.0801
百五十	-11.0804
既死	-11.0804
去就	-11.0807
璜	-11.081
顯忠	-11.0813
荆湖南路	-11.0814
腐	-11.0814
赤心	-11.0815
捶	-11.0815
死傷	-11.0817
曰大	-11.082
六七	-11.0822
髙陽	-11.0822
臨事	-11.0823
必敗	-11.0824
乃有是命	-11.0824
奐	-11.0825
匹夫	-11.0825
狄青	-11.0825
我國	-11.0828
為本	-11.0828
其失	-11.083
士英	-11.083
創業	-11.083
辭以	-11.0831
退屯	-11.0834
汝等	-11.0838
弓弩	-11.0842
宗道	-11.0844
中和	-11.0848
趙州	-11.0849
工部郎中	-11.085
一夫	-11.085
成臯	-11.085
儆	-11.0852
帥所類翻	-11.0853
熈寜	-11.0854
八九	-11.0854
不舉	-11.0856
士良	-11.086
管軍	-11.0862
諸侯王	-11.0864
灣	-11.0864
上邽	-11.0865
求之	-11.0868
陽平	-11.0868
襄公	-11.087
考其	-11.0871
之效	-11.0873
斬獲	-11.0874
官名	-11.0874
如初	-11.0879
煬帝	-11.0879
諸鎮	-11.0879
禮記	-11.088
一郡	-11.0881
故特	-11.0882
宣府	-11.0882
纎	-11.0884
不早	-11.0885
終不能	-11.0886
黥	-11.0886
州團練副使	-11.0886
緫	-11.0886
全軍	-11.0889
三十人	-11.089
犢	-11.089
尅	-11.0891
饑饉	-11.0893
塢	-11.0893
太常丞	-11.0894
虚實	-11.0894
在内	-11.0895
放罷	-11.0895
芾	-11.0896
又音如字	-11.0899
藍田	-11.09
鹽法	-11.0901
勃海	-11.0905
僚屬	-11.0905
朝見	-11.0905
既成	-11.0907
彼必	-11.0909
募民	-11.0909
事見上卷	-11.0911
鎮南	-11.0911
郯	-11.0912
隰	-11.0913
乃更	-11.0913
交子	-11.0916
為御史中丞	-11.0919
尋改	-11.092
亦何	-11.0921
秦鳳	-11.0923
過於	-11.0925
有備	-11.0926
柩	-11.0927
見賢遍翻	-11.0928
汾隂	-11.0933
發運司	-11.0933
請命	-11.0934
縱兵	-11.0935
燕人	-11.0938
故不	-11.0941
損益	-11.0941
誘之	-11.0943
不恱	-11.0944
應接	-11.0944
不修	-11.0948
廵撫	-11.0948
李靖	-11.0952
南越	-11.0952
之由	-11.0952
二十一日	-11.0955
官給	-11.0957
撫州	-11.0958
太平興國	-11.0961
兩國	-11.0962
始置	-11.0962
齊賢	-11.0964
之口	-11.0964
矣乃	-11.0965
事而	-11.0965
巴哈	-11.0967
呼曰	-11.0968
禽獸	-11.0969
死于	-11.0969
平定	-11.097
降一官	-11.0971
如淳曰	-11.0971
理財	-11.0973
僞	-11.0973
上天	-11.0974
南至	-11.0975
侍臣	-11.0977
安縣	-11.0978
凡例	-11.0978
百萬緡	-11.0979
甘肅	-11.0981
威名	-11.0982
始皇	-11.0985
則民	-11.0986
以義	-11.0987
劾之	-11.0989
復扶又	-11.099
北郊	-11.0991
潼	-11.0992
鏐	-11.0996
乃云	-11.0998
承議郎	-11.0999
其義	-11.0999
民多	-11.0999
擢為	-11.1
雲州	-11.1001
戎人	-11.1002
霽	-11.1002
費用	-11.1007
葦	-11.1008
干戈	-11.101
魏晉	-11.1012
箴	-11.1013
而遣之	-11.1014
大敗之	-11.1015
台州	-11.1015
攸之	-11.1018
從軍	-11.1018
慶元	-11.1021
光庭	-11.1021
揣	-11.1022
問以	-11.1022
巴陵	-11.1022
素無	-11.1023
堡寨	-11.1025
不省	-11.1027
山中	-11.1028
二百里	-11.1029
矣此	-11.1031
縱火	-11.1032
雖多	-11.1034
而欲	-11.1034
旰	-11.1037
追擊	-11.104
南侵	-11.104
亦須	-11.104
妓	-11.1043
乾元	-11.1043
逄	-11.1044
厨	-11.1045
詈	-11.1046
睢陽	-11.1046
烹	-11.1046
麟州	-11.1047
鹵簿	-11.1047
申尚書省	-11.105
吏士	-11.105
自請	-11.1053
乃知	-11.1054
仁孝	-11.1056
錦衣	-11.1056
乗間	-11.1062
地也	-11.1062
傳聞	-11.1065
建寧	-11.1067
步兵	-11.1068
流離	-11.1068
歸徳	-11.1069
愁	-11.1072
稼	-11.108
故名	-11.1081
既無	-11.1081
夀州	-11.1084
和元年	-11.1084
潼關	-11.1084
南門	-11.1086
以避	-11.1086
允恭	-11.1086
洪範	-11.1088
楊沂中	-11.1091
刑法	-11.1091
日益	-11.1094
部分	-11.1095
赤子	-11.1096
從祀	-11.1096
之比	-11.1097
舉事	-11.1097
伐齊	-11.1098
所執	-11.11
鞍	-11.1102
追復	-11.1102
廢之	-11.1104
繫獄	-11.1104
宫門	-11.1104
縣漢屬	-11.1105
害民	-11.1105
黄州	-11.1106
一任	-11.1106
不和	-11.1106
建隆	-11.1106
山崩	-11.1112
狥	-11.1112
選官	-11.1114
聖慈	-11.1115
萬計	-11.1115
部下	-11.1116
岷州	-11.1116
並用	-11.1117
由榔	-11.1117
而朝廷	-11.1118
鎧	-11.1119
少師	-11.1119
守節	-11.1121
剏	-11.1121
幷	-11.1122
吏人	-11.1126
袖	-11.1127
友諒	-11.1127
亦不能	-11.1128
文徳	-11.1128
聖慮	-11.113
者許	-11.1131
三思	-11.1131
容翻	-11.1134
親信	-11.1138
北史	-11.1147
建立	-11.1147
既定	-11.1147
為之備	-11.115
遂有	-11.1155
淮南王	-11.1156
若能	-11.1158
宋人	-11.1158
中道	-11.1161
國書	-11.1161
諛	-11.1162
鼐	-11.1163
攬	-11.1163
怖	-11.1163
慷慨	-11.1164
有事	-11.1164
與語	-11.1166
諒祚	-11.1167
瓉	-11.1168
不均	-11.1168
見二百	-11.1169
安逺	-11.1169
建昌	-11.1169
懼而	-11.1171
昭宗	-11.1172
乃退	-11.1174
條貫	-11.1174
提㸃刑獄公事	-11.1177
則曰	-11.118
臣與	-11.1185
為備	-11.1186
澧	-11.1188
中山王	-11.1189
戍卒	-11.1193
分屯	-11.1194
武陵	-11.1196
慶府	-11.1197
立太子	-11.1198
掲	-11.1198
為留後	-11.12
賓客	-11.1203
本軍	-11.1206
水勢	-11.1206
正色	-11.1206
示天下	-11.1207
二事	-11.1207
不拜	-11.1208
郭逵	-11.1209
者今	-11.1209
大潰	-11.1211
則非	-11.1212
蜀中	-11.1212
以功	-11.1212
金使	-11.1213
一百二十	-11.1213
等上	-11.1214
比至	-11.1214
防守	-11.1215
與人	-11.1216
一品	-11.1217
委曲	-11.122
兼知	-11.122
輔之	-11.1222
執事	-11.1223
貴賤	-11.1225
在前	-11.1226
郵	-11.1228
上又曰	-11.1229
民皆	-11.123
布録	-11.1231
絕	-11.1231
許昌	-11.1233
捕之	-11.1236
麴	-11.1236
一時之	-11.1237
荆湖北路	-11.1237
已降	-11.1239
之言也	-11.1241
王覿	-11.1241
謀殺	-11.1243
各一人	-11.1243
學術	-11.1244
之親	-11.1244
趙卨	-11.1246
上因	-11.1248
巴蜀	-11.125
兩京	-11.125
治直之翻	-11.1252
不義	-11.1253
大安	-11.1256
鎮守	-11.1258
七萬	-11.1258
稱疾不	-11.126
白金	-11.126
襄城	-11.1261
五州	-11.1263
而生	-11.1264
遣使來	-11.1265
二郡	-11.1267
職任	-11.1267
宋州	-11.1267
縊	-11.1271
隋主	-11.1271
需	-11.1272
太白	-11.1273
路翻	-11.1274
河中府	-11.1276
暐	-11.1277
本意	-11.1277
龍圖閣待制	-11.1278
夏秋	-11.1278
告急	-11.1279
斷其	-11.1279
同姓	-11.1279
冰	-11.128
契勘	-11.1281
為賊所	-11.1281
參考	-11.1282
急於	-11.1287
遵裕	-11.1289
周官	-11.1291
朽	-11.1292
以相	-11.1292
親兵	-11.1293
爾雅	-11.1294
來年	-11.1295
追諡	-11.1295
謝曰	-11.1299
入覲	-11.1299
項王	-11.13
熊克小歴	-11.1302
兵革	-11.1305
之意也	-11.1305
當今	-11.131
既有	-11.1311
塞外	-11.1315
驚擾	-11.1316
州守臣	-11.1317
鎻	-11.1318
不繼	-11.1318
不亦	-11.132
喻翻	-11.1321
主者	-11.1322
望陛下	-11.1322
莧翻	-11.1323
招之	-11.1324
四郡	-11.1325
蒸	-11.1326
御製	-11.1328
昬	-11.1328
李林甫	-11.1331
不道	-11.1333
武備	-11.1334
果有	-11.1335
天王	-11.1336
力爭	-11.1337
琅邪王	-11.1337
彼此	-11.1337
尚書左僕射	-11.1339
指使	-11.134
不即	-11.134
則其	-11.134
國號	-11.134
一貫	-11.1341
郡公	-11.1341
丈夫	-11.1342
雖無	-11.1343
事多	-11.1343
申請	-11.1343
大人	-11.1344
避之	-11.1345
敗補	-11.1347
臺臣	-11.1347
撫之	-11.1348
乞以	-11.1348
遂圍	-11.1348
方得	-11.1349
天寶	-11.135
險阻	-11.135
選舉	-11.1351
長貳	-11.1353
軍糧	-11.1353
其過	-11.1353
事已	-11.1356
其妻子	-11.1356
騫	-11.1357
其二	-11.1358
低	-11.1359
因依	-11.1361
行禮	-11.1362
頒行	-11.1363
澆	-11.1364
滁州	-11.1364
楊行密	-11.1364
大政	-11.1365
等至	-11.1366
棄城走	-11.1366
字元	-11.1366
澤潞	-11.1367
拾	-11.1368
時政記	-11.1371
矣夫	-11.1371
曰不然	-11.1371
從珂	-11.1372
未平	-11.1373
兼并	-11.1373
差使	-11.1374
臣寮	-11.1376
郎將	-11.1376
不可為	-11.138
不赴	-11.1381
委官	-11.1382
一處	-11.1383
昆弟	-11.1383
二百人	-11.1387
斥逐	-11.1389
正義	-11.1389
羅索	-11.139
用其	-11.1392
之具	-11.1393
矣若	-11.1393
霖	-11.1395
鎮戎軍	-11.1396
駐劄	-11.14
汪伯彦	-11.1401
梯	-11.1401
來獻	-11.1401
豈宜	-11.1402
庫庫特穆爾	-11.1403
七里	-11.1403
教習	-11.1404
龍圖閣學士	-11.1405
榆林	-11.1407
有害	-11.1407
錢鏐	-11.1407
禮院	-11.1408
珏	-11.1409
䖍州	-11.1411
比較	-11.1414
得幸	-11.1415
滁	-11.1415
竭力	-11.1415
隨之	-11.1417
為盜	-11.1418
鍾離	-11.1418
民事	-11.1418
璽書	-11.1419
隻	-11.1419
本府	-11.1422
為左右	-11.1422
去其	-11.1424
嘗謂	-11.1425
處州	-11.1425
備位	-11.1427
年正月	-11.143
徭	-11.1435
益甚	-11.1435
封爵	-11.1435
綾	-11.1438
廊	-11.1438
譎	-11.1439
魏郡	-11.144
遘	-11.144
光禄勲	-11.144
唐紀	-11.1443
二十三年	-11.1445
國子	-11.1446
明皇	-11.1447
寄翻	-11.1447
弦	-11.1448
辭曰	-11.1448
股	-11.1449
為嗣	-11.1451
保吉	-11.1452
此又	-11.1456
元忠	-11.1458
方略	-11.1458
平地	-11.1459
帝亦	-11.1459
聽命	-11.146
率百官	-11.1462
十萬緡	-11.1463
遣内侍	-11.1464
之象	-11.1465
今朝廷	-11.1466
國忠	-11.1467
横山	-11.1467
計議	-11.1468
唐州	-11.1469
之書	-11.147
公弼	-11.147
十分	-11.1471
帳下	-11.1475
天祚	-11.1475
問其	-11.1477
紐	-11.1477
慰勞	-11.1479
饌	-11.1481
夫子	-11.1481
燕主	-11.1483
館伴	-11.1484
淮甸	-11.1484
詳酌	-11.1484
歉	-11.1485
復歸	-11.1486
兵權	-11.1487
皆用	-11.1487
人無	-11.149
未詳	-11.149
曰今日	-11.1491
乃欲	-11.1491
車馬	-11.1496
逆戰	-11.1498
虛實	-11.1501
王存	-11.1501
安邑	-11.1502
稽首	-11.1504
深慮	-11.1504
安豐	-11.1506
唐虞	-11.151
剛中	-11.1511
為重	-11.1513
以舊	-11.1516
功徳	-11.1516
服其	-11.1517
入禁中	-11.1517
錮	-11.1517
正史	-11.1517
者盖	-11.1518
臨洮	-11.1518
招集	-11.152
出外	-11.1521
二百五十	-11.1521
河外	-11.1521
闥	-11.1522
義翻	-11.1524
宣慰	-11.1525
死生	-11.1526
鐵錢	-11.1526
芻糧	-11.1527
承嗣	-11.1531
太上	-11.1531
親民	-11.1532
建平	-11.1533
詐為	-11.1535
皆謂	-11.1535
於天	-11.1536
失所	-11.1537
京東西	-11.1539
京師地震	-11.1541
近嵗	-11.1541
氏曰	-11.1542
堯臣	-11.1546
後軍	-11.1552
當與	-11.1552
擴	-11.1556
将兵	-11.1558
苞	-11.1559
傳位	-11.156
謟	-11.1561
鼎曰	-11.1562
陳氏	-11.1563
嬴	-11.1564
之威	-11.1565
絃	-11.1566
惟演	-11.1566
惶恐	-11.1566
千餘里	-11.157
二十三日	-11.157
譟	-11.157
頓首	-11.1571
太學生	-11.1571
后妃	-11.1572
先悉	-11.1575
諸儒	-11.1576
忠武	-11.1576
後有	-11.1577
朝廷之	-11.1577
為辭	-11.1578
請於	-11.1583
息錢	-11.1584
身為	-11.1588
吁	-11.1588
而使	-11.1594
所領	-11.16
是則	-11.16
分數	-11.16
上謂大臣曰	-11.1601
廨	-11.1601
圍城	-11.1603
歴代	-11.1603
黄門侍郎	-11.1604
潤州	-11.1605
頤浩	-11.1606
重之	-11.1606
拊	-11.1607
昺	-11.1608
大夏	-11.1608
意在	-11.1608
縣唐	-11.1608
勸進	-11.1609
臣竊見	-11.161
并力	-11.1611
所入	-11.1612
▁考異曰	-11.1613
也下	-11.1615
世孫	-11.1615
自號	-11.1616
諸貝勒	-11.1618
五年春正月	-11.1619
稍稍	-11.162
黄龍	-11.1623
帥府	-11.1631
欣然	-11.1631
璪	-11.1632
知永興軍	-11.1633
諭曰	-11.1634
曰朝廷	-11.1634
者斬	-11.1634
然亦	-11.1634
於國	-11.1637
攻陷	-11.1638
為尚書令	-11.164
殤	-11.164
沙陀	-11.1641
康國	-11.1642
其令	-11.1644
宋司馬光撰胡三省音註	-11.1645
剪	-11.1645
郭威	-11.1645
之於是	-11.1645
許將	-11.1648
揚州刺史	-11.1649
徙都	-11.165
廆	-11.165
乾祐	-11.1651
陌	-11.1651
盧龍	-11.1655
平之	-11.1655
意也	-11.1656
零陵	-11.1656
改作	-11.1656
藏之	-11.1657
而不敢	-11.1657
皇孫	-11.166
兵屯	-11.166
平章政事	-11.166
臣竊謂	-11.166
以觀	-11.1661
以利	-11.1662
乾徳	-11.1663
肩	-11.1666
衢州	-11.1668
涿郡	-11.1673
馴	-11.1679
職在	-11.1679
憚之	-11.168
孝經	-11.1681
歸朝	-11.1682
而致	-11.1684
計翻	-11.1684
顔色	-11.1685
貺	-11.1686
勾當公事	-11.1686
民居	-11.1687
雅克特穆爾	-11.1688
謚曰	-11.1688
堆	-11.1688
引用	-11.1689
秦鳯路	-11.1691
漢縣	-11.1694
章楶	-11.1695
謂人曰	-11.1696
被害	-11.1698
洺	-11.17
官兵	-11.1701
群	-11.1705
蠻人	-11.1707
納欵	-11.171
無私	-11.1712
煜	-11.1714
既行	-11.1717
昭王	-11.1719
二等	-11.1719
韓魏	-11.1723
戡	-11.1726
議者謂	-11.1727
怡	-11.173
譁	-11.173
知秦州	-11.173
磬	-11.1732
平王	-11.1733
曾孫	-11.1734
今改後仿此	-11.1738
李定	-11.1741
者矣	-11.1745
轉運司言	-11.1745
珂	-11.1748
責降	-11.1748
以病	-11.1748
之誅	-11.1749
為庶人	-11.175
皆由	-11.175
合用	-11.175
並進	-11.1755
腰	-11.1755
其屬	-11.1757
當死	-11.1759
敬宗	-11.1761
在陛下	-11.1763
五十人	-11.1763
與敵	-11.1763
沂中	-11.1764
方鎮	-11.1764
薩里罕	-11.1766
㨿	-11.1766
安人	-11.1767
讙	-11.1768
離間	-11.1768
簿書	-11.1768
之可也	-11.1769
富平	-11.1771
韻	-11.1771
臺諫官	-11.1772
叔孫	-11.1773
三萬人	-11.1773
慨然	-11.1774
委以	-11.1778
所統	-11.1779
義士	-11.1779
計之	-11.178
徳宗	-11.178
張齊賢	-11.1781
示以	-11.1781
和氣	-11.1782
吳玠	-11.1784
堅壁	-11.1786
累日	-11.1786
南岸	-11.1786
之典	-11.1786
請給	-11.1786
而遁	-11.1786
僧辯	-11.1788
内藏庫	-11.179
宣示	-11.1793
濮王	-11.1793
素服	-11.1795
儀注	-11.1798
賦役	-11.1798
徐州刺史	-11.1799
甚大	-11.18
一舉	-11.18
亦嘗	-11.18
欲為	-11.1802
二十餘	-11.1804
地方	-11.1805
果莊	-11.1806
史館修撰	-11.1806
晁	-11.1806
也詔	-11.1807
勍	-11.1807
天資	-11.1808
擅權	-11.1808
玘	-11.1809
遂致	-11.1809
千匹	-11.181
氊	-11.181
新知	-11.1811
今據	-11.1811
馥	-11.1812
也遂	-11.1814
向者	-11.1815
家傳	-11.1815
擔	-11.1816
緑	-11.1817
瓜	-11.1817
不誅	-11.1817
别置	-11.1819
於後	-11.1819
豈容	-11.1823
承受	-11.1823
其任	-11.1825
引還	-11.1825
攻圍	-11.1827
自以為	-11.1827
李徳裕	-11.1827
受禪	-11.1828
為太傅	-11.183
不救	-11.183
明年正月	-11.1831
三子	-11.1837
䕫州	-11.184
奏舉	-11.1841
部衆	-11.1841
帝自	-11.1844
學問	-11.1844
亦乞	-11.1844
外有	-11.1844
代郡	-11.1845
自隨	-11.1846
為善	-11.1847
天下之事	-11.1848
相結	-11.1848
袁紀	-11.1849
傅堯俞	-11.1849
衛人	-11.185
内殿承制	-11.185
先鋒	-11.185
顛	-11.1851
内出	-11.1851
以威	-11.1854
太重	-11.1855
摶	-11.1857
從臣	-11.1858
孫也	-11.1859
不能無	-11.186
因奏	-11.186
喀	-11.186
賈易	-11.1861
所築	-11.1865
否則	-11.1867
何用	-11.1869
更定	-11.187
支用	-11.1872
襲之	-11.1873
孝子	-11.1875
楊素	-11.1877
檢舉	-11.1877
今雖	-11.1878
聖政	-11.1881
志云	-11.1889
等使	-11.189
之宜	-11.189
濟州	-11.1893
應募	-11.1894
盎	-11.1894
鷄	-11.1897
怏怏	-11.1897
江南東路	-11.1897
易州	-11.1897
親黨	-11.1898
器甲	-11.19
陳康伯	-11.19
凡六	-11.1901
按視	-11.1901
養子	-11.1901
隷	-11.1901
也初	-11.1902
證翻	-11.1909
江州刺史	-11.191
府事	-11.191
太常卿	-11.1911
覆奏	-11.1912
騎竒	-11.1912
獻忠	-11.1913
帥所	-11.1917
樂安	-11.1917
中間	-11.192
義倉	-11.192
建興	-11.1921
今附	-11.1922
見一百	-11.1926
欲求	-11.1927
圜	-11.1928
雒陽	-11.1929
居住	-11.193
儋	-11.193
殿上	-11.1931
門人	-11.1932
太后曰	-11.1933
霑	-11.1935
禇	-11.1936
璨	-11.1938
狼狽	-11.1938
頑	-11.1938
有道	-11.1938
始於	-11.1939
滌	-11.1939
霖雨	-11.1939
大率	-11.194
莫大於	-11.1941
挑	-11.1941
民户	-11.1942
大都	-11.1943
家事	-11.1945
朝㑹	-11.1945
不戰而	-11.1946
從其	-11.1946
淮隂	-11.1947
其族	-11.1947
重誨	-11.1948
盡言	-11.195
願得	-11.1951
明主	-11.1953
賜爵	-11.1956
與此	-11.1958
彈奏	-11.1959
立皇后	-11.1959
依例	-11.196
光曰	-11.1961
重者	-11.1964
死節	-11.1967
甚急	-11.1968
在朝廷	-11.1969
畫一	-11.1969
加之	-11.197
繫之	-11.197
當自	-11.1971
或者	-11.1973
𣙜貨務	-11.1974
時年	-11.1975
封疆	-11.1976
衆論	-11.1977
都水監	-11.1978
夭	-11.1978
不獨	-11.1979
轉一官	-11.1979
朝命	-11.198
必勝	-11.198
婺州	-11.1982
予之	-11.1982
惕	-11.1984
勞之	-11.199
髙郵	-11.199
今并書	-11.1993
依此	-11.1996
者令	-11.1997
權貴	-11.1997
雖未	-11.1999
吕后	-11.1999
侵掠	-11.2001
奪之	-11.2001
兵器	-11.2002
疫	-11.2002
監押	-11.2005
乏食	-11.2006
略曰	-11.2007
遙	-11.2007
有謀	-11.2009
死事	-11.2009
為賊	-11.201
從政	-11.201
曰賊	-11.2012
九成	-11.2018
又置	-11.2018
冨	-11.2018
翠	-11.2018
向敏中	-11.2019
名器	-11.202
樵	-11.2021
殫	-11.2023
司𨽻校尉	-11.2023
擠	-11.2024
伽	-11.2025
衛大將軍	-11.2025
北庭	-11.2026
彞	-11.2026
裹	-11.2027
言事者	-11.2028
正言	-11.203
歎息	-11.203
元年正月	-11.2033
兼中書令	-11.2034
地形	-11.2034
以養	-11.2037
唐置	-11.2037
進屯	-11.2039
左右皆	-11.2041
儒臣	-11.2042
名臣	-11.2042
廷美	-11.2042
宰執奏	-11.2043
臣觀	-11.2046
入闗	-11.2048
三字	-11.2051
元嘉	-11.2053
以全	-11.2054
此何	-11.2057
開寳	-11.2057
也時	-11.2058
追及	-11.206
選用	-11.2063
先以	-11.2065
霄	-11.2066
烽	-11.2067
老子	-11.2068
察哈爾	-11.2069
鄧綰	-11.207
僉書樞宻院事	-11.2071
漲	-11.2072
縣在	-11.2075
四品	-11.2076
已令	-11.2076
閣臣	-11.2076
類翻	-11.2077
事聞	-11.2083
直抵	-11.2084
梓州	-11.2086
猶以	-11.2088
巢穴	-11.2094
使副	-11.2095
不習	-11.2096
李晟	-11.2097
通和	-11.21
乎對曰	-11.2101
博囉	-11.2102
以新紀	-11.2103
神䇿	-11.2104
殊不	-11.2105
烝	-11.2108
不祥	-11.2108
兵民	-11.2108
懾	-11.2109
阿哈瑪特	-11.211
鼠	-11.211
上官	-11.211
旦翻	-11.211
諸陵	-11.2111
國勢	-11.2113
廣武	-11.2113
將何以	-11.2115
庶政	-11.2118
二十二年	-11.212
先是上	-11.212
難於	-11.2121
年四月	-11.2123
此輩	-11.2124
武定	-11.2124
被皮	-11.2125
臣愚以為	-11.2125
千金	-11.2126
困於	-11.2126
謀之	-11.2129
他事	-11.213
逺矣	-11.2132
迎合	-11.2135
大饑	-11.2137
鄴都	-11.2138
實録云	-11.214
内官	-11.214
三十七	-11.2142
氏崩	-11.2142
斬其	-11.2143
復取	-11.2143
權知開封府	-11.2143
毁之	-11.2144
皎	-11.2144
特㫖	-11.2144
不備	-11.2145
二十八年	-11.2145
輔國	-11.2146
農民	-11.2146
為己	-11.2148
曰子	-11.2149
槖	-11.2151
上表請	-11.2151
北齊	-11.2151
殿門	-11.2152
若非	-11.2153
删	-11.2153
擊走之	-11.2153
誚	-11.2154
為右丞相	-11.2155
使至	-11.2156
賊帥	-11.2157
有警	-11.2158
謡	-11.2159
泰始	-11.2159
捍禦	-11.216
日下	-11.2164
既以	-11.2164
奏云	-11.2165
副元帥	-11.2166
三十二	-11.2169
既平	-11.2169
吕氏	-11.217
牛馬	-11.2173
獻之	-11.2178
次子	-11.2178
所管	-11.218
劉向	-11.2182
涇陽	-11.2182
嘉勒斯賚	-11.2184
子女	-11.2185
持重	-11.2186
都御史	-11.2186
㑹議	-11.2186
本漢	-11.2188
廣徳	-11.2188
已來	-11.2189
未發	-11.2192
書奏	-11.2192
考課	-11.2194
而不言	-11.2195
議定	-11.2195
士論	-11.2195
豳	-11.2197
傉檀	-11.2198
隄防	-11.2198
親近	-11.2199
糜	-11.22
甚盛	-11.22
也師古曰	-11.22
季翻	-11.2201
頡利	-11.2203
浮橋	-11.2204
七十里	-11.2205
小兒	-11.2205
御崇政殿	-11.2206
切齒	-11.2208
惑衆	-11.2209
山後	-11.221
前書	-11.2211
宫殿	-11.2212
繼隆	-11.2213
主人	-11.2214
之罪也	-11.2214
為法	-11.2215
慰諭	-11.2217
躬親	-11.2218
後苑	-11.2218
不虞	-11.2219
召試	-11.2219
舊史	-11.222
稱善	-11.2221
修城	-11.2224
五等	-11.2225
天威	-11.2225
老病	-11.2225
不察	-11.2226
邳	-11.2227
大位	-11.2227
帝聞	-11.2228
分司	-11.2229
開陳	-11.2231
外議	-11.2231
遂殺	-11.2231
祔廟	-11.2232
經理	-11.2232
州之地	-11.2233
右武大夫	-11.2234
集英殿修撰	-11.2235
其姦	-11.2235
王世充	-11.2236
哥	-11.2237
賜姓	-11.2238
相息亮翻	-11.2239
曏	-11.2239
毓	-11.2239
規模	-11.2239
絞	-11.2241
必得	-11.2242
後又	-11.2243
兵甲	-11.2243
醮	-11.2243
四字	-11.2244
寢疾	-11.2244
横行	-11.2244
拔之	-11.2244
翕然	-11.2245
左正言	-11.2245
次之	-11.2246
暴露	-11.2246
開封尹	-11.2247
諸侯之	-11.2249
常平倉	-11.2249
偁	-11.225
陜西河東	-11.225
紹述	-11.225
問其故	-11.2252
情理	-11.2253
歇	-11.2253
弑君	-11.2255
以禦	-11.2255
平元年	-11.2257
爭之	-11.226
檢察	-11.2261
棗	-11.2261
信州	-11.2262
復出	-11.2268
洛水	-11.2269
棄城	-11.227
兵圍	-11.2274
齊師	-11.2276
怨之	-11.2276
大鴻臚	-11.2278
也况	-11.2279
包拯	-11.2279
則可以	-11.2279
王道	-11.2279
尺寸	-11.2279
以勸	-11.2281
濡	-11.2282
感悟	-11.2287
雨雪	-11.2287
永和	-11.2289
廢帝	-11.2291
也音	-11.2291
上御	-11.2294
大雪	-11.2294
岷	-11.2294
今因	-11.23
五日一	-11.2302
後改	-11.2304
協力	-11.2311
寧州	-11.2311
照翻	-11.2313
蜀郡	-11.2314
左氏	-11.2315
愛惜	-11.2315
學生	-11.2317
可任	-11.2317
諸城	-11.2318
爵賞	-11.2318
核	-11.232
之田	-11.232
為吏部尚書	-11.2322
所惡	-11.2322
甚明	-11.2325
令狐	-11.2327
嵩之	-11.2329
不孝	-11.233
幡	-11.233
鎮定	-11.2334
城破	-11.2335
疾速	-11.2336
之甚	-11.2336
不就	-11.2336
威武	-11.2336
告身	-11.2337
專以	-11.2337
一心	-11.2338
鄉村	-11.234
嘉問	-11.234
朕當	-11.2342
二國	-11.2343
紫宸殿	-11.2345
左諫議大夫	-11.2345
即與	-11.2346
稱王	-11.2346
聖訓	-11.2347
多士	-11.2349
百日	-11.2351
良久	-11.2352
以為非	-11.2353
右軍	-11.2354
私第	-11.2354
先君	-11.2355
夫婦	-11.2356
初上	-11.2356
日中	-11.236
福王	-11.2361
興兵	-11.2361
但恐	-11.2362
並不	-11.2363
孛	-11.2363
所及	-11.2363
英雄	-11.2364
􁨑	-11.2366
兖州刺史	-11.2367
太過	-11.2369
舛	-11.2371
安知	-11.2372
王安	-11.2372
軍節度	-11.2372
鹵	-11.2372
貂	-11.2373
法制	-11.2377
虗	-11.2378
督責	-11.2381
駟	-11.2382
茲	-11.2382
唐書	-11.2382
七十餘	-11.2386
龎籍	-11.2386
三十五	-11.2387
宥州	-11.239
兵討之	-11.2391
以金	-11.2391
于上	-11.2393
計也	-11.2395
馮道	-11.2397
民無	-11.2398
甘露	-11.2398
配天	-11.2398
屬國	-11.2399
役人	-11.2401
斜	-11.2401
行義	-11.2401
不得已而	-11.2402
皆如	-11.2402
所造	-11.2403
萬二千	-11.2403
新本	-11.2404
璹	-11.2409
法也	-11.2412
騷擾	-11.2412
丁度	-11.2414
破其	-11.2414
浹	-11.2415
譬	-11.2416
籍其家	-11.2416
崈	-11.2417
公亮	-11.2418
然臣	-11.2418
不限	-11.2418
故云	-11.2419
穆公	-11.242
人並	-11.242
井陘	-11.2422
邈川	-11.2423
事上曰	-11.2424
上件	-11.2425
先遣	-11.2425
詔遣	-11.2425
趙子	-11.2426
難之	-11.2427
臨川	-11.2428
河北路	-11.2429
杜衍	-11.2431
制書	-11.2431
固非	-11.2432
南向	-11.2433
神宗皇帝	-11.2433
華隂	-11.2434
三四	-11.2436
三尺	-11.2439
安有	-11.2439
失信	-11.2439
吾民	-11.2439
萬八千	-11.244
二人皆	-11.2442
遣將軍	-11.2443
請罪	-11.2443
此所以	-11.2443
風聞	-11.2444
即乞	-11.2446
其時	-11.245
聖躬	-11.245
内侍省	-11.245
主管台州崇道觀	-11.2452
樞府	-11.2454
我兵	-11.2455
信任	-11.2455
路分	-11.2456
聖恩	-11.2456
南史	-11.2457
沈該	-11.2458
交割	-11.2461
譲	-11.2462
阪	-11.2462
所收	-11.2463
上許之	-11.2463
被皮義翻	-11.2464
欲殺之	-11.2464
人力	-11.2468
淳化	-11.2468
豐州	-11.2471
興復	-11.2471
謀議	-11.2472
臣以	-11.2473
呉越	-11.2474
國也	-11.2476
切姓也	-11.2476
勿令	-11.2478
以為常	-11.2479
擊破	-11.248
陵縣	-11.248
始以	-11.2486
附於	-11.2488
宗愈	-11.249
天人	-11.249
大畧	-11.2493
多有	-11.2493
彌逺	-11.2493
失望	-11.2494
恩禮	-11.2495
據險	-11.2496
夀皇	-11.2498
重榮	-11.25
九百	-11.25
不變	-11.2501
馮拯	-11.2503
轅	-11.2504
臣伏	-11.2504
司天監	-11.2505
不覺	-11.2505
幟	-11.2506
乗馬	-11.2508
沸	-11.2511
遂定	-11.2512
無虞	-11.2512
置局	-11.2513
年老	-11.2513
得無	-11.2513
今屬	-11.2518
朝官	-11.2518
未為	-11.2518
天理	-11.252
六部	-11.2521
不次	-11.2521
譬如	-11.2522
至徳	-11.2523
郴	-11.2523
凖備	-11.2524
為都督	-11.2525
極論	-11.2525
后土	-11.2525
慮其	-11.2526
定陶	-11.2526
傕	-11.2531
郴州	-11.2532
逐處	-11.2534
奏到	-11.2535
之翻	-11.254
請對	-11.254
幕府	-11.2541
贓吏	-11.2542
張良	-11.2542
官一員	-11.2544
未經	-11.2546
陳堯叟	-11.2546
勉之	-11.2547
㤙	-11.2548
坰	-11.2548
炭	-11.2548
審官院	-11.2548
帶御器械	-11.2549
登極	-11.2549
不使	-11.2549
秘書省	-11.255
上郡	-11.255
殿侍	-11.2551
澶淵	-11.2551
既去	-11.2552
沽	-11.2553
沿邉	-11.2553
刦	-11.2555
禮儀	-11.2557
之端	-11.2557
遇之	-11.2557
有名	-11.2558
蘇頌	-11.2558
臨海	-11.2559
皆當	-11.2561
請復	-11.2562
上即位	-11.2563
以天下	-11.2564
各切	-11.2567
其辭	-11.2567
八十里	-11.2568
西羌	-11.2569
其官	-11.257
所撰	-11.2573
萬六千	-11.2575
詩書	-11.2576
進至	-11.2579
震恐	-11.2581
勇士	-11.2582
王中正	-11.2584
户部言	-11.2584
王敦	-11.2585
將行	-11.2585
不可行	-11.2587
推賞	-11.2588
亦不敢	-11.2592
遹	-11.2593
服之	-11.2593
𠡠	-11.2593
使金	-11.2594
奉議郎	-11.2594
曹利用	-11.2596
妣	-11.2596
濱	-11.2596
卒子恤翻	-11.2598
之性	-11.2598
之急	-11.2599
權罷	-11.2601
騶	-11.2602
孟庾	-11.2602
待其	-11.2602
達實	-11.2603
株	-11.2604
屯駐	-11.2604
得其實	-11.2606
通商	-11.2606
西蕃	-11.2607
贈官	-11.2607
故稱	-11.2608
動揺	-11.2611
修徳	-11.2613
勣	-11.2616
魏公	-11.2617
之誠	-11.2617
儒者	-11.2618
為憂	-11.2618
自便	-11.2622
崇寧	-11.2623
視其	-11.2624
成法	-11.2624
每有	-11.2625
之請	-11.2625
所劾	-11.2626
寐	-11.2631
文德	-11.2632
竹書	-11.2632
前殿	-11.2634
鄩	-11.2635
塤	-11.2636
牧馬	-11.2637
聖德	-11.2637
二十五年	-11.2637
徽猷閣直學士	-11.2637
江寧	-11.2638
就國	-11.2638
後唐	-11.2641
明道	-11.2642
撻	-11.2643
殽	-11.2643
劣	-11.2644
而亡	-11.2644
弑其君	-11.2645
大帥	-11.2645
二萬人	-11.2646
沙門	-11.2648
然自	-11.265
本處	-11.2652
亦皆	-11.2655
之盟	-11.2659
元璋	-11.266
辭免	-11.266
三十餘	-11.2661
還京	-11.2663
一百六十	-11.2664
初除	-11.2664
恨之	-11.2668
不得入	-11.2669
數多	-11.267
團練使	-11.267
千五百	-11.2674
正旦	-11.2675
一行	-11.2676
統之	-11.2677
軍主	-11.2677
省事	-11.2679
帝曰朕	-11.2679
此議	-11.2679
左將軍	-11.2681
初命	-11.2682
洮州	-11.2683
次日	-11.2683
聿	-11.2684
留正	-11.2685
孝忠	-11.2686
擯	-11.2686
脉	-11.2688
廻	-11.2689
以便	-11.2689
未便	-11.2689
輓	-11.269
禁錮	-11.269
而易	-11.2692
將有	-11.2692
還自	-11.2692
史彌逺	-11.2693
上尊號	-11.2693
及第	-11.2693
聽其	-11.2698
何哉	-11.2699
求和	-11.2699
不難	-11.2701
講讀	-11.2704
見于	-11.2704
安得不	-11.2706
夏口	-11.2707
安静	-11.2711
之戰	-11.2711
其力	-11.2711
為樞宻使	-11.2713
入侍	-11.2715
欲盡	-11.2718
掩擊	-11.2718
海上	-11.2719
考校	-11.2721
諌曰	-11.2721
史館	-11.2722
頵	-11.2724
歐	-11.2724
不豫	-11.2732
姦謀	-11.2733
窺伺	-11.2733
同議	-11.2734
然其	-11.2735
至行在	-11.2736
礟	-11.2738
㸃集	-11.2739
誣罔	-11.2739
曰國家	-11.274
王淵	-11.274
璽綬	-11.2741
今當	-11.2741
配享	-11.2741
喜怒	-11.2743
奉命	-11.2743
帝召	-11.2744
得實	-11.2745
至洛陽	-11.2746
李彦	-11.2746
不奉詔	-11.2747
本國	-11.275
初即位	-11.275
為二	-11.2752
功業	-11.2752
甚善	-11.2752
繼恩	-11.2756
皆屬	-11.2759
文明	-11.2764
卒贈	-11.277
抵罪	-11.2771
通直郎	-11.2771
數十年	-11.2772
朝服	-11.2773
五代史	-11.2773
偓	-11.2776
必不能	-11.2776
任用	-11.2777
傳檄	-11.2777
兵入	-11.2777
至是以	-11.2778
詔獄	-11.278
秘閣修撰	-11.2781
西突厥	-11.2782
戚里	-11.2783
始用	-11.2788
杲卿	-11.2788
等請	-11.2789
六曰	-11.2792
書生	-11.2794
止有	-11.2794
别立	-11.2795
宫禁	-11.2795
難乃	-11.2797
凍	-11.2799
邊備	-11.28
四十餘	-11.28
始祖	-11.2802
興國	-11.2802
從諫	-11.2802
私罪	-11.2804
大内	-11.2805
仁傑	-11.2807
宗正寺	-11.281
事故	-11.2811
季孫	-11.2813
有司奏	-11.2815
有聲	-11.2815
宣宗	-11.2816
及第出身	-11.2818
勰	-11.2818
作樂	-11.282
敗事	-11.2821
訢	-11.2823
不能守	-11.2823
國子祭酒	-11.2824
矧	-11.2825
態	-11.2826
二千餘人	-11.2827
此二	-11.2827
恩例	-11.2828
八萬	-11.2828
崇徳	-11.2828
人謂	-11.2829
匄	-11.2829
皆坐	-11.2829
汝礪	-11.283
吕誨	-11.283
舉進士	-11.2832
無所不至	-11.2834
西伯	-11.2835
秦王堅	-11.2836
後數日	-11.2839
軍府	-11.2839
與俱	-11.2842
河東節度使	-11.2843
追奪	-11.2849
君命	-11.2851
可畏	-11.2856
母子	-11.2859
有是	-11.286
詔命	-11.2861
宗周	-11.2865
等謀	-11.2868
明史	-11.2868
為非	-11.287
藤	-11.287
摭	-11.2871
粤	-11.2872
呵	-11.2872
灰	-11.2874
先聖	-11.2875
洧	-11.2875
紬絹	-11.2875
穆呼哩	-11.2875
坎	-11.2876
椎	-11.2876
於齊	-11.2877
赤眉	-11.2877
慶之	-11.2878
秦檜曰	-11.2878
二百四十	-11.2879
而敗	-11.2879
槊	-11.2879
載之	-11.288
若無	-11.2881
推之	-11.2882
鈐轄司	-11.2883
聽政	-11.2883
契丹使	-11.2883
等四人	-11.2884
相傳	-11.2885
月末	-11.2885
上將	-11.2885
多事	-11.2889
國有	-11.289
入謝	-11.2891
河北河東	-11.2892
中書言	-11.2894
陽武	-11.2896
尚多	-11.2896
萬四千	-11.2896
隋開皇	-11.2897
閬州	-11.29
者不得	-11.2901
堯佐	-11.2901
沅州	-11.2902
禆將	-11.2902
考察	-11.2903
數倍	-11.2904
參議官	-11.2904
曰凡	-11.2904
平江府	-11.2904
重修	-11.2904
二十餘年	-11.2907
崇文	-11.2908
於法	-11.2909
馬燧	-11.291
言昨	-11.2916
昊	-11.2916
屯田員外郎	-11.2917
郞	-11.2917
自任	-11.2918
組	-11.2919
為内應	-11.2922
君子之	-11.2924
奏報	-11.2924
不親	-11.2925
細民	-11.2925
旱蝗	-11.2926
内則	-11.2928
解圍	-11.2928
行也	-11.2928
漢髙祖	-11.2929
潘美	-11.293
職事官	-11.293
特以	-11.293
司言	-11.2931
太子太傅	-11.2931
天福	-11.2933
行幸	-11.2936
出納	-11.2936
食盡	-11.2937
追還	-11.2937
者如	-11.2937
亦翻	-11.2938
中書監	-11.2939
二十餘萬	-11.2939
一百八十	-11.2942
而為之	-11.2943
鄯州	-11.2944
中行	-11.2945
第六	-11.2946
為功	-11.2948
勞苦	-11.2949
提㸃刑獄司	-11.295
遂使	-11.295
成周	-11.2951
二十六年	-11.2951
北有	-11.2952
經畫	-11.2953
糧食	-11.2954
出迎	-11.2954
復來	-11.2955
對曰陛下	-11.2957
曹公	-11.2959
軸	-11.2961
長公主	-11.2962
愽	-11.2965
趙抃	-11.2966
左軍	-11.2967
郡國志	-11.2967
箠	-11.2968
難乃旦翻	-11.2969
鄉侯	-11.2969
餽	-11.2969
闗東	-11.297
卿言	-11.2971
趍	-11.2972
坡	-11.2973
煩擾	-11.2973
經界	-11.2973
請立	-11.2973
皆稱	-11.2973
一字	-11.2975
縣今	-11.2979
乃請	-11.2979
晉書	-11.298
與諸	-11.2981
任滿	-11.2981
元康	-11.2981
何憂	-11.2982
被甲	-11.2985
被圍	-11.2985
鄯	-11.2987
杖之	-11.2989
誅戮	-11.2989
節儉	-11.2989
蔚州	-11.299
詳考	-11.299
之喪	-11.2994
于晉	-11.2995
拙	-11.2997
地理	-11.2997
深思	-11.2998
始興	-11.2998
何異	-11.2999
伴	-11.2999
檻	-11.3001
四十萬	-11.3002
無足	-11.3002
或勸	-11.3003
提舉臨安府洞霄宫	-11.3005
秘書少監	-11.3005
大節	-11.3007
於朝廷	-11.3008
宜速	-11.3009
糧道	-11.3009
人以為	-11.301
栅	-11.301
僚佐	-11.3011
計事	-11.3011
妬	-11.3011
摠	-11.3013
嗣昌	-11.3015
迴	-11.3015
稽古	-11.3015
竈	-11.3017
遂自	-11.3021
可信	-11.3021
者十	-11.3021
世襲	-11.3021
供奉	-11.3023
張燾	-11.3024
不敢進	-11.3024
外則	-11.3027
本作	-11.3028
流亡	-11.3029
監官	-11.3031
遷一官	-11.3031
租税	-11.3032
隋置	-11.3034
三也	-11.3038
大司徒	-11.3039
累遷	-11.304
嵗幣	-11.304
故切	-11.3043
賢人	-11.3043
其不可	-11.3043
私恩	-11.3044
郃	-11.3044
之舉	-11.3045
白水	-11.3046
州别駕	-11.3048
一例	-11.3048
神考	-11.3048
縣也	-11.305
異於	-11.305
廐	-11.305
詧	-11.3051
幸而	-11.3052
流入	-11.3054
不經	-11.3054
直書	-11.3055
宜早	-11.3055
帝為	-11.3057
苦之	-11.3057
中立	-11.3057
臺省	-11.3058
刑部郎中	-11.3058
瘴	-11.3059
匈	-11.306
不拘	-11.3061
剌	-11.3062
浮梁	-11.3062
綦	-11.3063
敗補邁翻	-11.3063
繼至	-11.3064
成就	-11.3065
亦必	-11.3066
貧者	-11.3069
裁定	-11.307
餘悉	-11.307
手足	-11.3073
等復	-11.3074
胥吏	-11.3074
可憂	-11.3076
市井	-11.3082
移檄	-11.3083
縣今屬	-11.3083
既立	-11.3083
縱之	-11.3084
孫升	-11.3085
尚存	-11.3087
晏然	-11.3088
前一日	-11.3088
李繼遷	-11.309
彦章	-11.309
趙鼎曰	-11.309
廡	-11.3092
字文	-11.3095
韶州	-11.3096
善人	-11.3096
白帝	-11.3098
如是則	-11.3104
蒐	-11.3105
廷議	-11.3105
年五月	-11.3107
砲	-11.3107
盪	-11.3108
歴陽	-11.3109
南城	-11.3109
賢妃	-11.3109
同共	-11.3111
擣	-11.3112
兵三千	-11.3112
頰	-11.3113
不能盡	-11.3113
五官	-11.3113
上馬	-11.3114
定奪	-11.3114
元元年	-11.3115
章䟽	-11.3115
將張	-11.3115
有異志	-11.3117
安敢	-11.3118
無幾	-11.3119
西州	-11.312
不軌	-11.3121
禮之	-11.3121
知樞宻院	-11.3122
侵犯	-11.3124
戮力	-11.3125
驚曰	-11.3126
尊卑	-11.3126
燈	-11.3127
奏裁	-11.3127
汜水	-11.3128
親祠	-11.3128
前來	-11.3128
檢詳	-11.3131
去冬	-11.3132
亂也	-11.3133
切責	-11.3133
同謀	-11.3134
而動	-11.3135
嘉興	-11.3136
駝	-11.3136
惟是	-11.3137
五經	-11.3137
小吏	-11.3138
清水	-11.3139
場務	-11.3139
凡七	-11.3141
善者	-11.3141
霸先	-11.3142
國計	-11.3142
半月	-11.3147
窮治	-11.3147
以制	-11.3148
器用	-11.315
供備庫副使	-11.3151
叨	-11.3153
酒食	-11.3155
阨	-11.3155
進圍	-11.3156
臥	-11.3156
聖王	-11.3157
亦欲	-11.3159
西安	-11.316
其舊	-11.316
仇池	-11.3161
軍國	-11.3162
為朕	-11.3163
吉甫	-11.3164
為難	-11.3165
地利	-11.3165
礮	-11.3167
復與	-11.3169
復令	-11.3169
四分	-11.317
相承	-11.317
夾攻	-11.3171
勞費	-11.3174
告諭	-11.3174
小子	-11.3176
養馬	-11.3177
乎且	-11.3177
秦人	-11.3178
命令	-11.3178
至有	-11.3179
益州刺史	-11.3179
引咎	-11.318
已前	-11.3184
閏二月	-11.3184
息民	-11.3185
沼	-11.3185
在彼	-11.3186
都知	-11.3186
說文	-11.3189
帥兵	-11.3189
吏卒	-11.3194
宣徽南院使	-11.3197
萃	-11.3199
北去	-11.3199
丐	-11.3202
志曰	-11.3203
先悉薦翻	-11.3204
必至	-11.3205
未暇	-11.3205
瀘	-11.3206
害之	-11.3206
祏	-11.3206
乃至	-11.3207
於上前	-11.3208
以絶	-11.3209
複姓	-11.321
文曰	-11.321
武俊	-11.3212
新野	-11.3212
土人	-11.3213
張商英	-11.3215
縣名	-11.3215
國寳	-11.3215
周書	-11.3216
遂成	-11.3217
讞	-11.3218
鼓譟	-11.3221
朔詔	-11.3221
於西	-11.3223
職方	-11.3226
無度	-11.3227
轉輸	-11.3228
以賜	-11.323
攻取	-11.3234
一出	-11.3236
阿里	-11.3236
聽之	-11.3236
殁	-11.3237
知誥	-11.3238
諸州軍	-11.3239
制之	-11.3244
亦多	-11.3245
西上閤門使	-11.3247
祕書省	-11.3247
駙馬	-11.3249
兵部員外郎	-11.325
賢良	-11.325
穆宗	-11.3251
兵五千	-11.3251
知祥	-11.3252
内閣	-11.3252
鎰	-11.3253
髙歡	-11.3253
即行	-11.3254
天下之大	-11.3256
擁衆	-11.3257
裁損	-11.326
莫有	-11.326
遺表	-11.326
豕	-11.3265
公使	-11.3265
豉翻	-11.3265
襲封	-11.3265
沂州	-11.3265
權御史中丞	-11.3269
帝親	-11.3269
二年正月	-11.3271
賊黨	-11.3272
賜諡	-11.3274
世輔	-11.3274
於地	-11.3275
南單于	-11.3278
多為	-11.3278
而北	-11.328
無慮	-11.3281
改易	-11.3282
之誤	-11.3283
封侯	-11.3289
不廢	-11.3289
之竒	-11.3289
發遣	-11.329
有疑	-11.3291
威權	-11.3292
不俟	-11.3293
叔文	-11.3294
長官	-11.3295
于天	-11.3296
貎	-11.3296
聖主	-11.3296
尋詔	-11.3298
審刑院	-11.3299
為南	-11.33
於魏	-11.3301
鵲	-11.3302
坐視	-11.3303
胷	-11.3305
而求	-11.3306
彦若	-11.3308
齊州	-11.3308
執法	-11.3311
以法	-11.3312
六切	-11.3313
帥司	-11.3313
使我	-11.3314
牧守	-11.3315
李泌	-11.3316
擊賊	-11.3316
每年	-11.3316
大雅	-11.3318
不敢不	-11.3318
正其罪	-11.3319
神御	-11.332
及即位	-11.3324
月給	-11.3325
太清	-11.3327
流俗	-11.3328
大定	-11.3329
銜之	-11.333
平居	-11.333
誤矣	-11.333
又於	-11.3331
十倍	-11.3332
得其人	-11.3335
延儒	-11.3335
連坐	-11.3336
初立	-11.3337
因縁	-11.3338
留身	-11.3339
知開封府	-11.3341
乃敢	-11.3342
六經	-11.3343
入境	-11.3344
軍亂	-11.3345
燎	-11.3345
既退	-11.3346
不務	-11.3347
跋扈	-11.3348
袒	-11.3349
淚	-11.335
轡	-11.335
勔	-11.335
觴	-11.335
洶洶	-11.3351
丸	-11.3352
正典刑	-11.3353
朝謁	-11.3354
所進	-11.3355
潞王	-11.3356
乘間	-11.3356
立國	-11.3359
遇賊	-11.3363
軍器監	-11.3363
贈太師	-11.3365
三十三	-11.3367
官府	-11.3368
先帝之	-11.3368
奏陳	-11.337
生員	-11.3372
勸農	-11.3373
諭㫖	-11.3376
他書	-11.3376
三省言	-11.3379
順昌	-11.3382
乎此	-11.3382
死者甚衆	-11.3383
知臨安府	-11.3383
上將軍	-11.3385
降官	-11.3387
寒心	-11.3388
三館	-11.339
來告	-11.339
詔天下	-11.3393
常有	-11.3394
是冬	-11.3394
直徽猷閣	-11.3394
敬瑭	-11.3396
蚤	-11.3396
卬	-11.3396
入相	-11.3396
皝	-11.3397
冏	-11.3397
郗	-11.3398
它日	-11.3398
厠	-11.3399
屢敗	-11.3399
漢官	-11.34
炬	-11.34
所害	-11.34
有違	-11.3402
召公	-11.3404
公田	-11.3404
臨淄	-11.3404
皂	-11.3404
事機	-11.3405
竑	-11.3405
遣使入貢	-11.3406
武侯	-11.3406
多遜	-11.3408
於我	-11.3409
皆從	-11.341
昭逺	-11.3414
商議	-11.3414
大将	-11.3415
御殿	-11.3415
執奏	-11.3415
課利	-11.3416
城陽	-11.3416
諸道兵	-11.3418
矯詔	-11.3419
温公	-11.3419
兵馬都監	-11.342
曰某	-11.3421
遂行	-11.3422
繼嗣	-11.3423
事見通鑑	-11.3425
非常之	-11.3425
正直	-11.3426
以授	-11.3427
謂侍臣曰	-11.3427
存留	-11.3428
在長安	-11.3431
不懌	-11.3432
舊有	-11.3433
始知	-11.3434
九齡	-11.3434
應詔	-11.3436
遼人	-11.3438
皇帝陛下	-11.3438
廬陵	-11.344
故有	-11.3441
朕以	-11.3441
國子司業	-11.3442
評曰	-11.3442
甘州	-11.3444
愉	-11.3445
降戸江翻	-11.3447
羈	-11.3447
謂宰相曰	-11.3447
涸	-11.3449
躋	-11.3449
太平州	-11.3449
神靈	-11.345
殃	-11.3452
引疾	-11.3454
窟	-11.3455
引軍	-11.3455
君長	-11.3455
以其地	-11.3455
魏置	-11.3456
養兵	-11.3457
十三人	-11.3458
豈肯	-11.3459
與李	-11.346
尚書右僕射	-11.346
牘	-11.3462
建業	-11.3462
東萊	-11.3463
是後	-11.3463
二十四年	-11.3464
聲勢	-11.3465
在後	-11.3466
訛言	-11.347
如前	-11.3472
卿大夫	-11.3472
寳訓	-11.3475
撫軍	-11.3477
而不可	-11.3478
青苖	-11.3479
三嵗	-11.3479
供給	-11.3479
方許	-11.348
永年	-11.348
紀云	-11.3482
大半	-11.3484
必致	-11.3485
之乎	-11.3485
南漢	-11.3485
者無	-11.3486
堯舜之	-11.3488
省察	-11.3489
棐	-11.3492
之分	-11.3493
啜	-11.3493
直學士	-11.3494
所議	-11.3494
樓櫓	-11.3494
猜忌	-11.3497
未立	-11.3498
左朝奉郎	-11.3499
鑰	-11.3499
亦恐	-11.3499
江南西路	-11.3499
老成	-11.35
朱子	-11.35
曙	-11.3502
今並	-11.3503
可復	-11.3504
失實	-11.3504
皇城司	-11.3504
滑臺	-11.3507
到任	-11.3507
典刑	-11.351
况今	-11.3511
隴州	-11.3512
百匹	-11.3512
此詔	-11.3515
議郎	-11.3517
諸蠻	-11.3518
魏徵	-11.3518
能為	-11.3519
防禦	-11.3519
杜充	-11.352
合於	-11.3523
安陽	-11.3523
其禮	-11.3523
爲之	-11.3524
奈	-11.3524
囚之	-11.3525
以降	-11.3525
十斤	-11.3525
上聞之	-11.3526
綏州	-11.3526
為右僕射	-11.3527
以此為	-11.3527
之序	-11.3528
之基	-11.353
榻	-11.3531
軍節度副使	-11.3532
行府	-11.3532
去官	-11.3537
乃奏	-11.3537
敷文閣待制	-11.3539
山寨	-11.354
汪藻	-11.3541
安撫大使	-11.3542
一百七十	-11.3542
董戩	-11.3542
轂	-11.3543
丁夫	-11.3544
開平	-11.3545
戒嚴	-11.3545
濰	-11.3546
三郡	-11.3547
様	-11.3548
噬	-11.3548
邵州	-11.3548
訣	-11.3549
班行	-11.3549
盾	-11.3549
先入	-11.3553
囉	-11.3553
慚	-11.3554
淮浙	-11.3554
顓頊	-11.3554
未還	-11.3555
于闐	-11.3555
除官	-11.3558
資糧	-11.3559
士遜	-11.356
百千	-11.3565
義軍	-11.3569
胡寅	-11.3571
臣僚上言	-11.3571
如晉	-11.3572
凖此	-11.3573
周世宗	-11.3575
薛向	-11.3575
病死	-11.3575
臣伏見	-11.3576
于民	-11.3576
奄至	-11.3578
皆潰	-11.358
當議	-11.3581
者不過	-11.3583
名目	-11.3583
名士	-11.3584
郡縣志	-11.3585
親政	-11.3585
相顧	-11.3586
秦之	-11.3587
旭	-11.3588
審察	-11.3588
輔弼	-11.3588
管内	-11.3588
先登	-11.3589
震動	-11.359
四十年	-11.3591
無主	-11.3592
憎	-11.3593
褚	-11.3593
問罪	-11.3593
酣	-11.3595
着	-11.3596
遂令	-11.3596
歸罪	-11.3596
療	-11.3597
充國	-11.3597
詔下	-11.3598
磐	-11.3598
也此	-11.3598
復行	-11.3599
篡	-11.3599
何㮚	-11.3601
鯀	-11.3602
欲因	-11.3603
徭役	-11.3604
繼勲	-11.3605
太原府	-11.3608
上語	-11.3609
治事	-11.361
不可勝	-11.3611
縣為	-11.3611
奉先	-11.3615
而用	-11.3615
招誘	-11.3617
同出身	-11.3619
主張	-11.3619
請受	-11.362
牙將	-11.362
朗州	-11.3621
遺書	-11.3623
雖然	-11.3623
甲辰詔	-11.3623
法當	-11.3625
尚書僕射	-11.3627
上然之	-11.3628
分𨽻	-11.363
丁酉詔	-11.3631
恒州	-11.3631
房州	-11.3634
師古曰言	-11.3635
思慮	-11.3636
成徳	-11.3636
朝奉大夫	-11.3637
夏國主	-11.3637
大者	-11.3637
元祐元年	-11.3638
百端	-11.3641
告以	-11.3642
可矣	-11.3642
集賢殿修撰	-11.3643
未備	-11.3643
此奏	-11.3643
亦宜	-11.3644
罷黜	-11.3645
之首	-11.3645
黄潛善	-11.3646
昌齡	-11.3647
求罷	-11.3648
多言	-11.3648
殉	-11.3649
掛	-11.3649
厚賞	-11.3649
敵情	-11.3653
休戚	-11.3653
知河南府	-11.3654
有急	-11.3654
除放	-11.3655
自歸	-11.3655
擊大破之	-11.3656
財利	-11.3656
功曹	-11.3656
未有不	-11.3658
萬嵗	-11.3658
既敗	-11.366
景宗	-11.366
乃能	-11.366
苑中	-11.3661
不致	-11.3665
帝前	-11.3666
漢興	-11.3666
信也	-11.3667
帝大怒	-11.3671
方面	-11.3672
兵出	-11.3672
及聞	-11.3673
議曰	-11.3673
拾遺	-11.3676
自劾	-11.3678
方進	-11.368
於衆	-11.3682
代北	-11.3683
之方	-11.369
無害	-11.3691
價錢	-11.3693
又言臣	-11.3695
小大	-11.3695
斟酌	-11.3696
如其	-11.3697
頽	-11.3698
楨	-11.3698
奉朝請	-11.3698
彘	-11.3698
于獄	-11.3699
順帝	-11.3699
擕	-11.3699
卒以	-11.37
本以	-11.3701
為樞宻副使	-11.3701
降戸	-11.3701
之漸	-11.3701
平凉	-11.3702
賜予	-11.3702
依違	-11.3702
人戸	-11.3703
縷	-11.3703
安化	-11.3704
萬斛	-11.3705
州縣官	-11.3705
張士遜	-11.3705
之明	-11.3706
上方	-11.3707
州諸軍事	-11.3707
五星	-11.3708
孝友	-11.3709
大理卿	-11.371
鄉縣	-11.371
犯贓	-11.3711
狩	-11.3714
兩川	-11.3714
矣其	-11.3714
西面	-11.3717
舊典	-11.372
秦主	-11.372
江水	-11.3722
了當	-11.3722
伐楚	-11.3723
易曰	-11.3724
御書	-11.3724
宜陽	-11.3725
興宗	-11.3725
為中丞	-11.3726
曰非	-11.3727
諸門	-11.3727
漳州	-11.3729
憐之	-11.3729
得天下	-11.373
乙未詔	-11.373
交易	-11.3731
杏	-11.3731
利而	-11.3733
安集	-11.3734
為樞密使	-11.3735
闈	-11.374
平盧	-11.374
騎射	-11.374
指為	-11.3741
遂詔	-11.3742
縣故城	-11.3742
之父	-11.3743
大理少卿	-11.3743
左藏庫	-11.3744
人口	-11.3745
有四	-11.3745
鯁	-11.3746
咽	-11.3746
所部兵	-11.3747
架	-11.3751
于市	-11.3751
少而	-11.3751
隨事	-11.3752
上夀	-11.3752
阿嚕	-11.3752
疏言	-11.3752
按此	-11.3752
溪峒	-11.3755
功賞	-11.3755
刈	-11.3755
縶	-11.3755
除命	-11.3755
臣亦	-11.3758
知院	-11.3758
昭穆	-11.3759
石虎	-11.3761
乃下	-11.3762
自非	-11.3764
事具	-11.3765
廷弼	-11.3765
權三司使	-11.3768
世隆	-11.3768
亡國	-11.3768
僖公	-11.3769
出鎮	-11.3769
前知	-11.3771
則知	-11.3772
蜀王	-11.3774
成公	-11.3775
嗣君	-11.3777
漢武	-11.3778
所獻	-11.3779
反側	-11.3781
者宜	-11.3781
知所	-11.3782
恵卿	-11.3782
司𨽻	-11.3785
北敵	-11.3786
以白	-11.3787
千牛	-11.3789
北歸	-11.3789
郡邑	-11.3789
成之	-11.3791
寳文閣待制	-11.3792
王爵	-11.3792
復振	-11.3793
州刺史李	-11.3793
玉清昭應宫	-11.3794
將李	-11.3795
趙甡之遺史	-11.3796
悛	-11.3796
禮文	-11.3796
土豪	-11.3798
弇	-11.3799
竿	-11.3799
鞬	-11.38
駐泊	-11.3802
在中書	-11.3803
烟	-11.3803
穫	-11.3803
竟陵	-11.3804
東向	-11.3805
晏殊	-11.3805
良民	-11.3805
復立	-11.3806
教閱	-11.3807
後魏置	-11.3808
切說	-11.3809
已出	-11.3809
于秦	-11.381
内屬	-11.381
蔡攸	-11.3811
皇天	-11.3813
王庶	-11.3813
皆自	-11.3815
以名聞	-11.3815
王世	-11.3815
朔望	-11.3815
與王	-11.3816
親臨	-11.3817
奔還	-11.3817
下吏	-11.3818
思退	-11.3819
塞下	-11.382
天平	-11.3823
並從	-11.3823
連兵	-11.3825
合祭	-11.3826
奮擊	-11.3826
無補	-11.3828
大略	-11.3829
漣	-11.383
綱運	-11.3833
世勣	-11.3833
欲去	-11.3836
降魏	-11.3836
諡法	-11.3837
年九月	-11.3838
物力	-11.3838
誠為	-11.3839
按劾	-11.3839
太一	-11.384
孺子	-11.384
送納	-11.3841
乞行	-11.3842
師傅	-11.3843
千二百	-11.3844
力士	-11.3844
更加	-11.3844
蘆	-11.3845
北岸	-11.3846
鄯善	-11.3846
仍乞	-11.3847
敺	-11.3849
可勝	-11.3851
阬	-11.3852
累世	-11.3852
概	-11.3852
絡	-11.3853
兵萬人	-11.3853
復請	-11.3856
為監察御史	-11.3857
成書	-11.3857
爕	-11.3858
西征	-11.386
存者	-11.3863
唐曆	-11.3865
袁術	-11.3866
年八十	-11.3867
可法	-11.3867
末年	-11.3867
此誠	-11.3867
曉諭	-11.3869
此條	-11.3869
西海	-11.387
敵之	-11.3872
鹽鈔	-11.3872
解體	-11.3872
臣竊以	-11.3872
陳平	-11.3874
等率	-11.3875
則又	-11.3878
黎州	-11.3878
檢正	-11.3879
焉耆	-11.3882
其營	-11.3883
等物	-11.3885
昌平	-11.3885
不審	-11.3887
汀州	-11.3887
齡	-11.3887
變易	-11.389
許人	-11.3891
附注	-11.3894
而輕	-11.3894
以守	-11.3895
為左僕射	-11.3896
世傑	-11.3898
上以為然	-11.3899
知節	-11.39
濟隂	-11.39
得書	-11.3901
比來	-11.3902
工役	-11.3902
穆之	-11.3902
非時	-11.3903
太皇太后曰	-11.3904
塩	-11.3904
圃	-11.3904
查	-11.3904
彤	-11.3905
蒼梧	-11.3906
誇	-11.3906
㳟	-11.3906
邉臣	-11.3907
縯	-11.3908
盡是	-11.3908
行而	-11.3909
曆	-11.3911
亦然	-11.3913
大駕	-11.3913
不仁	-11.3914
都大提舉	-11.3914
白上	-11.3914
新州	-11.3915
憂國	-11.3916
宜加	-11.3917
守光	-11.3919
臣民	-11.3919
不曉	-11.3922
紛然	-11.3923
人吏	-11.3924
郡唐	-11.3925
禮儀使	-11.3925
魏武	-11.3928
藝祖	-11.393
相息	-11.393
始至	-11.3933
攻其	-11.3935
僉事	-11.3935
為給事中	-11.3937
宣慰使	-11.3937
三事	-11.3938
十有二	-11.394
金玉	-11.3942
為大將軍	-11.3942
孝王	-11.3943
奉法	-11.3945
明徳	-11.3945
道徳	-11.3947
瘳	-11.3948
侍從官	-11.3949
宋書	-11.3949
墾	-11.395
去留	-11.3951
陀	-11.3952
瞽	-11.3952
一百九十	-11.3952
歿	-11.3956
夏主	-11.3956
扺	-11.3956
殺掠	-11.3956
朕躬	-11.3957
滇	-11.396
疾苦	-11.3962
挑戰	-11.3962
乃定	-11.3964
未免	-11.3964
愕然	-11.3967
清河王	-11.3969
故相	-11.3971
西道	-11.3973
力行	-11.3973
施於	-11.3974
商英	-11.3978
之圍	-11.3978
錢數	-11.3979
當塗	-11.398
治國	-11.3981
所破	-11.3984
不能救	-11.3985
驕恣	-11.3987
不喜	-11.3989
進賢	-11.3989
甘心	-11.399
之責	-11.399
賊馬	-11.399
利也	-11.3992
不知所為	-11.3994
良法	-11.3994
多是	-11.3994
二者	-11.3994
之次	-11.3998
賦詩	-11.3998
勤勞	-11.3999
邯	-11.4002
渾瑊	-11.4003
知青州	-11.4003
陛下所	-11.4003
踏	-11.4004
前事	-11.4004
大罪	-11.4004
苻堅	-11.4006
元濟	-11.4007
玷	-11.4007
疽	-11.4007
翳	-11.4007
愠	-11.4007
脂	-11.4008
盡殺	-11.4009
後悔	-11.401
孟康曰	-11.4011
芬	-11.4011
者猶	-11.4013
市易務	-11.4013
姑臧	-11.4013
一百三十	-11.4013
親見	-11.4015
因問	-11.4015
嘉納	-11.4021
與契丹	-11.4021
可保	-11.4022
駐兵	-11.4024
外官	-11.4024
婺	-11.4026
淄	-11.4026
編類	-11.4027
李光弼	-11.403
因命	-11.403
磁州	-11.4033
穆爾	-11.4033
奔競	-11.4034
變更	-11.4034
至重	-11.4037
相近	-11.4037
兩浙路	-11.4038
乆不	-11.4038
之母	-11.4039
亦已	-11.4041
過當	-11.4043
太極	-11.4044
始命	-11.4046
結絶	-11.4047
赴援	-11.4049
楹	-11.405
不遣	-11.405
權宜	-11.405
入内内侍省	-11.4052
殿最	-11.4052
禁之	-11.4054
繼忠	-11.4054
紗	-11.4054
剰	-11.4055
豈不知	-11.4055
大患	-11.4056
鎖	-11.4057
正其	-11.4058
固不	-11.406
水縣	-11.4061
請留	-11.4063
令孜	-11.4063
為戒	-11.4063
緜	-11.4064
遂取	-11.4064
柰何	-11.4068
甚重	-11.4068
題名	-11.4069
天徳	-11.4069
之妻	-11.4069
其制	-11.407
祖父	-11.4071
失色	-11.4071
十一人	-11.4071
深州	-11.4072
民不	-11.4075
治所	-11.4075
聖祖	-11.4076
恭惟	-11.4077
詔不許	-11.4078
臨清	-11.4081
守仁	-11.4082
溪洞	-11.4083
聖聽	-11.4083
外餘	-11.4085
晉安	-11.4085
物價	-11.4086
擇人	-11.4086
矣臣	-11.4088
謂我	-11.4089
督師	-11.4089
利於	-11.409
本名	-11.409
便可	-11.4092
者得	-11.4092
大衆	-11.4093
獲之	-11.4093
制科	-11.4093
智勇	-11.4093
崇政殿	-11.4094
重直	-11.4094
至和	-11.4096
東平王	-11.4097
唐屬	-11.4097
鞍馬	-11.4099
光義	-11.41
七十二	-11.4101
閼	-11.4101
前驅	-11.4101
故有是	-11.4102
朝請郎	-11.4102
積粟	-11.4102
曰漢	-11.4102
對上	-11.4102
朝散郎	-11.4104
放罪	-11.4105
無所得	-11.4106
陶侃	-11.4107
戸部侍郎	-11.4108
滉	-11.4108
十五人	-11.4109
凟	-11.4109
增置	-11.411
郡名	-11.411
黙啜	-11.4111
牡	-11.4112
璞	-11.4112
殞	-11.4113
筦	-11.4113
影	-11.4113
媿	-11.4113
漳水	-11.4113
肩輿	-11.4113
惡烏路翻	-11.4115
陳俊卿	-11.4116
顔師古曰	-11.4117
軍功	-11.4118
即漢	-11.4118
為便	-11.4118
入辭	-11.4119
自立為	-11.4121
吏部郎中	-11.4122
山上	-11.4122
直𨽻	-11.4124
本道	-11.4124
率皆	-11.4125
焞	-11.4125
捕獲	-11.4125
自衛	-11.4126
仲堪	-11.4128
日以	-11.4129
何至	-11.413
蕭氏	-11.4131
後趙	-11.4131
初為	-11.4132
伐魏	-11.4133
路轉運判官	-11.4133
先事	-11.4134
獄訟	-11.4135
犯罪	-11.4136
珽	-11.4136
李沆	-11.4137
大戰	-11.414
改封	-11.414
者各	-11.4141
去矣	-11.4142
北征	-11.4144
致死	-11.4147
文仲	-11.4148
先為	-11.4148
我我	-11.4149
代還	-11.4149
殘破	-11.415
為定	-11.415
保安軍	-11.4152
下遐	-11.4152
早賜	-11.4155
醴泉觀使	-11.4155
椒	-11.4157
垂拱	-11.4158
詔三司	-11.4159
侑	-11.4159
僦	-11.416
崔𦙍	-11.4161
鄖	-11.4161
又况	-11.4162
醢	-11.4162
襃	-11.4162
迦	-11.4163
筮	-11.4164
少詩照翻	-11.4166
勸之	-11.4166
二百七十	-11.4167
軼	-11.4167
執金吾	-11.4167
投之	-11.4169
恐有	-11.4169
二城	-11.4171
張璪	-11.4171
數四	-11.4172
魏兵	-11.4173
葉赫	-11.4173
罷歸	-11.4174
又論	-11.4175
方欲	-11.4175
數里	-11.4177
不憚	-11.4177
不勝其	-11.4178
亦是	-11.4178
統領官	-11.4178
紀律	-11.4179
視朝	-11.4179
求賢	-11.418
乞免	-11.418
出境	-11.4181
監牧	-11.4182
于河	-11.4184
於陛下	-11.4185
淵聖	-11.4185
冦凖	-11.4185
曰主上	-11.4186
累朝	-11.4187
宗尹	-11.4191
所修	-11.4196
秦伯	-11.4198
號泣	-11.4199
張皇	-11.4201
回河	-11.4201
考功	-11.4202
而弗	-11.4203
特降	-11.4206
蒲州	-11.4206
之治	-11.4208
才人	-11.4211
益兵	-11.4211
三千餘人	-11.4211
帝始	-11.4211
遣歸	-11.4213
可立	-11.4214
當日	-11.4214
琚	-11.4214
官自	-11.4214
珠玉	-11.4215
歩兵	-11.4216
竣	-11.4218
李密	-11.4218
一節	-11.4218
騷動	-11.4218
肝	-11.4218
伏請	-11.4218
請託	-11.422
京湖	-11.422
恤民	-11.4221
踊	-11.4222
正字	-11.4222
太元	-11.4223
竊慮	-11.4224
紹興府	-11.4225
亾	-11.4225
檢討	-11.4225
孫路	-11.4226
沙漠	-11.4226
賊兵	-11.423
宣公	-11.4232
龍城	-11.4232
益都	-11.4232
通行	-11.4235
初帝	-11.4237
為中書侍郎	-11.4237
分守	-11.4238
宗諤	-11.4239
四十五	-11.4241
任子	-11.4242
百餘萬	-11.4243
細故	-11.4243
應龍	-11.4247
實無	-11.4247
真卿	-11.4248
求治	-11.4248
江漢	-11.4249
更立	-11.4249
於東	-11.425
兵官	-11.4252
首級	-11.4253
因論	-11.4254
市易司	-11.4257
又改	-11.4258
萬幾	-11.4258
言於上曰	-11.4258
官家	-11.426
小人之	-11.4261
閬	-11.4261
天長	-11.4262
西城	-11.4262
相如	-11.4262
而已矣	-11.4266
不職	-11.4267
監察御史裏行	-11.4268
秉常	-11.4268
間古莧翻	-11.4269
曵	-11.427
髙昌	-11.427
跳	-11.427
絢	-11.427
虚名	-11.4271
曰秦	-11.4273
出其不意	-11.4274
故人	-11.4276
留中	-11.4276
體仁	-11.4277
鄒浩	-11.4277
異曰	-11.4278
哨	-11.4278
出守	-11.4278
勿翻	-11.4284
知杭州	-11.4285
有子	-11.4285
肆赦	-11.4286
唐厯	-11.4289
夫以	-11.4291
指斥	-11.4292
觀察	-11.4292
既出	-11.4293
役兵	-11.4293
宜州	-11.4294
告于	-11.4294
三十一	-11.4294
勸帝	-11.4295
鎮東	-11.4295
非不	-11.4296
正朔	-11.4296
東京留守	-11.4297
阿爾	-11.4299
舉國	-11.4302
大駭	-11.4302
等與	-11.4303
之祭	-11.4304
無算	-11.4304
李紹	-11.4306
老臣	-11.4306
罪之	-11.4307
梁氏	-11.431
新興	-11.431
攻破	-11.4312
無用	-11.4312
廢罷	-11.4313
覺之	-11.4313
猺	-11.4313
元豐八年	-11.4314
來攻	-11.4314
大聖	-11.4319
則臣	-11.4321
苴	-11.4321
朝議大夫	-11.4321
吕中曰	-11.4322
為東	-11.4322
文忠	-11.4322
床	-11.4323
趣七	-11.4323
濛	-11.4323
不謹	-11.4324
訕	-11.4324
爛	-11.4325
兀	-11.4325
竒兵	-11.4325
宣撫副使	-11.4325
東道	-11.4325
研	-11.4327
今但	-11.4327
有大功	-11.4328
望令	-11.433
装	-11.433
金山	-11.4332
纛	-11.4335
皇帝廟號	-11.4336
助教	-11.4338
保寧	-11.434
以語	-11.4341
愛君	-11.4342
來貢	-11.4342
兵皆	-11.4343
河流	-11.4345
遷徙	-11.4346
總制	-11.4347
言事官	-11.4347
少有	-11.4348
拜珠	-11.4349
危亡	-11.4349
張士誠	-11.4349
女也	-11.4351
疾之	-11.4354
公行	-11.4357
梁山	-11.4358
七廟	-11.4358
乞弟	-11.4359
不恭	-11.4363
遊擊	-11.4364
三世	-11.4365
一司	-11.4366
之形	-11.4367
日新	-11.4369
在我	-11.4369
條制	-11.437
无咎	-11.4372
善政	-11.4372
有衆	-11.4374
聲援	-11.4374
戮之	-11.4374
大宴	-11.4375
特們徳爾	-11.4376
起居舎人	-11.4377
淄青	-11.4377
説之	-11.4381
彦超	-11.4381
逖	-11.4383
先發	-11.4384
所乞	-11.4385
過惡	-11.4386
寨主	-11.4386
所忌	-11.4387
太常禮院	-11.4387
周室	-11.4388
小者	-11.439
而不得	-11.439
秘書監	-11.439
茶法	-11.439
試之	-11.4392
徐温	-11.4395
教坊	-11.4396
皆作	-11.4399
進擬	-11.4399
亡也	-11.44
各有差	-11.44
李顯忠	-11.44
刪定	-11.4401
重困	-11.4401
右諌議大夫	-11.4402
才能	-11.4402
寛恤	-11.4403
還長安	-11.4407
曰先帝	-11.4407
督戰	-11.4407
與諸將	-11.4409
若謂	-11.441
定天下	-11.441
兵大敗	-11.4412
于齊	-11.4414
祖考	-11.4415
更生	-11.4416
鳯翔府	-11.442
奏疏	-11.4421
封事	-11.4422
孟子曰	-11.4422
待詔	-11.4422
傳㫖	-11.4422
西魏	-11.4424
地勢	-11.4424
以代	-11.4425
發其	-11.4426
右班殿直	-11.4428
朝賀	-11.443
情偽	-11.4432
柯	-11.4432
鄭注	-11.4433
杯	-11.4433
宣祖	-11.4434
西頭供奉官	-11.4434
伉	-11.4434
戒飭	-11.4434
而走	-11.4434
公家	-11.4435
倉猝	-11.4435
為五	-11.4435
元載	-11.4435
孟知祥	-11.4436
玊	-11.4436
殺我	-11.4437
史思明	-11.4439
貨財	-11.4439
獻公	-11.4439
皇太妃	-11.444
河道	-11.4442
一條	-11.4444
不常	-11.4446
晉志	-11.4447
入㓂	-11.4447
響應	-11.4449
祖宗故事	-11.4449
統紀	-11.4449
蘄州	-11.445
行狀	-11.4451
一縣	-11.4452
内批	-11.4453
草詔	-11.4455
而忘	-11.4456
酖	-11.4456
厚恩	-11.4458
梁紀	-11.4458
建儲	-11.446
幽王	-11.446
許令	-11.4462
西京留守	-11.4465
變法	-11.4467
士皆	-11.4467
祭天	-11.4468
所與	-11.4468
財力	-11.4469
新羅	-11.4469
者凡	-11.4469
賜宴	-11.4471
萬死	-11.4472
延和殿	-11.4472
從榮	-11.4473
嵗終	-11.4473
忠言	-11.4473
自代	-11.4474
大中祥符	-11.4474
難制	-11.4476
未決	-11.4476
而自立	-11.4476
能以	-11.4477
積石	-11.4477
提舉江州太平興國宫	-11.4479
危急	-11.4479
又無	-11.4481
許其	-11.4482
三里	-11.4482
吳人	-11.4482
阿史那	-11.4484
羣臣皆	-11.4485
汾陽	-11.4485
驃騎	-11.4486
資善堂	-11.4486
兵部郎中	-11.4488
少詩沼翻	-11.4488
哷	-11.4489
繼元	-11.4489
杼	-11.449
乞師	-11.449
話	-11.4491
為左丞相	-11.4491
耄	-11.4491
此法	-11.4492
付有司	-11.4492
良嗣	-11.4492
與民	-11.4496
朋比	-11.4498
餓	-11.4498
於秦	-11.4499
哀帝	-11.4499
衆多	-11.45
請如	-11.4504
熈州	-11.4506
兵討	-11.4506
本非	-11.4506
餘慶	-11.4506
以父	-11.4507
而前	-11.4507
奢侈	-11.4509
北宫	-11.4509
疾篤	-11.4509
條奏	-11.4509
柱國	-11.4511
流血	-11.4511
部内	-11.4511
别為	-11.4515
悉衆	-11.4515
府今因之	-11.4515
詰問	-11.4516
膠東	-11.4518
海西	-11.4519
守文	-11.4521
馬步	-11.4521
三代之	-11.4526
以寛	-11.4526
青城	-11.4526
堵	-11.4527
従之	-11.4527
重於	-11.4528
世世	-11.4528
非朝廷	-11.4528
徐達	-11.4529
檜曰	-11.4531
斷自	-11.4531
大逆	-11.4532
但令	-11.4532
馳至	-11.4534
虎臣	-11.4534
熺	-11.4534
終無	-11.4534
胡氏	-11.4535
春夏	-11.4535
為中書令	-11.4536
崇信	-11.4537
悌	-11.4537
縣是	-11.4538
等亦	-11.4538
秘書丞	-11.4538
此年	-11.4539
豁	-11.4539
桷	-11.454
孫奭	-11.454
終身不	-11.454
食其	-11.454
武學	-11.4541
比者	-11.4542
李燾撰	-11.4542
樞密副使	-11.4542
掌書記	-11.4543
長編	-11.4543
爪牙	-11.4544
欲取	-11.4545
行下孟翻	-11.4545
陸贄	-11.4545
靚	-11.4546
鍳	-11.4546
之機	-11.4547
崇義	-11.4548
掄	-11.4548
萬斤	-11.455
四十八	-11.4551
隗囂	-11.4551
斷丁	-11.4551
無所不	-11.4552
聚斂	-11.4553
厲王	-11.4556
離散	-11.4557
為冦	-11.4558
元顯	-11.4559
諸帥	-11.456
破敵	-11.4562
所著	-11.4564
漢家	-11.4566
輸錢	-11.4566
不能對	-11.4567
一石	-11.4569
舟船	-11.457
祭之	-11.4571
統兵	-11.4572
必大	-11.4572
之境	-11.4573
毎嵗	-11.4577
復叛	-11.4578
贛	-11.4581
自効	-11.4582
神器	-11.4583
更改	-11.4587
吏部員外郎	-11.4588
言自	-11.4588
于魏	-11.4588
萬世之	-11.459
伊都	-11.4592
度河	-11.4594
鬰	-11.4594
丁巳詔	-11.4594
上下相	-11.4595
向來	-11.4596
後省	-11.4597
與免	-11.4597
後為	-11.4597
犍為	-11.4598
拓跋	-11.4598
胡宗愈	-11.4598
山北	-11.4599
籙	-11.4599
成都府路	-11.46
升殿	-11.46
宜先	-11.46
都指揮	-11.4601
舁	-11.4601
矟	-11.4603
入界	-11.4605
擇日	-11.4605
不得進	-11.4608
孤立	-11.4608
治體	-11.4611
言乞	-11.4611
隔絶	-11.4613
顧命	-11.4614
在西	-11.4616
誠能	-11.4616
散官	-11.4617
空名	-11.4617
湯鵬舉	-11.4618
名位	-11.4618
武寧	-11.4619
不振	-11.462
前漢	-11.4623
必在	-11.4624
乞留	-11.4624
郭氏	-11.4626
雩	-11.4626
若更	-11.463
兵擊	-11.463
違戾	-11.463
迎戰	-11.4631
此類	-11.4632
衂	-11.4633
失業	-11.4634
非陛下	-11.4635
家財	-11.4636
之本也	-11.4636
也然則	-11.4636
星變	-11.4639
矣且	-11.464
塞門	-11.4642
日甚	-11.4644
明經	-11.4644
為天	-11.4646
鑠	-11.4647
琥	-11.4647
輔相	-11.4649
要在	-11.4651
人之所	-11.4651
悉令	-11.4652
昭陽	-11.4652
退師	-11.4653
博囉特穆爾	-11.4653
彫	-11.4653
鳯陽	-11.4653
醴泉	-11.4654
在任	-11.4654
旌旗	-11.4655
為利	-11.4655
䜴翻	-11.4656
有星孛于	-11.4657
砥	-11.4657
孕	-11.4657
旄	-11.4658
事畢	-11.4661
集賢	-11.4662
五事	-11.4667
楊億	-11.4668
吕陶	-11.4668
也先是	-11.4669
必不敢	-11.4669
資治通鑑卷	-11.4669
勝之	-11.467
自若	-11.467
失當	-11.4671
内帑	-11.4673
南平	-11.4674
岐王	-11.4674
僖宗	-11.4676
糧盡	-11.4677
遇敵	-11.4681
運河	-11.4683
張儀	-11.4683
家有	-11.4683
林邑	-11.4684
議者以為	-11.4684
一級	-11.4685
多以	-11.4686
之財	-11.4687
絶之	-11.4688
考試	-11.4689
所以為	-11.4691
典略	-11.4693
愎	-11.4694
曰聞	-11.4695
既久	-11.4699
入居	-11.4699
孝寛	-11.4701
幸甚	-11.4702
鄭人	-11.4702
與夫	-11.4702
鍔	-11.4703
謹守	-11.4704
三班院	-11.4705
昨來	-11.4706
醇	-11.4707
其親	-11.4707
百世	-11.471
等語	-11.4711
刷	-11.4711
翹	-11.4712
呼沙呼	-11.4713
中流矢	-11.4714
天竺	-11.4717
王安禮	-11.4718
特贈	-11.4719
琿	-11.4719
三省樞密院	-11.4722
樂浪	-11.4724
為太師	-11.4725
丁丑詔	-11.4725
康居	-11.4726
下書	-11.4727
帝不許	-11.4728
昭帝	-11.4728
賞功	-11.473
留神	-11.473
而有是命	-11.4733
便於	-11.4734
之務	-11.4736
舊志	-11.474
千騎	-11.474
講筵	-11.4742
以重	-11.4747
不支	-11.4747
者蓋	-11.4748
於禮	-11.4748
並從之	-11.4749
未審	-11.475
都水	-11.4751
澧州	-11.4751
故命	-11.4752
以補	-11.4753
下有司	-11.4753
有是命	-11.4754
營州	-11.4755
顧謂	-11.4755
職田	-11.4756
祖母	-11.4757
旦曰	-11.4758
秘閣	-11.4759
楫	-11.476
者哉	-11.476
契丹遣	-11.476
畱	-11.4761
重耳	-11.4762
稀	-11.4762
米脂	-11.4762
既不能	-11.4762
國子博士	-11.4763
悝	-11.4765
䖏	-11.4765
師于	-11.4765
楊國忠	-11.4766
撒	-11.4766
為惡	-11.4766
肜	-11.4767
柘	-11.4769
擿	-11.4769
飛龍	-11.477
王猛	-11.4772
京東路	-11.4772
伊遜	-11.4772
宣徳	-11.4773
冦準	-11.4775
裁減	-11.4775
死矣	-11.4777
改過	-11.4777
遂廢	-11.4778
之異	-11.4778
醫官	-11.4778
復奏	-11.4779
占城	-11.4779
關東	-11.4781
獲免	-11.4785
特遷	-11.4785
門生	-11.4787
揚言	-11.4789
馬歩	-11.479
不得與	-11.479
不可輕	-11.4792
嵗餘	-11.4794
其來	-11.4797
前年	-11.4797
更無	-11.4798
講學	-11.4798
皇上	-11.4798
嘉靖	-11.4798
悉罷	-11.4798
告訐	-11.48
其姓名	-11.4801
每事	-11.4804
全義	-11.4805
又自	-11.4806
亦不得	-11.4807
其禍	-11.4808
為援	-11.4808
以戒	-11.4808
潁州	-11.4809
遣使詣	-11.4809
恩數	-11.4809
其行	-11.4809
如此而	-11.481
死不	-11.4811
四十六	-11.4811
第四等	-11.4812
至如	-11.4812
此舉	-11.4812
悞	-11.4816
機事	-11.4816
止用	-11.4817
召問	-11.4819
止以	-11.4819
其外	-11.4819
年三月	-11.482
經久	-11.4821
陁	-11.4821
太初	-11.4821
上疏請	-11.4821
貢方物	-11.4821
吕嘉問	-11.4821
重慶	-11.4822
地土	-11.4823
傭	-11.4823
騎奇寄翻	-11.4824
廕	-11.4824
郟	-11.4825
蒯	-11.4826
寘之	-11.4827
少帝	-11.4828
先自	-11.4828
曰願	-11.4828
諸寨	-11.483
園陵	-11.483
羯	-11.4831
亦在	-11.4831
使王	-11.4831
堯翻	-11.4832
浮費	-11.4832
萬國	-11.4833
資治通鑑卷一百	-11.4834
睿斷	-11.4834
遂有是命	-11.4834
屬縣	-11.4837
出居	-11.4837
列於	-11.4838
市馬	-11.4839
秦始皇	-11.484
沅	-11.484
敬則	-11.4841
無餘	-11.4841
宗元	-11.4842
第十	-11.4843
唐鄧	-11.4844
無知	-11.4845
更為	-11.4847
感泣	-11.4849
周王	-11.4849
文龍	-11.4849
處厚	-11.4849
朕之	-11.4849
塞之	-11.4849
子韶	-11.485
庫庫	-11.485
自可	-11.4851
不煩	-11.4851
家口	-11.4851
宥之	-11.4851
召用	-11.4852
薊州	-11.4856
孫覺	-11.4856
答曰	-11.4856
李昉	-11.4857
不先	-11.4858
頓首謝	-11.4861
于太廟	-11.4862
犂	-11.4867
酈	-11.4868
則不然	-11.4868
奏上	-11.4868
乾道	-11.487
樂平	-11.4871
文館	-11.4871
險要	-11.4872
收買	-11.4872
左朝散郎	-11.4873
曽公亮	-11.4876
誹謗	-11.4876
厚賜	-11.4877
合祭天地	-11.4877
罪也	-11.4878
怙	-11.488
月十二日	-11.488
可疑	-11.488
㝠	-11.4881
麤	-11.4881
屑	-11.4882
有限	-11.4883
門户	-11.4885
臣自	-11.4885
祥瑞	-11.4886
意者	-11.4887
在南	-11.4889
戰不利	-11.4889
供億	-11.489
充役	-11.4892
第七	-11.4893
魯國	-11.4894
不負	-11.4894
一無所	-11.4894
飲之	-11.4895
錢穀	-11.4896
征之	-11.4897
仁贍	-11.4897
者勿	-11.4898
衣糧	-11.4899
孟津	-11.4899
復起	-11.49
支賜	-11.49
諸羌	-11.49
重進	-11.49
邊郡	-11.4901
勿使	-11.4901
客省使	-11.4902
設官	-11.4903
將何	-11.4903
立朝	-11.4905
唯唯	-11.4906
流移	-11.4907
上與	-11.4907
疆土	-11.4907
致祭	-11.4909
千九百	-11.4909
化及	-11.4909
梁適	-11.491
被㫖	-11.491
相位	-11.4911
竊發	-11.4912
復辟	-11.4913
先儒	-11.4915
講官	-11.4916
請依	-11.4916
曹伯	-11.4918
賄賂	-11.492
上始	-11.492
之流	-11.4921
為后	-11.4922
軍吏	-11.4922
願以	-11.4923
韓愈	-11.4923
三門	-11.4925
來聘	-11.4925
知州事	-11.4927
助役	-11.4928
金帶	-11.4928
力不能	-11.4928
邊民	-11.4929
仲文	-11.493
東頭供奉官	-11.4931
効用	-11.4932
宫闕	-11.4934
范書	-11.4934
夸	-11.4934
幅	-11.4934
外其	-11.4934
枹罕	-11.4934
乎今	-11.4935
耿南仲	-11.4935
夷人	-11.4935
館閣校勘	-11.4936
莾	-11.4936
袤	-11.4937
悰	-11.4938
煒	-11.4938
相屬	-11.4938
各賜	-11.4938
且請	-11.494
抄掠	-11.494
礬	-11.4941
誅殺	-11.4941
不知也	-11.4943
城也	-11.4943
十七人	-11.4943
守者	-11.4944
間古	-11.4945
日乆	-11.4945
屯戍	-11.4946
縋	-11.4946
邠寧	-11.4946
非理	-11.4946
舟楫	-11.4947
殿試	-11.4947
令轉運司	-11.4949
自固	-11.4949
人倫	-11.495
國語	-11.4953
者葢	-11.4953
舉措	-11.4953
翰林院	-11.4954
威儀	-11.4955
遺之	-11.4957
故吏	-11.4958
大惡	-11.4958
許諾	-11.4959
王導	-11.4961
河池	-11.4961
雲陽	-11.4961
勢必	-11.4961
李嗣源	-11.4964
之福也	-11.4965
乘之	-11.4967
莫知	-11.4969
川峽	-11.497
或至	-11.497
南平王	-11.4971
不能得	-11.4971
畢工	-11.4972
特命	-11.4972
北還	-11.4972
以副	-11.4976
知陳州	-11.4976
城壁	-11.4982
後殿	-11.4982
突入	-11.4985
變亂	-11.4986
納言	-11.4986
帥騎	-11.4986
令天下	-11.4986
事上	-11.4988
記室	-11.4989
上覽	-11.499
先行	-11.4991
西陵	-11.4991
欲其	-11.4992
濯	-11.4992
叶	-11.4993
軹	-11.4993
事始	-11.4994
言職	-11.4997
給錢	-11.4998
二十餘人	-11.4998
松山	-11.4999
勃勃	-11.4999
逐州	-11.5
兩日	-11.5002
見殺	-11.5005
豈復	-11.5005
遂降	-11.5006
金幣	-11.5006
宋綬	-11.5006
假道	-11.5007
固宜	-11.5007
輕易	-11.5007
縁此	-11.5007
河口	-11.5008
民所	-11.501
官田	-11.5011
團練	-11.5012
莊子	-11.5012
之詞	-11.5014
不敬	-11.5015
又乞	-11.5015
三十八	-11.5016
重臣	-11.5016
分明	-11.5016
財貨	-11.5018
唐兵	-11.5018
光宗	-11.5018
降黜	-11.5018
野王	-11.5019
異也	-11.502
臨御	-11.5021
王后	-11.5021
出門	-11.5022
太湖	-11.5023
張公	-11.5024
奬諭	-11.5025
天下共	-11.5026
拱辰	-11.5026
景仁	-11.5028
作詩	-11.5029
又復	-11.503
九品	-11.503
乗之	-11.503
至自	-11.5031
也今從	-11.5031
所恃	-11.5032
機㑹	-11.5033
北行	-11.5033
御河	-11.5037
七年春正月	-11.5037
來㑹	-11.504
州刺史王	-11.5041
帝令	-11.5041
軍容	-11.5043
吕祖謙	-11.5043
既誅	-11.5043
賜絹	-11.5044
蚡	-11.5046
言責	-11.5047
年七十	-11.5047
䛕	-11.5048
州東	-11.5049
兵食	-11.5049
婚姻	-11.5049
踐阼	-11.505
泝	-11.505
晦日有食之	-11.5051
資治通鑑後編卷	-11.5051
焚香	-11.5051
菽	-11.5053
肄	-11.5053
撾	-11.5054
食貨志	-11.5054
良弼	-11.5054
以佐	-11.5054
罷政	-11.5055
壅蔽	-11.5055
益急	-11.5057
十萬石	-11.5057
上前	-11.5058
髙遵裕	-11.506
之未	-11.506
衛上將軍	-11.5062
臨之	-11.5062
太牢	-11.5063
最多	-11.5063
互市	-11.5063
支錢	-11.5064
知陛下	-11.5068
言伏見	-11.5069
累月	-11.5069
多者	-11.5071
和買	-11.5073
固執	-11.5074
獲馬	-11.5075
伐蜀	-11.5077
一貟	-11.5079
平陵	-11.5079
齊國	-11.508
誰可	-11.508
率所部	-11.508
秋冬	-11.5081
憂也	-11.5082
二百八十	-11.5083
非敢	-11.5084
遇事	-11.5085
所損	-11.5089
陛下若	-11.5089
戰船	-11.509
内東門	-11.509
土丁	-11.5092
一百四十	-11.5094
來賀	-11.5094
濟江	-11.5096
惶	-11.5098
以定	-11.5099
為小	-11.51
賂遺	-11.5101
民財	-11.5103
一城	-11.5104
稱職	-11.5106
長孫無忌	-11.5107
宗閔	-11.5107
縑	-11.5107
沾	-11.5108
死子	-11.5108
苐	-11.5108
漏泄	-11.5109
樗	-11.5109
咄	-11.511
上户	-11.511
誣以	-11.5111
孜孜	-11.5112
璩	-11.5112
藺	-11.5114
偪	-11.5115
惠公	-11.5115
者正	-11.5116
亦與	-11.5116
宫闈	-11.5116
類此	-11.5117
大統	-11.5118
朕所	-11.5119
其惡	-11.512
正論	-11.512
帳中	-11.5121
還言	-11.5122
全斌	-11.5123
三十四	-11.5124
右侍禁	-11.5128
三十九	-11.5128
不能禁	-11.5128
忝	-11.5128
補闕	-11.513
今聞	-11.513
賞格	-11.5131
變而	-11.5132
溺死	-11.5132
魯公	-11.5132
僧尼	-11.5132
每遇	-11.5136
黄中	-11.5137
要地	-11.5138
必是	-11.5138
誤以	-11.5139
邉防	-11.5141
衞將軍	-11.5142
明兵	-11.5145
天授	-11.5146
魏徴	-11.5147
舜民	-11.5148
哈喇	-11.515
就第	-11.5151
犯邊	-11.5151
未肯	-11.5151
已甚	-11.5152
則朝廷	-11.5152
李絳	-11.5152
仁恕	-11.5153
無能為	-11.5153
惻	-11.5154
或問	-11.5155
衘	-11.5155
沮之	-11.5156
聖體	-11.5158
之既而	-11.516
諫官御史	-11.5161
逺人	-11.5161
保任	-11.5162
農桑	-11.5162
舶	-11.5163
計㑹	-11.5164
見帝	-11.5164
侁	-11.5166
不求	-11.5167
皇嗣	-11.5167
合謀	-11.5167
命翰林學士	-11.5168
恭順	-11.5168
張舜民	-11.5172
丙辰詔	-11.5173
懐光	-11.5173
進見	-11.5174
軍兵	-11.5175
諸大臣	-11.5175
朝論	-11.5176
壬辰詔	-11.5177
其役	-11.5177
憂勤	-11.5177
讓之	-11.5178
而廢	-11.5178
河决	-11.518
軍將	-11.5181
祀南郊	-11.5181
乃引	-11.5182
立定	-11.5183
州都督	-11.5184
今附此	-11.5186
戰則	-11.5186
卿士	-11.5188
從行	-11.5189
内庫	-11.519
南下	-11.5193
行則	-11.5193
周勃	-11.5193
假借	-11.5193
者少	-11.5194
緋	-11.5194
所須	-11.5196
不細	-11.5198
祖宗時	-11.52
即古	-11.52
河源	-11.52
忻州	-11.52
罵曰	-11.5203
牛酒	-11.5205
皆殺之	-11.5205
外事	-11.5208
計其	-11.5208
令民	-11.5208
之常	-11.521
不妨	-11.521
寧國	-11.5211
百八十	-11.5211
進擊	-11.5211
詰責	-11.5213
道宗	-11.5214
朝散大夫	-11.5215
梁置	-11.5216
共為	-11.5218
韓建	-11.5219
宵	-11.5221
遂得	-11.5223
七品	-11.5224
安仁	-11.5224
佾	-11.5225
通逺軍	-11.5226
姿	-11.5226
和尚原	-11.5226
清議	-11.5226
尚書省言	-11.5226
巒	-11.5227
㲄	-11.5227
釋奠	-11.5227
刄	-11.5227
范百禄	-11.5228
見行	-11.5228
考異曰實録	-11.5228
北道	-11.5228
吟	-11.5229
為長	-11.5229
赭	-11.5229
藥師	-11.523
即遣	-11.523
踞	-11.523
逈	-11.523
始也	-11.523
佛寺	-11.5233
山隂	-11.5233
事當	-11.5234
左翼	-11.5234
羽翼	-11.5235
復書	-11.5235
隋唐	-11.5236
呉璘	-11.5237
當此	-11.5237
浴	-11.5237
可觀	-11.5237
千六百	-11.5237
上書曰	-11.5239
後至	-11.5239
之交	-11.524
舊書	-11.5241
在下	-11.5244
或因	-11.5247
拘收	-11.5247
犒軍	-11.5248
之遺	-11.5249
奉國	-11.5249
語之曰	-11.525
共事	-11.5251
未明	-11.5251
在乎	-11.5254
閩中	-11.5255
黄鍾	-11.5256
議欲	-11.5256
乘馬	-11.5258
王仲	-11.5259
金以	-11.5261
執政官	-11.5261
桓𤣥	-11.5262
中興之	-11.5262
行法	-11.5264
事狀	-11.5264
楊畏	-11.5264
李元	-11.5267
令尹	-11.527
别駕	-11.5271
列切	-11.5271
乃去	-11.5272
兵將	-11.5273
齊桓公	-11.5274
靈公	-11.5274
祠部員外郎	-11.5277
十八人	-11.528
固不可	-11.528
坑冶	-11.5281
右相	-11.5283
涓	-11.5283
万俟卨	-11.5284
冠軍	-11.5285
遂止	-11.5285
知建康府	-11.5285
蕪湖	-11.5286
旺扎勒	-11.5287
受封	-11.5287
鈍	-11.5287
𨗳	-11.5287
愛憎	-11.5287
年二月	-11.5288
倚閣	-11.5289
取勘	-11.5289
扣	-11.5289
阿固達	-11.5289
艮	-11.5289
渴	-11.529
乞致仕	-11.529
曹瑋	-11.529
孰不	-11.529
奉世	-11.529
瑟	-11.5291
通謀	-11.5293
守信	-11.5294
巨源	-11.5294
壬寅詔	-11.5294
軍須	-11.5296
曲阜	-11.5297
賜第	-11.5299
争之	-11.5299
子産	-11.53
南仲	-11.5301
癸丑詔	-11.5301
治民	-11.5301
識之	-11.5302
若夫	-11.5304
誰不	-11.5304
不決	-11.5305
以謝天下	-11.5306
㑹子	-11.5306
論曰	-11.5308
中郎	-11.5308
司天	-11.5309
慶陽	-11.5309
編敕	-11.531
有犯	-11.5311
過半	-11.5311
者所以	-11.5313
必將	-11.5314
贖罪	-11.5314
沙州	-11.5314
以懲	-11.5314
重光	-11.5315
司馬懿	-11.5315
親軍	-11.5317
提領	-11.532
縣民	-11.5321
職業	-11.5321
六年春正月	-11.5321
重法	-11.5322
軍資	-11.5322
下音	-11.5323
乞伏	-11.5324
忠勇	-11.5325
中庸	-11.5327
縻	-11.5329
耳若	-11.5331
當用	-11.5332
推誠	-11.5332
請先	-11.5332
王即位	-11.5332
乙亥詔	-11.5335
迎降	-11.5335
然後可以	-11.5337
其語	-11.5337
都官員外郎	-11.534
邊鄙	-11.5341
千載	-11.5341
聞之曰	-11.5342
知閤門事	-11.5342
卹	-11.5343
廣德	-11.5343
歸義	-11.5343
紛紜	-11.5343
乗其	-11.5344
義康	-11.5344
胡廣	-11.5345
僅以身免	-11.5345
慶歴	-11.5347
丙申詔	-11.5347
員數	-11.5347
儂	-11.5347
而食	-11.5347
淮上	-11.5347
魯王	-11.5349
甲午詔	-11.535
道濟	-11.5351
飢民	-11.5352
而况	-11.5352
李燾	-11.5352
削奪	-11.5352
漢文帝	-11.5353
知州通判	-11.5356
赦文	-11.5356
三川	-11.5357
鄉兵	-11.5357
媯	-11.5357
梧	-11.5359
玩翻	-11.5361
海中	-11.5361
巴郡	-11.5362
所共	-11.5364
折衝	-11.5364
汴水	-11.5364
均州	-11.5366
已去	-11.5366
殺賊	-11.5366
庚午詔	-11.5368
山南東道節度使	-11.537
北走	-11.537
古制	-11.537
合行	-11.5371
令吏部	-11.5372
子細	-11.5373
永康	-11.5375
既失	-11.5376
孝恭	-11.5376
强敵	-11.5377
戰勝	-11.5378
未復	-11.5378
仲舒	-11.5379
大厯	-11.538
天后	-11.5381
外家	-11.5382
未報	-11.5382
駐軍	-11.5382
宜有	-11.5383
北兵	-11.5384
舊職	-11.5384
戍守	-11.5384
刪修	-11.5388
易簡	-11.5388
額外	-11.539
木為	-11.5392
此心	-11.5394
送至	-11.5394
岌	-11.5397
生日	-11.5397
不濟	-11.5399
襄國	-11.5401
宋李燾撰哲宗	-11.5402
祕書監	-11.5403
皆已	-11.5404
夜襲	-11.5404
厄	-11.5405
漢水	-11.5405
焚掠	-11.5406
瑒	-11.5406
僊	-11.5406
綱目書	-11.5407
時務	-11.5407
右將軍	-11.5407
黄裳	-11.5408
儀同三司	-11.5408
持之	-11.5408
衆曰	-11.5408
𬒳	-11.5409
𫝊云	-11.541
德明	-11.5412
四五	-11.5413
畏其	-11.5413
過江	-11.5414
狂妄	-11.5415
者為之	-11.5416
至於此	-11.5417
欺君	-11.5418
書成	-11.5418
陽翟	-11.5418
劉琨	-11.5419
郡有	-11.5419
固知	-11.5419
蕚	-11.542
用刑	-11.5421
修復	-11.5421
魏良臣	-11.5421
之卒	-11.5421
有他	-11.5422
天成	-11.5422
乞骸骨	-11.5423
胡安國	-11.5423
本姓	-11.5424
恃其	-11.5424
面奏	-11.5425
辟雍	-11.5425
日有	-11.5426
宋祁	-11.5427
償之	-11.5427
歸心	-11.5428
長沙王	-11.5429
華亭	-11.5432
水草	-11.5432
文理	-11.5432
之俗	-11.5433
徳之	-11.5434
伐秦	-11.5434
南人	-11.5436
於漢	-11.544
武平	-11.5448
曲折	-11.5449
至道	-11.5449
放還	-11.545
常事	-11.545
援之	-11.5451
將領	-11.5451
始封	-11.5452
時帝	-11.5453
宿衞	-11.5453
於君	-11.5454
不可以不	-11.5455
真定府	-11.5456
朝請大夫	-11.5457
制詞	-11.5458
水溢	-11.5459
忠節	-11.546
成大	-11.546
晉武帝	-11.546
楚之	-11.5462
盩厔	-11.5463
海島	-11.5463
鄰國	-11.5463
之例	-11.5463
衡山	-11.5464
思所以	-11.5464
詗	-11.5464
誠有	-11.5464
重鎮	-11.5465
倩	-11.5465
若果	-11.5465
逆順	-11.5466
知慶州	-11.5466
侔	-11.5466
冷	-11.5467
膏腴	-11.5467
僵	-11.5467
陳讀曰陣	-11.5468
元孫	-11.5469
駑	-11.5469
奉承	-11.547
且欲	-11.5471
地里	-11.5471
驍將	-11.5471
數百萬	-11.5471
畏天	-11.5471
獨留	-11.5472
本心	-11.5472
廢置	-11.5472
之廟	-11.5473
同判	-11.5473
工匠	-11.5475
師範	-11.5475
茍有	-11.5477
參酌	-11.5477
光禄	-11.5479
閣門	-11.5479
伯彦	-11.548
十事	-11.548
劉大中	-11.548
鄧禹	-11.5483
書院	-11.5483
爵位	-11.5484
叅軍	-11.5484
其計	-11.5485
必矣	-11.5486
必當	-11.5487
四也	-11.5488
近聞	-11.5488
及卒	-11.5488
修好	-11.5488
西有	-11.5489
正名	-11.5489
在焉	-11.5491
未已	-11.5491
致治	-11.5494
移牒	-11.5496
殊禮	-11.5496
節鎮	-11.5497
京兆府	-11.5498
復業	-11.5498
利其	-11.5501
五尺	-11.5502
紓	-11.5503
求救於	-11.5507
詔可	-11.5508
變色	-11.551
車服	-11.551
名屬	-11.5511
百三十	-11.5512
臣竊聞	-11.5514
中流	-11.5514
京西路	-11.5517
賢否	-11.5518
禁衛	-11.5519
也又曰	-11.5519
皖	-11.552
䕫州路	-11.5522
俛	-11.5522
隲	-11.5522
玫	-11.5522
奥	-11.5523
據之	-11.5523
分為二	-11.5523
鬚	-11.5525
尚書郎	-11.5525
贓罪	-11.5525
一兩	-11.5525
出征	-11.5525
䋲	-11.5525
安都	-11.5525
酒稅	-11.5525
定矣	-11.5526
遼使	-11.5526
峭	-11.5527
等五	-11.5527
阿附	-11.5528
堞	-11.5528
為人臣	-11.5528
金人陷	-11.5529
已經	-11.5529
宣化	-11.5529
六師	-11.5532
世為	-11.5532
般運	-11.5532
知廣州	-11.5533
閘	-11.5533
糴買	-11.5533
舒州	-11.5535
賈誼	-11.5535
蠲除	-11.5536
劒南	-11.5537
逺慮	-11.5537
而後行	-11.5537
乃謂	-11.5537
既破	-11.5539
不登	-11.5539
致其	-11.554
知延州	-11.554
詐稱	-11.554
使知	-11.5541
錦衣衛	-11.5541
鎮戎	-11.5541
從兄	-11.5542
璁	-11.5543
乃許之	-11.5545
兄也	-11.5547
者獨	-11.5549
危矣	-11.5549
錠	-11.5549
懐敏	-11.5551
興元府	-11.5551
賞賚	-11.5551
分畫	-11.5553
其忠	-11.5553
於世	-11.5553
忠順	-11.5556
折納	-11.5556
遂寢	-11.5557
道君	-11.5557
所難	-11.5557
司州	-11.5557
州西	-11.5557
今春	-11.5557
服御	-11.5558
州兵	-11.5558
州蠻	-11.5559
不厭	-11.5559
和之	-11.556
勞績	-11.5561
辛酉詔	-11.5562
國名	-11.5562
拒命	-11.5563
漢制	-11.5563
與卿	-11.5568
嘉其	-11.557
敢有	-11.5571
愛人	-11.5572
求援	-11.5572
王之望	-11.5573
厲公	-11.5573
大呼曰	-11.5574
成憲	-11.5574
徽州	-11.5576
南歸	-11.5576
升卿	-11.5576
其臣	-11.5578
雍於	-11.5578
孫近	-11.5579
貳師	-11.5579
左司郎中	-11.5579
奉㫖	-11.558
璆	-11.558
崤	-11.5581
西秦	-11.5581
不得其時	-11.5581
左朝奉大夫	-11.5582
人臣之	-11.5583
訪問	-11.5583
其三	-11.5587
蠱	-11.5587
琇	-11.5588
梃	-11.5589
之深	-11.5589
日磾	-11.559
曳	-11.559
瞿	-11.559
鏤	-11.559
年八月	-11.5591
太息	-11.5591
玉帶	-11.5592
尋卒	-11.5595
令其	-11.5595
疾甚	-11.5595
朱滔	-11.5596
部尚書	-11.5596
内藏	-11.5596
汴河	-11.5596
狄道	-11.5598
積年	-11.5599
南征	-11.5599
見管	-11.5599
書於	-11.5599
賊將	-11.56
四出	-11.5601
舊章	-11.5601
總領所	-11.5601
姜維	-11.5601
有六	-11.5602
突圍	-11.5603
以聞詔	-11.5604
四海之	-11.5604
之先	-11.5604
之服	-11.5604
賊至	-11.5605
激怒	-11.5605
叛逆	-11.5605
不敢復	-11.5605
邊將	-11.5606
丙寅詔	-11.5606
爵禄	-11.5607
康伯	-11.5607
懿宗	-11.5613
給舍	-11.5614
妄有	-11.5619
上疏論	-11.5619
所犯	-11.5619
相對	-11.562
人李	-11.562
重輕	-11.5621
之人皆	-11.5622
具載	-11.5622
不悟	-11.5622
事見上	-11.5623
文昌	-11.5623
二十九日	-11.5625
秦隴	-11.5626
盡取	-11.5626
劾其	-11.5626
草澤	-11.5628
伯玉	-11.5629
以上者	-11.5629
反者	-11.563
入淮	-11.5632
班固	-11.5633
國太夫人	-11.5633
過之	-11.5634
伊吾	-11.5634
為念	-11.5634
移軍	-11.5634
乾歸	-11.5634
顧望	-11.5636
青州刺史	-11.5636
延朗	-11.5636
右翼	-11.5636
體國	-11.5636
果如	-11.5636
天時	-11.5638
為皇后	-11.5641
下民	-11.5641
以塞	-11.5642
者先	-11.5642
李公	-11.5643
義勇保甲	-11.5644
煦	-11.5645
二十七年	-11.5646
卻	-11.5646
之過也	-11.5647
雁門	-11.5647
禋	-11.5647
𦂳	-11.5647
彚	-11.5648
三千餘	-11.5649
楊存中	-11.5649
文徳殿	-11.565
諸色	-11.5651
殿前都指揮使	-11.5651
執其	-11.5653
茍且	-11.5654
時上	-11.5654
帽	-11.5654
萬九千	-11.5655
申省	-11.5656
沿海	-11.5658
方與	-11.5659
稱制	-11.566
四十二	-11.566
召入	-11.566
州為	-11.5661
提兵	-11.5662
世將	-11.5662
考官	-11.5662
希範	-11.5662
敗於	-11.5662
以便宜	-11.5664
臯陶	-11.5665
嵗入	-11.5665
嘉努	-11.5665
調度	-11.5666
貪暴	-11.5666
寛厚	-11.5667
凡八	-11.5668
貶所	-11.5672
義宣	-11.5673
奏狀	-11.5673
孤軍	-11.5673
國是	-11.5673
具析	-11.5675
彰徳	-11.5676
引衆	-11.5678
第一等	-11.5679
萊州	-11.5679
應天府	-11.5681
乾寧	-11.5681
二十九年	-11.5682
都鈐轄	-11.5682
進秩	-11.5682
在道	-11.5683
多故	-11.5685
石城	-11.5685
百六十	-11.5688
帝至	-11.5688
走馬	-11.5688
註云	-11.5689
為誰	-11.5689
可求	-11.5689
救援	-11.569
王武俊	-11.5691
豈可以	-11.5693
風憲	-11.5693
季氏	-11.5695
續綱目	-11.5696
臣實	-11.5696
等三人	-11.5696
視師	-11.5696
應奉	-11.5698
皆罷	-11.5699
何嘗	-11.57
潛善	-11.5702
辛丑詔	-11.5702
州知州	-11.5707
躬行	-11.5707
韃靼	-11.5707
溱	-11.5707
盧多遜	-11.5707
丁亥詔	-11.5708
葉夢得	-11.5708
深察	-11.5709
便民	-11.5709
先至	-11.571
勤王之師	-11.571
傅等	-11.571
未畢	-11.571
鈔法	-11.5712
而終	-11.5712
可罷	-11.5712
馮異	-11.5712
手札	-11.5712
則天	-11.5713
肅然	-11.5714
利病	-11.5714
彈劾	-11.5714
大㑹	-11.5715
元光	-11.5715
兎	-11.5716
成德	-11.5716
冠帶	-11.5717
暴虐	-11.5717
之獄	-11.5718
以徇	-11.5719
宫城	-11.572
刺配	-11.572
淮水	-11.572
鐵騎	-11.5721
逺來	-11.5721
疆場	-11.5723
序辰	-11.5725
勞力	-11.5726
洛州	-11.5726
賣鹽	-11.5728
則彼	-11.5729
獨斷	-11.5732
吳璘	-11.5733
反為	-11.5734
下情	-11.5736
移用	-11.5737
景德	-11.5738
王國	-11.5739
妄作	-11.5739
移於	-11.574
又非	-11.5744
奔潰	-11.5746
叛降	-11.5747
乃有	-11.5747
並起	-11.5748
所引	-11.5748
何其	-11.5748
偃師	-11.5748
畏服	-11.575
曰自古	-11.575
王崩	-11.5752
名實	-11.5753
升降	-11.5754
安東	-11.5754
至元	-11.5755
重賞	-11.5756
六路	-11.5758
汝為	-11.5758
三百餘	-11.5758
陳讀	-11.5759
吉凶	-11.576
合從	-11.576
以舟師	-11.576
人君之	-11.5761
諍	-11.5762
弗許	-11.5763
録用	-11.5764
太倉	-11.5764
初平	-11.5765
周人	-11.5766
凡此	-11.5767
無使	-11.5767
葉義問	-11.5768
文華	-11.5769
徳昭	-11.5769
兢	-11.577
蹕	-11.577
李常	-11.5771
碧	-11.5771
金明	-11.5772
蟠	-11.5772
顯著	-11.5773
位號	-11.5773
二品	-11.5773
魂	-11.5773
石敬瑭	-11.5774
㗖	-11.5774
分扶問翻	-11.5775
若欲	-11.5775
棲	-11.5776
事無	-11.5776
臠	-11.5777
勗	-11.5777
貧乏	-11.5777
上甚	-11.5778
輕兵	-11.5779
公正	-11.578
惶懼	-11.5781
往来	-11.5781
精銳	-11.5781
四十一	-11.5782
休兵	-11.5785
相當	-11.5786
甲申詔	-11.5786
不來	-11.5786
馳驛	-11.5786
熈河蘭㑹路	-11.5786
宸濠	-11.5789
盖以	-11.5789
既為	-11.5791
大笑	-11.5793
獨與	-11.5793
五十餘	-11.5795
俱死	-11.5796
袁宏	-11.5796
徳州	-11.5796
王僧辯	-11.5798
先取	-11.5798
復見	-11.5798
主客	-11.5802
於事	-11.5803
與弟	-11.5804
用命	-11.5804
斛斗	-11.5807
而更	-11.5808
不得志	-11.581
懐徳	-11.5811
農夫	-11.5813
還之	-11.5813
何有	-11.5814
表求	-11.5815
部長	-11.5815
沙河	-11.5815
常平錢	-11.5815
之助	-11.5817
附于	-11.5818
屬吏	-11.5818
疑懼	-11.582
立其子	-11.582
大順	-11.5821
馬步軍	-11.5822
兵威	-11.5822
月六日	-11.5823
十六人	-11.5824
垍	-11.5824
東漢	-11.5825
入河	-11.5828
除名勒停	-11.5829
樞宻都承㫖	-11.583
興元年	-11.5831
耒	-11.5832
他官	-11.5833
平民	-11.5833
隋書	-11.5833
守式又翻	-11.5833
佶	-11.5834
又賜	-11.5834
樓炤	-11.5834
鈐	-11.5835
水中	-11.5836
穉	-11.5836
所建	-11.5837
庚申詔	-11.5838
胙	-11.5838
光禄卿	-11.5839
燼	-11.5839
朝歌	-11.5839
澠池	-11.584
籍籍	-11.5841
張憲	-11.5842
之來	-11.5843
追奔	-11.5843
滿洲	-11.5843
去則	-11.5843
奸邪	-11.5845
正陽	-11.5846
稱藩	-11.5848
牢城	-11.585
太母	-11.5851
事亦	-11.5851
任事	-11.5852
非禮	-11.5856
享國	-11.5856
改更	-11.5857
劉晏	-11.5858
有功者	-11.5859
兵三萬	-11.5859
水名	-11.5859
春秋之義	-11.586
復興	-11.586
帥讀曰	-11.5863
善類	-11.5865
不臣	-11.5865
軍門	-11.5866
交翻	-11.5866
王拱辰	-11.5867
免其	-11.5867
之手	-11.5868
王庭	-11.5868
癸酉詔	-11.587
凡二年	-11.5871
前日之	-11.5872
上曰然	-11.5873
附傳	-11.5873
義問	-11.5874
如金	-11.5875
東府	-11.5877
陳侯	-11.5877
保忠	-11.5879
制曰	-11.588
公使錢	-11.588
從來	-11.588
䕶送	-11.588
共攻	-11.588
右司郎中	-11.588
四十四	-11.5888
贍軍	-11.5888
箋	-11.5888
已具	-11.5889
正始	-11.589
起居注	-11.5891
孫固	-11.5891
清明	-11.5892
上卷	-11.5892
闔門	-11.5892
告者	-11.5892
大司空	-11.5893
月八日	-11.5893
婿	-11.5893
鏜	-11.5894
催促	-11.5894
神道碑	-11.5896
馬上	-11.5896
三分之一	-11.5897
大通	-11.5897
葭	-11.5897
有司請	-11.5898
嘯聚	-11.5898
直學士院	-11.5898
就食	-11.5898
丙子詔	-11.5899
小官	-11.5899
不悛	-11.59
何患	-11.5901
賀蘭	-11.5901
東上閤門使	-11.5901
煑	-11.5901
入江	-11.5901
鼓舞	-11.5902
所存	-11.5902
麋	-11.5903
太學博士	-11.5903
置場	-11.5905
楶	-11.5905
啇	-11.5905
朝義	-11.5905
謂輔臣曰	-11.5906
保正	-11.5907
免死	-11.5908
将來	-11.5908
被災	-11.5909
朕心	-11.5909
聖斷	-11.5911
賦歛	-11.5912
不能支	-11.5912
昌邑	-11.5916
袁州	-11.5916
羣議	-11.5917
小校	-11.5917
闕額	-11.5918
薨子	-11.5918
四十九	-11.5919
帥師伐	-11.592
又恐	-11.592
久任	-11.5922
未央宫	-11.5922
調兵	-11.5924
縣主簿	-11.5924
過也	-11.5924
酒酣	-11.5926
之柄	-11.5927
遣使臣	-11.5928
合州	-11.5928
先已	-11.5929
夏至	-11.593
仁恭	-11.593
乙巳詔	-11.5932
為副	-11.5933
希憲	-11.5939
地道	-11.5941
響	-11.5942
亥翻	-11.5943
忠正	-11.5943
覈實	-11.5945
甲子詔	-11.5945
藩邸	-11.5946
良將	-11.5946
昔者	-11.5946
入關	-11.5947
為西	-11.5948
騎士	-11.5949
王堯臣	-11.595
本院	-11.595
睿聖	-11.5951
乍	-11.5951
百斤	-11.5951
京邑	-11.5952
成湯	-11.5953
王𢎞	-11.5953
故得	-11.5953
盡歸	-11.5954
十國紀年	-11.5954
經度	-11.5954
已除	-11.5956
酬奬	-11.5956
以廣	-11.5956
希萼	-11.5957
位在	-11.5957
箇	-11.5958
師還	-11.5959
保信	-11.5959
澈	-11.5959
田令孜	-11.596
乃立	-11.596
豈惟	-11.596
舟中	-11.5961
捕得	-11.5961
謗訕	-11.5961
劉昫曰	-11.5962
軍敗	-11.5963
熒惑犯	-11.5963
桞	-11.5964
幵	-11.5964
受賕	-11.5965
施之	-11.5965
晉國	-11.5965
於理	-11.5966
之稱	-11.5967
最後	-11.5967
楚師	-11.5967
稱為	-11.5968
軍行	-11.5968
息兵	-11.5968
之大者	-11.5968
者五	-11.5969
遂出	-11.5969
所歸	-11.597
王權	-11.5972
史臣	-11.5973
為己任	-11.5973
知名	-11.5974
羿	-11.5975
黜責	-11.5976
當立	-11.5977
無極	-11.5979
二里	-11.5979
韓王	-11.5981
多出	-11.5981
疏奏	-11.5981
遣李	-11.5982
舉朝	-11.5982
儀制	-11.5983
童子	-11.5984
攻討	-11.5987
杜預曰	-11.5988
王時雍	-11.5991
天監	-11.5991
㧞之	-11.5991
因謂	-11.5991
以朱熹	-11.5992
可望	-11.5993
取勝	-11.5993
之力也	-11.5993
考詳	-11.5995
山人	-11.5996
䇿應	-11.5997
安惇	-11.5998
非才	-11.5998
天戒	-11.5998
六十四	-11.5999
抵當	-11.6001
漢屬	-11.6002
聞命	-11.6004
俊卿	-11.6007
其背	-11.6008
穆王	-11.6009
秦兵	-11.601
侍御史知雜事	-11.6012
三族	-11.6012
縣丞	-11.6013
萬餘緡	-11.6014
利州路	-11.6014
將作監	-11.6018
忠武節度使	-11.6018
致之	-11.6019
也或作	-11.6019
航	-11.6021
刑部員外郎	-11.6022
掇	-11.6022
巴西	-11.6023
厥九勿翻	-11.6023
求其	-11.6024
蹂踐	-11.6024
皥	-11.6024
一統	-11.6025
㩁	-11.6025
閉城	-11.6026
峙	-11.6027
法者	-11.6028
府兵	-11.6029
權要	-11.6029
鏡	-11.6029
百五十里	-11.603
張晏曰	-11.603
郿	-11.6031
浮屠	-11.6032
華陽	-11.6032
為陜西	-11.6034
事泄	-11.6035
無能	-11.6035
屯於	-11.6035
御札	-11.6035
料錢	-11.6038
貼黄稱	-11.6041
論功	-11.6042
借職	-11.6042
權衡	-11.6043
不貲	-11.6044
朕欲	-11.6044
之源	-11.6044
意謂	-11.6045
解鹽	-11.6045
荆門	-11.6046
鎮惡	-11.6049
馬歩軍	-11.605
不敢出	-11.6051
五十四	-11.6051
愛其	-11.6052
歸業	-11.6052
每月	-11.6052
運使	-11.6053
闕官	-11.6053
其鋒	-11.6053
二百六十	-11.6053
後秦	-11.6053
八年春正月	-11.6053
師旦	-11.6054
江口	-11.6055
寮	-11.6055
家貧	-11.6056
性剛	-11.6057
汀	-11.6058
丁壯	-11.6058
九十里	-11.6059
妃嬪	-11.6059
諸路監司	-11.6062
殿庭	-11.6063
華山	-11.6063
定策	-11.6063
虹	-11.6064
道州	-11.6064
嶺表	-11.6065
萬安	-11.6067
温伯	-11.6068
斯民	-11.6069
一百一十	-11.607
文天祥	-11.6071
未晚	-11.6074
先定	-11.6075
邴	-11.6076
騎都尉	-11.6076
承務郎	-11.6077
迎敵	-11.6079
三城	-11.6081
滬	-11.6083
盡矣	-11.6085
散悉亶翻	-11.6085
節次	-11.6085
在京師	-11.6085
綿州	-11.6085
神人	-11.6086
唾	-11.6086
聳	-11.6087
釀	-11.6088
僥	-11.6088
燉煌	-11.6089
齧	-11.6089
置獄	-11.6092
為例	-11.6092
為上言	-11.6093
支給	-11.6093
寰	-11.6094
詢訪	-11.6094
屬籍	-11.6096
寛大	-11.6096
臧否	-11.6097
豈可不	-11.6097
庻幾	-11.6098
納錢	-11.6098
首惡	-11.6099
抑配	-11.61
知朝廷	-11.6103
租稅	-11.6103
機宜	-11.6103
降出	-11.6103
莫肯	-11.6104
字叔	-11.6105
𢎞範	-11.6106
桂林	-11.6106
孫沔	-11.6106
盡得	-11.6107
倍道	-11.6107
太弟	-11.6108
尹洙	-11.6109
走保	-11.6109
知洪州	-11.611
有舊	-11.611
升之	-11.611
辨之	-11.6111
師敗績	-11.6113
五郡	-11.6113
不爲	-11.6113
留滯	-11.6114
各令	-11.6115
都廵檢使	-11.6115
之由是	-11.6115
來奔	-11.6117
期以	-11.6117
十二人	-11.6119
進止	-11.6121
沈與求	-11.6123
此盖	-11.6125
俘斬	-11.6127
一國	-11.6127
臣昨	-11.6129
王旦曰	-11.6132
優詔	-11.6134
而實	-11.6135
情狀	-11.6136
䝉正	-11.6136
不愛	-11.6136
汾水	-11.6136
法官	-11.6138
留兵	-11.6139
黔中	-11.614
以遺	-11.6143
賻	-11.6145
或可	-11.6145
合為一	-11.6145
帝嘗	-11.6146
為義	-11.6147
猗盧	-11.6148
晉師	-11.6148
之極	-11.6149
厰	-11.6149
沴	-11.6149
炅	-11.6149
三百六十	-11.6149
率多	-11.615
家法	-11.6151
進者	-11.6152
曰不可	-11.6153
雍於用翻	-11.6153
瘡	-11.6153
纓	-11.6154
左奉議郎	-11.6154
餼	-11.6154
敕令	-11.6155
秀實	-11.6155
髙氏	-11.6155
作書	-11.6156
博學	-11.6156
儲蓄	-11.6156
建德	-11.6156
審官	-11.6157
渭橋	-11.6159
光化	-11.6159
侍御	-11.616
相拒	-11.616
深然之	-11.616
運判	-11.616
指陳	-11.6162
壬午詔	-11.6162
使君	-11.6162
即帝位	-11.6162
張永	-11.6163
皃	-11.6164
程顥	-11.6165
四十七	-11.6166
郡隋	-11.6168
中㫖	-11.6169
云爾	-11.6169
怨怒	-11.6169
探報	-11.6169
景公	-11.617
山海經	-11.617
太醫	-11.6171
雖在	-11.6171
宜以	-11.6173
曹氏	-11.6174
角切	-11.6174
一本	-11.6176
漢使	-11.6176
先零	-11.6177
生而	-11.6178
都廵檢	-11.6179
無窮之	-11.6179
而遽	-11.618
親親	-11.618
新命	-11.618
州司户	-11.6181
以紓	-11.6181
稍有	-11.6183
督諸軍	-11.6183
明屬	-11.6185
臣子之	-11.6186
以叛	-11.6187
定制	-11.6188
禮部言	-11.6189
摩正	-11.6189
明旦	-11.6189
與共	-11.6192
今河南	-11.6192
臣以謂	-11.6193
到闕	-11.6193
昌縣	-11.6195
武城	-11.6196
因曰	-11.6198
蕃落	-11.6199
進讀	-11.6201
知成都府	-11.6201
顯祖	-11.6203
欲翻	-11.6207
九錫	-11.6208
唐志	-11.6208
少誠	-11.6208
古文	-11.6208
悉歸	-11.6208
月十一日	-11.6209
青徐	-11.621
荔	-11.6211
而治	-11.6211
汴口	-11.6212
安禄山	-11.6212
頗為	-11.6213
甲寅詔	-11.6214
新蔡	-11.6214
察罕特穆爾	-11.6214
江中	-11.6214
分給	-11.6215
大事記續編卷	-11.6215
勝音	-11.6215
啖	-11.6215
㕘知政事	-11.6215
楮	-11.6215
羈縻	-11.6215
轉戰	-11.6216
酈瓊	-11.6218
襟	-11.6218
坐贓	-11.6218
簡易	-11.6218
唐室	-11.6218
遣子	-11.6219
派	-11.6219
劉表	-11.6219
掊克	-11.622
今宜	-11.622
飼	-11.622
副都	-11.6222
第三等	-11.6223
赫連	-11.6224
中牟	-11.6225
湟	-11.6225
樂工	-11.6226
其手	-11.6226
不可使	-11.6227
戊辰詔	-11.6227
邊陲	-11.6227
按實録	-11.6227
𣙜場	-11.6229
十道	-11.6231
朝辭	-11.6232
孝武皇帝	-11.6232
惟忠	-11.6232
伏惟	-11.6234
文侯	-11.6236
數百騎	-11.6236
溉	-11.6238
南鄭	-11.6239
數以聞	-11.6239
分布	-11.624
老疾	-11.6241
勸上	-11.6242
六品	-11.6244
帝如	-11.6246
太子太保	-11.6247
辛亥詔	-11.6247
載於	-11.6247
自用	-11.6248
目前	-11.625
白虎	-11.625
益以	-11.6251
詔送	-11.6251
萬戸	-11.6252
二百餘	-11.6253
熟户	-11.6253
勁兵	-11.6254
陕	-11.6256
百禄	-11.6258
一見	-11.6259
一二人	-11.6259
孝惠	-11.6259
金師	-11.626
西邊	-11.6261
等攻	-11.6261
億萬	-11.6262
不患	-11.6262
知逺	-11.6262
輸納	-11.6263
王文	-11.6263
興平	-11.6264
大忠	-11.6264
太子太師	-11.6265
月氏	-11.6266
栻	-11.6267
使得	-11.6267
知亳州	-11.6268
每歲	-11.6268
東城	-11.6268
二百餘人	-11.6269
收糴	-11.6269
蠟	-11.627
西鄙	-11.627
在此月	-11.6271
仁祖	-11.6272
西南夷	-11.6273
庶務	-11.6273
訴於	-11.6273
入内副都知	-11.6273
謝安	-11.6273
為心	-11.6275
餅	-11.6275
哈達	-11.6276
折之	-11.6276
茂實	-11.6277
筏	-11.6279
乙酉詔	-11.628
涖	-11.6281
亞夫	-11.6281
哀公	-11.6282
孫抃	-11.6283
凋	-11.6283
嘿	-11.6283
擄	-11.6284
之苦	-11.6284
道輔	-11.6284
而書	-11.6285
掖門	-11.6285
廣寧	-11.6286
修身	-11.6286
賜銀絹	-11.6286
聞朝廷	-11.6287
坂	-11.6287
豐稔	-11.6287
詛	-11.6288
與之同	-11.6288
報曰	-11.6289
犒設	-11.6289
臣光曰	-11.6289
可知也	-11.629
門内	-11.629
日夕	-11.629
矛盾	-11.6291
下諸路	-11.6291
僣號	-11.6292
以為便	-11.6292
使司	-11.6293
義不	-11.6294
謀作亂	-11.6296
當誅	-11.6296
相聚	-11.6296
呉玠	-11.6296
臣所以	-11.6297
馬援	-11.6299
問翻	-11.6299
昭義節度使	-11.6299
屢請	-11.6302
忠嗣	-11.6302
門下侍郎同平章事	-11.6303
有貞	-11.6303
聞有	-11.6304
列國	-11.6305
昊天	-11.6305
不能容	-11.6309
後主	-11.6309
徳威	-11.6309
攻守	-11.631
秦州刺史	-11.6311
林翻	-11.6312
兵守	-11.6313
捕盗	-11.6313
公等	-11.6314
不逞	-11.6316
之選	-11.6317
已盡	-11.6318
之别	-11.632
蕭衍	-11.6321
公薨	-11.6321
席益	-11.6321
洛口	-11.6322
生辰	-11.6322
壬申詔	-11.6324
經畧司言	-11.6324
複	-11.6325
一里	-11.6325
失道	-11.6325
主將	-11.6326
王承	-11.6326
鎮國	-11.6326
者一人	-11.6327
所長	-11.6327
知廬州	-11.6327
轉相	-11.6327
張洎	-11.6328
近地	-11.6329
武成	-11.6329
先是詔	-11.6332
可憫	-11.6333
次年	-11.6334
陜西路	-11.6336
左右司	-11.6336
祀天	-11.6336
至建康	-11.6337
青海	-11.6337
計者	-11.6337
刻石	-11.6337
何者	-11.6339
已降指揮	-11.6339
先公	-11.6339
安帝	-11.634
閤門宣賛舍人	-11.6342
翼日	-11.6342
逃去	-11.6343
武皇	-11.6344
元振	-11.6345
已是	-11.6346
幹辦公事	-11.6346
鐫	-11.6346
按問	-11.6346
更令	-11.6347
仁聖	-11.6347
宣布	-11.6347
斥堠	-11.6348
㒺	-11.6349
禫	-11.6349
言臣聞	-11.6349
仍許	-11.6349
二尺	-11.6351
之忠	-11.6351
疵	-11.6352
褊	-11.6352
夷陵	-11.6353
恣横	-11.6354
東莞	-11.6355
唐六典	-11.6355
不著	-11.6356
中京	-11.6357
負陛下	-11.6358
隨宜	-11.6358
散走	-11.636
范育	-11.6361
知定州	-11.6363
東西路	-11.6363
役者	-11.6364
宗旦	-11.6366
念之	-11.6366
留京師	-11.6366
家貲	-11.6367
裁抑	-11.6367
伏地	-11.6367
不精	-11.6368
度支判官	-11.6368
德音	-11.6369
得功	-11.6369
㑹合	-11.6372
百家	-11.6373
國風	-11.6373
效之	-11.6375
叔獻	-11.6376
理㑹	-11.6378
馬氏	-11.6378
河北轉運使	-11.6378
朱氏	-11.6379
萬機	-11.6379
保其	-11.6381
省中	-11.6384
者給	-11.6385
知政事	-11.6385
醴	-11.6385
河渠	-11.6386
專任	-11.6386
入衛	-11.6387
自首	-11.6388
者故	-11.6388
旣而	-11.6389
城在今	-11.639
以治	-11.639
亦謂	-11.639
熊本	-11.6392
上林	-11.6393
不果行	-11.6394
松江	-11.6394
左藏	-11.6395
且至	-11.6396
天文志	-11.6396
計切	-11.6396
帝使	-11.6401
人畜	-11.6402
照㑹	-11.6402
其前	-11.6403
接戰	-11.6403
在官	-11.6403
等五人	-11.6404
敗盟	-11.6405
眩	-11.6405
未見其	-11.6406
殺獲	-11.6406
餓死	-11.6407
其在	-11.6407
厯代	-11.6407
日暮	-11.6408
盡出	-11.6408
百四十	-11.641
東封	-11.641
詣行在	-11.6411
溺死者	-11.6412
則雖	-11.6412
涪陵	-11.6413
尉氏	-11.6413
退走	-11.6413
弑之	-11.6413
片	-11.6413
趙挺之	-11.6414
遷之	-11.6414
度僧牒	-11.6415
湘州	-11.6415
俚	-11.6416
比類	-11.6416
百濟	-11.6416
刺之	-11.6416
特立	-11.6416
映	-11.6417
餘並	-11.6417
臣之所	-11.6418
幢	-11.6418
以本紀	-11.6418
託以	-11.6419
成侯	-11.6419
乃拜	-11.6422
案牘	-11.6422
蒙遜	-11.6423
則此	-11.6427
也謂	-11.6428
在河南	-11.643
崔浩	-11.6431
安慶	-11.6431
臣不知	-11.6432
大徳	-11.6432
照管	-11.6433
十卷	-11.6435
洋州	-11.6436
舊人	-11.6437
千石	-11.6438
魏主如	-11.6439
匡𦙍	-11.6439
又作	-11.644
力請	-11.644
退朝	-11.644
癸未詔	-11.6442
優容	-11.6442
侍從臺諫	-11.6442
外其餘	-11.6443
智髙	-11.6443
泗水	-11.6448
賜金	-11.6448
府治	-11.6449
邀之	-11.6451
大行皇帝	-11.6452
儀仗	-11.6453
既入	-11.6453
也吾	-11.6454
今并	-11.6455
言朝廷	-11.6457
丙午詔	-11.6457
尋命	-11.6457
申奏	-11.6457
斥之	-11.6459
切直	-11.646
箕子	-11.646
呂翻	-11.6465
孰與	-11.6466
其所以	-11.6466
漢州	-11.6467
專委	-11.6467
悉心	-11.6467
悉為	-11.6469
市舶	-11.647
舉者	-11.647
書籍	-11.6471
文皇帝	-11.6471
西事	-11.6472
率下同	-11.6473
前任	-11.6474
恭王	-11.6476
秘書省正字	-11.6476
殛	-11.6476
守本官	-11.6476
淳于	-11.6477
潦	-11.6477
濮安懿王	-11.6477
摇	-11.6477
邊吏	-11.6477
右副元帥	-11.6478
鶻	-11.6479
鷙	-11.6479
中二千石	-11.648
廣南東路	-11.648
葬之	-11.648
州南	-11.648
臆	-11.648
弹	-11.6481
淳熙	-11.6481
蒙古兵	-11.6481
蕪	-11.6481
乃除	-11.6481
上官均	-11.6482
趾	-11.6482
湊	-11.6482
所治	-11.6483
匹磾	-11.6483
貊	-11.6483
煎	-11.6483
閽	-11.6484
義成	-11.6484
曰晉	-11.6485
中散大夫	-11.6485
菲	-11.6486
右武	-11.6486
戀翻	-11.6486
筵	-11.6487
千八百	-11.6488
之義也	-11.649
未息	-11.6491
還報	-11.6491
成風	-11.6492
陛下欲	-11.6493
上顧	-11.6494
其所為	-11.6495
請帝	-11.6495
與金	-11.6496
養士	-11.6496
劉子羽	-11.6496
孔光	-11.6497
輦運	-11.6497
百一十	-11.6498
疾疫	-11.6499
不害	-11.6499
北都	-11.6501
鹽池	-11.6501
弑逆	-11.6502
曰陣	-11.6502
攻具	-11.6503
四員	-11.6503
説文	-11.6504
問計	-11.6505
禍及	-11.6505
懐逺	-11.6506
憸	-11.6506
但欲	-11.6507
各自	-11.6509
不可勝數	-11.6511
州民	-11.6511
獄具	-11.6511
知桂州	-11.6513
離心	-11.6514
月二日	-11.6516
李寳	-11.6516
以拒之	-11.6517
戊午詔	-11.6517
増修	-11.6518
用法	-11.6518
前詔	-11.6519
送吏部	-11.652
害政	-11.6521
功也	-11.6521
其日	-11.6521
干預	-11.6522
寧夏	-11.6523
三班奉職	-11.6524
特免	-11.6524
天生	-11.6526
鹽鐡	-11.6526
鋹	-11.6527
大寳	-11.6527
谷口	-11.6528
縱使	-11.6529
帝深	-11.6529
御容	-11.653
悉力	-11.6531
冀州刺史	-11.6532
制其	-11.6532
愕	-11.6533
壬戌詔	-11.6534
無一言	-11.6534
而臣	-11.6535
建明	-11.6536
欲降	-11.6537
今從實錄	-11.6537
問疾	-11.6537
悔過	-11.6538
汝隂	-11.6539
褥	-11.6539
從所請也	-11.654
之㫖	-11.6542
開寶	-11.6542
妻之	-11.6542
而可	-11.6544
天章閣	-11.6544
幕職州縣官	-11.6545
叅知政事	-11.6545
往見	-11.6545
禮部員外郎	-11.6545
正議大夫	-11.6545
欠負	-11.6546
繫於	-11.6546
如之何	-11.6547
鋤	-11.6547
一寸	-11.6548
旃	-11.6548
鱗	-11.6548
詎	-11.6549
煮	-11.6549
瑣	-11.6549
驃騎將軍	-11.655
程昉	-11.655
偏禆	-11.655
芟	-11.6551
吏額	-11.6551
迓	-11.6552
欝	-11.6552
蓮	-11.6553
積欠	-11.6553
遇赦	-11.6555
赴都堂	-11.6556
言是也	-11.6557
臨軒	-11.656
封為	-11.656
貪殘	-11.6561
聖賢	-11.6562
蠕蠕	-11.6562
發運	-11.6562
郭崇韜	-11.6563
羌人	-11.6563
險固	-11.6566
然後可	-11.6567
脅從	-11.6568
湯武	-11.6568
小雅	-11.6569
禹錫	-11.6569
與衆	-11.657
異之	-11.657
戎馬	-11.657
有如	-11.6571
曰古者	-11.6571
已乆	-11.6572
隂謀	-11.6572
亦謂之	-11.6573
乃降	-11.6574
當職官	-11.6576
紀作	-11.6579
其子弟	-11.6582
歸田里	-11.6583
事權	-11.6583
䝉古兵	-11.6584
與中國	-11.6584
理當	-11.6584
遼州	-11.6585
重華	-11.6585
軍屯	-11.6585
老矣	-11.6585
機宻	-11.6585
各一員	-11.6586
咸通	-11.6587
所望	-11.6588
伐趙	-11.6589
出則	-11.659
丙戌詔	-11.659
不歸	-11.6591
輔佐	-11.6591
士衆	-11.6594
開封府推官	-11.6594
五行志	-11.6595
因是	-11.6596
其咎	-11.6596
王贍	-11.6596
請自	-11.6598
山名	-11.6602
尚方	-11.6603
減省	-11.6603
亂兵	-11.6603
高陽	-11.6604
知州軍	-11.6604
閣下	-11.6606
靳翻	-11.6606
但見	-11.6607
無憂	-11.6607
迺	-11.6609
熾磐	-11.6612
司農少卿	-11.6612
脇	-11.6613
抉	-11.6615
開封人	-11.6615
縂	-11.6616
秦熺	-11.6616
牴牾	-11.6616
肺	-11.6617
進發	-11.6617
靺鞨	-11.6617
培	-11.6618
鬲	-11.6618
外翻	-11.6618
酤	-11.6619
們	-11.6619
大矣	-11.6619
欲留	-11.662
蕭望之	-11.662
朱勔	-11.662
蹶	-11.6621
逋負	-11.6621
帑藏	-11.6622
勝音升	-11.6623
辛巳詔	-11.6623
我也	-11.6624
宋璟	-11.6628
戊寅詔	-11.6628
辱之	-11.6629
李固	-11.6629
如聞	-11.6631
營造	-11.6632
耆老	-11.6632
英武	-11.6632
杜門	-11.6636
方田	-11.6637
宣言	-11.6637
上奏	-11.6637
送京師	-11.6638
力言	-11.6639
師雄	-11.6639
條目	-11.6641
上既	-11.6642
經略司言	-11.6643
太山	-11.6644
也宜	-11.6644
諜者	-11.6644
路轉運司	-11.6646
茂州	-11.6646
直前	-11.6646
大寧	-11.665
増損	-11.6652
祖謙	-11.6652
于天下	-11.6652
制勝	-11.6652
丞相御史	-11.6653
慟	-11.6656
坊場	-11.6656
不分	-11.6658
而坐	-11.6658
凡二十	-11.6658
誰能	-11.6658
因留	-11.6659
加罪	-11.666
興化	-11.6661
謂陛下	-11.6662
不憂	-11.6662
當如	-11.6663
震驚	-11.6663
不除	-11.6665
宋置	-11.6666
鄠	-11.6666
張説	-11.6666
長寧	-11.6666
子諲	-11.6667
曰此非	-11.6667
獄吏	-11.6669
楊政	-11.6669
翻又音	-11.667
有司言	-11.667
廬陵王	-11.667
舊紀書	-11.6671
李廣	-11.6671
漢蕃	-11.6671
也春秋	-11.6672
丈餘	-11.6673
鎮兵	-11.6673
元皇帝	-11.6673
于前	-11.6674
山澤	-11.6674
不甚	-11.6675
節用	-11.6676
酒税	-11.6676
摹	-11.6677
等軍	-11.6677
駞	-11.6679
張宗	-11.6679
盡誅	-11.6679
州司馬	-11.668
同修起居注	-11.6682
熊克小厯	-11.6683
南燕	-11.6683
㑹計	-11.6683
與臣	-11.6684
帷幄	-11.6687
近來	-11.6687
賊中	-11.6688
逡	-11.6688
桀紂	-11.6688
幘	-11.6688
自處	-11.6688
六宫	-11.6689
相謂曰	-11.6689
大慶殿	-11.6689
衾	-11.6689
水入	-11.6689
詔許	-11.669
髦	-11.669
器幣	-11.669
䝉遜	-11.669
庾亮	-11.6692
三十餘人	-11.6692
還鎮	-11.6692
乙丑詔	-11.6693
就職	-11.6695
徙之	-11.6695
趙葵	-11.6696
馬頭	-11.6697
悖逆	-11.6697
羡餘	-11.6698
義真	-11.67
馳入	-11.67
為帥	-11.6701
之事也	-11.6701
壬子詔	-11.6701
不曾	-11.6701
河清	-11.6702
監門	-11.6702
拜謝	-11.6703
公府	-11.6704
河橋	-11.6704
至今未	-11.6705
百户	-11.6705
鎮西	-11.6706
諌議大夫	-11.6706
復圭	-11.6706
國信	-11.6706
公薨子	-11.6707
庚辰詔	-11.6709
又稱	-11.671
其處	-11.671
導之	-11.6712
雅翻	-11.6713
蠲免	-11.6713
後復	-11.6714
宫掖	-11.6716
猶恐	-11.6716
淇	-11.6717
安居	-11.6717
居于	-11.6718
崇勲	-11.6718
建節	-11.6719
禦敵	-11.672
歴任	-11.672
宣諭使	-11.6721
儀衛	-11.6722
延光	-11.6723
水上	-11.6724
相連	-11.6725
鮮于	-11.6727
巴東	-11.6728
身自	-11.6729
於家	-11.6729
後周置	-11.6729
文辭	-11.6729
移屯	-11.6729
凉王	-11.6729
小過	-11.673
驍騎	-11.673
非惟	-11.6733
畏避	-11.6733
貶秩	-11.6735
多難	-11.6738
數與	-11.6742
己未詔	-11.6743
倬	-11.6744
元祐中	-11.6745
石顯	-11.6745
范純粹	-11.6748
奏對	-11.6749
曰吾聞	-11.6749
臣近	-11.6749
之兄	-11.6749
啗	-11.675
隋改	-11.675
仰視	-11.6751
呂大防	-11.6752
躐	-11.6752
棚	-11.6752
七曰	-11.6752
太白經天	-11.6752
箱	-11.6753
媪	-11.6753
備邊	-11.6753
所給	-11.6753
陳彭年	-11.6753
蓼	-11.6754
武庫	-11.6755
胤	-11.6755
聖學	-11.6756
百倍	-11.6756
形於	-11.6756
踣	-11.6757
滏	-11.6758
陛下宜	-11.6758
糴本	-11.6758
曰然則	-11.6762
問於	-11.6762
邪説	-11.6763
者莫不	-11.6764
源出	-11.6764
范瓊	-11.6767
拱手	-11.6767
宇文泰	-11.6767
以本官	-11.6767
非臣	-11.6769
兵仗	-11.6771
錢引	-11.6771
名號	-11.6772
保䕶	-11.6772
陳蕃	-11.6772
定䇿	-11.6773
依奏	-11.6775
上書請	-11.6775
舜卿	-11.6775
彗星見	-11.6776
布帛	-11.6777
在東	-11.6777
宋師	-11.6778
不減	-11.6778
智者	-11.6779
縣明屬	-11.6782
稽留	-11.6782
上㫖	-11.6782
東夷	-11.6783
韋昭曰	-11.6783
不急	-11.6785
外城	-11.6785
其女	-11.6787
遥郡	-11.6787
歸漢	-11.6787
蔡襄	-11.6788
勞民	-11.6788
三京	-11.679
王琳	-11.679
自經	-11.6792
切姓	-11.6792
語人曰	-11.6795
其祖	-11.6796
日至	-11.6796
金石	-11.6797
軍還	-11.6798
分扶	-11.6799
州軍事	-11.6799
盡殺之	-11.6799
于周	-11.6801
奏薦	-11.6801
時在	-11.6802
大樂	-11.6805
淮陽王	-11.6805
上柱國	-11.6805
內	-11.6807
行状	-11.6808
潰散	-11.681
遣其弟	-11.681
資治通鑑	-11.6811
名將	-11.6812
州刺史張	-11.6813
元年二月	-11.6813
入汴	-11.6815
凡九	-11.6816
作坊	-11.6816
盆	-11.6816
輟視朝	-11.6816
安肯	-11.6816
故也詔	-11.6817
減半	-11.6818
知鄧州	-11.6819
鯉	-11.6819
稼穡	-11.6819
胡三省注	-11.682
豚	-11.682
監修國史	-11.682
貧富	-11.6821
梁州刺史	-11.6821
好問	-11.6822
此地	-11.6822
褐	-11.6822
錢惟演	-11.6823
跌	-11.6823
度量	-11.6823
訂	-11.6823
捜	-11.6823
吾屬	-11.6824
致太平	-11.6824
綘	-11.6825
殿後	-11.6825
檝	-11.6826
戕	-11.6827
庚子詔	-11.6828
訶	-11.6829
鈴	-11.6831
五萬人	-11.6832
欽宗	-11.6833
築壘	-11.6834
惻然	-11.6834
王鐸	-11.6835
公侯	-11.6836
諸衛	-11.6837
韋氏	-11.6839
言之則	-11.6839
亡去	-11.684
封駮	-11.6841
田况	-11.6841
將安	-11.6842
鉅萬	-11.6842
驪山	-11.6844
燕趙	-11.6845
新附	-11.6845
置左右	-11.6846
新豐	-11.6846
伶	-11.6847
之右	-11.6848
結切	-11.6849
李希烈	-11.6849
皆與	-11.6849
優與	-11.6849
梓州路	-11.6852
别廟	-11.6852
閩主	-11.6853
大集	-11.6853
其徳	-11.6854
民困	-11.6854
如一	-11.6854
金主曰	-11.6855
不發	-11.6856
白溝	-11.6856
進據	-11.6856
厚利	-11.6856
事見二百	-11.6857
陛下即位	-11.6858
目録	-11.6859
邾子	-11.6859
三十日	-11.6861
行伍	-11.6861
按兵	-11.6862
五色	-11.6863
南唐	-11.6863
本貫	-11.6863
路轉運使	-11.6865
前議	-11.6865
力主	-11.6865
運司	-11.6866
進逼	-11.6868
刀翻	-11.6868
同三品	-11.6869
因名	-11.6872
湖北京西	-11.6872
更以	-11.6873
等共	-11.6875
金華	-11.6876
田産	-11.6877
晉兵	-11.6877
都總管	-11.6879
既下	-11.688
不惜	-11.688
武陽	-11.6881
者以其	-11.6882
以輔	-11.6882
面諭	-11.6884
大姓	-11.6884
又多	-11.6885
汴梁	-11.6885
亦足	-11.6885
百騎	-11.6886
廢太子	-11.6887
國威	-11.6887
及還	-11.6887
江寧府	-11.689
死地	-11.6891
嫗	-11.6892
悸	-11.6892
東井	-11.6892
詔户部	-11.6892
兵家	-11.6892
彈壓	-11.6893
瞰	-11.6893
鏁	-11.6893
徤	-11.6893
肱	-11.6894
后曰	-11.6894
亷恥	-11.6894
蟬	-11.6894
噉	-11.6894
旂	-11.6894
宫女	-11.6895
民家	-11.6895
州北	-11.6895
趙君錫	-11.6895
續漢志	-11.6897
朏	-11.6897
遂陷	-11.6899
歸路	-11.69
施行從之	-11.69
舋	-11.6901
間隙	-11.6901
以為可	-11.6901
叛臣	-11.6901
天都	-11.6902
雖小	-11.6902
知渭州	-11.6902
震怒	-11.6902
宋庠	-11.6902
嗣濮王	-11.6903
强壯	-11.6903
詔今後	-11.6905
致此	-11.6905
鄧艾	-11.6905
役使	-11.6906
災變	-11.6907
凡三年	-11.6908
一千五百	-11.691
入粟	-11.691
為太保	-11.6911
之德	-11.6911
為列侯	-11.6912
疑惑	-11.6914
欲誅	-11.6914
復使	-11.6914
蕭禧	-11.6916
力役	-11.6917
大學	-11.6918
不可得而	-11.6919
良佐	-11.692
無逸	-11.6921
叛者	-11.6922
正月盡	-11.6925
堂吏	-11.6926
於太廟	-11.6926
答之	-11.6928
先人	-11.6929
並須	-11.6929
亡者	-11.6931
某人	-11.6932
節度使同平章事	-11.6933
孝先	-11.6934
其患	-11.6934
秦晉	-11.6935
君親	-11.6935
訴理	-11.6936
安陵	-11.6936
申錫	-11.6938
于宋	-11.6939
寳應	-11.6939
衆庶	-11.694
隰州	-11.6942
月俸	-11.6944
雖非	-11.6944
叔向	-11.6945
接伴	-11.6946
因與	-11.6947
十八里	-11.6948
為兵部尚書	-11.6948
非我	-11.6949
上謂宰相曰	-11.695
本同	-11.695
城堡	-11.6952
入援	-11.6952
関	-11.6954
為河東	-11.6956
淮泗	-11.6956
不計	-11.6957
新平	-11.6957
鄫	-11.6957
移鎮	-11.6957
族誅	-11.6957
電	-11.6958
間諜	-11.6958
通作	-11.6958
進士出身	-11.6959
司馬光言	-11.6959
趣之	-11.6959
䟦	-11.6959
其詞	-11.6959
醫藥	-11.6959
出軍	-11.696
𠫭	-11.696
任音壬	-11.6962
三員	-11.6962
恩信	-11.6962
䟦扈	-11.6962
嵬	-11.6962
汝輩	-11.6963
諱改	-11.6963
羔	-11.6963
服䖍曰	-11.6963
道學	-11.6963
款	-11.6963
須臾	-11.6964
逺者	-11.6964
法寺	-11.6964
享太廟	-11.6965
者豈	-11.6965
驃騎大將軍	-11.6965
衆寡不敵	-11.6966
伏羲	-11.6966
楞	-11.6966
須至	-11.6967
上尊號曰	-11.6968
稱是	-11.6968
昇州	-11.6968
州總管	-11.6968
枷	-11.697
橈	-11.697
之所為	-11.6971
再舉	-11.6973
己酉詔	-11.6973
勇敢	-11.6975
嵐州	-11.6975
利害以聞	-11.6975
帝御	-11.6975
賊遂	-11.6976
國珍	-11.6976
陳升之	-11.6976
以清	-11.6979
降賊	-11.698
等四	-11.6983
八十一	-11.6983
階成	-11.6984
亦足以	-11.6985
竇氏	-11.6985
察罕	-11.6985
養民	-11.6985
帝后	-11.6986
八十餘	-11.6986
戊子詔	-11.6986
豈以	-11.6986
延政	-11.6988
如雨	-11.699
厲聲曰	-11.699
則不可	-11.6991
也因	-11.6992
長久	-11.6993
依法	-11.6994
懐忠	-11.6994
惟其	-11.6994
無定	-11.6995
閭里	-11.6995
吾君	-11.6997
㑹州	-11.6997
所制	-11.7
得疾	-11.7001
借使	-11.7002
天津	-11.7003
乃先	-11.7004
於義	-11.7004
可成	-11.7005
雄武	-11.7006
蠻賊	-11.7006
獨有	-11.7006
耳非	-11.7006
數以	-11.7008
不妄	-11.7009
公綽	-11.701
名節	-11.7012
昪	-11.7013
取天下	-11.7013
為安	-11.7014
二帥	-11.7014
省官	-11.7014
遁歸	-11.7016
孥	-11.7017
羣情	-11.7017
彦澤	-11.7018
稅錢	-11.7018
彗出	-11.7018
頗多	-11.7019
辭位	-11.7023
惜哉	-11.7024
其為人	-11.7024
非徒	-11.7026
晙	-11.7026
亦難	-11.7026
窒	-11.7027
右文殿修撰	-11.7028
以通鑑	-11.7028
攻戰	-11.7028
官私	-11.7029
事干	-11.703
修河	-11.7031
跂	-11.7032
淀	-11.7032
編排	-11.7033
脊	-11.7033
郡今	-11.7034
為衆所	-11.7034
責成	-11.7034
均輸	-11.7034
歸咎	-11.7034
劉昌祚	-11.7035
棊	-11.7036
體例	-11.7036
有所未	-11.7037
矣陛下	-11.7037
倉廪	-11.7038
吕祉	-11.7038
得官	-11.7039
懼其	-11.704
此例	-11.704
特勒	-11.7042
垂拱殿	-11.7043
同光	-11.7043
營於	-11.7043
台吉	-11.7044
為樂	-11.7044
更須	-11.7045
淮南東路	-11.7045
孤城	-11.7045
從中	-11.7046
未出	-11.7046
墨本	-11.7046
修葺	-11.7047
東海王	-11.7048
八州	-11.7048
蠟書	-11.7049
乎若	-11.7049
而已今	-11.705
在蜀	-11.7053
海口	-11.7053
撫定	-11.7055
空虚	-11.7055
東面	-11.7057
四十三	-11.7058
注擬	-11.7059
禁旅	-11.706
稱㫖	-11.7061
襄陽府	-11.7062
夏四月以	-11.7062
流言	-11.7063
專政	-11.7063
白石	-11.7065
疏曰	-11.7065
吏事	-11.7066
自行	-11.7067
邑屬	-11.7067
龍武	-11.7068
甲胄	-11.7068
要當	-11.7068
蔡侯	-11.7069
每一	-11.707
賢相	-11.7071
雅州	-11.7072
叱之	-11.7072
並坐	-11.7074
東歸	-11.7075
於庭	-11.7077
給賜	-11.7078
自外	-11.7078
入長安	-11.7079
辭不受	-11.7079
遂不復	-11.7079
押班	-11.7079
於京師	-11.708
從此	-11.708
癸亥詔	-11.7081
戰功	-11.7081
入錢	-11.7083
擊却之	-11.7084
凡事	-11.7084
一語	-11.7085
㑹昌	-11.7085
西川節度使	-11.709
録其	-11.7091
居位	-11.7091
與宰相	-11.7092
步卒	-11.7092
重任	-11.7092
燕雲	-11.7094
見陛下	-11.7094
亮切	-11.7095
三寸	-11.7095
千七百	-11.7095
􁝠	-11.7097
長江	-11.7098
書名	-11.7098
疑似	-11.7098
不可信	-11.7099
甯	-11.7099
己丑詔	-11.71
公羊	-11.7101
永夀	-11.7101
杖脊	-11.7101
共工	-11.7101
量移	-11.7101
加於	-11.7102
囘紇	-11.7102
敬業	-11.7102
曲陽	-11.7102
對䇿	-11.7102
已破	-11.7105
周必大	-11.7105
拳	-11.7106
有寵於	-11.7106
補之	-11.7106
禮物	-11.7106
有失	-11.7106
到官	-11.7106
成化	-11.7106
五丈	-11.7107
立后	-11.7107
二條	-11.7108
母妻	-11.7108
彭年	-11.7109
四川宣撫使	-11.711
言國家	-11.711
諸矦	-11.7112
瘁	-11.7113
君臣之義	-11.7113
孔安國	-11.7114
上使	-11.7114
告哀	-11.7115
史嵩之	-11.7115
之時也	-11.7116
彦卿	-11.7116
王允	-11.7117
此即	-11.7117
皆因	-11.7117
懷州	-11.7118
驚駭	-11.7119
之援	-11.712
安重誨	-11.7121
條例司	-11.7121
所經	-11.7122
吳興	-11.7123
陳倉	-11.7124
𤣥感	-11.7124
仲武	-11.7126
不赦	-11.7126
六卿	-11.7126
其費	-11.7127
雷州	-11.7129
正位	-11.7129
郎中令	-11.713
不能克	-11.713
裨	-11.713
黎明	-11.7131
流星	-11.7131
往者	-11.7132
收兵	-11.7134
南陽郡	-11.7134
為尚書左丞	-11.7136
承恩	-11.7137
軍營	-11.7138
江表	-11.7139
督府	-11.7141
為副使	-11.7142
決河	-11.7142
播州	-11.7142
其聲	-11.7142
章獻	-11.7143
八千人	-11.7143
細務	-11.7143
己巳詔	-11.7144
孝孫	-11.7145
皇叔	-11.7145
遂據	-11.7146
平壤	-11.7147
乞自今	-11.715
大宛	-11.715
降附	-11.715
也非	-11.7151
迎謁	-11.7151
承慶	-11.7152
使來	-11.7155
必謂	-11.7158
嘗問	-11.7159
至親	-11.7159
著於	-11.716
鴈	-11.716
令公	-11.716
釋氏	-11.7161
擐甲	-11.7163
之怨	-11.7163
九經	-11.7163
注官	-11.7164
錄云	-11.7164
為萬世	-11.7164
葭蘆	-11.7165
之限	-11.7165
讀之	-11.7166
𫝊曰	-11.7166
惟岳	-11.7166
絰	-11.7166
秋七月以	-11.7167
凡百	-11.7167
語云	-11.7169
富者	-11.717
糞	-11.717
偕行	-11.7171
麓	-11.7173
禘祫	-11.7173
一作	-11.7173
事無大小	-11.7173
鞮	-11.7174
娠	-11.7174
羮	-11.7175
篋	-11.7175
卵	-11.7175
纉	-11.7176
蹂	-11.7176
舒亶	-11.7177
皇極	-11.7177
故當	-11.7178
髠	-11.7178
承訓	-11.7179
貨賂	-11.718
使其子	-11.718
陳霸先	-11.718
蕭道成	-11.7181
渝盟	-11.7181
為氏	-11.7182
不敵	-11.7182
濼	-11.7182
流内銓	-11.7183
虢州	-11.7183
吕恵卿	-11.7184
受賞	-11.7184
長短	-11.7185
形迹	-11.7185
乃言	-11.7185
二千餘	-11.7187
近裏	-11.7188
國長公主	-11.7189
葉䕶	-11.719
飛狐	-11.719
諫諍	-11.7191
墳墓	-11.7192
奏曰臣	-11.7192
當行	-11.7193
順流	-11.7195
餘兵	-11.7195
王景	-11.7197
將卒	-11.7199
臣又	-11.7199
被誅	-11.7199
昌黎	-11.7199
恭帝	-11.7201
赧王	-11.7203
慰撫	-11.7203
以火	-11.7203
葉適	-11.7204
杖一百	-11.7206
按察使	-11.7207
常平等事	-11.721
武興	-11.7212
大觀	-11.7213
壽陽	-11.7214
貽書	-11.7214
謂朝廷	-11.7215
秀容	-11.7217
奏至	-11.7218
屬焉	-11.7218
不係	-11.7219
太甲	-11.7219
饋運	-11.7219
以遏	-11.7221
以攻	-11.7222
於時	-11.7224
但書	-11.7226
蠲其	-11.7226
大治	-11.7228
市人	-11.7228
之教	-11.7229
居厚	-11.723
提舉常平	-11.723
風俗通	-11.723
頠	-11.7232
判度支	-11.7233
忠州刺史	-11.7233
新都	-11.7233
省臣	-11.7234
魏文帝	-11.7235
侍衞	-11.7235
墀	-11.7235
耀州	-11.7236
新復	-11.7237
竺	-11.7238
講武	-11.7239
棠	-11.7239
大恐	-11.7239
蒋	-11.724
鄢	-11.7241
衆潰	-11.7241
門者	-11.7242
所任	-11.7243
郅支	-11.7243
犯塞	-11.7244
伾	-11.7244
正旦使	-11.7244
二丈	-11.7245
晉陵	-11.7245
栖	-11.7245
己亥詔	-11.7246
嘏	-11.7246
兵起	-11.7246
鐡錢	-11.7246
無間	-11.7247
詔特	-11.7247
侵軼	-11.7247
閼逢	-11.7248
倉廩	-11.7248
京都	-11.7249
幹辦	-11.725
任城	-11.7251
謂宰臣曰	-11.7252
詔除	-11.7252
鎗	-11.7252
酸棗	-11.7252
掎	-11.7252
者多矣	-11.7253
素為	-11.7253
及甫	-11.7253
管押	-11.7258
萬事	-11.7259
巫蠱	-11.7259
沔陽	-11.7259
付以	-11.726
亦死	-11.7261
可省	-11.7261
小字	-11.7261
始議	-11.7261
梁冀	-11.7262
劍州	-11.7265
李勣	-11.7267
月二十八日	-11.7267
為淮南	-11.7269
運米	-11.727
文燦	-11.7271
相王	-11.7271
隨行	-11.7271
王鞏	-11.7274
奚契丹	-11.7275
性命	-11.7275
洞庭	-11.7275
王洙	-11.7275
奔齊	-11.7277
師鐸	-11.7278
正官	-11.7279
既還	-11.7279
文秀	-11.7279
詳見	-11.7279
提督	-11.728
為漢	-11.728
二百二十	-11.728
江隂	-11.7282
茂陵	-11.7284
幸得	-11.7284
魏師	-11.7285
國亡	-11.7287
欲行	-11.7288
神農	-11.7288
胡人	-11.7289
邪佞	-11.729
從之仍	-11.729
公卿大夫	-11.7292
太皇太后陛下	-11.7293
身死	-11.7294
德裕	-11.7295
追贈	-11.7295
正翻	-11.7295
月十八日	-11.7295
先臣	-11.7295
請改	-11.7296
明年二月	-11.7297
三河	-11.7298
夜遁	-11.7299
海外	-11.7299
嫌疑	-11.7299
謀誅	-11.73
前朝	-11.7301
極矣	-11.7303
饋餉	-11.7304
繼宗	-11.7304
宻州	-11.7304
以其事	-11.7305
帝聞之	-11.7305
敵至	-11.7305
以為憂	-11.7306
者輒	-11.7307
浚儀	-11.7307
上封者言	-11.7309
欲歸	-11.7309
獻納	-11.731
潯	-11.731
第三子	-11.7311
乞於	-11.7311
自合	-11.7312
無患	-11.7312
因令	-11.7312
脛	-11.7316
仰給	-11.7316
䧏	-11.7316
未集	-11.7317
債	-11.7317
乃議	-11.7318
所封	-11.7318
自效	-11.7319
誠意	-11.7319
昆彌	-11.7319
樓船	-11.732
渇	-11.732
及弟	-11.732
种師道	-11.732
耐	-11.7321
甚詳	-11.7321
謀曰	-11.7321
禳	-11.7322
鄕	-11.7323
牝	-11.7323
私家	-11.7324
程頤	-11.7324
嵗計	-11.7325
二公	-11.7325
優劣	-11.7325
在東宫	-11.7326
虧損	-11.7326
天下之士	-11.7327
開道	-11.7328
爪	-11.7328
四十人	-11.7328
晏駕	-11.7329
去年十二月	-11.7329
階州	-11.7329
恨不	-11.7329
可見矣	-11.733
前行	-11.733
聚歛	-11.7331
濟北	-11.7332
諸蕃	-11.7332
奉職	-11.7332
援引	-11.7335
胡銓	-11.7335
嚴州	-11.7335
檻車	-11.7338
新舊紀	-11.7339
吳郡	-11.7339
軍留後	-11.7339
並書	-11.7339
順之	-11.734
庚寅詔	-11.734
不屈死	-11.734
克明	-11.7341
崑山	-11.7341
少康	-11.7344
可得而	-11.7344
力屈	-11.7344
明洪武	-11.7345
以答	-11.7345
太極殿	-11.7346
年冬	-11.7347
嚴父	-11.7348
為户部侍郎	-11.7348
辭不拜	-11.7348
本欲	-11.7349
戒諭	-11.735
神仙	-11.7351
從便	-11.7352
闗南	-11.7352
百七十	-11.7354
景福	-11.7355
削籍	-11.7356
也既而	-11.7357
大海	-11.7359
烈祖	-11.736
群臣	-11.7361
直方	-11.7362
白太后	-11.7363
於明堂	-11.7364
申公	-11.7366
興工	-11.7366
著令	-11.7367
亦誤	-11.7368
事見一百	-11.7368
也古者	-11.7368
乞朝廷	-11.737
城壘	-11.7371
天下之心	-11.7372
彗星	-11.7372
未當	-11.7373
嘉州	-11.7373
姦黨	-11.7374
二將	-11.7375
三百餘人	-11.7375
賈后	-11.7375
出糶	-11.7377
坐罪	-11.738
邊患	-11.738
深知	-11.738
詔免	-11.7381
經歴	-11.7381
診	-11.7383
頃者	-11.7384
不對	-11.7387
鐘磬	-11.7388
西漢	-11.7388
蹤	-11.7388
頋	-11.7388
成閔	-11.7389
榷	-11.7389
咫尺	-11.7389
宗正少卿	-11.7389
薛居正	-11.739
胸	-11.739
呂惠卿	-11.7391
崇政殿説書	-11.7392
晉灼曰	-11.7392
猗	-11.7393
覊縻	-11.7394
隆興	-11.7395
枝梧	-11.7395
殪	-11.7395
罸	-11.7396
殊不知	-11.7396
雛	-11.7396
大典	-11.7397
圖克坦	-11.7397
攄	-11.7399
安持	-11.7399
周旋	-11.74
二千里	-11.7401
無君	-11.7402
相次	-11.7402
獻帝	-11.7402
孟氏	-11.7402
等八人	-11.7404
恐難	-11.7404
奏劾	-11.7407
陸遜	-11.7408
功狀	-11.7409
立其弟	-11.741
為急	-11.7412
分地	-11.7412
智翻	-11.7414
守宰	-11.7414
少者	-11.7415
月二十二日	-11.7416
右扶風	-11.7416
誠心	-11.7417
受降城	-11.7417
全州	-11.7418
中置	-11.742
厚賂	-11.742
而不書	-11.7421
為限	-11.7421
以快	-11.7421
專制	-11.7422
文表	-11.7423
司農卿	-11.7426
成疾	-11.7427
陳王	-11.7428
屯于	-11.7428
以長	-11.743
顧問	-11.7432
史記正義曰	-11.7432
西陽	-11.7432
明言	-11.7433
不置	-11.7433
渦	-11.7434
謝之	-11.7435
廵幸	-11.7435
日有食之	-11.7437
鎮海	-11.7437
請下	-11.7437
右衛	-11.7438
博陵	-11.7438
帝曰卿	-11.7439
兼提舉	-11.744
勇力	-11.7441
可速	-11.7442
周師	-11.7442
親行	-11.7443
預聞	-11.7443
歩軍	-11.7444
朱震	-11.7446
一舉而	-11.7447
而外	-11.7449
功過	-11.7451
之姦	-11.7451
為元帥	-11.7452
立妃	-11.7452
時中	-11.7453
博州	-11.7454
假以	-11.7455
赦宥	-11.7455
而立之	-11.7457
諸吕	-11.7457
章帝	-11.7458
秦鳳路	-11.7459
七分	-11.7462
章得象	-11.7462
莅	-11.7462
百石	-11.7463
宿將	-11.7463
通議大夫	-11.7463
厚薄	-11.7464
山河	-11.7464
供備庫使	-11.7464
發之	-11.7464
郅	-11.7464
羣蠻	-11.7464
開邊	-11.7464
貿	-11.7465
之尊	-11.7465
圎	-11.7465
莫敢言	-11.7466
祕書丞	-11.7466
喉	-11.7467
挟	-11.7467
衮冕	-11.7467
煇	-11.7467
屬之欲翻	-11.7468
不遵	-11.7468
物故	-11.7468
秦王世民	-11.7468
相遇	-11.7468
峪	-11.7468
四尺	-11.7469
隨州	-11.7469
以下至	-11.7469
湧	-11.7469
爾朱榮	-11.747
鄣	-11.747
唐介	-11.7471
仁夀	-11.7472
載此事	-11.7472
六郡	-11.7476
臨奠	-11.7476
上洛	-11.7476
當求	-11.7477
承業	-11.7478
根括	-11.7478
師旅	-11.7478
謝病	-11.7479
勲舊	-11.7479
翀	-11.748
取人	-11.748
違制	-11.7481
以伐	-11.7481
正欲	-11.7483
為諫官	-11.7483
百戰	-11.7483
㑹赦	-11.7485
出官	-11.7486
世衡	-11.7488
乾符	-11.7488
宋白	-11.7489
常在	-11.7489
月二十七日	-11.7494
去國	-11.7494
録事	-11.7497
仁宗皇帝	-11.7497
都下	-11.7498
就試	-11.7502
庶使	-11.7503
保安	-11.7505
元鼎	-11.7505
陳于	-11.7505
無令	-11.7506
妙翻	-11.7506
縣隋	-11.7507
度使	-11.7507
輔導	-11.7508
彭越	-11.7508
蓋以	-11.751
佐命	-11.751
雨土	-11.7511
特加	-11.7511
孔氏	-11.7515
餘姚	-11.7518
者不可勝數	-11.7519
上初	-11.752
歸命	-11.7521
固爭	-11.7521
姚崇	-11.7521
無愧	-11.7522
議者以	-11.7522
一千二百	-11.7523
堂上	-11.7524
且使	-11.7524
更易	-11.7526
州刺史劉	-11.7527
録黄	-11.7528
伐晉	-11.7529
延英	-11.753
虛名	-11.7531
西行	-11.7531
宗維	-11.7532
龍神衛四廂都指揮使	-11.7532
滅亡	-11.7532
之慮	-11.7532
皆從之	-11.7532
儒學	-11.7532
即有	-11.7533
大宗正司	-11.7533
薛居正五代史	-11.7534
湘東王繹	-11.7534
伐木	-11.7535
毬	-11.7535
政治	-11.7535
盛德	-11.7536
屨	-11.7537
之側	-11.7538
唐人	-11.7538
反正	-11.7539
湍	-11.7539
冢宰	-11.7539
知宣州	-11.7539
将即亮翻	-11.7539
徳澤	-11.754
進言	-11.7541
大利	-11.7541
餙	-11.7541
軒轅	-11.7542
可守	-11.7542
太宗皇帝	-11.7542
既與	-11.7542
魯人	-11.7542
日南	-11.7544
五十六	-11.7544
釡	-11.7544
引兵至	-11.7547
諺	-11.7547
籥	-11.7547
所差	-11.7548
賦斂	-11.7548
熙寜	-11.7548
餘杭	-11.7549
姑孰	-11.7549
感激	-11.755
瓊州	-11.755
之器	-11.755
請用	-11.7553
至成都	-11.7553
騷然	-11.7554
久而	-11.7554
潮州	-11.7554
蠲放	-11.7554
權倖	-11.7555
斷之	-11.7555
來援	-11.7556
兖鄆	-11.7557
族滅	-11.7557
因以為	-11.7558
貸之	-11.7558
梁國	-11.7559
僭號	-11.7559
者也今	-11.7559
過河	-11.7559
遙翻	-11.7562
乃下詔	-11.7562
老㓜	-11.7562
枉法	-11.7562
吕布	-11.7563
雍丘	-11.7564
棣州	-11.7565
至中書	-11.7565
大敵	-11.7566
知鄆州	-11.7568
既見	-11.7569
乎夫	-11.757
建文	-11.757
號哭	-11.7571
遂絶	-11.7571
買賣	-11.7573
教翻	-11.7573
權户部侍郎	-11.7574
徇私	-11.7574
形勝	-11.7575
道里	-11.7576
五十年	-11.7577
六尺	-11.7577
四年正月	-11.7577
配𨽻	-11.7578
窮蹙	-11.7578
外更	-11.7579
兵擊之	-11.7581
文炳	-11.7582
賜賚	-11.7582
所係	-11.7583
嵗貢	-11.7586
造作	-11.7586
擊匈奴	-11.7587
困窮	-11.7587
五百餘	-11.7589
欲先	-11.7589
不然則	-11.7589
修省	-11.759
所服	-11.7591
水寨	-11.7592
謀叛	-11.7594
握兵	-11.7595
二廣	-11.7595
上大怒	-11.7596
細事	-11.7597
守捉	-11.7597
臣不勝	-11.7597
不可與	-11.7598
月十九日	-11.7598
自焚	-11.76
而猶	-11.7601
討蕩	-11.7602
族人	-11.7602
元景	-11.7602
柟	-11.7602
為皇太后	-11.7603
分詣	-11.7604
獻王	-11.7604
始安	-11.7604
搖	-11.7604
祐甫	-11.7604
三年正月	-11.7605
詘	-11.7607
保衡	-11.761
楚國	-11.761
仙人	-11.761
梓潼	-11.761
檢視	-11.7612
季子	-11.7612
䙝	-11.7613
賑恤	-11.7613
蒲坂	-11.7614
衫	-11.7614
擘畫	-11.7614
棫	-11.7615
腦	-11.7615
娥	-11.7615
趣七喻翻	-11.7615
誕謾	-11.7615
淸	-11.7616
芥	-11.7616
治獄	-11.7616
义	-11.7617
公道	-11.7617
被召	-11.7618
避位	-11.7618
捽	-11.7618
徽言	-11.7619
洪皓	-11.7619
經書	-11.7619
路安撫使	-11.762
太一宫	-11.7621
与	-11.7621
遁走	-11.7621
慧景	-11.7622
炙	-11.7622
李偉	-11.7622
鉗	-11.7622
户部郎中	-11.7622
治亂之	-11.7623
御史䑓	-11.7624
皇太	-11.7624
鵠	-11.7624
副都統	-11.7624
陳宜中	-11.7624
厚加	-11.7625
丁未詔	-11.7625
奏可	-11.7626
東出	-11.7626
棄疾	-11.7626
所指	-11.7627
左右丞	-11.7628
萬數	-11.7628
求解	-11.7628
館陶	-11.7628
也余謂	-11.7629
蓄積	-11.7629
風化	-11.763
都將	-11.7632
汝南郡	-11.7633
坐貶	-11.7633
過矣	-11.7634
于魯	-11.7635
不啻	-11.7635
遂還	-11.7635
將士皆	-11.7635
聖語	-11.7636
體量安撫	-11.7636
病卒	-11.7636
戊申詔	-11.7637
南蠻	-11.7639
物議	-11.7639
壯丁	-11.7639
字今刪	-11.7639
上䇿	-11.764
親舊	-11.7641
有司以	-11.7641
里克	-11.7643
髙駢	-11.7643
計度	-11.7648
隂與	-11.7649
伊洛	-11.765
母曰	-11.765
正殿	-11.765
淵聖皇帝	-11.7651
秦秦	-11.7652
河事	-11.7652
河隂	-11.7652
并州刺史	-11.7653
故欲	-11.7653
復相	-11.7655
西都	-11.7657
我朝	-11.7658
於禁中	-11.7661
為奸	-11.7661
所授	-11.7661
引退	-11.7663
塞悉	-11.7663
應干	-11.7664
威令	-11.7664
要之	-11.7666
二州刺史	-11.7668
罵賊	-11.7669
或請	-11.767
抑之	-11.7671
生口	-11.7671
世俗	-11.7671
不可謂	-11.7671
所厚	-11.7672
武陵王	-11.7675
良乆	-11.7676
不專	-11.7677
而獨	-11.7677
大如	-11.7678
張詠	-11.768
昌宗	-11.7681
樁管	-11.7681
率師	-11.7682
可從	-11.7682
王陶	-11.7682
蔓	-11.7683
納其言	-11.7683
賾	-11.7684
誤改見巻一	-11.7684
纒	-11.7685
鄭雍	-11.7685
藩臣	-11.7685
未之有也	-11.7686
媒	-11.7686
䓁	-11.7686
工部員外郎	-11.7687
誣告	-11.7687
進奏院	-11.7687
季良	-11.7687
而擊之	-11.7688
年二十	-11.7688
澳	-11.7689
秃	-11.7689
尼堪	-11.7691
之積	-11.7691
樊城	-11.7691
仔	-11.7692
鴟	-11.7692
灑	-11.7693
誅求	-11.7693
托歡	-11.7693
捄	-11.7693
或告	-11.7694
魄	-11.7694
騾	-11.7695
璿	-11.7695
又得	-11.7697
摠管	-11.7698
遂除	-11.77
符瑞	-11.7701
騎奇	-11.7701
死戰	-11.7703
樓煩	-11.7703
坊郭	-11.7704
斜谷	-11.7705
淤田	-11.7705
章邯	-11.7706
建炎以來繫年要録巻一百	-11.7706
旌節	-11.7709
宣慰司	-11.771
什物	-11.7711
莫州	-11.7711
天平節度使	-11.7712
營繕	-11.7713
訪求	-11.7713
中朝	-11.7713
必不可	-11.7715
即召	-11.7715
安堵	-11.7716
驅之	-11.7717
冬十月以	-11.7717
曷為	-11.7719
延綏	-11.7719
為吏	-11.7721
有請也	-11.7721
等六人	-11.7722
猶能	-11.7722
六事	-11.7722
仲甫	-11.7723
文義	-11.7724
珍寳	-11.7725
漢志	-11.7725
服也	-11.7726
濟陽	-11.7727
宗師	-11.7728
深自	-11.7728
鹽錢	-11.773
有識	-11.7732
兼樞宻使	-11.7732
靈王	-11.7733
北向	-11.7733
宣翻	-11.7734
受敵	-11.7734
樂毅	-11.7734
所不及	-11.7734
以彰	-11.7735
徙治	-11.7735
門之外	-11.7735
七國	-11.7736
敵衆	-11.7737
承祐	-11.7739
兵事	-11.774
新樂	-11.774
建置	-11.774
下獄死	-11.774
第八	-11.7742
分路	-11.7744
今来	-11.7745
則陛下	-11.7746
真偽	-11.7746
擊也	-11.7746
景王	-11.7747
三司言	-11.775
太甚	-11.7751
李順	-11.7753
劉毅	-11.7753
韓氏	-11.7754
朝覲	-11.7757
不依	-11.7757
忠烈	-11.7759
婉	-11.776
俵	-11.776
已差	-11.7761
文宣王	-11.7761
善戰	-11.7762
曾公亮	-11.7763
陸佃	-11.7763
謾	-11.7764
辠	-11.7765
錄尚書事	-11.7765
澣	-11.7765
神御殿	-11.7766
素所	-11.7766
牖	-11.7766
藩籬	-11.7766
既克	-11.7767
蟻	-11.7767
兔	-11.7767
伐宋	-11.7767
並兼	-11.7768
路轉運副使	-11.7769
宫祠	-11.7769
尚慮	-11.7769
安靜	-11.7769
脯	-11.7769
持書	-11.7771
琢	-11.7772
製造	-11.7772
癸巳詔	-11.7772
頓丘	-11.7772
黔州	-11.7773
四川制置使	-11.7773
秣陵	-11.7774
其業	-11.7774
本所	-11.7775
劉知逺	-11.7776
度其	-11.7777
原本作	-11.7777
不急之	-11.7777
守正	-11.7777
與子	-11.7778
天下後世	-11.7778
李賢曰	-11.7779
猶以為	-11.7782
馬軍司	-11.7782
謂諸將曰	-11.7783
維揚	-11.7784
使持節	-11.7786
故令	-11.7786
存恤	-11.7787
賢愚	-11.7788
而命之	-11.7788
五百餘人	-11.779
張世傑	-11.7791
戸部尚書	-11.7792
似此	-11.7792
王嘉	-11.7793
杜佑	-11.7794
年六十	-11.7797
並同	-11.7797
神功	-11.7797
已嘗	-11.7798
兵二萬	-11.7798
吳充	-11.7799
九鼎	-11.7799
請加	-11.78
不定	-11.78
别部	-11.7801
止于	-11.7801
羣臣請	-11.7801
之利也	-11.7804
無為軍	-11.7804
自疑	-11.7804
圖籍	-11.7804
不移	-11.7805
半嵗	-11.7805
豈足	-11.7807
金主亮	-11.7807
召諸將	-11.7808
居此	-11.7809
遜位	-11.7811
特奏名	-11.7813
永定	-11.7814
歸葬	-11.7815
商販	-11.7817
臣節	-11.7821
之詩	-11.7821
緣邊	-11.7821
金紫	-11.7822
甚至	-11.7822
考異曰舊	-11.7823
但知	-11.7825
帥所部	-11.7826
西安府	-11.7826
解官	-11.7826
自辨	-11.7827
作相	-11.7827
厮	-11.7828
役夫	-11.7829
省部	-11.7829
歸我	-11.783
刼掠	-11.783
莫得	-11.783
至德	-11.783
徒二年	-11.7832
與大臣	-11.7832
幾居	-11.7833
悚	-11.7833
楚材	-11.7833
宣力	-11.7834
則天下幸甚	-11.7835
師出	-11.7837
曮	-11.7838
王侯	-11.7838
賜其家	-11.784
恐不能	-11.7841
呌	-11.7841
倓	-11.7841
五十三	-11.7841
冥	-11.7842
辨其	-11.7842
二千五百	-11.7843
王者之	-11.7843
傳首	-11.7843
馮澥	-11.7843
層	-11.7843
其始	-11.7843
桀黠	-11.7844
寛仁	-11.7844
秦師	-11.7845
回翻	-11.7845
兵數萬	-11.7846
正兵	-11.7846
千三百	-11.7846
多爾濟	-11.7846
宋朝	-11.7846
鼓吹	-11.7846
常熟	-11.7847
兼直學士院	-11.7848
已罷	-11.7849
不公	-11.7849
田承嗣	-11.7849
克復	-11.7849
假令	-11.785
毁譽	-11.785
鷹犬	-11.785
前將軍	-11.7851
崇煥	-11.7852
無益也	-11.7852
公孫述	-11.7853
吾輩	-11.7853
明法	-11.7853
咸寧	-11.7855
自擇	-11.7855
束手	-11.7855
八字	-11.7857
曽經	-11.7857
三班	-11.7858
鹽州	-11.7862
水火	-11.7863
宗祀	-11.7863
)○(	-11.7864
同華	-11.7864
同異	-11.7865
七十五	-11.7867
草創	-11.7867
以萬計	-11.7867
待報	-11.7868
㑹兵	-11.787
除去	-11.7871
訓導	-11.7871
初定	-11.7872
伺其	-11.7873
院事	-11.7873
講讀官	-11.7873
非所宜	-11.7873
以贍	-11.7874
恐未	-11.7874
應變	-11.7874
戎服	-11.7876
高帝	-11.7877
巴勒	-11.7877
降朝㫖	-11.7877
開具	-11.7877
金人犯	-11.7878
六十五	-11.7878
王曾	-11.7879
墜馬	-11.7879
且云	-11.7881
被擒	-11.7881
弩手	-11.7881
竊謂	-11.7882
嘗論	-11.7883
窮困	-11.7885
我輩	-11.7886
刑部言	-11.7887
司命	-11.7887
執送	-11.7888
報復	-11.7893
邀求	-11.7894
顯逹	-11.7895
力陳	-11.7896
豈知	-11.7896
諸營	-11.7897
既多	-11.7898
居處	-11.7898
黑闥	-11.7899
哉今	-11.7899
自刎	-11.7899
頓兵	-11.7905
彊盛	-11.7906
等將兵	-11.7907
彦威	-11.7907
帝諭	-11.7907
亦許	-11.7909
化為	-11.7909
亂政	-11.7911
徙封	-11.7912
宋李心傳撰紹興	-11.7912
姒	-11.7913
魏軍	-11.7913
殊無	-11.7913
涂	-11.7913
仿	-11.7914
噲	-11.7914
何官	-11.7914
方且	-11.7915
橐	-11.7915
天地宗廟社稷	-11.7915
漢光武	-11.7916
入内供奉官	-11.7916
上以問	-11.7916
關内侯	-11.7916
自强	-11.7916
彩	-11.7916
莖	-11.7917
用其言	-11.7917
日記	-11.7919
陜西轉運使	-11.7919
説輸芮翻	-11.7919
後二日	-11.7919
沓	-11.792
娘	-11.7922
嶧	-11.7922
閏四月	-11.7924
自縊	-11.7924
雲梯	-11.7924
資格	-11.7925
徐禧	-11.7926
崇禎	-11.7927
得替	-11.7927
冒頓	-11.7927
封章	-11.7927
媵	-11.7928
不直	-11.7928
景温	-11.7928
河溢	-11.7929
舊傳云	-11.7929
巡狩	-11.793
匱乏	-11.793
十有八	-11.793
轉運使副	-11.793
敵勢	-11.7931
爾朱	-11.7932
謂近臣曰	-11.7932
洸	-11.7935
流逕	-11.7935
淮南節度使	-11.7938
安定郡	-11.7939
挺之	-11.7939
甚嚴	-11.794
禪位	-11.7941
至仁	-11.7942
竇憲	-11.7943
范雍	-11.7943
道逺	-11.7943
隂平	-11.7945
旬月	-11.7945
據城	-11.7945
又殺	-11.7946
不能平	-11.7946
長君	-11.7947
櫟陽	-11.7948
切謂	-11.7949
竄逐	-11.7949
左右僕射	-11.795
以杜	-11.7951
不作	-11.7951
豈獨	-11.7953
龜年	-11.7954
直入	-11.7954
范質	-11.7954
夾擊	-11.7957
遇有	-11.7957
渭南	-11.7957
沛郡	-11.7957
何能	-11.7959
而後已	-11.7961
十四人	-11.7961
峽州	-11.7963
二相	-11.7964
於其間	-11.7964
雨水	-11.7964
舊録云	-11.7965
二十五里	-11.7966
史臣曰	-11.7967
宻奏	-11.7968
周氏	-11.7971
為右正言	-11.7971
惇曰	-11.7971
端門	-11.7971
田悦	-11.7973
賢能	-11.7974
期㑹	-11.7974
入内都知	-11.7976
退則	-11.7976
修治	-11.7976
陵在	-11.7976
任職	-11.7977
辛未詔	-11.7978
遂遣	-11.7978
餘萬	-11.7979
闕乏	-11.7983
他路	-11.7983
民情	-11.7984
陽縣屬	-11.7984
忠貞	-11.7985
知古	-11.7985
簾前	-11.7985
玉門	-11.7986
莱	-11.7989
進爵	-11.7989
本傳云	-11.7989
深恐	-11.7991
呉漢	-11.7991
聞見	-11.7991
帳前	-11.7992
太守張	-11.7992
正衙	-11.7992
御營使司	-11.7992
臣庶	-11.7993
東昏	-11.7994
唐以	-11.7994
時雨	-11.7994
自来	-11.7995
䕶衛	-11.7995
白衣	-11.7995
衝要	-11.7996
户部員外郎	-11.7996
緘黙	-11.7996
復遣使	-11.7996
斐	-11.7997
屛	-11.7997
周知	-11.7997
闗西	-11.7999
阿爾哈雅	-11.7999
牧地	-11.8
復位	-11.8
禮翻	-11.8
蘭陵	-11.8001
曽肇	-11.8001
范延光	-11.8002
鄭剛中	-11.8002
禮部郎中	-11.8002
悉罷之	-11.8002
陳蔡	-11.8003
汲汲	-11.8004
遵誨	-11.8004
陳旭	-11.8004
相距	-11.8005
殘忍	-11.8005
昴	-11.8005
祖宗之法	-11.8006
朋附	-11.8006
而取	-11.8007
李文	-11.8008
决於	-11.8009
知貢舉	-11.8009
司業	-11.801
使者至	-11.801
近上	-11.801
唐為	-11.801
安丙	-11.8011
左相	-11.8011
端拱	-11.8013
未曽	-11.8013
多死	-11.8015
久雨	-11.8015
開國	-11.8016
私販	-11.8016
賜號	-11.8019
奉上	-11.8021
生變	-11.8025
河南北	-11.8025
也事見通鑑	-11.8026
鼎臣	-11.8026
將即亮	-11.8027
悼公	-11.8027
臨敵	-11.8028
又敗	-11.8028
令佐	-11.8029
腰斬	-11.8029
毁其	-11.8029
忠於	-11.803
臣欲乞	-11.8031
北山	-11.8031
三十一年	-11.8031
一門	-11.8032
賜姓名	-11.8032
只令	-11.8033
部署司	-11.8033
延賞	-11.8034
兵五萬	-11.8034
茶馬	-11.8035
任責	-11.8036
臨陣	-11.8037
朕每	-11.8039
為社稷	-11.804
稱皇帝	-11.804
前軍統制	-11.8042
子淵	-11.8042
於是乎	-11.8042
何以為	-11.8042
御座	-11.8043
為皇子	-11.8044
自負	-11.8045
棗陽	-11.8047
積聚	-11.8048
而有司	-11.8048
曲赦	-11.8049
闗内	-11.805
濟王	-11.8051
物貨	-11.8053
掩殺	-11.8053
十萬貫	-11.8054
成服	-11.8054
一半	-11.8055
其政	-11.8057
于地	-11.8057
索隱曰	-11.8058
七州	-11.8058
豐年	-11.8058
盡行	-11.8058
嫁翻	-11.8059
太皇	-11.806
琯	-11.806
每見	-11.806
明國	-11.8061
祈請	-11.8062
走入	-11.8064
曲端	-11.8065
左司員外郎	-11.8067
勞問	-11.8068
斧鉞	-11.8069
奸臣	-11.807
則難	-11.807
莎車	-11.807
袋	-11.807
三十餘年	-11.8071
未有如	-11.8072
也臣聞	-11.8072
副都部署	-11.8073
驍堅堯翻	-11.8075
變故	-11.8075
營救	-11.8077
畿縣	-11.8077
顯宗	-11.8078
文成	-11.8078
鴨	-11.8079
渭水	-11.808
任其責	-11.8081
趙安仁	-11.8082
千乗	-11.8082
弓箭	-11.8082
鉷	-11.8083
中領軍	-11.8084
衆數萬	-11.8084
賢不肖	-11.8084
遼國	-11.8085
此蓋	-11.8087
十萬衆	-11.8087
大禹	-11.8087
遣騎	-11.8088
笑之	-11.8088
時屬	-11.8089
兵二千	-11.8092
戍邊	-11.8093
巷戰	-11.8093
差誤	-11.8093
大議	-11.8093
州屬	-11.8094
禁民	-11.8095
表賀	-11.8096
尚何	-11.8097
臺閣	-11.8099
孔明	-11.81
從哲	-11.8101
知益州	-11.8102
敦厚	-11.8102
繼先	-11.8102
諸夏	-11.8103
聞喜	-11.8103
居官	-11.8104
知我	-11.8105
漢魏	-11.8106
持久	-11.8106
貞吉	-11.8106
講論	-11.8107
卿監	-11.8108
倉皇	-11.8108
破産	-11.8109
不能進	-11.811
顯徳	-11.8112
言者以為	-11.8113
不可得也	-11.8113
莫知所	-11.8113
封建	-11.8113
農事	-11.8114
以自固	-11.8115
偷安	-11.8115
見矣	-11.8115
皆伏誅	-11.8115
極其	-11.8116
經制司	-11.8117
丹徒	-11.8117
第九	-11.812
交兵	-11.8121
無益於	-11.8123
邢洺	-11.8125
去羌	-11.8125
罰金	-11.8125
盛時	-11.8125
堅執	-11.8127
科率	-11.8128
鼎州	-11.8129
不用命	-11.8129
儒生	-11.8131
但能	-11.8131
兵十萬	-11.8133
戒之曰	-11.8135
弼曰	-11.8135
後日	-11.8136
管翻	-11.8137
籍記	-11.8138
此説	-11.8138
今兹	-11.8138
戰馬	-11.814
粟帛	-11.814
二年春	-11.8142
大任	-11.8144
列翻	-11.8144
丁憂	-11.8146
蜀漢	-11.8146
免役錢	-11.8146
外廷	-11.8146
奏稱	-11.8147
㐫	-11.8147
向背	-11.8148
翕	-11.8148
水西	-11.8148
奉祀	-11.8148
舂	-11.8149
孔彦舟	-11.815
臣又聞	-11.815
古法	-11.815
右朝請大夫	-11.815
歐陽脩	-11.815
默	-11.815
巵	-11.8151
圻	-11.8151
章服	-11.8151
錐	-11.8151
軟	-11.8151
磯	-11.8152
賖	-11.8152
神州	-11.8153
庖	-11.8153
精神	-11.8154
力争	-11.8154
暱	-11.8154
兕	-11.8154
朱温	-11.8154
之虞	-11.8155
至都堂	-11.8156
三桂	-11.8156
瀋陽	-11.8158
猖獗	-11.8158
惟簡	-11.8158
一丈	-11.8158
參用	-11.8158
迸	-11.8159
鶉	-11.8159
斟	-11.816
鑾輿	-11.816
深矣	-11.8162
近郊	-11.8162
府藏	-11.8163
揺動	-11.8163
嘉禾	-11.8164
甚喜	-11.8165
縣本	-11.8166
韓川	-11.8166
内外官	-11.8166
給以	-11.8166
盤庚	-11.8167
許國	-11.8168
比聞	-11.8168
與卿等	-11.8169
海南	-11.8169
雅樂	-11.8171
躍馬	-11.8171
求救	-11.8171
將作	-11.8171
知雄州	-11.8172
著書	-11.8172
五軍	-11.8173
南路	-11.8173
盛暑	-11.8173
知雜御史	-11.8174
百工	-11.8174
竊惟	-11.8174
昭明	-11.8174
公案	-11.8175
聞變	-11.8176
巡幸	-11.8176
備禮	-11.8178
嗣宗	-11.8179
發喪	-11.818
静江	-11.8181
巴州	-11.8181
為第一	-11.8182
常平司	-11.8184
遂克	-11.8187
欲還	-11.8188
方興	-11.8188
恩州	-11.8188
之祀	-11.8189
善射	-11.8189
衆軍	-11.8189
令監司	-11.8189
恩賞	-11.8189
夢得	-11.8189
此云	-11.8191
遂留	-11.8191
十貫	-11.8192
田土	-11.8192
之粟	-11.8193
以邀	-11.8195
保馬	-11.8196
廣川	-11.8196
可嘉	-11.8197
倍於	-11.8199
遣使如	-11.82
秘書	-11.82
知福州	-11.8201
佐之	-11.8201
老幼	-11.8203
此疏	-11.8204
正徳	-11.8204
天雄	-11.8205
朝廷方	-11.8207
馬殷	-11.8207
未然	-11.8207
軍職	-11.8208
即其地	-11.8208
懐政	-11.8208
都䕶府	-11.8209
富人	-11.8209
通天	-11.8213
義州	-11.8214
襲破	-11.8215
邵武	-11.8215
與金人	-11.8218
豨	-11.822
常法	-11.822
乃所以	-11.822
誰為	-11.8223
之賞	-11.8223
思齊	-11.8224
相救	-11.8225
劉崇	-11.8226
光祿大夫	-11.8226
自解	-11.8226
紱	-11.8226
緦麻	-11.8227
束帛	-11.8227
大恩	-11.8227
后父	-11.8228
胎	-11.8228
耘	-11.823
王顯	-11.823
覊	-11.823
膏血	-11.823
側目	-11.823
騁	-11.8231
晴	-11.8231
集英殿	-11.8232
左宣教郎	-11.8232
畎	-11.8232
左朝請郎	-11.8233
極力	-11.8233
撞	-11.8234
宋敏求	-11.8234
挹	-11.8235
璫	-11.8235
汲黯	-11.8235
闞	-11.8235
三千里	-11.8235
三部	-11.8236
不耕	-11.8236
治狀	-11.8236
瞋目	-11.8236
而滅	-11.8237
温嶠	-11.8237
陳敬瑄	-11.8237
造船	-11.8239
重難	-11.824
此臣所以	-11.824
趙魏	-11.8241
遺制	-11.8243
商胡	-11.8246
難矣	-11.8246
敗亡	-11.8246
水經註	-11.8246
自昔	-11.8248
情願	-11.8249
太僕卿	-11.825
三面	-11.825
渾儀	-11.8251
世清	-11.8251
動静	-11.8253
太陽	-11.8253
王浚	-11.8254
斥去	-11.8254
斷絶	-11.8255
各翻	-11.8255
又加	-11.8256
一尺	-11.8256
百八十里	-11.8257
始令	-11.8258
齊魯	-11.8258
喚	-11.8258
固無	-11.8259
之䘮	-11.826
招撫使	-11.826
權住	-11.8261
客省	-11.8261
矯制	-11.8261
本職	-11.8262
强弱	-11.8262
施設	-11.8263
寵之	-11.8264
降敕	-11.8265
綏徳	-11.8266
舊名	-11.8268
夔州	-11.8268
惟務	-11.8268
劉子	-11.8269
嚴兵	-11.827
常同	-11.8271
敕書	-11.8273
黨籍	-11.8274
為河北	-11.8274
路鈐轄	-11.8275
不遷	-11.8275
義恭	-11.8276
應舉	-11.8277
從善	-11.828
再興	-11.828
寵任	-11.828
二萬餘人	-11.8281
相賀	-11.8282
月二十四日	-11.8283
天厯	-11.8287
舉劾	-11.8287
内省	-11.8287
與其黨	-11.8288
使喚	-11.8289
匹兩	-11.8289
甚有	-11.829
輕議	-11.8291
直趨	-11.8293
水東	-11.8293
爾國	-11.8294
君錫	-11.8295
移易	-11.8295
楊時	-11.8295
都市	-11.8295
曰此事	-11.8298
煬	-11.8298
所推	-11.8298
編年	-11.8299
司直	-11.8299
今按	-11.8299
亂天下	-11.8299
為門下侍郎	-11.83
安肅	-11.8301
安社稷	-11.8302
禮法	-11.8303
服藥	-11.8303
雜記	-11.8304
實難	-11.8304
亂翻	-11.8304
臣敢	-11.8304
衿	-11.8305
五十二	-11.8305
討伐	-11.8305
偏師	-11.8305
十二卷	-11.8306
淡	-11.8307
餐	-11.8307
長生	-11.8307
懟	-11.8308
抹	-11.8308
不悅	-11.8309
鉢	-11.8309
講議	-11.8309
拭	-11.8309
按行	-11.8309
都水使者	-11.831
無它	-11.831
珉	-11.8311
知諌院	-11.8312
誤今	-11.8312
右賢王	-11.8312
嘉王	-11.8314
解題曰宋庠紀年通譜	-11.8316
秋毫	-11.8316
以警	-11.8317
威靈	-11.8317
忤㫖	-11.8317
諲	-11.8319
姚仲	-11.8323
敖曹	-11.8324
瓦解	-11.8324
山名在	-11.8325
槃	-11.8326
此曹	-11.8326
往年	-11.8327
渭北	-11.8327
張昭	-11.8327
消息	-11.8328
二卷	-11.8328
左司	-11.8328
近其	-11.8329
軍勢	-11.8329
何郯	-11.8329
少監	-11.8329
至是又	-11.833
帝然之	-11.833
府是	-11.833
惇卞	-11.8331
賦税	-11.8331
士竒	-11.8331
七千人	-11.8332
傾覆	-11.8333
可備	-11.8333
變異	-11.8334
蘇峻	-11.8334
兩處	-11.8336
請置	-11.8338
髙皇帝	-11.8338
升祔	-11.834
畏憚	-11.8341
饗太廟	-11.8342
長於	-11.8343
揚雄	-11.8343
九族	-11.8344
子貢	-11.8345
恩寵	-11.8345
筠州	-11.8346
哈雅	-11.8346
孝弟	-11.8349
多殺	-11.8353
入閤	-11.8355
王鎔	-11.8355
罪已	-11.8356
王德	-11.8356
存問	-11.8357
賜帛	-11.8358
黄道	-11.836
經由	-11.836
伊闕	-11.836
其價	-11.836
士信	-11.836
國法	-11.8361
降一等	-11.8361
夏賊	-11.8361
勇翻	-11.8364
先進	-11.8365
良馬	-11.8365
三班借職	-11.8366
欽州	-11.8367
虚中	-11.8368
維翰	-11.8369
二女	-11.8369
彭州	-11.8369
久在	-11.837
千百	-11.837
抗疏	-11.8371
不受命	-11.8371
知河陽	-11.8372
岐山	-11.8374
萬方	-11.8378
李回	-11.8379
特支	-11.838
何則	-11.838
等錢	-11.8382
被水	-11.8382
根治	-11.8383
恭謝	-11.8384
鳯州	-11.8384
支費	-11.8385
一歲	-11.8387
适	-11.8388
靴	-11.8388
沸騰	-11.8389
兩浙轉運副使	-11.839
專務	-11.839
桑維翰	-11.8391
涒灘	-11.8391
監丞	-11.8391
現	-11.8393
梁師成	-11.8393
胡世將	-11.8393
璡	-11.8393
為腹心	-11.8394
常參官	-11.8395
未至而	-11.8395
天降	-11.8395
英州	-11.8396
扼其	-11.8397
是役也	-11.8397
攝政	-11.8398
經世	-11.8398
馘	-11.8398
兠	-11.8399
俛首	-11.8399
巍	-11.8399
鄭居中	-11.8399
塔坦	-11.84
是秋	-11.8401
為郎	-11.8401
亦名	-11.8401
甚切	-11.8402
同管勾	-11.8404
官賣	-11.8404
蔡邕	-11.8404
魏國公	-11.8405
千戸	-11.8406
陳主	-11.8406
命婦	-11.8407
又東逕	-11.8407
憤怒	-11.8408
容切	-11.8411
大防曰	-11.8411
守素	-11.8411
但有	-11.8412
右司員外郎	-11.8413
千四百	-11.8414
直至	-11.8414
弗能	-11.8415
出走	-11.8415
諸曹	-11.8417
廣淵	-11.8418
之靈	-11.8418
倨翻	-11.8419
柬之	-11.8421
時論	-11.8422
萬歲	-11.8424
追捕	-11.8424
國門	-11.8424
高歡	-11.8428
必有所	-11.8429
久逺	-11.8429
道子	-11.8431
體訪	-11.8434
卑辭	-11.8434
弓馬	-11.8434
犬馬	-11.8435
自恣	-11.8435
部送	-11.8435
知蔡州	-11.8435
伺察	-11.8436
李孝	-11.8436
庶可	-11.8437
内黄	-11.8439
别種	-11.844
制命	-11.8442
我當	-11.8443
未央	-11.8444
常賦	-11.8444
賈人	-11.8445
相慶	-11.8445
王淮	-11.8446
張居正	-11.8446
我以	-11.8447
省悉	-11.8449
將兵擊	-11.845
襄邑	-11.8451
諸路轉運使	-11.8452
良田	-11.8453
而巳	-11.8453
亦同	-11.8454
亦未嘗	-11.8455
順陽	-11.8455
為吏部侍郎	-11.8455
就糧	-11.8456
南都	-11.8456
數州	-11.8456
陵廟	-11.8456
如意	-11.8458
涪州	-11.8458
説式	-11.8458
侯王	-11.8458
闗在	-11.8459
天災	-11.8459
去秋	-11.8462
字徳	-11.8462
諸路轉運司	-11.8462
等俱	-11.8463
臨終	-11.8463
掌之	-11.8466
預焉	-11.8467
羌胡	-11.8467
顛倒	-11.8469
套	-11.8469
萬一有	-11.8469
开	-11.847
𠂻	-11.847
亡歸	-11.8471
僃	-11.8471
世雄	-11.8471
北匈奴	-11.8471
翥	-11.8472
漿	-11.8472
勾踐	-11.8472
分司南京	-11.8472
冡宰	-11.8473
折彦質	-11.8473
扶又翻	-11.8473
太子監國	-11.8474
務為	-11.8474
宜都	-11.8474
族帳	-11.8475
縉紳	-11.8475
剡	-11.8475
鄂爾多	-11.8476
不與焉	-11.8476
肆其	-11.8477
祺	-11.8477
作噩	-11.8477
門入	-11.8477
并代	-11.8477
忠邪	-11.8477
[...]
