<unk>	0
<s>	0
</s>	0
。	-2.24678
,	-3.38808
者	-4.26091
、	-4.40463
▁	-4.62386
也	-4.72256
故	-4.96418
*	-4.99977
是	-5.15034
二	-5.18131
為	-5.38414
(	-5.40376
)	-5.41041
有	-5.44238
!	-5.47117
以	-5.50541
下	-5.60364
名	-5.62002
即	-5.64506
無	-5.65231
三	-5.6634
之	-5.68702
善男子	-5.70819
一	-5.71458
中	-5.72181
若	-5.78265
不	-5.80384
如	-5.84884
非	-5.85425
此	-5.91805
於	-5.95596
法	-5.97294
?	-6.0183
等	-6.03223
如來	-6.03367
;	-6.03619
生	-6.06906
心	-6.06965
明	-6.08314
得	-6.08656
而	-6.10818
說	-6.12312
人	-6.13501
謂	-6.16454
四	-6.16745
佛	-6.17457
至	-6.18097
言	-6.19602
義	-6.21344
因	-6.22773
菩薩	-6.23087
我	-6.26354
行	-6.26718
則	-6.27646
見	-6.27991
相	-6.31638
眾生	-6.31726
初	-6.31829
時	-6.35186
經	-6.3554
。】「	-6.35812
涅槃	-6.37619
身	-6.39859
。」【	-6.40873
:「	-6.42163
如是	-6.44571
其	-6.45581
即是	-6.50261
常	-6.50467
釋	-6.50517
大	-6.50534
譬	-6.53464
知	-6.53788
從	-6.54916
。「	-6.55386
後	-6.55451
次	-6.56701
果	-6.59102
亦	-6.59695
作	-6.605
今	-6.60785
所	-6.63187
世尊	-6.63387
故云	-6.63436
問	-6.64049
前	-6.65506
已	-6.66719
又	-6.67693
云	-6.68011
觀	-6.70163
解	-6.71559
:『	-6.72748
云何	-6.72764
彼	-6.73583
定	-6.73699
上	-6.74741
一切	-6.75273
案	-6.75643
耶	-6.75716
喻	-6.76327
能	-6.76727
。」	-6.76895
五	-6.78454
善	-6.78665
受	-6.7867
滅	-6.78831
皆	-6.79157
應	-6.7938
名為	-6.79587
佛性	-6.79604
與	-6.79822
自	-6.80104
出	-6.81696
在	-6.83569
及	-6.83878
空	-6.85223
性	-6.85566
修	-6.86198
是故	-6.86731
▁二	-6.86795
道	-6.86844
意	-6.87424
無常	-6.89023
難	-6.91484
破	-6.91952
苦	-6.92011
合	-6.92562
諸	-6.92992
樂	-6.93276
同	-6.95266
經云	-6.95863
既	-6.95911
王	-6.98335
爾時	-6.9843
通	-6.9984
別	-7.00508
色	-7.01516
成	-7.01781
入	-7.0246
雖	-7.0309
正	-7.03136
智	-7.03231
用	-7.03358
事	-7.0388
教	-7.04006
欲	-7.05685
答	-7.05728
戒	-7.05919
斷	-7.06138
巳	-7.06355
離	-7.06787
起	-7.06943
煩惱	-7.07542
當	-7.08415
令	-7.08575
多	-7.08899
僧亮曰	-7.08956
。』	-7.0925
先	-7.09291
緣	-7.09392
本	-7.09575
眾	-7.10195
處	-7.10398
理	-7.11064
住	-7.11075
何以故	-7.11346
具	-7.1201
顯	-7.12109
文	-7.1322
復	-7.13849
異	-7.14346
實	-7.15146
聞	-7.16676
取	-7.16763
▁初	-7.17149
惡	-7.18527
但	-7.18955
業	-7.1926
乃至	-7.19695
體	-7.20685
舉	-7.20725
然	-7.21546
或	-7.22026
無有	-7.22041
論	-7.22107
由	-7.24454
六	-7.24735
分	-7.25604
天	-7.26473
因緣	-7.26551
約	-7.26953
淨	-7.29245
施	-7.29283
就	-7.3048
生死	-7.30628
第二	-7.3108
不能	-7.31437
依	-7.31666
解脫	-7.32141
是名	-7.336
汝	-7.34144
不得	-7.34353
迦葉	-7.35102
盡	-7.35122
去	-7.35637
地	-7.35694
重	-7.35862
對	-7.35909
第三	-7.36498
來	-7.36945
不見	-7.38676
真	-7.39166
識	-7.39487
耳	-7.39718
亦復如是	-7.3984
結	-7.39983
三昧	-7.40037
可	-7.40109
所以	-7.4032
證	-7.40497
不同	-7.42014
食	-7.42283
過	-7.42295
想	-7.43168
求	-7.43691
師	-7.44426
未	-7.44446
語	-7.46726
小	-7.47035
現	-7.47352
慧	-7.49074
捨	-7.49101
子	-7.49506
他	-7.50201
世	-7.50683
無量	-7.50935
八	-7.51253
病	-7.51335
阿難	-7.51469
分別	-7.52061
愛	-7.52736
七	-7.52753
開	-7.5338
執	-7.53899
廣	-7.54158
俱	-7.54271
除	-7.54273
一切眾生	-7.54832
曰	-7.5508
唯	-7.55086
水	-7.55104
方便	-7.56303
凡夫	-7.56757
世間	-7.57631
具足	-7.57643
功德	-7.58092
外	-7.58097
故言	-7.58181
等者	-7.58518
悉	-7.59313
餘	-7.60797
念	-7.61565
復次	-7.62138
信	-7.62143
僧宗曰	-7.62878
德	-7.63261
所謂	-7.63535
故名	-7.64449
大乘	-7.64827
:	-7.65004
持	-7.65281
比丘	-7.65389
聲聞	-7.66531
請	-7.66556
隨	-7.67454
不知	-7.6829
譬如	-7.68863
物	-7.69152
門	-7.69705
第一	-7.69745
無我	-7.69777
內	-7.69839
一者	-7.70389
字	-7.71442
還	-7.71467
無明	-7.71755
慈	-7.7196
法身	-7.72066
力	-7.72134
二乘	-7.72747
不應	-7.73291
十	-7.73872
失	-7.74073
共	-7.74611
若有	-7.74712
示	-7.74762
智慧	-7.75538
何	-7.7559
勝	-7.75593
化	-7.75674
菩薩摩訶薩	-7.76199
寶亮曰	-7.76408
第四	-7.76601
圓	-7.77029
死	-7.77044
諸佛	-7.78073
辨	-7.78262
因果	-7.78739
深	-7.79022
惑	-7.7911
便	-7.79157
立	-7.7936
數	-7.79367
不定	-7.7946
純陀	-7.79507
清淨	-7.79644
兩	-7.80034
凡	-7.80477
乃	-7.80478
二者	-7.80972
聖	-7.81274
?」	-7.81459
反	-7.81646
云云	-7.81935
轉	-7.82394
更	-7.82464
僧	-7.82775
以是義故	-7.83142
佛言	-7.83325
根	-7.83515
外道	-7.83608
疑	-7.83746
歎	-7.84195
昔	-7.84542
邪	-7.85007
不生	-7.85332
略	-7.85672
次第	-7.85848
攝	-7.86105
向	-7.87627
報	-7.87827
不可	-7.8818
境	-7.88202
方	-7.88288
指	-7.89429
發	-7.89715
治	-7.89874
必	-7.90497
覺	-7.90716
稱	-7.91341
五陰	-7.91614
未來	-7.91925
供養	-7.92991
度	-7.93009
何故	-7.93085
聲	-7.93403
常住	-7.93475
壞	-7.93572
位	-7.93579
火	-7.93984
中道	-7.94997
各	-7.95509
種種	-7.95575
將	-7.96047
魔	-7.96058
會	-7.9653
引	-7.96558
命	-7.96695
總	-7.97054
陰	-7.97095
下明	-7.97173
成就	-7.97274
光	-7.98058
現在	-7.98246
若言	-7.98593
藥	-7.99279
猶	-8.00026
虛空	-8.00062
菩提	-8.00567
▁初分科	-8.00862
▁三	-8.01524
亦名	-8.01591
修習	-8.01683
著	-8.01813
乳	-8.03028
遍	-8.03065
集	-8.03555
利	-8.03944
之人	-8.03947
日	-8.03993
猶如	-8.04181
勸	-8.04224
願	-8.04881
當知	-8.0499
始	-8.05004
使	-8.05187
須	-8.05366
罪	-8.06035
樹	-8.06359
歸	-8.06527
我今	-8.06787
是人	-8.07445
妙	-8.08537
藏	-8.08944
自在	-8.09105
少	-8.09171
計	-8.10716
貪	-8.1079
過去	-8.12654
亦是	-8.13175
遠離	-8.13678
學	-8.13708
國	-8.13861
遠	-8.14177
足	-8.14201
復有	-8.14511
照	-8.14707
觸	-8.14786
據	-8.15389
乘	-8.15557
味	-8.15952
往	-8.16468
大王	-8.16493
善哉	-8.17066
無漏	-8.17536
九	-8.18497
正法	-8.18695
寶	-8.18992
安	-8.18997
障	-8.19034
屬	-8.19139
終	-8.1976
類	-8.19984
音	-8.20047
究竟	-8.20389
之法	-8.20452
亦不	-8.20457
亦爾	-8.20722
女	-8.21041
滿	-8.21129
大眾	-8.21208
翻	-8.2122
辯	-8.21678
以為	-8.22002
夫	-8.22532
果報	-8.22959
益	-8.23003
主	-8.23617
殺	-8.23699
小乘	-8.23907
闡提	-8.23929
第五	-8.24263
偏	-8.24399
諸法	-8.24629
付	-8.24724
之義	-8.25005
莊嚴	-8.25079
況	-8.25231
所說	-8.25467
俗	-8.25657
名之為	-8.26149
名曰	-8.26466
不可思議	-8.26923
家	-8.27586
如文	-8.28783
了	-8.29502
持戒	-8.29522
斯	-8.29539
動	-8.29641
表	-8.29688
長	-8.29713
諦	-8.30298
不淨	-8.30369
般若	-8.30531
地獄	-8.30557
邊	-8.30754
可知	-8.30775
可見	-8.30826
覆	-8.32015
風	-8.3245
四句	-8.3266
例	-8.32744
極	-8.32798
此經	-8.32871
復次善男子	-8.32945
近	-8.32965
種	-8.33315
華	-8.33762
假	-8.33782
法門	-8.3411
順	-8.34229
輕	-8.34645
又二	-8.34803
喜	-8.34862
雙	-8.34904
大涅槃	-8.34937
三寶	-8.34984
口	-8.35128
非是	-8.35171
亦無	-8.35327
——	-8.35369
對治	-8.35391
畢竟	-8.35587
亦有	-8.35839
之所	-8.35995
父母	-8.36015
直	-8.36135
止	-8.36153
偈	-8.36862
簡	-8.369
?』	-8.37065
流	-8.37848
皆是	-8.38143
月	-8.38646
修行	-8.38742
衣	-8.38755
要	-8.38893
示現	-8.3892
者謂	-8.38965
眼	-8.38974
故知	-8.39406
真實	-8.39442
機	-8.39623
故也	-8.40142
竟	-8.4025
文殊	-8.40369
人天	-8.40623
無為	-8.41242
白	-8.4165
三種	-8.41702
此是	-8.41785
者即	-8.41805
到	-8.41971
四諦	-8.42323
之中	-8.42393
無所	-8.42453
達	-8.42504
常樂我淨	-8.43062
已下	-8.43533
豈	-8.43638
香	-8.43688
不為	-8.4372
說法	-8.43728
思惟	-8.4429
能生	-8.44355
品	-8.44504
宗	-8.44509
界	-8.44621
四大	-8.44694
爾	-8.44816
金	-8.45048
於中	-8.45076
並	-8.45143
故曰	-8.45233
二種	-8.45399
護	-8.46257
《	-8.46286
絕	-8.4655
故名為	-8.46724
發心	-8.47426
佛法	-8.47467
》	-8.47602
句	-8.48096
出家	-8.48257
何者	-8.48284
利益	-8.48422
親	-8.48446
善法	-8.48479
下隨釋	-8.48744
山	-8.488
沒	-8.49046
文云	-8.49101
智者	-8.49509
是常	-8.50079
所有	-8.50094
形	-8.50172
息	-8.50267
法性	-8.50697
思	-8.51228
且	-8.51261
造	-8.51293
只	-8.51303
害	-8.51424
花	-8.51709
法界	-8.51891
乎	-8.51949
毒	-8.52088
目	-8.52091
增	-8.52196
望	-8.52356
出世	-8.52376
兼	-8.52505
平等	-8.5271
」	-8.5303
莫	-8.53564
世界	-8.53768
似	-8.53776
權	-8.53852
虗空	-8.5419
遮	-8.54572
雖復	-8.54795
制	-8.54859
三世	-8.54902
次明	-8.55019
若不	-8.5517
三者	-8.55319
易	-8.55349
城	-8.55558
有二	-8.5597
列	-8.56028
第六	-8.56176
光明	-8.5627
尋	-8.56348
福	-8.56377
迷	-8.56405
聽	-8.56432
三界	-8.5658
不受	-8.57027
其義	-8.57388
初明	-8.57419
文中	-8.57648
無上	-8.57696
高	-8.5783
尚	-8.58226
修道	-8.58628
於此	-8.58784
而不	-8.58949
宣說	-8.59015
縛	-8.59152
經文	-8.59251
如經	-8.59796
是其	-8.59832
下釋	-8.6027
恒	-8.60315
和合	-8.60358
倒	-8.60804
金剛	-8.60856
弟子	-8.60929
顛倒	-8.60975
墮	-8.60978
有為	-8.60979
百	-8.60996
瞿曇	-8.61172
十二	-8.61195
增長	-8.61508
者即是	-8.61834
差別	-8.62167
今經	-8.62219
神	-8.62251
一時	-8.62327
悲	-8.62593
河	-8.62671
欲界	-8.62681
并	-8.62873
善根	-8.62909
告	-8.62943
說言	-8.63024
居	-8.63091
有三	-8.63234
不作	-8.63273
長者	-8.63487
章	-8.63621
以是因緣	-8.63736
生滅	-8.6418
矣	-8.64326
細	-8.64399
亦非	-8.64568
我等	-8.64592
「	-8.64594
有人	-8.64755
有無	-8.65303
師子	-8.65313
雜	-8.654
二諦	-8.65424
皆悉	-8.65571
酪	-8.6594
則無	-8.66001
梵行	-8.66154
此中	-8.66415
尊	-8.66595
沙門	-8.66661
十二因緣	-8.66671
亂	-8.66845
三乘	-8.6697
劫	-8.67248
如彼	-8.67435
雖有	-8.6755
有漏	-8.67575
如此	-8.67767
問答	-8.67813
有二種	-8.67895
彰	-8.67914
聖人	-8.68026
忍	-8.68377
內外	-8.68435
終不	-8.68489
悟	-8.68672
本無	-8.68784
誰	-8.68963
律	-8.69053
好	-8.69745
三德	-8.69942
三諦	-8.69962
而有	-8.70283
。△	-8.70368
情	-8.70517
犯	-8.70636
一切法	-8.70696
亦應	-8.70804
服	-8.70842
不名	-8.71378
一一	-8.71412
受持	-8.71461
義也	-8.71693
備	-8.71884
習	-8.71983
歡喜	-8.7206
獨	-8.72714
明其	-8.72798
退	-8.73017
迹	-8.73427
不聞	-8.73647
許	-8.7368
破戒	-8.73739
大涅槃經	-8.73767
妄	-8.73797
頭	-8.73899
眷屬	-8.73931
為三	-8.74026
母	-8.74266
疏	-8.74309
婆羅門	-8.74335
只是	-8.74459
真諦	-8.74926
器	-8.75057
責	-8.75107
羅漢	-8.75123
名字	-8.75205
本有	-8.7525
第七	-8.75281
無相	-8.75338
緣覺	-8.75376
年	-8.75418
嘆	-8.75496
記	-8.75513
己	-8.75578
邪見	-8.75634
是則	-8.7583
牛	-8.75844
慢	-8.76046
趣	-8.76126
脫	-8.76217
今明	-8.76374
佛說	-8.76707
散	-8.76802
一明	-8.77333
加	-8.77538
判	-8.78258
之時	-8.78462
善惡	-8.79025
有四	-8.79077
致	-8.79179
推	-8.79228
甚深	-8.79262
世諦	-8.79607
智秀曰	-8.7961
了因	-8.79623
手	-8.7969
不說	-8.79942
聚	-8.80194
存	-8.80565
遣	-8.808
若能	-8.8098
前後	-8.81295
宜	-8.81342
隱	-8.81637
永	-8.81713
淺	-8.81777
壽	-8.81835
所作	-8.82019
呵	-8.8208
寄	-8.82631
寂	-8.82663
舊	-8.82768
徧	-8.82977
述	-8.83093
▁二答	-8.83137
乃是	-8.83269
聲聞緣覺	-8.83322
麁	-8.83364
或有	-8.83627
答言	-8.83733
海	-8.83987
舍	-8.8429
神通	-8.84323
若無	-8.84333
不出	-8.84562
違	-8.84588
不斷	-8.84921
半	-8.85007
羅	-8.85034
中有	-8.85445
象	-8.85853
如人	-8.85909
為二	-8.86016
像	-8.8606
一人	-8.86134
根本	-8.86266
伹	-8.86361
甘露	-8.86413
亦如是	-8.86548
伏	-8.86617
大小	-8.86863
精進	-8.87052
興	-8.87105
相似	-8.8714
不動	-8.87152
被	-8.87185
徵	-8.87215
感	-8.87269
普	-8.87308
次釋	-8.8745
癡	-8.87688
久	-8.88117
熱	-8.88121
老	-8.88286
故得	-8.88414
序	-8.88438
常無常	-8.88536
汝今	-8.88584
之相	-8.88606
諸天	-8.88632
部	-8.88637
漸	-8.8864
怨	-8.8887
馬	-8.88886
此即	-8.89203
護法	-8.89265
漏	-8.89311
壽命	-8.89385
無作	-8.89531
設	-8.9002
法者	-8.90759
單	-8.90832
如是等	-8.90862
中間	-8.91059
)。】「	-8.91071
師子吼	-8.91405
千	-8.91477
染	-8.91621
不滅	-8.91625
汝等	-8.91967
竝	-8.92285
全	-8.92307
供	-8.92332
無有是處	-8.92332
安樂	-8.92393
進	-8.92464
生於	-8.92572
禪	-8.92665
無礙	-8.92838
坐	-8.92954
之心	-8.9302
下結	-8.93058
經中	-8.93441
未得	-8.93492
遇	-8.93519
以此	-8.9358
獲	-8.93622
各有	-8.93624
窮	-8.93644
微	-8.93751
畜生	-8.93839
生善	-8.9397
號	-8.94143
二十五有	-8.9425
聖行	-8.94328
斥	-8.94415
而得	-8.94426
又復	-8.94526
故非	-8.94676
敬	-8.94983
恐	-8.95045
佛答	-8.952
不思議	-8.95234
畏	-8.95237
上來	-8.95419
寂靜	-8.95549
今日	-8.9555
又云	-8.95594
▁初問	-8.95627
不離	-8.95804
不善	-8.96124
無色	-8.96175
標	-8.96203
境界	-8.96332
悉皆	-8.9637
支	-8.96386
大悲	-8.9641
新	-8.96411
佛果	-8.96827
亡	-8.96955
諸眾生	-8.9699
草	-8.97028
▁四	-8.97101
讚	-8.97361
四種	-8.97383
土	-8.97501
一闡提	-8.97683
或說	-8.97809
實相	-8.98057
下第二	-8.98193
龍	-8.98235
之言	-8.98566
滅度	-8.98632
第八	-8.98883
解釋	-8.98915
財	-8.9894
決定	-8.99055
蓋	-8.99202
微妙	-8.99319
女人	-8.99348
憍慢	-8.99405
不退	-8.99562
法華	-8.99605
有我	-8.99617
無生	-8.99739
不信	-8.99763
疾	-8.99777
阿	-8.99838
而生	-8.99895
其心	-8.99931
一切諸法	-9.00273
故無	-9.00299
互	-9.00546
何等	-9.0057
假名	-9.00645
然後	-9.00722
為四	-9.0077
阿羅漢	-9.01135
者以	-9.0132
橫	-9.01447
如佛所說	-9.01538
塵	-9.01538
父	-9.01725
正因	-9.01732
先明	-9.01818
患	-9.01893
亦復	-9.01893
十六	-9.01991
待	-9.02025
路	-9.02125
歸依	-9.02525
故不	-9.0259
所得	-9.02613
一句	-9.02772
非不	-9.02997
醍醐	-9.03012
成佛	-9.03136
那	-9.03193
變	-9.03302
能斷	-9.03498
。」「	-9.03544
而言	-9.03608
此云	-9.03677
摩	-9.03781
強	-9.03871
密	-9.04066
大海	-9.04145
冥	-9.04208
正明	-9.04257
第一義	-9.04259
婆	-9.04283
放逸	-9.04354
刀	-9.04554
信心	-9.04607
差	-9.04862
所以者何	-9.04895
不解	-9.04899
虛	-9.05245
無邊	-9.05455
石	-9.05506
縱	-9.05563
二明	-9.05624
肉	-9.05663
能知	-9.05766
賊	-9.05857
木	-9.05922
諸比丘	-9.06086
訖	-9.06105
所言	-9.06175
損	-9.06253
十地	-9.06263
日月	-9.06337
首	-9.066
得阿耨多羅三藐三菩提	-9.0667
比	-9.06768
諸佛世尊	-9.07059
化他	-9.07135
末	-9.072
初地	-9.07207
傳	-9.07237
闇	-9.07257
謗	-9.07374
最後	-9.07375
收	-9.07485
法中	-9.07801
所生	-9.07806
舍利	-9.07922
牒	-9.07974
四者	-9.08052
是無常	-9.08202
所見	-9.08208
是時	-9.08273
故須	-9.08345
我所	-9.08683
迦葉菩薩白佛言	-9.08742
?」「	-9.08891
下約	-9.08907
卷	-9.08915
威儀	-9.08959
五行	-9.09027
量	-9.09214
惱	-9.09287
是義不然	-9.09592
奪	-9.09641
等也	-9.09927
若是	-9.10102
我當	-9.10563
自性	-9.10671
遂	-9.10679
非無	-9.10762
辭	-9.11083
入涅槃	-9.11192
奉	-9.11261
安住	-9.11289
梵天	-9.11361
則有	-9.1158
提	-9.11699
或言	-9.11915
慈悲	-9.11936
惡業	-9.12074
法瑤曰	-9.12199
周	-9.12222
為一	-9.12322
盛	-9.12384
此下	-9.12464
劣	-9.12768
種子	-9.12829
二邊	-9.12856
科	-9.12863
聞法	-9.12902
下文	-9.13108
乖	-9.13183
演說	-9.1338
如來亦爾	-9.1343
及以	-9.13443
布施	-9.13501
瞋	-9.13673
▁初明	-9.13699
陀	-9.13702
非色	-9.13757
不二	-9.13845
知見	-9.1389
迦	-9.13968
夜	-9.14161
唯有	-9.14219
則不	-9.14239
資	-9.14332
恭敬	-9.14368
四依	-9.14592
有佛性	-9.14674
怖	-9.15138
良醫	-9.15161
何以下釋	-9.15231
頂	-9.15459
相應	-9.15494
即便	-9.1565
林	-9.15741
寂滅	-9.15865
助	-9.15883
十方	-9.15913
為說	-9.15933
亦可	-9.16018
和	-9.16138
是為	-9.16204
力士	-9.16299
調	-9.16426
燈	-9.16434
不可得	-9.16539
不異	-9.16759
一心	-9.1691
何得	-9.16977
一體	-9.17274
大般涅槃	-9.17372
雨	-9.17952
不住	-9.18087
譬如有人	-9.18277
萬	-9.18299
懷	-9.18305
論云	-9.18307
得果	-9.18318
書	-9.18459
旨	-9.18514
專	-9.18793
此文	-9.18974
始終	-9.19108
而無	-9.19241
無畏	-9.19362
甚	-9.19395
苦行	-9.1969
古	-9.19792
最	-9.19828
道生曰	-9.19983
咸	-9.2007
珠	-9.20109
是故名	-9.2024
梵	-9.20331
中陰	-9.20345
唱	-9.20632
大慈	-9.20732
自然	-9.20799
三結	-9.20931
自行	-9.2095
五根	-9.20986
導	-9.2109
姓	-9.21113
初問	-9.21157
拔	-9.2128
斷煩惱	-9.21296
愚癡	-9.21325
則是	-9.2138
安隱	-9.21381
祕藏	-9.21416
。』「	-9.21458
逆	-9.21466
吾	-9.2148
領	-9.2151
故以	-9.21637
。」【(	-9.21751
諸菩薩	-9.21775
非有	-9.21815
皆有	-9.21994
諸行	-9.22045
一向	-9.22135
章門	-9.22215
嚴	-9.22278
相對	-9.22382
悔	-9.22618
文殊師利	-9.22649
見佛	-9.22671
四德	-9.22705
十二部經	-9.22722
人中	-9.22822
善業	-9.2311
救	-9.23171
之處	-9.23377
寧	-9.23418
不失	-9.23524
讀誦	-9.23635
齊	-9.23668
不修	-9.2368
能令	-9.23942
廣說	-9.24154
醫	-9.2416
諸佛菩薩	-9.2423
以顯	-9.24242
棄	-9.24485
受者	-9.24487
因緣故	-9.24499
鳥	-9.24611
此二	-9.24654
常樂	-9.24671
之身	-9.24678
四倒	-9.24879
敘	-9.24996
含	-9.25225
面	-9.2543
之行	-9.25779
十住	-9.25824
非法	-9.26027
永斷	-9.26072
若依	-9.26179
有餘	-9.26208
實無	-9.26458
我見	-9.26541
五事	-9.26596
消	-9.26653
波	-9.26714
第二明	-9.26731
正是	-9.26816
燒	-9.26974
方等	-9.26998
之性	-9.2723
廣明	-9.27302
誡	-9.27355
無樂	-9.27387
毀	-9.27484
雙非	-9.27645
非我	-9.27747
呪	-9.28094
麤	-9.28203
故說	-9.2833
領解	-9.28411
一云	-9.28456
此義	-9.28558
二云	-9.2859
童子	-9.28591
當知是人	-9.28764
七寶	-9.2889
故有	-9.28899
得名	-9.28949
而為	-9.28988
相續	-9.29013
繫	-9.29168
大般涅槃經	-9.29178
住處	-9.29182
初文	-9.29211
不壞	-9.29369
速	-9.29381
十一	-9.29389
隨順	-9.29524
佛言善男子	-9.2958
佛告迦葉	-9.29648
後一	-9.29659
何以	-9.29673
瞋恚	-9.29865
輪	-9.2995
禪定	-9.29982
但有	-9.30063
三藏	-9.3059
苦樂	-9.30988
是身	-9.3102
優婆塞	-9.3105
堅	-9.31183
四禪	-9.31254
不爾	-9.31454
飲食	-9.3159
實非	-9.31613
此明	-9.31749
脩	-9.31836
無盡	-9.3186
云何名為	-9.32027
置	-9.32216
心無	-9.32746
是一	-9.32832
此之	-9.32837
向前	-9.32865
此乃	-9.32972
▁二初	-9.32974
六度	-9.33012
以明	-9.33046
世人	-9.33157
此約	-9.33166
他人	-9.33381
無二	-9.334
准	-9.33409
切	-9.33437
聞已	-9.33545
無餘	-9.33585
福德	-9.33627
得解脫	-9.33632
於是	-9.33654
兒	-9.33682
觀察	-9.33722
今此	-9.33972
又三	-9.3399
之理	-9.34232
貪欲	-9.34425
改	-9.34458
是以	-9.34492
三法	-9.34601
悉是	-9.3467
二人	-9.34866
是佛	-9.34935
曾	-9.34984
純	-9.35054
臣	-9.3506
遊	-9.35233
見者	-9.35339
美	-9.35482
阿耨多羅三藐三菩提	-9.35511
不盡	-9.3558
視	-9.3567
若爾	-9.35731
為欲	-9.35786
破壞	-9.35792
車	-9.35828
十三	-9.35894
其人	-9.36007
一念	-9.36082
初中	-9.36153
此三	-9.36205
則得	-9.36231
不取	-9.36237
東	-9.36246
五種	-9.36354
說為	-9.36407
是名為	-9.36416
受樂	-9.3676
瓶	-9.36783
人也	-9.36806
是名菩薩	-9.36907
其中	-9.36916
豈非	-9.37053
星	-9.3713
各各	-9.37254
之事	-9.37469
為本	-9.37532
中云	-9.37648
前三	-9.37694
不識	-9.37802
南	-9.37886
身心	-9.37925
應當	-9.37942
長壽	-9.37967
六師	-9.3799
傷	-9.38142
三業	-9.38195
則為	-9.38201
未有	-9.38211
若有眾生	-9.38263
先舉	-9.38295
本無今有	-9.38308
熟	-9.38513
▁二釋	-9.38536
第十	-9.38544
須陀洹	-9.38687
○	-9.38783
行者	-9.38839
非有非無	-9.38847
嬰兒	-9.38934
偽	-9.3895
是因	-9.39039
餓鬼	-9.39111
六道	-9.3912
有三種	-9.39164
談	-9.39385
西	-9.39388
文為二	-9.39398
我於	-9.39414
宮	-9.39518
不了	-9.39645
料簡	-9.39678
亦云	-9.39707
不須	-9.3972
作如是言	-9.39727
於彼	-9.39839
閻浮提	-9.39857
開善	-9.39894
諍	-9.39936
若見	-9.40058
骨	-9.40096
此品	-9.40127
入於涅槃	-9.4027
常者	-9.4046
為眾生故	-9.40493
下合	-9.4051
怖畏	-9.40586
欲令	-9.40602
亦如	-9.40775
自他	-9.40819
五欲	-9.40837
無別	-9.40917
生生	-9.40991
以是	-9.41177
親近	-9.41177
辟支佛	-9.41196
佛性者	-9.4126
飲	-9.4136
不起	-9.41623
如其	-9.41717
間	-9.41736
正見	-9.41912
厭	-9.41914
宿	-9.41949
印	-9.41962
盲	-9.4199
能為	-9.42044
如前	-9.42085
積	-9.42093
哀	-9.42171
然此	-9.42191
淨戒	-9.4223
志	-9.42411
但是	-9.42606
見性	-9.42682
知足	-9.42881
堅固	-9.42912
憂	-9.42981
善知識	-9.43123
可得	-9.43274
無差別	-9.43378
北	-9.43532
中初	-9.43585
而復	-9.43589
鉢	-9.4403
能見	-9.44141
最勝	-9.44204
昔教	-9.44343
為因	-9.44423
心不	-9.44453
氣	-9.44477
諸惡	-9.44534
緣因	-9.44584
苦惱	-9.4463
勿	-9.44633
義者	-9.44744
色界	-9.44829
復作是念	-9.44962
是故如來	-9.44973
降	-9.44979
為難	-9.44984
功	-9.45112
在於	-9.4515
男	-9.45191
召	-9.45199
云何為	-9.45315
令人	-9.4534
超	-9.45451
定有	-9.45644
為他	-9.45724
是事	-9.45777
我為	-9.45908
不可見	-9.46021
不然	-9.46072
爾時世尊	-9.46201
明佛	-9.46216
青	-9.46242
不具	-9.46305
伽	-9.46319
得聞	-9.46403
能破	-9.46415
所行	-9.46424
五者	-9.46513
都	-9.46544
三明	-9.46878
甘	-9.46883
解云	-9.46889
有性	-9.46916
善知	-9.46948
放	-9.47143
容	-9.47172
或時	-9.47336
當有	-9.47355
虗	-9.47365
說有	-9.47426
合前	-9.47573
恐怖	-9.47652
法故	-9.47704
田	-9.47762
是果	-9.47857
不復	-9.4786
別教	-9.47985
三事	-9.48002
般涅槃	-9.48009
無差	-9.48085
亦然	-9.48136
之果	-9.48189
德王	-9.48228
大臣	-9.4825
之名	-9.48345
一乘	-9.48402
國土	-9.48413
問曰	-9.48449
如何	-9.48457
若人	-9.48592
前二	-9.48621
無性	-9.48641
禮	-9.48752
▁二合	-9.48791
興皇	-9.48924
而說	-9.48938
是經	-9.48983
四悉	-9.49003
我說	-9.49155
檀	-9.49182
今文	-9.49184
三歸	-9.49192
之意	-9.49231
臥	-9.49248
接	-9.49421
清	-9.49679
讚歎	-9.49804
為是	-9.49877
白佛言	-9.50152
以其	-9.503
穢	-9.50303
佛告	-9.50549
十四	-9.50612
二義	-9.50698
巧	-9.50824
聽法	-9.50853
謬	-9.50983
靜	-9.51013
繫縛	-9.51038
聖道	-9.51067
比丘尼	-9.51072
雖無	-9.51298
應云	-9.51324
亦得	-9.51326
總結	-9.51353
意云	-9.51378
勤	-9.51381
實諦	-9.51383
為體	-9.51385
垂	-9.51405
優婆夷	-9.51419
於佛	-9.51457
初住	-9.51686
玄	-9.51693
授	-9.51854
文為三	-9.51877
仰	-9.52016
命終	-9.52216
尼	-9.52251
果也	-9.52361
虛妄	-9.52437
大雲	-9.52443
故今	-9.52495
不空	-9.52565
▁○	-9.52774
十八	-9.52829
黑	-9.5287
音聲	-9.53038
忘	-9.53249
」【	-9.53274
天人	-9.53362
則非	-9.53425
驗	-9.53431
若使	-9.53454
期	-9.53478
不成	-9.53487
第九	-9.53519
因中	-9.53529
此則	-9.53582
留	-9.53596
短	-9.5365
殊	-9.53661
真我	-9.53664
無異	-9.53693
流通	-9.53766
能治	-9.53866
一往	-9.53966
億	-9.53992
令其	-9.54167
諸有	-9.54258
畜	-9.54392
是故當知	-9.54663
身口	-9.54666
於諸	-9.54684
于	-9.54694
舊云	-9.54869
四教	-9.54926
後明	-9.55076
是苦	-9.55121
二解	-9.55132
何因緣故	-9.55176
此言	-9.55211
不從	-9.55226
大地	-9.55235
那含	-9.55349
見佛性	-9.55364
一切諸	-9.55402
養	-9.55425
舍利弗	-9.55794
▁三結	-9.55855
復言	-9.55862
少分	-9.55915
下舉	-9.55943
定慧	-9.56067
釋迦	-9.56079
歷	-9.56196
宣	-9.56241
二字	-9.56279
後二	-9.56308
意也	-9.5639
次答	-9.56395
解脫者	-9.56425
應有	-9.56466
題	-9.56467
無不	-9.5657
以下	-9.566
如上	-9.56639
生因	-9.56645
垢	-9.56667
決	-9.56686
黃	-9.56703
法也	-9.56719
所知	-9.5678
幻	-9.56794
是有	-9.56859
斷惑	-9.56936
鬼	-9.57065
初果	-9.57126
通別	-9.57212
十住菩薩	-9.57222
泥洹	-9.57241
正答	-9.57273
輕重	-9.57433
則能	-9.57489
默然	-9.57756
秊	-9.57784
慈心	-9.57852
塗	-9.5792
今云	-9.57937
非想	-9.57994
懸	-9.58041
不求	-9.58051
佛所	-9.58195
於我	-9.58261
頓	-9.58262
是中	-9.58342
赤	-9.5843
葉	-9.58471
昔日	-9.58538
釋之	-9.58568
呼	-9.58603
多聞	-9.5866
修多羅	-9.58683
論義	-9.58713
譯	-9.58727
正道	-9.58865
諸師	-9.58873
調伏	-9.58983
元	-9.59086
會通	-9.59177
諸煩惱	-9.59213
惡心	-9.5935
二隨釋	-9.59393
枯	-9.59656
無記	-9.59693
福田	-9.59717
仍	-9.59788
何況	-9.59822
眼見	-9.59919
作業	-9.60009
此人	-9.60043
沙	-9.60057
下是	-9.60186
意者	-9.60214
受苦	-9.6028
平	-9.60359
富	-9.60373
無數	-9.60378
值	-9.604
丈夫	-9.6055
是實	-9.60832
貧窮	-9.60856
何不	-9.60875
生者	-9.60894
彌	-9.61068
果者	-9.61232
帝釋	-9.61469
所證	-9.61651
二釋	-9.61743
五百	-9.61817
牙	-9.61862
十力	-9.61894
斷善	-9.62068
圓教	-9.62208
當得	-9.62334
迦葉菩薩白佛言世尊	-9.62395
所為	-9.62401
傍	-9.62422
恩	-9.62431
可解	-9.62439
四法	-9.62491
曲	-9.62607
四門	-9.62696
訶	-9.62726
相違	-9.62791
發阿耨多羅三藐三菩提心	-9.62857
二十	-9.62927
汝等比丘	-9.63171
緣起	-9.63204
四人	-9.63278
自下第二	-9.63355
守	-9.63399
油	-9.63409
初禪	-9.63436
得見	-9.63495
其身	-9.63527
一切煩惱	-9.6353
却	-9.63544
能壞	-9.63559
慚愧	-9.63709
若以	-9.63838
有五	-9.63871
為眾生	-9.639
及諸	-9.63903
破之	-9.63934
自知	-9.63997
云何名	-9.64061
那羅延	-9.64147
不放逸	-9.64216
魚	-9.64323
請佛	-9.64432
一法	-9.64494
有六	-9.64792
法師	-9.64815
初句	-9.64895
鏡	-9.64959
三十七品	-9.65027
名無	-9.65147
既云	-9.65229
無罪	-9.65275
畢	-9.65375
無復	-9.65515
滅諦	-9.65579
葢	-9.65681
濟	-9.65906
未能	-9.65931
何處	-9.65992
我言	-9.66058
三品	-9.66076
名色	-9.66087
牽	-9.66182
諸佛如來	-9.66188
今言	-9.66188
汝言	-9.66386
名大涅槃	-9.66707
苦集	-9.66727
說之	-9.66747
契	-9.66907
難也	-9.6694
貧	-9.66951
教化	-9.67016
?「	-9.67071
非實	-9.67118
礙	-9.67141
應身	-9.67158
而作	-9.67187
所問	-9.67322
其餘	-9.67395
▁二明	-9.67579
得道	-9.67587
。」【△	-9.67597
其性	-9.678
遺	-9.67831
之本	-9.6791
法說	-9.67966
吉	-9.67975
初文者	-9.67981
雲	-9.68001
身中	-9.68069
變易	-9.68082
有法	-9.68087
真解脫者即是如來	-9.68098
滿足	-9.68159
造作	-9.68224
其所	-9.68298
國王	-9.68319
師子吼言	-9.68358
又解脫者	-9.68361
無因	-9.68421
今以	-9.68426
或云	-9.68433
是知	-9.68512
背	-9.68516
文字	-9.68541
云何菩薩	-9.68587
應供	-9.68675
我亦	-9.68733
不聞聞	-9.68741
鐵	-9.68756
愚	-9.68833
之說	-9.68877
是涅槃	-9.6888
喻中	-9.6894
斷除	-9.6911
能作	-9.69269
苦諦	-9.69346
準	-9.69403
若有說言	-9.69493
凡聖	-9.69701
義故	-9.69793
此等	-9.69803
觀行	-9.69806
典	-9.69843
角	-9.69932
念處	-9.70006
應知	-9.70013
非常	-9.70094
廣釋	-9.70132
涅槃者	-9.70178
假使	-9.70229
九界	-9.70232
利他	-9.70405
法相	-9.70513
男女	-9.70525
六種	-9.70552
令得	-9.70594
池	-9.70631
覩	-9.70697
空者	-9.70774
云何而言	-9.70779
不以	-9.70921
唱言	-9.70955
四果	-9.70956
累	-9.71003
相者	-9.71019
第一義諦	-9.71023
二句	-9.71033
無始	-9.71076
負	-9.71112
配	-9.71129
隨意	-9.71263
惡人	-9.71395
無量無邊	-9.7142
無量眾生	-9.71478
之體	-9.71522
座	-9.71554
諸經	-9.71611
是故名為	-9.71646
何所	-9.71751
賢	-9.71781
降伏	-9.71782
鹿	-9.71796
顯示	-9.71875
天眼	-9.72245
異法	-9.7226
關	-9.7237
貪著	-9.72393
而是	-9.72404
不樂	-9.72445
都無	-9.72515
謝	-9.72517
大士	-9.7252
佛為	-9.72585
不實	-9.72603
如是之人	-9.72692
今初	-9.72702
四相	-9.72731
是無	-9.72848
第一義空	-9.72951
云何說言	-9.72974
皮	-9.73019
別有	-9.73242
獲得	-9.73291
況復	-9.73318
不共	-9.73427
若有比丘	-9.7343
勸修	-9.73527
憂悲	-9.737
闕	-9.73724
不著	-9.73758
試	-9.73772
冷	-9.73782
二法	-9.73783
中有四	-9.73859
五大	-9.73881
道者	-9.74043
是則名為	-9.74088
▁「	-9.74191
所成	-9.74276
人民	-9.74295
酒	-9.74356
▁初譬	-9.74568
捨離	-9.74569
徒	-9.74577
若論	-9.74578
無所有	-9.74637
節	-9.74644
此亦	-9.74807
云何言	-9.7495
肉眼	-9.74983
病者	-9.75
諸根	-9.7501
受生	-9.75135
有一	-9.75138
有所	-9.75183
即得	-9.75193
自有	-9.75362
修善	-9.75405
是我	-9.75443
不言	-9.75546
非一	-9.7569
非因	-9.75716
昇	-9.75727
猶是	-9.75805
七日	-9.7584
是義云何	-9.75939
佛性亦爾	-9.75949
在家	-9.75985
寶藏	-9.76005
王子	-9.76272
迴	-9.76362
河西	-9.76419
詮	-9.7645
草木	-9.76509
彼岸	-9.76553
乃名	-9.76554
去是	-9.76772
影	-9.76962
正解	-9.77018
非非	-9.77058
耆婆	-9.77092
懺悔	-9.77155
俗諦	-9.77168
佛身	-9.77185
借	-9.7719
帝	-9.77217
利根	-9.77261
四眾	-9.77269
佛意	-9.77277
合譬	-9.77499
際	-9.77582
唯願	-9.77586
護持	-9.78011
不久	-9.78196
此釋	-9.78211
痛	-9.78227
初云	-9.78228
不見佛性	-9.78242
既無	-9.78269
何緣	-9.78286
之異	-9.78319
任	-9.78329
三句	-9.78361
空空	-9.78435
書寫	-9.78489
通教	-9.78489
污	-9.78495
所依	-9.78501
請住	-9.78526
斷常	-9.78594
得菩提	-9.786
不可說	-9.78606
半字	-9.78631
疏主	-9.78692
天行	-9.78708
。】	-9.7873
獄	-9.78759
無法	-9.78768
復有二種	-9.78829
承	-9.78869
前文	-9.78955
一種	-9.78956
力故	-9.7897
正遍知	-9.78972
瓔珞	-9.79005
微塵	-9.79132
鈍	-9.79134
竪	-9.79171
折	-9.79192
若欲	-9.79205
能除	-9.79264
摩訶	-9.79284
後結	-9.79319
大師	-9.79498
歲	-9.7951
各異	-9.79546
弘	-9.79627
蒙	-9.79651
床	-9.79678
瘡	-9.7979
次合	-9.79795
焉	-9.79891
無果	-9.79907
階	-9.79934
華嚴	-9.79939
常法	-9.80007
但云	-9.80039
釋義	-9.80056
濁	-9.80287
之用	-9.803
如佛	-9.80305
聽受	-9.80331
之與	-9.80525
無學	-9.80536
一切皆	-9.80578
相即	-9.80603
其實	-9.80625
煖	-9.80779
如來藏	-9.80805
以釋	-9.80855
酥	-9.80873
此身	-9.80902
為緣	-9.80928
過患	-9.80933
滅盡	-9.80944
斷善根	-9.8096
受身	-9.81045
若得	-9.81052
夢	-9.81065
泥	-9.81153
逐	-9.81177
言無	-9.81256
訓	-9.81277
善哉善哉	-9.8133
自下第三	-9.81335
一切眾生悉有佛性	-9.81383
天子	-9.8146
為我	-9.81498
第二段中	-9.81604
事理	-9.81607
虗妄	-9.81623
病苦	-9.81632
故能	-9.81663
解脫亦爾	-9.81684
愍	-9.81704
勅	-9.81768
下就	-9.81876
呵責	-9.8193
世法	-9.8199
審	-9.82024
前四	-9.82162
不捨	-9.82214
時節	-9.82263
無病	-9.82272
轉法輪	-9.82322
道品	-9.82369
能得	-9.82464
正念	-9.82498
無能	-9.82542
隔	-9.8273
〔	-9.82753
善星	-9.82893
行人	-9.82938
若有菩薩	-9.82954
之因	-9.82989
無緣	-9.82997
雪山	-9.83038
七種	-9.83041
得涅槃	-9.83066
旃陀羅	-9.83082
乞	-9.83254
跡	-9.83259
公	-9.83285
三千大千世界	-9.83303
血	-9.83304
離諸	-9.83313
經律	-9.83418
付囑	-9.83431
復作是言	-9.83443
釋中	-9.83447
端	-9.83486
併	-9.8349
眾生佛性	-9.83516
無非	-9.83531
不名為	-9.83549
實不	-9.83584
四事	-9.83616
憐愍	-9.8365
由旬	-9.83753
喻於	-9.83786
為諸眾生	-9.83813
施主	-9.83837
眾苦	-9.83899
蘇	-9.83922
十界	-9.84011
見已	-9.84028
而說偈言	-9.84041
無定	-9.84182
申	-9.84199
第三明	-9.8421
▁五	-9.84311
渡	-9.84314
疏云	-9.84402
詣	-9.8447
同於	-9.84533
術	-9.84661
▁初釋	-9.84674
洗	-9.84715
舍宅	-9.84784
建立	-9.8485
長行	-9.8486
段	-9.8486
入滅	-9.85067
天上	-9.85104
因也	-9.85159
此翻	-9.85209
又二先	-9.85378
三塗	-9.85398
多有	-9.8556
蜜	-9.8556
暫	-9.85575
委	-9.85605
六波羅蜜	-9.85628
不食	-9.85687
捨身	-9.8577
通達	-9.8594
醉	-9.85952
如來世尊	-9.86214
御	-9.86236
三義	-9.86251
諍論	-9.86257
名義	-9.8629
將欲	-9.86394
我於爾時	-9.86436
必有	-9.86471
無想	-9.86536
此法	-9.86564
四重	-9.86762
及與	-9.86841
之道	-9.86849
心中	-9.86924
鹽	-9.86933
一切世間	-9.86946
不及	-9.86992
一闡提輩	-9.87003
一體三寶	-9.87154
何須	-9.87162
佛道	-9.87233
為實	-9.87286
若約	-9.87309
方名	-9.87495
一偈	-9.87514
我亦如是	-9.87553
明了	-9.87637
二果	-9.87667
為喻	-9.87689
有異	-9.877
笑	-9.87703
為兩	-9.87757
陳	-9.87765
防	-9.87772
分真	-9.87993
常為	-9.88001
自身	-9.88046
滅惡	-9.88195
八種	-9.88299
精	-9.88311
恒河沙	-9.88322
難破	-9.88401
仙	-9.88523
次從	-9.8858
衰	-9.88613
憍陳如	-9.88639
諦聽	-9.88641
兩句	-9.88686
亦能	-9.88705
是大涅槃	-9.89012
拘	-9.89047
受報	-9.89131
有十	-9.8915
毒藥	-9.89153
為人	-9.8918
賢聖	-9.89202
色心	-9.8922
問也	-9.89307
十二緣	-9.89308
乏	-9.8936
懈怠	-9.89404
祕密	-9.89413
士	-9.89497
未生	-9.89589
有時	-9.897
非常非無常	-9.89756
下正	-9.89767
嗔	-9.89903
伴	-9.89983
雖不	-9.90026
能滅	-9.90124
龍王	-9.90213
有罪	-9.90229
十善	-9.90246
謂佛	-9.90336
在此	-9.90354
云何得	-9.90372
之德	-9.90429
適	-9.90467
觀師	-9.90486
下正釋	-9.90569
是色	-9.9057
極果	-9.90697
之教	-9.90708
而能	-9.90722
計我	-9.90725
善女人	-9.90778
煞	-9.90848
耶答	-9.90851
不與	-9.90854
釋言	-9.90882
居士	-9.90883
取著	-9.90885
發菩提心	-9.90997
是故下結	-9.91063
有四種	-9.91077
蓮華	-9.91156
不在	-9.91202
一切凡夫	-9.91264
有大	-9.91277
即以	-9.91343
般若波羅蜜	-9.91368
無知	-9.91454
而今	-9.91554
秘藏	-9.91611
交	-9.91618
空中	-9.91643
十五	-9.91678
故稱	-9.91764
權實	-9.91768
薄	-9.91811
不犯	-9.9184
眾生有	-9.91922
道諦	-9.91927
五道	-9.91975
亦名為	-9.91994
一切智	-9.9201
故使	-9.92099
唯佛	-9.92101
遷	-9.9215
三觀	-9.92453
義同	-9.92471
真俗	-9.92475
病行	-9.92532
三十二相	-9.92546
先問	-9.92575
複	-9.92596
心者	-9.92611
到彼岸	-9.92624
既不	-9.92626
不覺	-9.92675
衣服	-9.92677
豈得	-9.92699
念念	-9.92731
諸人	-9.92804
百千	-9.92823
入於	-9.92828
六根	-9.92918
般	-9.92922
彌勒	-9.92997
無淨	-9.92999
琉璃	-9.9304
善心	-9.93045
生不生	-9.93063
古人	-9.93124
若我	-9.93178
東方	-9.93283
即真解脫	-9.93344
注	-9.93349
依止	-9.93494
涅槃經	-9.93516
惠	-9.93612
必定	-9.93623
生信	-9.9366
久住	-9.9373
酬	-9.93779
且約	-9.93787
之後	-9.93933
是故我	-9.93972
半偈	-9.94007
夏	-9.94036
運	-9.94066
明無	-9.94082
互相	-9.94084
善能	-9.94134
驚	-9.94211
不變	-9.94277
毘	-9.94348
一行	-9.94358
枝	-9.94411
代	-9.94415
別體	-9.9442
止觀	-9.94464
守護	-9.94484
悉能	-9.94543
復以	-9.94576
戒定慧	-9.9458
十種	-9.9474
智斷	-9.94769
盜	-9.94832
語言	-9.94839
約就	-9.94894
所修	-9.9505
生疑	-9.95128
等覺	-9.95215
六入	-9.95263
生故	-9.95274
不別	-9.95284
臨	-9.95295
生天	-9.95345
四念處	-9.95365
悅	-9.95369
誦	-9.95387
恒河	-9.95402
自利	-9.9543
梵志	-9.95433
下對	-9.95493
之善	-9.95535
眠	-9.95541
為正	-9.95596
下別	-9.95638
前品	-9.95684
阿含	-9.95695
豈可	-9.95763
〕	-9.9578
若聞	-9.95807
迦葉復言	-9.95821
.	-9.95827
蛇	-9.95831
▁二譬	-9.95976
不思	-9.96037
惡法	-9.96044
檀波羅蜜	-9.96131
妨	-9.96166
則應	-9.9619
果性	-9.96236
堂	-9.96335
倍	-9.96404
鈍根	-9.96457
皆得	-9.96583
之力	-9.96672
希有	-9.96728
無住	-9.96786
登	-9.96982
有此	-9.97033
尊重	-9.971
▁初約	-9.9716
諸外道	-9.97231
墮地獄	-9.97363
佛教	-9.9739
正義	-9.97411
潤	-9.97444
以無	-9.97445
王言	-9.9753
佛所說	-9.97618
放光	-9.97698
愚人	-9.97748
信受	-9.97843
右	-9.9791
中說	-9.9793
恚	-9.97934
見有	-9.9795
是法	-9.98005
一問	-9.98015
廢	-9.98141
濫	-9.98191
今昔	-9.98263
無所得	-9.98282
更無	-9.98318
道理	-9.98332
六者	-9.98361
不如	-9.98422
不依	-9.98447
聞見	-9.98495
彰其	-9.98618
一實	-9.987
觀於	-9.98741
惟	-9.9877
少欲	-9.98888
當知是	-9.98939
喪	-9.98952
弱	-9.98988
下佛答之	-9.99056
羅剎	-9.99061
招	-9.99066
汙	-9.99073
知法	-9.99078
解義	-9.99085
邪正	-9.99117
見道	-9.99132
於諸眾生	-9.99191
八十	-9.99329
河西云	-9.99347
常也	-9.99515
婬	-9.99557
是諸	-9.99641
煗	-9.997
融	-9.99764
幾	-9.99824
覺知	-9.99827
三毒	-9.99873
太子	-9.99908
須彌	-9.99915
名為佛性	-9.99919
木叉	-9.9996
世王	-9.99976
人法	-10.0011
下答	-10.0013
答問	-10.0019
三點	-10.0023
處處	-10.0026
夫人	-10.0028
還是	-10.0031
一名	-10.0032
從此	-10.0038
汝當	-10.0051
今說	-10.0052
分段	-10.0056
狂	-10.0058
尸	-10.0059
捉	-10.0061
無閡	-10.007
三番	-10.0071
讓	-10.0074
端正	-10.0075
第	-10.0079
何故不	-10.0082
疑網	-10.0082
二事	-10.0086
相也	-10.0088
雙照	-10.0097
何等名為	-10.0103
四方	-10.0105
明有	-10.0127
實有	-10.0127
下文云	-10.0129
後三	-10.0133
令彼	-10.0133
貴	-10.0138
緣生	-10.0138
則知	-10.014
略舉	-10.0146
誹謗	-10.0148
是有為	-10.0152
附	-10.0155
初一	-10.0155
問言	-10.016
帖	-10.0165
法寶	-10.017
羅睺羅	-10.0186
為涅槃	-10.0187
同體	-10.0199
儀	-10.0212
我身	-10.0225
正釋	-10.0228
轉輪聖王	-10.0229
虫	-10.0229
得失	-10.023
纏	-10.023
如來之身	-10.0232
狗	-10.0234
清涼	-10.0239
寺	-10.0241
茲	-10.0245
集諦	-10.0251
發起	-10.0252
曉	-10.0254
下隨文釋義	-10.0255
二十五	-10.0279
其體	-10.028
四心	-10.028
答中	-10.0283
上上	-10.0294
復說	-10.03
不用	-10.0305
下示	-10.0306
嬰兒行	-10.0308
摧	-10.0315
為大	-10.0318
殺害	-10.032
大德	-10.0326
榮	-10.0329
浮	-10.033
涉	-10.0332
今家	-10.0339
了了	-10.034
次列	-10.0349
生貪	-10.0355
作佛	-10.0356
難得	-10.036
大品	-10.0362
無窮	-10.0366
滅者	-10.0369
離於	-10.0374
說無	-10.0374
於如來	-10.0377
有苦	-10.0378
亦當	-10.0384
戒律	-10.0392
譏	-10.0395
真常	-10.0399
鼓	-10.0403
越	-10.0408
妄語	-10.0409
樓	-10.0411
玅	-10.042
修學	-10.042
今教	-10.0424
是義	-10.0424
其有	-10.0426
戲論	-10.0427
地前	-10.0429
亦同	-10.043
九地	-10.0431
諸菩薩等	-10.0435
師云	-10.0435
本性	-10.0435
不至	-10.0438
亦復不	-10.0443
謂之	-10.0444
已得	-10.045
未至	-10.0469
行也	-10.0469
明佛性	-10.0475
知識	-10.0481
可以	-10.0487
慧眼	-10.0488
陀羅尼	-10.0498
別相	-10.0501
既是	-10.0502
羯磨	-10.0503
犯四重禁	-10.0506
餘人	-10.0508
不許	-10.0509
僧寶	-10.0509
十二部	-10.0513
財物	-10.0517
豎	-10.0519
阿修羅	-10.0528
金剛三昧	-10.0529
未盡	-10.0533
胎	-10.0535
欲明	-10.0536
私謂	-10.0542
未曾	-10.0546
能問	-10.0553
意業	-10.0558
不現	-10.0567
毛	-10.0568
五時	-10.0569
灰	-10.0572
多少	-10.0578
成道	-10.0579
槃	-10.0583
是非	-10.0587
機緣	-10.0587
作譬	-10.0593
剎利	-10.0597
即空	-10.0599
通名	-10.0601
涅槃是	-10.0602
五難	-10.0605
方得	-10.0607
獻供	-10.0609
斷見	-10.0614
隨機	-10.0616
初釋	-10.0617
實是	-10.0621
惡道	-10.0626
作惡	-10.063
我者	-10.0638
▁初標	-10.0639
提婆達多	-10.0652
與前	-10.0655
從緣	-10.0656
故屬	-10.0665
髮	-10.0669
【	-10.0671
默	-10.0672
若從	-10.0673
度脫	-10.0673
難意	-10.0679
賣	-10.0684
醎	-10.0684
羊	-10.0687
抑	-10.069
如來性	-10.0691
春	-10.0692
藉	-10.0698
樂者	-10.0709
斷結	-10.0722
總別	-10.0723
太	-10.0726
以有	-10.0729
兵	-10.0736
眾中	-10.0737
密語	-10.0739
其文	-10.0745
當來	-10.0746
布	-10.0747
辦	-10.0752
界外	-10.0754
佛以	-10.0757
心生	-10.0763
令他	-10.0764
見聞	-10.0765
一義	-10.0769
騰	-10.0769
無色界	-10.0781
聞不聞	-10.0781
彈	-10.0785
漸漸	-10.0788
若說	-10.0792
勢力	-10.0798
淨土	-10.0804
生起	-10.0819
合上	-10.0832
依法	-10.0834
中有三	-10.0835
逼	-10.0839
中無	-10.085
以喻	-10.0853
我已	-10.0854
源	-10.0857
步	-10.0864
地動	-10.0868
無疑	-10.0869
目連	-10.087
沈	-10.0872
七人	-10.0872
不足	-10.0877
五逆	-10.0882
苦者	-10.0885
該	-10.0886
圓融	-10.0886
我是	-10.0887
就初	-10.0892
廣大	-10.0896
去來	-10.0905
於中初先	-10.0913
有得	-10.093
乳酪	-10.0943
五十	-10.0944
略說	-10.0957
舌	-10.0958
撿	-10.0958
歎經	-10.0959
瑞	-10.096
為常	-10.0962
再	-10.0968
諸天人	-10.0973
修集	-10.0979
隨順世間	-10.0979
住於	-10.098
流布	-10.0981
等是	-10.0981
二約	-10.0989
少見	-10.0991
後之	-10.0995
實法	-10.0998
欲得	-10.1
同一	-10.1003
與佛	-10.1005
又言	-10.1014
上下	-10.1014
非眾生	-10.1015
自生	-10.1016
前中	-10.1019
與彼	-10.1036
莖	-10.1048
呪術	-10.1052
第三段中	-10.1053
帶	-10.1054
之文	-10.106
以理	-10.1062
此名	-10.1065
聚落	-10.1067
應是	-10.1067
尚不	-10.107
手足	-10.1074
合為	-10.1081
唯願如來	-10.1093
無間	-10.1096
最上	-10.1097
下以	-10.1109
應作	-10.112
能說	-10.113
眾僧	-10.113
落	-10.1135
不堪	-10.1137
侍	-10.1139
寒	-10.1146
不到	-10.1147
投	-10.1151
菓	-10.1152
得罪	-10.1153
睡眠	-10.1159
猶未	-10.1163
異解	-10.1163
若非	-10.1164
箭	-10.1167
別釋	-10.1174
不入	-10.1175
初段	-10.1182
有生	-10.1185
未見	-10.1186
結前	-10.1192
其相	-10.1194
何謂	-10.1208
其意	-10.1211
有本	-10.1215
初標	-10.1219
稟	-10.122
還生	-10.1221
非內非外	-10.1226
流轉	-10.1239
下破	-10.1244
智人	-10.1246
波羅蜜	-10.1249
不死	-10.1249
吐	-10.1249
口業	-10.1249
常義	-10.1254
初心	-10.1257
斷一切	-10.1258
今者	-10.1264
初總	-10.1266
小兒	-10.1266
非因非果	-10.1268
非涅槃	-10.127
說我	-10.1271
則名	-10.1273
空也	-10.1288
上文	-10.1293
善修	-10.13
不生生	-10.1301
不來	-10.1302
淺深	-10.1303
天王	-10.1304
成前	-10.1305
是故我說	-10.131
對前	-10.1312
蓮花	-10.1329
迦葉菩薩復白佛言	-10.133
伊	-10.1334
飢	-10.1336
船	-10.1338
此四	-10.1341
飛	-10.1343
壯	-10.1345
建	-10.1345
芽	-10.1347
妙覺	-10.1351
迦葉言	-10.1352
先問次答	-10.1385
三教	-10.1386
不生不滅	-10.1398
世俗	-10.1405
樹木	-10.1413
果果	-10.1413
良	-10.1416
不論	-10.1427
圓常	-10.1427
相貌	-10.1428
乳中	-10.1432
五果	-10.1432
禮拜	-10.1434
善逝	-10.1435
此方	-10.1437
解者	-10.1437
杖	-10.1444
神力	-10.1444
為義	-10.1448
如來常	-10.145
六行	-10.1451
聞佛	-10.1463
放捨	-10.1463
住世	-10.1467
先釋	-10.1468
初言	-10.1474
阿闍世王	-10.148
是菩薩	-10.1481
非但	-10.1488
觀智	-10.1489
依正	-10.149
非道	-10.149
性空	-10.1492
是大	-10.151
我時	-10.1515
故此	-10.1516
天中天	-10.152
幡蓋	-10.152
神足	-10.1526
知其	-10.1527
謙	-10.1528
橫計	-10.1533
如來說	-10.1537
特	-10.1538
有為法	-10.1538
意在	-10.1539
飢渴	-10.154
境智	-10.1541
喻如	-10.1544
鬼神	-10.1553
善解	-10.1553
言有	-10.1554
答上	-10.1556
作是念	-10.1559
不觀	-10.1564
說者	-10.1566
三千	-10.1567
契經	-10.1568
一就	-10.1572
不敢	-10.1572
初後	-10.1573
意謂	-10.1578
民	-10.1578
續	-10.1585
喻佛	-10.1586
善友	-10.1589
五戒	-10.159
依經	-10.1594
病人	-10.1598
餘三	-10.1599
須陀洹人	-10.1599
豈有	-10.1603
結成	-10.1605
時有	-10.1608
能令眾生	-10.1609
誓	-10.1611
快樂	-10.1612
野	-10.1615
良以	-10.1617
一字	-10.1621
善男子譬如	-10.1625
牒前	-10.1628
初番	-10.1632
輩	-10.1633
出生	-10.1634
說也	-10.1639
本來	-10.1646
食肉	-10.1653
積聚	-10.1654
諸弟子	-10.1663
作者	-10.1664
體性	-10.1666
勢	-10.1666
毗	-10.1674
空寂	-10.1675
就前	-10.1677
▁釋	-10.1681
巳上	-10.1683
所明	-10.1694
引證	-10.1697
上說	-10.1699
懼	-10.17
常修	-10.1701
苦果	-10.1704
毒蛇	-10.1717
因性	-10.1724
而巳	-10.1724
忽	-10.1726
於法	-10.1727
一切諸佛	-10.1729
舊解	-10.1729
即前	-10.1731
初依	-10.1734
慶	-10.1736
能所	-10.1739
室	-10.1741
如法	-10.1741
戰	-10.1743
論之	-10.1743
滯	-10.1746
局	-10.1752
二俱	-10.1754
男子	-10.1755
善不善	-10.1756
聞巳	-10.1756
唯除	-10.1758
演	-10.1759
不令	-10.1769
無著	-10.1771
』	-10.1773
九十	-10.1774
而此	-10.1777
得住	-10.1777
勤修	-10.1777
受用	-10.1786
所受	-10.1791
今當	-10.1791
句別有	-10.1794
如來常住	-10.1801
為上	-10.1801
前明	-10.1802
群	-10.1804
凡有	-10.1805
今有	-10.1811
不具足	-10.1813
敷	-10.1822
降魔	-10.1827
而非	-10.1835
大乘經典	-10.1839
巳得	-10.1843
泉	-10.1843
修慧	-10.1847
下引	-10.1852
此意	-10.1853
難可	-10.1855
佛菩薩	-10.1857
常等	-10.1864
此事	-10.1866
補註	-10.1866
十德	-10.1873
雖知	-10.1877
萬行	-10.1882
業果	-10.1882
既有	-10.1884
初如文	-10.1891
常見	-10.1897
出世間	-10.1911
妙藥	-10.1913
不能得	-10.1916
聞者	-10.1917
無得	-10.1918
相生	-10.1919
周遍	-10.192
知見覺	-10.192
昔說	-10.1922
列名	-10.1923
次舉	-10.1924
復為	-10.1925
誠	-10.1926
不假	-10.193
知是	-10.1938
得自在	-10.1944
乾	-10.1944
非一切	-10.1946
言我	-10.1947
總以標舉	-10.1964
免	-10.1965
▁初科分	-10.1968
門中	-10.1968
禁戒	-10.1968
底	-10.1969
大智	-10.197
愛念	-10.1976
初譬	-10.199
得脫	-10.1993
相成	-10.1996
分明	-10.2005
左右	-10.2014
一子	-10.2019
法體	-10.202
異者	-10.2023
為五	-10.2025
破其	-10.2035
為眾	-10.204
八萬四千	-10.2045
有樂	-10.2045
隨其	-10.2046
園	-10.2047
暴	-10.2047
疑心	-10.2048
鼻	-10.2051
熏	-10.2051
客	-10.2053
:「『	-10.2054
十法	-10.206
皆云	-10.2065
非三世	-10.2066
心性	-10.2068
臥具	-10.2068
勸問	-10.2069
釋也	-10.207
鹹	-10.2071
因是	-10.2072
能觀	-10.2072
以之為	-10.2075
於一	-10.2076
此理	-10.2088
陳如	-10.2093
愧	-10.2105
五塵	-10.2109
開善云	-10.2111
是真	-10.2116
所持	-10.2117
說之為	-10.2119
質	-10.2124
所解	-10.2125
若定	-10.2125
不相	-10.2127
得名為	-10.2127
濕	-10.2128
解說	-10.213
哉	-10.2132
界內	-10.2133
二因	-10.214
!」	-10.2151
隨緣	-10.2158
得大涅槃	-10.2158
急	-10.216
非為	-10.2162
犢子	-10.2163
微細	-10.2164
顧	-10.2171
不解我意	-10.2173
因緣者	-10.2175
▁二問	-10.2176
菩提心	-10.2177
顯前	-10.2179
種性	-10.2184
果故	-10.2186
若知	-10.2186
涅槃亦爾	-10.2187
聞說	-10.2188
或作	-10.2189
正觀	-10.2194
正難	-10.2197
菩薩摩訶薩亦復如是	-10.2199
滅後	-10.22
番	-10.2201
八倒	-10.221
不次第	-10.2216
中有二	-10.2221
見色	-10.2222
乾闥婆	-10.2223
堪	-10.2225
移	-10.2226
罵	-10.2231
即為	-10.2234
有兩	-10.2236
他方	-10.2242
憑	-10.2247
常故	-10.2249
番問答	-10.225
下明其	-10.2252
當果	-10.2259
天竺	-10.2265
自下	-10.2265
皆為	-10.2267
斷疑	-10.2278
炷	-10.2282
但以	-10.2284
慧命	-10.2284
祕密藏	-10.2285
生相	-10.2288
戒者	-10.2291
念佛	-10.2293
正破	-10.2294
之想	-10.2297
老死	-10.2298
三障	-10.23
後釋	-10.2301
須陀	-10.2302
亦說	-10.2302
顯之	-10.2302
相故	-10.2308
之益	-10.2311
下次	-10.2332
翻為	-10.2334
世間解	-10.2336
無所畏	-10.2338
仁者	-10.2342
塔	-10.2342
立名	-10.2346
雙樹	-10.235
非真	-10.2352
初先	-10.2353
此土	-10.2358
穀	-10.236
連	-10.2364
天人師	-10.2371
三因	-10.2378
預	-10.238
從因	-10.238
回	-10.2382
首楞嚴	-10.2385
不墮	-10.2386
偏說	-10.2389
成論	-10.2391
為佛	-10.2391
▁初正	-10.2398
覺觀	-10.2406
滅故	-10.2406
定執	-10.241
非外	-10.241
一邊	-10.2411
具有	-10.2412
不悔	-10.2412
岸	-10.2415
隱顯	-10.2427
難見	-10.243
斯陀含	-10.2434
三惡道	-10.2439
猶有	-10.2444
一相	-10.2448
雖見	-10.2448
唯一	-10.2448
總明	-10.2452
令諸眾生	-10.2456
於生死	-10.2456
名涅槃	-10.2462
愛樂	-10.2462
後合	-10.2463
為勝	-10.2467
犯戒	-10.247
下即	-10.2472
獼猴	-10.2479
烏	-10.2481
或有說言	-10.2483
三十二	-10.2483
禁	-10.2487
正說	-10.2488
苦因	-10.2489
天下	-10.249
錄	-10.2494
往昔	-10.2509
先尼	-10.2512
▁初法	-10.2513
如來所說	-10.2518
譬喻	-10.2544
之過	-10.2545
十九	-10.255
已有	-10.255
之旨	-10.2555
常身	-10.2557
滅也	-10.2558
三十	-10.2559
卑	-10.2559
能持	-10.2559
體是	-10.2561
之問	-10.2568
性是	-10.2569
我以	-10.2571
初又二	-10.2572
不達	-10.2576
寶珠	-10.2578
竭	-10.2585
為果	-10.2593
問中	-10.2593
無上士	-10.2593
載	-10.2596
冠	-10.2599
剎	-10.2602
而作是言	-10.2604
文也	-10.2604
大論	-10.2605
左	-10.2605
初約	-10.2608
皆名	-10.2609
百年	-10.2611
共行	-10.2612
八正道	-10.2616
妄想	-10.2625
聞經	-10.2625
名不	-10.2626
無常想	-10.263
皆由	-10.2632
問佛	-10.2632
即能	-10.2633
不行	-10.2633
令我	-10.264
定相	-10.2651
若離	-10.2651
初舉	-10.2656
之業	-10.2658
名也	-10.2663
般泥洹	-10.2664
咎	-10.267
下重	-10.267
無智	-10.267
唯在	-10.2671
不畏	-10.2672
釋經	-10.2677
疏文	-10.2681
己身	-10.2688
不破	-10.269
誓願	-10.2693
糞	-10.2695
遺教	-10.27
打	-10.27
下佛	-10.2702
色相	-10.2702
如汝所說	-10.2709
是道	-10.271
字義	-10.271
有因緣故	-10.2712
我諸弟子聞是說已	-10.2714
非生	-10.2723
作因	-10.273
四無量心	-10.2733
經說	-10.2735
三問	-10.2742
外國	-10.2743
六塵	-10.2744
即是如來	-10.2747
已下明	-10.2755
可斷	-10.2755
皆以	-10.2755
言說	-10.2757
無常等	-10.2762
常在	-10.2774
廣辨	-10.2779
若言如來	-10.2786
有八	-10.2787
稱歎	-10.2793
定者	-10.2795
皆具	-10.2796
眾多	-10.2796
入道	-10.2799
了知	-10.2801
諦聽諦聽	-10.2805
渴	-10.2807
徹	-10.281
此解	-10.2812
定無	-10.2813
陵	-10.2813
就初段中	-10.2815
真法	-10.2818
七者	-10.2819
為有	-10.2823
有智之人	-10.2823
故經云	-10.2826
三惡	-10.2827
荊溪	-10.2827
想者	-10.2831
他解	-10.2834
修定	-10.2835
體用	-10.2841
無人	-10.2845
香花	-10.2846
今解	-10.2848
是第二	-10.2853
經典	-10.2855
而來	-10.286
種智	-10.2861
圓滿	-10.2866
得度	-10.2874
悅可	-10.2875
空無	-10.2876
應以	-10.2879
如來所	-10.2882
三禪	-10.2882
觀心	-10.2884
所計	-10.2889
離欲	-10.2892
佛眼	-10.2905
明菩薩	-10.2905
有二義	-10.2905
柔軟	-10.2911
。』「『	-10.2914
忍辱	-10.2919
見諦	-10.2924
一品	-10.2924
無常故	-10.2925
貫	-10.2926
十六行	-10.2928
啼哭	-10.2929
讀	-10.293
或復	-10.293
次別	-10.2931
塞	-10.2934
在後	-10.2935
於常	-10.2938
四十	-10.2938
於前	-10.2946
五味	-10.2959
如汝所言	-10.2962
然後乃	-10.297
所由	-10.297
除滅	-10.2972
名須陀洹	-10.2972
佛告阿難	-10.2978
我無我	-10.2982
若作	-10.2983
下地	-10.2986
異也	-10.299
根性	-10.2994
樂受	-10.2996
今無	-10.2998
而起	-10.3002
】	-10.3009
故說為	-10.3011
句也	-10.3013
阿那含	-10.3017
合中	-10.3019
正覺	-10.3023
真如	-10.3027
說偈	-10.3028
於眾生	-10.3038
不答	-10.304
奴婢	-10.3041
慮	-10.3044
詐	-10.3045
催	-10.3046
憶念	-10.3046
其子	-10.3047
苦哉	-10.3049
恒沙	-10.3051
長養	-10.3053
闍	-10.3057
明駿	-10.3062
至於	-10.3063
見一切法	-10.3067
文別有	-10.3067
互無	-10.3071
中先	-10.3075
謂如來	-10.3076
願諸眾生	-10.308
又如	-10.3084
令眾生	-10.3086
得解	-10.3089
威	-10.3094
一舉	-10.3095
而白佛言	-10.31
化生	-10.3102
阿闍世	-10.3115
眾德	-10.3118
分證	-10.3125
樹下	-10.3127
現報	-10.3128
理性	-10.3131
有益	-10.3131
活	-10.3133
悉名	-10.3138
得入	-10.3143
君	-10.3144
索	-10.3147
以破	-10.3151
胡	-10.3155
非謂	-10.3161
謗法	-10.3161
後四	-10.3164
不絕	-10.3164
約理	-10.3165
一諦	-10.3166
迴向	-10.3167
蟲	-10.3168
異說	-10.3168
行苦	-10.3173
生死涅槃	-10.3174
今約	-10.3176
起惑	-10.3179
本有今無	-10.318
不生不生	-10.3186
俱是	-10.3191
入般涅槃	-10.3193
前云	-10.3203
所起	-10.3205
消滅	-10.3206
之難	-10.3207
梵王	-10.3211
四住	-10.3217
有因	-10.3218
化眾生	-10.323
故如經	-10.3231
意同	-10.3238
不入涅槃	-10.3239
念念滅	-10.324
我聞	-10.3249
商主	-10.3254
栴檀	-10.3256
畫	-10.3263
婦	-10.3264
迦葉白佛下	-10.3268
為苦	-10.3269
不聽	-10.3272
託	-10.3273
先喻後合	-10.3274
靈	-10.3275
獻	-10.3277
納	-10.3277
驅	-10.328
初二	-10.3282
性故	-10.3283
毛孔	-10.3284
憐	-10.3285
如來為	-10.329
習氣	-10.3295
此問	-10.3298
斷滅	-10.3299
此說	-10.3302
犯四重	-10.3304
妙有	-10.3305
生老病死	-10.3309
出入	-10.3313
身命	-10.3318
諸佛境界	-10.3319
愁	-10.3322
但為	-10.333
微密	-10.3331
有其	-10.3332
造業	-10.3334
悉有	-10.3334
若為	-10.3336
若就	-10.3336
佛是	-10.3339
先牒	-10.3341
滅罪	-10.3342
佛寶	-10.3342
棺	-10.3345
復問	-10.3345
當觀	-10.3348
▁六	-10.3348
三釋	-10.3358
利養	-10.3358
三修	-10.3372
上品	-10.3378
行道	-10.3383
有退	-10.3384
二問	-10.3384
十七	-10.339
嫉妬	-10.3394
暗	-10.3401
別圓	-10.3403
追	-10.3403
發露	-10.3407
有何	-10.3418
▁【	-10.3419
稱為	-10.3421
次譬	-10.3422
四趣	-10.3425
珍寶	-10.3427
諸善	-10.3428
則成	-10.3428
先有	-10.3431
不遍	-10.3432
見之	-10.3433
七善	-10.3435
如羅睺羅	-10.3435
如我	-10.3438
自下第四	-10.3445
生解	-10.3449
正問	-10.3452
獸	-10.3455
五人	-10.3455
生煩惱	-10.346
翻前	-10.3478
八地	-10.3478
永滅	-10.3491
色者	-10.3492
有常	-10.3492
自體	-10.3494
軟	-10.3495
開合	-10.3498
疎	-10.3515
未知	-10.3515
甜	-10.3515
固	-10.3521
八聖道	-10.3523
等正覺	-10.3523
天魔	-10.3524
今謂	-10.3526
得益	-10.3531
略明	-10.3537
諸漏	-10.3539
雖說	-10.3549
我即	-10.3554
次說	-10.3559
已還	-10.3559
三人	-10.3561
名大	-10.3562
作此	-10.3571
而去	-10.3573
證得	-10.3574
滿字	-10.3575
修因	-10.3576
須䟦	-10.3577
仙人	-10.3579
慳	-10.3582
無身	-10.3583
我若	-10.3584
限	-10.3585
頌	-10.359
滅已	-10.3593
非苦	-10.3596
釋論	-10.3597
▁二初文下隨	-10.3598
偈中	-10.3599
即時	-10.36
云何當	-10.36
五章	-10.3601
十五日	-10.3603
有果	-10.3603
法王	-10.3604
行法	-10.3615
前問	-10.3618
明行足	-10.3622
誤	-10.3623
婆伽婆	-10.3628
敗	-10.3629
相待	-10.3629
教法	-10.3629
焰	-10.363
療治	-10.3631
抱	-10.3632
刺	-10.3633
吼	-10.3637
用也	-10.3639
少欲知足	-10.3641
文顯可知	-10.3641
炎	-10.3642
對上	-10.3643
稍	-10.3644
束	-10.365
一切種智	-10.3655
常存	-10.3665
拘尸城	-10.3667
得阿羅漢果	-10.3677
猶如虛空	-10.3678
萬法	-10.3683
亦有亦無	-10.3688
即無	-10.3689
無貪	-10.3696
佛弟子	-10.3697
非三世攝	-10.3698
之物	-10.3707
六法	-10.371
偏執	-10.3711
趣向	-10.3715
知時	-10.3718
性者	-10.3722
為最	-10.3728
菩薩爾時	-10.3729
譬之	-10.3732
詞	-10.3733
明知	-10.3733
同前	-10.3734
次辨	-10.3736
章安	-10.3737
不云	-10.3737
能解	-10.3741
博	-10.3743
我昔	-10.3747
心常	-10.3749
孝	-10.3751
銀	-10.3751
稽首佛足	-10.3752
『	-10.3753
調御丈夫	-10.3754
所聞	-10.3755
一劫	-10.3757
殘	-10.3758
狹	-10.3759
摩訶衍	-10.3762
三十三天	-10.3763
講	-10.3765
次就	-10.3769
住前	-10.3773
彼佛	-10.3777
研	-10.3778
論曰	-10.3779
缾	-10.3783
因中說果	-10.3785
先合	-10.3787
有七	-10.3791
一處	-10.3796
善見	-10.3797
前中初言	-10.3799
大法	-10.3801
非內	-10.3812
三相	-10.3813
凡夫之人	-10.382
漿	-10.3824
於人	-10.3825
等四	-10.3827
同異	-10.3828
四天王	-10.3831
法空	-10.3834
亦為	-10.3835
即於	-10.384
以說	-10.385
不自	-10.3852
彼此	-10.3857
起惡	-10.3861
復次迦葉	-10.3863
有佛	-10.3865
族姓子	-10.3866
四明	-10.3871
八萬	-10.3873
現前	-10.3873
二禪	-10.3874
豈是	-10.3879
入地獄	-10.388
釋云	-10.3882
妻子	-10.3885
來者	-10.3886
昏	-10.3886
原	-10.3886
亦空	-10.3887
如虛空	-10.389
麻	-10.3891
惠施	-10.3892
乞食	-10.3892
無煩惱	-10.3892
王舍城	-10.3892
官	-10.3893
如來之性	-10.3893
兔角	-10.3896
事者	-10.3904
聞之	-10.3904
觀身	-10.3906
常沒	-10.3909
而行	-10.3911
例爾	-10.3911
通於	-10.3913
先譬次合	-10.3914
乃得	-10.3916
證成	-10.3928
復當	-10.3933
煖法	-10.3937
三惑	-10.3944
展轉	-10.3944
具足成就	-10.3952
一事	-10.3957
道場	-10.3958
乃能	-10.3961
為八	-10.3963
相好	-10.397
無對	-10.3975
初生	-10.3975
例如	-10.3977
無上道	-10.3981
彼人	-10.3982
誑	-10.3985
至此	-10.3996
觀方	-10.3997
豆	-10.4001
從緣生	-10.4001
涅槃也	-10.4007
八十種好	-10.4008
擁護	-10.401
睡	-10.4014
勞	-10.4021
北方	-10.4023
擬	-10.4025
隣	-10.4025
云何菩薩摩訶薩	-10.4028
為譬	-10.4028
無有變易	-10.4028
財寶	-10.4034
理也	-10.4035
答前	-10.4038
律儀	-10.4038
以是下結	-10.4039
得生	-10.4048
四天下	-10.405
法藏	-10.405
是名下結	-10.4055
方等經	-10.406
上中下	-10.4061
一味	-10.4062
破煩惱	-10.4073
所化	-10.4076
心則	-10.4077
不合	-10.4079
五法	-10.4079
魔王	-10.408
六卷	-10.409
自相	-10.4091
諸凡夫	-10.4093
有為無為	-10.4095
等三	-10.4098
見法	-10.4101
之始	-10.4103
難知	-10.4107
若有人	-10.4109
一切有	-10.4116
悉得	-10.4128
有無量	-10.4129
異相	-10.4131
前之	-10.4133
四魔	-10.4133
其解脫者即是如來	-10.4134
碎	-10.4139
仁	-10.414
撰	-10.414
廣略	-10.4141
賤	-10.4141
充	-10.4142
因緣生	-10.4144
佛語	-10.4145
大慈大悲	-10.4147
常住不變	-10.4152
正定	-10.4155
紙巳下	-10.4158
眾生佛性亦復如是	-10.4164
四陰	-10.4169
遍滿	-10.4174
之語	-10.4175
之慈	-10.4176
利鈍	-10.4179
停	-10.4179
眾生亦爾	-10.4181
無常也	-10.4182
出於	-10.4184
不安	-10.4188
不必	-10.4191
一分	-10.4192
即非	-10.4194
興皇云	-10.4196
釋上	-10.4196
變化	-10.4197
如來無常	-10.4198
以成	-10.4203
六事	-10.4213
增上	-10.4215
總相	-10.4217
是大乘	-10.422
施與	-10.4232
一約	-10.4235
私	-10.4245
所攝	-10.4245
一期	-10.425
四無量	-10.4251
宮殿	-10.4253
後世	-10.4256
即成	-10.4257
議	-10.4262
未聞	-10.4264
伎樂	-10.4266
占	-10.4267
大慈悲	-10.4268
晝	-10.4268
是故復名不可思議	-10.4269
得大	-10.4269
却住一面	-10.4269
難解	-10.4272
羸	-10.4273
符	-10.4275
因故	-10.4286
更有	-10.4288
不殺	-10.4288
四義	-10.4297
多羅	-10.4298
但言	-10.4299
是空	-10.4305
若於	-10.4315
下顯	-10.4318
以法	-10.432
破邪	-10.4325
至心	-10.4326
不當	-10.4332
以譬	-10.4335
人所	-10.4336
諮	-10.434
並是	-10.4341
醫藥	-10.4347
萬善	-10.4347
作是說	-10.4357
點	-10.4359
不變易	-10.436
於理	-10.4366
二死	-10.4367
十惡	-10.4368
中初言	-10.4377
金剛身	-10.4381
之色	-10.4384
孔	-10.4387
謂是	-10.4392
大人	-10.4393
合掌	-10.4395
却坐一面	-10.4399
補	-10.4399
三解	-10.4402
偏教	-10.4403
煩	-10.4403
寬	-10.4405
八苦	-10.4411
於世	-10.4411
戒定	-10.4415
梨車	-10.4415
雖未	-10.4418
誰能	-10.4418
半滿	-10.4422
非空	-10.4423
善者	-10.4427
南方	-10.4433
開示	-10.4433
性相	-10.4435
質直	-10.4439
名一闡提	-10.4442
是業	-10.4444
於一切法	-10.4449
一切悉	-10.445
大河	-10.4451
七地	-10.4452
侵	-10.4456
身智	-10.446
於涅槃	-10.4463
以大	-10.4465
佛界	-10.4465
有煩惱	-10.4468
往來	-10.4469
次觀	-10.447
二舉經	-10.4474
無名	-10.4476
答曰	-10.4477
遍一切處	-10.4478
與樂	-10.4482
生處	-10.4487
未曾有	-10.4492
不能得見	-10.4501
功用	-10.4503
前五	-10.4505
壞苦	-10.451
時眾	-10.4511
釋提桓因	-10.4522
詳	-10.4525
三學	-10.4526
令汝	-10.4529
第三句	-10.4531
白佛	-10.4534
歌	-10.4535
護持禁戒	-10.4538
高下	-10.4539
下辯	-10.4541
譬中	-10.4541
閻浮	-10.4542
赴	-10.4542
涅槃義	-10.4542
既非	-10.4545
二就	-10.4546
割	-10.4549
長短	-10.4554
心生歡喜	-10.4557
有病	-10.4558
色陰	-10.4562
復是	-10.4566
上界	-10.4567
及餘	-10.457
眼識	-10.4574
即涅槃	-10.4577
同是	-10.4577
即是涅槃	-10.4582
得成	-10.4588
者即經云	-10.4592
初難	-10.4594
此偈	-10.4598
如我所說	-10.4604
實語	-10.4609
佛智	-10.461
只由	-10.462
唯是	-10.4622
文略	-10.4623
三從	-10.4624
顯法	-10.4634
三有	-10.4635
既其	-10.4638
重明	-10.4649
先說	-10.4652
為性	-10.4652
須彌山	-10.4652
則不能	-10.4653
非人	-10.4659
所斷	-10.4663
有邊	-10.4666
宋	-10.4669
奢	-10.4669
寤	-10.4676
西方	-10.4683
見思	-10.4687
羣	-10.4691
解也	-10.4701
卷第十	-10.4704
無過	-10.4705
辯中	-10.4706
近因	-10.471
噉	-10.4719
上妙	-10.4724
為道	-10.4728
為六	-10.4738
惡知識	-10.4748
死者	-10.4749
辨異	-10.4749
心故	-10.475
修治	-10.4755
為斷	-10.4757
所以不	-10.4763
諸聲聞	-10.4764
更不	-10.4767
敢	-10.4768
即有	-10.4771
無常者	-10.4774
若有善男子	-10.4776
六句	-10.4786
此第一	-10.4787
悉令	-10.4796
得成阿耨多羅三藐三菩提	-10.4798
延	-10.4803
金銀	-10.4803
柱	-10.4805
說此	-10.4809
色無色	-10.481
務	-10.4811
族	-10.4812
說無我	-10.4817
波羅提木叉	-10.4818
略無	-10.4819
王三昧	-10.482
下辨	-10.4821
讚嘆	-10.4824
正性	-10.4824
為證	-10.4831
求佛	-10.4836
淨行	-10.4842
今師	-10.4843
現身	-10.4844
懺	-10.4845
為其	-10.4846
三十六	-10.4846
上來第一	-10.4847
不能知	-10.4852
大意	-10.4857
性淨	-10.4862
後總結	-10.4866
受記	-10.4878
真空	-10.4878
約三諦	-10.4883
奉行	-10.4885
三身	-10.4887
若佛	-10.4889
身業	-10.489
波旬	-10.4893
故不可	-10.4893
欣	-10.4893
八正	-10.4895
亦不得	-10.4896
轉輪王	-10.4898
滅除	-10.4898
妄計	-10.4902
為問	-10.4904
大力	-10.4906
就人	-10.4906
愁惱	-10.4907
歸伏	-10.4908
得知	-10.4911
又四	-10.4917
之別	-10.4928
所離	-10.4931
除斷	-10.4933
腹	-10.4934
故成	-10.4941
共相	-10.4941
自正	-10.4943
屈	-10.4944
於中有三	-10.4944
為王	-10.4944
吸	-10.4944
俱無	-10.4944
蘭	-10.4945
涅槃之體	-10.4947
晝夜	-10.4947
薪	-10.4948
次破	-10.4948
任運	-10.495
條	-10.495
行處	-10.4952
護持正法	-10.4952
須跋	-10.4956
口密	-10.4957
之境	-10.4957
八事	-10.4958
勝鬘	-10.4959
不可以	-10.496
設難	-10.4963
正以	-10.4964
通論	-10.4967
業緣	-10.497
小大	-10.497
次結	-10.4971
清淨梵行	-10.4977
三漏	-10.498
若如是者	-10.498
殺生	-10.4981
廣上	-10.4982
之樂	-10.4982
魔波旬	-10.4984
現病品	-10.4986
說是	-10.4988
於中有二	-10.499
以上	-10.4995
斷絕	-10.4997
譬也	-10.4999
如是如是	-10.5006
減	-10.5007
四分	-10.5009
當知如來	-10.5016
無憂	-10.502
如來身	-10.5025
於中先明	-10.5027
有情	-10.5028
無滅	-10.5028
即是無常	-10.503
貪愛	-10.5033
作如是	-10.5035
薩婆多	-10.5035
於中初明	-10.5036
述成	-10.5037
但說	-10.5038
十一空	-10.5039
貪心	-10.5043
威德	-10.5048
四等	-10.5061
其旨	-10.5065
三就	-10.5066
鉤鎖	-10.5072
淚	-10.5076
。』」「	-10.5076
癡人	-10.5077
執著	-10.5081
鄙	-10.5082
即名	-10.5082
曇	-10.5082
玉	-10.5084
漢	-10.5085
錢	-10.5085
喚	-10.5086
辛	-10.5088
憂愁	-10.5092
酢	-10.5095
第二句	-10.5096
文義	-10.5097
起於	-10.5098
僧祇	-10.5099
此語	-10.5101
佛即	-10.5101
住者	-10.5104
無上菩提	-10.5105
之類	-10.5106
雙遊	-10.5108
支佛	-10.5109
迦葉問	-10.5111
小異	-10.5112
空故	-10.5119
邪法	-10.5119
藏通	-10.5123
如是等法	-10.5127
我諸弟子	-10.513
威神	-10.513
或謂	-10.5135
先尼言	-10.5138
倒想	-10.5147
明義	-10.515
是佛性	-10.5156
各別	-10.5156
無佛性	-10.5156
巳身	-10.5157
還得	-10.5162
但取	-10.5171
菩薩行	-10.5171
第四明	-10.5173
得佛	-10.5177
不聞不聞	-10.5179
家之	-10.5186
問其	-10.52
攝取	-10.5202
先標	-10.5208
見巳	-10.5214
中初明	-10.5218
怒	-10.5222
復更	-10.5224
聖王	-10.5224
受化	-10.5226
初答	-10.5227
析	-10.5231
摧伏	-10.5233
所求	-10.5238
諸魔	-10.5239
▁三合	-10.5241
文釋義	-10.5242
俱有	-10.5242
重罪	-10.5242
早	-10.5242
生已	-10.5243
還復	-10.5244
a	-10.5247
以前	-10.5248
不等	-10.5249
有緣	-10.525
應生	-10.525
訶責	-10.5253
尊者	-10.5254
受持讀誦	-10.5254
問意	-10.5256
此譬	-10.526
我經中說	-10.5262
導師	-10.5265
從初	-10.5266
分齊	-10.5269
業因緣	-10.5271
中明	-10.5272
迦葉品	-10.5278
而我	-10.5283
可尋	-10.5287
波羅	-10.5287
別明	-10.5288
眾人	-10.5288
迦葉菩薩	-10.5294
所須	-10.5302
因於	-10.5305
無根	-10.5321
三譬	-10.5322
發願	-10.5325
縛解	-10.5325
因此	-10.5328
如來法身	-10.5332
未來世	-10.5336
問者	-10.534
雖同	-10.5342
前難	-10.5345
閡	-10.5347
色等	-10.5355
今品	-10.5356
是所	-10.5356
上明	-10.5356
業報	-10.5364
文別有四	-10.5365
給	-10.5366
我能	-10.5366
究	-10.5367
頌曰	-10.5367
哀愍	-10.5371
親近善友	-10.5377
齒	-10.5379
事也	-10.5381
鹿苑	-10.5381
下第	-10.5383
云何復	-10.5386
空處	-10.5389
法僧	-10.539
八法	-10.5391
正他	-10.5396
精勤	-10.5406
先王	-10.5407
作難	-10.5407
所破	-10.5407
如水	-10.5409
常果	-10.5409
之辭	-10.5411
請答	-10.5412
解脫不爾	-10.5413
為生	-10.5419
慚	-10.5422
其事	-10.5423
聞是	-10.5426
師子吼言世尊	-10.5428
多人	-10.5428
有疑	-10.5429
約事	-10.543
諸見	-10.5439
如向	-10.5441
實義	-10.5445
名相	-10.5447
飾	-10.5459
婆羅門等	-10.546
說無常	-10.5463
餘二	-10.5467
如意	-10.5474
滅煩惱	-10.5475
破惡	-10.5475
佛地	-10.5477
所詮	-10.5487
今欲	-10.5491
永離	-10.5492
必須	-10.5495
此五	-10.5503
如實	-10.5506
是煩惱	-10.5507
無益	-10.5508
則便	-10.5509
舉其	-10.551
可說	-10.5511
斫	-10.5517
唐	-10.5518
買	-10.5518
緣了	-10.552
薩	-10.5521
以是業緣	-10.5521
修者	-10.5522
本是	-10.5522
欝	-10.5524
我涅槃後	-10.5524
吒	-10.5524
澤	-10.5524
井	-10.5527
五十二眾	-10.5528
秋	-10.553
下結示	-10.553
是真實	-10.5531
以何義故	-10.5534
萬物	-10.5541
今則	-10.5546
爭	-10.5546
如言	-10.5548
亦無是處	-10.5549
文意	-10.5552
執持	-10.5552
解了	-10.5554
諸王	-10.5555
道也	-10.5556
之極	-10.5557
後身	-10.5557
六地	-10.556
通前	-10.5561
缺	-10.5564
萬德	-10.5566
以佛	-10.5567
故云無	-10.5573
有法譬合	-10.5574
如來涅槃	-10.5575
古來	-10.5575
因成	-10.5588
異名	-10.559
佛土	-10.5591
亦常	-10.5595
為樂	-10.5595
依此	-10.5596
迦葉白佛	-10.5598
滿月	-10.5599
經言	-10.5603
內心	-10.5606
取其	-10.5608
喻之	-10.5623
新伊	-10.5632
弊	-10.5633
深觀	-10.5633
外凡	-10.5634
除一闡提	-10.5635
幢	-10.5635
下品	-10.564
勝修	-10.564
作善業	-10.5643
教也	-10.5647
以何因緣	-10.565
六即	-10.565
語者	-10.5653
色法	-10.5659
亦無常	-10.566
拘尸	-10.5661
未斷	-10.5662
鬪	-10.5663
一番	-10.5664
薰	-10.5665
省	-10.5669
臭	-10.5669
為作	-10.567
不退轉	-10.5671
幽	-10.5673
石蜜	-10.5682
▁初敘	-10.5682
丈六	-10.5688
女身	-10.5689
ā	-10.5689
如下文	-10.569
增益	-10.5693
為顯	-10.5695
何能	-10.5698
中亦有	-10.5699
此非	-10.5714
良由	-10.5716
修空	-10.5722
皆約	-10.5722
上半	-10.5726
彰己	-10.5726
而自	-10.5731
則生	-10.5733
得見佛性	-10.5738
一闡提等	-10.5741
為令眾生	-10.5741
兼答	-10.575
逮	-10.5751
發言	-10.5753
為化眾生	-10.5757
敘意分科	-10.5758
明涅槃	-10.5759
有九	-10.576
二別釋	-10.5761
可畏	-10.5763
▁二今	-10.5769
所施	-10.5773
有能	-10.5774
為彼	-10.5778
總舉	-10.5779
無量煩惱	-10.5781
一生	-10.5785
有相	-10.5786
是別	-10.5787
之義也	-10.5787
說常	-10.5788
或為	-10.5789
猶故	-10.5792
犯重	-10.5798
經法	-10.5805
上座	-10.5806
竹	-10.5806
單疏	-10.5809
涅槃之	-10.5809
崩	-10.5809
摩睺羅伽	-10.5809
之智	-10.5812
難陀	-10.5814
滿故	-10.5815
亦以	-10.5817
繩	-10.5818
色身	-10.5819
州	-10.5822
同歸	-10.5822
豐	-10.5823
險	-10.5823
或見	-10.5824
則生不動國	-10.5825
現有	-10.5825
氏	-10.5825
曠	-10.5826
怪	-10.5828
是諸眾生	-10.5831
互融	-10.5835
軌	-10.5837
依報	-10.5838
其言	-10.5838
白言	-10.5844
論中	-10.5845
等法	-10.585
定說	-10.585
迦葉菩薩言	-10.5851
白衣	-10.5855
學者	-10.5859
第四句	-10.5863
答之	-10.5863
下半	-10.5866
五通	-10.587
要須	-10.5875
受戒	-10.5878
生後	-10.5878
取相	-10.5879
與此	-10.5881
聞慧	-10.5885
三云	-10.5886
理即	-10.5887
闍王	-10.5887
以偈	-10.5891
六十	-10.5892
菩薩亦爾	-10.5893
破執	-10.5893
身見	-10.5894
今更	-10.5896
昔所	-10.5897
顯其	-10.5901
故舉	-10.5909
正為	-10.5909
先答	-10.5911
即生	-10.5919
名為涅槃	-10.5919
▁二正	-10.5921
水中	-10.5923
熱病	-10.5926
第二番	-10.5926
由此	-10.5932
輪王	-10.5944
已來	-10.5946
於意云何	-10.5956
重釋	-10.5958
諸結	-10.596
掌	-10.5961
▁佛	-10.5962
業障	-10.5964
無主	-10.5966
次問	-10.5966
閉	-10.5967
裏	-10.5967
若其	-10.597
能度	-10.5974
釋成	-10.5974
啼	-10.5974
凡夫二乘	-10.5976
青黃赤白	-10.5982
悉無	-10.5983
□	-10.5985
拂	-10.5985
聞聲	-10.5985
有五種	-10.5986
善方便	-10.5986
沙門瞿曇	-10.5987
經明	-10.5988
是謂	-10.5991
故爾	-10.5992
No	-10.5994
紙	-10.5996
即佛性	-10.5998
定知	-10.5999
如世	-10.6
圓頓	-10.6004
偏明	-10.6014
一一皆	-10.6015
求利	-10.6022
約教	-10.6025
故名大	-10.6026
出假	-10.6029
若菩薩摩訶薩	-10.6029
未成	-10.6035
一則	-10.6035
處者	-10.6036
直心	-10.6036
二門	-10.604
不去	-10.6041
為宗	-10.6047
起行	-10.6052
登地	-10.6053
▁初舉	-10.6055
若當	-10.6056
受供	-10.606
盡滅	-10.6062
世智	-10.6068
此為	-10.6073
功能	-10.6077
對曰	-10.6079
造惡	-10.608
王宮	-10.6082
更互	-10.6089
遠因	-10.6093
無實	-10.6095
昧	-10.6096
別義	-10.6106
真性	-10.6107
迦羅	-10.611
佛剎	-10.6112
踊	-10.6113
有佛性者	-10.6114
脚	-10.6114
所執	-10.6116
踰	-10.6118
了了見	-10.6123
云何而得	-10.6124
兄弟	-10.6125
憶	-10.6126
賴	-10.6127
慕	-10.6128
墮於地獄	-10.6134
聲聞弟子	-10.6134
齋	-10.6136
所觀	-10.6137
每	-10.6137
如汝所問	-10.614
離苦	-10.6142
八者	-10.6142
翳	-10.6143
之上	-10.6144
世第一法	-10.6146
乳中有酪	-10.6147
顯現	-10.6147
調達	-10.6148
一切善法	-10.6149
無苦	-10.6153
諮問	-10.6155
三雙	-10.6156
正顯	-10.6156
或在	-10.616
何異	-10.6161
不同也	-10.6163
必當	-10.6166
巳前	-10.6167
諸苦	-10.6171
今既	-10.6173
內法	-10.6175
身體	-10.6177
三受	-10.6178
既得	-10.6181
何等為四	-10.6186
別答	-10.6186
略不	-10.6188
外人	-10.6195
安置	-10.6196
次論義	-10.6197
有酪	-10.6198
必得	-10.62
非相	-10.6208
明如來	-10.6208
品中	-10.6208
如幻	-10.6213
初正明	-10.6213
外法	-10.6215
所可	-10.6215
為眾生說	-10.6221
狀	-10.6224
二教	-10.6227
父王	-10.6229
測	-10.623
於閻浮提	-10.6231
譬說	-10.6233
四段	-10.6239
緣者	-10.6248
真是	-10.625
無垢	-10.6253
此初	-10.6254
經中說	-10.6254
計常	-10.6258
聞此	-10.6263
畢竟空	-10.6263
須依	-10.6263
曠野	-10.6265
下句	-10.6266
有之	-10.6267
善思念之	-10.627
作大	-10.627
淨故	-10.6272
離過	-10.6274
則失	-10.6274
之地	-10.6275
巳還	-10.6275
內有	-10.6276
所能	-10.6277
弟	-10.6277
得成佛	-10.6282
坑	-10.6287
但明	-10.6287
又是	-10.6294
當體	-10.6299
龜	-10.6299
宛然	-10.6301
瓦石	-10.6302
不可盡	-10.6304
下別顯之	-10.6305
但見	-10.6306
之解	-10.6306
是名上智	-10.6307
祖	-10.6308
不吉	-10.6311
成佛道	-10.6312
所不能	-10.6313
受畜	-10.6314
食者	-10.6316
如是解脫即是如來	-10.6316
金色	-10.6317
則不得	-10.6319
雖非	-10.6324
兩問	-10.6324
即名為	-10.6324
弘廣	-10.6325
能發	-10.6326
非有為	-10.6326
魔說	-10.6328
答意	-10.6332
次辯	-10.6334
者由	-10.6335
教行	-10.6339
愚智	-10.634
別論	-10.635
為定	-10.636
未出	-10.6361
性也	-10.6364
如世間	-10.637
敬信	-10.6371
我之	-10.6375
若據	-10.6379
是故菩薩	-10.6379
是三昧	-10.6382
或以	-10.6382
數數	-10.6382
三慧	-10.6384
各具	-10.6384
如說	-10.639
善也	-10.6394
不有	-10.6395
二乘人	-10.6398
等無差別	-10.6402
成阿耨多羅三藐三菩提	-10.6402
身口意	-10.6403
為破	-10.6409
若斷	-10.6411
神我	-10.6411
猛	-10.6417
識處	-10.6417
諸眾生故	-10.6418
餘經	-10.642
未解	-10.6424
輪轉	-10.6426
磨	-10.6428
】【	-10.6435
一家	-10.6436
尚無	-10.6437
內凡	-10.6438
戲	-10.6439
終無	-10.6439
亦不可思議	-10.6444
拘尸那城	-10.6449
不也	-10.6449
所造	-10.6449
無始終	-10.6449
緩	-10.645
分科	-10.6452
諂	-10.6455
兩譬	-10.6456
嫌	-10.6457
菩提之心	-10.6461
教誨	-10.6462
經論	-10.6463
牀	-10.6463
釋疑	-10.6463
幼	-10.6464
若能如是	-10.6468
寶幢	-10.6472
雙結	-10.6473
未必	-10.6473
下今師	-10.6474
歎德	-10.6476
體也	-10.6478
雖得	-10.6478
隨逐	-10.6479
隨他	-10.6479
至心聽	-10.6484
應言	-10.6485
無諸	-10.6493
廣破	-10.6495
佛世尊	-10.6497
徵問	-10.6498
五句	-10.6498
若無我者	-10.6498
現世	-10.6499
障礙	-10.6499
不還	-10.65
不虛	-10.6502
便言	-10.6503
故生	-10.6505
經歷	-10.6505
明中道	-10.6506
。』」	-10.6511
無此	-10.6513
無善	-10.6514
名解脫	-10.6515
救護	-10.652
無師	-10.6523
都不	-10.6523
故常	-10.6524
殺人	-10.6525
彼經	-10.6527
答云	-10.653
王所	-10.6532
長老	-10.6532
未免	-10.6539
一是	-10.6543
法忍	-10.6548
舉譬	-10.655
當為	-10.6552
有為之法	-10.6553
因緣和合	-10.6554
為說法	-10.6554
淨名	-10.6554
之苦	-10.6556
聞聞	-10.6559
唯見	-10.6566
彼土	-10.657
方便道	-10.657
十事	-10.6575
一切大眾	-10.6579
擇	-10.6579
大仙	-10.6584
佛法僧	-10.6585
我心	-10.6589
不由	-10.6589
一切眾生亦復如是	-10.6591
梨	-10.6597
是我所	-10.6602
卿	-10.6604
遭	-10.6605
洲	-10.6606
諸功德	-10.6607
大城	-10.661
絕待	-10.661
自在天	-10.661
朝	-10.661
熾盛	-10.6611
中先舉	-10.6612
入定	-10.6613
右膝著地	-10.6613
行於	-10.6614
截	-10.6614
優	-10.6614
同時	-10.6615
調御	-10.6615
合為一	-10.6617
毒箭	-10.6617
房舍	-10.6618
麥	-10.6619
統	-10.6619
住是三昧	-10.662
驢	-10.6622
所釋	-10.6622
檀越	-10.6623
可作	-10.6625
的	-10.6627
是魔眷屬	-10.6627
不貪	-10.6628
陽	-10.663
八萬劫	-10.6631
車乘	-10.6632
非身	-10.6634
梁武	-10.6634
為求	-10.6636
於阿耨多羅三藐三菩提	-10.6636
心也	-10.6637
憐憫	-10.6637
所治	-10.6637
等皆	-10.664
里	-10.664
無義	-10.6644
外緣	-10.6646
先歎	-10.6653
互現	-10.6657
喻顯	-10.6658
我性	-10.666
為非	-10.6661
善行	-10.6661
後難	-10.6663
眾生心	-10.6668
是理	-10.6669
三月	-10.6673
不肯	-10.6677
次正答	-10.6678
非時	-10.6688
如下	-10.669
捨心	-10.6694
益物	-10.6695
門也	-10.6696
為惡	-10.6699
而實	-10.6701
空門	-10.6702
不一	-10.6702
皆同	-10.6703
自心	-10.6704
無量功德	-10.6704
不從因緣	-10.6706
世出世	-10.6709
處所	-10.671
多者	-10.6721
生苦	-10.6724
為異	-10.6732
結歎	-10.6735
叵	-10.6739
為一切	-10.6741
結勸	-10.6744
用此	-10.6746
下總結	-10.6747
愁苦	-10.6748
餘處	-10.675
不能見	-10.675
體相	-10.675
是善	-10.6751
善人	-10.6753
發問	-10.6756
出聲	-10.6761
佉	-10.6763
怨親	-10.6763
為七	-10.6767
諦觀	-10.6772
始從	-10.6772
非無常	-10.6773
秦	-10.6774
漂	-10.6774
唯然	-10.6775
灌	-10.6777
宅	-10.678
意識	-10.6781
餘者	-10.6786
聾	-10.6787
封	-10.6788
如法修行	-10.6791
光宅	-10.6794
市	-10.6794
總名	-10.6796
催供	-10.6797
不相應	-10.6797
貌	-10.6797
緣於	-10.6799
因中有果	-10.68
地持	-10.68
此皆	-10.68
不染	-10.68
作五逆罪	-10.6801
非滅	-10.6801
九部	-10.6805
見空	-10.6807
深淺	-10.681
又三一	-10.6814
有諸眾生	-10.6815
旁	-10.6815
六住	-10.6815
離相	-10.6816
人間	-10.6816
此難	-10.6818
總以結之	-10.6818
卷第二十	-10.6819
▁初總	-10.682
治病	-10.6827
三途	-10.6828
所居	-10.683
門者	-10.6831
須菩提	-10.6835
為法	-10.6838
教者	-10.6843
得是	-10.6843
道滅	-10.6847
亦具	-10.685
便謂	-10.6859
世尊告	-10.6862
》,	-10.6864
修羅	-10.6865
破無明	-10.6871
所愛	-10.6873
無犯	-10.688
▁初正釋	-10.688
三四	-10.6882
若有人能	-10.6883
是無為	-10.6885
吹	-10.6887
上云	-10.6889
其義云何	-10.6892
船師	-10.6892
重說	-10.6902
其猶	-10.6903
思慧	-10.6905
前說	-10.6906
今依	-10.6907
即是佛性	-10.6908
動轉	-10.6909
名為無	-10.6915
失也	-10.6915
婆羅門言	-10.692
甘蔗	-10.6927
是內	-10.6929
閑	-10.6934
還成	-10.6937
菩薩應當	-10.6937
雅	-10.6939
娑羅	-10.6941
雙樹間	-10.6941
住法	-10.6943
合掌恭敬	-10.6943
飯	-10.6943
憙	-10.6944
卒	-10.6945
非有無	-10.6949
勇	-10.6949
厭離	-10.6951
文有	-10.6953
敵	-10.6953
識心	-10.6953
楞嚴	-10.6954
價	-10.6954
雙釋	-10.6959
揀	-10.6959
願諸眾生得	-10.696
何為	-10.6961
正因性	-10.6962
貪求	-10.6963
尺	-10.6964
鑒	-10.6965
進止	-10.6965
皆爾	-10.6965
四種人	-10.6965
流轉生死	-10.6967
非諸聲聞緣覺所知	-10.6968
生子	-10.6968
即一而三	-10.6971
復生	-10.6971
作是言	-10.6972
開顯	-10.6973
異故	-10.6976
大聖	-10.6979
言是	-10.698
無自性	-10.6984
破戒者	-10.6993
染著	-10.6994
有信	-10.6997
為得	-10.6999
即是中道	-10.7
信者	-10.7001
為名	-10.7002
三行	-10.7004
化作	-10.7005
無量劫	-10.7007
有貪	-10.7008
五譬	-10.7008
堪忍	-10.7012
中初先	-10.7015
所召	-10.7015
依教	-10.7016
性非	-10.7016
佛今	-10.7023
遊行	-10.7032
二乘之人	-10.7032
何者是	-10.7033
初門	-10.7033
汝說	-10.7036
觀師云	-10.7036
一門	-10.7041
無餘涅槃	-10.7047
阿僧祇	-10.7051
佛答為二	-10.7054
云何如來	-10.7055
三約	-10.7057
廣顯	-10.7058
得之	-10.7059
地人	-10.706
善男子菩薩摩訶薩	-10.7062
快	-10.7068
為首	-10.7071
例然	-10.7072
百非	-10.7072
報障	-10.7072
報身	-10.7074
佛有	-10.7076
譬佛	-10.7077
中二先	-10.7081
為真	-10.7085
有因緣	-10.7089
六念	-10.7091
勝劣	-10.7097
捨相	-10.7097
非聖	-10.7101
為佛性	-10.7103
稽首	-10.7104
十想	-10.7107
文為四	-10.7107
蔽	-10.711
其理	-10.7111
須臾	-10.7112
具三	-10.7112
果上	-10.7115
避	-10.7115
震	-10.7117
阿難言	-10.7118
法即	-10.712
走	-10.7122
如月	-10.7122
米	-10.7123
村	-10.7123
眾惡	-10.7123
送	-10.7126
思之	-10.7127
不可壞	-10.7128
難言	-10.713
同彼	-10.7131
孤	-10.7132
均	-10.7133
扶	-10.7133
猒	-10.7133
瑠璃	-10.7135
別惑	-10.7136
是名中智	-10.7141
為十	-10.7143
顯發	-10.7145
所以然者	-10.7147
能以	-10.715
教他	-10.7153
剎土	-10.7153
妙理	-10.7156
人多	-10.7156
亦知	-10.7161
體一	-10.7162
梵語	-10.7166
下正示	-10.7169
同聞	-10.717
有三義	-10.7172
祕密之藏	-10.7174
理同	-10.7179
又此	-10.7179
貧女	-10.7188
同也	-10.719
百億	-10.7191
是總	-10.7191
我常	-10.7195
過也	-10.7201
而成	-10.7202
即知	-10.7202
所出	-10.7206
不得言	-10.721
隨喜	-10.721
非作	-10.7213
能受持	-10.7214
以彼	-10.7216
三重	-10.7221
大論云	-10.7221
者即是如來	-10.7222
三性	-10.7223
煩惱障	-10.7223
言之	-10.7224
悟解	-10.7227
何用	-10.7228
本迹	-10.7233
故先	-10.7233
第三結	-10.7238
下牒	-10.7241
舉佛	-10.7242
九住	-10.7243
必死	-10.7244
聞是經	-10.725
信解	-10.7251
先喻	-10.7251
真解	-10.7255
名無常	-10.7256
五品	-10.7257
天女	-10.7257
正報	-10.7258
不疑	-10.726
住持	-10.726
心法	-10.7262
眾魔	-10.7262
是名菩薩摩訶薩	-10.7264
能答	-10.7266
內空	-10.7267
佛自	-10.7267
廣辯	-10.7272
之間	-10.7272
愚者	-10.7276
心懷	-10.7277
隨時	-10.7279
從彼	-10.7279
揚	-10.7283
祕	-10.7285
其色	-10.7286
初發心	-10.7287
欲知	-10.7292
即指	-10.7293
乃有	-10.7295
若不能	-10.7296
若具	-10.7297
趣入	-10.7299
庶	-10.73
破惑	-10.7301
明己	-10.7301
產	-10.7301
即是法身	-10.7302
繞	-10.7304
入理	-10.7304
是滅	-10.7304
如來何故	-10.7304
厚	-10.7304
馳	-10.7305
勇健	-10.7308
黨	-10.731
鈔	-10.731
名為大	-10.731
重病	-10.7311
繫心	-10.7311
其名曰	-10.7312
有何差別	-10.7313
富那	-10.7313
今釋	-10.7315
行施	-10.7316
既言	-10.7317
佛性也	-10.7321
惜	-10.7321
殊勝	-10.7321
䨱	-10.7322
若在	-10.7325
有二意	-10.7326
不違	-10.7329
自能	-10.733
解惑	-10.7331
惡果	-10.7335
後兩	-10.7336
於其	-10.734
下正明	-10.734
寂然	-10.7343
為菩薩	-10.7344
何故名	-10.7346
已上	-10.7347
讚言	-10.7349
我實	-10.7356
增減	-10.7358
第一明	-10.736
兩義	-10.7361
即說	-10.7364
是處	-10.7365
是故說	-10.7366
能了	-10.7367
先列	-10.7373
上流	-10.7374
芥子	-10.7378
作是	-10.7379
修得	-10.738
成實	-10.738
顯實	-10.7382
而見	-10.7383
汝於	-10.7383
譬如良醫	-10.7385
汝今不應	-10.7386
直是	-10.7386
三十七	-10.739
兩教	-10.7391
說於	-10.7391
藥草	-10.7392
位也	-10.7395
如來真實	-10.7398
皆當	-10.7399
佛在	-10.7399
來至	-10.74
亦言	-10.7405
一身	-10.7405
罪人	-10.7409
合之	-10.7422
總持	-10.7428
類顯	-10.7428
應無	-10.743
生盲	-10.7433
之意也	-10.7434
示同	-10.7435
不攝	-10.7448
若云	-10.745
皆不	-10.745
明非	-10.7451
大機	-10.7454
經力	-10.7456
名果	-10.746
及其	-10.7465
遶	-10.7466
皆空	-10.7468
義釋	-10.7469
夜叉	-10.7469
多諸	-10.747
或復有說	-10.7471
陰入界	-10.7471
童	-10.7471
依人	-10.7472
離生死	-10.7474
充滿	-10.7476
菩薩摩訶薩修大涅槃微妙經典	-10.7476
一切處	-10.7476
逸	-10.7477
射	-10.7479
自恣	-10.748
梁	-10.748
保	-10.7481
擯	-10.7485
九品	-10.7485
丸	-10.7486
結難	-10.7486
尼拘陀子	-10.7488
評	-10.7488
娑羅林	-10.749
遲	-10.7491
次約	-10.7491
我於往昔	-10.7492
文明	-10.7493
道慧記曰	-10.7493
修梵行	-10.7497
那得	-10.7497
▁疏總釋	-10.7497
四十年	-10.7497
以別	-10.7497
明常	-10.7502
諸子	-10.7503
雖在	-10.7508
經教	-10.7511
二十一	-10.7512
四無所畏	-10.7513
五門	-10.7515
斷德	-10.7515
謂為	-10.7516
理具	-10.7519
弊惡	-10.7525
無明漏	-10.7526
以是義下	-10.7526
邊見	-10.7528
波若	-10.753
於世間	-10.7534
弘誓	-10.7538
若自	-10.7539
初略	-10.7544
中文別有	-10.7545
不無	-10.7556
令知	-10.7556
即中	-10.7559
更無別	-10.7565
肇	-10.7566
如空	-10.7568
盲人	-10.7569
無邊身	-10.7571
上至	-10.7572
淨心	-10.7576
命盡	-10.7579
果地	-10.7579
四問	-10.758
一實諦	-10.758
為一雙	-10.7582
分別說	-10.7582
菩薩如是	-10.7588
更問	-10.7591
學人	-10.7592
亦不見	-10.7597
釋文	-10.7598
出其	-10.7599
白佛言世尊	-10.7602
偏圓	-10.7605
▁七	-10.7606
具二	-10.7611
本末	-10.7613
注云	-10.7614
今但	-10.7615
論師	-10.7615
以示	-10.7617
察	-10.7618
知之	-10.7621
戒取	-10.7622
一面	-10.7623
化身	-10.7624
方能	-10.7625
即如來	-10.7627
涅槃為	-10.7631
久遠	-10.7632
三智	-10.7632
梵本	-10.7633
而論	-10.7637
見其	-10.7637
佛境界	-10.7639
為世	-10.764
業行	-10.7643
為根本	-10.7643
離陰	-10.7644
其名	-10.7647
戒也	-10.7648
憂喜	-10.7651
健	-10.7653
汝若	-10.7654
應須	-10.7654
荒	-10.7657
跋	-10.7658
作如是說	-10.7658
返	-10.766
屋	-10.766
便得	-10.7661
軍	-10.7661
實性	-10.7664
狼	-10.7665
作是思惟	-10.7665
獵師	-10.7666
供給	-10.7667
憂惱	-10.7667
名同	-10.7672
聞所不聞	-10.7672
陰界入	-10.7676
開發	-10.7677
皆謂	-10.7678
中上	-10.7678
如是我聞	-10.7679
無因緣	-10.7679
不用處	-10.7679
煩惱業	-10.7682
領旨	-10.7683
論議	-10.7683
常說	-10.7685
心數	-10.769
如王	-10.7691
理實	-10.7694
推求	-10.7703
舊醫	-10.7706
篇	-10.7709
無諍	-10.772
開宗	-10.7724
至彼	-10.7724
▁二又	-10.7725
惡比丘	-10.7728
大段	-10.7729
不忘	-10.7736
為利	-10.7736
有所得	-10.7737
種姓	-10.7738
多種	-10.774
何名	-10.7743
了義	-10.7745
無情	-10.7748
等者即	-10.7748
有道	-10.7749
欲使	-10.7751
一日	-10.7753
之惑	-10.7757
逆罪	-10.7758
對破	-10.7759
故令	-10.776
行陰	-10.7762
以自	-10.7764
分為二	-10.7765
立義	-10.7765
而修	-10.7768
眾生不見	-10.7771
無方	-10.7773
無所著	-10.7774
能詮	-10.7774
當於	-10.7777
如來不爾	-10.7779
大喜	-10.7785
燈明	-10.779
餘皆	-10.7792
心即	-10.7793
亦應如是	-10.7797
若修	-10.7804
喻明	-10.7806
摩羅	-10.7807
密藏	-10.7809
見也	-10.781
大苦	-10.7817
緊那羅	-10.7822
故佛	-10.7825
三門	-10.7827
行七步	-10.7828
藍	-10.7828
嗚呼	-10.783
邊地	-10.7831
自見	-10.7832
妻	-10.7832
迦樓羅	-10.7833
綿	-10.7836
何等為	-10.7836
依義	-10.7839
因滅	-10.7839
採	-10.784
倚	-10.784
阿鼻地獄	-10.784
一雙	-10.7843
不可稱計	-10.7843
生也	-10.7844
勤精進	-10.7844
就佛	-10.7846
非諦	-10.7846
修戒	-10.7847
淡	-10.7847
淨不淨	-10.7849
訛	-10.7851
中初法次喻後合	-10.7853
注云云者	-10.7853
修慈	-10.7853
蚊	-10.7854
尾	-10.7854
諂曲	-10.7856
善星比丘	-10.7859
聽許	-10.7861
慧朗	-10.7862
縱橫	-10.7863
第四段中	-10.7864
超越	-10.7864
所在	-10.7865
即離	-10.7867
供具	-10.7867
毘曇	-10.7868
兩難	-10.7869
金剛之身	-10.7872
如似	-10.7875
電光	-10.7875
墜	-10.7876
迴轉	-10.7877
於他	-10.7879
退失	-10.7879
四聖諦	-10.7879
其味	-10.7883
是生死	-10.7889
下化	-10.7891
說涅槃	-10.7891
在前	-10.7892
今且	-10.7893
三世攝	-10.7899
若取	-10.7899
惡趣	-10.7899
戒是	-10.7901
前三教	-10.7901
行故	-10.7905
攝心	-10.7906
善說	-10.7906
不能自	-10.791
兩章門	-10.7915
列其名	-10.7915
悲哀	-10.792
習果	-10.792
四顛倒	-10.792
常無常等	-10.7921
此以	-10.7921
有四句	-10.7921
佛性是	-10.7922
行惡	-10.7923
於中先	-10.7926
眾生悉有佛性	-10.7927
三難	-10.7928
句中	-10.7928
是有漏	-10.7933
此句	-10.7936
此論	-10.7937
最初	-10.7938
之外	-10.794
知根	-10.7948
正應	-10.795
數人	-10.795
三道	-10.7952
勸捨	-10.7953
苦受	-10.7953
諸業	-10.7958
為答	-10.7965
大覺	-10.7972
第二難	-10.7978
千世界	-10.798
壞滅	-10.7985
可依	-10.7986
從於	-10.7987
象力	-10.7987
作種種	-10.7992
九種	-10.7995
首陀	-10.8005
無勝	-10.8006
約法	-10.8006
無央數	-10.8006
異於	-10.8007
行善	-10.8008
理故	-10.801
之殊	-10.801
不應說	-10.801
兩偈	-10.8011
隨所	-10.8014
以諸	-10.8015
誼	-10.8018
虎	-10.8019
恨	-10.8021
奇	-10.8025
響	-10.8026
法要	-10.8026
即事	-10.8028
偷	-10.8029
真理	-10.8031
釋名	-10.8031
若復有人	-10.8033
憍尸迦	-10.8033
臺	-10.8033
柔	-10.8036
哀哉	-10.8036
伐	-10.8041
勸令	-10.8043
多分	-10.8043
堪任	-10.8048
果實	-10.8051
為度	-10.8051
善道	-10.8052
古今	-10.8053
乳藥	-10.8053
奉召	-10.8057
合文	-10.8058
雙明	-10.806
瞻病	-10.8062
即其義也	-10.8063
忉利天	-10.8066
所得功德	-10.807
重問	-10.807
此第二	-10.8072
雙林	-10.8076
三意	-10.8081
造色	-10.8081
雖殊	-10.8082
令一切	-10.8084
佛國	-10.8086
別異	-10.8089
不可量	-10.809
依於	-10.809
以無常	-10.8091
是故汝等	-10.8094
一道	-10.8101
度眾生	-10.8102
治之	-10.8103
偈半	-10.8105
空有	-10.8108
于時	-10.811
祇	-10.811
別說	-10.811
第二釋	-10.8111
又問	-10.8116
即般若	-10.8121
同故	-10.8124
以求	-10.8128
欲見	-10.8133
未入	-10.8135
舉偈	-10.8137
文殊師利言	-10.8142
體同	-10.8145
諸力士	-10.8146
既盡	-10.8147
。」《	-10.8154
如來如是	-10.8156
不次	-10.8159
有色	-10.8165
行中	-10.8167
來至此	-10.8167
大王當知	-10.8171
▁二結	-10.8171
如地	-10.8171
於一切	-10.8177
潤生	-10.8177
大乘經	-10.8178
六識	-10.8178
示義	-10.8178
有滅	-10.818
故云非	-10.8182
全是	-10.8182
日光	-10.8186
是諸外道	-10.819
未發心	-10.819
下喻	-10.8191
十功德	-10.8192
食之	-10.8195
制戒	-10.8196
說偈言	-10.8197
療	-10.8204
地上	-10.8206
正意	-10.8207
不污	-10.8213
第二段	-10.8215
常無	-10.8217
善思惟	-10.8219
用者	-10.8222
▁二舉	-10.8222
行慈	-10.8222
不應言	-10.8224
北涼天竺三藏曇無讖譯	-10.8231
隨義	-10.8232
方廣	-10.8234
久住於世	-10.8235
其地	-10.8236
恥	-10.8236
瞿曇沙門	-10.8239
攬	-10.824
剋	-10.8241
近善友	-10.8242
七事	-10.8242
道前	-10.8242
次一	-10.8245
毗曇	-10.8246
佛力	-10.8247
末後	-10.8247
詶	-10.8247
辯才	-10.8247
即法身	-10.8249
饑	-10.8249
正辨	-10.8251
後時	-10.8251
三世有法無有是處	-10.8252
無是處	-10.8252
沙門果	-10.8254
設有	-10.8255
非諸聲聞	-10.8256
所覆	-10.8256
大眾問品	-10.8258
梵行品	-10.826
即解脫	-10.8261
爾乃	-10.8263
三世所攝	-10.8266
序品	-10.8266
破也	-10.8266
▁二就	-10.8267
定也	-10.8267
成熟	-10.8267
云何說	-10.8267
共住	-10.8267
兩章	-10.827
逮得	-10.8279
有門	-10.8279
譬合	-10.8281
勸信	-10.8283
因果性	-10.8285
法非法	-10.829
等者謂	-10.8292
中夜	-10.8294
陰身	-10.8296
名聞	-10.8296
▁初略	-10.8296
至于	-10.8298
以論	-10.8299
正因佛性	-10.8301
臨終	-10.8302
施者	-10.8302
哀歎品	-10.8307
值遇	-10.831
圓極	-10.8311
八智	-10.8312
所引	-10.8313
亦二	-10.8314
大千	-10.8314
身有	-10.8319
對辨	-10.8322
是外	-10.8324
五分	-10.8329
不過	-10.8333
後問	-10.8338
雜食	-10.8339
無信	-10.834
名通	-10.8341
是了因	-10.8343
四相品	-10.8343
明見	-10.8343
覩見	-10.8343
真金	-10.8352
定性	-10.8359
今意	-10.8361
及一闡提	-10.8363
常有	-10.8365
江	-10.8366
三無為	-10.8372
瞻	-10.8376
後句	-10.8378
不欲	-10.838
益也	-10.8381
所立	-10.8381
寂定	-10.8383
令生	-10.8387
我法	-10.8397
首楞嚴三昧	-10.8397
佛滅後	-10.8398
下苦	-10.84
中論	-10.84
五性	-10.8401
惡因	-10.8402
無數劫	-10.8403
四行	-10.8405
耆	-10.8406
流淚	-10.8413
遊戲	-10.8418
聞是語已	-10.8419
祠	-10.8421
途	-10.8421
孫	-10.8421
難中	-10.8422
自是	-10.8422
校	-10.8423
寫	-10.8423
便是	-10.8424
出現於世	-10.8425
楊	-10.8425
慎	-10.8425
泛	-10.8426
苟	-10.8427
墮三惡道	-10.8428
素	-10.8429
幻化	-10.8431
若諸眾生	-10.8431
為度眾生	-10.8434
菩薩摩訶薩修大涅槃	-10.8436
佛讚	-10.8437
牧	-10.8438
法輪	-10.8439
三倒	-10.8439
別離	-10.8441
佛出世	-10.8442
上根	-10.8442
與我	-10.8443
凡所	-10.8444
安眠	-10.8446
偏就	-10.845
自行化他	-10.8452
邊際	-10.8452
無常即常	-10.8458
不但	-10.8459
愛取	-10.8461
無量阿僧祇	-10.8462
▁初答	-10.8463
偈頌	-10.8476
覆藏	-10.8477
全無	-10.8478
兩番	-10.8479
若因	-10.8484
下合譬	-10.8485
就其	-10.8486
圓修	-10.8486
時異	-10.8486
之病	-10.8489
為利養故	-10.849
對之	-10.849
不能令	-10.8496
堅持	-10.8496
出離	-10.8497
法眼	-10.8501
下彰	-10.8506
義當	-10.8506
雖是	-10.8508
三十四問	-10.8508
將來	-10.851
如來性品	-10.851
法無礙	-10.8515
緣中	-10.8516
無為法	-10.8516
餘四	-10.8524
離惡	-10.8524
因生	-10.8525
後分	-10.8526
具四	-10.8527
習因	-10.8527
亦得名為	-10.8531
生果	-10.8534
法雨	-10.8538
生法	-10.8548
只是一	-10.8548
釋論云	-10.855
但合	-10.8551
見諸眾生	-10.8552
誰有	-10.8553
生酥	-10.8558
小教	-10.8559
啟	-10.8561
障故	-10.8562
無動	-10.8563
深義	-10.8567
二地	-10.8567
諸婆羅門	-10.8573
漏盡	-10.8579
婆羅	-10.8579
實無有	-10.8583
說佛	-10.8585
從佛	-10.8586
苦苦	-10.8589
能自	-10.8598
圍遶	-10.8603
化佛	-10.8605
總釋	-10.8608
我我所	-10.8608
得作	-10.8608
嶮	-10.8609
分二	-10.861
貢高	-10.861
復云	-10.8611
什	-10.8612
隨有	-10.8613
三段	-10.8613
競	-10.862
然今	-10.8621
快哉	-10.8621
裂	-10.8621
未達	-10.8622
得如是	-10.8622
尼乾	-10.8624
氷	-10.8625
曉了	-10.8627
憍	-10.8627
嫉	-10.8629
常與無常	-10.8632
包	-10.8632
不可治	-10.8632
檢	-10.8634
罰	-10.8637
即三而一	-10.8639
結使	-10.8639
遍知	-10.864
此間	-10.8642
馬鳴	-10.8643
以證	-10.8644
何等為五	-10.8644
於大乘	-10.8645
當以	-10.865
唯願世尊	-10.8651
佛及	-10.8655
第一義天	-10.8655
一闡提者	-10.8661
智德	-10.8663
佛常	-10.8667
名分別答	-10.8669
用之	-10.8672
世有	-10.8673
雖異	-10.8673
不明	-10.8675
一佛	-10.868
巳下	-10.8682
四無礙	-10.8683
二用	-10.8685
如來出世	-10.8687
經本	-10.8687
淨居	-10.8696
治國	-10.8696
自為	-10.87
不定故	-10.8702
勸請	-10.8705
四王	-10.8708
既自	-10.8711
實行	-10.8712
住大涅槃	-10.8715
滅則	-10.8716
大神通	-10.8717
而彼	-10.8721
初出	-10.8722
是等	-10.8724
等視	-10.8727
死苦	-10.8732
塵沙	-10.8733
歸命	-10.8733
所感	-10.8735
永盡	-10.8735
此即第一	-10.8736
應說	-10.874
即真	-10.8743
得羅漢	-10.8746
卷第三十	-10.8755
解脫處	-10.8761
涅槃體	-10.8764
聞其	-10.8765
即第一義	-10.8765
邪我	-10.877
先出	-10.8774
品云	-10.8785
世間法	-10.8786
五色	-10.879
執有	-10.879
何因緣	-10.8796
永無	-10.8802
第四禪	-10.8804
往佛所	-10.8806
明矣	-10.8807
前六	-10.8808
隨文	-10.8809
下出	-10.8812
目犍連	-10.8813
雖聞	-10.8814
武	-10.8815
此業	-10.8816
往至佛所	-10.8817
頭面作禮	-10.8819
天者	-10.8819
經意	-10.882
曜	-10.8821
相關	-10.8821
甲	-10.8822
粟	-10.8826
暢	-10.8828
我本	-10.8829
淨者	-10.8829
夷	-10.8829
怨憎	-10.883
不果所願	-10.8831
冤	-10.8832
諍訟	-10.8832
哀歎	-10.8833
傾	-10.8833
豈同	-10.8833
▁初示	-10.8833
欲求	-10.8834
地獄畜生餓鬼	-10.8839
是以言	-10.8842
來至佛所	-10.8843
我既	-10.8846
變異	-10.8846
初法	-10.8847
醫王	-10.8847
善五陰	-10.8851
威儀具足	-10.8851
頗	-10.8852
功德成就	-10.8852
與其	-10.8858
龍樹	-10.886
之緣	-10.8863
純陀品	-10.8864
中人	-10.8866
二月	-10.8866
倡	-10.887
我弟子	-10.8871
舉體	-10.8872
▁初正明	-10.8872
即常	-10.8874
而云	-10.8882
十相	-10.8882
定業	-10.8883
真應	-10.8885
徒眾	-10.8888
前一	-10.8893
合云	-10.8894
一部	-10.8897
離煩惱	-10.8899
之主	-10.8899
遠離一切	-10.8902
具足檀波羅蜜	-10.8908
吾今	-10.8914
次復	-10.8916
如來今者	-10.8918
云何知	-10.892
始有	-10.8921
翻名	-10.8921
能通	-10.8921
得樂	-10.8922
作罪	-10.8924
如諸	-10.8931
此據	-10.8933
能如是	-10.8935
大樂	-10.8936
無常之	-10.8937
一切聖人	-10.894
令諸	-10.894
得安隱	-10.8943
值佛	-10.8946
為主	-10.8947
空是	-10.8949
引昔	-10.8953
▁二論義	-10.8957
燈滅	-10.8958
無染	-10.8963
則不如是	-10.8964
應先	-10.8965
四弘	-10.8965
然其	-10.8966
聲聞辟支佛	-10.8966
分文	-10.8966
外有	-10.897
經家	-10.897
或是	-10.8973
能破煩惱	-10.8973
言教	-10.8974
▁初敘意	-10.8977
或有眾生	-10.898
不應作	-10.8984
未了	-10.8987
理體	-10.8987
非過去	-10.8989
非倒	-10.8991
真正	-10.8991
所念	-10.8993
辯釋	-10.8993
後五	-10.8995
歎其	-10.8998
而已	-10.8998
食身	-10.9
若生	-10.9004
有善	-10.9005
時彼	-10.9007
若常	-10.9007
得法	-10.901
不得自在	-10.9013
無常無我	-10.9015
釋前	-10.9015
中品	-10.9017
色非色	-10.9018
愛者	-10.9021
涼	-10.9023
非虛妄	-10.9023
勒	-10.9024
云何得名	-10.9025
毘舍	-10.903
不可斷	-10.903
十號	-10.903
娑羅雙樹間	-10.9032
鳴	-10.9032
欺	-10.9034
蕩	-10.9035
冬	-10.9036
死屍	-10.9036
位中	-10.9036
爛	-10.9036
不如是	-10.9037
因人	-10.9038
肥	-10.9038
拔濟	-10.9038
今亦	-10.9038
陸	-10.904
各相謂言	-10.904
斧	-10.904
拒	-10.904
毫	-10.9042
臭穢	-10.9042
即當	-10.9042
妙法	-10.9043
不聞而聞	-10.9044
群賊	-10.9044
非想非非想處	-10.9046
五義	-10.9047
▁三釋	-10.9048
但約	-10.9051
生時	-10.9052
為言	-10.9054
升	-10.9055
慧行	-10.9056
十四音	-10.9061
獲得解脫	-10.9064
勝負	-10.9065
觀受	-10.9065
受我	-10.9065
經旨	-10.9065
能離	-10.9069
是故為常	-10.9069
於無量阿僧祇劫	-10.9072
於未來世	-10.9077
定意	-10.9082
有實	-10.9083
於中初	-10.9083
今為	-10.9087
梵志言	-10.9089
不正	-10.9089
無想天	-10.9089
無累	-10.9091
置答	-10.9093
常以	-10.9093
未足	-10.9094
▁二約	-10.9095
顯正	-10.9096
江河	-10.9103
能斷善根	-10.9104
向云	-10.9107
例前	-10.9111
戒體	-10.9113
相資	-10.9114
下別釋	-10.9115
愁憂	-10.9117
▁二正答	-10.9117
頂生	-10.9122
如火	-10.9123
塵垢	-10.9127
色是無常	-10.9139
自說	-10.9144
菩薩也	-10.9147
而亦	-10.9149
大身	-10.9149
復示	-10.915
化人	-10.915
開權	-10.9151
果亦	-10.9156
俱名	-10.9159
其本	-10.9161
諸眾生等	-10.9163
破有	-10.9164
之罪	-10.9164
諸大眾	-10.9166
彰彼	-10.9167
無字	-10.9171
下廣釋	-10.9175
而住	-10.9178
常命	-10.9179
斥古	-10.9179
生長	-10.9181
總非	-10.9181
今從	-10.9183
為物	-10.9183
中根	-10.9188
下徵	-10.919
非其	-10.9192
退轉	-10.9192
三時	-10.9193
菩提道	-10.9194
網	-10.9202
我想	-10.9203
四生	-10.9203
為內	-10.9205
之子	-10.9206
一切眾	-10.921
▁初番	-10.9214
二文	-10.9215
教門	-10.9216
初正	-10.9216
理事	-10.9217
如子	-10.9218
感應	-10.9221
不得名為	-10.9223
道果	-10.9229
計有	-10.9229
蔭	-10.9231
諸句	-10.9232
下根	-10.9233
叢林	-10.9237
非想非非想	-10.9237
▁二番	-10.924
伽陀	-10.924
楚	-10.9242
惟願如來	-10.9242
觀法	-10.9243
鬪諍	-10.9244
奉持	-10.9244
▁初牒	-10.9246
滋	-10.9246
誘	-10.9246
悟道	-10.9249
泯	-10.9252
玄義	-10.9253
此兩	-10.9255
我等今者	-10.9256
溺	-10.9256
復得	-10.9257
慈愍	-10.9258
饑渴	-10.9258
二行	-10.926
鬱	-10.9261
混	-10.9262
i	-10.9263
喻真解脫	-10.9263
一對	-10.9267
會疏	-10.9269
邪常	-10.9269
月光	-10.9272
如止觀	-10.9272
生瞋	-10.9274
無常苦空無我	-10.9274
陀羅	-10.9275
一性	-10.9276
欲為	-10.9276
巳有	-10.9277
諸惡比丘	-10.9279
下云云者	-10.928
後邊	-10.9281
雖念念滅	-10.9285
去住	-10.9285
問之	-10.9287
驗知	-10.9288
憂苦	-10.9289
主人	-10.9289
重惡	-10.9294
之眾	-10.9297
生歡喜	-10.9298
十誦	-10.9299
發聲	-10.9301
地者	-10.9302
二根	-10.9304
何有	-10.9308
即滅	-10.9312
如幻化	-10.9313
善知識者	-10.9314
成上	-10.9314
苦也	-10.9315
不真	-10.9316
不差	-10.932
我不	-10.9322
理無	-10.9324
正理	-10.9324
通舉	-10.9324
不移	-10.9325
非我弟子	-10.9325
無報	-10.9329
亦於晨朝	-10.933
各自	-10.9334
亦無所	-10.9337
皆無	-10.9339
四部	-10.9347
此就	-10.9348
無受	-10.9349
難佛	-10.9349
不因	-10.935
煗法	-10.9352
正言	-10.9353
受於	-10.9353
中又二	-10.9353
得須陀洹果	-10.9354
衣食	-10.9363
正當	-10.9365
已說	-10.9365
知已	-10.9365
別也	-10.9366
不免	-10.937
得此	-10.9371
當相	-10.9372
為小	-10.9382
二品	-10.9383
如本	-10.9386
諸佛之	-10.9387
滅道	-10.9388
第二論義	-10.9393
一色	-10.9394
無退	-10.9403
是故說言	-10.9406
分果	-10.9407
德也	-10.9409
今佛	-10.9411
皆言	-10.9415
無終	-10.9416
希	-10.9422
師子王	-10.9424
汎	-10.9424
展轉相	-10.9425
同學	-10.9429
大般泥洹	-10.9429
亦應有	-10.943
行相	-10.9436
威力	-10.9437
黑闇	-10.9444
相續不斷	-10.9446
難辭	-10.9447
深密	-10.9448
答初問	-10.945
頗梨	-10.945
一切人	-10.9454
詣佛	-10.9458
城邑	-10.9458
何以故下	-10.9459
譽	-10.9459
焚	-10.946
利益眾生	-10.946
外空	-10.9461
及佛	-10.9462
營	-10.9464
搆	-10.9465
遵	-10.9467
三釋義	-10.9467
寸	-10.9468
工巧	-10.9468
自稱	-10.9468
法緣	-10.947
觀也	-10.947
正在	-10.9472
以來	-10.9474
即事而理	-10.9474
若遇	-10.9477
忽然	-10.9478
於義	-10.9479
是故得名	-10.9481
邪曲	-10.9485
恭敬供養	-10.9487
覺悟	-10.9488
標釋結	-10.9488
言語	-10.9492
還家	-10.9493
非善	-10.9497
我於一時	-10.9498
現在世	-10.9501
俱舍	-10.9504
淨名云	-10.9513
若我弟子	-10.9514
聽畜	-10.9514
佛與	-10.9519
報因	-10.952
凡有二種	-10.9522
此舉	-10.9522
淨信	-10.9522
佛告純陀	-10.9523
常為眾生	-10.9523
迦葉領解	-10.9526
持犯	-10.9527
本具	-10.9527
反顯	-10.9529
久已	-10.953
眾罪	-10.953
為汝	-10.9532
名有	-10.9536
證實	-10.9537
無定相	-10.9538
苦故	-10.9538
現文	-10.954
毀戒	-10.9542
見於佛性	-10.9545
即入	-10.9547
舉昔	-10.9551
悉知	-10.9551
乃知	-10.9551
我相	-10.9556
巳去	-10.956
我知	-10.9562
聖行品	-10.9563
勸也	-10.9563
空空空	-10.9563
無為空	-10.9565
真身	-10.9566
律中	-10.9568
上句	-10.9569
不得名	-10.9569
釋種	-10.9573
以何	-10.9578
華果	-10.958
辨之	-10.9583
友	-10.959
初就	-10.9594
三舉	-10.9596
可壞	-10.96
未顯	-10.9601
阿那含人	-10.9603
諸病	-10.9604
答第五	-10.9611
二師	-10.9611
不調	-10.9613
佛乘	-10.9617
不修身	-10.9619
是誰	-10.962
先解	-10.962
教修	-10.9621
不見性	-10.9632
即上	-10.9634
身子	-10.9636
八味	-10.9642
無心	-10.9642
愈	-10.9644
入證	-10.9654
供養佛	-10.9656
不畢竟	-10.9661
兩種	-10.9661
摩訶摩耶	-10.9664
七覺	-10.9664
由心	-10.9665
眾寶	-10.9668
引經	-10.9668
幡	-10.9669
下明佛	-10.9669
等一	-10.9673
最為	-10.9674
三一	-10.9674
次以	-10.9674
總標	-10.9674
初教	-10.9676
真道	-10.9679
屋宅	-10.9682
金翅鳥	-10.9682
逢	-10.9683
無見	-10.9683
菴羅	-10.9684
芭蕉	-10.9685
圍繞	-10.9685
筆	-10.9685
弗	-10.9686
沈沒	-10.9688
雞	-10.9688
受法	-10.969
為第一	-10.9693
看	-10.9693
法華云	-10.9693
授記	-10.9695
而未	-10.9695
第二人	-10.9695
夭	-10.9696
第二十	-10.9696
起發	-10.9696
誹謗正法	-10.9697
刀杖	-10.97
充足	-10.97
怨賊	-10.9702
成於	-10.9704
詐親	-10.9704
如前記	-10.9705
故下文言	-10.9706
知義	-10.9708
我巳	-10.9709
聖諦	-10.9714
二家	-10.9714
心神	-10.9715
非大涅槃	-10.9716
於上	-10.9718
證果	-10.972
以佛神力	-10.9722
圓義	-10.9725
重復	-10.9726
以標舉	-10.9727
牒問	-10.973
冥真	-10.9734
名見	-10.9738
所度	-10.9738
甚多	-10.9741
而為說法	-10.9745
當得阿耨多羅三藐三菩提	-10.9747
無處	-10.975
種善根	-10.9752
服乳	-10.9753
施化	-10.9755
有心	-10.9761
今世	-10.9763
請佛住	-10.9765
破前	-10.9765
施食	-10.9766
故偏	-10.9768
能調	-10.9769
如經中說	-10.977
且舉	-10.977
等事	-10.9771
四結	-10.9774
等相	-10.9779
五見	-10.978
是佛境界	-10.978
度者	-10.9782
象馬	-10.9783
增過	-10.9788
善趣	-10.9788
復次善男子譬如	-10.9795
心識	-10.9797
遮止	-10.9797
四字	-10.9797
教化眾生	-10.9801
助道	-10.9805
前七	-10.9807
而出	-10.9809
說文	-10.9821
義通	-10.9823
想倒	-10.9825
得善	-10.9825
辟支	-10.9827
此經中	-10.983
無量百千	-10.9834
空行	-10.9836
不畜	-10.9837
如其不	-10.9844
難云	-10.9845
偏小	-10.9847
眾生壽命	-10.9848
就此	-10.9849
不待	-10.9853
色性	-10.9861
二智	-10.9864
樂因	-10.9871
不隨	-10.9871
上言	-10.9872
▁初敘古	-10.9875
即理	-10.9877
如燈	-10.9878
破於	-10.9881
殿	-10.9887
餘法	-10.9888
出生死	-10.9888
所顯	-10.9889
迦葉白下	-10.9889
是名中道	-10.989
菩薩不爾	-10.9897
身色俱空	-10.9901
三對	-10.9905
淵	-10.9905
次廣	-10.9909
星宿	-10.9909
奴	-10.9909
非佛	-10.9911
十信	-10.9912
色力	-10.9913
嗅	-10.9914
陋	-10.9914
文句	-10.9915
云何下	-10.9917
大梵天王	-10.9917
冶城	-10.9918
弓	-10.9919
甞	-10.9919
慇懃	-10.992
育	-10.9921
之大	-10.9921
驚怪	-10.9922
為利養	-10.9922
第二問	-10.9924
前中初先	-10.9924
不淨之物	-10.9925
為師	-10.9925
欺誑	-10.9926
役	-10.9928
短壽	-10.9928
默然不受	-10.993
諸相	-10.993
鑽	-10.993
了達	-10.9931
以辨	-10.9931
起見	-10.9932
不淨觀	-10.9932
從前	-10.9932
愛心	-10.9932
若具應言	-10.9933
生死無常	-10.9933
皆從	-10.9934
亦不可	-10.9934
勸人	-10.9936
寧得	-10.9936
各執	-10.9937
常樂等	-10.9938
非果	-10.9939
悉有佛性	-10.9939
▁二若	-10.9942
不念	-10.9943
迦葉先問	-10.9945
那忽	-10.9947
滅時	-10.9947
名之	-10.9948
如是之義	-10.9948
當作	-10.9948
具說	-10.995
首楞嚴定	-10.9952
今舉	-10.9954
通明	-10.9955
第三人	-10.9957
燸	-10.996
先無	-10.9962
自滅	-10.9962
相似法故	-10.9965
生死中	-10.9968
以種種	-10.9972
眼根	-10.9974
繫屬	-10.9974
一途	-10.9975
作此說	-10.9981
中作	-10.9984
二段	-10.9991
六人	-10.9991
所歸	-10.9993
重故	-10.9996
火滅	-11.0004
金剛心	-11.0005
修習道	-11.0007
所照	-11.0014
廣前	-11.0015
極愛	-11.0021
今復	-11.0026
不可聞	-11.0027
之喻	-11.0029
善護	-11.0031
而常	-11.0034
既爾	-11.004
三根	-11.0042
本際	-11.0042
所有眾生	-11.0043
體非	-11.0043
生此	-11.0043
有身	-11.0044
重顯	-11.0046
先就	-11.0051
中道也	-11.0051
能成	-11.0054
義說	-11.0054
百歲	-11.0059
能證	-11.006
大事	-11.0062
亦見	-11.0062
受已	-11.0063
下廣	-11.0064
即此	-11.0069
能信	-11.0069
答第三	-11.007
後解	-11.007
觀漏	-11.0071
名善知識	-11.0073
三領解	-11.0073
佛涅槃	-11.0074
有餘無餘	-11.0079
即問	-11.0082
能遮	-11.0084
生業	-11.0084
度生死	-11.0085
聲光	-11.0086
而於	-11.0088
治者	-11.0089
善果	-11.0092
通釋	-11.0092
不能破	-11.0095
人師	-11.0095
於無量劫	-11.0098
如來已	-11.0099
如是等人	-11.0101
三苦	-11.0101
苦想	-11.0101
應用	-11.0102
無生滅	-11.0103
中先問	-11.0107
何由	-11.0109
是何	-11.0112
現病	-11.0112
次句	-11.0113
他國	-11.0116
諦者	-11.0118
大雲密藏菩薩	-11.012
是法身	-11.012
掘	-11.0121
病也	-11.0127
言非	-11.0131
張	-11.0133
下第三結	-11.0134
化物	-11.0134
錯	-11.0137
今正是時	-11.0138
莊	-11.0139
莫不	-11.014
後得	-11.0141
莊嚴云	-11.0141
休	-11.0142
以定	-11.0144
十行	-11.0144
常解	-11.0145
拔苦	-11.0145
修伽陀	-11.0148
唯願大王	-11.0149
見佛性故	-11.0151
心若常者	-11.0152
禮敬	-11.0152
凡愚	-11.0153
正請	-11.0154
有真	-11.0154
四番	-11.0157
鶴	-11.0158
來至我所	-11.0159
賞	-11.016
生愛	-11.0163
憫	-11.0166
雷	-11.0166
因即	-11.0169
樂故	-11.0169
無救	-11.0169
一切眾生悉有	-11.017
何法	-11.017
捨之	-11.0171
今問	-11.0172
無始無終	-11.0173
婬欲	-11.0177
於今	-11.0177
直以	-11.0178
以能	-11.0178
不自在	-11.0179
能化	-11.0179
同名	-11.0181
述其	-11.0182
段食	-11.0184
我當云何	-11.0189
防護	-11.0191
入大涅槃	-11.0195
赤色	-11.0195
畢竟無	-11.0199
瘡疣	-11.0199
消文	-11.02
之實	-11.02
別中	-11.0201
似解	-11.0201
身無	-11.0201
改悔	-11.0203
上求	-11.0205
明此	-11.0206
諸藥	-11.0207
以不	-11.0207
下明今	-11.0208
論其	-11.0208
巳來	-11.0209
生巳	-11.021
念慧	-11.0212
如是菩薩	-11.0213
王者	-11.0213
憐愍眾生	-11.0213
疑惑	-11.022
方法	-11.0223
大捨	-11.0223
要當	-11.0228
五名	-11.023
第十一	-11.0232
能燒	-11.0232
忘失	-11.0233
自立	-11.0235
誡聽	-11.0235
易解	-11.0237
六十二	-11.0238
無殊	-11.0238
是倒	-11.024
八不淨	-11.0241
字也	-11.0244
隨宜	-11.0246
樹林	-11.0247
一明如來	-11.0251
知佛性	-11.0253
真偽	-11.0254
六番	-11.0257
順召	-11.0259
大迦葉	-11.0262
伊字	-11.0262
由於	-11.0263
教人	-11.0265
不能分別	-11.0265
涅槃果	-11.0266
約人	-11.0266
云何復言	-11.0267
是能	-11.0269
樂也	-11.0269
受安樂	-11.0271
下簡	-11.0275
三趣	-11.0282
合成	-11.0282
悉為	-11.0283
為諸	-11.0287
五眼	-11.0287
藏教	-11.0293
違經	-11.0297
向佛	-11.0299
解知	-11.03
非唯	-11.03
遠近	-11.0301
佛也	-11.0301
歎佛	-11.0302
十方諸佛	-11.0302
自言	-11.0303
薄福	-11.0307
羞	-11.0307
中句別有	-11.0308
湛然	-11.031
從戒	-11.0312
本為	-11.0314
報佛	-11.032
苦等	-11.0321
知我	-11.0324
彼云	-11.0328
理應	-11.033
皆可	-11.0331
又為二	-11.0332
香華	-11.0333
以表	-11.0339
先破	-11.034
出世法	-11.0341
無瘡疣	-11.0346
具論	-11.035
護法者	-11.0353
顯今	-11.0353
攝一切	-11.0353
百福	-11.0354
分經	-11.0357
攝一切法	-11.036
雖有佛性	-11.0367
浴	-11.0368
譬如虛空	-11.037
履	-11.0373
方知	-11.0375
晉	-11.0376
可信	-11.0377
策	-11.0377
▁初唱	-11.0377
危	-11.0377
塵勞	-11.0378
更生	-11.0379
勇猛	-11.038
五逆罪	-11.038
猪	-11.038
劍	-11.038
丘	-11.0385
望前	-11.0386
支節	-11.0386
巨	-11.0387
安慰	-11.0387
僕使	-11.0387
穿	-11.0388
如是等輩	-11.0389
能起	-11.0389
奇特	-11.039
得壽命長	-11.039
所得福德	-11.039
大智慧	-11.039
鷄	-11.039
歎教	-11.0391
墮落	-11.0392
第五明	-11.0392
悶	-11.0393
體無	-11.0394
率	-11.0394
毗尼	-11.0395
安穩	-11.0398
佗	-11.0398
祿	-11.0399
時王	-11.0399
相隨	-11.04
佛德	-11.0402
不常	-11.0404
念念生滅	-11.0404
觀苦	-11.0405
未明	-11.0406
釋所以	-11.0411
慰喻	-11.0412
性常	-11.0414
復能	-11.0415
▁初標示	-11.0415
顯中道	-11.0416
常耶	-11.0418
可生	-11.0419
汝諸比丘	-11.0425
貪等	-11.0426
如是等物	-11.0427
不通	-11.0428
使人	-11.0428
起諍	-11.043
亦作	-11.0433
猶如虗空	-11.0436
悉是無常	-11.0437
性理	-11.044
廣答	-11.044
二依	-11.0441
同一佛性	-11.0442
佛心	-11.0442
分之	-11.0442
現滅	-11.0443
除惑	-11.0444
勤苦	-11.045
不可思	-11.0451
之疑	-11.0451
歸依處	-11.0451
真心	-11.0453
即受	-11.0456
有德	-11.0463
一塵	-11.0463
空三昧	-11.0464
當知即是	-11.0464
不發	-11.0466
未來有	-11.0466
自下第二明	-11.0467
假我	-11.0469
方乃	-11.0469
覺了	-11.047
由前	-11.0471
不善思惟	-11.0472
一切佛法	-11.0473
得其	-11.0476
諸過	-11.0477
貧人	-11.0477
四譬	-11.0481
只此	-11.0484
躡	-11.0485
妄心	-11.0486
諸如來	-11.0486
昔言	-11.0487
光照	-11.0487
經曰	-11.0492
正教	-11.0493
正直	-11.0493
次難	-11.0495
是故我言	-11.0496
菩提涅槃	-11.0497
散心	-11.0498
深廣	-11.0498
大空	-11.0498
汝所	-11.0499
不消	-11.0501
非本	-11.0503
常住之法	-11.0508
分為	-11.0508
悲喜	-11.0509
樂見	-11.0513
此與	-11.0517
觀境	-11.0519
之失	-11.052
顯勝	-11.0523
五識	-11.0524
復有四	-11.0529
約之顯	-11.0535
亦通	-11.0535
為化	-11.0541
兩亦	-11.0542
似如	-11.0542
不妨	-11.0543
恭敬禮拜	-11.0543
不殊	-11.0547
正取	-11.0547
有三意	-11.0551
結之	-11.0557
▁三明	-11.0559
故名涅槃	-11.056
嘆其	-11.0561
相與	-11.0564
若無常	-11.0564
名號	-11.0573
還歸	-11.0576
易見	-11.0577
巳說	-11.0581
即應	-11.0582
諸文	-11.0582
今義	-11.0588
為外	-11.0589
故名如來	-11.0597
結云	-11.06
所緣	-11.06
中先明	-11.06
空無所有	-11.06
十二字	-11.0601
正慧	-11.0603
邪惡	-11.0605
名為見	-11.0607
何故不見	-11.0608
請也	-11.0611
斷故	-11.0612
師子吼菩薩言	-11.0613
一切諸法皆	-11.0615
紫	-11.0616
除煩惱	-11.0617
輒	-11.0619
徐	-11.0621
式	-11.0621
九法	-11.0622
斷處	-11.0624
離一切	-11.0625
假設	-11.0626
之有	-11.0627
稗	-11.0629
圍	-11.0629
壁	-11.0631
常不變易	-11.0632
本處	-11.0632
炭	-11.0633
周旋	-11.0633
暫出還沒	-11.0633
旋	-11.0635
於後	-11.0635
長壽品	-11.0636
心懷愁惱	-11.0636
者只是	-11.0637
不虗	-11.0637
正命	-11.0638
無形	-11.0638
否	-11.0639
▁二歎	-11.0639
祇夜	-11.064
漫	-11.064
結前生後	-11.0641
廣博	-11.0642
是世諦	-11.0643
逗	-11.0643
是定	-11.0644
顧命	-11.0644
求索	-11.0645
二譬	-11.0645
二解一云	-11.0646
瑞應	-11.0646
奢摩他	-11.0647
共成	-11.0647
逆流	-11.0647
贊	-11.0648
菩薩品	-11.0649
未說	-11.065
復名	-11.0653
初勸	-11.0653
縱廣	-11.0653
山林	-11.0654
悲感	-11.0655
性地	-11.0655
佛性義	-11.0656
通示	-11.0656
靈味	-11.0657
棄捨	-11.0657
譬如國王	-11.066
果中	-11.0661
師長	-11.0671
有頂	-11.0671
諸餘	-11.0671
諸善男子	-11.0672
故名為大	-11.0674
上求下化	-11.0674
前白佛言	-11.0674
知佛	-11.0675
說經	-11.0676
水草	-11.0676
見於	-11.0677
第三番	-11.0683
隨情	-11.0686
常住無變	-11.0687
見倒	-11.0688
之功	-11.0688
文為兩	-11.0689
數息	-11.0692
作善	-11.0696
終日	-11.0698
由佛	-11.0698
求有	-11.0699
證法	-11.0699
四毒蛇	-11.07
次解	-11.0705
結示	-11.0705
無限	-11.0708
名常	-11.071
阿羅漢果	-11.0714
一切菩薩	-11.0715
是常住	-11.0716
是經典	-11.0718
梵云	-11.0719
人說	-11.0724
初牒	-11.0726
▁初歎	-11.0727
空義	-11.0731
長大	-11.0732
如須彌山	-11.0732
說佛性	-11.0733
大雨	-11.0733
如前說	-11.0733
辨釋	-11.0733
傳云	-11.0735
於過去	-11.0735
開常	-11.0738
別人	-11.0738
護戒	-11.0738
夢中	-11.0739
師子吼品	-11.0741
若住	-11.0742
能忍	-11.0743
清淨戒	-11.0743
之前	-11.0743
有多	-11.0743
述意	-11.0746
常當	-11.0746
我慢	-11.075
總答	-11.0751
不遇	-11.0753
略標	-11.0757
無分	-11.0757
前譬	-11.0759
入中	-11.0763
我復	-11.0763
善因	-11.0766
今答	-11.0768
為他說	-11.0771
無明為	-11.0774
心得解脫	-11.0775
結盡	-11.0775
弘法	-11.0777
甘露味	-11.0779
常行	-11.0782
人身	-11.0783
祇陀	-11.0791
六譬	-11.0793
中道者	-11.0797
有自性	-11.0797
未見佛性	-11.08
與汝	-11.0805
▁初合	-11.0811
三勸	-11.0811
今時	-11.0812
境界性	-11.0814
得差	-11.0815
空慧	-11.0815
惡故	-11.0816
非定	-11.0817
分別解說	-11.0817
有諸	-11.0819
初正答	-11.0821
召請	-11.0822
實智	-11.0822
香氣	-11.0823
無變	-11.0825
法施	-11.0829
他云	-11.0831
受果	-11.0834
未發	-11.0836
才	-11.0838
人謂	-11.0841
所趣	-11.0843
雖為	-11.0846
意如何	-11.085
災	-11.0856
▁初引	-11.0857
臂	-11.0862
不改	-11.0862
智慧者	-11.0863
名為解脫	-11.0863
即從坐起	-11.0865
大功德	-11.0865
縣	-11.0865
修敬已畢	-11.0866
奔	-11.0868
銅	-11.0871
生彼	-11.0871
飽	-11.0873
偈文	-11.0874
我今當	-11.0874
熾然	-11.0874
盈	-11.0874
顯性	-11.0875
袈裟	-11.0876
阿鼻	-11.0878
迎	-11.0878
參	-11.0878
朗	-11.0879
兔	-11.088
削	-11.088
朽	-11.088
明無我	-11.0881
優波	-11.0881
進趣	-11.0881
甚奇	-11.0883
斬	-11.0883
頑	-11.0883
嘿	-11.0884
屠	-11.0885
當知是輩	-11.0885
開權顯實	-11.0886
三三昧	-11.0888
汝意若謂	-11.089
雖多	-11.0891
凡夫人	-11.0892
第七人	-11.0893
精勤修習	-11.0894
十使	-11.0896
高貴	-11.0896
先問後	-11.0899
辦供	-11.09
自害	-11.0901
滅巳	-11.0903
高廣	-11.0904
除愈	-11.0906
是故不得	-11.0908
未具	-11.0908
如師子王	-11.0909
得好	-11.091
名稱	-11.0912
何別	-11.0913
舉彼	-11.0918
文中初言	-11.0918
修苦行	-11.0919
成無上道	-11.092
能分別	-11.0924
苦無常	-11.0925
知根力	-11.0927
今論	-11.0929
一境	-11.093
▁二別	-11.0931
火聚	-11.0932
專念	-11.0941
如是眾生	-11.0943
觀解	-11.0944
則同	-11.0945
得為	-11.0945
戒行	-11.0949
背捨	-11.0951
覺者	-11.0952
識支	-11.0953
三果	-11.0954
多含	-11.0958
九者	-11.0958
一切聲聞	-11.0959
是真諦	-11.0959
是正	-11.0963
今涅槃	-11.0965
斥他	-11.0965
意根	-11.0966
異義	-11.0969
恒河沙等	-11.0969
復有比丘	-11.0972
化益	-11.0979
三十四	-11.0982
既具	-11.0982
菩薩修	-11.0982
至佛所	-11.0984
斯等	-11.0985
今已	-11.0986
正智	-11.0987
常教	-11.0987
法爾	-11.0988
欲問	-11.0989
不息	-11.0992
菩薩住	-11.0994
別故	-11.0995
說其	-11.0995
之徒	-11.0998
根緣	-11.1001
子想	-11.1002
已盡	-11.1002
但得	-11.1005
眾會	-11.1006
八難	-11.1007
即無常	-11.1009
無漏果	-11.1012
初成	-11.1014
與之	-11.1015
亦無有	-11.1022
悲心	-11.1023
界內外	-11.1023
故復	-11.1032
毀禁	-11.1032
釋迦牟尼	-11.1036
佛號	-11.1036
生死河	-11.1036
安樂性	-11.104
除無明	-11.1041
義亦	-11.1042
故不名	-11.1044
為第一義	-11.1045
所用	-11.1046
大歡喜	-11.1048
本自	-11.1048
十六心	-11.1049
正約	-11.1052
無可	-11.1053
名為無常	-11.1054
無我者	-11.1054
河沙	-11.106
聲聞乘	-11.1061
受之	-11.1063
珍	-11.1066
修之	-11.1072
所欲	-11.1075
此謂	-11.1076
娑	-11.1078
對於	-11.1079
何故如來	-11.108
一化	-11.1081
還以	-11.1082
不害	-11.1084
此處	-11.1084
則見	-11.1087
之位	-11.1089
藥樹	-11.1093
非世間	-11.1093
得福	-11.1093
且就	-11.1094
現見	-11.1095
餘有	-11.1095
捨去	-11.1096
於戒	-11.1098
可救	-11.1099
四月	-11.11
國人	-11.11
性體	-11.1102
無所不	-11.1104
初偈	-11.1105
露	-11.1109
丈	-11.1114
不曉	-11.1114
後更	-11.1114
古師	-11.1115
則以	-11.1119
炬	-11.1123
鳩	-11.1123
速往	-11.1124
能救	-11.1126
佛名	-11.1126
擲	-11.1128
淫	-11.1128
不惜身命	-11.1128
牟尼	-11.1128
煙	-11.1128
鬘	-11.1129
所作已辦	-11.113
五住	-11.113
結集	-11.1131
阿僧祇劫	-11.1132
伴侶	-11.1133
洗浴	-11.1134
但舉	-11.1134
悲泣	-11.1134
佛性是常	-11.1134
下結成	-11.1135
所失	-11.1135
癈	-11.1136
號哭	-11.1137
波斯匿王	-11.1137
優劣	-11.1137
神通變化	-11.1139
先以	-11.1139
隨化	-11.114
膝	-11.1141
晨朝	-11.1143
裁	-11.1143
箜篌	-11.1144
摩醯首羅	-11.1144
軟語	-11.1145
竊	-11.1145
開敷	-11.1146
次修	-11.1146
允	-11.1147
罪福	-11.1149
為無	-11.115
諸方	-11.1151
今開	-11.1151
筏	-11.1151
偏真	-11.1152
士夫	-11.1153
法與非法	-11.1154
即真解脫真解脫者即是如來	-11.1155
跳	-11.1155
招提	-11.1156
即中道	-11.1156
若有沙門	-11.1156
破我	-11.1159
長夜	-11.116
此心	-11.116
從因緣	-11.1161
得無漏	-11.1162
勝三修	-11.1162
隨自意語	-11.1163
人情	-11.1165
有問有答	-11.1168
愚癡之人	-11.1169
無上正法	-11.1171
要因	-11.1172
非色者	-11.1173
福盡	-11.1175
宜應	-11.1175
前兩	-11.1175
如虗空	-11.1177
迦葉菩薩言世尊	-11.1183
離車	-11.1183
師子座	-11.1184
下合可知	-11.1185
如來常住不變	-11.1185
親屬	-11.1187
四兵	-11.1188
苦中	-11.1188
六十二見	-11.1189
王而為上首	-11.1192
法譬合	-11.1195
如來正覺	-11.1197
時人	-11.1197
禮佛	-11.1199
爭論	-11.1199
修成	-11.1203
無厭	-11.1205
入水	-11.1206
生空	-11.1206
現果	-11.1208
物情	-11.1208
皆令	-11.1208
佛亦	-11.1209
之惡	-11.121
徵破	-11.121
是權	-11.121
當言	-11.1212
正路	-11.1214
念法	-11.1216
示滅	-11.1217
亦隨	-11.1218
二語	-11.122
其聲	-11.122
為善	-11.1222
善巧	-11.1224
敬重	-11.1226
結上	-11.1226
有大威德	-11.1228
四依品	-11.1229
彼等	-11.1229
心行	-11.1233
緣故	-11.1233
受名	-11.1234
啟請	-11.1236
無量世	-11.1241
由是	-11.1242
所以言	-11.125
色空	-11.1251
佛答中	-11.1251
前喻	-11.1252
從理	-11.1253
以知	-11.1253
爾時佛告	-11.1254
三十心	-11.1254
而般涅槃	-11.1256
慳貪	-11.1257
吾我	-11.1258
供養如來	-11.1262
又有	-11.1263
其數	-11.1264
攝法	-11.1265
佛性體	-11.1266
菩薩得	-11.1272
得稱	-11.1283
不造	-11.1285
▁二廣	-11.129
二十四	-11.1291
偏舉	-11.1292
無量諸佛	-11.1294
不更	-11.1296
第二廣	-11.1298
善本	-11.1299
下釋疑	-11.1299
此閻浮提	-11.13
不謗	-11.1301
作法	-11.1301
二意	-11.1302
成菩提	-11.1305
釋題	-11.1309
持諸	-11.1312
不可翻	-11.1313
色像	-11.1313
有十二	-11.1314
現無	-11.1315
上首	-11.1316
天龍	-11.1319
勝也	-11.132
爾時大眾	-11.132
於汝	-11.1321
句義	-11.1321
德王品	-11.1322
於四	-11.1324
消經	-11.1325
故不得	-11.1327
何益	-11.1328
又兩	-11.133
二身	-11.1333
老病死	-11.1336
教之	-11.134
從因生	-11.134
能破壞	-11.1343
為我說	-11.1346
立喻	-11.1349
亦曰	-11.1359
三名	-11.136
通惑	-11.1361
下去	-11.1366
第三重	-11.1367
戒為	-11.1367
之要	-11.1368
上生	-11.1368
戀	-11.1372
又為三	-11.1383
先總	-11.1384
斷之	-11.1385
絕名	-11.1386
吉祥	-11.1386
無上正真道	-11.1386
令出	-11.1388
廣如	-11.139
是心	-11.139
始自	-11.1391
未來之世	-11.1392
廁	-11.1392
生死苦	-11.1392
鷲	-11.1392
諸大	-11.1393
縷	-11.1393
俱非	-11.1393
損減	-11.1394
誰是	-11.1395
瞿	-11.1396
剛	-11.1397
無去來	-11.1399
勉	-11.1399
作是觀時	-11.1401
八大人覺	-11.1402
智者當觀	-11.1403
等無有異	-11.1404
織	-11.1405
崇	-11.1405
如前釋	-11.1406
飲酒	-11.141
彼聞	-11.1411
神變	-11.1411
當其	-11.1413
無辜	-11.1413
羸劣	-11.1414
十八界	-11.1414
滅壞	-11.1414
是故我今	-11.1415
從他生	-11.1416
墮獄	-11.1416
不應說言	-11.1417
觀慧	-11.1419
憶想	-11.1419
橫竪	-11.1419
見月	-11.142
常理	-11.1421
對治故	-11.1422
下譬	-11.1424
不治	-11.1426
過於	-11.143
大會	-11.143
且置	-11.1432
空不空	-11.1434
不墮地獄	-11.1435
以不見故	-11.1435
思惟其義	-11.1435
來此	-11.1436
等為	-11.144
還入	-11.144
二難	-11.1441
良藥	-11.1442
次喻	-11.1444
入空	-11.1448
兩意	-11.1453
一切外道	-11.1455
分中	-11.1457
有憂	-11.1457
一子地	-11.1458
即具	-11.1462
屬於	-11.1462
自謂	-11.1463
既然	-11.1465
就文為二	-11.1465
王今	-11.1465
現為	-11.1466
十方佛	-11.1467
廣出	-11.1467
則不生	-11.1472
無施	-11.1474
中四句	-11.1477
遠行	-11.1478
唯除菩薩	-11.1478
之根本	-11.1478
今取	-11.1479
三千大千世界所有	-11.1482
樂說	-11.1485
猶在	-11.1486
文中云	-11.1487
證也	-11.1488
即假	-11.1489
深奧	-11.1498
是如來	-11.1499
頂法	-11.1503
百千億	-11.1503
無物	-11.1504
初歎	-11.1504
座上	-11.1505
欲漏	-11.1506
食已	-11.1508
則滅	-11.1509
圓人	-11.1512
其水	-11.1513
酬其	-11.1513
教令	-11.1514
大樹	-11.1519
告諸比丘	-11.1526
法服	-11.1526
次科	-11.1529
以況	-11.153
斷諸煩惱	-11.1532
象王	-11.1532
常應	-11.1536
喻以	-11.1537
悶絕	-11.1539
信根	-11.154
即顯	-11.1542
有智	-11.1543
佛法中	-11.1544
不了義	-11.1546
如金剛	-11.1548
明之	-11.1548
後就	-11.1554
明性	-11.1555
中有五	-11.1556
心為	-11.1556
弘經	-11.1557
則不名	-11.156
行之	-11.1561
果體	-11.1563
之流	-11.1563
見此	-11.1564
等喻	-11.1564
分舍利	-11.1567
見人	-11.1571
至佛	-11.1571
為用	-11.1572
劫數	-11.1574
是約	-11.158
驚怖	-11.1585
墮於	-11.1589
無慚愧	-11.1593
水性	-11.1594
遙	-11.1596
聖法	-11.1602
便成	-11.1604
無親	-11.1604
所犯	-11.1607
而為上首	-11.1611
我今已	-11.1611
聖果	-11.1612
正使	-11.1614
謂無	-11.1614
前言	-11.1619
前起後	-11.1621
之執	-11.1623
故不可說	-11.1625
內證	-11.163
八戒	-11.1631
外計	-11.1632
梵音	-11.1635
不偏	-11.1636
或可	-11.1636
周匝	-11.1637
▁二此	-11.1638
乃云	-11.164
釋此	-11.164
先難	-11.1643
緣覺所知	-11.1646
崖	-11.1649
先後	-11.1649
是人雖	-11.1649
如是說者	-11.165
在生死	-11.1651
答第二問	-11.1652
□□	-11.1654
吞	-11.1655
次解釋	-11.1657
別名	-11.1657
末香	-11.1658
擊	-11.1658
穀米	-11.1658
邑	-11.166
唱如是言	-11.1661
能入	-11.1661
挍	-11.1662
離垢威	-11.1662
速疾	-11.1662
螫	-11.1662
亦不定	-11.1663
得人身	-11.1664
爪	-11.1665
若干	-11.1665
如是安樂亦名涅槃	-11.1665
整	-11.1666
忻	-11.1667
鼠	-11.1667
既同	-11.1668
儒	-11.1668
抄	-11.1669
佛旨	-11.1669
不生滅	-11.167
德行	-11.1672
鮮	-11.1673
進退	-11.1673
秀	-11.1674
真解脫者則不如是	-11.1674
毘婆舍那	-11.1676
得常	-11.1676
起煩惱	-11.1676
黎	-11.1677
救濟	-11.1678
多欲	-11.1682
一正	-11.1682
地水火風	-11.1682
大醫	-11.1683
不知足	-11.1683
與眾生	-11.1683
非彼	-11.1684
已有還無	-11.1685
無作無受	-11.1687
初示	-11.1687
宿命	-11.1688
註	-11.1688
等侶	-11.1689
納衣	-11.1689
謗方等經	-11.169
名字功德品	-11.169
即是解脫	-11.1692
特勝	-11.1699
遍照	-11.1704
中有一	-11.1704
神明	-11.1706
m	-11.1706
字誤	-11.1707
度眾生故	-11.1709
不習	-11.1709
無所有處	-11.1717
章句	-11.1717
常即無常	-11.1718
有漏之法	-11.1719
故名為常	-11.172
汎明	-11.172
二舉	-11.1721
起用	-11.1721
是名知足	-11.1723
說此偈	-11.1724
其上	-11.1727
不顯	-11.1729
無生死	-11.1729
一音	-11.1729
如來知時	-11.173
無作四諦	-11.173
䟦	-11.1731
水火	-11.1731
犯罪	-11.1731
一異	-11.1731
智臣	-11.1735
在佛	-11.1735
第十六	-11.1737
皆見	-11.1739
又一解	-11.174
不成就	-11.1741
聞佛說	-11.1743
歷別	-11.1746
滅苦	-11.1746
眾善	-11.1748
諮受	-11.1749
即經云	-11.175
得安樂	-11.175
明闡提	-11.1751
終不能	-11.1752
未是	-11.1752
動地	-11.1752
濕生	-11.1754
所住處	-11.1755
住一劫	-11.1764
是義不然何以故	-11.1766
千萬	-11.1769
世性	-11.1769
是第一義	-11.177
現在無	-11.1772
隨俗	-11.1772
次何以故下	-11.1773
有七種	-11.1774
失於	-11.1775
開解	-11.1776
一切行	-11.1778
豈不	-11.1782
以手	-11.1784
無始空	-11.1784
於此處	-11.1785
亦須	-11.1785
斷肉	-11.1785
與奪	-11.1786
三總結	-11.1788
無因果	-11.179
雖生	-11.1791
二相	-11.1791
無偏	-11.1796
我作	-11.18
佛昔	-11.1805
疑者	-11.1805
對彼	-11.1805
沙門婆羅門	-11.1813
求於	-11.1814
明佛無	-11.1819
分得	-11.182
其過	-11.182
醫師	-11.1823
其間	-11.1823
能轉	-11.1823
先勸	-11.1827
略不論	-11.1828
河中	-11.1834
迦葉等	-11.1837
諸優婆塞	-11.1839
放光明	-11.1844
出沒	-11.1844
大婆羅門	-11.1846
二從	-11.1849
不動地	-11.185
令入	-11.185
七句	-11.185
不立	-11.1852
之報	-11.1857
為滅	-11.1857
我先	-11.1857
證理	-11.1858
名為菩薩	-11.1859
前人	-11.1864
無我想	-11.1865
報果	-11.1867
因因性	-11.1874
不從緣生	-11.1877
而諸眾生	-11.1877
就明	-11.1878
中下	-11.1888
二空	-11.189
則不爾	-11.189
往詣	-11.1891
不可說言	-11.1899
於如來所	-11.1901
我有	-11.1902
茶毘	-11.1904
苦本	-11.1906
今我	-11.1906
問何故	-11.191
必能	-11.1911
更無異	-11.1911
若受	-11.1912
下引證	-11.1913
死想	-11.1916
淨天	-11.1917
則通	-11.1918
在胎	-11.1918
應化	-11.1919
一切苦	-11.1919
得故	-11.192
具十	-11.1921
吾當為汝分別解說	-11.1923
六通	-11.1924
寶物	-11.1924
如是無量	-11.1925
空解	-11.1925
今得	-11.1928
他土	-11.1929
爾雅	-11.1933
慰	-11.1933
席	-11.1936
初破	-11.1936
皇	-11.1937
右遶三匝	-11.1937
孰	-11.1938
若入	-11.1938
逝	-11.1939
啼泣	-11.1939
害父	-11.194
知此	-11.1941
塗香	-11.1941
者應云	-11.1941
端嚴	-11.1942
叉	-11.1942
伎藝	-11.1942
𤏙	-11.1943
側	-11.1944
已後	-11.1944
稻	-11.1944
出入息	-11.1944
盧	-11.1945
逃	-11.1945
渧	-11.1945
津	-11.1945
震動	-11.1946
是大涅槃微妙經典	-11.1946
何等四	-11.1946
觀色	-11.1947
刑	-11.1947
窟宅	-11.1948
眾相	-11.1949
提婆達	-11.1949
無緣慈	-11.195
作是願	-11.195
斥非	-11.195
亦斷	-11.1951
慧也	-11.1952
因滅是色	-11.1952
宋代沙門慧嚴等依泥洹經加之	-11.1952
牛羊	-11.1952
是亦不然	-11.1953
亮	-11.1953
來詣佛所	-11.1953
膚	-11.1953
後生	-11.1954
佛性非內非外	-11.1954
覽	-11.1955
乳有酪	-11.1955
橋	-11.1956
羅睺	-11.1956
促	-11.1959
生報	-11.1959
秘密	-11.1959
二施果報等無差別	-11.1959
客醫	-11.1959
生悔心	-11.196
不遠	-11.196
毘尼	-11.1961
寒熱	-11.1961
與諸	-11.1962
皆有佛性	-11.1962
添	-11.1963
斤	-11.1963
若佛初出得阿耨多羅三藐三菩提	-11.1963
受持禁戒	-11.1963
非未來	-11.1963
撥	-11.1963
阿脩羅	-11.1966
定知無我	-11.1966
之日	-11.1967
非色非非色	-11.1968
若此	-11.197
日東天台沙門本	-11.197
從他聞	-11.1972
啖	-11.1972
道心	-11.1974
則得安樂	-11.1976
不除	-11.1977
生死即涅槃	-11.1977
即是法	-11.1977
善男子譬如有人	-11.1979
有報	-11.1982
世間之	-11.1982
諸佛世界	-11.1986
金剛三昧亦復如是	-11.1987
受教	-11.1987
如是一切	-11.1987
結業	-11.1988
時中	-11.1989
娑羅樹	-11.199
長存	-11.1991
香象	-11.1992
唯得	-11.1992
習學	-11.1996
八相	-11.1999
傍論	-11.2
有譬有合	-11.2001
非現在	-11.2001
不定者	-11.2002
都盡	-11.2002
下約顯法	-11.2006
七支	-11.2006
無因無果	-11.2009
巳破	-11.2009
出三界	-11.201
流出	-11.2011
教勅	-11.2012
盡也	-11.2016
若有我者	-11.2016
佛復告	-11.2017
即出	-11.2017
是藥	-11.2018
念戒	-11.2021
四緣	-11.2023
所入	-11.2024
是小乘	-11.2025
遙見	-11.2025
彼彼	-11.2026
略而不	-11.203
遮請	-11.203
別歎	-11.203
南無	-11.203
昔為	-11.2032
五眾	-11.2033
三世諸佛	-11.2033
下復	-11.2034
裹	-11.2034
斷命	-11.2036
法滅	-11.2037
更舉	-11.2038
中最	-11.2038
持戒比丘	-11.2039
文廣	-11.2039
除之	-11.204
真實法	-11.204
莫生	-11.2042
有犯	-11.2045
畢竟涅槃	-11.2045
空理	-11.205
不知如來	-11.2053
異物	-11.2055
以顯之	-11.2056
而當	-11.2057
修習智慧	-11.2058
四偈	-11.2058
前八	-11.206
七方便	-11.206
假說	-11.2063
體者	-11.2063
與上	-11.2068
迷悶	-11.2078
請問	-11.2079
當機	-11.208
因果者	-11.2087
非今	-11.2087
無有差別	-11.2088
剎那	-11.2089
念天	-11.2091
觀空	-11.2093
如夢	-11.2102
菩薩所行	-11.2103
明修	-11.2105
生怖畏	-11.2105
次一行	-11.2107
十萬	-11.2107
證見	-11.2108
惡口	-11.2111
轉障	-11.2114
當時	-11.2116
下謂	-11.2117
從生	-11.2119
問為二	-11.2119
眾生不解	-11.212
多義	-11.2122
之我	-11.2123
如一子	-11.2127
五陰中	-11.2128
故且	-11.2129
常樂我	-11.2131
非內外	-11.2133
四悉意	-11.2133
後段	-11.2134
能發心	-11.2136
深法	-11.2137
決定說	-11.2139
無常苦	-11.214
身密	-11.214
須知	-11.2141
死魔	-11.2145
何妨	-11.2147
性滅	-11.2147
惑亂	-11.2148
告阿難言	-11.2148
八番	-11.2154
觀五陰	-11.2158
不會	-11.2162
受想行識亦復如是	-11.2162
無障礙	-11.2162
自度	-11.2163
佛子	-11.2165
後以	-11.2165
滅不滅	-11.2166
後人	-11.2168
雖不見	-11.2169
下合顯	-11.217
約位	-11.2171
等者以	-11.2171
之稱	-11.2172
非他	-11.2173
光召	-11.2174
唯說	-11.2176
無去	-11.2183
成正覺	-11.2186
名善	-11.2188
師也	-11.2191
就後	-11.2193
奪其	-11.2193
即是菩薩	-11.2199
伹是	-11.2199
好惡	-11.2199
合會	-11.22
不曾	-11.22
空觀	-11.2201
頃	-11.2201
顯非	-11.2202
證知	-11.2203
而不能	-11.2205
受學	-11.2205
然後得	-11.2206
外化	-11.2206
證涅槃	-11.2208
生樂想	-11.221
分也	-11.2212
某	-11.2214
磨滅	-11.2214
邏	-11.2216
身內	-11.2218
千倍	-11.2219
且據	-11.2219
以智	-11.222
異見	-11.222
練	-11.222
政	-11.2223
摩訶衍般泥洹經	-11.2224
滅處	-11.2224
即開	-11.2225
圖	-11.2225
之戒	-11.2226
證道	-11.2227
持者	-11.2229
錢財	-11.223
則易	-11.2231
斗	-11.2232
我滅度後	-11.2232
齎	-11.2232
逼迫	-11.2233
伺	-11.2233
燃	-11.2234
蜂	-11.2234
月愛三昧	-11.2235
田宅	-11.2236
文殊師利法王子	-11.2237
雙用	-11.2237
讖	-11.2239
賈	-11.2239
囑	-11.224
矜	-11.224
供養恭敬	-11.224
驅遣	-11.2241
牢	-11.2241
輔	-11.2241
彗星	-11.2241
微妙經典	-11.2242
無行	-11.2242
若施	-11.2242
上二界	-11.2242
五盛陰苦	-11.2242
德者	-11.2243
下彰其	-11.2244
苦集滅道	-11.2245
無非法界	-11.2245
無慧	-11.2245
一千	-11.2246
面像	-11.2247
樂想	-11.2248
顯露	-11.2249
房	-11.2249
如其有者	-11.2249
敕	-11.225
虛偽	-11.2251
數也	-11.2252
以自在故	-11.2252
婆沙	-11.2253
仲	-11.2253
晉沙門慧嚴慧觀謝靈運重治	-11.2253
為解	-11.2254
果中說因	-11.2255
溼	-11.2256
大山	-11.2257
則與	-11.2258
物機	-11.2258
是名少欲	-11.2258
法行	-11.226
全同	-11.226
在何處	-11.2261
涅槃是常	-11.2263
牛馬	-11.2268
妙義	-11.2269
徵起	-11.227
則墮	-11.2272
通序	-11.2273
六難	-11.2275
迷悟	-11.2276
真解脫者	-11.2277
行因	-11.2279
空法	-11.2279
灰斷	-11.2279
私云	-11.2279
求法	-11.2279
即是煩惱	-11.2283
能隨問答	-11.2283
歡喜踊躍	-11.2286
生蘇	-11.2287
是問	-11.229
妙覺如來	-11.2291
帝王	-11.2292
六卷云	-11.2293
常我	-11.2294
有作	-11.2295
斷諸	-11.2296
下第三明	-11.2296
殺之	-11.2301
三師	-11.2304
不久當	-11.2304
聞正法	-11.2305
勸觀	-11.2305
稱理	-11.2308
彼國	-11.231
佛若	-11.231
若婆羅門	-11.2312
二十八	-11.2313
內外空	-11.2313
今入涅槃	-11.2318
辯之	-11.2319
七譬	-11.232
解脫德	-11.2326
作禮	-11.2326
思量	-11.2332
愛樂大乘	-11.2332
和上	-11.2333
形色	-11.2335
是行	-11.2337
是名顛倒	-11.2337
名異	-11.2337
無有我	-11.2338
後心	-11.2339
王位	-11.2341
其所立	-11.2342
即作是念	-11.2342
無失	-11.2346
皆是無常	-11.235
以難	-11.2351
長者子	-11.2352
除去	-11.2358
慧者	-11.2362
顯理	-11.2363
華嚴云	-11.2364
▁二然	-11.2368
如來境界	-11.237
正行	-11.2371
有差別	-11.2371
生義	-11.2376
讚問	-11.2376
▁二今明下	-11.2386
第二句中	-11.2389
執無常	-11.239
無道	-11.2393
無極	-11.2394
又解	-11.2394
權智	-11.2396
為之	-11.2397
如是之言	-11.2397
戒相	-11.2401
十地菩薩	-11.2405
譯人	-11.2405
過去有	-11.2406
方言	-11.2406
此地	-11.2406
有餘涅槃	-11.2408
是惡	-11.2413
昔來	-11.2415
前中有	-11.2416
隨人	-11.2417
得入涅槃	-11.2421
不滿	-11.2423
不可依	-11.2424
後方	-11.2424
知眾	-11.2425
爾時如來	-11.2426
第二第三	-11.2426
起卷	-11.2427
生死為	-11.2427
勸學	-11.2431
與今	-11.2432
亦不能	-11.2434
平等心	-11.2437
兩人	-11.2438
能知如來	-11.2441
菩薩大士	-11.2443
持戒者	-11.2443
二論義	-11.2446
謂一闡提	-11.2448
上文云	-11.2449
百八	-11.2453
於現在	-11.2454
利益安樂	-11.2458
淨也	-11.2461
得阿耨多羅三藐三菩提者	-11.2464
之音	-11.2465
持法	-11.2467
耶見	-11.2469
今就	-11.2471
聽者	-11.2476
心念	-11.2481
初中二	-11.2486
為阿耨多羅三藐三菩提	-11.2486
相望	-11.2486
受其	-11.2487
顏	-11.2492
如來答	-11.2494
甚深義	-11.2494
眾生煩惱	-11.2495
六味	-11.2495
皆須	-11.2496
華香	-11.2499
不苦不樂	-11.25
文雖	-11.2505
別舉	-11.2507
淨威力士	-11.2507
從禪定起	-11.2508
一以	-11.2509
無目	-11.251
諸義	-11.2512
反說文	-11.2513
二鳥	-11.2513
令無	-11.2514
毀呰	-11.2514
不能發	-11.2516
嬈	-11.2516
亦成	-11.2517
絲	-11.2517
恣	-11.2517
餘義	-11.2518
膏	-11.2518
佛出	-11.2519
倫	-11.252
枝葉	-11.252
能伏	-11.2521
婬女	-11.2523
屍	-11.2525
聞是事已	-11.2525
罵辱	-11.2526
犬	-11.2526
焦	-11.2527
按	-11.2527
所疑	-11.2528
若天	-11.2529
眾生故	-11.253
歸於	-11.2531
勵	-11.2532
粮	-11.2532
娑羅雙樹	-11.2532
堅牢	-11.2533
四章	-11.2533
若彼	-11.2534
聽我	-11.2536
昔於	-11.2537
綱	-11.2538
澤州云	-11.254
變為	-11.254
從因至果	-11.2541
簡異	-11.2541
隨自意	-11.2542
毘舍離	-11.2542
算數	-11.2543
如其無者	-11.2543
可數	-11.2543
論家	-11.2544
扣	-11.2544
下就設難	-11.2544
煩惱者	-11.2545
讚曰	-11.2546
覆蔽	-11.2546
克	-11.2547
請如來	-11.2548
橫豎	-11.2548
發誓願	-11.2549
復有諸佛菩薩大雲不退	-11.2551
重請	-11.2554
是慧	-11.2559
隨文正釋	-11.2559
貪瞋	-11.2561
無邊身菩薩	-11.2564
過現	-11.2565
河水	-11.2568
知病	-11.2569
受想	-11.257
明已	-11.257
雜華	-11.2571
知諸法	-11.2572
苦海	-11.2574
大火	-11.2574
猶存	-11.2577
能增長	-11.2579
▁初正答	-11.258
大義	-11.2581
示其	-11.2581
眾生有佛性	-11.2582
生身	-11.2582
慧解脫	-11.2586
明因	-11.259
出家之人	-11.2593
行般	-11.2593
邪業	-11.2593
如是經典	-11.2601
天中	-11.2602
四身	-11.2603
偏據	-11.2605
十月	-11.2607
已斷	-11.2609
五千	-11.261
下隨	-11.2613
十戒	-11.2615
同此	-11.2615
如日	-11.2616
所宜	-11.2617
醉人	-11.2617
之相也	-11.2618
如來滅後	-11.2619
此亦不可	-11.2619
第十二	-11.2619
持禁戒	-11.2621
受因	-11.2622
記論	-11.2622
敘意	-11.2624
日出	-11.2626
所因	-11.2628
是智	-11.2632
智度	-11.2634
獨處	-11.2634
邪命	-11.2635
解脫三昧	-11.2638
愛欲	-11.2638
止悲	-11.2639
慈也	-11.264
名之為常	-11.264
詣佛所	-11.2641
現化	-11.2641
城中	-11.2643
有二解	-11.2644
等者此	-11.2645
容受	-11.2646
對佛	-11.2647
受佛	-11.2651
如是等事	-11.2651
惡獸	-11.2654
無常苦等	-11.2654
諸德	-11.2655
佛入涅槃	-11.2656
教誡	-11.266
先觀	-11.266
若解	-11.2661
善性	-11.2664
若一	-11.2668
業因	-11.267
天身	-11.2671
論人	-11.2672
若謂	-11.2673
辨其	-11.2673
須彌山王	-11.2675
經書	-11.2675
中道之	-11.2676
答前問	-11.2677
光明遍照高貴德王菩薩摩訶薩	-11.268
向者	-11.2683
非真實	-11.2686
餘方	-11.2687
義中	-11.2688
故無常	-11.2688
故與	-11.269
淨淨	-11.269
為諸菩薩	-11.2692
何必	-11.2697
十義	-11.2698
無佛	-11.2699
法味	-11.27
□□□□□□□□□□	-11.27
之首	-11.2707
深信	-11.2707
次文	-11.2709
之數	-11.271
不獨	-11.2711
菩薩成就	-11.2712
等取	-11.2714
初中先	-11.2715
不明了	-11.2716
是彼	-11.2718
於大	-11.272
此師	-11.2721
教主	-11.2724
在下	-11.2727
於空	-11.2728
後念	-11.2729
令不	-11.2732
毀犯	-11.2734
佛於	-11.2737
音樂	-11.2738
終不為	-11.2738
旨也	-11.2739
為令	-11.2739
不燒	-11.274
哭	-11.2744
心喜	-11.2744
審定	-11.2745
不轉	-11.2745
因果也	-11.2746
故可	-11.2748
中初一	-11.2754
其家	-11.2756
約顯法	-11.2757
發意	-11.2758
正合	-11.2764
有我者	-11.2764
非獨	-11.2765
破遣	-11.2771
寧非	-11.2772
大涅槃者	-11.2773
顯了	-11.2774
具如	-11.2775
過去諸佛	-11.2775
世流布	-11.2778
為自	-11.2782
天地	-11.2782
簡出	-11.2783
十句	-11.2784
須達	-11.2785
未滅	-11.2786
佛化	-11.2788
一切生死	-11.2788
身也	-11.2789
開密	-11.2793
不便	-11.2795
非無因	-11.2796
雖云	-11.2797
異凡	-11.2798
伎樂以供養佛	-11.2798
城內	-11.28
善男子如汝所言	-11.2801
聞法已	-11.2803
初以	-11.2807
自空	-11.2808
兩門	-11.2813
湯	-11.2818
我從	-11.282
證信	-11.2821
來問	-11.2821
出家學道	-11.2821
更說	-11.2821
精舍	-11.2822
知因	-11.2823
主親師	-11.2825
在在處處	-11.2825
悕望	-11.2825
攀	-11.2828
遍一切	-11.2829
傾動	-11.2829
翅	-11.2831
無罣礙	-11.2831
一物	-11.2831
樹神	-11.2832
膩	-11.2832
義說為	-11.2834
兩舌	-11.2835
名知	-11.2835
脂	-11.2835
琉璃光	-11.2836
醜陋	-11.2837
如佛言曰	-11.2837
秉	-11.2837
諸眾生皆有佛性	-11.2838
涅	-11.2838
頻	-11.2838
有始	-11.2839
輕賤	-11.2839
深樂	-11.2839
起後	-11.284
不縱不橫	-11.2841
以大涅槃心修	-11.2842
紹	-11.2842
下對釋之	-11.2842
汝不應言	-11.2844
醪	-11.2846
慈即如來	-11.2846
障法	-11.2847
第二番問答	-11.2847
共貪生	-11.2847
受五欲	-11.2848
不放逸法亦復如是	-11.2848
兩解	-11.2848
逼切	-11.2848
辭無礙	-11.2849
三德涅槃	-11.2851
字本	-11.2852
普為	-11.2852
通義	-11.2852
先徵後	-11.2852
貪恚	-11.2853
蟁	-11.2854
復有人言	-11.2855
又二先明	-11.2856
𦦨	-11.2856
十方世界	-11.2857
苦痛	-11.2857
二說	-11.2858
題品	-11.2858
我欲	-11.2858
處胎	-11.2859
欲心	-11.286
正信	-11.286
先譬後合	-11.286
初先法說	-11.286
正示	-11.2863
不至至	-11.2864
虛假	-11.2864
百句	-11.2865
如海	-11.2866
一本	-11.287
如法華中	-11.2873
隋章安頂法師撰唐天台沙門湛然再治	-11.2874
遣使	-11.2875
即大涅槃	-11.2879
凡有三種	-11.2881
機宜	-11.2881
更為	-11.2881
現受	-11.2883
八術	-11.2883
潤業	-11.2885
有淨	-11.2886
道路	-11.2886
至極	-11.2888
悔過	-11.2889
群生	-11.289
下辯其相	-11.289
三號	-11.289
結請	-11.2891
如來正法	-11.2891
聲聞人	-11.2894
譬如長者	-11.2905
有為空	-11.2906
亦即	-11.2907
菩提果	-11.2908
四姓	-11.2908
加水	-11.291
逆順	-11.2911
斷也	-11.2911
而言之	-11.2914
快說	-11.2917
識亦復如是	-11.2917
為食	-11.2917
若爾者	-11.2917
下對前	-11.2917
黃金	-11.2918
得已	-11.292
壞相	-11.2922
罪報	-11.2923
有少	-11.2923
遺教經	-11.2924
在地獄	-11.2926
第二譬	-11.2926
所逼	-11.2928
行心	-11.2928
至涅槃	-11.2928
莫作	-11.293
有對	-11.2933
何等為三	-11.2934
惑盡	-11.2939
若過	-11.2941
今於此	-11.2941
便應	-11.2942
自云	-11.2944
何因	-11.2945
知彼	-11.2949
明月	-11.2952
苦滅	-11.2952
諸善根	-11.2952
二十年	-11.2953
是故比丘	-11.2954
無明愛	-11.2954
觀十二因緣	-11.2954
不全	-11.2956
思議	-11.2958
前方便	-11.2959
世間虛空	-11.2962
消釋	-11.2963
斷善根人	-11.2966
言佛	-11.2968
之屬	-11.2971
契理	-11.2972
佛前	-11.2974
說空	-11.2975
出家人	-11.2976
增數	-11.2977
在初	-11.2984
今破	-11.2987
第三問	-11.2991
欲令眾生	-11.2992
何時當	-11.2994
呵其	-11.2994
別解	-11.2995
有去來	-11.2996
先立	-11.2996
舉數	-11.2999
來去	-11.2999
之初	-11.2999
福報	-11.3001
第二從	-11.3001
斯乃	-11.3002
知殺	-11.3002
戒等	-11.3002
如乳	-11.3003
亦異	-11.3003
常念	-11.3009
在因	-11.301
念僧	-11.301
其母	-11.3011
愛著	-11.3011
內外俱	-11.3012
來也	-11.3013
約對	-11.3013
無智慧	-11.3013
花香	-11.3016
約行	-11.3018
一解云	-11.3019
未熟	-11.3019
今在	-11.3022
義言	-11.3032
有量	-11.3033
陳如品	-11.3033
此第三	-11.3036
說法者	-11.304
僧者	-11.304
非鬼	-11.3048
故次	-11.305
阿羅漢人	-11.3051
子者	-11.3051
無妨	-11.3052
不問	-11.3054
豪	-11.3056
其因	-11.3057
非斷	-11.3057
現生	-11.3058
多食	-11.3063
如是語	-11.3064
無所得者	-11.3065
能益	-11.307
先教	-11.307
正體	-11.3072
已滅	-11.3077
▁八	-11.3077
無際	-11.3079
垢穢	-11.3079
到彼	-11.3082
亦皆	-11.3084
心亦如是	-11.3094
乃見	-11.3095
緣覺之人	-11.3096
電	-11.3097
變易生死	-11.3097
非短	-11.3099
之常	-11.3101
受人	-11.3102
得阿那含	-11.3105
巳證	-11.3105
上來第二	-11.3106
法印	-11.3108
不忍	-11.3111
諸比丘等	-11.3115
次勸	-11.3117
無明觸	-11.3119
王即答言	-11.3125
魏	-11.313
雄	-11.313
嗟	-11.313
純善	-11.3131
忿	-11.3132
麗	-11.3132
所傳	-11.3133
豫	-11.3135
放大光明	-11.3136
拍	-11.3136
自己	-11.3137
令諸菩薩	-11.3138
數論	-11.3139
歸戒	-11.314
瓦	-11.314
革	-11.3142
自念言	-11.3142
解脫也	-11.3142
淪	-11.3142
生大苦惱	-11.3143
若無常者	-11.3143
括	-11.3147
調柔	-11.3147
額	-11.3147
昔所不聞而今得聞	-11.3149
學法	-11.315
執小	-11.315
突吉羅	-11.3152
不忘念	-11.3153
纖	-11.3153
輪迴	-11.3154
礦	-11.3155
即從座起	-11.3156
片	-11.3156
良田	-11.3157
七十	-11.3158
即於佛前	-11.3159
無明所覆	-11.316
平聲	-11.316
窟	-11.3161
南本大般涅槃經會疏	-11.3162
後報	-11.3163
竝是	-11.3165
首羅	-11.3167
故是無常	-11.317
琉光	-11.317
凡夫愚人	-11.3171
青黃	-11.3174
不近	-11.3174
佉陀羅	-11.3174
當勤精進	-11.3175
煩惱因	-11.3175
彰已	-11.3178
稱美	-11.3184
先正	-11.3188
同虗空	-11.3188
處中	-11.3189
下嘆	-11.3189
異想	-11.319
無常相	-11.319
下列	-11.3192
四十九	-11.3192
頓制	-11.3195
冶城云	-11.3196
十者	-11.3196
兜率天	-11.3198
牒上	-11.3199
亦爾者	-11.32
如來對破	-11.3201
迦葉菩薩復白佛言世尊	-11.3205
教其	-11.3206
住於大乘大般涅槃	-11.3206
以通	-11.3207
根塵	-11.3207
右手	-11.3207
供佛	-11.3208
合有	-11.321
求那	-11.321
應同	-11.3211
安心	-11.3212
無盡意	-11.3213
不可言	-11.3214
謂有	-11.3214
佛讚迦葉	-11.3216
得二十五三昧	-11.3216
次正釋	-11.3216
種種示現	-11.3217
在外	-11.3217
邪執	-11.3219
論文	-11.322
多羅樹	-11.3221
迷惑	-11.3221
正宗	-11.3222
未除	-11.3225
自顯	-11.3225
皆先	-11.3226
果德	-11.3228
稱機	-11.3228
表常	-11.3228
象牙	-11.3229
無作戒	-11.3232
義理	-11.3235
於餘	-11.3235
發心者	-11.3235
不般涅槃	-11.3236
於四諦	-11.3237
真修	-11.3238
下釋經	-11.3238
轉變	-11.3243
消除	-11.3243
諸臣	-11.3245
明離	-11.3246
故名無常	-11.3246
真寶	-11.3249
所壞	-11.3251
密教	-11.3251
作是念言	-11.3251
即圓	-11.3251
說三	-11.3253
上來明	-11.3254
在世	-11.3255
先辨	-11.3257
諸外道等	-11.3259
熙連	-11.3261
生樂	-11.3263
出體	-11.3265
汝可	-11.3266
攝盡	-11.3272
法身常住	-11.3276
次引	-11.3276
依之	-11.3278
絕言	-11.3279
人天中	-11.3284
報恩	-11.3289
如來密語	-11.3291
八道	-11.3291
滅法	-11.3292
喜樂	-11.3294
於下	-11.3296
三衣	-11.3301
知幻	-11.3304
入無餘	-11.3305
等分	-11.3305
若魔	-11.3305
善分別	-11.3308
涅槃河	-11.3312
善男子以是義故	-11.3312
處也	-11.3315
請中	-11.3318
極惡	-11.3319
頓漸	-11.332
當知是等	-11.3321
機感	-11.3323
乃為	-11.3324
苦味	-11.3325
作相	-11.333
為成	-11.3331
三答	-11.3333
護正法	-11.3333
文理	-11.3335
遇緣	-11.3335
辨其相	-11.3338
若復	-11.3342
正翻	-11.3342
他經	-11.3343
今作	-11.3343
偈答	-11.3343
雖現	-11.3344
置之	-11.3348
明觸	-11.3349
本空	-11.3351
第三難	-11.3352
今皆	-11.3353
修證	-11.3355
十六分	-11.3355
理非	-11.3356
令捨	-11.3358
一觀	-11.336
之藏	-11.3361
大自在	-11.3362
大分	-11.3362
之福	-11.3362
之宗	-11.3366
名生	-11.3369
業也	-11.3373
彼有	-11.3375
天主	-11.3378
倒也	-11.3378
可殺	-11.3378
未證	-11.3379
或說有	-11.338
不平	-11.3381
生梵天	-11.3381
入海	-11.3383
後見	-11.3386
約智	-11.3386
十恒河沙	-11.339
終始	-11.3391
生敬信	-11.3393
同佛	-11.3393
明理	-11.3395
佛上	-11.34
四中	-11.3401
上地	-11.3402
旦	-11.3405
之末	-11.3407
故指	-11.341
如來今日	-11.3411
汝以	-11.3417
問意者	-11.3421
行業	-11.3423
三正	-11.3424
不得稱	-11.3424
三家	-11.3427
復與	-11.343
常住之	-11.3431
昔無常	-11.3431
為世諦	-11.3434
先舉二	-11.3434
非物	-11.3437
非直	-11.3438
異人	-11.3438
色香	-11.3438
阿那律	-11.3439
初又三	-11.3439
踊躍	-11.344
周徧	-11.3441
谷	-11.3444
現用	-11.3445
醜	-11.3446
償	-11.3447
集一切福德三昧	-11.3448
坻	-11.3449
欝單越	-11.3449
力士生地	-11.3452
好醜	-11.3453
依前	-11.3453
七法	-11.3456
寡	-11.3457
汁	-11.3457
疲	-11.3458
心心數法	-11.3458
說此偈已	-11.3459
還同	-11.3459
花果	-11.3459
是謂人種	-11.346
狐	-11.346
諛諂	-11.346
一時佛在	-11.346
壓	-11.3461
陷	-11.3462
艸木	-11.3463
迫	-11.3463
畜養	-11.3463
販賣	-11.3463
養育	-11.3464
集者	-11.3464
故引	-11.3464
當知是慈是聲聞慈	-11.3465
皆非	-11.3467
凶	-11.3467
盜賊	-11.3467
人中象王	-11.3467
伽羅	-11.3467
剃除鬚髮	-11.3468
億劫	-11.3468
陣	-11.3468
苦忍	-11.3469
須跋陀羅	-11.3469
力大	-11.347
瘧	-11.347
建大義	-11.3471
刻	-11.3471
昔所不知而今得知	-11.3472
仗	-11.3473
尼犍	-11.3474
樂法	-11.3474
諫	-11.3474
嬰	-11.3474
餘業	-11.3475
胡麻	-11.3476
剩	-11.3476
余	-11.3476
互為因果	-11.3476
譬眾生	-11.3476
東西	-11.3477
因中無果	-11.3477
坐臥	-11.3478
諸山	-11.3479
種植	-11.348
湯藥	-11.348
以解	-11.348
卵生	-11.3481
解苦無苦	-11.3482
是因非果	-11.3483
e	-11.3483
百論	-11.3484
盛滿	-11.3484
方等經典	-11.3484
犯重禁	-11.3485
我亦不說	-11.3485
生惡國	-11.3485
無有因緣	-11.3487
自地	-11.3487
從本	-11.3488
寂滅為樂	-11.3489
我今當說	-11.3489
終不生於	-11.3491
百二十	-11.3493
名真	-11.3493
不須修道	-11.3494
真珠	-11.3494
文亦	-11.3496
眼目	-11.3497
聰明	-11.3497
三世有法	-11.3498
如來方便	-11.3499
維摩	-11.3501
若殺	-11.3503
說是偈	-11.3504
差別之相	-11.3504
為病	-11.3504
委悉	-11.3505
具足應云	-11.3506
既以	-11.3506
還生善根	-11.3506
身口意業	-11.3507
何關	-11.3508
斯陀	-11.3508
真因	-11.3508
就法	-11.351
非無漏	-11.351
能障	-11.3511
為治	-11.3511
唯此	-11.3513
易知	-11.3515
總合	-11.3516
當現	-11.3516
忍法	-11.3518
二答	-11.3523
大施	-11.3523
見彼	-11.3526
稱曰	-11.3526
汝見	-11.3526
滅相	-11.3527
准此	-11.3528
弘通	-11.3531
結過	-11.3535
反問	-11.3535
無餘義	-11.3535
實無所	-11.3535
眾生身中	-11.3536
二障	-11.3538
悉見	-11.354
所住	-11.3547
因緣故生	-11.3547
教授	-11.3548
九句	-11.355
種種說法	-11.355
徧一切處	-11.3553
悉入	-11.3554
悉當	-11.3554
此六	-11.3555
下次合	-11.3555
實理	-11.3556
疏中	-11.3556
前中初	-11.3558
十法界	-11.3559
汝為	-11.356
天神	-11.3561
成就具足	-11.3561
第十地	-11.3562
別分	-11.3563
戒念	-11.3563
成其	-11.3565
初文又二	-11.3565
不教	-11.3565
治法	-11.3566
初說	-11.3567
者此約	-11.3569
虛實	-11.357
能消	-11.3571
生死大河	-11.3573
胎生	-11.3573
難可得	-11.3574
常不變	-11.3576
初無	-11.3577
畢定	-11.358
隨類	-11.3581
如斯	-11.3582
後說	-11.3582
後起	-11.3588
約四教	-11.3589
問為三	-11.3589
三偈	-11.3593
簡闡提	-11.3594
惡象	-11.3596
力用	-11.3596
照境	-11.3599
香山	-11.3599
之理也	-11.36
一代	-11.3605
現相	-11.3614
到不到	-11.3614
無惑	-11.3615
後偈	-11.3618
及諸菩薩	-11.3622
不善業	-11.3623
可言	-11.3623
文為四一	-11.3623
四無閡	-11.3626
堅實	-11.3626
伹云	-11.3628
其形	-11.3628
解言	-11.3629
五蓋	-11.3633
四面	-11.3633
說文云	-11.3636
還來	-11.3638
隨事	-11.3639
事觀	-11.3643
應迹	-11.3645
邊無邊	-11.3647
千年	-11.3648
有五句	-11.365
思想	-11.3651
定心	-11.3652
諸仙	-11.3657
第一義心	-11.3659
通利	-11.3659
心歡喜	-11.3663
內無	-11.3663
其力	-11.3665
分章	-11.3668
攀緣	-11.367
亦常無常	-11.367
願力	-11.3676
諸世間	-11.3677
不信者	-11.3678
一謂	-11.3678
文言	-11.3679
所奉	-11.3679
第三句中	-11.3679
去聲	-11.3681
十卷	-11.3686
之聲	-11.3687
正受	-11.3688
者即是佛性	-11.3689
且依	-11.3689
喜心	-11.369
邪說	-11.3691
事火	-11.3695
大涅槃中	-11.3697
有漏無漏	-11.3698
常用	-11.3698
阿羅漢者	-11.3699
六位	-11.3699
是無常法	-11.37
能受	-11.37
而現	-11.3702
事中	-11.3704
俱生	-11.3705
得報	-11.3712
論主	-11.3718
小機	-11.3719
此童子	-11.372
心緣	-11.3721
無倒	-11.3724
始得	-11.3726
皆歸	-11.3727
判為	-11.3727
圓機	-11.3728
亦令	-11.3729
化道	-11.3729
今乃	-11.3737
不雜	-11.374
合第三	-11.374
下疏主	-11.374
大海水	-11.3743
見惑	-11.3744
五德	-11.3744
眼等	-11.3745
舉此	-11.3746
果果性	-11.3746
善故	-11.3749
破外道	-11.3749
示道	-11.3756
第三段	-11.3759
染淨	-11.376
方成	-11.3762
尸羅	-11.3762
應當如是	-11.3765
無患	-11.3766
未可	-11.3767
凡有五	-11.377
引之	-11.377
而取	-11.3773
方始	-11.3776
婆羅門法	-11.3778
請說	-11.3779
匝	-11.378
躬	-11.378
后	-11.3781
熾	-11.3782
更不復	-11.3785
理顯	-11.3786
行成	-11.3787
住地	-11.3788
優鉢羅	-11.3788
倉	-11.3789
後佛	-11.3789
腦	-11.379
姊	-11.3791
潛	-11.3791
困	-11.3792
駈	-11.3792
嗜	-11.3793
偷蘭遮	-11.3794
一面住	-11.3794
鎧	-11.3794
念如來	-11.3795
伸	-11.3797
觀機	-11.3797
尸波羅蜜	-11.3797
軀	-11.3798
起塔供養	-11.3798
迦隣提	-11.3799
怯	-11.3799
綺	-11.3799
曇濟曰	-11.38
篋	-11.38
欲顯	-11.3801
雀	-11.3802
廣雅	-11.3803
不度	-11.3803
就實	-11.3803
初喻	-11.3803
惡友	-11.3804
沉	-11.3804
是故菩薩名無所得	-11.3807
羊角	-11.3807
又說	-11.3808
折伏	-11.3809
如有	-11.381
學大乘者	-11.3811
當於爾時	-11.3811
有過	-11.3811
先開	-11.3812
略示	-11.3813
雲集	-11.3814
或時說言	-11.3814
大般泥洹經	-11.3814
故注云云	-11.3815
野干	-11.3815
深解	-11.3816
不得相離	-11.3816
具足無缺	-11.3817
可治	-11.3818
哀憫	-11.3818
菴	-11.382
異色	-11.3821
報也	-11.3822
敷演	-11.3822
非長	-11.3823
一萬	-11.3823
過去現在未來	-11.3825
貶	-11.3825
醫方	-11.3825
法同喻	-11.3825
阿修羅王	-11.3825
受陰	-11.3828
實不實	-11.3828
沙門那	-11.3828
諸仁者	-11.3829
辯其相	-11.3829
常淨	-11.3829
末代	-11.3829
入胎	-11.383
其法	-11.383
檀度	-11.3833
無量劫來	-11.3834
仁王	-11.3835
而欲	-11.3835
云何知耶	-11.3836
之所恭敬	-11.384
遺餘	-11.3841
我諸弟子聞是說巳不解我意唱言如來	-11.3841
空名	-11.3843
善解因緣	-11.3844
其心平等	-11.3845
七八	-11.3845
分別廣說	-11.3847
為滿	-11.3848
是常住法	-11.3848
惡行	-11.3849
▁初結	-11.3849
巳斷	-11.3851
師子吼菩薩言世尊	-11.3851
非一切智	-11.3851
不為利養	-11.3852
果證	-11.3852
即世界	-11.3853
見取	-11.3854
得羅漢果	-11.3856
名第一義空	-11.3857
▁初正示	-11.3857
品初	-11.3857
後譬	-11.3858
遍法界	-11.3862
無住處	-11.3863
惡者	-11.3864
悅樂	-11.3864
下廣顯	-11.3866
之門	-11.3868
到岸	-11.3869
雙流	-11.3871
第三總結	-11.3872
餘之	-11.3875
在未來	-11.3876
之見	-11.3886
能害	-11.3887
同聲	-11.389
重舉	-11.389
對問	-11.389
辟支佛等	-11.3893
稱意	-11.3893
患苦	-11.3897
復於	-11.3898
一聞	-11.3902
皆成	-11.3902
迦葉佛	-11.3903
於父母	-11.3904
▁初對	-11.3905
畢竟清淨	-11.3908
橫死	-11.3909
觀四諦	-11.391
許說	-11.3911
此計	-11.3911
所談	-11.3912
乃說	-11.3914
無酪	-11.3914
指歸	-11.3919
往反	-11.392
方有	-11.3923
起愛	-11.3927
先問後辯	-11.3928
常想	-11.3931
非波羅蜜	-11.3932
常住二字	-11.3933
雖言	-11.3935
佛境	-11.3936
寂滅樂	-11.3937
其餘諸	-11.3938
佛住	-11.3938
坐起	-11.3942
信樂	-11.3946
即三德	-11.3946
聲聞之人	-11.3947
護正法者	-11.3948
待對	-11.3948
於小	-11.395
空無我	-11.3953
前九	-11.3956
復有無量	-11.3956
類也	-11.3957
結緣	-11.3958
始末	-11.3958
鬼王	-11.3962
次第者	-11.3962
之迹	-11.3963
如來是常	-11.3964
泥曰	-11.3967
其始	-11.3973
三藏菩薩	-11.3974
初發	-11.3978
身戒心慧	-11.398
成就故	-11.3984
世間之人	-11.3985
乖理	-11.3986
先定	-11.3987
在當	-11.3988
王法門	-11.3989
闡提人	-11.3997
得四無礙	-11.3999
有想	-11.4
或因	-11.4001
有用	-11.4013
集眾	-11.4014
有三世	-11.4015
故問	-11.4021
四時	-11.4021
譬顯	-11.4023
二恒	-11.4024
凡有三	-11.4027
若多	-11.4029
法雲	-11.4032
法身德	-11.4034
器中	-11.4035
眾中有	-11.4036
中文	-11.4037
當入涅槃	-11.4041
等義	-11.4042
眾生相	-11.4049
利物	-11.4049
是為四	-11.405
先牒問	-11.4052
風雨	-11.4052
義便	-11.4055
四無礙智	-11.4055
無瞋	-11.4056
譬如金剛	-11.4058
得於	-11.4058
之機	-11.4058
四念	-11.4059
憂畏	-11.4059
自作	-11.4059
徵文	-11.4061
妙色	-11.4061
歸佛	-11.4062
疏釋	-11.4062
何獨	-11.4064
至不至	-11.4066
尊勝	-11.4069
近遠	-11.4071
三光	-11.4075
斷生死	-11.4077
能使	-11.408
如來法僧	-11.408
蒼	-11.4089
深重	-11.4091
為人說	-11.4092
分為三	-11.4092
乃可	-11.4095
隨其所	-11.4095
度人	-11.41
而以	-11.41
由來	-11.41
無慈	-11.4103
皆作	-11.4106
未曾聞	-11.4107
本生	-11.4112
入者	-11.4115
踐	-11.4115
同事	-11.4115
白王	-11.4118
師弟	-11.4119
法藥	-11.4119
是有餘	-11.412
何事	-11.4122
故更	-11.4123
憎	-11.4124
幸	-11.4126
作是語已	-11.4126
恃	-11.4126
自餘	-11.4129
刀劍	-11.4131
遇斯光	-11.4133
愛別離苦	-11.4134
汝莫憂悲	-11.4135
復云何	-11.4136
世界名	-11.4136
悼	-11.4136
而後	-11.4136
舒	-11.4137
低	-11.4138
尼陀那	-11.4138
更以	-11.4138
病瘦	-11.4139
枕	-11.4139
以此善根	-11.4139
自然而	-11.4139
灌頂	-11.414
憒閙	-11.414
方是	-11.4141
貝	-11.4141
難識	-11.4141
障也	-11.4141
若減一劫	-11.4142
鴿	-11.4142
右脇而臥	-11.4142
始行	-11.4142
褒	-11.4143
所污	-11.4144
兩足	-11.4144
茂	-11.4144
虧	-11.4144
例知	-11.4144
驅逐	-11.4144
巨富	-11.4145
先法	-11.4147
討	-11.4147
辯後結	-11.4147
淳	-11.4149
工	-11.4149
舊師	-11.4149
秘	-11.4149
諮啟	-11.415
先法後喻	-11.415
熟酥	-11.415
虎狼	-11.4151
宰	-11.4152
敬遺記	-11.4152
敦	-11.4152
丹	-11.4153
伹有	-11.4153
到於彼岸	-11.4153
醋	-11.4153
小果	-11.4153
金剛不壞	-11.4153
揣食	-11.4154
却後三月	-11.4154
蒙佛	-11.4154
肩	-11.4154
拙	-11.4156
三聚	-11.4157
偷狗	-11.4158
穴	-11.4159
婦女	-11.4159
此性	-11.4159
鞞	-11.416
汝自	-11.416
平等無二	-11.4161
第五段	-11.4161
基	-11.4161
6	-11.4162
佛涅槃後	-11.4163
為身	-11.4166
菴羅果	-11.4167
若不爾者	-11.4167
雖見佛性而不明了	-11.4167
五明	-11.4167
十二年	-11.4168
下次明其	-11.4168
理則	-11.4168
相空	-11.4168
佛言善哉善哉善男子	-11.4168
俱舍云	-11.4168
不相似	-11.4169
悔恨	-11.4169
下劣	-11.417
解脫即是如來	-11.417
點示	-11.4171
出家修道	-11.4174
世事	-11.4174
今明不爾	-11.4175
十一部經	-11.4177
修八聖道	-11.4178
消息	-11.4179
夫涅槃者	-11.4179
隱覆	-11.418
與上樂	-11.418
不應親近	-11.4182
初對	-11.4183
從其	-11.4184
因緣力故	-11.4188
若准	-11.4188
法句	-11.4189
因地	-11.419
一切諸行	-11.419
縛著	-11.4191
先已	-11.4192
摩訶迦葉	-11.4194
受果報	-11.4196
光宅云	-11.4197
復次善男子下	-11.4198
章中	-11.42
取滅度	-11.4201
是自行	-11.4202
無比	-11.4202
其父	-11.4202
善巧方便	-11.4203
持經	-11.4204
調適	-11.4204
必由	-11.4205
未久	-11.4209
皆依	-11.4209
隨我	-11.4209
譬佛性	-11.4211
猛火	-11.4212
慧施	-11.4214
所列	-11.4215
故得名	-11.4217
何故云	-11.422
四依人	-11.4222
是過去	-11.4224
受快樂	-11.4224
故所以	-11.4225
俱得	-11.4232
三緣	-11.4233
不可得見	-11.4237
若有人言	-11.4237
發菩提之心	-11.4239
次釋中	-11.4241
輪轉生死	-11.4242
後約	-11.4243
一喻	-11.4243
力強	-11.4243
三字	-11.4244
□□□□□□□□□	-11.4244
謂言	-11.4245
無減	-11.4245
第一義也	-11.4245
於諸法	-11.4248
性自	-11.4249
是現在	-11.4251
入城	-11.4253
▁四結	-11.4254
名之為無	-11.4256
諸陰	-11.4258
輕者	-11.426
緣也	-11.4261
所讚	-11.4261
為大涅槃	-11.4261
前中先喻	-11.4264
修捨	-11.4264
今始	-11.4265
初譬中	-11.4267
趣果	-11.4267
喻佛性	-11.4267
無我觀	-11.4268
如今	-11.4269
復次善男子菩薩摩訶薩	-11.4272
道法	-11.4273
受食	-11.4273
兩番問答	-11.4273
神呪	-11.4274
凡心	-11.4278
以是義下結	-11.4278
一切諸惡	-11.4281
深心	-11.4282
緣盡	-11.4284
初二句	-11.4286
如上說	-11.4287
一切知見	-11.4287
疏記	-11.4287
二觀	-11.4289
出過	-11.429
不如一	-11.4292
如是二人	-11.4292
不依於	-11.4293
安止	-11.4294
是化他	-11.4298
因有二種	-11.4305
則見佛性	-11.4306
大動	-11.431
空聚	-11.4311
與他	-11.4311
何意	-11.4312
求涅槃	-11.4314
亦不離	-11.4314
y	-11.4318
一章	-11.4321
由有	-11.4321
又若	-11.4322
第一句	-11.4324
不斷佛性	-11.4324
假令	-11.4324
世間不知	-11.4325
無所見	-11.4326
火燒	-11.4331
自無	-11.4332
涅槃是果	-11.4338
八住	-11.4338
又二初正	-11.4341
因緣也	-11.4343
業煩惱	-11.4346
今明下	-11.4352
不可定	-11.4357
世樂	-11.4359
下云	-11.4362
佛性不斷	-11.4366
無所住	-11.4366
四食	-11.4367
所謂佛性	-11.4368
而不知	-11.4368
等觀	-11.437
前句	-11.437
巳後	-11.4371
名為如來	-11.4373
何故爾	-11.4376
知有我者	-11.4379
是無漏	-11.438
開化	-11.4381
舉前	-11.4381
復聞	-11.4385
受時	-11.4385
不倒	-11.4388
白色	-11.4388
攝受	-11.4389
多求	-11.439
心倒	-11.4391
如來身者	-11.4391
為四依	-11.4392
經疏	-11.4394
舉果	-11.4394
無四無礙	-11.4397
來意	-11.4398
真智	-11.4398
所供	-11.4399
修身	-11.4401
語也	-11.4403
諸因緣	-11.4403
是集	-11.4409
明道	-11.4411
舉聲	-11.4413
少異	-11.4415
化主	-11.4417
名為中道	-11.4418
不得解脫	-11.4418
勝法	-11.4425
被破	-11.4426
維	-11.4426
直明	-11.4426
在地	-11.4428
眾義	-11.4429
牛食	-11.443
得理	-11.4432
億那術百千	-11.4434
諸比丘言	-11.4434
救義	-11.4434
踊躍無量	-11.4435
說呪	-11.4436
謂涅槃	-11.4442
三目	-11.4442
退不退	-11.4445
諸眾	-11.4447
一切生	-11.4449
殖	-11.445
餘文	-11.445
疾病	-11.4452
俱盡	-11.4455
失念	-11.4455
勝於	-11.4455
甚難	-11.4455
通因果	-11.4461
顯佛	-11.4461
林中	-11.4461
六問	-11.4462
須陀洹果	-11.4463
下愚	-11.4463
文中先	-11.4463
大莊嚴	-11.4465
根力	-11.4467
大本	-11.4468
不相關	-11.4472
巳度	-11.4472
如法華	-11.4474
無量無邊阿僧祇	-11.4474
師義	-11.4476
生死之中	-11.4478
空平等	-11.448
紅	-11.4481
阿須倫	-11.4481
卷上	-11.4481
衛	-11.4483
卜	-11.4484
說妙法	-11.4485
哽咽	-11.4487
同類	-11.4487
匿	-11.4488
川	-11.4491
牢獄	-11.4493
團	-11.4493
澄	-11.4494
蒲	-11.4494
智力	-11.4494
萬八千	-11.4495
柳	-11.4496
禽獸	-11.4496
魔王波旬	-11.4497
伎	-11.4497
命終之後	-11.4497
眴	-11.4498
於正法	-11.4498
奇哉	-11.4498
廣行流布	-11.4499
我與無我	-11.4499
如王所言	-11.4499
六塵惡賊	-11.45
休息	-11.4501
即其人也	-11.4502
廣為人說	-11.4502
當爾之時	-11.4502
毗舍	-11.4502
次番	-11.4503
滓	-11.4503
較	-11.4503
虧盈	-11.4503
矟	-11.4503
慈悲喜捨	-11.4505
節節	-11.4505
渴乏	-11.4506
酵	-11.4506
嘉	-11.4506
蝕	-11.4506
却後三月當般涅槃	-11.4507
立行	-11.4507
樂說無礙	-11.4507
如旃陀羅	-11.4507
雄猛	-11.4507
諸佛法爾	-11.4508
繼	-11.4508
金沙	-11.4508
凍	-11.4508
紹繼	-11.4509
苗稼	-11.4509
不可稱量	-11.4509
如佛先說	-11.451
春秋	-11.4511
不容	-11.4511
覓	-11.4512
名第一義諦	-11.4513
紛	-11.4513
是三種	-11.4515
十一部	-11.4516
所不能及	-11.4516
具煩惱性	-11.4516
怠	-11.4517
能感	-11.4517
從淺至深	-11.4517
虛空等	-11.4518
二鳥雙遊	-11.4518
乃得安隱眠	-11.4519
即對治	-11.4519
耆婆答言	-11.4519
從佛聞	-11.4519
歸處	-11.4519
當為汝說	-11.4519
即體而用	-11.452
遷變	-11.4522
嘆經	-11.4522
▁初分科敘意	-11.4523
阿耨	-11.4523
三世不攝	-11.4523
迦葉佛時	-11.4523
閒	-11.4523
良師	-11.4525
五分法身	-11.4525
謗佛法僧	-11.4526
無縛	-11.4526
最為第一	-11.4527
云何得長壽	-11.4527
略而不合	-11.4528
譬如有王	-11.4528
反質	-11.4529
心大歡喜	-11.4529
悟者	-11.4529
金翅鳥王	-11.453
相從	-11.453
斯陀含果	-11.4532
一道清淨	-11.4534
而立	-11.4534
復告阿難	-11.4534
二十五諦	-11.4534
不可破壞	-11.4537
乳糜	-11.4538
修無常想	-11.4538
聖心	-11.4538
賢劫	-11.4538
無歸	-11.454
微少	-11.4541
繫念	-11.4541
常隨	-11.4543
語勢	-11.4545
居家	-11.4546
顯過	-11.4549
非喻	-11.4549
復有二種一者	-11.4551
故來	-11.4552
金剛身品	-11.4553
三菩提	-11.4554
如來證涅槃	-11.4557
法華玄	-11.4559
今以何故	-11.456
為護法故	-11.4561
何曾	-11.4562
得長壽	-11.4562
融通	-11.4562
利刀	-11.4563
五旃陀羅	-11.4564
小乘中	-11.4565
釋妨	-11.4566
道聖諦	-11.4567
厭患	-11.4568
然彼	-11.4569
通則	-11.4569
嚴淨	-11.4572
講者	-11.4574
佛知	-11.4575
第四難	-11.4576
大同	-11.458
親友	-11.458
方所	-11.4581
名滅	-11.4582
大利	-11.4582
受大苦	-11.4582
破空是	-11.4583
如下文說	-11.4583
世間眾生	-11.4586
惡也	-11.4588
迦葉白佛去	-11.459
名得	-11.4591
顯說	-11.4592
將此	-11.4593
十秊	-11.4594
名大法師	-11.4597
重難	-11.4598
出巳	-11.46
然則	-11.4602
羅云	-11.4605
是故應當	-11.4607
不遮	-11.461
涅槃無因	-11.4611
一如	-11.4613
假實	-11.4614
我住	-11.4617
不漏	-11.4622
藏法門	-11.4623
相似相續	-11.4624
即佛	-11.4624
aṃ	-11.4626
當分	-11.4627
故法華云	-11.4628
億百千	-11.4632
滅想	-11.4634
明空	-11.4637
不善法	-11.4637
斷無明	-11.4638
何等為二	-11.4639
見苦	-11.4641
有羞	-11.4642
速滅	-11.4648
一一分別	-11.4649
是境	-11.465
集因	-11.465
意地	-11.465
次佛答	-11.4651
初功德	-11.4651
佛經	-11.4654
▁二解釋	-11.4654
各各自	-11.4657
互舉	-11.4659
無有罪	-11.4661
眾生所有	-11.4671
如淨名	-11.4672
各隨	-11.4673
修慈心	-11.4674
結惑	-11.4676
陰中	-11.4677
無願	-11.468
普照	-11.468
應時	-11.4681
種種分別	-11.4684
喻彼	-11.4686
廣解	-11.469
無量劫中	-11.4692
謂大涅槃	-11.4694
以智慧	-11.4696
因果俱	-11.47
亂心	-11.4706
聖位	-11.4708
譬如日出	-11.4708
難成	-11.471
即是諸佛	-11.471
惑業	-11.4712
汝問	-11.4712
四味	-11.4718
表於	-11.4721
不值	-11.4723
破諸	-11.4725
答為二	-11.4725
躡前	-11.4727
甘露法	-11.4727
專心	-11.4727
初起	-11.4728
▁二問答	-11.4732
是色法	-11.4733
是假	-11.4733
舉三譬	-11.4734
語其	-11.4734
如理	-11.4734
不得涅槃	-11.4737
中勝	-11.4738
八魔	-11.4738
譬如大地	-11.4741
佛告諸比丘	-11.4744
總歎	-11.4745
以為涅槃	-11.4746
寶蓋	-11.4746
入涅槃者	-11.4747
不聞聞等	-11.475
四意	-11.4751
經題	-11.4753
四名	-11.476
五番	-11.476
名數	-11.476
樂淨	-11.4761
墮惡	-11.4765
忉利	-11.4766
高山	-11.4768
能照	-11.4769
地中	-11.477
向後	-11.477
即三諦	-11.4771
悉共	-11.4775
諦理	-11.4779
著我	-11.478
俱失	-11.4781
能斷煩惱	-11.4788
習行	-11.479
三重明	-11.479
大教	-11.4791
毒身	-11.4795
下至	-11.4799
能為眾生	-11.4799
惡世	-11.4799
一闡提人	-11.4802
當知此	-11.4802
七漏	-11.4803
生死大海	-11.4804
形相	-11.4806
具於	-11.4809
識知	-11.4811
所縛	-11.4812
一方	-11.4814
生死海	-11.4818
樹間	-11.4819
佛答為三	-11.482
卷第四	-11.4825
是菩提	-11.4827
不亂	-11.4827
癡心	-11.4828
兩段	-11.4829
非無為	-11.4831
徵責	-11.4836
止其	-11.4842
約因	-11.4843
當復	-11.4845
比丘僧	-11.4846
非是非不是	-11.4847
雹	-11.4849
服毒	-11.4849
佛性中道	-11.485
通說	-11.4853
略釋	-11.4854
拘物頭	-11.4856
波頭摩	-11.4856
惟願	-11.4856
糧	-11.4857
見理	-11.4857
三惡趣	-11.4858
未發心者	-11.4859
康	-11.4861
繒	-11.4863
陶	-11.4863
而行布施	-11.4864
婆私吒	-11.4864
最妙	-11.4865
二世	-11.4865
別難	-11.4865
杌	-11.4866
拯	-11.4868
携	-11.4868
醒	-11.4869
餓	-11.4869
彩	-11.4869
悞	-11.487
詔	-11.487
鉤	-11.487
以圓	-11.4871
如是下結	-11.4872
聽是經者	-11.4872
鳥獸	-11.4872
辱	-11.4873
善權	-11.4874
臘	-11.4875
偏袒右肩	-11.4876
頂禮佛足	-11.4877
慄	-11.4877
瑕	-11.4878
淨潔	-11.4878
尼拘陀樹	-11.4878
偷蘭	-11.4879
受諸苦惱	-11.4879
秖	-11.4882
及正解脫	-11.4884
霧	-11.4885
唯有一子	-11.4885
非色非心	-11.4885
彊	-11.4885
五無間罪	-11.4885
一義說無量名	-11.4886
為他廣說	-11.4886
繫念思惟	-11.4887
次觀果報	-11.4888
三十六物	-11.4888
內善思惟	-11.489
徵前起後	-11.489
善根人有	-11.4891
緣宜	-11.4892
有始有終	-11.4893
。』『	-11.4893
無有邊際	-11.4894
吾曾為	-11.4894
庫藏	-11.4894
貪瞋癡	-11.4896
非雜食身	-11.4898
未詳	-11.4899
佛受供	-11.49
承事	-11.49
理外	-11.49
乳有酪性	-11.4902
飯食	-11.4903
受也	-11.4904
暴惡	-11.4905
隨自他	-11.4907
前已	-11.491
雖能	-11.4911
一切諸漏	-11.4915
▁三番	-11.4917
云何名常	-11.4917
聞有	-11.4918
實慧	-11.4923
毱多	-11.4923
業體	-11.4924
汝等當知	-11.4924
數人云	-11.4926
流動	-11.493
初先正	-11.4932
利智	-11.4934
即說偈言	-11.4937
亦稱	-11.4938
有三句	-11.4947
自慶	-11.4948
如世間人	-11.4948
妙樂	-11.4949
悲苦	-11.4949
不見我	-11.495
▁二初如下隨	-11.4951
佛陀	-11.4953
念漏	-11.4959
香味	-11.4961
如經言	-11.4963
末世	-11.4964
定行	-11.4965
諸煩惱故	-11.4966
奉事	-11.4967
先結	-11.4967
第二門	-11.497
諸天眾	-11.4973
不得言無	-11.4974
或得	-11.4976
種諸善根	-11.4977
大道	-11.4977
所了	-11.4978
在一處	-11.4979
可思議	-11.498
無量無邊眾生	-11.498
知足者	-11.4981
發生	-11.4983
故前	-11.4984
尚未	-11.4984
所有功德	-11.4984
地已上	-11.4986
以大乘	-11.4986
慧命阿難	-11.4987
四執	-11.4989
無中陰	-11.4992
依文	-11.4993
有五事	-11.4995
今據	-11.5001
却後	-11.5003
摩耶	-11.5004
皆因	-11.5004
之詞	-11.5007
以煩惱	-11.5007
示有	-11.5007
無缺	-11.5007
老苦	-11.5009
眾生我者	-11.501
是佛說	-11.5011
七分	-11.5011
非幻	-11.5012
二偈	-11.5012
凡小	-11.5015
不可稱	-11.5016
雜色	-11.5018
五部	-11.5026
違順	-11.5026
談常	-11.5026
日夜	-11.503
本事	-11.5031
者牒前	-11.5035
佛是常	-11.5037
益眾生	-11.5038
聞思	-11.5039
白淨	-11.504
之家	-11.5042
無翻	-11.5046
無間罪	-11.5049
佛性理	-11.5053
涅槃常	-11.5055
偏空	-11.5057
食噉	-11.5066
如芥子	-11.5066
無有自性	-11.5068
前義	-11.5068
難尋	-11.5068
上上法	-11.507
歸趣	-11.507
釋迦文	-11.5073
諸家	-11.5074
作無作	-11.5077
依因	-11.5079
見佛性者	-11.5081
列眾	-11.5081
皆名為	-11.5084
淨法	-11.5087
又以	-11.5089
唯約	-11.5092
復還	-11.5096
但自	-11.5096
更釋	-11.5097
波羅夷	-11.5099
生陰	-11.51
雖具	-11.5103
共俱	-11.5105
戒善	-11.5105
佛告迦葉善男子	-11.5106
第四段	-11.5106
照了	-11.5107
十二入	-11.5108
一剎那	-11.5108
三召	-11.5111
本願	-11.5112
諸惑	-11.5113
治道	-11.5114
前進	-11.5115
證真	-11.5121
不知足者	-11.5122
彼諸眾生	-11.513
入實	-11.5131
我見我	-11.5135
句句	-11.5137
後答	-11.514
會之	-11.514
破相	-11.5141
有六種	-11.5142
食巳	-11.5143
樂寂靜	-11.5144
提婆	-11.5147
龍象	-11.5149
經宗	-11.5151
樂果	-11.5153
滅沒	-11.5157
有心數	-11.516
猶如大海	-11.516
問辭	-11.516
勸持	-11.5163
勸王	-11.5164
光明照	-11.517
苦道	-11.5171
劫初	-11.5173
有十一	-11.5176
六中	-11.5183
聞香	-11.5186
非有漏	-11.5188
舊釋	-11.5188
先舉後	-11.5188
斥小	-11.5192
咨	-11.5195
往彼	-11.5199
過未	-11.5201
道力	-11.5201
修無我	-11.5201
問如文	-11.5203
之名也	-11.5204
搖	-11.5205
信施	-11.5206
天雨	-11.5209
二邊之	-11.5209
若望	-11.521
一標	-11.5211
度無極	-11.5214
舉身	-11.5214
故知是	-11.5216
悉如文	-11.5217
得出家	-11.522
真識	-11.5225
類破	-11.5225
住在	-11.5227
亦應云	-11.5228
所有佛性	-11.5231
珂貝	-11.5233
澡	-11.5234
炙	-11.5235
且云	-11.5236
六種震動	-11.5236
藥治	-11.5236
優鉢羅花	-11.5238
=	-11.5239
凝	-11.5239
佛性有無	-11.524
告言	-11.524
右繞	-11.5241
頭面禮足	-11.5241
編	-11.5242
五盛陰	-11.5244
掃	-11.5244
生老死	-11.5244
僕	-11.5245
蹈	-11.5246
佛告文殊師利	-11.5246
貯	-11.5247
攢	-11.5247
戀慕	-11.5248
分陀利	-11.5248
迦旃延	-11.5248
卷第三	-11.5248
十號具足	-11.5249
鄣	-11.5249
旱	-11.5249
鉾	-11.525
▁初懸示	-11.525
療眾病	-11.5251
喻之如	-11.5251
如來畢竟入於涅槃	-11.5252
魯	-11.5252
捕	-11.5252
優陀那	-11.5252
囑累	-11.5254
喧	-11.5254
眾生五陰	-11.5255
慎莫	-11.5256
莫能	-11.5256
跋提	-11.5256
挫	-11.5257
即是其	-11.5257
亦見亦知	-11.5257
往返	-11.5257
從因緣生	-11.5258
犢	-11.5258
如世人言	-11.5258
徑	-11.5258
喉	-11.5258
默然而住	-11.5259
茶	-11.5259
是謂菩薩摩訶薩	-11.526
現行	-11.526
昔人	-11.526
稚	-11.526
其土	-11.5261
毉	-11.5261
即理而事	-11.5261
南山	-11.5262
河沙諸如來所發菩提心	-11.5262
世間因果	-11.5262
宰主	-11.5263
惱亂	-11.5263
糠	-11.5263
其後不久	-11.5264
悉除	-11.5264
冶	-11.5265
水陸俱行	-11.5265
近友	-11.5265
映	-11.5265
牛糞	-11.5265
諸行無常	-11.5265
南無純陀	-11.5266
貪欲瞋恚愚癡	-11.5266
範	-11.5266
見是事已	-11.5267
秘密藏	-11.5268
清淨身	-11.5268
唱言如來說	-11.5268
南無佛陀	-11.5268
飜	-11.5268
所言大者	-11.5268
受道	-11.5269
餘句	-11.5269
須跋陀	-11.527
顯發如來方便密教	-11.527
穢土	-11.5271
c	-11.5274
仙豫	-11.5274
齊等	-11.5275
不即不離	-11.5276
給施	-11.5277
空假中	-11.5278
一空一切空	-11.5279
以大涅槃心	-11.5279
熱惱	-11.528
戒定智慧	-11.528
憐愍一切眾生	-11.5281
假緣	-11.5281
樂緣	-11.5282
方顯	-11.5282
先唱	-11.5283
高原	-11.5283
設使	-11.5284
將滅	-11.5284
以不知故	-11.5284
從無明生	-11.5285
意密	-11.5286
觀見	-11.5287
天帝釋	-11.5288
淺近	-11.5289
所得果報	-11.529
甚深之義	-11.5291
修無我想	-11.5291
方便說	-11.5293
游	-11.5293
今日如來	-11.5294
麁細	-11.5294
此有	-11.5295
佛及菩薩	-11.5297
先辯	-11.5298
凡夫法	-11.5299
下舉喻以	-11.53
四沙門果	-11.53
之用也	-11.53
從初發心	-11.5301
傳曰	-11.5302
即同	-11.5302
佛性之理	-11.5303
▁二破	-11.5304
如法住	-11.5307
法財	-11.5308
皆能	-11.5309
衣鉢	-11.5311
何容	-11.5311
豈況	-11.5312
老少	-11.5313
身得安樂	-11.5315
異體	-11.5317
大香象	-11.5319
不擇	-11.5319
勸供養	-11.5321
文為五	-11.5322
名實	-11.5322
是名眼見	-11.5322
名不思議	-11.5322
下答釋	-11.5322
何等為十	-11.5323
不從因生	-11.5325
即法界	-11.5327
數法	-11.5327
失理	-11.5328
諸教	-11.5328
引文	-11.5332
無障	-11.5333
無有一法	-11.5334
之法也	-11.5334
次云	-11.5334
冷病	-11.5335
發迹	-11.5336
不決定	-11.5339
巳成	-11.5341
非本無今有	-11.5341
下明今釋	-11.5343
在心	-11.5343
名字觀行	-11.5343
修空三昧	-11.5346
能攝	-11.5347
第四句中	-11.5348
便能	-11.535
能行	-11.5351
觀想	-11.5351
約圓	-11.5351
心為體	-11.5353
此旨	-11.5354
曼陀	-11.5355
失旨	-11.5356
先問次辯	-11.5359
於地獄	-11.5362
諸寶	-11.5362
涅槃無名	-11.5363
第三舉	-11.5364
諸龍	-11.5367
汝莫	-11.537
若空	-11.5371
所願	-11.5375
適時	-11.5376
山河	-11.5377
皆不可說	-11.5381
攝入	-11.5383
濟度	-11.5384
有人言	-11.5386
理教	-11.5386
事用	-11.5386
便有	-11.5388
平等觀	-11.5391
云何能得	-11.5392
六趣	-11.5393
後教	-11.5393
不滅也	-11.5394
神通力	-11.5398
據此	-11.54
是汝所	-11.5401
二記	-11.5404
無攀緣	-11.5404
七復次	-11.5405
慈念	-11.5407
不諍	-11.5409
一切諸眾生故	-11.541
深智	-11.541
十一事	-11.541
無明闇	-11.5412
上已	-11.5414
如轉輪王	-11.5415
牛乳	-11.5415
今用	-11.5415
諸苦惱	-11.5416
進修	-11.5418
今方	-11.5419
極重	-11.5419
如來為說	-11.542
歸真	-11.5421
得生天	-11.5423
入觀	-11.5423
次第五行	-11.5423
端坐	-11.5425
大體	-11.5428
不欣	-11.5429
於中初言	-11.5429
一語	-11.5432
第二舉	-11.5434
彼文	-11.5434
犯波羅夷	-11.5437
謗佛	-11.5437
菩	-11.5438
謗正法	-11.5439
通慧	-11.5441
愛結	-11.5443
真實義	-11.5444
將明	-11.5446
非無因緣	-11.5451
一段	-11.5451
科分	-11.5453
化意	-11.5454
三密	-11.5455
如醫	-11.5458
人天善	-11.5463
圓理	-11.5465
阿那含果	-11.5465
當見	-11.547
大師子吼	-11.5471
八部	-11.5472
出其人	-11.5473
供養父母	-11.5475
大旨	-11.5477
答為三	-11.5482
示正義	-11.5482
第三譬	-11.5488
示之	-11.5489
本誓	-11.5493
不見未來	-11.5494
哀請	-11.5496
隨物	-11.5497
初轉法輪	-11.5498
方便淨	-11.5499
以立	-11.55
修行者	-11.5505
不散	-11.5509
外物	-11.551
向果	-11.5514
為護法	-11.5516
漸頓	-11.5518
漏因	-11.5518
種類	-11.5519
緣因者	-11.5521
卷第二	-11.5522
勝過	-11.5526
諸字	-11.5529
若例	-11.5532
結明	-11.5533
隨問	-11.5535
斷善根故	-11.5536
有十種	-11.5541
煩惱魔	-11.5542
之利	-11.5543
者即前	-11.5545
第四釋	-11.5545
長壽因	-11.5545
六年	-11.5547
初又二先	-11.5549
亦有二種	-11.5552
受我供	-11.5552
名曰無常	-11.5555
久巳	-11.5557
俱在	-11.5557
不可定說	-11.5559
觸食	-11.556
煩惱河	-11.556
聞是已	-11.5562
受三歸	-11.5562
如是等義	-11.5562
明日	-11.5563
餘勢	-11.5564
單疏第十	-11.5564
畢竟滅	-11.5565
望後	-11.5566
無解	-11.5568
佛性亦復如是	-11.5572
無量阿僧祇劫	-11.5573
大龍	-11.5576
以己	-11.5579
誰當	-11.5581
感佛	-11.5581
若梵	-11.5581
壞色	-11.5586
諦實	-11.5587
中具有	-11.5587
歸三寶	-11.5588
師子吼中	-11.5589
無量無量	-11.5591
無受者	-11.5591
佛亦如是	-11.5596
生死之法	-11.5596
正語	-11.56
樂欲	-11.5602
諸國	-11.5604
告憍陳如	-11.5606
置於	-11.5611
別解脫	-11.5611
下解釋	-11.5613
但此	-11.5613
恭	-11.5614
敬重大乘	-11.5618
集成	-11.5621
諸味	-11.5624
十二支	-11.5624
敬禮	-11.5628
音響	-11.5629
吳	-11.5632
悲號	-11.5633
亦是亦不是	-11.5633
悲惱	-11.5636
妬	-11.5636
往復	-11.5638
闍維	-11.5638
譬如父母	-11.5639
後類	-11.564
苦治	-11.5641
方便示現	-11.5642
!」「	-11.5643
皰	-11.5643
籍	-11.5643
洞	-11.5643
悕	-11.5644
六處	-11.5645
史	-11.5645
善男子如來亦爾	-11.5646
中有六	-11.5646
布薩	-11.5647
嬰孩	-11.5648
奉獻	-11.5649
群萌	-11.5649
咽	-11.5649
欽	-11.5649
如母	-11.565
金棺	-11.5651
脩多羅	-11.5651
峻	-11.5651
顏貌	-11.5651
噵	-11.5651
辰	-11.5651
叢	-11.5652
坦	-11.5653
盈滿	-11.5654
三藐三佛陀	-11.5654
屋舍	-11.5654
我於彼經亦不說之	-11.5654
汝等今者	-11.5655
怪哉	-11.5656
眉間	-11.5656
耀	-11.5657
須達多	-11.5657
貧賤	-11.5657
錯謬	-11.5658
族姓	-11.5658
倚臥	-11.5658
我今始知	-11.5658
荼	-11.5659
工匠	-11.566
一切眾生身亦如是	-11.5661
在文可見	-11.5663
重擔	-11.5663
聊	-11.5663
籠	-11.5664
四維	-11.5664
外道邪	-11.5664
披	-11.5664
飛鳥	-11.5665
妄說	-11.5666
唯佛能知	-11.5666
即寂而照	-11.5666
無常苦空	-11.5666
邪歸正	-11.5666
終不生念	-11.5667
目楗連	-11.5668
略中	-11.5668
云何如來說言	-11.5669
僧殘	-11.5669
怨敵	-11.567
得福無量	-11.567
凡聞起諍	-11.5671
皆不可	-11.5672
帀	-11.5672
名義俱異	-11.5673
是緣因	-11.5673
淨威	-11.5673
心想	-11.5674
逾	-11.5674
水陸	-11.5674
鄭	-11.5674
匡	-11.5675
鬬	-11.5675
創	-11.5676
枯樹	-11.5677
修行菩薩	-11.5678
白淨法	-11.5678
不能壞	-11.5678
普賢	-11.5679
非學非無學	-11.5679
四部眾	-11.568
成就阿耨多羅三藐三菩提	-11.568
守護大乘	-11.5681
無明住地	-11.5682
唯有如來	-11.5683
無酪性	-11.5683
下正釋經文	-11.5684
亂正	-11.5685
我今此身	-11.5688
空閑	-11.5689
過人法	-11.569
險難	-11.569
少欲者	-11.5692
再治	-11.5692
菟角	-11.5694
卷第一	-11.5696
不關	-11.5697
攝念	-11.5698
不能治	-11.57
自分	-11.57
如來在世	-11.5702
三蒼	-11.5704
子縛	-11.5704
雙亡	-11.5706
譬如大海	-11.5713
惡鬼	-11.5714
九法界	-11.5715
散亂	-11.5716
正業	-11.5717
生滅四諦	-11.5717
今此文中	-11.5717
當與汝	-11.5718
三種病人	-11.5718
等是其	-11.5719
持律	-11.572
形像	-11.572
諸法實相	-11.572
終乎	-11.5727
前偈	-11.573
復有說言	-11.573
大水	-11.5731
必定當得	-11.5733
濁水	-11.5736
我見無我	-11.5736
智解	-11.5736
優婆塞等	-11.5736
神德	-11.5736
未脫	-11.5737
平正	-11.5738
大自在天	-11.5739
中邊	-11.574
下釋出	-11.5741
能造	-11.5746
將護	-11.5748
面門	-11.575
往生	-11.5753
證入	-11.5754
安能	-11.5756
先舉次列	-11.5756
文中有三	-11.5761
大般涅槃經卷第	-11.5762
豈能	-11.5763
久處	-11.5763
涅槃之名	-11.5764
圓因	-11.5765
不苦	-11.5765
已下合	-11.5766
斯義	-11.5768
豪貴	-11.5769
阿修羅等	-11.5769
斯陀含人	-11.5771
▁初總標	-11.5772
下正答	-11.5772
叵得	-11.5772
答初難	-11.5773
兩品	-11.5774
神王	-11.5775
前文云	-11.5776
迦葉白佛言	-11.5778
號曰	-11.5781
出胎	-11.5781
指前	-11.5786
千億	-11.579
已訖	-11.579
總問	-11.5791
以消	-11.5792
下喻明	-11.5799
r	-11.5802
嚴飾	-11.5802
是我弟子	-11.5803
義不成	-11.5805
思食	-11.5807
不以為	-11.581
能示	-11.5811
唱滅	-11.5813
解脫知見	-11.5813
遷流	-11.5813
得無所畏	-11.5814
破云	-11.5814
因得果	-11.5815
種種色	-11.5815
如上釋	-11.5822
若有修習	-11.5824
圓果	-11.5824
聖教	-11.5828
遍攝	-11.5829
巳盡	-11.5832
不生生等	-11.5836
初先立喻	-11.5839
亦難	-11.5839
人亦如是	-11.5845
第四結	-11.5856
欲度	-11.5858
不損	-11.5865
種種異	-11.587
十數	-11.5872
是名涅槃	-11.5872
本有煩惱	-11.5872
一切法無	-11.5874
應是無常	-11.5875
悉發阿耨多羅三藐三菩提心	-11.5879
山頂	-11.5881
即為人	-11.5882
摩訶般若	-11.5884
既通	-11.5885
故空	-11.5885
理深	-11.5889
圓解	-11.5889
勿令	-11.589
次第行	-11.589
一教	-11.5891
無慚	-11.5893
標舉	-11.5893
諸禪	-11.5894
其樹	-11.5894
一言	-11.5895
半句	-11.5895
王種	-11.5904
是虛妄	-11.5907
▁四釋	-11.5912
作了因	-11.5916
於未來	-11.5917
開示分別	-11.5919
偏行	-11.592
更立	-11.5921
不同外道	-11.5922
六萬	-11.5924
初題目	-11.5932
下就人	-11.5934
明醫	-11.5946
不護	-11.5947
問答重顯	-11.5949
山中	-11.595
迦葉比丘	-11.595
能斷惑	-11.5955
八句	-11.5955
若爾下	-11.5961
以標	-11.5963
佛在世	-11.5964
可證	-11.5965
先問後答	-11.5965
在果	-11.5966
修觀	-11.5968
以不定故	-11.5968
中般	-11.597
猶名	-11.5973
法力	-11.5973
是涅槃經	-11.5974
寄言	-11.5975
能到	-11.5975
即是五陰	-11.5975
大光明	-11.5977
此經復有諸佛菩薩	-11.598
金藏	-11.5982
其終	-11.5983
教道	-11.5987
若比丘	-11.5991
乳色	-11.5992
世間智者	-11.5992
護世	-11.5994
樹葉	-11.5995
諸佛所說	-11.5995
最後供	-11.5995
有八種	-11.5996
八解脫	-11.5997
惑覆	-11.5997
報定	-11.5997
定判	-11.6
兜率	-11.6007
可修	-11.6013
而不見	-11.6015
示人	-11.6017
執相	-11.6019
拜	-11.6028
一卷	-11.6031
常壽	-11.6037
隱沒	-11.604
罪重	-11.6041
諸部	-11.6044
顛	-11.6047
毒樹	-11.6048
煩惱果報	-11.605
眾生非眾生	-11.6051
雪	-11.6052
共合	-11.6053
許為	-11.6053
是故說言一切眾生悉有佛性	-11.6053
是正因	-11.6054
潔	-11.6055
京	-11.6056
㓨	-11.6057
佛邊	-11.6058
遍觀四方	-11.6059
發無上正真道意	-11.606
阿波陀那	-11.6061
誨	-11.6062
輻	-11.6062
賓	-11.6062
梵網	-11.6062
扇	-11.6062
掉	-11.6063
我又示現於閻浮提	-11.6064
三年	-11.6065
受大苦惱	-11.6065
棘刺	-11.6066
唾	-11.6066
大小便利	-11.6067
地大	-11.6067
匠	-11.6068
囹圄	-11.6068
擾	-11.6069
詩云	-11.6069
熟蘇	-11.607
澄清	-11.6071
牧牛	-11.6071
遮羅	-11.6071
非六師也	-11.6072
浮囊	-11.6072
精血	-11.6072
羅剎復言	-11.6072
斫伐	-11.6072
繁	-11.6073
祈	-11.6073
三千大千	-11.6074
懃	-11.6074
拾	-11.6074
婢	-11.6075
聽其出家	-11.6075
迦毗羅	-11.6076
暇	-11.6076
出佛身血	-11.6076
怨憎會苦	-11.6077
不惱	-11.6077
如恒河邊第	-11.6077
無明緣行	-11.6077
盤	-11.6077
燋	-11.6078
困苦	-11.6078
考	-11.6078
方等大乘經典	-11.6078
惶怖	-11.6078
饑饉	-11.6079
敗壞	-11.6079
是名菩薩摩訶薩非現生後受是惡業	-11.6079
金錍	-11.6079
瑜伽	-11.608
債	-11.608
魚肉	-11.608
茶毗	-11.608
猴	-11.608
胡麻油	-11.608
專心聽法	-11.608
求不得苦	-11.608
籌量	-11.608
慧朗述	-11.6081
若有隨順魔所說者	-11.6082
涕唾	-11.6083
韋	-11.6083
毘伽羅論	-11.6083
牆壁	-11.6084
以方便力	-11.6086
文旨	-11.6086
子譬	-11.6086
忍辱草	-11.6087
三十二相八十種好	-11.6087
文皆可知	-11.6087
掘地	-11.6087
予	-11.6088
文選	-11.6089
常破無常	-11.6089
斷離	-11.609
先受施者	-11.609
先舉昔	-11.6091
煩惱即菩提	-11.6091
憍陳如品	-11.6091
言本無者	-11.6093
曇無德	-11.6093
影響	-11.6093
八味具足	-11.6094
頻婆娑羅王	-11.6095
斯有是處	-11.6096
頌云	-11.6096
當知是則為如來也	-11.6096
若乳無酪	-11.6097
引喻	-11.6097
吝	-11.6098
難治	-11.6098
摩訶薩	-11.6098
學行	-11.6098
而說是偈	-11.61
如上所說	-11.6101
先尼言瞿曇	-11.6102
阿那含者	-11.6103
佛答有二	-11.6103
言語道斷心行處滅	-11.6104
圓淨	-11.6104
苦法忍	-11.6104
其福	-11.6106
聞是經已	-11.6107
是一闡提	-11.6107
福德莊嚴	-11.6107
傷歎	-11.6109
藏積	-11.6109
一闡提輩亦復如是	-11.6112
事異	-11.6115
悲戀	-11.6116
即白佛言	-11.6116
之頃	-11.6118
而答	-11.6122
大小乘	-11.6122
無二無別	-11.6124
聲召	-11.6124
惱害	-11.6124
化眾生故	-11.6124
是故無常	-11.6126
不名為善	-11.6126
善義	-11.6128
翻譯	-11.6135
機發	-11.6136
止息	-11.6137
梵世	-11.6143
智護	-11.6145
皆稱	-11.6149
酬請	-11.6152
有始終	-11.6153
常寂	-11.6155
住法記	-11.6158
寂默	-11.6158
餘亦如是	-11.6158
不決定故	-11.6159
說以為	-11.616
出世之法	-11.6161
父子	-11.6161
成德	-11.6162
即無明	-11.6162
彼佛世尊	-11.6163
有無量相	-11.6165
女相	-11.6167
何時	-11.6169
此中明	-11.617
判位	-11.6172
財施	-11.6172
不喜	-11.6175
得解脫者	-11.6176
n	-11.6176
法身常身	-11.6176
所滅	-11.6178
無心數	-11.6178
過業	-11.6181
施設	-11.6186
所請	-11.6186
謗方等	-11.6187
亦復然	-11.6188
出世因果	-11.6196
證滅	-11.6197
我久	-11.6198
自了	-11.6198
滿中	-11.62
得善果	-11.6203
大品云	-11.6205
是名為見	-11.6207
現陰	-11.6207
生不自生	-11.6209
不障	-11.6212
知如來是常住法	-11.6215
所以下釋	-11.6215
有人云	-11.6217
初段中	-11.6218
互顯	-11.622
今當為汝	-11.6223
之號	-11.6226
於一一	-11.623
清淨行	-11.6232
果縛	-11.6235
發意欲	-11.6236
第四譬	-11.6236
常住法	-11.6237
未極	-11.6238
調伏眾生	-11.6239
無漏法	-11.6243
尚有	-11.6246
大丈夫	-11.6249
當成	-11.625
入圓	-11.6254
初一行	-11.6256
厭生死	-11.6256
所收	-11.6259
淨施	-11.6264
爾時世尊下	-11.6265
破一切	-11.6266
不依人	-11.6269
?』「	-11.6271
起貪	-11.6271
心口	-11.6276
寧當	-11.6277
呵勸	-11.6281
所動	-11.6282
顯體	-11.6282
後身菩薩	-11.6282
尚非	-11.6283
醫譬	-11.6285
先譬	-11.6286
無我我所	-11.6286
二別釋二	-11.6287
捨命	-11.629
斯皆	-11.629
當捨	-11.6291
天宮	-11.6292
四問答	-11.6297
勤行	-11.6297
我為眾生	-11.6297
下難破	-11.6297
有愛	-11.63
後勸	-11.63
聞思修	-11.63
為因因	-11.6301
見機	-11.6301
月喻	-11.6302
就彼	-11.6303
善惡業	-11.6303
涅槃之果	-11.6305
慧捨	-11.6305
此段	-11.6306
能生他	-11.6308
雖少	-11.6308
於中先舉	-11.631
受取	-11.6313
能得見	-11.6314
廣舉	-11.6314
識神	-11.6316
三念處	-11.6316
得道果	-11.632
無常之法	-11.632
服甘露	-11.6322
金輪	-11.6331
終至	-11.6344
菩薩修行	-11.6347
天廟	-11.6347
如是等經	-11.6348
復明	-11.6355
其位	-11.636
神解	-11.6361
悲歎	-11.6368
正戒	-11.6369
一行半	-11.6375
一切人天	-11.6375
題目	-11.6376
記云	-11.6376
諸佛法	-11.6377
上士	-11.638
合可知	-11.6381
眾生界	-11.6385
已下舉	-11.6386
令依	-11.6388
偈云	-11.6391
下二句	-11.6399
於佛滅後	-11.6399
場	-11.64
佛便	-11.6401
釋迦如來	-11.6406
滅惑	-11.6406
命根	-11.641
總攝	-11.641
歎言	-11.6413
生惡心	-11.6418
佛神力故	-11.642
不懺	-11.642
如是展轉	-11.6421
不可為	-11.6421
所設	-11.6423
而實非	-11.6427
故名佛性	-11.6431
大雲經	-11.6436
商人	-11.644
初總示	-11.6444
必具	-11.6445
汝今已	-11.645
一緣	-11.6451
於自身	-11.6454
▁二此初下隨	-11.6455
合法	-11.6457
不悅	-11.646
是汝所化	-11.6462
六門	-11.6464
修道品	-11.6464
一切有為	-11.6464
六段	-11.6464
但在	-11.6473
向明	-11.6475
純分會南本大般涅槃經會疏卷第	-11.6477
來集	-11.6479
有五番	-11.6481
義旨	-11.6483
世雄	-11.6484
隋	-11.6487
則是無常	-11.6487
此例	-11.6488
珊	-11.6488
等集眾德三昧	-11.6489
破定有	-11.6491
謀	-11.6493
蠲除	-11.6493
焚燒	-11.6497
瞻仰	-11.6498
大雲水	-11.6499
渴仰	-11.6499
殃	-11.65
廣宣流布	-11.6501
苗	-11.6501
之因緣	-11.6502
黠慧	-11.6503
實不虛	-11.6503
無作者	-11.6503
從本已來	-11.6503
終不能得阿耨多羅三藐三菩提	-11.6503
殿堂	-11.6503
一戒	-11.6504
因相	-11.6504
先陀婆	-11.6504
遍於	-11.6504
伊蘭	-11.6504
耽	-11.6504
選擇	-11.6505
涕	-11.6506
俾	-11.6506
浴池	-11.6506
栴陀羅	-11.6506
蟻子	-11.6507
筋	-11.6507
摩伽陀國	-11.6507
受寄	-11.6507
俯	-11.6508
各作是念	-11.6509
晚	-11.6509
謹	-11.651
同諸行	-11.651
邪道	-11.651
哀嘆	-11.651
多所利益	-11.651
悋	-11.651
身壞命終	-11.651
富蘭那	-11.6511
𨷂	-11.6511
鸚	-11.6511
軸	-11.6512
菩薩摩訶薩復作是願	-11.6512
僮僕	-11.6512
彌滿	-11.6513
饒益	-11.6514
竺	-11.6514
不可窮盡	-11.6514
良福田	-11.6514
背痛	-11.6515
暹	-11.6515
杜	-11.6515
多饒財寶	-11.6516
不與世諍	-11.6516
禪波羅蜜	-11.6516
轉輪	-11.6516
項	-11.6516
無所知	-11.6516
哲	-11.6517
智者復觀	-11.6517
是魔所說	-11.6517
是大乘典	-11.6518
本自有之	-11.6518
諸大菩薩	-11.6518
棃	-11.6518
齧	-11.6519
冰	-11.6519
輪迴生死	-11.6519
粗	-11.6519
餘類可知	-11.652
渾	-11.652
一日一夜	-11.652
然後乃能於惡世中不謗是法	-11.6521
於我滅後	-11.6522
涅槃常樂我淨	-11.6522
我念往昔	-11.6522
西域記	-11.6524
佛復告迦葉	-11.6524
闊	-11.6525
如去不如去	-11.6525
褒貶	-11.6525
涯	-11.6526
▁二本文	-11.6526
為誰	-11.6526
身心寂靜	-11.6526
總斥	-11.6526
受純陀供	-11.6527
少不足	-11.6529
興廢	-11.6531
如來述讚	-11.6531
修行布施	-11.6532
佛性之義	-11.6533
大異小	-11.6534
後還	-11.6537
此義不然	-11.6538
非身是身	-11.654
婆私吒言	-11.6542
罪垢	-11.6542
普告	-11.6544
信等	-11.6545
輕微	-11.6546
一旦	-11.6547
作是念已	-11.6547
一切行無常	-11.6548
何殊	-11.6548
知而不見	-11.6548
一切諸眾生	-11.6549
為欲利益	-11.655
十仙	-11.655
迦毘羅城	-11.6551
諸品	-11.6551
以明常	-11.6553
而是菩薩	-11.6553
一切法中	-11.6553
實不滅	-11.6555
和會	-11.6557
如瓶	-11.6561
廣宣	-11.6562
一切眾生皆有	-11.6565
開出	-11.6566
今斥	-11.6566
下廣明	-11.6568
紺	-11.6569
佛世界	-11.6571
袒	-11.6571
有五復次	-11.6578
退菩提心	-11.6581
一切人民	-11.6582
一切契經	-11.6582
定得菩提	-11.6586
豈可以	-11.6586
就初段中先	-11.6587
諸商人	-11.6588
入于	-11.6588
大眾問	-11.6589
佛答云	-11.659
權教	-11.6591
者即指	-11.6595
致疑	-11.6597
青色	-11.6597
諸凡夫人	-11.6601
受持是經	-11.6602
百劫	-11.6603
爾時童子	-11.6609
自下第三明	-11.6612
流光	-11.6614
別意	-11.6616
敘古	-11.6617
觀一切法	-11.6617
名置答	-11.6619
妄執	-11.662
無漏智	-11.6621
滅盡定	-11.6622
觸身	-11.6623
聞是語	-11.6628
比智	-11.6632
百由旬	-11.6633
寶城	-11.6637
正位	-11.6638
如說行	-11.6638
思惑	-11.6639
之壽	-11.6642
佛性常故	-11.6644
苦報	-11.6648
今還	-11.6649
不缺	-11.665
復起	-11.6652
結嘆	-11.6659
不測	-11.666
真善知識	-11.6663
能破闇	-11.6663
稟教	-11.6663
諸法空	-11.6665
惑障	-11.6665
求出家	-11.6666
未度者	-11.6669
懷慚愧	-11.667
作菩提因	-11.6672
阿耨菩提	-11.6674
名為顛倒	-11.6676
復過	-11.6676
故喻	-11.6677
不入地獄	-11.6685
要先	-11.6685
寶樹	-11.6689
十五心	-11.669
若諸外道	-11.6691
初經家敘	-11.6695
禮記	-11.6698
妄樂	-11.6698
十智	-11.6699
總以結	-11.6701
國王大臣	-11.6702
何故不說	-11.6703
汝今當知	-11.6705
皆亦如是	-11.6706
四蛇	-11.6706
明見佛性	-11.6707
三十五	-11.6707
我說是人	-11.6713
改惡	-11.6715
與文殊	-11.6716
如來默然	-11.6717
無上大	-11.6723
不可數	-11.6726
第二就	-11.6738
當知必定有	-11.6739
未度	-11.6739
無積	-11.6741
頓說	-11.6741
覆於	-11.6742
羅婆	-11.6746
不可作	-11.6748
何故如是	-11.6749
百千萬	-11.675
一切智人	-11.6754
常樂淨	-11.6755
空邊	-11.6759
服已	-11.676
三十三	-11.6761
略答	-11.6764
信因果	-11.6767
實想	-11.677
則得名為	-11.6776
今聞	-11.6776
於三界	-11.6777
二十七	-11.6778
安處	-11.6779
但使	-11.6782
六道之	-11.6784
如蓮華	-11.6785
為證也	-11.679
善利	-11.6793
無善惡	-11.6793
如鐵	-11.6794
二途	-11.6804
此三千大千世界	-11.6804
那由他	-11.6809
下今破	-11.6812
無畏地	-11.6814
本淨	-11.6815
猶尚	-11.6826
奉施	-11.6826
現起	-11.6828
思念	-11.6828
非二乘所	-11.6828
無生智	-11.6829
上文中	-11.6829
次示	-11.6831
則不然	-11.6833
到已	-11.6835
名之為樂	-11.6837
▁二舊	-11.6842
不宜	-11.6845
世間功德	-11.6849
他心智	-11.6849
摩尼	-11.6854
為難也	-11.6855
入初地	-11.6855
下經文	-11.6856
其病	-11.6857
隨意所	-11.6858
結如文	-11.6863
諸界	-11.6864
彼師	-11.6866
得初果	-11.6871
▁初標章	-11.6873
佛許	-11.6873
不相違	-11.6874
義異	-11.6874
無三世	-11.6876
已竟	-11.6876
結文	-11.6883
如空中	-11.6888
欲愛	-11.6896
口中	-11.6896
少善	-11.6904
正指	-11.691
餘五	-11.6922
是名十法門	-11.6927
二十五三昧	-11.6931
能護	-11.6932
之患	-11.6935
歡	-11.6938
伏結	-11.694
被服	-11.6942
七重	-11.6943
蘊	-11.6944
舍衛	-11.6944
四品	-11.6945
未到	-11.6945
填	-11.6945
耻	-11.6947
偏露右臂	-11.6947
貴賤	-11.6947
八知見	-11.6947
馳走	-11.6948
韻	-11.6948
謙下供養	-11.6949
頭面禮	-11.6949
俗人	-11.695
牆	-11.695
尼拘陀	-11.6951
寢	-11.6951
忠	-11.6952
植	-11.6954
渴仰大乘	-11.6955
與百萬億	-11.6955
自巳	-11.6956
右繞三匝	-11.6956
歟	-11.6956
狐疑	-11.6958
橫加逆害	-11.6958
鎖	-11.6959
迭	-11.6959
烈	-11.6959
栰	-11.6959
荷負	-11.696
脣	-11.696
啞	-11.6962
如我先說	-11.6962
蚊虻	-11.6963
於一念中	-11.6963
寶亮	-11.6963
溫	-11.6963
頂戴	-11.6963
蠟	-11.6964
溢	-11.6964
報佛恩	-11.6964
言象如	-11.6964
親近惡友	-11.6964
瞿師羅	-11.6964
住世一劫	-11.6965
挑	-11.6965
吉凶	-11.6965
王舍大城	-11.6966
完	-11.6966
艸	-11.6966
愚惑	-11.6966
器仗	-11.6967
卷第五	-11.6967
衣服飲食	-11.6967
虵	-11.6967
祥	-11.6967
四衢	-11.6967
浣	-11.6968
於十方	-11.6968
有病行處	-11.6968
懈	-11.6968
而亦是有	-11.6969
為人廣說	-11.6969
如來說法	-11.697
我樂淨	-11.697
覈	-11.6971
誹謗方等	-11.6971
脈	-11.6971
最為殊勝	-11.6971
香木	-11.6971
貿	-11.6971
遇惡友	-11.6971
渠	-11.6971
婆藪	-11.6972
周帀	-11.6972
隅	-11.6972
函	-11.6973
自利利他	-11.6973
波羅奈	-11.6973
加功	-11.6973
毘婆沙	-11.6974
殘害	-11.6974
何等為八	-11.6974
燒香	-11.6975
汎舉	-11.6976
恕	-11.6976
信等五根	-11.6977
不食肉	-11.6977
不可說言如來法滅	-11.6977
安隱快樂	-11.6977
說十三偈	-11.6978
尚書	-11.6979
菩薩所得	-11.6979
貪恚癡	-11.6979
隻	-11.6979
d	-11.6979
▁初總別分科	-11.6979
u	-11.698
貿易	-11.698
格	-11.698
僧佉	-11.6981
無常無樂無我無淨	-11.6982
是故已下結	-11.6982
四悉檀	-11.6983
如來終不為諸眾生作煩惱因緣	-11.6983
讚其	-11.6984
根本戒	-11.6985
深坑	-11.6985
真解脫者亦復如是	-11.6986
女人答言	-11.6986
指雜華	-11.6987
北凉	-11.6987
縱奪	-11.6988
來詣	-11.6988
無有方所	-11.6988
聞是語巳	-11.6989
鳥喻	-11.699
方便密教	-11.6991
正因之性	-11.6991
義皆不然	-11.6991
非虛	-11.6991
劫奪	-11.6991
入真	-11.6992
若得此意	-11.6993
黑白	-11.6993
被接	-11.6994
毀壞	-11.6994
我法亦爾	-11.6995
哀嘆品	-11.6995
修習聖道	-11.6996
簡別	-11.6996
毒草	-11.6996
若然者	-11.6996
所辨	-11.6997
死尸	-11.6997
塵土	-11.6998
飲乳	-11.6998
八十年	-11.7
此與止觀	-11.7002
雙游	-11.7003
已下就	-11.7003
我佛法中	-11.7004
其罪	-11.7005
所謂十力	-11.7006
復有二人	-11.7006
隨問答	-11.7007
斥其	-11.7008
殺賊	-11.701
具足煩惱	-11.7013
億那由他	-11.7013
無上佛法	-11.7013
稱讚	-11.7014
縛脫	-11.7014
重音	-11.7017
最第一	-11.702
自歸	-11.702
悉無有我	-11.7021
修惑	-11.7025
五趣	-11.7026
豈獨	-11.7027
佛答有三	-11.7028
斯經	-11.7028
答第三難	-11.7028
後身佛性	-11.7029
化儀	-11.7029
殺婆羅門	-11.703
一闡	-11.7031
子曰	-11.7032
為護正法	-11.7032
而信者	-11.7034
貴在	-11.7039
勝處	-11.7041
作如是問	-11.7042
我今已得	-11.7044
仁等	-11.7045
是生死法	-11.7046
菩薩修大涅槃	-11.705
而作是說	-11.7051
二百五十	-11.7053
非名	-11.7054
是果非因	-11.7056
有千	-11.7056
妙絕	-11.7058
萬億	-11.7058
何處說	-11.706
相承	-11.7061
為魔所	-11.7064
成辦	-11.7068
謂之為	-11.7071
真無漏	-11.7075
如來藏性	-11.7075
左傳	-11.7077
一切天人	-11.7078
審實	-11.708
不墮三惡	-11.708
不老	-11.7086
▁四番	-11.7086
難量	-11.7091
一向無	-11.7093
能遍	-11.7094
中初科	-11.7095
此章	-11.7097
謗無	-11.7099
毘羅	-11.7101
第四依	-11.7108
如是二法	-11.7112
世間出世間	-11.7114
為惑所	-11.7114
應物	-11.7115
第六明	-11.7117
樂我淨	-11.7119
淨穢	-11.7125
千歲	-11.7126
上來第一明	-11.7128
風吹	-11.7132
乃至般若	-11.7134
總示	-11.7137
舉其所	-11.7138
家果	-11.7138
分段變易	-11.714
善男子云何菩薩摩訶薩	-11.7141
右脇	-11.7142
壽命無量	-11.7144
修慈悲	-11.7145
雙標	-11.7151
安隱處	-11.7152
淨梵行	-11.7154
前中初明	-11.7155
互通	-11.7156
是名智者	-11.7157
自德	-11.7157
不能染	-11.7161
能資	-11.7163
新云	-11.7163
云何言住	-11.7165
不存	-11.7166
更復	-11.7168
菩薩能知	-11.7168
未悟	-11.7171
為解脫故	-11.7171
第五譬	-11.7173
如鹽	-11.7174
應爾	-11.7177
從因緣故	-11.7177
咸皆	-11.7178
求解脫	-11.7179
罪業	-11.7184
足滿	-11.7185
萬歲	-11.7186
下結意	-11.7192
無損	-11.7197
地論	-11.7203
色是我	-11.7204
殺父	-11.7204
律云	-11.7209
釋梵	-11.7213
別序	-11.7216
沙彌	-11.7216
是故非非	-11.7218
能生於	-11.722
三章	-11.722
不可計	-11.722
舉類	-11.7222
伏惑	-11.7222
入佛法	-11.7224
迷理	-11.7226
苦盡	-11.7226
造逆	-11.7242
倒亂	-11.7243
非一闡提	-11.7249
既竟	-11.7251
不從緣	-11.7251
且從	-11.7253
非擇滅	-11.7253
釋師子	-11.7253
古釋	-11.7256
此三法	-11.726
准前	-11.7263
時非時	-11.7265
三雙結	-11.7268
所侵	-11.7272
第三對	-11.7275
破障	-11.7277
文章	-11.7278
大聲	-11.728
講說	-11.728
四種四諦	-11.7283
下約教	-11.7287
超合	-11.7287
下就前	-11.729
辯異	-11.7291
文略不	-11.7291
不懷	-11.7299
惡漏	-11.7301
不名中道	-11.7305
出於世	-11.7306
皆屬	-11.7308
瞋心	-11.7308
皆從因緣	-11.7309
有三番	-11.7309
為諸聲聞	-11.7317
不厭	-11.7318
詮理	-11.7321
作一闡提	-11.7323
五篇	-11.7324
惡覺觀	-11.733
入初禪	-11.733
可稱	-11.734
無底	-11.7343
泣	-11.7343
學地	-11.7351
初標章	-11.7358
有淺深	-11.7363
本有性	-11.7372
求解	-11.7377
療病	-11.7381
干	-11.7381
頗有	-11.7382
用章	-11.7383
若無此	-11.7386
相續假	-11.7387
能仁	-11.7389
妙體	-11.7393
戒聖行	-11.7398
師子先問	-11.7398
離斷常	-11.74
諸天子	-11.74
糜	-11.7401
華鬘	-11.7407
當般泥洹	-11.7408
於是經中	-11.741
已度	-11.741
悲泣流淚	-11.7411
鐵圍山	-11.7417
叫喚	-11.7418
致問	-11.7418
叉手	-11.7419
訟	-11.7419
世尊說此頌	-11.7419
以神力	-11.742
闍陀伽	-11.7421
振	-11.7422
饍	-11.7424
焉能	-11.7424
遶百千匝	-11.7424
偶	-11.7425
鎌	-11.7426
不相捨離	-11.7426
蟻	-11.7427
娛樂	-11.7427
血肉	-11.7428
難思議	-11.7429
甘美	-11.743
毘沙門	-11.7431
瞬	-11.7432
沈水	-11.7432
膜	-11.7434
騾	-11.7435
人民熾盛	-11.7435
是故稱佛	-11.7435
絹	-11.7435
匹	-11.7436
不但獨為	-11.7436
剃髮	-11.7436
大設供養	-11.7436
冀	-11.7437
吸鐵	-11.7437
而語之言	-11.7437
以此善根願與一切眾生共之	-11.7437
涅槃疏私記卷第	-11.7438
破古	-11.7438
園林	-11.7438
阿那	-11.7438
是亦有餘	-11.7439
深邃	-11.7439
優波提舍	-11.7439
鎮	-11.7439
以利根故	-11.744
聽法因緣則得近於大般涅槃	-11.744
膿血	-11.744
脩行	-11.7441
躄地	-11.7441
算	-11.7441
或曰	-11.7441
之器	-11.7442
燭	-11.7442
當來之世	-11.7442
効	-11.7443
怖懼	-11.7443
伯	-11.7443
三一互融	-11.7443
妃	-11.7443
技藝	-11.7444
多受苦惱	-11.7444
芰角	-11.7444
煩惱在先	-11.7444
䟦提	-11.7444
醯	-11.7444
沾	-11.7445
罷	-11.7445
經中復說	-11.7446
毗婆舍那	-11.7446
地獄人	-11.7446
農夫	-11.7446
貪婬	-11.7446
求覓	-11.7446
憐愍世間	-11.7447
囊	-11.7447
妹	-11.7448
是名菩薩修大涅槃	-11.7448
兩教二乘	-11.7448
象跡	-11.7448
叫	-11.7449
八種術	-11.7449
滑	-11.7449
為是不	-11.7449
糞穢	-11.745
殷勤	-11.745
緊那羅王	-11.745
薩婆	-11.745
所以成諍	-11.7452
耎	-11.7452
作如是念	-11.7452
洛	-11.7453
初出胎時	-11.7453
斷諸善根	-11.7454
名無所有	-11.7454
又嬰兒者	-11.7454
我於經中說	-11.7454
諸天世人	-11.7455
當知是人真我弟子	-11.7455
大王今者	-11.7455
k	-11.7456
則有壞滅	-11.7456
不自覺知	-11.7459
兩處	-11.746
二月十五日	-11.746
迴曲	-11.7461
其性廣博	-11.7461
畫水	-11.7463
牒佛前言	-11.7464
所不能壞	-11.7465
兵眾	-11.7465
故今不用	-11.7465
下重顯之	-11.7465
空平等地	-11.7466
諸法無我	-11.7468
意在於此	-11.7469
說無量名	-11.7469
方等般若	-11.7469
須達多言	-11.747
亦內亦外	-11.7471
故下文中	-11.7471
麤細	-11.7472
慚恥	-11.7472
何等為六	-11.7472
毗舍離	-11.7473
不生貪著	-11.7473
半月	-11.7475
一正明	-11.7475
學無學	-11.7476
染污	-11.7476
十六知見	-11.7476
云何難言	-11.7478
說是語已	-11.7478
通途	-11.7478
一種二種	-11.748
兩捨	-11.7481
有人宣說	-11.7481
生死流	-11.7482
補處	-11.7482
恒在	-11.7482
殺亦如是	-11.7482
說是語	-11.7482
大般涅槃經疏卷第十	-11.7485
相傳	-11.7485
若言有者	-11.7486
修持淨戒	-11.7488
涅槃之法	-11.7488
怨家	-11.7489
能見佛性	-11.7491
能堪忍	-11.7491
當為汝分別解說	-11.7496
定是無為	-11.7497
終歸	-11.7502
金光明	-11.7503
致使	-11.7503
為菩薩時	-11.7505
分節	-11.7507
地人云	-11.7509
云何可斷	-11.751
釋名云	-11.7511
自性清淨	-11.7512
引昔證	-11.7514
諸大德	-11.7514
枝本	-11.7515
漸次	-11.7516
有漏法	-11.7517
不同向前	-11.7526
佛答又二	-11.753
傳化	-11.753
存略	-11.753
外更無	-11.753
為是何	-11.7532
大般涅槃經集解卷第	-11.7534
以佛性故	-11.7535
且止	-11.7535
中廣說	-11.7538
故名聖行	-11.7538
入初住	-11.7539
自下第五	-11.7539
此下第二	-11.7539
俱亡	-11.754
種種方便	-11.754
平等果	-11.7545
野人	-11.7552
性重	-11.7553
身分	-11.7554
汝亦如是	-11.7557
今云何言	-11.7557
法華疏	-11.7557
是故名住	-11.7557
就文為三	-11.756
斷見諦	-11.7561
牒舉前	-11.7562
遣執	-11.7563
無等等	-11.7564
能生善	-11.7571
眾星	-11.7573
文中有二	-11.7577
▁三約	-11.7579
機動	-11.758
若佛如來	-11.7582
善女人等	-11.7587
有三翻	-11.7587
何得有	-11.7587
而得自在	-11.7592
二乘所得	-11.7593
十億	-11.7594
性無二	-11.7594
大集	-11.7595
不可一向	-11.7596
三千界	-11.7597
而不能知	-11.7601
所對	-11.7601
禮拜供養	-11.7604
五種佛性	-11.7606
海水	-11.7607
以因緣故	-11.7608
問起發	-11.761
此下訖	-11.7611
有二因	-11.7611
無咎	-11.7616
還沒	-11.7616
自高	-11.7618
云何言常	-11.7622
第四力	-11.7623
隨世	-11.7624
若不遇	-11.7628
眾生之類	-11.763
卷第七	-11.7633
兩異	-11.7634
四恒	-11.7636
其中眾生	-11.7637
如優曇花	-11.7642
更約	-11.7648
捨身命	-11.765
高座	-11.7652
大判	-11.7654
由內	-11.766
開悟	-11.7663
何可	-11.7663
無所獲	-11.7669
乃成	-11.7671
藏本	-11.7686
序中	-11.7688
是涅槃因	-11.7691
遇善友	-11.77
融即	-11.7702
作四句	-11.7703
中有其	-11.7704
汝所作	-11.7722
淨德	-11.7724
調心	-11.7725
生善根	-11.774
現在煩惱	-11.7746
違反	-11.7751
劣三修	-11.7751
福慧	-11.7753
斷三結	-11.7754
正思惟	-11.7757
後辯	-11.7759
中五句	-11.7766
無自性故	-11.7767
十二句	-11.7769
標別	-11.7772
文相可	-11.7773
前教	-11.7774
例餘	-11.7781
涅槃經疏三德指歸卷第	-11.7795
我今巳	-11.7796
外道計	-11.7802
非有為法	-11.7804
呪師	-11.7807
所得涅槃	-11.7808
而坐	-11.7812
譬如虗空	-11.7817
並云	-11.7818
實德	-11.7825
眾鳥	-11.7838
欲使如來	-11.784
兩重	-11.7841
答後問	-11.7842
爾時文殊師利	-11.7843
文有二	-11.7845
下歷	-11.7854
答此問	-11.7856
答第三問	-11.7858
第三門	-11.786
不瞋	-11.7861
以是緣下	-11.7864
不顧	-11.7869
標列	-11.7871
得免	-11.7872
得須陀洹	-11.7873
畢竟智	-11.7881
復須	-11.7882
闍那	-11.7899
十門	-11.7902
譬如二人	-11.791
入山	-11.7914
聞此經	-11.7914
卷第六	-11.7915
姊妹	-11.7915
即於胎中	-11.7916
戲笑	-11.7916
芻	-11.7917
灑	-11.7919
翼	-11.7921
博叉	-11.7921
五階	-11.7921
管	-11.7921
戶	-11.7922
無二之性即是實性	-11.7922
鬪戰	-11.7924
髓	-11.7925
夜行	-11.7925
厄	-11.7926
法攝此集一切福德三昧	-11.7926
孤露	-11.7926
然我已於無量劫中	-11.7927
愁毒	-11.7928
煮	-11.7929
咄哉	-11.793
智者了達其性無二	-11.793
盡涅槃際	-11.793
能持戒	-11.793
阿羅訶	-11.7931
踈	-11.7932
鈎	-11.7932
吾當為汝	-11.7932
怙	-11.7932
耕	-11.7934
迦毘羅	-11.7934
旬	-11.7934
賜	-11.7934
如棄涕唾	-11.7935
乃至醍醐亦復如是	-11.7935
若常愁苦	-11.7936
傷害	-11.7936
𦘕	-11.7936
愁遂增長	-11.7936
以是之故	-11.7937
嚮	-11.7937
五門觀	-11.7937
熱鐵	-11.7938
娑婆世界	-11.7938
罽賓	-11.7938
若男若女	-11.7938
作是觀已	-11.7938
當知是人能斷善根	-11.7938
象馬車乘	-11.7938
衰老	-11.7939
采	-11.7939
行住坐臥	-11.794
蝮	-11.7941
如法而住	-11.7941
勤修精進	-11.7941
假使有人	-11.7941
矛	-11.7942
細分	-11.7942
寐	-11.7942
抗	-11.7943
陰界諸入	-11.7943
無量無邊不可稱計	-11.7943
稱譽	-11.7943
暴風	-11.7944
宣演	-11.7944
錢塘沙門釋智圓述	-11.7944
乃至識亦如是	-11.7944
上來一段	-11.7944
形貌	-11.7944
菩提樹下	-11.7944
正異邪	-11.7944
名大地動	-11.7945
劇	-11.7946
塹	-11.7946
乳中定有酪性	-11.7946
城郭	-11.7946
迦羅迦	-11.7947
殷	-11.7947
或有說者	-11.7948
後受施者	-11.7948
大般涅槃經集解卷第六十	-11.7949
無作道品	-11.7949
優鉢羅華	-11.7949
禿居士	-11.7949
不得安眠	-11.795
若本有者	-11.7951
包含	-11.7951
所不應依	-11.7951
有無作色	-11.7951
從乳生	-11.7951
智者了達	-11.7953
阿闍	-11.7953
不得安隱眠	-11.7953
不修慧者	-11.7953
介	-11.7953
祈請	-11.7954
文悞	-11.7954
燈炷	-11.7954
開身密	-11.7954
第二段中初	-11.7954
諸沙門	-11.7954
嶷然	-11.7955
宇	-11.7955
若從是義	-11.7955
小入大	-11.7955
涅槃經治定疏科卷	-11.7956
或復說言	-11.7958
初總標	-11.7958
親承	-11.7958
九部經中	-11.7959
有兩問答	-11.7959
雜食之身	-11.796
嘗	-11.796
二牒釋	-11.796
輪回	-11.7961
大般涅槃經集解卷第五十	-11.7961
如來者即是法也	-11.7962
校量	-11.7962
尤	-11.7962
若一闡提	-11.7963
復有一行是如來行	-11.7964
何故復名	-11.7964
提名不具	-11.7965
推功	-11.7965
君子	-11.7965
略不舉	-11.7966
是名了義	-11.7966
如彼嬰兒	-11.7966
具二莊嚴	-11.7966
佛法眾僧	-11.7967
言本有者	-11.7967
遺教經論	-11.7967
不斷不常	-11.7968
撿驗	-11.7968
斥云	-11.7969
苦空無常	-11.7969
三德秘藏	-11.7969
哀泣	-11.7969
捉持	-11.797
下佛為釋	-11.797
色香味觸	-11.7971
變白	-11.7973
恩愛	-11.7974
大般涅槃經疏卷第二十	-11.7977
以修習故	-11.7977
是故此地	-11.7977
證智	-11.7978
▁初領旨	-11.7978
生亦不可說	-11.7978
生住滅	-11.7979
若遇善友	-11.7979
▁二初問下隨	-11.7979
豈容	-11.798
而說此偈	-11.7983
有佛無佛	-11.7986
騰疑	-11.7987
沙礫	-11.7987
停住	-11.7987
▁初章安	-11.7989
呪藥	-11.7989
迦葉白佛言世尊	-11.799
持毀	-11.799
三結如文	-11.7992
不墮惡道	-11.7992
生憐愍	-11.7994
老人	-11.7995
毒害	-11.7995
半國	-11.7999
地土	-11.8001
無我見我	-11.8001
離八難	-11.8002
俱不定	-11.8002
體達	-11.8003
對向	-11.8006
獲益	-11.8006
明其人	-11.8006
自誓	-11.8007
舍主	-11.8007
眾中有一天	-11.8009
大般涅槃經集解卷第四十	-11.8011
三種四句	-11.8013
大菩提	-11.8013
判屬	-11.8014
見生死過	-11.8015
好藥	-11.8017
譬真解脫真解脫者即是如來	-11.8017
▁初正合	-11.8018
奉供	-11.802
破戒之人	-11.8022
有四義	-11.8024
佛性因故	-11.8025
還源	-11.8028
成九	-11.8029
時語	-11.8032
不相應行	-11.8034
所寄	-11.8034
且一往	-11.8036
雙牒	-11.8038
兩兩	-11.8039
聞佛所說	-11.8039
何以然	-11.8039
列其	-11.804
以涅槃為	-11.804
虗實	-11.804
何但	-11.8041
宛轉	-11.8042
四重五逆	-11.8042
令彼眾生	-11.8044
有六句	-11.8048
如上文	-11.8049
如來往昔	-11.805
壞衣	-11.8051
真證	-11.8053
香水	-11.8054
堪為	-11.8054
梵天王	-11.8054
中初句	-11.8056
皆是佛說	-11.8056
上來別	-11.8064
破見思	-11.8067
大般涅槃經集解卷第三十	-11.807
無學道	-11.8072
大般涅槃經集解卷第二十	-11.8074
二勸修	-11.8077
兩邊	-11.8084
過失	-11.8093
後論義	-11.8094
持戒清淨	-11.8095
佛性非有非無	-11.8096
如華嚴	-11.8096
下別明	-11.8098
品題	-11.81
云何諸菩薩	-11.8101
勝妙	-11.8102
苦聖諦	-11.8102
百千萬億	-11.8103
▁三答	-11.8104
真妄	-11.8105
是名為知	-11.8105
魔天	-11.811
六復次	-11.8111
五濁	-11.8112
尊重讚歎	-11.8115
第四番	-11.8116
具不具	-11.8117
涅槃是有	-11.8118
惡馬	-11.8119
云何得知	-11.8122
如蛇	-11.8122
千劫	-11.8125
義同前	-11.8127
開覆	-11.8134
五度	-11.8135
虛空界	-11.814
解悟	-11.8148
名為虛空	-11.815
次善男子下	-11.8151
成論云	-11.8153
真僧	-11.8156
身邊	-11.8158
乘前	-11.8162
而為眾生	-11.8164
得一子地	-11.8165
故知無常	-11.8171
護念	-11.8178
永異	-11.8182
分散	-11.8184
今現在	-11.8185
我從今日	-11.8185
第十五	-11.8188
其諸眾生	-11.8192
三科	-11.8197
根不具	-11.8199
欲往	-11.8208
靡不	-11.8221
偏取	-11.8228
終成	-11.8232
除障	-11.8237
能得涅槃	-11.8242
能渡	-11.8242
異類	-11.8246
欲入涅槃	-11.8247
藥消	-11.8247
此下第三	-11.8251
未開	-11.8258
無與等	-11.8267
四非常	-11.8267
答中二	-11.8269
大船師	-11.8269
即非常非無常	-11.827
速成	-11.8271
或有佛性	-11.8275
未全	-11.8279
總嘆	-11.8304
聲聞僧	-11.8308
經卷	-11.831
直爾	-11.8313
戒禁	-11.8318
無乖	-11.8322
下示今	-11.8322
後四偈	-11.8326
第二翻	-11.833
有三復次	-11.8333
招苦	-11.8351
名為大樂	-11.836
宛	-11.8362
總顯	-11.8363
若見佛性	-11.8375
此四法	-11.8379
持淨戒者	-11.839
聖梵	-11.8408
中三句	-11.8412
密語門	-11.8425
有為無常	-11.8426
樓逗	-11.8426
諸趣	-11.843
車𤦲	-11.8431
斛	-11.8432
今現在說法	-11.8434
駭	-11.8435
迦留羅	-11.8437
眾中有一天子	-11.8438
涎	-11.8441
簡去	-11.8442
香油	-11.8443
舞	-11.8445
饒	-11.8447
奈	-11.8449
枚	-11.8449
詰	-11.8449
次喻後合	-11.845
涌	-11.845
論語云	-11.8451
為希有	-11.8452
歌舞	-11.8452
於未來世成佛之時	-11.8453
波羅㮈	-11.8453
桓	-11.8453
兜率陀天	-11.8453
穀貴	-11.8453
痛哉	-11.8454
受持五戒	-11.8454
事訖	-11.8454
成就如是無量功德	-11.8455
𧂐	-11.8455
亦應無常	-11.8456
撲	-11.8456
群臣	-11.8457
針	-11.8457
鏤	-11.8458
芥	-11.8458
飢饉	-11.8458
舉劣顯勝	-11.8458
塔廟	-11.8459
毘佛略	-11.8459
離是之外更無別	-11.8459
而供養之	-11.8459
復白佛言	-11.846
疣	-11.846
貧窮困苦	-11.8461
細軟	-11.8462
昔所不得而今得之	-11.8462
煩惱覆故	-11.8462
兄	-11.8462
秋耕	-11.8463
淤泥	-11.8463
輕躁	-11.8463
四部之眾	-11.8463
帛	-11.8463
如世伊字	-11.8464
誦習	-11.8465
冤親	-11.8465
終不畢竟入於涅槃	-11.8465
脚足	-11.8465
疱	-11.8466
鞭	-11.8466
我亦有分	-11.8467
駕	-11.8467
亦於晨朝日初出時	-11.8467
贖命	-11.8467
此初段竟	-11.8468
鎮頭迦	-11.8468
傅	-11.8468
是事不然	-11.8468
巡	-11.8469
線	-11.8469
嘲	-11.847
五戒十善	-11.847
自責	-11.847
勤加	-11.847
光三昧	-11.8471
適悅	-11.8471
門戶	-11.8471
五停心	-11.8472
故偏舉之	-11.8472
所作巳辦	-11.8472
時王答言	-11.8472
雨法雨	-11.8473
如彼醉人	-11.8473
無厭足	-11.8473
一心三智	-11.8473
奏	-11.8473
曹	-11.8473
化現	-11.8473
觀已行	-11.8474
㝹	-11.8474
g	-11.8475
佛所發菩提心	-11.8475
是故名為戒不具足	-11.8475
亘	-11.8475
世諦死時	-11.8476
如說修行	-11.8476
不修戒者	-11.8476
以其常故	-11.8477
氀	-11.8477
盈縮	-11.8478
无	-11.8478
見不了了	-11.8478
如來常住無有變易	-11.8478
破壞四魔	-11.8478
常當一心	-11.8479
髣髴	-11.8479
汲	-11.8479
身異命異	-11.8479
病愈	-11.8479
佛性者即是如來	-11.8479
行已復住	-11.848
微薄	-11.848
同於子想	-11.848
作不定說	-11.848
末伽	-11.848
優婆	-11.848
大哭	-11.848
不修心者	-11.848
讎	-11.8481
醎味	-11.8481
歡樂	-11.8482
即用而體	-11.8482
販	-11.8483
常得無量樂	-11.8483
微弱	-11.8483
是大涅槃微妙經典亦復如是	-11.8483
5	-11.8484
次以喻顯	-11.8484
拳	-11.8485
立喻顯法	-11.8485
依智不依識	-11.8486
一切眾生皆有佛性	-11.8486
旛	-11.8486
別教地前	-11.8486
世間不知見覺	-11.8487
修熏禪	-11.8487
圓澄	-11.8488
不乖	-11.8488
鄰	-11.8488
▁初正釋經文	-11.8488
八斛	-11.849
滅除有餘	-11.849
得生天上	-11.849
賣乳	-11.8491
▁初破古	-11.8492
有為無為且共置之	-11.8493
是凡夫相	-11.8493
創疣	-11.8493
水泡	-11.8493
長阿含	-11.8495
即此義也	-11.8495
大眾悲歎	-11.8496
與二乘共	-11.8496
拂去	-11.8498
七覺分	-11.8499
何用修道	-11.8499
四十里	-11.85
次第相生	-11.85
重頌	-11.8501
是故復名	-11.8501
水精	-11.8502
常作是願	-11.8502
分真究竟	-11.8504
起塔	-11.8504
不見而見	-11.8505
一切叢林	-11.8505
手執	-11.8507
羅剎王	-11.8508
未堪	-11.8508
是名為觸	-11.851
諸佛如來亦復如是	-11.8511
八聖道分	-11.8511
五百比丘	-11.8512
八禪	-11.8513
悉無所有	-11.8513
久近	-11.8515
懸示	-11.8516
宗親	-11.8517
有三解	-11.8519
不任	-11.8523
猶如醍醐	-11.8523
年少	-11.8524
於中三句	-11.8524
遠離二邊	-11.8524
s	-11.8526
博聞	-11.8526
非凡夫相	-11.8527
安可	-11.8527
動搖	-11.8527
直就	-11.8528
△	-11.8528
頂禮	-11.8528
拘執	-11.8531
是名聞見	-11.8531
無有作者	-11.8533
乳味	-11.8535
旨趣	-11.8538
而不能得	-11.8539
老子	-11.8542
所加	-11.8544
自活	-11.8544
父母和合	-11.8545
更加	-11.8547
名阿那含	-11.8549
讚歎解脫	-11.855
序分	-11.8552
猶如金剛	-11.8554
迦葉初先	-11.8557
堪能	-11.8557
一毛	-11.8558
成酪	-11.8559
無礙智	-11.8564
深隱	-11.8564
至誠	-11.8565
眼能見	-11.8565
順喻	-11.8565
常樂我淨之法	-11.8567
不生怖畏	-11.8569
學小	-11.8575
此一句	-11.8575
非是聲聞	-11.8577
亦應爾	-11.858
莫著	-11.8582
娑婆	-11.8582
乃至廣說	-11.8583
深旨	-11.8585
終沒	-11.8586
從初至	-11.8587
若有若無	-11.8591
僧宗	-11.8592
無有住處	-11.8592
化城	-11.8596
昔說無常	-11.8601
墮地	-11.8601
吾昔	-11.8608
通大小	-11.8614
於諸佛所	-11.8616
六臣	-11.8624
亦不可說	-11.8628
如是四法	-11.8629
▁初總示	-11.863
對待	-11.8632
深遠	-11.8634
五陰和合	-11.8634
害其父	-11.8643
如是四人	-11.8643
為生因	-11.8646
佛昔說	-11.865
心得自在	-11.8651
檀行	-11.8654
得無畏	-11.8654
不相離	-11.8658
下總以結	-11.8659
漸制	-11.8659
反照	-11.8659
微善	-11.866
無量四諦	-11.8663
歸僧	-11.8665
佛為說法	-11.8671
方稱	-11.8673
山神	-11.8678
能招	-11.8679
傍人	-11.8681
不融	-11.8684
因位	-11.8686
密義	-11.8686
靡	-11.8689
異熟	-11.8691
眾邪	-11.8692
眼所見	-11.8692
陰界	-11.8694
明得失	-11.8696
益他	-11.8697
利根人	-11.8698
五陰亦爾	-11.8709
得般	-11.8709
怖魔	-11.8713
譬如滿月	-11.8717
果亦如是	-11.8722
第四重	-11.8724
佛泥曰	-11.8725
萬二千	-11.873
十六句	-11.8731
初舉經	-11.8731
竝難	-11.8736
雖有煩惱	-11.8738
性淨涅槃	-11.8741
如來不久	-11.8741
光到	-11.8745
爾許	-11.8753
信邪	-11.8754
如是無量功德	-11.8755
知未來	-11.8756
令我得	-11.8757
雪山譬	-11.8758
如是等文	-11.8759
迷失	-11.8761
互明	-11.8765
乃至究竟	-11.8773
初句明	-11.8774
不期	-11.8775
誡勸	-11.8791
汝今欲	-11.8795
止惡	-11.8805
劣修	-11.8807
堪受	-11.8809
何方	-11.8811
次佛答中	-11.8814
性自空	-11.8816
▁二初明下隨	-11.8825
眾生有性	-11.8831
及諸眾生	-11.8832
▁初問答	-11.8841
後際	-11.8855
得阿羅漢	-11.8861
僧亦爾	-11.8864
煩惱亦爾	-11.8865
前列	-11.8869
義釋之	-11.8875
慶悅	-11.8877
標章	-11.8884
無定性	-11.8888
作此釋	-11.8888
初歎問	-11.8891
先領	-11.8906
且順	-11.8907
三乘共	-11.891
外境	-11.8917
得常果	-11.8925
比丘當知	-11.8928
護根	-11.8931
顯正義	-11.8938
文中初先	-11.8939
前段	-11.894
第三番中	-11.8941
先嘆	-11.8949
濁世	-11.8955
得受安樂	-11.8958
厭苦	-11.8968
即是真實	-11.8968
所作已辦究竟成就	-11.8975
難測	-11.8982
幢幡	-11.8983
中先牒	-11.8987
悲哀供養	-11.8988
兜羅	-11.8989
不淨淨	-11.899
無別體	-11.899
ma	-11.899
馬瑙	-11.8991
劉	-11.8992
鏘	-11.8992
覲	-11.8992
三千大千剎土	-11.8992
白㲲	-11.8994
三藏教	-11.8995
悲愍	-11.8997
先正合	-11.8998
無生法忍	-11.8998
沸	-11.8999
那由他眾生	-11.9
叉手合掌	-11.9001
紹王位	-11.9001
梯	-11.9002
恒河沙等世界	-11.9002
種種供養	-11.9003
元年	-11.9004
一切諸有	-11.9004
堅持禁戒	-11.9005
庫	-11.9005
剝	-11.9005
陀那婆王	-11.9005
域	-11.9006
荊	-11.9007
悵	-11.9007
常住法身	-11.9008
增上慢	-11.9008
東方去此	-11.9008
刃	-11.9008
迦葉領	-11.9009
碎身舍利	-11.9009
如是比丘則能莊嚴娑羅雙樹	-11.9009
同時舉聲悲泣雨淚以手抆淚	-11.901
出興於世	-11.901
綠	-11.9011
蹔	-11.9011
復有菩薩摩訶薩住大涅槃	-11.9012
央	-11.9012
天龍鬼神	-11.9014
釜	-11.9015
尅	-11.9015
疲極	-11.9016
是名世間義	-11.9016
若如是說無因	-11.9016
在大眾中	-11.9017
凡夫謂二	-11.9017
繒綵	-11.9017
是大乘典大涅槃經亦復如是	-11.9018
般涅	-11.9018
烟	-11.9018
芬陀利	-11.9018
俯仰	-11.9018
彫	-11.9019
儉	-11.902
浪	-11.902
輿	-11.902
勳	-11.902
蒸	-11.9021
獎	-11.9021
龜毛	-11.9023
及其眷屬	-11.9023
謹慎	-11.9023
澁	-11.9023
先辨諍	-11.9024
纔	-11.9024
世間不可樂想	-11.9024
嗣	-11.9024
諸根完具	-11.9024
亦因因	-11.9025
酒糟	-11.9025
疊	-11.9025
諾	-11.9025
溝	-11.9025
認	-11.9025
立稱	-11.9026
於虛空中	-11.9026
施眾生無量壽命	-11.9026
優樓	-11.9027
就初句中	-11.9027
甜味	-11.9028
犢子梵志	-11.9028
言語道斷	-11.9028
床座	-11.9028
滑草	-11.9028
湛	-11.9028
度未度者	-11.9028
白虎通	-11.9029
榛	-11.9029
抵	-11.9029
琉	-11.9029
浩	-11.9029
草穢	-11.9029
伴黨	-11.9029
當知皆是慈善根力	-11.9029
俄	-11.903
遊居	-11.903
香樓	-11.903
雖有煩惱如無煩惱	-11.9031
認歸	-11.9031
激	-11.9031
先無後有	-11.9031
無食三昧	-11.9031
道共戒	-11.9031
皆先立喻	-11.9031
猗	-11.9031
瑠	-11.9031
於諸善法為最	-11.9032
犯四禁	-11.9032
我實不知	-11.9032
候	-11.9032
煩惱餘報	-11.9032
當知是法不久住世	-11.9033
能見難見性	-11.9033
知諸根力	-11.9033
復次不修身者	-11.9033
不可覩見	-11.9034
非長非短	-11.9034
有諸弟子解甚深義	-11.9034
爵	-11.9035
地獄劫住	-11.9035
初住巳上	-11.9036
因顯果	-11.9036
發斯問	-11.9036
寶貨	-11.9037
精勤修道	-11.9037
乃名為常	-11.9037
料	-11.9037
栗	-11.9037
灼然	-11.9038
親疎	-11.9038
有名無實	-11.9038
誑他	-11.9039
心性本淨	-11.9039
無明與愛	-11.9039
他解今解	-11.9039
闇冥	-11.904
願佛開微密	-11.904
過去未來現在	-11.904
若復說言	-11.9042
天竺三藏曇無讖譯	-11.9042
乘船	-11.9043
虛空無故	-11.9043
筩	-11.9044
我今定知	-11.9045
無有障礙	-11.9045
號泣	-11.9045
三結歎	-11.9045
不一不異	-11.9045
無生無滅	-11.9045
阬	-11.9046
憎愛	-11.9046
擇滅	-11.9047
謬領	-11.9047
自恃	-11.9048
恐畏	-11.9048
月愛三昧亦復如是	-11.9049
第三家	-11.905
乳中無酪	-11.9051
假號	-11.9052
初論義	-11.9052
恭敬父母	-11.9054
二人俱有	-11.9054
祀	-11.9055
起信論	-11.9056
定樂行	-11.9056
各有所據	-11.9057
毗伽羅論	-11.9057
稱揚	-11.9057
香姓	-11.9058
開微密	-11.9059
憂怖	-11.9059
木石	-11.906
歸依三寶	-11.906
機熟	-11.9061
各有自性	-11.9063
上來廣明	-11.9063
指示	-11.9066
虗假	-11.9066
聲聞弟子亦復如是	-11.9069
苦樂行	-11.9069
虛空之性	-11.907
蓋覆	-11.9071
是名執著	-11.9075
不教菩薩	-11.9076
昔別體	-11.9077
妄情	-11.9079
爾時佛告迦葉菩薩	-11.908
國城	-11.9083
亦不來	-11.9088
正勤	-11.9088
不俟	-11.9088
以為眷屬	-11.9089
四重明	-11.9089
宜速	-11.909
乳牛	-11.9091
佛滅度後	-11.9092
百界	-11.9094
不名破戒	-11.9096
如法華玄	-11.9099
是大菩薩	-11.9099
深心供養	-11.9099
於佛法中	-11.9103
是名虛妄	-11.9103
廣分別說	-11.9103
能除一切	-11.9108
菩薩住大涅槃	-11.9109
卷第八	-11.911
單約	-11.9111
小非大	-11.9111
後一復次	-11.9112
第十功德	-11.9113
五行十德	-11.9115
救療	-11.9118
瞋癡	-11.9119
妄惑	-11.9125
是故名常	-11.9125
如來先說	-11.9126
第九功德	-11.9127
即作是言	-11.913
味異	-11.9131
有四番	-11.9139
大臣長者	-11.914
聞是法	-11.914
黑色	-11.9142
愛亦如是	-11.9142
菩提之因	-11.9143
類爾	-11.9143
下總結之	-11.9144
感動	-11.9144
起倒	-11.9148
初一復次	-11.915
列數	-11.9153
▁二初譬下隨	-11.9158
如是四事	-11.9159
緣因性	-11.9164
不名為常	-11.9167
天華	-11.9168
般涅槃時	-11.9169
不名世間	-11.9169
天子力	-11.9174
▁二標	-11.9175
是名精進	-11.9178
五繫	-11.9186
第三番問答	-11.9187
復次瞿曇	-11.9188
乾闥婆王	-11.9188
如來定說	-11.919
以是故說	-11.9191
諸菩薩摩訶薩等	-11.9195
即是苦也	-11.9197
漏無漏	-11.9208
牒舉	-11.9214
大般涅槃經集解卷第十	-11.9215
並皆	-11.9215
何謂四	-11.9217
妄取	-11.9217
有兩意	-11.9217
次料簡	-11.9224
差別不同	-11.9229
諸大士	-11.9233
常法無	-11.9247
有四意	-11.9248
外道所計	-11.9251
並通	-11.9268
對告	-11.9269
喻佛如來	-11.9272
答第四難	-11.9278
肇論	-11.9278
受諸苦	-11.9285
下問答重顯	-11.93
細分有	-11.9301
智惠	-11.9304
雙舉	-11.9313
淨名疏	-11.9315
八自在	-11.9319
說如是言	-11.9327
受漏	-11.9332
受因緣故	-11.9335
有六復次	-11.9337
假使菩薩	-11.9339
修身戒心慧	-11.9343
然經中	-11.9346
復宗	-11.9346
生人中	-11.9355
寧說	-11.9361
是魔說	-11.9365
得無得	-11.9366
親近國王	-11.9366
不審	-11.9377
結句	-11.9378
略歎	-11.9379
列章	-11.9395
譬如女人	-11.9405
始學	-11.9425
先喻次合	-11.9425
無漏道	-11.9433
可厭	-11.9447
入河	-11.9452
藥病	-11.9457
富貴	-11.9461
第五番	-11.9463
讀誦書寫	-11.9464
如箭	-11.9469
婆羅門種	-11.9472
不自生	-11.9486
王臣	-11.9519
va	-11.9523
師子吼問	-11.9524
第五第六	-11.9524
名無名	-11.9537
宜須	-11.9547
不善無記	-11.9552
刪	-11.9557
非真實道	-11.956
萬劫修行菩薩力	-11.9561
四十八	-11.9563
泡	-11.957
下結顯	-11.9571
西域	-11.9577
佛告彌勒	-11.9577
緒	-11.9577
戒不具	-11.9579
廬	-11.958
交露	-11.9581
不可沮壞	-11.9583
快哉我今得	-11.9584
童蒙	-11.9584
孟	-11.9586
花鬘	-11.9588
訪	-11.9589
盾	-11.9591
甚可愛樂	-11.9592
簫	-11.9593
則得名為常樂我淨	-11.9594
真陀羅	-11.9595
於佛前	-11.9595
義廣釋	-11.9596
賦	-11.9596
多陀阿伽度	-11.9596
甘露法味	-11.9596
〕-【	-11.9596
所入法門	-11.9596
橋梁	-11.9597
付囑於汝	-11.9597
蠶	-11.9598
昨	-11.9598
丁	-11.9598
鬱單越	-11.9599
搥胸	-11.9601
馳騁	-11.9601
戮	-11.9602
屠割	-11.9602
拔苦與樂	-11.9602
慳悋	-11.9602
唯願哀愍	-11.9603
非喻為喻	-11.9603
栴檀香	-11.9603
栖	-11.9603
能大利益	-11.9603
沫	-11.9604
因緣則得近於大般涅槃	-11.9604
纏縛	-11.9604
季	-11.9604
輙	-11.9605
資糧	-11.9606
脊	-11.9606
澤州	-11.9606
吾從無數阿僧祇劫	-11.9606
瓦礫	-11.9606
禦	-11.9607
膠	-11.9607
苞	-11.9607
心共貪生不共貪滅	-11.9607
百倍	-11.9607
諸行性相	-11.9607
羆	-11.9607
躁	-11.9607
雉	-11.9608
隷	-11.9609
於我法中	-11.9609
撫	-11.961
憍奢耶衣	-11.961
被燒	-11.961
饌	-11.961
轉正法輪	-11.961
瘂	-11.9611
秋月	-11.9611
左傳曰	-11.9611
殯	-11.9611
高聲唱	-11.9611
又無住者	-11.9611
明與無明	-11.9611
愽	-11.9612
與羅漢等	-11.9612
難作能作	-11.9612
無惡不造	-11.9612
諸結火滅	-11.9613
阿鼻獄	-11.9613
便命終	-11.9613
迴向阿耨多羅三藐三菩提	-11.9614
我從昔來	-11.9614
給侍	-11.9614
鑿	-11.9614
安隱豐樂	-11.9614
解未解者	-11.9614
地獄餓鬼畜生	-11.9615
膳	-11.9615
奈何	-11.9615
得須陀洹果至阿羅漢果	-11.9615
如是經律是佛所說	-11.9616
東宮	-11.9616
昔所不見而今得見	-11.9616
託胎	-11.9616
賖	-11.9616
願諸眾生悉得	-11.9616
非三非一	-11.9616
心善解脫	-11.9616
闇鈍	-11.9617
一何疾哉	-11.9617
難思	-11.9618
此經復有諸佛菩薩十種	-11.9618
麁獷	-11.9618
飽滿	-11.9618
義如別章	-11.9619
拘尸那	-11.9619
貪欲瞋癡	-11.9619
佐	-11.962
故是故非	-11.962
眾生福力	-11.962
非有想非無想	-11.962
區	-11.962
故經說言	-11.9621
以當見故	-11.9621
炳	-11.9621
誑惑	-11.9621
常恒無變	-11.9622
佛讚迦葉善哉善哉	-11.9622
坐禪	-11.9623
非相非非相	-11.9623
祠祀	-11.9624
名色繫縛眾生	-11.9624
書寫經卷	-11.9624
有知法者	-11.9624
難破有性	-11.9624
如是觀已	-11.9624
根深難拔	-11.9624
辟支佛道	-11.9625
今此所論	-11.9625
旃陀	-11.9625
自下第二就	-11.9625
而三而一	-11.9626
世尊復告	-11.9626
名一義異	-11.9626
ni	-11.9626
說是偈已	-11.9626
劒	-11.9626
下依科	-11.9626
規	-11.9627
非滅非不滅	-11.9627
壅	-11.9627
爾雅云	-11.9629
為譬作譬	-11.9629
此二一對	-11.963
變林	-11.963
名字巳上	-11.9631
華葉	-11.9631
夫無量者	-11.9631
分張	-11.9632
若我常者	-11.9632
依義不依語	-11.9632
嵐	-11.9633
天魔波旬	-11.9636
色聲香味觸	-11.9636
欣厭	-11.9636
三諦互融	-11.9636
恡	-11.9636
凝然	-11.9637
老亦如是	-11.9637
可量	-11.9637
非自非他	-11.9637
一諦三諦	-11.9637
虛空常故	-11.9638
為此義故	-11.9638
本有今無偈	-11.9638
不上不下	-11.9638
修者必得	-11.964
無有二相	-11.964
治罰	-11.9641
契會	-11.9641
得自在力	-11.9641
狹小	-11.9641
調御師	-11.9642
活命	-11.9642
聖賢	-11.9642
不應依止	-11.9644
燈器	-11.9644
玅覺	-11.9644
不見其過	-11.9645
舍衛城	-11.9646
引接	-11.9646
是故名為大般涅槃	-11.9647
堪忍地	-11.9656
愍念	-11.9656
力勢	-11.9657
亦色非色	-11.9658
佛答意者	-11.9658
如意語	-11.9658
超聲	-11.9659
佛告比丘	-11.9661
招提云	-11.9662
輕慢	-11.9662
應當修習	-11.9664
未辦	-11.9671
眾生薄福	-11.9673
四分云	-11.9675
不可壞身	-11.9677
於中初法	-11.9678
咨問	-11.9678
持戒破戒	-11.968
月八日	-11.968
掘出	-11.9681
有大方便	-11.9684
得無生忍	-11.9686
若有住處	-11.9686
▁初引古	-11.9689
下廣顯之	-11.9692
雜類	-11.9692
雙遮	-11.9692
亡失	-11.9693
唯是一	-11.9694
輕動	-11.9694
覆護	-11.9697
旃陀羅王	-11.9698
破其執	-11.9699
七方便人	-11.9703
忘懷	-11.9704
無爽	-11.9705
覺知樂	-11.9706
能生酪	-11.9708
極愛一子	-11.9708
遮照	-11.971
持諸華	-11.9712
不減	-11.9713
天眼通	-11.9717
安忍	-11.9718
一切皆苦	-11.972
相對分別	-11.9722
初發意	-11.9724
敘舊	-11.9724
自謙	-11.9725
轉增	-11.9726
文殊師利白佛言	-11.9726
故下經云	-11.9732
梵眾	-11.9744
寧可	-11.9745
妨道	-11.975
中先喻後合	-11.9751
是名寂靜	-11.976
復示下	-11.9762
依憑	-11.9763
印可	-11.9763
古本	-11.9764
問端	-11.9767
諸垢	-11.9767
少見佛性	-11.9772
下廣辯	-11.9774
如是等眾	-11.9776
愛有二種	-11.9777
譏請	-11.9779
釋迦牟尼佛	-11.9782
法說明	-11.9783
塗身	-11.9789
受生業	-11.979
法華玄文	-11.9794
能滅煩惱	-11.9795
脩空	-11.9798
涅槃經疏三德指歸卷第十	-11.9811
欲見如來	-11.9811
菩薩所修	-11.9811
莫過	-11.9812
聞不聞義	-11.9814
得三菩提	-11.9815
脩道	-11.9817
更須	-11.9818
外人計	-11.9826
五枝	-11.9828
壽命品	-11.9831
廟	-11.9841
初通釋	-11.9848
此二事	-11.9852
不懼	-11.9853
三昧力故	-11.9858
憂患	-11.9861
闡提斷善	-11.9864
正答問	-11.9874
服蘇	-11.9875
二諦慧	-11.988
何故須	-11.9884
設供養	-11.9885
兩關	-11.9885
亦無罪	-11.9893
初番問	-11.9909
中亦三	-11.9912
書寫讀誦	-11.9918
具四德	-11.9927
無愧	-11.9931
第一卷	-11.994
訖品	-11.9942
覆蓋	-11.9945
初正釋	-11.9968
假立	-11.9969
下引經	-11.9976
於己	-11.998
德王問	-11.9981
下結歸	-12.0011
豈唯	-12.0011
煩惱諸結	-12.0017
十乘	-12.0022
證成有	-12.0024
三種障	-12.0027
是順召	-12.0037
義勢	-12.0041
人中尊	-12.0057
第二章	-12.0058
甚深祕密之	-12.0065
有三段	-12.0067
經家敘	-12.007
感聖	-12.0077
藏臣	-12.0086
讀誦通利	-12.0095
如優曇華	-12.0096
便生疑	-12.0107
五時教	-12.0112
招報	-12.0113
得不退轉	-12.0129
卷第九	-12.0137
鵝	-12.0146
不惜	-12.0152
一切皆空	-12.0155
說真我	-12.0155
闡	-12.016
不可信	-12.0162
文中先明	-12.0165
母胎	-12.0168
礫	-12.0182
起七寶塔	-12.019
曼殊沙花	-12.0192
曼陀羅花	-12.0193
下顯今	-12.0196
跱	-12.0197
依律	-12.0198
無量壽	-12.0199
扼	-12.0202
祚	-12.0202
莫愁	-12.0203
聰	-12.0204
蠱	-12.0204
順流	-12.0205
無上調御	-12.0206
憂悲苦惱	-12.0206
獄卒	-12.0208
開昔	-12.0208
郡	-12.021
飢餓	-12.021
悶絕躄地	-12.0211
蚕	-12.0213
巾	-12.0214
一切法無我	-12.0214
床帳	-12.0214
癩	-12.0214
麞	-12.0215
囚	-12.0215
涅槃有因	-12.0216
心無退轉	-12.0217
分陀利花	-12.0218
華臺	-12.0218
欣慶	-12.0219
以是誓願因緣力故	-12.0219
倍勝於前	-12.0219
係	-12.0219
畜養奴婢	-12.0219
菩薩摩訶薩住是地	-12.022
參差	-12.022
欠	-12.022
恐懼	-12.022
墓	-12.0221
桃	-12.0222
車匿	-12.0223
悴	-12.0223
巖	-12.0223
如龜藏六	-12.0224
靜慮	-12.0224
他化自在天	-12.0224
爪上土	-12.0224
唯除菩薩住於大乘大般涅槃	-12.0224
裸形	-12.0225
腹痛	-12.0225
製	-12.0225
毛竪	-12.0226
哀受我等最後供養	-12.0226
遷謝	-12.0226
我又示現閻浮提中	-12.0226
不增不減	-12.0227
不自勝	-12.0229
艱	-12.0229
斬首	-12.0229
出息入息	-12.0229
城邑聚落	-12.023
辟	-12.0231
嘴	-12.0231
衡	-12.0231
流注	-12.0231
轍	-12.0231
循	-12.0231
證道同圓	-12.0232
針鋒	-12.0232
本性空寂	-12.0232
椎	-12.0232
聞此語已	-12.0232
得不起法忍	-12.0233
轉大法輪	-12.0233
螢	-12.0233
氣噓	-12.0233
周禮	-12.0233
陀羅驃	-12.0233
拄	-12.0233
婁	-12.0234
遺囑	-12.0234
深難得底	-12.0234
成就具足無量功德	-12.0234
暖	-12.0234
爐	-12.0235
綺飾	-12.0235
自事我來	-12.0235
旅	-12.0235
瞢	-12.0235
漸增	-12.0236
舟航	-12.0236
不死之藥	-12.0236
愚癡無智	-12.0236
猶如車輪	-12.0236
誰之所作	-12.0236
空無相願	-12.0236
輸	-12.0237
瞻婆	-12.0237
揣	-12.0237
共貪俱滅	-12.0237
摩那	-12.0237
非非鬼	-12.0237
除無利益	-12.0237
鳳	-12.0238
摶	-12.0238
熊	-12.0238
槊	-12.0238
雨大法雨	-12.0238
獵	-12.0238
沙鹵	-12.0238
歡娛受樂	-12.0238
諸佛世尊有三昧名	-12.0238
脚跌	-12.0239
怱	-12.0239
捲	-12.0239
父王無辜	-12.0239
缺減	-12.0239
灼	-12.0239
邦	-12.0239
充滿十方	-12.0239
是大乘典大涅槃經	-12.0239
所設供具	-12.024
三乘若無性	-12.0241
罥	-12.0241
依法不依人	-12.0241
魁膾	-12.0241
賣買	-12.0242
柔耎	-12.0242
為無利益	-12.0242
了知諸緣	-12.0242
我今所施悉與一切眾生共之	-12.0242
捨相入證	-12.0242
衛世師	-12.0242
定共戒	-12.0242
濃	-12.0243
壽命短促	-12.0243
酒肉	-12.0243
鬱多羅	-12.0243
以是緣故	-12.0243
治罸	-12.0243
鞭撻	-12.0243
謀議	-12.0243
永斷於生死	-12.0244
謟曲	-12.0244
降雨	-12.0245
是故非漏	-12.0245
白四羯磨	-12.0245
皮肉	-12.0245
不與聲聞辟支佛共	-12.0245
應法師云	-12.0245
信首五根	-12.0245
甘嗜	-12.0245
得非想定	-12.0245
自了了他	-12.0245
乍	-12.0246
非諸聲聞緣覺所及	-12.0246
儲君	-12.0246
云何共聖行	-12.0247
質礙	-12.0247
從頭至足	-12.0248
入於大般涅槃	-12.0248
轉於法輪	-12.0248
1	-12.0249
穿鑿	-12.0249
漢書	-12.0249
凡有所說	-12.0249
身不在先	-12.0249
人中之龍	-12.0249
其數無量	-12.0249
故名為護戒	-12.0249
是沙門法	-12.0249
須䟦陀羅	-12.025
即邊而中	-12.025
不有不無	-12.0251
淵深	-12.0251
非有為非無為	-12.0252
約喻顯法	-12.0252
亦可得說	-12.0252
第二對中	-12.0252
順光召	-12.0253
杭	-12.0253
自餓	-12.0253
碩異	-12.0253
天然之理	-12.0253
不同即世界	-12.0254
修悲心者	-12.0254
如世人說	-12.0254
生於天上	-12.0255
當知是人則為	-12.0255
清白	-12.0255
駕駟	-12.0255
曇摩	-12.0255
莫般涅槃	-12.0255
乞士	-12.0256
了了分明	-12.0257
譬如幻師	-12.0258
䇿	-12.0258
縱容	-12.0258
復次善男子譬如良醫	-12.026
勤進	-12.026
若我作者	-12.0261
無有變異	-12.0261
本性清淨	-12.0261
詎	-12.0262
彈斥	-12.0262
如我上說	-12.0262
西北	-12.0262
知尊卑	-12.0262
南山云	-12.0263
圓接通	-12.0263
無情之物	-12.0264
不生生不可說	-12.0265
吾當涅槃	-12.0265
一行一切行	-12.0265
說此偈言	-12.0265
光影	-12.0265
所以爾者	-12.0266
無常苦無我	-12.0266
何勞	-12.0267
西土	-12.0267
非通非別	-12.0267
清淨無垢	-12.0268
如來同於諸行	-12.0268
是有是無	-12.0268
住法云	-12.0269
依了義	-12.027
以是義下結成	-12.0271
轉重為輕	-12.0272
爾時光明下	-12.0272
請受供	-12.0272
孤山	-12.0273
一問二答	-12.0273
一切凡夫亦復如是	-12.0275
百句解脫	-12.0275
無上尊	-12.0275
狂亂	-12.0275
別接通	-12.0276
一品無明	-12.0276
忉利天上	-12.0276
常受安樂	-12.0277
四依出世	-12.0277
如彼力士	-12.0277
大小相對	-12.0278
寶棺	-12.028
雖作是說	-12.028
大黑闇	-12.0281
即便命終	-12.0281
貪狂	-12.0282
具二嚴	-12.0283
煩惱滅已	-12.0283
▁會疏第	-12.0285
是故汝今不應	-12.0285
論人云	-12.0285
超度	-12.0287
真我弟子	-12.0287
正覺中道	-12.0288
純備	-12.0289
具足十力	-12.0291
諸善根本	-12.0294
七寶成就	-12.0294
具足多聞	-12.0294
梨耶	-12.0295
影現	-12.0296
煩惱未盡	-12.0297
顏色	-12.0298
三初標章	-12.0304
不能得出	-12.0309
▁初牒問	-12.0311
自在無礙	-12.0311
喜悅	-12.0312
七葉	-12.0312
酬答	-12.0312
互遍	-12.0313
所行之法	-12.0314
六群	-12.0314
咸歸	-12.0316
初疑問	-12.0316
為菩提因	-12.0317
品末	-12.0319
種殖	-12.0321
稱之為	-12.0322
互攝	-12.0325
虛誑	-12.0325
緣覺所及	-12.0327
蒙光	-12.0328
苦為樂	-12.033
譬如甘蔗	-12.0337
不肎	-12.0338
彰昔	-12.0339
勝進	-12.0346
最重	-12.0349
遍三世	-12.0349
是故為實	-12.035
六念處	-12.0353
燒然	-12.0355
貪嗔	-12.0356
譬如病人	-12.0357
能嚴	-12.0358
v	-12.0362
圓備	-12.0364
舊解云	-12.0365
釋其相	-12.0365
自陳	-12.0367
不也世尊	-12.0367
不應有四	-12.0368
前中先明	-12.0371
當知是法久住	-12.0375
五色光	-12.0382
為益眾生	-12.0382
先領旨	-12.0383
優婆塞戒	-12.0385
今舉之	-12.0386
第七功德	-12.0394
示導	-12.0395
初標列	-12.0405
作是誓	-12.0413
已下辯	-12.0413
有何義	-12.0415
義如下	-12.043
審諦	-12.0432
根漏	-12.0441
金剛力士	-12.0443
諸有情	-12.0446
中道之理	-12.0452
▁初敘古解	-12.0453
闍提	-12.0473
前中先	-12.0491
太虛	-12.0507
北本	-12.0514
出其所	-12.0523
】「	-12.0526
當勤修	-12.0531
問意云	-12.0536
幻師	-12.0554
初明惑	-12.0556
作佛事	-12.0563
分之一	-12.0573
中先問後	-12.0586
生眼識	-12.0593
純陀白佛	-12.0596
答第二難	-12.0602
得八自在	-12.0607
於晨朝時	-12.0613
蘇油	-12.0615
說是經	-12.0622
眼見色	-12.0628
書寫解說	-12.0636
池水	-12.0638
已下明其	-12.0669
那術	-12.0687
ra	-12.0704
根本禪	-12.0708
▁初正解	-12.0721
持諸香	-12.0723
□□□□□	-12.0727
次一偈	-12.0732
誠如聖教	-12.074
兩卷	-12.0746
墜墮	-12.0767
菩薩摩訶薩住於大乘大般涅槃	-12.0771
名不了義	-12.0774
就初對中	-12.0782
能破惑	-12.0795
於此三千大千世界	-12.0799
前三句	-12.08
無所有空	-12.0803
受想行識	-12.0805
七番	-12.0836
純陀哀歎	-12.0841
雲雷	-12.0847
重顯向前	-12.085
祐	-12.086
忽然不現	-12.0865
懈慢	-12.0866
枳	-12.0869
侶	-12.087
惓	-12.087
人非人等	-12.0873
摩樓迦子	-12.0874
㲲	-12.0874
七日七夜	-12.0875
為身痛耶	-12.0877
怡	-12.0877
駛	-12.0877
閣	-12.0878
千輻輪	-12.0879
髻	-12.088
七匝	-12.088
隆	-12.0883
寱	-12.0884
孔雀	-12.0884
氈	-12.0887
技	-12.0887
沮壞	-12.0887
捨慈得慈	-12.0887
兕	-12.0888
茂盛	-12.0888
埵	-12.0888
擎	-12.0888
我等從今	-12.0889
自作自受	-12.0889
姨	-12.0889
正法欲滅	-12.0889
樓櫓	-12.0889
雷震	-12.089
蒼頡篇	-12.089
刈草	-12.089
賢者阿難	-12.089
感應道交	-12.089
枯悴	-12.0891
醒悟	-12.0891
彼有菩薩名	-12.0891
長跪	-12.0891
傾側	-12.0891
犍	-12.0891
柝	-12.0891
肌	-12.0891
埿	-12.0892
鵄	-12.0892
以信心故	-12.0892
奚	-12.0892
􂌞	-12.0893
異口同音	-12.0893
常住之法不從因緣	-12.0893
唼	-12.0894
以見我故	-12.0894
低頭	-12.0894
聽我出家	-12.0895
咄	-12.0895
跛	-12.0895
所應度者	-12.0895
司	-12.0895
怛	-12.0895
今有大師	-12.0896
必死不疑	-12.0896
自作他受	-12.0896
是謂有盡	-12.0897
因見我故	-12.0897
諱	-12.0898
琴	-12.0898
紀	-12.0898
知止足	-12.0898
僧亮	-12.0898
憒	-12.0899
身諸毛孔	-12.0899
燃燈	-12.0899
覔	-12.0899
心如佛心	-12.09
無苦無樂	-12.09
霜雹	-12.09
咸作是言	-12.0901
棊	-12.0901
厥	-12.0901
皷	-12.0901
答第一難	-12.0901
具大威力	-12.0901
逃避	-12.0902
便當得成阿耨多羅三藐三菩提	-12.0902
無問自說	-12.0902
凡夫謂實	-12.0902
諸佛世尊知其非真	-12.0902
淨根戒	-12.0902
雇	-12.0903
堤塘	-12.0903
晦	-12.0903
疾能獲得無生法忍	-12.0903
成就大乘第一空行	-12.0903
貪嗔癡	-12.0903
桑	-12.0904
為欲隨順世間法故	-12.0904
周易云	-12.0904
微密之教	-12.0904
膽	-12.0904
潤澤	-12.0905
遊諸覺華	-12.0905
猿	-12.0905
若能隨順佛所說者	-12.0905
如芭蕉樹	-12.0905
難施能施	-12.0906
如來遮此二邊	-12.0906
假令縱之	-12.0906
六年苦行	-12.0906
菩薩名無所得	-12.0906
亦緣四諦	-12.0906
侯	-12.0906
終不念言	-12.0906
同於諸行	-12.0906
斷常二見	-12.0906
生大怖畏	-12.0906
愚闇	-12.0907
銷	-12.0907
常觀涅槃行道	-12.0907
七十三人	-12.0907
淑	-12.0907
萌	-12.0907
稽首禮	-12.0907
絡	-12.0907
郭璞云	-12.0907
八種知見	-12.0908
身觀菩薩	-12.0908
火不能燒	-12.0909
+(	-12.0909
今昔相對	-12.0909
殄滅	-12.0909
是則名為清淨梵行	-12.0909
正徧知	-12.0909
不來而來	-12.0909
置毒乳中	-12.0909
與其眷屬	-12.091
冬日	-12.091
鬼畜	-12.091
不能自勝	-12.091
警	-12.091
八戒齋	-12.0911
我常宣說一切眾生悉有佛性	-12.0911
以是事故	-12.0911
橫生樂想	-12.0911
眾生佛性離眾生有	-12.0911
勿懷	-12.0911
摩竭提	-12.0911
須達長者	-12.0911
涅槃經疏私記卷第	-12.0912
心性差別障	-12.0912
其數五百	-12.0912
於大眾中	-12.0912
已合共合	-12.0912
▁37	-12.0912
跨節	-12.0912
有因緣故亦可得說	-12.0913
境發智	-12.0913
失諸功德障	-12.0913
常恒無有變易	-12.0913
復名一子	-12.0913
男女大小	-12.0913
一而無二	-12.0913
釧	-12.0914
此亦不然	-12.0914
羂	-12.0914
?』『	-12.0914
無無作色	-12.0914
故應供養	-12.0914
隨文解釋	-12.0914
異生異滅	-12.0914
雌	-12.0915
槃那	-12.0915
便作是言	-12.0915
伊字三點	-12.0915
非如去非不如去	-12.0916
此障對治	-12.0916
枝末	-12.0917
毗婆	-12.0917
將滅不久	-12.0917
挾	-12.0917
年百二十	-12.0917
有八復次	-12.0917
如瞿曇說	-12.0918
聞是事巳	-12.0918
調停	-12.0918
最尊最勝	-12.0918
互舉一邊	-12.0919
輭	-12.0919
報定時不定	-12.0919
旛葢	-12.0919
汝向所問	-12.092
云何於此經	-12.092
不受五戒	-12.0921
放捨身命	-12.0921
兼帶	-12.0921
梯隥	-12.0921
我欲涅槃	-12.0921
以定得故	-12.0921
乃至老時	-12.0921
單疏第八	-12.0922
虗偽	-12.0922
色從煩惱生	-12.0922
諸師異解	-12.0923
頭陀	-12.0923
扶律	-12.0923
當制五根	-12.0923
卒起	-12.0924
盛夏	-12.0924
堅固林	-12.0924
亦說有我	-12.0924
十力無畏	-12.0925
有同有異	-12.0926
捨欲界身	-12.0926
修道得故	-12.0926
差即無差	-12.0926
客塵	-12.0926
一體三歸	-12.0926
第四人者	-12.0926
爰	-12.0926
核	-12.0927
一切諸法中悉有安樂性	-12.0927
有因有果	-12.0927
經曰汝等比丘	-12.0928
玄始	-12.0928
派	-12.0929
無生忍	-12.0929
生若是常	-12.0932
波羅柰	-12.0933
眾祐	-12.0934
口爽	-12.0936
具八自在	-12.0936
定有定無	-12.0937
如世尊說	-12.0938
從心起	-12.094
大象王	-12.094
親近漏	-12.094
節量	-12.094
他所立	-12.0941
緣一諦	-12.0943
應具論	-12.0944
脩羅	-12.0945
四正勤	-12.0945
歎其德	-12.0946
今明不然	-12.0946
無明為因	-12.0946
斷其命	-12.0947
今則不爾	-12.0948
火災	-12.0949
如來非天	-12.095
四意止	-12.095
長者答言	-12.095
▁二順召	-12.0951
是因是果	-12.0951
海神	-12.0952
彼土眾生	-12.0953
當歸依	-12.0955
開演	-12.0955
無生四諦	-12.0957
推尋	-12.0957
進退兩	-12.0957
未破無明	-12.0957
此經復有諸佛菩薩十	-12.0958
親近修習	-12.0959
亦名聞見	-12.0961
純陀復言	-12.0961
等視眾生	-12.0961
弘化	-12.0962
鵝王	-12.0962
應更云	-12.0963
惡夢	-12.0964
善權方便	-12.0966
三世非三世	-12.0966
利他德	-12.0968
類以顯	-12.0968
一中無量	-12.0969
捨此身	-12.0971
不可定執	-12.0972
雙卷	-12.0972
義之如	-12.0973
了不了	-12.0974
觀想因	-12.0975
被機	-12.0976
男女想	-12.0977
清水	-12.0977
真不真	-12.0978
遇光	-12.0978
汝等應當	-12.098
無有相貌	-12.0981
奪命	-12.0986
無常苦無我等	-12.0986
聖旨	-12.0987
超過	-12.0987
前中復	-12.0988
復有五種	-12.0992
聚集	-12.0992
復何所	-12.0996
摧滅	-12.0997
▁初疏主	-12.0999
至心聽受	-12.1
無礙辯	-12.1003
百千億那由他	-12.1003
自他俱	-12.1004
九恒	-12.1004
四識住	-12.1009
以為梵行	-12.1012
治障	-12.1015
若言無者	-12.1015
所至處	-12.1025
果亦無常	-12.1033
墮三塗	-12.1039
眾生等有	-12.1039
犯重罪	-12.1054
文字品	-12.1061
從此訖	-12.1082
引偈	-12.109
不依語	-12.1097
舉事類	-12.1097
引法華	-12.1106
一即三	-12.1106
便是涅槃	-12.111
辯邪正	-12.1118
醉象	-12.1134
味禪	-12.1137
當得菩提	-12.1153
一切生下	-12.116
云何當得名	-12.1173
滅聖諦	-12.1177
如法華疏	-12.1177
譬如王子	-12.1178
初領旨仰非	-12.1188
現般	-12.1189
答三問	-12.1205
體狀	-12.1206
中具明	-12.1214
苦無常等	-12.1258
牒以總	-12.1265
八自在我	-12.1266
破四魔	-12.1269
□□□□	-12.1281
偈上半	-12.1294
無數億	-12.1298
義明矣	-12.1301
中初就	-12.1306
脇	-12.1307
ya	-12.131
分為五	-12.1328
自觀身	-12.1354
雖作如是	-12.1356
無增減	-12.1362
恭敬尊重	-12.1365
▁初列章	-12.1368
得阿耨菩提	-12.1376
纏裹	-12.1386
熙連河	-12.1388
文正釋	-12.1407
騰請	-12.1409
常見無常	-12.1444
十里	-12.1454
得此定	-12.1467
相從為	-12.1472
na	-12.1484
爽	-12.1502
初偈明	-12.1507
懷疑	-12.1513
成論師	-12.155
下結斥	-12.1555
俟	-12.1556
八十七億恒河沙數	-12.1559
選	-12.1561
真解脫者即是如來又解脫者名曰	-12.1568
中初先明其	-12.1568
毘舍佉	-12.1576
璧玉	-12.1577
商	-12.1577
帳	-12.158
墮惡道	-12.1581
摩睺勒	-12.1583
捷	-12.1584
嶺	-12.1585
層	-12.1585
願樂欲聞	-12.1586
胝	-12.1587
揵沓和	-12.1588
卵	-12.1589
詩	-12.159
煑	-12.1591
尼𤘽陀	-12.1594
耨	-12.1595
鴈	-12.1596
景	-12.1596
縫	-12.1597
太速	-12.1597
戈	-12.1598
婬怒癡	-12.1599
得法眼淨	-12.1599
臥糞穢	-12.16
飄	-12.16
孤獨	-12.1601
慘	-12.1601
棠	-12.1601
應如是學	-12.1601
隱沒太速	-12.1602
長跪合掌	-12.1602
如是自在名為大我	-12.1603
當廣流布	-12.1604
詠	-12.1604
猶豫	-12.1604
八十種好莊嚴其身	-12.1604
示教利喜	-12.1605
掠	-12.1605
皎	-12.1606
汝今不應作如是說	-12.1606
往至王所	-12.1606
光明遍照高貴德王	-12.1606
獨一無侶	-12.1607
毗佛略	-12.1607
瓜	-12.1607
云何如來為常住法	-12.1607
受具足戒	-12.1607
涕泣	-12.1607
頻申	-12.1607
錫	-12.1608
脉	-12.1608
所須之物	-12.1608
危脆	-12.1608
於未來世當轉法輪	-12.1609
朱	-12.1609
眩	-12.1609
不果却住	-12.1609
是顛倒法	-12.1609
生奇特想	-12.1609
紐	-12.1609
三解脫門	-12.1609
菩薩摩訶薩住是地中亦復如是	-12.161
而是菩薩所知見覺	-12.161
願諸佛土所有眾生	-12.1611
惻	-12.1611
糞掃	-12.1611
緊	-12.1611
親戚	-12.1611
剌	-12.1611
耘除	-12.1612
燼	-12.1612
薰禪	-12.1612
千里	-12.1612
劓	-12.1612
探	-12.1612
下明諸眾生	-12.1612
長跪叉手	-12.1612
無量眾生發阿耨多羅三藐三菩提心	-12.1613
墨	-12.1613
欠呿	-12.1613
狸	-12.1613
以大莊嚴而自莊嚴	-12.1613
等視眾生如羅睺羅	-12.1613
鋒	-12.1613
有所疑者	-12.1613
難陀龍王	-12.1613
掩	-12.1614
間無空處	-12.1614
鄉	-12.1614
形貌端正	-12.1614
是故號佛為無上士	-12.1614
蓬	-12.1614
千子具足	-12.1614
彼若見答	-12.1615
則得住於	-12.1615
隨其所須	-12.1615
光明遍照	-12.1616
三十七助道法	-12.1616
下入文解釋	-12.1616
赦	-12.1616
如三禪樂	-12.1616
肆	-12.1616
莫啼	-12.1617
無愛想	-12.1617
繁茂	-12.1617
□□□□□□□□□□□	-12.1617
二俱無故	-12.1617
無父無母	-12.1618
墮阿鼻地獄	-12.1618
諸臣答言	-12.1618
則不得稱為	-12.1618
穢濁	-12.1618
不白不黑	-12.1618
酥油	-12.1619
如意珠	-12.1619
若決定者	-12.1619
階級	-12.1619
鍑	-12.1619
不觀福田及非福田	-12.1619
四如意足	-12.162
幹	-12.162
菩薩定慧亦復如是	-12.162
卒喪	-12.162
字非字	-12.1621
諭	-12.1621
南西北方	-12.1621
萌芽	-12.1621
佛臨涅槃	-12.1621
非數緣	-12.1621
不可捉持	-12.1622
唯悕	-12.1622
多有財寶	-12.1622
如乳成酪	-12.1622
阿毘跋致	-12.1622
非如來咎	-12.1622
恠	-12.1622
楗	-12.1623
胤	-12.1623
解有兩義	-12.1623
身若存	-12.1623
初問次辯後結	-12.1623
默然不答	-12.1624
方等般泥洹	-12.1624
當斷汝命	-12.1624
稟承	-12.1624
鱗	-12.1624
三聚眾生	-12.1624
諸佛所師所謂法也	-12.1624
三論釋	-12.1624
舉凡顯聖	-12.1624
是故名為信不具足	-12.1624
八勝處	-12.1625
今所不用	-12.1625
勘	-12.1625
不到到	-12.1625
四維上下	-12.1625
化樂天	-12.1625
辛頭	-12.1625
慳惜	-12.1625
以了因故	-12.1625
廣如別章	-12.1626
牛若食者	-12.1626
下佛先嘆	-12.1626
樂見光明	-12.1626
即我身是	-12.1626
同其事業	-12.1626
除一法相	-12.1626
為世間依	-12.1626
如佛說偈	-12.1626
朴	-12.1627
得宿命智	-12.1627
珮	-12.1627
誅	-12.1627
邁	-12.1627
復有篤信白衣檀越敬重佛法	-12.1627
撥無因果	-12.1627
躄	-12.1627
怨詐親者	-12.1628
次列兩名	-12.1628
慙愧	-12.1628
名不修心	-12.1628
頭痛	-12.1629
無明覆故	-12.1629
習續	-12.1629
典籍	-12.1629
宣揚	-12.1629
不黑不白	-12.1629
金銀瑠璃	-12.1629
廿	-12.163
乃知非真	-12.163
-	-12.163
五法佐助	-12.163
示人天魔道	-12.163
仰觀星宿	-12.163
無能壞者	-12.1631
穀子	-12.1631
愛憎	-12.1631
詺	-12.1631
舉佛昔言	-12.1631
不活畏	-12.1632
我於經中作如是說	-12.1632
𢙣	-12.1632
隱時一體	-12.1632
順動召	-12.1632
所謂大乘大般涅槃	-12.1632
田夫	-12.1633
十一切處	-12.1633
唯願大慈	-12.1633
車載	-12.1633
澣	-12.1633
制之一處	-12.1634
臨涅槃時	-12.1634
妒	-12.1634
猶如火聚	-12.1634
通致使命	-12.1635
師子吼菩薩摩訶薩言	-12.1635
研詳	-12.1636
汎論	-12.1636
自覺覺他	-12.1636
三一相即	-12.1636
性重戒	-12.1637
正善具成就	-12.1637
六趣眾生	-12.1638
果性果果性	-12.1638
吉羅	-12.1638
自正正他	-12.1638
澆	-12.1638
常治無常	-12.1638
無常無我無樂無淨	-12.1638
螘	-12.1639
如是等義我於彼經亦不說之	-12.1639
修空見空	-12.1639
是生滅法	-12.1639
頂法師撰天台沙門湛然再治	-12.164
尊貴	-12.164
至於佛所	-12.164
顯異惑眾	-12.164
二何以下	-12.164
戒非戒	-12.1641
行法根本	-12.1641
鴿色	-12.1641
巳有還無	-12.1641
毘婆	-12.1641
九孔	-12.1642
非此非彼	-12.1642
眾生非具	-12.1643
敬儀	-12.1643
強弱	-12.1643
酪從乳生	-12.1643
眼見聞見	-12.1645
四相一相	-12.1645
各作是言	-12.1645
近無上道	-12.1645
分證究竟	-12.1645
喪命	-12.1646
第六段	-12.1647
辯供奉佛	-12.1648
佛出世難	-12.165
兼遣	-12.165
非我非無我	-12.165
初文又四	-12.1651
文亦有四	-12.1652
實非阿羅漢	-12.1653
未生之時	-12.1654
慧莊嚴者	-12.1654
八段	-12.1654
鳥喻品	-12.1655
非二乘所知	-12.1656
憂悔	-12.1656
第二合譬	-12.1656
初先正辯	-12.1659
那羅延力	-12.1659
與諸大眾	-12.1659
七寶莊嚴	-12.1659
真諦三藏	-12.1659
決了	-12.1659
意生身	-12.166
偪	-12.166
黑山	-12.166
三釋義二初	-12.1661
妬心	-12.1664
因陀羅	-12.1664
依理起	-12.1664
譬如牧牛	-12.1665
▁初所召	-12.1667
念佛三昧	-12.1668
生善破惡	-12.167
先法次譬	-12.167
反試	-12.1673
文誤	-12.1677
初唱兩章門	-12.1677
不能自出	-12.1682
命醫	-12.1684
喜慶	-12.1684
反照智	-12.1684
不可依止	-12.1686
戒念護	-12.1691
旁論	-12.1691
測量	-12.1692
故不可用	-12.1693
前類後	-12.1694
賢位	-12.1698
自性遠離	-12.1702
正因緣因	-12.1707
寂絕	-12.1707
有貪性	-12.1731
初序分	-12.1731
生善滅惡	-12.1736
如初月	-12.1738
譬如貧人	-12.174
中庸	-12.1742
救拔	-12.1754
佛答為兩	-12.1757
因緣生苦	-12.1765
主伴	-12.1792
告諸大眾	-12.1793
偏小之	-12.1795
則能利益	-12.1832
列章門	-12.1839
然今文中	-12.1864
今昔俱	-12.1881
三界尊	-12.1889
彰其所	-12.1894
見是已	-12.1896
護根本	-12.1902
闍世	-12.1904
如經汝等比丘	-12.1925
具三千	-12.1966
如是觀者	-12.1983
爾時光明遍照高貴德王	-12.2013
初騰	-12.206
□□□□□□	-12.2063
下是第三段	-12.2087
迦毗羅城	-12.2099
奧	-12.213
有多義	-12.2133
處非處	-12.2147
波闍	-12.2241
第六番	-12.2255
大涅槃海	-12.2266
始從名字	-12.2274
釋迦文尼	-12.2297
為有為無	-12.2315
清淨不住不不住	-12.2315
荷	-12.2334
驗試	-12.2337
有法有譬	-12.2337
那羅	-12.2342
彌勒白佛言	-12.2346
炤	-12.2348
金銀琉璃	-12.235
世間空虛	-12.2355
慼	-12.2355
涕泣盈目	-12.2356
結加趺坐	-12.2357
闥	-12.2358
副	-12.236
漱	-12.2362
遜	-12.2362
皮革	-12.2362
髦	-12.2363
傲	-12.2363
穌	-12.2364
暮	-12.2364
如我今日	-12.2364
其林變白	-12.2364
摘	-12.2366
姝	-12.2366
盂	-12.2366
繞百千匝	-12.2366
暑	-12.2367
絺	-12.2367
鬚髮	-12.2367
毀破淨戒	-12.2368
喘息	-12.2368
躍	-12.2369
澤洲云	-12.2369
岳	-12.2369
堅住信慧	-12.237
非適今也	-12.237
悋惜	-12.2371
敏	-12.2371
爾時佛讚迦葉菩薩	-12.2372
茅城	-12.2372
乃至算數譬喻	-12.2373
慙	-12.2373
不退菩提之心	-12.2373
衍門	-12.2373
自我招殃	-12.2373
臰	-12.2374
骨髓	-12.2374
甚奇甚特	-12.2374
世無良醫	-12.2374
入於泥洹	-12.2375
淨佛國土	-12.2375
洲渚	-12.2375
娉	-12.2376
分陀利華	-12.2376
畜不淨物	-12.2376
剎帝利	-12.2377
如我解佛所說義者	-12.2377
霜	-12.2377
迦蘭陀	-12.2378
受持讀誦書寫解說十二部經	-12.2378
毛髮	-12.2378
倦	-12.2378
貨	-12.2379
合掌向佛	-12.2379
亦二亦一	-12.2379
夕	-12.2379
無所復用	-12.238
藐	-12.238
我之正法	-12.238
唯應度者乃能見之	-12.2381
初結前標後	-12.2381
謝公	-12.2381
如水上泡	-12.2381
罵詈	-12.2381
厭離食想	-12.2381
我亦說有	-12.2381
牟	-12.2381
如是三請	-12.2382
憂慼	-12.2382
頻婆娑羅	-12.2382
善能隨順一切世間	-12.2382
囉	-12.2382
外人所計	-12.2383
無常苦無我不淨	-12.2383
禍	-12.2383
潮	-12.2383
聖棺	-12.2383
夫法性者	-12.2384
異法無故異法滅壞	-12.2384
濤波	-12.2384
侘	-12.2384
煩惱覆障	-12.2384
凡異聖	-12.2384
開空法道	-12.2384
十六大國	-12.2385
洪	-12.2385
是故名為聞不具足	-12.2385
甚可怖畏	-12.2385
宏	-12.2385
淨飯王	-12.2385
餘殘果	-12.2385
乳中定無酪	-12.2385
豕	-12.2385
撓	-12.2385
多諸放逸	-12.2386
六大賊者	-12.2386
九部經典	-12.2386
無明全在	-12.2386
莫大愁苦	-12.2386
脣口乾焦	-12.2386
靈運	-12.2386
桴	-12.2387
捧	-12.2387
亦不念言	-12.2387
梟	-12.2387
如告比丘	-12.2387
如蛇脫皮	-12.2387
如來視一切	-12.2387
能諦了	-12.2387
昆	-12.2387
砂	-12.2387
下佛為辯	-12.2388
不受後有	-12.2388
尖	-12.2388
命將不全	-12.2388
曼陀羅華	-12.2388
毳	-12.2388
探取	-12.2388
異法有故	-12.2388
無諸雲翳	-12.2388
潘	-12.2389
遲速	-12.2389
抄掠	-12.2389
為欲調伏諸眾生故	-12.2389
疾至佛所	-12.2389
我作我受	-12.2389
後際解脫	-12.239
金翅	-12.239
天中之天	-12.239
此不應爾	-12.239
寧捨身命	-12.239
宜審記	-12.239
覩相增悲	-12.2391
三惑二死	-12.2391
五蘊	-12.2391
在家二眾	-12.2391
涉路而去	-12.2391
若依成實	-12.2392
故不應食肉	-12.2392
鈴	-12.2392
悉不復現	-12.2392
罄	-12.2392
深樂大乘	-12.2392
常翹一脚	-12.2392
四分律云	-12.2393
異法有故異法出生	-12.2393
慧善解脫	-12.2393
餘皆可知	-12.2393
頰	-12.2393
供養恭敬尊重讚歎	-12.2393
反問迦葉	-12.2393
不醎之物	-12.2393
以偈報	-12.2394
▁38	-12.2394
未發菩提心者	-12.2394
心行處滅	-12.2394
八背捨	-12.2394
思滅苦本	-12.2395
是時舊醫	-12.2395
離種種自性清淨無我分	-12.2395
阿耨達池	-12.2395
得正法眼	-12.2395
僧名和合	-12.2395
禰	-12.2395
八地已上	-12.2395
黑蜜	-12.2395
色即是我	-12.2396
二施無差	-12.2396
寂然無聲	-12.2396
與增上樂	-12.2396
為最後問	-12.2396
霑	-12.2396
身口二業	-12.2397
妻子眷屬	-12.2397
非是聲聞緣覺所知	-12.2397
最上最勝	-12.2397
先順後反	-12.2397
彈呵	-12.2397
調伏諸根	-12.2397
以是異故	-12.2397
若有如是見者	-12.2397
4	-12.2398
心喜說真諦	-12.2398
花菓	-12.2398
是義不然牒以總非	-12.2398
見如是事	-12.2398
鍮石	-12.2398
䟽	-12.2399
了了知見	-12.2399
釆	-12.2399
𤚼	-12.2399
假眾緣	-12.2399
調和	-12.2399
替	-12.2399
軫	-12.2399
列其二名	-12.2399
生護法心	-12.2399
昇沈	-12.2399
受想行識亦復如是憍陳如	-12.2399
囊括	-12.2399
梵志復言	-12.24
綆	-12.24
上來廣辯	-12.24
荼毗	-12.24
若論正義	-12.24
来	-12.24
阿毗曇	-12.24
誠諦	-12.24
設供	-12.2401
▁初科文	-12.2401
無常見常	-12.2401
一中一切中	-12.2401
有名有實	-12.2401
輕動不調障	-12.2402
裔	-12.2402
初地巳上	-12.2402
光明徧照高貴德王菩薩	-12.2402
眉	-12.2402
太昌	-12.2402
嫉妒	-12.2402
三昧正受	-12.2402
六十四能	-12.2402
伇	-12.2403
建立正法	-12.2403
食子肉	-12.2403
塵沙無明	-12.2403
羮	-12.2403
體用相即	-12.2404
顯示畢竟甚深功德分	-12.2404
如恒河中	-12.2404
耎語	-12.2405
着	-12.2405
鵒	-12.2405
正念求度	-12.2405
鴟	-12.2406
彼作彼受	-12.2406
遏	-12.2407
施者受者	-12.2407
無有罪報	-12.2407
開演涅槃施	-12.2407
蛣	-12.2407
復告女人	-12.2407
曇愛	-12.2408
攻	-12.2408
木蘭	-12.2408
汝云何知	-12.2408
略說法要	-12.2409
各行七步	-12.2409
有通有別	-12.2409
規矩	-12.2409
順聲召	-12.2409
因家之果	-12.241
位階十地	-12.241
唱言佛說	-12.241
愚夫	-12.241
次一復次	-12.241
譬如鑽火	-12.2411
僻	-12.2411
我及我所	-12.2412
舍衛國	-12.2412
不淨淨想	-12.2412
或言不聽	-12.2412
有作四諦	-12.2412
五行十功德	-12.2413
尋文可見	-12.2413
名不修慧	-12.2413
譬如醉人	-12.2413
金剛以還	-12.2414
賒	-12.2414
統收	-12.2414
非漏非無漏	-12.2415
宣唱	-12.2416
况	-12.2416
說有餘義	-12.2416
抑止	-12.2417
過三月已	-12.2418
包括	-12.2418
諸煩惱賊	-12.2419
適宜	-12.242
初先徵問	-12.2421
不生不生不可說	-12.2421
尉	-12.2424
延促	-12.2426
初住位	-12.2428
時節和合	-12.2432
斷三世因	-12.2432
開意密	-12.2433
住堪忍地	-12.2434
迦葉下復	-12.2435
靈根	-12.2435
黑月	-12.2435
長壽金剛	-12.2435
覆相說	-12.2436
淫欲	-12.244
存亡	-12.2448
二乘所持	-12.2449
先總標	-12.2452
答第四問	-12.2453
斷見思	-12.2454
下今師斥	-12.2455
乃有無量諸	-12.2458
無量中一	-12.2459
以人取	-12.246
答第一問	-12.2466
隨情智	-12.2468
列四名	-12.2469
證小果	-12.2471
變吐	-12.2478
先問起發	-12.2479
生理善	-12.2505
咨受	-12.2506
或者聞	-12.2512
為煩惱所	-12.2512
若不知者	-12.2514
天人阿修羅	-12.2519
答第五難	-12.256
師立義	-12.2566
下隨文正解	-12.2573
如闇夜	-12.2574
億那術	-12.258
尊卑	-12.2612
述古	-12.2654
湛然常	-12.2669
色受想行識	-12.2687
下是第四段	-12.2737
二迦葉白	-12.276
機緣宜	-12.2762
國人民	-12.2804
䟦陀	-12.2806
有五段	-12.2825
當為汝等	-12.2842
光普照	-12.2856
說四真諦	-12.287
正答所問	-12.2887
恩養	-12.2904
人身難得	-12.2918
佛所種諸善根	-12.2956
雙結兩	-12.2959
正答又二	-12.3014
就文為四	-12.3028
冷熱	-12.304
庸	-12.3082
至茶毘所	-12.3142
不住不不住	-12.3163
峯	-12.3165
解說十二部經	-12.3166
阿尼婁陀	-12.3171
北方去此	-12.3172
筮	-12.3182
鑊	-12.3183
嬪	-12.3188
藕	-12.3189
少食三昧	-12.3192
摩利迦	-12.3192
為心痛乎	-12.3192
萎	-12.3193
拘耶尼	-12.3193
大如車輪	-12.3194
娑呵	-12.3194
云何如來便欲放捨	-12.3194
泰	-12.3195
統領	-12.3195
箕	-12.3196
欝單曰	-12.3196
億那由他阿僧祇劫所習	-12.3197
身毛皆竪	-12.3198
庭	-12.3198
臧	-12.3198
髓腦	-12.3198
如是菩薩成就欲法	-12.3198
舍利乃可得	-12.3199
禱	-12.3199
泥犁	-12.32
右脇臥	-12.32
愆	-12.32
鬚	-12.32
生公曰	-12.3201
從地獄出	-12.3201
歡悅	-12.3202
傴身	-12.3202
伊帝目多伽	-12.3202
堂閣	-12.3202
我今問汝	-12.3202
阿毘曇	-12.3202
趙	-12.3204
當有何罪	-12.3204
厲	-12.3204
如視一子	-12.3205
眠則滋多	-12.3205
過去已滅	-12.3206
把	-12.3206
憔悴	-12.3206
骸	-12.3206
突	-12.3206
作決定心	-12.3206
麟	-12.3206
受畜生身	-12.3206
敷座	-12.3207
農	-12.3207
羂索	-12.3207
獨步	-12.3207
偃	-12.3207
為阿闍世王作決定心	-12.3207
郭	-12.3207
佛等四法	-12.3208
剃	-12.3208
寂寞	-12.3208
盲冥	-12.3208
株	-12.3208
羅網	-12.3209
菩薩摩訶薩修是二法	-12.3209
戾	-12.3209
云何如來問於因緣	-12.3209
見他得利	-12.3209
姦	-12.3209
號釋迦牟尼如來	-12.321
從座而起	-12.321
胸臆	-12.321
漸盈大器	-12.3211
紹三寶種使不斷絕	-12.3211
世無良醫治身心	-12.3211
瑟	-12.3211
瑕穢	-12.3211
妖	-12.3211
亦不應依	-12.3212
嬾	-12.3212
貞	-12.3212
受種種苦	-12.3212
飡	-12.3212
泉池	-12.3212
舉身毛竪	-12.3213
昭	-12.3213
互相執手	-12.3213
是六塵賊亦復如是	-12.3213
繇	-12.3213
令法毀滅	-12.3214
悉滅無餘	-12.3214
下明觀利益	-12.3214
現受女身	-12.3214
乃得名為大涅槃	-12.3215
於無量歲	-12.3215
逃走	-12.3215
澍	-12.3216
如是之言亦是如來祕密之教	-12.3216
息世譏嫌戒	-12.3216
若一切業定得果者	-12.3216
令其安住阿耨多羅三藐三菩提	-12.3216
是名餘報	-12.3216
屏	-12.3216
值遇良醫	-12.3216
剖	-12.3216
而此月性	-12.3216
其土人民	-12.3216
彰灼	-12.3216
來至今經	-12.3216
五種牛味	-12.3216
僅	-12.3217
慨	-12.3217
麁澁	-12.3217
兆	-12.3217
醻	-12.3217
裸	-12.3217
二施果報	-12.3217
逮得己利	-12.3217
誡勅	-12.3217
綖	-12.3217
誕	-12.3217
刈	-12.3217
先別後結	-12.3218
捔	-12.3218
所患得除	-12.3218
印印泥	-12.3218
國土所有一切眾生	-12.3218
長鉤	-12.3218
為欲度脫諸眾生故	-12.3218
象馬牛羊	-12.3219
應如是知	-12.3219
而演說法	-12.3219
我即問言	-12.3219
度疑彼岸	-12.3219
躃	-12.3219
弗婆提	-12.3219
打擲	-12.3219
忌	-12.3219
是名眾生毒身之中有妙藥王	-12.3219
鼈	-12.322
為大醫王	-12.322
笛	-12.322
又有說言	-12.322
乘如實道來成正覺	-12.322
專著邪見	-12.322
法蓮記	-12.322
佛在舍衛	-12.3221
佛今答之	-12.3221
為我等故	-12.3221
世有病人	-12.3221
與理相應	-12.3221
從性生大	-12.3221
非肉眼見	-12.3221
追逐	-12.3221
菩薩摩訶薩於慈心中	-12.3221
流血灑地	-12.3222
中迦葉先問起發	-12.3222
隨御者意	-12.3222
浸	-12.3222
多犯禁戒	-12.3222
得不壞眾	-12.3222
肝	-12.3222
虞	-12.3222
以藥力故	-12.3222
難忍能忍	-12.3222
坌	-12.3222
既出家已	-12.3222
妓樂	-12.3222
義異名異	-12.3223
金鑛	-12.3223
罔	-12.3223
窈	-12.3223
曇無讖	-12.3223
立拒	-12.3223
怯弱	-12.3223
羅剎答言	-12.3223
無死畏	-12.3223
怜	-12.3223
迦葉先請	-12.3224
舉其喻事	-12.3224
我親從佛聞如是義	-12.3224
十一切入	-12.3224
院	-12.3224
如日初出	-12.3224
猨	-12.3225
耐	-12.3225
智者了達知其非	-12.3225
斜	-12.3225
亭	-12.3225
強為立名	-12.3225
王語耆婆	-12.3225
馬中無牛	-12.3226
得正解脫	-12.3226
棲	-12.3226
字悞	-12.3227
凡所演說	-12.3227
行菩薩道	-12.3227
無終而終	-12.3227
波羅奢樹	-12.3227
是人亦名謗佛法僧	-12.3227
為調眾生	-12.3227
一人得時	-12.3227
共業合	-12.3227
受持讀誦書寫解說	-12.3228
如影隨形	-12.3228
出家剃髮	-12.3228
前後圍繞	-12.3228
由是道理	-12.3228
憚	-12.3228
法即是僧	-12.3228
受持讀誦書寫經卷	-12.3228
語耆婆言	-12.3228
耆年	-12.3228
心不隨身	-12.3228
恬	-12.3228
執鎌	-12.3229
廣宣分別	-12.3229
壇	-12.3229
夾	-12.3229
應當證知	-12.3229
則不能得阿耨多羅三藐三菩提	-12.3229
三藐三菩提	-12.3229
憍慢心故	-12.3229
解苦無苦而有真諦	-12.323
不聞而能得聞	-12.323
名不修戒	-12.323
即此意也	-12.323
府	-12.323
且共置之	-12.323
依正不二	-12.3231
是可斷相	-12.3231
獲得四禪	-12.3231
於汝不吉	-12.3231
一名四實	-12.3232
以自活命	-12.3232
受畜八種不淨之物	-12.3232
闡陀	-12.3232
亦知亦見	-12.3232
行巳復住	-12.3232
恩赦	-12.3232
若有隨順佛所說者	-12.3232
調伏其心	-12.3233
我時答言	-12.3233
即能利益一切人天	-12.3233
悉是諸苦	-12.3233
恒非恒	-12.3233
尼連禪河	-12.3233
獲得常色	-12.3233
雖修一切契經諸定	-12.3233
二論釋	-12.3233
槩	-12.3233
過去世中	-12.3234
第五句中	-12.3234
以藥塗	-12.3234
小歸大	-12.3234
非有漏非無漏	-12.3234
▁176	-12.3234
臆	-12.3234
引說證成	-12.3234
ś	-12.3234
若知如來常不說法	-12.3234
ṣ	-12.3234
百千萬劫	-12.3235
佛雖涅槃	-12.3235
一人當千	-12.3235
開譬合譬	-12.3236
今以何義	-12.3236
作得度因緣	-12.3236
怨親中人	-12.3237
利鈍差別	-12.3237
脅	-12.3237
即空即假即中	-12.3237
𨳝	-12.3238
行業果報	-12.3238
唯除一人	-12.3238
比丘比丘尼優婆塞優婆夷	-12.3238
至無至處	-12.3238
炮	-12.3238
非今經意	-12.3238
爾時文殊下	-12.3239
非新非故	-12.3239
今皆不然	-12.3239
一切諸藥悉入其中	-12.324
不共貪滅	-12.3241
凡有心者	-12.3241
真解脫中無如是事	-12.3241
若如是知	-12.3241
以不具故	-12.3241
二而不二	-12.3241
擣	-12.3241
境智不二	-12.3241
我即答言	-12.3241
第七段	-12.3242
出無佛世	-12.3242
諸行若常	-12.3242
敬養	-12.3242
▁初牒經文	-12.3242
九十六種	-12.3243
化地部	-12.3243
常壽第一	-12.3243
猶如燈滅	-12.3243
具受乃得	-12.3243
說言如來去	-12.3243
皆所不應	-12.3243
當自端心	-12.3243
初法次喻後合	-12.3244
是賢劫中	-12.3244
譬如大樹	-12.3244
目之為	-12.3245
▁初標科	-12.3245
拒抗	-12.3245
清淨自活	-12.3246
有慚愧者	-12.3246
未捨憍慢	-12.3246
答上問中	-12.3247
有始無終	-12.3247
鹵	-12.3247
說有說無	-12.3247
若定有我	-12.3247
普賢觀云	-12.3248
酪不先	-12.3248
是雜食身	-12.3248
愚智二人	-12.3249
舊三解	-12.3249
不老不死	-12.3249
六度無極	-12.325
異因異果	-12.325
難行苦行	-12.325
念念不住	-12.325
無常無斷	-12.3251
庵	-12.3251
我計無我	-12.3252
羅漢支佛	-12.3253
今謂不爾	-12.3254
五種病人	-12.3254
總而言之	-12.3255
迦葉菩薩白佛言世尊如佛所說	-12.3255
點三受	-12.3255
後之三句	-12.3255
所言苦者	-12.3256
彼彼功德	-12.3256
有師言	-12.3257
佛心平等	-12.3257
說教不定	-12.3258
犯不犯	-12.3258
轉輕為重	-12.3258
名義無礙	-12.3261
三諦即一諦	-12.3262
邊即中故	-12.3264
成論人云	-12.3268
刪闍	-12.3271
真善妙	-12.3274
告之曰	-12.3276
中初先開列	-12.3277
爾時會中	-12.3277
有二番問答	-12.3281
明觀益	-12.3283
我亦說無	-12.3293
第三結歎	-12.3294
舊伊	-12.3298
對問略	-12.3333
歎上求	-12.3339
摩尼寶	-12.3344
化度眾生	-12.337
曠野鬼	-12.338
悲哭	-12.3387
住大般泥洹菩薩	-12.3421
歸磨滅	-12.3422
知他心	-12.3427
故不化生	-12.3441
集聖諦	-12.3474
文自為四	-12.3479
中文殊先問	-12.3488
□□□□□□□□□□□□□	-12.349
陀洹	-12.3549
得名為大般涅槃	-12.3587
造作善惡	-12.3648
酪漿	-12.3659
坐道場	-12.3739
擇滅無為	-12.3744
「『	-12.375
久停	-12.3759
衣服臥具	-12.3789
曼	-12.3825
肯	-12.3835
生顛倒心	-12.4006
▁二此中下	-12.4028
姬	-12.4038
從座起	-12.4078
而大號哭	-12.408
雜綵	-12.4084
欄楯	-12.4085
姚秦	-12.4088
鐮	-12.409
高七多羅樹	-12.4091
諷誦	-12.4092
李	-12.4092
擔	-12.4092
猶如白鶴	-12.4093
投如來前	-12.4095
一生補處	-12.4096
近對治法	-12.4097
押	-12.4098
次復值佛	-12.4099
揵	-12.41
大雲密藏菩薩摩訶薩	-12.41
環	-12.4102
即便命終生人天中	-12.4102
爾時世尊即說	-12.4102
嚴駕	-12.4103
睺	-12.4103
?』」「	-12.4105
叡	-12.4105
疫	-12.4105
弗于逮	-12.4105
轉無上法輪	-12.4105
以呪力故	-12.4106
怨讐	-12.4106
樂於惠施	-12.4108
四百四病	-12.4108
毫釐	-12.4108
從佛所聞	-12.4108
𦀟	-12.4109
娑伽羅龍王	-12.4109
復告大眾	-12.411
與速記	-12.411
耗	-12.4111
捺	-12.4112
我今身心豈得不痛	-12.4112
戴	-12.4113
伊帝曰多伽	-12.4113
郎	-12.4113
隨魔教	-12.4113
搜	-12.4114
漬	-12.4114
胞	-12.4114
萬民	-12.4114
綱維	-12.4114
蓊	-12.4114
與百萬億夜叉眾	-12.4115
娠	-12.4115
自識宿命	-12.4115
衣纏身	-12.4115
阿羅羅	-12.4116
若依毘曇	-12.4116
灰汁	-12.4116
摸	-12.4116
朕	-12.4117
無量億煩惱	-12.4117
為眾作依止	-12.4117
講宣	-12.4118
從無常因生	-12.4118
次增說	-12.4118
唯應度者	-12.4118
䗍	-12.4119
非一非二	-12.4119
昌	-12.4119
錠	-12.4119
我復語言	-12.4119
百分不及一	-12.4119
無數阿僧祇劫	-12.412
從今已往	-12.412
毘梨耶波羅蜜	-12.412
殘缺	-12.412
承佛神力	-12.412
不為世法之所沾污	-12.412
非變易法	-12.412
悉達太子	-12.412
得殺罪	-12.412
禿	-12.412
褥	-12.4121
毗婆沙	-12.4121
鉞	-12.4121
熾燃	-12.4121
梯橙	-12.4121
職	-12.4121
八功德水	-12.4121
蓐	-12.4121
頭目髓腦	-12.4121
棄捐	-12.4121
隨汝意答	-12.4121
就初番中	-12.4121
𤚲	-12.4122
肅	-12.4122
請決所疑	-12.4122
不共貪生不共貪滅	-12.4122
阿之言無	-12.4122
水即為清	-12.4122
莫知所在	-12.4122
從何來	-12.4122
處在高樓沐浴受齋	-12.4123
墮於惡道	-12.4123
監	-12.4123
佛初成道	-12.4123
盲龜	-12.4123
住七善法	-12.4123
非法之物	-12.4123
甚可憐愍	-12.4124
界知心	-12.4124
波逸提	-12.4124
瞥	-12.4124
不宿死尸	-12.4124
忖	-12.4125
薑	-12.4125
今悉可問	-12.4125
復有二十恒河沙	-12.4125
虧損	-12.4125
生惑想	-12.4125
黑黑果報	-12.4125
若佛聽者	-12.4125
從乳出酪	-12.4125
必定當墮阿鼻地獄	-12.4125
頞	-12.4125
是諸天等	-12.4125
曆	-12.4126
惰	-12.4126
是名菩薩知時非時	-12.4126
篇聚	-12.4126
錯魚	-12.4126
作是觀巳	-12.4127
被末代	-12.4127
恣汝所問	-12.4127
工巧之子	-12.4127
栴檀沈水	-12.4127
郁	-12.4127
䥫	-12.4127
非枯非榮	-12.4127
為不斷絕種種說法	-12.4127
若不見信	-12.4127
鐘	-12.4128
荊棘	-12.4128
北遠云	-12.4128
身為在先	-12.4128
私陀	-12.4128
隋淨影寺沙門釋慧遠述	-12.4128
發大誓願	-12.4128
會稽	-12.4128
羸瘦	-12.4128
前後圍遶	-12.4128
云何觀三寶	-12.4128
綜	-12.4129
船舫	-12.4129
鮮潔	-12.4129
埤	-12.4129
根緣感佛	-12.4129
止不啼	-12.4129
涉公云	-12.4129
波羅㮈城	-12.4129
悲號啼哭	-12.4129
莫作是語	-12.4129
即是無上大般涅槃	-12.413
受為攝取	-12.413
喻以䱜魚	-12.413
不可說空及以不空	-12.413
索先陀婆	-12.413
守護一事	-12.413
非律不證	-12.413
震吼	-12.4131
波利質多羅樹	-12.4131
頗棃	-12.4131
粘	-12.4131
得具梵行	-12.4131
可聞之法	-12.4132
破邪通正	-12.4132
捔力	-12.4132
縮	-12.4132
懼其有盡	-12.4132
塗割	-12.4132
文非泥出	-12.4132
效	-12.4133
七重二諦	-12.4133
及以不遇	-12.4133
受畜一切不淨之物	-12.4133
著壞色衣	-12.4133
生信敬心	-12.4133
即便停住	-12.4133
路值一河	-12.4133
胸	-12.4133
舟	-12.4134
后妃	-12.4134
依如毘曇	-12.4134
非青見青	-12.4134
一假一切假	-12.4134
異法出生	-12.4134
我又復說	-12.4135
無事不辦	-12.4135
善來比丘	-12.4135
募	-12.4135
牧牛女	-12.4135
戚	-12.4136
毀辱	-12.4136
藝	-12.4136
佛難值	-12.4136
身無邊故	-12.4136
付嚴師	-12.4136
略廣門	-12.4136
啝	-12.4136
竪徹	-12.4136
即照而寂	-12.4136
度阿若憍陳如	-12.4136
糺	-12.4137
名為食油	-12.4137
我今此身即是涅槃	-12.4137
聞惡聲	-12.4137
化周掩迹	-12.4137
薦	-12.4137
和合諸藥	-12.4137
艾	-12.4137
方便顯發門	-12.4137
迂	-12.4137
病之良藥	-12.4137
]	-12.4137
以常為宗	-12.4138
王喻如來	-12.4138
先牒直非	-12.4138
無縛無脫	-12.4138
亦常亦無常	-12.4139
方等契經	-12.4139
阿那波那	-12.4139
非字非非字	-12.4139
如薪盡火滅	-12.4139
無所從來	-12.414
思惟是已	-12.414
初總別科分	-12.414
常當攝念在心	-12.4141
從牛出乳	-12.4141
有因無因	-12.4141
以乞自活	-12.4141
捨飾好	-12.4141
譬如一室	-12.4141
後及第三	-12.4141
7	-12.4141
換	-12.4141
義既如是	-12.4141
獻奉	-12.4141
猶如死人	-12.4141
寄生一子	-12.4141
更無所須	-12.4141
呿	-12.4141
就初難中	-12.4142
執持應器	-12.4142
腰	-12.4142
粖	-12.4142
如來應供正徧知	-12.4142
譬如春月	-12.4142
毗羅	-12.4142
在在生處	-12.4142
夫修慈者	-12.4142
但今文中	-12.4142
若一切眾生有佛性者	-12.4142
玄而復玄	-12.4143
無二念三昧	-12.4143
先後一時	-12.4143
勿懷悲惱	-12.4143
昔徵今	-12.4143
餘例可知	-12.4143
f	-12.4143
▁釋德王品之	-12.4143
▁釋梵行品之	-12.4143
▁二一下別釋	-12.4144
無常色獲得常色	-12.4144
離五怖畏	-12.4144
生於眼識	-12.4144
王復得病	-12.4144
憂愁啼哭	-12.4144
智者觀業	-12.4144
作惡不即受	-12.4145
文殊師利菩薩摩訶薩白佛言	-12.4145
釋摩男	-12.4146
示生示滅	-12.4146
天耳通	-12.4146
構	-12.4146
知解無記	-12.4146
止不啼哭	-12.4146
大眾所問品	-12.4146
憲	-12.4147
樓豆	-12.4147
轉下作中	-12.4147
無一無二	-12.4147
逕	-12.4147
讇	-12.4148
還從口入	-12.4148
見是事巳	-12.4148
涅槃經疏卷第十	-12.4148
以何等故	-12.4148
邃	-12.4148
性自能持	-12.4148
非苦非樂	-12.4149
與下樂	-12.4149
合和湯藥	-12.4149
無知無見	-12.4149
一是一非	-12.4149
廓	-12.4149
四大毒蛇亦復如是	-12.415
云何得廣大為眾作依止	-12.415
次別顯之	-12.4151
一人具七	-12.4151
與大比丘	-12.4152
勿令忘失	-12.4152
夸	-12.4152
上流般涅槃	-12.4153
謝氏	-12.4153
若放逸者	-12.4153
念所受法	-12.4153
篤	-12.4154
蠭	-12.4154
煥	-12.4154
是其總也	-12.4154
􂎔	-12.4154
小般若云	-12.4154
姉	-12.4154
安置田宅	-12.4155
因滅故果滅	-12.4155
隄塘	-12.4155
非苦非諦是實	-12.4156
若不離者	-12.4156
即其事也	-12.4157
痾	-12.4157
尼揵	-12.4157
下佛為辨	-12.4158
汝言眾生若有佛性	-12.4158
今經正意	-12.4158
以無性故	-12.4158
卝	-12.4159
鮮白	-12.416
是四法者	-12.416
山谷	-12.416
𢇲	-12.4161
先唱章門	-12.4161
棋	-12.4163
結以顯過	-12.4163
攜	-12.4165
唯佛能見	-12.4167
下合第四段	-12.4167
就前二中	-12.4167
稍稍	-12.4168
非此作此受	-12.417
為內外事	-12.4173
昔難今	-12.4177
無我無我所	-12.4179
墮墜	-12.418
當法正	-12.4188
五六七	-12.4196
三十六卷	-12.4213
即約此	-12.4227
示部執	-12.4235
當持淨戒	-12.4236
月喻品	-12.4247
名眾生緣	-12.4252
定當得成阿耨多羅三藐三菩提	-12.4256
汝可往	-12.4261
最正覺	-12.4276
▁二復下	-12.4283
實不得樂	-12.4327
嘆顯勝	-12.4353
下合第三段	-12.4367
先問次辨	-12.4369
妨礙	-12.4394
舉喻類	-12.4411
數論二解	-12.4476
臥具醫藥	-12.45
有諦有實	-12.4578
後四十秊	-12.4603
有苦有諦	-12.4707
領旨仰非	-12.4764
□□□□□□□□□□□□	-12.4778
宜作此說	-12.5002
讒	-12.5038
蓮	-12.5038
菩薩百三十億	-12.5065
溪	-12.5077
沃	-12.508
瀾	-12.5083
毱	-12.5084
作倡伎樂	-12.5089
娛	-12.5092
熙	-12.5095
牛頭栴檀	-12.5096
兜	-12.5097
眄	-12.5097
瀑	-12.5098
五體投地	-12.5099
猫	-12.51
武帝	-12.5101
悲哽	-12.5102
共相娛樂	-12.5103
紳	-12.5103
蝶	-12.5103
座中有菩薩名曰	-12.5104
儲	-12.5105
竅	-12.5105
羽	-12.5105
罸	-12.5106
嶽	-12.5106
闡揚	-12.5107
蠅	-12.5107
諸漏已盡	-12.5107
出已即住	-12.5108
如娑羅娑鳥	-12.5108
媱	-12.5108
瘦	-12.5109
金壜	-12.5109
迅	-12.5109
𤘽	-12.5109
奮	-12.5109
以偈讚佛	-12.5109
無上正真之道	-12.511
譬如金師	-12.5111
輦輿	-12.5111
碁	-12.5111
悲咽	-12.5111
清冷水	-12.5111
然我巳於無量劫中	-12.5112
貰	-12.5112
喑咽	-12.5112
壽命極長	-12.5112
截其手足	-12.5112
棗	-12.5112
裝	-12.5112
石壁	-12.5112
煎	-12.5113
鍊	-12.5113
怏	-12.5113
江都	-12.5113
影現於外	-12.5114
如鳥飛空	-12.5114
羼	-12.5114
拏	-12.5114
發速願	-12.5114
迸	-12.5114
然燈佛	-12.5115
有字無義	-12.5115
復應問言	-12.5115
繩墨	-12.5115
為佛及僧	-12.5115
鏃	-12.5115
飢渴所逼	-12.5115
別釋中初	-12.5116
誥	-12.5116
頸	-12.5117
洎	-12.5117
無緣之慈	-12.5117
譬如聖王所有輪寶	-12.5117
鵰	-12.5118
演暢	-12.5118
無諸怨敵	-12.5118
侍衛	-12.5118
䆳	-12.5119
五熱炙身	-12.5119
持如是等供養之具	-12.5119
噓	-12.512
今於此間拘尸那城	-12.512
魔說經律	-12.512
心共貪生心共貪滅	-12.512
斷大慈種	-12.512
姑	-12.5121
上妙甘饍	-12.5121
於自身中觀如來性	-12.5121
漸漸轉深	-12.5121
以是見故	-12.5121
心生愁惱	-12.5122
擘	-12.5122
褐	-12.5122
我實不食	-12.5122
是六大賊	-12.5122
頂戴奉行	-12.5122
苑	-12.5122
九孔常流	-12.5122
魯流盧樓	-12.5122
垂淚	-12.5122
字悉達多	-12.5122
嵩	-12.5123
懶墮	-12.5123
三千大千世界滿中	-12.5123
震雷	-12.5123
於母生愛	-12.5123
次有半偈	-12.5123
不退轉於阿耨多羅三藐三菩提	-12.5123
成就如是無量無邊功德	-12.5123
械	-12.5123
調婆達	-12.5123
泝	-12.5123
絍	-12.5124
般若洮汰	-12.5124
食主答言	-12.5124
三苦八苦	-12.5124
費	-12.5124
皇帝	-12.5124
六反震動	-12.5124
能多利益	-12.5124
即實而權	-12.5124
非變易法非磨滅法	-12.5124
習因習果	-12.5124
佛之真子	-12.5124
雪山甘藥	-12.5124
秤	-12.5125
墜落	-12.5125
則不得名一闡提也	-12.5125
姓瞿曇氏	-12.5126
修淨佛土	-12.5126
唅	-12.5126
篡	-12.5126
劫貝	-12.5126
得名薩婆若智	-12.5126
從遠方來	-12.5126
荷恩	-12.5126
是故名曰大般涅槃	-12.5127
異法界故	-12.5127
是名菩薩具足多聞	-12.5127
見諸色像	-12.5127
說果為因	-12.5127
生育諸子	-12.5127
食此食	-12.5127
媟	-12.5127
受於法樂	-12.5128
靜處之人	-12.5128
塘	-12.5128
彌沙塞	-12.5128
闍提首那	-12.5128
耆闍崛山	-12.5128
搥	-12.5128
斷於疑網	-12.5128
波利質多樹	-12.5128
下辯明如來	-12.5128
催令速	-12.5128
僧即是慈	-12.5128
虎豹	-12.5129
服與不服	-12.5129
是故名為施不具足	-12.5129
繫屬於魔	-12.5129
屈伸	-12.5129
食所長養	-12.513
一人具八	-12.513
九十八使	-12.513
同時舉聲	-12.513
為諸眾生調伏因緣故	-12.513
不少欲不知足	-12.513
名隨自意說	-12.513
入見諦道	-12.513
智慧臺殿	-12.513
若老若少	-12.513
是故當知無善惡果	-12.5131
色香味具	-12.5131
蔑	-12.5131
唯願如來哀受我等最後供養	-12.5131
師子吼菩薩摩訶薩白佛言	-12.5131
得食已住	-12.5131
吾聖教中	-12.5131
以愛念故	-12.5131
離諸怨敵	-12.5131
等智斷結	-12.5132
髀	-12.5132
顯於中道	-12.5132
復難於是	-12.5132
合掌長跪	-12.5132
出家二眾	-12.5132
東晉	-12.5132
是名如來隨自意語	-12.5132
人中之雄	-12.5132
信順一實	-12.5132
有兒性	-12.5132
情無捨離	-12.5132
則得近於大般涅槃	-12.5133
無十相故	-12.5133
綴	-12.5133
乃至十方亦復如是	-12.5133
阿竭陀	-12.5133
勑	-12.5133
盆	-12.5134
麵	-12.5134
生瞋恨	-12.5134
受不淨物	-12.5134
▁二何者下	-12.5134
還其所止	-12.5134
得斷除一切煩惱	-12.5134
當知爾時佛法	-12.5135
呵以顯過	-12.5135
一經於耳	-12.5135
便受佛語	-12.5135
母摩耶	-12.5135
其犢調善	-12.5136
钁	-12.5136
愛因緣取	-12.5136
見一切空	-12.5136
乳中得酪	-12.5136
錢塘沙門釋智圓	-12.5136
恍	-12.5136
風所吹	-12.5136
書缺二字	-12.5137
偈後長行	-12.5137
鵠	-12.5137
說微妙法	-12.5137
眾生猶如一子	-12.5137
蚌	-12.5137
眾生修道亦復如是	-12.5137
私謂下荊溪	-12.5137
無處不有	-12.5138
緻	-12.5138
不牢固	-12.5138
心生悔恨	-12.5138
牒佛上言	-12.5138
一名說無量名	-12.5138
斂	-12.5138
如器中果	-12.5139
斷五下結	-12.5139
一切眾生無佛性者	-12.5139
爾時佛讚迦葉菩薩善哉善哉	-12.5139
諸佛所師	-12.5139
當自摩頭	-12.5139
娶	-12.5139
異法滅壞	-12.5139
是諸王等	-12.5139
巖穴	-12.5139
如子肉想	-12.514
纂	-12.514
汝今不應作如是言	-12.514
白鑞	-12.514
轡	-12.514
亦因亦果	-12.514
常伺人便	-12.514
壞命根死	-12.514
驃	-12.514
不在五趣	-12.5141
緣合則受	-12.5141
諸法悉有自性	-12.5141
未入上上證	-12.5141
則我身是	-12.5141
受無量苦	-12.5141
舉非顯是	-12.5141
如幻如化	-12.5141
斷於善根	-12.5141
汝等且止	-12.5142
更無過者	-12.5142
吾今此身即是法身	-12.5142
婆枳多城	-12.5142
住在異處	-12.5142
佛性之性不生涅槃	-12.5142
豬	-12.5142
三種藥中無三種病	-12.5142
入禪定窟	-12.5142
汝今不應作如是難	-12.5143
一心三慈	-12.5143
牒以直非	-12.5143
非異色因	-12.5143
一因生一切果	-12.5143
勤求出道	-12.5143
迦鄰提	-12.5143
8	-12.5143
潮不過限	-12.5143
如來常存不變	-12.5143
暹記云	-12.5143
ḥ	-12.5143
b	-12.5143
▁釋師子吼品之	-12.5143
▁ka	-12.5143
āṃ	-12.5143
紙墨	-12.5144
湖	-12.5144
欲求正法應如是學	-12.5144
可疾問之	-12.5144
攝惡攝邪	-12.5144
未治本云	-12.5144
觀四真諦	-12.5144
忍之為德	-12.5144
鳩摩羅	-12.5144
折伏汝心	-12.5145
第一義空名為智慧	-12.5145
牒以結之	-12.5145
刊	-12.5145
闍毗	-12.5145
▁初開譬	-12.5145
能斷一切諸有	-12.5145
同在初地	-12.5145
生報後報	-12.5145
若我住者	-12.5145
誡勸捨著	-12.5145
2	-12.5146
閙	-12.5146
疆	-12.5146
智者觀欲	-12.5146
訓誨	-12.5146
非所應也	-12.5146
日可令冷	-12.5146
敝	-12.5147
不損色香	-12.5147
騰眾請	-12.5147
深固難拔	-12.5147
不來不去	-12.5147
勅聽許	-12.5147
氎	-12.5147
帝釋諸天所共敬重	-12.5147
穉	-12.5147
我法滅時	-12.5148
成就出世間大人功德	-12.5148
非法盛時	-12.5148
云何當言如來祕藏	-12.5148
四十八年	-12.5148
折攝涅槃用	-12.5148
餮	-12.5148
饕	-12.5148
及諸魔性	-12.5149
卅	-12.5149
衍	-12.5149
先出舊解	-12.5149
初非佛旨	-12.5149
未得第二第三住處	-12.5149
即皆得度	-12.5149
何以故下釋以顯	-12.515
㭊	-12.515
爾時世尊告光明遍照	-12.515
是故略之	-12.515
心之可畏	-12.515
道亦清淨	-12.515
除生一法	-12.515
斷三界煩惱	-12.515
庾	-12.515
於前義中有難解者	-12.5151
非身非口	-12.5151
大名不可思議	-12.5151
他心宿命	-12.5151
灰身滅智	-12.5151
早晚	-12.5152
云何未發心而名為菩薩	-12.5152
第五解力	-12.5152
是則於我法中能得解脫	-12.5152
貧人得寶	-12.5153
毘跋致	-12.5153
何所不收	-12.5153
法異喻	-12.5154
燈爐	-12.5154
若天魔梵	-12.5154
璞	-12.5154
殺闡提無罪	-12.5155
中前中後	-12.5155
摩訶僧祇	-12.5156
所言字者	-12.5156
即色是空	-12.5156
十六惡律儀	-12.5157
兩因兩果	-12.5157
不因小相	-12.5157
嘆顯深	-12.5158
亦有差別亦無差別	-12.5158
以法常故諸佛亦常	-12.5158
二舉譬帖	-12.5158
遇與不遇	-12.5159
究竟不究竟	-12.516
動見修道品	-12.5161
我若作者	-12.5162
魯留盧樓	-12.5162
金師譬	-12.5163
避苦求樂	-12.5164
復次瞋有二種	-12.5165
受想觸欲	-12.5166
趨	-12.5167
不離於苦	-12.5172
有智人下	-12.5173
一諦即三諦	-12.5174
捨向得果	-12.5174
初章門中	-12.5174
復次善男子菩薩摩訶薩復作是願寧	-12.5179
如畫石	-12.5198
▁二初法下隨	-12.5202
爾時迦葉下	-12.5204
名不空空	-12.5214
當堅發如是	-12.5219
▁二今謂下	-12.5229
結眾集	-12.5232
文還有	-12.5244
沒於地	-12.5257
明惑果	-12.5258
純分會南本大般涅槃經會疏卷第二十	-12.5272
成涅槃大	-12.5313
當知是人是大菩薩	-12.5314
段經文	-12.5385
定慧相資	-12.5389
煩惱所纏	-12.5458
先自徵	-12.5522
因無明生	-12.5631
大般涅槃經卷第十	-12.5722
何得不愁	-12.5773
洹	-12.5812
三大眾供養	-12.607
告純陀言	-12.6075
□□□□□□□□	-12.6122
放億那術百千光明	-12.6133
㪷	-12.6157
sa	-12.616
管窺	-12.617
偉	-12.6171
神通窟法門	-12.6178
紫磨金	-12.6184
無所嬈害	-12.6192
揖	-12.6194
莊飾	-12.6196
有諸外道復作是言	-12.62
所不便食而強食之	-12.6201
是諸國王及四部眾	-12.6205
冑	-12.6205
以手捧鉢	-12.6205
殆	-12.6209
若有不能如是觀者	-12.621
猫狸	-12.621
住壽一劫	-12.621
疼	-12.6211
灰覆火上	-12.6212
閇	-12.6213
駝	-12.6213
亦當修習如是二法	-12.6214
居輕利	-12.6214
絃	-12.6214
阿彌陀	-12.6215
寮	-12.6215
販賣市易	-12.6215
枉	-12.6215
儼	-12.6216
􂌤	-12.6216
蹉	-12.6216
有發辟支佛	-12.6216
燕	-12.6217
菩薩觀此煩惱猶如大河	-12.6217
阿逸多	-12.6217
溉灌	-12.6218
拆	-12.6218
煩惱大河亦復如是	-12.6218
汝所問者	-12.6218
復有菩薩自言戒淨	-12.6218
乙	-12.6219
蒱	-12.6219
有發聲聞	-12.6219
瑰	-12.6219
為闡提說法	-12.6219
員	-12.6219
諸天女等	-12.622
令汝具足檀波羅蜜	-12.622
懅	-12.6221
轉妙法輪	-12.6221
我受報耶	-12.6221
疾至佛所稽首佛足	-12.6221
烏鵲	-12.6221
[...]
