<unk>	0
<s>	0
</s>	0
之	-3.9273
/	-4.05866
也	-4.09123
而	-4.40308
以	-4.49903
)(	-4.51604
者	-4.71235
(	-4.8196
則	-4.82144
為	-4.83403
)	-4.89494
其	-4.96525
有	-5.13747
曰	-5.18268
言	-5.34636
於	-5.36445
故	-5.42894
不	-5.43797
是	-5.52388
此	-5.57418
自	-5.6999
于	-5.70229
至	-5.76593
與	-5.79466
在	-5.80012
無	-5.8309
矣	-5.85394
皆	-5.88704
大	-5.88919
一	-5.92494
謂	-5.92691
人	-6.00443
非	-6.03414
乃	-6.0355
亦	-6.11774
惟	-6.1246
所	-6.13441
如	-6.16385
又	-6.16915
王	-6.16966
今	-6.17759
作	-6.19211
用	-6.22521
即	-6.27357
天	-6.29324
然	-6.299
乎	-6.30231
爲	-6.30454
○	-6.3105
當	-6.31104
云	-6.32107
民	-6.34009
事	-6.34339
▁	-6.34657
若	-6.38668
所以	-6.41663
水	-6.42965
正	-6.44216
中	-6.47296
明	-6.47432
使	-6.48828
時	-6.49668
上	-6.50414
下	-6.51668
行	-6.51703
必	-6.53401
見	-6.54021
已	-6.55419
我	-6.55581
既	-6.56295
得	-6.57037
反	-6.57806
命	-6.58309
徳	-6.58326
出	-6.62203
雖	-6.65688
三	-6.66394
子	-6.67809
及	-6.69035
傳	-6.69091
山	-6.69415
周公	-6.69528
同	-6.70332
能	-6.73477
哉	-6.73511
相	-6.73978
知	-6.74913
書	-6.7537
日	-6.75744
以為	-6.75938
從	-6.76319
汝	-6.76431
道	-6.77845
治	-6.80492
所謂	-6.80512
二	-6.8093
君	-6.8125
始	-6.81583
可	-6.81687
蓋	-6.82781
欲	-6.84405
河	-6.85791
/)	-6.86563
名	-6.86819
本	-6.86942
後	-6.86984
爾	-6.8767
成	-6.88651
周	-6.89563
地	-6.91727
縣	-6.91994
東	-6.92673
州	-6.92695
耳	-6.93205
入	-6.936
或	-6.9509
禹	-6.95164
公	-6.9572
臣	-6.95853
國	-6.96066
合	-6.9622
焉	-6.96991
文	-6.97234
心	-6.97318
安	-6.97801
服	-6.97851
五	-6.98607
四	-6.99235
字	-7.00511
分	-7.00698
德	-7.00805
猶	-7.01164
成王	-7.01284
居	-7.01366
生	-7.01616
經	-7.02049
多	-7.02692
舜	-7.03592
南	-7.04416
方	-7.04733
未	-7.05134
先	-7.05523
復	-7.0564
法	-7.05641
天下	-7.07462
訓	-7.09453
長	-7.0961
謂之	-7.09958
立	-7.10308
如此	-7.10555
實	-7.11122
武王	-7.11641
音	-7.14703
易	-7.1502
去	-7.15255
北	-7.15674
稱	-7.16386
不可	-7.16489
之意	-7.17521
夫	-7.17944
常	-7.18619
通	-7.18862
將	-7.18951
善	-7.19389
意	-7.19629
因	-7.19645
諸侯	-7.19826
説	-7.20304
舉	-7.20372
西	-7.20873
受	-7.20973
漢	-7.21053
禮	-7.21247
之事	-7.21422
義	-7.21621
古	-7.2254
敬	-7.23212
平	-7.23532
定	-7.24078
而已	-7.25338
刑	-7.25738
不能	-7.26384
官	-7.26772
處	-7.27262
盖	-7.27944
土	-7.28231
而不	-7.28479
遂	-7.29461
盡	-7.29851
世	-7.29943
何	-7.30898
帝	-7.31571
重	-7.31686
凡	-7.31844
六	-7.31974
亂	-7.32902
九	-7.35288
數	-7.36269
主	-7.36555
堯	-7.37058
說	-7.37234
終	-7.37262
政	-7.38016
過	-7.38047
文王	-7.38052
陽	-7.39766
和	-7.39867
江	-7.40506
湯	-7.40668
順	-7.41992
師	-7.43224
是也	-7.43609
夏	-7.43882
來	-7.43997
逺	-7.44131
者也	-7.44345
小	-7.44358
物	-7.44441
告	-7.44838
前	-7.45165
葢	-7.4542
固	-7.45575
殷	-7.45611
屬	-7.45778
,	-7.46213
且	-7.46235
紂	-7.46409
樂	-7.46777
氏	-7.47009
功	-7.4711
信	-7.47172
但	-7.47868
外	-7.4938
惡	-7.50683
志	-7.51468
極	-7.51473
由	-7.51819
取	-7.52439
流	-7.52494
聖人	-7.52525
衆	-7.54343
各	-7.54672
商	-7.55484
觀	-7.56496
注	-7.57209
度	-7.58008
深	-7.58168
予	-7.58912
罪	-7.58947
可以	-7.59022
諸	-7.59353
理	-7.59992
天子	-7.60149
序	-7.60249
歸	-7.60563
之心	-7.61034
思	-7.61233
近	-7.62071
克	-7.62402
引	-7.6272
教	-7.62837
初	-7.62845
止	-7.63599
疑	-7.63902
之道	-7.64
致	-7.65071
陳	-7.65592
都	-7.65691
内	-7.65798
考	-7.6586
濟	-7.66183
失	-7.66321
月	-7.66358
次	-7.66497
正義曰	-7.66788
豈	-7.66797
至於	-7.67228
兩	-7.67295
廣	-7.67414
異	-7.67516
求	-7.677
位	-7.68717
宜	-7.68822
▁(	-7.69001
論	-7.69259
按	-7.69317
令	-7.69445
故曰	-7.69593
之後	-7.69917
武	-7.70173
之所	-7.70286
難	-7.71772
制	-7.71844
少	-7.72158
祭	-7.72226
聖	-7.72474
指	-7.72478
八	-7.72742
親	-7.73134
益	-7.73198
聲	-7.73233
興	-7.73466
不知	-7.73607
家	-7.73878
朝	-7.74021
而後	-7.74139
化	-7.74322
遷	-7.74345
年	-7.74508
城	-7.74659
齊	-7.7472
髙	-7.75153
甚	-7.75258
之言	-7.7535
獨	-7.75522
辭	-7.75795
㑹	-7.76145
太甲	-7.76718
至于	-7.76776
身	-7.7687
先王	-7.7751
聞	-7.7754
史	-7.77774
厥	-7.7786
元	-7.7838
尚	-7.78683
七	-7.78755
修	-7.7927
應	-7.79528
然後	-7.80449
吾	-7.81079
海	-7.81186
天命	-7.81465
據	-7.81502
神	-7.8177
伊尹	-7.82057
旣	-7.82645
亡	-7.82713
問	-7.82809
謀	-7.83034
賢	-7.83089
力	-7.83406
視	-7.83785
之時	-7.83835
篇	-7.83898
死	-7.84574
卜	-7.85169
變	-7.85247
之地	-7.85256
封	-7.85601
殺	-7.85796
𫝊	-7.86198
田	-7.86266
直	-7.86504
金	-7.86775
木	-7.87014
士	-7.87022
疏	-7.87267
起	-7.87462
祀	-7.87914
戒	-7.88838
學	-7.88916
之人	-7.89158
宗	-7.89173
改	-7.90016
舊	-7.90052
氣	-7.90072
貢	-7.9021
召公	-7.90281
詩	-7.91325
口	-7.92188
動	-7.9255
美	-7.92845
言之	-7.92953
備	-7.93023
語	-7.93289
要	-7.93371
風	-7.9378
之間	-7.94156
載	-7.94378
唐	-7.94879
發	-7.95168
新	-7.9522
郡	-7.95296
往	-7.9536
又曰	-7.95411
承	-7.95683
廢	-7.95983
解	-7.96023
彼	-7.96091
原	-7.96644
體	-7.96839
望	-7.96958
澤	-7.971
輕	-7.97246
吉	-7.9731
百	-7.97352
己	-7.97564
後世	-7.97813
石	-7.97865
賦	-7.97951
等	-7.9796
絶	-7.98722
率	-7.98784
開	-7.98943
建	-7.98951
别	-7.98992
進	-7.99236
其所	-7.99286
誠	-7.9954
保	-8.00465
更	-8.00676
不得	-8.00761
太	-8.00849
府	-8.0107
漢孔氏曰	-8.01233
好	-8.01443
於此	-8.02526
食	-8.02644
職	-8.02707
首	-8.02986
伐	-8.0306
降	-8.03192
任	-8.03623
父	-8.03882
宋	-8.0405
聽	-8.04073
罰	-8.04329
詳	-8.04905
周禮	-8.04997
禹貢	-8.05109
秦	-8.05433
守	-8.05823
加	-8.06302
不言	-8.06314
念	-8.06785
之辭	-8.06913
共	-8.07171
畏	-8.07266
伯	-8.07294
嵗	-8.07325
並	-8.07384
越	-8.0742
奉	-8.07486
威	-8.0763
享	-8.07721
厯	-8.07722
節	-8.07773
典	-8.0799
代	-8.08008
晉	-8.08088
記	-8.08919
就	-8.09341
象	-8.09402
恭	-8.0975
叙	-8.09962
繼	-8.09979
隂	-8.10034
恐	-8.10064
尊	-8.10186
間	-8.10354
怨	-8.10503
民之	-8.10603
人之	-8.1063
仁	-8.10745
夷	-8.10779
兼	-8.11192
置	-8.1124
簡	-8.11293
執	-8.11585
紀	-8.11839
星	-8.12295
圖	-8.13167
喪	-8.13352
十	-8.13666
利	-8.13689
特	-8.13742
章	-8.13757
臨	-8.14072
便	-8.1413
全	-8.14143
無所	-8.14501
臯陶	-8.14547
釋	-8.14576
人君	-8.14577
不同	-8.14602
。	-8.14637
比	-8.14832
白	-8.14932
著	-8.1533
不敢	-8.15628
當時	-8.1567
祖	-8.157
此言	-8.15991
文武	-8.16249
逸	-8.16252
弗	-8.1653
永	-8.16564
兵	-8.16712
餘	-8.16896
洛	-8.17776
火	-8.17819
有所	-8.17908
勤	-8.17934
五行	-8.17988
足	-8.18151
誥	-8.18206
厚	-8.18299
盤庚	-8.1866
侯	-8.18733
使之	-8.18919
邦	-8.19023
春秋	-8.20425
總	-8.20741
敎	-8.20907
顯	-8.21276
掌	-8.21619
寧	-8.21748
也故	-8.21795
孔	-8.22207
以下	-8.22617
川	-8.22631
淮	-8.22639
之中	-8.23034
門	-8.23048
決	-8.23153
之法	-8.23218
於是	-8.23549
似	-8.23651
敘	-8.23683
色	-8.24562
憂	-8.24598
無不	-8.24602
鄭	-8.25373
推	-8.25525
逆	-8.25694
性	-8.25697
讀	-8.25898
監	-8.26316
害	-8.26327
斷	-8.2636
疾	-8.26726
容	-8.26826
宅	-8.26862
君子	-8.26897
之義	-8.27113
四方	-8.27157
設	-8.27177
天下之	-8.27245
馬	-8.2749
之説	-8.27509
咸	-8.27823
邪	-8.28053
桀	-8.28191
對	-8.28324
箕子	-8.2849
衛	-8.28492
施	-8.28786
天之	-8.28836
上下	-8.29376
他	-8.29829
最	-8.29937
歴	-8.3022
慎	-8.30448
布	-8.30542
者皆	-8.3095
玉	-8.31043
之功	-8.31071
三年	-8.3161
盛	-8.32042
只	-8.3205
嘗	-8.32164
則是	-8.33043
尤	-8.33087
天地	-8.33412
滅	-8.33475
格	-8.33568
依	-8.34179
而無	-8.34313
存	-8.34665
張	-8.34802
肆	-8.35061
誅	-8.35073
造	-8.3571
酒	-8.36159
此篇	-8.36727
莫	-8.36747
謹	-8.36926
廟	-8.37062
福	-8.37127
養	-8.37325
誤	-8.3754
愛	-8.37558
孔子	-8.37566
之徳	-8.3781
梁	-8.3814
徐	-8.38224
邑	-8.3828
吕氏曰	-8.38819
敢	-8.39
導	-8.39026
勉	-8.39073
光	-8.39203
左	-8.39207
其心	-8.39695
人心	-8.39736
黄	-8.39762
私	-8.39971
萬	-8.40044
勝	-8.40053
情	-8.40089
古文	-8.401
髙宗	-8.40289
清	-8.40393
統	-8.40595
律	-8.40842
嚴	-8.41357
昭	-8.4146
尚書	-8.41471
虞	-8.41562
之理	-8.41601
老	-8.41611
輔	-8.41817
放	-8.42219
小人	-8.42221
巳	-8.42463
案	-8.42608
微	-8.42611
略	-8.42701
出於	-8.42845
類	-8.42938
軍	-8.4302
斯	-8.43059
末	-8.43202
敗	-8.43529
切	-8.44047
俱	-8.44047
罔	-8.44146
陵	-8.44216
差	-8.44438
須	-8.44912
豫	-8.45074
精	-8.45124
必有	-8.45159
適	-8.45296
危	-8.45304
足以	-8.4536
果	-8.4576
述	-8.45945
違	-8.46088
庶	-8.46283
列	-8.46544
冀	-8.46556
而言	-8.46571
察	-8.46869
棄	-8.46875
苟	-8.46964
羣臣	-8.4765
東南	-8.4796
計	-8.4806
向	-8.48143
責	-8.48232
蔡	-8.48349
工	-8.48698
豐	-8.48821
車	-8.48866
其事	-8.49019
休	-8.4906
誓	-8.4909
被	-8.49106
達	-8.49171
者以	-8.49392
懐	-8.49398
右	-8.49493
不及	-8.49758
揚	-8.49785
牧	-8.49829
卒	-8.50071
積	-8.50109
路	-8.50113
勸	-8.50229
遺	-8.50329
源	-8.50593
宫	-8.50677
大夫	-8.50709
左右	-8.50854
故以	-8.5096
古人	-8.51056
司	-8.51401
畢	-8.51415
孔氏曰	-8.51713
漸	-8.51781
君臣	-8.51972
后	-8.51999
集傳	-8.52015
春	-8.52095
獻	-8.52108
辨	-8.5213
史記	-8.52226
具	-8.52719
未嘗	-8.52854
并	-8.5293
省	-8.53028
耶	-8.53152
表	-8.53156
寛	-8.53339
業	-8.53544
一人	-8.53544
以此	-8.5369
言其	-8.54331
形	-8.54619
凶	-8.54997
退	-8.54998
九州	-8.5505
青	-8.55081
征	-8.55304
除	-8.55573
成湯	-8.55734
康叔	-8.55828
以爲	-8.55952
幾	-8.56023
專	-8.56272
微子	-8.56486
卷	-8.56501
孟子	-8.5654
雨	-8.5658
離	-8.56586
交	-8.56614
况	-8.56749
徒	-8.56754
何以	-8.57011
西南	-8.57022
習	-8.57125
𤼵	-8.57209
室	-8.57687
顧	-8.57746
真	-8.5792
務	-8.58111
之官	-8.58234
康	-8.584
欲其	-8.58448
不足	-8.58475
辟	-8.58934
魯	-8.58976
氏曰	-8.58987
接	-8.59423
兹	-8.59821
敷	-8.59928
呼	-8.60014
慮	-8.60047
目	-8.60119
勞	-8.60152
人主	-8.60407
之名	-8.60516
雍	-8.6064
塞	-8.60733
西北	-8.60962
面	-8.61092
叛	-8.61106
升	-8.61261
句	-8.61419
然則	-8.61532
歌	-8.61595
辰	-8.61806
歟	-8.61869
俗	-8.61964
再	-8.62067
之類	-8.6214
不可以	-8.62204
虐	-8.62247
朔	-8.62717
四岳	-8.62759
勢	-8.63054
納	-8.6338
靈	-8.63384
楚	-8.63445
皇極	-8.63625
洪範	-8.63781
将	-8.63959
循	-8.64276
入海	-8.64283
昔	-8.64333
唐孔氏曰	-8.6436
待	-8.64394
朕	-8.64637
器	-8.64691
曲	-8.65044
朱子曰	-8.65066
日月	-8.65102
也夫	-8.65229
智	-8.65329
百官	-8.65487
皇	-8.65692
嗣	-8.65905
庸	-8.66092
龍	-8.66355
而為	-8.66551
之臣	-8.66611
集	-8.66806
啓	-8.66917
貴	-8.66971
五事	-8.6712
谷	-8.67191
可見	-8.67267
故言	-8.67541
半	-8.67813
下文	-8.67854
勿	-8.67871
之說	-8.67896
是以	-8.67909
之外	-8.68166
百姓	-8.68364
界	-8.68422
審	-8.68452
也然	-8.68489
留	-8.6851
闕	-8.68572
者亦	-8.68593
上帝	-8.68672
病	-8.6871
柔	-8.68938
富	-8.69055
徙	-8.69099
林氏曰	-8.69127
東北	-8.69236
子孫	-8.69381
其地	-8.6939
戰	-8.69499
良	-8.69507
還	-8.69534
之下	-8.69566
之書	-8.69693
隨	-8.69746
協	-8.69945
宣	-8.70012
扵	-8.70198
淫	-8.70269
龜	-8.70306
申	-8.70339
左傳	-8.70497
孝	-8.70542
知其	-8.70552
剛	-8.70705
附	-8.70856
垂	-8.70867
也此	-8.71201
可知	-8.71291
尹	-8.7153
二年	-8.71603
皆有	-8.71658
每	-8.71864
役	-8.71924
孔氏	-8.71937
一篇	-8.72046
亦有	-8.72112
為之	-8.72114
之所以	-8.72432
其徳	-8.72455
移	-8.72555
不然	-8.72678
冀州	-8.72762
嗚呼	-8.72821
權	-8.73133
無有	-8.73184
治水	-8.7336
允	-8.73404
不必	-8.73472
上文	-8.73512
社	-8.73541
康王	-8.73587
强	-8.73621
其意	-8.73749
荆	-8.73819
周之	-8.7391
悉	-8.73916
湖	-8.73961
高	-8.74113
鄉	-8.74409
叔	-8.74541
渭	-8.7466
秋	-8.7477
只是	-8.75018
種	-8.75058
如何	-8.75122
卿	-8.75184
華	-8.75283
鯀	-8.75354
註	-8.75417
用之	-8.75705
號	-8.7589
不以	-8.75921
渠	-8.75931
窮	-8.76142
十二	-8.76193
期	-8.7633
武庚	-8.76363
元年	-8.76375
其言	-8.76413
仲	-8.76419
虚	-8.76444
不可不	-8.76517
其君	-8.76597
迪	-8.76672
周官	-8.76685
均	-8.76719
助	-8.76891
占	-8.7706
今日	-8.7722
會	-8.77432
久	-8.77506
茍	-8.77535
嘉	-8.77636
受命	-8.7781
里	-8.77828
聚	-8.77879
讓	-8.77889
而下	-8.78004
則其	-8.78021
族	-8.78204
至此	-8.78298
畫	-8.78502
細	-8.78567
縱	-8.78681
于此	-8.78762
錫	-8.78867
不復	-8.7901
則有	-8.792
戎	-8.79232
胡	-8.79252
朱子	-8.79258
感	-8.79378
可謂	-8.79454
之命	-8.79515
妄	-8.79616
皆以	-8.79667
孫	-8.79724
忽	-8.80018
荒	-8.80044
魏	-8.80071
之民	-8.80201
弟	-8.80263
之故	-8.8034
林	-8.80373
纂註	-8.80416
皆是	-8.80475
識	-8.80617
朱	-8.80677
欽	-8.80728
即位	-8.8073
堯典	-8.80891
大臣	-8.80936
錯	-8.81175
君陳	-8.81226
二字	-8.81304
蒙	-8.81331
以其	-8.81406
患	-8.81514
證	-8.81828
徃	-8.81939
才	-8.82078
未有	-8.82268
農	-8.82355
劉	-8.82448
否	-8.82512
愈	-8.82531
配	-8.8285
爵	-8.82948
郊	-8.83031
一日	-8.83106
穆王	-8.83116
蔡傳	-8.83206
況	-8.83285
彭蠡	-8.833
賞	-8.83318
夀	-8.8393
縣南	-8.84333
入河	-8.84335
之文	-8.84361
歲	-8.84471
浮	-8.84578
賜	-8.8463
在今	-8.84632
射	-8.84721
弱	-8.84722
愚	-8.85057
乗	-8.85177
示	-8.85314
衞	-8.85593
山川	-8.85754
舍	-8.85784
立政	-8.85895
不過	-8.85956
草	-8.86236
眀	-8.86259
舜典	-8.86327
蔽	-8.86374
懼	-8.86477
丘	-8.86499
得其	-8.86548
昏	-8.86652
連	-8.86775
刻	-8.8678
底	-8.8686
三公	-8.86864
殷民	-8.86884
忠	-8.86892
雜	-8.86968
堯舜	-8.87064
乂	-8.87082
景	-8.87161
授	-8.87276
溢	-8.8731
蔡氏	-8.87613
在位	-8.87687
水經	-8.87688
懷	-8.87737
衣	-8.87746
亳	-8.87816
羣	-8.87912
各有	-8.87913
壽	-8.88079
奏	-8.88167
御	-8.88494
采	-8.88593
議	-8.88647
肅	-8.88969
兆	-8.88992
音義	-8.89032
乘	-8.89128
散	-8.89298
包	-8.89418
也言	-8.89445
周公之	-8.89489
急	-8.89548
之際	-8.89781
質	-8.89888
之水	-8.90115
余	-8.90321
太保	-8.90339
却	-8.90343
女	-8.90492
為一	-8.90597
古者	-8.90701
儀	-8.90733
治之	-8.90918
九江	-8.91011
革	-8.91302
拜	-8.91441
之君	-8.91443
黎	-8.91599
伏生	-8.91683
䘮	-8.91684
宿	-8.91693
諫	-8.91761
崇	-8.91892
覆	-8.91898
經文	-8.92072
咎	-8.92144
于是	-8.92218
来	-8.92336
卑	-8.92421
旅	-8.92447
聴	-8.92491
登	-8.92558
關	-8.93078
祭祀	-8.93188
傷	-8.93274
其實	-8.93285
伏	-8.93288
延	-8.93311
徴	-8.93362
冬	-8.93382
水出	-8.93542
以見	-8.93678
漢志	-8.9375
故謂之	-8.93976
播	-8.94016
資	-8.9426
法度	-8.94374
故云	-8.94388
惠	-8.94457
犯	-8.94538
則為	-8.94542
純	-8.94624
手	-8.94692
於天	-8.94834
某	-8.94896
昌	-8.94945
中國	-8.94997
條	-8.95066
自然	-8.95072
衡	-8.9517
王之	-8.95273
無逸	-8.95358
舜之	-8.95412
端	-8.95583
其功	-8.95836
召	-8.95865
甲	-8.95876
爾雅	-8.95925
迎	-8.95969
卿士	-8.96011
王者	-8.96028
圭	-8.96271
小民	-8.96313
禍	-8.96363
井	-8.96381
先王之	-8.96393
𤣥	-8.96482
恤	-8.96579
暴	-8.96594
偏	-8.96697
苦	-8.96759
許	-8.96817
兖	-8.96819
揚州	-8.96888
參	-8.96967
崩	-8.97043
下民	-8.97312
撫	-8.97505
千	-8.97754
遠	-8.97992
荆州	-8.98106
矣故	-8.98172
哲	-8.98517
避	-8.98531
禁	-8.98796
丕	-8.98876
祗	-8.98952
禹之	-8.99167
潛	-8.9918
見其	-8.99302
友	-8.99447
營	-8.99495
大抵	-8.99552
薄	-8.99679
注云	-8.9969
而又	-8.99897
其後	-8.99946
羲和	-8.99968
謨	-9.00012
父母	-9.00113
旁	-9.00121
縣北	-9.00286
者非	-9.0032
孤	-9.00385
其所以	-9.004
驗	-9.00607
後人	-9.0093
貌	-9.00948
母	-9.01169
愼	-9.01176
洛邑	-9.01183
殷之	-9.01186
寒	-9.01206
飾	-9.01238
俾	-9.01351
泰誓	-9.01674
堂	-9.01786
息	-9.01828
疇	-9.01849
也傳	-9.01857
擇	-9.01956
莫不	-9.0202
鬼神	-9.02032
泉	-9.02064
姓	-9.02142
於民	-9.02223
魚	-9.02346
行之	-9.02419
藏	-9.0257
雖有	-9.02626
又云	-9.02696
亦不	-9.02797
博	-9.0282
不明	-9.02886
畧	-9.02889
古之	-9.02961
堯之	-9.03067
敵	-9.03075
之職	-9.03229
殊	-9.03346
六卿	-9.03353
録	-9.03469
又有	-9.03493
之初	-9.03538
運	-9.03612
如此則	-9.0363
王氏	-9.03649
式	-9.03703
恒	-9.03856
也今	-9.03869
喜	-9.03967
所言	-9.04005
也蓋	-9.04132
幽	-9.04232
吳	-9.0424
學者	-9.04246
遇	-9.04304
野	-9.04427
為善	-9.04499
陸	-9.04536
鑿	-9.04565
在於	-9.04657
故也	-9.04755
决	-9.0491
鎮	-9.04918
先儒	-9.05115
天道	-9.05183
之謂	-9.05228
不當	-9.05668
之禮	-9.05725
請	-9.05733
怒	-9.05834
呉	-9.05996
卜筮	-9.06035
吕	-9.06065
賔	-9.06085
碣石	-9.06299
三江	-9.06606
之使	-9.06757
湯之	-9.06886
五服	-9.07074
壤	-9.07117
而有	-9.07146
衰	-9.07237
貨	-9.07271
矣然	-9.07451
司空	-9.07489
所當	-9.07701
蘇氏曰	-9.07836
也惟	-9.0798
考之	-9.08024
距	-9.08078
四海	-9.08182
乆	-9.08198
南北	-9.08206
脩	-9.08223
五年	-9.08301
三月	-9.08359
竹	-9.08368
襄	-9.08445
卦	-9.08474
宗廟	-9.08546
者蓋	-9.08584
持	-9.08602
結	-9.08707
聰明	-9.08852
明徳	-9.08914
之内	-9.08942
九河	-9.093
管	-9.0943
黒水	-9.09478
萬物	-9.09585
艱難	-9.09703
其説	-9.09746
古今	-9.0981
汶	-9.09932
其民	-9.09993
獄	-9.1
文王之	-9.10214
太康	-9.1028
闗	-9.10336
畢公	-9.10586
商之	-9.10588
五百里	-9.10774
江漢	-9.10778
寶	-9.10862
此説	-9.1088
纂疏	-9.10891
麗	-9.10985
李	-9.11293
季	-9.11325
見於	-9.11343
司徒	-9.1135
悔	-9.11408
築	-9.11527
君之	-9.11732
乾	-9.11883
四時	-9.11967
稽	-9.11999
災	-9.12107
其義	-9.12158
五刑	-9.1226
百里	-9.12548
艱	-9.12632
味	-9.12633
赤	-9.1264
答	-9.12672
横	-9.12745
轉	-9.12777
紂之	-9.12867
之前	-9.12904
羽	-9.12954
陳氏曰	-9.13082
之數	-9.13216
反覆	-9.13621
史官	-9.13653
之罪	-9.13739
庶民	-9.13815
收	-9.14091
喻	-9.14102
偽	-9.14188
如是	-9.14321
尺	-9.14467
成周	-9.14645
又按	-9.14929
王室	-9.14933
之政	-9.15015
濟水	-9.15019
寡	-9.15028
于天	-9.15028
奄	-9.15168
猷	-9.15289
武王之	-9.15311
沙	-9.15324
又東逕	-9.15398
其罪	-9.15425
篤	-9.15512
燕	-9.15574
旦	-9.15702
此心	-9.15734
契	-9.15765
怠	-9.1581
仍	-9.15813
也若	-9.15867
相與	-9.15901
無垢曰	-9.16194
未必	-9.16261
雲	-9.16334
安國	-9.16343
穀	-9.16515
夢	-9.1653
河南	-9.1653
冝	-9.16692
之國	-9.16701
胥	-9.16726
抑	-9.16921
不與	-9.1694
追	-9.17049
矣此	-9.17102
逹	-9.17152
顧命	-9.17164
者則	-9.17232
了	-9.17235
政事	-9.17254
高宗	-9.17296
所以為	-9.17311
之於	-9.17331
坐	-9.17379
夫子	-9.17426
趨	-9.17616
速	-9.17656
慶	-9.1769
例	-9.17723
正月	-9.17757
幣	-9.17903
者必	-9.17907
三代	-9.17953
求之	-9.18033
祥	-9.18103
先後	-9.18134
孔傳	-9.18298
舟	-9.18301
唯	-9.1831
陳氏大猷曰	-9.18365
鳥	-9.18407
干	-9.18445
雍州	-9.18504
不應	-9.18522
惑	-9.18529
歳	-9.18684
量	-9.18754
王命	-9.1876
其身	-9.18766
専	-9.18802
上天	-9.18902
攝	-9.18911
救	-9.18912
徳之	-9.18916
豈有	-9.1894
知之	-9.18989
之世	-9.19131
寳	-9.19141
漢書	-9.19239
之屬	-9.19246
小大	-9.1927
蘇	-9.19285
二水	-9.19305
之德	-9.19322
多方	-9.19322
者謂	-9.19343
別	-9.19399
其中	-9.19524
之南	-9.19583
姑	-9.19624
出于	-9.19659
毛	-9.19706
有此	-9.19749
之上	-9.19758
赦	-9.19859
周書	-9.19944
詔	-9.20087
瀆	-9.20328
四年	-9.20461
蔡氏曰	-9.20499
飲	-9.20576
之意也	-9.20635
折	-9.20711
豈不	-9.20718
攻	-9.20929
司馬	-9.20999
兄	-9.21095
七年	-9.21185
民心	-9.21232
命之	-9.21312
牛	-9.21552
之事也	-9.21624
賓	-9.21728
夜	-9.21815
昬	-9.21945
縣西	-9.21981
貫	-9.2213
十二月	-9.2231
事也	-9.2236
舞	-9.22412
雅	-9.22431
或曰	-9.22485
洪水	-9.22494
取其	-9.2257
報	-9.22639
所出	-9.22704
漢水	-9.22768
不在	-9.22952
甘	-9.23053
者盖	-9.23057
廸	-9.23171
之大	-9.23254
徵	-9.23404
多士	-9.23432
斯民	-9.235
㣲	-9.23529
音釋經	-9.23535
歎	-9.23666
忘	-9.23801
翼	-9.23806
約	-9.2383
孟	-9.24012
集說	-9.24343
康誥	-9.24438
津	-9.24442
負	-9.24567
國家	-9.2488
東西	-9.2488
唐虞	-9.24905
泰	-9.24985
侮	-9.25079
茲	-9.25101
孰	-9.25128
太史	-9.25188
閒	-9.25261
領	-9.25311
成功	-9.25339
供	-9.25399
小子	-9.25429
鼓	-9.25474
烈	-9.25517
之本	-9.25597
之位	-9.25626
介	-9.25686
佐	-9.25756
不用	-9.2578
房	-9.25843
冢宰	-9.25964
張氏曰	-9.26153
背	-9.26285
山在	-9.26307
百工	-9.26322
冠	-9.26329
析	-9.26562
準	-9.26714
庶幾	-9.2677
大誥	-9.26784
此書	-9.26841
仰	-9.27102
第	-9.27133
不見	-9.27165
遽	-9.27244
誰	-9.27262
是為	-9.27275
趙	-9.27322
咨	-9.27524
賢者	-9.27645
刑罰	-9.27821
稷	-9.27833
祝	-9.27848
候	-9.27849
黨	-9.27859
頑	-9.27875
淮夷	-9.27922
而非	-9.27927
亦曰	-9.27972
所載	-9.28025
不善	-9.28108
洛誥	-9.28139
繫	-9.28214
沔	-9.28406
庭	-9.28417
失其	-9.28457
奪	-9.28671
之語	-9.287
積石	-9.2883
境	-9.28903
不相	-9.28913
梁州	-9.2898
惟其	-9.29105
啟	-9.29246
到	-9.2925
慢	-9.29271
自有	-9.29371
懋	-9.29473
蜀	-9.29482
緩	-9.29651
韓	-9.29722
不為	-9.29815
維	-9.29919
短	-9.29919
可也	-9.30042
哀	-9.30116
九疇	-9.30277
試	-9.30298
黜	-9.30477
用刑	-9.30505
王曰	-9.30843
以來	-9.30966
效	-9.31019
險	-9.31104
龍門	-9.31114
討	-9.31224
以上	-9.31476
傅説	-9.31535
機	-9.3161
有罪	-9.31612
之北	-9.31634
可知矣	-9.31666
恃	-9.31709
慕	-9.31715
欽定四庫全書	-9.3188
補	-9.31902
然而	-9.31907
當以	-9.31998
集説	-9.32077
弼	-9.32147
受之	-9.32242
愆	-9.32359
地名	-9.32365
弱水	-9.32477
寜	-9.3248
穆	-9.32514
二月	-9.32544
部	-9.32561
萬邦	-9.32718
黒	-9.32742
京師	-9.32767
傳云	-9.32815
之西	-9.32816
武成	-9.32954
遜	-9.32972
擊	-9.33105
泗	-9.33195
無非	-9.33324
忍	-9.33373
御事	-9.33381
皮	-9.33439
震	-9.33441
今文	-9.33453
千里	-9.33503
萬世	-9.33579
一名	-9.33641
愚謂	-9.33677
聖人之	-9.33736
𩔖	-9.33741
治民	-9.3376
故其	-9.33902
不敬	-9.34021
羿	-9.34169
罔不	-9.34497
蘇氏	-9.34509
縣東	-9.34521
不通	-9.3454
河水	-9.34647
教之	-9.34676
矢	-9.34677
免	-9.34698
國之	-9.34699
則知	-9.347
攸	-9.34828
鮮	-9.3491
釐	-9.34947
朝廷	-9.34994
稍	-9.35003
迹	-9.35028
輕重	-9.35039
在上	-9.35077
温	-9.35265
看	-9.35274
則曰	-9.353
也自	-9.35567
假	-9.35627
乎此	-9.35753
貞	-9.35792
於上	-9.35858
亦無	-9.3631
桑	-9.36314
二十	-9.36393
天子之	-9.36435
禮記	-9.36502
大陸	-9.3656
一也	-9.36571
無窮	-9.36605
於天下	-9.36634
恩	-9.36684
較	-9.36734
不從	-9.36802
有以	-9.36851
不忍	-9.36873
暨	-9.3697
其間	-9.36993
斂	-9.37128
限	-9.37176
衍	-9.37177
者為	-9.37302
商民	-9.3756
皆在	-9.37594
明矣	-9.37636
其德	-9.37638
于民	-9.37786
之實	-9.37811
君牙	-9.37902
墨	-9.37921
殆	-9.37995
五福	-9.38186
亦惟	-9.38192
伯夷	-9.38212
洪	-9.38314
其文	-9.38349
為主	-9.38393
此章	-9.38393
戮	-9.38414
十三	-9.38436
縣東北	-9.38501
桓	-9.38549
得之	-9.38553
岷山	-9.38598
之東	-9.38642
没	-9.3872
賴	-9.38815
此則	-9.3884
矜	-9.38841
支	-9.38844
費	-9.38917
丗	-9.39032
之道也	-9.39276
兄弟	-9.39301
當在	-9.39332
者惟	-9.3956
蕩	-9.396
安民	-9.39638
聖賢	-9.39652
其人	-9.39664
隱	-9.39796
辯	-9.398
隂陽	-9.39885
巧	-9.40035
夾	-9.40088
也盖	-9.40185
榖	-9.40284
於人	-9.40321
天理	-9.40431
人情	-9.40472
豫州	-9.40547
強	-9.40696
充	-9.40797
嶺	-9.40808
及其	-9.40906
則必	-9.40919
不易	-9.41053
鄭氏	-9.41171
基	-9.41213
則民	-9.41218
不足以	-9.41273
入江	-9.41278
之制	-9.41306
徧	-9.41384
蹈	-9.41393
三十	-9.41441
豈非	-9.4152
為君	-9.41541
竒	-9.41577
禄	-9.41583
便是	-9.41723
書序	-9.41777
頭	-9.41791
吏	-9.41828
兖州	-9.41889
奔	-9.41893
續	-9.41988
安得	-9.42037
蠻	-9.42041
嚮	-9.42245
以成	-9.42433
割	-9.42486
猶有	-9.42543
寅	-9.42576
一時	-9.42669
則又	-9.42712
謬	-9.42713
贊	-9.42715
缺	-9.42737
而能	-9.42751
道也	-9.42858
青州	-9.42907
入于	-9.42937
為天子	-9.43113
岳	-9.43155
材	-9.43256
其能	-9.43345
姦	-9.43406
此所以	-9.4349
王氏曰	-9.43532
竊	-9.43612
嗣王	-9.43622
侵	-9.43664
虎	-9.43666
甸	-9.43761
席	-9.43855
正義	-9.43958
知人	-9.44092
善惡	-9.44115
綏	-9.44187
耕	-9.44196
其道	-9.44234
其職	-9.4429
孔安國	-9.44596
諸侯之	-9.44602
藝	-9.44653
亦以	-9.44692
之患	-9.44726
有功	-9.44742
戒之	-9.44749
昧	-9.44773
冒	-9.44789
増	-9.44908
亦是	-9.44961
盤	-9.45023
奠	-9.45032
岐	-9.45135
不如	-9.45329
益稷	-9.45347
又東	-9.45353
地理志	-9.45393
緫	-9.45393
狂	-9.45419
忌	-9.45511
洛書	-9.45698
怪	-9.45715
囚	-9.45788
其餘	-9.4586
屢	-9.45931
十六	-9.4596
隋	-9.46128
屈	-9.46129
帝曰	-9.46292
五十	-9.46294
之責	-9.46331
九年	-9.46373
不至	-9.46398
濬	-9.46428
自是	-9.46458
使人	-9.46547
遊	-9.46653
彊	-9.46671
素	-9.46683
陰	-9.46756
謙	-9.46997
人事	-9.47008
倚	-9.47125
而不能	-9.47169
平王	-9.47194
有二	-9.47214
烏	-9.47262
以至	-9.47326
偶	-9.4743
下流	-9.47494
溝	-9.47638
熟	-9.47667
自古	-9.4775
秉	-9.47805
不盡	-9.47855
鄭𤣥	-9.47875
社稷	-9.47893
彰	-9.47911
可畏	-9.4792
從而	-9.4793
二公	-9.48004
側	-9.48157
不合	-9.48166
新邑	-9.48191
一事	-9.48213
者言	-9.48291
之謂也	-9.48304
𢎞	-9.48354
内外	-9.48491
勇	-9.48579
此說	-9.48709
之日	-9.48709
之物	-9.48723
在此	-9.48759
不待	-9.48816
晦	-9.48826
東征	-9.48837
黄河	-9.48866
所云	-9.48951
倫	-9.49031
而不知	-9.49061
毎	-9.49093
撰	-9.49095
陽縣	-9.49223
第一	-9.49335
吉凶	-9.4935
其說	-9.49423
因其	-9.49504
調	-9.49508
宥	-9.49513
玩	-9.49559
空	-9.49672
域	-9.49673
得以	-9.49723
用人	-9.4974
共工	-9.4984
其國	-9.49909
之士	-9.49954
遵	-9.4999
杜	-9.50012
閏	-9.50079
此又	-9.5008
者乎	-9.501
九州之	-9.50118
江水	-9.5013
甫	-9.50192
單	-9.50246
困	-9.50277
之勢	-9.50399
也然則	-9.5043
水之	-9.50476
鄭云	-9.50494
託	-9.50525
爭	-9.50575
法也	-9.50595
池	-9.50602
獲	-9.50628
相去	-9.50666
尾	-9.50673
黄帝	-9.50687
績	-9.50706
之序	-9.50728
不容	-9.50782
贖	-9.50811
防	-9.5088
二人	-9.50901
亦非	-9.50924
徑	-9.51073
禾	-9.51211
隆	-9.5128
三徳	-9.51343
戾	-9.5137
天地之	-9.51418
稼穡	-9.5152
擾	-9.51566
虞書	-9.5159
角	-9.51623
入於	-9.51634
葛	-9.51729
隠	-9.51773
卽	-9.51797
草木	-9.51834
召誥	-9.51851
淺	-9.51939
三百	-9.51956
箋	-9.52003
逾	-9.52007
豈可	-9.52044
孟津	-9.52087
武帝	-9.52099
在天	-9.5211
有夏	-9.52163
所在	-9.52234
后稷	-9.52346
懲	-9.5236
十三年	-9.52483
不順	-9.52497
觀之	-9.52515
又以	-9.52536
渡	-9.52552
壊	-9.52557
臣民	-9.52617
三篇	-9.52628
以後	-9.52653
堅	-9.52712
傳曰	-9.5278
天意	-9.52808
其辭	-9.53006
王若曰	-9.53033
訖	-9.53066
終始	-9.53112
之辭也	-9.5314
固有	-9.53171
俊	-9.53205
綱	-9.5323
未知	-9.53282
有徳	-9.5329
漳	-9.53455
正直	-9.53456
合於	-9.53524
鳥獸	-9.53545
治天下	-9.53604
一月	-9.53659
佑	-9.5366
派	-9.53673
伯禽	-9.53675
人所	-9.5376
禮樂	-9.53844
臣下	-9.53848
曉	-9.53882
覺	-9.53901
文武之	-9.53969
汴	-9.54039
仲虺	-9.5407
厲	-9.54074
百揆	-9.54083
不得不	-9.54105
逐	-9.54197
其可	-9.54224
之主	-9.54228
而已矣	-9.54296
縣西北	-9.54343
即此	-9.54362
㣲子	-9.54398
三宅	-9.54401
五紀	-9.54521
之處	-9.54532
者有	-9.54633
磬	-9.54774
京	-9.5479
荅	-9.54832
誕	-9.54846
我之	-9.55018
之變	-9.55041
浸	-9.55103
這	-9.55318
絲	-9.55404
祠	-9.55405
鳴	-9.55431
仲康	-9.5545
箇	-9.55513
縁	-9.55591
金縢	-9.55624
聰	-9.55645
財	-9.55649
其為	-9.55766
講	-9.55776
流沙	-9.55789
殺之	-9.55853
臺	-9.55864
四國	-9.55918
三監	-9.56443
盈	-9.56481
躬	-9.56641
逸豫	-9.56678
無所不	-9.56685
縣西南	-9.56744
一曰	-9.56755
河北	-9.56785
彞	-9.56894
貝	-9.57006
斗	-9.57113
荆山	-9.57218
此皆	-9.57397
㡬	-9.57417
夔	-9.57471
有司	-9.5763
史臣	-9.57659
履	-9.57705
舎	-9.57763
尸	-9.57767
索	-9.57796
逺近	-9.57851
在下	-9.57858
甲子	-9.57865
皐陶	-9.57946
之極	-9.57971
賊	-9.58243
征伐	-9.58243
之用	-9.58348
言我	-9.58352
左氏	-9.58374
伐紂	-9.58453
損	-9.58463
周家	-9.58477
為惡	-9.58543
八政	-9.58554
則無	-9.58597
陳氏	-9.58723
題	-9.58793
震澤	-9.58861
地志	-9.58921
三百里	-9.5905
累	-9.5905
繹	-9.59107
去聲	-9.59135
墜	-9.59235
觧	-9.59327
縣界	-9.59336
振	-9.59348
破	-9.5935
新安陳氏曰	-9.59498
漆	-9.596
一徳	-9.59649
淵	-9.59652
沮	-9.59715
階	-9.59733
猶言	-9.59752
箕	-9.59763
大小	-9.59841
徐州	-9.59854
以告	-9.59894
邦國	-9.59971
有一	-9.60005
丈	-9.60019
使民	-9.601
頗	-9.60194
逕	-9.60223
妻	-9.6025
鄰	-9.60293
曠	-9.60408
日新	-9.60426
壞	-9.60441
毋	-9.6046
或問	-9.6047
黑水	-9.60533
也又	-9.6056
西土	-9.60596
導之	-9.60634
大禹	-9.60634
又言	-9.60648
賛	-9.60684
密	-9.60704
傅	-9.60754
帥	-9.60781
亦可	-9.60871
符	-9.61011
東流	-9.61027
清河	-9.61295
孚	-9.61354
帝堯	-9.61369
倍	-9.61516
桐	-9.61524
秩	-9.6154
即今	-9.61547
南方	-9.61593
滿	-9.61612
者葢	-9.6169
殺人	-9.61718
不肯	-9.6177
毁	-9.61826
是時	-9.61997
六年	-9.62006
遲	-9.62088
則不	-9.6209
伊	-9.62095
帝王	-9.62238
其勢	-9.62319
僅	-9.62338
西傾	-9.62368
苗	-9.62409
必以	-9.62542
大命	-9.62566
的	-9.62615
故稱	-9.62689
子曰	-9.62747
故能	-9.6289
照	-9.62895
陂	-9.6293
想	-9.62954
陟	-9.6306
非是	-9.63118
薦	-9.63172
筮	-9.63368
幼	-9.63375
先言	-9.63465
不服	-9.63714
緯	-9.63762
市	-9.63773
有天下	-9.63935
有常	-9.6395
不若	-9.64103
論語	-9.64147
紹	-9.64234
四月	-9.64309
竄	-9.6431
繁	-9.64316
厎	-9.64355
襲	-9.64355
一心	-9.64393
静	-9.64421
此意	-9.64451
一身	-9.6449
人臣	-9.64605
獸	-9.64605
予一人	-9.64621
之氣	-9.64623
辛	-9.64809
而復	-9.64964
何也	-9.64988
、	-9.64989
猶未	-9.65032
無以	-9.6504
係	-9.65092
滎	-9.65108
大江	-9.6513
以明	-9.65167
君奭	-9.65258
書傳	-9.65301
亭	-9.65327
之體	-9.65442
刑之	-9.65487
風俗	-9.65496
貳	-9.65626
黑	-9.65711
泥	-9.65735
僭	-9.65741
然也	-9.65758
禪	-9.65895
陶	-9.65931
儒	-9.66038
諸儒	-9.66106
篚	-9.6611
而成	-9.66258
遏	-9.663
預	-9.663
沒	-9.66333
以正	-9.66553
悟	-9.66557
其名	-9.66564
貪	-9.66565
粟	-9.66597
欺	-9.66603
熙	-9.66608
之子	-9.66654
冕	-9.66762
事之	-9.66915
崑崙	-9.66928
此所謂	-9.67004
者所以	-9.6704
三苗	-9.67071
徳者	-9.67079
十二年	-9.67147
亦當	-9.67149
為民	-9.67269
一句	-9.67318
何所	-9.67372
而行之	-9.67401
之任	-9.67432
寵	-9.67483
三事	-9.67489
拘	-9.67507
之失	-9.67511
丁	-9.67514
所行	-9.67531
夏之	-9.67541
勑	-9.6761
其上	-9.6767
事而	-9.67698
規	-9.67726
汝當	-9.67737
頑民	-9.67757
併	-9.67776
縣東南	-9.67829
三王	-9.6793
之情	-9.67967
即是	-9.68059
庻	-9.68105
洞庭	-9.68133
驕	-9.68157
若是	-9.68197
大禹謨	-9.68227
夏書	-9.68272
舒	-9.68407
竟	-9.68462
之效	-9.68521
有餘	-9.68551
徽	-9.68619
自此	-9.6863
截	-9.68696
詩曰	-9.6875
卿大夫	-9.68773
育	-9.68913
無常	-9.68922
灌	-9.69014
無事	-9.69233
矣而	-9.69258
落	-9.69271
之山	-9.69292
三危	-9.69355
以前	-9.6941
之長	-9.69453
故知	-9.69496
祖考	-9.69532
緒	-9.69543
倡	-9.69563
詞	-9.69565
鐵	-9.69603
王肅	-9.69607
根	-9.69691
聼	-9.69827
而不可	-9.69831
黙	-9.69852
壺口	-9.69861
唐孔氏	-9.70091
宻	-9.70122
賈	-9.70154
父子	-9.7024
之志	-9.70282
東至	-9.70369
大河	-9.70432
隄	-9.7046
甸服	-9.70567
好惡	-9.70584
讎	-9.70599
此州	-9.70673
三十里	-9.70708
觀其	-9.7071
委	-9.7086
七十	-9.70966
人皆	-9.71013
葬	-9.71041
鄭康成	-9.71062
嶓冢	-9.71099
愚按	-9.71138
此亦	-9.71151
消	-9.71274
城縣	-9.71283
而用之	-9.71317
圗	-9.71353
該	-9.71356
編	-9.71393
賤	-9.71449
班固	-9.71483
傳言	-9.71586
於下	-9.71601
裕	-9.71603
此事	-9.71607
涉	-9.71672
一度	-9.71724
㒺	-9.71744
詩云	-9.71749
吕刑	-9.71843
水患	-9.71885
成王之	-9.71955
姦宄	-9.71995
者乃	-9.72003
曾	-9.7205
其一	-9.72067
其有	-9.72194
一節	-9.72194
道心	-9.72247
徳也	-9.72262
太子	-9.72325
使其	-9.72498
彝	-9.72535
此一節書是	-9.72586
可不	-9.72596
雉	-9.72616
傅說	-9.72634
東郊	-9.72643
舉其	-9.72705
嘆	-9.72734
水經注	-9.72751
十一	-9.7277
互	-9.72819
而行	-9.72923
明德	-9.73127
而不敢	-9.73149
之論	-9.73201
苗民	-9.73267
非特	-9.73417
孟子曰	-9.73499
祖乙	-9.7353
之要	-9.73547
泰山	-9.73595
沈	-9.73765
耿	-9.73813
縣有	-9.73841
生於	-9.73857
斥	-9.7386
靜	-9.73884
林氏之竒曰	-9.73893
或有	-9.74147
婦	-9.7416
錄	-9.74162
冊	-9.74173
未能	-9.74204
之次	-9.74206
者不	-9.74249
漯	-9.74274
重言	-9.74299
歸之	-9.74452
塗	-9.74481
我周	-9.74573
敏	-9.74579
太原	-9.74634
扶	-9.7477
楊	-9.74774
邊	-9.74793
而言之	-9.74841
溪	-9.74854
萬民	-9.74861
選	-9.74998
澧	-9.75013
蒲	-9.75043
創	-9.75083
之治	-9.75113
予小子	-9.75126
禹治水	-9.75128
牲	-9.75134
而立	-9.75205
上言	-9.75239
書曰	-9.75285
之刑	-9.75381
管蔡	-9.75409
之性	-9.75412
岸	-9.75478
安能	-9.75487
始終	-9.75578
則可以	-9.75579
測	-9.7563
踐	-9.75648
竝	-9.75758
痛	-9.75855
不成	-9.76003
次第	-9.76024
榮	-9.76062
銅	-9.76067
比干	-9.76072
歸於	-9.7608
與夫	-9.76113
程	-9.76172
帝舜	-9.76176
增	-9.76361
典禮	-9.76399
於王	-9.76479
疆	-9.76493
阿	-9.76517
之訓	-9.76559
其時	-9.76583
不安	-9.76627
術	-9.76654
溺	-9.76675
不欲	-9.76683
國語	-9.76728
恐其	-9.76766
得人	-9.76884
四夷	-9.76982
告之	-9.77067
林氏	-9.77109
漆沮	-9.77162
天威	-9.77162
瑞	-9.77231
究	-9.77249
繩	-9.77335
嗟	-9.77415
丹	-9.77468
做	-9.77489
武丁	-9.77497
十五	-9.77558
利害	-9.77581
沃	-9.77648
無罪	-9.77727
伐之	-9.77731
臯	-9.77875
出入	-9.77899
非也	-9.77916
戴	-9.77959
者如此	-9.78031
之徒	-9.78063
帝都	-9.78077
步	-9.78106
入渭	-9.78199
範	-9.78261
阻	-9.78339
夭	-9.78345
冇	-9.78347
不暇	-9.78419
不忘	-9.78424
悦	-9.78508
𫝑	-9.78622
傲	-9.78685
二者	-9.78693
太戊	-9.78731
不失	-9.78824
非一	-9.78842
提	-9.78889
巡	-9.78922
肇	-9.78956
畜	-9.78963
書之	-9.78967
暴虐	-9.78968
之美	-9.79002
匯	-9.79019
六十	-9.79163
佞	-9.7918
其子	-9.79196
八年	-9.79235
付	-9.79342
之衆	-9.79376
為大	-9.79498
遂以	-9.79558
輸	-9.79625
上篇	-9.79629
不恭	-9.79682
耳目	-9.79724
十一年	-9.79747
教化	-9.79755
沱	-9.79791
曹	-9.79865
邦君	-9.79907
環	-9.79923
既言	-9.80053
也又曰	-9.80222
鄙	-9.80248
此乃	-9.80276
齋	-9.80319
為天下	-9.80382
所居	-9.80414
東方	-9.80476
雲夢	-9.80529
羙	-9.80629
元和志	-9.80653
俞	-9.80656
不惟	-9.80707
滙	-9.80723
義理	-9.80733
憲	-9.8081
所為	-9.80864
隔	-9.80895
者以其	-9.80955
羣后	-9.81011
于上	-9.81053
而民	-9.81117
涇	-9.81137
必先	-9.81336
蠻夷	-9.81352
警	-9.81418
壇	-9.81457
而天下	-9.81541
黃	-9.81581
之難	-9.81706
嶽	-9.81712
夏氏曰	-9.8174
衡山	-9.81872
惜	-9.81938
賢人	-9.81941
説文	-9.81942
㫖	-9.81955
奚	-9.81957
之業	-9.81996
於我	-9.82098
洛水	-9.82102
狄	-9.82145
太公	-9.82182
染	-9.82226
河圖	-9.82251
故道	-9.82432
嫌	-9.82435
非謂	-9.82438
同心	-9.82439
告以	-9.82485
順之	-9.8251
若此	-9.82546
衆人	-9.82564
萌	-9.82639
當作	-9.82683
遷都	-9.82689
之始	-9.82714
煩	-9.8279
可見矣	-9.82803
罪人	-9.82828
墳	-9.82942
裳	-9.8298
屏	-9.82984
此其	-9.83056
未盡	-9.83214
韻	-9.83243
淮泗	-9.83372
酒誥	-9.83486
稱王	-9.83506
卜之	-9.83531
前人	-9.83562
止於	-9.83564
五者	-9.83564
也葢	-9.83587
河東	-9.83588
争	-9.83649
儉	-9.8365
回	-9.8371
宗周	-9.83789
云云	-9.83796
克艱	-9.83807
大事	-9.83814
二州	-9.83818
幸	-9.83821
也周公	-9.8385
道理	-9.83899
蔡叔	-9.83942
不出	-9.83944
弔	-9.83981
神明	-9.84093
祖甲	-9.84099
九族	-9.84169
亦然	-9.84188
;	-9.84433
滎澤	-9.84459
冬至	-9.8473
矣夫	-9.84868
故城	-9.84947
禱	-9.85058
祈	-9.85072
本於	-9.85097
皆可	-9.8513
廣大	-9.85156
失之	-9.85264
歩	-9.85276
國名	-9.85345
天之所	-9.85348
鎬京	-9.85386
田賦	-9.85393
不常	-9.85424
奔走	-9.85443
樹	-9.85444
為政	-9.855
無疑	-9.85552
文字	-9.85572
邇	-9.85662
彛	-9.85687
化之	-9.8571
取之	-9.85756
弓	-9.8578
游	-9.85781
畿内	-9.85807
鹽	-9.85821
商書	-9.85962
西方	-9.8599
第二	-9.85998
詢	-9.86041
長短	-9.86047
毒	-9.86053
括	-9.86062
歛	-9.86105
歴年	-9.86107
天時	-9.86114
跨	-9.86115
當然	-9.86121
𨽻	-9.86121
!	-9.86131
齒	-9.86137
于王	-9.86141
所見	-9.8616
巡守	-9.8617
西河	-9.86236
太平	-9.8624
渾	-9.86249
十里	-9.8635
見于	-9.86363
三分	-9.8637
玄	-9.86402
伊訓	-9.86453
管叔	-9.86472
兆民	-9.86502
抵	-9.86516
誅之	-9.86559
悔過	-9.8657
祇	-9.86672
未可	-9.8668
於外	-9.86705
逃	-9.86725
有大	-9.8673
虛	-9.86788
善也	-9.86794
皇天	-9.86819
烝	-9.86839
拜手稽首	-9.86912
從之	-9.87037
鍾	-9.87128
戊午	-9.87178
道之	-9.87214
者即	-9.87257
同姓	-9.87287
傳正義曰	-9.87393
五十里	-9.87399
于下	-9.8743
視聽	-9.87453
不行	-9.87467
志云	-9.87467
乖	-9.87481
則當	-9.87502
激	-9.87537
亦猶	-9.87538
几	-9.87539
蓄	-9.87543
菏	-9.87616
珠	-9.87638
䇿	-9.87642
稽疑	-9.87643
平地	-9.87659
曽	-9.87719
不特	-9.87749
迫	-9.87751
者是	-9.87768
知所	-9.87806
随	-9.87865
淪	-9.87884
寸	-9.87892
大學	-9.87893
優	-9.87897
二百	-9.879
其終	-9.87917
璧	-9.87923
殘	-9.88048
侯服	-9.88088
願	-9.88235
厭	-9.88282
者矣	-9.88518
勤勞	-9.88523
天降	-9.88525
所作	-9.88541
訪	-9.88575
致其	-9.88599
庶徴	-9.8864
訛	-9.88644
始於	-9.88675
之大者	-9.88751
賞罰	-9.88787
王畿	-9.88816
之年	-9.88958
鄭氏曰	-9.88959
乙	-9.88982
朝夕	-9.89032
無一	-9.89041
尋	-9.89068
凖	-9.89093
征之	-9.89138
與天	-9.89298
至是	-9.89342
無敢	-9.89363
枝	-9.89424
以求	-9.89501
三日	-9.89543
盧	-9.89629
巫	-9.89631
輯	-9.8968
天之命	-9.8969
酉	-9.89704
馨香	-9.89705
沿	-9.89772
尊卑	-9.89782
前日	-9.89801
天心	-9.89847
漢儒	-9.89888
二篇	-9.89893
安危	-9.89975
庶邦	-9.89981
侈	-9.9
功成	-9.90007
諸家	-9.90048
人也	-9.90062
羞	-9.90071
減	-9.90097
常道	-9.90161
僕	-9.90162
厯數	-9.90196
推之	-9.90273
鼎	-9.90282
享國	-9.9031
熈	-9.90364
在于	-9.90444
禦	-9.90465
前後	-9.90482
以示	-9.9051
博士	-9.90519
渭按	-9.90567
善者	-9.90574
豫章	-9.9058
是謂	-9.90589
聦明	-9.90596
盡其	-9.90606
之正	-9.90705
校	-9.90715
文祖	-9.90739
入淮	-9.90765
譽	-9.90784
徇	-9.9079
歸于	-9.90831
羌	-9.90878
二百里	-9.90887
逸樂	-9.90893
班	-9.90897
篇首	-9.90931
左傳云	-9.91008
靡	-9.91023
徳而	-9.91067
至誠	-9.91077
乃有	-9.91082
冢	-9.91085
之謀	-9.91107
輯録	-9.91148
露	-9.91175
也既	-9.91176
為治	-9.91185
治也	-9.91231
頌	-9.91301
愧	-9.91332
驅	-9.91377
欲使	-9.9144
典常	-9.9145
不正	-9.91582
汾	-9.91592
丹朱	-9.91786
其性	-9.91787
逮	-9.91887
皆為	-9.91919
則非	-9.91958
而歸	-9.91961
眞	-9.91962
濁	-9.91985
飲酒	-9.92101
十四	-9.92118
王城	-9.92178
㑹于	-9.92225
相應	-9.92233
慈	-9.92263
。」	-9.92338
地理	-9.92382
陳氏經曰	-9.92481
三者	-9.92514
君道	-9.92522
此時	-9.9263
刺	-9.92653
以治	-9.92701
本末	-9.92736
在人	-9.92756
言之則	-9.92759
臣之	-9.92879
湯誓	-9.92891
惟恐	-9.92909
民皆	-9.92927
無間	-9.92941
輔相	-9.92959
徂	-9.93039
此經	-9.93067
其本	-9.93122
之稱	-9.93122
之利	-9.9313
十八	-9.93146
也如	-9.93244
人君之	-9.9325
騐	-9.93359
午	-9.93394
誣	-9.93396
諱	-9.93404
仇	-9.93459
孔氏穎達曰	-9.93478
亦云	-9.93502
豈能	-9.93535
其命	-9.9356
下同	-9.93572
分為	-9.93576
誘	-9.93633
庶人	-9.93728
無道	-9.93792
五行之	-9.93796
沂	-9.93862
互相	-9.93998
波	-9.94019
流言	-9.94139
者如	-9.94145
殖	-9.94155
修身	-9.94161
堯舜之	-9.94163
熊耳	-9.94166
梓材	-9.94183
渉	-9.94207
今我	-9.94213
雷	-9.94331
首尾	-9.94405
分明	-9.94477
孔疏	-9.94545
殯	-9.94553
蕃	-9.94569
植	-9.94573
毖	-9.9462
而作	-9.94645
心之	-9.94647
東萊	-9.9477
早	-9.94886
祖父	-9.94905
郭	-9.94905
靖	-9.94945
亦未	-9.95026
五日	-9.95059
之盛	-9.95059
俟	-9.95138
四十	-9.9516
告戒	-9.95241
之域	-9.95273
其臣	-9.95337
之行	-9.95339
殄	-9.9535
削	-9.9538
洲	-9.95445
五典	-9.95468
也吕氏曰	-9.95516
縣地	-9.95547
真氏曰	-9.95563
為正	-9.95729
商家	-9.95729
所引	-9.95739
給	-9.95744
私意	-9.95747
悖	-9.95775
重意	-9.9578
工夫	-9.95973
有苗	-9.96005
狹	-9.96015
疏云	-9.96055
檢	-9.96104
䝉	-9.96122
淳	-9.96123
未嘗不	-9.96237
在我	-9.963
諧	-9.96365
畿	-9.96439
又謂	-9.96444
邱	-9.96471
曰我	-9.96513
宮	-9.96518
而為之	-9.9654
穆公	-9.96591
周公既	-9.96694
跡	-9.96704
䟽	-9.96725
未詳	-9.96732
户	-9.96739
記曰	-9.96776
故又	-9.96842
隅	-9.96846
行事	-9.96847
也周禮	-9.96865
贄	-9.96883
于天下	-9.97007
顔	-9.9705
莊	-9.97071
孔子曰	-9.97091
我一人	-9.97157
所用	-9.97226
宰	-9.97245
含	-9.97302
衝	-9.97305
銀	-9.97347
知此	-9.97431
董	-9.97547
整	-9.97552
于洛	-9.97619
一百	-9.97626
恥	-9.97629
彭	-9.97667
柄	-9.9767
不知其	-9.97679
六極	-9.97691
作書	-9.9771
畀	-9.97797
天人	-9.97834
際	-9.98015
河之	-9.98051
二曰	-9.98269
禹時	-9.98279
所得	-9.98307
江南	-9.98322
今按	-9.98344
之禍	-9.98473
之服	-9.98482
壁	-9.98484
甘盤	-9.98514
音釋	-9.98517
爽	-9.98529
堪	-9.98546
廬	-9.98658
因以	-9.98699
休美	-9.98714
皆言	-9.98714
誨	-9.98727
十年	-9.98774
言天	-9.98782
之妙	-9.98829
非天	-9.98837
恊	-9.98864
倉	-9.98903
山東	-9.98933
六日	-9.99031
汭	-9.99078
精神	-9.99089
之末	-9.99099
故為	-9.99116
一旦	-9.99127
者當	-9.99134
儆	-9.99181
中有	-9.99193
治亂	-9.99199
侍	-9.99205
七十里	-9.99213
范	-9.99287
土地	-9.99328
巴	-9.99337
古文尚書	-9.99377
而得	-9.99603
中正	-9.99606
蚩尤	-9.99666
人之所	-9.99673
日月星辰	-9.99694
攘	-9.99704
茅	-9.99715
羅	-9.99732
獒	-9.99746
無他	-9.99788
當從	-9.99823
其位	-9.99847
入于海	-9.99867
告汝	-9.99967
攷	-10.0001
三人	-10.0006
歐陽	-10.0007
闢	-10.0008
商人	-10.001
滋	-10.0011
筆	-10.0011
陳氏櫟曰	-10.0012
所以能	-10.0021
北流	-10.0027
蔡𫝊	-10.0028
又何	-10.003
不改	-10.0036
北方	-10.004
既已	-10.0061
將以	-10.0063
不可以不	-10.0064
也故曰	-10.0067
呂	-10.007
受其	-10.0076
常人	-10.0078
之言也	-10.0084
泛	-10.0084
旋	-10.0084
晝	-10.0087
五帝	-10.0089
裁	-10.0089
誓師	-10.0093
疎	-10.0094
洞	-10.0095
久矣	-10.0108
萬事	-10.0113
而東	-10.0114
如字	-10.0116
安定	-10.0118
焚	-10.0118
也王	-10.0125
司冦	-10.0128
濫	-10.0129
之分	-10.0131
敬徳	-10.0132
十七	-10.0133
天命之	-10.0134
其理	-10.0134
矧	-10.0136
妙	-10.0142
不已	-10.0151
所能	-10.0156
以道	-10.0156
蔡傳曰	-10.0157
見之	-10.0161
米	-10.0169
孜孜	-10.0172
諌	-10.0173
暘	-10.0175
皆然	-10.0178
漕	-10.018
號令	-10.0191
睦	-10.0206
小臣	-10.0211
龜筮	-10.0214
明白	-10.0215
吁	-10.0221
梁山	-10.0224
其大	-10.0226
雖不	-10.0227
其始	-10.0234
賢臣	-10.0237
惇	-10.0245
善政	-10.0245
奮	-10.0247
不遷	-10.0249
是非	-10.0252
四十里	-10.0254
天下之大	-10.0255
之樂	-10.0255
饗	-10.0257
正人	-10.0261
用此	-10.0265
應之	-10.0266
與此	-10.0274
之義也	-10.0276
所聞	-10.0285
要之	-10.029
王制	-10.0294
顓頊	-10.0297
湯誥	-10.03
其下	-10.0302
其情	-10.0307
蔡仲	-10.0311
他人	-10.0325
以謂	-10.0325
可以為	-10.0329
熊	-10.0332
宏	-10.0332
焉則	-10.0333
貢賦	-10.0334
之深	-10.0334
州府	-10.0339
星辰	-10.0347
馬融	-10.0353
𦙍	-10.0365
中道	-10.0367
祖宗	-10.0374
斬	-10.0375
屋	-10.0376
男	-10.0383
乃以	-10.0397
己之	-10.0405
亮	-10.0412
十一月	-10.0412
合流	-10.0415
徹	-10.0421
臭	-10.0422
虢	-10.0423
有三	-10.0425
之境	-10.043
之所在	-10.0435
經言	-10.0445
鄭𤣥云	-10.0446
漾	-10.0448
或以	-10.0452
踰	-10.0456
在外	-10.0457
䕫	-10.0461
四方之	-10.0461
送	-10.0462
滛	-10.0462
我所	-10.0466
鰥寡	-10.0467
即所謂	-10.0468
如是則	-10.0472
無可	-10.0474
又東北	-10.0475
以安	-10.0475
及於	-10.0476
而使	-10.0478
受天命	-10.0491
葉	-10.0499
王肅云	-10.05
廵守	-10.0506
之賢	-10.0507
従	-10.051
倒	-10.0511
一二	-10.0512
匪	-10.0512
有道	-10.0513
泗水	-10.0515
聖人之心	-10.0517
掩	-10.0518
費誓	-10.052
馬云	-10.0524
之學	-10.0528
未有不	-10.0533
非有	-10.0534
夏商	-10.0535
思之	-10.0541
之詞	-10.0544
苖	-10.0548
馭	-10.0548
辱	-10.0551
矯	-10.0551
迂	-10.0552
西伯	-10.056
惟時	-10.056
盛徳	-10.0565
既有	-10.0571
確	-10.0572
之害	-10.0574
一嵗	-10.0577
合于	-10.0583
祖伊	-10.0583
以自	-10.0586
不聞	-10.0588
竭	-10.0588
遭	-10.0591
紛	-10.0593
有過	-10.0599
人欲	-10.0604
河自	-10.0623
操	-10.0625
師保	-10.0625
相似	-10.0628
恵	-10.0636
五聲	-10.0638
王氏樵曰	-10.064
恭敬	-10.065
多矣	-10.0654
大法	-10.0655
釋文	-10.0656
由是	-10.0658
自取	-10.0661
籍	-10.0666
五色	-10.0667
十九	-10.067
旱	-10.0671
所掌	-10.0672
賁	-10.0679
則亦	-10.068
必不	-10.0682
之教	-10.0684
泲	-10.0685
然後可以	-10.0691
雖欲	-10.0691
五月	-10.0703
予惟	-10.0704
主於	-10.0704
物之	-10.0708
褒	-10.071
命汝	-10.071
魄	-10.0711
也且	-10.0717
厥徳	-10.072
然其	-10.0724
仁人	-10.0725
柱	-10.0726
繡	-10.0727
乃能	-10.073
又東北逕	-10.073
南河	-10.0732
之異	-10.0738
三卿	-10.0745
畢命	-10.0756
鐘	-10.0759
為二	-10.0761
求其	-10.0761
以徳	-10.0765
者是也	-10.0767
五子之歌	-10.0769
純一	-10.0772
則天下	-10.0777
其志	-10.0778
敷淺原	-10.0783
者又	-10.0783
牧誓	-10.0784
迷	-10.079
所陳	-10.0796
公卿	-10.0805
廹	-10.0808
巢	-10.0809
段	-10.0812
台	-10.0813
能使	-10.0821
織	-10.0827
先生	-10.0837
雒	-10.0841
矣今	-10.0843
西漢	-10.0846
德之	-10.0847
申言	-10.0849
属	-10.0854
投	-10.0856
潤	-10.0862
茂	-10.0864
營洛	-10.0865
司寇	-10.0866
宗伯	-10.0869
禍福	-10.087
之常	-10.0871
厥德	-10.0884
南海	-10.0888
亦不可	-10.0888
配天	-10.0891
今王	-10.0891
肯	-10.0892
明明	-10.0895
月令	-10.0898
瞽	-10.0898
股肱	-10.0899
坤	-10.0901
頼	-10.0901
而不言	-10.0902
乎天	-10.0908
松江	-10.0908
名也	-10.0916
修徳	-10.0917
第十	-10.0928
説者	-10.093
以致	-10.0937
招	-10.0944
釋詁文	-10.0944
此是	-10.0945
一體	-10.0948
能用	-10.0951
名曰	-10.0952
未至	-10.0953
炎	-10.0955
之首	-10.0955
不自	-10.0956
亦皆	-10.0961
衷	-10.0963
禋	-10.0967
亦如	-10.0971
在西	-10.0976
忱	-10.0977
洛陽	-10.0979
之𩔖	-10.0989
黼	-10.0989
萊	-10.099
障	-10.0991
壅	-10.0992
正朔	-10.1009
之子孫	-10.1015
濮	-10.1021
用兵	-10.1022
本漢	-10.1023
憚	-10.103
詰	-10.103
束	-10.1035
已有	-10.1039
我先王	-10.1039
而致	-10.1043
有辭	-10.1048
不止	-10.1051
相傳	-10.1058
聞之	-10.1062
惟天	-10.1063
孔𫝊	-10.1064
羲	-10.1067
此下	-10.1068
慰	-10.1068
皆不	-10.1074
以待	-10.1074
讐	-10.1075
汝之	-10.1076
貎	-10.1077
夲	-10.1078
鹿	-10.1081
不克	-10.1082
二三	-10.1085
輅	-10.1089
五百	-10.1092
品	-10.1103
蓋以	-10.1103
導山	-10.1107
於周	-10.1109
之戒	-10.111
庚	-10.1111
史記作	-10.1111
纔	-10.1117
二句	-10.112
佚	-10.1122
潔	-10.1122
言語	-10.1123
亞	-10.1126
恒山	-10.1127
則能	-10.113
水火	-10.1131
天下之民	-10.1134
霍	-10.1135
有德	-10.1136
曲直	-10.1136
惟當	-10.1141
日食	-10.1148
我惟	-10.1152
方且	-10.1158
則可	-10.1159
一言	-10.1164
嵎夷	-10.1168
閉	-10.1169
王氏炎曰	-10.117
所宜	-10.1176
用也	-10.1177
入于河	-10.1178
故先	-10.119
匡	-10.1191
乃心	-10.1197
中星	-10.1205
大伾	-10.1206
之師	-10.1206
四凶	-10.1214
彌	-10.1214
:「	-10.1218
三千	-10.122
攝政	-10.1221
施功	-10.1222
遼東	-10.1222
甚矣	-10.1224
鳥鼠	-10.1224
治道	-10.123
風雨	-10.1231
公之	-10.1234
於君	-10.1245
此理	-10.1246
亦必	-10.1251
乃命	-10.1251
事者	-10.1254
惰	-10.1255
穴	-10.1256
寓	-10.126
漳水	-10.126
鎬	-10.1261
亥	-10.1262
當是	-10.1262
遯	-10.1262
或謂	-10.1264
太史公	-10.1265
六府	-10.1266
逺矣	-10.1269
匹	-10.1271
又當	-10.1272
産	-10.1273
萬里	-10.1283
不獨	-10.1284
王道	-10.1285
藉	-10.1299
五人	-10.1299
自謂	-10.1299
吕氏	-10.1302
無異	-10.1302
罔有	-10.1305
誦	-10.1307
敬德	-10.1307
可知也	-10.1309
者此	-10.1311
畎	-10.1316
欽哉	-10.1323
名篇	-10.1323
次之	-10.1323
無過	-10.1331
冡宰	-10.135
爰	-10.135
周召	-10.1351
凝	-10.1351
墓	-10.1352
恕	-10.1355
忠厚	-10.1355
饒	-10.1357
也按	-10.1358
恱	-10.1365
周公以	-10.137
而南	-10.1371
至矣	-10.1375
渭水	-10.1377
三德	-10.1381
以敬	-10.1384
徳則	-10.1385
世之	-10.1387
公曰	-10.1388
之私	-10.1393
湯武	-10.1394
合為一	-10.1394
初無	-10.1396
峻	-10.1396
睿	-10.1397
此即	-10.1399
笙	-10.1403
絺	-10.1403
之差	-10.1405
鄭玄	-10.1405
長安	-10.141
戒其	-10.1411
王家	-10.1412
王朝	-10.1412
酈道元	-10.1421
而北	-10.1426
華山	-10.1431
此蓋	-10.1439
廵	-10.1442
堯時	-10.1443
拒	-10.1444
劓	-10.1445
本無	-10.1447
咈	-10.1447
能盡	-10.1448
元子	-10.1448
走	-10.1448
敬則	-10.1449
帝乙	-10.145
九徳	-10.145
皆非	-10.1461
山海經	-10.1465
猶可	-10.1467
豬	-10.1476
說命	-10.1477
制度	-10.1479
下云	-10.1482
順天	-10.1488
而巳	-10.1489
鈞	-10.1492
大水	-10.1499
視之	-10.1502
職方	-10.1507
之餘	-10.1519
我周家	-10.152
人者	-10.1522
攝位	-10.1528
勲	-10.1532
闇	-10.1534
其善	-10.1534
故周公	-10.1537
孺子	-10.1539
辜	-10.1542
無辜	-10.1543
建極	-10.1551
於其	-10.1557
以生	-10.1564
於其間	-10.1564
桀紂	-10.1568
其官	-10.1571
所經	-10.1573
太宗	-10.1577
而猶	-10.1577
也成王	-10.1579
欲以	-10.1579
九十	-10.1587
後漢	-10.1587
分别	-10.1592
邦之	-10.1592
三苖	-10.16
也凡	-10.1609
有不	-10.1611
之身	-10.1616
改過	-10.1619
君徳	-10.1622
曷	-10.1627
相通	-10.1628
渡河	-10.1632
軌	-10.1637
貧	-10.1637
道者	-10.1638
而終	-10.164
戰國	-10.1641
老成	-10.1647
夷狄	-10.1648
而入	-10.1649
遣	-10.1658
之源	-10.1667
隴	-10.1672
六十里	-10.1672
必當	-10.1672
所由	-10.1672
桀之	-10.1675
懸	-10.1683
懌	-10.1685
導水	-10.1696
理之	-10.1698
衆士	-10.1698
小人之	-10.1708
捨	-10.1712
南江	-10.1717
弊	-10.1718
任人	-10.1723
巨	-10.1727
湏	-10.1731
策	-10.1731
斧	-10.1732
馳	-10.1732
戈	-10.1733
其數	-10.1737
人而	-10.174
九疇之	-10.1742
臯陶謨	-10.1746
諄諄	-10.1747
於心	-10.175
太湖	-10.1756
乎其	-10.1766
皆當	-10.1772
五禮	-10.1774
未見	-10.1776
霸	-10.1778
何其	-10.1779
採	-10.1783
不義	-10.1784
養民	-10.1784
乃是	-10.1784
僻	-10.1787
河源	-10.179
中庸	-10.18
是故	-10.1801
甚明	-10.1802
東海	-10.1802
阜	-10.181
未敢	-10.182
髙祖	-10.1825
通典	-10.1826
言曰	-10.1829
次序	-10.183
牢	-10.1831
耆	-10.1838
上流	-10.1838
浦	-10.184
我小子	-10.1845
天位	-10.1849
羊	-10.1852
岐山	-10.1852
奉天	-10.1854
之甚	-10.1857
不違	-10.1857
逆河	-10.1858
感動	-10.1859
册	-10.1859
伐商	-10.1863
其不	-10.1864
傾	-10.1864
皇極之	-10.1865
異於	-10.1867
嶓冡	-10.1867
我民	-10.1869
勵	-10.1873
程子曰	-10.1874
圻	-10.1874
敦	-10.1877
所稱	-10.1878
靣	-10.1879
脊	-10.1881
枯	-10.1884
文侯	-10.1887
燠	-10.1894
周人	-10.1897
日之	-10.19
陜	-10.19
所欲	-10.1908
替	-10.1908
薛	-10.1916
暗	-10.1921
可乎	-10.1927
城北	-10.1931
之目	-10.194
為人	-10.1942
其他	-10.1944
滎陽	-10.1946
一書	-10.1947
為名	-10.1957
昭明	-10.1963
貽	-10.1965
順其	-10.197
偃	-10.1971
不得已	-10.1971
為難	-10.1971
十有二	-10.1972
虧	-10.1977
尚有	-10.1986
喪亡	-10.1987
要服	-10.199
二十七	-10.1993
湘	-10.1993
乎曰	-10.1996
則不可	-10.2003
二十里	-10.2006
改元	-10.2008
之計	-10.2015
之惡	-10.2019
諸臣	-10.2019
說文	-10.2021
揔	-10.2023
纎	-10.2025
為諸侯	-10.2025
不修	-10.2027
可得而	-10.2029
堰	-10.2033
以西	-10.2035
五子	-10.2035
東漢	-10.2037
之詩	-10.2038
其書	-10.2042
居攝	-10.205
矣又	-10.2057
剛柔	-10.2061
曰此	-10.2068
頒	-10.2069
從其	-10.2073
即政	-10.2074
渤海	-10.2075
雄	-10.2078
岡	-10.208
有能	-10.2083
信之	-10.2086
沱潛	-10.2093
無復	-10.2094
之重	-10.2097
帝王之	-10.2097
在東	-10.2099
物也	-10.2118
之别	-10.2118
太祖	-10.212
鳳	-10.2122
帶	-10.2125
所受	-10.2129
祼	-10.2129
庶㡬	-10.213
峽	-10.213
橋	-10.2133
犬	-10.2133
之本也	-10.2134
此等	-10.2142
浮言	-10.2144
新安	-10.2145
惟有	-10.2146
下言	-10.2159
敬也	-10.2159
上生	-10.216
後王	-10.2164
有扈	-10.2164
其生	-10.2167
罸	-10.2169
可考	-10.2172
詐	-10.2175
歸周	-10.2175
殷人	-10.2175
保其	-10.2178
困窮	-10.2181
太行	-10.2185
以北	-10.2205
如此故	-10.2209
使我	-10.2212
好徳	-10.2223
飛	-10.2224
干戈	-10.2224
圓	-10.2225
第三	-10.2227
幹	-10.2228
古人之	-10.2229
何如	-10.223
昵	-10.223
人有	-10.2241
萬年	-10.2245
於前	-10.2253
記云	-10.2264
吴	-10.2275
錢	-10.2276
以身	-10.2276
寧王	-10.2277
而後可	-10.2277
河内	-10.2277
暇	-10.228
三曰	-10.2288
也禹	-10.2291
所致	-10.2293
必欲	-10.2295
其在	-10.2295
何為	-10.2296
所有	-10.2303
四人	-10.2308
詠	-10.2312
成也	-10.2314
牽	-10.2316
勅	-10.2319
相對	-10.2321
寄	-10.2322
以東	-10.2323
栗	-10.2323
寕	-10.2324
而未	-10.2325
饑	-10.2325
敬畏	-10.2327
南至	-10.2327
九等	-10.2328
畔	-10.2331
其法	-10.2342
而止	-10.2342
行也	-10.2347
説命	-10.2353
國君	-10.2354
脱	-10.2368
之善	-10.2369
曰予	-10.2371
韋	-10.2381
庶徵	-10.2382
先正	-10.2382
三叔	-10.2386
得天下	-10.239
也古者	-10.2394
諸水	-10.2395
二十五	-10.2398
能敬	-10.2399
夏至	-10.24
晋	-10.2405
漢孔氏	-10.241
率循	-10.2411
賢才	-10.2419
勉之	-10.2428
程氏	-10.2429
笑	-10.2429
昆	-10.243
畝	-10.243
踈	-10.243
慙	-10.2431
匱	-10.2432
祿	-10.2434
七月	-10.2435
鬯	-10.2436
𫝊言	-10.2436
南流	-10.2437
文公	-10.2438
中也	-10.2442
揆	-10.2453
進退	-10.2454
訟	-10.2455
文考	-10.2466
在内	-10.247
棐	-10.2475
也舜	-10.2476
一語	-10.2481
灼	-10.2484
黄道	-10.2487
皆得	-10.2488
行而	-10.2493
萬國	-10.2496
為害	-10.2499
杜預	-10.2509
狎侮	-10.2516
水土	-10.2521
于先王	-10.2522
今人	-10.2524
丑	-10.2524
援	-10.253
禮義	-10.2534
織皮	-10.2537
伊陟	-10.2538
之權	-10.2544
前言	-10.2545
者多	-10.2548
因之	-10.2552
大别	-10.2563
武王既	-10.2565
于人	-10.2572
髙明	-10.2574
六月	-10.2578
荒服	-10.2582
窺	-10.2582
飬	-10.2583
殷家	-10.2585
大徳	-10.259
稱其	-10.2605
而遂	-10.262
穿	-10.262
君民	-10.2622
遼	-10.2626
殛	-10.2637
氣象	-10.2643
諭	-10.2646
張掖	-10.2652
非常	-10.2652
於時	-10.2653
合黎	-10.2656
亦謂之	-10.2656
寰宇記	-10.266
松	-10.266
稽古	-10.2663
亦謂	-10.2664
以和	-10.2672
豈得	-10.2677
纂	-10.2684
拳拳	-10.2686
上古	-10.2686
厎柱	-10.2693
普	-10.2693
絳	-10.2694
髙下	-10.2694
歷	-10.2694
□	-10.2698
時則有	-10.2699
變而	-10.2707
不畏	-10.271
之篇	-10.2714
發源	-10.2717
汝衆	-10.272
太師	-10.2721
旬	-10.2727
政教	-10.2727
衣服	-10.273
藥	-10.2739
常法	-10.274
下篇	-10.2742
英	-10.2744
鹹	-10.2746
東平	-10.2746
有事	-10.2747
綴	-10.2748
山也	-10.2751
如今	-10.2755
得其人	-10.2756
災異	-10.2765
不廢	-10.2766
之諸侯	-10.2766
者何	-10.277
不能自	-10.2776
也武王	-10.2787
謂其	-10.2792
弦	-10.2796
洽	-10.2798
庶殷	-10.2798
賚	-10.2799
綿	-10.2801
水名	-10.2802
為先	-10.2806
大野	-10.2808
礪	-10.2809
裔	-10.281
桐柏	-10.2815
東行	-10.2816
是之謂	-10.282
漢孔氏曰言	-10.2821
岳陽	-10.2824
輿	-10.2828
鬼	-10.2831
之閒	-10.2833
天下之事	-10.2835
之力	-10.2836
天所	-10.2838
禀	-10.2839
去之	-10.284
成湯之	-10.2847
西戎	-10.2848
不聽	-10.2849
至洛	-10.2849
諡	-10.285
帝位	-10.2853
北至	-10.2854
縣今	-10.2856
斜	-10.2857
旅獒	-10.2864
牛馬	-10.2869
邁	-10.2871
無益	-10.2875
不怠	-10.2877
各以其	-10.2877
不可得而	-10.2884
僚	-10.2898
其山	-10.2899
見得	-10.29
言已	-10.2901
戚	-10.2901
不信	-10.2902
那	-10.2902
宣王	-10.2902
盟	-10.2903
明年	-10.2907
毫	-10.2908
禹曰	-10.2915
菏澤	-10.2915
謂我	-10.2917
故有	-10.2918
成就	-10.292
一物	-10.2921
以此為	-10.2921
漫	-10.2924
非我	-10.2926
日行	-10.2932
極其	-10.2937
往往	-10.2938
土之	-10.2944
以刑	-10.2947
之心也	-10.2947
用其	-10.2949
是亦	-10.2953
一章	-10.2957
劉歆	-10.2959
閔	-10.296
圯	-10.2962
所治	-10.2965
山名	-10.2966
殊不知	-10.2979
而知	-10.2981
儀禮	-10.2981
刑者	-10.2988
之一字	-10.2989
受終	-10.2992
居之	-10.2993
狀	-10.2994
由此	-10.2995
民生	-10.2998
貢道	-10.2999
皆謂	-10.3002
六師	-10.3008
孔氏謂	-10.301
其政	-10.3011
夫人	-10.3013
康王之誥	-10.3014
二山	-10.3018
中宗	-10.3018
一年	-10.3019
光明	-10.3019
于我	-10.3029
于河	-10.303
與汝	-10.303
麓	-10.3036
服事	-10.3037
秦誓	-10.3038
克商	-10.3047
命者	-10.3049
詳見	-10.3053
民以	-10.3055
之可	-10.3063
隴西	-10.3064
待之	-10.3065
隷	-10.3067
安得不	-10.3067
上有	-10.3068
民者	-10.3071
中間	-10.3072
理也	-10.3072
浮于	-10.3072
施於	-10.3073
不肖	-10.3074
路寢	-10.3076
脉	-10.3079
混	-10.308
何也曰	-10.308
大傳	-10.3081
八卦	-10.3084
百餘里	-10.3089
是言	-10.3099
王曰嗚呼	-10.3101
文勢	-10.3101
召南	-10.3104
之久	-10.3108
中篇	-10.3109
朋	-10.3114
明日	-10.3115
而實	-10.3118
此非	-10.312
咸有一徳	-10.3122
輩	-10.3123
卯	-10.3125
而出	-10.3126
大國	-10.313
誠信	-10.3134
其初	-10.3135
定其	-10.3138
皆云	-10.3141
覲	-10.3147
此豈	-10.3148
可疑	-10.3148
無有不	-10.315
禹貢之	-10.3166
爾多方	-10.3167
大業	-10.317
秬鬯	-10.3175
刋	-10.3177
朔方	-10.3177
展	-10.3179
自稱	-10.3181
希	-10.3183
醉	-10.3184
怠惰	-10.3185
萬方	-10.3185
之所為	-10.3185
君也	-10.3189
能知	-10.3193
人主之	-10.3195
乃謂	-10.3195
皆無	-10.3198
天下之人	-10.3204
未及	-10.3205
滅亡	-10.3205
不變	-10.3207
發明	-10.3211
一一	-10.3213
明哲	-10.3215
所及	-10.3216
西流	-10.3221
亦名	-10.3231
飢	-10.3236
下至	-10.3239
懿	-10.324
尋陽	-10.3243
有終	-10.3248
陰陽	-10.3248
譬	-10.3248
紀綱	-10.3254
之舊	-10.3257
之事而	-10.3257
不和	-10.326
合而	-10.3263
為王	-10.3263
大川	-10.3267
北境	-10.3268
福極	-10.3268
呂氏曰	-10.3268
不可易	-10.3272
告于	-10.3276
僖	-10.328
也或曰	-10.328
十月	-10.328
望之	-10.3281
達于	-10.3282
在後	-10.3286
圍	-10.3287
𤾉	-10.3287
謂此	-10.3289
不可曉	-10.329
漢中	-10.3291
但言	-10.3294
東陵	-10.3296
蔡仲之命	-10.3298
吕侯	-10.3298
甘誓	-10.3301
朔食	-10.3301
黄鍾	-10.3306
不一	-10.3306
婦人	-10.3306
陵縣	-10.3309
惟是	-10.3311
十五里	-10.3313
而謂之	-10.332
庶士	-10.3323
文義	-10.3324
官之長	-10.3329
東南流	-10.3332
得罪	-10.3337
服行	-10.3337
五曰	-10.3337
融	-10.3341
命也	-10.3341
鑒	-10.3346
旨	-10.3346
四曰	-10.335
四瀆	-10.3355
不齊	-10.336
王莽	-10.3364
之象	-10.3366
守之	-10.3367
民之所	-10.337
城南	-10.337
余曰	-10.337
一字	-10.3371
於後	-10.3378
故我	-10.3379
陷	-10.338
東坡	-10.3381
辭也	-10.3388
夏桀	-10.339
脈	-10.3392
莫非	-10.3392
曰惟	-10.3397
之誠	-10.3399
則自	-10.34
平原	-10.3401
侯伯	-10.3406
山西	-10.3407
㫁	-10.3407
穫	-10.3408
冏命	-10.3411
𦙍征	-10.3413
刑殺	-10.3417
愛民	-10.342
儆戒	-10.342
注于	-10.3421
此二	-10.3431
讀書	-10.3432
以義	-10.3433
我則	-10.3451
沮水	-10.3452
秦漢	-10.3454
告之以	-10.3458
邢	-10.3464
八十	-10.3465
民不	-10.3466
為九	-10.3471
兮	-10.3472
天以	-10.3474
水道	-10.3476
無疆	-10.3476
逺而	-10.3477
規模	-10.3482
各自	-10.3483
以行	-10.3484
也林氏曰	-10.3486
岷	-10.349
狎	-10.3491
敬之	-10.3501
善則	-10.3509
彤	-10.3509
挾	-10.3519
縮	-10.3519
爻	-10.3519
技	-10.352
鳯	-10.3521
十二牧	-10.3523
猛	-10.3523
去其	-10.3527
不是	-10.3528
槩	-10.353
世家	-10.3537
州牧	-10.3545
而言也	-10.3547
二十四	-10.3552
五常	-10.3554
惟在	-10.3557
相距	-10.3567
放勲	-10.3574
念之	-10.3575
哉此	-10.3576
二女	-10.3577
獨言	-10.3578
墮	-10.3578
四者	-10.3578
郎	-10.3578
借	-10.3579
恣	-10.358
鴻	-10.358
宇	-10.3583
王者之	-10.3585
三國	-10.359
仁義	-10.3595
宫室	-10.3595
飲食	-10.3596
何故	-10.3599
議論	-10.36
若曰	-10.3609
休咎	-10.361
中者	-10.3619
斁	-10.362
上之	-10.3623
亦何	-10.3623
也哉	-10.3631
僣	-10.3632
先祖	-10.3632
成王既	-10.3633
曰吾	-10.3635
大意	-10.3636
驛	-10.3636
弁	-10.3638
枉	-10.3639
山南	-10.3642
鉅野	-10.3642
之宜	-10.3645
刀	-10.3645
垣	-10.3646
惡之	-10.3648
藪	-10.3651
前代	-10.3654
一統志	-10.3655
地勢	-10.3657
為重	-10.3658
未聞	-10.3658
不至於	-10.3665
建官	-10.3668
地也	-10.3671
三州	-10.3677
不念	-10.3678
夫婦	-10.3682
故爲	-10.3685
變化	-10.3686
多寡	-10.3687
至今	-10.3688
千餘里	-10.3688
晝夜	-10.3694
逰	-10.3694
晏	-10.3696
奈何	-10.3696
之意而	-10.3698
麻	-10.37
瘳	-10.3701
圻内	-10.3702
起於	-10.3704
江淮	-10.3704
與我	-10.3705
黍稷	-10.3706
太岳	-10.3707
之機	-10.3713
大訓	-10.3715
之過	-10.3717
心之所	-10.372
來朝	-10.372
㑹稽	-10.3724
于周	-10.3729
又案	-10.3734
馬鄭	-10.3735
百年	-10.374
童	-10.3744
驗之	-10.3747
祐	-10.3747
八音	-10.3748
完	-10.3753
二十八宿	-10.3754
秀	-10.3754
穆穆	-10.3754
暢	-10.3756
文侯之命	-10.3757
為此	-10.3757
繒	-10.3758
而生	-10.376
北面	-10.3761
可用	-10.3767
既得	-10.3768
罰之	-10.3772
自為	-10.3778
威儀	-10.3785
相近	-10.3788
以威	-10.3788
他州	-10.3802
禮也	-10.3802
在乎	-10.3802
百八十	-10.3811
澄	-10.3811
其流	-10.3811
鳴條	-10.3813
一則	-10.3814
道則	-10.3816
臣名	-10.3822
以供	-10.3828
河流	-10.3834
庶官	-10.3838
第五	-10.3842
始也	-10.3845
兗	-10.3847
臧	-10.3849
月之	-10.3852
牙	-10.3853
肉	-10.3858
繼以	-10.3862
而不及	-10.3866
客	-10.387
驚	-10.3871
巽	-10.3872
寛裕	-10.3872
鞠	-10.3874
敎之	-10.3876
孔氏安國曰	-10.3878
言之也	-10.3887
亦可以	-10.3888
愚案	-10.3889
天下皆	-10.3892
九官	-10.39
則天	-10.3901
吾心	-10.3905
𦙍侯	-10.3907
九功	-10.3911
帛	-10.3912
其可不	-10.3913
而欲	-10.3916
王業	-10.3916
常行	-10.3919
區	-10.3922
算	-10.3929
虎賁	-10.393
經營	-10.3931
壯	-10.3931
譌	-10.3934
金氏曰	-10.3934
磨	-10.3935
以及	-10.3935
鉞	-10.3935
根本	-10.3939
淤	-10.3944
絶之	-10.3947
山陽	-10.3947
異姓	-10.3952
者多矣	-10.3955
可信	-10.3956
毛詩	-10.3962
不但	-10.3964
後言	-10.3966
而使之	-10.3974
注曰	-10.3975
都邑	-10.3978
耄	-10.3982
一人之	-10.3983
隩	-10.3984
疑之	-10.3985
庚戌	-10.3991
㸔	-10.3991
帝嚳	-10.3993
鄭玄云	-10.3995
暫	-10.3996
成徳	-10.4002
分為二	-10.4006
五里	-10.4008
致治	-10.4008
至公	-10.4009
之應	-10.4017
水自	-10.4021
不中	-10.4024
者正	-10.4029
時事	-10.4038
黎民	-10.404
故特	-10.404
脅	-10.4042
顛	-10.4045
太僕	-10.4046
皆自	-10.405
冥	-10.4051
有殷	-10.4052
戊辰	-10.4056
璣	-10.4057
戒以	-10.4059
安知	-10.406
無遺	-10.4063
禹之治水	-10.4064
第九	-10.4067
第六	-10.4067
隨山	-10.4069
武王伐紂	-10.4072
以事	-10.408
炎上	-10.408
形容	-10.4087
措	-10.4087
必自	-10.4087
其父	-10.4093
遷徙	-10.4095
張氏	-10.4097
元首	-10.4099
以禮	-10.41
廷	-10.4104
一時之	-10.4106
壬	-10.4107
許多	-10.4107
焉故	-10.4108
篇中	-10.4112
仕	-10.4112
伍	-10.4113
武王克商	-10.4114
原隰	-10.4115
有位	-10.4115
寒暑	-10.4116
瀍水	-10.4126
之㫖	-10.4126
又南	-10.4126
之野	-10.413
前人之	-10.4144
潤下	-10.4145
以是知	-10.4146
▁新安陳氏曰	-10.4148
土中	-10.4149
百篇	-10.415
長也	-10.415
日在	-10.4151
察之	-10.4152
岱	-10.4154
讒	-10.4156
嗣位	-10.4157
亦自	-10.416
辨之	-10.4162
自用	-10.4163
十二州	-10.4167
先儒謂	-10.4169
漢地理志	-10.4176
夕	-10.4176
既以	-10.4178
沛	-10.4178
大同	-10.4179
責之	-10.4183
法之	-10.4187
求賢	-10.4188
漢世	-10.419
為三	-10.4192
中則	-10.4196
所好	-10.42
何不	-10.42
用心	-10.4203
舜禹	-10.4207
神人	-10.4211
弛	-10.4219
其子孫	-10.4223
莫大於	-10.4224
實有	-10.4225
也嗚呼	-10.4228
數之	-10.423
有九	-10.4234
而用	-10.4234
八十里	-10.4235
慝	-10.4237
斤	-10.4238
鹵	-10.4239
相屬	-10.424
釋之	-10.4243
其源	-10.4244
峙	-10.4246
謀之	-10.4253
以天下	-10.4258
漢之	-10.426
大義	-10.4264
居中	-10.4272
相為	-10.4276
明也	-10.4277
左𫝊	-10.4279
若夫	-10.428
葉氏曰	-10.4282
其惡	-10.4284
寇	-10.4284
周制	-10.4285
之具	-10.4287
也案	-10.429
漢武帝	-10.4292
非徒	-10.4293
桐宫	-10.4294
税	-10.4295
相承	-10.4296
常理	-10.4296
陋	-10.4296
坎	-10.4297
仲虺之誥	-10.4297
譲	-10.4297
盜	-10.4297
殷先哲王	-10.4298
屯	-10.4299
太華	-10.4301
絃	-10.4307
文帝	-10.4307
者猶	-10.4308
一夫	-10.4312
黎陽	-10.4313
入泗	-10.4316
有邦	-10.4318
之至也	-10.4327
凡人	-10.4328
哉故	-10.4333
經傳	-10.4342
成之	-10.4343
文王武王	-10.4344
自任	-10.4345
否則	-10.4352
瞽瞍	-10.4357
而至於	-10.4365
拊	-10.4366
琴瑟	-10.437
最為	-10.4371
牆	-10.4374
紂之惡	-10.4374
涇水	-10.4374
識其	-10.4376
衡漳	-10.438
不使	-10.438
責其	-10.4383
綏服	-10.4387
我國家	-10.4387
此盖	-10.4392
任之	-10.4393
天討	-10.4397
云爾	-10.4399
以相	-10.4401
躬行	-10.4404
於己	-10.4405
吉士	-10.4405
付之	-10.4408
教民	-10.4408
沖	-10.4411
韋昭	-10.4414
為商	-10.4415
或云	-10.4415
非獨	-10.4416
有衆	-10.4417
如何曰	-10.4419
出而	-10.442
則人	-10.442
和之	-10.442
明其	-10.442
之賦	-10.4421
爾乃	-10.4421
托	-10.4424
伏羲	-10.4424
史氏	-10.4426
吾之	-10.4428
東北流	-10.4428
洗	-10.4429
此三	-10.4429
月行	-10.443
所生	-10.4437
皆從	-10.4437
九月	-10.4438
正是	-10.444
如之何	-10.4445
文也	-10.4448
為心	-10.4449
篇末	-10.4451
者豈	-10.4451
道路	-10.4452
源出	-10.4452
惟一	-10.4454
其難	-10.4463
人以	-10.4463
潜	-10.4471
也張氏曰	-10.4474
恪	-10.4485
汝等	-10.4486
忿	-10.4487
冡	-10.4488
大家	-10.4488
此正	-10.449
閭	-10.4493
繪	-10.4494
相因	-10.4495
若不	-10.4502
不息	-10.4502
則謂之	-10.4504
皆能	-10.4511
北江	-10.4512
不幸	-10.4513
弗克	-10.4513
任用	-10.4514
代之	-10.4514
此云	-10.4515
侯甸	-10.4517
生民	-10.4523
殷士	-10.4526
如此其	-10.4527
曰王	-10.4529
案曰	-10.4531
始有	-10.4536
德者	-10.4537
流入	-10.4538
終之	-10.4545
此文	-10.4545
亷	-10.4546
頓	-10.4546
作威	-10.4548
故不	-10.4549
冐	-10.455
扶風	-10.4551
頃	-10.4553
各有所	-10.456
要囚	-10.4572
南山	-10.4576
以德	-10.4576
三十六	-10.4577
幽州	-10.4578
易曰	-10.458
七政	-10.459
惟爾	-10.4596
墟	-10.46
說者	-10.4601
奭	-10.4603
弓矢	-10.4605
澗	-10.4607
序言	-10.4609
滑	-10.4611
苖民	-10.4613
沉	-10.4614
䧟	-10.4615
談	-10.4617
諸州	-10.4618
既定	-10.4619
名為	-10.4621
武功	-10.4628
微子之命	-10.4629
而告之	-10.4634
祭之	-10.4638
自以為	-10.4638
故天	-10.4638
據此	-10.4643
惟以	-10.4649
非其人	-10.4649
然亦	-10.465
下有	-10.4655
帝之	-10.4657
昴	-10.4658
其力	-10.4658
未定	-10.4658
考工記	-10.466
固已	-10.466
不敢自	-10.4664
本紀	-10.4668
雪	-10.4671
入洛	-10.4674
與民	-10.4674
禽	-10.4678
亦不能	-10.4679
拂	-10.4679
樂之	-10.4681
邦君御事	-10.4682
可為	-10.4683
覽	-10.4683
黍	-10.4683
聲色	-10.4684
箴	-10.4689
四字	-10.4691
善而	-10.4692
人為	-10.4695
建立	-10.4699
衆民	-10.4705
則不能	-10.4706
五千里	-10.4708
乃可	-10.4709
洛汭	-10.471
之所謂	-10.4711
附㑹	-10.4711
剛克	-10.4714
而來	-10.4715
之先	-10.4719
所傳	-10.4724
也聖人	-10.4724
重黎	-10.473
生生	-10.4732
西山	-10.4734
同也	-10.4738
㓜	-10.474
戌	-10.4743
相接	-10.4744
闊	-10.4745
大功	-10.4745
彦	-10.4747
督	-10.4747
潞	-10.4749
不可勝	-10.4751
酌	-10.4751
濬川	-10.4752
戸	-10.4755
島夷	-10.4755
之路	-10.4758
烈祖	-10.4759
不恤	-10.4761
經云	-10.4765
命以	-10.477
乃所以	-10.4771
註云	-10.4777
地中	-10.478
雖然	-10.4782
將欲	-10.4792
止于	-10.4792
人人	-10.4793
山之	-10.4793
太王	-10.4795
三載	-10.4798
定陶	-10.4805
江夏	-10.4808
妨	-10.4811
膺	-10.4811
副	-10.4812
爾惟	-10.4812
輪	-10.4813
東夷	-10.4814
戲	-10.4814
篇名	-10.4818
通用	-10.4819
閑	-10.4821
其過	-10.4822
日日	-10.4824
反又	-10.4827
豈可以	-10.4829
下句	-10.483
之土	-10.4831
常也	-10.4831
惡者	-10.4831
不免	-10.4841
江州	-10.4847
欲遷	-10.4851
且如	-10.4851
不治	-10.4854
甞	-10.4856
必是	-10.4858
九十里	-10.486
皆所以	-10.4862
大道	-10.4863
巴陵	-10.4864
過也	-10.4866
血	-10.4867
會于	-10.4867
乎故	-10.4868
曽氏曰	-10.4869
既成	-10.487
自得	-10.4875
常性	-10.4875
妖	-10.4876
故舉	-10.4876
隕	-10.4876
科	-10.4877
以定	-10.4877
菑	-10.4878
尊之	-10.4878
繆	-10.4878
維持	-10.4882
爲善	-10.4883
伐桀	-10.4883
祭法	-10.4884
皆以為	-10.4888
天惟	-10.4897
十人	-10.4903
本篇	-10.4906
虞夏	-10.4916
敬忌	-10.4919
當日	-10.4919
聦	-10.4926
孔以	-10.493
郭璞	-10.4932
或以為	-10.4933
蒼	-10.4934
沂水	-10.4936
其害	-10.4937
故城在今	-10.4938
奉上	-10.4939
稼	-10.4941
陸氏	-10.4945
翟	-10.4947
德也	-10.4947
八月	-10.4948
曁	-10.4949
艾	-10.4954
當有	-10.4957
之法也	-10.4959
得失	-10.4963
貴賤	-10.4966
荀子	-10.4968
功業	-10.497
胡氏	-10.4973
論之	-10.4979
豈無	-10.4979
其行	-10.4979
意也	-10.4981
其罰	-10.4986
也孟子曰	-10.4987
王屋	-10.499
禹迹	-10.4995
哉惟	-10.4996
法以	-10.4997
基業	-10.4998
必在	-10.4999
放之	-10.5004
于外	-10.5005
孽	-10.5006
禹所	-10.5007
判	-10.5008
擬	-10.5009
肥	-10.501
奴	-10.5013
徯	-10.5014
以理	-10.5016
心不	-10.5017
牧野	-10.5017
三字	-10.5019
官名	-10.5022
往來	-10.5022
地志在	-10.5025
而去	-10.5027
惟曰	-10.5029
而無所	-10.5036
正其	-10.5042
職事	-10.5043
明堂	-10.5044
王子	-10.5046
其體	-10.5049
以通	-10.5053
之心而	-10.5055
陪尾	-10.5055
寰宇記云	-10.5057
祚	-10.5059
德則	-10.5061
濟隂	-10.5064
而上	-10.5069
栁	-10.5072
拔	-10.5072
西海	-10.5074
耉	-10.5075
驩兜	-10.5075
濶	-10.5077
寢	-10.5078
蟲	-10.5081
自外	-10.5082
罷	-10.5082
何嘗	-10.5083
州界	-10.5084
者雖	-10.5087
宰相	-10.5089
為己	-10.5089
殷命	-10.5093
此其所以	-10.5099
其序	-10.5099
為句	-10.51
民事	-10.5101
第七	-10.5103
既不	-10.5104
贖刑	-10.5108
有苖	-10.5116
三辰	-10.5118
皇帝	-10.512
惟能	-10.512
繼之	-10.5121
何哉	-10.5124
親近	-10.5125
天之所以	-10.5128
黄鐘	-10.5129
與人	-10.5129
水合	-10.513
貢篚	-10.5131
韶	-10.5134
䕶	-10.5138
人之心	-10.5139
藴	-10.514
簫	-10.5142
刃	-10.5145
地理今釋	-10.5147
絡	-10.5147
康成	-10.5149
据	-10.5152
孟子所謂	-10.5155
故先言	-10.5156
姑洗	-10.5156
之福	-10.5159
人力	-10.516
名之	-10.5163
不得其	-10.5168
典刑	-10.5172
冕服	-10.5173
典謨	-10.5173
而後能	-10.5174
其舊	-10.5175
各得其	-10.5176
前此	-10.5179
以聽	-10.518
其次	-10.518
於中	-10.5182
有可	-10.5182
何必	-10.5183
之形	-10.5185
之役	-10.5185
有五	-10.5187
即古	-10.5194
未易	-10.5194
理㑹	-10.5203
宅洛	-10.5205
蘇公	-10.5206
沃丁	-10.5208
南境	-10.5209
脫	-10.5209
鑄	-10.5213
埴	-10.5214
醜	-10.5215
鬱	-10.5216
正也	-10.5217
酸	-10.5218
信都	-10.5219
不可知	-10.522
不啻	-10.5222
棄之	-10.5225
故此	-10.523
先生曰	-10.523
禹之功	-10.5233
所貢	-10.5236
非聖人	-10.524
程子	-10.5243
我有周	-10.5245
故必	-10.5246
竊謂	-10.5246
太常	-10.5248
汨	-10.5251
善之	-10.5256
用力	-10.5256
政治	-10.526
廬江	-10.5262
不可復	-10.5262
禹河	-10.5265
隙	-10.5278
暑	-10.528
在朝	-10.5282
奸	-10.5285
第四	-10.5285
稽首	-10.5285
今爾	-10.5289
此一	-10.5297
曽氏	-10.5299
唐叔	-10.5303
事則	-10.5304
為可	-10.5307
導江	-10.5307
子弟	-10.5315
東入	-10.532
之才	-10.5323
后土	-10.5324
蕭	-10.5325
寫	-10.5326
之而已	-10.5326
皆由	-10.5327
薛氏曰	-10.5329
其失	-10.533
八百	-10.533
濵	-10.5335
逸書	-10.5337
者或	-10.5341
蜀郡	-10.5343
噐	-10.5346
盖以	-10.5346
聘	-10.5347
周室	-10.5349
幷	-10.535
能明	-10.535
刪	-10.535
丁寧	-10.5351
鼔	-10.5351
自治	-10.5351
呂氏祖謙曰	-10.5355
其水	-10.5356
明王	-10.5356
衮冕	-10.5356
今乃	-10.5359
進戒	-10.536
燉煌	-10.5361
記其	-10.5369
也盤庚	-10.5371
言紂	-10.5385
於理	-10.5388
力行	-10.539
意謂	-10.539
又自	-10.5402
一説	-10.5402
之逺	-10.5403
濱	-10.541
相連	-10.5414
五十八篇	-10.5415
憤	-10.5416
戒成王	-10.5417
伸	-10.5417
之得失	-10.5418
焦	-10.5421
夙夜	-10.5421
親親	-10.5422
于海	-10.5422
悲	-10.5422
粤	-10.5423
又東過	-10.5426
奥	-10.5426
顯然	-10.5427
意者	-10.5427
古之人	-10.5428
惟汝	-10.5429
沴	-10.543
不察	-10.5431
縞	-10.5432
損益	-10.5432
三等	-10.5432
和也	-10.5434
不勝	-10.5438
華隂	-10.5441
亂也	-10.5442
濟南	-10.5448
朝歌	-10.545
備矣	-10.5452
因而	-10.5456
言當	-10.5456
降水	-10.546
百四十	-10.5468
本作	-10.547
請命	-10.5473
及于	-10.5474
州之	-10.548
股	-10.548
稅	-10.5483
區區	-10.5484
謝	-10.5484
其所當	-10.5484
嗜	-10.5484
用功	-10.5486
詩書	-10.5487
徒駭	-10.5489
船	-10.5492
今文古文皆有	-10.5492
輔弼	-10.5493
使知	-10.5493
沇水	-10.5499
祭天	-10.5501
用賢	-10.5506
多少	-10.5507
長久	-10.551
必須	-10.5514
以輔	-10.5514
可以見	-10.5515
也觀	-10.5515
指其	-10.5517
㑹同	-10.5518
大中	-10.5519
灉	-10.5523
畏天	-10.5527
兗州	-10.5527
今汝	-10.5528
治事	-10.5534
事神	-10.5536
九黎	-10.5536
則雖	-10.554
之類是也	-10.5541
性命	-10.5543
安於	-10.5546
此三者	-10.5546
喪服	-10.5548
之所由	-10.5549
尚書詳解卷	-10.5552
蔵	-10.5557
逢	-10.5559
然後能	-10.5559
巫咸	-10.5562
崖	-10.5563
滄	-10.5563
朋黨	-10.5564
潁	-10.5564
衆也	-10.5568
未免	-10.5569
述其	-10.5572
雷夏	-10.5575
幽王	-10.5576
各以	-10.5578
之誤	-10.558
者哉	-10.5584
矣蓋	-10.5591
未成	-10.5595
吳氏曰	-10.5598
而求	-10.5601
於洛	-10.5612
朝覲	-10.5615
城西	-10.5618
文徳	-10.5619
鉅鹿	-10.562
自言	-10.5623
陶丘	-10.5626
縣也	-10.5627
正義曰此	-10.5627
藩	-10.5628
此句	-10.563
罹	-10.5633
潰	-10.5634
同而	-10.5635
隨其	-10.5636
戎狄	-10.5637
萬姓	-10.5639
功臣	-10.5643
其要	-10.5643
從上	-10.5647
作洛	-10.565
憸人	-10.5651
其家	-10.5654
中而	-10.5657
王季	-10.5663
之助	-10.5663
施之	-10.5667
此類	-10.5672
諸山	-10.5673
而獨	-10.5677
又北	-10.5681
固不	-10.5682
箕子之	-10.5685
後之	-10.5686
之耳	-10.5687
一切	-10.5693
公劉	-10.5695
冦	-10.5696
始于	-10.5696
儒者	-10.5703
緜	-10.5704
膠	-10.5706
緣	-10.5707
瑁	-10.5713
為首	-10.5719
不可用	-10.5721
互見	-10.5722
三百六十	-10.5728
二縣	-10.5729
注之	-10.5731
臯陶曰	-10.5734
父兄	-10.5738
條理	-10.5739
為上	-10.5739
當敬	-10.574
存亡	-10.5742
自此以下	-10.5743
不可得	-10.5746
義也	-10.5747
所都	-10.5749
其用	-10.5755
達於	-10.5755
後嗣	-10.5756
居民	-10.5757
渠搜	-10.5759
敬典	-10.576
此二者	-10.5762
而言之則	-10.5764
作樂	-10.5764
書云	-10.5773
吐蕃	-10.5775
潮	-10.5777
座	-10.5778
播種	-10.5778
整齊	-10.5778
西伯戡黎	-10.5779
洩	-10.5781
勸勉	-10.5783
蠶	-10.5784
云者	-10.5785
大矣	-10.5786
告成王	-10.5788
於殷	-10.5789
顧氏	-10.5793
無能	-10.5793
一條	-10.5794
發於	-10.5795
平聲	-10.5796
不知何	-10.5797
為戒	-10.5798
從容	-10.58
地之	-10.5803
亶	-10.5807
惟民	-10.5812
成其	-10.5814
之言曰	-10.5814
禹以	-10.5818
其禮	-10.582
别有	-10.5821
此處	-10.5829
所至	-10.583
山澤	-10.5832
我周王	-10.5832
十五年	-10.5835
變易	-10.5836
序云	-10.5837
養之	-10.5841
儻	-10.5841
必無	-10.5842
者謂之	-10.5843
苑	-10.5844
迓	-10.5848
惟王	-10.5848
𫝊正義曰	-10.5849
而可	-10.5856
導河	-10.5858
之由	-10.586
而始	-10.5865
教以	-10.587
百穀	-10.5871
憂勤	-10.5872
乃惟	-10.5873
官之	-10.5876
禹謨	-10.5876
近於	-10.5876
二説	-10.5883
君師	-10.5884
六服	-10.5885
南面	-10.5888
地理志云	-10.5892
在官	-10.5892
飭	-10.5911
赴	-10.5912
寃	-10.5915
話	-10.5916
健	-10.5916
水所出	-10.5917
撻	-10.5919
峰	-10.592
禍亂	-10.592
漏	-10.5921
在南	-10.5924
以至於	-10.593
羽山	-10.5932
五星	-10.5932
杜氏	-10.5934
徳義	-10.5936
赤道	-10.5936
興起	-10.5938
厥篚	-10.594
人心之	-10.5943
譬如	-10.5944
六宗	-10.5946
三后	-10.5951
二十五里	-10.5953
舉事	-10.5954
必能	-10.5955
内史	-10.5956
父師	-10.5958
流而	-10.5963
人功	-10.5967
周公之訓	-10.5969
堂上	-10.597
汾水	-10.5976
蘭	-10.5977
為周	-10.5981
柔克	-10.5989
浩	-10.5991
迭	-10.5992
奇	-10.5992
項	-10.5992
殃	-10.5994
顚	-10.5996
迴	-10.5996
淮水	-10.5997
北海	-10.6
數十	-10.6
谿	-10.6003
司宼	-10.6003
金氏履祥曰	-10.6004
為臣	-10.6004
以教	-10.6005
程氏曰	-10.6006
殷王	-10.6011
矣其	-10.6018
四百	-10.602
安之	-10.6025
不逮	-10.6026
凡有	-10.6027
父祖	-10.6027
他日	-10.603
正道	-10.6031
不能無	-10.6034
折獄	-10.6035
敬哉	-10.6038
聽之	-10.6044
此語	-10.6046
汝所	-10.6051
日用	-10.606
錫之	-10.6062
父子兄弟	-10.6062
藻	-10.6065
彝倫	-10.6065
匿	-10.6067
榦	-10.6068
于前	-10.6069
二十九篇	-10.607
郷	-10.6072
歸政	-10.6073
經之	-10.6073
鎭	-10.6074
威福	-10.6075
之精	-10.6076
商王	-10.6077
朝諸侯	-10.6081
逺者	-10.6081
城東	-10.6081
不享	-10.6082
輔翼	-10.6084
遏絶	-10.6086
下都	-10.6087
法則	-10.6087
十六日	-10.6087
何由	-10.6088
文王受命	-10.6094
之言而	-10.6095
也但	-10.6102
是乃	-10.6103
邵	-10.6105
莽	-10.6109
江漢之	-10.611
之流	-10.6115
豈敢	-10.6118
大槩	-10.6122
以奉	-10.6122
腹	-10.6125
朏	-10.6125
不入	-10.613
警戒	-10.6131
逞	-10.6136
不載	-10.6137
五千	-10.6137
之哉	-10.6139
俯	-10.6139
輒	-10.6141
滯	-10.6142
纂䟽	-10.6144
説見	-10.6144
無私	-10.6146
夏王	-10.6151
故禹	-10.6152
於彼	-10.6153
一毫	-10.6153
曲折	-10.6154
未嘗有	-10.6154
㑹於	-10.6159
心也	-10.6159
有兩	-10.6162
人無	-10.6164
者言其	-10.6165
伏流	-10.6167
四方之民	-10.6168
立君	-10.6169
曰天	-10.6172
絶其	-10.6178
遷之	-10.618
納言	-10.6182
造化	-10.6182
有定	-10.6182
鄭注	-10.6184
自作	-10.6185
者非是	-10.6188
則一	-10.6194
治功	-10.6195
伊尹之	-10.6196
西域	-10.6202
佑助	-10.6206
於善	-10.6206
今日之	-10.6208
富貴	-10.6208
士大夫	-10.621
元和志云	-10.621
梓	-10.6211
穡	-10.6217
酣	-10.6217
朋友	-10.6217
觸	-10.6219
而卒	-10.622
珍	-10.6222
之不可	-10.6223
雖小	-10.6223
私心	-10.6224
父之	-10.6225
于中	-10.6226
本原	-10.6228
二十五篇	-10.6229
從諫	-10.623
要荒	-10.6234
在其中	-10.6245
興亡	-10.6254
十七年	-10.6258
疆界	-10.626
人謀	-10.6263
雖曰	-10.6266
後魏	-10.6268
祖廟	-10.6278
為長	-10.628
酷	-10.628
劉氏	-10.6282
以遷	-10.6285
者也故	-10.6285
能以	-10.6286
紫	-10.6287
反徐	-10.6288
不類	-10.6289
謗	-10.6291
畋	-10.6293
帝曰俞	-10.6293
駕	-10.6297
共為	-10.6298
行其	-10.6302
渚	-10.6303
何者	-10.6306
盡心	-10.6314
終於	-10.6315
存之	-10.6316
梁岐	-10.6316
下生	-10.6317
立事	-10.632
俊民	-10.6321
亦在	-10.6325
以達	-10.6326
朝鮮	-10.6326
亂之	-10.6329
郡縣	-10.6331
長沙	-10.6339
不然則	-10.6341
此數	-10.6343
後世之	-10.6344
不勤	-10.6348
能順	-10.6351
國家之	-10.6351
髙宗之	-10.6353
我亦	-10.6354
稷契	-10.6361
以立	-10.6362
旌	-10.6362
之實也	-10.6364
氷	-10.6365
孟豬	-10.637
又能	-10.6372
孔氏以	-10.6372
閩	-10.6374
停	-10.6375
滔天	-10.6375
舊人	-10.6376
璋	-10.6376
揆度	-10.6377
曰昔	-10.6384
不勉	-10.6386
彼此	-10.6387
沔水	-10.639
康寧	-10.6393
和夷	-10.6395
如此而	-10.64
是汝	-10.6407
死而	-10.641
而必	-10.6412
周公攝政	-10.6413
二十八	-10.6415
故瀆	-10.6416
以善	-10.6418
與其	-10.6425
為北江	-10.6426
也王肅云	-10.6426
思慮	-10.6432
濟河	-10.6432
也蘇氏曰	-10.6434
之職也	-10.6434
一家	-10.644
浚	-10.6444
為中	-10.6444
蠢	-10.6445
鞭	-10.6445
推而	-10.6446
而難	-10.6447
從革	-10.645
廉	-10.6451
三禮	-10.6452
不失其	-10.6454
深矣	-10.6454
河濟	-10.6463
書者	-10.6464
顯明	-10.6464
迤	-10.6469
天神	-10.6469
哀矜	-10.6471
文王之徳	-10.6471
前日之	-10.6474
其才	-10.6476
餘州	-10.6478
在洛	-10.6482
亦豈	-10.6488
職方氏	-10.6489
湯以	-10.649
滌	-10.6495
果何	-10.65
舊説	-10.6506
一段	-10.6511
是天	-10.6513
毅	-10.6515
生于	-10.6515
两	-10.6519
它	-10.6519
兒	-10.6521
凉	-10.6522
成於	-10.6523
悅	-10.6524
瞻	-10.6526
冶	-10.6529
慮其	-10.653
天下之心	-10.6534
東都	-10.6537
或言	-10.6537
和氣	-10.6538
者因	-10.6538
二典	-10.6539
叚	-10.6545
矣若	-10.6547
遷于	-10.6549
于帝	-10.655
之月	-10.6556
三山	-10.6559
必至	-10.6563
知恤	-10.6563
也豈	-10.6575
今予	-10.6576
藏之	-10.6576
知天命	-10.6578
存焉	-10.6581
告神	-10.6583
見矣	-10.6584
姜	-10.6589
于酒	-10.6592
安有	-10.6594
天生	-10.6595
所知	-10.6595
神宗	-10.6598
泣	-10.6599
居其	-10.66
鳩	-10.66
芮	-10.6601
麟	-10.6602
閲	-10.6603
扞	-10.6603
學之	-10.6604
梅	-10.6606
亘	-10.6607
標	-10.6608
聲教	-10.6611
河決	-10.6612
其治	-10.6617
作誥	-10.6618
殺戮	-10.6622
成王即政	-10.6625
梁雍	-10.6626
使天下	-10.6626
退而	-10.6631
而云	-10.6631
應在	-10.6632
已成	-10.6633
始得	-10.6634
大明	-10.6636
以下皆	-10.6638
九川	-10.6641
故事	-10.6642
歴代	-10.6642
郡國	-10.6643
此道	-10.6645
陳列	-10.6648
之貢	-10.6648
誅紂	-10.6649
吕梁	-10.6657
舜既	-10.6657
不動	-10.6659
洮	-10.6659
十有	-10.6663
安陸	-10.6669
老成人	-10.667
觀兵	-10.667
濰	-10.6674
故傳	-10.6674
起而	-10.6676
承天	-10.6676
鞭扑	-10.6677
輔我	-10.6678
剕	-10.6678
夏殷	-10.6679
少昊	-10.6679
卻	-10.6679
泄	-10.6681
盖謂	-10.6681
德惟	-10.6682
枚	-10.6682
又東南逕	-10.6683
壁中	-10.6683
骨	-10.6684
纁	-10.6684
銘	-10.6686
泛濫	-10.6686
蕩蕩	-10.6689
庶獄	-10.669
芮伯	-10.6692
保衡	-10.6693
城在	-10.6694
尤為	-10.6695
劉向	-10.6697
後來	-10.6701
於酒	-10.6701
蓋謂	-10.6706
於身	-10.6708
從事	-10.6709
厥辟	-10.6714
十九年	-10.6717
或作	-10.6718
尙書	-10.672
知其為	-10.6724
成康	-10.6728
故名	-10.673
封康叔	-10.6731
察其	-10.6733
汶水	-10.6734
君臣之	-10.6738
今屬	-10.6742
十夫	-10.6742
故得	-10.6746
水注之	-10.6747
匹夫匹婦	-10.6754
知人安民	-10.6754
四面	-10.6755
裏	-10.6756
粗	-10.6757
醫	-10.6757
以歸	-10.6758
影	-10.6759
覩	-10.6761
洋	-10.6762
櫟	-10.6762
底柱	-10.6765
未安	-10.6766
者固	-10.6767
憑	-10.6769
學問	-10.677
一箇	-10.6777
政令	-10.6777
五玉	-10.6777
未甞	-10.6778
逺人	-10.6779
凡民	-10.678
忠良	-10.6783
勉力	-10.6787
昊天	-10.6788
使汝	-10.679
二日	-10.6794
故次	-10.6795
八尺	-10.6799
十四年	-10.6807
申命	-10.681
安寧	-10.6812
之勞	-10.6813
之遺	-10.6816
揚之	-10.6819
西縣	-10.6819
有文	-10.6821
近而	-10.6821
于後	-10.6827
盡矣	-10.683
化民	-10.6831
淄	-10.6833
牖	-10.684
譜	-10.6842
圮	-10.6842
死者	-10.6843
莫能	-10.6844
水出焉	-10.6847
梁州之	-10.6847
改易	-10.6848
所施	-10.685
臣子	-10.6862
曰汝	-10.6864
之微	-10.687
之交	-10.6875
水旱	-10.6876
在焉	-10.6876
天與	-10.6877
數百里	-10.6878
三正	-10.6881
氏之	-10.6881
經緯	-10.6886
縣屬	-10.6886
居東	-10.6888
億	-10.689
更有	-10.6891
漾水	-10.6892
潛水	-10.6893
直言	-10.6905
一水	-10.6906
不孝	-10.6907
謀及	-10.6907
叢	-10.6911
而不得	-10.6914
州東	-10.6915
𫉬	-10.6915
所以致	-10.6916
遐	-10.6918
返	-10.692
有疑	-10.692
萃	-10.6921
紵	-10.6922
爲政	-10.6923
其氣	-10.6923
沅	-10.6924
十餘	-10.6924
而况	-10.6924
滅之	-10.6925
灘	-10.6925
耽樂	-10.6926
教人	-10.6927
作歌	-10.6928
茫	-10.6929
綴衣	-10.693
徂征	-10.693
處之	-10.6931
皆曰	-10.6938
又在	-10.6945
刑也	-10.6947
率諸侯	-10.6947
衣食	-10.6949
一端	-10.6951
而進	-10.6951
漆水	-10.6952
不可無	-10.6953
心而	-10.6962
黄金	-10.6963
民命	-10.6965
八州	-10.6967
洚水	-10.6968
南陽	-10.6968
體也	-10.6978
有一毫	-10.698
論也	-10.6987
腆	-10.6995
㸃	-10.6995
東土	-10.6997
民則	-10.6998
東北至	-10.6998
亟	-10.6999
此之謂	-10.6999
阿衡	-10.6999
上黨	-10.6999
忒	-10.7
豳	-10.7001
天下無	-10.7003
恨	-10.7004
須是	-10.7005
小序	-10.7005
木之	-10.7005
喬	-10.7006
諸篇	-10.7006
巖	-10.7007
我不	-10.701
積累	-10.701
烝祭	-10.7014
唐孔氏謂	-10.7014
以兵	-10.7017
御覽	-10.7017
二伯	-10.702
人倫	-10.7024
成王命	-10.7026
流行	-10.7031
升降	-10.7031
簡而	-10.7032
以養	-10.7034
止言	-10.704
人則	-10.704
欲令	-10.704
當為	-10.7042
與周公	-10.7045
之端	-10.7046
晁氏	-10.7048
而弗	-10.7054
左氏傳	-10.7056
七日	-10.7056
上章	-10.7058
但以	-10.7059
通道	-10.7059
大司徒	-10.7063
焉此	-10.7065
新民	-10.7065
政之	-10.7065
生魄	-10.7071
陳其	-10.7072
而至于	-10.7072
沇	-10.7073
之所當	-10.7074
一寸	-10.7075
日中	-10.7076
芒	-10.7077
憫	-10.7079
曰嗚呼	-10.7083
哭	-10.7083
狼	-10.7084
諛	-10.7084
狐	-10.7084
周天	-10.7085
死生	-10.7086
常任	-10.709
之所能	-10.7091
滄州	-10.7092
之地也	-10.7094
按此	-10.7099
百榖	-10.7104
山林	-10.7107
不可信	-10.7109
三條	-10.712
成文	-10.7127
忠信	-10.7127
繼之以	-10.7128
之廟	-10.7128
之迹	-10.713
監視	-10.7134
心術	-10.7135
五罰	-10.7143
有疾	-10.7144
先君	-10.7147
濳	-10.7149
禹既	-10.7151
不由	-10.7152
内而	-10.7156
兢業	-10.7158
羣飲	-10.7161
準人	-10.7164
矣惟	-10.7164
迄	-10.7164
諴	-10.7165
寔	-10.7165
敝	-10.7168
繇	-10.717
聖徳	-10.7175
三節	-10.7176
斯言	-10.7177
有竒	-10.7177
好生	-10.7178
注疏	-10.7179
而遽	-10.718
更端	-10.7183
昔者	-10.7187
四句	-10.7191
者衆	-10.7191
于殷	-10.7196
九章	-10.7202
昭然	-10.7203
至治	-10.7205
時已	-10.7207
不謹	-10.7213
行於	-10.7217
君心	-10.722
上上	-10.7221
入濟	-10.7222
一等	-10.7222
民有	-10.7227
祖己	-10.7228
大略	-10.723
遷善	-10.723
臯陶之	-10.723
食之	-10.7234
之夷	-10.7234
大罪	-10.7235
乃大	-10.7239
首言	-10.7242
爾雅曰	-10.7244
此葢	-10.7248
惕	-10.7249
相反	-10.7249
上公	-10.725
馮	-10.725
㝠	-10.725
鼻	-10.7252
陳氏師凱曰	-10.7252
當如此	-10.7253
雞	-10.7255
島	-10.7257
沈湎	-10.7258
上文言	-10.7258
自絶	-10.726
于心	-10.7261
先人	-10.7261
乃知	-10.7262
者言之	-10.7263
試之	-10.7267
有徳者	-10.7276
言不	-10.7276
堯舜禹	-10.7277
作亂	-10.7279
以證	-10.7281
之節	-10.7282
雍之	-10.7284
:	-10.7285
書以	-10.7289
萊夷	-10.7292
安邑	-10.7292
于四方	-10.73
有六	-10.7302
必然	-10.7304
正義云	-10.7304
恐懼	-10.7309
凶徳	-10.731
治洛	-10.732
甚大	-10.7321
有異	-10.7322
也後世	-10.7322
分流	-10.7322
戕	-10.7323
一念	-10.7328
癸	-10.7328
亦將	-10.733
丁未	-10.733
職業	-10.7331
不甚	-10.7331
春分	-10.7331
後漢書	-10.7333
凢	-10.7337
逸欲	-10.7337
繞	-10.7337
近世	-10.7342
本文	-10.7343
行者	-10.7346
秩宗	-10.7347
于汝	-10.735
山下	-10.7353
自反	-10.7356
用是	-10.7356
之典	-10.7359
叔父	-10.7361
倦	-10.7374
小水	-10.7374
反復	-10.7379
當如	-10.7382
斷獄	-10.7383
信也	-10.7385
營州	-10.7392
則凡	-10.7394
河徙	-10.7395
代天	-10.7396
禹治	-10.7397
開元	-10.7398
曰禹	-10.7405
丙	-10.7407
民情	-10.7407
小國	-10.7409
揖	-10.741
艮	-10.7411
運行	-10.7411
仲壬	-10.7412
穢	-10.7412
冰	-10.7415
突	-10.7416
繋	-10.7417
進也	-10.7417
者無不	-10.7418
伯冏	-10.7418
排	-10.7419
舛	-10.7419
㓕	-10.7419
委曲	-10.742
仲丁	-10.742
無功	-10.7422
数	-10.7422
斆	-10.7422
涯	-10.7425
安逸	-10.7432
事理	-10.7432
於衆	-10.7433
三皇	-10.7436
錯簡	-10.7437
其形	-10.7438
之人也	-10.744
七宿	-10.7441
祈天永命	-10.7448
知者	-10.7451
常情	-10.7452
侯國	-10.7453
或者	-10.7455
杜預云	-10.7456
馬本作	-10.7459
開導	-10.7466
又東南	-10.7468
治事之臣	-10.7473
其聲	-10.7475
今河南	-10.7478
之界	-10.7482
必待	-10.7482
之為言	-10.7489
扈	-10.7491
人才	-10.7491
其利	-10.7493
以盡	-10.7493
本朝	-10.7494
理而	-10.7494
兢兢業業	-10.7496
陳之	-10.7496
所任	-10.7496
告歸	-10.7499
淮南	-10.7499
器用	-10.75
扆	-10.7501
導漾	-10.7501
認	-10.7504
疵	-10.7504
遥	-10.7504
創業	-10.7505
藝文志	-10.7505
桑欽	-10.7507
漂	-10.7508
言舜	-10.7508
銖	-10.7509
而反	-10.751
大體	-10.751
汧	-10.751
百僚	-10.7511
而見	-10.7512
三句	-10.7513
而已故	-10.7514
雷首	-10.7517
呂刑	-10.7519
不敢以	-10.752
能治	-10.7521
安居	-10.7522
萬物之	-10.7522
灃	-10.7522
此一節	-10.7528
欲去	-10.7529
交相	-10.753
君子之	-10.7535
之術	-10.7535
兩端	-10.7536
莫大	-10.7541
自今	-10.7541
大辟	-10.7541
四時之	-10.7542
則我	-10.7546
視其	-10.7547
兾	-10.7548
遣使	-10.755
貢之	-10.7551
取諸	-10.7552
厯年	-10.7557
置之	-10.7558
形勢	-10.7561
考其	-10.7562
而紂	-10.7564
先后	-10.7568
立言	-10.7569
厯象	-10.7572
為患	-10.7573
今在	-10.7574
足矣	-10.7576
青徐	-10.7577
之口	-10.7577
東南至	-10.7578
乎且	-10.7583
尉	-10.7584
吝	-10.7585
衮	-10.7585
畆	-10.7585
尭	-10.7586
燭	-10.7586
有善	-10.7588
咸有一德	-10.7588
道徳	-10.7589
若兹	-10.7592
咤	-10.7593
吕氏祖謙曰	-10.7596
二十九日	-10.7599
堂下	-10.76
四寸	-10.7603
同其	-10.7604
一千	-10.7609
而盡	-10.761
說見	-10.761
常伯	-10.7611
所取	-10.7612
亂而	-10.7614
五刑之	-10.7616
授之	-10.7618
經曰	-10.7619
不經	-10.7627
天降威	-10.763
功而	-10.7631
皆同	-10.7635
一里	-10.7636
固不可	-10.7638
不疑	-10.7643
其來	-10.7644
南郡	-10.7647
汝能	-10.7653
南吕	-10.7655
治水之	-10.7656
目前	-10.7662
為文	-10.7668
之歌	-10.7668
怙	-10.7668
自周	-10.7669
涵	-10.7671
娶	-10.7675
紛紛	-10.7675
晨	-10.7676
趣	-10.7676
酗	-10.7676
快	-10.7676
飽	-10.7677
矣是	-10.7677
籲	-10.7678
之險	-10.7679
甲胄	-10.7679
颺	-10.7679
柏	-10.768
而從	-10.7682
之器	-10.7684
則已	-10.7686
鞏縣	-10.7688
葢以	-10.7689
而西	-10.7689
莫之	-10.769
豈特	-10.7694
功也	-10.7695
冊書	-10.7695
亦為	-10.7698
𤼵源	-10.7698
惡而	-10.7699
期於	-10.7703
民亦	-10.7704
顔師古	-10.7706
國人	-10.7706
聖王	-10.7712
周公之言	-10.7713
之事故	-10.7714
不識	-10.7714
源流	-10.7719
言汝	-10.7721
不加	-10.7722
敢不	-10.7724
四海之	-10.7725
善言	-10.7727
賜之	-10.773
不殺	-10.7733
救之	-10.7734
周公曰	-10.7736
弗率	-10.7743
耳非	-10.7751
高宗之	-10.7751
為宫	-10.7752
之憂	-10.7754
汲	-10.7759
精一	-10.7759
終不	-10.7763
百二十	-10.7764
計之	-10.7764
隐	-10.7765
澮	-10.7766
考終命	-10.7766
演	-10.7766
礙	-10.7767
踐奄	-10.7768
裘	-10.7768
邉	-10.7768
非所以	-10.7768
馴	-10.7769
采地	-10.777
豆	-10.777
器也	-10.777
吐	-10.777
旗	-10.7771
墊	-10.7772
孟春	-10.7773
天既	-10.7774
交修	-10.7775
鄱陽	-10.7777
二臣	-10.7778
教誨	-10.7778
左旋	-10.778
賢君	-10.7781
民無	-10.7781
所記	-10.7783
今天	-10.7787
求諸	-10.7791
竊意	-10.7792
不以為	-10.7794
大吕	-10.7794
處也	-10.7797
隂陽之	-10.7798
地而	-10.7799
責難	-10.7799
中江	-10.7803
别之	-10.7807
慎罰	-10.7808
為天	-10.7812
間有	-10.7814
任賢	-10.7814
綱領	-10.7815
上句	-10.7821
以戒	-10.7822
臣也	-10.7824
出焉	-10.7834
治田	-10.7834
襄公	-10.7838
今為	-10.7838
此序	-10.7841
所不及	-10.7842
所係	-10.7843
摇	-10.7845
此義	-10.7847
致敬	-10.7848
授受	-10.785
語辭	-10.7851
歡	-10.7852
世本	-10.7854
稟	-10.7856
訂	-10.7857
如後世	-10.7858
網	-10.7858
等事	-10.7858
楯	-10.7858
豬野	-10.7859
洪範九疇	-10.7859
水勢	-10.7862
堙	-10.7862
僞	-10.7863
咨四岳	-10.7864
無愧	-10.7864
太蔟	-10.7864
恭儉	-10.7867
而起	-10.7868
漲	-10.787
百世	-10.7873
典獄	-10.7877
載之	-10.7878
其責	-10.7881
士師	-10.7881
赦之	-10.7882
分野	-10.7886
變也	-10.789
當是時	-10.7892
敬天	-10.7893
清明	-10.7894
異物	-10.7895
精微	-10.7898
侮慢	-10.7899
不獲	-10.79
十二次	-10.7907
疑其	-10.7908
皆指	-10.791
歴數	-10.7911
也雖然	-10.7915
不吉	-10.7915
零	-10.7921
而死	-10.7923
也其曰	-10.7923
成帝	-10.7924
五教	-10.7924
異同	-10.7925
河患	-10.7929
此五者	-10.793
事事	-10.7935
㦲	-10.7935
苛	-10.7937
綽	-10.7938
弑	-10.7938
亦通	-10.794
戊申	-10.794
用徳	-10.7942
顛倒	-10.7942
復辟	-10.7943
膏	-10.7943
凱	-10.7943
於此而	-10.7943
抱	-10.7944
穎	-10.7944
王樵曰	-10.7946
異也	-10.7947
而後可以	-10.7948
今觀	-10.7948
為亂	-10.7959
之病	-10.7959
數也	-10.7963
此四	-10.7968
於汝	-10.797
汝心	-10.7972
而居	-10.7972
之辨	-10.7974
金城	-10.7976
之輕重	-10.7976
陳謨	-10.7977
委任	-10.7982
相合	-10.7984
百五十里	-10.7984
汝身	-10.7984
平陽	-10.7985
塞外	-10.7988
眷	-10.7992
以是為	-10.7993
保之	-10.7996
諸書	-10.8
惟在於	-10.8004
乃復	-10.8005
晚	-10.8005
山縣	-10.8018
方千里	-10.802
之序也	-10.8023
正如	-10.8025
嶓冢山	-10.8029
過失	-10.8031
穿鑿	-10.8032
朂	-10.8033
湮	-10.8033
舌	-10.8034
収	-10.8034
儲	-10.8035
𨗳	-10.8036
不絶	-10.8037
姑息	-10.8037
隸	-10.8038
鄴	-10.8038
在豐	-10.8038
孔頴達	-10.8039
平日	-10.804
襃	-10.804
夏后	-10.8042
酈注	-10.8043
告爾	-10.8044
車服	-10.8045
中氣	-10.8047
誤矣	-10.8048
治人	-10.805
什一	-10.8052
總言	-10.8054
浙江	-10.8063
誤也	-10.8064
荆揚	-10.8064
光武	-10.8066
取法	-10.8068
歎而	-10.8068
說文云	-10.807
固無	-10.8071
商民之	-10.8071
北極	-10.8072
自安	-10.8073
以治之	-10.8078
誥命	-10.8079
以此知	-10.8081
果能	-10.8082
及此	-10.8083
何獨	-10.8087
勸之	-10.8089
省察	-10.8089
反側	-10.809
宣帝	-10.809
變亂	-10.8091
矣何	-10.8092
始祖	-10.8094
岷江	-10.8095
可以觀	-10.8096
曰若稽古	-10.8097
已然	-10.8097
商邑	-10.8098
顔師古曰	-10.8099
美之	-10.81
畏之	-10.81
文章	-10.8102
重華	-10.8102
惡也	-10.8102
成矣	-10.8103
為彭蠡	-10.8104
鑑	-10.8113
鞏	-10.8113
當其	-10.8115
藁	-10.8117
黻	-10.8117
此論	-10.8117
若時	-10.8118
簒	-10.8118
武王崩	-10.812
殿	-10.812
之明日	-10.8121
西至	-10.8121
璣衡	-10.8123
祧	-10.8123
盗	-10.8124
百執事	-10.8128
耇	-10.8128
周公之心	-10.813
瓚	-10.813
深思	-10.813
輔之	-10.8131
之澤	-10.8132
而思	-10.8134
中和	-10.8135
而可以	-10.8137
用工	-10.8138
無或	-10.8141
光華	-10.8147
始皇	-10.8148
凡此	-10.8149
先儒以	-10.815
以保	-10.815
秋分	-10.8152
得名	-10.8154
常山	-10.8154
事君	-10.8156
子男	-10.816
以俟	-10.8164
乃得	-10.8165
念哉	-10.8169
夾室	-10.817
復有	-10.817
之時而	-10.817
以觀	-10.817
所以成	-10.8174
之理也	-10.8175
徳惟	-10.8184
相視	-10.8188
我乃	-10.819
我所以	-10.8191
感應	-10.8192
有四	-10.8194
祀之	-10.8194
其詳	-10.8195
卓	-10.8198
陳氏雅言曰	-10.8198
朔日	-10.82
薨	-10.8205
大火	-10.8206
不率	-10.8207
瘝	-10.8211
之所言	-10.8212
一州	-10.8212
乙卯	-10.8213
漯水	-10.8213
籥	-10.8217
証	-10.8217
芳	-10.8218
必使	-10.822
之積	-10.8221
銳	-10.8222
四方諸侯	-10.8225
位也	-10.8227
京兆	-10.8227
橘柚	-10.8228
氣之	-10.8231
九州之外	-10.8233
之義故	-10.8234
不利	-10.8234
農事	-10.8239
入南海	-10.824
封之	-10.8242
之來	-10.8247
四分	-10.8252
以致其	-10.8256
也惟其	-10.8257
七廟	-10.8261
凡此皆	-10.8262
六經	-10.8262
而不為	-10.8265
爲天子	-10.8268
又東至	-10.8269
三俊	-10.8269
汝惟	-10.8272
不得已而	-10.8274
婁	-10.8278
而亡	-10.828
匹夫	-10.8281
錯亂	-10.8288
高明	-10.829
鍰	-10.829
也周	-10.8291
南交	-10.8296
宼	-10.8299
之時也	-10.83
禹湯	-10.8301
外而	-10.8301
欠	-10.8302
立於	-10.8304
之田	-10.8305
核	-10.8307
盛德	-10.8307
如是之	-10.8308
敬順	-10.8309
達河	-10.8309
傳以	-10.8311
文教	-10.8311
人能	-10.8312
保安	-10.8312
所據	-10.8312
析支	-10.8315
刑法	-10.8317
祁	-10.8319
莞	-10.8319
有理	-10.832
違卜	-10.8327
者不能	-10.8327
君臣上下	-10.8328
無所不至	-10.8332
也至於	-10.8335
相當	-10.8335
縣故城南	-10.8339
熊耳山	-10.8339
耳故	-10.834
岍	-10.8341
引書	-10.8342
未然	-10.8343
今既	-10.8343
鮮食	-10.8349
為法	-10.8352
戊	-10.8352
為萬世	-10.8353
元后	-10.8353
也史記	-10.8353
不思	-10.8355
州之境	-10.8362
咨嗟	-10.8365
既曰	-10.8366
荀	-10.8369
心者	-10.8369
攷之	-10.8369
獨夫	-10.8371
終身	-10.8375
滹沱	-10.8376
改正	-10.8377
思所以	-10.8379
之風	-10.8383
五湖	-10.8384
潭	-10.8387
朞	-10.8391
不孝不友	-10.8392
發之	-10.8393
諸侯也	-10.8393
諸侯皆	-10.8394
事業	-10.8395
軫	-10.8395
山水	-10.8396
亦因	-10.8398
姒	-10.8399
不死	-10.84
糧	-10.84
董氏鼎曰	-10.84
等處	-10.8401
優游	-10.8402
雀	-10.8402
剖	-10.8402
六十四	-10.8402
又南逕	-10.8402
髙宗肜日	-10.8404
甚逺	-10.8407
終南	-10.8407
並屬	-10.8407
曲阜	-10.8409
乙未	-10.8409
向背	-10.841
使不	-10.8413
千古	-10.8413
殽	-10.8414
考績	-10.8418
之俗	-10.842
宥之	-10.8421
以濟	-10.8422
外方	-10.8422
也王氏曰	-10.8422
相類	-10.8422
夏侯	-10.8422
虞舜	-10.8423
莫如	-10.8424
勉强	-10.8424
間斷	-10.8427
天必	-10.8438
先民	-10.8439
之基	-10.8441
若謂	-10.8441
蘇氏謂	-10.8443
少康	-10.8443
若無	-10.8444
分之	-10.8445
之尊	-10.845
敬而	-10.8452
陳留	-10.8452
常在	-10.8453
舜曰	-10.8454
灃水	-10.8455
不平	-10.8456
論其	-10.8463
在徳	-10.8463
舜以	-10.8467
反下同	-10.847
儀刑	-10.8474
刑辟	-10.8475
而忘	-10.8479
下下	-10.8484
州南	-10.8486
臬	-10.8486
天休	-10.8489
朴	-10.849
肩	-10.8491
河間	-10.8492
於海	-10.8492
克明	-10.8495
仲尼	-10.8495
䙝	-10.8495
周家之	-10.8495
途	-10.8496
不顧	-10.8497
仞	-10.8497
已定	-10.8498
敖	-10.8499
璆	-10.85
之心則	-10.8502
溫	-10.8503
擇其	-10.8504
啓迪	-10.851
天下國家	-10.8513
地志云	-10.8513
聖賢之	-10.8515
保惠	-10.8515
偃師	-10.8516
内方	-10.8518
遜志	-10.8522
勿用	-10.8522
周禮司	-10.8523
而後言	-10.8524
雖已	-10.8524
敷布	-10.8524
其長	-10.8527
河出	-10.8528
神農	-10.8532
為近	-10.8534
毫釐	-10.8537
漢屬	-10.8537
而還	-10.8547
文意	-10.8547
此説是也	-10.8549
言之耳	-10.8549
溝洫	-10.855
德之人	-10.8551
天性	-10.8551
眷顧	-10.8556
九服	-10.8557
其敢	-10.8558
于四海	-10.856
天地之間	-10.856
於河	-10.8563
也渭按	-10.8565
君臣之間	-10.8565
在彼	-10.8568
也大抵	-10.8569
休命	-10.8569
云在	-10.8572
讀之	-10.8574
有國	-10.8576
以終	-10.858
太極	-10.8582
禹功	-10.8582
者能	-10.8585
置閏	-10.8585
之本意	-10.8586
賈逵	-10.8586
乏	-10.8587
傍	-10.8588
明聽	-10.859
姚	-10.859
是書	-10.8592
秘	-10.8593
宅百揆	-10.8595
言文武	-10.8595
六曰	-10.8596
吹	-10.8597
六者	-10.8598
涸	-10.8598
攸好徳	-10.8599
拙	-10.8599
人亦	-10.8599
觀此	-10.86
為中江	-10.8604
焉是	-10.8605
在河南	-10.8608
故城在	-10.8608
命禹	-10.8611
語録	-10.8614
法者	-10.8614
邦伯	-10.8615
九德	-10.8616
中央	-10.8616
好善	-10.8618
不偏	-10.8619
天官	-10.862
無違	-10.8621
善矣	-10.8625
天亦	-10.8626
故雖	-10.8629
鯀之	-10.8631
天罰	-10.8631
薛氏	-10.8635
𫝊云	-10.8645
作聖	-10.8648
馬本	-10.8653
放齊	-10.8653
初不	-10.8656
同一	-10.8656
通稱	-10.8656
唐虞之	-10.8656
推其	-10.8659
猶曰	-10.8659
陳戒	-10.8661
濕	-10.8665
非周公	-10.8665
也漢	-10.8666
其南	-10.8666
浙	-10.8666
大旱	-10.8667
之意故	-10.8668
下而	-10.8669
微而	-10.8671
慎厥	-10.8673
之詳	-10.8676
事有	-10.8678
平水土	-10.8678
二千	-10.8681
上承	-10.8682
貶	-10.8682
叅	-10.8682
乃祖乃父	-10.8683
余謂	-10.8683
鬲津	-10.8683
其屬	-10.8683
瀍	-10.8684
鐡	-10.8688
于闐	-10.8689
戍	-10.8689
閱	-10.8689
苟不	-10.8691
輙	-10.8691
福也	-10.8693
元祀	-10.8694
酢	-10.8694
西漢水	-10.8695
與日	-10.8695
輔佐	-10.8697
蔡沈	-10.8698
之列	-10.8698
久而	-10.8699
十餘里	-10.8705
乆矣	-10.8706
丕顯	-10.8707
疆理	-10.8709
當先	-10.8711
外事	-10.8713
以取	-10.8714
以殷	-10.8716
不立	-10.8719
八十一	-10.8719
人臣之	-10.8721
易以	-10.8721
表裏	-10.8722
隄防	-10.8724
一國	-10.8725
東逕	-10.8727
一周	-10.8729
蘓氏	-10.8731
淮南子	-10.8734
無窮之	-10.874
言文王	-10.8742
命畢公	-10.8743
以見其	-10.8743
陽城	-10.8744
之疑	-10.8746
毗	-10.8746
商周	-10.8749
四百里	-10.8752
師氏	-10.8754
大梁	-10.8759
舉之	-10.8761
為澤	-10.8761
時人	-10.8764
葢謂	-10.8768
由其	-10.8768
失於	-10.8769
重其事	-10.877
大率	-10.8771
而發	-10.8771
一山	-10.8772
天下之理	-10.8773
省文	-10.8774
致政	-10.8775
袁	-10.8775
巡狩	-10.8775
與否	-10.8775
㳟	-10.8777
為不善	-10.8777
所主	-10.8779
傲上從康	-10.8779
瑕	-10.878
惟我	-10.8781
戛	-10.8782
正者	-10.8784
裕民	-10.8784
朱圉	-10.8786
禽獸	-10.8786
糾	-10.8788
太宰	-10.8788
而告	-10.879
鄂	-10.879
帝命	-10.879
未可以	-10.8791
常事	-10.8791
别為	-10.8791
難保	-10.8793
雕	-10.8794
琴	-10.8794
湛	-10.8796
親之	-10.8796
莫大于	-10.8796
於事	-10.8802
其目	-10.8802
治理	-10.8804
矣於是	-10.8809
近者	-10.8809
刑書	-10.881
水中	-10.8812
其外	-10.8812
神祇	-10.8812
也又按	-10.8813
是知	-10.8815
見聖人	-10.8819
同穴	-10.882
之謨	-10.8823
其親	-10.8824
以酒	-10.8829
亦作	-10.883
本心	-10.8837
夏正	-10.8839
之可也	-10.884
服命	-10.8841
六百	-10.8841
不仁	-10.8841
治其	-10.8842
靑	-10.8846
利口	-10.8847
訓之	-10.885
周公東征	-10.8852
度數	-10.8854
九寸	-10.8858
於經	-10.8865
若使	-10.8869
必有所	-10.8869
刑而	-10.8871
泯	-10.8871
睢	-10.8872
柴	-10.8876
少頴	-10.8876
曲禮	-10.8877
嫡	-10.8878
舟楫	-10.888
汲汲	-10.8881
響	-10.8881
位而	-10.8881
於古	-10.8882
則必有	-10.8882
競	-10.8882
日月五星	-10.8883
何敢	-10.8883
馮翊	-10.8884
覃懐	-10.8885
五等	-10.8885
伊川	-10.8886
黜陟	-10.8887
千乗	-10.8887
自漢	-10.8888
軍旅	-10.8889
甲戌	-10.8891
▁吕氏曰	-10.8892
徼外	-10.8893
彭澤	-10.8893
伻	-10.8894
者不過	-10.8894
未為	-10.8894
也周官	-10.8903
其刑	-10.8903
以從	-10.8904
唐書	-10.8906
未足	-10.8906
日至	-10.8906
無心	-10.8908
言王	-10.891
再三	-10.8912
固當	-10.8912
第八	-10.8912
天人之	-10.8914
辨其	-10.8918
於是乎	-10.8918
之不同	-10.8918
陜西	-10.892
懼其	-10.8924
母弟	-10.8924
器物	-10.8933
體統	-10.8934
師尹	-10.8934
中興	-10.8935
石門	-10.8937
凶人	-10.8938
小者	-10.8939
孔壁	-10.8943
過於	-10.8945
易氏曰	-10.895
所同	-10.8951
詩所謂	-10.8951
州西	-10.8954
難以	-10.8962
立其	-10.8962
斷之	-10.8966
間之	-10.8966
專以	-10.897
民之心	-10.897
複	-10.8972
説得	-10.8973
當謹	-10.8973
歆	-10.8973
如此也	-10.8974
漢孔	-10.8976
徳以	-10.8976
眚	-10.8978
遍	-10.8979
恢	-10.8979
豹	-10.898
毳	-10.8981
仁者	-10.8982
不能盡	-10.8982
樵	-10.8982
我其	-10.8984
矛	-10.8984
蒲姑	-10.8984
纖	-10.8986
摯	-10.8986
方其	-10.8986
犬戎	-10.8987
也傳正義曰	-10.8991
則無以	-10.8993
五臣	-10.8998
承上	-10.9002
懋勉	-10.9007
為次	-10.901
安縣	-10.9011
雜出	-10.9013
其居	-10.9017
不同而	-10.9018
稽考	-10.9019
未明	-10.9019
四海之内	-10.9019
呉氏曰	-10.9019
江陵	-10.902
成臯	-10.902
居於	-10.9021
敬者	-10.9021
至極	-10.9022
而不變	-10.9024
降衷	-10.9025
正與	-10.9026
反馬云	-10.9027
不同者	-10.9027
澧水	-10.903
又見	-10.903
不得以	-10.9036
記之	-10.9036
或不	-10.9041
畢門	-10.9041
禹言	-10.9042
郊祀	-10.9044
失道	-10.9047
霍叔	-10.9048
非人	-10.9052
此節	-10.9052
乎夫	-10.9052
訓迪	-10.9055
無度	-10.9056
地下	-10.9058
番	-10.906
惟德	-10.9062
縣本漢	-10.9063
未得	-10.9067
象刑	-10.9067
一歲	-10.9068
陷於	-10.907
行其所無事	-10.9074
蠱	-10.9076
汎	-10.9077
而先	-10.9077
建中	-10.9078
坊	-10.9079
䜛	-10.9079
黷	-10.908
釁	-10.9081
塾	-10.9082
直是	-10.9083
喜怒	-10.9084
其效	-10.9084
怨詈	-10.9086
交趾	-10.9086
爵禄	-10.9087
血氣	-10.9087
誓衆	-10.9091
大畧	-10.9094
之狀	-10.9096
皆用	-10.9096
殄絶	-10.91
可通	-10.9102
武王以	-10.9106
明帝	-10.9108
蓋自	-10.9117
順而	-10.9122
名者	-10.9122
漢武	-10.9122
元孫	-10.9122
中國之	-10.9124
武都	-10.9126
不可謂	-10.9131
刑戮	-10.914
為徳	-10.9145
之例	-10.9149
日月之	-10.9149
意以	-10.9149
小而	-10.9152
球	-10.9152
致功	-10.9156
皆知	-10.9156
不差	-10.9158
三里	-10.916
進而	-10.9161
疑而	-10.9166
䖍	-10.9169
格天	-10.9169
每州	-10.9172
以喻	-10.9173
命令	-10.9173
戡	-10.9173
胙	-10.9174
教也	-10.9175
湎	-10.9175
也人君	-10.9176
其極	-10.9176
異名	-10.9176
龠	-10.9176
謂武王	-10.9176
凡三	-10.9177
畏懼	-10.9178
霜	-10.918
卣	-10.9181
閣	-10.9182
粹	-10.9183
噫	-10.9183
狥	-10.9183
絕	-10.9186
瀕	-10.9187
唱	-10.9188
皇輿表	-10.9189
為角	-10.9189
弗弔	-10.919
賄	-10.9191
何疑	-10.9192
鴻溝	-10.9192
罪而	-10.9193
有時而	-10.9193
鼠	-10.9193
孟門	-10.9194
同於	-10.9194
興師	-10.9194
順從	-10.9199
與上	-10.92
十日	-10.92
猶今	-10.9203
大中之道	-10.9203
天命也	-10.9204
七十二	-10.9204
王政	-10.9206
濟濟	-10.9206
賢否	-10.9206
相繼	-10.9206
方可	-10.9206
人物	-10.9207
地平	-10.9213
此地	-10.9214
之道而	-10.9217
注引	-10.922
而何	-10.9224
叛逆	-10.9225
古書	-10.9238
無射	-10.924
有功者	-10.924
其所以為	-10.924
則所謂	-10.9241
入於海	-10.9242
戒王	-10.9242
而興	-10.9243
能行	-10.9244
與紂	-10.9245
山北	-10.9254
惟言	-10.9256
之所出	-10.9256
成王周公	-10.9257
之威	-10.9257
隨山刋木	-10.9257
特言	-10.926
奉承	-10.9261
皇甫謐	-10.9262
昌言	-10.9264
在前	-10.9265
伐夏	-10.9268
天下後世	-10.9269
所謀	-10.9271
東出	-10.9272
其北	-10.9272
此條	-10.9272
効	-10.9275
揭	-10.9276
彞倫	-10.9279
是爲	-10.9281
命羲和	-10.9281
孝經	-10.9282
去極	-10.9282
状	-10.9283
過誤	-10.9283
遁	-10.9284
夘	-10.9284
也文王	-10.9284
庫	-10.9286
潘	-10.9287
為武王	-10.9287
茨	-10.9288
桃	-10.9288
孥戮	-10.9289
朝宗	-10.9289
太甲之	-10.9289
逹于	-10.9289
為證	-10.929
翦	-10.929
壑	-10.9291
之證	-10.9293
戡黎	-10.9295
祖已	-10.9295
讓于	-10.9296
遷洛	-10.9297
瀦	-10.9297
五章	-10.9298
者三	-10.9298
爲君	-10.9299
益州	-10.93
三孤	-10.93
二十八篇	-10.9301
遂謂	-10.9303
昆弟	-10.9304
過九江	-10.9308
于君	-10.9308
桓水	-10.9308
相須	-10.9314
自滿	-10.9318
猶且	-10.9325
重而	-10.9326
定天下	-10.9326
敷言	-10.9326
益之	-10.9327
元龜	-10.9329
親見	-10.9329
以應	-10.9331
曾氏曰	-10.9331
第二十	-10.9332
孰為	-10.9335
書中	-10.9336
私欲	-10.9336
以告之	-10.9337
民間	-10.9339
為天所	-10.9339
渭汭	-10.9341
名山	-10.9342
我聞	-10.9342
也先儒	-10.9343
日出	-10.9344
得而	-10.9345
甚重	-10.935
亳邑	-10.9352
漢陽	-10.9352
東晉	-10.9354
如我	-10.9356
洪範之	-10.9363
之意謂	-10.9368
加之	-10.9368
廣平	-10.937
以祀	-10.9374
之資	-10.9374
杜佑	-10.9375
何謂	-10.9376
西序	-10.9378
上之人	-10.938
度之	-10.9381
於天子	-10.9382
伏生書	-10.9382
肈	-10.9382
休戚	-10.9383
稾	-10.9383
超	-10.9385
屑	-10.9385
棣	-10.9385
拱	-10.9385
恁地	-10.9385
眉	-10.9385
悍	-10.9386
蓍龜	-10.9387
弃	-10.9388
而歸之	-10.9389
天之威	-10.939
之驗	-10.9391
逼	-10.9391
乃在	-10.9392
所封	-10.9392
宄	-10.9393
簜	-10.9393
我之所	-10.9394
自奄	-10.94
迷惑	-10.9401
所執	-10.9403
之家	-10.9405
大降	-10.9406
國子	-10.9407
孔意	-10.9407
皆出於	-10.9409
師師	-10.9411
沖子	-10.9411
復出	-10.9416
繼世	-10.9419
萬一	-10.9419
兾州	-10.9421
者不可	-10.9424
有成	-10.943
河在	-10.943
乎人	-10.9437
又引	-10.9437
愛君	-10.9439
弟子	-10.944
詳矣	-10.944
故欲	-10.9444
六臣	-10.9445
盡也	-10.9446
地利	-10.9448
爲一	-10.9448
其所為	-10.9448
遷於	-10.9449
主之	-10.9453
司牧	-10.9455
舉而	-10.9463
告康叔	-10.9463
以金	-10.947
推本	-10.9473
言周公	-10.9476
厥賦	-10.948
自上	-10.948
所止	-10.9483
以天下為	-10.9485
堂上之樂	-10.9486
裂	-10.9486
秸	-10.9488
摩	-10.9488
皋陶	-10.9489
是皆	-10.9489
乾坤	-10.9491
我有	-10.9491
誡	-10.9491
也此言	-10.9492
泝	-10.9492
蹇叔	-10.9492
鄧	-10.9492
助祭	-10.9493
下大夫	-10.9494
捍	-10.9494
牟	-10.9495
敉	-10.9496
楛	-10.9497
君天下	-10.9497
三家	-10.9499
賜姓	-10.9504
死魄	-10.9505
和平	-10.9508
𢎞農	-10.9508
之管	-10.9508
思念	-10.9509
五等之	-10.9509
仲春	-10.951
陶唐	-10.951
不取	-10.951
三王之	-10.9511
白水	-10.9511
火之	-10.9512
不可輕	-10.9512
南巢	-10.9512
不詳	-10.9514
州北	-10.9515
異而	-10.9515
為五	-10.9516
荆州之	-10.9517
當與	-10.952
北條	-10.9521
必由	-10.9521
所共	-10.9521
大龜	-10.9522
不爲	-10.9523
安矣	-10.9524
舊臣	-10.9524
而稱	-10.953
傳記	-10.9531
聖人所以	-10.9531
倣此	-10.9531
之偏	-10.9532
時則	-10.9534
三十年	-10.9534
之數也	-10.9536
變為	-10.9538
爲惡	-10.9538
受顧命	-10.9539
古訓	-10.954
三宗	-10.954
《	-10.9549
古文作	-10.955
虐政	-10.9551
之下流	-10.9551
南條	-10.9554
也昔	-10.9555
天所以	-10.9556
水經注云	-10.9559
所指	-10.9561
若有	-10.9562
稱之	-10.9563
豈容	-10.9564
既遷	-10.9564
然後知	-10.9566
推廣	-10.9566
秦州	-10.9567
亦得	-10.9568
豐鎬	-10.9571
知是	-10.9572
新君	-10.9575
讀為	-10.9575
功徳	-10.9576
千萬	-10.9578
作乂	-10.9581
妾	-10.9581
固非	-10.9581
其所居	-10.9585
▁陳氏大猷曰	-10.9588
曽子	-10.9588
室家	-10.9589
香	-10.959
紊	-10.959
弋	-10.9592
熱	-10.9594
幽明	-10.9595
癸亥	-10.9596
圜	-10.9596
也予	-10.9596
而益	-10.9597
宴	-10.9598
很	-10.9598
滎波	-10.9599
渝	-10.9606
卞	-10.961
五行傳	-10.9612
可居	-10.9613
所可	-10.9614
而不復	-10.9616
先世	-10.9618
告王	-10.962
在河東	-10.962
以表	-10.9621
括地志云	-10.9622
夏氏	-10.9622
氣質	-10.9623
之方	-10.9623
九載	-10.9623
為濟	-10.9623
權衡	-10.9625
一德	-10.9625
澨	-10.9627
歴試	-10.9629
在所	-10.9631
也唐孔氏曰	-10.9633
絶也	-10.9633
一念之	-10.9635
同義	-10.9637
太室	-10.9641
餘民	-10.9648
於國	-10.9648
於朝	-10.965
不如是	-10.965
以名篇	-10.9653
不得其所	-10.9653
十八年	-10.9655
盧氏	-10.9655
倣	-10.9655
有所不	-10.966
雲中	-10.9662
一代之	-10.9662
十六年	-10.9664
而言曰	-10.9665
土圭	-10.9666
不逺	-10.9668
豈以	-10.9671
相宅	-10.9671
逺方	-10.9672
咎徴	-10.9672
留之	-10.9675
東原	-10.9677
十有二月	-10.9682
澤也	-10.9684
妹	-10.9686
類也	-10.9687
永命	-10.9689
不許	-10.969
括地志	-10.9692
終于	-10.9693
鼓舞	-10.9697
絶句	-10.9698
亢	-10.9699
鏞	-10.9701
贅	-10.9701
誠意	-10.9701
衆國	-10.9701
總之	-10.9702
在河北	-10.9704
城在今	-10.9706
聨	-10.9706
湎于酒	-10.9706
菏水	-10.9707
百五十	-10.9708
荆公	-10.971
亦與	-10.9712
拜稽首	-10.9713
其衆	-10.9718
安治	-10.9719
全數	-10.9721
性之	-10.9723
人鬼	-10.9723
亦能	-10.9725
奢侈	-10.9726
本又作	-10.9727
郭璞云	-10.9731
尚未	-10.9732
五氣	-10.9732
汝乃	-10.9732
諸國	-10.9736
廣運	-10.9738
使無	-10.9738
仲冬	-10.9738
監于	-10.9738
感格	-10.9739
已而	-10.974
者無非	-10.9741
正在	-10.9745
二事	-10.9745
某事	-10.9745
不離	-10.975
中矣	-10.9751
非但	-10.9753
戒懼	-10.9753
所犯	-10.9754
主于	-10.9756
乃祖	-10.9757
祥刑	-10.9758
之切	-10.9758
湖口	-10.976
元良	-10.976
之罰	-10.976
常存	-10.9761
既畢	-10.9764
如漢	-10.9765
大邦	-10.9768
公子	-10.9769
宗人	-10.9771
華夏	-10.9774
明威	-10.9776
曾子	-10.9778
典章	-10.9778
其輕重	-10.9778
鄒	-10.9778
赤子	-10.978
足以見	-10.978
將有	-10.9789
之休	-10.979
往伐	-10.9793
實在	-10.9796
魯侯	-10.9797
之綱	-10.9799
之念	-10.98
可與	-10.98
奉行	-10.9801
聲音	-10.9805
我二人	-10.9806
駁	-10.9806
分北	-10.9809
癸酉	-10.9811
宛	-10.9813
五福六極	-10.9813
江河	-10.9813
至大	-10.9814
囂	-10.9814
塘	-10.9815
德而	-10.9816
六軍	-10.9817
林鐘	-10.9817
徒見	-10.9824
具區	-10.9825
之神	-10.9825
孔穎達	-10.9826
也湯	-10.9827
天下之至	-10.9828
百鍰	-10.9829
十二辰	-10.983
為羽	-10.9835
聖經	-10.9837
稱帝	-10.9837
昭王	-10.9838
敬承	-10.9849
貴乎	-10.9852
一見	-10.9854
無餘	-10.9854
長子	-10.9857
十五日	-10.9859
不祥	-10.9859
動而	-10.9859
南入	-10.9861
居憂	-10.9862
降格	-10.9865
遷都之	-10.9866
凡言	-10.9866
誠有	-10.9867
者既	-10.987
自知	-10.9873
東注	-10.9873
方伯	-10.9875
明言	-10.9876
哉蓋	-10.9877
夫以	-10.9879
河朔	-10.9883
此人	-10.9883
一支	-10.9884
耳目之	-10.9886
楚子	-10.9886
物則	-10.9887
則亂	-10.989
道里	-10.9894
所入	-10.9896
禹臯陶	-10.9897
春秋傳	-10.9898
祀典	-10.9903
故自	-10.9906
此又言	-10.9907
杞	-10.9909
東河	-10.991
於地	-10.991
本于	-10.9911
漢唐	-10.9913
幼沖	-10.9913
廵狩	-10.9914
江源	-10.9915
勃	-10.9915
奢	-10.9915
篆	-10.9915
擅	-10.9916
隰	-10.9917
駭	-10.9918
將使	-10.9918
探	-10.9919
也帝	-10.9919
孔氏穎逹曰	-10.9919
嶓	-10.992
岀	-10.992
命我	-10.992
膚	-10.9923
軒	-10.9923
蠢動	-10.9923
澗水	-10.9924
秦始皇	-10.9925
林少頴謂	-10.9927
豪	-10.9928
畨	-10.9928
妹土	-10.9929
之類皆	-10.993
水性	-10.9934
髙山	-10.9937
二說	-10.9937
肉刑	-10.9939
輔成	-10.9943
者特	-10.9944
嵩髙	-10.9945
生明	-10.9948
列於	-10.9949
以入海	-10.9949
不可不敬	-10.9949
在雍州	-10.995
臣妾	-10.9953
變文	-10.9955
徳化	-10.9958
尤甚	-10.9958
于時	-10.996
協于	-10.996
有窮	-10.9962
事畢	-10.9963
順也	-10.9963
知有	-10.9965
逆命	-10.9968
師長	-10.9968
云凡	-10.9973
以来	-10.9978
徐音	-10.9979
多而	-10.9981
意而	-10.9984
故使	-10.9987
東井	-10.9988
目之	-10.9989
終焉	-10.9991
源委	-10.9992
南有	-10.9992
其任	-10.9992
師之	-10.9992
門内	-10.9993
難曉	-10.9993
至周	-10.9994
此一節書	-10.9994
克敬	-10.9994
斯民之	-10.9996
妻子	-10.9996
甚於	-10.9998
猶在	-10.9999
一方	-11.0006
生數	-11.0008
東郡	-11.0011
五百餘里	-11.0012
凡四	-11.0012
逆天	-11.0013
爲民	-11.0017
明君	-11.0017
於先王	-11.0018
穎達	-11.002
氐	-11.002
聊	-11.0022
不雜	-11.0022
和則	-11.0023
唐志	-11.0023
徼	-11.0025
梗	-11.0027
灌溉	-11.0027
妲己	-11.0028
殺武庚	-11.0029
孥	-11.0031
乙丑	-11.0031
鳥鼠同穴	-11.0031
水流	-11.0032
恬	-11.0034
翁	-11.0034
荘	-11.0034
聞見	-11.0035
夏后氏	-11.0038
戒也	-11.0038
苞	-11.004
世世	-11.0041
之功也	-11.0042
定矣	-11.0043
爾衆	-11.0044
之原	-11.0044
也以其	-11.0046
君德	-11.0046
惟此	-11.0047
先代	-11.0048
以五	-11.0049
封建	-11.0051
自然之	-11.0053
過郡	-11.0055
清濁	-11.0055
不可違	-11.0056
寛大	-11.0063
無一毫	-11.0068
順理	-11.0068
王乃	-11.0068
耳然	-11.0071
九水	-11.0073
東坡曰	-11.0073
漢時	-11.0075
以寛	-11.0081
達于河	-11.0081
能成	-11.0083
敬以	-11.0083
謂天	-11.0083
爾等	-11.0084
人掌	-11.0084
祗敬	-11.0085
修之	-11.0085
與此同	-11.0086
為之説	-11.0089
誠心	-11.0092
有常刑	-11.0094
折而東	-11.0094
居亳	-11.0095
十二律	-11.0095
金氏	-11.0097
馬牛	-11.0099
執事	-11.01
率其	-11.0101
以知	-11.0102
輔君	-11.0105
合乎	-11.0107
而言之也	-11.0107
又作	-11.0109
不畀	-11.0109
不作	-11.0111
驪	-11.0119
六典	-11.0119
漢書作	-11.0122
必克	-11.0122
義者	-11.0122
嵩	-11.0124
水皆	-11.0125
師古	-11.0126
謂舜	-11.0127
者可以	-11.0129
二里	-11.013
三十日	-11.0131
積石山	-11.0131
其所謂	-11.0131
𫝊曰	-11.0133
冬夏	-11.0134
為貴	-11.0134
𤼵明	-11.0134
安也	-11.0135
名言	-11.0136
屬於	-11.0136
生物	-11.0136
闡	-11.0137
易之	-11.0138
桂	-11.0139
地形	-11.014
飫	-11.0141
綂	-11.0141
蔑	-11.0142
塗泥	-11.0142
古註	-11.0143
四日	-11.0144
廩	-11.0144
淸	-11.0144
叶	-11.0145
塗山	-11.0145
治矣	-11.0145
漁	-11.0145
㳂	-11.0145
樸	-11.0146
與上文	-11.0146
醇	-11.0146
弘	-11.0148
砥	-11.0148
升聞	-11.0151
永平	-11.0152
順流	-11.0152
三江既入	-11.0152
罪之	-11.0152
牿	-11.0155
組	-11.0155
以次	-11.0156
也歟	-11.0156
本性	-11.0158
並同	-11.0158
所命	-11.0158
壘	-11.0159
于兹	-11.0159
周語	-11.0163
酒泉	-11.0163
予奪	-11.0165
横流	-11.0166
雷澤	-11.0166
不存	-11.0168
知所以	-11.0168
經流	-11.0169
而禹	-11.017
曹州	-11.017
於堯	-11.017
和順	-11.0171
天地之中	-11.0172
五代	-11.0173
一道	-11.0176
爾多士	-11.0177
二十三	-11.0178
舊說	-11.0178
望其	-11.018
詳審	-11.018
主宰	-11.0186
無得	-11.0187
不赦	-11.0187
海内	-11.0189
修治	-11.0189
能勝	-11.019
無知	-11.0191
從我	-11.0193
亦未嘗	-11.0196
相生	-11.0196
我命	-11.0197
七里	-11.0202
東遷	-11.0202
一在	-11.0204
乃云	-11.0205
伐殷	-11.0206
多有	-11.0206
宜乎	-11.0206
殺其	-11.0212
水去	-11.0213
之舉	-11.0215
今案	-11.0216
也愚按	-11.0217
想見	-11.0219
湯崩	-11.022
釋詁云	-11.022
以承	-11.0224
小事	-11.0225
日進	-11.0226
民主	-11.0227
授時	-11.0228
時有	-11.0228
一朝	-11.0231
成而	-11.0233
貢物	-11.0236
前既	-11.0236
冲	-11.0237
而加	-11.0237
許氏	-11.0238
嗟歎	-11.024
告之曰	-11.0243
上既	-11.0244
穗	-11.0245
以授	-11.0245
不可考	-11.0245
汚	-11.0245
汙	-11.0248
任土作貢	-11.0248
浪	-11.0249
参	-11.025
成都	-11.0251
杖	-11.0251
雍州之	-11.0252
點	-11.0253
狠	-11.0256
知天	-11.0256
華蟲	-11.0257
筵	-11.0257
百人	-11.0258
以繼	-11.026
封於	-11.026
嵗月日	-11.026
穽	-11.026
瓜	-11.026
砮	-11.0263
沈潛	-11.0264
孟子言	-11.0265
世變	-11.0268
溢為滎	-11.027
教訓	-11.0271
郊社	-11.0271
引此	-11.0275
由是而	-11.0275
五品	-11.0276
之號	-11.0278
之門	-11.0278
結之	-11.0278
建國	-11.0283
殷禮	-11.0288
怨咨	-11.0289
至海	-11.0289
成王以	-11.0291
也召公	-11.0293
營洛邑	-11.0294
在北	-11.0295
威命	-11.0298
三年不言	-11.0302
無定	-11.0303
其味	-11.0303
尚存	-11.0303
海中	-11.0305
孫氏曰	-11.0305
董氏	-11.0306
濟漯	-11.0308
可據	-11.031
轉而	-11.0312
朝臣	-11.0313
而治之	-11.0313
有才	-11.0313
今文無古文有	-11.0315
也苟	-11.0315
必曰	-11.0315
自相	-11.0322
初生	-11.0324
其弟	-11.0325
而已哉	-11.0326
以象	-11.0329
言民	-11.0333
不能敬	-11.0334
朕志	-11.0334
為下	-11.0335
凡事	-11.0336
此山	-11.0336
官也	-11.0337
誠以	-11.0339
極矣	-11.034
歎息	-11.0341
在河	-11.0341
其色	-11.0341
家法	-11.0342
六律	-11.0344
大惡	-11.0346
不悛	-11.035
矣故曰	-11.0353
得中	-11.0355
金木	-11.0355
拯	-11.0356
物皆	-11.0358
濼	-11.036
弭	-11.0363
䖏	-11.0363
告君	-11.0363
虗	-11.0363
隣	-11.0364
縣故城	-11.0364
峯	-11.0365
鳥䑕	-11.0367
後代	-11.0367
彛倫	-11.0368
以九	-11.0368
九徳之	-11.0368
髪	-11.0369
稻	-11.0369
伯益	-11.037
黼扆	-11.037
岷嶓	-11.0371
菁茅	-11.0372
暋	-11.0373
衆多	-11.0375
矣又曰	-11.0376
顔色	-11.0376
立于	-11.0376
奠爵	-11.0378
五采	-11.0379
與王	-11.038
之親	-11.0383
以圖	-11.0385
故舜	-11.0385
勞苦	-11.0387
以成其	-11.0388
殄滅	-11.0389
一百二十里	-11.0392
為君之道	-11.0394
天下也	-11.0395
者實	-11.0397
有容	-11.0399
其或	-11.04
下士	-11.0401
惟敬	-11.0402
萬世之	-11.0404
歎美	-11.0408
水在	-11.0408
五篇	-11.041
食貨	-11.0411
任官	-11.0411
在地	-11.0414
審矣	-11.0417
不忠	-11.0417
乎若	-11.042
其大者	-11.0423
為國	-11.0425
惟厥	-11.0437
天之明	-11.044
首受	-11.044
歎息言	-11.044
五載	-11.0445
翼日	-11.0447
祭告	-11.0449
亦已	-11.0453
是人	-11.0453
紀其	-11.0455
吾身	-11.0456
既立	-11.0458
不堪	-11.0464
孔云	-11.0464
而分	-11.0464
爾尚	-11.0464
施于	-11.0466
下邳	-11.0466
而命之	-11.0468
故不言	-11.0469
所依	-11.0474
莒	-11.0474
制之	-11.0477
粉米	-11.0477
大綱	-11.0478
值	-11.0479
此二句	-11.048
愿	-11.048
治河	-11.048
蘇氏軾曰	-11.0482
澶	-11.0483
豈惟	-11.0485
淫泆	-11.0485
阪	-11.0487
之聲	-11.0487
潯陽	-11.0489
姬	-11.049
嗇夫	-11.049
兢兢	-11.049
阼階	-11.049
即上文	-11.0492
崤	-11.0495
伏犧	-11.0498
在漢	-11.0499
蓋亦	-11.05
蕤賔	-11.0506
無二	-11.0506
所職	-11.0509
而動	-11.0514
勿以	-11.0516
其類	-11.0516
司馬遷	-11.0517
卷二	-11.0521
警之	-11.0525
四川	-11.0525
樂安	-11.0527
一定之	-11.0529
以别	-11.0533
汝若	-11.0536
作書者	-11.0538
澤在	-11.0539
亦難	-11.0542
此特	-11.0543
皆是也	-11.0545
二渠	-11.0555
古字	-11.0557
等語	-11.0558
敬用	-11.0563
官人	-11.0565
學官	-11.0566
成王之命	-11.057
也况	-11.0571
常刑	-11.0573
能如此	-11.0574
名之曰	-11.0575
有限	-11.0576
在昔	-11.0577
庶言	-11.0582
之祖	-11.0588
惻	-11.0588
曰君	-11.059
餞	-11.0591
諄	-11.0591
浮磬	-11.0594
一丈	-11.0595
傑	-11.0595
佩	-11.0596
譏	-11.0596
已久	-11.0596
促	-11.0597
廓	-11.0597
林氏之奇曰	-11.0598
列國	-11.0598
以意	-11.0598
癸巳	-11.0598
枲	-11.0599
粟米	-11.06
世子	-11.06
渡孟津	-11.0601
沾	-11.0601
晢	-11.0602
縱欲	-11.0605
虢叔	-11.0606
亡者	-11.0607
勃海	-11.0609
上宗	-11.0609
徳之人	-11.061
圭瓚	-11.061
妹邦	-11.0611
哉然	-11.0612
之㑹	-11.0614
錫之福	-11.0618
太丁	-11.0619
不至于	-11.062
故因	-11.062
雍梁	-11.0622
言禹	-11.0624
井田	-11.0624
愛敬	-11.0624
子聲	-11.0629
四門	-11.0629
惟明	-11.063
日月之行	-11.063
周禮大	-11.063
不敢知	-11.063
易曉	-11.0631
而誓	-11.0632
之舞	-11.0634
與天合	-11.0634
彭城	-11.0637
罔念	-11.0639
衛侯	-11.064
百神	-11.064
自足	-11.0643
食者	-11.0644
訓為	-11.0644
多誥	-11.0644
酈	-11.0644
無赦	-11.0645
不覺	-11.0646
也伊尹	-11.0647
用酒	-11.065
石山	-11.065
其祖	-11.0651
導岍	-11.0652
之名也	-11.0653
太和	-11.0654
東光	-11.0656
肆其	-11.0657
毛公	-11.0658
霍山	-11.0659
主災	-11.0661
之勤	-11.0662
正聲	-11.0663
大司馬	-11.0663
師古曰	-11.0666
求備	-11.0666
呂氏	-11.0666
之明年	-11.0668
不分	-11.0668
子産	-11.0668
勞而	-11.0672
昏迷	-11.0673
然非	-11.0674
三十二	-11.0674
雖不同	-11.0674
周公言	-11.0675
山在今	-11.0681
深知	-11.0683
也朱子曰	-11.0684
善人	-11.0684
使不得	-11.0684
不同故	-11.0685
一周天	-11.0686
丹陽	-11.0689
支流	-11.069
厥終	-11.0692
林鍾	-11.0694
撫安	-11.0696
且以	-11.0696
任其	-11.0699
未立	-11.07
不見其	-11.0702
以助	-11.0704
加以	-11.0704
於夏	-11.0704
誤以	-11.0704
故當	-11.0706
居上	-11.0709
抗	-11.0709
乎民	-11.071
壹	-11.0711
嬖	-11.0712
矩	-11.0713
安汝止	-11.0713
葉榆	-11.0713
六府三事	-11.0714
勇智	-11.0714
雙	-11.0715
作偽	-11.0715
必亡	-11.0715
無由	-11.0716
犧	-11.0716
扶持	-11.0717
經綸	-11.0717
碎	-11.0717
於内	-11.0718
連屬	-11.0718
日月所㑹	-11.0719
則其所	-11.0719
馨	-11.0721
注同	-11.0721
鄠縣	-11.0723
方是	-11.0724
𥘉	-11.0724
有扈氏	-11.0724
匭	-11.0725
聽朕	-11.0727
家語	-11.0727
其何以	-11.0728
子思	-11.0728
有商	-11.0729
尊賢	-11.0729
禄父	-11.073
王天下	-11.0731
漢初	-11.0733
不可為	-11.0734
作冊	-11.0734
不救	-11.0735
禪位	-11.0738
意其	-11.074
百餘	-11.0741
無偏	-11.0744
已下	-11.0744
周旋	-11.0746
億萬	-11.075
武王時	-11.0752
然後可	-11.0754
蝕	-11.0756
而後有	-11.0757
耳若	-11.0758
已上	-11.0762
愛之	-11.0765
訓誥	-11.0767
水所	-11.0768
也鄭玄云	-11.077
亦不敢	-11.077
合朔	-11.077
進其	-11.0771
一州之	-11.0773
隋唐	-11.0773
先有	-11.0777
擇人	-11.0779
不犯	-11.078
我今	-11.078
始封	-11.0781
分命	-11.0782
▁林氏曰	-11.0782
恐非	-11.0783
治國	-11.0783
偽作	-11.0783
為師	-11.0785
作室	-11.0786
為界	-11.0789
胄	-11.0791
之所行	-11.0792
雖無	-11.0793
末年	-11.0795
誠能	-11.0796
近也	-11.0796
何自而	-11.0798
九者	-11.0798
般	-11.0798
安可	-11.0804
功用	-11.0807
耀	-11.0807
一出	-11.0808
星鳥	-11.081
孔傳云	-11.0811
事上	-11.0811
月日	-11.0815
臆	-11.0818
人之道	-11.0819
守成	-11.0819
其川	-11.0821
堂下之樂	-11.0828
少師	-11.083
郭璞曰	-11.0833
絜	-11.0834
㧞	-11.0834
一定	-11.0835
醴	-11.0835
其常	-11.0835
燎	-11.0836
上上錯	-11.0837
縂	-11.0838
即位之初	-11.0839
壅塞	-11.084
勿替	-11.084
衣裳	-11.0841
勉其	-11.0842
方岳	-11.0842
矣且	-11.0843
命官	-11.0843
有命	-11.0843
如彼	-11.0845
諸侯之長	-11.0847
周道	-11.085
臣扈	-11.0851
留後	-11.0851
告天	-11.0852
有事於	-11.0853
小乙	-11.0853
不可通	-11.0857
忘其	-11.0857
休徴	-11.086
政典	-11.0861
考翼	-11.0862
此舉	-11.0863
艱大	-11.0864
西境	-11.0865
泰誓三篇	-11.0865
之書也	-11.0866
難矣	-11.0866
改悔	-11.0868
王曰封	-11.0868
仁也	-11.0869
不審	-11.087
矣又按	-11.0872
家人	-11.0874
流放	-11.0875
有時	-11.0875
安得有	-11.0878
何時	-11.0879
當用	-11.0879
天文	-11.0882
至此則	-11.089
十二日	-11.089
分職	-11.0898
曉然	-11.0899
汝君	-11.09
生而	-11.0902
初一	-11.0902
惟其人	-11.0904
又名	-11.0909
嘗謂	-11.091
在兹	-11.0913
例也	-11.0914
全在	-11.0916
於廟	-11.0918
施行	-11.0922
王言	-11.0925
就其	-11.0925
其賦	-11.0926
特以	-11.0927
之孫	-11.0927
一而已	-11.0928
語意	-11.093
江海	-11.0932
德義	-11.0932
人之有	-11.0934
高祖	-11.0934
同故	-11.0936
猶存	-11.0938
否曰	-11.0943
不輕	-11.0945
一五行	-11.0946
腥	-11.0947
些	-11.0948
耻	-11.0948
於魯	-11.0948
杶	-11.0948
謂成王	-11.0951
公侯伯子男	-11.0952
懦	-11.0952
壺	-11.0953
孰不	-11.0954
鄒季友曰	-11.0955
嚚	-11.0955
立之	-11.0955
翳	-11.0956
從此	-11.0957
甲寅	-11.0958
頂	-11.0958
祕	-11.0958
吉人	-11.0959
我后	-11.0962
緘	-11.0962
僭差	-11.0964
麻冕	-11.0966
本意	-11.0968
時乃	-11.0969
改為	-11.0972
圖功	-11.0975
書説	-11.0976
我以	-11.0978
危懼	-11.0979
傳授	-11.098
便有	-11.098
水入	-11.0982
成法	-11.0984
深逺	-11.0984
加於	-11.0985
相望	-11.0985
汝往	-11.0986
立法	-11.0987
孝恭	-11.099
不可使	-11.099
太僕正	-11.0991
商紂	-11.0993
圖書	-11.0993
會同	-11.0995
天子諸侯	-11.0995
兵刑	-11.0996
觀之則	-11.1
須當	-11.1
不知所	-11.1
未必然	-11.1
六寸	-11.1001
馬融云	-11.1001
有序	-11.1002
降威	-11.1003
河之南	-11.1004
一理	-11.1007
漢文帝	-11.1008
八曰	-11.1012
經歴	-11.1013
數千里	-11.1013
攜	-11.1014
東入海	-11.1015
郢	-11.1016
惑於	-11.102
國事	-11.102
冬官	-11.1024
示人	-11.1024
二反	-11.1029
千載	-11.1029
水北	-11.103
沔陽	-11.1031
之度	-11.1032
舊都	-11.1033
居延	-11.1035
海水	-11.1035
即下文	-11.1038
之貌	-11.104
爲大	-11.1041
忠臣	-11.1044
貫通	-11.1044
然自	-11.1046
與衆	-11.1048
而知之	-11.1048
州治	-11.105
同時	-11.1052
奔告	-11.1052
大要	-11.1052
事勢	-11.1052
則凶	-11.1053
洛出	-11.1055
觀政	-11.1057
難得	-11.1058
克終	-11.1061
伊尹之言	-11.1062
小罪	-11.1066
水入焉	-11.1066
衆人之	-11.1067
必將	-11.1068
民居	-11.1068
黄氏	-11.1069
柷敔	-11.107
塗炭	-11.1071
所守	-11.1072
非無	-11.1073
耽	-11.1073
亦稱	-11.1074
肜	-11.1075
影響	-11.1075
服食器用	-11.1075
在冀州	-11.1075
夸	-11.1076
銜	-11.1076
伺	-11.1077
勒	-11.1077
鄭以	-11.1077
低	-11.1078
幕	-11.1078
三龜	-11.1078
畎澮	-11.1078
紂既	-11.1079
文武成康	-11.108
涿	-11.108
駿	-11.108
匏	-11.1081
滄浪	-11.1081
犀	-11.1081
千里而	-11.1085
横渠	-11.1085
而不自知	-11.1085
平時	-11.1086
其有不	-11.1087
非可	-11.1088
又非	-11.1091
於成王	-11.1093
之化	-11.1094
石磬	-11.1096
意思	-11.1097
不悟	-11.1098
對曰	-11.1099
之基業	-11.1099
千乘	-11.11
此水	-11.11
終日	-11.11
終篇	-11.11
古注	-11.1101
信乎	-11.1103
河西	-11.1103
在我者	-11.1104
舊章	-11.1104
童子	-11.1106
卽位	-11.1106
既平	-11.1107
北距	-11.1107
上帝之	-11.1108
仲吕	-11.111
篇終	-11.111
不止於	-11.1113
其下流	-11.1121
平州	-11.1121
譬之	-11.1122
此說是也	-11.1124
隨時	-11.1126
嗟嘆	-11.1128
不去	-11.1129
執中	-11.1129
哉盖	-11.113
道元	-11.1134
可推	-11.1135
不專	-11.1137
師法	-11.1142
前功	-11.1143
以紀	-11.1144
而不忘	-11.1146
之過也	-11.1147
無自而	-11.1147
十餘年	-11.1148
王制云	-11.115
能致	-11.1151
所當為	-11.1151
夏時	-11.1155
承之	-11.1157
哲人	-11.1157
得賢	-11.1157
而治	-11.1163
而有天下	-11.1165
如是而	-11.1165
簡編	-11.1165
文命	-11.1167
鄭元	-11.117
彗	-11.117
開明	-11.1171
於四方	-11.1173
亦多	-11.1174
方始	-11.1175
號曰	-11.1177
有所歸	-11.1177
識之	-11.1178
至於此	-11.1181
亦不必	-11.1184
𠂻	-11.1189
李氏	-11.1193
錫禹	-11.1194
嘉靖	-11.1194
是心	-11.1196
勗	-11.1196
自責	-11.1198
為能	-11.1198
蠲	-11.1199
曆	-11.1201
敬勞	-11.1201
都尉	-11.1201
華陽	-11.1201
澗瀍	-11.1202
二十八年	-11.1203
羑	-11.1205
於洛邑	-11.1206
則下	-11.1206
巨室	-11.1208
濡	-11.1208
土性	-11.1209
盥	-11.1209
金縢之書	-11.121
浚儀	-11.1211
二分	-11.1212
何待	-11.1214
涔	-11.1215
康叔以	-11.122
其土	-11.122
殷本紀	-11.1221
郊廟	-11.1222
必不能	-11.1223
愼罰	-11.1226
所重	-11.1228
囚之	-11.123
山海經曰	-11.1231
綴衣虎賁	-11.1232
繫辭	-11.1233
爾衆士	-11.1236
從康	-11.1237
革命	-11.1239
於神	-11.1239
則其心	-11.124
復以	-11.1242
去就	-11.1243
重於	-11.1244
其成	-11.1248
許商	-11.1248
其事也	-11.1249
王制曰	-11.1251
禹之所	-11.1251
衆庶	-11.1252
殛之	-11.1254
皆與	-11.1254
百四十里	-11.1254
獄之	-11.1259
震動	-11.126
邪正	-11.1261
天下大	-11.1261
於商	-11.1265
氐道	-11.1266
錦	-11.1266
九成	-11.1268
一律	-11.1269
不求	-11.1271
其物	-11.1272
而下皆	-11.1273
餘分	-11.1274
典樂	-11.1276
二十六	-11.1277
生死	-11.1278
乃曰	-11.128
加之以	-11.1281
㒺不	-11.1282
大都	-11.1283
哉夫	-11.1284
二孔	-11.1284
身之	-11.1285
並無	-11.1286
人道	-11.1289
不可掩	-11.1291
隋志	-11.1298
有若	-11.1302
夏禹	-11.1303
啓之	-11.1303
析城	-11.1303
舉舜	-11.1304
二物	-11.1307
用命	-11.1308
可使	-11.1309
予之	-11.1309
懈	-11.1311
敎化	-11.1311
賀	-11.1311
夷則	-11.1313
孝子	-11.1314
之坐	-11.1314
流逕	-11.1315
之中而	-11.1315
以警	-11.132
毫髪	-11.1322
啇	-11.1322
允徳	-11.1323
蘖	-11.1323
晷	-11.1323
賢俊	-11.1323
既修	-11.1324
律厯志	-11.1326
若今	-11.1326
逹於	-11.1328
纊	-11.1328
以制	-11.1329
霖雨	-11.1329
上云	-11.1329
乍	-11.1329
迨	-11.1329
乃自	-11.1331
琅玕	-11.1331
祖庚	-11.1333
威虐	-11.1334
荷	-11.1335
我心	-11.1336
無怨	-11.1336
班師	-11.1336
君子小人	-11.1338
區處	-11.1339
者欲	-11.1343
則固	-11.1343
爲王	-11.1344
門外	-11.1344
於是而	-11.1347
其變	-11.1347
行天罰	-11.1349
三千里	-11.1349
餘里	-11.135
必至於	-11.1352
湯既	-11.1352
綱紀	-11.1357
遂以為	-11.1359
來者	-11.136
度量	-11.1365
山即	-11.1366
聽我	-11.1366
庶子	-11.1369
用法	-11.1371
欣	-11.1371
禹自	-11.1371
味别	-11.1374
皇極之道	-11.1374
至善	-11.1374
則臣	-11.1377
自我	-11.1377
解之	-11.1378
安府	-11.1379
賢材	-11.1381
凡五	-11.1382
順道	-11.1383
亳姑	-11.1384
其徳之	-11.1385
則將	-11.1388
受此	-11.1391
伯父	-11.1393
宗祀	-11.1397
僉	-11.1398
説文云	-11.1404
象恭	-11.1409
什	-11.141
自然之理	-11.1413
承上文	-11.1418
聽命	-11.142
浮於	-11.1421
耕作	-11.1428
為君者	-11.1429
敎民	-11.1431
神祗	-11.1433
二者皆	-11.1433
殺也	-11.1434
信其	-11.1439
禰	-11.1441
即命	-11.1442
近代	-11.1443
渴	-11.1445
剥	-11.1448
畱	-11.1448
河南府	-11.1448
叢脞	-11.1449
司徒司馬司空	-11.145
如一	-11.1451
小邦	-11.1451
居喪	-11.1451
進之	-11.1452
詭	-11.1452
无	-11.1452
知小人之依	-11.1452
不循	-11.1452
降災	-11.1453
狩	-11.1454
練	-11.1454
板	-11.1455
修德	-11.1455
墻	-11.1455
黄氏度曰	-11.1455
春秋傳曰	-11.1456
莫敢	-11.1456
轍	-11.1457
又北逕	-11.1457
無過不及	-11.1457
檿絲	-11.1458
三危山	-11.1458
恆	-11.1458
亮隂	-11.1459
荅拜	-11.146
河中	-11.1462
逋逃	-11.1464
金之	-11.1465
好德	-11.1465
涪	-11.1467
必用	-11.1467
必得	-11.1468
天乃	-11.147
安則	-11.1472
公孫	-11.1473
之所自	-11.1474
萬幾	-11.1477
止也	-11.1481
庶事	-11.1482
可行	-11.1485
也因	-11.1486
犍為	-11.1486
然有	-11.1487
一人而	-11.1487
禹平水土	-11.1488
視聴	-11.1491
言湯	-11.1492
謀也	-11.1493
之殊	-11.1495
天工	-11.1496
灼然	-11.1496
乎蓋	-11.1497
禮曰	-11.1498
試舜	-11.1498
為物	-11.1506
曷不	-11.1511
公羊	-11.1512
重者	-11.1512
晉侯	-11.1514
民心之	-11.1514
致之	-11.1516
皆不可	-11.1518
大猷曰	-11.1519
之政也	-11.152
為之說	-11.152
既從	-11.1523
同意	-11.1524
宗彝	-11.1526
矣况	-11.1528
有不可	-11.1536
至元	-11.1536
能安	-11.1536
事上帝	-11.1536
堯曰	-11.1537
者周公	-11.1538
渙	-11.1539
林少頴	-11.154
黜殷	-11.1544
三尺	-11.1548
也是以	-11.1549
成命	-11.1549
不學	-11.1553
記載	-11.1554
尊者	-11.1556
兼之	-11.1557
可耕	-11.1559
慚	-11.1564
之東北	-11.1564
百六十	-11.1565
者莫如	-11.1566
以備	-11.1568
吳氏	-11.1569
何足	-11.157
一分	-11.1572
七百里	-11.1572
衆官	-11.1572
耦	-11.1574
隳	-11.1575
經理	-11.1575
瘠	-11.1575
誑	-11.1576
周公之意	-11.1579
屠	-11.1579
扑	-11.1579
流至	-11.158
大司樂	-11.1581
迪知	-11.1582
蓍	-11.1582
類于上帝	-11.1582
雩	-11.1583
製	-11.1584
生焉	-11.1584
鋭	-11.1584
圭璧	-11.1584
法制	-11.1585
險阻	-11.1586
繫於	-11.1587
圭瓉	-11.1587
祖宗之	-11.1588
義同	-11.1588
亦不得	-11.1592
自下	-11.1592
殷周	-11.1592
而退	-11.1592
明堂位	-11.1592
安于	-11.1593
后羿	-11.1594
眇	-11.1595
于商	-11.1596
之所自出	-11.1596
象賢	-11.1596
民之所以	-11.1606
在身	-11.1606
並行	-11.1608
出乎	-11.1608
民怨	-11.1609
七十五	-11.1609
不永	-11.1609
人君當	-11.1609
慎徳	-11.1609
如此然	-11.1612
貞觀	-11.1612
矣盖	-11.1612
非必	-11.1613
經籍	-11.1614
因時	-11.1615
兵車	-11.1617
通典云	-11.1619
寧人	-11.162
與天地	-11.1621
有虞氏	-11.1623
席也	-11.1626
不知有	-11.1627
孫炎曰	-11.1628
心法	-11.1628
亦同	-11.1629
也太保	-11.163
于衆	-11.1631
無害	-11.1633
以訓	-11.1633
不得為	-11.1633
王位	-11.1635
考證	-11.1636
亦不過	-11.1636
非一人	-11.1637
五十年	-11.1638
并吉	-11.1639
文選	-11.1639
江自	-11.1643
之别名	-11.1643
受天	-11.1645
於四海	-11.1646
先時	-11.1646
猶云	-11.1646
則不然	-11.1647
憂也	-11.1648
上洛縣	-11.165
君臣相	-11.1651
曰朕	-11.1652
其兆	-11.1653
皆作	-11.1653
自立	-11.1655
身修	-11.1656
相助	-11.1656
皆可以	-11.1656
江北	-11.1658
周易	-11.1659
在縣西	-11.1659
詩言	-11.1662
富平	-11.1668
實為	-11.1669
自西	-11.1669
廟門	-11.1674
惟終	-11.1674
難也	-11.1675
尋常	-11.1676
二章	-11.1677
偽書	-11.1678
王宫	-11.1679
用能	-11.1679
定公	-11.168
更無	-11.1681
萬民之	-11.1681
有恒	-11.1682
東過	-11.1684
既能	-11.1684
宅心	-11.1685
樂記	-11.1688
夫豈	-11.1688
川澤	-11.1693
於世	-11.1694
共爲	-11.1694
鵠	-11.1697
天佑	-11.1698
蹈行	-11.1699
其可以	-11.1702
矣周公	-11.1703
于彼	-11.1703
慾	-11.1704
尺二寸	-11.1704
側陋	-11.1704
亦可謂	-11.1705
媚	-11.1705
栝	-11.1705
三門	-11.1706
立功	-11.1706
愍	-11.1707
偕	-11.1707
蒸	-11.1708
慎徽五典	-11.1709
昧爽	-11.171
賔客	-11.171
把	-11.1711
㦸	-11.1711
樞	-11.1711
河亶甲	-11.1712
郤	-11.1713
並列	-11.1713
賡歌	-11.1713
若其	-11.1714
殂落	-11.1714
舊服	-11.1714
謂堯	-11.1714
疊	-11.1715
天命而	-11.1715
填	-11.1716
九牧	-11.1717
于新邑	-11.1717
擭	-11.1718
大猷	-11.1719
幄帳	-11.1719
脉絡	-11.1719
非惟	-11.172
通鑑	-11.172
芻	-11.1722
化育	-11.1723
等也	-11.1725
叛亂	-11.1725
十有三年	-11.1726
必有以	-11.1729
也箕子	-11.173
田獵	-11.173
形如	-11.1732
雖大	-11.1732
此一句	-11.1732
所畏	-11.1732
訓告	-11.1734
也是故	-11.1734
逆流	-11.1736
叔向	-11.1737
可疑者	-11.1738
顧氏云	-11.1741
不得而	-11.1742
西安府	-11.1742
貴於	-11.1742
成周之	-11.1742
自生	-11.1743
而言則	-11.1744
無文	-11.1745
晚出	-11.1746
一統	-11.175
漢人	-11.1752
相背	-11.1753
之用也	-11.1753
中心	-11.1753
句讀	-11.1753
申之	-11.1754
之表	-11.1762
兩山	-11.1765
憐	-11.1766
以入于海	-11.1766
利而	-11.1771
命君陳	-11.1772
降下	-11.1773
非禹	-11.1775
各一	-11.1776
敬民	-11.1777
孔氏云	-11.1778
陽縣西北	-11.1784
天秩	-11.1791
天子之位	-11.1792
廣陵	-11.1793
一叚	-11.1794
指為	-11.1795
紂為	-11.1796
其父母	-11.1805
思永	-11.1805
不宜	-11.1806
公卿大夫	-11.1807
罔非	-11.1807
吉服	-11.1809
我言	-11.1813
性也	-11.1814
東江	-11.1814
制作	-11.1817
之運	-11.1822
天理之	-11.1822
使舜	-11.1826
天下諸侯	-11.1827
紂惡	-11.1827
曰時	-11.1827
我之所以	-11.1828
商先王	-11.1829
乞	-11.1833
倘	-11.1834
安其居	-11.1836
文明	-11.1836
勾	-11.1838
女子	-11.184
納之	-11.184
敎誨	-11.184
言桀	-11.1841
昧谷	-11.1842
活	-11.1843
孔氏頴達曰	-11.1843
最大	-11.1843
雖多	-11.1843
碑	-11.1843
孳	-11.1844
灾	-11.1845
春夏	-11.1845
三宅三俊	-11.1847
惻怛	-11.1847
唐太宗	-11.1848
讒説	-11.185
歷年	-11.185
韶樂	-11.1851
左右前後	-11.1851
肄	-11.1851
縣在	-11.1855
丁巳	-11.1855
入漢	-11.1856
亡國	-11.1857
天有	-11.1858
惟人	-11.1859
斯人	-11.1862
可證	-11.1863
淺深	-11.1863
孔氏以為	-11.1866
元帝	-11.1867
此聖人	-11.1867
參差	-11.1867
所感	-11.1868
長乆	-11.1872
之比	-11.1872
也此章	-11.1874
論道	-11.1877
尊而	-11.188
簡易	-11.1882
者此也	-11.1882
者何也	-11.1883
集于	-11.1886
水經云	-11.1887
為本	-11.1889
濁漳	-11.189
昭著	-11.189
遂至	-11.1891
則治	-11.1892
往新邑	-11.1893
在己	-11.1895
不敢忽	-11.1896
爲主	-11.1897
又次之	-11.1897
申戒	-11.1897
不可以無	-11.1898
兩句	-11.1898
危亡	-11.1898
盡力	-11.19
留召公	-11.1904
敬致	-11.1909
民用	-11.191
所過	-11.1913
和而	-11.1913
周王	-11.1914
疑周公	-11.1917
任事	-11.1917
一世	-11.1918
春官	-11.1919
民乃	-11.1922
天地萬物	-11.1924
方言	-11.1924
卜吉	-11.1927
也若夫	-11.1927
不臣	-11.1927
為南江	-11.1931
期于	-11.1935
厯家	-11.1936
有此理	-11.1937
厥邦	-11.1938
天吏	-11.194
周時	-11.1941
沱水	-11.1942
土也	-11.1943
五過	-11.1946
戒之以	-11.1951
先見	-11.1953
為漢	-11.1953
公羊傳	-11.1953
其年	-11.1954
為然	-11.1957
惟君	-11.196
所以得	-11.1962
無一不	-11.1963
之陽	-11.1964
傷人	-11.1966
黎水	-11.1966
卿士師尹	-11.1966
俱是	-11.1966
正始	-11.1966
園	-11.1967
儼	-11.1968
當知	-11.1968
録之	-11.1968
厥田	-11.1969
職分	-11.1969
霽	-11.1969
斟酌	-11.197
員	-11.197
殁	-11.197
于其間	-11.1971
銍	-11.1973
弼成五服	-11.1973
嬪	-11.1974
而忽	-11.1974
鶉火	-11.1974
盪	-11.1974
之中星	-11.1975
享上	-11.1975
寖	-11.1976
巻	-11.1976
雁	-11.1977
禹貢錐指	-11.1977
虎蜼	-11.1978
驟	-11.1978
未知孰是	-11.1978
閎夭	-11.1978
七曰	-11.1978
别出	-11.1978
忿疾	-11.1979
蘇軾	-11.198
事天	-11.198
狃	-11.1981
老子	-11.1981
也孔子曰	-11.1981
郊特牲	-11.1981
邳	-11.1982
非常之	-11.1983
菁	-11.1984
尚何	-11.1985
𣲖	-11.1985
羣僕	-11.1985
楊氏	-11.1986
秦穆公	-11.1988
赤刀	-11.1989
淮夷徐戎	-11.1989
總結	-11.199
四列	-11.199
不祀	-11.1991
河之北	-11.1991
咎徵	-11.1993
四水	-11.1994
最難	-11.1999
腹心	-11.2
?	-11.2001
雖以	-11.2001
畏也	-11.2003
之言則	-11.2004
無失	-11.2005
短長	-11.2006
者聖人	-11.2007
比之	-11.201
助我	-11.2011
」	-11.2012
相協	-11.2012
昭公	-11.2013
久逺	-11.2015
有不同	-11.2015
之可畏	-11.2016
繫之	-11.2016
能受	-11.2016
慄	-11.2017
武昌	-11.2021
章句	-11.2023
互文	-11.2032
不徒	-11.2032
其故道	-11.2034
旁求	-11.2037
者欲其	-11.2038
并州	-11.2039
告成	-11.2042
所告	-11.2044
卜而	-11.2045
晉人	-11.2049
旅祭	-11.2054
作於	-11.2054
鳴球	-11.2056
治安	-11.2058
全體	-11.2058
於後世	-11.206
矣然則	-11.206
在縣南	-11.2063
臣服	-11.2063
亦宜	-11.2064
念我	-11.2064
後嗣王	-11.2065
讀者	-11.2066
大刑	-11.2066
不親	-11.2067
上中下	-11.207
手足	-11.2072
日月星	-11.2074
所論	-11.2075
元和	-11.2078
中大夫	-11.2087
而不用	-11.2093
夷人	-11.2095
郡治	-11.2096
與漢	-11.2097
同惡	-11.2098
尚書全解卷	-11.2099
治體	-11.21
能容	-11.21
慘	-11.2102
壚	-11.2105
添	-11.2106
囘	-11.2107
美玉	-11.2107
凛	-11.2108
當遷	-11.2109
仆	-11.2109
與諸侯	-11.211
减	-11.211
常度	-11.2111
護	-11.2111
佳	-11.2111
刑之中	-11.2111
黔	-11.2112
鉅	-11.2114
政敎	-11.2114
劣	-11.2114
黼黻	-11.2115
藉口	-11.2115
底績	-11.2116
有家	-11.2116
州西南	-11.2116
何有	-11.2118
周師	-11.2118
鳯凰	-11.2118
勤於	-11.2118
相率而	-11.2118
美也	-11.2118
九歌	-11.2122
圻父	-11.2123
羽毛	-11.2123
瑟	-11.2123
鬱陶	-11.2124
岱宗	-11.2126
俊徳	-11.2126
隮	-11.2126
豈必	-11.2128
縣故城北	-11.213
親九族	-11.213
淮浦	-11.2132
時月	-11.2133
王屋山	-11.2133
皆因	-11.2135
王能	-11.2135
列反	-11.2136
為司徒	-11.2137
太傅	-11.2141
龍門山	-11.2147
保釐	-11.2147
一代	-11.215
自强	-11.2153
能為	-11.2154
養老	-11.2154
灼見	-11.2156
趨於	-11.2157
一處	-11.2157
殷多士	-11.2157
平平	-11.2158
有禮	-11.2159
徒以	-11.2161
百司	-11.2164
前寧人	-11.2166
之弊	-11.2166
安天下	-11.2167
又恐	-11.2169
即上	-11.217
商州	-11.217
但知	-11.2171
顔子	-11.2174
豈獨	-11.2177
宜其	-11.2177
錫貢	-11.2177
渾天	-11.2177
天象	-11.2177
著見	-11.2178
南康	-11.2179
周公君陳	-11.2181
人紀	-11.2185
邦家	-11.2186
下土	-11.2187
感召	-11.2195
不敢輕	-11.2198
之官也	-11.2198
䇿書	-11.2198
論語云	-11.2199
周公又	-11.2201
君能	-11.2202
樂陵	-11.221
而逺	-11.2211
二語	-11.2213
西土之人	-11.2214
眷命	-11.2217
如所謂	-11.2217
不靜	-11.2218
古文書	-11.2218
人民	-11.2219
之類也	-11.2219
往哉	-11.222
所存	-11.2223
常有	-11.2227
順帝	-11.2235
禹導	-11.2236
岍岐	-11.224
叟	-11.2241
厯法	-11.2241
暮	-11.2242
可得	-11.2242
明徳慎罰	-11.2243
緝	-11.2246
遷殷頑民	-11.2246
重也	-11.2247
廻	-11.2248
愁	-11.2248
者則以	-11.2249
之竒	-11.2249
挽	-11.2249
一行	-11.225
而妄	-11.2251
沈溺	-11.2251
諸侯來朝	-11.2253
為説	-11.2253
為小	-11.2254
所藏	-11.2254
閎	-11.2254
脱簡	-11.2255
迤邐	-11.2255
吕氏春秋	-11.2256
天文志	-11.2259
財賦	-11.2261
荒野	-11.2262
胡蘇	-11.2263
之事皆	-11.2263
蘆	-11.2264
其私	-11.2265
之意蓋	-11.2268
明畏	-11.2269
登庸	-11.227
所以紀	-11.227
孔君	-11.2273
即禹貢	-11.2274
之地而	-11.2277
行乎	-11.2277
織文	-11.2278
質之	-11.2278
極於	-11.2283
不在於	-11.2284
信矣	-11.2285
乃始	-11.2285
也傳言	-11.2286
何則	-11.2287
諸侯之國	-11.2288
稽之	-11.2289
允信	-11.2295
成憲	-11.2296
必言	-11.2297
傳顧命	-11.2298
高下	-11.2301
白馬	-11.2304
誘之	-11.2305
所以然者	-11.2307
罰殛	-11.2307
致太平	-11.2309
果斷	-11.2311
于是又	-11.2314
而後已	-11.2316
也蔡氏曰	-11.2318
在其中矣	-11.2319
獄訟	-11.2319
但云	-11.232
之命而	-11.232
言此者	-11.2322
三考	-11.2324
虐民	-11.2324
賢能	-11.2324
以開	-11.2325
而過	-11.2326
深切	-11.2327
有極	-11.2329
受王	-11.2331
厥心	-11.2332
盧氏縣	-11.2333
與禹貢	-11.2333
雲南	-11.2336
憸	-11.2336
二千五百	-11.2336
斷然	-11.2336
不足信	-11.2337
之習	-11.2338
徳明	-11.2339
殷國	-11.2341
不能用	-11.2342
一嵗之	-11.2342
總名	-11.2343
近臣	-11.2344
尤難	-11.2344
盛大	-11.2344
等篇	-11.2344
南行	-11.2345
事功	-11.2347
所繫	-11.2347
致辟	-11.2349
以至于	-11.2351
理會	-11.2353
曷為	-11.2354
在縣東	-11.2354
證之	-11.2355
故謂	-11.2356
皆稱	-11.2357
定四年	-11.236
自新	-11.2362
乃逸	-11.2363
厥貢	-11.2364
西廂	-11.2369
許慎	-11.2373
館	-11.2374
漢孔氏謂	-11.2376
棘	-11.2379
柳	-11.2379
圎	-11.238
自當	-11.238
敬事	-11.238
於湯	-11.2381
扇	-11.2382
様	-11.2382
嚌	-11.2382
片	-11.2383
住	-11.2384
又必	-11.2384
公之功	-11.2385
傅巖	-11.2385
臻	-11.2385
慨	-11.2386
憝	-11.2386
辦	-11.2386
璿	-11.2386
殄戮	-11.2387
玉輅	-11.2387
九州之内	-11.2388
改月	-11.2388
上刑	-11.2389
一江	-11.2389
我欲	-11.2389
潦	-11.239
三苗之	-11.239
嬴	-11.2391
三澨	-11.2391
之災	-11.2392
羲仲	-11.2392
徐戎	-11.2393
西夾	-11.2394
東西南北	-11.2395
臨洮	-11.2395
為甚	-11.2396
窒	-11.2396
次敘	-11.2396
勤于	-11.2398
州境	-11.2398
衆賢	-11.2398
勉勵	-11.24
如舜	-11.24
嗣子	-11.2401
亡也	-11.2401
太行山	-11.2401
周公留	-11.2402
逺邇	-11.2408
而推之	-11.2408
四裔	-11.2413
自今以往	-11.2414
道德	-11.2414
平格	-11.2414
其禍	-11.2417
書契	-11.2422
勉也	-11.2422
節氣	-11.2423
海濵	-11.2424
辰在	-11.2426
案此	-11.2429
故伊尹	-11.243
所立	-11.2431
誓言	-11.2431
相配	-11.2431
示以	-11.2431
咸寧	-11.2436
正救	-11.2438
無良	-11.2441
敷求	-11.2442
不迷	-11.2443
先定	-11.2446
原山	-11.2446
非止	-11.2448
天之聰明	-11.2451
丞	-11.2452
輔助	-11.2453
對揚	-11.2455
犯法	-11.2459
自勉	-11.2462
號為	-11.2464
委之	-11.2465
仲秋	-11.2469
五者之	-11.247
必非	-11.2473
有成命	-11.2474
不得不然	-11.2474
陽武	-11.2478
公孤	-11.2479
難於	-11.248
曰吁	-11.2484
其處	-11.2484
甚多	-11.2488
又復	-11.249
能勤	-11.2491
新進	-11.2495
永年	-11.2497
無敢不	-11.2501
東北入	-11.2502
自積石	-11.2505
此四人	-11.2506
方能	-11.2507
以南	-11.2508
留公	-11.2513
日景	-11.2518
件	-11.2519
粉	-11.252
伐淮夷	-11.2522
凌	-11.2522
柴望	-11.2523
鴈	-11.2523
撓	-11.2523
諺	-11.2524
貢者	-11.2524
慙徳	-11.2524
蛇	-11.2525
絀	-11.2525
簡核	-11.2525
甘州	-11.2525
其語	-11.2526
蒐	-11.2526
鴟	-11.2527
揉	-11.2527
聖學	-11.2528
錫土姓	-11.2528
額	-11.2528
翔	-11.2528
垢	-11.2529
嫁	-11.2529
頴達	-11.2529
異時	-11.2529
昜	-11.2529
其業	-11.2529
優劣	-11.253
瓉	-11.253
收斂	-11.2531
戰于	-11.2532
棐忱	-11.2532
侍御僕從	-11.2532
庶績	-11.2534
不可及	-11.2534
緩急	-11.2536
者歟	-11.2536
九江孔殷	-11.2537
傳注	-11.2538
羡	-11.2538
集大命	-11.2539
納誨	-11.2539
乃言	-11.2541
乃欲	-11.2543
正義引	-11.2544
著其	-11.2545
既無	-11.2546
同官	-11.2546
盡其心	-11.2546
罪惡	-11.2547
寳玉	-11.2547
是已	-11.2548
典籍	-11.2548
海岱	-11.2549
再成	-11.2551
自此而	-11.2552
墜厥命	-11.2554
責人	-11.2554
此其所以為	-11.2555
是用	-11.2557
厥土	-11.2559
錫福	-11.2562
南嚮	-11.2563
既載	-11.2565
怠荒	-11.2566
羣神	-11.2567
官府	-11.2568
歸美	-11.2568
吉康	-11.2569
也此說	-11.257
數語	-11.2572
戎夷	-11.2573
四鄰	-11.2574
黄鐘之	-11.2575
得其所	-11.2575
所舉	-11.2578
孔子所	-11.2579
曰今	-11.2579
無刑	-11.2579
之間而	-11.258
日夜	-11.2581
四十八	-11.2583
别其	-11.2584
周邦	-11.2585
於舜	-11.2586
當有以	-11.2586
進於	-11.2587
也詩曰	-11.2587
人與	-11.259
溝洫志	-11.259
若順也	-11.2591
方興	-11.2592
又東北過	-11.2594
冊命	-11.2594
詳言	-11.2596
者以此	-11.2596
亦不知	-11.2598
六徳	-11.2601
至于豐	-11.2602
之等	-11.2603
天禄	-11.2606
國都	-11.2608
王當	-11.2608
六鄉	-11.2608
縣故城西	-11.261
命重黎	-11.2617
李氏曰	-11.2618
即其	-11.2621
相表裏	-11.2623
經典	-11.2624
為義	-11.2624
又如	-11.2624
言天命	-11.2625
禘	-11.2625
南岳	-11.2626
存心	-11.2626
細行	-11.2629
功者	-11.2632
朱子謂	-11.2633
武徳	-11.2633
狀如	-11.2634
境内	-11.2634
告卜	-11.2634
之西南	-11.2638
直云	-11.2638
上既言	-11.264
動作	-11.264
救民	-11.264
錫命	-11.2644
其田	-11.2645
發見	-11.2648
貨利	-11.2651
格于皇天	-11.2652
受封	-11.2655
南宫	-11.2658
三朡	-11.2659
典者	-11.2662
燥	-11.2665
莠	-11.2665
其分	-11.2666
陣	-11.2666
上智	-11.2666
黥	-11.2667
柘	-11.2667
鴟鴞	-11.2667
麥	-11.2667
搏	-11.2667
鬭	-11.2668
舜之徳	-11.2668
榆	-11.2668
有倫	-11.267
不書	-11.267
這箇	-11.267
溉	-11.267
詈	-11.267
劼毖	-11.2671
恫	-11.2671
伯禹	-11.2671
感人	-11.2672
肝	-11.2672
多言	-11.2673
謚	-11.2674
神后	-11.2675
豕	-11.2675
義民	-11.2676
逾于河	-11.2676
之象也	-11.2678
有無窮之	-11.2678
告諸侯	-11.2679
未發	-11.268
光大	-11.268
下愚	-11.2681
罔愆	-11.2681
者莫不	-11.2683
休徵	-11.2685
楨榦	-11.2686
蕪湖	-11.2688
哉生魄	-11.2688
其實一也	-11.2689
永保	-11.269
黜殷命	-11.2692
冀其	-11.2692
惇物	-11.2696
都鄙	-11.2697
信而	-11.2698
毛傳	-11.2698
楚語	-11.2699
積徳	-11.2699
界中	-11.2699
只在	-11.2699
究其	-11.27
不可行	-11.27
輕刑	-11.2701
周本紀	-11.2704
四五	-11.2706
欲王	-11.2706
五瑞	-11.2707
清廟	-11.2709
初年	-11.271
炎帝	-11.2712
因此	-11.2712
後日	-11.2713
疾病	-11.2713
靡常	-11.2713
和協	-11.2713
也鄭𤣥云	-11.2715
自成湯	-11.2717
斷絶	-11.2717
陽鳥	-11.2718
唐孔	-11.2719
違道	-11.2719
嘉言	-11.2721
先後之序	-11.2724
莫不有	-11.2724
也然而	-11.2725
忠誠	-11.2727
五敎	-11.2727
揆之	-11.2728
誠實	-11.2729
相從	-11.2731
詩序	-11.2733
二十九	-11.2734
八寸	-11.2736
汝汝	-11.2737
從違	-11.2739
歌詠	-11.2741
偽泰誓	-11.2741
生民之	-11.2741
玩物	-11.2741
旻天	-11.2741
不悦	-11.2742
凡七	-11.2742
有一毫之	-11.2744
去惡	-11.2747
殷之命	-11.2749
勝之	-11.2751
無所容	-11.2752
諧和	-11.2756
絶無	-11.2757
居此	-11.2757
而且	-11.2757
竹簡	-11.2761
牽牛	-11.2761
八分	-11.2768
深見	-11.277
無義	-11.2772
平康	-11.2772
三十三	-11.2774
勞來	-11.2775
近之	-11.2776
也古人	-11.2778
官刑	-11.2783
異者	-11.2783
記功	-11.2784
臣道	-11.2785
不可以為	-11.2786
自處	-11.2789
碣石在	-11.279
不可失	-11.2793
教命	-11.2793
湘水	-11.2793
不幸而	-11.2795
又問	-11.2797
地官	-11.2797
玉食	-11.2799
其本心	-11.28
六官	-11.28
存者	-11.2801
淇	-11.2801
史遷	-11.2803
天地鬼神	-11.2804
尚在	-11.2805
餘波	-11.2805
管子	-11.2806
九百四十分日之	-11.2806
陑	-11.2807
肥瘠	-11.2807
嫉	-11.2808
所視	-11.2808
申重	-11.2809
湔	-11.2809
象以典刑	-11.2809
湎酒	-11.281
蔓	-11.281
贏	-11.281
湧	-11.281
裴	-11.2811
誇	-11.2811
挈	-11.2811
魁	-11.2811
森	-11.2812
非汝封	-11.2813
程大昌	-11.2813
旄	-11.2813
欽明文思	-11.2813
豈可不	-11.2813
百官族姓	-11.2814
橫	-11.2814
陳少南	-11.2814
頴	-11.2815
於書	-11.2816
王應麟曰	-11.2816
經意	-11.2816
何得	-11.2817
淑	-11.2817
坂	-11.2819
搏拊	-11.2819
三亳	-11.2819
純佑	-11.282
之罪也	-11.282
嘆息	-11.282
驩兠	-11.2821
以防	-11.2821
齡	-11.2824
爲治	-11.2824
齊桓公	-11.2824
雅州	-11.2825
載籍	-11.2825
光輝	-11.2827
符節	-11.2829
立極	-11.2833
徃徃	-11.2833
應鐘	-11.2833
五言	-11.2834
悛	-11.2834
難通	-11.2836
又須	-11.284
以土	-11.284
不著	-11.2841
沙州	-11.2842
載於	-11.2842
紊亂	-11.2843
武帝時	-11.2843
牽合	-11.2844
未見其	-11.2844
四十五	-11.2847
髙平	-11.2848
體之	-11.2853
天之罰	-11.2853
我不敢	-11.2857
用乂	-11.2858
也鄭玄	-11.2858
班志	-11.2859
典獄者	-11.286
刑賞	-11.286
黃帝	-11.2862
出自	-11.2864
周廟	-11.2864
空言	-11.2864
伯爵	-11.2864
己未	-11.2865
又從而	-11.2865
良臣	-11.2869
輕忽	-11.2869
革夏	-11.2869
西南夷	-11.287
湯之心	-11.2871
明命	-11.2873
而又有	-11.2876
一己之	-11.2876
五岳	-11.2879
别流	-11.2879
舊迹	-11.288
水所經	-11.2883
平生	-11.2884
已為	-11.2884
者豈非	-11.2885
孔注	-11.2887
謹罰	-11.2888
皆屬	-11.2888
六尺	-11.2889
計其	-11.2889
中下	-11.2889
元老	-11.289
邵子	-11.2892
牧夫	-11.2893
釋文云	-11.2893
良心	-11.2893
以入	-11.2893
厥后	-11.2896
一百里	-11.2897
又豈	-11.2907
次叙	-11.2908
相逺	-11.291
出納	-11.2911
刑獄	-11.2912
耳今	-11.2913
蓋有	-11.2913
齊侯	-11.2914
一歳	-11.2914
諸夏	-11.2919
大君	-11.292
夾輔	-11.2921
以治民	-11.2922
亦所以	-11.2923
南向	-11.2923
責望	-11.2926
惟和	-11.2929
凶惡	-11.2932
二十二	-11.2932
乃敢	-11.2933
亦越	-11.2933
其言而	-11.2935
無疑矣	-11.2937
死刑	-11.2938
不敢不	-11.2938
十八里	-11.2938
大德	-11.2941
臨淮	-11.2942
之文也	-11.2943
作厯	-11.2946
大衍	-11.2946
焉耳	-11.2947
正所謂	-11.2949
克終允徳	-11.2951
明著	-11.2952
其㫖	-11.2952
不可一日	-11.2954
荆之	-11.2954
踐履	-11.2955
腥穢	-11.2955
謨明弼諧	-11.2955
不善者	-11.2955
憂民之	-11.2956
史記云	-11.2956
無斁	-11.2957
陸渾	-11.2958
標準	-11.2959
詛	-11.2959
出令	-11.2959
地平天成	-11.2959
康誥酒誥梓材	-11.2961
坑	-11.2961
北地	-11.2961
習於	-11.2961
髳	-11.2962
剪	-11.2962
悶	-11.2963
伋	-11.2963
貞悔	-11.2964
掠	-11.2964
蔡邕	-11.2964
博昌	-11.2965
懋徳	-11.2965
居洛	-11.2966
埋	-11.2966
居東二年	-11.2966
涵養	-11.2967
沽	-11.2967
仲夏	-11.2967
勉於	-11.2968
巾	-11.2968
永世	-11.2968
祭也	-11.2968
俊乂	-11.297
制刑	-11.2972
未備	-11.2972
宏父	-11.2974
陜州	-11.2977
何事	-11.2979
港	-11.2979
攻之	-11.298
五常之	-11.298
將來	-11.2981
民猶	-11.2981
律吕	-11.2982
三百餘里	-11.2987
宋儒	-11.2988
宣布	-11.2992
此之謂也	-11.2993
視民	-11.2993
者皆是	-11.2995
可否	-11.2996
句龍	-11.2997
艱食	-11.2997
所言皆	-11.3
亂治也	-11.3
爾邑	-11.3004
汳	-11.3004
幾微	-11.3007
日以	-11.3007
之禮也	-11.301
不降	-11.302
臨川	-11.3025
其言曰	-11.3027
不惠	-11.3029
應鍾	-11.303
也左傳	-11.3033
不任	-11.3036
之㣲	-11.3037
不好	-11.3037
我文考	-11.3038
古人之言	-11.304
不勝其	-11.3041
又經	-11.3041
承王命	-11.3042
雖非	-11.3049
此實	-11.3051
立而	-11.3051
也禹貢	-11.3051
父母之	-11.3054
難知	-11.3054
監殷	-11.3055
學古	-11.3056
特舉	-11.3056
豈待	-11.3058
于地	-11.3061
也下文	-11.3061
商俗	-11.3064
者凡	-11.3066
導弱水	-11.3068
欲康叔	-11.3069
念慮	-11.3072
恃其	-11.3072
河東郡	-11.3072
亦見	-11.3074
羌中	-11.3075
不食	-11.3076
帝甲	-11.3076
西旅	-11.3077
言人君	-11.3078
良善	-11.308
教之以	-11.308
翕	-11.3085
草木鳥獸	-11.3086
愆過	-11.3087
四子	-11.3087
渭洛	-11.3087
而入海	-11.3089
四體	-11.3089
林少穎	-11.309
何處	-11.3092
文理	-11.3092
議者	-11.3092
斷斷	-11.3092
墨子	-11.3095
為九江	-11.3101
料	-11.3102
兌	-11.3103
補之	-11.3103
江出	-11.3104
新安胡氏曰	-11.3105
徐州之	-11.3105
金作贖刑	-11.3106
齊之	-11.3107
五六	-11.3107
天之心	-11.3109
滇池	-11.3109
自己	-11.3109
筭	-11.311
敔	-11.3111
木鐸	-11.3111
曽孫	-11.3111
崇山	-11.3112
騂	-11.3113
時氏瀾曰	-11.3113
箘簵	-11.3114
懲創	-11.3114
有闕文	-11.3115
還政	-11.3115
汗	-11.3117
嵗一見	-11.3117
羲和之罪	-11.3121
樊	-11.3121
獄官	-11.3122
寡兄	-11.3122
餉	-11.3122
閘	-11.3123
于身	-11.3124
為口實	-11.3125
此等人	-11.3128
保民	-11.3129
蘄	-11.3131
汴渠	-11.3133
受河	-11.3133
天體	-11.3134
襄陽	-11.3135
舜命	-11.3135
孟侯	-11.3137
已盡	-11.3138
此心之	-11.314
㑹者	-11.3141
己意	-11.3141
古我先王	-11.3145
不遜	-11.3145
七八	-11.3146
言則曰	-11.3146
從王	-11.3147
二十年	-11.3147
此二節書是	-11.3148
矜伐	-11.315
知其所	-11.315
未遷	-11.315
在寛	-11.3153
君之所	-11.3153
人事之	-11.3156
賤者	-11.3156
惟聖人	-11.3156
明甚	-11.3156
勿使	-11.3156
祭服	-11.3156
二十二人	-11.3158
男子	-11.316
于三危	-11.316
得其正	-11.3162
夏水	-11.3164
無一毫之	-11.3165
動天	-11.3165
以為治	-11.3165
江沱	-11.3167
東至于	-11.3173
九山	-11.3174
人君所	-11.3177
禹乃	-11.3177
所以示	-11.3177
賂	-11.3181
蔡傳云	-11.3187
不辨	-11.3187
所戒	-11.3189
弗順	-11.3189
堅固	-11.3189
而外	-11.3198
憲天	-11.3198
疆土	-11.32
忠直	-11.3201
西京	-11.3202
之水皆	-11.3204
發于	-11.3204
非禮	-11.3206
而不知其	-11.3208
之事則	-11.321
若稽古	-11.321
不煩	-11.3212
偶然	-11.3215
於今	-11.3216
唐人	-11.3216
澤藪	-11.3219
任重	-11.3219
耳傳	-11.3221
也陳氏曰	-11.3226
曾氏	-11.3228
小異	-11.3228
我何	-11.323
有濟	-11.323
厥官	-11.323
不憂	-11.3232
馬頰	-11.3233
無人	-11.3234
正位	-11.3235
亂矣	-11.3236
但見	-11.3236
三十四	-11.3238
建武	-11.3238
幻	-11.324
明其徳	-11.324
科斗	-11.3241
説者謂	-11.3241
為念	-11.3242
欽若	-11.3242
東距	-11.3242
明刑	-11.3244
俗謂之	-11.3244
害於	-11.3247
通乎	-11.3249
昩	-11.3249
一說	-11.3249
莊子	-11.325
分置	-11.3252
化者	-11.3256
十有五	-11.3256
二書	-11.3256
其材	-11.3257
隘	-11.3257
告諭	-11.3258
丙午	-11.3259
騰	-11.326
告廟	-11.326
左傳曰	-11.326
移之	-11.326
閼	-11.3261
王氏安石曰	-11.3261
十有一年	-11.3262
婚	-11.3262
魂	-11.3263
圉	-11.3263
好生之徳	-11.3263
乂民	-11.3264
下文言	-11.3265
柩	-11.3265
尚書注疏卷	-11.3265
以報	-11.3266
捕	-11.3266
濟南府	-11.3268
王庭	-11.3268
廡	-11.3268
漸染	-11.3269
殛鯀	-11.3269
本然之	-11.3271
改正朔	-11.3272
惟賢	-11.3273
蔡註	-11.3275
解經	-11.3275
懈怠	-11.3275
有德者	-11.3277
潁川	-11.3278
定命	-11.3278
治直吏反	-11.3279
越三日	-11.328
〇	-11.328
協於	-11.328
内事	-11.3281
告召公	-11.3284
孝友	-11.3288
天地人之	-11.3289
朱氏	-11.329
舊典	-11.329
藏於	-11.329
有大功	-11.3291
三品	-11.3292
憂患	-11.3293
而與之	-11.3294
胡氏曰	-11.3296
前世	-11.3304
則君	-11.3308
經星	-11.331
民而民	-11.331
尤不可	-11.3311
海隅	-11.3314
得乎	-11.3315
奉若	-11.3316
荆岐	-11.3317
養人	-11.3322
既治	-11.3324
有次序	-11.3324
仁愛	-11.3332
有先後	-11.3332
大風	-11.3332
伐奄	-11.3333
義曰	-11.3334
洚	-11.3335
何如哉	-11.3335
上中	-11.3335
徳教	-11.3336
百八十里	-11.3336
功畢	-11.3336
先公	-11.3337
必不然	-11.3338
四尺	-11.3338
親政	-11.3339
訓廸	-11.3339
堯之徳	-11.334
邠	-11.3341
各異	-11.3341
神靈	-11.3346
嶧山	-11.3347
其端	-11.3348
教養	-11.3349
年而崩	-11.335
行度	-11.335
自此始	-11.3351
大聖	-11.3352
為酒	-11.3355
之外别有	-11.3356
澤名	-11.3357
可勝	-11.3362
海口	-11.3364
二水名	-11.3365
以佐	-11.3368
放心	-11.3369
時雨	-11.337
紀年	-11.3371
解作	-11.3371
何以能	-11.3374
之多寡	-11.3374
所貴	-11.3374
書亡	-11.3375
所説	-11.3376
養生	-11.3382
灉沮	-11.3384
概	-11.3385
修武	-11.3386
不敬則	-11.3391
謂湯	-11.3392
效之	-11.3392
不道	-11.3394
不惑	-11.3395
於物	-11.3395
異耳	-11.3396
極備	-11.3396
一百二十	-11.3398
篇亡	-11.3398
所加	-11.3399
如前	-11.3408
着	-11.3408
分界	-11.3408
而不已	-11.341
司馬法	-11.341
舅	-11.341
十有三載	-11.3412
夏商之	-11.3412
刈	-11.3412
史録其	-11.3412
標凖	-11.3413
用德	-11.3414
而勿	-11.3414
沮洳	-11.3414
慿	-11.3414
則彼	-11.3415
所以待	-11.3416
㡳	-11.3416
流通	-11.3416
厄	-11.3417
三統	-11.3417
有官君子	-11.3417
天地間	-11.3417
繼自今	-11.3418
檀弓	-11.3418
告太甲	-11.3418
瀛	-11.3418
器械	-11.3418
嵗月	-11.3418
一篇之綱領	-11.3418
當念	-11.3419
桃林	-11.3419
也茍	-11.342
劫	-11.342
自來	-11.3421
名山大川	-11.3421
股肱耳目	-11.3421
胎	-11.3422
湯之伐桀	-11.3422
麤	-11.3423
妃	-11.3423
村	-11.3423
常常	-11.3423
覆冒	-11.3423
虞廷	-11.3424
也易曰	-11.3425
經界	-11.3426
磧	-11.3426
筍	-11.3426
以惑	-11.3428
而導之	-11.343
其詞	-11.343
僚屬	-11.3432
君臣之分	-11.3436
八九	-11.3437
正義曰王	-11.3437
山一名	-11.3438
正義曰言	-11.3438
又叛	-11.3439
而納之	-11.344
紹興	-11.344
竊以	-11.3441
為一句	-11.3448
愼厥	-11.3449
重刑	-11.3454
卷四	-11.3455
害于	-11.3455
莫若	-11.3456
脅從	-11.346
正義曰地理志云	-11.3461
長幼	-11.3462
未足以	-11.3468
農父	-11.3468
不敢當	-11.3469
取幣	-11.3473
通志	-11.3482
䟽云	-11.3483
晁	-11.3483
初服	-11.3484
湖廣	-11.3484
從來	-11.3488
縣治	-11.3493
克殷	-11.3495
馬氏曰	-11.3498
方物	-11.3499
無形	-11.3499
春秋時	-11.3499
不可恃	-11.3501
也先王	-11.3507
持其	-11.3507
輔成王	-11.3508
示天下	-11.3513
前面	-11.3514
政化	-11.3515
引之	-11.3517
是也然	-11.3518
期望	-11.3519
之故道	-11.352
乎其間	-11.3527
傅氏	-11.3528
商郊	-11.3529
此官	-11.3531
平秩	-11.3532
詠歌	-11.3532
分布	-11.3533
討之	-11.3533
四輔	-11.3535
理之所	-11.3537
倫理	-11.3539
一隅	-11.3542
平陸	-11.3545
之美者	-11.3545
十三里	-11.3547
不謀	-11.3548
東北入海	-11.3548
分器	-11.3549
所有之	-11.3552
欲求	-11.3553
格言	-11.3553
大約	-11.3558
屬之	-11.3558
其誰	-11.3559
成德	-11.3564
廿	-11.3565
䧏	-11.3566
奕	-11.3567
彜	-11.3567
浞	-11.3568
培	-11.3568
修人紀	-11.3568
諒	-11.3569
縣北有	-11.3569
㬥	-11.357
燒	-11.3572
復子明辟	-11.3574
伏生所傳	-11.3574
社稷宗廟	-11.3574
伊洛瀍澗	-11.3575
譴告	-11.3575
晁錯	-11.3576
卬	-11.3577
版	-11.3577
泛溢	-11.3577
宗廟社稷	-11.3577
控	-11.3578
天將	-11.3578
尹躬	-11.3579
不移	-11.358
怡	-11.358
所統	-11.3581
薦之	-11.3581
魯人	-11.3581
保乂	-11.3582
過三澨	-11.3584
命周公	-11.3584
公侯	-11.3584
迪哲	-11.3584
管仲	-11.3586
照臨	-11.3587
芻茭	-11.3589
逸也	-11.3589
起于	-11.3591
秦屬	-11.3594
之山也	-11.3595
寶玉	-11.3595
肅愼	-11.3599
宗彞	-11.36
易見	-11.3601
宗社	-11.3602
三年之喪	-11.3605
衡陽	-11.3605
東方之	-11.3606
爾雅云	-11.3609
居處	-11.361
三紀	-11.3611
不可忽	-11.3612
條目	-11.3612
不保	-11.3613
敬明	-11.3616
以為法	-11.3618
考工記云	-11.3619
盡其道	-11.3622
天監	-11.3623
中庸曰	-11.3624
又因	-11.3625
弼教	-11.3627
改曰	-11.3628
先儒以為	-11.3629
此澤	-11.363
豈復有	-11.363
陟方	-11.3633
洛水出	-11.3634
水害	-11.3637
大别山	-11.3638
而徒	-11.3638
水災	-11.3639
無告	-11.3641
千里之外	-11.3644
小子封	-11.365
祭地	-11.3656
極言	-11.3658
不同然	-11.3659
之規模	-11.366
六合	-11.366
竟陵	-11.3661
無厭	-11.3663
僉曰	-11.3663
文辭	-11.3665
國中	-11.3666
西南流	-11.3667
畏相	-11.3667
疑即	-11.3669
有不善	-11.367
蒙羽	-11.367
汴水	-11.3675
觀此則	-11.3676
之小者	-11.368
又東流	-11.3681
卷一	-11.3683
總論	-11.3687
不勞	-11.3689
言導	-11.369
參考	-11.3691
此三篇	-11.3691
知稼穡之艱難	-11.3692
天運	-11.3692
並興	-11.3692
虞度	-11.3693
州西北	-11.3696
農夫	-11.3696
世謂之	-11.3705
蒙山	-11.3705
廬山	-11.3706
學士	-11.3706
亦只	-11.3706
先知	-11.3707
梁國	-11.3707
在縣北	-11.3708
烝民	-11.3709
惠順	-11.3713
未可知	-11.3713
釗	-11.3714
于上帝	-11.3715
無傲	-11.3716
時時	-11.3717
當云	-11.3717
之難也	-11.3718
孟諸	-11.3718
苟非	-11.3719
八里	-11.3719
精明	-11.372
體用	-11.372
太陽	-11.3723
趾	-11.3724
輟	-11.3725
孔子序書	-11.3725
悠	-11.3725
掃	-11.3727
沬	-11.3727
考古	-11.3727
肺	-11.3728
拾	-11.3728
泗州	-11.3728
敬授人時	-11.3729
𦵏	-11.3729
惟兹	-11.3729
早晚	-11.373
乎盖	-11.373
旁死魄	-11.3731
骨肉	-11.3732
不可得也	-11.3732
播為九河	-11.3732
鰥	-11.3732
父師少師	-11.3733
大統未集	-11.3734
旌旗	-11.3735
所其無逸	-11.3735
旌别淑慝	-11.3736
廣漢	-11.3736
翰	-11.3737
九域志	-11.3737
咸在	-11.3737
各率其	-11.3738
今日之事	-11.3738
大賚	-11.3741
有天下者	-11.3742
𤣥孫	-11.3742
吐谷渾	-11.3743
亮采	-11.3745
肅慎氏	-11.3745
泗沂	-11.3745
踰年	-11.3745
河入海	-11.3746
諸説	-11.3746
生成	-11.3747
敵讎	-11.3748
刑措	-11.3748
分為三	-11.3748
此所以為	-11.375
上洛	-11.375
夏翟	-11.3751
不可征	-11.3751
商頌	-11.3752
亦知	-11.3754
晦朔	-11.3755
臣職	-11.3755
青衣	-11.3758
不復有	-11.376
不厭	-11.376
勿誤	-11.3761
周禮職方氏	-11.3763
多罪	-11.3763
而況	-11.3763
之恩	-11.3764
代夏	-11.3764
昌邑	-11.3768
永嘉	-11.3769
命爾	-11.3776
鄉縣	-11.3781
無怠	-11.3782
士女	-11.3783
建子	-11.3784
也明矣	-11.3785
遂其性	-11.3785
遵王	-11.3786
七星	-11.3786
有成功	-11.379
稱舉	-11.3792
東境	-11.3794
引河	-11.3796
田野	-11.3797
為急	-11.38
草木之	-11.3804
常若	-11.3805
明禋	-11.3806
湯武之	-11.3806
謨訓	-11.3808
坐視	-11.3809
徃來	-11.3811
于亳	-11.3812
固宜	-11.3815
得之矣	-11.3818
發言	-11.3818
敬之哉	-11.3818
將士	-11.382
道義	-11.3829
孔安國曰	-11.383
大行人	-11.3831
皇大	-11.3831
之味	-11.3832
待其	-11.3836
罪疾	-11.3836
三就	-11.3839
三十三年	-11.3843
建安	-11.3844
亦嘗	-11.3844
乃言曰	-11.3845
禮物	-11.3846
二江	-11.3846
書法	-11.3847
存乎	-11.3847
相維	-11.3849
山古文以為	-11.3849
以人事	-11.385
武陽	-11.3853
舜時	-11.3853
之責也	-11.3853
淫朋	-11.386
人莫不	-11.386
漢河	-11.386
大宗伯	-11.3861
堯舜之道	-11.3867
教化之	-11.3867
篇内	-11.3868
誥告	-11.3868
可觀	-11.3868
協和	-11.3869
相敵	-11.3876
商周之	-11.3881
喜怒哀樂	-11.3882
逋	-11.3882
陳氏曰此	-11.3883
琅邪	-11.3884
西傾山	-11.3884
弄	-11.3888
為太師	-11.3888
偹	-11.3888
魏晉間	-11.3891
物欲	-11.3891
覃懷	-11.3891
頑嚚	-11.3891
賓客	-11.3892
敷五教	-11.3893
恰	-11.3893
六府孔修	-11.3893
稷契臯陶	-11.3893
凶短折	-11.3894
流宥五刑	-11.3894
秬	-11.3894
熊羆	-11.3895
王都	-11.3895
以今輿地言之	-11.3895
漯川	-11.3896
濤	-11.3896
釋言文	-11.3896
撮	-11.3897
滇	-11.3897
堲	-11.3898
斥鹵	-11.3898
雌	-11.3899
億兆	-11.3899
堤	-11.39
疏引	-11.39
永終	-11.3902
儒林傳	-11.3903
竄三苗	-11.3904
迆	-11.3904
時乃功	-11.3904
惟有司之牧夫	-11.3904
虎賁氏	-11.3906
中人	-11.3907
危殆	-11.391
遊田	-11.3911
玩好	-11.3912
種藝	-11.3913
傲慢	-11.3914
罔攸	-11.3914
動用非	-11.3915
世孫	-11.3915
杜預曰	-11.3917
翕然	-11.3919
其迹	-11.392
升歌	-11.392
知覺	-11.3922
亦甚	-11.3923
外朝	-11.3923
復還	-11.3923
歴陵	-11.3925
命之曰	-11.3926
蒲州	-11.3928
又况	-11.3928
世臣	-11.3929
蔡蒙	-11.3929
以貽	-11.3931
共治	-11.3934
相貫	-11.3936
怠忽	-11.3941
告我	-11.3943
十六篇	-11.3946
示之以	-11.395
三軍	-11.395
速由	-11.3951
歴象	-11.3952
于耿	-11.3955
出師	-11.3957
太廟	-11.3958
他水	-11.3959
有罪者	-11.3962
昭昭	-11.3965
其所行	-11.3966
情狀	-11.3967
古語	-11.3967
咸陽	-11.3967
陸行	-11.3969
一身之	-11.397
常貢	-11.397
分析	-11.397
濟瀆	-11.3971
水平	-11.3974
非可以	-11.3976
不倦	-11.3977
思庸	-11.3981
說文作	-11.3981
至此而	-11.3982
不良	-11.3983
既盡	-11.3988
昊	-11.3991
之要也	-11.3992
苟有	-11.3994
新安陳氏	-11.3994
後丗	-11.3995
萬人	-11.3995
非敢	-11.3995
反注同	-11.3998
諸人	-11.4
晋人	-11.4
夫既	-11.4002
流經	-11.4003
岍山	-11.4005
燮	-11.401
五祀	-11.4014
之人則	-11.4014
於桀	-11.4015
文武之道	-11.4015
無目	-11.4018
又如此	-11.4022
尊敬	-11.4025
在廟	-11.4025
蓋因	-11.4026
爲文	-11.4029
若以為	-11.4031
不留	-11.4032
一意	-11.4034
命康叔	-11.4036
漢書地理志	-11.4037
華容縣	-11.404
如日月	-11.4044
無虐	-11.4045
太初	-11.4045
髙山大川	-11.4047
鄆	-11.4047
辜罪	-11.4048
亡矣	-11.405
杵	-11.405
鐸	-11.405
九德之	-11.405
東入于海	-11.4051
雎	-11.4052
腐	-11.4054
既除	-11.4054
芟	-11.4055
克念	-11.4055
庚寅	-11.4055
未至於	-11.4055
恭黙思道	-11.4055
陟方乃死	-11.4055
聳動	-11.4056
乙夘	-11.4056
莭	-11.4056
「	-11.4056
羔	-11.4056
纉	-11.4057
瀾	-11.4057
四罪	-11.4057
此一節書是言	-11.4057
沁	-11.4057
我聞曰	-11.4057
跋	-11.4057
殉	-11.4058
百獸率舞	-11.4058
忸怩	-11.4059
邰	-11.4059
汝惟小子	-11.4059
鄖	-11.4059
以類	-11.406
蒲坂	-11.406
唐虞三代	-11.4061
隴西郡	-11.4061
翻	-11.4063
合而為一	-11.4063
只縁	-11.4063
惇厚	-11.4064
申氏時行曰	-11.4065
二十四氣	-11.4065
與下文	-11.4066
汩	-11.4066
觀感	-11.4067
國之君	-11.4067
篠	-11.4068
槀	-11.4069
朐	-11.407
學校	-11.4071
所遷	-11.4071
城郭	-11.4072
訓民	-11.4073
江西	-11.4073
休息	-11.4075
淫過	-11.4076
用罰	-11.4077
土田	-11.4078
》。	-11.4079
飲福	-11.408
虞賔	-11.408
諭之	-11.408
又次	-11.4086
舜之時	-11.4086
史臣記	-11.4087
封域	-11.4087
其故城在今	-11.4087
循其	-11.4088
慶府	-11.409
文武受命	-11.4091
庶尹	-11.4092
實徳	-11.4092
感神	-11.4092
下章	-11.4093
巴郡	-11.4093
不敢廢	-11.4094
幽都	-11.4098
之大小	-11.4098
之根本	-11.4099
卜兆	-11.4099
每嵗	-11.41
參之	-11.4106
始末	-11.4106
萬邦之	-11.411
無愧於	-11.4111
如此説	-11.4114
命于天	-11.4115
之詩曰	-11.4117
報誥	-11.4117
貨賄	-11.4118
討罪	-11.4121
子夏	-11.4121
以盡其	-11.4122
㑹諸侯	-11.4125
其成功	-11.4127
南入于江	-11.4128
勸勉之	-11.413
玩人	-11.4131
樂器	-11.4132
王崩	-11.4134
而受之	-11.4135
千七百	-11.4136
下管	-11.4137
得其情	-11.4137
使成王	-11.4141
温縣	-11.4141
徳行	-11.4143
匡正	-11.4143
隴州	-11.4145
百六十里	-11.4146
織貝	-11.4148
莊公	-11.415
太守	-11.415
敬心	-11.4153
絶逺	-11.4153
漢志云	-11.4155
為惡者	-11.4155
殄行	-11.4156
凡十	-11.4156
風聲	-11.4156
何耶	-11.4156
先王之道	-11.4158
其肯	-11.4161
宵	-11.4162
所望	-11.4165
地震	-11.4166
孔註	-11.4167
並作	-11.417
日蝕	-11.4171
進徳	-11.4173
變異	-11.4182
無此理	-11.4185
伊尹既	-11.4185
王横	-11.4185
天變	-11.4185
難明	-11.4185
▁問	-11.4187
以此見	-11.4187
故不敢	-11.4189
固是	-11.4194
河道	-11.4196
不用命	-11.4197
者蓋以	-11.42
疑焉	-11.4201
稱元年	-11.4203
五器	-11.4206
制禮	-11.4209
六百里	-11.4213
克明俊徳	-11.4213
㪚	-11.4213
衆心	-11.4215
雊雉	-11.4216
厚矣	-11.4217
巫蠱	-11.4217
縢	-11.4217
柯	-11.4218
六七	-11.4218
山龍華蟲	-11.4219
像	-11.4219
庶獄庶慎	-11.4219
課	-11.422
洫	-11.422
夾右碣石入于河	-11.422
導岍及岐	-11.422
騎	-11.4221
糓	-11.4221
梅賾	-11.4222
掖	-11.4222
詆	-11.4222
歴山	-11.4223
友邦冢君	-11.4223
朗	-11.4223
現	-11.4223
洋洋	-11.4223
禹曰俞	-11.4223
顛覆	-11.4223
湍	-11.4224
蕩析離居	-11.4224
勉之以	-11.4224
蟻	-11.4224
臯陶謨益稷	-11.4225
隲	-11.4226
一日二日	-11.4227
厎績	-11.4228
近習	-11.4228
匈奴	-11.4228
燔柴	-11.4229
不剛不柔	-11.423
後之人	-11.423
眩	-11.423
輿地	-11.4231
摘	-11.4231
沭	-11.4231
胤	-11.4233
湯征	-11.4234
譁	-11.4235
小物	-11.4235
兊	-11.4236
士毅	-11.4236
三聖	-11.4237
懇	-11.4238
帝念哉	-11.4239
宅俊	-11.4242
星紀	-11.4244
廣韻	-11.4245
皇甫謐云	-11.4245
休祥	-11.4246
見於經	-11.4252
馬融王肅	-11.4254
有夏之	-11.4257
既生魄	-11.4257
以充	-11.4257
磬錯	-11.4258
成終	-11.4259
發端	-11.426
亂亡	-11.4261
虞氏	-11.4263
幽并	-11.4263
欽敬	-11.4264
視逺	-11.4264
二十四年	-11.4265
也上言	-11.4265
承弼	-11.4265
罔或	-11.4266
土物	-11.4267
經所謂	-11.4267
而莫之	-11.4268
多福	-11.4271
心志	-11.4274
謙辭	-11.4277
丕作	-11.4278
人之性	-11.4285
五辭	-11.4288
周公若曰	-11.4292
之民也	-11.4292
皮服	-11.4293
爾有衆	-11.4293
治平	-11.4293
不貳	-11.4298
率由	-11.43
甫刑	-11.4303
告周公	-11.4307
由此而	-11.4308
王業之	-11.4309
三重	-11.4311
廢棄	-11.4312
兵器	-11.4316
十九日	-11.4317
哀公	-11.4319
見於此	-11.4321
則失之	-11.4322
之次第	-11.4322
房心	-11.4323
暴亂	-11.4324
鄭注云	-11.4325
豈徒	-11.4326
五味	-11.4326
刑官	-11.4329
三百篇	-11.4333
民彝	-11.4333
同姓諸侯	-11.4334
大㫖	-11.4334
過差	-11.4334
夏官	-11.4334
私家	-11.4335
八字	-11.4339
商容	-11.4345
將終	-11.4346
定位	-11.4347
友民	-11.4349
南谷	-11.4349
風動	-11.4349
月三日	-11.435
安得而	-11.4353
說得	-11.4356
千二百	-11.4357
君長	-11.4358
不聰	-11.4362
以王命	-11.4362
河口	-11.4371
不知天命	-11.4371
二度	-11.4372
庶政	-11.4373
亦如之	-11.4375
存於	-11.4379
各盡其	-11.4381
敬慎	-11.4381
涼	-11.4383
恐懼修省	-11.4383
正義曰周公	-11.4384
氣節	-11.4384
九分	-11.4384
朽	-11.4384
南逕	-11.4384
歲月日	-11.4385
欽厥止	-11.4387
場	-11.4387
删	-11.4387
雨𤾉燠寒風	-11.4387
崐崘	-11.4387
賈誼	-11.4388
龜從筮	-11.4389
建子之月	-11.439
瓦	-11.439
模	-11.4391
永樂	-11.4391
幣帛	-11.4392
銷	-11.4392
董仲舒	-11.4392
之髙下	-11.4392
祝融	-11.4392
糞	-11.4393
俘	-11.4393
規矩	-11.4393
今朕必往	-11.4393
偷	-11.4394
釋言云	-11.4395
迅	-11.4395
戛擊	-11.4395
蚤	-11.4396
遊畋	-11.4396
見形甸反	-11.4397
復扶又反	-11.4399
若之何	-11.4399
瓠子	-11.4399
元王天與撰	-11.44
昃	-11.44
非真	-11.44
復歸于亳	-11.4401
吿	-11.4401
湯湯	-11.4402
賈讓	-11.4402
百官皆	-11.4402
珪	-11.4402
㣲子之命	-11.4403
周職方	-11.4403
古先哲王	-11.4403
不可廢	-11.4404
糗糧	-11.4404
按漢志	-11.4406
嚚訟	-11.4406
有大小	-11.4408
鄆州	-11.441
致仕	-11.4411
允迪	-11.4411
巫賢	-11.4412
適當	-11.4412
永安	-11.4413
清漳	-11.4414
無復有	-11.4414
為火	-11.4415
自棄	-11.4415
我之心	-11.4415
皐陶謨	-11.4418
▁陳氏雅言曰	-11.4418
古者天子	-11.4419
境界	-11.4419
不可解	-11.4419
于理	-11.4421
相揖	-11.4421
恒衛	-11.4422
也林少頴謂	-11.4422
龜卜	-11.4424
防其	-11.4427
九江在	-11.4427
揚子	-11.4429
將遷	-11.443
受禪	-11.4433
職任	-11.4435
經義	-11.4436
一人之身	-11.4437
闗中	-11.4439
媯水	-11.4441
無可疑者	-11.4443
淮沂	-11.4446
等州	-11.4447
蔡氏謂	-11.4449
所紀	-11.4449
明農	-11.4452
聽聞	-11.4454
有以見	-11.4454
昭徳	-11.4456
不能自已	-11.4457
乃所以為	-11.4459
天徳	-11.446
公功	-11.4462
初非	-11.4463
丹朱之	-11.4464
徐揚	-11.4469
里居	-11.4469
四世	-11.4469
西階	-11.4472
剛制	-11.4473
天災	-11.4474
並言	-11.4477
舜攝位	-11.448
魏郡	-11.448
弗能	-11.4482
之本心	-11.4483
辭氣	-11.4483
諸王	-11.4484
姦惡	-11.4484
爽明	-11.4486
運道	-11.4488
而告之曰	-11.4491
泰誓上	-11.4491
前章	-11.4492
在江北	-11.4499
魯國	-11.4501
昏亂	-11.4502
中徳	-11.4506
詩稱	-11.4506
而取之	-11.4507
大麓	-11.4513
分而為	-11.4521
求去	-11.4522
也禹之	-11.4525
誅殺	-11.4525
聖人之所	-11.4525
得民心	-11.4526
忠言	-11.4526
昔日	-11.4527
以為己	-11.453
南流至	-11.4534
諸公	-11.4535
星火	-11.4537
人君之所	-11.4537
衆水	-11.4544
之子也	-11.4545
孟明	-11.4547
十二章	-11.4552
鳥鼠山	-11.4552
鬬	-11.4553
乂王家	-11.4554
急於	-11.4554
圃	-11.4557
世俗	-11.4558
雨暘燠寒風	-11.4559
允執厥中	-11.456
罕	-11.456
誚	-11.456
能謹	-11.456
局	-11.4562
不矜不伐	-11.4563
不墜	-11.4563
刖	-11.4563
蠻夷猾夏	-11.4563
慼	-11.4564
同惡相濟	-11.4564
剝	-11.4565
疆域	-11.4566
泌	-11.4566
閟	-11.4566
羣吏	-11.4567
諸儒皆	-11.4567
遞	-11.4568
東流為漢	-11.4569
三章	-11.4569
頓丘	-11.4569
沈酗于酒	-11.4569
雊	-11.4569
帖	-11.4569
掘	-11.4569
湟	-11.457
豈不知	-11.457
曾孫	-11.457
甚難	-11.457
教胄子	-11.457
尚書纂傳卷	-11.4571
仙	-11.4571
五度	-11.4571
沱潛既道	-11.4571
司㓂	-11.4572
受命于周	-11.4573
棗	-11.4574
嘉禾	-11.4575
吞	-11.4575
瞿	-11.4576
散宜生	-11.4577
遒人	-11.4578
職掌	-11.4578
以有天下	-11.4579
文德	-11.4579
入于南海	-11.4579
訓詁	-11.4582
與天同	-11.4582
廣狹	-11.4583
造化之	-11.4584
齊七政	-11.4586
誅戮	-11.4587
睢陽	-11.4587
縣入海	-11.4587
篤厚	-11.4588
親征	-11.4591
殷之賢	-11.4593
所向	-11.4594
而求之	-11.4594
不遺	-11.4594
導川	-11.4596
親愛	-11.4596
孝弟	-11.4597
以民為	-11.4599
利用	-11.4599
真氏	-11.4603
入震澤	-11.4607
河渠書	-11.4607
階上	-11.4609
一般	-11.4612
江入海	-11.4613
王莽時	-11.4613
二國	-11.4618
以是而	-11.4619
配食	-11.462
康乂	-11.462
接界	-11.4624
象天	-11.4625
千六百	-11.4625
亦須	-11.4625
後儒	-11.4626
丕變	-11.4629
至于大别	-11.463
理之自然	-11.463
酈道元云	-11.4632
。「	-11.4633
安得而不	-11.4635
嚴道	-11.4635
新造	-11.4639
自絶于天	-11.464
誓命	-11.4641
充實	-11.4641
入於河	-11.4642
蘓	-11.4643
禹貢所謂	-11.4644
月朔	-11.4644
俗名	-11.4644
對越	-11.4646
師道	-11.4646
禹因	-11.4647
定陶縣	-11.4649
乃辟	-11.465
成數	-11.4651
報反	-11.4653
冬至日	-11.4659
▁陳氏	-11.4661
常憲	-11.4666
于茲	-11.4667
十五度	-11.4667
諸郡	-11.467
秋冬	-11.467
讎民	-11.468
羮	-11.468
五遷	-11.4681
以私意	-11.4681
也今按	-11.4685
鹽梅	-11.4687
景帝	-11.4687
金石	-11.4695
六度	-11.4695
庻民	-11.4699
終不能	-11.47
之盛徳	-11.47
湯伐桀	-11.4701
之力也	-11.4703
建侯	-11.471
十一篇	-11.4713
我祖	-11.4714
丕大	-11.4714
孟子云	-11.4718
勞民	-11.4719
桐柏山	-11.472
而得之	-11.4728
亹	-11.473
罔克	-11.4731
序文	-11.4733
皇祖	-11.4733
九載績用弗成	-11.4738
耨	-11.4739
澆	-11.4739
誌	-11.4739
致謹	-11.474
發首	-11.474
祖考來格	-11.4741
𨼆	-11.4741
侯甸男衛	-11.4741
貸	-11.4741
九河既道	-11.4741
涇屬渭汭	-11.4742
四十六卷	-11.4743
㤗誓	-11.4743
地記	-11.4743
塈	-11.4743
淹	-11.4743
殫	-11.4743
謐	-11.4744
罪人斯得	-11.4744
薪	-11.4745
灣	-11.4745
動摇	-11.4745
四海㑹同	-11.4745
瑶琨	-11.4745
此一段	-11.4746
輝光	-11.4747
爕	-11.4747
天下之善	-11.4747
蔚	-11.4747
宦	-11.4747
潤色	-11.4747
蠡	-11.4747
欽定四庫全書尚書纂傳卷	-11.4747
蹟	-11.4749
人君所以	-11.4749
泯亂	-11.4749
龍門西河	-11.4752
啟迪	-11.4753
天難諶	-11.4755
藝祖	-11.4757
晉文侯	-11.4758
文王世子	-11.4758
推衍	-11.4759
伊水出	-11.4763
南流入	-11.4764
淇水	-11.4764
情性	-11.4764
懋昭	-11.4765
二十一日	-11.4767
厚薄	-11.4768
如字徐	-11.4768
制貢	-11.477
下雋	-11.4771
不能保	-11.4772
北岸	-11.4773
遷亳	-11.4773
多士多方	-11.4773
禹之言	-11.4774
殷紂	-11.4775
肅慎	-11.4776
而不失其	-11.4779
金牛	-11.478
墳典	-11.4781
不患	-11.4782
崇徳	-11.4783
合黎山	-11.4785
消長	-11.4789
不期而	-11.4789
人君能	-11.4789
應劭曰	-11.4791
三江口	-11.4791
只得	-11.4791
除害	-11.4792
魏晉	-11.4795
王肅亦	-11.4797
胄子	-11.4798
與後世	-11.4798
濁水	-11.4804
成敗	-11.4806
紂都	-11.4806
立文	-11.4807
二氣	-11.4814
宅憂	-11.4816
百君子	-11.4818
有輕重	-11.4821
禮運	-11.4826
好貨	-11.4827
四載	-11.4831
堯崩	-11.4832
至尊	-11.4837
兼用	-11.4838
三十五	-11.4838
我不知其	-11.4845
亂政	-11.4846
都司	-11.4849
之正也	-11.4853
武庚叛	-11.4855
能事鬼神	-11.4856
敬行	-11.4857
看得	-11.4857
畿外	-11.4861
元光	-11.4865
孰能	-11.4869
世主	-11.4874
矣而又	-11.4875
災祥	-11.4876
謹始	-11.4877
聖人之言	-11.4878
樂官	-11.4879
史記正義	-11.4879
彰明	-11.488
不恱	-11.488
馬氏	-11.488
冀兖	-11.4883
盤庚之遷	-11.4883
南郊	-11.4886
安安	-11.4886
治四方	-11.4889
而不行	-11.489
奪其	-11.4891
敷重	-11.4891
不聴	-11.4893
不滿	-11.4897
水之流	-11.4897
過人	-11.4899
戒舜	-11.4905
若果	-11.4907
相濟	-11.4909
千五百	-11.491
伊陟臣扈	-11.4911
盍	-11.4912
榭	-11.4913
搜	-11.4914
千人	-11.4914
世變風移	-11.4914
擊刺	-11.4915
律度量衡	-11.4915
怙終賊刑	-11.4915
改過不吝	-11.4915
三風十愆	-11.4916
周公攝政七年	-11.4916
班瑞	-11.4917
北極出地	-11.4917
莘	-11.4917
西界	-11.4917
彫	-11.4917
刼	-11.4918
肱	-11.4918
大艱	-11.4918
柔逺能邇	-11.4919
頃刻	-11.4919
獻其	-11.4919
作民父母	-11.4919
富平縣	-11.4919
覇	-11.4919
冩	-11.492
袤	-11.4921
莫先於	-11.4921
江漢朝宗于海	-11.4921
天下之公	-11.4921
三郊三遂	-11.4922
星宿	-11.4922
田功	-11.4923
默	-11.4923
覈	-11.4923
衙	-11.4923
駮	-11.4923
致力	-11.4924
十有三祀	-11.4925
人性	-11.4926
讙	-11.4926
楨	-11.4926
花	-11.4926
建丑	-11.4926
勁	-11.4927
撥	-11.4927
羈縻	-11.4927
百夫長	-11.4928
轉移	-11.4928
岷山導江	-11.4928
武威	-11.4929
髙后	-11.4929
苟能	-11.493
尙書大傳	-11.4932
朕徳	-11.4932
事鬼神	-11.4932
河渠	-11.4932
遜于	-11.4932
凡厥庶民	-11.4934
綬	-11.4934
治亂之	-11.4934
九類	-11.4934
適輕	-11.4935
七寸	-11.4938
建寅	-11.4938
卑下	-11.4939
治忽	-11.494
結繩	-11.494
南旺	-11.4941
氣盈	-11.4942
固可	-11.4943
按今	-11.4947
先哲王	-11.4948
何以知之	-11.4949
北屈	-11.495
導渭	-11.495
文王之德	-11.4951
矣嗚呼	-11.4952
上源	-11.4954
我今日	-11.4955
,「	-11.4957
校官	-11.4957
耀州	-11.4959
中條	-11.4961
總百官	-11.4964
當天心	-11.4964
征苗	-11.4964
分寸	-11.4965
頑愚	-11.4969
不曽	-11.4971
歸亳	-11.4973
分為九	-11.4977
初一曰五行	-11.4978
在王庭	-11.4978
自大伾	-11.4978
衆臣	-11.498
厚生	-11.4981
更名	-11.4981
初昏	-11.4987
戒慎	-11.4989
十一日	-11.4994
政刑	-11.4995
僖公	-11.4998
忠愛	-11.5
宗工	-11.5002
唐宋	-11.5003
湯放桀	-11.5009
導民	-11.501
穀城	-11.5011
鄭氏謂	-11.5014
則不足以	-11.5016
古史	-11.5018
故以為	-11.5021
禹稷	-11.5022
於是始	-11.5027
一卷	-11.5027
以此觀之	-11.5029
不曾	-11.5031
將亡	-11.5032
▁唐孔氏曰	-11.5039
永興	-11.5039
孔疏云	-11.5042
焉盖	-11.5043
茍不	-11.5044
九共	-11.5045
何也蓋	-11.5049
九道	-11.5051
最近	-11.5051
如字又	-11.5054
班氏	-11.5054
相符	-11.5054
事體	-11.5057
二十一	-11.5059
亦未必	-11.5062
寜王	-11.5066
立教	-11.5068
尚可	-11.5069
葉氏	-11.5071
髙唐	-11.5076
財用	-11.5079
五邦	-11.5082
泛言	-11.5082
其聰明	-11.5085
信任	-11.5087
導河積石	-11.5088
和川	-11.5089
柷	-11.509
舜命禹	-11.5091
昭穆	-11.5094
鹿臺	-11.5094
鼗	-11.5095
跣	-11.5096
于五刑	-11.5096
張騫	-11.5096
平秩東作	-11.5096
宻邇	-11.5098
鄯	-11.5099
大坰	-11.5099
刵	-11.5099
升遐	-11.5099
爛	-11.5099
寗	-11.51
炙	-11.51
届	-11.51
纘	-11.51
自我民	-11.5101
篡	-11.5101
血流漂杵	-11.5101
今商王受	-11.5101
鑿龍門	-11.5101
彖	-11.5102
暘谷	-11.5102
胷中	-11.5103
頭山	-11.5103
昀	-11.5103
論道經邦	-11.5103
惟三月哉生魄	-11.5103
今湖廣	-11.5104
月恭校上	-11.5104
菏澤在	-11.5104
彩	-11.5105
自北而南	-11.5107
宕渠	-11.5107
揚雄	-11.5108
劍	-11.5108
葱嶺	-11.5108
可喜	-11.5109
簡冊	-11.5111
眀徳	-11.5111
安天下之	-11.5112
一簣	-11.5113
而不可以	-11.5115
夏本紀	-11.5117
尼	-11.5117
危疑	-11.5117
取人	-11.5118
厥後	-11.5118
伊水	-11.5119
孟康	-11.5121
幸而	-11.5122
異乎	-11.5124
善心	-11.5124
右轉	-11.5125
粒食	-11.5126
我商家	-11.5126
昌黎	-11.5126
於新邑	-11.5127
戡定	-11.5128
朕命	-11.5131
羣牧	-11.5132
二條	-11.5132
怪石	-11.5135
厥躬	-11.5136
而任之	-11.5136
天錫	-11.5137
最多	-11.5137
修明	-11.5138
逾河	-11.5138
三帛	-11.5138
萊蕪	-11.514
廂	-11.5141
太王王季文王	-11.5143
法令	-11.5144
傅㑹	-11.5145
嘉定	-11.5147
民獻	-11.5148
以上皆	-11.5149
榖梁	-11.5153
穆卜	-11.5158
覆亡	-11.5159
卿大夫士	-11.5171
秩然	-11.5171
荆山在	-11.5172
▁陳氏經曰	-11.518
詩歌	-11.518
桓公	-11.5182
路史	-11.5184
御治事	-11.5184
隨事	-11.5188
為主故	-11.5189
百川	-11.5192
並用	-11.5193
其病	-11.5193
北狄	-11.5194
入于江	-11.5196
色白	-11.5196
節度	-11.5198
未可知也	-11.5198
司服	-11.5203
十二度	-11.5204
不曉	-11.5205
而後知	-11.5205
之綱領	-11.5207
每事	-11.5212
荒廢	-11.5215
商士	-11.5215
二十五年	-11.5218
明辟	-11.5219
秋官	-11.5226
行遲	-11.523
告老	-11.5231
又東北流	-11.5231
孫炎	-11.5233
豈復	-11.5233
四象	-11.5234
自省	-11.5235
左傳稱	-11.5237
故戒之	-11.5237
宋史	-11.524
凶德	-11.524
勝夏	-11.5243
遷殷	-11.5243
之輕者	-11.5246
作此篇	-11.5247
應天	-11.5248
上天之命	-11.5252
城西北	-11.5258
時未有	-11.5259
至此又	-11.526
元氣	-11.5264
厥命	-11.5265
臣之職	-11.5268
之體也	-11.5268
龜兆	-11.5268
克勤	-11.5272
格于上帝	-11.5274
允迪厥徳	-11.5274
翰林院	-11.5274
河自積石	-11.5276
欲敗度縱敗禮	-11.5276
十三載	-11.5277
此無他	-11.5277
三帛二生一死	-11.5278
時寒	-11.5278
臼	-11.5278
騭	-11.5278
不辜	-11.5278
尹躬暨湯	-11.5279
需	-11.5281
于商郊	-11.5281
肅恭	-11.5282
湊	-11.5282
制禮作樂	-11.5283
遷善逺罪	-11.5283
崔	-11.5283
皇建其有極	-11.5283
罔不率俾	-11.5283
雲土夢作乂	-11.5284
雀弁	-11.5284
九澤	-11.5284
思日孜孜	-11.5284
漆沮既從	-11.5284
欽定四庫全書經部二	-11.5285
齊家	-11.5285
一二三四	-11.5286
抽	-11.5286
灊	-11.5287
保乂有殷	-11.5287
態	-11.5288
遯于荒野	-11.5288
涌	-11.5289
遲速	-11.529
外丙	-11.529
瞑眩	-11.5292
大甲	-11.5292
內	-11.5294
門人	-11.5294
人心道心	-11.5295
溉田	-11.5297
純乎天	-11.5297
輯錄	-11.5298
口授	-11.5299
旂	-11.53
旦夕	-11.53
庶乎	-11.5301
説話	-11.5302
縱横	-11.5302
百度	-11.5304
壩	-11.5304
忠孝	-11.5307
蠙	-11.5307
側階	-11.5307
戒哉	-11.5308
𤣥黄	-11.531
北流注	-11.5311
為學之	-11.5313
不肯遷	-11.5313
西成	-11.5314
夜半	-11.5316
宗彛	-11.5316
葛伯	-11.5317
征討	-11.532
官屬	-11.5321
由是觀之	-11.5321
荆豫	-11.5322
至于大陸	-11.5326
申勸	-11.5329
二代	-11.5332
五行五事	-11.5334
果敢	-11.5335
脩身	-11.5335
析木	-11.5336
徐奄	-11.5339
距海	-11.534
與之同	-11.5341
不敢違	-11.5342
按孔傳	-11.5346
零陵	-11.5346
韋昭云	-11.5347
予欲	-11.5348
佞人	-11.5348
漢孔氏以	-11.5357
逐州	-11.536
華容	-11.5364
周公旣	-11.5366
玉石	-11.537
清水	-11.5371
必死	-11.5374
為一分	-11.5376
命𦙍侯	-11.5378
非有意	-11.538
禹跡	-11.538
形氣	-11.5383
後面	-11.5383
逺物	-11.5386
往征之	-11.5387
伯恭	-11.5388
還歸	-11.5393
至于龍門	-11.5394
無垢曰夫	-11.5394
酈氏	-11.5398
有虞之	-11.5398
在江南	-11.5401
之反也	-11.5401
媯	-11.5404
告汝以	-11.5405
波水	-11.5407
孟子謂	-11.5409
首陽縣	-11.541
百畝	-11.5411
並見	-11.542
意若曰	-11.5423
以待之	-11.5427
劓刵	-11.5429
一職	-11.5429
一國之	-11.5433
碣石山	-11.5434
惡惡	-11.5442
既久	-11.5443
孛	-11.5443
立國	-11.5445
又西南	-11.5446
以為戒	-11.5449
壬辰	-11.5449
粒	-11.5449
又逕	-11.5451
朱虎熊羆	-11.5453
於此時	-11.5459
連山	-11.5461
故特言	-11.5462
郫	-11.5463
洪大	-11.5465
仲虺作誥	-11.5466
鏡	-11.5467
湯之所以	-11.5469
予則孥戮汝	-11.547
媯汭	-11.547
免於	-11.5471
刪丹	-11.5471
旒	-11.5472
玆	-11.5472
只是一箇	-11.5473
陂障	-11.5473
潤下作鹹	-11.5474
嚴恭寅畏	-11.5474
垂拱	-11.5474
墨劓	-11.5474
輯五瑞	-11.5474
皇極之敷言	-11.5475
憎	-11.5475
瀰漫	-11.5475
竇	-11.5475
餙	-11.5475
陪	-11.5476
彭蠡既豬	-11.5476
殱	-11.5476
亦此意也	-11.5477
齟齬	-11.5477
澠池	-11.5477
濬畎澮距川	-11.5478
誰能	-11.5478
薊	-11.5478
古制	-11.5479
彈	-11.5479
曷嘗	-11.548
僃	-11.548
岳牧	-11.5481
兑	-11.5482
趣馬	-11.5482
鏤	-11.5483
如鄭	-11.5483
异	-11.5485
太白	-11.5485
二源	-11.5486
戈矛	-11.5486
冲子	-11.5487
正父	-11.5487
𤓰	-11.5489
贛	-11.5489
嘉陵江	-11.5491
蠙珠	-11.5493
提要	-11.5494
惟艱	-11.5494
淵源	-11.5494
罔覺	-11.5496
匠人	-11.5499
在梁州	-11.55
白黒	-11.5502
整理	-11.5502
便見	-11.5502
而况於	-11.5503
河圖洛書	-11.5503
附庸	-11.5504
君之道	-11.5506
天地之性	-11.5506
入于渭	-11.5506
州其地	-11.5507
劓刵人	-11.5509
青州府	-11.5509
湯之徳	-11.551
相顧	-11.551
不窮	-11.551
滅淮夷	-11.5511
秉徳	-11.5511
又加	-11.5512
若有疾	-11.5514
沱濳	-11.5515
憂恤	-11.5515
折而北	-11.5515
冀方	-11.5516
所自出	-11.5517
縱酒	-11.5517
表識	-11.5517
汨作	-11.552
撫綏	-11.5521
路門	-11.5522
比附	-11.5523
修其身	-11.5523
下濕	-11.5526
閏月	-11.5527
三仁	-11.5528
放逸	-11.5529
徳盛	-11.5529
天命不易	-11.553
至扵	-11.5531
魯公	-11.5544
禁止	-11.5544
汝之功	-11.5551
之本心也	-11.5551
備具	-11.5553
中流	-11.5554
不臧	-11.5555
亂世	-11.5555
夷陵	-11.556
宗禮	-11.5561
數百	-11.5562
既受命	-11.5563
哉又按	-11.5564
天明畏	-11.5565
岳州	-11.5566
來格	-11.5568
僕臣	-11.5569
為人臣	-11.557
世守	-11.557
然其所	-11.5574
敷教	-11.5574
丞相	-11.5576
淮海	-11.5577
時燠	-11.5581
陷于	-11.5581
三帥	-11.5584
後世人主	-11.5586
尤當	-11.5587
牖間	-11.5591
逹河	-11.5596
誥康叔	-11.5602
史述	-11.5603
灉水	-11.5611
先務	-11.5612
封伯禽	-11.5614
應劭	-11.5615
五等諸侯	-11.562
依山	-11.5622
分配	-11.5624
汝祖父	-11.5625
在於此	-11.5627
日短	-11.5627
一偏	-11.5629
二十一年	-11.5634
供王	-11.5635
正四方	-11.5637
君位	-11.564
西陵	-11.5642
詳考	-11.5644
王氏謂	-11.5646
往日	-11.5648
或失	-11.5654
卭	-11.566
為周家	-11.5661
克享天心	-11.5661
曽不	-11.5662
武庚之叛	-11.5662
墳壚	-11.5662
躋	-11.5662
與孔異	-11.5663
八國	-11.5663
凍	-11.5663
百官總已	-11.5663
昆侖	-11.5663
威用六極	-11.5663
樏	-11.5664
敕	-11.5664
鋒	-11.5664
訊	-11.5664
逝	-11.5665
侔	-11.5665
實未嘗	-11.5665
紆	-11.5666
撲滅	-11.5666
陽鳥攸居	-11.5668
溥	-11.5669
踵	-11.5669
擯	-11.5669
彊弗友	-11.5669
謟	-11.5669
胥靡	-11.567
侗	-11.567
張氏九成曰	-11.567
守法	-11.567
揣	-11.5671
折衷	-11.5671
秕	-11.5671
洪水既平	-11.5671
霍光	-11.5671
郁	-11.5672
惟洛食	-11.5672
非一日	-11.5673
寇賊	-11.5675
罽	-11.5675
篠簜	-11.5675
荀卿	-11.5676
辛卯	-11.5677
个	-11.5677
槃	-11.5677
魚臺	-11.5678
不克終	-11.5678
三百六十五度	-11.5678
别名	-11.568
西羌	-11.5681
河所經	-11.5681
枚卜	-11.5681
之是非	-11.5681
嶧陽	-11.5684
繼之曰	-11.5684
二十八字	-11.5689
又如字	-11.569
居延澤	-11.5691
北岳	-11.5693
為西伯	-11.5694
逃亡	-11.5696
任其責	-11.5698
動静	-11.5698
嶓冡山	-11.5698
京口	-11.5698
安知其	-11.57
:『	-11.5701
所産	-11.5703
入沅	-11.5703
盡忠	-11.5704
而正之	-11.5707
西裔	-11.5707
卓然	-11.5712
文王之廟	-11.5712
東伯	-11.5713
顯民	-11.5716
於天者	-11.5716
衆功	-11.5724
閏餘	-11.5726
沂水出	-11.5726
于洛邑	-11.5726
貨寳	-11.5727
傳註	-11.5727
一百一十	-11.5733
學者當	-11.5733
四節	-11.5733
前已	-11.5737
任土	-11.5739
而不亂	-11.574
一疇	-11.5742
相感	-11.5743
出征	-11.5744
䘮亡	-11.5744
如何耳	-11.5746
仁厚	-11.5751
前人之功	-11.5753
永圖	-11.5757
變宫	-11.5766
禮典	-11.5769
禮儀	-11.5776
布陳	-11.5787
亭北	-11.5789
祭天地	-11.5789
使居	-11.579
罪戾	-11.5796
五嶺	-11.5796
永久	-11.5801
甚詳	-11.5801
十四日	-11.5803
不相及	-11.5804
伐鄭	-11.5804
禹貢之書	-11.5808
闕疑	-11.5811
百二十里	-11.5812
遺我	-11.5815
豈有不	-11.5816
敏徳	-11.5817
世享	-11.5821
信乎其	-11.5821
遜順	-11.5822
截然	-11.5822
盡之矣	-11.5822
泰誓中	-11.5825
觀象	-11.583
堯舜禹湯	-11.583
生則逸	-11.5833
沫水	-11.5834
不知所在	-11.5835
所寳	-11.5837
兩辭	-11.5837
一例	-11.5838
崑崙山	-11.5838
不可不監	-11.5842
瀘水	-11.5848
虚心	-11.585
綸	-11.5851
詁	-11.5852
皮弁	-11.5854
擴	-11.5855
淄水	-11.5855
庶幾能	-11.5855
䞇	-11.5855
懫	-11.5857
有徳之人	-11.5857
寛而栗	-11.5858
命公後	-11.5858
廪	-11.5859
洪水未平	-11.5859
竹書紀年	-11.5859
陳經撰	-11.5861
脛	-11.5861
㕘	-11.5862
惟天不畀	-11.5862
防閑	-11.5862
創業垂統	-11.5862
水火木金土	-11.5862
偉	-11.5863
系	-11.5863
乖戾	-11.5863
等謹案	-11.5863
𤣥枵	-11.5863
煥	-11.5863
轅	-11.5863
汝則有大疑	-11.5863
甸侯綏	-11.5863
襄王	-11.5864
涕	-11.5864
饋	-11.5864
殳	-11.5864
耐	-11.5864
七百二十九	-11.5865
噬	-11.5865
㐮	-11.5865
副貳	-11.5865
玉帛	-11.5865
諂	-11.5865
擁	-11.5865
碣	-11.5865
从	-11.5866
壅遏	-11.5866
斵	-11.5866
唐一行	-11.5866
辟疑赦	-11.5866
方命圯族	-11.5866
孔頴逹	-11.5867
作十有三載乃同	-11.5867
捐	-11.5867
遡	-11.5867
姦慝	-11.5867
熾	-11.5867
攘竊	-11.5868
積石山在	-11.5868
菽	-11.5868
藩屏	-11.5868
孫氏	-11.5868
賣	-11.5868
鞏昌府	-11.5869
墉	-11.587
冊祝	-11.587
獄之兩辭	-11.587
䢴	-11.5871
臨事	-11.5871
武王之心	-11.5871
殷之頑民	-11.5872
直而温	-11.5872
内治	-11.5872
匣	-11.5872
傲虐	-11.5873
陘	-11.5873
保養	-11.5877
感化	-11.5877
十二里	-11.5877
刋木	-11.5878
礫	-11.5879
師衆也	-11.588
拜手	-11.5882
修五禮	-11.5882
濰淄	-11.5882
相規	-11.5884
均平	-11.5884
通達	-11.5887
召畢	-11.5887
伊洛	-11.5887
二尺	-11.5889
鉅鹿縣	-11.589
真知	-11.5891
登歌	-11.5891
之常法	-11.5892
枝津	-11.5892
未形	-11.5893
所固有	-11.5895
無忝	-11.5895
百萬	-11.5896
交錯	-11.5896
贖罪	-11.5897
永念	-11.5897
惟予一人	-11.5897
耄荒	-11.5898
不測	-11.5899
盡其力	-11.5901
誰敢不	-11.5901
二十四篇	-11.5901
二十九年	-11.5904
城東北	-11.5905
不爽	-11.5906
單辭	-11.5907
竹書	-11.5907
衞侯	-11.5907
結上文	-11.5908
納錫	-11.591
獄辭	-11.591
二百餘里	-11.5911
之工夫	-11.5911
嗣前人	-11.5912
丕承	-11.5915
但不知	-11.5917
何異	-11.5918
恤祀	-11.5922
宵中	-11.5922
西岳	-11.5922
戊子	-11.5924
經㫖	-11.5924
條列	-11.5925
錯雜	-11.5926
敬其事	-11.5929
矣張氏曰	-11.5932
五緯	-11.5935
後裔	-11.5937
罔敢	-11.5938
人心之所	-11.5938
之一言	-11.5939
之極功	-11.594
既豬	-11.5941
人之善	-11.5943
亳衆	-11.5945
封國	-11.5947
嗣君	-11.5947
召六卿	-11.5948
節制	-11.5952
殷罰	-11.5955
中江北江	-11.596
多遜	-11.5963
行千	-11.5964
古昔	-11.5964
不静	-11.5965
此四者	-11.5965
古之聖人	-11.5967
五十四	-11.5977
可保	-11.598
蔡傳引	-11.598
從化	-11.5981
失職	-11.5985
折而南	-11.5985
在縣西南	-11.5992
懲戒	-11.5993
采服	-11.6003
生殺	-11.6007
儉徳	-11.6008
更生	-11.6014
諸說	-11.6016
卜宅	-11.6016
既勤	-11.6018
合而言之	-11.6018
如何哉	-11.602
伾	-11.6021
之所及	-11.6027
其弊	-11.6028
三萬	-11.603
魚鼈	-11.6031
之所歸	-11.6044
衛國	-11.6053
錯綜	-11.6055
有是徳	-11.6055
寘	-11.6057
租	-11.6057
猾	-11.6058
朕卜并吉	-11.6059
景陵	-11.6059
漠	-11.6059
島夷皮服	-11.6059
真定府	-11.6059
弩	-11.6059
戀	-11.606
絶地天通	-11.606
奠髙山大川	-11.606
負荷	-11.606
酗酒	-11.6061
庶頑讒説	-11.6061
為方伯	-11.6062
矯誣	-11.6062
延及	-11.6062
陻	-11.6062
張皇六師	-11.6063
犢	-11.6064
㝡	-11.6064
罰弗及嗣	-11.6064
婢	-11.6065
成厥功	-11.6066
辛亥	-11.6066
震澤厎定	-11.6066
路寢門	-11.6066
荼	-11.6068
顔氏曰	-11.6069
埽	-11.6069
天人之際	-11.607
先王之法	-11.607
躁	-11.607
東南流至	-11.6071
周公作立政	-11.6071
勝殷	-11.6072
夾鐘	-11.6073
繢	-11.6073
侯甸男衞	-11.6077
圖治	-11.6077
橘	-11.6078
憸利	-11.608
己丑	-11.608
濬哲	-11.6081
脱誤	-11.6081
支離	-11.6082
為沱	-11.6086
抑揚	-11.609
杞子	-11.6093
二十八日	-11.6096
百九十	-11.6098
習俗	-11.6099
為人君者	-11.6101
按周禮	-11.6103
介助	-11.6113
治平聲	-11.6114
一篇之中	-11.6114
命臯陶	-11.6115
聖狂	-11.6117
隕墜	-11.612
怠棄	-11.6123
麗水	-11.6125
唐虞之時	-11.6129
祝辭	-11.613
湖陵	-11.6131
趨事	-11.6132
亮反	-11.6137
元嘉	-11.6137
攻位	-11.6141
恒風	-11.6141
不迫	-11.6142
無可疑	-11.6143
五穀	-11.6143
專指	-11.6143
舞衣	-11.6146
流宥	-11.6154
我亦不敢	-11.6156
不知稼穡之艱難	-11.6158
汭水	-11.6159
感通	-11.616
惟恐其	-11.6163
民之情	-11.617
朝㑹	-11.6171
厯代	-11.6176
人材	-11.6178
男邦	-11.6181
遷殷民	-11.6182
順天命	-11.6182
共政	-11.6187
審克	-11.6192
廢置	-11.6193
盡君道	-11.6196
氐道縣	-11.6197
傲上	-11.62
憾	-11.6205
近郊	-11.6209
外二百里	-11.621
興元	-11.6213
㫖哉	-11.6214
之變也	-11.6221
漢魏	-11.6222
功之成	-11.6223
可恃	-11.6226
陳氏大猷	-11.6227
太王王季	-11.623
有功於	-11.6233
廢興	-11.6233
九州之山	-11.6238
北過	-11.6238
蔡山	-11.6243
豈易	-11.6243
將軍	-11.6245
尹氏	-11.6247
獵	-11.6248
可願	-11.625
三寸	-11.6251
潼	-11.6254
四分度之一	-11.6256
孝悌	-11.6259
牝雞	-11.626
荒忽	-11.6261
𦂳	-11.6261
麋	-11.6262
西山真氏曰	-11.6262
畏天命	-11.6262
褻	-11.6262
夏邑	-11.6263
幅	-11.6263
宋黄倫撰	-11.6263
篤馬河	-11.6263
庶常吉士	-11.6263
蹌蹌	-11.6264
庶績咸熙	-11.6264
稔	-11.6264
頤	-11.6264
他書	-11.6265
風雷之變	-11.6266
慤	-11.6266
睹	-11.6266
朂哉夫子	-11.6266
縛	-11.6266
聳	-11.6266
在璿璣玉衡以齊七政	-11.6266
暖	-11.6266
汎濫	-11.6266
孺	-11.6267
修己	-11.6267
牡	-11.6267
水土既平	-11.6267
嬰	-11.6268
九州攸同	-11.6268
三公三孤	-11.6269
轉輸	-11.6269
琬琰	-11.6269
得吉卜	-11.6269
治梁及岐	-11.6269
闢四門	-11.6269
金縢之匱	-11.627
泳	-11.627
頻	-11.6271
貞正也	-11.6271
敖倉	-11.6271
曜	-11.6272
王莽河	-11.6272
壺口雷首	-11.6272
握	-11.6272
昏墊	-11.6272
邪説	-11.6272
聿	-11.6273
詛祝	-11.6273
男女	-11.6273
冨	-11.6273
纎縞	-11.6273
仁政	-11.6275
貌言視聽思	-11.6276
耄期	-11.6276
蒙羽其藝	-11.6276
閱實其罪	-11.6276
仍几	-11.6276
金輅	-11.6277
酬	-11.6277
畫八卦	-11.6278
樓	-11.6278
距四海	-11.6278
杓	-11.6278
金城郡	-11.6278
求多聞	-11.6279
木輅	-11.6279
欽恤	-11.628
卿士庶民	-11.628
訓戒	-11.6281
𤣥圭	-11.6282
羆	-11.6283
重複	-11.6283
蚌	-11.6284
齒革	-11.6284
取象	-11.6285
來相宅	-11.6286
施之於	-11.6286
華陰	-11.6292
甲辰	-11.6294
堯舜禹湯文武	-11.6296
袁氏	-11.6298
西距	-11.6299
偏倚	-11.6299
墳起	-11.6305
老成之人	-11.6306
岱山	-11.6306
滱水	-11.631
討論	-11.631
夀張	-11.6312
天子之命	-11.6316
遂其生	-11.6318
隂溝	-11.6319
三面	-11.6321
播棄	-11.6321
之東境	-11.6322
乃命羲和	-11.6325
立春	-11.6327
唐虞時	-11.6331
我西土	-11.6333
無不順	-11.6334
同列	-11.6336
順其事	-11.6337
世家云	-11.6339
枝流	-11.6344
十度	-11.6346
所當然	-11.6349
君父	-11.6351
凖人	-11.6352
河曲	-11.6353
婁江	-11.6354
齊魯	-11.6358
助王	-11.636
未必盡	-11.6365
己巳	-11.637
所行之事	-11.6371
無患	-11.6373
也必矣	-11.6374
賔階	-11.6374
迷民	-11.6375
為四輔	-11.6377
聖人之徳	-11.6378
留洛	-11.6387
失徳	-11.6389
司徒掌	-11.639
肅州	-11.6393
民莫不	-11.6394
見導山	-11.6396
由是言之	-11.6397
不外乎	-11.6397
三者皆	-11.6401
徒知	-11.6402
周公拜手稽首	-11.6402
肖	-11.6403
不免於	-11.6408
本體	-11.6409
馬遷	-11.6409
之所同然	-11.641
運河	-11.6411
衛州	-11.6413
歴歴	-11.6418
過九江至于東陵	-11.6419
夾鍾	-11.642
棄我	-11.6425
成王崩	-11.6435
寛仁	-11.6436
治化	-11.6436
不悖	-11.6436
朔南	-11.6442
偃師縣	-11.6446
人之情	-11.6447
討有罪	-11.6448
不可不謹	-11.6453
故繼之曰	-11.6454
難化	-11.6457
臯陶之言	-11.6462
木金	-11.6464
風氣	-11.6464
顧諟	-11.6465
戞	-11.6466
上下比罪	-11.6467
歳月日	-11.6467
三昭三穆	-11.6468
鞫	-11.6468
至公無私	-11.6468
蚩	-11.6468
毀	-11.6468
外丙仲壬	-11.6468
咸秩無文	-11.6469
庾	-11.647
緇衣	-11.6471
欽定四庫全書尚書精義卷	-11.6471
不可忘	-11.6471
箴規	-11.6472
渇	-11.6472
濯	-11.6472
鞅	-11.6473
摭	-11.6473
雷夏既澤	-11.6473
虹	-11.6473
悼	-11.6474
肅乂哲謀聖	-11.6474
坼	-11.6474
姻	-11.6474
學于甘盤	-11.6474
斮	-11.6475
瑶	-11.6475
冉	-11.6475
隨山濬川	-11.6475
煖	-11.6475
増損	-11.6476
廬阜	-11.6476
嚻	-11.6476
自漢以來	-11.6476
屯氏河	-11.6476
兜	-11.6476
浮于淮泗達于河	-11.6476
莱	-11.6477
鄜	-11.6477
濟源縣	-11.6477
摧	-11.6477
鬱鬯	-11.6477
謁	-11.6477
高宗肜日	-11.6478
同為逆河	-11.6478
推亡固存	-11.6478
付託	-11.6479
治天下之大法	-11.6479
差忒	-11.6479
璿璣玉衡	-11.6479
揜	-11.6479
和樂	-11.648
周髀	-11.648
宇宙	-11.648
靡靡	-11.648
腎	-11.648
仗	-11.6481
枕	-11.6481
孺子王矣	-11.6481
忿怒	-11.6482
墾	-11.6482
泆	-11.6483
獨舉	-11.6483
宅嵎夷	-11.6484
戒勑	-11.6484
葭萌	-11.6486
時人斯其惟皇之極	-11.6487
漢書五行志	-11.6487
臨羌	-11.6488
詩言志	-11.649
考制度	-11.6492
私昵	-11.6493
西夷	-11.6494
往欽哉	-11.6496
怙終	-11.6498
黎獻	-11.65
嗣孫	-11.65
此周公所以	-11.6508
序書者	-11.6508
師傅	-11.6508
操存	-11.6509
一人冕	-11.6511
小宗伯	-11.6511
千八百	-11.6513
迷亂	-11.6516
田畝	-11.6517
内卦	-11.652
伏生之書	-11.6521
以酒為	-11.6526
荆門	-11.6528
酈道元謂	-11.6528
他處	-11.6533
係於	-11.6546
交㑹	-11.6556
告成功	-11.6559
絶其命	-11.6559
考據	-11.6561
孰謂	-11.6574
商丘	-11.6576
訖于四海	-11.6577
天眷	-11.658
滎陽縣	-11.6581
清口	-11.6584
所急	-11.6593
郡國志	-11.6595
謀慮	-11.6598
越海	-11.66
諄諄然	-11.6606
水退	-11.661
遂廢	-11.661
不妄	-11.6619
設官	-11.6623
大戊	-11.6623
百步	-11.6624
休休	-11.6626
嚳	-11.6628
沈氏	-11.663
然其言	-11.6633
孔説	-11.6638
敬徳則	-11.6642
亦莫不	-11.6642
二十六年	-11.6645
九州之川	-11.6651
刑威	-11.6657
慎終	-11.6658
庻邦	-11.6663
▁張氏曰	-11.6665
世次	-11.6671
仲叔	-11.6673
南亳	-11.6675
冺	-11.6676
梧	-11.6682
訴	-11.6682
敬用五事	-11.6682
三十五里	-11.6683
蓬	-11.6684
唐孔氏云	-11.6684
藐	-11.6684
惓惓	-11.6684
五刑之屬三千	-11.6685
俶	-11.6685
竦	-11.6686
無忌憚	-11.6687
燮友	-11.6687
髦	-11.6687
多歴年所	-11.6687
印	-11.6688
弱水既西	-11.6688
無往而不	-11.6689
鮒	-11.6689
禫	-11.6689
惟皇作極	-11.669
漸漬	-11.669
萬五千	-11.669
譯	-11.669
綏安	-11.6691
佛	-11.6691
出納五言	-11.6692
呈	-11.6692
摇動	-11.6692
璿璣	-11.6692
劒	-11.6692
掦	-11.6692
丕丕基	-11.6693
民不安	-11.6693
敞	-11.6693
鏃	-11.6693
闔	-11.6693
賡	-11.6694
臆度	-11.6694
監觀	-11.6694
之心為心	-11.6694
紬繹	-11.6694
頗僻	-11.6695
揆文教	-11.6695
蜼	-11.6695
朝廷之上	-11.6697
魯人三郊三遂	-11.6697
脫簡	-11.6697
菴	-11.6698
五服之制	-11.6698
新安王氏曰	-11.6698
鎮撫	-11.6701
以箕子歸	-11.6701
布帛	-11.6703
通鑑前編	-11.6704
掌六師	-11.6704
聒聒	-11.6705
赴功	-11.6707
延長	-11.6709
精密	-11.671
周禮大宗伯	-11.6711
翼室	-11.6713
州刺史	-11.6715
孟州	-11.6717
百獸	-11.6718
上之所	-11.6718
無以異	-11.6719
敷奏	-11.6721
汜水	-11.6722
方百里	-11.6723
兩階	-11.6725
叢生	-11.6726
以時而	-11.6727
保佑	-11.6728
朏明	-11.6738
五十五	-11.674
穿地	-11.674
館陶	-11.674
好雨	-11.674
姦人	-11.6742
虐害	-11.6743
為水所	-11.6743
告語	-11.6744
士卒	-11.6751
孝養	-11.6755
乎抑	-11.6756
友邦	-11.6757
集解	-11.6761
里數	-11.6761
又東北至	-11.6762
於人者	-11.6763
蕭何	-11.6763
太甲元年	-11.6764
公曰嗚呼君	-11.6765
於南方	-11.6765
泉源	-11.6766
齊乗	-11.6768
隋改	-11.6772
定法	-11.6774
聞于上帝	-11.6774
非有他	-11.6775
其孰能	-11.6776
謀猷	-11.6779
孚信	-11.678
退老	-11.6781
弗敢	-11.6784
違背	-11.6785
放太甲	-11.6787
尤重	-11.6788
應氏曰	-11.679
為臣僕	-11.6791
雲夢澤	-11.6796
失其本	-11.6797
鄭本	-11.6797
作册	-11.6797
繼嗣	-11.6799
嶧	-11.6801
懋敬	-11.6803
阜城	-11.6803
不嫌	-11.6806
大僕	-11.6809
鄭𤣥以為	-11.6809
暇逸	-11.681
後世子孫	-11.681
己私	-11.6811
太保召公	-11.6812
河而南	-11.6816
哀敬	-11.6821
嵗差	-11.6825
唐置	-11.6834
侯甸男	-11.6836
皇極經世	-11.6837
𢎞大	-11.6841
天津	-11.6843
好問	-11.6847
卑服	-11.6849
往征	-11.6849
心有所	-11.6852
建都	-11.6853
授禹	-11.686
二帝三王之	-11.6861
性情	-11.6862
西域傳	-11.6869
固可以	-11.6869
各得其所	-11.687
違怨	-11.6871
皆再拜稽首	-11.6876
導渭自鳥鼠同穴	-11.688
遷就	-11.6881
蘇傳	-11.6882
本根	-11.6883
九里	-11.6884
濮州	-11.6885
新都	-11.6886
瀘	-11.6892
不敢荒寧	-11.6892
麗江	-11.6893
洛書之數	-11.6895
輝	-11.6896
伎	-11.6896
武成篇	-11.6897
函	-11.6898
姑臧	-11.6899
諷	-11.6899
諾	-11.69
懇切	-11.69
喚	-11.69
聱牙	-11.69
百姓有過在予一人	-11.6901
􁅾	-11.6901
惟日不足	-11.6902
祔	-11.6902
足以致	-11.6902
史敘其事作	-11.6902
𧰼	-11.6903
東為北江	-11.6903
丁寜	-11.6903
十一度	-11.6903
僝	-11.6903
欽若昊天	-11.6903
邀	-11.6904
專主	-11.6905
皓	-11.6905
武陵	-11.6905
土爰稼穡	-11.6905
導菏澤被孟豬	-11.6905
㐫	-11.6905
遙	-11.6906
濬畎澮	-11.6906
貿	-11.6906
鄭司農	-11.6907
應天順人	-11.6907
桐栢	-11.6907
周公作無逸	-11.6907
我之弗辟	-11.6907
萬夫之長	-11.6907
唐陸氏曰	-11.6908
莅	-11.6908
躍	-11.6909
邗	-11.6909
王安石	-11.691
咏	-11.691
灉沮㑹同	-11.691
受命文考	-11.691
逭	-11.691
條支	-11.6911
綦	-11.6911
鶴	-11.6911
須暇	-11.6912
烝烝	-11.6912
失墜	-11.6912
襄陽府	-11.6912
姜姓	-11.6912
二王之後	-11.6913
鴆	-11.6913
魚鹽	-11.6913
黄度曰	-11.6914
顛越	-11.6914
杌	-11.6915
愈甚	-11.6915
無我怨	-11.6916
荊	-11.6916
微盧	-11.692
三十八	-11.692
敿	-11.6921
漢中府	-11.6921
僕御	-11.6921
三才	-11.6921
秒	-11.6922
淞江	-11.6922
北條荆山	-11.6923
得其宜	-11.6923
箭	-11.6924
舂	-11.6924
崇飲	-11.6924
淮安府	-11.6924
降𠂻	-11.6927
元鼎	-11.6929
淪喪	-11.6929
附録	-11.6929
簡孚	-11.6931
南條荆山	-11.6933
朔虚	-11.6934
一月壬辰	-11.6937
温恭	-11.6939
赤色	-11.694
采邑	-11.6941
得其中	-11.6941
金履祥曰	-11.6942
本亦作	-11.6943
問答	-11.6948
躔	-11.695
帝都之道	-11.6951
播告	-11.6952
不可不慎	-11.6952
沂山	-11.6953
殷殷	-11.6954
所聚	-11.6956
灼龜	-11.6956
重光	-11.6957
史氏曰	-11.6958
自以為功	-11.6958
伊尹之訓	-11.6959
善則稱君	-11.696
永樂大典	-11.6964
涇渭	-11.6964
庶慎	-11.6967
在府東	-11.697
體要	-11.698
數百年	-11.6981
𦙍子	-11.6986
居其位	-11.6987
紀載	-11.6989
地脉	-11.6992
做得	-11.6993
進爵	-11.6996
十六里	-11.7001
今陜西	-11.7004
歴世	-11.7008
五材	-11.701
北向	-11.701
其所好	-11.701
有言曰	-11.7011
感發	-11.7011
報祭	-11.7012
張霸	-11.7013
好異	-11.7015
最重	-11.7022
輿地記	-11.7029
厥邑	-11.7031
蒙山在	-11.7036
可攷	-11.704
當如是	-11.7041
保治	-11.7042
我家	-11.7042
矜憐	-11.7043
嵗星	-11.7048
有之矣	-11.705
自若也	-11.705
咎惡	-11.7052
亳殷	-11.706
沮縣	-11.706
用明德	-11.7064
良士	-11.7072
淫亂	-11.7076
三百六十五	-11.7078
賢聖	-11.708
入沔	-11.708
未必能	-11.7083
尙	-11.7084
五寸	-11.7088
青城	-11.709
汜	-11.7093
坦	-11.7105
仁義禮智	-11.7109
圖謀	-11.7113
斛	-11.7114
汳水	-11.7119
單環	-11.7122
恭行天之罰	-11.7122
一朝一夕	-11.7122
鳯翔	-11.7123
左右有民	-11.7124
惟精惟一	-11.7124
庶邦冢君	-11.7124
嵐	-11.7124
牾	-11.7125
叨	-11.7125
𤣥牡	-11.7125
肇稱殷禮	-11.7126
詣	-11.7126
變動	-11.7126
㨗	-11.7127
三分天下有其二	-11.7127
版築	-11.7127
大名府	-11.7128
朱子語類問	-11.7128
罔敢知	-11.7128
詛盟	-11.7128
滕	-11.7129
騷	-11.7129
鈎盤	-11.7129
密邇	-11.7129
刑故無小	-11.7129
奮武衛	-11.7129
與天下共	-11.7129
庶尹允諧	-11.713
設官分職	-11.713
濰淄其道	-11.713
搖	-11.713
愛戴	-11.713
太簇	-11.713
庖	-11.713
賁飾	-11.7131
犂	-11.7131
多材多藝	-11.7131
笥	-11.7131
地祇	-11.7132
庚午	-11.7133
琳	-11.7133
髮	-11.7133
逵	-11.7133
縫	-11.7133
土地所生	-11.7134
利害之實	-11.7134
淮水出	-11.7134
乃命以位	-11.7136
作大邑	-11.7136
保䕶	-11.7137
導洛自熊耳	-11.7137
遘	-11.7138
縷	-11.7138
古人有言曰	-11.7139
龎	-11.7139
墠	-11.714
卿士邦君	-11.7141
鄭曉曰	-11.7141
臣庶	-11.7142
瀟	-11.7142
此可見	-11.7145
謹慎	-11.7145
簡潔	-11.7146
羑里	-11.7146
箕子比干	-11.7148
分為九道	-11.7149
百三十	-11.715
唐孔氏曰地理志云	-11.7151
群	-11.7151
資質	-11.7153
恒寒	-11.7154
楚語云	-11.7155
聽獄	-11.7155
洞庭湖	-11.7158
漕渠	-11.7159
月十六日	-11.7159
誕保	-11.716
由此觀之	-11.716
才智	-11.7163
壁藏	-11.7165
因其所	-11.7166
祖謙	-11.7167
隔絶	-11.7167
吾之所	-11.7172
五十載	-11.7173
定四時	-11.7173
三旬	-11.7176
定鼎	-11.718
治洛之事	-11.7181
禄位	-11.7181
縣南五十里	-11.7183
而問之	-11.7184
申侯	-11.7184
二百三十五	-11.7186
臨戰	-11.7186
國祚	-11.7187
伐崇	-11.7188
朋比	-11.7191
淺近	-11.7197
桀不能	-11.7205
官渡	-11.721
成王之疑	-11.7213
疾痛	-11.7215
濮陽	-11.7224
旻	-11.7224
魯語	-11.7224
乗氏	-11.7227
卜洛	-11.7228
陽縣西	-11.7236
至于帝乙	-11.7237
壽考	-11.7239
戒謹	-11.7246
他求	-11.7247
迷錯	-11.7247
絳水	-11.725
縣故城東	-11.725
友愛	-11.7252
治獄	-11.7253
汝康叔	-11.7257
不能以自	-11.7267
風雷	-11.7267
至敷淺原	-11.7269
南岸	-11.727
今山東	-11.7281
陽故城	-11.7282
假借	-11.7283
東北逕	-11.7284
字讀	-11.7284
河南郡	-11.7287
進於善	-11.7292
天子六軍	-11.7298
三壇	-11.73
開封	-11.73
百工之事	-11.7313
嶺南	-11.7317
邳州	-11.7324
歸宿	-11.7332
安國傳	-11.7333
寸六分	-11.7341
三百六十五度四分度之一	-11.7344
朝貢	-11.7346
臨川吳氏曰	-11.7348
宕	-11.7348
運轉	-11.7349
嗟乎	-11.7349
其于官也為	-11.7349
寺	-11.735
北過降水	-11.735
慎乃在位	-11.735
戊辰王在新邑	-11.7351
惟一月壬辰旁死魄	-11.7351
耗	-11.7352
軰	-11.7352
世輕世重	-11.7353
寤	-11.7353
㤀	-11.7353
外薄四海咸建五長	-11.7354
窟	-11.7354
逖	-11.7354
二説皆	-11.7355
允釐百工	-11.7355
滎波既豬	-11.7355
干楯	-11.7355
殘賊	-11.7356
常伯常任準人	-11.7356
浩浩	-11.7357
外有州牧侯伯	-11.7357
槎	-11.7357
平陽府	-11.7358
盗賊	-11.7358
奎	-11.7358
剽	-11.7359
幄	-11.7359
灃水攸同	-11.7359
貊	-11.736
釀	-11.736
東為中江入于海	-11.7361
定王五年	-11.7361
五十九篇	-11.7361
早夜	-11.7361
丁卯	-11.7361
我何敢不	-11.7362
隋開皇	-11.7362
虞夏商周	-11.7362
江沱潛漢	-11.7362
降丘宅土	-11.7362
裹	-11.7362
泊	-11.7363
仁山金氏曰	-11.7363
殛死	-11.7364
伊闕	-11.7364
沃壤	-11.7364
膂	-11.7365
竹箭	-11.7365
毳冕	-11.7365
蒻	-11.7365
漆林	-11.7366
包藏	-11.7366
琮	-11.7366
心腹	-11.7366
東為北江入于海	-11.7367
庻幾	-11.7367
甲乙	-11.7367
壇墠	-11.7367
恒燠	-11.7367
民非后	-11.7368
簧	-11.737
姬姓	-11.737
踰越	-11.7371
盤庚三篇	-11.7376
二千五百里	-11.7376
差等	-11.7377
各以類	-11.7377
直隷	-11.7379
臯陶之謨	-11.7381
營成周	-11.7382
太甲三篇	-11.7382
舉措	-11.7384
自湯至	-11.7386
兖州府	-11.7386
遼西	-11.7387
厭斁	-11.7387
太公召公	-11.7388
至于荆山	-11.7397
十有七	-11.7399
敷錫	-11.74
尺五寸	-11.7402
廢弛	-11.7403
權勢	-11.7407
首至地	-11.7407
吳越	-11.7408
禍患	-11.7408
賢不肖	-11.741
風化	-11.7416
進諫	-11.7428
分曉	-11.7442
今河南府	-11.7453
敬謹	-11.7454
陪尾山	-11.7455
地祗	-11.7456
在今陜西	-11.7459
昔人	-11.7463
萬善	-11.7463
承天意	-11.7471
諸家皆	-11.7473
得其實	-11.7479
班氏曰	-11.7481
杜註	-11.7483
秦置	-11.7492
勑正	-11.7493
西接	-11.7496
頑讒	-11.7496
惟在于	-11.7504
和仲	-11.7507
敷土	-11.7508
凶害	-11.7511
鄭王皆	-11.7517
窮石	-11.7518
三十七	-11.7521
君臣之義	-11.7522
有所據	-11.7522
百七十里	-11.7525
誥毖	-11.7529
彭蠡澤	-11.7535
自南而	-11.7535
答拜	-11.7542
矣雖然	-11.7547
某嘗	-11.7561
不紊	-11.7565
疇咨	-11.7568
庇	-11.7573
禹貢九州	-11.7573
皇皇	-11.7574
洪大誥治	-11.7578
有邦有土	-11.7578
鄘	-11.7578
頟頟	-11.758
邈	-11.7581
鳳皇	-11.7582
三百四十八	-11.7582
濟河惟兖州	-11.7582
熹	-11.7582
駟	-11.7583
歉	-11.7583
嗚	-11.7583
巍巍	-11.7584
庶績咸熈	-11.7584
燔	-11.7585
燮理隂陽	-11.7586
成允成功	-11.7586
禆	-11.7586
榮辱	-11.7586
伊尹相湯伐桀	-11.7587
東過洛汭	-11.7587
州十有二師	-11.7587
箘簵楛	-11.7588
苐	-11.7588
秣	-11.7588
金銀銅	-11.7589
寂	-11.7589
籲俊	-11.7589
你	-11.7589
寰	-11.7589
海岱惟青州	-11.759
者未之有也	-11.759
囬	-11.759
囧	-11.759
新陟王	-11.759
厥賦貞	-11.7591
仁義禮智信	-11.7591
四分之一	-11.7591
羨	-11.7591
浮于濟漯達于河	-11.7591
亾	-11.7591
盈縮	-11.7591
塔	-11.7592
淮海惟揚州	-11.7592
亨	-11.7592
夏氏僎曰	-11.7593
張揖	-11.7594
璩	-11.7594
與天為一	-11.7595
開封府	-11.7595
匹休	-11.7595
三有俊	-11.7595
研	-11.7595
盾	-11.7596
新安陳	-11.7596
無時而不	-11.7596
蕃屏	-11.7597
鄒平	-11.7598
百官有司	-11.7598
卉服	-11.7598
其良心	-11.7598
十萬曰億	-11.7598
五百里甸服	-11.7598
渾儀	-11.7599
底意思	-11.7599
踐形	-11.7599
辛巳	-11.7601
竭力	-11.7601
堆	-11.7601
朝至于洛	-11.7602
膠鬲	-11.7602
涼州	-11.7604
張掖郡	-11.7605
堯典舜典	-11.7605
困苦	-11.7606
違戾	-11.7606
乘舟	-11.7606
萬九千	-11.7607
畤	-11.7608
封殖	-11.7609
入大江	-11.7609
不率教	-11.761
視聼	-11.7611
祥符	-11.7612
奏鼓	-11.7613
昭慶	-11.7617
黒色	-11.7617
互註	-11.7618
親睦	-11.7619
鄭箋	-11.7619
九鼎	-11.7619
。』	-11.7621
始生魄	-11.7625
戎車	-11.7628
宿衛	-11.7632
穀熟	-11.7632
千五百里	-11.7633
臯陶之刑	-11.7633
容貌	-11.7636
勿庸	-11.7637
百歩	-11.7638
歸禾	-11.7638
亦猶是也	-11.764
數十里	-11.7641
墜命	-11.7644
崇伯	-11.7645
張秋	-11.7652
東方諸侯	-11.7655
鄒氏	-11.7659
百辟	-11.7662
縣下云	-11.7667
冬月	-11.7669
沱潜	-11.7669
戎兵	-11.7672
渭水出	-11.7673
二臣名	-11.7678
尊嚴	-11.768
四百九十	-11.7683
皇后	-11.7686
永寧	-11.7687
周徧	-11.7693
祗承	-11.7694
濟陰	-11.7695
之所以興	-11.7706
夷玉	-11.7708
確然	-11.7708
燕禮	-11.771
泰和	-11.7716
墨刑	-11.7718
旅平	-11.7719
取舍	-11.7721
茂州	-11.773
調和	-11.7731
眷佑	-11.7736
求助	-11.774
封建諸侯	-11.7751
不能勝	-11.7753
申前	-11.7757
滱	-11.7763
放桀	-11.777
導洛	-11.7774
五榖	-11.7776
沂州	-11.7779
爵賞	-11.7785
萊蕪縣	-11.7787
王與卿士師尹	-11.7809
稚	-11.7812
譴	-11.7812
司政典獄	-11.7814
梮	-11.7817
厮	-11.7818
元祀十有二月	-11.7818
殂	-11.7818
壓	-11.7818
協時月正日	-11.7819
羑里之囚	-11.782
秬黍	-11.7821
悚	-11.7821
逓	-11.7822
適于山	-11.7822
恰好	-11.7822
汝鳩汝方	-11.7823
蒼頡	-11.7823
檢身若不及	-11.7823
忱恂	-11.7823
自貽哲命	-11.7825
郿	-11.7825
大戴禮	-11.7825
無疆之休	-11.7825
不敢侮鰥寡	-11.7825
撫摩	-11.7826
外庶子	-11.7826
葛伯仇餉	-11.7826
呂祖謙曰	-11.7826
傾覆	-11.7827
鷄	-11.7827
齊魯之間	-11.7828
典獄之官	-11.7828
陟帝位	-11.7828
亂臣十人	-11.7828
揖遜	-11.7829
大告武成	-11.7829
脗合	-11.783
懔	-11.783
闞駰	-11.783
孫氏繼有曰	-11.783
易繫辭云	-11.783
渾天儀	-11.7831
廢時亂日	-11.7831
鳬	-11.7831
纎悉	-11.7831
河之經流	-11.7831
逾于沔	-11.7831
厥土惟塗泥	-11.7831
金吉甫	-11.7832
白虎通	-11.7832
琨	-11.7833
粲然	-11.7833
驕侈	-11.7833
禳	-11.7833
九夷八蠻	-11.7834
索隱	-11.7835
桑榖	-11.7835
黽	-11.7835
有自然之	-11.7835
仡仡	-11.7837
后王君公	-11.7837
樂浪	-11.7837
品節	-11.7839
鍪	-11.784
咎單	-11.784
拓	-11.784
柚	-11.784
觜	-11.7841
喪畢	-11.7842
篤敬	-11.7842
坦然	-11.7844
出入起居	-11.7844
邾	-11.7845
魯頌	-11.7845
貝玉	-11.7847
武王伐殷	-11.785
毖祀	-11.785
勝負	-11.7851
鄭註	-11.7852
前既言	-11.7852
遲任	-11.7853
不畏死	-11.7853
寵利	-11.7854
射御	-11.7855
呉氏	-11.7855
九卿	-11.7861
灃涇	-11.7862
灤	-11.7863
忠厚之至	-11.7865
詳味	-11.7866
子釗	-11.7866
此道也	-11.7867
達于海	-11.7869
伐鼓	-11.7869
馬頰河	-11.7869
允塞	-11.7871
先輅	-11.7871
須待	-11.7871
字之誤	-11.7872
眾	-11.7873
微子啓	-11.7874
玉衡	-11.7877
獲罪	-11.788
抑畏	-11.7882
地脈	-11.7882
末流	-11.7888
傳寫	-11.7892
入海之道	-11.7892
風俗通	-11.7896
賓階	-11.7898
因禹之	-11.7902
得其性	-11.7909
臣之助	-11.7911
耿地	-11.7923
雒書	-11.7928
西亳	-11.7928
楚辭	-11.7936
九徳之人	-11.7945
十二師	-11.7946
天降災	-11.7951
貨財	-11.7953
能如此則	-11.7956
孔鄭	-11.7957
髙宗之訓	-11.7963
寛宥	-11.7975
必求其	-11.798
可謂知	-11.7982
讒說	-11.7983
玉磬	-11.7985
爲天所	-11.7989
又東合	-11.7992
有明文	-11.8016
都昌	-11.8017
監殷民	-11.8023
諸侯之師	-11.8026
垣縣	-11.8033
左傳昭	-11.8033
水源出	-11.8051
兢	-11.8051
䜟	-11.8054
梏	-11.8057
報功	-11.8058
鬲	-11.8059
終始惟一時乃日新	-11.8059
附近	-11.8059
軸	-11.806
傚	-11.806
賢聖之君六七作	-11.8061
捷	-11.8062
鉤	-11.8064
眼	-11.8064
隈	-11.8064
天地之化育	-11.8065
旁求俊彦	-11.8065
立政立事	-11.8066
平章百姓	-11.8066
戯	-11.8066
蹙	-11.8067
坐以待旦	-11.8067
層	-11.8067
惟民之承	-11.8067
油	-11.8067
鉅橋	-11.8068
孕	-11.8069
無有作好遵王之道無有作惡遵王之路	-11.807
脈絡	-11.807
軒轅	-11.807
而猶不	-11.807
八政五紀	-11.807
南門之外	-11.807
鉛	-11.807
輴	-11.8071
納于百揆	-11.8071
綜	-11.8071
崑崙析支渠搜	-11.8071
度量衡	-11.8071
一話一言	-11.8072
籌	-11.8072
在武丁時則有若甘盤	-11.8073
隧	-11.8073
摰	-11.8073
口舌	-11.8073
筍席	-11.8074
明德慎罰	-11.8074
不一而足	-11.8074
昇	-11.8075
考妣	-11.8075
匡救	-11.8075
上邽	-11.8075
評	-11.8075
革輅	-11.8076
黏	-11.8076
王拜手稽首曰	-11.8076
伊尹告太甲	-11.8076
玩味	-11.8076
惟明后	-11.8076
部伍	-11.8077
狗	-11.8077
辛酉	-11.8077
赫然	-11.8078
相息亮反	-11.8078
巧言令色	-11.8079
臂	-11.8079
枝江	-11.8079
絲枲	-11.808
大扺	-11.8081
慈祥	-11.8081
猗	-11.8082
虞芮	-11.8082
巨浸	-11.8083
穎逹	-11.8085
荒怠	-11.8086
俊德	-11.8087
藥石	-11.8087
父母兄弟	-11.8087
起羞	-11.8089
孟子之言	-11.8092
動靜	-11.8093
誅管蔡	-11.8095
三百六十日	-11.8096
恒衞	-11.8096
臣僕	-11.8098
四十九	-11.8099
八百諸侯	-11.8099
崑山	-11.8099
賢智	-11.8103
微賤	-11.8104
光顯	-11.8104
四方之門	-11.8105
流毒	-11.811
天之明命	-11.8112
本或作	-11.8112
之故都	-11.8114
與江合	-11.8114
舊染	-11.8116
九徳之行	-11.8116
八百里	-11.8118
耿光	-11.8119
暴徳	-11.8119
豐凶	-11.8122
尊崇	-11.8122
五輅	-11.8126
番陽	-11.8128
作民主	-11.8131
輔導	-11.8131
疏鑿	-11.8136
汶水出	-11.8137
未暇	-11.8138
不敢替	-11.8141
焚書	-11.8146
葛氏	-11.815
繼續	-11.8151
財貨	-11.8152
君臣相與	-11.8159
我先后	-11.8162
終南山	-11.817
山海經云	-11.8171
北斗	-11.8176
來儀	-11.818
方是時	-11.8183
爵位	-11.8185
不可救	-11.8189
不遑	-11.8197
在是矣	-11.8225
下逮	-11.8244
安慰	-11.8247
與之共	-11.8258
而天下治	-11.826
貞元	-11.8269
考驗	-11.8286
私邑	-11.8296
砥柱	-11.8304
摶	-11.8305
功烈	-11.8305
帝王世紀	-11.8307
彰厥有常吉哉	-11.8312
諶	-11.8312
山林川澤	-11.8313
戕賊	-11.8313
惟皇上帝降衷于下民	-11.8313
欽哉欽哉惟刑之恤哉	-11.8315
列爵惟五分土惟三	-11.8316
牀	-11.8316
怍	-11.8316
一曰水二曰火三曰木四曰金五曰土	-11.8317
㢲	-11.8317
勘	-11.8317
治定功成	-11.8318
自西而東	-11.8318
舊勞于外	-11.8318
吟	-11.8318
壟	-11.8319
虺	-11.8319
草竊姦宄	-11.8319
禎	-11.8319
分北三苗	-11.8319
顙	-11.832
九山刋旅	-11.832
錫汝保極	-11.8321
鶉尾	-11.8321
妥	-11.8321
乳	-11.8321
洵	-11.8321
摠	-11.8321
山南曰陽	-11.8321
日有食之	-11.8321
纒	-11.8321
檿	-11.8322
代武王之死	-11.8322
静言庸違	-11.8322
虜	-11.8322
鶉首	-11.8322
羣臣進戒	-11.8323
沃饒	-11.8323
蠻貊	-11.8323
海岱及淮惟徐州	-11.8324
斨	-11.8324
寬	-11.8324
五典克從	-11.8324
一月戊午	-11.8324
降時喪	-11.8324
戒之用休	-11.8324
畎畝	-11.8325
鷩冕	-11.8325
趙岐	-11.8325
怙恃	-11.8326
長上聲	-11.8326
徽柔懿恭	-11.8326
包括	-11.8327
董正治官	-11.8327
戺	-11.8327
何也盖	-11.8327
大陸澤	-11.8327
寒燠	-11.8328
季札	-11.8329
世儒	-11.8329
格其非心	-11.8329
蒗蕩渠	-11.8329
褒斜	-11.8329
洛書本文	-11.8329
夫音扶	-11.8329
祫	-11.833
禹敷土	-11.8331
稚子	-11.8331
決九川	-11.8334
鄕	-11.8334
啓廸	-11.8334
縱逸	-11.8335
契丹	-11.8335
𤣥冕	-11.8335
旄牛	-11.8336
滎播	-11.8336
晉文公	-11.8336
鎧	-11.8336
武王克殷	-11.8337
衡山之陽	-11.8338
張子曰	-11.834
致天之罰	-11.8341
臆説	-11.8341
鬲縣	-11.8342
㑹通河	-11.8343
御事之臣	-11.8344
東武陽	-11.8345
疾敬徳	-11.8346
年九十	-11.8346
萬機	-11.8346
踰月	-11.835
君薨	-11.8351
秉持	-11.8351
訪問	-11.8353
潤澤	-11.8355
姦邪	-11.8355
管叔蔡叔	-11.8356
兩岸	-11.8356
越逐	-11.8358
能官人	-11.836
以是觀之	-11.8361
大概	-11.8363
葛越	-11.8366
乗間	-11.837
假令	-11.8374
初未嘗	-11.8379
之遺意	-11.8381
尹伯	-11.8384
不可得而知	-11.8387
於此可見	-11.8395
五嶽	-11.8396
實沈	-11.8396
共工氏	-11.8397
失其性	-11.84
此數語	-11.8402
管蔡流言	-11.8411
祀于新邑	-11.8426
民之中	-11.8429
道而行	-11.8429
寅敬	-11.8432
篤信	-11.8432
一毫私意	-11.844
三宗文王	-11.8441
絳州	-11.8442
毗陵	-11.8445
分度之	-11.8455
形體	-11.8468
祖伊恐	-11.8495
綱目	-11.8505
覲禮	-11.8517
十七篇	-11.8522
累世	-11.8529
悦服	-11.853
北江中江	-11.8534
東至海	-11.8542
罪狀	-11.8543
心之憂	-11.8544
歌舞	-11.8547
恐未必	-11.8548
湯之慙	-11.8552
天降喪	-11.8555
宋林之竒撰	-11.8563
䋲	-11.8564
芥	-11.8565
不窋	-11.8566
三百六十五日四分日之一	-11.8566
譸張為幻	-11.8566
受天明命	-11.8566
毨	-11.8566
弓榦	-11.8566
為人上者	-11.8566
秦皇	-11.8567
王未克變	-11.8569
狹隘	-11.857
東昌府	-11.857
允執其中	-11.857
灋	-11.8571
習與性成	-11.8571
次九曰嚮用五福威用六極	-11.8572
綏爰有衆	-11.8572
胃	-11.8573
庶明勵翼	-11.8573
瑣	-11.8573
協于克一	-11.8573
彘	-11.8574
文子文孫	-11.8574
倖	-11.8574
畏慕	-11.8575
商先哲王	-11.8575
匝	-11.8575
炫	-11.8575
毫髮	-11.8575
此數句	-11.8575
顛隮	-11.8575
燦然	-11.8575
薛氏季宣曰	-11.8576
祗遹	-11.8576
鄙夭	-11.8576
方岳之下	-11.8577
忻	-11.8577
無偏無陂遵王之義	-11.8578
人心惟危	-11.8578
叩	-11.8578
剛而塞	-11.8578
巂	-11.8579
寐	-11.8579
爾其戒哉	-11.8579
穆王命君牙	-11.8579
蒼梧之野	-11.858
鬛	-11.858
昬迷	-11.858
泗水出	-11.858
陻塞	-11.858
枿	-11.8581
五宅三居	-11.8581
奮庸	-11.8581
樞機	-11.8581
紏	-11.8581
罵	-11.8581
百篇之序	-11.8582
循環	-11.8582
無偏無陂	-11.8583
壅蔽	-11.8583
規畫	-11.8583
列爵惟五	-11.8583
作其即位	-11.8583
反徐扶	-11.8584
寅賔	-11.8585
囚奴	-11.8585
飲食醉飽	-11.8585
番番	-11.8586
淫佚	-11.8586
澱	-11.8586
頮	-11.8587
蔡蒙旅平	-11.8587
常人之情	-11.8588
禦侮	-11.8588
東北流逕	-11.8589
障塞	-11.8589
冬至日在斗	-11.859
推歩	-11.8591
丹砂	-11.8591
乾隆	-11.8591
璜	-11.8591
包裹	-11.8592
謙抑	-11.8592
河内郡	-11.8594
萬二千	-11.8601
彰顯	-11.8603
朱蔡	-11.8604
與天地同	-11.8604
俾乂	-11.8606
曉然知	-11.8609
長㓜	-11.8609
金先生	-11.861
王答拜	-11.8611
江水所出	-11.8612
狹小	-11.8616
奮起	-11.8616
畏忌	-11.8616
女色	-11.8621
振旅	-11.8624
星昴	-11.8624
朕虞	-11.8632
𢎞化	-11.8634
嚮威	-11.8637
配享	-11.8639
二十七年	-11.8641
可不敬	-11.8643
諸家多	-11.8643
人情之所	-11.8644
附著	-11.8644
永康	-11.8652
天球	-11.8656
講求	-11.866
所自來	-11.866
周公曰嗚呼	-11.8662
徧告	-11.8662
父子君臣	-11.8664
順天道	-11.8667
華隂縣	-11.8673
滌源	-11.8674
勿聽	-11.8678
世世享	-11.8682
東阿	-11.8683
稱頌	-11.8686
慰安	-11.8688
漆水出	-11.869
邠州	-11.8705
何所據	-11.8705
内三百里	-11.8708
東南流逕	-11.8716
前人光	-11.8723
黄帝堯舜	-11.8733
所恃以	-11.8739
能祈天永命	-11.8751
順乎天	-11.8752
天左旋	-11.8772
千百	-11.8782
匠	-11.879
忝	-11.8805
水火木金	-11.8819
雹	-11.8822
史官記	-11.8823
膳	-11.8829
眚災肆赦	-11.8829
上帝時歆	-11.883
以臣伐君	-11.883
瞍	-11.883
協時月正日同律度量衡	-11.883
菟	-11.8831
案史記	-11.8831
殞	-11.8831
垣曲縣	-11.8831
慧	-11.8832
亂臣賊子	-11.8833
豈有他哉	-11.8833
盜賊	-11.8833
升自陑	-11.8833
姚方興	-11.8834
羣后四朝	-11.8834
天其永我命于	-11.8834
僧	-11.8834
脚	-11.8834
六年五服一朝	-11.8835
迺	-11.8835
殳斨伯與	-11.8835
蓼	-11.8835
三分益一	-11.8835
彝倫攸敘	-11.8835
鳥獸蹌蹌	-11.8835
可不戒哉	-11.8836
惟皇上帝	-11.8836
有言逆于汝心	-11.8836
輕重諸罰有權	-11.8836
東郊不開	-11.8837
舜命九官	-11.8837
蕪	-11.8837
阨	-11.8838
怵惕	-11.8838
司馬彪	-11.8838
彌縫	-11.8839
級	-11.8839
林之竒曰	-11.8839
吳才老	-11.8839
李巡曰	-11.8839
煙	-11.8839
荆及衡陽惟荆州	-11.884
皇天上帝	-11.884
犧牲粢盛	-11.884
脂	-11.884
享國百年	-11.884
饕餮	-11.8841
不罹于咎	-11.8841
拜手稽首誨言	-11.8841
禋于六宗	-11.8841
棫	-11.8842
表厥宅里	-11.8842
葵	-11.8842
拒諫	-11.8842
心腹腎腸	-11.8842
穆王命伯冏	-11.8843
路寝	-11.8843
衍忒	-11.8843
窮河源	-11.8843
楣	-11.8843
躔度	-11.8843
大河故瀆	-11.8844
河亶甲居相	-11.8844
隂騭	-11.8844
芽	-11.8844
王氏充耘曰	-11.8844
項羽	-11.8844
篾席	-11.8844
僑	-11.8844
喉	-11.8844
淮沂其乂	-11.8845
磯	-11.8845
大野既豬	-11.8845
諞	-11.8845
越若來	-11.8845
正月上日	-11.8846
桑穀	-11.8846
濠	-11.8846
隊	-11.8847
論語孝經	-11.8847
鄭樵	-11.8848
歸于宗周	-11.8848
永保天命	-11.8848
瀾滄	-11.8848
徃欽哉	-11.8849
惟和惟一	-11.8849
江南之夢	-11.8849
太平御覽	-11.885
勲勞	-11.885
津涯	-11.8852
交阯	-11.8852
三泉縣	-11.8852
睿作聖	-11.8852
睢水	-11.8852
伏生今文	-11.8852
紛更	-11.8852
華山之南	-11.8854
乂治也	-11.8855
桓毛	-11.8855
丸	-11.8856
戒飭	-11.8857
使人知	-11.8857
充塞	-11.8858
參錯	-11.8858
康寜	-11.8859
藍田	-11.886
即上文所謂	-11.8861
敷五典	-11.8862
愛惜	-11.8862
介圭	-11.8867
作史者	-11.887
降爾命	-11.8872
蘇氏之説	-11.8873
附麗	-11.8873
韻㑹	-11.8874
氣禀	-11.8876
愚嘗	-11.8876
次輅	-11.8877
律和聲	-11.8879
精㣲	-11.8882
編次	-11.8883
側微	-11.8884
遷都之事	-11.8888
天討有罪	-11.8891
鳥獸魚鼈	-11.8892
接續	-11.8892
受殷命	-11.8895
周禮職方	-11.8897
好逸豫	-11.8898
司徒之官	-11.891
屋壁	-11.8911
思其終	-11.8913
黨惡	-11.8916
胡陵	-11.8918
無憾	-11.892
今山西	-11.8926
東流經	-11.8928
簡擇	-11.893
豈肯	-11.8932
武功縣	-11.8934
忱誠	-11.894
巴蜀	-11.8946
連延	-11.8949
兵戎	-11.8949
盛衰	-11.8958
昭示	-11.8968
雷雨	-11.8968
遺棄	-11.9003
上帝之命	-11.9008
張掖河	-11.9015
築隄	-11.9026
入于泗	-11.9049
和諧	-11.9067
艾山	-11.9072
何也葢	-11.9086
箾	-11.9089
導淮自桐柏	-11.9089
右扶風	-11.909
又西南逕	-11.9093
棟	-11.9093
秬鬯二卣	-11.9096
陳師凱曰	-11.91
烹	-11.9101
嵎	-11.9102
率西方諸侯	-11.9103
觀政于商	-11.9103
曰貞曰悔	-11.9103
處仁遷義	-11.9103
綴輅	-11.9104
院	-11.9104
竅	-11.9104
惟天地萬物父母惟人萬物之靈	-11.9104
纓	-11.9104
尅	-11.9105
融堂書解卷	-11.9105
抱祭器	-11.9105
一極備凶一極無凶	-11.9105
愚夫愚婦	-11.9105
鼗鼓	-11.9106
幼冲	-11.9106
庶頑讒說	-11.9106
𢎞朕恭	-11.9106
慊	-11.9106
天視自我民視天聽自我民聽	-11.9106
事事物物	-11.9106
愷	-11.9106
善無常主	-11.9106
官不必備惟其人	-11.9106
恭天成命	-11.9106
洙	-11.9106
不少延	-11.9107
憲天聰明	-11.9107
浹	-11.9107
藳	-11.9107
驩	-11.9107
余嘗	-11.9108
保釐東郊	-11.9108
勦	-11.9108
俎	-11.9108
集註	-11.9108
致意焉	-11.9108
可識矣	-11.9108
㠀	-11.9108
儆戒無虞	-11.9108
荆河惟豫州	-11.9109
麾	-11.9109
蒼梧	-11.911
紩	-11.911
斆學半	-11.911
殷獻臣	-11.911
閠	-11.911
周公相成王	-11.911
杼	-11.911
虎賁三百人	-11.911
耜	-11.911
格君心之非	-11.9111
宥過無大	-11.9111
顒	-11.9111
黑黍	-11.9111
齊聖廣淵	-11.9111
不協于極	-11.9112
歸馬放牛	-11.9112
巷	-11.9112
愧恥	-11.9112
塵	-11.9112
奬	-11.9112
秦漢以來	-11.9113
四百里粟五百里米	-11.9113
雝	-11.9113
授宗人同	-11.9113
于征伐商	-11.9113
東匯澤為彭蠡	-11.9113
賔于四門	-11.9114
行之惟艱	-11.9114
酗于酒	-11.9114
藹	-11.9114
俯仰	-11.9114
苴	-11.9114
精粗	-11.9114
准	-11.9114
𤯝	-11.9114
禜	-11.9115
養民之政	-11.9115
聰眀	-11.9115
罔攸兼	-11.9115
犧牲	-11.9115
又其外方五百里曰	-11.9115
刄	-11.9115
允恭克讓	-11.9116
甲子昧爽	-11.9116
謀及卜筮	-11.9116
岷嶓既藝	-11.9116
召誥洛誥	-11.9116
贑	-11.9117
偃武修文	-11.9117
㬰	-11.9117
誘掖	-11.9117
東别為沱	-11.9118
郭景純	-11.9118
鄣	-11.9118
能自得師	-11.9118
世禄之家	-11.9118
發號施令	-11.9118
果毅	-11.9118
者鮮矣	-11.9119
自河徂亳	-11.9119
餘姚	-11.912
史叙其事作	-11.9121
汨陳	-11.9122
釣	-11.9123
禹别九州	-11.9124
梁闇	-11.9124
絫	-11.9124
商王士	-11.9125
郊圻	-11.9125
羣叔流言	-11.9125
酒醴	-11.9126
金三品	-11.9127
帝王世紀云	-11.9129
畢竟	-11.9129
藻火	-11.913
何哉盖	-11.9132
格至也	-11.9132
開闢	-11.9134
陛下	-11.9134
兩存之	-11.9136
林少穎云	-11.9137
來賀	-11.9138
黑色	-11.9143
泛指	-11.9144
有以致之	-11.9148
維新	-11.9149
戮力	-11.9152
表儀	-11.9161
不欲徙	-11.9161
車右	-11.9163
不敢慢	-11.9172
帥師	-11.9173
二十二日	-11.9181
經世書	-11.9197
増修	-11.9199
蘇𫝊	-11.9199
澗水出	-11.9205
正義曰釋詁云	-11.9208
百餘年	-11.9209
責任	-11.9215
在其西	-11.9227
暴德	-11.924
杜注	-11.9271
以通河	-11.9275
鄱	-11.9313
有得於	-11.9314
不得已而用	-11.9324
譸張	-11.9341
百一十二	-11.9356
旺	-11.9363
誰敢	-11.9367
祗見厥祖	-11.9368
陛	-11.9373
鋤	-11.9376
委靡	-11.9378
稀	-11.9378
冦賊	-11.9378
坐作進退	-11.9378
鯀陻洪水	-11.9379
念兹在兹	-11.938
出其不意	-11.938
披	-11.938
縱弛	-11.9381
典謨訓誥誓命	-11.9381
㷀獨	-11.9382
正心誠意	-11.9382
相協厥居	-11.9382
陌	-11.9383
天乃錫禹洪範九疇	-11.9383
三監及淮夷	-11.9383
無小無大	-11.9383
代殷後	-11.9383
四分日之一	-11.9384
無怠無荒	-11.9384
四方無虞	-11.9384
查	-11.9384
勗哉夫子	-11.9385
九川滌源	-11.9385
福善禍淫	-11.9385
越厥命以自覆	-11.9386
頽	-11.9386
當此之時	-11.9386
數紂之罪	-11.9386
檀	-11.9386
訓夏贖刑	-11.9386
内有百揆四岳	-11.9386
這般	-11.9386
軾	-11.9386
終南惇物	-11.9386
侯甸男采衛	-11.9387
大降爾四國民命	-11.9387
惟十有三祀王訪于箕子	-11.9387
無或敢伏小人之攸箴	-11.9387
遶	-11.9387
儘	-11.9387
公無困哉	-11.9388
蠱惑	-11.9389
有成績	-11.9389
又東為滄浪之水	-11.9389
殷始咎周	-11.9389
以旦代某之身	-11.9389
惟正之供	-11.9389
無偏無黨王道蕩蕩無黨無偏王道平平	-11.939
閬	-11.939
貍	-11.939
殊厥井疆	-11.939
綿亘	-11.9391
鴟鴞之詩	-11.9391
笴	-11.9391
牝牡	-11.9391
蒼龍	-11.9391
越及也	-11.9391
阮	-11.9392
燠寒	-11.9392
愉	-11.9392
碞	-11.9392
黜夏命	-11.9392
牷	-11.9393
翠	-11.9393
酆	-11.9393
其如台	-11.9393
渦	-11.9393
郵	-11.9393
羽毛齒革	-11.9394
須臾	-11.9394
訾	-11.9394
太行恒山	-11.9394
刻鏤	-11.9395
湎淫	-11.9395
沈湎于酒	-11.9395
平康正直	-11.9396
憑玉几	-11.9397
岱畎	-11.9397
十夫予翼	-11.9397
戣	-11.9397
璞	-11.9399
郫江	-11.9399
郭鄰	-11.9399
壷口	-11.94
脫誤	-11.9401
所受之命	-11.9402
辛苦	-11.9402
三十在位	-11.9402
小腆	-11.9405
慰勞	-11.9407
横尾	-11.9408
廬江郡	-11.9408
降婁	-11.9409
洎	-11.9409
迪屢	-11.9409
鹽澤	-11.9409
情偽	-11.941
朱鳥	-11.9411
精宻	-11.9411
王在新邑	-11.9412
雨𤾉	-11.9412
區别	-11.9413
萬㡬	-11.9413
采事也	-11.9413
至于衡山	-11.9413
天之休命	-11.9413
族姓	-11.9414
貫穿	-11.9416
𤣥纁	-11.9416
文獻通考	-11.9418
故略之	-11.9422
唐虞之世	-11.9424
戒勅	-11.9426
睢陵	-11.9427
有夏之君	-11.9428
史記漢書	-11.9428
其弼直	-11.9428
丘陵	-11.9429
誓師之辭	-11.9435
鄱陽湖	-11.9435
典寳	-11.9436
張衡	-11.9437
商邱	-11.9438
五行之氣	-11.9438
九州之賦	-11.9442
按水經注	-11.9443
易氏曰唐	-11.9443
變其文	-11.9444
胎簪山	-11.9456
蘭州	-11.9478
侍御	-11.9478
大野澤	-11.9484
滹沱河	-11.9494
盤庚遷都	-11.9505
枝江縣	-11.9528
靑州	-11.9532
司徒之職	-11.9535
貝錦	-11.9538
管蔡霍	-11.9539
開諭	-11.9583
食貨志	-11.9586
何暇	-11.9587
歸宗周	-11.9606
知所畏	-11.9607
而充之	-11.963
規摹	-11.9657
蟄	-11.9661
鬴	-11.9661
趨事赴功	-11.9661
引泰誓曰	-11.9662
線	-11.9662
橇	-11.9663
荒度土功	-11.9664
潼關	-11.9664
自作元命	-11.9665
簫韶九成	-11.9665
云者則以言夫	-11.9666
耘	-11.9666
不犯于有司	-11.9666
帝乃震怒	-11.9666
建寅之月	-11.9666
予欲聞六律五聲八音	-11.9666
四海困窮天禄永終	-11.9667
優㳺	-11.9667
凡民自得罪	-11.9667
覃	-11.9667
三綱五常	-11.9667
枯洚	-11.9667
自怨自艾	-11.9668
僰道	-11.9668
荼毒	-11.9668
格于上下	-11.9668
偪	-11.9668
庶土交正	-11.9669
栢	-11.9669
光天之下	-11.967
干譽	-11.967
浹洽	-11.967
天佑下民作之君作之師	-11.967
躭	-11.967
庸蜀羌髳微盧彭濮	-11.9671
至于再至于三	-11.9671
禰廟	-11.9672
豁	-11.9672
式化厥訓	-11.9672
惟戊午王次于河朔	-11.9672
淆	-11.9673
高山大川	-11.9673
繳	-11.9673
狄設黼扆綴衣	-11.9673
康濟小民	-11.9673
文王惟克厥宅心	-11.9673
劼	-11.9673
僴	-11.9673
時惟天命	-11.9674
垂拱而天下治	-11.9674
詹	-11.9674
蠧	-11.9674
鈍	-11.9674
相為表裏	-11.9674
刊	-11.9674
惟周公誕保文武受命惟七年	-11.9675
無為而治	-11.9675
予決九川距四海濬畎澮距川	-11.9675
人謀鬼謀	-11.9675
厥土青黎	-11.9675
正徳利用厚生	-11.9675
淄川	-11.9675
得專征伐	-11.9675
掌邦禁	-11.9675
約束	-11.9675
祓	-11.9675
蠻夷率服	-11.9675
惟時惟幾	-11.9675
釋器云	-11.9675
琬	-11.9676
行所無事	-11.9676
紛紜	-11.9676
俄	-11.9676
董之用威	-11.9676
其如我何	-11.9677
琰	-11.9677
有缺文	-11.9678
凟	-11.9678
被孟豬	-11.9678
厠	-11.9679
胸中	-11.9679
袁黄曰	-11.9679
㵎	-11.9679
碧	-11.9679
東滙澤為彭蠡	-11.9679
鉤盤	-11.968
粢盛	-11.968
格君心	-11.968
㳺	-11.968
濬哲文明温恭允塞	-11.968
敜	-11.968
松潘	-11.9681
月之行則有冬有夏月之從星則以風雨	-11.9681
圛	-11.9681
致其敬	-11.9682
涖	-11.9682
與孔不同	-11.9683
功虧一簣	-11.9684
蘷	-11.9684
測候	-11.9685
孔氏頴逹曰	-11.9685
攸好德	-11.9685
汝作士	-11.9686
草廬	-11.9687
不務咎	-11.9688
泥沙	-11.9688
壬申	-11.9689
電	-11.969
煬	-11.9691
慶雲	-11.9692
庸用也	-11.9692
為民父母	-11.9694
趨向	-11.9697
推測	-11.97
親戚	-11.9704
革夏命	-11.9706
羣聚	-11.9706
文十八年	-11.9708
哲智	-11.9712
萬殊	-11.9713
詢謀	-11.9715
弼予一人	-11.972
淄水出	-11.972
二百四十三	-11.9725
棐輔	-11.9738
警懼	-11.9768
殷墟	-11.9772
東北流入	-11.9776
徐戎淮夷	-11.9778
洮州	-11.9779
》	-11.9792
我髙后	-11.9798
殘害	-11.9804
東故曰東	-11.9809
遑	-11.9814
亂舊章	-11.9819
成王既伐	-11.9822
歸于亳	-11.9832
不敢有後	-11.9858
技藝	-11.9858
散漫	-11.9872
得罪於天	-11.9874
滿假	-11.9908
胸	-11.9941
與亂同事	-11.9954
㓂	-11.9955
滹	-11.9956
十三度十九分度之七	-11.9956
尚書正義卷第	-11.9956
三面距河	-11.9957
樊綽	-11.9957
十步	-11.9957
元惡大憝	-11.9958
配享在下	-11.9958
鍜	-11.9958
庶民惟星星有好風星有好雨	-11.9959
次于河朔	-11.9959
納于大麓	-11.9959
導河積石至于龍門	-11.9959
墊溺	-11.9959
𧖟	-11.9959
妖孽	-11.9959
亶聰明作元后元后作民父母	-11.996
秋大熟	-11.996
鍵	-11.996
構	-11.9961
凡厥庶民有猷有為有守汝則念之	-11.9961
謳	-11.9961
面稽天若	-11.9961
下中三錯	-11.9961
㤗	-11.9961
鍳	-11.9962
隻	-11.9962
汝則從龜從筮從卿士從庶民從	-11.9962
載采采	-11.9962
孔叢子	-11.9962
宋時瀾撰	-11.9962
掇	-11.9962
勖	-11.9962
繕	-11.9963
其于政也以	-11.9963
殘忍	-11.9963
號泣于旻天	-11.9963
憑藉	-11.9963
騶	-11.9963
諳	-11.9964
舄	-11.9964
兪	-11.9964
渠魁	-11.9964
無若爾考之違王命	-11.9964
汝弗能使有好于而家時人斯其辜	-11.9964
千里而遥	-11.9964
顧諟天之明命	-11.9964
酹	-11.9964
豢	-11.9964
既載壺口	-11.9964
不被其澤	-11.9965
琅槐	-11.9965
旅王若公	-11.9965
若保赤子	-11.9965
師尹惟日	-11.9965
不義惟王	-11.9966
祀于周廟	-11.9966
大勲未集	-11.9966
囿	-11.9966
惟時厥庶民于汝極錫汝保極	-11.9967
精意以享	-11.9967
端拱	-11.9967
伻嚮即有僚	-11.9967
朝夕納誨	-11.9967
償	-11.9967
鳴鳥	-11.9967
千夫長	-11.9968
金沙江	-11.9968
卑濕	-11.9968
唐明皇	-11.9968
遭洪水	-11.9968
夙夜祗懼	-11.9969
紅	-11.9969
宫商角徴羽	-11.9969
恍	-11.997
茹	-11.997
夙	-11.997
水北曰汭	-11.997
筋	-11.997
沉湎	-11.997
子孫黎民	-11.997
婉	-11.997
慎厥身修	-11.997
卿士惟月	-11.997
樂音洛	-11.997
卵	-11.9971
尊顯者	-11.9971
文王騂牛一武王騂牛一	-11.9971
隋煬帝	-11.9972
巒	-11.9972
臣無有作福作威玉食	-11.9972
畔官離次	-11.9972
聯	-11.9972
作民明辟	-11.9972
洛邑既成	-11.9973
南郡臨沮縣	-11.9973
襲慶府	-11.9973
崧	-11.9973
監于先王成憲其永無愆	-11.9973
棼棼	-11.9973
三年不齒	-11.9974
陸徳明	-11.9974
范氏曰	-11.9974
臨洮府	-11.9975
𢎞璧	-11.9975
龜背	-11.9975
悔悟	-11.9975
泯泯	-11.9975
千百年	-11.9976
聪明	-11.9976
國之大事	-11.9977
帷	-11.9977
刋除	-11.9977
浮于汶達于濟	-11.9977
燮理	-11.9977
瑯琊	-11.9977
狡	-11.9977
上曲陽	-11.9977
震怒	-11.9977
制官刑	-11.9978
王氏肯堂曰	-11.9978
作五虐之刑	-11.9978
彩色	-11.9978
初學記	-11.9978
誅四凶	-11.9978
奠殯	-11.9979
肯構	-11.9979
湔氐道	-11.998
工以納言	-11.998
朕其弟	-11.998
虎尾	-11.9982
肜祭	-11.9982
猾夏	-11.9983
歙	-11.9984
成都府	-11.9984
逾沔	-11.9985
耿邑	-11.9985
行下孟反	-11.9986
文王為西伯	-11.9986
酈元	-11.9987
戕害	-11.9992
援引	-11.9993
佩服	-11.9993
珠玉	-11.9994
賢人君子	-11.9996
服䖍	-11.9998
痛切	-11.9999
藪澤	-12.0001
惟汝賢	-12.0002
三有宅	-12.0007
而言則謂之	-12.0007
叔孫	-12.0007
太原府	-12.0008
帝曰吁	-12.0015
科斗書	-12.0023
驪城	-12.0037
克商二年	-12.0059
足以當之	-12.0063
慄慄危懼	-12.007
徳之用	-12.0076
王畿之外	-12.0084
等級	-12.0098
違王命	-12.01
三監叛	-12.0107
元年正月	-12.0124
所與共	-12.0133
泗水縣	-12.0153
各安其	-12.0159
日躔	-12.0234
狎侮君子	-12.024
文祖之廟	-12.0255
五經博士	-12.0255
覡	-12.0258
朱子語録云	-12.0259
鴟梟	-12.0261
刑人殺人	-12.0261
治厯明時	-12.0262
惟三祀十有二月朔	-12.0262
又北播為九河同為逆河入于海	-12.0262
霍太山	-12.0262
王介甫	-12.0263
詩言志歌永言聲依永律和聲	-12.0264
無餘藴矣	-12.0264
臣哉鄰哉	-12.0264
鋝	-12.0264
應門之内	-12.0265
民協于中	-12.0265
闋	-12.0265
這裏	-12.0265
光被四表	-12.0265
不于我政人得罪	-12.0265
不格姦	-12.0266
子丑寅	-12.0266
豐于昵	-12.0266
惟帝念功	-12.0266
謀及乃心謀及卿士謀及庶人謀及卜筮	-12.0266
㓜沖	-12.0267
誼	-12.0267
墨劓剕宫大辟	-12.0267
春夏秋冬	-12.0267
引夏書曰	-12.0267
水火金木	-12.0267
今爾奔走臣我監五祀	-12.0267
稜	-12.0268
彞倫攸叙	-12.0268
湍悍	-12.0268
黯	-12.0268
䘏	-12.0268
蔡仲黙	-12.0268
晦菴	-12.0269
郟鄏	-12.0269
柴桑	-12.0269
保厥位	-12.0269
大而化之	-12.0269
倨	-12.0269
三宅無義民	-12.0269
咎單作明居	-12.0269
蠲潔	-12.027
其爾萬方有罪在予一人	-12.027
我聞在昔	-12.027
王亦未敢誚公	-12.027
愜	-12.027
王氏十朋曰	-12.027
頰	-12.027
玉五重	-12.027
罪疑惟輕	-12.027
遷九鼎	-12.027
夙夜罔或不勤	-12.027
賞延于世	-12.027
增損	-12.0271
燾	-12.0271
復齋董氏曰	-12.0271
王其疾敬徳	-12.0271
渭源縣	-12.0271
六千五百六十一	-12.0271
徃哉汝諧	-12.0271
餒	-12.0271
烈風雷雨弗迷	-12.0271
肇十有二州	-12.0271
王若曰嗚呼羣后	-12.0271
華山之陽	-12.0272
欽明文思安安	-12.0272
有方多士	-12.0272
天聰明自我民聰明	-12.0272
詢于四岳	-12.0272
有司牧夫	-12.0272
壺口雷首至于太岳	-12.0273
増修東萊書說卷	-12.0273
剛克柔克	-12.0273
三叔流言	-12.0273
秉彝	-12.0273
河出孟門之上	-12.0273
濰水出	-12.0274
京相璠	-12.0274
五帝本紀	-12.0274
邸	-12.0274
成王既黜殷命	-12.0274
漕運	-12.0274
耒	-12.0274
刷	-12.0275
齧	-12.0275
輓	-12.0275
泰安州	-12.0275
紹乃辟	-12.0275
榆林	-12.0275
三統厯	-12.0276
祗承于帝	-12.0276
厲殺人	-12.0276
六卿分職	-12.0276
同寅協恭和衷	-12.0276
在今予小子旦	-12.0277
桐宮	-12.0277
勺	-12.0277
亮陰	-12.0278
禺	-12.0278
煮	-12.0279
其難其慎	-12.028
殺無赦	-12.028
懷山襄陵	-12.028
閉塞	-12.028
矜恤	-12.0281
殘虐	-12.0281
賈公彦	-12.0282
糗	-12.0282
郴	-12.0283
帙	-12.0283
武王之伐紂	-12.0283
夔龍	-12.0283
幽厲	-12.0284
反音與	-12.0284
順流而下	-12.0284
側㣲	-12.0284
不可以不辨	-12.0285
司勲	-12.0285
誕敷	-12.0286
弱水黒水	-12.0286
務時敏	-12.0287
選擇	-12.0287
聽訟	-12.0287
鍛	-12.0287
盧龍	-12.0289
田畆	-12.0291
自為一篇	-12.0292
良弼	-12.0292
五常之教	-12.0292
紹上帝	-12.0292
含容	-12.0293
旌别	-12.0296
短折	-12.0296
祗懼	-12.0296
無窮之計	-12.0296
汝則從	-12.0297
禹拜昌言曰俞	-12.03
百揆四岳	-12.0301
髙堰	-12.0303
有位之人	-12.0304
河出崑崙	-12.0307
自然而然	-12.0309
常訓也	-12.031
秬鬯一卣	-12.0314
𢎞于天	-12.0316
之所經也	-12.033
灉沮二水	-12.0335
病根	-12.0338
不匿厥指	-12.0339
南去縣	-12.0343
瀘州	-12.0347
兖青徐	-12.037
牛羊	-12.0381
一己之私	-12.0398
臣事君	-12.0404
别是一	-12.0417
榖熟	-12.0421
正月朔	-12.0422
征徐戎	-12.0529
天所命	-12.0533
無偏無黨	-12.0544
蒲昌海	-12.0545
㠯	-12.0561
難諶	-12.0562
車服以庸	-12.0566
曲陽縣	-12.0567
與其殺不辜寧失不經	-12.0568
克配上帝	-12.0569
庶殷侯甸男邦伯	-12.0571
鞭作官刑	-12.0572
樹藝	-12.0572
鬰	-12.0572
伊訓肆命徂后	-12.0572
黎民於變時雍	-12.0573
巧言令色孔壬	-12.0574
誥告庶殷越自乃御事	-12.0574
如五器卒乃復	-12.0574
宣力四方	-12.0575
无垢謂	-12.0575
若有恒性	-12.0575
弔民伐罪	-12.0575
戮于社	-12.0575
禧	-12.0576
厥土惟白壤	-12.0576
其于物也為	-12.0576
鄭漁仲	-12.0577
異姓之邦	-12.0577
遹	-12.0577
郯	-12.0577
揚子雲	-12.0578
熄	-12.0578
錐	-12.0578
從欲以治	-12.0579
馴擾	-12.0579
不協于極不罹于咎皇則受之	-12.0579
揮	-12.0579
寧羌州	-12.0579
燥濕	-12.0579
程泰之	-12.0579
改過自新	-12.0579
師尚父	-12.0579
惟婦言是用	-12.0579
凶人為不善亦惟日不足	-12.0579
千二百黍	-12.0579
臣之有作福作威玉食其害于而	-12.0579
刳剔	-12.0579
祲	-12.058
踐天子位	-12.058
雨雪	-12.058
六七八九	-12.058
律歴志	-12.058
岷山之陽	-12.058
光宅天下	-12.058
皷	-12.058
甯	-12.0581
克終允德	-12.0581
禹湯文武	-12.0581
王乃言曰嗚呼箕子惟天	-12.0581
醫無閭	-12.0581
夬	-12.0581
擊石拊石	-12.0581
麴蘖	-12.0581
伊洛瀍澗既入于河	-12.0581
穪	-12.0581
學于古訓	-12.0581
自東而西	-12.0581
儔	-12.0581
亦克用勸	-12.0582
司徒司馬司空亞旅	-12.0582
角亢	-12.0582
侯以明之	-12.0582
臣下不匡	-12.0582
昔朕來自奄	-12.0582
以蕃王室	-12.0583
萊蕪縣原山	-12.0583
矇	-12.0583
予一人有罪無以爾萬方	-12.0583
七世之廟	-12.0583
三八政一曰食	-12.0583
厥貢惟球琳琅玕	-12.0583
釐降二女	-12.0583
莊栗	-12.0584
懐山襄陵	-12.0584
三百里納秸服	-12.0584
一月戊午師渡孟津	-12.0584
誕大也	-12.0584
譙	-12.0584
罟	-12.0584
檮杌	-12.0584
鈎	-12.0584
恫痛	-12.0585
導山導水	-12.0585
厥貢羽毛齒革惟金三品	-12.0585
嗜酒	-12.0585
虖	-12.0586
惟乃丕顯考文王	-12.0586
此厥不聽	-12.0586
套	-12.0586
譚	-12.0586
涇汭	-12.0586
十七萬七千一百四十七	-12.0587
欒	-12.0587
事神則難	-12.0587
皋	-12.0587
帝其念哉	-12.0587
載之髙地	-12.0587
自天子出	-12.0588
脾	-12.0588
幡然	-12.0589
燄燄	-12.0589
大明黜陟	-12.0589
帝曰欽哉	-12.0589
垂衣拱手	-12.0589
正月朔旦	-12.059
聲依永	-12.059
羹	-12.059
純粹	-12.059
諒隂	-12.059
先王克謹天戒	-12.059
飼	-12.059
卉	-12.0591
蔟	-12.0591
李廵曰	-12.0591
沈酗	-12.0592
示天下弗服	-12.0592
為天下得人	-12.0593
庚申	-12.0594
四肢	-12.0594
怵	-12.0594
泰誓牧誓	-12.0595
膏澤	-12.0595
逋亡	-12.0595
鐘磬	-12.0595
屯留	-12.0596
熊羆狐貍織皮	-12.0596
丁丑	-12.0596
衢	-12.0597
干犯	-12.0597
師保萬民	-12.0599
為羿所	-12.06
交際	-12.06
今陜西西安府	-12.06
簡絜	-12.0601
婺	-12.0602
夏至之日	-12.0602
山東兖州府	-12.0604
附錄	-12.0604
苹	-12.0604
漢水入江	-12.0606
友于兄弟	-12.061
穢惡	-12.0611
追配	-12.0614
豳風	-12.0615
蒙隂縣	-12.0621
鮪	-12.0635
萬八千	-12.0651
以驗其	-12.0656
彤弓	-12.0676
一初也	-12.0676
年中更	-12.0683
渙散	-12.0684
百一十里	-12.0699
人之有技	-12.071
下邳縣	-12.0724
盈滿	-12.0742
墜其命	-12.0752
得罪于天	-12.0795
胎簪	-12.0836
有星孛于	-12.0861
懇惻	-12.0869
雙環	-12.0889
孩	-12.089
鬻	-12.089
悌	-12.089
瓠	-12.0893
溼	-12.0893
烈風雷雨	-12.0893
以寵利居成功	-12.0894
朔食明年	-12.0895
王徂桐宫居憂	-12.0895
各迪有功	-12.0895
矛盾	-12.0896
予乗四載	-12.0896
笞	-12.0896
杜元凱	-12.0896
司空掌邦土居四民時地利	-12.0897
如岱禮	-12.0897
九共九篇	-12.0897
我武惟揚侵于之疆	-12.0897
修其禮物	-12.0897
水曰潤下火曰炎上木曰曲直金曰從革	-12.0898
一以貫之	-12.0898
珥	-12.0898
栽培	-12.0898
顓	-12.0898
滴	-12.0899
詰戎兵	-12.0899
同心同徳	-12.0899
僥倖	-12.0899
餘波入于流沙	-12.0899
惟二月既望	-12.09
三過其門而不入	-12.09
三監之叛	-12.09
扑作教刑	-12.09
鳳凰	-12.09
㢘	-12.09
惟爾有神尚克相予以濟兆民無作神羞	-12.0901
吉凶軍賔嘉	-12.0901
上刑適輕下服下刑適重上服	-12.0901
炳	-12.0902
菲	-12.0902
媿	-12.0902
惟帝降格于夏	-12.0902
鴻鴈	-12.0902
悠久	-12.0902
至矣盡矣	-12.0902
任天下之重	-12.0902
卿士從龜從筮從汝則逆庶民逆吉	-12.0902
相去不逺	-12.0902
淶	-12.0903
可愛非君可畏非民	-12.0903
成周之邑	-12.0903
灼知厥若	-12.0903
勾龍	-12.0903
斧鉞	-12.0903
膽	-12.0903
馮翊夏陽縣	-12.0903
庶民從龜從筮從汝則逆卿士逆吉	-12.0903
屑屑	-12.0904
沐浴	-12.0904
疲	-12.0904
河出圖洛出書聖人則之	-12.0904
薰	-12.0904
杭	-12.0904
以義制事	-12.0904
椓	-12.0904
冗	-12.0904
受命于神宗	-12.0905
惟吕命	-12.0905
王若曰孟侯朕其弟小子封	-12.0905
舉而措之	-12.0905
札	-12.0905
月正元日舜格于文祖	-12.0905
筐篚	-12.0906
鄭氏曉曰	-12.0906
帝曰來禹汝亦昌言	-12.0906
㑹于渭汭	-12.0906
汝萬民乃不生生	-12.0906
膩	-12.0906
惟口起羞	-12.0906
炭	-12.0906
戰國䇿	-12.0906
矧汝剛制于酒	-12.0906
困學紀聞	-12.0906
釜	-12.0906
其惟王位在	-12.0906
其承厥志	-12.0907
析城王屋	-12.0907
推原其	-12.0907
寥	-12.0907
洪水滔天	-12.0907
一徳一心	-12.0908
葉夢得	-12.0908
堵	-12.0908
無世在下	-12.0908
眡	-12.0908
南陽平氏縣	-12.0909
籩	-12.0909
炮烙之刑	-12.0909
惟十有二年六月庚午朏	-12.0909
有正有事	-12.0909
與孔同	-12.0909
元老大臣	-12.0909
諦	-12.0909
不敢含怒	-12.0909
鉏	-12.0909
威克厥愛	-12.0909
邶鄘	-12.091
丙辰	-12.091
肆汝小子封	-12.091
終始惟一	-12.091
上下神祇	-12.091
三監淮夷	-12.091
白旄	-12.091
武庚之亂	-12.0911
自我民明威	-12.0911
黹	-12.0911
辟以止辟	-12.0911
庚辰	-12.0911
敹	-12.0911
諉	-12.0911
推賢讓能	-12.0912
慆淫	-12.0912
縣西北三十里	-12.0912
表正萬邦	-12.0912
松滋	-12.0912
險膚	-12.0913
舊為小人	-12.0913
桃枝	-12.0913
先格王	-12.0913
娵訾	-12.0913
謹天戒	-12.0914
綺	-12.0914
不作無益害有益	-12.0914
戢	-12.0914
雺	-12.0914
建中于民	-12.0915
無所措	-12.0915
盤庚五遷	-12.0915
有能有為	-12.0916
𡊮	-12.0916
寅亮天地	-12.0917
僣差	-12.0917
聖人之治天下	-12.0917
萊夷作牧	-12.0917
勤勞王家	-12.0917
筦	-12.0918
言以道接	-12.0919
吕祖謙	-12.0921
長丁丈反	-12.0921
尺有二寸	-12.0921
汲郡	-12.0923
穿渠	-12.0923
頒布	-12.0924
饋祀	-12.0925
衣食足	-12.0926
毖慎	-12.0927
顓帝	-12.0929
岳州府	-12.0937
扶風武功縣	-12.0943
有餘裕	-12.0943
虐煢獨	-12.0948
水地志出	-12.0954
!」	-12.0956
王畿千里	-12.0971
燮和	-12.0992
未始不	-12.1045
所賴以	-12.106
岍岐荆	-12.1113
西戎即叙	-12.1118
涇陽縣	-12.1145
漢舊縣	-12.1154
今日之休	-12.1169
蔡叔霍叔	-12.12
滔	-12.1215
近天子之光	-12.1217
又西逕	-12.1221
過三澨至于大别南入于江	-12.1225
䛕	-12.1226
予沖子夙夜毖祀	-12.1227
奉湯祀	-12.1227
棧	-12.1228
拆	-12.1228
屨	-12.1228
班孟堅	-12.1228
不明于徳	-12.1228
克寛克仁彰信兆民	-12.1228
觀逸遊田	-12.1229
三載考績三考黜陟幽明	-12.1229
萇	-12.1229
鯀則殛死禹乃嗣興天乃錫禹洪範九疇	-12.1229
馘	-12.123
故此遂言	-12.123
戰戰兢兢	-12.123
棺	-12.1231
肯堂	-12.1231
安土重遷	-12.1231
伊瀍澗	-12.1231
壬戌	-12.1232
禮樂刑政	-12.1232
求諸非道	-12.1232
統承先王	-12.1232
庶殷丕作	-12.1232
度作刑以詰四方	-12.1233
民之所欲天必從之	-12.1233
戈㦸	-12.1233
永綏厥位	-12.1233
邁種徳	-12.1233
萬世永賴	-12.1233
予克受非予武惟朕文考無罪	-12.1233
二典三謨	-12.1233
肆念我天威	-12.1234
皇天眷佑誕受厥命	-12.1234
嚮用五福	-12.1234
壌	-12.1234
受克予非朕文考有罪惟予小子無良	-12.1234
惟十有一年武王伐殷	-12.1234
琅	-12.1234
朢	-12.1235
漬	-12.1235
簿	-12.1235
厥四月哉生明王來自商至于豐	-12.1235
厥土惟壤下土墳壚	-12.1235
慣	-12.1235
辛丑	-12.1235
二曰疾三曰憂四曰貧五曰惡六曰弱	-12.1235
夫婦長幼朋友	-12.1235
肆予大化誘我友邦君	-12.1235
汝則從龜從筮從卿士逆庶民逆吉	-12.1235
氣質之性	-12.1236
沈潜	-12.1236
蹤	-12.1236
汝則從龜從筮逆卿士逆庶民逆作内	-12.1236
犧牷牲	-12.1236
人惟求舊	-12.1236
吉凶禍福	-12.1236
既免喪	-12.1236
朕承王之休無斁	-12.1236
任賢勿貳	-12.1236
殷王元子	-12.1237
醒	-12.1237
無皇曰今日耽樂	-12.1237
賢聖之君	-12.1237
順天應人	-12.1237
蕝	-12.1237
予未有知	-12.1237
袞	-12.1237
即前所謂	-12.1237
人之有能有為使羞其行而邦其昌	-12.1237
熒惑	-12.1238
正月上日受終于文祖	-12.1238
太史内史	-12.1238
于其無好徳汝雖錫之福其作汝用咎	-12.1238
惟辟作福惟辟作威惟辟玉食	-12.1238
鬻獄	-12.1238
我生不有命在天	-12.1238
二曰貨三曰祀四曰司空五曰司徒六曰	-12.1239
皇帝哀矜庶戮之不辜	-12.1239
惟明克允	-12.1239
陬	-12.1239
歴試諸難	-12.1239
武王崩三監及淮夷叛	-12.1239
猶有存者	-12.124
王如弗敢及天基命定命	-12.124
受有殷命	-12.124
獄貨非	-12.124
篚厥𤣥黄	-12.124
西戎即敘	-12.1241
予曷敢不	-12.1241
裁成輔相	-12.1241
蟻裳	-12.1242
復政厥辟	-12.1242
茶	-12.1242
貔	-12.1242
髙辛氏	-12.1242
以禮制心	-12.1243
穆天子傳	-12.1243
厥田惟上上厥賦中下	-12.1243
孺子其朋	-12.1243
其審克之	-12.1243
襟	-12.1243
錮	-12.1243
惟幾惟康	-12.1244
鷟	-12.1244
其澤藪曰	-12.1244
忝厥祖	-12.1244
稽謀自天	-12.1244
納秸	-12.1244
湮塞	-12.1245
沈存中	-12.1245
聖有謨訓	-12.1245
塊	-12.1245
冬十月	-12.1245
發揮	-12.1245
王乃初服	-12.1245
五流有宅	-12.1246
凑	-12.1246
澠	-12.1246
槐	-12.1246
路史後紀	-12.1246
分土惟三	-12.1247
月正元日	-12.1248
徐廣曰	-12.1248
鈗	-12.1248
父義和	-12.1249
郝	-12.1249
鄭端簡	-12.1249
若生子	-12.125
稍稍	-12.125
宐	-12.125
馬四匹	-12.125
箘	-12.1251
尹兹東郊	-12.1252
履祥	-12.1252
貟	-12.1254
咈百姓	-12.1255
蠶桑	-12.1255
武陵郡	-12.1255
潛江縣	-12.1255
遏絶苗民	-12.1256
滎瀆	-12.1256
寛暇	-12.1256
徂兹淮夷徐戎並興	-12.1257
酷虐	-12.1258
非得已	-12.1258
河間府	-12.126
冑	-12.1263
㽔	-12.1268
尚書詳解卷二十	-12.1277
與之俱	-12.1296
浮于潛	-12.1303
二帝三王	-12.1306
傅陽山	-12.1322
六百七十	-12.1394
張霸偽	-12.1417
千九百	-12.1444
天之眷	-12.1493
驕奢	-12.1506
左傳僖	-12.1516
南流注于	-12.1542
釋詁	-12.1554
往哉汝諧	-12.1555
鎖	-12.1564
狭	-12.1565
二十有二人	-12.1566
汝惟不矜天下莫與汝	-12.1567
閲實其罪	-12.1569
丙寅	-12.1569
雷電	-12.1569
威侮五行怠棄三正	-12.157
誕敷文徳	-12.157
率德改行	-12.1572
李校書	-12.1573
柰	-12.1574
剔	-12.1574
深切著明	-12.1574
殷小腆誕敢紀其	-12.1575
樗	-12.1575
嵗月日時無易	-12.1575
早墜厥命	-12.1575
王省惟歲	-12.1575
政在養民	-12.1576
壮	-12.1576
個	-12.1576
俟天休命	-12.1576
墊隘	-12.1576
猶以為未也	-12.1576
企	-12.1576
凡七卜五占用二衍忒	-12.1576
任大責重	-12.1577
敷奏以言明試以功車服以庸	-12.1577
故乃明于刑之中	-12.1577
蒼蒼	-12.1577
鄰哉臣哉	-12.1577
威侮五行	-12.1577
汨陳其五行	-12.1577
正義曰旣言	-12.1577
人有士君子之行	-12.1578
六極一曰凶短折	-12.1578
武夷熊氏曰	-12.1578
朕志先定詢謀僉同鬼神其依龜筮協從	-12.1578
是之謂大同身其康彊子孫其逢吉	-12.1578
節性惟日其邁	-12.1578
甲戌我惟征徐戎	-12.1578
曰予恐來世以台為口實	-12.1579
沉湎于酒	-12.1579
鈔	-12.1579
萬億年	-12.1579
朽索之馭六馬	-12.1579
炎上作苦曲直作酸從革作辛稼穡作甘	-12.1579
刑期于無刑	-12.1579
若有恒性克綏厥猷惟后	-12.158
立時人作卜筮三人占則從二人之言	-12.158
㨿	-12.158
喋	-12.158
勉力不怠	-12.158
九百四十分	-12.158
導弱水至于合黎餘波入于流沙	-12.158
夔曰於予擊石拊石百獸率舞	-12.158
日講書經解義	-12.158
撫于五辰	-12.158
𢎞敷五典式和民則	-12.158
厥田惟下下厥賦下上上錯	-12.158
承保乃文祖受命民越乃光烈考武王	-12.1581
懽	-12.1581
鳳翔府	-12.1581
王先服殷御事比介于我有周御事	-12.1581
彊而義	-12.1581
換	-12.1581
忝辱	-12.1581
爾小子乃興從爾遷	-12.1581
煞	-12.1581
簸	-12.1581
薰陶	-12.1581
王享國百年耄荒	-12.1581
咸和萬民	-12.1582
天惟純佑命則商實百姓	-12.1582
戊午師逾孟津癸亥陳于商郊俟天休命	-12.1582
其克詰爾戎兵以陟禹之迹	-12.1582
敷奏以言	-12.1582
不自滿假	-12.1582
夾右碣石	-12.1582
越三日庚戌柴望大告武成	-12.1582
疫	-12.1582
打	-12.1582
厯象日月星辰	-12.1582
蕤	-12.1582
與之更始	-12.1582
煽	-12.1583
野無遺賢	-12.1583
晷景	-12.1583
伯夷降典	-12.1583
周公拜手稽首曰朕復子明辟	-12.1583
庶獄庶愼	-12.1583
鄭武公	-12.1583
騁	-12.1583
不旋踵	-12.1584
惟辟作福	-12.1584
胡氏士行曰	-12.1584
水曰潤下	-12.1584
庶言庶獄庶慎	-12.1584
無或私家于獄之兩辭	-12.1584
盟津	-12.1584
予念我先神后之勞爾先	-12.1584
寛綽厥心	-12.1584
玊	-12.1584
啓乃心沃朕心	-12.1585
鞏昌	-12.1585
三公三少	-12.1585
燧	-12.1585
腴	-12.1585
西王母	-12.1585
刑發聞惟腥	-12.1585
蕩蕩平平正直	-12.1585
䂓	-12.1585
錦綺	-12.1586
太行恒山至于碣石入于海	-12.1586
縦	-12.1586
駢	-12.1586
汜濫	-12.1586
純亦不已	-12.1586
皇天眷佑	-12.1586
觴	-12.1586
雘	-12.1586
自時厥後立王生則逸	-12.1587
大國三軍	-12.1587
賊虐諫輔	-12.1587
竺	-12.1587
鳩聚	-12.1587
義或然也	-12.1587
洋溢	-12.1588
文王罔攸兼于	-12.1588
麻冕黼裳	-12.1588
凡厥庶民極之敷言是訓是行以近天	-12.1588
孜	-12.1589
莫重於	-12.159
魅	-12.159
鴈門	-12.159
稽于衆	-12.159
晰	-12.1591
俾必爾反	-12.1591
埤	-12.1591
虞舜側微	-12.1591
平王東遷	-12.1592
鼵	-12.1592
震澤底定	-12.1592
洸	-12.1592
詩大雅	-12.1592
越嶲	-12.1593
責命于天	-12.1593
顏	-12.1593
掌天地四時之官	-12.1594
曲為之説	-12.1594
渮	-12.1595
冤	-12.1595
盤庚既遷	-12.1595
惟彼陶唐	-12.1596
澹	-12.1597
遷于洛邑	-12.1598
漢陽軍	-12.16
縣西南五十里	-12.1601
周書孔氏傳	-12.1601
泗濵	-12.1604
文中子	-12.1606
溧	-12.1607
通解續	-12.1623
羲和四子	-12.1626
惟徳是	-12.1632
何心哉	-12.1684
周鎬京也	-12.1725
緫結	-12.1755
十里水去縣	-12.1804
子子孫孫	-12.1805
流言之變	-12.1819
麴糵	-12.1826
樂大典原	-12.184
胥匡以生	-12.1842
十七里	-12.1846
金履祥	-12.1891
鄢	-12.1898
年之乆	-12.1906
明明揚側陋	-12.1919
陸費墀欽定四庫全書	-12.192
我不敢知曰有夏服天命惟有	-12.1921
賞于祖	-12.1928
咸則三壤成賦中邦	-12.1928
冏	-12.1928
日行一度	-12.1928
引周書曰	-12.1929
分水嶺	-12.1929
汪	-12.1929
薫	-12.1929
壬午	-12.193
罪人以族	-12.193
呱呱	-12.1931
斟	-12.1931
舞干羽	-12.1931
雨霽蒙驛克	-12.1932
戴九履一	-12.1932
比屋可封	-12.1932
東匯澤為彭蠡東為北江入于海	-12.1932
亦惟君惟長	-12.1933
掊	-12.1933
臨事而懼	-12.1933
淯	-12.1933
君罔以辯言亂舊政	-12.1933
昔先正保衡作我先王	-12.1933
澀	-12.1934
敷納以言	-12.1934
饑饉	-12.1934
商罪貫盈天命誅之予弗順天厥罪惟鈞	-12.1934
揲	-12.1934
若跣弗視地厥足用傷	-12.1934
克綏厥猷	-12.1935
蘇子瞻	-12.1935
覧	-12.1935
亦惟助王宅天命作新民	-12.1935
惟厥攸居政事惟醇	-12.1935
伐夏救民	-12.1935
覬覦	-12.1936
自契至于成湯八遷	-12.1936
弗迓克奔以役西土	-12.1936
致君澤民	-12.1936
藻火粉米黼黻絺繡	-12.1936
爾乃自時洛邑尚永力畋爾田	-12.1936
惟其克相上帝寵綏四方	-12.1936
肆覲東后	-12.1936
要荒之服	-12.1936
殷侯尹民	-12.1937
為滄浪之水	-12.1937
少師少傅少保曰三孤	-12.1937
王惟庸罔念聞	-12.1937
永孚于休	-12.1937
家凶于而國人用側頗僻民用僭忒	-12.1937
自暴自棄	-12.1937
惠篤敘	-12.1938
懇懇	-12.1938
聲音笑貌	-12.1938
左洞庭右彭蠡	-12.1938
國有大事	-12.1938
反商政	-12.1938
罔有敵于我師前徒倒戈攻于後以北	-12.1938
華夏蠻貊罔不率俾	-12.1938
曹操	-12.1939
蘇忿生	-12.1939
右北平	-12.1939
天不庸釋于文王受命	-12.1939
罄	-12.1939
大公至正	-12.1939
衋	-12.1939
汝曷弗念我古后之聞	-12.1939
外四面又各五百里	-12.1939
非天庸釋有殷	-12.1939
永清四海	-12.1939
厥田惟上中厥賦中中	-12.1939
王命衆悉至于庭	-12.1939
王伯厚	-12.194
泠	-12.194
欽四鄰	-12.194
夢寐	-12.194
宗尊也	-12.194
從先王居	-12.194
擢	-12.194
績用弗成	-12.194
剛克髙明柔克	-12.194
代天理物	-12.1941
丘陵墳衍	-12.1941
架	-12.1941
常事司牧人	-12.1941
諒闇	-12.1941
罰及爾身弗可悔	-12.1942
顧氏錫疇曰	-12.1942
仲虺乃作誥	-12.1942
洲渚	-12.1942
食哉惟時	-12.1942
摹	-12.1942
不役耳目百度惟貞	-12.1942
觀兵孟津	-12.1942
勸之以九歌	-12.1942
棟宇	-12.1942
在我後嗣子孫	-12.1942
羞進也	-12.1942
鋪	-12.1943
千載之下	-12.1943
鸞	-12.1943
自作孽	-12.1943
疵病	-12.1943
我其試哉	-12.1943
輳	-12.1943
浦陽江	-12.1943
懋乃徳	-12.1944
水火金木土榖惟修	-12.1944
念終始典于學	-12.1944
妍	-12.1944
範圍	-12.1944
窄	-12.1944
蒯	-12.1944
周公曰未可以戚我先王	-12.1944
浸漬	-12.1945
苻	-12.1945
少皥	-12.1945
報以庶尤	-12.1945
殪	-12.1945
卧	-12.1946
范蠡	-12.1946
肆遂也	-12.1946
命汝典樂	-12.1947
鎔	-12.1947
無聞焉	-12.1947
鍊	-12.1948
受終于文祖	-12.1949
溠	-12.1949
側媚	-12.1949
厥田惟下上厥賦下中三錯	-12.1949
耕稼	-12.1949
淦	-12.1949
濩澤	-12.1949
汝陳時臬	-12.195
籩豆	-12.195
紐	-12.195
充耘	-12.195
衽	-12.195
自時厥後	-12.1951
遮	-12.1951
兠	-12.1951
今之謀人	-12.1952
乃祖成湯	-12.1952
史記索隱	-12.1952
輯睦	-12.1952
鼖鼓	-12.1953
今王惟曰	-12.1954
納銍	-12.1954
遐逖	-12.1954
浴	-12.1954
崈	-12.1955
組綬	-12.1955
鼖	-12.1955
還歸在豐	-12.1956
厖	-12.1957
繭	-12.1958
菹	-12.1958
予其殺	-12.1959
鑄鼎	-12.1962
甌	-12.1965
三山陳氏曰	-12.1965
截截	-12.1975
金以贖	-12.1975
有深意	-12.1977
嬀	-12.1977
厥貢惟土五色	-12.1994
縣本漢舊縣屬	-12.2026
舜生三十	-12.2125
華州華隂縣	-12.2128
亶甲	-12.2134
萬六千	-12.2139
西傾因桓是來	-12.2152
十丈	-12.2183
虎賁綴衣	-12.2219
稼穡之艱難	-12.2225
胷	-12.2285
鄠	-12.2287
彞倫攸敘	-12.2292
煢獨	-12.2293
移爾遐逖	-12.2295
民獻十夫	-12.2297
惟王受命無疆惟休亦無疆惟恤	-12.2297
焚炙忠良刳剔孕婦	-12.2299
伶	-12.2299
分北三苖	-12.23
念敬我衆	-12.23
惟王不邇聲色不殖貨利	-12.23
乃裕民曰我惟有及則予一人以懌	-12.23
諟	-12.2301
伊尹作太甲三篇	-12.2301
畢則多雨	-12.2301
唘	-12.2301
與治同道	-12.2302
衆非元后何戴后非衆罔與守邦	-12.2302
史記索隠	-12.2303
七稽疑擇建立卜筮人乃命卜筮	-12.2303
混淆	-12.2303
爾尚輔予一人致天之罰	-12.2303
王來紹上帝自服于土中	-12.2304
擕	-12.2304
眺	-12.2304
髓	-12.2304
緡	-12.2304
㕓	-12.2304
尚書古文疏證	-12.2304
達觀于新邑營	-12.2304
哲時燠若曰謀時寒若曰聖時風若	-12.2304
祗載見瞽瞍	-12.2304
嘏	-12.2305
三危既宅	-12.2305
海隅蒼生	-12.2305
威以彰周公之	-12.2305
夏僎撰	-12.2305
惟我事不貳適惟爾王家我適	-12.2305
慮善以動動惟厥時	-12.2305
世家大族	-12.2305
爰暨小人	-12.2305
有其善喪厥善矜其能喪厥功	-12.2306
南宫括	-12.2306
予視天下愚夫愚婦一能勝予	-12.2306
予不允惟若兹誥	-12.2306
之格則承之庸之否則威之	-12.2306
厥田惟中上厥賦錯上中	-12.2306
王省惟嵗	-12.2306
筠	-12.2306
罍	-12.2307
時措之宜	-12.2307
欽崇天道	-12.2307
允恭克讓光被四表格于上下	-12.2307
方施象刑惟明	-12.2307
臟	-12.2307
王若曰猷殷王元子	-12.2307
肆中宗之享國七十有五年	-12.2307
鋸	-12.2308
靈承于旅	-12.2308
慢神虐民	-12.2308
刑亂國用重典	-12.2308
夏暑雨小民惟曰怨咨	-12.2308
簫韶	-12.2308
準人牧夫	-12.2308
瑗	-12.2308
若網在綱有條而不紊	-12.2308
如西禮	-12.2308
或十年或七八年或五六年或四三年	-12.2308
顯聞于天	-12.2308
誹謗	-12.2308
罔不配天其澤	-12.2308
惟天生聰明時乂	-12.2309
曰雨曰霽曰蒙曰驛曰克	-12.2309
歸徳府	-12.2309
周公居東二年則罪人斯得	-12.2309
天既訖我殷命	-12.2309
槁	-12.2309
爾曷不忱裕之于爾多方	-12.2309
予不敢宿則禋于文王武王	-12.2309
五刑五用	-12.231
尖	-12.231
知禮節	-12.231
崇徳報功	-12.231
嘉謀嘉猷	-12.231
商曰祀周曰年	-12.231
碩	-12.231
卜河朔黎水	-12.231
無一語及	-12.231
蟠	-12.231
乃穆考文王	-12.2311
綦弁	-12.2311
洽于民心	-12.2311
庶民惟星	-12.2311
天之降命	-12.2311
率百官若帝之初	-12.2311
紂子武庚	-12.2311
懐慶府	-12.2311
弘農	-12.2311
心勞日拙	-12.2311
眚災	-12.2311
昂	-12.2311
二十有八載	-12.2312
賙	-12.2312
方伯連帥	-12.2312
厥貢漆絲厥篚織文	-12.2312
無曠庶官天工人其代之	-12.2312
收拾	-12.2312
敬哉有土	-12.2312
嗇	-12.2312
讞	-12.2312
凡爾衆其惟致告	-12.2312
殺越人于貨	-12.2312
周公拜手稽首曰王命予來	-12.2312
蘉	-12.2312
長我王國	-12.2313
多罪逋逃	-12.2313
另	-12.2313
越有雊雉	-12.2313
厥土惟黄壤	-12.2313
頥	-12.2313
瞀	-12.2313
萬二千五百人	-12.2313
說命三篇	-12.2313
胤征	-12.2313
驂	-12.2314
酬酢	-12.2314
顧炎武曰	-12.2314
水害除	-12.2314
博物志	-12.2314
有并兩刑	-12.2314
竒技淫巧	-12.2314
在天之靈	-12.2315
無塊曰壤	-12.2315
埏	-12.2315
禹錫𤣥圭	-12.2315
崐崘析支渠搜	-12.2315
憶	-12.2315
塗丹雘	-12.2315
禘祫	-12.2315
惟帝時克	-12.2315
北過洚水	-12.2315
見賢遍反	-12.2315
沙漠	-12.2316
賀孫	-12.2316
王若曰父義和	-12.2316
肇位四海	-12.2316
師汝昌言	-12.2316
六十五字	-12.2316
跖	-12.2316
四國民命	-12.2316
順考古道	-12.2317
四隩既宅	-12.2317
釃	-12.2317
洪水横流	-12.2317
函谷	-12.2317
延安府	-12.2317
不遑暇食	-12.2317
盩	-12.2318
穀梁傳	-12.2318
天生聰明	-12.2318
錫貢磬錯	-12.2318
南郡枝江縣	-12.2319
至誠惻怛	-12.2319
分居里	-12.2319
嗣守文武大訓	-12.2319
吕伋	-12.2319
醢	-12.2319
厥草惟繇	-12.2319
簮	-12.2319
水自江出為沱	-12.232
率自中	-12.232
罔聞知	-12.232
珊瑚	-12.232
漢五行志	-12.232
䑓	-12.2321
旌旄	-12.2321
用康乂民	-12.2321
四門穆穆	-12.2321
寸五分	-12.2321
孔穎逹	-12.2322
下生南吕	-12.2322
帝舜申之	-12.2322
覆釡	-12.2322
碭	-12.2322
陶邱	-12.2323
沈括	-12.2324
安在哉	-12.2326
琢	-12.2326
在王左右	-12.2328
蒗	-12.2328
尺八寸	-12.233
咫	-12.2331
􁅟	-12.2338
歸功於	-12.2338
陸費墀	-12.2339
涐	-12.2341
南皮縣	-12.239
沫	-12.2409
内外交	-12.242
自天子至	-12.2486
東漸于海西被于流沙朔南暨聲教	-12.2494
折而西	-12.2512
賄賂	-12.2523
犍	-12.2587
瀹濟	-12.2591
節書是紀禹	-12.2625
二百一十	-12.2638
卣中尊	-12.2641
舞干羽于兩階	-12.265
啻	-12.2651
遒	-12.2669
月之從星則以風雨	-12.2673
厥賦惟上上錯厥田惟中中	-12.2679
惇宗將禮稱秩元祀咸秩無文	-12.268
越五日甲寅位成	-12.2683
忤	-12.2683
用其義刑義殺勿庸以次汝封	-12.2683
欵	-12.2684
東國洛	-12.2684
股肱惟人良臣惟聖	-12.2685
慄慄危懼若將隕于深淵	-12.2685
戞擊	-12.2685
凜	-12.2685
厓	-12.2685
不愆于四伐五伐六伐七伐乃止齊焉	-12.2686
九山刋旅九川滌源九澤既陂	-12.2686
腑	-12.2686
汝乃是不蘉乃時惟不永哉	-12.2686
鶉	-12.2686
歸格于藝祖	-12.2686
䟦	-12.2686
堡	-12.2686
兹在兹釋兹在兹	-12.2687
導洛自熊耳東北	-12.2687
籈	-12.2687
人心惟危道心惟微惟精惟一允執厥中	-12.2687
殷罰有倫	-12.2688
熏	-12.2688
揲蓍	-12.2688
䨇	-12.2688
褊	-12.2688
天子惟君萬邦百官承式	-12.2688
樽	-12.2689
眊	-12.2689
徳無常師	-12.2689
帝告釐沃	-12.2689
作周孚先	-12.2689
冬祁寒小民亦惟曰怨咨	-12.2689
其一曰皇祖有訓	-12.2689
奸宄	-12.2689
為人上者奈何不敬	-12.2689
各守爾典以承天休	-12.2689
造攻自鳴條朕哉自亳	-12.2689
于湯有光	-12.2689
乃言曰我聞在昔鯀陻洪水汨陳其五行	-12.269
兹予大享于先王爾祖其從與享之	-12.269
浮于積石至于龍門西河㑹于渭汭	-12.269
水火金木土穀	-12.269
臯陶作士	-12.269
害虐烝民為天下逋逃主萃淵藪	-12.269
誕保文武受民	-12.269
翕受敷施	-12.269
熊耳外方桐柏至于陪尾	-12.269
不邇聲色不殖貨利	-12.269
通上下之情	-12.269
牝雞之晨惟家之索	-12.269
氄毛	-12.269
其爾衆士懋戒哉	-12.269
乃審厥象俾以形旁求于天下	-12.269
爾尚一乃心力其克有勲	-12.2691
祸	-12.2691
刑期無刑	-12.2691
王敬作所不可不敬徳	-12.2691
無稽之言	-12.2691
逄	-12.2691
羊腸	-12.2691
六年一朝	-12.2691
欲敗度縱敗禮以速戾于厥躬	-12.2691
基址	-12.2691
亮采惠疇	-12.2691
五行不言用	-12.2691
諸侯来朝	-12.2692
若藥弗瞑眩厥疾弗瘳	-12.2692
弼成五服至于五千州十有二師	-12.2692
順乎天而應乎人	-12.2692
以意逆志	-12.2692
孺子其朋孺子其朋其	-12.2692
辛壬癸甲	-12.2692
皮氏縣	-12.2692
敦煌	-12.2692
敬以直内	-12.2693
人欲之私	-12.2693
用人惟己	-12.2693
嵗月日星辰	-12.2693
霧	-12.2693
黽勉	-12.2693
天有顯道	-12.2693
祗台徳先不距朕行	-12.2693
既載壺口治梁及岐	-12.2694
奎婁	-12.2694
哈	-12.2694
予旦以多子越御事篤前人成烈	-12.2694
西傾朱圉鳥鼠	-12.2694
惟克商遂通道于九夷八蠻	-12.2694
如下文所云也	-12.2694
序所以為作者之意	-12.2694
漿	-12.2694
爾其孜孜奉予一人恭行天罰	-12.2694
東西兩川	-12.2694
我先后綏乃祖乃父	-12.2694
民惟邦本	-12.2694
繼自今文子文孫	-12.2694
修厥身	-12.2695
格人元龜罔敢知吉	-12.2695
今予將試以汝遷安定厥邦	-12.2695
瀉	-12.2695
俶擾天紀	-12.2695
潼闗	-12.2695
避居東都	-12.2695
鼂	-12.2695
鄭氏康成曰	-12.2695
不知稼穡之艱難不聞小人之勞惟耽樂	-12.2696
惟天惠民惟辟奉天	-12.2696
慆	-12.2696
其惟王勿以小民淫用非	-12.2696
后克艱厥后臣克艱厥臣政乃乂黎民敏	-12.2696
改過遷善	-12.2696
惟刑之恤	-12.2696
炊	-12.2696
春風和氣	-12.2696
我心之憂日月逾邁若弗云來	-12.2696
􁀾􁀾	-12.2696
伊尹作咸有一徳	-12.2696
伶州鳩	-12.2696
隉	-12.2696
羗	-12.2697
岷山之陽至于衡山過九江至于敷淺原	-12.2697
自下而上	-12.2697
九澤既陂	-12.2697
𢾗	-12.2697
洮頮	-12.2697
予創若時娶于塗山辛壬癸甲	-12.2697
其于爾躬有戮	-12.2697
諷誦	-12.2697
此一莭書	-12.2698
儕	-12.2698
溷	-12.2698
羣行攻	-12.2698
天道福善禍淫	-12.2698
嵎夷既略	-12.2698
紳	-12.2698
費誓秦誓	-12.2698
有猷有為有守	-12.2698
不害其為	-12.2699
具乃貝玉	-12.2699
秉璋以酢	-12.2699
天一生水	-12.2699
浮于洛達于河	-12.2699
爾有善朕弗敢蔽	-12.2699
月之從星	-12.2699
灰	-12.2699
勱	-12.27
自作不典	-12.27
正色率下	-12.27
鱗	-12.27
汲冢	-12.27
于帝其訓	-12.27
敢知曰不其延惟不敬厥徳乃早墜厥命	-12.27
惟受罪浮于桀	-12.27
敬授民時	-12.27
屋漏	-12.27
王出郊	-12.27
懋昭周公之訓	-12.2701
坐而論道	-12.2701
后克艱厥后	-12.2701
汝不憂朕心之攸困	-12.2701
翊	-12.2701
厥木惟條	-12.2701
址	-12.2702
知小人之所依	-12.2702
球琳琅玕	-12.2702
梯	-12.2702
而康而色	-12.2702
嚴惟丕式	-12.2703
思曰睿	-12.2703
􁆣	-12.2703
太康失邦	-12.2703
碞險	-12.2703
盱眙	-12.2704
不腆于酒	-12.2704
繅	-12.2704
朕夢協朕卜	-12.2704
誥毖庶邦	-12.2704
勳	-12.2704
欲宅洛邑	-12.2704
厥四月哉生明	-12.2705
軼	-12.2705
惟予一人膺受多福	-12.2706
錯上中	-12.2706
取亂侮亡	-12.2706
輻	-12.2707
涂	-12.2707
后來其蘇	-12.2707
二千一百八十七	-12.2708
酌鬱鬯	-12.2708
篾	-12.2708
供音恭	-12.2708
寨	-12.2709
是惟天命	-12.2711
荆梁二州	-12.2712
大能進	-12.272
尚書句解卷	-12.2723
不敢專也	-12.2725
圖叙說	-12.2731
瀍澗	-12.2732
奉圭兼幣	-12.2745
敬作所	-12.2748
博陽山	-12.276
59.	-12.278
茂州汶山縣	-12.2789
户牖	-12.2877
有毫釐之	-12.29
伊尹以冕服奉嗣王歸于亳	-12.3017
弼直之	-12.3051
師錫帝曰	-12.3063
萬曰億	-12.3064
以貢名	-12.3073
暈	-12.3075
撞	-12.3076
摶拊	-12.3078
焯	-12.3079
明致天罰	-12.3079
亦罔不克敬典乃由裕民惟文王之敬忌	-12.3081
我不可不監于有夏亦不可不監于有殷	-12.3082
即辟于周	-12.3082
閤	-12.3082
佑我烈祖格于皇天	-12.3082
郃	-12.3083
念念不忘	-12.3084
下引水經注云	-12.3084
潟鹵	-12.3085
公曰君告汝朕允	-12.3085
禹疏九河	-12.3086
允廸厥徳	-12.3086
三旬苗民逆命	-12.3086
小臣外正	-12.3086
治國平天下	-12.3087
肆予東征綏厥士女惟其士女篚厥	-12.3087
婣	-12.3087
帝曰俞地平天成	-12.3087
惟口出好興戎朕言不再	-12.3087
若曰豫恒燠若曰急恒寒若曰蒙恒風若	-12.3088
惟四月哉生魄王不懌	-12.3088
乃惟以爾多方之義民不克永于多享	-12.3088
一隂一陽	-12.3088
召公為保周公為師相成王為左右	-12.3088
侯甸男采衞	-12.3088
咨十有二牧曰食哉惟時	-12.3088
予告汝于難若射之有志	-12.3089
怯	-12.3089
王曰公予小子其退即辟于周命公後	-12.3089
予惟率肆矜爾非予罪時惟天命	-12.3089
車轍馬跡	-12.3089
敬逆天命	-12.3089
俾予一人輯寧爾邦家	-12.3089
鰥寡孤獨	-12.3089
奠定也	-12.3089
迥	-12.3089
以五采彰施于五色作服汝明	-12.309
[...]
