<unk>	0
<s>	0
</s>	0
。	-1.73591
者	-4.77578
也	-4.86938
之	-5.06335
,	-5.10343
▁	-5.18414
故	-5.2907
為	-5.42554
以	-5.44985
(	-5.45335
)	-5.46415
而	-5.49162
有	-5.55725
一	-5.64973
不	-5.65335
即	-5.71158
是	-5.74222
則	-5.74754
如	-5.77434
佛	-5.79121
無	-5.84102
心	-5.87268
此	-5.88454
中	-5.89885
*	-5.90451
於	-5.92298
人	-5.93884
其	-5.94555
二	-6.04212
若	-6.06483
非	-6.18651
生	-6.20653
自	-6.24706
三	-6.2471
曰	-6.27772
云	-6.27783
言	-6.27785
念佛	-6.29544
行	-6.30568
又	-6.30968
見	-6.32977
得	-6.33905
名	-6.36098
時	-6.3809
皆	-6.39333
念	-6.40124
亦	-6.40792
大	-6.42361
說	-6.43979
法	-6.45366
謂	-6.46579
等	-6.48361
相	-6.51537
身	-6.51989
】	-6.5263
眾生	-6.53421
或	-6.53898
至	-6.54304
我	-6.55151
淨土	-6.56619
在	-6.57353
明	-6.5942
觀	-6.6003
乃	-6.6121
今	-6.62134
下	-6.62515
與	-6.64029
因	-6.66037
願	-6.66338
矣	-6.66434
作	-6.6714
事	-6.70642
四	-6.70695
所	-6.72107
及	-6.74929
同	-6.75433
乎	-6.75956
入	-6.76213
上	-6.76588
成	-6.77316
經	-6.77341
菩薩	-6.77514
。【	-6.7954
然	-6.79741
巳	-6.81341
多	-6.82029
當	-6.82545
出	-6.83857
道	-6.84116
能	-6.8414
、	-6.84713
諸	-6.84909
雖	-6.85242
後	-6.87993
修	-6.91279
空	-6.92209
欲	-6.92584
一切	-6.92726
彼	-6.92947
可	-6.93887
盡	-6.95593
問	-6.95879
從	-6.96357
義	-6.96794
知	-6.98119
常	-6.99767
難	-6.9988
處	-7.00638
本	-7.00962
前	-7.02239
疏	-7.02343
信	-7.02892
正	-7.03038
五	-7.0401
既	-7.06278
但	-7.06357
來	-7.06926
教	-7.07426
理	-7.07733
。】「	-7.08132
聞	-7.0833
真	-7.09435
初	-7.10132
起	-7.10882
日	-7.1111
彌陀	-7.11473
淨	-7.11696
通	-7.1172
善	-7.12468
定	-7.12869
師	-7.1303
必	-7.14132
天	-7.14899
子	-7.1749
何	-7.18997
如是	-7.19253
。」【	-7.19308
文	-7.19659
往生	-7.19726
意	-7.20037
復	-7.20224
未	-7.20518
阿彌陀佛	-7.21185
深	-7.21576
方	-7.22437
西方	-7.23345
門	-7.24383
鈔	-7.24687
應	-7.24699
現	-7.24873
眾	-7.26809
地	-7.27073
耶	-7.27532
先	-7.27724
別	-7.27759
去	-7.28094
求	-7.2866
令	-7.29583
分	-7.29814
具	-7.29941
苦	-7.30171
受	-7.30181
用	-7.30522
性	-7.31454
體	-7.32093
如來	-7.3232
諸佛	-7.32846
唯	-7.32886
實	-7.3352
論	-7.34313
業	-7.35021
果	-7.35264
發	-7.35481
要	-7.36159
想	-7.3641
無量	-7.36647
耳	-7.37286
不能	-7.37796
釋	-7.4006
樂	-7.41426
重	-7.41595
光	-7.4171
解	-7.42087
便	-7.42427
勝	-7.42558
依	-7.42823
次	-7.43139
十	-7.43178
;	-7.44263
即是	-7.45784
將	-7.45896
世	-7.46156
水	-7.46498
王	-7.46509
不可	-7.46634
取	-7.46797
緣	-7.46808
吾	-7.47013
隨	-7.47219
汝	-7.4753
妙	-7.50587
住	-7.50723
離	-7.50935
功德	-7.51412
證	-7.51571
答	-7.51905
且	-7.52595
開	-7.53506
一念	-7.54255
六	-7.54375
顯	-7.5443
外	-7.54645
歸	-7.55059
語	-7.55216
智	-7.55324
須	-7.55693
色	-7.55757
稱	-7.56003
土	-7.56377
七	-7.56541
惡	-7.5674
聲	-7.56921
境	-7.57193
持	-7.57294
華	-7.57427
由	-7.57509
山	-7.57544
力	-7.57694
乃至	-7.5822
過	-7.58599
更	-7.58793
報	-7.59067
生死	-7.59576
圓	-7.59725
化	-7.59809
廣	-7.6032
夫	-7.6111
覺	-7.61157
悟	-7.61241
立	-7.61242
不知	-7.61565
會	-7.62388
合	-7.62942
▁南無	-7.63525
不得	-7.64263
清淨	-7.644
是故	-7.64481
斷	-7.64872
戒	-7.6518
況	-7.65493
遂	-7.65735
長	-7.65961
于	-7.66341
僧	-7.66779
一心	-7.6709
對	-7.67185
音	-7.67658
小	-7.67758
使	-7.67981
哉	-7.68042
凡	-7.68099
轉	-7.68152
指	-7.68269
數	-7.68645
攝	-7.6878
破	-7.6906
。「	-7.69132
還	-7.69343
居	-7.69441
莫	-7.69485
」	-7.69816
疑	-7.69825
識	-7.70103
學	-7.70683
易	-7.7078
照	-7.7117
記	-7.71305
滅	-7.71315
焉	-7.71694
所謂	-7.71715
度	-7.71777
八	-7.71963
所以	-7.72102
寶	-7.72384
法界	-7.72504
勸	-7.72751
俱	-7.72787
他	-7.72795
家	-7.73021
死	-7.74
餘	-7.7449
遠	-7.74543
猶	-7.7468
已	-7.75758
金	-7.75823
內	-7.75896
往	-7.75909
極	-7.7611
了	-7.76198
極樂	-7.76592
舉	-7.7669
修行	-7.76921
.	-7.77169
示	-7.77825
向	-7.78106
德	-7.78209
約	-7.78219
願往生	-7.7849
異	-7.7852
宗	-7.7885
坐	-7.79086
各	-7.79268
全	-7.7958
著	-7.79615
食	-7.79997
引	-7.80368
香	-7.80696
終	-7.81536
方便	-7.81664
惟	-7.81927
聖	-7.82096
位	-7.8243
如此	-7.82902
神	-7.83171
經云	-7.83214
兩	-7.834
少	-7.8391
好	-7.84629
光明	-7.84653
共	-7.85669
公	-7.87006
國	-7.8703
物	-7.87115
安	-7.8756
病	-7.87802
莊嚴	-7.89066
豈	-7.89125
口	-7.89301
禪	-7.89307
高	-7.89571
妄	-7.89885
傳	-7.89982
到	-7.90529
除	-7.9089
滿	-7.91131
萬	-7.91337
。△	-7.91381
總	-7.91595
海	-7.91658
感	-7.91838
年	-7.92208
悉	-7.92281
執	-7.92543
九	-7.93233
成就	-7.94273
風	-7.94318
捨	-7.94606
自然	-7.94753
讚	-7.94932
親	-7.95201
命	-7.9527
○	-7.95401
集	-7.95636
凡夫	-7.95916
直	-7.95943
月	-7.96058
屬	-7.96277
樹	-7.96602
種	-7.96627
根	-7.96654
止	-7.96817
尚	-7.9684
故云	-7.97052
流	-7.97416
故曰	-7.97458
法身	-7.97527
請	-7.9756
思	-7.97632
斯	-7.98489
始	-7.98987
之人	-7.99156
百	-7.99171
無量樂	-7.99281
益	-7.996
」「	-7.99633
三昧	-7.99953
而不	-8.00169
慧	-8.00563
書	-8.00616
十方	-8.00793
:「	-8.0119
情	-8.0157
蓋	-8.01606
見佛	-8.0172
字	-8.01821
迷	-8.02036
世界	-8.02203
臨終	-8.02456
就	-8.02706
千	-8.03217
娑婆	-8.03404
爾	-8.03917
動	-8.04268
失	-8.04642
利	-8.04652
喻	-8.04928
世間	-8.04935
禮	-8.05072
名為	-8.05359
法門	-8.05506
略	-8.05781
種種	-8.06129
不同	-8.06516
切	-8.06566
路	-8.06762
煩惱	-8.07333
大乘	-8.07646
徧	-8.07824
主	-8.08015
機	-8.08236
絕	-8.09247
以為	-8.09397
結	-8.09677
獨	-8.10141
西	-8.10546
魔	-8.10867
此經	-8.1118
愛	-8.11415
施	-8.12141
造	-8.12519
兼	-8.12881
?	-8.13115
蓮華	-8.13408
釋迦	-8.1363
邪	-8.13675
地獄	-8.14121
福	-8.14212
宜	-8.14462
舍利弗	-8.14515
因緣	-8.14755
頭	-8.15181
罪	-8.15519
具足	-8.16141
持名	-8.16575
又云	-8.16907
界	-8.17034
久	-8.1704
清	-8.17196
劫	-8.1812
足	-8.18521
夢	-8.18671
藏	-8.18713
號	-8.1879
目	-8.18941
說法	-8.19383
惑	-8.19561
火	-8.19893
云何	-8.2002
並	-8.20287
似	-8.20289
甚	-8.20295
手	-8.20465
功	-8.20555
供養	-8.20643
答曰	-8.21078
菩提	-8.21223
忽	-8.21411
究竟	-8.21573
普	-8.21581
壽	-8.21651
乘	-8.21674
間	-8.21897
之心	-8.21908
花	-8.2195
第一	-8.22
二者	-8.22768
解脫	-8.2298
形	-8.23305
佛法	-8.23453
習	-8.23567
念念	-8.23579
發願	-8.23722
一一	-8.23924
塵	-8.23977
首	-8.24884
專	-8.25189
此云	-8.2527
竟	-8.25628
輕	-8.25642
精進	-8.25983
母	-8.27133
三界	-8.27416
近	-8.27637
像	-8.27817
寺	-8.27919
衣	-8.2814
夜	-8.28302
達	-8.28323
古	-8.28549
問曰	-8.28719
自性	-8.28825
父母	-8.2893
淨業	-8.28999
眼	-8.29034
散	-8.29394
余	-8.29589
智慧	-8.29592
反	-8.30225
類	-8.30366
述	-8.3047
》	-8.30794
頓	-8.30835
氣	-8.31107
出家	-8.31152
老	-8.31474
障	-8.31843
一切眾生	-8.32202
元	-8.32224
現前	-8.32447
卷	-8.32723
序	-8.33096
雲	-8.33135
是也	-8.34197
以此	-8.34359
譬如	-8.3437
誠	-8.34391
:『	-8.34652
超	-8.3485
遇	-8.35221
面	-8.3541
白	-8.35516
故知	-8.35734
精	-8.35834
參	-8.35942
世尊	-8.36033
計	-8.36102
假	-8.36298
一心不亂	-8.36734
殺	-8.36866
微	-8.36956
一者	-8.37033
順	-8.37136
志	-8.37293
無生	-8.37312
一日	-8.37732
落	-8.37777
不生	-8.37857
弟子	-8.38113
因果	-8.38369
無有	-8.38501
早	-8.38557
遍	-8.38598
涅槃	-8.38621
獲	-8.39035
觀經	-8.39161
量	-8.39208
珠	-8.39523
成佛	-8.39535
存	-8.40001
齊	-8.40217
縱	-8.40271
期	-8.40596
和	-8.4068
行者	-8.41124
十念	-8.41129
進	-8.41654
脫	-8.41862
恐	-8.41886
望	-8.42266
加	-8.4232
靈	-8.42485
是為	-8.4266
。○	-8.42788
聲聞	-8.42911
永	-8.43117
自心	-8.43119
居士	-8.43391
《	-8.43633
諸法	-8.43808
致	-8.4383
決定	-8.44242
偏	-8.44424
皆是	-8.44657
墮	-8.44673
不信	-8.4496
敬	-8.44983
不離	-8.45253
之所	-8.45289
當知	-8.45562
每	-8.4638
石	-8.46397
不退	-8.46898
無邊	-8.47104
只	-8.47405
却	-8.47545
不見	-8.47823
被	-8.47934
無明	-8.47997
發心	-8.48101
登	-8.48748
忘	-8.48815
奉	-8.49054
如何	-8.4926
無不	-8.49574
消	-8.49601
華嚴	-8.4977
品	-8.50185
善根	-8.50311
慈	-8.50352
誰	-8.50452
誦	-8.50476
平	-8.50531
息	-8.5071
喜	-8.50806
聽	-8.50886
予	-8.50989
亂	-8.51172
法師	-8.51174
於此	-8.51272
之中	-8.51317
看	-8.51354
生淨土	-8.51458
速	-8.51509
第二	-8.51644
尊	-8.51767
東	-8.51899
據	-8.51928
葢	-8.52117
恒	-8.52391
禪師	-8.52547
人天	-8.52555
俗	-8.52611
辨	-8.53034
之法	-8.53158
增	-8.53242
最	-8.53427
。」【【	-8.53546
雜	-8.53558
句	-8.53618
蓮	-8.53808
尋	-8.53939
勿	-8.53948
比	-8.54335
佛言	-8.54354
若不	-8.54631
分別	-8.54745
幾	-8.54779
決	-8.54823
不可思議	-8.54916
告	-8.55224
再	-8.55407
彼佛	-8.55511
一生	-8.56148
念佛三昧	-8.56287
固	-8.5631
垂	-8.56511
漸	-8.56584
否	-8.56763
亡	-8.57096
故名	-8.57381
虗	-8.57643
實相	-8.57932
影	-8.58018
九品	-8.58081
七日	-8.58191
懺悔	-8.58492
染	-8.58663
得生	-8.58674
疾	-8.58791
身心	-8.58956
表	-8.59108
談	-8.59495
悲	-8.59701
虗空	-8.59753
備	-8.59917
寂	-8.59974
靜	-8.60703
平等	-8.60735
變	-8.61257
退	-8.61309
忍	-8.61634
真如	-8.61984
救	-8.62249
懷	-8.6239
三寶	-8.62479
道場	-8.62705
祖	-8.62784
翻	-8.62974
急	-8.63164
誓	-8.63378
世人	-8.63422
貪	-8.63618
二乘	-8.63661
咸	-8.63983
不取正覺	-8.64282
真實	-8.64458
不思議	-8.64722
自在	-8.64892
阿難	-8.65332
第三	-8.65632
國土	-8.65698
懺	-8.6581
一時	-8.65853
遊	-8.65869
境界	-8.65909
無所	-8.66107
發菩提心	-8.66157
裏	-8.66158
無礙	-8.66287
慈悲	-8.66441
偈	-8.66522
無盡	-8.66745
一句彌陀	-8.66792
宋	-8.66841
昔	-8.67084
君	-8.67333
穢	-8.6743
是以	-8.67461
池	-8.67808
放	-8.68189
積	-8.68211
設	-8.68479
何以故	-8.68488
大師	-8.68558
堂	-8.68606
章	-8.68855
權	-8.68859
然後	-8.69064
歡喜	-8.69223
亦無	-8.69292
興	-8.69688
鳥	-8.69797
般若	-8.69912
藥	-8.70045
▁|	-8.70213
交	-8.70223
城	-8.7027
收	-8.70464
關	-8.70562
三觀	-8.70604
并	-8.7071
都	-8.70713
法性	-8.7074
壞	-8.70836
細	-8.70912
勤	-8.71067
可以	-8.71097
嚴	-8.71218
讀	-8.71264
許	-8.71386
周	-8.71608
曾	-8.71669
亦不	-8.71872
女	-8.71925
休	-8.71968
七寶	-8.72121
妄想	-8.72193
密	-8.72206
雙	-8.72297
歷	-8.72307
簡	-8.72318
恩	-8.7248
詳	-8.7306
強	-8.73298
。』	-8.73504
畢	-8.73569
唯心	-8.73601
天台	-8.73765
比丘	-8.73799
特	-8.73811
例	-8.74047
此土	-8.74156
痛	-8.74228
大眾	-8.74607
棄	-8.74773
謂之	-8.74974
林	-8.74975
是名	-8.75117
唐	-8.75315
新	-8.75467
融	-8.75575
原	-8.75725
邊	-8.75965
載	-8.75987
陰	-8.76236
標	-8.76333
陳	-8.76373
三者	-8.76377
法華	-8.76966
淺	-8.76997
守	-8.77
氏	-8.77021
窮	-8.77027
今日	-8.77042
豈不	-8.77114
行人	-8.77126
判	-8.77325
宿	-8.77567
推	-8.77627
迴向	-8.78236
承	-8.78363
現在	-8.78666
趣	-8.788
列	-8.78801
純	-8.78915
利益	-8.79066
無常	-8.79228
臨命終時	-8.79252
春	-8.79446
可謂	-8.7947
那	-8.79786
臨	-8.79957
若人	-8.80281
末	-8.80673
容	-8.8077
幸	-8.80865
官	-8.80886
圓融	-8.80897
大小	-8.81042
徒	-8.81293
依正	-8.81422
歲	-8.81459
厭	-8.81484
濟	-8.81645
助	-8.81866
龍	-8.82129
愈	-8.8219
護	-8.82517
無非	-8.82571
味	-8.82775
待	-8.83328
經文	-8.83348
徹	-8.83353
至於	-8.83387
資	-8.83691
太	-8.84059
玉	-8.84411
殊	-8.84649
賢	-8.8479
回向	-8.84814
觀音	-8.8487
阿彌陀	-8.84883
三身	-8.84925
回	-8.84966
錄	-8.85052
朝	-8.85216
留	-8.85323
相應	-8.85543
廣大	-8.8565
願力	-8.85715
求生淨土	-8.85723
免	-8.85736
隱	-8.85814
愚	-8.85824
橫	-8.85898
此是	-8.85945
運	-8.86199
器	-8.8622
願共諸眾生往生安樂國	-8.86235
父	-8.8648
。】△	-8.86505
半	-8.86534
熟	-8.86662
張	-8.86684
文殊	-8.86686
之時	-8.86753
聖人	-8.86781
南	-8.8683
圖	-8.8709
出世	-8.87233
所說	-8.87333
視	-8.8743
堅	-8.87458
。」	-8.87878
輪	-8.88053
辯	-8.88283
悔	-8.88433
何以	-8.88479
豈非	-8.88549
同居	-8.8869
仍	-8.89147
彼國	-8.89147
沒	-8.89148
劣	-8.89612
極樂世界	-8.8987
含	-8.89972
接	-8.90115
亦有	-8.90199
仰	-8.90329
閒	-8.90471
鬼	-8.90575
飛	-8.90598
而巳	-8.90721
契	-8.90751
何故	-8.91006
血	-8.91095
治	-8.91146
茲	-8.91468
無相	-8.91645
投	-8.91709
覩	-8.91847
端	-8.92022
的	-8.92236
燈	-8.92255
鏡	-8.92257
逆	-8.92298
猶如	-8.92523
我今	-8.92763
次第	-8.92777
彼土	-8.92819
言之	-8.92844
害	-8.92934
一人	-8.93185
佛土	-8.93247
正念	-8.93315
之說	-8.93623
彰	-8.93669
譯	-8.93714
盛	-8.93919
上品	-8.94103
不如	-8.94182
蒙	-8.94284
美	-8.94464
蓮花	-8.94727
不出	-8.9476
覆	-8.94923
仁	-8.9499
輪迴	-8.95318
之理	-8.95444
預	-8.95445
雖有	-8.95592
良	-8.95845
纔	-8.95937
何況	-8.95945
舍	-8.96067
諸天	-8.96097
冥	-8.96119
無量壽佛	-8.96265
貴	-8.96346
宣	-8.96659
越	-8.96879
尤	-8.97311
善惡	-8.97383
小乘	-8.9781
安養	-8.97887
印	-8.97888
驗	-8.98058
無上	-8.981
臺	-8.9811
木	-8.98112
憂	-8.98152
節	-8.9818
提	-8.98351
參禪	-8.98385
代	-8.98686
名曰	-8.98729
幽	-8.98793
求生	-8.98852
聚	-8.99027
生滅	-8.9904
題	-8.99155
觸	-8.99177
名字	-8.99181
單	-8.99329
座	-8.99337
服	-8.99465
民	-8.99472
背	-8.99648
拜	-8.99775
亦復如是	-9.00175
科	-9.00383
遣	-9.00482
剎	-9.00549
魚	-9.00551
心性	-9.00727
傷	-9.00791
亦名	-9.01076
智者	-9.01106
分明	-9.01288
室	-9.01349
若能	-9.01384
外道	-9.01494
邪見	-9.01536
即得往生	-9.01686
念阿彌陀佛	-9.01985
互	-9.02046
伹	-9.02535
報身	-9.02572
淨穢	-9.02628
歎	-9.02688
信心	-9.02727
雨	-9.02817
寧	-9.02827
刻	-9.03009
隔	-9.03239
儒	-9.03397
底	-9.03709
辭	-9.0418
降	-9.04202
未來	-9.04633
伏	-9.04734
五濁	-9.04955
此心	-9.04987
神通	-9.0499
玄	-9.05348
其人	-9.05492
省	-9.05512
▁二	-9.05585
命終	-9.05666
任	-9.05723
之事	-9.05729
十二	-9.05868
諸經	-9.06045
旨	-9.06235
呼	-9.06335
三乘	-9.06364
波	-9.0655
大悲	-9.06611
供	-9.06731
幻	-9.06832
相好	-9.06913
拔	-9.0694
南無	-9.07018
頂	-9.07159
馬	-9.07395
亦可	-9.07478
生彼	-9.07496
佛身	-9.07684
一句	-9.07726
不二	-9.07727
微妙	-9.07791
寂光	-9.078
執持名號	-9.07807
接引	-9.07816
亦是	-9.08069
露	-9.08127
點	-9.08318
附	-9.08482
齋	-9.0853
養	-9.08674
所見	-9.0875
癡	-9.0887
途	-9.08874
其心	-9.09002
寒	-9.0901
改	-9.0904
違	-9.09044
顛倒	-9.09155
象	-9.09178
祇	-9.09266
晝夜	-9.0941
詩	-9.0949
客	-9.09671
逢	-9.09783
悉皆	-9.09801
羅	-9.09857
部	-9.0992
仙	-9.10019
士	-9.10242
舌	-9.1033
過去	-9.1047
無量壽	-9.10529
一切法	-9.10621
不為	-9.10746
眷屬	-9.10785
修習	-9.10893
西方淨土	-9.10913
濁	-9.11286
講	-9.11307
徑	-9.11359
導	-9.11407
第四	-9.11434
所有	-9.11487
壽命	-9.12142
四土	-9.12216
網	-9.12278
於是	-9.12291
觀想	-9.12328
此則	-9.12359
適	-9.12462
聞法	-9.1282
思惟	-9.12843
然則	-9.12869
錢	-9.12888
流通	-9.12934
阿	-9.1296
不必	-9.13139
之義	-9.13259
帝	-9.13274
唱	-9.13675
黃	-9.1383
質	-9.14029
制	-9.1403
名號	-9.14245
授	-9.14262
草	-9.14393
佛說	-9.14413
持戒	-9.14535
之言	-9.1457
尊者	-9.14639
金剛	-9.14677
迴	-9.14976
合掌	-9.15231
犯	-9.1541
置	-9.1544
羣	-9.15499
患	-9.15541
本無	-9.15729
正法	-9.15758
憶	-9.15758
日月	-9.1581
初心	-9.15888
「	-9.16013
暫	-9.16123
脩	-9.16261
謗	-9.16321
弘	-9.16342
天下	-9.16345
遺	-9.16475
究	-9.1651
可知	-9.16552
不斷	-9.16612
塔	-9.16638
無間	-9.16684
法藏	-9.16697
十方諸佛	-9.16911
顧	-9.17085
二種	-9.17169
富貴	-9.17197
礙	-9.17641
彌勒	-9.17651
念彌陀	-9.17761
安樂	-9.17833
舊	-9.17869
者也	-9.1852
信願	-9.18624
爾時	-9.18637
而為	-9.1866
佛性	-9.18703
惡業	-9.18816
諦	-9.18865
此等	-9.19193
敢	-9.19427
十六	-9.19541
毒	-9.19576
有二	-9.19632
有緣	-9.19886
呪	-9.19891
觀佛	-9.1995
牛	-9.19953
心中	-9.19971
肉	-9.20073
又如	-9.20142
圓滿	-9.20189
音聲	-9.20239
不動	-9.20275
大願	-9.20282
中道	-9.20342
若無	-9.20492
苟	-9.20714
誤	-9.20761
哀	-9.208
多少	-9.21049
玅	-9.21132
穢土	-9.21165
稱名	-9.21186
大士	-9.21454
逐	-9.21454
漢	-9.2149
啟	-9.21594
一心念佛	-9.21731
累	-9.21906
敘	-9.21927
沈	-9.21948
謝	-9.22013
生彼國	-9.2205
毀	-9.22147
步	-9.22414
觧	-9.22499
此方	-9.22507
慮	-9.22554
往生淨土	-9.22613
自巳	-9.22631
有情	-9.22637
支	-9.22821
孝	-9.22899
笑	-9.23011
事理	-9.231
女人	-9.23161
經中	-9.23181
骨	-9.23363
梵語	-9.23448
之後	-9.23477
懸	-9.23726
至心	-9.2374
我心	-9.23785
亦如是	-9.23879
夫人	-9.24024
謹	-9.24029
不妨	-9.242
辦	-9.24206
萬法	-9.24254
己	-9.24391
該	-9.2453
嘗	-9.24599
曉	-9.24795
有三	-9.24852
讚歎	-9.25171
差別	-9.2521
佛國	-9.25421
淨土法門	-9.255
葉	-9.25513
奇	-9.25604
建	-9.25722
怨	-9.2576
受持	-9.25792
此人	-9.26037
學者	-9.26161
臥	-9.26225
陽	-9.26254
倍	-9.26296
無量壽經	-9.26358
若有	-9.2649
律	-9.26552
而言	-9.26567
不覺	-9.26622
調	-9.26628
沉	-9.26672
舟	-9.27098
普賢	-9.27221
等者	-9.27238
天人	-9.27375
譬	-9.2747
揚	-9.27525
勞	-9.27561
終日	-9.27595
此身	-9.27731
摩	-9.2784
畜生	-9.28057
江	-9.28083
和尚	-9.28163
佛號	-9.28222
億	-9.28274
得往生	-9.28276
友	-9.2839
曲	-9.28397
不聞	-9.28478
畫	-9.286
苦海	-9.28654
之道	-9.2916
大本	-9.29224
盖	-9.29304
工夫	-9.29338
百年	-9.29646
而生	-9.29653
遙	-9.29663
秋	-9.29693
作佛	-9.29761
畢竟	-9.29849
某	-9.29944
無數	-9.29975
攝受	-9.30054
倒	-9.30075
堪	-9.3009
鐵	-9.30138
彌	-9.30143
禮拜	-9.30145
夏	-9.30256
舍利	-9.30276
如上	-9.30317
又曰	-9.30341
根本	-9.30486
車	-9.30492
州	-9.30623
虛	-9.30713
延	-9.30773
不淨	-9.30879
便是	-9.3097
未能	-9.31021
跡	-9.31129
繫	-9.3119
度生	-9.31249
財	-9.31251
古今	-9.31284
?」	-9.31424
頌	-9.31463
▁初	-9.31613
暗	-9.31648
兒	-9.3171
之外	-9.31711
一聲	-9.31719
本性	-9.31723
務	-9.31865
河	-9.31871
設我得佛	-9.32064
篇	-9.32091
不可得	-9.32214
甞	-9.32218
源	-9.32259
我等	-9.32426
梵	-9.32435
沙	-9.32547
此乃	-9.3264
故也	-9.32641
豈可	-9.3303
!	-9.33082
教人	-9.33394
恨	-9.33409
繁	-9.33457
昏	-9.33549
諸眾生	-9.33614
修淨土	-9.33624
他方	-9.33683
禪定	-9.33698
慕	-9.33885
修道	-9.33962
念佛者	-9.34059
布	-9.34101
託	-9.34297
深信	-9.34364
沙門	-9.34425
昧	-9.34486
北	-9.34647
諸菩薩	-9.34692
燒	-9.34715
肯	-9.34754
必須	-9.35088
西方極樂世界	-9.35293
今生	-9.35412
色身	-9.35611
本來	-9.35735
莫不	-9.35739
可見	-9.35832
誓願	-9.3596
青	-9.35975
初明	-9.3608
云云	-9.36096
樓	-9.36171
遭	-9.36205
禮佛	-9.36368
浮	-9.36383
十八	-9.36408
註	-9.36536
送	-9.36661
其中	-9.36665
迎	-9.36697
招	-9.36736
狂	-9.36828
際	-9.36834
樂邦	-9.37005
皆悉	-9.37124
釋曰	-9.37126
盜	-9.37144
有一	-9.37304
常住	-9.37395
稍	-9.37482
繫念	-9.37569
憶念	-9.37693
三世	-9.37696
孰	-9.37914
爭	-9.37931
是則	-9.38068
則無	-9.38109
善知識	-9.38158
圓教	-9.38169
游	-9.38182
局	-9.38212
佛剎	-9.38267
牽	-9.38312
追	-9.38631
素	-9.38641
統	-9.38679
三業	-9.38692
三塗	-9.387
四十八願	-9.38714
六根	-9.38833
果報	-9.38948
輩	-9.39094
五陰	-9.39138
冤	-9.39192
何處	-9.39252
隨緣	-9.39252
生者	-9.39502
性具	-9.39609
皆有	-9.3961
殺生	-9.39748
六道	-9.39806
注	-9.39824
汝等	-9.39847
東方	-9.39872
憑	-9.39885
贊	-9.39898
不成	-9.39917
一拜	-9.39992
恒沙	-9.40012
打	-9.40054
經論	-9.40065
弗	-9.40131
依報	-9.4038
迹	-9.40528
圓頓	-9.40541
不應	-9.40812
而無	-9.40862
不肯	-9.40916
走	-9.41155
本願	-9.41187
不過	-9.41216
相似	-9.41242
苦樂	-9.41386
三德	-9.41428
連	-9.41507
亦非	-9.41519
受用	-9.41527
船	-9.41553
悅	-9.41591
損	-9.41614
稽首	-9.41842
感應	-9.41846
福德	-9.41853
受苦	-9.42158
無窮	-9.4225
不然	-9.42432
十方世界	-9.42531
亦然	-9.42723
偈云	-9.42764
不敢	-9.42866
極樂國土	-9.42918
正報	-9.43038
帶	-9.43106
做	-9.43152
各有	-9.43226
八萬四千	-9.43233
四句	-9.43271
來迎	-9.43303
驚	-9.43351
活	-9.43662
歟	-9.43696
故言	-9.43707
演	-9.44008
刀	-9.44074
一佛	-9.44082
塵勞	-9.44284
百千	-9.44322
垢	-9.445
乞	-9.44608
一切諸佛	-9.44611
蛇	-9.44684
錯	-9.4482
化佛	-9.44912
博	-9.44977
寄	-9.45204
返	-9.45207
不是	-9.45287
更無	-9.45405
增長	-9.45468
無量無邊	-9.45519
獄	-9.45593
鼓	-9.45746
庶	-9.45761
惡道	-9.45835
寶樹	-9.45854
無為	-9.45867
揀	-9.45966
內外	-9.45981
不起	-9.46101
遵	-9.46177
之意	-9.46223
最勝	-9.4626
之相	-9.46283
三種	-9.46309
平生	-9.46426
飯	-9.46436
婆	-9.46441
信受	-9.46448
續	-9.46464
復有	-9.46539
處處	-9.46627
所作	-9.46634
負	-9.46705
知識	-9.46721
才	-9.46749
富	-9.46786
臣	-9.46927
祖師	-9.47019
萬行	-9.47061
幢	-9.47217
不住	-9.47246
響	-9.47254
是佛	-9.47309
下品	-9.47334
觀音勢至	-9.47351
何不	-9.47509
無別	-9.47523
相續	-9.4759
或有	-9.4761
殊勝	-9.47614
不識	-9.47644
堅固	-9.47683
差	-9.47846
儀	-9.47847
念佛法門	-9.47865
醒	-9.47882
屋	-9.47897
男女	-9.47972
非是	-9.48094
人間	-9.48111
虛空	-9.48116
修持	-9.48133
有何	-9.48197
三諦	-9.4823
中有	-9.48369
程	-9.48532
是知	-9.48541
無念	-9.4866
宮	-9.4867
二字	-9.48716
賢聖	-9.48782
隨意	-9.48909
唯有	-9.48921
典	-9.48926
一乘	-9.48987
四諦	-9.49009
詮	-9.49037
須知	-9.49091
階	-9.4925
慶	-9.49261
無漏	-9.49382
這	-9.49418
準	-9.49501
遮	-9.49524
一法	-9.49597
則知	-9.49645
廢	-9.497
麤	-9.49732
隨順	-9.49834
第	-9.49845
所居	-9.49847
時時	-9.49962
希	-9.5
惡人	-9.50063
條	-9.50069
二義	-9.50069
四種	-9.50089
群	-9.50232
纏	-9.50259
筆	-9.50381
豈有	-9.50404
之士	-9.50447
星	-9.50476
為人	-9.50495
必有	-9.50587
文字	-9.50659
不及	-9.50714
真心	-9.5072
薄	-9.51061
楞嚴	-9.5107
後世	-9.51144
不可以	-9.51178
布施	-9.51208
:	-9.51229
而有	-9.51361
六時	-9.51494
毛	-9.51531
從此	-9.51623
審	-9.51626
泥	-9.51678
粗	-9.51727
佛名	-9.51902
移	-9.51965
欣	-9.51974
須彌	-9.52027
涉	-9.5213
今經	-9.52141
天樂	-9.52179
考	-9.52183
淨土樂	-9.52411
之力	-9.5242
謬	-9.52529
前後	-9.52659
縛	-9.52744
孤	-9.52747
按	-9.52833
佛之	-9.52899
如斯	-9.5297
空中	-9.5313
話	-9.53329
黑	-9.53344
殿	-9.53391
四者	-9.53392
乖	-9.53439
業障	-9.53555
開示	-9.53765
至心歸命禮西方阿彌陀佛	-9.5381
較	-9.5384
同一	-9.53841
華開	-9.53863
酒	-9.53887
賊	-9.539
佛力	-9.53913
熱	-9.53916
寂滅	-9.5394
宏	-9.53943
歸依	-9.54016
稱讚	-9.5411
稱佛	-9.54159
護念	-9.5421
把	-9.54261
甚深	-9.54277
婬	-9.54367
而後	-9.54383
人之	-9.54505
乃是	-9.54508
訓	-9.54543
之類	-9.54721
念佛人	-9.54722
箇	-9.54788
飲	-9.54876
缺	-9.5507
三途	-9.55071
勢至	-9.55198
人人	-9.55363
之身	-9.55363
今初	-9.55465
見彌陀	-9.55476
不求	-9.55488
正因	-9.55505
補	-9.55596
右	-9.55671
陀	-9.5568
避	-9.5569
不用	-9.55697
疏云	-9.55711
之間	-9.55715
鳴	-9.55747
未嘗	-9.55813
念佛之人	-9.55825
萬德	-9.55907
四大	-9.56031
四教	-9.56109
二初	-9.56166
盈	-9.56245
應身	-9.56246
忙	-9.56265
喪	-9.56276
修淨業	-9.56279
天地	-9.56416
以上	-9.56502
一卷	-9.56677
之苦	-9.56684
受生	-9.56685
第五	-9.56781
紅	-9.56813
繼	-9.56859
本具	-9.56879
快樂	-9.56915
生佛	-9.56916
度眾生	-9.56945
巧	-9.57303
本覺	-9.57313
須臾	-9.57317
欲界	-9.57469
十界	-9.5762
未得	-9.57652
姓	-9.57668
有漏	-9.57674
人也	-9.57837
竊	-9.58009
古人	-9.58056
勸人	-9.5819
▁一心頂禮	-9.5823
亦云	-9.58395
三藏	-9.58508
趨	-9.58516
皆可	-9.58518
值	-9.5854
凡聖	-9.58577
晉	-9.58596
授記	-9.58688
未盡	-9.5869
淨土之	-9.58736
脚	-9.59013
閻浮	-9.5911
磨	-9.59138
乾	-9.59148
遲	-9.5915
不善	-9.59155
)。(	-9.59166
滅罪	-9.59176
徵	-9.5918
其義	-9.59348
自力	-9.59367
段	-9.59398
滯	-9.59519
保	-9.59534
自有	-9.59632
珍	-9.59776
默	-9.59849
永明	-9.59951
亦爾	-9.60136
孔子	-9.6019
各各	-9.60253
借	-9.60321
噫	-9.60435
無異	-9.60504
不須	-9.60516
之旨	-9.60568
正是	-9.60734
洞	-9.60754
慢	-9.60815
何為	-9.60898
直指	-9.60902
金色	-9.60912
行願	-9.60947
皇	-9.6099
閱	-9.6101
崇	-9.61011
奚	-9.61063
四字	-9.61121
十萬	-9.61157
論云	-9.61273
若是	-9.61274
准	-9.61403
往來	-9.61412
不異	-9.61434
不足	-9.61513
今人	-9.61547
三千	-9.61689
種子	-9.61701
阿彌陀經	-9.61793
岸	-9.618
聞者	-9.61897
未知	-9.61917
不受	-9.61987
大地	-9.62192
枝	-9.62283
正法樂	-9.62431
無我	-9.62457
然而	-9.62522
聖教	-9.62573
實報	-9.62602
禪宗	-9.6265
遠離	-9.62666
李	-9.62689
即此	-9.62701
阿彌	-9.62717
或曰	-9.62732
之名	-9.62836
化身	-9.62836
終身	-9.62895
蕩	-9.629
彌陀經	-9.62944
五百	-9.63129
三十	-9.63334
化生	-9.63363
短	-9.63388
又復	-9.63464
瞋	-9.63479
雷	-9.63533
又有	-9.63596
寫	-9.63654
以至	-9.63693
教主	-9.63774
赤	-9.63876
旋	-9.63921
申	-9.63946
虎	-9.64108
則有	-9.64119
鉢	-9.64121
何得	-9.64174
由是	-9.64237
猛	-9.64253
不定	-9.64272
二明	-9.64335
所修	-9.64382
得見	-9.64589
愧	-9.64713
有人	-9.64836
剎那	-9.65003
若有眾生	-9.65029
彌陀佛	-9.65115
下至	-9.65337
雪	-9.65366
顏	-9.65433
真諦	-9.65569
之境	-9.65606
第六	-9.65693
赴	-9.65768
無二	-9.65818
何者	-9.6594
緣起	-9.65952
黃金	-9.6604
殘	-9.66051
菴	-9.66055
減	-9.66064
不捨	-9.66067
執持	-9.66072
蓮池	-9.66116
飲食	-9.66128
聖賢	-9.66153
和合	-9.66269
限	-9.66311
於中	-9.66361
聖眾	-9.66501
認	-9.66503
努力	-9.66539
此理	-9.66586
十種	-9.66654
成正覺	-9.66903
善友	-9.66906
觀法	-9.66926
神力	-9.67134
放生	-9.67204
佛告	-9.67302
性體	-9.67315
即得	-9.67423
觀察	-9.67458
懼	-9.67568
如前	-9.67601
大海	-9.67604
佛道	-9.67618
抑	-9.67687
見阿彌陀佛	-9.67698
之功	-9.67725
十五	-9.67842
願我	-9.67919
而逝	-9.67974
其所	-9.68018
試	-9.68083
師曰	-9.68088
清涼	-9.68127
映	-9.68192
之處	-9.68275
孫	-9.68276
之有	-9.68328
而得	-9.68339
有大	-9.6834
用心	-9.68439
睡	-9.68472
鬼神	-9.68538
梁	-9.68623
編	-9.68675
責	-9.6868
察	-9.68754
寶池	-9.68893
得生淨土	-9.6899
不在	-9.69067
自他	-9.69091
勢	-9.69108
鄉	-9.69151
領	-9.69156
但能	-9.69204
上下	-9.69317
最為	-9.6932
愚癡	-9.69384
難信	-9.6942
專念	-9.69457
止觀	-9.69472
末法	-9.69531
為宗	-9.69543
不亂	-9.69552
在家	-9.69568
或云	-9.69725
社	-9.69746
萬劫	-9.69769
心不	-9.69865
胎	-9.69872
此中	-9.69877
此法	-9.69893
醫	-9.69946
藉	-9.70012
圓通	-9.70025
寬	-9.70034
不忘	-9.70412
第十	-9.70415
真空	-9.70786
皆得	-9.70892
里	-9.70912
此即	-9.70962
不退轉	-9.70973
善人	-9.71015
是人	-9.71025
閑	-9.71124
甘	-9.71175
生西方	-9.71199
晚	-9.71209
逃	-9.71218
煩	-9.7133
之語	-9.71598
是心	-9.71613
能令	-9.71647
惡趣	-9.71679
唯心淨土	-9.71699
十四	-9.71746
澄	-9.71855
大本云	-9.71897
田	-9.71952
釋迦如來	-9.72034
所得	-9.72044
妙法	-9.7206
衰	-9.72204
願生彼國	-9.72314
初地	-9.72406
總持	-9.72489
佛心	-9.72495
金臺	-9.72524
廬山	-9.72563
所證	-9.72593
三年	-9.72607
經言	-9.72627
觀行	-9.72666
無始	-9.72688
端坐	-9.7293
無心	-9.72992
每日	-9.73041
漏	-9.7308
生於	-9.7316
壇	-9.73212
不念	-9.73305
折	-9.7335
莫能	-9.73354
索	-9.73365
羅漢	-9.7337
枯	-9.73378
頗	-9.73404
墜	-9.73722
方能	-9.73726
專心	-9.7373
左	-9.73748
身土	-9.73755
死生	-9.73938
惱	-9.73952
侍	-9.74042
奪	-9.74061
嗚呼	-9.74064
可得	-9.7412
心外	-9.74302
卒	-9.74363
尼	-9.74408
彼此	-9.74532
無可	-9.74546
熏	-9.74597
仗	-9.74645
皆為	-9.74679
惜	-9.74686
禁	-9.74707
吳	-9.74748
補處	-9.74761
取捨	-9.74762
冷	-9.74768
此事	-9.74777
擬	-9.74823
菩提心	-9.74828
僅	-9.74829
復次	-9.74882
如是等	-9.74895
第九	-9.74957
長者	-9.74966
太子	-9.75034
得道	-9.7505
塵沙	-9.75071
眾苦	-9.75088
多生	-9.75092
現世	-9.75147
展轉	-9.75251
即生	-9.75318
升	-9.75438
嗔	-9.75457
召	-9.75482
韋提希	-9.75524
緩	-9.75528
人生	-9.7555
是心是佛	-9.75591
國王	-9.75631
假名	-9.75682
胡	-9.75725
誦經	-9.75793
生極樂	-9.75805
潔	-9.75856
何須	-9.75866
樓閣	-9.75889
觀之	-9.75917
釋迦牟尼佛	-9.75918
遠公	-9.75936
怖	-9.76023
實有	-9.76042
狀	-9.76078
六度	-9.76096
十六觀	-9.76149
毋	-9.76208
諱	-9.76208
真性	-9.7629
終不	-9.7631
千里	-9.76327
南無至心歸命禮西方阿彌陀佛	-9.76421
十一	-9.76468
非但	-9.76561
理事	-9.76653
未有	-9.76661
塗	-9.76693
愁	-9.76741
有此	-9.76766
國中	-9.76815
充	-9.76838
重罪	-9.76842
閣	-9.76856
房	-9.76865
有四	-9.76866
皮	-9.76899
詞	-9.76899
之體	-9.769
宛然	-9.76924
均	-9.76968
為之	-9.76987
建立	-9.77108
至誠	-9.7711
令其	-9.77159
戀	-9.7721
若言	-9.77214
觀經云	-9.77231
私	-9.77271
當來	-9.77326
心境	-9.77337
法音	-9.774
心念	-9.77437
朗	-9.77514
鈍根	-9.77544
你	-9.77595
園	-9.77607
本師	-9.77621
N	-9.77637
o	-9.77638
不修	-9.77746
遷	-9.77808
五欲	-9.78053
不著	-9.78322
鼻	-9.78334
闡	-9.78347
披	-9.78354
獻	-9.78391
寸	-9.7842
全體	-9.78597
正好念佛	-9.78637
能所	-9.78736
盲	-9.78756
今此	-9.78781
無益	-9.7891
貫	-9.78931
所言	-9.79014
冬	-9.79029
伴	-9.7903
洗	-9.79037
斥	-9.79065
故名為	-9.79065
歌	-9.79073
烏	-9.79082
如人	-9.79094
微塵	-9.79137
之行	-9.79147
▁三	-9.79229
第八	-9.79261
出離	-9.79399
儞	-9.79416
此言	-9.79437
融通	-9.79477
諸佛菩薩	-9.79508
即佛	-9.79535
暮	-9.79542
院	-9.79605
弟	-9.79652
嘉	-9.79749
掌	-9.79753
龍樹	-9.79764
天竺	-9.79776
於佛	-9.79786
散亂	-9.79797
湯	-9.79798
俾	-9.798
不論	-9.7981
䇿	-9.79944
五者	-9.80051
初釋	-9.80117
擇	-9.80146
娑婆世界	-9.80165
往生者	-9.80176
有所	-9.80402
所生	-9.80464
髮	-9.80485
擊	-9.80546
輒	-9.80553
夢中	-9.80558
畏	-9.80564
二十	-9.80578
蓮社	-9.8058
同歸	-9.80614
所以者何	-9.80626
正覺	-9.8087
疏鈔	-9.80898
不可說	-9.80905
了知	-9.80947
惟心	-9.81042
應知	-9.81163
偶	-9.81198
示現	-9.81227
楊	-9.81251
法王	-9.81271
夙	-9.81271
溺	-9.81278
知其	-9.81301
方等	-9.8136
或問	-9.81451
之際	-9.81451
非一	-9.81453
所願	-9.81625
決定往生	-9.81627
兜率	-9.81641
不言	-9.81746
焚	-9.81864
議	-9.81901
景	-9.81971
尺	-9.81988
是非	-9.82047
以其	-9.82051
選	-9.82081
一經	-9.82115
心淨	-9.8213
是心作佛	-9.82198
佛所	-9.82353
妄心	-9.82406
撰	-9.8245
大聖	-9.82471
之樂	-9.82559
偽	-9.82568
雖然	-9.82629
正信	-9.82721
透	-9.82763
禍	-9.82777
飾	-9.82782
更有	-9.82843
雲棲	-9.82862
有無	-9.82867
有二種	-9.82883
若欲	-9.82887
未必	-9.829
亦復	-9.83012
上品上生	-9.8312
無上菩提	-9.8314
術	-9.83171
圓成	-9.83179
光照	-9.83292
豈能	-9.83337
四明	-9.83344
十地	-9.83429
心心	-9.83432
瑠璃	-9.83447
令人	-9.83462
詣	-9.83527
怒	-9.83572
繇	-9.836
佛告阿難	-9.83615
威	-9.83762
不變	-9.83911
平日	-9.83913
三教	-9.84087
歷劫	-9.84184
不復	-9.84237
十三	-9.84247
酬	-9.84308
餓鬼	-9.84317
勉	-9.84321
秪	-9.84326
願生	-9.84332
康	-9.84346
管	-9.84351
危	-9.84358
不礙	-9.84401
南無阿彌陀佛	-9.84459
眾等	-9.84573
別教	-9.84581
不了	-9.84656
十惡	-9.8468
觀世音菩薩	-9.84748
未曾	-9.84783
童	-9.84859
一處	-9.84964
般舟三昧樂	-9.84999
向西	-9.85055
之內	-9.85071
此二	-9.85073
何謂	-9.85081
奏	-9.85103
着	-9.85131
濫	-9.85143
貧	-9.85192
發起	-9.85212
有餘	-9.85219
善導	-9.85238
不滅	-9.85252
第七	-9.85264
恭敬	-9.8549
多劫	-9.85593
險	-9.85709
其餘	-9.85779
闕	-9.85924
正行	-9.86056
頂禮	-9.86112
若此	-9.86133
停	-9.86276
傾	-9.86338
下文	-9.86339
現身	-9.86477
自利	-9.86521
亦得	-9.86549
偈曰	-9.86564
竹	-9.86662
秦	-9.86674
防	-9.86678
稟	-9.86714
倘	-9.86796
方得	-9.86797
高下	-9.86945
之徒	-9.86961
重重	-9.8698
二釋	-9.87121
何必	-9.87125
頃	-9.87134
燭	-9.87157
賴	-9.87389
拘	-9.87396
老人	-9.8741
勇猛	-9.87424
泯	-9.8744
割	-9.87444
淚	-9.87464
托	-9.87486
怪	-9.87488
何等	-9.87494
其有	-9.87495
冰	-9.8752
火宅	-9.87535
佛教	-9.8755
八萬	-9.87772
誡	-9.8778
隨其	-9.87783
嘆	-9.87827
是我	-9.8786
克	-9.87888
不壞	-9.87939
以來	-9.8802
大事	-9.88131
之因	-9.88138
忻	-9.88237
促	-9.88279
五逆	-9.88285
侵	-9.88294
苦惱	-9.88714
法華經	-9.88815
深心	-9.88859
教化	-9.89006
為善	-9.89012
戶	-9.89014
紙	-9.89061
說誠實言	-9.89096
二句	-9.89115
答云	-9.89124
覓	-9.89151
測	-9.89236
中初	-9.8938
良以	-9.89422
即心	-9.89426
其身	-9.89516
亦如	-9.89618
願生淨土	-9.8963
後學	-9.89696
乳	-9.8973
琉璃	-9.89813
塞	-9.8992
目連	-9.89958
混	-9.89972
臂	-9.90039
熾然	-9.90046
而說	-9.90083
行道	-9.90147
萬物	-9.90314
營	-9.90378
鈍	-9.9044
付	-9.90542
何如	-9.90562
包	-9.90636
浪	-9.90703
而成	-9.90716
韋提	-9.90739
毗	-9.90775
成道	-9.90899
遠近	-9.9095
一體	-9.90984
心無	-9.90984
先生	-9.90991
不盡	-9.91006
效	-9.91016
外無	-9.9102
一切諸佛所護念經	-9.91046
阿羅漢	-9.91058
䟦	-9.91112
念者	-9.91144
之大	-9.91164
色界	-9.91221
佛祖	-9.91325
見聞	-9.91329
魂	-9.91461
閉	-9.91464
任運	-9.91496
師子	-9.91497
不達	-9.91504
淨心	-9.91512
鄙	-9.9157
瞻	-9.91595
普勸	-9.91634
不思	-9.91642
安得	-9.91653
思量	-9.91712
別有	-9.91797
之文	-9.91862
資糧	-9.91897
始終	-9.91919
自身	-9.91969
之地	-9.91997
為此	-9.92054
法中	-9.9212
在此	-9.9213
放下	-9.92145
喚	-9.9224
校	-9.92265
行住坐臥	-9.92402
配	-9.92436
六字	-9.92507
墮落	-9.92542
千萬	-9.92626
三日	-9.92637
下明	-9.92806
無作	-9.9281
奈何	-9.92863
圓覺	-9.92907
只要	-9.9292
中之	-9.93062
弊	-9.93174
善男子	-9.93182
善業	-9.93194
法界眾生	-9.93198
扶	-9.9321
十聲	-9.93217
植	-9.93218
嫌	-9.93266
非真	-9.93291
二門	-9.93292
三聖	-9.93325
男	-9.93536
作是	-9.93592
經行	-9.93612
彌陀願力	-9.93703
三十二相	-9.93727
迦葉	-9.93729
如意	-9.9393
此之	-9.93933
波羅蜜	-9.93956
隨機	-9.93967
華嚴經	-9.94033
班	-9.94037
誘	-9.94039
冀	-9.94062
倚	-9.94089
隨喜	-9.9409
他人	-9.94225
不明	-9.94236
左右	-9.94246
第一義	-9.9427
觀心	-9.94301
目前	-9.94306
又舍利弗	-9.94391
去來	-9.94455
不絕	-9.94485
旦	-9.94539
腹	-9.94571
諸惡	-9.94575
及諸	-9.94613
快	-9.94648
三品	-9.94705
福報	-9.94721
佛事	-9.94738
蘇	-9.94769
唯識	-9.9477
見之	-9.94787
囑	-9.94867
哭	-9.94908
二邊	-9.94913
飢	-9.94929
牀	-9.94945
不假	-9.94959
縣	-9.94968
學道	-9.9501
一身	-9.95136
願行	-9.95155
是真	-9.95168
若非	-9.95169
理性	-9.95349
與佛	-9.95361
之門	-9.95414
厭離	-9.95447
憐	-9.95581
蔽	-9.95762
不免	-9.95786
渡	-9.95817
空寂	-9.95836
三明	-9.95904
導師	-9.95951
欺	-9.95975
不待	-9.95997
不許	-9.9603
八十	-9.96091
一切諸法	-9.96148
則不	-9.9617
則是	-9.96307
為我	-9.96396
思之	-9.96401
不以	-9.9643
山居	-9.96461
讀誦	-9.96507
正觀	-9.96529
罪業	-9.96545
丈六	-9.96546
因此	-9.96561
棲	-9.9658
武	-9.96627
換	-9.96667
如是等恒河沙數諸佛	-9.96673
故有	-9.96767
十信	-9.96795
四眾	-9.96833
一念彌陀	-9.96854
淨宗	-9.97064
今以	-9.9708
修淨業者	-9.97145
大道	-9.9721
同時	-9.97226
振	-9.97233
胎生	-9.97237
無餘	-9.9724
修證	-9.97288
一字	-9.97373
所觀	-9.97378
之妙	-9.97391
三毒	-9.9743
馳	-9.97432
谷	-9.97433
之教	-9.97447
兮	-9.97496
▁【	-9.97511
懈怠	-9.97521
履	-9.97532
五十	-9.97535
旁	-9.97551
兵	-9.97555
吐	-9.97571
一日一夜	-9.97574
野	-9.97574
場	-9.97596
變化	-9.9761
聲聲	-9.97676
日夜	-9.97737
而去	-9.97793
所成	-9.97796
排	-9.97835
淺深	-9.97851
前世	-9.97918
祈	-9.97919
得聞	-9.97932
無所不	-9.97955
莊	-9.98014
倫	-9.98093
修觀	-9.98146
寶華	-9.98238
歇	-9.98239
闇	-9.98387
臭	-9.98388
甘露	-9.98415
以是	-9.98443
皆由	-9.98479
日日	-9.98525
如來藏	-9.98605
軌	-9.98611
是謂	-9.98678
又問	-9.98691
之極	-9.98717
妙觀	-9.9872
十善	-9.98774
魏	-9.98774
為一	-9.98832
利根	-9.9886
佛者	-9.98891
攝心	-9.9891
但以	-9.98951
逼	-9.99154
不容	-9.99163
希有	-9.99225
族	-9.99274
渠	-9.99276
見思	-9.99285
若不爾者	-9.9935
考證	-9.99493
妙覺	-9.99548
性德	-9.99556
篤	-9.99727
其實	-9.99727
一行	-9.99734
之曰	-9.99853
嗟	-10.0002
迦	-10.0002
只是	-10.0007
道俗	-10.001
圓明	-10.0011
互相	-10.0014
殃	-10.002
齒	-10.002
一曰	-10.0022
抱	-10.0024
竪	-10.0024
人民	-10.0025
之佛	-10.0039
但有	-10.0043
實無	-10.0053
侶	-10.0069
放光	-10.0074
誑	-10.0074
諸人	-10.0074
當念	-10.0079
定慧	-10.0084
心者	-10.0085
欲令	-10.0086
童子	-10.0086
一向	-10.0089
五道	-10.0089
厚	-10.009
自性彌陀	-10.0094
榮	-10.0096
算	-10.0107
起信	-10.0108
應當	-10.0114
威儀	-10.0114
刊	-10.0114
匪	-10.0115
優	-10.0115
求生西方	-10.0128
皆從	-10.0139
中間	-10.0143
中下	-10.0149
有佛	-10.015
委	-10.0156
峯	-10.0161
花開	-10.017
率	-10.0178
一塵	-10.0179
訣	-10.0185
大慈悲	-10.0186
泉	-10.0196
衣食	-10.0196
宅	-10.0198
兄	-10.0201
氷	-10.0203
潛	-10.0205
覽	-10.0206
感應道交	-10.0206
性空	-10.0208
方知	-10.0212
道品	-10.0215
稱性	-10.0223
若我成佛	-10.0228
光陰	-10.0229
無知	-10.0237
念佛往生	-10.0238
課	-10.024
此三	-10.0241
有異	-10.0247
光佛	-10.0258
災	-10.027
面西	-10.0273
紫	-10.0274
頻	-10.0285
角	-10.0291
費	-10.0292
灰	-10.0293
翁	-10.0293
紀	-10.0296
猶未	-10.0297
淫	-10.0297
井	-10.0298
符	-10.0299
功行	-10.03
佛語	-10.0302
吞	-10.0302
一門	-10.0304
中說	-10.0316
無障礙	-10.0317
生處	-10.0328
人中	-10.0332
由此	-10.0339
焚香	-10.0345
生安養	-10.0347
唯願	-10.0348
於彼	-10.035
專修	-10.0359
洪	-10.0363
其事	-10.0369
疑惑	-10.0373
所感	-10.0375
孔	-10.0379
仲	-10.0385
完	-10.0387
壁	-10.0387
豎	-10.0388
聖凡	-10.039
本有	-10.0397
無畏	-10.0401
蓮宗	-10.041
一生補處	-10.0411
欲得	-10.0417
知見	-10.0422
病苦	-10.0423
發明	-10.0438
文中	-10.045
而化	-10.0451
未免	-10.0454
念佛門	-10.0466
至今	-10.047
了義	-10.0474
君子	-10.0475
逝	-10.0476
願者	-10.0476
工	-10.0482
敗	-10.0486
所攝	-10.0487
消滅	-10.0491
行樹	-10.0492
天宮	-10.0493
所能	-10.0495
彼佛國土	-10.0502
義也	-10.0506
下二句	-10.0506
不失	-10.0509
最後	-10.0515
問答	-10.0519
良由	-10.052
其意	-10.0521
一心三觀	-10.0526
然此	-10.0526
身後	-10.0531
峰	-10.0539
何也	-10.0544
毫	-10.0547
性量	-10.0555
今之	-10.0561
三輩	-10.0565
心生	-10.057
勇	-10.0578
世之	-10.0579
麗	-10.0581
淨土一門	-10.0583
法也	-10.0586
大慈	-10.0592
出廣長舌相	-10.0592
佛前	-10.0595
新疏	-10.0595
愚人	-10.0604
未甞	-10.0612
修善	-10.0612
頓悟	-10.0613
禮懺	-10.0615
即有	-10.0622
絲	-10.0622
二土	-10.0631
歸命	-10.0636
而復	-10.0647
彩	-10.0659
證明	-10.0661
今世	-10.0661
坐禪	-10.0665
姑	-10.0673
慈心	-10.0674
政	-10.0675
雅	-10.0676
優劣	-10.0678
惠	-10.0678
傍	-10.0678
滅度	-10.0679
參究	-10.0685
見佛聞法	-10.0699
無定	-10.0703
汝等眾生	-10.0708
冠	-10.0715
虗妄	-10.0718
壽命無量	-10.0724
即空	-10.0729
可不	-10.0732
善法	-10.0733
諸師	-10.0739
其言	-10.074
相即	-10.0744
恭	-10.0747
本自	-10.0749
枉	-10.0753
利他	-10.0764
丹	-10.0767
訪	-10.0768
司	-10.0768
盤	-10.0772
享	-10.0774
古云	-10.0779
寂靜	-10.0789
修羅	-10.0798
菩薩摩訶薩	-10.0811
九界	-10.0813
發願往生	-10.0818
二經	-10.082
畜	-10.0837
拈	-10.0844
軍	-10.0846
他力	-10.0847
王佛	-10.0861
遇善知識	-10.0861
眉	-10.0862
爛	-10.0867
雞	-10.0869
庵	-10.0869
i	-10.0874
<	-10.0874
:>	-10.0874
m	-10.0874
修福	-10.0874
g	-10.0875
佛果	-10.0878
箭	-10.0881
為體	-10.0886
諦觀	-10.0896
持誦	-10.0901
念力	-10.0904
勤修	-10.0905
聞名	-10.0905
宗門	-10.0905
無能	-10.0907
自見	-10.0915
出入	-10.0942
薉	-10.0943
若論	-10.0955
名之為	-10.0958
昇	-10.0969
穀	-10.097
天眼	-10.097
蟲	-10.097
眠	-10.0971
豐	-10.0971
天上	-10.0974
暢	-10.0976
御	-10.0977
閻浮提	-10.0979
為本	-10.0988
蓮邦	-10.0989
對曰	-10.0997
忽然	-10.1001
明矣	-10.101
如幻	-10.1011
此義	-10.1012
妄語	-10.1015
此為	-10.102
不易	-10.1033
進修	-10.1045
大覺	-10.1047
洲	-10.1055
競	-10.1059
賜	-10.1061
屠	-10.1063
盡未來際	-10.1067
佛像	-10.108
出三界	-10.1085
明了	-10.1088
愍	-10.1108
往西方	-10.111
之日	-10.1115
豈得	-10.1117
我佛	-10.1118
警	-10.113
所明	-10.113
風吹	-10.1153
流轉	-10.1154
妄念	-10.1156
諸上善人	-10.1157
震	-10.1165
五體投地	-10.1172
無復	-10.1175
彈指	-10.1177
微細	-10.1182
第一義諦	-10.1182
入道	-10.1186
故以	-10.1188
宮殿	-10.1193
呵	-10.1203
輪轉	-10.1204
之本	-10.1206
個	-10.121
既無	-10.1211
學人	-10.1225
聞之	-10.1227
眾生心	-10.1227
諸行	-10.1235
妻	-10.1235
未悟	-10.1242
四十	-10.1242
將來	-10.1249
渾	-10.1249
困	-10.1255
作禮	-10.1262
屈	-10.1272
軀	-10.1273
謹按	-10.1273
潤	-10.1274
。」【△	-10.1275
眾善	-10.129
福慧	-10.1296
而非	-10.1296
長劫	-10.1305
所現	-10.1306
不相	-10.1309
婦	-10.1311
要知	-10.1323
十六觀經	-10.1327
無量光	-10.1328
虧	-10.1329
而能	-10.1331
片	-10.1332
何人	-10.1344
凝	-10.1355
六十	-10.1368
溪	-10.1369
四十八	-10.1373
沈淪	-10.1376
甚多	-10.1378
東林	-10.1383
明佛	-10.1389
即今	-10.1391
事相	-10.1408
到此	-10.1415
住處	-10.1424
信解	-10.1433
苦行	-10.1438
難成	-10.1443
敷	-10.1454
地上	-10.1455
造業	-10.1456
幼	-10.146
一如	-10.146
不疑	-10.1462
顯現	-10.1467
松	-10.1473
夷	-10.1477
弱	-10.1478
二菩薩	-10.148
三千大千世界	-10.1482
有二義	-10.1493
二人	-10.1494
尚不	-10.1496
言訖	-10.1496
彼岸	-10.1499
一云	-10.15
如水	-10.1501
一千	-10.1509
西向	-10.1514
巳上	-10.1514
撥	-10.1514
供佛	-10.1517
身子	-10.1525
慚愧	-10.153
解釋	-10.1535
無一	-10.154
為因	-10.154
直至	-10.1543
尋常	-10.1551
所詮	-10.1553
若以	-10.1564
二曰	-10.157
此翻	-10.1571
涅槃經	-10.1573
佛光	-10.1575
名相	-10.1576
繩	-10.158
竭	-10.158
束	-10.158
狹	-10.1584
繞	-10.1585
蓮華化生	-10.1592
為說	-10.1592
總是	-10.1593
吹	-10.1599
之要	-10.16
不但	-10.1608
故能	-10.1626
不忍	-10.1628
十年	-10.1631
至此	-10.1637
十劫	-10.1642
魔事	-10.165
又言	-10.1656
陀羅尼	-10.1661
即為	-10.1676
五戒	-10.168
決疑	-10.1682
度脫	-10.1687
逍遙	-10.1687
檀	-10.1688
十九	-10.1689
勵	-10.1689
謀	-10.1691
案	-10.1691
是經	-10.1693
剖	-10.1694
訶	-10.1695
祗	-10.1695
逸	-10.1695
銷	-10.1696
不生不滅	-10.1698
麁	-10.1698
衣服	-10.1698
無事	-10.1699
敵	-10.1699
昔有	-10.1702
長短	-10.1702
六塵	-10.1704
而修	-10.1707
佛界	-10.1708
而不能	-10.1709
度人	-10.1729
同體	-10.1731
性相	-10.1733
在世	-10.1738
前三	-10.174
此皆	-10.1741
皆以	-10.1741
有五	-10.1743
瓶	-10.1757
俗諦	-10.1759
一句阿彌陀	-10.1767
故須	-10.1768
了生死	-10.1776
八識	-10.1778
能知	-10.178
津	-10.1786
蘊	-10.1789
勸信	-10.179
巨	-10.1791
今時	-10.1792
祭	-10.1795
聖道	-10.1797
卻	-10.1798
係	-10.1798
陷	-10.18
我作佛時	-10.1803
窺	-10.1804
淨土者	-10.1809
不曾	-10.1809
湛然	-10.1809
此文	-10.181
不虗	-10.181
口業	-10.181
憫	-10.1816
修因	-10.1826
專心念佛	-10.1836
明日	-10.1849
不得往生	-10.1851
釋迦佛	-10.1856
記數	-10.186
間斷	-10.186
喻如	-10.1866
之業	-10.1867
嚴淨	-10.1872
但知	-10.1873
得不退轉	-10.1874
行之	-10.1878
泛	-10.1879
通達	-10.1883
次釋	-10.1893
證入	-10.1896
百億	-10.1897
聞說	-10.1897
鮮	-10.1897
難思	-10.1899
得見佛	-10.1901
恣	-10.1902
床	-10.1906
勝劣	-10.1906
飽	-10.1907
不來	-10.1908
隋	-10.1908
買	-10.1909
心體	-10.191
逾	-10.1912
圍	-10.1914
法藏比丘	-10.1916
心想	-10.1922
邦	-10.1926
大千	-10.1933
雖不	-10.1934
為大	-10.1935
對治	-10.1935
念佛時	-10.1936
東西	-10.1936
精神	-10.1937
未聞	-10.1938
域	-10.1949
所聞	-10.1951
白佛言	-10.1955
瓔珞	-10.196
不久	-10.1966
在心	-10.1966
所云	-10.1969
語言	-10.1974
大勢至	-10.198
不遠	-10.1985
午	-10.1997
正見	-10.2
此法門	-10.2005
往往	-10.2009
巖	-10.2013
言其	-10.2017
杜	-10.2019
中國	-10.2019
戰	-10.202
自是	-10.202
破戒	-10.2025
何所	-10.2034
本空	-10.2045
確	-10.2056
罪人	-10.2059
四方	-10.206
藏教	-10.206
之為	-10.2062
一劫	-10.2073
汝今	-10.2073
諸大菩薩	-10.2075
愆	-10.2077
無論	-10.2079
六方	-10.2079
既是	-10.208
當生	-10.2081
西方極樂	-10.2083
墮地獄	-10.2091
無人	-10.2095
蓮臺	-10.21
佛也	-10.2101
佛為	-10.2102
輪王	-10.2106
但是	-10.2121
陵	-10.2123
炎	-10.2124
隨心	-10.2127
拋	-10.2128
饑	-10.2128
日用	-10.2129
疎	-10.213
我身	-10.2131
不得生	-10.2133
光中	-10.2137
聰明	-10.214
一切智	-10.2144
始知	-10.2146
況復	-10.2146
能生	-10.2147
報恩	-10.215
慎	-10.2151
戒殺	-10.2167
極樂國	-10.2168
理一心	-10.2181
我以	-10.2182
心佛	-10.2188
子孫	-10.219
作此	-10.219
音樂	-10.2191
徃生	-10.2194
何用	-10.2199
因地	-10.2201
人心	-10.2202
果能	-10.2204
寡	-10.2213
他佛	-10.2213
威神	-10.2213
萬里	-10.2221
觀世音	-10.2224
不一	-10.2225
夕	-10.2233
劉	-10.2237
規	-10.2237
禱	-10.2238
鸞	-10.2239
晝	-10.2241
成佛道	-10.2241
大藏	-10.2242
百千萬億	-10.2243
竝	-10.2245
演說	-10.2246
達磨	-10.2247
正宗	-10.2247
真佛	-10.2249
勸修	-10.2252
諸聖	-10.2255
殷勤	-10.2256
誦彌陀經	-10.2257
十疑論	-10.2268
來生	-10.2272
假使	-10.2275
全是	-10.229
往生之	-10.2292
一旦	-10.2295
其理	-10.2301
慚	-10.2313
之謂也	-10.2315
昭	-10.2316
大智	-10.2317
華臺	-10.2325
入地獄	-10.233
猶有	-10.2331
所造	-10.2331
食肉	-10.2334
銀	-10.2345
最上	-10.2346
晨	-10.2346
京	-10.2347
南方	-10.2348
觀也	-10.2348
怠	-10.2352
澤	-10.2353
薦	-10.2353
十法界	-10.2354
漫	-10.2354
併	-10.2354
荒	-10.2356
納	-10.2357
故得	-10.236
之罪	-10.236
皆得往生	-10.2362
觀門	-10.2364
。】「【	-10.2367
以前	-10.2369
由旬	-10.2385
非謂	-10.2385
稱理	-10.2395
何則	-10.2397
法忍	-10.2398
香華	-10.2406
而自	-10.2408
為惡	-10.2409
綱	-10.2414
水火	-10.2421
造罪	-10.2422
正明	-10.2424
而求	-10.2434
眾寶	-10.2435
心地	-10.2436
若依	-10.244
緣覺	-10.244
而來	-10.2443
人身	-10.2446
非不	-10.245
或為	-10.2452
忠	-10.2453
吉	-10.246
膝	-10.2466
債	-10.2468
採	-10.2469
暴	-10.2471
頃刻	-10.2472
荷	-10.2473
凡有	-10.2476
淨國	-10.2476
沙彌	-10.2476
權實	-10.2477
嗟乎	-10.2487
為僧	-10.2493
久之	-10.2494
五濁惡世	-10.2509
生信	-10.2516
至極	-10.2517
金口	-10.2519
戲	-10.2521
業識	-10.2524
修淨土者	-10.2524
須彌山	-10.2525
妨	-10.2528
信者	-10.2529
珍寶	-10.2542
彼經	-10.2543
了了	-10.2548
而論	-10.2557
瑞	-10.2559
干	-10.2562
庭	-10.2565
散心	-10.2566
如今	-10.2568
輕重	-10.2568
異香	-10.2576
道者	-10.2576
賓	-10.2583
佛子	-10.2583
卑	-10.2587
席	-10.2588
圍繞	-10.2588
層	-10.2589
稱念	-10.2589
所念之佛	-10.2591
分身	-10.2608
始覺	-10.2608
能觀	-10.2609
故經云	-10.261
經說	-10.2614
慈恩	-10.2617
如佛	-10.2619
般	-10.2622
障礙	-10.2623
何能	-10.2629
六祖	-10.2637
謗法	-10.2639
者乎	-10.2645
相違	-10.2647
無由	-10.2647
始得	-10.2652
華嚴經云	-10.2657
事一心	-10.2662
之宗	-10.2669
其國	-10.267
此時	-10.2675
論曰	-10.268
慈父	-10.2681
辯才	-10.2683
淵	-10.2685
誨	-10.2695
產	-10.2697
等也	-10.27
遽	-10.27
身相	-10.2701
鐘	-10.2701
辰	-10.2702
屢	-10.2702
埋	-10.2703
肩	-10.2704
籠	-10.2704
自利利他	-10.2706
此書	-10.2706
黨	-10.2707
起信論	-10.271
因中	-10.2712
念念相續	-10.2713
宗旨	-10.2713
開悟	-10.2717
通教	-10.2722
天王	-10.2732
耳根	-10.2733
若約	-10.2736
此一	-10.274
歸淨土	-10.2744
自慶	-10.2749
今言	-10.275
當信是稱讚不可思議功德	-10.275
及以	-10.2751
聲聞緣覺	-10.2756
雖是	-10.2757
羊	-10.276
所為	-10.2765
十萬億	-10.2776
此意	-10.2784
天如	-10.2786
諍	-10.2791
天華	-10.2794
乃至十念	-10.2794
丈	-10.2795
色相	-10.2795
頑	-10.2796
則為	-10.2797
盡是	-10.2804
循	-10.2805
川	-10.2809
煙	-10.2811
王子	-10.2814
伽	-10.2814
罔	-10.2817
忍辱	-10.2823
輪回	-10.2824
悠悠	-10.2833
有三種	-10.2835
心不顛倒	-10.2841
一言	-10.2842
方可	-10.2852
佛智	-10.2853
造惡	-10.2853
末世	-10.2854
通別	-10.286
碧	-10.2868
利鈍	-10.2869
障重	-10.2869
大心	-10.2871
南無西方極樂世界	-10.2871
迷悟	-10.2872
不立	-10.2873
現生	-10.2875
慈尊	-10.288
自知	-10.2881
使人	-10.2882
今謂	-10.2888
親近	-10.2888
析	-10.2891
之念	-10.2897
難得	-10.2897
而行	-10.29
後人	-10.2908
當體	-10.2912
基	-10.292
掩	-10.2939
巍巍	-10.2941
欽	-10.2942
悟無生	-10.2942
絕待	-10.2942
墨	-10.2943
放逸	-10.2945
霜	-10.2945
各於其國	-10.2945
諭	-10.2946
橋	-10.2946
蓮池大師	-10.2947
耀	-10.2947
沉淪	-10.2948
麼	-10.2948
得大	-10.2949
戒定慧	-10.2952
不顧	-10.2957
義者	-10.2957
護持	-10.2957
洪名	-10.2962
名利	-10.2963
號曰	-10.2972
思議	-10.2978
縱使	-10.298
起行	-10.2987
一箇	-10.2992
五逆十惡	-10.2995
同名	-10.2995
不分	-10.2997
生天	-10.2997
報應	-10.2999
執著	-10.3012
證果	-10.3014
上文	-10.3018
同前	-10.3024
之機	-10.3029
說者	-10.3031
一行三昧	-10.3032
恒河沙	-10.3044
格	-10.3044
是凡夫	-10.3044
穩	-10.3051
不解	-10.3054
爐	-10.3054
為難	-10.3054
村	-10.306
側	-10.3062
遶	-10.3063
聊	-10.3064
茶	-10.3064
斗	-10.3065
欣厭	-10.3066
之前	-10.3068
西域	-10.3071
伯	-10.3072
道人	-10.3073
縱橫	-10.3073
難思議	-10.3073
即見	-10.3081
不具	-10.3092
威德	-10.3093
二大士	-10.3096
何由	-10.3098
何有	-10.3098
即念	-10.3099
趺坐	-10.31
廣說	-10.31
下品下生	-10.3103
於淨土	-10.3106
捷徑	-10.3108
本是	-10.3108
不隔	-10.3113
帝釋	-10.3117
得無生忍	-10.3118
其間	-10.3123
濁世	-10.3134
回心	-10.3134
史	-10.3135
大法	-10.3136
不與	-10.3142
得此	-10.3144
著相	-10.3151
行業	-10.3154
無性	-10.3156
永無	-10.3164
無外	-10.3166
非無	-10.3166
無差	-10.3179
既云	-10.3183
訛	-10.3185
三福	-10.3186
歡	-10.3186
精勤	-10.3188
中品	-10.3189
水鳥樹林	-10.319
倡	-10.319
喫	-10.3191
飄	-10.3191
大經	-10.3192
陋	-10.3192
無緣	-10.3194
即名	-10.3199
消息	-10.32
自行	-10.3206
白毫	-10.3211
壽量	-10.3211
之果	-10.3213
依此	-10.3215
長老	-10.3218
得名	-10.3222
修西方	-10.3224
持齋	-10.3226
八地	-10.3229
流出	-10.323
雜念	-10.3231
其子	-10.3233
俟	-10.3234
讚嘆	-10.3236
滿足	-10.3239
貌	-10.3246
往生安樂國	-10.3248
此說	-10.3248
生前	-10.3249
知之	-10.325
一切種智	-10.3252
可也	-10.3255
念頭	-10.3258
縱有	-10.326
必定	-10.3264
且如	-10.3268
宿命	-10.3285
諸菩薩眾	-10.3298
厥	-10.33
雖云	-10.33
不說	-10.3302
展	-10.3309
忌	-10.331
浴	-10.3311
瑩	-10.3311
殆	-10.3312
跋	-10.3313
得生彼國	-10.3313
阻	-10.3313
刑	-10.3313
沾	-10.3314
即法身	-10.3315
則能	-10.3316
八功德水	-10.3318
耕	-10.3318
小本	-10.3319
甯	-10.3319
指示	-10.3324
正道	-10.3327
雖復	-10.3343
」【	-10.3348
不令	-10.3349
不作	-10.335
住持	-10.335
不殺	-10.3358
常念	-10.3361
搖	-10.3366
當處	-10.3366
番	-10.3374
無著	-10.338
稱為	-10.3388
尊特	-10.3389
勿念	-10.3394
二十四	-10.3394
即以	-10.3403
候	-10.3406
未成	-10.3419
饒	-10.3426
之報	-10.3427
捷	-10.3438
掛	-10.3439
兄弟	-10.3439
鑒	-10.344
今日道場同	-10.3442
乍	-10.3443
龍舒淨土文	-10.3443
杖	-10.3444
大慈大悲	-10.3445
報盡	-10.3447
牢獄	-10.3447
國中天人	-10.3448
業力	-10.345
救苦眾生	-10.345
怕	-10.3452
只此一念	-10.3452
令得	-10.3454
曇	-10.3454
生彼國土	-10.3463
色心	-10.3467
無佛	-10.3468
並是	-10.347
之上	-10.3472
何妨	-10.3472
初住	-10.3475
法者	-10.3476
依經	-10.3478
全身	-10.349
福田	-10.3493
入定	-10.3495
所欲	-10.3495
罰	-10.3496
俄	-10.3498
此語	-10.3508
住世	-10.3515
之物	-10.3516
迴心	-10.3517
最初	-10.3518
同志	-10.3519
等覺	-10.352
善心	-10.3523
群生	-10.3525
從前	-10.3541
繫心	-10.3548
不死	-10.3553
一事	-10.3555
紫金	-10.356
是一	-10.3561
即無	-10.3562
得之	-10.3563
𦦨	-10.3565
板	-10.3567
清泰	-10.3567
當時	-10.3569
郡	-10.3569
能仁	-10.357
生彼土	-10.357
創	-10.357
命欲終時	-10.3571
躬	-10.3571
庶幾	-10.3573
咎	-10.3575
成就如是功德莊嚴	-10.3577
男子	-10.3579
五根	-10.358
次明	-10.3585
亦以	-10.359
有無量	-10.3593
欲生	-10.3599
三十二	-10.3599
總結	-10.3605
也哉	-10.3606
萬億	-10.3607
梵行	-10.361
所行	-10.3612
長生	-10.3615
大勢至菩薩	-10.362
不問	-10.3637
摩尼	-10.364
之謂	-10.3642
穿	-10.3642
現成	-10.366
十住	-10.3665
不行	-10.3667
此道	-10.3669
下釋	-10.3672
陸	-10.3677
橫超	-10.3678
不取	-10.3679
能念	-10.3679
常在	-10.3681
祥	-10.3687
不染	-10.3688
舒	-10.369
多有	-10.3691
懇	-10.3692
已來	-10.3695
叩	-10.3697
韻	-10.3698
輙	-10.3698
功成	-10.3701
括	-10.3702
空有	-10.3702
諸天人民	-10.3705
鹿	-10.3706
晝夜六時	-10.3707
寶地	-10.3712
十方眾生	-10.3718
六凡	-10.372
皆名	-10.3724
三人	-10.3731
死後	-10.3733
二十五	-10.3736
罪障	-10.3747
眾生生者	-10.3752
隨念	-10.3756
斷滅	-10.3758
永劫	-10.376
與人	-10.376
周徧	-10.3763
正定	-10.3768
古德	-10.3775
緣生	-10.3778
四生	-10.3782
斷惑	-10.3788
永離	-10.3792
不從	-10.3794
皆空	-10.38
未明	-10.3804
後心	-10.3805
初約	-10.3809
觀此	-10.3811
安能	-10.3814
故鄉	-10.3815
他日	-10.382
五種	-10.3823
掃	-10.3823
久住	-10.3826
淡	-10.3826
拂	-10.3827
楚	-10.3828
裹	-10.3829
嗣	-10.3829
駕	-10.383
輯	-10.3831
甚麼	-10.3831
稀	-10.3832
恃	-10.3832
罷	-10.3833
屏	-10.3833
春秋	-10.3836
譬如有人	-10.384
▁南無觀世音菩薩	-10.3849
即真	-10.385
分齊	-10.3851
安隱	-10.3853
修德	-10.3855
在於	-10.386
虛妄	-10.3865
今既	-10.3869
得解脫	-10.387
深重	-10.3878
於諸	-10.3878
必先	-10.3885
無疑	-10.3885
無過	-10.3887
惡口	-10.3889
三曰	-10.3901
佛說阿彌陀經	-10.3912
寶蓮	-10.3923
法寶	-10.3928
智度論	-10.393
輔	-10.393
難識	-10.3934
訖	-10.3938
又以	-10.3947
安住	-10.3954
銅	-10.3955
若謂	-10.3958
策	-10.3962
封	-10.3962
醉	-10.3965
健	-10.3966
曠劫	-10.3966
妻子	-10.3977
長時	-10.3988
古德云	-10.3989
若干	-10.3992
生極樂國	-10.3997
何因	-10.4008
人皆	-10.4013
出生	-10.4014
而不知	-10.4015
不勝	-10.4018
一種	-10.4019
有相	-10.4019
十七	-10.402
真妄	-10.4022
正受	-10.4034
六者	-10.4034
甚難	-10.4038
變易	-10.4041
千聲	-10.405
維摩	-10.4052
楞嚴云	-10.4053
無病	-10.4053
勝妙	-10.4059
既爾	-10.406
某甲	-10.4064
所知	-10.4068
乃知	-10.4078
念佛功德	-10.408
旅	-10.408
分證	-10.4081
化眾生	-10.4086
說經	-10.4087
泣	-10.409
十方三世	-10.4091
慈雲	-10.4092
隣	-10.4094
腸	-10.4095
秉	-10.4095
甫	-10.4095
岐	-10.4095
稽	-10.4096
羽	-10.4097
溫	-10.4097
柱	-10.4097
擎	-10.4098
慰	-10.4099
方是	-10.41
一點	-10.4103
自覺	-10.4103
弄	-10.4104
▁南無大勢至菩薩	-10.4104
悲智	-10.4106
羅網	-10.4107
生時	-10.4107
諸法實相	-10.4125
八苦	-10.4126
其說	-10.4135
娑婆苦	-10.4145
阿耨多羅三藐三菩提	-10.4146
釋之	-10.4151
五會	-10.4153
散善	-10.4163
全無	-10.4165
妙音	-10.4165
本經	-10.4166
既有	-10.4175
此三昧	-10.4178
落日	-10.418
何名	-10.4184
身中	-10.4185
闢	-10.4189
聞巳	-10.4196
出生死	-10.42
丈夫	-10.4206
或見	-10.421
文云	-10.4211
經典	-10.4214
引證	-10.4215
助道	-10.4219
純熟	-10.422
維	-10.4221
成功	-10.4225
分段	-10.4227
湛	-10.4228
污	-10.4228
季	-10.4232
比邱	-10.4233
鍾	-10.4233
捐	-10.4235
剋	-10.4235
晦	-10.4236
孤山	-10.4236
佛法僧	-10.4237
鑑	-10.4238
鸚鵡	-10.4239
慳貪	-10.4239
南無阿彌陀佛南無阿彌陀佛	-10.424
無有眾苦	-10.424
淪	-10.424
深信因果	-10.4241
顯示	-10.4243
非常	-10.4243
樂土	-10.4245
□	-10.4251
願生西方	-10.4252
而今	-10.4254
往生彼國	-10.4258
諸根	-10.4266
以念佛	-10.4268
其數	-10.4271
華藏	-10.4272
命終時	-10.4282
西歸	-10.4285
唯此	-10.4292
體用	-10.4295
是誰	-10.4297
親見	-10.4297
皈依	-10.4299
力用	-10.43
捨此	-10.43
門者	-10.4304
不自	-10.4308
三義	-10.431
三心	-10.4311
十方佛	-10.432
為眾生	-10.4326
恩愛	-10.4327
庸	-10.433
何曾	-10.4331
真言	-10.4333
而起	-10.4342
不墮	-10.4343
萬善	-10.4345
得失	-10.4349
亦必	-10.4354
濁惡	-10.4355
妙宗	-10.4359
文義	-10.4363
誕	-10.4369
式	-10.437
悲願	-10.4371
裂	-10.4371
一首	-10.4372
焰	-10.4375
罵	-10.4377
不獨	-10.4377
無有是處	-10.4378
之談	-10.4385
聞說阿彌陀佛	-10.4387
池中	-10.4391
齋戒	-10.4393
何哉	-10.4395
不拘	-10.4398
歸心	-10.4408
之緣	-10.4413
要解	-10.4414
先明	-10.4418
寶網	-10.4422
讚佛	-10.4424
一切佛	-10.4429
九十	-10.4429
辛	-10.443
非實	-10.443
三月	-10.4431
或謂	-10.4437
禮念	-10.4438
初中	-10.444
三際	-10.4442
無實	-10.4445
化去	-10.4446
根器	-10.4449
此界	-10.4459
之性	-10.4463
作善	-10.4472
輝	-10.4475
唯一	-10.4475
一切世間	-10.4477
▁南無清淨大海眾菩薩	-10.4484
卓	-10.4487
如法	-10.4488
一朝	-10.4491
覺悟	-10.4494
阿彌陀如來	-10.4496
證菩提	-10.4502
甲	-10.4504
跪	-10.4507
探	-10.4512
纂	-10.4513
龕	-10.4513
些	-10.4514
覔	-10.4514
其本	-10.4514
者哉	-10.4515
藏經	-10.4518
勅	-10.4518
給	-10.452
充滿	-10.4523
誹謗	-10.4525
必得	-10.4533
心也	-10.4533
則非	-10.454
般舟	-10.454
應當發願	-10.4541
二諦	-10.4548
三土	-10.4548
世俗	-10.4548
四義	-10.455
念到	-10.455
皆同	-10.4554
種種莊嚴	-10.4561
真常	-10.4561
聖號	-10.4565
受戒	-10.4565
龍舒	-10.4566
信之	-10.4574
在其中	-10.4577
道理	-10.458
生身	-10.4584
三十年	-10.4584
極苦	-10.4585
四果	-10.459
能破	-10.4592
如彼	-10.4593
即便	-10.4593
故稱	-10.4593
之數	-10.4596
法爾	-10.4597
之流	-10.4605
阿僧祇劫	-10.4608
而至	-10.4618
大悲心	-10.4623
此約	-10.4642
抵	-10.4644
有十	-10.4652
商	-10.4652
吟	-10.4657
援	-10.4657
徐	-10.466
禽	-10.466
三法	-10.466
倦	-10.466
哲	-10.4662
低聲	-10.4663
電	-10.4663
摩訶	-10.4664
智者大師	-10.4665
莫著人間樂	-10.4665
定心	-10.4665
能念之心	-10.4665
以明	-10.4668
尚有	-10.4668
超越	-10.467
永斷	-10.4674
難易	-10.4676
加被	-10.4677
三世諸佛	-10.4677
華嚴云	-10.4679
何異	-10.468
三惡道	-10.4682
初句	-10.4683
皆因	-10.4683
教中	-10.4684
無情	-10.4687
兼修	-10.4689
常寂光土	-10.4692
)」「	-10.4693
唯佛	-10.4694
八者	-10.4697
主人	-10.47
得其	-10.4703
讀誦大乘	-10.4705
化導	-10.4707
善財	-10.4712
不入	-10.4714
是法	-10.4715
不巳	-10.4717
助行	-10.4718
金沙	-10.4721
未可	-10.4727
出世間	-10.4729
先佛	-10.473
百萬	-10.474
直下	-10.4744
實為	-10.4744
世事	-10.4747
一分	-10.4748
從今	-10.476
聞經	-10.4765
敬禮	-10.4771
湖	-10.4776
及其	-10.4777
明鏡	-10.4779
生極樂世界	-10.479
四天下	-10.4794
臨終十念	-10.4796
善女人	-10.4796
棺	-10.4797
邪正	-10.4798
陶	-10.4799
襍	-10.4799
龜	-10.48
拙	-10.48
卿	-10.4801
見者	-10.4801
鄰	-10.4802
徧覆三千大千世界	-10.4802
伊	-10.4804
填	-10.4804
獵	-10.4808
役	-10.4809
巡	-10.4809
願求	-10.4814
夭	-10.4817
向上	-10.4826
明白	-10.4827
見性	-10.4828
精誠	-10.483
教法	-10.4833
見其	-10.4833
惟願	-10.4838
即能	-10.4843
無他	-10.4845
果也	-10.4846
念佛一門	-10.4847
以下	-10.4848
百歲	-10.4849
信力	-10.4857
上聲	-10.4861
明月	-10.4861
上人	-10.4868
長安	-10.4869
▁「	-10.4872
末後	-10.4878
▁四	-10.488
非有	-10.4881
不勞	-10.4885
白蓮	-10.4885
妄言	-10.4901
偷	-10.4903
今則	-10.4904
胸	-10.4909
日課	-10.4909
正當	-10.4925
遍滿	-10.4926
七寶池	-10.4934
坑	-10.4935
不違	-10.4942
碎	-10.4943
整	-10.4946
瘡	-10.4946
囊	-10.4947
烈	-10.4948
祿	-10.4948
狗	-10.4949
製	-10.4949
虞	-10.4949
睡眠	-10.495
環	-10.495
如虗空	-10.4951
踏	-10.4951
靡	-10.4952
逮	-10.4953
悞	-10.4954
菩薩聲聞	-10.4956
淨因	-10.4956
憶佛念佛	-10.4966
巳得	-10.4966
六年	-10.4967
公案	-10.4968
所念	-10.4969
觀者	-10.4969
料簡	-10.497
稱佛名	-10.4974
習氣	-10.4978
雙照	-10.4979
何時	-10.4979
久久	-10.4981
六即	-10.4983
事也	-10.4984
決不	-10.4996
乃能	-10.5006
當人	-10.5007
流布	-10.5008
既不	-10.501
暫時	-10.5011
此處	-10.5041
凡人	-10.5044
萬聲	-10.5046
阿僧祇	-10.5053
法喜	-10.5054
染淨	-10.5055
平時	-10.5056
退失	-10.5056
朱	-10.5056
則曰	-10.5056
此論	-10.5059
著力	-10.5059
不昧	-10.5063
胞胎	-10.5065
登不退	-10.5069
等事	-10.5071
貪瞋	-10.5073
如其	-10.5075
大意	-10.5076
祝	-10.5079
離念	-10.5088
人念佛	-10.509
育	-10.5094
緇素	-10.5096
爰	-10.5096
曹	-10.5098
瑪瑙	-10.5099
摧	-10.5099
持呪	-10.5099
貴賤	-10.51
金銀	-10.5101
灑	-10.5101
不願	-10.5103
不名	-10.5104
欠	-10.5106
欲生我國	-10.5107
直捷	-10.511
諸大乘經	-10.5122
羣生	-10.5124
廣度眾生	-10.5125
普賢菩薩	-10.5128
可憐	-10.5129
萬緣	-10.5136
千年	-10.5138
古人云	-10.5152
乃有	-10.5163
楞伽	-10.5163
如夢	-10.517
寂照	-10.5171
不悟	-10.5171
終時	-10.5177
甚矣	-10.5179
帝王	-10.5181
能滅	-10.5183
南無西方阿彌陀佛	-10.5185
五年	-10.5191
豈知	-10.5191
彼則	-10.5194
彼方	-10.5196
得人身	-10.5205
芽	-10.5205
團	-10.5206
圓修	-10.5207
天子	-10.5215
超過	-10.5218
善緣	-10.5218
為是	-10.522
人所	-10.5224
靈芝	-10.5235
常寂光	-10.5236
奧	-10.5239
諸苦	-10.5242
之所以	-10.5242
米	-10.5242
至道	-10.5243
騰	-10.5245
牢	-10.5245
莖	-10.5245
生生	-10.5246
奉行	-10.5247
灌	-10.5247
)。「	-10.5247
下接高讚云	-10.5247
依正莊嚴	-10.5248
惟有	-10.5248
償	-10.5248
府	-10.5248
鍊	-10.525
但受諸樂	-10.5251
接引導師	-10.5253
奔	-10.5254
雄	-10.5257
心要	-10.5259
皆具	-10.526
深入	-10.5268
釋云	-10.5273
增進	-10.5274
皆令	-10.528
信樂	-10.5282
勝緣	-10.5282
妙理	-10.5286
池水	-10.5288
。】○	-10.5288
神足	-10.5293
家人	-10.5294
殊不知	-10.5294
自家	-10.5295
有為	-10.5301
一相	-10.5305
方寸	-10.5308
以成	-10.5317
了達	-10.532
何事	-10.5321
此亦	-10.5331
兩土	-10.5331
者多	-10.5334
玅觀	-10.5336
六方諸佛	-10.534
上根	-10.5361
而入	-10.5363
時有	-10.5364
聞此	-10.5368
未斷	-10.537
眾聖	-10.5372
不通	-10.5373
真俗	-10.5373
畢命為期	-10.5381
其為	-10.5385
義故	-10.5386
惡緣	-10.5388
豪	-10.5392
臨終時	-10.5394
踰	-10.5399
后	-10.54
盧	-10.54
令眾生	-10.54
不止	-10.5402
派	-10.5403
膿血	-10.5403
吾心	-10.5403
酸	-10.5404
射	-10.5404
自度	-10.5405
慈心不殺	-10.5405
丁	-10.5406
循環	-10.5406
儻	-10.5406
菩薩曰	-10.5407
但當	-10.5409
警䇿	-10.5409
邑	-10.5411
慈氏	-10.5411
流浪	-10.5413
必以	-10.5416
?』	-10.5418
出世之	-10.542
理觀	-10.5422
生也	-10.5422
信願持名	-10.5426
十萬億剎	-10.543
涼	-10.5431
僧祇	-10.5436
道之	-10.5437
而終	-10.5444
而作	-10.5444
作福	-10.5462
無色界	-10.5473
本性彌陀	-10.5474
大菩薩	-10.5474
少年	-10.5474
天親	-10.5479
數珠	-10.548
此世界	-10.5486
△	-10.5497
入涅槃	-10.5504
但得	-10.5504
梵音	-10.5504
此生	-10.5506
悲心	-10.5507
父子	-10.5508
求其	-10.551
一毫	-10.5513
意在	-10.5514
先後	-10.5524
於心	-10.5529
令我	-10.5539
入於	-10.5542
諸方	-10.5543
」(	-10.5545
諸子	-10.5545
蟻	-10.5548
疊	-10.5555
罕	-10.5556
賣	-10.5556
擾	-10.5557
寢	-10.5557
廁	-10.5558
繪	-10.5558
扣	-10.5558
譏	-10.5558
隆	-10.5559
常見	-10.5559
樣	-10.556
闡提	-10.5561
成熟	-10.5561
得入	-10.5562
粟	-10.5563
錫	-10.5564
線	-10.5564
步步	-10.5566
轍	-10.5566
當以	-10.5567
普度	-10.5568
闡揚	-10.5569
奇特	-10.5569
歷歷	-10.5573
安然	-10.5573
之願	-10.5579
淨行	-10.5582
一句阿彌陀佛	-10.5582
頓教	-10.5587
觀經疏	-10.5592
妙心	-10.5593
能詮	-10.5596
若於	-10.5601
無記	-10.5602
奉勸	-10.5608
乃以	-10.561
彌陀淨土	-10.561
無生忍	-10.561
想念	-10.561
先須	-10.5611
理具	-10.5613
四德	-10.5614
無差別	-10.5614
應念	-10.5614
不息	-10.562
為淨土	-10.5622
聞佛名	-10.5624
而出	-10.5628
惟心淨土	-10.5633
三卷	-10.5633
化主	-10.5638
到處	-10.5639
亦能	-10.5642
中陰	-10.5642
善道	-10.565
前文	-10.5653
出現	-10.5655
皆當	-10.5658
問云	-10.5661
爾等	-10.5662
同居淨土	-10.5664
時節	-10.5667
一心頂禮	-10.5672
理即	-10.5681
純一	-10.5683
略舉	-10.5698
徑路	-10.5698
貪欲	-10.5704
相者	-10.5707
相對	-10.5709
昌	-10.5714
操	-10.5716
呂	-10.5717
劍	-10.5718
衲	-10.5719
壯	-10.5719
拜下想	-10.5719
滋	-10.572
又復歸依如是	-10.572
諸仁者	-10.5722
英	-10.5723
朕	-10.5723
一名	-10.5724
屍	-10.5725
不共	-10.5732
佛以	-10.5734
欲求	-10.5736
法施	-10.5739
為正	-10.5742
五蘊	-10.5743
難逃	-10.5743
余曰	-10.5746
少時	-10.5747
劫濁	-10.5748
人情	-10.5755
六趣	-10.5758
大王	-10.5766
一真	-10.5769
惡逆	-10.5774
可知矣	-10.5782
不實	-10.5786
初列	-10.5787
戒律	-10.5789
宰	-10.5789
應供	-10.5797
奈	-10.58
信根	-10.58
知是	-10.5802
形像	-10.5803
唐譯	-10.5804
之方	-10.5805
普願	-10.5808
心量	-10.5813
四門	-10.5817
楞嚴經云	-10.5821
不唯	-10.5832
出於	-10.5836
如如	-10.5838
得生彼	-10.5841
塵緣	-10.5842
所引	-10.5844
世世	-10.5849
本國	-10.5851
行門	-10.5852
夫婦	-10.5868
善事	-10.587
研	-10.5873
旬	-10.5875
丘	-10.5877
乾坤	-10.5879
砂	-10.5879
歸依世間大慈悲父	-10.5882
尾	-10.5883
銘	-10.5885
綫	-10.5885
檢	-10.5885
碑	-10.5885
囚	-10.5886
上品中生	-10.5887
▁南無普賢菩薩	-10.5887
震旦	-10.5889
鈔云	-10.5889
貪戀	-10.589
寶所	-10.5892
得度	-10.5906
戲論	-10.5911
名也	-10.5912
當機	-10.5912
以後	-10.5914
若據	-10.5915
三時	-10.5915
實非	-10.5921
其志	-10.5924
安樂世界	-10.5926
不可思議功德	-10.5929
十者	-10.5929
具有	-10.5932
今觀	-10.5932
如大	-10.5932
雖未	-10.5936
二三	-10.594
念一佛	-10.5944
之見	-10.5949
利生	-10.5951
為業	-10.5959
身口	-10.5962
了也	-10.5969
若得	-10.5969
是何	-10.5975
子曰	-10.5976
痛苦	-10.5978
亡者	-10.5978
所在	-10.5979
南無文殊師利菩薩	-10.598
供養諸佛	-10.5988
彌陀世尊	-10.5993
經教	-10.5995
法相	-10.5998
容易	-10.6
則自性	-10.6008
。』」	-10.6019
心緣	-10.602
至于	-10.6022
二年	-10.6029
聞佛	-10.6033
三賢	-10.6033
七重	-10.6038
及與	-10.6039
乃得	-10.6041
茅	-10.6041
革	-10.6042
綠	-10.6042
祐	-10.6043
孝養父母	-10.6043
若有善男子善女人	-10.6043
迫	-10.6043
添	-10.6046
至心信樂	-10.6047
醍醐	-10.6047
得無生法忍	-10.6047
大行	-10.6047
劒	-10.6048
現在其前	-10.605
食時	-10.6053
一期	-10.6056
晦菴	-10.6057
上生	-10.6061
累劫	-10.6062
河沙	-10.6067
何疑	-10.6067
難陀	-10.6069
蓮胎	-10.607
忽見	-10.6072
高聲	-10.6073
觀佛三昧	-10.6074
種性	-10.6078
神仙	-10.6079
修念佛三昧	-10.6081
能見	-10.6083
何法	-10.6089
東土	-10.6092
化為	-10.6095
三初	-10.6096
佛乘	-10.61
即時	-10.6106
退轉	-10.6108
大德	-10.6118
人有	-10.6119
悟道	-10.6119
邊地	-10.612
別圓	-10.6124
更不	-10.6125
苦空	-10.6126
言說	-10.6128
法華經云	-10.613
焉能	-10.6135
樂國	-10.6138
一心持名	-10.614
世緣	-10.6141
生平	-10.6143
華開見佛	-10.6147
病者	-10.6147
禪淨	-10.6148
無住	-10.6158
歸於	-10.6159
佛是	-10.616
皆能	-10.6165
義理	-10.6168
之智	-10.6168
來世	-10.6169
意也	-10.6176
相與	-10.6181
退墮	-10.6184
忉利天	-10.6184
我見	-10.6185
寓	-10.6187
一切皆	-10.6187
破無明	-10.6188
三釋	-10.6197
揮	-10.62
直入	-10.6201
乃為	-10.6202
宣說	-10.6206
葛	-10.6206
髻	-10.6208
亭	-10.6208
崖	-10.6209
宇	-10.6209
肉髻	-10.621
佳	-10.6212
渴	-10.6212
攻	-10.6212
優曇	-10.6212
彌勒菩薩	-10.6212
暑	-10.6213
紹	-10.6214
叮嚀	-10.6215
迥	-10.6216
如是我聞	-10.6217
西方合論	-10.6218
薪	-10.6218
殺業	-10.6219
津梁	-10.6219
無極	-10.6221
不發	-10.6221
及一切	-10.6223
勝於	-10.6225
為佛	-10.6225
▁淨土	-10.6226
應化	-10.6229
無分	-10.6229
無量壽經云	-10.6232
發大心	-10.6236
稱阿彌陀佛	-10.6237
知此	-10.6237
貪瞋癡	-10.6244
口中	-10.6246
足以	-10.6248
利人	-10.6249
無量眾生	-10.6249
行法	-10.6251
合成	-10.6256
魔王	-10.6258
不去	-10.6265
長壽	-10.627
修學	-10.6273
三惑	-10.6274
我輩	-10.6279
今欲	-10.6286
教觀	-10.6286
西方樂	-10.6287
行也	-10.6297
亦應	-10.6298
淨名	-10.6302
無量功德	-10.6302
十力	-10.6307
次名	-10.6311
明心	-10.6314
至矣	-10.6318
妙用	-10.6319
此下	-10.6321
諸善	-10.633
五色	-10.6331
未生	-10.6335
截	-10.6336
三智	-10.6342
即非	-10.6347
得一	-10.6348
攝取	-10.635
觀成	-10.6355
故此	-10.6361
說之	-10.6364
奴	-10.637
本體	-10.637
生彼國者	-10.637
性體性量	-10.637
彈	-10.6372
緣影	-10.6374
饒益	-10.6374
驅	-10.6377
浩	-10.6377
炬	-10.6378
捉	-10.6378
嗜	-10.6379
蜜	-10.6379
三句	-10.6379
貧窮	-10.6379
効	-10.638
賦	-10.6382
不散	-10.6382
呌	-10.6382
茫茫	-10.6384
懇切	-10.6384
羞	-10.6384
鶴	-10.6385
黃金為地	-10.6386
六通	-10.6386
畢竟空	-10.6387
亦得往生	-10.6387
雖無	-10.6391
主伴	-10.6391
境觀	-10.6391
行持	-10.6391
能感	-10.6395
勸君	-10.6396
心王	-10.64
求佛	-10.6408
大明	-10.6412
善巧	-10.6412
暇	-10.6413
指歸	-10.6417
身光	-10.6418
簡易	-10.6419
華座	-10.6422
故名極樂	-10.6434
宗教	-10.6436
相也	-10.6438
淨土文	-10.6441
超生死	-10.6442
願文	-10.6443
而不信	-10.6443
凡情	-10.645
之恩	-10.6451
可惜	-10.6455
於斯	-10.6457
而下	-10.6457
之一	-10.6459
要須	-10.6464
頂上	-10.6466
力故	-10.647
之與	-10.647
無垢	-10.6474
不至	-10.6474
十月	-10.6477
所住	-10.6479
七十	-10.6481
不可盡	-10.6487
歸去	-10.6488
二十一	-10.6489
回頭	-10.6489
極果	-10.6492
耽	-10.6498
以顯	-10.65
得阿耨多羅三藐三菩提	-10.6504
塵剎	-10.6505
唯是	-10.6505
令生	-10.6506
善哉	-10.6506
不少	-10.6506
方名	-10.6507
得不退	-10.6507
今乃	-10.6512
諸弟子	-10.6518
不能盡	-10.6519
蘭	-10.6525
淨域	-10.653
願王	-10.6532
孟子	-10.6537
見一	-10.6537
佛地	-10.6538
初牒	-10.6539
秀	-10.6542
低	-10.6543
一味	-10.6543
那由他	-10.6544
出廣長舌	-10.6545
云爾	-10.6546
消除	-10.6546
吏	-10.6546
攬	-10.6548
罪福	-10.6548
西來	-10.6549
項	-10.6549
初學	-10.6551
市	-10.6551
吉祥	-10.6552
尸	-10.6553
相與志心	-10.6555
萌	-10.6555
聾	-10.6557
玩	-10.6557
功德莊嚴	-10.6559
攀緣	-10.6564
修諸功德	-10.6568
造作	-10.657
之書	-10.6575
一片	-10.6577
其後	-10.6579
動靜	-10.658
一心正念	-10.6584
無所得	-10.6588
相見	-10.6591
皆成	-10.6593
念佛求生淨土	-10.6596
理也	-10.6601
老子	-10.6603
萬年	-10.6616
而又	-10.6618
之聲	-10.6619
現前一念	-10.662
漸漸	-10.6622
句句	-10.6624
同居土	-10.6624
勝境	-10.6637
作是念	-10.6639
自體	-10.6641
知有	-10.6644
業報	-10.6645
往昔	-10.6648
不被	-10.6649
大千世界	-10.665
念三寶	-10.6651
無量法門	-10.6652
禮誦	-10.6653
告曰	-10.6653
寶藏	-10.6654
無想	-10.6656
七者	-10.6665
如何是	-10.6666
佛聲	-10.6669
卷上	-10.6672
死心	-10.6674
作意	-10.668
師云	-10.668
二約	-10.669
佛菩薩	-10.6691
若夫	-10.6695
其文	-10.6698
勸進	-10.6699
死者	-10.6706
中人	-10.6715
文殊師利	-10.6719
妙華	-10.6719
無形	-10.6722
翼	-10.6724
沐	-10.6725
伸	-10.6726
東坡	-10.6726
萬事	-10.6726
牙	-10.6726
下二	-10.6727
燕	-10.6729
挂	-10.6729
吾人	-10.6729
四寶	-10.6729
枕	-10.673
濕	-10.6731
訂	-10.6731
叢林	-10.6734
心淨土淨	-10.6738
結社	-10.6738
重重無盡	-10.6738
欄楯	-10.6739
修多羅	-10.6741
眾鳥	-10.6742
門中	-10.6744
顯然	-10.6745
即前	-10.6746
兩舌	-10.6747
昔人	-10.6749
白雲	-10.6751
修者	-10.6753
一僧	-10.6762
維摩經	-10.6764
般若經	-10.6764
前生	-10.6765
弘誓	-10.6769
凡愚	-10.677
尚未	-10.6773
十門	-10.6776
深淺	-10.6779
斯言	-10.6783
當得	-10.6785
當下	-10.679
北方	-10.6791
禪者	-10.6792
不現	-10.6802
一世	-10.6804
不欲	-10.6808
一聲佛	-10.6834
之德	-10.6836
心法	-10.6837
舉一	-10.6837
人多	-10.684
此四	-10.6842
不空	-10.685
散華	-10.6857
為第一	-10.686
不生淨土	-10.6861
不可不	-10.6865
得菩提	-10.6869
逈	-10.687
經歷	-10.687
皆云	-10.6873
雖多	-10.6874
一家	-10.6877
作惡	-10.6878
真正	-10.688
炷	-10.6889
眼前	-10.6889
一真法界	-10.689
芳	-10.6892
所依	-10.6892
信也	-10.6895
生死之	-10.6895
獸	-10.6899
見如來	-10.69
迨	-10.69
鼎	-10.6902
詠	-10.6903
掉	-10.6905
翠	-10.6906
靠	-10.6906
惶	-10.6907
默念	-10.6907
功德智慧	-10.6907
薰	-10.6907
道也	-10.6908
槩	-10.6908
範	-10.6908
寶蓮華	-10.6908
踐	-10.6909
故今	-10.691
不落	-10.691
汎	-10.691
曠	-10.691
鳳	-10.691
腦	-10.6911
諸祖	-10.6913
業緣	-10.6914
二乘種不生	-10.6915
樓臺	-10.6916
豁然	-10.6917
憶佛	-10.6918
以是因緣	-10.6919
常行	-10.6929
轉輪王	-10.6929
儒家	-10.693
悉是	-10.6931
便得	-10.6931
讀書	-10.6933
又願	-10.6933
律師	-10.6935
為真	-10.6937
滴	-10.6937
於人	-10.6938
只為	-10.6944
心念佛	-10.6944
依舊	-10.6945
妙行	-10.6954
隨分	-10.6954
心源	-10.6959
行善	-10.6961
視之	-10.6961
佛在	-10.6965
誰能	-10.6965
寶積	-10.6969
亦當	-10.6969
修行者	-10.697
異見	-10.6989
淨剎	-10.6994
破惡	-10.6994
若爾	-10.6998
稱揚	-10.7004
為先	-10.7006
奉佛	-10.7013
能說	-10.7013
金蓮	-10.7015
相分	-10.7017
六識	-10.7021
多聞	-10.7024
故不退	-10.7026
初二句	-10.7026
牒	-10.7028
若知	-10.703
之水	-10.7034
此明	-10.7036
懈	-10.7039
愛欲	-10.7043
釋迦牟尼	-10.7057
攝持	-10.7059
妾	-10.7067
豈是	-10.707
論其	-10.707
梅	-10.7078
油	-10.708
莫若	-10.708
眾生濁	-10.708
叢	-10.7081
手執香華常供養	-10.7083
若聞	-10.7085
或說	-10.7086
慘	-10.7086
廟	-10.7086
珊瑚	-10.7088
垂手	-10.7089
俱會一處	-10.7089
不樂	-10.709
迂	-10.7091
疾病	-10.7093
霑	-10.7093
而言之	-10.7094
舜	-10.7095
恥	-10.7096
搜	-10.7097
毘	-10.7098
或現	-10.7099
同生	-10.7099
若見	-10.7103
生疑	-10.7104
若不生者	-10.7105
以佛	-10.7112
歸去來	-10.7118
救護	-10.7118
極樂之	-10.712
海中	-10.712
一實	-10.7122
眾生之	-10.7124
天魔	-10.7128
無際	-10.7129
之勝	-10.7131
教化眾生	-10.7137
性海	-10.7144
所致	-10.7147
汝當	-10.716
於一	-10.7167
貪著	-10.7167
六度萬行	-10.7168
佛經	-10.717
盡虗空界一切三寶	-10.717
禮讚	-10.7171
諸佛如來	-10.718
由來	-10.7181
勸往生	-10.7182
從何	-10.7202
巳而	-10.7203
我淨樂	-10.721
骨肉	-10.7214
下凡	-10.7217
數百	-10.7217
梵網	-10.7223
根缺	-10.7224
則心	-10.7225
皆然	-10.723
概	-10.7236
罪惡	-10.7239
一切處	-10.7239
世出世間	-10.7244
根塵	-10.7246
熾	-10.7253
無疾	-10.7256
觀無量壽佛經	-10.7257
醜	-10.7257
化人	-10.7258
念誦	-10.7261
宿世	-10.7262
各具	-10.7262
激	-10.7263
不專	-10.7264
紛	-10.7264
還來	-10.7265
攀	-10.7265
聽法	-10.7265
汙	-10.7269
介爾	-10.727
擔	-10.727
撫	-10.7272
鞭	-10.7274
逕	-10.7275
疲	-10.7275
綺語	-10.7276
臻	-10.7276
光色	-10.7276
刺	-10.7277
肆	-10.7277
欄	-10.7278
淨念相繼	-10.7279
是實	-10.728
早晚	-10.7281
調達	-10.7282
有三義	-10.7282
大悟	-10.7283
尤為	-10.7285
體空	-10.7287
今現在說法	-10.7289
實報土	-10.7293
歲月	-10.73
與之	-10.7302
生老病死	-10.7303
別無	-10.7306
有念	-10.7308
僧俗	-10.7317
至理	-10.7317
指南	-10.732
不依	-10.732
修慧	-10.7321
何耶	-10.7322
造逆	-10.7323
威力	-10.7326
彌陀之	-10.733
高僧	-10.7331
華池	-10.7332
念佛求生	-10.7333
少分	-10.7335
又二	-10.7342
佛眼	-10.7342
儒者	-10.7343
信向	-10.7344
便成	-10.7352
無比	-10.7354
十願	-10.736
不念佛	-10.7361
諸大	-10.7365
其人臨命終時	-10.7368
滅後	-10.737
業重	-10.7371
隨所	-10.7374
十方如來	-10.7374
坐化	-10.7377
次觀	-10.7378
求往生	-10.738
神識	-10.7381
念佛眾生	-10.7384
與我	-10.7384
而觀	-10.7384
若云	-10.7386
今為	-10.7386
往生極樂	-10.7388
見濁	-10.7396
苦口	-10.7396
果德	-10.7397
了悟	-10.7399
王宮	-10.7404
命終之時	-10.7405
上來	-10.7409
至誠心	-10.7409
不宜	-10.741
▁南無善	-10.7413
受記	-10.7414
佛世尊	-10.7416
便生	-10.742
劇	-10.7438
安可	-10.7445
普照	-10.7447
我聞	-10.7447
廓	-10.7448
由心	-10.7448
無女人	-10.745
中諦	-10.7456
緒	-10.7457
常為	-10.746
允	-10.7461
唇	-10.7462
圓人	-10.7463
誇	-10.7463
古崑	-10.7464
怎	-10.7465
恚	-10.7465
籍	-10.7465
裝	-10.7466
瞋恚	-10.7467
鉤	-10.7467
毫相	-10.7468
募	-10.7469
願共諸眾生	-10.7469
發無上道心	-10.7469
草木	-10.747
亦不得	-10.7471
怖畏	-10.7474
賢護	-10.7477
逆順	-10.7477
化度	-10.7481
生淨土者	-10.7482
四智	-10.7482
紫金臺	-10.7482
功能	-10.7484
因循	-10.7484
書寫	-10.7484
報佛恩	-10.7487
分三	-10.7488
易生	-10.749
我所	-10.7492
未審	-10.7493
上善	-10.7493
見有	-10.7494
專志	-10.7496
不肖	-10.7499
四月	-10.7499
舌根	-10.7499
八難	-10.7499
▁南無寶	-10.7502
如鏡	-10.7504
論之	-10.751
何日	-10.7512
各自	-10.7513
分二	-10.7519
水中	-10.752
之土	-10.7521
一下	-10.7524
親屬	-10.7527
化作	-10.7533
無量壽國	-10.7535
病人	-10.7539
日光	-10.754
金地	-10.7543
則生	-10.7547
罪滅	-10.7547
生法	-10.7549
斷除	-10.7553
誰知	-10.7554
經題	-10.7558
報化	-10.7559
答言	-10.7562
教門	-10.7563
隨時	-10.7568
勤念佛	-10.7568
一見	-10.7569
無量壽如來	-10.7574
徒眾	-10.7582
此非	-10.7583
日觀	-10.7585
如日	-10.7589
今當	-10.759
可信	-10.7594
卷下	-10.7596
觀彼	-10.7598
光者	-10.7602
在西方	-10.7602
一切人	-10.7603
以及	-10.7605
有六	-10.7625
於一切	-10.7628
旛	-10.7629
得念佛三昧	-10.7629
柰	-10.7631
正為	-10.7631
念處	-10.7637
二十八	-10.7639
鄭	-10.764
糧	-10.7649
生我國	-10.7649
泊	-10.7649
泰	-10.7651
肇	-10.7651
曷	-10.7651
謁	-10.7651
肅	-10.7652
煉	-10.7652
噉	-10.7652
漚	-10.7653
揭	-10.7653
幹	-10.7656
不食	-10.7656
遊戲	-10.7656
無得	-10.7657
永明壽禪師	-10.7657
漁	-10.7658
逼迫	-10.7658
柔軟	-10.7659
毛孔	-10.7659
遍覆三千大千世界	-10.766
有女人	-10.766
修十善業	-10.7662
針	-10.7663
成等正覺	-10.7664
慎勿	-10.7665
直至成佛	-10.7665
忻厭	-10.7666
身命	-10.767
三十六	-10.767
話頭	-10.7671
三障	-10.7674
常得	-10.7674
念佛一聲	-10.7675
說此	-10.7676
於念念中	-10.768
即應	-10.768
雖具	-10.7681
柰何	-10.7684
有七	-10.769
別求	-10.7691
之子	-10.7695
無量劫來	-10.7697
邪魔	-10.77
異端	-10.7702
又何	-10.7704
三災	-10.7707
墮惡道	-10.7707
胸中	-10.7708
勤苦	-10.7708
體性	-10.7709
同修	-10.7711
巳成	-10.7711
化他	-10.7711
尚爾	-10.7713
我之	-10.7717
無惡	-10.7717
淨薉	-10.7722
法界也	-10.7722
難免	-10.7723
故無	-10.7723
只在	-10.7724
楞嚴經	-10.7727
于此	-10.7727
過於	-10.7736
眾生聞者	-10.7736
二十年	-10.774
下生	-10.7743
於後	-10.7745
斯乃	-10.7758
人道	-10.7763
聽說	-10.7763
妙有	-10.777
具三	-10.7773
魏居士	-10.7773
異類	-10.7776
去聲	-10.7776
上輩	-10.778
燒香	-10.778
覲	-10.7783
二十二	-10.7785
而已	-10.7785
公曰	-10.7788
修成	-10.7805
天台云	-10.7806
長養	-10.7812
臨終見佛	-10.7813
定力	-10.782
此間	-10.7826
結成	-10.7826
心之	-10.7826
依法	-10.7829
但見	-10.7829
別相	-10.7829
空觀	-10.783
宿業	-10.7831
本分	-10.7832
正定聚	-10.7833
不廢	-10.7834
諸緣	-10.7835
彌陀佛彌陀佛	-10.7835
疑曰	-10.7836
不合	-10.784
痴	-10.784
諸功德	-10.7841
靡不	-10.7844
初又二	-10.7845
犬	-10.7846
隨緣不變	-10.7847
捧	-10.7848
裡	-10.7849
窟	-10.7849
已上	-10.7849
鎮	-10.785
尅	-10.785
飡	-10.785
閻羅	-10.7852
。」【(	-10.7853
羅剎	-10.7853
輔正	-10.7854
八部	-10.7854
俯	-10.7856
跏趺	-10.7856
焦	-10.7856
轉法輪	-10.7856
臭穢	-10.7858
百千萬倍	-10.7859
讓	-10.7859
農	-10.786
澄清	-10.7861
於我	-10.7861
相好光明	-10.7862
苦趣	-10.7863
一切菩薩	-10.7864
四念處	-10.7864
易行	-10.7865
成三昧	-10.7865
門戶	-10.7867
諸佛護念	-10.7868
梵云	-10.7868
含靈	-10.7868
求淨土	-10.7869
不亦	-10.787
法輪	-10.7871
念佛心	-10.7872
有邊	-10.7872
堪忍	-10.7874
三疑	-10.7875
或以	-10.7881
教令	-10.7882
至彼	-10.7884
則成	-10.7884
分段生死	-10.7901
寶幢	-10.7903
彌陀佛國	-10.7904
眼見	-10.7912
長夜	-10.7913
住不退轉	-10.7914
一念不生	-10.7916
流水	-10.7919
智力	-10.7924
贊曰	-10.7928
了不可得	-10.7934
非我	-10.7936
惡世	-10.7937
為汝	-10.7939
三事	-10.7941
眾惡	-10.7942
一般	-10.7942
出聲	-10.7948
一切功德	-10.7949
而死	-10.7949
又見	-10.7952
稱佛號	-10.7953
詎	-10.7954
真切	-10.7958
恩德	-10.796
所具	-10.7962
未證	-10.7963
一年	-10.7963
為義	-10.7964
切莫	-10.7965
如實	-10.7967
結勸	-10.7969
經中說	-10.797
不知其	-10.798
莫非	-10.798
有四種	-10.7981
為名	-10.7982
依然	-10.7982
大臣	-10.7983
法法	-10.7988
離相	-10.7989
寒暑	-10.7995
是諸佛	-10.7997
不求生	-10.7998
▁五	-10.7999
即於	-10.8004
勸人念佛	-10.8011
作觀	-10.8014
修之	-10.8024
性中	-10.8025
顛	-10.8031
賤	-10.8032
車輪	-10.8032
行行	-10.8034
四益	-10.8034
到彼	-10.8034
孟	-10.8035
推之	-10.8037
大劫	-10.8038
凶	-10.8039
瞞	-10.8042
心所	-10.8042
必然	-10.8045
事事無礙	-10.8046
為主	-10.8046
髓	-10.8048
燃	-10.8048
蹈	-10.8049
俊	-10.805
梓	-10.8051
皷	-10.8052
徹悟	-10.8053
熾盛	-10.8053
泥洹	-10.8053
彌陀本願	-10.8053
放大光明	-10.8054
乏	-10.8054
十卷	-10.8054
預知時至	-10.8056
初門	-10.8057
若有信者	-10.8057
上品下生	-10.8058
師友	-10.8058
無染	-10.8058
萬德洪名	-10.8058
恐怖	-10.8059
三祇	-10.8059
慈航	-10.806
超出	-10.8063
心不亂	-10.8065
昏迷	-10.8066
其體	-10.8069
妙明	-10.807
雖知	-10.8072
賢首	-10.8073
住於	-10.8076
修此	-10.8076
白衣	-10.8079
元年	-10.808
當於	-10.8084
維摩經云	-10.8086
故非	-10.8088
休息	-10.8088
未至	-10.809
分為	-10.8097
臘	-10.8097
七七日	-10.8104
既成	-10.8106
請佛	-10.8106
千佛	-10.8107
一方	-10.8108
自謂	-10.8109
以大悲	-10.8109
令彼	-10.8115
此一念	-10.8116
夜夢	-10.8123
時也	-10.8125
忍力	-10.8131
說偈	-10.8132
如是則	-10.8135
蓮開	-10.8135
機緣	-10.8135
如是說	-10.8137
同聲	-10.8138
佛告彌勒	-10.8145
西方阿彌陀佛	-10.8146
往生論	-10.8147
覺體	-10.815
百千萬	-10.8151
現在說法	-10.8151
五百年	-10.8153
天衣	-10.8155
慧遠	-10.8162
無三惡道	-10.8163
圓照	-10.8167
不退菩提	-10.8169
心觀	-10.8169
眾多	-10.8175
所化	-10.8177
淨方	-10.818
歸家	-10.8187
方為	-10.8189
便謂	-10.8195
我願	-10.8197
法空	-10.8197
天堂	-10.8197
四色	-10.8198
讀者	-10.8199
》,	-10.8208
寂然	-10.8209
號阿彌陀	-10.8211
曾無	-10.8215
皈	-10.8218
今云	-10.822
之善	-10.8224
後有	-10.8224
教典	-10.8229
志心	-10.8231
異也	-10.8234
念心	-10.8234
是權	-10.8235
修行人	-10.8237
以此功德	-10.8237
豁	-10.8247
憎	-10.8247
不孝	-10.8248
綿	-10.8251
勘	-10.8251
陣	-10.8251
從來	-10.8252
詔	-10.8254
硨磲	-10.8256
皆得不退轉於阿耨多羅三藐三菩提	-10.8256
逗	-10.8256
而退	-10.8258
詰	-10.8259
迴向發願	-10.8259
覧	-10.8259
禽獸	-10.8262
決無	-10.8263
無苦	-10.8264
文殊普賢	-10.8264
皆當往生	-10.8265
諸賢	-10.8265
三種淨業	-10.827
誣	-10.8271
以自	-10.8271
貪嗔癡	-10.8273
得佛	-10.8273
反覆	-10.8277
珍重	-10.8278
旨趣	-10.8283
始於	-10.8286
面目	-10.8286
貪愛	-10.8286
多矣	-10.8289
之下	-10.829
譬喻	-10.8291
約理	-10.8291
古佛	-10.8291
彌陀名號	-10.8292
界內	-10.8292
梵網經	-10.8294
根性	-10.8294
同居淨	-10.8296
蒙佛	-10.8298
尊重	-10.8301
具足十念	-10.8302
除滅	-10.8304
發願云	-10.8308
塵塵	-10.8309
將此	-10.8312
億劫	-10.8313
行相	-10.832
七種	-10.8322
百餘	-10.8325
隨處	-10.8328
自此	-10.8329
我亦	-10.833
諸經論	-10.8338
與其	-10.8339
寶王	-10.8343
其母	-10.8354
之輩	-10.8354
一往	-10.8355
自己	-10.8358
常自	-10.8361
或作	-10.8361
難可	-10.837
山中	-10.837
如一	-10.8384
小兒	-10.8384
身量	-10.8385
耶答	-10.8386
神明	-10.8391
發大願	-10.8392
本源	-10.8397
國師	-10.8398
中輩	-10.8401
九者	-10.8402
端正	-10.8402
未見	-10.8403
總名	-10.8404
意識	-10.8405
寶林	-10.8406
經曰	-10.8409
聖果	-10.8414
函	-10.8415
欲使	-10.8415
法華云	-10.8418
念佛之心	-10.8419
無量劫	-10.8425
不得巳	-10.8425
但言	-10.8428
之期	-10.843
心內	-10.8432
父王	-10.8444
霞	-10.8449
釋經	-10.8456
有省	-10.8457
糞	-10.8458
於世	-10.8458
洛	-10.8459
烟	-10.846
喧	-10.8462
翳	-10.8462
拒	-10.8462
慈雲懺主	-10.8462
將何	-10.8463
解第一義	-10.8463
地前	-10.8464
榜	-10.8465
▁南無當來彌勒佛	-10.8465
異香滿室	-10.8466
嬰兒	-10.8466
此娑婆世界	-10.8467
而知	-10.847
具縛凡夫	-10.847
如觀經	-10.8471
釆	-10.8471
名之曰	-10.8471
十惡五逆	-10.8471
有生	-10.8473
辛苦	-10.8473
也如是念	-10.8474
微笑	-10.8475
須達	-10.8475
乞食	-10.8476
調伏	-10.8476
算數	-10.8476
【	-10.8477
不假方便	-10.8478
捨身	-10.8479
精舍	-10.8481
爾時世尊	-10.8482
隨力	-10.8483
性本	-10.8483
煩惱濁	-10.8484
佛即	-10.8486
帶業往生	-10.8486
仗佛力	-10.8487
之源	-10.8488
無退轉	-10.8488
初生	-10.849
善行	-10.849
上智	-10.8491
急急	-10.8492
剎土	-10.8497
慧命	-10.8499
是時	-10.8501
初正明	-10.8502
綱宗	-10.8503
是書	-10.8505
遞相	-10.8515
下輩	-10.8515
如華嚴	-10.8517
聞聲	-10.8519
滅除	-10.8525
或有眾生	-10.8526
脩行	-10.8532
無諸	-10.8532
能發	-10.8534
哀哉	-10.8534
利物	-10.8534
世諦	-10.8537
所緣	-10.8537
二釋義	-10.8537
而未	-10.854
所歸	-10.8542
證無生	-10.8544
動念	-10.8548
勸念佛	-10.8549
下結	-10.8552
著述	-10.8555
往生西方	-10.8558
無涯	-10.8559
純是	-10.8564
而何	-10.8565
是菩薩	-10.8569
業也	-10.8572
寶王論	-10.8573
初標	-10.8573
世法	-10.8576
猶是	-10.8576
第十三	-10.8577
一部	-10.8577
豈無	-10.8579
結使	-10.8579
不妄	-10.8582
從佛	-10.8582
僧曰	-10.8583
所求	-10.8587
其功	-10.8589
偏空	-10.8591
證得	-10.8593
定得往生	-10.8596
親聞	-10.8599
梵天	-10.8606
二十三	-10.8607
華果	-10.8608
離此	-10.8609
不改	-10.8609
脫苦	-10.861
一切三寶	-10.861
不外	-10.8611
誦云	-10.8612
身業	-10.8615
每一	-10.8617
內心	-10.8619
之位	-10.8619
緊	-10.8623
無遺	-10.8633
一書	-10.8637
問之	-10.8638
日出	-10.8643
實法	-10.8646
彌陀經云	-10.865
不輟	-10.8655
其一	-10.8657
與眾生	-10.8658
能除	-10.8662
天真	-10.8663
直心	-10.8664
叔	-10.8665
清淨本然	-10.8665
外有	-10.8668
是事	-10.867
綺	-10.867
故令	-10.8671
纖	-10.8671
卜	-10.8671
數十	-10.8672
帳	-10.8672
磬	-10.8674
膽	-10.8674
汗	-10.8674
雀	-10.8674
佛乃	-10.8674
替	-10.8675
琴	-10.8675
倉	-10.8675
帛	-10.8675
栽	-10.8676
鎖	-10.8677
勾	-10.8677
善導和尚	-10.8678
三摩地	-10.8679
螺	-10.8679
願得	-10.868
不惜身命	-10.868
瓦礫	-10.868
可為	-10.8681
舍衛	-10.8683
纏縛	-10.8684
愛憎	-10.8684
光緒	-10.8685
呼吸	-10.8685
耳目	-10.8687
較量	-10.8692
第八識	-10.8695
而欲	-10.8697
如我今者	-10.8697
諦信	-10.8699
同學	-10.8701
往生阿彌陀佛國	-10.8702
有云	-10.8705
醫王	-10.8706
永絕	-10.8707
慈母	-10.8708
功用	-10.8709
真身	-10.8711
二合	-10.8711
生兜率	-10.8713
離諸	-10.8716
其光	-10.8717
千珠	-10.8718
流入	-10.872
若離	-10.8722
焉得	-10.8724
涯	-10.8727
疑者	-10.8727
有志	-10.8733
龍舒居士	-10.8734
開導	-10.8735
太平	-10.8738
菩薩戒	-10.874
次句	-10.8746
風樹	-10.8747
之用	-10.8748
佛世	-10.875
吾今	-10.875
一夕	-10.8752
勉之	-10.8752
藏通	-10.8753
朽	-10.8754
又問曰	-10.8755
心即	-10.8759
一代	-10.8763
自當	-10.8764
以示	-10.8764
孰能	-10.8767
圓妙	-10.8772
言也	-10.8773
必生	-10.8775
廣度	-10.878
四年	-10.8788
意者	-10.8788
何益	-10.8792
五塵	-10.8797
一大	-10.8798
觀身	-10.8799
天然	-10.8801
易成	-10.8803
凡聖同居	-10.881
一枝	-10.8812
為究竟	-10.8815
知足	-10.8816
禪師曰	-10.8823
法體	-10.8824
初機	-10.8827
苦痛	-10.8828
方成	-10.8828
火燒	-10.883
一句佛	-10.8831
十號	-10.8831
初果	-10.8834
祇是	-10.8835
變現	-10.8837
金光	-10.8843
之至	-10.8847
初觀	-10.885
離垢	-10.8852
世有	-10.8854
那得	-10.8855
佛意	-10.8857
得阿羅漢	-10.886
郎	-10.8866
十方三世一切	-10.8869
法界身	-10.887
巳知	-10.8871
蓮宗寶鑑	-10.8873
甘心	-10.8873
聰	-10.8879
予曰	-10.8879
毫無	-10.8881
虔	-10.8883
模	-10.8886
啼	-10.8888
觀其	-10.8889
紛紛	-10.8889
直須	-10.8889
二釋經二	-10.8889
窗	-10.889
虫	-10.889
博地凡夫	-10.8891
魯	-10.8892
徃	-10.8893
聯	-10.8893
評	-10.8893
下品中生	-10.8894
駭	-10.8894
慾	-10.8894
娑	-10.8895
遐	-10.8895
幡	-10.8896
鑄	-10.8896
穴	-10.8896
如入禪定	-10.8896
播	-10.8896
擬議	-10.8897
毗盧遮那	-10.8897
憎愛	-10.8898
祕	-10.8899
獅子	-10.8899
嚴飾	-10.8899
之情	-10.89
亦皆	-10.8901
增上緣	-10.8904
是諸眾鳥	-10.8905
用之	-10.8907
蓮師	-10.891
境緣	-10.891
彼如來	-10.891
十二因緣	-10.8916
淨願	-10.8916
來去	-10.8919
大抵	-10.8923
光壽	-10.8925
無方	-10.8926
方始	-10.8927
以心	-10.8929
頓超	-10.8935
悔過	-10.8937
之甚	-10.8938
主宰	-10.8939
忉利	-10.8943
唯心之	-10.8944
不信有	-10.8946
不真	-10.8952
結示	-10.8954
無間斷	-10.8954
一切法門	-10.8956
佛恩	-10.8958
生善	-10.8959
無願	-10.896
是故當知	-10.8962
求生極樂	-10.8967
至期	-10.8968
託彼	-10.8972
時至	-10.8975
妙樂	-10.8976
作業	-10.8976
劫數	-10.8977
何獨	-10.8979
安在	-10.8985
懺法	-10.8985
傳法	-10.8988
總攝	-10.8989
亦乃	-10.899
曜	-10.899
於此世界	-10.8991
事造	-10.8992
雜亂	-10.8994
此門	-10.8997
故我	-10.8999
十日	-10.9003
二首	-10.9008
能持	-10.901
真信	-10.9011
自能	-10.9013
超生	-10.9015
憐憫	-10.9016
二月	-10.902
涅槃經云	-10.9021
道心	-10.9021
樹林	-10.9025
無始以來	-10.9025
能於	-10.9025
一偈	-10.9027
念佛名	-10.903
下劣	-10.903
解行	-10.9031
乎哉	-10.9033
太虗	-10.9034
護法	-10.9036
釋義	-10.9036
永不	-10.9042
非佛	-10.9042
識心	-10.9045
者少	-10.9047
佛來	-10.9056
別明	-10.9057
二別	-10.9058
無色	-10.9059
脫生死	-10.9059
觀於	-10.9059
捨離	-10.906
延壽	-10.9061
定中	-10.9061
又此	-10.9063
不輕	-10.9063
今依	-10.9067
一二	-10.9071
初總	-10.9071
為期	-10.9076
二千	-10.9076
亦不能	-10.9078
無限	-10.9084
之異	-10.9084
成聖	-10.909
佛現	-10.9096
是同	-10.9103
而反	-10.9103
道力	-10.9104
百寶	-10.9106
以喻	-10.9106
昂	-10.9108
乃可	-10.9108
摸	-10.9108
貪嗔	-10.9109
狐疑	-10.9112
秘	-10.9112
慳	-10.9112
鴻	-10.9113
慨	-10.9113
斜	-10.9113
抽	-10.9115
嚮	-10.9116
淳	-10.9116
不可知數	-10.9116
鹽	-10.9117
萎	-10.9117
有世界名曰極樂	-10.9117
劉遺民	-10.9117
或問曰	-10.9119
昏沉	-10.912
竅	-10.912
專持名號	-10.912
淨佛國土	-10.9124
秖	-10.9124
地獄餓鬼畜生	-10.9125
在前	-10.9126
頭陀	-10.9126
現行	-10.9127
非有非無	-10.9129
涅槃云	-10.913
婦女	-10.9131
冤家	-10.9132
肉眼	-10.9132
先德云	-10.9133
有世界	-10.9133
)「	-10.9134
大慧	-10.9134
稱佛名號	-10.9135
從心	-10.9137
坐臥	-10.9137
仁慈	-10.9138
師長	-10.9141
殺害	-10.9149
勢力	-10.9151
七寶莊嚴	-10.9155
起信論云	-10.9159
得生西方	-10.9161
出娑婆	-10.9163
一性	-10.9164
為理	-10.9166
此娑婆	-10.9168
理者	-10.9169
人言	-10.9169
高明	-10.9172
龍樹菩薩	-10.9175
身在	-10.9175
本心	-10.9177
人我	-10.9179
明明	-10.9179
誠言	-10.9179
應時	-10.9179
諸菩薩摩訶薩	-10.918
久矣	-10.9182
無功	-10.9184
攝化	-10.9184
相資	-10.9185
能為	-10.9188
菩薩眾	-10.9189
姓也	-10.919
四海	-10.919
是故舍利弗	-10.9196
未入	-10.9201
觀經言	-10.9202
自信	-10.9202
傾心	-10.9204
受報	-10.9208
有限	-10.9208
皆說	-10.921
淨土或問	-10.9212
除罪	-10.9213
之學	-10.922
女身	-10.9223
二觀	-10.9226
施主	-10.9232
七月	-10.9232
復何	-10.9235
得果	-10.9237
今疏	-10.9237
功夫	-10.9239
三惡	-10.9241
道果	-10.9245
諸戒	-10.9248
志誠	-10.9248
難量	-10.9251
法性身	-10.9254
雖在	-10.9256
立誓	-10.9257
正好	-10.926
何其	-10.9261
實是	-10.9262
心起	-10.9263
三階	-10.9263
道德	-10.9269
妙悟	-10.927
本末	-10.927
終歸	-10.9272
約事	-10.9273
學佛	-10.9276
疑城	-10.9277
覺他	-10.9278
受樂	-10.9278
念法	-10.9281
此願	-10.9288
相同	-10.9293
實行	-10.9293
離苦	-10.9294
癡人	-10.9296
念彌陀佛	-10.9305
色像	-10.9305
吼	-10.9306
中生	-10.9307
金容	-10.931
更相	-10.9312
初後	-10.9313
高聲念佛	-10.9316
什	-10.9328
感報	-10.9331
叉	-10.9332
次日	-10.9332
修十善	-10.9333
蠅	-10.9334
療	-10.9334
橫截	-10.9335
奮	-10.9337
而可	-10.9337
茂	-10.9338
斬	-10.9339
偷盜	-10.934
擲	-10.934
婢	-10.9341
除八十億劫生死之罪	-10.9342
材	-10.9343
去則實不去	-10.9343
柳	-10.9343
專念阿彌陀佛	-10.9343
玲瓏	-10.9344
四十年	-10.9344
即得往生阿彌陀佛極樂國土	-10.9345
僻	-10.9345
豆	-10.9345
無問自說	-10.9345
聞我名字	-10.9346
天上人間	-10.9346
何足	-10.9346
一代時教	-10.9346
躍	-10.9346
自作	-10.9347
料	-10.9347
刃	-10.9347
突	-10.9348
刀兵	-10.9348
其數甚多	-10.9349
丁寧	-10.935
無生法忍	-10.935
眉間白毫	-10.9351
良久	-10.9351
怙	-10.9351
雕	-10.9354
勤精進	-10.9354
聲聞菩薩	-10.9359
淨邦	-10.9363
專修淨業	-10.9363
不當	-10.9363
一日七日	-10.9364
漏盡	-10.9368
財寶	-10.937
守護	-10.937
氏子	-10.937
是苦	-10.9374
為五	-10.9377
經法	-10.938
教相	-10.9384
道場樂	-10.9386
入聲	-10.9386
教以	-10.9389
忽爾	-10.939
熏修	-10.939
光明無量	-10.9391
慈悲心	-10.9392
生歡喜	-10.9392
千古	-10.9393
經意	-10.9397
一滴	-10.9399
以致	-10.9399
六月	-10.94
以彼	-10.9401
心口	-10.9403
證無生忍	-10.9405
假觀	-10.9405
一稱南無佛	-10.9408
為證	-10.9411
惟佛	-10.9411
則巳	-10.9415
惡法	-10.9422
無邊際	-10.9427
障難	-10.943
之志	-10.943
定生	-10.943
終無	-10.9432
無自性	-10.9435
所觀境	-10.9437
十二部經	-10.9438
頌云	-10.9438
其名	-10.9439
亦何	-10.9444
取之	-10.9445
之首	-10.9446
來者	-10.9448
九品往生	-10.9449
其旨	-10.945
即指	-10.9452
牧	-10.9453
者何	-10.9459
十餘	-10.946
序云	-10.946
安樂國	-10.9467
應現	-10.9469
常念佛	-10.9475
言語	-10.9475
邪師	-10.9477
成時	-10.948
二行	-10.9483
退緣	-10.949
得成佛	-10.9492
並無	-10.9493
自念	-10.9494
豈以	-10.9499
如一念頃	-10.9499
壽終	-10.9501
品位	-10.9501
圓證	-10.9501
非他	-10.9505
得成	-10.9505
數量	-10.9509
無量諸佛	-10.9511
未了	-10.9512
彼淨土	-10.9518
靈明	-10.9519
豈易	-10.9523
巳生	-10.9525
七寶池中	-10.9525
識者	-10.9532
專念佛	-10.9532
必得往生	-10.9534
為苦	-10.9536
起念	-10.9536
事畢	-10.9537
當作佛	-10.9548
難信之法	-10.955
無智	-10.9551
位不退	-10.9552
每見	-10.9557
入佛	-10.9558
形相	-10.956
厄	-10.9564
拯	-10.9564
畔	-10.9565
入道場	-10.9568
剌	-10.9569
高接下讚云	-10.9571
貧賤	-10.9571
柔	-10.9573
軟	-10.9573
衛	-10.9574
亟	-10.9574
撮	-10.9575
闊	-10.9576
粥	-10.9576
耆	-10.9576
決志	-10.9576
二子	-10.9576
複	-10.9576
俱生	-10.9577
恰	-10.9577
芥子	-10.9577
是人終時	-10.9577
生則決定生	-10.9578
伽陀	-10.9578
嶽	-10.9579
具足眾戒	-10.9579
徧照	-10.9579
鋒	-10.9579
僕	-10.958
冊	-10.958
恬	-10.9581
怯	-10.9582
大圓鏡智	-10.9582
徧一切處	-10.9582
天台智者大師	-10.9583
爽	-10.9583
苑	-10.9584
諫	-10.9584
赫	-10.9585
律儀	-10.9585
慙愧	-10.9586
無有出期	-10.9586
為勝	-10.9586
同聞	-10.9587
決定得生	-10.9588
下品上生	-10.9589
便為	-10.9591
修菩薩行	-10.9593
無二無別	-10.9594
大乘經	-10.9595
端嚴	-10.9596
尊宿	-10.9596
正念現前	-10.9598
回首	-10.9601
四時	-10.9602
無生而生	-10.9603
悟入	-10.9604
繫緣	-10.9604
上上	-10.9604
甚易	-10.9604
與汝	-10.9611
在目前	-10.9615
善逝	-10.9618
周遍	-10.9619
國中菩薩	-10.962
九蓮	-10.9621
塵劫	-10.9625
坐脫	-10.9627
開口	-10.9628
要緊	-10.9628
上方	-10.9631
從其	-10.9631
圓光	-10.9632
解脫門	-10.9632
念南無阿彌陀佛	-10.9634
殺之	-10.9635
疑也	-10.9637
安知	-10.9638
堅持	-10.964
只如	-10.9641
趣向	-10.9642
世自在王佛	-10.9643
自得	-10.9643
之別	-10.9647
對待	-10.9653
示以	-10.9657
根機	-10.9658
為法	-10.966
之矣	-10.9661
金剛經	-10.9667
皆生	-10.9667
未為	-10.9674
其聲	-10.9674
舌相	-10.9676
又名	-10.9676
有十種	-10.9676
佛德	-10.9683
八月	-10.9684
頭頭	-10.9684
妙德	-10.9689
、《	-10.9697
篤信	-10.9697
為要	-10.9698
孔子曰	-10.9701
言無	-10.9702
力行	-10.9705
所示	-10.971
苦果	-10.9711
我者	-10.9716
門人	-10.9716
戒行	-10.9717
大力	-10.972
上中下	-10.9722
諸家	-10.9722
生我剎	-10.9723
諦聽	-10.9725
數千	-10.9728
為心	-10.9729
惡報	-10.9737
不遇	-10.9737
無以	-10.9738
救度	-10.9744
寶座	-10.9745
猛火	-10.9749
寂寂	-10.975
能入	-10.9753
修諸	-10.9758
)。【	-10.9759
往生傳	-10.9759
講經	-10.9759
者矣	-10.976
觀中	-10.9761
一珠	-10.9764
教者	-10.9765
若一日	-10.9767
用此	-10.9771
頌曰	-10.9775
臨終念佛	-10.9775
疏主	-10.9782
經者	-10.9785
外緣	-10.9786
聞而	-10.9787
必當	-10.9788
照見	-10.9791
不能自	-10.9791
清淨心	-10.9795
難行	-10.98
艱	-10.9802
杭	-10.9803
相繼	-10.9803
禪門	-10.9805
侯	-10.9805
滌	-10.9806
拳	-10.9808
洎	-10.9809
隙	-10.9809
方便土	-10.9809
沐浴	-10.981
殞	-10.981
狐	-10.9811
帙	-10.9811
企	-10.9812
躭	-10.9812
培	-10.9812
濃	-10.9813
廿	-10.9813
奉事師長	-10.9813
肎	-10.9814
纖毫	-10.9816
淨土晨鐘	-10.9816
厲	-10.9817
鑊湯	-10.9818
堆	-10.9818
扇	-10.9818
臆	-10.9819
原無	-10.9819
悖	-10.982
旋繞	-10.982
如此愚人	-10.9821
堯	-10.9821
飲酒	-10.9821
與諸聖眾	-10.9822
邪婬	-10.9822
絲毫	-10.9824
儀軌	-10.9824
下下品	-10.9824
降伏	-10.9824
增減	-10.9825
念我	-10.9827
儼然	-10.9827
所問	-10.9827
諸如來	-10.9828
京師	-10.9829
歷代	-10.9831
寶閣	-10.9832
謂此	-10.9836
應須	-10.9836
界外	-10.9837
總為	-10.9839
白玉	-10.984
讀之	-10.984
以無	-10.9841
其國眾生	-10.9843
其佛國土	-10.9846
無違	-10.9847
吾之	-10.985
見諸佛	-10.985
顯理	-10.9852
顏色	-10.9853
有如是	-10.9858
故說	-10.986
前程	-10.986
垂終	-10.986
有量	-10.9861
如山	-10.9861
曰吾	-10.9862
大智慧	-10.9865
易行道	-10.9866
為他	-10.9868
結集	-10.9877
眾中	-10.9879
心力	-10.988
恒沙諸佛	-10.988
念念彌陀	-10.988
一一皆	-10.9886
為首	-10.9888
而後巳	-10.9888
不謬	-10.9889
天道	-10.9891
十二年	-10.9895
毀謗	-10.9896
于是	-10.9896
為眾	-10.99
華言	-10.9902
中峯	-10.9902
未忘	-10.9905
小劫	-10.9906
據此	-10.9913
豈不是	-10.9919
通明	-10.9921
放光明	-10.9923
發現	-10.9924
我當	-10.9924
專持	-10.9924
念佛三昧者	-10.9925
楞伽經	-10.9929
信佛	-10.993
而立	-10.9932
小果	-10.9932
能信	-10.9933
境也	-10.9935
體也	-10.9936
久遠	-10.994
初祖	-10.9942
詩云	-10.9944
朔	-10.9945
照耀	-10.9953
可乎	-10.9955
解云	-10.9957
德佛	-10.9958
不移	-10.9958
靈知	-10.9959
超三界	-10.996
正說	-10.9963
後生	-10.9965
所牽	-10.9969
四曰	-10.997
諸比丘	-10.9971
剎中	-10.9972
眾生界	-10.9973
之難	-10.9975
諸煩惱	-10.9975
天下之	-10.9979
疑情	-10.9981
什師	-10.9986
論中	-10.9988
波羅密	-10.9989
惟在	-10.9992
此名	-10.9992
本非	-10.9994
時分	-10.9996
二十九	-10.9997
貞	-10.9997
古來	-11.0002
益也	-11.0005
作如是	-11.0007
不存	-11.0011
所著	-11.0012
不歷	-11.0014
見彼	-11.0021
會得	-11.0025
普攝	-11.0028
雖曰	-11.0029
信願行	-11.003
要在	-11.0034
廣長舌	-11.0036
得力	-11.004
涌	-11.0041
異常	-11.0042
匠	-11.0048
匝	-11.0049
謙	-11.0049
袈裟	-11.0049
無量無數	-11.0049
誠實	-11.005
眾生心中	-11.0051
柴	-11.0053
呈	-11.0053
額	-11.0053
占	-11.0054
妙宗鈔	-11.0056
䖍	-11.0056
催	-11.0056
辱	-11.0057
敏	-11.0057
鴈	-11.0058
全性起修	-11.0058
衣裓	-11.0059
愚夫愚婦	-11.0059
入一切眾生心想中	-11.006
杭州	-11.006
我說	-11.006
舞	-11.006
羅睺羅	-11.006
靈峯	-11.0061
暖	-11.0061
宛轉	-11.0062
六種	-11.0062
火坑	-11.0063
去佛不遠	-11.0063
區	-11.0063
六念	-11.0064
鈴	-11.0064
無所從來	-11.0064
詢	-11.0065
輪迴六道	-11.0065
無所有	-11.0065
羨	-11.0066
直截	-11.0066
良繇	-11.0067
阿鼻地獄	-11.0071
教行理	-11.0072
白鶴	-11.0072
撓	-11.0073
今文	-11.0073
正等	-11.0075
互融	-11.0076
凡聖同居土	-11.0076
冤親	-11.0076
發揮	-11.0078
微塵數	-11.008
高座	-11.008
增上	-11.0085
再三	-11.0086
五力	-11.0087
真淨	-11.0089
乃成	-11.009
不信因果	-11.0091
佛相	-11.0092
忽有	-11.0093
念得	-11.0098
惑亂	-11.0099
未來世	-11.01
同生淨土	-11.01
轉相	-11.0106
念佛不輟	-11.0107
佛及	-11.0107
奇妙	-11.0107
後來	-11.011
登彼岸	-11.0112
一切惡	-11.0113
其有眾生	-11.0115
同在	-11.0116
願云	-11.0116
家鄉	-11.0119
體究	-11.012
正顯	-11.0124
同於	-11.0125
還歸	-11.0125
和會	-11.0125
漸次	-11.0126
三歸	-11.0128
深恩	-11.013
樹下	-11.0136
攷證	-11.0137
不願往生	-11.0137
深妙	-11.0137
此觀	-11.0137
弘願	-11.0138
接引眾生	-11.0146
非唯	-11.0147
既然	-11.0148
何止	-11.015
紫金身	-11.0151
名極樂	-11.0156
會中	-11.0158
不堪	-11.0161
隨宜	-11.0163
破壞	-11.0165
而巳矣	-11.0167
四法	-11.0167
想成	-11.0168
六道眾生	-11.0169
字字	-11.0169
濟度	-11.0172
相貌	-11.0174
自言	-11.0178
取其	-11.0179
是果	-11.0181
如下	-11.0181
真珠	-11.0184
以手	-11.0184
有八	-11.0191
便可	-11.0192
外境	-11.0192
遷流	-11.0193
戒香	-11.0196
隅	-11.0198
拔苦	-11.02
各隨	-11.0201
兒女	-11.0205
其教	-11.0205
幾時	-11.0206
菩薩行	-11.0206
既以	-11.0216
願為	-11.0216
略說	-11.0218
西天	-11.0219
釋氏	-11.022
所當	-11.0221
誠為	-11.0221
下三品	-11.0224
外求	-11.0225
當自	-11.0227
相逢	-11.0229
天耳	-11.0229
生即無生	-11.024
隨類	-11.0243
一道	-11.0243
其家	-11.0245
福業	-11.0247
看經	-11.0248
則易	-11.0252
多種	-11.0253
信得	-11.0258
生因	-11.0262
一室	-11.0267
先當	-11.0268
出輪迴	-11.0269
解義	-11.0273
佛說法	-11.0275
不休	-11.0275
之過	-11.0281
百八	-11.0281
乘此	-11.0281
如大海	-11.0281
眾罪	-11.0282
坦	-11.0286
真境	-11.0287
無此	-11.0288
立宗	-11.0288
戴	-11.0295
隻	-11.0296
大論	-11.03
廬	-11.0301
讖	-11.0302
軒	-11.0302
迭	-11.0302
暎	-11.0303
不越	-11.0304
諸魔	-11.0304
葬	-11.0305
前二	-11.0305
幢幡	-11.0305
伐	-11.0306
不謗大乘	-11.0306
說淨土	-11.0306
吝	-11.0307
韓	-11.0307
爪	-11.0307
定業	-11.0308
無常迅速	-11.0308
自得心開	-11.0308
無憂	-11.0309
譽	-11.0309
中品上生	-11.031
炭	-11.031
現其人前	-11.031
藝	-11.0311
菜	-11.0311
趙	-11.0311
泡	-11.0311
毗盧	-11.0311
熱惱	-11.0312
正所謂	-11.0312
維摩詰	-11.0312
凌	-11.0312
兆	-11.0312
聞我名號	-11.0313
吸	-11.0313
當願眾生	-11.0314
字字分明	-11.0315
即得往生極樂世界	-11.0315
囉	-11.0316
意欲	-11.0316
演暢	-11.0317
何以得知	-11.0317
貝	-11.0318
宣揚	-11.0318
勇猛精進	-11.0318
摩頂	-11.0319
真修	-11.032
必定見佛	-11.032
星宿	-11.032
影響	-11.0324
變化所作	-11.0325
總觀	-11.0325
極樂淨土	-11.0326
寂默	-11.0327
大寶積經	-11.0327
利養	-11.0333
通名	-11.0335
其相	-11.0337
雙亡	-11.0338
急須	-11.0339
設教	-11.034
頻婆	-11.034
名聞	-11.034
法眼	-11.0341
未足	-11.0346
下約	-11.0347
能得	-11.0349
萬歲	-11.0355
惡友	-11.0356
銀臺	-11.0357
既得	-11.0359
地位	-11.0363
淨戒	-11.0366
置之	-11.0376
一則	-11.038
獲益	-11.0381
常寂	-11.0382
意業	-11.0383
侍者	-11.0385
心空	-11.0387
食之	-11.0389
見道	-11.039
妙色	-11.0392
識得	-11.0395
更加	-11.0398
立行	-11.0398
妙境	-11.04
但念阿彌陀佛	-11.0404
無分別	-11.0404
唯除	-11.0405
無數劫	-11.041
果然	-11.0412
彼佛壽命	-11.0416
十念成就	-11.0418
清淨莊嚴	-11.0423
念去	-11.0426
而實	-11.0431
即知	-11.0435
不除	-11.0435
三慧	-11.0438
八種	-11.0444
與佛同	-11.0445
惡念	-11.0451
提起	-11.0451
俱是	-11.0452
具說	-11.0456
下根	-11.0457
結緣	-11.0461
般舟三昧經	-11.0464
往生樂	-11.0467
大旨	-11.047
皆如	-11.0471
不安	-11.0472
朝朝	-11.0475
正教	-11.048
一月	-11.048
無善	-11.048
種善根	-11.0486
世所	-11.0489
異方便	-11.0491
所陳	-11.0492
在我	-11.0493
中流	-11.0508
隨願	-11.051
不見佛	-11.0514
安心	-11.0516
之福	-11.052
於佛前	-11.0523
後二	-11.0525
四趣	-11.0529
隨佛	-11.053
蒼	-11.0532
佛頂	-11.0534
去也	-11.0537
不涉	-11.0539
同佛	-11.0548
安有	-11.0548
多年	-11.0548
數日	-11.0548
受其	-11.0551
昨	-11.0552
二俱	-11.0553
范	-11.0554
啄	-11.0556
六字洪名	-11.0557
酥	-11.0558
涕	-11.056
鑿	-11.056
豫	-11.0561
挽	-11.0564
柔輭	-11.0564
錦	-11.0565
禪教律	-11.0565
九月	-11.0565
虗偽	-11.0567
得忍	-11.0567
命根	-11.0568
討	-11.0569
命終之後	-11.0569
正釋	-11.0569
衡	-11.0569
不可窮盡	-11.0569
賞	-11.0571
秘密	-11.0571
天神	-11.0571
迦陵頻伽	-11.0571
常樂我淨	-11.0571
伎樂	-11.0573
正直	-11.0574
標名	-11.0574
洞徹	-11.0575
百丈	-11.0577
盧舍那	-11.0577
活計	-11.0578
唯是一心	-11.0578
總別	-11.0579
精修	-11.0581
達摩	-11.0583
今巳	-11.0584
神呪	-11.0585
歸來	-11.0592
青山	-11.0593
四禪	-11.0594
覺也	-11.0596
道業	-11.0596
迎接	-11.0597
念佛之	-11.0598
華中	-11.0598
願願	-11.0601
二教	-11.0602
深廣	-11.0605
取舍	-11.0606
滅盡	-11.0606
老病	-11.0607
後文	-11.0608
輕微	-11.0609
此即初	-11.061
念佛而	-11.0612
剎海	-11.0612
平常	-11.0614
我執	-11.0615
性命	-11.0619
不雜	-11.062
一信	-11.0621
變作	-11.0622
救度眾生	-11.0623
比丘尼	-11.0624
或復	-11.0627
善男子善女人	-11.0629
萬世	-11.0631
心常	-11.0637
攝論	-11.0638
雖異	-11.064
徧滿	-11.0642
我慢	-11.0643
於理	-11.0644
必生淨土	-11.0644
誦持	-11.0645
我是	-11.0645
不惟	-11.0649
海眾	-11.0651
此呪	-11.0653
不觀	-11.0655
世間之	-11.0657
性也	-11.0658
其德	-11.0659
內有	-11.0662
泥犁	-11.0669
滅諦	-11.067
小彌陀經	-11.0671
語云	-11.0672
般舟三昧	-11.0673
苦諦	-11.0673
三經	-11.0677
與眾	-11.068
從緣	-11.0681
一步	-11.0686
為緣	-11.0686
自非	-11.0689
具云	-11.069
一理	-11.0692
先覺	-11.0692
如文	-11.0694
故於	-11.0694
一聞	-11.0703
觀智	-11.0708
亦須	-11.0711
常隨	-11.0712
大用	-11.0712
足下	-11.0712
永滅	-11.0714
斷見思	-11.0716
得出	-11.0717
清珠	-11.0722
牟尼	-11.0724
於西方	-11.0726
判為	-11.0726
一類	-11.0728
幻化	-11.0734
亦同	-11.0734
解說	-11.0736
既曰	-11.0737
即彌陀	-11.074
述偈	-11.0745
若其	-11.075
十萬億土	-11.0754
於諸眾生	-11.0755
如雲	-11.0755
五句	-11.0758
即入	-11.0759
慈光	-11.0759
法執	-11.076
飯食	-11.0762
尚不能	-11.0767
罪報	-11.0775
見惑	-11.0777
心垢	-11.0777
何苦	-11.0778
則可	-11.0781
耳聞	-11.0782
普觀	-11.0785
台	-11.0786
有力	-11.0788
水上	-11.079
大哉	-11.0791
立名	-11.0795
善因	-11.0799
二事	-11.08
多善根	-11.0803
同異	-11.0805
能具	-11.0807
雖不能	-11.0808
必能	-11.0808
心開	-11.0809
向西方	-11.081
一品	-11.0811
嗏	-11.0812
念之	-11.0812
馬鳴	-11.0814
智人	-11.0815
難以	-11.0816
崑	-11.0817
塘	-11.0818
煑	-11.0819
觀像	-11.0819
庚	-11.082
感佛	-11.082
眾所知識	-11.0821
之路	-11.0822
聞見	-11.0822
勳	-11.0823
岳	-11.0824
讐	-11.0824
鬪	-11.0825
儔	-11.0825
取相	-11.0825
瞽	-11.0825
皆須	-11.0826
薩	-11.0826
惺惺	-11.0826
懶	-11.0827
榻	-11.0827
卯	-11.0827
刪	-11.0827
無殊	-11.0827
作禮而去	-11.0827
皇帝	-11.0827
不犯威儀	-11.0827
衷	-11.0828
幽溪	-11.0828
吁	-11.0829
殻	-11.0829
造論	-11.0829
愽	-11.0829
貢高	-11.083
壓	-11.083
大𦦨肩佛	-11.083
迄	-11.0831
忿	-11.0831
嗔恨	-11.0831
若果	-11.0832
耑	-11.0832
鑽	-11.0832
夕陽	-11.0832
阿鞞䟦致	-11.0833
永無退轉	-11.0833
中觀	-11.0834
卦	-11.0834
定者	-11.0834
哆	-11.0835
必至	-11.0835
驢	-11.0835
果上	-11.0835
或聞	-11.0836
方便有餘土	-11.0837
惱亂	-11.0839
真能念佛	-11.0839
釋疑	-11.0839
毒藥	-11.0839
諷	-11.0842
遲速	-11.0842
宋譯	-11.0845
是菩薩淨土	-11.0846
不別	-11.0849
其土眾生	-11.0849
無因	-11.085
一百	-11.085
徹底	-11.0854
中云	-11.0856
點示	-11.0861
空假	-11.0861
寶樓	-11.0864
血肉	-11.0864
之一字	-11.0865
不顛倒	-11.0866
僊	-11.087
斷煩惱	-11.0872
徧法界	-11.0873
老僧	-11.0876
往彼	-11.0881
果位	-11.0881
之可	-11.0881
復以	-11.0882
常聞	-11.0883
佛知見	-11.0885
坐道場	-11.0886
無一法	-11.0887
得生易	-11.0888
相宗	-11.0888
等是也	-11.0892
數息	-11.0893
水鳥	-11.0894
南山	-11.0894
隨逐	-11.0895
▁十	-11.0897
有罪	-11.0901
靈山	-11.0904
此云大	-11.0908
用功	-11.0908
開合	-11.0909
跳	-11.0913
到西方	-11.0917
而行之	-11.0918
屬於	-11.0921
自生	-11.0926
為實	-11.0926
是之謂	-11.0927
五通	-11.0929
讚揚	-11.0932
開發	-11.0934
▁答	-11.0935
人能	-11.0937
施戒	-11.0937
之殊	-11.0938
聞妙法	-11.094
可畏	-11.094
教我	-11.094
妄謂	-11.0942
明師	-11.0944
此之謂也	-11.0944
道家	-11.0951
五品	-11.0952
於一切時	-11.0953
恭敬供養	-11.0956
必矣	-11.0956
眼目	-11.0957
必不	-11.0957
非法	-11.0958
說也	-11.0961
而念	-11.0964
謂佛	-11.0964
正念分明	-11.0965
後身	-11.0966
而歸	-11.0967
俱非	-11.0971
心有	-11.0971
香雲	-11.0972
極力	-11.0974
謂曰	-11.0979
都不	-11.0992
臨時	-11.0997
則與	-11.0999
如須彌山	-11.1
此土眾生	-11.1001
二名	-11.1006
作佛事	-11.101
不可言	-11.1012
滅八十億劫生死重罪	-11.1021
諸障	-11.1029
離欲	-11.1029
蓋以	-11.1029
滅惡	-11.103
聞此經	-11.1031
理持	-11.1032
所載	-11.1037
法樂	-11.1037
在彼	-11.1039
圓淨	-11.104
遞	-11.104
失正念	-11.104
教理	-11.1041
其往生	-11.1042
空過	-11.1044
母子	-11.1045
他身	-11.1046
不應食肉	-11.1047
欲見	-11.1052
於前	-11.1053
不貪	-11.1054
之失	-11.1055
不由	-11.1057
脫輪迴	-11.106
實可	-11.1063
以眾生	-11.1065
城中	-11.1067
菩提道	-11.1068
不相應	-11.107
即性	-11.107
迷惑	-11.107
見前	-11.1073
不能知	-11.1074
八十億劫	-11.1075
乃曰	-11.1076
六日	-11.108
無信	-11.1081
不切	-11.1082
不差	-11.1086
霧	-11.1087
區區	-11.1089
煎	-11.109
寐	-11.1091
頂戴	-11.1091
麥	-11.1093
筋	-11.1093
帆	-11.1093
亥	-11.1093
梨	-11.1094
衢	-11.1094
偉	-11.1095
烹	-11.1095
揖	-11.1096
寤	-11.1097
樂邦文類	-11.1098
祀	-11.1098
脈	-11.11
了了分明	-11.1101
詐	-11.1101
叫	-11.1101
程途	-11.1101
七重行樹	-11.1101
胎獄	-11.1101
剛	-11.1102
諒	-11.1102
削	-11.1102
纖塵	-11.1102
中品下生	-11.1103
現前當來必定見佛	-11.1103
摘	-11.1104
監	-11.1104
念起	-11.1107
而此	-11.1107
此段	-11.1108
三輩九品	-11.1108
托質	-11.1109
又當	-11.1109
短命	-11.111
輕慢	-11.1111
猛利	-11.1111
上有	-11.1112
瑞應	-11.1117
圓極	-11.1118
集諦	-11.1119
親證	-11.1119
魏譯	-11.1119
交徹	-11.112
苦者	-11.1121
神通自在	-11.1122
和南	-11.1122
即大	-11.1122
若七日	-11.1124
宗本	-11.1124
田地	-11.1127
諸佛國	-11.1128
哀愍	-11.1129
▁南無大	-11.1133
信知	-11.1134
令諸眾生	-11.1134
孟子曰	-11.1138
根鈍	-11.1139
初正釋	-11.1139
報佛	-11.114
安養國	-11.114
演法	-11.114
僧寶	-11.1141
智論云	-11.1142
者是也	-11.1145
了無	-11.1146
承上	-11.1147
六方佛	-11.1147
三根	-11.1147
妙果	-11.1148
明之	-11.1151
歲次	-11.1154
兩句	-11.1155
常照	-11.1156
而常	-11.1156
念彼佛	-11.116
普為	-11.1162
老死	-11.1163
報土	-11.1164
切勿	-11.1164
華香	-11.1166
極矣	-11.1168
不暇	-11.1168
此句	-11.1169
所不能	-11.1169
法照	-11.117
正語	-11.1172
必欲	-11.1174
先觀	-11.1178
鏡中	-11.118
劣應	-11.118
語錄	-11.1181
在何處	-11.1183
教之	-11.1187
未及	-11.1188
與諸	-11.1192
不會	-11.1193
有事	-11.1195
昔日	-11.1195
相隨	-11.1197
億萬	-11.1199
回向西方	-11.1199
同治	-11.1203
藥王	-11.1203
則念念	-11.1204
所變	-11.1206
盡力	-11.1208
妙旨	-11.1214
一切有情	-11.1216
神變	-11.1216
假令	-11.1223
國土莊嚴	-11.1223
第十一	-11.1224
此一心	-11.1224
心安	-11.1226
我有	-11.1231
光影	-11.1232
說妙法	-11.1232
即成	-11.1236
下方	-11.1239
隨人	-11.1239
俄而	-11.1243
然亦	-11.1244
立化	-11.1249
求救	-11.1256
生安樂	-11.1256
常樂	-11.1256
廣長	-11.1258
以求	-11.1261
傳云	-11.1263
不得不	-11.1263
定善	-11.1264
聖人之	-11.1269
是菩提	-11.1269
諸相	-11.127
誓不	-11.127
王氏	-11.1271
飛行	-11.1272
號為	-11.1272
所出	-11.1273
障道	-11.1273
強名	-11.1273
定散	-11.1274
可比	-11.1275
法名	-11.1276
之辭	-11.1277
行世	-11.1278
觀照	-11.1281
從心想生	-11.1283
全體是	-11.1285
為境	-11.1285
真是	-11.1287
紅蓮	-11.1289
廣明	-11.129
子之	-11.129
巳竟	-11.1293
不到	-11.1295
全在	-11.1298
只因	-11.13
正示	-11.13
翻為	-11.1301
而取	-11.1306
五門	-11.1308
而我	-11.131
次想	-11.1314
縱令	-11.1315
障深	-11.1316
歸安養	-11.1319
相傳	-11.1323
又經云	-11.1323
頓漸	-11.1326
徧十方	-11.1326
瑜伽	-11.1327
得福	-11.1328
苦心	-11.1328
一篇	-11.1336
專一	-11.1342
難忍	-11.1343
可解	-11.1344
湧	-11.1346
極樂依正	-11.1348
化成	-11.1349
七歲	-11.135
而住	-11.1351
遇知識	-11.1353
異名	-11.1356
上上品	-11.1358
安身	-11.1361
下手	-11.1361
四十二	-11.1362
炳	-11.1362
從上	-11.1363
人死	-11.1364
荊	-11.1364
於空	-11.1364
膏	-11.1364
黎	-11.1367
孕	-11.1367
輸	-11.1368
握	-11.1368
盆	-11.1369
卵	-11.137
邁	-11.137
侍郎	-11.137
仔細	-11.137
互為	-11.137
供養佛	-11.137
粉	-11.1372
因也	-11.1373
地水火風	-11.1373
貽	-11.1373
憍慢	-11.1373
悟解	-11.1374
葷	-11.1374
善能覺了	-11.1375
踊躍	-11.1375
介	-11.1376
慈照宗主	-11.1376
賈	-11.1376
腰	-11.1376
發露懺悔	-11.1376
裁	-11.1376
頻伽	-11.1376
佐	-11.1376
般若波羅蜜	-11.1377
勸進行者	-11.1378
馬鳴龍樹	-11.1378
嶺	-11.1378
是心作佛是心是佛	-11.1379
於汝意云何	-11.1379
仕	-11.1379
一口	-11.1379
彚	-11.1379
朝夕	-11.138
奢	-11.1381
最上乘	-11.1381
伴侶	-11.1382
朋友	-11.1383
聽者	-11.1384
帶業	-11.1384
高低	-11.1385
樂事	-11.1385
十疑論云	-11.1385
上至	-11.1386
念佛不得了也	-11.1386
孝養	-11.1387
迷津	-11.1388
何況有實	-11.1389
之多	-11.1389
同行	-11.1391
三分	-11.1391
七年	-11.1392
安穩	-11.1392
心外無法	-11.1394
機宜	-11.1403
心眼	-11.1403
進退	-11.1404
長齋	-11.1405
相當	-11.1407
依於	-11.1407
五住	-11.1408
不退者	-11.1409
影像	-11.1411
隨業	-11.1412
有分	-11.1412
全彰	-11.1414
可思議	-11.1414
苟能	-11.1415
▁念佛	-11.1415
近而	-11.1417
不停	-11.1417
結歸	-11.1418
千歲	-11.142
專念彌陀	-11.142
本為	-11.1421
仁者	-11.1422
趨向	-11.1426
般涅槃	-11.1427
行菩薩道	-11.143
亂心	-11.143
大丈夫	-11.1435
實則	-11.1436
任意	-11.1437
禪觀	-11.1437
聖境	-11.1439
則必	-11.1439
信有	-11.1439
智論	-11.144
苦報	-11.144
影現	-11.1441
香氣	-11.1443
所讚	-11.1444
婬欲	-11.1446
本願力	-11.1447
名義	-11.1447
一念心	-11.1447
得益	-11.1449
鬼畜	-11.1451
佛則	-11.1453
歸向	-11.1455
不相違	-11.1459
切不可	-11.146
流注	-11.1461
必成	-11.1461
尚無	-11.1461
有僧	-11.1462
得悟	-11.1463
未除	-11.1463
平地	-11.1467
姓名	-11.1468
未到	-11.1469
今復	-11.147
下引	-11.1473
無如念佛	-11.1473
利害	-11.1476
孝子	-11.1478
宗風	-11.148
如之何	-11.1487
脫離	-11.149
似有	-11.1492
實難	-11.1494
等經	-11.1496
▁二釋	-11.1496
具載	-11.1496
未幾	-11.1497
今朝	-11.1501
覺者	-11.1501
必無	-11.1502
念時	-11.1503
三昧者	-11.1508
所及	-11.1512
向佛	-11.1513
淨念	-11.1513
諸有	-11.1515
八法	-11.1517
於十方	-11.1517
勸發	-11.1521
中王	-11.1522
尚得往生	-11.1524
眾人	-11.1527
壽者	-11.1528
說此經	-11.1529
今古	-11.153
聖者	-11.1534
萬古	-11.1534
亦即	-11.1535
當觀	-11.1538
物命	-11.1539
▁示	-11.1539
梵王	-11.154
告之	-11.1541
之光	-11.1545
福智	-11.1545
三字	-11.1548
香光	-11.1551
四分	-11.1551
菩薩成佛時	-11.1553
讚曰	-11.1554
用也	-11.1554
斷盡	-11.1559
神光	-11.1562
到家	-11.1565
色聲	-11.1566
不深	-11.157
盡其	-11.1575
好心	-11.1577
下四句	-11.1578
起一念	-11.158
極大	-11.158
無行	-11.1582
未曾有	-11.1582
依教	-11.1583
偈頌	-11.1585
法故	-11.1585
巳悟	-11.1586
言教	-11.1592
八戒	-11.1594
四王	-11.1597
清水	-11.16
習之	-11.16
而現	-11.1602
淨緣	-11.1602
門外	-11.1607
不等	-11.161
淨佛	-11.1613
盡心	-11.1615
勸令	-11.1616
寶像	-11.1616
今但	-11.1617
一微塵	-11.1621
八德	-11.1621
亦猶	-11.1623
善念	-11.1624
是淨土	-11.1632
而不可	-11.1634
無失	-11.1635
▁一句彌陀	-11.1635
四悉	-11.164
寶珠	-11.1642
夢見	-11.1642
真金	-11.1644
青蓮	-11.1644
佛家	-11.1646
難事	-11.1646
道路	-11.1646
初禪	-11.1647
為能	-11.1647
最易	-11.1651
別釋	-11.1651
蜀	-11.1652
悴	-11.1652
加以	-11.1653
菩薩道	-11.1655
弦	-11.1656
波旬	-11.1656
潤澤	-11.1656
賺	-11.1658
埽	-11.1659
爍	-11.1659
浙	-11.166
廉	-11.166
離過絕非	-11.166
瞬	-11.166
我弟子	-11.1661
儀式	-11.1661
牆	-11.1661
形骸	-11.1661
雁	-11.1662
謨	-11.1662
勉強	-11.1662
諄諄	-11.1662
莫尚乎	-11.1663
靈峰	-11.1663
霄	-11.1663
拱	-11.1663
總示	-11.1664
阿僧祗劫	-11.1664
留心	-11.1664
能隨	-11.1665
措	-11.1665
娘	-11.1665
心想佛時	-11.1665
箇箇	-11.1665
四面	-11.1666
渺	-11.1666
是為甚難	-11.1666
橫竪	-11.1666
戾	-11.1666
敕	-11.1666
籌	-11.1667
速證	-11.1667
中品中生	-11.1667
閻王	-11.1668
樵	-11.1668
楚石	-11.1668
皆是阿鞞䟦致	-11.1669
緊要	-11.167
觀世音大勢至	-11.167
衍	-11.1671
群疑論	-11.1672
常精進菩薩	-11.1672
礫	-11.1672
荊棘	-11.1673
竭力	-11.1675
變為	-11.1675
閉目	-11.1675
勝友	-11.1682
靈驗	-11.1682
終成	-11.1682
有淺深	-11.1684
安排	-11.1686
是因	-11.1686
四悉檀	-11.1689
極樂者	-11.169
次二句	-11.169
上生經	-11.169
徒勞	-11.169
貞觀	-11.1692
人世	-11.1692
相現	-11.1693
而得往生	-11.1694
能如是	-11.1695
禪悅	-11.1695
惑業	-11.1695
業海	-11.1696
二十七	-11.17
使其	-11.1701
皆在	-11.1705
一喝	-11.1706
標心	-11.1707
禪師云	-11.1709
集眾	-11.1709
汝心	-11.1711
解者	-11.1713
釋論	-11.1714
請僧	-11.1715
違順	-11.1716
先世	-11.1716
證也	-11.1723
他經	-11.1723
無足	-11.1725
安得不	-11.1728
往生呪	-11.1731
偏小	-11.1731
皆言	-11.1732
勤行	-11.1735
為說法	-11.1736
玄義	-11.1736
大者	-11.1738
深厚	-11.174
樂音	-11.1748
注想	-11.1752
能救	-11.1753
勝相	-11.1754
生彼國巳	-11.1754
水月	-11.1756
尊貴	-11.1759
▁二明	-11.176
大樂	-11.1761
金剛臺	-11.1763
速成	-11.1767
明珠	-11.1767
淨其心	-11.1768
若未	-11.1768
發菩提	-11.1768
首楞嚴	-11.1769
然燈	-11.1769
勝應	-11.1772
即當	-11.1778
即至	-11.1778
既知	-11.178
常念阿彌陀佛	-11.178
深思	-11.1783
之病	-11.1784
兜率天	-11.1786
音佛	-11.1786
真體	-11.1791
行不退	-11.1794
或因	-11.18
即是佛	-11.1802
一音	-11.1802
心光	-11.181
時刻	-11.1813
上三	-11.1816
端坐而化	-11.1816
但云	-11.1818
彼云	-11.1818
吾師	-11.1819
婆心	-11.182
無生滅	-11.1821
承當	-11.1821
又能	-11.1824
能攝	-11.1828
先聖	-11.1828
淨土之說	-11.183
莊嚴淨土	-11.1831
可修	-11.1831
後一	-11.1833
巳過	-11.1837
刻刻	-11.1837
痛哉	-11.1838
其過	-11.1839
豈不聞	-11.1841
不爾	-11.1846
教誡	-11.1847
近世	-11.1848
信施	-11.1849
託生	-11.1849
本來無	-11.1851
空空	-11.1853
白佛	-11.1856
道諦	-11.1858
證法身	-11.1863
此偈	-11.1863
眾行	-11.1864
即與	-11.1868
墮於	-11.1871
妄見	-11.1877
不休息	-11.1878
此性	-11.1884
師之	-11.1886
許多	-11.189
佛化	-11.1893
照十方國	-11.1894
此教	-11.1896
一條	-11.1898
無一物	-11.1899
聲色	-11.1899
現在前	-11.1901
宛	-11.1903
笑曰	-11.1908
為最	-11.1911
可厭	-11.1912
還復	-11.1913
一剎那	-11.1913
昭然	-11.1915
觀境	-11.1918
不虛	-11.1918
合論	-11.1924
於空中	-11.1927
潭	-11.1927
大善	-11.1928
種種方便	-11.1933
苟非	-11.1934
可到	-11.1935
織	-11.1938
也念	-11.1942
譬之	-11.1943
意根	-11.1944
香花	-11.1948
脉	-11.1948
不唐捐	-11.1949
贅	-11.195
山河大地	-11.195
夾	-11.1951
縈	-11.1951
佛告阿難及韋提希	-11.1953
煖	-11.1953
杳	-11.1953
鷄	-11.1954
翅	-11.1954
是其	-11.1954
彭	-11.1954
几	-11.1954
魁	-11.1955
鼠	-11.1955
貨	-11.1956
懃	-11.1956
為用	-11.1956
拾	-11.1957
栴檀	-11.1957
森	-11.1957
各於其國出廣長舌相	-11.1957
楊傑	-11.1957
庫	-11.1957
禹	-11.1957
苗	-11.1958
南嶽	-11.1959
受菩薩戒	-11.1959
剌血	-11.1959
定性	-11.1959
恕	-11.196
目犍連	-11.196
校量	-11.196
邀	-11.196
楊次公	-11.196
儉	-11.1961
橫出三界	-11.1961
歡喜信受	-11.1961
妖	-11.1961
大如車輪	-11.1962
宗賾	-11.1962
萬修萬人去	-11.1962
阿彌陀佛南無阿彌陀佛	-11.1964
過十萬億佛土	-11.1964
佛慧	-11.1964
阿鞞跋致	-11.1964
皈命	-11.1965
阿難陀	-11.1965
酒肉	-11.1965
兔	-11.1966
誹謗正法	-11.1966
身口意	-11.1967
諸佛國土	-11.1968
亦在	-11.1968
浮雲	-11.197
今發願	-11.1971
永不退轉	-11.1971
百千億	-11.1971
乞士	-11.1971
紅塵	-11.1972
天冠	-11.1973
圓觀	-11.1975
無學	-11.1975
雙融	-11.1976
即所謂	-11.1976
觀佛相好	-11.1978
花臺	-11.1979
回向發願	-11.1979
功德力	-11.1979
亦生	-11.1981
等法	-11.1981
三拜	-11.1983
尤甚	-11.1984
證小果	-11.1984
聲聞眾	-11.1987
之患	-11.1987
生疑惑	-11.199
甚大	-11.1991
今略	-11.1993
即心是佛	-11.1994
寶界	-11.1997
求之	-11.1999
他心	-11.2001
實際	-11.2005
所發	-11.2006
觀經疏云	-11.2008
七趣	-11.201
魔軍	-11.2012
日輪	-11.2013
一路	-11.2014
天帝	-11.2014
增益	-11.2015
一切賢聖	-11.2016
手足	-11.2017
思慧	-11.2019
中初科	-11.202
千由旬	-11.2023
欲知	-11.2024
所受	-11.2025
寂光土	-11.2026
思惑	-11.2029
以證	-11.2033
持念	-11.2035
不若	-11.2038
同證	-11.2043
大導師	-11.2043
如海	-11.2046
共命	-11.2056
願往	-11.206
傳記	-11.2062
州人	-11.2063
宿因	-11.2064
一異	-11.2065
四種淨土	-11.2066
巳來	-11.2072
要旨	-11.2073
慧日	-11.2073
於事	-11.2074
見於	-11.2078
至死	-11.2079
發意	-11.2081
金色身	-11.2084
接引往生	-11.2086
一境	-11.2086
覺分	-11.2088
雨華	-11.2096
獨覺	-11.2098
專意	-11.21
佛願力	-11.2102
階不退	-11.2107
專注	-11.2107
其所以	-11.2109
三結	-11.211
都是	-11.2111
香山	-11.2115
及早	-11.2116
臨死	-11.2116
身體	-11.2121
通序	-11.2121
以念佛心	-11.2122
七佛	-11.2124
不生滅	-11.2125
大利	-11.2129
與彼	-11.213
塵垢	-11.2132
金輪	-11.2134
始本	-11.2142
且以	-11.2142
生於淨土	-11.2142
四重	-11.2144
五月	-11.2145
得三昧	-11.2146
辨之	-11.2146
法會	-11.2147
如是等法	-11.2151
求於	-11.2152
與此	-11.2155
即性具	-11.2157
人法	-11.2158
事事	-11.2159
藥師	-11.216
第十二	-11.2162
五苦	-11.2163
必為	-11.2163
心識	-11.2166
毫端	-11.2174
一語	-11.2174
何待	-11.2174
五人	-11.218
總標	-11.2182
當發願	-11.2183
一物	-11.2186
即起	-11.2189
其父	-11.219
譯人	-11.219
其大	-11.2196
求生者	-11.2202
苦眾生	-11.2204
喝	-11.2208
次引	-11.221
粒	-11.2212
夫子	-11.2217
誠心	-11.2217
之論	-11.2217
西去	-11.2219
徧覆	-11.2225
此謂	-11.2227
為喻	-11.223
大彌陀經	-11.2235
專為	-11.2235
發願求生	-11.2238
眾妙	-11.2238
大歡喜	-11.224
丸	-11.2243
心清淨	-11.2244
四事	-11.2246
頹	-11.2247
矢	-11.2247
繡	-11.2249
桑	-11.2249
枚	-11.2249
恁麼	-11.2249
宴	-11.225
矜	-11.225
禦	-11.2251
朋	-11.2252
斷絕	-11.2252
酪	-11.2252
蹟	-11.2253
唾	-11.2253
三七日	-11.2254
旱	-11.2254
水晶	-11.2254
巢	-11.2255
轉輪聖王	-11.2256
緯	-11.2256
漂	-11.2256
猪	-11.2256
白日	-11.2256
茶毗	-11.2257
敝	-11.2257
凉	-11.2257
蕅益	-11.2258
應當發願生彼國土	-11.2258
灾	-11.2258
鐵圍山	-11.2259
或在	-11.2259
不可稱計	-11.2259
窓	-11.2259
肝	-11.2259
涵	-11.226
𦦨肩	-11.226
抄	-11.226
曩	-11.226
從是西方過十萬億佛土	-11.226
酌	-11.226
帀	-11.2261
鬧	-11.2261
不遑念佛	-11.2261
口稱	-11.2261
是諸人等	-11.2261
職	-11.2261
周徧法界	-11.2261
艾	-11.2261
萬曆	-11.2261
撥無因果	-11.2261
潮	-11.2262
受苦無窮	-11.2262
亮	-11.2263
專稱名字	-11.2263
逞	-11.2263
趙州	-11.2263
田園	-11.2264
提撕	-11.2264
有疑	-11.2264
歷歷分明	-11.2265
壽終之後	-11.2265
瞻仰	-11.2265
無聞	-11.2265
春風	-11.2266
出世間法	-11.2266
熙	-11.2267
一朵	-11.2267
衝	-11.2268
事業	-11.2269
攸	-11.227
一聲佛號	-11.227
年七十	-11.227
自古	-11.2271
禍福	-11.2271
竹林	-11.2271
情想	-11.2272
海水	-11.2272
一義	-11.2273
聞佛所說	-11.2275
花開見佛	-11.2275
口誦	-11.2276
雪山	-11.2277
翻譯	-11.228
發四十八願	-11.2281
尚在	-11.2281
世上	-11.2284
焚化	-11.2285
歸極樂	-11.2285
只消	-11.2287
無始來	-11.2289
記云	-11.2292
老實	-11.2293
即心即佛	-11.2294
以念佛為	-11.2297
非相	-11.2299
二法	-11.2301
之世	-11.2302
憶持	-11.2304
難逢	-11.2306
欲生淨土	-11.2308
出胎	-11.2308
或時	-11.2309
五時	-11.2309
即下	-11.2311
苦難	-11.2312
中有二	-11.2313
業繫	-11.2315
果佛	-11.2317
入無生忍	-11.2318
而往	-11.2323
設使	-11.2323
本師釋迦牟尼佛	-11.2323
。」【「	-11.2324
起信云	-11.2326
佛日	-11.2326
今明	-11.2327
依他	-11.2327
邪命	-11.233
機感	-11.2331
默然	-11.2333
憐愍	-11.2336
大義	-11.2336
五臺	-11.2337
過失	-11.2338
文句	-11.2338
生天上	-11.2346
四聖	-11.2347
即般若	-11.2349
佛有	-11.2349
志願	-11.235
大人	-11.2353
願生其國	-11.2356
捨命	-11.2357
之正	-11.2359
極惡	-11.2359
分九品	-11.2361
品云	-11.2362
肉團	-11.2366
邪說	-11.2369
餘行	-11.2374
成佛者	-11.2376
百由旬	-11.238
如風	-11.2384
觀念	-11.2385
一切如來	-11.2385
佛境	-11.2385
所持	-11.2386
或念	-11.239
為念	-11.2391
皆是阿彌陀佛	-11.2391
一句佛號	-11.2393
施為	-11.2394
一土	-11.2396
國家	-11.2396
知覺	-11.2399
中有三	-11.24
念阿彌陀	-11.2402
佛所說	-11.2404
非為	-11.2404
千萬億	-11.2405
無奈	-11.2405
令知	-11.2406
大方	-11.2407
兩經	-11.2408
可哀	-11.2409
志在	-11.241
文章	-11.2413
如月	-11.2415
差殊	-11.2415
見地	-11.2418
為樂	-11.2419
喻佛	-11.242
觀無量壽經	-11.242
二師	-11.2422
猶在	-11.2423
四釋	-11.2423
像觀	-11.2427
學佛者	-11.2427
俱寂	-11.2427
試問	-11.2428
二卷	-11.2429
事持	-11.2431
不可量	-11.2432
其行	-11.2432
三禪	-11.2432
安坐	-11.2436
指上	-11.244
決定成佛	-11.2441
覺性	-11.2442
未識	-11.2443
釋題	-11.2446
死苦	-11.2447
一個	-11.2448
具造	-11.245
稱讚不可思議功德一切諸佛所護念經	-11.2456
數年	-11.2456
能造	-11.2457
婦人	-11.2458
超然	-11.2459
結上	-11.2463
宗師	-11.2465
天台智者	-11.2469
單提	-11.247
跳出	-11.2471
心作佛	-11.2472
勸讚	-11.2474
心堅	-11.2475
亦曰	-11.2477
知音	-11.2483
既非	-11.2485
廣行	-11.2485
即是如來	-11.2487
應佛	-11.2492
別離	-11.2492
攝取不捨	-11.2494
尚能	-11.2498
開明	-11.2501
大家	-11.2501
量也	-11.2502
從是	-11.2509
其時	-11.2511
更為	-11.2512
有功	-11.2513
即往生	-11.2514
會歸	-11.2514
非凡	-11.2515
照明	-11.2517
邊際	-11.2518
汝以	-11.2519
央	-11.2519
經書	-11.2522
正助	-11.2525
五惡	-11.2525
三輩往生	-11.2528
此地	-11.2529
悉檀	-11.2529
與夫	-11.2529
非小	-11.2532
十念往生	-11.2534
理體	-11.2534
成佛之	-11.2537
聞正法	-11.2539
偏讚	-11.254
殷	-11.254
空談	-11.254
救眾生	-11.254
念佛之時	-11.254
▁○	-11.2543
加持	-11.2543
斯之謂	-11.2548
稱之	-11.2552
但使	-11.2557
峻	-11.2557
瓜	-11.2558
贖	-11.256
西方去此	-11.2563
無力	-11.2563
彥	-11.2563
汪	-11.2564
瞥	-11.2565
鎻	-11.2566
襟	-11.2566
即同	-11.2566
聞是經受持者	-11.2567
慇懃	-11.2567
勒	-11.2569
驟	-11.257
眷	-11.257
祕密	-11.2571
辟	-11.2571
貲	-11.2571
睹	-11.2571
淨覺	-11.2571
蔭	-11.2572
歧	-11.2572
孩	-11.2572
踵	-11.2572
欺誑	-11.2572
拽	-11.2572
哩	-11.2572
波羅	-11.2572
肥	-11.2572
見性悟道	-11.2573
谿	-11.2573
鷹	-11.2574
能念所念	-11.2575
夾雜	-11.2575
折伏	-11.2575
蓬	-11.2576
羸	-11.2576
依正二報	-11.2576
園林	-11.2576
彪	-11.2577
嫉妬	-11.2577
貶	-11.2578
生而無生	-11.2578
即眾生	-11.2578
我見是利	-11.2579
七菩提分	-11.2579
於今十劫	-11.2579
毒蛇	-11.2579
身口意業	-11.2579
婆羅門	-11.2579
女人及根缺	-11.258
一萬	-11.2581
起心	-11.2581
共成	-11.2581
飯食經行	-11.2582
鴿	-11.2582
參知識	-11.2582
於眾生	-11.2583
亦不可得	-11.2585
阿修羅	-11.2586
降生	-11.2586
主張	-11.2589
無緣慈	-11.259
晚年	-11.259
四十里	-11.259
供奉	-11.259
於其	-11.259
闍王	-11.2591
喜曰	-11.2591
華藏世界	-11.2595
詳見	-11.2595
之風	-11.2597
安立	-11.2597
微疾	-11.2598
往詣	-11.2598
速疾	-11.2601
寄語	-11.2601
怨親	-11.2602
念不退	-11.2602
安置	-11.2602
牽纏	-11.2603
最大	-11.2605
專想	-11.2606
千般	-11.2606
斷無明	-11.2607
不啻	-11.2607
奇哉	-11.2608
闍	-11.2609
斯文	-11.261
西湖	-11.2611
與君	-11.2613
像法	-11.2613
親承	-11.2614
愛之	-11.2616
一錢	-11.2616
有幾	-11.2618
經營	-11.2623
何勞	-11.2629
流俗	-11.2629
孰為	-11.263
略示	-11.2632
清風	-11.2632
過此	-11.2635
大阿彌陀經	-11.2637
功德不可思議	-11.2639
皆阿羅漢	-11.264
一刻	-11.2641
救苦	-11.2644
將謂	-11.2644
慈親	-11.2645
先賢	-11.2647
萬人	-11.2651
經義	-11.2652
與前	-11.2652
壇經	-11.2654
適意	-11.2654
視為	-11.2657
簡要	-11.2657
天花	-11.266
師資	-11.2662
來此	-11.2663
大有	-11.2663
以淨土	-11.2664
之家	-11.2666
去者	-11.2666
之氣	-11.2667
乃至成佛	-11.2667
觀慧	-11.2667
精進者	-11.2668
歸元	-11.2669
至心發願	-11.2669
未出	-11.2671
未始	-11.2674
不期	-11.2674
非止	-11.2675
池上	-11.2676
心得	-11.2676
間有	-11.2677
曰我	-11.268
但於	-11.268
若不得	-11.268
還有	-11.2681
無生也	-11.2682
在茲	-11.2685
稱南無阿彌陀佛	-11.2687
否則	-11.2687
十戒	-11.2689
遠行	-11.2689
無等	-11.269
千劫	-11.2692
若有人	-11.2694
皆稱	-11.2695
一晝夜	-11.2695
中三品	-11.2695
不破	-11.2698
證成	-11.2701
必不可	-11.2701
所譯	-11.2703
受人	-11.2704
復生	-11.2704
遍法界	-11.2706
共讚	-11.2709
浮生	-11.2713
台宗	-11.2715
而見	-11.2716
光耀	-11.2716
修淨業人	-11.2718
大集	-11.2719
有多	-11.2721
而況	-11.2721
有時	-11.2722
五更	-11.2723
十方一切	-11.2726
不多	-11.2728
謗佛	-11.273
心神	-11.2731
不堅	-11.2735
佛陀	-11.2735
一華	-11.274
須是	-11.2742
無虧	-11.2743
五會念佛	-11.275
或名	-11.2753
信願行三	-11.2755
由他	-11.2757
土淨	-11.2764
多病	-11.2765
生命	-11.2766
欲明	-11.2767
行於	-11.2769
幸而	-11.2769
其道	-11.2769
便有	-11.2769
形色	-11.277
未易	-11.277
定課	-11.2772
妙義	-11.2774
數語	-11.2774
得知	-11.2779
得免	-11.278
今是	-11.278
起滅	-11.2782
何嘗	-11.2784
口念	-11.2787
無淨土	-11.2787
為上	-11.2791
難聞	-11.2792
宗體	-11.2793
下品下生者	-11.2794
雖得	-11.2795
二十六	-11.2796
應時即	-11.2797
智德	-11.2801
亦難	-11.2802
雲門	-11.2803
更生	-11.2805
速得	-11.2806
法滅	-11.2809
舉念	-11.2809
為正行	-11.282
遊行	-11.2821
現證	-11.2822
巳證	-11.2822
不足以	-11.2828
自疑	-11.2829
正月	-11.2829
為言	-11.283
極樂國中	-11.2835
不可不知	-11.2839
解脫德	-11.2841
不持	-11.2841
與彌陀	-11.2847
白銀	-11.2847
二死	-11.2847
故使	-11.2849
▁六	-11.2851
釋名	-11.2856
契經	-11.2866
三有	-11.2867
▁南無師子	-11.2867
有病	-11.2867
萬一	-11.2872
說有	-11.2873
人倫	-11.2881
能成	-11.2881
隨願往生	-11.2882
永嘉	-11.2883
結跏趺坐	-11.2884
骸	-11.2884
難矣	-11.2884
抗	-11.2885
蜂	-11.2886
瓦	-11.2887
痕	-11.2888
恒河沙數諸佛	-11.2889
如意足	-11.2889
不開	-11.2889
年老	-11.289
擾擾	-11.289
盂	-11.289
緇	-11.289
沮	-11.289
阿含	-11.2891
將去	-11.2892
乃云	-11.2892
撿	-11.2892
𦘕	-11.2893
築	-11.2893
偕	-11.2893
今此經	-11.2894
躁	-11.2894
咏	-11.2894
閉關	-11.2894
練	-11.2894
湛寂	-11.2894
姚	-11.2894
甜	-11.2895
全修在性	-11.2895
『	-11.2895
不變隨緣	-11.2895
浩浩	-11.2895
携	-11.2896
以佛力故	-11.2896
其土有佛	-11.2896
鋪	-11.2896
自知時至	-11.2896
敲	-11.2896
持經	-11.2897
諸業	-11.2897
微妙香潔	-11.2897
青色青光	-11.2898
絃	-11.2898
襲	-11.2899
付囑	-11.2899
至行者前	-11.2899
歡喜踊躍	-11.2899
寅	-11.2899
奔波	-11.29
百千劫	-11.2901
孔雀	-11.2901
聞佛法	-11.2902
百千萬劫	-11.2902
一聲阿彌陀佛	-11.2902
然其	-11.2902
慶喜	-11.2903
淪墜	-11.2903
歸命懺悔	-11.2903
優婆夷	-11.2904
不離當念	-11.2904
懸殊	-11.2904
昏散	-11.2905
念他佛	-11.2906
遮那	-11.2908
出愛河	-11.2908
清旦	-11.2908
脩羅	-11.2909
無量世界	-11.2909
發願文	-11.291
現前當來	-11.291
通於	-11.2911
之詞	-11.2912
眾德	-11.2912
不自知	-11.2916
切忌	-11.2916
忻樂	-11.2916
授手	-11.2917
良藥	-11.2919
千人	-11.292
散華樂	-11.292
觸目	-11.2921
正由	-11.2923
全憑	-11.2923
不獲	-11.2924
哀憐	-11.2925
論議	-11.2925
六句	-11.2925
剎塵	-11.2926
持名念佛	-11.2927
門也	-11.2928
夢覺	-11.2928
寶瓶	-11.2929
百味	-11.2932
畫像	-11.2933
▁一心敬禮	-11.2934
如須彌	-11.2935
投誠	-11.2938
人人皆	-11.2938
議論	-11.2939
立教	-11.2939
愚者	-11.294
何愁	-11.294
較之	-11.2942
白蓮華	-11.2942
願門	-11.2943
榮華	-11.2943
契合	-11.2945
大涅槃	-11.2946
無妨	-11.2946
具如	-11.2947
寒山	-11.2947
希求	-11.2949
他受用	-11.2952
一化	-11.2952
中上	-11.2954
晨昏	-11.2956
心既	-11.2956
略解	-11.2957
融會	-11.2959
諸教	-11.2959
含識	-11.2961
稱讚淨土經	-11.2961
龍華	-11.2963
洞然	-11.2964
持佛號	-11.2966
不要	-11.2968
無量諸天	-11.2973
勸化	-11.2974
法華三昧	-11.2978
次約	-11.298
入水	-11.2981
二百	-11.2981
寶蓋	-11.2981
山林	-11.2982
經宗	-11.2986
百劫	-11.2987
親見彌陀	-11.2989
更何	-11.2994
能消	-11.2995
涉入	-11.2995
皆屬	-11.2996
彌陀像	-11.2997
書於	-11.2998
之頃	-11.3012
無量也	-11.3012
下卷	-11.3013
一念念佛	-11.3016
舉其	-11.3016
五趣	-11.3018
供養阿彌陀佛	-11.302
而證	-11.302
此以	-11.3025
因位	-11.3025
應用	-11.3025
門門	-11.3028
覺滿	-11.3029
至七日	-11.3032
專精	-11.3032
五教	-11.3033
三百	-11.3034
誰為	-11.3034
無虗	-11.3037
同心	-11.3038
十稱	-11.3039
亦隨	-11.3039
貧人	-11.3041
生心	-11.3042
一心者	-11.3042
獨有	-11.3046
世親	-11.3046
亦空	-11.3049
西行	-11.305
何可	-11.3051
佛名號	-11.3052
大會	-11.3055
十五日	-11.3055
三十七	-11.3057
自誤	-11.3058
宗趣	-11.3062
想佛	-11.3063
歎曰	-11.3065
無障	-11.3067
只有	-11.3067
佛境界	-11.3067
小人	-11.3067
辟支佛	-11.307
流行	-11.3071
能證	-11.3072
且據	-11.3073
儒書	-11.3074
解脫生死	-11.3074
彼處	-11.3075
戒者	-11.3075
為令	-11.3076
道種智	-11.3076
亦不可	-11.3078
轉變	-11.3079
智光	-11.308
天女	-11.3089
此十	-11.3091
高大	-11.3092
惟此	-11.3093
惟其	-11.3095
入觀	-11.3099
淨信	-11.31
命盡	-11.3104
生緣	-11.3108
佛弟子	-11.3109
空華	-11.311
巳靈	-11.3111
觀佛身	-11.3113
頓入	-11.3116
然香	-11.312
最要	-11.3122
舉體	-11.3123
終日念佛	-11.3124
處所	-11.3124
成大	-11.3124
後至	-11.3126
須菩提	-11.3128
不計	-11.313
未終	-11.3133
無為子	-11.3133
復能	-11.3133
之益	-11.3134
壽禪師	-11.3134
所惑	-11.3139
命濁	-11.314
)」	-11.3145
禮敬	-11.3146
難生	-11.315
誦佛	-11.3152
淨妙	-11.3153
淨光佛	-11.3155
即自性	-11.3161
華葉	-11.3163
佛與	-11.3165
不可思議也	-11.3165
極重	-11.3165
得意	-11.3168
一世界	-11.3168
如是者	-11.317
寶積經	-11.3172
問佛	-11.3176
德水	-11.3179
清淨法身	-11.3182
一句彌陀佛	-11.3188
而亦	-11.3188
靈光	-11.3188
重者	-11.3191
觀佛三昧經	-11.3193
悟心	-11.3194
而獨	-11.3194
知禮	-11.3195
度一切	-11.3197
遺教	-11.32
於一切法	-11.3201
惡心	-11.3201
觀見	-11.3203
空谷	-11.3211
名常寂光	-11.3211
丑	-11.3213
疫	-11.3215
歿	-11.3217
六波羅蜜	-11.3218
宵	-11.3218
丙	-11.322
簾	-11.322
藐	-11.322
暉	-11.3221
有過	-11.3221
第三階	-11.3221
無央數	-11.3222
其次	-11.3222
不倦	-11.3223
贈	-11.3223
燦	-11.3223
棒	-11.3224
秘藏	-11.3224
怛	-11.3225
賾	-11.3225
即菩提	-11.3225
生死苦	-11.3225
賢護經	-11.3225
沸	-11.3226
傲	-11.3227
鱗	-11.3227
甚於	-11.3227
五百歲	-11.3228
究其	-11.3228
摩訶迦葉	-11.3228
所說法	-11.3228
娑羅	-11.3228
沼	-11.3229
千二百五十人俱	-11.3229
玻瓈	-11.323
昆	-11.323
王舍城	-11.323
愛河	-11.323
齡	-11.323
摩羅	-11.323
囂	-11.3231
悟達之士	-11.3231
篤志	-11.3231
恒河	-11.3231
膚	-11.3231
茹	-11.3232
憍梵波提	-11.3232
百千由旬	-11.3232
芥	-11.3232
十六妙觀	-11.3232
暫停	-11.3232
誌公	-11.3233
冗	-11.3234
猶言	-11.3234
煥	-11.3235
依正色心	-11.3236
見聞覺知	-11.3236
若有善男子	-11.3237
墮三惡道	-11.3237
天龍八部	-11.3237
皆巳成佛道	-11.3237
無所障礙	-11.3237
祇陀	-11.3237
大都	-11.3237
功課	-11.3238
忙忙	-11.3239
少康	-11.3239
閻羅王	-11.324
真法	-11.3241
坐逝	-11.3242
并敘	-11.3242
三聚	-11.3242
耆婆	-11.3243
宗鏡錄曰	-11.3243
十勝	-11.3244
計較	-11.3244
開敷	-11.3245
萬法唯心	-11.3246
調和	-11.3246
堂堂	-11.3247
識神	-11.3247
雙忘	-11.3247
則佛土淨	-11.3247
充足	-11.3248
陰陽	-11.3249
其徒	-11.3249
之理也	-11.3251
翻成	-11.3251
八字	-11.3252
以表	-11.3253
師子覺	-11.3255
宰相	-11.3255
人見	-11.3255
在娑婆	-11.3257
正修	-11.3258
斷見	-11.326
室中	-11.326
千生	-11.326
阿彌陀佛四字	-11.3263
亦為	-11.3264
是眾生	-11.3267
所解	-11.3267
別名	-11.327
為其	-11.327
復為	-11.3271
臨終之時	-11.3272
梵志	-11.3272
山河	-11.3272
威光	-11.3273
五日	-11.3273
妄認	-11.3274
金錢	-11.3275
靈芝云	-11.3275
合之	-11.3276
更無餘	-11.3278
寶相佛	-11.3278
直待	-11.3279
面像	-11.328
妙宗云	-11.3282
娑婆國土	-11.3282
喚作	-11.3283
佛滅後	-11.3283
寶雲	-11.3285
分外	-11.3286
崛	-11.3287
自明	-11.3287
法味	-11.3288
可不信	-11.3289
自受用	-11.329
氣絕	-11.3291
為諸眾生	-11.3294
土木	-11.3294
然有	-11.3298
而致	-11.3302
莊嚴佛土	-11.3305
像前	-11.3311
但念	-11.3312
無時	-11.3316
十分	-11.3316
親切	-11.3318
空也	-11.3318
得生者	-11.332
將終	-11.332
娑婆眾生	-11.3321
不加	-11.3328
雜色	-11.3329
稍有	-11.333
立義	-11.3334
引導	-11.3334
坐時	-11.3335
有其	-11.3336
見佛身	-11.3336
生安樂國	-11.3341
吾家	-11.3342
之西	-11.3345
寶光	-11.3347
三性	-11.335
欲往生	-11.3356
之實	-11.3361
根源	-11.3361
大論云	-11.3363
證三昧	-11.3364
初總標	-11.3366
疑之	-11.3368
書云	-11.3374
全不	-11.3377
則一	-11.3381
大眾俱	-11.3382
修禪	-11.3383
文省	-11.3383
多諸	-11.3386
地藏	-11.3386
天童	-11.3388
日沒	-11.339
忘失	-11.3396
常作	-11.3397
切要	-11.3398
一切煩惱	-11.3399
惑盡	-11.34
行處	-11.3401
外國	-11.3401
文證	-11.3401
入三昧	-11.3401
則一切	-11.3403
一段	-11.3404
淨業正因	-11.3404
法報	-11.3406
不可得而	-11.3408
陀羅	-11.3409
求生淨土者	-11.3411
以由	-11.3413
聞慧	-11.3421
大喜	-11.3421
無法不	-11.3422
功德無量	-11.3422
正願	-11.3423
初科	-11.3432
本懷	-11.3434
機也	-11.3434
即如	-11.3435
山僧	-11.3436
家緣	-11.3441
或言	-11.3445
空見	-11.3446
邪心	-11.3447
正業	-11.3449
臨終正念	-11.3454
釋尊	-11.3454
不負	-11.3455
先德	-11.3457
隨行	-11.346
微風	-11.3463
魔業	-11.3463
見無量壽佛	-11.3465
可痛	-11.3466
乃至一念	-11.3469
讚言	-11.347
求出離	-11.3472
藕	-11.3472
之誤	-11.3472
愛樂	-11.3474
離四句	-11.3476
示寂	-11.3478
語也	-11.3478
慎之	-11.3478
如火	-11.348
而且	-11.3483
稱其	-11.3483
記之	-11.3483
念僧	-11.3484
雙修	-11.3484
一輪	-11.3486
乃生	-11.3486
生西	-11.3487
立願	-11.3489
緣慮	-11.3489
一歲	-11.349
求願往生	-11.349
隨其心淨	-11.349
魔境	-11.3495
汝若	-11.3497
證涅槃	-11.3499
空界	-11.3501
請問	-11.3504
第十六	-11.3506
小大	-11.3507
出塵	-11.3508
極樂世界阿彌陀佛	-11.3513
處世	-11.3515
無量光佛	-11.3515
自甘	-11.3521
一稱	-11.3521
濁水	-11.3521
此二種	-11.3524
誤人	-11.3527
讚西方	-11.3527
有多種	-11.3528
最難	-11.3528
今約	-11.3528
土中	-11.3529
見聞者	-11.3532
聖位	-11.3533
經無量劫	-11.3534
能使	-11.3534
化城	-11.3535
輟	-11.3535
一切世界	-11.3536
非獨	-11.3537
非淨	-11.354
於一切眾生	-11.3542
之義也	-11.3545
所須	-11.3547
受身	-11.3548
信行	-11.3551
相間	-11.3552
積善	-11.3553
既多	-11.3554
憤	-11.3555
後後	-11.3557
全體即	-11.3559
綸	-11.356
相成	-11.356
圓超	-11.356
斤	-11.3561
其類	-11.3562
死時	-11.3563
絕待圓融	-11.3563
頴	-11.3564
奄	-11.3565
洒	-11.3565
然則一念間斷之心	-11.3565
乙	-11.3566
弼	-11.3567
堯舜	-11.3567
馮	-11.3567
倐	-11.3567
戚	-11.3568
尖	-11.3568
所稱	-11.3568
趂	-11.3568
悽	-11.3569
戒殺放生	-11.3569
絡	-11.357
圈	-11.357
嗔恚	-11.357
羮	-11.357
能如此	-11.3571
一向專念無量壽佛	-11.3571
訟	-11.3572
然臂香	-11.3572
黃金地上	-11.3572
丹青	-11.3572
見聞隨喜	-11.3572
腐	-11.3572
街	-11.3572
如說修行	-11.3572
二六時中	-11.3573
歸佛	-11.3573
鵒	-11.3573
副	-11.3573
階級	-11.3573
無上深妙禪	-11.3573
論說	-11.3574
敦	-11.3574
由此觀之	-11.3574
零	-11.3575
勑	-11.3575
同此	-11.3575
如母憶子	-11.3575
問訊	-11.3575
珠網	-11.3575
戀西大師	-11.3575
屑	-11.3576
嫉	-11.3576
存心	-11.3576
奉勸世人	-11.3577
佛滅度後	-11.3577
有禪有淨土	-11.3578
不一不異	-11.3578
有禪無淨土	-11.3578
圍遶	-11.3578
蛤	-11.358
掩關	-11.358
始自	-11.358
尚無惡道之名	-11.3581
拈香	-11.3581
白鶴孔雀	-11.3581
不虗棄	-11.3581
決擇	-11.3582
無有休息	-11.3582
迅速	-11.3582
苦處	-11.3582
充滿其中	-11.3583
爵	-11.3583
喚醒	-11.3583
首楞嚴經	-11.3585
示之	-11.3586
莫測	-11.3586
法界一相	-11.3588
證信	-11.3588
超絕	-11.3588
成佛以來	-11.3589
自成	-11.3589
舍衛國	-11.3589
怖魔	-11.359
伏願	-11.3593
備矣	-11.3594
故引	-11.3594
位在	-11.3596
不殊	-11.3597
錢塘人	-11.3597
生其中	-11.3598
事法界	-11.3599
叵得	-11.3599
是則名為	-11.36
應以	-11.3601
於五濁	-11.3601
下賤	-11.3603
變易生死	-11.3604
得自在	-11.3606
十歲	-11.361
傳燈	-11.361
八年	-11.3611
大阿彌陀經云	-11.3611
生而	-11.3611
雜染	-11.3612
如天	-11.3612
愛見	-11.3615
到彼岸	-11.3616
劫生死之罪	-11.3618
蘭若	-11.362
齋僧	-11.362
神珠	-11.362
死而	-11.362
朱子	-11.3622
往生正因	-11.3623
佛寶	-11.3626
修三昧	-11.3627
苟不	-11.3628
聚會	-11.3629
博通	-11.3629
此一門	-11.3632
憶想	-11.3632
智斷	-11.3632
念自佛	-11.3632
隨之	-11.3633
遂成	-11.3634
萬境	-11.3635
難知	-11.3635
釋論云	-11.3635
知者	-11.3637
悟後	-11.3639
久近	-11.364
所論	-11.3644
生靈	-11.3646
說西方	-11.3647
不遷	-11.3647
一生成佛	-11.3648
王臣	-11.3649
憫念	-11.3652
海內	-11.3653
香潔	-11.3654
得無生忍巳	-11.3654
不懈	-11.3655
難保	-11.3658
欲令眾生	-11.3658
為助	-11.3658
無體	-11.3659
不能得	-11.3659
歡喜信樂	-11.3663
儒釋	-11.3664
華上	-11.3665
所立	-11.3666
網羅	-11.3667
色光	-11.3668
設有	-11.3668
難遇	-11.3669
不往	-11.3669
十餘年	-11.3669
比之	-11.3672
結前	-11.3677
悉得	-11.368
業者	-11.3681
上首	-11.3684
流傳	-11.3688
寶塔	-11.369
非徒	-11.369
三五	-11.3691
地觀	-11.3693
改過	-11.3694
出定	-11.3697
稱佛名故	-11.3697
常精進	-11.3698
當作	-11.37
恐人	-11.3706
佛云	-11.3707
莫如	-11.3708
同登	-11.3709
而止	-11.3709
自空	-11.371
住在	-11.3712
廣略	-11.3713
求解脫	-11.3715
一氣	-11.3719
雖殊	-11.3721
六道輪迴	-11.3722
有退轉	-11.3726
師僧	-11.3726
百里	-11.3728
有能	-11.3733
佛及菩薩	-11.3735
若達	-11.3736
大願力	-11.3737
心懷	-11.3738
迷情	-11.3738
歷然	-11.3739
結業	-11.374
應機	-11.3742
此類	-11.3742
諸佛子	-11.3742
寺僧	-11.3742
具足戒	-11.3743
各異	-11.3744
無少	-11.3744
須要	-11.3747
為日課	-11.3748
▁南無德	-11.375
見彌勒	-11.375
一切善根	-11.3751
若今生	-11.3752
龍舒曰	-11.3753
造像	-11.3755
四五	-11.3755
值遇	-11.3762
乾隆	-11.3769
具在	-11.3772
并州	-11.3778
水流	-11.3778
少善	-11.3781
惟是	-11.3783
有所得	-11.3783
歸西	-11.3783
能現	-11.3783
為性	-11.3785
復現	-11.3786
前來	-11.3786
法喻	-11.3789
專求	-11.379
情見	-11.3791
仙人	-11.3792
墮三途	-11.3793
教義	-11.3794
二智	-11.38
月光	-11.38
對佛	-11.3801
十一年	-11.3802
且道	-11.3803
入門	-11.3811
皆應	-11.3813
喻顯	-11.3817
體相	-11.3817
諸文	-11.382
達本	-11.3821
梵本	-11.3822
淨土論	-11.3823
修諸善	-11.3824
不留	-11.3825
隨事	-11.3825
當用	-11.3826
之由	-11.3829
豈不見	-11.383
以淨土為	-11.3837
諦理	-11.3839
受持讀誦	-11.3845
唯以	-11.3845
治之	-11.3845
交參	-11.3846
歸一	-11.3847
理智	-11.3847
淨慈	-11.3847
供養三寶	-11.3855
公之	-11.3855
麻	-11.3855
女子	-11.3857
普現	-11.3858
如是功德	-11.386
彼人	-11.3861
鼓音王經	-11.3867
迷者	-11.3867
樂也	-11.3871
焚燒	-11.3874
應物	-11.3876
全真	-11.3877
固有	-11.3877
生淨土故	-11.3878
在在	-11.3879
可成	-11.3884
南北	-11.3886
了心	-11.3886
故名阿彌陀	-11.3887
寶臺	-11.3888
一心敬禮	-11.3888
妙香	-11.3893
此數	-11.3893
無用	-11.3894
奉持	-11.3899
覺知	-11.39
必具	-11.3901
虗空界	-11.3901
化現	-11.3902
患難	-11.3903
十行	-11.3906
得無	-11.3908
挑	-11.3916
眾僧	-11.3916
亘	-11.3916
一切善	-11.3917
之鄉	-11.3917
今得	-11.3918
栖	-11.3918
七日七夜	-11.3919
病中	-11.3919
菓	-11.3919
蒲團	-11.392
鎔	-11.392
瞿	-11.392
乩	-11.3921
蕭	-11.3921
矯	-11.3923
無福	-11.3923
儘	-11.3924
下云	-11.3924
五痛五燒	-11.3924
及聞諸佛名者	-11.3925
遂得	-11.3925
穆	-11.3925
踪	-11.3925
明眼	-11.3925
閙	-11.3926
牲	-11.3927
縮	-11.3927
善哉善哉	-11.3927
恤	-11.3928
黑暗	-11.3928
相關	-11.3928
何言可信	-11.3929
魄	-11.3929
袍	-11.3929
搆	-11.3929
韶	-11.393
人命無常	-11.393
它	-11.393
士大夫	-11.393
級	-11.3931
臨欲命終	-11.3931
簿	-11.3931
飭	-11.3931
隊	-11.3931
匿	-11.3931
鶖鷺	-11.3932
鶯	-11.3932
墳	-11.3932
斂	-11.3932
正意	-11.3932
塊	-11.3933
言佛便周	-11.3933
羯磨	-11.3933
商量	-11.3933
聆	-11.3934
不可具說	-11.3935
一息不來	-11.3935
崩	-11.3935
底沙	-11.3935
改悔	-11.3935
奉持齋戒	-11.3936
桐	-11.3936
逗機	-11.3936
踴躍	-11.3936
錯認	-11.3936
眾生來生其國	-11.3936
隨意即見	-11.3936
倖	-11.3936
如虛空	-11.3936
唵	-11.3937
籌量	-11.3938
使更相勸化	-11.3939
陰府	-11.3939
敗壞	-11.3939
征	-11.394
晨朝十念	-11.394
心外無佛	-11.3941
如意珠	-11.3941
便登	-11.3942
皮袋	-11.3942
如意珠王	-11.3942
君臣	-11.3942
幻質	-11.3942
設我成佛	-11.3944
房宿	-11.3944
返照	-11.3944
賢愚	-11.3945
一日乃至七日	-11.3945
娑婆教主	-11.3947
世間之孝	-11.3947
岐路	-11.3947
如上所說	-11.3948
。」』	-11.3949
伽藍	-11.3951
獲福	-11.3952
內院	-11.3952
即證	-11.3952
欣樂	-11.3952
三苦	-11.3954
離於	-11.3956
千葉	-11.3956
十二時中	-11.3957
失其	-11.3957
去此不遠	-11.3958
已後	-11.3959
所不能及	-11.3959
服藥	-11.396
九十日	-11.396
普應	-11.3962
如是念佛	-11.3965
連聲	-11.3966
久而	-11.3966
邪惡	-11.3967
夫妻	-11.3968
廣如	-11.3968
分段身	-11.3968
謬解	-11.3971
禪那	-11.3972
之主	-11.3973
生死心切	-11.3973
自本心	-11.3974
懺罪	-11.3974
想像	-11.3975
塵世	-11.3976
其音	-11.3976
亦有亦無	-11.3976
末世眾生	-11.3977
豈容	-11.398
法流	-11.398
少善根	-11.3982
今且	-11.3985
高僧傳	-11.3985
立法	-11.3985
當自念	-11.3986
微玅	-11.3987
今阿彌陀佛是	-11.3987
火聚	-11.3989
導之	-11.3991
身見	-11.3992
以何為	-11.3992
圓中鈔	-11.3994
論文	-11.3996
王法	-11.3996
之意也	-11.3997
證真	-11.4
凡欲	-11.4001
受此	-11.4002
能忍	-11.4003
原夫	-11.4004
超生淨土	-11.4006
入此門	-11.4007
直往	-11.4009
兩忘	-11.401
平居	-11.401
頑空	-11.4011
終不能	-11.4012
著眼	-11.4013
持佛名	-11.4013
三昧現前	-11.4013
妙相	-11.4014
十方虗空	-11.4014
清明	-11.4016
如法華	-11.4017
無法可	-11.4018
唯除五逆	-11.4019
其土	-11.402
淨土十疑論	-11.402
與大眾	-11.4021
此疑	-11.4022
上品往生	-11.4024
兩目	-11.4027
池中蓮華	-11.4028
諸佛法身	-11.4036
長久	-11.4036
若何為	-11.4037
堂中	-11.4037
由其	-11.404
十方佛土	-11.404
破見思	-11.4041
雖同	-11.4041
棄捨	-11.4044
半偈	-11.4044
害母	-11.4045
豈止	-11.4046
持齋戒	-11.4048
念阿彌	-11.405
釋子	-11.405
開眼	-11.4051
便知	-11.4052
入室	-11.4054
說無生	-11.4054
欲顯	-11.4056
當坐道場	-11.4063
諸三昧	-11.4065
舉身	-11.4065
覺了	-11.4066
執空	-11.4066
而失	-11.4066
若能如是	-11.4066
汝見	-11.4067
本淨	-11.4067
五常	-11.4071
悉能	-11.4079
於生死	-11.408
虗名	-11.4081
長年	-11.4081
不缺	-11.4082
彼國土	-11.4082
況今	-11.4082
昔為	-11.4087
此等眾生	-11.4088
多時	-11.409
普見	-11.4093
懺悔發願	-11.4095
心是佛	-11.4096
未離	-11.4098
先師	-11.4099
誦佛名	-11.4103
金山	-11.4106
尚且	-11.4109
傳授	-11.411
正與	-11.411
進道	-11.4113
不還	-11.4113
好惡	-11.4116
之分	-11.4117
斷德	-11.4118
大集經	-11.4118
帝網	-11.4118
幻身	-11.4124
數數	-11.4127
欲往	-11.4128
八歲	-11.4128
一切境界	-11.4129
惡果	-11.4129
未達	-11.413
生起	-11.4132
不可忽	-11.4132
念佛之法	-11.4133
三科	-11.4133
次公	-11.4135
諸佛讚	-11.4136
住其人前	-11.4137
經呪	-11.4141
東晉	-11.4142
重病	-11.4145
開解	-11.4146
照了	-11.4146
願求生	-11.415
及餘	-11.415
敬之	-11.4151
疏文	-11.4153
十使	-11.4161
斯經	-11.4162
眾生念佛	-11.4163
世間法	-11.4167
見解	-11.4167
智也	-11.4168
上句	-11.417
斷無	-11.4174
攷	-11.4179
始教	-11.4183
及此	-11.4183
生蓮	-11.4184
善趣	-11.4186
即假	-11.4189
一息	-11.419
所共	-11.4191
十念者	-11.4193
淨也	-11.4194
大光明	-11.4195
眾生迷	-11.4195
正命	-11.4196
取淨	-11.4196
見佛菩薩	-11.4197
下愚	-11.4197
法緣	-11.4202
詩曰	-11.4202
淨土門	-11.4206
但隨	-11.4209
揣	-11.4212
方便門	-11.4213
開顯	-11.4213
精微	-11.4214
有心	-11.422
能行	-11.4223
業相	-11.4224
論語	-11.4225
五眼	-11.4227
題目	-11.4227
下示	-11.4227
西方世界	-11.4228
當信	-11.4228
遠祖	-11.423
自取	-11.4233
難也	-11.4233
隨其所	-11.4234
並非	-11.4235
橫生	-11.4239
稱名號	-11.424
正智	-11.424
為欲	-11.4242
乃諸佛	-11.4242
各分	-11.4243
般舟經	-11.4245
失之	-11.4247
妄計	-11.4252
妙智	-11.4253
憚	-11.4255
文也	-11.4256
宏誓	-11.4256
共相	-11.426
得疾	-11.4265
修進	-11.4276
向外	-11.4276
竺	-11.4277
吾儒	-11.4278
皎	-11.428
尚何	-11.4284
菩薩見	-11.4286
調御	-11.4289
南無阿彌陀	-11.4289
冲	-11.429
蠢	-11.429
餓	-11.429
生西方者	-11.4292
捕	-11.4293
紹興	-11.4293
熈	-11.4294
不垢不淨	-11.4295
筏	-11.4295
痊	-11.4295
若不然者	-11.4295
怜	-11.4296
亨	-11.4296
參學	-11.4296
𢆯	-11.4297
剃	-11.4298
親蒙授記	-11.4298
盥	-11.4298
我法	-11.4298
銜	-11.4298
低頭	-11.4298
一向專念	-11.4298
胥	-11.4299
晨朝	-11.4299
楹	-11.4299
榜樣	-11.43
傑	-11.43
彥弼	-11.43
自悟	-11.43
世出世	-11.43
康熈	-11.43
令心不散	-11.43
價	-11.4301
升沉	-11.4301
縫	-11.4301
諸上善人俱會一處	-11.4301
芬	-11.4301
淹	-11.4301
淨土十要	-11.4301
無生無滅	-11.4301
離婆多	-11.4301
諸佛眾生	-11.4301
周利槃陀伽	-11.4302
詆	-11.4302
悚	-11.4302
寂而常照	-11.4303
淨土資糧全集	-11.4303
眉間	-11.4303
八十隨形好	-11.4304
權巧	-11.4304
灌頂	-11.4304
滑	-11.4304
裔	-11.4304
天性相關	-11.4305
清凉	-11.4305
及其人民	-11.4305
頓開佛慧	-11.4305
生死根株	-11.4305
都攝六根	-11.4305
柯	-11.4305
十即十生	-11.4306
雍	-11.4306
倣	-11.4306
咸豐	-11.4307
生蓮華中	-11.4307
如彈指頃	-11.4307
同時俱作	-11.4307
不了佛智	-11.4307
三昧難成	-11.4308
無禪有淨土	-11.4308
薄拘羅	-11.4308
十萬億佛土	-11.4308
終不作佛	-11.4308
檢點	-11.4308
妙吉祥	-11.4309
知歸子	-11.431
徧法界諸佛	-11.431
萬善同歸集	-11.431
七重欄楯	-11.4311
所以然者	-11.4311
汩沒	-11.4312
五百侍女	-11.4312
黑業	-11.4312
香爐	-11.4312
安慰	-11.4313
大夫	-11.4313
殺賊	-11.4313
茫然	-11.4315
遺民	-11.4315
無減	-11.4317
五辛	-11.4319
慈愍	-11.4319
但念彌陀	-11.432
若然者	-11.4322
數十年	-11.4323
全賴	-11.4324
永嘉云	-11.4326
水陸	-11.4327
種智	-11.4327
有子	-11.433
恒河沙等	-11.4331
十二類	-11.4331
大菩提	-11.4331
業道	-11.4332
問津	-11.4333
及乎	-11.4333
法幢佛	-11.4333
一串	-11.4335
龍女	-11.4335
遣使	-11.4336
饒益眾生	-11.4337
佛迎	-11.4337
證之	-11.4339
不畏	-11.434
第三階人	-11.434
之神	-11.4341
自如	-11.4342
非凡夫	-11.4343
家業	-11.4345
其或	-11.4345
拈出	-11.4346
誠可	-11.4348
所述	-11.435
見十方佛	-11.4351
淨業弟子	-11.4352
至一心不亂	-11.4354
只恐	-11.4357
千百	-11.4359
安詳	-11.4361
清淨佛土	-11.4361
亦復然	-11.4362
五十三佛	-11.4363
散花	-11.4365
來迎接	-11.4366
指陳	-11.4372
誦法華	-11.4374
以佛為	-11.4376
無非法界	-11.4377
偏執	-11.4377
趁	-11.4378
故號	-11.4379
大有功	-11.438
我剎中人	-11.438
猶自	-11.4381
耶舍	-11.4382
良方	-11.4383
慈照	-11.4383
若當生	-11.4383
正以	-11.4386
光明照	-11.4386
出自	-11.4387
實理	-11.4389
地下	-11.4393
險道	-11.4393
心印	-11.4393
妙音佛	-11.4394
宰殺	-11.4394
無諍	-11.4401
無厭	-11.4401
食巳	-11.4406
諸善根	-11.4407
大本三輩	-11.4407
悟門	-11.441
欲生彼國者	-11.4413
字句	-11.4414
我巳	-11.4414
必不能	-11.4414
經名	-11.4415
池者	-11.4419
本朝	-11.4419
佛自	-11.4422
巳盡	-11.4422
娑婆之苦	-11.4422
諸宗	-11.4423
理趣	-11.4425
得遇	-11.4425
發生	-11.4425
還同	-11.4426
自佛	-11.4429
玉毫	-11.443
聲中	-11.443
以修淨土	-11.4433
次以	-11.4434
從容	-11.4434
寶藏佛	-11.4434
為君子	-11.4434
位次	-11.4435
不惜	-11.4436
之餘	-11.4436
方廣	-11.4438
無間修	-11.4439
之暇	-11.4443
靜坐	-11.4445
彼阿彌陀佛	-11.445
輕安	-11.4451
極樂莊嚴	-11.4452
其根	-11.4453
心即是佛	-11.4454
百聲	-11.4456
思念	-11.4459
龍舒文	-11.4461
即行	-11.4463
周圓	-11.4463
聞已	-11.4463
有疾	-11.4464
至心念佛	-11.4464
得須陀洹	-11.4469
念一聲	-11.447
猶為	-11.4471
經劫	-11.4472
未開	-11.4474
雜想	-11.4475
發行	-11.4476
別時意	-11.4476
利樂	-11.4477
當依	-11.4478
既言	-11.448
冥加	-11.4482
引文	-11.4485
寧不	-11.4485
一寸	-11.4485
箇字	-11.4493
空不空	-11.4493
歸依佛	-11.4493
異同	-11.4494
理法界	-11.4497
若作	-11.4498
穢惡	-11.45
又聞	-11.4501
復見	-11.4502
功德者	-11.4503
聞空中	-11.4504
四攝	-11.4505
大光佛	-11.4507
餘經	-11.4508
愛著	-11.4511
業所感	-11.4512
雖欲	-11.4514
等閒	-11.4517
忽遇	-11.452
一番	-11.4522
諸部	-11.4522
猶可	-11.4525
出期	-11.4531
人壽	-11.4535
到頭	-11.4537
十五年	-11.4538
所障	-11.454
第十五	-11.4541
一舉	-11.4542
若生	-11.4542
盡無餘	-11.4546
未來諸佛	-11.455
何幸	-11.4552
所宜	-11.4557
臨行	-11.4557
有殊	-11.4564
般若德	-11.4565
救拔	-11.4566
宗要	-11.4567
▁辨	-11.457
心即佛	-11.4571
殺人	-11.4572
斯道	-11.4576
火焚	-11.4579
法師云	-11.458
高宗	-11.4582
一是	-11.4583
生佛國	-11.4585
何義	-11.4586
何乃	-11.4586
頓圓	-11.459
現作	-11.4592
可悲	-11.4595
深遠	-11.46
可證	-11.46
非淺	-11.4606
陰魔	-11.4606
現起	-11.4608
桃	-11.4616
信佛語	-11.4616
都無	-11.4617
成辦	-11.4617
思想	-11.462
欲修	-11.4624
專修淨土	-11.4631
須信	-11.4632
妙藥	-11.4638
正心	-11.4642
善信	-11.4642
現相	-11.4646
略明	-11.4647
化緣	-11.4647
染著	-11.4648
向前	-11.4649
列名	-11.4655
航	-11.4656
至心懺悔	-11.4656
上乘	-11.4657
又要	-11.4659
叵	-11.4661
例此	-11.4662
郭	-11.4663
劑	-11.4665
啖	-11.4666
一件	-11.4667
灼	-11.4667
篋	-11.4668
佑	-11.4669
不簡	-11.467
遏	-11.4673
龍王	-11.4673
者多矣	-11.4674
如何得	-11.4675
咨	-11.4675
著於	-11.4676
所顯	-11.4676
無所畏	-11.4676
龐	-11.4677
巳有	-11.4677
厨	-11.4678
葢以	-11.4678
不相妨	-11.4678
躋	-11.4678
袁	-11.4679
瓠	-11.4679
盟	-11.4679
佛告韋提希	-11.468
仁王	-11.468
遜	-11.468
姿	-11.4681
折攝二門	-11.4681
骨髓	-11.4681
猿	-11.4681
至心歸命阿彌陀佛	-11.4682
不緩不急	-11.4682
滅八十億劫生死之罪	-11.4683
撲	-11.4683
赦	-11.4684
無量諸天大眾俱	-11.4684
膠	-11.4684
壬	-11.4684
脚跟	-11.4685
擯	-11.4685
天衣懷禪師	-11.4685
貯	-11.4685
千經萬論	-11.4685
領納	-11.4685
周匝	-11.4685
相吞	-11.4685
大矣哉	-11.4685
蠶	-11.4685
掘	-11.4685
斃	-11.4686
莽	-11.4686
經道滅盡	-11.4686
久久純熟	-11.4686
不受後有	-11.4686
彼佛有無量無邊聲聞弟子	-11.4686
持法佛	-11.4687
宛爾	-11.4687
波斯匿王	-11.4687
西方公據	-11.4687
之眾生	-11.4687
㵎	-11.4687
獄卒	-11.4687
絕百非	-11.4688
壑	-11.4688
三十七品	-11.4688
虔誠	-11.4688
導歸極樂	-11.4688
傅	-11.4688
父母師長	-11.4689
諸佛如來是法界身	-11.4689
因緣所生法	-11.4689
駐	-11.4689
厲聲	-11.469
五分法身	-11.469
無有間斷	-11.469
譚	-11.4691
映蔽	-11.4691
淵源	-11.4691
思之思之	-11.4692
聖像	-11.4692
枝葉	-11.4693
經年	-11.4693
回入娑婆	-11.4693
鈎	-11.4693
萬種	-11.4693
生生世世	-11.4693
以是義故	-11.4694
溼	-11.4694
檀越	-11.4694
從是西方	-11.4695
常居	-11.4695
螢	-11.4695
徑路修行	-11.4697
遍一切處	-11.4697
和雅	-11.4697
三觀者	-11.4697
常作天樂	-11.4697
八聖道分	-11.4697
佛來迎我	-11.4698
痛䇿	-11.4698
正法樂正法樂正法能超出世間	-11.4698
好醜	-11.4698
所修善根	-11.4699
猛省	-11.47
至尊	-11.47
冥冥	-11.4701
三道	-11.4701
必不能度	-11.4701
當發無上菩提之心	-11.4702
山川	-11.4702
以斯	-11.4702
夢寐	-11.4703
大悲呪	-11.4703
了明	-11.4704
十里	-11.4705
邪三毒	-11.4705
隱隱	-11.4706
念念不忘	-11.4708
原非	-11.4709
即空假中	-11.471
還鄉	-11.471
千差	-11.471
血氣	-11.4711
戀公	-11.4711
故特	-11.4712
殊特	-11.4713
六欲天	-11.4715
誑語	-11.4716
坐金蓮	-11.4716
攝取眾生	-11.4716
視聽	-11.4717
絕無	-11.4717
羣機	-11.4719
水觀	-11.4721
便能	-11.4722
覺心	-11.4723
教令念佛	-11.4723
風雨	-11.4724
其語	-11.4725
連持	-11.4725
諸書	-11.4727
即登	-11.4729
妙土	-11.4733
變造	-11.4733
萬象	-11.4733
眾生障重	-11.4734
▁南無華	-11.4737
惟以	-11.4738
門庭	-11.4738
從空	-11.4742
入正定聚	-11.4744
來往	-11.4745
一邊	-11.4747
七地	-11.4748
偶然	-11.4748
道場樹	-11.4748
智慧第一	-11.4748
滅也	-11.4751
從今日	-11.4751
凝然	-11.4754
權教	-11.4755
名佛	-11.4758
道綽	-11.4759
慧永	-11.476
心佛眾生	-11.476
尚然	-11.476
大乘菩薩	-11.4761
無根	-11.4762
何礙	-11.4763
必生彼國	-11.4764
乘船	-11.4765
以資	-11.4765
供具	-11.4766
疏中	-11.4767
三總結	-11.4769
樂受	-11.4769
別時	-11.4771
三學	-11.4771
此釋	-11.4771
立此	-11.4772
路絕	-11.4773
示人	-11.4773
一夜	-11.4775
花嚴	-11.4776
一稱佛名	-11.4779
擇法	-11.4783
高出	-11.4783
上三品	-11.4784
巳身	-11.4784
名聞佛	-11.4784
悲夫	-11.4784
行矣	-11.4785
果證	-11.4786
申明	-11.4787
諸念	-11.4788
俱空	-11.4792
之相也	-11.4794
五六	-11.4795
依此法	-11.4796
自分	-11.4797
為果	-11.4799
汝但	-11.48
喜樂	-11.48
作務	-11.4801
於其間	-11.4801
一節	-11.4801
葢由	-11.4802
以便	-11.4806
,《	-11.4807
佛慈	-11.4809
一致	-11.4812
互具	-11.4813
生厭離	-11.4814
身外	-11.4817
只說	-11.4817
不懼	-11.4818
阿耨菩提	-11.4819
同生安養	-11.4821
娑婆之	-11.4821
入滅	-11.4822
未有不	-11.4822
小千	-11.4824
本有之	-11.4824
修萬行	-11.4824
金剛般若	-11.4826
為物	-11.4833
勸請	-11.4835
文殊菩薩	-11.4837
參差	-11.4839
迷人	-11.484
十二時	-11.4844
自警	-11.4845
罪根	-11.4849
白業	-11.4849
五字	-11.4851
寶池中	-11.4855
住此	-11.4857
不隨	-11.4859
所執	-11.4861
為上首	-11.4861
妄情	-11.4865
等罪	-11.4866
上中	-11.4866
惟一	-11.4868
牛羊	-11.487
所食	-11.487
體達	-11.4872
餘方	-11.4874
心意識	-11.4877
文出	-11.4878
生死海	-11.488
授與	-11.488
情生	-11.4881
大明佛	-11.4881
時機	-11.4882
現前一念心性	-11.4884
前賢	-11.4885
西齋	-11.4885
唱言	-11.4886
因茲	-11.4886
出沒	-11.4889
長者子	-11.489
不逢	-11.4892
名無量壽	-11.4894
雜業	-11.4898
今勸	-11.4898
無去來	-11.4905
尊像	-11.4908
何慮	-11.491
垢淨	-11.4911
苦苦	-11.4911
數聲	-11.4914
慧性	-11.4914
妄說	-11.4915
歸真	-11.4916
而死者	-11.492
舍此	-11.4925
光相	-11.4927
非惟	-11.493
經也	-11.493
虗無	-11.4931
若心	-11.4932
十疑	-11.4936
示眾	-11.4936
皆非	-11.4937
不同故	-11.4938
普皆	-11.4938
』	-11.4942
要門	-11.4943
二百五十	-11.4943
相冥	-11.4947
特為	-11.4949
共為	-11.4953
五義	-11.4954
圓中	-11.4959
異於	-11.496
何罪	-11.496
自來	-11.4961
入文	-11.4967
能斷	-11.4968
無量苦	-11.4969
勿生	-11.4971
不測	-11.4974
何從	-11.4975
出門	-11.4975
六入	-11.4976
甚至	-11.4979
巳還	-11.498
斯為	-11.4982
總之	-11.4982
力量	-11.4985
佛國土	-11.4986
無多	-11.4987
限量	-11.4987
真覺	-11.4989
不能救	-11.4992
二別明	-11.4993
已去	-11.4994
端坐而逝	-11.4995
彌陀聖眾	-11.5004
自性清淨	-11.5005
真宗	-11.5013
妄執	-11.5015
遠師	-11.5016
若了	-11.5016
相勸	-11.5023
以見	-11.5035
莫教	-11.5038
有差	-11.504
不厭	-11.5043
二別釋	-11.5043
具一切	-11.5045
感通	-11.5046
任持	-11.5046
經旨	-11.5048
然彼	-11.5048
於一念頃	-11.5049
因何	-11.505
惡知識	-11.5056
錢塘	-11.5058
四料簡	-11.506
定也	-11.5064
怡	-11.5069
浸	-11.507
一筆勾	-11.507
繭	-11.5071
吾以	-11.5071
不得解脫	-11.5071
阿逸多	-11.5072
覺海	-11.5072
阿彌陀佛名號	-11.5072
窒	-11.5072
了然	-11.5074
六門	-11.5074
矧	-11.5076
無惑	-11.5076
婚	-11.5076
發隱曰	-11.5077
徧計	-11.5077
發無上菩提之心	-11.5077
拔濟	-11.5078
棘	-11.5078
孽	-11.5078
聖言	-11.5078
漸頓	-11.5078
戮	-11.5078
咽	-11.5079
揑	-11.508
跛	-11.508
悠	-11.508
鴛鴦	-11.508
受眾苦	-11.508
四正勤	-11.5081
婬慾	-11.5081
蝦	-11.5081
錐	-11.5081
朴	-11.5081
清冷	-11.5081
島	-11.5082
四十九	-11.5082
痛切	-11.5082
粹	-11.5083
當修三福	-11.5083
彼諸佛等	-11.5083
輾轉	-11.5083
堦	-11.5084
敏仲	-11.5084
彼土何故名為極樂	-11.5084
仇	-11.5084
戌	-11.5085
袖	-11.5086
〡	-11.5086
溢	-11.5086
侈	-11.5086
悲泣	-11.5087
騐	-11.5087
心觀為宗	-11.5087
幔	-11.5087
畵	-11.5087
南閻浮提	-11.5087
須彌燈佛	-11.5087
於蓮華中	-11.5088
蹤	-11.5088
無量精進佛	-11.5088
升沈	-11.5088
無量幢佛	-11.5089
是故號為阿彌陀	-11.5089
圓證三不退	-11.5089
迦留陀夷	-11.5089
漂流	-11.5089
還到本國	-11.509
一剎那頃	-11.509
照而常寂	-11.5091
貧乏	-11.5091
微風吹動	-11.5091
菡萏	-11.5091
其中多有一生補處	-11.5091
出現於世	-11.5091
四邊階道	-11.5092
為趣	-11.5092
功勳	-11.5092
不得是願	-11.5092
若二日	-11.5092
世界悉檀	-11.5092
十二分教	-11.5092
優游	-11.5092
無量相佛	-11.5092
四維上下	-11.5093
萬萬	-11.5093
清淨海眾	-11.5093
宿王佛	-11.5093
四十八大願	-11.5093
渾濁	-11.5094
清淨無染	-11.5095
一日至七日	-11.5095
青黃	-11.5095
搖動	-11.5095
淺薄	-11.5095
能轉	-11.5096
猶云	-11.5096
南方世界	-11.5097
託質	-11.5097
敬佛	-11.5097
種諸善根	-11.5098
蔑	-11.5098
受用身	-11.51
以一心	-11.51
自餘	-11.5101
長跪	-11.5101
預辦	-11.5101
良醫	-11.5101
恐不得生	-11.5102
懷疑	-11.5103
交羅	-11.5104
出微妙音	-11.5105
衣食自然	-11.5106
少頃	-11.5106
能顯	-11.5106
密密	-11.5106
無量劫前	-11.5108
眼中	-11.5108
覆障	-11.5108
又思	-11.5108
他鄉	-11.5109
棄之	-11.5111
狂慧	-11.5111
無恙	-11.5111
堅強	-11.5112
天淵	-11.5113
有感	-11.5113
妾云	-11.5114
莫管	-11.5114
馳求	-11.5115
名曰極樂	-11.5115
一失人身	-11.5116
財施	-11.5118
八正道	-11.5118
發道心	-11.5119
金寶	-11.5119
惟心土	-11.5119
智度論云	-11.512
凡心	-11.512
三無差別	-11.5122
菩提者	-11.5123
短長	-11.5124
於彼國土	-11.5124
終至	-11.5125
境勝	-11.5127
祇樹給孤獨園	-11.5127
大小乘	-11.5129
決生淨土	-11.513
廣博	-11.513
攝生	-11.5131
須用	-11.5132
正值	-11.5133
權乘	-11.5133
天竺國	-11.5133
已得	-11.5134
無量義	-11.5134
如須彌山佛	-11.5135
刀山	-11.5136
施設	-11.5137
想巳	-11.5137
佛制	-11.5138
玅宗	-11.5138
業行	-11.5139
度脫眾生	-11.514
於茲	-11.5141
淨名云	-11.5141
七珍	-11.5142
隨方	-11.5142
無疑矣	-11.5144
實境	-11.5144
七日持名	-11.5145
同是	-11.5146
無不具足	-11.5146
諸趣	-11.5146
好處	-11.5147
總論	-11.5148
居士曰	-11.5148
中央	-11.515
究竟成佛	-11.5154
無礙智	-11.5155
四首	-11.5155
不犯	-11.5155
懺悔已	-11.5156
放捨	-11.5157
乾道	-11.5157
嘆曰	-11.5158
手中	-11.5159
更無別	-11.5167
示疾	-11.5167
信行願	-11.5168
生焉	-11.5168
諸說	-11.517
超脫	-11.5172
輕愛	-11.5172
真源	-11.5177
告眾	-11.5181
不害	-11.5183
指出	-11.5183
廣談	-11.5183
行願品	-11.5185
會上	-11.5187
新疏云	-11.5189
持名者	-11.5192
兩頭	-11.5192
戒品	-11.5192
六齋	-11.5193
上士	-11.5193
疏中分	-11.5195
無罪	-11.5197
所由	-11.5198
珠光	-11.5199
風流	-11.5205
之術	-11.5209
半月	-11.5211
法性土	-11.5212
道種	-11.5213
十萬遍	-11.5214
故稱為	-11.5214
非如	-11.5215
從茲	-11.5218
超勝	-11.5218
有識	-11.5219
釋經文	-11.522
非空	-11.522
體同	-11.5221
下正	-11.5221
轉身	-11.5222
願樂	-11.5222
年少	-11.5226
如盲	-11.5226
乃見	-11.5227
成佛時	-11.5231
有言	-11.5231
羅什	-11.5233
悟無生忍	-11.5234
不特	-11.5239
能依	-11.524
即我心	-11.5241
乃至云	-11.5241
既巳	-11.5243
分上	-11.5245
蓮池禪師	-11.5246
有大小	-11.5246
定意	-11.5248
註云	-11.5248
二德	-11.5253
畢世	-11.5262
不間	-11.5262
西土	-11.5269
二相	-11.5269
以智	-11.5269
宜各	-11.5273
別示	-11.5273
高山	-11.5277
斷疑	-11.528
彼文	-11.5281
地居	-11.5281
祖師云	-11.5282
具諸	-11.5282
勝異	-11.5284
諸餘	-11.5286
坐斷	-11.5287
華梵	-11.5287
漸修	-11.5289
如經說	-11.5291
自負	-11.5293
因心	-11.5297
開化	-11.5301
上品十善	-11.5301
口出	-11.5301
心田	-11.5302
讀經	-11.5303
發願回向	-11.5304
僧問	-11.5306
動搖	-11.531
自修	-11.5311
造化	-11.5312
▁南無無量	-11.5314
念佛生淨土	-11.5316
墜墮	-11.5316
無端	-11.5319
一切時中	-11.532
文殊般若	-11.532
有益	-11.5323
下罰	-11.5323
客曰	-11.5325
入理	-11.5327
當受	-11.5328
利益眾生	-11.533
無滯	-11.533
無邊光	-11.5331
忽聞	-11.5333
錄之	-11.5333
於苦海	-11.5335
彼論	-11.5336
所宗	-11.5337
果滿	-11.5338
果人	-11.5347
不退地	-11.535
本意	-11.5352
自稱	-11.5354
他受用身	-11.5354
阿鼻獄	-11.5355
歡喜地	-11.5355
初示	-11.5358
生苦	-11.5362
不曉	-11.5363
諸境	-11.5365
下至十念	-11.5368
上卷	-11.5369
天台十疑論	-11.5371
皆不離	-11.5373
不周	-11.5374
聲聞辟支	-11.538
勤求	-11.5383
花中	-11.5384
始從	-11.5386
當思	-11.5391
池內	-11.5395
不淨觀	-11.5402
同處	-11.5403
諸有情	-11.5408
到來	-11.5409
示其	-11.5409
化儀	-11.5411
方丈	-11.5418
辟支	-11.542
則不能	-11.542
源流	-11.5423
緣深	-11.543
無貧	-11.5433
大事因緣	-11.5435
起修	-11.5436
十方國土	-11.5436
總明	-11.5436
通身	-11.5436
一遍	-11.5442
九年	-11.5442
顯於	-11.5443
俱時	-11.5444
西方有佛	-11.5445
天理	-11.5446
淨土因	-11.545
佛亦	-11.5452
向來	-11.5452
別顯	-11.5455
皆歸	-11.5458
串	-11.5458
殺者	-11.5461
此喻	-11.5464
無來無去	-11.5471
所至	-11.5471
智照	-11.5473
要當	-11.5475
造次	-11.5476
生滅門	-11.5477
及第	-11.5479
儼	-11.548
所談	-11.548
茫	-11.5483
真理	-11.5483
遠矣	-11.5484
德本	-11.5488
初徵	-11.5489
冥府	-11.5489
稚	-11.549
决	-11.5491
儒教	-11.5491
嫁	-11.5492
楞	-11.5492
方顯	-11.5492
宗鏡錄	-11.5492
凍	-11.5492
行世仁慈	-11.5492
柏	-11.5493
蠕動	-11.5493
蚤	-11.5493
濂	-11.5493
皆得不退	-11.5494
功不唐捐	-11.5494
奕	-11.5494
汩	-11.5495
燃燈	-11.5495
犁	-11.5495
騎	-11.5495
異光	-11.5495
霅川	-11.5496
挺	-11.5496
敬然臂香四十八炷	-11.5497
第一義悉檀	-11.5497
臟	-11.5497
拖	-11.5497
阿鼻	-11.5498
咫尺	-11.5498
煞	-11.5498
三覩聖相	-11.5498
娛	-11.5498
十日十夜	-11.5498
鞋	-11.5498
打成一片	-11.5498
自古及今	-11.5499
挈	-11.5499
炙	-11.5499
董	-11.5499
生諸佛家	-11.55
𢹂	-11.55
飢渴	-11.55
窠	-11.55
等無有異	-11.55
轟	-11.55
韋	-11.55
菩	-11.5501
祛	-11.5501
喫飯	-11.5501
增上慢	-11.5501
我來迎汝	-11.5502
火車相現	-11.5502
三心圓發	-11.5502
讎	-11.5502
弓	-11.5502
奸	-11.5503
迅	-11.5503
瓣	-11.5503
豁然大悟	-11.5503
煎熬	-11.5503
雙非	-11.5504
縷	-11.5504
閨	-11.5504
念而無念	-11.5504
得天眼	-11.5504
舅	-11.5504
窮極	-11.5504
覷破	-11.5504
聳	-11.5504
揀擇	-11.5505
熱鐵	-11.5505
侍女	-11.5505
白色白光	-11.5505
剩	-11.5505
名聞光佛	-11.5505
箸	-11.5505
擁護	-11.5505
諸門	-11.5506
鑊	-11.5506
無去無來	-11.5506
求不得苦	-11.5506
長蘆	-11.5506
曹溪	-11.5506
供養他方十萬億佛	-11.5506
來相報	-11.5507
至簡至易	-11.5507
挍	-11.5507
善知識法界眾生	-11.5507
極其	-11.5507
佛說此經巳	-11.5507
剏	-11.5508
四大分離	-11.5508
劬勞	-11.5508
靈禽	-11.5508
不可說不可說	-11.5508
稱我名號	-11.5508
竄	-11.5508
若四日	-11.5508
臨終在定之心	-11.5508
誅	-11.5508
舉一即三	-11.5508
其能	-11.5509
為師	-11.5509
挾	-11.5509
劍樹	-11.5509
欣慕	-11.5509
司士	-11.5509
饑寒	-11.5509
何愁不開悟	-11.5509
長生不死	-11.5509
而常修淨土	-11.551
阿彌利哆	-11.551
聞是音者	-11.551
塵埃	-11.551
一元曰	-11.5511
失其正念	-11.5511
所觀之境	-11.5511
佛及聖眾	-11.5512
驕	-11.5513
二說	-11.5513
樂欲	-11.5513
夜叉	-11.5513
檀那	-11.5514
生佛不二	-11.5514
口腹	-11.5514
食噉	-11.5514
欲令法音宣流	-11.5515
之句	-11.5515
像季	-11.5515
橫豎	-11.5516
寶鑑	-11.5517
放下身心	-11.5518
雲栖	-11.5518
至心迴向	-11.5518
有明文	-11.5519
方便有餘	-11.552
無明未盡	-11.5521
暫忘	-11.5521
赤珠	-11.5522
洞達	-11.5523
釋迦文佛	-11.5523
入道之	-11.5524
揚州	-11.5524
錢唐	-11.5525
適悅	-11.5526
故名曰	-11.5529
再拜	-11.5529
不同也	-11.553
舍那	-11.553
臨濟	-11.5531
妙宗鈔云	-11.5531
當年	-11.5531
略引	-11.5531
得往生淨土	-11.5532
海會	-11.5533
虛空界	-11.5533
八尺	-11.5535
誦之	-11.5535
光普照	-11.5536
上言	-11.5536
六賊	-11.5538
生無生	-11.5538
若五日	-11.5538
遲疑	-11.5538
即解脫	-11.5539
近代	-11.5539
四天王	-11.5539
大品經	-11.554
貪生	-11.554
樹網	-11.5543
佛言不信	-11.5545
龍宮	-11.5547
事事無礙法界	-11.5549
金仙	-11.555
夢裏	-11.555
真偽	-11.5551
志求	-11.5553
一切恭敬	-11.5553
身常	-11.5558
何者為	-11.5558
吾輩	-11.5559
以此善根	-11.5559
輔正曰	-11.556
後序	-11.5561
無上果	-11.5561
有去來	-11.5562
俱舍	-11.5562
寶剎	-11.5562
長辭	-11.5563
光光	-11.5563
引之	-11.5564
淨土唯心	-11.5564
慧力	-11.5564
因感	-11.5565
飲光	-11.5567
始末	-11.5568
十二部	-11.5569
困苦	-11.5569
香光佛	-11.5572
悲傷	-11.5574
盛華	-11.5574
皆依	-11.5575
指歸淨土	-11.5575
上三土	-11.5577
無疑也	-11.5577
勸勉	-11.5578
發露	-11.5579
日誦	-11.5581
亂想	-11.5582
眼根	-11.5582
厭苦	-11.5583
幾多	-11.5585
佛與菩薩	-11.5586
二果	-11.5587
亦可以	-11.5587
墮三塗	-11.5591
外物	-11.5591
既能	-11.5592
徧界	-11.5594
勸修淨土	-11.5594
且約	-11.5594
迴向發願心	-11.5596
身相光明	-11.5597
登極樂	-11.5597
除却	-11.5598
幾許	-11.5599
手執	-11.5599
斷惡	-11.5599
境智	-11.56
橫論	-11.56
果海	-11.56
西方七寶池中	-11.5601
千載	-11.5605
年間	-11.5605
了因	-11.5606
相續不斷	-11.561
自欺	-11.5611
以信為	-11.5611
陀羅尼經	-11.5612
睡時	-11.5613
相去	-11.5615
無退	-11.5615
為害	-11.5615
致使	-11.5618
六萬	-11.5618
弘誓願	-11.5618
可期	-11.5618
此顯	-11.562
生死凡夫	-11.562
此之謂	-11.5622
誠哉	-11.5624
者何也	-11.5629
後報	-11.5629
空假中	-11.5633
乎此	-11.5635
除五逆	-11.5635
到底	-11.5636
釋成	-11.5637
十方淨土	-11.564
一面	-11.5641
次序	-11.5642
心思	-11.5642
生死輪迴	-11.5643
宗鏡	-11.5644
讚淨土	-11.5645
常起	-11.5647
終教	-11.5648
來接引	-11.5648
舉足	-11.5649
二隨釋	-11.565
諸見	-11.5651
香風	-11.5652
指西方	-11.5653
闢佛	-11.5656
原是	-11.5656
實定	-11.5661
覺路	-11.5665
八風	-11.5667
亦具	-11.5668
大孝	-11.5671
若將	-11.5672
惡習	-11.5672
憂苦	-11.5674
東流	-11.5674
易往	-11.5677
心裏	-11.5678
願與	-11.5679
不遺	-11.568
七識	-11.5681
苦輪	-11.5683
之利	-11.5687
可知也	-11.569
生在	-11.5691
承事	-11.5693
王如來	-11.5694
捨報	-11.5695
稱讚淨土	-11.5696
為凡夫	-11.5699
生陰	-11.5699
必待	-11.5699
要期	-11.5699
或疑	-11.57
獨坐	-11.57
報滿	-11.57
六親	-11.5702
王位	-11.5703
豈可以	-11.5703
有七寶池	-11.5706
行於世	-11.5712
還家	-11.5713
初文	-11.572
他生	-11.5726
阿難白佛	-11.5727
其口	-11.5729
大蓮華	-11.5731
現量	-11.5734
諸罪	-11.5734
即諸佛	-11.5734
可憐憫	-11.5735
而忘	-11.5738
風動	-11.5741
頭上	-11.5741
各別	-11.5743
發誓願	-11.5746
此土修行	-11.575
可憫	-11.5752
金池	-11.5754
見彼佛	-11.5756
常存	-11.5757
眾戒	-11.5757
彌陀接引	-11.5759
罪垢	-11.5759
而卒	-11.5761
行苦	-11.5762
殺戒	-11.5763
便作	-11.5766
愚迷	-11.5774
於其中	-11.5775
異生	-11.5779
藥師經	-11.5783
深知	-11.5785
長大	-11.5787
便得往生	-11.5789
亦通	-11.579
其地	-11.5791
亦不離	-11.5796
往生集	-11.5803
反成	-11.5806
念念中	-11.5808
千億	-11.5813
覺察	-11.5815
起立	-11.5817
蓮宮	-11.5818
但觀	-11.5818
譯經	-11.5818
通乎	-11.5818
生死大事	-11.5821
四相	-11.5822
自障	-11.5824
寶殿	-11.5825
世間人	-11.5827
一國	-11.583
定是	-11.5832
大誓	-11.5833
法王子	-11.5834
見思惑	-11.5837
造修	-11.5837
苦逼	-11.5838
巳見	-11.5838
古聖	-11.5842
愚夫	-11.5847
作證	-11.585
軌則	-11.5851
佛記	-11.5852
此三種	-11.5853
妙解	-11.5856
三果	-11.586
一切菩薩摩訶薩	-11.5865
西方依正	-11.5865
士人	-11.5869
方等經	-11.5871
家事	-11.5871
諸樂	-11.5872
最可	-11.5875
不名為	-11.5879
蒙光	-11.5881
何在	-11.5889
回光	-11.589
真誠	-11.5892
慧根	-11.5893
光明相好	-11.5893
若就	-11.5894
舉世	-11.5894
等文	-11.5895
皆生淨土	-11.5897
四卷	-11.5898
外凡	-11.5903
至等覺	-11.5903
魔外	-11.5904
大科	-11.5908
清虗	-11.5918
生諸佛前	-11.5918
飛空	-11.592
悲華經	-11.5924
臺上	-11.5925
本旨	-11.5926
佗	-11.5927
聲聞弟子	-11.5928
戈	-11.5928
結果	-11.5928
爇	-11.5929
惹	-11.5929
離即離非	-11.5929
叟	-11.5929
芝	-11.5929
阿那含	-11.593
凋	-11.593
這箇	-11.5931
槃	-11.5931
瑟	-11.5931
滾	-11.5932
晚歲	-11.5932
碩	-11.5932
仗佛	-11.5932
諾	-11.5933
其性	-11.5933
而作是言	-11.5933
塵點劫	-11.5933
桂	-11.5934
行儀	-11.5934
沿	-11.5934
摩訶迦旃延	-11.5934
珂	-11.5935
拶	-11.5935
以名召德	-11.5935
蒸	-11.5935
祭祀	-11.5935
軸	-11.5935
正徧知	-11.5936
齎	-11.5936
翔	-11.5936
餐	-11.5936
見一切義佛	-11.5937
實報無障礙土	-11.5937
寔	-11.5937
及諸佛所說	-11.5937
最勝音佛	-11.5937
豈唯	-11.5937
即聞佛乘	-11.5938
善財童子	-11.5938
頸	-11.5938
娑羅樹王佛	-11.5938
生死事大	-11.5938
過現未來	-11.5938
剛強	-11.5938
自作教他	-11.5938
滔滔	-11.5939
阿㝹樓䭾	-11.5939
漢吳二譯	-11.5939
根有利鈍	-11.5939
放不下	-11.594
豈復更有	-11.594
撒手	-11.594
阬	-11.594
無量無邊阿僧祇劫	-11.594
枷	-11.594
鍼	-11.594
孝順父母	-11.5941
出過三界	-11.5941
香煙	-11.5941
人身難得	-11.5941
黃昏	-11.5941
誚	-11.5941
名稱	-11.5941
淨境	-11.5941
滓	-11.5942
上有樓閣	-11.5942
妻兒	-11.5942
鼻孔	-11.5942
毘盧遮那	-11.5943
遑	-11.5943
六十萬億	-11.5943
豁達	-11.5943
徙	-11.5943
實報莊嚴土	-11.5943
虎溪	-11.5943
大乘經典	-11.5943
北方世界	-11.5943
故說此言	-11.5944
出和雅音	-11.5944
得生天	-11.5944
豎窮橫徧	-11.5945
尸羅	-11.5945
親戚	-11.5945
毗尼	-11.5946
受無量苦	-11.5946
真如佛性	-11.5946
池底純以金沙布地	-11.5947
掃除	-11.5947
屎尿	-11.5947
渡河	-11.5947
昏沈	-11.5947
何等為三	-11.5948
在母胎	-11.5948
金陵	-11.5948
四無所畏	-11.5949
皆有佛性	-11.5949
目擊	-11.5949
無窮無盡	-11.5949
睡夢中	-11.595
彼佛光明無量	-11.5951
三發言勸信	-11.5951
喜悅	-11.5953
末代	-11.5953
不定聚	-11.5953
百川	-11.5954
淨土生無生論	-11.5955
畢竟得生	-11.5956
白骨	-11.5956
延慶	-11.5956
在家出家	-11.5956
為教體	-11.5957
得往生者	-11.5959
牛頭	-11.5959
二現相表真	-11.596
堅密	-11.596
登座	-11.5961
靜室	-11.5961
念念不絕	-11.5962
親友	-11.5965
其水	-11.5966
甚分明	-11.5967
摩尼珠	-11.5969
受輪迴	-11.5969
光景	-11.597
吾當	-11.597
使我	-11.5971
人物	-11.5974
遠法師	-11.5976
普濟	-11.5976
安樂集	-11.5978
宿生	-11.5978
今從	-11.5979
法身大士	-11.5979
大智度論	-11.598
所得功德	-11.5986
若巳生	-11.5986
見性成佛	-11.5988
序曰	-11.5989
發信心	-11.5989
期生淨土	-11.5989
不覺不知	-11.599
法智	-11.599
積劫	-11.5992
生死海中	-11.5992
宿障	-11.5993
休歇	-11.5994
列聖	-11.5995
!」	-11.5995
果地	-11.5995
決定信	-11.5997
自來迎	-11.5997
見分	-11.5998
彼佛願力	-11.5999
准知	-11.6005
分真	-11.6005
知一切法	-11.6006
巳久	-11.6006
不思議智	-11.6007
盡虗空界	-11.6008
超凡	-11.6008
惡鬼	-11.6008
王言	-11.6009
借問	-11.6011
機關	-11.6011
身色	-11.6012
皆知	-11.6015
加護	-11.6015
江南	-11.6016
世間一切	-11.6016
師子吼	-11.6016
童真	-11.6018
放還	-11.6019
欲得淨土	-11.6019
日生佛	-11.602
大率	-11.6021
想觀	-11.6021
隱顯	-11.6021
一念相應	-11.6021
海東	-11.6021
指前	-11.6022
迷於	-11.6023
好生	-11.6024
攝眾生	-11.6028
遍照	-11.6029
今有	-11.6029
勿使	-11.6029
演出	-11.6029
蓋是	-11.603
澄心	-11.6032
欣然	-11.6034
要術	-11.6035
看破	-11.6036
俱忘	-11.6037
憂惱	-11.6037
淨土不成	-11.604
義不成	-11.6041
勢至菩薩	-11.6041
右明	-11.6043
慈覺	-11.6045
易知	-11.6046
佛與眾生	-11.6048
光輝	-11.6049
同一體	-11.6051
為我念佛	-11.6053
難行道	-11.6054
則於	-11.6055
無慚	-11.6055
示生	-11.6057
所生之	-11.6058
讀佛	-11.6058
等書	-11.6062
既明	-11.6062
度一切眾生	-11.6066
若三日	-11.6069
不俟	-11.6069
三千界	-11.6071
愛物	-11.6072
不散亂	-11.6073
之美	-11.6074
僧尼	-11.6075
寶山	-11.6076
覺明	-11.6076
值佛	-11.6077
丈室	-11.6078
千聖	-11.6083
天人師	-11.6085
空門	-11.6086
順水	-11.6086
巳是	-11.6089
四部	-11.609
行念佛三昧	-11.6092
稱意	-11.6092
不間斷	-11.6093
八相	-11.6094
如來身	-11.6094
階道	-11.6096
不足信	-11.6097
此頌	-11.6099
亦異	-11.61
信行願三	-11.6101
禪人	-11.6102
證驗	-11.6104
一一相	-11.6107
任他	-11.6108
妙喜	-11.6113
▁敬禮	-11.6114
之捷徑	-11.6118
別論	-11.6121
中峰	-11.6121
觀空	-11.6122
不清	-11.6126
勸願	-11.6126
三諦也	-11.6127
再來	-11.613
默持	-11.6133
疑謗	-11.6136
甚明	-11.6138
二譯	-11.6141
意佛	-11.6141
一隅	-11.6141
諸經中	-11.6142
歸於淨土	-11.6143
不窮	-11.6145
妄動	-11.6145
諸山	-11.6147
化佛菩薩	-11.6147
何緣	-11.6147
重勸	-11.6148
化佛來迎	-11.6156
高顯	-11.6158
唱云	-11.6159
慧持	-11.616
得無生	-11.6162
彼國眾生	-11.6163
淨相	-11.6164
自現	-11.6164
等相	-11.6165
的是	-11.6168
匹	-11.6172
辨明	-11.6179
照曜	-11.6181
眾魔	-11.6182
雖見	-11.6183
勿以	-11.6184
曉了	-11.6187
無數化佛	-11.6187
度世	-11.6189
但說	-11.619
十方盡虗空界一切	-11.619
須陀洹	-11.6192
迷時	-11.6192
大善知識	-11.6195
同住	-11.6199
順理	-11.6199
預知	-11.6202
自勉	-11.6205
君王	-11.6212
眾相	-11.6213
奉事	-11.6217
焉知	-11.6218
豈復	-11.6228
清淨業	-11.6229
緣覺聲聞	-11.623
事識	-11.623
經像	-11.6232
能說法	-11.6233
下句	-11.6236
語曰	-11.6237
來接	-11.6241
心不動	-11.6241
名為極樂	-11.6241
三皈	-11.6242
居處	-11.6245
未死	-11.6246
我世尊	-11.6247
念不一	-11.6254
顯密	-11.6257
分之	-11.6261
用力	-11.6261
依止	-11.6268
殺盜婬	-11.6268
發心念佛	-11.6271
信士	-11.6274
勝事	-11.6283
如經云	-11.6285
餘皆	-11.6289
便入	-11.6289
能修	-11.6292
寶國	-11.6292
弟子某	-11.6293
生樂國	-11.6295
悉見	-11.6296
助緣	-11.6299
□□	-11.6301
大本經	-11.6301
國界	-11.6304
兼通	-11.6305
亦不可思議	-11.6308
歸趣	-11.631
願早	-11.6313
高超	-11.6316
天親論	-11.6318
受快樂	-11.6319
即生彼國	-11.6321
現見	-11.6324
足矣	-11.6325
人類	-11.6327
雲集	-11.6328
何但	-11.6331
。】【	-11.6334
惰	-11.6336
誰人	-11.6343
勝因	-11.6343
而亡	-11.6344
成佛果	-11.6348
想云	-11.6349
總在	-11.6354
非理	-11.6355
之慧	-11.6359
之始	-11.6361
出世法	-11.6365
文殊般若經	-11.6369
汁	-11.6374
姪	-11.6376
通指	-11.6377
妙莊嚴	-11.6378
厭離行	-11.6378
天鼓	-11.6379
鏡光	-11.6379
拆	-11.638
澹	-11.6381
譏嫌	-11.6381
蔬	-11.6382
伺	-11.6382
孔孟	-11.6383
恠	-11.6383
菽	-11.6383
琅	-11.6384
慈悲喜捨	-11.6384
不可以少善根福德因緣	-11.6384
慣	-11.6384
譌	-11.6384
令起	-11.6384
惺	-11.6385
杯	-11.6385
撇	-11.6385
羈	-11.6385
乃約	-11.6386
筭	-11.6386
釜	-11.6386
證悟	-11.6386
魅	-11.6386
無佛無念	-11.6386
但令	-11.6386
坊	-11.6387
如箭射	-11.6387
禳	-11.6387
右手	-11.6387
輭	-11.6387
耄	-11.6387
閻浮檀金色	-11.6388
腥	-11.6388
悋	-11.6388
濵	-11.6388
提刑	-11.6388
盞	-11.6389
棹	-11.6389
汝等皆當信受我語	-11.6389
瞑目	-11.639
訥	-11.639
邇	-11.639
寂寞	-11.639
隘	-11.639
瀝	-11.639
如母憶時	-11.6391
願我臨欲命終時	-11.6391
謝靈運	-11.6391
禮念彌陀道場懺法	-11.6391
酉	-11.6391
眾等回心	-11.6392
釣	-11.6392
無罣礙	-11.6392
心行處滅	-11.6392
行此難事	-11.6392
荷擔	-11.6393
爾時佛告長老舍利弗	-11.6393
憐念眾生	-11.6393
特留此經	-11.6393
1	-11.6393
晏	-11.6393
見者聞者	-11.6394
消災	-11.6394
侮	-11.6394
維那	-11.6394
翹勤	-11.6394
香上佛	-11.6394
匡	-11.6394
缺一不可	-11.6394
炎炎	-11.6395
心佛及眾生	-11.6395
淋	-11.6395
網明佛	-11.6395
須彌光佛	-11.6395
糓	-11.6395
司南	-11.6395
琢	-11.6396
抵暮昏黑	-11.6397
蹉跎	-11.6397
彫	-11.6397
諸惡莫作	-11.6397
是心即是三十二相	-11.6398
不離當處	-11.6398
八萬相好	-11.6398
懲	-11.6398
小千世界	-11.6398
不立文字	-11.6398
順佛語故	-11.6398
晴	-11.6399
七重羅網	-11.6399
清規	-11.6399
廬山蓮宗寶鑑	-11.6399
葛藤	-11.64
受諸快樂	-11.64
理實	-11.6401
同往	-11.6401
祇園	-11.6401
念茲在茲	-11.6402
奘師	-11.6402
壽命永劫	-11.6403
妙觀察智	-11.6403
法藏願云	-11.6403
譬如百千種樂	-11.6403
二而不二	-11.6403
猶豫	-11.6403
延促	-11.6404
周圍	-11.6405
有一人	-11.6405
於一念中	-11.6405
無惡不造	-11.6405
禁止	-11.6406
正好念佛若人	-11.6406
普熏	-11.6406
艱難	-11.6406
正謂	-11.6407
他方國土	-11.6408
白蓮社	-11.641
日月燈	-11.6411
兒孫	-11.6412
辨才	-11.6413
當知此人	-11.6415
來生我國	-11.6415
寶海	-11.6416
祖父	-11.6417
殺父	-11.6418
蟻子	-11.642
本無所有	-11.642
無能勝	-11.6422
世間人民	-11.6424
半劫	-11.6424
見佛色身	-11.6425
佛書	-11.6426
可憑	-11.6426
發此願	-11.6427
闇室	-11.6427
尊佛	-11.6427
大光明中	-11.6428
不可測	-11.6428
台州	-11.6428
覺照	-11.6429
蘇州	-11.6432
是故應當	-11.6433
告眾曰	-11.6433
福盡	-11.6434
偏見	-11.6435
不喜	-11.6436
若六日	-11.6436
是三無差別	-11.6437
諸國	-11.6437
羣迷	-11.6438
十方佛國	-11.6438
還源	-11.6439
錯過	-11.644
間錯	-11.644
謹識	-11.644
一粒	-11.6442
常清淨	-11.6442
畢命	-11.6442
影現中	-11.6442
導引	-11.6443
諸佛境界	-11.6445
從今巳	-11.6445
口誦心	-11.6446
不憚	-11.6447
白言	-11.6449
此云無	-11.6452
持五戒	-11.6452
次第三觀	-11.6452
普被	-11.6453
無上士	-11.6454
淨水	-11.6455
廣舌	-11.6455
濟物	-11.6457
嚴身	-11.646
有生滅	-11.646
神鬼	-11.646
解經	-11.646
認為	-11.6461
普度眾生	-11.6462
威神力	-11.6463
是法界身	-11.6463
實證	-11.6464
位菩薩	-11.6466
先知	-11.6467
得見阿彌陀佛	-11.6469
水清	-11.647
大病	-11.6472
釋迦世尊	-11.6472
徧觀	-11.6475
歸正	-11.6476
散心念佛	-11.6476
宿習	-11.6477
通贊	-11.6477
願海	-11.6477
次科	-11.6478
遂得往生	-11.648
雖分	-11.648
入山	-11.6481
次結	-11.6481
勝義	-11.6482
下正明	-11.6483
證無生法忍	-11.6484
特地	-11.6485
有智者	-11.6488
金剛經云	-11.6489
緣勝	-11.6489
千重	-11.6489
皆願往	-11.6496
見已	-11.6498
寶葢	-11.6498
看他	-11.6499
乃至七日	-11.65
何物	-11.6504
字函	-11.6506
成阿羅漢	-11.6506
洞明	-11.6508
五衰	-11.6509
天主	-11.651
猶存	-11.651
不滯	-11.6511
多寡	-11.6512
任汝	-11.6514
成一片	-11.6516
中庸	-11.6519
營生	-11.652
一百八	-11.6522
畏死	-11.6524
迴入	-11.6526
大清	-11.6528
慈力	-11.6529
豈獨	-11.653
妙無窮	-11.653
神通力	-11.6534
迷昧	-11.6534
羣經	-11.6535
行脚	-11.6538
異乎	-11.6541
情念	-11.6542
及十方諸佛	-11.6543
實德	-11.6544
何關	-11.6544
西方也	-11.6545
時長	-11.6547
反顯	-11.6547
又准	-11.6549
愛戀	-11.655
後漢	-11.655
願生彼國者	-11.6552
相迎	-11.6552
既具	-11.6554
百家	-11.6556
多端	-11.6556
其室	-11.6557
壞苦	-11.6558
後賢	-11.6559
勿令	-11.6559
邪外	-11.656
獲往生	-11.656
利名	-11.6562
多福德	-11.6562
命濁中	-11.6563
致令	-11.6564
有差別	-11.6564
上品上生者	-11.6564
脫去	-11.6565
成片	-11.6566
垂慈	-11.6569
緣熟	-11.6569
求道	-11.6571
名一行三昧	-11.6574
修淨土行	-11.6576
二障	-11.6588
根境	-11.659
將欲	-11.6592
土石	-11.6593
種種法門	-11.6593
大妄語	-11.6596
二祖	-11.6596
日月光	-11.6596
五位	-11.6597
道士	-11.66
難除	-11.6601
可悲也	-11.6603
一燈	-11.6604
當須	-11.6604
周子	-11.6608
造五逆	-11.6612
誦法華經	-11.6612
月朔	-11.6614
列眾	-11.6614
出頭	-11.6614
自鳴	-11.6615
涼風	-11.6616
二大菩薩	-11.6619
夜半	-11.6626
父母妻子	-11.6626
十六境	-11.6627
無動	-11.6627
圓宗	-11.6629
般若經云	-11.6632
娑婆極樂	-11.6633
轉輪	-11.6636
固巳	-11.6637
為眾生故	-11.664
無有二	-11.6641
會通	-11.6645
福善	-11.6648
普門	-11.6653
專主	-11.6654
近來	-11.6654
斯事	-11.6656
劫火	-11.6659
根力	-11.666
對境	-11.6661
著衣	-11.6662
顯發	-11.6662
苦域	-11.6664
此之三	-11.6665
大悲願力	-11.6666
必要	-11.6668
情愛	-11.6668
箇中	-11.6668
大願王	-11.6669
七遍	-11.6669
今始	-11.6673
一生念佛	-11.6674
無取捨	-11.6674
真如門	-11.6676
邊事	-11.6676
門前	-11.6677
西方即是	-11.668
揀非	-11.6681
要語	-11.6683
次當	-11.6686
別號	-11.6686
隨釋	-11.6686
惑染	-11.6688
取彼	-11.6694
障緣	-11.6697
信入	-11.6701
念佛誦經	-11.6702
清修	-11.6704
福壽	-11.6705
諸君	-11.6707
可歎	-11.6711
藕花	-11.6712
文王	-11.6712
且就	-11.6713
只今	-11.6714
相望	-11.6717
法幢	-11.672
通論	-11.6722
大宋	-11.6723
那有	-11.6724
同類	-11.6731
夜摩天	-11.6732
斷常	-11.6733
宮中	-11.6734
白色	-11.6739
日照	-11.674
教他	-11.674
餘門	-11.6741
於五濁惡世	-11.6741
四十九年	-11.6744
如是種種	-11.6744
無倫	-11.6745
異緣	-11.6746
諸佛所證	-11.6751
得徃生	-11.6755
異哉	-11.6757
豈惟	-11.6758
初中二	-11.6759
一心歸命	-11.6763
苦事	-11.6764
無休	-11.6767
流通分	-11.6767
觀彼佛	-11.6769
滯於	-11.6769
生阿彌陀佛國	-11.677
經律	-11.6772
攝念佛人	-11.6773
一切莊嚴	-11.6774
由斯	-11.6776
鏡照	-11.6777
法中王	-11.6779
財物	-11.6779
過去未來	-11.6779
久修	-11.6783
除障	-11.6784
所列	-11.6791
壅	-11.6793
得一心不亂	-11.6793
法師曰	-11.6794
大水	-11.6796
所用	-11.6796
惡事	-11.6799
非吾	-11.6805
的人	-11.6806
參禪者	-11.6809
三關	-11.6815
念佛一法	-11.6817
脩淨土	-11.6817
能到	-11.6817
學問	-11.6817
俱無	-11.6818
五宗	-11.6822
告云	-11.6823
只緣	-11.6825
誣也	-11.6828
譯本	-11.6829
多障	-11.6832
勸善	-11.6833
欲樂	-11.6833
之遺	-11.6843
一笑	-11.6844
佛法界	-11.6845
至善	-11.6846
二嚴	-11.6848
態	-11.6851
以此迴向	-11.6851
販	-11.6851
不善業	-11.6852
兩脚直	-11.6853
裴	-11.6853
驀	-11.6853
沖	-11.6853
粧	-11.6853
樞	-11.6854
邵	-11.6855
唯除五逆誹謗正法	-11.6855
因此把	-11.6855
葱	-11.6856
稱量	-11.6857
鷲	-11.6857
喬	-11.6857
忝	-11.6858
十二月	-11.6858
說聽	-11.6859
盡此報身	-11.6859
迢	-11.6859
喉	-11.6859
弭	-11.6859
直下承當	-11.686
又二初	-11.686
稿	-11.686
歛	-11.6861
菊	-11.6861
蒙佛授記	-11.6861
無上正等菩提	-11.6861
滋味	-11.6862
令行者	-11.6862
倩	-11.6862
披毛戴角	-11.6862
誰是	-11.6863
浦	-11.6863
諸佛現前三昧	-11.6863
缾	-11.6863
暨	-11.6864
堅密大師	-11.6864
大定	-11.6864
睦	-11.6864
層層	-11.6864
諸佛心內眾生	-11.6864
謚	-11.6864
輿	-11.6864
引導其前	-11.6865
空腹高心	-11.6865
東方亦有阿閦鞞佛	-11.6865
白華	-11.6865
皆為一切諸佛之所護念	-11.6865
嬉	-11.6865
得與如是諸上善人	-11.6865
掣	-11.6865
淆	-11.6866
涎	-11.6866
涕淚	-11.6866
面見彼佛阿彌陀	-11.6866
五利使	-11.6866
天堂地獄	-11.6866
摩訶目犍連	-11.6866
皆是大阿羅漢	-11.6866
咸宣妙法	-11.6867
反觀	-11.6867
閉關專念	-11.6867
屆	-11.6867
訴	-11.6868
發大菩提心	-11.6868
佛在世時	-11.6868
砌	-11.6868
攘	-11.6868
大須彌佛	-11.6868
膩	-11.6869
常不離佛	-11.6869
膺	-11.6869
淨飯王	-11.6869
乘佛願力	-11.6869
欲生阿彌陀佛國者	-11.6869
兔角	-11.6869
百即百生	-11.6869
憾	-11.687
􂅡	-11.687
劣弱	-11.687
澍	-11.687
炷香	-11.687
泥沙	-11.687
晃耀	-11.687
信受奉行	-11.687
株	-11.687
渴仰	-11.687
摩訶劫賓那	-11.687
闌	-11.6871
六齋日	-11.6871
冶	-11.6871
諧	-11.6871
河沙淨土一切諸佛	-11.6871
獘	-11.6871
十世古今	-11.6871
正合	-11.6871
孤負	-11.6871
嬰	-11.6872
要須常不離佛	-11.6872
錯謬	-11.6872
武帝	-11.6872
四生六道	-11.6872
曲為	-11.6872
丘陵坑坎	-11.6872
桓	-11.6872
苦哉苦哉	-11.6873
鉅	-11.6873
捨穢取淨	-11.6873
演說妙法	-11.6873
緜	-11.6873
以惡業故	-11.6873
萬般將不去	-11.6873
鬬	-11.6874
疲倦	-11.6874
色心不二	-11.6874
賀	-11.6874
哭泣	-11.6874
十方世界諸天人民	-11.6875
徤	-11.6875
繫縛	-11.6875
泰山	-11.6875
歷事諸佛	-11.6875
厭惡女身	-11.6876
放下萬緣	-11.6876
實是罪報所生	-11.6876
汝勿謂此鳥	-11.6876
」】「	-11.6877
辜	-11.6877
忙裏偷閒	-11.6878
因陀羅網	-11.6878
捨此報身	-11.6878
爐香	-11.6878
從無始來	-11.6878
斬斷	-11.6879
四天王天	-11.6879
件	-11.688
八十種好	-11.6881
浴池	-11.6882
黃龍	-11.6883
雲棲大師	-11.6883
無與等	-11.6883
消磨	-11.6883
節節	-11.6884
但得見彌陀	-11.6884
強弱	-11.6884
阿逸多菩薩	-11.6885
十八賢	-11.6885
草堂	-11.6885
墮畜生	-11.6886
自然化生	-11.6887
上二句	-11.6887
快哉	-11.6887
甲子	-11.6889
積累	-11.689
熏習	-11.6891
各十聲	-11.6891
事理無礙	-11.6892
當淨其心	-11.6892
恣意	-11.6892
坦然	-11.6893
功名	-11.6894
懷玉	-11.6895
現前授記	-11.6896
慈容	-11.6897
薄福	-11.6898
不見不聞	-11.69
我昔	-11.69
謂人曰	-11.6901
表裏	-11.6902
八萬四千法門	-11.6902
今釋	-11.6904
此方之人	-11.6905
覆藏	-11.6911
結印	-11.6911
通釋	-11.6912
克復	-11.6914
亡靈	-11.6914
萬慮	-11.6917
瑠璃地	-11.6918
賜號	-11.6918
獨推	-11.6918
伏惑	-11.6919
淨侶	-11.6919
講堂	-11.692
與諸大眾	-11.6921
記憶	-11.6922
圓該	-11.6923
普告	-11.6924
感歎	-11.6924
不可稱	-11.6925
四弘	-11.6927
貞元	-11.6928
全提	-11.6931
迴光	-11.6932
出苦輪	-11.6932
被機	-11.6933
記得	-11.6936
內典	-11.6938
下引證	-11.6939
四洲	-11.6939
常光	-11.6941
愛根	-11.6941
十地菩薩	-11.6941
求生彼國	-11.6943
名號功德	-11.6943
片時	-11.6944
是小乘	-11.6946
憂之	-11.6947
豈特	-11.6948
毀犯	-11.6949
異說	-11.6949
道光	-11.6955
無偏	-11.6955
奉請	-11.6956
本迹	-11.6956
未滿	-11.6958
一概	-11.6965
名光佛	-11.6965
道珍	-11.6966
不出一心	-11.6966
還是	-11.6966
任其	-11.6966
不能害	-11.6968
獨留	-11.6969
一毛	-11.6971
上帝	-11.6972
甘美	-11.6973
知歸	-11.6973
蓮華臺	-11.6973
分張	-11.6975
甘受	-11.6977
不得生淨土	-11.6977
業因	-11.6979
聞斯	-11.6982
所逼	-11.6982
天龍	-11.6982
部類	-11.6984
一小劫	-11.6985
諸佛說法	-11.6986
五十年	-11.6987
弟子某甲	-11.6989
形神	-11.6989
經多劫	-11.6991
異相	-11.6992
六天	-11.6992
救濟	-11.6993
變成	-11.6996
摩尼水	-11.6998
除疑	-11.6998
死魔	-11.6998
登科	-11.6999
隔世	-11.7
何甞	-11.7002
勸令念佛	-11.7003
據經	-11.7005
依憑	-11.7009
全心	-11.7019
不食肉	-11.7021
當得往生	-11.7021
原來	-11.7022
能伏	-11.7022
往生之因	-11.7025
久居	-11.703
遇緣	-11.7031
若遇	-11.7031
契理	-11.7032
劫波	-11.7034
難窮	-11.7036
妄生	-11.7038
老實念佛	-11.7039
誦呪	-11.704
不信淨土	-11.7041
物我	-11.7044
物物	-11.7045
不妄語	-11.7046
佛氏	-11.7047
證小	-11.7048
小小	-11.7048
觀音菩薩	-11.7051
覲彌陀	-11.7051
十念功成	-11.7052
受諸苦	-11.7053
莫過	-11.7056
隨形	-11.7058
樂器	-11.7058
更能	-11.706
蓮池會	-11.706
雜善	-11.7062
此旨	-11.7063
分攝	-11.7066
定生淨土	-11.7067
失聲	-11.7069
是菩薩淨土菩薩成佛時	-11.707
重悔	-11.7071
致疑	-11.7073
相接	-11.7075
寶嚴	-11.7077
氣力	-11.7078
一心稱念	-11.708
令一切眾生	-11.7083
不驚	-11.7083
七信	-11.7086
朝暮	-11.7093
日久	-11.7094
深達	-11.7099
寶相	-11.7099
究竟覺	-11.7102
一千年	-11.7102
輕視	-11.7103
執情	-11.7106
赴機	-11.7106
通號	-11.7108
但恐	-11.7108
妄識	-11.7109
悉令	-11.7113
賢劫	-11.7121
有二意	-11.7124
世自在王	-11.7131
因病	-11.7132
如來出世	-11.7135
唯須	-11.7136
以待	-11.7145
愚法	-11.7145
蓋由	-11.7149
出水	-11.7149
讚云	-11.715
何時得	-11.715
普賢行	-11.7155
所學	-11.7156
明徹	-11.7156
專切	-11.7156
窮劫	-11.7163
如夢幻	-11.7163
排佛	-11.7164
七覺	-11.7164
惟恐	-11.7168
明暗	-11.717
宿緣	-11.7171
更無有	-11.7175
修六度萬行	-11.7176
不朽	-11.7177
縱然	-11.7177
稽首禮	-11.7178
七八	-11.7182
之不巳	-11.7184
極多	-11.7185
智覺	-11.7191
解脫長者	-11.7192
分限	-11.7192
五百億	-11.7194
佛字	-11.7196
徃生傳	-11.7205
紫金色	-11.7206
百非	-11.7211
亦無量	-11.7213
未圓	-11.7215
圓解	-11.7224
本寂	-11.7225
慈悲方便	-11.7228
見彌陀佛	-11.7228
聖胎	-11.7229
益物	-11.7229
偏真	-11.723
億剎	-11.7231
一切佛法	-11.7231
此輩	-11.7233
願共	-11.7235
速證無生	-11.724
戒善	-11.7247
天性	-11.7253
息心	-11.7256
諸善男子	-11.7258
淨土諸經	-11.7259
舍利弗等	-11.7259
莫謂	-11.7262
未解	-11.7262
彌覆	-11.7262
全仗	-11.7263
何殊	-11.7265
界道	-11.7268
尚可	-11.7271
隨情	-11.7273
理一心者	-11.7274
力微	-11.7279
瞻禮	-11.7289
聽經	-11.7289
離塵	-11.7296
他時	-11.7296
癡愛	-11.7298
證知	-11.7299
三載	-11.7303
元是	-11.7308
諸寶樹	-11.7309
過惡	-11.7311
中夭	-11.7313
不怕	-11.7318
念珠	-11.7319
菩提涅槃	-11.7323
一章	-11.7324
可傷	-11.7326
啻	-11.7327
破惑	-11.7328
東南	-11.7331
說偈曰	-11.7334
寧有	-11.7334
泥洹之道	-11.734
智海	-11.7345
希奇	-11.7349
壹	-11.7349
西方安樂土	-11.7349
恍	-11.735
又不見	-11.735
棟	-11.7351
坐蓮華上	-11.7351
遍十方	-11.7352
第二階	-11.7355
甄	-11.7355
僧伽	-11.7356
晃	-11.7356
九品蓮	-11.7357
荊溪	-11.7357
綴	-11.7357
金像	-11.7357
歸去來兮	-11.7357
翰	-11.7358
斫	-11.7358
窄	-11.7358
八功德	-11.7359
百億日月	-11.7359
盻	-11.7359
大地震動	-11.7359
康熙	-11.736
溷	-11.736
漿	-11.736
鱉	-11.7362
能為甚難希有之事	-11.7362
咬	-11.7362
雜色寶華嚴身佛	-11.7362
狼	-11.7363
發三種心	-11.7363
終無有退	-11.7363
銕	-11.7363
潰	-11.7363
筵	-11.7363
變化身	-11.7363
是為發菩提心第	-11.7364
即心是土	-11.7364
洋	-11.7364
豎窮三際	-11.7364
占察	-11.7364
王日休	-11.7364
勝鬘	-11.7364
髑髏	-11.7364
澡浴	-11.7364
不退菩薩	-11.7365
鐙	-11.7365
不可勝數	-11.7365
瓊樓	-11.7365
從本以來	-11.7365
直指淨土決疑集	-11.7365
漆	-11.7366
貳	-11.7366
毗迦蘭	-11.7366
蛾	-11.7366
歸元直指	-11.7366
窻	-11.7366
眾罪消滅	-11.7366
芒	-11.7366
五戒十善	-11.7366
浮漚	-11.7366
易往無人	-11.7366
野狐	-11.7366
三界無安	-11.7367
墻	-11.7367
聞我名	-11.7367
三世諸佛淨業正因	-11.7367
廬山遠法師	-11.7367
襄陽	-11.7367
皺	-11.7367
遊歷十方	-11.7367
掐	-11.7367
文殊師利法王子	-11.7368
寶華德佛	-11.7368
攝大乘論	-11.7368
臨命終	-11.7368
當知我於五濁惡世	-11.7368
九十一劫	-11.7368
抉	-11.7368
塑	-11.7368
以至蜎飛蝡動之類	-11.7368
妃	-11.7368
須彌相佛	-11.7368
瞬息	-11.7368
嚼	-11.7368
欄網行樹	-11.7368
戲笑	-11.7368
擁	-11.7369
此三種業	-11.7369
願我命終時	-11.7369
真歇了禪師	-11.7369
舟航	-11.7369
不須疑也	-11.7369
隨拈一法	-11.7369
諸罪消滅	-11.7369
我及眾生	-11.7369
脹	-11.7369
荳	-11.7369
妙叶	-11.7369
如是等諸大弟子	-11.7369
忤	-11.7369
及釋提桓因等	-11.7369
生蓮華一朵	-11.7369
宰官	-11.737
頭面禮	-11.737
稱讚淨土佛攝受經	-11.737
呵呵	-11.737
墮無間獄	-11.737
忒	-11.737
舉足下足	-11.737
道安法師	-11.737
碯	-11.737
瑤	-11.737
皓	-11.737
不可以少善根福德因緣得生彼國	-11.737
混濫	-11.737
一切時處	-11.737
有事有理	-11.7371
而嚴飾之	-11.7371
飲酒食肉	-11.7371
眾生無邊誓願度	-11.7371
背覺合塵	-11.7371
養育	-11.7371
一人專忘	-11.7371
瞥爾	-11.7371
十方無央數世界	-11.7371
斷除三障	-11.7372
聞持	-11.7372
雨淚	-11.7372
臨壽終時	-11.7372
雖憶何為	-11.7372
簪	-11.7372
妬	-11.7372
黃色黃光	-11.7372
無量百千陀羅尼門	-11.7372
寶筏	-11.7372
十人九錯路	-11.7372
不相違遠	-11.7372
化現其身	-11.7373
一心奉請	-11.7373
娛樂	-11.7373
淨心即是西方	-11.7373
墓	-11.7373
心常歡喜	-11.7373
館	-11.7374
咄	-11.7374
飛錫	-11.7374
〔	-11.7374
直饒	-11.7374
姚秦	-11.7374
阿闍世	-11.7374
餘門學道	-11.7374
│├─────────┤│	-11.7374
〕	-11.7374
億那由他諸佛國	-11.7375
六種震動	-11.7375
祈禱	-11.7375
宮宇	-11.7375
庇	-11.7375
一者孝養父母	-11.7375
非是算數所能知之	-11.7376
耳聽	-11.7376
纏綿	-11.7376
乘金剛臺	-11.7376
報四恩	-11.7376
典籍	-11.7376
兩手	-11.7376
孺子	-11.7377
磁石	-11.7377
宣妙法	-11.7377
合掌而逝	-11.7378
端身正向	-11.7378
不免輪迴	-11.7379
不云乎	-11.7379
沉溺	-11.7379
思歸	-11.738
甕	-11.738
幽冥	-11.7381
仍舊	-11.7381
幾心欲	-11.7381
作不善業	-11.7382
普利	-11.7382
恒沙性德	-11.7382
東西南北	-11.7383
投胎	-11.7384
貧富	-11.7384
初正示	-11.7384
能滅八十億劫生死重罪	-11.7385
釋迦本師	-11.7385
一彈指頃	-11.7385
以此觀之	-11.7385
厄難	-11.7385
顯益	-11.7385
他受用土	-11.7386
宮室	-11.7386
雙遮	-11.7386
悲華經云	-11.7387
九百	-11.7387
直至菩提	-11.7387
孝順	-11.7387
四如意足	-11.7388
車馬	-11.7388
三十八	-11.7388
來迎接我	-11.7389
緩急	-11.7389
我此身	-11.739
折攝	-11.7391
迦葉佛	-11.7391
現其前	-11.7391
黑白	-11.7392
分破無明	-11.7394
謙下	-11.7394
入寺	-11.7395
廣長舌相	-11.7395
佛來迎	-11.7395
實事	-11.7397
一葉	-11.7398
一源	-11.7398
二論文	-11.7399
今日大眾	-11.7399
一百二十三人	-11.74
不淨說法	-11.74
窮源	-11.74
信得及	-11.7401
同居穢	-11.7401
造惡業	-11.7402
降魔	-11.7403
性宗	-11.7404
染污	-11.7405
天界	-11.7405
無虗妄	-11.7405
在其中矣	-11.7405
猶能	-11.7406
天台大師	-11.7407
三十五	-11.7407
戀著	-11.7407
豈敢	-11.7407
馬鳴菩薩	-11.741
三十三天	-11.741
至於今日	-11.7411
章句	-11.7414
廓然	-11.7415
有十二	-11.7415
根本三昧	-11.7416
梵僧	-11.7417
發起序	-11.7421
不必求生	-11.7422
舉揚	-11.7423
打破	-11.7423
致敬	-11.7424
上古	-11.7424
具縛	-11.7424
驚怖	-11.7425
錯會	-11.7426
最重	-11.7427
機熟	-11.7427
果能如是	-11.7428
一心稱名	-11.7428
有何不可	-11.7432
利濟	-11.7433
法位	-11.7434
戒定	-11.7434
指點	-11.7435
直趣	-11.7436
安閒	-11.7436
祝云	-11.7439
十念法門	-11.7441
無休息	-11.7444
捨穢	-11.7447
生盲	-11.7448
在當人	-11.7448
自省	-11.7449
他物	-11.7449
的指	-11.7449
問其故	-11.7451
全收	-11.7452
勸導	-11.7453
中品生	-11.7454
所殺	-11.7456
六祖云	-11.7456
是故我今	-11.7457
但持	-11.7458
實語	-11.7458
請加	-11.7461
彌陀疏鈔	-11.7461
文帝	-11.7463
五燒	-11.7466
本際	-11.7466
本願功德	-11.747
外院	-11.7471
吾祖	-11.7472
憂喜	-11.7473
即心之	-11.7473
出音	-11.7474
最極	-11.7477
小善	-11.7477
分淨穢	-11.7479
欣求	-11.748
一大事因緣	-11.7481
在胎	-11.7481
此岸	-11.7481
念佛而化	-11.7481
往生論云	-11.7485
金剛持	-11.7486
究理	-11.7492
深契	-11.7493
異香天樂	-11.7497
實性	-11.7498
大地眾生	-11.7499
老少	-11.7502
十向	-11.7505
宗乘	-11.7509
修之者	-11.7512
教乘	-11.7514
三惡趣	-11.7516
七期	-11.7517
不棄	-11.7518
華間	-11.7519
尚書	-11.7521
但依	-11.7522
八萬相	-11.7522
化度眾生	-11.7523
過患	-11.7526
偷心	-11.7527
新定	-11.7529
妄緣	-11.7529
只此	-11.753
欲速	-11.7532
玅法	-11.7532
生彼剎	-11.7535
之因也	-11.7535
敬重	-11.7536
尊經	-11.7538
花池	-11.754
五痛	-11.7541
十二緣	-11.7544
聞異香	-11.7551
飛出	-11.7551
全書	-11.7552
下座	-11.7553
取證	-11.7554
夢幻	-11.7555
而白佛言	-11.7567
聖化	-11.757
可見矣	-11.7571
表法	-11.7575
無不可者	-11.7576
得罪	-11.758
於夢中	-11.7582
安居	-11.7583
別傳	-11.7584
回入	-11.7588
助成	-11.7589
空如來藏	-11.759
兩家	-11.7591
一一光明	-11.7591
一切無礙	-11.7592
多羅	-11.7594
現居	-11.7594
生於西方	-11.7598
諸佛世界	-11.7599
偏邪	-11.7605
文殊師利菩薩	-11.7606
大本言	-11.761
修梵行	-11.7612
長遠	-11.7614
四恩	-11.7614
入關	-11.7619
獨尊	-11.7621
有五種	-11.7622
無處不	-11.7624
得堅固	-11.7626
三錢	-11.7628
仁義	-11.7633
真如性	-11.7633
西山	-11.7634
偏重	-11.7635
正坐	-11.7635
脫苦輪	-11.7635
無私	-11.7639
相待	-11.7645
凡小	-11.7646
八萬四千相好	-11.7646
情緣	-11.7647
呪願	-11.7648
七方便	-11.7648
不可數	-11.7651
五十三	-11.7651
三十四	-11.7657
生淨土巳	-11.7661
經卷	-11.7664
中之一	-11.7669
具述	-11.7676
上座	-11.7676
違背	-11.7679
菩薩示	-11.7682
生佛前	-11.7689
所不及	-11.7692
必從	-11.7693
侍佛	-11.7698
壽盡	-11.7699
常懷	-11.7701
序分	-11.7707
有勝劣	-11.7713
撥無	-11.7722
加趺	-11.7722
於自心	-11.7724
得度脫	-11.7726
此淨土法門	-11.7727
之效	-11.7727
大權	-11.7728
相尋	-11.7732
遂將	-11.7733
談空	-11.7744
有比丘	-11.7745
具德	-11.7746
非遙	-11.7748
四關	-11.7749
煩惱障	-11.7749
二初釋	-11.7761
此亦如是	-11.7764
持名號	-11.7774
力用也	-11.7776
獄火	-11.7777
所被	-11.7777
往復	-11.778
而廢	-11.7781
化土	-11.7783
重障	-11.779
至於此	-11.7799
綽禪師	-11.78
到一心不亂	-11.7808
天仙	-11.7808
一日忽	-11.7809
一大事	-11.7811
勝餘	-11.7815
昏昧	-11.7825
自在無礙	-11.7827
罪愆	-11.7829
一切國土	-11.7829
儒佛	-11.7837
滿願	-11.7839
約教	-11.7843
一一具	-11.7849
不管	-11.7851
百法明門	-11.7852
人趣	-11.7859
▁南無梵	-11.7859
妙意	-11.7863
四恩三有	-11.7864
不察	-11.7866
貴人	-11.7868
籬	-11.7876
耗	-11.7877
利根者	-11.7879
家室	-11.788
徐徐	-11.7881
多福	-11.7881
東海若	-11.7881
叨	-11.7882
沽	-11.7883
淤泥	-11.7883
鏤	-11.7883
麴多	-11.7883
游戲	-11.7884
斧	-11.7884
瑞相	-11.7885
翹	-11.7885
韁	-11.7885
乘大願船	-11.7886
酧	-11.7886
跟	-11.7887
誌	-11.7887
胃	-11.7887
繒	-11.7887
嫡	-11.7887
檻	-11.7887
六塵緣影	-11.7887
喘	-11.7888
蹉	-11.7888
無彼此	-11.7888
懷感法師	-11.7888
蓮胞	-11.7888
綿綿	-11.7889
寒暑不遷	-11.7889
棗	-11.7889
哺	-11.7889
謾	-11.7889
自行化他	-11.7889
蟬	-11.7889
莫大於	-11.789
迸	-11.789
其略曰	-11.789
脩多羅	-11.789
四威儀中	-11.789
楊墨	-11.789
規矩	-11.789
慈誓攝我	-11.7891
繽紛	-11.7891
帖	-11.7891
閭	-11.7891
不可思議功德之利	-11.7891
親為勝友	-11.7892
旃檀	-11.7892
魘	-11.7892
桌	-11.7892
蓄	-11.7892
離苦得樂	-11.7893
肺	-11.7893
來生其國	-11.7893
十方無量不可思議諸佛世界	-11.7893
難沮佛	-11.7893
龍舒增廣淨土文卷第	-11.7893
翛然	-11.7893
尹	-11.7893
另	-11.7893
紋	-11.7893
子若憶母	-11.7893
具無量德	-11.7893
故我頂禮	-11.7894
講演	-11.7894
袪	-11.7894
白馬寺	-11.7894
是非人我	-11.7894
青黃赤白	-11.7894
次依宗釋義二	-11.7894
功高易進	-11.7895
階梯	-11.7895
有日月燈佛	-11.7895
闕公則	-11.7895
具諸不善	-11.7895
即得往生安樂剎	-11.7896
賓頭盧頗羅墮	-11.7896
罪障深重	-11.7896
如經所說	-11.7896
拳拳	-11.7896
常見佛故	-11.7896
淨因增長	-11.7897
名為邪觀	-11.7897
歷代祖師	-11.7897
僧叡	-11.7897
壽命長遠	-11.7897
五鈍使	-11.7897
豈不快哉	-11.7897
鬆	-11.7897
呆	-11.7898
發廣大心	-11.7898
幽溪大師	-11.7898
衣服飲食	-11.7898
佛說觀無量壽佛經	-11.7898
寂照不二	-11.7898
於諸佛前	-11.7899
無有慚愧	-11.7899
速超生死	-11.7899
彼佛何故號阿彌陀	-11.7899
一念改悔	-11.7899
摩訶衍	-11.7899
一句洪名	-11.7899
大本法藏願云	-11.7899
不思議境	-11.79
不取相貌	-11.79
淨土法語	-11.79
敷演	-11.79
身無病苦	-11.79
共命之鳥	-11.79
自在王佛	-11.79
淘汰	-11.79
雨天曼陀羅華	-11.7901
皆悉念佛念法念僧	-11.7901
粲	-11.7901
感激	-11.7901
楯	-11.7901
盛眾妙華	-11.7901
所染	-11.7901
與修多羅合	-11.7901
四十一位	-11.7901
一夕夢	-11.7902
不常值佛	-11.7902
長老舍利弗	-11.7902
乾陀訶提菩薩	-11.7902
溯	-11.7902
莫作	-11.7902
須臾間	-11.7902
土石諸山	-11.7902
普與眾生	-11.7902
偃	-11.7902
寄庫	-11.7903
奔走	-11.7903
即以食時	-11.7903
謗毀	-11.7903
并諸菩薩摩訶薩	-11.7903
自然心開	-11.7903
呵責	-11.7903
忍耐	-11.7903
無念而念	-11.7904
發憤	-11.7904
修行六念	-11.7904
情與無情	-11.7905
無央數劫	-11.7905
強健	-11.7905
四無量心	-11.7906
服膺	-11.7906
姑蘇	-11.7906
何況憶念	-11.7906
悉皆不受	-11.7907
退屈	-11.7907
蓮花化生	-11.7907
植善根	-11.7908
衣裳	-11.7908
毫髮	-11.7909
旌	-11.7909
馳散	-11.7909
抑揚	-11.7909
初列名顯廣	-11.7909
天涯	-11.7909
恐懼	-11.791
昨日	-11.791
橫超三界	-11.791
》、《	-11.7911
天上天下	-11.7912
滿虗空中	-11.7912
包含	-11.7912
妄成	-11.7912
涌出	-11.7913
大乘廣智	-11.7913
毘盧	-11.7913
直到	-11.7914
清潔	-11.7915
愆尤	-11.7915
應墮惡道	-11.7918
尊崇	-11.7918
受法性身	-11.7919
三身四土	-11.792
玉女	-11.7921
一體三寶	-11.7922
承上文	-11.7923
群機	-11.7923
勤修淨業	-11.7924
文字般若	-11.7925
大佑	-11.7925
細細	-11.7925
百千三昧	-11.7926
大集經云	-11.7927
皆無所有	-11.7927
魂識	-11.7927
同生極樂	-11.7928
琉璃地	-11.7929
阿難問	-11.7929
六八	-11.793
十萬八千	-11.793
仁和	-11.7931
次釋二	-11.7931
千秋	-11.7933
將軍	-11.7933
三者發菩提心	-11.7933
廣狹	-11.7934
初中後	-11.7935
應化身	-11.7935
輪迴生死	-11.7937
千五百	-11.7938
十四日	-11.7938
天親菩薩	-11.794
消亡	-11.7942
因斯	-11.7943
一門深入	-11.7945
順治	-11.7946
第二階人	-11.7946
同生極樂國	-11.7946
分毫	-11.7947
精嚴	-11.7948
行菩薩行	-11.7949
禁語	-11.7949
樂聞	-11.7951
青色	-11.7954
早早	-11.7955
且置	-11.7957
不值	-11.7958
無量行願	-11.7961
諸波羅蜜	-11.7961
頓忘	-11.7963
略陳	-11.7963
十六觀門	-11.7963
無盡藏	-11.7963
佛有三身	-11.7963
古謂	-11.7964
橫死	-11.7967
世務	-11.7969
西方快樂	-11.7972
九祖	-11.7973
乘急	-11.7973
金玉	-11.7973
高賢	-11.7974
貧苦	-11.7974
深旨	-11.7974
眾星	-11.7975
總收	-11.7977
午時	-11.7979
大綱	-11.7981
莫待	-11.7987
下品生	-11.7991
入廬山	-11.7993
清白	-11.7994
高廣	-11.7995
羣疑論	-11.8
盛行	-11.8002
初步	-11.8003
不斷絕	-11.8005
幢旛	-11.8006
不知不覺	-11.8006
疾苦	-11.8011
切宜	-11.8014
同遵	-11.8015
且夫	-11.8016
盡形	-11.8018
自揣	-11.8024
王城	-11.8024
念佛眾生攝取不捨	-11.8024
獨存	-11.8026
五逆罪	-11.8028
猶恐	-11.8032
省常	-11.8033
方圓	-11.8033
十六觀經云	-11.8037
從何處	-11.8039
經藏	-11.8042
願我速	-11.8045
往生其國	-11.8045
感動	-11.8049
試觀	-11.8051
諸眷屬	-11.8054
七七	-11.8059
意地	-11.8059
斯旨	-11.8061
印可	-11.8063
不擇	-11.807
救他	-11.8077
願一切眾生	-11.8078
兩種	-11.808
二初標	-11.808
邪道	-11.8081
大石	-11.8082
入夢	-11.8085
普為十方	-11.8086
周公	-11.8088
愛惜	-11.8089
法侶	-11.8095
各執	-11.8096
前進	-11.8098
隨聲	-11.8101
生死涅槃	-11.8103
王龍舒	-11.8106
幸遇	-11.8108
佛說此經	-11.811
以持名為	-11.8114
貴在	-11.8115
求往	-11.8123
五濁眾生	-11.8125
六情	-11.8126
赤白	-11.8131
阿彌陀佛與諸聖眾現在其前	-11.8131
五千	-11.8133
大慈悲心	-11.8133
如是發心	-11.8135
講說	-11.8139
令他	-11.814
無時不	-11.814
歷事	-11.8141
展轉相	-11.8147
改變	-11.8151
莊嚴功德	-11.8152
具三心	-11.8153
往還	-11.8153
投於	-11.8157
詎可	-11.816
還他	-11.8163
受罪	-11.8167
絕分	-11.8176
若肯	-11.8178
本來清淨	-11.8179
體本空	-11.818
他方諸佛	-11.8188
十三年	-11.8194
神化	-11.8195
今現在	-11.8195
妙好	-11.8197
念佛不絕	-11.8203
實報莊嚴	-11.8207
好樂	-11.8212
勝方便	-11.8216
聖解	-11.8218
境現前	-11.8219
大因緣	-11.8224
胡不	-11.8231
長時修	-11.8231
具陳	-11.8235
淨名經	-11.8237
專指	-11.8239
過十萬億	-11.8248
巳發願	-11.8249
實智	-11.8249
大凡	-11.8253
舉目	-11.8254
平實	-11.8256
深信淨土	-11.8256
十六字	-11.8257
隨願往生經	-11.8264
無量光明	-11.8264
平直	-11.8265
去聖	-11.8274
一稱名	-11.8276
魔來	-11.8279
結顯	-11.828
具含	-11.8283
家風	-11.8295
能障	-11.8301
八音	-11.8303
敬三寶	-11.8305
法源	-11.8305
普化	-11.8307
想禮	-11.8311
小教	-11.8313
苦哉	-11.8321
等正覺	-11.8321
聽聞	-11.8323
身滿虗空	-11.8328
不離一念	-11.8333
明州	-11.8334
切切	-11.8334
悲哀	-11.8334
聞法歡喜	-11.8337
鞭䇿	-11.8343
教網	-11.8344
心猛利	-11.8354
失人身	-11.8354
隨根	-11.8362
曇鸞	-11.8362
一切凡夫	-11.8369
舒舌	-11.837
翻名	-11.8374
不減	-11.8377
寧無	-11.838
安樂國土	-11.8384
亦如之	-11.8385
此之二	-11.8385
於今日	-11.8396
彌陀一句	-11.8402
寶手	-11.8407
是箇	-11.8409
之域	-11.8409
羣疑	-11.8412
深山	-11.8414
引古	-11.8417
我頂禮生彼國	-11.8419
福力	-11.8423
肚	-11.8425
一貫	-11.8426
壤	-11.8427
他世	-11.8428
腫	-11.843
嘯	-11.8431
斷狐疑	-11.8433
瓊	-11.8433
玷	-11.8434
舉要言之	-11.8434
岩	-11.8434
猪羊	-11.8435
蛆	-11.8435
受無量名	-11.8436
顗	-11.8436
嬌	-11.8436
啞	-11.8436
嬈	-11.8437
鎧	-11.8439
鬢	-11.8439
梢	-11.844
刀砧	-11.844
貼	-11.844
栢	-11.844
晁	-11.8441
撻	-11.8441
盡此一生	-11.8442
喫緊	-11.8442
徹底悲心	-11.8442
肘	-11.8442
八苦交煎	-11.8442
快活	-11.8442
迪	-11.8443
瀉	-11.8443
曠野	-11.8443
阿那律	-11.8443
稼	-11.8443
洽	-11.8443
英雄	-11.8444
異口同音	-11.8444
蛻	-11.8444
滄海	-11.8444
須摩提	-11.8444
亦無所去	-11.8444
藤	-11.8444
西方樂西方樂西方	-11.8444
二童子	-11.8444
自性阿彌	-11.8444
若有人巳發願	-11.8445
殮	-11.8445
青草堂	-11.8445
拭	-11.8445
鋤	-11.8446
自救不了	-11.8446
旻	-11.8446
瘦	-11.8446
大智律師	-11.8446
徇	-11.8446
坑坎	-11.8446
餘門修道	-11.8446
即空即假即中	-11.8447
殄	-11.8447
阿羅訶	-11.8447
佛昔本誓	-11.8447
磁	-11.8447
歸性	-11.8447
靈鷲	-11.8447
得入如來大誓海中	-11.8447
阿彌唎哆	-11.8447
是人終時心不顛倒	-11.8448
持戒念佛	-11.8448
局於	-11.8448
法智大師	-11.8448
鵝	-11.8448
寢疾	-11.8448
蜎飛蠕動	-11.8448
願以淨光照我	-11.8448
馨	-11.8448
入聖流	-11.8448
發無上心	-11.8448
蓮華乃敷	-11.8448
弁	-11.8448
在池水上	-11.8448
燒香散華	-11.8448
心作心是	-11.8449
銳	-11.8449
驥	-11.8449
鵠	-11.8449
頒	-11.8449
媚	-11.8449
普為四恩三有	-11.8449
一稱嘉號	-11.8449
蕅益大師	-11.8449
警策	-11.845
作依作正	-11.845
令聲不絕	-11.845
簷	-11.845
還入生死	-11.845
永離惡道	-11.845
大限到來	-11.845
饌	-11.845
不為二邊	-11.845
萬善同歸	-11.8451
佛與聖眾	-11.8451
欣願	-11.8451
一剎那間	-11.8451
作是觀者	-11.8451
謂弟子曰	-11.8451
徑捷	-11.8451
鮑	-11.8451
作麼生	-11.8451
週	-11.8451
蚊	-11.8451
若逢不逢	-11.8451
因該果海	-11.8451
超日月光佛	-11.8451
不壞假名	-11.8451
應稱無量壽佛	-11.8452
濶	-11.8452
掦	-11.8452
兜	-11.8452
不得力	-11.8452
佛道無上誓願成	-11.8452
機感相應	-11.8452
更無執對	-11.8452
鴉	-11.8452
婆沙論	-11.8452
啼哭	-11.8452
尉	-11.8453
洛陽	-11.8453
官員	-11.8453
憍	-11.8453
發大誓願	-11.8453
不去不來	-11.8453
與如是等諸大菩薩	-11.8453
全修即性	-11.8453
從初至	-11.8453
飄零	-11.8454
神遊淨土	-11.8454
慈恩法師	-11.8454
佛為法王	-11.8454
受用現成	-11.8454
耐	-11.8454
譜	-11.8454
彌陀懺	-11.8454
罄無不盡	-11.8454
若子逃逝	-11.8454
兜率天宮	-11.8454
忠孝	-11.8454
非是算數之所能知	-11.8454
中千世界	-11.8454
筒	-11.8455
垣	-11.8455
濁水不得不清	-11.8455
閉目開目	-11.8455
蔡	-11.8455
感佛來迎	-11.8455
个	-11.8455
綿綿密密	-11.8456
同得往生阿彌陀佛國	-11.8456
飢寒	-11.8456
諳	-11.8456
翰林	-11.8456
聞是說者	-11.8456
生決定心	-11.8456
愛別離苦	-11.8456
諂	-11.8456
覿	-11.8456
遊戲神通	-11.8457
當信是	-11.8457
單複	-11.8457
惱害	-11.8457
昏衢	-11.8458
婁	-11.8458
怡然	-11.8458
言語道斷	-11.8458
念佛三昧寶王論	-11.8458
欲入一行三昧	-11.8459
奧旨	-11.8459
境觀相吞	-11.8459
悶絕	-11.8459
齋戒念佛	-11.8459
及寶羅網	-11.846
但持名號	-11.846
實相為體	-11.846
水流光明	-11.846
堅牢	-11.846
風帆	-11.846
幽閉	-11.846
鑪	-11.8461
竿	-11.8461
跨	-11.8461
上方世界	-11.8462
恍然	-11.8462
不二而二	-11.8462
父母兄弟	-11.8463
忉利天王	-11.8463
自覺覺他	-11.8463
解脫知見	-11.8463
住不退地	-11.8463
彌勒未生	-11.8463
皆是四寶	-11.8463
倐忽	-11.8463
瞿曇	-11.8463
麟	-11.8464
該羅	-11.8464
得道之後	-11.8464
普賢行願品	-11.8465
芳慧	-11.8465
拔舌	-11.8465
能所不二	-11.8465
炳然	-11.8466
二十三日	-11.8467
林樹	-11.8467
恒河沙劫	-11.8467
人天福報	-11.8467
震動	-11.8468
誑惑	-11.8469
清閑	-11.8469
母胎	-11.8469
人天小果	-11.8469
持名一法	-11.847
舍宅	-11.847
二初分科	-11.847
誦阿彌陀經	-11.847
罔極	-11.847
痛快	-11.8471
這裏	-11.8472
他方佛土	-11.8472
寧容	-11.8473
俗姓	-11.8474
太守	-11.8475
淨土諸書	-11.8475
命工	-11.8477
最為第一	-11.8477
摩訶薩	-11.8477
當墮地獄	-11.8478
凝神	-11.8478
復甦	-11.8478
六神通	-11.8479
以無漏智	-11.848
進士	-11.848
因緣和合	-11.848
錯亂	-11.8481
二者深心	-11.8481
阿彌陀佛與諸聖眾	-11.8481
地藏菩薩	-11.8482
年六十	-11.8483
列祖	-11.8483
十八界	-11.8485
鏡像	-11.8485
宗匠	-11.8486
如觀經云	-11.8486
變化土	-11.8487
毛端	-11.849
相識	-11.849
即便往生	-11.849
山頂	-11.8491
深慚	-11.8493
毫光	-11.8493
到岸	-11.8494
修行淨業	-11.8495
淨光	-11.8496
神通第一	-11.8496
勝利	-11.8497
▁初分科	-11.8498
階位	-11.8498
淺近	-11.8499
不肯念佛	-11.8501
行六波羅蜜	-11.8501
釋梵	-11.8501
有幾人	-11.8503
真歇	-11.8506
為侍者	-11.8507
疑網	-11.8507
符契	-11.8507
豈必	-11.8507
教興	-11.8508
名空如來藏	-11.8508
於中有二	-11.8508
所作功德	-11.8508
率眾	-11.851
解冤	-11.8513
每每	-11.8513
中郎	-11.8516
願共眾生咸歸命故	-11.8517
念佛為先	-11.8517
。」《	-11.8518
貫通	-11.852
如佛所說	-11.852
宛如	-11.8522
詳略	-11.8522
歎德	-11.8524
領眾	-11.8524
天趣	-11.8525
風輪	-11.8525
。』《	-11.8526
十種功德	-11.8531
累世	-11.8531
棄國	-11.8532
守約	-11.8532
立題	-11.8535
受五戒	-11.8536
精專	-11.8536
進步	-11.8536
十由旬	-11.8537
比丘僧	-11.8538
安和	-11.854
十方三寶	-11.8542
觸境	-11.8542
課佛	-11.8543
一切善法	-11.8543
□□□□	-11.8543
▁辨明	-11.8545
聽受	-11.8549
朗然	-11.8549
入社	-11.855
貪求	-11.855
苦惱眾生	-11.8551
順風	-11.8552
重刻	-11.8553
光明遍照	-11.8555
千燈	-11.8556
無生忍位	-11.8557
判屬	-11.8561
截斷	-11.8562
淨友	-11.8564
冥王	-11.8564
自號	-11.8565
十一月	-11.8567
究心	-11.8569
無所不徧	-11.8569
:「《	-11.857
弘通	-11.8572
犯戒	-11.8574
如五須彌	-11.8575
流血	-11.8577
華嚴經曰	-11.8582
▁初標	-11.8583
玄門	-11.8583
天雨	-11.8584
存焉	-11.8587
左手	-11.8587
生涯	-11.8593
遂致	-11.8594
入獄	-11.8595
下筆	-11.8595
玄妙	-11.8598
清淨心中	-11.8603
作此觀	-11.8609
能變	-11.862
作此說	-11.8621
萬安	-11.8625
九流	-11.8627
初心菩薩	-11.8629
終始	-11.8632
光明普照	-11.8634
有益於	-11.8641
分彼此	-11.8642
慧眼	-11.8642
三結成	-11.8644
墮餓鬼	-11.8648
耽著	-11.8649
名事一心	-11.8653
須假	-11.8655
以俟	-11.8656
正修行	-11.8659
修福慧	-11.866
念佛直指	-11.8661
寧知	-11.8662
▁三結	-11.8663
三迦葉	-11.8665
作隨喜	-11.8665
情識	-11.8668
於是乎	-11.8669
學士	-11.8676
燈燭	-11.8676
假實	-11.8678
女色	-11.8681
四倒	-11.8681
白藕	-11.8685
指授	-11.8691
寧得	-11.8693
同生西方	-11.8695
看來	-11.8696
三車	-11.8696
▁佛說阿彌陀經	-11.8699
若人專念	-11.8705
重恩	-11.8705
十六王子	-11.8707
體無二	-11.8709
血畫	-11.8709
趣舉	-11.8712
覆大千	-11.8714
如華嚴經	-11.8716
目覩	-11.8716
信願往生	-11.8719
所纏	-11.8723
彌陀大願	-11.8724
遙見	-11.8728
各有所	-11.873
淨土之教	-11.873
更無疑	-11.8733
寶樓閣	-11.8733
化物	-11.8734
萬八千	-11.8736
懈慢國	-11.8738
舉手	-11.8741
念佛三昧門	-11.8742
一絲	-11.8749
十迴向	-11.8753
彌陀說法	-11.8759
不欺	-11.876
普勸念佛	-11.8761
捨娑婆	-11.8774
魔界	-11.8779
心專注	-11.8779
太過	-11.8784
抑亦	-11.8785
之愆	-11.8789
冤業	-11.8793
取著	-11.8794
永不退	-11.88
但只	-11.8801
立志	-11.8813
忽起	-11.8814
廣無邊	-11.8827
所獲	-11.8829
每晨	-11.8833
經一卷	-11.8835
之至也	-11.8835
即應身	-11.8841
普現一切	-11.8853
有六種	-11.8855
不覺知	-11.8857
問之曰	-11.8858
悲哉	-11.8858
樹王	-11.8866
狂心	-11.8868
勝于	-11.8869
切實	-11.887
三十三	-11.8871
迷流	-11.8871
邪教	-11.8871
雜修	-11.8873
逢人	-11.888
假立	-11.8882
身三業	-11.8882
之果也	-11.8882
德用	-11.8883
信心念佛	-11.889
歸宿	-11.889
口口	-11.8891
此經證	-11.8896
臘月	-11.8909
本宗	-11.891
則不然	-11.8916
子女	-11.8926
耆闍崛山	-11.8931
修禪定	-11.8934
三界六道	-11.8936
能燒	-11.8941
功業	-11.8944
命命	-11.8948
月餘	-11.8951
元妙	-11.8953
果號	-11.896
悲憫	-11.8961
正在此	-11.8963
諸世界	-11.8974
歸敬	-11.8977
一食之	-11.898
極少	-11.898
亦應無量	-11.8981
東北	-11.8982
有八萬四千相	-11.8989
二種生死	-11.8995
不飲酒	-11.9003
最尊	-11.9005
無有盡	-11.9006
爾時阿難	-11.9008
甦	-11.9008
不善法	-11.9009
無始已來	-11.901
俞	-11.9013
凡修淨土	-11.9014
樓觀	-11.9021
然後能	-11.9022
光明滿室	-11.9023
飜	-11.9025
佛護念	-11.9026
毗婆尸佛	-11.9026
鳴引磬	-11.9026
瞑	-11.9027
超情離見	-11.9027
遘	-11.9027
歐	-11.9027
不勞彈指	-11.9027
陛	-11.9027
受具戒	-11.9028
佛成道日	-11.9028
一大千	-11.9028
不相捨離	-11.9028
願共眾生咸歸命故我頂禮生彼國	-11.9028
架	-11.9028
鹿苑	-11.9029
何窮	-11.9029
巋	-11.9029
見金蓮華	-11.9029
三明六通	-11.9029
捺	-11.903
坡	-11.903
絆	-11.903
誥	-11.903
千輻輪相	-11.9031
彊	-11.9031
拍	-11.9031
畝	-11.9031
靖	-11.9032
法界圓融不思議體	-11.9032
正遍知	-11.9032
比量	-11.9032
發無上菩提心	-11.9032
蔣	-11.9032
疴	-11.9032
稠	-11.9032
惻	-11.9032
冕	-11.9032
筌	-11.9033
開權顯實	-11.9033
銅柱	-11.9033
涓	-11.9033
需	-11.9033
豕	-11.9033
時不待人	-11.9033
柔和	-11.9033
死此生彼	-11.9034
歸命禮	-11.9034
覊	-11.9034
大不調	-11.9034
仗此	-11.9034
動念即是生淨土時	-11.9034
一念回光	-11.9035
捨諸亂意	-11.9035
蘇軾	-11.9035
現未互在	-11.9035
豪傑	-11.9035
四十八願度眾生九品咸令登彼岸	-11.9035
鐵壁	-11.9036
徒仰嘉名	-11.9036
雖知諸佛國及與眾生空	-11.9036
綵	-11.9036
囿	-11.9036
陞	-11.9036
彌陀願海	-11.9036
調停得中	-11.9036
明心見性	-11.9036
有在地	-11.9036
紛紜	-11.9036
絕思絕議	-11.9037
盡除一切諸障礙	-11.9037
塔廟	-11.9037
揆	-11.9037
經歷多劫	-11.9037
經三小劫	-11.9037
瀾	-11.9037
劂	-11.9037
杵	-11.9038
昭彰	-11.9038
念佛念法念僧	-11.9038
批	-11.9039
󳯟	-11.9039
照行者身	-11.9039
廼	-11.9039
端身正	-11.9039
錦繡	-11.9039
時節因緣	-11.9039
具諸戒行	-11.9039
徑中徑	-11.9039
法門無量誓願學	-11.9039
萬德齊彰	-11.9039
萬象森羅	-11.9039
郵	-11.9039
甲戌	-11.904
梗	-11.904
摭	-11.904
蔬食	-11.904
靄	-11.904
皆是阿鞞跋致	-11.904
顏色光澤	-11.904
眾相具足	-11.904
瞋怒	-11.904
約心觀佛	-11.904
敬禮常住三寶	-11.904
給孤獨	-11.904
猶如敬佛	-11.904
窩	-11.904
吉祥而逝	-11.904
生必有死	-11.904
5	-11.904
愛不重不生娑婆	-11.9041
隨從佛後	-11.9041
可痛惜哉	-11.9041
除其本願	-11.9041
哀憐攝受	-11.9041
白玉毫	-11.9041
捨身受身	-11.9041
紛飛	-11.9041
始至終	-11.9041
煎服	-11.9041
埋沒	-11.9041
龜毛	-11.9041
眸	-11.9042
聞思修	-11.9042
飼	-11.9042
能有幾時	-11.9042
三德祕藏	-11.9042
即是念中	-11.9042
祠	-11.9042
粉骨碎身	-11.9042
滿菩提願	-11.9042
剝	-11.9042
酷	-11.9042
吠	-11.9042
鎮江	-11.9042
諸菩薩清淨大海眾	-11.9042
慞惶	-11.9042
受大苦惱	-11.9042
如水中月	-11.9043
關係	-11.9043
騖	-11.9043
尠	-11.9043
仞	-11.9043
瞎	-11.9043
由是言之	-11.9043
瞥爾隨他去	-11.9043
祥瑞	-11.9043
潯陽	-11.9043
疲勞	-11.9043
本來面目	-11.9044
發阿耨多羅三藐三菩提心	-11.9044
現世為人師	-11.9044
技	-11.9044
周帀圍繞	-11.9044
熊	-11.9044
赤色赤光	-11.9044
哀愍覆護我	-11.9044
剪	-11.9044
刀山劍樹	-11.9044
廬山遠公	-11.9045
全妄即真	-11.9045
官府	-11.9045
慈善根力	-11.9045
無價寶	-11.9045
升降	-11.9045
業識茫茫	-11.9045
釋提桓因	-11.9045
愚鈍	-11.9046
尅期	-11.9046
蠢動含靈	-11.9046
自見其身	-11.9046
神鬼魔	-11.9046
不增不減	-11.9046
元祐	-11.9046
口雖念佛	-11.9046
廣度含識	-11.9046
惑亂心神	-11.9046
歷劫受苦	-11.9047
▁一心頂禮西方極樂世界	-11.9047
徵驗	-11.9047
平等性智	-11.9047
佩	-11.9047
苦不可言	-11.9047
罹	-11.9047
奔馳	-11.9047
七寶所成	-11.9048
早晨	-11.9048
隨其心淨則佛土淨	-11.9048
曼陀羅	-11.9048
拯濟	-11.9048
癸巳	-11.9048
即理之事	-11.9048
寶王三昧	-11.9049
聲聲不絕	-11.9049
杲日	-11.9049
五逆謗法	-11.9049
壽夭	-11.9049
鬱	-11.9049
慣習	-11.905
聞諸佛名	-11.905
多聞第一	-11.905
百千種樂	-11.905
如子憶母	-11.905
唯心所現	-11.905
無始無終	-11.9051
佛語阿難	-11.9051
祥光	-11.9051
追薦	-11.9051
大笑	-11.9051
寒熱	-11.9051
告誡	-11.9052
幽暗	-11.9052
留戀	-11.9052
經一小劫	-11.9052
三界六道苦難停	-11.9052
狀元	-11.9053
初又三	-11.9053
徧十方界	-11.9053
親見佛	-11.9053
十二由旬	-11.9053
願我早	-11.9053
閒忙	-11.9054
一編	-11.9054
息諍	-11.9054
大千界	-11.9054
天台教觀	-11.9056
迺	-11.9056
和鳴	-11.9056
莫不皆然	-11.9057
審察	-11.9057
畏懼	-11.9057
壽命短促	-11.9057
頓除	-11.9057
江河	-11.9057
常住三寶	-11.9058
心心相續	-11.9058
加功	-11.9059
不如有人	-11.9059
他國	-11.9059
恒沙劫	-11.9059
減劫	-11.906
提婆	-11.906
老病死	-11.906
等虗空界	-11.906
含容	-11.906
未脫	-11.9061
實無女人	-11.9061
智慧勇猛	-11.9062
一相三昧	-11.9063
法王家	-11.9066
覆護	-11.9068
余甞	-11.9068
與觀世音大勢至	-11.9068
無生即生	-11.9069
殺盜	-11.9069
天眼第一	-11.9069
相織	-11.9071
誠如所	-11.9071
南無佛陀	-11.9072
是真宗	-11.9073
紛然	-11.9073
徧至十方	-11.9074
祖師禪	-11.9074
俱泯	-11.9074
家珍	-11.9074
臨終遇善知識	-11.9074
三十餘年	-11.9075
輕毀	-11.9077
金繩	-11.9077
破見思惑	-11.9079
無父母妻子	-11.9079
此云不動	-11.9081
教誨	-11.9084
即證無生	-11.9085
信有西方	-11.9085
決定無疑	-11.9087
獨露	-11.9087
他土	-11.9087
九十六	-11.9087
一時佛在舍衛國	-11.9088
生無生論	-11.9089
五百歲中	-11.9089
誦金剛經	-11.909
登初地	-11.9091
刻期	-11.9092
太早	-11.9092
相似位	-11.9093
目錄	-11.9094
諸經皆	-11.9094
四維	-11.9094
逆境	-11.9096
奧義	-11.9096
潔淨	-11.9097
觀無量壽佛經云	-11.9097
蓮大師	-11.9099
雙林	-11.91
遮障	-11.9101
常課	-11.9101
其謬	-11.9102
皆有光明	-11.9102
欲生彼國	-11.9105
根本智	-11.9106
虗假	-11.9106
接物	-11.9107
淨社	-11.9109
論其理	-11.9109
無機不	-11.9111
親近彌陀	-11.9111
劇苦	-11.9112
無邊剎海	-11.9113
幻境	-11.9113
來至此	-11.9114
大慈菩薩	-11.9115
猶尚	-11.9118
暗室	-11.9121
殊異	-11.9121
二十餘	-11.9122
各各不同	-11.9124
印度	-11.9126
尋思	-11.9126
不失人身	-11.9128
空即假	-11.9129
無有一人	-11.9129
往生極樂世界	-11.9129
不生疑惑	-11.913
病愈	-11.9131
後文云	-11.9131
魔障	-11.9133
丈六身	-11.9134
所有功德	-11.9135
祖宗	-11.9135
為菩提道	-11.9137
而巳哉	-11.9138
自幼	-11.9139
禪堂	-11.9139
形質	-11.9141
彌天	-11.9141
入佛知見	-11.9142
逼惱	-11.9142
一百二十	-11.915
二乘不生	-11.9152
句句彌陀	-11.9155
少異	-11.9156
逐日	-11.9156
東向	-11.9156
易曉	-11.9157
圓收	-11.9161
之基	-11.9163
頓捨	-11.9164
法乳	-11.9165
一佛乘	-11.9165
西北	-11.9167
色陰	-11.917
沙界	-11.917
分量	-11.9172
隔陰	-11.9174
所能及	-11.9177
內凡	-11.9177
而為說法	-11.9178
小本彌陀	-11.9179
退悔	-11.9179
情量	-11.9179
求菩提	-11.9182
外護	-11.9185
四明云	-11.9186
道友	-11.9187
不求出離	-11.919
風塵	-11.9191
不可不知也	-11.9194
念佛之念	-11.9203
迴向西方	-11.9203
錢財	-11.9206
觸處	-11.9206
設化	-11.9208
生死之根	-11.921
別列	-11.921
意生身	-11.9212
彼此互	-11.9212
一心專念	-11.9213
肉身	-11.9214
下正示	-11.9216
鳥鳴	-11.9217
誑人	-11.9224
諷誦	-11.9227
唯識論	-11.9228
更衣	-11.9228
花雨	-11.9231
一切諸天	-11.9231
觀經取	-11.9233
得不退轉地	-11.9236
諸儒	-11.9239
相符	-11.924
原本	-11.9241
歲久	-11.9243
三昧力	-11.9243
即得不退	-11.9244
夜摩	-11.925
黃金色	-11.925
直示	-11.9254
遍體	-11.9255
根利	-11.9255
墮地	-11.926
太虛	-11.9264
殊妙	-11.9268
乃至地獄	-11.9268
阿羅漢果	-11.9268
錯用	-11.9273
何假	-11.9275
十萬億國	-11.9276
腹中	-11.9278
佛菩薩像	-11.9278
願生極樂	-11.928
某某	-11.9281
座下	-11.9285
何期	-11.9292
稱念阿彌陀佛	-11.9294
淨土教門	-11.9298
聖德	-11.9302
阿彌陀經云	-11.9302
二正宗分	-11.9302
誠敬	-11.9304
為之序	-11.9305
業惑	-11.9311
不動智	-11.9312
稱美	-11.9314
事懺	-11.9316
牒釋	-11.932
力行之	-11.932
魔網	-11.9327
千二百	-11.9328
貧女	-11.9328
不退轉地	-11.9332
判定	-11.9332
日落	-11.9333
即前文	-11.9334
四邊	-11.9335
所撰	-11.9338
門頭	-11.934
真際	-11.9341
瓔珞經	-11.935
一場	-11.9351
補佛位	-11.9351
無所念	-11.936
名無量光	-11.9362
分事理	-11.9376
無分齊	-11.938
得一切種智	-11.938
逆謗	-11.938
曾未	-11.9381
佛土淨	-11.939
依此經	-11.9393
尤難	-11.9399
三界攝	-11.9402
十六句	-11.9403
樹葉	-11.9405
淨土資糧	-11.9413
法法皆	-11.9415
法雨	-11.9421
省文	-11.9423
可笑	-11.9435
半夜	-11.9438
第二願	-11.9442
莫如念佛	-11.9446
安靜	-11.945
悔悟	-11.9452
常得見佛	-11.9457
出五濁	-11.9461
諸佛正徧知海	-11.9461
有權實	-11.9463
及諸菩薩	-11.9463
非謬	-11.9464
倘有	-11.9469
佛本願力	-11.9471
男女等	-11.9488
當生淨土	-11.9492
度諸眾生	-11.9497
曾聞	-11.9505
初引經	-11.9514
引大本	-11.9515
露地	-11.9515
願諸眾生	-11.9515
應當念佛	-11.9515
行六度	-11.9525
積惡	-11.9535
遍覆	-11.9537
今人念佛	-11.9541
月影	-11.9543
肖	-11.9544
圓覺經	-11.956
三藏十二部	-11.956
讚佛偈	-11.9564
宣流	-11.9565
斯須	-11.9583
圓頓教	-11.9585
成戲論	-11.9593
有限量	-11.9593
不能動	-11.96
彼佛光明	-11.96
生正信	-11.9601
登地	-11.9603
分二初	-11.9604
此愛根	-11.9609
願共眾生咸歸命	-11.9609
心性無邊	-11.9611
研末	-11.9613
彌陀慈父	-11.9614
恙	-11.9614
復次舍利弗	-11.962
藍	-11.9623
承前	-11.9627
破障	-11.9628
普賢願	-11.963
緘	-11.9632
慈悲父	-11.9636
餓鬼道	-11.9639
禽畜	-11.9642
南無一心奉請	-11.9642
日休	-11.9643
裨	-11.9643
水陸虛空	-11.9647
不如及早念	-11.9648
瓔	-11.9648
瘥	-11.9648
湊	-11.9649
十善業	-11.9649
謂家人曰	-11.9649
眼光落地	-11.965
燄	-11.965
龜鑑	-11.965
液	-11.9651
閫	-11.9651
螫	-11.9651
徊	-11.9651
絕待而照	-11.9652
若人散亂心	-11.9652
愿	-11.9652
摶	-11.9653
刀割	-11.9653
刮	-11.9653
餌	-11.9654
隨犯隨懺	-11.9654
與大比丘眾	-11.9654
琦	-11.9655
阿蜜	-11.9655
鵲	-11.9655
孃	-11.9655
皮肉	-11.9655
寂寥	-11.9655
綜	-11.9656
皇后	-11.9656
斯陀含	-11.9656
同圓種智	-11.9656
描	-11.9657
娶	-11.9657
母子歷生	-11.9657
浣	-11.9657
餅	-11.9657
薛	-11.9657
罄	-11.9657
樸	-11.9657
溟	-11.9657
其土有佛號阿彌陀	-11.9657
沃	-11.9658
纓	-11.9658
甲寅	-11.9658
械	-11.9658
膳	-11.9658
劵	-11.9658
芬陀利	-11.9658
洗滌	-11.9658
梁武	-11.9658
住正定故	-11.9658
過去未來現在	-11.9658
願我臨欲命終時盡除一切諸障礙	-11.9659
瓢	-11.9659
孚	-11.9659
大行和上	-11.9659
玻璃	-11.9659
詭	-11.9659
悄	-11.9659
恭敬禮拜	-11.9659
吃	-11.966
寇	-11.966
擒	-11.966
品位高下	-11.966
提婆達多	-11.966
死盡偷心	-11.966
鳴尺	-11.966
厚薄	-11.966
甲午	-11.966
疼	-11.966
佛外無心	-11.9661
華嚴合論	-11.9661
洵	-11.9661
西竺	-11.9661
向佛前	-11.9661
又復應知	-11.9661
噬	-11.9661
硬	-11.9661
▁一心頂禮西方安樂土	-11.9662
如影隨形	-11.9662
自然而然	-11.9662
提𢹂	-11.9662
4	-11.9662
䛡	-11.9662
即見十方一切諸佛	-11.9662
無解脫期	-11.9662
挹	-11.9662
觀雖十六	-11.9662
南岳	-11.9662
無生苦也	-11.9662
湮沒	-11.9662
▁和南聖眾	-11.9662
淨居天	-11.9662
溝	-11.9662
思專想寂	-11.9662
前後際斷	-11.9663
妻妾	-11.9663
年八十	-11.9663
資粮	-11.9663
阿閦鞞	-11.9663
蓮宗必讀	-11.9663
戀慕	-11.9663
而作沙門	-11.9663
苦無樂	-11.9663
或見非見	-11.9663
死門事大	-11.9663
渴飲	-11.9663
若觀彼佛真如法身	-11.9663
圓照本禪師	-11.9663
無損害心	-11.9663
石火電光	-11.9663
輻	-11.9663
無逼惱心	-11.9664
隨氣長短	-11.9664
受勝妙樂	-11.9664
瓊林	-11.9664
峨	-11.9664
穢邦	-11.9664
非有非空	-11.9664
觀佛三昧海經	-11.9664
賢劫千佛	-11.9665
黃泉	-11.9665
一日二日	-11.9665
眾生在迷	-11.9665
飲食衣服	-11.9665
唯有徑路修行	-11.9665
痛鞭	-11.9665
稷	-11.9665
豈不謬哉	-11.9665
如人飲水	-11.9666
以是觀之	-11.9666
此四句	-11.9666
新發意菩薩	-11.9666
裘	-11.9666
沈溺	-11.9666
伶	-11.9666
無明所覆	-11.9666
智旭	-11.9666
佛力難思	-11.9666
賅	-11.9666
莫要於	-11.9666
鳴磬	-11.9666
廣其傳	-11.9666
孕質九蓮	-11.9667
心無怖畏	-11.9667
壘	-11.9667
四十二章經	-11.9667
淨土指歸集	-11.9667
非是凡夫心力所及	-11.9667
飯食沙門	-11.9667
仲尼	-11.9667
最後剎那	-11.9667
即悟無生法忍	-11.9667
清淨大海眾菩薩	-11.9667
漠	-11.9667
薩埵	-11.9668
無有窮盡	-11.9668
乘戒俱急	-11.9668
教外別傳	-11.9668
去聖時遙	-11.9668
伏滅煩惱	-11.9668
沫	-11.9668
壺	-11.9668
純想即飛	-11.9668
身語意業	-11.9668
丹陽	-11.9668
及與淨願	-11.9668
擾亂	-11.9669
發真無漏	-11.9669
有量之無量	-11.9669
殺戮	-11.9669
人間天上	-11.9669
十住婆沙論	-11.9669
拔苦與樂	-11.9669
陰境若現前	-11.9669
有梵音佛	-11.9669
翩	-11.9669
聞是音巳	-11.9669
修淨土之謂也	-11.967
鳩	-11.967
常以清旦	-11.967
籃	-11.967
麵	-11.967
妄歸真	-11.967
即心觀佛	-11.967
店	-11.9671
波浪	-11.9671
三塗八難	-11.9671
曇順	-11.9671
受無量快樂	-11.9671
便念無常	-11.9671
政和	-11.9671
四明尊者	-11.9671
所未聞經	-11.9672
無上正等正覺	-11.9672
璣	-11.9672
布施持戒	-11.9672
自然皆生念佛念法念僧之心	-11.9672
捨此求彼	-11.9672
闔	-11.9672
汲汲	-11.9672
相續即生	-11.9672
溈山	-11.9672
募刻	-11.9673
觀世音菩薩摩訶薩	-11.9673
矛	-11.9673
穢惡充滿	-11.9673
即事之理	-11.9674
七寶宮殿	-11.9674
真實不虗	-11.9674
超昇	-11.9674
省庵法師	-11.9674
疾疫	-11.9674
苦集滅道	-11.9674
邪定聚	-11.9675
雲霞	-11.9675
受諸苦惱	-11.9675
豎窮橫遍	-11.9675
名句文	-11.9675
巴	-11.9675
秋風	-11.9675
直脫輪迴	-11.9676
綱領	-11.9677
仲春	-11.9677
有如來藏	-11.9677
無法不具	-11.9677
六安和	-11.9678
拔一切眾生苦	-11.9678
山海慧菩薩	-11.9678
喆老	-11.9678
白佛言世尊	-11.9679
身紫金色	-11.9679
無作四諦	-11.9679
弑	-11.968
舟船	-11.968
現身說法	-11.968
彼國人民	-11.968
輪迴不息	-11.9681
常在世間	-11.9681
萬般	-11.9681
劫奪	-11.9681
塵沙劫	-11.9682
楞嚴經曰	-11.9682
願佛慈悲	-11.9682
因念佛故	-11.9682
眾善奉行	-11.9683
周旋	-11.9683
如救頭然	-11.9683
歸依三寶	-11.9683
粒米	-11.9683
用魏譯	-11.9684
形狀	-11.9684
本來是佛	-11.9685
橫截生死	-11.9685
遮詮	-11.9685
經百千劫	-11.9685
勤勞	-11.9686
蓮漏	-11.9687
於諸佛所	-11.9688
年九十	-11.9688
得六神通	-11.9688
高峯	-11.9689
能破三惑	-11.9689
入不退地	-11.9689
羅什法師	-11.969
巧方便	-11.969
馬祖	-11.9691
不放逸	-11.9691
五潤澤	-11.9691
火車	-11.9692
實報寂光	-11.9692
首題	-11.9693
下別示	-11.9694
欲超生死	-11.9694
唯心本性	-11.9696
三甘美	-11.9696
熟讀	-11.9697
這一句	-11.9697
未暇	-11.9697
臨終之際	-11.9698
:「『	-11.9698
直透	-11.9699
貫穿	-11.9699
新新	-11.97
揀判	-11.97
在此土	-11.97
無盡燈	-11.97
須達多	-11.9702
太息	-11.9702
殺害眾生	-11.9704
闍世	-11.9706
幽微	-11.9706
良導	-11.9706
彌陀因地	-11.9708
厭惡	-11.971
塵累	-11.9711
不識字	-11.9712
薉土	-11.9712
普為眾生	-11.9714
厥義	-11.9714
誓不成佛	-11.9715
錯路	-11.9715
順逆	-11.9715
之法門也	-11.9716
六品	-11.9716
心所變	-11.972
虗設	-11.9721
蓮宗寶鑑云	-11.9721
一真法界門	-11.9721
財色	-11.9721
數條	-11.9722
故我頂禮生彼國	-11.9722
圓覺經云	-11.9722
歸依僧	-11.9722
居穢土	-11.9723
癡迷	-11.9723
無能所	-11.9724
一剎那中	-11.9724
迷途	-11.9725
下次明	-11.9725
啟請	-11.9726
穩當	-11.9726
淨業行人	-11.9728
行于世	-11.9728
怨家	-11.9729
普賢行願	-11.9729
飲水	-11.9729
老宿	-11.9732
普收	-11.9733
此間念佛	-11.9734
相狀	-11.9735
正念佛時	-11.9735
六根清淨	-11.9737
退惰	-11.9737
聖旨	-11.9738
無邊功德	-11.9738
去此十萬億	-11.9739
毀戒	-11.9739
大勢至菩薩摩訶薩	-11.9741
受苦無量	-11.9741
白毫相	-11.9742
競起	-11.9745
鮮矣	-11.9746
宏深	-11.9746
蒼生	-11.9746
月六日	-11.9747
送想	-11.9747
此其同	-11.9747
決志往生	-11.975
談玄	-11.9751
故不應食肉	-11.9752
其妻	-11.9752
程子	-11.9752
旨歸	-11.9754
隨眾生心	-11.9755
自然七寶	-11.9756
清涼池	-11.9757
領受	-11.9757
輔行	-11.9758
謹依	-11.9758
名法王子	-11.9758
?「	-11.9759
遺風	-11.9761
普徧	-11.9764
佛能度	-11.9764
香林	-11.9766
專誠	-11.9768
懷感	-11.9771
暫離	-11.9771
懺儀	-11.9773
印證	-11.9773
懺除	-11.9773
精勤念佛	-11.9773
不退轉地菩薩	-11.9773
為說妙法	-11.9775
是故彼國	-11.9775
十二劫	-11.9775
依託	-11.9775
而作佛事	-11.9777
分付	-11.9778
天奇	-11.9778
速成就	-11.9781
簡異	-11.9781
心眼開	-11.9783
莫不皆	-11.9785
亦得名	-11.9785
我念彌陀	-11.9786
收攝	-11.9787
無暇	-11.9789
斷滅相	-11.979
香積	-11.9791
自純熟	-11.9794
力不可思議	-11.9794
徹悟禪師	-11.9795
於惡世	-11.9795
逈出	-11.9796
助顯	-11.9797
是故經云	-11.9797
無窮盡	-11.9798
怨憎會苦	-11.9799
居五濁	-11.9803
若不如此	-11.9805
上科	-11.9805
仁王經	-11.9805
文為二	-11.9806
等閑	-11.981
淨業成就	-11.981
生其國	-11.9811
若佛子	-11.9812
著書	-11.9816
誓取	-11.9824
有多門	-11.9828
不必問	-11.9829
未備	-11.9835
久病	-11.9835
譯師	-11.9837
只須	-11.9846
眾生心淨	-11.985
起點	-11.985
瓶中	-11.9851
得見彌陀	-11.9855
明心地	-11.986
稱我名	-11.9861
永明曰	-11.9868
無染著	-11.987
毫末	-11.987
彼剎	-11.9879
佛祖之	-11.988
若眾生心	-11.9886
攝受眾生	-11.9888
一念十念	-11.989
此三心	-11.9896
阿彌陀佛極樂世界	-11.9896
功圓	-11.9897
諸惡業	-11.9898
學道人	-11.99
信女	-11.9902
無量之無量	-11.9903
辭世	-11.9908
一大劫	-11.991
穿衣	-11.9911
是名真	-11.9912
中初正	-11.9917
遺教經	-11.9921
性本來	-11.9923
證無為	-11.9933
如鏡中	-11.9934
唯佛與佛	-11.9936
自從無始	-11.9938
禮拜供養	-11.9944
諸菩薩聲聞	-11.9945
形體	-11.995
一四天下	-11.9952
助發	-11.9962
有五百億	-11.9971
爭奈	-11.9972
課程	-11.9972
太虗空	-11.9976
十信位	-11.9983
禮足	-11.9986
無慚愧	-11.9987
法報化	-11.999
匹夫	-11.9991
析空	-11.9992
照觸	-11.9992
麤相	-11.9994
淨土之生	-11.9995
大菩薩眾	-11.9996
有通別	-12.0006
判教	-12.0008
名理一心	-12.0011
各隨其	-12.0012
十九年	-12.0012
青蓮華	-12.0022
一念心性	-12.0032
看病	-12.0034
具三十二相	-12.0036
懈慢	-12.0041
徧周	-12.0043
引聖教	-12.0044
二十五有	-12.0044
心無間斷	-12.0047
符合	-12.0047
久長	-12.0052
旋轉	-12.0064
十方界	-12.0064
諷經	-12.0065
入中國	-12.0069
佛告下	-12.0083
殺他	-12.0085
善男	-12.0085
圓十信	-12.0085
面西端坐	-12.0101
被他	-12.0109
所呵	-12.0113
阿含經	-12.0113
堪任	-12.0116
躡	-12.0124
謗三寶	-12.0126
諸惡趣	-12.0128
兩足	-12.0129
縱饒	-12.0143
能遮	-12.0152
垂應	-12.0183
引經論	-12.0192
青白	-12.0196
吾心之	-12.0211
稱南無佛	-12.0222
初分科	-12.0245
同居穢土	-12.0254
異熟	-12.026
之異名	-12.0263
方便度生	-12.0266
吾人現前一念	-12.027
四字名號	-12.0275
成佛巳來	-12.0276
妍	-12.0297
失淨因	-12.0303
奘	-12.0305
轉以化人	-12.0306
獲利	-12.0306
炮	-12.0308
歡娛	-12.0309
貸	-12.0312
閃	-12.0313
覷	-12.0313
珍池	-12.0314
閔	-12.0314
攢	-12.0315
壽經除者	-12.0316
巾	-12.0317
銅狗	-12.0317
釧	-12.0317
以苦為樂	-12.0317
鉄	-12.0318
蘧	-12.0318
椎	-12.0318
即土是心	-12.0319
炯	-12.0319
千二百五十人	-12.0319
漱	-12.0319
萊	-12.0319
榮辱	-12.032
此見及緣	-12.032
闥	-12.032
淨土樂淨土樂西方淨土甚快樂淨土樂	-12.032
豺狼	-12.032
濂溪	-12.032
矍	-12.032
姊妹	-12.0321
以名接物	-12.0321
夥	-12.0321
肢	-12.0321
𥨊	-12.0321
真如不變隨緣	-12.0321
鬚	-12.0322
木瓜	-12.0322
受想行識	-12.0322
泆	-12.0322
喨	-12.0322
慈受深禪師	-12.0322
勻	-12.0323
勿令間斷	-12.0323
是心即是三十二相八十隨形好	-12.0323
脣	-12.0323
皆於中現	-12.0323
得初歡喜地	-12.0323
謟	-12.0323
嬉戲	-12.0323
獎	-12.0323
著衣喫飯	-12.0324
蜎飛	-12.0324
晤	-12.0324
崇禎	-12.0324
脊	-12.0324
受持三歸	-12.0324
旌教寺	-12.0324
八德池中	-12.0324
丈六八尺	-12.0324
撞	-12.0324
朦朧	-12.0325
與大比丘僧	-12.0325
常勤修習	-12.0325
萬劫難復	-12.0325
硯	-12.0325
葉葉相	-12.0325
陰界入	-12.0325
達生體不可得	-12.0326
唯此願王	-12.0326
譔	-12.0326
以心緣歷	-12.0326
婉	-12.0326
披閱	-12.0326
券	-12.0326
伎	-12.0326
薩婆若	-12.0326
餘如扶新	-12.0326
宼	-12.0326
不果遂者	-12.0326
離念相者	-12.0327
鵬	-12.0327
破三惑	-12.0327
不限佛數	-12.0327
擔荷	-12.0327
識颺神飛	-12.0327
成住壞空	-12.0328
右脇	-12.0328
掖	-12.0328
左劵	-12.0328
境細心	-12.0328
翮	-12.0328
為一切世間說此難信之法	-12.0328
侍立左右	-12.0328
徧滿十方界	-12.0328
演說苦空無常無我	-12.0328
臼	-12.0328
彎	-12.0328
天雨妙華	-12.0328
觀經義疏	-12.0328
宴坐	-12.0328
道場眾等	-12.0328
旹	-12.0328
諂曲	-12.0329
理能包事	-12.0329
充塞	-12.0329
力無畏	-12.0329
釋成此宗	-12.0329
督	-12.0329
虎狼	-12.0329
牛呞	-12.0329
承佛慈力	-12.0329
馴	-12.0329
作得主	-12.0329
舊本	-12.0329
除滅罪法	-12.0329
地獄猛火	-12.0329
周遍法界	-12.0329
拄杖	-12.0329
交煎	-12.033
一稱其名	-12.033
剗	-12.033
深信切願	-12.033
白居易	-12.033
果徹因源	-12.033
蓮華中化生	-12.033
糞穢	-12.033
長跪合掌	-12.033
發十種心	-12.033
相與巳得	-12.033
常為一切世間人民	-12.033
鳧	-12.0331
二十小劫	-12.0331
恢	-12.0331
個個	-12.0331
香水海	-12.0331
百味飲食	-12.0331
淨土樂淨土樂西方淨土甚快樂	-12.0331
鐸	-12.0331
蠟印印泥	-12.0331
蓮華勝會	-12.0331
萇	-12.0331
7	-12.0331
亂心不得不佛	-12.0331
天樂盈空	-12.0331
橛	-12.0331
所作吉利	-12.0331
放金色光	-12.0331
豎窮	-12.0331
氣力充盛	-12.0331
銓	-12.0331
排斥	-12.0331
嬾	-12.0332
坐脫立亡	-12.0332
諸天童子	-12.0332
淋漓	-12.0332
皮囊	-12.0332
人生百歲	-12.0332
碍	-12.0332
豎出三界	-12.0332
擕	-12.0332
萬劫千生	-12.0332
甘露灌頂	-12.0332
見色聞香	-12.0332
多善多福	-12.0332
念不一不生極樂	-12.0332
我滅度後	-12.0332
接引於我	-12.0332
周續之	-12.0333
皎潔	-12.0333
三賢十聖住果報	-12.0333
不假方便自得心開	-12.0333
沐浴更衣	-12.0333
普為師僧父母	-12.0333
屋宅	-12.0333
乃真性中所現之	-12.0333
二者受持三歸	-12.0333
巷	-12.0333
萬中無一	-12.0333
猶如戴角虎	-12.0334
寂然不動	-12.0334
怱	-12.0334
覿面	-12.0334
懵	-12.0334
泮	-12.0334
旃	-12.0334
永嘉集	-12.0334
無有疲厭	-12.0334
柔順忍	-12.0334
糾	-12.0334
從外來	-12.0334
贍部	-12.0334
財產	-12.0335
復何疑哉	-12.0335
常隨守護	-12.0335
即見十方諸佛	-12.0335
淚落	-12.0335
具此功德	-12.0335
郤	-12.0335
說難信法	-12.0335
壽昌	-12.0335
若他觀者	-12.0335
慇	-12.0335
優婆塞	-12.0335
粉碎	-12.0335
功名富貴	-12.0335
力無畏亦然	-12.0336
一心待死	-12.0336
歸命禮三寶	-12.0336
研究	-12.0336
逃逝	-12.0336
森羅	-12.0336
不從他得	-12.0336
著五欲	-12.0336
倏	-12.0337
非一非異	-12.0337
愉	-12.0337
那箇	-12.0337
協	-12.0337
合掌而化	-12.0337
摧伏	-12.0337
各以衣裓	-12.0337
圩	-12.0337
兜率內院	-12.0337
刳	-12.0338
若眾生心憶佛念佛	-12.0338
錍	-12.0338
若一日若二日	-12.0338
紳	-12.0338
歡悅	-12.0338
合掌向西	-12.0338
十方恒沙諸佛	-12.0338
即佛是心	-12.0338
但可以無量無邊阿僧祇	-12.0338
經律論	-12.0338
丈六金身	-12.0339
具六神通	-12.0339
金口誠言	-12.0339
寮	-12.0339
京都	-12.0339
首尾	-12.0339
澡	-12.0339
金光明經	-12.0339
無上法王	-12.0339
邱	-12.0339
宮商	-12.0339
苻	-12.0339
乃是稱意之事	-12.034
抖擻	-12.034
各據一	-12.034
灋	-12.0341
諸小菩薩	-12.0341
嬴	-12.0341
瓊樹	-12.0341
慶幸	-12.0342
眩	-12.0342
押	-12.0342
牛馬	-12.0342
必上品生	-12.0343
罩	-12.0343
元嘉	-12.0343
成所作智	-12.0343
離言說相	-12.0344
有漏之因	-12.0344
繫心一佛	-12.0344
住歡喜地	-12.0344
放光接引	-12.0344
建塔	-12.0345
專稱名號	-12.0345
附錄	-12.0345
迦羅	-12.0345
語言文字	-12.0346
一者至誠心	-12.0346
娑婆訶	-12.0346
出頭來	-12.0346
終日不變	-12.0346
西歸直指	-12.0346
遁	-12.0346
封疆	-12.0346
班首	-12.0346
默默	-12.0347
打點	-12.0348
當知是人	-12.0348
自他不二	-12.0348
速證菩提	-12.0348
入菩薩位	-12.0348
補處菩薩	-12.0348
清晨	-12.0349
善導大師	-12.0349
挍量	-12.0349
求生他方	-12.0349
做工夫	-12.0349
徧照法界	-12.035
交映	-12.035
瑠璃地上	-12.0351
師僧父母六親眷屬善知識法界眾生	-12.0352
寶炬	-12.0352
以此不得往生	-12.0353
繼祖	-12.0353
窮底	-12.0354
群賢	-12.0354
三七日後	-12.0354
鬼趣	-12.0354
終不能成	-12.0354
七寶池內	-12.0354
華敷	-12.0355
閉眼	-12.0357
良民	-12.0357
棲神	-12.0358
三十萬遍	-12.0358
羅列	-12.0358
常放光明	-12.0358
以法界心	-12.0358
生於西方極樂世界	-12.0359
雜話	-12.036
果證無生	-12.036
愚昧	-12.036
荊溪云	-12.0361
福薄	-12.0361
費力	-12.0362
治天下	-12.0363
所有善根	-12.0365
無常無我	-12.0365
寶藏如來	-12.0365
佛法大海	-12.0365
現證三昧	-12.0365
佛真身	-12.0365
靈源	-12.0366
本是空	-12.0366
三千世界	-12.0366
嗟夫	-12.0368
遭遇	-12.037
備陳	-12.0371
聽講	-12.0372
孤獨	-12.0372
得百法明門	-12.0372
乘舟	-12.0373
宋儒	-12.0374
心外無境	-12.0374
怕死	-12.0374
淨土指歸	-12.0374
豈可得言	-12.0375
惜哉	-12.0376
大顛	-12.0376
歲歲	-12.0376
自矜	-12.0376
居廬山	-12.0376
無盡無盡	-12.0376
淨名經云	-12.0379
損益	-12.038
二清冷	-12.038
湧出	-12.038
二十餘年	-12.038
國土有情	-12.0381
快意	-12.0382
法界緣起	-12.0382
論語云	-12.0383
願生我國	-12.0383
豈肯	-12.0387
拈來	-12.0388
閻老	-12.039
推尋	-12.0391
火輪	-12.0391
巨海	-12.0392
不能出離	-12.0393
復有二義	-12.0393
自無始以來	-12.0394
無非實相	-12.0394
說不可盡	-12.0396
晝夜常	-12.0396
愛護	-12.0399
資福	-12.0399
尚不可得	-12.04
普覆	-12.0401
須憑	-12.0401
深愧	-12.0403
無瑕	-12.0404
濁惡眾生	-12.0405
唐譯云	-12.0405
器世間	-12.0406
稱佛名時	-12.0406
子弟	-12.0407
下三句	-12.0407
即性具十界	-12.0407
麤妙	-12.0407
作諸功德	-12.0408
念一佛功德	-12.0409
香象	-12.041
陀羅尼門	-12.041
恭敬修	-12.0412
兩途	-12.0412
萬端	-12.0413
何況凡夫	-12.0418
▁南無金剛	-12.0419
消散	-12.0421
彌陀一經	-12.0424
神遊	-12.0427
慈雲云	-12.0427
初序分	-12.0427
廣流通	-12.0428
昏昏	-12.0432
黃色	-12.0434
家舍	-12.0435
上上根	-12.0436
常寂光淨土	-12.0436
持齋念佛	-12.0437
收機	-12.0437
卷首	-12.0439
鼓音王	-12.044
九品蓮華	-12.0442
不必求	-12.0442
如在目前	-12.0442
九界眾生	-12.0443
雙親	-12.0443
諸往生者	-12.0445
以無緣慈	-12.0445
晨夕	-12.0446
不壅	-12.0449
佛菩薩等	-12.0455
寓言	-12.0456
天台教	-12.0456
倘或	-12.046
一切皆空	-12.0462
流轉生死	-12.0467
可不勉	-12.0469
靈根	-12.047
化鳥	-12.0471
枉受	-12.0475
西方徑路	-12.0476
我心具	-12.0479
詳夫	-12.0482
末法眾生	-12.0485
通途	-12.049
發願迴向	-12.0492
到蓮池	-12.0496
反謗	-12.0497
路頭	-12.05
三十日	-12.0501
教旨	-12.0502
本自無生	-12.0508
禪誦	-12.0509
悉得往生	-12.0511
殺盜婬妄	-12.0521
速滅	-12.0527
俱生淨土	-12.0532
可不懼	-12.0538
志氣	-12.055
清淨大海眾菩薩摩訶薩	-12.055
大振	-12.0552
合為一	-12.0552
最堪	-12.0555
力士	-12.0562
石室	-12.0564
見無見	-12.0574
判釋	-12.0575
神靈	-12.0578
於定中	-12.0578
我我所	-12.0579
十六觀法	-12.0588
最先	-12.0591
莊子	-12.0591
不受輪迴	-12.0592
得無上菩提	-12.0593
稱一佛	-12.0594
識宿命	-12.0596
戒之首	-12.06
三流通分	-12.0601
救世	-12.0602
苦辛	-12.0614
聖眾來迎	-12.0619
新學	-12.062
觀若成	-12.062
持一句阿彌陀佛	-12.0622
寶冠	-12.0625
彼佛名號	-12.0627
鼓音聲王經	-12.0629
國號	-12.0631
迴向願生	-12.0631
隨心所	-12.0637
二總結	-12.0638
含三義	-12.0642
片刻	-12.0642
乾隆四十	-12.0647
心靜慮	-12.0648
經史	-12.0655
立一切法	-12.0662
生疑謗	-12.0665
縱遇	-12.0678
謗正法	-12.0679
本師釋迦	-12.0681
結示中	-12.0682
早回頭	-12.0684
所覆	-12.0692
未委	-12.0696
剎剎	-12.0702
」【【	-12.0706
此念佛法門	-12.0713
江西	-12.0713
不得自在	-12.0718
垢穢	-12.072
願往西方	-12.072
慈顏	-12.0721
尊特身	-12.0725
現前見佛	-12.0738
結歎	-12.0739
清濁	-12.0751
十界依正	-12.0755
是別時	-12.076
從初發心	-12.0765
虗度	-12.0771
的確	-12.0773
來護持	-12.0774
現前一念之心	-12.0789
同倫	-12.0789
非有無	-12.0792
右旋	-12.0803
一生補佛	-12.0806
寫經	-12.0808
在剎那	-12.0831
厭穢	-12.0844
白毫光	-12.0846
之要門	-12.0853
假饒	-12.0867
五十五	-12.0886
修此行	-12.0892
更無他	-12.0902
福德因緣	-12.0908
聞此法	-12.0909
君親	-12.0915
佛號阿彌陀	-12.0915
念阿彌陀佛一聲	-12.0915
美味	-12.0916
親迎	-12.092
補佛處	-12.092
遇斯	-12.0924
梵語阿彌陀	-12.0936
佛說經	-12.095
睛	-12.0963
惜乎	-12.0963
善根福德	-12.0967
是何人	-12.0968
生死之罪	-12.0988
十二卷	-12.099
古鏡	-12.0995
頰	-12.1009
胎藏	-12.1009
蘖	-12.1012
誓不中止	-12.1019
泄	-12.1021
曼	-12.1023
鋟	-12.1024
霍	-12.1024
奴婢	-12.1025
鄞	-12.1026
衾	-12.1027
是故念淨土者	-12.1028
扁	-12.1029
褐	-12.103
南泉	-12.103
掠	-12.103
叱	-12.103
釐	-12.1031
嘉禾	-12.1031
眇	-12.1031
分別解說	-12.1031
惻隱	-12.1031
癸	-12.1032
攪	-12.1033
棒喝	-12.1033
乙卯	-12.1033
庖	-12.1033
硃	-12.1033
顒	-12.1034
勗	-12.1034
熾然求生	-12.1034
姊	-12.1034
說誠實言汝等眾生當信是	-12.1034
結加趺坐	-12.1034
寶王三昧念佛直指	-12.1034
緇白	-12.1034
開示悟入	-12.1035
撒	-12.1035
姻	-12.1035
當云何念	-12.1035
杻	-12.1035
〉	-12.1035
全體大用	-12.1035
蛣𧏙	-12.1035
冐	-12.1035
埃	-12.1035
斷疑生信	-12.1035
〈	-12.1035
蒲	-12.1036
柳子厚	-12.1036
沸湯	-12.1036
猝	-12.1037
惛	-12.1037
身口意三業	-12.1037
曼殊室利	-12.1037
犍	-12.1037
自失善利	-12.1037
斷惡修善	-12.1037
【△	-12.1038
𢌞	-12.1038
媼	-12.1038
搏	-12.1038
裓	-12.1038
鎚	-12.1038
妓	-12.1039
隍	-12.1039
百千億那由他劫	-12.1039
琳	-12.1039
玉池蓮	-12.1039
影沉寒水	-12.1039
㲉	-12.1039
光中化佛無數億化菩薩眾亦無邊	-12.1039
庾	-12.1039
肉軀	-12.1039
貢	-12.104
濡	-12.104
信為道元功德母	-12.104
亦稱讚我不可思議功德	-12.104
敬然臂香九炷	-12.104
淨土聖賢錄	-12.104
無厭足	-12.104
阿耨多羅	-12.104
直指人心見性成佛	-12.104
眾生心內諸佛	-12.104
屈伸臂頃	-12.104
池沼	-12.104
此一報身	-12.1041
轆轤	-12.1041
膜	-12.1041
2	-12.1041
生汝心內	-12.1041
梯	-12.1041
白樂天	-12.1041
鬪戰	-12.1041
其上輩者	-12.1041
璧	-12.1041
寶性論	-12.1042
翕	-12.1042
郁	-12.1042
蕚	-12.1042
隨語生解	-12.1042
懇苦翹誠	-12.1042
懸繒	-12.1042
既無益念佛好	-12.1042
八種清風	-12.1042
掇	-12.1042
橫遍十方	-12.1042
黃檗	-12.1042
牆壁	-12.1042
右旋宛轉	-12.1042
宦	-12.1042
煩惱無盡誓願斷	-12.1042
心不驚動	-12.1043
常住真心	-12.1043
臍	-12.1043
雄俊	-12.1043
文潞公	-12.1043
歌舞	-12.1043
三德秘藏	-12.1043
紺	-12.1043
塚	-12.1043
輞	-12.1043
須懺業	-12.1043
普門品	-12.1043
是即非即	-12.1044
見本性彌陀	-12.1044
以至蜎飛蠕動	-12.1044
迢迢	-12.1044
楷定	-12.1044
3	-12.1044
百劫千生	-12.1044
潘	-12.1044
假使有人	-12.1044
手持金臺	-12.1044
弛	-12.1044
江陵	-12.1044
艶	-12.1044
積功累德	-12.1044
念念證真	-12.1044
然臂香三炷	-12.1044
𡩋	-12.1045
非空非有	-12.1045
實際理地	-12.1045
塹	-12.1045
宛轉花臺裹	-12.1045
如修多羅說	-12.1045
0	-12.1045
庚午	-12.1045
華嚴離世間品	-12.1045
褒	-12.1045
離一切相	-12.1045
儕	-12.1045
稔	-12.1045
6	-12.1045
牢固	-12.1045
明行足	-12.1045
楊枝	-12.1045
所殺冤命	-12.1045
頭出頭沒	-12.1045
闐	-12.1046
采	-12.1046
皆已成佛道	-12.1046
起立塔像	-12.1046
凡有三輩	-12.1046
祝願安樂	-12.1046
長生不老	-12.1046
登高科	-12.1046
懷淨土詩	-12.1046
持八戒齋	-12.1046
􂎈	-12.1046
摩訶俱絺羅	-12.1046
以要言之	-12.1046
良有以也	-12.1046
無足疑也	-12.1046
蘄	-12.1047
一向專意	-12.1047
分不及一	-12.1047
九品觀章	-12.1047
我若欲見	-12.1047
大願大力	-12.1047
亦此意也	-12.1047
欣厭具足	-12.1047
憂愁	-12.1047
坐寶蓮華	-12.1047
何所不	-12.1047
圓淨四土	-12.1047
不可勝紀	-12.1048
妍醜	-12.1048
太史	-12.1048
真修實證	-12.1048
無忘失心	-12.1048
何土可生	-12.1048
葦	-12.1048
嵩	-12.1048
歸命禮阿彌陀佛	-12.1048
假使不能作諸功德	-12.1048
多少修善	-12.1048
皆共成佛道	-12.1048
可不哀哉	-12.1048
無執著心	-12.1048
去來現在一切	-12.1048
誰人相代	-12.1049
大修功德	-12.1049
刼	-12.1049
剃髮	-12.1049
翫	-12.1049
昏睡	-12.1049
泠	-12.1049
初發心時	-12.1049
二邊叵得	-12.1049
攝無不盡	-12.1049
浮圖	-12.1049
醜陋	-12.1049
四月八日	-12.1049
無禪無淨土	-12.1049
故以為名	-12.1049
四聖六凡	-12.105
栴檀香	-12.105
非自非他	-12.105
地獄鬼畜生	-12.105
答問第一	-12.105
蹉過	-12.105
閉眼之後	-12.105
般泥洹	-12.105
發大勇猛	-12.105
鹹	-12.105
恉	-12.105
不往而往	-12.105
聞是經者	-12.105
不可說不可說佛剎極微塵數	-12.105
四大海水	-12.105
後悔難追	-12.1051
蛤蜊	-12.1051
鶖子	-12.1051
心識散亂	-12.1051
蒂	-12.1051
無央數世界	-12.1051
滯情融朗	-12.1051
旗	-12.1051
虗靈不昧	-12.1051
蜎飛蝡動之類	-12.1051
稱讚不可思議功德	-12.1051
不雜餘	-12.1052
發十大願	-12.1052
隨佛方所	-12.1052
求醫服藥	-12.1052
無礙光佛	-12.1052
禮想儀	-12.1052
芳草	-12.1052
吾佛道也	-12.1052
大圓鏡	-12.1052
結淨緣	-12.1052
迴心向大	-12.1052
勤怠	-12.1052
孜孜	-12.1053
胡思亂想	-12.1053
則三界無復生	-12.1053
隨業受生	-12.1053
宮殿樓閣	-12.1053
影入眾珠	-12.1053
枳	-12.1053
觀音勢至二菩薩	-12.1053
即名為佛	-12.1053
離心緣相	-12.1053
還至本國	-12.1053
委曲	-12.1053
悉皆消滅	-12.1053
俻	-12.1053
足指按地	-12.1054
獲無生忍	-12.1054
奈之何	-12.1054
受諸樂	-12.1054
如如不動	-12.1054
容貌	-12.1054
全事即理	-12.1054
名無諍念	-12.1054
拄	-12.1054
胷	-12.1054
漢吳	-12.1054
其音演暢五根	-12.1054
承事諸佛	-12.1054
釋迦巳滅	-12.1055
暗昧	-12.1055
下方世界	-12.1055
有始無終	-12.1056
造罪之時	-12.1056
龔	-12.1056
孝友	-12.1057
四料揀	-12.1057
如此纔是念佛的人	-12.1057
處當遠	-12.1057
乃至非老死	-12.1057
爺	-12.1058
精研	-12.1059
嗔怒	-12.1059
理事無礙法界	-12.1059
相續無間	-12.1059
統括	-12.1059
台教	-12.1059
諸大弟子	-12.106
光陰迅速	-12.106
仿	-12.106
莫因循	-12.106
孝廉	-12.1061
臨終是果	-12.1061
無始惡業	-12.1061
除飢渴	-12.1061
試看	-12.1062
拈花	-12.1062
受持五戒	-12.1062
信願堅固	-12.1062
王侯	-12.1062
乘急戒緩	-12.1062
那堪	-12.1063
韋提夫人	-12.1063
百千萬億劫	-12.1063
遍十方界	-12.1063
叉手	-12.1063
淨土指歸曰	-12.1063
依教修行	-12.1064
一顆	-12.1064
塵塵極樂	-12.1064
氷消	-12.1065
排遣	-12.1065
有佛出世	-12.1065
禽鳥	-12.1066
真珠網	-12.1066
親近供養	-12.1066
。』「	-12.1067
只愁	-12.1067
丞相	-12.1067
從生至	-12.1067
終日隨緣	-12.1067
無餘涅槃	-12.1067
經須臾間	-12.1068
悲惱	-12.1068
佛地論云	-12.1069
名為僧寶	-12.1069
一即一切	-12.1069
毒龍	-12.107
皆不能害	-12.107
琉璃地上	-12.1071
宣布	-12.1072
專念彼佛	-12.1072
聞我名巳	-12.1072
必生天上	-12.1072
▁一心敬禮極樂世界	-12.1072
皎然	-12.1073
應墮地獄	-12.1074
遲疾	-12.1074
何足疑	-12.1076
生彼佛國	-12.1076
希望	-12.1076
降臨	-12.1076
初明類	-12.1077
十大劫	-12.1077
主張淨土	-12.1077
習漏	-12.1077
亦同此	-12.108
默坐	-12.1081
聞佛名號	-12.1082
聞佛說法	-12.1083
四弘誓願	-12.1083
昔賢	-12.1084
特留	-12.1084
圓融無礙	-12.1084
觀音大士	-12.1085
定得成佛	-12.1085
登九品	-12.1086
詳陳	-12.1086
是真精進	-12.1087
對治悉檀	-12.1087
豈逃	-12.1088
當生我國	-12.1088
示眾云	-12.1089
遺書	-12.1089
分劑	-12.109
綱要	-12.109
表詮	-12.109
彌陀要解	-12.109
千百億	-12.1091
萬差	-12.1092
斷佛種	-12.1094
那裏	-12.1095
扶持	-12.1096
觀行位	-12.1097
又其次	-12.1097
孤山法師	-12.1099
驚異	-12.1099
空無所有	-12.1099
達士	-12.1099
久客	-12.1103
別時之意	-12.1104
若善男子善女人	-12.1104
聚落	-12.1106
清淨之行	-12.1106
大雲經	-12.1106
思慮	-12.1106
趁此	-12.1107
第六識	-12.111
沈迷	-12.111
不造五逆	-12.111
無邊光佛	-12.1111
揀異	-12.1111
賴耶	-12.1111
等覺菩薩	-12.1111
有一比丘	-12.1114
不相離	-12.1115
有所得心	-12.1115
大智度論云	-12.1115
三昧不成	-12.1115
維摩經言	-12.1117
作諸善	-12.1117
蓮萼	-12.1118
一念差	-12.1119
而不生者	-12.1119
思益經	-12.1121
心大歡喜	-12.1121
回向發願心	-12.1121
開遮	-12.1122
語默	-12.1122
初心凡夫	-12.1124
應酬	-12.1124
校正	-12.1125
海底	-12.1127
淵明	-12.1127
十方淨穢	-12.1127
設像	-12.1128
勸君念佛	-12.1128
梵網經云	-12.113
說偈言	-12.113
徵起	-12.1131
雙目	-12.1135
又是苦	-12.1135
徑山	-12.1136
假即空	-12.1139
佛地論	-12.1139
太高	-12.1141
玄音	-12.1141
家人云	-12.1142
誤解	-12.1143
任運往生	-12.1146
仰惟	-12.1146
枝枝	-12.1147
支離	-12.1149
善根福德因緣	-12.1149
一切善行	-12.1149
朝昏	-12.115
彌陀化身	-12.115
念佛念心	-12.115
谷響	-12.1151
佛之一字	-12.1153
念念之間	-12.1153
桃花	-12.1155
殺母	-12.1159
含攝	-12.116
說難信之法	-12.1163
仙樂	-12.1164
悲愍	-12.1164
今何在	-12.1167
鸞法師	-12.1168
得自由	-12.117
了義經	-12.1171
格外	-12.1173
尊敬	-12.1175
方得往生	-12.1176
虗浮	-12.1183
有形之	-12.1187
十方佛剎	-12.1187
諸佛同讚	-12.1187
上上品生	-12.119
靈瑞	-12.1194
昭昭	-12.1195
加鞭	-12.1199
速生淨土	-12.1201
西東	-12.1209
如麻	-12.1209
的示	-12.1211
為時所	-12.1213
渾身	-12.1214
修淨行	-12.1221
時候	-12.1222
謬妄	-12.1224
善不善	-12.123
必上品上生	-12.1242
心所現	-12.1242
一聲滅八十億劫生死重罪	-12.1244
如實空	-12.1251
永明禪師	-12.1256
即是唯心	-12.1261
墮阿鼻	-12.1262
無上尊	-12.1263
念念不住	-12.1272
光彩	-12.1281
二菩薩眾	-12.1285
并序	-12.1294
始學	-12.13
入正定	-12.1309
平昔	-12.1309
不離自心	-12.1316
引經證	-12.1327
聖眾現前	-12.1327
初發心住	-12.1334
偏讚西方	-12.135
▁論不	-12.1355
無餘修	-12.1389
無可比	-12.1394
十方無量世界	-12.1398
太宗	-12.1407
䟦陀	-12.1411
所能知	-12.1424
小阿彌陀經	-12.145
無諸苦	-12.1462
香燈	-12.1463
的的	-12.1471
千八百	-12.1483
惑業苦	-12.149
直下念	-12.1493
靜慮	-12.15
娑婆五濁	-12.1502
是別時意	-12.151
求無上菩提	-12.1523
勉力	-12.1535
得阿耨菩提	-12.1546
前三教	-12.1563
禁戒	-12.1574
無量阿僧祇劫	-12.1585
正宗分	-12.159
目視	-12.1592
金剛般若經	-12.1607
念念無間	-12.1611
可得哉	-12.1612
初四句	-12.1612
士女	-12.1624
莫生疑	-12.1634
□□□	-12.1663
齋供	-12.167
智者十疑論	-12.1701
諸大聲聞	-12.1703
十念相續	-12.1707
瑕	-12.1713
彼國常有種種奇妙雜色之鳥	-12.1732
藕華	-12.1733
真為生死	-12.174
鐘聲	-12.1741
得五通	-12.1744
南無觀世音菩薩	-12.1773
凜	-12.1787
我剎中	-12.1788
寰	-12.1788
眉間毫相	-12.1788
道難成	-12.179
颺	-12.179
湘	-12.1791
挨	-12.1792
棘林	-12.1793
分陀利	-12.1793
闉	-12.1794
叶	-12.1794
願力攝受	-12.1795
祚	-12.1796
蟒	-12.1796
裕	-12.1796
醇	-12.1796
圭峯	-12.1797
曆	-12.1798
翊	-12.1798
乾陀訶提	-12.1799
殑伽河	-12.1799
距	-12.18
徧照十方	-12.18
亦信因果	-12.1801
敬有緣	-12.1801
麝	-12.1802
狄	-12.1802
猫	-12.1802
蠏	-12.1803
淨除業障	-12.1803
依他起性	-12.1803
刊板	-12.1803
長一丈五尺	-12.1803
元是菩提妙淨明體	-12.1803
叡	-12.1804
見思二惑	-12.1804
舛	-12.1804
八哥	-12.1804
燧	-12.1804
岑	-12.1804
西方去此十萬億佛剎	-12.1804
謫	-12.1804
鞞	-12.1804
顓	-12.1804
說是語時	-12.1804
哂	-12.1804
脂	-12.1805
張抗	-12.1805
紅爐	-12.1805
若晝若夜	-12.1805
僉	-12.1805
不守自性	-12.1805
愕	-12.1805
禾	-12.1805
梅花	-12.1805
白飯王	-12.1805
搬	-12.1805
若復有人	-12.1805
貿	-12.1806
屣	-12.1806
即一而三	-12.1806
繙	-12.1806
六十萬億那由他恒河沙由旬	-12.1806
柄	-12.1806
扇繩	-12.1807
十聲念我名號	-12.1807
阿育王	-12.1807
今正是時	-12.1807
準提	-12.1807
泥犂	-12.1807
乙亥	-12.1807
優婆塞戒	-12.1807
奮迅	-12.1807
阿彌陀佛身金色相好光明無等倫	-12.1808
濯	-12.1808
志不決定	-12.1808
廈	-12.1808
撤	-12.1808
無愛別離苦也	-12.1808
薙髮	-12.1808
白毫宛轉五須彌紺目澄清四大海	-12.1808
橫徧十方	-12.1808
眼耳鼻舌身意	-12.1808
籤	-12.1809
西方確指	-12.1809
願同念佛人	-12.1809
聞生即作生解	-12.1809
七佛以來	-12.1809
評點	-12.1809
三業俱惡	-12.1809
六十二見	-12.1809
淮	-12.1809
往生淨土懺願儀	-12.1809
愚者為生所縛	-12.1809
聞無生即作無生解	-12.1809
偷僧祇物	-12.1809
善解義趣	-12.1809
清涼國師	-12.1809
試自忖量	-12.1809
悼	-12.181
鬘	-12.181
殺盜淫	-12.181
一切世間天人阿修羅等	-12.181
糊	-12.181
善友告言	-12.181
忱	-12.181
專精為功	-12.181
面見彼佛阿彌陀即得往生安樂剎	-12.181
那羅延	-12.181
生大怖畏	-12.181
拘律陀	-12.181
摹	-12.181
沈吟	-12.181
自證分	-12.181
量周沙界	-12.181
水無留影之心	-12.181
省庵	-12.181
南無阿彌多婆夜	-12.181
作我一念之心	-12.181
萬無一失	-12.181
於意云何	-12.181
湊泊	-12.1811
為作證明	-12.1811
辜負	-12.1811
金口所宣	-12.1811
太極圖	-12.1811
8	-12.1811
不亦可乎	-12.1811
槖	-12.1811
9	-12.1811
姚秦三藏法師鳩摩羅什	-12.1811
不苦不樂受	-12.1811
教稱十念	-12.1811
蔔	-12.1811
妹	-12.1811
少康法師	-12.1811
緬	-12.1811
當來之世	-12.1811
忖	-12.1811
胞	-12.1812
除無量劫生死之罪	-12.1812
巫	-12.1812
臨終惡相	-12.1812
念佛是藥	-12.1812
全性成修	-12.1812
這個	-12.1812
收拾	-12.1812
剜	-12.1812
蛆蟲	-12.1812
入此道場	-12.1812
洩	-12.1812
無老苦也	-12.1812
郊	-12.1812
蝨	-12.1812
變現自在	-12.1812
一專為憶	-12.1812
盡一氣為一念	-12.1813
刑罰	-12.1813
多見世人	-12.1813
不必參究	-12.1813
看看行步龍鍾	-12.1813
躡前	-12.1813
柁	-12.1813
涸	-12.1813
須臾兩分	-12.1813
糊塗	-12.1813
憲	-12.1813
無諸異念	-12.1813
氣極為度	-12.1813
不相干	-12.1813
佛佛道同	-12.1813
巗	-12.1813
貝葉	-12.1813
一生取辦	-12.1813
常憶常念	-12.1813
攝護信心	-12.1813
觀難成就	-12.1813
挽回	-12.1814
色聲香味觸法	-12.1814
今生受者是	-12.1814
廕	-12.1814
七萬釋種	-12.1814
簡易直捷	-12.1814
修五念門	-12.1814
況戒定熏修	-12.1814
同一覺源	-12.1814
若病重將終	-12.1814
能如馬鳴龍樹否	-12.1814
北辰	-12.1814
阿闍世王	-12.1814
亘古亘今	-12.1814
蠲	-12.1814
嗅	-12.1814
峩	-12.1814
長蘆賾禪師	-12.1814
嚕	-12.1814
有進無退	-12.1814
依正本融通	-12.1814
遲遲	-12.1814
壬申	-12.1815
拏	-12.1815
其或不然	-12.1815
西邁	-12.1815
無病苦也	-12.1815
憍陳如	-12.1815
固為上	-12.1815
忠臣	-12.1815
放眉間光	-12.1815
蹶	-12.1815
我願無盡	-12.1815
同佛所證	-12.1815
縈纏	-12.1815
伽伽那	-12.1815
生佛非殊致	-12.1815
統理大眾	-12.1815
永無出期	-12.1815
覰破	-12.1815
不得一日暫廢	-12.1816
分十四支	-12.1816
令法種增長此世及後生願佛常攝受	-12.1816
剎那際內	-12.1816
慈愍三藏	-12.1816
何患不	-12.1816
十萬億剎之外	-12.1816
嘿	-12.1816
無常終是到來	-12.1816
簫	-12.1816
兩眉中間	-12.1816
執理而	-12.1816
戒疏發隱	-12.1816
無始巳來	-12.1816
桶	-12.1816
詬	-12.1816
妄想馳逐	-12.1816
直入如來地	-12.1816
症	-12.1816
發大精進	-12.1816
彷彿	-12.1817
生死關頭	-12.1817
若三日若四日若五日若六日若七日	-12.1817
手執金臺	-12.1817
杜撰	-12.1817
不雜結使念	-12.1817
荼	-12.1817
面向西方	-12.1817
紹隆三寶	-12.1817
黏	-12.1817
聲聲相續	-12.1817
造諸惡業	-12.1817
修習善本	-12.1817
行無瘡疣	-12.1817
廻	-12.1818
虐	-12.1818
猷	-12.1818
是人中芬陀利華	-12.1818
誼	-12.1818
如今是因	-12.1818
如染香人身有香氣	-12.1818
三摩提	-12.1818
行者見巳	-12.1818
諸小行菩薩	-12.1818
帶惑往生	-12.1818
說此難信之法	-12.1818
西資鈔	-12.1818
普皆迴向	-12.1819
此想成時	-12.1819
回光返照	-12.1819
文成印壞	-12.1819
箱	-12.1819
彌勒下生	-12.1819
其中輩者	-12.1819
過去現在未來	-12.1819
不可以少善根	-12.1819
與諸大眾現其人前	-12.1819
六祖壇經	-12.1819
萃	-12.1819
南洲	-12.182
恚癡	-12.182
一切世間難信之法	-12.182
決志求生	-12.182
全由信願	-12.182
心想羸劣	-12.182
即其義也	-12.182
應當發願願生彼國	-12.182
驀直	-12.182
唐太宗	-12.182
巳曾供養	-12.182
胎卵濕化	-12.182
同登極樂	-12.182
莫蹉跎	-12.182
衣襟	-12.182
觀念佛心起	-12.1821
假饒金玉滿堂	-12.1821
烏巾白衣	-12.1821
署	-12.1821
悟與未悟	-12.1821
八長養諸根	-12.1821
交絡	-12.1821
一一華中	-12.1821
鬚髮	-12.1821
心外無土	-12.1821
入法界品	-12.1821
風貌清美	-12.1821
黃葉	-12.1822
一毫之善	-12.1822
矚	-12.1822
見此光明	-12.1822
防護	-12.1822
常作如是說	-12.1822
戟	-12.1822
暫信暫不信	-12.1822
智慧如海	-12.1822
即此意也	-12.1822
臭薉	-12.1822
堂宇	-12.1822
母子歷生不相違遠	-12.1822
不來而來	-12.1823
抒	-12.1823
嵐	-12.1823
專為自利	-12.1823
得入初地	-12.1823
瑠	-12.1823
宋元嘉	-12.1823
慙	-12.1823
朝廷	-12.1823
常住不滅	-12.1823
以理奪事	-12.1823
疆	-12.1823
密行第一	-12.1824
荒唐	-12.1824
遵式	-12.1824
前五識	-12.1824
有一念之不	-12.1824
淨無瑕	-12.1824
光明寶林	-12.1824
於大眾中	-12.1824
滲漏	-12.1824
在虗空中	-12.1825
痛不可言	-12.1825
衰殘	-12.1825
臨終苦逼	-12.1825
一多相即	-12.1825
發大乘心	-12.1826
醜惡	-12.1826
阿彌陀佛去此不遠	-12.1826
三塗惡道	-12.1826
思維	-12.1826
事不辦	-12.1826
一切時一切處	-12.1826
三業六根	-12.1826
兒童	-12.1826
崑山	-12.1827
證法華三昧	-12.1827
叩頭	-12.1827
勇健	-12.1827
趙州茶	-12.1827
課畢	-12.1827
鸚鵡舍利	-12.1828
稱念佛名	-12.1828
所行境界	-12.1828
億那由他百千	-12.1828
剃染	-12.1828
不捨一法	-12.1828
妙喜世界	-12.1828
照不破	-12.1828
武林	-12.1829
冥符	-12.1829
庸愚	-12.183
依正融通	-12.183
草草	-12.183
囑累	-12.1831
四輕輭	-12.1831
形軀	-12.1831
攝受此人	-12.1831
一生造惡	-12.1832
諸大祖師	-12.1832
仆	-12.1832
壽量光明	-12.1832
鐵圍	-12.1833
一真法界性	-12.1833
法華會上	-12.1833
暢悅	-12.1833
三諦圓融	-12.1833
闉曰	-12.1833
貫徹	-12.1834
唯願世尊	-12.1834
芳果	-12.1834
激切	-12.1834
依何而	-12.1835
拔濟眾生	-12.1835
聖誕	-12.1835
遷變	-12.1836
只管	-12.1836
年十七	-12.1836
男兒	-12.1836
齋戒清淨	-12.1836
其義一也	-12.1836
智覺禪師	-12.1837
吾行矣	-12.1837
臨終之日	-12.1837
不可不戒	-12.1838
一合相	-12.1838
號泣	-12.1838
灼然	-12.1839
昏闇	-12.184
汾州	-12.184
孺人	-12.1841
偏廢	-12.1841
有五因緣	-12.1841
勝異方便	-12.1842
光即般若	-12.1842
典章	-12.1842
可不畏	-12.1842
光來照	-12.1843
未可知也	-12.1843
湖州	-12.1844
譬如大海	-12.1844
衣鉢	-12.1846
莊子云	-12.1846
反掌	-12.1848
純諸菩薩	-12.1849
年八十一	-12.185
高閣	-12.185
急務	-12.1851
周沙界	-12.1851
無不是佛	-12.1851
生一子	-12.1851
若轉以化人	-12.1853
深坑	-12.1853
而自莊嚴	-12.1854
之明證	-12.1855
院主	-12.1856
但念阿彌陀	-12.1857
徹祖	-12.1859
自他俱	-12.186
階漸	-12.186
稍稍	-12.186
無有限量	-12.186
宋朝	-12.1862
貫攝	-12.1862
良久乃	-12.1862
予嘗	-12.1863
陸地	-12.1863
覆面	-12.1864
袈裟下	-12.1864
弊惡	-12.1864
節錄	-12.1865
狂禪	-12.1865
齊彰	-12.1866
護助	-12.1866
何言哉	-12.1867
本無生滅	-12.1867
般若波羅蜜多	-12.1868
忠信	-12.1868
中上二句	-12.1868
集眾念佛	-12.187
十往生經	-12.1871
客塵	-12.1871
潭州	-12.1874
莫把	-12.1877
彌陀因中	-12.1879
號呼	-12.188
唯心之淨土	-12.1882
楞嚴所謂	-12.1882
神僊	-12.1883
如是二人	-12.1885
淨土神珠	-12.1887
舒舌相	-12.1887
年十六	-12.1888
不可稱智	-12.1888
念念相應	-12.1891
虗靈	-12.1892
譬猶	-12.1895
自心是佛	-12.1898
楞伽經云	-12.19
是何物	-12.19
久留	-12.19
滅八十億劫	-12.19
舉筆	-12.1901
及諸聖眾	-12.1903
要了生死	-12.1904
要典	-12.1915
如汝所	-12.1932
六道四生	-12.1933
垂手接引	-12.1935
卓然	-12.1935
蓮華臺上	-12.194
懺摩	-12.195
放無量光	-12.195
瑜伽論	-12.1955
要訣	-12.196
初聲聞眾	-12.1966
偽造	-12.198
餘年	-12.1982
力猛利	-12.1983
三昧易成	-12.1985
有八萬四千光明	-12.1986
南無本師阿彌陀	-12.199
一切眾寶	-12.199
利羣生	-12.1991
娑婆穢土	-12.1999
博學	-12.2008
智慧辯才	-12.201
彌陀懺法	-12.2017
入胞胎	-12.2019
端的	-12.2022
佛來接引	-12.2026
無寒暑	-12.2026
一心歸命極樂世界	-12.2031
塵沙惑	-12.2042
色無色	-12.2046
略敘	-12.2056
顏容	-12.2061
親近諸佛	-12.2064
紅藕	-12.2065
幸勿	-12.2073
邪為正	-12.212
停聲	-12.2126
濁惡世	-12.2137
可得度	-12.2151
香華供養	-12.2166
克果	-12.2167
高聲念	-12.2175
登妙覺	-12.2175
造眾惡	-12.2195
入泥犁	-12.2196
迴向願求	-12.2212
至心稱念	-12.2226
二百五十戒	-12.2227
自下第	-12.224
年五十	-12.2241
日夕	-12.2256
苦樂相	-12.2272
阿彌陀佛現在說法	-12.2279
碧玉	-12.2337
四重五逆	-12.2356
願願度	-12.238
地獄餓鬼	-12.2383
趁早	-12.2399
句經文	-12.2405
面見彌陀	-12.243
龍鬼	-12.2432
當諦信	-12.2437
願力所成	-12.2438
持淨戒	-12.2443
金臂	-12.2444
坐蓮臺	-12.2478
其人命終	-12.2493
不聞佛名	-12.2494
剎中菩薩	-12.2497
偈讚	-12.2521
能作主	-12.255
超過一切	-12.2555
閻	-12.2562
惕	-12.2573
旛華	-12.2587
顆	-12.2598
孺	-12.2605
孰能加焉	-12.2605
威靈	-12.2609
綽	-12.2613
菴摩羅識	-12.2617
瘤	-12.2619
球	-12.262
稅	-12.262
舂	-12.2621
功效	-12.2622
內外映徹	-12.2624
餉	-12.2624
饕	-12.2625
盲聾瘖瘂	-12.2625
汲	-12.2626
心多散亂	-12.2627
紊	-12.2627
塟	-12.2627
蕅	-12.2628
身見邊見	-12.2628
崔	-12.2628
淡泊	-12.2629
刀輪	-12.2631
䭾	-12.2631
葵	-12.2631
竪窮橫徧	-12.2631
張鍾馗	-12.2631
信深願切	-12.2632
若其未也	-12.2632
曰象形如	-12.2632
臭腐	-12.2633
弔	-12.2633
八十八使	-12.2633
作此想時	-12.2633
體性堅凝	-12.2634
名稱普聞	-12.2634
狎	-12.2634
妣	-12.2634
踞	-12.2634
雙林裏	-12.2634
牟	-12.2635
捨身他世	-12.2635
黍	-12.2635
渚	-12.2635
威音那畔	-12.2635
摩訶拘絺羅	-12.2635
橫具四土	-12.2635
枯骨	-12.2636
空生大覺中	-12.2636
護七師	-12.2636
刷	-12.2636
虱	-12.2636
張善和	-12.2636
癸酉	-12.2636
婆娑論	-12.2636
庠	-12.2637
嗤	-12.2637
恍惚	-12.2637
歆	-12.2637
閃爍	-12.2637
淨土妙門	-12.2637
語默動靜	-12.2637
荀	-12.2638
[...]
