<unk>	0
<s>	0
</s>	0
/	-3.90245
(	-4.22594
之	-4.36717
)	-4.47672
也	-4.57054
)(	-4.71891
為	-4.80016
者	-4.93863
而	-4.96351
有	-5.15912
以	-5.18467
則	-5.25885
主	-5.57056
不	-5.65323
/)	-5.66551
其	-5.67001
一	-5.67552
□	-5.68851
如	-5.78356
日	-5.7905
中	-5.84804
故	-5.85029
若	-5.8559
無	-5.89483
於	-5.91433
人	-5.91611
在	-5.92885
與	-5.99747
生	-6.00645
見	-6.03214
星	-6.04083
得	-6.05095
水	-6.05614
三	-6.05762
月	-6.08197
上	-6.09117
是	-6.10894
二	-6.14155
大	-6.14262
或	-6.14479
四	-6.15407
子	-6.16121
至	-6.18659
天	-6.20916
金	-6.21141
曰	-6.23242
火	-6.23476
又	-6.2367
行	-6.24715
自	-6.26756
▁	-6.27979
合	-6.28036
陽	-6.30033
吉	-6.30271
多	-6.31393
用	-6.31856
木	-6.31953
土	-6.33913
入	-6.34519
五	-6.34939
時	-6.36814
貴	-6.41838
出	-6.41846
此	-6.42861
乃	-6.43768
皆	-6.44165
下	-6.47457
氣	-6.47814
相	-6.4889
凶	-6.50162
隂	-6.50838
地	-6.53726
分	-6.5419
亦	-6.55507
神	-6.56577
命	-6.57992
六	-6.59984
後	-6.62821
正	-6.67234
言	-6.6866
同	-6.70178
年	-6.70392
官	-6.71259
居	-6.71342
所	-6.71844
位	-6.72044
必	-6.72343
未	-6.73954
明	-6.74877
當	-6.75234
辰	-6.75432
事	-6.75984
及	-6.76403
成	-6.76734
矣	-6.77844
來	-6.77927
作	-6.78225
九	-6.79092
方	-6.81427
死	-6.83568
數	-6.84269
宫	-6.84771
煞	-6.85234
起	-6.85784
于	-6.86001
宜	-6.87496
王	-6.88305
從	-6.88349
七	-6.88973
身	-6.89128
八	-6.90093
財	-6.90283
論	-6.9057
即	-6.90777
臨	-6.91225
平	-6.91745
巳	-6.93631
心	-6.94642
遇	-6.95551
非	-6.98745
寅	-6.99463
雖	-7.00371
更	-7.01811
午	-7.02504
定	-7.0258
内	-7.02832
名	-7.03245
忌	-7.03665
喜	-7.03883
元	-7.0423
運	-7.05172
重	-7.05192
道	-7.05238
逢	-7.05463
前	-7.05658
兩	-7.06
十	-7.06043
處	-7.06501
取	-7.06927
國	-7.06955
福	-7.07477
度	-7.08188
外	-7.08353
謂	-7.08852
申	-7.09769
旺	-7.09909
將	-7.11345
卦	-7.11568
難	-7.11721
亥	-7.11974
龍	-7.12362
甲	-7.12908
本	-7.13248
然	-7.13379
已	-7.134
長	-7.1377
山	-7.15227
占	-7.15252
可	-7.15346
加	-7.15381
嵗	-7.159
乾	-7.16027
小	-7.16159
去	-7.1681
凡	-7.16868
刑	-7.17147
反	-7.18191
酉	-7.18254
夫	-7.18294
馬	-7.19273
禄	-7.19867
㑹	-7.2012
立	-7.20254
兵	-7.20474
○	-7.20588
交	-7.20751
易	-7.20961
女	-7.22249
丑	-7.2295
傷	-7.23093
物	-7.23156
應	-7.23382
乎	-7.23655
戌	-7.23724
守	-7.23995
家	-7.2409
南	-7.24114
復	-7.24609
君	-7.24676
又曰	-7.25468
破	-7.26602
食	-7.26656
災	-7.27247
法	-7.27758
始	-7.28534
爲	-7.28985
臣	-7.29252
五行	-7.30848
象	-7.31441
干	-7.32043
西	-7.32784
動	-7.33522
發	-7.33556
先	-7.33566
北	-7.33765
周	-7.34627
空	-7.3505
鬼	-7.35118
云	-7.3579
憂	-7.36685
徳	-7.36822
變	-7.37697
尅	-7.38663
天下	-7.38688
離	-7.38767
能	-7.38777
要	-7.39115
俱	-7.39488
謂之	-7.39631
通	-7.39692
好	-7.39763
形	-7.39837
東	-7.40239
終	-7.40284
餘	-7.40315
利	-7.40395
坤	-7.41191
卯	-7.41385
隂陽	-7.42513
休	-7.42781
門	-7.42849
少	-7.432
各	-7.43262
虚	-7.4351
亡	-7.4374
化	-7.43761
耳	-7.43867
風	-7.43875
文	-7.44909
不可	-7.4494
失	-7.45123
庚	-7.45513
安	-7.45637
常	-7.45767
髙	-7.46527
極	-7.48474
初	-7.48837
衝	-7.49492
丁	-7.50034
欲	-7.5024
足	-7.50312
陰	-7.50342
格	-7.50975
十二	-7.51353
何	-7.5169
體	-7.52005
日月	-7.52422
我	-7.52444
犯	-7.52524
咎	-7.52811
乙	-7.53072
角	-7.53205
病	-7.53943
經	-7.54223
禍	-7.54545
須	-7.54602
今	-7.54719
祥	-7.55078
直	-7.55181
壬	-7.55898
丙	-7.56373
光	-7.56376
殺	-7.56583
盡	-7.56746
夏	-7.57555
順	-7.57879
民	-7.58195
春	-7.58462
公	-7.58945
坐	-7.59029
白	-7.59577
因	-7.59639
進	-7.59971
危	-7.6014
一曰	-7.60336
推	-7.6045
敗	-7.60514
德	-7.62302
向	-7.62957
過	-7.63049
亂	-7.63115
惡	-7.63456
歸	-7.63598
辛	-7.63849
局	-7.64774
受	-7.6549
伏	-7.66183
知	-7.66271
疾	-7.66329
惟	-7.66933
限	-7.67057
悔	-7.67468
理	-7.67563
貴人	-7.67681
止	-7.67844
天地	-7.68459
流	-7.68893
全	-7.68969
善	-7.69026
使	-7.69304
帶	-7.69393
屬	-7.69458
首	-7.69687
甲子	-7.69782
逺	-7.69819
實	-7.69975
性	-7.70652
震	-7.70925
縣	-7.71319
且	-7.71395
右	-7.72136
求	-7.72144
絶	-7.72315
左	-7.72486
所以	-7.7255
頭	-7.72709
張	-7.73093
秋	-7.73135
是也	-7.73173
害	-7.73225
妻	-7.73333
節	-7.7383
祿	-7.73842
歲	-7.73918
却	-7.73991
艮	-7.7424
近	-7.74284
次	-7.74728
音	-7.74736
到	-7.74927
强	-7.75099
夜	-7.75182
百	-7.75512
齊	-7.75565
晉	-7.76071
義	-7.76214
黄	-7.76411
建	-7.76515
清	-7.77171
戊	-7.77709
乗	-7.78094
印	-7.78197
之象	-7.78269
色	-7.78452
吝	-7.79196
支	-7.79749
目	-7.79767
和	-7.79805
退	-7.80359
太陽	-7.80389
癸	-7.80709
字	-7.80777
損	-7.81072
富貴	-7.81243
帝	-7.81476
宿	-7.82299
世	-7.82614
焉	-7.83202
不能	-7.83384
深	-7.83401
隨	-7.83416
逆	-7.83639
灾	-7.83859
故曰	-7.83994
冬	-7.842
聲	-7.84281
制	-7.84395
半	-7.84407
坎	-7.84478
觀	-7.84659
夘	-7.85024
既	-7.85786
傳	-7.86284
乘	-7.86824
開	-7.86902
虎	-7.87022
丙寅	-7.87532
朝	-7.87805
兼	-7.88355
樂	-7.88942
以為	-7.89008
萬物	-7.89018
令	-7.89339
富	-7.89787
己	-7.89862
君子	-7.89926
口	-7.90397
猶	-7.90554
母	-7.91007
精	-7.91178
盛	-7.91488
藏	-7.91889
竒	-7.91919
書	-7.91939
葢	-7.92014
萬	-7.92509
克	-7.93529
之地	-7.93542
圖	-7.93557
井	-7.93619
太隂	-7.94013
赤	-7.94065
武	-7.95003
但	-7.95012
并	-7.95051
並	-7.95316
視	-7.95568
衆	-7.95641
巽	-7.95827
勝	-7.961
計	-7.96464
衰	-7.96783
弱	-7.96927
龜	-7.9697
秦	-7.9723
甲寅	-7.97692
尾	-7.97839
散	-7.97855
除	-7.9796
比	-7.98189
太白	-7.98548
不宜	-7.98677
牛	-7.98695
獨	-7.98739
諸	-7.98799
照	-7.99942
治	-8.00171
興	-8.00242
斷	-8.00471
聚	-8.00662
三合	-8.01318
飛	-8.01831
天子	-8.01846
斗	-8.02236
真	-8.02363
背	-8.02409
等	-8.03232
配	-8.03746
不得	-8.04176
間	-8.04322
謀	-8.05284
軍	-8.05379
吉凶	-8.05393
之類	-8.05473
暗	-8.05686
上下	-8.05707
還	-8.05766
壬子	-8.05801
所謂	-8.0598
參	-8.06008
榮	-8.06347
丙午	-8.06665
墓	-8.06983
而不	-8.073
辰戌	-8.07311
漢	-8.07549
甲申	-8.07648
雨	-8.07675
異	-8.08308
之中	-8.08405
顯	-8.08536
州	-8.08765
積	-8.08804
益	-8.08839
曜	-8.08866
便	-8.09139
輕	-8.09218
畢	-8.09272
高	-8.09676
轉	-8.09928
解	-8.10278
别	-8.10358
室	-8.10599
權	-8.10656
丙丁	-8.10957
師	-8.1112
男	-8.11278
甲戌	-8.11333
意	-8.12113
骨	-8.1222
戰	-8.12269
甲午	-8.12643
兵起	-8.12716
併	-8.12785
按	-8.13003
被	-8.1351
切	-8.13794
偏	-8.13873
莫	-8.13978
舉	-8.14399
之數	-8.148
歳	-8.14979
癸亥	-8.14984
房	-8.15117
生人	-8.15254
石	-8.15394
戊午	-8.15427
丁巳	-8.15429
就	-8.15555
厯	-8.15848
太	-8.16124
類	-8.1614
之位	-8.16176
不利	-8.16177
親	-8.16407
晝	-8.16626
石氏曰	-8.16727
測曰	-8.16982
兮	-8.17097
值	-8.1713
之氣	-8.1714
田	-8.17582
滿	-8.17667
蓋	-8.18409
丙子	-8.18411
期	-8.18418
甚	-8.18506
孤	-8.18844
力	-8.18862
十六	-8.19175
城	-8.19222
指	-8.1924
宋	-8.19805
乙丑	-8.20217
助	-8.20237
宅	-8.20666
庚寅	-8.20905
青	-8.21185
戊寅	-8.21264
十一	-8.21796
稱	-8.22406
信	-8.22439
庚午	-8.22622
怕	-8.2298
賊	-8.23019
白虎	-8.23169
庚申	-8.23335
看	-8.23395
微	-8.23404
空亡	-8.23525
羅	-8.23527
其國	-8.24123
己亥	-8.24227
説	-8.24347
癸丑	-8.2437
共	-8.24421
望	-8.24634
遂	-8.24852
㐫	-8.24861
辰巳	-8.24871
癸酉	-8.24878
再	-8.25084
伐	-8.25224
寒	-8.25249
父	-8.25296
他	-8.25449
夀	-8.25728
戊辰	-8.25769
剛	-8.26105
翼	-8.26123
▁(	-8.2629
壬寅	-8.2636
小人	-8.26365
對	-8.26371
勢	-8.26452
壬午	-8.26494
乙酉	-8.26686
只	-8.2678
由	-8.27176
滅	-8.27453
戊子	-8.27959
孛	-8.28187
蛇	-8.2829
熒惑	-8.28336
己巳	-8.28563
穴	-8.28707
走	-8.28854
乙亥	-8.29136
千	-8.29379
客	-8.29515
刻	-8.29947
逄	-8.29971
官星	-8.30056
三十	-8.30208
升	-8.30273
厚	-8.30299
賤	-8.30492
政	-8.30574
似	-8.30644
納音	-8.30762
丁未	-8.30897
諸侯	-8.30915
降	-8.30963
總	-8.31121
老	-8.31225
年月	-8.31289
金水	-8.31388
十五	-8.31748
靈	-8.31806
五星	-8.31856
庚辰	-8.31874
二十	-8.31889
任	-8.3195
壬申	-8.32129
四柱	-8.32588
生旺	-8.32743
庫	-8.32984
宮	-8.33062
甲乙	-8.33147
留	-8.33338
不見	-8.33388
眼	-8.33533
車	-8.3358
辛未	-8.33638
庚子	-8.33668
玉	-8.33758
執	-8.33789
左右	-8.3384
丙戌	-8.33843
衛	-8.33989
鄉	-8.33992
者也	-8.34036
中有	-8.34102
載	-8.34437
又云	-8.34601
學	-8.34637
可以	-8.34686
窮	-8.34864
修	-8.34872
進士	-8.34931
四時	-8.35199
魏	-8.35267
横	-8.35351
長生	-8.35599
盖	-8.35714
辛亥	-8.35794
差	-8.35884
之事	-8.36281
𤣥	-8.36499
丁亥	-8.36557
刃	-8.36841
必有	-8.36967
薄	-8.37063
哉	-8.37151
太嵗	-8.37162
落	-8.37235
丁丑	-8.37325
之所	-8.37368
己未	-8.37508
最	-8.3758
己丑	-8.37762
丙申	-8.37766
疑	-8.37866
露	-8.37887
辛酉	-8.38018
尤	-8.38332
豐	-8.3839
氏	-8.3844
禮	-8.38446
貧	-8.38526
財官	-8.38583
三月	-8.38733
戊戌	-8.38769
黒	-8.3882
王者	-8.38946
箕	-8.38969
聖人	-8.39087
庚戌	-8.39155
辛丑	-8.39237
十三	-8.39265
炁	-8.396
詳	-8.39889
急	-8.39912
原	-8.40018
息	-8.40051
戊申	-8.40177
壬癸	-8.40191
垣	-8.40203
丁酉	-8.40282
庚辛	-8.40323
乙未	-8.40385
甲辰	-8.40595
正月	-8.40661
二十四	-8.40811
胎	-8.41431
癸巳	-8.41689
有兵	-8.4205
生於	-8.42243
楚	-8.42388
尚書	-8.42442
面	-8.42649
陰陽	-8.42683
雲	-8.42718
河	-8.42766
侯	-8.43152
古	-8.43174
章	-8.43227
邑	-8.43233
身命	-8.43242
干上	-8.43452
十月	-8.43488
漸	-8.43741
拱	-8.43757
陳	-8.43816
列	-8.43977
壬辰	-8.44011
紀	-8.44282
依	-8.44321
畏	-8.44321
舍	-8.44393
美	-8.44479
都	-8.44607
仁	-8.4478
祖	-8.44793
否	-8.4516
之間	-8.4516
父母	-8.45163
廣	-8.45175
辛巳	-8.4534
兄弟	-8.45607
致	-8.46042
癸未	-8.46075
固	-8.46098
囚	-8.461
伯	-8.46284
功	-8.46407
咸	-8.46432
課	-8.46555
置	-8.4672
宗	-8.47004
辰酉	-8.47253
士	-8.47318
柔	-8.47788
大貴	-8.48151
候	-8.48259
是謂	-8.48407
訟	-8.4851
著	-8.48615
秀	-8.48633
消	-8.48822
華	-8.48826
昌	-8.49013
不同	-8.49074
丙辰	-8.49103
㣲	-8.4917
乙巳	-8.49464
雜	-8.49472
眉	-8.49498
驚	-8.49619
壬戌	-8.49644
六合	-8.50007
短	-8.5008
傷官	-8.50093
太乙	-8.5041
闗	-8.50476
也故	-8.50641
十二月	-8.5083
五十	-8.50992
威	-8.51093
府	-8.51106
火土	-8.51115
辰星	-8.51137
二月	-8.5115
郗萌曰	-8.51255
舉人	-8.51257
奎	-8.5147
商	-8.51602
辰午	-8.51689
辰辰	-8.51851
将	-8.5189
賢	-8.51943
引	-8.52057
己酉	-8.52209
卒	-8.52447
蝕	-8.5245
三十六	-8.52591
燕	-8.52611
歴	-8.52665
虛	-8.5289
貞	-8.53023
存	-8.53062
表	-8.53083
㸔	-8.53267
之人	-8.53396
路	-8.53399
平丅	-8.53664
躔	-8.53686
日時	-8.53808
辰丑	-8.54092
則為	-8.54138
雷	-8.54167
澤	-8.54184
細	-8.54324
爻	-8.54395
干支	-8.54418
服	-8.54605
辰未	-8.54655
不足	-8.5482
辰申	-8.55048
亢	-8.55127
辰卯	-8.55518
卜	-8.55589
二十五	-8.55604
移	-8.55775
十一月	-8.5599
辰亥	-8.56027
四月	-8.56104
婁	-8.56129
五月	-8.5626
圓	-8.56497
戊巳	-8.56511
防	-8.56602
印綬	-8.56615
困	-8.56835
春秋	-8.5692
趙	-8.5698
純	-8.57005
辰寅	-8.57015
后	-8.57055
東南	-8.5707
新	-8.57112
軫	-8.57228
辰子	-8.57568
紋	-8.57611
封	-8.57746
来	-8.57746
蒙	-8.57924
胃	-8.58109
二十八	-8.5814
魚	-8.5824
朔	-8.58282
甘氏曰	-8.5834
情	-8.58439
相生	-8.58483
輔	-8.58841
律	-8.58876
養	-8.58917
海	-8.59126
夜生	-8.59177
景	-8.59204
卷	-8.59212
六月	-8.59333
誅	-8.59378
聞	-8.59386
代	-8.59438
晦	-8.59543
旺相	-8.59654
至於	-8.5995
一日	-8.59976
詩	-8.6004
冬至	-8.60186
根	-8.60189
軌	-8.60252
連	-8.60305
例	-8.60524
兆	-8.60739
說	-8.6083
問	-8.60841
三年	-8.60959
折	-8.61039
荆州占曰	-8.61083
出入	-8.61126
㓙	-8.61777
昴	-8.61806
羣	-8.61983
花	-8.62031
暴	-8.62095
人之	-8.62213
逆行	-8.62275
而後	-8.62521
爭	-8.62586
廢	-8.62629
號	-8.62659
侵	-8.62893
符	-8.63087
為福	-8.63342
夭	-8.63348
名曰	-8.6335
妙	-8.63393
兌	-8.63444
旱	-8.63462
發用	-8.63527
乙卯	-8.63575
魯	-8.63578
盈	-8.63591
氐	-8.63839
者為	-8.63908
壽	-8.64013
尊	-8.64075
元年	-8.6422
十四	-8.64549
䘮	-8.64549
天乙	-8.64695
八月	-8.64914
廟	-8.65043
陷	-8.6517
手	-8.65347
遲	-8.65354
濟	-8.65425
辨	-8.65433
青龍	-8.6544
尚	-8.6545
登	-8.65521
聖	-8.6553
八卦	-8.65541
邪	-8.65582
強	-8.65697
考	-8.65807
子孫	-8.65938
一生	-8.66188
不用	-8.66226
末	-8.66333
志	-8.66425
湏	-8.66542
不成	-8.66557
夾	-8.66571
喪	-8.66928
梁	-8.66934
持	-8.66953
十八	-8.67093
履	-8.67491
東方	-8.67587
備	-8.67663
革	-8.67773
七月	-8.68027
舊	-8.68133
職	-8.68168
之義	-8.68227
扶	-8.68301
泰	-8.68699
遷	-8.68818
西北	-8.68837
鼻	-8.69409
填星	-8.69512
逐	-8.69627
太極	-8.69735
永	-8.69838
乾坤	-8.69875
專	-8.69903
語	-8.70002
為主	-8.70267
愛	-8.70321
自然	-8.70701
造化	-8.70944
為用	-8.71228
恩	-8.71278
統	-8.7136
又為	-8.71366
端	-8.71389
男女	-8.71458
進退	-8.71492
野	-8.7157
恐	-8.71867
丁卯	-8.71925
日干	-8.72023
淫	-8.72088
納	-8.72237
柱	-8.72305
婦	-8.725
縱	-8.7255
將軍	-8.72574
血	-8.72899
日辰	-8.73318
不知	-8.73408
西方	-8.73416
智	-8.73501
六十	-8.73594
兊	-8.73768
靜	-8.738
司	-8.73898
得地	-8.73958
思	-8.74006
羊	-8.74141
堂	-8.74221
豈	-8.74231
改	-8.74368
言之	-8.74579
布	-8.74995
早	-8.75016
身旺	-8.75141
陵	-8.7529
嵗星	-8.75342
太陰	-8.75478
幽	-8.75483
禽	-8.75515
枝	-8.75592
尋	-8.76205
經云	-8.76218
貫	-8.76525
四方	-8.76552
二年	-8.76685
以上	-8.76941
唐	-8.77086
不然	-8.77118
關	-8.77132
同宫	-8.77173
九月	-8.77188
愈	-8.77329
為官	-8.77493
覆	-8.77499
患	-8.77503
往	-8.77697
大臣	-8.77749
怒	-8.77781
承	-8.77839
鳥	-8.78217
假	-8.78219
收	-8.78222
不出	-8.78251
彼	-8.78353
具	-8.78485
林	-8.78539
禄馬	-8.78541
結	-8.79125
也若	-8.79158
朱雀	-8.79211
三十二	-8.79427
辛卯	-8.79447
屯	-8.7945
一名	-8.79531
察	-8.79544
術	-8.79588
遊	-8.7962
越	-8.79796
二十一	-8.79797
闕	-8.7999
會	-8.80107
李	-8.80322
食神	-8.80377
斯	-8.80388
獲	-8.80549
羊刃	-8.80582
申酉	-8.806
不吉	-8.80603
久	-8.80662
缺	-8.80782
鼎	-8.80821
財帛	-8.80824
而無	-8.80988
序	-8.81033
曲	-8.81306
敵	-8.81434
西南	-8.81511
吾	-8.81517
雄	-8.81766
順行	-8.81779
十七	-8.81799
恒	-8.81828
才	-8.81915
每	-8.82127
不明	-8.82242
救	-8.82336
福禄	-8.82731
晝夜	-8.82788
三日	-8.83291
奪	-8.83419
掌	-8.83675
二十二	-8.83773
舎	-8.83876
遭	-8.84136
鄭	-8.8414
假令	-8.84159
殃	-8.84165
天之	-8.84165
教	-8.84218
施	-8.84267
鳴	-8.84715
招	-8.84827
各有	-8.84827
之理	-8.8493
是為	-8.85038
之道	-8.85391
南方	-8.85632
二十七	-8.85861
注	-8.85959
犬	-8.8603
保	-8.86315
減	-8.86327
日蝕	-8.86394
文章	-8.86566
己卯	-8.86636
夷	-8.86998
隠	-8.87054
皆為	-8.87118
良	-8.87288
魁	-8.87315
暈	-8.87345
决	-8.87735
驛馬	-8.8776
而已	-8.87833
脱	-8.87862
勞	-8.88073
金木	-8.88309
造	-8.88368
癸卯	-8.88376
冲	-8.88382
静	-8.88562
際	-8.8872
營	-8.88738
季	-8.88835
有氣	-8.88902
水火	-8.88997
栁	-8.89112
婦人	-8.89177
之神	-8.89236
達	-8.89243
官禄	-8.89496
劉	-8.89536
附	-8.89944
敬	-8.90143
産	-8.90152
三百六十	-8.90398
四十	-8.90448
攻	-8.90549
東北	-8.90614
蹇	-8.9064
市	-8.90769
獄	-8.91018
一年	-8.91044
生氣	-8.91065
十九	-8.91164
第	-8.91263
為人	-8.91338
扵	-8.91371
禍福	-8.9138
運行	-8.91471
如此	-8.9175
里	-8.91829
草	-8.91855
夏至	-8.91873
火羅	-8.91959
嫌	-8.92521
唯	-8.92583
前後	-8.92645
之時	-8.92659
又有	-8.92715
月令	-8.92805
三竒	-8.9283
謙	-8.92859
者主	-8.92867
仍	-8.92895
隔	-8.92982
之法	-8.93022
避	-8.93058
有憂	-8.93065
擊	-8.93103
部	-8.93197
勾陳	-8.93281
黄帝占曰	-8.9344
苦	-8.93488
器	-8.93646
包	-8.93813
若有	-8.93906
玄	-8.94321
邊	-8.9437
容	-8.94405
刼	-8.94569
卑	-8.9457
之象也	-8.94768
腹	-8.94787
魄	-8.94826
二十六	-8.94913
北方	-8.9496
月建	-8.95005
雙	-8.95078
金星	-8.95084
江	-8.9509
一度	-8.95122
互	-8.95589
管	-8.95669
水土	-8.95684
牽牛	-8.95924
寅午戌	-8.96063
賦	-8.96172
相逢	-8.96189
浮	-8.9628
𤣥武	-8.96288
木星	-8.96356
亦有	-8.96415
偶	-8.96442
二十三	-8.96467
不及	-8.96557
迎	-8.96699
用事	-8.9677
揚	-8.968
無氣	-8.96827
傍	-8.96885
泉	-8.96947
先天	-8.96982
之宫	-8.97077
耗	-8.97137
三傳	-8.97163
星辰	-8.97198
歌	-8.97215
四十九	-8.9736
垂	-8.97498
/□	-8.97522
免	-8.97671
厄	-8.97719
七煞	-8.97828
則吉	-8.98061
閏	-8.98134
休囚	-8.9814
也如	-8.9816
二星	-8.98325
四季	-8.98345
行年	-8.98417
質	-8.98541
倍	-8.98601
天干	-8.98649
䑕	-8.98685
而為	-8.98897
旅	-8.98903
奔	-8.9902
衡	-8.9908
屋	-8.99232
故也	-8.99264
則有	-8.99273
必主	-8.99433
子午	-8.99559
死絶	-8.9971
命主	-8.99821
駕	-8.99822
柱中	-8.99848
繫	-9.00022
壯	-9.00075
官煞	-9.0013
㢲	-9.00362
崩	-9.00394
争	-9.00435
率	-9.00437
吏	-9.00446
黑	-9.00657
隆	-9.00869
辰戌丑未	-9.00909
忽	-9.0098
巫咸曰	-9.01042
三元	-9.01043
濁	-9.01146
閉	-9.01234
人命	-9.01327
業	-9.01389
徒	-9.01441
侍郎	-9.01446
壁	-9.01493
雖有	-9.01596
太歲	-9.01678
命宫	-9.01877
剥	-9.01979
亦主	-9.0203
愚	-9.02128
貪	-9.02267
寧	-9.02317
者乃	-9.02322
抱	-9.0267
集	-9.0288
為吉	-9.02933
戍	-9.03057
爾	-9.03115
中孚	-9.03228
功名	-9.03399
用神	-9.03443
沉	-9.03462
步	-9.03474
官印	-9.03489
咸池	-9.03495
而成	-9.03504
占曰	-9.03787
亥子	-9.03829
羽	-9.03868
遁	-9.03925
内外	-9.0408
生時	-9.04267
透	-9.04302
田宅	-9.04466
鎮	-9.04467
一云	-9.04521
地支	-9.04635
支干	-9.04656
據	-9.04851
淺	-9.0516
黃	-9.05182
平生	-9.05587
速	-9.05642
金神	-9.05642
天道	-9.05691
縁	-9.057
福徳	-9.05702
兵大起	-9.05722
女人	-9.05736
篇	-9.05804
變化	-9.05816
均	-9.05868
臨官	-9.05962
倚	-9.05969
支上	-9.05988
縮	-9.06091
維	-9.06276
珠	-9.0638
狼	-9.0642
女主	-9.06473
稍	-9.06494
赦	-9.0653
之鄉	-9.06538
之上	-9.06571
不過	-9.06708
七星	-9.06806
衣	-9.06932
南北	-9.07029
朱	-9.07145
韓	-9.07284
夬	-9.07422
少年	-9.07562
豫	-9.07582
儀	-9.07625
若是	-9.07837
二千一百	-9.07865
泊	-9.08014
辭	-9.0802
主星	-9.08212
亦不	-9.08389
申子辰	-9.08511
小過	-9.0871
奉	-9.08712
不相	-9.08722
𫝊	-9.08785
返	-9.08897
繼	-9.0898
烏	-9.09017
果	-9.09159
一星	-9.09279
二十九	-9.09373
孫	-9.09394
火星	-9.09435
以其	-9.09461
裏	-9.09754
葬	-9.09799
丑未	-9.09976
㫁	-9.10002
十干	-9.10177
寳	-9.10278
延	-9.10314
兑	-9.10316
堅	-9.1045
棄	-9.10485
郡	-9.10495
日生	-9.10554
吉星	-9.10818
故以	-9.10982
日在	-9.10994
四正	-9.11345
宫主	-9.11446
秋冬	-9.11516
東西	-9.11652
曹震圭曰	-9.11838
貌	-9.11869
弟	-9.11943
資	-9.12091
係	-9.1214
邦	-9.12156
肉	-9.12243
千里	-9.12463
皇	-9.12486
主人	-9.12612
無所	-9.12644
筭	-9.12691
殿	-9.12753
康	-9.12791
天門	-9.12869
姓	-9.13078
星主	-9.13255
昏	-9.13453
大吉	-9.13553
是以	-9.13721
人君	-9.13762
之説	-9.13961
詩斷	-9.14001
不為	-9.14011
圍	-9.14034
戒	-9.14093
孟	-9.14171
享	-9.1433
其所	-9.14442
寅卯	-9.14505
在於	-9.14521
寡	-9.14588
假如	-9.146
土計	-9.14618
為貴	-9.14759
發福	-9.14861
雞	-9.14916
比肩	-9.15061
紫	-9.15096
之命	-9.1519
其中	-9.15453
又如	-9.15485
天地之	-9.15548
東井	-9.15577
機	-9.15615
識	-9.15666
水星	-9.16044
宣	-9.1608
之說	-9.16135
辛夘	-9.16269
姤	-9.16687
塞	-9.16751
鬬	-9.16757
木炁	-9.16799
了	-9.1682
十日	-9.16916
慶	-9.16994
亦可	-9.17007
二千二百	-9.17025
刼煞	-9.1719
歸妹	-9.17325
經曰	-9.17434
魂	-9.17435
羅㬋	-9.17447
低	-9.17447
五年	-9.17676
盜	-9.17791
奸	-9.17862
人主	-9.17992
金火	-9.18106
陽刃	-9.18176
酒	-9.18225
大水	-9.18234
坎離	-9.18236
傾	-9.18314
陽氣	-9.18384
出於	-9.18445
嘉	-9.18583
約	-9.18688
人得	-9.18691
之日	-9.1875
混	-9.18833
勾	-9.18858
歳星	-9.19021
䧟	-9.1909
特	-9.19093
貧賤	-9.19154
驗	-9.19189
蠱	-9.19296
温	-9.19754
逃	-9.19904
私	-9.1992
不通	-9.19937
然後	-9.20149
旦	-9.20259
孝	-9.20303
仲	-9.20477
太守	-9.20506
鬼神	-9.20602
亥卯未	-9.20623
亦是	-9.20674
黨	-9.20693
中央	-9.20716
太子	-9.20839
不安	-9.20912
五日	-9.2093
射	-9.2104
在寅	-9.21189
六害	-9.21292
者以	-9.2131
循	-9.21323
木火	-9.21343
春夏	-9.21411
刑衝	-9.2149
御	-9.21512
旁	-9.21636
第一	-9.21687
畫	-9.21841
殊	-9.21896
己夘	-9.22018
許	-9.22032
潤	-9.2208
六甲	-9.22123
旬	-9.22127
毒	-9.22241
史	-9.2227
適	-9.22276
消息	-9.22416
妄	-9.22639
天元	-9.22727
宫中	-9.22733
紫炁	-9.22774
熒惑犯	-9.22852
崇	-9.22929
罪	-9.23153
兒	-9.23159
而得	-9.23372
怪	-9.2349
誠	-9.23555
便是	-9.2364
六十四	-9.24031
而生	-9.24144
相合	-9.24191
地之	-9.24203
隱	-9.24366
胡	-9.2437
京房曰	-9.24371
接	-9.24462
仰	-9.24524
額	-9.24557
案	-9.24561
淵	-9.24599
負	-9.24791
險	-9.24819
専	-9.24839
星入	-9.24981
黄道	-9.24988
人生	-9.25091
源	-9.25091
為陽	-9.25292
後天	-9.25365
疾病	-9.2559
柳	-9.25607
三方	-9.25617
補	-9.25708
三十一	-9.25774
遺	-9.2585
精神	-9.25913
甲巳	-9.26124
距	-9.26336
幹	-9.26495
之下	-9.26616
榖	-9.26641
日主	-9.26784
聰明	-9.26878
環	-9.26917
齒	-9.26918
南斗	-9.26922
之星	-9.26953
佐	-9.2696
三十日	-9.26985
徙	-9.27052
得之	-9.27153
口舌	-9.27333
同人	-9.27339
川	-9.27342
緩	-9.27479
沈	-9.27483
况	-9.27516
枯	-9.27583
庭	-9.27685
大人	-9.27715
註	-9.27765
七日	-9.27784
谷	-9.27849
吉神	-9.27894
輪	-9.27897
盗	-9.2792
征	-9.28016
流年	-9.2803
孔	-9.28074
若遇	-9.28113
住	-9.28181
詩曰	-9.28214
皆以	-9.28473
而下	-9.28688
畜	-9.28689
霜	-9.28732
量	-9.28879
俗	-9.29055
丘	-9.29059
舌	-9.29077
需	-9.2932
何以	-9.29336
三十三	-9.29445
亦然	-9.29488
提	-9.29532
之月	-9.29638
昭	-9.29643
萃	-9.2966
所在	-9.29679
大小	-9.29831
庶	-9.29871
營室	-9.29992
没	-9.30048
為禍	-9.30123
御史	-9.30143
含	-9.30186
脈	-9.30192
抵	-9.30226
而有	-9.30426
未濟	-9.305
感	-9.30519
厥	-9.30536
冠	-9.30538
夢	-9.30704
得其	-9.30859
流星	-9.30864
起於	-9.30875
丁夘	-9.309
滯	-9.30948
辰為	-9.30982
肥	-9.3125
呼	-9.31251
遯	-9.31296
觜	-9.31534
一位	-9.31833
蔽	-9.31866
明堂	-9.31886
相尅	-9.32166
數也	-9.32209
太白犯	-9.32375
芒	-9.32399
待	-9.32418
本命	-9.32614
陸	-9.32791
吳	-9.32838
北斗	-9.3288
天后	-9.33297
推之	-9.33512
巳酉丑	-9.33514
脉	-9.33592
衍	-9.33597
徐	-9.336
之始	-9.33606
其數	-9.33843
懼	-9.33873
貴賤	-9.33878
虧	-9.33907
畧	-9.34005
卿	-9.3414
彗	-9.34172
天空	-9.343
洛書	-9.34513
在子	-9.34631
軒轅	-9.34636
狐	-9.34679
之物	-9.3478
子丑	-9.34822
有所	-9.34901
丙火	-9.34956
蟲	-9.3515
條	-9.3515
不可以	-9.35213
計都	-9.35276
決	-9.3528
小畜	-9.35334
大有	-9.35338
學堂	-9.35347
一月	-9.35431
設	-9.35448
奇	-9.35511
天罡	-9.35525
閑	-9.35525
人民	-9.35643
奴僕	-9.35682
狗	-9.35807
賁	-9.35823
之意	-9.35979
大將軍	-9.361
見之	-9.36251
漏	-9.36331
其餘	-9.36432
八字	-9.36486
誤	-9.36712
寶	-9.36718
分明	-9.3679
三十四	-9.36937
魁罡	-9.36974
螣蛇	-9.36985
墜	-9.37095
基	-9.37106
河圖	-9.3711
故言	-9.37166
爵	-9.3734
觀之	-9.37575
丞相	-9.37585
釋	-9.37596
當生	-9.37648
若逢	-9.37674
為財	-9.37772
三公	-9.37845
炎	-9.37882
不和	-9.37891
顧	-9.37968
神煞	-9.37999
中國	-9.38046
拜	-9.3806
四星	-9.38061
毛	-9.38102
獻	-9.38105
側	-9.38128
既濟	-9.38172
大抵	-9.38328
乙夘	-9.38439
懐	-9.38535
大將	-9.38562
旗	-9.38569
乖	-9.38597
四位	-9.38623
更有	-9.38718
如何	-9.38764
渙	-9.38765
而言	-9.38943
属	-9.39026
雀	-9.39067
祿馬	-9.39073
増	-9.39089
恭	-9.391
殘	-9.39101
授	-9.39113
刀	-9.3915
獸	-9.39152
鷄	-9.3917
饑	-9.39304
天乙貴人	-9.39453
大夫	-9.39663
行人	-9.39672
四十五	-9.39701
池	-9.39704
四十八	-9.39722
若見	-9.3975
謹	-9.39794
土星	-9.39867
賦云	-9.39987
迺	-9.40017
究	-9.40225
水孛	-9.40358
凡事	-9.40449
三陽	-9.4049
猪	-9.40514
刑害	-9.40601
天牢	-9.40612
一百	-9.40644
在亥	-9.40664
八十	-9.40707
巳午	-9.40726
族	-9.40729
婚	-9.40826
不忌	-9.40928
飢	-9.40936
楊	-9.40948
慮	-9.41101
錯	-9.41123
界	-9.41201
故名	-9.41329
大過	-9.41336
逢之	-9.41458
皆是	-9.41465
用之	-9.41468
粟	-9.41495
之變	-9.4158
主有	-9.41618
甲木	-9.42019
上有	-9.4205
三𫝊	-9.42088
二日	-9.42144
亦為	-9.42228
為水	-9.42269
在申	-9.42296
屈	-9.42328
傳曰	-9.4258
無光	-9.42592
分野	-9.42629
名利	-9.42728
行限	-9.42738
女子	-9.42807
臺	-9.42859
超	-9.42873
禹	-9.42881
熒惑守	-9.42943
聽	-9.43013
交於	-9.43175
烈	-9.43285
財星	-9.43318
哭	-9.43395
腎	-9.43624
盤	-9.43689
北極	-9.43792
三十七	-9.44028
在午	-9.44088
凶神	-9.44151
掩	-9.44158
水木	-9.44166
乙木	-9.44195
靣	-9.44225
三分	-9.44288
英	-9.44486
尖	-9.44515
倒	-9.44529
徃	-9.44544
中年	-9.4459
户	-9.44617
脫	-9.44625
務	-9.44749
逰	-9.44752
凶星	-9.4476
樞	-9.44788
四象	-9.44827
回	-9.44831
而行	-9.44851
丙辛	-9.44878
始於	-9.44909
春秋緯曰	-9.45048
者皆	-9.45374
為天	-9.45392
二宫	-9.45548
竊	-9.45596
嵗運	-9.4564
請	-9.45678
只是	-9.45696
人見	-9.45809
不行	-9.4587
為隂	-9.45954
得時	-9.46011
三十五	-9.46059
叔	-9.46077
在酉	-9.46108
偏官	-9.46152
宗廟	-9.46165
之後	-9.46201
大運	-9.46344
蜀	-9.4644
帝座	-9.4652
百事	-9.4653
作事	-9.46568
愁	-9.46576
唇	-9.46678
審	-9.46711
巧	-9.46763
累	-9.4677
婚姻	-9.46811
四年	-9.46937
七十	-9.47093
䇿	-9.4711
晚	-9.47214
名為	-9.47245
腰	-9.47521
少陽	-9.47539
一陽	-9.47542
歡	-9.47609
為凶	-9.47663
不如	-9.47688
燥	-9.47711
草木	-9.47834
違	-9.47846
晝生	-9.47914
的	-9.47957
兎	-9.48054
加臨	-9.48151
科	-9.48219
遠	-9.48222
者必	-9.48256
格局	-9.48296
妻子	-9.48301
六年	-9.48304
遇之	-9.4836
慎	-9.48381
緯	-9.48464
厭	-9.48518
倉	-9.48549
丈	-9.48582
滛	-9.48634
索	-9.48725
振	-9.48726
在上	-9.48752
八十一	-9.48758
春分	-9.48787
於此	-9.4901
衝破	-9.49085
家人	-9.49177
省	-9.49219
犯守	-9.49237
徵	-9.49266
鳯	-9.4929
寛	-9.49344
為正	-9.49604
故有	-9.49706
奴	-9.49833
也其	-9.49856
剝	-9.49886
鹿	-9.49908
无妄	-9.50003
貴顯	-9.50006
晷	-9.50102
於是	-9.50191
妾	-9.50352
品	-9.50385
客星犯	-9.50446
嚴	-9.50581
年月日時	-9.50592
荒	-9.5071
懸	-9.50723
臨之	-9.50801
工	-9.50842
錢	-9.50922
逹	-9.51011
居之	-9.51128
寄	-9.5129
余	-9.51354
絲	-9.51355
秒	-9.51356
君臣	-9.51385
玉堂	-9.51405
禁	-9.51438
須女	-9.51567
寅時	-9.51602
三煞	-9.5164
不動	-9.51706
勿	-9.51787
段	-9.51838
日之	-9.51966
儒	-9.52094
二十八宿	-9.5233
此乃	-9.52401
其下	-9.52414
男子	-9.52554
叛	-9.52593
沐浴	-9.5269
又以	-9.52768
色赤	-9.52834
天馬	-9.53063
日行	-9.531
期三年	-9.53132
路空	-9.53133
其氣	-9.53152
記	-9.53183
兄	-9.53203
剛柔	-9.53275
陣	-9.53376
頤	-9.5342
正官	-9.53427
寅申	-9.53613
太常	-9.5364
一氣	-9.53669
子時	-9.53745
立春	-9.53776
斜	-9.54069
耶	-9.54072
三星	-9.54165
以此	-9.54204
在丑	-9.54223
羅計	-9.54329
輕重	-9.54417
停	-9.54422
妖	-9.54532
古人	-9.5455
議	-9.54654
貴神	-9.54673
在未	-9.54731
天上	-9.54738
暮	-9.54763
觸	-9.54772
珥	-9.54822
骨肉	-9.54826
不正	-9.54843
尺	-9.54844
少隂	-9.54846
吕	-9.54867
明夷	-9.55001
有餘	-9.55109
僧道	-9.5526
二分	-9.55305
疾厄	-9.55312
也又	-9.55336
忠	-9.55343
若在	-9.55379
送	-9.55438
簡	-9.55445
博	-9.55456
舒	-9.55474
戴	-9.55478
其君	-9.5548
煞星	-9.55504
六爻	-9.5552
七十二	-9.55704
蠶	-9.55756
紅	-9.55891
亡神	-9.5591
彗星	-9.55923
九十	-9.55935
沒	-9.56055
秋分	-9.56063
葉	-9.56085
不合	-9.56123
都憲	-9.56159
大旱	-9.56377
單	-9.565
戎	-9.56742
旋	-9.56746
六日	-9.56772
四十二	-9.568
茂	-9.56811
天倉	-9.56857
悲	-9.56872
種	-9.56879
欺	-9.56889
徴	-9.56895
噬嗑	-9.56913
末傳	-9.5693
於天	-9.57018
十年	-9.57025
官符	-9.57065
之處	-9.57199
卯酉	-9.57314
將相	-9.57422
癸水	-9.57444
不欲	-9.57562
乙庚	-9.57563
朱子	-9.57603
財旺	-9.57753
無成	-9.57773
無不	-9.57781
歩	-9.57856
乆	-9.58102
次之	-9.58121
蓍	-9.58124
閒	-9.5816
笑	-9.58221
知其	-9.58232
相應	-9.58263
凌	-9.5827
其上	-9.58349
祭	-9.58381
五鬼	-9.58381
是非	-9.58447
者如	-9.58497
赤道	-9.58513
財物	-9.58717
女命	-9.58783
朱子曰	-9.58791
此言	-9.58874
鼓	-9.58907
身弱	-9.58909
三十八	-9.59037
流行	-9.59069
華葢	-9.59125
天目	-9.59168
三百	-9.59318
為一	-9.59392
病者	-9.59393
途	-9.59408
之用	-9.59521
人事	-9.59628
嫁	-9.59645
一嵗	-9.59676
去其	-9.59686
四分	-9.5969
刺	-9.59761
底	-9.5977
擇	-9.59899
五十五	-9.60091
大畜	-9.60127
在巳	-9.60155
在天	-9.60235
午未	-9.60433
仇	-9.60448
安命	-9.60459
又名	-9.60471
文王	-9.60493
丁壬	-9.60508
眞	-9.60516
平常	-9.60615
狀	-9.6066
桓	-9.6069
堪	-9.60715
榮華	-9.60805
縱有	-9.60811
五行之	-9.61004
未為	-9.61027
終於	-9.6104
亨	-9.61147
饒	-9.61202
昔	-9.61226
往來	-9.61226
之方	-9.61239
東壁	-9.61249
已上	-9.61254
天庭	-9.6138
幾	-9.61545
大敗	-9.61549
三度	-9.61591
以成	-9.61739
哀	-9.61744
庚金	-9.61796
見於	-9.61867
一宫	-9.61944
値	-9.61955
旬空	-9.6198
官事	-9.61997
不盡	-9.62029
徑	-9.62059
叅	-9.62104
大煞	-9.6211
辛金	-9.62125
夕	-9.62233
凡占	-9.6224
不必	-9.62268
人也	-9.62306
戊癸	-9.62357
投	-9.62474
同行	-9.6248
泥	-9.62547
蒼	-9.62591
殷	-9.6276
一分	-9.62821
猴	-9.62863
惑	-9.62929
五車	-9.6298
活	-9.62982
孕	-9.63127
大凶	-9.63128
夫婦	-9.63205
呉	-9.63233
為鬼	-9.6326
屬木	-9.63283
麥	-9.63372
己午	-9.63378
善惡	-9.63445
騰	-9.63447
測	-9.63492
衣食	-9.63549
且如	-9.6364
若無	-9.6375
戌亥	-9.63823
悉	-9.63867
仙	-9.63996
可見	-9.64016
洞	-9.64221
賜	-9.6425
賴	-9.64251
十分	-9.64306
三刑	-9.64314
辟	-9.64355
罷	-9.64384
九宫	-9.64446
津	-9.64452
貴氣	-9.64544
其義	-9.64586
四十四	-9.64614
妻妾	-9.64687
動靜	-9.64716
京	-9.64887
丹	-9.64924
毁	-9.6505
不免	-9.65072
此宫	-9.65117
一世	-9.65193
陳卓曰	-9.65241
筮	-9.65248
更得	-9.65283
拘	-9.65386
生死	-9.65416
大壯	-9.65511
此格	-9.65525
三十九	-9.65549
荆州占曰太白	-9.65714
易之	-9.65726
怨	-9.65796
慢	-9.65803
算	-9.65812
癸夘	-9.65817
肺	-9.65846
則以	-9.65969
凖	-9.66288
之内	-9.66357
泄	-9.66366
趨	-9.66501
隂氣	-9.66514
鬭	-9.66518
上見	-9.66521
迷	-9.66566
霧	-9.66625
求財	-9.66639
頥	-9.66675
冝	-9.66689
化為	-9.66737
此是	-9.66813
午時	-9.66819
熟	-9.67077
刄	-9.67097
穀	-9.67196
阻	-9.67329
域	-9.67331
放	-9.67338
皆有	-9.67349
多死	-9.67401
百姓	-9.67405
不言	-9.67537
子息	-9.67591
寅夘	-9.67726
耀	-9.67748
游	-9.6779
月厭	-9.67807
項	-9.67969
四十六	-9.67987
遷移	-9.68013
醜	-9.68021
吟	-9.68033
脚	-9.68048
申時	-9.68071
眀	-9.68187
睽	-9.68207
丑為	-9.68306
不論	-9.68331
墨	-9.68346
者是	-9.68499
倫	-9.68616
一作	-9.68736
終始	-9.68763
也夫	-9.68782
昧	-9.68911
二交	-9.68935
頼	-9.68952
借	-9.68952
之兆	-9.68974
五榖	-9.69005
其年	-9.69005
之象象曰	-9.69081
郎	-9.69176
顔曰	-9.69218
之士	-9.6922
地鏡曰	-9.69365
損益	-9.69382
濶	-9.6965
司命	-9.69705
睛	-9.69719
之體	-9.69748
剋	-9.69763
談	-9.69767
客星	-9.69853
之謂	-9.69888
夭折	-9.69895
二千四百	-9.69905
亦吉	-9.69927
丁火	-9.69939
坤之	-9.6995
五度	-9.70019
虞	-9.70051
三千六百	-9.70335
先生	-9.70373
居中	-9.70375
惡星	-9.70502
寵	-9.70539
麗	-9.7058
子午卯酉	-9.70627
追	-9.70635
不敢	-9.70667
擬	-9.70723
句	-9.70891
姦	-9.70942
荆	-9.70958
之辰	-9.71023
不喜	-9.71049
卦氣	-9.71054
之水	-9.71099
或有	-9.71144
惡死	-9.71191
厯例曰	-9.7121
砂	-9.71272
元武	-9.71336
嫁娶	-9.7134
脩	-9.71392
某	-9.71474
契	-9.71504
五十六	-9.71561
者謂	-9.71767
有喜	-9.72074
甘	-9.72098
者亦	-9.72133
凢	-9.72188
曹	-9.72192
繁	-9.72193
巢	-9.722
之例	-9.72218
宻	-9.72229
生物	-9.72452
始終	-9.72461
格如	-9.72466
二位	-9.72544
一千二百	-9.72618
火木	-9.72631
學者	-9.72651
有水	-9.72719
璧	-9.72795
更加	-9.72827
可知	-9.72886
重重	-9.72902
賔	-9.72974
其位	-9.73004
促	-9.73039
孔子	-9.73048
茍	-9.73097
天下大亂	-9.73123
有情	-9.73172
死氣	-9.73177
最為	-9.732
取其	-9.73236
則凶	-9.73249
四十三	-9.73307
迍	-9.73339
制伏	-9.73398
也凡	-9.73423
嘗	-9.7359
牽	-9.73761
十二辰	-9.73793
故為	-9.73822
塵	-9.73826
為害	-9.73838
祀	-9.73853
亥時	-9.73882
姑	-9.73902
竟	-9.73943
九星	-9.73957
戌為	-9.74139
以生	-9.74186
日為	-9.74196
風雨	-9.74319
農	-9.74355
雉	-9.74412
益之	-9.74441
貴格	-9.74467
皆主	-9.74477
四十一	-9.74555
戮	-9.746
充	-9.74624
狂	-9.7465
若得	-9.74656
桑	-9.74754
至于	-9.74766
最忌	-9.74776
司馬	-9.74803
在辰	-9.74845
占病	-9.74917
是故	-9.74971
十二宫	-9.74992
須要	-9.75028
為妻	-9.7505
輿鬼	-9.7519
夘酉	-9.75245
夫妻	-9.75272
則主	-9.75308
有大	-9.75362
有三	-9.75423
以下	-9.7544
邵子	-9.75492
太過	-9.75508
之妙	-9.75603
圗	-9.75655
故云	-9.75677
予	-9.75686
天中	-9.75705
伏吟	-9.75711
金匱	-9.75715
而上	-9.75823
孛星	-9.75832
不祥	-9.75859
健	-9.75944
即是	-9.75975
在外	-9.76066
出行	-9.76162
變而	-9.76216
此星	-9.7622
稽	-9.7635
也假令	-9.76381
嵗星犯	-9.76412
互換	-9.76424
死於	-9.76465
奴婢	-9.76473
密	-9.76482
月暈	-9.76504
削	-9.76511
三千五百	-9.76539
無情	-9.76554
星出	-9.76584
相刑	-9.76598
之前	-9.76599
見金	-9.766
明年	-9.76633
不以	-9.76643
月孛	-9.76721
制之	-9.76762
太微	-9.76841
光明	-9.76873
一千四百	-9.76912
一千三百	-9.76917
二千五百	-9.76958
天下之	-9.76982
藝	-9.77034
時上	-9.77037
甲日	-9.77046
曉	-9.7707
填星犯	-9.77093
桃花	-9.77126
立命	-9.77226
之數也	-9.77257
辱	-9.77298
刑囚	-9.77319
午為	-9.7733
旣	-9.77342
絡	-9.77359
功曹	-9.7736
未有	-9.77415
所生	-9.77588
四度	-9.77619
勇	-9.77689
最怕	-9.77776
中間	-9.77839
亥為	-9.77907
月蝕	-9.77919
壬水	-9.7792
失其	-9.77926
味	-9.77987
乏	-9.78215
準	-9.78221
减	-9.78223
頗	-9.78231
随	-9.78233
録	-9.78251
屬水	-9.78253
帶煞	-9.78255
伸	-9.78259
期二年	-9.78262
冥	-9.78271
之言	-9.78295
當之	-9.7847
體用	-9.78656
戊土	-9.78728
五穀	-9.78928
竹	-9.78966
酉時	-9.79034
一偏	-9.79111
辰星犯	-9.79172
懷	-9.79221
斷之	-9.79224
四仲	-9.79282
一千一百	-9.79291
二十日	-9.79385
身宫	-9.79537
換	-9.79606
一千五百	-9.79635
吉將	-9.79736
廟旺	-9.79837
妨	-9.79884
矣故	-9.79891
凝	-9.79944
觧	-9.80014
兔	-9.80038
弓	-9.80043
蔵	-9.80052
若還	-9.8014
喜神	-9.80237
五十四	-9.80261
萌	-9.80287
鋒	-9.80361
主貴	-9.80365
氣之	-9.80479
渾	-9.80571
五十七	-9.8058
上元	-9.80612
天徳	-9.80624
樹	-9.8066
錫	-9.8072
在戌	-9.80746
肩	-9.80788
孰	-9.80791
旺氣	-9.80799
規	-9.808
其間	-9.80861
不出三年	-9.80862
藥	-9.80872
肝	-9.80894
有用	-9.80906
切忌	-9.81007
河魁	-9.81024
告	-9.81088
一千八百	-9.81091
較	-9.81127
不定	-9.81143
此為	-9.81147
二千八百	-9.8117
勝光	-9.81203
道路	-9.81226
焦	-9.81269
丑時	-9.81299
邜	-9.81305
二千六百	-9.81338
三位	-9.81369
變為	-9.81442
洛	-9.81485
生日	-9.8163
把	-9.81774
座	-9.81786
溢	-9.8179
壓	-9.81796
擾	-9.81801
髪	-9.81814
病符	-9.81992
寅為	-9.82003
准	-9.821
三千二百	-9.82112
得位	-9.82183
有力	-9.82249
定主	-9.82251
又是	-9.82272
萬里	-9.82439
六親	-9.82455
終身	-9.82488
同類	-9.82535
壞	-9.82545
金土	-9.82603
火為	-9.82615
其説	-9.82638
㓕	-9.82678
熱	-9.82687
皇后	-9.82719
蕃	-9.82721
主事	-9.8275
孤寡	-9.82754
官福	-9.82779
則不	-9.82783
禀	-9.82805
黄帝	-9.82821
戊己	-9.82921
日中	-9.82923
父子	-9.82988
天下有	-9.83017
初傳	-9.83185
之精	-9.83207
色青	-9.83236
國有	-9.8327
清明	-9.83398
太歳	-9.83412
無子	-9.83477
鍾	-9.83494
之外	-9.83535
誰	-9.83542
壊	-9.8355
一千七百	-9.83557
其人	-9.83558
召	-9.83625
領	-9.83649
報	-9.83657
也此	-9.83733
為上	-9.83735
狀元	-9.8375
二氣	-9.83772
三千三百	-9.83782
申為	-9.8384
此時	-9.83896
而反	-9.83933
文昌	-9.83955
廷	-9.84066
四十七	-9.842
方為	-9.84303
官貴	-9.8435
瑞	-9.84397
入墓	-9.84429
洪範	-9.84453
合於	-9.84481
一千六百	-9.84494
資財	-9.84579
箇	-9.84596
其理	-9.84635
影	-9.84641
通書	-9.84658
破敗	-9.84691
毎	-9.847
盗賊	-9.84713
二千三百	-9.84765
雪	-9.84781
厲	-9.8479
屬火	-9.84861
一字	-9.8489
五十二	-9.8492
反覆	-9.84925
黄帝曰	-9.84927
五十一	-9.84971
為妙	-9.85098
豕	-9.85099
改元	-9.85196
乃是	-9.85217
三千一百	-9.85226
刑傷	-9.85262
侍	-9.85314
天盤	-9.85325
四千一百	-9.85341
三千七百	-9.85419
天狗	-9.8542
坐命	-9.85436
之土	-9.85482
排	-9.85482
莊	-9.85499
騐	-9.85506
凉	-9.85509
三千八百	-9.85522
鷹	-9.85535
為兵	-9.85543
不出其年	-9.85569
灰	-9.85572
故稱	-9.85577
其星	-9.85606
述	-9.85634
自有	-9.85639
長官司	-9.85644
三千九百	-9.85657
然則	-9.85789
幸	-9.86003
焚	-9.86012
三千四百	-9.86098
熒	-9.86232
班	-9.86297
二千七百	-9.86318
京氏曰	-9.86371
非常	-9.86403
秉	-9.86413
詞	-9.86509
典	-9.86514
二千九百	-9.86518
役	-9.86535
有財	-9.86628
之貴	-9.86679
梟	-9.867
一時	-9.86762
也又曰	-9.86829
河圖曰	-9.86857
守之	-9.86903
續	-9.86926
之木	-9.86981
必然	-9.87019
歌曰	-9.87021
育	-9.87035
者是也	-9.87052
示	-9.87101
巳時	-9.87103
願	-9.87144
主死	-9.87155
亦無	-9.87187
當以	-9.87195
牧	-9.87253
嗣	-9.87255
彗孛犯	-9.87316
迫	-9.87404
踈	-9.87406
鈎	-9.87409
潛	-9.87414
戾	-9.87434
二百	-9.87435
左角	-9.87444
式	-9.87472
倘	-9.87479
不在	-9.87486
期一年	-9.87487
股	-9.87523
内有	-9.87542
官祿	-9.87599
手足	-9.87627
着	-9.87646
之官	-9.87717
而復	-9.87784
日出	-9.87785
截	-9.87872
相去	-9.87959
第二	-9.87966
者貴	-9.88165
乙日	-9.88174
最喜	-9.88204
素	-9.8822
色白	-9.88317
邉	-9.88329
秘	-9.88337
蔡	-9.88364
有一	-9.8837
波	-9.88378
四千二百	-9.88385
一千九百	-9.88387
他人	-9.88406
謝	-9.8842
𦂳	-9.8842
熊	-9.88428
相㑹	-9.88459
無窮	-9.88464
抑	-9.88468
酉為	-9.88574
木為	-9.88633
言其	-9.88746
不死	-9.88877
賛	-9.88926
五分	-9.88953
滋	-9.88957
十五日	-9.88974
潤澤	-9.89029
廬	-9.89048
亦貴	-9.8906
氣如	-9.89062
官職	-9.89142
三才	-9.8915
敢	-9.89183
之謂也	-9.89257
也然	-9.89304
正月起	-9.89314
聖洽符曰	-9.89339
度主	-9.89367
無疑	-9.89393
一名天	-9.89402
自刑	-9.8944
甘氏讃曰	-9.89441
脾	-9.89457
田財	-9.89516
秋生	-9.89537
立秋	-9.89602
之名	-9.89812
戌時	-9.89833
與日	-9.89898
行運	-9.89911
故謂之	-9.89992
五十九	-9.90018
未時	-9.9005
得失	-9.90127
七年	-9.90144
之火	-9.90234
馳	-9.90301
涉	-9.90315
舞	-9.90362
二者	-9.90377
反為	-9.90378
三台	-9.90385
破碎	-9.90427
織女	-9.90448
之分	-9.90505
小兒	-9.90534
先後	-9.90542
亥子丑	-9.90594
捕	-9.90614
六畜	-9.90619
十度	-9.90652
牛馬	-9.9066
天市	-9.90669
頂	-9.90703
土為	-9.90743
十五度	-9.90857
春生	-9.9086
諸星	-9.90868
選	-9.90885
歲運	-9.90907
方可	-9.91029
豪	-9.91048
為火	-9.91175
其道	-9.91192
二度	-9.9123
也故曰	-9.91258
入廟	-9.91275
十二支	-9.91297
正位	-9.91302
洪	-9.91336
六隂	-9.91356
𢃄	-9.9143
弔客	-9.91436
吉曜	-9.91617
喪門	-9.91699
相對	-9.91704
山林	-9.91741
若守之	-9.91812
在下	-9.91832
年命	-9.91885
月將	-9.91889
之學	-9.91934
占之	-9.91945
必定	-9.91952
主客	-9.91994
訣	-9.92096
九年	-9.92158
不來	-9.92165
今日	-9.92184
麻	-9.92204
於上	-9.92205
辰上	-9.92213
六度	-9.92234
科名	-9.92257
聳	-9.92267
而用	-9.92291
之本	-9.92293
物之	-9.92308
两	-9.9231
天官書曰	-9.92313
冦	-9.92361
猛	-9.92376
憑	-9.92413
豹尾	-9.92451
惠	-9.92464
不勝	-9.92488
師之	-9.92517
有救	-9.92523
古今	-9.92549
則是	-9.9256
於下	-9.92566
去之	-9.92578
屬金	-9.926
醫	-9.92749
木局	-9.92811
無官	-9.92969
相貌	-9.93008
為災	-9.9302
常人	-9.93073
書曰	-9.931
或以	-9.93216
賈	-9.93278
生我	-9.9329
節之	-9.93349
希	-9.93356
廼	-9.93381
習	-9.93414
鶴	-9.93416
拆	-9.93462
吞	-9.93474
謬	-9.93477
生者	-9.93488
皆吉	-9.93543
命中	-9.93599
日月星辰	-9.9361
亦名	-9.93642
周天	-9.93705
五十三	-9.93747
分為	-9.93834
般	-9.9389
此卦	-9.93961
流星犯	-9.93964
占事	-9.9399
右行	-9.94024
詔	-9.94048
動摇	-9.94081
有福	-9.94081
小吉	-9.94092
蕩	-9.94154
二百四十	-9.94164
六陽	-9.9417
中之	-9.9418
天喜	-9.94189
之卦	-9.94196
月行	-9.94269
者謂之	-9.94318
杜	-9.94366
添	-9.9439
校	-9.9439
悦	-9.94401
迹	-9.94403
若不	-9.94415
喻	-9.94465
日暈	-9.94492
調	-9.94509
贏	-9.94548
尅制	-9.94557
無咎	-9.94588
騎	-9.94808
海中占曰	-9.94819
之餘	-9.94888
刑尅	-9.94952
生成	-9.94977
月中	-9.94986
入於	-9.95055
完	-9.95162
太㣲	-9.95168
九度	-9.9521
其邑	-9.95228
道也	-9.95277
牢	-9.95281
驛	-9.95283
建禄	-9.95347
疊	-9.95357
四日	-9.95376
妃	-9.95424
四維	-9.95455
氷	-9.9546
必是	-9.95461
奏	-9.95475
取用	-9.95565
彗星出	-9.95637
逺行	-9.95653
起兵	-9.95744
守禦千户所	-9.95797
荆州占曰熒惑	-9.95837
有二	-9.95948
乾之	-9.96043
綱	-9.96072
責	-9.96127
不遇	-9.96136
癸日	-9.96197
氣也	-9.96368
是時	-9.96376
柄	-9.96411
四夷	-9.96449
乍	-9.96467
火旺	-9.96473
顛	-9.96477
纒	-9.96494
破財	-9.96498
四課	-9.96528
欽	-9.9654
文武	-9.96645
升降	-9.96658
揲	-9.96773
填	-9.96843
雨水	-9.96858
布政	-9.9692
未免	-9.96935
巳為	-9.9699
犯之	-9.97075
即為	-9.97108
在前	-9.97144
惡曜	-9.97242
死亡	-9.97245
庚日	-9.97324
虹	-9.97367
多主	-9.97415
郭	-9.9742
寅午	-9.97514
見火	-9.97541
彌	-9.97569
成敗	-9.97603
監	-9.9762
互相	-9.97677
吐	-9.97687
宫室	-9.97707
之道也	-9.97721
受尅	-9.97734
晚年	-9.97773
不生	-9.97791
歟	-9.97887
之際	-9.98016
乾亥	-9.98158
門户	-9.98197
角亢	-9.98239
地下	-9.98248
次三	-9.98341
裁	-9.98377
娶	-9.98388
無有	-9.9842
而終	-9.98469
六十日	-9.98481
五位	-9.98506
皆不	-9.98593
福德	-9.98611
皮	-9.98652
雅	-9.98705
吴	-9.98709
廿	-9.98761
不順	-9.98802
不至	-9.98814
峯	-9.98827
榮貴	-9.99074
官鬼	-9.99116
夘時	-9.9912
失地	-9.9916
三四	-9.99173
初年	-9.99187
月為	-9.99227
屬土	-9.99236
同位	-9.99252
以正	-9.99259
臣下	-9.9936
公卿	-9.99371
格也	-9.99446
又名天	-9.9946
何曰	-9.9949
牙	-9.99546
也此課	-9.99614
淮	-9.99617
其日	-9.99626
貢	-9.99731
上神	-9.99764
卧	-9.99778
之運	-9.99778
現	-9.99804
時日	-9.99835
柱有	-9.99868
六十四卦	-9.99888
忽然	-9.99893
子曰	-9.99983
如逢	-10.0004
毫	-10.0006
受制	-10.0009
則無	-10.0018
有喪	-10.0025
天津	-10.0032
時逢	-10.0035
郗萌曰熒惑	-10.0037
㸃	-10.0043
下有	-10.0046
如是	-10.0047
第三	-10.0052
四九	-10.0053
火局	-10.0058
有四	-10.0058
天獄	-10.0063
童	-10.0066
月犯	-10.0067
濕	-10.0072
疫	-10.0073
釐	-10.0078
䕃	-10.0085
討	-10.0086
埋	-10.0089
乂	-10.009
於地	-10.0093
周而復始	-10.0096
大富	-10.0105
在地	-10.0114
成就	-10.0119
僧	-10.0119
數之	-10.0136
為亂	-10.014
聖人之	-10.0145
陳曰	-10.015
弦	-10.0159
餘分	-10.0161
庸	-10.0167
八煞	-10.0171
膽	-10.0176
五色	-10.0182
之義也	-10.0182
餘倣此	-10.0189
晴	-10.0189
恃	-10.019
祖業	-10.0196
演	-10.0197
藉	-10.0199
財禄	-10.0201
瑩	-10.0201
倣此	-10.0204
階	-10.0204
盈縮	-10.0204
天刑	-10.0209
死者	-10.0216
立夏	-10.0222
顔	-10.0229
易曰	-10.0229
材	-10.023
艮之	-10.0232
髙强	-10.0238
死符	-10.0242
入垣	-10.0244
起例	-10.0248
為煞	-10.0262
不貴	-10.027
程	-10.0273
五六	-10.0283
此課	-10.029
六星	-10.0293
者多	-10.0294
者即	-10.0299
輿	-10.0299
上九	-10.0303
岳	-10.0305
運至	-10.0306
郊	-10.031
辰時	-10.0311
偽	-10.0312
該	-10.0319
之次	-10.0332
孤獨	-10.0359
妻財	-10.0359
註曰	-10.0362
大衍	-10.037
獨火	-10.0372
暑	-10.0377
憲	-10.0378
身主	-10.038
之疾	-10.0396
本宫	-10.04
雌	-10.0408
六分	-10.0408
不寧	-10.0411
而蝕	-10.0413
相扶	-10.0414
友	-10.0414
貫索	-10.0418
翻	-10.0419
安身	-10.0419
㝛	-10.0427
循環	-10.0428
夲	-10.0429
故曰云云劉曰	-10.0431
四孟	-10.0443
四海	-10.045
此二	-10.0457
消長	-10.0458
網	-10.0459
辛日	-10.046
人所	-10.0464
失位	-10.0467
清貴	-10.0472
至此	-10.0474
之初	-10.0486
八宫	-10.0498
象也	-10.05
元辰	-10.0505
無用	-10.0507
九州	-10.0512
尤甚	-10.0515
所居	-10.0523
中宫	-10.0525
唐開元占經卷	-10.0527
丑月	-10.0529
次五	-10.0535
肆	-10.0535
闢	-10.0535
屠	-10.0535
舟	-10.0536
快	-10.0538
舜	-10.054
俱吉	-10.0546
在内	-10.0549
不妨	-10.0554
晨	-10.0555
相連	-10.0558
偏財	-10.056
顯達	-10.0561
有疾	-10.0563
虎豹	-10.0565
大寒	-10.057
純陽	-10.057
王良	-10.0571
泛	-10.0579
水為	-10.0584
百里	-10.0587
行度	-10.0601
拱夾	-10.0604
萬事	-10.0611
身强	-10.0614
認	-10.0614
沙	-10.0615
播	-10.0615
湯	-10.0617
乗之	-10.0618
首尾	-10.0618
尾箕	-10.0624
俊	-10.065
隂陽相	-10.065
百六	-10.0651
弗	-10.0652
罔	-10.0652
峻	-10.0653
火金	-10.0655
在卯	-10.0656
香	-10.0657
次四	-10.0658
従	-10.0661
飛亷	-10.0661
朋	-10.0667
生子	-10.0673
大角	-10.0673
多是	-10.0681
以定	-10.0683
一般	-10.0692
天下有兵	-10.0693
居於	-10.0693
㑹於	-10.0706
當時	-10.0707
巫	-10.0713
佳	-10.0717
二隂	-10.0732
耕	-10.0734
立冬	-10.0743
堯	-10.0753
慈	-10.0754
析	-10.0754
為地	-10.0757
大赦	-10.0757
六壬	-10.0758
不是	-10.0765
頑	-10.0765
乳	-10.0766
略	-10.0768
劒	-10.0769
除之	-10.0769
勤	-10.077
一也	-10.0771
車騎	-10.0772
子為	-10.0779
冠帶	-10.0779
第五	-10.078
而出	-10.0782
得此	-10.0783
北辰	-10.0786
動而	-10.0787
為竒	-10.0792
寅亥	-10.0795
蓬	-10.0801
之災	-10.0807
帝王	-10.0815
之情	-10.0831
失時	-10.0831
十二度	-10.0833
無救	-10.084
之應	-10.0858
官旺	-10.0867
矢	-10.0868
見木	-10.0868
得令	-10.0874
逢生	-10.0877
㧞	-10.0883
麄	-10.0884
耦	-10.0889
證	-10.0889
疎	-10.089
歲星	-10.0901
財庫	-10.0901
己酉丑	-10.0904
銳	-10.0904
水局	-10.0913
非其	-10.0913
太𤣥	-10.0916
生尅	-10.0916
足以	-10.0918
干頭	-10.0923
飛鳥	-10.0924
熒惑入	-10.0938
寅申巳亥	-10.0954
金局	-10.097
木生	-10.0972
有罪	-10.0974
公侯	-10.0978
方位	-10.0979
次六	-10.0984
必死	-10.0988
平平	-10.099
聰	-10.0994
其形	-10.0996
銜	-10.101
費	-10.1011
䕶	-10.1013
撰	-10.1014
祭祀	-10.1015
子午夘酉	-10.1016
躍	-10.1018
後有	-10.1019
武曲	-10.1024
之功	-10.1026
之交	-10.1028
或曰	-10.1028
火孛	-10.1034
所求	-10.1042
者非	-10.1043
月生	-10.1045
大利	-10.1049
次七	-10.1049
覺	-10.106
人物	-10.1062
月在	-10.1063
惡之	-10.1074
之序	-10.1075
性情	-10.1077
財印	-10.1087
文書	-10.1098
者其	-10.11
之金	-10.11
為金	-10.1102
須知	-10.1103
不失	-10.112
黍	-10.112
天官符	-10.1122
之患	-10.1124
寃	-10.1126
遣	-10.1126
在其中	-10.1127
二字	-10.1128
朝廷	-10.1131
寇	-10.1131
未可	-10.1133
嗔	-10.1134
辯	-10.1135
策	-10.114
襲	-10.1141
無形	-10.1144
繇	-10.1144
一百二十	-10.1145
託	-10.1148
隂陽之	-10.1149
流血	-10.115
衆星	-10.1151
用兵	-10.1152
大戰	-10.1163
凶惡	-10.1168
天文	-10.1172
卯為	-10.1177
五十八	-10.1181
人有	-10.1183
仲尼	-10.1186
對衝	-10.1188
福星	-10.1191
有五	-10.1207
所臨	-10.1211
忌星	-10.1211
有謀	-10.1213
無傷	-10.1218
雍	-10.1218
傷殘	-10.1226
尅妻	-10.1229
戸	-10.1232
湖	-10.1232
觀其	-10.1233
判	-10.1239
將死	-10.1255
今以	-10.1259
貨	-10.1261
徤	-10.1261
奏書	-10.1262
一箇	-10.1263
小運	-10.1266
割	-10.1268
鼠	-10.1269
丗	-10.1305
克日	-10.1309
八年	-10.1309
下賤	-10.1323
發財	-10.1323
吉㐫	-10.1324
故主	-10.1336
亥加	-10.1347
合而	-10.1355
戊日	-10.1364
匿	-10.1368
秀氣	-10.1369
籍	-10.1369
無力	-10.137
斬	-10.1372
誕	-10.1377
居官	-10.1378
磨	-10.138
巳亥	-10.138
伏羲	-10.1382
纔	-10.1383
杖	-10.1383
有變	-10.1386
寒暑	-10.1387
傳送	-10.139
不當	-10.139
文學	-10.1395
蒙之	-10.1404
之臣	-10.1407
縱横	-10.141
多則	-10.141
已為	-10.1414
赤色	-10.1417
地盤	-10.1419
相助	-10.1419
亥夘未	-10.1429
求之	-10.1444
相衝	-10.1444
以水	-10.1456
陽也	-10.146
七政	-10.1464
見水	-10.1466
攝提	-10.1466
襄	-10.1467
之首	-10.1477
哭泣	-10.1477
其神	-10.1479
人道	-10.1483
三光	-10.1492
無破	-10.15
肅	-10.15
有兵起	-10.1502
浪	-10.1502
鮮	-10.1502
撓	-10.1505
竅	-10.1507
狹	-10.151
飲食	-10.151
勲	-10.1511
賞	-10.1512
尒	-10.1512
巨門	-10.1512
筋	-10.1514
奥	-10.1516
響	-10.1516
尅害	-10.1519
三千	-10.1523
山川	-10.1527
十三度	-10.1531
不畏	-10.1537
一尺	-10.1542
山崩	-10.1543
值此	-10.1555
之性	-10.156
土木	-10.1562
取之	-10.1568
土也	-10.1576
生月	-10.1576
内亂	-10.1579
之䇿	-10.158
其後	-10.1586
自立	-10.1587
夜半	-10.1592
日上	-10.1594
遇此	-10.1599
日入	-10.16
之極	-10.1606
逸	-10.1609
植	-10.1611
色黄	-10.1615
僕	-10.162
那	-10.1623
俯	-10.1625
禾	-10.1626
天鏡曰	-10.1627
化氣	-10.1629
六十三	-10.1629
郗萌曰填星	-10.163
仕	-10.163
節氣	-10.1632
陶	-10.1633
塡星	-10.1638
欠	-10.1638
成器	-10.1639
醉	-10.164
世之	-10.164
博士	-10.164
洩	-10.164
􁀙	-10.1643
操	-10.1644
訖	-10.1644
丙日	-10.1644
一卷	-10.1647
身命主	-10.1648
第四	-10.1653
由是	-10.1653
宰	-10.1653
有官	-10.1655
曲直	-10.1657
天下大	-10.1669
圎	-10.1672
六儀	-10.1675
郗萌曰嵗星	-10.1678
享福	-10.1679
不變	-10.1681
建星	-10.1684
逺近	-10.1688
無定	-10.1704
引從	-10.1704
太后	-10.1707
夫人	-10.1716
之宿	-10.1718
摇	-10.1722
見土	-10.1731
而死	-10.1736
所為	-10.1738
何如	-10.174
隣	-10.174
則曰	-10.1744
左旋	-10.1747
也或	-10.1748
園	-10.1755
奮	-10.1759
穿	-10.176
融	-10.1766
瘦	-10.1767
攝	-10.1767
腦	-10.1767
閣老	-10.1767
頓	-10.1769
福星貴人	-10.1772
納甲	-10.1778
霹靂	-10.1779
象數	-10.1781
丨悔	-10.1782
其法	-10.1785
文曲	-10.1785
歸於	-10.1786
石氏曰太白	-10.1786
七十六	-10.1789
相配	-10.1791
扶持	-10.1794
再見	-10.1796
而論	-10.18
地動	-10.1802
在命	-10.1803
之國	-10.1804
而未	-10.1804
東行	-10.1807
用數	-10.1819
周禮	-10.182
日十二時	-10.1822
裂	-10.1823
之終	-10.1833
相克	-10.1834
三命	-10.1846
刼財	-10.1847
社	-10.1858
丙戊	-10.1862
其性	-10.1864
此理	-10.1869
托	-10.187
為本	-10.1875
諸家	-10.1885
之福	-10.1886
八度	-10.1889
潔	-10.1892
一星在	-10.1893
其次	-10.1894
凡人	-10.1899
彊	-10.1905
則應	-10.1905
題	-10.1905
生枝	-10.1906
犴	-10.1909
帛	-10.1916
紫宫	-10.1918
凶煞	-10.1919
莫不	-10.1923
日禄	-10.1926
九五	-10.1927
穆	-10.193
詩云	-10.1935
必得	-10.1949
郗萌曰太白	-10.1952
七度	-10.1953
入命	-10.1955
一卦	-10.1956
善星	-10.1957
金為	-10.1963
喜見	-10.1965
成數	-10.1968
六位	-10.1971
彼此	-10.1992
更兼	-10.1992
一百八十	-10.1995
二三	-10.1996
不復	-10.1996
尅身	-10.2003
皆在	-10.2004
月日時	-10.2008
受命	-10.2009
船	-10.2009
酒色	-10.2014
帥	-10.2014
無害	-10.2016
自旺	-10.2022
六十二	-10.2023
飾	-10.2023
宇	-10.2023
長安	-10.2034
祟	-10.2035
計孛	-10.2045
三五	-10.2052
客星入	-10.2057
經世之	-10.2063
天一	-10.2064
成功	-10.2066
大雪	-10.2068
之心	-10.2068
為我	-10.2068
初度	-10.207
物也	-10.2071
衣禄	-10.2072
有功	-10.2075
地官符	-10.2076
寅月	-10.2081
上安命	-10.2085
午加	-10.2085
最吉	-10.2085
兊之	-10.2087
黄色	-10.2091
三宫	-10.2092
巳上	-10.2098
得一	-10.2102
臨於	-10.2103
催官	-10.2106
陽縣	-10.2106
喜忌	-10.2107
大耗	-10.2107
壬日	-10.2108
亦以	-10.2108
寸	-10.211
七八	-10.2112
巳日	-10.2114
雲氣	-10.2136
於外	-10.2139
遥	-10.2142
水之	-10.2143
人多	-10.2145
罰	-10.2148
寅上	-10.2149
命坐	-10.2149
煩	-10.2151
言之則	-10.2153
九十六	-10.2153
其實	-10.2159
必為	-10.2159
增	-10.2162
可謂	-10.2167
念	-10.2169
者則	-10.217
若居	-10.2171
多病	-10.2172
周公	-10.2175
魯齋	-10.2175
六十七	-10.2186
對待	-10.2187
甲戊庚	-10.2188
有星	-10.2189
其說	-10.219
法推	-10.2191
往亡	-10.2195
百二十	-10.2199
大人憂	-10.2202
有權	-10.2206
聲名	-10.2208
萬物之	-10.2213
之徒	-10.2215
一身	-10.2217
此則	-10.2219
封侯	-10.2226
食禄	-10.2234
正印	-10.2239
第六	-10.2241
各以	-10.2241
後世	-10.2247
而止	-10.225
溺	-10.2251
寅宫	-10.2252
燒	-10.2253
星在	-10.2263
六十六	-10.2265
郗萌曰月	-10.2265
禍患	-10.2267
以明	-10.2268
尸	-10.2269
大星	-10.2272
京房	-10.2281
應之	-10.2284
讒	-10.2285
亥月	-10.2287
跡	-10.2292
阿	-10.2293
萬民	-10.2294
彰	-10.23
岐	-10.23
掛	-10.2301
鄙	-10.2303
混雜	-10.2305
稟	-10.2305
根基	-10.2305
坼	-10.2308
返吟	-10.2308
鐵	-10.2309
效	-10.2309
暢	-10.231
宰相	-10.2312
昆	-10.2318
不犯	-10.2323
積筭起	-10.2324
有䘮	-10.2325
後宫	-10.2325
元戎	-10.2326
史記	-10.2326
傷身	-10.2328
也今	-10.2334
最宜	-10.2334
丨凶	-10.234
祐	-10.2345
荆州占曰月	-10.2351
國家	-10.2351
惟有	-10.2353
常以	-10.2354
之形	-10.2354
無財	-10.2356
如人	-10.2357
天數	-10.2359
定是	-10.236
日忌	-10.2365
日躔	-10.2367
命之	-10.2373
若臨	-10.2379
初九	-10.2381
為君	-10.239
司空	-10.2392
左行	-10.2402
日月之	-10.2402
七分	-10.2404
孚	-10.2405
日破	-10.2421
二陽	-10.2421
㓜	-10.2423
勸	-10.2424
動也	-10.243
妬	-10.2432
郗萌曰熒惑守	-10.2433
招摇	-10.2434
春秋潛潭巴曰	-10.2436
粗	-10.2437
立身	-10.2439
庻	-10.2439
讓	-10.2443
純粹	-10.2443
旺於	-10.2444
収	-10.2445
天官貴人	-10.2445
纂	-10.2446
熾	-10.2447
獅子	-10.2448
南極	-10.2448
猿	-10.2451
午月	-10.2456
貧窮	-10.2458
故不	-10.246
逢金	-10.2467
諸事	-10.2475
忌見	-10.2487
申加	-10.249
此謂	-10.2493
妻宫	-10.2493
柱無	-10.2495
年上	-10.2499
尅我	-10.2499
鉞	-10.25
氣色	-10.2505
流星入	-10.2505
雖然	-10.251
不善	-10.2514
天下亂	-10.2524
閣	-10.2525
於人	-10.2528
隂府	-10.254
旺地	-10.2541
申酉戌	-10.2542
氏曰	-10.2544
豹	-10.2548
所主	-10.2552
志曰	-10.2556
詐	-10.2558
掃	-10.2567
逆數	-10.2572
佛	-10.2572
虵	-10.2576
墳	-10.2578
薦	-10.258
曰天	-10.258
偷	-10.258
層	-10.2582
墻	-10.2583
懽	-10.2583
忘	-10.2583
遵	-10.2585
頻	-10.2586
有此	-10.2594
事也	-10.2596
爽	-10.2596
巳土	-10.2597
斗杓	-10.2599
郎中	-10.26
其色	-10.26
當有	-10.2606
午上	-10.2607
使人	-10.2608
仁義	-10.2618
干合	-10.2625
禄位	-10.2625
亥上	-10.2628
㫖	-10.2631
無極	-10.2635
石氏曰嵗星	-10.2636
旅之	-10.2641
破祖	-10.2641
當權	-10.2649
四百	-10.2651
一家	-10.2654
之端	-10.2656
天赦	-10.266
無故	-10.2665
之度	-10.267
大發	-10.2675
更逢	-10.2676
上吉	-10.268
墮	-10.2683
樓	-10.2684
酉加	-10.2688
大忌	-10.2689
逃亡	-10.27
六十一	-10.2701
受氣	-10.2704
八十四	-10.2706
屬陽	-10.2709
為四	-10.2712
凡命	-10.272
糧	-10.2722
悖	-10.2722
律吕	-10.2722
踰	-10.2725
錄	-10.2728
竈	-10.273
禪	-10.2732
心鏡	-10.2734
官魁	-10.2738
正東	-10.2738
移徙	-10.2739
巳午未	-10.2741
丨休	-10.2741
力士	-10.2744
丨祥	-10.2745
之行	-10.2748
相見	-10.2748
金玉	-10.275
不從	-10.275
此例	-10.2755
為真	-10.2757
七十一	-10.2757
五諸侯	-10.2759
大而	-10.2761
四卦	-10.2764
此以	-10.2766
隅	-10.2771
木旺	-10.2774
客星守	-10.2776
在夘	-10.2777
以前	-10.278
荆州	-10.2789
豈不	-10.28
六四	-10.2803
則可	-10.2806
比刼	-10.2811
以五	-10.2823
奎婁	-10.2824
爻變	-10.2827
神明	-10.2832
形者	-10.2833
豆	-10.2837
反復	-10.2845
此皆	-10.2846
禄主	-10.285
邱	-10.2851
委	-10.2851
日月五星	-10.2852
艮為	-10.2855
申宫	-10.2855
老陽	-10.2857
如遇	-10.2864
淳	-10.2865
老隂	-10.2865
九日	-10.2866
悟	-10.2868
亦曰	-10.287
拔	-10.2871
編	-10.2872
億	-10.2873
媚	-10.2873
壬癸日	-10.2875
黙	-10.2875
窺	-10.2877
華蓋	-10.2877
貪狼	-10.2877
修造	-10.2879
中元	-10.2879
痛	-10.288
不要	-10.2881
人中	-10.2887
丨吝	-10.2888
一元	-10.289
禄馬貴人	-10.2891
竭	-10.2895
丨咎	-10.2895
次八	-10.2899
休咎	-10.2899
行者	-10.2899
有死者	-10.2901
占者	-10.2909
日者	-10.2914
入格	-10.2915
本家	-10.2915
糴貴	-10.2925
在後	-10.2926
城縣	-10.2928
天時	-10.2928
配合	-10.2929
金旺	-10.2935
八分	-10.2942
占主	-10.2943
十里	-10.295
庶人	-10.2951
石氏曰熒惑	-10.2955
金生	-10.2968
交而	-10.2974
福祿	-10.2979
侯王	-10.2985
根本	-10.2987
身衰	-10.2991
使者	-10.2994
入宫	-10.2995
數至	-10.2997
官爵	-10.3
白色	-10.3004
未嘗	-10.3004
綿	-10.3007
不問	-10.3007
不應	-10.3008
苗	-10.3011
揆	-10.3014
用也	-10.3015
沖	-10.3016
憲副	-10.3017
芳	-10.3017
龍虎	-10.3018
鑑	-10.3018
天羅	-10.3018
奢	-10.3018
亡刼	-10.3018
緣	-10.3019
聴	-10.3019
祠	-10.3019
灸退	-10.302
激	-10.302
六十八	-10.303
之㑹	-10.3035
對照	-10.3051
丙為	-10.3053
丑寅	-10.3059
中末	-10.3066
得力	-10.3067
而言之	-10.3067
向背	-10.3069
右角	-10.3072
威權	-10.3083
不全	-10.3091
此法	-10.31
辰宫	-10.3102
水旺	-10.311
出東方	-10.3111
有光	-10.3118
灼	-10.3118
皆可	-10.313
直符	-10.3133
公子	-10.3136
嶽	-10.3142
壬為	-10.3143
本年	-10.3145
以後	-10.3147
不測	-10.3147
使我	-10.3161
薨	-10.3161
零	-10.3163
做	-10.3163
兹	-10.3164
班固天文志曰	-10.3164
繩	-10.3165
逼	-10.3167
呂	-10.3168
蘇	-10.3168
范	-10.317
戌加	-10.3171
或問	-10.3171
蠶室	-10.3174
九十一	-10.3176
渉	-10.3176
華盖	-10.3177
先儒	-10.3181
蛟龍	-10.3182
論之	-10.3184
如甲子	-10.3191
以應	-10.3198
三品	-10.3217
到此	-10.3218
見其	-10.3221
矣若	-10.3234
與月	-10.3234
民多	-10.3235
明矣	-10.3241
之所以	-10.3242
為大	-10.3242
十二日	-10.3245
只宜	-10.3247
財多	-10.3253
寅卯辰	-10.3253
之年	-10.3257
八十三	-10.3258
也言	-10.3259
相交	-10.3259
吉慶	-10.3263
無憂	-10.3268
牛生	-10.3279
曽	-10.3283
印堂	-10.3283
之子	-10.3285
定知	-10.329
無星	-10.329
貎	-10.3293
受福	-10.3299
麟	-10.33
亦能	-10.3302
驅	-10.3303
巨	-10.3304
六十五	-10.3304
恣	-10.3306
龍之	-10.3306
衞	-10.3307
土功	-10.3309
援	-10.3312
翔	-10.3314
狠	-10.3314
蕭	-10.3315
熈	-10.3317
黒氣入	-10.3317
𦵏	-10.3317
衝刑	-10.3319
斂	-10.3319
芒種	-10.332
檢	-10.3326
員	-10.3328
受傷	-10.3328
寡宿	-10.3333
辰戌丑未月	-10.3333
中道	-10.3334
不離	-10.3335
為夫	-10.3339
太白入	-10.3344
武帝	-10.3359
月破	-10.3359
水也	-10.3361
日雨	-10.3365
順數	-10.3366
在中	-10.3367
徳合	-10.337
之門	-10.3372
之陽	-10.3373
酉丑	-10.3375
喜慶	-10.3378
邵子曰	-10.3378
八際	-10.3378
為土	-10.3379
六五	-10.3381
知縣	-10.3384
大亂	-10.3387
大風	-10.339
糴	-10.3396
中和	-10.3406
受之	-10.3406
生焉	-10.3408
七十五	-10.341
竒門	-10.3411
佞	-10.3414
之財	-10.3431
黄白	-10.3443
陽干	-10.345
之隂	-10.3451
囚死	-10.3453
如甲	-10.3453
死神	-10.3454
十二年	-10.3456
無根	-10.3461
八十七	-10.3463
六丁	-10.3464
賓	-10.3467
賣	-10.3468
鴻	-10.3469
月宿	-10.3469
五穀不成	-10.3469
歲破	-10.3469
艮寅	-10.3471
徹	-10.3472
境	-10.3472
浮天空亡	-10.3473
繞	-10.3474
試	-10.3474
巡山羅㬋	-10.3475
珍	-10.3475
潜	-10.3476
塗	-10.3477
英雄	-10.3478
嗟	-10.3478
而非	-10.3481
極品	-10.3482
神后	-10.3486
原有	-10.349
孤貧	-10.3491
初𫝊	-10.3491
八日	-10.3492
衝尅	-10.3497
相加	-10.3499
不克	-10.351
臨身	-10.3511
老人	-10.3512
狀如	-10.3514
國君	-10.3519
一二	-10.352
為僧道	-10.352
炎上	-10.3524
為憂	-10.3527
神仙	-10.3528
之禍	-10.3529
為重	-10.3536
夏月	-10.3545
法也	-10.3553
孛羅	-10.3557
却有	-10.356
體也	-10.3565
丁日	-10.357
小滿	-10.357
亡地	-10.3577
曇瑩曰	-10.3577
原本	-10.3586
乃為	-10.3598
其地	-10.3606
年正月	-10.3607
四廢	-10.3608
八十五	-10.3613
入太微	-10.3613
初一	-10.3615
有人	-10.3618
禦	-10.3626
廉	-10.3626
欽定四庫全書	-10.3626
標	-10.3628
變色	-10.3628
凍	-10.3629
順逆	-10.363
鼔	-10.363
驚蟄	-10.3633
介	-10.3633
協	-10.3633
鑿	-10.3635
經辰之	-10.3635
靡	-10.3635
驚恐	-10.3636
無功	-10.3643
丨吉	-10.3644
十二分	-10.3645
五音	-10.3646
淺深	-10.3649
落空亡	-10.3654
康節	-10.3656
第七	-10.366
大暑	-10.3661
四餘	-10.3664
辛戌	-10.3665
庚申辛酉	-10.3668
末𫝊	-10.3676
道之	-10.3679
選擇	-10.3681
逆順	-10.3683
正財	-10.3685
生火	-10.369
月徳	-10.3692
惡煞	-10.3696
厨	-10.3697
郄萌曰客星入	-10.3702
以象	-10.3704
主本	-10.3705
于天	-10.3711
同居	-10.3714
六庚	-10.3715
發於	-10.3719
奔走	-10.3722
數者	-10.3727
不易	-10.3733
其體	-10.3733
寅加	-10.3735
疾疫	-10.3737
風憲	-10.3741
地中	-10.3744
晝見	-10.3747
其主	-10.375
九分	-10.3753
大梁	-10.3755
飲	-10.3756
不息	-10.3757
中氣	-10.3764
之職	-10.377
限行	-10.3771
寜	-10.3774
賀	-10.3775
而去	-10.3777
犀	-10.3778
七十八	-10.378
對宫	-10.378
導	-10.3781
家宅	-10.3781
噐	-10.3783
倉庫	-10.3784
翰林	-10.3784
枉	-10.3785
中傳	-10.3786
像	-10.3787
髮	-10.3787
寺	-10.3788
豐隆	-10.3789
日以	-10.3792
訛	-10.3792
霸	-10.3794
天心	-10.3799
為母	-10.3801
是知	-10.3801
尊卑	-10.3804
斗建	-10.3806
酉月	-10.381
絶嗣	-10.3811
守照	-10.3816
無依	-10.3817
所屬	-10.3817
木氣	-10.3818
水中	-10.3821
月值	-10.3824
成名	-10.3826
盜賊	-10.3827
道不通	-10.3831
潤下	-10.3837
隂生	-10.3842
戌月	-10.3842
從魁	-10.3843
玉女	-10.3849
言語	-10.3854
照臨	-10.3855
始生	-10.3861
命同	-10.3864
多有	-10.3867
遇火	-10.3875
七十九	-10.3878
天機	-10.3879
成家	-10.3882
八專	-10.3885
自是	-10.3888
分離	-10.3889
豈能	-10.3901
日建	-10.3909
合照	-10.391
地數	-10.3915
月内	-10.3916
之事也	-10.3916
武王	-10.3919
不居	-10.3921
歸禄	-10.3924
古之	-10.3929
次二	-10.393
所忌	-10.3934
刪	-10.3936
疏	-10.394
濛	-10.3941
重見	-10.3942
其為	-10.3943
披	-10.3943
恵	-10.3946
筆	-10.3946
孛計	-10.3947
期不出三年	-10.3947
藩	-10.3949
淮南子曰	-10.3949
韻	-10.395
優	-10.395
𢎞	-10.3951
羙	-10.3952
僅	-10.3953
須是	-10.3954
相攻	-10.3955
填實	-10.3957
野獸	-10.396
得用	-10.396
翕	-10.396
艱難	-10.3964
無常	-10.3976
清濁	-10.3978
之人也	-10.398
六辛	-10.398
以至	-10.3982
為木	-10.3982
術士	-10.3985
過房	-10.3994
明也	-10.3995
子上	-10.3995
之辰也	-10.4
助之	-10.4004
求官	-10.4015
文曜鈎曰	-10.4018
子平	-10.4024
得財	-10.4027
獨行	-10.4028
然而	-10.403
六百	-10.4031
為體	-10.4036
之徳	-10.4039
入卦	-10.4046
不堪	-10.4054
坤申	-10.4056
於寅	-10.406
鎮星	-10.406
無道	-10.4061
此論	-10.4062
第十	-10.4073
生來	-10.4073
一隂	-10.4103
於中	-10.4105
不出一年	-10.4106
和氣	-10.4107
上文	-10.4107
無妨	-10.4108
后妃	-10.4109
臂	-10.4111
競	-10.4111
壅	-10.4112
訂訛	-10.4112
卓	-10.4113
四利三元	-10.4113
懸針	-10.4113
鳳	-10.4113
盲	-10.4116
駁雜	-10.4117
迭	-10.4117
從之	-10.412
箭	-10.412
金木水火土	-10.4122
其方	-10.4124
唱	-10.4126
强弱	-10.4126
天庫	-10.4127
金牛	-10.4132
相當	-10.4139
蠶官	-10.4142
九三	-10.4143
石氏曰熒惑守	-10.4147
為旱	-10.4147
卒子	-10.4148
下臨	-10.4149
本是	-10.4149
填星守	-10.4149
支神	-10.415
八十八	-10.4153
與天	-10.4155
之應也	-10.4162
取象	-10.4164
不食	-10.4168
觜觹	-10.4169
酉戌	-10.4176
震巽	-10.4177
又占曰	-10.4178
者天	-10.4179
造化之	-10.4181
交互	-10.4183
為灾	-10.4184
不可不	-10.4184
男女宫	-10.419
和合	-10.4193
七十三	-10.42
三尺	-10.4205
者言	-10.4209
虚危	-10.4212
無禮	-10.4214
亦宜	-10.4216
日合	-10.422
一變	-10.4222
允	-10.4224
六戊	-10.4226
舊本	-10.4228
輝	-10.4228
夫子	-10.4233
相宜	-10.4235
有竒	-10.4245
大陵	-10.4245
而又	-10.4246
生也	-10.4248
難得	-10.4253
為子	-10.4254
七十七	-10.4255
天德	-10.4255
夫星	-10.426
乙為	-10.426
無益	-10.4263
鵲	-10.4266
銅	-10.4266
綂	-10.4272
翁	-10.4273
京房易傳曰	-10.4274
夷狄	-10.4275
陽而	-10.4277
丙丁日	-10.4277
卵	-10.4279
獵	-10.4279
破敗五鬼	-10.4279
袁	-10.4279
讀	-10.428
稀	-10.428
圖書	-10.428
家性爲	-10.428
地以	-10.4281
弊	-10.4282
晋	-10.4282
硬	-10.4283
餘氣	-10.4284
四千三百二十	-10.429
浸	-10.4292
寧按	-10.4294
南至	-10.4295
五墓	-10.43
不可得	-10.4306
不入	-10.4313
日刑	-10.4315
蠶命	-10.4317
天官	-10.4322
彗孛	-10.4324
夘加	-10.433
羽林	-10.4334
三三	-10.4335
四煞	-10.4337
去極	-10.4342
八方	-10.4344
青色	-10.4345
本位	-10.4349
欲知	-10.4351
其事	-10.4354
加亥	-10.4354
則知	-10.4357
登明	-10.4357
屏	-10.4357
甲卯	-10.4364
須防	-10.4366
大凡	-10.4368
隂貴人	-10.4369
九四	-10.4371
不仁	-10.4374
又見	-10.4376
必以	-10.4384
五合	-10.4385
太元	-10.4385
文星	-10.4389
四宫	-10.4401
忌曜	-10.4404
入傳	-10.4404
午戌	-10.4405
乘之	-10.4407
火也	-10.441
陽貴人	-10.4411
災殃	-10.4417
全無	-10.4418
木之	-10.4421
其身	-10.4424
重則	-10.4426
隂也	-10.4432
有聲	-10.4433
突	-10.4438
德合	-10.4439
偹	-10.444
狄	-10.4445
價	-10.4446
蚓	-10.4446
驟	-10.4449
期不出年	-10.445
瘡	-10.4451
連珠	-10.4455
匪	-10.4456
躁	-10.4456
黄幡	-10.4457
之嵗	-10.446
天命	-10.446
士卒	-10.4462
週	-10.4462
及其	-10.4462
而不知	-10.4467
寒露	-10.4468
小而	-10.4469
貧寒	-10.447
先天圖	-10.4471
萬物不成	-10.4471
血光	-10.4474
此四	-10.4475
歳運	-10.4483
人心	-10.4485
一物	-10.4487
未必	-10.4495
天醫	-10.4502
不去	-10.4502
天柱	-10.4513
合格	-10.4514
不化	-10.4515
命限	-10.4519
只有	-10.4523
限主	-10.4524
各自	-10.4524
有土功	-10.4527
罡	-10.4539
寅戌	-10.4542
台	-10.4544
無制	-10.4548
相近	-10.4552
之半	-10.456
隂人	-10.4568
此人	-10.4574
變易	-10.4574
皇帝	-10.4578
尅子	-10.4581
雖是	-10.4582
燭	-10.4584
未宫	-10.4585
煞神	-10.459
六十九	-10.4591
煞旺	-10.4591
形也	-10.4595
譽	-10.46
入局	-10.4603
荆州占曰月暈	-10.4605
天雨	-10.4607
汝	-10.4609
難星	-10.4615
壘	-10.4619
皆得	-10.4619
太白守	-10.462
齋	-10.4622
則不能	-10.4623
啟	-10.4625
針	-10.4626
冇	-10.4626
乎天	-10.4627
屢	-10.4628
驕	-10.4628
蟾	-10.463
訓	-10.4632
嬴	-10.4632
夀星	-10.4633
考原曰	-10.4635
絀	-10.4636
尤妙	-10.4636
經緯	-10.4643
亨通	-10.4645
卜筮	-10.4647
福夀	-10.4655
無禄	-10.4658
洛書曰	-10.4661
必須	-10.4661
有赦	-10.4666
氣者	-10.4676
乙辰	-10.4677
六六	-10.4679
長短	-10.4682
大飢	-10.4682
否則	-10.4688
守命	-10.4697
從革	-10.4698
終是	-10.4699
也是故	-10.4701
生人見	-10.4701
卯月	-10.4702
土金	-10.4704
初六	-10.4708
之候	-10.4716
也又如	-10.4718
雜氣	-10.4723
子月	-10.4733
天河	-10.4739
六宫	-10.474
有制	-10.4744
也天	-10.4747
言也	-10.475
不齊	-10.4753
學士	-10.4766
形如	-10.4768
尅破	-10.4769
奈	-10.4774
尤為	-10.4775
鐘	-10.4779
鸞	-10.4788
蘭	-10.479
腐	-10.4792
敏	-10.4792
瓦	-10.4794
阜	-10.4794
三限	-10.4794
䜛	-10.4794
且有	-10.4794
昴星	-10.4795
孽	-10.4796
劍	-10.4797
宏	-10.4798
坐煞向煞	-10.4799
冷	-10.48
生數	-10.48
期六十日	-10.4801
透出	-10.4805
小雪	-10.4813
表裏	-10.4815
有成	-10.4818
他鄉	-10.4819
視其	-10.482
行也	-10.4824
貴命	-10.4825
九醜	-10.483
有吉星	-10.4839
房心	-10.4839
之君	-10.4843
者吉	-10.4847
洛陽	-10.4851
决主	-10.4854
以三	-10.4854
於内	-10.4855
當為	-10.4857
九十八	-10.4865
辰加	-10.4865
稱王	-10.4875
視之	-10.4876
七十四	-10.4879
相同	-10.4879
日光	-10.4881
其時	-10.4882
性命	-10.4888
生意	-10.489
司徒	-10.4892
二七	-10.4893
皆然	-10.4897
者天之	-10.4898
而見	-10.4899
寅午戌月	-10.49
舉兵	-10.4904
定其	-10.4907
偏正	-10.4911
是主星	-10.4916
可也	-10.4916
今人	-10.4918
見財	-10.4922
彩	-10.4923
總論	-10.4924
一周天	-10.4928
照命	-10.4932
稷	-10.4935
胷	-10.4946
单	-10.4952
給	-10.4952
之書	-10.4953
極而	-10.4955
二八	-10.4956
無患	-10.4956
遞	-10.4958
霍	-10.4958
留守	-10.4964
為六	-10.4965
鏡	-10.4966
一説	-10.4966
白衣	-10.4968
一切	-10.4968
亮	-10.4969
而作	-10.4969
卷舌	-10.4974
緒	-10.4974
禱	-10.4974
鳩	-10.4976
紋者	-10.4976
謁	-10.4978
又占曰熒惑	-10.4979
烟	-10.498
叙	-10.498
仕宦	-10.498
採	-10.4981
田園	-10.4982
歴例曰	-10.4982
龍徳	-10.4983
䝉	-10.4983
一十	-10.4983
魁星	-10.4984
啓	-10.4984
亥宫	-10.4985
其他	-10.4996
婦女	-10.4997
倒食	-10.4998
計羅	-10.5012
土孛	-10.5013
一方	-10.5015
家之	-10.5016
八十二	-10.5018
羣隂	-10.5021
木金	-10.5023
子宫	-10.5024
數以	-10.5036
飛入	-10.5037
早年	-10.504
也盖	-10.5044
有八	-10.5047
未加	-10.5048
外有	-10.5067
人元	-10.5067
以致	-10.5077
地户	-10.5084
科甲	-10.5086
不實	-10.5087
則氣	-10.509
之論	-10.5093
囊	-10.5099
宫安命	-10.5106
八九	-10.5107
三辰	-10.5113
生木	-10.5113
過於	-10.5114
出走	-10.5116
天將	-10.5118
四隂	-10.5124
庚酉	-10.5126
蝗	-10.5129
媒	-10.5131
定吉凶	-10.5136
五五	-10.5136
郗萌曰月暈	-10.514
吹	-10.5143
二星在	-10.5144
橋	-10.515
旺則	-10.5151
軒	-10.5153
蓄	-10.5154
劣	-10.5155
鈇鑕	-10.5156
此之謂也	-10.5158
枕	-10.5158
屍	-10.5159
大兵起	-10.516
武職	-10.516
括	-10.516
黜	-10.5162
躬	-10.5162
諫	-10.5162
妹	-10.5163
打	-10.5164
哲	-10.5164
愆	-10.5165
恨	-10.5167
八十九	-10.5168
籌	-10.5169
州府	-10.5174
旺而	-10.5175
有大兵	-10.5178
二曰	-10.5178
叚	-10.518
酒食	-10.5182
戌宫	-10.5188
無實	-10.5194
二百七十	-10.52
如木	-10.5201
之世	-10.521
子位	-10.5213
健旺	-10.5214
玉井	-10.5215
酉上	-10.5216
太平	-10.5217
受其	-10.5217
執法	-10.5217
時干	-10.5219
巳酉	-10.5223
水金	-10.5232
又占曰熒惑守	-10.5237
興隆	-10.524
為身	-10.5242
福壽	-10.5245
為佳	-10.5245
來者	-10.5245
十八日	-10.525
八百	-10.5252
山水	-10.5254
郗萌曰熒惑入	-10.5257
福神	-10.5259
不好	-10.526
豈有	-10.5263
申子	-10.5265
地上	-10.5267
一品	-10.5267
更無	-10.5267
用起	-10.5268
淮南	-10.5268
相得	-10.5275
其用	-10.5283
南門	-10.5285
巽巳	-10.5286
以金為	-10.5287
入首	-10.5288
本身	-10.5299
天下兵起	-10.5305
止有	-10.5309
或如	-10.5309
其光	-10.531
合局	-10.5311
出門	-10.5313
三曰	-10.5319
方也	-10.532
鄧	-10.5329
九二	-10.533
傅	-10.5331
曾	-10.5333
稻	-10.5335
便為	-10.5336
撫	-10.5336
尹	-10.534
星紀	-10.5341
講	-10.5342
木土	-10.5344
潰	-10.5345
飽	-10.5346
故其	-10.5346
寓	-10.5347
暗昧	-10.5348
鄰	-10.5348
霜降	-10.5349
姜	-10.535
尅山家	-10.5351
見則	-10.5354
宿從位降	-10.5358
小暑	-10.536
貧夭	-10.536
反吟	-10.5363
以水為	-10.5367
所指	-10.5372
列宿	-10.5372
身居	-10.5373
地道	-10.5373
或在	-10.5375
為父	-10.5375
發達	-10.5376
不止	-10.5376
注云	-10.5378
位也	-10.5381
休廢	-10.5386
不戰	-10.5393
右轉	-10.5393
陽極	-10.5403
命者	-10.5404
五緯	-10.5405
動静	-10.5408
道理	-10.5415
成王	-10.5417
天闗	-10.5421
改正	-10.5427
將有	-10.543
石氏曰太白守	-10.5436
一周	-10.5437
則一	-10.5438
忌之	-10.5443
從來	-10.5447
以次	-10.5455
破家	-10.5457
能生	-10.5477
所宜	-10.5479
輕則	-10.5482
止於	-10.5485
人身	-10.5488
同度	-10.5492
與人	-10.5495
分别	-10.5498
天皇	-10.5498
刑煞	-10.5498
多者	-10.5501
之相	-10.5506
的煞	-10.5509
逄之	-10.5511
米	-10.5512
桂	-10.5512
匈奴	-10.5519
亷	-10.5519
囘	-10.5522
棺	-10.5525
濫	-10.5526
弑其君	-10.5526
太蔟	-10.5528
社稷	-10.553
璣	-10.553
通天竅	-10.5531
勞苦	-10.5531
石氏曰填星	-10.5533
水火土石	-10.5533
臭	-10.5534
稼穡	-10.5534
㡬	-10.5535
函	-10.5538
廓	-10.5539
同躔	-10.5539
昻	-10.554
氣運	-10.5541
拂	-10.5543
修方凶	-10.5552
此等	-10.5552
兵革	-10.5552
北河	-10.5555
子日	-10.5556
帝旺	-10.5559
剛日	-10.5561
財鄉	-10.5563
盪	-10.5563
隔角	-10.5565
百一十	-10.5575
而明	-10.558
巳月	-10.5581
而取	-10.5583
㑹合	-10.5585
以知	-10.5588
加申	-10.5601
天理	-10.561
法令	-10.5612
生而	-10.5615
藏於	-10.5617
丑宫	-10.562
渾天	-10.5621
赤氣入	-10.5621
大兵	-10.5626
八十六	-10.563
有大䘮	-10.5645
出軍	-10.5645
入于	-10.5651
八節	-10.5661
日害	-10.5668
火神	-10.5675
用財	-10.5677
弧	-10.5677
然也	-10.568
之機	-10.5684
五帝	-10.5693
偃	-10.5693
西行	-10.5695
丑加	-10.5699
屬隂	-10.5701
土旺	-10.5705
七宿	-10.5707
棟	-10.5708
枉矢	-10.5709
閑極	-10.5709
圜	-10.5713
姬	-10.5716
殘疾	-10.5717
跌	-10.5717
桃	-10.5719
譬	-10.572
奔波	-10.572
穏	-10.5722
祝	-10.5723
三合後方	-10.5723
三合前方	-10.5724
答曰	-10.5725
攸	-10.5725
況	-10.5726
祚	-10.5727
敎	-10.5728
一本	-10.5728
溝	-10.5728
闊	-10.5728
區	-10.573
怯	-10.573
歎	-10.573
不作	-10.5731
九九	-10.5733
相反	-10.5734
擒	-10.5735
事多	-10.5735
辛苦	-10.5739
九十九	-10.5741
雌雄	-10.5742
王侯	-10.5743
城郭	-10.5743
下賊上	-10.5749
甲辰乙巳	-10.5749
則貴	-10.5756
七爲	-10.5757
陽明	-10.5759
於前	-10.576
九十二	-10.5764
動則	-10.5764
敷	-10.5772
地而	-10.5773
之權	-10.5775
天府	-10.5777
黄鐘	-10.5778
有理	-10.5779
正氣	-10.578
隂建	-10.5792
成形	-10.5792
比和	-10.5797
申月	-10.58
白露	-10.58
芒角	-10.5803
主命	-10.5803
亥未	-10.5803
相侵	-10.5809
妻兒	-10.5813
方是	-10.5813
隂徳	-10.5815
金紫	-10.5816
上弦	-10.5819
若守	-10.582
純隂	-10.5822
亥中	-10.5828
隂極	-10.5835
體數	-10.5835
本於	-10.5835
死生	-10.5837
不知其	-10.5838
陽生	-10.5842
今按	-10.5843
丁為	-10.5845
此名	-10.5849
四四	-10.5855
自此	-10.5857
不怕	-10.5863
丞	-10.5864
二百二十	-10.5866
十有二	-10.5867
未能	-10.5884
相隨	-10.5885
出西方	-10.5888
旺處	-10.5895
之神也	-10.59
二百九十	-10.5901
参	-10.5905
望之	-10.5907
下弦	-10.5907
跛	-10.5911
席	-10.5911
三隂	-10.5913
宋均曰	-10.5914
優游	-10.5916
運斗樞曰	-10.5916
評	-10.5918
蜂	-10.592
江河	-10.592
覽	-10.592
腫	-10.5921
期百八十日	-10.5921
輔弼	-10.5923
四肢	-10.5925
㝠	-10.5927
者所以	-10.5929
頌	-10.5934
不遂	-10.5934
不與	-10.5935
極則	-10.5937
珞琭子	-10.5937
在天為	-10.594
五嶽	-10.594
從此	-10.5942
其鄉	-10.5943
其本	-10.5944
所出	-10.5944
丨災	-10.5951
次第	-10.5954
無差	-10.5957
愚謂	-10.5958
終不	-10.5958
經星	-10.596
夘為	-10.5961
午宫	-10.5962
大如	-10.5965
不善終	-10.5967
癸為	-10.5968
朔日	-10.5971
亦得	-10.5972
馬生人	-10.5982
天有	-10.5982
禮樂	-10.5986
雙女	-10.5986
各得	-10.5992
大參	-10.5994
亦須	-10.5996
砂水	-10.5998
又何	-10.6
圖曰	-10.6001
以道	-10.6006
其象	-10.6007
而起	-10.6007
刑星	-10.6012
二卷	-10.6013
冬至後	-10.6014
逢火	-10.6015
隨時	-10.6017
變通	-10.6019
當年	-10.602
髙強	-10.6025
餘倣此推	-10.6027
火居	-10.6029
在北	-10.6035
戌上	-10.6037
之命也	-10.6038
二六	-10.6044
災煞	-10.6049
金多	-10.6063
殺人	-10.6065
後人	-10.6071
為印	-10.6074
朝陽	-10.6078
上下相	-10.6079
京氏曰日	-10.6081
吉㓙	-10.6089
官宫	-10.6091
不義	-10.6093
在東	-10.6093
九十三	-10.6095
不須	-10.6095
不備	-10.6097
在日	-10.61
度數	-10.6101
未來	-10.6102
劫	-10.6107
彭	-10.6107
蛟	-10.6109
日馬	-10.6111
飄	-10.6111
天以	-10.6115
一丈	-10.6116
董	-10.6116
郷	-10.6116
佑	-10.6117
煙	-10.6118
走馬六壬神后	-10.6118
誣	-10.6119
碍	-10.6119
慕容	-10.612
鶉首	-10.612
璚	-10.612
澄	-10.6121
立成	-10.6121
奚	-10.6124
趣	-10.6125
立向凶	-10.6126
更在	-10.6128
得火	-10.6129
采	-10.613
在東方	-10.6132
石氏曰辰星	-10.6134
實沈	-10.6135
大雨	-10.6135
正也	-10.6139
隂主	-10.6139
安縣	-10.614
之家	-10.6142
天苑	-10.6144
所用	-10.6153
獲福	-10.6159
江湖	-10.6159
天地人	-10.6159
三百六十日	-10.6161
輩	-10.6164
吉日	-10.6168
理也	-10.617
甲子乙丑	-10.6176
之體乃	-10.6183
九十七	-10.6188
可知矣	-10.6192
逢空	-10.6193
利名	-10.6196
在南	-10.6198
分數	-10.62
也謂	-10.6205
豈可	-10.6206
病死	-10.6207
占人	-10.6208
天關	-10.6209
日鬼	-10.6213
黒色	-10.6214
衆人	-10.6214
可取	-10.6218
此數	-10.622
所見	-10.6229
天紀	-10.6231
第八	-10.624
胎月	-10.6242
有大水	-10.6247
平地	-10.6253
酉亥	-10.6254
旺鄉	-10.626
地有	-10.626
萬人	-10.6261
定位	-10.6261
天禄	-10.6264
而能	-10.6267
反吉	-10.6273
福力	-10.6275
陽宫	-10.6275
大火	-10.6277
小者	-10.6279
地理	-10.6284
不久	-10.6284
榮顯	-10.6287
男命	-10.6291
加酉	-10.6292
生金	-10.6293
局中	-10.6295
坎為	-10.6295
圭	-10.6299
天棓	-10.6299
利用	-10.6305
二五	-10.6306
高强	-10.6306
四五	-10.6306
卯加	-10.6311
星明	-10.6312
以日	-10.6312
無所不	-10.6315
伊	-10.6316
卯未	-10.6317
棲	-10.6318
婢	-10.6318
六三	-10.6319
不惟	-10.6319
績	-10.632
冰	-10.6322
馮	-10.6323
塲	-10.6323
儉	-10.6323
開山凶年	-10.6324
鋭	-10.6325
遍	-10.6326
範	-10.6327
不雨	-10.6328
巳未	-10.6329
交加	-10.6332
岡	-10.6334
洎	-10.6335
上克下	-10.6335
易云	-10.6336
聖賢	-10.6337
嵗破	-10.6349
日有	-10.635
甲子日	-10.6353
註云	-10.6357
所作	-10.6359
客星出	-10.636
一際	-10.636
亦同	-10.6366
官至	-10.6367
三八	-10.6376
十三年	-10.6376
落空	-10.6377
不起	-10.6378
故自	-10.6384
堡	-10.6384
入中宫	-10.6385
國有憂	-10.6385
金氣	-10.6386
是年	-10.6389
星若	-10.6391
遷官	-10.6394
若夫	-10.6394
極於	-10.6395
以見	-10.6396
翼軫	-10.64
生逢	-10.64
不窮	-10.6402
義也	-10.6404
吉昌	-10.641
太初	-10.641
陰神	-10.641
月刑	-10.6411
之差	-10.6417
三奇	-10.6418
初三	-10.6418
夏生	-10.6425
明而	-10.6427
又五日	-10.6427
一一	-10.6429
廟堂	-10.643
等事	-10.643
太旺	-10.643
近貴	-10.6432
形而	-10.6433
兩頭	-10.6434
水流	-10.6436
生萬物	-10.6438
也詩曰	-10.6442
弑	-10.6444
陽徳	-10.6444
冬夏	-10.6445
其常	-10.6445
厠	-10.6446
在黄道内	-10.6446
大明	-10.645
遁得	-10.6452
以火為	-10.6453
帝覽嬉曰	-10.6466
火氣	-10.6473
權貴	-10.6474
無以	-10.6476
復生	-10.6476
三交	-10.6478
相害	-10.6482
所以為	-10.6486
又曰嵗星	-10.6488
有形	-10.6492
必能	-10.6494
最凶	-10.6503
若更	-10.6505
坐山	-10.6506
杓	-10.651
九流	-10.6514
當雨不雨	-10.6516
未上	-10.6518
更遇	-10.652
唐瞿曇悉達撰	-10.652
加寅	-10.6521
交易	-10.6522
三十年	-10.6524
憎	-10.6524
築	-10.6524
杵	-10.6524
普	-10.6525
齊伯曰	-10.6525
不絶	-10.6526
歛	-10.6529
朽	-10.653
提綱	-10.653
拙	-10.653
娼	-10.6531
備矣	-10.6531
様	-10.6531
石氏讚曰	-10.6531
二十四氣	-10.6532
捨	-10.6532
桀	-10.6532
摧	-10.6532
電	-10.6533
穢	-10.6533
鄴	-10.6534
如無	-10.6534
開山立向修方凶太	-10.6534
鶉火	-10.6534
加時	-10.6534
富貴雙全	-10.6534
闇	-10.6535
寂	-10.6536
滑	-10.6537
妨夫	-10.6541
中犯乗守	-10.6543
經營	-10.6546
人馬	-10.6547
譌	-10.6547
勝負	-10.6552
者死	-10.6564
交㑹	-10.6572
木也	-10.6574
三九	-10.6577
陽遁	-10.658
所得	-10.658
民流亡	-10.658
之屬	-10.6583
忠臣	-10.6583
未發	-10.6591
制化	-10.66
一百六十	-10.66
成帝	-10.6602
之類是也	-10.6603
大司馬	-10.6604
數而	-10.6607
大勝	-10.6609
俱貴	-10.6609
冬月	-10.6617
巫咸曰太白	-10.6619
可畏	-10.662
又主	-10.6621
流星抵	-10.6622
災禍	-10.6624
三代	-10.6624
戊為	-10.6624
賢人	-10.6625
民飢	-10.6627
主大貴	-10.663
六七	-10.6635
多少	-10.6639
干神	-10.6639
正西	-10.664
震為	-10.6642
年干	-10.6643
解元	-10.6645
三變	-10.6648
以來	-10.665
利害	-10.6655
如此則	-10.6656
成於	-10.6656
欲得	-10.6665
周子	-10.6666
大饑	-10.6666
吉利	-10.6667
申上	-10.6671
九十五	-10.6672
亦如	-10.6672
其名	-10.6678
則日	-10.6679
加之	-10.6684
諭	-10.6685
令星	-10.6686
禄元	-10.6693
生處	-10.6694
多招	-10.6697
初生	-10.6699
不宜見	-10.6701
七七	-10.6702
相望	-10.6707
本主	-10.6711
數曰	-10.6715
腰金	-10.6716
頃	-10.6716
飛來	-10.6725
陰人	-10.6729
虜	-10.6735
尉	-10.6735
㢘	-10.6736
握	-10.6737
匏𤓰	-10.6738
探	-10.6739
南行	-10.674
此又	-10.674
上起	-10.6741
之力	-10.6741
戲	-10.6742
貴禄	-10.6743
輸	-10.6744
幼	-10.6744
頸	-10.6744
藝術	-10.6744
昔王由是	-10.6745
二千	-10.6745
黄帝座	-10.6745
懦	-10.6747
闔	-10.6747
慕	-10.6748
元氣	-10.6748
匹	-10.6749
殊不知	-10.675
居家	-10.6752
東西南北	-10.6752
坐禄	-10.6752
昇	-10.6753
䟽	-10.6754
各有所	-10.6757
四者	-10.6758
黄帝占曰填星	-10.6759
別	-10.6762
寶光	-10.6762
光輝	-10.6764
於物	-10.6766
八八	-10.6768
則其	-10.6771
刑衝破害	-10.6771
所云	-10.6776
泣	-10.6776
不可言	-10.6777
星曜	-10.6783
動作	-10.6783
將星	-10.6785
夜貴	-10.6786
十六日	-10.6787
細推	-10.6788
可言	-10.6788
蛇虎	-10.6789
聚散	-10.6789
隕	-10.6791
孤辰	-10.6792
隨之	-10.6793
命也	-10.6799
能制	-10.6801
此煞	-10.6808
有土功事	-10.6823
商王	-10.6824
天體	-10.6826
不常	-10.6827
而發	-10.6828
術家	-10.6828
甲為	-10.6833
丈夫	-10.6833
人倫	-10.6838
一寸	-10.6839
時有	-10.6846
尅夫	-10.6846
矣此	-10.6856
有殃	-10.6859
小分	-10.6861
六二	-10.6862
天下大水	-10.6862
其子	-10.6862
寅辰	-10.6863
天星	-10.6868
旬中	-10.687
牛羊	-10.6872
財祿	-10.6872
甲乙日	-10.6875
又謂	-10.6875
文明	-10.6876
此書	-10.6881
重逢	-10.6881
至老	-10.6884
正直	-10.6884
溪	-10.6885
之勢	-10.6887
二刻	-10.6887
臨日	-10.6892
近臣	-10.6895
一體	-10.6896
五際	-10.6897
以時	-10.6904
小寒	-10.6904
小耗	-10.6906
行疾	-10.6907
不良	-10.6912
長女	-10.6913
恩星	-10.6916
加子	-10.6916
須看	-10.6918
見官	-10.692
是何	-10.692
槩	-10.6925
等日	-10.6926
也葢	-10.6929
河南	-10.693
疆	-10.6933
嵩	-10.6939
七百	-10.694
石勒	-10.6945
梗河	-10.6946
渠	-10.6947
其勢	-10.6947
擅	-10.6951
河鼓	-10.6954
窠	-10.6957
斧	-10.6957
欄	-10.6958
娘	-10.696
馴	-10.6962
蔭	-10.6962
創	-10.6964
九十四	-10.6964
鶉尾	-10.6965
夜生人	-10.6965
旌旗	-10.6965
蟄	-10.6966
㤗	-10.6967
胸	-10.6967
丸	-10.6967
牆	-10.6967
匡	-10.6968
壮	-10.6968
研	-10.6968
繼是謂	-10.6969
互垣	-10.697
王廷光曰	-10.697
這	-10.6971
無水	-10.6971
贊	-10.6972
也且	-10.6972
貴格云	-10.6973
巨富	-10.6974
嗚呼	-10.6974
苟	-10.6975
爲飛伏	-10.6977
顚	-10.698
大神	-10.6982
聲音	-10.6982
主妻	-10.6983
於心	-10.6988
正南	-10.6989
歲枝	-10.6989
死敗	-10.6992
赤氣	-10.6994
亦難	-10.6994
人間	-10.6996
三者	-10.6998
山縣	-10.6998
荆州占曰嵗星	-10.7001
凶禍	-10.7001
之用也	-10.7005
以命	-10.7005
昭明	-10.7006
兩儀	-10.702
青雲	-10.7023
缺陷	-10.7025
天願	-10.7027
十八年	-10.7028
攷	-10.7033
故爲	-10.7034
上生	-10.7041
何謂	-10.7049
建除	-10.705
竒偶	-10.7051
故能	-10.7054
有六	-10.7056
不熟	-10.7058
矣然	-10.7063
為陰	-10.7071
降婁	-10.7073
月日	-10.7075
若非	-10.708
耳目	-10.7082
俟	-10.709
兵死	-10.7093
慾	-10.7094
一爻	-10.7094
衰敗	-10.7098
破軍	-10.7099
亦不能	-10.7099
逢財	-10.71
不逺	-10.71
叠	-10.7101
此亦	-10.7102
漢中	-10.7105
木盛	-10.7106
俱在	-10.7107
一百五十	-10.7108
其北	-10.7114
荆州占曰填星	-10.7115
邦國	-10.7115
火月	-10.7117
殆	-10.7123
終也	-10.7124
命逢	-10.7129
專政	-10.7135
福厚	-10.7138
暗合	-10.7139
之厄	-10.7141
詳之	-10.7143
喜行	-10.7146
破散	-10.7147
不待	-10.7151
春月	-10.7151
在人	-10.7152
不能自	-10.7154
皆自	-10.7157
制煞	-10.716
由此	-10.716
原守	-10.7162
虚實	-10.7164
山根	-10.7166
灌	-10.7167
毅	-10.7169
則必	-10.7172
喬	-10.7172
畔	-10.7172
夀夭	-10.7173
戚	-10.7173
未申	-10.7174
尼	-10.7176
歇	-10.718
惹	-10.718
甘氏曰熒惑	-10.718
畨	-10.7181
虐	-10.7182
熙	-10.7184
擢	-10.7184
効	-10.7184
趾	-10.7186
坑	-10.7187
知之	-10.7188
酌	-10.7188
洎此宮	-10.7188
纎	-10.719
瞽	-10.7191
擁	-10.7192
命曰	-10.7192
主富	-10.7193
瑕	-10.7195
閣道	-10.7196
狼星	-10.7196
睡	-10.7199
十四年	-10.72
在乎	-10.7201
干犯	-10.7209
有火	-10.7213
星入命	-10.7217
尅日	-10.7218
稱意	-10.7218
亦當	-10.7218
寅木	-10.7221
其分	-10.7223
五爲	-10.7224
不取	-10.7224
地閣	-10.7225
六氣	-10.7228
要知	-10.7228
前一位	-10.723
二尺	-10.7233
四隅	-10.7234
動者	-10.7235
甲寅乙卯	-10.724
隂謀	-10.724
其行	-10.7245
主政	-10.7247
為太尉	-10.7252
將兵	-10.7256
風從	-10.7259
災福	-10.7259
地平	-10.726
盛衰	-10.726
月朔	-10.726
刑破	-10.7262
衰旺	-10.7264
二百五十六	-10.7264
論其	-10.7269
又得	-10.7269
無一	-10.7274
類也	-10.7274
一百三十	-10.7276
性急	-10.7279
傷妻	-10.728
斗牛	-10.7288
求其	-10.7288
更看	-10.7293
以别	-10.7295
進神	-10.7295
年六月	-10.7296
注曰	-10.7298
百日	-10.7301
長者	-10.7301
身坐	-10.7302
多見	-10.7302
大義	-10.7304
信也	-10.7305
此命	-10.7306
自生	-10.7306
十一度	-10.7309
國亡	-10.7313
星不明	-10.7314
隂位	-10.7317
流星出	-10.7318
若生	-10.7318
最重	-10.7319
大海	-10.732
得水	-10.7322
同前	-10.7323
重權	-10.7323
甲申乙酉	-10.7325
坐之	-10.7327
古者	-10.7329
度半	-10.733
八門	-10.733
天文志曰	-10.7333
可知也	-10.7335
安得	-10.734
治之	-10.7341
吉丅	-10.7342
淪	-10.7343
十八度	-10.7345
安居	-10.7351
聚於	-10.7354
天吏	-10.7355
之正	-10.7358
察其	-10.7358
不得力	-10.7364
圓而	-10.7367
遇水	-10.737
帝崩	-10.7373
牀	-10.7381
有急	-10.7382
渡	-10.7386
勃	-10.7386
九坎	-10.7386
鴈	-10.7387
只為	-10.7388
是也如	-10.739
十六卦	-10.7393
不甚	-10.7394
壇	-10.7396
收日	-10.7397
支辰	-10.7398
難免	-10.7401
伍	-10.7403
汚	-10.7404
膏	-10.7406
橫	-10.7407
顛倒	-10.7409
僉憲	-10.7409
陞	-10.741
酷	-10.741
閭	-10.7411
勞碌	-10.7412
陽數	-10.7412
鈍	-10.7413
惜	-10.7414
歷	-10.7415
喉	-10.7415
一百四十	-10.7416
罕	-10.7416
旨	-10.7416
鳯凰	-10.7416
堆	-10.7417
臻	-10.7417
寢	-10.7418
𫝊送	-10.7418
六辛日	-10.7421
麤	-10.7421
矩	-10.7422
状	-10.7423
洪潤	-10.7424
枝葉	-10.7426
征伐	-10.7428
嵗君	-10.743
祖宗	-10.7433
發明	-10.7435
大槩	-10.7438
前程	-10.7439
貧薄	-10.7439
天火	-10.744
於後	-10.744
五常	-10.744
其禍	-10.7442
離為	-10.7444
中分	-10.7446
諧	-10.7448
離宫	-10.7449
孤尅	-10.7451
陰私	-10.7453
程子	-10.7453
通變	-10.7457
宦者	-10.7457
戰不勝	-10.7461
君王	-10.7464
第九	-10.7464
星占三	-10.7468
此三	-10.7469
以十二	-10.7471
下生	-10.7474
其言	-10.7479
而知	-10.7479
水生	-10.748
登科	-10.7481
通書曰	-10.7482
其書	-10.7483
不受	-10.7483
二十七日	-10.7484
今測	-10.7484
之源	-10.7484
夾拱	-10.7489
氣候	-10.7489
故易	-10.7492
太公	-10.7492
閉日	-10.7492
戌中	-10.7496
二爻	-10.7497
失勢	-10.7498
權星	-10.7509
生扶	-10.7511
眼目	-10.7511
先生曰	-10.752
之色	-10.7525
月德	-10.7528
文公	-10.7529
一命	-10.7531
存乎	-10.7535
六十甲子	-10.7536
坤為	-10.7538
遁甲	-10.7541
中正	-10.7552
積水	-10.7553
壬申癸酉	-10.7553
形體	-10.7558
兵權	-10.756
同論	-10.7562
合化	-10.7562
盛也	-10.7563
小餘	-10.7566
發生	-10.7567
遲疾	-10.7569
有傷	-10.7573
不救	-10.7575
者以其	-10.7577
經世	-10.7583
天子之	-10.7587
刑獄	-10.759
辛為	-10.7591
天地間	-10.7592
震之	-10.7594
其凶	-10.7595
五不	-10.7597
太極之	-10.7598
無餘	-10.7599
土宿	-10.7602
之文	-10.7603
邵	-10.7617
斗柄	-10.7617
皆從	-10.7618
兵出	-10.7623
無故自	-10.7623
陽建	-10.7624
冬生	-10.7625
松	-10.7629
天槍	-10.7633
蒲	-10.7635
欲其	-10.7635
鈞	-10.7639
石氏讃曰	-10.764
𤣥枵	-10.764
攘	-10.764
是書	-10.7641
以四	-10.7642
市賈	-10.7642
叢	-10.7644
積尸	-10.7644
无咎	-10.7645
艱辛	-10.7645
涸	-10.7646
丑戌	-10.7646
寅申己亥	-10.7646
藴	-10.7646
㦸	-10.7648
隄防	-10.7648
生財	-10.7649
買	-10.765
尚有	-10.765
㕘	-10.765
占訟	-10.7659
屯之	-10.7659
四爲	-10.766
六癸	-10.766
十五年	-10.7661
者名曰	-10.7662
蓍龜	-10.7663
即以	-10.7665
解神	-10.7667
日用	-10.7668
無凶	-10.767
生于	-10.767
四刻	-10.7676
刪去	-10.7681
家道	-10.7684
在已	-10.7686
民人	-10.7693
一歲	-10.7694
嵗駕	-10.7699
王莽	-10.7699
若與	-10.77
戮死	-10.7701
八風	-10.7703
酉金	-10.7705
中藏	-10.7705
地方	-10.7707
嵗月	-10.7711
天街	-10.7711
何所	-10.7713
謹按	-10.7713
時臨	-10.772
難成	-10.7721
皆言	-10.7722
在此	-10.7734
諸煞	-10.7737
天首	-10.7738
亦自	-10.7743
一半	-10.7745
值之	-10.7746
心腹	-10.7746
及第	-10.7752
為隂陽	-10.7754
坤乙	-10.7756
寅中	-10.7759
而在	-10.7762
天厨	-10.7765
風雲	-10.7765
荆州占曰熒惑守	-10.7766
而東	-10.7769
書云	-10.7771
文字	-10.7772
九百	-10.7775
入東井	-10.7775
謀事	-10.7776
不滿	-10.7777
三百二十	-10.7779
八爲	-10.7781
襄王	-10.7784
官居	-10.779
有憂若	-10.7791
兩宫	-10.7795
而退	-10.7802
相從	-10.7805
太一	-10.7806
巳丑	-10.7808
四際	-10.781
莫能	-10.7813
荆州占曰辰星	-10.7814
正垣	-10.7814
端門	-10.7815
不能生	-10.7816
來尅	-10.7816
相資	-10.7816
正當	-10.7818
滿用	-10.7819
貴乎	-10.782
必見	-10.7826
各以其	-10.7829
一十五	-10.7832
成都	-10.7837
山向	-10.7838
重者	-10.7841
者歟	-10.7842
為性	-10.7843
救助	-10.7847
而實	-10.7848
官鄉	-10.785
朝元	-10.7854
孝武	-10.7855
之聲	-10.7859
其室	-10.786
有兩	-10.7862
乎其	-10.7862
戀	-10.7862
而進	-10.7863
踐	-10.7866
嵗星入	-10.7867
皷	-10.7867
謀反	-10.7867
一行	-10.7868
見貴	-10.7868
軟	-10.7872
盧	-10.7873
布帛	-10.7875
玉厯曰	-10.7876
祈	-10.7878
玩	-10.7879
百世	-10.7879
隴	-10.7879
軸	-10.788
宛	-10.788
涼	-10.7881
膺	-10.7881
􁁿	-10.7881
儲	-10.7883
粹	-10.7886
溫	-10.7886
拒	-10.7886
世子	-10.7886
衣服	-10.7888
平行	-10.7888
姑洗	-10.7888
利以	-10.7889
督	-10.7889
申亥	-10.789
朋友	-10.789
挺	-10.7891
羲	-10.7892
術數類	-10.7893
進而	-10.7893
河皷	-10.7894
附路	-10.7895
不嫌	-10.7895
長沙	-10.7895
匠	-10.7897
死囚	-10.7897
蒸	-10.7899
勉	-10.79
爪	-10.79
鑒	-10.7903
禄貴	-10.7904
前一辰	-10.7906
程子曰	-10.7906
宣王	-10.7907
門戸	-10.7912
所載	-10.7914
形神	-10.7915
他星	-10.7918
日下	-10.7919
財神	-10.792
朔望	-10.7922
晦朔	-10.7924
貴臣	-10.7924
憂患	-10.7926
庚辛日	-10.7928
大者	-10.7928
火炎	-10.793
陽神	-10.7933
時刻	-10.7938
運限	-10.7938
五隂	-10.7939
徃來	-10.7947
臣欲	-10.7948
臨照	-10.7948
失道	-10.7948
偏印	-10.7948
或見	-10.7948
羣臣	-10.7951
不顯	-10.7953
青黒	-10.7961
富有	-10.7964
居上	-10.7965
蒼龍	-10.7967
榮昌	-10.7971
子辰	-10.7972
者勝	-10.7984
作用	-10.7984
配之	-10.7984
問曰	-10.7987
寅巳	-10.799
三際	-10.7991
天地之數	-10.7992
八尺	-10.7994
歲徳	-10.7996
郄萌曰客星守	-10.7997
五氣	-10.7997
天氣	-10.7998
最要	-10.7999
順而	-10.8002
長年	-10.8003
卦之	-10.8006
得土	-10.8009
然亦	-10.801
二百三十	-10.8011
九六	-10.8014
諸侯有	-10.8018
氣從	-10.8018
遇火羅	-10.8024
次吉	-10.8026
而隂	-10.8036
甲乙丙丁	-10.8037
風流	-10.804
神氣	-10.8043
火多	-10.8044
死䘮	-10.8046
隋	-10.8046
三卷	-10.8047
出乎	-10.8047
上天	-10.805
歲刑	-10.8051
人相食	-10.8052
入南斗	-10.8053
十有八	-10.8059
其心	-10.8061
十二萬九千六百	-10.8061
或是	-10.8062
司天	-10.8063
運氣	-10.8072
故日	-10.8073
福氣	-10.8073
抽	-10.8073
黒道	-10.8074
遼	-10.8078
以理	-10.8079
又不	-10.8082
反是	-10.8083
始也	-10.8083
臣有謀	-10.8088
天尾	-10.809
臣謀主	-10.8091
者何也	-10.8095
為天地	-10.8097
敦	-10.8097
此即	-10.8098
者何	-10.8106
四六	-10.8109
之氣也	-10.8109
贅	-10.8111
柔日	-10.8111
上六	-10.8115
百八十	-10.8116
冊	-10.8117
雙魚	-10.8117
不已	-10.8119
一十二	-10.812
轄	-10.812
苖	-10.8121
欣	-10.8122
翰	-10.8122
无	-10.8123
大人當之	-10.8123
居其	-10.8123
迴	-10.8124
為賊	-10.8124
不逢	-10.8125
鞭	-10.8127
鬱	-10.8127
京氏	-10.8127
副使	-10.8128
年少	-10.8129
薪	-10.8131
産厄	-10.8131
涵	-10.8131
群	-10.8132
旌	-10.8132
猜	-10.8133
脊	-10.8133
束	-10.8135
覩	-10.8135
所由	-10.8136
查	-10.8138
田蠶	-10.8138
破蕩	-10.8139
仲春	-10.8143
乾坤之	-10.8143
相似	-10.8155
平日	-10.8155
義例	-10.8155
又無	-10.8158
深淺	-10.8161
凶將	-10.8166
六子	-10.8168
隂盛	-10.8169
乘旺	-10.8172
為命主	-10.8175
為九	-10.8176
之元	-10.8183
宰輔	-10.819
不可用	-10.8191
離祖	-10.8191
豐厚	-10.8192
晷長	-10.8196
六變	-10.8198
他宫	-10.8199
應在	-10.82
少㣲	-10.8203
石氏曰客星守	-10.8205
以待	-10.8206
午火	-10.8206
之所由	-10.8207
地網	-10.8207
取義	-10.8211
常居	-10.8214
六丙	-10.8218
生土	-10.8223
當頭	-10.8225
又遇	-10.8226
之墓	-10.8226
巳宫	-10.8227
而自	-10.8227
不能制	-10.8229
而推	-10.8241
十七度	-10.8242
牢獄	-10.8245
變也	-10.825
風雷	-10.825
六癸日	-10.8251
郄萌曰客星	-10.8253
星占十	-10.8254
五十日	-10.8257
喜事	-10.826
中外	-10.8263
胎元	-10.8263
乙辛	-10.8264
有亡國	-10.8266
七十日	-10.8268
相遇	-10.8269
為三	-10.8269
從其	-10.8273
申金	-10.8276
至今	-10.8278
多疾	-10.8283
更帶	-10.8283
天恩	-10.8284
大限	-10.8289
之府	-10.8292
無間	-10.8293
分隂陽	-10.8294
第二星	-10.8294
午日	-10.8295
日日	-10.8297
於子	-10.8299
終無	-10.83
則非	-10.8305
子母	-10.8307
邊兵	-10.831
午酉	-10.8312
為天之	-10.8317
金也	-10.8318
解之	-10.8319
好色	-10.8323
凖頭	-10.8326
黃帝占曰嵗星	-10.8327
火火	-10.8329
嵗中	-10.8333
其吉凶	-10.8334
變者	-10.8335
副	-10.8335
隂干	-10.8339
土多	-10.834
鬼賊	-10.8347
墓庫	-10.8349
斗魁	-10.8352
瀆	-10.8353
上總	-10.8353
綬	-10.8354
見庚	-10.8354
俾	-10.8356
誇	-10.8356
矛	-10.8359
九天	-10.8361
皆同	-10.8364
方成	-10.8364
斛	-10.8367
加未	-10.8368
終日	-10.8368
四千三百	-10.8369
耿	-10.8369
弔	-10.837
有德令	-10.8371
賢者	-10.8372
得所	-10.8372
羡	-10.8372
院	-10.8372
甄曜度曰	-10.8372
撃	-10.8373
長而	-10.8373
漫	-10.8374
天下兵	-10.8375
淨	-10.8376
堪輿經曰	-10.8377
神樞經曰	-10.8377
恰	-10.8377
袖中金	-10.8377
四十日	-10.8378
木木	-10.8379
羸	-10.8379
二至	-10.838
甫	-10.8381
另	-10.8382
確	-10.8383
秩	-10.8384
整	-10.8384
水神	-10.8386
七公	-10.8387
䖏	-10.8387
挾	-10.8388
𤣥齋曰	-10.8389
有小	-10.839
賢愚	-10.8392
留逆	-10.8393
上元甲子	-10.8394
土司空	-10.8395
昴畢	-10.8395
升殿	-10.8395
)(□/□)	-10.8396
天下多	-10.8398
萬五千	-10.84
壬癸亥子	-10.84
不雜	-10.8401
歲徳合	-10.8402
壠	-10.8402
公孫	-10.8404
厯例曰凡	-10.8407
又按	-10.8412
校官	-10.8412
近於	-10.8413
庫樓	-10.8414
有異	-10.8417
年四月	-10.8418
禽獸	-10.8418
加以	-10.8422
天船	-10.8422
其變	-10.8422
天人	-10.8422
大事	-10.8423
神也	-10.8426
而已矣	-10.8428
無非	-10.8429
運到	-10.843
四體	-10.843
筭得	-10.8433
二象	-10.8434
雲雨	-10.8437
亡也	-10.844
主夀	-10.8441
星戊	-10.8442
柔順	-10.8444
人主憂	-10.8448
謀望	-10.8451
救之	-10.8454
有大喪	-10.8458
一千	-10.8459
尅戰	-10.846
者無	-10.8463
位而	-10.8464
三百五十	-10.8465
隂私	-10.8468
明帝	-10.8474
有軍	-10.8476
而長	-10.8476
時則	-10.8478
年時	-10.8484
金金	-10.8484
盛則	-10.8487
四金	-10.8487
不可見	-10.8488
壬戌癸亥	-10.8494
其南	-10.8494
命身	-10.8495
而動	-10.8497
非惟	-10.8499
南河	-10.8501
騎官	-10.8503
不識	-10.8504
然其	-10.8521
以類	-10.8523
出其	-10.8526
盛而	-10.8527
二宿	-10.8529
更㸔	-10.8531
太尉	-10.8533
尤忌	-10.8536
為殃	-10.8549
隂道	-10.8558
開物	-10.8559
胎神	-10.8562
能知	-10.8563
而入	-10.8566
無火	-10.8567
艮丙	-10.8572
通於	-10.8573
卯宫	-10.8575
下為	-10.8576
此説	-10.858
以候	-10.8584
宫也	-10.8586
宫度	-10.8587
日則	-10.859
倣	-10.8592
九爲	-10.8593
百年	-10.8593
中下	-10.8597
始出	-10.8598
不可犯	-10.8604
巳巳	-10.8604
入此	-10.8606
五尺	-10.8607
出入留舍	-10.8608
郗萌曰嵗星守	-10.8608
夜將	-10.8609
靖	-10.8609
亭	-10.8615
不容	-10.8615
於五	-10.8617
一刻	-10.862
廵	-10.8621
不失其	-10.8623
靜而	-10.8624
百二十占曰	-10.8628
床	-10.8628
迍邅	-10.8629
蔀	-10.8629
錦	-10.8629
起者	-10.8629
稜	-10.863
壺中子云	-10.863
茅	-10.863
臧	-10.8631
糴大貴	-10.8631
鑄	-10.8631
三元紫白上元一白	-10.8631
义	-10.8632
日行一度	-10.8632
胥	-10.8633
怕逢	-10.8633
生尅制化	-10.8633
幷	-10.8634
嫩	-10.8634
淹	-10.8634
漢書	-10.8635
慝	-10.8636
窄	-10.8636
亾	-10.8637
女牀	-10.8637
崇勲	-10.8637
毋	-10.8637
晏	-10.8638
孫士毅	-10.8638
王死	-10.8638
昀	-10.8639
財旺生官	-10.8641
國易政	-10.8644
譬如	-10.8644
獐	-10.865
附耳	-10.8653
魂魄	-10.8653
豐盈	-10.8653
主富貴	-10.8654
火羅計孛	-10.8654
師于	-10.8656
一二三四	-10.8656
其國有	-10.8658
小星	-10.8659
虎狼	-10.8661
處暑	-10.8662
六際	-10.8664
三百三十	-10.8666
十四日	-10.8668
成立	-10.8669
白氣	-10.867
背禄	-10.8671
異姓	-10.8671
宫分	-10.8671
中星	-10.8673
一白	-10.8674
十十	-10.868
色黒	-10.8681
得金	-10.8682
庚午辛未	-10.8684
壬子癸丑	-10.8686
日禽	-10.8689
人以	-10.8695
賤人	-10.8696
修方	-10.8698
當作	-10.8699
為尊	-10.8703
能尅	-10.8704
丙寅日	-10.8708
金石	-10.8711
順布	-10.8716
大吕	-10.8717
不得其	-10.8719
書之	-10.8721
子加	-10.8721
國之	-10.8721
端正	-10.8724
喜怒	-10.8725
反主	-10.8725
大恭	-10.8726
日食	-10.8729
在西	-10.873
富而	-10.8736
星乙	-10.8737
金剛	-10.8741
火入	-10.8758
二二	-10.876
亦非	-10.8762
交差	-10.8763
成象	-10.8774
俱全	-10.878
十二位	-10.8785
作六合	-10.8785
人情	-10.8787
四七	-10.8788
因之	-10.8789
下元	-10.8796
街	-10.88
艮巽	-10.88
天下安	-10.8801
清秀	-10.8801
隂遁	-10.8803
古今同	-10.8806
天魁	-10.8809
在其中矣	-10.8809
以當	-10.881
陽中	-10.8816
莽	-10.8819
情性	-10.8824
有徳	-10.8829
不交	-10.8829
命在	-10.8834
事不	-10.8841
赤黄	-10.8843
坐貴	-10.8843
每月	-10.8845
未見	-10.8846
避之	-10.8846
害子	-10.8847
格縁	-10.8848
腸	-10.885
日宿	-10.8851
亦不可	-10.8852
相逄	-10.8853
不立	-10.8855
歲月	-10.8857
依此	-10.8859
為患	-10.886
尺二寸	-10.8862
丙丁火	-10.8863
相犯	-10.8864
惡弱	-10.8869
兼有	-10.8876
為客	-10.8877
黎	-10.8879
朗	-10.8885
聾	-10.8886
遇煞	-10.8887
曹操	-10.8888
之禄	-10.8888
膝	-10.8888
𤓰	-10.8888
跳	-10.8889
季月	-10.8889
滿日	-10.889
大要	-10.889
破軍殺將	-10.889
坐下	-10.8893
皇帝王伯	-10.8893
緊	-10.8894
有生	-10.8894
弟兄	-10.8897
淫泆	-10.8897
逞	-10.8897
慿	-10.8898
進人口	-10.8898
自來	-10.8898
靠	-10.8898
岸	-10.8899
七百二十	-10.8899
鬚	-10.89
不發	-10.8901
期三十日	-10.8901
雷電	-10.8902
失之	-10.8902
春夏秋冬	-10.8903
宇宙	-10.8905
吸	-10.8905
燋	-10.8907
游魂	-10.8908
星壬	-10.8908
月煞	-10.8909
寧縣	-10.8911
蟠	-10.8911
乾為	-10.8912
荆州占曰客星守	-10.8913
月以	-10.8915
化成	-10.8917
神靈	-10.8919
元首	-10.8919
又逢	-10.892
稍輕	-10.8921
在斗	-10.8921
伐鄭	-10.8922
其類	-10.8922
人不	-10.8924
不臨	-10.8926
大旺	-10.8931
四曰	-10.8931
歌云	-10.8933
上應	-10.8935
三合六合	-10.8936
右旋	-10.8937
遼東	-10.894
皇極	-10.8943
不一	-10.8944
不肯	-10.8946
少女	-10.8949
神將	-10.895
帶疾	-10.8952
有道	-10.8953
徒流	-10.8955
土氣	-10.8959
辰中	-10.8959
兩重	-10.8959
之異	-10.8964
甲戌乙亥	-10.8965
長男	-10.8969
之末	-10.8971
位居	-10.8973
難為	-10.8973
精氣	-10.8977
著於	-10.8978
東海	-10.8978
有印	-10.898
乘白虎	-10.8982
方吉	-10.8985
淫亂	-10.8989
兩府	-10.899
是月	-10.8993
巽辛	-10.8994
尤重	-10.8994
十六度	-10.8996
觜參	-10.9
伏藏	-10.9003
孤神	-10.9005
遇金	-10.9005
星度	-10.9009
甲生	-10.9013
喜逢	-10.9013
金生水	-10.9015
七宫	-10.9016
四星在	-10.902
執政	-10.9021
之灾	-10.9024
月支	-10.9025
陽道	-10.9026
有無	-10.9026
者天地之	-10.9027
䏻	-10.9028
而至	-10.9029
於未	-10.9032
五品	-10.9033
隂中	-10.9036
出外	-10.9036
空虚	-10.9038
則又	-10.9039
午中	-10.9041
重犯	-10.9041
夾貴	-10.9042
多因	-10.9042
孝服	-10.9043
之正位	-10.9044
者正	-10.9051
禄命	-10.9053
陽貴	-10.9054
己申	-10.9054
五寸	-10.9062
方能	-10.9064
星癸	-10.9075
不治	-10.9078
身命二主	-10.908
山頭	-10.9083
又值	-10.9085
水旱	-10.9086
日支	-10.9096
飛宫	-10.9098
子云	-10.91
王道	-10.9101
煞刃	-10.9102
文帝	-10.9109
平頭	-10.9111
定為	-10.9111
雨露	-10.9111
旺之地	-10.9114
三旬	-10.9116
獨立	-10.9117
件	-10.9118
星甲	-10.9123
主文章	-10.9123
世人	-10.9125
土神	-10.9126
出于	-10.9127
将軍	-10.913
尤凶	-10.9132
子年	-10.9134
對曰	-10.9134
貴在	-10.9135
苑	-10.9136
五陽	-10.9136
平生多	-10.9138
淡	-10.9143
王室	-10.9143
有慶	-10.9144
天樞	-10.9145
血氣	-10.9145
竇	-10.9151
之師	-10.9152
啞	-10.9155
伴	-10.9157
恤	-10.9158
艱	-10.9159
運中	-10.9161
䖝	-10.9162
鱗	-10.9163
狡	-10.9163
懶	-10.9163
室家	-10.9163
失度	-10.9164
蠻	-10.9164
九十日	-10.9164
成局	-10.9165
以八	-10.9165
蠢	-10.9166
豁	-10.9166
慘	-10.9166
濡	-10.9167
超羣	-10.9168
扶身	-10.9168
恊	-10.9168
肇	-10.9169
杪	-10.9169
等謹案	-10.917
肘	-10.9171
生水	-10.9171
逆而	-10.9171
煉	-10.9171
亦多	-10.9172
裔	-10.9174
概	-10.9174
因而	-10.9174
鬢	-10.9174
天五	-10.9175
黄泉	-10.9176
北河戍	-10.9176
刀砧	-10.9176
臍	-10.9177
虢	-10.9177
鎖	-10.9177
背祿	-10.9179
為次	-10.9183
减半	-10.9184
白羊	-10.9185
青赤	-10.9186
富貴榮華	-10.9187
其福	-10.9192
減力	-10.9192
萬九千	-10.9196
丙寅丁卯	-10.9197
期六月	-10.9198
若逄	-10.9199
大臣誅	-10.9199
學問	-10.92
支為	-10.9201
㑹之	-10.9202
倒限	-10.9205
孤寒	-10.9205
南吕	-10.9206
中五	-10.9209
壬辰癸巳	-10.9212
辰月	-10.9212
催	-10.9214
嵗星守	-10.9215
天廟	-10.9216
六甲日	-10.9217
相傷	-10.9219
黃帝占曰	-10.922
但得	-10.9223
相成	-10.9223
寅午戌火	-10.9224
數十	-10.9228
五曰	-10.9229
以爲	-10.9231
不具	-10.9231
之位也	-10.9232
與前	-10.9234
五不遇	-10.9234
縱然	-10.9237
之相也	-10.9238
郄萌曰	-10.9241
順數至	-10.9242
為福徳	-10.9244
火盛	-10.9246
赤氣出	-10.9246
中書	-10.9247
稱帝	-10.9248
母星	-10.9249
星宿	-10.925
者當	-10.925
三百八十	-10.9252
無尅	-10.9254
以兵	-10.9258
夀考	-10.926
輕清	-10.9262
三百八十四	-10.9262
外國	-10.9263
有災	-10.9263
秋月	-10.9264
入酉	-10.9267
而南	-10.9268
為禄主	-10.9268
制其	-10.927
相停	-10.927
如金	-10.9272
一十六	-10.9272
於天地	-10.9274
先王	-10.9276
天厠	-10.9276
錢財	-10.9278
千八十	-10.928
隂隂	-10.9281
和徳	-10.9283
巳加	-10.9287
子雲	-10.9295
餘年	-10.9296
亦不宜	-10.9298
度分	-10.9301
亦猶	-10.931
太重	-10.9316
爵禄	-10.9318
大武	-10.9319
年為	-10.9324
宜行	-10.9325
陽故	-10.9329
井鬼	-10.933
年九月	-10.9332
星辛	-10.9334
夷則	-10.9335
之原	-10.9337
入命宫	-10.9339
乙丙丁	-10.9341
一辰	-10.9349
為權	-10.9349
雹	-10.9352
而分	-10.9355
失財	-10.9357
亦凶	-10.9359
三十度	-10.936
便有	-10.936
相乘	-10.9362
為司空	-10.9362
如水	-10.9365
大小運	-10.9367
骨起	-10.9367
申辰	-10.937
之德	-10.9371
推其	-10.9371
末年	-10.9375
逢土	-10.9377
如甲日	-10.9378
不時	-10.9382
天田	-10.9385
逆則	-10.9388
大禍	-10.9394
豈非	-10.9394
比之	-10.9396
丅	-10.9403
之任	-10.9404
以火	-10.941
財喜	-10.941
蒼白氣入	-10.9414
二十四度	-10.9415
之器	-10.9418
澗	-10.9419
戈	-10.9421
星丁	-10.9422
水位	-10.9422
山之	-10.9423
坦	-10.9424
曹震圭	-10.9424
釣	-10.9425
西官候曰	-10.9425
一旬	-10.9426
也須	-10.9426
菽	-10.9426
積隂	-10.9432
丙午丁未	-10.9432
碎	-10.9434
所傷	-10.9435
螣	-10.9436
簒	-10.9436
富足	-10.9437
潭	-10.9438
好殺	-10.9439
謗	-10.9439
牡	-10.944
芝	-10.944
級	-10.944
須得	-10.944
嬪	-10.944
霽	-10.9441
茀	-10.9442
貴而	-10.9442
齡	-10.9443
嘆	-10.9443
貼	-10.9444
主夭	-10.9444
星丙	-10.9444
事業	-10.9444
虗	-10.9444
銷	-10.9444
蹄	-10.9446
霖	-10.9446
堯舜	-10.9446
傷官傷盡	-10.9447
神白經云	-10.9447
璇	-10.9448
燈	-10.9449
若犯	-10.945
瘥	-10.9452
墳墓	-10.9454
珞琭子云	-10.9454
怠	-10.9454
黄鍾	-10.9455
雷霆	-10.9457
貧苦	-10.9459
巽為	-10.946
毀	-10.9461
名譽	-10.9465
等事宜	-10.9465
金孛	-10.9466
祿主	-10.9467
閉口	-10.9467
為相	-10.9467
得貴人	-10.9468
後學	-10.947
諸儒	-10.947
二百五十	-10.947
少卿	-10.947
入宅	-10.9471
易以	-10.9472
天子有	-10.9472
榮枯	-10.9472
白雲	-10.9473
化象	-10.9477
隂貴	-10.9479
隂數	-10.9488
以土	-10.949
妻位	-10.9493
李仝曰	-10.9493
析木	-10.9493
而後有	-10.9499
王孫	-10.9501
此圖	-10.9503
令不行	-10.9507
荆州占曰熒惑入	-10.9511
所當	-10.9511
不肖	-10.9512
困於	-10.9514
自為	-10.9516
則陽	-10.9518
郎將	-10.9518
三十日不下	-10.9519
建始	-10.952
土地	-10.952
見辛	-10.9523
入獄	-10.9524
五福	-10.9524
七九	-10.9529
巳卯	-10.953
石氏曰填星守	-10.9531
宅經	-10.9536
先看	-10.9544
卿相	-10.9545
入輿鬼	-10.9546
水水	-10.9548
名天	-10.9549
為禄	-10.9555
未成	-10.9561
更值	-10.9566
仔細	-10.9567
竒數	-10.9575
甲丙	-10.9576
之先	-10.9576
一㸃	-10.9584
和平	-10.9584
以木為	-10.9584
為祥	-10.9587
重而	-10.9589
死絶則	-10.9595
直符加	-10.9602
外人	-10.9604
不背	-10.9607
來侵	-10.9608
十六年	-10.9611
交戰	-10.9614
化木	-10.9616
上盤	-10.9617
寅日	-10.9617
皆屬	-10.962
若入	-10.9621
門庭	-10.9622
官訟	-10.9623
之術	-10.9624
衢	-10.9628
荆州占曰客星入	-10.963
二火	-10.9632
嵗時	-10.9633
生貴子	-10.9636
冨	-10.9639
宫殿	-10.9643
則能	-10.9643
衰則	-10.9647
坤艮	-10.9648
金絶	-10.9656
山下	-10.9658
國有大	-10.9658
東出	-10.9662
一例	-10.9667
若出	-10.967
逢官	-10.9674
有名	-10.9675
日生人	-10.9675
大將出	-10.9676
破害	-10.9677
否之	-10.9678
不親	-10.9678
一曰有	-10.968
星庚	-10.9681
為忌	-10.9681
之流	-10.9684
相承	-10.9685
星躔	-10.9686
來臨	-10.9686
通月氣	-10.9688
爐	-10.969
九寸	-10.969
只以	-10.9692
為首	-10.9695
五星在	-10.9702
馬元	-10.9704
如甲人	-10.9704
十四度	-10.9705
夘上	-10.9705
又在	-10.9707
銀	-10.9709
相和	-10.971
水多	-10.971
道徳	-10.971
之難	-10.971
弼	-10.9717
觀月經	-10.9719
明則	-10.972
掠	-10.9721
瞻	-10.9721
琴堂	-10.9722
潮	-10.9722
於陽	-10.9723
爾雅曰	-10.9725
性情形體	-10.9725
星明大	-10.9727
焰	-10.9728
𤣥冥占曰	-10.9728
禮義	-10.9728
蜺	-10.9729
淑	-10.9729
繋	-10.9729
凸	-10.973
汲	-10.973
暇	-10.9731
篤	-10.9731
有反臣	-10.9732
有誅者	-10.9732
侮	-10.9733
甘露	-10.9733
申庚	-10.9734
屈伸	-10.9734
紂	-10.9734
逓	-10.9735
之課也象曰	-10.9735
遮	-10.9737
寫	-10.9737
五星從位起	-10.9738
羅網	-10.9739
年七月	-10.974
號令	-10.974
洗	-10.974
想	-10.974
本數	-10.9741
裳	-10.9742
翳	-10.9742
獄訟	-10.9743
大臣為亂	-10.9744
甲庚	-10.9744
坡	-10.9746
七寸	-10.9746
出師	-10.9747
系	-10.9747
者此人君	-10.9747
邀	-10.9747
蝠	-10.9748
奸淫	-10.9748
丑上	-10.9749
殂	-10.9751
九疇	-10.9752
乾坤坎離	-10.9752
最嫌	-10.9752
却得	-10.9752
煞印	-10.9754
逢水	-10.9755
甲辰日	-10.9757
不純	-10.9759
海中占曰熒惑	-10.9764
渉害	-10.9766
以求	-10.9766
十二㑹	-10.9767
貴人禄馬	-10.9767
水性	-10.9771
難以	-10.9773
天潢	-10.9773
變則	-10.9775
夏令	-10.9776
虚名	-10.9778
傳於	-10.978
私門	-10.9784
主病	-10.9785
而不能	-10.9789
歳月	-10.979
山家	-10.979
吕申	-10.9794
官禄宫	-10.9796
人主有憂	-10.9799
者君	-10.98
之光	-10.98
退而	-10.9804
坐實	-10.9804
化水	-10.9806
行南	-10.9807
三百一十	-10.9808
延年	-10.9808
相濟	-10.9808
擊之	-10.9809
二際	-10.9812
安能	-10.9817
尅命	-10.9818
並見	-10.9819
財食	-10.982
路傍	-10.9828
害也	-10.983
庚辛為	-10.9834
為命	-10.9835
禍不	-10.9836
見丙	-10.9837
之别	-10.9839
春秋分	-10.984
時支	-10.984
而不用	-10.9842
甲子旬	-10.9846
光芒	-10.9847
為刑	-10.9847
凶曜	-10.9851
損傷	-10.9852
大衍之數	-10.9861
使之	-10.9862
即位	-10.9865
武徳	-10.9865
宜用	-10.9866
皆凶	-10.9866
流亡	-10.9867
盡於	-10.987
其一	-10.987
五事	-10.9873
為司徒	-10.9876
有禄	-10.9878
公卒子	-10.9879
不拘	-10.9879
皆由	-10.988
矣而	-10.9885
軍中	-10.9885
卦也	-10.9888
性剛	-10.9891
交數	-10.9892
有子	-10.9893
正北	-10.9897
居下	-10.9898
火生土	-10.9902
呪	-10.9906
海中占曰嵗星	-10.991
百二十日	-10.991
六乙	-10.9911
離鄉	-10.9914
印旺	-10.9916
重叠	-10.9917
丑日	-10.9918
下者	-10.9919
辛癸	-10.9923
也又云	-10.9926
四變	-10.9929
本無	-10.9934
以陽	-10.9938
宋書天文志曰晉	-10.9939
當應	-10.9941
而守之	-10.9945
分而為	-10.9946
不違	-10.9947
有常	-10.9951
象曰	-10.9951
旬首	-10.9953
多能	-10.9954
上旬	-10.9955
不自	-10.9959
不平	-10.996
兩星	-10.996
顯貴	-10.9962
極貴	-10.9966
在陽	-10.9968
六爲	-10.9969
天髙	-10.9971
令人	-10.9972
之客	-10.9975
用此	-10.9976
可免	-10.9978
可用	-10.9979
原無	-10.9979
乾甲	-10.9981
此地	-10.9982
可得而	-10.9983
數起	-10.9985
氐房心	-10.9986
得意	-10.9987
將出	-10.999
六八	-10.9994
吊	-10.9997
尤吉	-11.0001
有神	-11.0001
梗	-11.0006
合則	-11.0006
閩	-11.001
姚	-11.0011
麒麟	-11.0012
小限	-11.0012
𨽻	-11.0013
孝經章句曰	-11.0013
守東井	-11.0013
水氣	-11.0014
十一年	-11.0014
离	-11.0016
蘭臺	-11.0017
從陽	-11.0017
忻	-11.0017
明萬民英撰	-11.0018
呈	-11.0018
他禽	-11.0018
同到	-11.0018
爍	-11.0018
那堪	-11.0019
巴	-11.002
架	-11.002
神名	-11.0021
摩	-11.0021
叶	-11.0022
六日七分	-11.0022
鈎鈐	-11.0023
疲	-11.0023
臨官帝旺	-11.0024
元㑹運世	-11.0024
暫	-11.0024
巖	-11.0025
杵臼	-11.0025
搜	-11.0026
浩	-11.0027
譬之	-11.0027
廉貞	-11.0027
頁	-11.0027
起于	-11.0028
拾	-11.0028
捧	-11.0028
徧	-11.0029
讐	-11.003
両	-11.003
詭	-11.003
司馬彪天文志曰孝	-11.0032
去一	-11.0032
閏月	-11.0033
商賈	-11.0034
錯綜	-11.0035
又曰天	-11.0037
與水	-11.0037
煦按	-11.0041
在震	-11.0041
帶殺	-11.0042
賢良	-11.0042
目下	-11.0042
小腸	-11.0043
乃能	-11.0043
軍市	-11.0046
而數	-11.0046
否泰	-11.0046
風塵	-11.0047
興造	-11.0048
氣象	-11.0049
五千	-11.005
玉衡	-11.0053
天下大旱	-11.0055
朝堂	-11.0056
無土	-11.0058
事事	-11.0058
羅孛	-11.0063
凶吉	-11.0063
俱無	-11.0064
發用為	-11.0068
世俗	-11.0068
乃五行	-11.0071
之所生	-11.0072
尊貴	-11.0072
合者	-11.0073
四柱中	-11.0077
消詳	-11.0078
刃煞	-11.0082
一隂一陽	-11.0087
皆無	-11.0088
權柄	-11.0091
如占	-11.0091
不能尅	-11.0094
相親	-11.0098
石氏曰熒惑入	-11.0098
分晝五十	-11.0101
火燒	-11.0105
形貌	-11.0105
秋金	-11.0107
四尺	-11.0107
六壬日	-11.0109
而變	-11.0111
見戊	-11.0118
生地	-11.0122
旺中	-11.0127
在西方	-11.0127
正廟	-11.0131
殺之	-11.0132
水鄉	-11.0139
之厯	-11.014
事皆	-11.0141
化火	-11.0142
行於	-11.0144
酉宫	-11.0145
戊巳日	-11.0147
本末	-11.0148
交中	-11.0153
六卦	-11.0155
冀	-11.0156
坤下	-11.0158
合起	-11.0158
干透	-11.0159
南官候曰	-11.016
作福	-11.016
有禍	-11.0161
治亂	-11.0163
詳其	-11.0166
矣又	-11.017
需之	-11.0173
多災	-11.0175
輔星	-11.0179
為政	-11.018
如甲寅	-11.018
墟	-11.0181
之南	-11.0184
若以	-11.0189
矣今	-11.019
大率	-11.019
逢煞	-11.0191
入箕	-11.0191
之時也	-11.0192
其徳	-11.0194
得局	-11.0194
朝天	-11.0195
兵罷	-11.0198
有合	-11.0198
九數	-11.0199
鬼旺	-11.0201
星家	-11.0203
則隂	-11.0206
七曜	-11.0206
色黑	-11.0208
為五十	-11.021
三百四十	-11.0214
二十年	-11.0216
又占曰嵗星守	-11.0219
六府	-11.0219
月時	-11.0221
▁元	-11.023
不清	-11.0231
也且如	-11.0231
酉日	-11.0232
赤星	-11.0232
黄鐘之	-11.0235
號天	-11.0237
以安	-11.0238
於申	-11.0239
被人	-11.0239
以立	-11.0243
二十四山	-11.0245
到頭	-11.0248
吉若	-11.0249
肖	-11.025
孟子	-11.0252
四字	-11.0253
紫微	-11.0255
自古	-11.026
嬰	-11.0262
乙酉日	-11.0262
之格	-11.0263
重濁	-11.0267
土居	-11.0268
大臣有	-11.0269
易政	-11.0269
相死	-11.0271
經天	-11.0274
徳神	-11.0275
取諸	-11.0275
此限	-11.0277
上官	-11.028
忌行	-11.0281
其文	-11.0282
合神	-11.0282
多憂	-11.0282
再遇	-11.0284
見煞	-11.029
年而	-11.0293
人遇	-11.0294
與金	-11.0295
事不成	-11.0304
惟宜	-11.0304
尺五寸	-11.0308
代立	-11.0309
𤣥戈	-11.031
臯	-11.0313
金人	-11.0313
森	-11.0316
一歳	-11.0318
濃	-11.0319
朴	-11.0319
繫者	-11.0319
佩	-11.032
宋書天文志曰	-11.0321
未央	-11.0322
謀為	-11.0322
昂	-11.0322
謂其	-11.0322
疇	-11.0323
蠻夷	-11.0323
年中	-11.0324
給諫	-11.0324
警	-11.0325
窩	-11.0325
伺	-11.0325
鄕	-11.0325
貴相	-11.0326
貝	-11.0326
絆	-11.0326
甲午日	-11.0327
都督	-11.0327
羊刄	-11.0328
塡實	-11.0329
劈	-11.0329
噬	-11.0332
抝	-11.0332
数	-11.0332
兹謂	-11.0333
館	-11.0333
㓂	-11.0333
展	-11.0334
逾	-11.0334
絞	-11.0334
尤的	-11.0334
而西	-11.0335
昏迷	-11.0335
大起	-11.0336
功成	-11.0336
太史	-11.0336
之榮	-11.0336
古歌云	-11.0338
暖	-11.034
京師	-11.034
紛	-11.034
主人勝	-11.034
傷人	-11.0341
淺薄	-11.0345
則止	-11.0346
㑹稽	-11.0346
益州	-11.0348
甸	-11.0348
庚寅辛卯	-11.0348
纍	-11.0348
十二宫中	-11.035
丙申丁酉	-11.035
必敗	-11.035
雙全	-11.0352
為父母	-11.0352
雖無	-11.0353
誰知	-11.0355
不見其	-11.0356
太玄	-11.036
變異	-11.0361
何憂	-11.0364
為人性	-11.0364
職位	-11.0364
強宫	-11.0365
水盛	-11.0365
地氣	-11.0365
人得之	-11.0366
不可當	-11.0369
敵人	-11.0369
如甲乙	-11.037
亥卯	-11.0372
位上	-11.0375
二卦	-11.0376
體而	-11.0377
壽夭	-11.0379
金鄉	-11.0379
其野	-11.0379
舉事	-11.0383
輔臣	-11.0385
也所以	-11.0386
臨財	-11.0387
尋常	-11.0389
存焉	-11.0397
公事	-11.0399
龍蛇	-11.04
化煞	-11.0402
不得地	-11.0404
易者	-11.0404
墓神	-11.0405
申戌	-11.0406
木羅	-11.0407
九紫	-11.0407
納財	-11.0411
四立	-11.0415
矣夫	-11.0419
辛未日	-11.042
宿一偏西二度	-11.0421
禳	-11.0422
君失	-11.0422
得木	-11.0422
揚州	-11.0425
其五	-11.0427
木生火	-11.0429
失行	-11.0429
逐年	-11.043
五七	-11.0441
三爲	-11.0451
又生	-11.0452
煞主	-11.0452
土土	-11.0454
二曜	-11.0454
未月	-11.0455
春令	-11.0455
繫於	-11.0458
以諭	-11.0459
夭夀	-11.0462
直難	-11.0465
子水	-11.0468
妨害	-11.0469
所尅	-11.0469
不敬	-11.0472
伏逆	-11.0475
青州	-11.0476
龜卜	-11.0478
又看	-11.0479
參將	-11.0479
堂堂	-11.048
皆貴	-11.048
此之謂	-11.0481
只怕	-11.0482
論也	-11.0483
未日	-11.0485
萬象	-11.0487
病人	-11.0487
則用	-11.0488
四寸	-11.049
星孛	-11.0491
自死	-11.0491
明白	-11.0492
人皆	-11.0496
星照	-11.0497
孛月	-11.0497
長子	-11.05
猶有	-11.05
以備	-11.05
不收	-11.0501
諸神	-11.0501
北落	-11.0502
卦為	-11.0503
凶若	-11.0506
須㸔	-11.0507
無他	-11.0509
冬至日	-11.0509
天地之心	-11.051
周流	-11.0511
同處	-11.0511
貴者	-11.0513
舉其	-11.0515
星己	-11.0517
相通	-11.0517
相制	-11.0519
七八月	-11.052
江縣	-11.0521
為事	-11.0522
以此為	-11.0524
刑合	-11.0525
破相	-11.0527
何者	-11.0527
雙生	-11.053
豫州	-11.0533
生年	-11.0537
庚子日	-11.0539
弱宫	-11.0539
例推	-11.0544
好惡	-11.0545
水則	-11.0546
在腹	-11.0548
自身	-11.0551
晦日	-11.0552
自己	-11.0553
之靈	-11.0553
將來	-11.0555
人主有	-11.0556
車馬	-11.0556
十二神	-11.0556
法以	-11.0557
實則	-11.0557
十九年	-11.056
而歸	-11.056
頭低	-11.0564
主刑	-11.0567
得志	-11.0568
死喪	-11.0569
自縊	-11.057
亦要	-11.0573
平縣	-11.0574
其應	-11.0574
年五月	-11.0575
有吉	-11.0577
六乙日	-11.0584
四時之	-11.0586
地者	-11.0586
之卦也	-11.0586
行乎	-11.0589
之分也	-11.0589
此其	-11.059
無心	-11.0593
八白	-11.0594
又當	-11.0595
所藏	-11.0596
十七年	-11.0596
乙丑日	-11.0597
九地	-11.0597
線	-11.0599
千户所	-11.0599
土則	-11.0604
巫咸讃曰	-11.0604
有九	-11.0605
者富貴	-11.0606
臨支	-11.0606
限逢	-11.0612
十二時	-11.0613
音聲	-11.0613
走失	-11.0613
異常	-11.0617
如甲子日	-11.0618
日法	-11.0619
亥水	-11.0621
傷財	-11.0623
天地萬物	-11.0626
元命包曰	-11.0626
二爲	-11.0627
而居	-11.0627
仗	-11.0628
曠	-11.0628
勒	-11.0628
神為用	-11.0629
之治	-11.0629
天地之間	-11.063
姻	-11.0631
門具將發	-11.0631
駁	-11.0631
漢書五行志曰	-11.0632
三星在	-11.0632
渭	-11.0632
星學大成卷	-11.0632
伐木	-11.0632
紹	-11.0633
綏	-11.0634
丑中	-11.0635
雁	-11.0635
綠	-11.0635
瘟	-11.0636
卽	-11.0636
竿	-11.0636
壤	-11.0636
䨇	-11.0636
訪	-11.0637
焉故	-11.0637
徙居	-11.0637
稼	-11.0638
探花	-11.0638
菓	-11.0639
倪	-11.064
悞	-11.0641
籠	-11.0641
眠	-11.0641
妃后	-11.0642
螟蛉	-11.0643
駒	-11.0643
縈	-11.0644
足肣	-11.0644
培	-11.0645
暌	-11.0645
踵	-11.0645
翌	-11.0645
鑄印	-11.0647
誥	-11.0648
嘯	-11.0649
未盡	-11.0649
㪚	-11.065
閉塞	-11.0651
非一	-11.0652
湛	-11.0652
者宜	-11.0653
斷其	-11.0653
闡	-11.0653
撞	-11.0653
秀麗	-11.0654
東山	-11.0654
圏	-11.0654
㺄	-11.0655
最難	-11.0656
國王	-11.0656
睟	-11.0656
摇動	-11.0656
尅我者	-11.0657
二寸	-11.0659
色惡	-11.066
金居	-11.0661
有黒痣	-11.0662
為臣	-11.0664
帶合	-11.0664
兩般	-11.0665
寅甲	-11.0665
爭訟	-11.0666
限星	-11.0667
金入	-11.0667
太冲	-11.0669
限中	-11.0671
餙	-11.0672
怪異	-11.0673
相距	-11.0675
必先	-11.0675
相併	-11.0677
巳申	-11.0678
戊午己未	-11.0682
宫則	-11.0683
巫咸曰熒惑守	-11.0684
奈何	-11.0685
威武	-11.0685
者盖	-11.0685
郎位	-11.0687
妨妻	-11.0688
十一曜	-11.0692
秀而	-11.0695
戊子己丑	-11.0696
兵將	-11.0698
天廐	-11.07
則從	-11.0702
帶刃	-11.0706
天年	-11.0709
太師	-11.0712
榖貴	-11.0712
丙丁為	-11.0714
不出二年	-11.0714
帝覽嬉曰月	-11.0716
福徳宫	-11.0717
名臣	-11.0717
海中	-11.0718
順則	-11.0719
而立	-11.072
西門	-11.0721
之圖	-11.0722
君子之	-11.0724
官庫	-11.0726
置閏	-11.0729
髙貴	-11.073
少微	-11.0732
泄氣	-11.0733
逢生旺	-11.0733
二干	-11.0736
猶可	-11.0736
五殘	-11.0738
者一曰	-11.0743
也假如	-11.0747
庫墓	-11.0748
無兵	-11.0749
陰氣	-11.0752
三焦	-11.0755
次序	-11.0757
厥隂	-11.0759
君死	-11.076
二切	-11.0761
寅夘辰	-11.0763
軍在外	-11.0764
有尅	-11.0766
疾厄宫	-11.0766
者皆為	-11.0766
主兵	-11.0767
有反者	-11.0769
日徳	-11.0771
大熟	-11.0774
傷害	-11.0777
豈知	-11.0779
三爻	-11.078
多凶	-11.078
其嵗	-11.0782
不露	-11.079
巳中	-11.0791
短命	-11.0794
合煞	-11.0795
季夏	-11.0796
坤上	-11.0796
天地之中	-11.0796
田宅宫	-11.0799
大時	-11.0801
化之	-11.0801
見癸	-11.0805
巳火	-11.0805
九賛	-11.0811
不移	-11.0813
三角	-11.0815
土生	-11.0817
守其	-11.0818
丙壬	-11.0819
存其	-11.0819
即有	-11.082
乾上	-11.0822
安寧	-11.0827
而定	-11.0828
之母	-11.0829
老人星	-11.0831
春木	-11.0834
頭髙	-11.0836
行藏	-11.0838
河圖帝覽嬉曰月	-11.0842
地二	-11.0849
如火	-11.085
夏至後	-11.085
乘氣	-11.086
交錯	-11.0863
太和	-11.0865
其國有憂	-11.0867
人死	-11.0868
之為言	-11.0871
以五行	-11.0873
觜觿	-11.0873
又作	-11.0876
之憂	-11.0878
之比	-11.0883
之體也	-11.0887
陽位	-11.0887
黄帝占曰月	-11.0889
治也	-11.0895
又曰嵗星守	-11.0897
甘氏曰嵗星	-11.0898
雖得	-11.0901
江南	-11.0901
不照	-11.0905
如在	-11.0909
天鬼	-11.0913
方圓	-11.0916
龍見	-11.0919
中心	-11.0921
財官印綬	-11.0921
元來	-11.0921
天將軍	-11.0926
號曰	-11.0926
不分	-11.0926
周易	-11.093
為徳	-11.0931
荆州占曰流星	-11.0933
碧	-11.0934
預	-11.0934
織	-11.0935
多水	-11.0937
變動	-11.0937
註文	-11.0939
同心	-11.094
梅	-11.0943
一週	-11.0944
崖	-11.0946
不富	-11.0947
石氏曰客星入	-11.0947
旺火	-11.0947
合誠圖曰	-11.0947
遭刑	-11.0949
荆州占曰太白守	-11.095
不長	-11.095
之美	-11.095
不獨	-11.0951
穎	-11.0952
廊廟	-11.0952
强宫	-11.0954
覇	-11.0954
稚	-11.0954
我禽	-11.0955
鑰	-11.0956
春秋運斗樞曰	-11.0956
處世	-11.0957
猾	-11.0958
感精符曰	-11.0958
雛	-11.0958
元命	-11.0958
閻	-11.0959
挨	-11.0959
障	-11.0959
軀	-11.0959
失物	-11.096
陋	-11.096
粉	-11.0961
出羣	-11.0961
麋	-11.0961
道路不通	-11.0963
聘	-11.0964
供	-11.0965
爛	-11.0966
洽	-11.0966
脇	-11.0966
再行	-11.0966
燃	-11.0967
紀綱	-11.0967
絳	-11.0967
迷惑	-11.0967
羞	-11.0968
劒鋒	-11.0968
蹇滯	-11.0968
髙而	-11.0968
齧	-11.0969
鈎陳	-11.097
神將吉	-11.0972
天囷	-11.0972
忠孝	-11.0972
皓	-11.0973
宿中	-11.0974
之精也	-11.0974
奸邪	-11.0975
課也	-11.0975
生助	-11.0975
替	-11.0976
不改	-11.0977
災咎	-11.0977
古今同一星	-11.0977
五者	-11.0978
盛陽	-11.098
鑚	-11.098
觀物	-11.0981
滿野	-11.0981
併則	-11.0981
修營	-11.0983
於道	-11.0987
求事	-11.0992
雖貴	-11.0994
四百八十	-11.0996
積日	-11.1001
飛刃	-11.1002
縱使	-11.1003
申中	-11.1006
京氏曰日蝕	-11.1006
反成	-11.1007
柔弱	-11.1008
九卿	-11.1009
梟神	-11.1009
天下大赦	-11.101
天干透	-11.1011
幣	-11.1011
為救	-11.1012
朱子謂	-11.1012
三合局	-11.1014
之始也	-11.1019
乎此	-11.1019
更相	-11.1024
從天	-11.1025
流水	-11.1026
若能	-11.1026
火光	-11.1027
破亡	-11.1028
分晝夜	-11.1032
妻星	-11.1032
有病	-11.1033
太卜	-11.1037
氣有	-11.1038
無可	-11.1039
厚薄	-11.104
運喜	-11.104
屋上	-11.1043
四陽	-11.1044
減之	-11.1047
不顧	-11.1048
在南方	-11.105
積卒	-11.105
明暗	-11.1051
嵗徳	-11.1051
母子	-11.1052
皆因	-11.1056
病訟	-11.1057
故無	-11.1058
丈人	-11.106
一篇	-11.1061
月空	-11.1063
欽定四庫全書欽定協紀辨方書卷	-11.1063
成也	-11.1064
又次之	-11.1065
卜之	-11.1071
陽刄	-11.1076
善也	-11.1076
如子	-11.1081
至午	-11.1082
交車	-11.1083
加於	-11.1085
失火	-11.1091
一萬	-11.1095
石氏曰嵗星守	-11.1096
其外	-11.1096
石氏曰流星入	-11.1096
形夫	-11.1099
或遇	-11.1104
相雜	-11.1108
水生木	-11.1111
三六	-11.1123
福不	-11.1126
此說	-11.1127
見亥	-11.1127
本乎	-11.1128
長大	-11.1129
於酉	-11.1131
天王	-11.1132
衰弱	-11.1132
示人	-11.1136
推太乙	-11.1139
國有兵	-11.1142
逐月	-11.1144
而北	-11.1146
會於	-11.1148
國亂	-11.1153
財宫	-11.1153
少子	-11.1155
可得	-11.1156
失次	-11.1159
小口	-11.1159
八星	-11.1159
將軍死	-11.116
向上	-11.1161
守昴	-11.1161
無射	-11.1163
術數	-11.1165
一百一十	-11.1167
復歸	-11.1169
大㑹	-11.1174
此象	-11.1174
必貴	-11.1175
辰星守	-11.1175
喜身旺	-11.118
惠王	-11.1185
政令	-11.1189
天子以	-11.1189
相背	-11.119
開元	-11.1191
為五	-11.1192
大數	-11.1199
或作	-11.1202
並起	-11.1203
不能勝	-11.1203
六為	-11.1203
之尊	-11.1204
卯戌	-11.1204
郗萌曰辰星	-11.1206
亥日	-11.1208
青黄	-11.1208
申巳	-11.121
乎地	-11.1213
隂陽和	-11.1213
室壁	-11.122
上宫	-11.122
月通	-11.1222
期在	-11.1223
吉方	-11.1229
月食	-11.1232
建祿	-11.1233
妖星	-11.1233
而來	-11.1233
家室	-11.1234
玉歴曰	-11.1235
好命	-11.1241
清髙	-11.1246
其力	-11.1247
午巳	-11.1247
若行	-11.1251
生命	-11.1256
永平	-11.1257
建元	-11.1258
無名	-11.1259
如正月	-11.126
一百七十	-11.1262
古法	-11.1267
大都	-11.1268
匱	-11.1269
刑殺	-11.127
故知	-11.1271
福慶	-11.1277
順也	-11.1278
不傷	-11.1278
療	-11.1278
榆	-11.1279
謡	-11.1281
膠	-11.1281
河水	-11.1282
蔡氏	-11.1283
晶	-11.1285
食傷	-11.1285
吳越	-11.1286
邊境	-11.1287
膚	-11.1288
嶺	-11.1289
身亡	-11.1289
大林	-11.1289
親戚	-11.129
官司	-11.129
吁	-11.1291
六十日不下	-11.1291
䑓	-11.1292
沸	-11.1293
峙	-11.1293
同在	-11.1293
髓	-11.1293
坎癸申辰	-11.1294
堅牢	-11.1294
勾絞	-11.1295
煖	-11.1295
而何	-11.1295
頦	-11.1295
漁	-11.1297
期二十日	-11.1297
期九十日	-11.1297
囚者	-11.1298
肚	-11.1298
地四	-11.1298
天徳月徳	-11.1298
五行要論云	-11.1298
俞	-11.1299
汗	-11.1299
贏縮	-11.13
紐	-11.1301
紛紛	-11.1301
濳	-11.1302
礙	-11.1302
宗鏡	-11.1303
逮	-11.1303
聮	-11.1303
劍鋒	-11.1303
顴	-11.1304
皇極經世	-11.1304
咽	-11.1305
獬	-11.1305
之長生	-11.1306
開日	-11.1306
沐	-11.1307
傍有	-11.1307
行遲	-11.1307
乞	-11.1307
七十二候	-11.1308
旬内	-11.1308
獨歩	-11.1308
染	-11.1309
智慧	-11.1309
不調	-11.1309
弄	-11.131
冡	-11.131
閔	-11.1312
震艮	-11.1313
有白衣	-11.1316
偏枯	-11.1317
中𫝊	-11.1317
憂喜	-11.1318
五宫	-11.1321
易緯曰	-11.1324
雞鳴	-11.1324
無衝破	-11.1325
若值	-11.1326
四庫	-11.1328
民流	-11.1331
隂故	-11.1331
運轉	-11.1332
三百七十	-11.1337
漸漸	-11.1338
刼殺	-11.1341
飲酒	-11.1344
唫	-11.1351
井中	-11.1352
歸魂	-11.1352
命元	-11.1355
墓絶	-11.1357
安静	-11.1358
尅母	-11.1358
見火羅	-11.1359
震雷	-11.1359
愚按	-11.1361
離火	-11.1362
若帶	-11.1365
冬水	-11.1365
國無	-11.1365
便以	-11.1366
之狀	-11.1369
致富	-11.137
之理也	-11.1371
為官印	-11.1371
互見	-11.1373
亦作	-11.1373
必致	-11.1376
必招	-11.1376
如意	-11.1382
官災	-11.1384
常也	-11.1385
有急令	-11.1387
壬亥	-11.1388
大流星	-11.1389
以月	-11.1389
四神	-11.1394
炎炎	-11.1395
於時	-11.1395
中生	-11.1396
二中	-11.1399
一百九十	-11.1404
未當	-11.1409
顯逹	-11.141
天象	-11.1411
火生	-11.1412
宜忌	-11.1415
雜氣財官	-11.1416
起筭	-11.1417
又自	-11.142
祖父	-11.142
和順	-11.1421
破印	-11.1423
兩濟	-11.1423
天子失	-11.1425
萬物皆	-11.1428
之宮	-11.1431
黄帝占曰太白	-11.1433
也曇瑩曰	-11.1434
六戊日	-11.1434
餘皆	-11.1437
兩極	-11.1439
命以	-11.1439
以俟	-11.1441
丙竒	-11.1442
並行	-11.1442
牛女	-11.1443
庶子	-11.1446
體之	-11.1448
一運	-11.1448
官位	-11.1451
艮上	-11.1458
元帝	-11.1467
以養	-11.1471
本原	-11.1473
衝合	-11.1474
炁星	-11.1475
紀法	-11.1476
亡其	-11.1477
足下	-11.1478
星命	-11.1479
截路	-11.148
入天市	-11.1481
七五	-11.1481
水朝	-11.1482
云云	-11.1485
主為人	-11.1488
參兩	-11.1488
生我者	-11.1489
各得其	-11.1496
兩邊	-11.1497
孛同	-11.1498
正道	-11.15
與命	-11.1501
兵在外	-11.1501
六七八九	-11.1505
官主	-11.1507
以配	-11.1507
亦通	-11.1507
民饑	-11.1512
者乎	-11.1515
而用之	-11.1516
分其	-11.152
異也	-11.1522
所守	-11.1528
欲求	-11.1529
祗	-11.1531
凶死	-11.1532
又加	-11.1533
中犯乘守	-11.1535
徐州	-11.1537
隂而	-11.1538
却喜	-11.1539
别有	-11.1543
未有不	-11.1544
雖曰	-11.1547
熒惑逆行	-11.155
以六	-11.1553
生旺則	-11.1554
形勢	-11.1554
暴死	-11.1556
也按	-11.1559
必因	-11.156
中取	-11.1561
專論	-11.1561
星占四	-11.1564
之易	-11.1566
格葢	-11.1568
三門	-11.1574
既有	-11.1575
多淫	-11.1575
尊長	-11.1577
於坤	-11.1582
其宫	-11.1587
二百八十	-11.1592
吉㑹	-11.1594
者五行	-11.1596
壬子日	-11.1596
為太極	-11.1596
所言	-11.1596
一畫	-11.1599
兩位	-11.16
置為	-11.16
王相	-11.1604
壬癸水	-11.1605
於五行	-11.1609
二四	-11.161
然必	-11.161
緑	-11.1612
生煞	-11.1615
胞	-11.1617
軍敗	-11.1617
夘未	-11.1617
巨蟹	-11.1618
恠	-11.1619
春秋緯曰彗星出	-11.162
卯時	-11.1621
司馬彪天文志曰	-11.1622
胃昴畢	-11.1624
鹽	-11.1625
驀	-11.1625
鯉	-11.1626
河圖帝覽嬉曰月犯	-11.1627
護	-11.1627
庚辰辛巳	-11.1629
懿	-11.163
諌	-11.163
映	-11.1631
盟	-11.1632
鼈	-11.1633
為三合	-11.1634
妓	-11.1636
則福	-11.1637
三能	-11.1637
却是	-11.1637
忙	-11.1638
何也	-11.1638
莭	-11.1638
廷尉	-11.1638
顯赫	-11.1639
郄萌曰有星入	-11.164
敘	-11.164
脛	-11.1641
牝	-11.1641
打頭火	-11.1641
驪	-11.1641
天月二徳	-11.1641
遏	-11.1642
霞	-11.1642
赴	-11.1643
聨	-11.1644
繹	-11.1644
亦爲	-11.1645
壽促	-11.1645
遶	-11.1645
蹤	-11.1646
鎻	-11.1646
兒孫	-11.1647
二千石	-11.1647
劇	-11.1647
禄馬同鄉	-11.1647
費力	-11.1647
茫	-11.1647
鄒	-11.1648
祕	-11.1648
河内	-11.1648
數皆	-11.1649
飬	-11.1649
婢妾	-11.1652
畝	-11.1652
戰鬭	-11.1652
釋氏	-11.1653
併臨	-11.1655
泛濫	-11.1656
通判	-11.1656
此所謂	-11.1658
狐狢	-11.1658
母倉	-11.166
限遇	-11.1661
煇	-11.1665
其母	-11.1665
反此	-11.1666
甲見	-11.1666
近君	-11.1667
至大	-11.1667
而致	-11.1668
月氣	-11.1669
是木	-11.1669
髀	-11.1669
不信	-11.1669
地元	-11.1669
東方木	-11.167
破日	-11.1672
鴈行	-11.1672
生平	-11.1672
庶民	-11.1673
反背	-11.1673
刑法	-11.1673
分氣候	-11.1674
人民饑	-11.1676
有聲名	-11.1676
將帥	-11.1677
為貴人	-11.1677
經絡	-11.1678
人之命	-11.1679
莫教	-11.168
遷轉	-11.1682
七元	-11.1683
妻家	-11.1687
客勝	-11.1687
庚壬	-11.169
人民飢	-11.1692
必遭	-11.1693
景帝	-11.1693
善終	-11.1694
記曰	-11.1694
光澤	-11.1697
乾宫	-11.1697
受殃	-11.1699
賊臣	-11.1702
血支	-11.1703
忠直	-11.1703
補龍	-11.1706
究其	-11.1706
十倍	-11.1708
以九	-11.1708
閉物	-11.1713
豕生	-11.1713
坐煞	-11.1713
數則	-11.1713
不尅	-11.1715
畫卦	-11.1717
不為害	-11.1719
火鄉	-11.1719
日子時	-11.1722
至尊	-11.1722
聚衆	-11.1725
在位	-11.1725
蝕神	-11.1726
虛中	-11.1728
二句	-11.1733
其意	-11.1734
年月貴	-11.1736
二百一十六	-11.1739
要在	-11.1741
上爻	-11.1742
離上	-11.1742
滅亡	-11.1744
生旺之地	-11.1744
二十三日	-11.1745
熒或	-11.1745
太始	-11.1745
角木	-11.1745
細推詳	-11.1745
巳字	-11.1752
大道	-11.1753
㑹于	-11.1754
是其	-11.1755
生育	-11.1756
血忌	-11.1759
若火	-11.176
十三日	-11.1761
六丙日	-11.1761
辛酉日	-11.1762
欽定四庫全書唐開元占經卷	-11.1763
主弱	-11.1764
兖	-11.1767
為㓙	-11.1768
遇貴	-11.1769
刺史	-11.1769
以禮	-11.1774
隂宫	-11.1785
十六位	-11.1788
則禍	-11.1788
萬八千	-11.1789
代之	-11.1792
常有	-11.1794
在東井	-11.1794
别無	-11.1796
入井	-11.1796
宫立命	-11.1799
有風	-11.1801
為白虎	-11.1802
一陽生	-11.1803
宜詳	-11.1805
開門	-11.1807
炁孛	-11.1808
亥將	-11.1809
本體	-11.1813
為正官	-11.1814
虚中	-11.1814
所行	-11.1817
秋令	-11.1818
戰尅	-11.1819
不憂	-11.1823
寅位	-11.1824
難逃	-11.1825
木在	-11.1825
卦變	-11.1827
豐足	-11.183
專以	-11.1831
近侍	-11.1831
未知	-11.1832
支離	-11.1833
之類也	-11.1834
二課	-11.1836
黒雲	-11.1837
而外	-11.1837
修之	-11.1837
為榮	-11.184
自殺	-11.1842
戊辰己巳	-11.1842
見貴人	-11.1842
損之	-11.1844
承天	-11.1846
灾禍	-11.1848
直者	-11.1852
扶助	-11.1853
受生	-11.1854
殿駕	-11.1855
倚托	-11.1859
黄赤	-11.1868
出衆	-11.1875
少男	-11.1876
也餘倣此	-11.1878
甲人	-11.1878
平滿	-11.1879
之期	-11.1881
戰於	-11.1882
得之者	-11.1886
二品	-11.1887
天根	-11.1888
𫝊曰	-11.1891
非也	-11.1894
柱中無	-11.1897
貞也	-11.1897
相照	-11.19
與木	-11.1903
則㐫	-11.1905
性格	-11.1906
六處	-11.1907
貴人多死	-11.1909
三七	-11.191
始于	-11.1911
其情	-11.1912
不載	-11.1913
在北方	-11.1916
見前	-11.1919
先有	-11.192
六尺	-11.1921
支合	-11.1921
為幣	-11.1923
宦	-11.1923
帝覽嬉曰月暈	-11.1924
以徳	-11.1924
人口	-11.1927
炁月	-11.1927
官刑	-11.1931
六巳日	-11.1933
長也	-11.1935
初一日	-11.1936
守房	-11.1937
有客	-11.1937
南陽	-11.1939
分至	-11.194
之政	-11.194
大動	-11.1941
無煞	-11.1943
乃可	-11.1943
術者	-11.1943
入斗	-11.1944
而理	-11.1947
耳假令	-11.1948
家門	-11.1948
而推之	-11.1948
千五十	-11.1951
之晷	-11.1955
可見矣	-11.1957
義理	-11.1959
只在	-11.1966
貴地	-11.1967
躔度	-11.197
巫咸	-11.1972
此類	-11.1974
辛亥日	-11.1975
亡國	-11.1975
荘	-11.1976
荆州曰客星	-11.1981
甲辰旬	-11.1982
斤	-11.1982
倡	-11.1983
易位	-11.1983
縷	-11.1985
有隂陽	-11.1986
瞳	-11.1988
惠帝	-11.1988
冶	-11.199
廊	-11.1991
兇	-11.1991
穰	-11.1992
裘	-11.1992
痕	-11.1993
春秋合誠圖曰	-11.1993
頭圓	-11.1993
疵	-11.1994
期百二十日	-11.1994
沛	-11.1994
忒	-11.1994
松柏	-11.1994
郭璞	-11.1995
期不出二年	-11.1995
何也曰	-11.1995
巫咸曰填星	-11.1996
儘	-11.1996
炁木	-11.1997
離壬寅戌	-11.1997
人之所	-11.1997
榜眼	-11.1998
李鼎祚曰	-11.1999
圓圖	-11.2
苛	-11.2
訂	-11.2
期百八十日逺一年	-11.2
建武	-11.2
萬世	-11.2001
趕	-11.2002
䰟	-11.2002
輯	-11.2003
搏	-11.2003
菜	-11.2004
南河戍	-11.2004
僚	-11.2005
藏之	-11.2006
北官候曰	-11.2006
酋	-11.2006
攜	-11.2007
態	-11.2007
鑑云	-11.2007
參旗	-11.2007
寳瓶	-11.2008
靈臺	-11.2009
大興	-11.201
之喜	-11.2011
旡妄	-11.2011
太白犯守	-11.2011
奠	-11.2012
天下和平	-11.2012
兵起宫中	-11.2013
遲速	-11.2013
為㐫	-11.2013
產	-11.2014
土火	-11.2014
於辰	-11.2015
伏尸	-11.2015
昊天	-11.2016
卓立	-11.2017
積筭	-11.2017
日出夘	-11.2017
居此	-11.2018
忠良	-11.2018
色蒼	-11.2018
柔剛	-11.202
鳥獸	-11.202
二百六十	-11.2023
之辭	-11.2024
命母	-11.2027
石氏	-11.2027
鬼神之	-11.2028
丙辰丁巳	-11.2028
𤣥胎	-11.203
􁎮	-11.2032
法經曰	-11.2033
合主	-11.2036
四瀆	-11.2044
無疆	-11.2047
而遇	-11.205
貧下	-11.2054
清華	-11.2055
散為	-11.2055
不足以	-11.2057
眉目	-11.2057
形容	-11.2057
精明	-11.2058
主多	-11.2058
白手	-11.2064
長夀	-11.2066
絶處	-11.2069
以分	-11.2072
自相	-11.2072
人民流亡	-11.2076
方隅	-11.2077
有損	-11.2078
雷公	-11.2079
之軰	-11.2079
黄龍	-11.208
戌未	-11.2081
亥寅	-11.2083
見義例	-11.2085
卯木	-11.2085
為外	-11.2086
一十八	-11.2087
人家	-11.2088
富豪	-11.2089
木居	-11.2089
虧盈	-11.2095
丑亥	-11.2098
為上格	-11.21
法度	-11.2101
震上	-11.2102
實有	-11.2104
在焉	-11.2105
後二辰	-11.2107
山河	-11.2108
氣數	-11.2108
長垣	-11.2108
巫咸曰熒惑	-11.211
明日	-11.2111
加日	-11.2112
王者有憂	-11.2114
子貴	-11.2114
切不可	-11.2117
分一	-11.212
干音	-11.212
而地	-11.2122
上至	-11.2124
舉動	-11.2128
直使	-11.2128
風伯	-11.2129
附於	-11.2134
度去極	-11.2134
但知	-11.2135
二十日以上	-11.2135
時而	-11.2137
則當	-11.2137
病患	-11.2137
𤣥妙	-11.2138
相錯	-11.2139
二百五十二	-11.214
神龜	-11.2143
十二次	-11.2143
相繼	-11.2145
圓者	-11.2148
星亡	-11.2152
支干上	-11.2152
伏兵	-11.2153
有煞	-11.2157
奎宿	-11.216
却為	-11.2163
長生之地	-11.2164
太多	-11.2166
占婚	-11.2167
初爻	-11.2168
通也	-11.2169
命裏	-11.2171
景長	-11.2171
知也	-11.2171
子卯	-11.2173
丑丑	-11.2174
水居	-11.2174
只取	-11.2176
厚而	-11.2176
不到	-11.2178
只要	-11.2181
則死	-11.2184
無木	-11.2184
景星	-11.2184
而終於	-11.2184
稱心	-11.219
所制	-11.2192
先以	-11.2202
六十日内	-11.2205
㐫死	-11.2207
我者	-11.2209
主凶	-11.2211
年月日	-11.2214
愚曰	-11.2217
五運	-11.2217
馬牛	-11.2218
命書	-11.2219
辛巳日	-11.2224
與時	-11.2227
則亦	-11.223
何疑	-11.2236
清竒	-11.2237
國多	-11.224
乙巳日	-11.225
穀貴	-11.2252
也朱子曰	-11.2252
也是以	-11.2254
南方火	-11.2255
元士	-11.2255
癸巳日	-11.2255
泊命	-11.226
始得	-11.226
禍殃	-11.226
地主	-11.2263
亦謂	-11.2264
無物	-11.2265
論五行	-11.2266
五十有五	-11.2267
商人	-11.2267
木兆	-11.2268
限數	-11.227
冲破	-11.2271
己身	-11.2273
多而	-11.2273
忍	-11.2273
為坤	-11.2273
不傳	-11.2274
巳酉丑月	-11.2277
秦伐	-11.2281
龍穴	-11.2281
甘氏曰熒惑守	-11.2282
張子	-11.2286
重輕	-11.2286
於東	-11.2287
有土	-11.2289
庚戌辛亥	-11.229
加官	-11.2294
於東南	-11.2294
分配	-11.2298
宗人	-11.2298
相戰	-11.23
土生金	-11.2303
七十二日	-11.2305
龍角	-11.2306
為十二	-11.2307
次於	-11.2308
本日	-11.2308
分度	-11.2309
絶地	-11.231
見甲	-11.2314
亦忌	-11.2316
髙下	-11.2317
陽火	-11.2322
申日	-11.2323
時來	-11.2323
用其	-11.2324
庚午日	-11.2324
自家	-11.2325
主一生	-11.2325
鳴吠	-11.2326
財帛宫	-11.2327
黄帝占曰熒惑	-11.2329
擇日	-11.233
壺	-11.2333
囚星	-11.2334
入亢	-11.2335
傷尅	-11.2337
大破	-11.2342
春秋緯	-11.2347
爻象	-11.2347
見矣	-11.2348
僻	-11.2349
答	-11.235
煞曜	-11.2351
潘	-11.2352
個	-11.2353
時遇	-11.2355
閨	-11.2356
萬化	-11.2357
四序	-11.2357
漂	-11.2358
鐡	-11.2359
狭	-11.236
夹	-11.236
有徳令	-11.236
又占曰太白	-11.236
昬	-11.2361
入營室	-11.2361
又占曰嵗星	-11.2361
蒿	-11.2361
岱	-11.2362
扇	-11.2363
更若	-11.2363
詘	-11.2363
成勾己	-11.2364
之令	-11.2364
嗇	-11.2364
嵗煞	-11.2364
鉤	-11.2365
遽	-11.2365
受其殃	-11.2366
攀	-11.2367
啼	-11.2368
言天	-11.2368
神者	-11.2368
模	-11.2368
蟄蟲	-11.2369
生於申	-11.2369
僵	-11.2369
顓頊	-11.2369
雕	-11.2369
汪	-11.237
后宫	-11.237
震庚亥未	-11.237
徳秀	-11.237
班固	-11.2371
之北	-11.2371
九位	-11.2372
恥	-11.2372
竄	-11.2372
午位	-11.2373
盆	-11.2373
癡	-11.2373
失國	-11.2373
屬翼軫分	-11.2374
漂流	-11.2374
巻	-11.2374
坤地西南	-11.2374
太宰	-11.2375
罹	-11.2375
掌握	-11.2375
太簇	-11.2376
膀胱	-11.2376
佚	-11.2376
先見	-11.2378
爰	-11.2378
焦延夀曰	-11.2378
甲己	-11.2378
五臟	-11.238
過也	-11.2381
耆	-11.2383
妙用	-11.2384
選擇宗鏡曰	-11.2384
巫咸曰辰星	-11.2384
五行生旺	-11.2385
燕趙	-11.2388
毫釐	-11.239
倒衝	-11.239
五伯	-11.2392
從心	-11.2393
真假	-11.2394
出地	-11.2394
生涯	-11.2394
刑罰	-11.2395
金月	-11.2396
無事	-11.2399
一理	-11.24
困窮	-11.24
後限	-11.2401
日月㑹於	-11.2402
重疊	-11.2402
以義	-11.2403
紫白	-11.2405
天淵	-11.2407
雲漢	-11.2408
雙親	-11.2409
為仇	-11.2411
離珠	-11.2411
度少	-11.2413
甲申旬	-11.2413
死地	-11.2413
戌土	-11.2418
申子辰水	-11.2418
須當	-11.2419
庚子辛丑	-11.2419
本為	-11.2421
昴宿	-11.2422
軍上氣	-11.2422
身星	-11.2423
掛一	-11.2423
石氏曰月	-11.2424
月上	-11.2427
木人	-11.2427
甲午乙未	-11.2428
相輔	-11.2431
侍從	-11.2435
西没	-11.2437
出河	-11.2437
三足	-11.244
加盤	-11.2441
男兒	-11.2445
妙理	-11.2445
宿一偏東三度	-11.2447
其星不明	-11.2449
尊星	-11.2449
失利	-11.245
己巳日	-11.2453
前圖	-11.2455
失政	-11.2455
次看	-11.2456
論曰	-11.2456
和諧	-11.2458
此條	-11.2459
死而	-11.2459
可為	-11.246
來往	-11.2462
黑道	-11.2463
建旺	-11.2464
生殺	-11.2465
庚辛壬癸	-11.2469
行財運	-11.2474
次舍	-11.2474
龜星	-11.2476
同知	-11.248
石氏曰彗星出	-11.2481
所居之	-11.2481
必當	-11.2481
敗絶	-11.2485
守心	-11.2486
事成	-11.2487
天三	-11.2487
有出者	-11.2489
一條	-11.2491
太衝	-11.2491
黃帝	-11.2493
命度	-11.2497
多智	-11.2498
侯伯	-11.25
五行之氣	-11.2501
山澤	-11.2502
王子	-11.2502
室宿	-11.2503
在己	-11.2505
六己	-11.2508
于地	-11.2509
虎視	-11.2509
自成	-11.251
牛角	-11.2512
郗萌曰太白守	-11.2513
若人	-11.2514
五黄	-11.2515
所止	-11.2516
是火	-11.2517
内篇	-11.2518
其邦	-11.2521
甲寅日	-11.2522
卯日	-11.2523
其德	-11.2524
窮通	-11.2524
小旱	-11.2525
己午未	-11.2526
者凶	-11.2526
最貴	-11.2526
飛天	-11.2527
天巫	-11.2527
楚王	-11.2528
死一曰	-11.2535
兩卦	-11.2536
言之也	-11.2545
乙未日	-11.2548
哀帝	-11.2552
邊地	-11.2552
受胎	-11.2553
一隂生	-11.2556
有夀	-11.256
一至	-11.256
列國	-11.2563
之基	-11.2563
一同	-11.2564
氐宿	-11.2564
限到	-11.2565
氣和	-11.2566
最𦂳	-11.2566
先起	-11.2567
得利	-11.2569
主宰	-11.2571
一六	-11.2571
井宿	-11.2572
之徵	-11.2573
臨身命	-11.2575
土命	-11.2576
所在也	-11.2579
集於	-11.2582
取財	-11.2582
三寸	-11.2592
所建	-11.2592
昭王	-11.2595
春風	-11.26
相守	-11.26
之語	-11.26
休敗	-11.2601
只作	-11.2601
卯辰	-11.2602
但以	-11.2605
全在	-11.2616
君也	-11.2617
則天	-11.2617
相貌宫	-11.2619
為生氣	-11.262
其度	-11.2622
心性	-11.2623
分金	-11.2624
餘奴	-11.2626
夘月	-11.263
海水	-11.2631
巫咸曰太白守	-11.2632
是嵗	-11.2634
運入	-11.2636
六庚日	-11.2638
受兵	-11.2641
天西北	-11.2645
北陸	-11.2646
太虚	-11.2647
紫㣲	-11.265
不中	-11.2652
丙子日	-11.2652
參伐	-11.2653
紫氣	-11.2657
未詳	-11.2659
但有	-11.2664
入室	-11.2665
所直	-11.2667
來年	-11.2668
八者	-11.2668
尅竊	-11.267
求福	-11.2671
六白	-11.2672
不殊	-11.2676
各一	-11.2676
為最	-11.2677
無刑	-11.2677
后合	-11.2681
身孤	-11.2687
更臨	-11.2689
頭目	-11.2694
火制	-11.2695
丁亥日	-11.2697
輔佐	-11.2702
九百四十	-11.2703
中男	-11.2705
白虹	-11.2705
失於	-11.2705
考之	-11.2706
亢金	-11.2707
無衝	-11.2707
成矣	-11.2708
所取	-11.2708
坎上	-11.271
一下	-11.2711
甚明	-11.2715
財元	-11.2715
財官印	-11.2715
為小	-11.2716
定日	-11.2717
生男	-11.2718
惟忌	-11.2718
中平	-11.2718
星見	-11.2719
福最	-11.2724
中得	-11.2726
反對	-11.2727
如用	-11.2728
輻	-11.2731
俱以	-11.2731
直而	-11.2731
運逢	-11.2733
狡猾	-11.2734
乾兌	-11.2734
氣散	-11.2734
陷弱	-11.2735
三合五行	-11.2735
之辨	-11.2738
弓弩	-11.2738
睿	-11.2739
全者	-11.274
一人	-11.2741
綸	-11.2741
殞	-11.2742
瑞應圖曰	-11.2742
皇太子	-11.2745
帳	-11.2745
村	-11.2745
捉	-11.2745
者亡	-11.2746
技	-11.2746
外篇	-11.2746
恱	-11.2746
棗	-11.2747
枕主	-11.2748
官煞混雜	-11.2748
石氏曰月暈	-11.2749
謫	-11.2749
宫人	-11.2749
衣裳	-11.275
所謀	-11.275
􁵸	-11.275
十二吉山宜寅午戌申子辰年月日時	-11.275
有黜者	-11.275
貳	-11.2751
庾	-11.2751
翰苑	-11.2751
洞微	-11.2751
有始無終	-11.2751
人在	-11.2752
旺相氣	-11.2752
囬	-11.2753
造𦵏	-11.2753
十有五	-11.2753
黍稷	-11.2754
姊妹	-11.2754
時憲書	-11.2755
棘	-11.2755
娵訾	-11.2755
踏	-11.2755
搆	-11.2755
凑	-11.2756
裝	-11.2756
攢	-11.2756
紊	-11.2756
未得	-11.2758
僣	-11.2758
酸	-11.2758
進賢	-11.2759
皇極經世書	-11.2759
悍	-11.2759
症	-11.2759
腕	-11.2759
太過不及	-11.276
呼吸	-11.276
狸	-11.2761
行人未至	-11.2762
𨼆	-11.2762
告貴	-11.2762
詰	-11.2763
而角	-11.2763
宗星	-11.2763
帯	-11.2764
丨灾	-11.2765
胎孕	-11.2765
丙丁巳午	-11.2765
陟	-11.2765
斬闗	-11.2766
滄海	-11.2766
頰	-11.2767
天地之氣	-11.2768
詞訟	-11.2768
希夷	-11.2768
喧	-11.2769
炳	-11.2769
恐懼	-11.277
東西咸	-11.277
荀	-11.2771
一路	-11.2773
威儀	-11.2774
江海	-11.2774
金銀	-11.2775
清潔	-11.2776
龜蓍	-11.2777
情也	-11.2778
戊寅日	-11.2779
賢士	-11.2779
嵗月日時	-11.278
日辰時	-11.278
不斷	-11.2781
河東	-11.2782
井泉	-11.2783
思慮	-11.2784
夭亡	-11.2785
主身	-11.2785
兩全	-11.2785
毒害	-11.2786
根源	-11.2786
大腸	-11.2789
隂陽升降	-11.2789
發逹	-11.279
智者	-11.2794
藏也	-11.2796
秋冬夜生	-11.2797
無人	-11.2797
吉凶禍福	-11.2798
無比	-11.2801
為對	-11.2802
尅父	-11.2806
工夫	-11.2806
其日宜	-11.2809
主聰明	-11.2809
戰鬬	-11.2809
灾殃	-11.281
婁宿	-11.281
張衡	-11.2814
下經	-11.2815
真官	-11.2816
參差	-11.2816
者言萬物	-11.2816
孤陽	-11.2819
正形	-11.2821
金錢	-11.2821
以乾	-11.2821
出身	-11.2824
致其	-11.2825
正而	-11.2825
大臣有誅	-11.2826
尤宜	-11.2826
武庫	-11.2827
在心	-11.2829
乎曰	-11.283
乙癸	-11.2832
已後	-11.2837
不破	-11.2837
入軫	-11.2837
為内	-11.2839
海中占曰太白守	-11.2839
失職	-11.2839
盈虚	-11.2839
除之得	-11.284
者正月	-11.2842
到老	-11.2843
弧星	-11.2843
甲申日	-11.2845
相傳	-11.2845
存亡	-11.2845
郗萌曰填星守	-11.2847
入國	-11.2849
在何宫	-11.2852
不殆	-11.2854
千五百	-11.2854
三十分	-11.2855
在隂	-11.2855
甲寅旬	-11.2857
多端	-11.2857
之質	-11.2859
出兵	-11.2861
别其	-11.2861
在坤	-11.2862
之象故	-11.2863
尅父母	-11.2865
聚㑹	-11.2865
復還	-11.2866
雲如	-11.2866
無福	-11.2867
何處	-11.2868
為義	-11.287
冬令	-11.2872
灾福	-11.2873
財局	-11.2874
千萬	-11.2875
兩端	-11.2876
便作	-11.2879
而轉	-11.288
之干	-11.2884
太極也	-11.2885
有白衣之㑹	-11.2885
蒼白	-11.2886
自坐	-11.2886
甘氏曰太白	-11.2887
作亂	-11.2887
主貧賤	-11.2891
又怕	-11.2892
遊年	-11.2892
為孤	-11.2892
木曜	-11.2893
生出	-11.2894
北行	-11.2894
十一日	-11.2895
三停	-11.2898
支之	-11.2899
九星在	-11.29
有金	-11.2901
禄存	-11.2901
天網	-11.2901
不乆	-11.2902
其人必	-11.2902
之禮	-11.2902
如前	-11.2903
此位	-11.2904
遇土計	-11.2904
内戰	-11.2905
按此	-11.2906
非謂	-11.2907
七百七十	-11.2909
頭尖	-11.2909
天神	-11.2909
三皇	-11.291
四墓	-11.2911
相等	-11.2912
淮南子	-11.2913
亦如之	-11.2914
在陽宫	-11.2915
天賊	-11.2917
見乎	-11.2917
三王	-11.292
六十卦	-11.2923
三河	-11.2923
財命	-11.2924
又能	-11.2924
語言	-11.2928
與坤	-11.2928
乾位	-11.2929
損財	-11.293
殃咎	-11.293
保其	-11.2931
之意也	-11.2934
入月中	-11.2941
天隂	-11.2942
應天	-11.2943
胎養	-11.2944
主性	-11.2945
就中	-11.2948
吉陳曰	-11.2949
占得	-11.2952
在胃	-11.2954
復於	-11.2954
發動	-11.2955
下盤	-11.2957
目疾	-11.296
授時	-11.2962
旬始	-11.2963
以寅為	-11.2964
相乗	-11.2966
五離	-11.2967
止忌	-11.2967
天行	-11.2971
天乙貴	-11.2972
施為	-11.2972
王氏	-11.2973
庭中	-11.2973
有死	-11.2981
安然	-11.2985
平安	-11.2986
無方	-11.2989
十萬	-11.2991
其物	-11.2992
加戌	-11.2995
三方主	-11.3002
㑹諸侯	-11.3006
改元建	-11.3007
一十七	-11.3008
方伯	-11.3008
自絶	-11.301
六百四十	-11.301
壬午癸未	-11.3011
圖之	-11.3015
臨日辰	-11.3016
乾卦	-11.3018
身命宫	-11.3018
二十有四	-11.3022
官灾	-11.3023
上位	-11.3023
衝擊	-11.3026
其志	-11.3029
所歸	-11.3031
稱兵	-11.3031
六十年	-11.3032
二十九日	-11.3033
邑有兵	-11.3034
夘戌	-11.3038
無所得	-11.304
莫言	-11.3041
出處	-11.3041
為王	-11.3043
别位	-11.305
神光	-11.3051
名之曰	-11.3052
在何	-11.3052
傳中	-11.3054
之制	-11.3055
財福	-11.3056
行龍	-11.3059
較之	-11.3061
盡也	-11.3061
復有	-11.3061
壬申日	-11.3061
庚辰日	-11.3065
或云	-11.3065
不孝	-11.3068
卯酉為	-11.3071
必作	-11.3074
肯	-11.3074
犯上	-11.3074
見于	-11.3076
幽州	-11.3078
日照	-11.3079
之地也	-11.3083
星不具	-11.3084
有助	-11.3084
在西南	-11.3085
無私	-11.3085
七赤	-11.3086
不出年	-11.3087
以春	-11.3091
十有九	-11.3092
貴人多	-11.3095
憂疑	-11.3095
雖在	-11.3096
一端	-11.3098
遇土	-11.3099
春秋感精符曰	-11.3108
老子	-11.3112
龍門	-11.3112
不昌	-11.3115
萬二千	-11.3117
承之	-11.312
所生之	-11.3121
如玉	-11.3121
相感	-11.3125
先天之	-11.3125
救神	-11.3128
攙	-11.3131
應也	-11.3132
孤立	-11.3132
一課	-11.3132
戯	-11.3133
海中占曰熒惑守	-11.3133
㨿	-11.3135
螟	-11.3136
唐沈芝云	-11.3136
見木炁	-11.3136
不同而	-11.3137
萬三千	-11.3137
實為	-11.314
黔	-11.314
閼	-11.314
褒	-11.314
絮	-11.3141
准上文	-11.3141
㳺	-11.3141
古今同三星	-11.3141
者此也	-11.3142
荷	-11.3143
鱉	-11.3143
乃得	-11.3143
躓	-11.3143
拳	-11.3143
壬騎龍背	-11.3144
瓶	-11.3145
虹蜺	-11.3145
隂陽不	-11.3146
癆	-11.3146
前五辰	-11.3146
論命	-11.3147
輪廓	-11.3147
駿	-11.3147
浄	-11.3147
栗	-11.3148
無徳	-11.3148
摘	-11.3148
日生刺是謂	-11.3148
淸	-11.3148
誼	-11.3148
廣聖厯曰	-11.3149
闘	-11.3149
行事	-11.3149
臼	-11.3149
搖	-11.3149
輙	-11.3149
怡	-11.315
走飛草木	-11.315
樞要厯曰	-11.315
閙	-11.3151
劔	-11.3151
纓	-11.3151
咬	-11.3151
柱中有	-11.3151
五虎遁	-11.3153
枚	-11.3153
惻	-11.3153
牝牡	-11.3153
運動	-11.3153
貶	-11.3154
喜忌篇云	-11.3154
鈐	-11.3154
二人	-11.3154
䖍	-11.3154
兌丁巳丑	-11.3154
湧	-11.3155
戊子日	-11.3155
十二吉山宜亥卯未巳酉丑年月日時	-11.3155
鰥寡	-11.3155
惕	-11.3155
携	-11.3155
徽	-11.3156
五十日不下	-11.3156
吠	-11.3157
汙	-11.3157
墀	-11.3157
林鍾	-11.3158
付	-11.3158
西方金	-11.3158
揖	-11.3159
欽定四庫全書子部七	-11.316
文耀鈎曰	-11.316
扐	-11.316
在東南	-11.316
用時	-11.316
寕	-11.3161
偉	-11.3161
晚景	-11.3161
六爲宗廟	-11.3161
彪	-11.3162
漏闗	-11.3163
兜財	-11.3164
梯	-11.3165
所向	-11.3165
貴登天門	-11.3165
鵠	-11.3165
與乾	-11.3165
僭	-11.3165
氣盛	-11.3166
娶婦	-11.3166
霜雪	-11.3167
陽日	-11.3167
髙叢	-11.3167
向下	-11.3167
天子有喜	-11.3167
湊	-11.3168
河洛	-11.317
日庚辰時	-11.317
矜	-11.3171
師巫	-11.3172
之真	-11.3172
冒	-11.3173
靈棋	-11.3173
多不	-11.3173
從下	-11.3174
浴盆	-11.3175
河圖洛書	-11.3175
在乾	-11.3175
元王	-11.3177
其内	-11.3178
造父	-11.3179
當至不至	-11.3181
箕尾	-11.3182
日甲子時	-11.3182
為官星	-11.3187
被刑	-11.3191
口訣	-11.3192
張良	-11.3195
仲秋	-11.3198
莫如	-11.3198
堅剛	-11.3199
巽下	-11.3201
時加	-11.3203
因其	-11.3204
而亡	-11.3206
期三月	-11.3206
犬生子	-11.3206
萬物生	-11.3207
火鬼	-11.3208
𤣥機	-11.3211
故置	-11.3212
不離乎	-11.3213
於西方	-11.3214
楊氏	-11.3214
與我	-11.3214
多難	-11.3217
季春	-11.3217
虛危	-11.3218
命位	-11.3219
之實	-11.3219
殺其	-11.3222
衰鄉	-11.3223
鳴吠對	-11.3226
不通月氣	-11.3226
在黄道外	-11.3226
者葢	-11.3228
暗曜	-11.323
木為財	-11.3232
有黄	-11.3234
同宮	-11.3234
發越	-11.3236
下文	-11.3236
臣謀	-11.3237
其根	-11.3238
鬼門	-11.3239
議論	-11.324
色黄白	-11.3241
八千	-11.3241
敗地	-11.3243
水絶	-11.3245
石虎	-11.3245
逢時	-11.3247
須有	-11.325
樹木	-11.3251
為用曰	-11.3252
一千八十	-11.3253
無忌	-11.3254
一隅	-11.3254
逃走	-11.3254
刀兵	-11.3255
一段	-11.3257
和而	-11.326
單行	-11.3262
只因	-11.3262
顔色	-11.3263
夜照	-11.3265
尾宿	-11.3267
則夢	-11.3269
終須	-11.3269
月照	-11.3269
為始	-11.3271
嵗刑	-11.3273
九江	-11.3274
火災	-11.3275
合此格	-11.328
至酉	-11.3281
色黃	-11.3281
不覺	-11.3281
陽精	-11.3281
逆者	-11.3282
不可與	-11.3282
失明	-11.3282
之表	-11.3283
凡論	-11.3284
改元永	-11.3286
限宫	-11.3288
黑色	-11.3288
被尅	-11.3291
物物	-11.3292
隂陽之氣	-11.3292
於隂	-11.3294
仔細推	-11.3296
冨貴	-11.3298
壬辰日	-11.3302
五聲	-11.3302
陽盛	-11.3306
百事皆	-11.3307
不寜	-11.3307
定須	-11.3308
三日宫	-11.3309
次星	-11.3311
矣如	-11.3312
丑土	-11.3314
火庫	-11.3315
兩地	-11.3315
享用	-11.3317
為變	-11.3318
兩課	-11.332
更始	-11.332
不空	-11.3321
於丑	-11.3322
源流	-11.3324
則發	-11.3327
泰之	-11.3327
坤卦	-11.3327
足開	-11.3328
無食	-11.333
平章	-11.3337
天江	-11.3337
已有	-11.3341
長久	-11.3342
不令	-11.3343
未定	-11.3344
許多	-11.3347
月光	-11.3348
山東	-11.3349
三重	-11.3349
故用	-11.3352
部位	-11.3355
入北斗	-11.3358
末主	-11.3359
諸宫	-11.3359
方知	-11.336
能發福	-11.3361
夏火	-11.3362
廟樂	-11.3362
當從	-11.3363
於戌	-11.3364
海内	-11.3364
分奪	-11.3364
乾下	-11.3365
冀州	-11.3369
災厄	-11.337
歡樂	-11.337
收藏	-11.3372
被傷	-11.3372
合朔	-11.3373
繼之	-11.3374
荆州占曰嵗星守	-11.3375
星坐	-11.3376
以十	-11.3378
逢旺	-11.338
精微	-11.338
為風	-11.3382
之害	-11.3384
郗萌曰嵗星入	-11.3384
立是謂	-11.3385
蓋以	-11.3388
財運	-11.3389
前限	-11.339
夜占	-11.3391
細詳	-11.3392
子中	-11.3394
屏星	-11.3394
其家	-11.3395
不禁	-11.34
倍之	-11.3404
方有	-11.3405
人形	-11.3405
兖州	-11.3405
相氣	-11.3406
有何	-11.3408
從化	-11.3409
百六十	-11.3409
者也故	-11.3409
有凶	-11.341
暗中	-11.3413
天祿	-11.3415
行南運	-11.3415
五百四十	-11.3416
反目	-11.3417
紅潤	-11.3418
可與	-11.3418
方圖	-11.3421
無金	-11.3422
金重	-11.3422
貴子	-11.3423
災害	-11.3423
財利	-11.3425
生則	-11.3429
日夜	-11.343
丁生	-11.3432
軍上	-11.3433
太原	-11.3433
不為凶	-11.3435
去地	-11.3436
雷雨	-11.3437
無端	-11.3439
生其	-11.3442
有火災	-11.3449
必無	-11.3449
之鬼	-11.345
平原	-11.3452
入奎	-11.3453
石氏曰太白入	-11.3454
為美	-11.3459
之爻	-11.3461
又忌	-11.3461
水命	-11.3462
丁丑日	-11.3465
二子	-11.3465
手之	-11.3465
之輩	-11.3471
可作	-11.3472
吉星照	-11.3474
陽剛	-11.3474
大喜	-11.3477
東至	-11.3477
星守照	-11.3478
度今在	-11.3478
丁酉日	-11.3479
中交	-11.348
成物	-11.348
雜卦	-11.348
為治	-11.3485
五星聚	-11.3488
𦂳要	-11.349
朔至	-11.3491
共為	-11.3494
無救助	-11.3494
涯	-11.3495
值空亡	-11.3496
以隂	-11.3497
春占	-11.35
如是則	-11.35
臣為亂	-11.3501
出自	-11.3502
多寡	-11.3504
兵戰	-11.3505
潦	-11.3506
向前	-11.3507
並無	-11.3508
如甲乙日	-11.3515
久而	-11.3516
所能	-11.3516
乃成	-11.3518
大國	-11.352
患難	-11.3525
歸忌	-11.3527
旺相休囚	-11.3528
犯刑	-11.3529
河海	-11.3532
所忌者	-11.3537
馬生子	-11.3538
中興	-11.3539
者數之	-11.3543
乙竒	-11.3544
論如	-11.3544
赤雲氣入	-11.3545
此章	-11.3546
雨雪	-11.3548
卦爻	-11.3548
相順	-11.3548
居南	-11.3549
巷	-11.3549
犯者	-11.355
佈	-11.3552
聾啞	-11.3552
身強	-11.3554
古今同二星	-11.3555
其隂	-11.3556
燔	-11.3557
而言則	-11.3558
壬午日	-11.3559
一十三	-11.3559
挟	-11.356
少人知	-11.3561
磨蝎	-11.3561
骸	-11.3562
飄蓬	-11.3563
嚮	-11.3563
觴	-11.3563
伊尹	-11.3563
宴	-11.3563
赫	-11.3563
蕪淫	-11.3564
眸	-11.3564
煥	-11.3564
翟	-11.3565
瑞應圖曰王者	-11.3565
度太	-11.3565
孳	-11.3566
絕	-11.3566
自上而下	-11.3566
鮑	-11.3566
股肱	-11.3567
其術	-11.3568
驂	-11.3568
頷	-11.3568
綿綿	-11.3568
金木水火	-11.3568
紅鸞	-11.3568
洋	-11.3568
眥	-11.3569
十二吉山宜申子辰寅午戌年月日時	-11.3569
敗臼	-11.3569
楊柳	-11.3569
痩	-11.3569
禾稼	-11.3569
故可	-11.357
太傅	-11.357
成鈎己	-11.357
臥	-11.357
沃	-11.3571
結婚姻	-11.3571
轅	-11.3571
萍	-11.3571
几	-11.3571
甲戊	-11.3572
總要厯曰	-11.3572
一晝一夜	-11.3572
庶幾	-11.3572
剖	-11.3572
大將死	-11.3572
撮	-11.3573
牲	-11.3573
捕捉	-11.3574
鎡基	-11.3574
藻	-11.3574
啄	-11.3574
符合	-11.3574
瞻視	-11.3575
踦	-11.3575
康寧	-11.3575
陽陽	-11.3575
蟬	-11.3575
陞遷	-11.3577
四表	-11.3577
隊	-11.3577
塊	-11.358
之説也	-11.358
唐虞	-11.358
獲其	-11.358
艾	-11.358
不見之形	-11.3581
水火既濟	-11.3582
悅	-11.3582
脾胃	-11.3582
蚩尤	-11.3583
也惟	-11.3583
相離	-11.3584
黄帝占曰熒惑守	-11.3584
今厯	-11.3584
誘	-11.3584
為貴格	-11.3585
死墓	-11.3585
正月建寅	-11.3585
中爻	-11.3585
揲蓍	-11.3585
乖違	-11.3586
為奴	-11.3586
相關	-11.3586
簿	-11.3587
因此	-11.3587
三日以上	-11.3588
最妙	-11.3593
只恐	-11.3596
後來	-11.3597
化龍	-11.3598
又被	-11.3599
以陽為	-11.3599
弑君	-11.36
敗財	-11.36
遊魂	-11.3601
震動	-11.3605
惡人	-11.3606
假令甲子	-11.3608
兩箇	-11.3608
庚寅日	-11.3609
貧困	-11.3609
起甲子	-11.3609
敗若	-11.361
髙低	-11.3614
徒配	-11.3615
孟春	-11.3618
方得	-11.3618
日丙寅時	-11.3619
成合	-11.3619
開市	-11.3622
為天子	-11.3622
木到	-11.3622
提要	-11.3623
易有	-11.3623
未易	-11.3623
禍福之	-11.3626
有誅	-11.3627
自恣	-11.3628
則木	-11.3628
加午	-11.3629
主口舌	-11.363
一節	-11.3631
術曰置	-11.3631
一十九	-11.3632
不求	-11.3635
子寅	-11.3635
木入	-11.3636
其法以	-11.3636
必發	-11.3636
是則	-11.3638
為旺	-11.3639
兄弟宫	-11.364
坎癸	-11.364
北夷	-11.3641
髙明	-11.3642
其國大	-11.3643
伏殃	-11.3645
武貴	-11.3645
隂柔	-11.3647
在奎	-11.365
民多死	-11.365
留連	-11.365
宅墓	-11.3651
晝貴	-11.3653
河間	-11.3654
隂府太	-11.3655
觀之則	-11.3655
分屬	-11.3656
南國	-11.3658
赤星入	-11.3661
白日	-11.3661
待時	-11.3664
進用	-11.3668
俱旺	-11.3669
咸恒	-11.367
外夷	-11.367
小周	-11.367
貧富	-11.3671
當用	-11.3672
純陰	-11.3673
坎下	-11.3673
所以有	-11.3674
六旬	-11.368
限元	-11.3681
紫微宫	-11.3682
左右角	-11.3684
通闗	-11.3684
不可擊	-11.3684
三萬	-11.3684
者兵	-11.3685
姤之	-11.3685
胎星	-11.3686
閑神	-11.3686
五弱	-11.3688
金尅木	-11.3688
壬寅癸卯	-11.3692
相推	-11.3693
入畢	-11.3694
革之	-11.3698
未中	-11.3699
亥亥	-11.3701
四八	-11.3701
庶出	-11.3702
火水	-11.3704
其國有兵	-11.3704
若水	-11.3705
忌火	-11.3707
六丁日	-11.3707
土局	-11.3708
未嘗不	-11.371
為序	-11.3715
聖王	-11.3715
形相	-11.3716
止于	-11.3717
夀元	-11.3722
作凶	-11.3727
争訟	-11.3728
太白晝見	-11.3729
補之	-11.3729
震兌	-11.3729
因以	-11.373
艮坤	-11.373
孤虚	-11.3732
利禄	-11.3732
而言也	-11.3732
者賤	-11.3733
如一	-11.3736
名之	-11.3736
兒女	-11.3738
各分	-11.3738
部郎	-11.3739
天徳合	-11.374
墓門	-11.3742
羅計孛	-11.3744
一句	-11.3744
大富貴	-11.3747
天子憂	-11.375
舊事	-11.3753
光耀	-11.3754
初四	-11.3755
下位	-11.3755
寅邜	-11.3758
不知所	-11.3759
夏氏曰日	-11.376
有文章	-11.376
定矣	-11.3762
之才	-11.3763
語曰	-11.3764
震下	-11.3765
應乎	-11.3769
㐫將	-11.3769
遷移宫	-11.377
横財	-11.3772
無有不	-11.3773
無禍	-11.3775
天輔	-11.3776
同上	-11.3777
自敗	-11.3778
吉象	-11.3789
酉酉	-11.379
與日同	-11.3791
發兵	-11.3793
見孛	-11.3794
逢陽	-11.3796
崩子	-11.3796
立穴	-11.3797
寄生	-11.3798
者大貴	-11.3803
度也	-11.3804
絶命	-11.3806
調和	-11.3807
巽上	-11.3808
或坐	-11.3808
多風	-11.3809
兵入	-11.3809
之中也	-11.3811
柔而	-11.3812
為𦂳	-11.3813
東門	-11.3817
以盡	-11.3817
禄居	-11.3824
名位	-11.3824
假使	-11.3825
横死	-11.3825
之㫖	-11.3826
廣大	-11.3826
青白	-11.3828
為日之	-11.3828
遂意	-11.383
其聲	-11.3831
長星	-11.3832
乎陽	-11.3832
為直符	-11.3832
遊行	-11.3833
陽九	-11.3833
相闗	-11.3834
一百八	-11.3834
申位	-11.3836
三嵗	-11.3837
棄之	-11.3838
往往	-11.3838
逢凶	-11.3845
元始	-11.3848
之限	-11.3851
三十六卦	-11.3852
貴煞	-11.3852
不修	-11.3855
動於	-11.3857
化縣	-11.3857
寅字	-11.3857
易傳	-11.3858
禄神	-11.3864
十有七	-11.3865
未及	-11.3865
墓辰	-11.3865
子申	-11.3865
襄公	-11.3868
五百七十	-11.3869
二十八宿分	-11.3871
永嘉	-11.3873
四百九十	-11.3875
白氣入	-11.3877
為惡	-11.3877
謀兵	-11.3878
可救	-11.3879
昭公	-11.3879
營運	-11.388
己酉丑月	-11.3884
相類	-11.3884
北至	-11.3885
甲乙為	-11.3888
不能成	-11.389
壬寅日	-11.3893
申子辰月	-11.3894
有暴	-11.3896
生明	-11.3896
隂在上	-11.3901
亥卯未月	-11.3903
辰是	-11.3903
為輔	-11.3903
來降	-11.3904
南方運	-11.391
壬癸為	-11.391
如人之	-11.3921
其將	-11.3924
日益	-11.3924
安撫司	-11.3924
刑戮	-11.3926
則否	-11.3931
見此	-11.3934
相依	-11.394
帶印	-11.3941
化鬼	-11.3942
非真	-11.3943
格中	-11.3944
字子	-11.3945
一宿	-11.3946
北方水	-11.3947
所傳	-11.3949
上經	-11.395
相迎	-11.395
有倚托	-11.3951
財官俱	-11.3956
交泰	-11.3956
浦	-11.3956
西北運	-11.3959
動物	-11.3959
處於	-11.396
芮	-11.396
實地	-11.3963
家業	-11.3963
獄事	-11.3964
長庚	-11.3964
得其所	-11.3964
然後有	-11.3965
水宿	-11.3966
有雲	-11.3968
其陽	-11.397
四野	-11.3971
甘氏曰日	-11.3972
陽爻	-11.3972
籥	-11.3975
初末	-11.3977
相盪	-11.3978
摶	-11.3978
髙位	-11.3979
國有喪	-11.398
加十五日指	-11.3983
離下	-11.3983
偏宜	-11.3983
餓	-11.3987
石氏占曰月	-11.3988
吉詩曰	-11.3988
光武	-11.3988
枯槁	-11.3988
京房易候曰	-11.3989
瓮	-11.3989
穩	-11.399
珪	-11.399
匃奴	-11.399
璽	-11.3991
襟	-11.3991
水入	-11.3994
家有	-11.3995
汾	-11.3996
掖	-11.3996
客大勝	-11.3996
耐	-11.3997
庇	-11.3997
霆	-11.3997
蠅	-11.3998
壽星	-11.3998
傲	-11.3999
駭	-11.3999
閫	-11.3999
丑午	-11.3999
區區	-11.3999
四更子正二刻	-11.3999
蚩尤旗	-11.4
竪	-11.4
彫	-11.4
剪	-11.4
膿血	-11.4
虫	-11.4
茹	-11.4001
叫	-11.4001
期一年逺二年	-11.4001
脂	-11.4001
已成	-11.4001
媾	-11.4001
渴	-11.4002
跨	-11.4002
其政	-11.4003
開山立向修方吉太歲	-11.4003
有女䘮	-11.4003
君位	-11.4003
玷	-11.4003
收斂	-11.4003
伎	-11.4003
陂	-11.4004
以五色占	-11.4004
斥	-11.4004
筵	-11.4004
闌	-11.4004
弓矢	-11.4005
溟	-11.4005
俱有	-11.4005
頽	-11.4005
圉	-11.4005
油	-11.4006
遐	-11.4006
輒	-11.4006
右掖門	-11.4007
不貴即富	-11.4007
若論	-11.4007
讎	-11.4008
有戮死者	-11.4008
火死	-11.4008
鵬	-11.4008
不可執一	-11.4008
傅說	-11.4008
煎	-11.4009
等煞	-11.401
悠	-11.401
之兆也	-11.401
餌	-11.401
他皆倣此	-11.401
牧養	-11.401
通身旺月	-11.401
夜則	-11.4012
讀書	-11.4012
初初	-11.4013
徐揚人	-11.4013
黄氣入	-11.4014
無印	-11.4015
淵源	-11.4016
破字	-11.4016
筭外即	-11.4016
春冬	-11.4016
馭	-11.4017
豺	-11.4017
耶律	-11.4017
十位	-11.4017
悚	-11.4017
餓死	-11.4018
嬌	-11.4019
乘軒	-11.4019
與此	-11.402
有亂臣	-11.402
八變	-11.4021
㓜年	-11.4021
十字	-11.4023
吞㗖	-11.4023
聲譽	-11.4024
性多	-11.4025
日乙丑時	-11.4025
虚詐	-11.4026
孫權	-11.4026
困苦	-11.4027
走獸	-11.4027
孝經内記曰日	-11.4028
須分	-11.4029
厯法	-11.4029
榖雨	-11.403
精誠	-11.403
韓魏	-11.4031
則謂之	-11.4031
幸臣	-11.4031
浮沉	-11.4032
守輿鬼	-11.4033
歲時	-11.4033
鬬訟	-11.4034
蔡氏曰	-11.4034
凡七	-11.4036
孤苦	-11.4038
任督	-11.4038
平分	-11.4039
未土	-11.4039
丁癸	-11.404
難測	-11.404
攻戰	-11.404
傾危	-11.4041
傷其	-11.4042
其先	-11.4042
酉未	-11.4043
天下大飢	-11.4043
癸未日	-11.4044
風吹	-11.4044
休旺	-11.4045
止用	-11.4045
宫中有	-11.4047
動植	-11.4047
君臣相	-11.4048
郗萌曰月犯	-11.4048
則乾	-11.4049
人臣	-11.405
雨則	-11.4051
竒耦	-11.4051
歸垣	-11.4051
能言	-11.4052
文貴	-11.4053
戊戌己亥	-11.4055
八寸	-11.4056
狐疑	-11.4057
五百八十	-11.4057
化金	-11.4059
詩書	-11.406
司危	-11.4062
天車	-11.4062
行來	-11.4063
相法	-11.4063
淫蕩	-11.4063
在日時	-11.4068
富貴貧賤	-11.4072
運臨	-11.4072
有水災	-11.4073
篇云	-11.4073
入太㣲	-11.4073
所著	-11.4074
也家性爲	-11.4075
則火	-11.4076
千二百	-11.4077
以治	-11.408
家資	-11.4082
正郎	-11.4083
凡遇	-11.4084
也或曰	-11.4084
有憂一曰	-11.4085
以辨	-11.4087
邑且	-11.4092
䘮門	-11.4093
退也	-11.4093
己土	-11.4093
凶暴	-11.4096
䘮車	-11.4097
眼下	-11.4097
察之	-11.4098
民多疾	-11.4099
大驛	-11.41
居垣	-11.4101
何足	-11.4102
男主	-11.4102
以制	-11.4105
伐齊	-11.4105
閒神	-11.4105
荆州占曰嵗星入	-11.4107
辰土	-11.4108
不解	-11.4108
頭面	-11.4109
納音為	-11.4111
盡矣	-11.4111
中天	-11.4112
隂德	-11.4112
之所為	-11.4113
未戌	-11.4113
中台	-11.4114
漢書曰	-11.4117
申申	-11.4117
丙申日	-11.4118
難保	-11.4119
木上	-11.4119
容貌	-11.4119
我心	-11.412
不還	-11.4121
異名	-11.4122
日辰上	-11.4124
生離	-11.4125
小赦	-11.4126
案宋書天文志曰	-11.4131
始有	-11.4133
遇木	-11.4134
為道	-11.4137
坎水	-11.4139
錦衣	-11.4141
不明則	-11.4142
兩河	-11.4143
也至於	-11.4145
所遇	-11.4145
半吉	-11.4148
或被	-11.4148
星明大則	-11.4152
長流	-11.4153
先賢	-11.4153
南山	-11.4154
辛丑日	-11.4156
艮震	-11.4159
一嵗之	-11.4162
如見	-11.4163
生長	-11.4164
官髙	-11.4164
火照	-11.4165
以内	-11.4167
好事	-11.4168
只得	-11.4173
犯此	-11.4175
在艮	-11.4176
日戊辰時	-11.4177
吉祥	-11.4178
艮下	-11.4182
一㑹	-11.4183
勝於	-11.4187
辛為官	-11.4189
蓬星	-11.4195
父母兄弟	-11.4196
克支	-11.4197
全見	-11.4197
金命	-11.4199
臨辰	-11.42
命遇	-11.4202
丙午日	-11.4203
立於	-11.4203
决之	-11.4204
納音尅	-11.4205
虚宿	-11.4206
萬物之所	-11.4206
根於	-11.4207
月徳合	-11.4208
巽風	-11.4209
宜向	-11.4209
之分野	-11.4213
㣲加	-11.4215
始交	-11.4217
金羅	-11.4218
也故以	-11.4218
犯月	-11.422
以行	-11.422
與母	-11.4221
小貴	-11.4222
額上	-11.4227
相逐	-11.4229
之變也	-11.423
造作	-11.4236
一說	-11.4237
印星	-11.4237
合數	-11.4237
能為福	-11.4239
辰日	-11.424
其名曰	-11.4241
離也	-11.4241
靈王	-11.4243
乗旺	-11.4244
之誤	-11.4245
林木	-11.4245
尊者	-11.4247
二煞	-11.4247
四季月	-11.4248
暗金	-11.425
失令	-11.4254
皆不可	-11.4256
在西北	-11.4258
禄旺	-11.4259
以金	-11.426
别本	-11.4261
雙行	-11.4267
戊申日	-11.4273
故貞	-11.4274
薄者	-11.4278
時上偏官	-11.428
不停	-11.428
以庚為	-11.4281
八百三十	-11.4283
初主	-11.4284
國安	-11.4284
其例	-11.4287
與火	-11.4289
建日	-11.429
小衍	-11.4292
三軍	-11.4294
從東	-11.4295
直於	-11.4295
己丑日	-11.4296
衰絶	-11.4299
缺陷者	-11.4299
積薪	-11.4301
環繞	-11.4301
必至	-11.4306
官榮	-11.4311
仲月	-11.4312
以御	-11.4316
四卷	-11.4317
馬貴	-11.4321
尅剥	-11.4327
酉申	-11.4327
官府	-11.4327
興衰	-11.4327
破局	-11.4332
天運	-11.4333
齊王	-11.4334
甲戌旬	-11.4335
有根	-11.4336
甲生人	-11.4338
無虧	-11.4339
黑氣	-11.4339
天漢	-11.434
人物之	-11.4341
有亂	-11.4341
禳之	-11.4342
者天地	-11.4343
也然則	-11.4348
子亥	-11.4349
八干	-11.435
反生	-11.435
頭足	-11.4352
用印	-11.4353
子未	-11.4353
申酉月	-11.4354
行軍	-11.4354
豫之	-11.4354
所治	-11.4355
照身命	-11.4356
月家	-11.436
水厄	-11.4361
好樂	-11.4363
離坎	-11.4374
受賜	-11.4375
太陽守	-11.4376
大會	-11.4377
孟月	-11.438
二十一度	-11.438
龍德	-11.438
大驚	-11.438
又行	-11.4382
皆非	-11.4382
位推	-11.4383
石氏曰太白犯	-11.4383
伐楚	-11.4384
兵行	-11.4384
在都司城	-11.4388
哀公	-11.4395
木絶	-11.44
則爲	-11.44
時中	-11.4401
天雄	-11.4401
前賢	-11.4402
限度	-11.4405
尅干	-11.4405
日墓	-11.4408
此篇	-11.4409
古有	-11.441
西東	-11.4411
水來	-11.4411
死于	-11.4412
不聞	-11.4412
以授	-11.4416
言則	-11.4416
用七	-11.4418
所論	-11.4419
甘氏曰辰星	-11.4419
之節	-11.4421
黒白	-11.4424
作鬼	-11.4424
珞琭	-11.4426
能自	-11.4426
傅説	-11.4427
不外	-11.443
曰吾	-11.4433
丑中有	-11.4434
明君	-11.4436
遙	-11.4437
非是	-11.4437
宵	-11.4437
雍州	-11.4438
無祿	-11.4439
穉	-11.444
采真歌云	-11.444
難獲	-11.444
桐	-11.444
婆	-11.4441
碌碌	-11.4442
易道	-11.4445
有阻	-11.4447
睢	-11.4447
挫	-11.4448
喙	-11.4448
蝦	-11.4448
風煞	-11.4448
巾	-11.4449
畋獵	-11.4449
黯	-11.445
幕	-11.4451
金門	-11.4451
修倉庫	-11.4451
恢	-11.4451
蓋山黄道貪	-11.4451
明星	-11.4452
孤辰寡宿	-11.4453
俱出	-11.4453
水日	-11.4453
霄	-11.4453
靑	-11.4453
管攝	-11.4454
箱	-11.4454
政事	-11.4454
踞	-11.4455
頒	-11.4455
偕	-11.4455
谿	-11.4455
伶仃	-11.4455
病凶	-11.4455
宜天徳月徳天徳合月徳合	-11.4455
天月二德	-11.4456
祼	-11.4456
貯	-11.4456
鋪	-11.4456
理愚歌云	-11.4456
覔	-11.4456
乾坤艮巽	-11.4456
冕	-11.4456
攀鞍	-11.4456
時上偏財	-11.4456
即其	-11.4457
填星出入留舎	-11.4457
作空亡	-11.4457
陛	-11.4457
酒旗	-11.4458
菑	-11.4458
課凡課	-11.4458
自下而上	-11.4458
饗	-11.4458
亘	-11.4459
欹	-11.4459
缺唇	-11.4459
囿	-11.4459
出月左方日在	-11.446
呻吟	-11.446
匀	-11.446
伊川	-11.4461
釡	-11.4461
迅	-11.4461
灑	-11.4462
傑	-11.4462
黃帝占曰熒惑	-11.4462
卅	-11.4462
請謁	-11.4462
沾	-11.4463
罵	-11.4464
林鐘	-11.4464
裹	-11.4464
景公	-11.4465
袍	-11.4465
黃帝占曰客星入	-11.4465
都是	-11.4466
熖	-11.4466
畢月烏	-11.4466
財多身弱	-11.4466
一三五七九	-11.4466
臆	-11.4467
悖逆	-11.4467
兩角	-11.4467
孕生男	-11.4468
猖狂	-11.4468
頴	-11.4469
䘮弔	-11.4469
伏犀	-11.4469
順行十二辰	-11.4469
七曰	-11.447
五官	-11.447
彖	-11.447
斗罡	-11.447
索隠曰	-11.447
水溢	-11.4471
勅	-11.4471
圍城	-11.4471
臣謀其主	-11.4472
莒	-11.4473
金故	-11.4473
截路空亡	-11.4473
刼刃	-11.4474
也其日忌	-11.4475
甘氏曰太白守	-11.4475
朱子語	-11.4476
開闢	-11.4476
最是	-11.4477
寒熱	-11.4477
逝	-11.4477
貞正也	-11.4479
尤佳	-11.448
嘘	-11.4481
千金	-11.4481
財官印食	-11.4481
有箇	-11.4482
兵革起	-11.4483
禽在天號	-11.4483
王公	-11.4483
午未申酉	-11.4483
最佳	-11.4484
皆倣此	-11.4484
可制	-11.4485
不休	-11.4488
卦氣圖	-11.4488
與日合	-11.4489
何愁	-11.4489
皇恩	-11.4491
春夏生	-11.4491
諸凶	-11.4493
􁀴	-11.4493
浮雲	-11.4495
甲午旬	-11.4496
土重	-11.4497
澮	-11.4498
丙戌丁亥	-11.4499
祿位	-11.4499
三十有六	-11.4499
張子曰	-11.45
胞胎	-11.4501
白玉	-11.4503
財豐	-11.4504
天下不安	-11.4505
正五行	-11.4505
四足	-11.4507
我尅	-11.4507
賊盗	-11.4509
乗氣	-11.4509
辰巳午未	-11.4509
多火災	-11.451
減半	-11.451
剛柔相	-11.4511
彗星見	-11.4513
煞也	-11.4515
尺六寸	-11.4516
和睦	-11.4521
此曜	-11.4521
亢宿	-11.4524
權衡	-11.4526
宗室	-11.4527
共成	-11.4529
天蓬	-11.4529
四千九十六	-11.453
嵗星犯守	-11.453
理者	-11.4532
居西北	-11.4533
四殺	-11.4533
相與	-11.4534
日庚申時	-11.4534
失脱	-11.4535
謙之	-11.4535
虛實	-11.4537
黄氣	-11.4537
洛書曰日	-11.4537
安命在	-11.4538
建子	-11.4543
適變	-11.4543
輔之	-11.4544
是天皇	-11.4546
斯人	-11.4548
▁日	-11.4548
乙亥日	-11.4549
則富貴	-11.455
六神	-11.4552
三主	-11.4554
六甲生人	-11.4554
白頭	-11.4555
客軍	-11.4555
經商	-11.4556
暴敗	-11.4557
有差	-11.4558
公訟	-11.4559
嘉平	-11.4559
矣凡	-11.4559
君子小人	-11.4563
不害	-11.4566
折足	-11.4567
又謂之	-11.4567
眼大	-11.4568
應驗	-11.4569
盛於	-11.4569
因妻	-11.4571
逆轉	-11.4571
或逢	-11.4572
入門	-11.4572
城頭	-11.4573
左手	-11.4574
天綱	-11.4574
陽爲	-11.4576
靜動	-11.4576
起至	-11.4576
凶事	-11.4578
身命坐	-11.458
畢宿	-11.4581
少亡	-11.4582
顯露	-11.4582
數九	-11.4583
山東北	-11.4585
如臨	-11.4587
號為	-11.4587
天月徳	-11.4587
有角	-11.4588
夘辰	-11.4589
坤二	-11.4589
填星逆行	-11.459
一百九十二	-11.459
離别	-11.4594
盗氣	-11.4596
郡國	-11.4599
而降	-11.4599
環繞之	-11.4602
胃昴	-11.4603
上局	-11.4604
大殺	-11.4604
金水木	-11.4604
於命	-11.4606
三倍	-11.4606
日辰年命	-11.4606
石氏曰客星出	-11.4607
坤乾	-11.4609
遇鬼	-11.4613
要得	-11.4613
幽王	-11.4615
天下有急	-11.4615
天左旋	-11.4616
為石	-11.4616
一舍	-11.4619
正中	-11.4622
獨居	-11.4622
四角	-11.4623
月宫	-11.4624
亢為	-11.4627
巽離	-11.4627
臣子	-11.4627
臨事	-11.4629
軍門	-11.4629
羅火	-11.4631
登髙	-11.4632
于下	-11.4634
觀星	-11.4635
郗萌占曰月	-11.4637
有似	-11.4645
焉有	-11.4646
兼全	-11.4648
燕王	-11.4651
神農	-11.4651
相賊	-11.4652
在軫	-11.4653
乾巽	-11.4653
歳君	-11.4654
已過	-11.4654
春三月	-11.4655
時人	-11.4657
者隂陽之	-11.4658
百四十	-11.466
同時	-11.4661
又與	-11.4662
尚可	-11.4663
巫咸曰熒惑入	-11.4666
究之	-11.4666
其財	-11.4667
夜土	-11.4667
木神	-11.4669
眉頭	-11.4669
皆不吉	-11.467
邪正	-11.4671
反其	-11.4671
心包	-11.4672
去日	-11.4674
我尅者	-11.4674
隂日	-11.4675
相國	-11.4675
辰戌丑未為	-11.4675
百二十里	-11.4676
一尺五寸	-11.4676
六辰	-11.4677
多子	-11.468
有虧	-11.4681
天地之道	-11.4682
加減	-11.4682
縱得	-11.4688
坐向	-11.4689
四輔	-11.4691
透露	-11.4692
二旬	-11.4693
日道	-11.4695
如斯	-11.4695
以動	-11.4695
列於	-11.4696
權印	-11.4698
正色	-11.4699
相叅	-11.4699
不䏻	-11.4704
失節	-11.4704
二方	-11.4707
於西北	-11.4708
嵗計	-11.4708
亡又曰	-11.4709
則萬物	-11.4709
候星	-11.4711
后族	-11.4712
如今	-11.4712
有威	-11.4713
寅巳申	-11.4716
七百三十	-11.4718
皆成	-11.4719
舊説	-11.4722
上言	-11.4723
㑹元	-11.4724
多生	-11.4725
隂精	-11.4725
孔子曰	-11.4726
壁上	-11.4727
水火相	-11.4728
短而	-11.4728
修作	-11.4728
逢刑	-11.4729
多雨	-11.4729
入紫宫	-11.4731
清氣	-11.4732
形質	-11.4733
所㑹	-11.4735
太康	-11.4737
不完	-11.4739
其國亡	-11.4739
解曰	-11.4739
夕見	-11.4745
又曰日	-11.4746
交于	-11.4747
大臣謀	-11.4747
以至於	-11.475
六律	-11.4751
出遊	-11.4751
少病	-11.4753
之象若	-11.4755
正旺	-11.4758
已下	-11.4759
家性	-11.476
形氣	-11.4761
失經	-11.4761
祿貴	-11.4762
八位	-11.4763
九尺	-11.4763
相兼	-11.4767
夜行	-11.4768
也蓋	-11.4768
鍵閉	-11.4772
從上	-11.4776
貴女	-11.4778
天駟	-11.4778
兩貴	-11.4779
不住	-11.4781
為死	-11.4781
無虞	-11.4782
夜火	-11.4785
五精	-11.4785
歳徳	-11.4788
禽星	-11.4792
非其人	-11.4794
可乎	-11.4796
財爻	-11.4799
至理	-11.48
飛走	-11.4804
非命	-11.4804
妻妾宫	-11.4805
而論之	-11.4808
時逄	-11.481
五子	-11.481
犯乗	-11.4815
上距	-11.4818
下獄	-11.4819
乾為天	-11.482
亥字	-11.482
入庫	-11.4821
從而	-11.4821
小煞	-11.4821
卦位	-11.4821
莫非	-11.4822
參宿	-11.4824
於艮	-11.4825
隂陽交	-11.4827
為用也	-11.4828
北地	-11.4828
亦好	-11.483
六百七十	-11.4831
死炁	-11.4833
顯榮	-11.4835
為良	-11.4836
大疫	-11.4838
交限	-11.484
致死	-11.4846
不開	-11.4847
起處	-11.4849
為嫌	-11.4851
西北方	-11.4852
居髙	-11.4853
化生	-11.4855
土水	-11.4855
之丗	-11.4856
衝出	-11.4862
人宅	-11.4867
魚星	-11.4867
之志	-11.4867
從地	-11.487
也詩斷	-11.4871
黒氣	-11.4872
陰干	-11.4876
不致	-11.4876
名也	-11.4876
家破	-11.4881
三統	-11.4881
為之主	-11.4882
者雖	-11.4882
三百九十	-11.4883
過去	-11.4885
知州	-11.4886
行金水	-11.4888
胃土	-11.4888
土厚	-11.4889
度距	-11.4893
所乘	-11.4893
守禦	-11.4896
甲子年	-11.4896
既無	-11.4898
六虚	-11.4899
聊	-11.49
相冲	-11.4903
不出五年	-11.4904
衝起	-11.4905
相半	-11.4905
槍	-11.4907
縦	-11.4907
凡言	-11.4908
課曰	-11.4908
腑	-11.4909
誤也	-11.4911
蠻夷長官司	-11.4914
柔星	-11.4915
孟康曰	-11.4917
銖	-11.4918
高下	-11.492
災危	-11.4921
憕	-11.4922
雖多	-11.4923
侈	-11.4924
喚	-11.4924
居酉	-11.4924
限入	-11.4924
轂	-11.4925
先起兵者	-11.4925
海中占曰月犯	-11.4926
慳	-11.4926
釁	-11.4926
尺是中道	-11.4926
販	-11.4926
贅壻	-11.4927
醒	-11.4928
技藝	-11.4928
粧	-11.4928
韋	-11.4929
敖	-11.4929
鮮卑	-11.4929
其精	-11.4929
髙祖	-11.493
徭	-11.493
毒藥	-11.4931
懲	-11.4931
鬲	-11.4932
甞	-11.4932
蟹	-11.4932
捐	-11.4933
棟梁	-11.4933
天一生水	-11.4933
噪	-11.4933
彈	-11.4933
殽	-11.4933
氐土	-11.4934
選擇通書	-11.4934
委曲	-11.4934
缶	-11.4935
洪範五行傳曰	-11.4935
翊	-11.4935
譎	-11.4935
萬年書	-11.4935
燠	-11.4935
糞	-11.4936
戕	-11.4936
關梁不通	-11.4936
盈虧	-11.4937
生民	-11.4938
慳吝	-11.4939
傷官見官	-11.4939
挈	-11.4939
烹	-11.494
不比	-11.494
咽喉	-11.494
魯衛	-11.494
岀	-11.4941
蒿矢	-11.4941
塵埃	-11.4941
共合數二十	-11.4941
期不出一年	-11.4941
粘	-11.4942
板	-11.4942
宓	-11.4942
連茹	-11.4942
項羽	-11.4944
清閒	-11.4945
諸事皆忌	-11.4945
服藥	-11.4945
瘳	-11.4945
有失	-11.4945
彭城	-11.4946
花酒	-11.4946
生身	-11.4946
一本云	-11.4946
厭對	-11.4946
入房	-11.4947
沿	-11.4947
鎗	-11.4948
屵	-11.4948
天市垣	-11.4949
大用	-11.4949
鎔	-11.495
六乙生人	-11.495
恁地	-11.495
可推	-11.4951
必多	-11.4952
天廩	-11.4952
旣濟	-11.4952
分氣候三十六	-11.4952
仲吕	-11.4953
何承天	-11.4953
萬國	-11.4954
飛㢘	-11.4954
日日鬬者	-11.4954
蹈	-11.4954
日戊申時	-11.4954
穀雨	-11.4955
蘓	-11.4955
之最	-11.4955
考原	-11.4955
䎡	-11.4955
知命	-11.4956
榮華富貴	-11.4956
奮發	-11.4956
産業	-11.4957
三易	-11.4958
邾	-11.4958
亢池	-11.4958
互變	-11.4958
已土	-11.4959
孤鸞	-11.496
咸康	-11.496
三傳皆	-11.4961
無辜	-11.4962
日庚午時	-11.4966
朱鳥	-11.4966
安排	-11.4967
榮身	-11.4967
所起	-11.4969
巳酉丑金	-11.4969
忠信	-11.497
水星在	-11.497
也大抵	-11.4971
無聲	-11.4972
加卯	-11.4972
為限	-11.4973
悦喜	-11.4973
入手	-11.4976
章閏	-11.4977
氣聚	-11.4977
重厚	-11.4977
如甲子年	-11.498
大溪	-11.4981
飛禽	-11.4981
二十五日	-11.4982
癸亥日	-11.4983
氣應	-11.4984
晝火	-11.4984
印助	-11.4985
歳運同	-11.4987
亦與	-11.4989
孤窮	-11.4989
漢文帝	-11.499
隂陽二	-11.4991
十數	-11.4992
乘龍	-11.4993
乖離	-11.4994
音律	-11.4995
坎艮	-11.4996
西沒	-11.5
宮室	-11.5002
最為竒	-11.5003
宫起甲子	-11.5003
更與	-11.5005
定作	-11.5006
通火氣	-11.5009
為七	-11.5009
不是主星	-11.501
星入月中	-11.501
甲禄在寅	-11.5011
皆宜	-11.5011
石氏曰客星	-11.5012
伏誅	-11.5013
乗數	-11.5015
天福	-11.5015
有賊	-11.5017
四百四十	-11.5019
凶危	-11.502
黄金	-11.5022
後一辰	-11.5024
四品	-11.5024
甲戌日	-11.5025
於我	-11.5025
剛强	-11.5026
木孛	-11.5026
解除	-11.5028
危亡	-11.5031
百三十	-11.5031
守箕	-11.5032
戊戌日	-11.5033
若年月	-11.5033
熒惑逆行守	-11.5034
强國	-11.5034
財寳	-11.5038
州牧	-11.5039
粟貴	-11.504
翼宿	-11.504
石氏曰日	-11.5044
膽氣	-11.5045
顔子	-11.5046
秦漢	-11.5046
將亡	-11.5048
主疾病	-11.5049
自守	-11.5052
官福田財	-11.5055
一千五十	-11.5056
空虛	-11.5059
光彩	-11.5059
休息	-11.5065
七百六十	-11.5065
甲乙木	-11.5067
造物	-11.5067
同姓	-11.5069
不疑	-11.5069
牛宿	-11.507
丙甲	-11.5071
舊在	-11.5071
夭壽	-11.5072
法當	-11.5073
夾禄	-11.5073
星得地	-11.5076
喪其	-11.5076
震兊	-11.5076
為兄弟	-11.5077
明月	-11.5079
有言	-11.508
坐於	-11.5081
是鬼	-11.5082
戊辰日	-11.5084
修徳	-11.5085
神祗	-11.5087
湯火	-11.5089
火位	-11.5089
昏明	-11.509
盗神	-11.5091
常在	-11.5092
横紋	-11.5095
有物	-11.5096
病疾	-11.5096
五數	-11.5097
一元之	-11.5097
説曰	-11.5098
勿用	-11.51
王卒子	-11.51
光榮	-11.51
必傷	-11.5106
官吏	-11.5108
厄難	-11.5113
以南	-11.5118
不等	-11.5122
蓍數	-11.5122
居于	-11.5124
如此者	-11.5126
巫咸曰嵗星守	-11.5129
以和	-11.5132
甘氏曰熒惑入	-11.5133
專權	-11.5141
仍以	-11.5144
為緯	-11.5146
干支上	-11.5149
得數	-11.5151
之命若	-11.5153
孝經	-11.5153
土主	-11.5154
大同	-11.5154
大體	-11.5156
鬼鄉	-11.5157
分輕重	-11.5157
外同	-11.5159
剛而	-11.5163
萬户	-11.5163
三箇	-11.5163
天英	-11.5165
晝將	-11.5165
六曰	-11.5167
成事	-11.5171
乾象	-11.5172
三處	-11.5172
財煞	-11.5175
之數而	-11.5176
尅宅	-11.5178
星一名	-11.5181
天下有大	-11.5181
亥申	-11.5185
為恩	-11.5186
金度	-11.5188
地煩	-11.5189
厯家	-11.519
闕門	-11.5191
火起	-11.5191
失禮	-11.5192
每年	-11.5192
土徳	-11.5192
二儀	-11.5193
歸藏	-11.5196
物類	-11.5199
不但	-11.5201
得其正	-11.5201
虚空	-11.5204
口中	-11.521
以日為	-11.5212
生炁	-11.5212
事必	-11.5212
尊重	-11.5212
▁曰	-11.5214
者始	-11.5216
月駕	-11.5216
小則	-11.5217
且夫	-11.5217
九空	-11.5218
所占	-11.5218
復卦	-11.5225
慎之	-11.5227
煞官	-11.5232
上帝	-11.5233
星入垣	-11.5235
非横	-11.5235
初中	-11.5237
相謀	-11.5239
以巳為	-11.5239
二黑	-11.5242
掌中	-11.5244
亥戌	-11.5245
遂以	-11.5245
刑徳	-11.5245
金生於	-11.5245
州刺史	-11.5246
庚辛申酉	-11.5251
葬之	-11.5251
誠為	-11.5252
施恩	-11.5256
文魁	-11.5257
小會	-11.5258
憂驚	-11.5258
復反	-11.5261
桓帝	-11.5263
不藏	-11.5268
安有	-11.5268
而尅	-11.5272
宜退	-11.5275
安得不	-11.5275
不若	-11.5278
是神	-11.5279
卦畫	-11.5279
子丑寅	-11.528
欽定協紀辨方書卷	-11.528
推詳	-11.5281
宜居	-11.5282
守畢	-11.5282
陷者	-11.5283
日月夾	-11.5285
雲氣如	-11.5286
陳卓曰客星	-11.5287
大地	-11.529
之法以	-11.5291
課中	-11.5291
之大者	-11.5297
䘮其	-11.5297
甘氏曰嵗星守	-11.5297
安定	-11.53
又須	-11.5305
命門	-11.5306
莫若	-11.5308
求謀	-11.5312
睦	-11.5313
也易曰	-11.5318
艮兊	-11.5325
何為	-11.5326
龍戰	-11.5326
一等	-11.5327
生魄	-11.5329
救解	-11.5332
再得	-11.5333
陽卦	-11.5333
固有	-11.5335
有大憂	-11.5335
既生	-11.5336
水火土	-11.5339
乾坎	-11.5344
大衍之數五十	-11.5345
心宿	-11.5345
開陽	-11.5346
夏秋	-11.5348
無義	-11.5348
餘月	-11.5349
主父母	-11.535
於其中	-11.5351
惟喜	-11.5355
㓙神	-11.5356
其源	-11.5359
八煞宫	-11.536
廪	-11.5364
砂中	-11.5365
川縣	-11.5367
不可不知	-11.5368
之右	-11.5368
之序也	-11.5371
來龍	-11.538
木躔	-11.538
而巳	-11.5381
克賊	-11.5382
更忌	-11.5386
失所	-11.5395
誤以	-11.5395
居北	-11.5395
地獄	-11.54
無合	-11.5401
宫闕	-11.5401
亂國	-11.5402
拱命	-11.5403
吉宿	-11.5404
相稱	-11.5405
守亢	-11.5405
與天地	-11.5405
弑主	-11.5405
天地隂陽	-11.5406
同義	-11.5407
馬上	-11.5407
造微賦云	-11.5409
者例	-11.5409
肢	-11.541
甘氏曰月	-11.5411
萬變	-11.5412
驢	-11.5412
垠	-11.5412
盃	-11.5413
黄白氣入	-11.5414
所害	-11.5414
姿	-11.5415
紫木	-11.5415
水火木金	-11.5416
女虚危	-11.5416
亥為天門	-11.5416
㕑	-11.5417
慧	-11.5418
王都	-11.5419
蕪	-11.542
崔	-11.542
疼	-11.5421
丁壬化木	-11.5423
十日以上	-11.5423
扁	-11.5423
九百六十	-11.5423
鈴	-11.5423
到申	-11.5424
猶忌	-11.5425
𠖇	-11.5426
考異郵曰	-11.5426
震庚	-11.5427
忿	-11.5427
𤣥㝠占曰	-11.5428
祁	-11.5429
栢	-11.5429
掘	-11.5429
癱	-11.543
卿監	-11.543
豎	-11.543
援神契曰	-11.5431
承漿	-11.5431
淋	-11.5431
不進	-11.5431
戊癸化火	-11.5431
粮	-11.5431
劉向以為	-11.5431
芽	-11.5431
措	-11.5431
春秋感精符曰日蝕	-11.5431
驥	-11.5431
留二十日以上	-11.5432
㽔賓	-11.5432
净	-11.5433
斧斤	-11.5433
嬰兒	-11.5434
楊筠松	-11.5434
枷	-11.5434
棄市	-11.5434
醇	-11.5434
不出百八十日	-11.5434
痊	-11.5434
所指之國	-11.5434
行身旺運	-11.5435
迂	-11.5435
有囚色	-11.5435
嫡	-11.5435
舅	-11.5435
交通	-11.5436
掇	-11.5436
禹貢	-11.5436
營室東壁	-11.5437
腋	-11.5437
一重	-11.5437
畿	-11.5438
慷慨	-11.5438
暉	-11.5438
胄	-11.5438
王國	-11.5438
火絶	-11.5438
派	-11.5439
豳	-11.5439
絃	-11.5439
心多	-11.5439
銓	-11.5439
赴任	-11.5439
八刻	-11.5439
水縣	-11.544
永樂大典	-11.544
偕老	-11.544
弃	-11.544
負海	-11.544
伏兵大禍	-11.544
觀物篇	-11.544
窒	-11.544
學憲	-11.5441
繆	-11.5441
狼虎	-11.5441
一百六十七億九千六百一十六萬	-11.5441
尚未	-11.5441
巽坎艮坤	-11.5442
獐鹿	-11.5442
拖	-11.5442
七八九六	-11.5443
碩	-11.5443
溝瀆	-11.5443
訴	-11.5443
尤𦂳	-11.5444
石榴	-11.5444
垢	-11.5444
入畢中	-11.5444
一動一靜	-11.5444
踝	-11.5444
井鉞	-11.5444
寤	-11.5444
寅與亥合	-11.5445
俛	-11.5445
四面	-11.5446
餘皆倣此	-11.5446
慎勿	-11.5446
艮龍	-11.5446
伏匿	-11.5447
晨昏	-11.5447
僕射	-11.5447
渾儀	-11.5448
神煞起例	-11.5448
大臣當之	-11.5448
亡神刼煞	-11.5449
廻	-11.5449
偃蹇	-11.5449
眡	-11.5449
離散	-11.5449
第一段	-11.545
知人	-11.545
則可以	-11.545
結果	-11.545
傷我	-11.545
黄帝占曰太白守	-11.545
晦滯	-11.5451
法乎	-11.5451
踐位	-11.5451
不下	-11.5452
連綿	-11.5452
腧	-11.5452
綱紀	-11.5452
早晚	-11.5453
喜遇	-11.5453
端的	-11.5453
乾隆四十六年	-11.5453
五爲天位	-11.5453
揚子雲	-11.5454
飛廉	-11.5454
辛邜	-11.5455
朔日食	-11.5455
倦	-11.5455
堅固	-11.5455
十一二十	-11.5456
大憂	-11.5456
猪羊	-11.5457
奴僕宫	-11.5458
國有大䘮	-11.5458
井欄	-11.5458
車輪	-11.5458
在黄道	-11.5459
馬多死	-11.5459
三碧	-11.546
欲自立	-11.546
􁂂	-11.5461
七爲失志	-11.5462
絶體	-11.5463
主惡死	-11.5463
灼龜	-11.5466
又不可	-11.5466
初行其道起於	-11.5466
溺水	-11.5467
壬戌日	-11.5469
赤白	-11.5469
寅午戌火局	-11.5476
勞力	-11.5477
不虚	-11.5479
剛健	-11.548
崩太子	-11.5482
旺方	-11.5483
故貴	-11.5484
異端	-11.5486
興兵	-11.5487
遺文	-11.5487
年月大貴	-11.5487
天涯	-11.5489
方道	-11.5489
無足	-11.5489
戌酉申	-11.5489
四十九内減之餘二十	-11.549
義曰	-11.5491
哇	-11.5491
周旋	-11.5492
日壬寅時	-11.5492
此處	-11.5493
豐滿	-11.5495
出端門	-11.5496
右手	-11.5496
宿一偏西一度	-11.5496
五穀傷	-11.5497
司令	-11.5499
用六	-11.5501
災迍	-11.5504
全備	-11.5506
下降	-11.5506
自一至	-11.5507
隠公	-11.5508
之地則	-11.5508
冠世	-11.5509
日戊寅時	-11.5509
諸書	-11.551
庚午壬午	-11.551
丁竒	-11.551
延長	-11.5511
水府	-11.5511
貞雜	-11.5511
客大將	-11.5512
度量	-11.5513
命運	-11.5518
成熟	-11.5518
詔命	-11.5518
君道	-11.5523
遊禍	-11.5525
孰能	-11.5527
胷中	-11.553
丑巳	-11.5533
溺死	-11.5537
必矣	-11.5537
又宜	-11.5537
上生下	-11.554
又曰熒惑	-11.5542
徒然	-11.5543
皆空	-11.5547
帶火	-11.5547
主夭折	-11.5548
水宫	-11.5549
娶妻	-11.555
卿大夫	-11.555
如甲見	-11.5552
强臣	-11.5552
本象	-11.5554
天降	-11.5558
季秋	-11.5558
中央土	-11.5561
干墓	-11.5561
互加	-11.5563
先㸔	-11.5564
認氣	-11.5565
獨坐	-11.5565
得勢	-11.5567
依前	-11.5567
向日	-11.5567
易林	-11.5569
用心	-11.5569
逐馬	-11.5572
失色	-11.5575
臨駕	-11.5576
己日	-11.5577
其吉	-11.5577
▁旬	-11.558
老少	-11.5583
開龜	-11.5584
孕婦	-11.5585
所有	-11.5587
有死色	-11.559
則夭	-11.5591
作虎	-11.5592
復姤	-11.5594
作六害	-11.5597
安樂	-11.5598
棄其	-11.5598
而常	-11.5598
陸費墀	-11.5599
兩干	-11.5601
星臨之	-11.5603
紫㣲宫	-11.5605
象天	-11.5607
在地下	-11.5608
四百六十	-11.5611
張宿	-11.5617
火灾	-11.5618
非輕	-11.5623
者蓋	-11.5628
賊人	-11.563
忌土計	-11.5631
此云	-11.5633
之材	-11.5633
劉氏	-11.5633
炎火	-11.5634
俱是	-11.5634
飛禍	-11.5635
為少隂	-11.5635
三人	-11.5635
審其	-11.5636
幽明	-11.5637
行人至	-11.5638
歲德	-11.5639
周室	-11.5642
六秀	-11.5645
千四十	-11.5645
在高强	-11.5647
為商	-11.5648
年命上	-11.5649
出奔	-11.5649
灼之	-11.565
此意	-11.5651
白帝	-11.5654
重隂	-11.5654
孛照	-11.5655
逢鬼	-11.5656
自入	-11.5656
男人	-11.5658
此身	-11.5659
歸祿	-11.5659
幹事	-11.5662
右耳	-11.5663
無灾	-11.5664
傷損	-11.5666
相接	-11.5668
終不能	-11.5669
為主而	-11.567
者陽之	-11.5672
日木土	-11.5673
三課	-11.5675
原始	-11.5677
始皇	-11.5678
必待	-11.5678
火性	-11.5679
甲寅時	-11.5679
占候	-11.5681
艮土	-11.5681
極星	-11.5682
所照	-11.5683
見財官	-11.5683
財名	-11.5685
各居	-11.5685
從煞	-11.5687
郎官	-11.5688
主少年	-11.5689
下局	-11.5689
心胃	-11.5692
生干	-11.5694
隂建於	-11.5695
卯巳	-11.5695
一子	-11.5698
金兆	-11.5699
為僧	-11.57
寄於	-11.5701
八表	-11.5706
福宫	-11.571
之星也	-11.5715
帶禄	-11.5718
從夫	-11.5718
徙都	-11.5719
識之	-11.5723
輔相	-11.573
荆州占曰客星	-11.5731
離震	-11.5731
龍常	-11.5733
兵刑	-11.5734
昌縣	-11.5734
假令正月	-11.5741
生人得	-11.5741
夜鳴	-11.5742
只用	-11.5742
官非	-11.5743
長三尺	-11.5745
獨有	-11.5747
而還	-11.5747
白道	-11.575
分布	-11.5753
天地合	-11.5753
咸陽	-11.5754
不諧	-11.5757
日月之行	-11.5758
泰山	-11.5758
七尺	-11.576
歲君	-11.5762
倚數	-11.5764
來復	-11.5764
木徳	-11.5764
怕見	-11.5767
無罪	-11.5768
臣誅	-11.5771
主門户	-11.5772
為青龍	-11.5773
一見	-11.5773
有大赦	-11.5773
斯言	-11.5774
將誅	-11.5776
郗萌曰太白入	-11.5782
不真	-11.5783
不惑	-11.5783
海中占曰嵗星守	-11.5784
又兼	-11.5785
不佳	-11.5785
於其間	-11.5785
准此	-11.5789
儒者	-11.5789
居其中	-11.5789
便知	-11.5792
宿度	-11.5793
世主	-11.5796
胡人	-11.5798
丑未為	-11.5798
年支	-11.58
巫咸曰填星守	-11.5803
水計	-11.5804
通泰	-11.5805
斗星	-11.5806
赤雲	-11.5817
不可勝	-11.5817
世數	-11.5817
於野	-11.582
所稱	-11.5821
外餘	-11.5822
為帝	-11.5822
氏崩	-11.5825
見土計	-11.5829
葢天	-11.5831
軰	-11.5831
之法也	-11.5834
受刑	-11.5836
並忌	-11.5836
尺一寸	-11.5836
參之	-11.5836
而數之	-11.5837
四百二十	-11.5839
不亦	-11.5846
正禄	-11.5846
龜形	-11.5847
半月	-11.5847
釋之	-11.5855
天文志	-11.5856
己酉日	-11.5858
君子之道	-11.586
所犯	-11.5867
課葢	-11.587
丁馬	-11.5871
横禍	-11.5872
水濟	-11.5875
丙人	-11.5877
長上	-11.5881
便生	-11.5882
兵作	-11.5883
在邜	-11.5884
後魏	-11.5886
亥丑	-11.5886
其狀	-11.5887
陽男	-11.5887
多傷	-11.5889
不驗	-11.5889
凶災	-11.5892
民多病	-11.5893
不虧	-11.5895
丅吝	-11.5897
重審	-11.5899
東北方	-11.59
來傷	-11.5901
十二律	-11.5901
不美	-11.5901
災祥	-11.5904
火計	-11.5905
二徳	-11.5905
所值	-11.5906
同氣	-11.5911
賁之	-11.5912
辨之	-11.5914
九百七十	-11.5914
之義故	-11.5915
真氣	-11.5919
片	-11.592
布於	-11.592
光潤	-11.5922
日時遇	-11.5922
生毛	-11.5922
宫坐命	-11.5926
足起	-11.5927
秘訣	-11.5928
淫慾	-11.5928
日卯時	-11.593
矣其	-11.593
痣	-11.593
此所以	-11.593
為饑	-11.5933
湘	-11.5935
葛	-11.5935
矣是故	-11.5936
柴	-11.5936
春秋潜潭巴曰	-11.5936
陳卓曰嵗星	-11.5937
榜	-11.5939
格或	-11.5942
寅午戍	-11.5942
句為一條	-11.5942
木主	-11.5943
匝	-11.5944
定數	-11.5944
䫫	-11.5944
刑囚暗耗	-11.5945
釵	-11.5945
萊	-11.5946
性善	-11.5946
為例	-11.5947
嵗星居	-11.5947
爾雅	-11.5947
些	-11.5948
婿	-11.5948
譖	-11.5948
蜚	-11.5949
玉管照神	-11.5949
敝	-11.5949
豈無	-11.595
昦	-11.595
炭	-11.595
株	-11.595
丙辛化水	-11.5951
首仰足開	-11.5951
類聚	-11.5951
綵	-11.5952
阿脩	-11.5952
動搖	-11.5953
賦歛	-11.5953
疋	-11.5954
鵝	-11.5954
啇	-11.5954
妖孽	-11.5955
嗣位是謂	-11.5955
求醫療病	-11.5955
四千六	-11.5955
乾鑿度	-11.5955
俱起	-11.5956
吊客	-11.5956
拗	-11.5956
徭役	-11.5956
聰慧	-11.5956
萬有一千五百二十	-11.5956
四支	-11.5957
交媾	-11.5957
場	-11.5957
竝	-11.5957
鰥	-11.5957
壅塞	-11.5957
以㑹經運	-11.5957
笏	-11.5957
諒	-11.5957
鋤	-11.5958
上表章	-11.5959
有休色	-11.5959
下獄死	-11.5959
八十一首	-11.596
歇滅	-11.596
天原發微	-11.596
刀劍	-11.5961
暴虐	-11.5961
巡	-11.5961
滋潤	-11.5961
躡	-11.5961
泗	-11.5962
易王	-11.5962
廕	-11.5962
液	-11.5962
勁	-11.5962
斟酌	-11.5963
憤	-11.5963
蹶	-11.5963
隐	-11.5963
李淳風	-11.5963
燿	-11.5963
天羅地網	-11.5963
入空亡	-11.5963
一丈三尺	-11.5964
紆	-11.5964
揭	-11.5964
攴	-11.5964
莘	-11.5964
娼妓	-11.5964
嗜	-11.5964
與德神併	-11.5964
藁	-11.5965
太史公	-11.5965
桓𤣥	-11.5965
浴	-11.5966
邯鄲	-11.5966
少昊	-11.5966
滔	-11.5966
徼	-11.5966
入氐	-11.5967
廹	-11.5967
拓	-11.5967
裕	-11.5967
鑠	-11.5967
丙與辛合	-11.5968
危殆	-11.5968
后夫人	-11.5968
宴樂	-11.5968
萌芽	-11.5968
靨	-11.5969
夰	-11.5969
賜諸侯	-11.5969
灘	-11.597
旺廟	-11.597
疽	-11.597
欽天監	-11.5971
豪富	-11.5971
恪	-11.5971
其救也	-11.5971
貫日	-11.5972
猿猴	-11.5972
死木	-11.5972
賔客	-11.5972
讒臣	-11.5972
洪範傳曰	-11.5972
瓜	-11.5973
苻	-11.5973
浙人	-11.5973
迄	-11.5973
胎中	-11.5974
三百八十四爻	-11.5974
行人未還	-11.5974
金魚	-11.5974
愁苦	-11.5974
喘	-11.5975
右執法	-11.5975
閻東叟云	-11.5976
塜	-11.5977
四分之一	-11.5977
徐廣曰	-11.5977
饑寒	-11.5978
展轉	-11.5978
荅曰	-11.5978
五子元	-11.5978
可考	-11.5979
療病	-11.5979
斗宿	-11.598
春秋元命包曰	-11.598
姊	-11.598
這裏	-11.5981
婁金狗	-11.5981
在箕	-11.5981
白日生人	-11.5981
樞紐	-11.5981
疑惑	-11.5981
日壬申時	-11.5982
日己巳時	-11.5982
見乙	-11.5982
日辛巳時	-11.5983
辰午酉亥	-11.5983
機謀	-11.5984
傒	-11.5984
軍罷	-11.5984
中吉	-11.5985
衰病	-11.5985
日癸亥時	-11.5986
三百六十五日	-11.5986
莫測	-11.5987
美貌	-11.5987
上尅下	-11.5987
尊榮	-11.5987
亥夘	-11.5987
應鐘	-11.5988
天弁	-11.5988
河漢	-11.5989
日丙申時	-11.599
稽疑	-11.599
己邜	-11.5991
五徳	-11.5991
溪縣	-11.5991
厯上元	-11.5991
建破平收日	-11.5992
繫辭	-11.5992
闗梁	-11.5992
揚雄	-11.5992
克害	-11.5995
大将	-11.5996
給事	-11.5996
旺相相生	-11.5997
有星孛于	-11.5998
運遇	-11.5999
應耳	-11.6
其命	-11.6
凡人命	-11.6002
㐫神	-11.6002
百川	-11.6003
觀者	-11.6003
仲冬	-11.6003
卑賤	-11.6004
槩論	-11.6004
外倣此	-11.6004
暗耗	-11.6005
國有大喪	-11.6005
匿謀	-11.6006
韓楊曰熒惑	-11.6006
土功事	-11.6007
不出九十日	-11.6007
此下原有	-11.6007
占産	-11.601
為初傳	-11.6011
公私	-11.6012
應鍾	-11.6014
氣盈	-11.6015
一千六十	-11.6016
单行	-11.6017
臨門	-11.6017
血刃	-11.6017
獨見	-11.602
恃勢	-11.6022
猶豫	-11.6023
正二刻	-11.6025
支内	-11.6025
失脫	-11.6025
隔絶	-11.6026
一曰天下	-11.6027
可解	-11.6028
破禄	-11.6028
之野	-11.6028
戰勝	-11.6028
驗之	-11.6028
小小	-11.6029
用四十有九	-11.6029
達於	-11.6032
公吏	-11.6033
耗散	-11.6034
皆能	-11.6035
殺其君	-11.6039
之貌也	-11.604
財官旺	-11.604
險難	-11.604
日月同宫	-11.6041
一紀	-11.6041
火燭	-11.6044
妻年	-11.6044
格乃	-11.6046
棿擬之	-11.6048
中原	-11.6048
識者	-11.6049
雒書	-11.605
看其	-11.605
明德	-11.6052
則多	-11.6052
為地户	-11.6054
宫神	-11.6055
間量	-11.6056
亦可用	-11.6057
天廏	-11.6062
積聚	-11.6064
死絶之地	-11.6066
不能為害	-11.6066
天稷	-11.6069
髙宗	-11.6069
何妨	-11.6072
天耳	-11.6073
産難	-11.6073
欽定四庫全書唐開元占經卷一百	-11.6073
甲部	-11.6076
全逢	-11.6077
加日辰	-11.6081
通達	-11.6081
郗萌曰熒惑犯	-11.6084
頭小	-11.6084
牛斗	-11.6084
䧟弱	-11.6085
乗白虎	-11.6086
不妄	-11.6088
遇丙	-11.6089
巽四	-11.6089
煞局	-11.6089
雞雉	-11.6091
將軍出	-11.6091
進職	-11.6091
中旬	-11.6091
留止	-11.6092
何宫	-11.6092
庚辛金	-11.6096
婺女	-11.6096
南離	-11.6098
國公	-11.6098
明健	-11.6101
已具	-11.6101
兩際	-11.6102
要訣	-11.6102
天煞	-11.6104
庚子壬子	-11.6105
五行無氣	-11.6107
干上子	-11.611
守須女	-11.6111
其國兵起	-11.6116
七百五十	-11.6119
太尊	-11.6121
城門	-11.6126
何可	-11.6127
更以	-11.6128
駟	-11.6129
化道	-11.613
尺三寸	-11.613
是也此	-11.6131
其妙	-11.6131
兌下	-11.6132
所衝	-11.6145
凡看	-11.6146
縱遇	-11.6147
不可救	-11.6153
坐馬	-11.6154
兌上	-11.6154
千古	-11.6154
佞人	-11.6157
天德合	-11.6158
邑君	-11.6158
樂宫	-11.6159
興旺	-11.6161
鄉縣	-11.6161
陽年	-11.6161
也又按	-11.6162
聖心	-11.6164
未分	-11.6167
受克	-11.6168
呪曰	-11.6172
四游	-11.6172
有流星	-11.6176
日克	-11.6179
安帝	-11.6179
一次	-11.6184
土羅	-11.6185
别離	-11.6185
合婚	-11.6187
居西	-11.6188
過人	-11.619
同用	-11.6191
貞卦	-11.6194
多滯	-11.6195
庫藏	-11.6195
受穴	-11.6196
其辭	-11.6198
主信	-11.6199
㑹齊	-11.62
月德合	-11.62
不特	-11.6201
破祿	-11.6201
則㓙	-11.6202
一生不	-11.6206
永和	-11.6208
大約	-11.6211
屬陰	-11.6211
偏生	-11.6213
晦明	-11.6215
煞難	-11.6215
地十	-11.6216
十餘日	-11.6221
㓙煞	-11.6226
取貴	-11.6226
之吉凶	-11.623
兵福	-11.6233
細小	-11.6239
仲夏	-11.624
夫宫	-11.6241
巳午月	-11.6248
金木水	-11.6249
安靜	-11.625
方面	-11.6253
骨法	-11.6254
眉上	-11.6255
下旬	-11.6258
有兵喪	-11.6261
夏氏曰	-11.6263
所殺	-11.6263
志氣	-11.6267
守日	-11.6268
荆州占曰日	-11.627
南陸	-11.6271
海中占曰填星	-11.6274
火墓	-11.6275
元年正月	-11.6289
主其人	-11.6292
損妻	-11.6293
不然則	-11.6298
辨正	-11.6299
氣清	-11.63
夀筭	-11.6301
生春夏	-11.6302
冬則	-11.6304
過宫	-11.6306
流通	-11.6306
名義	-11.6306
有芒角	-11.6307
居四正	-11.6309
于秦	-11.631
豈宜	-11.631
者言其	-11.6315
反傷	-11.6317
生秋冬	-11.6317
黄帝占曰熒惑入	-11.6322
其色赤	-11.6323
宗正	-11.6324
者聖人之	-11.6325
君不安	-11.6326
在九宫	-11.6331
角宿	-11.6332
水泛	-11.6333
宮分	-11.6333
隔於	-11.6333
祉	-11.6335
更令	-11.6339
為凖	-11.6343
三數	-11.6344
甲已	-11.6344
休門	-11.6344
一二三	-11.6347
水深	-11.6353
而天地	-11.6354
在營室	-11.6355
兵起若	-11.6356
平直	-11.6357
與太陽	-11.6358
既定	-11.6363
在東北	-11.6364
事起	-11.6364
立向	-11.6364
望後	-11.6365
刼亡	-11.6365
王母	-11.6371
其質	-11.6372
白馬	-11.6375
方外	-11.6375
潢	-11.6381
無知	-11.6381
皆不利	-11.6383
則日蝕	-11.6384
平道	-11.6384
戊巳土	-11.6388
居西南	-11.6389
之資	-11.639
下尅上	-11.639
易卦	-11.6391
澁	-11.6391
貪財	-11.6392
干尅	-11.6396
君父	-11.6398
楚滅	-11.6399
列星	-11.64
尊位	-11.6403
悼	-11.6404
露齒	-11.6405
星墜	-11.6407
象餘	-11.641
戊寅己卯	-11.6411
雷起	-11.6417
田地	-11.6417
軫角	-11.6417
官資	-11.6418
無恩	-11.6418
甲人見	-11.6423
時節	-11.6427
言陽氣	-11.6428
刼奪	-11.643
五代	-11.6431
不可知	-11.6432
見機	-11.6432
窟	-11.6433
一息	-11.6436
正祿	-11.6437
清顯	-11.644
六庚生人	-11.6441
六丙生人	-11.6443
一定之	-11.6444
但見	-11.6447
桓公	-11.6447
亦云	-11.6448
韓楊曰	-11.645
大惡	-11.6451
禍起	-11.6451
失其所	-11.6455
穆帝	-11.6456
君臣和	-11.6456
拱貴	-11.6458
交合	-11.646
木為主	-11.6463
在野	-11.6465
旺宫	-11.6467
時計	-11.6468
本卦	-11.6469
改元元	-11.6471
守七星	-11.6474
又不可以	-11.6476
支上神	-11.6477
八百四十	-11.648
禄厚	-11.6481
辜	-11.6482
茶	-11.6485
鬼谷	-11.6486
於東方	-11.6486
箕斗	-11.6488
弁	-11.6489
棓	-11.649
横行	-11.6491
卯寅	-11.6493
欲殺	-11.6493
土府	-11.6494
乙庚化金	-11.6496
相保	-11.6496
専以	-11.6497
􁁊	-11.6497
在參	-11.6498
兩角間	-11.6498
員郎	-11.65
切要	-11.6503
運數	-11.6503
位列	-11.6504
所理之方	-11.6504
日甲寅時	-11.6506
峽	-11.6506
歐	-11.6506
痢	-11.6506
招搖	-11.6507
躭	-11.6507
晡	-11.6507
撒	-11.6508
晉灼曰	-11.6509
滄	-11.651
呈兆	-11.651
朔日有食之	-11.651
眷	-11.651
丑戌未	-11.651
爐中	-11.651
赤地千里	-11.6511
紫綬	-11.6511
元命苞曰	-11.6511
逈	-11.6511
掃舍宇	-11.6511
挑	-11.6511
郵	-11.6511
凋	-11.6512
濵	-11.6512
校尉	-11.6512
遇木炁	-11.6512
團	-11.6512
邁	-11.6512
太乙抱蟾	-11.6512
怙	-11.6513
尢	-11.6513
蹻	-11.6514
陽男隂女	-11.6514
妻賢子孝	-11.6514
伶俐	-11.6514
噫	-11.6514
行幸遣使安撫邊境選將訓兵	-11.6514
將欲	-11.6515
乾亥兌丁	-11.6515
分三更亥正三刻	-11.6515
崢嶸	-11.6515
斵輪	-11.6515
亳	-11.6516
市樓	-11.6516
嘴	-11.6516
聰俊	-11.6516
較量	-11.6516
熄	-11.6516
譯	-11.6517
巫咸曰彗星出	-11.6517
畱	-11.6517
與太嵗	-11.6517
春秋圗曰	-11.6518
學館	-11.6518
樞機	-11.6518
洋洋	-11.6518
恕	-11.6518
恬	-11.6518
王敦	-11.6518
和同	-11.6519
桞	-11.6519
擔	-11.6519
與太白合	-11.6519
仁慈	-11.6519
莖	-11.652
蕾	-11.652
羨	-11.652
枯朽	-11.652
皮膚	-11.6521
臉	-11.6521
甄	-11.6521
弩	-11.6522
隤	-11.6522
牖	-11.6522
徐子平	-11.6522
横渠	-11.6522
𡨕	-11.6522
煞尅	-11.6523
惆悵	-11.6523
倖	-11.6523
𧺫	-11.6524
淚	-11.6524
邢	-11.6524
駟馬	-11.6524
青囊	-11.6524
眷屬	-11.6524
悶	-11.6524
槐	-11.6524
規矩	-11.6525
匙	-11.6525
為貴命	-11.6525
有黒子	-11.6525
一處	-11.6525
昨	-11.6525
眩	-11.6526
沮	-11.6526
秀而不實	-11.6526
甘氏曰彗星出	-11.6526
渝	-11.6527
劉歆	-11.6527
制合	-11.6527
反尅	-11.6529
消磨	-11.6529
遜	-11.6529
叩	-11.6529
難通	-11.6529
蛛	-11.653
冉	-11.653
歐陽	-11.653
慶賀	-11.653
閏餘	-11.6531
顴骨	-11.6531
釣起	-11.6533
龎	-11.6533
吾儒	-11.6533
或三合	-11.6534
甲辰甲戌	-11.6535
琴瑟	-11.6536
紹興	-11.6536
誓	-11.6536
特達	-11.6536
布衣	-11.6536
綴	-11.6536
者不過	-11.6539
期十日	-11.6539
第四課	-11.6539
蒙昧	-11.6539
專用	-11.654
日庚子時	-11.6541
天蝎	-11.6541
劉備	-11.6541
祈福	-11.6541
桓温	-11.6542
按周髀長	-11.6543
遲延	-11.6543
積氣	-11.6544
印多	-11.6544
廣陵	-11.6545
苞	-11.6545
豫章	-11.6546
居其上	-11.6546
資助	-11.6546
日癸巳時	-11.6547
白羊宫	-11.6547
隂府太嵗	-11.6547
洫	-11.6547
法死	-11.6547
尤貴	-11.6547
鄭氏	-11.6548
韓信	-11.6548
主招	-11.6549
天秤	-11.6549
不思	-11.655
孚過	-11.655
鼻梁	-11.655
飛騰	-11.655
囚禁	-11.655
逶迤	-11.655
丁邜	-11.6551
珠玉	-11.6552
日戊午時	-11.6554
鎭星	-11.6555
貞緯	-11.6555
祿馬貴人	-11.6555
日壬辰時	-11.6557
云爾	-11.6558
清閑	-11.6559
由人	-11.6559
日丙午時	-11.6559
三六合	-11.6559
枯骨	-11.656
茂盛	-11.656
致用	-11.6563
澗下	-11.6563
雷風	-11.6563
曲折	-11.6564
榦	-11.6564
三輔	-11.6565
日庚寅時	-11.6566
舊圖	-11.6567
月恩	-11.6568
天下飢	-11.6568
大臣有憂	-11.6569
二十餘	-11.6569
蛇蚓	-11.657
下部	-11.6571
趨乾	-11.6571
火尅金	-11.6571
孝順	-11.6574
首仰	-11.6577
解救	-11.6578
百官	-11.6578
四百三十	-11.6578
中丞	-11.6579
進爵	-11.658
律厯	-11.6581
天下易	-11.6582
俯仰	-11.6582
期十月	-11.6583
於是乎	-11.6585
十有一	-11.6585
日甲申時	-11.6587
異路	-11.6587
荆州占曰月犯	-11.6589
軍將死	-11.659
司祿	-11.6592
如申子辰	-11.6592
折除	-11.6594
風起	-11.6594
天之道	-11.6596
山谷	-11.6598
何神	-11.6599
十四二十	-11.6599
功臣	-11.6599
齊魯	-11.66
中央星	-11.6601
專制	-11.6602
年乙未丙申丁酉戊戌己亥庚子辛丑	-11.6603
十七日	-11.6605
消散	-11.6607
乃天之	-11.6607
丑辰	-11.6607
剝復	-11.6609
肅殺	-11.6613
信息	-11.6613
第三星	-11.6615
相貎	-11.6616
憂病	-11.6616
甘氏曰日在	-11.6618
王庭	-11.6621
一統	-11.6624
㸔命	-11.6625
天矢	-11.6625
等閒	-11.6627
為怪	-11.6628
宿一偏東二度	-11.6628
衆所	-11.6629
兵車	-11.6641
元經	-11.6642
乾也	-11.6645
歸根	-11.6645
不吉若	-11.6648
太過則	-11.6648
官禄主	-11.665
居强	-11.665
和親	-11.6654
夾命	-11.6655
近日	-11.6655
非特	-11.6659
脫氣	-11.6662
風疾	-11.6662
莫過	-11.6662
來去	-11.6663
清高	-11.6665
漢武	-11.6667
賊害	-11.6667
會元	-11.667
老陰	-11.6672
傷妻子	-11.6675
其星明	-11.6675
二主	-11.6676
天解	-11.6678
胃宿	-11.6678
海中占曰太白	-11.6681
隂陽二氣	-11.6682
驚憂	-11.6684
夏三月	-11.6685
之類皆	-11.6686
王者憂	-11.6688
終成	-11.6688
六卿	-11.6689
五味	-11.669
更改	-11.669
局全	-11.6691
衆多	-11.6691
作黨	-11.6694
漢武帝	-11.6694
地大動	-11.6696
天官書	-11.6697
得五十	-11.6698
民安	-11.6704
其端	-11.6705
永興	-11.6705
金帛	-11.6706
運風憲	-11.6707
雨澤	-11.6708
一十一	-11.671
建節	-11.6713
陰謀	-11.6715
四百五十	-11.6716
子夘	-11.6717
在日上	-11.6723
強弱	-11.6723
垣局	-11.6725
兌七	-11.6727
子細	-11.6727
犯輿鬼	-11.6728
地體	-11.6729
李氏	-11.673
右圖	-11.6731
於市	-11.6733
隂雨	-11.6734
以甲為	-11.6736
虛名	-11.6736
趙王	-11.6742
髙山	-11.6743
財源	-11.6743
悔吝	-11.6744
守氐	-11.6745
火曜	-11.6745
使君	-11.6746
女主有憂	-11.6748
觀象	-11.6748
更政	-11.6755
行西運	-11.6757
月陽建	-11.6758
地裂	-11.6761
有救星	-11.6762
鬼墓	-11.6763
矣又曰	-11.6765
不幸	-11.6765
對合	-11.6766
房南	-11.6768
其色白	-11.677
二而四	-11.6773
逢印綬	-11.6778
修身	-11.678
河上	-11.6785
推之則	-11.6786
齊楚	-11.6786
在髙强	-11.6787
前引	-11.6789
金雞	-11.6791
属陽	-11.6792
日月所	-11.6793
仰月	-11.6794
兑為	-11.6797
也常居	-11.6798
惡疾	-11.6799
陽消	-11.68
諸王	-11.6804
枯木	-11.6809
後三年	-11.681
相仍	-11.6816
奴星	-11.6819
不獲	-11.6819
清要	-11.6826
熒惑與	-11.6827
離明	-11.6829
却要	-11.683
專取	-11.6832
亂我	-11.6832
雲龍	-11.6837
宫門	-11.6838
鳥飛	-11.6841
壬申癸酉甲戌乙亥丙子丁丑戊寅己卯	-11.6843
将星	-11.6843
為天門	-11.6844
又占曰填星	-11.6845
邑中	-11.6846
至三公	-11.6846
辰戌丑未年	-11.6848
入口	-11.6848
度厄	-11.6849
青黑	-11.6849
氣之所	-11.6855
仲尼之	-11.6861
有倚托者	-11.6862
無倚	-11.6862
隂爲	-11.6863
逢丁	-11.6866
日上神	-11.6872
到處	-11.6877
紫色	-11.688
相誅	-11.6884
時引	-11.6885
身榮	-11.6888
者主貴	-11.689
天雞	-11.6895
危宿	-11.6897
五百里	-11.6905
喜火羅	-11.6905
有序	-11.6905
河圖帝覽嬉曰	-11.6912
安康	-11.692
第三宫	-11.6922
建寅	-11.6922
次降	-11.6923
土為財	-11.6923
太盛	-11.6924
飛起	-11.6926
為本宫	-11.6927
又取	-11.6928
荆州占曰彗星	-11.6934
宫商	-11.6935
白鹿	-11.6937
伐宋	-11.694
詳見	-11.6947
天禍	-11.6947
大衍之	-11.6949
全體	-11.6952
叠見	-11.6953
只可	-11.6953
為救神	-11.6954
陵縣	-11.6954
句為一條言	-11.6958
正照	-11.6959
春秋緯曰熒惑	-11.6965
四丈	-11.6967
六寸	-11.6967
從外	-11.6968
别名	-11.6971
也若夫	-11.6975
又㸔	-11.6976
天禽	-11.6976
行黄道	-11.6978
上下俱	-11.6979
前後各	-11.6981
通氣	-11.6981
豈得	-11.6981
縣東	-11.6983
土計孛	-11.6986
亥子月	-11.6988
年卒	-11.6991
野雞	-11.6995
天之氣	-11.6998
何須	-11.6998
秦晉	-11.6998
属隂	-11.6999
過度	-11.7002
分刺灸之	-11.7002
殺傷	-11.7003
濁而	-11.7005
居東南	-11.7006
兵動	-11.7006
要識	-11.7007
所經	-11.7008
隂年	-11.7009
出焉	-11.701
四柱有	-11.7011
無輔	-11.7012
咸和	-11.7013
自漢	-11.7013
軍行	-11.7014
憐	-11.7015
壬癸生人	-11.7015
向外	-11.7017
嫁夫	-11.7017
四句	-11.7019
奸神	-11.7021
期不出	-11.7021
宫八卦	-11.7021
故詩	-11.7028
永寧	-11.7028
石氏曰熒惑犯	-11.7035
涂	-11.7055
鬼度	-11.7058
坤宫	-11.7061
吉何曰	-11.7067
廩	-11.7069
寐	-11.707
不同故	-11.7074
見火則	-11.7074
如寅午戌	-11.7075
爻數	-11.7076
梧	-11.7077
多盗賊	-11.7078
斬刈	-11.708
减福	-11.7081
䇿數	-11.7081
五星皆	-11.7082
孝子	-11.7084
葬造後	-11.7085
甲巳化土	-11.7085
去極七十	-11.7086
魚鹽	-11.7086
奎木	-11.7086
當知	-11.7087
侏	-11.7087
衷	-11.7088
董仲舒	-11.7088
戊申己酉	-11.7091
琅	-11.7091
之中而	-11.7091
門為直使	-11.7091
頡	-11.7091
攻城	-11.7092
宸	-11.7093
渚	-11.7093
瀦	-11.7093
金轝	-11.7093
瘢	-11.7094
石氏曰有星入	-11.7094
鳳閣	-11.7094
併衝	-11.7094
嫉	-11.7094
黃帝曰客星	-11.7094
夙	-11.7095
識其	-11.7095
入貴格	-11.7095
甑	-11.7095
魴	-11.7095
而不變	-11.7096
抗	-11.7096
常陳	-11.7096
聼	-11.7097
台輔	-11.7097
純金	-11.7097
腮	-11.7097
巫醫	-11.7097
鑾	-11.7098
孩	-11.7099
秦始皇	-11.7099
穹	-11.7099
漿	-11.7099
背禄逐馬	-11.7099
高宗日傍氣圖曰日	-11.7099
日必有灾雲	-11.7099
巔	-11.71
徘徊	-11.71
潜潭巴曰	-11.71
都尉	-11.71
三方對照	-11.71
皂	-11.71
璞	-11.71
洲	-11.71
亭亭	-11.7101
宴㑹	-11.7101
峰	-11.7101
亟	-11.7101
犬吠	-11.7101
炤	-11.7101
劉裕	-11.7102
絓	-11.7102
泆	-11.7102
姚興	-11.7102
螫	-11.7102
迤邐	-11.7102
郢	-11.7102
先貧後富	-11.7102
愧	-11.7103
荆州占	-11.7103
丙合辛	-11.7103
閱	-11.7103
不著	-11.7103
有赦令	-11.7103
焦延壽曰	-11.7104
塟	-11.7104
琢	-11.7104
官至三品	-11.7104
爐冶	-11.7104
臺閣	-11.7105
釵釧	-11.7105
鬼谷子云	-11.7105
緇	-11.7105
無雲而	-11.7105
首仰足肣	-11.7106
鴛鴦	-11.7106
丙子丁丑	-11.7106
堕	-11.7106
孝經内記圖曰日	-11.7106
考靈曜	-11.7106
隂男陽女	-11.7106
蟻	-11.7106
無極而太極	-11.7106
淄	-11.7106
争競	-11.7107
并屬井鬼分	-11.7107
宀	-11.7107
田庄	-11.7108
巍	-11.7108
彘	-11.7108
只是一箇	-11.7108
一萬八百	-11.7108
十丈	-11.7108
翁姑	-11.7108
五榖不成	-11.7109
朕	-11.7109
橋梁	-11.7109
損夀	-11.7109
計神	-11.7109
陳蔡	-11.7109
横吉下有柱	-11.711
鷄鳴	-11.711
伶	-11.711
睹	-11.711
驚惶	-11.711
燎	-11.711
愽	-11.711
冢	-11.711
隂陽老少	-11.7111
薛	-11.7111
泓	-11.7111
在戍	-11.7111
太僕	-11.7111
堪輿	-11.7111
飛天禄馬	-11.7112
平洋	-11.7112
欺詐	-11.7112
瀉	-11.7113
司馬懿	-11.7113
利見大人	-11.7113
蘆	-11.7113
入屋	-11.7114
甲丙戊庚壬	-11.7114
凹	-11.7114
而無窮	-11.7114
祇	-11.7114
快樂	-11.7115
以元經㑹	-11.7115
横列	-11.7115
樸	-11.7116
零落	-11.7116
丕	-11.7116
搃	-11.7116
翠	-11.7116
杼	-11.7116
奸私	-11.7117
凝結	-11.7118
怖	-11.7119
三方四正	-11.7119
濯	-11.7119
為兵喪	-11.7119
日禄歸時	-11.712
魚鹽貴	-11.712
侵凌	-11.712
晷影	-11.712
隧	-11.712
室火猪	-11.7121
諷	-11.7121
井竈	-11.7122
扶桑	-11.7122
丑寅卯辰	-11.7123
聦明	-11.7123
㧞晉	-11.7124
甲干	-11.7124
癸邜	-11.7126
日乙巳時	-11.7126
正謂此也	-11.7127
古歌	-11.7127
一百四十四	-11.7127
巳酉丑金局	-11.7127
五穀大貴	-11.7127
堪輿家	-11.7128
日癸未時	-11.7129
遥克	-11.713
親友	-11.7132
干戈	-11.7132
未當至而至多病	-11.7134
日丁亥時	-11.7134
申子辰水局	-11.7134
行年本命	-11.7134
金櫃	-11.7135
四爲公侯	-11.7135
逰魂	-11.7135
急脚	-11.7135
干上神	-11.7135
壽考	-11.7136
日辛未時	-11.7136
日乙亥時	-11.7136
金牛宫	-11.7137
平淡	-11.7137
為吉兆	-11.7137
日甲午時	-11.7138
乖張	-11.7138
温厚	-11.7138
三爲進人	-11.7139
果老	-11.7139
歲熟	-11.7139
為自刑	-11.7139
有小兵	-11.7139
多土功	-11.714
荒淫	-11.714
田産	-11.714
太山	-11.714
張氏曰	-11.7141
有托	-11.7141
相擊	-11.7141
員外	-11.7141
劉曜	-11.7142
遣使	-11.7143
從中起	-11.7144
後天八卦	-11.7144
先天八卦	-11.7146
下元甲子	-11.7146
六庚加	-11.7147
宫安命論	-11.7148
寸二分	-11.7149
五臓	-11.715
錯亂	-11.7152
一朞	-11.7154
貴人祿馬	-11.7154
設使	-11.7155
始作	-11.7156
宋鄭	-11.7156
去極九十	-11.7156
竒儀	-11.7157
日辛酉時	-11.7158
分散	-11.7165
尊親	-11.7165
司權	-11.7168
彗孛出	-11.7169
老年	-11.717
高強	-11.7171
類神	-11.7173
欲識	-11.7173
等語	-11.7174
乗𤣥武	-11.7174
不尋常	-11.7176
九焦	-11.7177
方向	-11.7177
垣城	-11.7177
昌榮	-11.7178
東方朔	-11.7178
和尚	-11.7179
劉向	-11.7182
細微	-11.7182
順十二	-11.7182
東南方	-11.7183
萬頃	-11.7183
干禄	-11.7183
仰觀	-11.7184
在命宫	-11.7185
生成之數	-11.7187
忌身弱	-11.7189
但恐	-11.7189
單于	-11.7189
魚尾	-11.719
民食	-11.7192
遥合	-11.7193
今通書	-11.7193
凢事	-11.7194
中州	-11.7194
春木旺	-11.7196
血疾	-11.7197
轉移	-11.7198
六經	-11.7198
畢口	-11.72
化土	-11.7203
望斗	-11.7203
二煩	-11.7203
微弱	-11.7204
鼎足	-11.7207
土制	-11.7208
之極也	-11.7208
足管	-11.721
三篇	-11.721
人多死	-11.7212
氣質	-11.7214
濕土	-11.7214
破耗	-11.7219
東井輿鬼	-11.722
招禍	-11.7228
𤣥黄	-11.7228
則不忌	-11.7231
五百六十	-11.7232
萬類	-11.7233
但看	-11.7233
忌木炁	-11.7234
在三宫	-11.7235
有風雨	-11.7241
互為	-11.7242
闗係	-11.7244
為仁	-11.7245
自鳴	-11.7248
早嵗	-11.7252
逰神	-11.7255
外孫	-11.7261
最好	-11.7264
垣廟	-11.7267
附㑹	-11.7268
左落	-11.7268
也此卦	-11.7272
天錫	-11.7272
大學士	-11.7274
八十日	-11.7275
不可測	-11.7275
妖言	-11.7275
中庸	-11.7279
大叅	-11.7283
交接	-11.7284
八魁	-11.7284
偏官有制	-11.7284
其㫖	-11.7284
世間	-11.7291
内象	-11.7292
貴客	-11.7293
再嫁	-11.7293
無刑尅	-11.7294
乗龍	-11.7295
和元年	-11.7295
敗亡	-11.7296
為明堂	-11.7298
自然之理也	-11.73
滅門	-11.7301
季氏	-11.7301
刑憲	-11.7302
從容	-11.7303
利客	-11.7303
親切	-11.7303
離離	-11.7303
定應	-11.7305
兵起一曰	-11.7306
色慾	-11.7306
為老陽	-11.7308
葬者	-11.7313
心機	-11.7316
均分	-11.7316
坐墓	-11.7321
最利	-11.7322
來尅我	-11.7323
不忠	-11.7326
灾異	-11.7331
四百七十	-11.7331
其旁	-11.7332
章嵗	-11.7333
十九日	-11.7334
主大富貴	-11.7336
日干支	-11.7338
大理	-11.7341
妙訣	-11.7343
在隂宫	-11.7343
無制伏	-11.7343
更詳	-11.7344
北政	-11.7345
異母	-11.7347
立名	-11.7348
兌宫	-11.7348
純全	-11.735
美惡	-11.7351
卑下	-11.7352
亡身	-11.7353
本垣	-11.7355
下愚	-11.736
甘氏曰填星守	-11.736
天盗	-11.7362
壬子癸	-11.7364
去留	-11.7364
下流	-11.7366
亦謂之	-11.7371
星守命	-11.7373
畫地	-11.7373
土為主	-11.7374
人馬宫	-11.7375
之本象	-11.7376
火焚	-11.7377
須詳	-11.7382
入遷移	-11.7383
末限	-11.7386
民疾疫	-11.7388
脱氣	-11.739
忌空亡	-11.7391
天子亡	-11.7397
午字	-11.7398
五紀	-11.7401
短小	-11.7407
第四星	-11.7409
顯然	-11.7409
母曜	-11.7415
性靈	-11.7418
己未日	-11.7418
却被	-11.742
遊於	-11.7421
又别	-11.7423
天書	-11.743
所納	-11.7441
晉伐	-11.7444
此人君	-11.7445
設若	-11.7453
大月建	-11.7453
交際	-11.7454
囚繫	-11.7457
其序	-11.7459
逺矣	-11.746
通乎	-11.746
井度	-11.7461
等皆	-11.7461
成實	-11.7464
當審	-11.7464
終當	-11.7465
辨方	-11.7466
天鋒	-11.7468
無别	-11.747
八百五十	-11.7473
不出六十日	-11.7478
艮兌	-11.7478
即知	-11.7479
事皆吉	-11.748
忌嫁娶	-11.7481
者主有	-11.7482
衡山	-11.7488
限内	-11.749
二百里	-11.7492
三十有二	-11.7493
發乎	-11.7496
不避	-11.7497
損失	-11.7497
先知	-11.7499
千六十	-11.7501
遷居	-11.7504
未中有	-11.7509
巫咸曰嵗星	-11.751
降入	-11.7511
多疾病	-11.7511
小事	-11.7515
其名為	-11.7516
食祿	-11.7522
自子至	-11.7525
須還	-11.7529
内經	-11.753
三萬里	-11.7531
丅悔	-11.7537
之主也	-11.7542
洪範五行	-11.7549
印信	-11.7554
二者皆	-11.7559
孟夏	-11.756
河北	-11.7565
生四月	-11.7565
為一元	-11.757
教人	-11.7571
有威權	-11.7575
引用	-11.7575
剛正	-11.7575
定遭	-11.7577
偏喜	-11.758
不可易	-11.7587
丅休	-11.7589
不係	-11.7589
今年	-11.759
遭遇	-11.7593
木星在	-11.7594
星隕	-11.7597
隠於	-11.7598
雒	-11.7598
可觀	-11.7599
亦由	-11.7604
文曜鈎曰太白	-11.7604
理㑹	-11.7606
井木	-11.7615
廐	-11.7615
居福徳	-11.7618
為萬物之	-11.7621
火金月	-11.7622
的刃	-11.7624
簇長官司	-11.7626
天之用	-11.7626
去極一百	-11.7626
彗星犯	-11.7629
小月建	-11.7634
不竭	-11.7635
三等	-11.7636
戌亥子丑	-11.7638
丁丙	-11.7639
後漢	-11.7639
尤多	-11.7639
忌火羅	-11.7641
死無疑	-11.7642
三年正月	-11.7644
紀曰	-11.7645
天上火	-11.7646
誠可	-11.7646
見水孛	-11.7655
恩福	-11.7655
其原	-11.7656
用力	-11.7658
亦輕	-11.7667
肅殺之	-11.7668
星明則	-11.767
司中	-11.767
便能	-11.7671
合而言之	-11.7676
漢孝	-11.7678
火土孛	-11.768
客死	-11.768
十卷	-11.7681
不可解	-11.7682
檀	-11.7683
七强	-11.7686
■	-11.7687
孝經内記曰	-11.7687
之位平滿	-11.7691
五百五十	-11.7696
翹	-11.7696
軍民府	-11.7698
靈龜	-11.7698
斧鉞	-11.7703
非所以	-11.7705
陽城	-11.7705
窮理	-11.7706
郗萌曰流星	-11.7706
施於	-11.7707
才學	-11.7708
遭逢	-11.7711
堤	-11.7712
窘	-11.7713
岷	-11.7715
岑	-11.7715
含文嘉曰	-11.7716
裡	-11.7716
洮	-11.7717
穽	-11.7718
祸	-11.7718
羿	-11.7718
筐	-11.7719
觸水龍	-11.7719
奎星	-11.7719
滂	-11.7719
袁天綱云	-11.772
而不言	-11.772
飄蕩	-11.772
春秋圖曰嵗星	-11.772
栁星張	-11.772
㨗	-11.7721
謾	-11.7721
司馬遷天官書曰	-11.7721
贛	-11.7721
松栢	-11.7721
頺	-11.7722
紛紜	-11.7722
隄	-11.7722
星學大成卷十	-11.7723
忌月破平日收日	-11.7723
機巧	-11.7723
先到	-11.7723
矯	-11.7723
既成	-11.7724
猫	-11.7724
晉陽秋曰	-11.7724
坤艮坎巽	-11.7724
譚	-11.7724
晨出東方	-11.7724
日其未出	-11.7724
嫉妬	-11.7725
鬼旺身衰	-11.7725
暨	-11.7725
柯	-11.7725
焱	-11.7726
三四品貴	-11.7726
竺	-11.7726
賞賜	-11.7726
不貴則富	-11.7726
宜祭祀	-11.7727
册	-11.7727
石氏曰流星	-11.7727
匣	-11.7727
杏	-11.7727
銓部	-11.7728
羔	-11.7728
感應	-11.7728
尾火虎	-11.7728
跖	-11.7728
郄萌曰客星舍	-11.7728
迯	-11.7728
黿	-11.7728
仁義禮智	-11.7728
期四十日	-11.7728
謫戍	-11.7728
石氏曰流星出	-11.7729
五百一十二	-11.7729
諸卦	-11.7729
滴	-11.7729
者言乎其	-11.7729
止忌安撫邊境選將訓兵出師	-11.7729
繭	-11.7729
豺狼	-11.773
出師上官赴任臨政親民	-11.773
溝渠	-11.773
秃	-11.773
􁃦	-11.773
留不去	-11.773
蔓	-11.773
彎	-11.773
有相色	-11.773
寔	-11.7731
臣弑君	-11.7731
三易洞璣卷	-11.7731
弇	-11.7731
五卷	-11.7731
賦斂	-11.7731
枯燥	-11.7732
汎	-11.7732
栖	-11.7732
轡	-11.7732
䆒	-11.7733
英豪	-11.7733
如前説	-11.7733
影響	-11.7733
戌刑未	-11.7733
撥	-11.7734
四十有九	-11.7734
腥	-11.7734
鄂	-11.7734
齋戒	-11.7734
急急如律令	-11.7734
江淮	-11.7734
韶	-11.7734
署	-11.7734
誡	-11.7734
結喉	-11.7735
融結	-11.7736
鴉	-11.7736
安榮	-11.7736
眇	-11.7736
蛤	-11.7736
甘氏曰填星	-11.7736
閃	-11.7736
羖首	-11.7736
肌	-11.7737
西王母	-11.7737
噎	-11.7737
訾	-11.7737
五總龜	-11.7737
穿鑿	-11.7737
蟲食	-11.7738
炙	-11.7738
衣冠	-11.7738
祭酒	-11.7738
禎祥	-11.7738
魏氏圖曰	-11.7738
火星在	-11.7738
沽	-11.7738
聫	-11.7739
麓	-11.7739
鴛	-11.774
六壬大全	-11.774
行東南運	-11.774
核	-11.774
漁獵	-11.774
去復還	-11.7741
曆	-11.7741
爭競	-11.7741
經綸	-11.7741
温潤	-11.7741
横吉上有仰下有柱	-11.7741
寅刑巳	-11.7741
寥	-11.7741
隂中之陽	-11.7742
誌	-11.7743
勘	-11.7743
詣	-11.7743
乙與庚合	-11.7743
甲與巳合	-11.7743
僖公	-11.7744
燦然	-11.7744
藪	-11.7745
相為表裏	-11.7745
吊起	-11.7745
緊要	-11.7746
叅詳	-11.7747
日乙酉時	-11.7747
天下安寧	-11.7748
摹	-11.7749
天子惡之	-11.7749
丙丁屬火	-11.7749
垓	-11.775
五潢	-11.775
董仲舒曰	-11.775
險阻	-11.775
人之生也	-11.775
履霜	-11.775
螽	-11.775
伏叚	-11.7751
雙魚宫	-11.7751
多水災	-11.7751
甲乙寅卯	-11.7751
畏懼	-11.7751
三兆	-11.7751
巽離兊	-11.7752
厯數	-11.7752
斬首	-11.7752
弦望	-11.7753
瘧	-11.7754
天桴	-11.7754
雜緯	-11.7755
眉毛	-11.7755
日丁酉時	-11.7756
日乙未時	-11.7756
妖祥	-11.7756
病者瘥	-11.7756
日戊子時	-11.7757
氣質之性	-11.7757
祖財	-11.7758
五與十	-11.7758
日丙戌時	-11.7759
蒼蒼	-11.7759
之初一日入	-11.7759
天芮	-11.7759
太白出西方	-11.776
􁜤	-11.776
力停	-11.776
日丙子時	-11.7761
十九度	-11.7761
畫八卦	-11.7762
玉枕	-11.7762
求醫	-11.7762
娣	-11.7763
不遷	-11.7763
専權	-11.7764
日壬子時	-11.7765
往来	-11.7768
神煞吉凶	-11.777
日甲辰時	-11.777
合而為	-11.7771
蝗蟲	-11.7772
八百八十	-11.7773
阻隔	-11.7774
五爲天子	-11.7776
是主星晝生	-11.7776
六十有四	-11.7777
慈善	-11.7777
日月拱夾	-11.7777
貴戚	-11.7777
恒山	-11.7779
僕馬	-11.7781
登第	-11.7782
假令甲子人	-11.7783
并州	-11.7784
赤道内	-11.7785
乙邜	-11.7786
日丁未時	-11.7786
之納甲也	-11.7786
楊公	-11.7787
雙女宫	-11.7789
長㓜	-11.7789
早歳	-11.7789
依托	-11.779
飛揚	-11.779
又占曰熒惑入	-11.779
低頭	-11.779
拱禄	-11.779
巧妙	-11.7791
日壬午時	-11.7791
日辛亥時	-11.7792
隱伏	-11.7793
土圭	-11.7796
修短	-11.7796
水潦	-11.7797
結穴	-11.7797
龜蛇	-11.7798
流蕩	-11.7799
水大出	-11.7801
古厯	-11.7805
寸八分	-11.7805
歴代	-11.7806
消滅	-11.7808
以土論	-11.781
厚載	-11.781
唐志	-11.7812
季冬	-11.7812
未判	-11.7812
犯空亡	-11.7813
不睦	-11.7814
狗國	-11.7814
渾然	-11.7815
安葬	-11.7816
虚耗	-11.7817
官班	-11.7817
桓王	-11.7817
有赤雲	-11.7817
顯著	-11.7819
隋志	-11.782
戰國	-11.7821
軫宿	-11.7822
分為兩	-11.7826
位顯	-11.7828
分毫	-11.783
稱遂	-11.7831
廢帝	-11.7833
太柔	-11.7834
旦將	-11.7835
紋理	-11.7836
在遷移	-11.7838
符頭	-11.7838
横吉安者	-11.7845
父兄	-11.7845
胡兵	-11.7845
庶物	-11.7845
卜師	-11.7846
張氏	-11.7846
年乙丑丙寅丁卯戊辰己巳庚午辛未	-11.7847
其卦為	-11.7849
斯文	-11.7849
各得其所	-11.7849
財産	-11.7849
萬古	-11.7851
居之則	-11.7852
悼公	-11.7853
髙堂	-11.7858
二篇	-11.7859
天裂	-11.7862
解散	-11.7862
後一辰為	-11.7864
失信	-11.7864
其中有	-11.7864
右衛	-11.7865
通𤣥	-11.7866
居閑極	-11.7868
一曰有兵	-11.7868
兩駕	-11.7869
為大將軍	-11.7871
再合	-11.7872
房宿	-11.7876
商音	-11.7878
四正卦	-11.7878
通金氣	-11.7884
尚文	-11.7884
減福	-11.7887
失志	-11.7888
夏令則	-11.7889
致福	-11.789
了又	-11.7893
上朔	-11.7893
建國	-11.7896
他格	-11.79
朝斗	-11.79
仁徳	-11.79
年豐	-11.7901
繼事	-11.7905
夀長	-11.7906
芒神	-11.7908
傷官格	-11.7909
殺伐	-11.7911
得地則	-11.7912
已久	-11.7913
天下之至	-11.7913
午未申酉戌亥	-11.7916
緯書	-11.7921
巳刑申	-11.7922
天廷	-11.7922
受死	-11.7924
二千四十	-11.7924
忌修方	-11.7925
保身	-11.7925
偶數	-11.7926
之間謂之	-11.7929
沙中	-11.793
不鳴	-11.7931
災患	-11.7931
天衢	-11.7932
禍害	-11.7932
㓙暴	-11.7933
墮胎	-11.7933
乘虎	-11.7934
本義	-11.7936
十有三	-11.7936
庚酉辛	-11.7937
泰卦	-11.7942
水多則	-11.7947
宅舍	-11.7948
子午為	-11.7951
大人有憂	-11.7954
乾離	-11.7956
不耕	-11.7957
在妻宫	-11.7958
柳土	-11.7959
四時五行	-11.7962
女主憂	-11.7962
九百八十	-11.7965
衝動	-11.7967
投江	-11.7977
世應	-11.7979
隂賊	-11.798
解離	-11.7981
海西	-11.7981
災病	-11.7983
隂陽剛柔	-11.7984
火滅	-11.7987
在强宫	-11.7988
退職	-11.7988
干上亥	-11.7993
王后	-11.7994
兩眉	-11.7995
地醫	-11.7996
坐祿	-11.7999
刑禍	-11.7999
火怪	-11.8002
都邑	-11.8008
度在黄道外	-11.8013
兩眼	-11.8015
魯分	-11.8016
常存	-11.8016
度半在黄道	-11.8017
無助	-11.8018
而後成	-11.802
同途	-11.8022
秦州	-11.8025
却能	-11.8026
數之用	-11.8031
居財帛	-11.8037
免禍	-11.8039
相續	-11.8044
名字	-11.8048
用之以	-11.805
入妻宫	-11.8053
旬日	-11.8058
登殿	-11.8061
此二者	-11.8063
黄門	-11.8065
之墟	-11.8066
揚子	-11.8067
朔方	-11.8068
隂爻	-11.8069
行歩	-11.8072
亥限	-11.8076
天下有憂	-11.8081
克日干	-11.809
之數皆	-11.809
侍衛	-11.8091
為難星	-11.8092
上卿	-11.8092
一毫	-11.8093
當生年	-11.8102
逢梟	-11.8102
文德	-11.8105
卦例	-11.8123
顯揚	-11.8124
晝生人	-11.813
懷孕	-11.8133
今觀	-11.8134
乙庚年	-11.8137
莫知	-11.8139
卦象	-11.8139
局勢	-11.814
去聲	-11.8143
遂成	-11.8143
剛明	-11.8146
干上酉	-11.815
攷之	-11.8152
隔八	-11.8154
所聚	-11.816
行南方	-11.8164
最為凶	-11.8165
反此則	-11.8171
厚福	-11.8173
石氏曰填星犯	-11.8178
縣寧	-11.8181
破我	-11.8183
有急兵	-11.8185
厚重	-11.8188
初限	-11.8194
推求	-11.8194
子母相	-11.8196
離壬	-11.8198
戊庚	-11.82
其君死	-11.8201
婁度	-11.8208
安享	-11.8209
二年正月	-11.8212
吉星臨	-11.8218
交併	-11.8218
失理	-11.8221
遇長生	-11.8225
有雲如	-11.8226
東升	-11.8229
不能為禍	-11.823
於四維	-11.8232
者有之	-11.8251
晨見	-11.8251
見庚辛	-11.8253
鬼氣	-11.8256
十全	-11.8259
數言之	-11.8261
賊神	-11.8264
空門	-11.8266
尤切	-11.8268
八百二十	-11.8274
遲遲	-11.8285
納音屬金	-11.8286
坎坤	-11.829
名利兩	-11.8291
相違	-11.8294
北斗魁中	-11.8297
以告	-11.8297
養萬物	-11.8298
成慶	-11.831
苻堅	-11.831
帝置	-11.831
便當	-11.8311
天屏	-11.8314
黒痣	-11.8316
不透	-11.8317
推遷	-11.8328
禮部	-11.8337
九百五十	-11.834
丈餘	-11.8343
科舉	-11.8344
朞	-11.8349
雲氣在敵陣上	-11.8358
囷	-11.8366
為正印	-11.8366
徐揚	-11.8369
愎	-11.8371
又引	-11.8374
掲	-11.8375
選擇宗鏡	-11.8377
鎬	-11.8379
之形體	-11.8379
羌	-11.838
髭	-11.838
鉛	-11.838
楯	-11.838
店	-11.8381
庖	-11.8381
牟	-11.8382
六箇	-11.8382
攣	-11.8382
易書詩春秋	-11.8382
舟船	-11.8384
哺	-11.8384
諏訾	-11.8384
富貴之人	-11.8384
子與丑合	-11.8385
孤孀	-11.8385
日蝕諸侯	-11.8385
悮	-11.8386
聦	-11.8386
瑜	-11.8386
鳳凰	-11.8387
秦楚	-11.8387
第六星	-11.8387
憔悴	-11.8387
臀	-11.8387
犧牲	-11.8388
之合也	-11.8388
彦	-11.8388
遡	-11.8388
闈	-11.8388
巫咸曰客星出	-11.8389
築室	-11.8389
聲如雷	-11.8389
葦	-11.8389
土為官	-11.8389
税	-11.8389
曇瑩	-11.8389
陜	-11.8389
異苑曰	-11.839
土埋雙女	-11.839
蒭	-11.839
遲留	-11.839
騷	-11.8391
十二吉山宜巳酉丑亥卯未年月日時	-11.8391
昭然	-11.8391
㓗	-11.8392
尅妻害子	-11.8392
杯	-11.8392
粒	-11.8392
俗人	-11.8392
弋	-11.8392
立劵交易	-11.8392
赫赫	-11.8392
揷	-11.8393
蹙	-11.8393
萬事皆	-11.8393
嘷	-11.8393
煌	-11.8393
鳧	-11.8393
有自立者	-11.8393
抱朴子曰	-11.8394
瓠	-11.8394
嗑	-11.8394
枲	-11.8394
車騎滿野	-11.8394
樞要歴曰	-11.8394
冡宰	-11.8394
京房妖占曰	-11.8394
㐮	-11.8394
􁁜	-11.8394
延頸	-11.8394
鴨	-11.8395
换	-11.8395
摘亡辟曰	-11.8395
不註宜	-11.8395
天寶厯曰	-11.8395
樊	-11.8395
期百日	-11.8395
寶瓶	-11.8395
製	-11.8395
貪婪	-11.8396
甕	-11.8396
昩	-11.8396
參天兩地	-11.8396
諸葛	-11.8396
汨沒	-11.8396
立之是謂	-11.8397
赧王	-11.8397
所理之地	-11.8397
涌	-11.8397
角木蛟	-11.8397
先難後易	-11.8397
鰲	-11.8397
綜	-11.8398
俸	-11.8398
不施	-11.8398
襦	-11.8398
天馬地驛	-11.8398
四大吉時	-11.8398
誦	-11.8398
行木火運	-11.8398
逆行四孟	-11.8398
胡氏曰	-11.8398
官福二宫	-11.8398
譜	-11.8398
奕	-11.8399
梓	-11.8399
舛	-11.8399
期八十日	-11.8399
折桂	-11.84
京都	-11.84
外頗同	-11.84
養育	-11.84
財官雙美	-11.84
元枵	-11.84
乾兊離震	-11.8401
囦	-11.8401
此二段	-11.8401
瀛	-11.8401
肣	-11.8402
壻	-11.8402
坊	-11.8402
七百八十	-11.8402
聖人作易	-11.8402
鴟	-11.8402
横吉内外相應自橋揄仰上柱足足肣	-11.8403
自天來	-11.8403
財命有氣	-11.8403
隔界	-11.8403
郤	-11.8403
萬五千里	-11.8403
丮	-11.8403
仆	-11.8403
琴	-11.8404
蓮	-11.8404
荘公	-11.8404
羲軒	-11.8404
莫大於	-11.8405
有竒令	-11.8405
羗	-11.8405
扶筐	-11.8405
狢	-11.8405
屛星	-11.8405
弓箭	-11.8405
闕丘	-11.8405
魏氏曰	-11.8406
化煞為權	-11.8406
府尹	-11.8406
子寅辰午申戌	-11.8406
欽定四庫全書三易洞璣卷	-11.8406
妍	-11.8407
翅	-11.8407
礥	-11.8407
亞	-11.8408
憚	-11.8408
理之自然	-11.8408
首仰足肣身折内外相應	-11.8408
㝷	-11.8408
淹留	-11.8408
周髀	-11.8408
攅	-11.8409
荆州占曰月蝕	-11.8409
丑刑戌	-11.841
太玄經卷第	-11.841
震坎艮	-11.8411
謨	-11.8411
二四六八十	-11.8411
二四六八	-11.8411
鍵	-11.8412
韜	-11.8412
巨蟹宫	-11.8412
陽中之隂	-11.8413
辦	-11.8413
飯	-11.8413
文筆	-11.8413
亦不註忌	-11.8414
間量府	-11.8414
缺盆	-11.8414
市賈有利	-11.8415
王者惡之	-11.8415
屈曲	-11.8415
匹配	-11.8415
古今同四星	-11.8416
天下太平	-11.8416
自午至亥	-11.8416
凡㸔命	-11.8417
㵼	-11.8417
沖和	-11.8418
淫奔	-11.8418
君當之	-11.8418
宥	-11.8418
血脉	-11.8419
肢體	-11.8419
納畜	-11.842
王導	-11.842
神藏煞沒	-11.842
有憂又曰	-11.8421
孝經雌雄圖曰日	-11.8421
玉兎	-11.8422
黃鍾	-11.8422
日辛丑時	-11.8422
相生相尅	-11.8422
啟蒙	-11.8422
日己未時	-11.8423
日丁丑時	-11.8423
占者得之	-11.8424
日戊戌時	-11.8424
懸索	-11.8424
彊梁	-11.8424
日癸酉時	-11.8424
竊詳	-11.8425
日丁巳時	-11.8425
日己酉時	-11.8425
月金水運	-11.8426
丨平	-11.8426
攝提格	-11.8426
六百三十	-11.8427
驟發	-11.8427
人生六畜有	-11.8427
曾門	-11.8429
折威	-11.8429
孤單	-11.8429
朝夕	-11.8429
日甲戌時	-11.8429
甘氏曰日蝕	-11.843
有用之星	-11.843
日己亥時	-11.8432
九百三十	-11.8433
髙樓	-11.8434
赤星出	-11.8434
雌虎	-11.8435
制鬼	-11.8436
腰背	-11.8437
人生子無	-11.8437
紅色	-11.8438
冬三月	-11.8438
解釋	-11.8438
滋生	-11.8439
漏刻	-11.844
退藏	-11.844
車駕	-11.8441
支壠	-11.8442
元之元	-11.8442
温柔	-11.8443
化育	-11.8443
木火金水	-11.8443
財生官	-11.8447
府南	-11.845
緩則	-11.8451
黃白	-11.8451
昴亢	-11.8452
匹夫	-11.8452
隂陽之數	-11.8453
推測	-11.8453
丅咎	-11.8453
以木論	-11.8453
日丙辰時	-11.8454
渡河	-11.8455
昏暗	-11.8457
醜惡	-11.8457
幽微	-11.8458
津河	-11.8459
惟怕	-11.8462
右緯	-11.8463
照耀	-11.8463
九九八十一	-11.8464
安牀	-11.8465
秘訣云	-11.8465
關梁	-11.8466
八座	-11.8466
遷榮	-11.8466
八迍	-11.8466
孟秋	-11.8469
無俾	-11.847
近乎	-11.8472
之正也	-11.848
委用	-11.848
土尅水	-11.848
兩停	-11.8481
孤虛	-11.8482
私通	-11.8482
八百六十	-11.8483
以吉論	-11.8483
元嘉	-11.8484
黒氣如	-11.8484
異乎	-11.8489
孟冬	-11.8493
五百二十	-11.8493
嵗熟	-11.8494
天鏡曰天雨	-11.8495
後嗣	-11.8497
二交金木	-11.85
木命人	-11.85
建亥	-11.85
丙午進士	-11.8501
受封	-11.8501
戊癸年	-11.8507
詩斷天	-11.8508
占孕	-11.8513
可以知	-11.8517
偏房	-11.8521
三十餘	-11.8522
雨師	-11.8522
之甚也	-11.8525
獨宿	-11.8526
百日内	-11.8526
所存	-11.8527
大衍五十	-11.8529
將興	-11.853
留二十日	-11.8532
大豆	-11.8532
才能	-11.8532
屬金金	-11.8536
原衍	-11.8538
惠公	-11.854
髙遷	-11.8543
虎穴	-11.8544
河圖之數	-11.8544
喜土計	-11.8545
破壞	-11.8548
亦如此	-11.8549
日時帶	-11.855
三百里	-11.8551
詳審	-11.8555
將軍為亂	-11.8558
五穀貴	-11.8558
下賊	-11.8559
景初	-11.856
蛇雀	-11.856
合璧	-11.8561
縊死	-11.8563
如一命	-11.8564
有急事	-11.8564
地之體	-11.8565
氐房	-11.8565
禮儀	-11.8567
多迍	-11.8569
大霧	-11.857
難禁	-11.8575
妻賢	-11.8575
西星入	-11.8577
知覺	-11.8582
官崇	-11.8582
石氏曰月在	-11.8584
暈中	-11.8585
泊金	-11.8589
條下	-11.8592
冀雍	-11.8593
可愛	-11.8594
而不窮	-11.8603
積善	-11.8603
决定	-11.8603
印貴	-11.8604
大海水	-11.8609
乗虎	-11.861
而後可	-11.8611
將士	-11.8611
孤刑	-11.8611
財寶	-11.8616
申子辰年	-11.8618
最切	-11.8621
亢度	-11.8622
皇書	-11.8624
百四十有四	-11.8629
石氏曰月犯	-11.863
黃道	-11.8631
者地也	-11.8636
者隂之	-11.8639
謀害	-11.8641
分曉	-11.8642
依舊	-11.8645
說文	-11.8647
臣弑主	-11.8649
逆理	-11.865
差錯	-11.8651
和柔	-11.8654
之辭也	-11.8657
三傳俱	-11.8658
不能為福	-11.8663
界限	-11.8664
必夭	-11.8666
論五星	-11.8675
丁壬年	-11.8675
本生年	-11.868
星占五十	-11.8682
七百四十	-11.8686
在此宫	-11.8689
敗軍	-11.8692
臨仲	-11.8692
道士	-11.8694
孔氏	-11.8695
災異	-11.8697
多成敗	-11.8698
以上諸	-11.87
用金為	-11.87
得寅午戌	-11.8701
暴貴	-11.8703
重逄	-11.8704
壬字	-11.8706
兵卒	-11.8708
一身之	-11.8708
為吉論	-11.871
孝王	-11.871
全局	-11.8721
明晦	-11.8728
身體	-11.8729
皇子	-11.8734
山石	-11.8734
推筭	-11.8741
論生尅	-11.8746
星動摇	-11.8747
生冬月	-11.8752
取象於	-11.8754
海中占曰填星守	-11.8763
於上而	-11.8766
五百九十	-11.8767
焉能	-11.877
太嵗月建	-11.8773
冬雷	-11.8775
官煞重	-11.8777
君有憂	-11.8781
龍尾	-11.8781
原來	-11.8783
禄在寅	-11.8785
互用	-11.8791
凡占皆	-11.8794
弟子	-11.8808
純乎	-11.8812
等格	-11.8813
如占病	-11.8814
之行也	-11.8814
襄陽	-11.8816
幾日	-11.8817
重婚	-11.8819
秋三月	-11.8821
性好	-11.8822
遠行	-11.8834
此訣	-11.8838
二年三月	-11.884
庚戊	-11.8841
按魏	-11.8845
白衣之㑹	-11.8846
冲氣	-11.885
持節	-11.8863
古十	-11.8867
在地上	-11.8869
牢日	-11.8873
五姓	-11.8875
為孤辰	-11.8896
逆段	-11.8898
五百三十	-11.8899
居廟旺	-11.8901
方免	-11.8902
䘮身	-11.8916
伐燕	-11.8916
辛壬	-11.8917
一丈一尺	-11.8924
廏	-11.8934
一生多	-11.8935
無妄	-11.8938
為驛	-11.8941
貴無疑	-11.8942
己巳辛未	-11.8943
執事	-11.8943
一十二萬九千六百	-11.8944
終焉	-11.8945
生秋月	-11.8948
資生	-11.8948
第五星	-11.8968
郗萌曰客星	-11.8968
亂世	-11.8969
假如甲子	-11.897
女御	-11.8975
六百二十	-11.8978
怕刑衝	-11.8979
二百十	-11.8983
衛軍民指揮使司	-11.8987
占行人	-11.899
分為二	-11.8992
水之精	-11.8994
横吉安	-11.8995
日日躔	-11.8996
灾病	-11.9006
厲公	-11.9014
水蟲	-11.9021
亦吉若	-11.9023
赦文	-11.9024
七品	-11.9025
刼的	-11.9031
有伏兵	-11.9031
壽上	-11.9034
天罡加	-11.9039
秤	-11.9046
竒特	-11.9049
月與日	-11.9054
左氏	-11.9055
之謂也修夫	-11.9065
權謀	-11.9065
為應造葬後	-11.9065
東郡	-11.9069
槽	-11.9069
晉改元	-11.907
昊	-11.9073
麞	-11.9083
太嵗衝	-11.9083
潁	-11.9087
壬辰壬戌	-11.9089
攡	-11.909
碣石	-11.909
金白水清	-11.9092
愕	-11.9093
尚書中候曰	-11.9094
春秋考異郵曰	-11.9094
侣	-11.9095
荅	-11.9097
焉乾隆四十六年	-11.9097
溝壑	-11.9097
專禄	-11.9097
豎造	-11.9097
鄆	-11.9099
海中占曰月暈	-11.9099
鷙	-11.9099
冽	-11.91
縱逢	-11.9101
糓	-11.9101
貸	-11.9101
贈	-11.9101
日有食之	-11.9101
顙	-11.9101
淹滯	-11.9101
娛	-11.9102
有千里之行	-11.9102
痰	-11.9103
撲	-11.9103
中赤外青	-11.9103
寘	-11.9103
司怪	-11.9103
建興	-11.9103
㤙	-11.9104
韋昭	-11.9104
惶	-11.9104
勑	-11.9104
臓	-11.9104
嫗	-11.9104
滔滔	-11.9104
旛	-11.9104
演孔圖曰	-11.9105
隼	-11.9105
兵發伺始入處之率一日期十日軍罷	-11.9105
吕氏	-11.9105
星伴月	-11.9105
二十八宿山經曰	-11.9106
斡	-11.9106
當憂不憂	-11.9106
幃	-11.9106
凡所忌者則不註宜所宜者亦不註忌	-11.9106
僧尼	-11.9106
職元局主	-11.9106
八百七十	-11.9107
祠祀	-11.9107
䋲	-11.9107
蛾	-11.9107
閹	-11.9107
遐齡	-11.9107
犢	-11.9107
東官候曰	-11.9107
車騎將軍	-11.9107
簷	-11.9108
脹	-11.9108
吹律	-11.9108
隘	-11.9108
丐	-11.9108
玅	-11.9109
佛氏	-11.9109
轍	-11.9109
奄	-11.9109
分一更戌初	-11.9109
相養	-11.9109
茲	-11.9109
朔旦冬至	-11.9109
璋	-11.911
䕫	-11.911
杭	-11.911
冗	-11.911
怎	-11.911
蹲	-11.911
惱	-11.911
鞍	-11.911
貼肉	-11.911
淫佚	-11.9111
哭泣之事	-11.9111
一看命	-11.9111
争奪	-11.9111
軒昻	-11.9111
梁州	-11.9111
弦望晦朔	-11.9112
兌六白震八白中九紫乾	-11.9112
兩干不雜	-11.9112
七百二十九賛	-11.9112
恓惶	-11.9112
五行相尅	-11.9112
敦厚	-11.9112
燧	-11.9112
星欲明	-11.9112
冐	-11.9113
眉濃	-11.9113
䧏	-11.9113
巡狩	-11.9113
與填星合	-11.9113
淆	-11.9113
燦	-11.9113
灸	-11.9113
陳卓曰彗星出	-11.9113
有土功之事	-11.9114
天秤宫	-11.9114
殄	-11.9114
飭	-11.9114
翮	-11.9114
悴	-11.9114
三更子初一刻	-11.9114
瑯琊王	-11.9115
粥	-11.9115
南夷	-11.9115
㕔	-11.9115
剗	-11.9115
鍼	-11.9116
終而復始	-11.9116
周匝	-11.9116
璇璣	-11.9116
壬禄在亥	-11.9116
乾兊离震	-11.9117
日暈而珥	-11.9117
近中宫故為	-11.9117
捷	-11.9117
去煞留官	-11.9117
澆	-11.9117
砧	-11.9117
化鬼為官	-11.9117
行限遇之	-11.9117
話	-11.9118
沓	-11.9118
總要歴曰	-11.9118
特逹	-11.9118
游䰟	-11.9118
内外相應	-11.9118
走他鄉	-11.9119
焦枯	-11.9119
萬緒	-11.9119
至葬造後	-11.9119
胎生元命	-11.9119
丁與壬合	-11.912
儻	-11.912
揫	-11.912
漳	-11.912
開拓	-11.912
値此	-11.912
太史令	-11.9121
乖戾	-11.9121
日酌行	-11.9121
讙	-11.9121
七百二十九	-11.9121
當此之時	-11.9121
吉無不利	-11.9121
摺	-11.9122
刋	-11.9122
東甌	-11.9122
獲麟	-11.9122
奔馳	-11.9122
鄭𤣥注	-11.9122
眎	-11.9122
轟	-11.9122
仕路	-11.9123
慈母	-11.9123
欽定四庫全書子部七提要	-11.9123
弹射	-11.9123
舉正直	-11.9123
恍惚	-11.9124
開倉庫	-11.9124
駢	-11.9124
祛	-11.9125
悲鳴	-11.9125
玉管照神局	-11.9125
笙	-11.9125
么	-11.9126
閎	-11.9126
宜守舊	-11.9126
妨父	-11.9127
舟車	-11.9127
畛	-11.9127
孟仲季	-11.9128
石崇	-11.9128
散漫	-11.9128
申未午	-11.9128
穿井	-11.9128
大扺	-11.9128
啾	-11.9128
駝	-11.9129
黄河	-11.9129
陸績	-11.9129
千鍾	-11.9129
其下之國	-11.9129
針刺	-11.913
彚	-11.913
輔嗣	-11.913
寒暑晝夜	-11.913
師曠	-11.9131
滋助	-11.9132
葉落	-11.9132
僖	-11.9132
血腥	-11.9132
所在之方	-11.9132
自然而然	-11.9133
天干地支	-11.9133
六千五百六十一	-11.9134
竦	-11.9134
巧計	-11.9136
卲子	-11.9136
阻壽	-11.9137
守株	-11.9137
詩斷土星	-11.9137
玄術	-11.9137
何以言之	-11.9138
左執法	-11.9138
餘准此	-11.9138
趨避	-11.9139
辵	-11.9139
丅灾	-11.9139
節齋	-11.9139
丘陵	-11.914
三合對照	-11.9141
加一級	-11.9142
猛虎	-11.9143
籥神	-11.9143
耳聳	-11.9143
一二三四五	-11.9143
祖暅	-11.9143
金榜	-11.9144
未甞	-11.9144
稅	-11.9146
詩斷木星	-11.9146
六爲上禄	-11.9146
四緑	-11.9146
成造化	-11.9147
主盗賊	-11.9147
昏濁	-11.9148
直之日宜	-11.9148
正月一日	-11.9149
所自出	-11.915
坤為地	-11.9151
謹慎	-11.9152
㐫煞	-11.9154
威嚴	-11.9154
次降入	-11.9154
才智	-11.9155
蔚	-11.9155
石氏曰日蝕	-11.9155
二年八月	-11.9156
其所以然	-11.9156
文藝	-11.9156
乾納甲	-11.9158
萬鍾	-11.9158
尊嚴	-11.9158
充實	-11.916
公姑	-11.916
古歌曰	-11.916
日丁卯時	-11.9161
色變	-11.9162
葢因	-11.9162
羅照	-11.9163
安府	-11.9164
賜爵	-11.9165
斜視	-11.9165
順段	-11.9166
西域	-11.9168
日己丑時	-11.9171
易緯	-11.9171
尚質	-11.9173
高低	-11.9174
水官也	-11.9174
八百九十	-11.9175
造化之妙	-11.9176
穴情	-11.9176
纒身	-11.9179
遥尅	-11.918
柱中不見	-11.918
八穀	-11.9181
所致	-11.9181
丁丑舉人	-11.9182
春秋感精符曰日	-11.9184
植物	-11.9184
條風	-11.9185
朱子云	-11.9185
灾厄	-11.9187
驅使	-11.9191
羽音	-11.9192
被誅	-11.9193
邪臣	-11.9193
益壽	-11.9194
強曜	-11.9195
經之正	-11.9195
䘮魂	-11.9196
禍百端	-11.9196
樞要	-11.9197
笑語	-11.9199
當世	-11.9199
日月宿	-11.92
與太白相	-11.9203
透干	-11.9203
客星干犯	-11.9204
衰㣲	-11.921
星日馬	-11.9212
天下不通	-11.9214
冬至日在	-11.9214
消除	-11.9215
不宜占病	-11.9215
天下赦	-11.9215
此五者	-11.9217
九游	-11.922
戊己日	-11.9222
湏知	-11.9223
吏民	-11.9224
道術	-11.9226
務要	-11.923
郗萌曰太白犯	-11.9231
大吉昌	-11.9231
河縣	-11.9234
不必論	-11.9235
積差	-11.9235
永康	-11.9237
有死王	-11.9237
媒人	-11.9238
北海	-11.9238
偃月	-11.9239
如甲日見	-11.9241
旦占	-11.9242
西南方	-11.9242
餘里	-11.9243
威勢	-11.9247
逆行變色	-11.9248
入官宫	-11.9249
鬼谷子	-11.9251
筭外	-11.9254
開庫	-11.9254
堅實	-11.9255
刑戰	-11.9257
力重	-11.9261
秀實	-11.9262
府廷	-11.9262
早發	-11.9264
難容	-11.9264
多口舌	-11.9268
昌盛	-11.9268
兌丁	-11.9271
到将	-11.9271
周堂	-11.9271
晉侯	-11.9273
大綱	-11.9275
魄化	-11.9277
同一位	-11.9279
▁無子	-11.928
以土為主	-11.9282
昭昭	-11.9282
欲逃	-11.9284
絶於寅	-11.9285
不曽	-11.9289
失序	-11.929
絶滅	-11.9291
失躔	-11.9295
上下相生	-11.9295
虚驚	-11.9304
漢唐	-11.9306
中抽	-11.9307
日月蝕	-11.9307
郗萌占曰	-11.9312
政令不行	-11.9315
州縣	-11.932
斷絶	-11.9324
必獲	-11.9326
剥復	-11.9326
天詔	-11.9328
尅䧟	-11.9329
熒惑留	-11.9334
妄行	-11.9336
印局	-11.9338
■)	-11.934
最靈	-11.9341
固守	-11.9342
五十有四	-11.9349
本旬	-11.9349
虛拱	-11.9352
庚辰辛巳壬午癸未甲申乙酉丙戌	-11.9357
行金水運	-11.9361
左傳	-11.9364
躔次	-11.9364
者命逢	-11.9365
關煞	-11.9366
尤喜	-11.9368
裁成	-11.9369
日與月	-11.9375
和調	-11.9377
凶尤甚	-11.9377
無疑矣	-11.9377
坐庫	-11.9387
奎度	-11.9388
不可輕	-11.9391
有生意	-11.9392
作公卿	-11.9396
憂懼	-11.94
近世	-11.9401
各異	-11.9407
星入卦	-11.9412
移動	-11.9414
本源	-11.9418
文才	-11.942
下距	-11.9422
指南	-11.9423
不為忌	-11.9425
此三者	-11.9426
好文章	-11.9428
純煞	-11.9428
豐縣	-11.9431
海中占曰月	-11.9431
而不見其	-11.9433
二十有八	-11.9436
石氏曰彗星	-11.9439
黄帝曰流星入	-11.9439
葬書	-11.9444
天煩	-11.9449
鼻小	-11.9464
玄道	-11.9465
燥土	-11.9465
前篇	-11.9468
所感	-11.9477
國皇	-11.9485
陽在下	-11.9491
之治也	-11.9496
于淵	-11.9499
十二萬九千六百年	-11.9506
上官赴任臨政親民	-11.9506
分界	-11.9511
似乎	-11.9514
立后	-11.953
雲霧	-11.9532
三百三十六	-11.9534
黃帝占曰熒惑守	-11.9535
有破軍	-11.9536
妙處	-11.9543
行年太嵗	-11.9545
七十有二	-11.9547
富盛	-11.9551
死墓絶	-11.9553
干上丑	-11.9553
意義	-11.9554
眼長	-11.9555
郡漢	-11.9573
推究	-11.9574
十有六	-11.9577
合之為	-11.9578
在天上	-11.9579
三方拱	-11.958
有隂謀	-11.9583
暴風	-11.9598
未萌	-11.9613
兵攻	-11.9622
星盤	-11.9633
猛烈	-11.9638
二百九十六	-11.9642
以癸為	-11.9642
陸費墀欽定四庫全書	-11.9645
彗出	-11.9645
甲子旬中	-11.9654
不可攻	-11.9669
離為日	-11.9672
皆起於	-11.9673
三千七十	-11.9674
有繫者	-11.9675
渾渾	-11.9675
如命坐	-11.9676
純和	-11.9681
限路	-11.9688
身命官福	-11.9691
克日主	-11.9695
反此者	-11.9702
俱備	-11.9703
遭傷	-11.9704
何也葢	-11.9706
有白氣	-11.9711
逆叚	-11.9714
旦夜	-11.9733
捕盗	-11.9757
對望	-11.9759
微妙	-11.9761
火之精	-11.9762
兵不戰	-11.9764
孛同行	-11.9765
官員	-11.9776
如甲申日	-11.9777
功業	-11.9779
蝕既	-11.9782
自然之理	-11.9783
四千九十	-11.9786
軍民宣慰使司	-11.9798
訣曰	-11.9799
踐位是謂	-11.9805
得妻財	-11.9813
丨	-11.9816
尅妻子	-11.9818
序卦	-11.9827
午未申	-11.9831
二百一十	-11.9832
重重見	-11.9833
囧	-11.9842
寡婦	-11.9846
在赤道外	-11.9856
麦	-11.9856
鎭	-11.9856
臟	-11.9857
未嘗無	-11.9857
寰	-11.9858
兕	-11.9859
訟獄	-11.9861
瓊	-11.9863
槖	-11.9864
舂	-11.9864
加之以	-11.9864
羈	-11.9865
膈	-11.9865
什	-11.9867
綰	-11.9868
猩	-11.9868
儔	-11.9868
人倫風鑑云	-11.9868
開山立向	-11.9869
斵削	-11.9869
於國内	-11.9869
婉	-11.9869
東海王越	-11.987
身命主星入	-11.987
跪	-11.9871
八門杜	-11.9872
天一地二天	-11.9872
三百六十五度四分度之一	-11.9872
龔	-11.9872
侔	-11.9873
公卒世子	-11.9873
辰與酉合	-11.9873
船渡水	-11.9873
譙	-11.9873
潛潭巴曰	-11.9873
欒	-11.9873
窰	-11.9873
月恩四相時徳	-11.9874
斿	-11.9874
氛	-11.9874
衘	-11.9874
囹圄	-11.9874
鑰匙	-11.9874
齦	-11.9875
指揮	-11.9875
期三年逺五年	-11.9875
抛	-11.9875
堅氷	-11.9875
料	-11.9876
煦	-11.9876
生生不窮	-11.9876
扈	-11.9876
如雞子	-11.9876
凋零	-11.9876
以入日占	-11.9876
栽	-11.9877
蓐	-11.9877
蜜	-11.9877
甲寅辰巽戌坎辛申丑癸坤	-11.9877
寂寞	-11.9878
堯典	-11.9878
得一分三	-11.9879
消爍	-11.9879
不貧則夭	-11.9879
覓	-11.9879
闓	-11.9879
五穀不登	-11.9879
所宿之國	-11.9879
土厚地方	-11.9879
禮記	-11.9879
咋	-11.9879
豪傑	-11.9879
帷	-11.9879
雨風露雷	-11.988
延熹	-11.988
盻	-11.988
穀大貴	-11.988
醮	-11.988
臰	-11.988
悠悠	-11.988
下克上	-11.988
邃	-11.9881
呵	-11.9881
妒	-11.9881
動而生陽	-11.9881
五位相得而各有合	-11.9881
厥妖	-11.9881
玅選	-11.9881
歆	-11.9881
其國君死	-11.9882
曽文辿	-11.9882
浚	-11.9882
插	-11.9882
組	-11.9882
血支血忌	-11.9882
兀	-11.9882
下一爻變	-11.9882
姚萇	-11.9882
四木度	-11.9882
衙	-11.9882
一日一夜	-11.9882
粱	-11.9883
沈芝云	-11.9883
周天之度	-11.9883
攬	-11.9883
暘	-11.9883
二至二分	-11.9883
晁	-11.9883
轉禍為福	-11.9883
周顯王	-11.9883
參同契	-11.9884
易飛候曰天雨	-11.9884
㧞魏	-11.9884
少年及第	-11.9884
薊	-11.9884
覆燈	-11.9885
女主當之	-11.9885
冲漠	-11.9885
歌舞	-11.9886
期不出百八十日	-11.9886
裸形	-11.9886
鉅鹿	-11.9886
塘	-11.9886
迨	-11.9886
釀	-11.9886
若角動	-11.9886
語笑	-11.9887
濓溪	-11.9887
巫咸曰流星入	-11.9887
鵰	-11.9887
劉向洪範傳曰	-11.9887
杜預	-11.9887
窈窕	-11.9887
猷	-11.9887
色青黑	-11.9888
疉	-11.9888
癰疽	-11.9888
貲	-11.9888
斧鉞用	-11.9888
屠城	-11.9888
貉	-11.9889
曷	-11.9889
建子之月	-11.9889
毬	-11.9889
揣	-11.9889
消息盈虚	-11.9889
安穩	-11.9889
龜板	-11.9889
恙	-11.9889
水尅火	-11.989
汜	-11.989
性命之理	-11.989
天下更政	-11.989
行東北運	-11.989
窮理盡性	-11.989
皇太后	-11.989
磨蝎宫	-11.989
大矣哉	-11.989
土能生金	-11.989
芻	-11.9891
庶㡬	-11.9891
日用旺相	-11.9891
末助初	-11.9891
棿	-11.9891
弛	-11.9891
兢	-11.9892
崩弟	-11.9892
俠	-11.9893
迴避	-11.9893
甡	-11.9893
徇	-11.9893
興販	-11.9893
○○/○○○○○○)	-11.9893
邇	-11.9894
闔闢	-11.9894
十干十二支	-11.9894
管輅	-11.9894
占病必死	-11.9894
彬	-11.9894
覊絆	-11.9894
山澤通氣	-11.9895
關隘	-11.9895
首仰足肣内髙外下	-11.9895
井木犴	-11.9895
陂池	-11.9895
煆煉	-11.9895
疏通	-11.9895
進退存亡	-11.9896
帝堯	-11.9896
壬遁	-11.9896
功曺	-11.9896
曹氏	-11.9897
昔人所謂	-11.9897
謾語	-11.9897
三三而九	-11.9898
許昌	-11.9898
主人一生	-11.9899
悸	-11.99
長生於申	-11.99
定章曰	-11.99
中央大星	-11.99
其國内亂	-11.99
軻	-11.99
賾	-11.99
輕重言之	-11.9901
諸葛亮	-11.9901
再拜	-11.9902
人主不安	-11.9902
尺寸	-11.9902
變化無窮	-11.9902
抑揚	-11.9902
良醫	-11.9903
睒	-11.9903
嚎	-11.9903
帝席	-11.9903
𤣥㝠	-11.9903
神將㐫	-11.9904
姦邪	-11.9904
五星從位起太隂	-11.9904
分隂分陽	-11.9904
稽留	-11.9904
荆楚	-11.9904
所喜者	-11.9904
輔臣有誅	-11.9904
古今同五星	-11.9905
第三課	-11.9905
陷沒	-11.9905
中犯乗	-11.9906
宓圗	-11.9906
登駕	-11.9906
挨左	-11.9906
百五十里	-11.9907
木尅土	-11.9908
義熈	-11.9908
七日以上	-11.9908
環拱	-11.991
嵗德合	-11.991
五十里	-11.9911
日壬戌時	-11.9911
繩索	-11.9911
觀月經名	-11.9912
先天之學	-11.9913
焯	-11.9913
賦又云	-11.9913
百端	-11.9913
耳聾	-11.9914
滎陽	-11.9916
賢聖	-11.9916
水火木金土	-11.9917
必有亡國	-11.9917
明朗	-11.9917
歲月日時	-11.9918
此二句	-11.9919
也其曰	-11.9919
緩急	-11.9919
奉車	-11.992
文彩	-11.992
應上文	-11.9921
盡之矣	-11.9921
行北運	-11.9922
滿盤	-11.9923
竹書	-11.9924
梟印	-11.9924
吉凶神煞	-11.9925
輪轉	-11.9925
李廣	-11.9925
太白與歳星	-11.9925
天攙	-11.9926
刻八分	-11.9927
萬殊	-11.9927
日短星	-11.9928
前後左右	-11.9928
榮辱	-11.9928
十日不下	-11.9928
落魄	-11.9928
發跡	-11.9929
無所不通	-11.9929
卦用事	-11.9929
延壽	-11.993
與火同	-11.993
面部	-11.993
哭聲	-11.9931
犬生六畜	-11.9932
赤如血	-11.9932
星占六十	-11.9933
紅黄	-11.9933
在何方	-11.9933
交友	-11.9934
然亦有	-11.9934
青衣	-11.9934
兵戈	-11.9934
觜宿	-11.9935
元年八月	-11.9935
奸盗	-11.9935
入黄泉	-11.9935
交馳	-11.9935
絞神	-11.9936
犬矢	-11.9937
獅子宫	-11.9937
古法曰	-11.9939
孟子曰	-11.9939
傷官食神	-11.9939
仲季	-11.994
此一節	-11.994
九月十月	-11.9941
五行傳曰	-11.9942
鄭氏曰	-11.9942
的殺	-11.9942
甲寅乙夘	-11.9943
騎馬	-11.9944
縦横	-11.9944
赤烏	-11.9945
長繩	-11.9948
通書云	-11.9948
色青白	-11.9948
喜非常	-11.995
為倒食	-11.9952
昔人	-11.9952
父母爻	-11.9953
子至巳	-11.9955
天下大饑	-11.9956
城邑	-11.9956
㐫暴	-11.9956
榮達	-11.9957
日庚戌時	-11.9957
車府	-11.9958
薄蝕	-11.9958
徃亡	-11.9959
己酉進士	-11.996
配偶	-11.9962
因女人	-11.9962
潛虚	-11.9962
作日鬼	-11.9964
讒言	-11.9965
太虛	-11.9966
原序	-11.9968
財官生旺	-11.997
功名富貴	-11.9972
又占曰月	-11.9974
左傳曰	-11.9975
包藏	-11.9975
易之體	-11.9976
寒賤	-11.9976
神將凶	-11.9978
臣不忠	-11.9978
隨蠱	-11.9979
如甲子見	-11.9979
戊戍	-11.9979
未敢	-11.9981
地坼	-11.9983
臨死絶	-11.9983
處逢生	-11.9988
黃帝占曰客星出	-11.999
寳光	-11.9991
互體	-11.9991
之用數也	-11.9992
須識	-11.9993
總龜	-11.9994
無刑破	-11.9995
庚寅戊寅	-11.9996
小限流星	-11.9998
殃禍	-11.9999
虹出	-12
相副	-12.0002
子細推	-12.0004
之深也	-12.0007
項短	-12.0008
久矣	-12.001
大㫖	-12.0011
主有權	-12.0012
一件	-12.0013
注文	-12.0015
筭法	-12.002
秦苻	-12.0021
為将星	-12.0024
不出四十日	-12.0024
素問	-12.0032
形狀	-12.0033
各有所主	-12.0034
飛横	-12.0034
與喜相	-12.0037
四千四十	-12.0037
輝光	-12.0038
六百八十	-12.0041
桃花煞	-12.0042
三邱	-12.0042
何益	-12.0043
立業	-12.0044
孤弱	-12.0046
選時	-12.0047
推移	-12.0047
諸曜	-12.0047
童子	-12.0048
天地之性	-12.0054
四十三十	-12.0057
守静	-12.0057
虹貫	-12.006
百九十二	-12.0061
真機	-12.0062
于長安	-12.0065
加福力	-12.0065
入貴格則	-12.0066
常懐	-12.0067
文華	-12.0068
運行西方	-12.007
雙山	-12.007
四箇	-12.0071
暗藏	-12.0082
雷門	-12.0087
哭神	-12.0088
意思	-12.0094
光照	-12.0094
増地	-12.0095
色青黒	-12.0097
信義	-12.0099
賢徳	-12.0101
地囊	-12.011
五行之性	-12.0113
不出三十日	-12.0115
商周	-12.0116
饑人相食	-12.0117
活木	-12.0118
催官篇	-12.0122
渾淪	-12.0125
輔政	-12.0127
道塞	-12.0133
改元太	-12.0136
斗指	-12.0139
性暴	-12.0139
尊崇	-12.0139
江陵	-12.0144
類為天	-12.0145
然後能	-12.0147
多死一曰	-12.0151
荆州占曰填星守	-12.0154
名播	-12.0175
勢力	-12.0176
禀五行	-12.018
晉楚	-12.018
今考	-12.0181
夾尅	-12.0183
各隨其	-12.0191
智識	-12.0193
期三年石氏曰	-12.0208
地鏡曰地	-12.0214
嘉喜	-12.0216
熒惑入太微	-12.022
居其所	-12.0233
民不安	-12.0235
立公子	-12.0241
牛多死	-12.0248
寅申巳亥四	-12.0248
主孝服	-12.0251
在七宫	-12.0252
日時犯	-12.0255
尺七寸	-12.0261
病者死	-12.0263
恩澤	-12.0284
富厚	-12.0284
衍之為	-12.0289
吉星到	-12.0295
加四仲	-12.03
分日之	-12.03
遇刼	-12.0301
絶胎養	-12.0307
金為財	-12.0316
老氏	-12.0324
錯雜	-12.0324
八八六十四	-12.0331
七百九十	-12.0332
分之則	-12.0345
悉皆	-12.0348
分之為	-12.0352
漢志	-12.0359
宣帝	-12.0362
天圎	-12.037
雲雷	-12.0379
安其居	-12.0395
安閒	-12.0401
人君之象	-12.0413
有死將	-12.0422
延夀	-12.0429
酉宫金	-12.0434
不入格	-12.0452
福祐	-12.0455
甲己年	-12.0458
安寜	-12.0464
擇吉日	-12.0464
官祿宫	-12.0469
剛烈	-12.0477
天頂	-12.048
國有䘮	-12.0483
海中占曰熒惑犯	-12.0484
九百二十	-12.0492
機變	-12.0498
不為災	-12.0508
無時不	-12.0512
未申酉戌亥	-12.0517
莫知其	-12.0518
固不可	-12.0524
厭建	-12.053
一百十二	-12.0537
性巧	-12.0562
致禍	-12.0578
狩	-12.0586
分寸	-12.059
李仝曰此	-12.0591
乎其中	-12.06
天子自將兵	-12.0603
休囚死絶	-12.0607
壬子癸丑甲寅乙卯丙辰丁巳戊午	-12.0614
陽一隂	-12.0615
之所以為	-12.0616
生旺庫	-12.0617
宜天徳月徳天徳合月徳合天赦天願	-12.0617
此氣見	-12.0631
四十九内減之餘	-12.0635
百九十	-12.0635
穆公	-12.064
遁起	-12.0652
此以下	-12.0654
太微宫	-12.0664
戰雌	-12.0671
手陽明	-12.0675
亥戊子己丑庚寅辛卯壬辰癸巳經世之	-12.0675
時行八分	-12.068
在壬亥之間	-12.0681
燾	-12.0681
孝經雌雄圖曰	-12.0684
富壽	-12.0686
説文曰	-12.0688
女人入此相者	-12.0689
幡	-12.069
宿雲氣干犯占蒼白雲氣入	-12.0691
櫃	-12.0692
霰	-12.0693
釜	-12.0695
逵	-12.0695
四千三百七十四	-12.0696
朢	-12.0697
堦	-12.0698
賭	-12.0698
一動一静	-12.0699
附錄	-12.0699
叨	-12.0699
綉	-12.0699
繕城郭	-12.0699
佐助期曰	-12.0699
喆	-12.07
凶又次	-12.07
迅速	-12.07
郗萌曰嵗星逆行	-12.07
擺	-12.07
蚕	-12.07
春秋漢含孳曰	-12.07
騮	-12.0701
兵法曰	-12.0701
四分度之一	-12.0701
箒	-12.0701
賄	-12.0701
溶	-12.0702
弧矢	-12.0702
遇而不遇	-12.0702
􁃽	-12.0703
周敬王	-12.0703
涇	-12.0703
耽	-12.0703
曲沃	-12.0703
青色三物厭日之光	-12.0704
禎	-12.0704
舘	-12.0704
土王用事	-12.0704
駙馬	-12.0704
北落師門	-12.0704
牒	-12.0704
袁紹	-12.0704
有女喪	-12.0705
鼎鼐	-12.0705
世家曰	-12.0705
旄	-12.0705
躔斗宿號天	-12.0705
縫	-12.0705
聞喜不喜	-12.0705
韓趙魏	-12.0706
廣雅曰	-12.0706
起坎一	-12.0706
衮	-12.0706
石氏曰五車	-12.0706
黄帝占曰月暈	-12.0706
甘氏占曰	-12.0706
曲脚	-12.0706
冏	-12.0707
愚嘗	-12.0707
斵	-12.0707
殫	-12.0707
金騎人馬	-12.0708
殖	-12.0708
星神常居其上	-12.0708
錦繡	-12.0708
趯	-12.0708
棺槨	-12.0708
奧	-12.0708
旭	-12.0708
躔婁宿號天	-12.0708
燼	-12.0708
沼	-12.0709
握鏡曰	-12.0709
殤	-12.0709
吞啖	-12.0709
海中占曰月蝕	-12.0709
長星短星	-12.0709
五榖不登	-12.0709
時月将申加	-12.0709
日忌詞訟	-12.071
聰眀	-12.071
長數丈	-12.0711
嵗枝德	-12.0711
裁衣	-12.0711
仕途	-12.0711
當黜者	-12.0711
軋	-12.0711
團圓	-12.0711
雄豪	-12.0711
天德月德天德合月德合	-12.0711
礪石	-12.0712
絲綿	-12.0712
張月鹿	-12.0712
買賣	-12.0712
陽生於子	-12.0712
裴	-12.0712
勵	-12.0712
五六品貴	-12.0712
元一白震六白艮八白坎九紫坤	-12.0712
姙	-12.0713
王者以赦除咎	-12.0713
脅	-12.0713
廖	-12.0713
瞬	-12.0713
蠧	-12.0713
宮初度是為	-12.0713
驅馳	-12.0713
甘氏曰客星守	-12.0713
譛	-12.0713
守之其國	-12.0714
十惡大敗	-12.0714
其支者	-12.0714
萬一千五百二十	-12.0714
杲	-12.0714
卬	-12.0714
用事宜忌具於表欽定協紀辨方書卷	-12.0714
日甲辰覆燈火制	-12.0715
詹	-12.0715
左右執法	-12.0715
日庚戌釵釧金義	-12.0715
鴈侣	-12.0715
蛙	-12.0715
日右六十干支從建	-12.0715
蔑	-12.0715
白鑞	-12.0715
日戊午天上火義	-12.0715
繒	-12.0715
縛	-12.0715
摧折	-12.0715
藝文志	-12.0715
癘	-12.0715
臟腑	-12.0715
䟦	-12.0715
河鼓二偏東	-12.0715
日壬戌大海水伐	-12.0715
日甲寅大溪水專	-12.0715
兩軍相當	-12.0716
日癸丑桑柘木伐	-12.0716
醴	-12.0716
掩迫	-12.0716
之課象曰	-12.0716
鼻凖	-12.0716
纒綿	-12.0716
汪洋	-12.0716
日己亥平地木制	-12.0716
簪	-12.0717
鬼魅	-12.0717
鶚	-12.0717
繳	-12.0717
僉事	-12.0717
邉疆	-12.0717
各從其類	-12.0717
日丁酉山下火制	-12.0717
有吉有凶	-12.0717
三合前辰	-12.0717
惰	-12.0717
不可不察	-12.0717
源縣	-12.0717
食神制煞	-12.0718
左掖門	-12.0718
驚駭	-12.0718
日癸巳長流水制	-12.0718
房日兎	-12.0718
鸞鳯	-12.0718
日丙申山下火制	-12.0718
日壬辰長流水伐	-12.0718
溝洫	-12.0718
鬪	-12.0718
星非其故	-12.0718
冠𢃄	-12.0718
甘氏曰客星出	-12.0718
􁈯	-12.0718
蔣	-12.0718
棋	-12.0719
拱禄拱貴	-12.0719
昌黎	-12.0719
作日之財	-12.0719
離壬丙乙	-12.0719
日戊子霹靂火制	-12.0719
外髙内下	-12.072
日丁亥屋上土伐	-12.072
日乙酉井泉水伐	-12.072
摺折	-12.072
日戊寅城頭土伐	-12.072
日甲戌山頭火制	-12.072
日甲申井泉水伐	-12.072
旻	-12.072
羝	-12.072
日丙子澗下水伐	-12.072
日庚辰白鑞金義	-12.072
傷官生財	-12.072
袤	-12.072
六親骨肉	-12.072
日丙寅鑪中火義	-12.072
日乙丑海中金制	-12.072
輟	-12.072
九十日不下	-12.0721
宋天文志曰	-12.0721
不出百日	-12.0721
日己巳大林木義	-12.0721
蠡	-12.0721
渥	-12.0721
最為良	-12.0721
優劣	-12.0721
日庚午路傍土伐	-12.0721
日辛未路傍土義	-12.0721
羽毛	-12.0721
乙丁己辛癸	-12.0721
邈	-12.0721
苐	-12.0722
機關	-12.0722
憒	-12.0722
嗣續	-12.0722
方州部家	-12.0723
首仰足開有内	-12.0723
逆行十二辰	-12.0723
不在此論	-12.0723
春分秋分	-12.0723
晦朔弦望	-12.0723
狼弧	-12.0723
萬無一失	-12.0723
繼趙	-12.0723
九州殊口	-12.0724
石氏曰嵗星犯守	-12.0724
狼籍	-12.0724
有使來	-12.0724
倐	-12.0724
乘凶將	-12.0724
夾鐘	-12.0724
閲	-12.0724
貿	-12.0725
悲泣	-12.0725
愛憎	-12.0725
杳	-12.0725
名曰天狗	-12.0725
爪牙	-12.0725
蠶絲	-12.0725
姑姨	-12.0726
千變萬化	-12.0726
優㳺	-12.0726
戊與癸合	-12.0726
牙齒	-12.0726
璺	-12.0726
月日蝕不見光	-12.0726
君臣不和	-12.0726
旡	-12.0726
譏	-12.0726
元之元之元	-12.0726
匏	-12.0727
育吾	-12.0727
横吉内外自橋	-12.0727
周勃	-12.0727
媒妁	-12.0727
迥	-12.0727
抄	-12.0727
膏澤	-12.0727
圡	-12.0728
通作分	-12.0728
縫針	-12.0728
延熈	-12.0728
薫	-12.0728
富貴兩全	-12.0728
許負	-12.0728
易有太極	-12.0729
年月干透	-12.0729
天蝎宫	-12.0729
芻藁	-12.0729
古詩云	-12.0729
毛髪	-12.0729
骨髓	-12.0729
坎离	-12.073
莫不皆然	-12.073
嶠	-12.073
貞潔	-12.0731
正官正印	-12.0731
額廣	-12.0731
兾	-12.0731
醫卜	-12.0731
棒	-12.0732
懈	-12.0732
蕃息	-12.0732
心月狐	-12.0732
所宿國	-12.0732
天之四象	-12.0733
君臣父子	-12.0733
旬中空亡	-12.0733
冷退	-12.0734
旦暮	-12.0734
釁龜	-12.0734
佛老	-12.0734
姐	-12.0735
北而南	-12.0735
觀物内篇之	-12.0735
剛毅	-12.0735
之分野自	-12.0735
執儲	-12.0735
申酉子丑	-12.0735
字様	-12.0736
亢金龍	-12.0736
裒	-12.0737
度於辰在	-12.0737
丨凶丨凶丨凶丨凶	-12.0737
周武王	-12.0738
掃除	-12.0738
䦯	-12.0738
呌	-12.0738
猪㺄	-12.0738
燕雀	-12.0739
二十四方位	-12.0739
金官也	-12.0739
慕容垂	-12.0739
雙山五行	-12.0739
兟	-12.0739
漣	-12.0739
五星從位起熒惑	-12.074
桑柘木	-12.074
鬭訟	-12.0741
人生六畜無	-12.0741
作吉論	-12.0742
詩斷火星	-12.0742
嵗大熟	-12.0742
診	-12.0743
登科甲	-12.0744
一千九十	-12.0744
臑	-12.0744
漆	-12.0744
印綬生身	-12.0745
身太旺	-12.0746
蒼帝	-12.0748
日辛夘時	-12.0748
安𦵏	-12.0748
七强宫	-12.0749
誠信	-12.075
發明云	-12.075
日東風	-12.075
殘賊	-12.075
口濶	-12.0751
沂	-12.0751
無聊	-12.0751
順叚	-12.0754
勾連	-12.0754
第二課	-12.0754
二千九十	-12.0755
朱子所謂	-12.0755
機闗	-12.0756
主大權	-12.0757
地理家	-12.0757
傷官七煞	-12.0757
昏蒙	-12.0758
日馬遇	-12.0758
一中一下	-12.0758
湯武	-12.0758
獄漢	-12.0758
牽連	-12.0759
一陽在下	-12.0759
選擇家	-12.076
瑞應	-12.076
貪花	-12.076
墓在丑	-12.0761
屋舍	-12.0761
堪誇	-12.0761
需訟	-12.0762
熒惑出入留舍	-12.0762
英靈	-12.0763
山嶽	-12.0764
入贅	-12.0764
甘氏	-12.0765
宮洎	-12.0765
𤣥鳥	-12.0766
值之日宜	-12.0766
朔旦	-12.0767
絶祀	-12.0767
懿王	-12.0767
六百九十	-12.0768
漢儒	-12.0768
江漢	-12.0768
渾象	-12.0768
盟于	-12.077
公規	-12.077
被刼	-12.077
落䧟	-12.077
全氏曰	-12.0771
九箇	-12.0771
二年二月	-12.0771
杜門	-12.0772
一元之數	-12.0773
金水二星	-12.0774
集聚	-12.0777
朝拱	-12.0779
布帛貴	-12.0779
最愛	-12.078
劫煞	-12.0781
天下饑	-12.0782
臨官之地	-12.0784
胎月日時	-12.0785
心懷	-12.0785
百榖	-12.0785
易大傳	-12.0786
四千一	-12.0786
亨利	-12.0787
夷吾	-12.0788
加地盤	-12.0789
壺中	-12.079
包羅	-12.0791
落陷	-12.0791
堯夫	-12.0792
准前	-12.0794
天月德	-12.0794
條理	-12.0796
虎賁	-12.0796
太剛	-12.0797
畢昴	-12.0797
造命之	-12.0798
乘生氣	-12.08
衣祿	-12.08
君子得之	-12.0801
日夜出	-12.0802
軍旅	-12.0804
出於東方	-12.0804
閒極	-12.0805
親情	-12.0805
乘旺氣	-12.0808
暗不明	-12.0808
丙辰丙戌	-12.0808
宋志	-12.0809
行屬於	-12.0809
與太嵗相	-12.081
建業	-12.081
心不定	-12.0816
更的	-12.0818
壁張	-12.0819
入閣	-12.0823
便移	-12.0823
天廪	-12.083
以火論	-12.0837
諸禽	-12.0838
一線	-12.0838
月窟	-12.0839
憂愁	-12.084
須教	-12.084
不可一例	-12.0841
遺亡	-12.0847
元狩	-12.0848
保我	-12.0858
文曜鈎曰熒惑	-12.0858
血流	-12.0859
亦主富貴	-12.0862
唐開元占經卷一百	-12.0862
大小限	-12.0863
只看	-12.0863
一六水	-12.0865
考究	-12.0868
隣國	-12.087
害六親	-12.0872
體段	-12.0877
有暴兵	-12.0882
天帝之	-12.0882
刻五分	-12.0884
天尸	-12.0889
臣妾	-12.089
上立命	-12.0893
屯蒙	-12.0902
如子年	-12.0902
五百十	-12.0902
長生之位	-12.0908
道藝	-12.0908
生物之數	-12.0908
封爵	-12.0917
不忍	-12.0921
仔細詳	-12.0925
黄氣出	-12.0927
子嬰	-12.0928
亦無害	-12.0928
海中占曰辰星	-12.0928
最尊	-12.0937
亦佳	-12.0937
民多疾病	-12.0939
天社	-12.0941
戌加巳	-12.0941
郗萌曰熒惑留	-12.0941
活動	-12.0943
四時之氣	-12.0947
攻趙	-12.0947
日癸丑時	-12.0948
郗萌曰客星守	-12.0957
關係	-12.0964
雨雹	-12.0972
福祉	-12.0987
成材	-12.0989
夭賤	-12.0999
有立王	-12.1
出地上	-12.1002
遲滯	-12.101
公劉	-12.1014
八木也	-12.1036
熒惑守輿鬼	-12.1049
下生上	-12.1058
按洪範	-12.106
玉管	-12.106
逢水孛	-12.1062
第一課	-12.1063
六百五十	-12.1065
田宅宫主	-12.1073
辛巳壬午癸未甲申乙酉丙戌丁亥戊子	-12.1073
爵祿	-12.1084
兵起大將出	-12.1086
十三二十二	-12.109
臣謀君	-12.1092
柱不見	-12.1092
刑責	-12.1115
公幹	-12.1129
表端	-12.113
酉戌亥子	-12.1138
四百八十六	-12.1141
甲乙生人	-12.1153
天地之體	-12.1154
六百六十	-12.1162
百工	-12.1178
不返	-12.1192
攻晉	-12.1193
太白入太微	-12.1202
一千二十	-12.1212
月晦日	-12.1219
體質	-12.1229
申酉戌亥	-12.1262
梁冀	-12.1303
郗萌曰流星入	-12.1309
一百八十二	-12.1309
然後可	-12.1327
郗萌曰熒惑出	-12.134
遇着	-12.1346
精妙	-12.1349
七十里	-12.1355
隨其所	-12.1413
北方七宿	-12.1418
胎産	-12.1421
九百九十	-12.1425
倣此推	-12.143
多盜賊	-12.1436
壬寅癸卯甲辰乙巳丙午丁未戊申己酉	-12.1439
以氣言	-12.1444
貌美	-12.1451
百四十里	-12.1451
遇惡星	-12.1454
孝武帝	-12.1456
與熒惑合	-12.1457
不可拘	-12.1463
大赦天下	-12.1463
四年六月	-12.1467
英值	-12.1503
疾厄宫主	-12.1504
忌刑衝破害	-12.1504
位故為	-12.1519
婚嫁	-12.1537
宣撫司	-12.1552
文志曰晉	-12.1559
屬尾箕分	-12.1571
獅	-12.1574
柏	-12.1581
桴	-12.1584
日即止	-12.1585
木火土金	-12.1586
氏為皇后	-12.1586
黒氣出	-12.1587
揮	-12.1591
蜮	-12.1592
犯乘守	-12.1592
膞	-12.1595
暝	-12.1597
晨出夕	-12.1597
日晝㝠者	-12.1599
民流千里	-12.1601
而蝕戒之在	-12.1602
掀	-12.1603
愷	-12.1603
造葬後	-12.1603
一千三十	-12.1603
慙	-12.1604
頬	-12.1605
穴塲	-12.1605
嬖	-12.1606
入賤格	-12.1606
武后改元	-12.1606
彛	-12.1606
躔心宿號天	-12.1606
寨	-12.1607
苫	-12.1607
詩㫁太陽	-12.1607
沅	-12.1608
躔箕宿號天	-12.1608
驀駕	-12.1608
天目内迫	-12.1608
録尚書事	-12.1608
庄	-12.1609
時月将未加	-12.1609
午與未合	-12.1609
三台八座	-12.1609
周定王	-12.1609
京氏曰日暈	-12.161
躔畢宿號天	-12.161
躔軫宿號天	-12.161
漂蕩	-12.161
廵狩	-12.161
自午至	-12.161
躔牛宿號天	-12.161
扛	-12.161
死於非命	-12.1611
辰戍丑未	-12.1611
塚	-12.1611
薇	-12.1611
荆州占曰有星入	-12.1612
詢	-12.1612
臘	-12.1612
娠	-12.1612
福無涯	-12.1612
讚	-12.1612
酆	-12.1612
唐王希明撰	-12.1612
躔張宿號天	-12.1612
繒帛	-12.1612
耻	-12.1612
倉廩	-12.1613
濮	-12.1613
時月将午加	-12.1613
時月将戌加	-12.1613
甲乙丙丁戊	-12.1614
未可便言	-12.1614
海中占曰流星入	-12.1614
月恩四相	-12.1614
虓	-12.1614
豕生六畜	-12.1614
陳卓曰彗孛干犯	-12.1614
眚	-12.1614
塩	-12.1614
平治道塗	-12.1614
旄頭	-12.1614
摭	-12.1615
𣲖	-12.1615
豬	-12.1615
順飛九宫	-12.1616
石氏曰客星干犯	-12.1616
孺	-12.1616
八尺之表	-12.1616
元一白乾六白坤八白巽九紫中	-12.1616
皎	-12.1617
巳與申合	-12.1617
𤯝	-12.1617
破屋壞垣	-12.1617
襯	-12.1617
熒惑入輿鬼	-12.1618
顛狂	-12.1618
期一年逺三年	-12.1618
騫	-12.1618
屋宇	-12.1618
卜法詳考	-12.1618
捲	-12.1618
馳騁	-12.1618
卸	-12.1618
康寜	-12.1619
天包地外	-12.1619
宋均注曰	-12.1619
丰	-12.1619
舟楫	-12.1619
沛公	-12.1619
刑囚直難	-12.1619
鸞鳳	-12.1619
自初至	-12.1619
燄	-12.1619
吃	-12.1619
時時日併衝憂傷妻子	-12.162
甲食丙	-12.162
毓	-12.162
癩	-12.162
稳	-12.162
繕	-12.162
螻	-12.162
蝶	-12.162
納音屬水開山立向修方吉	-12.162
暑寒晝夜	-12.162
岩	-12.162
其於十二子為	-12.162
納音屬木開山立向修方吉	-12.1621
𣺌	-12.1621
其進舍也	-12.1621
禮部尚書	-12.1621
忌祈福求嗣上册進表章	-12.1621
𦙍	-12.1621
滙	-12.1621
栽培	-12.1621
抵觸	-12.1621
晃	-12.1621
諾	-12.1621
昃	-12.1621
石氏曰彗孛干犯	-12.1621
宼	-12.1621
芝蘭	-12.1622
輦	-12.1622
痼疾	-12.1622
一行禪師	-12.1622
𠂻	-12.1622
譲	-12.1622
蠲	-12.1622
時斷六丙日生時	-12.1622
甦	-12.1622
時斷六庚日生時	-12.1622
逡巡	-12.1622
鸜	-12.1622
魯昭公	-12.1622
儋	-12.1623
祿馬同鄕	-12.1623
墓神覆日	-12.1623
按韋昭洞紀曰	-12.1623
月也律中	-12.1623
窖	-12.1623
磬	-12.1623
痔	-12.1623
湣	-12.1623
掉	-12.1623
沱	-12.1623
簾幙	-12.1624
晨見東方	-12.1624
霹	-12.1624
白虹貫日	-12.1624
毌	-12.1624
否㤗	-12.1624
日己未天上火專	-12.1624
日辛酉石榴木專	-12.1624
阪	-12.1624
𬎼賔	-12.1624
瘞	-12.1624
日庚申石榴木專	-12.1624
解除求醫療病	-12.1624
將太衝天馬方	-12.1624
訥	-12.1624
瞭	-12.1624
呪咀	-12.1625
三千九十	-12.1625
嘻	-12.1625
時斷六壬日生時	-12.1625
纒繞	-12.1625
羮	-12.1625
攔截	-12.1625
㽔賔	-12.1625
范蠡	-12.1625
日辛丑壁上土義	-12.1625
天地之數五十有五	-12.1625
䜟	-12.1625
柰	-12.1625
原發㣲	-12.1625
泯	-12.1626
塋	-12.1626
燭神經云	-12.1626
樑	-12.1626
顓帝	-12.1626
財不聚	-12.1626
時斷六戊日生時	-12.1626
緜	-12.1626
禮記月令	-12.1626
蝦鬚	-12.1626
日戊戌平地木專	-12.1626
膓	-12.1627
陞擢	-12.1627
三陽三隂	-12.1627
瘟疫	-12.1627
禱祀	-12.1627
共合數三十	-12.1627
萬不失一	-12.1627
咳𠻳	-12.1627
鬼金羊	-12.1627
到山到向	-12.1627
蜒	-12.1627
日乙未砂石金制	-12.1628
五糓	-12.1628
笠	-12.1628
鑪	-12.1628
卭	-12.1628
蚩	-12.1628
隸	-12.1628
天數五地數五	-12.1628
慳貪	-12.1628
官居極品	-12.1628
嶓	-12.1629
箕水豹	-12.1629
膻中	-12.1629
劑	-12.1629
猥	-12.1629
顒	-12.1629
日乙亥山頭火義	-12.1629
日辛巳白鑞金伐	-12.1629
矛盾	-12.1629
月中日躔在	-12.1629
欽定四庫全書六壬大全卷	-12.1629
踪	-12.163
包括	-12.163
虞舜	-12.163
墨子曰	-12.163
課訂訛	-12.163
樞宻	-12.163
天統乎體	-12.1631
鈇鉞用	-12.1631
癰	-12.1631
鑰匙開	-12.1631
祲	-12.1631
刻及分	-12.1631
耄	-12.1631
曾孫	-12.1632
牂	-12.1632
温良	-12.1632
鹹	-12.1632
奸詐	-12.1632
朱紫	-12.1632
天元禄主	-12.1632
擕	-12.1632
俄	-12.1632
諱	-12.1632
隂陽二遁	-12.1633
鏘鏘	-12.1633
去官留煞	-12.1633
促壽	-12.1633
養命之源	-12.1633
前四辰	-12.1633
湎	-12.1633
身衰鬼旺	-12.1633
芬	-12.1633
涕	-12.1633
陳卓曰熒惑守	-12.1633
天地萬物之理	-12.1633
夾鍾	-12.1633
汨没	-12.1634
鱔	-12.1634
弭	-12.1634
濁濫	-12.1634
蚤	-12.1635
甲以辛為官	-12.1635
黃帝占曰客星守	-12.1635
麾	-12.1635
鹵	-12.1636
思過半矣	-12.1636
天皇大帝	-12.1636
郗萌曰填星逆行	-12.1636
夫妻行年	-12.1636
尺有五寸	-12.1636
代立是謂	-12.1636
隙	-12.1636
監司	-12.1636
駮	-12.1637
痺	-12.1637
紙	-12.1637
楫	-12.1637
留伏逆	-12.1638
懸膽	-12.1638
第二段	-12.1638
鼓盆	-12.1638
汨	-12.1639
鰍	-12.1639
黄帝占曰彗星出	-12.1639
有流民	-12.1639
疴	-12.1639
喝散	-12.1639
綱領	-12.1639
四千二十	-12.1639
寅卯午未	-12.1639
邊疆	-12.164
尭	-12.164
増減	-12.164
陽中隂	-12.164
横吉揄仰	-12.164
麻衣	-12.164
委蛇	-12.164
征討	-12.164
擲	-12.1641
正義曰	-12.1641
厯上元甲子至今	-12.1641
鄭𤣥曰	-12.1641
假饒	-12.1641
四千七十	-12.1641
支加干	-12.1642
娥	-12.1642
太素	-12.1642
州按禹貢	-12.1642
巳中戊土	-12.1642
月波洞中記	-12.1642
施惠	-12.1642
翻覆	-12.1642
秉持	-12.1643
代謝	-12.1643
氏欲為天子魏氏圖曰	-12.1643
類而言之	-12.1643
夀不長	-12.1643
天溷	-12.1644
貧乏	-12.1644
擅權	-12.1644
甲與己合	-12.1644
日干上午	-12.1644
天元一氣	-12.1644
真偽	-12.1645
行官運	-12.1645
兩三重	-12.1646
罷職	-12.1646
自子至已	-12.1647
錯誤	-12.1647
屯衛	-12.1647
脉絡	-12.1647
天下無兵	-12.1647
衣糧	-12.1648
秉權	-12.1648
聿	-12.1648
六腑	-12.1648
漸臺	-12.1649
欽天監時憲科天文生	-12.1649
禮記曰	-12.1649
忌軍事	-12.1649
鄭𤣥	-12.1649
蹉跎	-12.165
自寅至	-12.165
不可出軍	-12.165
周宣王	-12.165
有是理	-12.1651
二十日不下	-12.1651
窮途	-12.1651
青丘	-12.1651
充滿	-12.1651
丅凶丅凶丅凶丅凶	-12.1651
此氣見如	-12.1652
神頭祿乃	-12.1653
覃	-12.1653
减力	-12.1653
蔀法	-12.1654
請舉	-12.1654
勵徳	-12.1654
三中一下	-12.1656
韯	-12.1656
舩	-12.1656
艻	-12.1656
震艮巳	-12.1656
瞢	-12.1656
四中一下	-12.1657
汝南	-12.1658
専政	-12.166
逢吉曜	-12.166
差一寸	-12.166
朓	-12.166
天火燒	-12.166
干謁	-12.166
戒慎	-12.166
背叛	-12.166
室璧	-12.1661
鼓聲	-12.1661
不久長	-12.1662
八十有一	-12.1664
衍之至	-12.1664
管仲	-12.1664
二千六十	-12.1664
二十五篇	-12.1666
二中二下	-12.1666
起積筭	-12.1667
之象故曰云云劉曰	-12.1667
只愁	-12.1667
阻滯	-12.1668
日者四時	-12.1669
月災祥見在	-12.1669
司泉	-12.167
寛厚	-12.167
妨母	-12.167
京朝	-12.167
福無窮	-12.167
置積年以	-12.167
凝聚	-12.1672
牽强	-12.1672
續世	-12.1673
伐呉	-12.1674
等項	-12.1674
年月時中	-12.1674
北極出地	-12.1674
臣中兵也	-12.1674
母生子	-12.1675
準頭	-12.1677
色黃白	-12.1677
[...]
