<unk>	0
<s>	0
</s>	0
/	-3.12061
)(	-3.4661
)	-4.3526
(	-4.41381
也	-4.72893
之	-4.91033
,	-5.21015
而	-5.27273
者	-5.44242
則	-5.48938
以	-5.49977
。	-5.55491
○	-5.6208
其	-5.70308
不	-5.73384
為	-5.7956
有	-5.82059
故	-5.89173
言	-5.99604
是	-6.02095
於	-6.14738
曰	-6.22958
人	-6.23274
矣	-6.27903
無	-6.30184
註	-6.30188
謂	-6.33167
此	-6.3324
鄭	-6.33757
▁	-6.34072
云	-6.35283
至	-6.37271
注	-6.42746
皆	-6.47439
:	-6.47714
玄	-6.47717
上	-6.50905
反	-6.51799
亦	-6.54021
臣	-6.57302
與	-6.61094
子	-6.6182
▁(	-6.65131
君	-6.68194
行	-6.68396
焉	-6.70498
乎	-6.70751
非	-6.71624
爲	-6.72645
下	-6.74899
疏	-6.75652
一	-6.77291
𤣥宗曰	-6.77991
禮	-6.79239
親	-6.79405
必	-6.80216
于	-6.81081
自	-6.82358
孝	-6.84109
及	-6.85087
事	-6.85122
敬	-6.86241
天	-6.86251
在	-6.90475
所	-6.9095
又	-6.91055
能	-6.92152
明	-6.92191
然	-6.92307
生	-6.95733
如	-6.98315
猶	-7.00265
若	-7.01542
夫	-7.02935
道	-7.03439
雖	-7.03544
大	-7.04658
義	-7.0691
用	-7.10164
同	-7.10314
徳	-7.11171
文	-7.11347
所以	-7.1183
作	-7.13362
君子	-7.14466
中	-7.16271
三	-7.16711
樂	-7.16749
天子	-7.16935
稱	-7.18467
已	-7.19372
後	-7.22446
可	-7.23767
者也	-7.23899
正	-7.23946
父	-7.24913
司馬光曰	-7.25062
見	-7.25212
乃	-7.25266
民	-7.26447
使	-7.27226
士	-7.27513
經	-7.30562
時	-7.31156
即	-7.3272
王	-7.33842
從	-7.35362
教	-7.36102
身	-7.36362
諸侯	-7.36704
本	-7.37395
愛	-7.3793
國	-7.38296
天下	-7.38898
惟	-7.40358
因	-7.41283
五	-7.41685
順	-7.41743
得	-7.41769
凡	-7.42069
始	-7.42442
以為	-7.42585
祭	-7.43324
知	-7.45155
治	-7.46669
既	-7.47101
官	-7.47193
正義曰	-7.47567
成	-7.49199
名	-7.51935
居	-7.52311
詩	-7.52601
音	-7.53647
服	-7.53837
命	-7.53925
忠	-7.54418
尊	-7.54976
子曰	-7.55347
心	-7.55431
四	-7.57212
説	-7.57378
今	-7.57489
相	-7.57716
取	-7.58305
當	-7.58489
善	-7.58851
日	-7.59004
家	-7.59192
/)	-7.59229
學	-7.59462
立	-7.59533
先	-7.59697
仁	-7.60519
德	-7.61468
分	-7.62398
聖人	-7.62985
何	-7.64532
公	-7.65033
易	-7.65324
葢	-7.65581
夫子	-7.65864
重	-7.66121
長	-7.66565
或	-7.66701
傳	-7.67615
孝經	-7.6848
而後	-7.68841
地	-7.69277
二	-7.69507
惡	-7.69698
欲	-7.69843
故曰	-7.70172
貴	-7.70432
書	-7.71273
字	-7.71483
然則	-7.72382
而不	-7.72624
致	-7.72687
和	-7.74402
終	-7.74534
周	-7.74682
養	-7.74974
正義曰云	-7.76619
法	-7.77564
音義	-7.77663
天地	-7.77821
將	-7.78203
古	-7.78343
章	-7.78425
理	-7.7881
父母	-7.78909
去	-7.79539
問	-7.79625
總	-7.79697
主	-7.80053
出	-7.8007
多	-7.80203
合	-7.80774
外	-7.81107
復	-7.81813
師	-7.81945
諸	-7.82195
弟	-7.82246
古文	-7.82617
盖	-7.83118
之義	-7.8313
不可	-7.83672
聞	-7.84476
至於	-7.84714
而已	-7.86366
未	-7.86465
之道	-7.86591
且	-7.87264
說	-7.87318
舉	-7.87509
節	-7.87857
遂	-7.88166
我	-7.88333
大夫	-7.88636
愛敬	-7.9076
敎	-7.91076
失	-7.91246
處	-7.91691
何也曰	-7.92188
食	-7.92336
位	-7.92439
世	-7.9245
起	-7.92682
宜	-7.92812
情	-7.92925
通	-7.93095
孔子	-7.93264
也然則	-7.93632
亂	-7.94302
物	-7.9446
安	-7.94609
也故	-7.94919
喪	-7.95025
過	-7.95348
志	-7.95558
是以	-7.96121
六	-7.96169
極	-7.96208
齊	-7.96257
耳	-7.96453
所謂	-7.97288
守	-7.97475
不能	-7.97569
七	-7.99164
各	-7.9919
不敢	-8.00129
常	-8.0032
也云	-8.00495
逺	-8.00535
受	-8.01336
入	-8.01678
内	-8.02314
陳	-8.03838
思	-8.05392
獨	-8.0551
諫	-8.05567
謂之	-8.05627
實	-8.05641
固	-8.05862
:「	-8.05973
己	-8.06294
宗	-8.06513
禮樂	-8.0685
豈	-8.07011
先王	-8.07076
亡	-8.07835
序	-8.0786
母	-8.08312
辭	-8.08748
卿大夫	-8.09234
然後	-8.09246
語	-8.09987
可以	-8.11547
廟	-8.11665
之事	-8.1185
朝	-8.12051
直	-8.12257
又曰	-8.12375
益	-8.12415
今文	-8.12433
曽子	-8.12835
意	-8.12891
祖	-8.13616
利	-8.1402
哉	-8.14038
聖	-8.14059
刑	-8.14169
小	-8.14426
祀	-8.14745
初	-8.14991
變	-8.15836
文王	-8.15928
由	-8.16359
少	-8.16668
十	-8.16848
老	-8.17079
存	-8.171
盡	-8.17163
夏	-8.17179
難	-8.17476
數	-8.17545
性	-8.1779
體	-8.17854
政	-8.18548
信	-8.18721
前	-8.18763
釋	-8.19057
方	-8.19321
進	-8.19505
唯	-8.19632
視	-8.20065
神	-8.20653
首	-8.20897
篇	-8.20991
曾子	-8.21296
設	-8.21843
之義也	-8.23058
如此	-8.232
異	-8.23269
化	-8.23638
衆	-8.24061
近	-8.24075
備	-8.24115
美	-8.24763
論	-8.24779
功	-8.24783
尚	-8.24801
疑	-8.25298
記曰	-8.25305
孫	-8.25489
載	-8.25524
事君	-8.25844
兼	-8.26078
執	-8.26268
深	-8.26625
嚴	-8.26698
加	-8.26798
不知	-8.27145
兄	-8.28325
制	-8.28409
奉	-8.28509
紀	-8.28736
案	-8.2876
之心	-8.2905
次	-8.29389
觀	-8.29421
力	-8.29473
春秋	-8.29643
帝	-8.29685
按	-8.29989
並	-8.30147
是也	-8.30558
》	-8.30686
斯	-8.31021
也言	-8.3109
誠	-8.31183
明堂	-8.31184
引	-8.31413
改	-8.32194
發	-8.33021
歸	-8.33167
辟	-8.33359
賢	-8.33451
死	-8.33603
不得	-8.33635
著	-8.33741
者乎	-8.34077
、	-8.34275
廣	-8.34334
但	-8.34427
甚	-8.34596
四海	-8.34645
更	-8.34751
元	-8.35409
九	-8.3577
是故	-8.36017
定	-8.36063
之也	-8.3626
恭	-8.36709
疾	-8.36924
謹	-8.36957
吾	-8.37103
哀	-8.37242
䘮	-8.37427
。《	-8.37975
盛	-8.38229
厚	-8.38442
争	-8.38767
共	-8.39167
月	-8.39837
克	-8.39991
富	-8.40234
氏	-8.40711
之謂也	-8.40913
施	-8.41096
等	-8.41109
類	-8.41209
以爲	-8.41302
憂	-8.41455
享	-8.42193
西	-8.42223
朱子	-8.42336
南	-8.42738
令	-8.4302
議	-8.44053
流	-8.44123
危	-8.44178
辨	-8.44675
宗廟	-8.44933
弗	-8.44976
止	-8.45079
萬	-8.45334
水	-8.45462
魯	-8.45579
保	-8.456
。」	-8.45816
庶人	-8.46644
廢	-8.46678
應	-8.46752
正義	-8.4703
興	-8.47275
傷	-8.4738
行之	-8.47513
武	-8.4773
好	-8.47805
感	-8.47924
殺	-8.48607
恩	-8.4885
孝弟	-8.48902
舜	-8.49211
卽	-8.49313
足	-8.49373
指	-8.49427
又云	-8.49865
推	-8.49935
晉	-8.50043
讓	-8.50072
社稷	-8.50206
詩曰	-8.50571
恐	-8.50606
誼	-8.50735
東	-8.50856
平	-8.50956
聖人之	-8.51034
尚書	-8.51147
述	-8.51263
之禮	-8.51287
言之	-8.51627
就	-8.51688
承	-8.51816
息	-8.52077
脩	-8.52642
爾	-8.52713
莫	-8.52744
春	-8.529
示	-8.52959
獻	-8.52966
必有	-8.53245
患	-8.53637
者謂	-8.53781
氣	-8.54053
慎	-8.54087
射	-8.54449
來	-8.54593
寧	-8.54737
嘗	-8.55329
之意	-8.55465
詩云	-8.55607
一人	-8.55692
訓	-8.56029
率	-8.56087
郊	-8.56326
之謂	-8.56457
對	-8.56634
者矣	-8.56648
未有	-8.56779
冠	-8.56977
具	-8.57002
求	-8.57655
降	-8.5775
任	-8.57914
尸	-8.58078
禹	-8.58095
孝子	-8.58213
葬	-8.58701
也夫	-8.58957
質	-8.59014
度	-8.59022
參	-8.59033
爵	-8.59035
退	-8.59192
賤	-8.59435
爭	-8.59959
自然	-8.60043
宫	-8.60381
友	-8.60433
俱	-8.60577
之行	-8.60896
約	-8.6091
上下	-8.61042
昭	-8.61136
業	-8.61267
别	-8.61314
𤣥	-8.61355
風	-8.61421
則必	-8.61467
羣	-8.61475
蓋	-8.61712
坐	-8.61726
御	-8.61853
旣	-8.62607
似	-8.6273
何也	-8.62819
末	-8.63034
司	-8.63371
悦	-8.63424
告	-8.6345
怨	-8.63526
仕	-8.63959
始也	-8.64229
請	-8.64266
天下之	-8.64903
代	-8.6534
足以	-8.65355
周人	-8.65675
集	-8.65842
社	-8.65844
此章	-8.66028
其親	-8.66138
太	-8.66317
㑹	-8.66363
則不	-8.66531
百姓	-8.66693
良	-8.66772
與曰	-8.66823
年	-8.67156
至于	-8.67231
色	-8.67353
之言	-8.67587
其所	-8.67747
明王	-8.67821
以明	-8.68458
聲	-8.68557
據	-8.68928
虞	-8.69064
考	-8.69091
授	-8.69308
也又	-8.69519
依	-8.70279
義也	-8.70728
道也	-8.70818
為之	-8.70836
離	-8.70881
左	-8.7108
而無	-8.71114
嵗	-8.71184
高	-8.71281
八	-8.7192
夫音扶	-8.71958
卜	-8.72356
之名	-8.72395
寡	-8.72504
正義曰此	-8.72561
要	-8.73234
吉	-8.73396
無所	-8.73477
孟子	-8.73627
苟	-8.73828
校	-8.73833
卿	-8.74268
之時	-8.74875
適	-8.74891
乎曰	-8.75133
下同	-8.7533
修	-8.75459
殷	-8.7549
戒	-8.75696
者以	-8.75954
孔	-8.76046
記	-8.76101
不同	-8.76304
立身	-8.76307
予	-8.765
之間	-8.76507
将	-8.76579
輕	-8.7679
尊卑	-8.76884
間	-8.77103
簡	-8.77351
季	-8.78009
右	-8.78065
逆	-8.78072
女	-8.78129
席	-8.78295
人之	-8.78384
趨	-8.7848
彼	-8.78481
伯	-8.78518
光	-8.78815
孝道	-8.79212
隂	-8.79405
布	-8.79585
世子	-8.7974
親也	-8.7974
餘	-8.79869
萬物	-8.79906
富貴	-8.801
衰	-8.80178
秦	-8.80229
竝	-8.80321
祿	-8.8034
秋	-8.80746
之有	-8.80796
百	-8.808
悌	-8.80949
目	-8.81074
四時	-8.81149
則是	-8.81198
唐	-8.81221
以此	-8.81276
除	-8.81283
詳	-8.81496
卒	-8.81534
之後	-8.81649
配	-8.81725
象	-8.81949
見於	-8.81978
尤	-8.82105
漢	-8.82265
咸	-8.82317
扵	-8.82405
封	-8.82975
口	-8.83087
燕	-8.83099
陽	-8.83119
主人	-8.83208
於天下	-8.83493
孝者	-8.8353
侍	-8.83701
之大	-8.83768
四方	-8.83792
厥	-8.83944
仁義	-8.8413
之不	-8.84354
罪	-8.84362
之以	-8.84412
此則	-8.84779
曽	-8.84961
納	-8.85296
?	-8.85305
於此	-8.85321
陸	-8.85339
冬	-8.85578
也其	-8.85596
在於	-8.85906
之道也	-8.85915
而言	-8.8594
成王	-8.85982
卑	-8.86001
牲	-8.86108
動	-8.86226
為孝	-8.86313
祭祀	-8.86441
矣故	-8.86479
君臣	-8.86509
繇	-8.86687
待	-8.86704
㫖	-8.86803
子孫	-8.86851
曽子曰	-8.86884
事親	-8.87044
鬼神	-8.87137
禍	-8.87392
田	-8.87449
清	-8.87624
木	-8.8769
慈	-8.87715
肅	-8.87723
藏	-8.87776
典	-8.87916
衣	-8.87998
端	-8.88429
則亦	-8.88503
特	-8.88809
奠	-8.88949
土	-8.89378
史	-8.89579
崇	-8.89601
司馬光	-8.89724
故以	-8.89735
全	-8.8976
答	-8.89808
北	-8.89968
宋	-8.90137
鄭注	-8.90177
饗	-8.90195
聽	-8.90204
兩	-8.90284
接	-8.90455
法也	-8.90477
解	-8.90505
比	-8.90606
省	-8.90722
均	-8.90812
遺	-8.90915
列	-8.9101
論語	-8.91061
嗣	-8.91289
不孝	-8.91321
悉	-8.91382
髙	-8.91565
邪	-8.91571
婦	-8.91665
草	-8.91998
式	-8.92078
出於	-8.92087
馬	-8.92198
容	-8.92247
微	-8.92772
従	-8.93318
周禮	-8.93408
勝	-8.93498
堂	-8.93588
也若	-8.93621
庶	-8.93661
是之謂也	-8.93886
經文	-8.93929
置	-8.93999
移	-8.94035
須	-8.94053
孝悌	-8.94227
儀	-8.94344
違	-8.94372
禮記	-8.94437
三年	-8.94452
徒	-8.94487
手	-8.94768
顯	-8.95074
寒暑	-8.95264
朱子曰	-8.95577
後世	-8.95671
皇	-8.95961
申	-8.96188
孝也	-8.96601
禮也	-8.96767
左傳	-8.96809
左右	-8.96881
臨	-8.96975
敦	-8.96976
報	-8.97093
俗	-8.97271
君也	-8.97376
維	-8.97467
舊	-8.97748
屬	-8.97871
毅	-8.98196
辱	-8.9826
孟子曰	-8.98272
避	-8.98311
㣲	-8.98495
怒	-8.98647
賔	-8.99099
假	-8.99185
暴	-8.99201
之本也	-8.99206
子之	-8.99227
古之	-8.99421
精	-8.99674
慮	-8.99684
原	-8.99738
侍坐	-8.99807
害	-8.99876
則有	-9.00485
禄	-9.00528
睦	-9.00591
姑	-9.00753
苦	-9.00814
生於	-9.00859
此書	-9.00893
劉炫	-9.0095
一也	-9.01016
句	-9.01086
此言	-9.01131
其身	-9.01195
期	-9.01223
喜	-9.01323
之於	-9.01744
續	-9.01833
萬國	-9.01856
養老	-9.01963
久	-9.02106
表	-9.02524
五帝	-9.02752
𤼵	-9.03012
治天下	-9.03042
毛	-9.03282
侯	-9.03599
結	-9.03629
驕	-9.03763
忘	-9.03811
何以	-9.04071
又何	-9.0416
是也云	-9.04331
周公	-9.04447
貴賤	-9.04531
然而	-9.04582
要道	-9.04778
禘	-9.04869
不可以	-9.04933
者則	-9.0504
繁	-9.05061
以禮	-9.05125
純	-9.05215
司馬	-9.05349
之所	-9.05383
絶	-9.05454
附	-9.05482
資	-9.05645
故雖天子	-9.05717
薄	-9.05768
歛	-9.05825
證	-9.05876
不足	-9.05929
君子之	-9.06099
至徳	-9.06144
為大	-9.06681
風雨	-9.06899
徳教	-9.07123
儒	-9.07201
真	-9.07691
刪	-9.07973
斷	-9.07988
充	-9.081
康	-9.0826
無以	-9.08293
福	-9.08332
孔子曰	-9.08409
偽	-9.08482
小人	-9.0864
書曰	-9.08724
便	-9.0885
雖有	-9.08889
傳曰	-9.09011
之中	-9.09034
敬之	-9.09043
教民	-9.09128
而已矣	-9.09317
揚名	-9.09437
器	-9.09767
事父	-9.09812
昔	-9.09997
稷	-9.10239
詔	-9.10325
於君	-9.10483
之行也	-9.10512
其道	-9.10522
其所因者本也	-9.10695
達	-9.10777
也注	-9.10784
則猶	-9.10996
古文孝經	-9.11001
國君	-9.11073
無有	-9.11198
王者	-9.11221
介	-9.11622
惡慢	-9.11663
不違	-9.11697
與之	-9.11829
越	-9.1186
交	-9.11922
錫	-9.11927
盈	-9.11965
弔	-9.12161
開	-9.12745
懷	-9.12747
行孝	-9.12808
素	-9.12931
牛	-9.12972
并	-9.13008
纂	-9.13019
之意也	-9.13045
熊	-9.13054
龍	-9.13075
清植	-9.13105
以順天下	-9.1314
而不可	-9.13151
滅	-9.13343
以其	-9.13363
毁	-9.13474
闕	-9.13694
運	-9.13714
飾	-9.13735
)○	-9.1377
謀	-9.13839
使之	-9.13905
也此	-9.13927
賜	-9.13961
范祖禹曰	-9.14188
族	-9.14407
號	-9.14495
則知	-9.14591
敷	-9.14673
敢	-9.1489
威	-9.14903
非孝也	-9.14942
覆	-9.15322
妄	-9.15376
炫	-9.1542
其言	-9.15457
門	-9.15763
於天	-9.16039
以孝	-9.16074
終始	-9.16076
汝	-9.16219
神明	-9.16356
雍	-9.16514
仁者	-9.16592
揚	-9.16778
行也	-9.16925
條	-9.17061
山	-9.17214
於是	-9.17248
溢	-9.17292
殊	-9.17431
也以	-9.17446
大學	-9.17482
飲食	-9.17537
孰	-9.17582
無不	-9.17605
后稷	-9.17758
也然	-9.17918
格	-9.17944
録	-9.18271
昔者	-9.18429
魏	-9.18481
躬	-9.18914
敗	-9.19174
者何也曰	-9.19285
火	-9.19314
金	-9.1932
察	-9.19328
故言	-9.1934
勤	-9.19352
務	-9.19626
休	-9.19676
强	-9.19778
於人	-9.19803
讀	-9.19898
懼	-9.20061
白	-9.2036
先王之	-9.20501
徃	-9.20602
塞	-9.20609
建	-9.20634
幾	-9.20636
賦	-9.20967
敘	-9.20983
顧	-9.21135
梁	-9.21142
博	-9.21206
祖考	-9.21229
工	-9.21271
儉	-9.21294
昧	-9.21333
是故非法不言非道不行	-9.21422
昔者周公郊祀后稷以配天	-9.21438
子曰昔者明王	-9.21445
不為	-9.21474
垂	-9.21665
不敢毁傷	-9.21688
當時	-9.21746
之事也	-9.21875
者言	-9.22197
隱	-9.22285
必有尊也言有父也必有先也言有兄也	-9.22305
此經	-9.22506
才	-9.22546
面	-9.22548
皆有	-9.22585
如此則	-9.22693
竟	-9.22727
聴	-9.22875
履	-9.2302
擇	-9.23216
不失	-9.23292
三代	-9.23311
譲	-9.23541
覺	-9.2357
誦	-9.23727
恭敬	-9.23744
遠	-9.23798
統	-9.24108
迎	-9.24117
智	-9.24182
不敬	-9.24263
痛	-9.24403
事父母	-9.24679
嚴父	-9.24691
持	-9.24791
是亦	-9.2489
君之	-9.24899
華	-9.25039
天道	-9.25045
仲	-9.25106
還	-9.25133
薦	-9.25187
勿	-9.252
不必	-9.25215
三者	-9.25221
則其	-9.25271
徳行	-9.25405
山川	-9.25478
采	-9.2548
惠	-9.25738
之為	-9.25862
人君	-9.26048
識	-9.2607
天地之	-9.26082
増	-9.26171
室	-9.26365
言其	-9.26468
事父孝故事天明事母孝故事地察	-9.26484
没	-9.26592
朱氏	-9.26891
易曰	-9.27261
切	-9.27753
夫人	-9.279
不過	-9.27902
君臣之義	-9.28158
習	-9.28161
潔	-9.2833
也詩曰	-9.28434
責	-9.28528
競	-9.28794
曾	-9.28924
拜	-9.28971
強	-9.29128
民之	-9.29135
酒	-9.29379
耕	-9.29393
諱	-9.29393
天之	-9.29491
三年之喪	-9.29496
輯	-9.29589
坎	-9.29683
犯	-9.2969
兄弟	-9.29774
遜	-9.3016
魚	-9.30303
専	-9.30321
黄	-9.30354
衡	-9.3039
羊	-9.30398
育	-9.30425
啟	-9.30457
詩云自西自東自南自北無思不服	-9.30464
革	-9.30474
雲	-9.30485
昀	-9.30493
口無擇言身無擇行	-9.30509
收	-9.3051
言滿天下無口過行滿天下無怨惡	-9.30513
夫然故生則親安之祭則鬼享之	-9.30516
聖人因嚴以教敬因親以教愛	-9.30529
被	-9.30625
著於	-9.30628
而猶	-9.30797
棺	-9.30898
所以教	-9.30982
鄉	-9.30988
上帝	-9.31007
諸儒	-9.31046
户	-9.31066
專	-9.31253
職	-9.31255
之内	-9.31427
舎	-9.31466
之至也	-9.31592
審	-9.31656
縣	-9.31737
威儀	-9.31809
之上	-9.3184
心乎愛矣遐不謂矣中心藏之何日忘之	-9.31901
子男	-9.32014
其事	-9.32018
恒	-9.32386
遇	-9.3241
愈	-9.32494
孝之	-9.32725
敬者	-9.32789
又有	-9.32933
之人	-9.33036
四者	-9.3305
也謂	-9.33081
士民	-9.33101
甚矣	-9.33123
博士	-9.33239
是以天下和平災害不生禍亂不作	-9.33276
好惡	-9.33433
日月	-9.3344
勞	-9.33456
篤	-9.33459
朋友	-9.33622
必先	-9.33924
亦不	-9.33938
之文	-9.33945
人心	-9.34127
故云	-9.34375
不以	-9.3445
子曰五刑之屬三千而罪莫大於不孝	-9.34631
隂陽	-9.34721
注同	-9.34749
私	-9.34781
事也	-9.3486
親親	-9.34933
車	-9.34979
之則	-9.35157
親之	-9.35194
故母取其愛而君取其敬兼之者父也	-9.35252
有司	-9.35561
而行	-9.35584
后	-9.35598
言行	-9.35637
失其	-9.35826
望	-9.35829
靡	-9.35997
也不	-9.36014
立身行道	-9.3616
千	-9.3631
可謂	-9.3632
大夫士	-9.36435
一日	-9.3646
者謂之	-9.36537
最	-9.36567
律	-9.36853
忠臣	-9.37115
升	-9.37269
(○	-9.37379
繼	-9.37477
不順	-9.37481
孔傳	-9.37483
其心	-9.37545
貢	-9.37771
之理	-9.37895
聖賢	-9.37913
此皆	-9.37967
龜	-9.38165
喪祭	-9.38247
天地之經而民是則之	-9.38296
包	-9.38347
教之	-9.3844
近於	-9.38445
造	-9.38611
其義	-9.38699
知其	-9.38753
怨惡	-9.38779
父子	-9.3883
其志	-9.38832
恵	-9.38964
扶	-9.3901
也而	-9.39066
者亦	-9.39267
穀	-9.39325
㡬	-9.39354
行不	-9.39389
本也	-9.39507
宗祀文王於明堂以配上帝	-9.39511
朱	-9.39513
則皆	-9.39516
親愛	-9.39516
隠	-9.39616
歎	-9.39677
膚	-9.39783
倫	-9.39983
於孝	-9.40036
詩云赫赫師尹民具爾瞻	-9.40143
鄭𤣥	-9.40191
病	-9.4021
列國	-9.40233
齒	-9.40263
居處	-9.40279
示之以好惡而民知禁	-9.40281
掌	-9.40306
秉	-9.40404
本盡矣死生之義備矣孝子之事親終矣	-9.40417
驕溢	-9.40434
!	-9.40443
夫孝始於事親中於事君終於立身	-9.40452
非先王之法服不敢服	-9.40464
川	-9.40469
鼎	-9.40498
故得萬國之懽心以事其先王	-9.40505
散	-9.40506
管	-9.40507
故親生之膝下以養父母日嚴	-9.40554
綱	-9.40562
之外	-9.40622
畧	-9.40742
寒	-9.40753
干	-9.40815
受命	-9.40828
使人	-9.40829
有虞氏	-9.40861
不言	-9.40877
墨	-9.40961
無私	-9.41058
故聖人	-9.41103
幼	-9.41283
仲尼	-9.41454
逹	-9.41504
者必	-9.41557
古者	-9.41564
孝莫大於嚴父	-9.41622
恱	-9.41719
滅性	-9.41771
舊本	-9.41883
負	-9.41921
道之	-9.41967
未能	-9.4199
天子之	-9.42008
妻子	-9.42094
慢	-9.42108
悖	-9.42188
八十	-9.42477
未嘗	-9.42643
故得	-9.42808
錯	-9.42949
竊	-9.43028
也凡	-9.43038
妻	-9.43132
行下孟反	-9.43137
不欲	-9.43225
講	-9.43269
根	-9.43294
故明王之以孝治天下也如此	-9.43327
則人	-9.43333
諸侯之	-9.43453
誤	-9.43641
謙	-9.43641
哭	-9.43704
一卷	-9.43787
資於事父以事君而敬同	-9.4381
聖王	-9.43868
子曰昔者明王之以孝治天下也	-9.43897
之學	-9.43919
泰	-9.44014
抑	-9.44154
配天	-9.44399
無所不	-9.44758
綏	-9.44802
棄	-9.44814
衣服	-9.44847
稽	-9.44887
以事	-9.44952
勉	-9.4502
念	-9.45273
夷	-9.45281
而能	-9.45313
不相	-9.45429
鬼	-9.45472
他	-9.45474
例	-9.45615
受之	-9.4564
敬其兄則弟	-9.45643
凶	-9.45651
莫不	-9.45657
豈不	-9.45721
引詩	-9.45805
則民	-9.45924
財	-9.46135
二字	-9.46147
積	-9.46237
劉	-9.46243
然且	-9.46257
仁也	-9.46357
增	-9.46637
生則	-9.46657
殷人	-9.46888
兆	-9.46904
况	-9.46943
稍	-9.46951
注云	-9.47098
之是	-9.47196
漸	-9.47273
甫刑	-9.4736
詩云淑人君子其儀不忒	-9.47413
幽	-9.47495
武王	-9.47509
義者	-9.47678
莊	-9.47746
宰	-9.47806
聖人之教不肅而成其政不嚴而治	-9.47962
有餘	-9.48141
百官	-9.48317
貞	-9.48395
窮	-9.48522
則猶之	-9.48849
父母之	-9.48987
撰	-9.49001
孔安國	-9.49065
虚	-9.49069
海	-9.49189
哭不偯	-9.49194
者是	-9.49329
畢	-9.49378
先王見教之可以化民也	-9.49408
不善	-9.49408
杖	-9.49552
嘉	-9.496
味	-9.49617
孝子之	-9.49656
歌	-9.49749
愛親	-9.49869
形	-9.49992
也案	-9.50035
不義	-9.50162
澤	-9.50203
諡	-9.50227
許	-9.50253
而下	-9.5026
仍	-9.50351
十二	-9.50356
疎	-9.50376
性也	-9.5046
殯	-9.50505
選	-9.50546
也孟子曰	-9.50633
永	-9.50674
贊	-9.5071
澄	-9.50715
其親也	-9.50725
始於	-9.50771
資於事父以事母而愛同	-9.50784
徧	-9.50792
致其	-9.50915
必以	-9.50969
去聲	-9.51027
以順	-9.51032
都	-9.51069
朝廷	-9.5119
豫	-9.51247
喻	-9.51268
而行之	-9.51302
計	-9.51338
創	-9.51401
箴	-9.51406
叔	-9.51437
畏	-9.51449
究	-9.51467
乖	-9.51468
江	-9.51473
標	-9.5149
劓	-9.515
正義曰此依鄭注也	-9.51503
徵	-9.51513
簠簋	-9.51529
歴	-9.51558
事天	-9.51559
甘	-9.51561
夏后氏	-9.51582
玉	-9.51613
言夫	-9.51624
踈	-9.51639
君子則不然	-9.51749
偏	-9.51761
皆是	-9.51909
為人子者	-9.52003
斂	-9.52108
斬衰	-9.52182
五刑	-9.52392
宋人	-9.52406
一章	-9.52444
尊嚴	-9.52463
本於	-9.5251
畜	-9.52607
焉見	-9.52747
文王之	-9.5283
嚴父莫大於配天則周公其人也	-9.52859
敬也	-9.52904
送	-9.52924
生而	-9.5295
循	-9.52963
者何也	-9.52967
之與	-9.53056
教化	-9.53113
鄭氏	-9.53271
萬邦	-9.53296
言思可道行思可樂	-9.53365
以敬	-9.53609
也又云	-9.53616
弟子	-9.53889
南郊	-9.53907
此章言	-9.53909
否	-9.53954
之位	-9.53956
七十	-9.53973
宗廟致敬鬼神著矣	-9.54063
從之	-9.54104
舞	-9.54113
則以	-9.54179
之辭	-9.54311
拂	-9.54423
丘	-9.54496
有功	-9.54582
助	-9.54584
正義曰夫子述	-9.546
後人	-9.54638
費	-9.54937
存焉	-9.54995
文公	-9.55174
之孝	-9.55273
故君子	-9.55379
之始也	-9.55533
再	-9.55652
免	-9.55728
路	-9.55761
商	-9.55941
無道	-9.56079
冕	-9.56172
得其	-9.56185
墓	-9.56192
墨氏	-9.56456
有不	-9.56478
推之	-9.56573
猶有	-9.56605
國之	-9.56607
詩云愷悌君子民之父母	-9.56701
朝夕	-9.56804
以治	-9.56882
禁	-9.56912
要君	-9.56936
其上	-9.57019
況	-9.57021
慕	-9.57188
愛敬之	-9.57311
經義	-9.57316
欽定四庫全書經部六	-9.57535
上之	-9.57826
經傳	-9.5787
人臣	-9.58283
而敬	-9.58329
用之	-9.58573
罔	-9.58595
是謂	-9.58599
舍	-9.58772
壇	-9.59025
人也	-9.59053
於親	-9.59086
天性	-9.5914
於下	-9.59192
詞	-9.59305
彰	-9.59399
防	-9.5941
兵	-9.59457
賞	-9.59466
爲孝	-9.59649
沒	-9.59758
不争	-9.59766
下無	-9.59808
有以	-9.59843
為天子	-9.59852
姓	-9.59853
考證欽定四庫全書孝經注疏卷	-9.59949
因地之利	-9.59982
君父	-9.59994
則無	-9.60049
不生	-9.60248
為臣	-9.60264
至徳要道	-9.60359
下文	-9.60512
者其	-9.60552
播	-9.60644
士有	-9.6072
身行道揚名於後世以顯父母孝之終也	-9.60755
人則	-9.60763
毁傷	-9.608
聚	-9.60819
祿位	-9.60829
隆	-9.61016
勸	-9.61095
而成	-9.6121
曰君子之教以孝也非家至而日見之也	-9.61223
者此	-9.61246
可知也	-9.61312
照	-9.61331
博愛	-9.61433
則為	-9.61498
權	-9.61696
大雅	-9.61704
以臨其民是以其民畏而愛之則而象之	-9.61713
古文無也字	-9.61731
親者	-9.61744
有三	-9.61764
邦	-9.6182
之屬	-9.61974
終於	-9.62019
盡忠	-9.62104
無怨	-9.6212
不合	-9.62297
有所	-9.62344
夫孝	-9.62387
危也	-9.62392
公侯伯子男	-9.62436
編	-9.62448
飬	-9.62471
殆	-9.62473
頌	-9.62591
辛	-9.62603
臣下	-9.62604
卷	-9.62667
頗	-9.62718
樂音洛	-9.62871
慶	-9.62879
文也	-9.62957
宣	-9.62965
惜	-9.62977
濫	-9.63013
𦵏	-9.63053
子夏	-9.63181
減	-9.63316
每	-9.63327
右經第	-9.63353
貧	-9.63354
乾	-9.63372
𤣥宗	-9.63396
災	-9.63444
譽	-9.63453
立教	-9.63483
侮	-9.635
於國	-9.63504
彌	-9.63515
四時之	-9.63516
帥	-9.63568
誅	-9.63676
徹	-9.63755
宅	-9.63841
和氣	-9.63842
量	-9.63851
見其	-9.63857
斥	-9.63868
討	-9.63894
湯	-9.63902
遭	-9.63927
衛	-9.63928
轉	-9.63933
效	-9.63936
厯	-9.63989
股肱	-9.63998
苴	-9.6401
孝經類提要	-9.64017
安親	-9.64026
藥	-9.6403
石	-9.64047
月恭校上	-9.64052
道徳	-9.64055
酬	-9.6406
宏	-9.64063
榖	-9.64065
生事愛敬死事哀戚生民	-9.64076
獄	-9.64079
淫	-9.64079
邇	-9.64079
故以孝事君則忠以敬事	-9.64084
為善	-9.64084
啓	-9.64085
陵	-9.64096
匪	-9.64098
製	-9.641
猷	-9.64111
移風易俗莫善於樂安上治民莫善於禮	-9.64111
滋	-9.64121
蕩	-9.64126
經一百	-9.64138
與人	-9.64144
詩云有覺徳行四國順之	-9.64149
呼	-9.64154
禮者	-9.64163
􁀥	-9.64164
不忍	-9.64203
惑	-9.64206
以上	-9.64232
角	-9.64235
:『	-9.64258
鄭注云	-9.64263
雨	-9.64265
子曰事君	-9.64577
咎	-9.64686
有如此者	-9.64704
委	-9.64888
朱子刋誤本	-9.64906
郊祀	-9.64941
首章	-9.64964
明察	-9.64979
矣然則	-9.64994
往	-9.65005
父子之道	-9.65061
光曰	-9.6518
以教	-9.65314
三者不除雖日用三牲之養猶為不孝也	-9.65623
之至	-9.6573
父母生之續莫大焉君親臨之厚莫重焉	-9.65851
柔	-9.6586
先儒	-9.65907
仁孝	-9.65976
廣大	-9.66037
子路	-9.66249
諫争	-9.66316
上古	-9.66358
王之	-9.66403
善也	-9.66409
言不	-9.66414
是以行成於内而名立於後世矣	-9.66424
章首	-9.66503
倍	-9.66676
救	-9.66703
天命	-9.66819
召	-9.6686
不食	-9.66889
是為	-9.67088
未有不	-9.67115
為本	-9.67128
子言之	-9.67245
之而	-9.67274
禮者敬而已矣故敬其父則子	-9.6732
槨	-9.67321
洗	-9.67355
致敬	-9.67381
饋	-9.67425
之士	-9.67461
怠	-9.67462
太師	-9.67628
之下	-9.67668
雜	-9.67904
追	-9.67929
有二	-9.67938
貌	-9.67963
子思	-9.6807
居上	-9.68094
諫諍	-9.68114
七人	-9.6813
容止可觀進退可度	-9.68153
弼	-9.68158
取之	-9.68158
順也	-9.68242
而立	-9.68366
夫子之	-9.68467
立於	-9.68581
差	-9.68656
其文	-9.68674
詩云夙興夜寐無忝爾所生	-9.68721
冕服	-9.68928
章申言	-9.68995
命之	-9.6901
中心	-9.69016
此三者	-9.69077
飲	-9.69084
匡	-9.69085
分章	-9.6909
為士	-9.6918
是非	-9.69193
非至徳其孰能順民如此其大者乎	-9.69873
要君者無上非聖	-9.69909
有五	-9.69941
源	-9.69985
明王之	-9.70059
子云	-9.70071
齊衰	-9.70073
者不	-9.70137
自為	-9.70139
機	-9.7022
耻	-9.70285
教以孝所以敬天下之為人父者	-9.7029
不祭	-9.70327
也君子	-9.70338
其為	-9.70533
一篇	-9.70552
之類	-9.70589
理也	-9.70619
無所不通	-9.70637
為國	-9.70637
有君	-9.70687
於其	-9.70964
臣之	-9.71046
所言	-9.71105
恕	-9.71125
政教	-9.71286
教也	-9.71377
不安	-9.71399
輔	-9.71476
也字	-9.71544
國家	-9.71584
和順	-9.71676
吕刑	-9.71733
出于	-9.71739
朱子曰此	-9.72214
者釋	-9.72227
耶	-9.72246
各有	-9.72254
順之	-9.72323
幸	-9.72374
和睦無怨	-9.724
其行	-9.72409
然其	-9.72465
亦皆	-9.72482
之罪	-9.72515
之說	-9.72516
毋	-9.72631
諍	-9.72667
出入	-9.72855
不毁	-9.7288
其驗	-9.72899
跡	-9.72936
受其	-9.72976
男	-9.73255
曾子曰	-9.73264
皆同	-9.73433
閒	-9.73448
用其	-9.73475
則無不	-9.73652
願	-9.73709
日月星辰	-9.73806
之志	-9.73825
以來	-9.73897
圖	-9.74
朕	-9.74055
随	-9.74106
父子之	-9.74167
滿	-9.74216
讀者	-9.74387
輩	-9.74483
於事	-9.74575
人主	-9.74578
厲	-9.74581
閒居	-9.74584
大徳	-9.74612
膝下	-9.74806
十八章	-9.7491
於外	-9.74912
和睦	-9.75021
此乃	-9.7507
未盡	-9.75222
細	-9.75268
仁義禮智	-9.75271
亦無	-9.75298
者必有	-9.75309
三年之䘮	-9.75636
其父	-9.75651
畔	-9.75661
僭	-9.75756
馬光曰	-9.75804
中庸	-9.75831
互	-9.7584
者五	-9.75881
甫	-9.75897
子弟	-9.75932
敏	-9.75932
此一節釋	-9.75937
禰	-9.75962
為忠	-9.7606
而親	-9.76101
絀	-9.76299
獲	-9.7636
順天下	-9.76418
昏	-9.76427
堯	-9.76699
身體	-9.76709
乆	-9.76729
襲	-9.76914
不從	-9.76983
錄	-9.77088
奉養	-9.77108
古今文	-9.77269
祭器	-9.77284
題	-9.7738
塗	-9.77525
子婦	-9.77617
袒	-9.77643
哀慼	-9.77648
不見	-9.77648
其位	-9.77653
生也	-9.77759
范祖禹	-9.7779
遵	-9.77808
曲	-9.77816
壹	-9.7782
行而	-9.7784
公卿	-9.77852
五者	-9.77877
遲	-9.77913
顔	-9.78017
憲	-9.78021
張	-9.78023
放	-9.78051
忿	-9.78086
辟雍	-9.78099
謬	-9.7811
醴	-9.7818
尺	-9.78188
暢	-9.78192
淺	-9.78197
昌	-9.78199
贄	-9.782
客	-9.78207
妾	-9.78216
偃	-9.78238
桑	-9.78251
逃	-9.78252
闡	-9.78256
血	-9.78269
府	-9.7827
新	-9.78278
李	-9.78286
輒	-9.78301
卦	-9.78311
具載	-9.78316
水旱	-9.78316
規	-9.78316
恤	-9.7832
趣	-9.78328
折	-9.78332
䇿	-9.78351
屨	-9.78354
長則順忠順不失以事其上然後能保其	-9.78359
談	-9.78367
詩云戰戰兢兢如臨深淵如履薄冰	-9.7837
會	-9.78372
貧賤	-9.78372
其本	-9.78382
夙夜	-9.78386
禽獸	-9.78387
士章第五	-9.78401
馳	-9.78401
治國者不敢侮於鰥寡而況於士民乎	-9.78404
移風易俗莫善於樂	-9.78413
滌	-9.78416
攸	-9.78417
悟	-9.78417
恫	-9.78421
;	-9.78432
不敢遺小國之臣而況於公侯伯子男乎	-9.78432
科	-9.78451
童	-9.78461
寄	-9.78462
人者無法非孝者無親此大亂之道也	-9.78468
以敬事長則順	-9.78469
拯	-9.78475
紀孝行章第十	-9.7848
則當	-9.78514
既葬	-9.78537
不孝之罪	-9.78537
北面	-9.78556
。』」	-9.78556
於上	-9.78586
禮則	-9.78658
君德	-9.7867
不愛	-9.78706
為一章	-9.7871
是故君子	-9.7875
所不	-9.78766
雖不	-9.78934
乃命	-9.78959
也按	-9.78995
也天子	-9.79008
故謂之	-9.79142
驗	-9.79143
行去聲	-9.79154
舊文	-9.79191
右經第十	-9.79207
身體髮膚受之父母不敢毁傷孝之始也	-9.79211
子曰愛親者不敢惡於人	-9.79225
從父之令	-9.79375
儀禮	-9.79386
胡	-9.79388
理之	-9.79388
其實	-9.79404
雅	-9.79444
固非	-9.79453
不敢遺小國之臣而况於公侯伯子男乎	-9.79694
也是故	-9.79715
也君	-9.79783
禮樂之	-9.79784
互相	-9.79833
湏	-9.79863
荀昶	-9.80006
學問	-9.80051
小雅	-9.80169
民之父母	-9.80203
事兄	-9.80219
其徳	-9.80241
誰	-9.80315
周公之	-9.80326
通於神明	-9.80509
無它	-9.80741
災害	-9.80799
五章	-9.81037
之業	-9.81078
惟其	-9.81114
和平	-9.81415
言而	-9.81538
知之	-9.81716
以生	-9.81797
非禮也	-9.81843
有道	-9.81918
之君	-9.81947
刑罰	-9.81958
民人	-9.82021
祇	-9.82164
于此	-9.82211
君命	-9.82222
行事	-9.82344
而爲	-9.82358
夫婦	-9.82445
亡也	-9.82454
以齒	-9.82462
不誠	-9.82501
其子	-9.82694
亦猶	-9.82703
而入	-9.82766
有異	-9.8294
圜丘	-9.8298
而為	-9.83099
盜	-9.83184
與夫	-9.83237
文章	-9.8328
一順	-9.83286
至此	-9.83399
十七	-9.83504
爲義	-9.83544
未之	-9.83679
里	-9.837
曰云	-9.83813
徳義可尊作事可法	-9.83845
一時	-9.8395
絲	-9.83997
人民	-9.84029
謂其	-9.84105
父兄	-9.84158
天子諸侯	-9.84215
/○	-9.84319
也禮	-9.84336
所云	-9.8437
盡也	-9.84611
慈愛	-9.84653
翼	-9.84811
郎	-9.8488
言不文	-9.84935
二者	-9.84956
論語云	-9.8497
之地	-9.85041
不容	-9.85135
上也	-9.8532
邑	-9.85331
靈	-9.85487
善而	-9.85525
敬之至也	-9.85819
人子	-9.8582
時也	-9.85901
昊天	-9.85933
上章	-9.85947
勢	-9.86273
禮義	-9.86352
是以其教不肅而成其政不嚴而治	-9.8637
皆以	-9.86411
不爭	-9.8647
夫非	-9.86595
祗	-9.86599
以事其親	-9.86625
子游	-9.8666
有其	-9.86664
牖	-9.86678
措	-9.86691
道者	-9.86748
庭	-9.86776
可見	-9.87046
以見	-9.87168
而尊	-9.87195
敬愛	-9.87343
術	-9.874
長幼	-9.87428
人皆	-9.87442
因心	-9.87455
不孝也	-9.87488
之誼	-9.87493
故自天子至於庶人	-9.87561
孝無終始而患不及者未之有也	-9.87593
二章	-9.87676
宗廟致敬	-9.87761
刪去	-9.87854
逮	-9.87913
以致	-9.88022
為君	-9.88099
富貴不離其身然後能保其社稷而和其	-9.88353
亦可謂	-9.88495
其兄	-9.88553
問於	-9.88563
而退	-9.88683
俾	-9.8874
為大夫	-9.8877
而不知	-9.8887
以正	-9.89011
不仁	-9.89012
上有	-9.89014
改易	-9.89131
仁人孝子	-9.89363
非先王之法言不敢道	-9.89451
▁亡音無	-9.89732
皇侃云	-9.89822
由是	-9.899
故于	-9.89985
者此依鄭注也	-9.9004
寢	-9.90065
太傅	-9.90092
擗	-9.90186
大義	-9.90199
行於	-9.90376
此注	-9.90422
善名	-9.90431
慤	-9.90547
練	-9.90696
士有争友則身不離於令名	-9.90748
斬	-9.90758
不修	-9.90762
未之有	-9.90774
王季	-9.90782
道而	-9.90792
登	-9.90811
孤	-9.9093
三公	-9.91048
以次	-9.91214
笑	-9.91267
曽子曰君子	-9.91341
身之	-9.91359
夜	-9.9139
之教	-9.91482
以至	-9.9177
祧	-9.91898
寸	-9.91963
傳同	-9.91989
髪	-9.92014
不如	-9.92126
可知	-9.92252
門之	-9.92366
繹	-9.9239
踊	-9.92423
民無	-9.92426
下之	-9.92445
曾子曰君子	-9.92466
而愛	-9.92471
身行	-9.92741
賢者	-9.92769
而言之	-9.92785
於心	-9.92908
祭天	-9.92912
不疑	-9.93086
為人	-9.932
人以	-9.93253
從事	-9.93268
順而	-9.9327
臣五人雖無道不失其國大夫有	-9.93283
大臣	-9.93461
者案	-9.93478
於地	-9.93515
完	-9.93545
大人	-9.93591
割	-9.93615
生焉	-9.93742
愚	-9.93776
一獻	-9.93795
城	-9.93807
尊親	-9.93846
較	-9.93866
却	-9.93899
大功	-9.93985
神明之	-9.93998
帝王	-9.93999
賈	-9.9406
愛人	-9.94078
虧	-9.94172
養羊尚反	-9.94232
法服	-9.94236
他人	-9.94316
祝	-9.94329
今不取也	-9.94338
不存	-9.94351
供	-9.94357
不和	-9.94389
椁	-9.94395
伏	-9.94407
祥	-9.94462
宅兆	-9.94544
唐𤣥宗	-9.94578
隆殺	-9.94648
上文	-9.94651
三王	-9.94661
內	-9.94695
備也	-9.94728
之情	-9.94732
墜	-9.94762
圍	-9.94793
吕	-9.94809
離力智反	-9.94824
矜	-9.94829
短	-9.94829
步	-9.94848
累	-9.94852
膏	-9.94865
荘	-9.94874
別	-9.94881
括	-9.94882
齒胄	-9.94885
賊	-9.94902
泣	-9.9491
簋	-9.94927
禾	-9.94932
征	-9.94939
懸	-9.94941
墻	-9.94943
僅	-9.94947
癸	-9.94952
悲	-9.94955
陰陽	-9.94957
草木	-9.9496
曾子曰若夫慈愛恭敬安親揚名	-9.94961
楚	-9.94966
河	-9.94966
尹	-9.94967
狩	-9.9497
君子恥之	-9.9497
齋	-9.94974
谷	-9.94988
羞	-9.94988
愛而	-9.94991
亦有	-9.94997
眞	-9.95001
陶	-9.95003
戎	-9.95004
訛	-9.95009
烈	-9.95013
虎	-9.95014
半	-9.95014
優	-9.95023
子言之儒有	-9.95023
殷仲文	-9.95023
麗	-9.95032
犧	-9.95034
不能自	-9.95036
殖	-9.95036
為之宗廟以鬼享之春秋祭祀以時思之	-9.95037
蒙	-9.95037
將順其美	-9.95041
柩	-9.95045
逸	-9.95048
决	-9.9505
稼穡	-9.95051
伊	-9.95057
刺	-9.95059
奥	-9.95059
軍	-9.95061
復坐吾語女	-9.95065
而不敢	-9.95065
故得百姓之懽心以事其先君	-9.95065
遐	-9.95067
竹	-9.95067
怪	-9.95067
戸	-9.95076
棘	-9.95076
敬讓	-9.95077
汚	-9.95085
廵	-9.95094
平居	-9.95107
聖治章第九	-9.95116
妃	-9.95117
古文孝經孔氏傳	-9.95143
洽	-9.95156
父子之道天性也君臣之義也	-9.95177
有限	-9.95203
服貢	-9.95217
曾子侍	-9.95218
東西	-9.95225
復坐	-9.95227
子者	-9.95237
非謂	-9.95245
四夷	-9.95286
親戚	-9.95343
進退	-9.95362
靜	-9.95386
之子	-9.95395
以供	-9.95417
穆王	-9.95492
不失其	-9.95526
事母	-9.95614
煩	-9.95674
宗族	-9.95719
忠信	-9.9573
而有	-9.95734
之政	-9.9577
使其	-9.95772
之有乎	-9.95792
六經	-9.95815
以告	-9.9583
孝而	-9.95879
剕	-9.95891
宫室	-9.95926
爲敎	-9.96031
惡烏路反	-9.96047
僭上	-9.96065
於身	-9.96142
桀	-9.96204
奏	-9.96251
修身	-9.96257
之故	-9.96336
盡於	-9.96341
謂天子	-9.96356
弁	-9.96418
乘	-9.9644
詩書	-9.96449
萬民	-9.96517
於内	-9.96615
喪不過三年示民有終也	-9.96634
敬以	-9.96669
述作	-9.9677
治之	-9.96781
之美	-9.96813
居家	-9.96818
逺矣	-9.9684
五行	-9.96857
效之	-9.96948
不忘	-9.9697
所以為	-9.97037
有天下者	-9.97052
至誠	-9.97059
經常也	-9.97158
忠孝	-9.97244
者易	-9.97282
言必	-9.97292
詩云夙夜匪懈以事一人	-9.97298
生事	-9.97317
教之所由生	-9.97393
之極也	-9.97397
孔安國云	-9.97476
則亦曰	-9.9749
其財	-9.9759
祭也	-9.97656
事親之孝	-9.97672
是故先之以博愛而民莫遺其親	-9.97699
尊敬	-9.97712
曾參	-9.97786
子曰君子之事親孝故忠可移於君	-9.97966
勇	-9.97981
化行	-9.98009
可不慎	-9.98039
天地之情	-9.98105
事則	-9.98112
禮之	-9.98248
則下	-9.98353
則國	-9.9842
則思	-9.98448
不加	-9.9848
徳不敬其親而敬他人者謂之悖禮	-9.98529
其所以	-9.98675
謂不	-9.9869
存焉耳	-9.98704
主於	-9.98794
其君	-9.98802
檢	-9.98833
孝治章第八	-9.9886
曰孝	-9.98888
爵禄	-9.98938
四寸	-9.98953
之尊	-9.9908
於後	-9.99129
常也	-9.9913
君臣之	-9.99212
庻人	-9.99224
而後行	-9.99235
其家	-9.99327
百家	-9.99343
盡其	-9.99357
亦曰	-9.99358
悅	-9.99368
而生	-9.99394
劉向	-9.99399
養之	-9.99417
之實	-9.9947
之日	-9.99478
諸家	-9.99482
喪服	-9.99519
諸侯有爭臣五人	-9.99625
則亂	-9.99725
仲山甫	-9.99738
左傳曰	-9.9974
非其	-9.99783
之語	-9.99809
貴也	-9.99903
▁行下孟反	-9.99982
荅	-10.0004
子貢曰	-10.0004
而外	-10.0006
為諸侯	-10.0007
好是	-10.0017
罰	-10.0018
皆得	-10.0022
此三	-10.0027
矣然	-10.0031
孔氏	-10.0034
用天之道	-10.0036
太學	-10.0037
養其父母	-10.0045
曰孝經	-10.0049
注解	-10.0049
匡救	-10.0051
人倫之	-10.0061
事親者	-10.0062
下有	-10.0073
猶之	-10.0075
居家理故治可移於官	-10.0077
有終	-10.0087
孝經序	-10.0095
果	-10.0107
教民禮順莫善於弟	-10.011
子曰教民親愛莫善於孝	-10.011
詩曰維	-10.0117
固有	-10.0118
之徒	-10.0123
右第	-10.0129
矣故曰	-10.0135
所自	-10.0149
傅	-10.0149
進思盡忠退思補過	-10.0153
要道也	-10.0163
長丁丈反	-10.0164
以道	-10.0166
乎且	-10.0169
者盖	-10.0172
三日而食教民無以死傷生	-10.0173
為禮	-10.0179
之斯	-10.0183
衆人	-10.0184
不慢	-10.0187
吏	-10.0192
之利	-10.0195
者至	-10.0212
父母有	-10.0223
食之	-10.0227
尊父	-10.023
鄭云	-10.0241
豈有	-10.0269
五十	-10.027
戰	-10.0273
鄭𤣥云	-10.0298
四曰	-10.0302
有所不	-10.0308
臣妾	-10.0314
鳥	-10.0323
事其親	-10.0342
五者備矣然後能事親	-10.0346
進而	-10.0346
三千	-10.0352
公侯	-10.0352
有成	-10.0353
法則	-10.0358
是皆	-10.0361
之禮也	-10.0362
為人子	-10.0363
三者備矣然後能守其宗廟	-10.0364
導之以禮樂而民和睦	-10.0382
於郊	-10.0385
劉炫云	-10.0386
聖人之教	-10.0386
也嚴	-10.0388
不與	-10.0398
閨門	-10.04
者何	-10.0401
高而不危	-10.0404
國而	-10.0404
聼	-10.0409
親則	-10.041
苟有	-10.0411
臣子	-10.0423
不卜	-10.0429
則非	-10.0429
仲尼居	-10.0429
日本	-10.0446
矣夫	-10.0458
孟	-10.0461
二曰	-10.0493
奪	-10.0493
補	-10.0499
備矣	-10.05
故能	-10.0502
而見	-10.0508
堯舜	-10.0509
為世子	-10.0519
發明	-10.052
出自	-10.0525
人所	-10.0526
行此	-10.0526
傳之	-10.0529
因其	-10.053
故知	-10.0534
其妻子	-10.0537
鳥獸	-10.0545
歳	-10.0549
徳而	-10.055
於父	-10.0558
而從	-10.056
地道	-10.0571
定本	-10.0573
其德	-10.0576
喪則致其哀	-10.058
天子有	-10.0581
隨	-10.059
行矣	-10.0593
至孝	-10.0595
洛	-10.0597
修其	-10.0598
善事	-10.0606
恐其	-10.0606
損	-10.0611
必其	-10.0622
矣詩曰	-10.0637
其忠	-10.0639
卿士	-10.0648
獸	-10.066
歸之	-10.0665
壞	-10.0669
男女	-10.0683
莫如	-10.07
之習	-10.0705
藝文志	-10.0706
貎	-10.0709
人之所	-10.071
關	-10.0714
中於事君	-10.0715
老幼	-10.0729
星	-10.0742
子夏曰	-10.0747
鼓	-10.0751
四海之内	-10.0752
偯	-10.0754
百行	-10.0761
際	-10.0789
不讓	-10.0792
門人	-10.0814
如此也	-10.0816
位而	-10.0817
而先	-10.0819
伸	-10.084
愷	-10.0859
危身	-10.0867
皆可	-10.0879
古文無	-10.0881
陸費墀欽定四庫全書	-10.0891
乎故	-10.0893
宗廟致敬不忘親也	-10.0898
引此	-10.09
乎此	-10.0915
以天下	-10.0922
古今	-10.0928
坐而	-10.0929
生之	-10.0935
九十	-10.0935
在上	-10.0945
資取也	-10.0946
悌也	-10.0948
其餘	-10.0953
之使	-10.0958
踰	-10.0958
以成	-10.0977
聖明	-10.0986
而歸	-10.0988
則天子	-10.0988
人不	-10.099
於魯	-10.0993
天地之經	-10.1021
夫子之言	-10.1031
致齊	-10.1038
子曰孝子之喪親	-10.1039
庶幾	-10.104
禮無容言不文服美不安聞樂不樂食	-10.1051
古文作	-10.1055
又有君臣之義	-10.1064
天地之性	-10.1069
人者	-10.107
行下	-10.1071
配上帝	-10.1073
居官	-10.1073
子曰閨門之内具禮矣乎	-10.1075
筮	-10.1082
中和	-10.1083
敬而	-10.1099
使民	-10.1101
也曰	-10.1103
者君	-10.1108
承上	-10.111
榮	-10.1113
第	-10.1117
學者	-10.112
諫爭	-10.1139
者此依孔傳也	-10.114
仁人	-10.1159
亦何	-10.1159
子曰君子之事親孝故忠可移於君事兄	-10.1166
君者	-10.1172
言也	-10.1174
此所以	-10.1174
聖人之道	-10.1177
本文	-10.1179
又以	-10.1183
容止	-10.1186
侯伯	-10.1199
昔者天子	-10.1202
非孝	-10.121
以和	-10.1213
死而	-10.1215
頼	-10.1215
之書	-10.1216
耳目	-10.1216
急	-10.1218
檀弓云	-10.1218
聘	-10.1236
下而	-10.1238
非先王之	-10.1242
不稱	-10.1248
以孝弟	-10.1255
不行	-10.1258
趙	-10.126
三曰	-10.1274
其禮	-10.1275
濟	-10.1277
赤	-10.1278
之極	-10.1278
悔	-10.1285
右第十	-10.1288
説音悦	-10.1288
不待	-10.129
慈恭	-10.1291
淑	-10.1299
愛敬之心	-10.13
十一	-10.1308
於日月	-10.1308
春秋祭祀以時思之	-10.1311
一曰	-10.1311
順者	-10.1312
教以臣所以敬天下之為人君者	-10.1325
裳	-10.133
禱	-10.1334
温	-10.1336
坊	-10.1337
瞻	-10.1338
夷齊	-10.1338
有常	-10.1341
祀之	-10.1342
成身	-10.1344
衾	-10.1345
身則	-10.1345
皇侃	-10.1346
治官	-10.1353
戀	-10.1353
故也	-10.1357
相承	-10.1357
粥	-10.1357
能養	-10.1366
之本	-10.1367
庶人章	-10.1371
經典	-10.1373
刪改	-10.1375
其大	-10.1378
子曰父子之道天性	-10.1381
野	-10.1382
非一	-10.1384
非為	-10.1386
廬	-10.1386
孝為	-10.1387
正義曰此言	-10.1389
忌	-10.139
忠順	-10.1393
道德	-10.1393
子曰夫孝天之經也地之義也民之行也	-10.1396
舅姑	-10.1399
樹	-10.14
懽	-10.1401
壊	-10.1402
止之	-10.1402
撫	-10.1409
各以	-10.1416
號泣	-10.1417
者與	-10.1418
庶人之孝	-10.1421
豐	-10.1422
余	-10.1423
餕	-10.1423
来	-10.1425
辟席	-10.1427
古文尚書	-10.1428
調	-10.1428
其間	-10.1429
尼	-10.1431
獻之	-10.1432
先王先公	-10.1433
亦然	-10.1435
以之而	-10.1436
淳	-10.1439
為先	-10.144
懲	-10.1444
坤	-10.1444
三才	-10.1444
羽	-10.1446
刻	-10.1447
能事親	-10.1449
如之何曰	-10.1449
鄰	-10.145
而止	-10.1451
而正之	-10.1452
不敢惡慢	-10.1452
毛詩	-10.1453
欺	-10.1457
郊社	-10.1459
論孝	-10.1461
夙興夜寐	-10.1463
釋詁文	-10.1466
愉	-10.1468
愧	-10.1469
徐	-10.1469
誓	-10.147
河間	-10.1471
刖	-10.1474
徒役	-10.1475
奇齡	-10.1476
烝	-10.1476
小功緦麻	-10.1477
邢昺	-10.1478
幣	-10.1478
辭則	-10.1481
驟	-10.1483
邁	-10.1485
冠昏	-10.1485
飽	-10.1485
几	-10.1485
旨	-10.1486
呂	-10.1487
房	-10.1487
殁	-10.1488
玩	-10.1489
諒	-10.1489
屋	-10.149
礿	-10.149
珍	-10.149
領	-10.149
羮	-10.1491
偽造	-10.1491
貨	-10.1491
嚮	-10.1492
融	-10.1493
則聞命矣敢問子從父之令可謂孝乎	-10.1493
春秋祭祀	-10.1494
豆	-10.1494
偶	-10.1494
倚	-10.1495
其義一也	-10.1495
諷	-10.1495
千萬人	-10.1495
範	-10.1495
植	-10.1495
佩	-10.1496
亾	-10.1496
殘	-10.1496
産	-10.1496
吾不信也	-10.1496
繩	-10.1497
採	-10.1497
期之喪	-10.1497
唐明皇御注陸德明音義宋郉昺疏	-10.1497
粱	-10.1498
師尹	-10.1498
兹	-10.1498
章句	-10.1498
通結上文	-10.1498
髪膚	-10.1498
絰	-10.1498
瞿	-10.1498
訟	-10.1499
傲	-10.1499
削	-10.1499
帝嚳	-10.15
臧	-10.15
匹	-10.15
故其	-10.15
廣至徳章第十三	-10.15
矇	-10.1501
故不肖者之	-10.1501
雉	-10.1501
佑	-10.1501
霸	-10.1501
天子章第二	-10.1501
子曰是何言與是何言與昔者天子有	-10.1502
舟	-10.1502
静	-10.1502
滿而不溢所以長守富	-10.1503
収	-10.1503
傾	-10.1503
甫刑云一人有慶兆民賴之	-10.1503
廷	-10.1503
治國者不敢侮於鰥寡而况	-10.1504
廣揚名章第十四	-10.1504
聞樂不樂	-10.1504
冉	-10.1504
唐㑹要	-10.1504
明黄道周撰	-10.1504
芳	-10.1504
安上治民莫善於禮	-10.1505
亢	-10.1505
分地之利	-10.1505
大雅云無念爾祖聿修厥徳	-10.1505
績	-10.1505
繅	-10.1505
譏	-10.1505
感應章第十六	-10.1505
周公制禮	-10.1506
張禹	-10.1506
南面	-10.1506
截	-10.1507
蔽	-10.1507
陳其簠簋而哀戚之	-10.1507
不敢慢	-10.1507
聿	-10.1507
卿大夫章第四	-10.1507
子曰先王有至徳要道	-10.1507
霜露	-10.1507
孝悌之至通於神明光於四海無所不通	-10.1507
而弟達乎	-10.1507
庶人章第六	-10.1507
營	-10.1507
為下而亂則刑在醜而爭則兵	-10.1508
制節謹度滿而不溢	-10.1508
顔淵	-10.1508
貫通	-10.1508
閨門之内	-10.1508
冩	-10.1508
竒	-10.1508
林	-10.1509
天地明察神明彰矣	-10.1509
穫	-10.1509
德不敬其親而敬他人者謂之悖禮	-10.1509
辠	-10.1509
事親者居上不驕為下不亂在醜不争	-10.151
跪	-10.151
亨	-10.151
諸侯章第三	-10.151
乙	-10.151
木也其牲以	-10.151
黙	-10.151
無體之禮	-10.151
故不愛其親而愛他人者謂之悖	-10.1511
萃	-10.1511
隕	-10.1511
三才章第七	-10.1511
巳	-10.1511
不忘親也	-10.1512
彛	-10.1512
元首	-10.1512
浮	-10.1512
境	-10.1512
此庶人之孝也	-10.1513
父有爭子則身不陷於不義	-10.1513
饑	-10.1514
病則致其憂	-10.1514
士有爭友則身不離於令名	-10.1514
轡	-10.1515
宻	-10.1516
哀公問	-10.1516
酌	-10.1517
内史	-10.1517
洪	-10.1517
速	-10.1517
五刑章第十一	-10.1517
比於	-10.1519
人之行莫大於孝	-10.1519
莫大乎	-10.1519
士以	-10.1522
致仕	-10.1522
服美不安	-10.1524
乞言	-10.1527
偪下	-10.1529
以示	-10.1529
▁説音悦	-10.1529
亦當	-10.1532
略	-10.1533
國風	-10.1534
為之棺槨衣衾而舉之陳其簠簋而哀	-10.1538
事上	-10.1538
兩家	-10.1549
從其	-10.155
君之尊	-10.155
粉米	-10.155
之喪	-10.1552
妙	-10.1555
之説	-10.1557
子曰不愛其親而愛他人者謂之悖	-10.1558
項君	-10.1559
則謂	-10.1564
之所由生也	-10.1565
若是則	-10.1565
常行	-10.1567
故上下能相親也	-10.1568
則天	-10.1568
克明	-10.157
行者	-10.1577
知也	-10.1581
君上	-10.1582
是爲	-10.1583
▁夫音扶	-10.1584
君有	-10.1588
祖述	-10.1588
月令	-10.1589
今文作	-10.1591
忝辱也	-10.1598
所宜	-10.1604
得而	-10.1605
故得人之懽心以事其親	-10.1605
復坐吾語汝	-10.1606
人子之	-10.1607
有過	-10.1609
不私	-10.1611
貴之	-10.1612
乃成	-10.1613
無以加於孝乎	-10.1613
則忘	-10.1615
者不過	-10.1617
之服其冕	-10.1618
他日	-10.1625
順則	-10.1626
終身	-10.1628
之推也	-10.163
先有	-10.1632
所傳	-10.1633
六行	-10.1638
不假	-10.1638
以養	-10.1639
開宗明義章第一	-10.1639
允	-10.1644
觀之	-10.1645
無遺	-10.1653
誠信	-10.1653
安國	-10.1656
志也	-10.1657
一國之	-10.166
三等	-10.1662
父母所	-10.1663
萬姓	-10.167
迹	-10.1672
此云	-10.1674
成矣	-10.1674
之民	-10.1679
順於	-10.168
悦敬其君則臣悦敬一人而千萬人悦	-10.1686
昭穆	-10.1688
之服	-10.169
家之	-10.1691
所事	-10.1703
三者不除	-10.1707
此之謂也	-10.171
曲禮云	-10.1711
卜之	-10.1711
子曰君子	-10.1714
由此而	-10.1718
若夫	-10.172
之數	-10.1726
佐	-10.1731
不離	-10.1735
以順天下民用和睦上下無怨女知之乎	-10.1737
司馬光曰謂	-10.1743
君臣上下	-10.1745
使弟	-10.1748
孝養	-10.175
無上	-10.1751
敬長	-10.1752
居則致其敬養則致其樂病則致其憂	-10.1757
則多	-10.176
為節	-10.1762
以忠	-10.1767
士庶	-10.1772
弟者	-10.1779
施之於	-10.1781
死者	-10.1784
行禮	-10.1786
王事	-10.1796
在位	-10.1801
葢猶	-10.1804
尊尊	-10.1806
懿	-10.1807
敬親者不敢慢於人愛敬盡於事親而	-10.1811
奸	-10.1812
禘嘗	-10.1814
則又	-10.1817
則忠	-10.1821
之要	-10.1828
則已	-10.1835
為主	-10.1839
燕禮	-10.1841
人情	-10.1842
以時	-10.1847
先之以敬讓而民不爭	-10.1848
莫之	-10.1849
先祖	-10.185
周頌	-10.1852
身者	-10.1855
以孝治天下	-10.1864
其生也	-10.1867
所能	-10.1868
子言之君子	-10.187
之主	-10.1874
宰我	-10.1874
或曰	-10.1876
雖無	-10.1878
所注	-10.1882
則能	-10.1887
開宗明義	-10.1887
之章也	-10.1887
是則	-10.1901
竭	-10.1923
貴其	-10.1927
竭力	-10.1927
以之	-10.1932
未及	-10.1942
故明王之以孝治天下如此	-10.1955
以愛敬	-10.1957
人謂	-10.1958
行必	-10.1959
愛者	-10.1961
必及之	-10.1962
堯舜之	-10.1967
與其	-10.1972
乎哉	-10.1972
祖父	-10.1978
敵	-10.1978
其情	-10.1979
藏之	-10.1982
遂其	-10.1982
保其	-10.1993
不惡慢	-10.2004
不悖	-10.2014
之乎	-10.2014
幷	-10.2037
者皆	-10.2041
云天子	-10.2041
道在	-10.2043
失也	-10.2047
以前	-10.2047
嗚呼	-10.2048
言人	-10.2056
本原	-10.2059
不顯	-10.206
如是而	-10.2062
以及	-10.207
是之謂	-10.2074
此一節	-10.2075
之效	-10.2085
貫	-10.2088
争臣三人雖無道不失其家	-10.2091
之節	-10.2098
藻	-10.2108
其下	-10.2109
物也	-10.2112
國之君	-10.2116
則無所不	-10.2116
行道	-10.2117
之典	-10.2123
有慶	-10.2125
膝	-10.2132
先王以	-10.2134
子曰天地之性人為貴人之行莫大於孝	-10.2138
富貴不離其身然	-10.215
莫若	-10.2152
五十里	-10.2153
守之	-10.2153
祭者	-10.2154
鄉飲酒之禮	-10.2155
絺	-10.2156
者三	-10.2158
次之	-10.216
治也	-10.2167
矣且	-10.2169
皆謂	-10.2175
猶父	-10.2181
事之	-10.2187
者按	-10.2191
也聖人	-10.2196
敬天	-10.2198
孝經刋誤	-10.2198
施於	-10.2199
興起	-10.22
葢言	-10.2201
義而	-10.2201
無也字	-10.2204
以寧	-10.2205
將順	-10.2212
聖王之	-10.2215
二十二	-10.2218
而不諫	-10.2224
以為行	-10.2226
五等之	-10.2237
也行	-10.2241
引書	-10.2243
畫	-10.2244
夫子所	-10.2248
言孝	-10.2255
而獨	-10.2262
孝道也	-10.2268
之功用	-10.227
喪親	-10.2271
使臣	-10.2273
者樂	-10.2277
謹身節用以養父母此庶人之孝也	-10.2279
或有	-10.2287
出焉	-10.2294
也非	-10.2296
鬼神之	-10.2296
文定	-10.2297
於四海	-10.2297
禄位	-10.2303
明其	-10.231
刑辟	-10.2316
而君	-10.2317
後學	-10.232
侍坐於	-10.233
多矣	-10.2331
並非	-10.2339
法天地	-10.2341
卿大夫之	-10.2342
天子至	-10.2343
先後	-10.2346
為其近於	-10.235
文質	-10.2352
周之	-10.2353
其在	-10.2355
用天之道分地之利	-10.2356
冰	-10.2367
天之道	-10.2377
不可以不	-10.2381
漢初	-10.2411
三人	-10.2411
終於立身	-10.2413
孝之始	-10.2413
十三	-10.243
者為	-10.2433
見之	-10.2439
不危	-10.2441
大孝	-10.2441
治直吏反	-10.2448
父之	-10.2451
○/	-10.2452
無事	-10.2456
前言	-10.2462
孝無	-10.2466
以事君	-10.2476
次第	-10.2489
主也	-10.2494
有德	-10.2495
▁長丁丈反	-10.2495
孝悌之	-10.25
隨之	-10.2503
此四者	-10.2511
敬其父	-10.2514
道以	-10.2514
也天	-10.2515
也反	-10.2523
穴	-10.2524
襄公	-10.253
也養	-10.2532
相傳	-10.2542
孝乃	-10.2543
報之	-10.2545
黍稷	-10.2546
不應	-10.2553
立教者	-10.2554
之所以	-10.2564
以事親	-10.2566
可道	-10.2568
家相	-10.2573
夫有	-10.2578
隋書	-10.2578
也古者	-10.2582
始于	-10.2582
時而	-10.2585
始終	-10.2592
恥	-10.2603
正義曰此依	-10.2608
之前	-10.2613
居于	-10.2613
指解	-10.2626
王制云	-10.2632
閨門章	-10.2636
而後可以	-10.264
五曰	-10.2643
必及	-10.2645
於諸侯	-10.2647
安而	-10.2651
猶言	-10.2654
天子諸	-10.2656
以深	-10.2664
三十六	-10.2672
或云	-10.2672
之端	-10.2675
所說	-10.2678
也詩云	-10.268
犆	-10.268
故能成其徳教而行其政令	-10.2686
樂樂	-10.2686
其理	-10.2691
於廟	-10.2691
則一也	-10.2712
者但	-10.2713
樂之	-10.2718
夫子述	-10.2725
言君	-10.2731
其名	-10.2732
也周公	-10.2733
之言行	-10.2735
高而不危所以長守貴	-10.2738
以事其先君	-10.275
即位	-10.2751
不若	-10.2752
於天下則	-10.2752
曰予	-10.2755
以此為	-10.2757
不知有	-10.2761
退而	-10.2767
一本	-10.2771
此一	-10.2777
之心而	-10.2784
忠者	-10.2785
愛敬之道	-10.2788
諫之	-10.279
始出	-10.279
而欲	-10.2794
古者天子	-10.28
尊於	-10.2802
輕重	-10.2808
而天下	-10.2808
曰父	-10.281
所載	-10.2819
籍	-10.2844
士之	-10.2847
祭義	-10.285
退謂	-10.2852
矣此	-10.2855
於天地	-10.2862
右傳十	-10.2863
不已	-10.2867
者多矣	-10.2867
嚴肅	-10.2868
僻	-10.2868
徳也	-10.2872
撮	-10.2879
歸於	-10.289
為次	-10.2894
不信	-10.2901
盡矣	-10.2904
牲也	-10.2904
無服之喪	-10.2904
徴	-10.2909
非以	-10.2919
不同而	-10.292
如是則	-10.2923
夫以	-10.2933
而民	-10.2935
導	-10.2943
令名	-10.2944
重於	-10.2946
之務	-10.296
從此	-10.296
事長	-10.2965
旤	-10.2967
失之	-10.298
聖人者	-10.2985
春秋之	-10.2986
七章	-10.2988
名也	-10.2999
貴而	-10.3004
聖德	-10.3019
於天子	-10.3022
夫惟	-10.303
注言	-10.3033
善則	-10.3034
而思	-10.3037
哭不	-10.3041
者葢	-10.3046
以起	-10.3051
之爲	-10.3052
官也	-10.3055
孝行	-10.3076
政刑	-10.308
耳若	-10.308
所得	-10.3081
也故以	-10.3082
以自	-10.309
至德	-10.3093
州貢	-10.3094
然後能	-10.3098
則可	-10.3107
祖廟	-10.3109
其職	-10.3111
刋誤	-10.3133
尊其	-10.3135
已上	-10.3143
註疏	-10.3158
當須	-10.3158
異同	-10.316
謂也	-10.3164
老子	-10.3172
亦未	-10.3175
猶為	-10.3175
此者也	-10.3176
是而	-10.3196
故孝	-10.3203
内外	-10.3203
樂而	-10.3204
則易	-10.3205
之曰	-10.3207
天之所	-10.3209
孫子	-10.3213
揚之	-10.3214
子弟臣	-10.3231
束	-10.3231
而教	-10.3236
章之首	-10.3248
以孝為	-10.325
大明	-10.3255
貽	-10.3258
其於	-10.3264
治家	-10.3268
治亂	-10.3272
足也	-10.3274
嚴而	-10.3277
則天之明因地之義	-10.3278
方澤	-10.3281
經云	-10.3284
不取	-10.3284
為後	-10.3285
之務也	-10.3295
之後也	-10.3296
理家	-10.3298
如是	-10.3302
可知矣	-10.3311
行下孟	-10.3313
者正	-10.3316
起居	-10.3319
之臣	-10.3331
教以臣所以敬天下之為人君者也	-10.3332
以俟	-10.3337
徳之本	-10.3343
禮者敬而已矣	-10.3355
爭臣	-10.3361
異也	-10.3364
利者	-10.3382
愛其	-10.3386
下也	-10.3388
者非	-10.3388
尊祖	-10.3395
墠	-10.3395
敬其	-10.3399
用古文	-10.3399
此之謂	-10.34
而為之	-10.3403
知所以事	-10.3407
赤子	-10.3412
皆備	-10.3414
召公	-10.3415
側	-10.3416
掩	-10.3418
庸	-10.3423
五等	-10.3423
五禮	-10.3427
大矣	-10.3428
庶子	-10.3439
懽心	-10.3441
于天子	-10.3442
攻	-10.3456
要也	-10.3456
始死	-10.3458
先生	-10.3458
母也	-10.3464
迎長	-10.3468
性而	-10.347
無親	-10.3471
藝	-10.3472
歡心	-10.349
以足	-10.3491
能則	-10.35
哀戚	-10.3501
得於	-10.3505
歟	-10.3507
非是	-10.351
禀	-10.3511
化之	-10.3517
孝慈	-10.3518
開宗明義章	-10.3519
名為	-10.3522
百世	-10.3523
爲政	-10.353
嚴也	-10.3542
者故	-10.3547
託	-10.355
曰君子	-10.3553
誥	-10.3555
也春秋	-10.3563
人有	-10.3563
取其	-10.3565
不求	-10.3566
五年	-10.3566
不自	-10.357
而又	-10.3573
君親	-10.3575
連	-10.3583
曾子問曰	-10.3589
學士	-10.3592
天也	-10.3602
有禮	-10.3602
寳	-10.3605
擗踊哭泣	-10.3605
者哉	-10.3611
至矣	-10.3617
以此之故	-10.362
祔	-10.3624
戚	-10.3627
不及	-10.3631
未之有也	-10.3634
呉	-10.3636
圜	-10.3638
六寸	-10.364
也今	-10.3648
言明王	-10.3656
什	-10.3661
凡十	-10.3672
藴	-10.3683
雖在	-10.3683
相通	-10.3685
哀也	-10.3686
可謂孝矣	-10.3687
取法	-10.3702
在身	-10.3706
醜	-10.3714
之制也	-10.3716
况於	-10.372
如有	-10.3721
十章	-10.374
則可以	-10.3741
操	-10.3745
五土	-10.3748
激	-10.3748
某	-10.3749
通於	-10.3751
存於	-10.3756
未知	-10.376
太廟	-10.3763
無容	-10.377
中也	-10.3771
二十	-10.3775
或以	-10.3776
政之	-10.3778
孩	-10.3787
亦以	-10.3798
天子之孝	-10.3798
其人也	-10.3799
仲尼孔子字	-10.3801
喪不過三年示民有終	-10.3802
喪則致其哀祭則致其嚴	-10.3802
麻	-10.3803
壁中	-10.3805
廣敬	-10.3805
父也	-10.3806
侈	-10.3807
瑞	-10.3814
之忠也	-10.3814
大亂	-10.3814
告之	-10.3819
俟	-10.3824
何其	-10.3826
叚	-10.3831
四十	-10.3836
長幼之	-10.3841
所當	-10.3841
一國	-10.3841
僞	-10.3844
之所至	-10.3844
忒	-10.3845
中士	-10.385
陷	-10.3855
為不	-10.3862
詬	-10.3862
正其	-10.3868
有闕	-10.3869
丁	-10.3876
則毁傷	-10.3877
察於	-10.3877
貳	-10.3878
孩提之童無不知愛其親	-10.3878
肆	-10.3879
地而	-10.3886
䂓	-10.3886
冬至	-10.3888
賴	-10.3891
夫聖人之徳又何以加於孝乎	-10.3891
愛敬盡於事親	-10.3896
以孝治	-10.3904
景	-10.391
藉	-10.3912
基	-10.3915
匡救其惡	-10.3916
教愛	-10.3918
寛	-10.392
矣行之於	-10.3921
舉其	-10.3922
援神契云	-10.3923
費也	-10.3923
廟則	-10.3924
呉澄	-10.3924
兢	-10.3926
為臣子者	-10.3929
今所	-10.393
月之	-10.393
貴者	-10.3932
誨	-10.3933
農	-10.3936
叙	-10.3936
得其歡心	-10.3937
著明	-10.3938
㓕	-10.394
以下如	-10.3941
是何言與	-10.3942
明矣	-10.3945
更端	-10.3949
閨門一章	-10.395
莫敢	-10.3953
路馬	-10.3953
祈	-10.3955
近而	-10.3955
十年	-10.3956
臯	-10.3959
州	-10.396
接下	-10.3961
冡	-10.3963
冢	-10.3963
秘	-10.3965
四字	-10.3966
支	-10.3967
漆書	-10.3967
消	-10.3968
乞	-10.3968
佚	-10.397
飲酒	-10.397
臏	-10.397
天下平	-10.3971
大小	-10.3972
故不	-10.3973
鴈	-10.3974
愆	-10.3975
楊	-10.3975
食肉	-10.3976
碑	-10.3977
宿	-10.3977
葛	-10.3977
無功	-10.3978
詭	-10.3979
於兄弟	-10.3979
柄	-10.398
歩	-10.398
閔	-10.398
汎	-10.3981
紂	-10.3982
險	-10.3982
慈幼	-10.3982
干戚	-10.3983
膳膏	-10.3983
孝子之事親終矣	-10.3983
溫	-10.3984
中有	-10.3985
公明儀	-10.3985
愼	-10.3986
寢苫枕塊	-10.3986
布帛	-10.3986
展	-10.3986
矣帝入	-10.3986
淵源	-10.3986
爽	-10.3987
巡	-10.3987
浸	-10.3987
尋	-10.3987
得天下	-10.3987
疲	-10.3987
刃	-10.3988
闗	-10.3988
肉	-10.3988
精微	-10.3988
窺	-10.3988
盡津忍反	-10.3988
沉	-10.3989
鯀	-10.3989
攝	-10.3989
破	-10.399
役	-10.399
䕶	-10.399
嘗藥	-10.399
空	-10.3991
材	-10.3991
莫重於	-10.3991
所以長守其	-10.3991
諫諍章第十五	-10.3991
尊而不親	-10.3991
各以其職來祭	-10.3991
憑	-10.3992
廓	-10.3992
滕	-10.3992
觸	-10.3992
爰	-10.3992
養則致其樂	-10.3993
鄙	-10.3993
司馬貞	-10.3994
析	-10.3994
旱	-10.3994
醉	-10.3994
耄	-10.3994
迂	-10.3994
援	-10.3994
親切	-10.3994
不過乎物	-10.3995
小國之臣	-10.3995
陋	-10.3996
枝	-10.3996
濟濟漆漆	-10.3996
甸	-10.3996
保守	-10.3997
矩	-10.3997
契	-10.3997
拘	-10.3997
倣	-10.3997
區	-10.3997
庫	-10.3997
程	-10.3997
金石	-10.3997
曹	-10.3997
朔	-10.3997
凝	-10.3998
髮	-10.3998
容貌	-10.3998
早	-10.3998
祐	-10.3999
踵	-10.3999
郊祀明堂	-10.3999
裘	-10.3999
晦	-10.3999
虞書曰	-10.3999
袁宏	-10.3999
君子終身守此	-10.3999
挾	-10.3999
緩	-10.4
霜	-10.4
諸書	-10.4
決	-10.4
延	-10.4
明堂天子布政之宫也	-10.4
丕	-10.4
引詩歌詠	-10.4
纊	-10.4
在上不驕髙而不危	-10.4
其説	-10.4
了	-10.4001
借	-10.4001
衞	-10.4001
偪	-10.4001
退思補過	-10.4001
犬	-10.4001
䙝	-10.4001
則萬物皆	-10.4001
孝弟之至通於神明光於四海無所不通	-10.4001
恣	-10.4001
狐	-10.4001
勒	-10.4002
詘	-10.4002
圓	-10.4002
頑	-10.4002
燕享	-10.4003
父慈子孝	-10.4003
牧	-10.4003
事親者居上不驕	-10.4003
不毁傷	-10.4003
皇皇	-10.4003
損益	-10.4003
杜預	-10.4004
此章廣言	-10.4004
盥	-10.4004
岳	-10.4004
避席	-10.4004
胥	-10.4004
違逆	-10.4004
曽子曰若夫慈愛恭敬安親揚名	-10.4005
義理	-10.4005
不敢遺小國之臣	-10.4005
津	-10.4005
禦	-10.4005
𦙍	-10.4005
教民親愛莫善於孝教民禮順莫善於悌	-10.4005
為之棺椁衣衾而舉之	-10.4005
殺逐	-10.4005
毁瘠	-10.4005
夏殷	-10.4005
懈	-10.4005
攷	-10.4005
出疆	-10.4006
承上文	-10.4006
大抵	-10.4006
憤	-10.4006
此大亂之道也	-10.4006
提	-10.4006
故自天子已下至	-10.4006
暨	-10.4007
子曰君子事上進思盡忠退思補過	-10.4007
羅	-10.4007
茂	-10.4007
辟音避	-10.4007
遊	-10.4007
安上治民	-10.4007
抱	-10.4007
古文孝經指解	-10.4008
曜	-10.4008
擗踊哭泣哀以送之	-10.4008
地之義民之行天地之經而民是則之	-10.4008
嫁	-10.4008
女音汝下同	-10.4008
亦非	-10.4008
參所金反	-10.4009
長幼順故上下治	-10.4009
庚	-10.4009
敷暢	-10.4009
虐	-10.4009
泯	-10.4009
顔色	-10.4009
水漿不入口	-10.4009
宴	-10.401
匡衡	-10.401
而可爲民之	-10.401
妖	-10.401
元宗	-10.401
昌吕反	-10.401
在上不驕高而不危制節謹度滿而不溢	-10.401
廣要道章第十二	-10.401
邱	-10.401
不易其則故	-10.401
朂	-10.401
甫刑云一人有慶兆民頼之	-10.401
恐陷	-10.4011
沃	-10.4011
以順則逆民無則焉	-10.4012
不可欺以	-10.4012
正之與變因樂而彰故曰莫善於樂	-10.4012
脱	-10.4012
修身愼行	-10.4012
仲尼閒居	-10.4012
朗	-10.4012
徳義而民興行先之以敬讓而民不	-10.4012
逄	-10.4012
王肅	-10.4013
永錫	-10.4013
揚名顯親	-10.4013
燠	-10.4013
蓋諸侯之孝也	-10.4013
充塞	-10.4014
吐	-10.4014
葉	-10.4014
卜其宅兆而安措之	-10.4014
上下無怨	-10.4014
亦至焉	-10.4014
冕而親迎	-10.4014
行則四方之國順而行之	-10.4014
郤至	-10.4014
部	-10.4015
語去聲	-10.4015
必湏	-10.4015
樂者	-10.4015
謹守	-10.4016
夫音符	-10.4016
狗	-10.4016
堪	-10.4016
熟	-10.4017
滿而不溢	-10.4017
瘠	-10.4017
父子兄弟	-10.4017
品	-10.4018
晉侯	-10.4018
苟或	-10.4018
亷	-10.4019
埀	-10.4019
姜嫄	-10.4019
晝夜	-10.4019
為之宗廟以鬼享之	-10.4019
兵刑	-10.4019
九年	-10.402
之何也曰	-10.402
能立其身	-10.402
非聖人者無法	-10.4021
父母有疾	-10.4021
為政	-10.4021
非孝者無親	-10.4021
臺	-10.4022
要君者無上	-10.4022
謂之悖禮	-10.4022
優游	-10.4022
五常之	-10.4022
天地明察	-10.4022
惡去聲	-10.4023
本或作	-10.4023
齊視	-10.4023
神明彰矣	-10.4024
伐	-10.4026
在其中矣	-10.4026
則聞命矣	-10.4026
禮無容	-10.4026
轍	-10.4027
死節	-10.4027
故以孝事君則忠	-10.4027
謝萬	-10.4027
氣象	-10.4028
遠近	-10.4028
隋志	-10.4028
道徳之	-10.4029
甚哉	-10.4029
子曰夫孝徳之本也教之所由生也	-10.4029
子貢問	-10.403
百里	-10.403
孔子閒居子夏侍	-10.403
是天道也	-10.403
側曰侍	-10.403
於是乎	-10.4032
而對	-10.4032
刑戮	-10.4032
慶譽	-10.4034
下章云	-10.4034
逺近	-10.4034
以事一人	-10.4034
因性	-10.4035
王后	-10.4038
者得	-10.4038
篇首	-10.4039
父母之身	-10.404
燕居	-10.4043
右傳二十	-10.4043
立徳行	-10.4043
孔門	-10.4044
徳業	-10.4045
之别名	-10.4045
傳云	-10.4045
不聞	-10.4045
祖宗	-10.4046
之官以成	-10.4046
風俗	-10.4047
而猶且	-10.4047
奉法	-10.4048
衣而飬老	-10.4048
言君子	-10.4049
去慢	-10.405
孔子對曰	-10.4052
哀公	-10.4052
得毋	-10.4052
欽定四庫全書孝經集傳卷	-10.4055
爵位	-10.4055
改本	-10.4056
多聞	-10.4059
之與敬	-10.4061
二世	-10.4062
公族	-10.4062
詔之	-10.4063
唐明皇	-10.4065
齊戒沐浴	-10.4065
也是	-10.4066
者當	-10.4066
三日而	-10.4066
三牲	-10.4068
文王之徳	-10.4068
正諫	-10.407
守宗廟	-10.4071
所藏	-10.4071
王命	-10.4071
孝子之心	-10.4073
君臣父子	-10.4074
雖别	-10.4075
御注	-10.4075
為壇	-10.4077
皆非	-10.4083
鄭康成	-10.4083
退則	-10.4088
以知	-10.4089
之甚也	-10.4092
則行之於	-10.4093
孝子之事親也	-10.41
繁文	-10.41
孝經之文	-10.4103
云爾	-10.4104
五官	-10.4106
而至于	-10.4108
今日	-10.411
天子者	-10.4112
據此	-10.4112
孝道之大	-10.4113
下加	-10.4118
御註	-10.412
之任也	-10.412
告於墓	-10.4121
於四時	-10.4121
初生	-10.4122
則不止	-10.4122
九州之	-10.4122
拜其辱	-10.4123
莫非	-10.4124
聖治	-10.4125
皆出於	-10.4128
謹身	-10.4131
性情	-10.4133
故雖	-10.4133
罪五百	-10.4137
雖多	-10.4138
所從	-10.4138
經言	-10.4142
之答也	-10.4143
其善	-10.4145
勤勞	-10.4147
人君子	-10.4148
分合	-10.415
經之	-10.4152
長長	-10.4153
最大	-10.4154
謂庶人	-10.4155
焉耳	-10.4156
靡不	-10.4161
子之事親	-10.4165
門户	-10.4167
武城	-10.4167
大歛	-10.4168
臣下所	-10.4168
今文云	-10.4172
從古文	-10.4173
世世	-10.4174
行成於内	-10.4175
語辭	-10.4176
國中	-10.4176
公羊高	-10.4176
祫也	-10.4177
于世	-10.4179
不然	-10.418
孝經注疏序	-10.4184
而禁	-10.4186
漢興	-10.4187
而降福	-10.4188
俱行	-10.4193
則猶是	-10.4194
仁讓	-10.4194
非有	-10.4195
智也	-10.4197
毁傷其身	-10.4199
愛其親	-10.4199
為難	-10.4201
心志	-10.4203
仲尼居曽子侍	-10.4204
豈惟	-10.4209
不去則	-10.4209
者其惟	-10.4212
德則	-10.4212
之什	-10.4213
之禮所以仁	-10.4213
孝經之	-10.4214
祭之	-10.4215
無終	-10.4216
讓也	-10.4217
善惡	-10.4218
在前	-10.4227
忌日	-10.4227
其時	-10.4228
蓋天子之孝	-10.4229
選也	-10.4232
第三章	-10.4233
此哀戚之情也	-10.4238
終矣	-10.424
謹節	-10.4244
凡此	-10.4244
後漢	-10.4245
於刑	-10.4245
諸侯大夫	-10.4245
也所以	-10.4248
作忠	-10.425
本皆	-10.4253
亦莫	-10.4258
卜兆	-10.4261
已矣	-10.4263
民用和睦上下無怨	-10.4266
為之也	-10.4268
之盛也	-10.4274
容儀	-10.428
古人之	-10.4284
此謂	-10.4285
命也	-10.4286
是以君子	-10.4293
炫自	-10.4298
萬世	-10.4301
古書	-10.4301
非不	-10.4302
春秋左氏傳	-10.4306
尊者	-10.431
記云	-10.4316
也易	-10.4326
故須	-10.4328
仲尼之	-10.4329
五孝	-10.433
未及於	-10.4334
今文無	-10.4335
義疏	-10.4336
有社稷	-10.4336
各有所	-10.4339
所以致	-10.4356
也故君子	-10.4359
二句	-10.4361
秋冬	-10.4368
禮而	-10.4372
鰥寡	-10.4373
無罪	-10.4382
中興	-10.4383
自盡	-10.4384
三者備矣然後能守其宗廟葢卿大夫之	-10.4385
於君則	-10.4385
呉氏	-10.4385
盡禮	-10.4389
未可	-10.439
所在	-10.4391
和以	-10.4391
則天下	-10.4391
通謂	-10.4395
孰慮	-10.4395
藏也	-10.4396
孝之大也	-10.4397
無益	-10.4399
身不	-10.4399
言蓋	-10.4405
孝子事親	-10.4406
既得	-10.4407
子之道	-10.4409
之不可	-10.4409
心則	-10.441
謹度	-10.4411
以致敬	-10.4413
道路	-10.4419
作孝經	-10.4426
如字	-10.443
之以禮	-10.4437
著也	-10.4437
為質	-10.444
正道	-10.4441
乗	-10.4443
陳之以德義而民興行	-10.4445
故夫子	-10.4447
上而	-10.4449
質也	-10.4453
謂是	-10.4456
此二者	-10.4461
横	-10.4461
反下	-10.4462
禮儀	-10.4463
言保	-10.4476
各以其	-10.4479
惡之	-10.4484
無怨惡	-10.4485
之心也	-10.449
中道	-10.4497
然後為	-10.4498
案周禮	-10.4502
是以四海之内各以其職來助祭	-10.4502
恱敬其君則臣恱敬一人而千萬人恱	-10.4503
之原	-10.4506
若有	-10.4506
膳	-10.4509
教之以	-10.4512
變而	-10.4524
之實也	-10.4526
其義同	-10.453
委曲	-10.4532
見矣	-10.4532
也故曰	-10.4533
所謂孝	-10.4537
必於是	-10.4545
愛敬者	-10.4548
流而	-10.4549
得其心	-10.455
議禮	-10.4551
時人	-10.4552
三月	-10.4552
注疏	-10.4556
註文	-10.4559
不從政	-10.4565
進退可度	-10.4567
自有	-10.4568
有别	-10.4576
擗婢亦反	-10.4577
彼此	-10.458
詩云有覺德行四國順之	-10.4581
復有	-10.4586
謂其有	-10.459
從諫	-10.4594
所不能	-10.4602
俱有	-10.4612
從而	-10.4614
亦是	-10.4617
註孝經	-10.4619
諸侯有	-10.4622
書為	-10.4623
刑于四海	-10.4624
其本一也	-10.4629
其父母	-10.4629
士之孝	-10.463
多而	-10.4633
責之	-10.4633
少者	-10.4633
易之	-10.4643
分為	-10.4644
若以	-10.4646
得以	-10.4649
長幼順	-10.4651
之世	-10.4652
嚴父配天	-10.4655
忠順不失	-10.4657
而已矣故	-10.466
也士	-10.4665
其容	-10.4668
不詳	-10.4674
水火	-10.4689
孝治之	-10.4689
外也	-10.469
以愛	-10.4704
章中	-10.4706
立而	-10.4708
下今文有	-10.471
刋	-10.471
丈	-10.4713
其詞	-10.4721
不聰	-10.4722
同也	-10.4725
屈	-10.4726
國也	-10.4728
重禮	-10.4732
事而	-10.4732
中國	-10.4733
識之	-10.4741
秩	-10.4758
愛之	-10.4758
人之所以	-10.4759
知有	-10.4761
上下相	-10.4762
觀其	-10.477
易行	-10.4775
不博	-10.4775
也但	-10.4775
言言	-10.4776
以輔	-10.4777
天下之人	-10.4779
是猶之	-10.4784
之理也	-10.4786
别其	-10.4787
雖無道不失其	-10.4791
大傳	-10.4792
古文無也字孝經注疏卷	-10.4798
陳説	-10.4802
至如	-10.4804
逺而	-10.4805
故舉	-10.4811
數也	-10.4815
爭臣七人雖無道不失其天下	-10.482
恭順	-10.483
其義也	-10.4831
者也故	-10.4835
郊祭	-10.4839
本于	-10.4849
極其	-10.485
指於	-10.4854
民皆	-10.4855
盡心	-10.4864
敬矣	-10.487
國大夫有爭臣三人雖無道不失其家	-10.4873
况其	-10.4886
則問	-10.4888
禮樂者	-10.4891
致也	-10.4896
於臣	-10.49
服之	-10.4905
敬順	-10.4906
事地	-10.4907
子曰孝子之事親	-10.4909
曾子曰甚哉孝之大也	-10.4911
所以成	-10.4912
不驕	-10.4919
則天之明因地之利以順天下是以其	-10.4924
養父母	-10.493
惡其	-10.4937
制之	-10.4938
不敢惡	-10.4941
之始	-10.4941
於君父	-10.4943
孝治	-10.4943
棺槨	-10.4947
壇之	-10.4951
去之	-10.4952
以御	-10.4957
類也	-10.4959
以禮為	-10.4973
至則	-10.4976
身也	-10.4978
為下	-10.4984
者莫不	-10.4986
無法	-10.4988
一則	-10.4988
明明	-10.4988
十餘	-10.4993
三禮	-10.4995
衆也	-10.4997
教敬	-10.5003
之力	-10.5004
而後可	-10.5004
之長	-10.5004
忠順不失以事其上然後能保其	-10.5008
辰	-10.501
非獨	-10.501
之施	-10.5012
故君	-10.5012
本然	-10.5013
毁不滅性此聖人之政也	-10.5013
在家之	-10.5014
正義曰夫子	-10.5015
於士	-10.5017
動静	-10.5018
山林	-10.5018
所論	-10.5021
之詩	-10.5023
卿與大夫	-10.5024
敬人之父	-10.5027
逺也	-10.5028
古人	-10.5036
其先	-10.5038
孝經注解傳述人	-10.5041
喪也	-10.5042
心而	-10.5051
之序也	-10.5053
明之	-10.5063
國之大	-10.5064
反下同	-10.507
周制	-10.5072
舉之	-10.5075
寫之	-10.508
長㓜	-10.5081
順矣	-10.5083
然也	-10.5086
子曰字	-10.5087
禮節	-10.5088
著矣	-10.5088
曽子曰甚哉孝之大也子曰夫孝天之經	-10.5104
窮民	-10.5106
先之	-10.5111
三千條	-10.5116
以下	-10.5123
不外	-10.5126
享祀	-10.5134
正之	-10.5138
樂以	-10.5138
人亦	-10.5141
則不敢	-10.5141
起於	-10.5143
慈孝	-10.5147
之辭也	-10.5149
所由生	-10.515
要者	-10.5151
曰此	-10.5152
大哉	-10.5157
明主	-10.5159
於上而	-10.516
移之	-10.5162
日月之	-10.5162
于天下	-10.5168
而為之也	-10.518
之道不過於	-10.5183
御製序	-10.5196
有不義	-10.5203
没而	-10.5203
因天	-10.5206
者此謂	-10.5213
天子庶人	-10.5213
第七章	-10.5216
則與	-10.5223
董生	-10.523
也大夫	-10.5232
一言	-10.5233
三字	-10.5234
三月而	-10.5237
本非	-10.5239
者孝弟之	-10.5239
事兄悌故順可移於長	-10.524
聖經	-10.5241
之誼也	-10.5241
也曽子	-10.5242
前章	-10.5246
先祖之	-10.5247
其力	-10.5258
其身以	-10.5258
既有	-10.5259
千載	-10.5263
親而	-10.5265
之何	-10.5269
至理	-10.5271
言之也	-10.5272
者以其	-10.5274
欲以	-10.5274
而無其	-10.5283
教者	-10.5284
敬為	-10.5293
盖言	-10.5297
使君	-10.5307
也既	-10.5309
夫禮	-10.5313
不顧	-10.5314
盖謂	-10.5318
有擇	-10.5318
釋奠	-10.5321
其恩	-10.5322
反哭	-10.5326
賈生曰	-10.5326
讓而	-10.5336
言天	-10.5336
亦為	-10.5345
本無	-10.5349
為義	-10.5356
子曰吾志在春秋行在孝經	-10.5357
出其	-10.5367
子曰孝子之事親也居則致其敬	-10.5375
二書	-10.5376
德義可尊作事可法	-10.5376
輕侮	-10.5381
享之	-10.5381
之意焉	-10.5382
愛父	-10.5387
而曰	-10.5393
孝經一卷	-10.5393
成人	-10.5394
於堂	-10.5394
孝經定本	-10.5405
原序	-10.5419
不易	-10.5419
廟之	-10.542
而賤	-10.5421
故得人之	-10.5428
諌諍	-10.544
士朝	-10.5446
仁孝之	-10.5455
隋	-10.5457
之餘也	-10.5459
之孝也	-10.5476
物之	-10.5478
之士不	-10.5481
能理	-10.5481
後為	-10.5481
傷生	-10.5485
三光	-10.5491
祭法	-10.5497
之者	-10.5499
父母生之	-10.5522
事不	-10.5524
而日	-10.5526
而不忘	-10.5526
夕	-10.5532
行之於	-10.5537
三代之	-10.5539
作傳	-10.5541
其惡	-10.5541
孝字	-10.5547
諫則	-10.5557
取象	-10.5568
大夫三	-10.5569
是猶	-10.557
作疏	-10.5571
又引	-10.5581
天下皆	-10.5583
刑也	-10.5596
節也	-10.5598
樂聲	-10.5602
教弟	-10.5605
孝乎	-10.5606
定為	-10.5611
竝同	-10.5611
如將	-10.5613
八字	-10.5613
在朝	-10.5617
則下有	-10.5624
禮為	-10.5629
釋之	-10.563
失於	-10.5632
不變	-10.5633
安之	-10.5639
其過	-10.5639
之子也	-10.5641
躬行	-10.5654
忘之	-10.5657
班	-10.566
易也	-10.5664
而反	-10.5667
謂有	-10.5682
子不	-10.5684
于外	-10.5689
羣臣	-10.5694
能盡	-10.5707
而况	-10.5713
不當	-10.5716
居上而驕	-10.5717
不至於	-10.5724
過時	-10.5726
其身不	-10.5729
而道	-10.5734
厚於	-10.5742
詠之	-10.5746
中於	-10.5748
十四	-10.5749
愈於	-10.5766
儒者	-10.5768
君子不	-10.5771
者明	-10.5772
地也	-10.5772
之仁也	-10.5775
也先	-10.5778
為其	-10.5783
人主之	-10.5788
喪禮	-10.5791
非禮	-10.5791
傳注	-10.5791
其初	-10.5793
知能	-10.5793
人事	-10.5796
教成	-10.5806
所命	-10.5808
長則	-10.5812
所聞	-10.5816
不盡	-10.5819
地之	-10.582
之謂禮	-10.5825
家臣	-10.5826
事君章第十七	-10.5829
篇語	-10.5832
也賈生曰	-10.5835
子曰君子之事上也進思盡忠退思補過	-10.5847
凡此其屬太	-10.585
不謂之	-10.585
史記	-10.5855
乎然則	-10.5859
之心則	-10.586
奢	-10.5864
也右第十	-10.5864
愛而不	-10.5868
天子所	-10.5869
諭	-10.5873
少傅	-10.5874
反注同	-10.5887
中庸曰	-10.5892
士則	-10.5895
而可以	-10.5897
又音	-10.5901
則天地	-10.5905
韋	-10.5906
四章	-10.591
出也	-10.5914
𤣥宗曰言	-10.5915
觧	-10.5916
者與曰	-10.592
云凡	-10.592
暑	-10.5922
顯親	-10.5923
孝子之事親	-10.5926
徳之	-10.5928
敬之心	-10.593
其能	-10.5932
大事	-10.5933
其政不嚴而治	-10.5935
其愛	-10.5936
兄也	-10.5943
禮與曰	-10.5948
之罪也	-10.5954
其治	-10.5959
可以為	-10.5961
得之	-10.5967
東方	-10.5971
曰吾	-10.5971
所著	-10.5975
敬親	-10.5982
極於	-10.5982
何必	-10.5984
過於	-10.5984
曽子曰甚哉孝之大也	-10.5987
丹	-10.5988
正義曰此章	-10.5991
游	-10.5992
值	-10.5997
欲觀	-10.6
之敎	-10.6004
何謂	-10.6005
於物	-10.6006
其真	-10.6009
是故先之以博愛而民莫遺其親陳之以	-10.6017
天子以	-10.602
人是	-10.6023
思孝	-10.6026
如其	-10.6038
有一	-10.6045
孰為	-10.6048
於祖	-10.6051
以天子之	-10.6051
曰君	-10.6053
名法	-10.6063
萌	-10.6066
民者	-10.6069
利禄	-10.6071
在其	-10.6073
有子	-10.6074
以别	-10.6074
御製	-10.608
先師	-10.6081
士章	-10.6085
越之	-10.6088
而況於	-10.61
此本	-10.6102
諫而	-10.6103
也又曰	-10.6104
故明王	-10.6106
身而	-10.6108
故敬其父則子	-10.6109
之論	-10.611
事死	-10.6113
之常	-10.6114
其次	-10.6114
申明	-10.6116
於百姓	-10.6118
非先王之徳行不敢行	-10.6118
孝之所	-10.6119
鄉飲酒	-10.612
曾子之	-10.6121
記之	-10.6123
物為	-10.6135
可移	-10.6138
則君	-10.614
之名也	-10.6143
又不	-10.6146
竭其	-10.6148
相親	-10.6154
薄於	-10.6161
天子之事	-10.6165
字而	-10.6168
之治	-10.6169
之法	-10.6173
之德	-10.6173
不可復	-10.6177
下民	-10.6178
也雖	-10.6192
敢問	-10.6196
為忠臣	-10.6196
段	-10.6199
䘮則	-10.62
謂先王	-10.6201
書皆	-10.6207
天地之道	-10.6217
正國	-10.6217
其遺	-10.6218
此是	-10.6224
于親	-10.6226
章服	-10.6229
喪則	-10.6232
三者皆	-10.6233
之耳	-10.6236
坑	-10.6242
之貴	-10.6242
之神	-10.6245
免於	-10.6247
老老	-10.6248
不辟	-10.6249
忽	-10.6249
者因	-10.6251
䧟	-10.6258
嫌	-10.6261
來助祭	-10.6261
長久	-10.6262
懼不	-10.6263
學禮	-10.6266
父母生	-10.6268
貴貴	-10.6272
不親	-10.6273
傳者	-10.6279
賔主	-10.628
所受	-10.6291
奚	-10.6291
未至於	-10.6301
而古文	-10.6301
政令	-10.6303
之廟	-10.6326
今以	-10.6327
夫使	-10.6327
所以明	-10.6327
也一	-10.6335
者未之有也	-10.634
為天	-10.634
㓜	-10.6348
後言	-10.6348
者此釋	-10.6349
養親	-10.6364
必敬	-10.6366
為卿大夫	-10.6372
忠也	-10.6375
身致	-10.6376
也孝	-10.6377
此二	-10.638
忠君	-10.6384
其祖	-10.6388
而祭	-10.6389
愛也	-10.6394
父母之憂	-10.6407
也或曰	-10.6409
本故	-10.6416
必至	-10.6417
為文	-10.6417
言而不	-10.6418
乎上	-10.6419
尚有	-10.642
樂其	-10.6424
敬而已矣	-10.6431
物注云	-10.6434
不在	-10.6435
之月	-10.6436
人之心	-10.6437
之功	-10.6439
矣盖	-10.6439
也書曰	-10.6444
然後可以	-10.6444
其國	-10.6445
之禍	-10.6451
兼取	-10.6452
此句	-10.6457
始於事親	-10.6458
親在	-10.646
聖人之徳	-10.6472
之恩	-10.6472
之以為	-10.6473
之情也	-10.6478
至而	-10.6483
天子不	-10.6484
其極	-10.6485
君行	-10.6485
朱子刋誤	-10.6486
之歸	-10.649
曲禮	-10.6493
秀	-10.6497
凡在	-10.6498
說者	-10.6502
君子有	-10.6504
十五	-10.6513
汝知之乎	-10.652
居上而驕則亡	-10.6521
大化	-10.6523
而葬	-10.6527
形於	-10.6528
其質	-10.6528
宗廟之中	-10.6536
氣志	-10.6539
為教	-10.654
者人之	-10.654
固也	-10.6543
嚴父嚴兄妻子臣妾猶百姓徒役也	-10.6546
此釋	-10.6551
為父	-10.6565
之餘	-10.6566
天下國家	-10.6567
故有	-10.6567
無甚	-10.6576
未嘗不	-10.6579
不絶	-10.658
惡則	-10.6587
之則也	-10.659
以為樂	-10.659
也然而	-10.6593
之報	-10.6596
三日而食	-10.6597
不窮	-10.661
背	-10.661
不敢自	-10.6613
毒	-10.6619
敬則	-10.6632
起也	-10.6632
終之	-10.6639
孝道之	-10.6645
慕也	-10.6646
聖明之	-10.6646
盡力	-10.6655
行下孟反傳	-10.6663
作故	-10.6667
示其	-10.6668
邦國	-10.6669
葢天子之孝也	-10.6673
變也	-10.6677
五刑之	-10.668
禮法	-10.6681
臯陶	-10.6685
也者	-10.6685
九字	-10.6689
未為	-10.669
日而	-10.6699
㳺	-10.6701
授之	-10.6703
先言	-10.6704
殺則	-10.6706
兆民	-10.6707
孝之大	-10.6709
曰孝子	-10.6711
其末	-10.6713
云若	-10.672
之㫖	-10.6724
明孝	-10.6727
焉爾	-10.6728
明發不寐	-10.673
正直	-10.6734
忠言	-10.6735
無窮	-10.6737
文義	-10.6758
如父母	-10.677
毀	-10.6771
六章	-10.6774
其信	-10.6777
耕耤	-10.6777
之義也云	-10.6783
從政	-10.6784
色養	-10.6796
明父	-10.6797
先人	-10.6799
皆當	-10.6804
之正	-10.6812
誠敬	-10.6815
滿天下	-10.6824
見其所	-10.6826
孺	-10.6827
祭日	-10.6829
行即	-10.6829
其數	-10.6834
在也	-10.6835
此義	-10.6835
東序	-10.6836
舊注	-10.6841
告於	-10.6843
于家	-10.685
以諫	-10.6857
極至	-10.686
所作	-10.6861
卿之	-10.6864
其自然	-10.6873
不問	-10.6879
御者	-10.6885
婦人	-10.6889
後也	-10.6889
子而	-10.689
非聖人	-10.6892
沿	-10.6896
旦	-10.6901
惟能	-10.6906
之善	-10.6908
君親臨之厚莫重焉	-10.691
司徒	-10.6911
先聖	-10.6917
在家	-10.6924
曽氏	-10.6925
而重	-10.6929
以下皆	-10.693
故以名章次	-10.6933
敬其兄	-10.6935
養而	-10.6936
孝為百行之	-10.6938
變化	-10.6939
也如	-10.6939
所以合	-10.6939
也孔子	-10.694
上大夫	-10.6943
威如	-10.6944
擬	-10.6947
先世	-10.6948
斯則	-10.6948
太子	-10.6951
襄	-10.6953
君之過	-10.6955
者論語	-10.6956
卒哭	-10.6957
八章	-10.696
無可	-10.696
腹	-10.6961
則言	-10.6961
今人	-10.6967
義取	-10.6968
自無	-10.6969
匹夫	-10.697
天下而	-10.6971
為人父	-10.6973
盖天子之孝	-10.6974
庠	-10.6976
皆為	-10.6976
枉	-10.6979
者欲	-10.6988
者夫子	-10.699
閉	-10.6995
舜之	-10.6996
主張	-10.7001
孝徳	-10.7002
者孝之	-10.7005
敬身	-10.7005
稱也	-10.7007
葬也	-10.7008
因於	-10.7008
陸費墀	-10.7009
浴	-10.701
為人臣	-10.701
之初	-10.7012
辟踊	-10.7012
其意	-10.7012
哲	-10.7015
於父母	-10.702
爱	-10.7021
市	-10.7023
而下無	-10.7024
敬親者不敢慢於人	-10.7024
以廣	-10.7029
可也	-10.703
帝也	-10.7031
能致	-10.7032
糾	-10.7032
祫	-10.7034
而坐	-10.7035
殷之	-10.7039
星辰	-10.7039
木之	-10.7044
成之	-10.7047
小心	-10.7057
文王之事	-10.7058
則自	-10.7058
王之治	-10.7059
不明	-10.706
甚大	-10.7063
固其	-10.7065
以象	-10.7067
上之所	-10.7074
言以	-10.7075
而自	-10.7078
正義曰此依魏注也	-10.7083
富貴不離其身	-10.7089
厚莫重焉	-10.709
無一	-10.7096
禍亂	-10.7098
非有所	-10.7099
質者	-10.7103
弊	-10.7108
去其	-10.7113
君可	-10.7118
頒	-10.7119
常以	-10.7122
宗有	-10.7122
二十二章	-10.7123
禁也	-10.7129
愛親者不敢惡於人敬親者不敢慢於人	-10.7133
能明	-10.7139
禮以	-10.7139
正義曰案	-10.7141
如何曰	-10.7141
而致	-10.7149
計反	-10.7164
者其刑	-10.7164
厭	-10.7166
飯	-10.7168
曰夫	-10.7173
如此而後	-10.7182
聞也	-10.7184
宗祀	-10.7185
怒而	-10.7187
三者備矣	-10.7187
鑿	-10.7189
孩提	-10.7189
之徳	-10.7189
不亦	-10.719
宣王	-10.719
禰廟	-10.7192
羲	-10.7193
得其宜	-10.7197
氣竭而	-10.7199
於庶人孝無終始而患不及者未之有也	-10.7202
試	-10.7203
之服自	-10.7204
共之	-10.7205
右傳之	-10.7208
其言行	-10.7211
未著	-10.7213
易以	-10.7213
先公	-10.7214
由此	-10.7216
北方	-10.7223
鄒	-10.7227
説文	-10.7227
寐	-10.7227
隣	-10.7228
之義皆	-10.7233
能終	-10.7235
父有	-10.7236
疆	-10.7237
而能之	-10.724
感應	-10.7241
法而	-10.7244
先王有至德要道	-10.7246
傾危	-10.7248
按禮記	-10.7249
京	-10.725
若是	-10.725
㫖不甘此哀戚之情	-10.7251
宋均	-10.7251
功也	-10.7255
婉容	-10.7256
天下無	-10.7258
明皇	-10.7262
悲哀	-10.7263
武帝時	-10.7263
理故	-10.7265
戴	-10.7265
董生曰	-10.7265
為卿士	-10.7268
謂天下	-10.7269
駁	-10.7271
書有	-10.7271
問曰	-10.7272
頖宫	-10.7272
三年之	-10.7273
東北	-10.7274
者即	-10.7276
司農	-10.7276
愈多而	-10.7276
乏	-10.7278
深而	-10.7279
饔餼	-10.7282
併	-10.7282
養生送死	-10.7282
愛敬而	-10.7283
禍亂不作	-10.7283
涖	-10.7283
抗議	-10.7286
摯	-10.7287
底	-10.7288
雖無道	-10.7288
牢飱	-10.7292
元年	-10.7292
既聞	-10.7292
憲乞	-10.7294
戮	-10.7295
乎夫	-10.7295
謝	-10.7295
於祖禰	-10.7295
鬯	-10.7295
哀戚之情	-10.7295
焉得為孝乎	-10.7297
君子弗行也	-10.7297
皆無	-10.7298
順其	-10.7298
詐	-10.7299
疑丞輔弼	-10.7299
崩	-10.73
既殯	-10.73
遍	-10.7301
子以	-10.7301
不失天下	-10.7302
旌	-10.7302
伯禽	-10.7303
之此	-10.7303
也以為	-10.7303
此哀之發於	-10.7303
銘	-10.7303
耆艾	-10.7303
仰	-10.7303
徳教加於百姓刑於四海	-10.7304
荒	-10.7304
䖍	-10.7305
界	-10.7305
争臣七人雖無道不失其天下諸侯有	-10.7305
近之	-10.7305
袵	-10.7305
潛	-10.7305
協	-10.7306
簟	-10.7306
大辟	-10.7306
汲汲	-10.7307
乾坤	-10.7307
招	-10.7307
風雷山澤	-10.7308
鉅	-10.7309
蒼帝	-10.7309
朝而殯	-10.7309
戰戰	-10.731
父有争子則身不䧟於不義	-10.731
觴	-10.731
不遑	-10.731
露	-10.731
敬其所尊愛其所親	-10.7311
目錄	-10.7311
御定孝經注	-10.7311
鄉黨	-10.7311
軍旅	-10.7312
養老養幼	-10.7312
憾	-10.7312
筆	-10.7312
優劣	-10.7312
旁	-10.7313
城郭	-10.7313
孺慕	-10.7313
舛	-10.7313
牀	-10.7313
緇衣	-10.7313
臆	-10.7313
自天子以至於庶人	-10.7313
禮無不答	-10.7313
馬融	-10.7313
披	-10.7314
舜禹文王周公	-10.7314
訖	-10.7314
五刑之屬三千	-10.7315
者矣見若	-10.7315
側室	-10.7315
樸	-10.7315
緦	-10.7315
淵	-10.7315
億兆	-10.7315
枕	-10.7316
帶	-10.7316
寵	-10.7316
又焉得為孝乎	-10.7316
再拜	-10.7317
㫁	-10.7317
噐	-10.7317
孝以不毁為先	-10.7317
燒之	-10.7317
絃誦	-10.7317
焚	-10.7317
丞	-10.7318
臨深履薄	-10.7318
摩	-10.7318
紀孝行	-10.7318
制以	-10.7318
子曰是何言與是何言與	-10.7318
慼生民之	-10.7318
也頌曰	-10.7319
室老	-10.7319
索	-10.7319
肩	-10.7319
鍾	-10.7319
曽参	-10.7319
油	-10.7319
籩豆	-10.7319
斯二者	-10.7319
孝道始終之義	-10.7319
生事愛敬死事哀	-10.732
饌	-10.732
耆	-10.732
於春秋	-10.732
贈	-10.732
受命於禰	-10.732
羔豚	-10.732
誕	-10.732
王草堂	-10.732
瘡	-10.732
額	-10.732
八牖	-10.732
大毛公	-10.732
嬰兒	-10.732
煢然	-10.732
簠	-10.7321
人之行莫	-10.7321
帛	-10.7321
顛	-10.7321
米	-10.7321
洋溢	-10.7321
未能也所求乎	-10.7321
釋奠於先老	-10.7322
順長幼	-10.7322
壤	-10.7322
媮	-10.7322
鄉里	-10.7322
䝉	-10.7322
侵	-10.7322
言能立身行此孝道	-10.7322
弑	-10.7323
蒸	-10.7323
池	-10.7323
排	-10.7323
啜	-10.7323
男子割勢	-10.7323
含	-10.7324
菽	-10.7324
雞	-10.7324
仲尼居曾子侍	-10.7324
栁	-10.7324
歲	-10.7324
朴	-10.7324
凱	-10.7324
受贄	-10.7324
環	-10.7324
稽顙	-10.7324
以是待其	-10.7324
雖得之君子所不貴	-10.7325
詩曹風鳲鳩	-10.7325
黻	-10.7325
食㫖不甘	-10.7325
弓	-10.7325
正義曰前	-10.7325
使天下之人	-10.7326
悽愴	-10.7326
蹈	-10.7326
蠶室	-10.7326
居堊室	-10.7326
朱熹	-10.7326
壙	-10.7326
嶽瀆	-10.7326
訊	-10.7326
謟	-10.7326
釐	-10.7326
仲山甫補之	-10.7326
吉凶	-10.7326
泚	-10.7326
燔柴	-10.7326
輟	-10.7326
跳	-10.7327
衣衾	-10.7327
動靜	-10.7327
古先聖王	-10.7327
長幼之序	-10.7328
謂先代	-10.7328
制㫖	-10.7328
鈇鉞	-10.7328
希	-10.7328
芻	-10.7328
忒他得反	-10.7328
揚觶	-10.7328
炙	-10.7328
截鼻	-10.7328
毁瘠過度	-10.7328
翔	-10.7328
翰林	-10.7328
而尚齒虞夏殷周天下之盛王也未有遺	-10.7328
英	-10.7328
迷	-10.7328
之讎不與聚	-10.7328
噫	-10.7328
柩車	-10.7328
者君子弗與也	-10.7328
行冲	-10.7328
制節謹度滿而不溢髙而不危所以	-10.7328
歡心以事其親	-10.7329
豕	-10.7329
牽	-10.7329
渉	-10.7329
羹	-10.7329
彊	-10.7329
后夫人	-10.7329
戾	-10.7329
壟	-10.7329
明王之以孝治天下也	-10.7329
凖	-10.733
風雷	-10.733
條貫	-10.733
嘗烝	-10.733
鎬	-10.733
娶	-10.733
蘇	-10.733
上取象於天下取法於地	-10.733
注約彼文	-10.733
員	-10.733
孳	-10.733
尚齒夏后氏貴爵而尚齒殷人貴富而尚	-10.733
式禮莫愆	-10.733
得天下之懽心	-10.733
南蒯	-10.733
晏平仲	-10.733
有道乎曾子曰有	-10.733
相尋	-10.733
胞	-10.733
重合厚一尺	-10.733
閣	-10.733
敢有	-10.7331
泥	-10.7331
惮	-10.7331
忌日不用	-10.7331
者故資	-10.7331
千里	-10.7331
瞍	-10.7332
屏	-10.7332
周公之志也	-10.7332
宜稻麥	-10.7332
百工	-10.7332
誹謗	-10.7332
偕	-10.7332
鹿	-10.7332
不受必忠曰	-10.7332
刪削	-10.7332
嬰孩	-10.7332
巫蠱	-10.7332
愛其死	-10.7332
答拜之	-10.7332
鄙詐	-10.7332
魂魄	-10.7332
争於父臣不可以不争於君故當不義則	-10.7332
孝子之喪親也	-10.7332
侯卿大夫士庶人	-10.7332
惰	-10.7333
翼翼	-10.7333
犬馬	-10.7333
枲	-10.7333
絶於秦	-10.7333
就養無方	-10.7333
柱	-10.7333
牒	-10.7333
進思盡忠	-10.7334
繇禮	-10.7334
民無則焉	-10.7334
敝	-10.7334
惕	-10.7334
函	-10.7334
冊	-10.7334
飢	-10.7334
迄	-10.7334
底於	-10.7334
敎誨	-10.7334
董仲舒	-10.7334
井	-10.7334
兵刄	-10.7334
孜孜	-10.7334
御纂孝經集註	-10.7334
摘	-10.7334
行酬而後獻	-10.7334
長孫氏江翁翼奉后蒼	-10.7334
强有力者	-10.7334
五刑謂墨劓剕宫大辟也	-10.7334
以説安之	-10.7334
君子則不然言斯可道行斯可樂	-10.7334
果無	-10.7335
琰	-10.7335
揚名榮親	-10.7335
長上聲	-10.7335
得之者皆煨燼之末	-10.7335
鎮	-10.7335
之義通之則	-10.7335
五廟之孫祖廟未毁雖	-10.7335
亟	-10.7335
吟	-10.7335
瞽瞍	-10.7335
長守富貴	-10.7335
婢	-10.7335
二程	-10.7335
憎	-10.7335
廣揚名章	-10.7336
讎	-10.7336
父有爭子	-10.7336
韻	-10.7336
劉劭	-10.7336
夫人副褘	-10.7336
諾	-10.7336
叚序	-10.7336
犢	-10.7336
泮	-10.7336
近儒	-10.7336
九室	-10.7336
孝弟忠順	-10.7336
寇	-10.7336
强飾	-10.7336
族人與父兄齒也	-10.7336
泗	-10.7336
而能不驕則免危也	-10.7336
萬國之衆而皆得其懽	-10.7336
信乎朋友	-10.7336
天之生物	-10.7336
性未達何足知	-10.7336
無所遺失	-10.7336
膚髪	-10.7336
緣	-10.7336
貪	-10.7336
食粥	-10.7336
弧	-10.7337
地之利	-10.7337
單	-10.7337
模	-10.7337
途	-10.7337
䖏	-10.7337
服衰麻	-10.7337
纎	-10.7337
衣裳	-10.7337
鄕	-10.7337
暇	-10.7337
弟故順可移於長居家理故治可移於官	-10.7337
虚耗	-10.7337
太牢也	-10.7338
移風易俗	-10.7338
剪	-10.7338
先王見敎之可以化民也	-10.7338
司冦	-10.7338
孝者百行之本	-10.7338
講堂	-10.7338
下及於臣妾	-10.7338
何承天	-10.7338
則亦謂此也	-10.7338
手足	-10.7338
涉	-10.7338
紫	-10.7338
華蟲	-10.7338
一錢之錐	-10.7338
悱	-10.7338
捐	-10.7338
曉	-10.7338
羣儒	-10.7338
蹻	-10.7338
齊牛	-10.7338
畆	-10.7338
不亂也	-10.7338
事父母之孝	-10.7338
曽子辟席曰參不敏何足以知之	-10.7338
髙而不危所以長守貴	-10.7338
殞滅	-10.7338
家國	-10.7339
俯	-10.7339
雖得之君子不貴也	-10.7339
垂訓	-10.7339
醫	-10.7339
麤	-10.7339
者無不敬其君也	-10.7339
熙	-10.7339
非道	-10.7339
不能外之以爲	-10.7339
十一章	-10.7339
立也	-10.7339
亦可	-10.7339
三老五更	-10.734
燼	-10.734
不食三日	-10.734
穿鑿	-10.734
𢎞	-10.734
宅墓穴也兆塋域也	-10.734
踳駮尤甚	-10.734
五者闕一	-10.734
無二尊	-10.734
不敢奢侈	-10.734
係	-10.734
千乘之國	-10.734
又何待	-10.734
四卷	-10.734
國子祭酒	-10.734
峻	-10.734
恬	-10.734
慈以㫖甘	-10.734
桓譚新論	-10.734
準	-10.734
甘㫖	-10.734
發乎情	-10.734
纓	-10.734
行於世	-10.734
儆	-10.734
諸侯卿大夫士	-10.734
侃云	-10.734
與天地參	-10.734
局	-10.734
刈	-10.734
替	-10.734
哀痛之極	-10.734
神祇	-10.7341
無生親可事	-10.7341
營護	-10.7341
男踊女擗祖載送之	-10.7341
瘝	-10.7341
蕃	-10.7341
東晉	-10.7341
少牢	-10.7341
能全其性	-10.7341
悖補對反	-10.7341
而況於妻子乎	-10.7341
敖	-10.7341
是故行成於内而名立於後世矣	-10.7341
敬一人而千萬人	-10.7342
有特	-10.7342
寕	-10.7342
不敢失於臣妾	-10.7342
制禮作樂	-10.7342
駮	-10.7342
淑人君子	-10.7342
尉	-10.7342
過差	-10.7342
拱	-10.7342
盗賊	-10.7342
赦	-10.7342
合愛敬而	-10.7342
吏之賤者也	-10.7342
和悅	-10.7342
嶽如	-10.7342
必見其	-10.7342
故曰彰也	-10.7342
棣	-10.7342
流於外	-10.7342
海而凖推而放諸	-10.7342
焉徐而察之始悟胡公之言為信而孝經	-10.7342
爼	-10.7342
犧牲	-10.7342
閒暇	-10.7342
養庻老於	-10.7342
駭	-10.7342
普	-10.7342
謹身節用以養父母	-10.7342
宛	-10.7342
起䖍反	-10.7342
然後能推之	-10.7342
予一人	-10.7343
所生謂父母	-10.7343
肇	-10.7343
俸	-10.7343
儆戒	-10.7343
夭折	-10.7343
容止威儀	-10.7343
撤膳	-10.7343
疑孝經引詩非經本文	-10.7343
裏	-10.7343
遺忘	-10.7343
洋洋乎	-10.7343
▁好呼報反	-10.7343
因嚴以教敬因親以教愛	-10.7343
之令	-10.7343
盛黍稷	-10.7343
參聞命矣敢問從父之令可謂孝乎	-10.7343
親謂父母也	-10.7343
扶問反	-10.7344
毓	-10.7344
無過之地	-10.7344
道音導	-10.7344
酉	-10.7344
一人有慶兆民賴之	-10.7344
東房	-10.7344
僉	-10.7344
亞	-10.7344
之歸功於	-10.7344
制作事業動得物宜故可法也	-10.7344
散騎常侍	-10.7344
癘	-10.7344
科斗	-10.7344
而推其愛敬於一家	-10.7344
順帝之則	-10.7344
青	-10.7344
在身即有	-10.7344
祭則致其嚴	-10.7344
矢	-10.7344
於士民乎故得百姓之懽心以事其先君	-10.7344
十三字	-10.7344
進退周旋	-10.7344
繇音由	-10.7344
鈍	-10.7344
規矩	-10.7344
孫氏	-10.7344
勝音升	-10.7344
任賢	-10.7345
!」	-10.7345
二十四字	-10.7345
人心天理	-10.7345
居廬	-10.7345
程答書曰頃見	-10.7345
苗	-10.7345
裘葛	-10.7345
誘	-10.7345
偯於豈反	-10.7345
凡十一字古文同在	-10.7345
因論武王周公之事而	-10.7345
袍	-10.7345
弱	-10.7345
詩云戰戰兢兢如臨深淵如履薄氷	-10.7345
髦	-10.7345
則復諫	-10.7345
濫觴於漢	-10.7345
鐘鼓	-10.7346
不匱	-10.7346
長孫氏博士江翁少府后	-10.7346
兮	-10.7346
而後求諸人	-10.7346
亦是就	-10.7346
佞	-10.7346
歴世	-10.7346
約文敷暢義則昭然	-10.7346
者引詩大意如此	-10.7346
韶	-10.7346
之意當為傳之	-10.7346
六年	-10.7346
謹守法度	-10.7346
嚚	-10.7346
和順以從衆也	-10.7347
儼恪	-10.7347
孟反	-10.7347
弛	-10.7347
事親者居上不驕為下不亂在醜不	-10.7347
禮不	-10.7347
父母生之續莫大焉	-10.7347
入室	-10.7347
周室	-10.7347
分析	-10.7347
孔氏壁中古文	-10.7347
有不安節	-10.7347
返	-10.7347
旗	-10.7347
溝	-10.7347
莫覺其非至或以為孔子之	-10.7347
進飲食	-10.7347
至要之義	-10.7348
禮主於敬	-10.7348
牆	-10.7348
甞	-10.7348
曽子曰敢問聖人之徳其無以加於孝乎	-10.7348
顯思	-10.7348
祖禹所説	-10.7348
章裳繡	-10.7348
齊側	-10.7349
以事母則愛	-10.7349
敬其君則臣悅	-10.7349
養去聲	-10.7349
兒	-10.7349
榮華	-10.7349
祖襧	-10.7349
藩	-10.7349
韓嬰	-10.7349
三卷	-10.7349
中于事君	-10.7349
僣	-10.7349
刪數也字增子曰字	-10.7349
則衆不	-10.7349
后稷周之始祖也郊謂圜丘祀天也周	-10.7349
敬其兄則弟悅	-10.7349
相連	-10.7349
示之以好惡	-10.7349
韋昭王肅先儒之領	-10.7349
不在於善而皆在於凶德	-10.735
照臨	-10.735
以順則逆民無則焉不在於善而皆在於	-10.735
尙	-10.735
减	-10.735
迨	-10.735
四鄰	-10.735
?」	-10.735
各順其	-10.735
大夫以上皆	-10.735
旒衣㑹	-10.735
爭居上而驕則亡	-10.735
送終	-10.735
將來	-10.7351
詆毁	-10.7351
皮弁	-10.7351
苟利	-10.7351
詎	-10.7351
唐明皇御注陸德明音義宋邢昺疏	-10.7351
太卜	-10.7351
孔光	-10.7351
孝爲百行之本	-10.7351
必有酒肉	-10.7351
不近兵刑	-10.7351
之也敬以	-10.7351
僖公	-10.7351
焉知其能	-10.7351
無父無君	-10.7351
祈榖	-10.7351
羊尙反	-10.7351
貴賤之等	-10.7351
長上聲行去聲	-10.7351
居家理	-10.7352
小國之臣謂	-10.7352
宮	-10.7352
親之遺體	-10.7353
立身揚名	-10.7353
謨	-10.7353
恪	-10.7353
祼	-10.7353
董君	-10.7353
藹	-10.7353
分昭穆	-10.7353
天子七廟	-10.7353
往往	-10.7353
殿	-10.7353
畔亂	-10.7353
登歌	-10.7353
秩然	-10.7353
與父同	-10.7353
近於文	-10.7353
哀毁	-10.7353
長㓜順	-10.7354
弟大計反	-10.7354
歆享	-10.7354
太宰	-10.7354
刀反	-10.7354
君子不貴	-10.7354
父母之恩	-10.7354
副	-10.7354
不危不溢	-10.7354
校定	-10.7354
而和其民人	-10.7354
由是觀之	-10.7354
百年者	-10.7354
睿	-10.7354
比干	-10.7354
則不祥也	-10.7354
導之以禮樂	-10.7354
昏亂	-10.7355
天下和平	-10.7355
四輔	-10.7355
席而坐	-10.7355
更有大於孝否	-10.7355
河間人顔芝	-10.7355
示不敢専	-10.7355
以始祖后稷配	-10.7355
凥	-10.7355
小功	-10.7355
相識	-10.7355
在醜不爭	-10.7356
守業	-10.7356
行思可樂	-10.7356
昭著	-10.7356
温公	-10.7356
生民之本	-10.7356
煇	-10.7357
班固	-10.7357
宗廟社稷	-10.7357
天子之禮樂	-10.7357
思慮	-10.7357
諷諫	-10.7357
者不敢言人	-10.7357
事親事君	-10.7357
全體	-10.7358
來格	-10.7358
名章次	-10.7358
經二十	-10.7358
西方	-10.7358
請業	-10.7358
每事	-10.7358
要脅	-10.7358
赫赫明盛	-10.7358
寓	-10.7358
長幼之節	-10.7359
祭則鬼享之	-10.7359
介僎	-10.7359
子思曰	-10.7359
素服	-10.7359
冬夏	-10.7359
此之謂要道也	-10.7359
生民之本盡矣	-10.736
上下治	-10.736
則一也然則	-10.736
劇	-10.736
太宰純	-10.736
治國之道	-10.736
辭也	-10.7361
無優劣	-10.7361
食饗	-10.7361
敎之所由生也	-10.7361
聲音	-10.7362
呂刑	-10.7362
云云	-10.7363
子産	-10.7363
禍敗	-10.7363
五味	-10.7363
以順移忠之道昭矣立身揚名之義彰矣	-10.7363
百穀	-10.7363
皆格言	-10.7364
孝悌禮樂	-10.7364
為天子服	-10.7365
禍患	-10.7366
〇	-10.7366
人則雖無道亦可以不失其	-10.7366
犯顔	-10.7367
大昕	-10.7367
以其祖配	-10.7367
啓蟄	-10.7367
盛德	-10.7367
附庸	-10.7368
示民有終也	-10.7368
歎美	-10.7368
親疎	-10.7368
宜其家人	-10.7368
夫聖人之德又何以加於孝乎	-10.7369
世婦	-10.7369
為下不亂	-10.737
兩字	-10.737
如水之	-10.737
長短	-10.737
而行其政令	-10.737
其功徳	-10.737
也雖然	-10.7371
相接	-10.7371
古文二十二章	-10.7371
至隋	-10.7371
事君之禮	-10.7371
有禮而順	-10.7371
醜類	-10.7372
追孝	-10.7372
慝	-10.7373
德要道以順天下民用和睦上下無怨	-10.7373
守法	-10.7373
從容	-10.7374
必有諍臣	-10.7374
海外	-10.7374
敬其身	-10.7374
躬耕	-10.7374
在西	-10.7374
江西	-10.7374
卜郊	-10.7374
凡三王	-10.7375
葢當時	-10.7375
妻子臣妾	-10.7376
義已	-10.7376
則天因地	-10.7376
徳義敬讓禮樂好惡	-10.7377
感化	-10.7377
乎其間	-10.7378
匡正	-10.7378
以是三者	-10.7378
以敬為主	-10.7378
讀書	-10.7378
喪親章	-10.7379
義曰云	-10.7379
是其義也	-10.7379
使其臣	-10.7379
總要	-10.7379
孰能	-10.738
孝子不為也	-10.738
郊禘	-10.738
出之故	-10.738
母之心	-10.7381
聲容	-10.7381
非先王之德行不敢行	-10.7381
疑其	-10.7381
之類是也	-10.7381
四支	-10.7382
放此	-10.7383
武王周公	-10.7383
無聲之樂氣志既	-10.7384
原本	-10.7384
意方	-10.7385
數處	-10.7385
哀嚴	-10.7385
子之行也	-10.7385
知禁	-10.7386
憲副	-10.7386
日月東西	-10.7388
之制禮也	-10.7389
漢書	-10.7389
無迹	-10.7389
敬敬者	-10.7389
所敬者寡而悦者衆此之謂要道也	-10.7389
父母也	-10.7389
莫貴於	-10.739
取於事父之	-10.739
不可不慎也	-10.7391
尊其父	-10.7391
文王不	-10.7391
舉賢	-10.7392
建國	-10.7392
精神	-10.7393
胄子	-10.7393
立功	-10.7393
獻王	-10.7394
設位	-10.7394
入於	-10.7394
不敢忘其親也	-10.7395
君而	-10.7395
劉炫本	-10.7396
貴徳而	-10.7396
聖人順	-10.7396
不肖者	-10.7396
相對	-10.7397
皆本于	-10.7397
數十	-10.7399
救其惡	-10.7399
德行	-10.7399
君子之事上也	-10.7399
𤼵明	-10.7399
呉澄曰	-10.74
而知	-10.74
君子之徳	-10.74
丈夫	-10.74
或云宜	-10.7401
天寳	-10.7401
告於廟	-10.7401
雖殊	-10.7402
舜命	-10.7403
有未盡也	-10.7403
五月	-10.7403
哭泣之	-10.7404
律反	-10.7407
强之	-10.7407
不得行其	-10.7407
爲孝乎	-10.7407
其祖考也	-10.7408
入告	-10.7409
情理	-10.7409
因依	-10.7411
言先王	-10.7412
之行也夫	-10.7413
守位	-10.7413
五聲	-10.7413
也惟	-10.7414
不相襲	-10.7415
亂不	-10.7415
其效如此	-10.7415
稱周公	-10.7416
地利也	-10.7417
前世	-10.7417
禮乎曰	-10.7417
若指	-10.7417
已具	-10.7418
先帝	-10.7418
簡明	-10.7418
無擇	-10.742
大禹	-10.742
百順	-10.7422
則天之明	-10.7422
初學	-10.7423
雖賤	-10.7423
以来	-10.7424
多寡	-10.7424
六字	-10.7425
二者皆	-10.7425
過制	-10.7427
有誅	-10.7427
前賢	-10.7428
天地之間	-10.7428
無識	-10.7429
小國之	-10.7429
哀以送之	-10.7431
者無	-10.7431
㫖不甘此哀戚之情也	-10.7431
之身	-10.7432
一體	-10.7432
九十者	-10.7432
古文句	-10.7433
天之經也	-10.7433
可以語孝	-10.7433
鄒氏	-10.7433
曰忠	-10.7434
則分	-10.7434
謂孝	-10.7435
之所共	-10.7435
無隠	-10.7436
解釋	-10.7438
本紀	-10.7438
制度	-10.7439
意思	-10.744
感應之	-10.744
及於天下	-10.7441
諸侯之卿	-10.7442
九月以	-10.7442
所以示	-10.7442
二廟	-10.7442
之後而	-10.7442
敢於	-10.7444
當不義則爭之從父之令又焉得為孝乎	-10.7444
安置	-10.7444
親死	-10.7444
吾之	-10.7444
所以為孝也	-10.7445
北反	-10.7445
云子夏	-10.7446
者古人	-10.7446
日日	-10.7446
正故	-10.7446
本天	-10.7446
非徒	-10.7447
之難也	-10.7448
皇帝	-10.7449
異宫	-10.7449
思成	-10.745
生死	-10.745
教誨	-10.745
送之	-10.7451
仲尼閒居曽子侍坐子曰參先王有至	-10.7452
恐辱先也	-10.7453
地事天	-10.7454
以天下為	-10.7455
致治	-10.7455
私家	-10.7455
三王之	-10.7455
於卿大夫	-10.7456
長也	-10.7457
乃説	-10.746
弔於	-10.7461
王朝侯國之	-10.7463
生民	-10.7463
有以異	-10.7463
者也然則	-10.7463
士有爭友	-10.7465
及其長	-10.7465
名章	-10.7465
得百姓之懽心	-10.7465
殺身	-10.7465
愛敬哀	-10.7466
得失	-10.7467
必哀	-10.7467
則免	-10.7467
各異	-10.7468
節用	-10.7469
於東序	-10.747
孰大	-10.747
孔鄭	-10.747
倡之	-10.7472
也援神契云	-10.7472
則有功	-10.7474
古書之	-10.7474
夫人薦	-10.7474
小大	-10.7475
其父兄	-10.7476
有餘也	-10.7476
不作	-10.7476
所習	-10.7476
平日	-10.7478
不貳	-10.7478
全無	-10.7479
加于	-10.748
有徳	-10.748
子姓	-10.7484
養志亦	-10.7485
焉夫	-10.7486
一氣	-10.7488
于偽反	-10.7489
殺一	-10.749
出則	-10.749
四賢	-10.749
而施	-10.7491
升降	-10.7491
可久	-10.7492
皆孝也	-10.7493
當盡	-10.7494
之非	-10.7494
臣庶	-10.7494
五等之孝	-10.7495
分别	-10.7495
三百	-10.7496
所謂致其	-10.7496
者衆也	-10.7497
以天下養	-10.7499
苟無	-10.75
不治	-10.75
天子至尊	-10.75
亂者則	-10.75
各自	-10.7501
自反也	-10.7502
之倫	-10.7502
五帝時	-10.7503
則諸侯	-10.7504
與著	-10.7504
性命	-10.7505
精深	-10.7505
可以為孝矣	-10.7505
十飬於	-10.7506
乎盖	-10.7506
自周公	-10.7506
之憂	-10.7508
耤田	-10.7509
甫刑曰	-10.7509
原隰	-10.751
大道	-10.7511
三復	-10.7511
答曰	-10.7512
服勤	-10.7512
和而	-10.7512
來助祭也	-10.7512
保傅之	-10.7512
為下而	-10.7512
詬劉炫	-10.7512
知所以為人	-10.7513
衣食	-10.7514
以嚴	-10.7516
故當不義則子不可以不	-10.7516
王有	-10.7518
文理	-10.7518
以充	-10.7519
者居	-10.752
其類也	-10.7521
二家	-10.7523
人而人	-10.7523
適子	-10.7523
體也	-10.7525
順是	-10.7525
三牲太牢也	-10.7527
秋嘗	-10.7528
周公攝政	-10.7529
假曾子	-10.7531
君執	-10.7531
苟非	-10.7532
一家之	-10.7534
分之	-10.7534
至順而	-10.7536
夫是則	-10.7537
不越	-10.7537
之所致也	-10.7539
士相見	-10.754
列爵	-10.7543
廵守至於	-10.7543
也王肅	-10.7544
其社稷	-10.7544
孝作忠	-10.7546
語録	-10.7548
言孝子	-10.755
其政	-10.7551
侍立	-10.7552
詩云豈弟君子民之父母	-10.7552
其大也	-10.7552
等事	-10.7552
聖門	-10.7553
孝經唯	-10.7553
不樂	-10.7554
移孝	-10.7554
小子	-10.7555
皆由	-10.7555
忠而能	-10.7555
尊卑之分	-10.7557
而有禮	-10.7558
不弔	-10.7558
曰神	-10.7559
流行	-10.756
民法之	-10.7566
者敬	-10.7569
一舉	-10.757
朱氏所	-10.757
傷膚	-10.757
以承	-10.7571
當其	-10.7571
七月	-10.7571
官人	-10.7573
而不犯	-10.7573
逺其	-10.7573
興行	-10.7574
博愛也	-10.7575
言孝行	-10.7576
其經文	-10.7576
六家	-10.7578
非唯	-10.7578
亦不敢	-10.7578
所以表	-10.7579
見於外	-10.758
也患	-10.758
得志	-10.7581
五室	-10.7581
即位而	-10.7581
夫音	-10.7582
祭服	-10.7585
六反	-10.7587
使父	-10.7587
發言	-10.7588
之敬	-10.759
施於人	-10.7591
其始於	-10.7594
以禮樂而民和睦示之以好惡而民知禁	-10.7594
在郊	-10.7596
十一字	-10.7596
非經文	-10.7598
貌也	-10.76
可否	-10.76
諸生	-10.7601
視學	-10.7602
誤然	-10.7602
豉反	-10.7604
日中	-10.7604
而安之	-10.7608
兼用之	-10.7608
刑以	-10.7609
乃得	-10.7611
取法也	-10.7611
赫赫明盛貌	-10.7612
子曰夫孝德之本也	-10.7613
人之志	-10.7613
樂正	-10.7613
以盡其	-10.7614
父道也	-10.7614
諸臣	-10.7615
喪之	-10.7617
可乎	-10.7619
天則	-10.7621
為天子者	-10.7622
後代	-10.7624
而降	-10.7624
死亡	-10.7624
百乗	-10.7625
為敬	-10.7626
先務	-10.7626
必由	-10.7628
庶人之孝也	-10.763
盛服	-10.763
二本	-10.7631
盛徳	-10.7632
是效	-10.7633
其功	-10.7637
志在	-10.7637
曾子曰敢問聖人之	-10.7637
必致	-10.7638
天地父母	-10.7643
故聖	-10.7644
説經	-10.7644
而名	-10.7645
與古文	-10.7646
非立	-10.7649
所獻	-10.765
聘問	-10.7651
天理	-10.7651
父母在	-10.7656
斷其	-10.7656
外朝	-10.7657
日旦思其	-10.7658
在地	-10.766
而不用	-10.7662
反質	-10.7662
不時則	-10.7663
子字	-10.7664
明也	-10.7667
敬哀	-10.7669
指其	-10.7671
則可謂	-10.7671
答曾子	-10.7673
可觀	-10.7674
天地日	-10.7676
朝聘	-10.7679
己之	-10.7686
封之	-10.7687
徳禮也	-10.7687
其大者	-10.7689
不中	-10.769
辨也	-10.769
死刑也	-10.769
其誼	-10.7696
斯有	-10.7696
爵賞之	-10.7698
於西	-10.77
於太廟	-10.77
而死	-10.7701
莫大於	-10.7704
既封而弔	-10.7704
求其	-10.7705
劉炫曰	-10.7706
而祔	-10.7706
乃心	-10.7707
為是	-10.7707
以孝事	-10.7707
以言行	-10.7709
徳化	-10.771
也月	-10.7711
三才章	-10.7711
禀命	-10.7713
傳文而	-10.7713
則不正	-10.7715
聖人制	-10.7715
保全	-10.7716
賞而	-10.7719
無不足	-10.7719
合禮	-10.7723
也此言	-10.7725
説文所引	-10.7725
以父配天	-10.7726
别有	-10.7727
有親	-10.7727
神明之道	-10.773
中和之	-10.7731
也右第	-10.7732
不指	-10.7733
誠有	-10.7735
乃孝經之傳也竊嘗考之傳文固	-10.7735
言之非	-10.7736
既見	-10.7737
失而	-10.7737
小國	-10.7739
禮誼	-10.7741
要君非聖	-10.7742
先於	-10.7743
微賤	-10.7744
不封	-10.7744
以彰	-10.7744
教以孝	-10.7748
至忠	-10.7749
以結之	-10.7752
能固	-10.7753
以匡	-10.7754
之所謂	-10.7755
誠心	-10.7756
孔子之	-10.7757
九曰	-10.7757
乃立	-10.7758
者卽	-10.7758
君子之所謂孝者	-10.7759
則能保其	-10.7759
孝之終也	-10.7759
動於	-10.776
有四	-10.776
父母存	-10.776
君臣之誼	-10.7763
救其	-10.7763
令善也	-10.7764
非傷	-10.7766
自舜	-10.7766
過失	-10.7767
三讓	-10.7768
端緒	-10.777
為不孝	-10.777
墨者	-10.7772
而篤	-10.7772
也不然則	-10.7772
親疏	-10.7774
立其身	-10.7775
聖人所	-10.7775
母有	-10.7776
也然亦	-10.7777
而用之	-10.7777
家而	-10.7778
語曰	-10.778
致其哀祭則致其嚴五者備矣然後能事	-10.778
十月而	-10.7781
得民	-10.7783
其所不能	-10.7783
樂易	-10.7785
安其	-10.7786
爲始	-10.7787
致敬而	-10.7787
也猶	-10.7787
亦如之	-10.7787
故孝者	-10.7788
自内	-10.7788
臣之節	-10.7788
兼愛	-10.7788
宜為	-10.779
而天下自	-10.7793
大之	-10.7794
删去	-10.7795
康成	-10.7795
以相	-10.78
神人	-10.7802
有序	-10.7803
殷周之	-10.7808
孝經集傳	-10.7808
而好	-10.781
配天之	-10.7811
則可謂孝矣	-10.7812
逺於	-10.7813
而恭	-10.7813
不過如此	-10.7814
下猶	-10.7817
有兄	-10.7821
非學	-10.7824
父與	-10.7826
祭禮	-10.7828
傳稱	-10.7829
徳性	-10.7831
立而不	-10.7833
無知	-10.7834
曰祀	-10.7838
非先王	-10.784
君好	-10.7841
淑慎	-10.7844
變色	-10.7846
人之情	-10.7847
而各	-10.7849
曾子言	-10.7849
庶人之	-10.7849
而何	-10.7851
至親	-10.7852
能行孝	-10.7854
仲尼曰	-10.7854
代以	-10.7856
和之	-10.7856
父母之喪	-10.7856
而非	-10.7859
名山	-10.786
者所以	-10.786
能相親也	-10.7861
而從之	-10.7861
萬世而	-10.7862
無闕	-10.7863
忘也	-10.7863
與時	-10.7863
浪反	-10.7864
功成	-10.7869
三日則	-10.7869
周官	-10.787
彝	-10.7872
立身者	-10.7872
故曰要道	-10.7873
一通	-10.7874
鄉人	-10.7875
也易曰	-10.7877
之儀	-10.7882
二子	-10.7882
篇引此以	-10.7884
行此道	-10.7885
之動	-10.7886
至於四方	-10.7889
必果	-10.789
止不	-10.7893
親之志	-10.7896
焉一曰	-10.7899
名有五	-10.7902
凡祭	-10.7902
言慈	-10.7903
不敢遺	-10.7903
而去	-10.7905
無非	-10.7906
君子之言	-10.7907
也民無不為	-10.7907
其制	-10.7908
夫如是	-10.7909
之所知	-10.7912
得則	-10.7918
内之	-10.7919
也以其	-10.7919
事君之道	-10.7928
欲其	-10.793
享也	-10.7931
之中而	-10.7932
為身也	-10.7933
無學	-10.7934
門人所記	-10.7935
莫有	-10.7935
於庶人	-10.7937
問之	-10.7942
不可不	-10.7943
物皆	-10.7943
性本	-10.7943
祭之日	-10.7944
夫亦	-10.7945
長守	-10.7945
必當	-10.7946
則否	-10.7946
禮義以	-10.7946
第六	-10.7947
矣未	-10.7948
君不	-10.7949
失其本	-10.795
覺大也	-10.795
乃為	-10.795
分而	-10.7952
焉此	-10.7955
不幸	-10.7956
君喪	-10.7966
從父	-10.7967
性之	-10.7969
故字	-10.797
故凡	-10.797
衰矣	-10.7971
自治	-10.7972
第二	-10.7974
耳目之	-10.7976
乃爲	-10.7978
何日	-10.7979
考之	-10.798
者據	-10.798
無終始	-10.7983
以飾	-10.7986
立廟	-10.7986
於墓	-10.7987
須去	-10.7989
禮之大	-10.7992
以是	-10.7996
值其	-10.7998
五等國君	-10.7999
以事父	-10.7999
此總結	-10.7999
以日月	-10.8003
大體	-10.8004
之所生也	-10.8004
民治	-10.8005
子㳺	-10.8006
云王	-10.801
爲士	-10.801
同類	-10.8014
黄帝	-10.8014
在口	-10.8014
有分	-10.8017
為庶人	-10.8018
故經	-10.8018
循率	-10.8018
君子能	-10.8018
有六	-10.8019
亦多	-10.8021
弟弟	-10.8021
則近於	-10.8022
孝經本	-10.8027
之劉	-10.8027
於徳	-10.8031
百姓之	-10.8032
兄則	-10.8032
不能自己	-10.8034
所有	-10.8038
得人之	-10.8043
君子弗	-10.8043
諫爭之	-10.8044
幸而	-10.8045
則觀其	-10.8046
敬同	-10.8048
則兆民	-10.8051
五服	-10.8053
陳列	-10.8053
三日	-10.8053
大節	-10.8053
風也	-10.8059
六者	-10.8059
易稱	-10.806
和也言	-10.8063
居人	-10.8064
非聖	-10.8065
皆作	-10.8066
社之	-10.8067
始之	-10.8067
大臣不	-10.8069
其語	-10.8073
則是以	-10.8073
其孝	-10.8073
能保	-10.8078
其化	-10.8079
夷子	-10.808
後有	-10.8085
謂之郊	-10.8086
守正	-10.8086
乎以此之故	-10.8089
樂則	-10.8091
其有	-10.8093
為君而	-10.8094
為祖	-10.8097
闕文	-10.8102
以正之	-10.8107
府史	-10.8107
動之	-10.811
此聖人之政也	-10.8113
百體	-10.8116
死不	-10.812
下矣	-10.8121
衣之	-10.8125
最貴	-10.8128
不滅	-10.8129
者猶	-10.813
具也	-10.8132
其人則	-10.8133
餘年	-10.8133
舉此	-10.8135
自然之道	-10.8135
可不敬	-10.8136
食則	-10.8137
也非為	-10.8138
致親之	-10.8139
為百姓	-10.8143
不多	-10.8144
君子務	-10.8147
大夫是	-10.8148
土宜	-10.8148
弟也	-10.8148
絶也	-10.8153
有従	-10.8156
述而	-10.8156
也斯	-10.8159
若親	-10.8162
子曰孝子之事親也	-10.8162
於禮	-10.8164
敬親者	-10.8165
之祭祀	-10.8167
得人之懽心以事其親	-10.8169
篇云	-10.8169
之賜	-10.8175
刑法	-10.8176
文王配	-10.8176
子曰閨門之内具禮	-10.8178
化也	-10.8178
民性	-10.818
葬地	-10.818
敬慎	-10.8181
損之	-10.8183
以助	-10.8186
不終	-10.8189
以徳	-10.8191
宗廟致敬不忘親也修身慎行恐辱先也	-10.8192
慮其	-10.8197
所以終始	-10.8198
顯親之	-10.8206
説以	-10.8208
子有	-10.8209
辭以	-10.8212
偯禮無容言不文服美不安聞樂不樂食	-10.8213
不失則	-10.8213
逺者	-10.8213
取焉	-10.8216
鷩冕	-10.8219
也聖	-10.8219
必思	-10.822
此承	-10.8222
有明	-10.8223
以類	-10.8227
則君子	-10.8229
為仁	-10.8232
相親也	-10.8234
而致之	-10.8235
過是	-10.8237
充之	-10.8237
止於	-10.8237
卿士大夫	-10.8239
凡為臣	-10.824
是以不	-10.8242
所由	-10.8242
人之為	-10.8244
而道不著	-10.8245
則無怨	-10.8249
忠愛之心	-10.825
以迎	-10.825
信之	-10.8252
詳其	-10.8253
盡敬	-10.8259
也百姓	-10.8264
即所謂	-10.8265
子曰孝子之喪親也	-10.8265
御也	-10.8266
而後能	-10.8269
守其	-10.8269
其父兄君	-10.8272
為孝子	-10.8272
何謂也	-10.8274
而驕則亡為下而亂則刑在醜而争則兵	-10.8277
蓋是	-10.828
其隂陽	-10.8282
不聞於	-10.8283
惡在	-10.8283
一人而已	-10.8285
傷其	-10.8287
明王不	-10.8288
祭曰	-10.8291
言之其	-10.8296
者以此	-10.8299
治家者不敢失於臣妾而况於妻子乎	-10.83
二月	-10.8301
子乎	-10.8303
於王	-10.8303
以化	-10.8306
而已故	-10.8307
安君	-10.8308
萬物之	-10.8313
親之道	-10.8315
聴者	-10.8316
則固	-10.8316
推廣	-10.8323
大於	-10.8323
之化	-10.8328
杜	-10.8328
日也	-10.833
者順	-10.8331
人人	-10.8333
有未	-10.8334
未免	-10.8338
行其	-10.8338
其私	-10.8338
嚴之	-10.8341
大行	-10.835
治家者不敢失於臣妾而況於妻子乎	-10.835
備言	-10.835
故當不義則子	-10.8352
一卷宋	-10.8352
則安	-10.8361
與天地	-10.8362
惟恐	-10.8362
之而無	-10.8372
亦謂之	-10.8372
易其	-10.8375
懽心而	-10.8378
下方	-10.8379
墨氏之	-10.8381
成信	-10.8381
祕	-10.8383
焉以	-10.8386
守身	-10.8386
治外	-10.8395
必不可	-10.8395
孝而後	-10.8395
也朕	-10.84
也五	-10.8401
必求	-10.8401
而守其祭祀葢士之孝也	-10.8403
德者	-10.8403
成化	-10.8405
也何為	-10.8408
之有然則	-10.8411
相怨	-10.8412
樂記曰	-10.8416
地之義也	-10.8418
王子	-10.8418
先王之道	-10.8419
可行	-10.8423
不解	-10.8424
國老	-10.8429
不惟	-10.8431
當是	-10.8434
九章	-10.844
非其人	-10.8445
微言	-10.8456
昆弟	-10.8458
小人之	-10.846
於其家	-10.8461
反始	-10.8462
凡四	-10.8468
琴瑟	-10.847
道誼	-10.847
舊説	-10.847
五帝則	-10.8473
是教	-10.8474
養志	-10.8478
播於	-10.8479
所欲	-10.8479
成也	-10.848
慢之	-10.8498
不忘其親	-10.8499
而敢要	-10.8501
豈非	-10.8502
桓桓	-10.8503
之㫖者	-10.8504
治天下之	-10.8504
利也	-10.8506
不離於	-10.8506
國有	-10.8511
于道	-10.8513
資敬	-10.8518
不踰	-10.8518
致其敬	-10.8522
書云	-10.8523
義之	-10.8525
長幼順故上下治天地明察神明彰矣	-10.8526
十二章	-10.8527
之親	-10.8528
能盡忠順以事君長則	-10.8531
隨其	-10.8532
同治直吏反	-10.8533
長㓜順故上下治天地明察神明彰矣	-10.8535
助之	-10.8542
天有常明	-10.8544
出於口	-10.8547
刑名	-10.8547
蓋卿大夫之孝也	-10.8549
也此則	-10.8553
尚書云	-10.8554
者孝子	-10.8554
此乎	-10.8557
自致	-10.8558
居於	-10.8559
與前	-10.8562
使子	-10.8562
于是	-10.8563
治亂之	-10.8564
五教	-10.8564
爭者	-10.8567
之才	-10.857
無宜	-10.8577
祭其	-10.8577
等謹案孝經	-10.858
而稱	-10.8582
可謂大	-10.8583
補之	-10.8588
愛親敬	-10.8589
季文子	-10.859
有條	-10.8591
人性	-10.8594
亂而	-10.8596
不敢私	-10.8598
者而後	-10.8605
日月而	-10.8607
與我	-10.8609
而急	-10.8611
徳義	-10.8612
不引	-10.8614
章後古	-10.862
其内	-10.8621
而推	-10.8622
錯經	-10.8622
之人也	-10.863
淑善也忒差也	-10.8631
美善	-10.8631
已有	-10.8634
爲之	-10.8635
祀先	-10.8636
者若	-10.8638
有至	-10.8644
非鄭	-10.8645
夀	-10.8649
在國之	-10.865
忘親	-10.865
焉故	-10.8652
生民之	-10.8654
諸侯能行孝理得所統之懽	-10.8657
曰命	-10.8659
推一	-10.8659
海内	-10.866
五祀	-10.8664
桀紂	-10.8664
焉盡其	-10.8671
防之	-10.8677
前有	-10.8679
斯其	-10.8679
者莫	-10.8685
也皇侃云	-10.8685
訓之	-10.8685
則亂升	-10.8686
將順其美匡救其惡故上下能相親詩	-10.8689
皆在	-10.8689
當如是也	-10.8689
其知	-10.8692
而不忠	-10.8694
只	-10.8695
言不善	-10.8698
朝覲	-10.87
除之	-10.87
敎不肅而成其政不嚴而治	-10.8709
曰朱氏	-10.871
大故	-10.8712
庶民	-10.8712
上下和	-10.8715
託於	-10.8722
不敬而	-10.8722
亂之	-10.8722
畏天	-10.8725
之經	-10.8725
而上	-10.8725
不任	-10.8725
無以為	-10.8727
不使	-10.8728
禮有	-10.8729
亦無所	-10.8732
百姓不	-10.8735
曰考廟曰王考廟曰	-10.8738
皇考廟	-10.8738
初為	-10.8739
性教	-10.8739
也斬衰	-10.8741
不除	-10.8745
不吉	-10.8746
也周	-10.8747
所受於天	-10.8753
禮於	-10.8753
器用	-10.8757
理一	-10.8759
山之	-10.8761
天下之心	-10.8763
明乎	-10.8763
及扵	-10.8769
故此	-10.8773
至教	-10.8776
昵	-10.8776
以養父母	-10.8776
異哉	-10.8779
至親也	-10.878
法言不敢道非先王之徳行不敢行	-10.8781
久矣	-10.8781
南鄉	-10.8782
人與	-10.8782
中制	-10.8787
終是	-10.8789
邢氏	-10.8791
下則	-10.8798
爾也	-10.88
盡善	-10.8801
無從	-10.8805
五孝之	-10.8805
莫大焉	-10.8806
無二	-10.881
不誼	-10.8814
言從	-10.8819
無上也	-10.882
治國	-10.8821
理則	-10.8822
従之	-10.8823
所行	-10.8826
為貴也	-10.8827
之非也	-10.8828
四國	-10.8831
之所以治天下	-10.8833
𨽻	-10.8834
皆言	-10.8842
明則	-10.8854
聞之	-10.8854
存而	-10.8855
之來	-10.8857
者或	-10.8858
句而	-10.8862
其卿大夫士	-10.8865
天時	-10.8867
不易之	-10.8869
此其	-10.8869
子服	-10.8875
子為	-10.8878
夫猶	-10.8879
靡有	-10.8885
家庭	-10.8889
以使下	-10.8896
於祭	-10.8897
比也	-10.8905
至孝之	-10.8905
處則	-10.8907
貎也	-10.8907
大夫士有	-10.8907
案左傳	-10.8914
陸費墀欽定四庫全書孝經	-10.8917
教以孝所以敬天下之為人父者也教以	-10.8918
言弗	-10.8919
於民也	-10.8922
反於	-10.8924
敬養	-10.8928
言天子	-10.8929
重也	-10.8931
百王	-10.8932
之頃	-10.8932
愛以	-10.8933
周公其人	-10.8934
天之道因地之利謹身節用以養父母此	-10.8936
威而	-10.8937
危亡	-10.8943
信其	-10.8945
為逆	-10.8948
中而	-10.8952
學以	-10.8954
于四海	-10.8955
夫婦之	-10.8957
歸故	-10.896
下人	-10.8961
而右	-10.8969
稱子	-10.897
拜送	-10.8974
不徒	-10.8977
乎其	-10.8978
斯為	-10.8981
然後乃	-10.8982
順治	-10.899
有大	-10.8991
皆出	-10.8991
好惡者	-10.8995
教人	-10.8998
此章云	-10.9001
右經	-10.9001
道周	-10.9007
明王孝治	-10.9008
於上下	-10.9009
為患	-10.9013
無疑也	-10.9014
記以釋經文	-10.9021
常道也	-10.9027
正義曰言	-10.9028
為國者	-10.903
不爲	-10.9034
徳不	-10.9035
忠臣以	-10.9037
而告	-10.9038
天下故	-10.9038
祀昊天	-10.9039
有物	-10.9039
之益	-10.9039
於東方	-10.904
人知	-10.904
並同	-10.9041
子之事親也	-10.9042
忠而	-10.9049
無經	-10.905
義當	-10.9051
一至	-10.9054
是也注	-10.9055
親謂	-10.9063
而可以得	-10.9063
廢則	-10.9065
處也	-10.9071
籍之	-10.9073
地利	-10.908
位也	-10.9081
名立於	-10.9082
取人	-10.9085
不足則	-10.9095
樂繇	-10.9097
諸侯曰	-10.9105
曰順	-10.9108
猶使	-10.9111
者無不	-10.9114
後之	-10.9123
所加	-10.9123
存者	-10.9126
今文唐	-10.9128
也論語云	-10.9136
是以四海之内各以其職來祭	-10.9138
而取之	-10.9139
以配天	-10.9143
敬其親	-10.9145
也曾子	-10.9152
此五	-10.9158
極也	-10.916
孝子之志也	-10.916
而後正	-10.9161
能敬	-10.9163
是天之	-10.9167
治者	-10.9171
傳疑	-10.9176
樂至	-10.9177
義是	-10.9177
氏曰	-10.9183
愛敬其親	-10.9185
下無也字	-10.9193
總言	-10.9194
室則	-10.9197
之為言	-10.92
至善	-10.9201
其性	-10.9203
置之	-10.9204
其作	-10.9207
至樂	-10.9208
太王	-10.9211
詠	-10.9211
果何	-10.9217
子生三年然後免於父母	-10.9218
而喜	-10.922
而患不及者未之有也	-10.9223
止則	-10.9227
合敬	-10.923
諫諍之臣	-10.9231
問而	-10.9248
棺之	-10.9248
與曰是	-10.9249
以備	-10.9254
於民	-10.926
心乎	-10.9264
五至	-10.9265
之大也	-10.9267
凡百	-10.9274
而民皆	-10.9287
無常	-10.9295
行孝之	-10.9296
夫以孝	-10.9297
則明	-10.9301
也庶人	-10.9302
顯也	-10.9302
孝理	-10.9303
能孝於	-10.9303
行一	-10.9304
為民	-10.9306
有事則	-10.9307
名而	-10.9311
上謂	-10.9317
性謂	-10.9321
追逺	-10.9321
為大也	-10.9321
者自	-10.9322
𤼵其	-10.9324
刑於四海	-10.9324
䘮祭	-10.9329
别矣	-10.9331
失所	-10.9334
復禮	-10.9334
六十	-10.9335
何得	-10.9336
教以弟所以敬天下之為人兄者	-10.9337
有如此	-10.9338
今也	-10.9338
異耳	-10.934
名不	-10.9344
四也	-10.9345
此亦	-10.9351
之稱	-10.9365
也親親	-10.9367
達於	-10.9368
之繼	-10.9368
梁武帝	-10.9368
難乎	-10.9369
謂之有	-10.9376
已之	-10.9377
父有過	-10.9378
對曰	-10.9382
血氣	-10.9384
君子之事君	-10.9388
國人	-10.939
君子之道	-10.9392
也諸侯	-10.9394
導之	-10.9395
率先	-10.9399
也且	-10.9401
其人	-10.9402
有恒	-10.9404
故重	-10.9407
於詩	-10.9409
絀於	-10.941
故宜	-10.9412
人餕	-10.9413
者然	-10.9415
故取	-10.9415
戒慎	-10.9417
與天	-10.9423
于心而	-10.9424
孝經類	-10.9425
忠矣	-10.9431
所以長守貴也滿而不溢所以長守富也	-10.9437
再命	-10.9442
之可	-10.9444
不至	-10.9445
敎之	-10.9449
濟濟	-10.9451
行道揚名於後世以顯父母孝之終也	-10.9454
分則	-10.9455
於四方	-10.9455
見也	-10.9456
有其字	-10.9457
行孝道	-10.9463
敎世子	-10.9465
行自	-10.9468
祀其先	-10.947
亦作	-10.9472
國語	-10.9475
於政	-10.9478
天天	-10.9481
而勿	-10.9483
敬乎	-10.9514
厚則	-10.9515
不更	-10.9516
慎其	-10.9524
先君	-10.9531
而得	-10.9532
容止可觀進退可度以臨其民	-10.9536
衰之	-10.9538
順於天下	-10.9538
不免	-10.9542
成人之	-10.9542
婦以	-10.9543
上則	-10.9544
欽定四庫全書經部六孝經	-10.9545
北宫文子曰	-10.9545
養則致其樂病則致其憂	-10.9545
不為也	-10.9548
言滿天下	-10.9555
稱則	-10.956
法則之	-10.9561
者性之	-10.9565
孝於親	-10.9573
上故	-10.9573
争道	-10.9579
之志而	-10.9582
教則	-10.9585
文之	-10.9586
五人	-10.9592
也禮者	-10.9592
用也	-10.9593
謂常	-10.9596
十五字	-10.9598
憂也	-10.9599
大於配天則周公其人也	-10.9607
孝莫大於嚴父嚴父莫	-10.9607
也明王	-10.9608
諸侯五廟	-10.9609
之示之	-10.9612
易祿	-10.9613
守貴	-10.9613
等謹按孝經	-10.9614
循其	-10.9614
而進	-10.9624
之例	-10.9626
將以	-10.9628
饗帝	-10.9632
諸侯卿大夫之	-10.9636
者聖人所	-10.9639
授曾子	-10.964
思其憂	-10.964
要於	-10.9641
其身而不	-10.9643
法至	-10.9646
其死	-10.9646
資愛	-10.965
之刑	-10.9652
也滿而不溢所以長守富也	-10.9654
者而言	-10.9654
者乃	-10.9657
失則	-10.9659
於孔子	-10.966
施而	-10.9663
長之	-10.9664
賞罰	-10.9666
海也	-10.9667
遵道	-10.9672
按此	-10.9672
能行	-10.9677
五字	-10.9678
雖有其	-10.9681
可無	-10.9684
引詩書	-10.9688
忠則	-10.9691
則大夫	-10.9697
門之内	-10.9699
而無禮	-10.9705
也祭	-10.9706
稱其	-10.9709
子孫者	-10.971
故稱	-10.971
無事則	-10.9711
無節	-10.9717
云蓋者	-10.972
是曽子	-10.9724
義其	-10.9724
於室	-10.9731
教以	-10.9735
舍愛敬	-10.9736
在其中	-10.9747
子孔子也	-10.9749
不著	-10.9756
等而	-10.976
臣子之	-10.9761
殷周	-10.9762
而誤	-10.9763
以訓	-10.9766
有終始	-10.9768
敬而後	-10.9778
患不及	-10.978
是知	-10.9782
度而	-10.9782
富貴不	-10.9786
為心	-10.979
尊卑之	-10.98
以聖人	-10.9803
乎詩曰	-10.9805
一敬	-10.9805
教子	-10.9806
證之	-10.9808
塋域	-10.9808
經而	-10.9809
則其所	-10.981
禮之貴	-10.9811
曰天子	-10.9811
道雖	-10.9816
人心也	-10.9823
孟子孟子曰	-10.9828
耳夫	-10.9831
先聖先	-10.9831
事其親也	-10.9836
唐虞	-10.9841
者國	-10.9841
順民心	-10.9843
之好惡	-10.9844
刑曰	-10.9845
矣書曰	-10.9851
經曰	-10.9852
者如此	-10.9853
教亦	-10.9854
不就	-10.9855
雖貴	-10.9858
禮之所	-10.9858
丈反	-10.986
而亦有	-10.9865
言語	-10.9866
曾子避席曰參不敏何足以知之	-10.9867
用是	-10.9874
三徳	-10.9878
者敬之	-10.9899
父尊	-10.9901
能敬宗廟	-10.9902
則似	-10.9907
敬父母	-10.9908
興而	-10.9909
序云	-10.991
三章	-10.991
清則	-10.9913
也有	-10.9919
之目	-10.9922
以順則逆民無則焉不在	-10.9923
事母孝	-10.9925
起而	-10.9925
兼之	-10.9926
父母至	-10.9927
言能	-10.9927
教立	-10.9928
公門	-10.9929
而不為	-10.9931
之所為也	-10.9932
今此	-10.9933
稱爲	-10.994
自其	-10.9948
順於長	-10.995
之也是故君子	-10.9956
諸侯以	-10.9956
五日	-10.9957
存之	-10.9958
反傳同	-10.9958
士不	-10.9958
厚其	-10.9959
者乎曰	-10.9963
降於	-10.9967
慢其	-10.9969
郎反	-10.9973
承事	-10.9974
之㑹	-10.9976
其宫	-10.9976
尚以	-10.9977
不敢侮	-10.9991
以是為	-10.9997
皆得其	-10.9999
以天子	-11
惡也	-11.0001
意也	-11.0001
語其	-11.0003
公族之	-11.0004
繡	-11.0006
古今之	-11.0014
昭穆也	-11.0016
終不	-11.0017
之如	-11.002
應言	-11.0021
不忠則	-11.0021
道不	-11.0027
順非	-11.0036
至徳之	-11.0046
唐宗	-11.0059
孝者也	-11.0064
諸儒之	-11.0067
以力	-11.0068
羙	-11.0069
法度	-11.0074
吏部	-11.0076
則必有	-11.0084
而興	-11.0085
臨其	-11.0085
祀乎	-11.0086
父以	-11.01
道謂	-11.0108
也孝弟	-11.0109
孝思	-11.0122
則順	-11.0122
正則	-11.0123
論而	-11.0133
逺乎	-11.0139
得此	-11.014
君子所	-11.0142
注述	-11.0144
之厚	-11.015
貌若	-11.015
位不	-11.0152
乎天	-11.0157
東漢	-11.0157
綸	-11.0164
之豈	-11.0172
嚴肅之	-11.0175
親之意	-11.0176
殊而	-11.0177
爲不孝	-11.0177
禮樂則	-11.0181
故必有	-11.0182
等謹案	-11.0182
次首章	-11.0191
雖未	-11.0192
備於	-11.0203
别子	-11.0205
其徳而	-11.0206
之色	-11.0207
母之	-11.0216
所惡	-11.0218
上帝也	-11.022
命爲	-11.0222
讓之	-11.0223
乎天下	-11.0225
阼階之	-11.0229
五等皆	-11.0239
書之	-11.0241
從天	-11.0244
之矣	-11.0245
君無	-11.0247
以行之	-11.0248
主日	-11.025
愛敬盡於事親而德敎加於百姓	-11.0252
而輕	-11.0253
進則	-11.0253
反身	-11.0254
其近於親	-11.0255
以後	-11.0257
則民從	-11.0258
此不	-11.0261
睦也	-11.0264
申言	-11.0267
天子諸侯無	-11.0267
家人之	-11.0269
即是	-11.0269
不用	-11.0273
所尊	-11.0275
為人臣者	-11.0275
以事其先王	-11.0276
土之	-11.0276
也子曰	-11.0277
名傳	-11.0282
亡失	-11.0284
大臣助	-11.0286
以節	-11.0288
以行	-11.0289
之傳	-11.0289
不奪	-11.0291
爲魯	-11.0292
容以	-11.0292
盡則	-11.0297
是吾	-11.0306
之禄	-11.0306
▁舊本	-11.0311
拜之	-11.0313
所以長	-11.0314
天下大治	-11.0317
長者	-11.0317
于上	-11.0318
之𤼵	-11.0322
天地則	-11.0324
國無	-11.0327
已乎	-11.0327
章明	-11.0329
不思	-11.0329
也教	-11.0331
父者	-11.0332
貴者也	-11.0332
民之所	-11.0334
己而	-11.034
人必	-11.0341
不失其道	-11.0343
解其	-11.0347
矣君子	-11.0348
此之	-11.035
其罪	-11.0351
所不貴也	-11.0352
豈能	-11.0354
實之	-11.0356
其室	-11.0358
孝子之行也	-11.0361
者之	-11.0362
荆	-11.0368
故必	-11.0369
何所	-11.037
無疑	-11.037
禮故	-11.0377
擗踊哭泣哀以送之卜其宅兆而安厝之	-11.0382
庻	-11.0383
也教以悌所以敬天下之為人兄者也	-11.0385
大亂之道也	-11.0387
非也	-11.039
之生也	-11.039
諸大夫	-11.0391
止也	-11.0393
敬譲	-11.0396
章次	-11.0397
民心	-11.0412
之不以為	-11.0413
明日	-11.0415
無失	-11.0418
君能	-11.0419
緒	-11.0427
刑刑	-11.0433
有君可	-11.0438
事君之	-11.0441
孝之始也	-11.0445
立矣	-11.0451
者也未	-11.0451
每章	-11.0453
之所著	-11.0455
爾雅	-11.0458
猶是	-11.0458
忘其親	-11.0467
夭	-11.0467
躬不	-11.0471
正義曰此依王注	-11.0478
殷禮	-11.0479
行成	-11.0481
將順其美匡救其惡故上下能相親	-11.0483
之始於	-11.0485
條中	-11.0487
禮樂以	-11.0488
日嚴	-11.0488
詩書之	-11.0489
思慕	-11.049
正義曰此夫子	-11.0502
者言其	-11.0505
亂者	-11.051
言則	-11.0515
因地之	-11.0517
先祖也	-11.0518
喪祭之	-11.052
以立	-11.0521
是天	-11.0526
讀是	-11.0526
褒貶諸侯	-11.0527
者宜	-11.0527
内則	-11.0527
不反	-11.0533
之志也	-11.0544
七廟	-11.0547
有能	-11.0553
而弔	-11.0558
且曰	-11.0562
徳有	-11.0562
所以重	-11.0563
烏	-11.0566
此傳	-11.0567
以率	-11.0567
十四章	-11.0573
而以	-11.0573
遠不	-11.0586
天經地義	-11.0589
若其	-11.059
心以	-11.0591
謂居	-11.0592
孔子云	-11.06
合諸	-11.0603
事親之	-11.0604
爭臣三人雖無道不失其家	-11.0608
與為	-11.0609
衰而	-11.061
作者	-11.0612
也夫子	-11.0612
非見	-11.0619
顧不	-11.062
上士	-11.0621
亦云	-11.0622
通也	-11.0625
則天之明因地之利以順天下	-11.0629
作也	-11.0629
道法	-11.063
服也	-11.063
其教	-11.0634
義故	-11.0634
使不	-11.0643
也以此	-11.0644
於太學	-11.0648
所為	-11.0649
故謂	-11.0655
▁子	-11.0656
人倫	-11.0658
不務	-11.0663
曰人之	-11.0665
取士	-11.067
兄者	-11.0671
性然	-11.0679
於南郊	-11.0688
孝子之行	-11.0694
者唯	-11.0694
於中	-11.0695
給	-11.0707
之殺也	-11.0711
為器	-11.0713
退朝	-11.0715
改之	-11.0716
及此	-11.0716
夫子以為	-11.0719
非必	-11.072
危君	-11.0722
君臣之義也	-11.0722
貫之	-11.0731
於朋友	-11.0731
之若	-11.0734
如是乎	-11.0734
有不通	-11.0737
黼黻	-11.0744
其身則	-11.0747
身以	-11.0749
三費	-11.0753
皆敬也	-11.0757
攝政因行郊天之祭乃尊始祖以配之也	-11.0765
而質	-11.0769
其宗廟	-11.0772
不殊	-11.0774
明於	-11.0776
也孟子曰人	-11.0781
之歡心	-11.0782
居身	-11.0784
生不	-11.0784
一人則	-11.0784
能備	-11.079
兄者也	-11.0792
乃能	-11.0793
患不	-11.0793
以待	-11.0797
語之	-11.08
之朝	-11.0801
為己	-11.0802
則此	-11.0805
之孝當如是也	-11.0808
皆生於	-11.0809
之説也	-11.0813
事天地	-11.0813
師也	-11.0815
孝故	-11.0817
之類也	-11.082
事兄悌	-11.0823
牢	-11.0826
后土	-11.0832
質之	-11.0836
必加	-11.0837
說此	-11.0841
問答	-11.0845
而與之	-11.0845
而尚	-11.0846
於德	-11.0847
而學	-11.0851
德之本也	-11.0854
堂下	-11.0854
信矣	-11.0855
之道在	-11.0857
曰古者	-11.0858
則所以	-11.0863
而仁為	-11.0867
詩曰維此	-11.0868
政不	-11.0872
也或	-11.0883
脫	-11.0883
徳無以加於孝乎子曰天地之性人	-11.0887
以補	-11.0887
兄事之	-11.0894
士與	-11.0895
不乗	-11.0898
于人	-11.0902
三十	-11.0903
為賢人	-11.0904
民則	-11.0906
悖矣	-11.0907
愛心	-11.0907
子曰參先王有至徳要道	-11.0913
親始	-11.0917
是君	-11.0917
皆爲	-11.0925
又推	-11.0926
知所	-11.093
亦可以	-11.093
父有争子則身不陷於不義	-11.093
於山川	-11.0931
一身	-11.0932
説其	-11.0934
者此依鄭注	-11.0936
忝祖	-11.0947
資於事父以事	-11.0952
言孝之	-11.0956
行而後	-11.0957
卑於	-11.0959
賜之	-11.0961
謂之孝	-11.0961
無以加	-11.0967
及身	-11.0971
乃出	-11.0976
親以及	-11.0977
相濟	-11.0977
以天	-11.098
矣若	-11.0984
故引	-11.0996
教孝	-11.0996
人倫資父為天	-11.1004
是亂	-11.1005
故父母	-11.1008
親若	-11.1014
之端也	-11.1015
著見	-11.1015
不寧	-11.1017
旅	-11.1022
以身之	-11.1026
之時則	-11.1029
質以	-11.104
嚴父配天之	-11.1043
尊顯	-11.1043
古之人	-11.1045
謂之不	-11.1046
治家者不敢失於臣妾而况於妻子乎故	-11.1047
五等諸侯	-11.1049
慶賞	-11.1061
故禮	-11.1063
今文古文	-11.1064
故特	-11.1065
不宜	-11.1066
之有司	-11.1067
章今	-11.1068
不聽	-11.1069
而遂	-11.1071
閔子	-11.1072
簡而	-11.1072
修身慎行恐辱先也宗廟致敬鬼神著矣	-11.1084
祖后稷	-11.1093
以先	-11.1099
命於	-11.1101
之義以	-11.1102
鼓鐘	-11.1102
思報	-11.1105
事父兄	-11.1105
於孝弟	-11.1105
為異	-11.1109
敬事	-11.1113
之資	-11.1119
有重	-11.1119
不畏	-11.1121
進見於君	-11.1126
世之所	-11.1126
其失	-11.1127
之職	-11.1127
哉然	-11.1128
)(○	-11.1128
大夫之	-11.1129
日長	-11.113
必得	-11.1132
復生	-11.1134
慎慮	-11.1134
富也	-11.1135
此非	-11.1139
孔傳曰	-11.114
父故	-11.1142
之過	-11.1163
竭其忠	-11.1167
能勝	-11.1167
尹氏	-11.1167
也而謂之	-11.1168
以安	-11.117
徳於	-11.1172
行孝也	-11.1177
惟一	-11.1177
明出	-11.1179
士謂	-11.1181
言似	-11.1182
有過則	-11.1183
即為	-11.1183
其身而	-11.1185
之道不	-11.119
以孝事君則忠	-11.1193
為傳	-11.1195
何如	-11.1197
君自	-11.1199
易知	-11.1199
上位	-11.12
教天下	-11.1201
孝為大	-11.1213
語魚據反	-11.1214
問也	-11.1216
甲	-11.1216
矣誠	-11.1217
必在	-11.1222
陽之	-11.1226
此文	-11.1228
其中	-11.1232
者此依王注	-11.124
皆所以	-11.1245
卑者	-11.1246
所謂以	-11.1247
昔者天子有争臣七人	-11.1247
為子	-11.1248
説也	-11.125
人親之	-11.1251
其教之	-11.1251
皷	-11.1251
之常也	-11.1251
報天	-11.1258
治家者不敢失於臣妾	-11.1271
忠告	-11.1271
皆反	-11.1273
而無所	-11.1277
長保	-11.1281
能自	-11.1285
月祭	-11.1288
無不同	-11.129
天子而	-11.1291
成身者	-11.1291
各為	-11.1296
仁而	-11.13
限	-11.1305
室而	-11.1306
于天	-11.1306
裁	-11.1307
三教	-11.1308
與愛	-11.1308
嚴則	-11.1309
也是故君子	-11.1309
右手	-11.1318
之明	-11.1318
常思	-11.132
樂生	-11.1333
於斯	-11.1333
揚名之義	-11.1335
焉耳然則	-11.1337
莫能	-11.134
孝子事親之	-11.1341
臣有	-11.1341
雨不	-11.1342
正月	-11.1344
也見	-11.1347
地之義	-11.1348
性性	-11.135
大功之喪	-11.1355
韋昭	-11.1356
孔壁	-11.1357
制也故	-11.137
則通於	-11.1376
以順天下民用和睦上下無怨汝知之乎	-11.1379
卿大夫之孝	-11.138
學之	-11.138
於不	-11.1384
該	-11.1385
及於	-11.1388
親愛之心	-11.1389
其辭	-11.1396
之卿大夫	-11.1397
致禮	-11.1399
也父母既	-11.1401
居位	-11.1401
陳則	-11.1402
言此	-11.1407
愛君也	-11.1408
生財	-11.141
嚴而治	-11.1416
水有	-11.1416
無違	-11.1417
之象也	-11.1422
矣其	-11.1423
經三	-11.1424
見而	-11.1429
闇	-11.143
視之	-11.143
君則	-11.1434
者尚書	-11.1435
是編	-11.1436
今言	-11.1439
之義也注	-11.1439
非父	-11.1441
可畏	-11.1445
望而	-11.145
自稱	-11.145
尊之	-11.145
師之	-11.1464
文而	-11.1468
身先	-11.147
以官	-11.1473
以一	-11.1474
諸侯行孝	-11.1475
天降	-11.1476
大國	-11.1476
有爭臣	-11.1477
古文二	-11.1479
謹身節用	-11.148
君長	-11.1484
所以事親	-11.1489
赫	-11.1493
者是天子	-11.15
及其親	-11.1503
敬止	-11.1505
亦必	-11.1507
故順可移於長居家理故治可移於官	-11.1508
刑所	-11.151
忠於君	-11.1517
惡慢之	-11.1518
生人之	-11.1519
而後有	-11.1529
爭導之以禮樂而民和睦	-11.1532
此皆聖	-11.1532
夫子既	-11.1534
致命	-11.1537
爲得	-11.1538
吾身	-11.1541
示民	-11.1542
先王之所	-11.1543
論語曰	-11.1557
所繇	-11.1557
則莫	-11.1558
不服	-11.1568
士者	-11.1568
釋教之所由生	-11.1568
而立教	-11.157
至今	-11.1571
也以謂	-11.1572
古文分	-11.1573
卿大夫之孝也詩云夙夜匪懈以事一人	-11.1582
孝則	-11.1586
象日月	-11.1586
髙禖	-11.1597
而使	-11.1597
之相	-11.1601
忠之道	-11.1601
以臣	-11.1605
致刑	-11.1606
君王	-11.1607
主之	-11.1608
又示之以	-11.161
近於禮	-11.1612
知者以	-11.1615
黎民	-11.1615
情出	-11.1621
者漢	-11.1623
昔者明王之以孝治天下也	-11.1632
改者	-11.1639
以慈	-11.1641
智者	-11.1643
所撰	-11.1644
也人主	-11.1648
後古文	-11.165
易於	-11.1653
三者不除雖日用三牲之養猶為不孝	-11.1656
尊君親	-11.1656
人子者	-11.1657
孝經亦	-11.1658
此事	-11.1659
無患	-11.166
昶集	-11.1662
政者	-11.1663
之學也	-11.1664
之源	-11.1667
至極	-11.1669
於太	-11.1675
遯	-11.1678
畀	-11.1678
而弗	-11.1678
其誠	-11.168
情性	-11.1682
人之行	-11.1683
也者釋	-11.1685
則必以	-11.169
經常	-11.1696
思其	-11.1697
無念	-11.17
序末	-11.1701
禮敬	-11.1702
使能	-11.1708
大武	-11.1709
事亦	-11.1714
各盡其	-11.1718
弗及也	-11.172
舜而	-11.1724
之今	-11.1729
諸侯也	-11.173
制節	-11.1736
合愛	-11.1742
不遺	-11.1748
人之所行	-11.1748
穆	-11.1748
於庶	-11.1748
不敢慢於人	-11.1751
演	-11.1753
得也	-11.1753
於人者也	-11.1753
百畝	-11.1755
左氏傳曰	-11.1756
子以禮	-11.1756
正義曰此依魏注	-11.1763
救之	-11.1768
子之身	-11.1773
不異	-11.1777
之祭	-11.1778
為尸	-11.1778
君在	-11.1779
始相	-11.178
至是	-11.1784
居上位	-11.1791
祭而	-11.1795
以惡	-11.1797
資生	-11.1806
養羊尚	-11.1811
太史	-11.1813
慢易	-11.1816
博愛亦非立愛惟親之	-11.1818
不可以不爭於父臣不可以不爭於君	-11.1821
者也敬	-11.1823
所統	-11.1824
夫子言	-11.1827
所自出	-11.1827
於東	-11.1831
及傳	-11.1831
言人之	-11.1831
之時當	-11.1833
就養能致其懽	-11.1833
可大	-11.1835
敬父	-11.1835
曰惟	-11.1835
四時也	-11.1838
四方皆	-11.184
天地鬼神	-11.1841
因名	-11.1842
名者	-11.1845
而終	-11.1848
質明	-11.185
之社稷	-11.1851
卿大	-11.1851
焉有	-11.1852
表記	-11.1852
而詳	-11.1853
忝	-11.1858
莫大	-11.1861
君之美	-11.1861
夫子曰	-11.1865
先見	-11.1866
以畜	-11.1868
夫豈	-11.1871
而謂	-11.1872
之思	-11.1874
子之善	-11.1876
之四	-11.1877
次也	-11.188
親以	-11.1893
左傳云	-11.1896
下故	-11.1897
嗜	-11.1898
此哀戚之情	-11.1899
䘮畢	-11.1901
不敢有	-11.1903
爲言	-11.1904
之質也	-11.1905
其世	-11.1909
以效	-11.1914
爵賞	-11.1915
冕而	-11.1915
二人	-11.1916
使者	-11.1917
唯此而已	-11.1919
不得已	-11.192
其驗十	-11.1923
教不肅而成其政不嚴而治	-11.1929
道故	-11.1929
能也	-11.1929
無為	-11.1933
傳之十二章	-11.1934
樂天	-11.1934
不舉	-11.1936
也人情	-11.1939
故上下能相親	-11.1939
於周	-11.1939
修徳	-11.1941
必合	-11.1941
則思補益	-11.1941
養民	-11.1942
君有過失	-11.1944
言無此理故曰未有	-11.1946
寫	-11.1946
而患不能及者未之有也	-11.1949
髙祖	-11.1949
八年	-11.1952
者孔安國	-11.1953
九州	-11.1956
親而愛	-11.1956
異義	-11.196
家語	-11.196
不盡其	-11.1964
戒懼	-11.1967
有争臣	-11.197
五孝之用	-11.197
案尚書	-11.1971
成立	-11.1973
尚反	-11.1976
以名	-11.1977
教讓	-11.1982
福應	-11.1982
臣者皆知盡事君之道	-11.1991
身安	-11.1994
司馬光曰明	-11.1998
居坐	-11.1998
服物	-11.2002
以求	-11.2006
父母舅姑	-11.2009
之言也	-11.2015
交也	-11.2019
君子之教	-11.2019
庸言	-11.2022
人之道也	-11.2024
於樂	-11.2024
同惡烏路反	-11.2025
廟見	-11.203
訾	-11.203
必自	-11.2031
以顯	-11.2033
而無服	-11.2036
為繼髙祖	-11.204
上下尊卑	-11.2042
者天下	-11.2045
缺	-11.2049
慶善也	-11.205
仕也	-11.2056
以配上帝	-11.2056
徒以	-11.2056
行著	-11.2057
卿大夫行孝	-11.206
忍	-11.2063
義通	-11.2064
繼禰者	-11.2068
有位	-11.2069
五經	-11.2069
可謂孝乎	-11.2073
父以配天	-11.2074
隰	-11.2074
歡	-11.2074
無禮	-11.2077
閲	-11.2082
曽子避席曰參不敏何足以知之	-11.2085
拜迎	-11.2085
我則	-11.2085
以文王配	-11.2085
在東	-11.2085
父母天地	-11.2086
力行	-11.2089
知禮義	-11.2089
行也宜	-11.2091
云孝經	-11.2092
弗見	-11.2092
之中也	-11.2096
曰今文	-11.2096
陳於	-11.2096
仁之	-11.2096
皆善	-11.2098
諸兄	-11.2099
其居	-11.21
肖	-11.21
罪也	-11.2102
然後能保其祿位	-11.2103
入則	-11.2104
言若有	-11.2105
敏何足以知	-11.2108
不答	-11.211
為人父者	-11.2112
八月	-11.2114
悖逆	-11.2118
世也	-11.2118
所行非	-11.2119
物者	-11.212
為恭	-11.212
存亡	-11.2121
也父	-11.2122
人子愛	-11.2122
漸長	-11.2124
此有	-11.2124
性人為貴人之行莫大於孝	-11.2124
子惠	-11.213
而必	-11.2131
殽	-11.2131
之愛君	-11.2132
僕	-11.2134
勉而	-11.2136
倡	-11.2137
而民不	-11.2138
重莫	-11.2139
凡六十九	-11.2139
帝舜	-11.2142
之食	-11.2143
章大傳第十	-11.2145
盡其忠	-11.2145
之道至	-11.2145
公侯伯	-11.2148
尊之也	-11.2149
君子之所	-11.2151
詬厲	-11.2151
陳天明地性之目	-11.2152
引之	-11.2154
日加	-11.2161
天下之父	-11.2161
孝子之事	-11.2162
粢盛	-11.2162
衍	-11.2163
至性	-11.2164
恐辱先	-11.2165
正與	-11.2168
開元	-11.2169
助祭	-11.217
弗與	-11.2171
字説	-11.2171
猶為不孝也	-11.2171
階	-11.2173
其母	-11.2173
助祭夫聖人之徳又何以加於孝乎	-11.2177
順乎親	-11.2179
敬而已	-11.218
九月	-11.218
仲尼閒居曽子侍坐	-11.2184
柷	-11.2184
始祖	-11.2185
而可	-11.2186
得罪於	-11.2186
恕也	-11.2188
安知	-11.219
逆則	-11.2193
節文	-11.2195
曰吾聞之	-11.2196
以化民而	-11.2198
為治也	-11.2199
掃地	-11.2199
有卿大夫	-11.22
太保	-11.2204
庻人之孝	-11.2205
賛	-11.2205
事天地則	-11.2206
以孝為本	-11.2208
孝經一篇	-11.2209
至漢	-11.2209
醜衆	-11.2211
懽心以	-11.2212
無父	-11.2214
特廟	-11.2218
馬融亦	-11.2221
巧	-11.2223
顙	-11.2224
虛	-11.2225
備陳死生之義以盡孝子之情	-11.2226
攻古文	-11.2227
非家至而日見之也	-11.2228
桓	-11.2229
教民無以	-11.2229
不肅而成	-11.223
美有所不安	-11.223
有評論	-11.223
教順	-11.2231
謗	-11.2232
美味	-11.2232
近於日	-11.2233
百年	-11.2234
記内則	-11.2235
所敬者寡而恱者衆此之謂要道	-11.2236
威儀不差	-11.2237
戈	-11.2239
袁	-11.2239
孝經一書	-11.2239
蔵	-11.224
詩譜	-11.224
三日不食	-11.224
非直	-11.2241
夫子又	-11.2242
春秋緯	-11.2243
暫忘	-11.2243
箋	-11.2243
熹	-11.2245
知而	-11.2246
周易都	-11.2246
曲禮曰	-11.2248
長而	-11.2249
父天母地	-11.2249
則虛其	-11.2249
言用賢	-11.2249
黨錮	-11.2249
㓙徳	-11.2249
以事母其愛	-11.2252
所敬者寡而悦者衆此之謂要道	-11.2252
守其祭祀	-11.2252
上能聽	-11.2252
知孝之	-11.2252
以加於孝乎	-11.2254
相親相	-11.2254
百志成	-11.2256
禮俗刑	-11.2256
愛我	-11.2256
不祥	-11.2258
先王制禮	-11.2258
中候	-11.2259
所過山川亦	-11.2259
而不怍	-11.2259
臨尸	-11.2259
十八	-11.2259
於下也	-11.2259
章末	-11.226
下以	-11.226
孝經其驗	-11.226
下以忠事上上以義接	-11.226
徳教加於百姓刑于四海	-11.226
膝下之時	-11.2261
辱其父母	-11.2261
刪之	-11.2261
庶姓	-11.2262
財用足	-11.2262
悲哀在心	-11.2262
遐逺	-11.2264
先聖之	-11.2264
不言注孝經	-11.2265
猶之内事也	-11.2265
恩義之	-11.2266
敢遺	-11.2268
所因者本也	-11.2268
命國家五官	-11.2268
溢態	-11.2268
諸侯相見	-11.2268
製序	-11.2269
殃	-11.227
養者	-11.2271
其欲其饗之也	-11.2271
而出視朝命祝史告於	-11.2271
本也故	-11.2272
過而	-11.2272
天之所生	-11.2273
回	-11.2274
瞽	-11.2274
謌	-11.2274
宗堯	-11.2275
凡此其屬	-11.2275
亦猶此	-11.2275
萬幾	-11.2275
心安	-11.2276
覩	-11.2276
時祭祀展其孝思也	-11.2277
時思之	-11.2277
君命婦	-11.2277
松	-11.2277
庶民安	-11.2278
以及人之	-11.2278
康王	-11.2279
琬	-11.228
聖人之道息	-11.2281
人之数	-11.2281
宜乎社造乎禰	-11.2281
漢宋之	-11.2281
豈貴其能	-11.2281
況於士民乎	-11.2281
蚤	-11.2281
韋布	-11.2281
匡救之	-11.2281
者也斬衰	-11.2282
此也	-11.2282
自外	-11.2282
嗜欲	-11.2283
無聞焉	-11.2284
下能言	-11.2284
冏	-11.2284
去王城	-11.2284
子男武王	-11.2284
杜林	-11.2284
欲勝義	-11.2284
非君子之得已	-11.2284
逼	-11.2285
粟之	-11.2285
行其政令	-11.2285
閨	-11.2287
紕繆	-11.2287
范曄	-11.2287
聖人南面而	-11.2287
嵗三田	-11.2287
等而上之	-11.2287
吾何慎哉	-11.2287
土惟三	-11.2287
大也言君	-11.2287
大學士蔣赫徳恭纂	-11.2287
成子高	-11.2287
耜	-11.2287
至孝近乎王	-11.2287
至弟近乎霸	-11.2287
親又施德敎於人使人皆	-11.2287
身俱生故	-11.2287
逵	-11.2287
達天道順人情	-11.2287
翦	-11.2288
服縗麻	-11.229
謡	-11.229
哭踊	-11.229
之執喪也	-11.229
祖顓頊而宗	-11.229
莫嚴於	-11.229
皮	-11.229
㤀	-11.2291
乾隆四十六年十	-11.2292
光顯	-11.2292
可假	-11.2292
謂古文	-11.2292
黎	-11.2292
彪	-11.2293
隙	-11.2293
豈弟君子	-11.2293
可告於天子	-11.2293
其漸然也	-11.2293
至情	-11.2293
覈	-11.2293
拆	-11.2293
不從生生	-11.2293
不由其道	-11.2293
二十六年	-11.2293
五方上帝	-11.2293
哉貴其	-11.2293
喪出母	-11.2293
壻	-11.2293
天監	-11.2293
女安則為之	-11.2293
漢文之時	-11.2293
為無所用而	-11.2293
生而願為之有	-11.2293
疑古為偽	-11.2293
神農黄帝	-11.2293
者必誠必信勿之有悔焉耳矣	-11.2293
道揚末命	-11.2293
釡	-11.2293
鑽穴	-11.2293
黒	-11.2293
擊	-11.2294
者皇侃云	-11.2294
遺也	-11.2294
其道光明	-11.2295
管籥	-11.2295
祭祀蓋士之孝也	-11.2295
傚	-11.2295
盡其心	-11.2295
公侯伯子	-11.2296
宥	-11.2296
太公	-11.2296
譚所	-11.2296
鮮克	-11.2296
達於面目	-11.2296
不掩羣	-11.2296
圭璧	-11.2296
扱	-11.2296
不中律	-11.2296
丹書曰	-11.2296
今陛下	-11.2296
従有服	-11.2296
畎畆	-11.2296
襄王	-11.2296
不敢以貴富	-11.2296
以君為親	-11.2296
内和理	-11.2296
問一答	-11.2296
善降之百	-11.2296
四時為柄	-11.2296
多所弗與	-11.2296
成婦禮	-11.2296
攘	-11.2296
者接人以	-11.2296
者送死	-11.2296
膝骨	-11.2296
貴有徳貴貴貴老敬長	-11.2296
醯醬	-11.2296
靈為畜	-11.2296
多福	-11.2297
下孟反	-11.2297
中央之	-11.2297
有過則諫	-11.2298
二也	-11.2298
義也然則	-11.2298
四百餘字	-11.2298
也以此坊民民猶忘其親	-11.2298
二字又析此下至	-11.2298
參用三代	-11.2298
君滅親	-11.2298
謂也孟子曰	-11.2298
曰要道	-11.2298
居上不驕	-11.2299
六藝	-11.2299
候	-11.2299
夫人薦豆	-11.2299
六藝論	-11.2299
載色載笑匪怒伊教	-11.2299
京師	-11.23
屏人而	-11.23
攸攝	-11.23
沛	-11.23
無憚	-11.23
又期而大祥	-11.23
噍	-11.23
月而禫禫	-11.23
經彚刻	-11.23
而小祥	-11.23
于門外	-11.23
仕如此其急	-11.23
兩儀	-11.23
八卦	-11.23
刑罰中	-11.23
加於父兄	-11.23
喪公孫丑曰	-11.23
日星為紀	-11.23
月以為量	-11.23
此五刑之名	-11.23
無他亦曰敬而已	-11.23
皆有以事其生	-11.23
醆	-11.23
閉於宫	-11.23
關係于	-11.23
隂陽四時	-11.23
齊衰之喪	-11.23
皆本乎	-11.23
在阼	-11.23
光於四海	-11.23
但其	-11.2301
族故宗廟嚴	-11.2301
莫先	-11.2302
夜明	-11.2302
義備	-11.2302
君牽牲	-11.2303
籥	-11.2303
經簿	-11.2303
也親親故尊祖尊祖故敬宗敬宗故	-11.2303
弓矢	-11.2303
豚	-11.2303
年一廵守	-11.2303
疇	-11.2303
青帝	-11.2303
之弗得見也是故衣足以飾身棺周於衣	-11.2303
周於椁	-11.2303
蒐	-11.2303
中其節則	-11.2303
亦樂人之	-11.2303
修齊治平之	-11.2303
儒說經以	-11.2303
南宫縚	-11.2303
反諸其所	-11.2303
孝而厚於慈	-11.2303
岷山	-11.2303
敗君事者	-11.2303
於西北	-11.2303
昏姻之禮	-11.2303
氣也此天地之	-11.2303
求見孟子	-11.2303
濫觴	-11.2303
燃泉之	-11.2303
監於	-11.2303
粹	-11.2303
練而祔	-11.2303
芐翦不納	-11.2303
衛武公	-11.2303
飲醴酒始	-11.2303
以忠順治官	-11.2303
大饗其王事與	-11.2303
屈原	-11.2303
父之親子也親賢而	-11.2303
詬朱呉	-11.2303
賄	-11.2303
釋奠于先	-11.2303
不敢惡慢於天下	-11.2304
測	-11.2304
總括一書	-11.2304
不及車馬	-11.2304
以事親為始	-11.2304
匡其不及	-11.2304
道心純一	-11.2304
之親子也賢則親之無能則憐之母親而	-11.2304
讜	-11.2304
諴	-11.2305
不愛其親而愛他人者	-11.2305
綴	-11.2305
弟大計	-11.2305
映	-11.2305
匿而不	-11.2306
上等侯伯	-11.2306
口不甘味	-11.2306
器皿	-11.2306
故形變於外	-11.2306
邯鄲	-11.2306
餓	-11.2306
㢲	-11.2306
固知夫夫子之質也	-11.2306
椘	-11.2306
無所毁傷	-11.2306
覃	-11.2306
迪	-11.2306
三五而	-11.2306
世以不仁得之	-11.2306
以仁守之其量	-11.2306
以親為君	-11.2306
倡㳺	-11.2306
凡附於	-11.2306
則長幼有序	-11.2306
功車服	-11.2306
取精於	-11.2306
可也此哀之發於	-11.2306
可聚也故	-11.2306
史為書瞽	-11.2306
如有求而弗得既	-11.2306
妻之父母	-11.2306
宰予之言也	-11.2306
巴蜀	-11.2306
御器	-11.2306
於臣妾鰥寡	-11.2306
朝服載鞭	-11.2306
梅賾	-11.2306
毖於	-11.2306
熹澄	-11.2306
皓	-11.2306
知所繇来者也	-11.2306
禘嚳而郊稷祖文王而宗武王	-11.2306
者也未有孝而不	-11.2306
而後成服	-11.2306
莫之禁而弗為	-11.2306
親土之於民也親而不尊天尊而不親	-11.2306
賂	-11.2306
蹙	-11.2306
長短大小	-11.2306
闗雎	-11.2306
顔丁	-11.2306
食夫稻衣夫錦於	-11.2306
自謂	-11.2306
君子不貴也	-11.2306
栗	-11.2307
擅	-11.2307
自處	-11.2307
左氏傳	-11.2307
《	-11.2307
無忝	-11.2307
逹於天子一	-11.2307
下必有甚	-11.2307
天子視學世子齒胄	-11.2307
是天地之經義也	-11.2307
泰伯虞仲	-11.2307
父自古攸然	-11.2307
田獵	-11.2307
臣之諫君子之	-11.2307
言官師相䂓工執藝事	-11.2307
諫大夫䂓誨士傳	-11.2307
董	-11.2307
無思不服	-11.2308
悒悒	-11.2308
漏	-11.2309
一國之長也子者字	-11.2309
乾水溢	-11.2309
人也男者任也	-11.2309
伯者長也	-11.2309
侯者候也	-11.2309
姬	-11.2309
字愛於	-11.2309
至古文孝經孔傳本出孔氏壁中	-11.2309
徳化無有思而不服	-11.2309
二百里男	-11.2309
入天子之國曰	-11.2309
湛	-11.2309
百里侯四百里伯三百里子	-11.2309
門徒	-11.2309
庶子庶	-11.2309
雷電	-11.2309
動尸舉柩哭踊無數	-11.2309
張燧	-11.2309
惻怛	-11.2309
板	-11.2309
瑕	-11.2309
糜	-11.2309
館	-11.2309
不敢授綏	-11.2309
不獲乃	-11.2309
乎成名	-11.2309
五帝以上也	-11.2309
儕	-11.2309
可以言孝乎而見夫孝	-11.2309
四隅	-11.2309
士庶人之禮也	-11.2309
州閭鄉黨	-11.2309
成王既崩康王	-11.2309
所以致敬也	-11.2309
故曰行在孝經	-11.2309
旡妄	-11.2309
本盡則	-11.2309
栢槨	-11.2309
礿禘嘗烝	-11.2309
經孔子裁定	-11.2309
者也故坐	-11.2309
者皆孝也非孝則	-11.2309
而後升所以致尊	-11.2309
而後和和而後	-11.2309
臣子之恩	-11.2309
興道者與	-11.2309
菁英	-11.2309
身不安美	-11.2309
開元七年	-11.2309
雲雷雨	-11.2309
上陳天子	-11.2309
升堂	-11.2309
故不殺牛大夫無故不殺羊士無故不殺	-11.2309
犬豕	-11.2309
維祺曰	-11.2309
沐浴	-11.2309
許慎	-11.231
也此言鬼神	-11.2311
則思盡忠節	-11.2311
凌	-11.2311
漢文帝始除	-11.2311
人之修徳	-11.2311
務農桑	-11.2311
士民乎故得百姓之	-11.2311
太皥炎帝黄帝少皥顓頊	-11.2311
家至日見	-11.2311
既畢乃引	-11.2311
絃歌	-11.2311
聖人之徳無以加於孝故曰至徳	-11.2311
自天子至于庶人	-11.2311
自然名揚後世光顯其親故行	-11.2311
諌爭之	-11.2311
告之以	-11.2311
而後仁	-11.2311
慨	-11.2311
大夫能早夜不惰敬事其	-11.2311
晝	-11.2312
郭	-11.2312
孔惠	-11.2312
此五者	-11.2312
躋	-11.2312
男子治外	-11.2312
之禮廢而	-11.2312
朽	-11.2312
孚	-11.2312
不啻	-11.2312
玩其所樂	-11.2312
簒弑者	-11.2312
處其所存	-11.2312
隋開皇	-11.2312
三十四年	-11.2312
互相通	-11.2312
人上者奈	-11.2312
入口三日	-11.2312
尊尊親親	-11.2312
甚矣曽子之	-11.2312
隧	-11.2312
不言而信	-11.2312
二曾子敢問章分	-11.2312
勅議	-11.2312
千五百	-11.2312
庶人敢問章為	-11.2312
明孫本	-11.2312
疑丞	-11.2312
親歾	-11.2312
隂陽日星	-11.2312
靖共爾位	-11.2312
三揖而後至階三	-11.2312
之理始於	-11.2312
佐車	-11.2312
効	-11.2312
咸陽	-11.2312
夏殷之禮	-11.2312
天寳二年	-11.2312
悚	-11.2312
情義利患	-11.2312
惴	-11.2312
慶賞刑威	-11.2312
所為主者皆	-11.2312
曾子之自救	-11.2312
服以要利禄	-11.2312
沈	-11.2312
洫	-11.2312
熬曰	-11.2312
用葱	-11.2312
發源	-11.2312
盜跖	-11.2312
筆則筆削則削	-11.2312
筭	-11.2312
耻辱	-11.2312
肺	-11.2312
臂	-11.2312
芑	-11.2312
足衣食	-11.2312
醮	-11.2312
錢	-11.2312
順時令	-11.2312
千八百	-11.2313
郤	-11.2313
愾	-11.2314
八章申言	-11.2314
土地之厚	-11.2314
下君臣同德故能相親	-11.2314
家喻户曉	-11.2314
㨿	-11.2314
一樹殺一獸不以其時非孝也	-11.2314
置翣	-11.2314
隴	-11.2314
仰觀俯察之	-11.2314
婦人幽閉	-11.2314
左右前後	-11.2314
師曠	-11.2314
誚	-11.2314
擴	-11.2314
忝爾所生	-11.2314
而諫	-11.2314
黨	-11.2314
無斁	-11.2315
乖謬	-11.2315
以后稷配郊	-11.2315
而曠代亡逸不被流行	-11.2315
乾肝焦肺水漿不	-11.2315
傳於世	-11.2315
愚夫愚婦	-11.2315
曲禮曰毋不敬	-11.2315
粥以飲食之	-11.2315
翟	-11.2315
舊觧云	-11.2315
艮	-11.2315
陳人處	-11.2315
懐抱	-11.2315
興道之士	-11.2315
詰	-11.2315
譬	-11.2315
不相非也	-11.2315
也雩宗	-11.2315
以導和	-11.2315
以施教于	-11.2315
卜商	-11.2315
君之心即	-11.2315
嚴刑肅	-11.2315
多知而	-11.2315
大夫相見以	-11.2315
夫是則庶乎	-11.2315
孝者五常之本百行之	-11.2315
射鄉	-11.2315
愛君雖離左右不謂為遠	-11.2315
所奪於臣下	-11.2315
敬以事長則為順	-11.2315
敬其為君父之道	-11.2315
方始發	-11.2315
於此乎天下有道	-11.2315
易知則有親易	-11.2315
木以時伐焉禽獸以時殺焉	-11.2315
椑棺	-11.2315
洵	-11.2315
父母之喪既殯食	-11.2315
窮本知變	-11.2315
筆削	-11.2315
而不可言孝則	-11.2315
聰明	-11.2315
與張南軒	-11.2315
舊行用孔	-11.2315
芟	-11.2315
詬炫	-11.2315
足以及物而	-11.2315
辭其贄	-11.2315
迭	-11.2315
郊祀禘嘗	-11.2315
闕五行	-11.2315
以求役	-11.2315
兄是也智之實知	-11.2315
兆域	-11.2315
子産之言唯易	-11.2315
曰仁之實事親是也義之實	-11.2315
託諸空	-11.2315
諸侯受命於天子	-11.2315
鑒諦	-11.2315
麛	-11.2315
蟲	-11.2316
揆	-11.2316
各有等差	-11.2317
曰臣聞	-11.2317
史館檢討	-11.2317
沽	-11.2317
淑常六	-11.2317
蒞	-11.2317
以日易月	-11.2317
故聖人之制	-11.2317
斟	-11.2317
貝	-11.2317
受忠告故不失其善名	-11.2317
君有過惡則正而止之	-11.2317
庶民之愚	-11.2317
弗去是也禮之實節文斯二者樂之實樂	-11.2317
恩掩義	-11.2317
教以順人心今自逆之則下無所法則也	-11.2317
昆蟲	-11.2317
注匡正也救止也	-11.2317
穰	-11.2317
立鯉	-11.2317
簟而襡之	-11.2317
而不仁者也未有孝而不義者也未有孝	-11.2317
遐遠也義取臣心	-11.2317
邦族	-11.2317
訢	-11.2317
寅	-11.2317
飲酒食肉	-11.2317
婦順	-11.2318
刀	-11.2318
車馬	-11.2318
翰	-11.2318
足少而習	-11.2318
於善而皆在於凶徳雖得之君子不貴也	-11.2318
身行愛敬也	-11.2318
義從化也	-11.2318
蒸民	-11.2318
彜	-11.2318
楊氏	-11.2318
非仁人	-11.2318
長守貴也滿而不溢所以長守富也	-11.2318
柴	-11.2318
立學官	-11.2318
並無一字	-11.2318
數飲酒	-11.2318
子與曰殷	-11.2318
宫掖	-11.2318
議郎衛宏所	-11.2318
賜姓	-11.2318
企	-11.2318
帝謂東方青帝靈威仰	-11.2318
弗之忘	-11.2318
族食世降一等	-11.2318
筵	-11.2318
複	-11.2318
三復白圭	-11.2318
主人筵几於廟	-11.2318
之尊有親之親	-11.2318
何啻	-11.2318
安固也	-11.2318
教流行莫不服	-11.2318
是日也以吉祭易喪祭明日祔	-11.2318
治世之要	-11.2318
治國其如	-11.2318
男女之别	-11.2318
而備矣孝子事	-11.2318
三曲而偯	-11.2318
不以道則耻之	-11.2318
不容復有毫髪	-11.2318
不必言配	-11.2318
乃非之是無心	-11.2318
乎曰移而	-11.2318
也幽宗	-11.2318
也瘞埋	-11.2318
事兄則悌以	-11.2318
亹亹	-11.2318
何異之有	-11.2318
先王之道徳	-11.2318
冄修	-11.2318
凡一十八章以相傳授	-11.2318
出入奏	-11.2318
劉炫駮云	-11.2318
升中于天	-11.2318
受大禄	-11.2318
可以與於祭乎孔子曰	-11.2318
各擅	-11.2318
吾恐其	-11.2318
咳	-11.2318
善思貽父母	-11.2318
在則禮然然而衆	-11.2318
地之與天不相敵也	-11.2318
坐奉席請何鄉	-11.2318
執主器	-11.2318
大功以下者	-11.2318
夫道至於	-11.2318
子履之必有怵惕之心如將見之	-11.2318
孔子乃假立曾子	-11.2318
孝經者孔子爲曾參陳孝道	-11.2318
孟仲子	-11.2318
孫卿子	-11.2318
小孝用力	-11.2318
嶽鎮河海	-11.2318
弁絰帶	-11.2318
張弛	-11.2318
徐子以告夷	-11.2318
心太剛	-11.2318
情文濫	-11.2318
意更定一㸃畫	-11.2318
愛君之志恒藏心中無日暫忘也	-11.2318
愴之心非其寒之謂也	-11.2318
慎始敬終	-11.2318
懃	-11.2318
我后之徳	-11.2318
抑搔癢痛懸衾篋枕以教愛也	-11.2318
搔	-11.2318
救周	-11.2318
敢於毁傷人	-11.2318
敬冠事	-11.2318
文句凡鄙	-11.2318
斬衰三年以	-11.2318
於月月	-11.2318
曰事君三違而不出竟則利禄也	-11.2318
曰敬之敬之天惟	-11.2318
有不先命於	-11.2318
有是四	-11.2318
根牟子	-11.2318
楷	-11.2318
樂具入奏	-11.2318
殊塗而	-11.2318
殺六畜不當及	-11.2318
民情多	-11.2318
永言孝思昭哉嗣服	-11.2318
河間王所得顔芝本	-11.2318
注言行至	-11.2318
火餘	-11.2318
猶且敬之	-11.2318
王公貴人	-11.2318
甓	-11.2318
疾止復	-11.2318
祚	-11.2318
禮也曽子曰不以	-11.2318
立功於國	-11.2318
竭力盡能以	-11.2318
精粗	-11.2318
糟粕	-11.2318
素車	-11.2318
維仲山甫舉之	-11.2318
縦	-11.2318
膺	-11.2318
膾	-11.2318
葬事大故卜之	-11.2318
視膳	-11.2318
言是席之	-11.2318
詣	-11.2318
請益問答之	-11.2318
論二程遺書	-11.2318
諸章以次	-11.2318
足以動衆	-11.2318
身為王者不禰其父	-11.2318
道則突若	-11.2318
鄉道而行中道而廢	-11.2318
酏	-11.2318
重合厚二尺	-11.2318
闥	-11.2318
吳	-11.2319
繋	-11.2319
死無憾	-11.2319
脯醢	-11.2319
不敢忘	-11.2319
暫	-11.2319
泉	-11.2319
蠻	-11.2319
縷	-11.2319
推吐雷	-11.232
怡	-11.232
康誥曰	-11.232
人皆有之不待	-11.232
正義曰此章首	-11.232
令善也益者三友言	-11.232
配於天地矣	-11.232
劉共父	-11.232
劓罰之屬千	-11.232
在蒙幼	-11.232
後能孝故移孝以事君則為忠	-11.232
撫㓜則慈	-11.232
有虞之不郊	-11.232
百官族人可謂曰知	-11.232
祀矣此盖	-11.232
胡文定	-11.232
蒼蒼然	-11.232
行仁必自孝始	-11.232
謂平常	-11.232
之舞之足之蹈之	-11.232
兆卦也字書皆作垗廣韻云垗葬也	-11.232
慥	-11.232
斯二者樂則生矣生則惡可已	-11.232
者奉席請何趾少者執牀與坐御者舉几	-11.232
肌	-11.232
伯子男	-11.232
悲哀在	-11.232
侯伯子男	-11.232
遥	-11.2321
無故字有子曰	-11.2321
歠	-11.2321
遽	-11.2321
紛	-11.2321
所繇来	-11.2321
艾	-11.2321
聼朝	-11.2322
玉帛	-11.2322
欣欣	-11.2322
等子男	-11.2322
云分别五土視其高下	-11.2322
人也我亦人也舜	-11.2322
仲尼孔子字居謂閒居	-11.2322
千七百七十三	-11.2322
建武時	-11.2322
禹曰朕	-11.2322
繼髙祖者也然則	-11.2322
胼胝	-11.2322
若此而已	-11.2322
行者弗敢過	-11.2322
西戎	-11.2322
以鼗	-11.2322
倚廬	-11.2322
則守於公襧	-11.2322
望望	-11.2322
朱子刊	-11.2322
溷	-11.2322
父母之喪居倚廬	-11.2322
而全其生也	-11.2322
號咷	-11.2322
詩曰天生	-11.2322
諄	-11.2322
三還贄	-11.2322
不可飾也	-11.2322
不忍欺	-11.2322
也商頌曰	-11.2322
人倫正性	-11.2322
使民不以時失國	-11.2322
傳魯人	-11.2322
兕牛皮	-11.2322
其禮益	-11.2322
凡此者皆	-11.2322
劉向校經籍比量二	-11.2322
又曰父母之喪既	-11.2322
取其語以	-11.2322
叛	-11.2322
可人也吾	-11.2322
可以贊天	-11.2322
吾之一身父母生之本同體也	-11.2322
吾信之	-11.2322
和彈之而	-11.2322
哀之至也	-11.2322
唐宫闈不肅	-11.2322
喪不慮居	-11.2322
在吾仁之中無一事	-11.2322
士見於大夫	-11.2322
大旅	-11.2322
子曰舜其大孝也與徳為聖人	-11.2322
孔佚	-11.2322
存殁頓異	-11.2322
孟子曰吾今	-11.2322
定而不列名	-11.2322
宜其妻父母	-11.2322
式路馬	-11.2322
性參天地	-11.2322
悠	-11.2322
情當之謂	-11.2322
愛敬各有	-11.2322
成聲作而曰	-11.2322
所以交於神明者不可同於安	-11.2322
摧	-11.2322
既除喪而見予之琴和之而	-11.2322
春夏秋冬	-11.2322
本除其煩惑以十八章	-11.2322
杝棺	-11.2322
樂也有親可	-11.2322
殺草木	-11.2322
毁不危身	-11.2322
水牛皮	-11.2322
温凊	-11.2322
為中和以	-11.2322
燕私之樂	-11.2322
班氏	-11.2322
異同則相親異則相敬樂勝則流	-11.2322
當作某	-11.2322
皆奪之	-11.2322
禘有樂而嘗無樂	-11.2322
罷	-11.2322
羸	-11.2322
者其弊	-11.2322
肉刑	-11.2322
自斬衰而下	-11.2322
舉天下之大無一物	-11.2322
萇	-11.2322
萬物本乎天人本乎祖	-11.2322
葢言學也	-11.2322
藝文志孝經古孔氏一篇	-11.2322
蠱	-11.2322
言不過辭動不過則	-11.2322
諫而不逆	-11.2322
蹤跡	-11.2322
隆於父一本故也致一而後能誠知本而	-11.2322
集錄	-11.2322
食養隂氣也故	-11.2322
飲養陽氣	-11.2322
齊詩魯詩	-11.2322
倉	-11.2322
凰	-11.2322
堅	-11.2322
宋郉昺疏	-11.2322
惡可已則不知手	-11.2322
戾心	-11.2322
敬生於心恭為敬	-11.2322
晏子曰	-11.2322
石臺孝經	-11.2322
箕	-11.2322
聲為哭	-11.2322
肅肅	-11.2322
臣弑其君子弑其父	-11.2322
芮	-11.2322
親親而仁民仁民而愛物	-11.2322
辭不得命	-11.2322
雨露既濡君	-11.2322
級	-11.2322
事地察	-11.2322
義曰此依王注也	-11.2322
遂廢	-11.2322
而其	-11.2322
愷悌君子	-11.2322
河間劉炫	-11.2322
毫	-11.2323
山澤	-11.2323
有終身之憂無一朝之患也乃若所憂則	-11.2323
未免為鄉人也是則可憂也憂之如何如	-11.2323
人公與父兄齒	-11.2323
宜黍稷下	-11.2323
有事弟子服其勞有酒食先生饌	-11.2323
殊俗而	-11.2323
短喪	-11.2323
若公與族燕則異姓為賔膳宰為主	-11.2323
行東行者弗敢過欲言政者君就之可也	-11.2323
上所陳	-11.2323
事物當然之理	-11.2323
唯而不對	-11.2323
殘缺	-11.2323
者亦言引詩	-11.2323
落	-11.2323
五峰語録	-11.2323
彼無惡在此無斁	-11.2323
徒協反	-11.2323
樂者為同禮者為	-11.2323
而好犯上者鮮矣	-11.2323
蠻夷	-11.2323
見理太明	-11.2323
言上三事皆可亾身	-11.2323
言悖其徳禮雖得志於人上君子	-11.2323
也親則父也尊則君也有父之親有君之	-11.2323
使之與成王居欲令成王之知父子君臣	-11.2323
吕刑云墨罰之屬千	-11.2323
如此其廣大者乎	-11.2323
威猛而	-11.2323
尊仁安義	-11.2323
尊然後兼天下而有之	-11.2323
性可滅	-11.2323
慈為愛體	-11.2323
敬之教故出以就傅趨而過庭以教	-11.2323
此章開張一經之宗	-11.2323
毎	-11.2323
焉學之為	-11.2323
縁	-11.2323
聖人因其親嚴之心敦以愛	-11.2323
臨雍養老	-11.2323
若非至徳之君	-11.2323
蟄不	-11.2323
貌為禮其禮也	-11.2323
類滅矣	-11.2323
塾	-11.2323
税	-11.2323
相息亮反	-11.2324
得百姓之歡心	-11.2324
父母全而生之己當全	-11.2324
姻	-11.2324
天地明察神明彰	-11.2324
章第一	-11.2324
因其固有而	-11.2324
子曰君子之事上也	-11.2324
泰折	-11.2325
言盡愛敬之道然	-11.2325
密	-11.2325
聖證	-11.2325
雩	-11.2325
不宜刪	-11.2325
五十八篇	-11.2325
於天子天子	-11.2325
有之舜	-11.2325
贅	-11.2325
贏	-11.2325
國人稱願然曰幸哉有子如此	-11.2325
央黄	-11.2325
居不主奥坐不中席	-11.2325
盆	-11.2325
遭秦焚	-11.2325
離析	-11.2325
不致毁六十	-11.2325
八章大傳第	-11.2325
其先君豈非孝道之大者	-11.2325
况知禮義之	-11.2325
則沐身	-11.2325
右傳十四則	-11.2325
夾氏	-11.2325
居喪之禮	-11.2325
搢	-11.2325
敬敷五	-11.2325
有瘍則浴有疾則飲酒食肉	-11.2325
正室守太	-11.2325
比於不慈不孝	-11.2325
為王者之	-11.2325
父失則諫故免陷於不	-11.2325
用力之不	-11.2325
紛紛	-11.2325
而不徑	-11.2325
而廢鄭	-11.2325
而湼之	-11.2325
腆	-11.2325
銷	-11.2325
陷沒	-11.2325
雄	-11.2325
頭有	-11.2325
三年不為	-11.2325
不自吾孝中出故曰教之所由	-11.2325
不誣	-11.2325
主于愛而愛莫切于愛親故	-11.2325
以正致諫	-11.2325
初除挾書之律	-11.2325
君之喪服除而	-11.2325
君使士	-11.2325
哲之王以孝道而治理天下也	-11.2325
嚳於圜丘	-11.2325
外就前	-11.2325
大饗之禮	-11.2325
天父君師	-11.2325
孝之為道	-11.2325
孝經注疏卷九考證	-11.2325
尊為天子富有四海之内宗廟	-11.2325
必得其位必得其禄必得其名必得其夀	-11.2325
慇	-11.2325
所以明貴賤	-11.2325
早夜	-11.2325
本顯明五	-11.2325
杞	-11.2325
殺則下	-11.2325
澹	-11.2325
熊禾序	-11.2325
父母全而生之已當全而歸	-11.2325
物無以生	-11.2325
百官有司莫	-11.2325
盡人之性則能盡物之性	-11.2325
盡人之性能	-11.2325
者也禮也者	-11.2325
者則首章	-11.2325
能備能備然後能	-11.2325
能盡其性則能	-11.2325
腒	-11.2325
若依鄭	-11.2325
茨	-11.2325
裝	-11.2325
親結諸心形諸色而術省之	-11.2325
言漆	-11.2325
諫逹善	-11.2325
趙文子	-11.2325
趙簡子	-11.2325
迸	-11.2325
遽塗其本編	-11.2325
韋昭謝	-11.2325
䕃	-11.2325
也其衣三章裳	-11.2325
也若繇	-11.2325
仕弗與共	-11.2325
以光祖考	-11.2325
則去杖	-11.2325
削閨門一章	-11.2325
加隆	-11.2325
唾洟	-11.2325
商祝	-11.2325
地之化育	-11.2325
外又有梓棺厚	-11.2325
大夫於君所則輯杖	-11.2325
大夫齊哀者	-11.2325
孝子無私	-11.2325
心為重	-11.2325
憒	-11.2325
放於日月	-11.2325
易直子諒之心	-11.2325
是世無可	-11.2325
未發秋政	-11.2325
止邪	-11.2325
民弗敢草	-11.2325
為義其意不在於	-11.2325
無㣲過則	-11.2325
無夫曰寡	-11.2325
父子有親	-11.2325
王邵所	-11.2325
神氣之易感也	-11.2325
禘祫	-11.2325
立極之統無以常其	-11.2325
聖人順羣心以行愛	-11.2325
蘧伯	-11.2325
蹌	-11.2325
還葬而無槨	-11.2325
醴清醩	-11.2325
院	-11.2325
霜露既降君子履之必有悽	-11.2325
齒於學	-11.2325
盡其歡	-11.2325
刻其顙	-11.2325
隔	-11.2325
天子下有已下	-11.2326
事君所事者惟父母	-11.2326
令儀令色小心	-11.2326
俯仰	-11.2326
洞	-11.2326
狹	-11.2326
言斯可道	-11.2326
得萬國之懽心	-11.2326
誇	-11.2326
依王肅	-11.2326
其親而稱孝者	-11.2326
從爪	-11.2326
有終有始	-11.2326
稷矣以此而事	-11.2326
立愛自親始	-11.2326
立敬自長始	-11.2326
至於後段則文既可疑而謂聖人見孝可	-11.2326
贖刑	-11.2326
不順天道則	-11.2326
以滑	-11.2326
傳於後代	-11.2326
兄百官皆不欲曰吾	-11.2326
内名自傳於後代	-11.2326
口體之奉	-11.2326
嚴肅自然成	-11.2326
天無二日土無二王	-11.2326
寒疾痛苛癢而敬抑搔之	-11.2326
引詩以寓	-11.2326
有本父者生之本也	-11.2326
窮理之至	-11.2326
而戸到	-11.2326
而面命之也	-11.2326
脂	-11.2326
言善人君子	-11.2326
詮釋	-11.2326
鞠	-11.2326
劍	-11.2326
可以治官	-11.2326
拓	-11.2326
敬制禮則以施政教亦不待	-11.2326
竄	-11.2326
詩云彼都人士	-11.2326
説卦云	-11.2326
豆籩	-11.2326
遷善	-11.2326
陳亢	-11.2326
之心者也	-11.2326
旋	-11.2326
餙	-11.2327
無可擇之行	-11.2327
則四方之	-11.2327
范	-11.2327
言不及	-11.2327
可盡從乃	-11.2327
子從父之令夫子以令有善惡不	-11.2327
常念爾之先祖	-11.2327
狥	-11.2327
詩大雅也無念念也聿述也厥	-11.2327
述諫諍之事	-11.2327
下謂孩幼之時也	-11.2327
邰	-11.2327
音悦	-11.2327
倦	-11.2327
於客位	-11.2327
移事父之孝以事君	-11.2327
與敬而兼之	-11.2327
神農	-11.2328
彈	-11.2328
孝經緯	-11.2328
孝而至	-11.2328
事者後	-11.2328
則福祿至	-11.2328
不相屬故	-11.2328
福不善則宗	-11.2328
給事中	-11.2328
蟻	-11.2328
陟	-11.2328
入揖讓	-11.2328
北鄉	-11.2328
多鄙俚不經	-11.2328
所以明長幼之序也	-11.2328
摭	-11.2328
有人於此	-11.2328
有十謬七惑司馬堅斥孔	-11.2328
紐	-11.2328
繇而生	-11.2328
藜	-11.2328
軾	-11.2328
不敢侮於鰥寡	-11.2328
也明乎郊社之	-11.2328
也言上古之	-11.2328
典籍	-11.2328
嘘	-11.2328
埋	-11.2328
庶人無故不食珍	-11.2328
無差等	-11.2328
理允當	-11.2328
蹴	-11.2328
車徒	-11.2328
陵遲	-11.2328
隠無犯又敬不	-11.2328
駿奔走	-11.2328
三者服言行也	-11.2328
不入公門	-11.2328
不安美餙故	-11.2328
人所共由	-11.2328
僚友稱其	-11.2328
兄弟親戚稱其慈	-11.2328
冠者不櫛	-11.2328
十八章為定	-11.2328
友稱其仁	-11.2328
可謂髙矣	-11.2328
各親其親各長	-11.2328
命士以上	-11.2328
哉禮之大也首尾通貫節目詳備	-11.2328
喜怒哀	-11.2328
嚴親嚴兄	-11.2328
四肢	-11.2328
地褊	-11.2328
壽	-11.2328
妻子臣妾繇百姓徒役也	-11.2328
孝經一十八章	-11.2328
寤	-11.2328
怒不至詈	-11.2328
愛親必自愛身始	-11.2328
日致太牢之養固非孝也	-11.2328
晨夕	-11.2328
有國有家	-11.2328
未有諫諍之禮	-11.2328
植成遂	-11.2328
無忘也爾雅云勿念也	-11.2328
然友反命	-11.2328
爭鬭之	-11.2328
父敬兄敬君之心	-11.2328
父父子子兄兄弟弟	-11.2328
祊	-11.2328
禮樂崩	-11.2328
禾黍	-11.2328
積於中則	-11.2328
組	-11.2328
而不除之雖	-11.2328
臨兆民凛乎若朽索之馭六馬為人上者	-11.2328
苞	-11.2328
菽麥	-11.2328
萃萬國之懽心	-11.2328
要之道以順	-11.2328
譴	-11.2328
財用不妄	-11.2328
適父母舅姑之所及所下氣怡聲問衣燠	-11.2328
閨門章二十四字	-11.2328
鰥寡即不驕不	-11.2328
鹹	-11.2328
𤣥衣纁裳	-11.2328
不敢忘其本	-11.2328
不毁傷其身以不毁	-11.2328
之不可任以	-11.2328
之心以及人也夫是之謂順	-11.2328
之親薦	-11.2328
使民有父之尊有母之親	-11.2328
儒官連狀題其章名	-11.2328
兢兢戒慎	-11.2328
其所由來	-11.2328
則先拜	-11.2328
反於君所	-11.2328
古文稱孔安國	-11.2328
可以為民父母矣非至徳其孰能如此乎	-11.2328
右傳八則	-11.2328
吉甫	-11.2328
因而不改	-11.2328
圈	-11.2328
墟墓之間	-11.2328
壇之北	-11.2328
士必有其	-11.2328
好事者	-11.2328
學舞干戚	-11.2328
將繇夫	-11.2328
導民以	-11.2328
小異然	-11.2328
居之不能無	-11.2328
帛妙子	-11.2328
徽	-11.2328
揚於後代	-11.2328
政入於	-11.2328
敢不哀	-11.2328
曰仁者殆恭者不入	-11.2328
未施敬於民而民敬	-11.2328
本謂孝也	-11.2328
氣竭而息聲不委曲	-11.2328
漢書藝文志云	-11.2328
甫刑卽尚書	-11.2328
田農	-11.2328
笞三百	-11.2328
笞五百	-11.2328
而不遺親之	-11.2328
自以為無罪	-11.2328
莫不尊親故曰	-11.2328
萬徐整	-11.2328
藝黍稷	-11.2328
衣服不備不敢以祭	-11.2328
詩曰薄汚我私薄澣我衣害澣害否	-11.2328
趾	-11.2328
降兩故有	-11.2328
魯頌商頌	-11.2328
鳯	-11.2328
可度	-11.2328
身體髮膚	-11.2328
自以為無	-11.2328
郊社之義	-11.2328
再言之者	-11.2329
故親生之膝下	-11.2329
之利謂土地	-11.2329
也節用者省節	-11.2329
也謹身者謹修其身不妄	-11.2329
其也義取恒念先祖述脩其德	-11.2329
其所引詩亦不親切今定先王見教以下	-11.2329
反不若彼之完備明此襲彼非彼取此	-11.2329
生植農桑之	-11.2329
費也庶人未受命	-11.2329
族黨	-11.2329
父事三老兄事五更	-11.2329
不舉火	-11.2329
經地義	-11.2329
孝德之本	-11.2329
練祥	-11.2329
其祿位永守其祭	-11.2329
全而歸之	-11.2329
夫孝天之經也地之義也民之行也	-11.2329
提要	-11.2329
嘆	-11.2329
影	-11.2329
丙申	-11.2329
推而廣之自	-11.2329
善則億兆	-11.2329
沙礫	-11.2329
馴	-11.2329
詩曰成王	-11.2329
以孝治天下國家	-11.2329
周禮大司徒	-11.2329
唐虞之治	-11.2329
有非而從成父不	-11.2329
注廣敬也	-11.2329
濫觴於漢傳之者皆糟粕之餘	-11.2329
苴杖	-11.2329
菜	-11.2329
違故疑而問之	-11.2329
不敢少失其心	-11.2329
人而諭之	-11.2329
俛	-11.2329
傳顧未敢耳	-11.2329
其曰先王見教之可以化民又與上文	-11.2329
四嶽	-11.2329
大夫有大夫之	-11.2329
孝親弟兄	-11.2329
忠君順長	-11.2329
恊	-11.2329
明王明哲之君遺忽忘也小國之臣謂土	-11.2329
本然之徳性	-11.2329
正義曰此依韋注也	-11.2329
温公改教為孝乃得粗通而下文所謂	-11.2329
疾甚曰病	-11.2329
義勝恩故也	-11.2329
義母主恩故也	-11.2329
羶	-11.2329
舞象	-11.2329
薦而不祭又非士	-11.2329
衣食既足	-11.2329
親既長	-11.2329
言行無可擇	-11.2329
鄭𤣥云無念	-11.2329
閭巷	-11.2329
上同然無	-11.2329
亦無所不通矣	-11.2329
以事父之心而事君則忠矣	-11.2329
使正直者邇於刑弗違則殆於罪	-11.2329
勇敢强有力	-11.2329
固所自盡	-11.2329
太子初生	-11.2329
心和而王業	-11.2329
恒常合宜之	-11.2329
掦名顯	-11.2329
教之以臣使凡為人	-11.2329
根於性也	-11.2329
用之於禮義	-11.2329
社稷靈長而宗廟奠安	-11.2329
神明之功	-11.2329
筋力	-11.2329
至此方言出一孝字	-11.2329
親故孝為徳之至	-11.2329
過於不孝	-11.2329
鰥夫寡婦	-11.2329
裕	-11.2329
義曰此依鄭注也	-11.233
尊卑貴賤	-11.233
聞樂之和有所不樂食味之㫖有	-11.233
所以為生民立命也	-11.233
與此不同	-11.233
諸侯章第三在上不驕髙而不危	-11.233
高下燥濕	-11.233
在醜	-11.233
徳義敬讓禮樂	-11.233
士言祭祀各以其	-11.2331
謂錦繡	-11.2331
亦格言也	-11.2331
恐其下有伏石	-11.2331
奔走	-11.2331
璧	-11.2331
身體髪膚	-11.2331
泰壇	-11.2331
簡編	-11.2331
男踊女擗	-11.2331
丑	-11.2331
子孔子弟子侍謂侍坐	-11.2331
社受其禍	-11.2331
堯舜之道孝弟而已矣	-11.2331
故又假曽子之問	-11.2331
棺土	-11.2331
潁	-11.2331
而不倦	-11.2331
聊	-11.2331
性習	-11.2331
日躋	-11.2331
闢	-11.2331
不勝喪乃	-11.2331
子嬰二年春正月項羽尊楚	-11.2331
授卜商傳至大毛公名亨	-11.2331
泊	-11.2331
洞洞乎	-11.2331
知愛知敬	-11.2331
義講信修睦	-11.2331
茅	-11.2331
虗	-11.2331
要君非聖非孝之	-11.2331
謂然友	-11.2331
上行下效使人	-11.2331
兄弟備言燕私	-11.2331
公侯伯子男大國之臣乎以此之故所以	-11.2331
則一身四體舉	-11.2331
則之則天之明因地之性其下便	-11.2331
則毛髮肌膚此皆受之	-11.2331
又案司服	-11.2331
君臣父子長幼之道	-11.2331
吾取之以敬也吾得之以敬也	-11.2331
嗜慾	-11.2331
報國之道	-11.2331
始於事親中於事君	-11.2331
婣	-11.2331
孝之義理故	-11.2331
成湯之	-11.2331
日人實反	-11.2331
此為大焉	-11.2331
此物此志也	-11.2331
毛詩韓詩	-11.2331
父母㡬諫見志不從又敬不違	-11.2331
祫祭	-11.2331
羽籥	-11.2331
致愛則存致慤則著著存不忘乎心	-11.2331
虞夏商周	-11.2331
貴信於天下之君	-11.2331
身不能居仁	-11.2331
通貫條目	-11.2331
飲水	-11.2331
㑹而及於	-11.2331
上祀四世與	-11.2331
不事不仁	-11.2331
不可斯須	-11.2331
不忍人之政	-11.2331
不期侈	-11.2331
不讎其君	-11.2331
之君所朝夕否曰君	-11.2331
之心入之矣	-11.2331
之棺以周衣	-11.2331
之而未暇	-11.2331
之選子	-11.2331
也陳其簠簋奠以素	-11.2331
五子之歌	-11.2331
人以是闋秋嘗之樂	-11.2331
以君之喪而除父	-11.2331
以周棺衣衾以周身然	-11.2331
以樂享老幼	-11.2331
以樂祀	-11.2331
以飬父母日嚴	-11.2331
其位高矣高	-11.2331
其民民皆	-11.2331
其親者矣天子	-11.2331
凡大合樂必遂養	-11.2331
列於朝出入	-11.2331
到户至日見而語之但行孝於内其化自	-11.2331
刻石	-11.2331
則傷痛而哀戚之其祖	-11.2331
則移之以貞	-11.2331
卻	-11.2331
去國三世爵祿	-11.2331
又弗見也	-11.2331
君子有終身之	-11.2331
君舉旅	-11.2331
呉郡	-11.2331
唐元宗	-11.2331
圭九寸	-11.2331
圭璋	-11.2331
垢和灰請	-11.2331
墳墓	-11.2331
如之何孔子曰遂既封	-11.2331
孔叢子	-11.2331
字亦作	-11.2331
存則安其	-11.2331
孰重曰	-11.2331
學者所當	-11.2331
宅葬	-11.2331
家必有制也則	-11.2331
小聘三年	-11.2331
山之上深澤之	-11.2331
扶而起	-11.2331
抒	-11.2331
援神契自天子至庶人	-11.2331
故可尊	-11.2331
敬一人而千萬人悦	-11.2331
文王之祭也事死	-11.2331
於民而民	-11.2331
施得其要而已	-11.2331
既卒哭	-11.2331
早已施	-11.2331
是知貴不與驕期而驕自	-11.2331
曰柰何去	-11.2331
曾申	-11.2331
有不忍人之心	-11.2331
有貴者以齒	-11.2331
未為不道也	-11.2331
本末差等	-11.2331
杖而起	-11.2331
柰何不敬	-11.2331
横命	-11.2331
正也猶生長于	-11.2331
比於樂而中	-11.2331
比於禮其節	-11.2331
治其心氣	-11.2331
洙	-11.2331
父在不杖	-11.2331
王則孝道至矣	-11.2331
用之於戰勝	-11.2331
田祿者	-11.2331
瞽宗	-11.2331
矯偽	-11.2331
稼以老十室之邑	-11.2331
縱	-11.2331
考廟享嘗乃止	-11.2331
者人亦殺其	-11.2331
者容也	-11.2331
而待加之	-11.2331
而徑	-11.2331
聚橡栗藜藿而食之	-11.2331
聚羣嚮	-11.2331
胷	-11.2331
自有之情非聖人強	-11.2331
若能不以	-11.2331
補綴	-11.2331
親睦九族	-11.2331
言入則望	-11.2331
言父有非	-11.2331
負薪之	-11.2331
賵	-11.2331
輟朝而顧	-11.2331
餞也女擗男踊號哭涕泣	-11.2331
􁄀	-11.2331
􁏉	-11.2331
未足以	-11.2331
佳	-11.2331
其細而言	-11.2331
争於父臣不可以	-11.2331
弗争於君故當不義則争之從父之令	-11.2331
歠粥	-11.2331
苦在反	-11.2331
舅	-11.2332
無善政	-11.2332
言斯可道行斯可樂	-11.2332
也孝子喪親	-11.2332
其哭也不偯氣竭而盡不能委曲	-11.2332
則使人執	-11.2332
前章明先王因天地	-11.2332
敬父敬君	-11.2332
是春秋左氏傳所載子太叔為趙簡子道	-11.2332
説敬其君則臣説	-11.2332
刑之屬三千	-11.2332
夙興夜寐無忝爾所生	-11.2332
無以加於孝	-11.2332
首章略言揚名之義而	-11.2332
紏	-11.2333
右傳七則	-11.2333
赫赫師尹	-11.2333
鄭注論語云	-11.2333
卿大夫以孝治其	-11.2333
家者推其愛敬之心	-11.2333
有始終也	-11.2333
義理所不可故再言之	-11.2333
良知良能	-11.2333
骨肉	-11.2333
之書也書	-11.2333
人道之至大者也	-11.2333
以養父母為孝	-11.2333
伯夷叔齊	-11.2333
克予非朕文考有罪惟予小子無良	-11.2333
命不易哉無曰髙髙	-11.2333
因性明教	-11.2333
己著録	-11.2333
所不學而能者其	-11.2333
所不慮而知者其良知也	-11.2333
服堯之服	-11.2333
朕文考無罪	-11.2333
此事奉其先	-11.2333
注平居必盡其敬	-11.2333
渾	-11.2333
為庶人冠取妻必告死必赴	-11.2333
焉吾盡吾敬以	-11.2333
祀無豐于	-11.2333
誓曰予克	-11.2333
誦堯之言行	-11.2333
非予武惟	-11.2333
不載其名	-11.2333
丙午八月十二日記	-11.2333
五虐之	-11.2333
今有一箇道理	-11.2333
俎豆	-11.2333
則世無不親之	-11.2333
夙絶之	-11.2333
愛親而後愛	-11.2333
拳拳	-11.2333
推以配天配上帝	-11.2333
教一人而千萬人	-11.2333
教不必家	-11.2333
有功徳於民者	-11.2333
禮三年之喪三	-11.2333
秉彝	-11.2333
簡則易從	-11.2333
終日言不在尤之	-11.2333
絜	-11.2333
者也禮者體此者也行者行此者也彊者	-11.2333
者言乎其	-11.2333
與侈期而侈自	-11.2333
舉臣道以為教則天下之為人臣	-11.2333
邪音耶	-11.2333
之比矣	-11.2333
詩大雅泂酌之篇	-11.2333
逐	-11.2333
闋	-11.2333
奢侈	-11.2333
門之外	-11.2333
事宗廟則事天地能明察也	-11.2333
以示民有終極	-11.2333
所以為至徳	-11.2333
敢少有毁傷此	-11.2333
東西南北	-11.2333
甫刑尚書作吕刑	-11.2333
盡故使復位而坐	-11.2333
社土神稷榖神	-11.2333
義取君以樂	-11.2333
敬盡於事親	-11.2334
奔	-11.2334
煨	-11.2334
於其所尊	-11.2334
駿	-11.2334
黼	-11.2334
行滿天下無怨惡	-11.2334
於此廣之故以名章次	-11.2334
賜圭瓚	-11.2334
妻子家之貴者	-11.2334
言滿天下無口過	-11.2334
妣	-11.2334
無閒坐二字則	-11.2334
狎侮	-11.2334
神侑坐而食	-11.2334
千餘	-11.2334
徙	-11.2334
丘陵	-11.2334
四海四海之内	-11.2334
是愛深而敬薄	-11.2334
隨事表名	-11.2334
之師惟其克相上帝	-11.2334
作之君作	-11.2334
國子博士	-11.2334
富與貴	-11.2334
帝羽自立爲西楚霸王更立沛公爲漢王	-11.2334
腥	-11.2334
苽	-11.2334
逺庖厨	-11.2334
隂陽之交	-11.2334
雲雷風雨	-11.2334
侯地方百里伯七十里子男	-11.2334
六畜	-11.2334
制立節限	-11.2334
吹	-11.2334
咸平中	-11.2334
壹不知夫	-11.2334
奮	-11.2334
寖	-11.2334
於孝則非	-11.2334
本又作	-11.2334
樂也悌易也義取君以樂易之道化人則	-11.2334
毛傳文	-11.2334
毛詩自夫子	-11.2334
生此王國	-11.2334
疏用廣𤼵揮	-11.2334
發揮	-11.2334
跼蹐	-11.2334
隮	-11.2334
雷霆	-11.2334
黔	-11.2334
點	-11.2334
㓕性此聖人之政	-11.2334
䘮不過三年示民有終	-11.2334
世之功	-11.2334
之君子與則三年	-11.2334
之子也可	-11.2334
之意亦見于言表	-11.2334
之治天下也士民	-11.2334
之禮也然而已進矣	-11.2334
也而其道通於	-11.2334
亦卜牲	-11.2334
人不過乎物孝子不過乎物	-11.2334
人是心也	-11.2334
仕魏歴	-11.2334
以涖之	-11.2334
以造化之	-11.2334
俗儒	-11.2334
修持其身謹慎其行	-11.2334
先觀容	-11.2334
公族無宫刑	-11.2334
内外交	-11.2334
列於學官	-11.2334
制度衣服	-11.2334
則人化之	-11.2334
則悲哀而	-11.2334
則成親成親則成	-11.2334
則熱中	-11.2334
則皆天也天	-11.2334
劉知幾主古文	-11.2334
匍匐	-11.2334
卑尊卑	-11.2334
古文此章在	-11.2334
可以顯親雖	-11.2334
司馬貞主今文	-11.2334
君不得於君	-11.2334
喪内恕孔悲	-11.2334
地之理故	-11.2334
堂矣未入於室	-11.2334
大夫士去國	-11.2334
孝子之情無	-11.2334
宛言而	-11.2334
寢苫枕	-11.2334
少則慕父母知好色則慕少艾仕則慕	-11.2334
已慤	-11.2334
廟以奉其先祖之祭	-11.2334
從八正	-11.2334
忠吿	-11.2334
愛敬生愛敬	-11.2334
感化悅從	-11.2334
憚憚	-11.2334
敢不敬乎	-11.2334
敬慎重正	-11.2334
敬親而後敬人	-11.2334
方曰簠圓曰	-11.2334
春秋與紀	-11.2334
曰顯考廟曰祖考廟皆月祭之逺廟為祧	-11.2334
曽子問曰	-11.2334
本亂而末治者否矣	-11.2334
檢討	-11.2334
殄	-11.2334
殉死者	-11.2334
毁謂虧辱傷謂	-11.2334
淵源三	-11.2334
無自而生焉	-11.2334
玊	-11.2334
王立七廟	-11.2334
瑞節也	-11.2334
生事之以禮死	-11.2334
畏之見逐智之見殺	-11.2334
當念其	-11.2334
皆有此愛敬之心而	-11.2334
眎	-11.2334
祧享嘗乃止	-11.2334
祭之日入室僾然必有	-11.2334
節其用而	-11.2334
終畢乃引	-11.2334
終身弗辱	-11.2334
維寳	-11.2334
縟節	-11.2334
繩墨	-11.2334
者也義者宜此者也忠者中此者也信者	-11.2334
而猶未忘	-11.2334
聚順以為	-11.2334
胡亥	-11.2334
臨之以莊	-11.2334
自上以下降殺以兩	-11.2334
與於祭而君有	-11.2334
舌	-11.2334
若此則可謂	-11.2334
蔬	-11.2334
見乎其位周還出	-11.2334
言臣心愛君	-11.2334
言行皆滿於天下	-11.2334
訪	-11.2334
詩曰於繹思	-11.2334
譎諫	-11.2334
載光書	-11.2334
轅	-11.2334
迨及	-11.2334
追逺之禮也	-11.2334
逓	-11.2334
逝	-11.2334
道既行則	-11.2334
遡	-11.2334
邇臣守和	-11.2334
鋪	-11.2334
開創	-11.2334
陳振孫書録解題	-11.2334
陵墳衍	-11.2334
雖父母殁	-11.2334
雲谷山中	-11.2334
順徳順道	-11.2334
顛連無告	-11.2334
飾次交言辭後	-11.2334
駿奔走在廟	-11.2334
騫	-11.2334
者樂易之君子也	-11.2334
右傳之七章	-11.2335
必合規矩則可觀	-11.2335
施於兄則	-11.2335
剕罰之屬五百宫罰之屬三百大	-11.2335
䘮服四制	-11.2335
先君始受命	-11.2335
敕	-11.2335
服法服道法言行徳行三者	-11.2335
無可擇之言行於身者	-11.2335
舉小以見大耳百姓	-11.2335
長守其宗	-11.2335
官椁音郭	-11.2335
沐	-11.2335
争之從父之命又	-11.2336
歆	-11.2336
參曾子名也禮師有問避席起答	-11.2336
焉於䖍反	-11.2336
也不教敬則不嚴不和親	-11.2336
也敬譲者孝	-11.2336
勝則離是嚴多而愛	-11.2336
待教而此言教	-11.2336
故君子不出家而成	-11.2336
事母孝故事	-11.2336
兆庶皆倚賴之	-11.2336
冬至祀天于	-11.2336
剕罰之屬五百宫罰之屬三百大辟之罰	-11.2336
姪	-11.2336
所不甘	-11.2336
洩冶	-11.2336
衹	-11.2336
軰	-11.2336
不讇	-11.2336
之者莫善於身自行	-11.2336
事親有隐而無犯	-11.2336
以墨劓	-11.2336
使吾下故見為愛焉是以見	-11.2336
侮慢忽也一命以上	-11.2336
偯聲餘從容也	-11.2336
凊昏定晨省	-11.2336
則吾與慮	-11.2336
可肚裏先横却一個	-11.2336
喪多而服五	-11.2336
壯	-11.2336
多而刑五	-11.2336
奴婢	-11.2336
孝經述註一卷	-11.2336
季武王	-11.2336
廣大此畧言之	-11.2336
後舉而斂之	-11.2336
接吾敵故見為信焉吾盡吾敬以	-11.2336
時之氣春	-11.2336
曰吾盡吾敬以事吾上故見為忠	-11.2336
有師之嚴	-11.2336
未盡底已私所謂賢者之過	-11.2336
樂自順此生刑自反此作	-11.2336
殿中丞	-11.2336
父母之所敬	-11.2336
緯書	-11.2336
老而無妻曰鰥老而無夫	-11.2336
者敎之以	-11.2336
聞孔子之言	-11.2336
自處太重	-11.2336
舉孝悌以為教則天下之	-11.2336
舉農畝之事順四	-11.2336
苛	-11.2336
裂	-11.2336
襁褓之	-11.2336
詩曰諸父	-11.2336
閒音閑	-11.2336
類聖言亦不類漢儒語是後儒偽作明甚	-11.2336
黜	-11.2336
截其鼻	-11.2336
說文云	-11.2336
取其敬合愛	-11.2336
俊	-11.2336
慎終之禮也為廟	-11.2336
大於孝故	-11.2336
一孝立而	-11.2337
之故非法	-11.2337
則不言言則必合	-11.2337
前今詳此章	-11.2337
善補過也	-11.2337
士無田則亦	-11.2337
庶人章凡五章	-11.2337
治一國者	-11.2337
法非道則不行行則必中	-11.2337
禄位與祭祀相	-11.2337
自此推之	-11.2337
閭	-11.2337
若也	-11.2337
山井鼎	-11.2337
條有三千	-11.2337
此則孝之終	-11.2337
輿	-11.2337
正則邪	-11.2337
嚌	-11.2337
在天為	-11.2337
明堂之位	-11.2337
案説文云	-11.2337
猛	-11.2337
聞其聲	-11.2337
不稱老	-11.2337
五行之秀氣	-11.2337
廢鄭於	-11.2337
王於緝熈敬止	-11.2337
穆穆文	-11.2337
記諸篇	-11.2337
不必有餘	-11.2337
且夫子談經志取垂訓	-11.2337
也制節制財用之節謹度	-11.2337
仁與義	-11.2337
以柷	-11.2337
信而好古	-11.2337
充滿矣若	-11.2337
先王之制禮也	-11.2337
公羊傳十一卷	-11.2337
六尺之	-11.2337
出雲為	-11.2337
卷冕	-11.2337
參於天地	-11.2337
君行六事臨撫其人則下	-11.2337
告捷	-11.2337
天下至大萬	-11.2337
天有五行	-11.2337
尊無二上	-11.2337
明僧紹	-11.2337
是亦猶士	-11.2337
是數者	-11.2337
曰假以溢我我其	-11.2337
曰禘嘗之義大矣	-11.2337
曾子曰君子之孝也	-11.2337
朝覲所以教諸侯之臣也	-11.2337
柏	-11.2337
楊泓	-11.2337
淑善	-11.2337
為其然也	-11.2337
父母全而生之子	-11.2337
父母生育	-11.2337
狼	-11.2337
玉山汪端明亦以為此書多出後	-11.2337
王𤣥載	-11.2337
甫反鰥古頑反	-11.2337
祭之日樂與哀半饗之必樂已至	-11.2337
禮記問喪云	-11.2337
自毳冕	-11.2337
荷	-11.2337
蒲	-11.2337
蒼頡	-11.2337
袞冕	-11.2337
諫大夫翼奉安昌侯張禹傳之各自名家	-11.2337
醜衆也爭競也當	-11.2337
釋慧琳	-11.2337
雖曰不要君	-11.2337
一百七十二字	-11.2337
三宥	-11.2337
不反齊衰之	-11.2337
不惡而嚴	-11.2337
不敢以煩長者	-11.2337
不敢加於	-11.2337
不舉樂	-11.2337
之喣沫	-11.2337
之端惡者愛之反慢者敬之反	-11.2337
也宗其繼别子	-11.2337
也注云此	-11.2337
也諸侯相厲以	-11.2337
亂是用	-11.2337
事死如事生事亡如事存孝之至也	-11.2337
人謂社稷以此安	-11.2337
今祖述孝經之人	-11.2337
使足以成文理則釋之	-11.2337
保祿位守祭祀	-11.2337
免於患	-11.2337
凶謂悖其德禮也	-11.2337
分别五土視其高下各盡所宜此分	-11.2337
則哀遇祭則嚴	-11.2337
則文以君子之	-11.2337
則讇也	-11.2337
匪猶不	-11.2337
南嚮	-11.2337
及魯共王壞孔子宅	-11.2337
取于事父之行	-11.2337
口為言其言也	-11.2337
可使為亂	-11.2337
各率其	-11.2337
名從之矣	-11.2337
吾道一	-11.2337
哭而退不聽事焉	-11.2337
喟	-11.2337
困	-11.2337
土地人民政事	-11.2337
基命宥宻	-11.2337
夙早也	-11.2337
夫亦其子	-11.2337
子之所以動天地也	-11.2337
孝子亦為之	-11.2337
孝經大義序	-11.2337
孺子慕	-11.2337
容止威儀也必合䂓矩則可觀也	-11.2337
富貴之過也	-11.2337
寒暑變遷益用増感	-11.2337
寓祭器於	-11.2337
小子識之	-11.2337
居下位	-11.2337
屬屬乎	-11.2337
常須戒愼	-11.2337
廟祔祖之後則以鬼禮享之	-11.2337
得仁人之粟則	-11.2337
復父讎	-11.2337
徳配天地	-11.2337
忝厥祖	-11.2337
惇史	-11.2337
感應章	-11.2337
愾然必有聞乎其歎息之聲	-11.2337
所以然者盖	-11.2337
按禮記文王世子稱	-11.2337
擇牲	-11.2337
教諸侯之孝也食三老五更於太學所以	-11.2337
敬身之謂也敬	-11.2337
文武周公	-11.2337
旦不幸而	-11.2337
易曰言行君	-11.2337
春秋祭祀以寓時思	-11.2337
是不虧其體	-11.2337
朋友之交	-11.2337
案朱子刋誤	-11.2337
欠	-11.2337
此名而孝經	-11.2337
泰壇泰折	-11.2337
深墨	-11.2337
滂	-11.2337
無方之養	-11.2337
無日非	-11.2337
燕射朝聘	-11.2337
父孝也嚴兄弟也	-11.2337
狄	-11.2337
珠	-11.2337
瓦	-11.2337
甘雨	-11.2337
疏食飲水	-11.2337
百姓之病	-11.2337
知我吾無	-11.2337
磬	-11.2337
稱子曰者	-11.2337
網	-11.2337
纔	-11.2337
者何盖言	-11.2337
而無告者	-11.2337
臣妾妻子	-11.2337
自上世	-11.2337
與齊尋兵	-11.2337
舉善而敎不能	-11.2337
舉而措之天下	-11.2337
萃天下之歡心	-11.2337
藏身之固也	-11.2337
虞飜劉劭	-11.2337
西京雜記	-11.2337
言居髙位而不	-11.2337
詩小雅節南山之篇	-11.2337
請所與問有	-11.2337
象聲氣可樂動作有文言語有章以臨	-11.2337
貪榮	-11.2337
賁	-11.2337
賊姦軌	-11.2337
通暢經	-11.2337
速反而虞	-11.2337
違此則於德禮為悖也	-11.2337
門人稱其師	-11.2337
除慝	-11.2337
陽義也	-11.2337
順内和	-11.2337
頟	-11.2337
鳥獸魚鼈咸若	-11.2337
鹽梅之	-11.2337
矯	-11.2338
人之政因人之情	-11.2338
脱衣就功	-11.2338
遺棄其親者	-11.2338
遭秦	-11.2338
齊襄	-11.2338
宅墓穴	-11.2338
卜其宅兆	-11.2338
辟之罰其屬二百五	-11.2338
大此略言之	-11.2338
大雅云無念爾祖聿脩厥德	-11.2338
徳以親九族	-11.2338
以孝治其國推其愛敬之心以及於國人	-11.2338
於鰥寡之微亦不敢侮慢之而	-11.2338
檀	-11.2338
而致卑替	-11.2338
至即所以為道之要順	-11.2338
言君子之教人以孝也非必家至	-11.2338
王者父事天母事地言能敬	-11.2338
十億曰兆	-11.2338
敢不敬與	-11.2338
至諴	-11.2338
物均得天地之氣以	-11.2339
物得氣之偏	-11.2339
追遠	-11.2339
佳賣反	-11.2339
喪親章第十八	-11.2339
幼之道順君人之化理	-11.2339
保赤子	-11.2339
悞	-11.2339
别本改	-11.2339
言盡愛敬之道然後施教於	-11.2339
身踐	-11.2339
不回	-11.2339
冠婚	-11.2339
動之間	-11.2339
天性然也	-11.2339
小國之臣至卑者耳王	-11.2339
拾	-11.2339
言行孝以事親爲始事君	-11.2339
㫖美也不甘美味故	-11.2339
一物不得其	-11.2339
三年喪畢遷主	-11.2339
下今文有也字	-11.2339
世宗憲皇帝	-11.2339
之效驗	-11.2339
之綱領	-11.2339
之親又為我之君而臨乎	-11.2339
乎對曰	-11.2339
人心所自有	-11.2339
但以順則逆以下則又雜取左傳所載	-11.2339
冨	-11.2339
冬温夏	-11.2339
則樂遇病則	-11.2339
則非如父與	-11.2339
友于兄弟	-11.2339
句刪其字	-11.2339
因上章三可移而言嚴	-11.2339
夫三年之喪天下之達	-11.2339
奉承而進之	-11.2339
小國之臣且不	-11.2339
居上而驕則失道而取亡	-11.2339
建萬	-11.2339
徳主愛	-11.2339
愛出於内	-11.2339
慎行禮法謂之謹	-11.2339
所以異於人者以其存心也君子	-11.2339
敬之教民	-11.2339
服非法	-11.2339
此得失又如前章所論子産之語今	-11.2339
每讀	-11.2339
澮	-11.2339
父母之遺體	-11.2339
父母生子傳體相續人倫之道莫大於斯	-11.2339
犯分而致刑在醜而爭則	-11.2339
的也	-11.2339
知孝之為大也	-11.2339
私室則思補其身過	-11.2339
立天之心	-11.2339
者人恒愛之敬人者人恒敬之	-11.2339
者跂而及之	-11.2339
耆老	-11.2339
而天下之為弟者皆悦以事	-11.2339
聚天下之懽心	-11.2339
能行其道	-11.2339
自天子達於庶人	-11.2339
蓬	-11.2339
蹇蹇	-11.2339
道也徳也一	-11.2339
釁而召兵	-11.2339
以下别為一章	-11.2339
故徳教成而政令行	-11.2339
孝弟之至通於神明光於四海	-11.2339
稻	-11.2339
賓	-11.2339
臣民之上	-11.234
略也孝道廣	-11.234
罹	-11.234
上謂君也進謂進見於君	-11.234
反塞先	-11.234
章之失云	-11.234
辜較之辭	-11.234
符	-11.234
正義曰此依魏	-11.234
婢亦反	-11.234
諧	-11.234
儼	-11.234
春雨既濡	-11.234
預	-11.234
廣要道章	-11.234
粲然	-11.234
以養父母日嚴	-11.234
源流	-11.234
上正身以	-11.234
仰頼	-11.234
止於信	-11.234
耘	-11.234
蠶桑	-11.234
何晏	-11.234
寒暑變移益用增感以	-11.234
庾	-11.234
有差等	-11.234
王肅蘇林	-11.234
留	-11.234
虞槃佑	-11.234
郊祀配天宗	-11.234
鄭衆鄭𤣥	-11.234
之常也義者	-11.234
之於壑	-11.234
二先生	-11.234
云古孝經千八百七十二字今異者	-11.234
大報本反始也	-11.234
求諸逺事在	-11.234
繼序思不忘	-11.234
而患不均	-11.234
舉而委	-11.234
蔡	-11.234
言必守法行必遵道	-11.234
一出言不敢忘父母	-11.234
一餐而病脱然	-11.234
不可以不爭爭	-11.234
不可磯	-11.234
不慎其心	-11.234
不臣不仕	-11.234
不識不知	-11.234
乃及於	-11.234
之威有儀而可象	-11.234
之甚者為	-11.234
之秉彛	-11.234
之誤也	-11.234
九族既	-11.234
也注移事至	-11.234
也注蓋猶	-11.234
也盡此三道者	-11.234
于宗公神罔是怨神罔是	-11.234
五刑墨劓剕宫大辟	-11.234
以其餘畀	-11.234
以寡人為	-11.234
以著代也	-11.234
仿	-11.234
何所不致其	-11.234
元吳澄撰	-11.234
元宗此註	-11.234
充裕	-11.234
先資其言	-11.234
光榮其父母	-11.234
克施有政	-11.234
凡十三家雖義有精粗	-11.234
别彼列反	-11.234
則存安其榮	-11.234
叅	-11.234
右傳十五則	-11.234
合二姓之好	-11.234
吉土	-11.234
同爵則尚齒	-11.234
君愛其親則人化之無有遺其親者	-11.234
喧	-11.234
堪講授	-11.234
大小殊	-11.234
天下失性	-11.234
天子親耕粢盛	-11.234
字或作	-11.234
孝為徳之本	-11.234
孝者畜也	-11.234
季康子	-11.234
宗人授事以	-11.234
富貴而輕	-11.234
小歛之衣也	-11.234
尚接之以禮	-11.234
州巷	-11.234
已徹而退	-11.234
平章百姓	-11.234
庻人章第六	-11.234
廟同堂	-11.234
忠之為用	-11.234
悖之行	-11.234
惚	-11.234
惟人為貴	-11.234
愛易能而敬難盡	-11.234
懽心否則是其所以事	-11.234
手擊胷	-11.234
拜君命	-11.234
按内則云	-11.234
教忠教順	-11.234
敬而能之也故	-11.234
文盡於此矣所以常乆而不廢也夫有生	-11.234
昊天罔極	-11.234
易繫	-11.234
春耕	-11.234
曰君子不奪人之	-11.234
曰堯舜禹湯	-11.234
有威而可畏謂	-11.234
有序而和者未有不	-11.234
有所取之也	-11.234
有耻之士	-11.234
樂正子春	-11.234
止乎禮義	-11.234
正義曰自此至	-11.234
武帝末	-11.234
比黨	-11.234
氏尊學	-11.234
汎指	-11.234
法事理	-11.234
混	-11.234
滋味	-11.234
為人子者誠以愛親為心而不	-11.234
為天下蒼生之父母也	-11.234
無求數有	-11.234
然揆	-11.234
爲稷自	-11.234
父母於子一體而	-11.234
狀曰周禮禮記毛詩尚書公羊左傳孝	-11.234
猶水之	-11.234
甚愛之	-11.234
百姓昭明	-11.234
祭之明日	-11.234
祭之明日明𤼵不寐饗而致之又	-11.234
秉徳之士	-11.234
稷牛	-11.234
穀梁傳十一卷	-11.234
竭盡其忠	-11.234
紘躬秉耒	-11.234
經論語孔鄭王何服杜等	-11.234
綦	-11.234
維其盡之	-11.234
者教之所自出也	-11.234
者有以得其懽心可知矣	-11.234
而推之與此亦	-11.234
而能仕可知者	-11.234
而遂志	-11.234
聨	-11.234
聯字	-11.234
肄則	-11.234
胡為其	-11.234
自獻其身	-11.234
至於犬馬	-11.234
處衆而不可爭競	-11.234
衮冕	-11.234
装綴以為孔子	-11.234
覇	-11.234
詩云此大雅蕩	-11.234
詩大雅烝民	-11.234
詮解	-11.234
課	-11.234
謂父為君以臨於己恩義	-11.234
豈為之乎	-11.234
豫先王以作樂崇徳殷薦	-11.234
足頓地	-11.234
跛倚	-11.234
采采芣苢薄言	-11.234
雖有五等之别	-11.234
顔囘	-11.234
生事愛敬死事哀戚	-11.2341
而語之以	-11.2341
善皆在於凶徳	-11.2341
音洛	-11.2341
穿	-11.2341
塋	-11.2341
丞左	-11.2341
春生夏長秋收冬蔵	-11.2341
毛髮膚	-11.2341
無有遺忘其親者	-11.2341
父尊子卑	-11.2341
羊豕三牲之養	-11.2341
躍	-11.2341
順可移於長居家苟極其	-11.2341
魚器反	-11.2341
故曰終於立身也	-11.2341
暗	-11.2341
卿大夫章第四非先王之法服不敢服	-11.2341
和協而親睦上下	-11.2341
尊故標居其首	-11.2341
彌大之義告之	-11.2341
曰林父之事君	-11.2341
書呂刑也一人天	-11.2341
此又合始終而言之以結一書之㫖	-11.2341
爵禄而守其祭祀	-11.2341
生則事之以愛敬死則事	-11.2341
積累之艱	-11.2341
者無不悦以此之敬而敬人之	-11.2341
行孝奉親之事而立教焉	-11.2341
福慶	-11.2341
爵祿而守其祭祀葢士之孝也	-11.2341
牛羊豕也	-11.2342
以孝則卽通于事	-11.2342
居謂平居	-11.2342
無聲之樂	-11.2342
刄	-11.2342
旒	-11.2342
是以普天之下和睦太平	-11.2342
率祖	-11.2342
曾參起對故使復坐	-11.2342
七章大傳第	-11.2342
則人畏	-11.2342
當恭謹以奉上也	-11.2342
之素安所以	-11.2342
人人知之	-11.2342
托	-11.2342
易而求諸難人人親其親長其長而	-11.2342
疾而國家敗矣	-11.2342
自高謗君以自潔	-11.2342
諫以為身而不為君也是以上下相	-11.2342
進則面從退有	-11.2342
上加故字今詳此	-11.2342
之厚莫重於斯	-11.2342
乎道路至乎	-11.2342
也忿怒其臣妾	-11.2342
也注言能至	-11.2342
事可法德行可象聲氣可樂	-11.2342
事天明事地察	-11.2342
事義相	-11.2342
交接	-11.2342
人之大變也	-11.2342
人而以無所不	-11.2342
以人之行言之則	-11.2342
以天地之理而	-11.2342
以附此而不知其非所以為天下之通訓	-11.2342
以飬其親	-11.2342
光耀	-11.2342
冗	-11.2342
凡有血氣者	-11.2342
出必告反必	-11.2342
匹夫匹婦	-11.2342
又云善則稱人過則稱己則民	-11.2342
取他書之言可𤼵此經之㫖者别為外	-11.2342
古先哲王聖人君子之所	-11.2342
合䂓矩	-11.2342
君有君之威儀其臣畏	-11.2342
哭泣擗踊	-11.2342
善則愛敬是	-11.2342
喪親章第十八子曰孝子之喪親也	-11.2342
因吕國改作甫名	-11.2342
因天之性順人之情而利導之教父以慈	-11.2342
大觿木燧	-11.2342
子之大戒也	-11.2342
孝者天性之自然人心所	-11.2342
守者約而施者博	-11.2342
安於彼而安於此非聖人	-11.2342
左佩紛帨刀礪小觿金燧右佩	-11.2342
帯	-11.2342
常有以致其敬則敬存而心存	-11.2342
度周旋可則容止可觀作	-11.2342
廪	-11.2342
彝倫	-11.2342
彰矣二句	-11.2342
後也敢不敬與	-11.2342
循環	-11.2342
徳性之根本	-11.2342
息而莫能傷	-11.2342
意亦重複不當通為一章此語當依	-11.2342
教之以悌使凡為	-11.2342
於澤宫	-11.2342
春生夏長秋斂冬藏舉	-11.2342
未安處	-11.2342
棄捐而咸遂其生日以	-11.2342
正義曰夫子旣述	-11.2342
此則庶人之孝所當然也	-11.2342
死皆虧孝道故聖人制禮施	-11.2342
死者非生則不藏人	-11.2342
母以鞠育而	-11.2342
涵	-11.2342
炎	-11.2342
為之中制中則欲其可繼也繼則欲其	-11.2342
為之立中制節	-11.2342
為萬世法	-11.2342
無此二子曰字而於不愛其親	-11.2342
父子君臣夫婦	-11.2342
當行之孝	-11.2342
疏食水飲	-11.2342
祁奚	-11.2342
紳	-11.2342
經文以便誦習	-11.2342
老者得養死者得藏是以民不	-11.2342
者親之主也敢不敬與子	-11.2342
而習復夜而計過	-11.2342
膠	-11.2342
至富不	-11.2342
芸苗秋	-11.2342
要道當自	-11.2342
言謂禮法之言徳行謂道徳之行	-11.2342
諫勸	-11.2342
費用約儉謂之制節	-11.2342
輕君之危亡	-11.2342
通患而出危色	-11.2342
遹	-11.2342
銅鞮伯	-11.2342
陵上慢下	-11.2342
耗	-11.2342
民用和睦	-11.2342
之字事上相親下	-11.2342
霤	-11.2342
斁	-11.2342
涖官不	-11.2342
一人而彼則千萬人	-11.2342
人得氣	-11.2342
右傳之六章	-11.2342
天子袒而割牲執醬而饋	-11.2342
拊心也踊	-11.2342
故生則親安之	-11.2342
故能成其德教而行其政令	-11.2342
親得安坐而食乎故曰猶為	-11.2342
賈之屬皆是也	-11.2342
陳説徳義之	-11.2342
農工商	-11.2342
朝直遙反	-11.2343
不為一物	-11.2343
不觧經而别𤼵一義	-11.2343
两	-11.2343
以孝所以敬天下之爲人父者也	-11.2343
以悌所以敬天下之爲人兄者也	-11.2343
佷	-11.2343
因上文不孝之云而繫於此	-11.2343
天地人謂之三才	-11.2343
子曰孝子之䘮親也	-11.2343
孝所以愛其親也	-11.2343
悅所敬者寡而悅者衆此之謂要道也	-11.2343
故忠可移於君事兄苟	-11.2343
有乖戾	-11.2343
極其悌矣以	-11.2343
治之心以爲	-11.2343
當體明王孝治天下	-11.2343
賴其福也	-11.2343
采七代	-11.2343
鈇鉞不足以威衆	-11.2343
非至德其孰能順民如此其大者乎	-11.2343
顔説色	-11.2343
食其祿	-11.2343
黎民於變時	-11.2343
勾	-11.2343
畎	-11.2343
恩義之厚	-11.2343
不驕不溢	-11.2343
有父	-11.2343
失其富貴而不能保	-11.2343
效之而各敬其	-11.2343
敺	-11.2343
磋	-11.2343
行其典誼	-11.2343
搥	-11.2343
蓋天子之孝也	-11.2343
措置也	-11.2343
旨不甘此哀戚之情	-11.2343
祿賞不足以勸民	-11.2343
致者推之而	-11.2343
雖日具牛	-11.2343
音扶令去聲	-11.2343
有不及	-11.2343
於君故	-11.2343
緝	-11.2343
距	-11.2343
粉	-11.2343
棗	-11.2343
二十二章孔安國作傳	-11.2343
嚴肅而成理也	-11.2343
一以順從為孝	-11.2343
父兄與君是	-11.2343
瘠在昔反	-11.2343
聖人立制	-11.2343
與平聲	-11.2343
蛟	-11.2343
鑒	-11.2343
顓頊	-11.2343
改經之漸	-11.2344
則無善於先	-11.2344
呰	-11.2344
敬者寡而説者衆	-11.2344
泄	-11.2344
君子之教以孝也	-11.2344
粕	-11.2344
紀孝行章	-11.2344
殷人冔而	-11.2344
不忘乎心	-11.2344
終身之憂	-11.2344
繆	-11.2344
一溢米	-11.2344
閒居侍坐	-11.2344
天地生人	-11.2344
東海	-11.2344
董鼎撰	-11.2344
鉤命決	-11.2344
充充	-11.2344
出孔壁	-11.2344
廣要道章第十二子曰	-11.2344
水泉	-11.2344
江翁后	-11.2344
皇侃以爲	-11.2344
社稷大夫言守	-11.2344
禋	-11.2344
紆	-11.2344
至於跡相祖述殆且百家	-11.2344
蒼翼奉	-11.2344
貺	-11.2344
順而利導之	-11.2344
顔師	-11.2344
人人盡孝則	-11.2344
入廟門	-11.2344
再拜稽首	-11.2344
命士而	-11.2344
垂範	-11.2344
士之孝當如是也	-11.2344
孟子曰道在	-11.2344
心和氣和而天地之	-11.2344
有美不能助	-11.2344
皇侃撰義疏	-11.2344
總干率其羣臣以樂皇尸	-11.2344
而成也有惡不能救而止也激君以	-11.2344
言能敬事宗廟則	-11.2344
車𦙍	-11.2344
郊特牲曰	-11.2344
隸	-11.2344
一本之說	-11.2344
一舉足不敢忘父母	-11.2344
一衣而病脱然	-11.2344
三日而食敎民無以死傷生	-11.2344
上也進見於君	-11.2344
下而人共守	-11.2344
不履事	-11.2344
不愛其親而愛它人	-11.2344
不愛敬其親而先	-11.2344
不敬何以	-11.2344
不辱其身	-11.2344
不違正道	-11.2344
世祖章皇帝	-11.2344
丘曽子孔子弟子名參字子輿	-11.2344
之不以文害意焉可也其曰故親生之膝	-11.2344
之子不敢自稱曰	-11.2344
之服饘粥之食顔色之	-11.2344
之立自	-11.2344
也引詩之意葢言	-11.2344
也而非之此有無	-11.2344
争騖	-11.2344
事親始終之道	-11.2344
事順時此用天道也	-11.2344
二衾	-11.2344
五土一曰山林二曰川澤三曰	-11.2344
五土之高	-11.2344
人為萬物之靈	-11.2344
仁孝之義	-11.2344
介山之推	-11.2344
仕呉	-11.2344
以子曰今文則合之而又通上章為一章	-11.2344
以殮	-11.2344
伊尹	-11.2344
伏靜	-11.2344
但嚴父配天本	-11.2344
何幸	-11.2344
使其文意分斷間隔而讀者不復得見聖	-11.2344
侍中領左國史	-11.2344
俺	-11.2344
傲惰	-11.2344
公賦旣充則私養不闕	-11.2344
其先祖故也	-11.2344
其本性立教	-11.2344
兼及事君立身	-11.2344
内則父子外則君臣人	-11.2344
冺	-11.2344
刑之所能禁	-11.2344
列國皆有社稷其君主而祭之	-11.2344
則上章云	-11.2344
則可謂能體明王孝	-11.2344
則斯乃不在於	-11.2344
劉炫引禮	-11.2344
勿勿	-11.2344
即上文所謂	-11.2344
古文且附上章或自别為一章可也	-11.2344
古文析不愛	-11.2344
古者𦵏之中野厚衣之以薪喪期	-11.2344
可乆也措之天	-11.2344
同歸于孝	-11.2344
名𤣥	-11.2344
君子之子是使其親	-11.2344
君子也者人之成名也百姓歸之名謂之	-11.2344
吴澄	-11.2344
哀毁過情滅性而	-11.2344
哀親之在	-11.2344
喪與其易也	-11.2344
單居離問曰	-11.2344
四曰墳衍五曰原隰	-11.2344
堯之行	-11.2344
大司成	-11.2344
大樂與天地同和	-11.2344
大濩	-11.2344
大義為害不細故今定此六七章者合為	-11.2344
如事生	-11.2344
如前所云者	-11.2344
如見親	-11.2344
媚兹一人應侯順徳	-11.2344
嬉戲於父母	-11.2344
子曰武王周公	-11.2344
子曰者二引書者一引詩者四凡六	-11.2344
子而用臣之顯	-11.2344
宇宙	-11.2344
将順其美匡救其惡故上下能相親	-11.2344
小樂正	-11.2344
尺證反	-11.2344
己之鵠	-11.2344
年為制者使人知有終竟之限也	-11.2344
庶人泛指衆人學	-11.2344
式榖	-11.2344
弑其君者必	-11.2344
強之也三日而食三年而除	-11.2344
復正臣父無復正子	-11.2344
思可道而後言人必信也思可	-11.2344
悌所以敬其長也	-11.2344
悴	-11.2344
情莫不愛其親愛之篤者莫若	-11.2344
愛則莫有善於孝	-11.2344
慘	-11.2344
慮四方	-11.2344
成不加嚴刑而政	-11.2344
戚哭泣之哀皆出於人情不	-11.2344
戰戰兢兢	-11.2344
所以正君臣父子之别明男女長幼之序	-11.2344
所以無可擇也	-11.2344
承事天地	-11.2344
攜	-11.2344
故今文連下二章為一章但下章之首語	-11.2344
敬齊之色	-11.2344
於樂之聲節起自黄帝也	-11.2344
易曰雷	-11.2344
是乃知前輩讀書精審	-11.2344
晉荀林父為楚所敗歸	-11.2344
晨羞夕膳	-11.2344
曰古之為政愛人為大	-11.2344
曽晳	-11.2344
有死有始	-11.2344
有疾飲藥	-11.2344
服喪者	-11.2344
未為失也	-11.2344
束民性而法	-11.2344
槁	-11.2344
槍	-11.2344
正而天下歸之	-11.2344
此六者皆孝子哀	-11.2344
此論人子	-11.2344
氏之子曰	-11.2344
汰	-11.2344
治道成	-11.2344
泛指	-11.2344
為如何	-11.2344
為慈愛得地之性	-11.2344
無以異	-11.2344
無免絰	-11.2344
無數後世聖人	-11.2344
然所論至	-11.2344
父母有過下氣怡色柔聲	-11.2344
父母雞初鳴咸盥潄櫛縰笄總	-11.2344
父異姓天子謂之	-11.2344
異姓之廟	-11.2344
禚	-11.2344
稱士三	-11.2344
穉	-11.2344
答反其敬行有不得者皆反求諸己其身	-11.2344
篇帙	-11.2344
籥師	-11.2344
粢盛夫人蠶	-11.2344
老窮不遺强不犯弱衆不暴寡	-11.2344
者莫不恱矣以此之敬而敬人之	-11.2344
而不畏也狎	-11.2344
而播種之	-11.2344
而民莫不承	-11.2344
而順則莫有善於悌	-11.2344
耕蠶	-11.2344
耰	-11.2344
聖人之所貴也	-11.2344
聖祖仁皇帝纘	-11.2344
聲舉措進退之禮	-11.2344
肆夏	-11.2344
腎	-11.2344
臣而用子	-11.2344
至則敬不極	-11.2344
致飾於	-11.2344
與尚書論語	-11.2344
舉大者言	-11.2344
薛倉子	-11.2344
蚤諭教	-11.2344
行不翔言不惰	-11.2344
行於妻子	-11.2344
衰七雷反	-11.2344
親切但與上文不屬而與下章相近	-11.2344
言作注之體	-11.2344
詔於國	-11.2344
誠慤	-11.2344
謂之有威儀也	-11.2344
譯	-11.2344
貍首	-11.2344
賀	-11.2344
資於天地得其	-11.2344
踐其朝是	-11.2344
迫父	-11.2344
道逹矣	-11.2344
遽改	-11.2344
邦國有倫	-11.2344
采蘋	-11.2344
采蘩	-11.2344
釋名云	-11.2344
陳説德義之	-11.2344
雖五孝之用則别而百行之源不殊	-11.2344
骨肉之親無	-11.2344
麟	-11.2344
鼓徴	-11.2344
龍柱棄	-11.2344
龔	-11.2344
𤣥所注請不藏	-11.2344
𨗳民民	-11.2344
􁄕	-11.2344
之所法則也	-11.2344
斷音短	-11.2344
事父孝事母孝之義	-11.2344
仁誼禮	-11.2344
其法令	-11.2344
娛	-11.2344
孝子當行之	-11.2344
故當不誼則	-11.2344
孽	-11.2344
涖音利	-11.2344
其將葬	-11.2344
卓然	-11.2344
反號户刀	-11.2344
失其道無以有其	-11.2344
心乎愛矣遐不謂矣中心蔵之何日忘之	-11.2344
故不加威肅而教	-11.2344
斯民則人	-11.2344
胥徒	-11.2344
覆芳伏反	-11.2344
天道也	-11.2344
勅	-11.2344
▁養羊尚反傳同	-11.2344
愛吾父母	-11.2344
辟之屬千	-11.2344
之行自無怨惡	-11.2344
其親以下别為一章	-11.2344
凡九十字	-11.2344
則思補塞	-11.2344
德敎加被天下當爲四夷	-11.2344
惟恐言輕而招	-11.2344
憂哀嚴	-11.2344
治家者不敢侮於臣妾	-11.2344
瞻仰	-11.2344
義取爲君恒須戒	-11.2344
而受業晝而講貫夕	-11.2344
自其章首以至因地	-11.2344
舉無所怨	-11.2344
言行皆遵法道	-11.2344
身雖有小	-11.2344
辜也非先	-11.2344
重直用反	-11.2344
工商	-11.2345
行之本	-11.2345
也由一家	-11.2345
在下位	-11.2345
巾	-11.2345
盪	-11.2345
矜肆	-11.2345
章末舊有	-11.2345
順此四者人之大	-11.2345
為人子弟者無不敬其父兄也	-11.2345
則思補	-11.2345
整	-11.2345
漢藝文志	-11.2345
▁弟大計反傳同	-11.2345
卜之日	-11.2345
以辱其親	-11.2345
國極言其多	-11.2345
庿	-11.2345
上諸侯以下化而行之	-11.2345
也注謂父至	-11.2345
同㫖也	-11.2345
悼公	-11.2345
敬以臨下也	-11.2345
是以普天之下	-11.2345
訾議	-11.2345
㒺	-11.2345
不㤀親也	-11.2345
之生成萬物者雖以隂陽之	-11.2345
也爾雅釋	-11.2345
僨	-11.2345
可已矣	-11.2345
夫孝始於事親	-11.2345
明王以孝治天下	-11.2345
明𤼵不	-11.2345
極其愛敬	-11.2345
毛傳云	-11.2345
為人心之全徳	-11.2345
物地以隂成萬物天地	-11.2345
詩云此詩小雅節南山之什小	-11.2345
輔右	-11.2345
近觀孝經舊注	-11.2345
非以為名	-11.2345
䘮平聲	-11.2345
䟽	-11.2345
一飯之恩	-11.2345
三年問云	-11.2345
三百餘年	-11.2345
不至豈則	-11.2345
之行並去聲	-11.2345
事天地能明察則神感至	-11.2345
人子之身氣始	-11.2345
以仁存心以禮存心仁者愛人有禮者敬	-11.2345
使天下之人法行於逆道故人無所	-11.2345
倫也父子主恩君臣主敬	-11.2345
像	-11.2345
出地奮	-11.2345
則等矣而	-11.2345
原于天	-11.2345
參聞行孝無限高卑始	-11.2345
右傳之二章	-11.2345
同姓則留	-11.2345
善則稱君過則稱	-11.2345
國以孝治其	-11.2345
天子卿大夫有善	-11.2345
孔安國蓋約夏殷章服爲說	-11.2345
彘	-11.2345
徳者善之	-11.2345
敘述	-11.2345
教胄子	-11.2345
敬吾親矣	-11.2345
既能孝則于事	-11.2345
有先後非	-11.2345
歎其大	-11.2345
此法之所以不廢	-11.2345
此非有物力	-11.2345
父謂諸父兄謂諸兄皆祖考之	-11.2345
猶修持其身謹愼其	-11.2345
皆得其懽心	-11.2345
盡忠補過將順匡救	-11.2345
眞見	-11.2345
瞍底豫而天下之為父子者定	-11.2345
社禝	-11.2345
禮主敬	-11.2345
禮法之言焉有口過道德	-11.2345
純嘏	-11.2345
絡	-11.2345
者非壯則不長老者非少則不養	-11.2345
而歸已猶草芥也惟舜為然	-11.2345
而禍患不及者未之	-11.2345
胎教之道	-11.2345
言教人親愛禮順無加於孝	-11.2345
詩大雅文王有聲之	-11.2345
諸侯士庶人有善	-11.2345
謂心之所在	-11.2345
變易其俗則莫	-11.2345
非先王之法服不敢服惟恐服之	-11.2345
養口體	-11.2345
事兄弟故順可移於長	-11.2345
司馬公曰	-11.2345
廣至德章第十	-11.2345
故治可移於官	-11.2345
考亦	-11.2346
為下而亂	-11.2346
不言知能	-11.2346
勉强	-11.2346
應感章第十	-11.2346
承顔順	-11.2346
礙	-11.2346
揚名於後世	-11.2346
觸地	-11.2346
以孝道化民	-11.2346
天子雖無上於天下	-11.2346
善也言天子一	-11.2346
右傳之五章	-11.2346
周公成文武之徳追王太王王季	-11.2346
夕奠	-11.2346
妻子貴而親	-11.2346
子語然於文理無害引詩亦足以	-11.2346
彰亦明道德相成所以互	-11.2346
恐懼兢兢戒愼臨深恐墜履	-11.2346
懽恱	-11.2346
而耕耘	-11.2346
補過亦左傳所載士貞	-11.2346
長貞丈	-11.2346
率行孝道	-11.2346
可移於官	-11.2346
是知孝者	-11.2346
有父之尊有母之親	-11.2346
▁夫音扶傳同	-11.2346
五刑墨劓剕宫	-11.2346
盎君	-11.2346
光顯其父母	-11.2346
凡百四十三字廣經	-11.2346
愷苦亥反悌	-11.2346
臨淵恐墜履	-11.2346
旒衣	-11.2346
走	-11.2346
欣	-11.2346
徳行擇行行滿	-11.2346
開宗	-11.2346
不敢不勉	-11.2347
不聽則號泣而隨之	-11.2347
能以至徳為教順	-11.2347
凟	-11.2347
子男五十里	-11.2347
君弟以事長	-11.2347
踳	-11.2347
也尊有𤣥酒	-11.2347
鬭辨	-11.2347
痛疾	-11.2347
言必守法	-11.2347
交應	-11.2347
周穆王	-11.2347
旣没	-11.2347
何過之有	-11.2347
在側	-11.2347
用騂	-11.2347
而自化	-11.2347
見不必曰	-11.2347
也抑搔癢痛縣衾篋枕以	-11.2347
事兄能悌	-11.2347
出門如見大賔使	-11.2347
則必有取之也	-11.2347
及乎仁義旣有親譽益著	-11.2347
君執干戚就舞位	-11.2347
天子身率	-11.2347
形於外	-11.2347
慎行其身不遺父母惡名可謂能終	-11.2347
按論語云	-11.2347
昔者周公攝政踐阼而治抗世子法於伯	-11.2347
民如承大祭	-11.2347
萬世師	-11.2347
一家仁一國興仁一家讓一國	-11.2347
三日不怠三月不解期悲哀	-11.2347
乎曰未之有也	-11.2347
事鬼神之道	-11.2347
于文武	-11.2347
五榖	-11.2347
作古文孝經傳而世不傳	-11.2347
先辨忠	-11.2347
則無以見	-11.2347
和故百物	-11.2347
商書曰	-11.2347
夏商	-11.2347
字孔才廣平	-11.2347
宗其繼髙	-11.2347
宗彜	-11.2347
幽厲之	-11.2347
思可樂而後行	-11.2347
戰國	-11.2347
是以四海之內	-11.2347
曰敢問何	-11.2347
本立則道生	-11.2347
本謂天性	-11.2347
氣然氣以成形而理亦賦	-11.2347
河間劉炫為之	-11.2347
淺陋	-11.2347
滛	-11.2347
用節省則免饑寒	-11.2347
畫圓口誦目數	-11.2347
畫方右	-11.2347
相因而	-11.2347
祖者五世則遷	-11.2347
稷契之	-11.2347
經文皆同	-11.2347
與大學中庸	-11.2347
興讓一人貪戾一國作亂	-11.2347
衣服飲食	-11.2347
要平聲	-11.2347
諮	-11.2347
謹畏	-11.2347
身恭謹則遠恥辱	-11.2347
迎精而	-11.2347
靜而思道也	-11.2347
顛倒	-11.2347
高陵亭	-11.2347
三日而食粥	-11.2347
上自天子下至庶人	-11.2347
不可奪也	-11.2347
乾隆四十一年五月恭校上	-11.2347
事父之道兼	-11.2347
人情壞	-11.2347
今文之註	-11.2347
以上嗣	-11.2347
修之以孝養	-11.2347
兄弟怡怡	-11.2347
其首尾相應次第相承文勢連屬	-11.2347
凡二十二章	-11.2347
凡若是者	-11.2347
剭	-11.2347
勝氣	-11.2347
十一廟	-11.2347
句之末並無也字	-11.2347
各視其	-11.2347
君以尊高而敬	-11.2347
君能尊諸父先諸兄則長	-11.2347
呉澄又	-11.2347
國之本在家家之本在身	-11.2347
在心故不樂也	-11.2347
地之常經而	-11.2347
堂則親之而曰	-11.2347
夕月	-11.2347
大學傳曰	-11.2347
天子章第二子曰愛親者不敢惡於人	-11.2347
天子設四學當入學而太子齒	-11.2347
夫然者然	-11.2347
失謂不得其意	-11.2347
好惡喜怒	-11.2347
如此之君雖	-11.2347
孝悌之至通於神明光于四海	-11.2347
孟子曰天下大	-11.2347
宗廟之禮所以	-11.2347
宫中雍雍外焉肅肅	-11.2347
年者年之貴乎天下久矣次乎事親者也	-11.2347
御天地與人	-11.2347
愛人不親反其仁治人不治反其智	-11.2347
應之詩曰	-11.2347
投	-11.2347
推以愛敬他人	-11.2347
攀引	-11.2347
整齊	-11.2347
方圜	-11.2347
易曰乾天也故稱	-11.2347
昔者天子諸侯必有	-11.2347
曹羇	-11.2347
有殺焉以	-11.2347
有深愛者必有和氣	-11.2347
朋友切切	-11.2347
本於天地	-11.2347
横乎四海	-11.2347
欲移改	-11.2347
法則而象效之故	-11.2347
泛溢	-11.2347
溢音逸	-11.2347
無體之禮威儀	-11.2347
爲九章之	-11.2347
父兄君長	-11.2347
發越揮	-11.2347
盡其愛敬之	-11.2347
盡孝之大而	-11.2347
祝史之事也	-11.2347
移事兄敬以	-11.2347
穆與太祖之廟而	-11.2347
立其所能	-11.2347
繼别子之禰	-11.2347
者以貌近者以情	-11.2347
而危之	-11.2347
致樂病	-11.2347
若必如此而	-11.2347
言人有上三惡豈惟	-11.2347
諸侯待於	-11.2347
貴人而賤	-11.2347
賛美其孝	-11.2347
速化如此	-11.2347
逺盖愛君一念	-11.2347
道死則	-11.2347
適饌省醴	-11.2347
配太	-11.2347
類得象	-11.2347
首火在宗彜之	-11.2347
騶虞	-11.2347
魏晉	-11.2347
龍於山登火於宗彜	-11.2347
𤼵明移孝事君之意今並存之	-11.2347
長㓜順故上下治	-11.2347
君子之事親孝	-11.2347
一字申釋	-11.2347
刪去說見	-11.2347
曽子曰若夫慈愛	-11.2347
自己	-11.2347
不和不	-11.2347
亦天分之	-11.2347
修身愼行恐辱先也	-11.2347
則作參敢問	-11.2347
烝烝	-11.2347
不敢惡於人	-11.2347
畝	-11.2347
士言祭祀	-11.2347
也故次及	-11.2347
諸侯列國之君貴在人	-11.2347
曽子侍	-11.2347
下治其民則莫有善於禮	-11.2348
以要道施化化行	-11.2348
右傳之九章	-11.2348
夙早也懈惰也義取爲卿	-11.2348
居陵反	-11.2348
廣要道之義言	-11.2348
成政令以	-11.2348
有善於樂	-11.2348
期驕	-11.2348
殊事而合敬	-11.2348
義裁制	-11.2348
聖人者法之所從出也而敢於非	-11.2348
蔑	-11.2348
言富貴常在其身則長爲社稷之	-11.2348
詩大雅蒸民	-11.2348
謂舉尸	-11.2348
謂道德之行若言非法	-11.2348
身不能及於孝	-11.2348
釋立身揚名及士之孝	-11.2348
具皆也爾女也	-11.2348
子曰是何言與是何言與言之不通也	-11.2348
精爽	-11.2348
費用約儉謂之制	-11.2348
不安美	-11.2348
而名立於後世矣	-11.2348
五者先王之所以	-11.2348
主而人自和平也	-11.2348
升歌	-11.2348
注博愛也	-11.2348
無限貴賤	-11.2348
一章為鄙俗	-11.2348
之孝者是謂能養	-11.2348
伏羲	-11.2348
侯是五等之第二	-11.2348
則下傚	-11.2348
天以陽生	-11.2348
天地參為三才	-11.2348
孝爲百行之首	-11.2348
帥天下以暴而民從之其所令反	-11.2348
戊午	-11.2348
我之敬既盡則人亦興	-11.2348
是以行成於內	-11.2348
每嵗	-11.2348
積誠以	-11.2348
經稱	-11.2348
身以敬親敬親以敬天	-11.2348
造次	-11.2348
郊祀后稷以配天宗祀文王以配上帝	-11.2348
頒行	-11.2348
。」「	-11.2348
三年之喪天下達禮使不肖企及賢者	-11.2348
上安其君	-11.2348
不孝乃是大亂之道	-11.2348
不敢辱先	-11.2348
不能事親立身	-11.2348
不過啓其良心	-11.2348
中祕書	-11.2348
也嚴植之曰	-11.2348
事父孝故事天明	-11.2348
二十四字今文無	-11.2348
亦不免有離析増加之失顧自	-11.2348
享人鬼尚幽	-11.2348
人因之以施	-11.2348
以父之親	-11.2348
出就外傅居宿於外	-11.2348
動止舉措	-11.2348
協和	-11.2348
古之聖賢	-11.2348
右傳之三章	-11.2348
名章次五孝之	-11.2348
和樂而不流	-11.2348
塞乎天地	-11.2348
多傅㑹而經文	-11.2348
夜寐無辱其親也	-11.2348
子曰昔者明王以孝治天下也	-11.2348
孝之大至于	-11.2348
尊至則愛不極	-11.2348
對而不問	-11.2348
居高位而不危則不	-11.2348
得兼下下不得	-11.2348
忝辱也所生	-11.2348
所自著則又可笑之尤者	-11.2348
曰君子之敎以孝也非家至而日見之也	-11.2348
曲折之	-11.2348
朕嘗三復斯言景行先哲	-11.2348
歎孝之大	-11.2348
母其體	-11.2348
民之窮	-11.2348
法言謂禮法之言德行	-11.2348
注不悖德禮也	-11.2348
浩	-11.2348
漢以來諸儒傳誦	-11.2348
無貴無賤無親無	-11.2348
狀	-11.2348
生謂父母存時祭	-11.2348
皇矣之	-11.2348
知其勞	-11.2348
移易先入樂聲變隨人心正由君德	-11.2348
立德行義不違道正故可尊	-11.2348
節愼行禮法謂之	-11.2348
者此依魏注也	-11.2348
而其末結之曰故自天子	-11.2348
華蟲火宗	-11.2348
藻火粉米黼黻六章繡	-11.2348
行非德則虧孝道故不敢也	-11.2348
謂上六句	-11.2348
謂父母也義取早起	-11.2348
身恭謹則逺恥辱用節省	-11.2348
辯	-11.2348
逢	-11.2348
陸澄	-11.2348
斷章	-11.2349
簠音甫簋音軌	-11.2349
采邑	-11.2349
善則稱	-11.2349
章繡於裳	-11.2349
河間王所	-11.2349
見因天地	-11.2349
則人起心而行之	-11.2349
徐整	-11.2349
上謂君與長	-11.2349
也而敢以孝道	-11.2349
封建	-11.2349
母生之續莫大焉故親生之膝下諸家	-11.2349
法天道之	-11.2349
要道先於至	-11.2349
詩小雅隰桑之篇	-11.2349
十六年	-11.2349
次諸侯之貴者	-11.235
斷章取	-11.235
逾	-11.235
熈	-11.235
蠶	-11.235
仭	-11.235
所已言	-11.235
諦	-11.235
庶有補於將來	-11.235
慎始而	-11.235
考叔	-11.235
訂	-11.235
黄老	-11.235
君夫人皆	-11.235
能順民心而行	-11.235
不敬不敬	-11.235
則民作讓	-11.235
吾嘗	-11.235
尚其事	-11.235
禽所以善成王也	-11.235
織	-11.235
車輪	-11.235
劉炫陸澄	-11.235
可陳也	-11.235
所以逺亂	-11.235
故祀天	-11.235
曾氏之	-11.235
有以異於人	-11.235
約有百家	-11.235
不亦宜	-11.235
不至變	-11.235
先自天子至庶人	-11.235
其所好而民不從是故君子有諸	-11.235
參直養者也安能	-11.235
嘆美	-11.235
孝治聖治	-11.235
帝嚳配天	-11.235
後世法之	-11.235
懐保小民恵鮮	-11.235
戚容	-11.235
故名丘字仲尼	-11.235
無以發端	-11.235
無諸已而後非諸人所藏乎身不恕而	-11.235
竹牒	-11.235
足與於	-11.235
躬行匹夫之孝	-11.235
酢	-11.235
關内侯	-11.235
順天下者順	-11.235
上下之際	-11.235
上敬下懽存	-11.235
下有凍餒之民	-11.235
不待肅而自成其政不待嚴而自治	-11.235
不衰子	-11.235
之爭臣以	-11.235
之精義	-11.235
也親之過	-11.235
也記曰君子	-11.235
事之以哀戚生	-11.235
二帝三王之教	-11.235
二章大傳第	-11.235
人無貴賤	-11.235
侍講	-11.235
光祿大夫	-11.235
其事天也	-11.235
况於近可不盡忠	-11.235
刪存一千五百	-11.235
則能事神	-11.235
則變置	-11.235
力故云不敢失也	-11.235
包攝	-11.235
叔舅	-11.235
右傳之首章	-11.235
各敬爾	-11.235
名章次三才之後	-11.235
君子必自反也曰我必	-11.235
君皮弁素積	-11.235
呉志	-11.235
唯其所引而之以	-11.235
單襄公	-11.235
四月己丑	-11.235
在文武	-11.235
大樂正	-11.235
天子至士皆	-11.235
天惟天為大	-11.235
天而配	-11.235
季文子曰以訓則昏民	-11.235
孰大于此	-11.235
安沒享人用	-11.235
弘	-11.235
得天之性	-11.235
悖徳悖禮之事	-11.235
意有兼明具載則文繁略之又義闕今存	-11.235
感時之變	-11.235
承歡	-11.235
揚命	-11.235
故文王者得大舜之志	-11.235
斗而	-11.235
旁引	-11.235
旨趣	-11.235
明孝道之大	-11.235
明王孝徳感通之神	-11.235
昭帝時	-11.235
智之性	-11.235
暴賊	-11.235
服闇不登危	-11.235
梧	-11.235
樂闋	-11.235
正皆放此	-11.235
注敬者禮之本也	-11.235
漫	-11.235
無一不順其序則人道盡	-11.235
無則焉不度於善而皆	-11.235
無憂享	-11.235
煇胞翟閽	-11.235
煖清寒暑	-11.235
熹舊見衡山胡侍郎論語説	-11.235
燕族人	-11.235
爲下而亂則刑在醜而爭則兵	-11.235
猶不忘也	-11.235
百官族姓	-11.235
百川	-11.235
祫嘗祫烝	-11.235
秫唯所欲棗	-11.235
築	-11.235
終之以仁	-11.235
羽自立	-11.235
者天下之表也上行	-11.235
者按禮記内則	-11.235
而庶人獨	-11.235
而微言絶	-11.235
臣妾營事産業宜	-11.235
自有一定不可	-11.235
華侈	-11.235
菽麥蕡稻黍	-11.235
虞庠	-11.235
覺大也義取天子有大德	-11.235
言春秋則包四時矣	-11.235
語不及	-11.235
說文云古文孝經	-11.235
諸侯自龍袞而下	-11.235
謂沒後奉祀安者其心	-11.235
負劍辟咡	-11.235
遇臣妾以道	-11.235
道徳仁義	-11.235
郊則尊之而	-11.235
銅	-11.235
閒字坐字參字	-11.235
防其未來	-11.235
雖不足以	-11.235
顔引義以爭之不	-11.235
馘	-11.235
供養	-11.235
音符	-11.235
之教刑儀刑也	-11.235
是卽我之所以敬天下之爲人	-11.235
右傳之十一章	-11.2351
不敢有所	-11.2351
也人之百行	-11.2351
事天如事	-11.2351
人死曰鬼	-11.2351
以保其身	-11.2351
以為甘故	-11.2351
以長守此貴也處	-11.2351
各得懽心	-11.2351
大雅文王	-11.2351
失其財之	-11.2351
忠為子而	-11.2351
案士䘮禮	-11.2351
氣屈而歸也	-11.2351
申上文	-11.2351
禍亂如賊君弑父	-11.2351
在上在一國臣民之上驕矜肆	-11.2351
擬議	-11.2351
朔月	-11.2351
三者不除雖日用三牲之養猶	-11.2351
上下之分	-11.2351
善者之必	-11.2351
天子諸侯卿大夫皆以孝治天下國	-11.2351
子弟及臣	-11.2351
迥	-11.2351
「	-11.2351
矣子曰	-11.2351
舉其多也	-11.2351
如此故其生而	-11.2351
服其教	-11.2351
霦	-11.2351
而皆在於凶德	-11.2351
日不食過三日則傷生	-11.2351
利害	-11.2351
氏音例並音經傳庶乎令讀者不誤其音	-11.2351
王制曰	-11.2351
祭享謂四時及禘	-11.2351
亦該	-11.2351
化人之易也	-11.2351
升公朝離親入仕	-11.2351
君子之事親孝故忠可移於君	-11.2351
太羮	-11.2351
未若防㣲杜漸為忠之	-11.2351
種夏	-11.2351
陳說德義之美爲衆所	-11.2351
▁争音諍	-11.2352
一念而	-11.2352
七章申言	-11.2352
上帝即天也	-11.2352
乎母父有天道	-11.2352
以長守此富也	-11.2352
任事之稱也	-11.2352
刪之改之移易之	-11.2352
則身雖居	-11.2352
品秩	-11.2352
喪亾	-11.2352
堯舜帥天下以仁而民從之桀紂	-11.2352
天下之逹	-11.2352
始自天子終於庶人尊卑雖殊孝道同致	-11.2352
婦事舅姑	-11.2352
富是所	-11.2352
戇	-11.2352
我之愛既	-11.2352
接於人	-11.2352
於君則爲忠矣	-11.2352
日月山川	-11.2352
有其社稷而和調其	-11.2352
栗飴蜜以甘之	-11.2352
此孝道之有	-11.2352
深切	-11.2352
無聲視	-11.2352
王之卿六命	-11.2352
申而演之	-11.2352
示好以引之示惡以止之則人知有禁令	-11.2352
祖考之神	-11.2352
移忠移	-11.2352
稟天地之性	-11.2352
緫言	-11.2352
者又徳教之所自出	-11.2352
能喻諸人者未之有也故	-11.2352
臣預其尊榮	-11.2352
著於心則	-11.2352
蒙患	-11.2352
蓋釋以順天下	-11.2352
行恐辱先祖而毁盛業也	-11.2352
説誣	-11.2352
諭親	-11.2352
諸父諸兄	-11.2352
謹守法度則財雖	-11.2352
逆不行	-11.2352
通為一章古文則分為二章	-11.2352
零七字	-11.2352
順逹於	-11.2352
饘酏酒醴芼	-11.2352
上誼也	-11.2352
服法言	-11.2352
承上文而言	-11.2352
孝旣畢	-11.2352
神有所依	-11.2352
之左	-11.2352
種	-11.2352
其君主而祭之	-11.2352
之屬千劓	-11.2352
暮	-11.2352
天下之人被服其	-11.2352
師尹周太師尹氏	-11.2352
愛母同	-11.2352
愛而不敢有所惡於人敬其	-11.2352
災也非先王之法言不敢	-11.2352
故以名章次廣	-11.2352
有未至也	-11.2352
焉得為孝乎所以結一章之㫖而終是何	-11.2352
無有大於此者	-11.2352
而不敢違	-11.2352
賦税	-11.2352
郡人	-11.2353
章第十一	-11.2353
則親安之沒	-11.2353
勲	-11.2353
父母之心而	-11.2353
而不敢有所慢於人	-11.2353
馮	-11.2353
詩大雅	-11.2353
安親之	-11.2353
鸞	-11.2353
義見於上	-11.2353
則亦庶	-11.2353
臣子及天下之通孝以終焉	-11.2353
訓詁	-11.2353
貿	-11.2353
宗社	-11.2353
寢門之外	-11.2353
軸	-11.2353
都南	-11.2353
何不敬	-11.2353
吾黨	-11.2353
壬	-11.2353
諸侯各脩其職來助祭	-11.2353
陳其簠簋而哀慼之	-11.2353
之者至矣	-11.2353
十八章文字多誤	-11.2353
卯	-11.2353
君者臣之禀命也而敢要之是無上也	-11.2353
尸飲五君洗玉爵獻卿	-11.2353
從而後已	-11.2353
比户可	-11.2353
送形而往	-11.2353
飲七以瑶爵獻大夫尸飲九以散爵獻士	-11.2353
齒胄養老	-11.2353
□	-11.2353
㳺夏	-11.2353
一人之書一時之言	-11.2353
三宫夫人世婦之吉者	-11.2353
下之後周公始制此禮以尊其父文王也	-11.2353
不失職	-11.2353
不憚	-11.2353
不獲乎上	-11.2353
不獲其所	-11.2353
不足而禮有餘也不若禮不足而	-11.2353
不過如此于大義	-11.2353
之郊是	-11.2353
乖離	-11.2353
九州之外	-11.2353
也無不知敬其兄	-11.2353
也舊注以為	-11.2353
人乃可以不	-11.2353
今隨俗用鄭注十八章本	-11.2353
仰慕	-11.2353
伯舅	-11.2353
儐	-11.2353
光輝	-11.2353
其親而令他人	-11.2353
則上下臣人	-11.2353
劉向校書定爲十八	-11.2353
動於内	-11.2353
受賜	-11.2353
后妃	-11.2353
君子不絶	-11.2353
哀公十四年	-11.2353
問焉曰	-11.2353
壇祭月	-11.2353
奪喪	-11.2353
孝子之疏節也	-11.2353
孝子將祭	-11.2353
孝治章云	-11.2353
孝者德之至道之要也言先代聖德	-11.2353
孰有大于	-11.2353
安國之本亡	-11.2353
安國傳之	-11.2353
室祀天	-11.2353
家塾	-11.2353
寧戚	-11.2353
少連大連	-11.2353
幽暗	-11.2353
府學	-11.2353
影響	-11.2353
徼幸	-11.2353
心則存安其榮沒享其祭	-11.2353
必温	-11.2353
愉色有愉色	-11.2353
慕則人起心而行之	-11.2353
戚孝行之始終也	-11.2353
所授賢人	-11.2353
按大戴禮	-11.2353
故孔子言	-11.2353
敏達也言參不達何足知此	-11.2353
文王色憂行不能正履	-11.2353
於是觀	-11.2353
族兄	-11.2353
明庭	-11.2353
桃	-11.2353
横逆猶是也	-11.2353
殁身	-11.2353
民之從於	-11.2353
猶一家也	-11.2353
由親及	-11.2353
相摩	-11.2353
祫禘	-11.2353
終于立身	-11.2353
美報	-11.2353
者也繼髙祖	-11.2353
能順天下人心行此至要之化	-11.2353
自是天子不	-11.2353
舉其要而言	-11.2353
色容不	-11.2353
衆知其徳	-11.2353
行之事可	-11.2353
裔	-11.2353
託君	-11.2353
迎尸	-11.2353
選左右	-11.2353
邢昺等	-11.2353
閽	-11.2353
阻	-11.2353
高行子	-11.2353
齋戒沐浴	-11.2353
域	-11.2353
助其奉飬	-11.2353
遐不謂矣	-11.2353
鬼神著矣	-11.2353
孝者徳之本教之所由生	-11.2353
齊哀	-11.2353
吾語汝	-11.2353
鴆反	-11.2353
操七	-11.2354
雖日具	-11.2354
服衣之	-11.2354
左右就	-11.2354
經常之理	-11.2354
妄増	-11.2354
所居之	-11.2354
首章略	-11.2354
食旨不甘	-11.2354
未審而	-11.2354
為凶徳	-11.2354
祖考來格	-11.2354
為墓于郊	-11.2354
右傳之十章	-11.2354
敬同於父	-11.2354
駿奔	-11.2354
無念爾祖	-11.2355
樂記云先王之制禮樂也將以	-11.2355
自陷	-11.2355
康熙	-11.2355
七十子之徒	-11.2355
傳中間有不成語雖疑其有	-11.2355
善性而	-11.2355
夫然者上孝理皆得懽	-11.2355
左丘	-11.2355
憂將及親	-11.2355
所謂古文者亦不全同今不敢從彼改此	-11.2355
服飾言行	-11.2355
沮	-11.2355
為法於天下可傳於後世	-11.2355
者服言行也禮卿大夫立三廟以奉先	-11.2355
而成之惟恐不及君有	-11.2355
見因天地敎	-11.2355
跋稱	-11.2355
一念之	-11.2355
上則當莊敬以臨	-11.2355
不問可否而悉	-11.2355
也利物爲義孝爲百行之首人之	-11.2355
也禮所以修外	-11.2355
先王上有參字	-11.2355
公事畢	-11.2355
别立一廟	-11.2355
制後為室	-11.2355
則接對賓客出聘則	-11.2355
又案尚書益稷篇稱	-11.2355
右經十	-11.2355
孟子曰舜	-11.2355
復申言聖人教人以孝之故	-11.2355
恐其狎恩恃愛而	-11.2355
按説文云	-11.2355
推廣而言	-11.2355
教更有大於孝不	-11.2355
敬其父尊敬其父者亦無所不至而莫大	-11.2355
曰伯父叔父	-11.2355
有首尾	-11.2355
武王數紂之罪曰	-11.2355
百世不祧之宗	-11.2355
矢懸諸	-11.2355
禮記文王世子云	-11.2355
移事父孝以事	-11.2355
聲樂音洛	-11.2355
蓍	-11.2355
袖虞翻劉邵抑又次焉劉炫明安國之本	-11.2355
補過謂	-11.2355
詩以證	-11.2355
謂其文不	-11.2355
貴其異於萬物也	-11.2355
資親事君	-11.2355
鄭箋云	-11.2355
頗近之矣	-11.2355
依鄭注也	-11.2355
與平聲爭諍	-11.2355
同離令並去	-11.2355
如養致其樂恭敬如居致其	-11.2355
性生也言	-11.2355
荘敬	-11.2355
增多	-11.2355
億曰兆義取天子行孝兆人皆賴其善	-11.2355
君者臣之所禀令也而	-11.2355
有驕亂忿	-11.2355
致敬於宗廟	-11.2355
騁	-11.2355
莫善於禮	-11.2356
依違	-11.2356
過矣	-11.2356
以身先之	-11.2356
有格言焉	-11.2356
氷	-11.2356
戶	-11.2356
以悦	-11.2356
喪不過三年	-11.2356
宗皇帝	-11.2356
休徵	-11.2356
史佚	-11.2356
日加尊嚴	-11.2356
七里	-11.2356
嚴父嚴兄	-11.2356
達之天下	-11.2356
不肅而成不嚴而治	-11.2356
恠	-11.2356
舊說云	-11.2356
三日之後	-11.2356
之是無親也	-11.2356
戴記所稱	-11.2356
牛羊	-11.2356
之者易以	-11.2356
則未為能	-11.2356
卜之示	-11.2356
天下之至順	-11.2356
心而安	-11.2356
或未盡	-11.2356
敎從孝而生	-11.2356
盖忠臣之事君如孝子	-11.2356
三辰	-11.2356
不敬也敬	-11.2356
不為之加	-11.2356
之上帝以配祖考	-11.2356
争辨	-11.2356
事之以明子	-11.2356
事於長則爲順矣	-11.2356
二典之	-11.2356
二百二	-11.2356
人心喜	-11.2356
仁人孝子愛親之心雖	-11.2356
以修内	-11.2356
仲山甫衛	-11.2356
侮聖人之言	-11.2356
先王之道莫大於孝仲尼之教莫先於孝	-11.2356
六府	-11.2356
其祖父者如此是以徳教刑	-11.2356
冠衣不純	-11.2356
刑禁	-11.2356
則是夫子之	-11.2356
則諸侯以下	-11.2356
力一念之善則助	-11.2356
包含	-11.2356
卑上下	-11.2356
又有古文出于孔氏壁中	-11.2356
口無可擇之	-11.2356
右傳之四章	-11.2356
命降於社之	-11.2356
和平因問聖	-11.2356
咸丘䝉	-11.2356
善事父母為孝而敢非	-11.2356
四十五度之	-11.2356
四海諸侯不能保社稷	-11.2356
因敘其得喪講于人間	-11.2356
堊室之中	-11.2356
天下之本在	-11.2356
天下人行	-11.2356
失且其下文語已更端無所隔礙故今且	-11.2356
子孫封	-11.2356
字𢎞	-11.2356
孝經者孔子	-11.2356
孝莫大于嚴父嚴	-11.2356
尊敬其父者至矣極矣不可以復加矣然	-11.2356
嵎	-11.2356
帝牛	-11.2356
幸望	-11.2356
得仍舊耳	-11.2356
恂	-11.2356
惟是經國人相傳之久不知	-11.2356
懷寵	-11.2356
成之無使	-11.2356
持弓審固	-11.2356
於天下之民	-11.2356
於天地之性則	-11.2356
既以數本校讐且旁及他書所引	-11.2356
是以文字訛謬魚魯不辨	-11.2356
有何者可以加	-11.2356
服飾言行須遵禮典非	-11.2356
極隆	-11.2356
樂者天地之和也	-11.2356
正考父	-11.2356
此愛親之心	-11.2356
涌泛	-11.2356
無窮而立經陳紀制禮之節	-11.2356
生愛敬愛	-11.2356
皆本於孝	-11.2356
盧	-11.2356
真卿	-11.2356
矣聚順	-11.2356
祖言能備此三者則能長守宗廟之祀	-11.2356
稱制㫖	-11.2356
穆王訓夏	-11.2356
經以孝而和此以和而孝也引詩	-11.2356
經文之正意	-11.2356
繭	-11.2356
者無他	-11.2356
自古及今	-11.2356
至悦也	-11.2356
至矣大昏	-11.2356
芝子貞出之	-11.2356
芬	-11.2356
衆志平	-11.2356
補入	-11.2356
説聖人之治	-11.2356
謂父為天雖無貴賤然以父	-11.2356
辰運天而有常五土分地而爲義也	-11.2356
遲遲	-11.2356
邦終于	-11.2356
配天之禮始自周公故曰其人也	-11.2356
鉤命決云孔子曰	-11.2356
鞶	-11.2356
𤼵此章	-11.2356
柔色以	-11.2356
之喪二十五	-11.2357
下而不可驕矜	-11.2357
危懼	-11.2357
三千刑	-11.2357
此又總	-11.2357
則爲忠	-11.2357
不安故不	-11.2357
墨劓剕宫大辟	-11.2357
森	-11.2357
未有此理	-11.2357
次天子之貴者諸侯	-11.2357
道順而無	-11.2357
如水旱疾疫	-11.2357
則當和順以	-11.2357
事君則忠以	-11.2358
未忘	-11.2358
愉色	-11.2358
中忠孝道著乃能揚名榮親	-11.2358
曰苟不	-11.2358
昭彰	-11.2358
式過	-11.2358
恭儉	-11.2358
之以敬行之以	-11.2358
之無使昏	-11.2358
他邦	-11.2358
侮亡	-11.2358
只是	-11.2358
夔夔齋慄	-11.2358
忠于君	-11.2358
愛者仁	-11.2358
憂遇	-11.2358
所必無也	-11.2358
明王諸侯大夫	-11.2358
無賢愚	-11.2358
畢次明	-11.2358
百姓之衆	-11.2358
與彼同唯	-11.2358
蔽不明遂成而莫救也陳善閉邪慮之	-11.2358
見君父之過皆不可以苟順而不	-11.2358
遏而中止也一念之惡則諫止	-11.2358
之本教曰孝其行	-11.2358
則是未嘗有	-11.2358
報反惡如字又	-11.2358
大學經文	-11.2358
天作子	-11.2358
好如字又呼	-11.2358
始知孝之爲大也	-11.2358
尊無與對而能以已之父與之	-11.2358
有之乎曰	-11.2358
歐陽	-11.2358
汪應辰	-11.2358
義者宜也	-11.2358
鄰哉	-11.2358
軌	-11.2358
配享	-11.2358
曑	-11.2358
分祀	-11.2358
尊也廟	-11.2358
名於後世	-11.2359
居即坐也與上句義重禮小戴	-11.2359
恐墜	-11.2359
貴是所	-11.2359
德敎加於百姓	-11.2359
冬藏	-11.2359
舉其大	-11.2359
反企	-11.2359
周旋	-11.2359
懇	-11.2359
在醜而争之	-11.2359
肥	-11.2359
子曰先王有至	-11.2359
魯共王	-11.2359
也皇侃	-11.2359
鄉飲酒之義	-11.2359
則逺於先人之	-11.2359
年七十	-11.2359
悖慢之	-11.2359
燂湯請	-11.2359
睨	-11.2359
優優	-11.2359
好惡著則賢不肖别矣	-11.2359
惡而反人道之正也	-11.2359
求福	-11.2359
而天下莫	-11.2359
今文十八章	-11.2359
任不亦重乎	-11.2359
已下至於庶人	-11.2359
正義曰夫子前	-11.2359
節用而愛人	-11.2359
者也太學	-11.2359
者殃	-11.2359
風俗通	-11.2359
三者無虧然後	-11.2359
之可以懽樂	-11.2359
以忠順事	-11.2359
其君之不若	-11.2359
其邪物	-11.2359
取而分之	-11.2359
同於父非不	-11.2359
夫音扶下同	-11.2359
德行之行下孟反注	-11.2359
易曰正家而天下定	-11.2359
是聖賢之	-11.2359
有重服	-11.2359
殊尚	-11.2359
濟其志	-11.2359
穆帝	-11.2359
而行信	-11.2359
聚訟	-11.2359
與太子	-11.2359
詔稱其辭者皆言傳曰其實今文孝經也	-11.2359
說文曰	-11.2359
諫諍章	-11.2359
轉移	-11.2359
逸者亦不少而孔傳古文孝經全然尚存	-11.2359
雖善而亦非	-11.2359
黼黻文	-11.2359
齊襄公	-11.2359
之者謂天子有	-11.2359
也此五者皆	-11.2359
也而朱氏	-11.2359
五帝憲	-11.2359
使教民播種百	-11.2359
則不臣也	-11.2359
受氣	-11.2359
君其國故稱曰后稷	-11.2359
四方之人	-11.2359
天下無生而貴	-11.2359
天於南郊故曰郊	-11.2359
夫子答曽子之問	-11.2359
子夷子	-11.2359
居於上而	-11.2359
帝也周公之所以	-11.2359
帝則以文王配	-11.2359
得罪於鄉黨州閭	-11.2359
患爲禍	-11.2359
所及者	-11.2359
所當然皆來助	-11.2359
敘講	-11.2359
書以為春秋之	-11.2359
桓公而後	-11.2359
此亦格言也	-11.2359
比年	-11.2359
民生于	-11.2359
滿而不溢則不	-11.2359
為諸侯日	-11.2359
王太子	-11.2359
祭敬供郊廟之	-11.2359
稱其信	-11.2359
膋	-11.2359
自武王有	-11.2359
諫之大者	-11.2359
貴故況	-11.2359
郊祀祭天則以	-11.2359
非毁之者是無	-11.2359
申覆	-11.236
送葬	-11.236
春秋孝經	-11.236
下擇行行滿	-11.236
不衷	-11.236
高者必	-11.236
居謂閒居	-11.2361
為人子孫	-11.2361
第十二章	-11.2361
之經地	-11.2361
先之以敬讓	-11.2361
動止	-11.2361
十三年	-11.2361
民平好	-11.2361
蠢	-11.2361
宗武王	-11.2361
為之訓傳	-11.2361
不為苟	-11.2361
不王不禘	-11.2361
事宗廟能盡敬則祖考來	-11.2361
人子能事	-11.2361
格享於克誠故曰著也	-11.2361
淳熙	-11.2361
言非法	-11.2361
䰟	-11.2361
七世之廟	-11.2361
之萬物莫不	-11.2361
之道以率先之則人漸其	-11.2361
乾元萬物資始	-11.2361
四詩去聖逾逺源流益	-11.2361
宗祀謂宗廟之祭也	-11.2361
庶幾廣愛刑于四海嗟乎夫子沒而微言	-11.2361
撫愛	-11.2361
故魯史春秋學開五傳國風雅頌分	-11.2361
敢諫之	-11.2361
書傳通	-11.2361
朕聞上古其風朴略雖因心之孝	-11.2361
王之子武王之弟成王之叔父	-11.2361
繋於	-11.2361
親生膝	-11.2361
難安可能也	-11.2361
奉飬	-11.2361
覆載	-11.2361
不勝喪	-11.2362
雖得志	-11.2362
義宜也	-11.2362
永守	-11.2362
地察	-11.2362
言之不通也	-11.2362
經曰昔者明王之以孝	-11.2362
明婦順	-11.2362
人職云	-11.2362
彼此相	-11.2362
立政教	-11.2362
行仁之本也	-11.2362
在國中	-11.2362
著書立	-11.2362
可疑者不但此也因以書質之沙随程可	-11.2362
復次第申	-11.2362
盡其憂	-11.2362
丹朱傲	-11.2363
乎何其言之	-11.2363
孝子之義也	-11.2363
而論則	-11.2363
著則亦	-11.2363
仲尼燕居	-11.2363
創制	-11.2363
天子先君之	-11.2363
夷服	-11.2363
文矣文	-11.2363
斷恩	-11.2363
旬	-11.2363
東夷	-11.2363
殽地	-11.2363
私門	-11.2363
而能如此乎	-11.2363
聖人能順	-11.2363
覆幬	-11.2363
記曰禮之	-11.2363
訢然	-11.2363
配社稷	-11.2363
養死則	-11.2363
不一而莫大於	-11.2363
不惡慢於人	-11.2363
中國書	-11.2363
之父之所	-11.2363
之詩以賛美之	-11.2363
之長也亨	-11.2363
事兄悌故順可移於長注	-11.2363
何義也曰	-11.2363
作參音同義别	-11.2363
其儀不忒正是四國	-11.2363
冡土	-11.2363
去貪	-11.2363
命於祖廟作龜於禰宫尊祖親考之義也	-11.2363
報天而主日配以	-11.2363
嫌於	-11.2363
孔父嘉	-11.2363
字彦	-11.2363
孝則是使為人臣子者皆有今将之心而	-11.2363
宋元以	-11.2363
審固	-11.2363
小卿	-11.2363
序所云劉	-11.2363
廣雅曰	-11.2363
徂	-11.2363
得其報	-11.2363
德若三	-11.2363
必求諸	-11.2363
忠愛其君者	-11.2363
故孝行之大莫過尊嚴其父也	-11.2363
文武之功	-11.2363
新刋	-11.2363
日增	-11.2363
核其	-11.2363
死生之義備矣	-11.2363
爲河間	-11.2363
理斷	-11.2363
祀者似	-11.2363
祇劉炫一人	-11.2363
禮減而	-11.2363
繹孝經	-11.2363
罍尊	-11.2363
義以必當爲主	-11.2363
而後知所以為人	-11.2363
而民始	-11.2363
聖人制刑	-11.2363
胡宏	-11.2363
諸侯者各以其職	-11.2363
賔入	-11.2363
距二其行必	-11.2363
配合也周公	-11.2363
長而順	-11.2363
陳郡人	-11.2363
食采於周位居	-11.2363
馨	-11.2363
鮑	-11.2363
天有常	-11.2363
加於孝乎	-11.2363
謙辭	-11.2363
疾也曾子	-11.2364
子曰天地之性人為貴	-11.2364
合乎先	-11.2364
殷奠	-11.2364
故得萬國之懽心	-11.2364
梓	-11.2364
君令臣	-11.2364
明項霦撰	-11.2364
作敬讓而不爭矣	-11.2364
府也禮樂	-11.2364
飲酒義云先禮而後財則民	-11.2364
人心今則自	-11.2364
伏生	-11.2364
廟一昭	-11.2364
末流	-11.2364
繇此矣	-11.2364
詳以告之也	-11.2364
也微子	-11.2364
事君章	-11.2364
二則曰	-11.2364
亡于中夏	-11.2364
今去其世七百	-11.2364
入於刑	-11.2364
危辱	-11.2364
可以觀徳	-11.2364
嘉之㑹也利	-11.2364
帝堯	-11.2364
復其位	-11.2364
性也性	-11.2364
昔僧奝然適宋獻鄭注孝經一本	-11.2364
此一節夫子	-11.2364
爲常行也	-11.2364
皆法言	-11.2364
義之和也貞	-11.2364
者詩序又曰	-11.2364
蓁	-11.2364
賔及介而衆賔	-11.2364
身見愛敬	-11.2364
宣公	-11.2365
為人子為人弟為人臣者	-11.2365
▁相息亮反	-11.2365
敬其父兄君	-11.2365
號令	-11.2365
續莫大焉	-11.2365
而罪莫大於不孝	-11.2365
者禮之實也	-11.2366
八比	-11.2366
化民成俗	-11.2366
書之㫖	-11.2366
爲中古	-11.2366
祖而五	-11.2366
隐	-11.2366
罔以盡	-11.2366
戒舜曰	-11.2366
無閒字	-11.2366
言孝之綱領始終	-11.2366
詩書義之	-11.2366
趙衰薦郤縠云	-11.2366
十一年	-11.2366
牷	-11.2366
事之幹也	-11.2366
仲由	-11.2366
再飯	-11.2366
又何疑	-11.2366
叔梁紇	-11.2366
古文則云	-11.2366
史官	-11.2366
同情而	-11.2366
大報天而主日也兆於南郊就陽位也	-11.2366
如斬	-11.2366
始于事親	-11.2366
已歛	-11.2366
帝稷	-11.2366
成形于	-11.2366
故以天子而	-11.2366
救正	-11.2366
散齊	-11.2366
明試	-11.2366
易奠卒哭	-11.2366
是以道隱小成言隱浮	-11.2366
是知孝者德之本歟	-11.2366
曽參	-11.2366
會合	-11.2366
浮僞	-11.2366
溫文	-11.2366
略曰	-11.2366
祈農	-11.2366
秦禁	-11.2366
穆姜	-11.2366
累功	-11.2366
者其盛禮見於	-11.2366
而敬守之	-11.2366
自與也	-11.2366
袒割	-11.2366
諱改	-11.2366
足以合禮利物足以和義貞固足以幹事	-11.2366
跳行	-11.2366
身無可擇之行	-11.2366
郊之祭也迎長日之至也	-11.2366
随陽而	-11.2366
體仁足以長人嘉	-11.2366
髙卑	-11.2366
孝經述註	-11.2366
恐辱	-11.2366
贊美	-11.2366
聲譽	-11.2366
盡其歡樂	-11.2366
蓋士之孝也詩云夙興夜寐無忝爾所生	-11.2366
皇尸	-11.2366
於無形	-11.2367
統論	-11.2367
在位可畏施舍可愛進退可	-11.2367
旦反	-11.2367
道教即	-11.2367
此言宗祀	-11.2367
不如是不足以	-11.2367
懽悦	-11.2367
一國之賦	-11.2367
云熹	-11.2367
保其天下	-11.2367
去邪	-11.2367
趙衰	-11.2367
士無臣	-11.2367
彰著	-11.2367
愛敬忠順	-11.2367
曰士者事也	-11.2367
深戒	-11.2367
罪惡之極	-11.2367
而人之行也	-11.2367
馬牛	-11.2367
三終主人獻之	-11.2367
則不乏	-11.2367
則天下之爲	-11.2367
子之事父	-11.2367
孝治天下能致災	-11.2367
市舶	-11.2367
有僕	-11.2367
此皆説	-11.2367
與共戴天	-11.2367
成形	-11.2367
身體髪膚受之父母不敢毁傷孝之始也	-11.2368
骨	-11.2368
之行若中道則	-11.2368
言其細	-11.2368
各至其	-11.2368
君立	-11.2369
人而曰父母	-11.2369
厥後今文	-11.2369
始於祖	-11.2369
帝於郊	-11.2369
斬哀	-11.2369
手澤	-11.2369
故孝者生民	-11.2369
有君民之大	-11.2369
前代	-11.2369
勸善	-11.2369
揣	-11.2369
滿天下亦不必	-11.2369
猶未至於行道也	-11.2369
八十者一子不從政九十者其家不從政	-11.2369
理或當何必求人今故特舉六家之異同	-11.2369
等夷	-11.2369
自舜始	-11.2369
貎也尹氏爲太師周之三公也	-11.2369
在是矣	-11.2369
微詞	-11.2369
於公族	-11.2369
母也愛	-11.2369
異者祇	-11.2369
艱	-11.2369
迎牲	-11.2369
附㑹	-11.2369
且傳以通經爲義	-11.2369
之中言行	-11.2369
以戒富	-11.2369
其地則	-11.2369
同而化	-11.2369
坐席	-11.2369
大聘	-11.2369
姓言百	-11.2369
建寅	-11.2369
強民者也	-11.2369
戴記云孔子閒居曾子侍並無坐字此經	-11.2369
按禮運曰	-11.2369
敬以入	-11.2369
木金父	-11.2369
眾	-11.2369
絕	-11.2369
衰於妻子	-11.2369
許慎説文所引孝經	-11.2369
赳	-11.2369
鐘為	-11.2369
陶匏	-11.2369
隘巷	-11.2369
靁	-11.2369
馳騁	-11.2369
扶持	-11.2369
大雅云	-11.2369
平居無事	-11.237
於道	-11.237
天之經地之義	-11.237
而德教加於百姓	-11.237
至尊無	-11.237
不失其天下	-11.237
往而不	-11.237
言無大於孝者	-11.237
可謂知本	-11.237
天下則以有	-11.237
注不為文餙	-11.237
濟志	-11.237
父出則	-11.237
夏書曰	-11.237
毋取扵	-11.237
烹	-11.237
裁而後	-11.237
為宜故曰義	-11.237
于是乎	-11.237
以結上文	-11.237
先王先君	-11.237
同故注	-11.237
注經常	-11.237
百姓臣妾猶	-11.237
致其福	-11.237
衣冠	-11.237
詳悉	-11.237
神明彰	-11.2371
立社曰	-11.2371
則危亡之禍	-11.2371
舉其大而言	-11.2371
嘉謀嘉猷	-11.2372
淳于	-11.2372
考工記曰	-11.2372
則為忠矣	-11.2372
或失徳	-11.2372
注言教至	-11.2372
兄弟以御	-11.2372
孔子之書	-11.2372
杜撰	-11.2372
民猶以為	-11.2372
道也誠者	-11.2372
夫婦之别	-11.2372
如客	-11.2372
旅酬下為上所以逮賤也	-11.2372
是古人	-11.2372
顔氏	-11.2372
之㣲言	-11.2372
朝㑹	-11.2372
樂盈而	-11.2372
誠以成	-11.2372
三年憂	-11.2372
不可以一日廢也夫	-11.2372
以事上而不可悖亂在	-11.2372
其將亡	-11.2372
卿大夫之行孝也	-11.2372
名曑	-11.2372
孝之大者也	-11.2372
守亦可	-11.2372
安其位	-11.2372
宜兄宜弟	-11.2372
實録	-11.2372
尚書同出	-11.2372
廟堂之	-11.2372
惡乎隱而有	-11.2372
惡慢去	-11.2372
戎事	-11.2372
方伯	-11.2372
王季日三	-11.2372
而民貴	-11.2372
聖人知孝之可以敎人也	-11.2372
自為立社曰	-11.2372
葢自是	-11.2372
視聽	-11.2372
諫盡命	-11.2372
迎長日	-11.2372
隱蔽	-11.2372
集賢	-11.2372
音甫	-11.2372
使人知	-11.2372
二十字	-11.2373
為天子而	-11.2373
天性非由	-11.2374
義利之本也	-11.2374
不可違	-11.2374
外飾	-11.2374
昔者舜	-11.2374
顯父母	-11.2374
蓋士之孝也	-11.2374
身之道	-11.2374
向	-11.2374
錯簡	-11.2374
以教其子	-11.2374
於西南	-11.2375
則周公其人也	-11.2375
又必謹	-11.2375
注謂以兵刃相加	-11.2375
享五帝	-11.2375
而此獨舉	-11.2375
天子負	-11.2375
故曰射者	-11.2375
不爭則䧟	-11.2375
也夫人之一身	-11.2375
二端	-11.2375
其容體	-11.2375
出於天地	-11.2375
山井鼎等	-11.2375
有名字	-11.2375
正義曰經云	-11.2375
此聖人所以	-11.2375
隨分	-11.2375
以盛德之	-11.2375
任意	-11.2375
博聞	-11.2375
周公之始祖也	-11.2375
慨焉	-11.2375
操行	-11.2375
易進難退之	-11.2375
皆質也	-11.2375
矣而猶且	-11.2375
而翻	-11.2375
豈獨	-11.2375
貴財	-11.2375
長其子	-11.2375
非外也	-11.2375
也王云孝爲	-11.2375
以三仁	-11.2375
全襲	-11.2375
刑敝	-11.2375
則曷為必	-11.2375
國人詩云	-11.2375
守宰	-11.2375
已孤	-11.2375
臯夷	-11.2375
諸侯礿	-11.2375
此天地之	-11.2376
也未有孝	-11.2376
發端	-11.2377
迎氣	-11.2377
魄	-11.2377
案毛詩傳	-11.2377
直吏	-11.2377
服象其	-11.2377
黄昭	-11.2377
分列	-11.2377
為使人勿	-11.2377
稱師曰	-11.2377
天下盡忠	-11.2377
父母之䘮	-11.2377
之詩以結之言	-11.2377
并舉	-11.2377
所佚	-11.2377
此即左傳	-11.2377
皂牧	-11.2377
致慤	-11.2377
言天子之孝天子	-11.2377
滅亡	-11.2377
居則致其敬	-11.2377
寛而不	-11.2377
循理	-11.2377
離席	-11.2378
弓曰	-11.2378
天之明因地之義	-11.2378
乗路馬	-11.2378
其義為大於此	-11.2378
於是乎道	-11.2378
幾諫	-11.2378
若是則可謂	-11.2378
鄭氏注	-11.2378
父母没	-11.2378
一時之言無可疑者而後人	-11.2378
稻粱器	-11.2378
然而然者	-11.2378
之質也重	-11.2378
自分經傳	-11.2378
孔子閒居	-11.2378
字猶之古文尚書	-11.2378
漢志	-11.2378
舉其大數	-11.2378
亦曰吾	-11.2378
以觀風	-11.2378
國人皆	-11.2378
矣聘	-11.2378
知其體	-11.2378
不能得之於	-11.2378
之才與	-11.2378
以戒貴	-11.2378
傳習	-11.2378
君而事	-11.2378
天圜丘	-11.2378
天子之志也	-11.2378
孝於天地	-11.2378
彼我	-11.2378
故因嚴以敎敬因親以敎愛	-11.2378
最尊	-11.2378
氣盛	-11.2378
簟反	-11.2378
老兄	-11.2378
者此孔傳	-11.2378
者無主不	-11.2378
舎奠	-11.2378
以孝使	-11.2378
亦謂	-11.2378
身率下	-11.2379
臣之事君	-11.2379
不得為孝	-11.238
君欲教民	-11.238
姦人	-11.238
曲直	-11.238
后稷名棄	-11.238
仲長	-11.238
嚴恭	-11.238
特起	-11.238
用此道	-11.238
𤣥冠	-11.238
孝於父	-11.238
君言社稷卿大夫言宗廟	-11.2381
小雅小旻之	-11.2381
以成其信	-11.2381
非餕莫	-11.2381
睦以致太平則災害禍亂無因而起	-11.2381
也天以生覆	-11.2381
淺學	-11.2381
月古人之	-11.2381
順其性	-11.2381
囚	-11.2381
事之均	-11.2381
别録	-11.2381
所以明君臣之義也	-11.2381
不出於此	-11.2381
不得不及	-11.2381
使天下之人皆	-11.2381
取則於	-11.2381
名為宗	-11.2381
文勢	-11.2381
此大亂之道也注	-11.2381
注愷	-11.2381
甫刑即	-11.2381
祭祀之禮	-11.2381
而致事	-11.2381
西郊	-11.2381
言賔南鄉	-11.2381
謂服飾	-11.2381
識音	-11.2381
議論	-11.2381
道徳名	-11.2381
長慮	-11.2381
以主宰言	-11.2382
太平	-11.2382
尊崇作	-11.2382
助字	-11.2382
故逺於	-11.2383
常存	-11.2383
之敬者終有限	-11.2383
然後能事親	-11.2383
不可而况乎	-11.2383
之於一國	-11.2383
事母之愛	-11.2383
其儀不忒	-11.2383
易乾	-11.2383
父母之養	-11.2383
棺音	-11.2383
乃天性	-11.2383
子曰非先王之法服不敢服	-11.2384
不忘父母	-11.2384
既歾	-11.2384
唐𤣥宗皇帝	-11.2384
因嚴教敬因	-11.2384
隣里	-11.2384
身為大身	-11.2384
注觸地無容	-11.2385
禮樂之情	-11.2385
者西方之	-11.2385
輕財	-11.2385
視傚	-11.2385
則斯道	-11.2385
君行嚴配之禮則德	-11.2385
器物	-11.2385
夫然猶	-11.2385
所以教敬愛	-11.2385
者北方之	-11.2385
居室	-11.2385
莊公	-11.2385
足以盡	-11.2385
㕘	-11.2385
上農夫	-11.2385
不及之理	-11.2385
事行者	-11.2385
代食	-11.2385
何謂也曰	-11.2385
凡十八章	-11.2385
受業	-11.2385
四象	-11.2385
夷字	-11.2385
思而得	-11.2385
愛一人焉	-11.2385
揖之	-11.2385
無諫也	-11.2385
王后夫人	-11.2385
終於立身下	-11.2385
藝文志文	-11.2385
請業則起	-11.2385
選擇也	-11.2385
門内	-11.2385
防叔	-11.2385
無所取	-11.2385
此誼也	-11.2385
偷得	-11.2385
親安	-11.2385
孔子對	-11.2386
限量	-11.2386
時雨	-11.2386
奢僭	-11.2386
節操	-11.2386
虞夏	-11.2386
本諸身	-11.2386
事長則順矣	-11.2386
事親能孝	-11.2386
為人子者當	-11.2386
字今文作	-11.2386
孰不為	-11.2386
景行	-11.2386
此數語	-11.2386
當門	-11.2386
繁多	-11.2386
但經所謂	-11.2387
多識	-11.2387
干犯	-11.2387
之徳民愛	-11.2387
陽太	-11.2387
請命不	-11.2388
講義	-11.2388
敬肆	-11.2388
未篤	-11.2388
隨所宜	-11.2388
之何也曰周公	-11.2388
人生所	-11.2388
修其徳則	-11.2388
昭穆相	-11.2388
而撮其樞要也	-11.2388
公劉	-11.2388
公室	-11.2388
長孫氏	-11.2388
不蚤	-11.2388
之類是也云	-11.2388
以聖人之不	-11.2388
則在于	-11.2388
在正席之	-11.2388
愾然	-11.2388
故曰仲	-11.2388
無不及也	-11.2388
者中央之	-11.2388
者必心	-11.2388
行三者皆	-11.2388
起起者起	-11.2388
逺怨	-11.2388
聖人建	-11.2388
能立身	-11.2389
於祖考則	-11.2389
語更端	-11.2389
必有先也	-11.2389
定例也	-11.2389
帝以文王配	-11.2389
臣妾賤	-11.2389
明故曰明堂	-11.2389
事母能	-11.2389
是王者之	-11.2389
而善道之	-11.2389
諸侯之於天子也	-11.2389
皆放此	-11.239
舊說	-11.239
經字	-11.2391
尊賢而	-11.2391
愛敬哀慼孝	-11.2391
有不順者	-11.2391
耻有其	-11.2391
遑寧	-11.2391
則無暴亂之	-11.2391
神祗	-11.2391
各敬其親	-11.2391
大夫四命	-11.2391
愛敬愛之	-11.2391
之用刑	-11.2391
云親猶愛也	-11.2391
者天地所為	-11.2391
六月	-11.2391
古者諸侯之	-11.2391
失之矣	-11.2391
有四焉	-11.2391
者皆本乎	-11.2391
于一本	-11.2391
任刑	-11.2391
冡子	-11.2391
刪孝經	-11.2391
善繼	-11.2391
在邦	-11.2391
庶老	-11.2391
聴命	-11.2391
若非先王	-11.2391
和之至也	-11.2391
天子而下	-11.2391
自從也	-11.2391
明暢	-11.2392
配月	-11.2392
人君所以	-11.2392
則而象之	-11.2392
辨地利	-11.2392
刑於四海海内諸侯各修其職來助祭也	-11.2392
政教失	-11.2392
君享其安	-11.2392
所以防	-11.2392
最先	-11.2392
人有善	-11.2392
古文居上	-11.2392
尚爾	-11.2392
以今文孝經	-11.2392
者不煩	-11.2392
在上不驕	-11.2393
至唐	-11.2393
祀此則	-11.2394
陷于不	-11.2394
愛敬親死則	-11.2394
古文孝經二十二章	-11.2394
事亂君	-11.2394
冢宰之	-11.2394
祖主日	-11.2394
自然之理也	-11.2394
未之行也	-11.2394
而一以	-11.2394
人信其	-11.2394
修業	-11.2394
咸知	-11.2394
子張	-11.2394
仲尼弟子	-11.2394
致其恭敬	-11.2394
不教則	-11.2394
其隣	-11.2394
土神	-11.2394
在一日	-11.2394
字句	-11.2394
欲求	-11.2394
然其意	-11.2394
臣子所	-11.2394
若是乎	-11.2394
若是者何也	-11.2394
配天而又	-11.2394
王制	-11.2394
服飾	-11.2394
無犯	-11.2395
天子章	-11.2395
應如此	-11.2395
天子用樂	-11.2395
矣故以喪	-11.2396
是聖言	-11.2396
事先王者	-11.2396
梁王	-11.2396
王者出	-11.2396
知幾	-11.2396
此一字	-11.2396
一飯	-11.2396
無疆	-11.2396
則上下和	-11.2396
親而外不	-11.2397
西階	-11.2397
博學而無	-11.2397
殺其身	-11.2397
七年	-11.2397
遷就于其	-11.2397
六章大傳第	-11.2397
𤣥冕而	-11.2397
侯度	-11.2397
四方之國皆	-11.2397
神而明	-11.2397
祭不欲	-11.2397
𤼵端	-11.2397
而有惡慢	-11.2397
陽氣	-11.2397
推賢	-11.2397
祀帝	-11.2397
不週於	-11.2397
之有尸	-11.2397
以致孝	-11.2397
以見天子	-11.2397
公田	-11.2397
則又雜出之以	-11.2397
尊長養老而後	-11.2397
振風紀	-11.2397
授受	-11.2397
推之于	-11.2397
殊異	-11.2397
異端	-11.2397
節省	-11.2397
而繼禰	-11.2397
量其短長	-11.2397
齊其參錯	-11.2397
無愆	-11.2398
若是其	-11.2398
以强教之	-11.2398
事其主	-11.2399
因其日嚴	-11.2399
仁義禮樂	-11.2399
舜而已	-11.2399
不同位	-11.2399
不飲酒食肉	-11.2399
也注君行至	-11.2399
孝無終始	-11.2399
事長則順	-11.2399
氣體	-11.24
大昏	-11.24
若火之	-11.24
四章大傳第	-11.24
不得懈惰	-11.24
而不見親	-11.24
謂民之父母矣	-11.24
受禄	-11.24
子曰資於事父以事母	-11.24
真偽	-11.24
夏周之	-11.24
勝于朱	-11.24
養其親則	-11.24
固結	-11.24
春春	-11.24
云制節	-11.24
惡慢人而	-11.24
而何乎	-11.24
鬼神之能	-11.24
君子致其	-11.24
後而下	-11.24
特立	-11.24
祭之無	-11.24
請畢	-11.24
郭君	-11.24
一十八章	-11.24
教之以弟	-11.2401
司成	-11.2401
雍州	-11.2401
祖載	-11.2402
慮國	-11.2402
施化	-11.2402
不侔	-11.2402
所以敬天下之為人君者也	-11.2402
三穆廟	-11.2402
風聲	-11.2402
入仕	-11.2402
仁之𤼵為愛	-11.2403
始皇焚	-11.2403
忿怒	-11.2403
物之所以生	-11.2403
有天刑	-11.2403
自周始	-11.2403
瞽亦如之	-11.2403
還拜也	-11.2403
懽心而事先	-11.2403
民而無不	-11.2403
上圜	-11.2403
字古文同在	-11.2403
為民父母	-11.2403
興秩	-11.2403
五歩	-11.2403
不可則止	-11.2403
不登髙不	-11.2403
於君遂	-11.2403
者南方之	-11.2403
也王宫	-11.2403
内豎曰	-11.2403
諸侯而下	-11.2403
哀哉	-11.2403
孟子曰人之	-11.2403
有不得已也	-11.2403
獻酬之禮	-11.2403
而後君臣	-11.2403
也而陳	-11.2403
人東晉	-11.2403
其嗜欲	-11.2403
别起	-11.2403
吳公	-11.2403
改此字	-11.2403
百篇	-11.2403
經文今	-11.2403
而夷子	-11.2403
而後動	-11.2404
干戈	-11.2405
也劉炫以為	-11.2405
諸侯言保	-11.2405
入門	-11.2405
子夏詩	-11.2405
俱出	-11.2405
十八篇	-11.2405
通於神明又	-11.2406
南北	-11.2406
總結之	-11.2406
夫音扶行下孟反	-11.2406
文之弊	-11.2406
元良萬邦以貞	-11.2406
生事愛敬	-11.2406
封於邰	-11.2407
太甲	-11.2407
文質生	-11.2407
淳化	-11.2407
也者此依孔傳也劉炫	-11.2407
敬其所敬	-11.2407
非有二也	-11.2407
不害理	-11.2407
以孝教天下	-11.2407
心常存	-11.2407
此侍立	-11.2407
與曰各	-11.2407
汝作	-11.2407
三達	-11.2407
不覩	-11.2407
以駁	-11.2407
古文偽	-11.2407
安寧	-11.2407
王儉	-11.2407
還中	-11.2407
者有	-11.2407
故以友	-11.2407
詩小雅小宛之	-11.2407
兄之	-11.2407
相次	-11.2408
有一毫之不	-11.2408
人為貴	-11.2408
景帝	-11.2408
幼幼	-11.2408
神保	-11.2408
信則	-11.2409
凡八十	-11.2409
也先王制禮	-11.2409
為常故曰	-11.241
惠所藏	-11.241
韋布而	-11.241
敬愛者矣	-11.241
於臣臣不	-11.241
易慢	-11.241
近刑	-11.241
成於國	-11.241
呉澄謂	-11.241
以多福	-11.241
武成	-11.241
凡養老	-11.241
又竊	-11.241
憂思	-11.241
承受	-11.241
易簡	-11.241
消於	-11.241
然則仲尼	-11.241
示神	-11.241
致詳	-11.241
興讓	-11.241
祖禹	-11.241
而民莫不	-11.2411
安危	-11.2411
則為順	-11.2411
辟兵	-11.2411
秘書	-11.2411
祀文王	-11.2411
引詩及	-11.2411
彼哉	-11.2411
謂之儀	-11.2411
難備	-11.2411
下之事上	-11.2412
以無忝	-11.2412
不備之	-11.2413
何以異乎	-11.2413
言諸侯貴	-11.2413
偽書	-11.2413
其終事	-11.2413
僅存	-11.2413
古之君子	-11.2413
等殺	-11.2413
故中和	-11.2413
數數	-11.2413
也夜明	-11.2413
利之則	-11.2413
又增	-11.2413
多死	-11.2413
無咎	-11.2413
疾可以	-11.2413
者也樂者	-11.2413
禁而	-11.2413
大於孝	-11.2413
自下而	-11.2414
焉其	-11.2414
事父孝故能事	-11.2414
自父兄始	-11.2414
待妻	-11.2414
不可辨	-11.2415
甚大而	-11.2415
夫猶有	-11.2415
少賤之	-11.2415
政是故	-11.2415
隆矣	-11.2415
易則	-11.2415
行徳誼	-11.2416
無方之	-11.2416
而能改	-11.2416
敬安親	-11.2416
按舊注	-11.2416
尸為棺周棺為椁衣謂歛衣衾被也舉謂	-11.2416
其至要	-11.2416
書章句	-11.2416
然後乃行	-11.2416
真實	-11.2416
常聲	-11.2416
今更	-11.2416
克己	-11.2416
為行始	-11.2416
無關	-11.2416
一壇	-11.2416
孝悌之事	-11.2416
皆在國	-11.2416
尚書大傳	-11.2417
大饗	-11.2417
身之所行	-11.2417
旤患	-11.2417
言與之義	-11.2418
年教之數	-11.2418
凡有五	-11.2418
将祭	-11.2418
正義曰此説	-11.2418
能察	-11.2418
其哀情	-11.2418
上之化	-11.2418
守富	-11.2418
而作	-11.2418
非不美	-11.2418
此三者人	-11.2418
自阼階	-11.2419
人書	-11.2419
殯而臣有父母之喪則如之何孔子曰歸	-11.2419
故五人	-11.2419
繫於	-11.2419
耕必有	-11.2419
公桑	-11.2419
卒從	-11.2419
聖人之訓	-11.2419
首冬至	-11.2419
宗祀祭	-11.2419
宗祀文王於明堂以配上帝注	-11.2419
我且	-11.2419
敬以成	-11.2419
有其容	-11.2419
未詳	-11.2419
樂之反	-11.2419
生兄弟	-11.2419
知無不	-11.2419
祖孫	-11.2419
秋用	-11.2419
者㓕	-11.2419
道遠	-11.2419
洋洋	-11.2419
無有窮	-11.242
來世	-11.242
能守法	-11.242
求富貴	-11.242
則同於	-11.2421
欲民親愛	-11.2421
景明	-11.2421
者通也	-11.2421
不忠於君	-11.2421
亦本於	-11.2421
音待	-11.2421
孝於親而	-11.2421
惡逆	-11.2421
相等	-11.2421
聖帝	-11.2421
幽明	-11.2421
神尚	-11.2421
辱其父母也	-11.2421
卿相	-11.2422
曰某	-11.2422
頒天下	-11.2422
其往送也	-11.2422
▁離力智反	-11.2422
明皇御注	-11.2422
有愛心	-11.2422
職方	-11.2422
孝者地之義	-11.2422
有不知其	-11.2422
謂子路	-11.2422
曰我其	-11.2422
喪紀	-11.2422
天地宗廟	-11.2422
畏敬	-11.2422
者心之	-11.2422
諸侯耕	-11.2422
古訓	-11.2423
於郊社	-11.2423
而後禮樂興	-11.2424
極言孝之大	-11.2424
暑而	-11.2424
及致敬	-11.2424
而游夏	-11.2424
注悲哀	-11.2424
如臯	-11.2424
萬物之靈故	-11.2424
併不	-11.2424
於天者也	-11.2424
諍臣	-11.2424
何足	-11.2425
身不毁傷	-11.2425
五章大傳第	-11.2425
多累	-11.2425
乎孟子曰諸侯	-11.2425
則可與	-11.2425
也經傳之	-11.2425
請問	-11.2426
周公然則	-11.2426
之不可得而	-11.2426
以失於自	-11.2426
以摯	-11.2426
幾字	-11.2426
澤及	-11.2426
今移	-11.2426
公尸	-11.2426
専一	-11.2426
尚志	-11.2426
徵在	-11.2426
遐逺也	-11.2426
音餘	-11.2426
終其	-11.2426
廣至徳之義	-11.2427
者之孝而	-11.2427
八音	-11.2427
▁音	-11.2427
所效	-11.2428
意則引	-11.2428
焉以其敬而	-11.2429
祖始也	-11.2429
而夫子以為	-11.2429
徐行	-11.2429
皆古文也	-11.2429
人不使	-11.2429
人所不能	-11.2429
愧於	-11.2429
既養老	-11.2429
生天地之間	-11.2429
立宗廟	-11.2429
地以承	-11.2429
報功	-11.243
完矣	-11.243
參性遲	-11.243
而已後世	-11.243
自為文	-11.243
既冠	-11.243
可謂能	-11.2431
不可為	-11.2431
得福	-11.2431
也教之以孝	-11.2431
寛而	-11.2431
昭王	-11.2431
巧言	-11.2432
已重乎	-11.2432
才卧反	-11.2432
之所覆地之所載日月所照霜露所墜	-11.2432
天子之於天下	-11.2432
功效	-11.2432
成魄	-11.2432
知其法	-11.2432
先嘗之	-11.2432
兩義	-11.2432
皆在郊	-11.2432
賤服	-11.2433
上有此字	-11.2433
有可疑者	-11.2433
也兩者	-11.2433
善謂身行愛敬也	-11.2433
妻子猶	-11.2433
所記	-11.2433
務在	-11.2434
今文稱鄭	-11.2435
勢不得	-11.2435
去聖	-11.2435
則國安	-11.2435
和元年	-11.2435
前堂	-11.2435
日以至	-11.2435
於萬民	-11.2435
文衍	-11.2436
子嘗	-11.2436
盖就	-11.2437
著者	-11.2437
宋本	-11.2437
時思之也	-11.2437
以享先	-11.2438
行之遲	-11.2438
曽子聞	-11.2438
孔聖	-11.2438
驕亂争	-11.2438
治民則	-11.2438
民之心而	-11.2438
之以刑	-11.2438
衆多	-11.2438
乎先儒	-11.2438
則不敢以	-11.2438
地風	-11.2438
従父	-11.2438
萬幾之	-11.2438
以禮字	-11.2438
興亂	-11.2438
重加	-11.2438
既成	-11.2438
施政教	-11.2438
貧而	-11.2438
順而無	-11.2439
不虛	-11.2439
如此故	-11.2439
功利	-11.244
名昌	-11.244
國史	-11.244
蔵之	-11.244
驕志	-11.2441
而不奢	-11.2441
表章	-11.2441
按孝經一	-11.2441
爲甫侯	-11.2441
能孝理其家則得小大之懽心助其奉	-11.2441
次第六章後	-11.2441
庶人爲孝	-11.2441
無有惡慢及	-11.2441
禮之報	-11.2441
因心而行	-11.2441
五典	-11.2441
愛敬不生	-11.2441
任重	-11.2441
好名	-11.2441
而其質	-11.2443
受命與	-11.2443
感之而	-11.2443
六合	-11.2443
士行孝	-11.2443
曽子曽子	-11.2443
有節	-11.2443
武公	-11.2444
所敬者寡而恱者衆此之謂要道也	-11.2444
欲教民以有禮	-11.2444
則貴賤有	-11.2444
謂父爲	-11.2444
故見為	-11.2444
參問	-11.2444
則直用	-11.2444
補焉	-11.2444
不知所謂	-11.2444
敬至而	-11.2444
不得過	-11.2444
今文尚書	-11.2444
其君者也	-11.2444
孝經之意	-11.2444
已乎曰	-11.2444
已久矣	-11.2445
之生	-11.2445
自補	-11.2445
爲士者	-11.2445
退動静也不越禮法則可度也	-11.2446
醜衆也	-11.2446
然後可	-11.2446
則不敢不	-11.2446
天地鬼神之	-11.2446
戒之	-11.2446
遺猶	-11.2446
農夫	-11.2447
三章大傳第	-11.2447
者古文也	-11.2447
致應感	-11.2448
親饗	-11.2448
夀之	-11.2448
踐之	-11.2448
釋奠而	-11.2448
則天神	-11.2448
合衆	-11.2448
尚何	-11.2448
自持	-11.2448
下席而	-11.2448
用之節	-11.2448
未有不繇	-11.2449
分以為六七章	-11.2449
可法	-11.2449
敬勝	-11.2449
昭二	-11.2449
云云則	-11.2449
此其所以	-11.2449
所以於此	-11.2449
孝之始終	-11.245
道而出	-11.245
條理	-11.245
排毁古文以閨門	-11.245
有不死	-11.245
以觀民	-11.245
可去也	-11.245
事交乎	-11.2451
報本	-11.2451
慎行則	-11.2451
更立	-11.2451
曾子侍坐	-11.2451
𤼵于	-11.2451
口體	-11.2451
同歸	-11.2452
恱於	-11.2452
盖由	-11.2452
無怠	-11.2452
者嫌	-11.2452
失忠順	-11.2453
事君事長之	-11.2453
不敢犯也	-11.2453
斬衰三日不食	-11.2453
差殊	-11.2454
周家有	-11.2454
孝經有二	-11.2454
㣲義	-11.2454
内志	-11.2454
立春	-11.2454
能而無	-11.2454
語意	-11.2454
反也	-11.2454
毁不滅性此聖人之政	-11.2454
齊宣王	-11.2455
傷天下	-11.2455
愛之况	-11.2455
數章	-11.2455
有六焉	-11.2455
不傷不	-11.2455
之惑也	-11.2456
修其身	-11.2456
中間	-11.2456
以及一國	-11.2456
文句	-11.2456
人乎	-11.2456
世之音	-11.2457
君之德	-11.2457
也人子	-11.2457
於閒居	-11.2457
五色	-11.2457
又有非	-11.2457
子者皆知盡事父之	-11.2457
孔時	-11.2457
必式	-11.2457
漸矣	-11.2457
爲秦	-11.2457
謀及	-11.2457
親之情	-11.2458
不敬其親而敬他人者	-11.2458
其天性非	-11.2458
也若乃	-11.2458
者莫善於	-11.2458
雖處高	-11.2458
備此五	-11.2459
愈大	-11.2459
仁信	-11.2459
國家者	-11.2459
其愛敬之心	-11.2459
之氣始於	-11.2459
皆順從	-11.2459
責成人禮	-11.246
乞言合語	-11.246
政齊	-11.246
親者必於人無不	-11.246
者守門	-11.246
冕而祭	-11.246
尊讓	-11.246
之有詩曰	-11.246
范祖禹曰君子	-11.246
始定	-11.246
足以見	-11.246
可以備	-11.246
一心而	-11.2461
教本	-11.2462
亦可知也	-11.2462
炫所	-11.2462
為市朝	-11.2462
嚴尊也	-11.2462
問孝子曰	-11.2463
猶之古也	-11.2463
矣而有	-11.2463
諸語	-11.2463
不敢祖	-11.2463
之實焉	-11.2463
天下之懽心	-11.2463
遺老	-11.2464
節哀	-11.2464
降殺	-11.2464
天子愛親則	-11.2465
者連上	-11.2465
子之於天下	-11.2465
何等	-11.2465
誠信者	-11.2465
自昔	-11.2465
樂器	-11.2465
生萬物	-11.2465
祀之於	-11.2465
子者湏	-11.2466
曰善哉	-11.2466
鬼享而	-11.2466
逆命	-11.2466
重言之	-11.2467
其歸於	-11.2467
一例	-11.2467
定數	-11.2467
顧行	-11.2467
五載	-11.2467
朱子作	-11.2467
死而後	-11.2467
同風	-11.2467
其長	-11.2467
而不遺	-11.2467
加焉	-11.2468
親遜	-11.2468
言孝不	-11.2468
反覆	-11.2468
足以勝之	-11.2469
何也曰是猶	-11.2469
以義起也	-11.2469
以社稷事	-11.247
金革之事無辟也者	-11.247
不敢忽	-11.247
一編	-11.247
者其本一也	-11.247
得保	-11.247
明其義	-11.247
書記	-11.247
不得志	-11.247
正諫者	-11.247
也韋昭	-11.247
其名則	-11.247
原自	-11.247
與孔子曰	-11.247
魯國	-11.247
孝以事	-11.247
者言雖	-11.2471
澄謂	-11.2471
無以加尚之	-11.2471
桀紂之	-11.2471
之孝可通	-11.2471
可度以	-11.2471
齊於	-11.2471
君千萬人	-11.2472
以虞	-11.2472
孝子所不	-11.2472
敬者愛之	-11.2472
異制	-11.2473
有闕失	-11.2473
賤惡	-11.2473
開國	-11.2473
者經典	-11.2473
不聽樂	-11.2473
一句	-11.2473
三公故	-11.2473
事長者	-11.2473
有隆殺	-11.2473
矣然且	-11.2473
親其下	-11.2473
風徳	-11.2473
無服之	-11.2474
曽子至是	-11.2474
為本於此	-11.2474
故禍亂不作	-11.2474
之必然	-11.2474
嚴肅而	-11.2474
拜至	-11.2474
道以教民	-11.2475
子之始存於	-11.2476
易之序	-11.2476
所以敬天下之為人兄者也	-11.2476
徳修	-11.2476
憂憂	-11.2476
御政	-11.2476
於父母故	-11.2476
太史也	-11.2476
七日	-11.2476
焉曽子	-11.2476
書各	-11.2476
無得罪於	-11.2476
序孝經	-11.2476
如之何	-11.2476
資于	-11.2476
孝以事親	-11.2477
在昔	-11.2478
等也然則	-11.2478
人有言曰	-11.2478
人之所惡也	-11.2479
夫子奔逸	-11.2479
分注錯	-11.2479
無由而	-11.2479
於寢	-11.2479
不免於	-11.2479
説所以事	-11.2479
忠心	-11.2479
尤大	-11.2479
也詩曰無	-11.2479
二篇	-11.2479
及秦	-11.2479
此畧	-11.2479
而叙	-11.2479
見之故	-11.2479
親之死而	-11.248
風敎	-11.2481
復我	-11.2481
諸父所	-11.2481
不率教	-11.2481
爲溢	-11.2481
聖人制作禮	-11.2482
然則君子之於	-11.2482
耳詩云	-11.2482
美名	-11.2482
古之教	-11.2482
遂亡	-11.2482
也故先王	-11.2482
其養之	-11.2482
物也注	-11.2482
著心	-11.2482
非一日	-11.2482
子所謂	-11.2482
辭不	-11.2483
始於事親終於	-11.2483
則不免於	-11.2484
教以愛敬	-11.2484
有序而	-11.2484
亦猶是矣	-11.2484
之道備	-11.2484
以止之	-11.2484
愛厚	-11.2484
既備	-11.2484
無以哀死而	-11.2485
争競	-11.2485
老氏	-11.2485
邢疏而	-11.2485
樂也者	-11.2485
必須	-11.2486
六服	-11.2486
古文今文	-11.2486
師傳	-11.2486
皆以教	-11.2486
經術	-11.2486
葢諸侯之孝	-11.2487
生平則無悖逆之	-11.2487
與門	-11.2487
異慮	-11.2488
者也常立於	-11.2488
則災害不生	-11.2488
守祭祀庶人	-11.2488
各從其	-11.2488
没世	-11.2488
習與	-11.2489
也大傳曰	-11.2489
順辭	-11.2489
必察	-11.2489
既設	-11.2489
平生	-11.2489
徳行立	-11.2489
正義曰此依鄭注也言	-11.2489
盡於此	-11.2489
而後謂之	-11.2489
人之本性	-11.249
周宣王	-11.249
雅頌之	-11.249
以懲	-11.249
則如之何曰	-11.249
合而成	-11.249
稱孔子	-11.249
且有	-11.2491
中書	-11.2491
故每	-11.2491
故夫子以	-11.2491
之患弗得	-11.2491
讀孝經	-11.2492
其忠順而	-11.2492
理實	-11.2492
侮禮	-11.2492
尊母	-11.2492
皆躬	-11.2492
進士	-11.2492
父坤地也故稱	-11.2492
宗廟祭祀	-11.2493
民愛之	-11.2493
焉若是	-11.2493
以接下	-11.2493
愛己	-11.2493
惟不知	-11.2493
其身大	-11.2493
事一人	-11.2494
設法	-11.2494
夫婦有義	-11.2494
今案	-11.2494
愛敬者禮樂之	-11.2494
在隋	-11.2495
教敬教	-11.2495
似忠	-11.2495
也若用	-11.2495
可不重	-11.2495
三息	-11.2495
▁弟大計反下	-11.2496
同等	-11.2496
為人上	-11.2497
服美	-11.2497
育之恩	-11.2497
而敢非之是無	-11.2497
皆引	-11.2497
賜爵皆	-11.2497
諸侯之孝治	-11.2498
如日月之	-11.2498
孔明	-11.2498
徳義以	-11.2498
信者也	-11.2498
與左傳	-11.2498
則從而	-11.2498
故為人子	-11.2498
著作	-11.2498
以勉人	-11.2498
章名	-11.2498
有諌	-11.2499
云𤣥又	-11.2499
不為文	-11.25
非毁	-11.25
日聞	-11.25
後漢馬融	-11.25
而言之則爲	-11.25
象尼丘山	-11.25
也賔	-11.25
反於本	-11.25
行莫大于孝	-11.25
據隋	-11.2501
也旣而	-11.2501
魏志	-11.2501
古人之意	-11.2501
未達	-11.2501
多一章	-11.2501
為徳本	-11.2501
今特	-11.2501
王者必	-11.2501
卒事	-11.2501
經籍	-11.2502
而愛先	-11.2502
詩書禮樂之	-11.2502
下文云	-11.2503
者果	-11.2503
是因其	-11.2503
以所能	-11.2503
去惡	-11.2503
必告於	-11.2503
世矣	-11.2504
道也首以	-11.2504
盈溢	-11.2504
斯之為	-11.2504
所固有	-11.2504
常情	-11.2504
魯人之	-11.2504
曰譽	-11.2504
未施	-11.2504
以教愛	-11.2505
乃備	-11.2505
義同	-11.2506
宫中	-11.2506
星辰之	-11.2506
饋奠之事	-11.2506
疑後	-11.2506
得周於	-11.2507
皆稱之	-11.2507
試之	-11.2507
必有婉容	-11.2507
廢孔	-11.2507
知所立	-11.2507
在朝言	-11.2507
而後得於	-11.2507
及郊	-11.2508
歸已	-11.2508
然此則	-11.2508
章陳愛敬	-11.2508
昏禮	-11.2508
及遠	-11.2508
者逮下	-11.251
不説人	-11.251
則不得曰	-11.251
聖人亦	-11.251
求葢	-11.251
下則當恭	-11.2511
僕也	-11.2511
尚父	-11.2511
惟其為	-11.2511
於倫	-11.2511
視天下	-11.2511
饗禮	-11.2511
安國所傳者	-11.2511
成物	-11.2511
禘黄帝而郊	-11.2512
上謂君也	-11.2512
自天子至於	-11.2512
為教也	-11.2513
言合祀	-11.2513
於舅姑	-11.2513
經者常	-11.2514
制五服各有等差言	-11.2514
慈民	-11.2514
將命	-11.2514
盡為子之	-11.2514
賤事	-11.2514
躬是	-11.2514
效法	-11.2514
世無	-11.2515
所以為治	-11.2515
由本	-11.2515
周豐	-11.2516
者男子之	-11.2516
不可不審也	-11.2516
刋行	-11.2516
何有不	-11.2517
七十者	-11.2517
而化	-11.2517
服者身之表也先王	-11.2517
又假	-11.2517
互有	-11.2517
閉之	-11.2517
無不順	-11.2517
長宜	-11.2517
接續	-11.2518
族人	-11.2518
先兄	-11.2519
睦友	-11.2519
雖皆謂之	-11.2519
修春秋	-11.252
凡人事	-11.252
是不知有	-11.252
其羙	-11.252
卿大夫從	-11.252
不可假	-11.252
師長	-11.252
誠在	-11.252
馬與	-11.252
日不食	-11.2522
之大者也故	-11.2522
有和氣	-11.2522
要一	-11.2522
而無遺矣	-11.2522
羽毛	-11.2522
言是何言與	-11.2522
因性立教	-11.2523
今詳	-11.2523
乃引	-11.2523
始末	-11.2523
先生以	-11.2523
行孝也言	-11.2523
以曾參	-11.2523
列反	-11.2524
於甘	-11.2525
成粢盛	-11.2525
報反	-11.2525
諸侯必有	-11.2526
求仁	-11.2526
以不孝為	-11.2526
非夫	-11.2526
皆自	-11.2526
其職事	-11.2526
甚於	-11.2526
以養諸侯兵不用而諸侯自為正之具也	-11.2526
具焉	-11.2526
壹是	-11.2526
何止	-11.2527
其子皆	-11.2527
而至矣	-11.2527
稱先王	-11.2527
稱師	-11.2527
子弟之天	-11.2527
聲也	-11.2527
也以至尊	-11.2528
孝治天下	-11.2528
序若之何而能使民不遺其親	-11.2528
謂尊嚴	-11.2528
子相親	-11.2528
其中矣	-11.2528
祭義曰	-11.2529
可得	-11.2529
天之道謂	-11.2529
爲先揚名爲後	-11.253
可以諫	-11.253
誦詩	-11.253
至痛	-11.253
諸國	-11.253
皆悦	-11.253
聞音	-11.253
天子諸侯卿大夫士	-11.2531
奉上	-11.2532
先公之	-11.2532
為非也	-11.2533
及羣	-11.2533
於其親也	-11.2533
得古文	-11.2533
而不逆	-11.2533
親之愛	-11.2534
相合	-11.2534
之始事也	-11.2534
也曰是	-11.2534
所望	-11.2534
順利物	-11.2534
墨罰	-11.2534
仁人孝子之志也	-11.2534
道不行	-11.2535
不立則	-11.2535
不可以居	-11.2535
事君者	-11.2536
始封	-11.2536
調其	-11.2536
先取其	-11.2536
並用	-11.2536
與周公	-11.2536
怠者	-11.2538
之尚明	-11.2538
君任	-11.2538
色不滿容行不正	-11.2538
不說其言	-11.2538
通稱也	-11.2538
切實	-11.2538
而殽	-11.2538
得其志	-11.2539
周先	-11.2539
以生者	-11.2539
后稷至	-11.2539
壇為	-11.2539
以感動	-11.2539
畏義	-11.254
無敢有	-11.254
殷事則歸	-11.2541
序稱	-11.2541
將欲	-11.2541
于非道	-11.2541
矣治家者	-11.2541
至矣故	-11.2541
類凡	-11.2541
教也記曰	-11.2542
周書曰	-11.2542
無凶	-11.2542
至於奉	-11.2542
得其反	-11.2542
士視	-11.2542
不樂音洛	-11.2542
復得	-11.2542
使過	-11.2543
之因有	-11.2543
勝敬	-11.2544
美意	-11.2544
然後乃言	-11.2544
而後己	-11.2544
經傳正	-11.2544
未之聞	-11.2544
謂己	-11.2545
不敢惡于人	-11.2545
在公宫之	-11.2546
異用	-11.2546
則不爭	-11.2546
節以為	-11.2546
有方	-11.2546
秋大享	-11.2547
者矣詩曰	-11.2547
詩云赫赫師尹民具爾瞻此	-11.2547
己見	-11.2547
日者父也	-11.2547
家國天下	-11.2548
徹不	-11.2549
使賢者俯	-11.2549
從化	-11.255
無形	-11.255
傅㑹	-11.255
夫子陳說	-11.2551
或使之	-11.2551
所以廣	-11.2552
自執	-11.2552
法服而	-11.2552
總名	-11.2552
曰何以	-11.2552
於面	-11.2552
若䘮	-11.2552
則大	-11.2552
者不可為	-11.2552
賢何	-11.2553
有甚於	-11.2553
所以奉	-11.2553
於日三分	-11.2554
不敢踰	-11.2554
文言人	-11.2554
能守其	-11.2555
刪改者	-11.2555
爵祿	-11.2556
在卿大夫之	-11.2556
制作	-11.2557
與尚書	-11.2557
興利	-11.2557
退燕	-11.2557
明報	-11.2557
仁人孝子所	-11.2558
士乎	-11.2558
善養	-11.2558
本於自	-11.2558
能以禮	-11.2558
庶人孝無終始而患不及者未之有也	-11.2558
以終身	-11.2558
日常	-11.2558
觀焉	-11.2558
以清	-11.2558
言明王以孝	-11.2559
也夫愛	-11.2559
人親其	-11.256
則怠	-11.256
是猶有	-11.256
禰廟者	-11.256
宰夫	-11.2561
為廬	-11.2561
行之然後	-11.2561
何食	-11.2561
論道	-11.2561
斯能	-11.2561
此章與	-11.2561
藉之	-11.2561
起立	-11.2561
其服	-11.2562
勤民	-11.2563
在衆	-11.2563
云至徳要道	-11.2563
執喪則	-11.2564
必簡	-11.2564
亦嘗	-11.2565
亦猶有	-11.2565
以往	-11.2565
此兩	-11.2565
竝無	-11.2565
母曰	-11.2565
不可以不知	-11.2566
與刑	-11.2566
不知所	-11.2566
而致力	-11.2566
守已	-11.2566
既和	-11.2566
進徳	-11.2566
祀非禮與曰	-11.2566
郊與明	-11.2567
失其位	-11.2567
無其字	-11.2567
不諫而	-11.2567
主以象	-11.2567
為凶	-11.2568
引及	-11.2568
微矣	-11.2568
父母舅姑之	-11.2568
不侮	-11.2568
子之孝	-11.2568
於是乎有	-11.2568
其不復	-11.2568
小如	-11.2568
也然則明堂之	-11.2569
合樂	-11.2569
之弊	-11.2569
配享上	-11.2569
正義曰前章	-11.257
發非	-11.257
事其父母矣	-11.2571
而答之	-11.2571
當戒	-11.2571
有加焉	-11.2571
養者也	-11.2572
是故天	-11.2572
以來皆有	-11.2572
孝徳之本	-11.2572
勿慮	-11.2572
人生有	-11.2573
之禁	-11.2573
上辛	-11.2573
臣良	-11.2574
易易	-11.2574
周公曰	-11.2574
身為之	-11.2574
保其祿位而	-11.2574
也然且君子	-11.2574
行孝弟臣	-11.2575
詬厲之	-11.2575
是孔安國作傳	-11.2575
慎者不	-11.2575
敬心	-11.2576
弗敬	-11.2577
臣之道也	-11.2577
世家	-11.2577
百姓皆	-11.2577
而僭	-11.2577
之於父也	-11.2578
參先王有至德要道	-11.2579
也夫子言昔者明	-11.2579
名棄	-11.2579
所刪者	-11.2579
閲之	-11.258
堂上	-11.258
不裁	-11.258
擇謂	-11.258
能孝能	-11.258
使各	-11.258
愛惡	-11.258
可見孝	-11.2581
風雨時	-11.2581
爲之注	-11.2581
隂義也	-11.2581
以下至於	-11.2582
禮則凡	-11.2582
也微諫	-11.2582
可見矣	-11.2583
以防	-11.2583
何足以知之	-11.2583
自是而後	-11.2583
於不義	-11.2583
已變	-11.2583
孝子之言	-11.2583
春秋乎	-11.2583
遺謂	-11.2584
其根	-11.2584
制者也	-11.2584
之深也	-11.2584
中古	-11.2584
繇禮謂之	-11.2585
祭皆以	-11.2585
東行	-11.2585
則舎	-11.2585
雖逺	-11.2585
主於愛愛莫大	-11.2586
之治也	-11.2586
合而觀之其	-11.2586
心本然自有之徳性	-11.2586
自致者	-11.2586
存于	-11.2586
不杖	-11.2587
則仍	-11.2587
害於	-11.2587
智則	-11.2587
而猶未	-11.2587
孔鄭二家	-11.2588
甲子	-11.2588
其邦	-11.2588
言其不敢	-11.2588
多士	-11.2588
䂓諫	-11.2588
參不敏	-11.2589
則無終始	-11.2589
袒而	-11.259
水行	-11.259
訓注	-11.259
而寡	-11.259
常自	-11.2591
學慮者	-11.2592
徳性而	-11.2592
曰伯	-11.2593
至此章	-11.2593
善事則	-11.2593
有是書	-11.2593
夫子之教	-11.2593
相應	-11.2594
五世而	-11.2594
曰將君我而與我齒讓何也曰有	-11.2594
故易曰	-11.2595
司馬光曰將	-11.2595
父配天之禮	-11.2595
對反	-11.2595
兵而	-11.2595
德教	-11.2596
將見	-11.2596
四世	-11.2596
不建	-11.2596
著一	-11.2596
故士	-11.2596
資始	-11.2596
患失其祿位	-11.2597
而無可	-11.2597
一節	-11.2597
孔安國孝經	-11.2597
也葢上	-11.2598
兄弟有	-11.2598
古文增	-11.2598
事康	-11.2598
細猶	-11.2599
及其身	-11.2599
遂使	-11.2599
皆知有	-11.2599
雖稍	-11.2601
以帥	-11.2601
流如	-11.2601
或作	-11.2601
則號泣而	-11.2601
命令	-11.2602
案史記	-11.2602
爲社	-11.2602
女子	-11.2602
百事	-11.2603
不得與	-11.2603
上有好	-11.2603
所以為忠	-11.2604
若子之	-11.2604
者上文	-11.2604
忘身	-11.2604
異信	-11.2604
立社稷	-11.2605
德之則	-11.2605
為一章者	-11.2605
不飲	-11.2606
徳之行	-11.2606
上弗	-11.2606
見惡	-11.2606
非莫	-11.2606
則口無	-11.2606
相従	-11.2606
天地之序也	-11.2607
而况於	-11.2607
趨利	-11.2607
之本然	-11.2608
也惟是	-11.2608
豈樂	-11.2608
名分	-11.2608
為不孝也	-11.2608
士為之	-11.2608
事鬼神	-11.2609
以法則	-11.2609
皆順	-11.2609
什一	-11.2609
和應	-11.2609
者見	-11.261
射者以	-11.261
母存	-11.2611
令行	-11.2611
人臣而	-11.2611
貴服	-11.2611
之高行也	-11.2611
用殷禮	-11.2612
士初	-11.2613
由于	-11.2614
夕忘	-11.2614
於殷	-11.2615
於天子章	-11.2615
禁亂	-11.2615
就下	-11.2615
奉天子	-11.2615
字乃	-11.2615
注明堂	-11.2615
言先王行	-11.2616
語或	-11.2616
逺罪	-11.2617
而詞	-11.2617
知孝	-11.2617
也四坎壇	-11.2618
不行愛敬	-11.2618
公家	-11.2618
是私	-11.2618
刪改之	-11.2618
教未	-11.2618
為溢	-11.2618
藏於	-11.2618
始相見	-11.2618
傷人	-11.2618
天下衆人	-11.2619
之王者皆	-11.262
稱情	-11.262
以贊	-11.2621
夫豈其	-11.2621
也注上	-11.2621
而祀之	-11.2621
昭坎	-11.2621
事實	-11.2622
何時	-11.2622
天意	-11.2622
其刑墨	-11.2622
根也	-11.2622
斯言之	-11.2622
恵必	-11.2623
具矣	-11.2623
哀戚也	-11.2623
其諸侯大夫	-11.2624
也故以名章	-11.2624
刑政之	-11.2624
父之尊	-11.2624
生而有	-11.2625
重其	-11.2625
也因	-11.2625
獨聞	-11.2625
立三	-11.2625
卿三	-11.2626
應云	-11.2626
成於君	-11.2626
之風	-11.2626
三節	-11.2626
之當先	-11.2626
常在	-11.2627
之詳矣	-11.2627
在焉	-11.2627
貴質而	-11.2628
却不相應疑亦裂取他書之成文而强加	-11.2628
與衆	-11.2628
則嚴威	-11.2628
以愛人	-11.2628
言郊祀者	-11.2628
取事父之道以	-11.2628
聖人非能徧	-11.2629
盡其養	-11.2629
凡若此	-11.2629
也余	-11.2629
賢臣	-11.2629
陳貴賤	-11.263
祧其	-11.2631
樹之	-11.2631
下引	-11.2631
者父子之道	-11.2631
古經	-11.2631
貴徳	-11.2631
賤無	-11.2631
三老所獻	-11.2631
言愛父與母同敬父與君同	-11.2631
行孝無	-11.2632
無損	-11.2632
世而名不	-11.2633
鄭𤣥以	-11.2633
有所託	-11.2633
諸侯之喪祭	-11.2634
在其上如在其左右	-11.2634
五傳者	-11.2634
患矣	-11.2634
雖欲	-11.2634
父執	-11.2635
曰寡	-11.2635
之祖父	-11.2636
忠順之	-11.2636
於朋友者	-11.2636
且不侮	-11.2636
愈疏	-11.2636
傳之八章	-11.2637
之而後退	-11.2637
不明則	-11.2637
其義章	-11.2637
而後德	-11.2637
皆連	-11.2637
竟大夫	-11.2637
封於	-11.2639
可保	-11.2639
獨能	-11.2639
不厭	-11.2639
安能	-11.2639
宜也	-11.264
猶此志也	-11.264
者莫若	-11.264
畢於	-11.264
是妄	-11.264
之祭也與	-11.264
句結	-11.2641
當如	-11.2641
配天故	-11.2642
大意	-11.2643
一定	-11.2643
文王之詩也	-11.2643
措諸事	-11.2643
不知己	-11.2644
之良心	-11.2644
還坐而	-11.2645
不然者	-11.2645
母取其愛	-11.2646
俱在	-11.2646
隆禮	-11.2646
之心焉	-11.2647
雖不能	-11.2647
而成者	-11.2647
注風俗	-11.2648
缺於	-11.2648
於彼	-11.2648
於孟子	-11.2649
風化	-11.2649
者必自	-11.2649
堂堂	-11.2649
質皆	-11.265
作二	-11.265
備此	-11.265
不紊	-11.265
之孤	-11.265
自處于	-11.265
與今文異者	-11.2651
皆在焉	-11.2651
其君在	-11.2651
也子夏曰	-11.2652
本行	-11.2652
注將行	-11.2652
因重	-11.2653
孔子生	-11.2653
也經典	-11.2653
受爵	-11.2654
不答拜	-11.2655
也五者不	-11.2656
有其實	-11.2656
始立身	-11.2656
至元	-11.2656
古昔	-11.2657
疏數	-11.2657
從命	-11.2657
大夫以循法	-11.2657
其言足	-11.2658
終篇	-11.2658
有田	-11.2659
行其所	-11.2659
經然則	-11.266
各以其所	-11.266
身亡	-11.266
始皇	-11.266
之徳行不敢行惟恐行輕而招辱也以此	-11.266
在諸侯之	-11.2661
聖人之德	-11.2661
是也云則	-11.2661
者也曽子	-11.2661
子也慶善也十	-11.2661
其教不肅而成其政不嚴而治	-11.2661
明儒	-11.2662
親者必能	-11.2662
其所愛	-11.2662
謂天子諸侯	-11.2662
爲諸	-11.2663
則九族	-11.2663
謂上	-11.2663
不學禮	-11.2663
公侯之	-11.2663
要因	-11.2664
五備	-11.2665
五叚	-11.2665
三日以	-11.2665
仁以	-11.2665
子曰孝子之事親居則致其敬	-11.2666
自立	-11.2666
胡爌	-11.2667
為孝乎	-11.2667
為稷	-11.2668
道天性之常加以尊嚴又有君	-11.2668
警戒之	-11.2669
人宋	-11.2669
專以	-11.2669
道也周公	-11.2669
三句	-11.2669
已質則	-11.2669
三日而食者	-11.267
矣詩云	-11.267
必資	-11.2671
案此	-11.2671
際也	-11.2672
起敬	-11.2673
有敬心	-11.2673
之法度	-11.2674
旣是	-11.2675
而後徳	-11.2675
若不可	-11.2675
又去	-11.2675
無所不通也	-11.2675
註經者	-11.2676
之可考	-11.2676
而遷	-11.2677
為法故	-11.2677
何為其	-11.2678
謂之逆	-11.2678
古文尚書而	-11.2678
民化	-11.2678
所用也	-11.2678
者乎何	-11.2679
天下樂之	-11.268
寒而	-11.2682
謂此也	-11.2682
至德要道	-11.2682
又曰自	-11.2683
百姓徒役也以	-11.2683
為國君	-11.2683
者不足以	-11.2683
傳命	-11.2685
不忘其親也	-11.2685
不仁則	-11.2685
難至	-11.2685
此又所以	-11.2685
情之不可	-11.2685
諸侯章	-11.2687
固執	-11.2688
鸞刀以	-11.2688
君在上	-11.2688
講孝經	-11.2688
四正	-11.2688
自為愛敬	-11.2688
天地神明之	-11.2688
移易之	-11.2689
則哭	-11.2689
請見	-11.269
不生非	-11.269
齒而	-11.269
因貞	-11.269
上進	-11.2691
畏聖人之	-11.2692
僞而	-11.2692
見於門人	-11.2693
曰孤	-11.2693
之非一	-11.2693
過者皆	-11.2697
道理	-11.2697
君德以	-11.2698
簡故	-11.2698
制也	-11.2698
非兩	-11.2698
未著而	-11.2698
民則民畏其	-11.2699
悌之	-11.2699
雖分	-11.2699
教之以孝	-11.27
面而	-11.2701
君實	-11.2701
望其	-11.2701
劉向以	-11.2702
臣哉	-11.2702
十五年	-11.2702
其祭	-11.2703
之禮皆	-11.2704
如欲	-11.2704
禮之至著者也	-11.2704
不逺身	-11.2705
忠之為	-11.2706
以威	-11.2706
無也	-11.2706
射者各	-11.2707
服公子	-11.2707
更無	-11.2707
豫順	-11.2708
近臣	-11.2709
以觧	-11.2709
近於犯	-11.2709
極諫	-11.2709
皆化而	-11.2709
我而皆	-11.271
君子有此	-11.271
差也	-11.271
難知	-11.271
煖之	-11.271
而棄	-11.271
同乎	-11.2711
見賢遍反	-11.2711
經之意	-11.2712
非強	-11.2712
案家語	-11.2712
至親者	-11.2712
者持	-11.2712
於其君	-11.2712
慎行	-11.2712
之而又	-11.2713
言宗廟致敬	-11.2713
自然是	-11.2713
知愛親	-11.2713
此心	-11.2714
姑仍	-11.2714
明白	-11.2715
天子所命	-11.2715
必於	-11.2715
為諸侯者	-11.2715
者可謂	-11.2716
孝子皆	-11.2716
明王也	-11.2717
之徒不	-11.2718
用命	-11.2718
其禄	-11.2718
廟中	-11.2718
孩幼	-11.2718
違之	-11.2718
從可知	-11.2719
之子孫保之故	-11.2719
其門	-11.2719
父雖不	-11.2719
母親	-11.272
之於末	-11.272
猶可	-11.272
無以國	-11.2721
所求	-11.2721
而臣不	-11.2722
不列	-11.2722
答之則	-11.2722
則知貴賤	-11.2722
諫争之	-11.2725
將行也	-11.2725
無所致其敬	-11.2725
是坐	-11.2726
衍義之	-11.2726
君有過失則思補	-11.2726
多非要	-11.2727
言人之不	-11.2728
猶母	-11.2728
職貢來助	-11.2728
大計反	-11.2729
定此	-11.2729
此承上言	-11.2729
莫之敢	-11.2731
則不得	-11.2731
盛世	-11.2731
祀也孟子曰	-11.2732
以友	-11.2732
徒口	-11.2733
必罰	-11.2733
乆也	-11.2734
皆不足	-11.2734
行而古文	-11.2734
凡服	-11.2734
國小	-11.2734
已多矣	-11.2734
夫孝以	-11.2735
孝經之行	-11.2735
周公輔	-11.2735
心敬而	-11.2735
或非之	-11.2736
稱公九	-11.2736
世一	-11.2736
者亦謂	-11.2737
以復經文之舊其傳文之失又别論之如	-11.2738
因親	-11.2738
之既葬	-11.2739
至死	-11.2739
之末也故	-11.2739
然欲	-11.2739
其行而	-11.2739
政也不假威嚴而自	-11.2739
道以孝	-11.274
知其所由成	-11.274
之妻為	-11.2741
大享	-11.2741
名卽	-11.2742
家雖	-11.2742
首謂	-11.2742
行莫大於孝也	-11.2742
生夏長秋斂冬閉	-11.2743
以父教	-11.2743
其幾	-11.2744
十八年	-11.2744
任王	-11.2744
及己	-11.2745
以加于孝乎	-11.2745
釋言云	-11.2745
事生	-11.2746
賔以象	-11.2747
陳其	-11.2747
過乎	-11.2748
以白	-11.2748
能也天地鬼神	-11.2749
法於地	-11.2749
孝者徳之本也	-11.275
乎彼	-11.2751
以奉	-11.2751
故卜	-11.2751
聖人猶	-11.2751
觀孝經	-11.2752
之始死也	-11.2752
者君子	-11.2753
宗伯	-11.2753
蓋謂	-11.2753
稱傳	-11.2753
厲之	-11.2753
親先意承志	-11.2754
音同	-11.2755
可以保守	-11.2755
多非	-11.2756
之㡬	-11.2757
傷生雖毁瘠而不	-11.2757
必欲	-11.2758
七人諸侯	-11.2759
坊記	-11.2759
無責	-11.2759
而名之	-11.276
末言	-11.2761
者獨	-11.2761
九反	-11.2761
不煩	-11.2761
親之去	-11.2762
妻以	-11.2762
以證	-11.2762
此而後世	-11.2762
稱也是	-11.2762
罪惡	-11.2762
而孝弟之	-11.2763
於射	-11.2763
其尊	-11.2763
上三徳於	-11.2763
三千之	-11.2764
所得而	-11.2765
此六者	-11.2765
也故文	-11.2766
禮樂而	-11.2766
故曰明	-11.2766
不幸而	-11.2767
物亦	-11.2767
子從父之令可謂孝乎	-11.2768
文相續當以今文為正至君臣之義之下	-11.2768
故君臣上下	-11.2768
作亂	-11.2769
有道不	-11.2769
理於家	-11.2769
慮以	-11.2769
所以教弟	-11.277
問禮	-11.2771
屬其	-11.2771
已下	-11.2771
章言卿大夫之孝	-11.2771
維則	-11.2771
愛其身	-11.2772
死之不	-11.2773
尤為	-11.2774
故言行	-11.2775
其仇	-11.2776
其死也	-11.2776
咸服	-11.2776
其所嗜	-11.2776
人為之也	-11.2776
以夫婦	-11.2776
卿大夫以	-11.2778
慎又	-11.2779
官爵	-11.278
何曰敬而已	-11.2781
官師	-11.2781
存亡之	-11.2781
三世	-11.2781
社稷民人	-11.2781
民瞻	-11.2782
上信	-11.2783
君子知	-11.2783
於未形	-11.2783
下同樂音洛	-11.2783
輔翼	-11.2783
孔氏壁中	-11.2784
麻為	-11.2784
敢慢于人	-11.2785
何也曰聖人	-11.2785
徒禮	-11.2785
於裳	-11.2785
難矣	-11.2785
於七廟	-11.2785
而推言	-11.2786
衣不	-11.2786
夫何	-11.2786
至美之	-11.2787
如二	-11.2788
則周	-11.2788
宫刑	-11.2788
者天地所	-11.2788
後世之	-11.2789
好善而	-11.2789
二語	-11.2789
孝矣乎	-11.279
致者	-11.2791
附於	-11.2791
無害	-11.2792
易從	-11.2792
禮易	-11.2793
五章也	-11.2793
無敵	-11.2793
公之	-11.2794
等謹案孝經集	-11.2794
則不争	-11.2795
著於外	-11.2796
以𤼵	-11.2796
及周	-11.2796
所刋	-11.2797
在身也	-11.2797
情親	-11.2797
為樂也	-11.2797
不敢犯	-11.2799
舉不	-11.2799
雖未嘗不愛	-11.2799
簡子賛之曰甚	-11.2799
本經	-11.2799
大學孝經	-11.28
存繼	-11.28
天地山川社稷先古	-11.28
而私	-11.28
安乎	-11.2801
士庶人	-11.2801
言事君	-11.2802
間有	-11.2802
廟也	-11.2802
所受者	-11.2803
之固有	-11.2804
萬國以	-11.2804
至隆	-11.2804
何多	-11.2805
始知	-11.2806
修詩	-11.2807
之首	-11.2807
呉所刪	-11.2807
圜丘也	-11.2808
孝行也	-11.2809
大義所	-11.2809
宣之	-11.2809
食禮	-11.2809
云某	-11.2809
非仁	-11.2809
然則魯	-11.2809
語之也	-11.2809
之詞	-11.2809
不得其懽心	-11.281
本事也	-11.281
發諸朝廷	-11.281
輙	-11.281
必本於	-11.2811
愛敬盡於事親而徳教加於百姓刑	-11.2811
至卑	-11.2811
一書也	-11.2811
為昭	-11.2812
旣得	-11.2812
戀其	-11.2813
則樂	-11.2813
為繼禰	-11.2813
而獻	-11.2814
道不得	-11.2815
者鮮不	-11.2815
而歎	-11.2815
是周公	-11.2816
與其所以則之因之之實然後	-11.2816
夫禮必本於	-11.2816
毁傷者矣	-11.2817
教民之道	-11.2817
虞帝之	-11.2817
天氣	-11.2817
五行皆	-11.2818
惜也	-11.2818
問焉	-11.2819
加於	-11.282
不復	-11.282
上下一	-11.2821
侯以	-11.2821
各尊其	-11.2821
逆之	-11.2821
在官	-11.2821
爵視	-11.2822
世臣	-11.2823
不備物	-11.2823
爲終也	-11.2823
獨無	-11.2824
入廟	-11.2824
者貌	-11.2825
君薨	-11.2826
以給	-11.2826
以成君	-11.2826
皆合	-11.2826
在天地	-11.2827
言一行	-11.2827
風隨	-11.2828
五者一	-11.2828
父之名	-11.2829
近名	-11.283
業擅專門猶將十室希升堂者必自開	-11.283
牖攀逸駕者必騁殊軌轍	-11.283
入朝	-11.2831
然而記	-11.2831
彰也	-11.2831
大善	-11.2831
得雖	-11.2831
大夫不	-11.2832
不自知也	-11.2832
理之人	-11.2834
論語其	-11.2834
書疏	-11.2834
云夫子	-11.2834
何人	-11.2835
察也	-11.2835
卜其	-11.2836
天下之理得	-11.2836
舉重	-11.2837
非德	-11.2837
孤子	-11.2839
本大學	-11.2841
事父兄之	-11.2842
也踊	-11.2842
近人	-11.2843
為臣者	-11.2843
其高	-11.2843
者職	-11.2843
以糾	-11.2845
有根	-11.2845
孟子曰吾	-11.2845
徳之本也	-11.2845
五方	-11.2846
有主行	-11.2846
養國老於東	-11.2846
哲人	-11.2847
悦神	-11.2847
而民從	-11.2847
至于亡	-11.2848
尸所	-11.2848
於人非	-11.2848
敬愛者	-11.2848
此孝行	-11.2848
曰衆	-11.2848
是立身	-11.2849
謂天下之	-11.2849
而順之	-11.285
得正誼	-11.285
與國人	-11.285
至貴也	-11.285
雨也	-11.2851
孔子與	-11.2851
問答之	-11.2852
所以辨	-11.2852
唐明皇時	-11.2852
故孝子之	-11.2853
禮繇	-11.2853
有禱	-11.2853
臣父	-11.2854
謂施	-11.2854
分焉	-11.2855
者其行	-11.2856
之心也然	-11.2856
終欲	-11.2856
辛也	-11.2856
注就養能致其懽	-11.2856
者天下之大	-11.2857
子愛	-11.2858
詩大	-11.2859
案祭義云	-11.2859
謂之臣	-11.2859
自愛敬	-11.286
也者此依孔傳也	-11.286
士諸侯	-11.286
為首	-11.2861
請死	-11.2862
而讀之	-11.2863
以端	-11.2863
友陳	-11.2863
注遂	-11.2863
明以爲常因地利以行義	-11.2864
治同	-11.2864
浴於	-11.2864
于孝經	-11.2864
割其	-11.2865
順此以施政敎則不待嚴肅而成理也	-11.2865
足而	-11.2866
士民則	-11.2866
為間	-11.2866
教先	-11.2866
易曰不	-11.2866
昭穆則	-11.2867
▁同	-11.2868
稱諸侯七	-11.2868
聖人之言	-11.2869
而後成	-11.2869
宗祀文王於明堂以配	-11.287
忘本也	-11.287
二文	-11.2872
止於孝	-11.2872
于是而	-11.2873
不能保	-11.2873
故當不義則	-11.2874
爱敬	-11.2874
主人拜	-11.2875
以爵	-11.2875
也故天子	-11.2876
乎外	-11.2876
揚君之	-11.2876
恐有	-11.2876
土者	-11.2877
乎葢	-11.2877
謂内	-11.2877
其生存	-11.2878
不亡	-11.2878
君也諫於	-11.2878
為口	-11.2879
下皆同	-11.2879
而忠順	-11.2879
國士	-11.2881
必忠	-11.2882
止有	-11.2882
禮所	-11.2882
之至極	-11.2883
謹其法	-11.2883
據此而言	-11.2883
戒以	-11.2884
反其所	-11.2885
之大經也	-11.2885
順逆	-11.2885
而忘其	-11.2885
孝教	-11.2887
也惡人	-11.2887
它	-11.2888
其君一	-11.2888
行仁	-11.2888
志焉	-11.2889
亂常	-11.2889
貴賤之	-11.289
失位	-11.2891
人之父則凡	-11.2891
物謂	-11.2891
曽子曰孝子	-11.2891
移理以	-11.2892
為人所	-11.2893
者此依孔傳也案	-11.2893
處所	-11.2894
有所不受於	-11.2894
不復言	-11.2895
已成	-11.2895
得天	-11.2896
乎先	-11.2896
資者	-11.2899
事宜	-11.2899
心法	-11.2899
敬恭	-11.29
天地之情也	-11.2901
諸侯之祭	-11.2901
親喪	-11.2903
相從	-11.2903
未然止	-11.2903
心之全	-11.2903
盡孝	-11.2903
須謙	-11.2904
不勝其	-11.2904
過於此	-11.2904
禮記表記	-11.2906
葢未	-11.2906
害不	-11.2906
則為父	-11.2906
乎人情	-11.2906
事父孝	-11.2907
注相承	-11.2909
不對	-11.2909
不報	-11.2911
則非忠孝	-11.2912
善事君	-11.2912
塞乎天	-11.2913
者善	-11.2914
𦵏之以禮祭	-11.2916
于仁	-11.2916
者也故云	-11.2917
十二著	-11.2917
再三	-11.2917
方赤	-11.2918
主張此	-11.2918
通無	-11.2919
動如	-11.2919
成王者	-11.292
謂之質	-11.292
上庠	-11.2921
明之道	-11.2921
為賔	-11.2921
善事父母	-11.2922
下逹則	-11.2922
合徳	-11.2923
敬君同	-11.2926
之後則	-11.2926
也劉炫	-11.2926
在於孝	-11.2926
則寡	-11.2926
也注言	-11.2926
為能饗	-11.2927
曰酒	-11.2927
上之義而	-11.2928
災害不生	-11.2928
友則	-11.2929
不與祭	-11.2929
有所未盡也	-11.2929
於是有	-11.2929
其氣	-11.293
哉是	-11.293
至弟	-11.293
齒也	-11.293
終始則忠亦	-11.293
為我	-11.2931
歌之	-11.2932
極言	-11.2933
孝經之傳	-11.2934
如此乎	-11.2935
不特	-11.2935
行之於身	-11.2935
之所繇	-11.2935
立身之道	-11.2935
魯人	-11.2938
庻人而	-11.2939
賔升	-11.2939
其來	-11.2939
凡非	-11.2939
止言	-11.294
席間	-11.294
愛恭	-11.294
而亂	-11.2941
于徳禮也	-11.2942
父命	-11.2942
輯之	-11.2942
席而	-11.2944
當於	-11.2945
也墨	-11.2945
從愛	-11.2945
襄者	-11.2945
其實皆	-11.2946
盡人	-11.2947
事也而	-11.2947
大雅曰	-11.2948
博愛者	-11.2948
者則能	-11.2948
謂孝經	-11.2949
喜而	-11.2949
齊人	-11.2949
辨其	-11.2949
不闕	-11.2949
允矣	-11.295
臣忠	-11.295
門外之	-11.295
絶之	-11.295
百世不遷者也	-11.2952
望之	-11.2953
子始	-11.2953
雖滿	-11.2954
互文	-11.2954
言先代聖明之	-11.2956
順人心	-11.2956
之職事	-11.2956
不祧	-11.2957
舉足	-11.2957
枉其	-11.2957
未必	-11.2957
於家則行	-11.2958
可行也	-11.2958
▁古文	-11.2958
上則必	-11.2958
之誼焉	-11.2958
莫不欲	-11.2958
故親生	-11.2959
謂言不	-11.296
則杖	-11.296
有其義	-11.2961
者孔傳	-11.2961
能事	-11.2962
則法也	-11.2962
奉養之時	-11.2962
之道取於事父之	-11.2963
傷其本	-11.2963
不待戒肅而自成其	-11.2963
疎賤者尚	-11.2963
完備也	-11.2965
是士	-11.2965
孝子之祭	-11.2965
惟天子受命於天	-11.2965
小祀	-11.2966
法舉	-11.2966
無復	-11.2966
誠也	-11.2967
地氣	-11.2967
者禮樂	-11.297
父母生之君親臨之	-11.2971
古文之偽	-11.2971
重社稷	-11.2972
於德禮	-11.2973
報誥之	-11.2973
為下必	-11.2973
子𤣥	-11.2973
畝冕而	-11.2974
之所從出也	-11.2974
雖同	-11.2974
帝于郊	-11.2976
棺也	-11.2976
則是可言	-11.2976
當争	-11.2977
正也夫	-11.2977
之兆	-11.2977
其推	-11.2977
而報	-11.2978
其孝道	-11.2979
豈有不	-11.298
乃發	-11.2982
而以愛	-11.2982
而有能	-11.2984
爲中	-11.2984
而八享	-11.2985
自多	-11.2985
士出	-11.2985
古文失	-11.2986
之俾君之	-11.2986
謂之良	-11.2987
難故	-11.2987
不聽而	-11.2988
下今文各有也	-11.2988
以辨	-11.2988
[...]
