<unk>	0
<s>	0
</s>	0
之	-4.06903
以	-4.58726
為	-4.82395
也	-4.93979
而	-5.09036
者	-5.28941
曰	-5.29245
其	-5.46644
於	-5.47828
有	-5.49561
不	-5.51836
(	-5.64943
/)	-5.67123
與	-5.69784
人	-5.78292
自	-5.79678
皆	-5.8067
使	-5.83388
上	-5.83635
及	-5.85273
則	-5.99784
言	-6.00821
王	-6.02736
至	-6.08527
無	-6.12109
今	-6.12475
謂	-6.1459
欲	-6.15931
事	-6.16541
乃	-6.17718
故	-6.23581
所	-6.23703
大	-6.26761
等	-6.31807
臣	-6.3271
令	-6.32767
出	-6.34368
此	-6.34397
時	-6.35097
得	-6.35373
又	-6.38179
一	-6.38864
復	-6.39193
在	-6.40276
▁	-6.4207
矣	-6.43556
行	-6.44163
當	-6.45686
亦	-6.46606
下	-6.4667
見	-6.49524
非	-6.49612
將	-6.52064
多	-6.52384
公	-6.56411
如	-6.5732
若	-6.59981
請	-6.60021
中	-6.61094
乎	-6.62007
命	-6.63003
師古曰	-6.63578
耳	-6.64139
已	-6.65441
必	-6.66032
可	-6.66109
入	-6.68956
知	-6.6921
用	-6.69259
因	-6.69792
兵	-6.70172
雖	-6.70257
遂	-6.70715
相	-6.70888
從	-6.76363
立	-6.77069
注云	-6.77969
子	-6.79042
宜	-6.79243
陛下	-6.79679
天下	-6.80422
或	-6.81291
三	-6.82301
聞	-6.82659
何	-6.83565
以為	-6.8401
死	-6.8468
官	-6.86184
然	-6.87061
道	-6.87335
常	-6.87544
初	-6.87586
奏	-6.88799
後	-6.89056
遣	-6.90378
國	-6.90501
吾	-6.91984
數	-6.94057
既	-6.94641
問	-6.95209
我	-6.95941
帝	-6.96693
反	-6.96751
生	-6.98753
二	-6.99331
且	-7.01395
安	-7.01917
猶	-7.02012
居	-7.02305
作	-7.02812
方	-7.03599
前	-7.03812
詔	-7.04525
即	-7.04948
取	-7.05678
平	-7.05943
是	-7.06067
未	-7.06193
馬	-7.06472
民	-7.07041
書	-7.07569
先	-7.07735
李	-7.08056
軍	-7.08174
君	-7.0854
門	-7.08927
漢	-7.09035
能	-7.09666
殺	-7.09728
求	-7.11345
日	-7.11766
歸	-7.11888
不可	-7.12373
不能	-7.12767
州	-7.12792
太子	-7.13001
始	-7.13243
法	-7.14076
置	-7.14237
城	-7.14398
張	-7.14793
朕	-7.14895
成	-7.15055
唐	-7.158
重	-7.16186
邪	-7.16551
天	-7.17661
陳	-7.17745
髙	-7.17925
稱	-7.18306
太后	-7.18415
正	-7.18441
衆	-7.18723
去	-7.18988
還	-7.19331
地	-7.19683
家	-7.19776
召	-7.2061
長	-7.20675
意	-7.20955
服	-7.22388
主	-7.22503
名	-7.22586
云	-7.22762
明	-7.23272
同	-7.2398
卿	-7.25225
朝廷	-7.25582
舉	-7.26811
獨	-7.2741
于	-7.27611
禮	-7.27989
外	-7.28203
四	-7.28393
心	-7.29228
分	-7.29387
盡	-7.29529
武帝	-7.29782
來	-7.31127
起	-7.31286
受	-7.31547
文	-7.31576
由是	-7.32213
引	-7.32609
守	-7.33123
發	-7.33218
小	-7.33456
周	-7.34047
更	-7.34054
魏	-7.34175
卒	-7.34291
嘗	-7.34666
徳	-7.34737
天子	-7.35328
親	-7.35689
實	-7.35918
本	-7.36959
善	-7.37035
秦	-7.37099
賜	-7.37135
議	-7.37237
失	-7.37349
進	-7.37399
好	-7.3778
食	-7.37929
内	-7.37989
五	-7.38603
諸	-7.38706
恐	-7.40279
信	-7.40288
過	-7.41337
齊	-7.42631
通	-7.42786
於是	-7.43066
加	-7.43225
太宗	-7.43241
封	-7.43367
朝	-7.43892
吏	-7.4393
坐	-7.44414
左右	-7.44499
但	-7.44557
深	-7.44956
興	-7.44966
少	-7.45121
水	-7.45366
元	-7.46053
士	-7.46484
賊	-7.48325
論	-7.49554
制	-7.50091
宰相	-7.5019
東	-7.51248
逺	-7.51299
明皇	-7.5144
晉	-7.52065
計	-7.52216
劉	-7.52324
身	-7.5235
直	-7.52469
拜	-7.5347
奉	-7.53514
降	-7.5421
南	-7.54229
將軍	-7.54501
錢	-7.55256
尚	-7.5529
度	-7.55623
汝	-7.56488
焉	-7.57046
易	-7.57672
留	-7.58073
罪	-7.58207
每	-7.58664
各	-7.58674
世	-7.58935
謀	-7.58991
諫	-7.59654
賢	-7.59712
羣臣	-7.6052
不得	-7.60537
爲	-7.61085
難	-7.61111
北	-7.61292
思	-7.61594
權	-7.6191
共	-7.62268
白	-7.62408
對曰	-7.62796
傳	-7.63153
西	-7.63468
音	-7.63574
山	-7.64125
彼	-7.64189
亂	-7.64197
私	-7.64432
豈	-7.64436
惟	-7.64588
髙祖	-7.64804
處	-7.65662
樂	-7.67086
石	-7.67226
光	-7.67482
望	-7.67535
夫	-7.67536
治	-7.67601
文帝	-7.68422
陽	-7.68699
定	-7.68861
應	-7.68963
六	-7.68986
物	-7.69035
告	-7.69238
收	-7.69257
武	-7.69487
亡	-7.6965
對	-7.69809
哉	-7.70007
甚	-7.70309
悉	-7.70331
勸	-7.71587
車	-7.71662
百姓	-7.71898
義	-7.72719
並	-7.73617
輕	-7.73652
怒	-7.74013
三年	-7.74029
終	-7.74041
辭	-7.74549
懼	-7.75063
益	-7.75065
任	-7.75152
二年	-7.7517
凡	-7.75951
近	-7.76115
趙	-7.76121
詣	-7.76476
誅	-7.76519
異	-7.76638
理	-7.76704
願	-7.77871
執	-7.77924
如此	-7.7794
疾	-7.78037
建	-7.7832
代	-7.78564
表	-7.78601
固	-7.78676
開	-7.78835
戰	-7.79628
誠	-7.79686
政	-7.8047
止	-7.8133
幸	-7.8161
語	-7.81884
盛	-7.82133
性	-7.82346
陵	-7.8266
威	-7.82702
除	-7.82744
惡	-7.82799
梁	-7.83111
攻	-7.83245
唯	-7.8345
宫	-7.83637
首	-7.83839
足	-7.83842
素	-7.83923
志	-7.84
㑹	-7.84109
間	-7.84261
功	-7.84425
絶	-7.84866
清	-7.85115
致	-7.85258
衣	-7.85472
謂之	-7.85705
所以	-7.86085
屬	-7.86258
比	-7.86438
徳宗	-7.86489
輒	-7.8689
景	-7.87152
不敢	-7.87218
經	-7.87944
光武	-7.88019
兩	-7.8805
才	-7.88455
口	-7.88494
契丹	-7.88786
選	-7.88877
説	-7.88938
流	-7.89137
敗	-7.89269
八	-7.8989
貶	-7.89993
責	-7.9053
利	-7.90766
和	-7.90838
備	-7.90887
而已	-7.91101
獻	-7.91246
年	-7.91328
后	-7.91556
女	-7.91764
力	-7.92188
位	-7.92314
諸將	-7.92397
新	-7.92466
廣	-7.92773
十	-7.92993
侯	-7.9314
就	-7.9315
楚	-7.93737
合	-7.93741
會	-7.93896
七	-7.9455
曰吾	-7.94715
遇	-7.95466
虜	-7.95551
疑	-7.96031
觀	-7.96063
貴	-7.96164
九	-7.9681
母	-7.97399
帥	-7.97454
德	-7.98327
往	-7.98409
勝	-7.98701
布	-7.98747
宣	-7.98844
久	-7.99386
敕	-7.99524
承	-7.99538
從之	-7.99602
鎮	-7.99634
謝	-7.99771
崇	-7.99789
擊	-7.99852
薦	-8.00057
頗	-8.00416
州刺史	-8.00466
師	-8.00595
國家	-8.00918
縣	-8.01094
金	-8.01479
府	-8.01551
集	-8.01598
土	-8.01666
改	-8.01685
據	-8.01727
解	-8.02191
毎	-8.02324
四年	-8.02404
父	-8.02666
憲宗	-8.02674
聽	-8.02911
堅	-8.03094
聞之	-8.0365
節	-8.03821
不知	-8.03991
氣	-8.04064
夜	-8.04213
臨	-8.0422
禁	-8.04408
爭	-8.04594
設	-8.04641
修	-8.04722
怨	-8.04774
廢	-8.04868
遷	-8.05242
楊	-8.05375
說	-8.05459
省	-8.05524
遺	-8.0554
勿	-8.05641
乞	-8.05748
破	-8.05759
罷	-8.05811
許	-8.05923
尚書	-8.06125
氏	-8.0647
神	-8.0699
章	-8.07043
斬	-8.07118
為之	-8.0724
由	-8.07278
送	-8.07418
務	-8.07467
伏	-8.07491
隂	-8.08134
蜀	-8.08157
風	-8.08187
并	-8.0828
俱	-8.08329
宋	-8.09126
華	-8.09146
者皆	-8.09533
元年	-8.09703
徴	-8.09936
賞	-8.10035
舊	-8.10559
恩	-8.1059
操	-8.10648
退	-8.10853
郡	-8.1089
委	-8.10981
著	-8.11098
公主	-8.11114
顧	-8.11471
憂	-8.11586
髙宗	-8.11591
給	-8.11613
追	-8.11735
昔	-8.11944
宦官	-8.12081
然後	-8.12127
喜	-8.12219
燕	-8.12527
屢	-8.12571
榮	-8.12867
也師古曰	-8.12965
竟	-8.13261
酒	-8.13306
營	-8.13552
動	-8.13635
密	-8.13679
美	-8.13791
免	-8.13801
教	-8.13833
御	-8.14041
不從	-8.14205
參	-8.14799
大臣	-8.1511
載	-8.15337
圖	-8.15625
延	-8.15763
迎	-8.15842
全	-8.15941
𫝊	-8.16212
古	-8.1636
仍	-8.16693
獄	-8.16995
附	-8.17113
田	-8.17132
棄	-8.17573
愛	-8.17611
嚴	-8.17975
尊	-8.18032
指	-8.18492
太	-8.18714
變	-8.18819
授	-8.18854
兼	-8.19026
萬	-8.19345
急	-8.19378
被	-8.20049
胡	-8.20243
文宗	-8.20263
騎	-8.20274
勢	-8.20483
厚	-8.2051
侍中	-8.20972
聲	-8.21084
宗	-8.21149
皇后	-8.21253
寧	-8.21359
殿	-8.21479
傷	-8.21759
都	-8.21831
專	-8.22012
以來	-8.22071
温	-8.22246
族	-8.22364
刑	-8.22597
果	-8.22616
忠	-8.23117
須	-8.23203
殺之	-8.2347
徙	-8.23606
滅	-8.23621
容	-8.23641
仁	-8.23722
養	-8.23976
入朝	-8.24014
便	-8.24053
吳	-8.24091
遣使	-8.24272
邊	-8.24309
視	-8.24529
𢎞	-8.24551
待	-8.24553
不許	-8.2481
遽	-8.24899
徒	-8.25151
順	-8.25549
職	-8.26003
情	-8.26076
聖	-8.26163
面	-8.26345
敵	-8.26422
討	-8.26548
聚	-8.26588
次	-8.26762
彊	-8.27065
顯	-8.27472
極	-8.2752
慮	-8.2787
號	-8.28049
造	-8.28095
茍	-8.28387
不如	-8.28623
保	-8.28761
老	-8.28846
移	-8.29063
不肯	-8.291
使者	-8.29135
無所	-8.29139
隨	-8.2935
推	-8.29449
世宗	-8.29494
黄	-8.2951
交	-8.29705
明帝	-8.29885
昭	-8.30216
畏	-8.30282
懐	-8.30496
負	-8.30685
頭	-8.30696
戒	-8.30779
匈奴	-8.30842
/)(	-8.30973
第	-8.31017
積	-8.31102
薄	-8.31166
業	-8.3124
宻	-8.31376
俗	-8.31386
決	-8.31413
别	-8.31497
手	-8.31635
持	-8.31812
約	-8.31944
五年	-8.32023
左	-8.3206
考	-8.32199
𤣥	-8.32592
上言	-8.33027
己	-8.33076
報	-8.33291
百官	-8.33352
木	-8.33365
兄弟	-8.33484
列	-8.33504
良	-8.33554
登	-8.33757
孫	-8.34011
曰此	-8.34219
百	-8.34596
連	-8.34681
司	-8.34692
諸侯	-8.3474
學	-8.34775
徵	-8.3484
體	-8.34861
獲	-8.35109
昭宗	-8.35204
咸	-8.35358
危	-8.35472
欲以	-8.35477
納	-8.35529
散	-8.35592
河	-8.35766
敬	-8.35769
徐	-8.3584
尤	-8.3592
嵗	-8.36024
䇿	-8.36242
存	-8.36284
器	-8.36751
聴	-8.36937
為相	-8.37119
今日	-8.37959
赦	-8.38561
具	-8.38662
超	-8.39102
江	-8.39334
讓	-8.39336
乆	-8.39419
永	-8.39515
勞	-8.39516
唐主	-8.39655
歡	-8.40234
諌	-8.40322
縱	-8.40372
禍	-8.40396
甞	-8.40633
乗	-8.40638
毁	-8.40924
率	-8.4105
節度使	-8.41372
契丹主	-8.4148
市	-8.41515
客	-8.41519
充	-8.41542
施	-8.41913
走	-8.42016
濟	-8.42196
塞	-8.42258
要	-8.42415
克	-8.42464
肅宗	-8.42518
四方	-8.42922
太守	-8.43096
逆	-8.43258
爾	-8.43442
餘	-8.43771
右	-8.43833
亮	-8.43901
許之	-8.44227
明宗	-8.44342
至於	-8.44635
患	-8.44797
殷	-8.44819
龍	-8.44877
苦	-8.44909
京師	-8.44999
乘	-8.45275
真	-8.45889
息	-8.45929
不復	-8.46109
運	-8.46231
火	-8.46238
曹	-8.46667
資	-8.46815
救	-8.47131
導	-8.47286
裕	-8.47299
是以	-8.47491
路	-8.47661
羣	-8.47701
嘉	-8.47973
月	-8.4799
宴	-8.48223
害	-8.48309
應劭曰	-8.48346
强	-8.48404
結	-8.48483
遊	-8.48485
者也	-8.48661
愈	-8.48755
斷	-8.4883
簡	-8.48988
六年	-8.49208
中國	-8.49303
子孫	-8.49617
化	-8.49676
雲	-8.49867
莊宗	-8.50063
室	-8.50135
曲	-8.50173
況	-8.50183
草	-8.50189
達	-8.50319
乃止	-8.50734
是時	-8.50836
史	-8.50861
也今	-8.51091
士卒	-8.51207
弟	-8.51374
二人	-8.51655
領	-8.52047
字	-8.52502
違	-8.52526
俟	-8.52737
期	-8.53002
太祖	-8.53236
竊	-8.53278
奈何	-8.5344
天后	-8.53581
微	-8.53607
懷	-8.53666
察	-8.53698
虎	-8.53844
有司	-8.53948
休	-8.53962
病	-8.54106
既而	-8.54141
將士	-8.54237
宣宗	-8.5427
孤	-8.54854
暴	-8.549
成帝	-8.54949
峻	-8.54977
自是	-8.55104
豐	-8.55183
郭	-8.55206
韓	-8.55943
費	-8.5612
長安	-8.56574
皇帝	-8.56679
溫	-8.56967
儀	-8.57001
衛	-8.57007
之後	-8.57742
不足	-8.57752
注	-8.57755
而不	-8.57887
擇	-8.58038
財	-8.58193
元帝	-8.58255
𩔖	-8.58265
况	-8.58469
大將軍	-8.58584
為人	-8.58816
質	-8.5906
寵	-8.59177
役	-8.59235
援	-8.59437
屯	-8.59675
色	-8.59705
伐	-8.59798
雅	-8.60164
傅	-8.603
門漢	-8.60407
冠	-8.60414
尋	-8.60527
専	-8.60545
向	-8.60643
故事	-8.60957
黨	-8.60963
謹	-8.60981
福	-8.61024
使人	-8.61087
兄	-8.61199
即位	-8.61539
代宗	-8.61629
屈	-8.61639
目	-8.61703
林甫	-8.61773
未嘗	-8.62084
典	-8.62148
内外	-8.62191
飲	-8.62789
與之	-8.62791
横	-8.62958
叛	-8.63019
宿	-8.63101
窮	-8.63135
船	-8.63244
空	-8.63269
敬宗	-8.63355
笑	-8.63585
以此	-8.63769
奴	-8.63804
滿	-8.63813
中宗	-8.63826
漢王	-8.63951
誣	-8.63988
誰	-8.64148
依	-8.64221
隋	-8.64393
輸	-8.64537
甲	-8.64891
之心	-8.65066
泰	-8.65084
舍	-8.65146
齊王	-8.65253
将	-8.65295
曰朕	-8.65353
藏	-8.65387
敢	-8.65539
習	-8.65605
不聽	-8.65606
案	-8.6563
孝	-8.65852
丞相	-8.6592
關	-8.6616
不以	-8.66179
勇	-8.66236
辨	-8.66249
恭	-8.66362
政事	-8.66522
博	-8.66523
賀	-8.6654
冀	-8.66621
宣帝	-8.66631
有所	-8.66722
速	-8.67127
犯	-8.67129
刺史	-8.67228
樓	-8.67252
之士	-8.67278
如淳曰	-8.67663
弱	-8.67675
籍	-8.67681
煬帝	-8.67706
䝉	-8.67818
人主	-8.67903
夷	-8.67927
襲	-8.67928
父子	-8.68058
盗	-8.68112
曰今	-8.68181
中外	-8.68184
有功	-8.6819
圍	-8.68233
識	-8.68264
姦	-8.68546
全忠	-8.68601
狀	-8.6862
大怒	-8.68683
鄉	-8.68774
沈	-8.68869
一人	-8.69051
言於	-8.69184
垂	-8.693
驚	-8.69344
雜	-8.69527
嗣	-8.69608
洛陽	-8.69671
臺	-8.69839
不宜	-8.69947
用之	-8.70115
單于	-8.70415
諸軍	-8.70501
之言	-8.70512
殊	-8.70587
總	-8.70642
稍	-8.70686
寺	-8.70697
盜	-8.70718
繼	-8.70748
朱	-8.70776
皇	-8.71019
恱	-8.71298
險	-8.71343
刻	-8.71498
之事	-8.71501
不及	-8.71603
之地	-8.7187
莫不	-8.71948
魏主	-8.72133
歎曰	-8.72447
斬之	-8.72483
司馬	-8.72691
傾	-8.72829
同平章事	-8.72859
何以	-8.72934
畢	-8.7315
淵	-8.7335
恨	-8.73353
精	-8.73477
願陛下	-8.73492
祖	-8.73599
牛	-8.73636
灋	-8.73646
歴	-8.73804
假	-8.73828
不為	-8.73901
髙帝紀	-8.74068
之所	-8.7417
大王	-8.74182
堂	-8.74392
廟	-8.74404
特	-8.74478
太尉	-8.7449
呼	-8.7453
按	-8.74915
曰陛下	-8.75039
機	-8.75054
囚	-8.75218
公卿	-8.75333
樹	-8.75429
似	-8.75692
何如	-8.75825
不應	-8.76099
夏	-8.76172
監	-8.76172
曰臣	-8.76218
示	-8.76346
世祖	-8.76439
所言	-8.76638
離	-8.76674
隆	-8.76738
寳	-8.76929
所在	-8.76936
上書	-8.76988
戲	-8.77057
累	-8.77073
宦者	-8.77198
督	-8.77329
闗	-8.77358
先是	-8.77583
曰我	-8.77815
細	-8.7787
突厥	-8.77962
不過	-8.7813
射	-8.78143
侍	-8.78264
疏	-8.78331
榖	-8.78345
賣	-8.78454
冦	-8.78551
玉	-8.78628
適	-8.78755
接	-8.78778
效	-8.78865
决	-8.79
浩	-8.7906
呉	-8.79072
至是	-8.7909
掌	-8.79151
策	-8.79229
社稷	-8.79461
輔	-8.79512
悦	-8.7952
蜀主	-8.79942
釋	-8.80002
申	-8.80016
之間	-8.8016
増	-8.8034
祭	-8.80623
形	-8.80686
後漢	-8.81183
郎	-8.81252
漸	-8.8131
奪	-8.81422
循	-8.81438
林	-8.81469
杜	-8.81556
付	-8.81621
青	-8.81686
奔	-8.8171
材	-8.81826
趣	-8.8185
雄	-8.81851
前後	-8.81866
御史	-8.81938
可以	-8.82
繫	-8.8201
刀	-8.82033
海内	-8.82179
妄	-8.82196
小人	-8.82204
争	-8.82531
再	-8.8256
海	-8.82636
富	-8.82856
述	-8.82932
君子	-8.82939
又曰	-8.82998
昌	-8.8305
衰	-8.83149
投	-8.83152
避	-8.83206
試	-8.83214
虚	-8.83226
優	-8.83352
損	-8.83411
覆	-8.83473
其子	-8.83504
賦	-8.83584
吉	-8.83609
辱	-8.83797
蓋	-8.83821
寃	-8.84106
歲	-8.84186
撫	-8.84311
馳	-8.84405
夫人	-8.84535
知之	-8.84538
户	-8.84845
商	-8.84914
爵	-8.84958
象	-8.85115
辟	-8.85169
愚	-8.85216
崔	-8.85317
采	-8.85343
融	-8.85355
升	-8.85399
拔	-8.85452
紹	-8.85537
豈可	-8.85788
之人	-8.85988
署	-8.8616
符	-8.86449
捕	-8.86797
武宗	-8.86804
恥	-8.86857
軍士	-8.86862
勤	-8.86928
寢	-8.86967
貪	-8.8706
覽	-8.87209
竒	-8.87255
最	-8.87298
先帝	-8.87401
詔曰	-8.87758
八年	-8.88213
忌	-8.88217
智	-8.88228
寛	-8.88717
飾	-8.88766
杖	-8.88785
恃	-8.88917
卑	-8.8897
庭	-8.89052
稅	-8.89062
候	-8.89085
步	-8.89126
僕	-8.89129
畫	-8.89147
荒	-8.892
補	-8.89201
虛	-8.89404
書曰	-8.8952
之功	-8.89815
越	-8.90059
無不	-8.90245
魯	-8.90408
敦	-8.90429
鄭	-8.90474
均	-8.90479
兒	-8.90491
未有	-8.90767
州縣	-8.90785
審	-8.90859
祠	-8.9095
黜	-8.90969
妻	-8.91282
幽	-8.91516
部	-8.91579
曰卿	-8.92331
不用	-8.92492
哀	-8.92509
記	-8.92549
星	-8.92643
趨	-8.92671
佛	-8.92967
引兵	-8.92978
曰昔	-8.9316
儉	-8.9318
相與	-8.93446
原	-8.93558
助	-8.93756
之子	-8.93868
十年	-8.93897
伯	-8.94234
河南	-8.94253
康	-8.94281
統	-8.94443
澄	-8.94523
禹	-8.94584
忘	-8.94625
㣲	-8.94785
必有	-8.94787
用事	-8.94962
諫曰	-8.9497
泣	-8.95191
而去	-8.96117
高	-8.96158
秀	-8.96289
廷	-8.96314
姓	-8.9642
千	-8.96508
短	-8.96547
落	-8.96668
調	-8.96714
之時	-8.96808
誤	-8.96876
明日	-8.96899
妾	-8.96966
監軍	-8.97138
擢	-8.97173
減	-8.97362
略	-8.97563
故曰	-8.97878
切	-8.98
輩	-8.98227
敏	-8.98397
春	-8.98561
所為	-8.98583
穆宗	-8.98639
拒	-8.98698
羽	-8.98758
貨	-8.98832
主上	-8.98906
上表	-8.99036
晉王	-8.99049
官爵	-8.99056
知其	-8.9909
放	-8.99517
死者	-8.99591
所謂	-8.99678
斯	-8.99723
隱	-8.99762
㫖	-8.99792
三公	-8.9981
庶	-8.99844
曰公	-8.99855
量	-8.99873
競	-8.99958
弼	-9.00052
諸道	-9.00295
大夫	-9.003
紀	-9.00427
故也	-9.00486
駕	-9.0053
一旦	-9.00562
閉	-9.00591
潞王	-9.00616
澤	-9.0064
英	-9.00731
足以	-9.008
吐蕃	-9.00923
德宗	-9.00938
卧	-9.00956
索	-9.01068
軍中	-9.01228
宫中	-9.01262
雖有	-9.01295
勲	-9.0131
等皆	-9.01465
災	-9.01542
晏	-9.01587
煩	-9.01815
衞	-9.02291
是日	-9.02423
霸	-9.02475
赤	-9.02497
寶	-9.02518
見之	-9.02675
尉	-9.02761
擾	-9.02951
鼓	-9.02954
何為	-9.0308
上下	-9.03222
幾	-9.03333
誅之	-9.03358
角	-9.03523
不欲	-9.03711
豈得	-9.03712
託	-9.0392
之意	-9.04192
館	-9.04296
喪	-9.04382
君臣	-9.04611
叔	-9.04615
詐	-9.04629
到	-9.04645
十二	-9.04925
捨	-9.04929
藥	-9.04974
中書	-9.04986
裴度	-9.05012
帶	-9.05017
曹操	-9.05109
逐	-9.054
蕭	-9.05664
功臣	-9.05839
不受	-9.05928
歎	-9.05937
術	-9.06054
宅	-9.06172
焚	-9.06209
訓	-9.06237
赴	-9.06813
轉	-9.0689
忽	-9.06903
衡	-9.06953
邑	-9.06981
聰	-9.07001
慶	-9.07045
希	-9.07078
刺	-9.07081
飛	-9.07093
米	-9.07098
𦙍	-9.07113
啓	-9.07135
校	-9.07551
以示	-9.07553
豪	-9.0763
供	-9.07669
不已	-9.07877
莫	-9.07889
下詔	-9.07967
將兵	-9.08084
惡之	-9.08242
之罪	-9.08334
後唐	-9.08482
浮	-9.08805
背	-9.08829
莫敢	-9.08926
言之	-9.08944
振	-9.08969
干	-9.08983
諸王	-9.08989
逃	-9.09007
執政	-9.0904
自古	-9.09106
血	-9.09156
驅	-9.09165
惜	-9.09179
妃	-9.09202
陸	-9.09237
崩	-9.09256
割	-9.09325
阿	-9.09356
祚	-9.09391
增	-9.09411
卷	-9.09424
魚	-9.09433
/	-9.09587
李林甫	-9.09606
築	-9.09686
出入	-9.09697
豫	-9.09719
倍	-9.09806
山東	-9.10182
諸州	-9.10246
十二年	-9.1025
惑	-9.10323
子弟	-9.10483
高祖	-9.10578
班	-9.10747
夀	-9.10896
其後	-9.11127
丹	-9.11239
逼	-9.11446
抑	-9.11478
疎	-9.11594
骨	-9.11658
濬	-9.1171
驛	-9.11722
蕭何	-9.11754
席	-9.11769
宮	-9.11814
末	-9.11867
虞	-9.11904
擒	-9.12013
佐	-9.12084
端	-9.12381
文武	-9.12391
謁	-9.12409
匿	-9.12536
天下之	-9.12724
劒	-9.13045
淮南	-9.13061
旁	-9.13248
北魏	-9.13519
人情	-9.13734
吏民	-9.13779
雨	-9.13782
流涕	-9.13927
削	-9.13945
折	-9.1395
遭	-9.14006
藩鎮	-9.1405
迹	-9.14064
錯	-9.14118
馮	-9.14466
徃	-9.14477
揚	-9.14654
寇	-9.15043
趙王	-9.15077
境	-9.15103
秋	-9.15174
歌	-9.1519
藩	-9.15404
戍	-9.15413
自今	-9.15457
不當	-9.155
賈	-9.15503
人皆	-9.15679
偽	-9.15696
踰	-9.15749
丘	-9.15759
工	-9.15806
其人	-9.16031
律	-9.16045
逸	-9.16145
勒	-9.16152
倫	-9.162
此乃	-9.16307
韋	-9.16312
彌	-9.16347
壁	-9.16352
印	-9.16367
詳	-9.16384
園	-9.16404
祀	-9.1641
河東	-9.16425
賔客	-9.16437
種	-9.1644
収	-9.16442
序	-9.1649
東宫	-9.16515
謀反	-9.16557
用兵	-9.16638
雍	-9.16747
一日	-9.16909
天地	-9.16959
朝臣	-9.17099
厲	-9.17133
髙帝	-9.17241
傳四十	-9.17602
儒	-9.17669
副	-9.17733
感	-9.17986
半	-9.18023
二十	-9.18161
判	-9.18184
舟	-9.18217
舎	-9.18268
擊之	-9.1832
側	-9.18538
烈	-9.18562
輿	-9.18673
殘	-9.18678
凶	-9.18709
巧	-9.1874
弊	-9.18745
太宗曰	-9.18772
構	-9.18783
􁰎	-9.18793
潛	-9.18881
無復	-9.18983
奏事	-9.19033
不至	-9.19099
入見	-9.19119
允	-9.19175
不然	-9.19384
品	-9.1979
七年	-9.19997
丁	-9.20131
驗	-9.2014
哭	-9.2023
録	-9.20263
防	-9.20277
震	-9.2057
詩	-9.20586
諸子	-9.20592
其家	-9.20644
竭	-9.20653
募	-9.2069
縁	-9.20703
泌	-9.20738
靈	-9.20799
戎	-9.20866
其餘	-9.20883
農	-9.20924
慎	-9.21005
冬	-9.21069
侵	-9.21097
曰君	-9.2113
重誨	-9.2119
里	-9.21198
顥	-9.21276
巢	-9.21296
浸	-9.21323
將帥	-9.21363
倚	-9.21396
蔽	-9.21462
詔書	-9.21485
關中	-9.22147
孟康曰	-9.22273
上疏以為	-9.22338
貞	-9.22468
乏	-9.22474
不出	-9.22558
讀	-9.22583
糧	-9.22793
之禮	-9.22831
之衆	-9.22852
如是	-9.23047
差	-9.23305
無罪	-9.23503
借	-9.23533
蘇	-9.23702
頃	-9.23725
逢吉	-9.23752
䧟	-9.23777
賤	-9.23784
毛	-9.23867
發兵	-9.23899
薨	-9.23915
富貴	-9.23927
中郎將	-9.23998
傳六十	-9.2418
塗	-9.24181
牙	-9.24451
城中	-9.24476
得失	-9.24498
革	-9.24527
江淮	-9.24595
僧	-9.24626
野	-9.24717
念	-9.24939
廷尉	-9.24984
衍	-9.25036
御史大夫	-9.25136
以其	-9.25296
傳二十	-9.25472
諭	-9.25478
竹	-9.25493
禄	-9.25586
郡縣	-9.25611
其罪	-9.2567
河北	-9.25783
婦	-9.25831
劾	-9.26063
階	-9.26094
預	-9.26188
皆為	-9.26188
橋	-9.26206
早	-9.26244
建康	-9.26258
䕶	-9.26379
裁	-9.26391
憲	-9.26394
租	-9.26432
它	-9.26463
狂	-9.26508
肅	-9.26534
諷	-9.26541
給事中	-9.26544
遣中使	-9.2656
仰	-9.26572
曰汝	-9.26581
朱全忠	-9.26663
州郡	-9.26697
王莽	-9.26758
東都	-9.26812
之志	-9.26821
其意	-9.26912
招	-9.26945
笑曰	-9.27026
悔	-9.2714
慕	-9.27307
為太子	-9.27353
長史	-9.27456
他	-9.27553
以聞	-9.27634
賂	-9.27995
以下	-9.28186
覺	-9.28203
司徒	-9.28239
其言	-9.28344
戴	-9.28351
緩	-9.28378
夕	-9.28397
馮道	-9.2846
醉	-9.28664
谷	-9.28668
大司馬	-9.28735
不若	-9.28782
丞	-9.28811
斗	-9.28892
畜	-9.28898
金帛	-9.2893
朔	-9.28942
盧	-9.28963
四海	-9.29014
恒	-9.29057
皆以	-9.29065
歳	-9.29115
停	-9.29127
翼	-9.29141
譖	-9.29163
亟	-9.29228
鳥	-9.29293
挾	-9.29302
劉裕	-9.29362
李徳裕	-9.29367
穆	-9.29384
不得已	-9.29401
繁	-9.29413
謙	-9.29504
元載	-9.29569
從容	-9.2958
府庫	-9.2958
憚	-9.29626
人心	-9.29939
不可以	-9.30043
不悦	-9.3009
朋黨	-9.30235
尚書令	-9.30274
宋璟	-9.30459
毅	-9.30473
雪	-9.30716
之臣	-9.30827
其父	-9.30921
貧	-9.30972
待之	-9.31196
困	-9.3121
仲	-9.31216
鑄	-9.31366
肉	-9.31374
整	-9.31567
季	-9.3165
晟	-9.3167
顔	-9.31735
孔	-9.31758
𨽻	-9.318
魏徴	-9.31834
懿	-9.31881
歩	-9.31895
征	-9.31899
配	-9.31914
頓	-9.31997
畧	-9.32033
弓	-9.32051
其事	-9.32062
妖	-9.32063
懸	-9.32069
掠	-9.32113
它日	-9.32137
涉	-9.32152
至此	-9.32166
之法	-9.32269
傳三十	-9.32864
京	-9.32923
九年	-9.33089
壽	-9.33229
豈有	-9.33266
入宫	-9.33513
有罪	-9.33541
僕射	-9.33838
有餘	-9.33936
以為然	-9.34251
服䖍曰	-9.34276
支	-9.34289
自謂	-9.34301
是也	-9.34446
時人	-9.34499
堪	-9.34578
祐	-9.34596
屋	-9.34603
苑	-9.34665
談	-9.34692
孟	-9.34733
屠	-9.34734
取之	-9.34742
檢	-9.34751
之中	-9.34752
回	-9.34761
睿	-9.3478
泉	-9.34787
之命	-9.34789
勉	-9.34812
皮	-9.34812
卓	-9.34832
絳	-9.34846
游	-9.34848
縛	-9.34868
却	-9.34928
伺	-9.34938
内史	-9.34941
寄	-9.34949
侍御史	-9.34956
禄山	-9.35003
外戚	-9.35094
抗	-9.35104
崇韜	-9.35112
望之	-9.35203
闗中	-9.35208
固辭	-9.35228
無功	-9.35318
古者	-9.35587
惠	-9.35591
之日	-9.35836
張晏曰	-9.36065
二千石	-9.36082
忍	-9.36139
中書令	-9.362
萬人	-9.36397
戮	-9.36436
皆有	-9.36507
皇太子	-9.36608
問之	-9.36615
鐵	-9.36774
京兆尹	-9.3692
上皇	-9.36942
昏	-9.37164
旦	-9.37327
友	-9.37374
答	-9.3746
饑	-9.37595
貌	-9.37618
卜	-9.37638
薛	-9.37651
扶	-9.37719
宗廟	-9.37733
謗	-9.37772
上曰	-9.37792
减	-9.37808
叔文	-9.37835
晝夜	-9.37841
贄	-9.37862
穀	-9.37871
擅	-9.37888
後世	-9.37931
項羽	-9.37943
千里	-9.37992
江南	-9.38023
元忠	-9.38054
順帝	-9.38055
逺近	-9.38081
弗	-9.38164
羣下	-9.38228
婦人	-9.38275
曰夫	-9.38625
而後	-9.38682
國之	-9.38707
愧	-9.38862
除之	-9.39162
盖	-9.39321
殆	-9.39661
大驚	-9.39761
猛	-9.39937
何必	-9.40056
門唐	-9.40091
埶	-9.4015
豈不	-9.40182
驕	-9.40348
罰	-9.40377
貢	-9.40448
房	-9.40474
士大夫	-9.40491
徽	-9.40516
莽	-9.40651
掩	-9.40656
奮	-9.40674
隠	-9.40679
名也	-9.40684
規	-9.40714
吕	-9.40715
鳯	-9.40722
學士	-9.40746
毋	-9.40777
逹	-9.40798
贊	-9.4081
舞	-9.40842
御史中丞	-9.40856
哀帝	-9.40913
十五年	-9.40943
王者	-9.40975
亊	-9.41033
不與	-9.41082
自以	-9.41188
殿下	-9.41344
翰林學士	-9.41344
之名	-9.41405
銅	-9.41599
條	-9.41634
晦	-9.41636
綽	-9.41735
貴人	-9.41775
闕	-9.41976
之際	-9.42281
燒	-9.42385
警	-9.42502
庸	-9.4255
彭城	-9.42555
何不	-9.42706
民間	-9.42991
㧞	-9.43022
士民	-9.43028
寒	-9.43149
數千	-9.4315
藉	-9.43243
尺	-9.43252
中原	-9.43314
太平	-9.43328
痛	-9.43526
環	-9.43554
上疏	-9.43577
明堂	-9.43636
不聴	-9.43686
露	-9.43728
羌	-9.43746
靖	-9.43752
車駕	-9.4382
閩	-9.43825
舜	-9.43852
池	-9.43879
柱	-9.43893
陷	-9.43894
秩	-9.43894
鹽	-9.43909
斥	-9.43925
完	-9.43941
其衆	-9.43969
墮	-9.43975
徑	-9.4399
式	-9.44022
儲	-9.44053
懿宗	-9.44058
四夷	-9.44064
葢	-9.44073
侯景	-9.44153
盗賊	-9.44214
足下	-9.44365
三日	-9.44406
之徒	-9.44542
而無	-9.4465
聖人	-9.44674
代之	-9.4478
韓信	-9.44875
顯祖	-9.44937
數日	-9.4498
之世	-9.45056
贈	-9.45086
精兵	-9.45102
祥	-9.45107
終不	-9.45217
譏	-9.45288
置酒	-9.45313
譽	-9.45335
不行	-9.45437
荆	-9.45484
安能	-9.45516
自言	-9.4557
乃以	-9.45598
来	-9.45768
千餘人	-9.45775
視之	-9.45791
羊	-9.45825
李泌	-9.45863
牧	-9.45949
道路	-9.46005
其所	-9.46071
數十	-9.46077
可謂	-9.46117
而死	-9.46136
奏之	-9.46236
行之	-9.46264
嬰	-9.46419
鄙	-9.4644
司空	-9.46473
仗	-9.46499
俊	-9.46511
諡	-9.46722
十四年	-9.46787
裴	-9.46817
東晉	-9.4683
厭	-9.46833
㓜	-9.46996
臣恐	-9.47045
辯	-9.47046
粟	-9.47052
羅	-9.47079
篇	-9.47083
熟	-9.47132
税	-9.47161
范	-9.47161
忿	-9.47166
勅	-9.47179
雞	-9.47184
侃	-9.47184
葬	-9.47189
齊丘	-9.47225
玊	-9.47259
太原	-9.47268
彪	-9.47284
郭崇韜	-9.47375
怒曰	-9.47392
往往	-9.47409
項王	-9.47417
限	-9.47422
後宫	-9.47706
如故	-9.47842
官軍	-9.47881
大事	-9.47996
數百	-9.48165
即日	-9.48171
如此則	-9.48409
奏請	-9.48566
不恱	-9.48734
國忠	-9.48813
怨望	-9.48898
也夫	-9.4943
格	-9.49526
舅	-9.49579
判官	-9.49596
耕	-9.49881
庫	-9.49993
不見	-9.50153
矜	-9.5016
以上	-9.50162
巴	-9.50188
貫	-9.50249
宫室	-9.50285
纔	-9.50289
)	-9.50317
矯	-9.5033
恣	-9.50339
大喜	-9.50415
欺	-9.50428
排	-9.50429
悲	-9.50451
乖	-9.50484
廬	-9.50484
宗室	-9.50489
筆	-9.50503
駢	-9.50516
巡	-9.50521
缺	-9.50535
肆	-9.50541
履	-9.50565
抱	-9.50583
贍	-9.50584
賞罰	-9.50586
敬瑭	-9.50592
喻	-9.50595
宿衛	-9.50609
彈	-9.50617
價	-9.50617
詣闕	-9.50618
又以	-9.50624
夢	-9.50642
呉主	-9.50743
對曰臣	-9.50844
義府	-9.5087
一切	-9.5092
賞賜	-9.50927
從榮	-9.51005
人臣	-9.51094
飲酒	-9.51138
未可	-9.51394
號曰	-9.51542
輔國	-9.51753
於外	-9.51794
曰若	-9.51846
濫	-9.51944
十萬	-9.51947
不同	-9.51989
取其	-9.52023
將吏	-9.52119
宫人	-9.52183
不言	-9.5228
鄧	-9.52437
三千	-9.52625
言其	-9.52763
蕃	-9.52954
朝士	-9.52999
盈	-9.53043
魏王	-9.53057
郡國	-9.53119
殺人	-9.53146
三十六	-9.53238
春秋	-9.53404
彭	-9.53432
不在	-9.53457
佞	-9.53496
尸	-9.53502
也言	-9.53541
寨	-9.53559
晉陽	-9.53645
不堪	-9.53665
厯	-9.53686
慙	-9.53717
悟	-9.53717
𤣥齡	-9.53792
鳯翔	-9.53819
男	-9.53875
凖	-9.53915
紙	-9.53916
甘	-9.5392
彰	-9.53938
京兆	-9.53972
侈	-9.53996
弔	-9.53998
謬	-9.5402
攝	-9.54044
崔𦙍	-9.54074
請以	-9.54117
數萬	-9.54224
懲	-9.54259
桓帝	-9.54371
不疑	-9.54555
度支	-9.55158
監察御史	-9.5523
無以	-9.55253
對曰陛下	-9.55343
荆州	-9.55452
江東	-9.55739
遣人	-9.55823
亦有	-9.55867
讎	-9.56137
自稱	-9.56203
桓	-9.56248
明公	-9.56306
三人	-9.56373
璽	-9.56433
當時	-9.5657
慰	-9.56757
博士	-9.56761
齎	-9.56769
洛	-9.56789
壞	-9.56837
未至	-9.56852
屏	-9.5688
怪	-9.56969
帳	-9.57135
潰	-9.5724
董	-9.57254
者多	-9.57307
甫	-9.57315
傳十	-9.57392
𦵏	-9.574
叙	-9.57406
院	-9.57412
社	-9.57425
稱臣	-9.57454
冒	-9.57475
阻	-9.57476
魏人	-9.57489
視事	-9.57497
躬	-9.575
沖	-9.57517
西域	-9.57518
牢	-9.57528
婢	-9.57532
料	-9.57536
賛	-9.5754
襃	-9.57553
耶	-9.57554
瓊	-9.57559
鑿	-9.57564
鞭	-9.57577
盟	-9.57578
貴妃	-9.57582
頴	-9.5759
牀	-9.57597
李竒曰	-9.576
三十	-9.57601
臣光曰	-9.57612
尾	-9.57631
窺	-9.57664
不服	-9.57717
舒	-9.5772
秦王堅	-9.5772
可汗	-9.57738
予	-9.57739
卿等	-9.57749
中尉	-9.58116
悉以	-9.58357
而還	-9.58555
王公	-9.5859
以問	-9.58782
非所以	-9.58885
人也	-9.58972
臣等	-9.59017
何所	-9.59035
莫能	-9.59101
後晉	-9.5923
武帝曰	-9.59373
之勢	-9.59433
至于	-9.59528
南唐	-9.59608
陳平	-9.59821
讒	-9.59844
臣下	-9.60022
蔡	-9.60155
不忍	-9.6034
乆之	-9.60365
姚崇	-9.60466
古之	-9.60472
寡	-9.60594
堯	-9.60595
十三年	-9.60598
彦	-9.60728
倉	-9.60751
効	-9.60794
之禍	-9.60841
壯	-9.60875
數百人	-9.60907
璋	-9.6095
禪	-9.60968
講	-9.61014
科	-9.61093
弩	-9.61109
曉	-9.6114
占	-9.61181
啟	-9.61184
歛	-9.61208
擬	-9.61208
没	-9.61216
郭威	-9.61248
仁厚	-9.6125
蠻	-9.61255
李絳	-9.61261
漏	-9.61279
諫議大夫	-9.61297
黄巢	-9.61309
踐	-9.61317
京城	-9.61335
粗	-9.61343
臂	-9.61357
誓	-9.61358
安重誨	-9.61373
含	-9.61375
勁	-9.6138
蒲	-9.61382
愛之	-9.61438
朝夕	-9.61627
太常	-9.61648
不可不	-9.61706
戸	-9.61824
舊制	-9.61973
三思	-9.62039
吏部尚書	-9.62066
百萬	-9.621
縣令	-9.62108
恪	-9.62157
之義	-9.62192
不顧	-9.62277
故人	-9.62288
常以	-9.62289
詰	-9.62354
遂以	-9.62362
如何	-9.62443
久之	-9.62647
姦臣	-9.62724
後周	-9.62859
邀	-9.62907
攻之	-9.63109
宥	-9.63286
上疏曰	-9.63461
以為不可	-9.63491
者謂之	-9.63615
為政	-9.63708
十五	-9.63776
疑之	-9.63782
直言	-9.63889
劍	-9.64044
之外	-9.64187
都督	-9.64199
患之	-9.64233
忠臣	-9.64407
竟不	-9.64427
有疾	-9.64465
何也	-9.64575
軌	-9.64587
隙	-9.64608
大將	-9.64622
荅	-9.64661
奢	-9.64896
未能	-9.64932
常侍	-9.64975
九齡	-9.64992
訟	-9.64998
賔	-9.65003
耗	-9.65035
僖宗	-9.65048
掾	-9.65071
翰	-9.65088
侍郎	-9.65094
貴戚	-9.651
程	-9.65102
珠	-9.65114
枉	-9.65126
叱	-9.65148
中書舎人	-9.65161
其黨	-9.65167
風俗	-9.65168
植	-9.65174
者以	-9.65175
單	-9.65179
距	-9.65179
徧	-9.65209
朝野	-9.65238
徳裕	-9.65258
袁紹	-9.6526
校尉	-9.65269
成都	-9.65279
衣冠	-9.65288
虧	-9.65325
少府	-9.65478
所居	-9.655
萬一	-9.6553
數十人	-9.65596
之家	-9.65637
黙然	-9.6574
齊主	-9.65877
源	-9.66023
更名	-9.66179
乃更	-9.66196
是嵗	-9.66212
在位	-9.66358
愬	-9.66368
譛	-9.66386
中山	-9.6662
之術	-9.66651
也若	-9.6673
旣	-9.66989
之官	-9.67144
告之	-9.67159
於前	-9.6721
之道	-9.67243
遵	-9.67326
不勝	-9.67653
十一年	-9.67702
不平	-9.67771
珪	-9.67833
臣聞	-9.67837
貞觀	-9.67846
王導	-9.67892
吴	-9.67924
於此	-9.67988
級	-9.68102
信之	-9.68131
房𤣥齡	-9.68198
豈非	-9.68223
斤	-9.68254
欲使	-9.68439
篤	-9.68446
渡	-9.68468
綱	-9.68551
仕	-9.68579
暉	-9.68612
自然	-9.68619
妻子	-9.68621
訴	-9.68782
匡	-9.68852
桑	-9.68884
津	-9.6897
祿	-9.6897
鹿	-9.68985
矢	-9.68993
乾	-9.69008
擁	-9.69013
亷	-9.69024
徇	-9.6906
護	-9.69072
裂	-9.69099
䘮	-9.69108
辦	-9.6914
釁	-9.69146
括	-9.69152
脩	-9.6916
㑹稽	-9.69176
日月	-9.69182
郭子儀	-9.69206
時人謂之	-9.69232
算	-9.69243
親戚	-9.6925
之民	-9.69266
遣之	-9.69279
隂陽	-9.69384
往來	-9.69485
得罪	-9.69518
知誥	-9.69659
不自安	-9.69672
禦	-9.69682
返	-9.69735
自殺	-9.69763
衆心	-9.69871
贖	-9.70026
皇子	-9.70415
誘	-9.70477
王氏	-9.70481
鳴	-9.70569
段	-9.70696
臣請	-9.70822
二子	-9.70951
蘇林曰	-9.70989
不免	-9.7168
幽州	-9.71787
燕王	-9.71841
為陛下	-9.71976
數人	-9.71985
所宜	-9.72235
南陽	-9.72246
劉氏	-9.72399
幼	-9.72637
蝗	-9.72698
安得	-9.72705
其實	-9.72709
為天子	-9.72747
獵	-9.72784
拘	-9.72841
諸葛亮	-9.72862
竇	-9.72884
湖	-9.7291
戚	-9.72946
沮	-9.72946
秦王	-9.7296
烏	-9.72981
麥	-9.73001
三百	-9.73005
陶	-9.73037
晚	-9.73075
㓂	-9.73078
欽	-9.7308
幹	-9.73099
然則	-9.73137
騰	-9.73158
郊	-9.73177
閣	-9.73194
柔	-9.73195
墜	-9.73195
快	-9.73213
圜	-9.73217
荷	-9.73225
李德裕	-9.73237
二千	-9.73254
男女	-9.73257
鍾	-9.73261
輦	-9.73261
詡	-9.73262
巖	-9.73279
睿宗	-9.73282
嶺南	-9.73292
弛	-9.73305
貯	-9.7332
厥	-9.7333
界	-9.73336
宏	-9.73355
隋文帝	-9.7337
旱	-9.73372
促	-9.73402
沛公	-9.73402
萬餘人	-9.73477
嵩	-9.73478
宗族	-9.73502
既至	-9.73647
張良	-9.73651
年少	-9.73662
為國	-9.73669
謝安	-9.73737
克用	-9.73777
罵	-9.73919
為嗣	-9.7398
世民	-9.74025
之患	-9.74053
江陵	-9.74062
千人	-9.74132
進退	-9.74149
法度	-9.74267
抵	-9.74304
仁傑	-9.74383
大梁	-9.74405
旗	-9.74406
州司馬	-9.74414
將佐	-9.74433
是非	-9.74437
使之	-9.74462
不盡	-9.74555
南北	-9.74608
其中	-9.74749
將相	-9.74918
五百	-9.74925
絹	-9.74934
一朝	-9.74977
今陛下	-9.75094
珍	-9.75165
可求	-9.75346
議之	-9.75403
日夜	-9.75448
帛	-9.75557
鑄錢	-9.75567
不問	-9.75735
釋之	-9.75806
漢主	-9.76438
人君	-9.76652
孝武帝	-9.76677
旬日	-9.76702
下獄	-9.76755
諌曰	-9.76777
陸贄	-9.76851
耳目	-9.77068
獸	-9.77208
頃之	-9.7725
午	-9.77277
憤	-9.77278
愷	-9.77332
麻	-9.77347
紳	-9.77357
馬援	-9.77368
暮	-9.7738
冊	-9.77395
遜	-9.77401
不安	-9.77417
沙	-9.77438
麗	-9.77485
咎	-9.77489
例	-9.775
儻	-9.77516
之弊	-9.77524
沒	-9.77533
翔	-9.77536
䖍	-9.77541
不聞	-9.77545
節度	-9.77562
大軍	-9.77566
璘	-9.77576
鄭注	-9.77588
傑	-9.77594
譴	-9.77594
敇	-9.77601
通鑑總𩔖卷	-9.77681
娶	-9.77695
涕泣	-9.77713
韜	-9.77758
所殺	-9.77784
史官	-9.779
六軍	-9.77905
降者	-9.77926
隱帝	-9.77945
以求	-9.77946
三月	-9.77972
黄帝	-9.78045
之屬	-9.78118
官屬	-9.78223
家人	-9.78302
先生	-9.78335
立功	-9.78399
功名	-9.78612
數年	-9.78626
以是	-9.78765
封禪	-9.78884
在外	-9.78917
唐太宗	-9.79
五千	-9.7902
亦不	-9.79024
訪	-9.79383
古今	-9.79408
景帝	-9.79454
悰	-9.79488
不失	-9.80061
文學	-9.80171
湯	-9.80194
捷	-9.80263
為宰相	-9.80343
國人	-9.80446
帝王	-9.80589
出於	-9.8065
出兵	-9.80753
中使	-9.80861
乃命	-9.80881
淮	-9.80929
之上	-9.8103
慢	-9.81267
十四	-9.816
崔浩	-9.81601
可乎	-9.81629
所用	-9.81634
斛	-9.81636
尹	-9.81637
茂	-9.81701
不息	-9.81773
銀	-9.81798
鈞	-9.81837
偏	-9.81865
蕩	-9.81874
舉兵	-9.81883
範	-9.81887
之故	-9.81902
檄	-9.81902
父母	-9.81928
朗	-9.81951
袁	-9.81955
之黨	-9.81969
牒	-9.81983
十九	-9.81984
媚	-9.82004
剛	-9.82016
鑒	-9.82028
艾	-9.82059
逢	-9.82076
入城	-9.8209
者為	-9.82096
冰	-9.82099
弄	-9.82099
楊國忠	-9.82101
毒	-9.82105
晩	-9.82118
河陽	-9.82123
強	-9.82125
巾	-9.82125
潜	-9.82127
渉	-9.82145
隔	-9.82145
凢	-9.82158
柳	-9.82163
繇	-9.82166
課	-9.82169
鬼	-9.82175
太師	-9.82182
撓	-9.82182
征伐	-9.82184
頡利	-9.82188
童	-9.82189
有三	-9.82194
祗	-9.82198
邉	-9.82199
恢	-9.8221
中書舍人	-9.82224
罕	-9.82232
墓	-9.82235
髮	-9.82244
禍福	-9.82245
吉凶	-9.82246
枕	-9.82248
譚	-9.82258
食貨志	-9.82265
曠	-9.82266
提	-9.82281
閩主	-9.82294
秀實	-9.82302
逰	-9.82316
蒙	-9.82336
可否	-9.82355
不暇	-9.82378
衛士	-9.8238
是夕	-9.82382
詔以	-9.82409
憑	-9.82418
山陵	-9.82437
仁軌	-9.82452
境内	-9.82464
布衣	-9.82465
恐其	-9.82707
之初	-9.82751
納之	-9.82853
無敢	-9.82912
東魏	-9.83006
河中	-9.83027
恵帝	-9.83037
門下	-9.83054
有此	-9.83147
粲	-9.83197
臣竊	-9.83481
堯舜	-9.83673
若不	-9.83682
未及	-9.83702
制度	-9.83851
欲令	-9.83905
不信	-9.83927
忌之	-9.83942
天命	-9.84284
之美	-9.84454
賜死	-9.84581
嫌	-9.84588
相繼	-9.84602
十八	-9.84852
楚王	-9.84854
靡	-9.84932
十餘人	-9.84985
甚厚	-9.85103
二十四	-9.85158
不願	-9.85246
於上	-9.85293
五月	-9.85311
受命	-9.85312
道士	-9.85381
朝政	-9.85405
繡	-9.85482
或曰	-9.85591
晉灼曰	-9.85615
災異	-9.85654
渾	-9.85706
數千人	-9.85754
乎對曰	-9.85754
大敗	-9.85774
匹	-9.85912
所欲	-9.85914
出之	-9.85946
慶之	-9.86008
宰	-9.86231
閤	-9.86239
誦	-9.86314
所得	-9.86332
賜之	-9.86396
遣使者	-9.86409
縣官	-9.86504
逮	-9.86557
散騎常侍	-9.86559
汗	-9.8657
坊	-9.86656
簿	-9.8668
希烈	-9.86706
滎陽	-9.86719
葉	-9.86725
犇	-9.86784
琅邪	-9.868
謂侍臣曰	-9.86804
饗	-9.86808
泚	-9.86815
搏	-9.86822
飬	-9.86825
翁	-9.86834
藝	-9.86839
值	-9.86843
昶	-9.86849
多所	-9.86861
湛	-9.86862
姑	-9.86869
艱難	-9.86871
潁川	-9.86894
兆	-9.86906
顔真卿	-9.86912
奚	-9.86925
枝	-9.86944
嶠	-9.8695
桀	-9.86957
狗	-9.86957
疆	-9.86957
浚	-9.86976
友珪	-9.86982
桑維翰	-9.86985
銓	-9.86987
吏部侍郎	-9.86996
髪	-9.86997
而退	-9.87
商賈	-9.87017
户口	-9.87036
聘	-9.87052
麾下	-9.87074
壹	-9.87093
真卿	-9.8712
百官公卿表	-9.87139
禍亂	-9.8715
魏徵	-9.87178
諸君	-9.87181
滉	-9.87199
未幾	-9.8721
歎息	-9.8724
襄陽	-9.87347
十餘	-9.87351
東南	-9.87529
其才	-9.87535
禮義	-9.8761
不絶	-9.8766
李榖	-9.87667
至尊	-9.87678
不報	-9.87717
作亂	-9.87788
無事	-9.87843
不相	-9.87844
善惡	-9.87908
舍人	-9.88081
無益	-9.88165
公私	-9.88217
不能用	-9.88284
東西	-9.88298
皆以為	-9.88367
祜	-9.88442
或謂	-9.88506
魏世祖	-9.88625
百餘人	-9.88627
以事	-9.88733
救之	-9.88801
一年	-9.88896
以爲	-9.88949
表請	-9.89062
或以	-9.89134
腹心	-9.89137
事之	-9.89174
琛	-9.89174
弟子	-9.89183
之業	-9.89216
管	-9.89453
也又	-9.89482
二百	-9.89733
於道	-9.8974
歸之	-9.89806
而更	-9.89851
不利	-9.89862
善之	-9.89863
壊	-9.90056
以備	-9.90123
城下	-9.90212
開元	-9.90364
至長安	-9.90429
泣曰	-9.90487
穿	-9.90566
其上	-9.90605
守之	-9.90639
耳今	-9.90775
某	-9.90837
未聞	-9.90911
都尉	-9.90955
中丞	-9.90959
一時	-9.91009
何得	-9.91045
員	-9.91126
鮮	-9.91252
於人	-9.91255
淑妃	-9.91265
襄	-9.91299
古人	-9.91328
汴	-9.91339
但以	-9.91339
門外	-9.91368
無忌	-9.9156
静	-9.91623
平生	-9.917
黃	-9.91725
譙	-9.91759
㡬	-9.91763
不必	-9.9177
渠	-9.91788
純	-9.91822
介	-9.9183
瞻	-9.91841
台	-9.91863
敞	-9.91884
佳	-9.91893
靜	-9.919
創	-9.91902
餌	-9.91902
廵	-9.91905
衝	-9.91907
欵	-9.91909
𢎞肇	-9.91918
荀	-9.91921
謟	-9.91938
摧	-9.9194
劇	-9.91944
師傅	-9.91957
蛇	-9.91958
鬬	-9.91961
殂	-9.91963
乘輿	-9.91965
蓄	-9.91978
詭	-9.91994
叔父	-9.91996
百司	-9.91999
張九齡	-9.92013
邸	-9.92026
蘭	-9.92033
李吉甫	-9.92038
羞	-9.92074
盤	-9.92086
元振	-9.92089
獲罪	-9.92118
聰明	-9.9222
專權	-9.92238
飲食	-9.9226
甚盛	-9.92276
於天下	-9.92284
所親	-9.92314
鄴	-9.92525
旬	-9.92538
進士	-9.92546
有隙	-9.9258
深入	-9.92612
輕重	-9.9263
迎之	-9.92777
謂人曰	-9.92832
方今	-9.92844
前世	-9.9288
更始	-9.92924
消	-9.93057
及即位	-9.93078
大業	-9.93211
文書	-9.93383
置之	-9.93426
均王	-9.93447
之才	-9.93557
也謂	-9.9387
其母	-9.94114
乃復	-9.94357
四時	-9.94365
傳五十	-9.94368
多不	-9.94444
從官	-9.94512
五十	-9.94696
洪	-9.94745
召見	-9.94871
至徳	-9.94917
長者	-9.94955
軍事	-9.94986
相見	-9.95011
得之	-9.95189
之情	-9.95221
之制	-9.95341
留守	-9.95406
仙	-9.9549
買	-9.95507
拜謝	-9.95552
衆人	-9.95602
外人	-9.95614
委任	-9.95642
何足	-9.95695
瑞	-9.95713
百餘	-9.95875
十六	-9.95954
秦始皇	-9.95979
為亂	-9.96032
得人	-9.96033
根	-9.96357
寤	-9.96383
其心	-9.96485
駭	-9.96485
參軍	-9.96558
思之	-9.96592
死於	-9.96611
子儀	-9.967
頼	-9.96773
何謂	-9.96778
飢	-9.96819
川	-9.96871
也故	-9.96877
凝	-9.96915
脅	-9.96985
淺	-9.97007
顗	-9.97017
彦澤	-9.97019
恂	-9.97035
準	-9.97039
曰天子	-9.97054
吞	-9.97096
淫	-9.97097
乗輿	-9.97098
寜	-9.97102
跪	-9.97138
臧	-9.97144
巨	-9.97163
謨	-9.97165
㪚	-9.97169
梟	-9.97173
遼	-9.97175
朱泚	-9.97189
標	-9.97203
鎛	-9.97204
光禄大夫	-9.97212
汲黯	-9.97213
豎	-9.97225
斃	-9.97226
泥	-9.97235
踈	-9.97242
板	-9.97242
琮	-9.97246
棺	-9.9725
跡	-9.97253
晞	-9.97257
鼎	-9.97275
屯田	-9.97278
都統	-9.97282
汙	-9.97282
邦	-9.97292
術士	-9.973
不肖	-9.97303
典籖	-9.97305
岳	-9.97306
赤眉	-9.97308
吐	-9.97312
㦸	-9.97322
茂貞	-9.97333
乃出	-9.97333
三司	-9.97337
攜	-9.97337
他日	-9.97342
靈帝	-9.97358
䞇	-9.97365
馮異	-9.97387
諸司	-9.97393
諫官	-9.97395
𤣥宗	-9.97426
基	-9.97435
軍旅	-9.97461
丕	-9.97475
廣陵	-9.97484
綬	-9.97492
守貞	-9.97539
李茂貞	-9.9754
陜	-9.97556
二月	-9.97563
仙芝	-9.97604
萬物	-9.97608
二十年	-9.97633
道子	-9.97718
守光	-9.97719
臨朝	-9.97826
其略曰	-9.97858
八十	-9.9802
是為	-9.98058
所部	-9.98081
衆皆	-9.98081
武王	-9.98182
則天	-9.98251
自陳	-9.98363
之役	-9.9837
人所	-9.98408
即皇帝位	-9.98435
沙門	-9.98456
不足以	-9.98492
甲兵	-9.98547
出為	-9.98572
其功	-9.98711
引見	-9.98816
漢興	-9.98891
言事	-9.98898
甚多	-9.98901
不能自	-9.98973
第一	-9.99
聲色	-9.99005
孰	-9.9902
者謂	-9.99077
競為	-9.99264
也且	-9.99354
之誅	-9.9937
不納	-9.99385
乃至	-9.99391
足矣	-9.99423
威權	-9.99426
紫	-9.99466
北面	-9.99594
建武元年	-9.99756
極言	-9.99893
孔子	-10.0002
何敢	-10.001
未知	-10.0021
不死	-10.0041
賴	-10.0043
乃得	-10.0056
張說	-10.0064
必不	-10.0065
齒	-10.0069
斂	-10.0076
以待	-10.0088
未得	-10.0089
曰天下	-10.0095
之内	-10.0096
相公	-10.0102
自餘	-10.0113
武三思	-10.0116
恤	-10.0116
於下	-10.0124
械	-10.0133
則有	-10.0145
播	-10.0149
不拜	-10.0159
之過	-10.0182
鮮卑	-10.0185
疲	-10.0188
不克	-10.0191
邠	-10.0191
叩頭	-10.0211
句	-10.0228
人人	-10.0232
伏兵	-10.0236
滯	-10.0237
宗閔	-10.0239
璟	-10.0243
庻	-10.0245
彦卿	-10.0252
穢	-10.0256
膺	-10.0257
蒼	-10.0259
鉤	-10.0259
輕騎	-10.0261
方士	-10.0261
絲	-10.0261
昆	-10.0263
妙	-10.0263
栁	-10.0264
延齡	-10.0265
座	-10.0265
此皆	-10.0265
肥	-10.0265
曜	-10.0266
霍光	-10.0266
拜之	-10.0266
膳	-10.0266
麟	-10.0268
詞	-10.0268
揺	-10.027
龜	-10.0271
混	-10.0271
雀	-10.0271
郁	-10.0272
題	-10.0272
遲	-10.0274
印綬	-10.0274
賓客	-10.0275
㫁	-10.0275
區	-10.0276
桓温	-10.0277
圗	-10.0278
文帝紀	-10.0279
潘	-10.028
皓	-10.028
偃	-10.0281
姊	-10.0281
天成元年	-10.0281
十二月	-10.0284
吏部	-10.0285
以致	-10.0286
雕	-10.0289
不測	-10.029
桓𤣥	-10.0291
上宋沈樞撰	-10.0291
文頴曰	-10.0291
綜	-10.0293
鳳	-10.0293
者必	-10.0294
和親	-10.0294
在於	-10.0296
賢才	-10.0296
縱横	-10.0297
安帝	-10.0299
義康	-10.0302
中書侍郎	-10.0307
泰山	-10.031
方略	-10.0312
帥衆	-10.0312
三輔	-10.0313
左遷	-10.0314
之計	-10.0318
數月	-10.0326
封侯	-10.0341
大恱	-10.0342
梁武帝	-10.0344
涼	-10.0344
處分	-10.0346
而用之	-10.0349
刑罰	-10.0356
舊臣	-10.036
借使	-10.0366
李固	-10.0366
近臣	-10.037
和帝	-10.0371
或勸	-10.0383
施行	-10.0386
處士	-10.0386
進奉	-10.0401
諸公	-10.0417
前漢	-10.0434
為治	-10.0462
留之	-10.0469
皆不	-10.0477
於後	-10.0478
胡人	-10.0487
攻城	-10.0491
當今	-10.0498
注曰	-10.0507
授之	-10.0507
一嵗	-10.0511
及其	-10.0514
而行	-10.0517
以給	-10.0517
列侯	-10.0521
數十萬	-10.0536
觀其	-10.0542
欲立	-10.0549
曾	-10.056
之國	-10.0563
捐	-10.0563
軍府	-10.0563
賜以	-10.0568
見其	-10.0569
李逢吉	-10.0599
八月	-10.0604
鄧禹	-10.0616
汝曹	-10.0624
名曰	-10.063
主者	-10.0642
糾	-10.0662
嘗與	-10.0668
丈	-10.0678
無私	-10.0678
秉	-10.068
四人	-10.0681
酬	-10.0683
光武紀	-10.069
棄之	-10.0696
討賊	-10.07
不下	-10.0707
盡忠	-10.0709
武氏	-10.0727
為盗	-10.0746
稽	-10.0751
武帝紀	-10.0754
自有	-10.0755
繩	-10.0755
神仙	-10.0759
褚遂良	-10.076
忠直	-10.0763
井	-10.0767
也遂	-10.0776
起兵	-10.0783
黄門	-10.0784
恵	-10.0784
濳	-10.0786
徐州	-10.0787
寸	-10.0796
悅	-10.0818
戎狄	-10.0818
彦章	-10.0829
瑜	-10.0833
享	-10.0838
顧謂	-10.0839
宇	-10.0842
撰	-10.0843
倒	-10.0848
貢獻	-10.0849
霍	-10.0851
晨	-10.0851
樊	-10.0852
䧏	-10.0854
壻	-10.0854
款	-10.0855
慕容	-10.0855
閒	-10.0856
裘	-10.0857
咨	-10.0857
披	-10.0857
幕	-10.0857
察其	-10.0857
蠲	-10.0858
状	-10.0858
延壽	-10.0859
陰	-10.086
朋	-10.086
萌	-10.086
編	-10.086
禀	-10.086
曦	-10.0861
香	-10.0861
昱	-10.0861
束	-10.0862
刼	-10.0863
刃	-10.0863
冢	-10.0864
熱	-10.0864
倦	-10.0864
指揮使	-10.0865
閲	-10.0865
翰林	-10.0865
熊	-10.0866
暑	-10.0866
英雄	-10.0867
綱紀	-10.0868
百僚	-10.0869
貸	-10.0869
傲	-10.087
郊祀志五	-10.087
従	-10.087
奴婢	-10.0871
無可	-10.0871
雷	-10.0871
萬機	-10.0871
鼠	-10.0872
照	-10.0873
北漢主	-10.0873
謫	-10.0874
闢	-10.0874
兩漢博聞	-10.0874
器械	-10.0875
觸	-10.0875
朔方	-10.0876
問曰	-10.0876
月餘	-10.0876
偓	-10.0876
綰	-10.0877
囊	-10.0878
汾	-10.0878
垣	-10.088
交結	-10.0881
魏元忠	-10.0881
庾亮	-10.0884
甲士	-10.089
西域傳	-10.089
交通	-10.0892
反覆	-10.0894
中興	-10.09
河内	-10.0902
静帝	-10.0904
之路	-10.0905
君集	-10.0909
羣小	-10.0913
史記	-10.0914
安都	-10.0917
李晟	-10.0918
已下	-10.0919
時有	-10.0923
建武	-10.0928
水陸	-10.0933
益州	-10.0941
吾輩	-10.0941
於禁中	-10.0944
以書	-10.0945
廢立	-10.0955
尊號	-10.0955
韓滉	-10.0957
再拜	-10.0957
終日	-10.0961
除官	-10.0963
酒酣	-10.0965
朝服	-10.0972
告身	-10.0982
從事	-10.0986
曰吾聞	-10.0986
憚之	-10.0988
卿大夫	-10.1001
奏言	-10.1001
國事	-10.1007
迫	-10.1015
有變	-10.1024
士良	-10.1026
問以	-10.1034
十七年	-10.1035
銜之	-10.1038
改元	-10.1044
之政	-10.1051
職事	-10.1055
未敢	-10.1057
何故	-10.1058
得免	-10.1065
漢中	-10.1068
禁軍	-10.1078
我我	-10.1084
聖朝	-10.1084
分兵	-10.1095
大小	-10.1097
母子	-10.1101
待罪	-10.1105
大行	-10.1121
續	-10.1122
女子	-10.1137
不知其	-10.1144
傳七十	-10.1149
河西	-10.1152
用人	-10.1156
以告	-10.1156
王猛	-10.1174
不食	-10.119
入相	-10.1191
燕人	-10.1208
在此	-10.1214
為我	-10.1226
其文	-10.123
吳王	-10.1231
安在	-10.1236
姪	-10.1242
黨人	-10.1242
之處	-10.1255
旅	-10.1257
所知	-10.1262
北漢	-10.1263
為將	-10.1272
銜	-10.1278
激	-10.1292
郎中	-10.1293
更相	-10.1298
亦無	-10.131
之利	-10.1312
記曰	-10.1318
腹	-10.1335
疾之	-10.1347
十三	-10.1351
逐之	-10.1355
已死	-10.1364
黙	-10.1367
且曰	-10.137
兹	-10.1375
否	-10.1383
百人	-10.1389
嘗謂	-10.1389
固請	-10.1404
證	-10.1408
右僕射	-10.1411
黄金	-10.1416
其主	-10.142
而立	-10.1421
之憂	-10.1425
議者	-10.1427
滂	-10.1437
俸	-10.1438
於庭	-10.1439
夾	-10.1441
偉	-10.1449
承業	-10.1449
無能	-10.1452
宜加	-10.1454
勃	-10.1454
太妃	-10.1456
頸	-10.1456
謐	-10.1457
太傅	-10.146
脱	-10.1462
普	-10.1462
祿山	-10.1462
育	-10.1462
餉	-10.1462
渭	-10.1462
隣	-10.1464
榜	-10.1469
姚	-10.147
愍	-10.147
扇	-10.1471
恕	-10.1472
苛	-10.1473
郊祀	-10.1474
亭	-10.1476
糓	-10.1477
風雨	-10.148
鄉里	-10.148
洽	-10.1481
尚書左丞	-10.1481
滋	-10.1482
德裕	-10.1484
李膺	-10.1484
齋	-10.1484
壇	-10.1485
析	-10.1486
染	-10.1486
囘	-10.1486
樞	-10.1487
叡	-10.1487
氷	-10.1487
無異	-10.1487
㨗	-10.1488
逖	-10.1488
門晉	-10.1489
黒	-10.149
章帝	-10.149
羸	-10.1492
寂	-10.1492
駮	-10.1492
剽掠	-10.1492
誕	-10.1492
淮西	-10.1492
勃勃	-10.1493
檢校	-10.1493
仇	-10.1494
石敬瑭	-10.1494
擊毬	-10.1496
脫	-10.1496
司𨽻校尉	-10.1497
祈	-10.1498
李崧	-10.1499
犀	-10.1499
奸	-10.15
數百里	-10.1501
杞	-10.1503
諮	-10.1503
掖庭	-10.1504
鼔	-10.1504
元嘉	-10.1505
貴賤	-10.1506
勲舊	-10.1507
恭顯	-10.1507
瑊	-10.1508
詩云	-10.151
其妻	-10.151
乃遣	-10.1513
老弱	-10.1514
究	-10.1515
劉仁軌	-10.1515
而出	-10.1516
苞	-10.1518
武昌	-10.1518
行逢	-10.152
未甞	-10.152
忠義	-10.152
天寳	-10.152
張濬	-10.1521
失其	-10.1524
獻之	-10.1524
楊素	-10.1525
父老	-10.1525
髙祖曰	-10.1527
退而	-10.1532
避之	-10.1534
李義府	-10.1541
上書言	-10.1549
姦邪	-10.1558
西北	-10.156
為王	-10.1564
皆出	-10.1572
為樂	-10.1574
將行	-10.1574
略曰	-10.1575
隋主	-10.1576
為名	-10.1577
尤甚	-10.1582
人以	-10.1585
死不	-10.1594
柄	-10.1602
何益	-10.1603
南方	-10.1607
舎人	-10.1612
長子	-10.1613
先朝	-10.1614
天文	-10.1617
克寧	-10.1619
謂曰	-10.162
鞫之	-10.1626
尚未	-10.1627
無故	-10.1633
還鎮	-10.1635
三萬	-10.1642
議以為	-10.1644
居之	-10.1657
之物	-10.1659
語曰	-10.1666
矣乃	-10.167
其地	-10.167
號令	-10.1671
大功	-10.168
之風	-10.1682
織	-10.1684
萬里	-10.1685
失之	-10.1687
為司徒	-10.1689
未平	-10.1694
以来	-10.1697
東方	-10.1703
稱帝	-10.1704
過失	-10.1706
易之	-10.1709
以待之	-10.1711
主簿	-10.1713
之於是	-10.1721
樞宻使	-10.173
從者	-10.174
於魏	-10.1743
委之	-10.1751
者衆	-10.1759
有寵	-10.176
利害	-10.1763
自知	-10.1772
什	-10.1775
詐為	-10.1778
吾屬	-10.1793
得以	-10.1799
疑其	-10.181
而殺之	-10.1823
青州	-10.1832
王衍	-10.1833
慟哭	-10.185
時事	-10.1859
追之	-10.1862
之盛	-10.1864
憐	-10.1867
恐非	-10.1871
良久	-10.1873
之謀	-10.1874
副使	-10.1881
聖徳	-10.1885
北門	-10.1887
書生	-10.1908
李克用	-10.1909
街	-10.1921
泄	-10.1938
止於	-10.1943
人物	-10.1949
有寵於	-10.1949
不豫	-10.1956
不加	-10.1974
亦當	-10.1981
為丞相	-10.1981
而卒	-10.1986
十人	-10.1992
南向	-10.1994
各有	-10.2014
五人	-10.2016
六月	-10.2029
樂工	-10.2034
吏卒	-10.2039
多矣	-10.2052
僚屬	-10.2053
狄仁傑	-10.2059
宦	-10.2067
遮	-10.2069
起於	-10.2078
有言	-10.2084
有詔	-10.209
免官	-10.2098
壯士	-10.2098
活	-10.2104
畋	-10.2109
緯	-10.2115
此言	-10.2115
又謂	-10.212
錫	-10.2131
太僕	-10.2134
誡	-10.2136
天意	-10.2136
竣	-10.2138
僅	-10.2138
瑀	-10.2138
閔	-10.2138
敎	-10.2139
李宗閔	-10.2139
齊人	-10.2139
咸通	-10.2141
贓	-10.2141
隐	-10.2142
皆稱	-10.2142
帖	-10.2143
余	-10.2145
契	-10.2145
辰	-10.2145
平章事	-10.2145
奬	-10.2145
令孜	-10.2147
諱	-10.2147
都虞候	-10.2147
閻	-10.2147
戈	-10.2148
李勣	-10.2149
豆	-10.2149
僚佐	-10.2149
輪	-10.2149
僻	-10.2149
骨肉	-10.215
鼂錯	-10.215
鄭覃	-10.2152
醜	-10.2152
㢘	-10.2152
裝	-10.2153
頻	-10.2153
崧	-10.2153
喬	-10.2153
祕	-10.2154
辛	-10.2154
熒惑	-10.2154
蠧	-10.2154
禕	-10.2155
陛	-10.2155
有異志	-10.2155
詬	-10.2156
遥	-10.2157
寘	-10.2158
隅	-10.2158
劣	-10.2159
把	-10.2159
承璀	-10.216
觀察使	-10.2161
眼	-10.2162
牆	-10.2162
俄而	-10.2162
悍	-10.2163
於朝	-10.2163
日磾	-10.2163
供奉	-10.2163
牽	-10.2164
秘	-10.2164
戍卒	-10.2165
頓首	-10.2165
致仕	-10.2165
大舉	-10.2166
西南夷傳	-10.2166
柴	-10.2166
練	-10.2166
鏐	-10.2167
藝文志	-10.2168
韓偓	-10.2171
魏髙祖	-10.2171
拯	-10.2173
濁	-10.2176
輔政	-10.2177
寢疾	-10.2178
力爭	-10.218
俊臣	-10.2186
行至	-10.2188
李守貞	-10.2194
小兒	-10.2195
山谷	-10.2195
既得	-10.2196
因言	-10.2203
延光	-10.2213
謀議	-10.2213
戰士	-10.2223
專以	-10.2235
大笑	-10.2235
又嘗	-10.2239
)(	-10.2248
成敗	-10.2253
李石	-10.2262
少卿	-10.2263
聞者	-10.2266
一月	-10.2266
董卓	-10.2278
已定	-10.2294
乃使	-10.2296
禽	-10.2297
而止	-10.2298
必無	-10.2302
五萬	-10.2309
讀書	-10.2315
謂左右曰	-10.2315
蜀王	-10.2316
皆如	-10.2318
或有	-10.2319
建安	-10.2326
之福	-10.2329
後患	-10.2339
三十年	-10.2344
乃下	-10.2347
不可復	-10.2347
授以	-10.2371
奪其	-10.2378
都指揮使	-10.238
則無	-10.2381
不容	-10.2382
若其	-10.2391
中有	-10.2392
得無	-10.2395
周主	-10.2395
弑	-10.2397
親近	-10.2404
忤	-10.2434
此輩	-10.2437
三年初	-10.2438
之號	-10.2439
北方	-10.2443
蜀人	-10.2459
有異	-10.246
加以	-10.2467
嘗為	-10.2475
曏	-10.2481
朝堂	-10.2489
髙下	-10.2491
兄子	-10.2517
不入	-10.2522
何用	-10.2536
乃與	-10.2539
行事	-10.2541
之吏	-10.2545
失色	-10.2559
素與	-10.2562
使君	-10.2563
曰然則	-10.2563
之望	-10.2575
未定	-10.2577
其弟	-10.2585
猶有	-10.2592
曰善	-10.2601
時政	-10.2603
人有	-10.2606
為天下	-10.2629
暉等	-10.2629
不易	-10.2632
辭以	-10.2634
至公	-10.2635
不幸	-10.2641
中人	-10.2644
罷兵	-10.2652
壘	-10.2653
之末	-10.2658
是故	-10.2662
它人	-10.2676
於市	-10.2679
毁之	-10.2682
萬餘	-10.2683
罪人	-10.2684
馬氏	-10.269
協	-10.2695
之䇿	-10.2698
輔之	-10.2699
上書曰	-10.2704
而不能	-10.2708
皇太后	-10.2709
化為	-10.2715
殿中	-10.272
黎	-10.2721
曰主上	-10.2726
獄吏	-10.2735
知人	-10.2741
以取	-10.2746
上黨	-10.2749
復為	-10.2749
復有	-10.2754
不早	-10.2756
所過	-10.2771
功業	-10.2783
欲與	-10.2786
甚衆	-10.279
獨不	-10.2796
御史臺	-10.2798
互	-10.2799
之理	-10.2806
猶言	-10.281
即命	-10.2824
遁	-10.2825
溺	-10.2829
西方	-10.283
拒之	-10.283
宋齊丘	-10.2834
嶺	-10.2835
蔣	-10.2835
嫡	-10.2837
因此	-10.2837
上聞	-10.2838
擲	-10.2839
之君	-10.2841
义	-10.2842
伍	-10.2842
慈	-10.2846
揖	-10.2847
伎	-10.2848
駿	-10.2848
劫	-10.2848
祥瑞	-10.2849
鄰	-10.2851
熲	-10.2853
熈	-10.2854
䟽	-10.2854
併	-10.2855
札	-10.2855
皇甫鎛	-10.2856
邕	-10.2856
厨	-10.2856
六十	-10.2856
白馬	-10.2857
十九年	-10.2857
豫章	-10.2858
徹	-10.2858
褒	-10.2859
鑑	-10.2859
翦	-10.286
嚮	-10.286
繒	-10.286
噬	-10.2861
耀	-10.2862
廉	-10.2862
貨財	-10.2863
暫	-10.2863
董賢	-10.2863
庾	-10.2864
遠	-10.2864
爽	-10.2866
譬如	-10.2867
皇甫	-10.2867
苻堅	-10.2867
鬻	-10.2868
韶	-10.2868
繕	-10.2868
罔	-10.2869
綿	-10.2869
揚雄	-10.2869
掃	-10.287
郢	-10.287
牓	-10.2871
以實	-10.2871
楷	-10.2872
炎	-10.2872
田令孜	-10.2872
惲	-10.2873
岑	-10.2873
左拾遺	-10.2873
治之	-10.2873
旋	-10.2874
敝	-10.2875
无忌	-10.2876
飯	-10.2876
斫	-10.2876
貞觀元年	-10.2877
勵	-10.2878
巷	-10.2878
任圜	-10.2878
李靖	-10.2879
欲為	-10.288
璧	-10.288
嫉	-10.2882
訊	-10.2882
傳五十四	-10.2882
佩	-10.2883
於上前	-10.2884
檻車	-10.2884
訖	-10.2885
男子	-10.2885
水旱	-10.2886
無辜	-10.2886
笞	-10.2887
繆	-10.2888
租賦	-10.2889
文靜	-10.289
太皇太后	-10.2892
蘇峻	-10.2893
知祥	-10.2894
太常卿	-10.2895
論議	-10.2896
汲	-10.2897
穎	-10.2897
東昏侯	-10.2898
毋得	-10.29
離間	-10.2901
勝負	-10.2902
期年	-10.2903
近習	-10.2903
羣臣皆	-10.2907
者乎	-10.2908
到官	-10.291
之資	-10.2911
再三	-10.2912
牙將	-10.2913
韓建	-10.2913
安危	-10.2914
豫州刺史	-10.2915
者言	-10.2919
於内	-10.292
勒兵	-10.2927
入侍	-10.2927
不遜	-10.2928
奉詔	-10.2932
奉使	-10.2933
曰不然	-10.294
奉天	-10.294
上意	-10.2949
受詔	-10.2951
是其	-10.2954
魏兵	-10.2955
𤣥暉	-10.2955
在上	-10.2957
梁主	-10.2962
復以	-10.2962
誣奏	-10.2966
無他	-10.2966
金吾	-10.2967
不任	-10.2968
明年	-10.2968
三老	-10.2971
懼而	-10.2978
悉召	-10.2981
趙張	-10.2982
高帝	-10.2985
劾奏	-10.299
有天下	-10.2991
長吏	-10.2993
師徳	-10.2996
五日	-10.3001
下至	-10.3002
太公	-10.3003
人望	-10.3004
省中	-10.301
且言	-10.3017
不意	-10.3022
王峻	-10.3024
義方	-10.3025
無度	-10.3026
惟陛下	-10.3027
於路	-10.3031
處之	-10.3035
禁中	-10.3035
無窮	-10.3042
此所謂	-10.3054
方鎮	-10.3062
孔融	-10.3073
平城	-10.3074
曰臣聞	-10.3076
官吏	-10.308
奏稱	-10.3085
勿以	-10.3086
多事	-10.3088
左右皆	-10.3088
悔之	-10.3093
不正	-10.3096
不知所	-10.31
者甚衆	-10.31
又與	-10.31
卿輩	-10.3104
也晉灼曰	-10.3106
受其	-10.3107
百年	-10.3109
自隨	-10.3112
而遣之	-10.3118
桓溫	-10.3119
坐貶	-10.3123
或云	-10.3131
何則	-10.3132
多少	-10.3132
未易	-10.3135
晉齊王	-10.3135
道成	-10.314
何憂	-10.3146
將至	-10.3147
其過	-10.3155
赦之	-10.3157
宫女	-10.3159
制書	-10.3162
重之	-10.3172
以安	-10.3175
流言	-10.318
文章	-10.3186
少時	-10.3192
於漢	-10.3193
又欲	-10.3197
一名	-10.3203
兖州	-10.3207
際	-10.3211
府兵	-10.3217
千餘	-10.3226
周公	-10.3232
若有	-10.3232
進曰	-10.3233
正色曰	-10.3241
又言	-10.325
人多	-10.3252
一也	-10.3262
衣食	-10.3262
其本	-10.3266
之徳	-10.3268
至京師	-10.3276
過於	-10.3277
不能禁	-10.3295
此人	-10.3298
道濟	-10.3303
無它	-10.3313
汝南	-10.3316
使其	-10.3317
臣今	-10.3322
以利	-10.3323
不識	-10.3327
之比	-10.3342
有急	-10.3343
後梁	-10.3358
克之	-10.3359
發言	-10.3361
吹	-10.3364
其書	-10.3364
以官	-10.3365
神明	-10.3371
無禮	-10.3376
不修	-10.3383
必先	-10.3387
而能	-10.3391
為帝	-10.3397
學者	-10.3404
也音	-10.3405
卿言	-10.3415
北伐	-10.342
愔	-10.3426
以俟	-10.3428
比來	-10.3433
終不能	-10.3444
九月	-10.3444
猶未	-10.3446
東海	-10.3454
觀之	-10.3457
烹	-10.3457
可用	-10.3458
無一人	-10.3472
則為	-10.3473
其下	-10.3488
兵權	-10.349
匹夫	-10.3493
罵曰	-10.3497
大怒曰	-10.3498
車騎	-10.3503
先帝之	-10.3522
書奏	-10.3533
民皆	-10.3533
孫權	-10.3533
像	-10.3538
匠	-10.354
為吏	-10.3551
無得	-10.3556
不成	-10.3563
六州	-10.3563
為主	-10.3567
豈能	-10.3568
止之	-10.3569
軍國	-10.357
晉兵	-10.3575
欲用	-10.3576
稱疾	-10.3579
偶	-10.3582
為侍中	-10.3585
詹事	-10.3589
非其人	-10.3594
珽	-10.3595
顯宗紀	-10.3598
匱	-10.3599
莊	-10.3599
飽	-10.3602
成帝紀	-10.3603
犬	-10.3606
龔	-10.3608
自立	-10.3613
旌	-10.3614
率皆	-10.3616
項	-10.3616
劔	-10.3617
狥	-10.3619
敘	-10.3619
餐	-10.3619
銖	-10.362
九錫	-10.362
燧	-10.3624
饋	-10.3627
薪	-10.3627
歆	-10.3627
松	-10.3628
眩	-10.3628
茶	-10.3629
狄	-10.3629
泌曰	-10.3629
饌	-10.3629
許敬宗	-10.363
刺客	-10.363
垍	-10.363
鏡	-10.3631
澣	-10.3631
貽	-10.3631
彧	-10.3631
畏之	-10.3631
醫	-10.3631
盧杞	-10.3631
寝	-10.3632
狐	-10.3632
倖	-10.3632
別	-10.3634
花	-10.3635
西川	-10.3636
墨	-10.3636
奢侈	-10.3637
㗖	-10.3637
掌書記	-10.3637
溪	-10.3637
踵	-10.3637
東方朔	-10.3638
即帝位	-10.3638
俯	-10.3638
閑	-10.3638
切齒	-10.3638
欺罔	-10.3639
輯	-10.3639
黄門侍郎	-10.3639
潔	-10.3639
豪傑	-10.3639
巫	-10.3639
厠	-10.3639
觧	-10.364
錡	-10.3641
錄	-10.3641
公等	-10.3641
矩	-10.3641
戀	-10.3641
邢	-10.3641
函	-10.3641
蹈	-10.3642
澤潞	-10.3642
知詢	-10.3642
惶恐	-10.3642
朱异	-10.3642
判度支	-10.3642
與我	-10.3643
伸	-10.3643
隗囂	-10.3643
膝	-10.3643
蘇威	-10.3643
大赦改元	-10.3643
岸	-10.3643
感悟	-10.3644
洞	-10.3644
臘	-10.3644
髙熲	-10.3644
承嗣	-10.3644
綏	-10.3645
陪	-10.3645
號哭	-10.3646
臣子	-10.3646
先王之	-10.3646
揆	-10.3646
狼	-10.3646
節度副使	-10.3647
洗	-10.3647
蔡邕	-10.3647
陸䞇	-10.3648
芝	-10.3648
樊噲	-10.3648
攘	-10.3649
敬翔	-10.3649
太中大夫	-10.3649
羽林	-10.365
攸	-10.365
寵任	-10.365
銳	-10.365
輜重	-10.365
臺閣	-10.365
趙延壽	-10.3651
健	-10.3651
壺	-10.3651
徃徃	-10.3651
灌	-10.3651
椎	-10.3655
䕶軍	-10.3656
奇	-10.3656
征討	-10.3656
裹	-10.3657
欲殺	-10.3657
李愬	-10.3658
梁冀	-10.3658
馬援傳	-10.3659
謝之	-10.3661
訓注	-10.3661
稍稍	-10.3662
僧尼	-10.3662
曹參	-10.3662
侍讀	-10.3663
敕使	-10.3664
即今之	-10.3665
石顯	-10.3666
酈生	-10.3667
琯	-10.3667
乃罷	-10.3668
孝武	-10.3669
京官	-10.3669
元帥	-10.3669
仁義	-10.3671
闗東	-10.3672
在東宫	-10.3672
族滅	-10.3673
天寶	-10.3673
國寶	-10.3674
食邑	-10.3674
厚賞	-10.3678
望風	-10.3678
二千餘人	-10.3678
元濟	-10.3679
漢兵	-10.368
財物	-10.3681
壽陽	-10.3688
太過	-10.3693
賢良	-10.3693
得志	-10.3694
力戰	-10.3696
臣願	-10.3696
永平	-10.3703
臣之	-10.3705
近世	-10.3705
五經	-10.3706
乃知	-10.3707
備徳	-10.3707
堅守	-10.3708
遂良	-10.3709
來者	-10.3711
乗馬	-10.3711
其狀	-10.3715
力士	-10.3716
赦天下	-10.3718
罷之	-10.3724
前事	-10.3725
信任	-10.3728
大悦	-10.3731
失望	-10.3731
盛稱	-10.3732
擢用	-10.3734
九州	-10.3734
謂其	-10.3736
諸侯王	-10.3738
竝	-10.3742
京口	-10.3743
先王	-10.3746
威名	-10.3746
但恐	-10.3751
孫晟	-10.3752
傅太后	-10.3752
不取	-10.3758
聖主	-10.3767
奏罷	-10.3775
謂羣臣曰	-10.3776
不避	-10.3776
丹陽	-10.3781
召之	-10.3785
坦之	-10.3786
之𩔖	-10.3788
子良	-10.379
得幸	-10.3795
乎今	-10.3797
求和	-10.3804
或告	-10.3805
治天下	-10.3818
少年	-10.382
使天下	-10.3824
選用	-10.3825
安樂	-10.3826
之狀	-10.3835
取士	-10.3837
百匹	-10.3844
顔色	-10.3845
隨之	-10.3848
不改	-10.3848
以避	-10.3851
亡命	-10.3852
詰之	-10.3853
三分	-10.3864
是後	-10.3867
以奉	-10.3869
之亂	-10.3886
出師	-10.3889
有一	-10.3899
有如	-10.3902
狹	-10.3903
所生	-10.3903
不合	-10.3904
以充	-10.3909
曰彼	-10.391
為誰	-10.3911
以白	-10.3914
為僕射	-10.3919
其首	-10.392
大呼	-10.3924
何如對曰	-10.393
已來	-10.3932
覃	-10.3935
北軍	-10.3937
往者	-10.3943
所敗	-10.3946
責之	-10.3948
而有	-10.3948
王師	-10.3949
賂遺	-10.3954
梁王	-10.3969
守令	-10.3974
望見	-10.3975
者亦	-10.3979
之兵	-10.3985
二十一年	-10.3989
為一	-10.3996
責其	-10.3999
矣今	-10.4
議論	-10.401
衆議	-10.4011
髙昌	-10.4011
歎曰吾	-10.4016
因其	-10.4018
之師	-10.4024
矣然	-10.4031
以兵	-10.4031
江北	-10.4034
武帝時	-10.404
不起	-10.4059
令人	-10.4063
者乃	-10.4069
小臣	-10.4074
不忠	-10.4086
朝恩	-10.409
忝	-10.4091
其辭	-10.4097
論事	-10.4101
日中	-10.4105
不自	-10.4107
其間	-10.4109
戰於	-10.4113
事宜	-10.4119
其志	-10.412
禮樂	-10.4121
欲殺之	-10.4128
陛下之	-10.4136
逺方	-10.4139
兵部尚書	-10.4145
兵馬	-10.4146
命左右	-10.4146
自請	-10.4154
微行	-10.4157
呼曰	-10.4157
即時	-10.4158
之變	-10.4169
皆在	-10.4188
食之	-10.419
故謂之	-10.4191
修徳	-10.4196
其道	-10.4204
必敗	-10.4205
漢書	-10.4205
者先	-10.4214
敢言	-10.4215
怪之	-10.4216
姓名	-10.4217
又有	-10.4217
曰願	-10.4219
碎	-10.4223
為人臣	-10.4224
此誠	-10.4226
破之	-10.4226
請令	-10.4228
召還	-10.4236
大破之	-10.4238
乃為	-10.4242
等曰	-10.4244
未盡	-10.4252
其勢	-10.4259
清河	-10.4261
太宗謂	-10.4266
始得	-10.4271
譬	-10.4276
之任	-10.4279
軍將	-10.4281
陳蕃	-10.4284
罷朝	-10.4297
謁者	-10.4307
故云	-10.4307
喜曰	-10.4307
安禄山	-10.4311
白居易	-10.4313
收其	-10.4315
辭曰	-10.4316
延廣	-10.4317
漢室	-10.433
霑	-10.4334
發之	-10.4335
選舉	-10.4343
失所	-10.4352
自非	-10.4358
今年	-10.4364
以拒	-10.4365
璨	-10.4365
稱善	-10.4367
惠帝	-10.4371
之女	-10.4379
求之	-10.4383
九卿	-10.4386
乃令	-10.4387
太和	-10.4387
之下	-10.4389
大懼	-10.4394
好學	-10.4395
突	-10.4402
嫁	-10.4402
家事	-10.4408
第五倫	-10.4416
杖殺	-10.4416
鋭	-10.4417
魚朝恩	-10.4419
生於	-10.4421
昧	-10.4426
功徳	-10.4427
傍	-10.4428
淳	-10.4433
額	-10.4433
償	-10.4435
幣	-10.4435
之難	-10.4435
非其	-10.4436
王守澄	-10.4437
同列	-10.444
䜟	-10.4442
猜忌	-10.4442
裴延齡	-10.4443
琰	-10.4443
𨼆	-10.4444
太史	-10.4444
為人所	-10.4444
伊	-10.4445
然而	-10.4447
萬嵗	-10.4449
雖復	-10.4449
長沙	-10.445
建寧	-10.4451
甘露	-10.4452
塵	-10.4452
岑彭	-10.4452
與諸	-10.4453
場	-10.4453
封之	-10.4454
斧	-10.4455
申錫	-10.4455
鴻	-10.4456
閭	-10.4457
蟲	-10.4457
棘	-10.4457
桀紂	-10.4457
沂	-10.4458
衮	-10.446
濤	-10.446
范陽	-10.4461
淹	-10.4461
清泰元年	-10.4462
豹	-10.4462
阡能	-10.4463
當以	-10.4463
慕容垂	-10.4463
唱	-10.4464
鮪	-10.4464
丈夫	-10.4464
陋	-10.4464
迭	-10.4464
戾	-10.4465
賀若弼	-10.4465
填	-10.4465
碑	-10.4465
曳	-10.4465
撤	-10.4466
潁	-10.4466
想	-10.4466
維翰	-10.4467
暗	-10.4467
剖	-10.4467
叚	-10.4467
逵	-10.4468
阬	-10.4468
疆場	-10.4468
躁	-10.4468
𢎞農	-10.4469
昬	-10.4469
其名	-10.4469
榻	-10.447
宋申錫	-10.447
兮	-10.4471
禆將	-10.4471
斌	-10.4471
茅	-10.4471
翹	-10.4472
燭	-10.4472
叩	-10.4472
揮	-10.4472
稽首	-10.4472
悼	-10.4472
包	-10.4473
右補闕	-10.4473
蠻夷	-10.4473
障	-10.4473
愆	-10.4473
祝	-10.4473
稹	-10.4474
以後	-10.4474
隕	-10.4474
車騎將軍	-10.4475
姦佞	-10.4475
吐突承璀	-10.4475
頊	-10.4475
臯	-10.4475
宋楊侃輯	-10.4475
瑶	-10.4476
朱博	-10.4476
□	-10.4476
雉	-10.4477
劉備	-10.4477
闇	-10.4478
蓄積	-10.4478
谿	-10.4478
洎	-10.4479
軒	-10.4479
謂宜	-10.4479
鬭	-10.4479
味	-10.4479
田宅	-10.4479
受禪	-10.4479
睦	-10.448
珍玩	-10.4481
褚	-10.4481
懦	-10.4481
欣然	-10.4481
壽春	-10.4482
南山	-10.4482
山川	-10.4482
瓌	-10.4482
汴州	-10.4482
攀	-10.4483
筭	-10.4483
網	-10.4483
繫獄	-10.4483
互相	-10.4483
廓	-10.4484
宇文融	-10.4484
延徽	-10.4485
胷	-10.4485
縑	-10.4485
河南尹	-10.4487
二十餘年	-10.4487
股肱	-10.4487
苗	-10.4487
貞元三年	-10.4488
明旦	-10.4488
謂宰相曰	-10.4489
毁譽	-10.449
傳曰	-10.449
而入	-10.4491
爰	-10.4491
遊宴	-10.4492
嗇夫	-10.4492
財賦	-10.4492
久不	-10.4492
十月	-10.4493
王莽傳六十九	-10.4493
儒生	-10.4493
李輔國	-10.4493
髙駢	-10.4493
議郎	-10.4494
李氏	-10.4494
忠良	-10.4494
太廟	-10.4495
明徹	-10.4495
前朝	-10.4496
西京	-10.4496
擅權	-10.4497
校獵	-10.4499
以成	-10.4499
太后曰	-10.45
也陛下	-10.45
平原	-10.45
班固傳三十	-10.4501
貴寵	-10.4503
辭色	-10.4503
佞邪	-10.4504
數十年	-10.4504
乗間	-10.4504
行營	-10.4506
尊寵	-10.4507
胡廣	-10.4507
謝晦	-10.4507
楊氏	-10.4508
遷都	-10.4508
懷光	-10.4512
農夫	-10.4515
遂使	-10.4516
以西	-10.4516
為首	-10.4518
監國	-10.4523
喜怒	-10.4523
市人	-10.4525
河南北	-10.4525
轉相	-10.4526
山陽	-10.4526
金陵	-10.4526
不可得	-10.4526
草制	-10.4526
太白	-10.4527
自安	-10.4527
巴蜀	-10.4528
殆盡	-10.4531
元素	-10.4538
以法	-10.4542
延賞	-10.4547
寡人	-10.455
三王	-10.455
不能制	-10.4552
勞軍	-10.4555
為節度使	-10.4556
光逺	-10.4559
握兵	-10.4559
雖不	-10.4562
之位	-10.4564
今天下	-10.4566
而輕	-10.4568
義士	-10.4569
行儉	-10.4571
皆自	-10.4572
權重	-10.4573
盛徳	-10.4576
三族	-10.4581
侍衛	-10.4581
王晏	-10.4583
有五	-10.4583
獻帝	-10.4591
犯法	-10.4597
事覺	-10.4602
又注	-10.4603
杖殺之	-10.4604
嵗餘	-10.4604
有徳	-10.4606
十餘年	-10.4606
呉王	-10.4607
本朝	-10.4607
小吏	-10.4607
蒼生	-10.4612
給之	-10.4615
中朝	-10.4629
不忘	-10.4634
然猶	-10.464
敵國	-10.4641
所司	-10.4646
二州	-10.4652
之語	-10.4653
江都	-10.4659
明主	-10.4662
自此	-10.4665
為御史	-10.4666
讀曰	-10.4666
教化	-10.4669
汝輩	-10.467
其財	-10.4684
又聞	-10.4688
萬匹	-10.4696
曰王	-10.4697
擢為	-10.4697
妄言	-10.4699
端門	-10.4701
五更	-10.4717
曽不	-10.4722
士開	-10.4729
宣示	-10.4733
為尚書令	-10.4741
皆言	-10.4741
景遂	-10.4744
之力也	-10.4756
乃能	-10.4758
為所	-10.4759
已而	-10.4766
民有	-10.4774
以歸	-10.4776
宫闕	-10.4776
今若	-10.4779
國有	-10.4783
愛民	-10.4784
用法	-10.4792
言曰	-10.4792
而歸	-10.4805
七十	-10.4812
廢之	-10.4814
遂為	-10.4814
不獲	-10.4817
未必	-10.4819
載以	-10.4829
代王	-10.4829
朕今	-10.483
以防	-10.4831
死生	-10.4835
至洛陽	-10.4843
之象	-10.4845
問其故	-10.4853
則彼	-10.4857
以授	-10.4873
中宫	-10.4893
已成	-10.4898
緡	-10.4899
而成	-10.4909
三也	-10.4911
終身不	-10.4912
未嘗不	-10.4918
然之	-10.4922
上有	-10.4922
言事者	-10.4924
不仁	-10.4925
涯	-10.4927
為右	-10.4929
不覺	-10.4932
以報	-10.4937
久矣	-10.4937
乃召	-10.4937
省之	-10.4945
鎮之	-10.4946
中常侍	-10.495
安可	-10.4952
歸國	-10.4952
殷浩	-10.4964
皆殺之	-10.4969
欲以為	-10.4981
討之	-10.4982
不敢言	-10.501
大明	-10.501
城邑	-10.5011
名為	-10.5021
士馬	-10.5028
此非	-10.5028
之族	-10.5033
何乃	-10.5042
坦	-10.5044
顧命	-10.5046
其身	-10.5049
使臣	-10.5054
不親	-10.5055
陽城	-10.5058
王嘉	-10.5058
五十五	-10.5063
又問	-10.5068
首者	-10.507
不負	-10.5072
興兵	-10.5074
不果	-10.5077
大亂	-10.5078
十一	-10.5081
之南	-10.5085
師古曰言	-10.51
陛下宜	-10.5105
後代	-10.5106
也孟康曰	-10.511
賜爵	-10.5113
為患	-10.5121
性剛	-10.5126
為憂	-10.5131
吾兒	-10.5141
以下皆	-10.5143
二年以	-10.5161
以救	-10.5167
聖明	-10.5182
纂	-10.5183
中書門下	-10.5194
謝曰	-10.5197
歸漢	-10.5208
請依	-10.521
降人	-10.521
元和元年	-10.5213
上封事	-10.5221
何有	-10.5234
六國	-10.5238
帝王之	-10.5238
之重	-10.5239
為御史大夫	-10.5244
誥	-10.5248
之具	-10.5251
知卿	-10.5252
而起	-10.5252
其義	-10.5257
可得	-10.5258
户部	-10.5262
必死	-10.5263
唐兵	-10.5265
綺	-10.5266
二王	-10.5272
遏	-10.5273
其時	-10.5273
暇	-10.5274
将軍	-10.5279
之惡	-10.5284
示之	-10.5285
又奏	-10.5294
託以	-10.5294
之形	-10.5301
乃奏	-10.5307
也吾	-10.5311
不立	-10.5317
故稱	-10.5323
展	-10.5323
無常	-10.5324
之辭	-10.5324
裒	-10.5327
以名	-10.5331
舌	-10.5332
娯	-10.5337
拾遺	-10.5337
為戒	-10.5338
更為	-10.5343
閱	-10.5343
非也	-10.5344
非陛下	-10.5347
元和	-10.5348
自矜	-10.5348
陌	-10.5349
上表以為	-10.535
溥	-10.535
厚恩	-10.535
癡	-10.5353
潭	-10.5353
之賢	-10.5354
鬱林王	-10.5355
王侯	-10.5355
朂	-10.5356
泓	-10.5357
鸞	-10.5358
橫	-10.536
沙鉢略	-10.5361
内有	-10.5364
毛仲	-10.5364
非常	-10.5364
徼	-10.5365
隴	-10.5365
闔	-10.5366
村	-10.5366
頌	-10.5366
後周世宗	-10.5367
羡	-10.5367
姬	-10.5368
乙	-10.537
昨	-10.537
羨	-10.5371
亾	-10.5371
石頭	-10.5373
苻秦	-10.5373
塟	-10.5373
諂	-10.5373
留後	-10.5373
執金吾	-10.5374
節儉	-10.5374
巳	-10.5375
肇	-10.5375
廹	-10.5375
開府儀同三司	-10.5375
袴	-10.5375
開元二年	-10.5376
冏	-10.5376
箱	-10.5376
甄	-10.5377
茲	-10.5377
腰	-10.5377
漆	-10.5377
蕭望之	-10.5378
傾覆	-10.5378
守澄	-10.5378
酷吏	-10.5378
九江	-10.5378
滔	-10.5378
轡	-10.5378
忤㫖	-10.5379
旌旗	-10.538
閎	-10.538
怯	-10.538
探	-10.538
稻	-10.538
黄巾	-10.5381
扼	-10.5382
蒸	-10.5382
蕭瑀	-10.5382
埋	-10.5382
有才	-10.5382
杜悰	-10.5382
貳	-10.5382
崔祐甫	-10.5382
驢	-10.5383
貂	-10.5383
𨗳	-10.5383
畔	-10.5383
伶人	-10.5383
馭	-10.5384
畤	-10.5384
版	-10.5384
憤怒	-10.5384
誇	-10.5385
妬	-10.5385
猝	-10.5385
禽獸	-10.5385
左藏	-10.5385
逾	-10.5386
帷	-10.5386
䘏	-10.5386
綵	-10.5386
禮部尚書	-10.5386
俠	-10.5386
妨	-10.5387
昭儀	-10.5387
嗣源	-10.5387
臣愚以為	-10.5387
蠶	-10.5387
奉朝請	-10.5388
氐	-10.5388
暠	-10.5388
郊祀志	-10.5388
下宋沈樞撰	-10.5388
倨	-10.5388
翟	-10.5388
范雲	-10.5388
懇	-10.5389
杜黄裳	-10.5389
亢	-10.5389
束手	-10.5389
如今	-10.539
剪	-10.539
鐡	-10.539
羽翼	-10.539
閔帝	-10.539
陶侃	-10.5391
儼	-10.5391
腐	-10.5392
篆	-10.5392
幡	-10.5392
僭	-10.5392
心腹	-10.5392
嘉貞	-10.5392
髙允	-10.5392
堰	-10.5392
賈誼傳	-10.5393
魂	-10.5393
五品以上	-10.5393
鴈門	-10.5393
彫	-10.5393
愕然	-10.5394
傳三十四	-10.5394
流血	-10.5394
公孫𢎞	-10.5394
何事	-10.5395
嗜酒	-10.5395
諸儒	-10.5395
乞骸骨	-10.5396
劉晏	-10.5396
十餘日	-10.5397
五品	-10.5397
師丹	-10.5398
煩擾	-10.5398
窮極	-10.5398
扆	-10.5399
炭	-10.5399
柵	-10.5399
登城	-10.5399
洋	-10.54
弄權	-10.5401
旦夕	-10.5401
韓愈	-10.5401
江左	-10.5401
了	-10.5402
應募	-10.5402
可知	-10.5403
東京	-10.5404
髙麗	-10.5404
虚實	-10.5406
今日之	-10.5408
食貨志四	-10.5408
杜威	-10.5408
塢	-10.5409
年號	-10.541
文傑	-10.541
或問其故	-10.5411
内庫	-10.5414
蚡	-10.5414
持節	-10.5414
景讓	-10.5416
喪亂	-10.5416
三品	-10.5418
景達	-10.5421
特進	-10.5421
唐虞	-10.5421
晉室	-10.5421
事者	-10.5422
虚名	-10.5423
魏博	-10.5425
下吏	-10.5426
升平	-10.5429
至者	-10.5431
也如淳曰	-10.5433
莫如	-10.5434
而罷	-10.5434
乃還	-10.5435
憲宗曰	-10.5436
二十一	-10.5436
王珪	-10.5436
而言	-10.544
門户	-10.5441
諸道兵	-10.5442
直指	-10.5443
萬世	-10.5444
髙歡	-10.5444
張華	-10.5445
歸第	-10.5446
沈等	-10.5447
人無	-10.5447
諸郡	-10.5451
貧者	-10.5455
律令	-10.5458
吳漢	-10.5461
禍敗	-10.5462
盡節	-10.5468
建議	-10.5469
應對	-10.5471
嗣復	-10.5472
固守	-10.5473
入關	-10.5474
者或	-10.5474
出降	-10.5485
相接	-10.5485
無道	-10.5487
其徒	-10.5489
更衣	-10.5491
悉罷之	-10.5491
上言以為	-10.5492
師道	-10.5494
昭帝	-10.5496
廣漢	-10.5498
李宻	-10.5499
相聚	-10.5499
復恭	-10.5501
手足	-10.5501
焚之	-10.5504
一無所	-10.5505
承平	-10.5506
異日	-10.5512
令史	-10.5513
越王	-10.5515
車馬	-10.5515
勸進	-10.5516
思禮	-10.5516
開門	-10.5516
亦自	-10.5523
元帝曰	-10.5526
誅殺	-10.5528
兵討	-10.5528
諸國	-10.5528
禁兵	-10.553
或言	-10.5532
家貧	-10.5533
非有	-10.5534
正直	-10.5534
不習	-10.5541
有道	-10.5541
等並	-10.5543
十七	-10.5543
楊邠	-10.5547
魏州	-10.5547
嘗問	-10.5552
之餘	-10.5553
所舉	-10.5553
國政	-10.5556
一舉	-10.5557
乃爾	-10.5559
其一	-10.5562
大位	-10.5565
何人	-10.5571
受之	-10.5574
太一	-10.5576
魏謩	-10.5579
進兵	-10.5583
皆由	-10.5585
飲之	-10.5596
之約	-10.5601
三十萬	-10.5602
郡守	-10.5603
五百人	-10.5604
居中	-10.5606
部員外郎	-10.5609
不附	-10.5613
亦可	-10.5614
過惡	-10.5618
聞而	-10.563
上表請	-10.5634
之權	-10.5637
不減	-10.5641
勝之	-10.5642
驚曰	-10.5655
謂之曰	-10.5657
上帝	-10.5658
名士	-10.5659
樓下	-10.5669
不滿	-10.5673
之累	-10.5675
興元元年	-10.5678
皆無	-10.5682
既成	-10.5683
疾病	-10.5684
為本	-10.5684
亡也	-10.5688
公孫	-10.5689
賢者	-10.5693
左軍	-10.5696
憂懼	-10.57
晉州	-10.5702
文曰	-10.5707
何武	-10.5717
吏士	-10.5731
相如	-10.5734
二也	-10.5739
一言	-10.5756
何異	-10.5761
猶在	-10.5763
大義	-10.577
武臣	-10.5771
難得	-10.5773
言於上曰	-10.5779
今以	-10.578
起居	-10.578
人或	-10.579
曽	-10.579
嚴急	-10.5798
為大	-10.5802
髙祖以	-10.5805
冬至	-10.581
今已	-10.582
若以	-10.582
畏死	-10.5825
黨與	-10.5827
白衣	-10.5834
還宫	-10.5837
每有	-10.5837
謀之	-10.5841
之恩	-10.5841
不離	-10.5842
起復	-10.5846
勿復	-10.5848
漢髙祖	-10.5849
所致	-10.585
求官	-10.5856
若此	-10.586
仁孝	-10.5861
四十	-10.5869
圖之	-10.5869
以謝	-10.5872
又何	-10.5881
同心	-10.589
及聞	-10.5902
用其言	-10.5904
治民	-10.5907
千金	-10.591
朴	-10.591
其能	-10.5919
以文學	-10.5921
即以	-10.5923
下民	-10.5924
不解	-10.5926
論之	-10.5929
祖父	-10.5932
之期	-10.5941
也昔	-10.5942
兵少	-10.5942
北邊	-10.5951
不敢復言	-10.5953
過之	-10.5957
周兵	-10.5959
二日	-10.5972
又遣	-10.5981
臣於	-10.5983
之所以	-10.5983
朕欲	-10.5987
諭之	-10.5989
曰是	-10.5991
左右曰	-10.5991
便宜	-10.5994
元禮	-10.5999
取天下	-10.5999
將有	-10.6006
産	-10.6007
致死	-10.6011
天人	-10.6011
經術	-10.6015
居上	-10.6017
行則	-10.6019
上疏言	-10.6021
弭	-10.6022
張湯	-10.6025
復何	-10.603
素服	-10.6031
為國家	-10.6031
求見	-10.6031
乎遂	-10.6032
一曰	-10.6035
其職	-10.6045
無狀	-10.6045
皆當	-10.6048
私鑄	-10.6051
推之	-10.6051
罪惡	-10.6051
州長史	-10.6053
欲反	-10.6055
不去	-10.6068
丞相御史	-10.607
明皇曰	-10.6074
稱之	-10.6075
宴飲	-10.6078
百日	-10.6089
之右	-10.609
相國	-10.6094
不治	-10.6096
雖貴	-10.6112
察之	-10.6113
直以	-10.6115
從弟	-10.6124
足為	-10.6134
臣愚	-10.6137
神䇿	-10.6142
所由	-10.6142
欲自	-10.6148
天下之士	-10.6153
江州	-10.616
必將	-10.6162
此屬	-10.6163
秦人	-10.6167
髙陽	-10.6168
作大	-10.6175
别駕	-10.6177
肯	-10.618
一方	-10.6185
其門	-10.6187
吳人	-10.619
又令	-10.6194
何可	-10.6201
有過	-10.6202
不止	-10.6206
四月	-10.6209
宴集	-10.621
猶恐	-10.6211
二者	-10.6212
謂我	-10.6215
盡言	-10.6219
曰爾	-10.6224
至重	-10.6229
若今	-10.6242
雖為	-10.6258
三十七	-10.6262
得進	-10.6264
八百	-10.6268
恐有	-10.6272
之甚	-10.6272
金銀	-10.6275
立於	-10.6277
涼州	-10.6277
牛僧孺	-10.6278
年老	-10.6279
王室	-10.628
獨曰	-10.6284
不能盡	-10.6291
桂	-10.6296
命也	-10.6303
餘皆	-10.6305
也太宗	-10.6308
歸心	-10.6311
諜	-10.6312
素無	-10.6315
晉國	-10.6316
懌	-10.6316
急攻	-10.6317
嬖	-10.6318
諾	-10.632
詢	-10.6325
拜為	-10.6326
長孫无忌	-10.633
讓之	-10.633
晝	-10.6334
岐	-10.6335
亞	-10.6341
文帝以	-10.6342
訣	-10.635
公孫述	-10.6352
經略	-10.6352
萇	-10.6355
麾	-10.6359
諌議大夫	-10.6359
貧民	-10.6361
狎	-10.6362
李世勣	-10.6363
侔	-10.6364
墀	-10.6365
漕運	-10.6366
耿	-10.6366
家世	-10.6369
箭	-10.6369
酷	-10.6369
錦	-10.6369
局	-10.6369
拳	-10.637
太平公主	-10.637
州司户	-10.6371
慘	-10.6371
陳天嘉	-10.6371
冬十月	-10.6371
旻	-10.6371
圖䜟	-10.6372
敺	-10.6373
須臾	-10.6373
几	-10.6373
倩	-10.6373
憾	-10.6373
淪	-10.6373
手搏	-10.6374
栢	-10.6375
開運元年	-10.6375
孟知祥	-10.6375
彞	-10.6376
緒	-10.6376
管仲	-10.6376
閭閻	-10.6376
移檄	-10.6376
奢靡	-10.6377
盱眙	-10.6377
北歸	-10.6377
稷	-10.6378
穴	-10.6378
腸	-10.6378
之數	-10.6379
溝	-10.6379
隋煬帝	-10.638
墳	-10.638
幕府	-10.638
膠	-10.638
蓬	-10.6381
共為	-10.6381
菜	-10.6381
繫囚	-10.6381
韋后	-10.6381
羲	-10.6382
鄆州	-10.6382
殖	-10.6382
羯	-10.6382
史𢎞肇	-10.6382
祐甫	-10.6382
鮑宣	-10.6383
購	-10.6383
元稹	-10.6383
繼嗣	-10.6383
金紫	-10.6383
永貞元年	-10.6384
掘	-10.6384
成臯	-10.6384
濕	-10.6384
石勒	-10.6384
吳越	-10.6384
訾	-10.6384
禱	-10.6385
寓	-10.6385
折衝	-10.6385
猜	-10.6385
貟	-10.6385
漏泄	-10.6385
補闕	-10.6386
祭祀	-10.6386
宣慰	-10.6386
陛下誠能	-10.6386
雋	-10.6386
錢帛	-10.6386
偷安	-10.6386
侍宴	-10.6386
行臺	-10.6386
諧	-10.6386
球	-10.6387
悖	-10.6387
翻	-10.6388
吐谷渾	-10.6388
宇文	-10.6388
祀南郊	-10.6388
旬月	-10.6388
吝	-10.6388
顛	-10.6388
幸東都	-10.6388
聚歛	-10.6388
胄	-10.6389
來俊臣	-10.6389
曵	-10.6389
兵部侍郎	-10.6389
擔	-10.6389
渾瑊	-10.639
渙	-10.639
眀	-10.639
勗	-10.639
絳侯	-10.639
釐	-10.639
大厯十四年	-10.639
光禄勲	-10.6391
轉輸	-10.6391
揚雄傳五十七	-10.6391
沈慶之	-10.6391
賈充	-10.6391
鎻	-10.6391
王𤣥謨	-10.6392
繼岌	-10.6392
洲	-10.6392
蕭道成	-10.6392
曰凡	-10.6392
棊	-10.6392
苟	-10.6393
請罪	-10.6393
鬼神	-10.6393
軰	-10.6393
太微	-10.6394
臨軒	-10.6394
瑾	-10.6394
甥	-10.6394
也前書	-10.6394
浮華	-10.6394
妹	-10.6395
怖	-10.6395
戊	-10.6395
斵	-10.6395
詠	-10.6395
謀作亂	-10.6395
騎射	-10.6396
家給人足	-10.6396
稽顙	-10.6397
册	-10.6397
李錡	-10.6398
侵暴	-10.6398
檀道濟	-10.6398
即拜	-10.6398
鼻	-10.6399
張衡傳	-10.6399
呈	-10.64
荘宗	-10.64
第舍	-10.6401
倉猝	-10.6401
鶴	-10.6402
韋昭曰	-10.6402
婦女	-10.6402
夷狄	-10.6402
酈食其	-10.6402
潼	-10.6402
慰諭	-10.6402
扈從	-10.6403
正朔	-10.6404
璽書	-10.6404
後唐明宗	-10.6404
趙人	-10.6405
黄鍾	-10.6407
與漢	-10.6407
民不	-10.6407
鎮戍	-10.6408
功曹	-10.6409
王溥	-10.6409
高宗	-10.641
正月	-10.6411
兼侍中	-10.6411
微弱	-10.6412
談論	-10.6413
冀州刺史	-10.6415
瑑	-10.6416
宴樂	-10.6416
先驅	-10.6416
猶豫	-10.6416
善人	-10.6416
爵位	-10.6419
湖南	-10.6419
王偉	-10.642
顯宗	-10.642
勞苦	-10.6421
石虎	-10.6421
營田	-10.6422
大宛	-10.6422
江充	-10.6422
錢榖	-10.6424
號為	-10.6425
建州	-10.6425
徐氏	-10.6426
孝寛	-10.6426
武后	-10.6428
尚書郎	-10.6429
斬首	-10.643
者常	-10.643
李振	-10.6431
暴室	-10.6431
太史令	-10.6435
簡易	-10.6436
簡文帝	-10.6438
者輒	-10.6438
延年	-10.6439
闕下	-10.644
不知所為	-10.644
昭徳	-10.6442
常謂	-10.6442
盡誅	-10.6444
歴代	-10.6444
挺之	-10.6444
助之	-10.6444
命有司	-10.6445
不稱	-10.6445
遇賢	-10.6445
吳主	-10.6446
益甚	-10.645
為變	-10.6451
福州	-10.6452
莫若	-10.6452
四十六	-10.6454
江西	-10.6456
失職	-10.6457
入冦	-10.646
相賀	-10.6462
上下相	-10.6465
六合	-10.6466
至有	-10.6467
流亡	-10.6468
謝𤣥	-10.6468
天道	-10.647
仲言	-10.6471
請託	-10.6472
不逮	-10.6475
七上	-10.6475
丈人	-10.6476
讓能	-10.6477
常有	-10.6477
𤣥成	-10.6478
尺一	-10.6478
音樂	-10.6479
至建康	-10.6481
於朝堂	-10.6482
何能為	-10.6482
未可知	-10.6482
右丞相	-10.6483
將校	-10.6485
甚重之	-10.6487
武功	-10.6487
城西	-10.6488
必克	-10.6488
累日	-10.6489
長城公	-10.6491
外官	-10.6492
外間	-10.6497
親屬	-10.6497
及此	-10.6499
不戰	-10.65
進思	-10.65
或問	-10.65
懐文	-10.6501
淮南王	-10.6502
請誅之	-10.6502
還京師	-10.6503
除名	-10.6508
不亦	-10.6512
文侯	-10.6515
老子	-10.6515
聞其	-10.6516
相持	-10.652
上䟽	-10.6525
若使	-10.6527
曰先帝	-10.6532
之徒皆	-10.6533
當是時	-10.6534
不樂	-10.6538
日益	-10.6539
禦之	-10.6541
敏中	-10.6541
無厭	-10.6542
郎官	-10.6542
何力	-10.655
邊將	-10.6553
猶以	-10.6554
復召	-10.6559
太山	-10.6559
降於	-10.6562
諡曰	-10.6563
重任	-10.6563
後來	-10.6563
入謝	-10.6564
大體	-10.6565
相承	-10.6567
小過	-10.6575
為司空	-10.6578
為害	-10.6582
切諫	-10.6583
萬國	-10.6585
十八年	-10.6587
國士	-10.6593
渡江	-10.6594
伏見	-10.6598
以次	-10.6602
撫之	-10.6608
與語	-10.661
所以為	-10.6615
職在	-10.6619
顧望	-10.662
以代	-10.6623
諸生	-10.6624
軍門	-10.6625
等使	-10.6631
屬國	-10.6635
亦以為	-10.6635
世子	-10.6638
士衆	-10.664
之節	-10.6641
辭位	-10.6645
亂兵	-10.6645
宜速	-10.6645
相望	-10.6647
臣所	-10.6648
私謂	-10.665
志在	-10.6652
詔命	-10.6652
君長	-10.6655
數四	-10.6664
終無	-10.6667
藏之	-10.6668
平日	-10.6668
神䇿軍	-10.6672
梓	-10.6674
亦為	-10.6674
長生	-10.6681
論者	-10.6686
道徳	-10.6687
大赦	-10.6704
所求	-10.6707
前代	-10.6708
不便	-10.6708
固當	-10.6715
耳非	-10.6717
事不	-10.6722
時望	-10.6734
猶能	-10.6736
語之曰	-10.6737
乃許之	-10.6739
秦兵	-10.6742
誅宦官	-10.6744
而求	-10.6745
君侯	-10.6746
成功	-10.6753
聞有	-10.6756
不爾	-10.6756
外有	-10.6763
於獄	-10.6766
也後	-10.6767
兵於	-10.6775
三軍	-10.6776
亦以	-10.6782
已盡	-10.6782
所及	-10.6782
南面	-10.6784
意欲	-10.6789
遺詔	-10.6792
之將	-10.6795
無疑	-10.6796
危亡之	-10.6798
為左	-10.6799
義兵	-10.6806
大錢	-10.6817
不令	-10.6818
其謀	-10.6818
以遺	-10.6819
有常	-10.6821
長官	-10.6823
之北	-10.6826
令公	-10.683
與人	-10.683
自處	-10.6832
不通	-10.6847
憐之	-10.6847
乎乃	-10.6856
每見	-10.6858
以文	-10.6859
文帝問	-10.6863
人以為	-10.6867
揚州	-10.6869
不使	-10.687
三子	-10.687
一家	-10.6872
先自	-10.6886
故名	-10.6892
五帝	-10.6893
兩人	-10.6896
徴之	-10.6897
盡殺之	-10.69
不明	-10.6901
為便	-10.6903
右軍	-10.6906
在陛下	-10.6907
罪當死	-10.6917
何者	-10.6919
國用	-10.6919
之文	-10.6923
前殿	-10.6924
反者	-10.6926
百里	-10.6933
良將	-10.6934
朕所	-10.6945
所能	-10.6946
可立	-10.6947
孔子曰	-10.6948
分其	-10.6951
也因	-10.6952
以木	-10.6955
十六年	-10.6957
不思	-10.6958
為太尉	-10.6961
不得見	-10.6963
禮官	-10.6965
文王	-10.6966
可也	-10.6966
以進	-10.6969
之力	-10.6969
人間	-10.6976
是使	-10.6977
爭權	-10.6978
也徳宗	-10.6979
在朝	-10.6983
遂與	-10.6984
明矣	-10.6986
不濟	-10.699
所須	-10.6994
道也	-10.6997
水軍	-10.7001
以供	-10.7002
中官	-10.7005
欽定四庫全書兩漢博聞卷	-10.7013
故言	-10.7027
報之	-10.7036
而下	-10.7038
兵敗	-10.7041
之威	-10.7044
軍食	-10.7046
選人	-10.7049
示以	-10.705
延之	-10.7056
者當	-10.7058
賢人	-10.7059
髙力士	-10.7059
為朋黨	-10.706
之深	-10.707
北齊	-10.707
二萬人	-10.7071
多疾	-10.7072
呼為	-10.7074
所見	-10.7091
何從	-10.7093
罷相	-10.7098
素有	-10.7101
請誅	-10.7109
二十萬	-10.7112
步騎	-10.7112
者則	-10.712
入禁中	-10.7123
省事	-10.7125
尚在	-10.7139
問其	-10.7141
對䇿	-10.7144
於今	-10.7148
又多	-10.7149
則可	-10.7162
請與	-10.7163
車服	-10.7173
常居	-10.7175
安王	-10.7175
周勃	-10.7178
也於是	-10.7182
因謂	-10.7182
將何	-10.7183
離宫	-10.719
是謂	-10.7197
若能	-10.7205
死亡	-10.7205
皆曰	-10.7212
乎於是	-10.7215
亡國	-10.7217
之道也	-10.7227
大都督	-10.7232
數千里	-10.7236
▁注云	-10.7238
所至	-10.7241
王彦章	-10.7245
郡太守	-10.7248
惜之	-10.7248
任使	-10.725
而泣	-10.7254
議者以	-10.7255
更生	-10.7259
此則	-10.7262
或時	-10.7263
長孫無忌	-10.7263
四年初	-10.7264
歸命	-10.7265
欲去	-10.7275
也應劭曰	-10.7278
安定	-10.728
安知	-10.7285
太祖皇帝	-10.7288
仍以	-10.729
親故	-10.7297
豈宜	-10.7299
與羣臣	-10.7299
者獨	-10.7306
大官	-10.7312
其將	-10.7315
劉毅	-10.7316
等謀	-10.7317
於河	-10.732
諫太宗	-10.732
袁盎	-10.7321
善為	-10.7323
禮部侍郎	-10.7324
多言	-10.7327
罪狀	-10.7331
教之	-10.7333
南漢	-10.7333
女為	-10.7337
徳宗曰	-10.7337
擒之	-10.7337
盡矣	-10.735
譜	-10.7357
各自	-10.7374
怠	-10.7378
所奏	-10.7383
騎士	-10.7385
姦人	-10.7385
庶政	-10.7386
五十八	-10.7386
一國	-10.7388
謁見	-10.7393
凡所	-10.7395
法令	-10.7401
精騎	-10.7402
后曰	-10.7402
既平	-10.7403
宣徽使	-10.7408
自歸	-10.7421
以身	-10.7425
迺	-10.7427
事必	-10.7428
項籍	-10.7429
人之所	-10.7439
鋒	-10.7439
樞宻	-10.7441
逞	-10.7444
而行之	-10.7448
塹	-10.7449
孔光	-10.745
直入	-10.7454
僧孺	-10.7454
倣	-10.7454
玠	-10.7456
蘇逢吉	-10.7457
所引	-10.7458
人言	-10.7458
而生	-10.7459
異於	-10.746
輟	-10.746
犢	-10.746
裴耀卿	-10.7461
澳	-10.7461
大旱	-10.7464
地震	-10.7464
暨	-10.7465
師友	-10.7466
屈突通	-10.7467
虐	-10.7468
張柬之	-10.747
渤海	-10.7471
桓譚	-10.7472
盗鑄	-10.7472
蹙	-10.7475
詣行在	-10.7475
淚	-10.7475
椒房	-10.7475
銷	-10.7475
瓦	-10.7475
僚	-10.7476
李昭徳	-10.7476
謝罪	-10.7476
漕	-10.7476
遍	-10.7477
檻	-10.7477
敷	-10.7478
仁浦	-10.7479
士良等	-10.7479
廣明元年	-10.7479
三品以上	-10.748
興慶宫	-10.748
前書音義曰	-10.748
圓	-10.7481
維	-10.7481
𢎞倧	-10.7481
劉鄩	-10.7481
㸃	-10.7482
近者	-10.7482
綘	-10.7482
荀彧	-10.7482
未央宫	-10.7482
截	-10.7482
㤀	-10.7484
霧	-10.7484
搜	-10.7484
甘茂	-10.7484
廷望	-10.7485
龎	-10.7485
緣	-10.7485
輕薄	-10.7486
梁孝王	-10.7486
令狐楚	-10.7486
葛	-10.7486
遐	-10.7487
關内侯	-10.7487
節度判官	-10.7487
不可勝紀	-10.7487
冶	-10.7487
帷幄	-10.7487
冒頓	-10.7487
有憂色	-10.7488
疲弊	-10.7488
驚駭	-10.7488
狼狽	-10.7488
粉	-10.7488
大理卿	-10.7488
寔	-10.7488
槩	-10.7489
紛紜	-10.7489
泰始七年	-10.7489
寵之	-10.7489
烏孫	-10.749
疾篤	-10.749
勢傾朝野	-10.749
糶	-10.7491
衷	-10.7491
裏	-10.7491
仰視	-10.7491
承訓	-10.7492
文宗曰	-10.7492
遜位	-10.7492
兾	-10.7492
遊獵	-10.7492
河東節度使	-10.7492
邵	-10.7493
冩	-10.7493
殄	-10.7493
賜自盡	-10.7493
係	-10.7493
建元元年	-10.7493
紿	-10.7493
扞	-10.7493
驃騎大將軍	-10.7493
熾	-10.7494
妃嬪	-10.7494
家者流出於	-10.7494
貝	-10.7494
拾	-10.7494
長興四年	-10.7494
倉廪	-10.7494
楊光逺	-10.7495
异	-10.7495
草創	-10.7495
范延光	-10.7495
開運二年	-10.7495
挑戰	-10.7495
嬖倖	-10.7496
姬妾	-10.7496
汚	-10.7496
戯	-10.7496
楊綰	-10.7496
祕書監	-10.7496
朱滔	-10.7496
孚	-10.7496
元和三年	-10.7496
莫肯	-10.7497
髀	-10.7497
隴西	-10.7497
殿中侍御史	-10.7498
拙	-10.7498
朱穆	-10.7498
避位	-10.7498
甲乙	-10.7498
囂	-10.7498
桓彦範	-10.7498
伉	-10.7499
紂	-10.7499
田承嗣	-10.7499
不由	-10.7499
明皇命	-10.7499
汶	-10.7499
䑕	-10.75
珍寳	-10.75
當是之時	-10.75
河朔	-10.75
喧	-10.75
動揺	-10.7501
楊炎	-10.7501
迷	-10.7501
且請	-10.7501
焚香	-10.7501
朽	-10.7502
眉	-10.7502
佗	-10.7502
纎	-10.7502
桓靈	-10.7502
覬	-10.7502
元衡	-10.7502
萬緡	-10.7502
希範	-10.7502
右拾遺	-10.7503
許諾	-10.7504
隴右	-10.7504
蘓	-10.7504
左僕射	-10.7504
俛	-10.7504
劉秀	-10.7504
阿母	-10.7504
園陵	-10.7504
䝉遜	-10.7504
登樓	-10.7504
之請	-10.7505
低	-10.7505
草木	-10.7505
儉素	-10.7506
安肯	-10.7506
陛下必欲	-10.7506
能否	-10.7507
閭里	-10.7507
司馬懿	-10.7507
波	-10.7507
蕭曹	-10.7507
遙	-10.7508
後周太祖	-10.7508
沈約	-10.7508
𫝊瓘	-10.7509
採	-10.7509
琳	-10.7509
毗	-10.7509
魁	-10.7509
夀春	-10.7509
膏	-10.751
租庸使	-10.751
擠	-10.751
愠	-10.751
皇孫	-10.751
繞	-10.7511
諳	-10.7511
陽平公融	-10.7512
陳倉	-10.7512
遁去	-10.7512
魯仲連	-10.7513
疾疫	-10.7513
范質	-10.7513
傳七十二	-10.7513
復與	-10.7513
奔走	-10.7513
承㫖	-10.7514
太學	-10.7514
鄭氏曰	-10.7514
季述	-10.7514
兩京	-10.7515
幅巾	-10.7515
下邳	-10.7515
大秦國	-10.7515
幘	-10.7516
曰朝廷	-10.7516
注云漢官儀曰	-10.7516
老病	-10.7517
開府	-10.7517
長江	-10.7517
酒色	-10.7517
李廣傳	-10.7517
董仲舒	-10.7518
西羌	-10.7519
柩	-10.7519
盧把	-10.7519
㩁	-10.752
回紇	-10.752
險固	-10.7521
祖宗	-10.7521
張延賞	-10.7521
撞	-10.7521
解體	-10.7522
侯君集	-10.7523
温嶠	-10.7523
山林	-10.7524
至於此	-10.7524
實録	-10.7524
之費	-10.7525
跌	-10.7525
疑似	-10.7525
勞費	-10.7528
為前鋒	-10.7528
為庶人	-10.7529
尚書僕射	-10.7529
咸陽	-10.753
萬年	-10.7531
根本	-10.7531
嗣位	-10.7531
受賂	-10.7531
四十二	-10.7532
福建	-10.7532
兵馬使	-10.7533
崔光	-10.7533
精神	-10.7534
名儒	-10.7534
跋扈	-10.7535
矯詔	-10.7536
鄭光	-10.7536
琦	-10.7537
鐘	-10.7538
乘間	-10.7538
蘇武	-10.7538
四十九	-10.754
陳覺	-10.754
郭解	-10.754
霍光傳	-10.7541
就第	-10.7543
盜賊	-10.7544
曰吾欲	-10.7545
正統	-10.7548
治亂	-10.7549
禮儀	-10.755
東海王	-10.7551
不懌	-10.7552
方術	-10.7557
熈先	-10.7559
漢祖	-10.7559
四面	-10.756
李愚	-10.756
張昭	-10.7561
厲聲曰	-10.7562
鶡	-10.7562
切責	-10.7563
為社稷	-10.7564
和解	-10.7569
制之	-10.757
世之	-10.7572
衣服	-10.7572
名器	-10.7577
詣京師	-10.7578
初即位	-10.7581
至則	-10.7584
甚喜	-10.7586
宋州	-10.7586
禁止	-10.7586
貪殘	-10.7586
司𨽻	-10.7586
宰臣	-10.7587
髙氏	-10.7587
百餘里	-10.7588
亦以為然	-10.7589
聖心	-10.7592
走馬	-10.7592
莫敢言	-10.7593
持重	-10.7593
形勢	-10.7595
受賞	-10.7598
劉表	-10.7599
興廢	-10.7599
破家	-10.7601
所不	-10.7603
改易	-10.7604
待詔	-10.7605
主人	-10.7605
嚴刑	-10.7608
萬民	-10.7608
道襲	-10.7609
曰大王	-10.7609
惡其	-10.7609
東山	-10.7623
今日之事	-10.763
雲中	-10.7631
今臣	-10.7633
京畿	-10.7633
近親	-10.7635
周禮	-10.7637
文辭	-10.7641
今又	-10.7642
出門	-10.7642
自訴	-10.7646
連兵	-10.7648
蜀漢	-10.7648
宋王	-10.7653
諸所	-10.7655
境上	-10.7655
忠正	-10.7656
不祥	-10.7657
獨留	-10.7663
對曰臣聞	-10.7667
出征	-10.7667
愚謂	-10.7669
何其	-10.7669
所歸	-10.7671
者三	-10.7673
吾家	-10.7674
也一曰	-10.7676
明君	-10.7678
霸上	-10.768
反間	-10.7681
所費	-10.7682
器物	-10.7686
湘	-10.7691
奈何以	-10.7692
舊恩	-10.7692
求賢	-10.7696
不可使	-10.7699
琬	-10.77
臣不敢	-10.7702
者悉	-10.7702
給賜	-10.7705
何能	-10.7706
陽侯	-10.7707
尚不能	-10.7709
政令	-10.7711
西門	-10.7711
失守	-10.7714
既誅	-10.772
隨時	-10.7721
拜官	-10.7724
相對	-10.7727
字也	-10.773
引去	-10.7731
見者	-10.7731
忠於	-10.7738
諸鎮	-10.774
晉主	-10.7742
所制	-10.7744
止可	-10.7745
北周	-10.7745
不降	-10.7745
前將軍	-10.7745
請罷	-10.7753
有四	-10.7755
西南	-10.7758
陳留	-10.7764
當斬	-10.7767
當死	-10.7768
民心	-10.777
從容謂	-10.7772
由此	-10.7773
疑懼	-10.7775
還言	-10.7776
聖王	-10.778
由是有寵	-10.778
所陳	-10.7784
齊國	-10.7791
及弟	-10.7794
秦漢	-10.7796
魏武	-10.7797
而進	-10.7797
計其	-10.78
景延廣	-10.7801
用度	-10.7802
少者	-10.7807
為先	-10.7808
自可	-10.781
張永	-10.7814
不異	-10.7814
一等	-10.7814
因而	-10.7817
有司奏	-10.782
若陛下	-10.7822
關東	-10.7822
失節	-10.7823
將以	-10.7823
何罪	-10.7827
與之同	-10.783
尚可	-10.7833
為京兆尹	-10.7837
宜陽	-10.7839
師古曰謂	-10.784
一一	-10.7841
無遺	-10.7844
他人	-10.7845
自負	-10.7865
今欲	-10.7867
相攻	-10.7871
大理	-10.7882
自若	-10.7883
送之	-10.7887
千騎	-10.7887
其形	-10.789
問於	-10.7895
以一	-10.7895
殿上	-10.7896
因請	-10.7904
邪對曰	-10.7908
唯有	-10.791
嗣君	-10.792
異者	-10.7925
故能	-10.7925
下有	-10.7926
勝也	-10.7929
豈得以	-10.7931
百緡	-10.7933
言是也	-10.7933
方與	-10.7934
所以不	-10.7938
初平	-10.794
以鐵	-10.7945
西宫	-10.7949
終當	-10.7953
於事	-10.7962
士人	-10.7963
決之	-10.7972
宫殿	-10.7972
遂成	-10.7972
曰茍	-10.7975
出城	-10.7975
止之曰	-10.7977
大人	-10.7977
正色	-10.7982
表稱	-10.7984
知逺	-10.7984
自相	-10.7986
將卒	-10.7987
必待	-10.8002
漢之	-10.8002
親信	-10.8002
也對曰	-10.8003
位在	-10.8005
以罪	-10.8006
陳於	-10.8011
議事	-10.8025
薦之	-10.8026
北海	-10.8027
之㑹	-10.8029
復生	-10.8032
在前	-10.8036
始有	-10.8049
漢家	-10.8066
洪州	-10.8073
有事	-10.8075
徐曰	-10.8079
言而	-10.8082
天福十二年	-10.8083
手詔	-10.8085
識之	-10.8086
自誣	-10.809
王章	-10.8095
用為	-10.8095
下令	-10.8101
抵罪	-10.8101
國也	-10.8102
擇人	-10.8103
名臣	-10.8104
之子也	-10.8112
皆非	-10.8112
見殺	-10.8112
若今之	-10.8113
敵也	-10.8117
不歸	-10.8123
欲加	-10.8123
本無	-10.8125
死也	-10.813
恨之	-10.8137
諫曰陛下	-10.8143
所願	-10.8145
得幸於	-10.8148
曰子	-10.8152
尊卑	-10.8157
太宗曰朕	-10.8161
第五	-10.8161
人事	-10.8167
繼之	-10.8168
十日	-10.8174
為皇太子	-10.8183
朝貴	-10.8189
大用	-10.8191
以獻	-10.8195
納其	-10.8196
不能得	-10.8196
二十九	-10.8197
不憂	-10.8202
言陛下	-10.8205
乎且	-10.8211
黯	-10.8214
徳也	-10.8217
自恃	-10.8219
小黄門	-10.8228
遂有	-10.8232
先後	-10.8238
谷永	-10.824
出遊	-10.8242
肅宗曰	-10.8242
一子	-10.825
於中	-10.8254
三世	-10.8257
為郎	-10.8259
不對	-10.826
稱制	-10.8262
同年	-10.8265
璞	-10.8272
其國	-10.8276
耳乃	-10.8278
各以	-10.8281
當盡	-10.8282
之議	-10.8288
初立	-10.8289
已有	-10.8296
宴於	-10.8302
五年初	-10.8305
曰卿言	-10.8315
愬曰	-10.8315
自詣	-10.8316
從而	-10.8318
而東	-10.8319
冊命	-10.8322
於民	-10.833
如其	-10.8336
長樂	-10.8339
兵革	-10.8343
朝議	-10.8343
伐之	-10.8343
乎因	-10.8354
西至	-10.8359
多引	-10.836
免死	-10.8362
出閤	-10.8366
適之	-10.8369
簿書	-10.837
對曰昔	-10.8371
報仇	-10.8377
建武二年	-10.838
友人	-10.838
殺我	-10.8385
與同	-10.8391
事耳	-10.8398
實不	-10.84
大中	-10.8401
正人	-10.8401
之妻	-10.8401
於理	-10.8404
江漢	-10.8412
奏曰	-10.8413
陛下不	-10.8414
而走	-10.842
但當	-10.8421
具陳	-10.8421
牋	-10.8421
甚謹	-10.8422
又使	-10.8424
逺矣	-10.8424
至今	-10.8429
所長	-10.8429
無有	-10.8432
視朝	-10.8432
逺來	-10.8433
傳四	-10.844
員外郎	-10.8444
頗有	-10.8445
是則	-10.8448
曰國家	-10.8451
一門	-10.8454
行幸	-10.8457
不善	-10.8461
鞫	-10.8463
空虛	-10.8465
吾不	-10.8465
為臣	-10.8467
反逆	-10.8467
二十五	-10.8473
語云	-10.8476
保全	-10.8478
不就	-10.8483
乘之	-10.8484
為長	-10.8485
難以	-10.8487
市井	-10.8488
昭帝紀	-10.8491
宿衞	-10.8495
不備	-10.8495
行者	-10.8497
宫門	-10.8501
廖	-10.8501
不進	-10.8502
東北	-10.8503
雖多	-10.8504
將出	-10.8507
惡人	-10.8511
沛	-10.8512
聞陛下	-10.8514
元之	-10.8515
餘衆	-10.8516
而前	-10.8516
奉迎	-10.8519
行人	-10.852
詔令	-10.852
一州	-10.8523
以塞	-10.8524
酣	-10.8527
域	-10.8529
瓘	-10.8542
議以	-10.8542
都押牙	-10.8543
興元	-10.8547
下詔曰	-10.8547
無用	-10.8547
遷官	-10.8548
部落	-10.855
籌	-10.8554
之勞	-10.8556
之基	-10.8558
盡殺	-10.8561
任之	-10.8567
曰今日	-10.8568
二曰	-10.8572
從諫	-10.8577
以助	-10.858
下欽定四庫全書通鑑總𩔖卷	-10.8584
文帝曰	-10.8585
皆令	-10.8588
相州	-10.8589
以濟	-10.8591
是知	-10.8593
不過三	-10.8594
無言	-10.8597
築城	-10.86
也乃	-10.8602
持之	-10.8602
握	-10.8604
天心	-10.8608
三十一	-10.8616
者以其	-10.8623
貶官	-10.8624
所有	-10.8627
為非	-10.8637
三千人	-10.8638
山中	-10.8645
又命	-10.8646
甚於	-10.8646
榆	-10.8647
益驕	-10.8647
太極殿	-10.865
父為	-10.8651
不少	-10.8654
長孫	-10.8663
因問	-10.8666
袍	-10.8669
四出	-10.867
賣官	-10.8674
順宗	-10.8674
帝意	-10.8676
利於	-10.8677
賈誼	-10.8677
内侍	-10.8678
衆多	-10.868
宼	-10.868
宣帝紀	-10.8681
得其人	-10.8682
肩輿	-10.8684
亦猶	-10.8689
太上皇	-10.8689
亦不可	-10.8694
僧達	-10.8694
酋長	-10.8694
諫者	-10.8695
坤	-10.8696
劉向	-10.8697
賜與	-10.8697
經營	-10.8697
𤣥謨	-10.8697
遣兵	-10.8697
傳瓘	-10.8698
黜陟	-10.8699
嗜	-10.8701
大兵	-10.8702
復興	-10.8702
無人	-10.8702
訐	-10.8707
屬吏	-10.871
既失	-10.8711
吏皆	-10.8711
宛	-10.8713
髙貴鄉公	-10.8715
亦宜	-10.8716
引咎	-10.8716
宗實	-10.8716
罘罳	-10.8716
庭湊	-10.8718
耆	-10.8718
晙	-10.8718
誨	-10.8719
績	-10.872
天福三年	-10.872
豈敢	-10.8721
符瑞	-10.8721
知古	-10.8723
棟	-10.8723
琪	-10.8723
周師	-10.8724
酖	-10.8724
仇士良	-10.8724
賑	-10.8724
行道	-10.8724
漢主聰	-10.8725
定陶	-10.8726
綯	-10.8727
宰輔	-10.8728
欣	-10.8729
壓	-10.8729
恬	-10.8729
控	-10.873
顓	-10.873
覈	-10.8731
竇憲	-10.8731
潮	-10.8732
芳	-10.8732
宣城王	-10.8732
粤	-10.8732
賓	-10.8732
鳳翔	-10.8733
之明	-10.8733
慨然	-10.8733
皇嗣	-10.8733
貞觀之初	-10.8733
攘袂	-10.8733
黷	-10.8733
睹	-10.8734
即召	-10.8734
夏四月	-10.8734
誼	-10.8734
榖帛	-10.8735
垂拱	-10.8735
逃亡	-10.8735
漸臺	-10.8735
塲	-10.8735
愁	-10.8735
庚	-10.8735
桃	-10.8736
幄	-10.8736
囚之	-10.8736
季良	-10.8736
耆老	-10.8736
冕	-10.8736
晏駕	-10.8737
歙	-10.8737
修宫室	-10.8737
白敏中	-10.8737
恣横	-10.8737
潼闗	-10.8737
暢	-10.8738
稜	-10.8738
涕	-10.8738
弑逆	-10.8738
稀	-10.8738
脚	-10.8738
國子祭酒	-10.8738
封爵	-10.8738
翊	-10.8738
刋	-10.8738
捶	-10.8739
鎖	-10.8739
𤓰	-10.8739
好讀書	-10.8739
覩	-10.8739
巫蠱	-10.874
較	-10.874
檀	-10.874
縉紳	-10.874
箕	-10.874
窘	-10.874
躍馬	-10.874
鎧	-10.8741
奕	-10.8741
紫宫	-10.8741
屍	-10.8741
平盧節度使	-10.8741
倓	-10.8741
勇力	-10.8742
秦王從榮	-10.8742
夭	-10.8742
眠	-10.8742
羅夫子	-10.8742
𢎞㣲	-10.8742
彬	-10.8742
渴	-10.8742
邊鎬	-10.8742
哲	-10.8742
何面目	-10.8743
智光	-10.8743
五銖	-10.8743
響	-10.8743
元達	-10.8743
畝	-10.8743
忠嗣	-10.8743
䕫	-10.8743
左馮翊	-10.8743
枚	-10.8743
灾	-10.8743
龕	-10.8743
工部尚書	-10.8743
須㬰	-10.8744
約束	-10.8744
凶逆	-10.8744
琴	-10.8744
孔謙	-10.8744
慟	-10.8744
大厯元年	-10.8744
夏侯勝	-10.8744
晨夜	-10.8744
著作郎	-10.8744
皆喜	-10.8745
神龍元年	-10.8745
挂	-10.8745
廼	-10.8745
營繕	-10.8745
慰撫	-10.8746
竿	-10.8746
闔門	-10.8746
事遂寢	-10.8746
領軍將軍	-10.8746
紅	-10.8746
虎牢	-10.8746
羨餘	-10.8746
驟	-10.8747
昌宗	-10.8747
端明殿學士	-10.8747
昵	-10.8747
太宰	-10.8747
卵	-10.8747
吉甫	-10.8748
隘	-10.8748
咫尺	-10.8748
盈珍	-10.8748
冗	-10.8748
奨	-10.8748
竇融	-10.8748
述律后	-10.8748
韋執誼	-10.8748
張遇賢	-10.8748
駙馬	-10.8748
跨	-10.8749
隷	-10.8749
沐	-10.8749
郤	-10.8749
和士開	-10.8749
楊震	-10.8749
韻	-10.875
天下幸甚	-10.875
薛延陁	-10.875
詗	-10.875
驩	-10.875
臧否	-10.875
赦其罪	-10.875
師古曰凡言	-10.875
廡下	-10.875
釀	-10.875
苖	-10.8751
熹	-10.8751
富饒	-10.8751
楊復恭	-10.8751
杜佑	-10.8751
執誼	-10.8751
組	-10.8752
王涯	-10.8752
羈	-10.8753
徼幸	-10.8753
訟寃	-10.8753
比肩	-10.8753
丙吉	-10.8754
𢎞佐	-10.8754
知制誥	-10.8754
劉仁贍	-10.8754
雒陽	-10.8754
抱真	-10.8754
挈	-10.8754
騫	-10.8755
刺史縣令	-10.8755
袁粲	-10.8755
箴	-10.8755
觴	-10.8755
穉	-10.8755
大司農	-10.8755
枯	-10.8755
休仁	-10.8755
匡範	-10.8755
誑	-10.8756
勤勞	-10.8756
寐	-10.8756
西京留守	-10.8756
𢎞俶	-10.8756
司馬昭	-10.8757
元和四年	-10.8757
陳希烈	-10.8757
趙巖	-10.8757
睚眦	-10.8757
鏖	-10.8757
太夫人	-10.8757
乾祐元年	-10.8757
西域傳六十六	-10.8757
鍾會	-10.8757
嫌疑	-10.8758
灌嬰	-10.8758
掾史	-10.8758
容貌	-10.8758
鞍	-10.8758
樞機	-10.8759
大理少卿	-10.8759
樵	-10.8759
鄂	-10.8759
賦斂	-10.8759
倉庫	-10.876
精銳	-10.876
輔導	-10.8761
竄	-10.8761
行瑜	-10.8761
吕后	-10.8761
魯肅	-10.8761
逆順	-10.8762
案驗	-10.8762
塗炭	-10.8762
廣平王	-10.8762
定襄	-10.8762
崔駰傳	-10.8762
譴責	-10.8763
黥	-10.8763
藺	-10.8763
少傅	-10.8763
歩騎	-10.8763
被甲	-10.8764
裴行儉	-10.8764
心膂	-10.8764
腕	-10.8764
貞觀二年	-10.8764
閉門	-10.8765
未㡬	-10.8765
唾	-10.8765
亷恥	-10.8765
貧賤	-10.8766
資糧	-10.8766
張嘉貞	-10.8767
馬燧	-10.8767
地理志八	-10.8767
秋冬	-10.8767
更命	-10.8768
杜詩	-10.8768
季布	-10.8769
勝也紹	-10.877
婁	-10.877
春夏	-10.877
梓宫	-10.8771
老母	-10.8771
袁術	-10.8771
盪	-10.8772
渥	-10.8772
單騎	-10.8773
為尚書	-10.8773
味道	-10.8773
張承業	-10.8773
此賊	-10.8774
倉卒	-10.8774
長揖	-10.8775
朱氏	-10.8775
並同平章事	-10.8777
曹節	-10.8778
羣盜	-10.8778
伏誅	-10.8778
后妃	-10.8778
武庫	-10.8779
承勲	-10.8779
夜半	-10.878
浮屠	-10.878
威福	-10.878
斷絶	-10.8781
極刑	-10.8782
呉越	-10.8782
逃歸	-10.8783
梁冀傳	-10.8783
茂陵	-10.8783
黄霸	-10.8783
司刑	-10.8784
連年	-10.8784
爾曹	-10.8786
日食	-10.8786
累世	-10.8786
李沖	-10.8787
積年	-10.8789
大駭	-10.8789
衆庶	-10.8789
王莽傳	-10.879
三尺	-10.8791
王敦	-10.8791
威儀	-10.8791
惑衆	-10.8792
還建康	-10.8792
長驅	-10.8792
伏願	-10.8792
太保	-10.8794
流俗	-10.8794
下詔稱	-10.8795
為賊	-10.8796
改容	-10.8797
景從	-10.8797
曏使	-10.88
佛法	-10.88
建業	-10.88
李訓	-10.8801
比年	-10.8802
九品	-10.8802
前驅	-10.8802
顯宗紀永平	-10.8804
親黨	-10.8804
胡騎	-10.8805
宫市	-10.8805
殊禮	-10.8806
太子詹事	-10.8806
問其故對曰	-10.8808
私第	-10.8809
試守	-10.881
燕趙	-10.8811
窮治	-10.8812
禮畢	-10.8813
諸弟	-10.8813
中二千石	-10.8813
金玉	-10.8816
後庭	-10.8817
數以	-10.8818
糴	-10.8818
何暇	-10.882
以寛	-10.882
無賴	-10.882
赤子	-10.882
懐義	-10.8823
苑中	-10.8824
執事	-10.8824
滅之	-10.8824
私恩	-10.8825
使我	-10.8826
令坤	-10.8827
誰能	-10.883
隂謀	-10.883
大慙	-10.8832
為唐	-10.8832
殿前	-10.8832
目前	-10.8833
聚衆	-10.8834
公輩	-10.8835
震駭	-10.8837
親舊	-10.8837
孰與	-10.884
所短	-10.8844
乘馬	-10.8846
攻取	-10.8846
武徳	-10.8847
北魏主	-10.8847
假子	-10.8848
門人	-10.8851
二萬	-10.8852
此其所以	-10.8853
中華	-10.8854
騎兵	-10.8854
唐室	-10.8855
四也	-10.8855
百口	-10.8858
敬武	-10.8861
集百官	-10.8861
致治	-10.8861
不軌	-10.8862
懐帝	-10.8863
一事	-10.8865
永安	-10.8865
王叔文	-10.8866
後數日	-10.8866
怒甚	-10.8867
廣平	-10.8868
守備	-10.8869
大駕	-10.8869
黄龍	-10.8869
宜早	-10.887
出家	-10.887
復書	-10.8871
失利	-10.8873
楊州	-10.8875
而食之	-10.8876
明府	-10.8876
諌官	-10.8877
劉向傳	-10.8879
女主	-10.8879
適足	-10.888
豈惟	-10.8881
幾何	-10.8882
小學	-10.8882
重榮	-10.8882
遂定	-10.8883
入援	-10.8884
土地	-10.8885
直諫	-10.8885
盡力	-10.8887
名位	-10.8888
炳之	-10.8889
難制	-10.889
相結	-10.8891
失於	-10.8893
聞之曰	-10.8898
太官	-10.8899
五代	-10.8899
侍臣	-10.8899
髙后	-10.8903
棄市	-10.8903
衞將軍	-10.8904
常置	-10.8906
庶人	-10.8911
王郎	-10.8911
不奉詔	-10.8912
三十人	-10.8912
形如	-10.8912
自固	-10.8914
私謁	-10.8915
兩軍	-10.8926
今兹	-10.893
庭中	-10.8931
右將軍	-10.8931
安國	-10.8934
矣夫	-10.8934
無失	-10.8935
皆賀	-10.8939
召對	-10.894
元元	-10.894
養子	-10.894
小有	-10.8941
同異	-10.8941
桓公	-10.8943
各置	-10.8943
為樞宻使	-10.8944
用刑	-10.8945
者非	-10.8945
其議	-10.8946
之險	-10.8949
建平	-10.895
不能守	-10.8951
聲名	-10.8951
三州	-10.8951
大敵	-10.8954
執法	-10.8956
既行	-10.8957
愁怨	-10.8958
鄴都	-10.8959
能如是	-10.896
三府	-10.8961
在側	-10.8964
行而	-10.8967
曰汝曹	-10.8969
後嗣	-10.8969
於地	-10.8969
行刑	-10.8972
仍命	-10.8972
下殿	-10.8973
平定	-10.8973
既定	-10.8979
食盡	-10.8983
詩曰	-10.8983
之由	-10.8985
者也今	-10.8985
以從	-10.8987
城門	-10.8993
王允	-10.8996
士庶	-10.9
治道	-10.9003
私藏	-10.9006
我家	-10.9007
莫有	-10.9009
光武紀更始	-10.9014
周赧王	-10.9016
大亮	-10.9018
以前	-10.9021
賞之	-10.9028
頗多	-10.9028
求福	-10.9028
民財	-10.9031
兵力	-10.9032
公事	-10.9033
必至	-10.9034
竊議	-10.9036
於宫中	-10.9037
王王	-10.9044
馬周	-10.9046
去之	-10.9051
小城	-10.9053
稱疾不	-10.9054
一說	-10.9055
十餘里	-10.9059
决於	-10.9065
之會	-10.9065
見疑	-10.9066
中間	-10.9068
生日	-10.9073
則天下	-10.9081
於鄴	-10.9081
知名	-10.9085
昭王	-10.9086
於世	-10.9087
所損	-10.9093
先主	-10.9094
而君	-10.9098
大鎮	-10.91
使與	-10.9101
失道	-10.9105
不足為	-10.911
諸子皆	-10.9111
無為	-10.9113
吾與	-10.9117
内殿	-10.9118
且以	-10.9121
少子	-10.9122
而返	-10.9122
使不得	-10.9129
精於	-10.9131
對曰此	-10.9132
欽定四庫全書通鑑總𩔖卷十	-10.9134
内附	-10.9141
仙人	-10.9142
其舊	-10.9143
遂殺之	-10.9143
十萬緡	-10.9146
以通	-10.9148
也漢	-10.9149
三秦	-10.9152
之樂	-10.9154
也凡	-10.9158
關西	-10.917
往見	-10.9173
典選	-10.9181
今始	-10.9188
施之	-10.9189
李希烈	-10.9196
水中	-10.9197
潞州	-10.9198
請加	-10.9199
同謀	-10.9202
中國之	-10.9204
魏相	-10.921
遂克	-10.9211
所執	-10.9217
衆不	-10.922
所惡	-10.9224
以竹	-10.9228
無才	-10.923
民力	-10.9235
羣臣議	-10.924
開延英	-10.9241
武事	-10.9243
家國	-10.9247
受冊	-10.9254
立太子	-10.9254
其半	-10.9259
權臣	-10.9259
安居	-10.926
社稷之	-10.9265
廢太子	-10.9267
之忠	-10.9273
軍吏	-10.9277
因與	-10.9277
而釋之	-10.9279
舊典	-10.9282
一時之	-10.9283
之象也	-10.9285
作色	-10.9289
擊破	-10.929
應死	-10.9295
輩皆	-10.9297
兵甲	-10.9297
在坐	-10.9299
子也	-10.9301
太宗以	-10.9303
與汝	-10.9305
之親	-10.9307
將發	-10.9307
合兵	-10.9309
舊人	-10.9309
及還	-10.9313
不殺	-10.9315
所獲	-10.9319
為念	-10.9323
法官	-10.9325
屬官	-10.9326
若果	-10.9329
信重	-10.9335
者所以	-10.9335
不愛	-10.9351
宿將	-10.9351
若復	-10.9351
中郎	-10.9355
不可勝數	-10.9364
計者	-10.9371
不須	-10.9372
且夫	-10.9375
宥之	-10.9377
今主上	-10.9377
王后	-10.9379
二相	-10.9391
得一	-10.9392
使者至	-10.9394
楚人	-10.9398
外國	-10.9405
所知也	-10.9406
之主	-10.941
從容問	-10.9411
等議	-10.9412
君之	-10.9418
今朝廷	-10.9426
者無	-10.9429
御之	-10.9431
勿令	-10.9435
捐之	-10.9439
者千餘人	-10.9442
北宫	-10.9446
八九	-10.9447
事多	-10.9451
讓之曰	-10.9452
夫以	-10.9452
徒以	-10.9459
州都督	-10.946
恐懼	-10.9464
所出	-10.9472
大起	-10.9475
怒曰汝	-10.9475
與契丹	-10.9478
乎又	-10.9479
有一人	-10.9479
舉者	-10.9486
外事	-10.9501
上欽定四庫全書通鑑總𩔖卷	-10.9506
曰此乃	-10.9507
記室	-10.9508
萬騎	-10.9509
長也	-10.9515
王命	-10.9527
大同	-10.9534
馳入	-10.9535
有舊	-10.9536
悰曰	-10.9536
為逆	-10.9542
主之	-10.9551
光武以	-10.9551
致書	-10.9554
入闗	-10.9556
而至	-10.9556
門東晉	-10.9575
可使	-10.9578
之失	-10.958
必能	-10.9584
乃拜	-10.9586
論功	-10.9588
杜預	-10.9603
為中書令	-10.9603
五王	-10.9609
五星	-10.961
奏聞	-10.9612
寧可	-10.9614
羊祜	-10.962
天時	-10.9621
既罷	-10.9621
皆應	-10.9624
雍州	-10.9627
為己	-10.9627
不畏	-10.9628
四萬	-10.9629
昭義	-10.963
上䟽曰	-10.9631
所坐	-10.9637
之敗	-10.9645
大過	-10.9646
浩曰	-10.9651
請改	-10.9654
理之	-10.9661
邊境	-10.9666
昔在	-10.9666
治國	-10.9667
將何以	-10.9667
以古	-10.9668
注云言	-10.9671
當自	-10.9676
覺之	-10.968
也明皇	-10.9681
語及	-10.9688
引之	-10.9688
在道	-10.9689
明皇以	-10.9691
簒	-10.9696
用耳	-10.9698
一二	-10.9699
處也	-10.9701
以禦	-10.9702
十一月	-10.9706
愛其	-10.9707
定矣	-10.9714
書云	-10.9715
大計	-10.9716
家之	-10.9722
者百餘人	-10.9731
出戰	-10.9737
卿何	-10.9741
然終	-10.9744
權勢	-10.9746
稱職	-10.9746
竝同平章事	-10.9756
大言	-10.9768
令天下	-10.9771
愎	-10.9772
臣以為	-10.9772
馮延巳	-10.9773
千匹	-10.9779
然自	-10.9787
兄也	-10.9787
光武令	-10.9788
陛下何	-10.9789
曏者	-10.9792
數百萬	-10.9793
力不能	-10.9796
之宜	-10.9796
怨之	-10.9799
劉知逺	-10.98
而來	-10.9801
以重	-10.9811
髙平	-10.9821
欲斬	-10.9822
盡死	-10.983
之彊	-10.983
也宜	-10.9834
所行	-10.9835
之人也	-10.9837
畜養	-10.9844
其子孫	-10.9853
還山	-10.986
樞密使	-10.986
𤣥曰	-10.9861
得歸	-10.9868
守相	-10.9868
之門	-10.987
以誅	-10.9871
五也	-10.9874
於山	-10.9874
則亂	-10.9877
不預	-10.9878
優劣	-10.988
艘	-10.9884
見太后	-10.9885
卒以	-10.9887
為業	-10.989
光武曰	-10.9895
先斬	-10.99
所立	-10.9901
今見	-10.9902
不可用	-10.9906
損益	-10.991
所向	-10.991
取民	-10.9912
門北魏	-10.9918
驕奢	-10.9918
武備	-10.9925
無子	-10.9927
者唯	-10.9934
非吾	-10.9935
遂安	-10.9939
二十二年	-10.9939
民多	-10.9941
其術	-10.9944
責之曰	-10.9944
一見	-10.9945
士皆	-10.9947
為三公	-10.9947
曰不可	-10.9948
名家	-10.9956
與左右	-10.9957
元年初	-10.9958
大夏	-10.9962
所論	-10.9966
姑息	-10.9967
未服	-10.9968
宫禁	-10.9969
之有司	-10.9976
所望	-10.9977
賦役	-10.9979
故謂	-10.9979
行在	-10.998
常與	-10.9982
公綽	-10.9985
兵柄	-10.9991
并州	-10.9991
之歡	-10.9995
邇	-10.9996
毆	-10.9999
文進	-10.9999
不得入	-11.0001
七日	-11.0003
畿	-11.0011
元光	-11.0012
宻謀	-11.0014
相當	-11.0018
曰自今	-11.0019
請降	-11.0019
永嘉	-11.0021
無名	-11.0035
以徳	-11.0035
邊軍	-11.0037
部將	-11.0038
六十五	-11.004
過人	-11.0053
極諫	-11.0053
以金	-11.0055
数	-11.0057
衛尉	-11.0058
大會	-11.006
司農卿	-11.0066
甘泉	-11.0068
南燕	-11.0071
宜令	-11.0072
重以	-11.0072
樞密	-11.0073
官司	-11.0073
論曰	-11.0075
中大夫	-11.0075
貲	-11.0078
恒州	-11.0079
嗟	-11.0083
素為	-11.009
無過	-11.009
辜	-11.0091
進賢	-11.0093
使民	-11.0098
餘人	-11.01
文宣	-11.0103
皆斬之	-11.0103
於大	-11.0105
以討	-11.0105
司馬遷傳	-11.0108
以千數	-11.0111
死罪	-11.0112
曰明公	-11.0119
郭璞	-11.012
嶷	-11.012
銘	-11.0121
柏	-11.0124
君臣之	-11.0125
德鈞	-11.0127
百官表	-11.0127
何待	-11.0128
死無	-11.0133
何言	-11.0134
弁	-11.0135
羽檄	-11.0135
鎧仗	-11.0136
突騎	-11.0138
鹽鐵	-11.0139
隗	-11.0141
兖	-11.0142
𣙜	-11.0142
衫	-11.0142
數為	-11.0142
儁	-11.0144
摶	-11.0144
曖昧	-11.0144
非一	-11.0145
鄗	-11.0146
鉗	-11.0146
韓熈載	-11.0147
萊	-11.0147
奐	-11.0148
訛	-11.0149
明帝曰	-11.015
殷仲文	-11.015
慷慨	-11.0151
邏	-11.0151
晏球	-11.0151
尼	-11.0151
叟	-11.0152
薊	-11.0152
蹤	-11.0153
籠	-11.0153
栗	-11.0153
郵	-11.0153
鴟夷	-11.0153
矢石	-11.0154
安樂公主	-11.0154
天授元年	-11.0156
都城	-11.0156
鱣	-11.0156
揔	-11.0157
珏	-11.0157
玩	-11.0157
裴炎	-11.0157
鍾離	-11.0157
惶	-11.0158
劉盆子	-11.0158
同光元年	-11.0158
崖	-11.0158
幢	-11.0158
雞鳴	-11.0158
巽	-11.0159
景雲元年	-11.016
恐非所	-11.016
交阯	-11.016
鵲	-11.016
庶㡬	-11.016
敦煌	-11.016
吏部郎	-11.0161
貎	-11.0161
漳	-11.0161
出入宫掖	-11.0161
乂	-11.0161
估	-11.0162
芻	-11.0162
兖州刺史	-11.0162
弈	-11.0162
渭水	-11.0162
僮僕	-11.0162
鍔	-11.0162
泗	-11.0162
模	-11.0162
朱敬則	-11.0162
仆	-11.0162
承偕	-11.0163
複	-11.0163
令狐綯	-11.0163
從事中郎	-11.0163
湊	-11.0163
酎	-11.0164
霜	-11.0164
徭	-11.0164
僮	-11.0164
恚	-11.0164
東方朔傳三十五	-11.0164
天雄節度使	-11.0164
稼穡	-11.0165
鄧艾	-11.0165
陣	-11.0165
淄青	-11.0165
稠	-11.0165
虎魄	-11.0165
孽	-11.0165
徐邈	-11.0165
長壽元年	-11.0165
汎	-11.0166
豕	-11.0166
膽	-11.0166
所賜	-11.0167
稼	-11.0167
腹心之疾	-11.0167
帯	-11.0167
武元衡	-11.0167
五十六	-11.0167
開成元年	-11.0167
昇	-11.0167
陳其	-11.0168
叙傳七十	-11.0168
區區	-11.0168
王世充	-11.0168
幸姬	-11.0168
確	-11.0168
麤	-11.0168
窮困	-11.0168
糟	-11.0168
廬江	-11.0168
潁川太守	-11.0168
響應	-11.0168
昆明池	-11.0168
數十騎	-11.0169
宵	-11.0169
沔	-11.0169
中元元年	-11.0169
妓	-11.0169
笑之	-11.0169
賦歛	-11.0169
沃	-11.0169
太常博士	-11.0169
廩	-11.017
李訓鄭注	-11.017
油	-11.017
廊	-11.017
三百里	-11.017
詆	-11.017
租稅	-11.017
狐疑	-11.017
繒帛	-11.017
翫	-11.017
𨼆居	-11.017
總管	-11.017
訥	-11.017
團	-11.017
守宰	-11.0171
卞	-11.0171
閩主曦	-11.0171
後唐莊宗	-11.0171
鄜坊	-11.0171
虢	-11.0171
噲	-11.0171
淮泗	-11.0171
技	-11.0171
品藻	-11.0171
鎮撫	-11.0172
倡	-11.0172
駙馬都尉	-11.0172
歸田里	-11.0172
社稷之福	-11.0172
朝覲	-11.0172
㳺	-11.0172
俾	-11.0172
枝葉	-11.0172
殫	-11.0172
炙	-11.0172
逄	-11.0172
自疑	-11.0172
覘	-11.0173
拓	-11.0173
楚王殷	-11.0173
用度不足	-11.0173
婁敬	-11.0173
仙客	-11.0173
可為	-11.0173
事也	-11.0174
挽	-11.0174
悴	-11.0174
姻	-11.0174
鎬	-11.0174
亞夫	-11.0174
周瑜	-11.0174
虎狼	-11.0174
舟艦	-11.0174
遊畋	-11.0174
壮	-11.0174
震驚	-11.0174
徐湛之	-11.0174
嶽	-11.0174
芥	-11.0175
拱	-11.0175
梁天監	-11.0175
佯	-11.0175
渠犂	-11.0175
賑給	-11.0175
轍	-11.0175
搢紳	-11.0176
柬之	-11.0176
元和十四年	-11.0176
徭役	-11.0176
大鴻臚	-11.0176
葦	-11.0176
皁	-11.0176
頥	-11.0176
斜封	-11.0177
糒	-11.0177
訕	-11.0177
峽	-11.0177
教坊	-11.0177
賈捐之	-11.0177
富室	-11.0177
延岑	-11.0177
諒	-11.0177
愿	-11.0177
雒	-11.0177
紛紛	-11.0177
捧	-11.0177
延夀	-11.0177
輔佐	-11.0177
番	-11.0177
凍	-11.0178
秉政	-11.0178
勍敵	-11.0178
捽	-11.0178
仁逹	-11.0178
阪	-11.0178
戢	-11.0178
演	-11.0178
彗	-11.0179
麴	-11.0179
蔣𤣥暉	-11.0179
豹尾	-11.0179
從誨	-11.0179
李紳	-11.0179
藁	-11.018
饋遺	-11.018
聚斂	-11.018
六品以下	-11.018
畨	-11.018
陵侮	-11.018
顯逹	-11.018
訛言	-11.018
永淳元年	-11.018
釋名曰	-11.018
頂	-11.018
首唱	-11.018
楊再思	-11.018
滋甚	-11.0181
善其言	-11.0181
慄	-11.0181
劉更生	-11.0182
悉輸	-11.0182
舛	-11.0182
中央	-11.0182
虖	-11.0182
忻	-11.0182
永泰元年	-11.0182
薛仁貴	-11.0182
滌	-11.0182
宫掖	-11.0182
為謀主	-11.0183
銀器	-11.0183
剥	-11.0183
杜喬	-11.0183
筮	-11.0183
逼之	-11.0183
覇	-11.0183
佃	-11.0183
宗楚客	-11.0183
相如傳二十七	-11.0184
襦	-11.0184
州安置	-11.0184
隂狡	-11.0184
之教	-11.0184
儒學	-11.0185
坐贓	-11.0185
弓矢	-11.0185
姦宄	-11.0185
大譟	-11.0185
異姓	-11.0185
吏職	-11.0185
當世	-11.0185
宗廟社稷	-11.0186
十六宅	-11.0186
楊彪	-11.0186
項氏	-11.0186
貪縱	-11.0186
廬陵王	-11.0186
姦詐	-11.0186
皎	-11.0187
𢎞冀	-11.0187
茹	-11.0187
湯武	-11.0187
鞠	-11.0187
僣	-11.0187
以天下為己任	-11.0187
姦猾	-11.0187
專横	-11.0187
祭遵	-11.0187
廐	-11.0187
世基	-11.0188
愛憎	-11.0188
莫知所	-11.0188
汜水	-11.0188
動静	-11.0189
乾祐二年	-11.0189
僕𨽻	-11.0189
吳祐	-11.0189
郃	-11.0189
李綘	-11.0189
小民	-11.0189
賞賚	-11.0189
嚴延年	-11.0189
詰責	-11.0189
耏	-11.0189
住	-11.019
等共	-11.019
李陵傳	-11.019
普思	-11.019
王徳妃	-11.019
斥逐	-11.0191
金日磾	-11.0191
賊中	-11.0191
鎰	-11.0191
高力士	-11.0192
長慶四年	-11.0192
掖門	-11.0192
瓦器	-11.0192
搜捕	-11.0192
拭	-11.0192
繼勲	-11.0192
擁衆	-11.0192
爾雅	-11.0193
欽明	-11.0193
合𦵏	-11.0193
劉聰	-11.0193
太和九年	-11.0194
讐	-11.0194
禾	-11.0194
靈武	-11.0195
深可畏	-11.0195
秦王興	-11.0195
巨萬	-11.0195
岡	-11.0195
司馬相如傳二十七	-11.0195
脽	-11.0195
出塞	-11.0196
將若之何	-11.0196
張騫	-11.0196
榮辱	-11.0197
形似	-11.0197
徳妃	-11.0197
濯	-11.0198
屏左右	-11.0198
二百餘人	-11.0198
蘭陵	-11.0198
遼東	-11.0198
河間王	-11.0198
張湯傳	-11.0198
衰老	-11.0198
陸機	-11.0198
奭	-11.0199
知其意	-11.0199
仕宦	-11.0199
流離	-11.0199
建武五年	-11.0199
黙啜	-11.0199
参	-11.0199
褚淵	-11.02
啗	-11.02
淫亂	-11.02
號泣	-11.02
勃然	-11.02
同僚	-11.0201
侍講	-11.0201
匈奴傳六十四	-11.0201
恃恩	-11.0201
房琯	-11.0201
谷永傳	-11.0201
都監	-11.0201
覺寤	-11.0201
問計於	-11.0202
兆民	-11.0202
吳越王	-11.0202
入閤	-11.0203
獲其	-11.0203
鄧通	-11.0203
部曲	-11.0204
供奉官	-11.0204
定陶王	-11.0204
周顗	-11.0205
相如傳	-11.0206
天文志	-11.0207
欽陵	-11.0207
兩端	-11.0207
榮寵	-11.0207
南康	-11.0207
聨	-11.0207
循憲	-11.0207
江夏	-11.0208
太平之	-11.0208
詔敕	-11.0208
暴横	-11.0208
牙門	-11.0208
痛心	-11.0208
忠孝	-11.0208
山陽王	-11.0209
上命	-11.0209
運糧	-11.021
祖仁	-11.021
荆州刺史	-11.021
張揖曰	-11.0211
吳明徹	-11.0211
慙懼	-11.0212
結怨	-11.0212
千載	-11.0212
税錢	-11.0212
將來	-11.0212
班固	-11.0213
隂氏	-11.0213
離散	-11.0213
北魏髙祖	-11.0213
本末	-11.0213
光武紀建武	-11.0214
逆戰	-11.0214
李嶠	-11.0214
乳母	-11.0214
刻石	-11.0216
元帝紀	-11.0216
徐州刺史	-11.0216
深以為然	-11.0216
覆之	-11.0217
守珪	-11.0217
厯數	-11.0218
李彪	-11.0218
寛厚	-11.0219
寵遇	-11.0219
克敵	-11.022
陵夷	-11.022
邊郡	-11.022
公卿大夫	-11.0221
李勉	-11.0221
徃來	-11.0222
牧馬	-11.0222
威靈	-11.0222
豎子	-11.0223
流汗	-11.0224
時為	-11.0224
傳五十三	-11.0224
宣室	-11.0224
樂毅	-11.0225
獲免	-11.0225
而天下	-11.0226
泉明	-11.0227
法駕	-11.0227
髙澄	-11.0229
紀信	-11.0229
存亡	-11.023
采擇	-11.0231
吳蜀	-11.0231
夜郎	-11.0231
賦詩	-11.0232
推誠	-11.0233
入粟	-11.0234
何患	-11.0234
再思	-11.0234
賢愚	-11.0235
寵幸	-11.0237
特加	-11.0239
平盧	-11.0241
土著	-11.0242
屈身	-11.0242
不若且	-11.0243
全義	-11.0243
李祐	-11.0243
當為天子	-11.0244
其弊	-11.0244
宣布	-11.0245
空名	-11.0247
王播	-11.0248
肅然	-11.0251
項籍傳	-11.0251
安敢	-11.0251
皇家	-11.0252
兩省	-11.0252
疏奏	-11.0252
存孝	-11.0252
志氣	-11.0253
革命	-11.0254
是歲	-11.0254
無頼	-11.0254
戎馬	-11.0255
被誅	-11.0255
竊發	-11.0255
入奏事	-11.0255
聲樂	-11.0255
合戰	-11.0257
大臣皆	-11.0257
可惜	-11.0258
置吏	-11.0258
大抵	-11.0261
顧託	-11.0261
飛書	-11.0262
未畢	-11.0262
車師	-11.0263
三千餘人	-11.0263
晏然	-11.0264
互有	-11.0264
而反	-11.0265
連坐	-11.0265
上疏以為陛下	-11.0266
復讎	-11.0267
分司	-11.0267
食其	-11.0267
尚公主	-11.0269
家財	-11.0271
物貴	-11.0273
曰方今	-11.0273
濟河	-11.0275
效之	-11.0275
之弟也	-11.0276
禳之	-11.0277
農桑	-11.0278
大司徒	-11.0279
何也對曰	-11.028
晉氏	-11.028
專制	-11.028
散騎	-11.0281
諸胡	-11.0282
上疏請	-11.0283
何由	-11.0285
以厭	-11.0286
佞臣	-11.0287
藩臣	-11.0287
夫婦	-11.0287
領軍	-11.0288
牛馬	-11.0289
素惡	-11.0294
帳下	-11.0294
文獻	-11.0295
擊賊	-11.0295
不肯受	-11.0297
益怒	-11.0297
疾甚	-11.0297
以陛下為	-11.03
從效	-11.03
天下莫不	-11.0301
景進	-11.0301
胡服	-11.0303
元賞	-11.0304
大掠	-11.0306
丁公	-11.0307
舉動	-11.031
申公	-11.031
蕭王	-11.0313
方面	-11.0316
解甲	-11.0316
著名	-11.0316
親臨	-11.0317
承天	-11.0318
面陳	-11.0318
軍情	-11.032
恩禮	-11.032
為事	-11.032
詔自今	-11.0321
為元帥	-11.0321
入境	-11.0321
扇動	-11.0323
亦欲	-11.0324
趨出	-11.0327
一千	-11.0329
監軍使	-11.0331
牧守	-11.0331
若是	-11.0331
不罪	-11.0331
往日	-11.0334
崇文	-11.0336
在洛陽	-11.0337
致亂	-11.0338
庸人	-11.0339
養馬	-11.0339
武帝從之	-11.0341
戒之曰	-11.0341
同光二年	-11.0345
美女	-11.0349
堅城	-11.035
及見	-11.0352
兵器	-11.0352
思歸	-11.0353
一代	-11.0354
年長	-11.0354
李廣	-11.0357
相連	-11.0359
乃引	-11.0359
使其黨	-11.0361
而棄之	-11.0362
曰足下	-11.0362
軍法	-11.0364
陵母	-11.0365
並起	-11.0365
美官	-11.0366
何須	-11.0366
不道	-11.0367
度河	-11.0369
五色	-11.037
帝以	-11.0373
政治	-11.0375
相隨	-11.0375
帝位	-11.0376
叩頭謝	-11.0378
曰吾今	-11.0379
廢帝	-11.0381
有名	-11.0383
致太平	-11.0384
河間	-11.0386
長公主	-11.0387
方伯	-11.0388
亂世	-11.0389
呼之	-11.039
相待	-11.0391
人人自	-11.0391
太子宫	-11.0391
其位	-11.0392
四十八	-11.0393
不可得也	-11.0394
唯陛下	-11.0396
神道	-11.0396
謙之	-11.0398
者由	-11.0398
絶其	-11.04
久之乃	-11.0402
然亦	-11.0403
兵勢	-11.0404
不支	-11.0406
三鎮	-11.0407
神主	-11.0407
郎中令	-11.0408
機事	-11.0411
蜀兵	-11.0415
曰齊	-11.0418
誠為	-11.0418
餒死	-11.0422
髙尚	-11.0424
二十四年	-11.0424
之過也	-11.0426
者正	-11.0429
役者	-11.043
官賞	-11.0433
郡中	-11.0434
收捕	-11.0435
接對	-11.0438
諸人	-11.0439
雖少	-11.0441
厚賜	-11.0441
通好	-11.0443
赦令	-11.0447
軍容	-11.0448
毎嵗	-11.0449
臣臣	-11.0449
但云	-11.0451
小心	-11.0451
樂府	-11.0453
文雅	-11.0453
晉軍	-11.0455
髙士	-11.0457
武安	-11.0458
長孫無忌等	-11.046
怒命	-11.046
不虞	-11.046
始終	-11.0461
秦州	-11.0462
諭之曰	-11.0463
商人	-11.0464
東漢	-11.0465
出則	-11.0467
盡心	-11.0468
許以	-11.0469
怨怒	-11.047
聽命	-11.0471
以資	-11.0472
優人	-11.0472
尚書省	-11.0474
曰某	-11.0488
房𤣥齡等	-11.049
常思	-11.049
何哉	-11.0492
戰國	-11.0495
事佛	-11.0497
如流	-11.0499
建立	-11.05
預聞	-11.0507
遣將	-11.0511
也或曰	-11.0511
自徃	-11.0513
請和	-11.0514
夀陽	-11.0515
忠言	-11.0516
常山	-11.0518
志欲	-11.0519
繼至	-11.052
所以能	-11.052
之怨	-11.052
可成	-11.052
為后	-11.0524
請間	-11.0524
嘉之	-11.0525
為列侯	-11.0532
震恐	-11.0532
本軍	-11.0534
諭㫖	-11.0535
舉家	-11.0537
諸大臣	-11.0541
使使	-11.0543
朕意	-11.0544
宻令	-11.0544
役使	-11.0547
方進	-11.0549
王渾	-11.0551
大恩	-11.0555
忠貞	-11.0562
軍于	-11.0563
奉養	-11.0564
著令	-11.0566
之時也	-11.0566
嚴峻	-11.0568
而亡	-11.0568
等奏	-11.0568
義帝	-11.0571
之首	-11.0571
官有	-11.0571
燕之	-11.0573
民望	-11.0573
其無	-11.0575
大節	-11.0577
曰此非	-11.0581
給事	-11.0583
不厭	-11.0586
相王	-11.0587
智淵	-11.0589
上流	-11.0591
不恤	-11.0593
儒者	-11.0593
遊幸	-11.0593
不察	-11.0596
三曰	-11.0598
詐偽	-11.0598
物故	-11.06
内官	-11.0601
通也	-11.0605
親厚	-11.0606
禍及	-11.0606
罷遣	-11.0608
其數	-11.0608
百餘年	-11.0616
者可	-11.0616
恃其	-11.0618
為將相	-11.0619
明白	-11.0621
改之	-11.0623
碎之	-11.0629
解其	-11.0633
聽之	-11.0633
邪且	-11.0638
不先	-11.0642
不憚	-11.0648
相保	-11.0649
帝曰	-11.0651
曰此皆	-11.066
焚其	-11.066
之戒	-11.0661
每與	-11.0662
招權	-11.0663
其源	-11.0671
者言其	-11.0676
公宜	-11.0678
敬事	-11.0682
及為相	-11.0682
大政	-11.0682
以討之	-11.0688
曰自古	-11.0692
射之	-11.0696
與戰	-11.0697
不敬	-11.0698
星也	-11.0698
王霸	-11.0699
國亡	-11.0701
者並	-11.0702
則曰	-11.0706
保其	-11.0706
為僧	-11.0707
非罪	-11.071
買之	-11.0711
上殿	-11.0711
慰勞	-11.0713
謀誅	-11.0714
行思	-11.0724
其族	-11.0726
故舊	-11.0729
朝中	-11.0733
之勲	-11.0733
山也	-11.0733
無由	-11.0734
謀臣	-11.0735
遣其將	-11.0738
塞外	-11.074
上欽定四庫全書通鑑總𩔖卷十	-11.0744
隂事	-11.0747
七十八	-11.0749
即遣	-11.0749
又詔	-11.0752
閤門	-11.076
其背	-11.0761
一身	-11.0762
告宻	-11.0764
共事	-11.0773
武陵	-11.0773
之原	-11.0776
故為	-11.0781
州諸軍事	-11.0782
十里	-11.0789
不煩	-11.079
千斛	-11.0793
兵守之	-11.0794
設使	-11.0796
智伯	-11.0796
無寵	-11.0801
加於	-11.0804
主將	-11.0808
臨江	-11.0809
為刺史	-11.0814
龍門	-11.0818
其美	-11.0819
進則	-11.0825
可致	-11.0825
大權	-11.0828
自新	-11.0828
用也	-11.083
要在	-11.0836
從軍	-11.0841
遇之	-11.0841
乃擢	-11.0844
上天	-11.0845
下制	-11.085
𢎞昭	-11.085
日知	-11.085
正坐	-11.0854
得入	-11.0854
竊恐	-11.0855
征西	-11.086
萬頃	-11.086
卿可	-11.0862
之秋	-11.0863
皆與	-11.0864
不決	-11.0866
治行	-11.0871
校其	-11.0877
良久乃	-11.0881
既死	-11.0881
則吾	-11.0886
南郡	-11.0886
有子	-11.0887
長安城	-11.0891
署為	-11.0894
大者	-11.0895
為賢	-11.0896
世事	-11.0897
文徳	-11.09
作相	-11.0902
謀於	-11.0902
送死	-11.0903
大興	-11.0906
終身	-11.091
天下之事	-11.0917
非卿	-11.092
今我	-11.0924
時時	-11.0926
皆失色	-11.093
太盛	-11.0932
自責	-11.0934
豈無	-11.0936
敗亡	-11.0937
朝會	-11.0939
者以為	-11.0942
心於	-11.0943
初唐	-11.0944
厚賂	-11.0946
兵法	-11.0956
知吾	-11.0959
出鎮	-11.096
人才	-11.0965
免於	-11.0973
務在	-11.0981
爭以	-11.0982
天位	-11.0985
泣下	-11.0988
息民	-11.0988
行陳	-11.0989
加禮	-11.0991
徳之	-11.0991
除其	-11.0996
悉罷	-11.0997
門者	-11.1006
能無	-11.1006
其營	-11.1008
者不可勝數	-11.1009
在家	-11.1011
王友	-11.1013
未見	-11.1014
吏事	-11.1017
為子	-11.1018
為帝王	-11.1018
奉之	-11.1022
宮中	-11.1023
急則	-11.1028
將安	-11.1038
未決	-11.1048
累遷	-11.1052
之選	-11.1054
秦時	-11.1055
乞令	-11.1058
名數	-11.1059
可保	-11.1061
濟南	-11.1061
奉公	-11.1062
二十八	-11.1062
當此	-11.1062
春正月	-11.1064
動則	-11.1067
千錢	-11.1071
李崇	-11.1071
有金	-11.1072
復置	-11.1075
以為相	-11.1078
縣有	-11.1078
不返	-11.1078
爭論	-11.1079
以新	-11.1083
南唐主	-11.1085
知公	-11.1086
守城	-11.1087
三省	-11.1089
宻以	-11.109
者尚	-11.109
七月	-11.1097
公卿皆	-11.1098
𫝊十	-11.1098
今君	-11.1098
詔使	-11.1104
宻奏	-11.1105
違忤	-11.1121
小事	-11.1124
吾子	-11.1126
自代	-11.1131
以病	-11.1132
請見	-11.1132
者矣	-11.1135
仲長統傳	-11.1137
山人	-11.114
縱火	-11.1148
定天下	-11.115
舊將	-11.1157
至親	-11.116
迎佛骨	-11.1162
耳因	-11.1164
為用	-11.1165
變色	-11.1166
長大	-11.1166
以公	-11.1168
重臣	-11.1176
亦非	-11.1177
為中書侍郎	-11.1177
得書	-11.1183
從子	-11.1186
所對	-11.1186
今歲	-11.1189
户部侍郎	-11.1191
身自	-11.1192
以東	-11.1193
以絶	-11.1199
也張晏曰	-11.1203
顯等	-11.1204
誘之	-11.121
不才	-11.1223
先行	-11.1228
吾當	-11.1239
又無	-11.1245
及諸	-11.1247
固非	-11.1249
為累	-11.125
者近	-11.1253
居此	-11.1255
貴重	-11.1258
平陽	-11.126
穆之	-11.1263
朕當	-11.1264
其口	-11.1265
無主	-11.1265
所掠	-11.1266
為大將	-11.1268
大魚	-11.1269
欲誅	-11.1277
重兵	-11.1278
統軍	-11.128
危亡	-11.1283
奏以為	-11.1287
無恩	-11.1287
我之	-11.129
為賊所	-11.1294
苛細	-11.1294
饒	-11.1305
欲求	-11.1305
以拒之	-11.1306
注云説文曰	-11.1308
未安	-11.1308
繫於	-11.1311
為卿	-11.1311
十五萬	-11.1311
以贖	-11.1315
帝命	-11.1316
門地	-11.1319
以銅	-11.1323
神策軍	-11.1329
人不能	-11.1339
存者	-11.1341
雜以	-11.1341
都市	-11.1354
稱詔	-11.1357
帝怒	-11.1359
譬猶	-11.1359
從此	-11.1368
嘉納	-11.137
天地之	-11.137
赴之	-11.1371
肅宗紀	-11.1373
二十三	-11.1374
先入	-11.1375
欲相	-11.1375
初太宗	-11.1376
自保	-11.1377
見問	-11.1379
復進	-11.138
之始	-11.138
不惜	-11.1381
一心	-11.1382
明其	-11.1382
今既	-11.1389
間行	-11.14
為侯	-11.1407
賢聖	-11.1409
進用	-11.1409
力也	-11.1409
為禍	-11.1412
欲其	-11.1413
城郭	-11.1415
乃歎曰	-11.1423
之功也	-11.1424
亡國之	-11.1428
之積	-11.1428
朕雖	-11.1431
縱酒	-11.144
諸軍事	-11.144
乃詔	-11.1441
遺之	-11.1454
財貨	-11.1456
永德	-11.146
蕭嵩	-11.146
師古曰間	-11.146
去其	-11.1464
更始二年	-11.1464
無成	-11.1465
有司請	-11.1467
衆事	-11.1467
卭	-11.1469
輕兵	-11.147
盛陳	-11.1479
不如也	-11.1481
而貴	-11.1482
専以	-11.1486
皆取	-11.1489
得全	-11.1493
食人	-11.1494
於卿	-11.1498
就死	-11.1498
生子	-11.15
而服	-11.1501
伐齊	-11.1503
十萬斛	-11.1505
之固	-11.1506
從一	-11.1508
鎮將	-11.1514
矣太宗	-11.1515
相府	-11.1515
公車	-11.1516
欲盡	-11.152
宣言	-11.1521
彗星	-11.1525
從兄	-11.1529
督戰	-11.153
當用	-11.1533
注云前書	-11.1535
不難	-11.1536
莫之	-11.1538
猛將	-11.1544
億	-11.1546
以贍軍	-11.1547
者無不	-11.1548
等各	-11.1551
有盗	-11.1552
亦然	-11.1554
文明	-11.1555
未發	-11.1556
多詐	-11.1558
召太子	-11.1564
知天下	-11.1564
後進	-11.1565
後事	-11.1566
乗勝	-11.1572
可得而	-11.1572
也至於	-11.1573
索之	-11.1574
敗而	-11.1574
五十餘	-11.1576
糧食	-11.1576
已得	-11.1581
應之	-11.1581
弗能	-11.1582
素所	-11.1587
爲之	-11.1589
之半	-11.1597
服其	-11.1599
老臣	-11.16
剛直	-11.1604
害之	-11.1608
間道	-11.1609
家屬	-11.1609
隂令	-11.1611
必不敢	-11.1612
梁震	-11.1614
以慰	-11.1616
深宫	-11.1618
以臨	-11.1618
而陛下	-11.1626
今王	-11.1627
為皇后	-11.163
及長	-11.1632
以至於	-11.1636
與其	-11.1638
以救之	-11.1642
稱尊號	-11.1645
兵不	-11.1647
唐人	-11.1655
不反	-11.1655
因使	-11.1662
三十里	-11.1669
甚大	-11.1669
追尊	-11.1669
憎	-11.167
刑人	-11.1675
於唐	-11.1678
虎賁	-11.1681
可畏	-11.1682
既出	-11.1683
之急	-11.1684
欲取	-11.1685
權知	-11.1687
詩書	-11.1687
尚存	-11.1688
為中尉	-11.1689
笑而	-11.1694
子以	-11.1696
未為	-11.1698
不省	-11.17
使左右	-11.1701
殆非	-11.1705
為姦	-11.1708
無乃	-11.171
重望	-11.1713
鄆	-11.1713
以明	-11.1716
無所復	-11.1718
傳一	-11.1718
進至	-11.1718
乃自	-11.1719
揣	-11.1719
邠等	-11.1723
華州	-11.1723
優容之	-11.1726
大中元年	-11.1729
才行	-11.1732
軍皆	-11.1733
為災	-11.1733
暐	-11.1738
伺其	-11.1738
招討使	-11.1739
羣公	-11.1739
而王	-11.1741
咸稱	-11.1752
固爭	-11.1757
質帝	-11.1757
大王之	-11.1758
猶可	-11.1759
此事	-11.176
其任	-11.1761
一夕	-11.1761
之化	-11.1762
遣歸	-11.1765
璽綬	-11.1765
怡	-11.177
太和四年	-11.1771
裴垍	-11.1773
十二年初	-11.1776
雋不疑	-11.1776
乳	-11.1779
不廢	-11.178
之寃	-11.1781
詡曰	-11.1782
叅	-11.1782
敕書	-11.1783
宫臣	-11.1787
所不及	-11.1788
虓	-11.179
自當	-11.1791
訴於	-11.1794
坊市	-11.1794
以清	-11.1795
為副	-11.18
賁	-11.1801
甑生	-11.1801
乃定	-11.1802
蹔	-11.1805
延英	-11.1805
脂	-11.1806
艦	-11.1807
自取	-11.1808
頒	-11.181
蟬	-11.181
租庸	-11.181
逮捕	-11.181
轉運使	-11.1811
韋澳	-11.1811
廣雅曰	-11.1811
筏	-11.1812
城内	-11.1812
贇	-11.1812
公卿以下	-11.1813
艱	-11.1813
掖	-11.1814
摩	-11.1814
所屬	-11.1814
門魏	-11.1814
浙	-11.1815
珠玉	-11.1815
常恐	-11.1815
絮	-11.1816
撟	-11.1816
磧	-11.1816
詿誤	-11.1816
欄	-11.1817
王常	-11.1817
驍	-11.1817
道行軍總管	-11.1817
梁公	-11.1818
屑	-11.1818
元后	-11.1818
牛仙客	-11.1818
灰	-11.1818
盎	-11.1819
為左僕射	-11.1819
多故	-11.1819
建中元年	-11.1819
叔孫通	-11.1819
䙝	-11.182
勔	-11.182
仁恕	-11.182
黔	-11.182
井幹	-11.1821
抄掠	-11.1821
隲	-11.1822
段凝	-11.1822
牝	-11.1823
迫脅	-11.1823
讒慝	-11.1823
馴	-11.1823
有力焉	-11.1823
沙汰	-11.1823
亘	-11.1823
滑	-11.1823
瞋目	-11.1824
舁	-11.1824
餓	-11.1824
偷	-11.1824
弇	-11.1824
棲	-11.1824
尺寸	-11.1824
辟雍	-11.1824
采訪使	-11.1825
浦	-11.1825
鴆	-11.1825
誣罔	-11.1825
猥	-11.1825
裸	-11.1825
蔣琬	-11.1825
慎矜	-11.1825
府藏空竭	-11.1825
摘	-11.1825
校書郎	-11.1825
療	-11.1825
長廣王	-11.1825
拂	-11.1825
駟	-11.1826
唐主以	-11.1826
頠	-11.1826
謂所親曰	-11.1826
所向無前	-11.1826
耿弇	-11.1826
觀察判官	-11.1826
文學之士	-11.1826
涓	-11.1827
裔	-11.1827
錮	-11.1827
巒	-11.1827
稚	-11.1827
筯	-11.1827
邯鄲	-11.1827
珉	-11.1828
蹋	-11.1828
蠟	-11.1828
諠譁	-11.1828
嫚	-11.1828
旗幟	-11.1828
卓茂	-11.1828
忿恚	-11.1828
丘隴	-11.1828
涇州	-11.1828
為侍御史	-11.1829
縻	-11.1829
沉	-11.1829
醫工	-11.1829
歐陽	-11.1829
杜如晦	-11.1829
萬歳	-11.1829
之歌	-11.1829
態	-11.1829
鷹	-11.183
耒	-11.183
坎	-11.183
瘁	-11.183
開封尹	-11.183
憕	-11.183
賢良方正	-11.183
康延孝	-11.183
靳	-11.183
䖍朗	-11.183
武承嗣	-11.183
侮	-11.183
底	-11.183
葺	-11.183
不得出	-11.183
儲貳	-11.1831
彝	-11.1831
滑臺	-11.1831
刪	-11.1831
釣	-11.1831
張説	-11.1831
申屠嘉	-11.1831
少帝	-11.1831
聿	-11.1831
有九	-11.1831
劉昫	-11.1832
曩	-11.1832
絢	-11.1832
蔚	-11.1832
宸	-11.1832
匪	-11.1832
妙選	-11.1832
趙季良	-11.1832
亞父	-11.1832
影	-11.1832
佚	-11.1833
壤	-11.1833
知其詐	-11.1833
顯徳四年	-11.1833
鷤	-11.1833
褐	-11.1834
駒	-11.1834
梧	-11.1834
驍勇	-11.1834
杲卿	-11.1834
慎夫人	-11.1834
猷	-11.1834
左丞	-11.1834
随	-11.1834
荒淫	-11.1835
張掖	-11.1835
馬全節	-11.1835
㟁	-11.1835
臣瓉曰	-11.1835
批	-11.1835
銛	-11.1835
仁矩	-11.1835
彦饒	-11.1835
鋸	-11.1835
蔡謨	-11.1836
胥	-11.1836
乏絶	-11.1836
虞世南	-11.1836
踊	-11.1837
瓜	-11.1837
衢	-11.1837
左散騎常侍	-11.1837
渠帥	-11.1837
駱	-11.1837
滛	-11.1837
魏文帝	-11.1837
長慶二年	-11.1837
百寮	-11.1837
冦恂	-11.1837
裴寂	-11.1838
昆侖	-11.1838
堵	-11.1838
西川節度使	-11.1838
通事舍人	-11.1838
臧質	-11.1838
襟	-11.1838
凌	-11.1838
骨鯁	-11.1838
副元帥	-11.1838
幕僚	-11.1838
畋獵	-11.1838
師範	-11.1838
昕	-11.1838
輻湊	-11.1838
姚元之	-11.1839
刁協	-11.1839
李師道	-11.1839
班偼伃	-11.1839
河洛	-11.1839
以憂死	-11.184
怙	-11.184
曰卿言是也	-11.184
尸解	-11.184
翟璜	-11.184
言無不從	-11.184
裴光庭	-11.184
酌	-11.184
闥	-11.184
驕恣	-11.184
薛文傑	-11.184
滕公	-11.184
途	-11.184
王叔文之黨	-11.184
蘇綽	-11.184
因泣下	-11.1841
長興三年	-11.1841
靈運	-11.1841
夙夜	-11.1841
舋	-11.1841
錢塘	-11.1841
㳂	-11.1841
光禄卿	-11.1841
僧䖍	-11.1841
張喬	-11.1841
栅	-11.1841
絃	-11.1841
清濁	-11.1842
郭泰	-11.1842
斟酌	-11.1842
婆	-11.1842
慿	-11.1842
河陽節度使	-11.1842
典禁兵	-11.1842
訢	-11.1842
安祿山	-11.1842
豺狼	-11.1842
相表裏	-11.1842
廣順二年	-11.1842
布帛	-11.1842
嬪	-11.1842
絡	-11.1843
絙	-11.1843
江湖	-11.1843
杜正倫	-11.1843
安帝紀	-11.1843
渭橋	-11.1843
罪不至死	-11.1843
𤣥武門	-11.1843
長慶三年	-11.1843
供億	-11.1843
蘇味道	-11.1843
何尚之	-11.1843
荆南節度使	-11.1844
袂	-11.1844
科第	-11.1844
覆按	-11.1844
阨	-11.1844
山南	-11.1844
班超	-11.1844
罹	-11.1844
神䇿六軍	-11.1844
顯徳二年	-11.1844
函谷闗	-11.1845
朋友	-11.1845
訃	-11.1845
迂	-11.1845
徐有功	-11.1845
齊映	-11.1845
太湖	-11.1845
杜宇	-11.1845
躡	-11.1845
乾曜	-11.1845
敖	-11.1846
侍衞	-11.1846
鷹犬	-11.1846
烏桓	-11.1846
軍國大事	-11.1846
封徳彛	-11.1846
數年之後	-11.1846
幽閉	-11.1846
杯	-11.1846
竇參	-11.1846
梯	-11.1846
行軍司馬	-11.1847
承宗廟	-11.1847
擿	-11.1847
舉措	-11.1847
尚書左僕射	-11.1847
李昊	-11.1847
髙后紀	-11.1847
班固傳	-11.1847
酣飲	-11.1847
鯁	-11.1847
悖慢	-11.1847
浴	-11.1847
章奏	-11.1847
帽	-11.1847
鄣	-11.1848
謟諛	-11.1848
大王誠能	-11.1848
欒	-11.1848
劉洎	-11.1848
兖豫	-11.1848
牘	-11.1848
千秋	-11.1848
單弱	-11.1848
回鶻	-11.1848
耻	-11.1848
成徳節度使	-11.1848
江湛	-11.1848
元琰	-11.1849
牡	-11.1849
殽	-11.1849
霖雨	-11.1849
五十七	-11.1849
未晚	-11.1849
求救於	-11.1849
在相位	-11.1849
瑁	-11.185
鴟	-11.185
藻	-11.185
大破	-11.185
醒	-11.185
黔中	-11.185
不可不慎	-11.185
新津	-11.185
祔	-11.185
喉	-11.1851
岱宗	-11.1851
儒術	-11.1851
餓死	-11.1851
漢儀注	-11.1851
慤	-11.1851
鄂岳	-11.1851
平帝紀元始	-11.1851
赴鎮	-11.1851
邁	-11.1851
離叛	-11.1851
咽	-11.1851
言於明皇曰	-11.1852
欽義	-11.1852
褊	-11.1852
户部尚書	-11.1852
緩急	-11.1852
聼	-11.1852
幽厲	-11.1852
梅福傳	-11.1852
郗超	-11.1853
垂泣	-11.1853
曰何謂也	-11.1853
秋七月	-11.1853
伾	-11.1853
樹機能	-11.1853
播遷	-11.1853
肺	-11.1853
梁松	-11.1854
鐵劵	-11.1854
十餘萬人	-11.1854
髠	-11.1854
刳	-11.1854
爾朱兆	-11.1854
繭	-11.1854
評	-11.1854
驕侈	-11.1854
脉	-11.1854
闌	-11.1854
閹	-11.1854
蕭衍	-11.1854
伏辜	-11.1855
王鐸	-11.1855
僅能	-11.1855
枋頭	-11.1855
械繫	-11.1855
馮玉	-11.1855
智力	-11.1855
旌節	-11.1855
錢千萬	-11.1855
宿衛之士	-11.1855
杜弼	-11.1855
坐免官	-11.1855
真偽	-11.1856
抽	-11.1856
襄公	-11.1856
深然之	-11.1856
諛	-11.1857
幸華清宫	-11.1857
年八十	-11.1857
劉頌	-11.1857
冠冕	-11.1857
踣	-11.1857
焚掠	-11.1857
頽	-11.1857
彦通	-11.1857
恭謹	-11.1858
鉉	-11.1858
峭	-11.1858
仁基	-11.1858
窮覈	-11.1858
滑州	-11.1858
爵土	-11.1858
竦	-11.1858
孝文時	-11.1858
太府	-11.1858
預朝政	-11.1859
毓	-11.1859
溢	-11.1859
紿之曰	-11.1859
都䕶	-11.1859
陵遲	-11.1859
籍没其家	-11.1859
五湖	-11.1859
張𤣥素	-11.1859
李抱真	-11.1859
箠	-11.1859
詔報曰	-11.1859
闇弱	-11.186
流竄	-11.186
田園	-11.186
威震天下	-11.186
注云風俗通曰	-11.186
躋	-11.186
死獄中	-11.186
浮圖	-11.186
渭南	-11.186
維州	-11.186
羅織	-11.186
常衮	-11.186
牖	-11.186
豫讓	-11.1861
險要	-11.1861
注云前書音義曰	-11.1861
百端	-11.1861
仲舒	-11.1861
卞壼	-11.1862
虚譽	-11.1862
道不拾遺	-11.1862
貢賦	-11.1862
三十餘年	-11.1862
安重榮	-11.1862
釗	-11.1862
膺等	-11.1862
路巖	-11.1862
無以對	-11.1863
對仗	-11.1863
瘡	-11.1863
踰年	-11.1863
稟	-11.1863
哉今	-11.1863
裴均	-11.1863
張彦澤	-11.1863
驕縱	-11.1863
偏禆	-11.1863
於便殿	-11.1863
歌之曰	-11.1863
張奐	-11.1864
病死	-11.1864
喙	-11.1864
蔑	-11.1864
流矢	-11.1864
冲	-11.1864
七里	-11.1864
不亦可乎	-11.1864
櫂	-11.1864
覆視	-11.1864
吳元濟	-11.1865
漂	-11.1865
鍾離意	-11.1865
開元元年	-11.1865
趙廣漢	-11.1865
魏王豹	-11.1865
鈔	-11.1866
聞之不恱	-11.1866
孫皓	-11.1867
入賀	-11.1867
昆弟	-11.1868
侍側	-11.1868
劉文靜	-11.1868
少壯	-11.1868
韋貽範	-11.1868
筩	-11.1869
粱	-11.1869
周燮	-11.1869
豹子	-11.1869
髫	-11.1869
王鉷	-11.187
挫	-11.187
貶黜	-11.187
丈餘	-11.187
左雄	-11.1871
戚夫人	-11.1871
龎萌	-11.1871
刀筆	-11.1871
父兄	-11.1871
鄒陽傳	-11.1871
面縛	-11.1871
廢黜	-11.1871
盛飾	-11.1871
出入禁中	-11.1871
元規	-11.1871
苞苴	-11.1871
太弟	-11.1872
灌夫	-11.1872
躧	-11.1872
李嗣源	-11.1872
鄧氏	-11.1872
由是有隙	-11.1873
孝亷	-11.1873
歸鄉里	-11.1873
監奴	-11.1873
爾朱榮	-11.1874
中書郎	-11.1875
蒯通傳	-11.1875
不稔	-11.1875
信讒	-11.1875
銜枚	-11.1876
濟江	-11.1876
諸戎	-11.1876
天祿	-11.1876
諸葛	-11.1876
以恩	-11.1876
張敞	-11.1876
莫府	-11.1877
志趣	-11.1877
京房	-11.1877
怡然	-11.1877
王忠嗣	-11.1878
博學	-11.1878
辯士	-11.1878
南征	-11.1878
武都	-11.1879
支庶	-11.1879
淮水	-11.1879
為東川節度使	-11.1879
青徐	-11.188
本根	-11.188
竒才	-11.188
南郊	-11.1881
城旦	-11.1881
柔然	-11.1882
攻圍	-11.1882
紹宗	-11.1882
司徒王導	-11.1883
王求禮	-11.1883
戾太子	-11.1884
迎謁	-11.1884
此兩人	-11.1884
司馬相如傳	-11.1885
西突厥	-11.1885
劉穆之	-11.1885
逺征	-11.1886
祭酒	-11.1886
矯制	-11.1886
李牧	-11.1886
延嗣	-11.1886
大丈夫	-11.1886
僅得	-11.1886
克讓	-11.1886
數百家	-11.1886
漢瓊	-11.1887
安石	-11.1888
妃主	-11.1888
踰城	-11.1888
即墨	-11.1888
太史公	-11.1888
司馬遷	-11.1889
載之	-11.189
機密	-11.189
百越	-11.1891
文紀	-11.1892
財力	-11.1893
婁師徳	-11.1893
小却	-11.1893
吴王	-11.1893
三川	-11.1893
不敢違	-11.1894
王毛仲	-11.1894
造次	-11.1895
肅清	-11.1895
有過則	-11.1895
霍去病	-11.1896
南粤	-11.1896
齊桓	-11.1896
緡錢	-11.1897
宋𢎞	-11.1897
嵗時	-11.1897
雄武	-11.1898
刑賞	-11.1898
於城南	-11.1899
家貲	-11.1899
戰船	-11.19
蘇秦	-11.19
高氏	-11.19
舉事	-11.19
職業	-11.1901
何忍	-11.1901
輸錢	-11.1901
武皇	-11.1901
馮唐	-11.1902
歎服	-11.1902
流散	-11.1902
求媚	-11.1903
不足懼	-11.1903
竒士	-11.1903
光庭	-11.1903
刺殺	-11.1905
爲盜	-11.1905
供張	-11.1905
便面	-11.1905
小校	-11.1908
衛將軍	-11.1908
賈詡	-11.1908
南海	-11.1909
曲直	-11.1909
宴羣臣	-11.1909
長短	-11.191
甚恱	-11.191
移病	-11.1913
積石	-11.1913
重於	-11.1914
師厚	-11.1914
累朝	-11.1915
豈徒	-11.1916
可圖也	-11.1916
灋興	-11.1917
物色	-11.1917
趙郡	-11.1918
國貞	-11.1919
其法	-11.1919
數里	-11.192
獨不見	-11.192
糧道	-11.1922
所聞	-11.1922
璟曰	-11.1922
吳楚	-11.1924
引兵還	-11.1924
固讓	-11.1925
為仇讎	-11.1925
刑獄	-11.1925
賜書	-11.1925
自守	-11.1925
曰嗟乎	-11.1926
更擇	-11.1926
廣固	-11.1929
赤心	-11.193
詐稱	-11.193
諸将	-11.1931
水草	-11.1932
直諌	-11.1932
兩鎮	-11.1932
撫循	-11.1932
商君	-11.1932
憲宗從之	-11.1933
敬𤣥	-11.1933
西河	-11.1933
楚使者	-11.1933
肩	-11.1934
使之然	-11.1934
美惡	-11.1934
九經	-11.1934
致位	-11.1937
愛幸	-11.1937
因縁	-11.1938
忠賢	-11.1938
尚父	-11.1938
數倍	-11.1939
入貢	-11.1939
王都	-11.194
立廟	-11.1941
明習	-11.1941
宗正	-11.1942
建節	-11.1942
帝即位	-11.1943
至大梁	-11.1943
張儀	-11.1944
在左右	-11.1944
府藏	-11.1945
末年	-11.1946
聖賢	-11.1946
宜自	-11.1946
明達	-11.1947
安撫	-11.1948
丞相府	-11.1948
杜絶	-11.1948
而後行	-11.1948
家奴	-11.1949
舉手	-11.1949
逺慮	-11.195
文昌	-11.195
信都	-11.1951
𤣥齡等	-11.1951
度曲	-11.1952
曰將軍	-11.1954
契丹主曰	-11.1956
于謹	-11.1957
廣武	-11.1958
山頭	-11.1958
乘傳	-11.1959
分别	-11.1959
試官	-11.1959
襄子	-11.1959
問狀	-11.1961
宣武	-11.1962
相拒	-11.1962
退朝	-11.1962
一舉而	-11.1963
舒王	-11.1964
遣騎	-11.1964
歸其國	-11.1964
上書告	-11.1964
經年	-11.1964
琅邪王	-11.1965
半年	-11.1966
中書侍郎同平章事	-11.1966
降附	-11.1967
辭氣	-11.1969
繫之	-11.1969
惟新	-11.1971
拒命	-11.1972
清流	-11.1972
竒兵	-11.1972
曹參軍	-11.1973
以其子	-11.1973
為太上皇	-11.1974
所服	-11.1976
其頸	-11.1976
擾亂	-11.1977
病篤	-11.1977
積善	-11.1977
庶子	-11.1979
大饑	-11.1979
戍兵	-11.198
行喪	-11.1981
俱盡	-11.1983
恐傷	-11.1983
千餘里	-11.1985
殊死	-11.1985
非復	-11.1988
不能決	-11.1988
以十數	-11.199
及朝士	-11.1993
鮮有	-11.1994
太子太傅	-11.1995
變服	-11.1995
臺城	-11.1996
募民	-11.1999
但恨	-11.2
内府	-11.2001
韓全誨	-11.2002
一體	-11.2007
移書	-11.2007
相識	-11.2007
郎將	-11.2007
燕主	-11.201
以精騎	-11.2011
𢎞正	-11.2012
桂陽	-11.2013
七十九	-11.2013
使中常侍	-11.2014
博聞	-11.2015
無比	-11.2016
南平	-11.2017
内屬	-11.2018
山下	-11.2019
亂階	-11.2019
並列	-11.202
鄭衆	-11.202
幸而	-11.2022
數嵗	-11.2022
而觀之	-11.2024
軍勢	-11.2024
司馬門	-11.2024
憂之	-11.2025
名實	-11.2025
入長安	-11.2026
遂用	-11.2027
捕得	-11.2027
臣敢	-11.2032
上壽	-11.2033
德明	-11.2035
異議	-11.2036
髙祖髙祖	-11.2036
徴求	-11.2037
推官	-11.2037
進止	-11.2037
徒有	-11.2038
度江	-11.2039
謂同列曰	-11.204
三河	-11.204
者邪	-11.204
誠信	-11.2041
明經	-11.2041
相救	-11.2041
大漸	-11.2042
三千餘	-11.2042
强兵	-11.2042
一字	-11.2042
有功者	-11.2042
解職	-11.2042
大司空	-11.2042
横行	-11.2046
避禍	-11.2047
酒食	-11.2048
寳臣	-11.2048
曹公	-11.2049
法司	-11.2049
雖欲	-11.2051
獸名	-11.2052
甚易	-11.2053
易制	-11.2054
深思	-11.2055
重威	-11.2056
罷歸	-11.2056
去就	-11.2056
誰當	-11.2057
武士	-11.2058
其所為	-11.2058
文景	-11.2059
代宗曰	-11.206
州府	-11.2061
出境	-11.2062
而獻之	-11.2063
嵩山	-11.2066
郭公	-11.2066
至中書	-11.2067
君父	-11.2067
已乆	-11.2067
矜伐	-11.207
除去	-11.2071
五陵	-11.2072
上尊號	-11.2073
天威	-11.2075
遂不復	-11.2075
萬斛	-11.2076
懐中	-11.2079
詔從之	-11.2079
一襲	-11.208
尊重	-11.208
位次	-11.2081
李陵	-11.2082
之域	-11.2083
與太子	-11.2083
重貴	-11.2086
子如	-11.2086
意甚	-11.2086
山積	-11.2087
上谷	-11.2087
兵圍	-11.209
多出	-11.209
不㧞	-11.209
追至	-11.2091
田子	-11.2091
不能止	-11.2091
慶則	-11.2092
因説	-11.2093
粟帛	-11.2095
相次	-11.2095
器用	-11.2096
日與	-11.2096
魏知古	-11.2097
然後可以	-11.2098
其妻子	-11.2098
建武四年	-11.2098
不可止	-11.21
正義	-11.2101
復言	-11.2101
任城	-11.2103
按之	-11.2103
徳音	-11.2105
魏晉	-11.2105
公言	-11.2105
汝州	-11.2106
帝室	-11.2106
有闕	-11.2106
任重	-11.2107
軍政	-11.2108
不分	-11.211
求進	-11.2112
常州刺史	-11.2113
不經	-11.2119
吴人	-11.2119
大風	-11.212
徴發	-11.2121
為參軍	-11.2123
國號	-11.2123
其部落	-11.2124
吾所以	-11.2125
専事	-11.2129
驕慢	-11.2131
敦復	-11.2138
冠軍	-11.2138
就國	-11.2139
有犯	-11.214
不以實	-11.2141
百萬斛	-11.2141
何惜	-11.2143
今一旦	-11.2144
於野	-11.2145
員外	-11.2147
立子	-11.2147
又甞	-11.2148
來歸	-11.2151
秦制	-11.2152
兵仗	-11.2152
治軍	-11.2153
不從命	-11.2154
欲因	-11.2155
存之	-11.2155
東門	-11.2156
亂之	-11.2159
不知陛下	-11.2159
尚多	-11.216
不精	-11.216
容其	-11.2161
宜先	-11.2163
肅宗紀元和	-11.217
於法	-11.217
相位	-11.2171
人主之	-11.2171
一百	-11.2172
草詔	-11.2176
南門	-11.2178
以繩	-11.2185
執奏	-11.2187
流人	-11.2187
也時	-11.219
習戰	-11.2191
御下	-11.2194
親善	-11.2196
不宜復	-11.2202
欲除	-11.2202
固求	-11.2202
野王	-11.2204
二世	-11.2205
已為	-11.2206
遂貶	-11.2209
豈不知	-11.221
南詔	-11.221
梁兵	-11.2211
遂絶	-11.2212
為都督	-11.2214
聞之怒	-11.2216
親附	-11.2217
元平	-11.2217
其優劣	-11.2218
北土	-11.2219
嘗以	-11.2221
奉表	-11.2222
殺身	-11.2223
景文	-11.2224
已至	-11.2224
何得不	-11.2228
矣且	-11.2229
非真	-11.2231
其智	-11.2232
鄉人	-11.2236
所統	-11.2239
五十一	-11.2241
竊見	-11.2243
所作	-11.2244
日進	-11.2245
北地	-11.2247
招之	-11.2249
修復	-11.2253
乎夫	-11.2254
遣軍	-11.2255
隨事	-11.2255
騎都尉	-11.2257
周舉	-11.2257
無極	-11.2259
謂公卿曰	-11.226
遂行	-11.2267
他事	-11.2267
茍無	-11.2269
秦民	-11.227
於古	-11.2271
州别駕	-11.2275
名重	-11.228
曰先生	-11.228
還報	-11.228
諭以	-11.2282
朕常	-11.2283
尚能	-11.2284
一錢	-11.2285
多疑	-11.2285
無敵	-11.2285
西歸	-11.2286
非才	-11.2288
乃有	-11.2293
東觀	-11.2293
自衛	-11.2295
納言	-11.2299
臨時	-11.2299
邪正	-11.2301
求禮	-11.2302
諸武	-11.2303
部郎中	-11.2306
逼於	-11.2313
不自保	-11.2314
仇讎	-11.2315
趙軍	-11.2316
諸將請	-11.2318
非敢	-11.2318
臣妾	-11.232
也藉	-11.2321
成俗	-11.2321
左將軍	-11.2321
蕭然	-11.2321
退謂	-11.2323
謂曰卿	-11.2327
至忠	-11.2327
大國	-11.2328
所取	-11.2331
欲誅之	-11.2332
我子	-11.2333
從益	-11.2334
名馬	-11.2337
有好	-11.2338
獨居	-11.234
威行	-11.234
圍之	-11.2341
乃是	-11.2342
一縣	-11.2342
行宫	-11.2343
誠得	-11.2347
宜少	-11.2351
可乎對曰	-11.2352
永徽元年	-11.2354
於别	-11.2355
人畜	-11.2355
此心	-11.2355
者盡	-11.2357
七國	-11.2359
害人	-11.2361
士子	-11.2362
微時	-11.2362
公家	-11.2369
位重	-11.2369
充使	-11.2369
聲言	-11.237
為宫	-11.2373
彼必	-11.2375
中傷之	-11.2375
故也今	-11.2377
計相	-11.2378
辭之	-11.2379
皆罷	-11.238
事下	-11.2384
恭儉	-11.2384
也服䖍曰	-11.2384
茍能	-11.239
臨事	-11.2393
遂殺	-11.2394
説之曰	-11.2398
出口	-11.2401
建中四年	-11.2404
錦繡	-11.2404
分道	-11.2405
小子	-11.2405
士卒皆	-11.2406
召募	-11.2407
激之	-11.2407
前日	-11.2408
無節	-11.2409
魏明帝	-11.241
下者	-11.2413
去病	-11.2414
小國	-11.2418
多難	-11.2419
決獄	-11.242
為法	-11.2422
為金	-11.2425
手自	-11.2428
恨不	-11.2434
乃從之	-11.2439
及第	-11.2439
其第	-11.244
百官皆	-11.2444
潤	-11.2446
先除	-11.2447
州城	-11.2449
未厭	-11.2453
公直	-11.2455
而人不	-11.2457
云何	-11.246
經曰	-11.2462
正道	-11.2465
朝命	-11.2465
形於	-11.2475
呉人	-11.2475
以雪	-11.2476
一物	-11.2478
不斷	-11.2478
自用	-11.2479
以後事	-11.2483
弼曰	-11.2485
公權	-11.2488
也肅宗	-11.2488
侯景以	-11.2489
應時	-11.249
老矣	-11.249
何地	-11.2492
所幸	-11.2493
年二十	-11.2499
至如	-11.2502
延及	-11.2503
今復	-11.2505
各賜	-11.2505
破賊	-11.2509
多與	-11.2514
未忍	-11.2516
為諫大夫	-11.2516
况於	-11.2519
乃敢	-11.2526
帥百官	-11.2527
南行	-11.2528
壊之	-11.2529
敬則	-11.253
親愛	-11.2531
請更	-11.2532
以善	-11.2534
母曰	-11.254
不乏	-11.2541
無害	-11.2541
中書省	-11.2541
陛下法	-11.2543
如有	-11.2543
亦不得	-11.2546
何意	-11.2547
畏其	-11.2548
君者	-11.2549
將來之	-11.2559
得漢	-11.2561
鄭𤣥	-11.2563
因名	-11.2564
非但	-11.2565
所資	-11.2566
相應	-11.2569
二人皆	-11.2577
計事	-11.2582
怒欲	-11.2584
上章	-11.2589
以賂	-11.2594
與吾	-11.2597
求生	-11.2598
皆哭	-11.2598
然卒	-11.26
幸得	-11.26
至鄴	-11.2603
於是始	-11.2611
長樂公	-11.2613
自解	-11.2613
孝元	-11.2614
興復	-11.2615
而取之	-11.2618
聞之大怒	-11.2623
盛言	-11.2626
敗也	-11.2631
三十八	-11.2633
路人	-11.2633
入宮	-11.2635
靡不	-11.2639
又不	-11.264
漢漢	-11.2641
密表	-11.2644
其䇿	-11.2644
大度	-11.2644
變色曰	-11.2645
小將	-11.265
大笑曰	-11.2654
為第一	-11.2656
進取	-11.2657
行實	-11.2658
還家	-11.2658
天王	-11.2661
大㑹	-11.2665
亡矣	-11.2668
使還	-11.2669
山名	-11.267
帥羣臣	-11.267
此制	-11.2672
每嵗	-11.2673
求去	-11.2674
不次	-11.2677
門入	-11.2679
決於	-11.2683
后后	-11.2684
性命	-11.2685
歡曰	-11.2686
者若	-11.269
之源	-11.2692
獨見	-11.2697
自帥	-11.2699
臣忝	-11.2701
戮力	-11.2702
臣進	-11.2703
之符	-11.2704
為之請	-11.2704
臣謹	-11.2707
逺大	-11.2708
而斬之	-11.2711
所任	-11.2719
心動	-11.2722
守節	-11.2722
請討	-11.2723
異同	-11.2726
失徳	-11.2727
二十七	-11.273
徙之	-11.2731
之為人	-11.2734
必得	-11.2734
故雖	-11.2736
周官	-11.274
本以	-11.2745
才智	-11.2745
也願陛下	-11.2753
之嫌	-11.2759
王祥	-11.2763
以為憂	-11.2764
曰先王	-11.2766
言武	-11.2773
二十三年	-11.2773
則賢	-11.2773
之讒	-11.2774
負陛下	-11.2775
兵守	-11.2778
輔以	-11.2781
白者	-11.2781
道從	-11.2785
軍令	-11.2789
任以	-11.2793
屢有	-11.2794
以為宰相	-11.2795
非常之	-11.2796
宋文帝	-11.2798
其性	-11.2799
王業	-11.28
傷人	-11.2808
必生	-11.281
常為	-11.2811
必取	-11.2811
於秦	-11.2812
陜州	-11.2813
過此	-11.2819
鍾謨	-11.282
凡人	-11.2824
故用之	-11.2824
之災	-11.2831
卿勿	-11.2832
之府	-11.2837
比周	-11.2838
先言	-11.2838
拜伏	-11.2838
何懼	-11.2838
請置	-11.2848
為司馬	-11.2849
重鎮	-11.2859
乎對曰臣	-11.2865
珍貨	-11.2881
以死	-11.2885
澶州	-11.2885
此意	-11.2888
復還	-11.289
而坐	-11.2894
信用	-11.2897
内省	-11.2901
以為戒	-11.2904
大呼曰	-11.2908
坐事	-11.291
如此而	-11.2912
不可失	-11.2915
乃聴	-11.2915
寇謙之	-11.2917
從行	-11.2919
同郡	-11.292
先取	-11.2921
乃議	-11.2922
我乎	-11.2929
世宗以	-11.2929
少有	-11.2936
百斛	-11.2937
於道路	-11.2939
先發	-11.294
比者	-11.2943
大衆	-11.2946
三相	-11.295
貴盛	-11.2951
其故	-11.2952
諸卿	-11.2953
待我	-11.2958
事故	-11.2959
曰妾	-11.2963
北庭	-11.2985
東征	-11.2987
故號	-11.2989
不能容	-11.2989
事君	-11.2992
六人	-11.2997
作色曰	-11.3005
四五	-11.3005
終為	-11.3012
累年	-11.3014
朝臣皆	-11.3015
厲聲	-11.3017
變為	-11.3021
俟命	-11.3023
古文	-11.3025
唐主怒	-11.3035
如舊	-11.3037
衣緋	-11.3043
與之謀	-11.3046
令太子	-11.3047
襲之	-11.3047
解衣	-11.3049
所重	-11.305
問之對曰	-11.3051
丙	-11.3053
大故	-11.3057
喜曰吾	-11.3057
引出	-11.3059
子為	-11.3063
若遇	-11.3067
大略	-11.3069
之於外	-11.3072
亦悔	-11.3076
㳙	-11.3076
惠王	-11.3076
吾曹	-11.3077
公卿議	-11.3077
有獻	-11.3078
可以為	-11.3078
居外	-11.3091
援軍	-11.3092
名將	-11.3093
二十二	-11.3099
宣帝時	-11.3104
來降	-11.3104
千緡	-11.3105
請斬	-11.3114
如子	-11.3117
募兵	-11.3118
當先	-11.3123
而内	-11.3132
始安	-11.3136
邀擊	-11.3136
至城下	-11.3136
此其	-11.3142
潤州	-11.3144
機務	-11.3146
軍士皆	-11.315
非正	-11.3153
李珏	-11.3153
奄	-11.3154
無憂	-11.3154
載初	-11.3157
善者	-11.316
具言	-11.3163
欲降	-11.3163
曾無	-11.3166
崔羣	-11.3167
劉后	-11.3169
選士	-11.3182
令宰相	-11.3183
陛下雖	-11.3184
來朝	-11.3186
杵	-11.3198
皆可	-11.3199
世宗命	-11.3199
争之	-11.3201
軍國事	-11.3205
於衆	-11.3207
為朕	-11.3209
為之用	-11.3209
其面	-11.321
者惟	-11.3211
安乎	-11.3212
當官	-11.3218
史丹	-11.3218
永等	-11.3225
堯舜之	-11.3226
祖考	-11.3233
楊愔	-11.3238
公子	-11.3242
受賜	-11.3248
人士	-11.3251
責成	-11.3253
與俱	-11.3253
城南	-11.3261
素聞	-11.3269
張公	-11.327
一馬	-11.3283
冀州	-11.3288
天子所	-11.3292
言如	-11.3292
曰何如	-11.3292
十倍	-11.3292
傳六	-11.3293
固其	-11.3294
漢人	-11.3294
告宻者	-11.33
賊黨	-11.3302
七廟	-11.3303
投之	-11.331
掌之	-11.3311
副之	-11.3314
百里之	-11.3315
甞為	-11.3316
二臣	-11.3318
乃釋之	-11.332
北人	-11.332
重慎	-11.3325
迫於	-11.3331
上林	-11.3331
比於	-11.3334
三萬人	-11.3335
深自	-11.3343
然後得	-11.3345
變更	-11.3353
中門	-11.3366
其友	-11.3367
濮州	-11.3368
皆歸	-11.3369
勞而	-11.3369
凡諸	-11.337
於義	-11.3372
三家	-11.3374
寳貨	-11.338
甚者	-11.3383
富者	-11.339
騎追	-11.3396
張釋之	-11.34
十數	-11.3403
招撫	-11.3406
之職	-11.3406
言語	-11.3407
聴其	-11.3407
終不為	-11.3408
不能行	-11.3408
無虞	-11.3413
之分	-11.3413
珍竒	-11.3418
不移	-11.3419
所造	-11.3421
頗以	-11.3422
不拘	-11.3432
七千	-11.3433
不敢當	-11.3447
入白	-11.3449
曰諸君	-11.3459
安全	-11.3459
翂	-11.346
非我	-11.346
及卒	-11.346
車載	-11.346
方當	-11.3461
亂矣	-11.3462
我心	-11.3462
西有	-11.3464
資産	-11.3467
公府	-11.3475
夏州	-11.3477
以萬數	-11.348
尊者	-11.3481
南渡	-11.3483
各言	-11.3486
宣詔	-11.3489
曾不	-11.3493
常言	-11.3496
休息	-11.3503
三年以	-11.3504
使各	-11.3506
所餘	-11.351
録其	-11.3511
餒	-11.3513
於上而	-11.3513
馬植	-11.3518
子不	-11.3527
諸相	-11.3529
書記	-11.353
以懲	-11.3537
茍非	-11.3539
功大	-11.3542
擾之	-11.3543
不變	-11.3544
令左右	-11.3552
為老	-11.356
進爵	-11.3561
二女	-11.3567
義熈	-11.357
俟其	-11.3572
之子孫	-11.3575
鏤	-11.3583
皆棄	-11.3583
殃	-11.3584
二載	-11.3584
王傳三十	-11.3585
納其言	-11.3587
大震	-11.3587
建武三年	-11.3593
言辭	-11.3593
徐公	-11.3594
權貴	-11.36
所獻	-11.3601
知之矣	-11.3601
建武十三年	-11.3605
姦逆	-11.361
二十餘人	-11.3613
辭謝	-11.3613
以手	-11.3618
臣見	-11.362
瘞	-11.3621
免冠謝	-11.3623
襄州	-11.3623
范滂	-11.3626
二十五年	-11.3631
後漢書	-11.3632
也居	-11.3642
益厚	-11.3643
李克	-11.3644
功過	-11.365
守門	-11.3657
源乾曜	-11.3659
二年初	-11.366
極陳	-11.3662
臣事	-11.3663
不可輕	-11.3667
天下稱	-11.3672
之儲	-11.3672
之柄	-11.3677
於長安	-11.3677
貨賂	-11.3678
凡言	-11.368
表奏	-11.3682
忠平	-11.3683
主於	-11.3683
故令	-11.3687
孝文	-11.3687
四十五	-11.3688
前言	-11.3693
之儀	-11.3694
世俗	-11.3698
全誨等	-11.3698
州牧	-11.3699
於延英	-11.37
中行說	-11.3703
交州	-11.3703
縱之	-11.3704
為中書侍郎同平章事	-11.3709
宻使	-11.3709
瑟	-11.3717
貴幸	-11.3718
不直	-11.3719
王道	-11.372
非如	-11.3722
外朝	-11.3723
宜以	-11.3723
寧有	-11.3725
側目	-11.3725
為務	-11.3731
逺者	-11.3732
請除	-11.3732
張騫傳	-11.3736
不答	-11.374
盡歡	-11.3742
也操	-11.3743
後趙	-11.3744
州刺史李	-11.3749
草也	-11.375
萬斤	-11.375
不可勝計	-11.3755
預謀	-11.3755
易曰	-11.3759
恐天下	-11.3762
沈攸之	-11.3764
謡	-11.3766
無一	-11.3773
劭	-11.3775
遣吏	-11.3775
燔	-11.378
之事也	-11.378
皇泰主	-11.3781
乃曰	-11.3781
臣瓚曰	-11.3781
鄭畋	-11.3785
為官	-11.3786
鉤黨	-11.3786
之意也	-11.3787
戮之	-11.3787
維岳	-11.3789
單車	-11.3789
江州刺史	-11.3795
曰安有	-11.3795
碣	-11.3795
稔	-11.3797
滻水	-11.3797
防禦	-11.3797
侣	-11.3797
薛安都	-11.3798
夔	-11.3799
鴻臚	-11.38
史萬歳	-11.3802
荘	-11.3802
者數千人	-11.3804
擯	-11.3805
俘	-11.3805
蘇安恒	-11.3805
舅姑	-11.3805
以往	-11.3805
椒	-11.3806
匡衡	-11.3806
渇	-11.3807
弦	-11.3807
邈	-11.3808
阜	-11.3808
顔竣	-11.3808
惻	-11.3808
邊幅	-11.3809
何曾	-11.3809
栁公權	-11.3809
鄩	-11.381
渝	-11.381
宗佶	-11.381
廪	-11.3811
戰艦	-11.3811
遂廢	-11.3811
悌	-11.3811
旨	-11.3812
為青州刺史	-11.3812
瓉	-11.3812
王武俊	-11.3813
祫	-11.3813
酤	-11.3813
蔡興宗	-11.3814
撲	-11.3814
頓首謝	-11.3814
忠武節度使	-11.3815
禘	-11.3815
諤	-11.3815
鵠	-11.3815
嚴挺之	-11.3816
慧範	-11.3816
叢	-11.3816
垂涕	-11.3817
不居	-11.3817
杖之	-11.3817
壼	-11.3817
縉	-11.3818
矛	-11.3818
疫	-11.3818
橛	-11.3818
諒闇	-11.3818
冊禮使	-11.3818
哀帝紀	-11.3818
知無不言	-11.3818
蘇頲	-11.3818
左丞相	-11.3818
頲	-11.3818
袒	-11.3819
恃寵驕恣	-11.3819
皇甫規	-11.3819
陳元達	-11.3819
燮	-11.382
暱	-11.382
縊殺之	-11.382
炬	-11.382
蛟龍	-11.382
坐誅	-11.382
醫藥	-11.3821
縠	-11.3821
壑	-11.3821
瑗	-11.3821
范延光趙延壽	-11.3821
三年之喪	-11.3821
隄	-11.3821
轢	-11.3821
炅	-11.3822
糜	-11.3822
􁚫	-11.3822
鉏	-11.3822
鞅	-11.3822
韋處厚	-11.3822
飲藥	-11.3822
袖	-11.3822
穫	-11.3823
始以	-11.3823
妻之	-11.3823
僦	-11.3823
娛	-11.3823
至徳元載	-11.3823
二百九十	-11.3823
孟漢瓊	-11.3823
段秀實	-11.3823
鹵簿	-11.3823
様	-11.3823
司馬相如	-11.3823
糞	-11.3824
殯	-11.3824
紞	-11.3824
舂	-11.3824
酖殺之	-11.3824
䟆	-11.3824
權傾人主	-11.3824
歧	-11.3824
虞詡	-11.3824
猾	-11.3825
譎	-11.3825
昊	-11.3825
煙	-11.3825
朱𢎞昭	-11.3825
長興元年	-11.3825
嶺外	-11.3826
岑文本	-11.3826
鹽鐵轉運使	-11.3826
啖	-11.3826
景龍元年	-11.3826
麋鹿	-11.3826
輝	-11.3826
貿	-11.3827
瘠	-11.3827
蹕	-11.3827
問曰卿	-11.3827
嫗	-11.3828
永康元年	-11.3828
縑帛	-11.3828
困弊	-11.3828
迴	-11.3828
鬱鬱不得志	-11.3828
槽	-11.3828
詎	-11.3828
韋帶	-11.3828
乾祐三年	-11.3828
笏	-11.3828
寅	-11.3828
勣	-11.3828
塘	-11.3828
永光元年	-11.3828
壅	-11.3828
崤	-11.3829
縫	-11.3829
槍	-11.3829
暹	-11.3829
鑄五銖錢	-11.3829
鱗	-11.3829
以女妻	-11.3829
臣不如	-11.3829
赤仄	-11.3829
貉	-11.3829
八千	-11.3829
棨	-11.383
嗚咽	-11.383
燈	-11.383
荆棘	-11.383
偃蹇	-11.383
孝友	-11.383
慙而退	-11.383
崔𤣥暐	-11.383
王夷甫	-11.383
浹	-11.383
祕書郎	-11.383
捉	-11.383
鵝	-11.383
牲	-11.383
琨	-11.383
譯	-11.383
招諭	-11.383
李巽	-11.3831
租税	-11.3831
匕	-11.3831
不亦善乎	-11.3831
蠭起	-11.3831
欠負	-11.3831
蘄	-11.3831
瘴	-11.3831
揚州刺史	-11.3831
桐	-11.3831
謩	-11.3831
隂后	-11.3831
錄尚書事	-11.3831
餅	-11.3832
荀朂	-11.3832
元載王縉	-11.3832
會稽王昱	-11.3832
草萊	-11.3832
有異圖	-11.3832
孔目官	-11.3832
得其情	-11.3832
盧懷慎	-11.3832
譔	-11.3832
鉦鼓	-11.3832
龎氏	-11.3832
𤣥伯	-11.3832
牟	-11.3832
苛政	-11.3832
托	-11.3833
噉	-11.3833
為天下笑	-11.3833
礙	-11.3833
得風疾	-11.3833
拉	-11.3833
斛律光	-11.3833
之故吏也	-11.3833
丁鴻	-11.3833
禰衡	-11.3833
䳏	-11.3833
仞	-11.3833
芻糧	-11.3833
叩頭流血	-11.3833
製	-11.3834
奈	-11.3834
上疏曰臣聞	-11.3834
平帝紀	-11.3834
悖逆	-11.3834
昭陽殿	-11.3834
箕踞	-11.3834
撫膺	-11.3834
管籥	-11.3834
永嘉元年	-11.3834
彦超	-11.3834
叔寳	-11.3834
佽飛	-11.3834
郭太傳	-11.3834
鉅鹿	-11.3834
陳敬瑄	-11.3834
順流而下	-11.3834
互市	-11.3834
匈奴傳	-11.3834
拂衣	-11.3834
軀	-11.3834
顯徳元年	-11.3835
儀衛	-11.3835
漿	-11.3835
納貨賂	-11.3835
輦轂	-11.3835
中外失望	-11.3835
渡河	-11.3835
被髪	-11.3835
燎	-11.3835
黒水	-11.3835
聞而惡之	-11.3835
陌錢	-11.3835
徭賦	-11.3835
愛能等	-11.3835
讜	-11.3836
黄裳	-11.3836
宇宙	-11.3836
濵	-11.3836
厪	-11.3836
曰要當	-11.3836
祕不發喪	-11.3836
獻替	-11.3836
䜟文	-11.3836
絲竹	-11.3836
少陽院	-11.3836
店	-11.3836
忽忽不樂	-11.3836
茅茨	-11.3836
顛覆	-11.3836
上林苑	-11.3836
景仙	-11.3836
瘦	-11.3836
宣徽北院使	-11.3836
鎔	-11.3837
毬	-11.3837
甚慙	-11.3837
左金吾大將軍	-11.3837
仲尼	-11.3837
飛鳥	-11.3837
紏	-11.3837
驕傲	-11.3837
長興二年	-11.3837
公孫氏	-11.3837
大中十年	-11.3837
彫弊	-11.3837
挹	-11.3837
精鋭	-11.3837
鈴	-11.3837
傅燮	-11.3837
堤	-11.3837
門外又立	-11.3837
藴	-11.3837
樸	-11.3838
孩	-11.3838
馮翊	-11.3838
絪	-11.3838
耽	-11.3838
李琪	-11.3838
磨	-11.3838
慈愛	-11.3838
幟	-11.3838
迭為之	-11.3838
都官尚書	-11.3838
革其弊	-11.3838
噐	-11.3838
上陽宫	-11.3838
商旅	-11.3838
嬴	-11.3838
慈父	-11.3838
殘虐	-11.3838
竟陵王子良	-11.3838
謂興曰	-11.3838
蓄異志	-11.3838
蚩	-11.3838
撻	-11.3839
舒元輿	-11.3839
屏風	-11.3839
漁	-11.3839
弋	-11.3839
僥	-11.3839
垂拱四年	-11.3839
後晉天福元年	-11.3839
翕然	-11.3839
賣官鬻獄	-11.3839
充位而已	-11.3839
闊達	-11.3839
有難色	-11.3839
歟	-11.3839
錢幣	-11.3839
無敢言者	-11.3839
韋厪	-11.3839
南唐宋齊丘	-11.384
惕	-11.384
庇	-11.384
厄	-11.384
九寸	-11.384
吁	-11.3841
朞年	-11.3841
積薪	-11.3841
饋運	-11.3841
仇士良等	-11.3841
姜維	-11.3841
永明二年	-11.3841
肘腋	-11.3841
門西漢	-11.3841
党項	-11.3841
朝廷肅然	-11.3841
李晟馬燧	-11.3841
颺	-11.3841
餽	-11.3841
惶懼	-11.3841
仁贍	-11.3841
會稽	-11.3841
成安君	-11.3841
彭城王義康	-11.3842
神龍二年	-11.3842
元康九年	-11.3842
竇嬰	-11.3842
粹	-11.3842
結髪	-11.3842
轝	-11.3842
僥倖	-11.3842
毒藥	-11.3842
醴泉	-11.3842
刎	-11.3842
椽	-11.3842
甘露元年	-11.3842
羮	-11.3842
薛廣徳	-11.3842
北狄	-11.3842
廣徳元年	-11.3842
復其位	-11.3842
斗米	-11.3842
此數者	-11.3842
姑臧	-11.3842
筐	-11.3842
董璋	-11.3842
雌雄	-11.3842
桂州	-11.3842
鴈	-11.3842
鑰	-11.3842
旼	-11.3842
湔	-11.3843
杜重威	-11.3843
道路以目	-11.3843
幼弱	-11.3843
勮	-11.3843
嶼	-11.3843
武德元年	-11.3843
聳	-11.3843
築長城	-11.3843
狡	-11.3843
寒微	-11.3844
右丞	-11.3844
輙	-11.3844
抜	-11.3844
武徳元年	-11.3844
洪範	-11.3844
太師馮道	-11.3844
深相結	-11.3844
嘲	-11.3844
景帝紀	-11.3844
農隙	-11.3844
稱㫖	-11.3844
郗	-11.3844
天福元年	-11.3844
騶	-11.3844
澗	-11.3844
寖	-11.3844
孛	-11.3844
與宰相論	-11.3844
若其不	-11.3845
肘	-11.3845
衮冕	-11.3845
辠	-11.3845
蟻	-11.3845
呪	-11.3845
程元振	-11.3845
苗裔	-11.3845
潼關	-11.3845
蜺	-11.3845
靴	-11.3845
鬢	-11.3845
朕亦	-11.3845
播越	-11.3845
萬乘之	-11.3845
多權數	-11.3845
韋堅	-11.3846
柴紹	-11.3846
羣臣莫及	-11.3846
守孤城	-11.3846
怨謗	-11.3846
濠	-11.3846
上柱國	-11.3846
無疆之	-11.3846
致理之	-11.3846
吾丘壽王	-11.3846
周墀	-11.3846
碩	-11.3846
聖躬	-11.3846
袝	-11.3846
髙郢	-11.3846
以讓	-11.3846
威震	-11.3846
惠妃	-11.3846
爰盎	-11.3846
公孫賀	-11.3847
開運三年	-11.3847
昭穆	-11.3847
夢錫	-11.3847
江嶺	-11.3847
旬月之間	-11.3847
村民	-11.3847
耐	-11.3847
廨	-11.3847
才兼文武	-11.3847
敗績	-11.3847
廐馬	-11.3847
知上指	-11.3847
金墉	-11.3847
江智淵	-11.3847
齊威王	-11.3847
自許	-11.3847
姜	-11.3848
工匠	-11.3848
綴	-11.3848
陳夷行	-11.3848
周行逢	-11.3848
帷帳	-11.3848
悔之何及	-11.3848
崔湜	-11.3848
揖讓	-11.3848
李斐曰	-11.3848
露臺	-11.3848
萬石君	-11.3848
卜筮	-11.3848
武帝紀元狩	-11.3848
魏博節度使	-11.3849
庻政	-11.3849
貪汚	-11.3849
句踐	-11.3849
瑩	-11.3849
丸	-11.3849
持兩端	-11.3849
楊思恭	-11.3849
莖	-11.3849
酒饌	-11.3849
餞	-11.3849
劉稹	-11.3849
尚結賛	-11.3849
弓弩	-11.3849
靈臺	-11.3849
宫又自此而從於	-11.3849
永建	-11.385
功勞	-11.385
祖珽	-11.385
為己任	-11.385
堡	-11.385
揷	-11.385
不過二三	-11.385
樞密院	-11.385
鄉閭	-11.385
鄒	-11.385
昨日	-11.385
檝	-11.385
貢禹	-11.385
烏合之衆	-11.385
赴國難	-11.385
領尚書事	-11.385
緘	-11.385
游雅	-11.385
蹊	-11.385
周亞夫	-11.385
李寳臣	-11.385
佩刀	-11.3851
邠寧	-11.3851
鑊	-11.3851
蒼頭	-11.3851
荆南	-11.3851
光祿大夫	-11.3851
賈山傳	-11.3851
手筆	-11.3851
豈肯	-11.3851
五品已上	-11.3851
費禕	-11.3851
感泣	-11.3851
釋其罪	-11.3851
戴胄	-11.3851
楚王希範	-11.3851
淡	-11.3851
韋保衡	-11.3851
以臣觀之	-11.3851
彦博	-11.3851
預政	-11.3852
拔擢	-11.3852
稱病	-11.3852
襁	-11.3852
黑	-11.3852
開元二十四年	-11.3852
耕桑	-11.3852
敖倉	-11.3852
猪	-11.3852
指麾	-11.3852
矟	-11.3852
自兵興以來	-11.3852
韓延徽	-11.3852
僧智	-11.3853
渚	-11.3853
葭莩	-11.3853
防禦使	-11.3853
翠	-11.3853
縞素	-11.3853
為鄂岳觀察使	-11.3853
并吞	-11.3853
頰	-11.3853
四鄰	-11.3853
諸道貢獻	-11.3853
貪汙	-11.3853
危殆	-11.3854
太和五年	-11.3854
延訪	-11.3854
由此觀之	-11.3854
謂使者曰	-11.3854
軺傳	-11.3854
驍將	-11.3854
今陛下能乎其不可	-11.3854
併力	-11.3854
玖	-11.3854
翟方進	-11.3854
東闕	-11.3854
冡	-11.3854
販	-11.3854
入汴	-11.3854
魏王操	-11.3855
館陶公主	-11.3855
智略	-11.3855
狼戾	-11.3855
太子少師	-11.3855
廣武君	-11.3855
墳墓	-11.3855
德倫	-11.3855
紛然	-11.3855
罽	-11.3855
櫓	-11.3855
地理志	-11.3855
市里	-11.3855
惰	-11.3855
皝	-11.3855
各得其所	-11.3856
起居郎	-11.3856
相顧	-11.3856
皇甫規傳	-11.3856
諫而止	-11.3856
旦暮	-11.3856
深疾之	-11.3856
郭伋	-11.3856
周威烈王二十三年	-11.3856
専恣	-11.3856
怨讎	-11.3856
藩屏	-11.3856
藺相如	-11.3856
角抵	-11.3856
孔緯	-11.3856
驪山	-11.3856
灑	-11.3856
肱	-11.3856
鳴鏑	-11.3856
洒	-11.3856
困於	-11.3856
北闕	-11.3857
腦	-11.3857
黥布	-11.3857
厚禄	-11.3857
惶怖	-11.3857
寛宥	-11.3857
孝孫	-11.3857
核	-11.3857
周苛	-11.3857
坑	-11.3857
逓	-11.3857
康宗	-11.3857
天福二年	-11.3857
顒	-11.3857
偕	-11.3857
建興元年	-11.3858
由兹	-11.3858
州團練使	-11.3858
刑法志	-11.3858
楚王英	-11.3858
言於徳宗曰	-11.3858
鹿車	-11.3858
名位素	-11.3858
旋師	-11.3858
玉牒	-11.3858
魏勃	-11.3858
鄭絪	-11.3858
悚	-11.3859
趙鳯	-11.3859
河隂	-11.3859
舊京	-11.3859
二十七年	-11.3859
鏁	-11.3859
虞世基	-11.3859
巡狩	-11.3859
設壇	-11.3859
堪猛	-11.3859
宻啓	-11.3859
推轂	-11.3859
覲	-11.3859
酒泉	-11.3859
流嶺南	-11.386
日有食之	-11.386
郭黙	-11.386
苑囿	-11.386
勇略	-11.386
貞觀十七年	-11.386
崔訓	-11.386
累葉	-11.386
前進士	-11.386
感槩	-11.386
斧鉞	-11.386
泣訴於	-11.386
依違	-11.386
甘心	-11.3861
襄城	-11.3861
嘉瑞	-11.3861
屈原	-11.3861
飛龍	-11.3861
蔕芥	-11.3861
戎服	-11.3861
凡三	-11.3861
竄匿	-11.3862
荆揚	-11.3862
研	-11.3862
姦黨	-11.3862
充斥	-11.3862
感恩	-11.3862
織成	-11.3862
鄧展曰	-11.3862
𢎞恭石顯	-11.3862
卑賤	-11.3862
濶	-11.3862
禹錫	-11.3862
牛酒	-11.3863
歸附者	-11.3863
如反掌耳	-11.3863
琅邪王睿	-11.3863
圍逼	-11.3863
激怒	-11.3863
而悦之	-11.3863
臻	-11.3863
厭苦	-11.3863
蓋勲	-11.3863
朱守殷	-11.3863
災害	-11.3863
樓櫓	-11.3863
槃	-11.3864
五十里	-11.3864
太和三年	-11.3864
晝夜不息	-11.3864
緑	-11.3865
杜篤	-11.3865
疽	-11.3865
微賤	-11.3865
黎元	-11.3865
浙西	-11.3865
罰金	-11.3865
推按	-11.3865
亭長	-11.3865
計帳	-11.3865
讒邪	-11.3865
都亭	-11.3865
衛青	-11.3865
泳	-11.3866
箸	-11.3866
杖一百	-11.3866
中庶子	-11.3866
起視事	-11.3866
英俊	-11.3866
袁氏	-11.3866
伺察	-11.3866
匕首	-11.3866
延篤	-11.3866
范增	-11.3866
註	-11.3866
都邑	-11.3866
開元三年	-11.3866
膠葛	-11.3866
太宗謂侍臣曰	-11.3867
李林甫為相	-11.3867
太子劭	-11.3867
升階	-11.3867
崔郾	-11.3868
厲色	-11.3868
韓彭	-11.3868
吕布	-11.3868
藏英	-11.3868
摩訶	-11.3868
凱	-11.3868
南陽太守	-11.3869
亦如之	-11.3869
黄仁諷	-11.3869
廷爭	-11.3869
鳯翔節度使	-11.3869
釂	-11.3869
淳風	-11.3869
阿附	-11.3869
犍為	-11.3869
負海	-11.387
順㫖	-11.387
伐木	-11.387
蘇章	-11.387
善騎射	-11.387
楊釗	-11.387
優厚	-11.387
己亥	-11.387
辛未	-11.387
諸吕	-11.387
魏𤣥同	-11.387
便橋	-11.3871
宴遊	-11.3871
親任之	-11.3871
今日之舉	-11.3871
大不敬	-11.3871
殷勤	-11.3871
臣不敢奉詔	-11.3871
自即位以來	-11.3871
伐吴	-11.3871
季興	-11.3871
宰相以下	-11.3871
未足為	-11.3871
五畤	-11.3871
周室	-11.3871
部刺史	-11.3871
以本官	-11.3871
力屈	-11.3872
宋均	-11.3872
歲餘	-11.3872
白刃	-11.3872
踐阼	-11.3873
賢俊	-11.3873
輼輬車	-11.3873
杜欽	-11.3873
禪代	-11.3873
刑戮	-11.3873
孟容	-11.3874
李尋傳	-11.3874
勇冠	-11.3874
匈奴單于	-11.3874
盖由	-11.3874
絞	-11.3874
圖籍	-11.3874
空虚	-11.3874
隔絶	-11.3874
首尾	-11.3874
纚	-11.3874
婁妃	-11.3874
賣買	-11.3875
棧	-11.3875
匡正	-11.3875
曽孫	-11.3875
河源	-11.3875
道根	-11.3876
枉法	-11.3876
竒愛	-11.3876
原陵	-11.3876
高后	-11.3876
趙充國	-11.3877
神色	-11.3877
儋	-11.3877
杖節	-11.3877
州大水	-11.3877
驚擾	-11.3877
趨走	-11.3877
遲明	-11.3877
七十餘人	-11.3877
稽古	-11.3878
謝病	-11.3878
紬	-11.3878
規諫	-11.3878
東巡	-11.3878
友文	-11.3878
坊門	-11.3878
敬兒	-11.3878
逐捕	-11.3878
紹榮	-11.3879
舉劾	-11.3879
岱	-11.3879
兵彊	-11.3879
以一人之	-11.3879
形神	-11.3879
要害	-11.3879
天譴	-11.388
朔望	-11.388
晚節	-11.388
既𦵏	-11.3881
宋昌	-11.3881
誅戮	-11.3881
欲廢太子	-11.3882
劉瞻	-11.3882
賛普	-11.3882
風化	-11.3882
田恱	-11.3882
高澄	-11.3882
次第	-11.3882
彼若	-11.3882
怨叛	-11.3883
統軍使	-11.3883
黃金	-11.3883
東井	-11.3883
蘇循	-11.3883
霸陵	-11.3884
無以應	-11.3884
通西域	-11.3884
三丈	-11.3884
較然	-11.3884
分陜	-11.3884
曏日	-11.3884
陳寔	-11.3885
持滿	-11.3885
魏文侯	-11.3885
執筆	-11.3885
徐防	-11.3885
銀臺	-11.3885
爵賞	-11.3886
農器	-11.3886
北征	-11.3886
右衛將軍	-11.3886
腹非	-11.3886
草澤	-11.3886
北京	-11.3886
世充	-11.3886
何無忌	-11.3887
賀循	-11.3887
蕭氏	-11.3887
悔過	-11.3887
嘿然	-11.3887
寓居	-11.3887
劉湛	-11.3887
甲第	-11.3887
竇武	-11.3888
陸遜	-11.3888
王鍔	-11.3888
南仲	-11.3889
承嘉	-11.3889
富彊	-11.3889
張渉	-11.3889
合符	-11.3889
髙里	-11.3889
宜改	-11.389
營造	-11.389
後悔	-11.389
㓜主	-11.389
越騎	-11.3891
曹氏	-11.3891
雲集	-11.3891
貢物	-11.3891
選擇	-11.3891
崇飾	-11.3891
直學士	-11.3892
申子	-11.3892
抑而不	-11.3892
齊桓公	-11.3892
母喪	-11.3892
流落	-11.3892
郭氏	-11.3892
鬼物	-11.3892
趙括	-11.3892
孝宣	-11.3893
在内	-11.3893
堅壁	-11.3893
貫髙	-11.3893
二十六年	-11.3893
神器	-11.3893
亡匿	-11.3893
封邑	-11.3893
過半	-11.3894
西奔	-11.3894
皆此𩔖也	-11.3895
謂亮曰	-11.3895
收葬	-11.3895
臨海	-11.3895
柏人	-11.3895
文場	-11.3895
天下大亂	-11.3895
退走	-11.3896
二十六	-11.3896
老奴	-11.3897
預焉	-11.3897
陳平曰	-11.3897
廷英	-11.3897
視其所	-11.3898
昭侯	-11.3898
具存	-11.3898
南牙	-11.3898
石郎	-11.3898
既得志	-11.3899
陳遵	-11.3899
昭烈	-11.3899
河南府	-11.3899
而已至	-11.3899
竭誠	-11.3899
僧綽	-11.39
其一以為	-11.39
幽鎮	-11.39
郡人	-11.3901
治其罪	-11.3901
舉大事	-11.3901
李膺等	-11.3902
突入	-11.3902
處回	-11.3902
羅告	-11.3903
恥之	-11.3903
退保	-11.3903
謁告	-11.3903
是歳	-11.3903
寛猛	-11.3903
承休	-11.3903
五十餘人	-11.3903
四支	-11.3903
申理	-11.3904
歸藩	-11.3904
送迎	-11.3904
豫州	-11.3905
不為備	-11.3905
揚武	-11.3905
不稱職	-11.3905
土木	-11.3905
敵騎	-11.3905
羣司	-11.3905
薛公	-11.3905
舞文	-11.3906
鄰國	-11.3906
楊賜傳	-11.3906
銜命	-11.3906
競起	-11.3906
谷名	-11.3906
情不通	-11.3907
聞之歎曰	-11.3907
國家之事	-11.3908
門漢光武	-11.3908
賜絹	-11.3908
鄭興	-11.3908
天災	-11.3909
為謡言	-11.391
發喪	-11.391
杜口	-11.391
不敢犯	-11.391
曏時	-11.391
袁髙	-11.391
而徐公	-11.391
楚歌	-11.391
於殿前	-11.3911
許史	-11.3911
誣告	-11.3911
池中	-11.3912
兼領	-11.3912
經史	-11.3912
貪吏	-11.3912
張儉	-11.3912
宫苑	-11.3913
令尹	-11.3913
徐堅	-11.3913
懐古	-11.3913
盛衰	-11.3913
報怨	-11.3914
義恭	-11.3915
獲利	-11.3915
經典	-11.3915
辟疑赦其罰	-11.3915
不稱㫖	-11.3916
傾心	-11.3916
有事則	-11.3916
詣長安	-11.3916
重俊	-11.3916
燕飲	-11.3916
臺省	-11.3917
頭痛	-11.3917
彊盛	-11.3917
元佐	-11.3917
表疏	-11.3918
大厯	-11.3918
便利	-11.3919
謝恩	-11.3919
虛實	-11.3919
指天	-11.392
山海	-11.3921
癡人	-11.3921
交河	-11.3921
景超	-11.3921
楚客	-11.3921
悉誅之	-11.3922
衣被	-11.3922
供給	-11.3922
遇赦	-11.3922
樞宻院	-11.3922
徐温	-11.3923
進軍	-11.3923
山河	-11.3924
露布	-11.3924
數尺	-11.3924
惡聞	-11.3924
慢罵	-11.3924
慎勿	-11.3925
異式	-11.3925
百戰	-11.3925
威刑	-11.3926
職務	-11.3926
列位	-11.3926
元元年	-11.3926
力役	-11.3926
鯨魚	-11.3927
髙勲	-11.3927
懷義	-11.3927
財利	-11.3928
𤣥素	-11.3928
攻具	-11.3929
左氏	-11.393
趙忠	-11.393
百代	-11.393
不逞	-11.393
蒲牢	-11.393
叅軍	-11.3931
未見其	-11.3931
張亮	-11.3931
九九	-11.3932
也憲宗	-11.3932
藩方	-11.3932
附著	-11.3932
許氏	-11.3932
庶民	-11.3934
蕭望之傳	-11.3935
危亂	-11.3935
為左丞相	-11.3935
農民	-11.3935
生男	-11.3935
子嬰	-11.3936
願得	-11.3936
見而	-11.3936
部署	-11.3936
逃去	-11.3937
趙崇	-11.3937
次子	-11.3937
長沙王	-11.3938
門唐太宗	-11.3938
拔之	-11.3938
水災	-11.3939
雨雪	-11.3939
吳氏	-11.3939
望敵	-11.394
帳中	-11.394
之書也	-11.394
一郡	-11.394
王謐	-11.3941
略地	-11.3941
解圍	-11.3942
夫復何	-11.3944
無事矣	-11.3944
嫡庶	-11.3944
穆生	-11.3945
一斤	-11.3946
謀叛	-11.3947
地牢	-11.3947
進言曰	-11.3947
賈誼曰	-11.3948
引領	-11.3948
穆帝	-11.3948
善射	-11.3948
清狂	-11.3948
刑政	-11.3949
徐陵	-11.395
遣使獻	-11.395
如斗	-11.395
豈容	-11.395
成康	-11.3951
風流	-11.3952
告急	-11.3952
承風	-11.3952
何患無	-11.3952
洛中	-11.3953
八嵗	-11.3953
朝賀	-11.3953
爭獻	-11.3953
屢敗	-11.3954
輔太子	-11.3954
馬歩	-11.3954
胡建	-11.3955
文武官	-11.3955
數術	-11.3955
訪以	-11.3955
畫地	-11.3956
不之知	-11.3956
結好	-11.3957
除授	-11.3957
太宗恱	-11.3957
謹守	-11.3958
叙傳	-11.3959
并力	-11.3959
署名	-11.396
御者	-11.396
奏記	-11.3961
門庭	-11.3961
甚嚴	-11.3961
何晏	-11.3961
從其言	-11.3962
契丹契丹	-11.3962
展轉	-11.3963
之𩔖也	-11.3963
東面	-11.3964
材能	-11.3964
魯國	-11.3965
錢一	-11.3965
太甚	-11.3966
王烏	-11.3966
為邊患	-11.3966
以百數	-11.3968
家廟	-11.3968
小愈	-11.3968
為衛尉	-11.3969
不協	-11.3969
長恭	-11.3969
愚以為	-11.397
諸曹	-11.3971
十餘萬緡	-11.3972
交私	-11.3972
和氣	-11.3972
東第	-11.3972
迎降	-11.3974
怨恨	-11.3974
大怒召	-11.3975
河水	-11.3975
上書以為	-11.3975
周宗	-11.3977
鼓譟	-11.3977
為衆所	-11.3977
自衞	-11.3977
逃死	-11.3978
鍾離昧	-11.3978
華山	-11.3978
母后	-11.3979
此三人者	-11.3979
太宗嘗	-11.3981
卿曹	-11.3981
韓魏	-11.3981
賊勢	-11.3981
發長安	-11.3982
甚重	-11.3983
悉委	-11.3984
粟麥	-11.3986
少遊	-11.3986
還長安	-11.3987
九宫	-11.3987
執兵	-11.3988
悉出	-11.3989
天下未定	-11.3989
楊賜	-11.3989
不足平	-11.399
北虜	-11.3991
聞其過	-11.3991
俱詣	-11.3992
推心	-11.3994
也周禮	-11.3995
景山	-11.3995
劉崇	-11.3996
侍立	-11.3997
自河中	-11.3998
步兵	-11.4
第五倫傳	-11.4
愁苦	-11.4001
諸道監軍	-11.4001
不悅	-11.4001
適所以	-11.4001
化其	-11.4001
不可乆	-11.4003
請謁	-11.4003
畋於	-11.4004
悉集	-11.4004
上馬	-11.4004
抑亦	-11.4006
憂患	-11.4006
於華林園	-11.4007
衆十萬	-11.4007
通𤣥	-11.4008
為之備	-11.4009
乞留	-11.4009
興師	-11.4009
以司農卿	-11.401
鎮西	-11.401
德誠	-11.401
位望	-11.4011
武侯	-11.4012
江外	-11.4012
戰功	-11.4014
赦書	-11.4014
連城	-11.4015
日夕	-11.4015
史書	-11.4016
器服	-11.4017
因循	-11.4017
中夜	-11.4017
永州	-11.4017
侍從	-11.4017
在旁	-11.4018
歎曰我	-11.4019
攻戰	-11.402
近代	-11.402
思止	-11.402
王甫	-11.4021
戰勝	-11.4021
孝子	-11.4022
為善者	-11.4022
入海	-11.4022
私怨	-11.4022
名號	-11.4022
於城西	-11.4024
相似	-11.4024
或至	-11.4025
及其黨	-11.4025
凡六	-11.4025
六宫	-11.4027
手書	-11.4027
什一	-11.4027
至東都	-11.4028
它事	-11.4028
二弟	-11.4028
申生	-11.4029
特立	-11.4029
不能保	-11.403
六鎮	-11.4031
别置	-11.4031
諸縣	-11.4035
列置	-11.4036
將謂	-11.4037
在中書	-11.4037
兵精	-11.4037
留侯	-11.4037
武帝乃	-11.4038
十五人	-11.4038
開元五年	-11.4039
賊帥	-11.4039
正殿	-11.404
從横	-11.4041
胡太后	-11.4043
李業	-11.4044
縣度	-11.4044
請歸	-11.4044
豈可復	-11.4046
欲廢	-11.4046
司馬公	-11.4046
典兵	-11.4046
軍人	-11.4046
牛僧孺等	-11.4046
上疏以為今	-11.4047
望其	-11.4049
就食	-11.4049
名聲	-11.4049
詔許之	-11.4055
孤立	-11.4055
實利	-11.4056
州境	-11.4058
追還	-11.406
李雲	-11.4061
在軍中	-11.4062
不荅	-11.4062
其耳目	-11.4063
獵於	-11.4063
累表請	-11.4065
求退	-11.4066
不仕	-11.4066
張美	-11.4068
不怠	-11.4069
法禁	-11.4069
四十七	-11.4069
徳勝	-11.407
皆用	-11.4071
威信	-11.4072
下詔書	-11.4073
在東	-11.4074
遣使迎	-11.4074
據地	-11.4075
兵强	-11.4076
屯兵	-11.4076
寛仁	-11.4076
定制	-11.4077
進諌	-11.4078
終不言	-11.4079
白山	-11.4079
之饒	-11.408
從之由是	-11.4081
道秀	-11.4081
威望	-11.4082
並進	-11.4083
五侯	-11.4083
勞問	-11.4084
求入朝	-11.4084
所忌	-11.4085
遺民	-11.4085
請老	-11.4086
圖書	-11.4086
梁朝	-11.4086
盟約	-11.4087
請室	-11.4087
以示天下	-11.4087
數騎	-11.4088
明德	-11.4089
主帥	-11.409
雖强	-11.4093
金城	-11.4093
穆公	-11.4095
資用	-11.4096
坦曰	-11.4097
去年	-11.4099
毆之	-11.41
無幾	-11.4101
才徳	-11.4102
天府	-11.4102
來攻	-11.4102
入大梁	-11.4103
不謹	-11.4104
建徳	-11.4105
朝廷從之	-11.4107
與人言	-11.4107
衆口	-11.4108
論難	-11.411
世世	-11.411
所繫	-11.4111
方正	-11.4111
越騎校尉	-11.4112
趙魏	-11.4112
於其上	-11.4114
都官	-11.4115
焉晉	-11.4115
及羣臣	-11.4117
軍師	-11.4117
太初	-11.4118
成侯	-11.4119
洛陽令	-11.412
令所在	-11.4121
五采	-11.4121
士大夫皆	-11.4122
九重	-11.4126
出闗	-11.4126
失亡	-11.4128
賣之	-11.4128
外任	-11.4129
改作	-11.4129
何以得	-11.413
新平	-11.4131
姦吏	-11.4131
其内	-11.4131
武帝紀元光	-11.4132
乃可	-11.4133
表求	-11.4134
三十二	-11.4134
兵千人	-11.4134
避事	-11.4135
改過	-11.4135
秦滅	-11.4136
居方	-11.4136
賈復	-11.4138
三木	-11.4138
屢奏	-11.4139
之實	-11.414
相戒	-11.414
僚屬皆	-11.4142
軍校	-11.4143
弑君	-11.4144
百官及	-11.4145
督之	-11.4146
河南王	-11.4147
蕭復	-11.4148
承反	-11.4148
弟晦	-11.4149
者數人	-11.4151
為證	-11.4153
不能對	-11.4154
盈於	-11.4154
遣判官	-11.4155
為右僕射	-11.4155
自來	-11.4156
五千人	-11.4158
朝士有	-11.4159
異心	-11.4161
長城	-11.4161
既貴	-11.4162
親賢	-11.4162
假令	-11.4162
令甲	-11.4162
盡滅	-11.4165
求姑息	-11.4165
非特	-11.4166
率多	-11.4166
先帝所	-11.4166
文華	-11.4168
髙車	-11.417
邊兵	-11.4171
王儉	-11.4171
因薦	-11.4174
塞下	-11.4176
豈獨	-11.4177
學問	-11.4177
受降	-11.4179
已破	-11.418
輕而	-11.4183
朝見	-11.4183
昌言	-11.4183
平陵	-11.4184
元日	-11.4185
勤王	-11.4185
㧞其	-11.4185
歸義	-11.4185
宣宗曰	-11.4186
籌之	-11.4187
患者	-11.4188
其肉	-11.4188
王融	-11.4188
以為瑞	-11.4188
有神仙	-11.4189
務從	-11.4189
詔除	-11.4191
趙髙	-11.4192
大雅	-11.4194
成帝時	-11.4194
清素	-11.4195
腰斬之	-11.4197
遂立	-11.4201
既敗	-11.4202
賈人	-11.4202
時見	-11.4203
揚言	-11.4206
親吏	-11.4206
速進	-11.4207
百官議	-11.4208
明詔	-11.421
縁邊	-11.421
外議	-11.4211
北還	-11.4213
狄仁傑奏	-11.4213
俸禄	-11.4213
撫其	-11.4213
坐受	-11.4215
始皇	-11.4215
尚主	-11.4216
誅夷	-11.4216
周興	-11.4217
大化	-11.4217
日亂	-11.4217
安南	-11.4217
利則	-11.4219
陳勝	-11.4221
決矣	-11.4222
貴臣	-11.4223
初髙祖	-11.4223
待命	-11.4227
者數日	-11.4227
嚴整	-11.4227
陽太守	-11.4227
以軍法	-11.4227
者盖	-11.4229
軍大敗	-11.423
少長	-11.423
亡不	-11.4231
南城	-11.4231
克復	-11.4232
治安	-11.4232
嘗因	-11.4233
故有	-11.4233
太多	-11.4234
又使人	-11.4235
詔賜	-11.4237
委信	-11.4237
作樂	-11.424
營中	-11.4241
何罪而	-11.4243
特將	-11.4245
内實	-11.4245
職當	-11.4247
各歸	-11.4249
况今	-11.425
相謂曰	-11.425
以黄金	-11.4255
財用	-11.4255
相帥	-11.4257
都下	-11.4262
陸贄請	-11.4264
夜至	-11.4266
所害	-11.4267
如神	-11.4269
先定	-11.4272
不能奪	-11.4272
死自	-11.4273
日南	-11.4274
乏糧	-11.4275
依附	-11.4277
自投	-11.4278
憲宗命	-11.4279
不振	-11.4279
禁軍皆	-11.4281
皇天	-11.4282
深意	-11.4285
於我	-11.4287
表聞	-11.4288
深州	-11.4288
大言曰	-11.4293
遺令	-11.4294
羣生	-11.4295
即降	-11.4296
朕比	-11.4298
臣之言	-11.4301
無餘	-11.4304
舟中	-11.4304
封還	-11.4307
公侯	-11.4307
誠宜	-11.4308
已備	-11.4309
愚人	-11.4312
四分	-11.4312
奏樂	-11.4314
漢制	-11.4316
邪曰	-11.4316
等上言	-11.4319
國夫人	-11.432
説文曰	-11.4328
安民	-11.4332
官物	-11.4332
與奪	-11.4333
大聖	-11.4333
各反	-11.4335
一皆	-11.4337
宫内	-11.434
以免	-11.4342
致命	-11.4343
譬之	-11.4343
辭華	-11.4345
決事	-11.4346
好殺	-11.4348
行禮	-11.435
獨有	-11.435
為齊王	-11.435
迎上皇	-11.4352
書稱	-11.4357
走至	-11.4359
謂仁傑曰	-11.4361
時務	-11.4361
齊民	-11.4362
君親	-11.4363
外家	-11.4363
先進	-11.4363
遣其子	-11.4364
必不能	-11.4368
陛下誠	-11.4368
四鎮	-11.4369
門内	-11.4371
所不忍	-11.4372
而守之	-11.4373
與之共	-11.4378
利其	-11.4379
更日	-11.4381
方内	-11.4382
於京師	-11.4391
而為之	-11.4392
專事	-11.4393
非徒	-11.4394
無别	-11.4397
為博士	-11.4399
牋曰	-11.4399
不衰	-11.4401
竭忠	-11.4402
向使	-11.4403
徳宗以	-11.4405
主書	-11.4405
不妄	-11.4409
四十四	-11.441
全節	-11.441
兵起	-11.441
殿庭	-11.4413
於時	-11.4415
已甚	-11.4417
業已	-11.4418
後將軍	-11.4418
列將	-11.4423
為判官	-11.4427
聞之亦	-11.443
神武	-11.443
自長安	-11.4433
爲兵	-11.444
接之	-11.4441
母死	-11.4443
出宫	-11.4443
未嘗見	-11.4449
計然	-11.4452
還歸	-11.4453
遣使至	-11.4453
吳起	-11.4456
但令	-11.4461
則不能	-11.4465
愚臣	-11.4466
求歸	-11.4466
立制	-11.4467
為壽	-11.4472
不能去	-11.4479
又作	-11.4479
病也	-11.4484
曰昔周	-11.4486
因留	-11.4488
以厭之	-11.449
部吏	-11.4494
其舅	-11.4495
衆軍	-11.4497
善治	-11.4498
百餘萬	-11.4499
魏遣	-11.4499
塞上	-11.4502
亦知之	-11.4504
者皆令	-11.4504
安世	-11.4505
而歌	-11.4506
已降	-11.4508
太祖以	-11.451
六萬	-11.4511
魯人	-11.4513
漢軍	-11.4514
守道	-11.4515
周勃傳	-11.4522
咸言	-11.4523
謹曰	-11.4524
髙士廉	-11.4527
朝廷議	-11.4528
廣大	-11.4529
我意	-11.4534
也臣聞	-11.4538
一夫	-11.454
朕方	-11.4541
立嗣	-11.4544
近在	-11.4544
奉命	-11.4546
乃開	-11.4547
東陽	-11.4551
與士卒	-11.4553
望拜	-11.4553
等自	-11.4554
之灋	-11.4555
酬之	-11.4559
先君	-11.4562
為大司馬	-11.4562
内臣	-11.4564
法制	-11.4569
曰人言	-11.4573
曰吾與	-11.4576
每事	-11.4577
初武帝	-11.4579
平民	-11.458
嘗從	-11.4583
其所由	-11.4585
之所能	-11.4587
上封事曰	-11.459
爵邑	-11.4592
鼓吹	-11.4592
惜其	-11.4594
生業	-11.4595
而譽	-11.4596
才器	-11.4598
兵大敗	-11.46
之義也	-11.46
欲與之	-11.46
馮道等	-11.4601
隱之	-11.4604
賊衆	-11.4604
條奏	-11.4609
之寵	-11.4609
數稱	-11.4611
門生	-11.4612
是猶	-11.4613
往時	-11.4613
果如	-11.4613
凡得	-11.4614
得疾	-11.4617
能任	-11.4618
而忘	-11.4618
斂以	-11.4623
權行	-11.4624
為吏部尚書	-11.4624
以益	-11.4625
術也	-11.4625
居民	-11.4626
不重	-11.463
與諸將	-11.4631
糾之	-11.4633
固請曰	-11.4647
請出	-11.4649
拜表	-11.4652
秦國	-11.4655
詰之曰	-11.4656
擊大破之	-11.466
吾軍	-11.4661
所記	-11.4665
諸宰相	-11.4675
元年以	-11.4677
為限	-11.4679
賴之	-11.468
不接	-11.4682
事畢	-11.4685
臺郎	-11.4685
天也	-11.4701
外雖	-11.4709
之主也	-11.471
其手	-11.4712
明帝聞	-11.4714
吾能	-11.4726
與突厥	-11.473
乞更	-11.4732
等十餘人	-11.4733
言故	-11.4733
不充	-11.4736
不施	-11.4737
不驗	-11.4741
徳且	-11.4744
中夏	-11.4745
言笑	-11.4745
允之	-11.4746
百五十	-11.4748
卿自	-11.4749
必求	-11.4757
縱有	-11.4759
皆依	-11.4761
之姪	-11.4764
王經	-11.4765
然其	-11.477
以為神	-11.4777
欲奪	-11.4779
者什	-11.4781
顧左右曰	-11.4785
萬户	-11.4786
所虜	-11.4788
不退	-11.4788
以自固	-11.4789
郴州	-11.4791
表至	-11.4794
神明之	-11.4794
之捷	-11.4796
晉臣	-11.48
入地	-11.4801
義無	-11.4803
勿使	-11.4805
耳太宗	-11.4805
專殺	-11.4807
時朝廷	-11.4807
為詐	-11.4809
且死	-11.4812
稱兵	-11.4812
入廟	-11.4814
國命	-11.4816
亦不知	-11.4819
宜且	-11.4823
五行	-11.4826
四年以	-11.4827
以避之	-11.4832
土人	-11.4833
知政事	-11.4834
亦善	-11.4836
之端	-11.4838
對曰今	-11.4841
廢事	-11.4841
散其	-11.4845
發使	-11.4851
生死	-11.4853
焉故	-11.4858
於全忠曰	-11.4863
服飾	-11.4865
緩之	-11.4865
表賀	-11.4871
條對	-11.4871
而身	-11.4872
過度	-11.4872
漢法	-11.4873
朱家	-11.4876
為廷尉	-11.4876
七年以	-11.4877
長安三年	-11.488
髙大	-11.4882
年矣	-11.4882
制敕	-11.4884
命世	-11.4887
自便	-11.4889
刑名	-11.489
者也其	-11.4895
萬全	-11.4898
辭疾不	-11.4899
南夷	-11.4902
而西	-11.4907
用錢	-11.491
慟哭曰	-11.4912
其兄	-11.4922
張耳	-11.4922
有警	-11.4925
隂與	-11.4926
其聲	-11.4929
禄位	-11.493
誠如	-11.494
逢吉之黨	-11.4941
益多	-11.4944
及左右	-11.495
已上	-11.4956
囚徒	-11.4958
祖逖	-11.496
耳若	-11.496
失出	-11.4962
敢有	-11.4962
安用	-11.4963
而誰	-11.4965
而已及	-11.4968
嗣子	-11.497
訪於	-11.4978
自選	-11.4988
守謙	-11.4988
出就	-11.4991
累聖	-11.4997
請發	-11.4998
之北齊	-11.4998
也世祖	-11.5004
文案	-11.5011
自經	-11.5012
平居	-11.5012
意所	-11.5017
為愚	-11.5028
請去	-11.5031
其名而	-11.5032
其色	-11.5032
傾身	-11.5032
也明帝	-11.5043
而悔之	-11.5045
不給	-11.5046
莊宗怒	-11.5048
正為	-11.5048
軍屯	-11.5053
以災異	-11.5058
文字	-11.5058
仁傑曰	-11.5058
縱不	-11.5062
部下	-11.5063
常從	-11.5063
正當	-11.5064
或請	-11.5066
公能	-11.5067
臣竊以為	-11.5071
導曰	-11.5073
殺傷	-11.5074
天下無事	-11.5075
其後又	-11.5077
姿	-11.5082
永和	-11.5082
衆以為	-11.5089
説文云	-11.5106
然也	-11.5109
不决	-11.511
以成其	-11.5113
唐家	-11.5116
之濫	-11.512
而立之	-11.5121
之譏	-11.5122
入流	-11.5127
皆廢	-11.5131
之官也	-11.5144
賊至	-11.5146
以成功	-11.5151
之夫	-11.5155
舍也	-11.5158
與之爭	-11.5159
長安中	-11.5163
服御	-11.5164
大惡	-11.5164
而害	-11.5169
存而	-11.517
未嘗有	-11.5173
録囚	-11.5174
上表曰	-11.518
在今	-11.5181
乃免	-11.5182
面折	-11.5185
在長安	-11.5186
即行	-11.519
詔下	-11.5197
賜物	-11.5199
使百姓	-11.5203
權時	-11.5204
之以禮	-11.5205
後晉天福	-11.5206
善事	-11.5207
達官	-11.5211
入居	-11.5212
至少	-11.5214
辭禄	-11.5218
任用	-11.522
萬全之	-11.5224
有之乎	-11.5229
也蘇林曰	-11.523
五兵	-11.523
之罪也	-11.5239
無所取	-11.5245
贈之	-11.5248
閏月	-11.5252
其要	-11.5253
無備	-11.5253
不禁	-11.5259
月光	-11.5263
角力	-11.5263
為三等	-11.5265
雖未	-11.5266
官曹	-11.5269
勸人	-11.5269
與亮	-11.527
輕我	-11.527
棄其	-11.5271
漢因	-11.5271
實欲	-11.5272
七百	-11.5276
迎拜	-11.5277
開元四年	-11.5278
不細	-11.5283
茍有	-11.5289
能斷	-11.5293
昌侯	-11.5295
此所以	-11.5296
言其狀	-11.5301
為河南	-11.5301
之學	-11.5306
從容言於	-11.5307
也文帝曰	-11.5308
禎	-11.5309
入謁	-11.5309
退則	-11.5311
皇后傳十	-11.5315
為奴	-11.5316
豈為	-11.5316
勞民	-11.5317
擊破之	-11.532
腹心之	-11.5322
死乎	-11.5323
孝成	-11.5325
劉延	-11.5329
簡文	-11.5331
草表	-11.5339
隴右節度使	-11.5345
累表	-11.5347
但言	-11.5352
以補	-11.5353
誠以	-11.5354
引薦	-11.536
怒遂	-11.536
術者	-11.5361
饑寒	-11.5362
與陛下	-11.5367
匿於	-11.5368
去後	-11.5369
崇徳	-11.537
然後可	-11.5371
卿宜	-11.5372
曲也	-11.5372
人君之	-11.5374
皆受	-11.5375
自退	-11.5386
負恩	-11.5389
顧左右	-11.5398
傳五	-11.5399
無愧	-11.5399
為翰林學士	-11.5402
無日	-11.5409
詣中書	-11.5412
五百餘	-11.5413
征之	-11.5416
論奏	-11.5423
而薄	-11.5427
有龍	-11.5431
陛下但	-11.5444
以青	-11.5448
鳴鼓	-11.5448
諫大夫	-11.5449
不之罪	-11.545
每自	-11.5453
有馬	-11.5454
髙宗曰	-11.5461
十萬衆	-11.5465
奉表稱臣	-11.5477
舉之	-11.5479
牙兵	-11.5482
毎有	-11.5484
其氣	-11.5487
使匈奴	-11.5497
武陵王	-11.5498
自是不復	-11.5498
其流	-11.5503
慕之	-11.5507
霸曰	-11.5518
吾民	-11.5518
勞之曰	-11.5521
罪深	-11.5521
徳政	-11.5524
北魏世祖	-11.5525
乃求	-11.5528
與之議	-11.5529
竊為	-11.5531
山路	-11.5533
忠清	-11.5544
豈可以	-11.5546
百六	-11.5547
勿用	-11.555
將入	-11.5553
請俟	-11.5558
為後	-11.5558
哉故	-11.5561
與彼	-11.5564
矣帝	-11.5569
永徽	-11.5582
孔融傳	-11.5584
十七萬	-11.5597
惟恐	-11.5599
謂之四	-11.56
素以	-11.5601
門宋	-11.5602
都督府	-11.5608
濟南王	-11.5611
親帥	-11.5615
致其	-11.5616
降契丹	-11.5619
今天子	-11.5627
上疏曰昔	-11.5629
晉人	-11.5646
侍中尚書	-11.5648
犯顔	-11.5649
應天	-11.5657
並出	-11.5659
請封禪	-11.5674
後唐同光元年	-11.5674
等皆曰	-11.5675
於佛	-11.5678
已亡	-11.5679
民愁	-11.5691
送京師	-11.5691
百家	-11.5694
不勞	-11.57
但見	-11.5703
但使	-11.5705
佐命	-11.5706
東向	-11.5711
觀者	-11.5718
民家	-11.5721
一二日	-11.5722
其腹	-11.5723
禽之	-11.5723
下馬	-11.5724
勿效	-11.573
王大怒	-11.5746
温彦博	-11.5747
猶如	-11.5752
犯灋	-11.5752
悉令	-11.5754
以為賢	-11.576
武人	-11.5764
之以問	-11.5766
失言	-11.5769
之亡也	-11.577
琬曰	-11.5772
所留	-11.5772
金人	-11.5776
初定	-11.5782
陳王	-11.5785
之第	-11.5785
子恪	-11.5789
一軍	-11.5794
梁大同	-11.5796
致逺	-11.5802
白太后	-11.5809
韓信傳	-11.5811
也師古曰言	-11.5812
門漢王	-11.5817
王彪之	-11.5817
湘州	-11.5823
山北	-11.5826
相尚	-11.5828
四方貢獻	-11.5829
起居注	-11.583
蜀郡	-11.5831
班超傳	-11.5832
終不可	-11.5833
之異	-11.5835
九章	-11.5842
位任	-11.5847
後乃	-11.5848
赦其	-11.5848
將領	-11.5852
軍還	-11.5858
其所以失	-11.5859
新野	-11.586
知其非	-11.5863
武皇帝	-11.5865
昌邑	-11.5868
王傅	-11.5868
讒人	-11.5875
言無所	-11.5875
辭去	-11.5876
鹽鐵使	-11.5879
曰何故	-11.588
聲教	-11.5888
士及	-11.589
廢矣	-11.5893
之舊臣	-11.5895
而明	-11.5896
江海	-11.5905
錢二	-11.5909
天授	-11.5915
虚無	-11.5916
行部	-11.5921
守宫	-11.5928
一萬	-11.5928
君欲	-11.5931
年已	-11.5934
不惟	-11.5939
孫伏伽	-11.5946
貞明元年	-11.5947
與相	-11.595
蒼生之	-11.5952
賜帛	-11.5957
羣盗	-11.5958
神策	-11.5962
過江	-11.5963
九年初	-11.5979
積粟	-11.598
印文	-11.5983
可減	-11.5984
李大亮	-11.5984
五部	-11.5984
使御史	-11.5984
容之	-11.5989
盡善	-11.5991
謝曰臣	-11.5991
曰自古帝王	-11.5996
復修	-11.5998
中塗	-11.5998
書勸	-11.6
已多	-11.6001
性嚴	-11.6001
皆倣	-11.6002
元光五年	-11.6003
免罪	-11.6006
年十二	-11.6009
宋元嘉	-11.6013
中傷	-11.6014
中堂	-11.6014
百斤	-11.6028
朕甚	-11.6031
朝㑹	-11.6036
宗親	-11.6056
存問	-11.6056
甚怒	-11.6058
三載	-11.6061
言於太宗曰	-11.6061
建武六年	-11.6062
舒州	-11.6068
炳	-11.6069
之貌	-11.607
計將安出	-11.6071
外祖	-11.6071
上疏曰陛下	-11.6073
何物	-11.6073
窮其	-11.6079
流於	-11.6081
甚薄	-11.6088
乃賜	-11.609
其民	-11.609
竭力	-11.6096
挺	-11.6101
得預	-11.6105
王朴	-11.6107
皆知之	-11.6115
臣則	-11.6127
汝士	-11.6128
皆得	-11.6134
四十一	-11.6134
勛	-11.6138
晉武	-11.6144
袁安	-11.615
十三人	-11.6151
滅亡	-11.6153
禳	-11.6154
紗	-11.6157
凡百	-11.6157
摹	-11.6162
酒為樂	-11.6169
嵗中	-11.6171
二郡	-11.6172
王尊	-11.6172
謂人曰吾	-11.6174
百户	-11.6177
貊	-11.6178
反誅	-11.618
依倚	-11.6185
庫物	-11.6196
測	-11.6199
所進	-11.62
恃勇	-11.6201
對羣臣	-11.6203
建初元年	-11.6212
勸農	-11.6212
廣志曰	-11.6212
比隆	-11.6215
以虧	-11.6218
有殊	-11.622
襄楷	-11.6221
在鄴	-11.6221
丹陽尹	-11.6229
度世	-11.6234
千四百	-11.6239
浙東	-11.6241
刑法	-11.6248
皇城使	-11.6257
其敗	-11.6264
會昌	-11.6265
字耳	-11.6266
嶺南節度使	-11.6269
知樞宻	-11.627
慧龍	-11.6271
縯	-11.6271
任城王澄	-11.6275
𢎞肈	-11.6276
前鋒	-11.6278
三十餘	-11.6279
贅	-11.6279
八年初	-11.6279
峴	-11.6279
庶幾	-11.6281
以私財	-11.6283
按問	-11.6283
誰可	-11.6283
無賴子弟	-11.6285
猫	-11.6287
慧	-11.6288
餘黨	-11.6289
鑄鐵錢	-11.6289
栁泌	-11.6291
承禎	-11.6292
晷	-11.6293
中領軍	-11.6293
劉闢	-11.6293
者由妾	-11.6294
勰	-11.6296
丹青之信	-11.6296
太重	-11.6297
雍州刺史	-11.6298
椒風	-11.6298
娱	-11.6299
昬姻	-11.6299
纎介	-11.6299
曰事急矣	-11.6301
韓安國	-11.6301
三老五更	-11.6302
畔換	-11.6302
黄鵠	-11.6302
珣	-11.6302
希聲	-11.6302
繦	-11.6303
贈諡	-11.6303
漕渠	-11.6305
光宅元年	-11.6305
涇原	-11.6305
王僧達	-11.6305
卿邪	-11.6305
廊廟	-11.6306
立七廟	-11.6306
𨕖	-11.6306
雖知	-11.6306
貪鄙	-11.6307
遑	-11.6307
太寧二年	-11.6307
民不堪命	-11.6307
年耆	-11.6307
去病傳	-11.6308
老公	-11.6309
蒿	-11.6309
襄王	-11.6309
銀青光禄大夫	-11.631
鋊	-11.631
執之	-11.6311
瞀	-11.6312
謂曰朕	-11.6312
百姓愁怨	-11.6312
洩	-11.6312
𤨏	-11.6312
乾坤	-11.6312
晃	-11.6312
皥	-11.6313
澹	-11.6313
荆南髙季興	-11.6313
袁恕已	-11.6313
醪	-11.6313
載縉	-11.6313
路温舒	-11.6313
周朗	-11.6313
太子少保	-11.6314
米斗	-11.6314
太康三年	-11.6314
贅壻	-11.6314
相望於道	-11.6314
張公謹	-11.6314
烽燧	-11.6314
遐邇	-11.6314
羡餘	-11.6315
萬計	-11.6315
屨	-11.6316
玩好	-11.6316
仲堪	-11.6316
諦	-11.6316
薛萬徹	-11.6316
趙王鎔	-11.6316
邳肜	-11.6316
曷	-11.6316
畆	-11.6316
叛逆	-11.6317
婚	-11.6317
慕容暐	-11.6317
汴渠	-11.6317
忿懟	-11.6317
東鄉君	-11.6317
皮幣	-11.6317
辛雄	-11.6317
玫	-11.6318
儀同三司	-11.6318
顯德三年	-11.6318
後梁貞明五年	-11.6318
雩	-11.6318
鉷	-11.6319
侯昌業	-11.6319
宋元嘉八年魏	-11.6319
簪	-11.6319
麥飯	-11.6319
昆蟲	-11.6319
輔𨗳	-11.6319
東昬侯	-11.6319
同中書門下三品	-11.6319
三千户	-11.632
槐	-11.632
困窮	-11.632
閹豎	-11.632
髙行周符彦卿	-11.632
仄	-11.632
鮑永	-11.632
悛改	-11.6321
秪	-11.6321
杜鴻漸	-11.6321
門東漢	-11.6322
餗	-11.6323
姊妹	-11.6323
有令名	-11.6323
跳	-11.6323
長孫嵩	-11.6323
召見與語	-11.6323
開成三年	-11.6323
俎	-11.6323
刀鋸	-11.6323
大通元年	-11.6323
棣	-11.6323
營陽王	-11.6323
蹂踐	-11.6323
鷇飲	-11.6323
欠	-11.6323
同光三年	-11.6323
懾	-11.6324
裴矩	-11.6324
釡	-11.6324
卒於家	-11.6324
鬼薪白粲	-11.6324
史館修撰	-11.6324
有離心	-11.6324
朕復何憂	-11.6324
耿純	-11.6324
馮道根	-11.6324
腹背	-11.6324
雙流	-11.6324
俠累	-11.6324
劉幽求	-11.6324
半兩錢	-11.6324
契苾何力	-11.6324
尫	-11.6324
秘書監	-11.6324
糧餉	-11.6324
聶政	-11.6324
劉寔	-11.6324
遣大將	-11.6324
獠	-11.6325
元帥府	-11.6325
斜	-11.6325
昫	-11.6325
𢎞熈	-11.6325
干戈	-11.6325
赫	-11.6325
改容謝之	-11.6325
約為兄弟	-11.6325
翼戴	-11.6325
伃	-11.6325
俘斬	-11.6325
無虚日	-11.6325
詰旦	-11.6325
拱黙	-11.6325
秦王世民	-11.6325
賖	-11.6325
右賢王	-11.6325
并閭	-11.6325
玢	-11.6325
匄	-11.6326
嘿	-11.6326
鮑	-11.6326
灼	-11.6326
穰	-11.6327
巨細	-11.6327
以社稷大計	-11.6327
公私困竭	-11.6327
元嘉二十九年	-11.6327
庖	-11.6327
劉琨	-11.6327
庚辰	-11.6327
龍驤將軍	-11.6327
􁂥	-11.6327
不可忘也	-11.6327
人面獸心	-11.6327
俄頃	-11.6327
劉勔	-11.6327
含章殿	-11.6327
爰盎傳	-11.6327
甲寅	-11.6327
盧從愿	-11.6327
郗鑒	-11.6327
鼎沸	-11.6327
以是觀之	-11.6327
以輕舟	-11.6327
崔元藻	-11.6327
庫以掌之	-11.6327
緍	-11.6327
彛	-11.6327
㑹昌三年	-11.6328
䟦扈	-11.6328
剽	-11.6328
盆	-11.6328
䜟記	-11.6328
不足憂也	-11.6328
自旦至	-11.6328
事無大小皆咨	-11.6328
以軍功	-11.6328
孝悌	-11.6328
二失也	-11.6328
器玩	-11.6328
珍寶	-11.6328
紫袍	-11.6328
將作大匠	-11.6328
嶢	-11.6328
慕容泓	-11.6328
混壹	-11.6328
逡廵	-11.6328
都官員外郎	-11.6328
鋒刃	-11.6328
陳後主	-11.6328
儒雅	-11.6328
屛	-11.6328
張宗奭	-11.6328
强弩	-11.6328
枉矢	-11.6328
綆	-11.6328
薫	-11.6328
諫議大夫褚遂良曰	-11.6328
還軍霸上	-11.6328
鉗口	-11.6328
陳處堯	-11.6328
鉅	-11.6328
不聊生	-11.6328
蓬萊	-11.6329
車騎大將軍	-11.6329
綸	-11.6329
陸賈	-11.6329
涿	-11.6329
楊嗣復	-11.6329
阿房	-11.633
劉景升	-11.633
倒縣	-11.633
定陶共皇	-11.633
庾翼	-11.633
四州之地	-11.633
慈悲	-11.633
灑掃	-11.633
兒女子	-11.633
瀆	-11.633
突圍	-11.633
耗竭	-11.633
都督中外諸軍事	-11.633
奠	-11.633
姚萇	-11.633
皇甫徳參	-11.633
跅	-11.633
億兆	-11.633
僵	-11.633
季札	-11.633
旁午	-11.633
上疏諫曰	-11.633
疇	-11.633
函谷	-11.6331
彀	-11.6331
墉	-11.6331
之驚喜	-11.6331
睨	-11.6331
闗播	-11.6331
時人為之語曰	-11.6331
桑榆	-11.6331
泰始元年	-11.6331
中常侍侯覽	-11.6331
努力	-11.6331
慕容皝	-11.6331
薛文遇	-11.6331
軍乏食	-11.6331
以為己功	-11.6331
山之陽	-11.6331
廣順元年	-11.6331
映	-11.6331
戊午	-11.6332
紈	-11.6332
承鈞	-11.6332
霄	-11.6332
諍	-11.6332
廻	-11.6332
糲	-11.6332
十二律	-11.6332
掌握	-11.6332
武始侯	-11.6332
沖幼	-11.6332
莒	-11.6332
城旦舂	-11.6332
願陛下勿以	-11.6332
三失也	-11.6332
刻木為	-11.6332
有喜色	-11.6332
裾	-11.6332
公孫述傳	-11.6332
千金公主	-11.6332
晉公䕶	-11.6332
何時當	-11.6332
善屬文	-11.6332
為民父母	-11.6332
狎暱	-11.6332
言於堅曰	-11.6332
崔慎由	-11.6332
崔暹	-11.6332
田畆	-11.6332
菜色	-11.6332
淮隂	-11.6333
轅	-11.6333
季昶	-11.6333
陂	-11.6333
孝本女	-11.6333
庶長	-11.6333
筑	-11.6334
丘墟	-11.6334
𦕈	-11.6334
扼腕	-11.6334
大厯十二年	-11.6334
孝明皇帝	-11.6334
國之大事	-11.6334
崔潭峻	-11.6334
挺身	-11.6334
旃	-11.6334
杜門不出	-11.6334
神靈之	-11.6334
孔奐	-11.6334
慙而止	-11.6334
於天津橋	-11.6334
此曹皆	-11.6334
永明元年	-11.6334
貞觀十年	-11.6334
饑饉	-11.6334
大甕	-11.6334
征西將軍	-11.6334
濮陽	-11.6334
者浸多	-11.6334
蓺	-11.6334
拓䟦	-11.6334
墾	-11.6334
燾	-11.6335
騖	-11.6335
臣愚以為宜	-11.6335
引以為相	-11.6335
義熙	-11.6335
寵姬	-11.6335
戸部侍郎	-11.6335
禳災	-11.6335
湏	-11.6335
後梁開平二年	-11.6335
段文昌	-11.6335
芸	-11.6335
視膳	-11.6335
有才識	-11.6335
歸怨於	-11.6335
民不聊生	-11.6335
照鄰	-11.6335
縶	-11.6335
赴井	-11.6335
開門納	-11.6335
中和二年	-11.6335
巖廊	-11.6335
左軍中尉	-11.6335
没弈于	-11.6335
牛元翼	-11.6335
獻瓜果者	-11.6335
皂	-11.6335
神功元年	-11.6335
索元禮	-11.6335
憬藏	-11.6335
淑	-11.6335
鄭普思	-11.6336
鳥獸	-11.6336
劉從諫	-11.6336
稺	-11.6336
眷	-11.6337
髻	-11.6337
寳厯二年	-11.6337
寳應元年	-11.6337
以笏擊	-11.6337
抑揚	-11.6337
輕侮	-11.6337
鄉村	-11.6337
隻	-11.6337
咸康元年	-11.6337
悽	-11.6337
汲汲	-11.6337
的	-11.6337
警蹕	-11.6337
逍遥	-11.6337
僊	-11.6337
戈船	-11.6337
笥	-11.6337
軹	-11.6337
嘉平元年	-11.6337
烽火	-11.6337
蕭翰	-11.6337
陪侍	-11.6337
鉦	-11.6337
沸	-11.6337
邯	-11.6337
謠	-11.6337
祕器	-11.6337
恵妃	-11.6337
卯	-11.6338
查文徽	-11.6338
祁	-11.6338
此上䇿也	-11.6338
納賂	-11.6338
飢饉	-11.6338
七百里	-11.6338
元康元年	-11.6338
内侮	-11.6338
劉祥道	-11.6338
國子監	-11.6338
壬午	-11.6338
毐	-11.6338
求援於	-11.6338
節鉞	-11.6338
㰱	-11.6338
侯思止	-11.6338
衆十餘萬	-11.6338
裴伷先	-11.6338
迪	-11.6338
措	-11.6339
壕	-11.6339
煌	-11.6339
西都賦云	-11.6339
太傅越	-11.6339
暄	-11.6339
竄謫	-11.6339
沔水	-11.6339
茅焦	-11.6339
裴休	-11.6339
孝建三年	-11.6339
撫諭	-11.6339
李紹榮	-11.6339
柯	-11.6339
歷	-11.6339
糧儲	-11.6339
縌	-11.6339
蕭條	-11.6339
踊躍	-11.6339
閒暇	-11.6339
圍碁	-11.6339
崔沂	-11.6339
悔之無及	-11.6339
戱	-11.6339
秭歸	-11.6339
蠲免	-11.6339
衛鞅	-11.6339
諂䛕	-11.6339
軒轅集	-11.6339
鍉	-11.6339
駔	-11.6339
六千	-11.634
古人有言	-11.634
壯麗	-11.634
趙充國傳	-11.634
夸	-11.634
拱手	-11.634
不敢奉詔	-11.634
湜	-11.634
沾	-11.6341
卿軰	-11.6341
汁	-11.6341
拆	-11.6341
劉隗	-11.6341
廷珪	-11.6341
撲殺之	-11.6341
曇	-11.6341
有慙色	-11.6341
李懐光	-11.6341
永元二年	-11.6341
蘇瓌	-11.6341
貞觀十八年	-11.6341
蹈藉	-11.6341
鍛	-11.6341
富沙王	-11.6341
巵酒	-11.6341
承平日久	-11.6341
昏姻	-11.6341
為惡者	-11.6341
裴行立	-11.6341
遞	-11.6341
仲瑀	-11.6341
圭	-11.6341
簡閱	-11.6341
雊	-11.6341
鼒	-11.6341
騁	-11.6341
徐知誥	-11.6341
囿	-11.6341
葱嶺	-11.6341
炊	-11.6341
欽緒	-11.6342
簾	-11.6342
崔琰	-11.6342
之甥也	-11.6342
栁璨	-11.6342
几杖	-11.6342
天成二年	-11.6342
璿	-11.6342
隧	-11.6342
權侔人主	-11.6342
知貢舉	-11.6342
詣闕上書	-11.6342
五行志	-11.6342
以日易月	-11.6342
於階下	-11.6342
鼎足	-11.6342
湛傳十	-11.6342
軍旅之事	-11.6342
歌舞	-11.6342
無怨言	-11.6342
諫官御史	-11.6342
黙然良久曰	-11.6342
劉般	-11.6342
匱乏	-11.6342
崔季舒	-11.6342
崔安潛	-11.6342
曷若	-11.6342
歸咎於	-11.6342
盧文紀	-11.6342
紫陌	-11.6342
三覆奏	-11.6342
島	-11.6342
旬餘	-11.6342
棱	-11.6342
王慧龍	-11.6342
糶鹽	-11.6342
褒賞	-11.6342
誹謗朝政	-11.6342
賦稅	-11.6342
迕	-11.6342
伊邪莫演	-11.6342
贏	-11.6342
吏或	-11.6343
窟	-11.6343
夙	-11.6343
厮	-11.6343
紊	-11.6343
狗馬之	-11.6343
數十里	-11.6343
晩年	-11.6343
起居舎人	-11.6343
景龍二年	-11.6343
棄城走	-11.6343
傭	-11.6343
昂	-11.6343
驪姬	-11.6343
受賕	-11.6343
愈熾	-11.6343
續漢書	-11.6343
乾符元年	-11.6343
卑辭厚禮	-11.6343
帑藏	-11.6343
李峴	-11.6343
為淮南監軍	-11.6343
紓	-11.6343
逗	-11.6343
時和年豐	-11.6343
李彦韜	-11.6343
武帝紀元封	-11.6343
然後奏聞	-11.6343
笠	-11.6343
蕞爾	-11.6343
虫	-11.6343
觀軍容使	-11.6343
鐫	-11.6343
闚	-11.6343
鼐	-11.6343
安審琦	-11.6343
攪	-11.6343
衰絰	-11.6343
鋤	-11.6343
齊王璟	-11.6343
哂	-11.6344
儒林傳	-11.6344
天監十	-11.6344
清泰二年	-11.6344
黠	-11.6344
右庶子	-11.6344
蔡邕傳五十下	-11.6344
控鶴	-11.6344
五千匹	-11.6344
蟠	-11.6344
攬	-11.6345
寫	-11.6345
敬瑄	-11.6345
汝南太守	-11.6345
封諸舅	-11.6345
龍鱗	-11.6345
園宅	-11.6345
日昃	-11.6345
伏惟陛下	-11.6345
周興來俊臣	-11.6345
大明二年魏	-11.6345
愚智	-11.6345
明哲	-11.6345
暴虐	-11.6345
筠	-11.6345
嗤	-11.6345
太和七年	-11.6345
孔戣	-11.6345
應天順人	-11.6345
溝壑	-11.6345
溷	-11.6345
盧質	-11.6345
等八人	-11.6345
踰垣	-11.6345
天官侍郎	-11.6345
太宰義恭	-11.6345
姚南仲	-11.6345
姦吏因縁	-11.6345
愆違	-11.6345
扞禦	-11.6345
舟楫	-11.6345
長楊五柞	-11.6345
輅	-11.6345
墻	-11.6346
俯仰	-11.6346
劉屈氂傳	-11.6346
不相容	-11.6346
鄭餘慶	-11.6346
曰妾聞	-11.6346
韓範	-11.6346
髦	-11.6346
上官桀	-11.6346
深怨之	-11.6346
清淨	-11.6346
羣臣莫敢言	-11.6346
太后太妃	-11.6346
奪民田	-11.6346
感動	-11.6346
羸疾	-11.6346
為仇敵	-11.6346
耕稼	-11.6346
豆盧革韋説	-11.6346
貞觀十四年	-11.6346
駑	-11.6346
人曰伯蔚	-11.6346
以防壅蔽	-11.6346
别貯	-11.6346
問誰可	-11.6346
沈敏	-11.6346
畜積	-11.6346
程行湛	-11.6346
舍匿	-11.6346
蒱博	-11.6346
髙少逸	-11.6346
鷹隼	-11.6346
黄門郎	-11.6346
二十餘萬	-11.6347
叨	-11.6347
盧坦	-11.6347
野雞	-11.6347
璜	-11.6347
付廷尉	-11.6347
紇	-11.6348
醢	-11.6348
魏主珪	-11.6348
紈素	-11.6348
帥禁兵	-11.6348
大峴	-11.6348
專制朝政	-11.6348
山南西道節度使	-11.6348
詘	-11.6348
禧	-11.6348
虹	-11.6348
伊吾	-11.6348
佛像	-11.6348
大理丞	-11.6348
學校	-11.6348
宫闈	-11.6348
數月之間	-11.6348
煮	-11.6348
總章二年	-11.6348
羇旅	-11.6348
韓歆	-11.6348
叛陛下也	-11.6348
數年之間	-11.6348
泛海	-11.6348
牛皮	-11.6348
珠璣	-11.6348
張蒼	-11.6348
楊虞卿	-11.6348
惋	-11.6348
碧	-11.6348
犬戎	-11.6348
駭愕	-11.6348
君臣之分	-11.6349
爵禄	-11.6349
憤憤	-11.6349
貨賄	-11.6349
不亦難乎	-11.6349
突門	-11.6349
羸弱	-11.6349
謹慎	-11.6349
籯	-11.6349
自古以來	-11.6349
領樞宻使	-11.6349
㳟	-11.6349
免為庶人	-11.6349
月氐	-11.6349
理亂之	-11.6349
苛刻	-11.6349
誠如卿言	-11.6349
豫章太守	-11.6349
跖	-11.6349
遷都洛陽	-11.6349
倪若水	-11.6349
固辭不受	-11.6349
孝成皇帝	-11.6349
有盛名	-11.6349
邊戍	-11.6349
靈帝紀	-11.6349
悉怛謀	-11.6349
於馬上	-11.6349
昭帝紀元鳳	-11.6349
柹	-11.6349
郭元振	-11.6349
駕鶴	-11.6349
魏仁浦	-11.6349
伍被	-11.6349
甚焉	-11.6349
不自勝	-11.6349
戣	-11.6349
蠡	-11.6349
徳彛	-11.635
抑損	-11.635
相顧失色	-11.635
鄭朗	-11.635
朱雲	-11.635
粥	-11.635
兹事	-11.635
拊	-11.635
藍田	-11.635
悔無及矣	-11.635
朕之不明	-11.635
元康二年	-11.635
孝敬	-11.635
戰栗	-11.635
天復元年	-11.635
性怯	-11.635
恚恨	-11.635
慕容紹宗	-11.635
楹	-11.635
羌胡	-11.635
開元九年	-11.635
因以為名	-11.635
地節三年	-11.635
市肆	-11.635
性剛急	-11.635
應對如流	-11.635
長樂宫	-11.635
元興二年	-11.635
呼萬嵗	-11.635
城陽王	-11.635
執轡	-11.635
建國門	-11.635
獄訟	-11.635
眇	-11.635
按轡	-11.635
纒	-11.635
開元十三年	-11.635
埆	-11.635
氊	-11.6351
武俊	-11.6351
求婚	-11.6351
王暢	-11.6351
綾	-11.6351
謔	-11.6351
諠	-11.6352
縱未能	-11.6352
紆	-11.6352
范蠡	-11.6352
涕泗	-11.6352
萬乘之主	-11.6352
資裝	-11.6352
蹶張	-11.6352
太元十四年	-11.6352
風塵	-11.6352
字或作	-11.6352
居中用事	-11.6352
敦睦	-11.6352
湯沐邑	-11.6352
眀皇	-11.6352
言於莊宗曰	-11.6352
亂臣賊子	-11.6352
太子監國	-11.6352
媟	-11.6352
孰大焉	-11.6352
張純	-11.6352
彈劾	-11.6352
武帝紀元鼎	-11.6352
豆盧革	-11.6352
鹿臺	-11.6352
齊王縯	-11.6352
星辰	-11.6352
飭	-11.6352
帑	-11.6352
萬紀	-11.6353
詈	-11.6353
擇其人	-11.6353
太醫	-11.6353
扵	-11.6353
觖望	-11.6353
貪暴	-11.6353
爛	-11.6353
賈豎	-11.6353
遣使入貢	-11.6353
錢十萬緡	-11.6353
天復二年	-11.6353
段氏	-11.6353
浸潤	-11.6353
五百騎	-11.6353
儀仗	-11.6353
專恣	-11.6353
承乾	-11.6353
伊洛	-11.6353
所恃者	-11.6353
楊慎矜	-11.6353
籬	-11.6353
諳練	-11.6353
鍾離城	-11.6353
驕横	-11.6353
田蚡	-11.6354
焚燒	-11.6354
碁	-11.6354
盧龍	-11.6354
不加罪	-11.6354
尚帝女	-11.6354
謂宰相曰朕毎	-11.6355
目不知書	-11.6355
内外之任	-11.6355
𣗳	-11.6355
城門校尉	-11.6355
富商大賈	-11.6355
瞻仰	-11.6355
五十餘年	-11.6355
來歙	-11.6355
南兖州刺史	-11.6355
售	-11.6355
娘	-11.6355
有儲積	-11.6355
朱勃	-11.6355
毛羽	-11.6355
蕭至忠	-11.6355
髯	-11.6355
剔	-11.6355
吳越王鏐	-11.6355
周玘	-11.6355
四鎮十姓	-11.6355
姑孰	-11.6355
張全義	-11.6355
彩	-11.6355
段熲	-11.6355
為我語	-11.6355
王涯等	-11.6355
米鹽	-11.6355
裁損	-11.6355
麪	-11.6355
作亂殺	-11.6355
從母	-11.6355
古字通	-11.6355
李仲言	-11.6355
竇儼上疏	-11.6356
與其黨謀	-11.6356
媒	-11.6356
周旋	-11.6356
夷夏	-11.6356
忿爭	-11.6356
死無所恨	-11.6356
皆曰臣等	-11.6356
以應天心	-11.6356
咸安元年	-11.6356
定律令	-11.6356
千里馬者	-11.6356
甓	-11.6356
貞元中	-11.6356
伶官	-11.6356
俞	-11.6356
勸課農桑	-11.6356
填咽	-11.6356
天下既定	-11.6356
時人譏	-11.6356
永始元年	-11.6356
登科	-11.6356
蔡景厯	-11.6356
虞舜	-11.6356
衘	-11.6356
鑣	-11.6356
䊪	-11.6356
聴訟	-11.6356
趙德鈞	-11.6356
宮室	-11.6356
淮南子曰	-11.6356
建中三年	-11.6357
於衆中	-11.6357
埒	-11.6357
懈	-11.6357
巫覡	-11.6357
建安元年	-11.6357
弩手	-11.6357
玉帶	-11.6357
繋	-11.6357
與為比	-11.6357
販鬻	-11.6357
􁰎􁰎	-11.6357
咨訪	-11.6357
寛假	-11.6357
殿柱	-11.6357
畜牧	-11.6357
第宅	-11.6357
子午道	-11.6357
規摹	-11.6357
誅諸吕	-11.6357
邵陵	-11.6357
馬服君	-11.6357
戊巳	-11.6358
楊秉	-11.6358
兆庶	-11.6358
鹿盧	-11.6358
罷獵	-11.6359
員外散騎侍郎	-11.6359
四隣	-11.6359
其二以為	-11.6359
升平元年	-11.6359
李重進	-11.6359
無益聖徳	-11.6359
竹帛	-11.6359
興寧二年	-11.6359
元和六年	-11.6359
馳騁	-11.6359
卬	-11.6359
姚興	-11.6359
張廷範	-11.6359
有國家者	-11.6359
槊	-11.6359
歳輸	-11.6359
白黒	-11.6359
存乂	-11.6359
疑貳	-11.6359
稱愜	-11.6359
錯愕	-11.6359
鍛鍊	-11.6359
崔羣為	-11.6359
可其奏	-11.6359
廬陵	-11.6359
闒茸	-11.6359
曖	-11.636
到彦之	-11.636
未成	-11.636
貞元八年	-11.636
丞相髙歡	-11.636
圖畫	-11.636
其字從	-11.636
駿馬	-11.636
義旗	-11.636
交趾	-11.636
和洽	-11.636
侵叛	-11.636
惡少年	-11.636
輔弼	-11.636
倚仗	-11.636
建元二年	-11.636
李光弼	-11.636
詆毁	-11.636
說文曰	-11.636
負荷	-11.636
非急務	-11.636
面詰之	-11.636
𢎞規	-11.636
李景讓	-11.636
牢盆	-11.636
蔡邕傳	-11.636
殘忍	-11.636
長星	-11.636
龍舟	-11.636
呵	-11.6361
區處	-11.6361
黔首	-11.6361
謗毁	-11.6361
邊陲	-11.6361
璹	-11.6361
㑹稽王昱	-11.6361
珍羞	-11.6361
避暑	-11.6361
入蔡州	-11.6361
萬餘家	-11.6361
裁量	-11.6361
情偽	-11.6361
曰竊聞	-11.6361
申公白生	-11.6361
蕭摩訶	-11.6361
殿屋	-11.6361
居禁中	-11.6361
朱祜	-11.6361
然比之	-11.6361
秦主生	-11.6361
蘧	-11.6361
衝車	-11.6361
豈可復留	-11.6361
典樞機	-11.6362
徐穉	-11.6362
惻然	-11.6362
捃	-11.6362
章邯	-11.6362
蔬果	-11.6362
裴諝	-11.6362
語熲	-11.6362
馮玊	-11.6362
扶風	-11.6362
致位宰相	-11.6362
嘗薦	-11.6362
惠帝紀	-11.6363
建武七年	-11.6363
以備契丹	-11.6363
後梁貞明三年	-11.6363
抵掌	-11.6363
竇儀	-11.6363
陳子昻	-11.6363
隗囂傳三	-11.6363
麟趾	-11.6363
五行志七下之	-11.6363
山濤	-11.6363
曠土	-11.6363
亨	-11.6363
京兆府	-11.6363
墯	-11.6363
尺土	-11.6363
崔昭緯	-11.6363
怪而問之	-11.6363
東都留守	-11.6363
簺	-11.6363
師伯	-11.6363
揚雄傳	-11.6364
佑	-11.6364
朝隠	-11.6364
陛下富於春秋	-11.6364
一失也	-11.6364
缿	-11.6364
受顧命	-11.6364
暴揚	-11.6364
士卒不進	-11.6364
搤	-11.6364
魁岸	-11.6364
尾箕	-11.6364
臨終遺	-11.6364
其四以為	-11.6364
千百	-11.6364
後唐郭崇韜	-11.6364
謙讓	-11.6364
蹴踘	-11.6364
隋末	-11.6364
直閤將軍	-11.6364
糧運	-11.6364
罽賔國	-11.6364
者三十餘人	-11.6364
耗蠧	-11.6364
必核其真然後授其	-11.6364
爪	-11.6364
隗囂傳	-11.6364
萬歲	-11.6365
之壻也	-11.6366
出入卧内	-11.6366
解機務	-11.6366
濫刑	-11.6366
王景文	-11.6366
禮而歸之	-11.6366
到郡	-11.6366
害忠良	-11.6366
朱友謙	-11.6366
牛羊	-11.6366
罄	-11.6366
驕矜	-11.6366
肺附	-11.6366
葵	-11.6366
韋温	-11.6366
殺義帝	-11.6366
也荀悦	-11.6366
必核其真然後	-11.6367
詣金陵	-11.6367
伊吕	-11.6367
履謙	-11.6367
滿盈	-11.6367
衞尉	-11.6367
輔國將軍	-11.6367
韋孝寛	-11.6367
房杜	-11.6367
黎庶	-11.6367
黒色	-11.6367
侵擾	-11.6367
傳國寳	-11.6367
廷構	-11.6367
陳守元	-11.6367
魏無知	-11.6367
見怪則修	-11.6367
象古	-11.6367
墟	-11.6367
延巳	-11.6367
遣中使諭	-11.6367
𨼆甫	-11.6368
璆	-11.6368
陘	-11.6368
嬪御	-11.6368
東方朔傳	-11.6368
鞫獄	-11.6368
孝惠	-11.6368
岐王	-11.6368
田野	-11.6368
蕃息	-11.6368
迭興	-11.6368
郎顗傳二十	-11.6368
不之省	-11.6368
祠祭	-11.6368
禮部尚書蘇循	-11.6368
咸和四年	-11.6368
希㫖	-11.6368
淫刑	-11.6368
督趣	-11.6368
齊澣	-11.6368
㕘	-11.6368
管寧	-11.6368
顔師古	-11.6368
咸和	-11.6369
宇文泰	-11.6369
英武	-11.6369
王珣	-11.637
日滋	-11.637
逃散	-11.637
襲爵	-11.637
銓選	-11.637
劉巨容	-11.637
丁酉	-11.637
後漢郭威	-11.637
裂土	-11.637
季布傳	-11.637
宗戚	-11.637
朱輪	-11.637
無所忌憚	-11.637
五嶺	-11.637
君羨	-11.637
坦然	-11.637
少好學	-11.637
廉吏	-11.637
張滂	-11.637
推步	-11.637
黄魯曽	-11.637
石頭城	-11.637
殷裕	-11.637
有大功於	-11.637
明察	-11.637
素餐	-11.6371
臨淮	-11.6371
閒居	-11.6371
繹	-11.6371
劉璋	-11.6371
驕溢	-11.6371
憤怨	-11.6371
從間道	-11.6371
冬月	-11.6371
劉禪	-11.6371
强弱	-11.6371
温飽	-11.6371
田廬	-11.6371
假借	-11.6371
圯	-11.6371
姜肱	-11.6371
文穎曰	-11.6371
烏秅國	-11.6371
狎侮	-11.6371
總朝政	-11.6371
警備	-11.6371
不世之功	-11.6371
十餘騎	-11.6371
司天監	-11.6371
嗣恭	-11.6371
度遼將軍	-11.6371
弗許	-11.6371
沈行思	-11.6371
蒲州刺史	-11.6371
諌大夫	-11.6371
高歡	-11.6371
髙閭	-11.6371
車輪	-11.6371
伯玉	-11.6372
道育	-11.6372
歴年	-11.6372
巨容	-11.6372
蕪	-11.6372
禖	-11.6372
修飾	-11.6372
權徳輿	-11.6373
光洽	-11.6373
兼御史大夫	-11.6373
盧攜	-11.6373
秩中二千石	-11.6373
竇固	-11.6373
淖齒	-11.6373
虯	-11.6373
長信少府	-11.6373
為之語曰	-11.6373
左庶子	-11.6373
符彦卿	-11.6374
𢎞逸	-11.6374
犬馬	-11.6374
産業	-11.6374
近之矣	-11.6374
淮南節度使	-11.6374
放縱	-11.6374
季父	-11.6374
戴至徳	-11.6374
王温舒	-11.6374
盧昶	-11.6374
兢	-11.6375
翁主	-11.6375
郡丞	-11.6375
髙行周	-11.6375
侯印綬	-11.6375
臣之罪也	-11.6375
何也對曰臣	-11.6375
嬖臣	-11.6375
龎勛	-11.6375
天復三年	-11.6375
徹侯	-11.6375
琅當	-11.6375
財竭	-11.6375
説是也	-11.6376
庾冰	-11.6377
候騎	-11.6377
封泰山	-11.6377
稾	-11.6377
道行臺	-11.6377
孫拯	-11.6377
桃李	-11.6377
莫知其	-11.6377
青瑣	-11.6377
大𣗳將軍	-11.6377
慕容彦超	-11.6377
掃除	-11.6377
維周	-11.6377
轅門	-11.6377
征虜	-11.6377
綮	-11.6378
綈	-11.6378
新豐	-11.6378
晩節	-11.6378
後周王峻	-11.6378
請立太子	-11.6378
機衡	-11.6378
納其女	-11.6378
考課	-11.6378
軾	-11.6378
齓	-11.6378
伏念	-11.6378
喉咽	-11.6378
孤貧	-11.6378
戒子孫	-11.6378
樂羊	-11.6378
韝	-11.6378
形迹	-11.6379
王晏球	-11.6379
則誰不	-11.6379
劉從一	-11.6379
徃年	-11.6379
閤門使	-11.6379
也一説	-11.6379
學術	-11.638
廵幸	-11.638
昔秦始皇	-11.638
充賦	-11.638
綱吏	-11.638
繻	-11.638
繼珣	-11.638
雒陽令	-11.638
敬達	-11.638
費財	-11.6381
盈路	-11.6381
生民之	-11.6381
女嫁	-11.6381
瘢	-11.6381
飢寒	-11.6381
淫暴	-11.6381
太學生	-11.6381
暴露	-11.6381
劓	-11.6381
趙贊	-11.6381
閫外	-11.6381
問所從來	-11.6381
矜功	-11.6381
變凶逆之族為忠義之門	-11.6381
讞	-11.6381
昆明	-11.6381
被黜	-11.6382
芒	-11.6382
客館	-11.6382
識量	-11.6382
原廟	-11.6382
孺子	-11.6382
既而歎曰	-11.6382
袁象先	-11.6382
考試	-11.6382
屯聚	-11.6382
藩府	-11.6382
烏合	-11.6382
王必欲	-11.6384
稱賀	-11.6384
鈎	-11.6384
胥靡	-11.6384
建安二年	-11.6384
戍邉	-11.6384
何承天	-11.6384
孟俊	-11.6384
舟師	-11.6384
作威福	-11.6384
蠱	-11.6385
於地下	-11.6385
十有二	-11.6385
魏主嗣	-11.6385
活邪	-11.6385
屯戍	-11.6385
繼麟	-11.6385
願殿下	-11.6385
霍諝	-11.6385
征蜀	-11.6385
矯稱	-11.6385
董晉	-11.6385
青海	-11.6385
什方	-11.6385
土崩	-11.6385
張永等	-11.6386
無以易	-11.6386
君臣俱	-11.6386
德勲	-11.6386
繼體	-11.6386
踰月	-11.6386
乘虚	-11.6386
仕進	-11.6386
勝詭	-11.6386
孤危	-11.6386
負米	-11.6386
尉元	-11.6386
管内	-11.6386
謂左右曰我	-11.6386
時不可失	-11.6388
郾	-11.6388
父子兄弟	-11.6388
陳以待之	-11.6388
信術士	-11.6388
音律	-11.6388
倉吏	-11.6388
將反	-11.6388
我死汝	-11.6389
太子仁孝	-11.6389
曰此兒	-11.6389
籠中	-11.6389
為之流涕	-11.6389
鼂錯傳	-11.6389
馮奉世傳	-11.6389
宣索	-11.6389
六十九	-11.639
災變	-11.639
齊顯祖	-11.639
兵戍之	-11.6391
趙王虎	-11.6391
連嵗	-11.6391
公卿以下皆	-11.6391
肉刑	-11.6391
弗聽	-11.6391
縣土炭	-11.6391
黜退	-11.6391
桓文	-11.6391
承露	-11.6391
省費	-11.6392
唐宗室	-11.6392
神農	-11.6392
輕躁	-11.6392
黄老	-11.6392
白麻	-11.6392
雍容	-11.6392
魯連	-11.6392
寳皇	-11.6392
何由得	-11.6393
任將帥	-11.6393
隂識	-11.6393
臧獲	-11.6393
思遠	-11.6393
疏廣	-11.6393
阿黨	-11.6394
䘮亂	-11.6394
皆伏誅	-11.6395
和戎	-11.6395
吐蕃使者	-11.6395
從範	-11.6395
李懷光	-11.6395
滅火	-11.6395
傳三十五	-11.6396
後晉髙祖	-11.6396
寛簡	-11.6396
三寸	-11.6396
李谿	-11.6396
漢王漢王	-11.6396
王師範	-11.6396
蘄州	-11.6396
進孰	-11.6396
都洛陽	-11.6397
之罪人也	-11.6397
非錢不	-11.6397
永興	-11.6397
賈后	-11.6397
謙退	-11.6398
不叶	-11.6398
六畜	-11.6398
王沈等	-11.6398
變詐	-11.6398
鼓聲	-11.6399
不敢逼	-11.6399
鄭均	-11.6399
取薪	-11.6399
攝政	-11.6399
内外之臣	-11.6399
疾亟	-11.6399
誰可者	-11.6399
劉賛	-11.6399
諸皇子	-11.6399
慶和	-11.6399
行其志	-11.6399
車駕發	-11.6399
干朝政	-11.64
告訐	-11.64
陳湯	-11.64
掠奪	-11.64
𫝊呼	-11.64
歴觀	-11.64
寒食	-11.64
捕盗	-11.64
辟彊	-11.64
韓𢎞	-11.64
於殿庭	-11.64
長幼	-11.64
量加	-11.6401
左衛	-11.6401
避嫌疑	-11.6401
茍容	-11.6402
視聴	-11.6402
直抵	-11.6402
野戰	-11.6402
四皓	-11.6402
疎逺	-11.6402
行伍	-11.6402
預政事	-11.6402
郎孤	-11.6402
傳六十四	-11.6402
王庭湊	-11.6402
不損	-11.6402
髙談	-11.6403
窮奢極欲	-11.6403
夜宴	-11.6403
寛容	-11.6403
四萬餘人	-11.6403
羣情	-11.6403
華夷	-11.6403
虚美	-11.6403
風角	-11.6403
保衡	-11.6403
機宻	-11.6404
入洛	-11.6404
張敞傳	-11.6404
竇太后	-11.6404
知不免	-11.6404
度越	-11.6404
殷殷	-11.6404
趙咨	-11.6404
卑辭	-11.6405
諸陵	-11.6405
識時務	-11.6406
清静	-11.6406
惟眀	-11.6406
日淺	-11.6406
大中九年	-11.6406
呉越王	-11.6407
拒絶	-11.6407
珽因	-11.6407
左神䇿軍	-11.6407
王嘉傳	-11.6407
克己	-11.6407
諸名士	-11.6407
庻子	-11.6407
辭不受	-11.6408
蹻	-11.6408
増廣	-11.6409
制自今	-11.6409
周漢之	-11.6409
小惠	-11.6409
大小必	-11.6409
長安元年	-11.6409
震懼	-11.6409
納諌	-11.6409
華夏	-11.6409
位卑	-11.6409
乘勝	-11.6409
干預朝政	-11.6409
三代	-11.641
優崇	-11.641
白金	-11.641
從璨	-11.6411
親征	-11.6411
望舒	-11.6411
傳舎	-11.6413
契丹主契丹主	-11.6413
天下賢才	-11.6413
星變	-11.6413
馬日磾	-11.6413
以供軍	-11.6413
反狀	-11.6413
逐北	-11.6414
說是也	-11.6414
七十六	-11.6414
何敞	-11.6414
河圖	-11.6414
崔發	-11.6414
與我共	-11.6415
徙邊	-11.6416
草具	-11.6416
劉秩	-11.6416
文錫	-11.6416
置校尉	-11.6416
太府卿	-11.6416
軍糧	-11.6416
王國寶	-11.6417
晝則	-11.6417
濫殺	-11.6417
李藩	-11.6417
秀才	-11.6417
隂陽書	-11.6417
薄昭	-11.6418
襲擊	-11.6418
從征伐	-11.6418
馬璘	-11.6418
左内史	-11.6419
知訓	-11.6419
四品	-11.642
當坐之	-11.642
刻薄	-11.642
堅不聽	-11.642
早卒	-11.642
命真卿	-11.642
無成功	-11.642
王龔	-11.642
止盗	-11.6421
有大罪	-11.6421
九真	-11.6421
遊客	-11.6421
希崇	-11.6421
徴古	-11.6421
我之能	-11.6421
其語	-11.6421
董君	-11.6422
吉温	-11.6422
羊馬	-11.6422
甞詣	-11.6423
拒戰	-11.6423
平原君	-11.6424
崇訓	-11.6424
矣衆皆	-11.6424
也且陛下	-11.6424
位不過	-11.6424
梁商	-11.6424
光𦙍	-11.6424
顯和	-11.6424
元輿	-11.6425
四境	-11.6425
柱國	-11.6425
皆決於	-11.6425
還晉陽	-11.6425
兼金	-11.6425
伐趙	-11.6425
暴師	-11.6427
俊臣乃	-11.6427
選部	-11.6427
幼主	-11.6427
崇質	-11.6428
者咸以為	-11.6428
羣臣奏事	-11.6428
僕夫	-11.6428
四凶	-11.6428
雨師	-11.6428
路絶	-11.6428
何獨不	-11.6429
李農	-11.6429
自娯	-11.6429
羽衣	-11.6429
梁太祖	-11.643
塗地	-11.6431
虎口	-11.6431
士庶人	-11.6431
城䧟	-11.6431
姦謀	-11.6432
謡曰	-11.6432
皆憤怒	-11.6432
諭意	-11.6432
誠惠	-11.6432
建武中	-11.6433
太子少傅	-11.6433
彊敵	-11.6434
范陽王	-11.6434
冒死	-11.6434
獄市	-11.6434
除害	-11.6434
劉夫人	-11.6434
射聲	-11.6434
偶人	-11.6435
率土	-11.6435
門戸	-11.6435
宋氏	-11.6435
道傍	-11.6435
聞之笑曰	-11.6436
太后怒	-11.6436
侯霸	-11.6437
處讓	-11.6438
敕有司	-11.6438
委政	-11.6438
禮部	-11.6439
姦惡	-11.6439
役夫	-11.6439
博陵	-11.6439
為丹陽尹	-11.6439
天下安危	-11.644
曲從	-11.644
伏願陛下	-11.6441
奈何輕	-11.6441
立貴人	-11.6441
竒謀	-11.6441
必不免	-11.6441
謝述	-11.6441
動容	-11.6441
九江王	-11.6441
辨論	-11.6442
委棄	-11.6442
上東門	-11.6443
入㓂	-11.6443
年月	-11.6443
計畫	-11.6443
大明二年	-11.6444
驢馬	-11.6444
泰始	-11.6444
曰兹事	-11.6445
豈特	-11.6445
自言能	-11.6445
張憲	-11.6445
擊匈奴	-11.6445
豫章王	-11.6446
司徒掾	-11.6446
陽嘉	-11.6446
臨刑	-11.6447
南侵	-11.6447
部送	-11.6447
兩河	-11.6447
投諸	-11.6447
政化	-11.6447
法律	-11.6447
侍坐	-11.6447
厚薄	-11.6447
鋭意	-11.6448
黃帝	-11.6448
建寧二年	-11.6448
四郡	-11.6449
卒萬人	-11.6449
或譏	-11.6449
逺夷	-11.6449
孔明	-11.645
唐儉	-11.645
海西	-11.645
土田	-11.645
三百餘人	-11.6451
懼禍	-11.6451
拒周	-11.6452
滅族	-11.6452
謂之曰卿	-11.6452
張角	-11.6452
辟易	-11.6452
懐光	-11.6452
急務	-11.6453
遣使遺	-11.6453
小康	-11.6453
交廣	-11.6453
位號	-11.6453
靈州	-11.6453
欲追之	-11.6453
願聴	-11.6453
武徳四年	-11.6453
咎在	-11.6454
髙祖即位	-11.6454
宿望	-11.6454
詢之	-11.6455
居喪	-11.6455
王坦之	-11.6455
張衡	-11.6455
五溪	-11.6455
思恭	-11.6455
貴顯	-11.6455
法曹	-11.6456
聖德	-11.6456
齊總	-11.6456
遷徙	-11.6456
知其謀	-11.6456
諫不聽	-11.6456
人為邪	-11.6457
兵三萬	-11.6457
勿憂	-11.6457
力田	-11.6457
百數	-11.6457
愈甚	-11.6457
人臣之義	-11.6458
以儆	-11.6459
灋度	-11.6459
合勢	-11.6459
張格	-11.6459
昭遇	-11.6459
陛下必不	-11.646
連和	-11.646
為洛州	-11.646
深刻	-11.646
來奔	-11.646
秦皇	-11.646
顧榮	-11.646
充宿衛	-11.6461
死士	-11.6461
懐州刺史	-11.6461
陳寶	-11.6461
鑄作	-11.6463
朕不欲	-11.6463
䇿免	-11.6464
疲民	-11.6464
選曹	-11.6464
破燕	-11.6464
已露	-11.6464
邊備	-11.6464
素知其	-11.6465
不忍見	-11.6465
赤地	-11.6465
者以千數	-11.6465
五原	-11.6466
卜相	-11.6466
患難	-11.6466
數千萬	-11.6466
承恩	-11.6466
得召見	-11.6467
存賢	-11.6467
表左	-11.6467
孝徳	-11.6468
所作也	-11.6468
為郎中	-11.6469
臣竊見	-11.647
胡虜	-11.6471
尊位	-11.6471
也臣瓚曰	-11.6471
滿朝	-11.6471
笑曰君	-11.6471
逸民	-11.6471
永光	-11.6472
稱萬嵗	-11.6472
馬邑	-11.6472
奏免	-11.6472
漢貞	-11.6472
專委	-11.6472
由是稍	-11.6472
逃亡者	-11.6472
幼子	-11.6473
為江州刺史	-11.6474
救趙	-11.6474
母老	-11.6474
漸成	-11.6474
以伐	-11.6474
恣行	-11.6475
君集等	-11.6476
母弟	-11.6476
者皆給	-11.6477
追討	-11.6477
開邊	-11.6477
井上	-11.6477
求哀	-11.6477
城塹	-11.6477
誠無所	-11.6478
迎新	-11.6478
百世	-11.6479
薨子	-11.6479
也唯陛下	-11.6479
辭讓	-11.6479
高平	-11.6479
嚴備	-11.6481
王凝	-11.6482
勢益	-11.6483
削去	-11.6483
四輔	-11.6484
顧和	-11.6484
大綱	-11.6484
公羊	-11.6485
為招討使	-11.6485
犯罪	-11.6485
威勢	-11.6486
以自明	-11.6487
契丹使者	-11.6488
亞於	-11.6488
太后弟	-11.6488
多齎	-11.6489
微服	-11.6489
持權	-11.6489
交戰	-11.6489
寵信	-11.6489
解去	-11.6489
大雨	-11.6489
哀平	-11.649
嵗終	-11.649
權要	-11.649
方用事	-11.6491
𢎞讓	-11.6492
就獄	-11.6492
契丹屢	-11.6492
義真	-11.6492
髙卑	-11.6492
憂勤	-11.6493
留京師	-11.6493
虚張	-11.6494
淮上	-11.6494
屈意	-11.6494
辭㫖	-11.6494
九疑	-11.6496
監門	-11.6496
登山	-11.6497
昔楚	-11.6497
軍城	-11.6497
惡其言	-11.6499
俊臣與	-11.6499
甚急	-11.6499
南伐	-11.65
清宫	-11.65
為刑部尚書	-11.65
曰是人	-11.65
楚軍	-11.65
天堂	-11.65
日隆	-11.6501
鄉侯	-11.6501
策書	-11.6502
年始	-11.6502
馳道	-11.6503
頗聞之	-11.6503
樂器	-11.6504
未决	-11.6504
往年	-11.6504
賦云	-11.6504
角反	-11.6504
臨終	-11.6506
延政	-11.6506
然其言	-11.6507
其舌	-11.6507
西面	-11.6507
容車	-11.6507
叛亂	-11.6508
寺主	-11.6509
曰諾	-11.651
至晉陽	-11.651
覺悟	-11.6511
思慮	-11.6511
營私	-11.6511
王茂	-11.6511
長圍	-11.6513
隆重	-11.6514
愚民	-11.6514
如屋	-11.6514
専任	-11.6514
訪問	-11.6515
之職也	-11.6515
元老	-11.6515
得之矣	-11.6515
善達	-11.6515
髙廟	-11.6517
也若今	-11.6517
人主意	-11.6517
仲文	-11.6517
夕至	-11.6517
漢中王	-11.6518
至暮	-11.6518
李尋	-11.6519
解縱	-11.6519
得精兵	-11.6521
少斷	-11.6521
重質	-11.6522
入寇	-11.6522
陳羣	-11.6522
獨斷	-11.6522
殷周	-11.6522
道覆	-11.6522
謂太子曰	-11.6523
三司使	-11.6524
襄楷傳	-11.6524
勸憲宗	-11.6524
及沙門	-11.6524
公輔	-11.6524
馬驚	-11.6525
石崇	-11.6527
天子諸侯	-11.6527
材官	-11.6528
脅從	-11.6529
久處	-11.6529
卿二人	-11.6529
降匈奴	-11.6529
曰近日	-11.653
溺於	-11.6531
石氏	-11.6531
達意	-11.6531
汝隂	-11.6533
鎮定	-11.6533
輿入殿	-11.6534
傷害	-11.6534
徵發	-11.6534
至成都	-11.6535
登進	-11.6535
疾惡	-11.6536
諫爭	-11.6536
悉師	-11.6536
嵗星	-11.6536
六十里	-11.6537
民夷	-11.6538
欲自殺	-11.6538
收集	-11.6538
榜人	-11.6538
矣又曰	-11.6538
孔光傳	-11.6539
走卒	-11.6539
遷職	-11.6539
面折之	-11.654
薄小	-11.654
吳興	-11.654
舉火	-11.654
為中大夫	-11.654
梁武	-11.6541
由是益	-11.6541
天下太平	-11.6541
修德	-11.6543
莫非	-11.6543
臨難	-11.6543
使人謝	-11.6544
引强	-11.6545
取笑	-11.6546
郭太后	-11.6546
前史	-11.6547
觀望	-11.6547
思力	-11.6547
坐視	-11.6547
氏為皇后	-11.6548
章句	-11.6549
詣府	-11.6549
報應	-11.655
衆咸	-11.6552
而不名	-11.6552
倚瑟	-11.6554
望氣	-11.6555
大喜謂	-11.6555
每優容	-11.6556
廷議	-11.6557
孝道	-11.6557
之本也	-11.6558
曰果如	-11.6558
三皇	-11.6558
傳九	-11.6558
羣居	-11.6559
音工	-11.6559
魏世宗	-11.656
相泣	-11.6563
以萬計	-11.6563
同為相	-11.6563
李納	-11.6564
詔釋之	-11.6564
之西	-11.6565
三臺	-11.6567
召百官	-11.6567
既不能	-11.6567
不惑	-11.6569
金錢	-11.6569
極意	-11.6571
以求進	-11.6571
痛之	-11.6572
言於憲宗曰	-11.6572
曰往者	-11.6572
降光武	-11.6572
水土	-11.6572
孝經	-11.6573
建義	-11.6573
好古	-11.6574
東府	-11.6574
十思	-11.6574
尤重	-11.6574
功費	-11.6574
張讓	-11.6576
𤣥同	-11.6576
共執	-11.6577
公慶	-11.6577
坐廢	-11.6577
出血	-11.6577
遺制	-11.6578
重器	-11.6578
守職	-11.6578
楊興	-11.6578
置百官	-11.6578
長老	-11.6579
御衆	-11.6581
任光	-11.6581
淮安	-11.6581
周太祖	-11.6582
聖意	-11.6582
長䇿	-11.6584
基業	-11.6584
亂政	-11.6585
三叛	-11.6585
肅宗紀建初	-11.6587
瘞之	-11.6589
薄太后	-11.6589
雜用	-11.6589
土山	-11.6589
如是乎	-11.6589
奈何棄	-11.659
歸順	-11.659
日乆	-11.6592
還都	-11.6592
定功	-11.6592
未報	-11.6592
一夫之	-11.6592
世間	-11.6593
疲於	-11.6593
元景	-11.6593
被服	-11.6595
禁民	-11.6595
繼母	-11.6595
家族	-11.6596
與妻子	-11.6596
近日	-11.6596
注官	-11.6597
于忠	-11.6597
萬家	-11.6597
承業曰	-11.6599
以處之	-11.6599
授官	-11.6599
請敕	-11.6599
守恩	-11.6601
引退	-11.6602
得之則	-11.6602
明皇從之	-11.6602
聽民	-11.6603
印章	-11.6603
即皇帝位於	-11.6603
為無道	-11.6604
忠邪	-11.6604
梁州	-11.6605
得其地	-11.6605
其根	-11.6609
同反	-11.6609
召見問	-11.6609
思所以	-11.661
尚書以下	-11.661
修好	-11.661
迎天子	-11.661
光宫	-11.6611
失據	-11.6611
時人以為	-11.6612
聞此言	-11.6613
動衆	-11.6613
新舊	-11.6613
莫大	-11.6613
武陽	-11.6614
功賞	-11.6615
營陳	-11.6616
告諭	-11.6616
内藏	-11.6617
廣徳	-11.6617
漢文帝	-11.6618
受恩	-11.6618
諫文帝	-11.6618
内外官	-11.6618
竟日	-11.6618
壽王	-11.6618
大姓	-11.6619
公綽曰	-11.662
按視	-11.6621
徴召	-11.6621
四節	-11.6621
方簡	-11.6622
羣官	-11.6622
三呉	-11.6623
𩔖已	-11.6624
重傷	-11.6624
義理	-11.6625
煩多	-11.6625
而無一	-11.6625
掠得	-11.6626
繫治	-11.6626
勲臣	-11.6629
林甫雖	-11.6629
惡錢	-11.663
適足為	-11.663
武夫	-11.6631
會議	-11.6632
理難	-11.6632
益少	-11.6634
大學士	-11.6634
王肅	-11.6635
三百人	-11.6635
隨方	-11.6635
曲從之	-11.6635
遣客	-11.6635
以天子	-11.6636
廣州	-11.6636
破産	-11.6638
八州	-11.6639
仁君	-11.6641
負我	-11.6642
相期	-11.6642
堂下	-11.6642
還營	-11.6642
導從	-11.6642
猶須	-11.6643
大禹	-11.6643
許朕	-11.6643
皇后后	-11.6645
定難	-11.6645
徽及	-11.6645
從史	-11.6645
念之	-11.6646
一人耳	-11.6646
養民	-11.6646
人有言	-11.6647
錢物	-11.6648
自効	-11.6648
好勝	-11.665
代宗命	-11.665
㑹議	-11.665
門附	-11.665
迎太子	-11.6652
敬憚	-11.6653
三讓	-11.6653
固爭之	-11.6654
民田	-11.6655
表辭位	-11.6656
水戰	-11.6656
士心	-11.6657
討論	-11.6657
不遵	-11.6658
於大梁	-11.6659
此故也	-11.666
私錢	-11.6661
嘗謂人曰	-11.6661
退軍	-11.6661
與公卿	-11.6662
謀亂	-11.6663
承明	-11.6665
意氣	-11.6665
重賞	-11.6665
書判	-11.6666
北魏崔浩	-11.6666
善政	-11.6666
有如此	-11.6668
益深	-11.6668
權制	-11.6668
公輸	-11.6668
賜金帛	-11.667
為三老	-11.667
致福	-11.6671
濳遣	-11.6674
張氏	-11.6674
流外	-11.6674
大像	-11.6674
往還	-11.6675
戰于	-11.6675
歸家	-11.6676
漢主曰	-11.6678
徳𤣥	-11.6678
意頗	-11.6678
未免	-11.6678
察視	-11.6679
錢各	-11.6679
以待其	-11.668
殿後	-11.668
彦卿與	-11.6681
素善	-11.6681
屏人	-11.6681
人服其	-11.6682
子房	-11.6682
貴近	-11.6683
從諌	-11.6684
欲盡誅	-11.6684
重厚	-11.6685
議者多言	-11.6685
既尊	-11.6686
漢氏	-11.6686
未解	-11.6686
固不可	-11.6687
大辟	-11.6687
貧人	-11.6689
是夜	-11.6691
蔡人	-11.6691
居第	-11.6692
坐定	-11.6693
寨中	-11.6693
東走	-11.6693
未改	-11.6693
謂泌曰	-11.6694
節制	-11.6696
太子聞之	-11.6696
面從	-11.6698
使人請	-11.6699
親厚之	-11.6699
無量	-11.67
除服	-11.6703
永嘉三年	-11.6705
吾受	-11.6705
有罪者	-11.6706
通謀	-11.6707
既退	-11.6707
異之	-11.6708
信義	-11.6709
望重	-11.6709
易可	-11.671
以遏	-11.671
二十下	-11.6712
為子孫之	-11.6713
數郡	-11.6713
中人而	-11.6714
不盈	-11.6714
取蔡	-11.6716
江中	-11.6717
有怪	-11.6718
顧問	-11.6718
是吾	-11.6718
入蜀	-11.6719
自頃	-11.672
棄官	-11.672
如真	-11.672
貞元十	-11.672
細故	-11.6721
獨任	-11.6721
下廷尉	-11.6722
可勝	-11.6722
殺獲	-11.6723
如雲	-11.6723
其尸	-11.6725
楚漢	-11.6727
不寤	-11.6727
宣太后	-11.6729
謂諸子曰	-11.6731
避難	-11.6732
北朝	-11.6732
内難	-11.6735
問遺	-11.6736
壞其	-11.6736
直士	-11.6737
越人	-11.6739
死節	-11.6739
師事之	-11.674
大匠	-11.674
自古帝王	-11.6742
常憂	-11.6743
法宫	-11.6744
趙州	-11.6746
文物	-11.6748
二鎮	-11.6748
操軍	-11.6748
為之首	-11.6749
示之以	-11.6749
王澄	-11.675
不足復	-11.675
新安	-11.675
工人	-11.6753
西山	-11.6753
者多矣	-11.6755
茍求	-11.6755
復書曰	-11.6756
國主	-11.6758
事先帝	-11.6759
取敗	-11.6759
既破	-11.676
成疾	-11.6764
去職	-11.6765
之貌也	-11.6765
大單于	-11.6768
功成	-11.677
天性	-11.677
掌故	-11.677
上書言事	-11.6771
求代	-11.6772
恒山	-11.6774
於民間	-11.6776
上供	-11.6776
昔堯	-11.6776
獄官	-11.6776
翂曰	-11.6777
别將	-11.678
於明堂	-11.6782
元封	-11.6782
未絶	-11.6782
必須	-11.6785
明皇於是	-11.6787
野有	-11.6787
左右左右	-11.6791
與無忌	-11.6792
誅求	-11.6796
何以責	-11.6801
并天下	-11.6806
者殆	-11.6807
以協	-11.6809
萬億	-11.6813
方盛	-11.6813
於太后太后	-11.6815
下走	-11.6816
好士	-11.6816
悉平	-11.6817
更封	-11.6818
言文	-11.6819
魏徴諫曰	-11.6819
敢爾	-11.682
至孝	-11.6821
順命	-11.6823
不肅	-11.6823
官軍不	-11.6824
始定	-11.6824
驕奢不	-11.6825
在禁中	-11.6826
彗星出	-11.6827
選置	-11.6827
清白	-11.6828
沛國	-11.6828
徴兵	-11.6828
將兵擊	-11.683
曰大家	-11.6831
受誅	-11.6831
主意	-11.6831
者以萬數	-11.6832
生擒	-11.6832
引兵自	-11.6835
致陛下	-11.6836
不赦	-11.6837
斯人	-11.6837
將討	-11.6838
白日	-11.6838
不能用也	-11.684
師子	-11.684
有聲	-11.6841
十失	-11.6842
抵死	-11.6843
猶今之	-11.6843
危懼	-11.6843
文吏	-11.6843
不干	-11.6845
馬韓	-11.6847
告之曰	-11.6847
地寒	-11.6848
從厚	-11.6849
得休息	-11.685
親政事	-11.685
自謙	-11.6852
齊武帝	-11.6852
耕者	-11.6852
師事	-11.6852
所圍	-11.6853
母天下	-11.6854
使四方	-11.6854
復位	-11.6854
私門	-11.6855
三帥	-11.6858
自以為得	-11.6859
可斬	-11.6859
矣世宗	-11.6859
戰敗	-11.6861
晉卿	-11.6862
憲宗怒	-11.6862
亂天下	-11.6865
於雍	-11.6866
宣子	-11.6866
有差	-11.6866
齊名	-11.6867
皆不受	-11.6869
吳公	-11.687
又徵	-11.687
心計	-11.6872
見温	-11.6873
以門地	-11.6874
不踰	-11.6875
禮士	-11.6876
子産	-11.6876
黎陽	-11.6877
議者皆	-11.6878
師出	-11.6883
乗傳	-11.6884
千五百人	-11.6887
所領	-11.6887
欲有所	-11.6888
勸帝	-11.6889
邊人	-11.6889
龍見	-11.6891
行視	-11.6893
居處	-11.6893
不得進	-11.6893
將何以自	-11.6895
曰王公	-11.6898
難取	-11.69
上書諌	-11.69
安車	-11.6901
放歸	-11.6903
大要	-11.6904
蜀中	-11.6904
外藩	-11.6904
以詐	-11.6905
石生	-11.6905
首領	-11.6906
此殆	-11.6907
燕將	-11.6908
夜中	-11.6911
上策	-11.6911
中書門下奏	-11.6911
天朝	-11.6912
自此始	-11.6912
微臣	-11.6913
術數	-11.6913
自海	-11.6916
文深	-11.6917
務盡	-11.6921
其末	-11.6923
𫝊六十	-11.6924
之謀也	-11.6924
異常	-11.6925
相傳	-11.6926
衆少	-11.6926
流入	-11.6929
旁有	-11.6929
固宜	-11.6932
戰太祖皇帝	-11.6932
俶曰	-11.6934
縣公	-11.6934
初太祖	-11.6937
問計	-11.6938
未逺	-11.6939
梁國	-11.6943
常理	-11.6944
七十二	-11.6945
嬰城	-11.6949
取容	-11.6952
無救	-11.6954
通天	-11.6954
千七百	-11.6954
邪於是	-11.6955
立功名	-11.6955
武官	-11.6955
俗吏	-11.6955
已經	-11.6955
樂道	-11.6955
三代之	-11.6956
兵不足	-11.6956
因醉	-11.6957
用才	-11.696
忘其	-11.6963
行酒	-11.6964
從政	-11.6967
亦由	-11.697
富民	-11.6972
詔曰今	-11.6972
夜飲	-11.6973
諸鄙	-11.6973
悉收	-11.6974
者是也	-11.6975
三十四	-11.6976
但能	-11.698
能吏	-11.6982
元服	-11.6986
伐蜀	-11.6989
犯上	-11.6992
示子孫	-11.6992
髙深	-11.6994
周成	-11.6996
而得之	-11.6999
兵威	-11.7
宗臣	-11.7
不擇	-11.7002
制作	-11.7007
一舉可	-11.701
養老	-11.7015
者正以	-11.7017
當陽	-11.702
令從者	-11.7026
兵部	-11.7027
以車載	-11.7028
減其	-11.7029
不能起	-11.7029
文城	-11.7031
不可信	-11.7031
頃者	-11.7031
以為比	-11.7033
大宗	-11.7035
推事	-11.7035
其理	-11.7037
夫子	-11.7038
難信	-11.7044
諸門	-11.7048
曰王者	-11.7049
五十人	-11.705
夷傳七十	-11.7052
方食	-11.7053
多力	-11.7053
陽武	-11.7055
匹夫之	-11.7057
主家	-11.7057
安坐	-11.706
諸營	-11.7061
在宫	-11.7069
其埶	-11.707
宜投	-11.707
賜號	-11.7071
行德	-11.7072
所穿	-11.7073
烹之	-11.7077
入告	-11.7078
二心	-11.7081
比見	-11.7082
五方	-11.7082
道逺	-11.7084
民困	-11.7085
不恥	-11.7085
郎君	-11.7086
汝曹勿	-11.7088
定中原	-11.7093
下流	-11.7094
不奪	-11.7099
一鎮	-11.7101
固已	-11.7105
斯言	-11.7106
故委	-11.7108
欲專	-11.7109
小生	-11.711
稱譽	-11.7113
人之心	-11.7119
舉軍	-11.7119
天皇	-11.7134
惟知	-11.7137
焉注云	-11.7138
又敕	-11.7138
有數人	-11.7139
在民間	-11.7146
清平	-11.715
衆人所	-11.715
下情	-11.7152
且盡	-11.7153
武將	-11.7156
廢棄	-11.716
未明	-11.7161
王殷	-11.7163
命中使	-11.7165
奄至	-11.7165
終非	-11.7166
格殺	-11.7172
利用	-11.7174
于前	-11.7176
固知	-11.7176
幸矣	-11.7178
坐食	-11.7179
有頃	-11.718
宋明帝	-11.7187
而問之	-11.7189
起舞	-11.7192
以賜之	-11.7192
不假	-11.7193
縱使	-11.7196
王恭	-11.7199
髙祖命	-11.7203
也言其	-11.7204
懼不敢	-11.7205
朱文進	-11.7207
殺張	-11.7208
不取也	-11.721
夏侯	-11.7212
腹中	-11.7214
唐軍	-11.7214
曽無	-11.7223
乃聽	-11.7225
如山	-11.7231
來吾	-11.7231
私謂所親曰	-11.7235
之間有	-11.7235
陳咸	-11.7236
令諸侯	-11.7239
三齊	-11.724
生地	-11.724
下車	-11.7246
亦怒	-11.7246
不視朝	-11.7247
忠臣不	-11.725
舉國	-11.7255
深知其	-11.7256
從容言	-11.7257
何嘗	-11.7257
曰何物	-11.7258
以討賊	-11.7263
曰使君	-11.7264
家居	-11.7267
生長	-11.7269
常存	-11.7273
欲與漢	-11.7274
自取之	-11.7279
事已定	-11.7283
獨孤	-11.7283
官名	-11.7287
城守	-11.7291
詔徴	-11.7297
時人皆	-11.7298
者補	-11.7298
減三	-11.7303
王聖	-11.7303
敗軍	-11.7304
不能致	-11.7305
千萬	-11.7309
止此	-11.7309
安得不	-11.7311
平侯	-11.7323
更思	-11.7324
注師古曰	-11.7326
問卿	-11.7327
其姓名	-11.7331
當世之	-11.7335
今四方	-11.7335
卒從	-11.7341
滿嵗	-11.7342
庸可	-11.7354
而置之	-11.7355
而受之	-11.7359
怪其	-11.736
以列侯	-11.7361
書遺	-11.7362
富平	-11.7362
服役	-11.7368
而攻之	-11.7371
數州	-11.7382
嘗從容	-11.7387
必不為	-11.7391
音直	-11.7392
百官班	-11.7393
妄語	-11.7394
故吏	-11.74
盡去	-11.7402
在京	-11.7404
取給	-11.7405
人皆言	-11.7406
言災異	-11.7407
表示之	-11.7411
江統	-11.7412
報國	-11.7418
成帝乃	-11.742
自為之	-11.7432
璞曰	-11.7436
為兵部尚書	-11.7439
錢二千	-11.744
二千石以下	-11.7441
相圖	-11.7453
於後世	-11.7458
至鎮	-11.7483
天下亂	-11.7484
進食	-11.7488
日引	-11.749
然不知	-11.7492
晏於	-11.7493
有大功	-11.7502
經學	-11.7521
放還	-11.7539
馬武	-11.7543
故作	-11.7546
清儉	-11.755
而歸之	-11.7555
𫝊二十	-11.756
長流	-11.7572
幸臣	-11.7573
莫可	-11.7587
天長	-11.7587
山髙	-11.7589
豪貴	-11.7594
以賞之	-11.7596
曰人生	-11.7599
之下而	-11.7601
將佐皆	-11.761
險逺	-11.7611
可憂	-11.7617
族誅	-11.7617
再拜曰	-11.762
鄧皇后傳	-11.7624
尊卑之	-11.764
言於太后曰	-11.7644
請悉	-11.7646
隨便	-11.7649
元年春正月	-11.7655
重問	-11.7656
非人所	-11.7667
性質	-11.7669
制詔	-11.7676
澶	-11.768
或説	-11.7683
侯景自	-11.7686
一號	-11.7695
侯益	-11.7708
毎見	-11.771
言亮	-11.7725
此吾所	-11.7734
以假人	-11.7737
朱克融	-11.7738
𫝊三十	-11.7742
之姿	-11.7745
人品	-11.7748
遷吏部尚書	-11.7753
之人不可	-11.7772
失業	-11.7777
急召	-11.7778
之家也	-11.779
匈奴亦	-11.7796
擊趙	-11.7799
對曰王者	-11.78
妻亦	-11.7803
林中	-11.7836
而無益	-11.7843
江水	-11.7847
有非常	-11.7855
契丹契丹主	-11.7866
可託	-11.787
人問其故	-11.7873
魏高祖	-11.7879
有言者	-11.7881
御物	-11.7891
琛曰	-11.7905
不與卿	-11.7916
略同	-11.7921
十三年明皇	-11.7922
弑之	-11.7922
帝納其言	-11.7923
亦須	-11.7935
兩宫	-11.7944
恩寵	-11.795
惑於	-11.7952
光武光武	-11.7959
所著	-11.7959
不能舉	-11.7968
火燒	-11.7976
莊宗乃	-11.7985
有非常之	-11.7991
嘗著	-11.7997
至彭城	-11.8002
音居	-11.8003
聞其言	-11.8003
旣不	-11.8027
未可輕	-11.8028
詔有司	-11.8047
宣宗欲	-11.8063
率已	-11.8068
知逺曰	-11.8074
將騎兵	-11.8082
千餘家	-11.8091
徐兖	-11.8098
刺史劉	-11.81
泣下曰	-11.8102
使人召	-11.8103
無人臣	-11.8109
無勞	-11.814
十一年魏	-11.8141
孰不	-11.8149
契丹主怒	-11.8155
之於内	-11.816
北海王	-11.8161
晉元帝	-11.8162
之言欲	-11.8169
哭之曰	-11.8181
曰朕昔	-11.8182
續以	-11.8185
者相繼	-11.8187
中軍將軍	-11.8188
諸吏	-11.8188
外應	-11.8193
車牛	-11.8195
帝聞之大怒	-11.8199
助祭	-11.8199
素剛	-11.8208
上書求	-11.8214
無事可	-11.8217
衆怒	-11.8222
有限	-11.8227
縱欲	-11.8241
日甚	-11.8244
失人心	-11.825
将何以	-11.826
召亂	-11.8273
博議	-11.8285
權豪	-11.8286
智伯之	-11.8291
諸將皆曰	-11.8292
度支尚書	-11.8298
以白衣	-11.8318
質直	-11.832
有似	-11.8335
又曰陛下	-11.8337
譛之於	-11.8339
别宫	-11.8342
杭	-11.8354
議政事	-11.8355
刺史二千石	-11.836
注云凡	-11.8361
所不容	-11.8372
精甲	-11.8379
陳利害	-11.8391
將水軍	-11.8393
者立之	-11.8396
以狀聞	-11.8406
不可長	-11.8417
呉漢	-11.8423
南節度使	-11.8434
臣宿將	-11.8456
如晦	-11.8461
晉獻公	-11.8462
五里	-11.8466
王即皇帝位	-11.8467
顯言	-11.8479
李太后	-11.8487
也太后曰	-11.8499
朱虚侯	-11.8503
千乗	-11.8505
上書極	-11.8506
疏諫	-11.8513
守常	-11.8522
猛曰	-11.8533
儉約	-11.8534
張易之兄弟	-11.8543
為貴人	-11.8545
計且	-11.8545
寵待	-11.8553
陛下之有	-11.8572
都指揮使朱	-11.8572
謂所親曰吾	-11.8577
蜀蜀	-11.8582
此語	-11.8598
自是每	-11.8602
言於文帝曰	-11.8611
宻言於	-11.8619
令有司	-11.8629
延英殿	-11.8641
章華	-11.8644
不絶於	-11.8654
魏顯祖	-11.8656
姦鑄	-11.8657
梓州	-11.8674
示百官	-11.8685
講論	-11.8704
羌豪	-11.8706
奏封事	-11.8712
我乃	-11.8712
飾詐	-11.8722
非素	-11.8723
戸部	-11.8753
光武紀建武十	-11.8764
人亦以	-11.8772
江北之地	-11.8778
倉廩	-11.8779
文帝曰吳	-11.8787
流沙	-11.8792
難可	-11.8793
六十餘	-11.8794
等五人	-11.8797
有所薦	-11.8803
延魯	-11.8804
門下侍郎同平章事	-11.8828
應劭曰舊	-11.8843
操謂	-11.8843
并其子	-11.8849
欽定四庫全書通鑑總𩔖卷	-11.886
使人諭	-11.8889
指示	-11.8908
以消	-11.891
此始矣	-11.891
呼聲	-11.8914
怒曰我	-11.8918
曰即如	-11.8921
東夷	-11.8923
十七人	-11.8925
之彼必	-11.8929
功第一	-11.8934
祭天	-11.8938
𫝊四十	-11.8945
建儲	-11.8974
貞元	-11.8975
魏徴諌	-11.8978
左金吾	-11.899
崔協	-11.8995
逆節	-11.8997
不害	-11.904
咸謂	-11.9043
賜緋	-11.9045
腰斬	-11.9055
新附	-11.9067
給俸	-11.9071
匈奴𫝊	-11.9075
拜謁	-11.9092
許以為	-11.9099
百金	-11.9101
虞卿	-11.9104
㫖諭	-11.9107
董卓傳	-11.9119
雲臺	-11.913
月俸	-11.9135
機政	-11.9135
十一年太宗	-11.9143
寢廟	-11.9143
舉義兵	-11.9145
太子洗馬	-11.9149
逆賊	-11.9153
知古負	-11.9164
始元元年	-11.9168
肅宗乃	-11.9176
謚	-11.9183
韓瑗	-11.9216
言其寃	-11.9216
射殺	-11.9216
問以政事	-11.922
死者甚衆	-11.9225
五十四	-11.9225
不過十	-11.9228
衣錦	-11.9235
十萬石	-11.9237
邀求	-11.9245
淮北	-11.9249
撫諸	-11.9256
諸節度	-11.926
門蜀漢	-11.9261
㓜弱	-11.9263
進逼	-11.9268
背盟	-11.9279
緩刑	-11.9282
廟堂	-11.9282
源賀	-11.9308
出軍	-11.931
左右侍	-11.9317
兵深入	-11.9322
伐燕	-11.9334
依舊	-11.9334
畫日	-11.9351
未彰	-11.9358
洛邑	-11.9359
鹽鐡	-11.9361
至晡	-11.937
所急	-11.9371
二十二年初	-11.9391
相扇	-11.9392
以是得	-11.9394
兵逼	-11.9394
意忌	-11.9399
兵而攻	-11.9403
大司馬温	-11.9407
笑曰吾	-11.941
往事	-11.9417
懣	-11.942
振武	-11.9421
不許曰吾	-11.943
譟	-11.9433
萬錢	-11.9434
莢錢	-11.9438
能抗	-11.9439
神爵元年	-11.9441
車千	-11.9443
守禦	-11.9444
彪傳	-11.9448
太子諸王	-11.9451
二策	-11.9462
旗鼓	-11.9469
浣	-11.9471
所親信	-11.9476
容物	-11.9486
七萬	-11.9498
即位以來	-11.9499
永平三年	-11.9502
性貪	-11.9502
過差	-11.9512
失火	-11.9519
鉤弋	-11.9528
萬紀等	-11.9529
府屬	-11.9537
以自免	-11.9539
夫人夫人	-11.9543
李濤	-11.9544
遣詣京師	-11.9551
究其	-11.9552
過淮	-11.9556
氣不和而	-11.9557
贓賄	-11.9559
嘆曰	-11.9566
漢官儀曰	-11.9566
過更	-11.9567
建初二年	-11.9568
陸道	-11.957
李建及	-11.9571
陽嘉二年	-11.9574
窮奢極	-11.9576
邊患	-11.9576
宗祀	-11.9579
旱蝗	-11.9583
義武節度使	-11.9586
謡言	-11.9587
門候	-11.9589
韋丹	-11.9591
含嘉倉	-11.9595
此三人	-11.9598
東川節度使	-11.9599
聊	-11.9601
建章	-11.9602
武徳九年	-11.9602
太僕卿	-11.9603
間隙而	-11.9604
億萬	-11.9608
順帝紀	-11.9608
萬乗之	-11.9611
禆	-11.9613
𫉬	-11.9613
舟運	-11.9615
騅	-11.9615
八十四調	-11.9617
赤伏符	-11.9617
工部侍郎	-11.9617
附會	-11.9617
撾	-11.9618
刮	-11.9618
錚錚	-11.9618
邳	-11.962
如反掌	-11.962
太原倉	-11.962
多忌諱	-11.962
柘漿	-11.962
焫	-11.962
膋	-11.962
抄	-11.9621
顯慶	-11.9622
寇恂	-11.9622
尤無狀者	-11.9622
恐禍及已	-11.9622
髫髪	-11.9622
零陵	-11.9622
世勣	-11.9623
右臂	-11.9624
狙	-11.9625
于定國	-11.9626
彦範	-11.9626
擾攘	-11.9626
乞歸九華舊𨼆	-11.9626
為鎮海節度使	-11.9626
王吉傳	-11.9626
蔡倫	-11.9626
司刑丞	-11.9628
泌固辭	-11.9628
盧賁	-11.963
秦府功臣	-11.963
驕縱不法	-11.963
明臣直	-11.963
休守正不阿	-11.9631
朱㝢	-11.9632
自淮入	-11.9632
伏劍而死	-11.9632
飡	-11.9632
十為百名曰	-11.9632
築壇	-11.9633
君子小人	-11.9633
夏馥	-11.9634
㛰	-11.9634
河間王琛	-11.9634
羅渾擎	-11.9634
豽	-11.9634
肖	-11.9635
甚敬憚之	-11.9635
稗	-11.9635
巵	-11.9635
延載元年	-11.9636
攸暨	-11.9636
餌方士	-11.9636
自衒	-11.9636
洋王從璋	-11.9636
籖帥	-11.9636
那	-11.9636
挑	-11.9637
慰勉之	-11.9638
層	-11.9638
專有其功	-11.9638
經略中原	-11.9638
者衘寃	-11.9638
恭謹自守	-11.9638
榱	-11.9638
澆訛	-11.9638
穗	-11.9638
乗驢	-11.9638
嚴畯	-11.9638
岐靈岳	-11.9638
楊惲傳	-11.9638
泰液	-11.9638
翰林學士韋澳	-11.9638
髙五十丈	-11.9638
一匹	-11.9639
壬	-11.964
荀朂馮紞	-11.964
股	-11.964
不離側	-11.964
崔民幹為第	-11.964
髙陽王雍	-11.964
敬暉桓彦範	-11.964
楊於陵	-11.964
玊帛	-11.964
公孫五樓	-11.964
李朝隠	-11.964
與民爭利	-11.964
鐸	-11.964
使五官中郎將	-11.9641
稍抑損	-11.9641
鄖	-11.9642
閉闗絶約於齊	-11.9642
鄭覃李石	-11.9642
三嵗犢	-11.9642
卉	-11.9642
往復數四	-11.9642
槀街	-11.9642
禁私度僧尼	-11.9642
閼氏	-11.9642
羈縻	-11.9642
後晉天福八年唐	-11.9643
磐	-11.9643
涇陽	-11.9643
詛	-11.9643
錐	-11.9643
隊	-11.9643
馮紞	-11.9643
清暑殿	-11.9643
望春樓	-11.9643
丑	-11.9643
倘	-11.9643
痩	-11.9643
市㕓	-11.9643
氾	-11.9643
蕭思話	-11.9643
惀	-11.9643
擐甲	-11.9643
起居舍人	-11.9643
遣中使齎	-11.9643
株	-11.9643
𢎞億	-11.9643
封徳彞	-11.9643
慕容鎮軍	-11.9643
燃	-11.9643
狼籍	-11.9643
絭	-11.9643
行養老禮	-11.9643
鏡自照	-11.9643
陸象先	-11.9643
五經同異	-11.9644
叔末	-11.9644
宜為車轂	-11.9644
許靖	-11.9644
闔郡	-11.9644
鳳闕	-11.9644
玘	-11.9644
衣黄	-11.9644
易制故引	-11.9644
烽	-11.9645
旰	-11.9645
膚	-11.9645
刷	-11.9645
皇太后令	-11.9645
王曰寡人	-11.9645
蒼梧王	-11.9645
漢明帝欲	-11.9645
稷契	-11.9645
黨錮傳序	-11.9645
邃	-11.9645
竇建徳	-11.9645
行馳道中	-11.9645
上疏極諌	-11.9645
侮慢	-11.9645
以侯就第	-11.9645
以戒不虞	-11.9645
以褊察	-11.9645
封德彝	-11.9645
曾参	-11.9645
正刑書	-11.9645
不免饑寒	-11.9645
庚午	-11.9645
李渤上言	-11.9645
神龍元年中宗	-11.9645
禹稷	-11.9645
㪚騎常侍	-11.9645
衿帶	-11.9645
鉅萬	-11.9646
賚	-11.9646
大盈庫	-11.9646
磔	-11.9647
曰死生有命	-11.9647
百里奚	-11.9647
辨羣臣之邪正	-11.9647
嬖寵	-11.9647
尉遲敬徳	-11.9647
捫	-11.9647
相憎疾	-11.9647
驕奢擅權	-11.9647
歌吹	-11.9647
備法駕迎	-11.9647
吾無憂矣	-11.9647
善游者	-11.9647
强項	-11.9647
後漢天福十二年初	-11.9647
息肩	-11.9647
歸徳節度使	-11.9647
溲	-11.9647
白敏中謂同列	-11.9647
道病卒	-11.9647
李元紘杜暹	-11.9647
為左皇后	-11.9647
紲	-11.9647
貿易	-11.9647
踈骨肉	-11.9647
樂鄉	-11.9647
司農	-11.9648
陟	-11.9648
鄒陽	-11.9648
慝	-11.9648
崔駰	-11.9648
滕	-11.9649
猗	-11.9649
柘	-11.9649
致此今	-11.9649
督郵	-11.9649
司馬温公論	-11.9649
太和六年	-11.9649
懽	-11.9649
曳中人	-11.9649
汎舟	-11.9649
宿昔之	-11.9649
珠翠	-11.9649
瘳	-11.9649
百戰百勝	-11.9649
即皇帝位國號大	-11.9649
在定州	-11.9649
童謠	-11.9649
韲	-11.9649
不勝其忿	-11.9649
朕則不然	-11.9649
李靖節度	-11.9649
唐明宗之世	-11.9649
填塹	-11.9649
帥百餘騎	-11.9649
淆	-11.9649
為布衣交	-11.9649
疊	-11.9649
謂澳曰	-11.9649
貴嬪	-11.9649
錦袍	-11.9649
丞相孔光	-11.9649
劘上	-11.9649
友壻	-11.9649
周廣謝惲	-11.9649
孤軍深入	-11.9649
徴逺年逋欠	-11.9649
曲阜	-11.9649
有怨望語	-11.9649
漫	-11.9649
無私故能	-11.9649
豔	-11.9649
錢五百萬	-11.9649
風俗通曰	-11.9649
髙武子孫	-11.9649
賄	-11.965
軷	-11.965
䕃	-11.965
僃	-11.965
爵闗内侯	-11.9651
猴	-11.9651
河内太守	-11.9651
鼔譟	-11.9651
片	-11.9651
方目紗	-11.9651
會天大	-11.9651
扣	-11.9651
盥	-11.9651
偵	-11.9651
窖	-11.9651
豪侈	-11.9651
刋定	-11.9651
待之如初	-11.9651
洺	-11.9651
盈溢	-11.9651
祇徳	-11.9651
縱反間於	-11.9651
薛季昶	-11.9651
駮之以為	-11.9651
仁夀宫	-11.9651
入寢室	-11.9651
戬	-11.9651
戴淵	-11.9651
李嗣真	-11.9651
李日知	-11.9651
蛾	-11.9651
零陵王	-11.9651
靡麗	-11.9651
骨髓	-11.9651
呂	-11.9651
珙	-11.9652
縊	-11.9653
珍膳	-11.9653
贏縮	-11.9653
得以為辭	-11.9653
徒跣	-11.9653
創大業	-11.9653
元平元年	-11.9653
玉匣	-11.9653
武徳二年	-11.9653
賭	-11.9653
滄景	-11.9653
豐稔	-11.9653
長孫皇后	-11.9653
徼利	-11.9653
梵	-11.9653
韋安石	-11.9653
驂乗	-11.9653
今春以來	-11.9653
副都統朱瑾	-11.9653
包藏禍心	-11.9653
孝諶	-11.9653
建興三年	-11.9653
沅	-11.9653
禮葬之	-11.9653
至㶚上	-11.9653
道士趙歸真	-11.9653
五羖大夫	-11.9653
作兩稅法	-11.9653
入朝于鄴	-11.9653
劭濬	-11.9653
大酺	-11.9653
姚襄	-11.9653
延熹	-11.9653
有廢興	-11.9653
李栖筠	-11.9653
枝梧	-11.9653
潘在迎	-11.9653
焉得不	-11.9653
甘泉賦云	-11.9653
真其人也	-11.9653
眤	-11.9653
稗官	-11.9653
民間疾苦	-11.9654
蹂	-11.9654
涯等	-11.9654
檉	-11.9655
荔	-11.9655
汜	-11.9655
張綱	-11.9655
傅咸	-11.9655
胡桐	-11.9655
脆	-11.9655
檛	-11.9655
朝野推服	-11.9655
司徒導以	-11.9655
建章宫	-11.9655
楊昭儉諫	-11.9655
樊豐等	-11.9655
秦始皇漢武帝	-11.9655
自負才地	-11.9655
良家子	-11.9655
後周顯德五年	-11.9655
竄匿山谷	-11.9655
端拱無為	-11.9655
誘脅	-11.9655
中和四年	-11.9655
入峴	-11.9655
呂琦	-11.9655
困窘	-11.9655
墊	-11.9655
容哥	-11.9655
張又新	-11.9655
彦温	-11.9655
括惡錢	-11.9655
持矛	-11.9655
武惠妃為皇后	-11.9655
江沔	-11.9655
注云漢武内傳曰	-11.9655
王珪魏徴	-11.9655
短長術	-11.9655
競為暴刻	-11.9655
纛	-11.9655
者此之謂也	-11.9655
蘇世長	-11.9655
韓稜	-11.9655
頡利可汗	-11.9655
傖	-11.9655
渡水	-11.9655
闈	-11.9655
斛律	-11.9656
豚	-11.9656
宣徽副使	-11.9656
三輔故事云	-11.9656
廣順三年	-11.9656
沈醉	-11.9657
修洛陽宫	-11.9657
輿服志	-11.9657
安北將軍	-11.9657
建安十七年	-11.9657
於厠中	-11.9657
螟	-11.9657
鄧景山	-11.9657
儂	-11.9657
在長安城中	-11.9657
如其不然	-11.9657
打	-11.9657
被衮冕	-11.9657
鷰	-11.9657
之甚難臣	-11.9657
其伯父	-11.9657
刻石紀功	-11.9657
意乃解	-11.9657
縁淮	-11.9657
中宗大怒命	-11.9657
受國厚恩	-11.9657
從内出	-11.9657
死者大半	-11.9657
水衡都尉	-11.9657
臍	-11.9657
鐘鼓	-11.9657
偪	-11.9657
刈	-11.9657
可不慎哉	-11.9657
平蜀之功	-11.9657
恂恂	-11.9657
於别殿	-11.9657
未有不亡者	-11.9657
牙帳	-11.9657
猜阻	-11.9657
矧	-11.9657
人主之威	-11.9657
刑部尚書顔真卿	-11.9657
同甘苦	-11.9657
居安思危	-11.9657
延皓等	-11.9657
彦珣	-11.9657
揮涕	-11.9657
敡	-11.9657
李專美	-11.9657
李金全	-11.9657
次對官	-11.9657
殁	-11.9657
殿中御史	-11.9657
沙陀	-11.9657
白從暉	-11.9657
緝	-11.9657
耄	-11.9657
虗	-11.9657
謏	-11.9657
鄘	-11.9657
籍其數	-11.9657
馮野王	-11.9657
魏王泰	-11.9657
什七八	-11.9657
昃	-11.9657
𢎞贄	-11.9658
萃	-11.9658
轉禍為福	-11.9658
臾	-11.9658
衆二萬	-11.9658
聦	-11.9658
阮籍	-11.9658
愕	-11.9658
衽	-11.9658
霞	-11.9659
季稜	-11.9659
閫	-11.9659
怨恚	-11.9659
震慴	-11.9659
黍	-11.9659
嫁女	-11.9659
濛	-11.9659
開皇二十年	-11.9659
人相食	-11.9659
加元服	-11.9659
各有差	-11.9659
土崩瓦解	-11.9659
建元四年	-11.9659
野葛	-11.9659
何足介意	-11.9659
俚	-11.9659
堕	-11.9659
禇裒	-11.9659
笑而從之	-11.9659
陛下仁恩	-11.9659
吕琦	-11.9659
哺	-11.9659
左監門	-11.9659
幍	-11.9659
干預政事	-11.9659
真忠臣也	-11.9659
緫	-11.9659
與唐戰	-11.9659
藪	-11.9659
遣信臣	-11.9659
令行禁止	-11.9659
深居禁中	-11.9659
為浙西觀察使	-11.9659
綝	-11.9659
謂其衆曰	-11.9659
謾	-11.9659
赫連	-11.9659
開元六年	-11.9659
陂池	-11.9659
以厚利	-11.9659
叡册	-11.9659
怨嗟盈路	-11.9659
死者相枕	-11.9659
𫝊之子孫	-11.9659
𤣥暐	-11.9659
尸於市	-11.9659
納賄	-11.966
虡	-11.966
於墓側	-11.966
繫國安危	-11.966
疲勞	-11.966
楊惲	-11.966
塔廟	-11.966
滄	-11.966
瀹	-11.966
殱	-11.9661
犒	-11.9661
深然其言	-11.9661
意以為何如	-11.9661
聞而銜之	-11.9661
不如早除之	-11.9661
縹	-11.9661
用兵如神	-11.9661
騐	-11.9661
冉	-11.9661
後梁開平元年	-11.9661
藩垣	-11.9661
社稷為墟	-11.9661
陛下新即位	-11.9661
𢃄	-11.9661
人人自危	-11.9661
史思明	-11.9661
困乏	-11.9661
扑	-11.9661
自先帝時	-11.9661
輸布帛	-11.9661
遁走	-11.9661
餐錢	-11.9661
換易	-11.9661
於寢殿	-11.9661
練習	-11.9661
風流宰相	-11.9661
不急之務	-11.9661
奏請多踰分	-11.9661
後元二年	-11.9661
法門寺	-11.9661
丁零	-11.9661
乗輿服御	-11.9661
北齊肅宗	-11.9661
喑嗚	-11.9661
嚴可求曰	-11.9661
所乏者	-11.9661
救時之相	-11.9661
敢干之	-11.9661
為之一空	-11.9661
甿	-11.9661
發連弩射	-11.9661
社稷危矣	-11.9661
秦文公	-11.9661
紫貝	-11.9661
萬世之利也	-11.9661
裙	-11.9661
誣構	-11.9661
讌	-11.9661
郢王友珪	-11.9661
陛下所親見也今	-11.9661
驍騎將軍	-11.9661
哀帝以問	-11.9661
嚴善思	-11.9661
牙隊	-11.9661
犢鼻	-11.9661
盤盂	-11.9661
祝良	-11.9661
處分語	-11.9661
袁譚	-11.9661
邠寧兵	-11.9661
鐙	-11.9661
鬵	-11.9661
漲	-11.9661
旄	-11.9661
天下之兵	-11.9662
昭義節度使劉從諫	-11.9662
諫官要在舉職	-11.9662
中和元年	-11.9662
招慰	-11.9662
盧懐慎	-11.9662
注云東觀記曰	-11.9663
刋章	-11.9663
亡略盡	-11.9663
嬉戯	-11.9663
孔鄉侯	-11.9663
雷霆	-11.9663
鍼	-11.9663
帷幕	-11.9663
如草芥	-11.9663
文武兼資	-11.9663
不宜輕動	-11.9663
謗讟	-11.9663
貰	-11.9663
迅	-11.9663
周利用	-11.9663
天成三年	-11.9663
桎	-11.9663
自今已後	-11.9663
顔杲卿	-11.9663
孔子所謂	-11.9663
宗瞿然曰	-11.9663
扁	-11.9663
激切	-11.9663
郭威鎮鄴都	-11.9663
判戸部	-11.9663
劉善明	-11.9663
殺傷萬計	-11.9663
無賴少年	-11.9663
蠻酋	-11.9663
賞賜無度	-11.9663
鄭元弼	-11.9663
骨肉相殘	-11.9663
黃門侍郎	-11.9663
一篋	-11.9663
判官髙郁	-11.9663
友諒以	-11.9663
器械精	-11.9663
妄訴不已	-11.9663
宋璟疾負罪	-11.9663
寛貸	-11.9663
惡聞其過	-11.9663
揣知上意	-11.9663
泚泚	-11.9663
溺死者甚衆	-11.9663
皇太弟	-11.9663
硤石	-11.9663
确	-11.9663
貸其死	-11.9663
鎮海鎮東節度	-11.9663
駱驛	-11.9663
以夀終	-11.9663
以至今日	-11.9663
元康七年	-11.9663
募戍卒耕荒田	-11.9663
垂簾	-11.9663
婦翁	-11.9663
安成王頊	-11.9663
尼首	-11.9663
張説欲取立后	-11.9663
循名責實	-11.9663
慶山	-11.9663
拱宸	-11.9663
爵一級	-11.9663
藩維	-11.9663
鄭州防禦使	-11.9663
顯徳二年世宗	-11.9663
馥	-11.9663
彘	-11.9663
通鑑總𩔖	-11.9664
指揮	-11.9664
果可克	-11.9664
為奇士	-11.9664
除一官	-11.9664
頑	-11.9664
盲	-11.9665
考績	-11.9665
取之如拾芥耳	-11.9665
秣馬	-11.9665
言於曹操曰	-11.9665
飲膳	-11.9665
右扶風	-11.9665
太白晝見	-11.9665
以甘言	-11.9665
珥	-11.9665
禮樂志	-11.9665
衎	-11.9665
呂布	-11.9665
致仕退	-11.9665
天下有識	-11.9665
息夫躬	-11.9665
楊綰常衮	-11.9665
瞑目	-11.9665
翰林學士裴垍	-11.9665
臆	-11.9665
覦	-11.9665
遁還	-11.9665
丙戌	-11.9665
後五十年	-11.9665
時人醜	-11.9665
武恵妃	-11.9665
沙漠	-11.9665
為政之本	-11.9665
無敢違者	-11.9665
百餘員	-11.9665
知而不言	-11.9665
禦㓂	-11.9665
規畫皆稱上意	-11.9665
詞賦	-11.9665
隂中傷之	-11.9665
其三以為陛下	-11.9665
北寺獄	-11.9665
去符傳	-11.9665
及武帝即位	-11.9665
可不戒哉	-11.9665
員外同正	-11.9665
善事上官	-11.9665
天寶以後	-11.9665
層法	-11.9665
徧歴	-11.9665
望仙	-11.9665
李百藥	-11.9665
殪	-11.9665
比干之	-11.9665
渠牟	-11.9665
澡	-11.9665
濊	-11.9665
猜忌不委任臣下	-11.9665
率民財以	-11.9665
王子喬	-11.9665
皆飾以	-11.9665
盧祖尚	-11.9665
瞶	-11.9665
罏	-11.9665
者為正邪則	-11.9665
阮咸	-11.9665
附下罔上	-11.9665
韓昭𦙍	-11.9665
鴂	-11.9665
塔	-11.9665
胙	-11.9665
謝朏	-11.9665
淮堰	-11.9666
昔漢光武	-11.9666
伏伽	-11.9666
藩邸	-11.9666
刄	-11.9666
李紹宏	-11.9666
競為侈靡	-11.9667
為無益之	-11.9667
白雉	-11.9667
北海太守	-11.9667
裂地而封	-11.9667
貨賂公行	-11.9667
巫蠱之禍	-11.9667
御史中丞袁淑	-11.9667
必此人也	-11.9667
悸	-11.9667
國子博士	-11.9667
牋表	-11.9667
甃	-11.9667
神祇	-11.9667
去權反	-11.9667
巧慧	-11.9667
梃	-11.9667
盧奕	-11.9667
乙卯	-11.9667
今則不然	-11.9667
數之曰公	-11.9667
立武昭儀為后	-11.9667
設齋	-11.9667
何力何力	-11.9667
動摇	-11.9667
勞之曰卿	-11.9667
射獵	-11.9667
岷	-11.9667
李承嘉	-11.9667
筋	-11.9667
翰林學士承㫖韓偓	-11.9667
考訊	-11.9667
趙昭儀	-11.9667
上官婕妤	-11.9667
不受饋遺	-11.9667
九賓	-11.9667
京兆尹黎幹	-11.9667
亭候	-11.9667
今將奈何	-11.9667
何樂如之	-11.9667
冢嗣	-11.9667
冦讎	-11.9667
周智光	-11.9667
大明八年	-11.9667
失天下之望	-11.9667
寜元年	-11.9667
常平倉	-11.9667
張居翰	-11.9667
性傾巧	-11.9667
戎為三公與時浮沈	-11.9667
戡	-11.9667
捶撻	-11.9667
時人服其明而譏其細	-11.9667
机	-11.9667
橢	-11.9667
正色抗	-11.9667
水衡錢	-11.9667
治書侍御史	-11.9667
泰階六符	-11.9667
瀛莫	-11.9667
為將軍次	-11.9667
破鏡	-11.9667
磑	-11.9667
縋而出	-11.9667
羸瘠	-11.9667
聞而嘉之	-11.9667
謔浪	-11.9667
賈逵	-11.9667
金帛賜諸軍	-11.9667
饋糧	-11.9667
鳥雀	-11.9667
鴻漸	-11.9667
獿	-11.9667
轂	-11.9667
御座	-11.9667
思潮等	-11.9667
糗	-11.9667
駱谷	-11.9667
右驍衛將軍	-11.9668
自息矣	-11.9668
犁	-11.9668
鬚	-11.9668
樊崇	-11.9668
纊	-11.9668
姓武氏	-11.9668
鉞	-11.9668
屢以為言	-11.9668
開成二年	-11.9668
墨子曰	-11.9668
張從賔	-11.9668
伏儼曰	-11.9669
綠林	-11.9669
蕭炅	-11.9669
郊野	-11.9669
顯陽殿	-11.9669
㓗	-11.9669
南燕主備徳	-11.9669
王公以下	-11.9669
自垂拱以來	-11.9669
裴延齡輩	-11.9669
逃竄	-11.9669
其罪一也	-11.9669
戊辰	-11.9669
武王伐紂	-11.9669
漢安元年	-11.9669
矜恕	-11.9669
竇貞固	-11.9669
遣督䕶	-11.9669
錢千緡	-11.9669
頥指	-11.9669
侵軼	-11.9669
數月間	-11.9669
樓堞	-11.9669
歴五朝	-11.9669
泥塗	-11.9669
甚善然	-11.9669
禮部郎中	-11.9669
積十餘年	-11.9669
與物無競	-11.9669
見前世帝王	-11.9669
非人主所宜親也	-11.9669
人情危懼	-11.9669
劉思立	-11.9669
司徒左長史	-11.9669
廏	-11.9669
時年十六	-11.9669
朝集使	-11.9669
爇	-11.9669
脫巾	-11.9669
臣竊觀	-11.9669
諌諍	-11.9669
陳逵	-11.9669
㢘頗李牧	-11.9669
五月五日	-11.9669
令如汗	-11.9669
伶宦	-11.9669
侵牟	-11.9669
勑	-11.9669
勤政樓	-11.9669
多凝滯	-11.9669
太原周黨	-11.9669
宦官恣横	-11.9669
崔沔	-11.9669
差錯	-11.9669
張權輿	-11.9669
得免於禍	-11.9669
斜封官皆	-11.9669
曰比日	-11.9669
朕即位以來	-11.9669
深酷	-11.9669
火耕水耨	-11.9669
珍禽竒獸	-11.9669
畿甸	-11.9669
知與不知	-11.9669
管崇嗣	-11.9669
絶而復蘇	-11.9669
綂	-11.9669
羅程	-11.9669
言失一	-11.9669
賜胙	-11.9669
鐘虡	-11.9669
預其謀	-11.9669
鴨	-11.9669
鋋	-11.9669
柔佞	-11.9669
樹朋黨	-11.9669
蹇	-11.9669
在河上	-11.9669
娣	-11.9669
籞	-11.9669
僅以身免	-11.9669
大中四年以	-11.967
愜	-11.967
肄	-11.967
豪彊	-11.967
豁	-11.967
踞	-11.967
垂拱二年	-11.967
堞	-11.967
相汲引	-11.967
後周廣順二年唐主	-11.967
正閏	-11.967
關某張飛	-11.967
秋官侍郎	-11.967
仲郢	-11.967
梁武帝天監十	-11.967
泣下霑衿	-11.967
各有等差	-11.967
國子司業	-11.967
汾陽王	-11.967
各言得失	-11.967
嚴酷	-11.967
奢縱	-11.967
曰李尚書	-11.967
盧擕	-11.967
盾	-11.967
竟卒於	-11.967
髙甑生	-11.967
主父偃傳三十四	-11.967
乾符五年	-11.967
大中十二年	-11.967
攬轡	-11.967
申屠蟠	-11.967
疏奏不省	-11.967
而好賄	-11.967
匈奴烏孫	-11.967
惶愧	-11.967
擇禍莫若輕	-11.967
晉羊祜	-11.967
煩碎	-11.967
登進士第	-11.967
築壘	-11.967
結權貴	-11.967
自相魚肉	-11.967
進奏院	-11.967
共譖之	-11.967
嗟歎	-11.967
太子晃	-11.967
娶妻	-11.967
户口減	-11.967
旬日之間	-11.967
有諍臣風采	-11.967
櫜鞬	-11.967
相繼為相	-11.967
社稷之靈	-11.967
窒	-11.967
蒲禹卿	-11.967
言於梁主	-11.967
豐穰	-11.967
趙徳鈞	-11.967
鉤距	-11.967
闕庭	-11.967
頹	-11.967
馴致	-11.967
麗妃	-11.967
以其事訪之	-11.967
偃武修文	-11.967
劉齊賢	-11.967
占租	-11.967
擘	-11.967
昇明元年	-11.967
有謀能斷	-11.967
渴烏	-11.967
湛僧智	-11.967
滿腹	-11.967
為上瑞	-11.967
碑樓	-11.967
竒章公	-11.967
苐	-11.967
虛耗	-11.967
諸司奏事	-11.967
農區田法方	-11.967
野雞族	-11.967
随例	-11.967
靈旗	-11.967
蔓	-11.9671
鬱	-11.9671
富有四海	-11.9671
籍没	-11.9671
泛	-11.9671
顯德元年	-11.9672
玭	-11.9672
惠達	-11.9672
年十七	-11.9672
夘	-11.9672
太康元年	-11.9672
咄	-11.9672
礪	-11.9672
齧	-11.9672
即皇帝位于南郊	-11.9672
唐世稱	-11.9672
擯棄	-11.9672
負販	-11.9672
二百四十	-11.9672
衆大潰	-11.9672
大怒叱	-11.9672
畎	-11.9672
盧藏用	-11.9672
相約結	-11.9672
遭母憂	-11.9672
叩頭曰臣	-11.9672
不由科第	-11.9672
人多怨之	-11.9672
看	-11.9672
衝要	-11.9672
薄其為人	-11.9672
為國計使	-11.9672
簒位	-11.9672
割剥	-11.9672
如淳曰漢儀注	-11.9672
宻邇	-11.9672
時年十四	-11.9672
盈川	-11.9672
行臺郎中	-11.9672
褘	-11.9672
酸	-11.9672
公誠能	-11.9672
固留之	-11.9672
旌表	-11.9672
毎臨朝	-11.9672
沽	-11.9672
淫虐	-11.9672
漁獵	-11.9672
獵苑中	-11.9672
瓦石	-11.9672
鄰敵	-11.9672
㡌	-11.9672
休沐	-11.9672
卞範之	-11.9672
埸	-11.9672
張敬達	-11.9672
悔無及也	-11.9672
懼累表	-11.9672
於秦川	-11.9672
李鷃上慶雲圖	-11.9672
東晉陶侃	-11.9672
癸未	-11.9672
稱疾辭位	-11.9672
築倉	-11.9672
謚曰文	-11.9672
郷	-11.9672
閒居私第	-11.9672
靈芝	-11.9672
黄霧四塞	-11.9672
也臣謂宜	-11.9672
减戍卒	-11.9672
勤勵	-11.9672
呼萬歲	-11.9672
天潢	-11.9672
季昌	-11.9672
孫光憲	-11.9672
封域之内	-11.9672
抱關	-11.9672
曲臺記	-11.9672
曹翰	-11.9672
欣然納之	-11.9672
河東節度使劉知逺	-11.9672
深戒之	-11.9672
滄州	-11.9672
田承嗣為安史父子立祠堂	-11.9672
祿位	-11.9672
突利	-11.9672
舉酒屬	-11.9672
託疾不	-11.9672
軀命	-11.9672
輜軿	-11.9672
邴原	-11.9672
雲䍐	-11.9672
相唱和	-11.9672
南匈奴傳	-11.9673
事不理	-11.9673
金吾大將軍	-11.9673
赧	-11.9673
汰	-11.9674
顯徳六年	-11.9674
魯國孔	-11.9674
許孟容	-11.9674
開言路	-11.9674
述律太后	-11.9674
其末流	-11.9674
冠軍將軍	-11.9674
撙	-11.9674
欺㒺	-11.9674
投地曰	-11.9674
棄捐	-11.9674
民甚苦之	-11.9674
聦明	-11.9674
言於武宗曰	-11.9674
廢昏立明	-11.9674
為内應	-11.9674
用毛錐	-11.9674
真英主也	-11.9674
趙延夀	-11.9674
閽寺	-11.9674
餤	-11.9674
不朝謁	-11.9674
乞匄	-11.9674
儔	-11.9674
勢傾内外	-11.9674
彭寵	-11.9674
毁經像	-11.9674
永初二年	-11.9674
牛昭容	-11.9674
詢訪	-11.9674
隂為之備	-11.9674
齊之以禮	-11.9674
光和元年	-11.9674
卻	-11.9674
嗚呼	-11.9674
因而授之	-11.9674
子子孫孫	-11.9674
張延朗	-11.9674
彭城王勰	-11.9674
栢梁	-11.9674
泝流	-11.9674
為有司所糾	-11.9674
竹箭	-11.9674
至昭應	-11.9674
蚤	-11.9674
諭遣之	-11.9674
貞觀二十一年	-11.9674
鄭叔	-11.9674
魂魄	-11.9674
五覆奏	-11.9674
位極人臣	-11.9674
何憂不治	-11.9674
尺五寸	-11.9674
尺牘	-11.9674
斂容	-11.9674
有功則賞有罪則刑	-11.9674
李正巳	-11.9674
柳仲郢為	-11.9674
河間獻王	-11.9674
淮陽憲王	-11.9674
無為而治	-11.9674
猛虎	-11.9674
王者以四海為家	-11.9674
給其直	-11.9674
膽略	-11.9674
荻	-11.9674
隋楊素	-11.9674
非反而何	-11.9674
韓王信	-11.9674
飲藥死	-11.9674
入賊中	-11.9674
其不可一也	-11.9674
内憂懼	-11.9674
嘉禾	-11.9674
奏彈之	-11.9674
子孰與起文曰不如子起曰	-11.9674
己巳	-11.9674
彤	-11.9674
後唐潞王	-11.9674
所獻錢賜	-11.9674
搔頭	-11.9674
有恩者	-11.9674
朔方河東	-11.9674
朱鮪	-11.9674
李正已	-11.9674
桓帝不納	-11.9674
楊師厚	-11.9674
為親王	-11.9674
田遊巖	-11.9674
船達	-11.9674
菁	-11.9674
葛延遇	-11.9674
覽而善之	-11.9674
諫修洛陽宫	-11.9674
辰韓	-11.9674
郵亭	-11.9674
鄧琬	-11.9674
阿保機	-11.9674
𢷬	-11.9674
勍	-11.9674
尹勲	-11.9674
叱之曰	-11.9675
秃	-11.9675
璫	-11.9675
左衞將軍	-11.9675
逰獵	-11.9675
婚姻	-11.9675
公卿已下	-11.9675
翃	-11.9675
鑾	-11.9675
㒺	-11.9675
嗇	-11.9675
鷂	-11.9676
永元元年	-11.9676
鳬	-11.9676
唱和	-11.9676
帥百官詣	-11.9676
那得	-11.9676
𨼆忍	-11.9676
後周顯徳三年	-11.9676
有大志	-11.9676
櫝	-11.9676
陳宣帝大建	-11.9676
靜室	-11.9676
[...]
