<unk>	0
<s>	0
</s>	0
。	-1.76315
之	-4.90303
▁	-5.03285
曰	-5.27444
也	-5.30204
以	-5.31184
而	-5.38284
為	-5.44633
者	-5.45297
)	-5.46555
(	-5.47388
於	-5.49063
有	-5.52984
,	-5.71956
其	-5.78138
人	-5.8805
*	-5.90427
不	-5.98395
師	-5.99072
一	-5.99097
至	-5.99567
時	-6.10144
云	-6.15295
見	-6.16481
無	-6.17551
道	-6.22721
自	-6.23409
中	-6.25099
則	-6.26274
即	-6.27976
王	-6.29256
大	-6.30329
乃	-6.33173
此	-6.3653
與	-6.37912
如	-6.38023
行	-6.38126
得	-6.42857
是	-6.43093
故	-6.43516
出	-6.44506
心	-6.46041
法	-6.46792
言	-6.47804
所	-6.47905
及	-6.49218
生	-6.49353
又	-6.5314
在	-6.53631
後	-6.54932
寺	-6.55236
上	-6.55812
若	-6.58686
經	-6.59137
僧	-6.60943
三	-6.61223
山	-6.61419
矣	-6.62232
皆	-6.63555
事	-6.64843
來	-6.65288
因	-6.65851
佛	-6.67489
我	-6.67672
子	-6.69028
明	-6.69167
名	-6.69357
遂	-6.69424
非	-6.74302
等	-6.74703
今	-6.75009
公	-6.7642
入	-6.76705
相	-6.7749
天	-6.81458
問	-6.81483
二	-6.81547
當	-6.8283
乎	-6.82859
然	-6.83003
作	-6.83315
從	-6.83911
亦	-6.84419
可	-6.8526
下	-6.87588
同	-6.8803
聞	-6.88706
復	-6.8937
令	-6.90878
焉	-6.93409
日	-6.94909
方	-6.9505
文	-6.95244
將	-6.96294
汝	-6.96495
欲	-6.96644
多	-6.97853
或	-6.97854
處	-6.98002
傳	-6.98078
身	-6.98817
禪師	-6.98835
成	-6.99026
初	-6.99996
法師	-7.01051
眾	-7.0158
帝	-7.01644
去	-7.02003
既	-7.03308
請	-7.03636
吾	-7.0432
四	-7.04457
知	-7.0451
本	-7.0599
常	-7.06822
通	-7.08442
諸	-7.0857
▁|	-7.08713
前	-7.08779
說	-7.10374
善	-7.10431
世	-7.10599
謂	-7.10842
立	-7.11888
義	-7.12732
會	-7.13229
住	-7.14006
居	-7.14487
國	-7.15246
雖	-7.17688
五	-7.17709
安	-7.18111
觀	-7.18436
書	-7.20449
高	-7.20568
命	-7.20721
神	-7.2088
正	-7.21321
耳	-7.21644
能	-7.21951
語	-7.23004
用	-7.23255
起	-7.23319
論	-7.23571
遠	-7.23804
歸	-7.23975
德	-7.242
未	-7.25128
已	-7.2683
重	-7.26968
地	-7.26989
使	-7.27281
真	-7.27615
往	-7.27658
教	-7.28406
元	-7.29096
于	-7.29147
便	-7.29238
光	-7.29263
盡	-7.29974
還	-7.30344
水	-7.30994
求	-7.31139
何	-7.3202
必	-7.32322
.	-7.32631
受	-7.32729
空	-7.34755
學	-7.35258
禮	-7.35678
著	-7.35706
長	-7.37042
先	-7.38677
祖	-7.38869
開	-7.38995
化	-7.39774
深	-7.40194
意	-7.40544
巳	-7.40706
難	-7.41185
願	-7.41763
門	-7.42566
應	-7.43102
理	-7.44412
且	-7.44502
過	-7.4451
取	-7.44512
宗	-7.45096
始	-7.4519
發	-7.45288
定	-7.4614
造	-7.4718
智	-7.47343
坐	-7.48243
耶	-7.48793
字	-7.49304
○	-7.50732
死	-7.51082
夫	-7.5111
金	-7.51344
修	-7.51491
主	-7.51502
信	-7.51599
彼	-7.51658
年	-7.52793
家	-7.53114
聖	-7.53404
出家	-7.53525
依	-7.54011
石	-7.54188
業	-7.54663
周	-7.54665
舉	-7.54908
果	-7.55421
沙門	-7.5611
清	-7.5643
合	-7.57005
度	-7.57273
詔	-7.57895
思	-7.59253
食	-7.59619
分	-7.59672
州	-7.59753
實	-7.59868
弟子	-7.59877
解	-7.60127
廣	-7.60255
並	-7.60859
南	-7.60979
稱	-7.61166
尋	-7.61226
別	-7.61333
慧	-7.62227
志	-7.62497
雲	-7.62611
集	-7.6267
內	-7.62835
玄	-7.62896
聲	-7.62906
唐	-7.63833
向	-7.64016
七	-7.64194
更	-7.64225
藏	-7.64317
風	-7.64479
菩薩	-7.64688
流	-7.64698
小	-7.65076
物	-7.6533
釋	-7.65498
和尚	-7.65893
異	-7.66596
白	-7.6661
六	-7.66814
號	-7.66886
斯	-7.67172
寶	-7.67236
共	-7.67422
少	-7.67532
像	-7.68158
外	-7.68464
忽	-7.68654
於是	-7.68903
但	-7.68951
齊	-7.69152
興	-7.69399
凡	-7.69619
數	-7.69751
隨	-7.70009
頭	-7.70066
八	-7.70437
覺	-7.70588
止	-7.70603
西	-7.70684
性	-7.71142
不可	-7.71161
具	-7.71294
唯	-7.71622
念	-7.71938
持	-7.72065
奉	-7.72688
終	-7.73557
間	-7.74515
一日	-7.74547
悟	-7.74807
十	-7.75115
形	-7.76065
次	-7.76765
兩	-7.77379
東	-7.77384
各	-7.77472
妙	-7.78165
君	-7.78387
九	-7.78832
俱	-7.78966
元年	-7.79133
靈	-7.79179
陳	-7.79744
哉	-7.79934
師曰	-7.79973
猶	-7.79977
絕	-7.8007
遇	-7.8026
惟	-7.80424
遊	-7.80579
母	-7.80851
每	-7.80858
極	-7.81651
力	-7.81653
俗	-7.81853
情	-7.81947
照	-7.82016
甚	-7.82349
緣	-7.82595
衣	-7.82655
記	-7.82887
達	-7.83072
勝	-7.83172
師云	-7.83208
足	-7.83499
不能	-7.83503
親	-7.83547
被	-7.83592
華	-7.84077
官	-7.84246
現	-7.84324
如來	-7.84547
龍	-7.84625
樂	-7.84638
懷	-7.84827
顯	-7.84894
到	-7.85168
滅	-7.85242
月	-7.85449
苦	-7.85513
施	-7.85526
體	-7.85527
三年	-7.85545
宜	-7.85576
感	-7.85708
好	-7.8577
塔	-7.85792
指	-7.86559
以為	-7.86684
戒	-7.87159
佛法	-7.87294
識	-7.87408
莫	-7.87475
爾	-7.87514
夢	-7.88212
天下	-7.8868
進	-7.88867
講	-7.88909
不得	-7.89699
要	-7.89841
海	-7.89933
蓋	-7.90595
淨	-7.91188
建	-7.91275
就	-7.91293
二年	-7.91343
夜	-7.91714
古	-7.91755
昔	-7.92975
餘	-7.93164
城	-7.93268
敬	-7.93335
口	-7.93651
惡	-7.93945
尚	-7.94065
老	-7.94639
隱	-7.94733
宋	-7.94824
致	-7.95091
院	-7.95399
甞	-7.95518
禪	-7.95764
失	-7.96272
益	-7.97269
聽	-7.97834
勅	-7.98175
火	-7.98244
福	-7.98299
朝	-7.98447
李	-7.99068
素	-7.99311
色	-7.99561
路	-7.9965
登	-7.99707
手	-8.0049
望	-8.005
歲	-8.00572
辭	-8.00587
并	-8.00785
豈	-8.00849
漢	-8.01246
由	-8.01318
滿	-8.01405
和	-8.01905
氏	-8.02201
參	-8.02671
供養	-8.02793
張	-8.03032
氣	-8.0312
對	-8.03413
姓	-8.03972
父	-8.04012
誦	-8.04275
誠	-8.04329
北	-8.0454
如是	-8.04722
盛	-8.04818
却	-8.04905
引	-8.0512
首	-8.05233
置	-8.05322
病	-8.05457
承	-8.06284
獨	-8.06857
服	-8.07143
錄	-8.07397
梁	-8.07417
樹	-8.07496
報	-8.07515
弘	-8.07534
臣	-8.07705
卒	-8.07752
女	-8.08269
斷	-8.08526
了	-8.08649
林	-8.08704
告	-8.08868
賢	-8.08909
守	-8.09303
賜	-8.09414
民	-8.09891
利	-8.10063
平	-8.1011
治	-8.103
新	-8.10306
加	-8.10495
動	-8.10883
許	-8.10893
轉	-8.11097
百	-8.1152
破	-8.11636
咸	-8.11805
須	-8.11883
目	-8.12173
太子	-8.12461
一切	-8.12562
悉	-8.12897
濟	-8.13079
離	-8.13089
近	-8.13161
執	-8.13371
都	-8.13481
香	-8.13643
壽	-8.13906
備	-8.13949
他	-8.13977
疑	-8.1438
設	-8.14521
部	-8.14669
遣	-8.14753
表	-8.14988
寂	-8.14997
示	-8.15406
易	-8.15922
嚴	-8.15956
惠	-8.15973
改	-8.16222
宣	-8.16287
羅	-8.16331
久	-8.1656
所以	-8.16989
崇	-8.17138
眾生	-8.17164
答	-8.17489
念佛	-8.17658
靜	-8.17771
延	-8.18314
堂	-8.18353
亡	-8.19219
馬	-8.19263
微	-8.19752
留	-8.19917
位	-8.20118
降	-8.20263
乘	-8.2048
臨	-8.20866
遷	-8.2099
土	-8.21153
殿	-8.21428
木	-8.21868
制	-8.21918
尊	-8.2203
送	-8.2227
仁	-8.22295
音	-8.22398
圓	-8.2241
捨	-8.22527
精	-8.22558
如此	-8.22601
不知	-8.22719
習	-8.23066
經一卷	-8.2333
晉	-8.2355
證	-8.23668
尊者	-8.24485
千	-8.24644
永	-8.24791
結	-8.24926
直	-8.25108
宮	-8.25723
辯	-8.25808
嗣	-8.26198
載	-8.2642
境	-8.26558
總	-8.26561
疾	-8.2698
玉	-8.27035
比丘	-8.27127
魏	-8.27405
恒	-8.27461
密	-8.27601
略	-8.27627
詣	-8.27632
說法	-8.28239
舊	-8.28537
反	-8.28708
垂	-8.28813
除	-8.28938
答曰	-8.29314
四年	-8.2935
兼	-8.29361
代	-8.29493
召	-8.29903
順	-8.30122
存	-8.3013
人也	-8.30771
萬	-8.31057
獲	-8.31372
譯	-8.31587
士	-8.31653
而不	-8.31755
全	-8.31922
殺	-8.32671
任	-8.32821
功	-8.32856
寧	-8.32869
兵	-8.33097
啟	-8.33211
夏	-8.33619
大師	-8.34015
散	-8.34137
眼	-8.34211
屬	-8.34281
律	-8.34507
述	-8.34892
授	-8.35216
虎	-8.35359
謝	-8.35503
放	-8.35586
愛	-8.35769
邪	-8.36332
面	-8.36478
室	-8.3676
齋	-8.36916
蒙	-8.36984
變	-8.37004
舍利	-8.37026
機	-8.37088
陽	-8.37332
法華	-8.37433
運	-8.37694
亂	-8.37756
章	-8.38364
視	-8.38369
投	-8.38408
菴	-8.38415
鬼	-8.38601
交	-8.38741
窮	-8.38793
宿	-8.38825
徒	-8.38836
喜	-8.39339
超	-8.39695
普	-8.39755
適	-8.39916
景	-8.4021
封	-8.4026
辨	-8.40397
末	-8.40684
拜	-8.40885
花	-8.41042
接	-8.41343
布	-8.41443
巖	-8.41521
仰	-8.41637
回	-8.4185
伏	-8.42203
舍	-8.42416
罪	-8.42821
息	-8.42916
恐	-8.43004
迎	-8.43069
遍	-8.43129
仙	-8.43166
曾	-8.43308
美	-8.43633
畢	-8.4481
問曰	-8.45025
謁	-8.4504
歷	-8.45206
仍	-8.45234
圖	-8.45398
華嚴	-8.45531
期	-8.45535
府	-8.45855
看	-8.45909
資	-8.46049
再	-8.46141
似	-8.46159
漸	-8.46257
殊	-8.47022
護	-8.47142
飛	-8.47239
虛	-8.47262
疏	-8.4736
象	-8.47421
草	-8.47533
推	-8.47599
計	-8.47628
恩	-8.47647
固	-8.48066
慶	-8.48236
吳	-8.48715
涅槃	-8.48779
迹	-8.48796
父母	-8.48852
遺	-8.48986
之所	-8.48991
塵	-8.49101
賊	-8.49253
世尊	-8.49272
特	-8.49316
端	-8.49346
累	-8.49369
否	-8.49437
乞	-8.49699
慈	-8.49824
追	-8.50048
節	-8.50138
貴	-8.50338
尼	-8.50563
類	-8.50624
幽	-8.50648
三藏	-8.50659
群	-8.50713
廢	-8.51116
比	-8.5117
越	-8.51217
落	-8.51321
源	-8.51349
奏	-8.51845
妄	-8.5185
、	-8.51867
黃	-8.52061
移	-8.52253
列	-8.52707
聖人	-8.52895
泉	-8.53095
供	-8.53119
今日	-8.5333
約	-8.5342
五年	-8.53515
功德	-8.53742
田	-8.54
簡	-8.5429
顧	-8.54525
幸	-8.54674
右	-8.5478
劉	-8.54947
積	-8.55201
專	-8.55407
輕	-8.55592
孝	-8.5575
議	-8.55842
榮	-8.55848
待	-8.55869
於此	-8.55929
毀	-8.56025
才	-8.56226
序	-8.56558
誰	-8.56597
縣	-8.56996
秀	-8.57035
典	-8.57213
澄	-8.57253
切	-8.57618
七日	-8.57666
旨	-8.57778
而去	-8.57808
據	-8.57884
兒	-8.57994
退	-8.58082
御	-8.58248
容	-8.58303
撰	-8.58356
秦	-8.58386
所謂	-8.58415
淨土	-8.58731
關	-8.58884
勸	-8.59034
如何	-8.59406
六年	-8.59478
棄	-8.59511
武	-8.59691
根	-8.59818
不見	-8.59994
覩	-8.60182
一曰	-8.60291
無所	-8.60364
河	-8.60443
預	-8.60482
雨	-8.60486
品	-8.60508
脫	-8.60571
冥	-8.60617
竟	-8.60809
種	-8.60847
江	-8.60937
覆	-8.60937
沒	-8.60938
錢	-8.61281
大士	-8.61728
道士	-8.61736
迷	-8.61753
藥	-8.61761
務	-8.61847
器	-8.61853
愈	-8.61854
印	-8.61857
政	-8.62021
庵	-8.62147
座	-8.62493
余	-8.62558
春	-8.62636
軍	-8.62678
至於	-8.62699
游	-8.62738
胡	-8.62811
青	-8.6282
輒	-8.63083
嘗	-8.63179
打	-8.63306
道俗	-8.63316
卷	-8.63587
談	-8.63928
房	-8.64051
牛	-8.64308
想	-8.64332
寄	-8.64893
雜	-8.64909
量	-8.64948
者也	-8.64961
權	-8.65059
假	-8.65168
繼	-8.65223
般若	-8.65246
忠	-8.65291
奇	-8.65441
紀	-8.65484
客	-8.65523
臺	-8.65628
休	-8.66042
皇	-8.66375
勤	-8.66449
彌	-8.66511
生死	-8.66721
頂	-8.67146
省	-8.67449
忘	-8.67475
。】「	-8.67555
注	-8.6775
威	-8.67852
恭	-8.68374
救	-8.68478
良	-8.68487
大乘	-8.685
偈	-8.68554
隆	-8.68643
峯	-8.68939
惑	-8.6976
光明	-8.69894
有一	-8.69901
讀	-8.69991
附	-8.70048
勿	-8.70324
堅	-8.70512
領	-8.70574
道場	-8.70585
徵	-8.70684
郡	-8.70748
禁	-8.70968
愚	-8.71
茲	-8.71074
影	-8.71118
卿	-8.71311
負	-8.71386
增	-8.71394
莫不	-8.71581
頓	-8.72565
隋	-8.72822
詳	-8.72827
充	-8.72936
史	-8.73063
英	-8.73208
攝	-8.73693
驗	-8.73852
收	-8.73924
況	-8.7405
底	-8.74141
之後	-8.74264
早	-8.74354
免	-8.74543
連	-8.74679
珠	-8.74719
寒	-8.74812
詩	-8.7482
喪	-8.74851
昭	-8.74852
冠	-8.74918
。」【	-8.75111
儀	-8.75122
里	-8.75198
唱	-8.75205
骨	-8.75413
續	-8.75561
一人	-8.75636
養	-8.75649
急	-8.75722
阿	-8.75742
太	-8.7576
居士	-8.75762
」	-8.7578
朗	-8.76275
符	-8.76415
謂之	-8.76474
劫	-8.76761
尤	-8.76809
七年	-8.7705
谷	-8.7716
徹	-8.77228
雅	-8.7728
半	-8.77284
十年	-8.77528
朕	-8.77623
聚	-8.7778
屈	-8.77946
因緣	-8.77956
潛	-8.77967
赴	-8.77986
學者	-8.78031
閑	-8.78035
率	-8.7808
壞	-8.7834
味	-8.78532
:「	-8.78552
左	-8.78557
邊	-8.78836
原	-8.78897
笑	-8.79004
天竺	-8.79294
呼	-8.79412
一時	-8.79667
句	-8.79743
試	-8.7988
患	-8.79899
孫	-8.79926
迴	-8.79979
趣	-8.80162
爭	-8.80243
之道	-8.80284
池	-8.80399
步	-8.80447
頗	-8.8077
司	-8.80841
付	-8.80904
涉	-8.81032
金剛	-8.81259
陵	-8.81407
自然	-8.81505
祖曰	-8.8175
幾	-8.81839
驚	-8.82176
席	-8.82284
統	-8.82561
智者	-8.82583
天台	-8.83014
乃至	-8.83022
侍	-8.83258
沈	-8.83563
清淨	-8.83865
某	-8.83895
葉	-8.8413
阿難	-8.84162
迦葉	-8.84204
訓	-8.84347
獻	-8.84467
融	-8.84564
舟	-8.84689
慕	-8.84853
洞	-8.85085
給	-8.85134
裏	-8.85356
考	-8.85566
陰	-8.85707
臥	-8.85957
諸佛	-8.86093
十二	-8.86437
界	-8.86459
拔	-8.86465
車	-8.8649
遵	-8.86502
大眾	-8.86512
大德	-8.86844
天子	-8.86844
契	-8.87331
松	-8.8736
悲	-8.87452
強	-8.87497
誦經	-8.87516
悅	-8.87557
雪	-8.87561
虗	-8.87831
曉	-8.87873
又曰	-8.87965
納	-8.87979
對曰	-8.88035
橫	-8.88332
決	-8.88542
擬	-8.88737
哀	-8.88793
謹	-8.8885
燈	-8.88938
基	-8.8894
導	-8.89035
澤	-8.89077
是以	-8.89225
偏	-8.89418
西方	-8.89466
折	-8.89472
晚	-8.89535
誓	-8.89689
外道	-8.89727
儒	-8.89766
墮	-8.89878
波	-8.89891
弗	-8.89892
洪	-8.89951
輪	-8.902
梵	-8.9026
私	-8.90424
幼	-8.90443
那	-8.90627
申	-8.90641
跡	-8.90679
不敢	-8.90694
躬	-8.9077
曲	-8.90905
翻	-8.90917
世間	-8.91156
縱	-8.91301
違	-8.91361
予	-8.91402
律師	-8.91426
京師	-8.91492
出世	-8.91619
三日	-8.91856
只	-8.9195
露	-8.91978
由是	-8.91981
闕	-8.92041
值	-8.92101
方便	-8.92316
葬	-8.92427
厚	-8.92585
可以	-8.92695
提	-8.92698
屋	-8.92728
揚	-8.92969
五百	-8.92978
質	-8.93079
標	-8.93151
營	-8.93208
鳥	-8.93335
昌	-8.93396
勞	-8.93425
鎮	-8.93514
助	-8.9364
徧	-8.93701
上座	-8.93749
左右	-8.93799
泰	-8.93802
背	-8.93888
▁|(	-8.94057
慮	-8.94413
魔	-8.94429
不同	-8.94576
頌	-8.94583
摩	-8.94637
魚	-8.94683
文殊	-8.94888
訖	-8.94941
野	-8.95012
蘇	-8.95024
三寶	-8.95065
皇帝	-8.95231
希	-8.95262
楚	-8.95302
傾	-8.95484
三昧	-8.95526
欽	-8.95526
釋迦	-8.95883
門人	-8.96164
老子	-8.96227
觀音	-8.96231
筆	-8.96375
赤	-8.96614
無不	-8.967
索	-8.96717
懼	-8.96754
伯	-8.96915
鐵	-8.96956
秋	-8.97039
敘	-8.97107
兄	-8.97152
楊	-8.97164
無量	-8.97181
罷	-8.97266
害	-8.97435
星	-8.97612
寫	-8.97928
屢	-8.97937
究	-8.98079
老僧	-8.98088
婆	-8.98114
友	-8.98218
浮	-8.98229
狀	-8.98281
讚	-8.98335
稟	-8.98437
履	-8.98535
贊	-8.9856
走	-8.98564
溪	-8.98598
經云	-8.98609
逢	-8.98701
陛下	-8.98704
纔	-8.9888
最	-8.99031
刻	-8.99195
曇	-8.99323
返	-8.99419
詞	-8.99501
訪	-8.99569
傷	-8.99583
委	-9.00103
畫	-9.00155
合掌	-9.00233
天地	-9.00235
法門	-9.00366
自是	-9.00377
淵	-9.00425
經論	-9.00537
沙	-9.00546
孤	-9.00769
補	-9.00861
振	-9.01076
貫	-9.01304
差	-9.01564
博	-9.01674
園	-9.01735
喻	-9.01915
禮拜	-9.0196
童子	-9.02011
飲	-9.02028
當時	-9.0214
莊嚴	-9.02142
一卷	-9.02273
痛	-9.02347
久之	-9.02518
夫人	-9.02763
你	-9.02834
妻	-9.02938
徐	-9.03001
川	-9.03052
為之	-9.03158
趙	-9.0316
地獄	-9.0327
演	-9.03353
朱	-9.0338
按	-9.03576
苟	-9.03629
條	-9.03878
其所	-9.03897
飯	-9.04106
遽	-9.04124
雙	-9.0423
鏡	-9.04329
忍	-9.04419
。「	-9.04439
閱	-9.0449
己	-9.0451
鄉	-9.04568
廟	-9.04604
烏	-9.04669
勢	-9.05001
弟	-9.05048
偶	-9.05088
第	-9.05592
支	-9.05667
道人	-9.0568
冬	-9.05692
溫	-9.05723
僧云	-9.05807
逸	-9.05871
未幾	-9.05875
鉢	-9.05905
懸	-9.05956
吏	-9.06035
精舍	-9.06176
二十	-9.06292
八年	-9.06388
戶	-9.06486
聞之	-9.06713
諱	-9.06718
富	-9.06921
庭	-9.07033
財	-9.07072
觸	-9.07088
覽	-9.07118
鳴	-9.07144
何以	-9.07172
速	-9.07275
怪	-9.0738
衛	-9.07492
不為	-9.07529
岸	-9.07552
嘉	-9.07622
宅	-9.07637
篇	-9.07646
即是	-9.07768
術	-9.0785
第一	-9.07894
側	-9.07928
升	-9.08218
夷	-9.08333
默	-9.08427
蜀	-9.08659
競	-9.08757
偽	-9.08896
其人	-9.08929
犯	-9.09418
薄	-9.09476
嶺	-9.0969
擊	-9.09889
閣	-9.09892
工	-9.09992
日月	-9.10029
恨	-9.10087
碑	-9.10474
二人	-9.10637
倒	-9.10681
飾	-9.10971
庶	-9.11035
為人	-9.11413
憑	-9.11584
長安	-9.11764
敢	-9.11833
披	-9.11864
三月	-9.11927
無有	-9.12008
瑞	-9.12085
之人	-9.12136
見之	-9.1233
停	-9.1248
肉	-9.12764
住持	-9.12881
西域	-9.12886
既而	-9.12964
乖	-9.13181
邑	-9.13339
爾時	-9.13345
黑	-9.13546
之間	-9.13625
謀	-9.13676
鑒	-9.13689
旦	-9.13727
正法	-9.13853
珍	-9.14046
船	-9.14094
損	-9.14161
可謂	-9.14183
然後	-9.14287
諸天	-9.14362
內外	-9.1437
)○	-9.14423
歎	-9.14464
憂	-9.14576
侯	-9.14785
羅漢	-9.14819
酒	-9.14897
樓	-9.14999
毒	-9.1501
中有	-9.15081
讓	-9.1509
貞	-9.15225
臨濟	-9.15265
行道	-9.15337
莊	-9.15421
蓮華	-9.15612
什	-9.1581
呪	-9.15942
掌	-9.1596
昏	-9.16201
泥	-9.16328
明日	-9.16416
孔子	-9.16461
案	-9.16475
世界	-9.16544
角	-9.16642
之事	-9.1674
敷	-9.16771
又問	-9.17012
託	-9.17065
伽藍	-9.17433
亦不	-9.17677
又云	-9.17829
刀	-9.18325
鼓	-9.18478
竹	-9.18506
逆	-9.18547
未甞	-9.18647
之言	-9.18676
祥	-9.18683
含	-9.18827
塗	-9.19
宏	-9.19034
僧尼	-9.19084
先生	-9.19221
而巳	-9.19225
喚	-9.19247
燒	-9.19327
童	-9.19334
亮	-9.19492
之中	-9.1972
云云	-9.19884
偈曰	-9.19888
康	-9.19899
趨	-9.19956
解脫	-9.1996
修行	-9.20067
岳	-9.2008
齒	-9.20179
廬山	-9.20267
保	-9.20288
不是	-9.20409
昇	-9.2061
是也	-9.20912
之心	-9.20954
謙	-9.20992
時有	-9.21016
染	-9.21032
克	-9.21071
科	-9.21105
題	-9.21356
俄	-9.21361
魯	-9.21391
繁	-9.21415
竊	-9.21441
紫	-9.21522
法界	-9.21804
潤	-9.21906
君子	-9.2208
迦	-9.22321
聰	-9.22357
季	-9.22461
崩	-9.22491
何不	-9.22522
佛教	-9.22697
髮	-9.23193
遣使	-9.23203
蛇	-9.23244
伐	-9.23387
伊	-9.23409
調	-9.23426
八月	-9.23692
丘	-9.23749
懺	-9.23941
輩	-9.23964
逐	-9.23994
不識	-9.24071
抱	-9.24129
十八	-9.24132
須臾	-9.24156
四月	-9.24206
。」	-9.24314
顏	-9.24331
紹	-9.24581
責	-9.24803
無為	-9.24812
刑	-9.24898
是故	-9.25096
倫	-9.25253
沙彌	-9.25326
京	-9.2541
壇	-9.25424
奪	-9.25613
長者	-9.2562
脩	-9.25664
眾僧	-9.25771
九年	-9.25821
菩提	-9.25842
獄	-9.25895
稍	-9.26016
師子	-9.26055
侍者	-9.26134
十六	-9.2623
仲	-9.26236
陀	-9.26323
欣	-9.26325
創	-9.26385
不復	-9.26676
盜	-9.26827
肅	-9.26848
帶	-9.27033
九月	-9.27056
避	-9.27069
諸方	-9.27094
消	-9.27106
是時	-9.27114
盈	-9.27146
其事	-9.27189
不許	-9.27235
五月	-9.27277
婆羅門	-9.27405
紙	-9.27407
蕭	-9.27515
不及	-9.27602
其道	-9.27641
之法	-9.27804
峰	-9.27928
焚	-9.27933
是年	-9.27999
我今	-9.28253
陸	-9.28276
點	-9.28292
前後	-9.284
以此	-9.2843
十月	-9.28613
暢	-9.28635
此是	-9.28646
駕	-9.28673
三十	-9.28695
之時	-9.28898
細	-9.28954
佛像	-9.2899
製	-9.29183
村	-9.29198
歌	-9.29204
雲門	-9.29218
帝曰	-9.29305
二十年	-9.29413
云何	-9.29414
祐	-9.2966
舌	-9.29667
操	-9.29741
瞻	-9.29743
馳	-9.29814
有人	-9.30101
障	-9.30149
招	-9.30155
彌勒	-9.30175
選	-9.30196
毛	-9.3021
勒	-9.30312
翁	-9.30328
途	-9.30399
寬	-9.30422
震	-9.3053
錫	-9.30589
凝	-9.3063
葢	-9.30814
遭	-9.30859
七月	-9.30957
麼	-9.30968
兮	-9.31179
叔	-9.31181
米	-9.31467
曹	-9.31509
大王	-9.31834
怒	-9.31903
誕	-9.32105
純	-9.32137
相見	-9.3222
歡喜	-9.32252
鍾	-9.32407
如何是	-9.32532
四方	-9.32599
孔	-9.32617
殷	-9.32736
靡	-9.32738
雄	-9.32917
吉	-9.33148
逾	-9.33158
旋	-9.33186
未有	-9.33307
鑑	-9.33465
端坐	-9.33516
役	-9.33522
懺悔	-9.33603
】	-9.33768
滯	-9.33796
暫	-9.33843
諫	-9.33853
血	-9.33928
氏子	-9.34087
歎曰	-9.34107
勑	-9.34118
族	-9.34151
至是	-9.34201
臨終	-9.34287
傍	-9.34447
法身	-9.34502
敗	-9.34511
無常	-9.3456
釋氏	-9.34678
俊	-9.34739
曠	-9.34769
戰	-9.34806
十五	-9.34854
輔	-9.34858
謂曰	-9.34977
畏	-9.35057
徑山	-9.35087
活	-9.35155
十方	-9.35165
荒	-9.35213
于時	-9.35276
種種	-9.35312
即位	-9.35446
昧	-9.35464
祈	-9.35486
乾	-9.35489
篤	-9.35599
浮圖	-9.35636
籍	-9.35936
之說	-9.35982
繫	-9.36065
遁	-9.36078
彌陀	-9.3621
晝夜	-9.36299
受戒	-9.36351
大聖	-9.3658
俾	-9.36594
監	-9.36642
豐	-9.36777
謬	-9.36792
橋	-9.36796
塞	-9.36913
后	-9.3697
鬼神	-9.37045
三千	-9.37121
往生	-9.37244
叢林	-9.37292
一部	-9.37313
歟	-9.37318
扶	-9.37441
而逝	-9.37476
話	-9.37507
杖	-9.37531
例	-9.37582
井	-9.37998
彰	-9.3803
道者	-9.38636
十三	-9.38965
郭	-9.3899
亦有	-9.39087
寺僧	-9.39104
編	-9.39104
貪	-9.39122
至今	-9.39222
狂	-9.39295
之徒	-9.39312
其後	-9.39531
十一月	-9.39628
誤	-9.39643
蘭	-9.39677
示寂	-9.39725
山中	-9.39802
佛經	-9.39839
祇	-9.39988
二月	-9.39995
龕	-9.40133
盧	-9.40175
答言	-9.40247
檢	-9.40278
壁	-9.40455
響	-9.40563
自在	-9.40617
長老	-9.40676
婦	-9.40822
太祖	-9.40829
武帝	-9.40864
床	-9.40923
之曰	-9.40945
規	-9.4101
貌	-9.41124
袈裟	-9.41128
頻	-9.41185
不信	-9.41543
奔	-9.41572
有所	-9.4158
尚書	-9.41878
荷	-9.41994
)(	-9.42047
十二月	-9.42067
汝等	-9.42099
銀	-9.42147
禍	-9.42203
厭	-9.42215
縛	-9.4222
三十年	-9.42264
之地	-9.42429
隔	-9.42459
式	-9.42487
不足	-9.42545
敏	-9.426
遙	-9.42631
僧曰	-9.42658
暴	-9.42723
此云	-9.42779
賓	-9.42901
有大	-9.42921
六月	-9.4299
悔	-9.43008
茂	-9.43051
旁	-9.43077
洲	-9.4308
箇	-9.43191
大小	-9.43265
崖	-9.43337
衰	-9.43422
丹	-9.43438
精進	-9.43474
剎	-9.43522
不覺	-9.43701
減	-9.43791
允	-9.43876
知其	-9.43933
空中	-9.44
誡	-9.44016
幻	-9.44087
智慧	-9.44092
熟	-9.44143
燕	-9.44179
盤	-9.44191
穢	-9.4426
十二年	-9.44501
古今	-9.44547
而化	-9.4466
之日	-9.44678
網	-9.4472
正月	-9.44768
亦無	-9.44829
郎	-9.44839
第二	-9.44876
拘	-9.44987
三界	-9.45223
階	-9.45261
大法	-9.45282
穴	-9.45302
蓮	-9.45415
潔	-9.45789
危	-9.45795
彥	-9.4594
名曰	-9.4615
吐	-9.4629
見一	-9.46338
冀	-9.46388
而已	-9.46391
察	-9.46429
怨	-9.4653
一念	-9.46549
逮	-9.46581
杜	-9.46726
之士	-9.46798
翼	-9.46979
燭	-9.47021
平生	-9.47035
入室	-9.47083
薦	-9.47155
墜	-9.472
逝	-9.47346
熱	-9.47358
鳳	-9.47374
祭	-9.47391
若不	-9.47466
峻	-9.4753
陶	-9.47756
抵	-9.47797
市	-9.47859
採	-9.47891
茶	-9.47948
麗	-9.47952
其中	-9.48001
銅	-9.48098
不動	-9.48107
宇	-9.48248
鹿	-9.48355
然則	-9.48443
堪	-9.4857
首座	-9.48596
甲	-9.48779
天人	-9.48799
乳	-9.48916
撫	-9.48958
革	-9.49004
視之	-9.49012
無生	-9.49078
錯	-9.49208
候	-9.49265
審	-9.49279
從之	-9.49344
國王	-9.49419
蘊	-9.49453
賴	-9.49463
一心	-9.49487
譯經	-9.49524
職	-9.49622
貧	-9.49704
南嶽	-9.49751
羊	-9.49829
十一	-9.50031
陷	-9.50074
其言	-9.50098
殘	-9.5024
均	-9.5026
十四	-9.50339
甘	-9.50388
枝	-9.50395
文字	-9.50428
以其	-9.50495
誅	-9.50514
見其	-9.50578
王曰	-9.50642
夕	-9.50664
言訖	-9.50873
五十	-9.51018
改元	-9.51118
晦	-9.51167
所說	-9.51171
之旨	-9.5123
舜	-9.51291
見佛	-9.51674
洞山	-9.51843
僧道	-9.51881
巨	-9.51904
僧問	-9.52072
倍	-9.52114
抑	-9.52175
何故	-9.5234
琳	-9.5239
高祖	-9.52396
數日	-9.52549
和上	-9.52609
老人	-9.52707
與之	-9.5271
之教	-9.52766
匠	-9.52777
又有	-9.52874
甘露	-9.52923
虗空	-9.53137
所見	-9.53167
太守	-9.53382
勇	-9.53557
管	-9.5356
煩惱	-9.53713
作禮	-9.53888
隣	-9.54037
津	-9.54114
湯	-9.54128
際	-9.5435
往來	-9.54393
範	-9.5446
諦	-9.5451
不出	-9.54524
有僧	-9.54598
臂	-9.54648
擇	-9.54705
太宗	-9.54787
厥	-9.54837
灰	-9.54883
徑	-9.54915
芳	-9.55023
賞	-9.5504
趙州	-9.55323
白雲	-9.55323
洗	-9.5535
厲	-9.5535
洛陽	-9.55419
何為	-9.55424
騰	-9.55457
亭	-9.55585
具足	-9.55591
洛	-9.55674
函	-9.5591
判	-9.5596
渠	-9.55963
春秋	-9.56
囑	-9.56057
暮	-9.561
戲	-9.56175
慈悲	-9.56256
展	-9.56268
抗	-9.56274
頃	-9.56477
短	-9.56493
竭	-9.56528
掩	-9.56531
丁	-9.56536
而出	-9.56548
皮	-9.56655
這	-9.56727
脚	-9.56766
商	-9.56804
四明	-9.57144
十一年	-9.57186
;	-9.57208
腹	-9.57254
寢	-9.5728
軌	-9.5731
自此	-9.57337
鄭	-9.5751
譽	-9.57519
十五年	-9.57596
而為	-9.57617
磨	-9.57626
晝	-9.57656
遠近	-9.57727
達磨	-9.5774
忽見	-9.57753
淺	-9.57762
思惟	-9.57902
蔽	-9.58086
荊州	-9.58095
有二	-9.58124
偉	-9.58138
庸	-9.58177
戴	-9.58239
探	-9.58258
󲊛	-9.58369
因果	-9.58423
緒	-9.5846
笑曰	-9.58606
闡	-9.58641
國師	-9.58711
何得	-9.58721
誘	-9.58725
驅	-9.58818
祀	-9.58881
慎	-9.5894
諸人	-9.58996
逼	-9.59039
而無	-9.59132
暗	-9.59219
十三年	-9.59263
大道	-9.59284
淳	-9.59336
家人	-9.59358
渡	-9.59394
居之	-9.59509
烈	-9.59516
銘	-9.59538
將軍	-9.59674
優	-9.59742
豈不	-9.59901
環	-9.60148
牧	-9.60255
浴	-9.60268
藉	-9.60291
煩	-9.60557
孰	-9.60593
止觀	-9.60595
黃龍	-9.60851
不肯	-9.60908
費	-9.6091
遲	-9.6121
額	-9.6123
謗	-9.61356
域	-9.61363
不然	-9.61412
此經	-9.61419
擁	-9.61419
之功	-9.61436
道德	-9.61551
豈非	-9.61617
酬	-9.61626
輿	-9.61693
人間	-9.61707
金色	-9.61754
植	-9.61779
弊	-9.62071
韓	-9.62088
扣	-9.62233
四海	-9.62382
十七	-9.62405
即便	-9.62505
次第	-9.62549
必有	-9.62583
斥	-9.62614
從此	-9.62673
三人	-9.62922
詮	-9.62965
溈山	-9.63069
檀越	-9.63246
所居	-9.63313
射	-9.63353
焚香	-9.63357
呂	-9.63443
騎	-9.63443
感應	-9.63513
普賢	-9.63554
濫	-9.63634
大明	-9.63851
為僧	-9.6387
軀	-9.63875
夙	-9.64079
東南	-9.64151
神通	-9.64228
遮	-9.64271
產	-9.64407
不以	-9.64421
擲	-9.64479
答云	-9.6452
寓	-9.6452
異之	-9.64574
其徒	-9.64582
敕	-9.64596
占	-9.64617
明年	-9.64689
呈	-9.6483
百丈	-9.64842
斬	-9.64887
古人	-9.64905
校	-9.64957
鼻	-9.64967
名為	-9.64997
警	-9.65029
憶	-9.65033
黨	-9.6509
三世	-9.6518
後世	-9.65195
良久	-9.65199
一夕	-9.65318
棲	-9.6541
寡	-9.65502
鄙	-9.65527
之際	-9.65537
】【	-9.65737
貧道	-9.65741
討	-9.65797
何處	-9.65853
法華經	-9.65898
逃	-9.65917
贈	-9.65977
僕	-9.65978
某甲	-9.66018
所在	-9.66036
不如	-9.66049
㵎	-9.66139
蕩	-9.6622
殆	-9.66313
無相	-9.66318
稽首	-9.66339
金陵	-9.66469
歡	-9.66547
劍	-9.66565
學士	-9.66602
浪	-9.66616
何所	-9.66623
或云	-9.66627
人之	-9.66648
冲	-9.66775
干	-9.66879
億	-9.67037
以來	-9.67052
竝	-9.67282
暉	-9.67337
惜	-9.67554
德山	-9.67558
成就	-9.67567
使人	-9.67618
至此	-9.67702
猛	-9.67727
遐	-9.67836
其心	-9.67846
會稽	-9.67912
不應	-9.67935
受持	-9.67982
佛道	-9.6808
限	-9.68148
困	-9.68214
放光	-9.68322
此事	-9.68409
諸經	-9.6859
堯	-9.68742
紹興	-9.6883
一名	-9.68855
肆	-9.68914
曜	-9.69086
中國	-9.69105
是非	-9.69114
黃檗	-9.69141
鐘	-9.69142
第三	-9.69181
無人	-9.69226
聲聞	-9.69261
醫	-9.69294
互	-9.69294
苑	-9.69402
佛之	-9.6961
佛祖	-9.69633
妖	-9.69765
傳燈	-9.69863
策	-9.69925
扇	-9.69938
築	-9.69971
翻譯	-9.69976
之外	-9.70056
十四年	-9.70078
繞	-9.70101
冷	-9.70104
綱	-9.70147
災	-9.70287
慚	-9.70325
混	-9.7037
祖師	-9.70378
紅	-9.70506
百姓	-9.70507
數十	-9.70527
復有	-9.70715
遠公	-9.70782
羣	-9.70837
韋	-9.70919
十九	-9.71087
而生	-9.71094
或有	-9.71151
拂	-9.71181
在位	-9.71283
鑄	-9.713
杭州	-9.71379
誨	-9.71397
萬物	-9.71556
若有	-9.71578
蔭	-9.71606
奴	-9.71669
僧徒	-9.71701
尸	-9.71763
是為	-9.71824
僅	-9.71855
告曰	-9.71865
終日	-9.71928
映	-9.72031
圓通	-9.72067
詢	-9.72154
不食	-9.72397
襲	-9.72464
捉	-9.72548
飲食	-9.72567
誦法華經	-9.7258
成佛	-9.72652
發願	-9.72766
善惡	-9.72931
鮮	-9.73045
忽然	-9.73059
有省	-9.7306
人天	-9.7315
千里	-9.73178
柱	-9.73193
男	-9.73316
上下	-9.73349
怖	-9.73384
把	-9.73412
萬里	-9.73417
無礙	-9.7343
勵	-9.7351
此人	-9.73518
窟	-9.73534
浩	-9.73542
石頭	-9.73757
祠	-9.73905
裕	-9.73959
踰	-9.74075
猶如	-9.74099
攻	-9.74132
先是	-9.74154
【	-9.7427
之義	-9.74326
屏	-9.74326
嵩	-9.74378
疎	-9.74392
龍王	-9.74452
整	-9.74462
之意	-9.74545
先師	-9.74548
數百	-9.74617
壯	-9.74667
罕	-9.74747
社	-9.74787
犬	-9.74867
鶴	-9.74918
曹溪	-9.74953
徙	-9.74975
單	-9.75049
作麼生	-9.7506
無以	-9.75064
皆是	-9.75148
賣	-9.75187
四眾	-9.75233
鑿	-9.75245
王子	-9.7531
買	-9.75331
鴻	-9.7535
臻	-9.75377
巳而	-9.75387
穆	-9.75405
而來	-9.75471
險	-9.75562
上堂	-9.7559
頴	-9.75688
其身	-9.75698
湖	-9.75703
摧	-9.75747
程	-9.7586
太平	-9.7592
罔	-9.75963
祕	-9.75994
尺	-9.76109
吞	-9.76207
携	-9.76268
格	-9.763
威儀	-9.76317
生於	-9.76435
寔	-9.7645
禪定	-9.76569
大悲	-9.766
有三	-9.76631
常住	-9.7664
鈔	-9.76642
栖	-9.76644
開元	-9.76658
哲	-9.76712
謚	-9.76737
朝廷	-9.76776
爰	-9.76966
覓	-9.77086
乃曰	-9.77208
所得	-9.77213
仰山	-9.77242
不絕	-9.77251
棺	-9.77266
行者	-9.77277
我等	-9.77285
歸依	-9.77366
圍	-9.77496
之子	-9.77601
瓶	-9.77634
至于	-9.77639
不受	-9.77685
一生	-9.77696
捧	-9.77722
凡夫	-9.77731
發心	-9.77733
佛言	-9.77907
副	-9.77928
蹤	-9.77929
倚	-9.7796
南岳	-9.78055
哭	-9.78113
睡	-9.78234
卓	-9.78239
龍樹	-9.78347
八十	-9.78353
誌	-9.78453
邦	-9.78473
漏	-9.78535
兄弟	-9.78804
喫	-9.78861
育	-9.78862
請師	-9.78978
甲子	-9.78996
在此	-9.79041
丞相	-9.79082
儼	-9.79144
割	-9.79191
拈	-9.79198
辱	-9.79217
東西	-9.79262
七寶	-9.79303
防	-9.7931
祚	-9.79314
天王	-9.79319
虞	-9.79338
皓	-9.79578
愧	-9.79602
眉	-9.79642
他日	-9.79741
龜	-9.79751
而卒	-9.79795
分別	-9.79839
不在	-9.79858
不生	-9.79936
之處	-9.80033
所有	-9.80038
受具	-9.80119
講說	-9.80159
韻	-9.8019
禮佛	-9.80202
身心	-9.80211
軒	-9.80266
三百	-9.8027
研	-9.80316
江陵	-9.80363
甫	-9.80395
而後	-9.80397
檀	-9.80458
嶽	-9.80474
駭	-9.80532
屍	-9.80575
墨	-9.80651
蟲	-9.80764
耀	-9.80807
虔	-9.80816
準	-9.80818
伸	-9.80875
乞食	-9.81008
缺	-9.81025
崔	-9.81049
欺	-9.81152
南北	-9.81193
邀	-9.81261
虛空	-9.81307
衡	-9.8131
十地	-9.81363
時人	-9.81441
小乘	-9.81444
譬如	-9.81447
館	-9.81583
若是	-9.81619
纏	-9.81648
枯	-9.81656
借	-9.81697
誦法華	-9.8171
諭	-9.81732
秉	-9.81792
練	-9.81828
鋒	-9.8188
禱	-9.81884
循	-9.81899
文帝	-9.81947
弱	-9.82002
四十	-9.82036
南山	-9.82041
巧	-9.82122
鼎	-9.8229
七十	-9.82354
閉	-9.82445
卑	-9.82454
岩	-9.82476
畜	-9.82488
俄而	-9.82531
之門	-9.82636
的	-9.82737
賦	-9.82788
氷	-9.82929
慈雲	-9.82942
將來	-9.82945
無異	-9.82992
准	-9.83078
維	-9.83168
坐禪	-9.83183
五日	-9.83208
播	-9.83242
男女	-9.83497
西南	-9.83544
舒	-9.83575
入道	-9.83596
分明	-9.83604
嗟	-9.83654
十卷	-9.83782
出入	-9.83821
五臺	-9.83869
群臣	-9.83941
牽	-9.8398
姑	-9.8399
豈有	-9.84023
勉	-9.84085
已來	-9.84094
而終	-9.84114
不起	-9.84171
一句	-9.84199
阿彌陀佛	-9.84257
有司	-9.84265
辦	-9.84461
靈隱	-9.84474
一一	-9.84521
天童	-9.84537
踐	-9.84577
三卷	-9.84596
入定	-9.84628
方等	-9.84637
裂	-9.84725
肇	-9.8477
盖	-9.84899
西北	-9.84949
且道	-9.84996
讖	-9.85046
牒	-9.85135
刃	-9.85213
衣服	-9.85276
奚	-9.85283
五色	-9.85323
大臣	-9.85347
此土	-9.85366
碎	-9.85375
淨業	-9.85468
一切眾生	-9.85562
墳	-9.85585
學徒	-9.85603
境界	-9.85607
賜號	-9.85691
溺	-9.85706
齎	-9.85743
班	-9.85746
法眼	-9.85793
皆有	-9.85818
知之	-9.85821
忌	-9.85887
問道	-9.85925
慢	-9.86021
入山	-9.86061
南泉	-9.86121
邁	-9.8617
麻	-9.8621
東北	-9.86342
本無	-9.86371
洎	-9.86414
而至	-9.86429
炎	-9.86526
猷	-9.86536
胎	-9.86609
釋道	-9.86721
伽	-9.86786
侍郎	-9.86803
䇿	-9.86817
上人	-9.86899
阿育王	-9.86942
終不	-9.86988
闍維	-9.86999
嗚呼	-9.87022
雪竇	-9.87081
憲	-9.87144
大夫	-9.87175
巡	-9.87177
毘	-9.87203
聖賢	-9.87216
荊	-9.87244
穿	-9.87249
不可以	-9.87273
辰	-9.87275
諸國	-9.87341
卜	-9.87369
語言	-9.8738
無心	-9.87414
一千	-9.87422
碧	-9.87423
傑	-9.87503
賤	-9.87688
湛	-9.87731
祥符	-9.87757
滅度	-9.87797
使者	-9.87875
爛	-9.87939
得道	-9.88053
若此	-9.88078
偃	-9.88155
本傳	-9.88295
傳法	-9.88295
禹	-9.88336
三教	-9.88375
効	-9.88436
蓮花	-9.88486
詠	-9.88488
清涼	-9.88492
不聞	-9.88505
懿	-9.8851
入滅	-9.8858
說偈曰	-9.88602
示眾	-9.88688
宰	-9.88709
爽	-9.88802
真如	-9.88995
帥	-9.89037
肯	-9.8904
煙	-9.8915
樹下	-9.8919
馬祖	-9.89199
捐	-9.8923
之上	-9.89258
發明	-9.89275
世祖	-9.89297
利益	-9.89373
之下	-9.89453
方丈	-9.89458
旬	-9.89473
敦	-9.89511
箭	-9.89658
彩	-9.89665
女人	-9.89784
為師	-9.8982
凶	-9.89904
俗姓	-9.90111
阿羅漢	-9.90154
釋慧	-9.90229
窺	-9.90354
薪	-9.90378
高僧	-9.90419
奘	-9.90433
莫能	-9.90462
二卷	-9.90487
得度	-9.90555
姚	-9.90606
繩	-9.90618
雷	-9.90621
淫	-9.90727
忽有	-9.90741
則有	-9.90837
太后	-9.90882
贊曰	-9.90957
諸法	-9.90986
訶	-9.90994
朔	-9.9108
佐	-9.91093
門外	-9.91128
匪	-9.91174
乏	-9.91185
無盡	-9.91201
雲居	-9.91231
之名	-9.91321
一百	-9.91366
故也	-9.9137
敵	-9.91385
得其	-9.91388
百千	-9.91393
受業	-9.91507
人皆	-9.91542
廓	-9.91575
十六年	-9.9161
師乃	-9.91685
侵	-9.91713
宗旨	-9.91765
之風	-9.91835
江南	-9.91877
韶	-9.91939
石室	-9.91968
仕	-9.91974
相與	-9.92166
飢	-9.92249
喝	-9.92291
遶	-9.9232
得之	-9.92385
法藏	-9.92576
國家	-9.92675
孟	-9.92705
建塔	-9.92759
聞者	-9.92798
霜	-9.92824
亟	-9.93037
之內	-9.93051
排	-9.93067
該	-9.93196
洽	-9.93204
語曰	-9.93227
構	-9.93249
征	-9.93311
自稱	-9.93409
涼	-9.93451
眠	-9.93683
撥	-9.93757
山寺	-9.93805
汝今	-9.93817
牙	-9.93885
乙	-9.93923
罰	-9.93934
多少	-9.93964
小兒	-9.93967
柳	-9.93995
懇	-9.93999
布施	-9.94009
偕	-9.94019
課	-9.94062
祝	-9.94083
眷屬	-9.94125
慰	-9.94127
▁宋	-9.94127
為我	-9.94182
起塔	-9.94197
諮	-9.9424
譏	-9.94258
廬	-9.94263
然而	-9.94277
釋教	-9.94291
其家	-9.94363
育王	-9.94462
祿	-9.94511
仙人	-9.94543
之理	-9.94563
苦行	-9.94597
享	-9.94654
等經	-9.94667
十七年	-9.94691
巾	-9.94709
雞	-9.94775
百年	-9.94787
以手	-9.94833
闇	-9.95173
即以	-9.95233
未能	-9.95298
而行	-9.95313
六十	-9.95436
第四	-9.95443
大覺	-9.95453
羽	-9.95455
言之	-9.95518
七歲	-9.9553
無窮	-9.95607
誣	-9.95741
勘	-9.95747
跪	-9.9575
泣	-9.95814
所作	-9.95817
奉佛	-9.95831
《	-9.95844
搆	-9.95865
沉	-9.95922
師之	-9.95946
高宗	-9.96066
斗	-9.9607
師因	-9.96164
尾	-9.96227
匡	-9.96243
過去	-9.96291
杲	-9.96315
醉	-9.96395
紛	-9.9644
神力	-9.96507
出於	-9.96548
錦	-9.9659
剌	-9.96619
之文	-9.96669
▁唐	-9.96688
叩	-9.96706
其國	-9.96718
付囑	-9.9676
安樂	-9.9682
衍	-9.96929
陋	-9.97118
寵	-9.97132
包	-9.97135
署	-9.97212
歿	-9.97223
頃之	-9.97239
不會	-9.97248
各有	-9.97293
命終	-9.97322
何人	-9.97417
往往	-9.97443
輝	-9.97492
儲	-9.97731
落髮	-9.97809
不離	-9.97907
齡	-9.97997
教化	-9.9803
=	-9.98034
山林	-9.98049
汝當	-9.9811
靖	-9.98184
羅什	-9.98239
玅	-9.98256
見者	-9.9831
江西	-9.98361
闢	-9.98386
異香	-9.98408
徒眾	-9.98422
嫌	-9.98652
建立	-9.98695
嚮	-9.98788
曆	-9.9885
譬	-9.98874
介	-9.98956
不用	-9.99027
帛	-9.99053
世之	-9.99212
何如	-9.99243
膺	-9.99258
削	-9.99287
弄	-9.99331
驢	-9.99332
輙	-9.99361
礙	-9.99415
兆	-9.99445
竺	-9.99445
東山	-9.99504
示疾	-9.99523
油	-9.99553
劒	-9.99563
四月八日	-9.99585
既至	-9.99619
現前	-9.9966
帝王	-9.99667
開皇	-9.99682
段	-9.99814
屠	-9.99818
嘆	-9.99868
一言	-10.0008
不勝	-10.001
膝	-10.0012
實相	-10.0039
如今	-10.0039
將欲	-10.0043
二十四	-10.0044
四部	-10.0045
為業	-10.0049
罵	-10.0053
釋僧	-10.0056
杭	-10.0057
有何	-10.0062
亦云	-10.0066
聊	-10.0069
之類	-10.0071
囚	-10.0075
辛	-10.0081
刺	-10.0083
佛性	-10.0086
巢	-10.0087
晨	-10.0087
狗	-10.0087
板	-10.0093
州刺史	-10.0093
柔	-10.0104
明帝	-10.0109
之力	-10.0111
潭	-10.0114
群生	-10.0118
諸僧	-10.0123
丈	-10.0131
殺之	-10.0132
真實	-10.0136
奧	-10.0138
雖有	-10.0149
隷	-10.0155
觀之	-10.016
儉	-10.0163
吹	-10.0165
問之	-10.0166
可得	-10.0166
恁麼	-10.0167
如故	-10.0175
褒	-10.0176
趺坐	-10.0179
衣鉢	-10.0183
雪峯	-10.02
西天	-10.0202
四大	-10.0204
拒	-10.0204
安置	-10.0204
挺	-10.0211
妃	-10.0211
瑩	-10.0218
測	-10.0221
其母	-10.0225
仁義	-10.0228
天宮	-10.0231
寇	-10.0231
溢	-10.0234
□	-10.024
無明	-10.025
得一	-10.0251
未盡	-10.0267
叡	-10.0272
法雲	-10.0296
非常	-10.03
正覺	-10.0309
三十二	-10.031
之禮	-10.0311
沐浴	-10.0319
數年	-10.0321
材	-10.0322
不解	-10.0336
授以	-10.0338
大海	-10.0342
平等	-10.0351
)。(	-10.036
顒	-10.0364
護法	-10.0369
快	-10.037
逈	-10.0375
有異	-10.039
遊方	-10.0401
竪	-10.0401
派	-10.0405
詐	-10.0405
究竟	-10.0405
粒	-10.0416
悉皆	-10.042
子孫	-10.0421
集眾	-10.0425
併	-10.0435
未審	-10.0437
范	-10.0449
不相	-10.0451
愍	-10.0451
六祖	-10.0453
獸	-10.0456
裁	-10.0458
枕	-10.046
灌	-10.0461
坊	-10.0469
漫	-10.0486
午	-10.0486
得法	-10.0487
大事	-10.0489
場	-10.0491
幡	-10.0494
此山	-10.0494
菜	-10.0494
楞嚴	-10.0495
為大	-10.0496
透	-10.0503
而死	-10.0504
賀	-10.0508
成都	-10.0514
梵本	-10.0515
閒	-10.0517
一字	-10.0517
福田	-10.0528
三乘	-10.0529
剪	-10.0537
八萬四千	-10.0539
淪	-10.0541
污	-10.0543
戀	-10.0547
寒暑	-10.0554
俯	-10.0565
與麼	-10.0567
最後	-10.0569
貨	-10.057
局	-10.0574
未嘗	-10.0595
頭陀	-10.06
其意	-10.0605
外國	-10.0608
許之	-10.0613
持戒	-10.0621
王公	-10.0623
不久	-10.0628
非一	-10.0634
百餘	-10.0639
始得	-10.0653
定慧	-10.0653
未知	-10.0654
邃	-10.0664
高座	-10.0668
其上	-10.0669
粥	-10.0674
維摩	-10.0675
帝釋	-10.0675
十八年	-10.0682
之前	-10.0683
牀	-10.0683
高僧傳	-10.0694
瓊	-10.07
肩	-10.07
效	-10.0704
吟	-10.0705
淮	-10.0706
今之	-10.0712
金剛經	-10.0715
其僧	-10.0718
世人	-10.0722
不須	-10.0729
揖	-10.075
析	-10.0755
白衣	-10.0758
華嚴經	-10.076
穀	-10.0773
東林	-10.0788
其子	-10.0788
號曰	-10.0792
不定	-10.0797
傅	-10.0802
這箇	-10.0817
於中	-10.0819
欣然	-10.0823
宴坐	-10.0823
粗	-10.0836
珪	-10.0837
邪見	-10.085
故曰	-10.0851
其地	-10.0854
所至	-10.0855
是佛	-10.0858
皇后	-10.0858
高麗	-10.0861
十日	-10.0864
新羅	-10.0866
法席	-10.0884
歸宗	-10.0896
惱	-10.0898
陰陽	-10.0898
善知識	-10.0899
一乘	-10.0908
眾人	-10.0908
靈山	-10.0928
蘇州	-10.0928
灑	-10.0931
囊	-10.0936
讀誦	-10.0939
國土	-10.0948
之者	-10.0956
諸子	-10.0962
佛日	-10.0965
大慧	-10.0969
五人	-10.0969
是歲	-10.0972
幢	-10.0986
註	-10.0988
括	-10.0991
咨	-10.0994
難陀	-10.1003
訥	-10.101
設齋	-10.1011
奕	-10.1023
所造	-10.1031
鎖	-10.1037
諍	-10.1041
少時	-10.1041
故知	-10.1042
藝	-10.1047
未聞	-10.1055
臭	-10.1056
老君	-10.1074
吉祥	-10.1077
較	-10.108
及諸	-10.1087
侶	-10.1089
癡	-10.1093
書曰	-10.1093
阻	-10.1097
不言	-10.1098
號為	-10.11
不自	-10.1101
無數	-10.1108
聖教	-10.1112
十九年	-10.1112
二十五	-10.1133
自爾	-10.1134
豁然	-10.1136
五祖	-10.1136
咎	-10.1136
霞	-10.1139
總持	-10.1139
元和	-10.1154
爐	-10.1155
剛	-10.1158
如意	-10.1162
釋法	-10.1163
論曰	-10.1163
名僧	-10.1163
仁者	-10.1171
仲尼	-10.1175
於世	-10.1175
擔	-10.1178
束	-10.1181
一見	-10.1182
十餘	-10.1189
默然	-10.119
叟	-10.1195
時如何	-10.1195
不忘	-10.1198
翰	-10.1199
之相	-10.1209
報恩	-10.1213
無上	-10.1213
蒲	-10.1214
埋	-10.1219
甲寅	-10.122
其間	-10.122
湘	-10.1222
庚申	-10.1228
番	-10.1232
國人	-10.1242
鼠	-10.1245
元嘉	-10.1245
若能	-10.1245
算	-10.1257
激	-10.1257
庚子	-10.1259
玄宗	-10.1261
不行	-10.1261
滋	-10.1263
戎	-10.1263
綿	-10.1271
銷	-10.1271
夜夢	-10.1278
說偈	-10.128
遼	-10.1287
觀其	-10.131
絹	-10.1312
南海	-10.1315
草木	-10.1321
宰相	-10.1322
恥	-10.1326
室中	-10.1342
不遠	-10.1342
其文	-10.1343
永明	-10.1343
不壞	-10.1347
而成	-10.1348
一年	-10.1351
法王	-10.1354
歇	-10.1369
神明	-10.1375
顗	-10.1378
烟	-10.1382
永嘉	-10.1384
二日	-10.1392
襄陽	-10.1394
耕	-10.1394
奈何	-10.1402
柴	-10.1403
上有	-10.1404
學人	-10.1408
嘆曰	-10.1411
壤	-10.1415
後人	-10.1426
四人	-10.1428
佩	-10.143
匹	-10.143
提婆	-10.1434
十人	-10.1455
轍	-10.1456
刊	-10.1459
閩	-10.1469
矜	-10.1474
殃	-10.1476
噉	-10.1482
冊	-10.1487
灌頂	-10.1488
乃以	-10.1492
令人	-10.1493
〕	-10.1501
掛	-10.1501
輦	-10.1502
有四	-10.1506
一僧	-10.1508
無事	-10.1519
雪山	-10.1521
四卷	-10.1522
其義	-10.1525
擾	-10.1526
未來	-10.1532
流通	-10.1533
山谷	-10.1535
寂滅	-10.1536
山僧	-10.1549
霑	-10.1551
禪師者	-10.1553
辟	-10.1555
僧眾	-10.1558
當有	-10.156
道行	-10.1563
聰明	-10.157
足以	-10.1576
欝	-10.1581
麟	-10.1581
京城	-10.1582
玄奘	-10.1583
寤	-10.1584
尹	-10.1585
奮	-10.1589
不合	-10.159
係	-10.1592
方知	-10.1595
慧日	-10.1598
有餘	-10.1604
無著	-10.1608
仁壽	-10.1611
唐言	-10.1613
胤	-10.1613
閻浮提	-10.1614
薛	-10.1616
垢	-10.1618
無畏	-10.162
國公	-10.1626
饑	-10.1633
芝	-10.1635
生而	-10.164
掘	-10.1642
其本	-10.1651
山川	-10.1654
迫	-10.1658
更有	-10.1664
墓	-10.1673
公曰	-10.1685
棒	-10.1688
由此	-10.1693
又見	-10.1703
多羅	-10.1711
掃	-10.1711
其志	-10.1716
梵僧	-10.1718
填	-10.1719
瘡	-10.1726
未曾	-10.1735
成道	-10.1737
佛事	-10.1739
相似	-10.1746
不空	-10.175
系	-10.1751
項	-10.1753
眾皆	-10.1753
大笑	-10.176
公卿	-10.1762
鸞	-10.1764
筆受	-10.1772
僧伽	-10.1775
未及	-10.1778
後於	-10.1779
贍	-10.1783
邈	-10.1785
行業	-10.1785
不顧	-10.1786
行脚	-10.1793
所知	-10.1797
未至	-10.1805
輸	-10.1805
其法	-10.1806
經二卷	-10.1827
別有	-10.1837
軸	-10.1842
不忍	-10.1842
帳	-10.1844
其一	-10.1845
獎	-10.1846
仗	-10.1847
弓	-10.1848
闍	-10.185
虜	-10.1852
藏經	-10.1855
其先	-10.1855
刺史	-10.1871
當知	-10.1873
經行	-10.1873
之盛	-10.1878
舍利弗	-10.1882
入涅槃	-10.1884
其教	-10.1891
盲	-10.19
拳	-10.1904
無復	-10.1907
撿	-10.1913
只是	-10.1915
生淨土	-10.1915
頌曰	-10.1926
謂其	-10.1933
而下	-10.1939
略曰	-10.1944
自號	-10.1946
亦名	-10.1948
絲	-10.195
戒行	-10.1958
大地	-10.1958
旻	-10.196
經像	-10.1961
禪宗	-10.1964
涌	-10.1964
度僧	-10.1965
天下之	-10.1973
熙	-10.1976
毫	-10.1984
王者	-10.1985
斂	-10.1987
又以	-10.1992
何必	-10.2014
握	-10.2014
不異	-10.202
如前	-10.202
主人	-10.202
噫	-10.2021
般	-10.2021
豪	-10.2037
後有	-10.2037
所著	-10.2043
翠	-10.2046
妾	-10.2047
三十六	-10.2055
壬申	-10.2062
坑	-10.2064
入內	-10.2068
暨	-10.2074
此乃	-10.2076
圓覺	-10.2095
一旦	-10.2098
皆悉	-10.2103
搜	-10.2105
頂禮	-10.2109
賈	-10.211
慈氏	-10.2114
叛	-10.2116
妙法	-10.2121
古之	-10.2134
舞	-10.2136
謂眾曰	-10.2154
不思議	-10.2155
完	-10.2156
衲子	-10.2158
萬法	-10.2163
麁	-10.2164
圓悟	-10.2171
鄴	-10.2174
揮	-10.2179
終於	-10.2181
致敬	-10.2182
度人	-10.2191
截	-10.2194
凌	-10.2196
生滅	-10.2201
丁未	-10.2201
韓子	-10.2213
飡	-10.2213
而坐	-10.2218
者乎	-10.2219
恭敬	-10.2219
護持	-10.2222
神光	-10.2226
心要	-10.2227
遜	-10.2231
之世	-10.2237
我當	-10.2238
焰	-10.2239
司馬	-10.2239
妻子	-10.2241
風雨	-10.2242
搖	-10.2243
精勤	-10.2244
胸	-10.2246
禮敬	-10.2247
豈可	-10.2248
優波笈多	-10.2259
太原	-10.226
詎	-10.2262
及其	-10.2264
龍門	-10.2269
而能	-10.2271
有無	-10.2274
桓	-10.2277
纂	-10.2287
梅	-10.229
而退	-10.2296
耶舍	-10.23
道也	-10.2301
之流	-10.2303
玄沙	-10.2304
和尚者	-10.2305
開悟	-10.2307
俟	-10.231
捕	-10.2319
不殺	-10.232
二十七	-10.2322
無邊	-10.2322
斫	-10.2324
訛	-10.2326
為法	-10.2333
梵語	-10.2343
來迎	-10.2343
瓦	-10.2347
長生	-10.235
有緣	-10.2351
宮殿	-10.2351
同時	-10.2352
戒律	-10.2357
濕	-10.236
徽	-10.2363
華言	-10.2364
京兆	-10.237
吳越	-10.2372
侍中	-10.2375
桂	-10.2378
濁	-10.2379
虧	-10.238
之聲	-10.2381
不著	-10.2388
人民	-10.2389
與我	-10.2391
而有	-10.2406
寺中	-10.2407
榻	-10.2408
廉	-10.241
魂	-10.2412
王氏	-10.2418
門下	-10.2422
寶塔	-10.243
遂以	-10.244
不與	-10.2444
饒	-10.2446
豁	-10.2449
不從	-10.2452
其有	-10.2458
是知	-10.2458
霧	-10.2459
為道	-10.2459
處處	-10.2462
配	-10.2465
縱橫	-10.2476
有情	-10.2481
法智	-10.2485
帙	-10.2486
道安	-10.2486
變化	-10.2488
恃	-10.249
而歸	-10.249
化為	-10.2499
其餘	-10.2499
甲午	-10.2515
襄	-10.2526
燒香	-10.2527
京邑	-10.2527
揭	-10.2529
廣大	-10.2529
太尉	-10.2532
識者	-10.2533
窣堵波	-10.2534
緇素	-10.2536
或曰	-10.2538
佛為	-10.2539
藥山	-10.2541
諸侯	-10.2543
兜率	-10.2552
其名	-10.2552
記云	-10.2553
泛	-10.2554
毋	-10.2554
昨	-10.2556
與諸	-10.2557
聖人之	-10.2565
匿	-10.2571
其年	-10.2573
大業	-10.2575
諸王	-10.2576
不容	-10.2584
大悟	-10.2592
維那	-10.2597
父子	-10.2601
百官	-10.2601
薨	-10.2601
全身	-10.2603
茅	-10.2604
弼	-10.2604
石霜	-10.2611
幹	-10.2612
之書	-10.2613
秘	-10.2614
農	-10.2617
關中	-10.2625
諷	-10.2628
之號	-10.263
同學	-10.2635
不樂	-10.264
道理	-10.2641
佳	-10.2643
何能	-10.2644
躍	-10.2645
蹈	-10.2645
其父	-10.2648
伹	-10.2648
籠	-10.2648
受之	-10.2652
日夜	-10.2661
桑	-10.2665
學道	-10.267
相好	-10.267
震旦	-10.2676
詔曰	-10.2682
顛	-10.269
去也	-10.269
不知何許人	-10.2692
馮	-10.2698
而言	-10.2705
凡有	-10.2707
之罪	-10.2707
援	-10.2708
其說	-10.2709
述曰	-10.271
》	-10.2713
知見	-10.2716
乍	-10.272
行之	-10.2735
天監	-10.2735
不輟	-10.2743
天寶	-10.2745
諸寺	-10.2747
拙	-10.2748
法輪	-10.2751
贖	-10.2753
憩	-10.2759
貢	-10.2759
請益	-10.2761
台	-10.2767
不過	-10.2767
經律	-10.2769
講經	-10.2774
是日	-10.2774
益州	-10.2775
於人	-10.2781
藻	-10.2786
五臺山	-10.2788
具戒	-10.2793
知識	-10.2798
七卷	-10.2799
雖復	-10.2802
壬午	-10.2803
辛酉	-10.2804
貞元	-10.2804
跋	-10.2809
抄	-10.2813
叢	-10.2815
所生	-10.2818
真諦	-10.2822
雍	-10.2826
剖	-10.2832
後學	-10.2832
僧正	-10.285
至元	-10.2853
粟	-10.2856
信心	-10.2864
醒	-10.2864
亦可	-10.2873
嬰	-10.288
二十八	-10.2883
糧	-10.2883
衢	-10.2891
之志	-10.2891
層	-10.2892
傲	-10.2895
架	-10.2896
長沙	-10.2897
剋	-10.2898
替	-10.2902
明州	-10.2906
存焉	-10.2908
熏	-10.291
之初	-10.2913
爵	-10.2915
故名	-10.2922
住處	-10.2923
瑜伽	-10.2926
佛寺	-10.2929
餅	-10.293
不二	-10.2932
太和	-10.2933
而立	-10.2934
經典	-10.2935
枉	-10.2936
乙未	-10.2937
挾	-10.2946
供給	-10.2948
丙子	-10.2953
富貴	-10.2954
愆	-10.2955
片	-10.2971
之語	-10.2973
酷	-10.2973
示之	-10.2975
茶毗	-10.298
晏	-10.2984
戊申	-10.299
終身	-10.2998
朴	-10.3003
柏	-10.3004
呵	-10.3005
迺	-10.3005
蒼	-10.3006
之宗	-10.3007
南方	-10.3009
也無	-10.3016
又於	-10.302
隅	-10.3022
大慈	-10.3023
慨	-10.3026
微言	-10.303
闍黎	-10.303
汝可	-10.3031
不測	-10.3036
炬	-10.3038
訣	-10.3041
矯	-10.3043
歛	-10.3049
庚戌	-10.3058
此則	-10.3059
能仁	-10.3062
微妙	-10.307
之學	-10.3071
擎	-10.3075
法嗣	-10.3075
真人	-10.3076
多聞	-10.3084
渾	-10.3084
嗣法	-10.3093
相國	-10.3097
淨慈	-10.3097
癸亥	-10.3099
郊	-10.3102
行至	-10.3108
不淨	-10.311
之德	-10.3113
鄰	-10.3114
憤	-10.3116
自謂	-10.3116
天神	-10.3117
愽	-10.3119
員	-10.3127
以示	-10.3129
石門	-10.3136
裴	-10.3142
問訊	-10.3152
促	-10.3158
無間	-10.3158
婢	-10.3162
大教	-10.3163
於地	-10.3164
揚州	-10.3165
蕃	-10.3167
興化	-10.317
丁卯	-10.3175
為一	-10.3179
於佛	-10.3181
稠	-10.3183
疊	-10.3185
宴	-10.3186
曷	-10.3188
不盡	-10.3196
衲	-10.3198
文章	-10.321
無二	-10.3216
宵	-10.3217
其為	-10.3221
不易	-10.3221
朽	-10.3225
禪者	-10.3228
蔡	-10.323
念念	-10.3232
以聞	-10.3233
倦	-10.3239
乙酉	-10.3245
弘法	-10.3247
須彌	-10.3258
適來	-10.3265
自有	-10.3266
令其	-10.3292
覲	-10.3295
然其	-10.3306
筵	-10.3307
拯	-10.3312
劣	-10.3316
丁亥	-10.3322
壬辰	-10.3323
佛祖統紀	-10.3328
代宗	-10.333
庫	-10.3332
天上	-10.3332
不滅	-10.3334
攸	-10.334
冤	-10.334
麤	-10.3342
亦是	-10.3349
晚年	-10.335
坦	-10.3355
何者	-10.3356
未見	-10.3357
何謂	-10.3359
靈異	-10.3365
求之	-10.3366
何事	-10.3367
乙卯	-10.3369
善哉	-10.3369
道之	-10.3372
神異	-10.338
五卷	-10.338
四日	-10.3383
多有	-10.3384
夾	-10.3386
了也	-10.3386
入寺	-10.3389
明旦	-10.3394
不聽	-10.3408
西山	-10.3409
健	-10.3415
有旨	-10.3416
璧	-10.342
便是	-10.3422
白馬	-10.3422
十萬	-10.3423
悼	-10.3424
臘	-10.3424
募	-10.3427
牆	-10.3428
不可得	-10.3429
皇太子	-10.3429
天尊	-10.3429
造寺	-10.343
陀羅尼	-10.343
夫子	-10.344
是何	-10.3441
福州	-10.3441
宮中	-10.3443
詰	-10.3446
豆	-10.3456
朋	-10.3458
不可思議	-10.346
豫章	-10.3463
愁	-10.3468
夢見	-10.347
河東	-10.3479
言語	-10.3484
與人	-10.3484
五千	-10.3485
無我	-10.3486
淚	-10.3486
乙巳	-10.3492
僧傳	-10.3492
五部	-10.3495
腰	-10.3495
觀世音	-10.3499
見聞	-10.35
與汝	-10.3504
於彼	-10.3504
驚異	-10.3504
無對	-10.3505
沐	-10.3506
皆為	-10.3507
三載	-10.3511
二十一	-10.3513
行化	-10.3515
城中	-10.3517
故有	-10.3518
其書	-10.3522
二千	-10.3524
黃金	-10.3531
畔	-10.3532
?」	-10.3533
剃髮	-10.3545
受苦	-10.3546
淨名	-10.3549
洪武	-10.3553
泯	-10.3553
綜	-10.3556
儼然	-10.3565
至矣	-10.3567
飄	-10.3571
其德	-10.3579
釆	-10.3581
因而	-10.3591
豫	-10.3593
女子	-10.3596
每日	-10.3597
湛然	-10.3598
尉	-10.3606
更無	-10.3607
丁巳	-10.3612
安得	-10.3614
法性	-10.3616
即為	-10.3616
禮懺	-10.3617
認	-10.3617
謾	-10.362
君臣	-10.362
其旨	-10.3622
東都	-10.3622
覧	-10.3624
鷄	-10.3624
願力	-10.3633
為善	-10.3633
戊辰	-10.3637
羯磨	-10.3638
嵩山	-10.3639
壬子	-10.364
四百	-10.3641
第五	-10.3644
入城	-10.3647
決定	-10.3658
山下	-10.3659
諸弟子	-10.366
河南	-10.3664
二百	-10.3672
戊午	-10.3676
故云	-10.3677
大千	-10.3679
作佛	-10.3684
受具戒	-10.3687
一行	-10.3693
荊溪	-10.3695
福德	-10.3695
隨緣	-10.3711
丁丑	-10.3712
始終	-10.3712
猪	-10.3713
丁酉	-10.3718
伴	-10.3722
於前	-10.3724
丈夫	-10.3724
無方	-10.3727
終于	-10.3731
挹	-10.3735
大同	-10.374
乾坤	-10.374
有聲	-10.3742
至道	-10.3745
至如	-10.3753
甲申	-10.3755
癸未	-10.3757
乃是	-10.3759
乃云	-10.3779
希有	-10.3784
若無	-10.3784
千餘	-10.3785
金銀	-10.3791
神曰	-10.38
梨	-10.3805
士庶	-10.3807
而止	-10.3813
跨	-10.3815
翳	-10.382
亦非	-10.382
鱗	-10.3821
讚曰	-10.3824
唯有	-10.3826
佛殿	-10.3826
中興	-10.383
名字	-10.383
生平	-10.3842
庚午	-10.3842
摩訶	-10.3847
瞋	-10.3853
我是	-10.3861
次日	-10.3862
別傳	-10.387
詭	-10.3879
辭去	-10.3886
罽賓	-10.3887
無知	-10.3887
一月	-10.3892
北齊	-10.3892
玩	-10.39
安養	-10.3901
此國	-10.3905
當為	-10.3908
不免	-10.3916
丙辰	-10.3919
壬寅	-10.392
丙午	-10.3921
州人	-10.3921
死生	-10.3922
醜	-10.393
一云	-10.3933
飽	-10.3934
昂	-10.3936
未可	-10.3939
嗜	-10.3947
至德	-10.395
入京	-10.3958
蜜	-10.3959
什麼	-10.3963
自知	-10.3968
夾山	-10.3971
捨身	-10.3975
這僧	-10.3976
此身	-10.3983
現在	-10.3985
不死	-10.3987
謂之曰	-10.3988
所感	-10.3989
稽	-10.3991
付法	-10.3991
將終	-10.3991
償	-10.3992
受菩薩戒	-10.3995
眾經	-10.3997
卒於	-10.4
辛丑	-10.4001
岐	-10.4011
稱為	-10.4012
?	-10.4016
之業	-10.4019
眷	-10.4021
名山	-10.4021
雪峰	-10.4029
相繼	-10.4029
見有	-10.4033
庚辰	-10.4036
癸丑	-10.4041
赦	-10.4042
頹	-10.4045
相應	-10.4046
中間	-10.4047
錢塘	-10.4048
遷化	-10.4048
遙見	-10.405
瞻禮	-10.4052
大興	-10.4052
二十一年	-10.4057
而得	-10.4059
陟	-10.4062
衣冠	-10.4065
吳興	-10.4067
餐	-10.4067
寸	-10.4069
拄杖	-10.408
千人	-10.4082
賢者	-10.4083
沼	-10.4084
癸卯	-10.4089
三觀	-10.409
金山	-10.409
無益	-10.4092
翔	-10.4092
聯	-10.4095
數千	-10.4095
為國	-10.4097
亘	-10.4099
相續	-10.4101
偷	-10.4102
舶	-10.4103
隙	-10.4103
為說	-10.4105
東土	-10.4108
鞭	-10.4109
大唐	-10.411
沙門法	-10.4111
不亦	-10.4114
但以	-10.4117
法堂	-10.4122
或問	-10.4122
辛亥	-10.4124
鄉人	-10.4125
丙寅	-10.4128
乃問	-10.4128
靡不	-10.4129
名德	-10.4137
銜	-10.4143
觀者	-10.4145
饌	-10.4145
諧	-10.4147
吼	-10.4154
金像	-10.4161
狹	-10.417
二師	-10.4182
此寺	-10.4184
有時	-10.4185
貴賤	-10.4193
訴	-10.4199
毱多	-10.4205
剏	-10.4206
便打	-10.4212
真宗	-10.4216
凡聖	-10.4218
馬鳴	-10.4219
羅國	-10.4222
個	-10.4224
久矣	-10.4224
閻浮	-10.4225
厨	-10.423
無言	-10.4233
大義	-10.4237
故其	-10.4239
涅槃經	-10.4248
乙亥	-10.4248
帝師	-10.425
旱	-10.4254
此言	-10.4255
諡	-10.4255
辛巳	-10.4261
不曾	-10.4267
綵	-10.427
禽	-10.4273
躡	-10.4273
悲泣	-10.4285
何有	-10.4286
之妙	-10.4287
癸酉	-10.4292
然也	-10.4295
神仙	-10.4303
欲以	-10.4305
所言	-10.4307
泥洹	-10.431
姦	-10.4312
舘	-10.4313
則天	-10.4315
梵志	-10.4316
之術	-10.4318
故能	-10.432
不必	-10.4321
蔬食	-10.4322
并州	-10.4323
丙申	-10.4332
百歲	-10.4333
六道	-10.4339
之境	-10.4343
此處	-10.4345
狐	-10.4346
是則	-10.4351
寺主	-10.4352
錢唐	-10.4357
建元	-10.4358
未得	-10.4361
辛未	-10.4361
袁	-10.4362
梵天	-10.4364
二親	-10.4364
蔬	-10.4365
不巳	-10.4367
拾	-10.4368
毗	-10.437
宗門	-10.4371
律儀	-10.4371
即今	-10.4375
奢	-10.4377
乃於	-10.4377
雖然	-10.4383
大中	-10.4386
尊宿	-10.4388
文義	-10.4391
疲	-10.4392
求出家	-10.4396
自言	-10.4397
永安	-10.4397
論云	-10.44
(〔	-10.4404
我心	-10.4409
上曰	-10.4409
為沙門	-10.4417
蔣山	-10.4417
城南	-10.4418
耳目	-10.4419
戊子	-10.442
隱居	-10.4426
甲辰	-10.4427
菩提樹	-10.4428
若人	-10.443
董	-10.443
措	-10.4435
儻	-10.4442
著述	-10.4448
如常	-10.4452
為本	-10.4459
湧	-10.4464
有佛	-10.4468
師資	-10.4477
廷	-10.4478
一切法	-10.4492
書偈	-10.4492
用心	-10.4492
有道	-10.4493
大集	-10.4497
建康	-10.45
守護	-10.4502
甲戌	-10.4507
再三	-10.4507
於我	-10.4508
渴	-10.4522
迨	-10.4528
誥	-10.4543
甚多	-10.4543
戊寅	-10.4544
諾	-10.4546
面西	-10.455
釋曇	-10.4553
心法	-10.4554
水中	-10.4555
焚之	-10.4556
二十二	-10.4559
聞其	-10.4562
丈六	-10.4566
爪	-10.4568
攀	-10.457
喜曰	-10.4573
夢中	-10.4573
國清	-10.4576
覔	-10.4577
僻	-10.4577
司徒	-10.4582
無語	-10.4584
修道	-10.4587
報應	-10.4589
是名	-10.4589
釋種	-10.4592
熾	-10.4595
蔚	-10.4601
相傳	-10.4602
價	-10.4604
耽	-10.4608
之始	-10.4608
足下	-10.4609
比丘尼	-10.461
勗	-10.461
抽	-10.461
再拜	-10.4611
在家	-10.4612
目連	-10.4613
遣人	-10.4614
剌史	-10.4617
西夏	-10.4619
傳云	-10.4619
長慶	-10.4625
吾今	-10.4627
之餘	-10.4629
事佛	-10.463
第六	-10.4633
翌日	-10.4633
山云	-10.4636
不入	-10.4636
行世	-10.4642
護國	-10.4646
塔於	-10.4647
忿	-10.465
廣州	-10.4651
戚	-10.4652
葛	-10.4652
托	-10.4652
少年	-10.4657
綠	-10.4659
貞觀	-10.466
之本	-10.4662
娶	-10.4665
教法	-10.4666
尋常	-10.4667
年三十	-10.4669
會昌	-10.4669
奏曰	-10.467
大通	-10.4672
貽	-10.4677
丙戌	-10.4678
眾咸	-10.4679
圓明	-10.4684
以自	-10.4687
淹	-10.4687
大品	-10.4695
七百	-10.4695
沖	-10.4697
示滅	-10.4699
得舍利	-10.47
緩	-10.4708
則無	-10.471
睿	-10.4711
本來	-10.4713
妙喜	-10.4715
賢首	-10.4721
庚寅	-10.4723
乙丑	-10.4725
汗	-10.4728
至誠	-10.4734
評	-10.4736
彭	-10.4746
餌	-10.4747
換	-10.4749
猿	-10.475
祖云	-10.4751
有疾	-10.4758
諸眾生	-10.4766
而未	-10.4768
唯識	-10.4774
此間	-10.4777
碩	-10.4777
虐	-10.4783
嫉	-10.4783
踵	-10.4784
若以	-10.4787
霄	-10.479
捷	-10.479
窓	-10.4791
白蓮	-10.4794
沸	-10.4797
香氣	-10.4802
建寺	-10.4805
門徒	-10.4806
年中	-10.4808
父王	-10.4808
戊戌	-10.481
畢竟	-10.4812
寶雲	-10.4812
作麼	-10.4814
繇	-10.4817
一聲	-10.4817
神人	-10.4818
在於	-10.4825
婁	-10.4826
師以	-10.4829
驛	-10.4831
浦	-10.4831
憫	-10.4835
𦘕	-10.4836
陞座	-10.484
不住	-10.485
猶未	-10.4861
甚麼	-10.488
三聖	-10.488
釋智	-10.4885
其數	-10.4907
珍寶	-10.4908
皎	-10.4911
海內	-10.4912
暑	-10.4913
廼	-10.4922
彈指	-10.4924
喧	-10.4927
怠	-10.4928
皆以	-10.493
吾將	-10.4932
區	-10.4936
齋戒	-10.4939
為其	-10.4941
戮	-10.4953
不欲	-10.4957
廊	-10.496
老宿	-10.4965
李氏	-10.4983
無他	-10.4987
龍宮	-10.4988
恣	-10.4989
几	-10.4994
中宗	-10.4996
吾當	-10.4999
普照	-10.5003
歸心	-10.5004
禪寺	-10.5004
闊	-10.5005
行人	-10.5005
果報	-10.5012
績	-10.5013
聞法	-10.5013
盆	-10.5015
之情	-10.5016
佛陀	-10.5017
做	-10.5019
頓悟	-10.5019
拂子	-10.5019
人事	-10.5022
舉似	-10.5022
寫經	-10.5026
極樂	-10.5028
不明	-10.5041
東方	-10.5046
鹽	-10.5049
貯	-10.505
璉	-10.5052
竇	-10.5053
自古	-10.5056
是什麼	-10.5061
琴	-10.5064
不知其	-10.5067
迎之	-10.5068
忤	-10.5068
楞伽	-10.5069
之論	-10.5072
白言	-10.5075
挽	-10.509
誦金剛經	-10.5097
▁齊	-10.5099
問其故	-10.51
參禪	-10.5101
貶	-10.5104
入宮	-10.511
數人	-10.5114
還家	-10.5115
綴	-10.5115
文殊師利	-10.5117
中夜	-10.5119
安曰	-10.5122
靈巖	-10.5123
慧遠	-10.5126
自非	-10.5128
壬戌	-10.513
而自	-10.5132
桃	-10.5134
大迦葉	-10.5139
善根	-10.5145
叉	-10.515
寮	-10.5152
諒	-10.5154
悔過	-10.5155
厄	-10.5161
正念	-10.5162
昨日	-10.5162
我身	-10.5164
與師	-10.5172
癸巳	-10.5175
傳之	-10.5176
眾曰	-10.5179
罪福	-10.518
慈明	-10.519
顛倒	-10.5192
山水	-10.5196
宗師	-10.52
指示	-10.52
鍊	-10.5201
聳	-10.5201
所行	-10.5201
二教	-10.5203
遠曰	-10.5204
精神	-10.5204
佛理	-10.5205
南陽	-10.5206
邕	-10.5209
二字	-10.5213
彼此	-10.5214
二十三	-10.5218
心地	-10.5218
西向	-10.523
有一人	-10.5232
有窣堵波	-10.5235
未詳	-10.5239
自得	-10.5239
翫	-10.5241
開法	-10.5242
告眾曰	-10.5243
致書	-10.5245
二者	-10.5246
撲	-10.5247
知是	-10.525
根本	-10.5257
朝夕	-10.5263
六日	-10.5264
辛卯	-10.5267
形像	-10.5271
恢	-10.5273
梁武	-10.5274
諸師	-10.5275
瓔珞	-10.5276
偈云	-10.5277
添	-10.5284
阜	-10.5285
二子	-10.5285
不失	-10.5293
遂得	-10.5298
不通	-10.53
從容	-10.5303
為王	-10.5307
見性	-10.5308
頒	-10.5308
萬人	-10.5316
彼國	-10.5318
文王	-10.5318
林中	-10.5319
不善	-10.5322
流布	-10.5323
自性	-10.5324
泊	-10.5324
麥	-10.5326
地藏	-10.5329
無遺	-10.5331
雉	-10.5334
上竺	-10.5334
東坡	-10.534
東晉	-10.5354
延慶	-10.5358
一室	-10.5362
鄉里	-10.5363
無餘	-10.5367
手執	-10.5368
昔有	-10.5376
相承	-10.5379
薰	-10.5385
肥	-10.5388
六卷	-10.5393
一喝	-10.5395
四天王	-10.5396
攝論	-10.5401
隨喜	-10.5403
詩云	-10.5404
雍州	-10.5406
槃	-10.5409
藍	-10.5409
因此	-10.541
既無	-10.541
道家	-10.5411
大智	-10.5412
曾無	-10.5413
周孔	-10.5413
師問	-10.5415
師為	-10.5416
姿	-10.5416
通達	-10.5416
頂上	-10.5419
伺	-10.5426
牛頭	-10.5427
迴向	-10.5428
岑	-10.5429
塚	-10.5429
禪門	-10.5429
娑婆	-10.543
乃為	-10.5431
放生	-10.5432
梯	-10.5432
禪林	-10.5433
一家	-10.5433
以成	-10.5437
旌	-10.5437
此地	-10.5441
弱冠	-10.5441
世俗	-10.5443
語錄	-10.5444
諸部	-10.5452
法者	-10.5454
請僧	-10.5455
行矣	-10.5457
千年	-10.5459
針	-10.5461
讀書	-10.5461
不少	-10.5462
之有	-10.5465
殺人	-10.5466
亦然	-10.5467
壑	-10.5474
禦	-10.5475
楷	-10.5476
獵	-10.5476
今此	-10.5479
衣食	-10.5479
劇	-10.5487
食之	-10.5491
知有	-10.5492
文武	-10.5497
釋門	-10.5499
如初	-10.5501
王宮	-10.5501
文句	-10.5503
畜生	-10.5511
尊者曰	-10.5511
論師	-10.5511
黃帝	-10.5514
漂	-10.5514
谿	-10.5516
座下	-10.5516
教之	-10.5516
牢	-10.5518
少林	-10.5519
時號	-10.5521
叱	-10.5524
終南山	-10.5524
二十九	-10.5526
六時	-10.5529
端正	-10.5535
二十四年	-10.5538
四面	-10.5542
書云	-10.5542
綽	-10.5544
煥	-10.5553
常以	-10.5556
行於世	-10.5556
了無	-10.5559
綺	-10.5561
媼	-10.5566
之至	-10.5569
模	-10.557
至期	-10.5571
琛	-10.5572
太上	-10.5572
請住	-10.5578
豈得	-10.5585
問云	-10.5586
何也	-10.5587
輟	-10.5587
子也	-10.559
者多	-10.5592
罽賓國	-10.5596
坐逝	-10.5599
法道	-10.5601
二十餘	-10.5605
垣	-10.5605
萬年	-10.5606
豈能	-10.5607
不成	-10.5613
學佛	-10.5618
千載	-10.5621
生天	-10.5623
已上	-10.5626
跏趺	-10.5632
之行	-10.5634
巴	-10.5652
栴檀	-10.5652
聞而	-10.5654
何其	-10.5655
十六日	-10.5664
肅宗	-10.5664
矢	-10.5665
裝	-10.5665
倉	-10.5668
陣	-10.5668
慚愧	-10.567
䖍	-10.567
大將軍	-10.5672
放光明	-10.5673
公案	-10.5674
州剌史	-10.5678
此方	-10.5679
袖	-10.5686
擅	-10.5689
萬壽	-10.5693
二十六	-10.5695
山神	-10.5697
武宗	-10.5703
轉法輪	-10.5703
糞	-10.5704
所傳	-10.5705
粲	-10.5706
謂人曰	-10.5706
踏	-10.5706
雀	-10.5709
瞿曇	-10.5711
鄧	-10.5715
以事	-10.5721
消息	-10.5722
大鑒之	-10.5726
其實	-10.5728
事之	-10.573
敬禮	-10.5738
賢聖	-10.5739
婬	-10.5742
莫測	-10.5745
至心	-10.5745
因問	-10.5749
修淨業	-10.5752
上表	-10.5755
踞	-10.5758
城西	-10.5763
塔曰	-10.5763
釋典	-10.5764
回向	-10.5768
三皇	-10.5768
與其	-10.5771
無別	-10.5771
吾師	-10.5772
傳授	-10.5773
士大夫	-10.5774
藹	-10.5778
若夫	-10.5779
印度	-10.5782
教門	-10.5786
蒼生	-10.5789
西國	-10.5789
此語	-10.579
大驚	-10.5793
都無	-10.5794
讚歎	-10.5797
鈍	-10.5799
煬帝	-10.5803
二乘	-10.5806
丞	-10.5806
即得	-10.5806
彭城	-10.5807
姬	-10.5807
所為	-10.5808
入門	-10.5809
狀如	-10.5812
聽者	-10.5812
夭	-10.5813
迄	-10.5814
本紀	-10.5814
之性	-10.5814
擬議	-10.5817
無一	-10.5818
諸比丘	-10.5819
采	-10.582
講堂	-10.5822
頤	-10.5824
奉詔	-10.5824
廁	-10.5826
蘭若	-10.5828
奇之	-10.5835
死者	-10.5835
還有	-10.5838
講法華	-10.5844
禪法	-10.5846
歸命	-10.5847
斛	-10.5849
喚作	-10.585
六經	-10.5856
心念	-10.5858
胄	-10.5862
所出	-10.5863
忽聞	-10.5864
莫知	-10.5866
不獲	-10.5873
無由	-10.5874
去來	-10.5875
無量壽	-10.5879
西京	-10.5881
奉勅	-10.5885
至理	-10.5885
少出家	-10.5886
彈	-10.5886
孕	-10.5887
為先	-10.5893
六度	-10.5894
所能	-10.5895
瑞應	-10.5895
佛牙	-10.5898
街	-10.5901
旛	-10.5908
擯	-10.5909
聲色	-10.5911
又復	-10.5911
宗本紀	-10.5913
炭	-10.5913
彫	-10.5915
故得	-10.5916
為宗	-10.5918
手足	-10.5921
曳	-10.5921
有五	-10.5926
稱之	-10.5928
則不	-10.5929
八卷	-10.5929
放下	-10.5931
靈寶	-10.5932
潭州	-10.5932
薩	-10.5932
已後	-10.5933
梵行	-10.5934
日用	-10.5935
十餘年	-10.5935
立寺	-10.5937
至一	-10.594
西歸	-10.5941
下有	-10.5941
宣宗	-10.5944
沃	-10.5945
銳	-10.5946
泰山	-10.5954
猶有	-10.5956
〔	-10.5958
簿	-10.5962
涯	-10.5963
為佛	-10.5963
元祐	-10.5965
達摩	-10.5966
年十三	-10.5967
毘尼	-10.5967
棘	-10.5971
互相	-10.5972
當世	-10.5974
後住	-10.5976
旅	-10.5977
萬行	-10.598
師事	-10.5982
子之	-10.5984
住世	-10.5987
為眾	-10.5988
問答	-10.5992
於道	-10.5994
十歲	-10.5994
丕	-10.5999
鍾山	-10.6
持經	-10.6
無名	-10.6002
乃見	-10.6006
二十卷	-10.6007
以是	-10.6007
焦	-10.6008
禮樂	-10.601
擒	-10.6016
觀心	-10.6022
邪正	-10.6031
聽法	-10.6032
向西	-10.6034
七佛	-10.6035
所聞	-10.6038
婦人	-10.6039
八日	-10.6041
不拜	-10.6041
明月	-10.6043
王舍城	-10.6044
恕	-10.6044
魔王	-10.6046
如法	-10.6049
於大	-10.6051
誦持	-10.6053
四十年	-10.6065
取之	-10.6066
戒壇	-10.6071
則是	-10.608
於後	-10.6082
佛說	-10.6083
儒者	-10.6089
優婆塞	-10.6099
求法	-10.61
感通	-10.6101
惡業	-10.6103
吒	-10.6107
自心	-10.6107
雕	-10.611
澆	-10.6111
江州	-10.6112
啼	-10.6115
禪院	-10.6119
漆	-10.6122
死心	-10.6129
顏色	-10.613
斧	-10.6136
一分	-10.6141
敬之	-10.6142
法寶	-10.6148
之西	-10.6153
何足	-10.6158
兔	-10.616
佛所	-10.616
多所	-10.6162
萃	-10.6162
咄	-10.6163
今者	-10.6163
藤	-10.6164
沾	-10.6167
圓滿	-10.6168
年十五	-10.6173
精誠	-10.6174
春秋七十	-10.6178
既是	-10.6181
飯僧	-10.6182
「	-10.6189
己丑	-10.6192
無極	-10.6192
遂使	-10.6195
二公	-10.6198
舉手	-10.6199
中書	-10.6203
當來	-10.6205
商量	-10.6207
葱嶺	-10.6209
梵王	-10.6212
晃	-10.6215
繡	-10.6215
苗	-10.6217
談論	-10.6218
冐	-10.6219
憲宗	-10.6219
下勅	-10.6219
樵	-10.6221
隴	-10.6224
無能	-10.6228
而起	-10.6235
毗尼	-10.6241
瞿	-10.6241
最為	-10.6242
得免	-10.6242
于闐	-10.6245
可知	-10.6249
結集	-10.625
可為	-10.625
入寂	-10.625
越州	-10.6251
聾	-10.6254
即於	-10.6256
旬日	-10.6259
目前	-10.6259
四時	-10.6259
開示	-10.626
並是	-10.6263
言曰	-10.6266
沮	-10.6267
且曰	-10.6268
浮屠	-10.6271
萬曆	-10.6272
蚤	-10.6273
陪	-10.6274
金輪	-10.6275
後生	-10.6276
畵	-10.6279
莖	-10.6282
帝崩	-10.6285
壽命	-10.6288
展轉	-10.6289
塔于	-10.629
罄	-10.6292
二部	-10.6295
自後	-10.6296
塔寺	-10.63
五戒	-10.6304
鬪	-10.6308
既不	-10.6313
各各	-10.6313
而復	-10.6314
公主	-10.6315
芬	-10.6317
二十三年	-10.6317
療	-10.6321
其所出法嗣	-10.6322
衲僧	-10.6324
西明寺	-10.6326
卵	-10.6326
雙林	-10.6329
般涅槃	-10.6335
仁宗	-10.6344
而不能	-10.6347
德行	-10.635
三衣	-10.635
自餘	-10.6353
在前	-10.6355
汎	-10.6355
本心	-10.636
寶藏	-10.636
孚	-10.6363
其時	-10.6366
勳	-10.637
妹	-10.6373
始知	-10.6375
性命	-10.6376
講席	-10.6377
餓鬼	-10.638
大喜	-10.6381
二十五年	-10.6384
安能	-10.6385
不求	-10.6387
進士	-10.639
非是	-10.6397
之美	-10.6398
己酉	-10.6404
周公	-10.6408
不取	-10.6411
祖宗	-10.6414
二十六年	-10.6417
終南	-10.6418
籌	-10.6419
白馬寺	-10.642
不至	-10.6424
緘	-10.6425
非我	-10.6425
奄	-10.6427
深入	-10.6429
而還	-10.6431
二僧	-10.6434
可乎	-10.6436
明矣	-10.6438
機緣	-10.6438
大溈	-10.644
汝若	-10.6446
與語	-10.6447
增長	-10.6449
風俗	-10.6451
殺生	-10.6452
即日	-10.6454
來者	-10.6457
乃知	-10.6459
承天	-10.6463
低	-10.6465
光照	-10.6465
熊	-10.6466
爾時世尊	-10.6468
五里	-10.6469
翹	-10.6469
梁武帝	-10.6469
同歸	-10.6471
來至	-10.6471
道吾	-10.6472
王言	-10.6476
驟	-10.6476
咸通	-10.6476
波羅	-10.6481
鋪	-10.6484
大悅	-10.6489
寺塔	-10.6493
一代	-10.6495
經教	-10.6502
御製	-10.6503
觀察	-10.6504
郡守	-10.6507
成實	-10.6508
四分	-10.6511
經文	-10.6512
佛者	-10.6512
後至	-10.6521
欲得	-10.6524
鷹	-10.6524
圓光	-10.6525
襟	-10.653
所願	-10.653
欵	-10.6533
先後	-10.6537
化之	-10.6544
辯才	-10.6544
金剛般若	-10.6548
是我	-10.6551
至正	-10.6561
斯言	-10.6571
山頂	-10.6575
何用	-10.6578
不斷	-10.6579
誑	-10.6581
之化	-10.6583
十七日	-10.6587
其下	-10.6587
寂然	-10.6588
念誦	-10.6591
琉璃	-10.6591
聘	-10.6592
子曰	-10.6598
陳氏	-10.6598
可也	-10.6599
年八十	-10.6601
不去	-10.6605
者皆	-10.6617
僊	-10.6622
生也	-10.6622
延壽	-10.6626
其師	-10.6627
巷	-10.663
之歲	-10.6631
百萬	-10.6632
西行	-10.6634
取其	-10.6635
祝髮	-10.6645
佛心	-10.6646
示現	-10.6647
無敢	-10.6649
奈	-10.6658
一者	-10.6663
四生	-10.6664
生時	-10.6665
此子	-10.6666
作佛事	-10.6667
浙	-10.667
無佛	-10.6673
千餘人	-10.6677
教授	-10.6678
大興善寺	-10.6679
頑	-10.6682
王即	-10.6683
聖道	-10.6687
莊子	-10.669
力士	-10.6691
此皆	-10.6691
如其	-10.6694
二十二年	-10.6697
人心	-10.6716
不止	-10.6728
峙	-10.6729
四諦	-10.673
斌	-10.6735
寺觀	-10.6737
白佛言	-10.6741
宸	-10.6741
中道	-10.6741
中庸	-10.6742
一身	-10.6744
第七	-10.6745
恠	-10.6747
亦以	-10.6751
作偈	-10.6752
無疾	-10.6754
歷代	-10.6754
便問	-10.6754
輪王	-10.6756
鬚	-10.6758
憐	-10.676
安居	-10.6761
繫念	-10.6766
竹林	-10.6771
沙門慧	-10.6771
或以	-10.6778
住山	-10.6784
受教	-10.6784
香山	-10.6785
若欲	-10.6789
前身	-10.6794
闍梨	-10.6795
亦復	-10.6796
變為	-10.6798
汾陽	-10.6803
樓閣	-10.6804
謝曰	-10.6805
枚	-10.6806
叅	-10.6807
司空	-10.6811
弘道	-10.6816
法服	-10.6817
時王	-10.6817
可觀	-10.6817
猶在	-10.6818
親見	-10.6826
禍福	-10.6827
誌公	-10.6832
下座	-10.6836
恬	-10.6843
霸	-10.6846
誦之	-10.6849
屆	-10.6851
景德	-10.6851
慈恩	-10.6854
出山	-10.6855
輪迴	-10.6857
問如何是	-10.6858
古佛	-10.6862
近前	-10.6864
即往	-10.6868
六百	-10.6874
後因	-10.6876
其門	-10.6878
有此	-10.6879
己卯	-10.6879
參軍	-10.6882
天樂	-10.6886
音樂	-10.6888
跋陀	-10.6888
往還	-10.6889
鳳翔	-10.6893
久而	-10.6894
塑	-10.6897
漁	-10.6898
柯	-10.6898
則知	-10.6899
珣	-10.69
禽獸	-10.6902
秩	-10.6903
閏	-10.6907
耆	-10.6908
燾	-10.691
以杖	-10.6911
永平	-10.6913
謫	-10.6913
西湖	-10.6915
己未	-10.692
祕密	-10.6922
雲集	-10.6924
一法	-10.6925
圍繞	-10.6925
長齋	-10.6927
巳後	-10.6929
端坐而逝	-10.6931
以求	-10.6937
摩羅	-10.6937
從師	-10.6941
竟不	-10.6942
便喝	-10.6943
龍象	-10.6946
大統	-10.695
)。○	-10.6951
不契	-10.6951
韜	-10.6952
甯	-10.6954
四十九	-10.6954
東夏	-10.6954
去矣	-10.6955
萌	-10.6956
見於	-10.6956
釋子	-10.6958
來此	-10.696
石上	-10.6962
軫	-10.6963
天帝	-10.6965
正宗	-10.6965
人有	-10.6978
同志	-10.6982
電	-10.6986
故來	-10.6988
無可	-10.6992
珍重	-10.6992
楊州	-10.6997
此非	-10.6997
官人	-10.6999
一食	-10.7
祈請	-10.7003
國中	-10.7003
▁晉	-10.7004
佛語	-10.7005
諸山	-10.7005
泐潭	-10.7005
周武	-10.7007
此理	-10.7009
邵	-10.7012
之極	-10.7012
褐	-10.7013
吉凶	-10.7016
年六十	-10.7017
臺山	-10.7018
獅子	-10.7026
吾道	-10.7026
授記	-10.7027
如生	-10.703
會麼	-10.703
翰林	-10.7032
御史	-10.7033
佛乘	-10.7039
今當	-10.7039
不堪	-10.7055
山之	-10.7055
剡	-10.7056
天祠	-10.7056
化人	-10.7058
十里	-10.7059
天寧	-10.7062
織	-10.7065
六根	-10.708
最勝	-10.7081
千萬	-10.7081
開元寺	-10.7084
城內	-10.709
王臣	-10.7095
法會	-10.7097
公之	-10.7101
化作	-10.7101
皆得	-10.7111
九歲	-10.7114
卒于	-10.7116
得此	-10.7117
之恩	-10.7117
逍遙	-10.7121
數十人	-10.7122
凡所	-10.7123
依止	-10.7127
三業	-10.7128
三學	-10.7129
繪	-10.713
未免	-10.7131
不思	-10.7133
西來	-10.7134
恰	-10.714
無緣	-10.7141
之談	-10.7141
寺宇	-10.7146
接引	-10.7148
及至	-10.7154
與佛	-10.716
勃	-10.7163
年十二	-10.7167
佗	-10.7173
平日	-10.7174
般若經	-10.7175
不違	-10.7177
秊	-10.7178
丹陽	-10.7182
因以	-10.7183
琰	-10.7184
相去	-10.7185
黃梅	-10.7186
恪	-10.7186
隨機	-10.7186
之表	-10.7186
食肉	-10.7188
授之	-10.7189
頸	-10.7189
此中	-10.719
不變	-10.7196
優劣	-10.7199
其理	-10.7206
加以	-10.7207
不問	-10.7218
藏之	-10.7219
夜半	-10.7224
化去	-10.7224
聞見	-10.7227
年四十	-10.7229
微疾	-10.7229
授戒	-10.7231
懃	-10.7235
聖旨	-10.7244
無過	-10.725
海中	-10.7251
佛子	-10.7252
有功	-10.7259
無何	-10.7261
無得	-10.7261
翻經	-10.7262
艱	-10.7262
復何	-10.7264
縷	-10.7267
人物	-10.7267
設教	-10.7273
賾	-10.7278
淡	-10.7283
常在	-10.7286
三十餘	-10.7289
乃令	-10.7291
宣帝	-10.7291
五經	-10.7293
初住	-10.7293
將去	-10.7299
蠻	-10.73
侮	-10.73
未始	-10.7303
難提	-10.7304
堅固	-10.7307
其處	-10.7307
清風	-10.7311
大怒	-10.7316
北山	-10.7321
教觀	-10.7333
百億	-10.7334
正法眼藏	-10.7339
不安	-10.7341
男子	-10.7342
帝以	-10.7352
送之	-10.7353
鬻	-10.7353
欠	-10.7355
三十卷	-10.7355
不答	-10.7357
為弟子	-10.7358
呼為	-10.736
殞	-10.7362
如人	-10.7363
晉王	-10.7363
萬歲	-10.7371
論議	-10.7378
之末	-10.7379
淮南	-10.7382
而入	-10.7389
淨飯王	-10.739
憚	-10.7396
熈	-10.7396
王聞	-10.7397
振錫	-10.7397
雁	-10.7402
諸公	-10.7406
羸	-10.7407
祗	-10.7408
無非	-10.7408
九流	-10.741
香花	-10.7411
三部	-10.7412
第八	-10.7415
彼岸	-10.7419
無漏	-10.742
八部	-10.7425
山門	-10.7426
於斯	-10.7431
大小乘	-10.7432
緇	-10.7434
稜	-10.7435
本末	-10.7438
正是	-10.7438
七人	-10.7443
須達	-10.7446
刪	-10.7448
斤	-10.7448
歲月	-10.7458
法要	-10.7458
神足	-10.7459
見在	-10.746
時節	-10.7461
節度使	-10.7461
妨	-10.7463
禪觀	-10.7466
言說	-10.7466
以上	-10.7467
丹霞	-10.7467
嘉禾	-10.7468
蒸	-10.7468
孤山	-10.7469
而作	-10.7469
之異	-10.747
裹	-10.747
苾芻	-10.7472
伍	-10.7473
屯	-10.7473
稔	-10.7474
往復	-10.7475
欲求	-10.7475
其像	-10.7478
玉尺	-10.7479
聖者	-10.7492
渡江	-10.75
成正覺	-10.7502
眾中	-10.7505
十五日	-10.7505
城東	-10.7505
須是	-10.7515
概	-10.7519
亞	-10.752
:	-10.7524
果有	-10.7529
至京師	-10.7529
有疑	-10.7541
潮	-10.7545
深信	-10.7545
不息	-10.7546
雲棲	-10.755
不一	-10.7554
於天下	-10.7556
不宜	-10.7557
只如	-10.7557
三七日	-10.7558
化身	-10.756
長壽	-10.7566
而非	-10.7569
閔	-10.7569
廿	-10.7574
可見	-10.7575
甄	-10.758
曩	-10.7581
錫杖	-10.7583
輕重	-10.7584
非有	-10.7585
八萬	-10.7586
出門	-10.7586
東宮	-10.7588
岡	-10.759
飲酒	-10.7591
蓄	-10.7595
人多	-10.7596
示微疾	-10.76
生處	-10.7604
骸	-10.7604
真淨	-10.7606
勅令	-10.7616
論義	-10.7616
神變	-10.7629
鳩	-10.763
今古	-10.7636
東京	-10.7637
大弘	-10.7643
敬信	-10.7643
長蘆	-10.7644
將至	-10.7646
報曰	-10.765
年五十	-10.765
經中	-10.7651
叫	-10.7654
傳燈錄	-10.7655
土地	-10.7657
常有	-10.7659
債	-10.7659
本朝	-10.766
莫之	-10.766
八歲	-10.7662
請為	-10.7662
西竺	-10.767
下詔	-10.7671
所須	-10.7672
佛在	-10.7675
動靜	-10.7677
因名	-10.7681
己亥	-10.7682
更不	-10.769
威德	-10.7693
奉法	-10.7696
說之	-10.7697
士女	-10.7698
敲	-10.7699
天后	-10.7701
壓	-10.7703
生靈	-10.7703
鑊	-10.7705
瓜	-10.7709
頂戴	-10.7709
晴	-10.771
是謂	-10.7711
一遍	-10.7712
沙門道	-10.7715
東海	-10.7719
差別	-10.772
章安	-10.7726
慨然	-10.7726
本國	-10.7728
武德	-10.7736
初參	-10.774
每至	-10.7745
餓	-10.7751
陞	-10.7751
衝	-10.7751
凉	-10.7752
台州	-10.7752
荊南	-10.7753
山陰	-10.7753
流行	-10.7754
與夫	-10.7755
佛告	-10.7756
膠	-10.7761
稅	-10.7763
虫	-10.7763
至京	-10.7764
弔	-10.7766
鬱	-10.7767
有光	-10.7769
不作	-10.7772
無形	-10.7773
不捨	-10.7778
不疑	-10.7778
與眾	-10.778
榜	-10.778
內典	-10.7784
者哉	-10.7786
現身	-10.7787
自若	-10.7789
識之	-10.7794
和合	-10.7798
不待	-10.7799
所住	-10.7799
悚	-10.7802
風吹	-10.7802
拋	-10.7802
契悟	-10.7802
督	-10.7804
於寺	-10.7804
故使	-10.7804
忻	-10.7805
升座	-10.7814
鈞	-10.7815
唾	-10.782
一員	-10.782
讀經	-10.7821
殯	-10.7822
収	-10.7828
吾有	-10.7829
出來	-10.783
圓照	-10.783
安隱	-10.783
苦海	-10.7831
詩曰	-10.7833
欲往	-10.7839
之氣	-10.7847
初至	-10.7847
須彌山	-10.7852
人來	-10.7855
今時	-10.7857
放還	-10.7858
妄想	-10.7859
年二十	-10.786
三論	-10.7861
獼猴	-10.7863
寶林	-10.7864
應當	-10.7869
將何	-10.787
拱	-10.7872
今欲	-10.7881
一箇	-10.7882
同行	-10.7882
一二	-10.7883
郁	-10.7884
本姓	-10.7885
闔	-10.7887
老師	-10.7889
帝問	-10.7892
後漢	-10.7894
吾聞	-10.7896
以告	-10.7899
縣人	-10.79
膚	-10.7906
必當	-10.7909
欲界	-10.7921
多矣	-10.7922
一朝	-10.7929
音聲	-10.7932
挫	-10.7933
蓮社	-10.7934
登座	-10.7936
洋	-10.7939
掠	-10.7939
胥	-10.7943
教也	-10.7944
瘳	-10.7945
蓬	-10.7945
至夜	-10.7947
李公	-10.7948
教人	-10.7948
裘	-10.7949
北面	-10.7951
此心	-10.7952
如斯	-10.7959
譯出	-10.7962
何異	-10.7962
都督	-10.7969
佛身	-10.797
當以	-10.797
洪州	-10.7972
級	-10.7973
之年	-10.7974
弘明集	-10.7977
服勤	-10.798
是夕	-10.7981
拏	-10.7983
沿	-10.7983
國之	-10.7984
釋迦如來	-10.7986
穆王	-10.7995
士云	-10.8
區區	-10.8
一方	-10.8002
篆	-10.8003
庶幾	-10.8004
忝	-10.8005
以表	-10.8005
皷	-10.8006
堯舜	-10.8006
塘	-10.8008
暖	-10.8008
震動	-10.8008
之南	-10.8009
柄	-10.8009
其神	-10.801
竺法	-10.8011
或謂	-10.8013
史記	-10.8013
數萬	-10.8014
今以	-10.8017
我若	-10.8017
之儀	-10.8021
乃有	-10.8021
大有	-10.8024
之夕	-10.8029
化胡	-10.803
化導	-10.8032
唯願	-10.8033
奇特	-10.8035
傳記	-10.8038
政和	-10.8039
大顛	-10.8039
所重	-10.8045
竦	-10.805
是汝	-10.8051
天皇	-10.8052
三者	-10.8055
於時	-10.8059
空寂	-10.8061
流沙	-10.8063
樞	-10.8063
槌	-10.8065
石壁	-10.8066
以法	-10.8066
帖	-10.8069
挂	-10.8069
舁	-10.807
廣陵	-10.8071
是誰	-10.8075
清凉	-10.8076
己巳	-10.8076
由來	-10.8081
三歲	-10.8082
其形	-10.8082
其前	-10.8083
二祖	-10.8088
書寫	-10.8091
一物	-10.8094
十八日	-10.8097
空有	-10.8097
師號	-10.8102
炳	-10.8104
林寺	-10.8105
建武	-10.8112
安公	-10.8116
此為	-10.8122
稚	-10.8123
世宗	-10.8124
道教	-10.8128
魁	-10.8129
我有	-10.8129
粉	-10.8133
栢	-10.8134
瞻仰	-10.8136
駐	-10.8136
從其	-10.8137
倡	-10.8138
念阿彌陀佛	-10.8139
鳥獸	-10.814
可不	-10.814
香火	-10.814
一百二十	-10.8142
復問	-10.8143
未必	-10.8146
上品	-10.8156
我以	-10.8157
鉤	-10.816
為心	-10.8161
儒釋	-10.8163
修善	-10.8164
為說法	-10.8166
入地獄	-10.8167
先聖	-10.8168
身命	-10.8168
所及	-10.817
孟子	-10.8171
摩騰	-10.8175
大寺	-10.8176
貝	-10.8177
此二	-10.818
悖	-10.8183
四分律	-10.8184
安國	-10.8186
道路	-10.8186
他人	-10.8186
遐邇	-10.8188
十善	-10.8189
忙	-10.8192
修習	-10.8195
縮	-10.8195
並皆	-10.8198
安坐	-10.8201
是甚麼	-10.8201
縣令	-10.8201
第九	-10.8204
得生	-10.8205
𦦨	-10.8206
開堂	-10.8208
黎	-10.8209
從上	-10.8213
五天	-10.8213
羅剎	-10.8213
受其	-10.8215
律藏	-10.8218
宛	-10.8223
非法	-10.8227
葬於	-10.8234
之家	-10.8234
昔日	-10.8235
緝	-10.8243
三十七	-10.8245
九十	-10.8249
請問	-10.825
作是言	-10.825
恤	-10.8252
真偽	-10.8255
既得	-10.8259
南湖	-10.8262
以偈	-10.8265
末年	-10.8271
能知	-10.8272
緣起	-10.8274
孔子曰	-10.8275
二十日	-10.8279
十四日	-10.828
不赴	-10.8292
之謂	-10.8292
佛號	-10.8292
者必	-10.8293
商人	-10.8298
罪人	-10.8303
坡	-10.8304
聖僧	-10.8304
明智	-10.8307
上首	-10.8307
王之	-10.8308
寂靜	-10.8309
瞽	-10.831
團	-10.8311
僣	-10.8313
賷	-10.8316
訟	-10.8318
虎丘	-10.8318
三塗	-10.832
吳郡	-10.8322
古德	-10.8325
事也	-10.8328
霽	-10.8329
臨川	-10.8329
見此	-10.8331
寺有	-10.8332
改為	-10.8336
生子	-10.8336
心不	-10.834
以下	-10.8349
奉之	-10.835
武王	-10.835
秦王	-10.8351
塵勞	-10.8352
著書	-10.8355
堂中	-10.8356
身體	-10.8356
鑽	-10.8362
馭	-10.8367
猶是	-10.8369
明珠	-10.8373
寺院	-10.8375
仇	-10.8375
右脇	-10.8375
帽	-10.8378
不妄	-10.8378
姊	-10.838
誇	-10.838
嗔	-10.838
娘	-10.8385
狎	-10.8387
十三日	-10.839
但有	-10.8394
心印	-10.8394
杭之	-10.8395
而往	-10.8396
師於	-10.8398
明道	-10.8398
怡然	-10.8399
欲令	-10.8403
元帝	-10.8408
求道	-10.8408
自云	-10.8409
雪竇顯云	-10.841
北方	-10.8411
傳譯	-10.8427
聞已	-10.8428
栗	-10.8431
主之	-10.8432
亨	-10.8433
咽	-10.8434
不退	-10.8434
旗	-10.8438
此書	-10.8439
汪	-10.8441
所歸	-10.8442
千古	-10.8442
用之	-10.8443
鈴	-10.8444
初無	-10.8445
諸聖	-10.8446
流水	-10.8446
龍興寺	-10.8451
天師	-10.8451
青州	-10.8451
甚深	-10.8454
姑蘇	-10.8454
菩薩戒	-10.8458
入關	-10.846
思量	-10.8462
三十五	-10.8463
福業	-10.8466
王名	-10.8466
二十餘年	-10.8468
印可	-10.8469
語云	-10.8469
乃止	-10.8473
固辭	-10.8478
草堂	-10.8478
所致	-10.8479
肘	-10.848
赫	-10.848
鹿苑	-10.8482
而寂	-10.8485
持誦	-10.8487
雲巖	-10.8488
王侯	-10.8489
二經	-10.8492
東陽	-10.8495
本性	-10.8501
來也	-10.8502
燃	-10.8505
亦爾	-10.8507
戒法	-10.8509
後來	-10.8509
向上	-10.851
再來	-10.8513
頭上	-10.8514
開口	-10.8516
遂往	-10.852
僉	-10.852
者眾	-10.8522
拈起	-10.8522
祈雨	-10.8522
阿育	-10.8523
又作麼生	-10.8525
有神	-10.853
不了	-10.8532
通鑑	-10.8535
無際	-10.8541
持鉢	-10.8541
九州	-10.8541
伏惟	-10.8542
好學	-10.8542
復來	-10.8546
王問	-10.8548
母夢	-10.8551
飲水	-10.8552
之域	-10.8554
事理	-10.8555
退之	-10.8556
梓	-10.8556
怡	-10.8557
之像	-10.8559
所未	-10.856
逝矣	-10.8562
金剛般若經	-10.8564
涕	-10.8566
江都	-10.857
之體	-10.8571
二世	-10.8571
塊	-10.8574
江左	-10.8577
峭	-10.8577
姪	-10.8578
竄	-10.858
脇	-10.8585
日誦	-10.8585
我所	-10.8587
開寶	-10.8589
火燒	-10.8593
問言	-10.8593
不假	-10.8594
眾聖	-10.8599
中使	-10.8601
者矣	-10.8601
若言	-10.8604
名號	-10.8604
律部	-10.8609
而不知	-10.8614
所載	-10.8617
確	-10.8618
受生	-10.862
忽夢	-10.8622
囉	-10.8628
襄州	-10.863
薦福	-10.863
見師	-10.8631
天龍	-10.8631
峽	-10.8634
青原	-10.8634
人情	-10.8635
受法	-10.8635
桐	-10.8635
侯景	-10.8637
撓	-10.8638
分身	-10.8638
年十八	-10.864
衫	-10.864
門弟子	-10.8643
棗	-10.8644
右手	-10.8647
金華	-10.865
一寺	-10.865
阿毘曇	-10.8651
玄旨	-10.8653
口中	-10.8655
不足以	-10.8658
▁隋	-10.866
告眾	-10.8663
幼而	-10.8664
大藏	-10.8667
之興	-10.8667
其性	-10.8669
汲	-10.867
書之	-10.8671
習禪	-10.8672
遠矣	-10.8673
由旬	-10.8673
忉利天	-10.8674
吾宗	-10.8677
阿闍世王	-10.8681
諸菩薩	-10.8684
方得	-10.8687
天聖	-10.8689
慘	-10.8693
進曰	-10.8694
之苦	-10.8696
錐	-10.8697
石像	-10.8698
年七十	-10.87
聖德	-10.8703
應諾	-10.8703
之謂也	-10.8706
灾	-10.8706
擢	-10.8707
復以	-10.8707
建炎	-10.8708
煉	-10.8709
中書令	-10.8709
殮	-10.8709
末後	-10.8717
法事	-10.8717
看經	-10.8724
議論	-10.8724
爾後	-10.8727
留心	-10.8729
大安	-10.8729
宇文	-10.873
習定	-10.873
天地之	-10.8731
當此	-10.8731
從來	-10.8733
未易	-10.8744
出現	-10.8744
剃落	-10.8744
庾	-10.8748
誓願	-10.8749
府君	-10.8754
湖州	-10.8758
水火	-10.8759
何曾	-10.876
詔住	-10.8763
粹	-10.8765
樣	-10.8766
燼	-10.8766
龜茲	-10.8774
不說	-10.8778
聖眾	-10.8778
葬于	-10.878
遂與	-10.8781
率眾	-10.8783
雖不	-10.8784
以書	-10.8791
內有	-10.8798
三十餘年	-10.8798
直下	-10.8803
攝受	-10.8804
無垢	-10.8805
以身	-10.8807
天之	-10.8811
投子	-10.8813
四祖	-10.8813
水陸	-10.8815
普通	-10.8816
慇懃	-10.8818
神僧	-10.8819
老氏	-10.8821
到此	-10.8821
修多羅	-10.8821
琮	-10.8829
汰	-10.8831
之物	-10.8831
示以	-10.8833
闡揚	-10.8835
而今	-10.8835
价	-10.8837
告之曰	-10.884
一片	-10.8844
不令	-10.8847
殊不知	-10.8847
三十一	-10.8847
竊以	-10.8848
故不	-10.8848
萬劫	-10.8851
形骸	-10.8853
退居	-10.8857
流俗	-10.8858
大行	-10.8859
殺害	-10.8868
應真	-10.8868
以道	-10.8869
若使	-10.887
為天下	-10.8871
商那和修	-10.8873
乃與	-10.8876
文宣	-10.8876
今在	-10.8877
即時	-10.8878
摩訶迦葉	-10.888
通曰	-10.888
欲使	-10.8881
奉行	-10.8883
巖頭	-10.8883
之難	-10.8885
千僧	-10.8885
曹山	-10.8891
受用	-10.8892
異常	-10.8894
遏	-10.8894
誰能	-10.8896
未了	-10.8896
聖迹	-10.8897
勇猛	-10.8898
鼻孔	-10.8898
瓚	-10.8899
為務	-10.89
信之	-10.8901
裔	-10.8906
潘	-10.8906
腸	-10.8906
重之	-10.8908
呌	-10.8908
楊岐	-10.8908
霍	-10.8909
孔老	-10.8913
一所	-10.8917
亦同	-10.8917
不達	-10.8919
詣闕	-10.892
遊戲	-10.8926
一門	-10.8928
禁中	-10.8929
無聞	-10.893
直饒	-10.8931
道無	-10.8932
天保	-10.8936
坐化	-10.8937
寶集作	-10.8938
佛眼	-10.8938
大如	-10.8942
真身	-10.8942
甞於	-10.8944
呪願	-10.8945
若干	-10.8948
突	-10.8951
作什麼	-10.8961
見解	-10.8961
金字	-10.8961
千佛	-10.8962
造像	-10.8962
臨海	-10.8963
瀆	-10.8967
州縣	-10.8968
槩	-10.8969
影響	-10.8969
酌	-10.8969
嘯	-10.8969
疋	-10.8972
還山	-10.8974
香爐	-10.8976
佛名	-10.8978
六合	-10.8983
之力也	-10.8985
其寺	-10.8987
難得	-10.8987
所譯	-10.8992
之源	-10.8992
這裏	-10.8994
已下	-10.8998
遠來	-10.9001
其語	-10.9002
謨	-10.9011
病者	-10.9017
五十年	-10.9019
不由	-10.9023
八百	-10.9024
持齋	-10.9025
汝能	-10.9028
挑	-10.903
璋	-10.9031
冒	-10.9032
兇	-10.9032
銓	-10.9033
黜	-10.9033
稻	-10.9034
巫	-10.9034
芙蓉	-10.9034
駿	-10.9034
持金剛經	-10.9036
之迹	-10.9036
懶	-10.9036
進具	-10.9037
慾	-10.9039
侍衛	-10.904
羞	-10.904
華藏	-10.9042
何況	-10.9043
愚癡	-10.9043
九日	-10.9043
都城	-10.9044
但見	-10.9046
之深	-10.9048
廳	-10.9048
晦堂	-10.905
威神	-10.9051
金光明	-10.9052
涼州	-10.9054
僕射	-10.9059
怖畏	-10.906
和南	-10.9061
天目	-10.9061
度牒	-10.9066
以待	-10.9068
我不	-10.9069
則曰	-10.9071
寶曇	-10.9076
不改	-10.9076
萬象	-10.9078
奏聞	-10.9082
我於	-10.9084
閣下	-10.9087
渚	-10.9089
經書	-10.9089
而求	-10.909
依舊	-10.909
汾州	-10.909
椎	-10.909
葱	-10.9092
於心	-10.9095
漿	-10.9098
撮	-10.9098
躬自	-10.91
斯人	-10.91
巳來	-10.9102
盂	-10.9106
之句	-10.9109
俗人	-10.9112
祈福	-10.9116
無憂	-10.912
月餘	-10.912
充滿	-10.9121
同異	-10.9121
度脫	-10.9124
出沒	-10.9135
道林	-10.9139
其夜	-10.914
江表	-10.9141
一本	-10.9142
出處	-10.9142
春正月	-10.9142
而住	-10.9143
百家	-10.9144
麓	-10.9144
何可	-10.9149
枝葉	-10.915
日日	-10.9153
悟曰	-10.9157
數珠	-10.9159
玄門	-10.9162
主事	-10.9162
釣	-10.9163
經卷	-10.9164
十一日	-10.9165
華亭	-10.917
相隨	-10.917
在焉	-10.9173
於上	-10.9178
觀世音菩薩	-10.9178
像前	-10.9179
臣等	-10.918
親近	-10.9183
故事	-10.9184
博學	-10.9185
僧統	-10.919
東流	-10.9191
圓頓	-10.9191
勤苦	-10.9197
名相	-10.9198
如雲	-10.9199
舍人	-10.9206
降伏	-10.9207
何以故	-10.9208
實錄	-10.9212
中原	-10.9214
何名	-10.9215
靈源	-10.9219
文宗	-10.9225
覈	-10.9232
河北	-10.9232
浸	-10.9233
玉泉	-10.9233
忍辱	-10.9236
摸	-10.9236
得法於	-10.9238
繕	-10.9238
超然	-10.9243
磬	-10.9244
嫁	-10.9245
江東	-10.9247
無情	-10.9248
佛國	-10.9248
儔	-10.9248
性相	-10.9254
會中	-10.926
感悟	-10.9262
復見	-10.9264
帝大悅	-10.9267
其風	-10.9271
召見	-10.9272
何時	-10.9274
所成	-10.9275
開山	-10.9276
至大	-10.9277
丙	-10.9279
大論	-10.9282
供奉	-10.9282
諸祖	-10.9283
未明	-10.9284
湖南	-10.9288
歐陽	-10.9288
人人	-10.9289
曰汝	-10.929
太傅	-10.9291
大會	-10.9295
壘	-10.9296
或作	-10.9301
膳	-10.9303
豕	-10.9305
心無	-10.9306
母曰	-10.9306
譚	-10.9306
滌	-10.9307
之東	-10.9307
愜	-10.9309
曰如何是	-10.9312
幣	-10.9313
非人	-10.9314
十餘里	-10.9314
禮謝	-10.9315
長子	-10.9318
百步	-10.9318
義理	-10.9319
一里	-10.9321
如我	-10.9321
瞑目	-10.9322
而說偈言	-10.9323
官至	-10.9324
春秋七十有	-10.9326
斯乃	-10.9327
蹟	-10.9329
謂弟子曰	-10.933
有頃	-10.9331
大愚	-10.9333
生民	-10.9336
朝野	-10.9342
孝宗	-10.9342
夫婦	-10.9343
教者	-10.9344
一鉢	-10.9344
長史	-10.9346
示眾云	-10.9346
作家	-10.935
言也	-10.935
直指	-10.9353
詔以	-10.9354
法喜	-10.9355
異日	-10.9365
不就	-10.9367
香華	-10.9368
推之	-10.9369
寺之	-10.937
慧解	-10.9373
神道	-10.9374
像法	-10.9375
努力	-10.9379
夏四月	-10.9381
昭王	-10.9383
能言	-10.9385
其妻	-10.9388
時至	-10.9389
渭	-10.9391
塢	-10.9391
南遊	-10.9392
奄然	-10.9397
炤	-10.9399
白光	-10.9403
之身	-10.9405
四十餘年	-10.9407
當生	-10.941
而返	-10.9412
春秋六十	-10.9417
不倦	-10.9419
此其	-10.9424
釋氏之	-10.9427
大寶	-10.9431
舛	-10.9432
往彼	-10.9436
泉州	-10.9436
狼	-10.9437
老莊	-10.9437
拍	-10.9438
不已	-10.9438
秖	-10.9438
專精	-10.9441
車匿	-10.9442
為汝	-10.9442
隨意	-10.9442
猥	-10.9443
邇	-10.9443
䟦	-10.9445
俄有	-10.9445
何因	-10.9446
青山	-10.9446
丸	-10.9446
靈驗	-10.9446
無住	-10.9447
之狀	-10.9448
見人	-10.9449
直須	-10.9452
徇	-10.9458
黃老	-10.9458
悠悠	-10.9458
舊曰	-10.9458
等論	-10.946
膏	-10.946
親承	-10.9462
滅後	-10.9463
二十八年	-10.9464
相望	-10.9467
臘五十	-10.9469
智藏	-10.947
法相	-10.9473
棄之	-10.9476
蔣	-10.9479
微塵	-10.948
大人	-10.9484
一也	-10.9488
神州	-10.9491
法名	-10.9494
􃕝	-10.9496
即有	-10.9497
中天竺	-10.9498
僧錄	-10.9498
已而	-10.9499
大雨	-10.9501
怛	-10.9503
亦隨	-10.9506
徽宗	-10.9507
媿	-10.9512
晉陽	-10.9515
縫	-10.9515
孔雀	-10.9516
饗	-10.9519
距	-10.952
之大	-10.9521
佛以	-10.9522
纖	-10.9524
笠	-10.9525
煖	-10.9526
文集	-10.9528
跳	-10.9529
侃	-10.9529
壽八十	-10.953
真言	-10.9531
專心	-10.9533
諷誦	-10.9537
詩書	-10.9541
二三	-10.9544
若見	-10.9546
百里	-10.9546
得見	-10.9548
證明	-10.9551
既見	-10.9552
日本	-10.9557
雲峯	-10.9559
訛也	-10.956
入水	-10.9562
具說	-10.9566
羲	-10.9569
不暇	-10.9571
不散	-10.9572
無憂王	-10.9572
師一日	-10.9573
無定	-10.9578
四禪	-10.9579
仁王	-10.958
良由	-10.9581
小人	-10.9581
森	-10.9583
掖	-10.9584
聖人之道	-10.9585
璟	-10.9588
殂	-10.9588
龍泉	-10.9592
堆	-10.9592
一枝	-10.9592
總管	-10.9594
隨時	-10.9595
篋	-10.9595
而上	-10.9596
島	-10.9596
不來	-10.9599
貸	-10.9599
啖	-10.96
迸	-10.96
倘	-10.9602
神呪	-10.9604
之甚	-10.9605
作何	-10.9606
不朽	-10.961
在世	-10.9612
德宗	-10.9612
後以	-10.9613
梵音	-10.9614
高行	-10.9616
文公	-10.9617
異端	-10.962
禪誦	-10.9621
少而	-10.9621
詔天下	-10.9626
曰我	-10.963
投身	-10.9632
太元	-10.9632
精苦	-10.9635
遂為	-10.9636
又聞	-10.9637
曾不	-10.964
利物	-10.9641
晟	-10.9642
金臺	-10.9643
法座	-10.9643
甎	-10.9644
之眾	-10.9646
名也	-10.965
皆如	-10.9651
伎	-10.9655
諸臣	-10.9657
潰	-10.9659
晤	-10.9661
無用	-10.9661
協	-10.9663
所撰	-10.9664
袍	-10.9665
徘徊	-10.9666
箇什麼	-10.9668
我為	-10.9669
聰敏	-10.9669
逕	-10.967
明之	-10.9673
受命	-10.9676
太平興國	-10.9678
三十三	-10.9678
二月八日	-10.9678
有七	-10.9681
觀音像	-10.9681
吾不	-10.9691
沙門釋	-10.9694
猶存	-10.9695
經史	-10.9695
安國寺	-10.9696
阿含	-10.97
僧俗	-10.9705
生者	-10.9709
名利	-10.971
直得	-10.9712
師與	-10.9712
二百五十	-10.9712
之路	-10.9714
果然	-10.9717
林泉	-10.9717
造塔	-10.9722
一日忽	-10.9723
大丈夫	-10.9725
聞空中	-10.9725
言無	-10.9727
有法	-10.9729
唯一	-10.973
歸寂	-10.9733
控	-10.9733
軟	-10.9734
絃	-10.9734
大藏經	-10.9735
紂	-10.9736
異道	-10.9738
皆不	-10.9739
人倫	-10.974
大意	-10.9743
太山	-10.9743
忠孝	-10.9744
筠	-10.9746
止之	-10.9747
又甞	-10.9756
法度	-10.9759
太師	-10.976
其可	-10.9761
少有	-10.9761
之北	-10.9763
過人	-10.9764
正觀	-10.9764
一萬	-10.9766
故以	-10.9768
聞此	-10.9768
五歲	-10.9769
入於	-10.977
法照	-10.9771
四十二	-10.9773
驚曰	-10.9773
即入	-10.9774
心性	-10.9776
暇	-10.9776
佛前	-10.9777
年十六	-10.9777
此道	-10.9778
賢劫	-10.978
一世	-10.9783
所獲	-10.9784
塔銘	-10.9785
經藏	-10.9785
一首	-10.9787
數百人	-10.9787
兩卷	-10.9788
送至	-10.9789
之數	-10.9793
神化	-10.9794
來參	-10.9795
有娠	-10.9797
始末	-10.9797
籙	-10.9797
法流	-10.9798
婆羅	-10.9799
其首	-10.9799
髓	-10.9801
或見	-10.9805
宦	-10.9806
隘	-10.9806
二寺	-10.9807
以問	-10.9809
所宜	-10.9809
萬億	-10.9811
貲	-10.9813
璨	-10.9813
常州	-10.9816
入海	-10.9817
之要	-10.9818
烹	-10.9821
目錄	-10.9824
闡提	-10.9828
俱舍	-10.9828
有箇	-10.983
十誦	-10.9831
一夜	-10.9833
年十七	-10.9836
壽六十	-10.9837
以至	-10.9837
龍潭	-10.9842
又言	-10.9842
即此	-10.9843
幽州	-10.9844
青衣	-10.9844
城門	-10.9848
歸家	-10.9849
下山	-10.9851
果得	-10.9854
葬之	-10.9859
久住	-10.986
孰能	-10.9862
何在	-10.9863
道經	-10.9863
苦節	-10.9865
藥王	-10.9866
平時	-10.9866
置於	-10.9866
字子	-10.9868
一體	-10.9868
髻	-10.9872
未之	-10.9872
二十七年	-10.9872
即見	-10.9876
蔑	-10.9877
樊	-10.9882
末法	-10.9882
炙	-10.9884
仆	-10.9884
蘿	-10.9885
沐浴更衣	-10.9887
詆	-10.9887
歲時	-10.9888
發菩提心	-10.9889
云爾	-10.9889
祝曰	-10.989
異香滿室	-10.9891
諸州	-10.9892
剝	-10.9892
元來	-10.9895
州郡	-10.9897
山曰	-10.9898
而知	-10.9899
意欲	-10.99
林下	-10.99
石窟	-10.9901
摩尼	-10.9901
不悟	-10.9903
十力	-10.9906
遠離	-10.9908
子弟	-10.9909
後事	-10.991
城北	-10.991
日夕	-10.991
百濟	-10.9914
二十七日	-10.9924
面目	-10.9929
辟支佛	-10.993
能為	-10.9931
止於	-10.9934
乃作	-10.9944
突厥	-10.9946
不修	-10.9947
為主	-10.9949
料	-10.9949
此時	-10.9952
義疏	-10.9952
佞	-10.9953
戍	-10.9954
百僚	-10.9954
梗	-10.9957
餉	-10.9959
零	-10.9959
着	-10.9961
所立	-10.9961
蜂	-10.9962
山居	-10.9966
汝何	-10.9969
遊學	-10.9969
道流	-10.997
聚落	-10.9972
不能自	-10.9973
聽之	-10.9978
時時	-10.998
五帝	-10.998
讀之	-10.998
每歲	-10.9982
自今	-10.9982
未足	-10.9983
牟子曰	-10.9985
六歲	-10.9985
姓名	-10.9987
滴	-10.999
一十	-10.9993
佇	-10.9995
第十	-10.9995
遞	-10.9997
老漢	-10.9999
年正月	-10.9999
處之	-11.0002
六人	-11.0006
臣聞	-11.0006
百人	-11.0009
海東	-11.001
此法	-11.0013
大和	-11.0015
懈怠	-11.0018
高昌	-11.002
因號	-11.0027
江淮	-11.0027
冶	-11.0029
拊	-11.003
正教	-11.0032
剃	-11.0034
一偈	-11.0034
杵	-11.0034
𨽻	-11.0037
袒	-11.0037
衡嶽	-11.0038
筌	-11.0038
瓦官寺	-11.0039
線	-11.0039
君親	-11.0039
淨因	-11.0041
延之	-11.0042
統紀	-11.0042
奔走	-11.0043
徙居	-11.0044
吾欲	-11.0046
个	-11.0046
腥	-11.0046
初生	-11.0048
莊嚴寺	-11.005
處也	-11.0058
丈室	-11.0062
於天	-11.0063
之與	-11.0063
其側	-11.0064
三峯	-11.0066
上疏	-11.0067
參差	-11.0074
隋開皇	-11.0075
元魏	-11.0076
為文	-11.0079
此兒	-11.0081
遂成	-11.0082
不妨	-11.0083
作是念	-11.0083
塔廟	-11.0084
隨眾	-11.0084
兒孫	-11.0085
主上	-11.0085
安在	-11.0086
大振	-11.0087
惶	-11.0088
喬	-11.0089
詵	-11.009
別立	-11.0091
何物	-11.0093
供佛	-11.0098
蠶	-11.0102
中印度	-11.0103
緯	-11.0103
紺	-11.0103
懲	-11.0104
矩	-11.0104
大寂	-11.0105
叶	-11.0105
炫	-11.0108
駕幸	-11.0109
讒	-11.0109
白王	-11.0111
醮	-11.0111
上生	-11.0115
忽遇	-11.0119
汙	-11.012
其聲	-11.012
一處	-11.0124
雲霧	-11.013
宛然	-11.0133
今見	-11.0134
驗之	-11.0135
幽明	-11.0138
分衛	-11.014
出俗	-11.0143
金石	-11.0152
復為	-11.0152
明白	-11.0155
太極	-11.0155
無始	-11.016
登山	-11.0162
二萬	-11.0164
□□	-11.0169
于此	-11.017
相州	-11.017
無疑	-11.0175
灼	-11.0176
餘杭	-11.0176
岫	-11.0177
天命	-11.0182
南屏	-11.0184
腦	-11.0185
僧也	-11.0186
金人	-11.0186
相公	-11.019
謚曰	-11.0194
之命	-11.0196
藍田	-11.0197
三藏法師	-11.0199
有兩	-11.02
九品	-11.0209
寺內	-11.021
問其	-11.0212
為什麼	-11.0215
即皇帝位	-11.0216
作大	-11.0218
不知所	-11.022
南天竺	-11.022
茫然	-11.0224
聽受	-11.0224
太史	-11.0225
優波毱多	-11.0232
大善	-11.0237
歸真	-11.024
復還	-11.0244
西土	-11.0246
始於	-11.0249
踊	-11.0251
檢校	-11.0252
領徒	-11.0253
諸惡	-11.0253
賁	-11.0254
勸請	-11.0254
意在	-11.0257
百二十	-11.0259
冬十月	-11.0259
置之	-11.0263
遊行	-11.0263
事畢	-11.0265
瘞	-11.0266
怕	-11.0268
大定	-11.0272
稱善	-11.0273
拾得	-11.0273
惡之	-11.0274
諸有	-11.0281
得解脫	-11.0283
講肆	-11.0284
一點	-11.0285
孰為	-11.0288
廣智	-11.0289
年十九	-11.029
高明	-11.0291
五世	-11.0297
微笑	-11.0298
寐	-11.03
幽顯	-11.0301
令我	-11.0301
傾心	-11.0301
僧等	-11.0302
三里	-11.0302
服之	-11.0303
降魔	-11.0304
付之	-11.0304
羯	-11.0304
同一	-11.0307
言下	-11.0313
建大	-11.0314
治之	-11.0315
謝靈運	-11.0319
終始	-11.0319
馱	-11.0319
豎	-11.0322
如雨	-11.0323
桀	-11.0323
泣曰	-11.0324
淑	-11.0325
平地	-11.0325
疾病	-11.0329
義學	-11.0329
煮	-11.0329
如佛	-11.033
大石	-11.0332
甦	-11.0334
不喜	-11.0336
真俗	-11.0339
大山	-11.0339
笛	-11.0344
薙染	-11.0344
將謂	-11.0345
諲	-11.0345
異僧	-11.0346
了義	-11.0349
淨行	-11.0352
異人	-11.0354
不勞	-11.0355
三種	-11.0356
枷	-11.0357
靈芝	-11.0361
衡山	-11.0362
澄觀	-11.0364
叩頭	-11.0366
怪之	-11.0366
滅之	-11.0369
日光	-11.0371
在彼	-11.0373
張氏	-11.0373
有沙門	-11.0375
自念	-11.0376
以報	-11.0376
嘉定	-11.0377
亦如是	-11.0379
此意	-11.0384
弑	-11.0386
裙	-11.0389
墮地	-11.0389
五十餘	-11.039
得疾	-11.039
則為	-11.0391
為是	-11.0393
高下	-11.0394
略無	-11.0394
東行	-11.0395
滿足	-11.0397
至尊	-11.0402
皆從	-11.0402
講演	-11.0404
梵夾	-11.0404
戈	-11.0406
博通	-11.0406
瑜	-11.0407
漠	-11.0408
拽	-11.0409
本是	-11.0409
殿前	-11.041
摘	-11.041
瑠璃	-11.0411
先有	-11.0411
驕	-11.0411
蠲	-11.0412
非真	-11.0413
卷下	-11.0413
版	-11.0414
世號	-11.0415
簾	-11.0415
後為	-11.0416
報云	-11.0416
崇信	-11.0416
裨	-11.0416
亦如	-11.0417
宼	-11.0418
杖錫	-11.0419
得脫	-11.042
聞異香	-11.0424
我欲	-11.0425
續高僧傳	-11.0426
舒州	-11.0427
閉目	-11.0428
風穴	-11.0429
後進	-11.043
欲為	-11.0432
如夢	-11.0433
自幼	-11.0438
寶積	-11.0438
悟道	-11.0447
資福	-11.045
天然	-11.0453
大曆	-11.0455
秪	-11.0456
郡人	-11.0457
僧祇	-11.0457
廓然	-11.046
瑞像	-11.0461
千歲	-11.0461
廣說	-11.0467
欲見	-11.0469
不知何	-11.047
手書	-11.047
阿彌陀	-11.0472
匱	-11.0479
見而	-11.0481
上方	-11.0481
戾	-11.0482
論語	-11.0482
葺	-11.0482
溟	-11.0484
分座	-11.0487
禮部	-11.0488
竈	-11.0489
開導	-11.0489
施主	-11.049
涕泣	-11.0498
糜	-11.0498
澗	-11.05
山龍	-11.0501
以明	-11.0502
俸	-11.0503
之福	-11.0504
佛舍利	-11.0506
者何	-11.0508
調達	-11.0511
打破	-11.0513
吾子	-11.0513
以此為	-11.0514
三尺	-11.0516
元豐	-11.0518
若非	-11.0519
乃命	-11.0522
布衣	-11.0524
睦	-11.0525
是一	-11.0525
頗有	-11.0525
南院	-11.0526
座主	-11.0527
尚書令	-11.0531
轉輪王	-11.0532
上書	-11.0538
乾道	-11.0538
受五戒	-11.054
正當	-11.0541
名教	-11.0542
之期	-11.0544
宗教	-11.0545
聖寺	-11.0549
師友	-11.055
無損	-11.0554
定業	-11.0554
若其	-11.0556
十九日	-11.0557
引見	-11.0558
恚	-11.0559
一面	-11.056
翠巖	-11.0561
昔者	-11.0562
歸之	-11.0563
滑	-11.0564
隻	-11.0565
罹	-11.0567
至若	-11.0572
道法	-11.0572
撤	-11.0573
禮誦	-11.0573
靈應	-11.0576
方外	-11.0576
三萬	-11.0577
世稱	-11.0578
之用	-11.0578
共相	-11.0578
天親	-11.0583
何須	-11.0584
相顧	-11.0588
常侍	-11.0594
酒肉	-11.0596
鼓山	-11.0602
毅	-11.0607
三世諸佛	-11.0608
中來	-11.0608
息心	-11.0608
當得	-11.0609
初見	-11.0611
上元	-11.0612
隨其	-11.0618
前代	-11.0618
鬚髮	-11.0619
稱名	-11.0621
失其	-11.0624
見一人	-11.0627
太常	-11.0627
既久	-11.0628
法化	-11.0629
又從	-11.0631
今為	-11.0631
言畢	-11.0633
踈	-11.0634
聖像	-11.0634
所司	-11.0636
羈	-11.0637
渥	-11.064
非所	-11.064
暹	-11.0641
入廬山	-11.0642
成帝	-11.0644
汝既	-11.0645
亦復如是	-11.0645
香水	-11.065
居焉	-11.0653
勤修	-11.0653
此等	-11.0654
藩	-11.0656
挈	-11.0657
左溪	-11.0658
人生	-11.0658
沙門僧	-11.0658
敷演	-11.0663
所施	-11.0666
金粟	-11.0668
焚身	-11.0675
至彼	-11.0675
實無	-11.0679
二十八日	-11.068
賜紫衣	-11.0683
高尚	-11.0683
五欲	-11.0683
舍利塔	-11.0683
龍池	-11.0688
賓主	-11.0689
豈無	-11.069
嘉興	-11.0691
誓曰	-11.0691
濱	-11.0693
坐具	-11.0696
南印度	-11.0699
曹洞	-11.0703
為作	-11.0706
佛堂	-11.0707
㲲	-11.0708
崇敬	-11.0709
宣和	-11.0709
莫敢	-11.0709
平元年	-11.071
擊之	-11.0712
出城	-11.0713
穩	-11.0714
豈以	-11.0717
禳	-11.0717
石塔	-11.0719
其功	-11.0723
婉	-11.0724
稀	-11.0726
趍	-11.0727
鵲	-11.0728
紹隆	-11.0729
香嚴	-11.073
腐	-11.0731
氈	-11.0732
斜	-11.0734
海上	-11.0735
箱	-11.0735
卿等	-11.0736
皎然	-11.0737
祭祀	-11.0739
法中	-11.0741
迭	-11.0745
證果	-11.0745
生安養	-11.0745
周氏	-11.0746
我師	-11.0746
危坐	-11.0748
肖	-11.0751
道成	-11.0751
有小	-11.0752
東歸	-11.0755
兩手	-11.0756
昨夜	-11.0757
起信	-11.0759
每以	-11.0764
念佛三昧	-11.0764
示人	-11.0767
龍山	-11.077
況復	-11.077
服其	-11.0772
名聞	-11.0773
自立	-11.0773
吳越王	-11.0776
二諦	-11.0778
婦女	-11.0778
玄風	-11.0781
本寺	-11.0786
天福	-11.0787
而致	-11.0788
不孝	-11.0789
甚處	-11.0789
一指	-11.0789
見僧	-11.079
應物	-11.0793
摩訶衍	-11.0797
漢書	-11.0797
夜中	-11.08
所問	-11.0801
回首	-11.0802
謹言	-11.0803
知事	-11.0803
之所以	-11.0804
之明	-11.0805
阿師	-11.0805
脂	-11.0805
膽	-11.0805
一宗	-11.0807
唄	-11.0808
苞	-11.0809
鑪	-11.081
興善寺	-11.081
最初	-11.0812
衷	-11.0812
晨夕	-11.0815
寂照	-11.0816
鍼	-11.0817
在乎	-11.0819
為此	-11.082
每有	-11.0821
白日	-11.0823
三下	-11.0824
及見	-11.0825
流轉	-11.0827
昆	-11.083
篤志	-11.0834
歸方丈	-11.084
漢地	-11.0843
天女	-11.0844
宗風	-11.0848
假名	-11.085
五六	-11.0851
至聖	-11.0852
諸生	-11.0854
何由	-11.0856
房中	-11.0857
二名	-11.0858
過於	-11.0858
諫曰	-11.086
此即	-11.0861
恒沙	-11.0862
我聞	-11.0864
章句	-11.0866
幽微	-11.0869
之報	-11.0869
上柱國	-11.0872
相從	-11.0877
天性	-11.0877
圜悟	-11.088
藥師	-11.0881
入見	-11.0887
厝	-11.089
宥	-11.0891
氣力	-11.0892
法海	-11.0892
了然	-11.0894
又勅	-11.0894
宗乘	-11.0898
楹	-11.0898
夜叉	-11.0899
不立	-11.09
葷	-11.0902
家世	-11.0903
率土	-11.0906
亦應	-11.0907
不減	-11.0908
受禪	-11.091
投之	-11.0911
神宗	-11.0911
之瑞	-11.0912
施行	-11.0917
幾何	-11.0917
皆由	-11.0922
隨處	-11.0923
之亂	-11.0923
精微	-11.0926
建業	-11.0926
信受	-11.0926
各自	-11.0928
從者	-11.093
當年	-11.0931
引入	-11.0934
帝幸	-11.0935
波旬	-11.0936
其能	-11.0937
去之	-11.0938
於法	-11.094
傳教	-11.0941
譜	-11.0943
師即	-11.0943
老病	-11.0944
不願	-11.0947
入朝	-11.0948
乾元	-11.0948
一下	-11.095
謂是	-11.095
亦猶	-11.0953
一如	-11.0956
處士	-11.0958
法也	-11.0959
〕-【	-11.096
此三	-11.0961
螺	-11.0963
七十二	-11.0964
荀	-11.0964
半月	-11.0965
諠	-11.0965
不爾	-11.0965
鎧	-11.0967
善男子	-11.0967
志在	-11.0969
二月十五日	-11.097
演說	-11.0972
掉	-11.0972
端坐而化	-11.0974
敞	-11.0974
雲中	-11.0974
得佛	-11.0975
墟	-11.0975
縈	-11.0976
兜率天	-11.0978
心生	-11.0978
四十里	-11.0981
甕	-11.0981
符堅	-11.0986
永興	-11.0988
四十八	-11.099
業報	-11.0991
于今	-11.0992
摩頂	-11.0993
我亦	-11.0994
經律論	-11.0997
尚有	-11.1
箇甚麼	-11.1001
之室	-11.1001
每見	-11.1005
節度	-11.1005
千餘里	-11.1006
龍興	-11.1008
問僧	-11.1009
上都	-11.101
華嚴寺	-11.1013
前行	-11.1015
之音	-11.1016
敬王	-11.102
隱顯	-11.1022
不避	-11.1023
得失	-11.1028
金光	-11.103
識得	-11.103
以奉	-11.1034
行事	-11.1036
白鶴	-11.1039
師遂	-11.104
殄	-11.1043
五道	-11.1043
艾	-11.1048
珠林	-11.105
致禮	-11.1052
箕	-11.1053
凋	-11.1053
隱士	-11.1054
無學	-11.1054
以相	-11.1054
皇甫	-11.1056
天雨	-11.1057
以資	-11.1057
醍醐	-11.1057
逞	-11.1062
世事	-11.1062
云是	-11.1062
販	-11.1063
入藏	-11.1063
神秀	-11.1064
能令	-11.1064
獄卒	-11.1065
筭	-11.1066
之位	-11.1066
春秋八十	-11.1068
斃	-11.1068
之首	-11.1072
真空	-11.1077
靈瑞	-11.1078
揆	-11.108
必以	-11.1082
可知矣	-11.1082
無恙	-11.1084
長短	-11.1086
如上	-11.1087
之君	-11.1087
一小	-11.1087
後身	-11.1088
議者	-11.1092
起居	-11.1094
楊都	-11.1094
聞巳	-11.1098
綸	-11.1102
相對	-11.1102
君王	-11.1104
所夢	-11.1108
本願	-11.1108
破戒	-11.1109
二曰	-11.111
佛果	-11.1111
許多	-11.1113
作此	-11.1113
▁明	-11.1113
良久曰	-11.1114
九江	-11.1115
無所不	-11.1116
年九十	-11.1124
劉氏	-11.1125
釐	-11.1129
廣慧	-11.1136
出自	-11.1136
彈曰	-11.1138
聦	-11.1138
今有	-11.1139
鐸	-11.1141
邸	-11.1142
劄	-11.1144
漲	-11.1146
咲	-11.1146
宿命	-11.1147
俞	-11.1153
璞	-11.1159
流汗	-11.1163
師子國	-11.1164
師便打	-11.1165
時也	-11.1167
報應記	-11.1169
佛菩薩	-11.117
秋七月	-11.1178
崇寧	-11.1184
開講	-11.1185
真覺	-11.1186
復生	-11.1187
未終	-11.1188
法衣	-11.119
以前	-11.119
得出	-11.1191
著論	-11.1191
會元	-11.1196
阿誰	-11.1197
普門品	-11.1198
見處	-11.1198
乃往	-11.1199
法顯	-11.1202
蜜多	-11.1204
眾請	-11.1204
未悟	-11.1204
導師	-11.1205
方始	-11.1205
無量壽佛	-11.1206
宋元嘉	-11.1208
不當	-11.1211
今朝	-11.1213
得聞	-11.1214
濯	-11.1214
繹	-11.1215
裳	-11.1216
褚	-11.1216
悋	-11.1219
上古	-11.122
已前	-11.122
侈	-11.1221
矧	-11.1222
盍	-11.1225
乃謂	-11.1226
昉	-11.1229
態	-11.1233
掇	-11.1234
為正	-11.1235
伏膺	-11.1239
僧祐	-11.124
百餘人	-11.124
二菩薩	-11.124
一切智	-11.1245
食時	-11.1247
九百	-11.1248
衡陽	-11.1252
可惜	-11.1256
中山	-11.1258
難以	-11.1259
善財	-11.126
苦樂	-11.1263
不能得	-11.1263
後魏	-11.1263
獲舍利	-11.1266
諸沙門	-11.1268
以供	-11.1269
」【	-11.1272
剎那	-11.1272
大旱	-11.1274
不下	-11.1274
乃自	-11.1276
兩街	-11.1276
王及	-11.1277
僧法	-11.1278
無所得	-11.1278
自覺	-11.1284
不現	-11.1285
即令	-11.1285
譬喻	-11.1286
後主	-11.1287
論一卷	-11.1293
應機	-11.1294
天禧	-11.1296
卦	-11.1299
篤信	-11.13
忽一日	-11.13
普度	-11.1301
妙理	-11.1301
聖跡	-11.1301
所疑	-11.1302
嵓	-11.1306
壽五十	-11.1308
沙門惠	-11.1309
道術	-11.1309
囑累	-11.1312
札	-11.1312
問何	-11.1313
無念	-11.1314
冰	-11.1315
鎮州	-11.1317
還宮	-11.1321
更相	-11.1323
枯木	-11.1323
觀音大士	-11.1323
終無	-11.1324
黃巾	-11.1324
至人	-11.1325
天眼	-11.1326
旃檀	-11.1326
南康	-11.1327
僧伽藍	-11.1327
如幻	-11.1328
大似	-11.133
神功	-11.1332
飲之	-11.1332
姚興	-11.1333
即遣	-11.1334
化緣	-11.1336
風流	-11.1337
敬重	-11.1338
孺	-11.1339
以大	-11.1341
戒本	-11.1346
萬國	-11.1346
傍有	-11.1348
不昧	-11.1352
錢塘人	-11.1353
太清	-11.1357
龍華	-11.1362
四王	-11.1364
之資	-11.1365
張公	-11.1367
拭	-11.1377
妙覺	-11.1378
清河	-11.138
飜	-11.1382
意旨如何	-11.1382
通身	-11.1383
帝為	-11.1383
潯陽	-11.1383
請居	-11.1384
天台山	-11.1384
數里	-11.1384
今年	-11.1384
當下	-11.1384
!	-11.1385
當陽	-11.1386
鴿	-11.1386
甞有	-11.1386
桓玄	-11.1388
勿令	-11.1389
結茅	-11.1389
吾教	-11.139
獨坐	-11.1392
老聃	-11.1392
道得	-11.1393
便出	-11.1394
趺	-11.1394
修證	-11.1396
竿	-11.1397
􂎫	-11.1398
博士	-11.1401
瞑	-11.1402
都尉	-11.1406
服膺	-11.1412
前世	-11.1414
燒身	-11.1417
經七日	-11.1419
有八	-11.1423
居此	-11.1424
院主	-11.1426
佛是	-11.1426
僖宗	-11.1427
法花	-11.1428
與同	-11.1433
興善	-11.1434
絕倫	-11.1435
形容	-11.1438
主者	-11.1442
言行	-11.1443
賜紫	-11.1443
師至	-11.1447
汴	-11.1448
工夫	-11.1449
梵文	-11.145
以金	-11.1452
昭宗	-11.1452
會曰	-11.1454
修淨土	-11.1459
下生	-11.1459
萬乘	-11.146
昱	-11.1461
為物	-11.1468
瑗	-11.1468
戒定慧	-11.1468
暠	-11.1469
技	-11.1469
日課	-11.1472
其室	-11.1473
慕容	-11.1475
又何	-11.1475
形貌	-11.1475
琦	-11.1476
瓦礫	-11.1477
脈	-11.1478
凍	-11.1479
蟻	-11.1479
駝	-11.1479
庠	-11.1481
未久	-11.1481
瘦	-11.1482
其大	-11.1483
因即	-11.1487
聖王	-11.1487
甞與	-11.1488
牌	-11.149
猴	-11.1491
之分	-11.1492
功成	-11.1493
馬氏	-11.1495
神氣	-11.1498
不虛	-11.1498
或言	-11.1499
太武	-11.1499
法華三昧	-11.1499
佛光	-11.15
靈鷲	-11.15
五載	-11.1502
因明	-11.1503
望見	-11.1503
寶珠	-11.1503
為惡	-11.1503
與僧	-11.1507
為世	-11.1508
賓客	-11.1515
不窮	-11.1516
之尊	-11.1522
佛意	-11.1522
四世	-11.1523
天柱	-11.1523
居山	-11.1527
賦詩	-11.1527
月二十三日	-11.1528
給侍	-11.1529
三祖	-11.153
尊像	-11.1531
行法	-11.1532
疑其	-11.1532
師兄	-11.1535
眼目	-11.1536
是真	-11.1538
南京	-11.1539
死後	-11.1539
所不能	-11.154
進退	-11.1544
尚未	-11.1548
為太子	-11.1548
民間	-11.155
說偈言	-11.155
既有	-11.1553
揀	-11.1555
奉迎	-11.1555
放之	-11.1557
虹	-11.1558
後居	-11.1558
讎	-11.1559
有六	-11.156
萎	-11.1563
獲免	-11.1566
洗浴	-11.1567
調伏	-11.1567
勁	-11.1568
令旨答	-11.1568
禪經	-11.1569
搏	-11.1571
𡨥	-11.1573
悟入	-11.1573
長樂	-11.1573
流涕	-11.1573
度僧尼	-11.1575
盛德	-11.1576
聖壽	-11.1578
一作	-11.1578
手中	-11.1578
孝子	-11.158
致使	-11.1582
應時	-11.1585
證義	-11.1586
演法	-11.1588
正道	-11.1589
陞堂	-11.1589
還歸	-11.159
伏願	-11.1591
漸漸	-11.1591
顆	-11.1592
亦當	-11.1593
少頃	-11.1596
請和尚	-11.1596
一眾	-11.1596
失之	-11.1601
之方	-11.1601
不納	-11.1603
僧史	-11.1603
便去	-11.1604
不移	-11.1604
一夕夢	-11.1605
四句	-11.1606
人壽	-11.1608
無差	-11.1609
慟	-11.161
和元年	-11.1616
開士	-11.1618
普濟	-11.1621
無虧	-11.1622
件	-11.1622
增減	-11.1622
而亡	-11.1624
何緣	-11.1625
參學	-11.1626
內道場	-11.1626
村人	-11.1628
無滯	-11.1629
晨起	-11.1631
色身	-11.1632
示其	-11.1632
一條	-11.1635
澡	-11.1636
一百七十	-11.1636
瞋恚	-11.1637
嶺南	-11.1637
不敬	-11.1638
之民	-11.1641
永樂	-11.1642
棄去	-11.1642
造次	-11.1642
同居	-11.1643
教義	-11.1645
濬	-11.1645
岱	-11.1645
過此	-11.1647
興福	-11.1647
從事	-11.1648
缾	-11.1649
瀉	-11.1651
遊歷	-11.1651
不甚	-11.1652
人世	-11.1653
吝	-11.1653
太虗	-11.1653
既成	-11.1654
嘉祐	-11.1655
矚	-11.1656
肅然	-11.1656
大略	-11.1656
莫知其	-11.1657
賑	-11.1657
如舊	-11.1658
經義	-11.166
後唐	-11.166
煎	-11.1662
於洛陽	-11.1663
眇	-11.1667
租	-11.1667
即與	-11.1668
五濁	-11.1668
人主	-11.1669
陀羅	-11.1669
吉州	-11.167
不逮	-11.1671
薙落	-11.1671
三途	-11.1672
西去	-11.1672
教主	-11.1672
佛塔	-11.1675
飛來	-11.1677
坐脫	-11.1684
色界	-11.1685
人見	-11.1688
十二卷	-11.1689
修福	-11.169
四十九年	-11.169
之形	-11.1697
宗廟	-11.1701
睿宗	-11.1701
可愛	-11.1701
指歸	-11.1701
西河	-11.1702
漢明	-11.1703
本師	-11.1703
願為	-11.1706
後還	-11.1707
達觀	-11.1708
百餘卷	-11.1708
弘濟	-11.1708
必須	-11.1713
有過	-11.1718
其類	-11.1721
山東	-11.1722
却問	-11.1725
遂於	-11.173
饒益	-11.1735
聽經	-11.1735
佑	-11.1736
跋摩	-11.1738
齊王	-11.1738
不廢	-11.1738
津梁	-11.1739
唐書	-11.174
躁	-11.1743
濤	-11.1745
杉	-11.1745
憲章	-11.1746
不亂	-11.1748
其源	-11.1748
攘	-11.1749
梵云	-11.1749
溝	-11.1751
寺門	-11.1754
此義	-11.1758
有一僧	-11.1758
瑞相	-11.1761
同參	-11.1763
竹園	-11.1764
之樂	-11.1766
所學	-11.1767
王位	-11.1768
全無	-11.1769
是夜	-11.177
賢愚	-11.177
發言	-11.1773
乃得	-11.1773
諸苦	-11.1774
得入	-11.1775
盡其	-11.1776
不傷	-11.1776
而居	-11.1779
以施	-11.1783
慈心	-11.1783
神照	-11.1785
尚不	-11.1785
獨步	-11.1787
刻石	-11.1787
無物	-11.1788
為名	-11.1789
有德	-11.1797
天竺沙門	-11.1797
恐怖	-11.1801
修羅	-11.1803
非凡	-11.1805
因甚	-11.181
亦能	-11.181
雖然如是	-11.1811
序曰	-11.1811
口誦	-11.1812
現形	-11.1814
賜名	-11.1816
相遇	-11.1816
翊	-11.1818
城人	-11.1818
遺法	-11.1822
國有	-11.1825
恒河沙	-11.1825
之側	-11.1826
度眾生	-11.1826
阿修羅	-11.1827
鵝	-11.1829
媚	-11.183
瓌	-11.1831
澹	-11.1832
泓	-11.1832
靄	-11.1834
它	-11.1834
祥雲	-11.1835
隕	-11.1835
栽	-11.1835
▁法	-11.1836
講道	-11.1837
釘	-11.184
爭奈	-11.184
和尚住	-11.1842
及以	-11.1842
日輪	-11.1843
乃可	-11.1844
圃	-11.1845
祖道	-11.1845
簷	-11.1846
峯頂	-11.1847
道光	-11.1848
月八日	-11.1849
常樂	-11.1849
國主	-11.185
于地	-11.1852
忽起	-11.1852
然燈	-11.1853
不懈	-11.1854
又作	-11.1854
有奇	-11.1854
去世	-11.1854
斬之	-11.1855
令出家	-11.1857
放逸	-11.1861
四事	-11.1864
羅浮	-11.1867
土木	-11.1868
吾所	-11.1868
一何	-11.1868
講涅槃	-11.1868
萬古	-11.1872
此何	-11.1878
無倦	-11.1879
亦未	-11.188
具陳	-11.1881
行香	-11.1881
疆	-11.1883
鐫	-11.1884
外護	-11.1884
起於	-11.1886
聞其名	-11.1888
呼曰	-11.189
覺而	-11.189
噉食眾生是	-11.189
如有	-11.1892
籤	-11.1894
子云	-11.1895
中外	-11.1895
論道	-11.1897
目為	-11.1897
孝武	-11.19
佛隴	-11.1901
鏤	-11.1903
沛	-11.1906
高聲	-11.1906
少室	-11.1907
南有	-11.1908
聽吾偈曰	-11.1908
崔浩	-11.191
性空	-11.191
水上	-11.1912
魄	-11.1916
經歷	-11.1916
嚼	-11.1916
眾苦	-11.1917
姜	-11.1918
溥	-11.1918
度之	-11.192
翰林學士	-11.1921
銕	-11.1923
竅	-11.1923
繒	-11.1923
其高	-11.1924
詰之	-11.1924
法護	-11.1924
醫藥	-11.1925
上天	-11.1926
社稷	-11.1927
九部	-11.1928
光相	-11.1931
匝	-11.1933
無功	-11.1933
呼之	-11.1934
可畏	-11.1935
下詔曰	-11.1935
隨順	-11.1938
寶蓋	-11.1938
六通	-11.1941
生生	-11.1946
佛印	-11.1951
唱言	-11.1951
韶州	-11.1952
萬機	-11.1952
遺書	-11.1953
謂其徒曰	-11.1956
金玉	-11.1959
永徽	-11.1962
一期	-11.1967
法音	-11.1972
容貌	-11.1973
邏	-11.1975
以詩	-11.1978
訪道	-11.1979
其行	-11.198
佛生	-11.1981
辭眾	-11.1982
身長	-11.1983
天界	-11.1985
不虗	-11.1987
布袋	-11.1992
養之	-11.1992
時彼	-11.1993
懺法	-11.1995
金錢	-11.1995
莫有	-11.1996
惡人	-11.1997
輯	-11.1997
問法	-11.1997
巍巍	-11.1997
給事	-11.1999
二種	-11.1999
腋	-11.2
有言	-11.2
始自	-11.2001
召入	-11.2001
西晉	-11.2005
放大光明	-11.2006
而進	-11.2007
惰	-11.2007
諸大	-11.2008
佛圖澄	-11.2011
厥後	-11.2011
待之	-11.2013
魅	-11.2015
天花	-11.2015
鹽官	-11.2016
都不	-11.2017
洒	-11.2017
北臺	-11.2018
汝身	-11.2019
痕	-11.202
又夢	-11.2021
賚	-11.2023
達于	-11.2023
足矣	-11.2024
▁慧	-11.2024
流淚	-11.2024
復往	-11.2026
福寺	-11.2026
之機	-11.2027
萬世	-11.2028
郢	-11.2033
君之	-11.2035
冬夏	-11.2036
十載	-11.2036
十數	-11.204
而食	-11.2042
分付	-11.2042
月十二日	-11.2043
保寧	-11.2044
大和上	-11.2045
沙門智	-11.2045
言已	-11.2046
年月	-11.2051
何等	-11.2055
聰慧	-11.2059
直至	-11.2062
左手	-11.2063
閑居	-11.2063
應之	-11.2064
論之	-11.2066
知名	-11.2069
入中國	-11.2069
累日	-11.2071
三度	-11.2072
禮義	-11.2073
大陽	-11.2077
使其	-11.2077
諸君	-11.2078
此一	-11.208
光中	-11.2086
遂令	-11.2087
來世	-11.2088
語之曰	-11.2089
勝業	-11.2089
疇	-11.209
之塔	-11.2092
然之	-11.2092
克勤	-11.2092
第三子	-11.2095
之孫	-11.2095
勝鬘	-11.2096
三十九	-11.2096
得旨	-11.2098
迦羅	-11.2099
汁	-11.2101
始皇	-11.2103
化佛	-11.2103
臧	-11.2104
吁	-11.2105
殫	-11.2106
皐	-11.2107
尹喜	-11.2108
庇	-11.2109
萬卷	-11.2109
一毫	-11.2111
其體	-11.2111
淨覺	-11.2111
皂	-11.2111
宛轉	-11.2111
二里	-11.2112
悶	-11.2112
異於	-11.2113
建中	-11.2114
剃染	-11.2114
扉	-11.2114
權實	-11.2116
乃復	-11.2116
需	-11.2116
法主	-11.2117
慎勿	-11.2125
舊名	-11.2126
歲次	-11.2129
大赦	-11.213
上聞	-11.2131
▁梁	-11.2132
入此	-11.2133
思之	-11.2134
天衣	-11.2136
第一義	-11.2141
住此	-11.2144
流出	-11.2145
年十四	-11.2145
明明	-11.2145
六十四	-11.2147
奠	-11.2148
所證	-11.215
之重	-11.2152
惑眾	-11.2156
視其	-11.2157
一音	-11.2158
於言下	-11.2158
至長安	-11.2161
講論	-11.2165
靈骨	-11.2165
無法	-11.2169
聖人也	-11.2169
所記	-11.2173
佛書	-11.2175
不加	-11.2175
必能	-11.2176
中有一	-11.218
不肖	-11.2181
人身	-11.2182
之季	-11.2184
誓不	-11.2185
倣	-11.2187
三十餘里	-11.2187
為尼	-11.2187
蟒	-11.2188
上皇	-11.2188
株	-11.2189
茹	-11.219
脣	-11.219
肌	-11.219
禪悅	-11.2191
爇	-11.2192
奉安	-11.2193
燎	-11.2194
來儀	-11.2194
盟	-11.2195
婚	-11.2196
布薩	-11.2198
商主	-11.2199
迂	-11.2199
芒	-11.22
洛京	-11.2201
聲教	-11.2201
什公	-11.2202
施之	-11.2203
請於	-11.2204
崇禎	-11.2205
而滅	-11.2206
衿	-11.2207
四天下	-11.2208
訊	-11.2208
築室	-11.221
艸	-11.2213
於今	-11.2214
翕然	-11.2216
旦夕	-11.2217
今人	-11.2218
善友	-11.2218
中路	-11.2219
清虛	-11.2222
吾以	-11.2224
施食	-11.2225
扶風	-11.2226
法和	-11.223
野人	-11.2232
菴主	-11.2235
保福	-11.2235
五百年	-11.2237
中夏	-11.2239
景雲	-11.2239
出家學道	-11.2239
諸書	-11.224
良久云	-11.224
南無	-11.224
禪學	-11.2241
佛記	-11.2242
施者	-11.2243
財物	-11.2245
疑之	-11.2245
以手指	-11.2246
於西	-11.2251
初出	-11.2251
轉讀	-11.2252
為國師	-11.2253
當於	-11.2253
北有	-11.2253
歸於	-11.2255
吏曰	-11.2257
淺深	-11.2257
之典	-11.2258
三十四	-11.2259
始也	-11.226
亦何	-11.2261
則其	-11.2261
其弟	-11.2269
椀	-11.227
如是等	-11.2273
來朝	-11.2276
師因僧問	-11.2276
甞問	-11.2281
白佛	-11.2282
有物	-11.2284
姑臧	-11.2287
有問	-11.2287
亦得	-11.2287
▁釋	-11.2289
猛獸	-11.229
鋤	-11.2291
隊	-11.2292
大慈恩寺	-11.2292
袪	-11.2292
鄴都	-11.2296
憾	-11.2296
遯	-11.2297
年少	-11.2298
胡人	-11.2298
炷香	-11.2299
唐太宗	-11.23
拆	-11.2301
尚在	-11.2301
大觀	-11.2305
當作	-11.2306
手持	-11.2309
即起	-11.231
煑	-11.231
莫知所	-11.2311
相逢	-11.2316
殷勤	-11.2316
大象	-11.2317
在何處	-11.2318
一大	-11.2324
離俗	-11.2325
寶應	-11.2326
江湖	-11.2326
山人	-11.2327
天華	-11.233
數月	-11.233
宣揚	-11.2332
妙用	-11.2333
來問	-11.2334
第二出	-11.2334
驚怖	-11.2341
氏族	-11.2341
甚矣	-11.2342
真佛	-11.2344
避地	-11.2344
非但	-11.2344
應聲	-11.2346
久遠	-11.2349
一味	-11.2349
其王	-11.2354
上帝	-11.2356
愛之	-11.2357
竹林寺	-11.2357
留之	-11.2359
沙門曇	-11.236
忽於	-11.236
時阿育王	-11.2361
有罪	-11.2363
來日	-11.2371
不落	-11.2373
之益	-11.2374
以致	-11.2378
視聽	-11.2381
物外	-11.2381
舅	-11.2383
屑	-11.2384
盞	-11.2384
鑰	-11.2386
餞	-11.2387
其略曰	-11.2388
莊周	-11.2389
數載	-11.2389
笏	-11.2394
研究	-11.2396
不道	-11.2399
人不	-11.24
𢹂	-11.2403
斯則	-11.2404
百有餘	-11.2409
易之	-11.2413
太虛	-11.2414
天台教	-11.2414
實有	-11.2416
中天	-11.2417
佛出世	-11.2417
此論	-11.2417
火宅	-11.2418
諸賢	-11.2429
升堂	-11.2432
持律	-11.2433
能行	-11.2434
青龍	-11.2435
所由	-11.2436
或時	-11.2436
故今	-11.2437
願師	-11.2439
高士	-11.2441
僚	-11.2443
閻羅王	-11.2447
而過	-11.2448
人中	-11.2449
日久	-11.2449
成一	-11.2452
實為	-11.2454
定光	-11.2454
故號	-11.2454
撰碑	-11.2455
開發	-11.2455
是如來	-11.2456
在什麼處	-11.2461
三國	-11.2463
隨從	-11.2463
挍	-11.2465
救護	-11.2465
懊惱	-11.2465
信向	-11.2466
一百五十	-11.247
畝	-11.247
自見	-11.2472
禮之	-11.2473
禿	-11.2474
心中	-11.2474
既非	-11.2476
立碑	-11.2477
阮	-11.2478
髣髴	-11.2479
咬	-11.2481
砂	-11.2481
怯	-11.2483
樸	-11.2484
喫飯	-11.2484
囂	-11.2484
慧光	-11.2485
會得	-11.2485
萬餘	-11.2485
聆	-11.2486
十方諸佛	-11.2486
凡三	-11.2487
欲識	-11.2488
作亂	-11.2489
領眾	-11.2491
於物	-11.2492
金帛	-11.2495
還復	-11.2496
遣中使	-11.2496
之善	-11.2498
何耶	-11.2498
源流	-11.2498
別號	-11.2498
相國寺	-11.25
善導	-11.25
剃度	-11.2502
不祥	-11.2504
聽講	-11.2506
訝	-11.2508
慧林	-11.2515
念觀音	-11.2516
昔在	-11.2518
七十餘	-11.2519
其要	-11.252
忽見一	-11.253
先帝	-11.253
三百六十	-11.2534
黑白	-11.2535
雷震	-11.2536
三毒	-11.2539
菓	-11.2541
講涅槃經	-11.2542
所修	-11.2543
五品	-11.2544
奉表	-11.2545
而欲	-11.2548
南臺	-11.2549
三千大千世界	-11.2549
一塵	-11.2549
講授	-11.2551
設會	-11.2558
是人	-11.2559
四遠	-11.256
中臺	-11.2561
城外	-11.2562
天祐	-11.2562
覃	-11.2563
念金剛經	-11.2565
遠法師	-11.2565
蓋以	-11.2565
後入	-11.2566
從前	-11.2566
而可	-11.2567
是大	-11.2567
鎔	-11.2567
泗州	-11.2567
遺教	-11.2567
巳上	-11.2569
中丞	-11.2569
授與	-11.257
殊勝	-11.257
複	-11.2571
駢	-11.2571
華山	-11.2572
劈	-11.2572
臯	-11.2573
咸謂	-11.2575
五十三	-11.2575
翅	-11.2575
紳	-11.2578
弭	-11.258
尊卑	-11.2581
太白	-11.2582
苦惱	-11.2584
世有	-11.2585
法教	-11.2586
中人	-11.2587
堂宇	-11.2588
奉全身	-11.2589
之矣	-11.2589
斷絕	-11.2589
廬陵	-11.2589
善人	-11.259
不平	-11.2591
莊老	-11.2591
辭親	-11.2593
棲賢	-11.2593
今既	-11.2596
生緣	-11.2598
坐夏	-11.26
故經云	-11.2601
後代	-11.2603
玄義	-11.2604
丈餘	-11.2604
殿下	-11.2607
於外	-11.2615
為最	-11.2618
道風	-11.2623
日中	-11.2623
馬大師	-11.2623
性海	-11.2624
州牧	-11.2624
昭覺	-11.2625
清泰	-11.2626
後不知所終	-11.2626
流血	-11.2627
真性	-11.2627
道化	-11.2628
寺東	-11.263
加趺	-11.263
杯	-11.263
惜哉	-11.2631
武林	-11.2631
石橋	-11.2633
請佛	-11.2635
趂	-11.2635
世世	-11.2635
開門	-11.2636
非其	-11.2637
勝負	-11.2637
中興寺	-11.264
方可	-11.2641
還鄉	-11.2643
每於	-11.2645
北行	-11.2645
論者	-11.2648
信士	-11.2649
其次	-11.265
究其	-11.265
此名	-11.2652
今已	-11.2656
荼	-11.2656
代云	-11.2658
寢疾	-11.2659
會下	-11.2659
大風	-11.2662
不得巳	-11.2663
抃	-11.2664
其居	-11.2665
西林	-11.2665
皇太后	-11.2665
彊	-11.2666
吠	-11.2667
冕	-11.2667
大部	-11.2668
出去	-11.2668
犍	-11.2668
二十里	-11.2668
悽	-11.2669
至極	-11.2669
誰知	-11.267
宇宙	-11.2672
舡	-11.2672
廩	-11.2674
顧視	-11.2676
濡	-11.2676
》,	-11.2677
袋	-11.2677
娠	-11.2678
啞	-11.268
攬	-11.2681
茫茫	-11.2681
愿	-11.2681
復至	-11.2684
何言	-11.2684
溫州	-11.2686
四教	-11.2688
自說	-11.2689
皆云	-11.269
嘿	-11.269
近日	-11.2692
▁僧	-11.2693
之道也	-11.2694
婺州	-11.2695
作麼生是	-11.2697
佛化	-11.2697
法義	-11.2698
奏請	-11.2699
昔如來	-11.2708
一篇	-11.271
今生	-11.271
祠部	-11.271
道業	-11.2713
惡趣	-11.2715
以禮	-11.2717
其宗	-11.2717
祈禱	-11.2718
田地	-11.2723
山有	-11.2725
兩人	-11.2727
前有	-11.2727
之高	-11.273
三百餘	-11.2731
繩床	-11.2732
九卷	-11.2733
紫金	-11.2734
王乃	-11.2734
卷第一	-11.2737
十住	-11.2739
已得	-11.2745
行路	-11.2746
樞密	-11.2746
得非	-11.2753
我見	-11.2755
七尺	-11.2756
企	-11.2757
馴	-11.2759
嶮	-11.276
舉前話	-11.276
稱佛名	-11.2761
方來	-11.2762
杳	-11.2763
脉	-11.2763
穹	-11.2764
椒	-11.2765
奉旨	-11.2765
靈感	-11.2766
逗	-11.2767
寅	-11.2769
白居易	-11.2769
供施	-11.2771
漢魏	-11.2772
汲引	-11.2773
睹	-11.2773
隨方	-11.2775
酸	-11.2775
問師	-11.2775
達者	-11.2776
三代	-11.2776
衙	-11.2777
圍遶	-11.2777
胸中	-11.278
重譯	-11.2781
慧觀	-11.2781
宮人	-11.2782
蒨	-11.2787
隴西	-11.2788
九世	-11.2788
於朝	-11.2789
五百人	-11.2789
湛堂	-11.279
陳留	-11.2793
實際	-11.2795
有能	-11.2797
玄妙	-11.2799
千數	-11.28
其口	-11.2803
物之	-11.2805
釋惠	-11.2806
端嚴	-11.2807
梵書	-11.281
撫州	-11.2811
家貧	-11.2812
等事	-11.2815
摩耶	-11.2817
取捨	-11.2818
其日	-11.2818
造作	-11.2819
五行	-11.282
冀州	-11.2823
聚徒	-11.2823
相次	-11.2824
有感	-11.2829
常行	-11.2831
莫測其	-11.2831
以為常	-11.2833
肝	-11.2833
歎異	-11.2834
六塵	-11.2837
經法	-11.2838
惟有	-11.2839
六十餘	-11.284
在其中	-11.284
出家人	-11.284
指南	-11.2841
毀之	-11.2843
五色雲	-11.2844
一道	-11.2846
悲夫	-11.2846
書生	-11.2846
越之	-11.2847
安心	-11.2848
者甚眾	-11.2848
智通	-11.2849
驀	-11.285
四門	-11.2852
禪師諱	-11.2852
之稱	-11.2852
深遠	-11.2855
貴人	-11.2856
夜則	-11.2856
與道	-11.2856
十四卷	-11.2857
聃	-11.2858
孝經	-11.2858
有識	-11.2859
即命	-11.2863
鸚鵡	-11.2865
不到	-11.2865
未成	-11.2868
救之	-11.2868
化胡經	-11.2869
還俗	-11.287
甚眾	-11.2871
紫衣	-11.2871
不覩	-11.2871
義也	-11.2871
二十九年	-11.2872
鈎	-11.2873
往昔	-11.2875
不可勝數	-11.2875
郎中	-11.2875
有生	-11.2875
哥	-11.2875
景福	-11.2876
為侍者	-11.2877
語默	-11.2877
謂左右曰	-11.2882
須知	-11.2882
遂即	-11.2883
之主	-11.2885
󰢍	-11.2885
烽	-11.2886
氣絕	-11.2887
店	-11.2889
八九	-11.2891
生死之	-11.2891
崑山	-11.2893
不語	-11.2896
受報	-11.2896
群品	-11.2897
執事	-11.29
焚燒	-11.2901
目擊	-11.2902
建興	-11.2904
到處	-11.2905
釋之	-11.2907
庭前	-11.2907
下語	-11.2908
大劫	-11.2908
萬戶	-11.2909
汝是	-11.2909
具如	-11.291
玄理	-11.2916
王命	-11.2917
佛也	-11.2917
異也	-11.2918
休去	-11.2922
重閣	-11.2922
追之	-11.2926
復次	-11.2926
訪之	-11.2928
廢教	-11.2929
靈照	-11.2931
文學	-11.2932
通人	-11.2933
卓然	-11.2936
無病	-11.2936
行于世	-11.2939
年三月	-11.2941
其罪	-11.2941
一佛	-11.2942
入蜀	-11.2944
弘教	-11.2947
尚存	-11.2947
佛老	-11.2951
弘宣	-11.2952
法雨	-11.2953
得無	-11.2957
又令	-11.2957
河西	-11.2959
君父	-11.2959
山河大地	-11.2959
相接	-11.296
留意	-11.296
疫	-11.2961
聽其	-11.2962
尋訪	-11.2962
黷	-11.2964
恍	-11.2964
聿	-11.2965
祁	-11.2965
云我	-11.2966
如如	-11.2967
帆	-11.2967
瑤	-11.2971
鞠	-11.2971
智論	-11.2971
削髮	-11.2971
貳	-11.2972
鉅	-11.2973
對眾	-11.2974
幕	-11.2975
開化	-11.2975
饋	-11.2975
有云	-11.2977
首山	-11.2977
鞋	-11.2977
匣	-11.2978
未達	-11.2979
抑揚	-11.2979
羨	-11.298
是否	-11.2981
有若	-11.2982
隨之	-11.2984
重興	-11.2984
扁	-11.2984
地下	-11.2984
平昔	-11.2985
其經	-11.2985
說得	-11.2989
無故	-11.2993
形如	-11.2995
所殺	-11.2995
百王	-11.2997
迄今	-11.2998
僧寺	-11.2999
三門	-11.3003
將入	-11.3004
此像	-11.3007
本自	-11.3008
信者	-11.3009
絳	-11.301
說戒	-11.301
黎明	-11.3011
遺命	-11.3011
夢覺	-11.3015
在京	-11.3016
在甚處	-11.3018
存乎	-11.3021
穆宗	-11.3024
彌勒佛	-11.3024
恁麼道	-11.3026
記之	-11.3029
如彼	-11.3033
得意	-11.3034
以居之	-11.3037
為樂	-11.3038
豈不是	-11.3038
何益	-11.3039
初祖	-11.304
義熙	-11.3043
廢帝	-11.3043
國史	-11.3044
那箇	-11.3046
大都	-11.3046
俄見	-11.3048
百日	-11.3051
過之	-11.3052
秦主	-11.3052
化城	-11.3054
無主	-11.3055
永寧	-11.3056
沙汰	-11.3059
此僧	-11.306
惟願	-11.3063
陜	-11.3063
文中子	-11.3063
釁	-11.3064
綾	-11.3064
狄	-11.3067
誦習	-11.3068
液	-11.3068
之制	-11.3069
憎	-11.3069
屨	-11.3071
池中	-11.3072
宣律師	-11.3072
莫非	-11.3072
鄒	-11.3073
地藏菩薩	-11.3073
剗	-11.3073
分為	-11.3075
致之	-11.3075
得麼	-11.3075
僧寶傳	-11.3076
擁護	-11.3078
醇	-11.308
覿	-11.3081
奏云	-11.3082
啄	-11.3083
便下座	-11.3083
豁然大悟	-11.3083
恩愛	-11.3085
年老	-11.3087
禧	-11.309
曠劫	-11.3091
出離	-11.3092
甞曰	-11.3093
壽昌	-11.3093
永泰	-11.3094
發揮	-11.3095
與子	-11.3097
罪業	-11.3097
漢明帝	-11.3098
帝悅	-11.3099
身為	-11.31
吾徒	-11.3101
出塵	-11.3101
時諸	-11.3113
出遊	-11.3114
名稱	-11.3117
之具	-11.312
承當	-11.312
游方	-11.3123
佉	-11.3124
曰吾	-11.3128
三十里	-11.3134
未曾有	-11.3134
不存	-11.3136
覆之	-11.3139
中流	-11.314
繇是	-11.3141
不染	-11.3144
言其	-11.3145
二大士	-11.315
支那	-11.3152
用處	-11.3153
師子吼	-11.3155
毘盧遮那	-11.3157
以正	-11.3158
不載按佛祖統紀	-11.3159
定州	-11.316
為誰	-11.3163
積善	-11.3165
閭	-11.3167
彼土	-11.3167
轉輪聖王	-11.3167
穎	-11.3168
高安	-11.3168
信施	-11.3169
受罪	-11.317
知者	-11.3171
嶠	-11.3171
光宅	-11.3172
如流	-11.3172
及乎	-11.3175
求佛	-11.3175
宗匠	-11.3176
經籍	-11.3176
儞	-11.3176
𥨊	-11.3176
祥瑞	-11.3178
献	-11.3179
一切諸	-11.3182
所宗	-11.3184
日照	-11.3185
經年	-11.3187
試之	-11.3191
不稱	-11.3193
初學	-11.3194
慈恩寺	-11.3195
安可	-11.3196
罔極	-11.3198
帝親	-11.3199
恍然	-11.3199
二儀	-11.32
善法	-11.3201
圓融	-11.3203
習學	-11.3203
牧牛	-11.3203
經營	-11.3203
僧無對	-11.3204
至乎	-11.3205
今復	-11.3209
言巳	-11.3209
十種	-11.3212
頓首	-11.3214
於東	-11.3215
干戈	-11.3215
自他	-11.3217
又諮	-11.3217
不無	-11.3219
玄化	-11.3219
客曰	-11.3219
五蘊	-11.3222
得阿羅漢	-11.3223
監護	-11.3224
答之	-11.3224
船子	-11.3224
無染	-11.3226
面前	-11.3231
太始	-11.3232
菩薩像	-11.3232
普請	-11.3232
之侶	-11.3234
自己	-11.3234
然無	-11.3235
壽量	-11.3235
波若	-11.3238
世緣	-11.3239
尋陽	-11.324
言論	-11.3241
又為	-11.3242
長往	-11.3242
之過	-11.3244
大宋	-11.3246
頌云	-11.3247
東明	-11.3251
思議	-11.3251
不殊	-11.3257
有志	-11.3259
伎樂	-11.326
賓頭盧	-11.3261
不審	-11.3261
二十六日	-11.3262
青蓮	-11.3262
一切種智	-11.3263
卞	-11.3264
羅睺羅	-11.3265
焉能	-11.3266
些	-11.3269
侔	-11.3271
沙門玄奘	-11.3271
不墜	-11.3272
棟	-11.3273
倭	-11.3274
漚	-11.3275
觀音勢至	-11.3275
泉云	-11.3275
一口	-11.3276
話頭	-11.3276
所執	-11.3277
澡浴	-11.3278
授菩薩戒	-11.3279
四十餘	-11.3281
勸人	-11.3281
此亦	-11.3283
表曰	-11.3283
押	-11.3284
不可得而	-11.3285
哀帝	-11.3285
寂寥	-11.3286
轡	-11.3287
問佛	-11.3287
侍立	-11.3287
未是	-11.3289
德之	-11.329
堂內	-11.3292
最上	-11.3293
者是	-11.3293
大像	-11.3294
如何是佛	-11.3296
初不	-11.3296
內史	-11.3297
依法	-11.3297
天竺國	-11.3298
之作	-11.3299
弘贊	-11.3299
光孝	-11.3299
誦彌陀經	-11.3301
本州	-11.3303
寺額	-11.3304
含識	-11.3305
含靈	-11.3306
於茲	-11.3313
睦州	-11.3316
地上	-11.3316
迅	-11.3316
三七	-11.3318
巳得	-11.3319
行狀	-11.332
皇極	-11.3321
中無	-11.3325
為沙彌	-11.3331
玄微	-11.3332
其光	-11.3332
汝輩	-11.3334
五眾	-11.3335
都盡	-11.3335
柰	-11.334
而反	-11.3344
璽	-11.3345
本生	-11.3345
日本國	-11.3346
異乎	-11.3348
之神	-11.3349
望之	-11.3353
必死	-11.3354
甞以	-11.3354
和之	-11.3355
非吾	-11.3355
乎哉	-11.3357
仞	-11.3358
里人	-11.3359
隱於	-11.3361
門戶	-11.3361
神悟	-11.3364
月輪	-11.3364
說是	-11.3365
鳩摩羅什	-11.3365
口授	-11.3366
知音	-11.3367
時方	-11.3368
遊化	-11.3368
後果	-11.3369
佛弟子	-11.337
雌	-11.337
優婆夷	-11.337
圭	-11.3373
昶	-11.3376
之屬	-11.3377
終焉	-11.3377
叉手	-11.3378
招提	-11.3379
撞	-11.3379
眾共	-11.3379
毀佛	-11.3379
求其	-11.338
弦	-11.338
一歲	-11.3386
遺言	-11.3386
綏	-11.3388
開目	-11.3388
股	-11.339
願見	-11.3391
菽	-11.3391
涓	-11.3392
趺坐而化	-11.3392
炊	-11.3395
必先	-11.3398
須菩提	-11.3401
佛家	-11.3401
衣物	-11.3401
者三	-11.3403
三歸	-11.3404
歸信	-11.3404
則不然	-11.3408
為期	-11.3409
疏鈔	-11.3409
以充	-11.3411
取一	-11.3411
給事中	-11.3412
異域	-11.3412
一則	-11.3415
奉持	-11.3416
當自	-11.3417
太陽	-11.3417
住寺	-11.3419
制度	-11.342
大雄	-11.3421
唯心	-11.3421
僧會	-11.3422
心源	-11.3423
佛與	-11.3424
稱其	-11.3425
見二	-11.3426
嗟乎	-11.3429
還見	-11.3429
還國	-11.3433
聞佛	-11.3433
天道	-11.3434
其山	-11.3435
方欲	-11.3441
明德	-11.3442
勉之	-11.3443
入堂	-11.3444
海印	-11.3445
東有	-11.3446
西蜀	-11.3447
不墮	-11.3449
下至	-11.3451
當是時	-11.3451
銘曰	-11.3453
舊史	-11.3459
法筵	-11.346
出迎	-11.346
三宗	-11.3462
▁周	-11.3464
成之	-11.3467
更衣	-11.3469
誦呪	-11.347
不群	-11.3471
無怠	-11.3471
漁人	-11.3473
上堂曰	-11.3473
崇福寺	-11.3474
徐州	-11.3476
搭	-11.3476
代之	-11.3477
五代	-11.3479
罪過	-11.3479
杏	-11.3479
到來	-11.3479
側有	-11.3479
澄曰	-11.3481
闡化	-11.3481
滄海	-11.3482
蘆	-11.3483
而言曰	-11.3483
濃	-11.3484
隸	-11.3484
自思惟	-11.3484
罔措	-11.3485
居民	-11.3486
塗炭	-11.3486
鮑	-11.3487
毘曇	-11.3487
棹	-11.3489
德音	-11.3491
不敢違	-11.3491
諗	-11.3492
盛行	-11.3492
國內	-11.3494
而天下	-11.3494
起坐	-11.3495
飼	-11.3495
三五	-11.3496
住徑山	-11.3497
一滴	-11.3498
太初	-11.3498
以一	-11.3502
高峯	-11.3505
忻然	-11.3507
為教	-11.3507
初為	-11.3508
拂衣	-11.3509
其夕	-11.3513
家國	-11.3514
他方	-11.3514
作一	-11.3514
一笑	-11.3516
五穀	-11.3519
作甚麼	-11.352
判官	-11.3521
一品	-11.3523
遊山	-11.3524
普化	-11.3526
因事	-11.3526
龍神	-11.3531
雖在	-11.3532
必欲	-11.3533
▁卷	-11.3533
佛即	-11.3535
方寸	-11.3537
其在	-11.3539
自茲	-11.3541
幽冥	-11.3544
奉事	-11.3544
而況	-11.3544
先覺	-11.3546
問之曰	-11.3547
尊重	-11.3548
祿山	-11.3549
玉女	-11.3549
崇重	-11.3551
異同	-11.3552
漳	-11.3553
特賜	-11.3554
遣之	-11.3554
聞風	-11.3555
於長安	-11.3556
莊宗	-11.3556
當與	-11.356
其所以	-11.3561
娑	-11.3562
記曰	-11.3563
不載	-11.3566
羅山	-11.3566
天堂	-11.3567
陛	-11.3569
此去	-11.3571
九天	-11.3572
一夏	-11.3574
遇疾	-11.3575
先德	-11.3577
為首	-11.3578
大旨	-11.3578
遷都	-11.3578
芭蕉	-11.3579
且喜	-11.3581
貝葉	-11.3581
澈	-11.3582
簪	-11.3583
)【	-11.3583
積年	-11.3583
當今	-11.3586
如水	-11.3586
緬	-11.3587
鎻	-11.359
蟠	-11.359
敢不	-11.3591
重罪	-11.3591
民之	-11.3592
胡僧	-11.3594
心行	-11.3594
羣臣	-11.3595
望風	-11.3597
告之	-11.3597
復歸	-11.3598
欄	-11.3599
聻	-11.36
還都	-11.3601
佛滅後	-11.3605
有聞	-11.361
生知	-11.3611
祭酒	-11.3612
善能	-11.3612
不傳	-11.3612
天明	-11.3614
教乘	-11.3615
殿上	-11.3615
間有	-11.3616
汝於	-11.3618
僧房	-11.3619
萬言	-11.3621
明了	-11.3622
其衣	-11.3623
立精舍	-11.3624
周之	-11.3625
領悟	-11.3626
非唯	-11.3626
一子	-11.3627
崇福	-11.3628
之先	-11.363
有詔	-11.3635
見諸	-11.3638
五嶽	-11.3639
香積	-11.3642
同侶	-11.3644
紛然	-11.3644
通玄	-11.3647
神會	-11.3649
破壞	-11.3651
吳王	-11.3652
餘人	-11.3654
自已	-11.3656
為子	-11.3656
法侶	-11.3656
維摩經	-11.3659
林木	-11.366
惡道	-11.3661
為甚麼	-11.3662
洛下	-11.3663
朱氏	-11.3664
之別	-11.3665
又如	-11.3665
五明	-11.3665
火焚	-11.3666
─	-11.3667
為上	-11.3669
王所	-11.3669
雒陽	-11.367
莽	-11.367
不要	-11.367
深加	-11.3672
無道	-11.3675
近世	-11.3675
阿闍梨	-11.3676
紐	-11.3677
東來	-11.3679
芥	-11.3682
後遇	-11.3683
門前	-11.3683
慧命	-11.3683
至洛陽	-11.3683
菩提達磨	-11.3685
山河	-11.3686
女曰	-11.3686
曼	-11.3686
犢	-11.3687
趾	-11.3687
三王	-11.3688
道生	-11.3688
於諸	-11.3688
批	-11.3689
傅奕	-11.3689
殖	-11.3689
觀經	-11.369
黃蘗	-11.369
帝命	-11.3692
泄	-11.3694
引之	-11.3695
平王	-11.3695
往詣	-11.3695
湊	-11.3695
國清寺	-11.3696
舂	-11.3698
礪	-11.3699
歆	-11.3701
人知	-11.3701
羌	-11.3701
簫	-11.3702
五陰	-11.3703
感動	-11.3705
開元中	-11.3708
至山	-11.3708
悞	-11.3708
支遁	-11.3708
不差	-11.371
山南	-11.371
觀察使	-11.3712
照禪師	-11.3714
德光	-11.3715
大涅槃	-11.3715
智海	-11.3715
拈香	-11.3718
嘉靖	-11.3718
寺眾	-11.372
謙之	-11.372
山西	-11.3721
雖欲	-11.3721
六十卷	-11.3723
波利	-11.3725
臨行	-11.3726
明暗	-11.3726
瑕	-11.3727
一切諸法	-11.3728
年代	-11.3728
之暇	-11.3729
本名	-11.373
愛敬	-11.373
雙樹	-11.3733
圓相	-11.3733
所從來	-11.3734
報身	-11.3737
師既	-11.374
見一僧	-11.3742
嗣位	-11.3744
都講	-11.3744
海水	-11.3745
焉知	-11.3746
可往	-11.3749
絕粒	-11.375
主僧	-11.375
倏	-11.3753
大經	-11.3755
頂骨	-11.3756
善心	-11.3756
般若波羅蜜	-11.3756
初心	-11.3757
至其	-11.3758
法琳	-11.3758
口出	-11.3761
萬松	-11.3761
未出	-11.3761
內殿	-11.3764
三四	-11.3765
旃	-11.3766
崑崙	-11.377
數百年	-11.3771
講華嚴	-11.3772
要且	-11.3772
大乘經	-11.3773
驚起	-11.3774
為諸	-11.3776
講法華經	-11.3776
所明	-11.3777
京都	-11.3779
食訖	-11.378
主云	-11.378
莊王	-11.3782
來謁	-11.3782
謐	-11.3782
參究	-11.3782
首楞嚴	-11.3786
真常	-11.3786
放過	-11.3786
歸戒	-11.379
稱佛	-11.3791
慕道	-11.3791
來往	-11.3794
諸相	-11.3795
瑟	-11.3796
隆安	-11.3797
散騎常侍	-11.3798
不事	-11.38
中華	-11.38
舉頭	-11.3801
極多	-11.3805
所述	-11.3806
揣	-11.3807
堵	-11.3807
戢	-11.3807
正宗記	-11.3808
行住坐臥	-11.3808
汝但	-11.3809
穿鑿	-11.3809
規矩	-11.3811
伯陽	-11.3811
波斯	-11.3811
長夜	-11.3812
壺	-11.3812
厭世	-11.3813
大樹	-11.3813
明宗	-11.3813
年二月	-11.3813
卷上	-11.3814
韓愈	-11.3815
吾昔	-11.3816
凱	-11.3818
在甚麼處	-11.3818
無所見	-11.3818
輕慢	-11.3819
之辭	-11.382
逡巡	-11.382
將盡	-11.3823
天魔	-11.3823
一向	-11.3823
典籍	-11.3825
晞	-11.3827
各一	-11.3827
只為	-11.3829
白象	-11.383
吳主	-11.383
佛戒	-11.383
桑門	-11.3831
其生	-11.3836
歎其	-11.3836
百尺	-11.3837
天中	-11.3839
金剛窟	-11.3844
風雲	-11.3845
十方佛	-11.3846
攝心	-11.3846
為寺	-11.3851
山行	-11.3852
塔院	-11.3855
逐之	-11.3856
彌陀經	-11.3856
作麼生會	-11.3857
吾佛	-11.3858
真心	-11.386
以濟	-11.3864
書記	-11.3865
而已矣	-11.3865
中和	-11.3865
不有	-11.3866
請講	-11.3866
歸向	-11.3866
待制	-11.3868
願我	-11.3874
力故	-11.3874
吳中	-11.3874
財寶	-11.3875
神之	-11.3878
得來	-11.388
不論	-11.3883
大力	-11.3884
又與	-11.3885
聞師	-11.3885
獄中	-11.3886
明達	-11.3887
白鹿	-11.3888
七眾	-11.3889
出一	-11.3891
次年	-11.3891
三身	-11.3894
寰	-11.3898
契丹	-11.3899
不畏	-11.3899
山海	-11.3901
冏	-11.3902
謂為	-11.3902
錢氏	-11.3904
百餘里	-11.3905
勸令	-11.3905
佚	-11.3906
昭然	-11.3906
如一	-11.3907
彪	-11.3908
有勅	-11.3909
汝州	-11.391
囑曰	-11.391
塼	-11.3911
一百一十	-11.3911
馨	-11.3912
萬餘人	-11.3912
愛其	-11.3913
髑髏	-11.3913
中書舍人	-11.3914
藪	-11.3914
䞋	-11.3915
諳	-11.3917
南行	-11.3918
貞觀中	-11.3918
浚	-11.3918
同於	-11.3919
峨	-11.3919
大眾部	-11.392
我來	-11.3921
沫	-11.3921
杓	-11.3921
快樂	-11.3922
大願	-11.3925
坎	-11.3925
椽	-11.3926
無厭	-11.3926
為甚	-11.3929
俄頃	-11.393
所欲	-11.393
異類	-11.393
頃刻	-11.3932
催	-11.3932
不好	-11.3933
陽人	-11.3933
昭慶	-11.3936
化成	-11.3937
歌曰	-11.3937
雖無	-11.3939
衡州	-11.3941
修念佛三昧	-11.3944
有子名	-11.3945
度生	-11.3946
隋文帝	-11.3948
南面	-11.3949
機鋒	-11.3951
無量壽經	-11.3952
不若	-11.3952
我與	-11.3953
者歟	-11.3958
不惑	-11.3958
上京	-11.3961
舍衛國	-11.3962
作者	-11.3964
千部	-11.3965
能生	-11.3966
呪術	-11.3971
楊氏	-11.3972
▁魏	-11.3974
傳者	-11.3975
理會	-11.3975
獨處	-11.3978
死人	-11.3979
善業	-11.3981
列子	-11.3982
長大	-11.3987
治平	-11.3988
衣法	-11.3988
抑亦	-11.3988
經于	-11.3988
松江	-11.3989
小者	-11.399
吾之	-11.3991
禾	-11.3991
苦痛	-11.3992
又喝	-11.3992
無子	-11.3993
信矣	-11.3993
及期	-11.3995
百八	-11.3995
畫像	-11.4
坐亡	-11.4
苦空	-11.4
洞明	-11.4001
往返	-11.4001
生西方	-11.4001
汝宜	-11.4001
即帝位	-11.4002
僧中	-11.4003
而弗	-11.4005
不負	-11.4005
赤城	-11.4005
念經	-11.4006
法師法嗣	-11.4006
如其言	-11.4006
便行	-11.4007
之由	-11.4009
鷲嶺	-11.401
巳前	-11.4013
又問曰	-11.4014
從而	-11.4015
掬	-11.4016
取經	-11.4016
芻	-11.4017
緣覺	-11.4018
柩	-11.4019
滕	-11.4019
與俱	-11.402
圓寂	-11.402
駁	-11.402
屎	-11.4021
嚴飾	-11.4021
孩	-11.4021
麾	-11.4022
真容	-11.4024
蘄州	-11.4026
用此	-11.4027
立塔	-11.4027
之訓	-11.4027
孟軻	-11.4027
誰為	-11.4028
無傷	-11.4029
嫡	-11.4029
分散	-11.403
犀	-11.4031
通論	-11.4031
然以	-11.4031
調御	-11.4032
丐	-11.4032
八尺	-11.4032
鴨	-11.4033
年至	-11.4035
蹲	-11.4035
普門	-11.4036
濛	-11.4036
惕	-11.4038
遘疾	-11.4038
日出	-11.4038
有什麼	-11.4039
佛智	-11.404
剩	-11.4041
每一	-11.4041
應詔	-11.4042
一毛	-11.4045
便禮拜	-11.4046
成實論	-11.4047
致拜	-11.4047
貧窮	-11.4048
理事	-11.4051
尋之	-11.4054
不輕	-11.4059
法界觀	-11.406
遇一	-11.406
莫是	-11.4062
觀行	-11.4063
貪欲	-11.4063
諦觀	-11.4064
甚大	-11.4066
於言下大悟	-11.4068
後如何	-11.4068
數歲	-11.4069
治國	-11.4069
宗杲	-11.4073
所持	-11.4075
半日	-11.4081
安然	-11.4081
是經	-11.4082
幾時	-11.4082
病死	-11.4086
難可	-11.4087
云和尚	-11.4088
所止	-11.4088
之靈	-11.4091
道悟	-11.4093
避之	-11.4094
那箇是	-11.4097
王與	-11.4098
興元	-11.4099
如日	-11.41
正見	-11.41
巖下	-11.41
鶴林	-11.4101
不拘	-11.4103
所請	-11.4104
輪轉	-11.4107
皆來	-11.4108
言句	-11.4109
十念	-11.411
州之	-11.4113
不幸	-11.4118
文云	-11.4118
無取	-11.4118
淨住	-11.412
甚盛	-11.4124
序云	-11.4124
八世	-11.4125
官府	-11.4126
那國	-11.4128
崛	-11.413
西堂	-11.4131
其內	-11.4132
球	-11.4132
而行之	-11.4133
不生不滅	-11.4134
垂拱	-11.4136
瞞	-11.4136
化行	-11.4136
初禪	-11.4137
眩	-11.4138
汾	-11.4138
即心即佛	-11.414
開演	-11.414
窠	-11.414
復出	-11.4141
馥	-11.4141
泗	-11.4142
若也	-11.4142
本迹	-11.4143
蕪	-11.4144
之賓	-11.4144
蠧	-11.4145
閫	-11.4145
傭	-11.4145
揑	-11.4145
僧寶	-11.4146
詬	-11.4146
涇	-11.4146
天真	-11.4147
壯麗	-11.4147
蓮池	-11.4148
謠	-11.4149
袞	-11.4152
豹	-11.4153
僧叡	-11.4153
凡人	-11.4154
儒家	-11.4158
遺身	-11.4158
居止	-11.4158
敝	-11.4159
霖	-11.4159
南昌	-11.4161
一千年	-11.4162
流支	-11.4162
愕然	-11.4162
金口	-11.4164
海鹽	-11.4164
千聖	-11.4165
不任	-11.4167
佛照	-11.4167
因為	-11.4168
人謂	-11.417
孤負	-11.4171
無上菩提	-11.4171
方圓	-11.4174
慧覺	-11.4174
令僧	-11.4176
應對	-11.4177
並無	-11.4178
豈容	-11.4179
但是	-11.4181
大元	-11.4181
定王	-11.4181
二載	-11.4182
長者子	-11.4185
園中	-11.4188
正之	-11.4188
流傳	-11.4189
棄家	-11.4189
石城	-11.4193
文德	-11.4194
不復見	-11.4195
見阿彌陀佛	-11.4197
箴	-11.4199
禪室	-11.4201
脫去	-11.4202
不遇	-11.4207
城邑	-11.4208
無端	-11.4209
空門	-11.421
道果	-11.4213
慧可	-11.4216
華頂	-11.4216
姓氏	-11.4217
福嚴	-11.4217
不犯	-11.4217
迷悟	-11.4218
掌中	-11.4219
祖父	-11.4219
毘婆沙	-11.4219
有甚	-11.4221
其外	-11.4222
親友	-11.4226
曾見	-11.4226
珪曰	-11.4227
襄王	-11.4228
元帥	-11.4228
建德	-11.4229
易曰	-11.423
除之	-11.423
欲知	-11.4231
與吾	-11.4232
戒德	-11.4233
蒲州	-11.4235
周遍	-11.4235
後見	-11.4236
知非	-11.4236
初夜	-11.4238
報慈	-11.424
武皇帝	-11.4241
石函	-11.4241
以水	-11.4242
大用	-11.4243
訂	-11.4243
福慧	-11.4244
宗仰	-11.4244
鄭氏	-11.4244
而愈	-11.4245
有差	-11.4245
四種	-11.4246
神智	-11.4247
神龍	-11.4248
滅法	-11.425
所以者何	-11.425
瑀	-11.4251
上乘	-11.4252
楞嚴經	-11.4252
跏趺而逝	-11.4252
精修	-11.4255
乘馬	-11.4255
不空三藏	-11.4257
覺寺	-11.4257
精嚴	-11.426
眸	-11.4261
勾	-11.4261
弘福寺	-11.4262
械	-11.4263
之跡	-11.4263
爍	-11.4264
定林寺	-11.4269
嘲	-11.4272
皆同	-11.4273
聖上	-11.4273
檀施	-11.4273
癘	-11.4274
同遊	-11.4276
四寸	-11.4277
于闐國	-11.428
大抵	-11.428
師亦	-11.4282
碩德	-11.4284
時為	-11.4286
六十年	-11.4286
火化	-11.4287
以救	-11.4289
俯仰	-11.429
并答	-11.4291
百川	-11.4293
有九	-11.4294
來下	-11.4295
妙道	-11.4295
原夫	-11.4298
含笑	-11.4299
汝所	-11.43
總是	-11.4303
八人	-11.4304
諸外道	-11.4305
之誠	-11.4305
迎請	-11.4305
之器	-11.4306
今得	-11.4307
深淺	-11.4308
虛妄	-11.4309
器之	-11.4311
宮室	-11.4319
瑞光	-11.4324
白黑	-11.4331
北天竺	-11.4332
師在	-11.4334
▁論	-11.4338
無聲	-11.4338
是法	-11.4338
如是如是	-11.4339
得不	-11.4339
昔人	-11.4341
眾多	-11.4341
辭歸	-11.4344
因爾	-11.4346
化物	-11.4347
燉煌	-11.4347
利生	-11.4351
嶷	-11.4352
佛鑑	-11.4354
不涉	-11.4356
本有	-11.4357
隆興	-11.4358
般若多羅	-11.4358
多是	-11.4359
至於此	-11.4361
二門	-11.4361
斯須	-11.4362
禮足	-11.4363
珂	-11.4363
太康	-11.4363
釜	-11.4364
友人	-11.4364
貞明	-11.4367
親臨	-11.4367
薩埵	-11.4368
耄	-11.437
嚫	-11.437
宗之	-11.437
彼有	-11.4372
負笈	-11.4372
餘皆	-11.4372
貺	-11.4372
曙	-11.4373
武后	-11.4374
補處	-11.4374
高山	-11.4376
恂	-11.4376
繕寫	-11.4376
耗	-11.4377
普明	-11.4377
面壁	-11.4377
慳	-11.4378
四十五	-11.4379
命師	-11.4379
知解	-11.4379
師名	-11.438
當其	-11.4381
此說	-11.4382
堦	-11.4382
毳	-11.4383
有僧問	-11.4385
合掌而逝	-11.4385
猛虎	-11.4386
長興	-11.4387
改名	-11.4391
文明	-11.4392
次子	-11.4393
生之	-11.4393
學之	-11.4397
不留	-11.4397
東禪	-11.44
誚	-11.4403
汝欲	-11.4404
三十三天	-11.4407
之勝	-11.4409
滅佛法	-11.4409
道不得	-11.441
法師曰	-11.441
人無	-11.4411
其所出法嗣一	-11.4412
之色	-11.4414
信宿	-11.4416
世諦	-11.4422
庵主	-11.4423
未暇	-11.4423
禪寂	-11.4423
理也	-11.4424
時眾	-11.4425
最高	-11.4427
婆子	-11.4427
金剛智	-11.4427
見已	-11.4431
以疾	-11.4431
解衣	-11.4432
月二十一日	-11.4433
同聲	-11.4435
其塔	-11.4436
出世法	-11.4436
于世	-11.4436
浮雲	-11.4437
南史	-11.4438
甞著	-11.4439
處所	-11.444
於一	-11.4441
因地	-11.4442
潤州	-11.4444
大殿	-11.4444
慧明	-11.4446
淨心	-11.4447
萬有	-11.4447
中觀	-11.445
其福	-11.4451
建安	-11.4453
庚	-11.4454
居于	-11.4457
七歲出家	-11.4458
一宿	-11.4459
庭中	-11.446
經三卷	-11.446
仰云	-11.446
驚覺	-11.4462
我慢	-11.4463
并諸	-11.4464
弉	-11.4466
而笑	-11.4468
之輩	-11.4468
遂至	-11.4468
十五卷	-11.4469
般舟	-11.4473
相率	-11.4474
中書侍郎	-11.4475
年登	-11.4476
密語	-11.4476
譴	-11.4478
禪床	-11.4478
有子	-11.4479
度者	-11.4479
絡	-11.4479
琬	-11.448
筏	-11.4481
固請	-11.4481
真乘	-11.4481
參政	-11.4481
瞎	-11.4482
拶	-11.4483
弘通	-11.4483
又造	-11.4484
太極殿	-11.4485
倩	-11.4486
宗炳	-11.4487
初謁	-11.4488
專修淨業	-11.4488
為民	-11.4488
無作	-11.4489
同安	-11.449
鎚	-11.4491
以拄杖	-11.4492
無罪	-11.4492
治世	-11.4493
嬰兒	-11.4494
漉	-11.4494
應天	-11.4494
嫗	-11.4494
教以	-11.4495
筋	-11.4496
一聞	-11.4498
後復	-11.4499
之禍	-11.45
金棺	-11.45
艶	-11.4503
九十六	-11.4504
王城	-11.4505
之兆	-11.4505
璣	-11.4505
蓋是	-11.4506
白王言	-11.4506
不得不	-11.4507
正信	-11.4507
帝聞	-11.4508
所求	-11.4509
者多矣	-11.4511
呪之	-11.4511
北禪	-11.4511
寧可	-11.4512
表請	-11.4513
隱隱	-11.4513
忽自	-11.4514
據此	-11.4518
從今	-11.4519
功德使	-11.4519
以法付	-11.4519
具載	-11.4522
禪客	-11.4523
唯見	-11.4524
不以為	-11.4527
鄴下	-11.4529
勝地	-11.4529
畢集	-11.4531
信也	-11.4531
其位	-11.4532
試經	-11.4532
譯為	-11.4532
齋日	-11.4533
大隋	-11.4533
柰何	-11.4534
熟視	-11.4536
善者	-11.4539
張氏子	-11.454
異哉	-11.4544
居常	-11.4544
念曰	-11.4546
七世	-11.4549
六世	-11.455
坦然	-11.455
藏曰	-11.455
聖凡	-11.4551
與弟子	-11.4552
感夢	-11.4555
牛頭山	-11.4556
滿月	-11.4556
彼佛	-11.4559
大方	-11.4561
何哉	-11.4563
字仲	-11.4563
夢幻	-11.4568
信敬	-11.4569
中天竺國	-11.457
毗盧	-11.457
茫	-11.4571
為第一	-11.4571
之服	-11.4572
江海	-11.4574
我昔	-11.4574
來遊	-11.4575
裸	-11.4576
熏修	-11.4576
碑文	-11.4577
拜之	-11.4578
學問	-11.458
憍慢	-11.458
衒	-11.4581
之儔	-11.4581
親屬	-11.4583
我本	-11.4584
睡眠	-11.4587
堂前	-11.4587
若論	-11.4588
海會	-11.4588
者是也	-11.4589
遂入	-11.4589
林野	-11.4589
萬善	-11.4591
復言	-11.4592
修禪	-11.4592
數尺	-11.4593
鳳凰	-11.4594
決疑	-11.4594
預知	-11.4595
傅大士	-11.4597
不休	-11.4598
那爛陀寺	-11.4599
尊貴	-11.4601
蹇	-11.4601
法器	-11.4601
蔓	-11.4602
紆	-11.4603
中途	-11.4603
志存	-11.4604
師範	-11.4604
二聖	-11.4604
三十八	-11.4605
麻谷	-11.4606
過也	-11.4607
檻	-11.4608
佛土	-11.4608
師承	-11.4608
䆳	-11.4608
二十人	-11.4609
平陽	-11.4609
託生	-11.4609
躅	-11.4609
八十一	-11.4609
尿	-11.4611
壅	-11.4612
虛無	-11.4613
凡百	-11.4614
歲在	-11.4615
修之	-11.4615
後遊	-11.4616
五百羅漢	-11.4616
亦自	-11.4616
移住	-11.4616
罷翁	-11.4618
供僧	-11.4618
齋僧	-11.4619
晦迹	-11.462
法施	-11.4621
甚嚴	-11.4622
之失	-11.4623
又往	-11.4623
受記	-11.4623
紛紛	-11.4625
九旬	-11.4625
東寺	-11.4627
三德	-11.4627
左道	-11.4629
乃請	-11.4631
受學	-11.4631
宋太祖	-11.4631
新經	-11.4631
殿宇	-11.4632
謹啟	-11.4633
可憐	-11.4635
別行	-11.4636
事迹	-11.4636
晉宋	-11.4636
閻王	-11.4636
依言	-11.4637
骨肉	-11.4637
魚肉	-11.4637
姓張氏	-11.4638
功臣	-11.4639
得否	-11.4639
辛苦	-11.464
四果	-11.464
衲衣	-11.4641
騰空	-11.4643
峯云	-11.4649
宰臣	-11.4651
指其	-11.4657
家風	-11.4657
講法	-11.4659
是何人	-11.4659
徧參	-11.4661
若道	-11.4663
廢之	-11.4664
說話	-11.4664
達多	-11.4665
世傳	-11.4665
末代	-11.4667
顏子	-11.4668
千金	-11.4669
進修	-11.4671
執筆	-11.4671
心者	-11.4675
○(	-11.4677
中下	-11.4679
載之	-11.4679
後參	-11.4681
斯事	-11.4682
莫道	-11.4682
也未	-11.4682
行願	-11.4683
薙髮	-11.4686
五通	-11.4691
三百年	-11.4695
檗	-11.4696
一隻	-11.4696
長年	-11.4696
慧能	-11.4697
即佛	-11.47
既覺	-11.47
却後	-11.47
題曰	-11.4701
既達	-11.4702
之患	-11.4702
溈仰	-11.4702
上堂云	-11.4705
呵呵大笑	-11.4705
豈復	-11.4707
兩目	-11.4708
道義	-11.4709
伏惟陛下	-11.4709
國號	-11.4712
曰和尚	-11.4712
忽不見	-11.4713
死矣	-11.4713
叨	-11.4714
按唐書	-11.4715
沂	-11.4715
天平	-11.4716
大家	-11.4716
彬	-11.4717
諂	-11.4719
寰中	-11.4719
十八卷	-11.472
十二因緣	-11.472
院事	-11.4721
鉢羅	-11.4722
悲喜	-11.4722
斯文	-11.4722
內翰	-11.4723
野狐	-11.4723
圈	-11.4724
祀之	-11.4724
豐干	-11.4724
訾	-11.4724
斑	-11.4724
普賢菩薩	-11.4725
佛來	-11.4727
亢旱	-11.4727
寺側	-11.4727
忉利	-11.4727
利養	-11.4728
寘	-11.4729
嚙	-11.4729
到這裏	-11.473
低頭	-11.473
噬	-11.4733
即生	-11.4733
掣	-11.4733
東遊	-11.4736
衣裳	-11.4736
一百卷	-11.4743
非也	-11.4744
有十	-11.4745
殿中	-11.4746
幽谷	-11.4747
為難	-11.4749
不允	-11.4752
同往	-11.4752
謝安	-11.4753
學侶	-11.4753
以助	-11.4754
熾然	-11.4754
皇祐	-11.4755
掘地	-11.4755
便為	-11.4757
此生	-11.4758
在心	-11.4758
奉上	-11.4759
戶外	-11.4759
底人	-11.4761
知歸子	-11.4763
建初	-11.4763
平復	-11.4764
僧人	-11.4765
含生	-11.4767
之始也	-11.4768
草菴	-11.477
虗席	-11.477
五岳	-11.4771
醴泉	-11.4772
以故	-11.4772
世家	-11.4774
一著	-11.4774
鉢中	-11.4777
所以為	-11.4778
而絕	-11.478
觀法	-11.4784
一事	-11.4786
淨土法門	-11.4787
更生	-11.4788
真觀	-11.479
非時	-11.4791
身死	-11.4792
悶絕	-11.4801
若謂	-11.4801
始興	-11.4801
三寸	-11.4802
一丈	-11.4804
」「	-11.4805
稍長	-11.4805
送還	-11.4806
我無	-11.4808
相師	-11.4812
牖	-11.4813
之容	-11.4813
執持	-11.4814
捨家	-11.4817
提婆達多	-11.4817
悔謝	-11.4818
獨立	-11.4819
用為	-11.4819
於理	-11.4821
浮山	-11.4823
京輦	-11.4825
一切處	-11.4825
溈云	-11.4825
若在	-11.4826
諸德	-11.4827
箋	-11.4827
辭別	-11.4827
悠	-11.4827
銅像	-11.4827
揵	-11.483
各異	-11.4833
龍猛	-11.4833
喉	-11.4833
後梁	-11.4834
兩箇	-11.4834
善見	-11.4838
卯	-11.4838
幅	-11.4838
而興	-11.4838
傳持	-11.4839
燦	-11.484
之咎	-11.484
牲	-11.484
於眾	-11.484
軾	-11.4842
纓	-11.4843
無諍	-11.4843
何經	-11.4843
目之	-11.4845
麈尾	-11.4845
縑	-11.4847
纘	-11.4848
墻	-11.4849
相識	-11.485
本空	-11.485
稱旨	-11.4851
國王大臣	-11.4853
瑯琊	-11.4853
保壽	-11.4854
戟	-11.4855
眉毛	-11.4855
不可說	-11.4855
學於	-11.4855
窗	-11.4856
古寺	-11.4857
不畜	-11.4858
引至	-11.4859
寶誌	-11.4859
受請	-11.486
但云	-11.486
使我	-11.4862
數千人	-11.4863
尅	-11.4864
本源	-11.4864
之辯	-11.4866
宣譯	-11.4866
唐虞	-11.4873
懈	-11.4873
西遊	-11.4874
我輩	-11.4876
研精	-11.4877
去此	-11.4878
上根	-11.4878
唯此	-11.4878
蓋其	-11.4879
▁陳	-11.488
年號	-11.4881
乃能	-11.4881
恒河	-11.4882
十餘人	-11.4882
乞歸	-11.4883
大國	-11.4885
清信	-11.4886
洞然	-11.4887
九人	-11.4888
其辭	-11.4889
士民	-11.4889
宗即位	-11.4889
十二部	-11.4892
持佛名	-11.4892
念言	-11.4893
魏主	-11.4893
三時	-11.4898
回頭	-11.4898
其色	-11.49
玄奧	-11.4901
大神	-11.4902
吳人	-11.4903
於佛法	-11.4905
自家	-11.4906
為言	-11.4907
將以	-11.4907
以何為	-11.4908
良以	-11.491
況乎	-11.4911
唱佛	-11.4912
直入	-11.4913
曾到	-11.4915
自誓	-11.4916
八正	-11.4918
以後	-11.4919
離生死	-11.4919
英宗	-11.4921
說言	-11.4921
還寺	-11.4922
千遍	-11.4922
趙郡	-11.4923
師聞	-11.4924
陳氏子	-11.4924
辜	-11.4927
禪那	-11.4928
不錄	-11.4933
于是	-11.4935
若斯	-11.4936
忠曰	-11.4936
渡河	-11.4939
乃出	-11.4939
力行	-11.4942
時在	-11.4944
鄭州	-11.4945
兀	-11.4945
勅謚	-11.4949
永絕	-11.495
滅罪	-11.4951
徒侶	-11.4953
修功德	-11.4953
隨身	-11.4953
公為	-11.4954
萬二千	-11.4954
教外別傳	-11.4955
別錄	-11.4956
死於	-11.4956
報佛恩	-11.4957
拄	-11.4957
何獨	-11.4957
璿	-11.4958
大城	-11.4959
優波離	-11.496
髭	-11.496
詶	-11.4961
中峯	-11.4961
莫大	-11.4962
循環	-11.4962
剔	-11.4963
如言	-11.4963
從是	-11.4964
弛	-11.4964
燋	-11.4965
涸	-11.4965
孔丘	-11.4966
僧錄司	-11.4966
康熈	-11.4967
痊	-11.4968
縱有	-11.4969
耻	-11.497
領解	-11.497
帔	-11.4971
妙果	-11.4972
汝等諸人	-11.4972
若有人	-11.4973
鵬	-11.4973
語其	-11.4974
名士	-11.4974
今則	-11.4975
定林	-11.4975
九重	-11.4976
顧問	-11.4977
往參	-11.4978
多年	-11.4978
窟中	-11.498
六部	-11.498
江浙	-11.4983
虎溪	-11.4985
▁張	-11.4985
呈偈曰	-11.4986
於海	-11.4986
無外	-11.4986
百千萬億	-11.4986
閉戶	-11.4987
縉雲	-11.4988
驚歎	-11.4988
承風	-11.499
孔子之	-11.499
主簿	-11.4991
有五百	-11.4991
物我	-11.4991
吳江	-11.4992
大和尚	-11.4993
耆宿	-11.4994
經題	-11.4994
德業	-11.4995
禮謁	-11.4997
淳化	-11.4997
能使	-11.4998
臥疾	-11.4998
乃著	-11.5
首眾	-11.5
如何得	-11.5001
相違	-11.5001
臨安	-11.5001
此吾	-11.5001
必得	-11.5002
尺許	-11.5002
以授	-11.5002
盡是	-11.5003
東平	-11.5008
以神力	-11.5009
乃入	-11.501
以通	-11.501
驚喜	-11.5013
救苦	-11.5013
善之	-11.5014
靈塔	-11.5019
門者	-11.5019
咸共	-11.502
年六月	-11.5021
為君	-11.5021
儒道	-11.5021
奧義	-11.5021
加之	-11.5022
諸善	-11.5023
形神	-11.5025
復於	-11.5027
邊事	-11.5027
初依	-11.5028
▁釋慧	-11.5029
世為	-11.503
亦為	-11.503
等覺	-11.5031
賜謚	-11.5031
勢至	-11.5032
容止	-11.5033
三品	-11.5036
寶公	-11.5038
入冥	-11.504
明心	-11.5041
休息	-11.5041
妙旨	-11.5042
深山	-11.5044
便欲	-11.5044
方外之	-11.5045
竟無	-11.5045
不憚	-11.5046
為造	-11.5047
照耀	-11.5051
寶山	-11.5052
三曰	-11.5052
方為	-11.5052
如是者	-11.5054
僧問如何是	-11.5054
寶座	-11.5055
友善	-11.5055
不退轉	-11.5058
聽眾	-11.5059
與世	-11.5059
文成	-11.5059
夜分	-11.506
二寸	-11.5064
又詔	-11.5066
宗極	-11.5066
旨趣	-11.5067
得罪	-11.5069
群經	-11.5069
公私	-11.507
翱	-11.5071
瑾	-11.5071
瓦官	-11.5071
金城	-11.5074
唐史	-11.5075
諸根	-11.5076
或可	-11.5079
阿耨多羅三藐三菩提	-11.5082
本行經	-11.5082
常誦	-11.5082
荼毘	-11.5083
彝	-11.5083
尊之	-11.5084
巒	-11.5085
無限	-11.5086
往生淨土	-11.5086
之利	-11.5088
撒	-11.5088
修身	-11.5088
江寧	-11.5088
砌	-11.5088
㳂	-11.5089
憨	-11.5089
腫	-11.5089
必不	-11.5089
籬	-11.5092
牓	-11.5093
證聖	-11.5093
弘護	-11.5093
開先	-11.5094
奴婢	-11.5094
諸大德	-11.5095
亦如之	-11.5098
吐蕃	-11.5098
子厚	-11.5099
敷揚	-11.51
依前	-11.51
擕	-11.5101
堂堂	-11.5101
或為	-11.5101
至治	-11.5101
梓州	-11.5103
一錢	-11.5103
孜孜	-11.5103
廣德	-11.5104
遂命	-11.5106
尤多	-11.5106
四十卷	-11.5107
捫	-11.5107
八千	-11.5107
匹夫	-11.5108
其猶	-11.5109
好惡	-11.5111
右僕射	-11.5112
剎利	-11.5112
者非	-11.5113
渺	-11.5113
辭曰	-11.5113
師便	-11.5114
以定	-11.5115
而獨	-11.5117
平居	-11.5117
孝文	-11.5122
種子	-11.5123
具述	-11.5125
以居	-11.5125
山上	-11.5126
而臥	-11.5126
之才	-11.5127
庶子	-11.5127
非無	-11.5128
爭得	-11.5129
云某甲	-11.513
青蓮華	-11.513
君子之	-11.513
其誠	-11.513
天文	-11.5134
聞聲	-11.5135
神武	-11.5137
歷歷	-11.5137
儒教	-11.5138
無識	-11.5139
周旋	-11.5139
怒曰	-11.5139
頷之	-11.5139
思禪師	-11.5139
新到	-11.514
棲止	-11.5141
覩其	-11.5141
無驗	-11.5145
不載按	-11.5145
清信士	-11.5146
者耶	-11.5147
所害	-11.5147
垂手	-11.5148
念觀世音	-11.5148
達旦	-11.5148
尤為	-11.5152
佛骨	-11.5153
追福	-11.5154
頗多	-11.5157
請以	-11.5158
金銅	-11.5158
雜心	-11.5159
猶不	-11.5159
又請	-11.516
法集	-11.516
經言	-11.5167
然此	-11.5167
忠信	-11.5168
性好	-11.517
河沙	-11.5172
寂光	-11.5174
別眾	-11.5177
修學	-11.5177
乃遣	-11.5179
應有	-11.518
全真	-11.518
甞謂	-11.5181
安帝	-11.5181
境內	-11.5182
兒時	-11.5182
宗本	-11.5183
萬數	-11.5185
徒勞	-11.519
懸記	-11.519
留守	-11.5191
法印	-11.5191
縉	-11.5196
法苑	-11.5196
釋提桓因	-11.5196
知禮	-11.5199
壁間	-11.52
檄	-11.5201
眾見	-11.5201
王氏子	-11.5201
浹	-11.5201
永和	-11.5201
百餘步	-11.5202
正殿	-11.5202
一轉語	-11.5204
煦	-11.5204
所推	-11.5205
厲聲	-11.5206
寶覺	-11.5207
蕭然	-11.5207
未敢	-11.5207
䂮	-11.5207
華夏	-11.5208
其兄	-11.5208
比邱	-11.5208
妍	-11.5209
以是因緣	-11.521
雋	-11.5211
之國	-11.5212
仰視	-11.5212
覷	-11.5213
摹	-11.5215
搢紳	-11.5217
雖未	-11.5217
梟	-11.5218
眼睛	-11.5218
其真	-11.522
全體	-11.5221
道力	-11.5221
六萬	-11.5221
專念	-11.5222
廣濟	-11.5226
姓李氏	-11.5229
裴休	-11.5229
宰輔	-11.5232
忘其	-11.5232
死而	-11.5233
有異僧	-11.5234
三匝	-11.5234
供具	-11.5235
洞庭	-11.5236
殊途	-11.5237
堂上	-11.5239
以佛法	-11.5241
每夜	-11.5242
齊永明	-11.5242
北斗	-11.5242
智光	-11.5244
師云我	-11.5248
老婆	-11.5251
東門	-11.5251
又不	-11.5251
謂門人曰	-11.5252
製序	-11.5256
商英	-11.5256
大河	-11.5258
辨才	-11.5261
春秋八十有	-11.5261
佛頂	-11.5263
信解	-11.5264
表裏	-11.5266
即能	-11.5267
百部	-11.5268
願生	-11.527
別駕	-11.527
釋道安	-11.5273
當往	-11.5275
降生	-11.5279
見我	-11.528
三十二相	-11.5282
觀堂	-11.5283
亦皆	-11.5284
方廣	-11.5286
十世	-11.5288
命也	-11.5289
遑	-11.5289
三十人	-11.5289
周武帝	-11.5294
弟子曰	-11.5294
至寺	-11.5294
釋迦文佛	-11.5295
顯慶	-11.5296
春秋六十有	-11.5298
任其	-11.53
一步	-11.5301
宣武	-11.5302
諸佛菩薩	-11.5303
經疏	-11.5304
入禁中	-11.5305
圓教	-11.5305
歲也	-11.5305
神也	-11.5306
殿庭	-11.5307
事在	-11.5308
信佛	-11.5308
自身	-11.5309
之緣	-11.5309
嘉其	-11.5309
自作	-11.5311
僧慧	-11.5312
專志	-11.5313
以歸	-11.5314
曰不會	-11.5315
天下人	-11.5315
三十三年	-11.5316
十五里	-11.5317
告言	-11.5317
為事	-11.5319
惻	-11.5321
聞說	-11.5326
鉢盂	-11.5326
興復	-11.5327
非實	-11.5327
彌陀佛	-11.5328
便與	-11.5328
白淨王	-11.533
貿	-11.533
喫茶	-11.5331
三百餘里	-11.5332
蘇軾	-11.5333
鳩那羅	-11.5333
凡情	-11.5333
年間	-11.5333
一棒	-11.5335
今乃	-11.5335
舟航	-11.5335
峯下	-11.5337
皈	-11.5338
讐	-11.5338
踊躍	-11.5339
龍牙	-11.534
莒	-11.5341
巔	-11.5341
妬	-11.5341
琅	-11.5342
而獲	-11.5343
性命之	-11.5343
賞罰	-11.5343
纖毫	-11.5344
在天	-11.5344
捶	-11.5344
愷	-11.5345
化生	-11.5345
蹋	-11.5346
荷澤	-11.5347
譖	-11.5347
錠	-11.5348
大賢	-11.5349
安禪	-11.5349
寺沙門	-11.535
形服	-11.5352
放生池	-11.5352
告弟子	-11.5352
靜慮	-11.5353
虛空中	-11.5355
自行	-11.5356
天台教觀	-11.5358
林間	-11.5358
疑惑	-11.5359
歎息	-11.536
釋老	-11.536
承旨	-11.5363
一日問	-11.5367
悚然	-11.5368
政事	-11.5368
老母	-11.5368
傳於	-11.537
竭誠	-11.537
延祐	-11.537
閉門	-11.537
豈是	-11.537
其眾	-11.5372
弘闡	-11.5372
春風	-11.5374
死屍	-11.5374
便能	-11.5374
召之	-11.5376
衢州	-11.5378
寶冠	-11.538
長丈餘	-11.5381
不多	-11.5382
淨居天	-11.5382
隋末	-11.5383
相待	-11.5384
何謂也	-11.5385
舉國	-11.5386
還京	-11.5386
都邑	-11.5389
邢	-11.5389
固有	-11.539
道樹	-11.5391
在地	-11.5393
如來之	-11.5394
說經	-11.5396
帝諱	-11.5396
靈跡	-11.5397
來求	-11.5397
今世	-11.5398
現於	-11.5398
靜坐	-11.5399
秘密	-11.5399
其業	-11.5399
佛所說	-11.54
自陳	-11.5401
知此	-11.5403
之變	-11.5404
淨光	-11.5405
起滅	-11.5406
二家	-11.5406
暮年	-11.5408
六趣	-11.541
小大	-11.5411
鹿門	-11.5412
造化	-11.5414
驚問	-11.5415
興國	-11.5416
安之	-11.5416
立名	-11.5418
自然之	-11.5419
誠心	-11.5419
遂依	-11.542
溈山喆云	-11.5422
言笑	-11.5423
奉先	-11.5423
龍圖	-11.5424
梁山	-11.5424
師子座	-11.5425
匡山	-11.5427
因請	-11.543
人家	-11.543
深明	-11.5431
西魏	-11.5432
極樂世界	-11.5433
隨師	-11.5436
雖多	-11.5438
法鼓	-11.5438
平江	-11.544
常見	-11.5441
真金	-11.5442
坐道場	-11.5442
而為說法	-11.5446
乃召	-11.5447
汝道	-11.5447
淳熙	-11.545
藥叉	-11.5451
康僧會	-11.5454
伊尹	-11.5456
莫若	-11.5458
悟真	-11.546
耶輸陀羅	-11.546
棟宇	-11.5461
掘之	-11.5462
黃門侍郎	-11.5463
嵐	-11.5464
痾	-11.5467
麵	-11.5468
甘泉	-11.5471
壽春	-11.5471
無依	-11.5471
臼	-11.5472
縻	-11.5472
喆	-11.5472
逍遙園	-11.5473
褥	-11.5474
靈光	-11.5475
梁天監	-11.5476
佛圖	-11.5476
太宰	-11.5477
言訖而逝	-11.5478
執侍	-11.5478
月二十九日	-11.548
袂	-11.548
豈獨	-11.5481
甚有	-11.5481
捨命	-11.5481
咸見	-11.5481
捨此	-11.5482
於京師	-11.5482
衡岳	-11.5483
智度	-11.5483
萬一	-11.5483
尤善	-11.5483
其化	-11.5484
蠅	-11.5487
十二時中	-11.5488
亦不能	-11.5489
決擇	-11.5489
清涼山	-11.5489
居易	-11.5492
作福	-11.5496
多寶	-11.5501
車駕	-11.5501
之寶	-11.5504
聞天樂	-11.5507
妄語	-11.5508
諸家	-11.5508
問道於	-11.5508
今我	-11.5508
便即	-11.5508
得大	-11.551
生在	-11.551
車馬	-11.5511
文昌	-11.5512
泊然	-11.5513
設食	-11.5513
繼之	-11.5513
點頭	-11.5514
精通	-11.5515
五峯	-11.5518
不屈	-11.5518
瑞巖	-11.5519
明教	-11.5519
風化	-11.552
濟物	-11.5521
每年	-11.5522
方悟	-11.5522
昭玄	-11.5523
佛慧	-11.5523
建國	-11.5523
與王	-11.5525
勸化	-11.5526
各一卷	-11.5527
法上	-11.5529
聞道	-11.5533
起信論	-11.5534
創寺	-11.5535
聽我	-11.5535
康王	-11.5537
夢梵僧	-11.5537
一段	-11.5538
厲聲曰	-11.5538
天帝釋	-11.5539
萬德	-11.5541
自持	-11.5544
極為	-11.5545
姓李	-11.5547
程之	-11.5548
納之	-11.555
恭帝	-11.5551
歷劫	-11.5553
十餘丈	-11.5554
江河	-11.5554
談笑	-11.5555
像教	-11.5556
願得	-11.5557
亡名	-11.5557
後歸	-11.5557
奉命	-11.5558
加敬	-11.5558
普光	-11.5563
塔中	-11.5563
不得已	-11.5564
洛州	-11.5564
不常	-11.5565
皆稱	-11.5569
數十年	-11.5569
光宅寺	-11.5569
飛行	-11.557
一貫	-11.5571
立理	-11.5571
西僧	-11.5574
左僕射	-11.5574
形色	-11.5576
高陽	-11.5578
有石	-11.5579
生于	-11.5579
故鄉	-11.558
意識	-11.5584
諸經論	-11.5585
其二	-11.5586
秋八月	-11.5587
柔軟	-11.5588
凡經	-11.5588
終身不	-11.5589
莾	-11.5589
歎未曾有	-11.559
所貴	-11.5591
師居	-11.5592
彚	-11.5593
中食	-11.5593
本非	-11.5594
知命	-11.5597
嵩嶽	-11.5599
三諦	-11.56
兩京	-11.56
淳熈	-11.5602
耿	-11.5602
舊唐史	-11.5603
閤	-11.5604
峨眉	-11.5605
琢	-11.5605
見王	-11.5606
廡	-11.5607
感通錄	-11.5607
善誘	-11.5608
雁門	-11.5608
窘	-11.5608
脛	-11.5609
彌篤	-11.5609
此又	-11.5609
露柱	-11.561
廣化	-11.5611
面門	-11.5611
瀑布	-11.5612
謔	-11.5613
行頭陀	-11.5616
庾信	-11.5617
俱舍論	-11.5619
兩日	-11.562
委曲	-11.5623
祇洹	-11.5623
學業	-11.5624
一女	-11.5625
法本	-11.5625
而取	-11.5626
五味	-11.5626
假使	-11.5627
舉身	-11.5628
釋宗	-11.563
改正	-11.5632
指揮	-11.5633
宣說	-11.5639
即自	-11.564
祖示寂	-11.564
常誦法華	-11.5648
蓮經	-11.5648
無私	-11.565
妙相	-11.565
向者	-11.5651
彌勒菩薩	-11.5651
有年	-11.5652
佛世尊	-11.5653
渤	-11.5653
仍以	-11.5654
南華	-11.5656
智人	-11.5656
既畢	-11.5658
明鏡	-11.5659
鏡清	-11.566
城郭	-11.566
四依	-11.5662
於空中	-11.5662
絕無	-11.5662
中年	-11.5662
忘身	-11.5664
資給	-11.5664
宿習	-11.5664
意也	-11.5664
百餘年	-11.5664
守之	-11.5665
便有	-11.5666
善巧	-11.5667
根器	-11.5668
侍從	-11.567
狗子	-11.5671
為聖	-11.5671
道觀	-11.5671
我已	-11.5672
往視之	-11.5673
慈忍	-11.5674
淨土之	-11.5674
大施	-11.5675
移居	-11.5675
非久	-11.5676
大徹	-11.5679
唱導	-11.5682
所化	-11.5684
存亡	-11.5685
數十萬	-11.569
在外	-11.569
受道	-11.5692
天成	-11.5692
途中	-11.5692
錄云	-11.5696
萬歷	-11.5697
以火	-11.5699
福地	-11.5701
凡十	-11.5704
誠為	-11.5704
大戒	-11.5705
自遠	-11.5706
二主	-11.5706
未為	-11.5707
此蓋	-11.5707
至七日	-11.5709
不依	-11.5709
這漢	-11.571
章疏	-11.571
相者	-11.5712
湘東王	-11.5714
滅盡	-11.5715
於三	-11.5716
上虞	-11.5718
酥	-11.5718
立化	-11.572
南郊	-11.5721
龔	-11.5721
摧伏	-11.5721
仁慈	-11.5723
告諸	-11.5724
盡矣	-11.5724
雖異	-11.5724
應化	-11.5725
芽	-11.5726
自責	-11.5726
有梵僧	-11.5726
立誓	-11.5727
三朝	-11.5729
其父母	-11.5729
便見	-11.573
繆	-11.573
見文殊	-11.573
文曰	-11.5731
風動	-11.5731
騁	-11.5731
熙寧	-11.5732
北印度	-11.5732
刈	-11.5732
蓬萊	-11.5733
病中	-11.5734
披剃	-11.5735
覺悟	-11.5736
雲氣	-11.5736
之水	-11.5737
勅旨	-11.5737
火中	-11.5738
翠微	-11.5738
涵	-11.5739
颺	-11.574
直是	-11.5742
九十九	-11.5743
作法	-11.5745
先王	-11.5749
丹青	-11.5749
往至	-11.575
無上道	-11.5753
俱胝	-11.5753
尺餘	-11.5754
哀愍	-11.5755
暴亡	-11.5756
萬眾	-11.5757
慶元	-11.5757
形相	-11.5758
乾寧	-11.576
人力	-11.5761
諸郡	-11.5762
不仁	-11.5764
薦福寺	-11.5765
南㵎	-11.5768
感之	-11.5769
不念	-11.577
大聖人	-11.577
遞相	-11.5773
其手	-11.5775
奇異	-11.5776
遺迹	-11.5777
忍大師	-11.5777
生焉	-11.5778
龍翔	-11.5778
散花	-11.5779
季龍	-11.5779
頓漸	-11.578
禪要	-11.5781
却是	-11.5782
說云	-11.5782
不可不	-11.5783
隨行	-11.5783
謚文	-11.5784
高風	-11.5784
老和尚	-11.5786
所經	-11.5788
什曰	-11.579
順帝	-11.5791
姓陳氏	-11.5791
初在	-11.5792
自焚	-11.5793
夫妻	-11.5794
轉經	-11.5794
王經一卷	-11.5794
暴死	-11.5795
與麼道	-11.5795
威力	-11.5796
於佛前	-11.5797
姓王氏	-11.5797
三層	-11.5797
僧來	-11.5798
旁出	-11.5798
清遠	-11.5798
識其	-11.5798
尤甚	-11.58
五更	-11.5803
剪髮	-11.5803
正在	-11.5806
家中	-11.5809
之弊	-11.5809
宿世	-11.5811
鬘	-11.5812
立言	-11.5812
十三卷	-11.5813
天和	-11.5814
豈敢	-11.5814
其女	-11.5815
所受	-11.5816
詳定	-11.5817
深達	-11.5818
殑伽河	-11.5818
終不能	-11.5819
我說	-11.582
仰之	-11.582
食者	-11.5822
得往生	-11.5823
出外	-11.5823
出鎮	-11.5825
不懼	-11.5826
記得	-11.5826
臘四十	-11.5827
王令	-11.5827
玄素	-11.583
安樂行	-11.583
上天竺	-11.5831
亦曰	-11.5832
朵	-11.5832
持此	-11.5833
善權	-11.5835
咸陽	-11.5836
提多迦	-11.5836
百氏	-11.5836
十惡	-11.5837
牟	-11.5838
千百	-11.5839
戒品	-11.5839
勿復	-11.5841
能誦	-11.5842
元和中	-11.5842
察其	-11.5842
為害	-11.5843
人言	-11.5844
蜀人	-11.5845
扈	-11.5847
然乎	-11.5848
五寸	-11.5849
更名	-11.5849
魏晉	-11.585
騫	-11.5852
名之為	-11.5854
智顗	-11.5855
時有一	-11.5856
收舍利	-11.5856
大愛道	-11.5857
開眼	-11.5858
不分	-11.5862
酪	-11.5862
臣民	-11.5863
熾盛	-11.5863
曠野	-11.5864
楊傑	-11.5864
尸利	-11.5864
非道	-11.5865
灰燼	-11.5865
崗	-11.5866
圭峯	-11.5866
旽	-11.5866
東魏	-11.5867
所習	-11.5867
家事	-11.5867
耐	-11.5868
一經	-11.5868
真君	-11.5868
荐	-11.5869
殉	-11.5869
粮	-11.5871
霹靂	-11.5872
拾遺	-11.5872
鑊湯	-11.5873
在人	-11.5874
外典	-11.5874
武昌	-11.5875
兼通	-11.5875
前生	-11.5876
冥官	-11.5877
二篇	-11.588
茗	-11.588
西有	-11.5881
南門	-11.5887
鄂州	-11.5887
路逢	-11.5889
步步	-11.589
自惟	-11.5891
又東	-11.5892
首尾	-11.5893
不報	-11.5894
曾孫	-11.5894
月光	-11.5894
並為	-11.5896
無任	-11.5897
移時	-11.5897
一百八	-11.5898
菩提心	-11.5898
正統	-11.5899
興教	-11.59
禪師示寂	-11.59
漢武	-11.59
祕書	-11.5901
長干寺	-11.5902
理無	-11.5903
未然	-11.5903
北門	-11.5903
其妙	-11.5903
賜額	-11.5903
神祇	-11.5903
入長安	-11.5905
血流	-11.5905
不損	-11.5909
塔所	-11.591
釋迦牟尼佛	-11.591
樂天	-11.5913
如風	-11.5914
對之	-11.5914
玄奘法師	-11.5914
投機	-11.5915
即取	-11.5915
之經	-11.5915
愚人	-11.5917
大雲	-11.5918
秀才	-11.5918
宋齊	-11.5919
不遺	-11.5921
形於	-11.5924
昊天	-11.5924
始祖	-11.5927
霍山	-11.5927
》、《	-11.5928
後聞	-11.593
之殊	-11.5934
法律	-11.5936
滿室	-11.5936
五時	-11.5938
之奇	-11.594
已成	-11.594
來報	-11.594
建隆	-11.5941
童真	-11.5942
月二十二日	-11.5945
宋高僧傳	-11.5947
萬計	-11.5948
房內	-11.5952
以偈曰	-11.5953
提起	-11.5955
所資	-11.5956
賜之	-11.5956
略云	-11.5958
求哀	-11.5959
國界	-11.5959
七里	-11.5961
郡之	-11.5962
床上	-11.5962
行也	-11.5963
力也	-11.5964
二老	-11.5964
帝即位	-11.5965
座上	-11.5968
色相	-11.5968
名剎	-11.597
所用	-11.5971
導引	-11.5971
菩提流支	-11.5972
維摩詰	-11.5973
吳氏	-11.5973
洞上	-11.5975
舍那婆私	-11.5975
自信	-11.5975
非佛	-11.5977
彌遮迦	-11.5977
隨後	-11.5978
此老	-11.5978
浙江	-11.5978
以刀	-11.598
之實	-11.598
恐其	-11.5981
斯道	-11.5981
見前	-11.5982
五常	-11.5982
翁曰	-11.5983
寺釋慧	-11.5984
山北	-11.5986
文皇帝	-11.5987
柳子厚	-11.5988
䭾	-11.5988
心心	-11.5989
一曰福州	-11.599
蕩蕩	-11.5992
四天	-11.5992
大呼	-11.5992
尖	-11.5993
嘉州	-11.5993
將還	-11.5994
漱	-11.5994
曄	-11.5995
大光	-11.5997
笈多	-11.5998
繢	-11.5999
咸亨	-11.6
驥	-11.6001
樓炭	-11.6001
盡敬	-11.6002
庖	-11.6002
歸于	-11.6003
蛙	-11.6004
筯	-11.6005
日暮	-11.6005
巽	-11.6006
唇	-11.601
大光明	-11.601
裡	-11.6011
歸去	-11.6013
翛然	-11.6013
言訖不見	-11.6013
竹篦	-11.6014
悴	-11.6014
乘輿	-11.6015
數十里	-11.6016
經說	-11.6019
福報	-11.6021
贊寧	-11.6023
海雲	-11.6024
末世	-11.6025
雙徑	-11.6026
有少	-11.6026
掃地	-11.6029
入三昧	-11.6029
一心念佛	-11.6031
實不	-11.6031
義解	-11.6035
去後	-11.6035
變成	-11.6035
地動	-11.6036
難測	-11.6037
其力	-11.6037
萬八千	-11.6037
毒龍	-11.604
舉之	-11.6043
尊師	-11.6045
山澤	-11.6045
出眾	-11.6046
人之所	-11.6046
遍歷	-11.6049
能以	-11.605
師示眾云	-11.6051
可與	-11.6051
敢問	-11.6052
南公	-11.6052
無實	-11.6055
乃歎曰	-11.6056
經宿	-11.6056
內教	-11.6057
誕生	-11.6058
美之	-11.6059
飲光	-11.6059
年十一	-11.6059
元始	-11.606
懷抱	-11.606
勞苦	-11.6061
年始	-11.6061
百千萬	-11.6062
無量劫	-11.6063
花嚴	-11.6063
一種	-11.6064
經旨	-11.6064
韶國師	-11.6066
師僧	-11.6069
一國	-11.6071
五萬	-11.6074
甞為	-11.6074
自取	-11.6074
第二子	-11.6076
慈濟	-11.6077
遺風	-11.6077
持念	-11.6079
結菴	-11.608
六七	-11.6082
經四卷	-11.6083
姓張	-11.6084
消滅	-11.6085
午時	-11.6085
雪竇顯	-11.6086
大圓	-11.6087
長沙寺	-11.6087
自負	-11.6089
神色	-11.6089
往謁	-11.609
道在	-11.609
其辭曰	-11.609
劉向	-11.609
別院	-11.6095
世高	-11.6095
跪拜	-11.6095
其親	-11.6096
李氏子	-11.6096
非夫	-11.6096
楊枝	-11.6097
呾	-11.6097
有數	-11.6101
自巳	-11.6102
向之	-11.6102
獨行	-11.6103
所云	-11.6105
有弟子	-11.6106
泉石	-11.6107
善哉善哉	-11.6109
頂門	-11.6111
劉遺民	-11.6111
有得	-11.6112
為證	-11.6112
忠國師	-11.6113
一劫	-11.6114
得阿羅漢果	-11.6116
是亦	-11.6116
然哉	-11.6117
卷第四	-11.6118
龐	-11.612
若得	-11.612
誰是	-11.6122
在昔	-11.6123
竊聞	-11.6123
陂	-11.6123
其才	-11.6125
三分	-11.6125
又打	-11.6126
歐	-11.6126
堤	-11.6127
誹謗	-11.6129
插	-11.613
閬	-11.613
刳	-11.6131
七月十五日	-11.6131
歲餘	-11.6133
出生死	-11.6134
在這裏	-11.6135
鵠	-11.6137
可得聞乎	-11.6137
燧	-11.6137
無足	-11.6138
酧	-11.6138
躭	-11.6139
執弟子禮	-11.6141
悛	-11.6144
拈出	-11.6145
泰始	-11.6145
摩訶般若	-11.6146
為小	-11.6146
訃	-11.6147
知我	-11.6148
清虗	-11.6149
非關	-11.6149
麻衣	-11.615
鄞	-11.6151
廻	-11.6152
祖述	-11.6152
居第一座	-11.6152
及長	-11.6152
劉公	-11.6153
楮	-11.6156
乃爾	-11.6157
後日	-11.6159
神遊	-11.616
波羅蜜	-11.616
行七步	-11.6161
無辜	-11.6161
奧旨	-11.6164
門風	-11.6164
定中	-11.6166
阿恕伽王	-11.6167
頴悟	-11.6167
宜以	-11.6168
異迹	-11.617
▁趙	-11.617
香林	-11.617
黃冠	-11.6172
所不及	-11.6174
得人	-11.6177
凡在	-11.6177
正法眼	-11.6178
永劫	-11.6178
寧有	-11.6179
并序	-11.618
得戒	-11.6181
發聲	-11.6181
轉身	-11.6187
以俟	-11.6188
坐處	-11.6188
什麼處	-11.6188
其異	-11.6189
象馬	-11.6189
討論	-11.6192
後忽	-11.6194
第一座	-11.6195
來入	-11.6198
盧舍那	-11.6198
女真	-11.6201
未決	-11.6202
博達	-11.6202
其迹	-11.6203
以次	-11.6204
釋迦文	-11.6205
告別	-11.6206
開闢	-11.6206
接人	-11.6208
貪著	-11.6209
徧歷	-11.621
狩	-11.6217
西印度	-11.6218
自出	-11.6218
大禪師	-11.6218
必矣	-11.6219
方乃	-11.622
直上	-11.622
豈止	-11.6221
若我	-11.6223
祇洹寺	-11.6223
出生	-11.6224
難思	-11.6225
居士傳	-11.6226
歷年	-11.6226
後遷	-11.6226
曾未	-11.6228
之次	-11.6228
嚴淨	-11.6231
回顧	-11.6233
唯以	-11.6233
鐘聲	-11.6234
遍滿	-11.6235
秦州	-11.6235
慶壽	-11.6236
歸國	-11.6236
冥司	-11.6236
寓居	-11.6236
四載	-11.6237
優波	-11.6237
安州	-11.6238
因與	-11.6245
入塔	-11.6246
復云	-11.6248
自天	-11.6248
龐居士	-11.6249
根源	-11.625
乃去	-11.6251
氣息	-11.6251
巖谷	-11.6252
近代	-11.6252
梵經	-11.6252
即不然	-11.6253
賢人	-11.6256
應世	-11.6256
端然	-11.6257
白㲲	-11.6258
作用	-11.6258
二女	-11.6258
五體投地	-11.6259
有益	-11.6259
亥	-11.6259
軒轅	-11.626
憍陳如	-11.6262
戒賢	-11.6263
新羅國	-11.6264
末田地	-11.6265
悅之	-11.6265
心經	-11.6266
見道	-11.6267
辨正	-11.6267
一語	-11.6267
四五	-11.6267
或復	-11.627
乃取	-11.627
羹	-11.6271
逵	-11.6272
冠冕	-11.6272
崛多	-11.6274
鉗	-11.6276
餘者	-11.6277
殺戮	-11.6277
淨人	-11.6279
橘	-11.6279
玷	-11.628
而問之	-11.628
之場	-11.628
毛孔	-11.628
南天竺國	-11.6281
尼寺	-11.6282
荊棘	-11.6283
奔赴	-11.6283
伎倆	-11.6284
餧	-11.6284
蹤跡	-11.6284
潦	-11.6285
治天下	-11.6285
獨不	-11.6285
不詳	-11.6286
忽爾	-11.6286
遍照	-11.6287
不獨	-11.6288
閙	-11.6289
會也	-11.6289
楫	-11.629
還至	-11.629
趺坐而逝	-11.629
博覽	-11.6291
航海	-11.6292
拜伏	-11.6293
喜怒	-11.6293
異相	-11.6293
厭離	-11.6293
長跪	-11.6294
是菩薩	-11.6294
王母	-11.6295
其徒曰	-11.6295
君臨	-11.6296
舌根	-11.6297
赫然	-11.6297
立像	-11.6299
鷲峯	-11.6299
官吏	-11.6299
故人	-11.6302
聖明	-11.6303
偽經	-11.6303
十萬偈	-11.6303
動搖	-11.6305
孫氏	-11.6305
太行	-11.6306
為真	-11.6308
為友	-11.631
四萬	-11.6311
相尋	-11.6311
宋文帝	-11.6311
與道士	-11.6312
嘉慶	-11.6312
致仕	-11.6313
繩牀	-11.6314
愚者	-11.6315
百年後	-11.6315
事者	-11.6315
律云	-11.6315
十丈	-11.6318
常存	-11.6319
無求	-11.632
雷雨	-11.632
有漏	-11.6321
後又	-11.6322
色心	-11.6322
固非	-11.6323
漳州	-11.6323
律行	-11.6323
一會	-11.6323
汗下	-11.6324
結庵	-11.6325
經十卷	-11.6325
語弟子	-11.6326
塵劫	-11.6327
機辯	-11.6328
納衣	-11.6328
清規	-11.6329
立義	-11.6333
稱佛號	-11.6333
顧謂	-11.6334
孝廉	-11.6334
璪	-11.6334
今猶	-11.6334
夷狄	-11.6336
通利	-11.6336
赴闕	-11.6336
張陵	-11.6337
不克	-11.6337
會稽人	-11.6341
四主	-11.6341
火光	-11.6342
斯在	-11.6342
老翁	-11.6343
其來	-11.6343
僧事	-11.6345
知玄	-11.6345
因循	-11.6347
好事	-11.6348
魏太武	-11.6349
甞作	-11.6349
在佛	-11.6349
壽終	-11.635
所誦	-11.6351
三清	-11.6351
皆言	-11.6352
入院	-11.6354
石柱	-11.6354
遂有	-11.6357
常為	-11.6358
是月	-11.6359
神情	-11.6361
剃頭	-11.6362
在寺	-11.6363
居處	-11.6364
台之	-11.6365
故為	-11.6366
上事	-11.6366
真理	-11.6371
咸皆	-11.6371
迎接	-11.6371
▁釋僧	-11.6373
遠遊	-11.6375
此也	-11.6376
隋大業	-11.6379
聲震	-11.638
實是	-11.6381
不悅	-11.6381
安西	-11.6383
二年三月	-11.6383
表一首	-11.6383
有天下	-11.6384
尼乾	-11.6385
鴈	-11.6385
之鄉	-11.6386
順化	-11.6386
造焉	-11.6387
額曰	-11.6387
谷中	-11.6389
盡力	-11.6389
何法	-11.639
證之	-11.639
于朝	-11.6392
道信	-11.6393
夢一	-11.6394
帝乃	-11.6397
壹	-11.6398
斯亦	-11.6399
則非	-11.64
域中	-11.6402
腹中	-11.6403
僧堂	-11.6404
禁戒	-11.6407
秤	-11.6407
篡	-11.6408
去地	-11.6408
義天	-11.6409
其相	-11.6409
興隆	-11.6409
考其	-11.641
凡是	-11.641
散華	-11.6411
迪	-11.6411
仰惟	-11.6412
延請	-11.6412
頵	-11.6414
遂問	-11.6415
所敬	-11.6415
宣王	-11.6415
郡王	-11.6416
泰定	-11.6417
即滅	-11.6417
本也	-11.6418
廬阜	-11.6418
玄暢	-11.6418
不豫	-11.642
蛻	-11.642
有力	-11.642
自當	-11.642
若為	-11.6421
陵遲	-11.6422
重修	-11.6422
弁	-11.6422
鳧	-11.6424
便起	-11.6424
福利	-11.6424
邪說	-11.6425
鐺	-11.6425
父母之	-11.6425
椿	-11.6426
劾	-11.6426
蒞	-11.6426
五色光	-11.6427
幡蓋	-11.6428
遘	-11.6428
相謂曰	-11.6431
上座部	-11.6432
寺舍	-11.6433
不能動	-11.6433
八難	-11.6433
入內殿	-11.6435
降雨	-11.6435
類此	-11.6435
熈寧	-11.6435
傳於世	-11.6436
狥	-11.6436
其死	-11.6438
三十一年	-11.644
施設	-11.644
尊敬	-11.6443
屠兒	-11.6444
迦毘羅	-11.6446
言音	-11.6447
喪亂	-11.6448
王道	-11.6448
有分	-11.6448
座前	-11.6449
五燈	-11.6451
提唱	-11.6451
御書	-11.6453
輪回	-11.6455
如之何	-11.6456
祝之	-11.6457
事作麼生	-11.6458
成功	-11.6458
報之	-11.6459
盧氏	-11.646
何來	-11.6461
風起	-11.6461
始有	-11.6461
經三日	-11.6462
法力	-11.6462
可矣	-11.6466
西川	-11.6466
置塔	-11.6468
安知	-11.6472
周易	-11.6472
呵曰	-11.6474
疾苦	-11.6476
驚駭	-11.6476
卷第三	-11.6478
驗矣	-11.6478
偶然	-11.6481
倐	-11.6481
德也	-11.6483
昊	-11.6484
松源	-11.6484
甚厚	-11.6485
不具	-11.6485
自來	-11.6485
眾集	-11.6485
誅之	-11.6485
安定	-11.6488
道場寺	-11.6488
無力	-11.6489
此女	-11.6489
罔知	-11.649
造經	-11.649
小品	-11.649
五逆	-11.6491
黃州	-11.6491
表聞	-11.6493
教我	-11.6493
手自	-11.6495
而別	-11.6499
上統	-11.6499
年二十五	-11.6499
宣德	-11.6502
斯多	-11.6504
色空	-11.6506
哲宗	-11.6507
七載	-11.6508
自西域	-11.6509
尸羅	-11.651
有國	-11.6512
汝心	-11.6512
可知也	-11.6513
藏於	-11.6514
光武	-11.6516
華夷	-11.6516
百卷	-11.6517
夜坐	-11.652
澄公	-11.6521
靜室	-11.6521
佛法之	-11.6521
遂造	-11.6524
塵俗	-11.6524
自漢	-11.6525
高百餘尺	-11.6525
九十日	-11.6526
了悟	-11.6526
無欲	-11.6527
作功德	-11.6528
皆成	-11.6529
大歡喜	-11.6532
宿緣	-11.6538
其情	-11.6538
拓	-11.6539
揩	-11.6539
僧臘五十	-11.6539
即勅	-11.6539
奉戒	-11.654
摩突羅國	-11.654
弘誓	-11.6541
即愈	-11.6543
光祿大夫	-11.6543
喫棒	-11.6547
未到	-11.6547
而說	-11.6548
𡉏	-11.6548
法幢	-11.6549
娛樂	-11.655
串	-11.655
噓	-11.6552
擘	-11.6552
去住	-11.6552
定水	-11.6554
脊	-11.6554
淨戒	-11.6554
處分	-11.6555
行乞	-11.6555
朗然	-11.6555
萬聲	-11.6555
鞍	-11.6555
金剛座	-11.6556
法真	-11.6556
自從	-11.6556
物也	-11.6557
三會	-11.6557
因之	-11.6557
林靈素	-11.6557
躋	-11.6559
勘破	-11.6559
只得	-11.656
那裏	-11.6561
父老	-11.6561
珉	-11.6562
怪問	-11.6563
方士	-11.6563
燬	-11.6564
摛	-11.6564
棟梁	-11.6565
弟子慧	-11.6567
水精	-11.6568
虎豹	-11.6569
從何而	-11.6569
然有	-11.6571
滓	-11.6572
而神	-11.6572
訢	-11.6572
失所在	-11.6572
廊廡	-11.6573
地震	-11.6573
心神	-11.6574
非徒	-11.6575
許詢	-11.6576
五十餘年	-11.6576
責之	-11.6577
遊觀	-11.6579
色如	-11.6582
偕行	-11.6583
人莫	-11.6584
與君	-11.6584
具威儀	-11.6586
三日後	-11.6586
智度論	-11.6589
之能	-11.6591
因茲	-11.6593
揚都	-11.6594
自由	-11.6595
同門	-11.6595
如玉	-11.6596
此云覺	-11.6596
七萬	-11.6597
來生	-11.6597
特進	-11.6598
玉京	-11.6598
眾議	-11.6604
修持	-11.6606
便往	-11.6607
雖殊	-11.6607
向來	-11.6607
千由旬	-11.6608
時俗	-11.6614
散亂	-11.6614
紹聖	-11.6614
釋玄	-11.6615
法師講	-11.6615
光曰	-11.6616
東國	-11.6617
妙門	-11.6619
反覆	-11.6619
攝山	-11.662
不屬	-11.6622
而問曰	-11.6622
東至	-11.6623
僧朗	-11.6623
相報	-11.6624
遂乃	-11.6624
萬回	-11.6625
異學	-11.6626
飄然	-11.6626
行步	-11.6627
文書	-11.6628
為貴	-11.6628
得箇	-11.6628
議曰	-11.6629
自為	-11.663
來至此	-11.663
所依	-11.6639
復興	-11.6639
燈燭	-11.6639
升天	-11.664
諭之	-11.6644
十六觀	-11.6647
謝事	-11.6648
楞伽經	-11.6648
徐氏	-11.6648
一千五百	-11.665
殿堂	-11.665
士夫	-11.6654
正理	-11.6655
旁有	-11.6656
有異人	-11.6656
前事	-11.6658
牟子	-11.666
想見	-11.6661
道中	-11.6663
但為	-11.6664
於事	-11.6664
聖賢之	-11.6664
學大乘	-11.6665
異論	-11.6666
深生	-11.6666
惡鬼	-11.6666
淨居	-11.6667
必應	-11.6668
後往	-11.667
與他	-11.6671
摩偷羅國	-11.6671
就座	-11.6673
以進	-11.6673
西方聖人	-11.6673
楚王	-11.6674
事跡	-11.6674
不開	-11.6677
之乎	-11.6677
怪其	-11.6678
不重	-11.6679
彼曰	-11.6681
山之陽	-11.6684
第十三	-11.6685
塔上	-11.6685
塵外	-11.6686
有犯	-11.6686
佛力	-11.6686
不預	-11.6688
之徵	-11.6689
酉	-11.6689
施與	-11.669
忽有一	-11.669
經目	-11.6691
有徵	-11.6691
入于	-11.6691
妙樂	-11.6691
禎	-11.6691
萇	-11.6692
鄭公	-11.6693
造論	-11.6694
巳知	-11.6694
兜	-11.6695
般泥洹	-11.6695
甘蔗	-11.6696
憂惱	-11.6697
閭里	-11.6698
出家受具	-11.6699
竟陵王	-11.6699
十八人	-11.67
旋繞	-11.67
奸	-11.6702
螺溪	-11.6702
劉曜	-11.6702
大林	-11.6702
却來	-11.6702
寂寞	-11.6703
恍惚	-11.6704
神廟	-11.6705
璩	-11.6706
吻	-11.6706
石虎	-11.6706
大中祥符	-11.6706
冢	-11.6706
磧	-11.6706
膜拜	-11.6707
少長	-11.6707
嘻	-11.6708
一百三十	-11.6708
俠	-11.6708
祇園	-11.6708
塟	-11.6709
梵唄	-11.6709
惋	-11.671
朋友	-11.671
九峯	-11.6711
堯封潛曰	-11.6711
稷	-11.6711
水邊	-11.6711
巡禮	-11.6712
籃	-11.6712
黍	-11.6712
蹄	-11.6713
思曰	-11.6714
穌	-11.6715
疇昔	-11.6715
榛	-11.6715
靖康	-11.6716
教汝	-11.6719
太保	-11.6719
無為之	-11.672
願陛下	-11.672
緇白	-11.672
開成	-11.6721
乾符	-11.6721
建齋	-11.6722
之耳	-11.6725
盡禮	-11.6725
陜西	-11.6726
便請	-11.6726
忽然不見	-11.6726
一虎	-11.6727
依教	-11.6728
狀若	-11.6729
奘法師	-11.673
冬十一月	-11.6731
發其	-11.6732
生善	-11.6733
為汝說	-11.6733
智者大師	-11.6735
善神	-11.6735
掩關	-11.6735
求生淨土	-11.674
大矣	-11.6742
當機	-11.6742
同光	-11.6742
無色界	-11.6743
聞此語	-11.6743
禱之	-11.6744
歎服	-11.6744
東臺	-11.6745
遠聞	-11.6746
日益	-11.6747
孝武帝	-11.6748
扶持	-11.6748
虗妄	-11.675
令侍者	-11.675
少選	-11.6752
變易	-11.6753
州人也	-11.6754
西域記	-11.6756
至孝	-11.6757
利根	-11.6758
說者	-11.6758
何妨	-11.6759
以何	-11.6759
一卷經	-11.6762
天竺寺	-11.6762
自代	-11.6764
叔父	-11.6766
不踰	-11.6766
悅曰	-11.6766
迄于	-11.6769
大哉	-11.6769
朕意	-11.6769
摩耶夫人	-11.677
年七歲	-11.6772
有知	-11.6773
集諸	-11.6773
佛手	-11.6773
所懷	-11.6775
彼人	-11.6775
清流	-11.6776
便成	-11.6776
四十二章經	-11.6777
出乎	-11.6778
在我	-11.678
卷第二	-11.678
妙義	-11.6781
數丈	-11.6782
明皇	-11.6783
開善	-11.6783
先世	-11.6784
詔書	-11.6785
特來	-11.6786
大梅	-11.6786
跋陀羅	-11.6787
浩然	-11.6789
修治	-11.679
師事之	-11.679
經函	-11.6791
萬民	-11.6791
龍飛	-11.6792
西涼	-11.6793
出水	-11.6793
一致	-11.6794
如在	-11.6794
異光	-11.6795
豈直	-11.6795
來師云	-11.6795
顯德	-11.6796
卷第五	-11.6798
注解	-11.68
遇之	-11.6803
師嗣	-11.6804
樹木	-11.6805
則同	-11.6806
詔迎	-11.6807
真際	-11.6809
殊異	-11.681
聞奏	-11.681
新譯	-11.6811
俗諦	-11.6812
有人問	-11.6813
暴風	-11.6814
周行	-11.6815
楊子	-11.6817
子貢	-11.682
迦葉佛	-11.6823
般若心經	-11.6823
使持節	-11.6824
解義	-11.6824
周昭王	-11.6825
罔不	-11.6825
與同學	-11.6825
見稱	-11.6826
浙西	-11.6826
盥	-11.6827
諸路	-11.6827
佛滅度後	-11.6829
未若	-11.6829
𤀹	-11.683
悉以	-11.6831
撿挍	-11.6831
黃門	-11.6831
謂師曰	-11.6831
帀	-11.6832
其夫	-11.6832
畢命	-11.6833
所賜	-11.6833
拓跋	-11.6833
東印度	-11.6834
詔賜	-11.6834
􂌞	-11.6834
嬈	-11.6835
達於	-11.6837
摶	-11.6838
乃更	-11.6842
脫衣	-11.6843
高齊	-11.6843
和尚寂	-11.6844
愔	-11.6844
帷	-11.6844
鳥窠	-11.6844
遼東	-11.6845
睠	-11.6846
鶴勒那	-11.6846
跛	-11.6846
入房	-11.6847
木石	-11.6848
大慈悲	-11.6848
二禪	-11.6849
徤	-11.685
靴	-11.6851
夫以	-11.6852
騷	-11.6852
體道	-11.6852
上黨	-11.6852
缽	-11.6853
燥	-11.6854
吊	-11.6854
鍛	-11.6854
請主	-11.6854
弋	-11.6854
蘄	-11.6854
如此者	-11.6855
眺	-11.6855
僧伽黎	-11.6855
蹶	-11.6855
誑惑	-11.6856
三才	-11.6857
伽陀	-11.6858
氏女	-11.6859
樂邦文類	-11.6859
童稚	-11.686
業障	-11.686
快活	-11.6861
東漢	-11.6861
道具	-11.6862
即還	-11.6862
拈花	-11.6862
翰墨	-11.6864
建鄴	-11.6865
毫髮	-11.6866
門人曰	-11.6866
疏記	-11.6866
鑽仰	-11.6866
些子	-11.6867
大年	-11.6868
至金陵	-11.6869
聞鐘聲	-11.6869
致遠	-11.6869
汗流	-11.687
謂我	-11.6874
投誠	-11.6874
講華嚴經	-11.6874
染衣	-11.6876
璹	-11.6876
那得	-11.6877
圓成	-11.6879
二百年	-11.6881
學通	-11.6882
承聖	-11.6884
罕有	-11.6884
一相	-11.6885
好佛	-11.6888
萬事	-11.6889
遺跡	-11.6892
黃金色	-11.6892
辭還	-11.6893
七廟	-11.6893
結壇	-11.6894
得生淨土	-11.6895
不可測	-11.6895
吾家	-11.6895
重重	-11.6898
師便喝	-11.6898
塔號	-11.69
大駭	-11.69
儒宗	-11.6901
簡文	-11.6903
勝緣	-11.6904
出頭	-11.6907
修梵行	-11.6908
偈頌	-11.6909
儼曰	-11.6909
大雲寺	-11.691
佛氏	-11.6911
利害	-11.6911
人死	-11.6911
知歸	-11.6911
降神	-11.6911
失聲	-11.6913
豈知	-11.6914
三十二年	-11.6914
淨飯	-11.6914
凡諸	-11.6914
證悟	-11.6914
一千二百	-11.6916
勝光寺	-11.6917
摩竭	-11.6918
清高	-11.6919
具眼	-11.692
為大僧	-11.692
塵垢	-11.692
絕塵	-11.6921
頒行	-11.6922
祕藏	-11.6922
僧禮拜	-11.6923
五層	-11.6923
侍人	-11.6923
室利	-11.6924
死也	-11.6924
名理	-11.6925
二宗	-11.6927
高論	-11.6928
天冠	-11.6928
法燈	-11.6929
問疾	-11.693
上殿	-11.693
擬對	-11.6931
冥府	-11.6932
氣象	-11.6933
持一	-11.6935
涅槃後	-11.6938
宗派	-11.6939
聞諸	-11.6941
金寶	-11.6941
曾子	-11.6943
所解	-11.6943
捨之	-11.6943
所以道	-11.6943
致有	-11.6944
不虧	-11.6946
大清	-11.6946
大闡	-11.6947
念珠	-11.6947
其人也	-11.6948
所翻	-11.6949
華臺	-11.6949
生身	-11.6951
之右	-11.6953
大鑑	-11.6953
備矣	-11.6954
奉天	-11.6955
習之	-11.6955
而沒	-11.6955
文殊普賢	-11.6956
馬師	-11.6957
不還	-11.6957
近遠	-11.6962
圖像	-11.6964
有心	-11.6966
雲間	-11.6968
如火	-11.6968
遊京師	-11.6968
善因	-11.6969
看他	-11.6969
妻也	-11.6973
闍夜多	-11.6975
告以	-11.6975
受戒法	-11.6975
顯曰	-11.6976
是箇	-11.6976
大般若經	-11.6976
秀州	-11.6977
餘姚	-11.6977
生極樂	-11.6978
臘六十	-11.6979
父曰	-11.6982
為龍	-11.6983
白毫	-11.6983
世務	-11.6984
修德	-11.6985
浩浩	-11.6986
持犯	-11.6987
自外	-11.6987
真文	-11.6989
後秦	-11.6989
八十卷	-11.699
一紀	-11.6991
惡心	-11.6991
從他	-11.6992
非謂	-11.6992
像設	-11.6992
葦	-11.6994
起立	-11.6994
駄	-11.6994
接物	-11.6994
小異	-11.6994
孫綽	-11.6995
大鑒	-11.6995
檐	-11.6995
祉	-11.6995
具以	-11.6995
接之	-11.6996
塔全身於	-11.6996
輻湊	-11.6997
大興國寺	-11.6999
弈	-11.6999
了知	-11.7
五燈會元	-11.7
有契	-11.7001
抉	-11.7001
箸	-11.7001
咨決	-11.7002
半年	-11.7002
輔相	-11.7002
禪慧	-11.7002
屐	-11.7002
還會麼	-11.7002
諸論	-11.7002
奉使	-11.7003
卉	-11.7003
賄	-11.7004
還識	-11.7005
飢渴	-11.7005
清濁	-11.7005
心懷	-11.7006
髠	-11.7006
執卷	-11.7007
咫尺	-11.7008
瑛	-11.7008
編戶	-11.7008
師授	-11.7009
姥	-11.7009
吸	-11.7011
覺禪師	-11.7011
邑人	-11.7011
且如	-11.7012
汝諸人	-11.7012
東掖	-11.7012
嘉平	-11.7013
請曰	-11.7014
樹上	-11.7014
松柏	-11.7014
激揚	-11.7015
眾善	-11.7016
河上	-11.7016
閉關	-11.7017
異者	-11.7017
終古	-11.7018
驚愕	-11.7019
寒山	-11.702
之俗	-11.7021
為帝	-11.7022
若爾	-11.7023
帝自	-11.7023
如此也	-11.7024
又嘗	-11.7024
形體	-11.7025
夙夜	-11.7026
東下	-11.7026
窮其	-11.7027
身不	-11.7028
得生天	-11.7028
於路	-11.7029
安住	-11.703
萬代	-11.7031
慧照	-11.7031
簡文帝	-11.7031
何勞	-11.7032
字元	-11.7035
與沙門	-11.7038
大莊嚴寺	-11.704
永康	-11.7041
難曰	-11.7041
詣佛所	-11.7042
惑亂	-11.7045
未識	-11.7048
來告	-11.705
典座	-11.705
何乃	-11.7052
請法師	-11.7053
救世	-11.7054
既為	-11.7057
僖	-11.7058
明得	-11.7059
當死	-11.7059
而莫	-11.7059
誦蓮經	-11.706
八方	-11.706
乾德	-11.7061
而言之	-11.7061
劫中	-11.7061
善世	-11.7063
坐臥	-11.7063
北涼	-11.7064
十有五	-11.7064
六載	-11.7065
因果經	-11.7065
迦葉波	-11.7065
至晚	-11.7066
六十二	-11.7068
慰問	-11.7068
平章	-11.707
道德之	-11.707
唯佛	-11.7071
至家	-11.7072
智嚴	-11.7073
強記	-11.7074
得成佛	-11.7075
紫雲	-11.7076
涅槃經云	-11.7077
聲明	-11.7078
世相	-11.7079
晉世	-11.7086
十八部	-11.7087
之遺	-11.7087
以白	-11.7088
何疑	-11.7089
遂不	-11.709
參禮	-11.709
內侍	-11.7092
而忘	-11.7092
妙玄	-11.7093
即事	-11.7094
諸剎	-11.7094
朗公	-11.7094
無違	-11.7094
潤文	-11.7094
又謂	-11.7095
欽山	-11.7096
俗士	-11.7097
不期	-11.7097
佛種	-11.7098
眾所	-11.7098
精靈	-11.7099
香湯	-11.7099
名之曰	-11.71
六千	-11.7101
中土	-11.7103
後乃	-11.7104
物情	-11.7104
崇奉	-11.7104
沙門釋法	-11.711
避難	-11.711
一化	-11.7111
塔下	-11.7114
之質	-11.7115
孝敬	-11.7115
而不可	-11.7115
題云	-11.7116
咸平	-11.712
行次	-11.712
國寺	-11.7121
作詩	-11.7122
一場	-11.7123
彌勒像	-11.7123
上坐	-11.7123
厭惡	-11.7125
齊州	-11.7125
無說	-11.7125
力辭	-11.7125
求福	-11.7125
無比	-11.7126
竺法護	-11.7128
於內	-11.7128
聖心	-11.7129
暫時	-11.713
五教	-11.7131
以祈	-11.7132
詎可	-11.7132
天縱	-11.7134
人亦	-11.7134
雅好	-11.7135
太上皇	-11.7136
應供	-11.7136
駒	-11.7136
為他	-11.7137
槐	-11.7138
聚集	-11.7139
夜來	-11.714
法付	-11.714
我從	-11.714
翕	-11.714
欒	-11.7142
愴	-11.7142
經本	-11.7142
比之	-11.7143
綬	-11.7143
絮	-11.7143
雖是	-11.7145
天授	-11.7145
舉家	-11.7146
在茲	-11.7147
建初寺	-11.7147
俶	-11.7148
知佛	-11.7148
所應	-11.7149
遺文	-11.7149
鴆	-11.715
會通	-11.7151
禪律	-11.7151
襁褓	-11.7152
受具足戒	-11.7152
羽儀	-11.7153
慶曆	-11.7153
泡	-11.7154
弃	-11.7155
容易	-11.7155
喝一喝	-11.7155
坤	-11.7156
棲心	-11.7157
徂	-11.7158
孔孟	-11.7158
顥	-11.7159
上清	-11.7159
五宗	-11.7159
欲去	-11.716
祖嗣宗統	-11.716
宏智	-11.7161
灘	-11.7161
以衣	-11.7163
都維那	-11.7164
吾滅後	-11.7165
豬	-11.7165
毀壞	-11.7166
師甞	-11.7166
二青衣	-11.7166
屈膝	-11.7167
欽重	-11.7168
而歎曰	-11.7168
磨滅	-11.7168
滋味	-11.7168
安禪師	-11.7168
一問	-11.7169
忽覺	-11.7169
母胎	-11.717
陳主	-11.717
引去	-11.7172
氣序	-11.7172
聖果	-11.7173
病人	-11.7173
香木	-11.7173
又無	-11.7175
聖朝	-11.7176
在中	-11.7176
從何	-11.7176
杯渡	-11.7177
便得	-11.7177
將死	-11.718
巖穴	-11.7181
其末	-11.7182
如鏡	-11.7183
十一卷	-11.7184
觀佛	-11.7184
居家	-11.7186
更為	-11.7186
鑄像	-11.7187
默而	-11.7188
澧州	-11.719
失色	-11.719
嗜欲	-11.719
早晚	-11.719
病苦	-11.7191
於戲	-11.7194
嘉之	-11.7194
身毒	-11.7195
得道者	-11.7195
必為	-11.7196
擊鼓	-11.7196
桓公	-11.7196
使者曰	-11.7196
繼席	-11.7197
汲水	-11.7199
遺骨	-11.7199
舊有	-11.72
皇上	-11.7201
億劫	-11.7203
時稱	-11.7204
道本	-11.7205
不謂	-11.7206
皆見	-11.7207
依之	-11.7208
陽縣	-11.7208
伏羲	-11.7211
文本	-11.7212
讚佛	-11.7213
汝曹	-11.7213
乃成	-11.7213
恨不	-11.7216
徒屬	-11.7217
梵網	-11.7217
之頃	-11.7218
同前	-11.7218
專以	-11.7219
聖人之教	-11.722
瞬	-11.7221
貞觀元年	-11.7221
塔焉	-11.7222
無行	-11.7226
白水	-11.7226
兩邊	-11.7227
便殿	-11.7227
等閑	-11.7228
園林	-11.7229
使之	-11.7231
三生	-11.7233
勅賜	-11.7233
眾寶	-11.7234
故言	-11.7234
之象	-11.7234
不辨	-11.7234
說也	-11.7235
懿宗	-11.7235
所存	-11.7236
常自	-11.7237
更加	-11.7237
奇哉	-11.7237
無替	-11.7237
盛化	-11.7238
神識	-11.7238
我法	-11.7239
袁州	-11.724
常持	-11.724
春二月	-11.7243
豈徒	-11.7244
還得	-11.7246
大凡	-11.7248
留連	-11.7248
於市	-11.7248
順治	-11.7249
金瓶	-11.7249
室內	-11.7252
送出	-11.7254
之正	-11.7255
文理	-11.7255
前輩	-11.7257
法師宋	-11.7258
里許	-11.7258
童女	-11.7259
將示寂	-11.7259
稱阿彌陀佛	-11.726
禪居	-11.7261
一燈	-11.7261
書經	-11.7261
諺	-11.7262
似有	-11.7262
故此	-11.7263
之嗣	-11.7263
周遊	-11.7263
之累	-11.7265
不見道	-11.7266
寶池	-11.7267
玄都	-11.7268
文言	-11.7269
其為人	-11.7269
令得	-11.7269
殊俗	-11.7272
累官	-11.7273
傳語	-11.7274
事業	-11.7274
輕舉	-11.7274
無遮	-11.7275
書史	-11.7276
相離	-11.7277
了了	-11.7277
解釋	-11.7278
而猶	-11.7279
納戒	-11.7279
合成	-11.7281
四字	-11.7283
所制	-11.7283
傳法正宗記	-11.7285
睛	-11.7285
叚	-11.7285
北至	-11.7286
祗對	-11.7286
心體	-11.7287
叱之	-11.7287
門庭	-11.7287
得以	-11.7289
有何言句	-11.7289
粥飯	-11.7289
三十棒	-11.729
成等正覺	-11.7291
聲名	-11.7292
於他	-11.7293
淨名經	-11.7293
湮	-11.7294
靜夜	-11.7294
紋	-11.7294
母子	-11.7295
昔為	-11.7296
重雲殿	-11.7296
□□□	-11.7298
奄然而化	-11.7299
高才	-11.7299
不學	-11.73
人或	-11.73
飛錫	-11.7301
見如來	-11.7301
愉	-11.7301
編年	-11.7301
葛藤	-11.7301
答話	-11.7301
雹	-11.7303
茆	-11.7303
塋	-11.7304
轂	-11.7304
扃	-11.7305
吳門	-11.7305
蚊	-11.7305
戒之	-11.7306
威靈	-11.7306
苔	-11.7307
草鞋	-11.7307
爆	-11.7307
稟受	-11.7308
為皇太子	-11.7308
有才	-11.7308
陌	-11.7308
成誦	-11.7309
四聖	-11.7312
樓觀	-11.7313
皆無	-11.7315
潞	-11.7315
壽聖	-11.7316
學眾	-11.7317
泊然而化	-11.7317
神理	-11.7318
十戒	-11.7319
五主	-11.7319
寶坊	-11.7319
愛樂	-11.7321
灼然	-11.7322
大水	-11.7322
鄱陽	-11.7323
無慮	-11.7323
豈謂	-11.7323
入地	-11.7324
儀鳳	-11.7325
童行	-11.7326
王家	-11.7326
瓢	-11.7326
韜光	-11.7327
惟一	-11.7327
千五百	-11.7327
衾	-11.7327
淵源	-11.7328
拒之	-11.733
遺之	-11.733
順宗	-11.7331
舉進士	-11.7332
大雪	-11.7335
為書	-11.7335
又西	-11.7335
妄言	-11.7335
不云乎	-11.7339
以謂	-11.734
毅然	-11.7341
至三	-11.7342
得自在	-11.7345
斥之	-11.7347
疑滯	-11.7348
功業	-11.7348
這一	-11.7348
觀門	-11.7349
小劫	-11.735
宿業	-11.7354
回互	-11.7354
微細	-11.7356
千尺	-11.7359
王元年	-11.736
詩文	-11.7361
慧忠	-11.7363
去年	-11.7366
若何	-11.7366
貧女	-11.7366
之子也	-11.7367
所遇	-11.7367
絕食	-11.7368
世居	-11.737
觀想	-11.7374
我這裏	-11.7374
好事者	-11.7375
嘗以	-11.7375
金書	-11.7378
撼	-11.7378
儀軌	-11.7378
異時	-11.7378
寶唱	-11.7379
其美	-11.738
歸敬	-11.738
悟本	-11.7381
仍舊	-11.7381
乃從	-11.7383
寶印	-11.7383
宋武	-11.7384
持呪	-11.7385
京兆人	-11.7387
濟濟	-11.7387
顯宗	-11.7387
臨機	-11.7388
隋初	-11.7391
名焉	-11.7393
雪堂	-11.7394
寶臺	-11.7395
而心	-11.7395
自開	-11.7396
歸來	-11.7399
本起	-11.7401
為義	-11.7401
眾妙	-11.7401
指掌	-11.7402
瀛	-11.7403
郢州	-11.7403
平原	-11.7406
不臣	-11.7406
軍國	-11.7407
為吾	-11.7407
元徽	-11.7407
往西方	-11.7407
機語	-11.7408
祖意	-11.7413
趙氏	-11.7413
龜山	-11.7413
巳下	-11.7413
聽習	-11.7414
赴京	-11.7416
黃白	-11.7416
倍加	-11.742
明解	-11.7421
稼穡	-11.7425
立之	-11.7426
三千餘人	-11.7426
不知也	-11.7426
聲振	-11.7427
未合	-11.7428
在西	-11.7428
各以	-11.7428
報恩寺	-11.7428
覺海	-11.7429
器重	-11.7429
五位	-11.7429
高遠	-11.743
濟度	-11.7431
願垂	-11.7431
一衲	-11.7431
吾巳	-11.7433
哆	-11.7435
世子	-11.7435
重病	-11.7435
然非	-11.7436
千二百	-11.7438
但能	-11.7439
上山	-11.7441
臆	-11.7441
是吾	-11.7443
本色	-11.7443
付汝	-11.7444
敬事	-11.7444
不果	-11.7447
未來世	-11.7448
後宮	-11.7449
嬪	-11.7449
奯	-11.745
慼	-11.7452
宛如	-11.7452
則天下	-11.7452
大菩薩	-11.7452
波瀾	-11.7452
郡縣	-11.7452
候之	-11.7452
勸善	-11.7453
寶瓶	-11.7453
六寸	-11.7453
受業於	-11.7454
幾人	-11.7454
銑	-11.7454
西方淨土	-11.7457
稱臣	-11.7457
天資	-11.7457
凝神	-11.7457
潛子	-11.7458
最為第一	-11.7459
渤海	-11.7461
壟	-11.7461
天降	-11.7462
哮吼	-11.7462
丈許	-11.7462
一切諸佛	-11.7463
钁	-11.7464
先以	-11.7465
廣度	-11.7465
聞之曰	-11.7466
荷擔	-11.7466
道眼	-11.7467
補陀	-11.7467
開府	-11.7469
洛邑	-11.7469
僮	-11.7471
御史中丞	-11.7472
薊	-11.7472
酣	-11.7472
太公	-11.7472
三十萬	-11.7472
沈約	-11.7473
從何來	-11.7473
緋	-11.7474
甌	-11.7474
傳寫	-11.7474
印宗	-11.7476
月氏國	-11.7477
正德	-11.748
人命	-11.748
太一	-11.7482
尤精	-11.7482
乃還	-11.7482
導從	-11.7482
逆旅	-11.7482
之病	-11.7484
一百四十	-11.7484
出家者	-11.7484
阿難言	-11.7484
亦不得	-11.7485
碩學	-11.7485
迎至	-11.7486
隨得	-11.7487
寂子	-11.7488
在山	-11.749
號泣	-11.7491
所論	-11.7491
流離	-11.7491
珠玉	-11.7492
有靈	-11.7493
四年正月	-11.7498
地神	-11.7498
泛海	-11.7499
法益	-11.7499
我家	-11.75
由斯	-11.7501
師子尊者	-11.7502
五十二年	-11.7505
河中	-11.7505
金光明經	-11.7507
池水	-11.7509
石勒	-11.7509
三洞	-11.751
巳成	-11.7511
一頭	-11.7511
一般	-11.7512
法語	-11.7512
其始	-11.7512
遁去	-11.7512
賜坐	-11.7512
寄宿	-11.7514
谷隱	-11.7516
五十二	-11.7517
副使	-11.7517
之節	-11.7518
三十五年	-11.752
覆述	-11.752
並以	-11.7521
令入	-11.7522
忽有省	-11.7522
作舞	-11.7523
王種	-11.7525
一隅	-11.7526
名香	-11.7527
父兄	-11.7527
又至	-11.7529
一石	-11.753
七祖	-11.7531
山間	-11.7531
下馬	-11.7533
我皇	-11.7533
我佛	-11.7534
不測其	-11.7538
言乎	-11.7538
設供	-11.7541
閻	-11.7541
自欺	-11.7542
萬由旬	-11.7542
大仙	-11.7543
良久乃	-11.7543
要識	-11.7544
其機	-11.7548
詔入內	-11.7548
國祚	-11.7549
井中	-11.755
何罪	-11.7551
四夷	-11.7551
通塞	-11.7556
謂佛	-11.7558
為外	-11.7558
可使	-11.7558
無忘	-11.7558
吏部	-11.7561
新安	-11.7565
無處	-11.7569
如是三	-11.7569
以為然	-11.757
大權	-11.757
贍部洲	-11.7572
越王	-11.7572
而更	-11.7572
不詳其所	-11.7573
從空	-11.7574
即請	-11.7576
初從	-11.7576
誦金剛般若經	-11.7577
所食	-11.7579
驚懼	-11.758
即從	-11.7582
先王之	-11.7582
有客	-11.7582
臥具	-11.7583
同年	-11.7584
出家於	-11.7585
前漢	-11.7586
遠方	-11.7587
一坐	-11.759
其他	-11.759
曾於	-11.7591
拈拄杖	-11.7591
天下僧尼	-11.7593
淨慧	-11.7594
靈祐	-11.7594
告終	-11.7595
久久	-11.7596
誦念	-11.7597
注云	-11.7598
不礙	-11.7598
四兵	-11.7601
優填王	-11.7601
餘處	-11.7605
粵	-11.7605
吏部尚書	-11.7606
象王	-11.761
以大法	-11.7611
紵	-11.7611
以慈	-11.7611
裒	-11.7613
言辭	-11.7614
火聚	-11.7614
七日七夜	-11.7615
海外	-11.7615
披覽	-11.7617
漕	-11.7618
無疾而化	-11.7619
道學	-11.7621
慧超	-11.7622
慷慨	-11.7622
老人曰	-11.7622
同日	-11.7623
迁	-11.7623
一枚	-11.7624
牘	-11.7624
煌	-11.7624
舉眾	-11.7626
文忠	-11.7626
同住	-11.7627
敻	-11.7627
毬	-11.7627
之裔	-11.7628
癩	-11.7628
碣	-11.763
搥	-11.763
每月	-11.763
先達	-11.763
此文	-11.763
靳	-11.763
致此	-11.763
宜應	-11.7631
人以為	-11.7633
閭丘	-11.7633
康居	-11.7633
泰伯	-11.7634
遂隱	-11.7634
其弟子	-11.7635
叢席	-11.7635
即問	-11.7635
之女	-11.7635
悲鳴	-11.7636
迥	-11.7637
四者	-11.7637
未遑	-11.7637
生信	-11.7638
不怠	-11.7639
還源	-11.7639
諸處	-11.764
二尺	-11.764
十有八	-11.764
真妄	-11.7642
胡為	-11.7642
金氏	-11.7644
一路	-11.7645
朝臣	-11.7646
悲號	-11.7646
淳風	-11.7647
於淨土	-11.7648
豈宜	-11.7648
無虛	-11.7651
吾言	-11.7651
寶峯	-11.7652
天主	-11.7653
眉目	-11.7653
隨宜	-11.7656
號哭	-11.7659
一曰杭州	-11.766
北京	-11.766
散去	-11.7661
永隆	-11.7661
之勢	-11.7662
光啟	-11.7667
巨海	-11.7667
八戒	-11.7668
中國之	-11.7668
總統	-11.7669
太息	-11.7669
登壇	-11.767
則巳	-11.7671
三百餘人	-11.7671
如何是祖師西來意	-11.7674
真正	-11.7675
獨善	-11.7676
墮落	-11.7676
武成	-11.7676
彼我	-11.7677
洗心	-11.7679
離苦	-11.768
密印	-11.7681
不能知	-11.7682
日以	-11.7683
惟恐	-11.7684
水月	-11.7684
思念	-11.7685
此真	-11.7686
隨事	-11.7686
興皇	-11.7688
陳郡	-11.7691
往見	-11.7692
西院	-11.7693
北史	-11.7694
密多	-11.7694
中郎	-11.7695
盛衰	-11.7695
遊五臺	-11.7695
悟解	-11.7697
錄事	-11.7697
天宮寺	-11.7697
論等	-11.7699
光明照	-11.7699
畢竟如何	-11.77
故基	-11.7701
靈雲	-11.7703
阿育王塔	-11.7704
乃辭	-11.7704
高潔	-11.7704
詔於	-11.7704
不厭	-11.7705
萬七千	-11.7706
饒舌	-11.7706
兩儀	-11.7706
法空	-11.7709
惟政	-11.771
唯有一	-11.7712
其頭	-11.7714
善惡之	-11.7714
李榮	-11.7718
──	-11.772
死罪	-11.7723
禱於	-11.7724
為建	-11.7726
名重	-11.7726
昇天	-11.773
追謚	-11.773
勞問	-11.773
哀慟	-11.7731
故令	-11.7731
今夜	-11.7732
緫	-11.7734
送者	-11.7735
遇害	-11.7735
京口	-11.7736
立於	-11.7736
若有所	-11.7738
年二十三	-11.7743
也哉	-11.7745
有形	-11.7748
勅召	-11.7748
皆知	-11.7751
經曰	-11.7752
不惜	-11.7752
金剛神	-11.7752
心宗	-11.7755
乾祐	-11.7757
存心	-11.7758
贄	-11.7759
四千	-11.776
巋	-11.7761
同見	-11.7763
i	-11.7768
m	-11.7768
<	-11.7768
六波羅蜜	-11.7768
埃	-11.7768
g	-11.7768
言教	-11.7768
膩	-11.7769
解行	-11.7769
吾等	-11.7769
按宋史	-11.777
瀝	-11.777
入洛	-11.777
師言	-11.7771
五十里	-11.7771
纔見	-11.7772
嶼	-11.7772
瘂	-11.7772
葷血	-11.7772
不立文字	-11.7773
譙	-11.7773
福力	-11.7773
故無	-11.7774
姚秦	-11.7774
拖	-11.7774
舉其	-11.7775
這老漢	-11.7775
如月	-11.7775
覺知	-11.7776
既已	-11.7776
譎	-11.7777
不可勝紀	-11.7777
戒日王	-11.7778
上士	-11.7778
饍	-11.7778
懵	-11.7779
聖智	-11.7779
碓	-11.778
乾明	-11.7781
毗盧遮那	-11.7781
檜	-11.7782
名言	-11.7782
貼	-11.7782
骸骨	-11.7786
心意	-11.7786
無量無邊	-11.7786
大龍	-11.7787
禮部尚書	-11.7788
避席	-11.7788
煨燼	-11.7788
染香集	-11.7789
寸陰	-11.7789
尊嚴	-11.7789
鑾	-11.779
坐而	-11.7791
譙王	-11.7792
第一世	-11.7792
大智度論	-11.7794
楊億	-11.7796
竺乾	-11.7796
如山	-11.7798
洞云	-11.7799
身口	-11.78
鴻漸	-11.78
五百歲	-11.7801
誕節	-11.7801
晚居	-11.7802
四十七	-11.7802
一株	-11.7803
二十三日	-11.7803
為母	-11.7803
緊	-11.7804
淫祀	-11.7804
麟德	-11.7805
禪定寺	-11.7805
艱難	-11.7806
畫工	-11.7807
之臣	-11.7808
藏中	-11.7809
▁李	-11.781
至唐	-11.7811
諸功德	-11.7811
宰官	-11.7811
自居	-11.7811
自守	-11.7812
集會	-11.7813
常坐	-11.7815
講解	-11.7816
飛走	-11.7816
戒殺	-11.7816
兩足	-11.7817
興廢	-11.7818
儒生	-11.7821
四輩	-11.7822
儒之	-11.7822
紫氣	-11.7824
固不	-11.7824
來學	-11.7825
所苦	-11.7825
金湯	-11.7825
隻履	-11.7829
易衣	-11.783
臥龍	-11.783
終是	-11.783
不停	-11.7831
逆順	-11.7831
明徹	-11.7832
善信	-11.7832
火滅	-11.7832
猛火	-11.7833
授法	-11.7833
有異香	-11.7834
傍人	-11.7835
一塔	-11.7836
晉太元	-11.7836
恬然	-11.7836
導之	-11.7836
僧伽梨	-11.7837
又撰	-11.7837
五篇	-11.7838
舍衛	-11.7839
九千	-11.784
金碧	-11.784
流注	-11.7841
一任	-11.7841
什物	-11.7845
頭痛	-11.7845
致令	-11.7845
扣門	-11.7846
釋迦牟尼	-11.7846
受此	-11.7851
庶人	-11.7853
像一軀	-11.7853
間出	-11.7855
即不問	-11.7857
博識	-11.7858
有歸	-11.7859
博聞	-11.786
縱廣	-11.786
語人	-11.7861
闡教	-11.7862
又是	-11.7862
三十四年	-11.7864
祖塔	-11.7864
來請	-11.7864
光輝	-11.7865
意作麼生	-11.7865
皇子	-11.7865
無涯	-11.7865
願文	-11.7866
與俗	-11.7866
之光	-11.7868
問汝	-11.7868
四十五年	-11.787
宮內	-11.7872
次有	-11.7873
遠師	-11.7875
相資	-11.7876
於天台	-11.7878
之精	-11.7878
建昌	-11.7879
釋梵	-11.7879
范陽	-11.788
之賢	-11.7881
安樂寺	-11.7881
將非	-11.7882
而走	-11.7889
我何	-11.7891
獨無	-11.7893
意謂	-11.7893
宜令	-11.7896
其終	-11.7897
遂絕	-11.7897
黃衣	-11.7897
雷電	-11.7898
城東南	-11.7898
不滯	-11.7899
乞師	-11.7899
其詞	-11.79
墮地獄	-11.7901
詔入	-11.7901
大機	-11.7901
小師	-11.7904
法常	-11.7906
月二十四日	-11.7908
若乃	-11.7908
市中	-11.7913
一童子	-11.7914
以神通力	-11.7914
成化	-11.7918
頭云	-11.7919
義存	-11.7919
鞞	-11.7919
並令	-11.7921
於今日	-11.7921
波斯匿王	-11.7922
毘舍離	-11.7923
幻化	-11.7924
神用	-11.7924
集僧	-11.7926
彥琮	-11.7928
隋文	-11.7929
涅	-11.7929
以其年	-11.793
近離甚處	-11.7931
秦始皇	-11.7931
遵式	-11.7932
怙	-11.7932
舫	-11.7932
淨穢	-11.7933
乂	-11.7934
噎	-11.7935
盤石	-11.7936
優曇	-11.7936
法蘭	-11.7936
滲漏	-11.7936
第一義諦	-11.7936
商那	-11.7936
稽顙	-11.7936
二七日	-11.7937
摭	-11.7937
殤	-11.7937
此後	-11.7938
斟酌	-11.7939
大塔	-11.7939
復曰	-11.794
不服	-11.794
湫	-11.794
生大	-11.794
一手	-11.7941
義熈	-11.7941
溉	-11.7942
懾	-11.7942
哩	-11.7942
之意也	-11.7942
大赦天下	-11.7943
之流也	-11.7943
咸稱	-11.7943
所引	-11.7944
夫子之	-11.7945
野老	-11.7946
浣	-11.7946
斐	-11.7946
䟽	-11.7946
毗曇	-11.7947
欲殺	-11.7947
臣下	-11.7947
毒藥	-11.7947
深心	-11.7947
姻	-11.7947
翦	-11.7948
遍於	-11.7948
律學	-11.7948
上幸	-11.7948
𨤲	-11.7948
還本國	-11.7949
賜紫方袍	-11.795
稿	-11.795
岷	-11.795
屹然	-11.795
討之	-11.795
捨俗	-11.795
便歸方丈	-11.7951
致謝	-11.7951
掦	-11.7952
咸和	-11.7953
問我	-11.7953
遂投	-11.7953
敬仰	-11.7955
違背	-11.7955
吾亦	-11.7956
履踐	-11.7957
拱手	-11.7958
奐	-11.7959
大宗	-11.7959
之原	-11.7959
迓	-11.7959
踪	-11.7959
積翠	-11.7959
謗佛	-11.7959
識心	-11.796
夔	-11.796
褁	-11.796
拉	-11.7961
道士等	-11.7961
垂範	-11.7963
金地	-11.7963
首楞嚴經	-11.7963
胡跪	-11.7964
南歸	-11.7964
月二十五日	-11.7964
當代	-11.7964
雛	-11.7965
趙公	-11.7965
無虗日	-11.7966
女也	-11.7966
歷觀	-11.7966
天威	-11.7967
出都	-11.7967
鐵牛	-11.7968
不啻	-11.7969
由之	-11.797
前言	-11.797
漏盡	-11.7973
登具	-11.7975
圖寫	-11.7975
所建	-11.7976
釋迦佛	-11.7977
年八十餘	-11.7977
誦得	-11.7977
妙悟	-11.7978
盡大地	-11.7978
向後	-11.7979
隨所	-11.7979
大梵	-11.7979
依經	-11.7979
桃花	-11.798
拜謝	-11.7981
再生	-11.7981
猶自	-11.7982
博綜	-11.7984
我巳	-11.7985
浮石	-11.7985
編次	-11.7985
潤色	-11.7986
數千里	-11.7987
飛鳥	-11.7989
凡五	-11.799
都下	-11.799
善於	-11.799
西門	-11.799
孰不	-11.7991
入對	-11.7991
龍井	-11.7992
未生	-11.7992
諦聽	-11.7994
信重	-11.7996
飛空	-11.7997
不曉	-11.7998
趂出	-11.8001
專一	-11.8002
猶可	-11.8002
未甞不	-11.8003
淨土院	-11.8005
苦哉	-11.8005
幸甚	-11.8005
後夜	-11.8006
九峰	-11.8007
十六卷	-11.8008
無業	-11.8011
天甯	-11.8011
參問	-11.8012
久視	-11.8012
宮城	-11.8013
說禪	-11.8013
而長	-11.8015
譯人	-11.8015
勤至	-11.8016
學佛者	-11.8017
病愈	-11.8018
招之	-11.8018
汝見	-11.8018
甞夢	-11.8019
遣弟子	-11.8019
皆能	-11.8021
母弟	-11.8021
既出	-11.8022
所未聞	-11.8023
東川	-11.8024
自恣	-11.8024
二眾	-11.8025
如響	-11.8029
不共	-11.803
伽耶	-11.8031
告云	-11.8034
甚為	-11.8035
圓覺經	-11.8035
渝	-11.8035
祥光	-11.8036
為禪	-11.8037
樹枝	-11.8037
燕京	-11.8037
塗毒	-11.8038
詣寺	-11.8039
釋然	-11.8039
知足	-11.8042
遂辭	-11.8045
不被	-11.8047
之來	-11.8049
大化	-11.805
凝然	-11.805
九祖	-11.8051
不見其	-11.8051
求救	-11.8052
則可	-11.8055
五種	-11.8055
八字	-11.8056
婺	-11.8057
在後	-11.8058
鳩摩羅	-11.806
等議狀一首	-11.806
玉毫	-11.8062
寺廟	-11.8062
證道	-11.8062
師獨	-11.8063
錄之	-11.8063
自娛	-11.8064
一舉	-11.8065
欲出家	-11.8066
其歸	-11.8067
光彩	-11.8068
莫作	-11.8069
大夏	-11.8069
序之	-11.8071
澄照	-11.8071
娛	-11.8072
胝	-11.8072
須陀洹	-11.8073
誦華嚴	-11.8075
孟子曰	-11.8076
稱之曰	-11.8077
未在	-11.8077
如海	-11.8077
然猶	-11.8077
彌陀像	-11.8078
得活	-11.8079
創立	-11.808
舉目	-11.8081
當是	-11.8082
祐曰	-11.8082
萬方	-11.8082
二十餘人	-11.8083
既云	-11.8087
西域沙門	-11.8087
不歸	-11.8088
之費	-11.8089
元符	-11.8089
弟子等	-11.809
超果	-11.8091
濵	-11.8092
瓘	-11.8092
數論	-11.8095
弩	-11.8096
五乘	-11.8097
左街	-11.8099
何日	-11.8101
所詮	-11.8101
醯	-11.8102
􂍓	-11.8102
妙法蓮華經	-11.8103
而實	-11.8104
常念	-11.8105
淩	-11.8105
曦	-11.8105
守道	-11.8106
哭泣	-11.8107
查	-11.8107
純陀	-11.811
紇	-11.811
脫屣	-11.811
桎梏	-11.8111
糅	-11.8111
五十人	-11.8112
頰	-11.8112
侫	-11.8112
慍	-11.8113
桀紂	-11.8113
頓教	-11.8113
令諸	-11.8113
被誅	-11.8113
周流	-11.8113
員外郎	-11.8113
江中	-11.8115
褊	-11.8115
慶雲	-11.8116
誠有	-11.8117
寂曰	-11.8117
元公	-11.8117
阿鼻	-11.8118
燔	-11.8118
本郡	-11.812
捔	-11.812
澧陽	-11.812
晨朝	-11.812
未就	-11.8121
慧安	-11.8121
笑而	-11.8122
劃	-11.8123
香鑪	-11.8123
幽棲	-11.8124
不利	-11.8125
售	-11.8125
未甞有	-11.8125
送舍利于	-11.8125
綱紀	-11.8126
古者	-11.8126
擲筆	-11.8126
始生	-11.8128
所親	-11.8128
因謂	-11.8129
積薪	-11.8129
先於	-11.813
臭穢	-11.8131
便以	-11.8131
萬邦	-11.8133
爺	-11.8134
老子之	-11.8134
開運	-11.8135
五事	-11.8136
正坐	-11.8137
唱佛名	-11.8138
是何物	-11.8138
皆謂	-11.8138
果見	-11.8139
性也	-11.814
兩處	-11.814
前日	-11.8142
者何也	-11.8143
宗統	-11.8144
已久	-11.8144
善解	-11.8144
經旬	-11.8145
割愛	-11.8146
悉為	-11.8146
焦山	-11.8146
四十六	-11.8148
營建	-11.8148
之詞	-11.8148
寶林傳	-11.815
太安	-11.8152
侍者曰	-11.8153
出定	-11.8154
寺西	-11.8154
孔氏	-11.8154
禪教	-11.8155
瑯瑘	-11.8159
仍於	-11.8159
魏公	-11.816
圓曰	-11.8163
有婆羅門	-11.8164
六師	-11.8164
華開	-11.8165
江上	-11.8165
亦在	-11.8165
彌天	-11.8166
隨駕	-11.8169
目視	-11.817
修心	-11.8171
謝恩	-11.8171
晉陵	-11.8172
加禮	-11.8173
窮神	-11.8174
侍御	-11.8174
謂言	-11.8174
正眼	-11.8175
抗禮	-11.8175
小字	-11.8177
遙望	-11.8177
遂留	-11.8177
晚歲	-11.8178
眉間	-11.8179
屠殺	-11.8181
題目	-11.8181
去聖	-11.8181
一十二	-11.8184
持驗	-11.8186
延入	-11.8187
為眾說法	-11.819
謝之	-11.8192
堪任	-11.8192
菩薩行	-11.8192
應身	-11.8193
朝議	-11.8194
千卷	-11.8195
甘美	-11.8196
其用	-11.8197
兵馬	-11.8197
慧寂	-11.8197
六尺	-11.8199
無爽	-11.82
不辭	-11.8203
母氏	-11.8203
感疾	-11.8204
常隨	-11.8204
十餘卷	-11.8204
國人也	-11.8211
不衰	-11.8211
不煩	-11.8212
怤	-11.8212
如汝	-11.8212
寫法華經	-11.8213
崇壽	-11.8213
志學	-11.8214
化度	-11.8215
應聲曰	-11.8217
從心	-11.8221
後時	-11.8222
成熟	-11.8222
改年	-11.8224
以鐵	-11.8224
趙王	-11.8224
經過	-11.8225
為勝	-11.8226
綿州	-11.8227
盡得其	-11.8227
蓮臺	-11.8228
在東	-11.8229
遺民	-11.8231
且置	-11.8231
年滿	-11.8232
之祥	-11.8234
法味	-11.8234
㕘	-11.8235
三十七年	-11.8235
忽覩	-11.8236
僧坊	-11.8237
其狀	-11.8238
從佛	-11.8238
所居之	-11.8239
淨瓶	-11.8239
神靈	-11.8239
字德	-11.8241
法嗣會元	-11.8241
降靈	-11.8241
七日而	-11.8241
吾法	-11.8242
將行	-11.8244
信行	-11.8244
僧惠	-11.8244
闐	-11.8244
至明	-11.8244
離欲	-11.8246
今巳	-11.8247
受經	-11.8247
赧王	-11.8248
說一切有部	-11.8249
入火	-11.8252
實非	-11.8253
毘舍	-11.8253
徐行	-11.8253
一邊	-11.8253
永為	-11.8253
非不	-11.8254
中說	-11.8255
深得	-11.8255
甚處來	-11.8257
度弟子	-11.8257
所製	-11.8259
薩婆多	-11.826
有所得	-11.8261
辭以	-11.8263
初入	-11.8263
妙音	-11.8264
三千里	-11.8264
銛	-11.8265
啼哭	-11.8266
無色	-11.8266
獵者	-11.8266
問如何	-11.8266
姨母	-11.8267
摩拏羅	-11.8267
二俱	-11.8267
灑掃	-11.8267
以顯	-11.8269
惛	-11.8269
懽	-11.8272
糺	-11.8272
垂示	-11.8274
笑之	-11.8274
窈	-11.8274
壙	-11.8274
銀臺	-11.8275
微塵數	-11.8275
顙	-11.8275
甞聞	-11.8276
勒那	-11.8276
霅川	-11.8276
幽深	-11.8276
盎	-11.8276
忠懿王	-11.8276
抹	-11.8277
未之有也	-11.8277
太玄	-11.8277
泌	-11.8278
貞觀初	-11.8278
新州	-11.8278
珙	-11.8279
讀者	-11.828
類也	-11.828
憶念	-11.8281
栖霞	-11.8281
磚	-11.8281
苟非	-11.8281
報應之	-11.8282
儕	-11.8282
縊	-11.8282
淨室	-11.8283
歌舞	-11.8283
因得	-11.8283
大內	-11.8284
故稱	-11.8284
擡	-11.8284
哀號	-11.8284
阿毗曇	-11.8284
肚	-11.8285
兩浙	-11.8286
留神	-11.8286
十方世界	-11.8287
而不為	-11.8287
鼈	-11.8288
闥	-11.8288
高弟	-11.8288
蠟	-11.8288
如別	-11.8289
文若	-11.8289
掀	-11.8289
䟦陀	-11.8289
受食	-11.8289
武陵	-11.829
捲	-11.8292
為福	-11.8293
蠱	-11.8294
黿	-11.8295
皆在	-11.8296
夏六月	-11.8296
龍樹菩薩	-11.8298
莫如	-11.8298
觀此	-11.8298
遣使迎	-11.8299
先朝	-11.83
▁釋法	-11.8301
荊楚	-11.8303
屋宇	-11.8303
吾身	-11.8303
戒範	-11.8304
將安	-11.8305
月支國	-11.8305
十部	-11.8307
三昧經	-11.8307
所寄	-11.8307
默坐	-11.8308
為食	-11.8308
請業	-11.8308
耆舊	-11.8308
補闕	-11.8308
叱曰	-11.8309
復禮	-11.8309
王后	-11.831
獨存	-11.831
弘忍	-11.8311
於此處	-11.8311
永定	-11.8312
相也	-11.8312
久留	-11.8314
講主	-11.8314
惠王	-11.8315
紫微	-11.8315
去其	-11.8315
隨父	-11.8316
自解	-11.8316
祭之	-11.8317
聖典	-11.832
天曉	-11.832
白雲端	-11.8322
齊名	-11.8323
為用	-11.8323
斷肉	-11.8326
大歷	-11.8327
惟心	-11.8328
乃悟	-11.8328
龍蛇	-11.8328
暴卒	-11.8328
所奉	-11.8329
墓所	-11.8329
送舍利	-11.833
窆	-11.8331
誠如	-11.8332
侍臣	-11.8332
可得而	-11.8332
三空	-11.8332
以正法	-11.8333
舟人	-11.8333
之目	-11.8335
杖頭	-11.8335
官屬	-11.8336
物命	-11.8336
佛地	-11.8337
不往	-11.8337
南平	-11.8337
諸物	-11.8338
其詞曰	-11.8338
吞之	-11.834
不類	-11.8341
能通	-11.8343
雲山	-11.8343
慈愍	-11.8343
只知	-11.8343
稱賞	-11.8344
老子曰	-11.8344
之勞	-11.8345
身中	-11.8347
變俗	-11.835
軍民	-11.835
齋畢	-11.8351
帝令	-11.8351
推為	-11.8354
牀上	-11.8356
惠遠	-11.8357
久居	-11.8357
因是	-11.8358
王導	-11.8358
付以	-11.8359
樹林	-11.8359
上智	-11.836
三十載	-11.836
侍僧	-11.8361
蒙恩	-11.8361
不干	-11.8364
廢寺	-11.8364
其致	-11.8364
初年	-11.8365
尊勝	-11.8366
之端	-11.8367
得力	-11.8367
光色	-11.8368
前導	-11.8369
一切皆	-11.8369
經始	-11.837
隨州	-11.837
正以	-11.8373
治道	-11.8373
揚化	-11.8374
登高	-11.8374
兩頭	-11.8374
禮辭	-11.8375
不可也	-11.8376
而異之	-11.8377
生天上	-11.8377
修造	-11.838
直視	-11.838
十餘步	-11.8381
沙門道士	-11.8382
數四	-11.8384
謁之	-11.8384
三句	-11.8384
所陳	-11.8386
建道場	-11.8387
隨心	-11.8387
西秦	-11.8387
尋即	-11.8389
舊居	-11.8391
勿以	-11.8394
於國	-11.8394
讚嘆	-11.8396
可久	-11.8396
欲來	-11.8398
雲蓋	-11.84
護念	-11.84
而雨	-11.8402
漢言	-11.8402
縣尉	-11.8402
正月十五日	-11.8403
僧辯	-11.8404
極則	-11.8405
三代之	-11.8405
未忘	-11.8409
之世也	-11.8409
壬	-11.841
相仍	-11.841
玉石	-11.8411
無愧	-11.8411
大金	-11.8411
忽感	-11.8413
花果	-11.8413
仁孝	-11.8414
無難	-11.8414
宗室	-11.8415
將此	-11.8416
有名	-11.8417
兗州	-11.8419
遍參	-11.8419
太學	-11.8419
遍知	-11.8419
筠州	-11.8421
云這	-11.8421
一十七	-11.8423
即出	-11.8424
又能	-11.8424
神清	-11.8424
說此	-11.8425
普光寺	-11.8426
百代	-11.8427
姜斌	-11.8427
在座	-11.8427
何者是	-11.8431
此外	-11.8431
唐慧	-11.8432
西明	-11.8432
皆生	-11.8433
玄機	-11.8434
大唐西明寺沙門釋道宣撰	-11.8434
鴻臚	-11.8436
緇衣	-11.8436
二虎	-11.8437
惶怖	-11.8438
座云	-11.844
既入	-11.844
大成	-11.844
建伽藍	-11.8441
嬾	-11.8441
四洲	-11.8442
王見	-11.8442
眼中	-11.8444
道書	-11.8444
付法藏傳	-11.8445
金國	-11.8445
解說	-11.8445
之驗	-11.8446
而語之	-11.8446
此比丘	-11.8446
鴻臚卿	-11.8446
我子	-11.8446
者箇	-11.8447
已酉	-11.8447
憍	-11.8447
大苦	-11.8448
畿	-11.8449
何往	-11.8449
來看	-11.8449
捍	-11.845
幢幡	-11.845
出經	-11.8452
清修	-11.8452
常山	-11.8452
景文	-11.8453
同也	-11.8453
煞	-11.8453
翟	-11.8454
一城	-11.8454
奎	-11.8456
徼	-11.8457
才辯	-11.8457
休咎	-11.8457
飛去	-11.8458
混沌	-11.8459
瓮	-11.846
𣏌	-11.846
二員	-11.846
若然者	-11.8462
可信	-11.8463
主客	-11.8464
遍身	-11.8464
還返	-11.8465
公子	-11.8465
召至	-11.8466
婿	-11.8466
弘化	-11.8467
冗	-11.8467
住靈隱	-11.8467
大患	-11.8467
剖析	-11.8468
耆年	-11.847
𧦬	-11.847
絲竹	-11.8471
丹丘	-11.8472
分之	-11.8474
小子	-11.8474
行止	-11.8474
因斯	-11.8475
風雷	-11.8475
晝則	-11.8475
南渡	-11.8475
華林	-11.8476
養育	-11.8476
香煙	-11.8477
空空	-11.8477
南安	-11.8477
有一比丘	-11.8478
車溪	-11.8478
盡心	-11.8478
繼踵	-11.8479
皆空	-11.8479
羣生	-11.8479
星宿	-11.8482
見形	-11.8483
西域傳	-11.8483
索水	-11.8484
王之子	-11.8484
來意	-11.8486
中品	-11.8487
臨壇	-11.8489
歸鄉	-11.8489
受人	-11.8489
雲水	-11.8489
通經	-11.8491
右脇而	-11.8494
逢人	-11.8495
為性	-11.8495
離此	-11.8495
靈帝	-11.8496
守節	-11.8498
三十餘人	-11.8499
義淨	-11.8499
幼年	-11.8502
卷第十	-11.8502
令弟子	-11.8503
人咸	-11.8504
心力	-11.8505
語已	-11.8506
江夏	-11.8507
地持	-11.8508
道猷	-11.8509
中央	-11.8509
後七日	-11.851
八十餘	-11.851
皆可	-11.8511
六國	-11.8511
上聖	-11.8515
洎乎	-11.8516
手把	-11.8517
杜門	-11.8517
不記	-11.8518
生來	-11.8518
稱讚	-11.8519
大乘法	-11.852
立教	-11.852
無思	-11.8521
三禪	-11.8524
別無	-11.8524
常居	-11.8524
秋九月	-11.8524
只解	-11.8527
宮闕	-11.8527
安排	-11.853
日新	-11.8533
足跡	-11.8535
景王	-11.8536
哀哉	-11.8539
元日	-11.8541
惡報	-11.8542
以備	-11.8543
圖之	-11.8544
朝恩	-11.8544
作沙門	-11.8544
道德經	-11.8548
毒蛇	-11.8549
嘉祥	-11.855
本宗	-11.8552
自昔	-11.8552
臨終時	-11.8554
夜宿	-11.8555
一日謂	-11.8555
龍光	-11.8555
求解脫	-11.8556
聽出家	-11.8556
對論	-11.8557
皆歸	-11.8558
背上	-11.8558
不可言	-11.8559
於庭	-11.8559
小參	-11.856
聖帝	-11.856
大秦	-11.8561
三玄	-11.8562
相依	-11.8565
未解	-11.8565
大伽藍	-11.8568
於其間	-11.8568
吾何	-11.8569
從西	-11.8569
不信佛	-11.8569
蜀郡	-11.857
既知	-11.8571
吳縣	-11.8572
大建	-11.8572
接足	-11.8573
兼濟	-11.8574
旻曰	-11.8574
所集	-11.8575
百世	-11.8575
傳聞	-11.8575
其跡	-11.8575
未曉	-11.8575
便下	-11.8576
萬物之	-11.8576
一顆	-11.8577
靈運	-11.8579
其弊	-11.8581
以生	-11.8582
三有	-11.8584
漸次	-11.8587
見彌陀	-11.8587
始從	-11.8588
只在	-11.859
身相	-11.8591
誰敢	-11.8592
岐州	-11.8596
景明	-11.8597
客僧	-11.8598
之陰	-11.8598
照曜	-11.8598
法忍	-11.86
隨侍	-11.8602
道由	-11.8602
即成	-11.8604
捨宅	-11.8606
不擇	-11.8607
拂袖	-11.8608
特為	-11.861
嘉會	-11.8613
大司馬	-11.8614
一曰洪州	-11.8616
瑣	-11.8616
捺	-11.8617
枳	-11.8618
沓	-11.862
蹙	-11.8621
良可	-11.8623
杜氏	-11.8624
門云	-11.8624
袴	-11.8624
輔教編	-11.8624
仁和	-11.8625
亦謂	-11.8625
難為	-11.8625
於是乎	-11.8626
駒那羅	-11.8627
無情說法	-11.8627
兼修	-11.8627
命工	-11.8628
軻	-11.8628
二時	-11.8629
淘	-11.8629
洪範	-11.863
行解	-11.863
長久	-11.8631
忘疲	-11.8631
嵒	-11.8631
猫	-11.8631
瘠	-11.8632
甜	-11.8633
並見	-11.8634
蟬蛻	-11.8634
僧史略	-11.8634
雲菴	-11.8634
雷霆	-11.8634
鐙	-11.8635
發之	-11.8636
劬勞	-11.8636
東西南北	-11.8636
二十餘里	-11.8636
記莂	-11.8636
見聞覺知	-11.8637
顏貌	-11.8637
何姓	-11.8638
槖	-11.8638
蒙遜	-11.8639
有如	-11.8639
區別	-11.8639
操行	-11.8641
雪嶺	-11.8641
得名	-11.8641
十誦律	-11.8641
泮	-11.8642
生老病死	-11.8642
壽七十二	-11.8642
黃巢	-11.8645
萬五千	-11.8645
曇一	-11.8646
牕	-11.8646
撫掌	-11.8646
失却	-11.8647
設大會	-11.8648
尋師	-11.8648
經傳	-11.8648
花開	-11.8649
喘	-11.865
涪	-11.865
遺骸	-11.8652
智門	-11.8652
入京師	-11.8652
俱是	-11.8653
廣明	-11.8654
一切人	-11.8654
影堂	-11.8655
七八	-11.8657
舍利五色	-11.8659
靈相	-11.8662
台教	-11.8663
無乃	-11.8665
十遍	-11.8666
自可	-11.8666
血肉	-11.8671
涌出	-11.8671
氷釋	-11.8671
山主	-11.8672
台宗	-11.8672
廣教	-11.8673
不盜	-11.8674
塔基	-11.8675
塵沙	-11.8675
解之	-11.8675
妙善	-11.8676
其背	-11.8677
道望	-11.8678
女身	-11.8679
日將	-11.868
陳謝	-11.8681
同名	-11.8681
雨花	-11.8683
光陰	-11.8683
弟子也	-11.8684
身在	-11.8685
清白	-11.8685
百味	-11.8686
寶剎	-11.8687
稟承	-11.8688
禪道	-11.8689
玅喜	-11.869
三峰	-11.8691
觀音菩薩	-11.8693
一百六十	-11.8694
後徙	-11.8694
弘明	-11.8695
這個	-11.8697
其利	-11.8698
等皆	-11.8699
為之序	-11.8699
▁天台	-11.8699
禮云	-11.8699
華嚴宗旨	-11.87
橛	-11.8701
又出	-11.8701
懇求	-11.8701
立地	-11.8701
圖書	-11.8702
彌隆	-11.8704
不愛	-11.8704
顗禪師	-11.8707
三車	-11.8708
其道者	-11.8708
明晨	-11.8708
將有	-11.8709
玉華	-11.8709
同伴	-11.8709
等書	-11.8709
次公	-11.871
與弟	-11.871
部郎中	-11.8711
始悟	-11.8711
深悟	-11.8711
是身	-11.8712
亦乃	-11.8713
又感	-11.8714
誦金剛般若	-11.8715
孝明	-11.8718
師之道	-11.8719
祇是	-11.872
諸眷屬	-11.872
白塔	-11.8721
欲其	-11.8723
特異	-11.8726
佛滅	-11.8729
於廬山	-11.8731
可免	-11.8731
提舉	-11.8733
國朝	-11.8734
不奪	-11.8734
賴之	-11.8734
慧雲	-11.8736
不誣	-11.8736
伏奉	-11.8736
向前	-11.8739
見空中	-11.874
下令	-11.8742
長松	-11.8742
樹神	-11.8744
向道	-11.8744
乘之	-11.8746
更增	-11.8746
異焉	-11.8751
來集	-11.8752
仍令	-11.8752
禁止	-11.8753
絕筆	-11.8753
子來	-11.8753
堪為	-11.8756
傳道	-11.8757
青松	-11.8758
印土	-11.8759
如林	-11.876
延年	-11.876
不能盡	-11.876
羅浮山	-11.8761
卜居	-11.8763
即詣	-11.8764
閩王	-11.8765
師指	-11.8766
晉義熙	-11.8767
閻羅	-11.8767
垂訓	-11.877
不順	-11.8771
四歲	-11.8772
有女	-11.8773
習俗	-11.8773
今上	-11.8774
代代	-11.8775
定中見	-11.8776
成佛道	-11.8778
雖非	-11.8779
大本	-11.8779
周書異記	-11.878
食頃	-11.8782
脚下	-11.8782
空相	-11.8782
退而	-11.8782
禪師曰	-11.8783
家內	-11.8783
阿那律	-11.8784
什麼處來	-11.8786
朝散大夫	-11.8786
黎庶	-11.8787
如此則	-11.8789
志願	-11.879
贈之	-11.8791
南唐	-11.8792
菩提流志	-11.8792
詳其	-11.8792
蓋聞	-11.8792
百六十	-11.8793
雷次宗	-11.8794
疑情	-11.8794
尉遲	-11.8795
使君	-11.8795
憂波毱多	-11.8796
大羅	-11.8796
晁	-11.8796
仁王經	-11.8797
二十五日	-11.8797
行善	-11.8798
琇	-11.8798
籥	-11.8798
之倫	-11.8799
慕之	-11.8799
曇無德	-11.8799
可令	-11.8799
礫	-11.8802
獨往	-11.8802
詰其	-11.8803
桶	-11.8804
薜	-11.8805
釵	-11.8806
善本	-11.8807
乃立	-11.8807
可否	-11.8807
賒	-11.8807
一粒	-11.8807
契嵩	-11.8807
探賾	-11.8808
磵	-11.8808
華林園	-11.8808
賺	-11.8808
周穆王	-11.8809
窄	-11.8809
硬	-11.881
長干	-11.8811
匙	-11.8811
沈淪	-11.8812
自空	-11.8812
劉裕	-11.8812
文正公	-11.8813
蘇之	-11.8813
本行	-11.8814
徃	-11.8814
惠帝	-11.8814
寶華	-11.8814
即心是佛	-11.8815
私度	-11.8815
復作	-11.8817
迴心	-11.8817
巍	-11.8817
薑	-11.8818
儒書	-11.8818
未詳何許人	-11.8819
言哉	-11.882
假寐	-11.8821
滂	-11.8821
四十三	-11.8822
茶毘	-11.8822
湍	-11.8822
百錄	-11.8822
玄謨	-11.8823
無勞	-11.8823
李翱	-11.8824
方能	-11.8825
雪庭	-11.8825
聖境	-11.8825
端的	-11.8826
親戚	-11.8826
都長安	-11.8827
咄哉	-11.8829
語句	-11.8829
襍	-11.883
即隨	-11.8831
度世	-11.8831
之後也	-11.8832
加被	-11.8832
永元	-11.8833
資聖	-11.8833
祖住	-11.8833
符契	-11.8833
驚怪	-11.8833
進止	-11.8834
仁壽二年	-11.8834
凌空	-11.8835
授我	-11.8836
嚴峻	-11.8837
為序	-11.8837
失譯	-11.8839
奘師	-11.8839
頭髮	-11.884
者誰	-11.884
非聖	-11.8841
寺北	-11.8841
煥然	-11.8842
燕王	-11.8845
彼王	-11.8845
以師禮	-11.8846
未發	-11.8847
頴川	-11.8847
餘部	-11.8849
勅有司	-11.8849
歸去來	-11.8851
道恒	-11.8851
冥符	-11.8852
伏地	-11.8852
寺釋法	-11.8853
王老師	-11.8853
品云	-11.8853
忽現	-11.8853
闍王	-11.8855
晉州	-11.8856
而發	-11.8856
皆非	-11.8857
至都	-11.8857
河間	-11.886
如珠	-11.886
竭力	-11.886
物表	-11.8861
子韶	-11.8862
有病	-11.8863
異俗	-11.8863
問和尚	-11.8864
每夕	-11.8864
松下	-11.8864
人神	-11.8866
長水	-11.8866
嘗與	-11.8867
新舊	-11.8868
癡人	-11.8868
即知	-11.8869
可依	-11.887
即依	-11.8871
其俗	-11.8871
自念言	-11.8873
不施	-11.8873
七部	-11.8874
表奏	-11.8876
建塔於	-11.8876
欲取	-11.8876
營造	-11.8878
豫州	-11.8879
見普賢	-11.8884
不逢	-11.8884
答書	-11.8885
真體	-11.8885
雲雨	-11.8886
士俗	-11.8886
任運	-11.8888
諸禪	-11.8894
教伊	-11.8894
出三界	-11.8896
異說	-11.8896
請留	-11.8897
其水	-11.8898
遙禮	-11.8899
古人道	-11.8899
乘空	-11.8899
經一部	-11.8899
非常之	-11.8901
溫公	-11.8902
之政	-11.8902
省悟	-11.8904
唯識論	-11.8905
遊心	-11.8906
要之	-11.8906
清眾	-11.8907
青色	-11.8907
京室	-11.8908
箇漢	-11.8909
年來	-11.8909
承聞	-11.891
眾心	-11.8911
不省	-11.8911
法朗	-11.8912
禪牀	-11.8913
滿空	-11.8915
楊公	-11.8916
不雨	-11.8917
卷第六	-11.8918
性剛	-11.892
令汝	-11.8921
設有	-11.8921
七遍	-11.8921
不越	-11.8922
同州	-11.8922
絕頂	-11.8924
將事	-11.8927
鄂	-11.8927
首謁	-11.8929
不書	-11.8929
黃龍南	-11.893
僧官	-11.893
至暮	-11.8932
巖云	-11.8933
智感	-11.8935
遣僧	-11.8935
有光明	-11.8935
王儉	-11.8937
不使	-11.8937
圖形	-11.8939
1	-11.8939
出雜阿含	-11.8939
大蟲	-11.894
不隔	-11.8941
他國	-11.8942
感化	-11.8945
一時之	-11.8947
僧璨	-11.8948
不恁麼	-11.8948
祖考	-11.8948
何敢	-11.8948
自度	-11.8949
其舌	-11.8949
志求	-11.895
字文	-11.8951
之惑	-11.8952
明眼	-11.8954
舍利無數	-11.8955
有舍利	-11.8957
而廢	-11.8957
龍德	-11.8957
寶殿	-11.8958
報盡	-11.8958
明詔	-11.896
名位	-11.8962
後謁	-11.8963
諸佛之	-11.8964
佛剎	-11.8965
大剎	-11.8966
所被	-11.8969
一色	-11.8971
四子	-11.8973
旨歸	-11.8973
玄高	-11.8973
輔政	-11.8973
牟尼	-11.8974
此塔	-11.8975
召對	-11.8975
惲	-11.8976
尚之	-11.8976
清涼國師	-11.8976
欻	-11.8976
高者	-11.8977
法門之	-11.8977
族姓	-11.8978
正言	-11.8978
盪	-11.8978
瑫	-11.8979
良价	-11.8979
大雪山	-11.898
禮儀	-11.898
蠢蠢	-11.898
驚嗟	-11.8981
讀法華經	-11.8981
暄	-11.8983
設千僧齋	-11.8983
素服	-11.8984
嬴	-11.8985
月堂	-11.8986
詰旦	-11.8986
最上乘	-11.8987
顓頊	-11.8988
歸寺	-11.899
佛授記寺	-11.899
大理	-11.899
之疾	-11.8991
炷	-11.8991
僧擬議	-11.8992
聖主	-11.8992
駐錫	-11.8993
禪師出家	-11.8993
嵩岳	-11.8993
釋慧遠	-11.8993
漬	-11.8994
羶	-11.8994
脅	-11.8995
吐舌	-11.8995
止于	-11.8995
何則	-11.8995
怳	-11.8995
赤烏	-11.8995
有聖人	-11.8996
神鬼	-11.8996
趁	-11.8996
羡	-11.8997
無疾而終	-11.8998
踴躍	-11.8998
餒	-11.8998
祖問	-11.8999
三輔	-11.8999
廝	-11.8999
雖小	-11.9
朱紫	-11.9001
芥子	-11.9001
黎元	-11.9002
天啟	-11.9002
為甚不	-11.9003
姓王	-11.9003
信佛法	-11.9003
明王	-11.9005
后妃	-11.9006
起兵	-11.9007
佛制	-11.9007
塵埃	-11.9007
昕	-11.9007
般舟三昧	-11.9007
▁吳	-11.9009
悵然	-11.9013
自隨	-11.9015
下筆	-11.9016
余曰	-11.9016
各有所	-11.9017
西戎	-11.9017
共語	-11.9017
喜躍	-11.9018
嗚呼哀哉	-11.9019
儀式	-11.9019
無量劫來	-11.902
耳聾	-11.902
菩提樹下	-11.9021
燒之	-11.9022
始見	-11.9022
紙筆	-11.9022
▁曇	-11.9023
向汝道	-11.9023
感應傳	-11.9023
釋論	-11.9024
廣利	-11.9024
忽大悟	-11.9024
後趙	-11.9025
間斷	-11.9025
齊梁	-11.9025
曹州	-11.9026
玄儒	-11.9026
阿含經	-11.9026
相近	-11.9026
渚宮	-11.9026
但聞	-11.9026
山前	-11.9027
大天	-11.9027
王化	-11.9027
虎狼	-11.9028
資生	-11.9028
無害	-11.9028
不替	-11.9029
禾山	-11.9029
雲峰	-11.9031
大作	-11.9033
問話	-11.9033
嘗於	-11.9034
三處	-11.9034
親疎	-11.9034
成王	-11.9035
益加	-11.9035
陸氏	-11.9035
河內	-11.9036
恁麼則	-11.9037
光祿	-11.9037
藏身	-11.9038
律宗	-11.9039
不能對	-11.9039
單傳	-11.9041
明曰	-11.9042
借問	-11.9042
青溪	-11.9043
常持金剛經	-11.9043
無幾	-11.9044
汝來	-11.9045
不別	-11.9045
縱其	-11.9045
池州	-11.9046
朝士	-11.9046
文殊菩薩	-11.9049
吉藏	-11.9049
獨尊	-11.905
入大藏	-11.905
雙峯	-11.9051
復甦	-11.9051
屏山	-11.9052
文辭	-11.9054
南齊	-11.9054
之津	-11.9055
便當	-11.9057
不遂	-11.9058
猶子	-11.9061
演福	-11.9061
可悲	-11.9061
而談	-11.9063
往反	-11.9064
之言也	-11.9065
如晝	-11.9065
通理	-11.9065
執政	-11.9067
轉輪	-11.9069
聲譽	-11.9072
為學	-11.9073
妙德	-11.9073
以驗	-11.9074
洞達	-11.9074
天眾	-11.9077
所治	-11.9077
時來	-11.9079
執錫	-11.9079
意旨	-11.9079
不識字	-11.908
三十年後	-11.9081
二百餘人	-11.9082
幽旨	-11.9084
武德中	-11.9086
何意	-11.9086
人性	-11.9086
食畢	-11.9086
非常人	-11.9086
春秋五十	-11.9087
清潔	-11.9089
去在	-11.909
後隨	-11.9091
且去	-11.9093
鎮國	-11.9093
記憶	-11.9096
莫識	-11.9096
金容	-11.9096
廣開	-11.9097
無憂王之所建也	-11.9097
舉揚	-11.9097
深妙	-11.9098
將歸	-11.9098
獨有	-11.9099
慈氏菩薩	-11.91
弊衣	-11.91
床前	-11.9101
白骨	-11.9102
妙盡	-11.9103
抱一	-11.9103
妙明	-11.9104
未之信	-11.9106
斯皆	-11.911
桓帝	-11.911
捨壽	-11.911
服飾	-11.9112
勸之	-11.9112
始以	-11.9113
法花經	-11.9113
而為之	-11.9114
四望	-11.9115
綴文	-11.9115
琉璃王	-11.9115
學禪	-11.9117
因僧問	-11.9117
嗟歎	-11.9118
正路	-11.9118
半身	-11.9119
便休	-11.9119
此樹	-11.9119
近臣	-11.912
拜跪	-11.9121
憂之	-11.9121
容儀	-11.9123
其足	-11.9123
道門	-11.9123
可取	-11.9123
父為	-11.9125
阿恕伽	-11.9128
而告之曰	-11.9129
遺表	-11.9129
泉涌	-11.9131
有在	-11.9131
帝王之	-11.9132
佛入涅槃	-11.9135
尊者即	-11.9136
何期	-11.9138
百數	-11.9139
詔居	-11.9141
害之	-11.9142
遂舉	-11.9142
諸軍事	-11.9143
看之	-11.9143
流泉	-11.9145
聖容	-11.9146
曲盡	-11.9147
唐初	-11.9147
何從	-11.9148
新寺	-11.9149
過江	-11.9152
若神	-11.9152
堅持	-11.9152
有甚麼	-11.9153
符合	-11.9153
五百里	-11.9154
禮遇	-11.9154
後嗣	-11.9155
容色	-11.9156
本乎	-11.9156
無見	-11.9158
作務	-11.9158
愕	-11.9158
習鑿齒	-11.916
五尺	-11.9161
婆須蜜	-11.9162
角干	-11.9162
自任	-11.9162
金剛界	-11.9162
後三日	-11.9162
渙	-11.9163
命僧	-11.9163
婬女	-11.9164
四百餘里	-11.9164
至其家	-11.9165
隍	-11.9165
姚萇	-11.9165
毫釐	-11.9166
桑梓	-11.9166
開明	-11.9166
嶂	-11.9167
走出	-11.9167
各執	-11.9168
寇謙之	-11.9169
鈍根	-11.9169
茅山	-11.9169
教典	-11.917
畋	-11.917
召師	-11.917
紊	-11.917
念佛而化	-11.917
颯	-11.9171
著作	-11.9171
身口意	-11.9171
亢	-11.9172
夸	-11.9172
慙	-11.9173
脚跟	-11.9173
蟄	-11.9173
冉	-11.9173
菊	-11.9173
善自護持	-11.9174
虵	-11.9174
今觀	-11.9175
召僧	-11.9177
左街僧錄	-11.9178
叵	-11.9178
名實	-11.9179
煙霞	-11.918
送歸	-11.918
噉食	-11.918
瀾	-11.9181
衎	-11.9181
抄寫	-11.9181
支下	-11.9181
治罪	-11.9181
初名	-11.9181
上親	-11.9182
蒜	-11.9182
咀	-11.9182
閨	-11.9183
德藏	-11.9183
頓息	-11.9183
獻公	-11.9183
大業初	-11.9184
瞰	-11.9184
舊云	-11.9185
垂淚	-11.9185
參祖	-11.9185
培	-11.9186
飈	-11.9186
各置	-11.9187
悍	-11.9187
噴	-11.9187
頭面	-11.9187
之弟	-11.9189
轟	-11.919
釋明	-11.919
靜處	-11.919
改容	-11.919
本覺	-11.9191
璽書	-11.9193
竹杖	-11.9193
無惑	-11.9193
禪坐	-11.9194
講貫	-11.9195
摩醯首羅	-11.9195
貧賤	-11.9195
分舍利	-11.9196
大器	-11.9197
千八百	-11.9198
悉令	-11.9198
房宇	-11.92
之望	-11.92
推其	-11.92
二王	-11.9201
立壇	-11.9202
若將	-11.9202
博陵	-11.9203
迦維	-11.9203
時屬	-11.9204
雲門寺	-11.9204
禮覲	-11.9206
寶積經	-11.9206
黃氏	-11.9207
於禁中	-11.9208
士謙	-11.921
幾乎	-11.9214
年七十有	-11.9215
將及	-11.9216
骨髓	-11.9217
故來相	-11.9219
群書	-11.922
老氏之	-11.9221
殺我	-11.9223
老子云	-11.9223
察之	-11.9224
武平	-11.9224
往視	-11.9227
呂光	-11.9228
及門	-11.9228
曰某甲	-11.9231
造詣	-11.9232
聞其風	-11.9233
何處有	-11.9233
王即位	-11.9233
慶喜	-11.9233
名儒	-11.9234
山崩	-11.9234
戶牖	-11.9235
相推	-11.9236
受三歸	-11.9236
由其	-11.9237
網羅	-11.9238
命弟子	-11.9239
述偈曰	-11.924
兩宗	-11.924
降于	-11.9241
中論	-11.9241
嘗謂	-11.9242
黑衣	-11.9242
留難	-11.9242
許焉	-11.9243
宋史	-11.9244
為秦	-11.9246
出住	-11.9246
曇曜	-11.9247
三更	-11.9247
東面	-11.9248
懌	-11.9249
不宣	-11.9249
曇遷	-11.925
謹奉	-11.9252
二十八祖	-11.9252
研窮	-11.9254
翼日	-11.9255
魏文帝	-11.9255
此物	-11.9255
彼天	-11.9256
李老	-11.9257
坐斷	-11.9257
得悟	-11.9257
少孤	-11.9258
三明	-11.9259
有據	-11.9261
卷中	-11.9262
億萬	-11.9262
身光	-11.9263
流浪	-11.9265
入府	-11.9265
娑羅	-11.9266
譬之	-11.9266
共為	-11.9266
常熟	-11.9266
菩提寺	-11.9268
心口	-11.9271
諸徒	-11.9276
白色	-11.9277
無差別	-11.9279
文皇	-11.9279
四恩	-11.9279
今若	-11.928
而崩	-11.928
思慮	-11.9281
談玄	-11.9281
講誦	-11.9284
青城	-11.9285
作書	-11.9285
建浮圖	-11.9288
不久當	-11.929
觀自在菩薩	-11.9291
子良	-11.9291
午後	-11.9292
觀念	-11.9292
於江	-11.9296
禮記	-11.9296
於中國	-11.9296
經同本別譯異名	-11.9296
及餘	-11.9296
兒女	-11.9297
不知所終	-11.9297
五十六	-11.9297
國事	-11.9299
一半	-11.9301
山積	-11.9301
首領	-11.9302
生彼	-11.9303
為衣	-11.9305
入龕	-11.9306
其境	-11.9307
鎮江	-11.9308
江漢	-11.931
湘州	-11.931
我願	-11.931
而理	-11.9311
道宣	-11.9312
神祠	-11.9313
接得	-11.9313
到家	-11.9314
豈若	-11.9314
元皇帝	-11.9315
階下	-11.9316
說有	-11.9318
躬往	-11.9318
年八十一	-11.932
幼出家	-11.932
詔令	-11.9324
黃色	-11.9325
春三月	-11.9328
無已	-11.9328
八國	-11.9328
損益	-11.933
分布	-11.933
形質	-11.9331
十乘	-11.9333
不仕	-11.9335
禮重	-11.9336
二百餘	-11.9337
孝王	-11.9337
眾惡	-11.9339
詞義	-11.9339
在路	-11.9339
丑	-11.934
稱歎	-11.934
手指	-11.9341
撰集	-11.9342
閱大藏	-11.9342
通感	-11.9343
平章事	-11.9343
齋時	-11.9343
㝢	-11.9346
耆闍崛山	-11.9346
有遺	-11.9346
浙東	-11.9348
支謙	-11.9348
出火	-11.9348
佛門	-11.9349
嵬	-11.9349
不俟	-11.9349
已亥	-11.9353
先亡	-11.9353
勝境	-11.9354
更始	-11.9354
正始	-11.9354
授汝	-11.9355
滅矣	-11.9355
之左	-11.9356
寖	-11.9357
城東北	-11.9357
麟德殿	-11.9357
奩	-11.9358
喻之	-11.9359
欹	-11.9359
奮迅	-11.9359
禮部侍郎	-11.936
凾	-11.936
三夕	-11.9361
虞世南	-11.9361
淨曰	-11.9361
情深	-11.9362
憂愁	-11.9363
盂蘭盆	-11.9363
襯	-11.9364
南還	-11.9364
汀	-11.9365
其舍	-11.9365
安坐而化	-11.9366
磕	-11.9366
覇	-11.9367
胃	-11.9367
所立也	-11.9367
宿因	-11.9367
羿	-11.9367
溷	-11.9369
賈客	-11.9369
白虹	-11.9369
時有僧問	-11.9369
亹亹	-11.937
芮	-11.937
法師者	-11.9371
縱使	-11.9371
卻	-11.9372
未分	-11.9372
翻身	-11.9373
氛	-11.9373
向這裏	-11.9373
所稱	-11.9373
玉清	-11.9374
淳祐	-11.9374
倪	-11.9375
明淨	-11.9376
張商英	-11.9376
懋	-11.9377
嬉	-11.9377
氷雪	-11.9378
自省	-11.9379
汝父	-11.938
西邁	-11.938
體用	-11.9381
無得而	-11.9382
為什麼不	-11.9383
虎丘山	-11.9383
吐納	-11.9383
攀緣	-11.9384
梵宇	-11.9386
朕聞	-11.9387
清辯	-11.9387
遷善	-11.9387
師到	-11.9389
排佛	-11.939
咸康	-11.939
歿後	-11.9391
十二時	-11.9391
敗闕	-11.9392
雲開	-11.9393
百神	-11.9394
將滅	-11.9394
釋尊	-11.9394
寶樹	-11.9395
家居	-11.9395
破之	-11.9396
老死	-11.9397
近有	-11.9397
門學	-11.9398
保護	-11.9398
大自在天	-11.9399
宣尼	-11.9399
大阿羅漢	-11.94
未備	-11.9401
法式	-11.9402
高德	-11.9402
諸葛	-11.9402
老子化胡	-11.9402
乃勅	-11.9404
重疊	-11.9405
根性	-11.9406
而散	-11.9406
此衣	-11.9406
而我	-11.9406
慧永	-11.9407
只見	-11.9407
華蓋	-11.9408
貧人	-11.9408
寺出家	-11.9409
只此	-11.9409
積雪	-11.9409
亦須	-11.941
年甫	-11.9411
全提	-11.9411
地論	-11.9412
東林寺	-11.9412
婆娑	-11.9413
從學	-11.9415
粲然	-11.9417
天祚	-11.9417
之禁	-11.9418
有神人	-11.9418
相迎	-11.9419
時如何師云	-11.9419
大悲心	-11.9419
妙典	-11.9419
莫過	-11.9419
已巳	-11.942
神應	-11.9423
無德	-11.9423
冥感	-11.9424
人畜	-11.9426
愚夫	-11.9426
遂寢	-11.9426
那邊	-11.9427
悉能	-11.9427
誦佛名	-11.9429
烈王	-11.9429
同泰寺	-11.943
沈氏	-11.9431
異耳	-11.9432
不務	-11.9432
郎君	-11.9433
其骨	-11.9434
不計	-11.9435
其旁	-11.9435
至哉	-11.9436
甚於	-11.9438
日食	-11.9439
直言	-11.944
師諱	-11.944
三主	-11.9442
勝因	-11.9442
遷神	-11.9443
觀自在	-11.9443
來取	-11.9443
西番	-11.9444
魏書	-11.9444
寶月	-11.9444
彌增	-11.9444
大辯	-11.9444
五運	-11.9445
年二十二	-11.9446
迷途	-11.9449
吾自	-11.9451
文彩	-11.9453
路上	-11.9453
千計	-11.9454
同修	-11.9454
老矣	-11.9455
異部	-11.9455
殆非	-11.9456
大守	-11.9457
釋曰	-11.9458
衰老	-11.9458
七百餘	-11.9459
千眾	-11.9464
雙足	-11.9465
正因	-11.9466
跪而	-11.9468
應知	-11.9469
古來	-11.9469
功名	-11.947
願出家	-11.947
二義	-11.9473
明公	-11.9474
經聲	-11.9474
儀同	-11.9476
便利	-11.9477
發蒙	-11.9478
見舊錄	-11.9478
王師	-11.9478
婆曰	-11.9478
僧云和尚	-11.9479
大齋	-11.9479
髮膚	-11.948
朱門	-11.9482
第四子	-11.9482
化度寺	-11.9484
大漸	-11.9485
而前	-11.9486
勸發	-11.9487
其傍	-11.9487
清明	-11.9487
▁唐釋	-11.9488
寡人	-11.9488
復現	-11.9489
不勝其	-11.9489
莫可	-11.9489
本處	-11.949
時優波笈多	-11.949
隨我	-11.9492
普安	-11.9492
之譽	-11.9494
立身	-11.9495
少林寺	-11.9497
變色	-11.9497
胡氏	-11.9497
永無	-11.9498
代有	-11.9499
宗主	-11.95
至于今	-11.9502
卍進本	-11.9502
問津	-11.9503
半夜	-11.9504
教令	-11.9504
吾前	-11.9505
立于	-11.9506
夜見	-11.9507
異矣	-11.9508
卷第七	-11.9509
之基	-11.9509
為功	-11.951
東漸	-11.9511
之辰	-11.9512
舉兵	-11.9512
未周	-11.9513
瑯瑘覺云	-11.9513
悅服	-11.9514
十有二	-11.9515
善行	-11.9515
服食	-11.9515
五級	-11.9516
昭明	-11.9516
名流	-11.9518
背後	-11.9519
夢神人	-11.9519
子之所	-11.952
自相	-11.952
肉身	-11.9521
迦濕彌羅國	-11.9521
月望日	-11.9523
以避	-11.9523
列聖	-11.9523
左傳	-11.9525
遂獲	-11.9527
一覽	-11.9528
聖慈	-11.9528
法苑珠林	-11.953
圓淨	-11.9531
僧伽難提	-11.9532
至曉	-11.9532
已丑	-11.9532
崇尚	-11.9533
那由他	-11.9535
五祖演	-11.9536
胷	-11.9537
頞	-11.9538
萬類	-11.9539
授受	-11.954
已有	-11.954
僧旻	-11.954
閟	-11.954
大梁	-11.9541
杼	-11.9541
具在	-11.9541
鱉	-11.9542
退轉	-11.9543
迦那提婆	-11.9545
今將	-11.9545
澍	-11.9545
啼泣	-11.9546
豈不知	-11.9546
誨人	-11.9547
圭峰	-11.9547
恧	-11.9547
慊	-11.9548
相契	-11.9548
鹵	-11.955
刮	-11.955
娑婆世界	-11.9551
正真	-11.9551
實叉難陀	-11.9551
芟	-11.9551
熹	-11.9552
吾輩	-11.9552
復令	-11.9552
熱惱	-11.9552
輪奐	-11.9553
晉安帝	-11.9553
苗裔	-11.9554
四事供養	-11.9554
知道	-11.9554
夏五月	-11.9555
悟旨	-11.9555
悵	-11.9555
監察御史	-11.9555
方術	-11.9555
精究	-11.9556
同心	-11.9558
逋	-11.9558
即將	-11.9558
贍部	-11.9559
考之	-11.9559
縶	-11.9559
糞掃	-11.9559
非惟	-11.956
立志	-11.956
觀音經	-11.9561
森羅	-11.9561
香油	-11.9561
爼	-11.9562
聞知	-11.9562
聖恩	-11.9562
緇徒	-11.9563
精妙	-11.9563
切忌	-11.9563
故雖	-11.9563
扶桑	-11.9564
蛟	-11.9564
泝	-11.9564
人馬	-11.9565
告門人曰	-11.9565
見于	-11.9566
慳貪	-11.9566
陳宣帝	-11.9566
俱盡	-11.9566
聞空中聲	-11.9567
光州	-11.9567
所期	-11.9568
二十餘載	-11.9568
自我	-11.9568
之權	-11.9568
寶幢	-11.9569
領袖	-11.957
幘	-11.957
也須	-11.957
西史氏曰	-11.9571
肩輿	-11.9572
只管	-11.9574
闌	-11.9574
頎	-11.9574
絲毫	-11.9575
官司	-11.9575
京洛	-11.9575
墮惡道	-11.9575
梵剎	-11.9576
區分	-11.9576
浴室	-11.9578
臥病	-11.9578
柱國	-11.9578
設禮	-11.9578
昌言	-11.9579
指要	-11.9579
資糧	-11.9579
乾陀	-11.9579
北魏	-11.9579
其所居	-11.958
祖印	-11.958
入般涅槃	-11.9581
各持	-11.9582
上樹	-11.9583
身子	-11.9583
塑像	-11.9584
隨逐	-11.9585
六百卷	-11.9585
孫權	-11.9586
隋季	-11.9586
無令	-11.9586
寶曆	-11.9587
毀滅	-11.9587
本土	-11.959
僧無語	-11.9591
又著	-11.9591
餓死	-11.9592
處厚	-11.9592
後周	-11.9594
天鼓	-11.9594
大洪	-11.9596
南禪師	-11.9596
正定	-11.9597
稟性	-11.9598
新豐	-11.9598
一尺	-11.9599
所患	-11.9599
逾遠	-11.9599
緣生	-11.96
菜食	-11.9602
但得	-11.9602
所悟	-11.9602
伐木	-11.9603
今見在	-11.9603
了達	-11.9604
毀謗	-11.9605
何充	-11.9606
此偈	-11.9606
竹菴	-11.9606
光滿室	-11.9607
識者以為	-11.9607
說法要	-11.9609
慄	-11.961
神農	-11.9612
講律	-11.9613
隱于	-11.9613
大曆中	-11.9613
風神	-11.9614
承事	-11.9614
第二世	-11.9616
細行	-11.9616
後與	-11.9616
尚可	-11.9617
萬安	-11.9618
不遑	-11.9619
不雜	-11.9619
大者	-11.962
喪事	-11.962
四十一	-11.9622
圓智	-11.9622
一匝	-11.9625
西禪	-11.9626
適時	-11.9628
延興寺	-11.9629
並云	-11.9629
觀音院	-11.963
矛	-11.9632
忠臣	-11.9633
三公	-11.9634
相輪	-11.9637
五會	-11.9637
登戒	-11.9637
朝宗	-11.9637
漢州	-11.9637
水流	-11.9639
嶺上	-11.964
多生	-11.9641
法慧	-11.9641
宣公	-11.9644
海月	-11.9646
不爽	-11.9647
動容	-11.9648
之記	-11.9648
祖付	-11.9649
願曰	-11.965
見重	-11.9651
幾許	-11.9651
有損	-11.9652
一寸	-11.9652
雲起	-11.9653
布衲	-11.9654
聽許	-11.9654
眼見	-11.9654
餘則	-11.9655
海陵	-11.9656
仙道	-11.9656
含光	-11.9658
惜乎	-11.9659
如何是道	-11.9659
往來者	-11.9662
!」	-11.9662
救濟	-11.9662
真定	-11.9666
而就	-11.9667
三尊	-11.967
自失	-11.9671
誠可	-11.9671
以手摩	-11.9671
復更	-11.9672
去留	-11.9672
寧不	-11.9675
月朔	-11.9676
寂音	-11.9677
名義	-11.9677
即止	-11.9681
證入	-11.9686
被旨	-11.9686
乘時	-11.9687
樓上	-11.9688
昧者	-11.9689
志慕	-11.969
受歸戒	-11.9691
之勤	-11.9691
二年正月	-11.9692
何殊	-11.9692
正傳	-11.9694
不蒙	-11.9696
二十萬	-11.9697
陳公	-11.9699
翠巖芝云	-11.97
千載之	-11.9703
智炬	-11.9703
這箇是	-11.9704
發光	-11.9704
助我	-11.9705
置寺	-11.9705
晝寢	-11.9705
獻帝	-11.9706
僧服	-11.9707
必然	-11.971
廣平	-11.9711
此珠	-11.9713
何慮	-11.9713
固以	-11.9713
一雙	-11.9714
固其	-11.9716
不正	-11.9718
以慈悲	-11.9718
大哭	-11.9719
祖乃	-11.972
法秀	-11.9721
曇無讖	-11.9722
泉寺	-11.9723
沒交涉	-11.9723
固知	-11.9725
祖師意	-11.9725
略不	-11.9727
終其身	-11.9727
群僧	-11.9728
浮生	-11.9728
懍	-11.9729
遂止	-11.9729
阿那含	-11.9729
晷	-11.973
三年正月	-11.973
天寶初	-11.973
列傳	-11.9731
稠禪師	-11.9731
人意	-11.9733
以旌	-11.9734
赫連	-11.9734
錫號	-11.9734
子湖	-11.9735
則能	-11.9735
周續之	-11.9735
▁新羅	-11.9736
直造	-11.9737
五方	-11.9737
悟和尚	-11.9737
情性	-11.9738
朱衣	-11.974
端拱	-11.974
敬宗	-11.9741
幾年	-11.9741
萱	-11.9741
賜紫服	-11.9741
無算	-11.9742
禮也	-11.9742
即就	-11.9744
誄	-11.9744
梁朝	-11.9744
復從	-11.9744
潑	-11.9745
付於汝	-11.9745
濮	-11.9747
宣政院	-11.9747
尠	-11.9747
斡	-11.9747
藁	-11.9748
岌	-11.9749
毓	-11.9749
葵	-11.9749
屣	-11.9749
非心非佛	-11.975
噪	-11.975
腴	-11.975
波濤	-11.975
鋸	-11.975
胸臆	-11.9751
枷鎖	-11.9751
觸目	-11.9752
密行	-11.9752
駛	-11.9752
安靜	-11.9752
周匝	-11.9753
矛盾	-11.9753
則應	-11.9753
泊然而逝	-11.9753
翥	-11.9753
舍利子	-11.9754
嘔	-11.9754
浹旬	-11.9754
棊	-11.9754
糓	-11.9755
必至	-11.9756
猜	-11.9756
哺	-11.9756
喝曰	-11.9757
懺儀	-11.9758
相視	-11.9758
其所謂	-11.9758
磐石	-11.9758
隰	-11.9758
覘	-11.9759
慧辯	-11.9759
駱	-11.976
釋教錄	-11.976
羗	-11.976
一心三觀	-11.976
虢	-11.976
侍左右	-11.9761
淮海	-11.9762
𠃔	-11.9762
三十餘載	-11.9762
鎗	-11.9762
妊	-11.9762
造疏	-11.9763
廣略	-11.9763
往生之	-11.9763
勅住	-11.9764
重建	-11.9764
舅氏	-11.9765
上昇	-11.9765
須有	-11.9765
僧云如何是	-11.9766
至老	-11.9766
深器之	-11.9766
帝召	-11.9767
引頸	-11.9767
向什麼處去	-11.9767
鐘磬	-11.9768
穉	-11.9768
蒲團	-11.9768
儒墨	-11.9768
里中	-11.9768
一日一夜	-11.9769
前涼	-11.9769
善屬文	-11.9769
甘雨	-11.9769
兩月	-11.9769
提撕	-11.977
宕	-11.9771
杜順	-11.9771
見別錄	-11.9772
其中有	-11.9772
孺子	-11.9772
修懺	-11.9772
慰喻	-11.9773
乘雲	-11.9773
投地	-11.9773
迷惑	-11.9774
皆被	-11.9775
耆老	-11.9775
只要	-11.9775
上藍	-11.9776
月三十日	-11.9777
活計	-11.9777
居人	-11.9777
大軍	-11.9778
念彌陀	-11.9778
晦冥	-11.9779
化云	-11.9779
譯經院	-11.9781
綱維	-11.9784
城隍	-11.9785
無禮	-11.9785
體性	-11.9787
表之	-11.9788
貞觀三年	-11.9788
不知有	-11.9788
以代	-11.9788
和平	-11.979
周圍	-11.9792
奉獻	-11.9793
大善知識	-11.9793
中峰	-11.9794
百家之	-11.9794
非他	-11.9794
長阿含	-11.9794
向上事	-11.9795
牛馬	-11.9795
妄生	-11.9796
臨朝	-11.9796
斷臂	-11.9796
宿德	-11.9797
白氣	-11.9798
既卒	-11.9798
海眾	-11.9801
箇中	-11.9802
著地	-11.9802
大士曰	-11.9803
至教	-11.9804
五者	-11.9805
可尋	-11.9805
梁肅	-11.9806
勅遣	-11.9807
子路	-11.9807
廊下	-11.9809
天台智者	-11.9809
累劫	-11.981
工部	-11.9811
一統	-11.9811
福建	-11.9811
元禪師	-11.9812
心淨土	-11.9813
前古	-11.9813
天下後世	-11.9814
教誡	-11.9815
兼以	-11.9815
覺曰	-11.9815
乃指	-11.9816
多言	-11.9816
姓陳	-11.9817
俄爾	-11.9817
對揚	-11.9817
營福	-11.9818
累年	-11.9818
諸魔	-11.982
如實	-11.9822
什麼處去	-11.9823
稱揚	-11.9823
捨離	-11.9826
通三藏	-11.9827
梁王	-11.9827
慰勞	-11.9828
況今	-11.9829
超越	-11.983
若訥	-11.9831
云與麼則	-11.9831
鐵輪	-11.9831
毗婆沙	-11.9831
十門	-11.9832
跏坐	-11.9833
殆將	-11.9834
目覩	-11.9836
深懷	-11.9836
侍女	-11.9837
吾祖	-11.9838
唯恐	-11.9839
平旦	-11.9839
凡此	-11.984
向甚處	-11.9841
壇經	-11.9842
非獨	-11.9843
於天竺	-11.9846
謂王曰	-11.9846
高大	-11.9847
和氣	-11.9848
又改	-11.9849
盛集	-11.985
有驗	-11.9851
卷舒	-11.9851
奉為	-11.9852
顯王	-11.9852
三吳	-11.9853
說法度人	-11.9854
孤峯	-11.9854
不竭	-11.9854
為佛事	-11.9856
檀信	-11.9856
勝光	-11.9856
道源	-11.9857
六齋	-11.9859
廣福	-11.9859
累朝	-11.986
州司馬	-11.9861
善事	-11.9862
致問	-11.9863
月明	-11.9864
高氏	-11.9865
▁第三十	-11.9866
問難	-11.9867
響應	-11.9867
伐之	-11.9868
得病	-11.9869
未滿	-11.987
綱目	-11.9871
特地	-11.9872
善逝	-11.9873
汝還	-11.9874
不迷	-11.9875
二途	-11.9877
無生滅	-11.9877
順寂	-11.9877
闍維之	-11.9879
動止	-11.988
崇高	-11.988
與天地	-11.9881
既往	-11.9881
疏十卷	-11.9882
門內	-11.9884
勅使	-11.9885
虗無	-11.9887
為政	-11.9887
三乘之	-11.9888
夜行	-11.9889
不似	-11.9891
雲岩	-11.9891
無瑕	-11.9892
異術	-11.9892
已還	-11.9892
由余	-11.9893
佛法僧	-11.9895
所共	-11.9896
蓋亦	-11.9896
佛昔	-11.9897
五百餘	-11.9897
習氣	-11.9897
登位	-11.9898
戒珠	-11.9898
指授	-11.9898
兩度	-11.9899
末後句	-11.9899
一莖	-11.99
蕭瑀	-11.9901
2	-11.9901
自矜	-11.9901
扶宗	-11.9902
應現	-11.9902
一微	-11.9902
五曰	-11.9903
壽七十	-11.9907
愚智	-11.9908
取信	-11.9909
亦不知	-11.9909
生彼國	-11.9911
未見其	-11.9911
訝之	-11.9913
啟發	-11.9914
戒定	-11.9914
便作	-11.9914
寶閣	-11.9915
前進	-11.9915
覩之	-11.9915
不放	-11.9917
頓明	-11.9919
隣人	-11.992
高談	-11.9922
別圓	-11.9923
諮受	-11.9923
撰述	-11.9925
放身	-11.9925
十有餘	-11.9926
入殿	-11.9928
└─	-11.9929
為己	-11.9929
臍	-11.993
粳米	-11.9931
妓女	-11.9931
元史	-11.9933
得錢	-11.9933
傳衣	-11.9933
悲哀	-11.9934
見梵僧	-11.9934
還來	-11.9936
通貫	-11.9937
同事	-11.9937
帝詔	-11.9937
海岸	-11.9937
為碑	-11.9937
爻	-11.9938
砧	-11.9939
已卯	-11.9939
冡	-11.994
尊者毱多	-11.994
螢	-11.9942
未覩	-11.9943
之至也	-11.9943
造之	-11.9943
庠序	-11.9944
智證	-11.9945
鷺	-11.9947
楊墨	-11.9948
則不能	-11.9948
竪起拂子	-11.9948
泚	-11.9949
坂	-11.995
麟德元年	-11.9951
俛首	-11.9951
耆闍	-11.9951
無位真人	-11.9951
榆	-11.9951
脇尊者	-11.9952
封禪	-11.9953
孟簡	-11.9953
締	-11.9953
帑	-11.9954
施佛	-11.9954
諷觀經	-11.9954
征伐	-11.9954
甸	-11.9957
僭	-11.9957
霔	-11.9957
之良	-11.9958
慧持	-11.9958
無妄	-11.9958
銘其塔	-11.9958
祟	-11.9958
燈錄	-11.9958
歘	-11.9959
悸	-11.9959
羽翼	-11.996
普願	-11.996
辟穀	-11.996
如愚	-11.996
嵩高	-11.996
夥	-11.9961
槁	-11.9961
鎧菴	-11.9962
誕育	-11.9963
淅	-11.9963
帝君	-11.9964
其婦	-11.9964
無雲	-11.9965
悲慟	-11.9966
鐵圍山	-11.9966
精麁	-11.9966
而甦	-11.9966
初地	-11.9966
墳典	-11.9968
變現	-11.9968
誘掖	-11.9969
雜錄	-11.9969
四科	-11.9971
慤	-11.9971
集成	-11.9971
供事	-11.9973
正義	-11.9975
因留	-11.9977
昇座	-11.9978
蘭陵	-11.9978
尊號	-11.9978
推此	-11.9979
大聲	-11.998
作頌	-11.998
結社	-11.9982
不交	-11.9982
海濱	-11.9983
雷同	-11.9983
得須陀洹	-11.9984
淨信	-11.9985
一新	-11.9985
提刑	-11.9986
信相	-11.9986
無地	-11.999
貪愛	-11.999
能如是	-11.9991
北海	-11.9991
生忉利天	-11.9991
修佛事	-11.9992
契合	-11.9992
梁高僧傳	-11.9992
書于	-11.9995
利人	-11.9996
不能屈	-11.9996
念佛而逝	-11.9998
建精舍	-12.0001
手裏	-12.0001
一切世間	-12.0001
三經	-12.0001
那羅	-12.0003
便出去	-12.0004
何方	-12.0004
不寐	-12.0006
乘船	-12.0006
二法師	-12.0007
等處	-12.0008
普覺	-12.0009
而娠	-12.0009
久之乃	-12.0009
廣慈	-12.001
見佛菩薩	-12.0011
化洽	-12.0011
守一	-12.0015
吾非	-12.0017
弘演	-12.0018
光燭	-12.0019
悟空	-12.002
拜起	-12.002
尸解	-12.0021
儒林	-12.0023
竪義	-12.0023
松林	-12.0025
七晝夜	-12.0025
短長	-12.0025
夢金人	-12.0029
何容	-12.0029
宗元	-12.003
窺其	-12.0032
二歲	-12.0033
去就	-12.0034
少許	-12.0034
一朵	-12.0035
落髮受具	-12.0036
為體	-12.0037
碑銘	-12.0039
在目前	-12.004
末羅	-12.004
義門	-12.004
一切眾	-12.0041
加害	-12.0041
行法華三昧	-12.0042
應須	-12.0042
先賢	-12.0044
開視	-12.0045
不信佛法	-12.0045
欽風	-12.0046
巨石	-12.0047
隨人	-12.0048
龜茲國	-12.0049
有限	-12.005
解脫門	-12.005
草庵	-12.0051
殿內	-12.0052
地理	-12.0053
八苦	-12.0056
緡	-12.0057
袖中	-12.0058
白玉	-12.0061
巳盡	-12.0062
桓王	-12.0064
最久	-12.0065
可容	-12.0065
造立	-12.0067
坐次	-12.0068
諸天人	-12.0068
曰諾	-12.0068
家家	-12.0069
止之曰	-12.007
只今	-12.0071
業緣	-12.0073
禪思	-12.0073
一座	-12.0076
道聲	-12.0083
但知	-12.0084
常懷	-12.0084
避世	-12.0085
師云汝	-12.0085
所攝	-12.0087
撝	-12.0087
悉達	-12.0087
五藏	-12.0088
小塔	-12.009
一無所	-12.0091
三轉	-12.0092
將往	-12.0093
頷	-12.0094
親自	-12.0095
此云法	-12.0095
過患	-12.0097
清水	-12.0098
天寶中	-12.0098
罪報	-12.01
便可	-12.0101
信根	-12.0101
選佛	-12.0103
衣資	-12.0103
豈不見	-12.0105
月氏	-12.0107
有待	-12.0109
我今欲	-12.0112
句句	-12.0112
非直	-12.0113
塵累	-12.0115
當使	-12.0116
以事聞	-12.0116
習律	-12.0119
廣如	-12.0119
大惡	-12.012
僉曰	-12.0123
變白	-12.0124
往看	-12.0124
其半	-12.0126
石佛	-12.0126
形狀	-12.0126
高麗國	-12.0127
不遵	-12.0127
贇	-12.0128
各還	-12.0129
弘善	-12.0129
舌頭	-12.0129
可稱	-12.0132
畫一圓相	-12.0132
安忍	-12.0133
法欽	-12.0134
鄧州	-12.0135
傅毅	-12.0135
製碑	-12.0135
於徑山	-12.0137
報國	-12.0138
基址	-12.0138
支讖	-12.0138
題其	-12.0138
鳴鐘	-12.0138
騰蘭	-12.0138
願聞	-12.0139
石氏	-12.0139
僧侶	-12.014
神呪經一卷	-12.014
凡三十	-12.0141
雒	-12.0141
千變萬化	-12.0142
疼	-12.0142
陀國	-12.0143
八載	-12.0143
閹	-12.0144
汶	-12.0144
寶光	-12.0144
摩其頂	-12.0144
鹹	-12.0145
窮理盡性	-12.0145
淨域	-12.0145
匈奴	-12.0146
道得即	-12.0146
佛陀波利	-12.0147
酋	-12.0147
亡身	-12.0148
皆此類也	-12.0149
集慶	-12.0149
邊際	-12.0149
所滅	-12.0149
坌	-12.0149
年巳	-12.0149
我名	-12.015
故里	-12.0151
雞園	-12.0151
劬	-12.0151
大體	-12.0152
款	-12.0152
其過	-12.0152
詔徵	-12.0152
所服	-12.0152
戌	-12.0152
此教	-12.0152
槽	-12.0153
本意	-12.0153
日嚴寺	-12.0154
諛	-12.0154
轢	-12.0155
睨	-12.0155
祛	-12.0155
滔滔	-12.0155
底事	-12.0155
況佛	-12.0156
壇場	-12.0156
少分	-12.0156
李德裕	-12.0156
五印度	-12.0157
獅	-12.0157
秦漢	-12.0158
大難	-12.0158
鬧	-12.0159
右街	-12.0159
爪牙	-12.0159
笞	-12.0159
閴	-12.0159
筮	-12.0159
釋老志	-12.0159
旭	-12.016
右街僧錄	-12.016
復教	-12.016
恭曰	-12.0161
身著	-12.0162
番禺	-12.0162
窹	-12.0162
苛	-12.0162
張無盡	-12.0163
積惡	-12.0165
河水	-12.0165
閽	-12.0166
五六里	-12.0166
噩	-12.0166
不貪	-12.0166
杪	-12.0166
核	-12.0168
脩短	-12.0168
隳	-12.0168
䞋施	-12.0169
滄溟	-12.0169
諸鬼	-12.0169
錦繡	-12.0169
城西北	-12.0171
犢子	-12.0171
之願	-12.0171
飲噉	-12.0172
工巧	-12.0172
晨昏	-12.0173
且止	-12.0173
行宮	-12.0174
仆地	-12.0174
義寧	-12.0176
惟佛	-12.0176
滯於	-12.0177
顯著	-12.0177
游戲	-12.0178
禪房	-12.0179
講師	-12.0179
凜然	-12.0179
廣記	-12.018
猶豫	-12.018
我得佛	-12.0181
賜金	-12.0181
炳然	-12.0182
千百億	-12.0182
群盜	-12.0182
便歸	-12.0183
齒牙	-12.0183
施物	-12.0183
天竺三藏	-12.0183
即非	-12.0184
斬首	-12.0186
生兜率	-12.0186
宣州	-12.0186
披緇	-12.0186
進前	-12.0187
凡二十	-12.0187
天香	-12.019
治病	-12.0191
胡國	-12.0191
不臥	-12.0192
應命	-12.0192
朱陵	-12.0192
村落	-12.0193
慈尊	-12.0194
開寶寺	-12.0194
數百里	-12.0195
沙界	-12.0197
靈巖寺	-12.0198
第十一	-12.0198
受諸	-12.0199
史籍	-12.02
疑是	-12.0201
豈其	-12.0202
之本也	-12.0202
融通	-12.0203
他時	-12.0204
從化	-12.0204
能破	-12.0206
信奉	-12.0206
可與言	-12.0207
敬奉	-12.0211
臘月	-12.0212
王太子	-12.0212
青牛	-12.0213
歲久	-12.0214
為之記	-12.0215
懷讓	-12.0216
乘象	-12.0216
無疆	-12.0217
莫之能	-12.0219
丈八	-12.022
福善	-12.022
善言	-12.0222
六相	-12.0222
金縷	-12.0223
彌日	-12.0226
湧出	-12.0229
北天	-12.0229
如世	-12.0229
慈光	-12.023
諸儒	-12.0231
高峻	-12.0232
儀容	-12.0233
郊迎	-12.0233
奏對	-12.0234
大智慧	-12.0235
邊地	-12.0236
比丘答言	-12.0236
略舉	-12.0237
心大歡喜	-12.0238
佛海	-12.0239
八十年	-12.0239
至王所	-12.0241
不惟	-12.0241
佛調	-12.0242
清旦	-12.0243
不盈	-12.0243
勝果	-12.0247
壽四十	-12.0247
失道	-12.0249
參馬祖	-12.025
斷髮	-12.0252
白銀	-12.0252
孔門	-12.0253
異見	-12.0258
常熟人	-12.0258
之量	-12.0259
禪人	-12.026
賢哲	-12.0265
壁上	-12.0265
一掌	-12.0265
法明	-12.0265
慧因	-12.0266
三昧經一卷	-12.0266
之奧	-12.0266
至明日	-12.0269
理宗	-12.0269
能了	-12.0269
下愚	-12.0271
寶林寺	-12.0274
無變	-12.0275
姓劉氏	-12.0275
備載	-12.0276
又遷	-12.0278
仁智	-12.0278
有期	-12.0278
潔淨	-12.0279
聞其說	-12.0279
置一	-12.028
號稱	-12.028
瑯瑘王	-12.0281
萬峯	-12.0281
字號	-12.0282
自看	-12.0282
接待	-12.0283
隣國	-12.0284
寺南	-12.0285
寶函	-12.0286
不關	-12.0288
洞徹	-12.0291
慧義	-12.0292
千七百	-12.0293
比丘僧	-12.0294
悲感	-12.0294
生一子	-12.0295
罷道	-12.0296
法滅	-12.0296
夫何	-12.0297
稱王	-12.0297
本際	-12.0297
神滅	-12.0297
素有	-12.0298
正位	-12.0298
語巳	-12.0298
客至	-12.0298
僧有	-12.0298
患之	-12.0299
靈迹	-12.0301
奉教	-12.0301
大好	-12.0302
談禪	-12.0302
來歸	-12.0302
久而不	-12.0302
便就	-12.0303
一目	-12.0304
十信	-12.0305
道俗咸	-12.0306
滴水	-12.0306
梁氏	-12.0307
穆公	-12.0307
光耀	-12.0307
諸文	-12.0308
輕生	-12.0309
九載	-12.031
靈像	-12.0311
武德初	-12.0312
大慧禪師	-12.0313
若水	-12.0314
妙智	-12.0314
破家	-12.0315
此部	-12.0315
隨分	-12.0315
鷲	-12.0316
獵人	-12.0316
異道雜居	-12.0317
終歸	-12.0317
結廬	-12.0318
曇翼	-12.0318
趣向	-12.0318
餘國	-12.0319
十號	-12.0319
囀	-12.0319
道合	-12.0319
吾願	-12.032
元本作	-12.0321
假令	-12.0322
十月八日	-12.0324
發願文	-12.0326
玄言	-12.0327
光華	-12.0329
惑者	-12.0329
碑云	-12.0329
獷	-12.0329
其志也	-12.033
少小	-12.033
歡喜踊躍	-12.0331
萬萬	-12.0333
俱至	-12.0333
同體	-12.0335
喻曰	-12.0335
眄	-12.0338
凡一百	-12.0339
即召	-12.0339
事實	-12.0341
有一大	-12.0341
第三世	-12.0342
池上	-12.0343
西海	-12.0344
旃陀羅	-12.0345
安民	-12.0345
崇德	-12.0345
處世	-12.0346
智覺	-12.0346
實性	-12.0346
多諸	-12.0348
以勸	-12.0348
但令	-12.0348
洛浦	-12.0351
此座	-12.0351
孛	-12.0352
三摩地	-12.0352
唯是	-12.0353
儒學	-12.0353
東安寺	-12.0353
無一物	-12.0354
如雪	-12.0354
戀慕	-12.0354
目犍連	-12.0354
白石	-12.0354
鬢	-12.0354
贅	-12.0355
悝	-12.0356
汲汲	-12.0356
祕書監	-12.0357
猫兒	-12.0357
三十六年	-12.0357
桓溫	-12.0358
聖君	-12.0358
貞觀十九年	-12.0359
菲	-12.0359
陸修靜	-12.0359
遒	-12.0359
萬餘里	-12.036
鵞	-12.036
机	-12.036
奭	-12.0361
頻婆娑羅王	-12.0361
林藪	-12.0362
四教儀	-12.0362
鉉	-12.0362
臨淄	-12.0362
脯	-12.0362
安坐而逝	-12.0363
夜奢	-12.0363
潼	-12.0363
方言	-12.0363
殘害	-12.0363
萊	-12.0365
徒跣	-12.0365
軌範	-12.0365
只這	-12.0366
義章	-12.0367
媒	-12.0367
東還	-12.0367
八萬四千塔	-12.0367
曇摩	-12.0368
址	-12.0369
毛竪	-12.0369
蝕	-12.037
獨居	-12.037
為己任	-12.0371
求度	-12.0371
小聖	-12.0372
附舶	-12.0372
劇談	-12.0374
影不出山	-12.0374
復告	-12.0374
鴉	-12.0375
覬	-12.0375
向甚處去	-12.0375
甚處去	-12.0375
木叉	-12.0375
狐疑	-12.0375
豁然有省	-12.0376
黔	-12.0376
訪問	-12.0377
如入禪定	-12.0378
溜	-12.0378
臠	-12.0378
鬬	-12.0379
癈	-12.0379
冬十二月	-12.0379
光照室	-12.0379
忞	-12.0379
旦暮	-12.038
疵	-12.038
蟬	-12.038
僚屬	-12.0381
牙齒	-12.0381
鮮卑	-12.0381
溈	-12.0382
各隨	-12.0382
秀出	-12.0384
或現	-12.0385
涎	-12.0385
佛說法	-12.0386
云不會	-12.0387
不謬	-12.0387
龍舒	-12.0387
壽七十四	-12.0388
比來	-12.0389
虎邱	-12.0389
交州	-12.0389
盛暑	-12.039
仁王般若	-12.0392
車騎	-12.0392
一日聞	-12.0392
廂	-12.0392
染患	-12.0393
發憤	-12.0393
之義也	-12.0395
某處	-12.0395
湯武	-12.0396
相忘	-12.0396
入天台	-12.0397
之甚也	-12.0397
精研	-12.0398
宿衛	-12.0398
諮稟	-12.0398
天使	-12.04
精爽	-12.04
焚毀	-12.0401
明招	-12.0401
崩于	-12.0402
禍亂	-12.0402
稽古	-12.0403
數番	-12.0405
汴京	-12.0409
上流	-12.0409
竪起	-12.0409
大覺寺	-12.0409
不全	-12.0409
廬州	-12.041
雜華	-12.0411
太白山	-12.0412
諸暨	-12.0413
泥牛	-12.0413
先佛	-12.0413
邑之	-12.0413
於佛法中	-12.0413
者謂之	-12.0415
爾時太子	-12.0416
自高	-12.0417
端居	-12.0419
之族	-12.042
在內	-12.042
緣熟	-12.0421
二年二月	-12.0421
清晨	-12.0422
代孫	-12.0423
孝養	-12.0424
靈鑒	-12.0424
謂侍者曰	-12.0424
閒居	-12.0429
總攝	-12.043
彌遠	-12.0431
白金	-12.0431
親族	-12.0432
夢遊	-12.0433
文疏	-12.0433
隆慶	-12.0433
御座	-12.0434
好手	-12.0435
秦弘始	-12.0435
迎師	-12.0439
處州	-12.0439
盛矣	-12.044
競來	-12.0441
黃初	-12.0441
出世住	-12.0443
一切善	-12.0443
數千言	-12.0446
金丹	-12.0447
諸釋	-12.0448
法王之	-12.045
慟哭	-12.045
每遇	-12.0451
至第三	-12.0451
兵眾	-12.0451
一百八十	-12.0452
因疾	-12.0452
勤於	-12.0452
本分	-12.0453
軌則	-12.0454
宋朝	-12.0456
名賢	-12.0457
十有九	-12.0462
施戒	-12.0462
來聽	-12.0463
血食	-12.0463
數數	-12.0464
延師	-12.0464
籍甚	-12.0466
福智	-12.0468
梵言	-12.0468
萬菩薩	-12.047
長三尺	-12.047
譯語	-12.047
勿使	-12.047
可勝言	-12.0473
續集	-12.0474
相別	-12.0474
收其	-12.0475
代講	-12.0477
宮門	-12.0478
無報	-12.0482
射之	-12.0483
學小乘	-12.0483
曰恁麼則	-12.0485
昆弟	-12.0485
辭退	-12.0485
陰陽之	-12.0485
澄心	-12.0485
若據	-12.0487
九歲出家	-12.0488
道隆	-12.0489
隨類	-12.0489
亦異	-12.0489
棄俗	-12.049
兩忘	-12.049
五湖	-12.0492
朱子	-12.0493
易名	-12.0494
尋復	-12.0494
七十四	-12.0496
執經	-12.0496
玄孫	-12.0496
東向	-12.0499
三達	-12.0499
隱身	-12.0499
希世	-12.05
默念	-12.05
之所為	-12.05
呂公	-12.0501
印施	-12.0501
謬矣	-12.0503
為詩	-12.0504
劫初	-12.0505
具言	-12.0506
周迴	-12.0508
便生	-12.0509
見聶道真錄	-12.051
伏牛	-12.051
不治	-12.0511
與兄	-12.0511
守真	-12.0512
國大都城	-12.0513
[...]
