<unk>	0
<s>	0
</s>	0
/	-3.65949
(	-3.90254
)	-3.93507
之	-4.06626
也	-4.49475
以	-4.64024
為	-4.88024
而	-4.92652
)(	-5.0503
者	-5.25293
其	-5.3585
王	-5.43597
有	-5.44903
人	-5.49415
不	-5.5002
曰	-5.53472
於	-5.56215
言	-5.74599
則	-5.78164
與	-5.85531
上	-5.89396
一	-5.93876
無	-6.00493
子	-6.02904
事	-6.03593
自	-6.04729
至	-6.05857
此	-6.0993
大	-6.11081
矣	-6.13854
所	-6.16538
今	-6.18148
及	-6.18676
使	-6.1895
謂	-6.193
故	-6.21858
臣	-6.22911
公	-6.22992
秦	-6.25141
齊	-6.26001
反	-6.26182
爲	-6.28937
在	-6.29262
等	-6.31081
時	-6.33972
又	-6.34119
下	-6.3414
行	-6.34623
見	-6.37326
皆	-6.37863
亦	-6.39789
同	-6.4133
令	-6.46207
知	-6.46413
官	-6.46767
中	-6.48127
必	-6.48591
得	-6.49289
非	-6.49564
如	-6.50238
兵	-6.50245
將	-6.50511
已	-6.51586
三	-6.52782
用	-6.54388
趙	-6.54662
乃	-6.55153
出	-6.56114
是	-6.56954
復	-6.57839
文	-6.58028
于	-6.58513
相	-6.58516
後	-6.5911
國	-6.59359
欲	-6.59393
正	-6.62645
▁	-6.63104
從	-6.64985
當	-6.65293
字	-6.65462
名	-6.66334
作	-6.67094
注	-6.68196
命	-6.68567
然	-6.6902
猶	-6.69083
楚	-6.70006
二	-6.7068
入	-6.72391
若	-6.72519
成	-6.73056
遂	-6.73656
安	-6.74005
魏	-6.74838
即	-6.75347
因	-6.7764
可	-6.77793
請	-6.78595
乎	-6.83113
君	-6.83794
云	-6.83811
書	-6.86259
州	-6.87916
闕	-6.89098
音	-6.8919
詔	-6.89342
軍	-6.89404
取	-6.89724
多	-6.90719
張	-6.91304
地	-6.92883
且	-6.92978
日	-6.93138
重	-6.93642
韓	-6.93718
道	-6.94353
民	-6.94564
先	-6.94874
周	-6.94893
未	-6.95316
年	-6.96214
明	-6.96375
/)	-6.96785
本	-6.96956
去	-6.96961
陳	-6.97222
任	-6.973
天	-6.98449
李	-6.98829
賜	-6.99494
前	-7.0007
雖	-7.00377
進	-7.00654
立	-7.01512
五	-7.0312
生	-7.04215
加	-7.05052
我	-7.05107
封	-7.05567
馬	-7.05928
初	-7.06655
卒	-7.06712
何	-7.06754
死	-7.06891
聞	-7.07685
天下	-7.07839
合	-7.07899
四	-7.07989
舉	-7.08169
能	-7.08597
平	-7.09893
城	-7.10461
或	-7.10611
主	-7.10664
章	-7.11376
方	-7.12017
既	-7.14891
徳	-7.149
俱	-7.15166
禮	-7.15758
内	-7.15847
善	-7.16779
來	-7.1851
守	-7.18653
實	-7.18955
通	-7.19703
議	-7.20086
夫	-7.20109
歸	-7.20312
武	-7.20322
定	-7.21561
奏	-7.22242
始	-7.22412
各	-7.23247
外	-7.23304
山	-7.2335
和	-7.2435
長	-7.24866
稱	-7.25711
伯	-7.26412
常	-7.26491
數	-7.2665
兼	-7.26712
惟	-7.27217
兩	-7.27306
補音	-7.27967
劉	-7.28356
分	-7.29379
南	-7.29668
親	-7.29884
義	-7.30107
元	-7.30176
爾	-7.305
不可	-7.31135
意	-7.31528
焉	-7.31726
宜	-7.31845
居	-7.319
元作	-7.31945
恐	-7.32911
侯	-7.33082
固	-7.33317
世	-7.33902
治	-7.3418
服	-7.34766
吾	-7.35323
補曰	-7.3551
以為	-7.3557
家	-7.36245
府	-7.36567
心	-7.37086
制	-7.37102
信	-7.3781
問	-7.38237
不能	-7.38374
朝廷	-7.38519
降	-7.38727
朝	-7.39021
宋	-7.39198
門	-7.3966
士	-7.39845
改	-7.39861
過	-7.39902
法	-7.40172
論	-7.40616
燕	-7.40699
髙	-7.41184
史	-7.41574
甚	-7.41576
補	-7.41669
正曰	-7.42394
易	-7.44168
陽	-7.4447
師	-7.44976
利	-7.44988
殺	-7.45526
金	-7.45614
六	-7.45666
發	-7.45681
德	-7.45726
戰	-7.46443
嗣	-7.46496
盡	-7.46822
並	-7.4827
水	-7.48272
謀	-7.48666
東	-7.48811
計	-7.49432
耳	-7.49465
衆	-7.49897
聲	-7.50322
求	-7.50822
十	-7.50996
起	-7.51484
右	-7.51618
說	-7.51623
處	-7.51624
功	-7.51793
政	-7.51872
召	-7.52029
樂	-7.5244
西	-7.52445
置	-7.5314
氏	-7.53728
陛下	-7.5414
朕	-7.54484
難	-7.55031
失	-7.55043
忠	-7.55285
諸	-7.5596
受	-7.55964
亡	-7.56227
逺	-7.56407
昭	-7.56496
卿	-7.56849
攻	-7.56929
直	-7.57016
遣	-7.57165
應	-7.57385
傳	-7.5795
近	-7.58084
屬	-7.58548
理	-7.5862
司	-7.58626
九	-7.58749
尚	-7.58859
止	-7.58975
晉	-7.59209
罷	-7.60703
少	-7.60759
辭	-7.60809
賊	-7.60835
代	-7.6112
古	-7.61145
許	-7.61511
順	-7.61748
北	-7.62412
還	-7.62433
益	-7.62939
仍	-7.63525
敗	-7.63763
力	-7.64132
告	-7.64149
由	-7.64498
都	-7.64915
聽	-7.65241
説	-7.65293
身	-7.65396
深	-7.65795
漢	-7.6607
帝	-7.66265
更	-7.66412
惡	-7.66699
凡	-7.66889
小	-7.67252
哉	-7.67407
致	-7.67658
特	-7.68215
次	-7.68256
罪	-7.68317
思	-7.6872
勝	-7.68732
寧	-7.69201
食	-7.69475
父	-7.69811
儀	-7.69953
白	-7.6998
衛	-7.70044
不得	-7.7017
楊	-7.70365
宗	-7.70392
孫	-7.70444
廣	-7.70574
經	-7.70669
黄	-7.7082
錢	-7.70954
太子	-7.71043
縣	-7.71217
坐	-7.71778
按	-7.72284
䇿	-7.72516
好	-7.73089
引	-7.73167
語	-7.73223
并	-7.7329
宣	-7.73844
留	-7.73986
唐	-7.74369
梁	-7.74787
嵗	-7.74849
疑	-7.74867
除	-7.74996
興	-7.75456
觀	-7.75465
乞	-7.75485
左	-7.75547
百	-7.75747
盖	-7.76307
賢	-7.76507
往	-7.7732
位	-7.77511
新	-7.77902
獨	-7.77926
志	-7.7851
間	-7.78541
舊	-7.78727
所以	-7.78875
女	-7.79081
首	-7.79326
奉	-7.79361
報	-7.79666
保	-7.79863
太宗	-7.80186
貴	-7.80651
約	-7.80689
具	-7.80902
交	-7.81023
鄭	-7.81037
敵	-7.81311
學	-7.819
石	-7.82099
厚	-7.82151
比	-7.82573
永	-7.82792
異	-7.82861
輕	-7.836
路	-7.83644
郡	-7.83681
備	-7.83781
遷	-7.8379
但	-7.84179
彼	-7.84496
亂	-7.85051
吳	-7.85155
别	-7.85317
終	-7.85428
納	-7.8544
職	-7.86039
田	-7.86051
恩	-7.86064
物	-7.8629
吏	-7.86786
誠	-7.87372
獻	-7.87774
强	-7.87825
再	-7.87897
惠	-7.87918
七	-7.88215
靖	-7.88385
而不	-7.88742
掌	-7.88887
衍	-7.89074
江	-7.89499
絶	-7.89599
教	-7.89711
夏	-7.89919
三年	-7.90013
免	-7.90221
扵	-7.90241
修	-7.90656
給	-7.9084
節	-7.91227
試	-7.91396
宫	-7.91943
私	-7.92044
遇	-7.92193
對	-7.92214
賞	-7.92327
伐	-7.92388
開	-7.92698
悉	-7.92735
尚書	-7.92894
解	-7.93348
八	-7.93373
㑹	-7.93557
懐	-7.94037
克	-7.94042
於是	-7.94044
設	-7.94236
望	-7.94336
共	-7.94363
光	-7.94392
徐	-7.94886
權	-7.95218
仁	-7.95554
進士	-7.95647
嘗	-7.95963
願	-7.95996
選	-7.96212
将	-7.96369
疾	-7.96651
汝	-7.96833
據	-7.96908
萬	-7.97074
河	-7.97454
清	-7.97516
豈	-7.97577
車	-7.97838
不敢	-7.98124
致仕	-7.98173
破	-7.9835
收	-7.98539
授	-7.98543
承	-7.98721
達	-7.98902
幸	-7.98936
拜	-7.99556
怨	-7.99601
聖	-7.99617
餘	-7.9983
母	-7.99903
省	-7.99984
申	-8.00714
玉	-8.00928
度	-8.00984
務	-8.01124
邊	-8.01335
廢	-8.01515
率	-8.01535
果	-8.01857
榮	-8.02544
便	-8.0257
御	-8.02709
濟	-8.03704
端	-8.03722
謝	-8.03784
恭	-8.03976
全	-8.04011
鎮	-8.04122
神	-8.04175
陞	-8.04506
視	-8.05425
要	-8.05558
責	-8.05562
布	-8.06259
胡	-8.06538
如此	-8.06573
建	-8.07331
敬	-8.07562
載	-8.08114
不知	-8.08207
持	-8.08304
怒	-8.0837
懼	-8.08374
福	-8.0887
可以	-8.09285
退	-8.09541
魯	-8.09625
表	-8.09707
送	-8.09849
太	-8.10021
皇	-8.10123
土	-8.10987
考	-8.11138
御史	-8.11171
朱	-8.11476
口	-8.11757
就	-8.11774
陵	-8.11777
號	-8.12192
急	-8.12882
監	-8.12896
汗	-8.12946
簡	-8.13338
嘉	-8.13459
隂	-8.13558
執	-8.13663
依	-8.13722
動	-8.1377
流	-8.14464
贈	-8.14664
典	-8.14775
原	-8.14894
尊	-8.1498
化	-8.15277
紀	-8.15301
記	-8.15518
景	-8.15875
衣	-8.16008
勞	-8.16055
大臣	-8.16071
累	-8.16077
左右	-8.16126
美	-8.16174
遺	-8.16218
老	-8.16608
切	-8.16725
春	-8.1698
耶	-8.17027
林	-8.17091
充	-8.17299
木	-8.17342
殿	-8.17347
圖	-8.17552
顧	-8.17763
姓	-8.17823
係	-8.17981
臨	-8.18007
二年	-8.18136
極	-8.18198
誤	-8.18204
足	-8.18264
獲	-8.18548
被	-8.19147
變	-8.19199
每	-8.19586
憂	-8.19898
繼	-8.19913
隨	-8.20049
二人	-8.20126
領	-8.20206
越	-8.2023
追	-8.20449
詳	-8.20577
英	-8.20825
諭	-8.2087
向	-8.20935
海	-8.2107
盛	-8.21211
龍	-8.21459
強	-8.21592
輔	-8.21744
良	-8.21783
部	-8.21963
乗	-8.21988
素	-8.22107
甲	-8.22132
害	-8.22234
慶	-8.22346
卷	-8.22569
須	-8.22599
▁(	-8.22621
顯	-8.23009
營	-8.23196
列	-8.2335
𥙷曰	-8.23479
郭	-8.2386
察	-8.24188
華	-8.24222
差	-8.24334
康	-8.24341
誅	-8.24533
風	-8.24595
威	-8.24608
諸侯	-8.24784
業	-8.24813
施	-8.24854
策	-8.25219
附	-8.2536
銀	-8.25474
崇	-8.25553
移	-8.25685
棄	-8.25907
而已	-8.26136
才	-8.26283
容	-8.26515
愛	-8.26607
病	-8.26916
弟	-8.26955
著	-8.2747
講	-8.27986
例	-8.28016
嚴	-8.28111
救	-8.2843
國公	-8.28788
月	-8.28849
久	-8.29083
管	-8.29564
危	-8.29878
四年	-8.2992
后	-8.30039
刑	-8.30445
之後	-8.30514
養	-8.30634
資	-8.31152
邑	-8.31382
患	-8.31509
質	-8.32062
滅	-8.32091
傷	-8.32124
慮	-8.32218
葢	-8.32639
邪	-8.32639
河南	-8.3273
詩	-8.32921
秦王	-8.32944
尋	-8.33013
情	-8.33054
學士	-8.33409
呉	-8.33498
待	-8.33547
對曰	-8.3363
孝	-8.33633
造	-8.33642
專	-8.33672
巳	-8.33739
喜	-8.33764
五年	-8.34047
所謂	-8.34087
色	-8.34099
客	-8.34198
氣	-8.34317
祖	-8.34559
伏	-8.34577
指	-8.3507
蓋	-8.35126
大夫	-8.35382
襄	-8.35524
適	-8.35833
里	-8.35991
莫	-8.36012
敢	-8.36028
役	-8.36031
科	-8.36078
曹	-8.36367
真	-8.366
弱	-8.37248
示	-8.3738
訓	-8.37429
違	-8.3744
泰	-8.37447
犯	-8.37534
推	-8.37585
孟	-8.37784
十年	-8.37792
智	-8.37815
帥	-8.37908
一人	-8.37982
負	-8.38144
夀	-8.38469
禍	-8.38843
戒	-8.38845
謹	-8.39038
羅	-8.39107
革	-8.39539
夷	-8.39541
尤	-8.39711
徒	-8.40001
擇	-8.40472
念	-8.40537
指揮	-8.40539
期	-8.4058
存	-8.40832
市	-8.40843
六年	-8.40935
結	-8.40951
第	-8.41
器	-8.41076
瑾	-8.41176
勿	-8.41232
逐	-8.41477
舍	-8.41519
集	-8.41571
登	-8.41869
習	-8.41913
録	-8.43252
韓魏	-8.43297
莊	-8.43336
弗	-8.43427
畏	-8.43824
調	-8.43952
寡人	-8.44061
之事	-8.44105
肅	-8.44143
連	-8.44254
見前	-8.44313
諌	-8.44478
衞	-8.44906
庶	-8.45119
昌	-8.45158
延	-8.45252
禁	-8.45296
嘉靖	-8.4533
曽	-8.45403
楚王	-8.45531
擊	-8.45594
圍	-8.45836
候	-8.45989
離	-8.46076
委	-8.4608
勢	-8.4625
斷	-8.46414
目	-8.46477
者也	-8.46542
放	-8.46564
百姓	-8.46599
七年	-8.46636
薄	-8.46653
他	-8.46799
從之	-8.46845
都督	-8.46974
回	-8.4717
皇帝	-8.47394
積	-8.47509
於秦	-8.47648
富	-8.47704
丁	-8.47906
八年	-8.47987
高	-8.48244
不足	-8.48274
之子	-8.48354
𫝊	-8.48389
南京	-8.48475
塞	-8.4865
體	-8.48692
逆	-8.48799
予	-8.48888
太監	-8.49074
走	-8.49177
徃	-8.49458
覆	-8.49802
祭	-8.49821
妃	-8.50185
曲	-8.5051
薦	-8.50515
二十	-8.50815
諫	-8.50867
到	-8.50978
夜	-8.51
况	-8.51043
副	-8.51142
㫖	-8.51261
律	-8.51387
叔	-8.51432
隆	-8.51466
避	-8.51712
支	-8.51721
元年	-8.51742
其後	-8.51806
上曰	-8.52332
蔡	-8.52357
息	-8.52368
増	-8.52475
院	-8.52569
騎	-8.52583
天子	-8.52598
襲	-8.52611
千	-8.52999
奪	-8.53011
酒	-8.53213
勇	-8.53334
之意	-8.53344
宰相	-8.53382
工	-8.53584
之言	-8.53646
户	-8.53871
之所	-8.53894
侍	-8.53951
□	-8.53986
面	-8.54002
黨	-8.54411
會	-8.54473
畢	-8.5449
先是	-8.5452
昔	-8.54537
寳	-8.54687
鈔	-8.54697
不如	-8.5494
丘	-8.54942
無所	-8.55107
寛	-8.55238
籍	-8.55609
轉	-8.55691
𥙷	-8.55722
勅	-8.55748
釋	-8.55864
吉	-8.55888
散	-8.55904
勸	-8.56003
征	-8.5623
太后	-8.56274
䝉	-8.56616
川	-8.56725
手	-8.57016
商	-8.57164
聞之	-8.57474
折	-8.57481
陜西	-8.57558
聴	-8.57587
丞相	-8.5792
戎	-8.58428
廟	-8.58452
博	-8.58819
阿	-8.59022
京	-8.59044
来	-8.59301
天下之	-8.59436
最	-8.59652
臺	-8.59739
囯	-8.59816
均	-8.59867
永樂	-8.60015
之地	-8.60051
季	-8.60274
迎	-8.60626
草	-8.60667
族	-8.60808
憲	-8.60881
直𨽻	-8.60905
青	-8.60914
羣臣	-8.61121
遣使	-8.61148
山東	-8.61152
蘇	-8.61163
寵	-8.6133
吕	-8.6176
闗	-8.61827
有所	-8.62061
佐	-8.6217
聚	-8.62179
禮部	-8.62232
火	-8.62488
為之	-8.6286
九年	-8.63103
優	-8.63273
仲	-8.63402
統	-8.63466
趨	-8.63714
脩	-8.63741
安石	-8.63803
頭	-8.63921
薨	-8.64008
唯	-8.64301
由進士	-8.64553
之人	-8.64567
堅	-8.64667
茂	-8.64776
米	-8.64821
温	-8.64827
撫	-8.64831
不許	-8.64863
助	-8.65333
哀	-8.65442
寨	-8.66241
索	-8.66306
獄	-8.66327
爭	-8.66425
决	-8.6648
形	-8.66794
室	-8.6681
十二	-8.66915
陶	-8.67306
費	-8.67361
精	-8.6737
討	-8.67413
疏	-8.67544
詞	-8.67682
象	-8.67738
之心	-8.67784
班	-8.67809
廷	-8.67809
國家	-8.67856
督	-8.68084
勤	-8.68222
爵	-8.68252
中書	-8.6838
格	-8.68638
歲	-8.68828
以下	-8.69198
帶	-8.69288
升	-8.69358
愚	-8.69612
賦	-8.69906
契丹	-8.70067
使人	-8.70112
賈	-8.70319
洪	-8.70394
宻	-8.70441
曰吾	-8.70678
斯	-8.7072
以來	-8.70833
何以	-8.70866
背	-8.70875
吏部	-8.71202
公子	-8.7121
赴	-8.71295
三月	-8.7131
諡	-8.71469
澤	-8.71556
孤	-8.71802
中山	-8.72054
妄	-8.72196
運	-8.72419
俊	-8.72839
余	-8.72866
是以	-8.72879
假	-8.73148
射	-8.73246
困	-8.73341
先帝	-8.7357
祀	-8.73581
微	-8.73604
也今	-8.73799
成化	-8.73812
反下	-8.73941
一日	-8.74188
屈	-8.74198
辨	-8.74273
照	-8.74476
洪武	-8.74489
九月	-8.74514
乆	-8.7452
似	-8.74858
八月	-8.75026
歴	-8.75046
傅	-8.75167
付	-8.75169
鄉	-8.75226
魚	-8.75448
喪	-8.75577
忽	-8.75651
以爲	-8.75782
竒	-8.75802
密	-8.76
十二年	-8.76233
境	-8.76383
頗	-8.76453
休	-8.76748
禄	-8.76798
有司	-8.76888
割	-8.77287
乘	-8.77295
識	-8.77559
斬	-8.77927
徴	-8.77967
五月	-8.77999
苦	-8.78266
判	-8.78354
預	-8.78513
懷	-8.78547
呼	-8.78677
𢎞治	-8.78753
祥	-8.78776
性	-8.78882
然後	-8.79191
牛	-8.79262
勒	-8.79488
雲	-8.79508
壽	-8.79643
寶	-8.79691
曾	-8.79718
虞	-8.79755
慎	-8.80105
奔	-8.80297
縱	-8.80322
滿	-8.80436
條	-8.80637
總	-8.80704
茍	-8.81158
太祖	-8.8116
俗	-8.81173
循	-8.81243
争	-8.81383
馮	-8.81448
援	-8.81679
財	-8.82148
不及	-8.82356
却	-8.82359
京師	-8.82567
鹽	-8.82636
不過	-8.8278
署	-8.82861
速	-8.8302
窮	-8.83229
貫	-8.83314
飲	-8.83382
類	-8.8339
叛	-8.83444
兵部尚書	-8.83473
兹	-8.83479
庫	-8.83614
旣	-8.84196
半	-8.84197
貞	-8.84319
羣	-8.84371
讓	-8.84471
杜	-8.84533
先生	-8.84569
末	-8.84653
之間	-8.84656
恃	-8.84686
郎	-8.84689
烏	-8.84827
己	-8.8495
宴	-8.85252
虚	-8.85315
錫	-8.85333
𢎞	-8.85404
十二月	-8.85453
稍	-8.85678
言之	-8.85801
缺	-8.85983
愈	-8.86079
冦	-8.86139
審	-8.86256
讀	-8.86262
春秋	-8.86394
郊	-8.86401
薛	-8.86432
圗	-8.8646
幾	-8.86469
漸	-8.86496
干	-8.86718
倍	-8.87201
舟	-8.8741
損	-8.87591
機	-8.87593
六月	-8.87622
十三年	-8.87643
十六年	-8.87685
其所	-8.87724
至於	-8.87795
中國	-8.87966
遽	-8.88
震	-8.88103
弊	-8.88159
浙江	-8.88366
宿	-8.88479
司馬	-8.88518
至是	-8.88532
赦	-8.88535
藉	-8.88749
堂	-8.88871
横	-8.88922
執政	-8.89299
印	-8.89328
仕	-8.89626
江西	-8.89655
其子	-8.89756
界	-8.89765
翟	-8.89793
招	-8.89822
早	-8.90018
是也	-8.90053
今日	-8.90059
野	-8.90107
庸	-8.90167
逃	-8.90312
友	-8.90353
欽	-8.90486
校	-8.90577
効	-8.9059
糧	-8.90678
毛	-8.90694
馳	-8.90733
内閣	-8.91129
略	-8.91129
庭	-8.91187
畧	-8.91255
冠	-8.91271
而後	-8.91399
見前嘉靖	-8.918
詣	-8.91839
魏王	-8.91909
属	-8.9203
尹	-8.92076
言其	-8.92151
竟	-8.92171
十一月	-8.92266
十一年	-8.92299
之道	-8.92413
投	-8.92622
敝	-8.92665
施行	-8.92684
朔	-8.92703
振	-8.92707
接	-8.92726
賀	-8.92734
虎	-8.92755
十四年	-8.92962
狀	-8.92969
荆	-8.93066
沈	-8.93105
關	-8.93125
藏	-8.93191
即位	-8.9347
頃	-8.93546
允	-8.93714
雄	-8.93826
參	-8.93981
辱	-8.94028
擢	-8.9415
險	-8.94161
秩	-8.94183
王曰	-8.94184
河東	-8.94365
符	-8.94372
靈	-8.94523
儒	-8.9467
拔	-8.94756
細	-8.94894
句	-8.95105
倫	-8.95119
量	-8.95159
房	-8.95176
題	-8.95276
人由進士	-8.95394
序	-8.95499
鍾	-8.95527
小人	-8.95581
將軍	-8.95778
十五年	-8.96069
湖廣	-8.9613
轉左	-8.96249
穆	-8.963
之士	-8.96303
削	-8.9638
屢	-8.96446
追封	-8.96527
貢	-8.96789
張儀	-8.96826
偽	-8.97041
給事中	-8.97153
抑	-8.97169
大王	-8.97305
尺	-8.97383
䟽	-8.97455
未有	-8.97568
臣等	-8.97707
陸	-8.97768
三人	-8.97777
揚	-8.97891
落	-8.97921
未嘗	-8.98154
亟	-8.98158
述	-8.98205
羊	-8.98316
巴	-8.98354
某	-8.98362
僅	-8.98363
侵	-8.98432
狄	-8.9845
孔	-8.98729
程	-8.98853
徙	-8.9896
衰	-8.9904
君子	-8.99055
刺	-8.99199
姚	-8.99208
辟	-8.9924
遼	-8.99259
葬	-8.9929
以聞	-8.99314
蜀	-8.99462
君之	-8.99545
竊	-8.99808
毁	-8.99919
不聽	-8.9993
殺之	-8.99958
其事	-8.99965
貪	-9.00231
的	-9.00278
擬	-9.00332
妾	-9.00372
今王	-9.00636
秋	-9.0068
減	-9.0069
了	-9.00708
伊	-9.00713
館	-9.00901
謂之	-9.00951
丞	-9.01116
錠	-9.0113
空	-9.01142
副使	-9.013
雜	-9.01603
隋	-9.0161
材	-9.0164
云云	-9.01718
夫人	-9.01769
員	-9.01886
毋	-9.01929
於齊	-9.01951
限	-9.0208
専	-9.02083
正月	-9.02089
淮	-9.02094
不為	-9.02521
仰	-9.02523
肆	-9.02644
可謂	-9.02647
弼	-9.02722
決	-9.02791
吴	-9.02933
捕	-9.02965
厯	-9.03115
二月	-9.03141
閔	-9.03234
兵部	-9.03284
谷	-9.03366
鼎	-9.03397
之時	-9.03454
篇	-9.0357
防	-9.03697
勉	-9.03701
官軍	-9.03817
河北	-9.0404
欺	-9.04231
兄	-9.04403
者皆	-9.04408
妻	-9.04466
雨	-9.04526
否	-9.04665
源	-9.04698
毎	-9.04759
皇后	-9.04884
大學士	-9.04925
人也	-9.05011
在位	-9.05013
郢	-9.05223
暴	-9.05238
毅	-9.05276
子孫	-9.05321
奸	-9.05422
范	-9.05603
中外	-9.05613
四月	-9.05708
故也	-9.05752
隱	-9.06075
補曰一本	-9.06157
十八年	-9.06182
山西	-9.06279
陣	-9.06532
感	-9.06587
於此	-9.06744
不當	-9.06853
自是	-9.06886
少保	-9.06892
閣	-9.06902
侍郎	-9.07249
遵	-9.07569
邉	-9.07584
輒	-9.0764
州縣	-9.07735
勲	-9.07741
希	-9.07919
之法	-9.0796
萬厯	-9.07985
愚按	-9.07991
舜	-9.08079
烈	-9.08313
邦	-9.0835
齊王	-9.08404
如字	-9.08487
斥	-9.0849
介	-9.08541
誰	-9.0861
湯	-9.08729
天地	-9.08832
也言	-9.08899
詐	-9.08973
惠王	-9.08989
葉	-9.08996
兄弟	-9.09015
下同	-9.09033
逸	-9.09039
額	-9.09047
贊	-9.09051
十七年	-9.09208
丹	-9.09218
虛	-9.09273
又言	-9.09418
薨子	-9.09515
之故	-9.09768
拒	-9.0978
故事	-9.10065
雲南	-9.10082
桓	-9.10124
戍	-9.1019
○	-9.10445
𩔖	-9.10678
祖宗	-9.10707
諸將	-9.10817
衡	-9.10957
敏	-9.11284
婦	-9.11285
以上	-9.11306
不復	-9.11358
借	-9.11399
四十	-9.11674
洛	-9.11677
笑	-9.11831
皮	-9.12318
寜	-9.12367
姑	-9.12384
蔽	-9.12394
供	-9.12407
緩	-9.12408
游	-9.12536
珠	-9.12629
擅	-9.12689
之罪	-9.12882
㧞	-9.12885
鼓	-9.12903
畫	-9.13001
咸	-9.13125
殊	-9.13241
扶	-9.13257
垂	-9.13369
雍	-9.13659
隠	-9.13855
牧	-9.13863
賣	-9.13879
三司	-9.14186
飾	-9.14288
顔	-9.14312
絹	-9.14354
鮑	-9.14364
罰	-9.14373
不勝	-9.14382
都指揮	-9.14402
此言	-9.14572
駕	-9.14767
擒	-9.15256
軾	-9.15418
殷	-9.15428
以此	-9.15753
裕	-9.15813
劾	-9.15919
逹	-9.15926
忘	-9.16152
祿	-9.16298
君臣	-9.16332
單	-9.16408
囘	-9.1644
星	-9.1645
曰臣	-9.16453
太師	-9.16466
知之	-9.16483
由是	-9.16799
角	-9.16882
諱	-9.16915
用兵	-9.16927
飛	-9.16941
啓	-9.17005
撰	-9.17066
黜	-9.17097
國之	-9.17222
恵	-9.17359
七月	-9.17515
豐	-9.17599
十月	-9.17666
俸	-9.17677
足以	-9.1771
惑	-9.17918
彪謂	-9.17985
𤣥	-9.18042
匹	-9.18074
翼	-9.18104
賂	-9.18122
寄	-9.18206
五十	-9.18295
享	-9.183
當時	-9.18325
不與	-9.18325
純	-9.18486
殘	-9.18513
案	-9.18534
不從	-9.18768
盟	-9.18768
術	-9.18796
諸路	-9.18815
蠻	-9.18905
註	-9.18936
辰	-9.18973
岳	-9.18989
用之	-9.18989
必有	-9.19014
寺	-9.19022
大事記	-9.19251
既而	-9.19329
蘇秦	-9.19332
訪	-9.19454
冬	-9.19458
鄧	-9.1947
與之	-9.19511
人心	-9.19513
屯	-9.19596
江南	-9.19642
厲	-9.19743
知其	-9.19926
丗	-9.19943
補音上	-9.20006
前後	-9.20141
幣	-9.20162
然則	-9.20239
熟	-9.20489
黎	-9.20491
社稷	-9.20514
併	-9.20566
亦有	-9.20588
禹	-9.20591
種	-9.20633
刻	-9.20644
俾	-9.20655
二子	-9.20667
魏徴	-9.20788
禮部尚書	-9.20849
紹	-9.21008
鑑	-9.21072
亨	-9.21097
卜	-9.21174
舉人	-9.21238
户部	-9.2137
其言	-9.21396
是時	-9.21483
讎	-9.21535
只	-9.21579
孰	-9.21606
卑	-9.21657
蕃	-9.21664
履	-9.21689
效	-9.21723
之際	-9.2179
翰林	-9.21912
規	-9.21984
二十年	-9.22064
裁	-9.22076
縁	-9.22195
准	-9.22252
料	-9.22603
維	-9.22618
彦	-9.2264
三十	-9.22689
忌	-9.22964
及第	-9.23074
之計	-9.23189
檢	-9.23229
盧	-9.23287
僧	-9.23377
之功	-9.23428
何也	-9.23445
使者	-9.23483
許之	-9.23495
州人	-9.23635
甫	-9.23767
品	-9.23789
完	-9.2381
宣王	-9.23818
喻	-9.23862
旦	-9.23896
董	-9.23935
而無	-9.24024
式	-9.24172
悼	-9.24278
惜	-9.24313
司馬光	-9.24448
歳	-9.24455
一時	-9.24459
明日	-9.24541
正徳	-9.2483
正統	-9.24943
謫	-9.24966
後世	-9.25213
賤	-9.25227
太平	-9.25393
歟	-9.25521
閒	-9.25607
不然	-9.25818
堯	-9.25948
地方	-9.25993
咎	-9.26081
貶	-9.26131
繫	-9.26183
謙	-9.26338
誣	-9.26575
錦	-9.26627
曰此	-9.26628
煩	-9.26648
杖	-9.26688
擾	-9.26728
辯	-9.26739
禦	-9.27089
父子	-9.271
步	-9.27179
側	-9.27221
超	-9.27238
諸矦	-9.27291
故曰	-9.27297
大事	-9.27517
琦	-9.27763
沙	-9.27779
寒	-9.27814
掩	-9.27845
僕	-9.27847
奮	-9.27881
不同	-9.27935
亮	-9.27991
以其	-9.28093
貨	-9.28104
郎中	-9.28109
雅	-9.28114
階	-9.28347
之國	-9.28452
姦	-9.28807
亦不	-9.28846
去聲	-9.28953
佛	-9.29034
恨	-9.29066
四方	-9.29291
懿	-9.29301
公仲	-9.29419
蕭	-9.29431
竭	-9.29527
甞	-9.29687
皇太后	-9.29703
百官	-9.30017
襄王	-9.30028
局	-9.30059
與秦	-9.30059
剛	-9.30069
矢	-9.30113
太原	-9.30185
夢	-9.30192
冒	-9.30194
俟	-9.30219
不以	-9.30235
仁宗	-9.30328
上下	-9.30329
節度使	-9.30515
浮	-9.30671
行之	-9.30768
驕	-9.30812
太子太保	-9.30818
六十	-9.30824
是日	-9.30852
藩	-9.30924
三百	-9.30996
悔	-9.31086
逮	-9.31148
元昊	-9.31193
注同	-9.31335
戴	-9.31376
遊	-9.31422
偏	-9.31518
上言	-9.32029
羽	-9.32133
之上	-9.32159
農	-9.32324
帛	-9.32519
内外	-9.32539
血	-9.32565
伍	-9.32641
寡	-9.32663
昭王	-9.32774
三日	-9.32788
補音古	-9.32789
欲以	-9.32978
踰	-9.33153
人主	-9.33164
一本	-9.33197
導	-9.33216
陷	-9.33221
談	-9.33221
恥	-9.33242
恕	-9.33284
於王	-9.33346
世襲	-9.33374
文武	-9.33454
慈	-9.33676
兒	-9.33686
少師	-9.33698
集韻	-9.33742
買	-9.33756
賴	-9.33854
長子	-9.33885
鄙	-9.34231
不若	-9.34326
殆	-9.34362
其地	-9.34367
穀	-9.3438
儲	-9.34382
謁	-9.34419
少傅	-9.34487
彬	-9.34617
勛	-9.34675
樓	-9.34703
覺	-9.34759
蘇子	-9.3497
僖	-9.34979
宇	-9.35294
二國	-9.35576
育	-9.35686
南陽	-9.35692
翰林學士	-9.35744
趙王	-9.35776
五百	-9.35815
錦衣衛	-9.3585
之辭	-9.35887
有功	-9.35954
䕶	-9.35962
確	-9.36139
之臣	-9.36142
短	-9.3615
究	-9.36183
莫不	-9.36257
世子	-9.36563
倉	-9.36587
挾	-9.3677
三十年	-9.36811
驚	-9.36814
銜	-9.36848
収	-9.3685
仇	-9.36863
虜	-9.36866
頓	-9.36871
傾	-9.36879
元祐	-9.36891
肉	-9.36915
三國	-9.36975
普	-9.37201
乾	-9.37356
它	-9.37471
十一	-9.37475
奈何	-9.37486
其人	-9.37578
抵	-9.37887
昨	-9.37985
蒙	-9.38073
荒	-9.38124
不行	-9.3816
叙	-9.38183
輸	-9.38197
蘇代	-9.38244
二十二年	-9.38281
築	-9.38418
采	-9.38499
平章	-9.38759
也正曰	-9.38818
輿	-9.38825
聘	-9.38893
旋	-9.39339
劒	-9.39391
曰君	-9.39403
斗	-9.39425
徑	-9.39474
史作	-9.39718
有差	-9.39774
於楚	-9.39839
吏部尚書	-9.39841
募	-9.39896
賛	-9.39965
甘茂	-9.40024
筆	-9.40047
珪	-9.4013
都督僉事	-9.4014
淫	-9.40153
十九年	-9.40176
十五	-9.40395
後同	-9.40399
千户	-9.40602
惇	-9.40634
斉	-9.40679
哈	-9.40707
姬	-9.40744
文臣	-9.40755
彭	-9.40847
舎	-9.40923
曰我	-9.40962
池	-9.41022
豈可	-9.41089
所言	-9.41217
士卒	-9.41224
花	-9.4137
幼	-9.41402
泉	-9.41446
賓	-9.41509
無不	-9.41742
徵	-9.41905
㡬	-9.41986
袁	-9.4205
粟	-9.42073
巧	-9.42092
之禮	-9.42188
焚	-9.42301
嵗次	-9.42418
畨	-9.42426
蒲	-9.42612
曉	-9.4265
明年	-9.4267
賔	-9.42714
亭	-9.4272
乏	-9.4274
文字	-9.42806
悦	-9.42974
鎮守	-9.4328
芳	-9.4332
戮	-9.43387
睦	-9.43391
之兵	-9.4343
足下	-9.43454
不可以	-9.43582
甘	-9.43632
福建	-9.43675
淺	-9.43838
榜	-9.43898
必不	-9.43901
雖有	-9.44013
陰	-9.44033
榖	-9.44048
竄	-9.44057
塲	-9.44058
其餘	-9.44104
增	-9.44128
江陵	-9.44132
産	-9.44239
輩	-9.44445
遜	-9.44506
稽	-9.4457
冝	-9.44665
与	-9.44668
㓕	-9.44679
配	-9.4469
觧	-9.44767
於天下	-9.4494
上以	-9.44999
祐	-9.45002
覽	-9.45086
沒	-9.45164
今按	-9.45316
壯	-9.45426
没	-9.45457
驗	-9.45469
不足以	-9.45813
淳	-9.46018
基	-9.46052
遁	-9.46091
苑	-9.46129
二十一年	-9.46136
樹	-9.46196
託	-9.46209
太皇太后	-9.46282
而去	-9.46377
不肯	-9.464
勘	-9.46622
藥	-9.46712
整	-9.46884
以待	-9.46976
宣徳	-9.4706
八十	-9.47123
勁	-9.47466
誓	-9.47495
痛	-9.47533
抗	-9.47564
不用	-9.48213
骨	-9.48219
答	-9.48258
元帥	-9.48382
工部尚書	-9.48402
自今	-9.48424
下獄	-9.48646
之日	-9.48713
段	-9.48732
麗	-9.48747
罕	-9.48825
翰	-9.48862
崔	-9.48868
席	-9.48907
誘	-9.48953
不欲	-9.48958
讒	-9.49002
王安石	-9.49005
為民	-9.49333
軫	-9.49442
太傅	-9.49465
疋	-9.49609
查	-9.49648
操	-9.49658
啟	-9.49722
不見	-9.49738
貳	-9.49751
何如	-9.49853
爾等	-9.50061
自古	-9.50072
崩	-9.50087
珍	-9.5014
環	-9.502
歡	-9.50306
占	-9.50315
驅	-9.50373
盈	-9.50402
熊	-9.50421
燕趙	-9.50612
當作	-9.50657
公主	-9.50797
大軍	-9.50824
利害	-9.50832
寸	-9.5095
寢	-9.50961
工部	-9.51006
銘	-9.51047
濫	-9.51063
犀首	-9.5107
鳴	-9.51124
先王	-9.51217
韋	-9.5136
之名	-9.51421
厥	-9.51634
桓公	-9.51713
敕	-9.51753
俞	-9.5177
弓	-9.51794
總督	-9.51802
價	-9.51839
邯鄲	-9.51881
等官	-9.51887
牒	-9.51895
刑部	-9.52005
也故	-9.52055
也夫	-9.5239
齊楚	-9.52435
露	-9.5257
協	-9.52575
匿	-9.52582
髙祖	-9.52588
無以	-9.52626
諸州	-9.52646
歌	-9.52737
政事	-9.52903
不合	-9.52925
鄰	-9.53029
厭	-9.53064
綱	-9.53161
不至	-9.53174
蔣	-9.53243
偉	-9.53267
靡	-9.53335
㣲	-9.53338
仲淹	-9.53363
恤	-9.53528
墨	-9.53529
東宫	-9.53753
通判	-9.53832
第一	-9.53834
淵	-9.53846
泣	-9.53915
秉	-9.53957
詢	-9.54055
冀	-9.54087
徹	-9.54093
姜	-9.54134
軍士	-9.54152
堪	-9.54172
刀	-9.54204
韓琦	-9.54302
人君	-9.54306
都督同知	-9.54418
忍	-9.54561
津	-9.54668
托	-9.54757
盜	-9.54765
迪	-9.54768
況	-9.54807
訴	-9.54825
橋	-9.54827
二字	-9.54885
徧	-9.54974
湖	-9.55022
其罪	-9.55077
宏	-9.55189
三千	-9.55245
千里	-9.55326
而死	-9.55352
伐齊	-9.55403
於魏	-9.55451
子之	-9.55458
進封	-9.55492
涉	-9.55509
偃	-9.55516
柔	-9.55535
丁憂	-9.5557
悟	-9.55583
狂	-9.55595
沮	-9.55609
聖人	-9.55723
本年	-9.55758
一旦	-9.55801
戸	-9.55811
死者	-9.55824
人之	-9.55856
不必	-9.56002
都察院	-9.56071
有餘	-9.56162
左都督	-9.56311
正德	-9.56312
拘	-9.56328
畜	-9.56334
先朝	-9.56387
西周	-9.56398
二十三年	-9.56489
士大夫	-9.56639
一百	-9.56838
此時	-9.56868
不信	-9.56923
人皆	-9.57027
屠	-9.57051
嫌	-9.57075
武王	-9.57165
使臣	-9.5722
東周	-9.57455
監察御史	-9.57768
尉	-9.57808
俱嘉	-9.57812
採	-9.57884
倚	-9.57912
哭	-9.57941
松	-9.57943
如何	-9.58014
世宗	-9.58209
州刺史	-9.58318
狀元	-9.58425
之民	-9.58438
之役	-9.58474
宗廟	-9.58522
臣之	-9.58677
輔臣	-9.58692
桂	-9.5874
貞觀	-9.58783
其心	-9.5885
又曰	-9.58967
茶	-9.59024
譽	-9.59235
疲	-9.59354
不便	-9.59389
刼	-9.59403
汪	-9.59407
等處	-9.59449
不善	-9.59464
出兵	-9.59591
豫	-9.59639
四川	-9.59701
提	-9.59721
不出	-9.5978
之義	-9.59856
以示	-9.5987
其國	-9.60087
文皇	-9.60125
潘	-9.60221
戾	-9.60245
耕	-9.60246
宅	-9.6025
内臣	-9.60268
隙	-9.60303
刑部尚書	-9.60315
薨壽	-9.60534
遣人	-9.60661
閒住	-9.60786
大國	-9.60898
霸	-9.60911
總兵官	-9.60912
父母	-9.60923
懋	-9.60962
撥	-9.61014
鑒	-9.61088
不相	-9.61302
實録	-9.61333
姓名	-9.61344
遼東	-9.61413
蘭	-9.61519
項	-9.61542
凖	-9.61681
無事	-9.61722
燕王	-9.61731
可也	-9.61737
台	-9.61808
香	-9.61813
偶	-9.61826
貌	-9.61837
創	-9.61847
此事	-9.6187
遭	-9.61876
祝	-9.61893
級	-9.62106
柄	-9.62149
十萬	-9.62176
白金	-9.62335
受命	-9.62367
胥	-9.62382
静	-9.62441
憚	-9.62624
舒	-9.62626
又有	-9.62629
井	-9.6263
禽	-9.62635
蕩	-9.6264
苟	-9.62651
錯	-9.62654
提督	-9.62655
轉運使	-9.62772
不通	-9.6284
之衆	-9.63065
旗	-9.63095
十三	-9.63109
至于	-9.63135
太子太傅	-9.63264
臣請	-9.63306
三代	-9.63323
傑	-9.63406
渡	-9.63415
而有	-9.63462
攝	-9.63552
提舉	-9.63557
宜陽	-9.63577
中丞	-9.63632
又以	-9.6373
未能	-9.63996
皆以	-9.642
事秦	-9.64261
桑	-9.64262
矦	-9.64277
船	-9.64316
秦之	-9.64321
豈不	-9.6437
堡	-9.64408
従	-9.64421
一作	-9.64468
入閣	-9.64596
躬	-9.64711
軍民	-9.64954
趙魏	-9.64958
編	-9.65012
得之	-9.6502
官吏	-9.65052
𨽻	-9.65053
屏	-9.65087
壇	-9.65124
雷	-9.65135
知制誥	-9.65248
廣東	-9.65263
一年	-9.65419
周公	-9.65532
斤	-9.65554
諸王	-9.65559
男	-9.6595
巡撫	-9.65955
綸	-9.65968
憤	-9.65981
税	-9.65998
囚	-9.66079
晚	-9.66407
矜	-9.66453
四人	-9.66456
契	-9.66606
該	-9.66687
璧	-9.66723
黒	-9.66805
總兵	-9.66816
孔子	-9.66826
彊	-9.66842
十六	-9.66853
謗	-9.66933
大同	-9.66939
攻之	-9.67077
使之	-9.67209
周君	-9.67232
絳	-9.67249
二十八年	-9.67269
辛	-9.674
文公	-9.67553
姪	-9.67634
諒	-9.67654
場	-9.67661
城中	-9.67705
途	-9.67709
鹿	-9.67741
議者	-9.67749
其名	-9.6778
元豐	-9.67897
四百	-9.67986
之利	-9.6803
薛公	-9.68161
二十五	-9.68245
搆	-9.68372
十八	-9.68375
雪	-9.68395
盗	-9.68473
三公	-9.68503
䘮	-9.68522
拉	-9.68541
凶	-9.68545
逢	-9.68559
潛	-9.68603
生靈	-9.68749
如故	-9.68926
取之	-9.6907
垣	-9.69071
彪	-9.69188
以備	-9.69195
黙	-9.69232
太保	-9.69243
鬼	-9.69332
緣	-9.69347
昏	-9.69361
之説	-9.69365
看	-9.69403
状	-9.69405
諫官	-9.69472
未可	-9.69489
恒	-9.69493
詔書	-9.69529
麟	-9.6953
都御史	-9.69668
二百	-9.69673
國初	-9.69693
補音直	-9.69702
于是	-9.69796
瑞	-9.6997
撃	-9.70023
紅	-9.70042
以後	-9.70059
褒	-9.7009
鄂	-9.70158
紫	-9.70189
鐵	-9.70199
停	-9.70235
阻	-9.70252
矯	-9.70263
凌	-9.70287
屋	-9.70308
鳥	-9.70309
㫁	-9.70342
壘	-9.70414
脱	-9.70439
縣人	-9.7045
幽	-9.70516
㑹試	-9.70699
未詳	-9.70743
謬	-9.70775
訖	-9.70908
哲	-9.71005
右都御史	-9.71061
鑄	-9.71092
轍	-9.71177
乙丑	-9.71193
夕	-9.71202
鼻	-9.71206
閉	-9.71212
鐘	-9.71257
金帛	-9.71423
輕重	-9.71494
毒	-9.71539
之中	-9.71668
己未	-9.71672
鮮	-9.71933
愍	-9.71998
竹	-9.72033
亷	-9.7205
言者	-9.72058
絲	-9.721
台吉	-9.72124
不聞	-9.72134
帝王	-9.72228
上黨	-9.72437
入朝	-9.72467
疆	-9.7253
以告	-9.72551
下文	-9.72552
徽	-9.72746
距	-9.72843
尾	-9.72949
獸	-9.72964
愧	-9.72966
舊制	-9.73025
大將軍	-9.73152
是故	-9.73167
韶	-9.73343
昇	-9.73634
知府	-9.73634
閲	-9.73636
宥	-9.73654
不可不	-9.73657
壊	-9.73685
宣德	-9.7375
貧	-9.73774
薩	-9.73826
而不能	-9.73831
㝷	-9.73851
㓂	-9.73852
滋	-9.73872
灾	-9.73877
快	-9.73892
之數	-9.73935
之難	-9.74027
諸軍	-9.74112
乙未	-9.74212
掠	-9.74413
髙注	-9.74457
出入	-9.7446
數十	-9.74469
三晉	-9.74709
齒	-9.74715
怠	-9.7477
貸	-9.74774
懲	-9.74794
譏	-9.74796
敦	-9.74813
百户	-9.74821
幹	-9.74833
若此	-9.74887
知縣	-9.74891
宰	-9.74899
先王之	-9.74914
已而	-9.74946
至今	-9.75466
所在	-9.75468
以兵	-9.75518
巡	-9.75532
戚	-9.75544
軍中	-9.75577
巨	-9.7563
大小	-9.75649
兵馬	-9.75651
廣西	-9.75667
赤	-9.75722
慢	-9.7574
輙	-9.75744
虢	-9.75775
如是	-9.75809
之初	-9.75881
智伯	-9.75905
上書	-9.76084
其君	-9.76108
一切	-9.76213
曰陛下	-9.7624
其間	-9.76272
為一	-9.76348
軍馬	-9.76353
排	-9.76353
者亦	-9.76484
彦博	-9.76506
皆有	-9.76506
熙	-9.76523
王師	-9.76543
璽	-9.7656
侈	-9.76582
噶	-9.76614
昧	-9.76651
賄	-9.76652
古今	-9.76655
誦	-9.76663
遲	-9.76705
駐	-9.76763
溪	-9.76927
也若	-9.76987
縣令	-9.77002
未知	-9.77059
伐之	-9.77069
斬首	-9.77291
史記	-9.77298
誥	-9.77323
韻	-9.77349
叅	-9.77361
奴	-9.77437
彰	-9.7745
警	-9.77534
赫	-9.77545
之禍	-9.77564
户部尚書	-9.77564
銳	-9.77574
莒	-9.77576
而行	-9.77753
奚	-9.77833
群臣	-9.77854
見之	-9.77892
無子	-9.77979
五千	-9.78027
肯	-9.78129
庻	-9.78236
慰	-9.78253
邵	-9.78446
忿	-9.78465
貽	-9.78479
嫁	-9.78482
災	-9.78494
牙	-9.78501
懇	-9.78528
减	-9.78555
陕西	-9.78589
景泰	-9.78706
訛	-9.7878
不忍	-9.78879
内官	-9.78917
庶人	-9.78924
矣然	-9.7894
㕘	-9.78968
天順	-9.79037
澄	-9.79059
睢	-9.793
童	-9.79318
有此	-9.7936
願陛下	-9.79365
疎	-9.79435
癸未	-9.79519
卿等	-9.79609
而下	-9.79619
國事	-9.79632
矣今	-9.79643
武臣	-9.79726
聰	-9.7986
祠	-9.79913
所有	-9.80034
若不	-9.8007
令尹	-9.8012
天順元年	-9.80203
狐	-9.80207
辦	-9.80223
補曰史	-9.80251
大兵	-9.80292
都指揮使	-9.80357
溥	-9.80407
銅	-9.80452
趣	-9.80461
同知	-9.80466
親王	-9.80537
第三	-9.80639
已上	-9.8066
曰王	-9.80661
攻魏	-9.80818
十七	-9.80896
甲子	-9.80941
彌	-9.8106
子曰	-9.81108
皆不	-9.81142
舞	-9.81216
旅	-9.81291
判官	-9.81394
踐	-9.81413
抱	-9.81416
㓜	-9.81444
軰	-9.81458
丁丑	-9.81476
二十九年	-9.81519
反今按	-9.81652
出於	-9.81769
北平	-9.81817
為王	-9.81835
曰子	-9.81922
丁未	-9.82198
潰	-9.82203
其家	-9.8228
儉	-9.82337
百里	-9.82339
錄	-9.82358
斌	-9.8238
斂	-9.82396
曰朕	-9.82413
捷	-9.82417
謨	-9.82447
諾延	-9.82477
續	-9.82479
植	-9.82487
洞	-9.82518
則是	-9.8253
第二	-9.8262
侍講	-9.82644
公叔	-9.82725
御史中丞	-9.82744
文王	-9.82753
割地	-9.82828
之君	-9.82855
與齊	-9.82886
數日	-9.82942
祈	-9.83199
指揮使	-9.83234
園	-9.83377
健	-9.83393
得罪	-9.83442
衮	-9.835
以自	-9.83507
兮	-9.83554
參政	-9.83757
賢者	-9.8405
洛陽	-9.84062
其父	-9.84127
壬辰	-9.84234
二千	-9.84345
郝	-9.84375
仗	-9.84385
不在	-9.84385
寫	-9.84422
𥘉	-9.84429
替	-9.84452
旁	-9.84475
償	-9.84483
隊	-9.8449
鈞	-9.84491
䖏	-9.84496
怪	-9.84499
蘇軾	-9.84502
慕	-9.84527
喇嘛	-9.8454
髙麗	-9.84667
本作	-9.8467
此䇿	-9.84683
五國	-9.84739
鋭	-9.84772
之制	-9.8491
楚之	-9.84979
一千	-9.85022
待之	-9.85061
周禮	-9.85319
鐸	-9.85328
鳯	-9.85384
鄒	-9.85392
醫	-9.854
仙	-9.85452
繁	-9.85475
不免	-9.85481
東西	-9.85495
嬰	-9.85657
武英殿大學士	-9.85714
得其	-9.85752
者不	-9.8578
不忘	-9.85989
鳳	-9.86061
再拜	-9.86137
冊	-9.862
孟子	-9.86211
恪	-9.86253
柱	-9.86287
王珪	-9.86323
古之	-9.86326
根	-9.86329
蔡確	-9.86466
擁	-9.86543
兆	-9.86574
展	-9.86591
本朝	-9.86618
丙子	-9.86645
綿	-9.86759
依舊	-9.86863
荆州	-9.87028
羙	-9.87039
行事	-9.87052
乙	-9.87053
有㫖	-9.87223
伏望	-9.87288
子弟	-9.87378
之所以	-9.87419
遠	-9.87508
激	-9.87522
之患	-9.87533
壬戌	-9.87539
鬻	-9.87551
社	-9.87559
篤	-9.87577
較	-9.8758
特穆爾	-9.87584
豈有	-9.87607
夏四月	-9.87663
而欲	-9.87737
王祐	-9.87842
不報	-9.87846
則有	-9.87882
齊人	-9.87902
宗室	-9.87903
如此則	-9.87986
補曰姚云	-9.88065
公孫	-9.88103
萬人	-9.88109
秦楚	-9.88251
者多	-9.88386
何不	-9.88401
三萬	-9.88486
鉞	-9.88493
在京	-9.88494
歸附	-9.88509
吿	-9.886
融	-9.88601
救之	-9.88618
逼	-9.88622
閱	-9.88634
稷	-9.8865
塔	-9.88659
中書省	-9.88671
劍	-9.88673
柱國	-9.88682
真宗	-9.88846
甲辰	-9.89071
本部	-9.89161
腹	-9.89342
數萬	-9.89379
亦可	-9.89387
應侯	-9.89398
三省	-9.89533
又云	-9.89578
為人	-9.8963
添	-9.89636
尼	-9.89643
勵	-9.89681
人情	-9.89778
戊子	-9.89808
不受	-9.89883
則無	-9.89971
齊秦	-9.90145
舍人	-9.90378
臯	-9.90455
臣竊	-9.90511
齊魏	-9.90571
績	-9.9061
住	-9.90611
所得	-9.90672
所欲	-9.90699
庚戌	-9.90703
辛丑	-9.90707
奉陽君	-9.90716
修撰	-9.9073
册	-9.9073
眷	-9.90738
撓	-9.90758
哩	-9.90758
未至	-9.9079
獵	-9.908
左都御史	-9.90818
章惇	-9.90823
朋	-9.90829
荅	-9.90844
安石曰	-9.90955
其母	-9.91076
此書	-9.91179
往往	-9.912
之重	-9.91221
襄子	-9.91268
官員	-9.91297
也且	-9.91409
豈非	-9.91489
綵	-9.91514
郤	-9.91593
守備	-9.91594
成功	-9.91637
雎	-9.91701
之情	-9.91791
之弊	-9.91804
銓	-9.91808
宛	-9.91811
輪	-9.91824
賫	-9.91832
釁	-9.91852
琮	-9.91873
二十六年	-9.91953
不肖	-9.92023
在外	-9.92186
宰臣	-9.92194
他日	-9.92293
少卿	-9.92356
陳軫	-9.92406
唐制	-9.92438
皇太子	-9.92521
數年	-9.92531
有罪	-9.92658
鴻	-9.92677
今君	-9.9268
黄金	-9.92692
翰林院學士	-9.92805
一品	-9.92808
荀	-9.92896
匡	-9.92901
鬬	-9.9291
凡十	-9.92925
寘	-9.92979
伸	-9.93032
十四	-9.93247
或有	-9.93435
之外	-9.93579
無功	-9.9363
都監	-9.93826
二十五年	-9.93865
相國	-9.93968
頤	-9.9399
膳	-9.93995
亊	-9.94006
幾瑟	-9.94028
孚	-9.94028
虧	-9.94042
頒	-9.94047
諤	-9.94053
壬午	-9.94055
粮	-9.94058
踈	-9.94059
寓	-9.94075
恱	-9.94078
范仲淹	-9.9411
進呈	-9.94125
侍御史	-9.94172
節度	-9.94194
知州	-9.942
事也	-9.94276
金銀	-9.94277
冬十月	-9.94291
淮南	-9.94324
民之	-9.94351
午	-9.9445
伐趙	-9.94459
平原	-9.94485
安南	-9.94557
未必	-9.9459
是嵗	-9.94667
批	-9.94715
伐秦	-9.94793
於外	-9.94819
文子	-9.94824
三子	-9.94827
齎	-9.94936
四十年	-9.94963
犀	-9.95021
潤	-9.95066
練	-9.9508
門下	-9.95097
然而	-9.95151
閏	-9.95156
鉉	-9.95166
隘	-9.95169
消	-9.95174
昔者	-9.95183
旌	-9.95214
一員	-9.95252
司空	-9.9528
咨	-9.95295
言事	-9.95299
跡	-9.953
文彦博	-9.95346
奏事	-9.95354
束	-9.95629
安邑	-9.95692
右都督	-9.9577
以致	-9.95856
四海	-9.96066
詹事	-9.96102
喇	-9.9614
古者	-9.96145
脫	-9.96146
有一	-9.96163
曰臣聞	-9.96197
至此	-9.96203
渭	-9.96218
渠	-9.96234
玩	-9.96257
潜	-9.9629
糾	-9.96292
莫若	-9.96299
㸃	-9.96306
彛	-9.96315
勑	-9.96326
子也	-9.96332
罔	-9.96375
飬	-9.96388
弇山堂别集卷	-9.964
十九	-9.96521
秦必	-9.96548
其民	-9.96565
廬	-9.9657
上意	-9.96747
用事	-9.96754
說文	-9.96793
見其	-9.9709
惡之	-9.97114
功臣	-9.97121
樞密院	-9.97309
旱	-9.97321
之謀	-9.97346
上音	-9.9737
犬	-9.97382
參知政事	-9.974
戊戌	-9.97441
戊辰	-9.97443
曰汝	-9.97452
丙寅	-9.97467
括	-9.97484
墮	-9.97512
乖	-9.97544
臣恐	-9.97548
丈	-9.97557
歩	-9.97583
岱	-9.97602
懐王	-9.97657
𥙷曰一本	-9.97723
其意	-9.97752
其實	-9.97757
將帥	-9.97764
柰何	-9.97857
軍前	-9.9789
冉	-9.98171
曰夫	-9.98187
所部	-9.982
代之	-9.98281
補曰姚	-9.98326
七百	-9.98351
誨	-9.98402
僉事	-9.98469
泄	-9.98535
紵絲	-9.98561
齋	-9.98563
紛	-9.98571
之勢	-9.98592
己丑	-9.98598
饋	-9.98607
手詔	-9.98645
新城	-9.98665
凢	-9.98686
跪	-9.98713
近臣	-9.98713
隆慶	-9.98916
言臣	-9.99069
以成	-9.99188
莊王	-9.99307
姚同	-9.99362
國主	-9.99422
得㫖	-9.99677
豪	-9.99693
暮	-9.99747
周府	-9.99748
飢	-9.99817
扎	-9.99823
牢	-9.99833
滯	-9.99871
敎	-9.99874
之𩔖	-9.99896
為君	-9.99904
其衆	-9.99919
亦無	-9.99919
婦人	-9.9993
赧王	-9.99973
國子監	-9.99996
不已	-10.0007
庚子	-10.0009
太子少保	-10.0011
互	-10.0015
攻楚	-10.0015
攷	-10.0019
表裏	-10.0025
課	-10.0033
亦以	-10.0034
四國	-10.0038
臣聞	-10.0038
閔王	-10.0038
宫中	-10.0044
患之	-10.0048
臣僚	-10.0048
進退	-10.0055
禮部左侍郎	-10.0065
圭	-10.0074
隴	-10.0078
前日	-10.0079
上命	-10.0084
肥	-10.0084
不取	-10.0085
荷	-10.0092
偕	-10.0094
廕	-10.0096
詆	-10.0096
稅	-10.0097
佩	-10.0097
壞	-10.0099
額森	-10.01
丙午	-10.01
瑪	-10.0101
虐	-10.0104
饗	-10.0105
右副都御史	-10.0106
道路	-10.011
之下	-10.011
樊	-10.0111
之屬	-10.0112
堯舜	-10.0113
其身	-10.0125
㐮	-10.0132
一事	-10.0135
復有	-10.014
無過	-10.0141
河間	-10.0143
則不	-10.0152
見前正徳	-10.0161
僚	-10.0171
之徒	-10.0173
百萬	-10.0173
將以	-10.0175
補音於	-10.0177
所為	-10.019
佞	-10.0193
八百	-10.0198
邀	-10.0198
祚	-10.0207
晦	-10.0212
柴	-10.0216
渉	-10.0218
弛	-10.022
漏	-10.022
膺	-10.0221
而出	-10.0222
纔	-10.0222
賞罰	-10.0223
寅	-10.0223
塵	-10.0224
功封	-10.0247
上謂	-10.0259
鄉試	-10.0269
以事	-10.029
順天	-10.0301
等各	-10.0304
九十	-10.0307
不宜	-10.0315
臣下	-10.0315
王公	-10.032
賚	-10.0324
經義	-10.0333
摯	-10.0333
焦	-10.0336
裴	-10.0336
呂	-10.0337
翁	-10.0338
蠲	-10.034
甲戌	-10.034
麥	-10.0341
讐	-10.0341
忠臣	-10.0342
含	-10.0343
迫	-10.0343
趙氏	-10.0346
浦	-10.0348
己巳	-10.0354
於朝	-10.0356
可見	-10.0358
辛未	-10.0364
臣也	-10.0366
諸科	-10.0368
劉瑾	-10.0375
陽人	-10.0379
人臣	-10.0382
上章	-10.0394
等言	-10.0397
之說	-10.0398
晉陽	-10.0398
嫡	-10.0401
髙帝	-10.0414
千餘	-10.0416
不義	-10.0416
夾	-10.042
五日	-10.0429
二十四	-10.0437
此章	-10.0451
旬	-10.0452
編修	-10.0457
驛	-10.0458
反又	-10.046
鈐轄	-10.046
秀	-10.0462
輟	-10.0464
庇	-10.0465
伺	-10.0466
司徒	-10.0466
往來	-10.0467
億	-10.0468
癸丑	-10.0468
尸	-10.0468
飯	-10.0473
安能	-10.0485
周最	-10.0502
郡王	-10.0503
者乎	-10.0517
瞻	-10.0523
賜之	-10.0533
富貴	-10.0534
敵人	-10.054
瓊	-10.0555
推官	-10.0558
舉兵	-10.0574
葛	-10.0577
墓	-10.0578
妙	-10.0581
奎	-10.0582
之憂	-10.0582
魏之	-10.0582
邇	-10.0583
衝	-10.0584
措	-10.0585
雞	-10.0588
吕大防	-10.0588
浩	-10.0588
晩	-10.0588
塗	-10.0589
復以	-10.0589
競	-10.0589
日月	-10.059
玄	-10.059
䧟	-10.0591
逰	-10.0592
文綺	-10.0595
筠	-10.0596
相繼	-10.0599
太尉	-10.06
奇	-10.0602
暇	-10.0603
甲申	-10.0611
之美	-10.0613
此皆	-10.0621
是非	-10.0622
不顧	-10.0624
員外郎	-10.0626
二十七年	-10.0633
文學	-10.0637
王厚	-10.0638
及其	-10.0645
晋	-10.0661
入秦	-10.0664
相去	-10.0665
布衣	-10.0665
五年任	-10.0667
帳	-10.0688
拱	-10.0697
長安	-10.07
更不	-10.07
鎬	-10.0703
成都	-10.0704
燭	-10.0704
沐	-10.0705
寇	-10.0707
奬	-10.0707
敖	-10.071
丙戌	-10.0713
侍讀	-10.0713
囬	-10.0713
潔	-10.0715
租	-10.0716
閭	-10.0716
輦	-10.0716
暗	-10.0716
數千	-10.0718
猛	-10.0719
捨	-10.0721
驟	-10.0721
裂	-10.0722
中書舍人	-10.0725
姚本	-10.0726
楚人	-10.0736
不應	-10.0747
不聴	-10.0748
秦也	-10.0751
法司	-10.0758
擊之	-10.0772
今後	-10.0778
之賢	-10.078
数	-10.0784
自知	-10.079
揚州	-10.0803
一子	-10.0805
觀其	-10.0809
㕘政	-10.0811
鵬	-10.0812
李公	-10.0812
是為	-10.0813
可不	-10.0815
之語	-10.0821
綏	-10.0823
民間	-10.083
中軍	-10.0833
溝	-10.0833
久之	-10.0833
彈	-10.0838
號令	-10.084
臂	-10.0841
三品	-10.0842
㳺	-10.0843
見前係	-10.0844
函	-10.0848
請以	-10.0851
不言	-10.0858
取其	-10.0864
爲之	-10.0871
濮	-10.0873
睿	-10.0881
以来	-10.0882
惠公	-10.0887
北征	-10.0891
其時	-10.0895
歎	-10.0908
皇子	-10.0911
遂以	-10.0916
荘	-10.0924
公卿	-10.0927
不問	-10.0933
四夷	-10.0935
二公	-10.0941
人由	-10.095
奸邪	-10.0951
駭	-10.0952
穰侯	-10.0952
於是乎	-10.0952
甚矣	-10.0958
上表	-10.0964
範	-10.0967
亢	-10.0968
濠	-10.0968
椘	-10.0969
脅	-10.0971
窺	-10.0974
艱	-10.0974
隷	-10.0975
把	-10.0977
頼	-10.0978
懸	-10.0979
弑	-10.0979
朴	-10.0979
壬子	-10.0979
成王	-10.098
誕	-10.0981
頭目	-10.0986
祁	-10.0991
即日	-10.0996
數百	-10.1011
耳目	-10.1012
西京	-10.1036
東南	-10.1045
或作	-10.1051
壬申	-10.1059
於國	-10.1062
奢	-10.1063
雖然	-10.1073
匠	-10.1084
七十	-10.1086
三軍	-10.1089
戰勝	-10.1092
生事	-10.1093
法度	-10.1094
肇	-10.1098
丙辰	-10.1099
卧	-10.11
乙亥	-10.1104
甲午	-10.1104
糴	-10.1105
頌	-10.1107
枝	-10.1107
無有	-10.1107
悍	-10.1108
摩	-10.1109
栁	-10.1109
茅	-10.1111
補音丁	-10.1112
詳定	-10.1114
突厥	-10.1117
逐之	-10.1118
右正言	-10.1119
以求	-10.1143
去之	-10.1147
書曰	-10.1147
死而	-10.1155
司禮監	-10.1165
迹	-10.1166
將士	-10.118
京城	-10.1191
是年	-10.1196
不盡	-10.1205
也然	-10.1208
傳有	-10.1212
藝	-10.1217
則必	-10.1219
而歸	-10.1221
之盛	-10.1222
𦵏	-10.1229
翠	-10.1229
廉	-10.1231
滕	-10.1231
叱	-10.1236
墜	-10.1237
関	-10.1239
冲	-10.1239
丁亥	-10.124
械	-10.124
戈	-10.1241
攘	-10.1242
丕	-10.1244
湏	-10.1246
邸	-10.1246
也又	-10.125
公著	-10.1251
者必	-10.1253
大梁	-10.1259
無罪	-10.1265
王載	-10.1265
生子	-10.1267
其功	-10.1268
威王	-10.1269
日夜	-10.1272
觀之	-10.1274
似道	-10.1277
釐	-10.1277
不易	-10.128
數人	-10.1287
不利	-10.1292
交割	-10.1302
欲得	-10.1327
得人	-10.1329
皇上	-10.1332
之恩	-10.1333
經筵	-10.1344
曰善	-10.1344
前代	-10.1347
之内	-10.1362
胄	-10.1363
壤	-10.1363
贈封	-10.1363
饑	-10.1368
傳曰	-10.1368
魁	-10.1369
見前萬厯	-10.1369
郷	-10.1372
裏	-10.1372
乙酉	-10.1373
爰	-10.1373
暨	-10.1377
庚申	-10.1378
太宰	-10.1378
箭	-10.1379
押	-10.1379
紙	-10.1381
俶	-10.1381
禧	-10.1383
起兵	-10.1394
晉國	-10.1395
得失	-10.1396
之力	-10.1401
豈得	-10.1408
五人	-10.1409
於趙	-10.1411
毋得	-10.1417
出身	-10.1418
而立	-10.1421
王子	-10.1443
下音	-10.1443
宣府	-10.1444
之師	-10.145
戲	-10.1474
裔	-10.1475
州軍	-10.1478
刺史	-10.1483
平聲	-10.1487
愽	-10.15
需	-10.15
輝	-10.15
佑	-10.1502
孟嘗君	-10.1503
英宗	-10.1505
舅	-10.1507
蘓	-10.1509
丁酉	-10.1509
靜	-10.1511
盤	-10.1512
突	-10.1512
蓄	-10.1512
宮	-10.1515
值	-10.1515
忤	-10.1516
碑	-10.1516
播	-10.1517
未見	-10.1519
恣	-10.1519
國朝	-10.1522
納之	-10.1524
國史	-10.1528
不得已	-10.1532
行人	-10.1533
上疏	-10.1534
至京	-10.154
校尉	-10.1547
而得	-10.1557
此乃	-10.1558
字訛	-10.1564
定王	-10.1566
之世	-10.1567
二十四年	-10.1567
太宗之	-10.1576
奏請	-10.1578
世家	-10.1594
相與	-10.1597
庚辰	-10.1603
在此	-10.1605
寧夏	-10.1614
之類	-10.1615
加太子太保	-10.1617
於韓	-10.1617
百餘	-10.1625
者非	-10.1625
玄齡	-10.1626
古人	-10.1639
洽	-10.1646
拯	-10.1646
覩	-10.1647
辛酉	-10.165
之家	-10.165
陪	-10.165
歿	-10.1651
恢	-10.1652
失之	-10.1652
捐	-10.1654
詭	-10.1654
嵩	-10.1654
壬寅	-10.1656
筭	-10.1659
學者	-10.166
西南	-10.166
此則	-10.1665
城下	-10.1667
朝夕	-10.1672
宣諭	-10.1674
國人	-10.1674
麻	-10.1678
誤也	-10.1681
釋之	-10.1689
必無	-10.169
䝉古	-10.1704
因而	-10.1708
將來	-10.1717
問曰	-10.1734
之議	-10.1736
來朝	-10.1759
先後	-10.176
第二子	-10.1763
大怒	-10.1767
不待	-10.1767
冕	-10.1779
旨	-10.1779
大敗	-10.1782
教之	-10.1784
佳	-10.1785
耻	-10.1788
瑄	-10.1789
翌日	-10.179
己亥	-10.1791
己酉	-10.1791
返	-10.1791
恭王	-10.1791
倡	-10.1791
巖	-10.1792
侍中	-10.1792
而復	-10.1793
蘇轍	-10.1795
本無	-10.1796
偷	-10.1797
譚	-10.1797
行也	-10.1797
䜛	-10.18
曩	-10.18
岸	-10.1806
二十萬	-10.1807
州郡	-10.1815
内侍	-10.1818
未聞	-10.1842
夫子	-10.1846
門外	-10.1846
西北	-10.1857
第十	-10.186
之政	-10.1865
髙宗	-10.1865
深入	-10.1867
監司	-10.1867
加兼	-10.1873
十疋	-10.1878
自此	-10.1879
以至	-10.1886
而王	-10.1887
留守	-10.1888
此下	-10.1895
下有	-10.1898
之孫	-10.1909
秦而	-10.1912
曰今	-10.1912
瑛	-10.1913
聊	-10.192
奏曰	-10.1926
孽	-10.1931
議論	-10.1932
朋黨	-10.1933
戊午	-10.1933
挺	-10.1934
交阯	-10.1934
卓	-10.1936
羞	-10.1939
辛巳	-10.1941
弘	-10.1941
富弼	-10.1942
瓦	-10.1943
一二	-10.1944
南京兵部尚書	-10.1954
韓氏	-10.1956
討之	-10.1957
為國	-10.1973
主事	-10.1975
之女	-10.1977
以安	-10.198
大抵	-10.1985
簡王	-10.1993
務要	-10.1995
太常	-10.2002
詩云	-10.2004
財用	-10.2007
而能	-10.201
文忠	-10.2012
康王	-10.2016
漕	-10.2033
置之	-10.2033
聖明	-10.2036
二十六	-10.2039
並同	-10.2042
涇	-10.2046
綺	-10.2057
當以	-10.2061
正義云	-10.2062
夏人	-10.2064
敷	-10.2067
晏	-10.2068
欒	-10.2069
二十八	-10.207
飭	-10.2071
丙申	-10.2072
沉	-10.2072
以前	-10.2072
河内	-10.2073
刃	-10.2073
浸	-10.2073
随	-10.2074
吕公著	-10.2075
凱	-10.2075
漳	-10.2076
蹈	-10.2077
寃	-10.2078
敝邑	-10.2078
罵	-10.2079
欵	-10.2079
坤	-10.2079
蔑	-10.208
覈	-10.208
譴	-10.2083
言不	-10.2086
秋七月	-10.2087
於君	-10.2088
聖㫖	-10.2093
萬世	-10.2099
長沙	-10.2101
於民	-10.2104
萬一	-10.2106
棄之	-10.2121
大防	-10.2123
建文	-10.2131
或以	-10.2145
節制	-10.2147
之道也	-10.215
漢中	-10.2152
之變	-10.2154
郡縣	-10.2158
起居	-10.2169
軍務	-10.2173
為秦	-10.2181
前去	-10.2185
又何	-10.2192
嶺	-10.2192
是月	-10.2193
入冦	-10.2203
二員	-10.2204
何為	-10.2204
纂	-10.2208
綬	-10.2214
悖	-10.2217
主應天試	-10.2218
之交	-10.2219
棘	-10.2219
祗	-10.2219
斛	-10.2219
寕	-10.222
卞	-10.222
濬	-10.222
包	-10.2221
無子除	-10.2223
訟	-10.2223
蚤	-10.2224
檢討	-10.2224
庚午	-10.2224
域	-10.2224
灌	-10.2224
必以	-10.2226
髪	-10.2227
柳	-10.2227
懽	-10.2228
握	-10.2231
㢤	-10.2232
經典	-10.2236
乆矣	-10.2236
丁巳	-10.2239
禁中	-10.2243
安王	-10.2254
南北	-10.2267
留之	-10.227
隻	-10.2278
太守	-10.2282
劉摯	-10.2283
軍人	-10.2287
隂陽	-10.2291
兩國	-10.2293
三川	-10.2301
邊事	-10.2303
無忌	-10.2304
嘉靖中	-10.2306
之志	-10.2306
大將	-10.2308
王者	-10.231
補曰姚本	-10.2314
四年任	-10.2315
百人	-10.2318
紂	-10.232
仍舊	-10.2322
三十一年	-10.2325
諸國	-10.2327
氏之	-10.2332
與國	-10.2334
不容	-10.2338
豈能	-10.2341
帖	-10.2349
曰寡人	-10.2352
為首	-10.2362
羌	-10.2363
殖	-10.2364
味	-10.2366
弔	-10.2367
本路	-10.2369
謂其	-10.2369
儆	-10.2371
矣而	-10.2371
范純仁	-10.2372
牽	-10.2373
廖	-10.2374
純仁	-10.2374
像	-10.2375
嬖	-10.2376
詩曰	-10.2376
侮	-10.2376
鬭	-10.2376
隔	-10.2377
未及	-10.2377
昆	-10.2378
濟農	-10.2378
靣	-10.2379
槩	-10.2381
忱	-10.2382
田單	-10.2382
未幾	-10.2382
鼔	-10.2384
賈似道	-10.2385
勣	-10.2386
不止	-10.2387
探	-10.2387
飲食	-10.2388
不知其	-10.2388
太子太師	-10.239
特進	-10.239
曰卿	-10.239
庶幾	-10.2392
十人	-10.2396
一言	-10.2403
王安	-10.2406
䕃	-10.2407
御史大夫	-10.2417
贈太子太保	-10.2418
張子	-10.2419
安得	-10.2422
無可	-10.2427
樞宻院	-10.2434
待制	-10.2441
先君	-10.2442
也補曰	-10.2447
洪武中	-10.2447
溺	-10.2455
車駕	-10.2458
諸公	-10.2464
受之	-10.2467
明矣	-10.2468
秦兵	-10.2474
所奏	-10.2493
反覆	-10.2493
二品	-10.2495
矣夫	-10.2498
那	-10.251
縉	-10.2513
沔	-10.2513
潮	-10.2516
駙馬	-10.2516
愆	-10.252
之主	-10.2521
癸酉	-10.2524
昻	-10.2524
製	-10.2524
枉	-10.2525
李兊	-10.2525
俘	-10.2526
晟	-10.2528
倒	-10.2528
辛亥	-10.2528
太常少卿	-10.2528
而止	-10.2529
歐陽	-10.2529
在於	-10.253
暫	-10.2531
溢	-10.2531
衷	-10.2535
曰不可	-10.254
繼遷	-10.2544
從容	-10.2551
尚書省	-10.2558
綵幣	-10.2559
憲宗	-10.2569
直言	-10.2581
潁	-10.2587
春正月	-10.2591
隆慶元年	-10.2594
視之	-10.2622
對曰臣	-10.2624
補曰此	-10.2633
可為	-10.2641
三年任	-10.2643
入見	-10.2644
各有	-10.2647
説文	-10.2657
妻子	-10.2657
以報	-10.2662
從事	-10.2663
五品	-10.2665
詔令	-10.2668
狗	-10.2669
證	-10.2669
宸	-10.2669
浪	-10.267
禪	-10.2673
醜	-10.2673
孟嘗	-10.2674
臧	-10.2675
人等	-10.2678
披	-10.2678
騰	-10.2679
踵	-10.268
戊寅	-10.268
相魏	-10.2682
邢	-10.2682
蔵	-10.2682
豹	-10.2685
涇原	-10.2689
凡四	-10.2693
敗之	-10.2694
之物	-10.2707
不允	-10.2708
守禦	-10.2709
女真	-10.2711
北京	-10.2713
特賜	-10.2717
六年任	-10.2724
生民	-10.2725
山川	-10.2726
都統	-10.2727
初名	-10.2739
讀書	-10.2748
赴闕	-10.275
以禮	-10.2761
各處	-10.2768
侍從	-10.2769
斬之	-10.2775
中官	-10.2783
安危	-10.2784
上䟽	-10.2787
南郡	-10.2793
牟	-10.2796
始皇	-10.2799
無道	-10.28
公曰	-10.2804
饒	-10.2813
廵	-10.2814
罷之	-10.2815
析	-10.2828
繆	-10.2829
大金	-10.2831
發兵	-10.2831
鞅	-10.2831
簾	-10.2833
耿	-10.2834
訐	-10.2835
陋	-10.2838
熈寧	-10.284
婚	-10.284
娶	-10.2842
兾	-10.2843
凝	-10.2844
穆王	-10.2845
由薦舉	-10.2847
風俗	-10.2847
標	-10.285
太常卿	-10.2866
䕫	-10.2869
趙之	-10.2869
多矣	-10.2875
而又	-10.2876
教授	-10.2878
詔曰	-10.2879
福晉	-10.2895
舊音	-10.2899
不明	-10.29
戰於	-10.2904
開封	-10.2905
神宗	-10.2905
有言	-10.2905
時有	-10.2917
其不	-10.2918
二年任	-10.2926
次子	-10.2927
逺近	-10.2929
俯	-10.293
由此	-10.2934
襄陽	-10.2935
不成	-10.2943
之前	-10.295
必欲	-10.295
為名	-10.2953
人才	-10.2961
之言也	-10.2966
合從	-10.2975
之命	-10.2977
炳	-10.2982
都察院左都御史	-10.2982
洎	-10.2985
藍	-10.2986
錦衣	-10.2988
覇	-10.2989
龜	-10.2989
嗟	-10.2989
朗	-10.2989
打	-10.2992
波	-10.2993
狼	-10.2993
遐	-10.2994
畔	-10.2995
拂	-10.2995
醉	-10.2995
歛	-10.2996
綰	-10.2996
填	-10.2996
秘	-10.2997
逋	-10.3
之理	-10.3
艾	-10.3
耗	-10.3
汗之	-10.3001
歐陽修	-10.3001
聼	-10.3002
萬里	-10.3004
鋪	-10.3005
蛇	-10.3005
國也	-10.3006
廸	-10.3006
人民	-10.3014
道也	-10.3015
明主	-10.3018
一曰	-10.302
未㡬	-10.3028
事君	-10.3031
乃以	-10.3033
獻子	-10.3041
而攻	-10.3064
補音所	-10.3068
與我	-10.3068
因以	-10.3073
中原	-10.3074
未盡	-10.3078
任右	-10.3082
萬貫	-10.3083
甚衆	-10.3089
右俱	-10.3093
嘆	-10.3096
雖欲	-10.3096
今年	-10.3099
不下	-10.31
群	-10.3126
簿	-10.3126
襄公	-10.313
太宗謂	-10.3135
大子	-10.3139
靖王	-10.314
詠	-10.3146
瀚	-10.3147
禎	-10.3149
幕	-10.3149
弩	-10.315
吏反	-10.3152
眉	-10.3153
想	-10.3156
窘	-10.3156
憐	-10.316
重耳	-10.3161
常平	-10.3161
倘	-10.3161
亡國	-10.3162
燒	-10.3162
宗社	-10.3162
禱	-10.3162
弭	-10.3165
措置	-10.3167
戊申	-10.3168
卒子	-10.317
開封府	-10.3172
安撫	-10.3172
監軍	-10.318
不疑	-10.3185
貴州	-10.3188
民力	-10.3189
若是	-10.3191
五代	-10.3192
博士	-10.3193
上怒	-10.3195
果莊	-10.3201
甲兵	-10.3205
明堂	-10.321
不失	-10.3213
而還	-10.3217
左傳	-10.3235
第三子	-10.324
夏國	-10.3243
道之	-10.3246
熈	-10.3253
庶子	-10.3255
前來	-10.3259
此非	-10.3268
反下同	-10.3274
其妻	-10.3282
總管	-10.3285
越王	-10.3297
陜	-10.3304
股	-10.331
其説	-10.331
殁	-10.3311
之職	-10.3314
壓	-10.3314
㢘	-10.3315
指揮僉事	-10.3315
禀	-10.3315
匱	-10.3316
苛	-10.3318
汝南	-10.3319
二日	-10.3319
遞	-10.3321
徇	-10.3322
輅	-10.3322
衢	-10.3323
悲	-10.3323
按察使	-10.3324
猷	-10.3324
酬	-10.3324
觸	-10.3324
徽廟	-10.3325
庚寅	-10.3326
殽	-10.3327
行省	-10.3327
不一	-10.3331
黍	-10.3333
不服	-10.3337
者三	-10.3338
為大	-10.3342
内使	-10.3352
六百	-10.3353
公事	-10.3354
非也	-10.3377
有天下	-10.3384
壁	-10.339
泗	-10.3395
思之	-10.3399
不避	-10.3404
詩賦	-10.3413
出師	-10.3413
親征	-10.3415
府庫	-10.3419
御史臺	-10.3422
正義	-10.3424
仁義	-10.3425
之弟	-10.3429
於内	-10.3434
伐楚	-10.3438
妨	-10.3438
妖	-10.344
功也	-10.3443
强秦	-10.345
不暇	-10.3452
南郊	-10.3452
将軍	-10.3454
沂	-10.3458
非所以	-10.3459
不識	-10.3462
鞫	-10.3472
贖	-10.3475
喬	-10.3476
鐡	-10.3481
近日	-10.3483
淑	-10.3484
樓緩	-10.3484
玊	-10.3485
諷	-10.3485
洙	-10.3486
滑	-10.3486
觴	-10.349
爽	-10.349
棟	-10.3491
之䇿	-10.3498
且夫	-10.3501
臨安	-10.3502
燕齊	-10.3503
久矣	-10.3503
耀	-10.3505
十餘	-10.3522
不自	-10.3524
翊	-10.3525
有三	-10.3529
從者	-10.3534
之過	-10.3537
渡江	-10.3544
惠卿	-10.3549
地也	-10.355
韓王	-10.3559
仍令	-10.3569
在前	-10.3572
三十五年	-10.358
楚魏	-10.358
莫敢	-10.3587
牌	-10.359
義勇	-10.359
司禮監太監	-10.3591
伐魏	-10.3594
測	-10.3598
之餘	-10.3616
子元年	-10.3617
職事	-10.3621
樞宻	-10.3635
誼	-10.3648
沛	-10.365
遍	-10.3652
厰	-10.3652
傍	-10.3652
戰國䇿	-10.3652
癸亥	-10.3653
扞	-10.3653
㦸	-10.3654
贓	-10.3654
僻	-10.3655
吞	-10.3656
等皆	-10.3658
遏	-10.3658
太公	-10.3659
薪	-10.3659
善惡	-10.366
諾	-10.3661
緒	-10.3662
差役	-10.3663
叶	-10.3663
龢	-10.3664
劄子	-10.3665
已有	-10.3665
姚云	-10.3667
不安	-10.3667
死之	-10.3673
腹心	-10.3676
太史	-10.368
四十四年	-10.3691
武安君	-10.3693
寧王	-10.3694
四十一年	-10.3698
乃詔	-10.3703
之論	-10.3709
七日	-10.372
士人	-10.3721
一萬	-10.3724
非是	-10.3744
為相	-10.3746
攻秦	-10.3748
事者	-10.3754
驥	-10.3761
與其	-10.3763
長史	-10.3763
下詔	-10.3764
尤為	-10.3764
選人	-10.3767
二萬	-10.3775
官制	-10.3777
鎮撫	-10.3781
數月	-10.379
所載	-10.3794
護	-10.3794
齊之	-10.3799
所見	-10.3802
苗	-10.3807
論語	-10.3812
稱之	-10.3818
樞	-10.3823
范祖禹	-10.3824
隅	-10.3826
什	-10.3828
鞭	-10.3829
促	-10.3829
牲	-10.3831
生於	-10.3832
凉	-10.3832
科塲	-10.3833
與魏	-10.3833
以少保	-10.3834
網	-10.3835
晉王	-10.3837
晨	-10.3837
初以	-10.384
廷試	-10.3848
為左	-10.3848
安平	-10.385
者何也	-10.3852
攻宋	-10.3852
應天	-10.3855
保甲	-10.3867
劾奏	-10.3868
何所	-10.3875
征伐	-10.3879
帝曰	-10.3882
曰秦	-10.3883
貝	-10.3884
其弟	-10.3885
武帝	-10.3894
孰與	-10.3902
而言	-10.3904
杭	-10.3905
中使	-10.3906
賢人	-10.391
洪武三年	-10.3918
漢書	-10.3918
責之	-10.3919
吳王	-10.3942
其黨	-10.3943
也太宗	-10.3943
札	-10.3946
僉	-10.3947
或為	-10.395
餉	-10.3962
以進	-10.3963
語曰	-10.3963
千餘人	-10.3968
旦反	-10.3972
不堪	-10.3976
宦	-10.3986
混	-10.3986
訥	-10.3991
駙馬都尉	-10.3996
訊	-10.3997
儼	-10.3999
蹙	-10.4
旄	-10.4
两	-10.4001
紳	-10.4003
于此	-10.4003
揆	-10.4005
鏜	-10.4005
桀	-10.4006
一名	-10.4006
峻	-10.4006
碩	-10.4007
禮部侍郎	-10.4008
構	-10.4009
寔	-10.4009
忠信	-10.4009
底	-10.4009
丁夘	-10.4011
冊封	-10.4011
機務	-10.4011
奉㫖	-10.4012
獻公	-10.4012
嗚呼	-10.4013
巢	-10.4015
太宗謂侍臣曰	-10.4015
烝	-10.4017
而退	-10.402
靖難	-10.4026
北漢	-10.403
詔以	-10.4033
永樂元年	-10.4037
非有	-10.4039
知貢舉	-10.4042
於前	-10.4042
曰昔	-10.4049
右丞	-10.4064
坊	-10.4079
差遣	-10.4079
君也	-10.4086
為天下	-10.4087
太子太保兵部尚書	-10.4088
而卒	-10.409
若有	-10.4091
補曰一	-10.4093
可乎	-10.4097
天道	-10.4098
天聖	-10.4111
而自	-10.4115
二十二	-10.4117
有大	-10.4121
申生	-10.4124
守之	-10.4128
衆皆	-10.4129
止於	-10.4136
湖南	-10.4136
奉御	-10.4139
箕	-10.4147
於上	-10.4154
煜	-10.4157
諸司	-10.416
又詔	-10.4164
欽定四庫全書	-10.4165
逵	-10.4168
不獲	-10.4173
巡檢	-10.4175
戸部	-10.4176
所用	-10.4176
青苗	-10.4177
鄆	-10.4177
巾	-10.4178
鶴	-10.4178
活	-10.4179
之戰	-10.4182
叚	-10.4182
殉	-10.4182
㕔	-10.4182
暉	-10.4183
犒	-10.4183
墳	-10.4183
而不知	-10.4183
公孫衍	-10.4184
召見	-10.4185
之術	-10.4185
迨	-10.4186
繒	-10.4188
晉大夫	-10.419
琴	-10.419
舌	-10.4192
哈屯	-10.4194
等物	-10.4199
年三十	-10.4205
法也	-10.4206
乃止	-10.4214
今又	-10.4226
首領	-10.4235
平章事	-10.4239
十餘萬	-10.4251
誅之	-10.426
入城	-10.4271
主簿	-10.4273
考官	-10.4302
國語	-10.4305
無異	-10.4306
軌	-10.4308
復入	-10.4312
國用	-10.4312
無敢	-10.4313
治之	-10.4313
秦魏	-10.4314
事體	-10.4319
詹	-10.4325
魏氏	-10.4325
酌	-10.4342
宣宗	-10.4343
欲令	-10.4345
竝同	-10.4348
言官	-10.435
自然	-10.4354
二十七	-10.4356
悅	-10.4357
朱光庭	-10.4358
雙	-10.436
副之	-10.436
粗	-10.436
梧	-10.436
裝	-10.4361
巷	-10.4361
辛夘	-10.4361
椒	-10.4362
褐	-10.4362
十日	-10.4363
王室	-10.4364
鞠	-10.4365
濤	-10.4365
徐州	-10.4365
嫉	-10.4367
冩	-10.4367
屍	-10.4369
逾	-10.437
愛民	-10.4371
此亦	-10.4379
索隱云	-10.4387
至矣	-10.4389
梁王	-10.439
遥	-10.4391
無他	-10.4395
疑之	-10.4409
人衆	-10.441
本末	-10.4411
為此	-10.4411
當從	-10.4415
未甞	-10.4417
新法	-10.4421
爲王	-10.4427
欲伐	-10.4429
相見	-10.443
謹身殿大學士	-10.443
無窮	-10.4436
内府	-10.4439
見前𢎞治	-10.4442
河外	-10.4448
上文	-10.4449
率衆	-10.4454
此二	-10.4458
大用	-10.446
件	-10.4461
所宜	-10.4461
萬餘	-10.4472
所當	-10.4472
楊公	-10.4477
處置	-10.4478
事皆	-10.4495
汴	-10.45
加太子少保	-10.4501
之請	-10.4504
由進士二十	-10.4508
恵王	-10.4526
鎰	-10.4532
繩	-10.4539
徼	-10.454
鄢	-10.4541
緘	-10.4541
弦	-10.4542
軒	-10.4544
紗	-10.4544
翦	-10.4545
壮	-10.4545
鄜延	-10.4546
瑶	-10.4547
穿	-10.4547
贄	-10.4551
宸濠	-10.4551
曠	-10.4551
之失	-10.4551
隣	-10.4552
自謂	-10.4552
詰	-10.4552
叢	-10.4553
甲寅	-10.4554
親戚	-10.4555
贈太保	-10.4558
貯	-10.4559
小國	-10.4563
驢	-10.4564
不載	-10.4569
瑜	-10.4571
且以	-10.4573
推恩	-10.4579
知人	-10.4581
元帥府	-10.4583
土地	-10.4585
誓書	-10.4587
興師	-10.4591
靈州	-10.4591
見於	-10.4599
正曰此	-10.46
宣子	-10.4611
經術	-10.4628
上有	-10.4632
計也	-10.4634
其中	-10.4637
受其	-10.464
為太子	-10.4642
所取	-10.4643
長者	-10.465
人多	-10.4652
為政	-10.4653
相公	-10.4658
十五年任	-10.466
岐	-10.4664
之才	-10.4668
具奏	-10.4672
謂魏王曰	-10.4672
爲秦	-10.4672
亦非	-10.4672
所生	-10.4675
潭	-10.4687
張永	-10.469
保定	-10.4695
忠義	-10.4695
曰公	-10.4699
以為不可	-10.4704
一月	-10.4706
孟甞君	-10.4706
二君	-10.472
國除	-10.4721
又賜	-10.4721
珉	-10.4722
言無	-10.4724
憎	-10.4726
之亂	-10.4728
江淮	-10.4728
鑾	-10.473
海内	-10.473
奠	-10.4732
戸部尚書	-10.4733
欠	-10.4737
乙夘	-10.4737
磨	-10.4737
繕	-10.4739
旻	-10.4739
蠧	-10.474
夭	-10.474
萌	-10.474
嬴	-10.474
璠	-10.4741
鑿	-10.4741
雇	-10.4743
殿下	-10.4744
辠	-10.4744
邁	-10.4751
平王	-10.4757
役法	-10.4757
平原君	-10.4758
謂秦王曰	-10.4758
重進	-10.4775
以少師	-10.4778
當是	-10.478
中有	-10.4783
指揮同知	-10.4786
此人	-10.4799
攻韓	-10.48
伐宋	-10.4804
自後	-10.4814
成化中	-10.4823
最為	-10.4824
文帝	-10.4832
不忠	-10.4839
君曰	-10.4843
䖍	-10.4843
於周	-10.4847
之敗	-10.4851
難以	-10.4851
布政使	-10.4866
七人	-10.4867
四子	-10.4875
交通	-10.4875
淮安	-10.4876
說見	-10.4878
家人	-10.4879
以明	-10.4881
此策	-10.4881
立為	-10.4882
令人	-10.4884
太子太保吏部尚書	-10.4885
制度	-10.4887
諸臣	-10.4891
之費	-10.4893
迷	-10.4894
分兵	-10.4903
末年	-10.4906
璟	-10.4911
於市	-10.4914
欲使	-10.4914
湘	-10.4917
考之	-10.4917
強秦	-10.4917
蹇	-10.4918
冗	-10.4918
濁	-10.4918
之戒	-10.4919
行營	-10.4922
臺諫	-10.4923
大理寺	-10.4924
景隆	-10.4925
腰	-10.4925
𣙜	-10.4926
等廷試賜	-10.4926
村	-10.4927
梗	-10.4928
僣	-10.4928
告之	-10.4928
定州	-10.4928
鉤	-10.4929
殿中侍御史	-10.4929
冐	-10.493
今已	-10.4931
差人	-10.4933
售	-10.4933
紗羅	-10.4934
盇	-10.4935
恬	-10.4936
換	-10.4936
座	-10.4937
環慶	-10.4937
夙夜	-10.4938
二十九	-10.494
禮樂	-10.494
煬帝	-10.4943
劉安世	-10.4943
左侍	-10.4943
亦如之	-10.4949
凡有	-10.4952
為魏	-10.4973
任左	-10.4977
經畧	-10.4982
三十六年	-10.4983
者衆	-10.4983
□(	-10.499
者有	-10.4996
令其	-10.4997
聽之	-10.4998
中式	-10.5001
三十萬	-10.5004
夷簡	-10.5004
年表	-10.5005
父兄	-10.5007
嗣君	-10.5007
安置	-10.5008
城池	-10.5012
二十三	-10.5026
薨壽五十	-10.503
太宗曰	-10.5033
領兵	-10.5034
楚也	-10.5036
不可得	-10.504
沿	-10.5043
七千	-10.5044
或謂	-10.5053
執事	-10.5062
不死	-10.5062
千人	-10.5069
癸巳	-10.5069
東平	-10.5071
其勢	-10.5073
公私	-10.5079
丁謂	-10.5082
周之	-10.5083
封建	-10.509
畿	-10.5092
呈	-10.5093
四十二年	-10.5097
差官	-10.5098
同列	-10.5099
翰林院	-10.5102
其職	-10.5102
乃命	-10.5105
中立	-10.5108
禾	-10.5113
未敢	-10.5116
閑	-10.5118
問罪	-10.5121
声	-10.5123
芻	-10.5124
狡	-10.5124
通鑑	-10.5124
僕射	-10.5125
涓	-10.5125
餌	-10.5126
膝	-10.5126
哨	-10.5127
黑	-10.5127
荐	-10.5128
霍	-10.5129
奪其	-10.5129
冶	-10.5129
羸	-10.513
贈少保	-10.513
大喜	-10.5131
斃	-10.5132
徹辰	-10.5133
淹	-10.5134
扈從	-10.5135
乙巳	-10.5137
誡	-10.5138
第五子	-10.514
麾下	-10.5143
名曰	-10.5147
次之	-10.5149
引兵	-10.515
爲君	-10.5153
事記	-10.5154
其說	-10.5154
其他	-10.5155
欲其	-10.5156
永樂八年	-10.5156
以臨	-10.516
以少傅	-10.5161
開平	-10.5161
至公	-10.5162
公論	-10.5163
秦秦	-10.5176
聰明	-10.5177
萬兩	-10.5191
其一	-10.5194
進加	-10.5197
衣冠	-10.5203
解元	-10.5205
可否	-10.5206
補曰大事記	-10.5207
故能	-10.5208
楚趙	-10.5211
其年	-10.5211
之號	-10.5212
京官	-10.5214
典禮	-10.5216
蘭州	-10.5217
恐懼	-10.5219
同時	-10.522
齊趙	-10.5223
俱以	-10.5225
六人	-10.5225
主之	-10.5228
右丞相	-10.5229
百年	-10.5233
莫能	-10.5235
别有	-10.5236
曰何	-10.5237
可得	-10.5238
之甚	-10.5241
六千	-10.5251
敢不	-10.5254
兩路	-10.5254
宋人	-10.5255
用也	-10.5257
蕃部	-10.5271
張公	-10.5278
侯贈	-10.528
王何不	-10.5285
謂楚王曰	-10.5287
公議	-10.529
四字	-10.5293
囊	-10.53
太常寺	-10.5301
凡五	-10.5303
兵部左侍郎	-10.5304
勾	-10.5305
不惟	-10.5307
織	-10.5311
行在	-10.5312
而進	-10.5314
宋主	-10.5316
𦙍	-10.5317
檄	-10.5318
為考試官取中	-10.5319
準	-10.5319
漁	-10.5321
鈔二百錠	-10.5321
駟	-10.5322
邊臣	-10.5322
挫	-10.5324
焦芳	-10.5324
妬	-10.5324
瓚	-10.5325
緫	-10.5326
梁燾	-10.5327
夙	-10.5327
閻	-10.5327
太子少傅	-10.5329
鸞	-10.5329
琳	-10.5331
譯	-10.5331
籌	-10.5331
奏乞	-10.5332
阜	-10.5332
諜	-10.5332
文徳	-10.5333
箴	-10.5333
滬	-10.5333
眼	-10.5337
衣一襲	-10.5337
閹	-10.5339
縛	-10.5344
按此	-10.5346
與楚	-10.5347
胙	-10.5353
為我	-10.5357
經史	-10.5363
廷和	-10.5365
惟陛下	-10.5366
從前	-10.5366
管仲	-10.5366
處分	-10.5367
萬物	-10.538
奉使	-10.538
延州	-10.538
不悦	-10.5385
戰功	-10.5395
加少保	-10.541
奉詔	-10.5414
非常	-10.5417
第四	-10.542
八人	-10.5427
改正	-10.5428
公侯	-10.5431
事宜	-10.5434
以太子太保	-10.5435
幽王	-10.5438
大功	-10.5446
俄	-10.5447
徐達	-10.5451
鋒	-10.5452
曰不如	-10.5456
河陽	-10.5458
降詔	-10.5479
之楚	-10.548
秦伐	-10.5491
洪武元年	-10.5495
數十萬	-10.5505
止之	-10.551
耆	-10.5518
髙皇帝	-10.5519
逓	-10.5522
甸	-10.5523
乳	-10.5524
酋	-10.5524
床	-10.5525
恊	-10.5527
㒺	-10.5528
衙門	-10.5528
甘肅	-10.5528
壅	-10.5529
劔	-10.5529
騐	-10.5532
弄	-10.5532
䑓	-10.5532
贍	-10.5533
吝	-10.5533
栢	-10.5536
掲	-10.5536
閩	-10.5536
鏡	-10.5536
竇	-10.5537
傲	-10.5537
衆人	-10.554
吕惠卿	-10.554
蟲	-10.554
少詹事	-10.5541
丗家	-10.5546
鄕	-10.5551
而反	-10.5553
人言	-10.5555
補音徒	-10.5565
復為	-10.5569
靖難兵	-10.5569
不入	-10.5571
慶厯	-10.5574
同日	-10.5575
待罪	-10.5576
固辭	-10.5586
莊宗	-10.559
真定	-10.559
又謂	-10.5592
法令	-10.5598
王振	-10.5604
趙人	-10.5606
而天下	-10.5606
庶吉士	-10.5615
商君	-10.5616
笑曰	-10.5617
浙	-10.5619
宗伯	-10.5621
故云	-10.5628
華陽	-10.5633
部落	-10.5634
未嘗不	-10.5635
為齊	-10.5638
豈敢	-10.564
三十三年	-10.5642
自有	-10.5642
聞其	-10.5644
安陵	-10.5648
王曰寡人	-10.5654
之明	-10.5667
庚	-10.567
吐	-10.5681
再三	-10.5685
南面	-10.5697
莫如	-10.5698
他人	-10.5699
二年任右	-10.5703
講讀	-10.5704
徐公	-10.5706
建議	-10.571
平陽	-10.5717
莊子	-10.5718
陛	-10.572
瓉	-10.5727
袍	-10.5728
㩀	-10.5728
捍	-10.5729
媾	-10.5729
拾	-10.5729
躍	-10.5731
景鯉	-10.5732
鏞	-10.5733
餽	-10.5734
豎	-10.5735
布政司	-10.5736
何足	-10.5736
荆軻	-10.5736
豆	-10.5737
矩	-10.5737
梅	-10.5738
頻	-10.5738
汶	-10.5739
各一	-10.574
戰國策	-10.574
釣	-10.574
𬒳	-10.5741
渾	-10.5741
嚮	-10.5742
別	-10.5743
膏	-10.5744
瀛	-10.5745
隕	-10.5745
番	-10.5746
紀綱	-10.5746
縦	-10.5748
諒祚	-10.5748
儻	-10.5748
股肱	-10.5748
璋	-10.5751
亘	-10.5752
蔡京	-10.5753
和好	-10.5754
𨼆	-10.5755
嘉祐	-10.5756
南京吏部尚書	-10.5762
檢校	-10.5765
玉帶	-10.5766
母弟	-10.5767
樞密使	-10.577
補音才	-10.5772
立功	-10.5773
聽命	-10.5789
贈太子少保	-10.5789
監生	-10.5794
承㫖	-10.5797
周王	-10.5797
青州	-10.5797
官屬	-10.5798
所出	-10.5802
魏冉	-10.5812
燕京	-10.5813
天命	-10.5814
之要	-10.5819
所屬	-10.5821
景公	-10.5825
北面	-10.5828
武子	-10.5828
誠意	-10.5832
之典	-10.5834
稱為	-10.5836
㑹元	-10.5836
嗣位	-10.5839
四品	-10.5861
不須	-10.5868
旗軍	-10.587
女子	-10.5884
奏聞	-10.5885
遣之	-10.5886
小臣	-10.5886
攷之	-10.5888
成公	-10.5895
威武	-10.5896
人馬	-10.59
千户衛鎮撫	-10.5901
周室	-10.5908
此語	-10.591
逞	-10.5915
以禮部尚書	-10.5916
之徳	-10.5919
安民	-10.5922
其上	-10.5923
論之	-10.5925
寛樂令終	-10.5927
取士	-10.5927
樞密	-10.593
名也	-10.5931
莽	-10.5933
欣	-10.5942
之國也	-10.5945
佯	-10.5946
者其	-10.5946
洲	-10.5948
桃	-10.5948
予之	-10.595
通政司	-10.595
靖郭君	-10.595
僇	-10.5951
截	-10.5951
煥	-10.5952
鄴	-10.5952
罹	-10.5953
闔	-10.5953
嗜	-10.5953
飽	-10.5954
覬	-10.5956
狥	-10.5956
坦	-10.5956
般	-10.5957
嘗君	-10.5957
謫戍	-10.5957
緝	-10.5958
无	-10.5958
笞	-10.5958
祭酒	-10.5958
皷	-10.5959
緑	-10.5959
骨肉	-10.596
髮	-10.5962
利也	-10.5962
㨗	-10.5962
圓	-10.5965
狎	-10.5969
也謂	-10.5972
今若	-10.5974
凡三	-10.5974
男女	-10.5979
遇春	-10.5983
永樂中	-10.5987
施於	-10.5989
侯伯	-10.599
六國	-10.5994
繼恩	-10.5997
中間	-10.6003
精兵	-10.6011
復用	-10.6012
三十二年	-10.6014
其數	-10.602
鉅	-10.6034
補音力	-10.6036
自為	-10.6038
主上	-10.6041
十一年任	-10.6042
未任	-10.6045
而亡	-10.6045
齊必	-10.6048
中尉	-10.6051
不立	-10.6057
滅之	-10.6058
鄉里	-10.6066
所居	-10.6066
文章	-10.6068
此字	-10.6074
盡其	-10.6083
韓之	-10.6091
自稱	-10.6095
終身	-10.6096
治平	-10.61
肅王	-10.6106
用此	-10.6106
勅諭	-10.6107
閣下	-10.6112
奉行	-10.6112
圖之	-10.6113
噲	-10.6114
而輕	-10.6116
州安置	-10.6116
懈	-10.6118
竝	-10.6126
為楚	-10.6129
可汗	-10.6132
生員	-10.6136
算	-10.6137
次日	-10.6141
死於	-10.6142
涼	-10.6144
今欲	-10.615
圻	-10.615
右侍郎	-10.6151
人有	-10.6154
抽	-10.6156
將兵	-10.6158
最後	-10.6159
以次	-10.616
賁	-10.616
百户所鎮撫	-10.6161
炎	-10.6163
淇	-10.6163
姊	-10.6164
因其	-10.6165
亞	-10.6165
繳	-10.6165
纓	-10.6165
上皇	-10.6166
州防禦使	-10.6166
做	-10.6167
劇	-10.6167
這	-10.6168
憾	-10.6169
錦衣衞	-10.6169
叟	-10.6171
懦	-10.6172
堯佐	-10.6172
愷	-10.6173
楷	-10.6174
張居正	-10.6174
膠	-10.6175
晝	-10.6175
愛之	-10.6175
馭	-10.6176
鈎	-10.6178
副總兵	-10.6178
剪	-10.6181
其主	-10.6181
武徳	-10.6186
巴延	-10.6191
磬	-10.6192
文敏	-10.6193
伐燕	-10.6195
用心	-10.6197
儒士	-10.6203
伏乞	-10.6204
射之	-10.6204
一道	-10.6205
甚厚	-10.6206
咸平	-10.6209
之用	-10.6213
在魯	-10.6232
入内	-10.6234
官校	-10.624
大王之	-10.6247
免役	-10.6249
官司	-10.6251
守城	-10.6253
為燕	-10.6255
何益	-10.6258
見上	-10.6258
景徳	-10.6265
之路	-10.6268
逺矣	-10.6268
伐韓	-10.6271
顯王	-10.6272
虞卿	-10.6272
無益	-10.6273
秦人	-10.6278
從子	-10.6278
承天	-10.628
師相	-10.6283
不爲	-10.6291
退而	-10.6292
武公	-10.6293
相秦	-10.6294
所惡	-10.6295
而入	-10.6296
患也	-10.63
何可	-10.6305
率兵	-10.6305
遣官	-10.6308
補音于	-10.6309
曰請	-10.631
十餘人	-10.6312
洪熈元年	-10.6313
而行之	-10.6316
數百人	-10.632
任之	-10.6328
無為	-10.6328
障	-10.6331
之長	-10.6331
太子少師	-10.6332
班師	-10.6338
生擒	-10.6342
天地之	-10.6344
楊一清	-10.6344
謚	-10.6346
二三	-10.6353
衣服	-10.6365
官職	-10.6369
扈	-10.637
南有	-10.637
見在	-10.6372
公孫郝	-10.6374
恐非	-10.6375
號為	-10.6376
大體	-10.6377
嘗為	-10.6383
黷	-10.6384
皆為	-10.6386
霖	-10.6386
甚多	-10.6386
之風	-10.6387
疵	-10.6387
其利	-10.6387
慙	-10.6389
贏	-10.639
總旗	-10.6391
卦	-10.6392
三十六	-10.6393
斡	-10.6395
猶言	-10.6398
刋	-10.6399
漆	-10.6399
濓	-10.6399
愁	-10.64
闢	-10.6401
攜	-10.6404
穴	-10.6405
沿邊	-10.6405
休息	-10.6406
不動	-10.6407
皆非	-10.6407
彪謂此	-10.6412
張方平	-10.6412
伏誅	-10.6414
也按	-10.6416
石亨	-10.6419
吏部侍郎	-10.6421
事有	-10.6426
宫室	-10.6427
以死	-10.6427
信也	-10.643
分宜	-10.6432
諸侯之	-10.6433
説與	-10.6437
并州	-10.6437
成臯	-10.6439
人所	-10.6439
涇陽	-10.6451
安定	-10.6452
勇士	-10.6457
攻城	-10.6457
西人	-10.6458
殺人	-10.6464
勤勞	-10.6475
上帝	-10.6476
當是時	-10.6478
治道	-10.648
來降	-10.6481
衛籍	-10.6483
次第	-10.6486
左氏	-10.6486
以書	-10.649
猶有	-10.6492
互相	-10.6494
大義	-10.6499
而使	-10.65
治亂	-10.6504
州府	-10.6519
等奏	-10.6522
萬石	-10.6526
十表裏	-10.6526
韓魏之	-10.6527
第五	-10.6529
不絶	-10.653
科舉	-10.6531
處之	-10.6533
萬五千	-10.6533
亡之	-10.6535
伯爵	-10.6535
奭	-10.6539
言於	-10.6541
劉氏	-10.6543
李賢	-10.6551
渝	-10.6552
以罪	-10.6552
為臣	-10.6554
前往	-10.6554
違者	-10.6561
貢舉	-10.6564
再任	-10.6565
王旦	-10.6568
公族	-10.657
字通	-10.657
今秦	-10.6575
恭順	-10.6575
北朝	-10.6575
赧	-10.6577
此所謂	-10.6578
士也	-10.6579
東北	-10.6582
辜	-10.6588
之害	-10.659
索隱	-10.6591
迄	-10.6593
太學	-10.6596
王見	-10.6598
陳公	-10.6603
都察院右都御史	-10.6604
㳟	-10.6605
陘	-10.6606
叩	-10.6607
縮	-10.6607
乂	-10.6607
禮部右侍郎	-10.6608
疇	-10.6608
駁	-10.6609
覘	-10.6612
都察院右副都御史	-10.6613
萬户	-10.6614
沃	-10.6614
兎	-10.6614
戯	-10.6615
戌	-10.6617
龔	-10.6618
譖	-10.662
販	-10.662
綽	-10.6621
貼	-10.6621
索隠云	-10.6621
梁儲	-10.6623
掖	-10.6623
劵	-10.6623
王必	-10.6624
版	-10.6625
敘	-10.6628
憑	-10.6628
左僕射	-10.6629
摧	-10.663
伴	-10.6634
程頤	-10.6634
西山	-10.6634
泊	-10.6635
北漢主	-10.6637
䢉	-10.6637
圉	-10.6638
狄青	-10.6639
承乾	-10.664
驪姬	-10.6641
必須	-10.6649
致書	-10.6649
根本	-10.6651
王文	-10.6654
而未	-10.6659
土木	-10.6661
自陳	-10.6661
即令	-10.6662
所請	-10.6663
幽州	-10.6667
鴻臚寺	-10.6669
衛指揮	-10.6673
土官	-10.6679
復置	-10.6684
三路	-10.6692
所獲	-10.6695
任讀學	-10.6703
大理	-10.6715
保全	-10.6717
時人	-10.6719
禮義	-10.672
三司使	-10.6726
萊	-10.6726
良臣	-10.6727
之樂	-10.6729
出戰	-10.6729
以濟	-10.673
一官	-10.6731
不幸	-10.6732
九卿	-10.6735
因言	-10.6736
綿布	-10.6736
殿前	-10.6737
康子	-10.6737
中行	-10.6739
土兵	-10.6752
一家	-10.6753
其下	-10.6768
聞而	-10.6777
九人	-10.678
由進士五年任右	-10.6786
金人	-10.6788
補音乃	-10.6789
同心	-10.679
城寨	-10.6791
安可	-10.6792
平江	-10.6801
上即位	-10.6806
少主	-10.6806
彼此	-10.6811
黄河	-10.6811
兩制	-10.6815
故不	-10.682
舘	-10.6835
歸之	-10.6836
張孟談	-10.6838
俠	-10.6839
副都	-10.684
覆試	-10.684
頴	-10.684
臣雖	-10.6841
孝公	-10.6842
右僕射	-10.6844
兩朝	-10.6844
礪	-10.6845
穣侯	-10.6845
轅	-10.6846
者盖	-10.6849
晁	-10.6849
曷	-10.685
洗	-10.685
猝	-10.6851
癸夘	-10.6852
范雎	-10.6852
沁	-10.6852
帽	-10.6852
匈奴	-10.6852
祇	-10.6854
裘	-10.6854
瞽	-10.6854
冠帶	-10.6855
怯	-10.6857
瀆	-10.6857
譲	-10.6858
何得	-10.6858
諧	-10.6858
宰執	-10.686
旺	-10.686
頂	-10.6863
叅政	-10.6865
約束	-10.6866
偪	-10.6867
奉聖㫖	-10.6869
廿	-10.6872
毫	-10.6873
五子	-10.6874
謂之曰	-10.6879
安國	-10.688
艱難	-10.6881
所司	-10.6886
四十五年	-10.6888
希範	-10.689
兖州	-10.689
侍衛	-10.6891
總制	-10.6891
鄉人	-10.6892
遣中使	-10.6892
合格	-10.6895
三十三	-10.6896
不逮	-10.6897
何必	-10.6898
嘉靖初	-10.6898
於燕	-10.6903
若何	-10.6903
吕反	-10.6908
以救	-10.6909
不知何許人	-10.6911
之深	-10.6912
長吏	-10.6913
給與	-10.692
乆之	-10.693
出奔	-10.6931
見内閣	-10.6932
魏地	-10.6932
非不	-10.6951
千戸	-10.6957
入内閣	-10.6959
明白	-10.6959
何故	-10.6988
可行	-10.6991
都尉	-10.6991
賢良	-10.6995
字子	-10.6996
已下	-10.6997
皆在	-10.6999
助之	-10.7002
上復	-10.7007
楚楚	-10.7011
文武官	-10.7012
師傅	-10.7017
君而	-10.7018
辭曰	-10.7024
在後	-10.7025
文華	-10.7028
愚謂	-10.7029
有二	-10.7037
南朝	-10.704
永興	-10.7043
願得	-10.7044
堯舜之	-10.705
是何	-10.705
以為然	-10.7056
破之	-10.7057
重兵	-10.7064
閤	-10.7067
景泰三年	-10.7072
分守	-10.7074
婢	-10.7075
商人	-10.7076
固守	-10.7076
十一年任右	-10.7077
不加	-10.7077
謂楚王	-10.7079
光曰	-10.7079
麒麟	-10.7079
綵幣二表裏	-10.708
迂	-10.7082
侍讀學士	-10.7083
昭奚恤	-10.7083
進用	-10.7085
按察副使	-10.7085
舛	-10.7085
間有	-10.7086
墻	-10.7086
庠	-10.7086
僭	-10.7087
勃	-10.7087
篆	-10.7088
匪	-10.7089
璉	-10.7089
慝	-10.709
塟	-10.709
珣	-10.7091
未得	-10.7091
板	-10.7091
君王后	-10.7092
佚	-10.7092
無名	-10.7092
癸卯	-10.7092
臻	-10.7093
破賊	-10.7093
繋	-10.7094
織造	-10.7096
正統十四年	-10.7098
扇	-10.7099
以正	-10.71
趙䇿	-10.71
以疾	-10.71
阮	-10.7101
廊	-10.7104
朝政	-10.7104
中書侍郎	-10.7105
拆	-10.7105
許諾	-10.7106
門下侍郎	-10.7108
庶㡬	-10.7109
水旱	-10.7109
爾雅	-10.7111
首尾	-10.7111
以全	-10.7113
景泰元年	-10.7115
不解	-10.7119
極言	-10.7121
敗績	-10.7122
僉都御史	-10.7123
事而	-10.7125
湯和	-10.7129
教習	-10.713
一朝	-10.713
萬疋	-10.7135
無私	-10.7135
近侍	-10.7136
趙普	-10.7137
夏言	-10.7138
市易	-10.7142
一體	-10.7144
亦當	-10.7147
以歸	-10.7148
重矣	-10.7149
必先	-10.7149
鎮江	-10.7159
無一	-10.716
上柱國	-10.7161
戰國	-10.7164
與子	-10.7165
㕘議	-10.7171
安陸	-10.7176
無此	-10.7181
熈河	-10.7188
第六子	-10.7189
劉公	-10.7193
趙也	-10.7196
後漢	-10.7198
失其	-10.7202
尤甚	-10.7202
元年任右	-10.7202
兩省	-10.7203
歎曰	-10.7206
斯言	-10.7208
盡忠	-10.7211
何人	-10.7211
文書	-10.7212
汾	-10.7213
岷	-10.7219
聖徳	-10.7221
三十四年	-10.7222
復命	-10.7224
謂齊王	-10.7226
宫人	-10.7229
臣以為	-10.7233
秦攻	-10.7238
從而	-10.7239
夫差	-10.7239
按史	-10.724
祭祀	-10.724
上問	-10.7241
十一日	-10.7242
雖不	-10.7242
順天府	-10.7243
而求	-10.7248
然亦	-10.7248
行狀	-10.7248
五年任右	-10.7251
舎人	-10.7252
四疋	-10.7255
此數	-10.7261
後志	-10.7263
永樂初	-10.7264
章疏	-10.7264
過矣	-10.7265
孫子	-10.7267
所聞	-10.7279
親信	-10.728
好生	-10.7283
鞏	-10.7285
未定	-10.7286
發遣	-10.7286
問之	-10.7288
叔父	-10.7289
其官	-10.7289
兼任	-10.7291
考試	-10.7293
公等	-10.7293
大司馬	-10.7297
有異	-10.7298
補曰當	-10.73
號曰	-10.7302
諸生	-10.7302
之威	-10.7312
獨不	-10.7313
各賜	-10.7317
夘	-10.732
一方	-10.7323
柯	-10.7326
鬱	-10.7327
畆	-10.7329
鯉	-10.7329
衙	-10.733
翔	-10.733
輯	-10.7331
明王世貞撰	-10.7331
申時行	-10.7331
總裁	-10.7332
用人	-10.7332
吏部左侍郎	-10.7332
個	-10.7332
麓川	-10.7333
閫	-10.7333
必亡	-10.7334
鼐	-10.7335
以廣	-10.7336
大都督府	-10.7337
尅	-10.7338
江東	-10.7339
嫡長子	-10.7339
染	-10.7339
泛	-10.734
曰諾	-10.734
七年任右	-10.7341
媚	-10.7341
嚕	-10.7341
𤼵	-10.7342
熙寧	-10.7343
囉	-10.7343
乃可	-10.7343
看詳	-10.7343
恵卿	-10.7344
景帝	-10.7344
燈	-10.7344
孺子	-10.7345
控	-10.7345
召之	-10.7345
紹興	-10.7347
兇	-10.7348
論列	-10.735
枯	-10.7352
九鼎	-10.7354
異日	-10.7355
欽若	-10.7355
英廟	-10.7359
清河	-10.736
琛	-10.7361
亦未	-10.7362
先鋒	-10.7362
者乃	-10.7364
安撫使	-10.7367
遁去	-10.7367
蠻夷	-10.7369
禍亂	-10.7373
織金	-10.7385
文定	-10.7386
武遂	-10.7388
任講學	-10.7389
亦作	-10.739
得地	-10.7391
應之	-10.7391
與焉	-10.7392
子文	-10.7394
山人	-10.7396
上聞	-10.7397
内有	-10.7398
上曰朕	-10.7402
大衆	-10.7409
善之	-10.7414
愚按太宗	-10.7416
改吏部	-10.7423
可用	-10.7424
文貞	-10.7428
右都	-10.7428
尚未	-10.7428
恐其	-10.7431
倦	-10.7432
召還	-10.7432
切責	-10.744
之備	-10.7441
陽侯	-10.7441
我也	-10.7442
同姓	-10.7446
屯兵	-10.7452
幸而	-10.7455
並為	-10.7456
河州	-10.7456
皆得	-10.7457
二千石	-10.7458
學士院	-10.7461
之先	-10.7463
西戎	-10.7469
封爵	-10.7473
奏言	-10.748
盡力	-10.7484
尋以	-10.7487
唐之	-10.7489
給事	-10.7491
方今	-10.7496
固有	-10.7497
曰然	-10.7501
或云	-10.7502
丈反	-10.7503
制置	-10.7503
恩禮	-10.7503
示天下	-10.7506
數十人	-10.7514
此四	-10.7519
三疋	-10.7527
三年任右	-10.7527
不思	-10.7529
無得	-10.7529
而走	-10.753
一本作	-10.7533
故地	-10.7536
副將軍	-10.7538
見任	-10.7539
黔	-10.7542
者惟	-10.7542
第四子	-10.7547
無考	-10.7548
五疋	-10.755
制科	-10.7553
嬪	-10.7554
不能自	-10.7555
小心畏忌	-10.7557
司農	-10.756
五萬	-10.7561
燾	-10.757
翰林院侍講	-10.7574
蝗	-10.7574
燧	-10.7574
両	-10.7575
陂	-10.7576
文淵閣大學士	-10.7577
義也	-10.7577
譛	-10.7578
司馬喜	-10.7579
涕	-10.7579
你	-10.7579
穎	-10.7579
鄢陵	-10.758
卯	-10.758
㨿	-10.7581
詳内閣	-10.7581
頥	-10.7581
九年任	-10.7583
反下注	-10.7584
鬪	-10.7584
蘓軾	-10.7585
殃	-10.7587
又不	-10.7587
兩浙	-10.7587
二反	-10.7589
轉運司	-10.7589
兵於	-10.759
都指揮同知	-10.759
壺	-10.7591
通政使	-10.7591
着	-10.7592
齡	-10.7593
楚韓	-10.7595
惕	-10.7596
丁卯	-10.7596
北兵	-10.7597
宫保	-10.7597
左右曰	-10.7598
故有是命	-10.7601
之妻	-10.7605
韓絳	-10.7608
閣門	-10.7612
來歸	-10.7613
晉楚	-10.7613
牛羊	-10.7618
魏公	-10.7622
登極	-10.7623
荆南	-10.7624
黄鍾	-10.7626
乃使	-10.7628
翰林院侍讀學士	-10.7629
經歴	-10.7629
知諫院	-10.763
陣亡	-10.763
過於	-10.7632
孝宗	-10.7635
後語	-10.7642
方平	-10.7647
六年任右	-10.7647
萬安	-10.7648
元在	-10.7653
贈太師	-10.7658
忠良	-10.7663
一字	-10.7664
計議	-10.7666
興兵	-10.7667
堅守	-10.7668
王越	-10.7668
科道	-10.7673
不稱	-10.7675
易之	-10.7675
三十五	-10.7679
求之	-10.7681
馬匹	-10.7681
昭謂	-10.7687
掌院	-10.7688
陽城	-10.7689
行而	-10.7692
憲王	-10.7692
殺其	-10.7694
聖心	-10.7696
馬軍	-10.7696
者則	-10.7697
且言	-10.7698
王曰善	-10.7703
陞任	-10.7703
武安	-10.7707
至京師	-10.771
兩宫	-10.7711
使其	-10.7712
合而	-10.7713
補音許	-10.7714
部署	-10.7714
時事	-10.7716
十里	-10.7721
不納	-10.7721
自言	-10.7724
弟子	-10.7728
而取	-10.773
今陛下	-10.773
竟不	-10.7733
衛指揮使	-10.774
臣願	-10.7746
左丞	-10.7748
二疋	-10.7749
王嗣在位	-10.7753
穆公	-10.7753
之耳	-10.7753
改元	-10.7766
韓公	-10.7767
肖	-10.7768
文安	-10.777
地而	-10.7776
則楚	-10.7781
鞍	-10.7785
非獨	-10.7787
十三年任	-10.7792
代王	-10.7796
無復	-10.7798
君其	-10.7805
巫	-10.7807
兼翰林院學士	-10.7811
以俟	-10.7815
廩	-10.7818
鋹	-10.7818
麾	-10.7821
十九日	-10.7824
昉	-10.7827
己夘	-10.7827
轉運	-10.7828
團營	-10.7831
霄	-10.7831
費宏	-10.7831
宣慰	-10.7832
由進士六年任右	-10.7833
韓必	-10.7835
諮	-10.7835
藻	-10.7837
覧	-10.7837
繡	-10.7837
梟	-10.7837
嚴嵩	-10.7837
耨	-10.7838
枚	-10.7838
本有	-10.7838
刄	-10.7839
而不敢	-10.7839
八年任	-10.784
工部右侍郎	-10.7841
可以為	-10.7842
奄	-10.7842
憫	-10.7843
掃	-10.7844
區區	-10.7844
房玄齡	-10.7845
斧	-10.7845
譁	-10.7845
上天	-10.7846
夔	-10.7846
矧	-10.7847
狃	-10.7849
意者	-10.7852
襲封	-10.7855
田忌	-10.7856
猶未	-10.7858
緩急	-10.7859
都部署	-10.7859
千萬	-10.7861
科道官	-10.7863
寧府	-10.7865
縣丞	-10.7865
曲沃	-10.7869
兵至	-10.787
近者	-10.7873
誤國	-10.7875
未足	-10.7882
建康	-10.7886
自取	-10.7886
黙然	-10.7891
弗聽	-10.7892
劉吉	-10.7896
得以	-10.7907
于謙	-10.7909
兩京	-10.791
曰不然	-10.7914
詣闕	-10.7915
潞	-10.7916
之北	-10.7917
改封	-10.7921
敏中	-10.7922
守仁	-10.7927
皇考	-10.7927
居民	-10.7927
天意	-10.7928
無厭	-10.793
四十八	-10.7935
金陵	-10.7937
右布政使	-10.7942
山陵	-10.7946
四年任右	-10.7947
無遺	-10.7949
官爵	-10.7949
百餘人	-10.7953
乎王曰	-10.7954
封之	-10.7961
四十四	-10.7979
罷兵	-10.7982
授以	-10.7983
始終	-10.7987
君王	-10.7993
如舊	-10.7995
真人	-10.7996
為難	-10.8001
六日	-10.8005
安慶	-10.8006
一嵗	-10.8011
又遣	-10.8012
定逺	-10.8013
攻燕	-10.8015
不治	-10.8016
鎮守太監	-10.8025
二曰	-10.8033
百疋	-10.8033
社稷之	-10.8034
府同知	-10.8037
試卷	-10.8039
舉進士	-10.8041
千金	-10.8042
其書	-10.8043
臣愚	-10.8044
執奏	-10.8046
詔㫖	-10.8046
所殺	-10.8049
字誤	-10.805
大計	-10.8053
傳言	-10.8054
主父	-10.8055
三十四	-10.8056
都司	-10.8061
平定	-10.8062
以資	-10.8062
際	-10.8064
一十	-10.8065
功徳	-10.8068
劄	-10.8082
必死	-10.8082
春申君	-10.8082
尚有	-10.8085
信之	-10.8086
谿	-10.8087
報反	-10.8089
昊	-10.8091
郄	-10.8092
詘	-10.8092
不救	-10.8095
眀	-10.8095
王岩叟	-10.8098
磨勘	-10.8098
駐蹕	-10.8099
冨	-10.8099
岩	-10.81
銷	-10.81
而朝	-10.81
必得	-10.8101
庾	-10.8101
茲	-10.8102
仆	-10.8103
攸	-10.8103
羗	-10.8103
袒	-10.8104
渤海	-10.8104
戢	-10.8106
塘	-10.8106
捧	-10.8107
靳	-10.8107
盍	-10.8107
碎	-10.8108
太常博士	-10.8108
洵	-10.8109
廵撫	-10.811
催	-10.8111
得志	-10.8111
等事	-10.8112
所致	-10.8112
棺	-10.8112
工部侍郎	-10.8114
酷	-10.8114
弟姪	-10.8114
左布政使	-10.8115
後復	-10.8115
侃	-10.8118
商賈	-10.8121
景祐	-10.8124
為陛下	-10.8125
地名	-10.8127
前鋒	-10.8127
劉文	-10.8127
李東陽	-10.8128
於下	-10.8128
者是	-10.813
被執	-10.813
王氏	-10.8136
守臣	-10.8138
言語	-10.8139
禍福	-10.814
建昌	-10.814
不滿	-10.8141
下章	-10.8141
范鎮	-10.8142
然不	-10.8145
嶺南	-10.8146
楚必	-10.8146
處士	-10.8149
東陽	-10.815
叔向	-10.815
東海	-10.8152
則天下	-10.8154
鄉舉	-10.8156
陳循	-10.816
貴妃	-10.8162
不殺	-10.8166
里充	-10.8173
西夏	-10.8175
之勞	-10.8176
金帶	-10.8177
於我	-10.8183
之黨	-10.8184
以地	-10.8185
武昌	-10.8186
其次	-10.8188
悼公	-10.8208
可知	-10.8213
職官	-10.8215
國子	-10.8215
欲乞	-10.8216
觀察使	-10.8217
不順	-10.8217
察其	-10.8222
盛事	-10.8224
視事	-10.823
責其	-10.8231
黄帝	-10.8239
不察	-10.8243
其道	-10.8251
覲	-10.8254
如有	-10.8255
為主	-10.8255
士民	-10.8257
小民	-10.8262
再以	-10.8264
四時	-10.8264
㕘將	-10.8264
因請	-10.8266
進兵	-10.8279
侍講學士	-10.8279
姚本作	-10.8281
無禮	-10.8281
築城	-10.8285
二十一	-10.8287
附㑹	-10.8289
一見	-10.8293
以伐	-10.8294
水出	-10.8295
臣謂	-10.8301
大使	-10.8301
後改	-10.8302
掌詹事府	-10.8309
上親	-10.8311
汪直	-10.8313
四年以	-10.8314
朕意	-10.8318
比音	-10.832
始也	-10.8323
兩府	-10.8325
使民	-10.8327
辭也	-10.8327
力戰	-10.8329
功業	-10.8342
獻書	-10.8345
之賞	-10.8347
之處	-10.835
田文	-10.835
以身	-10.8354
病也	-10.836
芝	-10.836
遂至	-10.836
明經	-10.8361
意在	-10.8362
三十一	-10.8365
自殺	-10.8365
瀋	-10.8365
二王	-10.8366
忻	-10.8368
唐氏仲友曰	-10.8368
綵段	-10.8368
故有	-10.8369
姒	-10.8371
𠡠	-10.8373
氷	-10.8374
而君	-10.8374
灼	-10.8375
拿	-10.8375
諂	-10.8375
泥	-10.8378
棗	-10.8378
沖	-10.8378
擲	-10.8379
摘	-10.8379
夣	-10.8381
冷	-10.8382
額訥特珂克	-10.8382
稟	-10.8382
區	-10.8382
倣	-10.8382
㑹稽	-10.8383
囑	-10.8383
楚國	-10.8384
巴圖爾	-10.8384
閤門	-10.8385
武功	-10.8385
司禮	-10.8385
齊燕	-10.8386
咸淳	-10.8387
足矣	-10.8388
艘	-10.8388
兵部右侍郎	-10.8388
亡也	-10.8389
徐階	-10.839
不親	-10.8394
䕶送	-10.8394
刑罰	-10.8396
東厰	-10.8396
太廟	-10.8397
魯連	-10.8398
孝陵	-10.8401
考試官	-10.8405
後有	-10.841
薨壽六十	-10.841
貢院	-10.841
一身	-10.8413
楚使	-10.8414
伯温	-10.842
嘉靖元年	-10.8427
其情	-10.8429
哀侯	-10.8429
韓維	-10.8431
其能	-10.8432
地缺	-10.8434
十八日	-10.8434
萬緡	-10.8442
無知	-10.8443
乃令	-10.8443
三十七	-10.8448
有詔	-10.8448
美人	-10.8453
監門	-10.8455
懿王	-10.8455
王曰善乃	-10.8457
勛臣	-10.846
百戸	-10.846
與王	-10.8461
以是	-10.8462
六曹	-10.8463
楊廷和	-10.8467
仁義之	-10.847
十四日	-10.8474
㐮王	-10.8475
中書門下	-10.8476
答曰	-10.8477
晉人	-10.849
七子	-10.8493
不逺	-10.8494
馬陵	-10.8495
乗馬	-10.8497
之聲	-10.85
主考	-10.8506
七十餘	-10.8508
寮	-10.8509
四十五	-10.8509
劉忠	-10.8522
建立	-10.8527
誥命	-10.8528
王瞻	-10.8531
軍國	-10.8532
終始	-10.8533
涿州	-10.8533
之學	-10.8534
所貴	-10.854
聖人之	-10.854
禁軍	-10.854
賢才	-10.8544
通作	-10.8549
强而	-10.8549
授之	-10.855
而成	-10.8552
立法	-10.8552
下衍	-10.8556
徳之	-10.8557
亮反	-10.8558
賜以	-10.8562
戰不勝	-10.8562
諭以	-10.8569
罪之	-10.8572
揮	-10.8573
無人	-10.8576
凡六	-10.858
威福	-10.8582
少保太子太保	-10.8582
天書	-10.8582
多所	-10.8586
朱子	-10.859
何由	-10.8593
其辭	-10.8599
六子	-10.8604
蘓轍	-10.8604
此意	-10.8605
大禮	-10.8609
其禍	-10.8612
夫以	-10.8613
其志	-10.8614
城之	-10.8615
州居住	-10.8619
堵	-10.8621
魏䇿	-10.8622
危亡	-10.8623
講學	-10.8624
而用之	-10.8625
乞罷	-10.8634
袖	-10.8637
見前隆慶	-10.8638
掛	-10.8639
其首	-10.864
而至	-10.864
昶	-10.8641
肩	-10.8642
揖	-10.8642
喀	-10.8643
示之	-10.8644
綵幣一表裏	-10.8644
國子祭酒	-10.8644
汰	-10.8645
㳙	-10.8645
過失	-10.8646
陸完	-10.8646
零	-10.8646
璞	-10.8646
杲	-10.8647
渙	-10.8647
誌	-10.8647
縳	-10.8647
苖	-10.8648
禆	-10.8649
惰	-10.865
䓁	-10.8651
藍田	-10.8651
大理寺卿	-10.8651
江乙	-10.8652
張氏	-10.8652
峽	-10.8652
户部侍郎	-10.8653
挈	-10.8653
年以右副都御史任	-10.8654
浹	-10.8655
顥	-10.8655
姻	-10.8656
帷	-10.8656
守成	-10.8657
御筆	-10.8657
都指揮僉事	-10.8658
䘏	-10.8658
有過	-10.8659
繞	-10.8659
大明	-10.866
信陵君	-10.866
廪	-10.8661
小旗	-10.8662
撤	-10.8663
南京禮部尚書	-10.8663
冝陽	-10.8663
若能	-10.8663
無恙	-10.8664
雕	-10.8664
乗之	-10.8666
欺罔	-10.8668
猶恐	-10.867
西厰	-10.8671
吉祥	-10.8675
讀卷	-10.8675
春申	-10.8676
宣慰使	-10.8678
故元	-10.8682
以獻	-10.8683
自此始	-10.8685
隴西	-10.8686
財物	-10.8686
大者	-10.8688
之約	-10.8688
但有	-10.8689
屯田	-10.87
恩澤	-10.87
舟師	-10.8702
所稱	-10.8703
江夏	-10.8705
同考	-10.8706
稱賀	-10.8706
賈易	-10.8707
提刑	-10.8711
在内	-10.8717
布二疋	-10.872
魏徵	-10.8722
以大	-10.8723
右侍	-10.8727
食之	-10.8732
破燕	-10.8739
稱王	-10.8739
神明	-10.8742
中允	-10.8743
不亦	-10.8745
聖政	-10.8749
亦自	-10.8753
山林	-10.8754
史官	-10.8756
為先	-10.8756
發其	-10.8759
三曰	-10.8759
太和	-10.876
上聲	-10.8763
諸道	-10.8767
嗣薨夀四十	-10.8769
之任	-10.8771
地界	-10.8773
其弊	-10.8773
運使	-10.8774
二者	-10.8775
君子之	-10.8783
賈相	-10.8785
則民	-10.8787
相承	-10.8791
聞於	-10.8796
不韋	-10.8798
為亂	-10.8804
知道	-10.8806
國中	-10.881
百兩	-10.8812
之父	-10.8816
封伯	-10.8818
而來	-10.8818
之神	-10.8828
進曰	-10.883
一代	-10.8834
絹二疋	-10.8838
於衆	-10.8841
不由	-10.8844
三十八	-10.8847
前世	-10.8847
先遣	-10.8848
不食	-10.8852
可使	-10.8852
合也	-10.8852
不存	-10.8853
大名	-10.886
將有	-10.8862
晉侯	-10.8863
說之	-10.8863
息民	-10.8865
人數	-10.8874
所至	-10.8874
宗道	-10.8875
萬厯元年	-10.8875
而獨	-10.8876
太皇太后曰	-10.8881
一清	-10.8885
經制	-10.8892
尚在	-10.8893
所行	-10.8893
右僉都御史	-10.8896
十餘年	-10.89
簡子	-10.8901
諍	-10.8902
厲公	-10.8903
行至	-10.8905
伯贈侯	-10.8917
緡錢	-10.8917
厮	-10.8919
芮	-10.8922
河中	-10.8923
榆	-10.8924
言有	-10.8925
漠	-10.8926
上殿	-10.8927
亦必	-10.8927
葺	-10.8928
若以	-10.8929
州團練使	-10.8929
楊士竒	-10.893
歷	-10.8931
濵	-10.8931
賔客	-10.8931
鯀	-10.8931
文信侯	-10.8932
陟	-10.8932
崖	-10.8932
直𨽻長洲人	-10.8933
裳	-10.8933
噬	-10.8933
玠	-10.8933
枕	-10.8934
白金二百兩	-10.8934
廂	-10.8934
擯	-10.8937
訾	-10.8938
繹	-10.8938
慿	-10.8938
繪	-10.8939
慧	-10.8939
削爵	-10.8939
惻	-10.8939
王使	-10.8939
吕恵卿	-10.8939
不去	-10.8939
甥	-10.894
與人	-10.894
三十九年	-10.894
亾	-10.894
拓	-10.8941
主㑹試	-10.8941
掘	-10.8941
去年	-10.8942
贈太傅	-10.8942
牘	-10.8943
軍器	-10.8944
遮	-10.8945
頸	-10.8946
洮	-10.8946
盗賊	-10.895
盡心	-10.895
言此	-10.8951
蔡澤	-10.8955
銑	-10.8955
廢也	-10.8956
等州	-10.8956
落職	-10.8956
髙拱	-10.8957
宣大	-10.8957
體量	-10.8957
上御	-10.8958
後人	-10.8958
京兆	-10.8959
太行	-10.8961
丈夫	-10.8962
郁	-10.8964
本或作	-10.8964
正三品	-10.8965
此臣之所	-10.8966
司寇	-10.8969
其死	-10.8971
錢糧	-10.8975
後為	-10.8975
吏部右侍郎	-10.8976
王孫	-10.8977
樞宻使	-10.8978
之事也	-10.8979
湯武	-10.898
年間	-10.8989
王欽若	-10.8991
臣之所	-10.8992
吕誨	-10.8992
遂為	-10.8994
兵部侍郎	-10.8994
食邑	-10.8996
曰吾聞	-10.8998
周官	-10.8999
鄰國	-10.9
則君	-10.9
司馬光言	-10.9
淮北	-10.9
皆曰	-10.9003
魏彬	-10.9005
怒曰	-10.9008
十斤	-10.9008
之智	-10.901
西路	-10.901
每嵗	-10.901
終不	-10.901
告急	-10.9012
三城	-10.9012
從此	-10.9013
南昌	-10.9017
在楚	-10.9018
臣亦	-10.902
弼曰	-10.9023
公侯伯	-10.9025
至誠	-10.9028
四面	-10.9028
有才	-10.9029
童子	-10.9032
闕下	-10.9033
兵備	-10.9035
敵國	-10.9038
二年任左	-10.9038
有竒	-10.9039
而聽	-10.904
副都御史	-10.9048
一軍	-10.905
王后	-10.9051
詞賦	-10.9051
七年任	-10.9055
王府	-10.9058
上疏言	-10.9063
杭州	-10.9073
其可	-10.9076
其兵	-10.9076
聖意	-10.9076
都城	-10.9077
變亂	-10.908
易也	-10.9084
及此	-10.9084
其城	-10.9087
謀者	-10.9089
矣故	-10.9091
擇其	-10.9093
道者	-10.9093
史同	-10.9094
留意	-10.9094
禮侍	-10.9095
以取	-10.9097
秦府	-10.91
臣切	-10.91
曰先生	-10.9102
永平	-10.9103
不書	-10.9106
因使	-10.9106
三十兩	-10.9107
緡	-10.9108
既至	-10.9114
元年任	-10.9117
武宗	-10.9118
自相	-10.9118
年任	-10.9125
辦事	-10.9131
有隙	-10.9131
求救	-10.9135
非其	-10.9138
潞州	-10.915
軍節度使	-10.9155
疑其	-10.9156
陳留	-10.9157
一本無	-10.916
九州	-10.9161
何哉	-10.9161
幣帛	-10.9163
襄城	-10.9165
甚明	-10.9165
萬計	-10.9166
入官	-10.9169
欲與	-10.9175
當有	-10.918
便殿	-10.9184
其文	-10.9185
問於	-10.9187
戊	-10.9189
貟	-10.9193
唱	-10.9202
呡	-10.9202
瓘	-10.9205
謁者	-10.9208
士之	-10.9208
所賜	-10.9214
而弗	-10.9214
不少	-10.9215
詮	-10.9217
亦云	-10.9219
莊公	-10.922
洋	-10.9223
賑	-10.9223
推右未任	-10.9223
喧	-10.9223
顒	-10.9224
糞	-10.9224
漫	-10.9226
䛕	-10.9227
劫	-10.9227
緯	-10.9227
聶政	-10.9228
鎧	-10.9228
聶	-10.9228
馬文升	-10.9229
啇	-10.923
髙煦	-10.923
組	-10.923
縷	-10.9231
闈	-10.9231
庶長子	-10.9231
膚	-10.9231
桀紂	-10.9232
卵	-10.9232
后稷	-10.9232
枷	-10.9232
竿	-10.9232
驪	-10.9233
團	-10.9233
罪人	-10.9233
郵	-10.9235
可惜	-10.9235
瑟	-10.9236
霜	-10.9236
太倉	-10.9236
俛	-10.9237
摇	-10.9237
以助	-10.9237
取中	-10.9237
寐	-10.9238
菜	-10.9239
壻	-10.9239
阿里庫	-10.9241
隧	-10.9241
扣	-10.9241
土伯特	-10.9242
昆弟	-10.9243
是則	-10.9244
從其	-10.9245
太后曰	-10.9246
伏望陛下	-10.9247
賓客	-10.9248
錢塘	-10.9248
江彬	-10.9248
飲酒	-10.9251
而善	-10.9253
無疑	-10.9253
補音如字	-10.9253
王鏊	-10.9254
田嬰	-10.9256
意欲	-10.9256
宗廟社稷	-10.9257
王覿	-10.9257
等俱	-10.9258
入對	-10.926
養病	-10.926
即時	-10.9261
封疆	-10.9261
之族	-10.9263
損益	-10.9263
疾苦	-10.9266
奉祀	-10.9266
諸儒	-10.9268
管勾	-10.927
三十里	-10.9271
改為	-10.9272
民不	-10.9277
御前	-10.9289
補曰史作	-10.9294
臨御	-10.9294
皇帝陛下	-10.9297
嗣薨夀三十	-10.9297
楊榮	-10.9299
内地	-10.9301
謂曰	-10.9308
市馬	-10.931
仍賜	-10.9312
有不	-10.9312
俱正	-10.9313
豈以	-10.9314
之節	-10.9322
異姓	-10.9322
夷吾	-10.9324
河西	-10.9324
和氣	-10.9328
攻中山	-10.9333
訓導	-10.9335
濮王	-10.9336
詔自今	-10.9337
之私	-10.934
四十六	-10.9341
十五萬	-10.9341
固不	-10.9346
十八年任	-10.9348
禮儀	-10.9349
殊不	-10.9349
軍旅	-10.935
至於此	-10.935
勉之	-10.9351
宣帝	-10.9354
六萬	-10.9354
聖賢	-10.9358
覆奏	-10.9359
黃	-10.9359
使副	-10.9359
二囯	-10.9362
知院	-10.9363
見者	-10.9363
餘皆	-10.9363
五十萬	-10.9372
無大	-10.9372
也盖	-10.9373
欲立	-10.9373
吏侍	-10.9374
其本	-10.9376
當今	-10.9378
故言	-10.9379
死士	-10.9382
等第	-10.9383
諸子	-10.9385
依前	-10.9389
恭靖	-10.9395
御馬監	-10.9395
國體	-10.9397
以東	-10.9398
近代	-10.9398
是爲	-10.9398
移文	-10.9399
注云	-10.9402
二年正月	-10.9408
而罷	-10.9408
公不如	-10.9413
不法	-10.9414
者即	-10.9425
洪武三年以	-10.9428
不可知	-10.9431
定襄	-10.9433
議事	-10.9438
政府	-10.9438
所據	-10.9441
嵗月	-10.9441
王妃	-10.9443
國亡	-10.9449
僖王	-10.945
甞君	-10.9452
常山	-10.9454
遂使	-10.9456
魯僖	-10.9458
子榮	-10.946
四海之	-10.9461
上曰卿	-10.9461
太監張永	-10.9464
居正	-10.9465
陳文	-10.9468
廬州	-10.947
劉作	-10.9473
復來	-10.9474
故使	-10.9481
之舊	-10.9482
闗中	-10.9485
我師	-10.9486
俱為	-10.9486
為治	-10.9491
先卒	-10.9494
奪之	-10.9499
非一	-10.95
補音戶	-10.9501
絶其	-10.9504
八千	-10.9508
亦言	-10.9509
郟	-10.9509
三邊	-10.9511
必能	-10.9511
知所	-10.9513
廣州	-10.9514
主也	-10.9514
之稱	-10.9519
潁川	-10.952
朝臣	-10.952
𤓰	-10.952
沾	-10.9522
汭	-10.9524
𥙷曰姚云	-10.9524
總督軍務	-10.9524
相攻	-10.9524
建信君	-10.9525
斶	-10.9525
拒之	-10.9525
扵是	-10.9526
惟演	-10.9527
牆	-10.9527
於宋	-10.9527
紛紛	-10.9527
琥	-10.9527
者矣	-10.9528
墾	-10.9528
豕	-10.9528
時為	-10.9528
一一	-10.9529
光祿大夫	-10.953
㦲	-10.9532
髙下	-10.9533
䑕	-10.9533
兕	-10.9533
摰	-10.9534
揭	-10.9534
疊	-10.9534
辛卯	-10.9534
㡬瑟	-10.9535
几	-10.9535
参	-10.9535
南京工部尚書	-10.9536
殛	-10.9536
兢	-10.9537
繇	-10.9537
中興	-10.9538
珂	-10.9538
雀	-10.9538
紹聖	-10.9538
李善長	-10.954
槐	-10.954
睹	-10.954
之位	-10.9542
則魏	-10.9542
南京户部尚書	-10.9542
噐	-10.9542
暑	-10.9542
應天府	-10.9543
油	-10.9543
汚	-10.9544
哲宗	-10.9544
稔	-10.9544
闇	-10.9545
峒	-10.9547
紊	-10.9548
宣撫	-10.9553
夷狄	-10.9554
說苑	-10.9555
創業	-10.9558
本年卒	-10.9562
止是	-10.9562
劉宇	-10.9564
赦之	-10.9565
撃之	-10.9569
公輔	-10.9569
開國	-10.9571
師道	-10.9574
至如	-10.9575
廟堂	-10.958
將校	-10.9581
貞觀初	-10.9582
五年以	-10.9585
官至	-10.9586
正二品	-10.9588
少而	-10.9588
相應	-10.9591
欲用	-10.9592
太上皇	-10.9592
季興	-10.9592
貢士	-10.9594
出自	-10.9594
殿試	-10.9595
文義	-10.9595
也傳曰	-10.9595
員外	-10.9595
秦昭	-10.9596
中道	-10.9598
復遣	-10.9599
為天子	-10.96
任本年致仕	-10.9604
弟兄	-10.9607
未免	-10.9607
則可	-10.9614
舊法	-10.9624
召對	-10.9624
不測	-10.9627
正一品	-10.9629
領之	-10.963
典刑	-10.9631
泰山	-10.9634
八日	-10.9634
洪熈	-10.9638
泰和	-10.9638
必行	-10.9643
此其	-10.9644
金玉	-10.9645
為都督同知	-10.9646
姦臣	-10.9649
起復	-10.9651
京營	-10.9653
遺之	-10.9654
官也	-10.9656
好惡	-10.9657
未行	-10.9657
於後	-10.966
濟南	-10.9661
卒於	-10.9662
變更	-10.9663
軍事	-10.9671
賞賜	-10.9671
之體	-10.9672
白起	-10.9672
頃之	-10.9673
二府	-10.9678
黄中	-10.9679
何謂	-10.9679
爲齊	-10.968
趙趙	-10.9681
靈公	-10.9683
焚其	-10.9687
矣若	-10.9687
家屬	-10.9688
王直	-10.9688
或曰	-10.9689
樓子	-10.969
所鎮撫	-10.969
分别	-10.9692
今乃	-10.9692
中書令	-10.9695
朕心	-10.9696
又與	-10.97
不敬	-10.9703
荆湖	-10.9703
聞奏	-10.9707
之時也	-10.9707
之首	-10.9708
言路	-10.9708
常州	-10.9708
内傳	-10.971
刑法	-10.9711
者又	-10.9713
成侯	-10.9713
重也	-10.9713
為公	-10.9717
則非	-10.9717
既以	-10.9718
之業	-10.9719
伯宗	-10.9722
出為	-10.9722
論奏	-10.9723
東有	-10.9723
凡七	-10.9724
不祥	-10.9729
登第	-10.9733
上欲	-10.9737
第三子薨夀	-10.9739
為去	-10.9744
而遣之	-10.9746
之善	-10.9755
亦多	-10.9758
年四十	-10.9758
以奉	-10.9762
之詞	-10.9762
一級	-10.9763
嘉靖十八年	-10.9765
代府	-10.9765
三四	-10.9766
二州	-10.977
之末	-10.9771
以國	-10.9772
書之	-10.9772
官名	-10.9777
意也	-10.9779
東方	-10.9783
惡其	-10.9784
一節	-10.9787
故勅	-10.9788
一時之	-10.9791
史無	-10.9793
異論	-10.9796
為大王	-10.9799
南方	-10.9807
國家之	-10.9807
髙陽	-10.9808
十分	-10.9809
則此	-10.9809
之親	-10.9809
糧草	-10.9817
年八十	-10.9818
帝王之	-10.9818
正人	-10.9821
丑	-10.9821
力士	-10.9822
崇政殿	-10.9822
有變	-10.9825
蒼	-10.9825
作亂	-10.9827
大破	-10.9831
次年	-10.9832
乃得	-10.9833
逄	-10.9834
竪	-10.9836
西河之外	-10.9836
言欲	-10.9837
奈	-10.9837
㳂	-10.9838
謂周君曰	-10.9839
癸	-10.9839
所親	-10.9839
挑	-10.9839
有缺字	-10.984
檀	-10.984
張四維	-10.984
糓	-10.984
太常寺卿	-10.9842
難得	-10.9842
梯	-10.9842
囿	-10.9842
賜死	-10.9843
狩	-10.9843
拙	-10.9844
當國	-10.9844
鈍	-10.9844
話	-10.9845
暢	-10.9845
綵幣四表裏	-10.9845
派	-10.9846
墟	-10.9846
直𨽻濠州人	-10.9847
滛	-10.9848
侔	-10.9848
鎛	-10.9848
甄	-10.9849
鍳	-10.985
四十里至	-10.985
以攻	-10.985
哈喇	-10.9851
左司諫	-10.9851
愬	-10.9852
玘	-10.9854
常遇春	-10.9855
嶽	-10.9855
王嵓叟	-10.9856
平日	-10.9856
諛	-10.9857
愼	-10.9858
貞觀政要	-10.9858
謂侍臣曰	-10.9859
嫂	-10.9859
㤙	-10.986
補曰正義云	-10.986
蒐	-10.986
輔導	-10.9862
人御史	-10.9862
瑗	-10.9863
諸矦之	-10.9863
哈薩爾	-10.9864
安敢	-10.9864
天時	-10.9865
其故	-10.9868
九年任右	-10.9868
得一	-10.9869
可取	-10.9871
善也	-10.9872
相望	-10.9873
房杜	-10.9873
敢言	-10.9874
綵幣三表裏	-10.9877
逮問	-10.9879
河朔	-10.9879
直抵	-10.9879
所能	-10.9881
詔曰朕	-10.9884
奉表	-10.9887
第九	-10.9889
魏人	-10.9893
騎射	-10.9894
吾將	-10.99
喜怒	-10.9901
因令	-10.9903
交結	-10.9904
道士	-10.9907
第六	-10.9909
魯君	-10.9914
累遷	-10.9915
内官監	-10.9918
報之	-10.9918
得天下	-10.9923
因此	-10.9923
燕將	-10.9925
第四子薨夀	-10.9926
蘇州	-10.9926
其謀	-10.9926
右㕘政	-10.9928
為三	-10.9928
不備	-10.993
之異	-10.993
此豈	-10.9936
帥臣	-10.9938
於人	-10.9942
尚存	-10.9946
鴆	-10.9947
上流	-10.9949
祖宗之	-10.9949
欲殺	-10.9953
嗣薨壽四十	-10.9957
萬乗	-10.9959
之門	-10.9966
自立	-10.9973
於諸侯	-10.9974
等以	-10.9977
百六十	-10.9978
廣寧	-10.9979
名號	-10.998
俱成	-10.9987
貴朝	-10.9987
今復	-10.9987
誠信	-10.9991
不實	-10.9998
三嵗	-10.9999
不意	-11.0002
時政	-11.0002
貲	-11.0004
委任	-11.0005
將相	-11.0007
正曰史	-11.001
本年致仕	-11.0011
反通作	-11.0016
之西	-11.0017
王友	-11.0018
承平	-11.002
以待之	-11.0022
諫議大夫	-11.0023
使趙	-11.0025
之本也	-11.0027
車馬	-11.0028
戒之	-11.0036
文泰	-11.0037
兩廣	-11.0039
西有	-11.0048
賜宴	-11.0048
詔罷	-11.005
七嵗	-11.005
百二十	-11.0051
著書	-11.0054
强國	-11.0054
文信	-11.0058
道徳	-11.0062
論事	-11.0063
八十餘	-11.0063
十六年任	-11.0067
之期	-11.0068
失也	-11.0069
月初一日	-11.0069
日久	-11.0071
云我	-11.0072
水之	-11.0073
王因	-11.0073
為右都督	-11.0075
老成	-11.0077
委之	-11.0079
死後	-11.0079
金吾	-11.0083
矣且	-11.0086
五十年	-11.0086
與戰	-11.009
因謂	-11.0094
五帝	-11.0098
令㫖	-11.0099
疾也	-11.0099
修武	-11.0104
騎兵	-11.0111
城門	-11.0113
月初二日	-11.0114
問其	-11.0116
有何	-11.0116
將軍印	-11.0117
而已矣	-11.0117
府知府	-11.012
不仁	-11.012
一篇	-11.012
反今	-11.0123
神人	-11.0126
天下之士	-11.0133
可知矣	-11.0139
行者	-11.0141
旭	-11.0148
盾	-11.0148
京東	-11.0148
縝	-11.015
長官	-11.0151
分為	-11.0154
頓首	-11.0154
倪	-11.0154
本年轉左	-11.0154
巴圖魯	-11.0155
岊	-11.0159
韓䇿	-11.0159
愿	-11.0159
軸	-11.016
補補曰	-11.016
北門	-11.0161
友諒	-11.0162
湛	-11.0162
徳明	-11.0162
烟	-11.0164
挟	-11.0165
胡濙	-11.0165
堂上官	-11.0165
愎	-11.0166
宋彭百川撰	-11.0166
懾	-11.0166
廡	-11.0166
刧	-11.0167
樞密直學士	-11.0167
李春芳	-11.0167
殞	-11.0167
之狀	-11.0168
殄	-11.0168
直𨽻定逺人	-11.0169
彭澤	-11.017
邇英	-11.017
亦宜	-11.017
縉紳	-11.0171
苐	-11.0172
錮	-11.0173
柏	-11.0173
李時	-11.0173
姚賈	-11.0173
館閣	-11.0174
晏駕	-11.0174
韜	-11.0174
五十六	-11.0175
演	-11.0175
軀	-11.0175
曹彬	-11.0176
以城降	-11.0179
弁	-11.0179
榻	-11.0179
酋長	-11.0179
一章	-11.0179
侍臣	-11.018
墓誌	-11.0181
内史	-11.0182
存者	-11.0182
者無	-11.0182
上謂輔臣曰	-11.0183
納欵	-11.0183
博郭爾濟	-11.0184
廷臣	-11.0186
闗防	-11.0189
草澤	-11.0189
戎狄	-11.019
伊尹	-11.0191
二年二月	-11.0191
上召	-11.0193
西域	-11.0194
上封事	-11.0197
今雖	-11.0197
補音烏	-11.0198
垂簾	-11.0199
哨馬	-11.02
樂毅	-11.02
我我	-11.0201
譬	-11.0203
即墨	-11.0207
禁之	-11.0209
建隆	-11.0211
補曰韓	-11.0212
度支	-11.0212
十四年任右	-11.0214
以平	-11.0214
祿一千石	-11.0214
嗣嘉靖	-11.0217
將何以	-11.0218
其過	-11.0219
諡法	-11.0219
諡曰	-11.0219
漢志	-11.0222
謚曰	-11.0222
僧道	-11.0222
夫婦	-11.0223
汝州	-11.0224
永昌	-11.0225
令平聲	-11.0226
周書	-11.0227
人户	-11.0228
衛之	-11.023
一舉	-11.0237
所重	-11.0237
傳㫖	-11.0239
凡八	-11.0239
野史	-11.024
邊境	-11.024
嘉興	-11.0241
十五年任右	-11.0242
人主之	-11.0242
鞍馬	-11.0243
實為	-11.0243
為吏部尚書	-11.0244
絶齊	-11.0245
濟寧	-11.0248
又非	-11.0249
曰彼	-11.0251
鄭州	-11.0252
朝㫖	-11.0259
已定	-11.0261
一百二十	-11.0262
天文	-11.0265
之子也	-11.0265
山陽	-11.027
重者	-11.027
所以為	-11.027
文簡	-11.0272
犯者	-11.0274
洪武三十五年	-11.0277
而見之	-11.0281
請令	-11.0284
嬰子	-11.0284
以吏部尚書	-11.0286
謀臣	-11.0287
可考	-11.0291
本國	-11.0291
世祖	-11.0295
第二子薨夀	-11.0295
選擇	-11.0297
太子少保兵部尚書	-11.0297
子期	-11.0299
降附	-11.0305
兼侍講	-11.0306
諫曰	-11.0306
寧逺	-11.0311
由進士三年任右	-11.0311
開門	-11.0312
名臣	-11.0313
右諫議大夫	-11.0314
繼宗	-11.0315
是歲	-11.0315
實封	-11.0318
也然則	-11.0319
安樂	-11.0319
珠玉	-11.0322
其在	-11.0324
永寧	-11.0324
唐太宗	-11.0337
女為	-11.0337
擢用	-11.0342
皆是	-11.0343
之口	-11.0343
五百里	-11.0344
聞命	-11.0344
不虞	-11.0346
是夜	-11.0346
鎮國將軍	-11.0347
吳元年	-11.0347
萬世之	-11.0348
更張	-11.0349
北有	-11.0353
並無	-11.0353
不赦	-11.0354
復任	-11.0358
秦惠	-11.0363
者並	-11.0366
河北河東	-11.0366
許國	-11.0366
貴賤	-11.0368
之分	-11.037
何嘗	-11.037
髙昌	-11.0376
上卿	-11.0376
國有	-11.0378
而致	-11.0379
境上	-11.0379
我朝	-11.0379
獲其	-11.0379
之望	-11.038
𢎞治中	-11.0381
不預	-11.0381
行宻	-11.0385
東國	-11.0386
嚴公	-11.0386
則思	-11.0396
屬官	-11.0399
矣此	-11.0399
成化二年	-11.0401
以威	-11.0403
年任掌院事	-11.0404
也昭謂	-11.0409
八子	-11.041
孔子曰	-11.041
院事	-11.041
心也	-11.0411
即命	-11.0414
三字	-11.0415
自來	-11.0416
身死	-11.0417
坐事	-11.0418
而巳	-11.042
朽	-11.0424
逺方	-11.043
勝負	-11.0431
書云	-11.0433
加恩	-11.0433
入京	-11.0438
舊例	-11.0438
功名	-11.044
爲魏	-11.0443
襲衣	-11.0443
又奏	-11.0446
梓	-11.0448
未發	-11.045
奉天	-11.045
三百石	-11.0451
嘗有	-11.0451
張忠	-11.0453
所愛	-11.0456
上批	-11.046
餓	-11.0461
以從	-11.0463
文成	-11.0465
丙	-11.0466
又令	-11.0468
怒而	-11.0473
不知何	-11.0473
保吉	-11.0474
府事	-11.0475
治國	-11.0475
三十七年	-11.0478
事在	-11.0478
左侍郎	-11.048
兊	-11.0482
長孫	-11.0483
補音方	-11.0484
文懿	-11.0486
有是命	-11.0486
穰	-11.0486
磐	-11.0486
人物	-11.0487
脉	-11.0492
弗與	-11.0492
畋	-11.0493
詔從之	-11.0493
新序	-11.0494
濶	-11.0494
列反	-11.0495
礼	-11.0495
受詔	-11.0496
眩	-11.0496
以右都御史任	-11.0496
驩	-11.0497
僵	-11.0498
靳貴	-11.0498
太子太保禮部尚書	-11.0499
畏秦	-11.0499
筮	-11.0499
綴	-11.0499
昂	-11.05
大理卿	-11.05
纍	-11.0501
線	-11.0501
阨	-11.0502
流涕	-11.0502
汲	-11.0502
大宋皇帝	-11.0502
笄	-11.0502
厨	-11.0503
提㸃刑獄	-11.0503
躡	-11.0503
太平興國	-11.0503
捉	-11.0504
緋	-11.0504
瑕	-11.0504
翰林院侍讀	-11.0504
聽臣	-11.0504
刑部右侍郎	-11.0504
江寧	-11.0505
殪	-11.0505
妹	-11.0505
釗	-11.0505
以為常	-11.0506
迭	-11.0506
僞	-11.0506
笏	-11.0507
事勢	-11.0507
抄	-11.0507
搜	-11.0508
寝	-11.0508
不煩	-11.0508
後至	-11.0508
珝	-11.051
明詔	-11.051
鄒忌	-11.0511
少監	-11.0511
剖	-11.0511
寗	-11.0512
賈侍中云	-11.0513
供奉官	-11.0515
蔚	-11.0516
封禪	-11.0517
俱有	-11.0519
銀絹	-11.0522
聊城	-11.0524
征南將軍	-11.0524
天下幸甚	-11.0525
聦	-11.0529
左右侍郎	-11.053
形勢	-11.0531
仲尼	-11.0533
犬馬	-11.0534
供職	-11.0535
欣然	-11.0536
補音呼	-11.0542
奸黨	-11.0542
彭城	-11.0544
希忠	-11.0546
可信	-11.0548
北狄	-11.055
水洛	-11.0557
仍以	-11.0557
居之	-11.0563
匹夫	-11.0563
景泰中	-11.0564
許以	-11.0565
禦之	-11.0566
夜半	-11.0567
山中	-11.057
淳化	-11.0572
五十兩	-11.0575
文淵	-11.0577
興化	-11.0581
無患	-11.0581
北敵	-11.0582
増置	-11.0582
漕運	-11.0584
小者	-11.0586
畏懼	-11.0589
先儒	-11.0589
卒年七十	-11.0589
百貫	-11.0591
以兵部尚書	-11.0592
太子少保吏部尚書	-11.0594
潭州	-11.0596
人事	-11.0597
為是	-11.0598
晉府	-11.0602
以便	-11.0602
策論	-11.0603
迎之	-11.0605
繼之	-11.0607
父老	-11.0608
請降	-11.061
郡公	-11.0611
若干	-11.0611
願以	-11.0612
假道	-11.0612
越人	-11.0616
三尺	-11.0619
願大王	-11.0621
數千人	-11.0626
之始	-11.0631
宇文	-11.0632
反又音	-11.0635
其兄	-11.0635
不給	-11.0635
不决	-11.0635
取㫖	-11.0635
王英	-11.0636
始有	-11.0637
好學	-11.0639
甚詳	-11.0641
月初十日	-11.0642
則又	-11.0643
忠厚	-11.0644
安豐	-11.0645
吉安	-11.0645
成化三年	-11.0645
民心	-11.0647
君有	-11.0652
成化二十三年	-11.0653
文襄	-11.0654
五軍	-11.0656
今吾	-11.0656
浙江鄞縣人	-11.0656
寺丞	-11.0661
學問	-11.0661
始以	-11.0662
禮記	-11.0662
平生	-11.0667
遂令	-11.0671
充軍	-11.0675
為庶吉士	-11.0677
髙平	-11.068
累年	-11.068
以禮書	-11.0683
不可復	-11.0686
改任	-11.0689
北方	-11.069
乎且	-11.069
賢於	-11.0694
一條	-11.0695
臣臣	-11.0695
兼并	-11.0696
嗣薨壽五十	-11.0697
黜之	-11.0698
忠直	-11.0698
一心	-11.07
蘄	-11.0702
使楚	-11.0703
文皇帝	-11.0705
有五	-11.0708
人進士	-11.0711
西安	-11.0713
者甚衆	-11.0713
者豈	-11.0715
其害	-11.0722
九日	-11.0722
聖王	-11.0723
魏必	-11.0724
郡守	-11.0728
六年致仕	-11.0738
故不敢	-11.074
悛	-11.0741
徳行	-11.0742
為皇太子	-11.0743
如前	-11.0744
吏書	-11.0744
君命	-11.0752
往見	-11.0756
子莊	-11.0757
智者	-11.0758
有道	-11.0761
多作	-11.0763
說見前	-11.0763
王翊	-11.0765
在朝	-11.0765
竊聞	-11.0765
婦女	-11.0766
國王	-11.0773
即以	-11.0773
三州	-11.0779
不進	-11.0785
過也	-11.0786
位於	-11.0788
異於	-11.079
卿士	-11.0795
為害	-11.0796
今公	-11.08
月十七日	-11.0802
無乃	-11.0805
有疾	-11.0806
之尊	-11.0808
親也	-11.081
亦然	-11.0816
先帝之	-11.0818
一統	-11.0818
公亮	-11.082
俱𢎞	-11.0823
亂政	-11.0824
薦之	-11.0824
長也	-11.0825
之基	-11.0825
今差	-11.0825
罪惡	-11.0826
月初三日	-11.0828
不欺	-11.0829
槍	-11.0832
佶	-11.0833
若欲	-11.0833
求地	-11.0833
淳于髠	-11.0834
者所以	-11.0834
既出	-11.0835
惶	-11.0835
孟甞	-11.0835
竈	-11.0837
滎陽	-11.0837
顧鼎臣	-11.0837
石珤	-11.0837
悰	-11.0837
翟鑾	-11.0838
征北大將軍	-11.0838
户部右侍郎	-11.0839
宣徳元年	-11.0839
醴	-11.084
月十二日	-11.0841
亥	-11.0841
芉	-11.0841
盼	-11.0842
藺	-11.0842
顛	-11.0842
靴	-11.0843
釡	-11.0843
穢	-11.0843
不正	-11.0844
商輅	-11.0844
璫	-11.0845
俎	-11.0845
事見	-11.0845
樞密副使	-11.0846
熾	-11.0846
抜	-11.0846
桐	-11.0847
劉摰	-11.0847
瘠	-11.0847
殫	-11.0848
搖	-11.0848
猜	-11.0848
稼	-11.0848
膽	-11.0848
吹	-11.0848
楚國之	-11.0849
磔	-11.0849
鈔五十錠	-11.0849
太僕寺	-11.0849
翰林院修撰	-11.0849
誑	-11.085
儁	-11.085
叩頭	-11.085
謐	-11.085
竑	-11.0851
楊溥	-11.0851
謟	-11.0851
燮	-11.0852
朂	-11.0852
各省	-11.0853
條例司	-11.0853
拊	-11.0853
大理寺丞	-11.0853
起居舍人	-11.0853
墀	-11.0853
望見	-11.0854
旦夕	-11.0854
昱	-11.0854
芒	-11.0854
秀才	-11.0854
博囉	-11.0855
此地	-11.0855
不然則	-11.0855
在彼	-11.0855
駝	-11.0855
首揆	-11.0856
婚姻	-11.0856
司空馬	-11.0856
楊文貞	-11.0857
懷敏	-11.0857
鄧愈	-11.0858
咱	-11.0858
大亂	-11.0858
僥倖	-11.0859
認	-11.0859
之治	-11.086
晝夜	-11.086
鎗	-11.0861
緬	-11.0861
頡利	-11.0861
岱青	-11.0863
核	-11.0864
布哈	-11.0864
稻	-11.0864
白金一百兩	-11.0865
一路	-11.0866
漢武帝	-11.0868
夏竦	-11.0868
顔色	-11.0869
韓府	-11.0872
大夫種	-11.0872
安在	-11.0873
伯嬰	-11.0873
鐘磬	-11.0876
不息	-11.0878
春申君曰	-11.0879
不經	-11.0879
事上	-11.088
稱其	-11.0883
安陵君	-11.0884
各一員	-11.0884
渭州	-11.0884
又聞	-11.0884
加太傅	-11.0885
舊本	-11.0886
未易	-11.0887
鬼神	-11.0888
大業	-11.0888
示以	-11.0893
天㑹	-11.0895
御試	-11.0895
以慰	-11.0902
謀之	-11.0903
議定	-11.0905
補音户	-11.0906
小事	-11.0906
月十五日	-11.0906
急務	-11.0907
獨斷	-11.0908
一鵬	-11.0908
士彬	-11.0909
令史	-11.0911
北人	-11.0918
教化	-11.092
靈王	-11.0922
不平	-11.0924
補音胡	-11.0924
討論	-11.0925
妄言	-11.0928
則當	-11.0929
興濟	-11.0929
大順	-11.0932
郤至	-11.0933
不軌	-11.0937
軍校	-11.0938
十年致仕	-11.0939
姓也	-11.094
之厚	-11.0941
為韓	-11.0944
五囯	-11.0947
所記	-11.095
䕶衛	-11.095
募兵	-11.0952
智氏	-11.0957
因循	-11.096
邊民	-11.0965
官家	-11.0968
之盟	-11.0969
請和	-11.0974
光祿寺	-11.0974
男子	-11.0975
加以	-11.0985
使相	-11.0986
嘉靖六年	-11.0987
先是上	-11.0988
州知州	-11.0994
而服	-11.0994
吏民	-11.0995
所過	-11.0995
危矣	-11.0996
求見	-11.0996
無害	-11.0999
理宗	-11.1
識者	-11.1001
之資	-11.1002
戎翟	-11.1003
不果	-11.1008
楚師	-11.1008
不可考	-11.1008
清臣	-11.1011
不中	-11.1011
遙反	-11.1011
君父	-11.1012
将士	-11.1016
三孤	-11.1019
不急	-11.1023
永興軍	-11.1024
二縣	-11.1025
七年以	-11.1027
於境	-11.1027
初封	-11.1028
諌官	-11.1029
衛君	-11.1029
深矣	-11.1032
巢穴	-11.1035
臣聞之	-11.1037
君若	-11.1039
禁止	-11.104
薊	-11.1042
敗於	-11.1043
奸臣	-11.1044
季子	-11.1045
聖慈	-11.1046
三十二	-11.1046
通行	-11.1049
謂秦王	-11.1053
歸於	-11.1054
不倦	-11.1057
文仲	-11.1057
工部左侍郎	-11.1059
爲臣	-11.107
文昭	-11.1071
三師	-11.1072
所紀	-11.1073
東路	-11.1073
已得	-11.1074
人各	-11.1075
亳	-11.108
詔諭	-11.1082
定議	-11.1085
不能無	-11.1089
光武	-11.109
坐法	-11.1091
中傷	-11.1097
吾子	-11.1098
貝州	-11.1098
四十九	-11.11
成化元年	-11.11
以實	-11.1101
天子之	-11.1103
起於	-11.1103
靖安	-11.1105
戶	-11.1106
漢唐	-11.1107
爲大	-11.1107
山隂	-11.1111
白馬	-11.1112
宜令	-11.1115
安仁	-11.1115
二十餘	-11.1115
收其	-11.1118
世世	-11.1118
邪正	-11.1118
文淵閣	-11.112
王命	-11.1121
綏州	-11.1121
相率	-11.1123
死罪	-11.1127
竒功	-11.113
直學士	-11.1131
終身不	-11.1132
王祁	-11.1133
秦昭王	-11.1137
晉語	-11.1138
無射	-11.114
成周	-11.1144
再起	-11.1144
五百兩	-11.1145
英國公	-11.1147
止也	-11.1152
諳	-11.1153
是臣	-11.1154
經營	-11.1157
盛徳	-11.1158
不和	-11.1159
老人	-11.116
相度	-11.1161
事發	-11.1165
監丞	-11.1166
忠言	-11.1166
之禁	-11.1166
軻	-11.1172
其族	-11.1173
騷	-11.1174
必危	-11.1177
聞之曰	-11.118
三萬人	-11.1184
所造	-11.1184
嘉靖二年	-11.1184
仍兼任	-11.1185
平章政事	-11.1188
毗	-11.1188
夏原吉	-11.1189
鄖	-11.1189
諸本	-11.119
不令	-11.119
為患	-11.1191
渚	-11.1191
徹辰洪台吉	-11.1191
内官監太監	-11.1193
狹	-11.1193
樗里疾	-11.1194
袁煒	-11.1196
〇	-11.1197
寧陽	-11.1197
裁革	-11.1198
傅堯俞	-11.1198
餼	-11.1199
千六百	-11.1199
貂	-11.1199
灝	-11.1199
聨	-11.1199
擔	-11.12
倭	-11.12
翰林侍讀學士	-11.12
趍	-11.1201
壕	-11.1201
燦	-11.1201
幅	-11.1202
婁	-11.1202
蘆	-11.1202
皇子郎君	-11.1202
籠	-11.1204
炊	-11.1204
倖	-11.1204
文莊	-11.1205
豁	-11.1205
軹	-11.1205
京朝官	-11.1206
墨爾根	-11.1206
出城	-11.1206
惜乎	-11.1207
豪傑	-11.1207
茹	-11.1207
以防	-11.1208
雉	-11.1208
鑰	-11.1208
為善	-11.1209
足為	-11.1209
氊	-11.1209
餞	-11.1211
勝之	-11.1211
春坊	-11.1211
鎖	-11.1211
徐溥	-11.1211
皃	-11.1212
胡氏寅曰	-11.1212
楮	-11.1212
藍玉	-11.1213
棲	-11.1213
敇	-11.1214
逝	-11.1214
枳	-11.1214
萃	-11.1214
擄	-11.1214
現	-11.1214
牀	-11.1215
粲	-11.1216
街	-11.1216
竦	-11.1217
供奉	-11.1217
提調	-11.1217
即汗位	-11.1218
著於	-11.1218
不畏	-11.1219
第七子	-11.1219
潘美	-11.122
則不然	-11.1221
韓珉	-11.1221
御製	-11.1222
主順天試命	-11.1223
使天下	-11.1225
異同	-11.1226
鏤	-11.1226
除名	-11.1228
盜賊	-11.1228
韓侈	-11.123
下軍	-11.1232
奴婢	-11.1233
孫覺	-11.1235
安平君	-11.1237
補音扶	-11.1239
𥙷曰史	-11.1239
致太平	-11.124
所以不	-11.1241
四十餘	-11.1241
皆從	-11.1242
上謂宰相曰	-11.1242
世衡	-11.1244
何處	-11.1245
欲攻	-11.1245
如初	-11.1247
左都	-11.1247
殺戮	-11.1247
欒書	-11.1247
被害	-11.1248
繼隆	-11.1252
秉常	-11.1255
云爾	-11.1256
其臣	-11.1257
大營	-11.1259
先入	-11.1259
户口	-11.126
然其	-11.126
六年以	-11.1261
安静	-11.1265
不恤	-11.1267
難之	-11.1269
館職	-11.127
典故	-11.1273
二百四十	-11.1275
提學	-11.1277
九子	-11.1278
遷延	-11.1285
徳而	-11.1288
有失	-11.1289
人之所	-11.1291
内批	-11.1292
備禦	-11.1296
攻取	-11.1297
姚註	-11.1299
公田	-11.1303
乃知	-11.1303
承奉	-11.1304
闕失	-11.1304
之機	-11.1305
朝貢	-11.1308
大信	-11.1311
我等	-11.1314
文正	-11.1318
髙陵	-11.1319
之半	-11.132
並作	-11.132
為御史	-11.1321
左丞相	-11.1321
以北	-11.1326
擅權	-11.1327
言自	-11.1327
光禄寺	-11.1327
參軍	-11.1328
但以	-11.1329
如一	-11.1329
為己	-11.1332
手足	-11.1333
本州	-11.1335
上不	-11.1345
見秦䇿	-11.1346
東地	-11.1346
俄而	-11.135
王不如	-11.135
不違	-11.135
無能	-11.1353
皆可	-11.1353
正曰無考	-11.1355
不可得也	-11.1358
請行	-11.1358
路反	-11.136
嘆曰	-11.1365
而殺之	-11.1368
齊宣王	-11.1369
横行	-11.1369
勲臣	-11.1371
是謂	-11.1372
之權	-11.1373
良法	-11.1376
後宫	-11.1377
是書	-11.1381
為奸	-11.1382
在上	-11.1382
事已	-11.1384
燕䇿	-11.1384
萬八千	-11.1389
之具	-11.139
謝恩	-11.139
文理	-11.1398
郡侯	-11.14
鈔二	-11.1401
父也	-11.1401
外任	-11.1404
元年任左	-11.1407
共議	-11.1415
國名	-11.1419
六年任左	-11.1419
正色	-11.1421
今聞	-11.1423
少保太子太傅	-11.1423
其惡	-11.1424
右司諫	-11.1425
不憂	-11.1425
若使	-11.1426
兼領	-11.1426
城北	-11.1429
辦事官	-11.143
分司	-11.143
質於齊	-11.1437
請復	-11.1438
不克	-11.1439
先行	-11.144
無齊	-11.1443
者獨	-11.1445
此輩	-11.1445
不難	-11.1446
而民	-11.1446
夏貴	-11.1446
見一	-11.1447
萬年	-11.1449
三晉之	-11.1455
佐之	-11.1455
軍兵	-11.146
其力	-11.1462
文職	-11.1464
而實	-11.1464
周紀	-11.1466
山下	-11.1467
不任	-11.147
為左右	-11.1472
昭穆	-11.1477
務在	-11.148
之邑	-11.1483
不附	-11.1483
左右丞	-11.1486
言雖	-11.1486
雲中	-11.1487
得免	-11.1495
今大王	-11.1499
進攻	-11.15
帥師	-11.1502
器用	-11.1504
二十人	-11.1505
未為	-11.1506
改南	-11.1507
中正	-11.1508
銀二	-11.1513
而用	-11.1513
鈔六十錠	-11.1516
雝	-11.1517
相持	-11.1518
畧曰	-11.1519
為法	-11.152
之極	-11.152
罷去	-11.152
王曰諾	-11.1521
洪武初	-11.1526
赴京	-11.1529
温柔賢善	-11.1538
李氏	-11.1538
安知	-11.1544
舊好	-11.1549
王道	-11.1552
改北	-11.1554
求賢	-11.1555
如此者	-11.1555
而不言	-11.1557
變也	-11.156
蒲州	-11.156
擠	-11.1561
嗇	-11.1561
鈔百錠	-11.1562
行省㕘政	-11.1562
鴈	-11.1563
瀾	-11.1563
罄	-11.1564
江西豐城人	-11.1564
悪	-11.1565
恚	-11.1566
頡	-11.1567
祺	-11.1567
呵	-11.1567
莅	-11.1567
斧鉞	-11.1568
燿	-11.1568
揜	-11.1568
燕之	-11.1568
喝	-11.1569
浚	-11.1569
剌	-11.1569
辝	-11.1569
索隠	-11.157
叡	-11.1571
抃	-11.1571
顓頊	-11.1571
嗣薨夀六十	-11.1572
柵	-11.1572
燔	-11.1572
畀	-11.1573
河南祥符人	-11.1573
䜟	-11.1573
忤㫖	-11.1573
煒	-11.1573
必敗	-11.1574
直史館	-11.1574
彘	-11.1575
歇	-11.1575
戦	-11.1575
胸	-11.1575
楨	-11.1575
刑部郎中	-11.1576
稿	-11.1576
李清臣	-11.1576
毆	-11.1576
琪	-11.1577
㤀	-11.1577
孜孜	-11.1577
大矣	-11.1577
不覺	-11.1577
搏	-11.1578
四員	-11.1578
乎對曰	-11.1578
慘	-11.1578
集賢校理	-11.1579
种諤	-11.1579
志在	-11.158
渥	-11.1581
初六日	-11.1581
店	-11.1581
恠	-11.1582
埒	-11.1582
伏望聖慈	-11.1582
十六年任右	-11.1582
史不書	-11.1583
二兩	-11.1583
培	-11.1583
己卯	-11.1583
躋	-11.1584
㸃檢	-11.1585
纎	-11.1585
安燾	-11.1585
閼與	-11.1586
埋	-11.1586
解縉	-11.1587
動静	-11.1587
砲	-11.1587
卒年六十	-11.1588
曼	-11.1589
干戈	-11.1589
攺	-11.1591
巻	-11.1591
賦詩	-11.1592
此兩	-11.1592
月二十一日	-11.1593
不守	-11.1593
襄敏	-11.1595
惡也	-11.1595
復見	-11.1595
以此為	-11.1596
黄淮	-11.1596
劉健	-11.1597
五百人	-11.1599
鳯陽	-11.1599
不樂	-11.1599
奏疏	-11.1601
烏舍	-11.1603
大宋	-11.1604
五十里	-11.1605
宦官	-11.1606
風雨	-11.1607
事理	-11.1607
諸夷	-11.1609
咸寧	-11.1609
臣子	-11.161
知舉	-11.161
凡二十	-11.1615
雍門	-11.1616
無故	-11.1619
同平章事	-11.162
授官	-11.162
江州	-11.162
錢帛	-11.1622
戰死	-11.1622
魏國公	-11.1622
乾徳	-11.1623
其才	-11.1624
復奏	-11.1624
萬國	-11.1624
助教	-11.1626
月二十五日	-11.163
後起	-11.1632
神機	-11.1632
仁孝	-11.1635
欲行	-11.1635
責授	-11.1638
如晦	-11.1638
倉卒	-11.1638
反按	-11.164
俟其	-11.1644
閣老	-11.1645
從人	-11.1647
補音息	-11.1649
踰年	-11.165
西川	-11.165
進賢	-11.1653
法和	-11.1655
事成	-11.1659
上乃	-11.1659
南直𨽻	-11.1664
呉王	-11.1665
欲求	-11.1666
糧食	-11.1667
布政	-11.167
說秦王	-11.167
卒年五十	-11.1672
衍也	-11.1672
諸将	-11.1675
咸陽	-11.1676
知之矣	-11.1677
布一疋	-11.1677
多士	-11.1681
長城	-11.1683
嗣進	-11.1684
已久	-11.1685
亳州	-11.1687
王聰	-11.1688
由進士九年任右	-11.1697
輔之	-11.1697
勿使	-11.1697
子胥	-11.1699
相親	-11.17
五十四	-11.1702
征討	-11.1703
諸大臣	-11.1704
破齊	-11.1705
付之	-11.1708
立於	-11.171
不可行	-11.1711
罷相	-11.1711
州人由進士	-11.1712
胡氏	-11.1716
性命	-11.1716
字句	-11.1722
衣食	-11.1723
之助	-11.1724
景泰二年	-11.1725
人間	-11.1725
武陵	-11.1735
入相	-11.1744
令平	-11.1745
周祖	-11.1747
朱能	-11.1747
詔有司	-11.1749
舉動	-11.1755
邕州	-11.1756
商議	-11.1761
懼而	-11.1765
秦秦王	-11.1766
五色	-11.1766
浙江鄞縣人由進士	-11.1767
有意	-11.177
城郭	-11.177
出降	-11.1771
子西	-11.1772
奏上	-11.1774
正大	-11.1774
並進	-11.1776
不伐	-11.1776
長乆	-11.1776
獲罪	-11.1778
所陳	-11.1778
樂也	-11.1779
五十疋	-11.1786
不審	-11.1788
也吾	-11.1793
至則	-11.1796
賢君	-11.18
鴆反	-11.1802
諡文	-11.1803
不戰	-11.1804
二分	-11.1805
皆出	-11.1806
驚曰	-11.1807
䇿文	-11.1811
順義	-11.1811
嗣薨壽三十	-11.1813
二百人	-11.1817
監國	-11.1821
之便	-11.1822
馴	-11.1823
於世	-11.1824
誠能	-11.1827
管事	-11.1832
劉摯言	-11.1835
無一人	-11.1835
宋地	-11.1836
免於	-11.1837
渡河	-11.184
前有	-11.1841
之言曰	-11.1843
一百五十	-11.1844
撫寧	-11.1844
善事	-11.1845
釋文	-11.1847
言陛下	-11.1848
衆心	-11.1848
又欲	-11.1849
唐主	-11.1849
先聖	-11.1851
四十二	-11.1854
上令	-11.1855
三年二月	-11.1856
初為	-11.1863
各以	-11.1863
議之	-11.1864
大有	-11.1867
伏兵	-11.1871
他國	-11.1872
方城	-11.1874
夫齊	-11.1878
朕以	-11.1878
不才	-11.1881
建安	-11.1881
酣	-11.1885
特命	-11.1887
並依	-11.189
張文	-11.189
時務	-11.1892
廣徳	-11.1895
攻其	-11.1896
為人臣	-11.1898
四十一	-11.1901
亦難	-11.1903
忠孝	-11.1904
執中	-11.1905
於晉	-11.1905
十年任右	-11.1905
賢臣	-11.1908
賊衆	-11.1912
齊使	-11.1916
右俱寵禄光大	-11.1917
害於	-11.1918
北地	-11.1919
害民	-11.1922
㦤	-11.1924
實難	-11.1925
使我	-11.1925
平易不訾	-11.1928
三章	-11.1929
制之	-11.193
韓地	-11.1935
右寵禄光大	-11.1935
宗人	-11.1936
故城	-11.1937
才能	-11.1938
驍	-11.194
兵甲	-11.1941
始於	-11.1942
宋公	-11.1942
棣	-11.1943
者悉	-11.1944
不剛不柔	-11.1944
不拘	-11.1945
蒋	-11.1948
璿	-11.1949
之迹	-11.1949
痤	-11.1949
譜	-11.1949
疚	-11.195
濡	-11.195
器皿	-11.1951
戰于	-11.1951
胎	-11.1952
乃退	-11.1952
耳非	-11.1953
臨淄	-11.1953
藪	-11.1953
襟	-11.1953
而誅	-11.1954
鄗	-11.1954
猥	-11.1954
寖	-11.1955
詎	-11.1955
袂	-11.1955
假借	-11.1955
黽	-11.1955
奕	-11.1956
憲章録	-11.1956
將何	-11.1957
咠	-11.1957
大内	-11.1957
事故	-11.1958
扼	-11.1958
守將	-11.1958
璁	-11.1959
邢丘	-11.1959
月初九日	-11.1959
轂	-11.1959
球	-11.1959
藴	-11.196
正徳五年	-11.196
頋	-11.196
丘濬	-11.196
太醫院	-11.196
遂安	-11.1961
瞿	-11.1961
賈昌朝	-11.1961
耄	-11.1961
森	-11.1961
左正言	-11.1961
孕	-11.1962
瘡	-11.1963
耆老	-11.1963
芻粟	-11.1964
寰	-11.1965
鷹	-11.1965
奢侈	-11.1966
猾	-11.1967
袵	-11.1967
忝	-11.1967
韓縝	-11.1967
慄	-11.1967
正言	-11.1967
守忠	-11.1967
翰林學士承㫖	-11.1968
簽書	-11.1968
困於	-11.1969
仞	-11.1969
趙必	-11.197
沿途	-11.197
追贈	-11.1971
吕夷簡	-11.1971
治天下	-11.1971
銅錢	-11.1972
鎮撫司	-11.1973
左庶子	-11.1973
吕陶	-11.1973
達喇	-11.1973
合於秦	-11.1974
左副將軍	-11.1975
弓箭手	-11.1975
衛指揮僉事	-11.1977
不多	-11.1977
平涼	-11.1978
三道	-11.1979
少宰	-11.198
儉約	-11.1981
郊迎	-11.1982
文淵閣學入	-11.1982
商量	-11.1983
西平侯	-11.1984
正四品	-11.1986
萬斤	-11.1986
兼侍讀	-11.1987
光庭	-11.1988
王佐	-11.199
杜衍	-11.1991
八十一	-11.1992
輔弼	-11.1994
三鎮	-11.1995
之利也	-11.1995
監督	-11.1997
長驅	-11.1998
草木	-11.1999
欲取	-11.1999
穆宗	-11.1999
占城	-11.2
安化	-11.2001
傷者	-11.2002
招納	-11.2005
曰無考	-11.2006
張昇	-11.2008
分畫	-11.2009
辭不	-11.2009
秦相	-11.2009
此與	-11.201
若之何	-11.201
宿衛	-11.2012
樂羊	-11.2012
死亡	-11.2016
車騎	-11.2016
文表	-11.2017
正五品	-11.202
之遇	-11.2024
陳氏	-11.2024
年以兵部右侍郎兼僉都御史任	-11.2025
一舉而	-11.2025
蘇氏	-11.2025
孝文	-11.2027
害也	-11.2029
朱榮	-11.2029
政令	-11.2033
王喜	-11.2034
去音	-11.2035
通事	-11.2037
有功者	-11.2039
田里	-11.204
按通鑑	-11.2042
也昔	-11.2042
望風	-11.2042
陞賞	-11.2044
十九年任	-11.2045
何敢	-11.2046
不可用	-11.2049
庶政	-11.2051
居住	-11.2052
之援	-11.2052
彭時	-11.2056
胡廣	-11.2056
聖祖	-11.2058
士竒	-11.2061
黄福	-11.2063
必自	-11.2063
谷大用	-11.2064
城陽	-11.2065
東門	-11.2068
存問	-11.207
若無	-11.2071
文德	-11.2072
上喜	-11.2073
萬厯十一年	-11.2074
遂與	-11.2075
不道	-11.2075
多寡	-11.2077
不可謂	-11.2077
所向	-11.2077
四表裏	-11.2077
於戲	-11.2079
四年二月	-11.2079
紂之	-11.208
惟有	-11.2081
無窮之	-11.2082
城上	-11.2083
集議	-11.2084
伏惟	-11.2084
太監汪直	-11.2084
萬二千	-11.2086
文選	-11.2087
來見	-11.209
分遣	-11.2096
繼元	-11.2101
又使	-11.2101
靖逺	-11.2101
明皇	-11.2102
二人者	-11.2103
言訖	-11.2107
齊桓公	-11.2107
而起	-11.2108
詳見	-11.2111
克忠	-11.2114
徳州	-11.2116
必從	-11.2117
補音七	-11.2117
諭之曰	-11.2128
用度	-11.2128
月初四日	-11.2129
者故	-11.2131
二事	-11.2132
本色	-11.2133
日新	-11.2134
牛馬	-11.2134
易以	-11.2139
八十二	-11.2139
有能	-11.2143
疑衍	-11.2144
於道	-11.2145
則曰	-11.2146
帶俸	-11.215
曰某	-11.2153
任掌院事	-11.2154
天㑹四年	-11.2162
不設	-11.2168
已見	-11.217
守節	-11.217
宣和	-11.2173
事迹	-11.2173
墨子	-11.2175
武舉	-11.2176
還京	-11.2177
不分	-11.2177
禮畢	-11.2179
萬民	-11.218
史館	-11.218
其用	-11.2182
雖多	-11.2187
小異	-11.2189
使得	-11.219
何以知	-11.2192
五里	-11.2193
昭明	-11.2195
黨人	-11.2197
謂魏王	-11.2199
乎夫	-11.2202
字姚同	-11.2202
比之	-11.2202
二也	-11.2206
出使	-11.2206
臣又	-11.2207
䕃子	-11.2208
助也	-11.221
累加	-11.2212
一物	-11.2213
申明	-11.2214
兵攻	-11.2215
猶在	-11.2218
晉之	-11.2219
無嗣	-11.2224
秦䇿	-11.2227
萬乗之	-11.2228
聿	-11.2228
文毅	-11.2235
奏云	-11.224
之儀	-11.2241
不能得	-11.2242
愛惜	-11.2244
遣還	-11.2244
升之	-11.2251
永嘉	-11.2252
者許	-11.2252
不予	-11.2259
兵法	-11.2259
成法	-11.226
改過	-11.2261
何憂	-11.2261
開元	-11.2263
右副將軍	-11.2263
二帝	-11.2266
陽君	-11.2267
補音居	-11.2267
文靖	-11.2269
不答	-11.2271
因舊	-11.2273
其誰	-11.2274
子良	-11.2278
朝服	-11.2284
邊將	-11.2286
蜀王	-11.2286
敢有	-11.2287
七十二	-11.2287
大破之	-11.2289
以為非	-11.2291
使魏	-11.2292
下情	-11.2293
也且夫	-11.2297
都事	-11.2297
寳石	-11.23
厲王	-11.2301
加兼太子太傅	-11.2304
未便	-11.2304
不能守	-11.231
前軍	-11.2313
益州	-11.2316
治也	-11.2317
百五十	-11.2323
百三十	-11.2327
詔賜	-11.2328
鈔二十錠	-11.2328
文端	-11.2329
其計	-11.233
李文	-11.2333
異之	-11.2335
和比於理	-11.2335
在國逢難	-11.2339
浙江餘姚人由進士	-11.2339
靖江王	-11.234
四方之	-11.2341
隗	-11.2343
麒	-11.2345
為趙	-11.2347
乙卯	-11.2348
沸	-11.2348
秘閣	-11.2349
辛垣衍	-11.2349
中書舎人	-11.235
人口	-11.2351
並行	-11.2353
鬯	-11.2353
古字通	-11.2353
按察僉事	-11.2354
遵裕	-11.2354
徔	-11.2354
廐	-11.2354
澳	-11.2355
魯仲連	-11.2355
箸	-11.2355
役人	-11.2355
蔣冕	-11.2355
邏	-11.2356
漂	-11.2356
忘其	-11.2357
鈔一百錠	-11.2357
剰	-11.2357
熱	-11.2357
捜	-11.2358
鼈	-11.2358
鹵	-11.2358
劣	-11.2358
驂	-11.2358
胷	-11.2359
徐有貞	-11.2359
而好	-11.2359
毀	-11.2359
絹一疋	-11.2359
瓶	-11.2359
暹	-11.2359
蹇義	-11.236
綾	-11.236
皋	-11.2362
悠	-11.2362
中書右丞相	-11.2362
冥	-11.2362
涸	-11.2362
陶仲文	-11.2363
歆	-11.2363
鉅鹿	-11.2363
態	-11.2363
巡按御史	-11.2364
南京刑部尚書	-11.2364
通州	-11.2364
湜	-11.2365
澶州	-11.2365
頑	-11.2366
萬錠	-11.2366
扵秦	-11.2367
譎	-11.2367
兼太子太師	-11.2367
恂	-11.2367
刁	-11.2368
巡按	-11.2369
裒	-11.2369
田需	-11.2369
宣徽使	-11.2369
月初八日	-11.2369
傳云	-11.2369
繼冲	-11.237
張丑	-11.237
十八人	-11.237
遣行人	-11.2371
概	-11.2371
自當	-11.2371
莘	-11.2371
其法	-11.2373
縱火	-11.2374
㤗	-11.2375
達爾罕	-11.2375
盂	-11.2375
燎	-11.2375
李昉	-11.2375
正六品	-11.2375
被劾	-11.2376
義渠君	-11.2376
於事	-11.2376
𥙷曰姚本	-11.2377
實錄	-11.2378
翻	-11.2378
邱	-11.2379
招撫	-11.2381
乃出	-11.2381
故稱	-11.2382
浙西	-11.2382
祖禹	-11.2383
永樂十二年	-11.2388
仁廟	-11.2389
曽布	-11.2392
當先	-11.2394
邊防	-11.2395
晉文公	-11.2395
旂	-11.2399
史書	-11.24
納諌	-11.2402
以孝	-11.2402
矣乃	-11.2402
來獻	-11.2403
諸使	-11.2408
名器	-11.2412
無算	-11.2414
武城	-11.2416
宣廟	-11.2416
良久	-11.2416
周旋	-11.2416
人名	-11.2417
從一品	-11.2418
新昌	-11.2419
丕鄭	-11.242
他事	-11.242
有違	-11.2422
左柱國	-11.2422
㑹同	-11.2425
不願	-11.2427
推誠	-11.2428
臨江	-11.2428
所好	-11.2428
二章	-11.2429
既得	-11.243
此類	-11.2431
辯士	-11.2434
惜之	-11.2438
五城	-11.2438
月十三日	-11.2438
正徳二年	-11.244
凡九	-11.2441
江隂	-11.2441
不自安	-11.2441
補音下	-11.2443
正曰大事記	-11.2443
復圭	-11.2443
要害	-11.2444
上自	-11.2445
王瓊	-11.2447
南京守備	-11.2449
桂陽	-11.2451
其難	-11.2453
懷王	-11.2454
以利	-11.2456
間道	-11.2457
問焉	-11.246
各有差	-11.2462
乞歸	-11.2464
國政	-11.2466
泣下	-11.2468
子男	-11.2468
信使	-11.2468
大紅	-11.2472
魯哀	-11.2473
徃來	-11.2473
滄州	-11.2476
其行	-11.2477
王安石曰	-11.2478
燕昭王	-11.248
補曰字	-11.2482
不說	-11.2485
厯反	-11.2487
孰是	-11.2487
大驚	-11.2487
犯法	-11.2488
義云	-11.2488
城南	-11.2488
進貢	-11.2489
不敢言	-11.2489
觀望	-11.2489
城破	-11.249
死難	-11.249
三代之	-11.249
上諭	-11.2491
虞書	-11.2492
諭徳	-11.2493
大悦	-11.2496
易地	-11.2496
遇賊	-11.2496
盖以	-11.2497
爲相	-11.2498
亦將	-11.2499
七十六	-11.2504
弗能	-11.2505
坐視	-11.2505
者宜	-11.2508
言齊	-11.2512
萬餘人	-11.2516
謀也	-11.2516
贈禮部尚書	-11.2516
人之言	-11.2516
臣今	-11.2517
能知	-11.2519
涿	-11.2526
郊祀	-11.2528
民也	-11.2531
也然而	-11.2531
品秩	-11.2533
江北	-11.2534
竊見	-11.2535
上因	-11.2536
辭免	-11.2541
承制	-11.2541
何事	-11.2545
下令	-11.2546
乃還	-11.2548
金石	-11.2552
千二百	-11.2553
愛其	-11.2555
即此	-11.2558
五六	-11.256
嗣薨夀	-11.2564
此𩔖	-11.2566
一等	-11.2567
紀注	-11.257
亂也	-11.257
泗州	-11.2572
在我	-11.2573
不定	-11.2575
嘉靖四年	-11.2575
營造	-11.2577
宗正	-11.2578
乃罷	-11.258
左副都御史	-11.2582
一夕	-11.2583
之氣	-11.2586
多有	-11.2587
貞觀之	-11.2589
去就	-11.2591
講官	-11.2591
私第	-11.2592
分其地	-11.2592
成敗	-11.2592
計之	-11.2592
滁州	-11.2598
載之	-11.2599
一應	-11.2601
魏國公徐	-11.2604
九年任左	-11.2604
中山王	-11.2607
為戒	-11.2609
望之	-11.261
為額	-11.261
閣臣	-11.261
已經	-11.261
本官	-11.261
不遵	-11.2614
遂良	-11.2614
正統三年	-11.2615
聖主	-11.2618
官及	-11.2618
求和	-11.2618
不可得而	-11.2618
元從	-11.2618
可成	-11.2619
之策	-11.2619
桓子	-11.262
言秦	-11.262
王城	-11.2621
一副	-11.2626
而不及	-11.2626
上將軍	-11.2631
由狀元	-11.2633
第一人	-11.2637
孟子曰	-11.2638
大師	-11.2638
正統元年	-11.2647
上供	-11.2648
王恕	-11.265
致仕加	-11.2651
贈官	-11.2652
奏曰臣	-11.2652
武英	-11.2652
康僖	-11.2653
疑即	-11.2654
送之	-11.2655
陳乞	-11.2657
樂安	-11.2658
十兩	-11.2659
乃能	-11.266
望於	-11.2662
直𨽻華亭人	-11.2663
隨之	-11.2664
合祭	-11.2665
即與	-11.2666
國法	-11.2674
論其	-11.2674
之為去聲	-11.2675
辭以	-11.2676
雖無	-11.2678
乃復	-11.2683
齊閔	-11.2684
任用	-11.2688
嵗祿	-11.2688
役錢	-11.2694
幾何	-11.2694
大興	-11.2694
民無	-11.2696
五經	-11.2697
並許	-11.2705
每日	-11.2705
皆言	-11.271
事務	-11.2714
四千	-11.2714
義理	-11.2716
大國之	-11.2719
三百人	-11.272
或言	-11.2725
為樂	-11.2726
本司	-11.2727
盡行	-11.273
自請	-11.273
其位	-11.2733
西平	-11.2736
覿	-11.2737
柔質慈民	-11.2738
志反	-11.2738
不可使	-11.2743
志云	-11.2743
王憲	-11.2745
及至	-11.2746
賜勅	-11.2747
兵書	-11.2748
六品	-11.2748
克終	-11.2752
曙	-11.2754
城外	-11.2759
正德元年	-11.276
金幼孜	-11.2761
邯	-11.2761
酉	-11.2761
荆王	-11.2761
之惡	-11.2761
鷙	-11.2761
杰	-11.2762
鶻	-11.2762
余靖	-11.2762
乘之	-11.2763
考烈王	-11.2763
皓	-11.2764
之誅	-11.2765
上疏曰	-11.2765
鑠	-11.2766
浙江仁和人	-11.2766
銖	-11.2767
延和殿	-11.2767
陞一級	-11.2767
賑濟	-11.2767
逈	-11.2768
儒學	-11.2768
張治	-11.2768
夸	-11.2768
司經局洗馬	-11.2769
蒿	-11.2769
公孤	-11.2769
餘黨	-11.277
貿	-11.277
淄	-11.277
芒卯	-11.2771
棊	-11.2771
飫	-11.2771
犧	-11.2772
媪	-11.2772
户部郎中	-11.2772
縠	-11.2773
禘	-11.2773
衛喇特	-11.2773
卬	-11.2774
技	-11.2774
涯	-11.2774
一則	-11.2775
電	-11.2775
達爾瑪	-11.2775
左軍	-11.2775
棧	-11.2776
詈	-11.2776
邢恕	-11.2776
新序同	-11.2776
丸	-11.2776
交趾	-11.2776
太子賔客	-11.2777
敞	-11.2777
裹	-11.2777
相遇	-11.2777
勒停	-11.2777
蹕	-11.2778
覃	-11.2778
不可勝數	-11.2779
著作郎	-11.2779
胡宗愈	-11.2779
誇	-11.2779
砥	-11.2779
箇	-11.278
暴露	-11.278
邳	-11.2781
李文達	-11.2781
謄録	-11.2781
隳	-11.2781
攬	-11.2782
陞賞有差	-11.2782
𤦺	-11.2782
沙漠	-11.2782
阿固達	-11.2782
吟	-11.2783
伏覩	-11.2785
竊以	-11.2786
聳	-11.2787
巴圖	-11.2787
任使	-11.2789
御用監	-11.279
中宫	-11.279
仲連	-11.2791
長公主	-11.2792
誓約	-11.2793
塊	-11.2794
馮京	-11.2795
凋	-11.2795
萬乗之國	-11.2795
利者	-11.2797
御崇政殿	-11.2798
華亭	-11.2799
皇甫	-11.2799
補音芳	-11.28
稽首	-11.28
後以	-11.28
韓𤦺	-11.2801
畿内	-11.2801
九品	-11.2801
而西	-11.2801
嗣薨壽六十	-11.2803
治以重罪	-11.2804
招諭	-11.2805
亡其	-11.2805
牛玉	-11.2806
國書	-11.2806
高祖	-11.2807
趙抃	-11.2807
而逺	-11.2808
爲我	-11.2811
相善	-11.2812
天順七年	-11.2812
禮官	-11.2813
之南	-11.2814
七品	-11.2816
麟州	-11.2816
負海	-11.2819
併力	-11.282
萬六千	-11.282
何其	-11.2821
太祖太宗	-11.2821
刑部侍郎	-11.2821
誰敢	-11.2822
交惡	-11.2823
人倫	-11.2824
三十疋	-11.2824
共工	-11.2824
都堂	-11.2826
居中	-11.2827
一百兩	-11.2828
尊卑	-11.2829
夏州	-11.283
韓策	-11.2831
經略	-11.2831
權衡	-11.2832
于朝	-11.2832
朝歌	-11.2833
皆然	-11.2834
金剛	-11.2835
上亦	-11.2835
異議	-11.2837
水陸	-11.2837
冠服	-11.2841
懷忠	-11.2841
尚寶	-11.2842
戰敗	-11.2842
親親	-11.2843
進者	-11.2844
見秦	-11.2844
崇文	-11.2845
賜金	-11.2846
我軍	-11.2847
田况	-11.2847
六字	-11.2847
太宗皇帝	-11.2848
頭功	-11.2849
諌諍	-11.2849
攻宜陽	-11.285
朝鮮	-11.285
萬四千	-11.2852
四岳	-11.2852
而忘	-11.2853
東川	-11.2855
追奪	-11.2858
上顧	-11.2859
三年三月	-11.2859
扵此	-11.2862
補音待	-11.2863
由進士八年任右	-11.2863
忠勇	-11.2864
靈武	-11.2865
所云	-11.2866
使使者	-11.2868
大雨	-11.2869
内殿	-11.2869
洪熙元年	-11.287
之訛	-11.2871
周䇿	-11.2873
歴城	-11.2873
萬全	-11.2876
妃王氏	-11.2877
合於齊	-11.2878
左右皆	-11.2879
聖恩	-11.2879
所指	-11.288
文幣	-11.2884
等項	-11.2885
怨望	-11.2888
其義	-11.2888
臣願陛下	-11.2888
且曰	-11.2889
老而	-11.2891
又置	-11.2892
就便	-11.2893
畏威	-11.2895
乃召	-11.2896
永安	-11.2898
衆議	-11.2899
不廢	-11.2901
庻子	-11.2901
二三子	-11.2902
滅亡	-11.2903
舉事	-11.2904
多少	-11.2906
經費	-11.2906
大畧	-11.2909
御批	-11.2909
踰月	-11.291
便於	-11.2913
六卿	-11.2914
兩人	-11.2915
新鄭	-11.2916
之力也	-11.2917
清逺	-11.2919
無常	-11.292
宫觀	-11.292
二十表裏	-11.2921
殿上	-11.2923
降表	-11.2923
矣其	-11.2923
殺我	-11.2924
王勤	-11.2929
服色	-11.293
罪在	-11.2933
通政	-11.2934
責降	-11.2935
文王之	-11.2938
豈無	-11.2939
公公	-11.294
嘗以	-11.294
拾遺	-11.2942
月日	-11.2942
遂致	-11.2943
而况	-11.2949
楊畏	-11.2949
禮也	-11.295
陛下若	-11.2954
卿大夫	-11.2955
早朝	-11.2956
金幣	-11.2956
民有	-11.2959
隰	-11.296
南征	-11.2961
重而	-11.2963
以弱	-11.2964
謂左右曰	-11.2966
第一子	-11.2966
二十二年任右	-11.2967
若非	-11.2967
皆自	-11.2969
今我	-11.2971
由鄉舉	-11.2975
不能盡	-11.2975
不反	-11.2975
受兵	-11.2981
兵敗	-11.2982
用反	-11.2983
頃襄	-11.2985
說也	-11.2992
三千人	-11.2993
異時	-11.2995
女也	-11.2996
宋衛	-11.2999
百餘里	-11.2999
與語	-11.2999
二相	-11.3
大中祥符	-11.3
姚氏	-11.3002
貴人	-11.3003
二年三月	-11.3004
太子少保禮部尚書	-11.3004
棄城	-11.3005
給之	-11.3007
小心	-11.3009
世孫	-11.301
時已	-11.3012
五嵗	-11.3015
人由鄉舉	-11.3017
講求	-11.3019
改名	-11.302
此等	-11.3021
而望	-11.3022
林文	-11.3023
李榮	-11.3025
四十萬	-11.3025
徳音	-11.3025
全義	-11.3029
武定	-11.303
通好	-11.3034
諸郡	-11.3041
聽政	-11.3044
一句	-11.3045
其徳	-11.3045
變易	-11.3047
州觀察使	-11.3047
安世	-11.3047
齊賢	-11.3047
政教	-11.3048
事機	-11.3048
召入	-11.3051
仍命	-11.3053
正徳中	-11.3055
出此	-11.3056
六師	-11.3057
楚記	-11.306
四十三年	-11.3063
李靖	-11.3064
進士及第	-11.3066
功成	-11.3069
所立	-11.3071
魯昭	-11.3072
及諸	-11.3073
定制	-11.3074
國無	-11.3075
之福也	-11.3076
條上	-11.3077
所以事	-11.3078
亦欲	-11.3082
死生	-11.3083
死也	-11.3084
年任右	-11.3084
金山	-11.3084
所撰	-11.3086
其初	-11.3086
未安	-11.3086
何用	-11.3087
可謂知	-11.3087
還朝	-11.3088
本處	-11.3093
既行	-11.3093
太監谷大用	-11.3094
降將	-11.3094
養馬	-11.3099
可任	-11.3107
而棄	-11.3107
命有司	-11.3109
當為	-11.3109
似此	-11.3109
𢎞治元年	-11.3109
來援	-11.311
皇天	-11.3111
小而	-11.3112
而内	-11.3113
後嗣	-11.3121
而重	-11.3128
三世	-11.3133
由進士七年任右	-11.3136
六員	-11.3137
可畏	-11.3137
從善	-11.314
寡君	-11.3145
自以為	-11.315
以相	-11.3151
東郡	-11.3153
吾君	-11.3158
一戰	-11.3159
二千五百	-11.3159
後患	-11.3161
世南	-11.3162
天下事	-11.3163
之誠	-11.3165
亦不可	-11.3165
破趙	-11.3168
親近	-11.3172
大統	-11.3174
姦人	-11.3176
也周禮	-11.3177
賜諡	-11.3179
應事有功	-11.3179
卨	-11.3179
瀋府	-11.3185
以勸	-11.3187
救韓	-11.3188
奢香	-11.319
鋌	-11.3192
王巖叟	-11.3193
方獻夫	-11.3195
不起	-11.3196
右庶子	-11.3197
系	-11.3198
華蓋殿大學士	-11.3198
辞	-11.3198
察之	-11.3198
軏	-11.3199
䏻	-11.32
交章	-11.32
延綏	-11.32
桂蕚	-11.32
秘書丞	-11.3202
豐城侯	-11.3203
簽	-11.3203
儂	-11.3203
都虞侯	-11.3203
車百乗	-11.3204
貺	-11.3205
詬	-11.3205
去處	-11.3205
信於	-11.3206
按察司	-11.3206
召公	-11.3206
邇英閣	-11.3206
𦂳	-11.3207
尔	-11.3207
暱	-11.3207
軼	-11.3207
冦凖	-11.3207
購	-11.3207
麤	-11.3207
藩邸	-11.3208
范中行	-11.3208
影	-11.3208
翳	-11.3209
龍圗閣	-11.3209
垂拱	-11.3209
婉	-11.321
朞	-11.321
幄	-11.321
纒	-11.321
絞	-11.321
粉	-11.3211
坑	-11.3211
奨	-11.3211
闘	-11.3211
劉珝	-11.3211
縉雲	-11.3211
籥	-11.3212
拷	-11.3212
翕	-11.3212
倨	-11.3213
浙江餘姚人	-11.3213
器械	-11.3213
吕文煥	-11.3213
炭	-11.3214
洩	-11.3214
駑	-11.3214
大金皇帝	-11.3214
祥瑞	-11.3214
團練	-11.3215
資政殿學士	-11.3215
王錫爵	-11.3215
宣徽南院使	-11.3215
悞	-11.3216
甘羅	-11.3216
伎	-11.3216
㐫	-11.3218
唐雎	-11.3218
鱗	-11.3218
彩	-11.3218
滔	-11.3218
脚	-11.3219
毛澄	-11.3219
以避	-11.3219
臨軒	-11.322
空虚	-11.322
愕然	-11.3221
囘籍	-11.3222
特加	-11.3222
寂	-11.3222
慟哭	-11.3222
蒼生	-11.3223
抛	-11.3224
固已	-11.3224
潁川侯	-11.3224
唱名	-11.3225
之怨	-11.3226
節鉞	-11.3227
刑部主事	-11.3228
慶雲	-11.3229
文天祥	-11.3229
知樞宻院事	-11.3229
山陽君	-11.323
唐尚書云	-11.3231
頃刻	-11.3231
隋煬帝	-11.3233
㑴	-11.3234
賞賚	-11.3234
補音式	-11.3235
實有	-11.3235
下所司	-11.3236
說見後	-11.3238
矢石	-11.3239
條例	-11.324
勵精	-11.3241
流爵	-11.3242
停止	-11.3243
學校	-11.3243
廷玉	-11.3244
福州	-11.3247
從二品	-11.3247
乞賜	-11.3248
阿珠	-11.3248
上尊號	-11.3248
敗走	-11.3249
乆而	-11.325
張綵	-11.325
太祖皇帝	-11.3251
人力	-11.3251
十五日	-11.3251
又音	-11.3252
追諡	-11.3253
寒心	-11.3254
世傑	-11.3256
耶律	-11.3257
屬魏	-11.3257
豫章	-11.3257
屬河	-11.3259
見趙䇿	-11.3259
補音羊	-11.326
封還	-11.326
叅軍	-11.326
供應	-11.3261
武靈王	-11.3262
不可曉	-11.3262
不甚	-11.3263
將行	-11.3263
甚善	-11.3264
尹直	-11.3264
爲燕	-11.3265
朕每	-11.3266
帳前	-11.3267
嵗貢	-11.3267
下馬	-11.3271
之不可	-11.3272
士論	-11.3275
取回	-11.3277
久而	-11.3279
訓練	-11.328
求去	-11.328
文明	-11.3281
遷官	-11.3281
大節	-11.3283
魯大夫	-11.3286
居官	-11.3287
存留	-11.329
老母	-11.329
勿以	-11.3291
不屈	-11.3292
宗元	-11.3292
山谷	-11.3293
修徳	-11.3294
王守仁	-11.3296
横人	-11.3296
正曰一本	-11.3296
太原府	-11.3297
司農寺	-11.3298
老臣	-11.3299
環州	-11.33
客卿	-11.3303
忠肅	-11.3311
章奏	-11.3313
征北	-11.3314
考校	-11.3315
新建	-11.3316
坐於	-11.3317
之手	-11.332
補外	-11.3321
歸于	-11.3324
存亡	-11.3329
稱是	-11.3329
梁祖	-11.3331
非惟	-11.3332
夾攻	-11.3335
尚書左丞	-11.3338
封侯	-11.3343
雄州	-11.3343
豉	-11.3347
其門	-11.3347
行義	-11.3352
賜名	-11.3353
來報	-11.3359
龍山	-11.3359
參議	-11.3359
稱臣	-11.336
遂得	-11.3361
蔡州	-11.3362
為朝廷	-11.3362
建文四年	-11.3364
夫秦	-11.3367
舉國	-11.3368
魏策	-11.3369
江西吉水人	-11.337
錦衣指揮	-11.3377
宋之	-11.338
所望	-11.338
到日	-11.3381
昭侯	-11.3381
見王	-11.3382
而與之	-11.3387
四十七	-11.339
多方	-11.339
前此	-11.3394
引用	-11.3395
六十五	-11.3396
為社稷	-11.3397
不修	-11.3401
之子孫	-11.3403
記之	-11.3403
神武	-11.3403
先期	-11.3404
兵部尚書兼	-11.3405
則可以	-11.3408
罪狀	-11.3408
不早	-11.342
推之	-11.342
皇祖	-11.342
曰昔者	-11.3423
累朝	-11.3423
福建莆田人由進士	-11.3425
良善	-11.3428
加太保	-11.3428
三分	-11.3429
昌平	-11.3429
張本	-11.3431
天威	-11.3431
馬步軍	-11.3435
臣不敢	-11.3437
以南	-11.3438
吳越	-11.3444
攻趙	-11.3444
亦不能	-11.3445
諸處	-11.3446
言已	-11.3447
以應	-11.345
閏二月	-11.3451
成祖	-11.3453
大懼	-11.3454
二周	-11.3456
公仲曰	-11.3457
以金	-11.3461
丹陽	-11.3464
入宫	-11.3468
安州	-11.3469
兵勢	-11.3475
保忠	-11.3475
試官	-11.3475
三事	-11.3478
錦衣衛指揮	-11.3479
召試	-11.348
謂公	-11.3484
運司	-11.3485
也今王	-11.3488
李本	-11.3488
無用	-11.3493
還其	-11.3494
百斤	-11.3494
且欲	-11.3497
境内	-11.3498
六七	-11.35
其狀	-11.3502
臣言	-11.3509
難於	-11.3509
二萬人	-11.351
不可輕	-11.3511
公何不	-11.3512
皇弟	-11.3513
輔政	-11.3514
聽其	-11.3514
趙府	-11.3515
家語	-11.3515
三年任左	-11.3515
公行	-11.3518
有害	-11.3519
第三十	-11.3521
狀元及第	-11.3526
改官	-11.3526
𢎞治十八年	-11.3527
滄	-11.3531
死則	-11.3532
燕昭	-11.3534
以充	-11.3538
雖死	-11.354
兮反	-11.354
下句	-11.3541
首級	-11.3545
敬王	-11.3548
各反	-11.3549
出外	-11.3551
三朝	-11.3553
委質	-11.3555
秦州	-11.3557
事多	-11.3561
先以	-11.3562
客謂	-11.3562
不愛	-11.3564
不濟	-11.3566
焚之	-11.3571
更有	-11.3571
更相	-11.3572
西門	-11.3572
漢文	-11.3573
細故	-11.3573
乃至	-11.3578
乃爾	-11.3579
三十九	-11.3579
愛子	-11.3581
門下省	-11.3583
以代	-11.3587
刑獄	-11.3588
為指揮使	-11.359
秦地	-11.359
失信	-11.3593
軍法	-11.3595
三級	-11.3595
史不	-11.3596
府通判	-11.3597
尋復	-11.3598
已死	-11.3602
無由	-11.3606
一卷	-11.3607
四十錠	-11.3608
一疋	-11.3608
擒獲	-11.3609
不名	-11.3609
之德	-11.361
引去	-11.361
毁之	-11.3613
七十三	-11.3613
明君	-11.3614
朕所	-11.3614
二嵗	-11.3614
轄	-11.3615
正曰按	-11.3616
兼掌	-11.3617
秦紀	-11.3623
臣民	-11.3623
帑	-11.3624
相接	-11.3626
為翰林學士	-11.3626
為文	-11.3627
起任	-11.3629
弋	-11.3636
評	-11.364
文辭	-11.3641
位郡縣主君	-11.3641
今來	-11.3644
因事有功	-11.3645
愛人	-11.3647
見侯志	-11.3648
霽	-11.365
右俱敬順事上	-11.365
洪武二年	-11.365
説也	-11.3651
羔	-11.3652
僨	-11.3653
兠	-11.3653
匣	-11.3654
著作佐郎	-11.3654
救也	-11.3654
並用	-11.3655
余有丁	-11.3655
蠶	-11.3656
饌	-11.3657
戰勝攻取	-11.3658
縶	-11.3658
幟	-11.3658
廓	-11.3659
讙	-11.3659
刪	-11.366
蚌	-11.366
圍雍氏	-11.366
相近	-11.3661
雋	-11.3661
駮	-11.3662
竣	-11.3662
災傷	-11.3663
張孚敬	-11.3663
岡	-11.3663
浙江錢塘人	-11.3664
渴	-11.3664
樞宻副使	-11.3664
岀	-11.3664
踣	-11.3664
禮書	-11.3664
狠	-11.3665
槖	-11.3665
鹽鐵	-11.3665
昺	-11.3665
揀	-11.3666
非徒	-11.3666
㫤	-11.3666
堅壁	-11.3667
甚憎	-11.3667
勃鞮	-11.3667
顆	-11.3667
左春坊大學士	-11.3668
濱	-11.3668
慚	-11.3668
貌辯	-11.3668
宋濓	-11.3669
陳堯叟	-11.3669
扁	-11.3669
佔據	-11.3669
一無	-11.3669
据	-11.3669
牡	-11.367
理部事	-11.367
黔國公	-11.367
祉	-11.3671
氓	-11.3671
竒塔特	-11.3671
沽	-11.3671
既立	-11.3671
中人	-11.3672
蘇厲	-11.3672
煎	-11.3672
諌議大夫	-11.3672
運糧	-11.3672
考課	-11.3673
冡	-11.3673
亡者	-11.3673
尺寸	-11.3673
臭	-11.3673
商旅	-11.3673
証	-11.3674
各官	-11.3674
中極殿	-11.3675
稱善	-11.3675
烏撒	-11.3675
大夫也	-11.3675
站	-11.3675
君臣之義	-11.3675
提㸃	-11.3676
帯	-11.3676
凍	-11.3676
戬	-11.3677
穆珍	-11.3677
萬厯十年	-11.3677
獄訟	-11.3677
杞	-11.3678
四衛喇特	-11.3678
舉明經	-11.3678
慤	-11.3678
慶基	-11.3679
祥符	-11.3679
蓺	-11.3681
弓矢	-11.3681
陳友諒	-11.3681
貞觀二年	-11.3682
架	-11.3683
右俱温良好樂	-11.3684
篇之辭	-11.3684
令韓	-11.3684
陳宜中	-11.3684
錡	-11.3685
曉諭	-11.3685
史言	-11.3686
納克楚	-11.3686
蜀人	-11.3686
文武羣臣	-11.3686
縱横	-11.3687
遘	-11.3687
宣撫使	-11.3687
赴援	-11.3687
㳂邊	-11.3688
之仇	-11.3689
仁宗皇帝	-11.3689
姑息	-11.369
白金五百兩	-11.369
之怒	-11.3693
句踐	-11.3693
今日之	-11.3693
三百疋	-11.3695
解額	-11.3696
藥師	-11.3698
玄素	-11.3699
劉滬	-11.37
今臣	-11.37
感動	-11.37
請罷	-11.37
萬三千	-11.3701
襃	-11.3702
字書無	-11.3703
親筆	-11.3705
步騎	-11.3705
以太子少保	-11.3707
繼勛	-11.3709
戎人	-11.3711
原籍	-11.3711
朕躬	-11.3711
襄陵	-11.3712
餘姚	-11.3713
人材	-11.3714
萬幾	-11.3714
責以	-11.3716
禄米	-11.3719
保傅	-11.3721
必勝	-11.3723
官貟	-11.3723
崇貴	-11.3724
黄鐘	-11.3724
攻周	-11.3726
馮勝	-11.3726
政和	-11.3731
此句	-11.3732
朕今	-11.3732
千載	-11.3732
潤州	-11.3733
步軍	-11.3733
歲次	-11.3736
唐虞	-11.3739
宗族	-11.3739
五百石	-11.3739
後來	-11.3741
月二十四日	-11.3741
罷黜	-11.3741
集賢	-11.3743
八疋	-11.3744
軍門	-11.3746
草制	-11.3747
也陛下	-11.375
曲直	-11.3751
離間	-11.3753
太史公	-11.3756
進士出身	-11.3757
置酒	-11.3759
正千户	-11.376
近習	-11.3762
所進	-11.3763
且令	-11.3764
謝遷	-11.3766
遣内侍	-11.3768
洛反	-11.3768
老子	-11.3768
兵部郎中	-11.3769
方畧	-11.3769
也於是	-11.3773
復職	-11.3773
識之	-11.3774
有難	-11.3774
奸謀	-11.3774
永樂二十二年以	-11.3774
常以	-11.3778
言不可	-11.3779
謂齊王曰	-11.378
與楚戰	-11.378
具言	-11.3781
疏言	-11.3789
好去	-11.3792
朕命	-11.3793
二表裏	-11.3797
乃有	-11.3801
軍吏	-11.3802
無據	-11.3803
其善	-11.3803
信國公	-11.3807
利用	-11.3807
除授	-11.3808
道理	-11.3808
受封	-11.3809
入仕	-11.3811
衛士	-11.3811
以佐	-11.3812
加太子太傅	-11.3812
及是	-11.3813
百七十	-11.3814
告以	-11.3815
薊州	-11.3817
未可知也	-11.3817
為南	-11.3817
賞銀	-11.3818
盡也	-11.3819
西河	-11.3821
劉向	-11.3821
釐王	-11.3821
真定府	-11.3823
事例	-11.3824
秦惠王	-11.3829
加少師	-11.3829
盡矣	-11.383
秦之攻	-11.383
不得入	-11.383
者莫如	-11.3831
疏入	-11.3836
書籍	-11.3836
以重	-11.3837
願王之	-11.3838
故特	-11.3839
手書	-11.384
林反	-11.384
在焉	-11.3841
崇徳	-11.3843
汝等	-11.3846
以成其	-11.3847
奉陽	-11.385
子鎮國將軍	-11.3851
補音悉	-11.3853
二音	-11.3855
中庸	-11.3856
蘄州	-11.3857
復言	-11.3857
遙	-11.3859
革去	-11.3863
不佞	-11.3864
即便	-11.3865
於法	-11.3865
說者	-11.3866
上覽	-11.3867
出督	-11.387
年少	-11.3871
秦晉	-11.3874
嘗與	-11.3874
之心而	-11.3875
九經	-11.3875
欲望	-11.3875
列於	-11.3877
二十年任	-11.3879
闗南	-11.388
以通	-11.388
少者	-11.3882
實授	-11.3884
存焉	-11.3884
畧云	-11.3885
十五人	-11.3888
任子	-11.3889
事覺	-11.389
慈仁	-11.3891
考其	-11.3891
便宜	-11.3891
田侯	-11.3892
遂行	-11.3897
東閣大學士	-11.3904
事君者	-11.3906
二臣	-11.3906
吾聞	-11.3907
不得過	-11.3909
為辭	-11.3911
殺身	-11.3915
康靖	-11.3917
出走	-11.3918
嘗謂	-11.3919
上曰此	-11.392
陞未任	-11.3923
來年	-11.3925
而魏	-11.3926
陳軫曰	-11.3926
若水	-11.3928
大江	-11.3928
鄭伯	-11.3932
范蠡	-11.3936
未有不	-11.3937
冬至	-11.3937
本年改	-11.3946
此誠	-11.3947
曰一本	-11.3955
事實	-11.3961
禮物	-11.3964
不論	-11.3965
争之	-11.3967
頗有	-11.3968
第七	-11.397
處所	-11.3972
人之情	-11.3972
待詔	-11.3973
得非	-11.3973
請命	-11.3976
歌曰	-11.3977
此盖	-11.3977
以工部尚書	-11.3978
聲言	-11.3978
求治	-11.3978
月十六日	-11.3979
故欲	-11.3979
三十人	-11.3981
甌	-11.3981
詩書	-11.3982
並令	-11.3982
如是則	-11.3985
忠武	-11.3988
試之	-11.3988
為給事中	-11.3992
前来	-11.3993
守正	-11.3994
光祿	-11.3996
於庭	-11.3996
正曰說	-11.3996
來使	-11.3999
事情	-11.4001
嗣薨夀五十	-11.4008
臣等所	-11.4013
齊者	-11.4015
三府	-11.4018
補曰恐	-11.4019
改諡	-11.4021
大患	-11.4025
賜第	-11.4027
死事	-11.4033
致仕卒	-11.4033
宗廟之	-11.4033
廣南	-11.4037
好士	-11.4038
萬厯二年	-11.4046
上下相	-11.4047
十二日	-11.4049
五年任左	-11.4052
七八	-11.4052
以守	-11.4053
為帝	-11.4054
何時	-11.4056
失於	-11.4057
甚大	-11.4061
為之奈何	-11.4063
謹身殿	-11.4063
今既	-11.4065
景泰三年以	-11.4065
為左都督	-11.4066
王真	-11.4067
守備太監	-11.4071
出于	-11.4072
噶爾	-11.4073
魏信	-11.4087
秦伯	-11.4087
从	-11.4097
行府	-11.41
翺	-11.4102
雖以	-11.4103
遵誨	-11.4106
正徳元年	-11.4108
須臾	-11.411
君之所	-11.411
固知	-11.4111
乞致仕	-11.4112
朝見	-11.4114
陳州	-11.4117
詰之	-11.4118
其威	-11.4121
漢王	-11.4123
城西	-11.4124
千斤	-11.4124
迁	-11.4125
國子監祭酒	-11.4125
彼處	-11.4126
賽	-11.4127
矛	-11.4128
哷	-11.4128
少師太子太師吏部尚書華蓋殿大學士	-11.4128
另	-11.4129
贇	-11.4129
羮	-11.4129
宣力	-11.413
臣子之	-11.4132
坎	-11.4132
烹	-11.4133
亶	-11.4134
直𨽻江都人	-11.4134
淖齒	-11.4134
筵	-11.4134
綵幣表裏	-11.4134
鵠	-11.4135
薨合葬	-11.4136
跟	-11.4136
鈔八十錠	-11.4136
鞏昌	-11.4136
鮒	-11.4137
綵幣八表裏	-11.4138
臼	-11.4138
土黙特	-11.4138
眞	-11.4138
龎	-11.4139
隐	-11.4139
歐	-11.4139
綂	-11.4139
馬周	-11.4139
綵幣六表裏	-11.4139
相同	-11.414
毐	-11.414
欽天監	-11.414
鼠	-11.414
栗	-11.414
刎	-11.4141
璲	-11.4141
階勲	-11.4141
上嘉納之	-11.4141
峯	-11.4141
圜丘	-11.4142
雒	-11.4142
瑚圖克	-11.4142
中流矢	-11.4142
翰林院侍講學士	-11.4143
訂	-11.4143
王之國	-11.4144
瘴	-11.4144
誰與	-11.4144
為天下笑	-11.4144
拏	-11.4144
雱	-11.4144
孥	-11.4144
白金五十兩	-11.4144
蘇頌	-11.4145
陘山	-11.4145
撻	-11.4145
嗾	-11.4145
奔競	-11.4146
見前成化十	-11.4146
氐	-11.4146
控扼	-11.4146
君道	-11.4146
英國公張輔	-11.4146
趕	-11.4146
出塞	-11.4146
偹	-11.4147
招討	-11.4147
篡	-11.4147
模	-11.4147
衛人	-11.4147
千里之	-11.4148
妓	-11.4148
莊辛	-11.4149
淪	-11.4149
揺	-11.415
黥	-11.415
都巡檢	-11.415
鈔三十錠	-11.415
攀	-11.415
諗	-11.4151
蓄積	-11.4151
陳旭	-11.4152
冢宰	-11.4152
峰	-11.4152
玷	-11.4152
上遣	-11.4152
跣	-11.4152
旒	-11.4153
尹洙	-11.4153
傅友徳	-11.4153
戀	-11.4153
申飭	-11.4153
灌頂	-11.4154
鄜延路	-11.4155
葦	-11.4155
尊號	-11.4156
廬陵	-11.4156
絀	-11.4157
元祐元年	-11.4157
昭睢	-11.4157
錫哩	-11.4157
推戴	-11.4158
珙	-11.416
聦明	-11.416
羽翼	-11.416
誅戮	-11.416
童貫	-11.4161
款	-11.4161
濕	-11.4161
補音子	-11.4163
小官	-11.4163
稍稍	-11.4163
本意	-11.4164
永樂二年	-11.4167
媯	-11.4169
廂軍	-11.4169
第八子	-11.4169
降下	-11.4169
惠文王	-11.417
成事	-11.417
金齒	-11.417
於趙而	-11.417
縣尉	-11.417
沈括	-11.4171
委曲	-11.4171
亦因之	-11.4171
天禧	-11.4171
定奪	-11.4172
二十餘年	-11.4174
唯唯	-11.4174
去國	-11.4176
降㫖	-11.4176
武靈	-11.4177
流血	-11.4178
貞觀之初	-11.4178
文恪	-11.4179
竭誠	-11.4179
大政	-11.4182
殆盡	-11.4183
湖州	-11.4184
徃徃	-11.4184
建文元年	-11.4184
援兵	-11.4185
鄭雍	-11.4185
日乆	-11.4187
叅議	-11.4188
八萬	-11.419
舊臣	-11.4191
張唐	-11.4191
無忘	-11.4192
逆瑾	-11.4196
掌印	-11.4197
二百餘	-11.4197
邊鄙	-11.4197
取秦	-11.4198
賛善	-11.4198
特詔	-11.4199
延英	-11.42
元亨	-11.42
王堯臣	-11.42
八年任右	-11.4202
稽古	-11.4203
延慶	-11.4205
羣小	-11.4206
數千里	-11.4206
晏然	-11.4208
器甲	-11.4209
三卷	-11.4212
補音魚	-11.4212
黨與	-11.4213
補音苦	-11.4213
諸家	-11.4213
敵騎	-11.4218
大臨	-11.422
重罪	-11.4222
除放	-11.4222
勸上	-11.4223
月餘	-11.4225
兩周	-11.4225
惠子	-11.4226
即行	-11.4227
考察	-11.4228
臨清	-11.4228
軍於	-11.423
一百六十	-11.4231
子噲	-11.4233
害人	-11.4234
小大	-11.4234
五年二月	-11.4235
山南	-11.4236
慶陽	-11.4236
水草	-11.4237
三十餘年	-11.4238
故秦	-11.4239
三年正月	-11.4241
六部	-11.4241
存之	-11.4241
諱之	-11.4242
信任	-11.4242
時上	-11.4243
叔孫	-11.4245
孫升	-11.4249
等同	-11.425
留後	-11.4252
忠定	-11.4255
定陶	-11.4257
與衆	-11.4258
力行	-11.4258
投之	-11.4262
㐮子	-11.4262
告諭	-11.4262
其禮	-11.4264
財賦	-11.4266
四日	-11.4266
有子	-11.4267
鴻台吉	-11.4267
欲去	-11.4268
心腹	-11.4268
不朽	-11.4269
嵗禄	-11.4271
兼讀學	-11.4273
㫖揮	-11.4273
昭然	-11.4275
信陵	-11.4276
逺慮	-11.4276
主試	-11.4276
強國	-11.4277
護衛	-11.4277
昌朝	-11.4278
管内	-11.4278
君長	-11.4279
任事	-11.4281
千古	-11.4282
縣人由進士	-11.4282
越國	-11.4283
鎮逺	-11.4283
條奏	-11.4286
正直	-11.4288
何能	-11.4292
御書	-11.4292
天下之人	-11.4293
得其人	-11.4297
漢文帝	-11.4298
鳳陽	-11.43
李常	-11.43
功賞	-11.4301
宥之	-11.4302
而陛下	-11.4302
武陽	-11.4302
爲楚	-11.4306
靖康元年	-11.431
盡數	-11.4311
賢相	-11.4312
登城	-11.4312
列侯	-11.4314
國號	-11.4315
李憲	-11.4317
帝號	-11.432
孝經	-11.4321
人臣之	-11.4321
聖德	-11.4322
耳今	-11.4323
數目	-11.4324
罷免	-11.4325
應奉	-11.4326
少師大學士	-11.4326
則上	-11.4327
致死	-11.4328
威名	-11.4328
兵力	-11.433
名位	-11.4332
得實	-11.4336
入貢	-11.4336
隆慶元年任	-11.4337
張登	-11.4338
古制	-11.4345
竊謂	-11.4347
豈其	-11.4348
並以	-11.4348
四萬	-11.4349
興亡	-11.435
祖父	-11.4352
尤重	-11.4353
所由	-11.4354
當死	-11.4355
中山君	-11.4356
先君之	-11.4362
魯襄	-11.4362
之來也	-11.4363
上幸	-11.4364
亡人	-11.4365
猶能	-11.4367
淮南子	-11.437
所試	-11.437
千石	-11.4371
得罪於	-11.4371
髙唐	-11.4372
説之	-11.4372
魯人	-11.4376
私於	-11.4376
女樂	-11.4378
問之曰	-11.4379
乃遣	-11.438
本姓	-11.4383
迎戰	-11.4389
月二十二日	-11.4392
原任	-11.4398
五十人	-11.4399
加之以	-11.4402
大吕	-11.4403
也臣聞	-11.4404
莊靖	-11.4411
於王王	-11.4411
等三人	-11.4414
何患	-11.4419
北伐	-11.4422
第二人	-11.4422
所害	-11.4423
供事	-11.4426
端明	-11.4427
為禮部尚書	-11.4431
燕山	-11.4435
賜黄金	-11.4436
少子	-11.444
惡惡	-11.4441
相位	-11.4443
光明	-11.4447
諸人	-11.4449
秦漢	-11.4449
既已	-11.4454
秦故	-11.4456
宣武	-11.4457
深思	-11.4461
二千人	-11.4463
四路	-11.4469
按兵	-11.4473
不務	-11.4474
親屬	-11.4475
又嘗	-11.448
可疑	-11.4483
之罪也	-11.4484
應舉	-11.4485
取天下	-11.4486
謹奉	-11.4487
四年任左	-11.4488
再贈	-11.449
餘人	-11.4492
不得志	-11.4492
又加	-11.4495
未下	-11.4496
二年六月	-11.4496
奔齊	-11.4504
無間	-11.4506
割三鎮	-11.4507
嗣薨壽	-11.4512
無憂	-11.4516
遥反	-11.4518
之兆	-11.4521
麻布	-11.4524
比至	-11.4525
為尚書	-11.4529
利益	-11.453
軍儲	-11.4531
遂命	-11.4532
名實	-11.4533
旗校	-11.4534
嘉靖三年	-11.4537
乞行	-11.4537
穆爾	-11.4537
而擊之	-11.4538
何言	-11.4539
官一員	-11.4542
事或	-11.4548
三等	-11.4549
兩軍	-11.455
恭襄	-11.456
保安	-11.4563
二百石	-11.4568
經教	-11.4568
士庶	-11.4575
隆慶四年	-11.4575
非特	-11.4581
六城	-11.4582
少年	-11.4583
鏊	-11.4583
一千石	-11.4587
與夫	-11.459
懌	-11.4591
南平	-11.4593
諺	-11.4593
有缺文	-11.4595
六合	-11.4596
子圉	-11.4598
無失	-11.4599
京西	-11.4599
謂宰相曰	-11.4604
三王之	-11.4606
縊	-11.4607
不恭	-11.4607
昔日	-11.461
不戰而	-11.4611
始得	-11.4611
純行不爽	-11.4611
以户部尚書	-11.4613
楊畋	-11.4613
選用	-11.4614
興安	-11.4615
右俱履正志和	-11.4615
一國	-11.4616
右履正志和	-11.4617
犂	-11.462
夏侯	-11.4621
曲阜	-11.4622
祼	-11.4622
大寧	-11.4623
跳	-11.4624
賜姓	-11.4624
珩	-11.4624
棠	-11.4626
但當	-11.4627
薨無子弟	-11.4627
檜	-11.4627
愕	-11.4627
二十二年以	-11.4627
䧏	-11.4627
衫	-11.4627
出而	-11.4628
巒	-11.4629
錐	-11.463
敝邑之王	-11.463
塗炭	-11.463
誹謗	-11.463
阪	-11.4631
鉏	-11.4631
正七品	-11.4631
浙江慈谿人	-11.4631
粹	-11.4632
何以知其然也	-11.4632
一千五百	-11.4632
髠	-11.4632
种	-11.4633
丐	-11.4633
俱米鈔中半兼支	-11.4633
宵	-11.4633
脊	-11.4633
闚	-11.4633
净	-11.4634
礙	-11.4634
罸	-11.4635
輓	-11.4635
誾	-11.4636
鶴齡	-11.4637
戰而勝	-11.4637
虎賁	-11.4637
紘	-11.4637
層	-11.4637
霞	-11.4637
由此觀之	-11.4638
努	-11.4638
邈	-11.4638
琬	-11.4638
屠滽	-11.4638
榆次	-11.4638
侑	-11.4638
鈺	-11.4639
状元	-11.4639
腐	-11.4639
㝠	-11.4639
士馬	-11.4639
正典刑	-11.4639
欽定四庫全書太平治迹統𩔖卷	-11.4639
謂韓王曰	-11.4639
腸	-11.4639
瑤	-11.4639
掌部事	-11.464
庚戍	-11.464
翫	-11.464
研	-11.464
入奏	-11.464
錞	-11.464
肝	-11.4641
嘉靖丁未進士萬厯	-11.4641
大長公主	-11.4641
范氏祖禹曰	-11.4641
椿	-11.4641
圍邯鄲	-11.4642
綽爾濟	-11.4642
郭朴	-11.4642
遴	-11.4643
汪廣洋	-11.4643
不置	-11.4644
塋	-11.4644
崑山	-11.4644
郯	-11.4644
邜	-11.4644
詵	-11.4644
包拯	-11.4644
操練	-11.4644
鳳翔	-11.4645
堯俞	-11.4645
賈誼	-11.4645
文肅	-11.4645
稠	-11.4645
弃	-11.4645
羈	-11.4645
力辭	-11.4646
騏	-11.4646
阿勒坦汗	-11.4646
悃	-11.4647
釐革	-11.4647
儔	-11.4647
嚴訥	-11.4647
壑	-11.4647
廹	-11.4647
景祐元年	-11.4647
端明殿學士	-11.4647
臯陶	-11.4647
黜陟	-11.4648
布尼雅實哩	-11.4648
乎若	-11.4648
編管	-11.4648
豹房	-11.4648
李沆	-11.4648
龍圖閣直學士	-11.4649
查盤	-11.4649
片	-11.465
捽	-11.465
慟	-11.465
已行	-11.465
宰輔	-11.4651
炙	-11.4651
伉	-11.4651
溱	-11.4652
殯	-11.4652
精鋭	-11.4652
陀	-11.4652
掾	-11.4653
摭	-11.4653
輝祖	-11.4653
侵掠	-11.4654
鴈門	-11.4655
粤	-11.4655
錢溥	-11.4655
爕	-11.4655
很	-11.4655
鄂國公	-11.4655
會稽	-11.4655
昵	-11.4656
陽縣	-11.4656
千餘里	-11.4656
搶	-11.4656
彭華	-11.4657
由進士十年任右	-11.4658
𢎞農	-11.4658
押班	-11.4658
左㕘政	-11.4659
襲封衍聖公	-11.466
非能	-11.4662
襄毅	-11.4663
以兵部尚書加	-11.4663
大名府	-11.4665
謀反	-11.4665
鄶	-11.4665
陳執中	-11.4665
教坊	-11.4665
荀息	-11.4666
外臣	-11.4666
甲戍	-11.4666
襲爵	-11.4667
郊廟	-11.4668
畞	-11.4668
長洲	-11.4668
毛紀	-11.4668
考滿	-11.4669
清源	-11.4669
補音它	-11.4669
左諫議大夫	-11.467
齊王曰	-11.4672
災異	-11.4672
冀芮	-11.4672
始定	-11.4674
正曰姚本	-11.4676
慰諭	-11.4677
九重	-11.4678
彌封	-11.4679
備邊	-11.468
典籍	-11.4681
止令	-11.4684
十二人	-11.4684
普定	-11.4685
慈愛	-11.4685
曰今日	-11.4687
五府	-11.4687
竭力	-11.4687
鄂州	-11.4692
廵按	-11.4693
蟒	-11.4693
供給	-11.4695
薨壽二十	-11.4695
京畿	-11.4695
吏員	-11.4695
洪武十三年	-11.4697
允恭	-11.4698
悔過	-11.4699
五十三	-11.4701
流離	-11.4703
誰能	-11.4703
李筠	-11.4704
璽書	-11.4705
東閣	-11.4705
資序	-11.4706
臺諫官	-11.4706
姬姓	-11.4711
遵守	-11.4714
銀印	-11.4716
比於	-11.4716
曰老	-11.4716
無隱	-11.4721
大将軍	-11.4722
方士	-11.4726
列聖	-11.4728
兩淮	-11.4729
自新	-11.4729
永康	-11.4732
註云	-11.4733
銀五十兩	-11.4734
定封	-11.4735
觀察	-11.4737
乗車	-11.4739
長短	-11.4742
革除	-11.4742
興祖	-11.4742
是我	-11.4746
中選	-11.4747
聖母	-11.475
正當	-11.4751
相結	-11.4753
山澤	-11.4754
司業	-11.4756
兵屯	-11.4764
朱寧	-11.4764
大潰	-11.4765
重賂	-11.4766
歸徳	-11.4766
蒙古	-11.4768
呉起	-11.4768
友徳	-11.4769
厚賞	-11.477
得幸	-11.477
賜進士	-11.4775
河中府	-11.4775
不降	-11.4777
内𫝊	-11.478
有志	-11.478
問其故	-11.4781
燕國	-11.4781
一年任	-11.4782
文憲	-11.4783
為國家	-11.4784
前事	-11.4784
諸族	-11.4786
王彦	-11.4786
行宫	-11.4787
既罷	-11.4788
厥後	-11.4789
奚齊	-11.479
舊章	-11.479
私恩	-11.4795
良馬	-11.4797
天性	-11.4797
易簡	-11.48
若夫	-11.48
方面	-11.4803
元元	-11.4808
忠誠	-11.481
衛所	-11.4811
上疏論	-11.4814
宜從	-11.4816
志寧	-11.4817
法當	-11.482
典史	-11.4821
刺之	-11.4822
王驥	-11.4822
大呼	-11.4823
講和	-11.4823
楚懐	-11.4825
聲勢	-11.4825
未畢	-11.4825
太學生	-11.4826
臣不知	-11.4827
金寳	-11.4828
第三人	-11.4828
馬氏	-11.483
一表裏	-11.4832
洪武四年	-11.4832
論功	-11.4836
節用	-11.4847
二十日	-11.4852
處女	-11.4854
師保	-11.4856
䖍反	-11.4859
百司	-11.4861
繼忠	-11.4861
尚書右丞	-11.4865
申奏	-11.4865
稱職	-11.4871
教諭	-11.4871
之謂也	-11.4875
威儀	-11.4877
甚者	-11.4877
為諫官	-11.4878
乎哉	-11.4882
下第	-11.4882
上聞之	-11.4885
車駕至	-11.4885
聽從	-11.489
能行	-11.4893
新制	-11.4893
之險	-11.4894
三族	-11.4894
劉江	-11.4896
並與	-11.4902
明也	-11.4902
兼職	-11.4903
福建莆田人	-11.4905
王不聽	-11.4909
乃歸	-11.491
勿復	-11.4911
地勢	-11.4919
道御史	-11.4919
上不許	-11.4919
之寄	-11.492
西畨	-11.4924
卿其	-11.4928
天變	-11.4933
至元	-11.4944
司諫	-11.4947
官為	-11.4947
至于今	-11.4947
臣近	-11.4948
未决	-11.4951
不休	-11.4952
伯夷	-11.4956
因奏	-11.496
大樂	-11.496
刑名	-11.4962
進尚書	-11.4964
語及	-11.4965
卿宜	-11.4966
三囯	-11.4967
無狀	-11.4967
宣公	-11.4969
各一人	-11.4969
近世	-11.4971
發之	-11.4976
土人	-11.4984
致理	-11.4986
屬之	-11.4987
使者曰	-11.499
曰昨	-11.4994
補曰疑	-11.4995
必致	-11.4995
恐秦	-11.5001
中貴	-11.5004
庶一子	-11.5012
退朝	-11.5013
如例	-11.5015
有終	-11.5016
德明	-11.5016
州判官	-11.5018
其徒	-11.502
𥙷曰一	-11.5027
竊惟	-11.5028
國危	-11.5034
願君	-11.5037
以太常卿	-11.504
千百户	-11.5043
前進	-11.5044
方許	-11.5044
五千人	-11.5046
虞卿曰	-11.5046
不次	-11.505
兵衆	-11.5051
五都	-11.5052
郎反	-11.5053
彼時	-11.5054
不赴	-11.5056
賞功	-11.5059
益兵	-11.5059
焉夫	-11.5062
軍令	-11.5064
尚能	-11.5067
洪台吉	-11.5068
即是	-11.5069
奉承	-11.5071
此外	-11.5071
晉君	-11.5071
兖	-11.5071
又作	-11.5075
少有	-11.5076
由進士四年任右	-11.5079
圍城	-11.508
不能死	-11.508
亦須	-11.5081
所定	-11.5084
封國	-11.5087
齊師	-11.5087
李廣	-11.5089
㑹議	-11.509
故得	-11.5099
曹公	-11.5101
一介	-11.5103
權勢	-11.5104
還京師	-11.5105
譬之	-11.5105
縣官	-11.5106
五年三月	-11.5106
之序	-11.5107
助役	-11.5112
刑部左侍郎	-11.5113
補音必	-11.5115
推行	-11.5118
禁兵	-11.5119
學官	-11.5121
户部左侍郎	-11.5123
月令	-11.5127
建寧	-11.5129
梁君	-11.513
上尊諡曰	-11.5133
惑於	-11.5133
衆論	-11.5134
大利	-11.5136
降指揮	-11.5138
初贈	-11.5142
尼瑪哈	-11.5145
西面	-11.5146
不足以為	-11.5146
頰	-11.5148
果有	-11.515
瑋	-11.515
韋注	-11.5151
北征陣亡	-11.5151
榜眼	-11.5152
塔布囊	-11.5152
全斌	-11.5152
申公時行	-11.5152
正統七年	-11.5153
兵十萬	-11.5153
奉國將軍	-11.5154
阿巴海	-11.5154
嗛	-11.5155
禮部尚書文淵閣大學士	-11.5155
獮	-11.5155
鳯翔	-11.5156
王保保	-11.5156
臚	-11.5157
燫	-11.5157
煦	-11.5157
樁	-11.5157
些	-11.5157
㝡	-11.5157
飼	-11.5158
仐	-11.5158
瑯	-11.5158
緤	-11.5158
郭子興	-11.5158
豊	-11.5158
曹鼐	-11.5159
完顔	-11.5159
誹	-11.516
炫	-11.516
從起義	-11.516
洪武元年任	-11.5161
蒯	-11.5161
禋	-11.5161
叨	-11.5161
汜	-11.5161
栖	-11.5161
昭公	-11.5162
譟	-11.5162
配享	-11.5162
景靈宫	-11.5162
直𨽻崑山人	-11.5162
瑱	-11.5162
囂	-11.5162
估	-11.5162
廖永忠	-11.5162
謂公叔曰	-11.5162
靄翠	-11.5163
汁	-11.5163
汙	-11.5163
鄢郢	-11.5163
琰	-11.5163
駐劄	-11.5163
直𨽻無錫人	-11.5163
王毅愍	-11.5163
莫大焉	-11.5163
應詔	-11.5164
葱	-11.5164
柰	-11.5164
黼	-11.5165
栗腹	-11.5165
剥	-11.5165
㸔	-11.5165
鄂托克	-11.5165
平章軍國重事	-11.5165
起居郎	-11.5165
徐廣云	-11.5165
棟戬	-11.5166
以百金	-11.5166
餙	-11.5167
涂	-11.5167
璘	-11.5167
左春坊左中允	-11.5167
珏	-11.5167
之爲去聲	-11.5167
旦暮	-11.5167
僉都	-11.5167
趙貞吉	-11.5168
絹三疋	-11.5168
巍	-11.5168
焚香	-11.5168
黠	-11.5169
翀	-11.5169
監察御史裏行	-11.5169
墳墓	-11.5169
跖	-11.5169
建極殿大學士	-11.5169
淚	-11.517
詹事府少詹事	-11.517
迴	-11.517
紿	-11.517
澶淵	-11.517
鈔四百錠	-11.517
尹旻	-11.517
許鄢陵	-11.5171
硃	-11.5171
彤	-11.5171
涕泣	-11.5171
瑀	-11.5171
叅知政事	-11.5171
皥	-11.5171
杜赫	-11.5171
鏐	-11.5171
橐	-11.5172
洪武初年	-11.5172
菲	-11.5172
制畧曰	-11.5172
天章閣待制	-11.5172
芊	-11.5172
孝孺	-11.5172
韓忠彦	-11.5172
廼	-11.5172
孝成王	-11.5173
石璞	-11.5173
堞	-11.5173
勦	-11.5174
那里	-11.5174
暁	-11.5174
天章閣	-11.5174
醢	-11.5175
飄	-11.5175
疆界	-11.5175
講筵	-11.5175
厝	-11.5175
申不害	-11.5175
斜	-11.5175
開府儀同三司	-11.5175
惶恐	-11.5175
䙝	-11.5175
鄣	-11.5176
守本官	-11.5176
黄金百兩白金	-11.5177
藩屏	-11.5177
泯	-11.5177
摶	-11.5177
負芻	-11.5177
國語韋氏解	-11.5178
枝山野記	-11.5178
萬厯十二年	-11.5178
賜緋	-11.5178
受禪	-11.5179
避席	-11.5179
卻	-11.5179
毬	-11.5179
吏部郎中	-11.5179
薫	-11.5179
縣西北	-11.518
綜	-11.518
馬永成	-11.5181
匏	-11.5181
籍其家	-11.5181
遷都	-11.5182
巡撫都御史	-11.5182
論議	-11.5182
白圭	-11.5183
將佐	-11.5183
不可勝紀	-11.5183
宣撫司	-11.5184
湫	-11.5184
皇后姓	-11.5186
岑	-11.5186
禹湯	-11.5187
藝祖	-11.5188
奉命	-11.5189
為庶吉士命	-11.5189
韓非子	-11.5191
文武大臣	-11.5191
楹	-11.5193
飱	-11.5193
涖	-11.5193
德府	-11.5193
地祗	-11.5193
起居注	-11.5195
中書樞密院	-11.5195
特穆津	-11.5197
諸君	-11.5197
張洎	-11.5199
加賞	-11.5199
若訥	-11.52
乗輿	-11.52
海南	-11.52
一千二百	-11.5201
八十六	-11.5202
欽承	-11.5202
旬日	-11.5204
智高	-11.5204
又能	-11.5205
第八	-11.5205
副千户	-11.5206
恭惟	-11.5206
共事	-11.5209
將死	-11.521
李文忠	-11.5212
諺曰	-11.5212
天祚	-11.5213
第四等	-11.5214
科第	-11.5214
堯臣	-11.5216
巡視	-11.5216
太息	-11.5218
斬獲	-11.5219
此士	-11.5219
納其言	-11.522
孝友	-11.5221
李綱	-11.5223
後數日	-11.5223
中牟	-11.5224
今存	-11.5224
次序	-11.5225
五霸	-11.5226
撫諭	-11.523
郭資	-11.5233
接戰	-11.5233
剛平	-11.5234
邊城	-11.5235
令有司	-11.5238
無備	-11.5238
韓魏之君	-11.524
太山	-11.5241
昪	-11.5241
乞休	-11.5242
臨事	-11.5244
所知也	-11.5245
亂反	-11.5247
論劾	-11.525
邦家	-11.5253
從其請	-11.5254
守令	-11.5256
强弱	-11.5258
母后	-11.5259
蠻人	-11.526
以御	-11.5261
聖慮	-11.5263
奸人	-11.5265
語言	-11.5266
萬紀	-11.5266
此二字	-11.5266
能保	-11.5268
清平	-11.5269
之職也	-11.5272
曽孫	-11.5275
三次	-11.5277
上書言	-11.5281
敗亡	-11.5287
塞外	-11.5288
犯邊	-11.5288
俱死	-11.5289
千乗	-11.5289
吕氏	-11.5289
世廟	-11.529
給賞	-11.5291
度其	-11.5292
餘悉	-11.5295
海上	-11.5295
天祥	-11.5295
十倍	-11.5296
尚可	-11.5297
恭僖	-11.5299
一百八十	-11.53
中都	-11.53
智髙	-11.5302
乗勝	-11.5305
隆慶六年	-11.5306
交州	-11.5308
邊備	-11.5308
仁聖	-11.5309
江西泰和人	-11.5311
聲色	-11.5312
西面而	-11.5313
山名	-11.5313
仲子	-11.5317
武侯	-11.5319
諭德	-11.5319
司禮太監	-11.532
往復	-11.5321
隋氏	-11.5322
賜坐	-11.5324
乘馬	-11.5324
師徒	-11.5327
都省	-11.5328
李定	-11.5329
無疆	-11.533
左相	-11.5332
成化初	-11.5332
妖言	-11.5335
廣平	-11.5335
兵部員外郎	-11.5336
横山	-11.5339
貢馬	-11.534
可觀	-11.5341
還自	-11.5342
百物	-11.5343
崇髙	-11.5343
今日之事	-11.5344
又問	-11.5345
主張	-11.5349
斯民	-11.535
謬矣	-11.535
者以其	-11.535
累世	-11.5351
朱氏	-11.5355
節次	-11.5357
視朝	-11.5359
何罪	-11.5361
臨朝	-11.5361
等路	-11.5361
正曰韓	-11.5363
茂州	-11.5365
來告	-11.5366
統軍	-11.5366
子澄	-11.5366
武職	-11.5371
徳義	-11.5373
欲盡	-11.5375
領軍	-11.5379
國子生	-11.538
舟中	-11.538
清明	-11.5381
聴之	-11.5382
浙東	-11.5383
異典	-11.5386
止用	-11.5387
自盡	-11.539
罷政	-11.5392
肆行	-11.5394
孰不	-11.5395
仍乞	-11.5397
三員	-11.5399
以下皆	-11.5402
衆生	-11.5403
敵衆	-11.5403
失職	-11.5404
天資	-11.5404
景王	-11.5404
不敢當	-11.5405
梁氏	-11.5407
出錢	-11.541
結好	-11.5411
歸德	-11.5411
太監張忠	-11.5411
有事於	-11.5412
之始也	-11.5414
王曽	-11.5415
盛德	-11.5417
復辟	-11.5418
即遣	-11.5419
城守	-11.5419
數多	-11.5419
安邊	-11.542
文廟	-11.5422
進諌	-11.5425
御馬監太監	-11.5429
其手	-11.5429
伏願	-11.5429
十七年任左	-11.543
二甲	-11.5438
已降	-11.544
茶鹽	-11.5448
服除	-11.5452
久不	-11.5452
委官	-11.5454
賢士	-11.5454
七十五	-11.5454
唐朝	-11.5454
亦嘗	-11.5455
科目	-11.5456
説見	-11.546
為去聲	-11.5466
黄州	-11.5471
天下之事	-11.5473
待其	-11.5474
由舉人	-11.5478
奉國	-11.5485
朝㑹	-11.5486
邊兵	-11.5489
大宴	-11.5494
法制	-11.5495
而笑	-11.5495
否則	-11.5499
以本官	-11.5499
辭去	-11.5507
爲質	-11.551
攻梁	-11.5512
而問之	-11.5512
永樂二十二年	-11.5516
呼曰	-11.5517
按公	-11.5517
亦足	-11.5519
逐一	-11.552
王稽	-11.5524
收拾	-11.5526
後語作	-11.5527
惟忠	-11.553
加少傅	-11.5535
桂州	-11.5536
七事	-11.5537
殺傷	-11.5538
都給事中	-11.5538
對曰夫	-11.5542
上古	-11.5543
張鋭	-11.5543
歸順	-11.5544
文綺帛	-11.5544
不精	-11.555
出鎮	-11.5554
以仁義	-11.5558
始命	-11.5558
終日	-11.5563
不獨	-11.5567
𢎞治四年	-11.5568
諸部	-11.5573
南宫	-11.5577
午門	-11.5578
皇城	-11.5581
下吏	-11.5582
乃敢	-11.5583
又恐	-11.5584
不度	-11.5589
不知何許人洪武	-11.559
統領	-11.5594
四時之	-11.5595
所議	-11.5597
治兵	-11.5602
不犯	-11.5606
御馬	-11.5608
一面	-11.5612
為刺史	-11.5613
再以少保兼	-11.5615
萬死	-11.5616
明宗	-11.5621
無糧	-11.5622
後之人	-11.5622
所領	-11.5646
豈惟	-11.5646
目前	-11.5651
安得不	-11.5656
月二十九日	-11.5658
益重	-11.5658
未常	-11.5661
錢物	-11.5664
省試	-11.5666
宗鼎	-11.567
自即位	-11.5671
章張儀	-11.5682
右都督贈	-11.5682
六十餘	-11.5683
慶元	-11.5685
張信	-11.5685
㑹于	-11.5687
朝堂	-11.5694
右俱守禮執義	-11.5694
悔之	-11.5696
爲大王	-11.5697
尚書侍郎	-11.5697
主順天試	-11.5701
率師	-11.5702
濳	-11.5703
居守	-11.5703
勾當	-11.5704
汾隂	-11.5705
所存	-11.5706
涵	-11.5707
澮	-11.5708
箠	-11.5708
簾前	-11.5708
四川内江人	-11.5708
兵科給事中	-11.5709
謡	-11.5709
天順元年任	-11.571
監修	-11.571
翰林院編修	-11.571
仁祖	-11.571
菑	-11.571
直𨽻宜興人	-11.5711
右俱勤學好問	-11.5712
桞	-11.5712
複	-11.5713
湔	-11.5714
駢	-11.5714
大理少卿	-11.5714
昕	-11.5714
大理評事	-11.5715
騾	-11.5716
李兌	-11.5716
衍聖公	-11.5717
上官均	-11.5717
倉廪	-11.5717
聾	-11.5717
宙	-11.5717
航海	-11.5717
䄂	-11.5717
有缺誤	-11.5718
姚廣孝	-11.5718
舉人才	-11.5718
黄門侍郎	-11.5718
廉頗	-11.5718
絡	-11.5719
勾踐	-11.5719
兔	-11.5719
江西安福人由	-11.5719
坐罪	-11.5719
厠	-11.572
斟酌	-11.572
御集英殿	-11.572
直𨽻藁城人	-11.572
八十四	-11.572
晉語第十	-11.572
蹟	-11.572
秘書監	-11.5721
軟	-11.5721
璣	-11.5721
筦	-11.5721
僮	-11.5721
六科給事中	-11.5721
枹	-11.5722
頴川	-11.5722
瑣	-11.5722
州别駕	-11.5722
李廷相	-11.5722
醇	-11.5722
恭裕王	-11.5722
樸	-11.5723
噶拉卜	-11.5723
踊	-11.5724
廵按御史	-11.5724
漬	-11.5724
愜	-11.5724
駿	-11.5725
牾	-11.5725
冨弼	-11.5725
顓	-11.5725
鯁	-11.5725
蔓	-11.5725
佃	-11.5725
堤	-11.5726
倪岳	-11.5726
洞庭	-11.5726
隸	-11.5726
宣徽	-11.5726
闊	-11.5726
丙戍	-11.5726
羡	-11.5726
珍珠	-11.5727
工部郎中	-11.5727
龎藉	-11.5727
咫	-11.5727
謄	-11.5728
以名聞	-11.5728
剽	-11.5728
貂勃	-11.5728
誥勅	-11.5728
謾	-11.5728
企	-11.5729
聖識一切	-11.5729
昌祚	-11.5729
熒惑	-11.573
歉	-11.573
縞	-11.573
陸炳	-11.573
鬚	-11.573
瘳	-11.573
乍	-11.573
砍	-11.573
六年卒	-11.5731
蹄	-11.5731
咫尺	-11.5731
長孫無忌	-11.5731
絃	-11.5731
帷幄	-11.5732
皐	-11.5732
牖	-11.5732
平江伯	-11.5732
慰勞	-11.5732
不亦難乎	-11.5732
未之有也	-11.5732
兼侍中	-11.5732
駒	-11.5733
提督軍務	-11.5733
霍光	-11.5733
范文虎	-11.5733
由榜眼	-11.5734
陳鎰	-11.5734
難矣	-11.5734
乞依	-11.5735
木邦	-11.5735
咒	-11.5736
貞觀十一年	-11.5736
碧	-11.5736
咄	-11.5737
晏殊	-11.5737
見齊䇿	-11.5737
修起居注	-11.5737
廬江	-11.5737
㽞	-11.5738
貞觀之治	-11.5738
練兵	-11.5738
䜴反	-11.5738
神仙	-11.5738
倉庫	-11.5739
鉄	-11.5739
馳驛	-11.574
神道碑	-11.574
壹	-11.574
禆益	-11.574
欺㒺	-11.5741
灣	-11.5741
十八萬	-11.5741
緣邊	-11.5742
左僉都御史	-11.5742
五十七	-11.5743
臆	-11.5743
無所不至	-11.5743
荀卿	-11.5744
怖	-11.5744
疆埸	-11.5745
殿中丞	-11.5745
楊文忠	-11.5745
羊舌	-11.5746
曺彬	-11.5746
氛	-11.5747
芰	-11.5748
史姚同	-11.5748
樗里子	-11.5749
太子中允	-11.5749
嗣薨壽七十	-11.5749
宗諤	-11.5749
江淵	-11.575
之甚也	-11.575
徽宗	-11.5751
阿嚕台	-11.5752
奔走	-11.5752
市井	-11.5752
王拱辰	-11.5752
節儉	-11.5752
明徳	-11.5753
洗馬	-11.5753
汾水	-11.5753
清濁	-11.5754
髙榖	-11.5755
巴喇	-11.5755
文侯曰	-11.5756
髙士	-11.5757
項忠	-11.5757
詔獄	-11.5758
恭儉	-11.5758
朱葛	-11.5759
狐突	-11.5761
老幼	-11.5761
慈聖	-11.5762
不遺	-11.5763
東京	-11.5763
大位	-11.5763
敏政	-11.5764
姦邪	-11.5764
宋祁	-11.5765
小兒	-11.5766
數百里	-11.5766
王翺	-11.5769
照舊	-11.5772
頓首謝	-11.5772
雜職	-11.5772
免役錢	-11.5772
以文學	-11.5774
廟號	-11.5774
李勣	-11.5775
露布	-11.5775
執政大臣	-11.5778
撫按	-11.5778
各該	-11.578
天心	-11.5781
壯士	-11.5781
内出	-11.5782
家貧	-11.5782
外其餘	-11.5783
雍氏	-11.5785
被圍	-11.5786
壤地	-11.5786
丘福	-11.5789
迄今	-11.579
補音尺	-11.5792
纂官	-11.5792
公不如令	-11.5792
憂勤	-11.5794
布延	-11.5794
㑹昌	-11.5796
有警	-11.5796
曾孫	-11.5797
裁定	-11.5798
發落	-11.58
發京師	-11.58
作威	-11.5802
欲殺之	-11.5803
冊立	-11.5803
禮部尚書兼翰林院學士	-11.5807
言能	-11.5809
百五十兩	-11.5815
楊博	-11.5815
莊田	-11.5817
年七十	-11.582
亦不敢	-11.5822
援引	-11.5822
東野	-11.5823
劉機	-11.5825
兵討之	-11.5826
廷儀	-11.5827
論斬	-11.5827
重幣	-11.5828
校官	-11.5828
告示	-11.5833
合葬	-11.5834
訪問	-11.5834
帝時為	-11.5835
平蜀	-11.5838
歴代	-11.584
養正	-11.5844
羊馬	-11.5845
三百餘	-11.5846
不懈	-11.5847
宗異	-11.5848
思慮	-11.5848
魏絳	-11.5849
教閲	-11.585
躬親	-11.5854
天下莫不	-11.5854
文思	-11.5854
信安	-11.5855
鄙之	-11.5859
深切	-11.5862
趙襄子	-11.5865
究治	-11.5866
伐齊齊	-11.5867
曰善乃	-11.5867
三百五十	-11.5868
半年	-11.5868
分寸	-11.5869
下法司	-11.5871
大笑	-11.5874
正統五年	-11.5875
以手	-11.5876
應援	-11.5877
由進士十六年任右	-11.588
國計	-11.5881
失守	-11.5884
見魏䇿	-11.5885
度宗	-11.5889
人仕	-11.5891
龍門	-11.5896
雨雪	-11.5896
尊秦	-11.5897
至尊	-11.5898
攻守	-11.5899
甚喜	-11.5899
中大夫	-11.59
者謂之	-11.5903
東甌	-11.5904
獻納	-11.5907
放還	-11.5909
曰臣有	-11.5915
侍立	-11.592
日淺	-11.5922
重治	-11.5922
備位	-11.5922
二十兩	-11.5925
𢎞治二年	-11.5927
錢寧	-11.5932
忠節	-11.5932
韓川	-11.5932
任賢	-11.5935
北邊	-11.5937
穆子	-11.5937
大雅	-11.5945
不妨	-11.5948
未決	-11.5948
與安石	-11.5949
報國	-11.595
邠	-11.595
聖朝	-11.5951
十九人	-11.5952
致祭	-11.5955
乎太宗	-11.5956
見扵	-11.5956
復舊	-11.5956
納土	-11.5958
平陸	-11.5958
畧同	-11.5958
部院	-11.5964
四年六月	-11.5965
羙人	-11.5967
嚴加	-11.5968
户部尚書武英殿大學士	-11.5973
遂殺	-11.5975
郭進	-11.5976
山遇	-11.5978
之数	-11.5978
益都	-11.5979
百端	-11.5982
百餘年	-11.5983
泰州	-11.5987
少師太子太師吏部尚書	-11.5987
避難	-11.5989
初諡	-11.599
於諸矦	-11.5991
不豫	-11.5992
已具	-11.5993
子女	-11.5996
聖學	-11.5996
太子太傅吏部尚書	-11.5998
富民	-11.5998
衆口	-11.5999
吏部尚書文淵閣大學士	-11.6
伐鄭	-11.6002
誤矣	-11.6004
而割	-11.6007
而告之	-11.6013
不踰	-11.6014
本心	-11.6015
其子孫	-11.6016
求利	-11.6016
每年	-11.6016
養民	-11.6018
宣太后	-11.6019
其可乎	-11.6019
天下之心	-11.602
宣德元年	-11.6022
試詩賦	-11.6024
經過	-11.6025
景泰五年	-11.6025
由進士十四年任右	-11.6028
勢必	-11.6031
隨軍	-11.6037
道教	-11.604
后土	-11.6043
文體	-11.6045
保信	-11.6045
燕雲	-11.6047
愛君	-11.6053
主司	-11.6056
相次	-11.6057
長樂	-11.6058
朔詔	-11.6058
詔送	-11.6062
權臣	-11.6063
薦舉	-11.6067
儒臣	-11.6072
佞人	-11.6073
可得而	-11.6075
諫官御史	-11.609
睿宗	-11.609
悼王	-11.609
答云	-11.6093
當考	-11.6095
征南	-11.6095
在内閣	-11.6096
臣聞之曰	-11.6097
典章	-11.6098
命錦衣衛	-11.6101
二十里	-11.6103
縱使	-11.6104
豈獨	-11.6106
天順四年	-11.6107
僖公	-11.6113
數萬人	-11.6115
二聖	-11.6117
不能支	-11.6117
守邊	-11.6121
由進士二年任右	-11.6126
玉帛	-11.6129
盖亦	-11.613
商公	-11.6131
畏其	-11.6134
散官	-11.6134
一千三百	-11.6135
八年致仕	-11.6137
江西泰和人由進士	-11.6139
於秦王	-11.6146
伯樂	-11.6149
令終	-11.6151
六科	-11.6152
果能	-11.6155
二十斤	-11.6156
輔相	-11.6159
縣西	-11.6159
中夜	-11.616
臘	-11.6163
可恃	-11.6164
民困	-11.6165
宗實	-11.6165
英武	-11.6168
本年免	-11.6171
師還	-11.6175
孝子	-11.6175
帥府	-11.6177
一成化	-11.6186
外議	-11.6188
奏對	-11.619
臨時	-11.619
工科給事中	-11.6198
師旅	-11.6202
敢忘	-11.6205
月二十六日	-11.6208
應州	-11.6208
一帶	-11.6211
莫可	-11.6211
安逺	-11.6214
為御史中丞	-11.6216
胡公	-11.6222
北郊	-11.623
𥙷曰姚	-11.6231
𢎞治六年	-11.6232
建言	-11.6233
任左本年	-11.6233
宿於	-11.6236
親試	-11.624
出境	-11.6242
殿學	-11.6242
哀正	-11.6243
近年	-11.6257
千乘	-11.6259
都督僉事贈	-11.626
閼	-11.626
郎官	-11.6261
非朕	-11.6264
防守	-11.6264
建國	-11.6269
陞右	-11.627
公主下嫁	-11.6272
長公主下嫁駙馬	-11.6273
勘㑹	-11.6274
應用	-11.6276
各白金	-11.6276
故寡人	-11.6276
蔚州	-11.6276
僑	-11.6279
紀年	-11.628
泌	-11.628
姧	-11.6284
遂罷	-11.6287
尚多	-11.6288
餘級	-11.6289
惟在	-11.629
言職	-11.6293
州同知	-11.6294
罝	-11.6294
繼嗣	-11.6295
吕調陽	-11.6295
蠡	-11.6297
淮西	-11.6298
携	-11.6299
羃	-11.6299
正已攝下	-11.6299
擴	-11.63
征夷將軍	-11.63
榮祿大夫	-11.6301
右敬順事上	-11.6301
券	-11.6301
白金三百兩	-11.6301
李孜省	-11.6302
灰	-11.6302
太監張	-11.6302
脂	-11.6302
請罪	-11.6302
低	-11.6302
張商英	-11.6302
杯	-11.6303
故謂之	-11.6303
辛丒	-11.6303
吕不韋	-11.6304
翰林侍讀	-11.6304
餅	-11.6304
匕首	-11.6304
牝	-11.6304
見秦策	-11.6304
莭	-11.6305
祓	-11.6305
直𨽻鳯陽人	-11.6305
柩	-11.6305
戱	-11.6306
合祭天地	-11.6306
耘	-11.6306
羊腸	-11.6306
不曉	-11.6306
宣大軍務	-11.6307
俞通海	-11.6307
蔡卞	-11.6307
洛索	-11.6307
臬	-11.6308
迯	-11.6308
箝	-11.6309
鰲	-11.6309
怙	-11.6309
踏	-11.6309
褥	-11.6309
皂	-11.6309
盧多遜	-11.6309
吠	-11.6309
衿	-11.631
洒	-11.631
當此之時	-11.631
彦澤	-11.631
肘	-11.631
扈駕	-11.631
康定	-11.6311
療	-11.6311
王嵗支本色禄米一萬石	-11.6312
總督兩廣	-11.6312
范百祿	-11.6312
擿	-11.6312
范睢	-11.6312
年任十三年致仕	-11.6313
唐虞之	-11.6313
刷	-11.6313
瓜	-11.6313
媒	-11.6313
俞綱	-11.6313
韃靼	-11.6313
瓢	-11.6313
豺狼	-11.6314
張士誠	-11.6314
煙	-11.6314
㕘贊	-11.6314
燥	-11.6314
愛憎	-11.6315
審官院	-11.6315
煖	-11.6315
縫	-11.6315
旌旗	-11.6315
烏梁海	-11.6315
彞	-11.6315
屡	-11.6316
直𨽻合肥人	-11.6316
驕奢	-11.6316
詳酌	-11.6316
金忠	-11.6316
櫓	-11.6316
康定元年	-11.6317
迺	-11.6317
慶州	-11.6317
讃	-11.6317
挽	-11.6317
偵	-11.6317
拱手	-11.6317
慷慨	-11.6318
䡖	-11.6318
仲舒	-11.6318
凡百	-11.6318
躁	-11.6318
張璁	-11.6319
荼毒	-11.6319
權三司使	-11.6319
月恭校上	-11.6319
億兆	-11.6319
進讀	-11.6319
斫	-11.6319
特奏名	-11.6319
冒籍	-11.6319
攄	-11.6319
媿	-11.6319
蕪	-11.6319
勲戚	-11.632
段干	-11.632
馮忌	-11.632
縣東北	-11.632
楊璟	-11.632
闔閭	-11.632
繭	-11.632
昀	-11.6321
無乃不可乎	-11.6321
藁	-11.6321
繄	-11.6321
孫士毅	-11.6321
陸費墀	-11.6321
吁	-11.6322
爚	-11.6322
轉運判官	-11.6322
狐偃	-11.6322
涼國公	-11.6323
悴	-11.6323
纛	-11.6323
熹	-11.6323
騎刼	-11.6324
迓	-11.6324
工匠	-11.6324
舖	-11.6324
調外任	-11.6324
米脂	-11.6325
煌	-11.6325
姿	-11.6325
佛像	-11.6326
鎭	-11.6326
㬱	-11.6326
罷疲	-11.6326
濮安懿王	-11.6327
加兼太子太師	-11.6327
斡齊爾	-11.6327
郭勛	-11.6328
跨	-11.6328
一百九十	-11.6328
項羽	-11.6329
正曰無據	-11.633
月二十八日	-11.6331
神宗皇帝	-11.6332
不亦可乎	-11.6332
禮部郎中	-11.6332
金牌	-11.6332
羊酒	-11.6333
陳升之	-11.6333
金華	-11.6333
桓温	-11.6334
賽音	-11.6334
安撫司	-11.6334
陳彭年	-11.6335
按史傳	-11.6335
明正其罪	-11.6335
鄭彊	-11.6335
鼓吹	-11.6336
提要	-11.6337
背盟	-11.6337
瑪哈	-11.6339
知秦州	-11.6339
招集	-11.634
禦敵	-11.634
聖躬	-11.634
劉洎	-11.634
熟慮	-11.6341
臨淮	-11.6341
好事者	-11.6341
玉篇	-11.6341
媵	-11.6341
源流	-11.6343
蹤	-11.6343
八十五	-11.6343
每員	-11.6343
刺客	-11.6343
桓叔	-11.6344
搆難	-11.6345
韶州	-11.6346
扶持	-11.6348
武藝	-11.6349
流俗	-11.6349
李園	-11.6349
永豐	-11.6349
為太師	-11.635
肆赦	-11.635
安僖王	-11.6351
托克	-11.6351
漢髙祖	-11.6353
解題	-11.6353
聚兵	-11.6357
國君	-11.6357
上不豫	-11.6358
叔敖	-11.6358
仲堪	-11.6359
承裕	-11.636
幽燕	-11.6361
救援	-11.6362
屈原	-11.6363
齊伐宋	-11.6363
昌化	-11.6364
既退	-11.6365
諸韻	-11.6366
盛庸	-11.6366
林俊	-11.6366
度量	-11.6367
墓志	-11.6369
卑辭	-11.637
二十三年任右	-11.637
原吉	-11.6371
作詩	-11.6372
冗兵	-11.6372
不能制	-11.6372
保州	-11.6374
侍御	-11.6374
東山	-11.6376
可嘉	-11.6376
部曲	-11.6376
不遑	-11.6376
致治之	-11.6376
易儲	-11.6377
阿附	-11.6378
本府	-11.6379
黎庶	-11.6381
寛仁	-11.6381
江都	-11.6381
余一人	-11.6383
庶務	-11.6386
條約	-11.6387
禁約	-11.6387
南宋	-11.639
老弱	-11.639
聖諭	-11.6391
改兵部	-11.6392
四維	-11.6393
南渡	-11.6394
成化四年	-11.6395
李彬	-11.6397
補音似	-11.6399
博學	-11.6399
永夀	-11.6401
承襲	-11.6404
池州	-11.6404
邊方	-11.6404
巴爾	-11.6405
魏牟	-11.6406
傅説	-11.6406
是夕	-11.6406
爵禄	-11.6413
猶豫	-11.6413
丁度	-11.6414
𢎞治十一年	-11.6417
革職	-11.6418
無辜	-11.6419
守謙	-11.6421
箕子	-11.6425
雲陽	-11.6426
髙廟	-11.6427
為妻	-11.6429
哉夫	-11.6431
哉今	-11.6432
巴噶	-11.6435
章句	-11.6436
大駭	-11.6439
王鞏	-11.644
邊患	-11.644
聲息	-11.6441
財利	-11.6443
乗間	-11.6444
十三年任右	-11.6447
内庫	-11.6447
上大怒	-11.6448
絳州	-11.645
韓梁	-11.6453
疑惑	-11.6455
優禮	-11.6457
變化	-11.6458
𢎞治十三年	-11.6459
保權	-11.6459
吏部尚書加	-11.6459
病死	-11.646
趙奢	-11.6463
徳澤	-11.6465
渝盟	-11.6466
老矣	-11.6466
退保	-11.6467
戍兵	-11.6469
成湯	-11.647
離心	-11.6472
尊賢	-11.6475
大宰	-11.6478
肆其	-11.6483
左都督贈	-11.6484
除害	-11.6486
音洛	-11.6486
理當	-11.6486
千段	-11.6492
彭公	-11.6493
迎合	-11.6494
兵革	-11.6498
四拜	-11.6498
善政	-11.6504
引對	-11.6505
上從之	-11.6505
本此下有	-11.6506
宫他	-11.6508
鄜州	-11.651
邪佞	-11.6511
聖聽	-11.6512
各色	-11.6514
回京	-11.6514
舊規	-11.6522
講論	-11.6522
贈尚書	-11.6523
執法	-11.6523
詳議	-11.6526
正統中	-11.6527
都總管	-11.6528
五年正月	-11.653
劉龍	-11.653
樂工	-11.6532
衡州	-11.6532
便是	-11.6534
荘王	-11.6541
親臨	-11.6544
諸物	-11.6546
應役	-11.655
部下	-11.6551
以聞上	-11.6553
八尺	-11.6554
事件	-11.6556
世主	-11.6557
既不能	-11.6564
期年	-11.6571
十三年卒	-11.6577
分布	-11.6579
宜春	-11.6579
後悔	-11.658
收服	-11.6581
鄭府	-11.6587
一矢	-11.6589
而食之	-11.6592
侯子元年	-11.6595
五年致仕	-11.6595
謁之	-11.6602
伏見	-11.6604
衍楚	-11.6604
贈少師	-11.6605
謹慎	-11.6607
非敢	-11.6612
孝廟	-11.6613
官属	-11.6615
臺官	-11.6618
新樂	-11.6621
越州	-11.6628
享國	-11.6628
初四日	-11.6642
理財	-11.6644
以萬計	-11.6645
輔國	-11.6649
西蜀	-11.665
十年任左	-11.6651
九年卒	-11.6652
固納	-11.6652
圖書	-11.6653
今王勤	-11.6662
正殿	-11.6666
誠心	-11.6666
會于	-11.6667
秦攻魏	-11.6667
既久	-11.6669
反下音	-11.6673
直𨽻吳縣人	-11.6688
稱㫖	-11.6691
攻南陽	-11.6693
古來	-11.6697
千五百石	-11.6699
補音亡	-11.6699
擾民	-11.67
三十錠	-11.67
南城	-11.6701
被擒	-11.6703
昨日	-11.6703
初七日	-11.6704
一洪武	-11.6706
每一	-11.6708
每名	-11.671
草詔	-11.671
豉反	-11.671
請誅	-11.6719
願與	-11.6724
朝議	-11.6729
閏十一月	-11.673
楊善	-11.6731
從事於	-11.6732
成化八年	-11.6735
勿令	-11.6735
成就	-11.6736
天下後世	-11.6743
奔晉	-11.6747
楚大夫	-11.6751
麟府	-11.6754
之故也	-11.6754
月二十七日	-11.6754
還鄉	-11.6756
相顧	-11.6758
任本年免	-11.6763
人教諭	-11.6766
政體	-11.6768
五月詔	-11.6768
三年任四年	-11.677
光禄	-11.6772
臣竊為	-11.6773
用其言	-11.6777
非其人	-11.6778
少詹	-11.6782
徧反	-11.6799
二卷	-11.6799
内外官	-11.68
改刑部	-11.6801
兩漢	-11.6801
吾聞之	-11.6802
千匹	-11.6804
盟誓	-11.6807
審察	-11.681
於邯鄲	-11.6819
後唐	-11.6834
唐書	-11.6836
十有五	-11.6837
有奇	-11.6839
十六人	-11.6842
再戰	-11.6859
洪武十七年	-11.686
不能禁	-11.6864
遑	-11.6867
今来	-11.6872
善射	-11.6876
食禄	-11.688
而棄之	-11.6882
文僖	-11.6887
天順八年	-11.6888
無赦	-11.6891
下營	-11.6892
堅執	-11.6893
内應	-11.6895
下並同	-11.6896
秦王曰善	-11.6898
一德不懈	-11.6898
戰馬	-11.69
民户	-11.6901
十八年任左	-11.6902
誰可	-11.6906
所繫	-11.6906
所難	-11.6907
小心恭慎	-11.6911
苴	-11.6914
右敬事供上	-11.6916
華蓋殿學	-11.6917
潢	-11.6917
鍪	-11.6917
外補	-11.6917
厮殺	-11.6918
鄲	-11.6921
堙	-11.6921
向敏中	-11.6922
吕䝉正	-11.6922
黄庭堅	-11.6923
后妃	-11.6923
騶	-11.6923
豐稔	-11.6923
糶	-11.6923
淶	-11.6924
直𨽻太倉人	-11.6924
嗣進鎮國為	-11.6925
枋	-11.6925
輻	-11.6926
謂趙王曰	-11.6926
酢	-11.6927
西寧侯	-11.6927
楫	-11.6927
奥	-11.6927
佗	-11.6927
江西進賢人	-11.6927
韓傀	-11.6927
輔國將軍	-11.6928
觸讋	-11.6928
𬋩	-11.6928
炤	-11.6928
棼	-11.6928
套	-11.6929
怵	-11.6929
瑁	-11.6929
跋	-11.6929
䞇	-11.6929
櫟	-11.6931
廖永安	-11.6931
屛	-11.6931
羲	-11.6931
埊	-11.6931
橫	-11.6931
湯沐	-11.6931
麑	-11.6932
暦	-11.6932
戕	-11.6932
稀	-11.6933
嵓	-11.6933
大亊記	-11.6933
屯田員外郎	-11.6933
太僕少卿	-11.6933
揣	-11.6933
欽定四庫全書史部五	-11.6933
粥	-11.6933
盥	-11.6933
嘉靖甲辰進士	-11.6933
伊勒都	-11.6934
蹶	-11.6934
羨	-11.6934
澠	-11.6934
哥	-11.6935
伋	-11.6935
大聖皇帝	-11.6935
劉大夏	-11.6935
國子司業	-11.6935
虺	-11.6936
魂	-11.6936
下錦衣獄	-11.6936
邵陵	-11.6936
五國伐秦	-11.6936
太平治迹統類卷	-11.6936
装	-11.6936
鼐爾布哈	-11.6936
鄫	-11.6936
衂	-11.6936
綦	-11.6936
贅	-11.6936
讚	-11.6937
悉聽節制	-11.6937
婿	-11.6937
棐	-11.6937
糗	-11.6937
武清伯	-11.6937
司馬光吕公著	-11.6937
䦨	-11.6938
三國攻秦	-11.6938
各監局	-11.6938
疋綵絹	-11.6938
無嗣除	-11.6939
衘	-11.6939
𠞰	-11.6939
蔬	-11.694
醮	-11.694
榆林	-11.694
照磨	-11.694
潦	-11.694
徭役	-11.694
承運庫	-11.694
直集賢院	-11.694
竢	-11.694
著為令	-11.6941
誂	-11.6941
袋	-11.6941
戰殁	-11.6941
冤	-11.6941
畝	-11.6942
瑩	-11.6942
壌	-11.6942
脆	-11.6942
馮煖	-11.6943
鐘鼓	-11.6943
共攻秦	-11.6944
補音羌	-11.6944
彂	-11.6944
駈	-11.6944
所管	-11.6944
葆	-11.6944
悌	-11.6944
禮科給事中	-11.6944
正曰姚云	-11.6945
劉定之	-11.6945
驚駭	-11.6945
雍熈	-11.6946
杵	-11.6946
裨	-11.6946
簒	-11.6946
澆	-11.6947
君子小人	-11.6947
從征	-11.6947
達延汗	-11.6947
翰林修撰	-11.6947
奬諭	-11.6948
開言路	-11.6948
公子咎	-11.6948
斟	-11.6948
垢	-11.6948
你每	-11.6949
槃	-11.6949
釀	-11.6949
澹	-11.6949
貪暴	-11.6949
酒饌	-11.6949
喚	-11.6949
文武百官	-11.6949
束帛	-11.6949
厘	-11.695
汴梁	-11.695
遹	-11.6951
窺伺	-11.6951
太牢	-11.6951
透	-11.6951
神祗	-11.6951
右温良好樂	-11.6951
隼	-11.6952
紓	-11.6952
囊嘉特	-11.6952
環慶路	-11.6952
狷	-11.6953
剔成	-11.6953
鷄	-11.6953
衛鞅	-11.6953
九疇	-11.6953
團結	-11.6953
據此則	-11.6954
補曰字誤	-11.6954
發運使	-11.6954
曾參	-11.6954
加少傅兼	-11.6954
魄	-11.6955
疫	-11.6955
奮擊	-11.6955
戰艦	-11.6956
駿馬	-11.6956
鄒魯	-11.6956
嬰兒	-11.6956
縑	-11.6956
黶	-11.6956
保安軍	-11.6957
蔣貴	-11.6958
交鋒	-11.6958
厲聲曰	-11.6958
弓手	-11.6959
之讎也	-11.6959
各衙門	-11.6961
弔伐	-11.6961
添設	-11.6962
徽府	-11.6962
左長史	-11.6963
憲廟	-11.6964
西平侯沐英	-11.6965
姧臣	-11.6965
貞觀五年	-11.6965
趙卨	-11.6966
衙前	-11.6966
張齊賢	-11.6966
楊文敏	-11.6968
譬如	-11.6968
陛辭	-11.6968
補音盈	-11.6969
迎駕	-11.6969
營繕	-11.6969
一百石	-11.697
孫叔敖	-11.6971
儀仗	-11.6973
熟户	-11.6975
貢賦	-11.6975
兩月	-11.6975
執珪	-11.6975
羣牧	-11.6976
乂安	-11.6976
張瑛	-11.6979
局掌	-11.6979
如之何	-11.6979
遵化	-11.698
震動	-11.698
荆襄	-11.698
降㫖云	-11.698
薛向	-11.6982
假手	-11.6983
趙簡子	-11.6983
唐介	-11.6983
兼侍讀學士	-11.6983
叔牙	-11.6983
藩鎮	-11.6987
曹操	-11.6988
優容	-11.6989
崔元	-11.6989
晉矦	-11.6991
河南府	-11.6991
無患矣	-11.6992
晉卿	-11.6993
佛教	-11.6993
勞弊	-11.6994
陛下即位	-11.6994
知青州	-11.6995
照依	-11.6997
餓死	-11.6997
外戚	-11.6998
世基	-11.6998
歲月	-11.7
張璧	-11.7001
亡其國	-11.7003
古人云	-11.7005
楊鼎	-11.7006
効力	-11.7008
帶領	-11.7009
趙世家	-11.7009
大防曰	-11.701
周世宗	-11.701
四鄰	-11.7012
所費	-11.7012
彭年	-11.7014
耶抑	-11.7014
臨川	-11.7015
兆民	-11.7019
月給	-11.702
欽哉	-11.7021
取士之	-11.7024
由進士十二年任右	-11.7024
先軫	-11.7024
天祐	-11.7024
鎮戎	-11.7025
道監察御史	-11.7027
華盖殿大學士	-11.7029
永樂五年	-11.703
衡反	-11.7035
分屯	-11.7036
萬夀	-11.7042
建文君	-11.7043
鄂爾多斯之	-11.7045
優施	-11.7045
變色	-11.7047
秦始皇	-11.705
逐路	-11.7054
里克	-11.7057
遂寢	-11.7058
鹽法	-11.7061
刑賞	-11.7061
司直	-11.7061
黎明	-11.7066
懿公	-11.7066
人由進士四年任右	-11.7067
納諫	-11.7068
萬姓	-11.7068
曹元	-11.7068
從謙	-11.7071
程文	-11.7072
未可知	-11.7073
知經筵	-11.7077
以天下為	-11.7078
隆慶二年	-11.7079
太平治迹統𩔖卷	-11.7079
饒州	-11.708
詹事府詹事	-11.7082
一正徳	-11.7084
孝孫	-11.7084
隱云	-11.7087
正其罪	-11.7087
等五人	-11.7088
當今之	-11.7091
再舉	-11.7091
七章	-11.7091
孰能	-11.7095
大壊	-11.7097
先君好	-11.7097
等四人	-11.71
馮元	-11.7101
一變	-11.7101
𥙷曰大事記	-11.7101
其鋒	-11.7101
永清	-11.7103
知延州	-11.7104
雖小	-11.7106
於上前	-11.7108
弇山堂别集卷四十	-11.7108
奸惡	-11.7113
衛人由進士	-11.7114
諸大夫	-11.7115
亦足以	-11.7116
年二十九	-11.7118
忠烈	-11.712
景陽	-11.712
供用	-11.7125
求援	-11.7127
豈特	-11.7128
有也字	-11.7136
萬嵗	-11.7139
後裔	-11.7142
李照	-11.7143
瑞安	-11.7144
索多	-11.7147
四塞	-11.715
至城下	-11.7153
前古	-11.7157
質於秦	-11.716
直𨽻山陽人	-11.7164
閏十二月	-11.7168
弗及	-11.717
嗣正徳	-11.717
監臨	-11.7171
所掠	-11.7173
術數	-11.7173
釐正	-11.7176
進取之	-11.7179
正統四年	-11.718
西邊	-11.7181
自焚	-11.7182
武皇	-11.7183
其父母	-11.7186
嘗觀	-11.7187
發解	-11.7194
嘉靖四十五年	-11.7195
擇日	-11.7195
并力	-11.7195
人君之	-11.72
加太師	-11.7201
先皇帝	-11.7207
近嵗	-11.7208
諭㫖	-11.7209
先登	-11.7209
嫡子	-11.7219
三千六百	-11.7221
溺死	-11.7223
無稽	-11.7224
先卒年	-11.7225
重器	-11.7225
權宜	-11.7227
虛實	-11.7229
從横	-11.723
豈宜	-11.723
為一章	-11.7231
建武	-11.7232
齎詔	-11.7234
自矜	-11.724
補音彼	-11.7241
華葢殿	-11.7243
地震	-11.7247
差去	-11.7248
總帥	-11.7249
唐末	-11.725
洪武三年任	-11.7253
萬萬	-11.7257
生口	-11.7262
西賊	-11.728
祠祭	-11.7282
汗明	-11.7284
嚴禁	-11.7289
游說	-11.7289
右翼	-11.7289
恤民	-11.7293
善良	-11.7295
僅一	-11.7296
封郡王	-11.7297
縣南	-11.7301
自劾	-11.7313
治罪	-11.7316
讀學	-11.7316
畫一	-11.7319
費用	-11.7322
毒反	-11.7328
私意	-11.7339
嘉靖十七年	-11.7341
四年三月	-11.7341
唐叔	-11.7346
聖君	-11.7356
伯父	-11.7356
太宗嘗	-11.7359
可知也	-11.7363
大事記取	-11.7364
鈔四十錠	-11.7364
可憂	-11.7365
朝士	-11.7368
登科	-11.7368
貴溪	-11.7377
州府知府	-11.7378
風聞	-11.7385
刀反	-11.7394
追論	-11.7394
後軍都督府	-11.74
寡人聞之	-11.7412
延安	-11.7412
偏師	-11.7416
太宗深	-11.742
守約	-11.7422
輕敵	-11.7424
本省	-11.7427
於先王	-11.7431
百錠	-11.7438
中以嗣	-11.7444
術士	-11.7453
十二年致仕	-11.7454
鴻臚	-11.7455
年薨孫	-11.7456
不振	-11.746
子産	-11.746
所不及	-11.7462
職任	-11.7479
若果	-11.748
美惡	-11.7486
補曰一本此	-11.7487
顧問	-11.7493
學士承㫖	-11.7507
賈詠	-11.7508
府界	-11.7512
春秋時	-11.7513
之憂也	-11.7518
待我	-11.752
十三嵗	-11.752
餘衆	-11.752
五十八	-11.7523
啻	-11.7528
十二年任右	-11.7536
政治	-11.754
何福	-11.754
月初五日	-11.7541
嘉定	-11.7542
權貴	-11.7547
城邑	-11.7547
由進士十三年任右	-11.7556
仍原兼	-11.7558
不乏	-11.756
兵器	-11.7567
軍職	-11.7568
右危身奉上	-11.7573
孺	-11.7576
肋	-11.7578
甲胄有勞	-11.7581
折衝禦侮	-11.7581
子異人	-11.7582
兌	-11.7582
撒	-11.7583
綺帛	-11.7583
榭	-11.7583
萇	-11.7584
鳩	-11.7584
食亦反	-11.7585
降勅	-11.7585
霑	-11.7588
加上尊號曰	-11.7588
隄	-11.7588
鄳	-11.7589
該監	-11.7589
炅	-11.7591
温仁和	-11.7591
逡	-11.7592
汪鋐	-11.7592
范痤	-11.7592
邃	-11.7592
蒸	-11.7593
柟	-11.7593
右勤學好問	-11.7593
貎	-11.7593
何異	-11.7593
倦而歸	-11.7593
篋	-11.7594
牓	-11.7594
左春坊左諭徳	-11.7594
察哈爾	-11.7594
訛舛	-11.7595
删	-11.7595
巵	-11.7595
孜	-11.7595
瓛	-11.7596
濯	-11.7596
張邦竒	-11.7597
酋豪	-11.7597
尚寶司丞	-11.7597
杏	-11.7597
廷相	-11.7597
公輸般	-11.7598
翥	-11.7598
滎澤	-11.7598
㕘知政事	-11.7599
昬	-11.7599
鋏	-11.7599
狸	-11.7599
猖	-11.7599
炬	-11.7599
焰	-11.76
䆒	-11.76
福建閩縣人	-11.7601
博克達	-11.7601
玉清昭應宫	-11.7601
軒轅	-11.7601
掊	-11.7601
諒毅	-11.7601
銀二百兩	-11.7601
湊	-11.7602
多爾濟	-11.7602
瞑	-11.7602
債	-11.7602
博羅特	-11.7602
賻	-11.7602
磧	-11.7602
瞀	-11.7602
掇	-11.7603
黄子澄	-11.7603
訃	-11.7603
㗖	-11.7603
總小旗	-11.7603
魏文侯	-11.7603
州團練副使	-11.7605
鑕	-11.7605
萬厯十七年任	-11.7605
爪牙	-11.7605
凌遲處死	-11.7605
孔文仲	-11.7605
武清侯	-11.7605
捲	-11.7605
煬	-11.7605
禮部員外郎	-11.7605
脛	-11.7605
右副元帥	-11.7606
嚴仲子	-11.7606
賢良方正	-11.7606
莫測	-11.7607
趙良嗣	-11.7607
鬲	-11.7607
摠	-11.7608
坊場	-11.7608
賄賂	-11.7608
堆	-11.7608
左副元帥	-11.7608
瘦	-11.7609
掛印	-11.7609
剋	-11.761
以都察院左都御史加	-11.761
窟	-11.761
田盼	-11.761
秋毫	-11.761
圃	-11.761
洶洶	-11.761
孚敬	-11.7611
便宜從事	-11.7611
讁	-11.7611
堠	-11.7611
貪殘	-11.7611
壅塞	-11.7611
郇	-11.7611
豫讓	-11.7611
壅蔽	-11.7612
獅	-11.7612
太僕寺卿	-11.7612
頵	-11.7612
喉	-11.7612
腆	-11.7613
縻	-11.7613
不可勝計	-11.7613
璜	-11.7613
天雄軍	-11.7613
醒	-11.7613
伏羌	-11.7614
邊陲	-11.7614
客坐新聞	-11.7614
芈	-11.7614
蕭瑀	-11.7614
旗幟	-11.7614
成陽君	-11.7614
姑宥之	-11.7614
挿	-11.7615
金玦	-11.7615
仇鸞	-11.7615
俘獲	-11.7615
振旅	-11.7615
形迹	-11.7615
將作監丞	-11.7615
咈	-11.7615
宫闈	-11.7615
廏	-11.7615
朞年	-11.7616
直秘閣	-11.7616
歐陽必進	-11.7616
以臣言為	-11.7616
何害	-11.7616
蹯	-11.7617
不知何許人由薦舉	-11.7617
沙丘	-11.7618
弢	-11.7618
莫知所	-11.7618
騷擾	-11.7618
斵	-11.7618
子孫世襲	-11.7618
秃	-11.7618
郭斡	-11.7618
檐	-11.7618
緫管	-11.7619
徐瓊	-11.7619
駐泊	-11.7619
憸	-11.762
閭里	-11.762
錢塘遺事	-11.7621
銃	-11.7621
溫	-11.7621
匠役	-11.7622
弋陽	-11.7622
紹斌	-11.7622
謙溥	-11.7623
削籍	-11.7624
驍勇	-11.7624
宋綬	-11.7624
貞觀七年	-11.7624
為朋黨	-11.7624
藴古	-11.7625
址	-11.7626
鎮巡	-11.7626
李繼隆	-11.7626
曽公亮	-11.7626
岐陽	-11.7627
曹吉祥	-11.7627
宋庠	-11.7628
袁容	-11.7628
侵擾	-11.7628
种放	-11.7629
而攻齊	-11.763
玩好	-11.763
何如對曰	-11.763
曲折	-11.763
隊伍	-11.763
楞	-11.7631
泌陽	-11.7631
巴勒	-11.7631
消息	-11.7632
八表裏	-11.7632
仇讎	-11.7632
嵗課	-11.7632
禬	-11.7633
昏亂	-11.7634
孫沔	-11.7634
九年滿	-11.7634
雙日	-11.7635
七十九	-11.7635
詰責	-11.7635
白溝	-11.7636
􁲰	-11.7636
參贊	-11.7637
叛逆	-11.7637
林希	-11.7637
留滯	-11.7638
司香	-11.7639
驕逸	-11.764
䕶衞	-11.7641
編脩	-11.7641
斥逐	-11.7642
部郎中	-11.7642
三十卷	-11.7643
必敗矣	-11.7643
星夜	-11.7644
鞫問	-11.7645
勸農	-11.7645
察訪	-11.7645
諸葛	-11.7646
踈逺	-11.7646
離散	-11.7646
祖宗以來	-11.7646
嘉靖末	-11.7647
立后	-11.7647
時不可考	-11.7648
都轉運使	-11.7648
明鎬	-11.765
字史同	-11.7651
内閣大臣	-11.7651
率所部	-11.7652
𫝊㫖	-11.7653
嫌疑	-11.7654
欒盈	-11.7654
封彌	-11.7656
丹朱	-11.7656
城隍	-11.7657
補補曰史	-11.7658
幕府	-11.766
勞苦	-11.766
王文恪	-11.7661
從五品	-11.7661
承翰	-11.7663
十五年卒	-11.7664
引咎	-11.7665
仁宗朝	-11.7666
田先生	-11.7667
酌中	-11.7669
藝文	-11.767
不失其	-11.7671
講讀官	-11.7671
蕃漢	-11.7672
慶歴	-11.7674
按察	-11.7677
顧佐	-11.7678
安逺侯	-11.7678
㕘奏	-11.768
遷徙	-11.7682
戒諭	-11.7683
隂結	-11.7683
臨陣	-11.7683
破敵	-11.7683
農夫	-11.7685
序次	-11.7685
友直	-11.7686
勿憂	-11.7689
又為公	-11.7689
彌逺	-11.769
左翼	-11.769
游士	-11.769
勘合	-11.7692
華夷	-11.7692
起程	-11.7693
同出身	-11.7695
孝恭	-11.7697
故王不如	-11.7697
補曰當作	-11.7697
范氏	-11.7698
嘉靖八年	-11.7699
臣愚以為	-11.7699
應付	-11.7699
常熟	-11.77
在魯僖	-11.77
䇿題	-11.7701
中貴人	-11.7701
聖體	-11.7704
肅清	-11.7704
唐室	-11.7709
八十三	-11.7709
車里	-11.7712
班次	-11.7713
為賊所	-11.7713
威嚴	-11.7714
員名	-11.7714
在其中	-11.7715
鄧州	-11.7715
謂穰侯	-11.7717
解體	-11.7717
諸囯	-11.7719
由監生	-11.7723
息錢	-11.7724
忠勤	-11.7726
不諳	-11.7727
銀二十兩	-11.773
賊勢	-11.7732
三百里	-11.7733
蜀主	-11.7736
子囊	-11.774
施恩	-11.774
戰囯	-11.7742
朝野	-11.7743
應昌	-11.7748
貢舉人	-11.775
贈諡	-11.7755
石門	-11.776
不逞	-11.7761
軍餉	-11.7772
正統六年	-11.7773
直𨽻華亭人由進士	-11.7774
互市	-11.7775
太宗曰朕	-11.7777
嬰城	-11.7779
豈容	-11.778
梓人	-11.7781
無子弟	-11.7781
厚薄	-11.7782
撫定	-11.7782
白衣	-11.7784
嘉靖十年	-11.7787
名譽	-11.7788
專政	-11.7789
未審	-11.7791
欺君	-11.7794
七年致仕	-11.7795
聿反	-11.7799
朝廷之意	-11.78
由進士三十年任	-11.7803
制置使	-11.7808
對曰陛下	-11.7809
樂器	-11.7811
能否	-11.7813
孫奭	-11.7817
澤州	-11.7818
東垣	-11.7822
洪進	-11.7823
騎士	-11.7824
出榜	-11.7824
免罪	-11.7829
各得其	-11.783
篇注	-11.7832
而相之	-11.7834
十六年薨子	-11.7836
家財	-11.7838
内藏	-11.7839
征西	-11.7845
幸甚	-11.7845
懐逺	-11.7846
府長史	-11.7851
由進士元年任右	-11.7851
四年五月	-11.7852
以軍法	-11.7854
異端	-11.7854
即位之初	-11.7867
正徳初	-11.7872
相印	-11.7878
岷王	-11.788
宫門	-11.7884
上崩	-11.7885
到京	-11.7885
攻圍	-11.7886
長陵	-11.7887
拜謝	-11.789
憂勞	-11.789
爵賞	-11.7891
撫安	-11.7896
僖敏	-11.7896
精神	-11.7901
考功	-11.7905
名於天下	-11.791
國都	-11.7912
勿出	-11.7912
五千餘	-11.7916
一百疋	-11.7916
厚賂	-11.7919
入翰林	-11.7919
稱疾	-11.7919
庶乎	-11.7924
曽祖	-11.7924
李慶	-11.7934
鎮定	-11.7936
由進士十八年任右	-11.7938
二百五十	-11.7947
甘言	-11.7948
陞左	-11.7948
薨夀六十	-11.7951
王韶	-11.7954
重慶	-11.7955
庶民	-11.7958
人謂之	-11.7959
恩義	-11.7959
天順二年	-11.7961
會議	-11.7966
永樂七年	-11.7972
邕	-11.7973
情偽	-11.7974
髙註	-11.798
三表裏	-11.7982
三年八月	-11.7984
金織	-11.7991
道里	-11.7992
景泰四年	-11.7993
無此字	-11.7995
隻反	-11.7998
閏三月	-11.7998
臨安府	-11.8018
計者不	-11.8028
鄭氏	-11.8032
嘉靖丙辰	-11.8045
正德五年	-11.8055
二萬餘	-11.8062
大學士楊廷和	-11.8067
面諭	-11.807
論語曰	-11.8073
六十四	-11.808
同僉	-11.8084
五百斤	-11.8092
藩臣	-11.8107
七十四	-11.8112
建文初	-11.8119
號稱	-11.8121
京東西	-11.8121
諸州軍	-11.8135
武安君曰	-11.8137
洪熙	-11.8138
嘉靖乙未進士	-11.8138
齎勅	-11.8147
變法	-11.8152
小説	-11.8156
三十日	-11.8159
月二十日	-11.8161
濟西	-11.8166
可謂能	-11.8171
正徳中以	-11.8173
出閣	-11.8185
遣使來	-11.8191
百工	-11.8193
未任卒	-11.8196
䕫州	-11.8203
伏地	-11.8203
惡於秦	-11.8208
一本標	-11.8209
國之政	-11.8212
讜	-11.822
蟒衣	-11.8236
七十一	-11.8241
思所以	-11.8255
克勤	-11.8256
城堡	-11.8264
懐簡	-11.8266
不足道	-11.8268
復爵	-11.8269
未得其	-11.8279
宐	-11.8279
詳内閣嘉靖	-11.8282
終篇同	-11.8283
諫院	-11.8283
反又如字	-11.8286
博聞多能	-11.8288
致果殺敵	-11.8288
十三道御史	-11.8288
公孫𢎞	-11.8289
以禮書兼任	-11.8289
壬	-11.8292
睪	-11.8292
特許	-11.8293
諸蠻	-11.8293
縋	-11.8295
鼒	-11.8297
守阯	-11.8299
衽	-11.8299
耜	-11.8301
洪武初年薦舉	-11.8301
舫	-11.8301
踦	-11.8301
蕭鎡	-11.8301
訑	-11.8302
趙羾	-11.8303
常卿掌監事	-11.8303
扑	-11.8303
臏	-11.8303
直𨽻臨淮人	-11.8303
五千石	-11.8303
曹國公李景隆	-11.8304
爱	-11.8304
萬厯六年	-11.8304
柞	-11.8304
王崇古	-11.8305
蟻	-11.8305
紐	-11.8305
洧	-11.8305
汎	-11.8305
珵	-11.8306
肺	-11.8306
沐晟	-11.8307
訹	-11.8307
冢	-11.8307
皇祐元年	-11.8307
總督宣大	-11.8307
杌	-11.8307
朝奉郎	-11.8307
穣	-11.8307
吏部左侍郎兼翰林院學士	-11.8308
溶	-11.8308
戻	-11.8308
愠	-11.8308
灑	-11.8309
闡	-11.8309
直𨽻丹徒人	-11.8309
中山必	-11.8309
謂新城君	-11.8309
涪	-11.831
嘉靖癸未進士	-11.831
遣官祭	-11.831
淨	-11.8311
盔甲	-11.8311
盱眙	-11.8311
方城之外	-11.8312
𣣔	-11.8312
剏	-11.8312
慱	-11.8312
直𨽻巢縣人	-11.8312
治書侍御史	-11.8312
簪	-11.8313
鈔三百錠	-11.8313
點	-11.8313
總督宣大軍務	-11.8313
領隊指揮	-11.8313
鍊	-11.8313
鞮	-11.8314
巽	-11.8314
戊戍	-11.8314
彫	-11.8314
欝	-11.8314
撾	-11.8314
緱	-11.8314
荆湖南路	-11.8315
穹	-11.8315
紫荆	-11.8315
胡世寧	-11.8315
檟	-11.8315
講武殿	-11.8315
惋	-11.8315
河南靈寳人	-11.8315
鈐	-11.8315
鳶	-11.8315
酖	-11.8315
啼	-11.8315
虗	-11.8315
侁	-11.8316
薔	-11.8316
曽棨	-11.8316
劓	-11.8316
譔	-11.8316
汪俊	-11.8317
天順甲申進士𢎞治	-11.8317
檻	-11.8317
太保太子太傅	-11.8317
濂	-11.8317
轉運副使	-11.8317
商鞅	-11.8317
炎帝	-11.8318
臨潼	-11.8318
肱	-11.8318
征西將軍	-11.8318
礦	-11.8318
湼	-11.8318
轡	-11.8318
吾學編	-11.8319
宣徽北院使	-11.8319
挂	-11.8319
魏桓子	-11.8319
溉	-11.8319
俺	-11.832
愉	-11.832
于肅愍	-11.832
優劣	-11.832
擅作威福	-11.832
崇政殿説書	-11.832
衛千户	-11.832
侫	-11.832
臺榭	-11.8321
郡王初封嵗支禄米二千石襲封一千石	-11.8321
遶	-11.8321
編排	-11.8321
珤	-11.8321
倉廩	-11.8321
左少監	-11.8321
紈	-11.8321
俳	-11.8322
烽	-11.8322
盎	-11.8322
邯鄲之難	-11.8322
禁錮	-11.8322
兢兢	-11.8323
沴	-11.8323
岌	-11.8323
掄	-11.8323
祧	-11.8323
右翼三萬人	-11.8323
閥	-11.8324
孱	-11.8324
戩	-11.8324
鄧綰	-11.8324
真宗皇帝	-11.8324
縂	-11.8324
虹	-11.8324
殤	-11.8324
腦	-11.8325
𢎞文館學士	-11.8325
畋獵	-11.8325
亹	-11.8325
曾公亮	-11.8326
肩輿	-11.8326
砂	-11.8326
秣	-11.8326
懽盟	-11.8327
逗遛	-11.8327
趙挺之	-11.8327
典簿	-11.8327
榛	-11.8327
歳幣	-11.8327
麋	-11.8327
跌	-11.8327
兵馬指揮	-11.8328
屯駐	-11.8328
針	-11.8328
單襄公	-11.8329
張璪	-11.8329
粮草	-11.8329
𢷬	-11.8329
贛	-11.8329
監押	-11.8329
乳母	-11.8329
浚儀	-11.833
凛	-11.833
三省樞宻院	-11.833
范文子	-11.833
詐偽	-11.833
扣肯	-11.8331
疆土	-11.8331
塹	-11.8331
根究	-11.8331
掩襲	-11.8331
蕃落	-11.8331
鳥獸	-11.8332
上尊諡曰孝	-11.8332
韋氏	-11.8333
爛	-11.8333
清逺侯王友	-11.8333
字疑衍	-11.8333
公子重耳	-11.8333
庭機	-11.8333
粱	-11.8334
弓弩	-11.8334
鄭戩	-11.8334
財貨	-11.8334
吏部流内銓	-11.8334
束手	-11.8334
懟	-11.8336
歌舞	-11.8336
吕甥	-11.8336
宋琪	-11.8336
廷瓉	-11.8336
禴	-11.8336
馬一匹	-11.8337
虎狼	-11.8337
閽	-11.8338
聚斂	-11.8338
䝉古地方	-11.8338
草塲	-11.8339
官軍人等	-11.8339
洪鍾	-11.8339
貞觀六年	-11.834
司馬貞	-11.834
延禧	-11.834
豢	-11.8341
管子對曰	-11.8341
裁抑	-11.8341
忠孝軍	-11.8341
竇建徳	-11.8342
瑢	-11.8343
伏惟陛下	-11.8343
平宋録	-11.8343
封駮	-11.8343
校閱	-11.8344
阿嚕克台	-11.8344
物價	-11.8344
鍼	-11.8345
巴蜀	-11.8345
桂陵	-11.8345
篇註	-11.8345
響	-11.8346
佩魚	-11.8346
彗星	-11.8346
鶉	-11.8346
權御史中丞	-11.8347
舍人院	-11.8347
堂堂	-11.8347
一千五百石	-11.8347
槨	-11.8348
太湖	-11.8348
懇切	-11.8348
乾祐	-11.835
知陳州	-11.835
犬戎	-11.835
秋九月	-11.8351
貞觀元年	-11.8351
獻俘	-11.8352
歃	-11.8353
該科	-11.8353
二百兩	-11.8354
居無何	-11.8354
吉甫	-11.8354
喬新	-11.8355
恭簡王	-11.8355
張詠	-11.8356
郭偃	-11.8356
切齒	-11.8357
李景隆	-11.8357
知慶州	-11.8357
屬羌	-11.8358
下有缺文	-11.8358
愚按昔	-11.8359
犯顔	-11.836
虞度	-11.8361
入閤	-11.8361
狄騎	-11.8362
李文正	-11.8362
詞頭	-11.8362
補音敕	-11.8362
秬黍	-11.8363
去聲後同	-11.8363
挾私	-11.8364
夏禹	-11.8365
殿庭	-11.8365
分析	-11.8366
山崩	-11.8367
秦攻齊	-11.8367
乏食	-11.8368
削奪	-11.8368
黔中	-11.8369
睢陽	-11.8369
狗馬	-11.837
萬邦	-11.8371
拘留	-11.8372
文舘	-11.8372
石普	-11.8374
依前官	-11.8375
元逵	-11.8375
楚王聞之	-11.8376
士遜	-11.8377
前件	-11.8377
容受	-11.8378
帶甲	-11.8381
應募	-11.8384
衛徵	-11.8386
堂吏	-11.8387
李迪	-11.8387
經畫	-11.8387
察罕	-11.8388
物事也	-11.8389
傅㑹	-11.8391
正曰正義云	-11.8391
辭不受	-11.8392
彰徳	-11.8392
隨征	-11.8392
吕原	-11.8393
無如之何	-11.8394
奉施行	-11.8397
等率兵	-11.8398
甘心	-11.8401
由舉人才	-11.8401
此其所以	-11.8402
乾元	-11.8402
士衡	-11.8403
等六人	-11.8403
閣務	-11.8403
日夕	-11.8405
曰何也曰	-11.8409
田野	-11.8409
未暇	-11.8412
取信於	-11.8412
韓倉	-11.8415
上然之	-11.842
進加再以少保兼	-11.8421
千二百黍	-11.8423
雅樂	-11.8425
永樂間	-11.8425
元勲	-11.8426
白米	-11.8427
為邊患	-11.8427
萬一有	-11.8429
托音	-11.843
天順初	-11.843
不懌	-11.8431
專權	-11.8433
人姓名	-11.8433
賈唐	-11.8435
知樞密院	-11.8435
常平章	-11.8436
相距	-11.8439
亦明矣	-11.8441
玄齡等	-11.8444
震恐	-11.8445
執迷	-11.8449
一人而已	-11.845
恩例	-11.845
其畧曰	-11.8453
龍江	-11.8454
則可矣	-11.8454
遣使諭	-11.8456
貪利	-11.8456
對策	-11.8456
臘反	-11.8457
山界	-11.8457
大司徒	-11.8465
宜速	-11.8465
失律	-11.8466
率土	-11.8467
王噲	-11.8468
恩威	-11.847
古昔	-11.8472
水寨	-11.8473
宫殿	-11.8474
江海	-11.8475
天順中	-11.8476
綏徳	-11.8483
祈請	-11.8485
酒酣	-11.8487
右少監	-11.8487
子粒	-11.8489
深慮	-11.8491
戎服	-11.8492
躬行	-11.8492
七萬	-11.8493
趙元昊	-11.8497
多遜	-11.85
端簡	-11.85
侵地	-11.8503
蕭何	-11.8504
只是	-11.8505
字仲	-11.8509
議者謂	-11.8519
物料	-11.8519
指揮千百户	-11.852
法律	-11.852
王曰善因	-11.8522
喪地	-11.8522
仁厚	-11.8524
無益於	-11.8525
宣仁	-11.8526
謝罪	-11.8526
除拜	-11.8534
八十八	-11.8542
放歸	-11.8542
呉元年	-11.8544
仲舉	-11.8547
深察	-11.8549
勸講	-11.8552
三省言	-11.8558
致討	-11.8569
𥙷𥙷曰	-11.857
西征	-11.857
甚急	-11.8571
補補曰姚	-11.8572
茍且	-11.8579
冬十二月	-11.858
不法事	-11.8582
莊惠王	-11.8591
即此人	-11.8605
四百餘	-11.8606
八年三月	-11.8612
稱疾不	-11.8616
疾病	-11.8623
力役	-11.8631
秦武王	-11.8632
莊懿	-11.8644
寳器	-11.8649
懿安	-11.8671
俯伏	-11.8672
僉書	-11.8675
東萊	-11.869
不貲	-11.8693
經度	-11.8697
部屬	-11.87
括地志云	-11.8702
恭順侯	-11.8703
試録	-11.871
威寧	-11.8712
甲士	-11.8721
江西南昌人由進士	-11.8722
隆慶三年	-11.8736
宿州	-11.8742
萬代	-11.8752
諸弟	-11.8775
城壁	-11.8776
民之所	-11.8777
外廷	-11.8778
洪武二年任	-11.8786
呉越	-11.8794
百倍	-11.8803
制誥	-11.8805
人由國子生	-11.8808
六百石	-11.8822
知樞宻院	-11.8824
上表乞	-11.8824
正統二年	-11.8835
孰可	-11.8836
堅城	-11.8844
右柱國	-11.8849
武英殿學	-11.8855
開科	-11.8885
武穆	-11.8886
五年春	-11.8905
對曰昔	-11.8906
𢎞治八年	-11.8908
洪武六年	-11.8915
萬餘衆	-11.8924
支期曰	-11.8927
宣示	-11.8937
十六疋	-11.8941
姚云一	-11.8946
財力	-11.8965
伶	-11.8974
我輩	-11.8986
刑科給事中	-11.8988
莊僖	-11.899
成化十二年	-11.8995
廊廟	-11.8996
台吉弟兄	-11.9005
康惠	-11.9021
右俱未中早夭	-11.9021
洪武九年	-11.9027
兵三萬	-11.904
拱辰	-11.904
右守禮執義	-11.9044
中書左丞	-11.9044
西湖	-11.9046
瑴	-11.9051
蜃	-11.9055
葵	-11.9059
沆	-11.906
酒食	-11.9061
棨	-11.9063
㭿	-11.9066
滽	-11.9068
兀	-11.9069
酸棗	-11.9069
彭汝礪	-11.907
奚恤	-11.907
佻	-11.907
肄業	-11.9071
碭	-11.9071
紇	-11.9071
筑	-11.9072
開封尹	-11.9072
景泰辛未	-11.9072
眚	-11.9073
冊立為皇后	-11.9073
靖海侯	-11.9073
存亡之機	-11.9073
欤	-11.9074
虵	-11.9074
服闋	-11.9074
鋤	-11.9074
和碩齊	-11.9074
祕	-11.9075
吏部左侍郎翰林院學士	-11.9075
匙	-11.9075
躐	-11.9076
𢎞治壬戌進士嘉靖	-11.9076
蟒龍	-11.9077
陳以勤	-11.9077
𢎞治庚戌進士嘉靖	-11.9077
威寧伯	-11.9077
郛	-11.9078
朱希周	-11.9078
帝嚳	-11.9078
茹瑺	-11.9079
銛	-11.9079
笠	-11.9079
楊文襄一清	-11.9079
這般	-11.9079
順天鄉試	-11.9079
流内銓	-11.9079
掌書記	-11.9079
筋	-11.908
曳	-11.908
溍	-11.908
權叅政	-11.908
喀爾喀	-11.908
有賢聲	-11.908
鶚	-11.908
晴	-11.908
刑部員外郎	-11.908
匝	-11.908
鏸	-11.908
熈寜	-11.908
簮	-11.908
湣	-11.9081
請謁	-11.9081
芬	-11.9081
許讚	-11.9081
矰	-11.9081
禮部奏名	-11.9081
大赦天下	-11.9082
儐	-11.9082
應天上元	-11.9082
躓	-11.9082
王一寧	-11.9082
泠	-11.9082
蠱	-11.9082
澠池	-11.9083
六部尚書	-11.9083
鄞	-11.9083
心膂	-11.9083
汨	-11.9083
永樂甲申	-11.9083
穏	-11.9083
夏文愍	-11.9083
抎	-11.9083
椽	-11.9083
李時勉	-11.9083
骸	-11.9083
浙江山隂人由進士	-11.9083
錢習禮	-11.9084
喙	-11.9084
官員人等	-11.9084
浙江淳安人	-11.9084
八百石奉國將軍嵗支禄米六百石	-11.9084
慊	-11.9084
通直郎	-11.9085
劌	-11.9085
㢮	-11.9085
今從史	-11.9085
由進士二十九年任右	-11.9085
刈	-11.9085
寤	-11.9085
惴惴	-11.9085
蘇易簡	-11.9085
黧	-11.9085
椹	-11.9086
暘	-11.9086
琅	-11.9086
啗	-11.9086
頓首曰	-11.9086
蠟	-11.9087
趾	-11.9087
壬戍	-11.9087
煉	-11.9087
笙	-11.9087
撫按官	-11.9087
跛	-11.9087
陜西咸寧人	-11.9087
脾	-11.9087
紵絲紗羅	-11.9087
何㮚	-11.9087
嬉	-11.9087
净軍	-11.9087
譙	-11.9087
肘腋	-11.9088
浴	-11.9088
驁	-11.9088
京兆尹	-11.9088
閔珪	-11.9088
侵盗	-11.9089
太僕卿	-11.9089
徐公階	-11.9089
洪武三十一年	-11.9089
天黿	-11.9089
把總	-11.9089
瀝	-11.9089
睿斷	-11.9089
都察院右僉都御史	-11.9089
何面目	-11.9089
自古帝王	-11.909
非忠臣也	-11.909
疏辭	-11.909
盃	-11.909
岑文本	-11.909
工部員外郎	-11.909
妻孥	-11.909
内傳作	-11.909
瓦齊爾達喇達賴喇嘛	-11.909
龕	-11.909
堰	-11.909
樞宻直學士	-11.9091
蠱惑	-11.9091
錢若水	-11.9091
白金百兩	-11.9091
樵	-11.9091
凟	-11.9091
揉	-11.9091
糧餉	-11.9091
甘泉	-11.9091
彗	-11.9091
宰桑	-11.9091
螻	-11.9091
様	-11.9091
攫	-11.9091
新建伯	-11.9091
光禄卿	-11.9092
邦竒	-11.9092
睡	-11.9092
伊喇	-11.9092
人及第出身	-11.9092
醬	-11.9092
片紙	-11.9092
少師少傅少保	-11.9092
緘黙	-11.9092
璵	-11.9093
吉凶	-11.9093
讌	-11.9093
楽	-11.9093
皎	-11.9094
八座	-11.9094
中軍都督僉事	-11.9094
椎	-11.9094
圍晉陽	-11.9094
户部員外郎	-11.9095
走馬承受	-11.9095
彈劾	-11.9095
牙校	-11.9095
閙	-11.9095
埃	-11.9096
幷	-11.9096
芟	-11.9096
弧	-11.9096
悸	-11.9096
賠	-11.9096
啄	-11.9096
呈獻	-11.9097
央	-11.9097
狂悖	-11.9097
侍經筵	-11.9097
謂近臣曰	-11.9097
守備南京	-11.9097
永謝布	-11.9097
漿	-11.9097
紏	-11.9098
仁贍	-11.9098
娘	-11.9098
詣軍前	-11.9098
格哷	-11.9098
歳輸	-11.9098
弇	-11.9098
成化丙戌	-11.9098
屑	-11.9098
亷頗	-11.9098
峙	-11.9099
溝壑	-11.9099
烏陵思謀	-11.9099
無忌憚	-11.9099
弓箭	-11.9099
武安侯鄭亨	-11.91
起居舎人	-11.91
髙郵	-11.91
採訪	-11.91
隋文帝	-11.9101
叩拜	-11.9101
犀帶	-11.9101
虞世南	-11.9101
虧損	-11.9101
葉清臣	-11.9101
企生	-11.9101
廨	-11.9101
裁減	-11.9101
猜忌	-11.9101
阿嘍罕	-11.9101
長音掌	-11.9102
畎	-11.9102
㑹昌侯	-11.9102
目覩	-11.9103
激切	-11.9103
葭	-11.9103
洪武二十三年	-11.9103
左監丞	-11.9103
罷疲同	-11.9104
恭和王	-11.9104
李若水	-11.9104
粢	-11.9104
慨然	-11.9104
娣	-11.9104
幽薊	-11.9104
飲馬河	-11.9105
館伴	-11.9105
怡	-11.9105
明正典刑	-11.9106
陳瓘	-11.9107
老㓜	-11.9107
左拾遺	-11.9107
禇遂良	-11.9107
臣謹按	-11.9107
南漢主	-11.9107
枝葉	-11.9107
山後人	-11.9107
藥石	-11.9108
校勘	-11.9108
額森汗	-11.9108
諏	-11.9108
湧	-11.9108
釋迦牟尼佛	-11.9108
休戚	-11.9108
聖喇嘛	-11.9109
戰不利	-11.911
佩刀	-11.911
兼中書令	-11.911
廵檢	-11.9111
新序作	-11.9111
盆	-11.9111
教誨	-11.9111
序班	-11.9112
貞觀十四年	-11.9112
搢	-11.9114
虜獲	-11.9114
所恃者	-11.9114
規模	-11.9114
庻幾	-11.9114
莫大於	-11.9115
五年薨子	-11.9115
按此内臣	-11.9115
考之史	-11.9115
草創	-11.9116
邀求	-11.9117
龍飛	-11.9117
皇帝廟號	-11.9118
光祚	-11.9118
吳奎	-11.9118
巫山	-11.9118
秦檜	-11.9119
綱紀	-11.912
二千九百	-11.9121
牧養	-11.9121
激怒	-11.9121
裁决	-11.9121
龠	-11.9122
糾察	-11.9122
險阻	-11.9122
小忿	-11.9122
誨等	-11.9123
招討使	-11.9123
潁國公	-11.9123
湖口	-11.9124
廟宇	-11.9125
劉璟	-11.9126
張潮	-11.9127
御醫	-11.9127
李濬	-11.9127
僑如	-11.9127
宼	-11.9128
乙丑進士	-11.9128
咨爾	-11.9128
鐵錢	-11.9128
李繼遷	-11.9129
左侍郎兼學士	-11.9129
充總兵官	-11.9129
軍匠	-11.913
唱第	-11.913
匡救	-11.9131
冕服	-11.9132
内帑	-11.9132
舉文學	-11.9132
五味	-11.9133
專擅	-11.9133
建儲	-11.9133
茶馬司	-11.9133
謂太子曰	-11.9133
牽制	-11.9135
入覲	-11.9135
檢㑹	-11.9136
灾異	-11.9137
尚銘	-11.9137
李煜	-11.9137
適足以	-11.9138
邇來	-11.9139
榮康	-11.9139
僅存	-11.9139
讜言	-11.9139
有益於	-11.9142
謁告	-11.9142
叔魚	-11.9142
曾布	-11.9142
自縊	-11.9143
告訐	-11.9143
敷奏	-11.9144
驚疑	-11.9144
趙文華	-11.9144
陳瑛	-11.9144
謬誤	-11.9145
彰武	-11.9148
𢎞治十四年	-11.9149
醫士	-11.915
陳鉞	-11.915
茶法	-11.915
就擒	-11.9151
神靈	-11.9151
掌兵部	-11.9152
左右都御史	-11.9153
料敵	-11.9153
太子少保工部尚書	-11.9153
族類	-11.9154
仰視	-11.9155
親祠	-11.9155
保䕶	-11.9156
簿書	-11.9157
浩海	-11.9158
楊洪	-11.9159
王安禮	-11.916
昇平	-11.916
火器	-11.9161
補音盧	-11.9161
補音側	-11.9162
賢不肖	-11.9162
丞郎	-11.9164
進封侯	-11.9164
殺掠	-11.9165
經邦	-11.9165
信誓	-11.9167
髙穀	-11.9168
帝堯	-11.9169
智勇	-11.917
劉基	-11.9172
炳文	-11.9172
知杭州	-11.9173
補音遵	-11.9174
圖籍	-11.9176
沈起	-11.9176
屯戍	-11.9176
五萬人	-11.9177
輔佐	-11.9177
詢問	-11.9178
韓呡	-11.918
言伏見	-11.9181
冬十一月	-11.9181
夀春	-11.9181
覆車	-11.9182
伊都	-11.9183
不啻	-11.9185
厯代	-11.9185
大宗伯	-11.9186
棄市	-11.9186
辭讓	-11.9186
背約	-11.9187
元年任二年	-11.9187
會試	-11.9188
貽書	-11.9189
蒲城	-11.9189
補音乃旦反	-11.9189
帳中	-11.919
載籍	-11.9191
報讎	-11.9192
顯陵	-11.9192
直宿	-11.9194
此三者	-11.9194
先哲	-11.9194
戍守	-11.9195
荒服	-11.9196
三法司	-11.9196
誣奏	-11.9197
雝子	-11.92
申嚴	-11.9202
别部	-11.9203
顧臨	-11.9204
解圍	-11.9204
尋致仕	-11.9207
昭魚	-11.9209
第一名	-11.9209
開寳	-11.921
混一	-11.9212
當世之	-11.9212
九族	-11.9212
夏商	-11.9213
燕薊	-11.9213
南侵	-11.9215
曲靖	-11.9216
輕騎	-11.9218
趙文子	-11.922
蕭敬	-11.9221
長平之	-11.9224
結絶	-11.9225
生辰	-11.9229
嘉靖五年	-11.923
沂州	-11.9231
郡邑	-11.9235
兩虎	-11.9236
蘓轍言	-11.9236
力爭	-11.9237
策試	-11.9238
按舊音	-11.9238
器物	-11.9247
㕘軍	-11.9249
山無子國除	-11.9249
舊額	-11.9249
家属	-11.9251
舞陽	-11.9255
孰敢	-11.9266
犯順	-11.9269
抑何	-11.9275
奈何對曰	-11.9276
十四年任左	-11.9278
閏七月	-11.9279
庶可	-11.928
四十餘萬	-11.9282
三之一	-11.9285
四千八百	-11.9294
其所長	-11.9295
景泰六年	-11.9295
不悛	-11.9301
盟主	-11.9303
隆慶初	-11.9304
充役	-11.931
令狐	-11.9311
王中正	-11.9318
職貢	-11.9319
嘉靖十五年	-11.9328
首飾	-11.9329
正徳七年	-11.9335
珍寳	-11.9339
而後可	-11.9349
南京兵部	-11.9367
七年任八年	-11.9378
兵深入	-11.9379
五百貫	-11.938
九十餘	-11.9396
願足下	-11.9409
壽六十	-11.9418
滁	-11.9425
宣徳四年	-11.9436
濮陽	-11.9443
洪武二十一年	-11.9452
八年任左	-11.9458
其巢穴	-11.9469
二十八年任右	-11.9474
十年薨子	-11.9481
貨財	-11.9481
正義引括地	-11.9483
大王之國	-11.9486
得其道	-11.9487
下文注	-11.9494
可采	-11.9516
鹽課	-11.9517
三年六月	-11.952
南京吏部	-11.9541
太子少保户部尚書	-11.9545
河東路	-11.9562
數百萬	-11.9568
七里	-11.9581
連坐	-11.9585
江西吉水人由進士	-11.9589
物情	-11.9608
慎勿	-11.9615
四年四月	-11.9618
終養	-11.962
永樂四年	-11.9628
禦戎	-11.9629
十二疋	-11.9634
人訓導	-11.9635
兵柄	-11.9647
二千兩	-11.9648
由進士十七年任	-11.9661
四千五百	-11.9669
右㕘議	-11.967
宣徳三年	-11.967
南海人	-11.968
成化七年	-11.9686
十三年任左	-11.9693
贊善大夫	-11.971
銀帶	-11.9712
弇山堂别集卷十	-11.9734
五年任右六年	-11.9737
粒	-11.9739
二十年任右	-11.9739
三百六十	-11.9748
部左侍郎贈尚書	-11.9763
二年十一月	-11.9767
正徳三年	-11.9777
職事官	-11.9778
得其實	-11.9784
八百石	-11.98
洪武二十年	-11.984
衛經歴	-11.9845
由進士三年任	-11.9848
六年三月	-11.9853
吏科給事中	-11.9866
右未中早夭	-11.9866
樗里	-11.9867
付中書	-11.9867
曩罕㺯	-11.9868
探花	-11.987
履正志和	-11.988
斯賚	-11.9884
祜	-11.9888
好和不争	-11.9889
鐩	-11.989
墊	-11.989
右俱危身奉上	-11.9891
强學好問	-11.9894
中情見貌	-11.9894
熒	-11.9895
箋	-11.9896
豔	-11.9896
位庶人無	-11.9897
府親王一位在府	-11.9898
陸佃	-11.9898
光禄大夫	-11.9899
滁陽王	-11.9899
春平侯	-11.9899
嵓叟	-11.9899
凌雲翼	-11.99
氾	-11.9901
裋	-11.9901
柔克有光	-11.9901
帰	-11.9902
皇子右副元帥	-11.9903
日大金骨盧你移賫勃極烈左副元帥	-11.9903
内官内使	-11.9903
灤	-11.9904
欒武子	-11.9904
曹利用	-11.9905
其可得乎	-11.9905
莠	-11.9905
宄	-11.9905
鄢郢漢中	-11.9905
監修國史	-11.9905
㳄	-11.9905
嗣進長子為	-11.9905
補音婢	-11.9905
繖	-11.9905
是秦之一舉也秦行是計	-11.9906
商於之地	-11.9906
田子方	-11.9906
刳	-11.9906
猲	-11.9906
殷士儋	-11.9907
思任發	-11.9907
饜	-11.9908
州司户	-11.9908
嘯	-11.9909
鄭褏曰	-11.9909
月二十三日	-11.9909
冦準	-11.9909
朝鮮國王李	-11.9909
故君不如	-11.9909
圈	-11.991
爌	-11.991
崔杼	-11.991
踞	-11.9911
緄	-11.9911
爪	-11.9911
江西金谿人	-11.9911
櫛	-11.9911
撲	-11.9911
烱	-11.9911
鎣	-11.9911
定西侯	-11.9912
夲	-11.9912
廧	-11.9912
椀	-11.9912
淋	-11.9912
踐阼	-11.9912
懃	-11.9912
霸王之業	-11.9912
山東濮州人	-11.9912
曺	-11.9912
罟	-11.9912
經明行修	-11.9912
毓	-11.9913
餐	-11.9913
子傒	-11.9913
勾當公事	-11.9913
佇	-11.9913
殱	-11.9913
一千貫	-11.9913
濙	-11.9914
翰林編修	-11.9914
帕	-11.9914
鎔	-11.9914
博物志	-11.9914
國子博士	-11.9915
等謹案	-11.9915
資政殿大學士	-11.9915
諸葛亮	-11.9915
􁓑	-11.9915
喬宇	-11.9915
唇齒	-11.9915
祟	-11.9915
噫	-11.9915
綵段四表裏	-11.9915
葴	-11.9916
以禮侍學士	-11.9916
婆	-11.9916
禮部主事	-11.9916
致書于大宋皇帝闕下	-11.9916
霍韜	-11.9916
骸骨	-11.9916
𠞰捕	-11.9916
航	-11.9916
等處軍務	-11.9917
江西廬陵人	-11.9917
濊	-11.9917
者寡矣	-11.9917
不可不察也	-11.9917
鵲	-11.9917
稼穡	-11.9917
仇鉞	-11.9917
票	-11.9917
觀文殿學士	-11.9917
元和姓纂	-11.9917
威烈王	-11.9917
癰	-11.9918
北主曰	-11.9918
斮	-11.9918
訕謗	-11.9918
帙	-11.9919
厄	-11.9919
煮	-11.9919
圜	-11.9919
祖宗舊制	-11.9919
閎	-11.9919
倪謙	-11.9919
娼	-11.9919
白金二百五十兩	-11.9919
聪	-11.9919
不聊生	-11.9919
發運司	-11.9919
熬	-11.9919
舅犯	-11.9919
宋國公馮勝	-11.992
犀首犀首	-11.992
鄧温伯	-11.992
瞻仰	-11.992
散騎常侍	-11.992
焞	-11.992
耒	-11.992
龎籍	-11.992
故有是詔	-11.992
直𨽻束鹿人	-11.992
潼闗	-11.9921
常平倉	-11.9921
耿炳文	-11.9921
索隐	-11.9921
陴	-11.9921
僉都督	-11.9921
同知樞密院事	-11.9921
李庭芝	-11.9921
琢	-11.9922
科爾沁	-11.9922
耿裕	-11.9922
王亦好	-11.9922
欽祚	-11.9922
巴克什	-11.9922
淡	-11.9923
理府事	-11.9923
淖	-11.9923
盻	-11.9923
刦	-11.9923
冗食	-11.9923
温囿	-11.9923
吏科都給事中	-11.9924
觀文殿大學士	-11.9924
蟄	-11.9924
馳騁	-11.9924
觀世音菩薩	-11.9924
徨	-11.9924
厨役	-11.9924
雷有終	-11.9924
戡	-11.9924
鎮戎軍	-11.9924
史館修撰	-11.9924
貎辨	-11.9925
罃	-11.9925
甚無謂也	-11.9925
戸部侍郎	-11.9925
康茂才	-11.9925
紬絹	-11.9925
衣各一襲	-11.9925
李承勛	-11.9925
厮養	-11.9925
尚膳監	-11.9925
詰難	-11.9925
恭懿王	-11.9925
樊於期	-11.9925
掉	-11.9926
椅	-11.9926
坂	-11.9926
高郵	-11.9926
嵬	-11.9927
侍御史知雜事	-11.9927
藥餌	-11.9927
匱乏	-11.9927
藤	-11.9927
芥	-11.9927
蒞	-11.9927
投杼	-11.9927
穽	-11.9928
懐僖王	-11.9928
曵	-11.9928
禕	-11.9928
豚	-11.9928
孫抃	-11.9928
折衝	-11.9928
詩大雅	-11.9928
鰥	-11.9929
黔首	-11.9929
寧陽侯陳懋	-11.9929
劉沆	-11.993
瘞	-11.993
胡惟庸	-11.993
饑饉	-11.993
祠額	-11.993
鎻	-11.993
市易司	-11.993
昊天上帝	-11.993
鐫	-11.993
懿文皇太子	-11.993
簿籍	-11.993
張士遜	-11.993
冠冕	-11.993
馮翊	-11.9931
嗣薨夀七十	-11.9931
狼狽	-11.9931
圖伯特	-11.9931
董文炳	-11.9931
纉	-11.9931
卽	-11.9932
區處	-11.9932
睠	-11.9932
臥	-11.9932
未見其可	-11.9932
雙溪雜記	-11.9932
建隆元年	-11.9932
買賣	-11.9933
常參官	-11.9933
旰	-11.9933
開封府界	-11.9933
李思齊	-11.9933
手札	-11.9933
樞機	-11.9933
父子兄弟	-11.9933
賈餘慶	-11.9933
貧賤	-11.9934
段疋	-11.9934
忠誠伯	-11.9934
林瀚	-11.9934
楧	-11.9935
江浙	-11.9935
懋修	-11.9935
上中下	-11.9936
稱皇伯	-11.9936
詢訪	-11.9936
芻糧	-11.9937
枷號	-11.9937
駞	-11.9937
夏桀	-11.9937
知樞密院事	-11.9938
全斌等	-11.9938
貞觀十六年太宗	-11.9938
矇	-11.9938
鬷	-11.9938
鳯陽府人	-11.9939
爼	-11.9939
腹裏	-11.9939
􁛄	-11.9939
哺	-11.9939
芮宋	-11.994
嘉努	-11.994
程式	-11.994
父母妻子	-11.994
其所短	-11.9941
伯勒格徳依	-11.9941
縮髙	-11.9941
租賦	-11.9942
祈福	-11.9943
莫離支	-11.9943
轉餉	-11.9943
御史知雜	-11.9944
博爾濟錦	-11.9944
汝儉	-11.9944
蕚	-11.9944
哀痛	-11.9944
硃卷	-11.9944
驕矜	-11.9945
澗	-11.9946
楊文襄	-11.9946
以謝天下	-11.9946
知鄧州	-11.9947
兄弟之國	-11.9947
積弊	-11.9948
不可測	-11.9948
豈肯	-11.9948
増損	-11.9948
頽	-11.9949
唐鐸	-11.9949
㸃集	-11.9949
聖旨	-11.9949
徇私	-11.9949
權發遣	-11.9949
兼文淵閣大學士	-11.995
鎧甲	-11.995
疑其合	-11.9951
綋	-11.9952
即大位	-11.9952
從六品	-11.9953
脩撰	-11.9953
封駁	-11.9953
唐氏仲友曰太宗	-11.9953
袍服	-11.9954
聖哲	-11.9955
曲阜令	-11.9956
秋八月	-11.9957
私忿	-11.9957
百僚	-11.9958
傾覆	-11.9958
納賄	-11.9958
甲胄	-11.9958
耆儒	-11.9958
陶穀	-11.9958
錢鏐	-11.9959
閫外	-11.9959
供養	-11.9959
拉克	-11.996
朝旨	-11.996
求直言	-11.996
收買	-11.996
鐵騎	-11.996
傳寫	-11.996
迎接	-11.9961
胡瑗	-11.9961
廩給	-11.9962
補曰一本標	-11.9962
奪爵	-11.9962
諸功臣	-11.9962
機密	-11.9962
榮僖王	-11.9963
丈餘	-11.9963
妘	-11.9963
也主君	-11.9963
勿復言	-11.9964
青苗法	-11.9964
州城下	-11.9964
吕震	-11.9964
左右僕射	-11.9965
年譜	-11.9965
貴戚	-11.9966
紛更	-11.9966
戰鬬	-11.9967
追悔	-11.9967
趙盾	-11.9968
蕭禧	-11.9968
嶺外	-11.9968
貞觀四年	-11.9968
邀功	-11.9969
詰問	-11.997
諫曰不可	-11.9971
聖裁	-11.9972
該部	-11.9974
指斥	-11.9974
卽位	-11.9975
歡好	-11.9975
合肥	-11.9975
巴陵	-11.9975
聚集	-11.9978
也又按	-11.9978
評事	-11.9979
太皇太后陛下	-11.9979
張亢	-11.9979
不勞而	-11.998
賜賚	-11.998
存寶	-11.9981
散騎	-11.9982
薩爾	-11.9982
疎逺	-11.9982
王廷相	-11.9983
遂稱為	-11.9984
經綸	-11.9984
敷陳	-11.9985
漢兒	-11.9986
半月	-11.9986
良弼	-11.9986
抵罪	-11.9987
良乆	-11.9989
鹽運	-11.9991
納賂	-11.9991
英雄	-11.9994
商英	-11.9995
詹同	-11.9996
本根	-11.9998
疾速	-11.9998
煩擾	-11.9998
忠讜	-11.9999
豕韋	-12.0001
忠恕	-12.0001
郕王	-12.0002
同諡文	-12.0004
三千兩	-12.0004
家奴	-12.0005
昏主	-12.0005
三苗	-12.0005
廷美	-12.0006
實喇	-12.0006
萬機	-12.0012
曹衞	-12.0012
十二營	-12.0013
慮患	-12.0014
勞費	-12.0017
非所宜	-12.0018
親覽	-12.0019
為衆所	-12.0022
北邉	-12.0023
規諫	-12.0024
逮治	-12.0026
帖然	-12.0027
說趙王	-12.0027
紀律	-12.0029
一千八百	-12.003
三千餘人	-12.003
銀十兩	-12.0031
天下之勢	-12.0033
㓜主	-12.0034
余靖言	-12.0034
𢎞治十七年	-12.0035
辯智	-12.0037
天順元年致仕	-12.0038
者魏也	-12.0038
天津	-12.0038
二音補音	-12.0051
伶人	-12.0062
武進人	-12.0063
從三品	-12.0064
十四年薨子	-12.0065
撫綏	-12.0067
四年任掌院事	-12.0068
巫臣	-12.0073
上是之	-12.008
十兩二表裏	-12.0081
聖人之道	-12.009
浮梁	-12.0095
壬辰詔	-12.0097
未任致仕	-12.0098
弗救	-12.0101
萬厯三年	-12.0142
由進士三十三年任	-12.0149
第十三	-12.0154
驚擾	-12.0164
覲反	-12.0167
魏徴對曰	-12.0173
力排	-12.0181
銀牌	-12.0188
臺諌	-12.019
庚辰詔	-12.0197
嗣在位二十	-12.0198
嗣薨夀四十八子	-12.0199
八年二月	-12.0204
祖宗之法	-12.0209
二千四百	-12.0214
上疏請	-12.0217
正德十六年	-12.0239
六千八百	-12.024
岐山	-12.0242
掌都察院	-12.0248
汾州	-12.0275
工商	-12.0298
范蠡對曰	-12.0307
沿江	-12.0307
嘉靖十六年	-12.0316
五十錠	-12.0321
籍沒	-12.033
年以少師兼	-12.0336
卒年四十	-12.0348
坊學	-12.0352
六年任七年	-12.0363
嘉靖三十五年	-12.038
拒戰	-12.0383
補曰正義	-12.039
潁州	-12.0408
十八年任右	-12.041
七十里	-12.0416
黃金	-12.0418
右㕘將	-12.0422
建文二年	-12.0427
庫藏	-12.0429
正德二年	-12.0435
妣	-12.0436
甲辰詔	-12.0445
隰州	-12.0455
鉅萬	-12.0476
鈔二萬	-12.0482
大同總兵	-12.0535
五百匹	-12.055
僚屬	-12.0566
孟子所	-12.0622
十五年任左	-12.063
與秦戰	-12.0631
對曰臣聞之	-12.0652
文綺帛各	-12.0654
太常寺少卿	-12.0655
費財	-12.0661
都察院左副都御史	-12.0663
由進士十一年任	-12.0668
得其情	-12.0674
而莫之	-12.069
嘉靖九年	-12.0731
之賞洪武	-12.0756
少傅大學士	-12.0757
右俱折衝禦侮	-12.0769
追謚	-12.0773
補音箋	-12.0793
陞二級	-12.0793
蟜	-12.0796
熂	-12.0799
右不懈為德	-12.0799
綵幣五表裏	-12.08
嚴公訥	-12.0803
皇太孫	-12.0803
尹文和	-12.0805
徤	-12.0805
楯	-12.0806
市易務	-12.0807
傀	-12.0808
胡大海	-12.0809
誣㒺	-12.0809
訕	-12.081
义	-12.081
祿一千一百石	-12.081
灑掃	-12.0811
嫗	-12.0811
份	-12.0811
徹辰鴻台吉	-12.0811
蔭	-12.0812
烏庫哩	-12.0812
嵌	-12.0812
王公錫爵	-12.0812
埤	-12.0812
伽	-12.0812
年任同理院事	-12.0813
薨無子國除	-12.0813
釋伽牟尼佛	-12.0813
膏腴之地	-12.0813
不宣謹白	-12.0813
通事舍人	-12.0813
胸背	-12.0813
趙彦若	-12.0814
鉦	-12.0814
托歡	-12.0814
誚	-12.0814
勠	-12.0814
洪武十六年	-12.0815
俌	-12.0815
太師英國公張輔	-12.0816
任同掌院事	-12.0816
哨瞭	-12.0816
顔師古	-12.0816
盩	-12.0817
勲階號	-12.0817
錢百萬	-12.0817
耕種	-12.0817
剿	-12.0817
正統戊辰進士	-12.0817
列女傳	-12.0818
焯	-12.0818
妃張氏	-12.0818
荼	-12.0818
直𨽻夀州人	-12.0818
觀察判官	-12.0818
蹠	-12.0818
蓍	-12.0818
峪	-12.0819
今主君	-12.0819
塑	-12.082
瑑	-12.082
騁	-12.082
冗濫	-12.082
為大王計莫如	-12.082
征蠻將軍	-12.0821
直𨽻任丘人由	-12.0821
便宜行事	-12.0821
忭	-12.0821
十餘里	-12.0822
洪武中薦舉	-12.0822
龐	-12.0822
羇	-12.0822
故降是詔	-12.0822
右敏而好學	-12.0822
孫承恩	-12.0822
脈	-12.0823
技藝	-12.0823
銀五兩	-12.0823
河南鈞州	-12.0823
布按二司	-12.0824
祔	-12.0824
芋	-12.0824
滇	-12.0824
熺	-12.0824
騏驥	-12.0824
沐浴	-12.0824
曹良臣	-12.0824
無兼官	-12.0824
馮獬	-12.0824
墩	-12.0825
捄	-12.0825
程敏政	-12.0825
白金四百兩	-12.0825
燼	-12.0825
簽書樞宻院事	-12.0825
行數千里而	-12.0825
繼捧	-12.0825
武定侯郭英	-12.0825
塾	-12.0825
蒲坂	-12.0825
徂	-12.0825
宛平人	-12.0825
溜	-12.0825
抄掠	-12.0826
撿	-12.0826
延齡	-12.0826
梓宫	-12.0826
賽音阿拉克	-12.0826
儕	-12.0826
特進光禄大夫	-12.0826
虎豹	-12.0826
鈔五百錠	-12.0826
提督團營	-12.0827
乗驛	-12.0827
鄒浩	-12.0827
封徳彛	-12.0827
槁	-12.0828
吕氏春秋	-12.0828
絺	-12.0828
偏禆	-12.0828
鐶	-12.0828
直昭文館	-12.0828
棚	-12.0828
以兵左侍	-12.0828
邵元節	-12.0829
暴戾	-12.0829
樂舞生	-12.0829
匍匐	-12.0829
甕	-12.0829
慨	-12.0829
東安門	-12.083
右班殿直	-12.083
淳熈	-12.083
宣仁聖烈	-12.083
呼圖克	-12.083
靈璧	-12.083
羨餘	-12.083
迦	-12.083
公孫弘	-12.083
鐔	-12.083
幡	-12.0831
户部主事	-12.0831
耽	-12.0831
𠂻	-12.0831
堂後官	-12.0831
碣	-12.0831
瞭	-12.0831
嶷	-12.0831
近年以來	-12.0831
聪明	-12.0831
披靡	-12.0831
瞋目	-12.0832
九合諸侯	-12.0832
轎	-12.0832
資善堂	-12.0832
奉明㫖	-12.0832
呉安詩	-12.0832
蔀	-12.0832
集賢院	-12.0832
陲	-12.0832
提學副使	-12.0832
紫原	-12.0832
酸	-12.0833
緇	-12.0833
适	-12.0833
擺	-12.0833
達賴喇嘛	-12.0833
劉文靖健	-12.0833
太常禮院	-12.0833
車百乘	-12.0834
欠負	-12.0834
是役也	-12.0834
黔國公沐晟	-12.0834
龍鳳十二年	-12.0834
犧牲	-12.0834
哭泣	-12.0834
菱	-12.0834
展轉	-12.0834
杜如晦	-12.0835
皂𨽻	-12.0835
秦鳯路	-12.0835
上覽奏	-12.0835
牋	-12.0835
付外施行	-12.0835
扁鵲	-12.0835
鳬	-12.0836
棹	-12.0836
爻	-12.0836
工部主事	-12.0836
睨	-12.0836
挑戰	-12.0836
錦繡	-12.0836
戴胄	-12.0836
坰	-12.0836
孤貧	-12.0836
盤盂	-12.0836
譏訕	-12.0836
左春坊左庶子	-12.0836
眩惑	-12.0837
蹻	-12.0837
上合格進士	-12.0837
擣	-12.0837
羿	-12.0837
沙喇	-12.0837
招誘	-12.0838
輯睦	-12.0838
内藏庫	-12.0838
鏁	-12.0838
能識一切	-12.0838
榱	-12.0838
喟然	-12.0839
供帳	-12.0839
盛暑	-12.0839
明王世貞撰中官考	-12.0839
焦勞	-12.0839
慶厯二年	-12.0839
説話	-12.0839
豐稷	-12.0839
一千石輔國將軍嵗支禄米	-12.0839
夕月	-12.0839
孩	-12.0839
猛獸	-12.0839
閉關	-12.0839
尭舜	-12.084
芒部	-12.084
降二級	-12.084
郭逵	-12.084
紫宸殿	-12.084
詛	-12.084
忠臣義士	-12.084
蒭	-12.084
甘露	-12.0841
白金綵幣	-12.0841
長春殿	-12.0841
博克達班禪額爾徳尼	-12.0841
感激	-12.0841
烜	-12.0841
䭾	-12.0841
幕職官	-12.0841
動摇	-12.0842
蜜	-12.0842
袪	-12.0842
無日矣	-12.0842
筏	-12.0842
方孝孺	-12.0842
石守信	-12.0843
歎息	-12.0843
薩斯嘉	-12.0843
械繫	-12.0843
仔細	-12.0844
匈	-12.0844
四年任五年	-12.0844
𦕈	-12.0844
宫掖	-12.0844
噣	-12.0844
薛居正	-12.0845
五經博士	-12.0845
吳王夫差	-12.0845
菴	-12.0845
船隻	-12.0845
㒒射	-12.0845
嘻	-12.0845
康簡王	-12.0845
紵	-12.0845
傚	-12.0845
内使監	-12.0845
舁	-12.0846
沅	-12.0846
甯	-12.0846
見齊策	-12.0846
釴	-12.0846
銷金	-12.0846
司馬子期	-12.0847
戒飭	-12.0847
吮	-12.0847
飢寒	-12.0847
謂燕王曰	-12.0847
不云乎	-12.0847
賫到	-12.0847
各賞白金	-12.0847
傅珪	-12.0848
抽分	-12.0848
考績	-12.0848
元劉一清撰	-12.0849
澤潞	-12.0849
衮冕	-12.0849
醫藥	-12.0849
小醜	-12.0849
逆濠	-12.0849
官吏軍民	-12.0849
本部尚書	-12.0849
盒	-12.085
王世充	-12.085
元凱	-12.085
汾陽	-12.085
刑措	-12.085
五代史補	-12.085
澄樞	-12.0851
複姓	-12.0851
贖罪	-12.0851
審琦	-12.0851
誣罔	-12.0852
莊敏	-12.0852
儋	-12.0852
按通鑑係	-12.0852
登科録	-12.0852
俞允	-12.0853
猺	-12.0853
范雍	-12.0853
藿	-12.0854
㩁	-12.0854
終南山	-12.0854
甸服	-12.0854
怏怏	-12.0854
太子少保都察院左都御史	-12.0854
權倖	-12.0855
義渠	-12.0856
雄飛	-12.0856
滌	-12.0856
少保兵部尚書	-12.0856
滿都海徹辰福晉	-12.0857
莫肯	-12.0858
驎	-12.0858
巡幸	-12.0858
備顧問	-12.0859
閱卷	-12.0859
含容	-12.086
拿住	-12.086
左副都	-12.086
挾天子	-12.0861
廷瑞	-12.0862
逸詩	-12.0862
稍却	-12.0863
田疇	-12.0863
涇原路	-12.0864
昊天	-12.0864
縣西南	-12.0864
政事堂	-12.0864
騷然	-12.0864
阮逸	-12.0865
儆戒	-12.0865
翅	-12.0865
奸弊	-12.0867
太子太保刑部尚書	-12.0867
思廉	-12.0867
變詐	-12.0867
存恤	-12.0868
􁗁	-12.0869
付有司	-12.087
驍將	-12.0871
劉儼	-12.0871
陳洪進	-12.0871
誦經	-12.0871
呉敏	-12.0872
十五年薨子	-12.0873
尹鐸	-12.0873
防範	-12.0873
保佑	-12.0874
殷富	-12.0874
知益州	-12.0874
謠	-12.0874
范祥	-12.0874
徐禧	-12.0875
刑戮	-12.0875
倍背	-12.0875
傾危	-12.0876
權之難	-12.0876
二百餘年	-12.0876
田宅	-12.0877
糧米	-12.0878
陵寢	-12.0878
子穨	-12.0878
曹欽	-12.088
保捷	-12.0882
大中大夫	-12.0883
懐柔	-12.0884
輔翼	-12.0885
貞觀三年	-12.0886
背叛	-12.0888
縁邊	-12.0888
勿忘	-12.0889
閲視	-12.089
諫諍	-12.0892
編次	-12.0893
遺忘	-12.0894
隨駕	-12.0896
裕陵	-12.0898
令贇	-12.0902
江湖	-12.0903
洛邑	-12.0905
法輪	-12.0906
伐紂	-12.0909
鈔百二十錠	-12.091
一百一十	-12.0912
奉天門	-12.0913
安堵	-12.0913
太祖第十	-12.0917
第二第三	-12.0919
延讓	-12.092
美麗	-12.0926
振救	-12.0943
武徳初	-12.0945
邀擊	-12.0946
所轄	-12.0951
婺州	-12.0952
殖長	-12.0956
左相國	-12.0962
殿大學士	-12.0963
建文四年任右	-12.0989
嘉靖二十四年	-12.0989
皇帝勅諭	-12.0992
吏部主事	-12.1002
少保武英殿學	-12.1003
皇城使	-12.1006
臣伏見	-12.1037
錢三十萬	-12.1037
汴京	-12.1048
莫之能	-12.1048
契勘	-12.105
少保武英殿大學士	-12.1052
本年陞	-12.1054
臣竊觀	-12.108
部員外	-12.1085
廣東南海人由	-12.1085
攻撃	-12.1099
間隙	-12.1105
吐蕃	-12.1127
御札	-12.1131
指揮絹二疋鈔	-12.1158
二萬五千	-12.1175
武定侯	-12.119
江西南昌人	-12.1258
朝謁	-12.1282
郴州	-12.1291
失其次	-12.1315
成化末	-12.1323
正統八年	-12.1337
宗正寺	-12.1344
財帛	-12.1354
束帶	-12.1363
官寮	-12.138
二百七十	-12.1385
邠州	-12.14
千二百石	-12.1413
題詩	-12.1415
九十六	-12.1416
正統九年	-12.1434
周人正曰	-12.1455
成化十三年	-12.1461
簿尉	-12.1475
左軍都督府	-12.1556
洪武末	-12.1587
無子國除	-12.1597
主順天試命翰林院侍讀	-12.1607
九十七	-12.1612
慶厯三年	-12.1693
衛鎮撫	-12.1728
華葢殿大學士	-12.1749
右容儀恭羙	-12.1773
秋冬	-12.1775
窋	-12.1779
强而能斷	-12.1786
征西前將軍	-12.1792
補音呼報反	-12.1794
正己攝下	-12.1799
諶	-12.1799
彧	-12.1801
補音申志反	-12.1802
磻	-12.1802
炯	-12.1803
黃帝	-12.1804
跳躍	-12.1804
儂智髙	-12.1805
䟦	-12.1805
嘉勒斯賚	-12.1806
二十六年坐藍黨論死國除	-12.1806
鉢	-12.1806
以吏左侍兼	-12.1807
縵	-12.1807
酌量	-12.1809
蹊	-12.181
畱	-12.181
鍵	-12.1811
萼	-12.1811
慎靚王	-12.1812
正八品	-12.1812
笮	-12.1812
補音毗	-12.1812
右春坊右庶子	-12.1812
𢎞治乙丒進士嘉靖	-12.1812
晳	-12.1813
御藥院	-12.1813
艮	-12.1813
大中祥符元年	-12.1813
换	-12.1813
顱	-12.1813
斆	-12.1814
湛若水	-12.1814
樵採	-12.1815
迴避	-12.1815
熖	-12.1815
彈壓	-12.1815
鞍轡	-12.1815
蔣冕毛紀	-12.1815
蟠	-12.1816
淄川	-12.1816
謂皮相國	-12.1816
衾	-12.1816
謝文正遷	-12.1816
劭	-12.1816
函谷關	-12.1816
甬	-12.1817
燬	-12.1817
瑚	-12.1817
堦	-12.1817
即皇帝位改元	-12.1817
徭	-12.1817
右俱敏而好學	-12.1817
斑	-12.1817
同惡相濟	-12.1817
妃吳氏	-12.1817
鉆	-12.1817
泮	-12.1817
仕宦	-12.1818
户部尚書夏原吉	-12.1818
刘	-12.1818
南京禮部尚書贈太子少保	-12.1818
匄	-12.1818
鄯	-12.1819
煨	-12.1819
犢	-12.1819
諄	-12.1819
四川巴縣人	-12.1819
金朝興	-12.1819
萬乘之國	-12.182
鎡	-12.182
彭文憲時	-12.182
章得象	-12.182
醴泉	-12.182
劑	-12.182
輛	-12.182
鏌	-12.182
成化丁未進士正徳	-12.182
囷	-12.182
旟	-12.182
癉	-12.182
印綬監	-12.182
鈔一百貫	-12.182
宋鮑彪注	-12.1821
沱	-12.1821
荻	-12.1821
左司郎中	-12.1821
正統壬戌進士成化	-12.1821
無咫尺之功	-12.1821
僂	-12.1821
雁	-12.1821
碆	-12.1821
矛盾	-12.1821
疏入不報	-12.1821
彭蠡	-12.1822
伴讀	-12.1822
妃楊氏	-12.1822
矛㦸	-12.1822
奉書陳逹不宣	-12.1822
以楚權復	-12.1822
願王察之	-12.1822
鶩	-12.1822
蓮	-12.1822
金獻民	-12.1822
昌國君	-12.1822
内殿崇班	-12.1822
諟	-12.1822
馘	-12.1823
妃郭氏	-12.1823
試校書郎	-12.1823
中書平章政事	-12.1823
洪武初年舉人才	-12.1823
直𨽻滁州人	-12.1823
祫	-12.1823
簫	-12.1823
庫庫特穆爾	-12.1823
変	-12.1823
潘晟	-12.1823
陬	-12.1823
大都督府僉事	-12.1823
朱賡	-12.1824
直𨽻虹縣人	-12.1824
雜史𩔖	-12.1824
菟	-12.1824
湖廣巴陵人	-12.1824
屠僑	-12.1824
張澯	-12.1824
陕	-12.1824
見侯表	-12.1824
十七年任十八年	-12.1824
南京禮部右侍郎	-12.1825
眇	-12.1825
馬端肅文升	-12.1825
籬	-12.1825
牛羊豕	-12.1825
鈔二千錠	-12.1825
鈔六百錠	-12.1825
秘書省	-12.1825
顏	-12.1825
丁士美	-12.1825
乾興元年	-12.1825
宰相趙普	-12.1825
蛾	-12.1825
螻蟻	-12.1825
王曰何也對曰	-12.1825
株	-12.1826
張公居正	-12.1826
司禮監太監蕭敬	-12.1826
土伯特地方	-12.1826
稜	-12.1826
奉朝請	-12.1826
覉旅	-12.1826
鱉	-12.1826
揣摩	-12.1826
穫	-12.1826
資治通鑑	-12.1826
怠慢	-12.1827
糲	-12.1827
閨	-12.1827
鈔千錠	-12.1827
巴勒布	-12.1827
閣門祗候	-12.1827
始皇紀注	-12.1827
括蒼	-12.1827
江隂侯	-12.1827
謂周最曰	-12.1827
謂輔臣曰	-12.1827
巡狩	-12.1827
㸃閲	-12.1828
鉛山	-12.1828
洫	-12.1828
嵗加禄米	-12.1828
糜	-12.1828
戦國䇿	-12.1828
趙肅侯十	-12.1828
蒲宗孟	-12.1828
郗	-12.1829
弘農	-12.1829
千户衛鎮撫儀衛正副	-12.1829
文武百寮軍民僧道耆老	-12.1829
衛拉特	-12.1829
剌史	-12.1829
謗訕	-12.1829
櫃	-12.1829
龍圖閣學士	-12.1829
褘	-12.1829
鍚	-12.1829
希哲	-12.1829
堯叟	-12.1829
貞觀二年太宗謂侍臣曰	-12.183
驕恣	-12.183
鉗	-12.183
呪	-12.183
四輔官	-12.183
揕	-12.183
副都部署	-12.183
襁	-12.183
楊公博	-12.183
又為侯	-12.183
腫	-12.183
蕭維禎	-12.183
珥	-12.183
臀	-12.1831
仕隋為	-12.1831
礬	-12.1831
皇祐三年	-12.1831
臨洮	-12.1831
哈爾固楚克	-12.1831
嘉靖壬辰進士	-12.1831
刀筆	-12.1831
糜費	-12.1831
以千數	-12.1831
天順庚辰	-12.1831
踴	-12.1831
鑄大錢	-12.1832
麴	-12.1832
天禧元年	-12.1832
邾	-12.1832
圖們	-12.1832
諸路監司	-12.1832
啜	-12.1832
賈逵	-12.1832
字通借	-12.1832
映	-12.1832
舒嚕	-12.1832
曄	-12.1832
悚	-12.1833
豪傑之士	-12.1833
涿郡	-12.1833
年十七嵗	-12.1833
兵部主事	-12.1833
頷	-12.1833
齒牙	-12.1833
靖寧侯葉昇	-12.1833
肸	-12.1834
屠戮	-12.1834
駱	-12.1834
啖	-12.1834
剗	-12.1834
赴行在	-12.1834
文思院副使	-12.1834
胡儼	-12.1834
講媾	-12.1834
鈔一千錠	-12.1834
托克托	-12.1835
泝	-12.1835
純粹	-12.1835
覊	-12.1835
之化身	-12.1835
居首揆	-12.1835
逕	-12.1835
一百萬貫	-12.1835
張邦昌	-12.1835
又為伯	-12.1835
妨農	-12.1836
冰	-12.1836
漢高祖	-12.1836
雩	-12.1836
懲創	-12.1836
陌	-12.1836
鄖陽	-12.1836
感泣	-12.1836
貰	-12.1836
如常儀	-12.1836
捜檢	-12.1836
稹	-12.1836
蚡	-12.1836
御史裏行	-12.1836
語人曰	-12.1837
冠帶閒住	-12.1837
不亦善乎	-12.1837
祲	-12.1837
麵	-12.1837
史彌逺	-12.1837
皇祐二年	-12.1837
李遜學	-12.1837
暖	-12.1838
上䟽曰臣聞	-12.1838
訶	-12.1838
抹	-12.1838
鈔萬錠	-12.1838
礱	-12.1838
宗廟號也	-12.1838
曹瑋	-12.1838
墉	-12.1838
犨	-12.1838
谷王橞	-12.1838
巴特瑪繖巴斡	-12.1838
邲	-12.1838
櫜	-12.1838
勞績	-12.1838
稽遲	-12.1838
愚按古者	-12.1838
展禽	-12.1839
祛	-12.1839
睚眦	-12.1839
祁奚	-12.1839
鴻臚卿	-12.1839
建炎	-12.1839
飴	-12.1839
僭號	-12.1839
詰旦	-12.1839
娛	-12.1839
悶	-12.184
魚周詢	-12.184
至和元年	-12.184
們	-12.184
世系	-12.184
米鈔中半兼支鎮國將軍嵗支禄米	-12.184
菽	-12.184
錫都爾固汗	-12.184
殮	-12.1841
詆毁	-12.1841
浣	-12.1841
曜	-12.1841
宸衷	-12.1841
踪跡	-12.1841
覇王之	-12.1842
減半	-12.1842
何所不至	-12.1842
盞	-12.1842
乾坤	-12.1842
請救於	-12.1842
太常丞	-12.1842
嗇夫	-12.1843
鴉	-12.1843
公父文伯	-12.1843
上嘉其	-12.1843
寛民力	-12.1843
張舜民	-12.1843
昃	-12.1843
掎角	-12.1843
秘閣校理	-12.1843
負荷	-12.1843
戈直集論	-12.1843
阿喇卜	-12.1843
昩	-12.1844
塤	-12.1844
徹辰汗	-12.1844
怙勢	-12.1844
廵視	-12.1844
奔潰	-12.1844
劉六符	-12.1844
收河間	-12.1844
傳檄	-12.1844
宸斷	-12.1844
廢為庶人	-12.1844
孳	-12.1845
廬舍	-12.1845
跋扈	-12.1845
明王世貞撰史乗考誤	-12.1845
合齊而	-12.1845
委國於	-12.1845
突圍	-12.1845
喫	-12.1846
區宇	-12.1846
龍鳳	-12.1846
滑稽	-12.1846
無妄之	-12.1846
塲屋	-12.1847
張輗	-12.1847
曹國公李文忠	-12.1847
利害以聞	-12.1848
比肩	-12.1848
貉	-12.1848
湘隂	-12.1848
葬金山	-12.1848
筞	-12.1848
明王世貞撰異典述	-12.1848
車輛	-12.1849
吳禎	-12.1849
疇昔	-12.1849
布爾徳福晉	-12.1849
欽定四庫全書錢塘遺事卷	-12.185
玄感	-12.185
旃檀	-12.185
䢿	-12.185
藥酒	-12.185
坊郭	-12.1851
范氏祖禹曰太宗	-12.1851
劉瑯	-12.1851
惶懼	-12.1851
抑配	-12.1851
百字以上	-12.1851
秉筆	-12.1852
順安軍	-12.1852
臺之下	-12.1852
具劄子	-12.1852
鄉村	-12.1852
張紞	-12.1852
耆艾	-12.1853
撫慰	-12.1853
添差	-12.1853
左㕘議	-12.1853
捶	-12.1853
顛倒	-12.1853
托克托噶太師	-12.1853
伊斯滿太師	-12.1853
房屋	-12.1854
翰林侍講學士	-12.1854
制置司	-12.1854
以此觀之	-12.1855
斁	-12.1855
千餘匹	-12.1855
沐英	-12.1855
竺	-12.1855
𨗳	-12.1855
缶	-12.1855
岷山	-12.1855
倔	-12.1856
超擢	-12.1856
郭爾羅斯	-12.1856
萊陽	-12.1856
接續	-12.1856
青苗錢	-12.1856
西南夷	-12.1856
潼	-12.1857
麄	-12.1857
孫全照	-12.1857
剸	-12.1857
魅	-12.1857
年降生嵗次	-12.1857
介甫	-12.1857
髙陽闗	-12.1858
鼓舞	-12.1859
君臣上下	-12.1859
權知開封	-12.1859
仲甫	-12.186
朋友	-12.186
貿易	-12.186
保朂	-12.186
祖宗故事	-12.186
石嶺	-12.1861
廣洋	-12.1861
渝變	-12.1861
太監錢能	-12.1861
宫僚	-12.1861
諷諌	-12.1861
茂材異等	-12.1862
此其漸不克終	-12.1862
焚毁	-12.1862
查革	-12.1862
東坡	-12.1862
分水嶺為界	-12.1863
什物	-12.1863
胤	-12.1864
英睿	-12.1864
馬騾	-12.1864
嘉歎	-12.1864
卭	-12.1865
逆旅	-12.1865
榮順王	-12.1866
釁隙	-12.1866
寒暑	-12.1866
趙葵	-12.1867
右司郎中	-12.1868
兩府大臣	-12.1869
涅槃	-12.187
該管頭目	-12.1871
摩倫汗	-12.1872
强壮	-12.1874
釁端	-12.1876
希萼	-12.1879
悖逆	-12.188
朝覲	-12.1882
虢叔	-12.1883
新磨	-12.1885
六科十三道	-12.1885
陽武侯	-12.1885
由探花	-12.1888
錠綿布二疋	-12.189
宵遁	-12.1893
誰肯	-12.1893
内東門	-12.1894
臣之愚	-12.1899
夾擊	-12.1903
漢光武	-12.1913
那厮	-12.1913
莊第三子	-12.1914
曰善哉	-12.1928
由進士十五年任右	-12.1932
結搆	-12.1956
欽定四庫全書弇山堂别集卷七十	-12.196
妃嬪	-12.1979
祿一千二百石	-12.198
二甲第一	-12.1988
八年任十年	-12.2007
正徳十二年	-12.2016
三原人	-12.2026
戶部	-12.2048
嘉靖乙未進士四十	-12.2064
保障	-12.21
乞外任	-12.2105
欽定四庫全書弇山堂别集卷三十	-12.2134
馴致	-12.2146
百里之地	-12.2151
對便殿	-12.217
織金文綺	-12.2171
汀州	-12.2186
男婦	-12.2201
萬餘級	-12.2227
月初七日	-12.2252
大中祥符八年	-12.2314
十五錠	-12.234
三年任掌院事	-12.2384
榮和王	-12.2392
年任右本年丁憂	-12.2403
澧州	-12.2433
步軍都指揮使	-12.2433
四百七十	-12.2451
年起未任	-12.247
欽定四庫全書弇山堂别集卷二十	-12.2472
二年任本年	-12.2478
十有二月	-12.2497
國必危矣	-12.2527
國相元帥	-12.257
欽定四庫全書弇山堂别集卷九十	-12.2647
子今王厚	-12.2659
十七年薨子	-12.2683
雲夢之	-12.2684
云劉作	-12.2722
縣人萬厯	-12.273
嘉靖三十八年	-12.2732
開國輔運推誠宣力武臣	-12.2762
燕王噲	-12.2782
欽定四庫全書弇山堂别集卷六十	-12.2798
䜴	-12.2833
兩四品	-12.2836
鈔九十錠	-12.2857
大學士李東陽	-12.2867
瞿景淳	-12.2879
嘉勒氏	-12.2889
朋奸	-12.2892
少保兼太子太保	-12.2897
勝敵克亂	-12.2901
蹹	-12.2902
霦	-12.2903
滎	-12.2906
温良好樂	-12.2907
府加米	-12.2911
右俱好和不争	-12.2912
郾	-12.2913
行善可紀	-12.2913
啟沃	-12.2913
以講學領南院	-12.2914
嶠	-12.2914
右好和不争	-12.2916
織染局	-12.2916
蕪湖	-12.2917
鋐	-12.2917
鑲	-12.2917
峴	-12.2917
馹	-12.2919
呴	-12.2919
居安思危	-12.2919
抱空質	-12.292
祿三千石	-12.292
㸅	-12.292
此所謂無妄之	-12.2921
南京兵部尚書贈太子少保	-12.2921
襲封文宣公	-12.2921
楠	-12.2922
翰林侍講	-12.2922
公叔痤	-12.2922
襖	-12.2922
嶧	-12.2922
括地志	-12.2922
人言市有虎王信之乎王曰	-12.2922
剔	-12.2923
緍	-12.2923
相元帥皇子元帥	-12.2924
温恭朝夕	-12.2924
𢎞治丙辰進士嘉靖	-12.2924
包二周	-12.2925
願大王察之	-12.2925
金川門	-12.2925
直𨽻歙縣人由進士	-12.2926
鄺埜	-12.2926
殺吕遼	-12.2926
疪	-12.2926
妃李氏	-12.2926
繻	-12.2926
獠	-12.2927
恣肆	-12.2927
郤錡	-12.2927
撙	-12.2927
邢昺	-12.2927
從起靖難為	-12.2927
烏庫哩鎬	-12.2927
太保兼太子太傅	-12.2927
嘯聚	-12.2927
槿	-12.2927
筵宴	-12.2927
通進銀臺司	-12.2927
棬	-12.2927
済	-12.2927
胃	-12.2928
觭	-12.2928
右丞仲徳	-12.2928
元咺	-12.2928
蒯聵	-12.2928
軍節度副使	-12.2928
欲廢中山之王	-12.2928
所甚愛	-12.2928
華雲龍	-12.2929
蓮花	-12.2929
蜂	-12.2929
酈	-12.2929
正徳辛未進士嘉靖	-12.2929
徐晞	-12.2929
帕克巴喇嘛	-12.293
挨	-12.293
兠鍪	-12.293
宷	-12.293
桴	-12.293
節度判官	-12.293
竇屢	-12.293
金鄉侯	-12.293
明王世貞撰卿貳表	-12.293
直𨽻興化人	-12.293
熲	-12.293
宓	-12.293
董玘	-12.293
鼃	-12.293
所在官司	-12.2931
紵絲一表裏	-12.2931
發重使	-12.2931
崑	-12.2931
湖廣茶陵人	-12.2931
爨	-12.2931
催促	-12.2931
幕職州縣官	-12.2931
黿	-12.2931
欽定四庫全書戰國策校注卷	-12.2932
㳅	-12.2932
付史館	-12.2932
牂	-12.2932
無子庶二弟	-12.2932
戰而不勝	-12.2932
省四十名	-12.2932
扮	-12.2932
痕	-12.2932
正曰見下	-12.2932
坡	-12.2932
秤	-12.2932
廣西全州人	-12.2932
乙丒	-12.2932
成化戊戌進士正徳	-12.2933
寰宇	-12.2933
芻牧	-12.2933
集賢院學士	-12.2933
朐	-12.2933
閬	-12.2933
鷹犬	-12.2933
京營戎政	-12.2933
地可廣	-12.2933
江西萬安人由進士	-12.2933
鑨	-12.2933
幼孜	-12.2933
閤門祗候	-12.2934
迂濶	-12.2934
鈔五千貫	-12.2934
鄒緝	-12.2934
中郎將	-12.2934
功已成矣	-12.2934
馬駝牛羊	-12.2934
亟入下東國	-12.2934
廣南西路	-12.2935
北兵渡江	-12.2935
馮宋公勝	-12.2935
抉	-12.2935
酺	-12.2935
顚	-12.2935
桑維翰	-12.2935
吕嘉問	-12.2935
朱希孝	-12.2935
亭障	-12.2935
訔	-12.2935
司設監	-12.2935
錦袍	-12.2935
朝請郎	-12.2935
纁	-12.2935
闌	-12.2935
爍	-12.2935
與燕戰	-12.2936
唐制嵗該米	-12.2936
癘	-12.2936
張儀為秦連横	-12.2936
成化乙未進士正徳	-12.2936
鄼	-12.2936
嘉靖己未進士萬厯十	-12.2936
批答	-12.2936
至道元年	-12.2936
壩	-12.2936
羅欽順	-12.2936
直𨽻清苑人	-12.2936
鷸	-12.2937
盱	-12.2937
断	-12.2937
祿千五百石七年増千石	-12.2937
憶	-12.2937
提控	-12.2937
博碩克圖	-12.2937
俚	-12.2937
詹徽	-12.2937
干隧	-12.2937
戊戌年任	-12.2937
苫	-12.2937
薛公曰善	-12.2937
叔嚮	-12.2938
收回成命	-12.2938
三品四品	-12.2938
以兵部左侍郎兼僉都御史任	-12.2938
鈐束	-12.2938
之美我者	-12.2938
周尚文	-12.2938
顧可學	-12.2938
即皇帝位	-12.2938
薰	-12.2938
自經死	-12.2938
阡	-12.2938
有利焉	-12.2938
綵段二表裏	-12.2938
闞	-12.2938
尚寳司	-12.2939
聰明睿智	-12.2939
一時之盛	-12.2939
埽	-12.2939
出其不意	-12.2939
築堡	-12.2939
賜勅奬諭	-12.2939
事無大小	-12.2939
承魏之敝	-12.2939
王孫雄	-12.2939
欲并天下	-12.2939
鈔十錠	-12.2939
銀千兩	-12.2939
冗員	-12.2939
湟	-12.2939
祠部員外郎	-12.2939
壠	-12.2939
其女弟	-12.2939
福建晉江人	-12.2939
墨麟	-12.294
珠翠	-12.294
字有誤	-12.294
殂	-12.294
太中大夫	-12.294
東觀奏記	-12.294
纊	-12.294
琚	-12.294
龍圖閣待制	-12.294
江西新淦人	-12.294
齧	-12.294
寥寥	-12.294
違拂不成	-12.294
愴	-12.294
厹由	-12.2941
居無幾何	-12.2941
嘔	-12.2941
璪	-12.2941
吕希哲	-12.2941
將作監主簿	-12.2941
職方員外郎	-12.2941
文綺二十疋	-12.2941
伊納克格爾	-12.2941
卓哩克圖	-12.2942
閘	-12.2942
特進光祿大夫柱國	-12.2942
館閣校勘	-12.2942
下獄論死	-12.2942
單安仁	-12.2942
渇	-12.2942
諉	-12.2942
㒜	-12.2942
槖駝	-12.2942
蟬	-12.2942
祕閣	-12.2942
娯	-12.2942
榦	-12.2942
榕	-12.2942
秘咒	-12.2942
昳	-12.2943
㺯	-12.2943
楚王入秦秦	-12.2943
州府軍縣	-12.2943
行軍司馬	-12.2943
闡揚	-12.2943
賃	-12.2943
雁門	-12.2943
三分之一	-12.2943
液	-12.2943
緑袍	-12.2943
劉奉世	-12.2943
朶	-12.2943
張孝純	-12.2943
明道元年	-12.2943
景思立	-12.2943
古爾伯勒津郭斡哈屯	-12.2943
顕	-12.2943
因令人謂	-12.2944
願王之熟計之也	-12.2944
三班院	-12.2944
倉塲	-12.2944
不可則行其	-12.2944
沲	-12.2944
度支判官	-12.2944
荆南節度使	-12.2944
欄	-12.2945
王嵗支禄米一萬石	-12.2945
徴甲與粟於周	-12.2945
倂	-12.2945
浙江歸安人	-12.2945
舂	-12.2945
渚宫舊事	-12.2945
兵仗局	-12.2946
咸寧侯仇鸞	-12.2946
孛堇	-12.2946
呼萬嵗	-12.2946
拽	-12.2946
三十三篇	-12.2946
藉兵乞食	-12.2946
皇祐五年	-12.2946
樊將軍	-12.2946
任十一年致仕	-12.2946
即墨大夫	-12.2947
綳	-12.2947
張氏九成曰	-12.2947
孟軻	-12.2947
鶉火	-12.2947
寘鐇	-12.2947
郜	-12.2947
儷	-12.2947
穜	-12.2947
詔禮部貢院	-12.2947
程戡	-12.2948
伐周韓	-12.2948
嗟嘆	-12.2948
樗里疾公孫衍	-12.2948
囷倉	-12.2948
鞋	-12.2948
陳芳洲	-12.2948
知諌院	-12.2949
舋	-12.2949
戰國䇿卷第十	-12.2949
継	-12.2949
櫝	-12.2949
凋弊	-12.2949
覊縻	-12.2949
揀選	-12.2949
搬	-12.2949
璡	-12.2949
刼掠	-12.295
劉健謝遷	-12.295
烏爾魯克	-12.295
米五百石	-12.295
蒼梧	-12.295
公子牟夷	-12.295
傅瀚	-12.295
優渥	-12.295
何文輝	-12.295
左丘明	-12.295
程顥	-12.295
槌	-12.2951
各處鎮守	-12.2951
瑣綴録	-12.2951
聚歛	-12.2951
趙君錫	-12.2951
鄂諾河	-12.2951
由是觀之	-12.2951
眇躬	-12.2951
銀五千兩	-12.2951
鴟夷	-12.2951
戴珊	-12.2951
綯	-12.2951
楚之齊者	-12.2951
攅	-12.2952
可特授	-12.2952
猿	-12.2952
叚規	-12.2952
耦	-12.2952
窩	-12.2953
乾谿	-12.2953
圄	-12.2953
忠國公石亨	-12.2953
島	-12.2953
阿南達	-12.2953
侈靡	-12.2953
垓	-12.2953
雷霆	-12.2953
乞補外	-12.2953
此臣所以	-12.2953
永昌侯藍玉	-12.2954
箱	-12.2954
妃劉氏	-12.2954
秪	-12.2954
孫虎臣	-12.2954
何承矩	-12.2954
羅咱斡	-12.2954
徐文璧	-12.2955
才識兼茂明于體用	-12.2955
澍	-12.2955
拭	-12.2955
疆塲	-12.2955
沼	-12.2955
僅以身免	-12.2955
廷鞫	-12.2955
禽鳥	-12.2955
髓	-12.2955
𤓰洲	-12.2956
跼	-12.2956
鼗	-12.2956
與此異	-12.2956
惹	-12.2957
大小官員	-12.2957
天台人	-12.2958
猪	-12.2958
昭釐侯	-12.2958
侣	-12.2959
端懿王	-12.2959
烏格齊哈什哈	-12.2959
讟	-12.296
邵亢	-12.296
孔頴達	-12.2961
遣使入貢	-12.2961
升遐	-12.2961
捍禦	-12.2961
路允廸	-12.2961
額森托噶	-12.2961
覺悟	-12.2962
以恩信	-12.2962
青苖	-12.2962
鬴	-12.2963
所以然者	-12.2963
王之有也	-12.2963
君其圖之	-12.2963
臧否	-12.2963
龍圗閣直學士	-12.2963
蟹	-12.2964
范宣子	-12.2965
息肩	-12.2965
掲曉	-12.2965
禮賔副使	-12.2965
接伴	-12.2965
永樂二十二年任	-12.2965
疆場	-12.2965
蚩尤	-12.2966
朱氏黼曰	-12.2966
欹	-12.2966
胡亥	-12.2966
必重公	-12.2967
彀	-12.2967
閒暇	-12.2967
安塔哈	-12.2967
入繼大統	-12.2968
紃	-12.2969
驛遞	-12.2971
孰大焉	-12.2972
章華之	-12.2972
鎛鐘	-12.2973
右慈仁短折	-12.2973
邠寧	-12.2973
太監劉永誠	-12.2974
桷	-12.2974
見前嘉靖中加	-12.2975
俱嘉靖一	-12.2976
士蔿	-12.2977
鄭端簡	-12.2977
暴虐	-12.298
摩里海王	-12.2981
為陛下惜	-12.299
言於上曰	-12.299
伊蘇凱巴圖爾	-12.2992
奉社稷以	-12.3007
之所惡也	-12.3017
昭王子元年	-12.3034
質子於	-12.3038
宰嚭	-12.3039
以臣為不	-12.3064
年任三十一年	-12.3089
日薨葬	-12.3102
弇山堂别集	-12.3118
金千斤	-12.3128
千五百里	-12.3128
大學士楊一清	-12.3169
則然矣	-12.317
以少詹兼	-12.3171
子今王載	-12.3195
十萬緡	-12.3229
詔答之	-12.3262
磁州	-12.3339
春秋後語	-12.3417
惜名器	-12.3444
鄜	-12.3784
百歩	-12.3936
鄂爾多斯	-12.394
淳化二年	-12.3943
百户所鎮撫典仗	-12.3957
右春坊右諭徳	-12.3957
補音乃旦	-12.3957
正徳甲戌進士嘉靖	-12.3978
少保太子太保禮部尚書武英殿大學士	-12.4005
太監蕭敬	-12.4054
子榮康王	-12.4058
直𨽻常熟人由進士	-12.4112
緊	-12.4141
􁲵	-12.4145
刀鋸	-12.4146
右俱寛樂令終	-12.4147
沓	-12.415
又所律反	-12.4153
秘書少監	-12.4153
杼	-12.4157
兵科都給事中	-12.4157
栻	-12.4158
􁨄	-12.4158
熊繹	-12.4159
刑部尚書贈太子少保	-12.4159
崇儀使	-12.4159
補音古毒反	-12.416
寳元元年	-12.416
絨	-12.4163
張元禎	-12.4165
靴襪	-12.4166
蛤	-12.4167
邢洺	-12.4167
長信侯	-12.4167
王襄敏越	-12.4168
鄀	-12.4168
儇	-12.4168
竚	-12.4168
崧	-12.4168
迕	-12.4168
􁇨	-12.4168
懿文太子	-12.4169
衆所共知	-12.4169
富於春秋	-12.4169
多爾濟巴勒	-12.4169
封梁國公	-12.4169
定國公徐光祚	-12.4169
挹	-12.417
右俱因事有功	-12.417
𠫭	-12.417
賈黯	-12.417
而立之是	-12.417
吏部尚書蹇義	-12.4171
幃	-12.4171
鴨	-12.4171
萬士和	-12.4171
直𨽻婺源	-12.4171
額爾克	-12.4172
方逢時	-12.4172
鵝	-12.4172
洪武乙丒進士	-12.4172
蓬	-12.4172
及第改進士	-12.4173
東閣學入	-12.4173
浙江永嘉人	-12.4173
謇	-12.4173
反亦如字	-12.4173
浃	-12.4174
敕六反	-12.4174
端拱元年	-12.4174
藺離石祁	-12.4174
趹	-12.4174
鑚	-12.4175
下兵部議	-12.4175
不可移也	-12.4175
成國公朱希忠	-12.4175
江西鄱陽人	-12.4175
寥	-12.4175
鏃	-12.4175
十有一月	-12.4175
耿再成	-12.4175
轢	-12.4175
南京刑部尚書贈太子少保	-12.4175
燃	-12.4176
輳	-12.4176
右春坊右中允	-12.4176
吻	-12.4176
隘之塞	-12.4176
汪諧	-12.4176
悼僖王	-12.4177
清浄	-12.4177
東上閣門	-12.4177
慈聖皇太后	-12.4177
員首領官一員	-12.4177
江西臨川人	-12.4177
戰國䇿校注	-12.4177
鑛	-12.4177
於伊闕	-12.4177
侠	-12.4177
鏘	-12.4178
制置三司條例	-12.4178
燕翼詒謀録	-12.4178
靚	-12.4178
墢	-12.4179
腴	-12.4179
醯	-12.4179
餔	-12.4179
諼	-12.4179
胡宗憲	-12.4179
董份	-12.4179
布各一疋	-12.4179
萬文康	-12.4179
爝	-12.4179
葉夢鼎	-12.4179
衒	-12.4179
稸積	-12.418
歜	-12.418
鑽	-12.418
􁢉	-12.418
榷	-12.418
兑	-12.418
苗衷	-12.418
賢遍反	-12.418
筯	-12.4181
驤	-12.4181
麓	-12.4181
偈	-12.4181
入内都知	-12.4181
嘉靖丙戌進士三十	-12.4181
巴爾斯博羅特	-12.4181
浙江黄巖人	-12.4181
曦	-12.4181
直𨽻清河人	-12.4181
銀三百兩	-12.4181
剡川姚宏	-12.4181
樊繼祖	-12.4181
瘵	-12.4181
帑藏	-12.4181
來之邵	-12.4181
寳文閣	-12.4181
翊國公郭勛	-12.4181
謹身殿大學士楊榮	-12.4181
丒	-12.4181
唇	-12.4182
碁	-12.4182
猖狂	-12.4182
輗	-12.4182
保國公朱永	-12.4182
釘	-12.4182
范吉射	-12.4182
撒离母	-12.4182
浙江仙居人	-12.4182
楊廷和梁儲	-12.4182
紫宸	-12.4182
酧	-12.4182
夫音扶	-12.4182
狙	-12.4183
鈆	-12.4183
㛮	-12.4183
此䇿時不可考	-12.4183
个	-12.4183
攻管而不下	-12.4183
居庸闗	-12.4183
咽喉	-12.4183
熄	-12.4183
蝕	-12.4183
東攻齊	-12.4183
五十八代公	-12.4183
山東昌邑人	-12.4183
夹	-12.4184
慣	-12.4184
時政得失	-12.4184
紕	-12.4184
乾清宫	-12.4184
擡	-12.4184
漣	-12.4184
㯽	-12.4184
山東東平人	-12.4184
山東海豐人	-12.4184
桑榆	-12.4184
水東日記	-12.4184
扆	-12.4184
右丞仲德	-12.4184
捂	-12.4184
令狐綯	-12.4184
須㬰	-12.4184
晉舊姓	-12.4184
𢎞治癸丒進士嘉靖	-12.4184
涅	-12.4185
怕	-12.4185
軍衛有司	-12.4185
坻	-12.4185
王家屏	-12.4185
讀寶訓	-12.4185
髙誘注	-12.4185
鷹揚	-12.4185
心腹之疾	-12.4185
爇	-12.4186
僬僥	-12.4186
舛謬	-12.4186
㽔	-12.4186
張徳勝	-12.4186
濟熿	-12.4186
窄	-12.4186
僧道耆老	-12.4186
韎	-12.4186
卲	-12.4186
葭蘆	-12.4186
讞	-12.4186
掣	-12.4186
彪謂周衰	-12.4186
獺	-12.4186
而為之請太子	-12.4186
冇	-12.4187
嘿	-12.4187
𢎞治己未進士嘉靖	-12.4187
逭	-12.4187
鍇	-12.4187
五國復堅	-12.4187
直𨽻呉縣人由進士	-12.4187
西官㕔	-12.4187
由進士二十一年任右	-12.4187
㰱	-12.4187
癰疽	-12.4188
羅汝敬	-12.4188
拳拳	-12.4188
𧺫	-12.4188
狭	-12.4188
知江寧府	-12.4188
肴	-12.4188
鄠	-12.4188
匜	-12.4188
衆寡不敵	-12.4188
雌	-12.4188
桔	-12.4188
越王句踐	-12.4188
以鎮國將軍先卒	-12.4188
御集英殿策試遂賜	-12.4188
旨揮	-12.4188
踧	-12.4188
六十代承	-12.4188
都沁都爾本二部落	-12.4188
鈔二百五十	-12.4188
四境之内	-12.4189
萬七千三百	-12.4189
討平之	-12.4189
垕	-12.4189
然而臣有患也	-12.4189
也願公之	-12.4189
補音而林	-12.419
楚相敝而	-12.419
費文憲宏	-12.419
善韓以備	-12.419
楊守隨	-12.419
幾瑟亡之楚	-12.419
搢紳	-12.419
騫	-12.419
其小者也	-12.419
直龍圖閣	-12.419
刑科都給事中	-12.419
茌	-12.419
漲	-12.419
軋	-12.4191
攜貳	-12.4191
寬	-12.4191
汲汲	-12.4191
顙	-12.4191
再造之恩	-12.4191
闗内侯	-12.4191
張敷華	-12.4192
脇	-12.4192
大楚皇帝	-12.4192
姫	-12.4192
題名記	-12.4192
鈔二千貫	-12.4192
荏	-12.4192
三班奉職	-12.4192
林氏之竒曰	-12.4192
鎮南軍節度	-12.4193
机	-12.4193
旃	-12.4193
上初即位	-12.4193
擐	-12.4193
蹇序辰	-12.4193
开	-12.4193
鈔千貫	-12.4193
與此駮	-12.4193
薳	-12.4193
庫圖克台	-12.4194
特進左柱國	-12.4194
王欽臣	-12.4194
瑪廸都斡咱	-12.4194
歠	-12.4194
羅秉忠	-12.4194
時不可失	-12.4194
與韓魏伐	-12.4194
城下之盟	-12.4194
幢	-12.4194
曰敬諾	-12.4195
誥劵	-12.4195
司天監	-12.4195
嗤	-12.4195
煽	-12.4195
髙辛氏	-12.4195
霧	-12.4195
金百鎰	-12.4195
瀕	-12.4195
太監廖堂	-12.4195
六宅使	-12.4195
㸑	-12.4196
不知何許人由舉人才	-12.4196
平王東遷	-12.4196
廕一子錦衣	-12.4196
硬	-12.4196
信國公湯和	-12.4196
旗纛	-12.4196
為鑒戒	-12.4196
省浮費	-12.4196
庳	-12.4196
苻堅	-12.4196
飛輓	-12.4196
資善大夫	-12.4196
圎	-12.4197
尚寳司丞	-12.4197
䋲	-12.4197
遡	-12.4197
撮	-12.4197
勺	-12.4197
汪興祖	-12.4197
伐山戎	-12.4197
矍	-12.4197
黯	-12.4197
禮部尚書掌詹事府事翰林院學士	-12.4197
散青苗錢	-12.4197
鯷	-12.4197
英國公張懋	-12.4198
張景明	-12.4198
獬	-12.4198
定逺侯王弼	-12.4198
眺	-12.4198
璨	-12.4198
鑊	-12.4198
瘁	-12.4198
偃蹇	-12.4198
孫應奎	-12.4198
駐泊都監	-12.4198
上震怒	-12.4199
將仕郎	-12.4199
尚衣監	-12.4199
湍	-12.4199
萇弘	-12.4199
芘	-12.4199
踴躍	-12.4199
倐	-12.4199
傭	-12.4199
殿前都虞侯	-12.4199
滲	-12.4199
國子監直講	-12.4199
甑	-12.4199
黄洪憲	-12.4199
鋒鏑	-12.42
臾	-12.42
勍	-12.42
易大傳曰	-12.42
再拜稽首	-12.42
慕容延釗	-12.42
左相國徐達	-12.42
褁	-12.4201
鹹	-12.4201
左順門	-12.4201
漓	-12.4201
怵惕	-12.4201
歙	-12.4201
䱧	-12.4201
竱	-12.4201
魔	-12.4201
廱	-12.4201
篁	-12.4201
缾	-12.4201
霈	-12.4201
反書聞	-12.4201
㮚	-12.4202
虞世基	-12.4202
畿甸	-12.4202
賞賚有差	-12.4202
撃走之	-12.4203
[...]
