<unk>	0
<s>	0
</s>	0
之	-4.13743
而	-4.73583
以	-4.93154
也	-5.28115
有	-5.29874
其	-5.37183
為	-5.38429
者	-5.39644
於	-5.41063
/	-5.44503
不	-5.65584
(	-5.65937
一	-5.7369
人	-5.75507
)	-5.771
則	-5.84619
無	-5.89216
公	-5.91413
自	-5.92799
如	-5.99927
與	-6.03213
行	-6.15119
中	-6.16534
上	-6.19439
得	-6.19631
大	-6.22614
曰	-6.22839
于	-6.23703
時	-6.25306
此	-6.2589
書	-6.2657
在	-6.27471
事	-6.2773
子	-6.30374
爲	-6.32167
見	-6.32652
君	-6.37442
又	-6.38339
作	-6.39359
知	-6.40147
可	-6.40946
天	-6.42766
是	-6.43497
)(	-6.43575
至	-6.43913
生	-6.4416
亦	-6.45021
言	-6.45882
矣	-6.47703
道	-6.48077
故	-6.48698
所	-6.49443
已	-6.49901
日	-6.50637
山	-6.50669
非	-6.50901
文	-6.5376
出	-6.53774
心	-6.56136
乎	-6.56254
我	-6.56259
詩	-6.56862
今	-6.58535
下	-6.59044
然	-6.59277
方	-6.60338
皆	-6.60353
三	-6.613
相	-6.61728
欲	-6.63053
王	-6.63166
來	-6.64011
官	-6.66206
使	-6.67136
歸	-6.67238
當	-6.68383
▁	-6.68493
若	-6.69399
用	-6.69486
長	-6.6986
成	-6.69991
名	-6.70245
後	-6.73444
復	-6.74188
多	-6.74515
雖	-6.74738
去	-6.74889
同	-6.75244
明	-6.76656
正	-6.76792
臣	-6.77658
水	-6.77978
未	-6.78259
入	-6.78787
傳	-6.80266
乃	-6.80886
及	-6.81304
惟	-6.84329
風	-6.84547
重	-6.87389
將	-6.88155
老	-6.88616
從	-6.88899
焉	-6.88978
能	-6.90434
過	-6.90674
深	-6.9116
前	-6.91675
且	-6.92103
二	-6.92735
學	-6.93409
聞	-6.93635
清	-6.94106
更	-6.94764
春	-6.9578
逺	-6.97135
或	-6.98365
何	-6.98795
必	-6.99686
家	-6.99734
安	-6.99789
吾	-7.00251
某	-7.00293
盡	-7.00367
分	-7.01327
新	-7.02011
居	-7.02021
意	-7.02314
實	-7.02999
民	-7.03093
思	-7.03505
雲	-7.04186
兮	-7.04456
云	-7.06051
世	-7.06869
先	-7.0767
因	-7.08949
夫	-7.09065
間	-7.09193
地	-7.09446
既	-7.09642
令	-7.0978
石	-7.10658
髙	-7.10684
觀	-7.10733
處	-7.11988
猶	-7.1218
和	-7.12218
州	-7.12465
月	-7.13465
尚	-7.13482
遂	-7.13688
小	-7.14016
問	-7.14273
命	-7.14927
師	-7.15376
元	-7.1634
獨	-7.16768
即	-7.16822
空	-7.17276
謂	-7.17292
徳	-7.17569
花	-7.186
開	-7.18852
初	-7.1917
望	-7.19571
身	-7.19954
常	-7.20479
守	-7.20563
論	-7.20755
本	-7.20866
巳	-7.20957
陳	-7.21221
還	-7.213
四	-7.21372
外	-7.22583
難	-7.23137
爾	-7.23209
求	-7.24013
士	-7.2466
始	-7.25003
數	-7.25274
少	-7.2531
法	-7.25477
易	-7.25692
古	-7.25752
取	-7.26029
樂	-7.26138
立	-7.26517
兵	-7.27052
神	-7.27146
予	-7.27265
平	-7.27516
通	-7.28037
近	-7.28241
應	-7.2891
國	-7.28933
玉	-7.29869
金	-7.30044
五	-7.30203
進	-7.30283
起	-7.30503
字	-7.30584
善	-7.31099
兩	-7.31727
舉	-7.31845
合	-7.31873
真	-7.32112
經	-7.32452
先生	-7.32459
客	-7.32519
寒	-7.32631
好	-7.33107
氣	-7.33316
莫	-7.33516
門	-7.34014
秋	-7.34288
南	-7.34736
聲	-7.35438
張	-7.3585
發	-7.35878
語	-7.36397
白	-7.368
朝	-7.37262
親	-7.37466
扵	-7.39112
宜	-7.39645
酒	-7.39709
哉	-7.39732
送	-7.40064
禮	-7.40185
舊	-7.40573
志	-7.41719
坐	-7.4215
西	-7.42265
義	-7.42561
周	-7.42732
信	-7.42734
甚	-7.42842
馬	-7.42923
治	-7.43072
似	-7.43769
益	-7.4401
光	-7.44567
定	-7.44591
年	-7.44673
集	-7.44696
記	-7.45207
喜	-7.4525
雨	-7.45459
耳	-7.45755
東	-7.46899
路	-7.47389
稱	-7.47703
不可	-7.47972
天下	-7.48124
力	-7.48423
李	-7.48423
賦	-7.49495
死	-7.49572
飛	-7.50103
物	-7.5029
諸	-7.50711
余	-7.51074
興	-7.511
寄	-7.51288
謝	-7.52167
直	-7.52463
固	-7.53019
請	-7.53459
辭	-7.53626
流	-7.53885
㑹	-7.54113
不能	-7.5421
六	-7.54527
終	-7.54765
賢	-7.55001
城	-7.55244
以為	-7.55279
共	-7.55386
漢	-7.55392
豈	-7.56404
龍	-7.57098
留	-7.57304
别	-7.58123
夜	-7.58291
修	-7.58439
黄	-7.58612
任	-7.58738
除	-7.58802
江	-7.59302
題	-7.59506
華	-7.5964
九	-7.59975
食	-7.60196
林	-7.60264
到	-7.60486
致	-7.60825
所以	-7.61541
制	-7.61679
病	-7.61801
内	-7.61825
縣	-7.62401
次	-7.63238
衆	-7.63634
動	-7.64045
奉	-7.64141
餘	-7.64481
堂	-7.64522
情	-7.64861
服	-7.65226
圖	-7.65428
章	-7.65711
香	-7.65943
理	-7.66072
著	-7.6625
節	-7.66556
田	-7.6693
吏	-7.66945
德	-7.66946
絶	-7.6696
顧	-7.67307
才	-7.6744
幸	-7.67592
足	-7.68061
百	-7.68236
便	-7.6838
政	-7.68578
雪	-7.6869
贈	-7.68766
凡	-7.69101
向	-7.69141
等	-7.69634
嘗	-7.69717
聖	-7.69805
功	-7.70093
北	-7.70133
賜	-7.70181
不知	-7.70455
失	-7.70494
異	-7.70599
父	-7.70666
誠	-7.70678
登	-7.71176
受	-7.71334
計	-7.71369
来	-7.71404
久	-7.71477
載	-7.72358
勝	-7.72567
宗	-7.72676
首	-7.72885
宋	-7.73292
海	-7.73499
滿	-7.73582
極	-7.73704
卒	-7.73801
郡	-7.7385
念	-7.7411
序	-7.74181
陽	-7.74471
主	-7.74499
厚	-7.74529
而不	-7.75497
度	-7.75539
/)	-7.75674
輕	-7.75942
對	-7.76088
比	-7.76615
高	-7.76627
視	-7.76705
彼	-7.76951
竹	-7.77158
宫	-7.77199
手	-7.77319
兼	-7.77644
衣	-7.77702
窮	-7.77711
仁	-7.7797
要	-7.78075
教	-7.7837
軍	-7.78444
孫	-7.7886
識	-7.79101
伯	-7.79135
青	-7.79203
卿	-7.79659
臨	-7.79936
歌	-7.80126
容	-7.80222
畫	-7.80315
懐	-7.80318
願	-7.80389
再	-7.80649
屬	-7.80947
色	-7.81012
萬	-7.81013
議	-7.81144
朝廷	-7.81221
具	-7.81284
唐	-7.81334
休	-7.82023
誰	-7.82344
武	-7.82731
封	-7.82868
承	-7.8301
止	-7.83574
報	-7.84021
頭	-7.84132
帝	-7.8422
乆	-7.84229
奏	-7.84511
蓋	-7.84566
說	-7.84619
省	-7.84752
許	-7.84765
侯	-7.84923
素	-7.85187
府	-7.85229
試	-7.85503
由	-7.85608
廣	-7.85691
但	-7.85716
隨	-7.85909
将	-7.86369
良	-7.86427
尊	-7.86493
驚	-7.86707
憂	-7.86852
汝	-7.87472
解	-7.87521
適	-7.8759
遊	-7.87797
氏	-7.88001
利	-7.88155
如此	-7.88158
嚴	-7.88191
隂	-7.88589
恩	-7.88652
劉	-7.8888
夢	-7.89094
交	-7.89106
表	-7.89174
全	-7.89223
亭	-7.89561
遷	-7.89603
看	-7.89925
都	-7.90003
母	-7.90147
遺	-7.90498
就	-7.90517
盖	-7.90563
嵗	-7.9086
存	-7.90939
期	-7.91081
却	-7.91237
亂	-7.91422
仲	-7.91488
塵	-7.91799
靈	-7.92074
愛	-7.92315
忽	-7.9248
體	-7.92613
尤	-7.92628
錢	-7.92705
草	-7.92818
回	-7.93282
化	-7.93482
散	-7.9366
孤	-7.93749
拜	-7.93768
寺	-7.93821
車	-7.94336
告	-7.94371
齊	-7.94566
溪	-7.94678
改	-7.94736
祖	-7.94738
聽	-7.94838
疑	-7.94939
落	-7.9496
備	-7.95478
加	-7.95771
十	-7.9581
變	-7.95837
榮	-7.96138
移	-7.96467
幽	-7.96807
可以	-7.96817
木	-7.97009
持	-7.97116
游	-7.97132
推	-7.97259
敬	-7.97417
兹	-7.97446
美	-7.9767
職	-7.97851
敢	-7.97909
景	-7.98241
齋	-7.98352
遇	-7.98468
魚	-7.9853
斯	-7.98691
貴	-7.98786
轉	-7.9891
野	-7.99039
醉	-7.99209
置	-7.99625
臺	-7.9964
慶	-8.00122
謀	-8.00472
詔	-8.0052
女	-8.00607
土	-8.01054
待	-8.0109
性	-8.01353
幾	-8.0147
笑	-8.01803
司	-8.01919
陛下	-8.01978
所謂	-8.02027
感	-8.02107
垂	-8.02238
半	-8.02283
照	-8.02302
端	-8.02462
愁	-8.02508
泉	-8.02543
説	-8.02609
目	-8.0267
引	-8.02902
苦	-8.02914
右	-8.03034
樹	-8.0328
微	-8.03365
口	-8.03372
晚	-8.03379
特	-8.03424
須	-8.03499
不得	-8.04108
指	-8.04192
薄	-8.04316
燕	-8.04351
各	-8.04389
竒	-8.04523
俗	-8.04571
趙	-8.04909
徒	-8.05179
秦	-8.05244
仙	-8.05311
闕	-8.05324
代	-8.0535
永	-8.05374
往	-8.05593
八	-8.05602
仰	-8.05686
乞	-8.05959
並	-8.05972
果	-8.05986
曲	-8.06081
謹	-8.06145
勞	-8.06198
忠	-8.06269
簡	-8.06582
翁	-8.0673
降	-8.0674
飲	-8.06847
建	-8.06877
廢	-8.0696
昔	-8.07371
之所	-8.07399
紅	-8.07401
邊	-8.07419
旣	-8.07662
疾	-8.07734
養	-8.07957
君子	-8.07985
俱	-8.0819
耶	-8.08633
精	-8.08685
早	-8.08795
連	-8.08921
材	-8.09227
閒	-8.09778
每	-8.09939
七	-8.10038
葉	-8.1006
薦	-8.10131
恐	-8.10362
宿	-8.10568
歲	-8.10638
筆	-8.10793
寧	-8.10799
資	-8.11025
藏	-8.11164
依	-8.11231
位	-8.11281
星	-8.11343
號	-8.11542
收	-8.11549
千	-8.11678
讀	-8.11894
惡	-8.12145
積	-8.1217
鄉	-8.1221
史	-8.12413
考	-8.12986
夏	-8.1331
追	-8.13632
破	-8.14723
崇	-8.15056
河	-8.15194
顯	-8.15276
退	-8.15405
盛	-8.15417
俾	-8.15779
亡	-8.15838
負	-8.15849
韻	-8.15866
曽	-8.16032
仍	-8.16348
私	-8.17005
繼	-8.17062
賞	-8.1762
授	-8.17644
保	-8.17771
罷	-8.17776
選	-8.18297
被	-8.18595
浮	-8.1895
權	-8.19095
遣	-8.19424
鳴	-8.19544
斷	-8.19624
列	-8.19629
叔	-8.19814
詞	-8.20118
務	-8.20246
惠	-8.203
火	-8.20339
庭	-8.20439
勤	-8.20467
尋	-8.20578
示	-8.20808
弗	-8.21293
者也	-8.21433
懷	-8.21606
獲	-8.21636
注	-8.21832
只	-8.21999
梅	-8.22067
松	-8.22441
放	-8.22466
不敢	-8.22492
僧	-8.22694
孝	-8.22698
羣	-8.22858
施	-8.22902
反	-8.23006
濟	-8.23117
之意	-8.23194
賀	-8.23315
覺	-8.23478
宣	-8.24006
越	-8.24537
哀	-8.2467
朱	-8.24679
屋	-8.2472
冠	-8.24914
御	-8.2492
楊	-8.24922
霜	-8.25054
虚	-8.25131
寳	-8.25211
工	-8.2549
殿	-8.25537
累	-8.25653
邑	-8.25818
嘉	-8.25845
卷	-8.2603
克	-8.26126
閣	-8.26221
室	-8.26283
切	-8.26636
友	-8.26663
率	-8.2674
之間	-8.26803
息	-8.26827
順	-8.27292
約	-8.27458
業	-8.27682
廟	-8.27815
左	-8.27853
折	-8.28248
夫人	-8.28406
夀	-8.28728
離	-8.28731
福	-8.28777
妙	-8.29052
太	-8.29155
銘	-8.29204
胡	-8.29279
二首	-8.29385
露	-8.29397
楚	-8.29496
急	-8.29604
悲	-8.29915
典	-8.30074
梁	-8.3013
面	-8.30226
舟	-8.30257
召	-8.30373
祭	-8.30548
充	-8.30675
澤	-8.30912
戒	-8.31305
吟	-8.31521
結	-8.31913
最	-8.32112
音	-8.32263
接	-8.32316
昭	-8.32559
强	-8.32681
造	-8.32849
恨	-8.32949
三年	-8.33341
儀	-8.33366
衰	-8.33795
樓	-8.33895
參	-8.33921
獻	-8.34094
静	-8.34155
一日	-8.34466
戰	-8.34467
况	-8.3497
徐	-8.35092
狀	-8.35156
維	-8.3518
英	-8.35221
横	-8.35257
曉	-8.3534
院	-8.35351
里	-8.35596
原	-8.36494
勢	-8.3668
敵	-8.36746
寛	-8.36803
納	-8.36826
荒	-8.36847
愈	-8.36929
威	-8.36934
佛	-8.37136
伏	-8.37218
形	-8.37323
賊	-8.3753
平生	-8.37571
免	-8.37608
郎	-8.37836
申	-8.38091
屢	-8.38262
類	-8.38437
執	-8.38437
殊	-8.38441
巻	-8.38526
禁	-8.38581
葢	-8.38635
皇	-8.38652
録	-8.38657
愚	-8.38792
忘	-8.38916
甫	-8.38924
布	-8.38968
履	-8.39351
吳	-8.39586
種	-8.39773
次韻	-8.40151
倚	-8.40253
而已	-8.4026
智	-8.40339
聖人	-8.40341
晉	-8.40544
象	-8.40662
以爲	-8.40965
傾	-8.41069
千里	-8.411
勿	-8.41148
走	-8.41324
不足	-8.41407
逐	-8.41441
察	-8.41551
習	-8.41592
答	-8.41606
悉	-8.41801
罪	-8.41895
差	-8.42097
縁	-8.42247
碧	-8.42362
迎	-8.42529
䝉	-8.42682
隆	-8.431
傷	-8.43336
竊	-8.43502
并	-8.43606
監	-8.43611
祠	-8.4398
至於	-8.44003
運	-8.44149
秀	-8.44185
借	-8.4419
紀	-8.44198
篇	-8.44445
危	-8.44531
天子	-8.44546
池	-8.44612
避	-8.4463
天地	-8.44644
眼	-8.44679
韓	-8.44719
鄭	-8.44798
市	-8.44963
徃	-8.45459
附	-8.4575
熟	-8.4586
畏	-8.46006
儒	-8.46057
達	-8.46116
萬里	-8.4622
之心	-8.46277
影	-8.46286
季	-8.46417
啓	-8.46429
程	-8.46466
兒	-8.46513
雙	-8.46753
呼	-8.46786
曹	-8.46815
延	-8.46832
今日	-8.46894
委	-8.47171
勸	-8.4722
咸	-8.47257
機	-8.47269
句	-8.47309
調	-8.475
偶	-8.4764
專	-8.47658
投	-8.47874
舍	-8.48023
庶	-8.48067
招	-8.48243
蜀	-8.48326
雅	-8.48559
歳	-8.48684
升	-8.48846
壽	-8.48971
脩	-8.4906
均	-8.49113
乗	-8.49314
博	-8.49418
仕	-8.49617
顔	-8.49627
無所	-8.4977
漸	-8.49953
牛	-8.49987
第	-8.50015
丹	-8.50058
朕	-8.50116
細	-8.50263
𥘉	-8.50311
翠	-8.50333
他	-8.50388
軒	-8.50418
春秋	-8.50581
想	-8.50633
棄	-8.50641
逢	-8.50711
責	-8.50932
殘	-8.5134
閑	-8.51388
詳	-8.51396
慮	-8.51499
質	-8.51647
按	-8.51712
聚	-8.51807
器	-8.51921
裏	-8.51974
於是	-8.52055
逰	-8.52161
枝	-8.52408
敗	-8.52485
頗	-8.5255
訪	-8.52603
雜	-8.52616
甘	-8.52783
塞	-8.53018
厥	-8.53053
㣲	-8.5317
䇿	-8.53291
増	-8.5332
雄	-8.53546
兄	-8.53647
鶴	-8.5365
訓	-8.5368
殺	-8.53685
沙	-8.53853
爭	-8.53856
赴	-8.54314
愧	-8.54521
刻	-8.54543
芳	-8.54593
遽	-8.54675
川	-8.54716
堅	-8.54922
曾	-8.55011
魏	-8.55069
歴	-8.55336
慕	-8.55359
寵	-8.55371
效	-8.55539
稍	-8.55649
隠	-8.55693
有所	-8.55695
羅	-8.55832
歎	-8.55929
隱	-8.55951
懼	-8.56099
關	-8.56303
貧	-8.5632
波	-8.56474
煩	-8.56577
藥	-8.5673
揚	-8.56768
領	-8.5684
緑	-8.57296
根	-8.5732
姑	-8.57631
聊	-8.57698
舞	-8.57868
園	-8.57944
烏	-8.57986
婦	-8.58075
足以	-8.58178
邪	-8.58375
振	-8.58429
侍	-8.58522
虎	-8.58581
趨	-8.58812
孰	-8.58861
辨	-8.59058
湖	-8.59094
談	-8.59121
聴	-8.59196
席	-8.59561
補	-8.59707
陵	-8.59773
符	-8.59821
珠	-8.60062
鎮	-8.60241
橋	-8.60503
弟	-8.60566
逹	-8.60585
學者	-8.60615
紫	-8.60633
辱	-8.6079
其所	-8.6107
恭	-8.61083
之士	-8.61121
富	-8.61349
呉	-8.61421
役	-8.61442
馳	-8.61465
庸	-8.61486
優	-8.61543
昌	-8.61623
尚書	-8.61778
商	-8.61792
宻	-8.61978
冬	-8.62003
而後	-8.62083
魯	-8.62103
暮	-8.62278
怨	-8.62408
天下之	-8.6245
葬	-8.6247
隔	-8.62669
淵	-8.62675
邦	-8.62722
温	-8.63136
覆	-8.63205
毎	-8.63439
設	-8.63454
誤	-8.63492
村	-8.63609
勉	-8.63634
冷	-8.6367
律	-8.63938
蘇	-8.64181
㳺	-8.64189
十年	-8.64213
户	-8.64272
輒	-8.64465
骨	-8.64576
谷	-8.64641
違	-8.64734
末	-8.64861
荷	-8.64937
不及	-8.6524
了	-8.65324
墨	-8.65429
助	-8.65453
之後	-8.65545
徑	-8.65666
帥	-8.6577
古人	-8.65857
晴	-8.65939
文章	-8.65976
鼎	-8.66242
味	-8.66312
闗	-8.66419
巖	-8.66718
營	-8.66854
當時	-8.66879
嗣	-8.66989
唯	-8.67183
帶	-8.67238
茂	-8.67331
争	-8.67527
康	-8.67576
蒙	-8.67681
船	-8.6776
嗚呼	-8.67872
肅	-8.67959
付	-8.68041
誦	-8.68068
鳥	-8.68089
族	-8.68273
抱	-8.68275
夷	-8.6833
卧	-8.68441
之言	-8.68515
不見	-8.68521
條	-8.68542
給	-8.68556
略	-8.686
貫	-8.68761
索	-8.68785
式	-8.68788
費	-8.68859
擇	-8.68964
刑	-8.69144
撫	-8.69152
米	-8.69193
擢	-8.69222
左右	-8.69338
宅	-8.69427
佐	-8.6972
虞	-8.69876
讀書	-8.69923
詠	-8.70162
困	-8.70167
據	-8.70193
惜	-8.70261
介	-8.70394
假	-8.70529
煙	-8.70759
短	-8.70762
冝	-8.70818
供	-8.70869
吹	-8.70895
屈	-8.70927
彦	-8.7099
疎	-8.71052
然後	-8.71078
丗	-8.71084
部	-8.71184
啟	-8.7121
趣	-8.71366
候	-8.71375
否	-8.71542
館	-8.71584
底	-8.71695
謂之	-8.71751
慰	-8.71933
井	-8.72041
害	-8.72047
管	-8.72082
歟	-8.72085
籍	-8.72185
壁	-8.72551
杜	-8.72555
衛	-8.72717
靜	-8.72764
竟	-8.72842
未嘗	-8.73003
境	-8.73111
丁	-8.73177
擬	-8.73308
㡬	-8.73391
茶	-8.73468
丞相	-8.7355
栁	-8.73649
堪	-8.73722
編	-8.73802
乾	-8.73917
量	-8.73971
歡	-8.73988
怒	-8.7408
碑	-8.74124
之人	-8.74392
之事	-8.74393
一作	-8.74428
○	-8.74431
豐	-8.74878
沈	-8.7502
嗟	-8.75046
壯	-8.75159
錫	-8.75206
支	-8.75397
逸	-8.75606
肯	-8.75622
迹	-8.7567
吉	-8.75881
為之	-8.75898
疏	-8.76087
二年	-8.76151
佳	-8.76321
偏	-8.76599
不以	-8.76692
占	-8.76855
講	-8.76896
峯	-8.76988
允	-8.76992
子孫	-8.77065
不為	-8.77101
畢	-8.77174
亟	-8.77285
撰	-8.77305
憶	-8.77311
抑	-8.77478
采	-8.77654
决	-8.77724
洞	-8.77898
患	-8.77984
總	-8.77994
託	-8.78181
扶	-8.78398
格	-8.78482
祀	-8.78542
歩	-8.78577
遲	-8.78635
人之	-8.78677
之道	-8.78792
干	-8.78804
琴	-8.78833
蘭	-8.78865
邉	-8.78883
之地	-8.79032
烟	-8.79046
源	-8.79203
狂	-8.79235
角	-8.79285
征	-8.79336
駕	-8.79446
耕	-8.79546
夕	-8.79685
孔	-8.79864
科	-8.79998
卑	-8.80038
如何	-8.80329
禪	-8.80401
祥	-8.80472
宰	-8.80542
肆	-8.80628
丘	-8.80708
瑞	-8.80762
希	-8.81057
瞻	-8.81121
大夫	-8.81144
巧	-8.81256
踈	-8.81345
晩	-8.81444
班	-8.81458
階	-8.81573
孔子	-8.82119
續	-8.82151
以來	-8.82157
春風	-8.82294
旋	-8.82368
剛	-8.82469
輔	-8.82471
忍	-8.82615
國家	-8.82637
公之	-8.82721
頌	-8.8286
預	-8.82891
有餘	-8.83169
釋	-8.83216
騎	-8.83309
侵	-8.83346
述	-8.83587
匪	-8.83808
乘	-8.83851
陸	-8.84075
㸔	-8.8412
住	-8.84145
一時	-8.84346
謁	-8.84361
弊	-8.84426
盤	-8.84455
孟	-8.84459
風雨	-8.84468
繁	-8.84648
強	-8.84805
財	-8.84915
𤣥	-8.84916
妄	-8.84924
操	-8.84982
毋	-8.85115
四方	-8.85117
故人	-8.85214
賛	-8.85321
郭	-8.85417
貪	-8.85446
雷	-8.85648
甲	-8.85664
奪	-8.85812
卜	-8.86014
浪	-8.86073
洪	-8.86194
敏	-8.86346
悟	-8.86353
甞	-8.86385
勇	-8.86459
膺	-8.86465
殆	-8.86616
縱	-8.86619
渠	-8.86645
繫	-8.86908
畧	-8.87076
慈	-8.87124
靡	-8.87281
凝	-8.87426
旁	-8.87505
社	-8.87529
錦	-8.87703
怪	-8.87746
百年	-8.87768
輙	-8.87789
墓	-8.8779
厭	-8.87914
人間	-8.88001
絲	-8.88074
寓	-8.88087
掌	-8.88171
淺	-8.88307
不復	-8.88361
犯	-8.88617
舎	-8.88652
塗	-8.88676
環	-8.88754
泥	-8.88904
苟	-8.89006
僕	-8.89148
鼓	-8.89181
嶺	-8.89267
不如	-8.89564
喪	-8.89707
農	-8.90166
豪	-8.90414
震	-8.90549
躬	-8.90658
享	-8.90673
日月	-8.9095
未有	-8.91055
循	-8.91169
買	-8.91408
帖	-8.91606
消	-8.92031
昏	-8.92067
是以	-8.92075
副	-8.92096
麗	-8.92111
舜	-8.92168
印	-8.9226
暗	-8.92266
眞	-8.92541
叙	-8.92563
純	-8.92645
謙	-8.92684
審	-8.92798
彌	-8.92909
岸	-8.93213
憐	-8.93422
拙	-8.93528
奚	-8.93721
有司	-8.93784
吕	-8.93935
翻	-8.9397
鍾	-8.93994
而無	-8.94199
迷	-8.94223
醫	-8.94383
援	-8.94538
之功	-8.94575
翼	-8.94661
憲	-8.94791
郷	-8.94813
必有	-8.94849
兄弟	-8.94875
毛	-8.95022
京	-8.95101
屏	-8.95135
速	-8.9522
辟	-8.9523
圗	-8.95255
輸	-8.95377
賔	-8.95422
禄	-8.95584
諭	-8.95729
鄰	-8.95772
洗	-8.95862
弱	-8.95956
催	-8.9598
背	-8.96037
獄	-8.96095
湏	-8.96169
禍	-8.96234
寫	-8.96283
舒	-8.96297
至今	-8.96302
擁	-8.96592
配	-8.9677
江南	-8.9678
牧	-8.96879
險	-8.96913
射	-8.9713
爰	-8.97338
房	-8.97422
步	-8.97596
言之	-8.97678
爵	-8.97729
虛	-8.97791
策	-8.97868
於此	-8.97872
術	-8.97876
賤	-8.9793
大臣	-8.97953
衡	-8.98307
阿	-8.9836
何以	-8.98467
遠	-8.98507
次公	-8.98513
奔	-8.98534
戎	-8.98741
盈	-8.98828
鴻	-8.98832
相與	-8.98964
廬	-8.98994
蒼	-8.98998
規	-8.99183
慎	-8.99222
厯	-8.9927
羞	-8.99371
銀	-8.99408
酬	-8.99721
羽	-8.99778
范	-8.99853
窺	-8.9986
赤	-8.99952
粟	-9.00026
姓	-9.00172
呈	-9.00308
潤	-9.00503
豈不	-9.00521
厲	-9.00581
欺	-9.00653
誅	-9.00776
賈	-9.00938
眷	-9.00942
齒	-9.01203
淮	-9.01307
贊	-9.01325
寜	-9.01393
陪	-9.01393
含	-9.01416
滅	-9.01419
俯	-9.01479
痛	-9.0149
寡	-9.01555
例	-9.01618
燈	-9.0162
伐	-9.01774
珍	-9.01879
漫	-9.02057
童	-9.02092
丞	-9.02134
諱	-9.02164
展	-9.02321
暴	-9.02339
祝	-9.02361
掩	-9.02368
其後	-9.02382
徙	-9.02396
之法	-9.02401
文字	-9.02537
亦有	-9.02699
枯	-9.02901
夫子	-9.02952
貢	-9.02985
不同	-9.03086
譽	-9.03098
己	-9.03146
契	-9.03325
氷	-9.03471
跡	-9.03526
上下	-9.03565
凉	-9.03653
龜	-9.03699
秩	-9.0372
曰吾	-9.03783
郊	-9.03816
柔	-9.03874
之際	-9.04022
頃	-9.0416
功名	-9.04242
把	-9.04379
三月	-9.04483
區區	-9.04493
救	-9.04629
攻	-9.04961
妻	-9.04997
祗	-9.05064
築	-9.05081
堯	-9.05115
逃	-9.05146
宴	-9.05186
姦	-9.05226
斗	-9.0547
者皆	-9.05511
曠	-9.05552
頻	-9.05553
防	-9.0562
荅	-9.05636
擊	-9.0565
暫	-9.05685
遭	-9.05698
進士	-9.05871
鳯	-9.05888
囘	-9.05955
䟽	-9.0623
決	-9.06256
㫖	-9.06277
沉	-9.06383
僅	-9.06536
學士	-9.06654
植	-9.06834
陶	-9.06874
雞	-9.07204
莊	-9.07363
戴	-9.07405
之餘	-9.07528
可謂	-9.07597
增	-9.07923
佩	-9.08179
飾	-9.08498
旦	-9.08529
裁	-9.0857
併	-9.08652
圍	-9.08668
之學	-9.08727
輩	-9.08743
嘆	-9.08797
之時	-9.08801
䘮	-9.08903
東南	-9.08969
會	-9.09003
后	-9.09098
其言	-9.09105
奮	-9.09144
超	-9.09207
晝	-9.09289
富貴	-9.09325
也今	-9.09426
菊	-9.09433
蔽	-9.09473
稽	-9.0948
輿	-9.09563
阻	-9.09975
尹	-9.09993
鄙	-9.10065
掃	-9.10172
鮮	-9.10178
江湖	-9.10351
烈	-9.10404
尉	-9.10484
黃	-9.10537
州縣	-9.1055
飯	-9.10554
後世	-9.10564
山中	-9.1059
虜	-9.10622
茍	-9.10901
驅	-9.11131
寶	-9.11185
鬼	-9.11254
湯	-9.11374
桂	-9.11426
乏	-9.11461
古今	-9.11518
其人	-9.11527
欽	-9.1181
蕭	-9.11872
蔡	-9.12014
其事	-9.12088
十二	-9.12149
淚	-9.12246
安得	-9.12288
弄	-9.12323
覽	-9.12328
革	-9.1243
挽	-9.12621
缺	-9.12666
激	-9.12794
京師	-9.12842
也故	-9.12849
小人	-9.12989
叟	-9.13042
校	-9.13048
草木	-9.13048
損	-9.1308
人心	-9.13191
藩	-9.13294
哭	-9.13314
統	-9.13438
尾	-9.13646
属	-9.13664
逆	-9.13746
東坡	-9.13755
途	-9.14164
飽	-9.14167
眠	-9.14183
鴈	-9.14196
旅	-9.14215
宇	-9.14223
密	-9.14367
徹	-9.14506
之說	-9.14593
冀	-9.14663
白雲	-9.14864
諸侯	-9.15053
其間	-9.15088
没	-9.15216
藝	-9.15262
襲	-9.15292
圓	-9.15346
品	-9.15479
四海	-9.15565
眉	-9.15628
眀	-9.1572
沒	-9.15751
禹	-9.1581
陋	-9.15942
何如	-9.1595
欣	-9.16113
廷	-9.16144
祈	-9.16159
不勝	-9.16237
墮	-9.16419
千載	-9.1663
峰	-9.16661
逮	-9.16796
究	-9.16846
觧	-9.16876
俊	-9.17025
梅花	-9.1711
孟子	-9.17148
纔	-9.17297
傍	-9.17313
紛	-9.17335
柳	-9.1743
吐	-9.17571
萬物	-9.1766
脫	-9.17696
伸	-9.17803
玩	-9.17909
太守	-9.18074
快	-9.18186
羊	-9.18338
不足以	-9.18414
鳳	-9.18469
倒	-9.18512
枕	-9.18595
披	-9.18601
藉	-9.18746
叢	-9.18809
賴	-9.18824
一笑	-9.1903
一人	-9.19065
辰	-9.19069
尺	-9.19175
宰相	-9.19294
遵	-9.19381
未能	-9.19399
褒	-9.19548
拂	-9.19631
蕩	-9.19649
辦	-9.1976
之義	-9.19889
群	-9.20251
渡	-9.2028
脱	-9.20356
以此	-9.20433
側	-9.20457
伴	-9.20526
踰	-9.2077
竭	-9.2129
元年	-9.2136
刺	-9.21448
篤	-9.21465
慙	-9.21572
鹽	-9.21577
人生	-9.21597
紙	-9.21615
貞	-9.21847
棲	-9.21893
歸來	-9.2193
燭	-9.22015
叨	-9.22055
倫	-9.22062
宏	-9.22118
幹	-9.22141
然而	-9.22159
矧	-9.22312
巨	-9.22325
戲	-9.22453
倍	-9.22579
諸公	-9.22662
酌	-9.22877
盗	-9.22891
課	-9.22914
不過	-9.23023
騰	-9.23201
山川	-9.2327
添	-9.23295
判	-9.23364
黨	-9.23372
其子	-9.2344
明年	-9.23769
劇	-9.2377
然則	-9.23929
炎	-9.2395
懸	-9.24054
五年	-9.24093
恵	-9.24102
泛	-9.24121
産	-9.24149
飢	-9.24161
漏	-9.24304
緩	-9.24536
潔	-9.2463
磨	-9.24654
桑	-9.24707
吴	-9.24804
訟	-9.2485
陰	-9.24932
出於	-9.25121
四年	-9.25229
潛	-9.25235
者亦	-9.25267
界	-9.25416
㢤	-9.25424
敦	-9.25465
黙	-9.25512
潜	-9.25637
跋	-9.25659
董	-9.25727
他日	-9.25829
遥	-9.25852
寢	-9.2586
暖	-9.25865
饑	-9.25932
況	-9.26159
頒	-9.26179
敷	-9.26229
巢	-9.26259
澄	-9.263
完	-9.26358
而巳	-9.26362
紹興	-9.26539
儲	-9.26628
風流	-9.26653
冒	-9.26725
俟	-9.26803
欽定四庫全書	-9.26876
無窮	-9.27041
也夫	-9.27086
晦	-9.27096
不然	-9.27165
係	-9.27246
腹	-9.27541
頼	-9.27625
麥	-9.27641
庶幾	-9.2766
随	-9.27663
融	-9.27695
屯	-9.27789
淡	-9.27891
基	-9.27996
太平	-9.28419
像	-9.2865
䖏	-9.28746
之中	-9.28814
寕	-9.28832
旱	-9.28891
踐	-9.2893
滋	-9.28951
儻	-9.28974
六月	-9.28981
際	-9.29022
衍	-9.29056
睡	-9.29229
玄	-9.29237
價	-9.29297
亮	-9.29364
士大夫	-9.29401
那	-9.29411
寸	-9.29581
局	-9.29649
洛	-9.29674
䕶	-9.30001
閱	-9.30036
驛	-9.30192
父母	-9.30199
㸃	-9.30402
競	-9.30467
朔	-9.30517
穿	-9.3052
乾坤	-9.30625
着	-9.30681
不可以	-9.30781
禽	-9.31015
潮	-9.31372
偉	-9.31379
何處	-9.31498
矜	-9.31611
夙	-9.31652
無人	-9.31813
知其	-9.31889
其心	-9.32061
泰	-9.32065
艱	-9.32122
璧	-9.32132
侍郎	-9.32277
額	-9.32281
輪	-9.3241
何時	-9.32508
傅	-9.32546
漕	-9.32634
羙	-9.3265
幕	-9.32699
響	-9.32722
秋風	-9.32767
杯	-9.32786
主人	-9.32812
泣	-9.3285
斜	-9.33004
𬒳	-9.33093
案	-9.33228
悔	-9.33237
頓	-9.33341
父子	-9.33374
也而	-9.33396
渾	-9.33403
盧	-9.33418
澗	-9.33436
也然	-9.33702
第一	-9.33814
霧	-9.33853
明月	-9.3397
限	-9.33978
戸	-9.34037
探	-9.34048
台	-9.34106
中書	-9.34123
暑	-9.34137
樞	-9.34169
徧	-9.34175
錄	-9.34346
至于	-9.34484
山林	-9.34588
自是	-9.34613
御史	-9.34708
江西	-9.34916
魂	-9.34921
挾	-9.34971
壓	-9.35119
麟	-9.3522
青山	-9.35316
峻	-9.35354
之書	-9.35464
之志	-9.3547
提	-9.35497
誓	-9.35602
𥙷	-9.35637
觴	-9.3573
㓜	-9.35761
排	-9.35775
諫	-9.35781
靖	-9.35862
詣	-9.3593
崖	-9.36046
之文	-9.36179
施行	-9.36227
不用	-9.36301
三日	-9.36369
話	-9.36479
不必	-9.36551
諸生	-9.36828
旌	-9.36836
刀	-9.36864
姿	-9.36866
之外	-9.37045
不容	-9.37138
焚	-9.37149
今年	-9.37168
使人	-9.37246
賣	-9.37345
紛紛	-9.37428
劄子	-9.37511
庵	-9.3763
喻	-9.37666
君之	-9.37668
飬	-9.37908
映	-9.37961
具官某	-9.38018
有以	-9.38095
䑓	-9.38117
盜	-9.38201
之所以	-9.38346
鏡	-9.38391
健	-9.38396
男	-9.38414
之盛	-9.38458
娶	-9.38549
迫	-9.38556
觸	-9.3863
倦	-9.38633
晨	-9.38682
束	-9.38704
二月	-9.38705
恃	-9.38772
是非	-9.3893
斥	-9.38966
中外	-9.38998
返	-9.39146
錯	-9.39309
劍	-9.39336
而為	-9.39431
惑	-9.39482
亦不	-9.39484
詩書	-9.39511
曷	-9.39545
隣	-9.39555
蒲	-9.39555
削	-9.396
壇	-9.39613
人也	-9.39697
無不	-9.39704
銅	-9.39713
見其	-9.3981
不肯	-9.39996
釣	-9.40007
輝	-9.40065
勲	-9.40086
也其	-9.40183
某官	-9.40292
何人	-9.40351
採	-9.40423
倉	-9.40477
収	-9.40486
出入	-9.40686
使君	-9.40784
而有	-9.40945
浩	-9.41164
肉	-9.41233
寂	-9.41241
讓	-9.4127
藻	-9.41302
秉	-9.41307
数	-9.41363
冦	-9.41512
杖	-9.41553
辯	-9.41565
肥	-9.41662
三首	-9.41704
亷	-9.41829
攝	-9.41955
囊	-9.42006
故事	-9.42064
摧	-9.42106
利害	-9.42117
彭	-9.42171
昨	-9.42196
驕	-9.42241
饒	-9.42314
不忘	-9.42389
伊	-9.42467
檢	-9.42493
山水	-9.42505
豈無	-9.42521
無事	-9.42545
幼	-9.42779
唱	-9.42897
午	-9.42927
恥	-9.42998
敎	-9.43014
致仕	-9.43017
鐘	-9.43024
又曰	-9.43172
聖賢	-9.43229
通判	-9.43259
効	-9.43512
蓬	-9.43587
旗	-9.43602
長安	-9.43662
丈	-9.43685
牙	-9.43715
之民	-9.43771
督	-9.4386
諒	-9.43895
穆	-9.43924
枉	-9.43938
衣冠	-9.44013
不忍	-9.44089
銘曰	-9.44175
卦	-9.44326
莫不	-9.44444
冰	-9.44509
蚤	-9.44561
中有	-9.44597
之日	-9.44605
紹	-9.44619
茅	-9.4483
靣	-9.44877
縯	-9.44929
則有	-9.45006
八月	-9.45021
劒	-9.45063
拘	-9.45083
荆	-9.45101
一旦	-9.45104
誨	-9.4524
不待	-9.4524
閲	-9.45335
清風	-9.45344
恭惟某官	-9.45492
霞	-9.45496
壊	-9.45562
二子	-9.45584
罔	-9.45625
浸	-9.45693
簾	-9.45725
之名	-9.45727
奴	-9.45733
其家	-9.45799
鸞	-9.45837
陞	-9.45902
内外	-9.4593
如是	-9.45936
鐵	-9.45938
繞	-9.45961
歛	-9.46018
髪	-9.46096
擅	-9.46107
活	-9.46177
自然	-9.46226
者乎	-9.46256
嫌	-9.4626
徴	-9.46285
毁	-9.46376
岳	-9.46564
遐	-9.46632
導	-9.46672
墜	-9.46675
翰	-9.46813
戯	-9.46814
囬	-9.46841
南北	-9.46856
血	-9.46894
低	-9.46971
鞭	-9.47013
往往	-9.4702
粗	-9.47049
宮	-9.4706
塔	-9.47217
百姓	-9.47265
脚	-9.47363
育	-9.47434
悠悠	-9.47447
閩	-9.47493
之臣	-9.47516
料	-9.47555
牽	-9.47574
戍	-9.47589
提舉	-9.47593
將軍	-9.47613
皇帝	-9.47654
蕃	-9.4773
包	-9.47906
鑒	-9.47927
俄	-9.47982
練	-9.48004
換	-9.48011
無以	-9.48148
晋	-9.48185
之則	-9.48206
菴	-9.4833
不在	-9.48563
座	-9.48601
溢	-9.4871
是也	-9.48716
彊	-9.48727
津	-9.48789
少年	-9.48937
稀	-9.48946
醒	-9.49225
周公	-9.49226
雖有	-9.49275
人情	-9.49358
傑	-9.49387
潭	-9.49474
滯	-9.49605
貽	-9.49789
之子	-9.49811
減	-9.49823
之上	-9.49839
皆有	-9.49845
啼	-9.49879
相望	-9.49935
揮	-9.50058
得其	-9.50203
漁	-9.50219
以其	-9.50247
孚	-9.5033
洲	-9.50351
閉	-9.50359
協	-9.50496
禱	-9.50608
湘	-9.5061
評	-9.50721
之風	-9.50769
十月	-9.50905
馮	-9.5094
蠻	-9.50963
之至	-9.51003
踏	-9.51111
坡	-9.51114
一二	-9.51122
九月	-9.51124
銷	-9.51173
誇	-9.51378
芝	-9.51457
人物	-9.5154
弓	-9.5156
穴	-9.51604
喧	-9.51645
播	-9.51645
翔	-9.51695
世之	-9.51744
之不	-9.51749
簷	-9.51807
忌	-9.5182
廉	-9.51837
七十	-9.5184
之説	-9.51904
岡	-9.51915
使之	-9.51921
濫	-9.51937
五月	-9.51958
捨	-9.51964
未知	-9.52072
貳	-9.52075
専	-9.52134
千古	-9.52181
者必	-9.52237
績	-9.52316
整	-9.52454
邁	-9.52487
糧	-9.52563
不相	-9.52578
渉	-9.52603
終日	-9.52662
蹈	-9.52664
祖宗	-9.52758
從容	-9.52764
古之	-9.52828
又有	-9.52828
淳	-9.52991
鈞	-9.53001
凌	-9.53016
粹	-9.53077
貌	-9.53096
熹	-9.53144
中原	-9.53281
驗	-9.53316
之初	-9.53386
鬢	-9.53391
闢	-9.53435
猶有	-9.5345
證	-9.5345
較	-9.53453
自有	-9.5346
濕	-9.53639
以自	-9.53641
綱	-9.53781
苑	-9.53815
奠	-9.53846
胥	-9.53875
抗	-9.53984
邀	-9.53996
恤	-9.54005
恭惟	-9.54434
作詩	-9.54461
緒	-9.54489
不幸	-9.54526
警	-9.54547
覩	-9.54588
㫁	-9.549
鹿	-9.54913
巾	-9.54914
鑿	-9.54965
使者	-9.54981
抵	-9.54983
者其	-9.54991
賓	-9.55018
恕	-9.55228
䟦	-9.55256
無復	-9.55334
不至	-9.55624
誣	-9.55772
拔	-9.5579
南山	-9.55891
豫	-9.55966
慚	-9.56025
榜	-9.56069
涼	-9.56148
議論	-9.56206
朝夕	-9.56214
襟	-9.56217
鑑	-9.56246
杜詩	-9.56299
晏	-9.56342
之徒	-9.56407
羡	-9.56432
相逢	-9.5658
當年	-9.56589
創	-9.56695
執事	-9.56722
熱	-9.56771
簿	-9.56818
墻	-9.56995
自古	-9.56999
場	-9.57009
矣而	-9.57032
詩云	-9.57078
茲	-9.57079
絃	-9.57126
朋	-9.57148
顛	-9.57201
塘	-9.57216
訖	-9.57244
二人	-9.573
戚	-9.57382
淑	-9.57385
去年	-9.57544
染	-9.57589
得之	-9.57779
進退	-9.57869
西山	-9.57944
此心	-9.58213
江山	-9.58228
勒	-9.58318
衝	-9.58336
居士	-9.58337
捕	-9.58389
西湖	-9.58395
公曰	-9.58419
民之	-9.5846
鄧	-9.58509
檄	-9.58577
噫	-9.58649
明日	-9.58666
署	-9.58692
災	-9.58765
碩	-9.58904
㝷	-9.58961
咎	-9.59021
坤	-9.59129
誕	-9.59161
蓮	-9.59164
桃	-9.59302
遍	-9.59338
東風	-9.5939
之才	-9.59454
五十	-9.59643
值	-9.59699
偽	-9.597
東西	-9.59746
裂	-9.59776
柱	-9.59803
赦	-9.59853
昧	-9.599
繇	-9.59909
攀	-9.59919
憑	-9.59933
貨	-9.59953
緣	-9.59983
精神	-9.60065
腸	-9.60102
其意	-9.60122
一切	-9.60137
裕	-9.60218
盟	-9.60224
岀	-9.60418
斬	-9.60524
二十	-9.60605
綴	-9.60681
捐	-9.60835
譏	-9.60867
七年	-9.60903
萬事	-9.60952
冩	-9.61121
弼	-9.61191
謬	-9.61223
訴	-9.61239
未易	-9.61263
状	-9.61347
教授	-9.61392
圃	-9.61459
撥	-9.61593
至元	-9.61824
以是	-9.61835
陟	-9.61841
銜	-9.61897
欠	-9.61916
蔵	-9.61963
懶	-9.621
駭	-9.6214
未必	-9.62204
浦	-9.62263
崔	-9.62329
而下	-9.62338
奇	-9.62436
亨	-9.62488
廼	-9.62534
不盡	-9.62549
圭	-9.62686
其志	-9.62693
斂	-9.62734
宸	-9.62795
葛	-9.62796
弔	-9.62858
停	-9.62986
道士	-9.63076
不當	-9.63085
子弟	-9.63168
殷	-9.63204
卓	-9.63237
庫	-9.63257
瓦	-9.63347
郎中	-9.63424
六年	-9.63454
逾	-9.63462
諧	-9.63493
毒	-9.6354
聳	-9.63574
喚	-9.63588
軸	-9.6364
人皆	-9.63729
禮樂	-9.63754
司馬	-9.63766
籠	-9.63829
措	-9.63907
之重	-9.63938
擾	-9.63959
叛	-9.63965
標	-9.6424
摩	-9.64284
得以	-9.6435
榖	-9.64395
正月	-9.64476
儉	-9.64514
攸	-9.64546
凢	-9.64567
几	-9.64634
敝	-9.64813
韋	-9.64824
誰能	-9.64846
瘦	-9.65018
指揮	-9.65098
两	-9.65128
斯文	-9.65225
討	-9.65235
潘	-9.6531
勑	-9.65374
携	-9.65403
誼	-9.65408
徽	-9.65429
九日	-9.65485
疇	-9.65509
垣	-9.65569
禀	-9.65653
伏惟	-9.65719
鋒	-9.65745
腰	-9.65812
舌	-9.65827
可憐	-9.65922
之政	-9.66287
欵	-9.6629
綿	-9.6629
濃	-9.66375
上人	-9.66387
之命	-9.66405
隂陽	-9.66464
懇	-9.66571
之禮	-9.66676
西風	-9.6675
宦	-9.66819
裘	-9.66861
嵗月	-9.66949
懿	-9.67008
之故	-9.67052
其身	-9.67053
與之	-9.67114
之曰	-9.67127
鼔	-9.67264
掾	-9.67273
㧞	-9.67293
瓊	-9.67351
及其	-9.6737
之恩	-9.67463
鬱	-9.6762
七月	-9.67648
窓	-9.67696
爐	-9.67774
綠	-9.6783
河南	-9.67834
割	-9.67934
庻	-9.67967
媿	-9.67969
逝	-9.6798
庇	-9.68121
前後	-9.68198
疲	-9.68254
疆	-9.68285
譜	-9.68297
襄	-9.68316
聖人之	-9.68413
由是	-9.6847
藁	-9.68482
㱕	-9.68654
軰	-9.6867
範	-9.68715
三代	-9.68783
賢者	-9.68842
百里	-9.68896
髮	-9.68958
衞	-9.68968
之氣	-9.69019
道人	-9.6905
聞之	-9.69112
敕	-9.69169
相公	-9.6917
主簿	-9.69195
四月	-9.6921
所得	-9.69249
黒	-9.69284
之計	-9.69425
睿	-9.69509
何所	-9.69554
老子	-9.69764
麻	-9.6977
蓄	-9.69791
王氏	-9.69864
苗	-9.69913
爽	-9.69946
不自	-9.70003
見於	-9.70092
見之	-9.70099
十日	-9.70168
謗	-9.7017
憤	-9.70173
雁	-9.70182
員	-9.70206
従	-9.70265
謾	-9.70287
旨	-9.70305
薛	-9.70306
不識	-9.7036
袖	-9.70399
爛	-9.70413
行之	-9.70453
千年	-9.70552
不堪	-9.70585
足下	-9.70631
矣然	-9.7066
而去	-9.70703
黜	-9.70737
罰	-9.70787
老人	-9.70858
壑	-9.70866
盍	-9.71002
侈	-9.71033
篆	-9.71107
子曰	-9.71131
乳	-9.71173
之下	-9.71295
山谷	-9.71347
用之	-9.71371
揺	-9.71382
故曰	-9.71391
堯舜	-9.71445
膏	-9.71471
頑	-9.71544
護	-9.71709
未及	-9.71749
一首	-9.71757
前日	-9.71775
先君	-9.7178
詢	-9.71819
遜	-9.71934
耀	-9.72036
偃	-9.72101
繡	-9.72103
障	-9.72136
疊	-9.72151
汪	-9.722
祐	-9.72203
癡	-9.72207
槐	-9.72217
牒	-9.72226
▁(	-9.72233
官吏	-9.72262
稅	-9.72266
肇	-9.72284
世間	-9.72304
淮南	-9.72347
寂寞	-9.72369
暇	-9.7246
之理	-9.72591
攜	-9.72597
函	-9.72616
壞	-9.72664
仁義	-9.72809
三十	-9.73026
一言	-9.73038
涉	-9.731
技	-9.73246
牀	-9.7339
恒	-9.73472
掛	-9.73507
戀	-9.73586
而能	-9.73598
道之	-9.73613
嚮	-9.73614
彰	-9.73642
國之	-9.73684
從事	-9.73748
中國	-9.73819
風俗	-9.73833
桐	-9.73888
凶	-9.73897
貸	-9.73911
以示	-9.73976
凍	-9.73999
勅	-9.74068
黄金	-9.74074
繩	-9.7414
陂	-9.74163
普	-9.74249
蟲	-9.74263
江上	-9.74358
何必	-9.74377
賦詩	-9.74425
打	-9.7444
悦	-9.74471
䖍	-9.74479
弟子	-9.74608
之美	-9.74741
層	-9.74755
白髪	-9.74804
淹	-9.74848
醇	-9.74903
奈何	-9.74933
袁	-9.74942
涵	-9.74959
扇	-9.75008
忝	-9.75025
拱	-9.7505
士之	-9.75097
扁舟	-9.75189
魁	-9.75216
所至	-9.75277
之賢	-9.75293
江東	-9.75363
壘	-9.75369
三十年	-9.75389
諸子	-9.75482
則其	-9.75542
澹	-9.75582
飄	-9.75764
柄	-9.7577
十二月	-9.75801
馭	-9.75804
偕	-9.7583
不聞	-9.7589
二十年	-9.75912
不與	-9.75919
驟	-9.76001
駐	-9.76096
至此	-9.76197
彈	-9.76219
曰此	-9.76223
壮	-9.76252
墳	-9.76256
之論	-9.7629
俞	-9.7629
後人	-9.76404
終身	-9.76407
摘	-9.76462
幣	-9.76465
之任	-9.76569
薪	-9.76602
中興	-9.7676
析	-9.76769
朋友	-9.76847
樵	-9.76928
網	-9.76989
冲	-9.77105
粉	-9.77128
父老	-9.77194
肩	-9.77207
谿	-9.77261
洽	-9.77382
皮	-9.77385
不須	-9.77396
之私	-9.77399
項	-9.77408
耳目	-9.77495
轍	-9.77498
各有	-9.77606
流水	-9.77609
韶	-9.77722
諌	-9.77741
之憂	-9.77749
可也	-9.77776
爲之	-9.77783
府君	-9.77798
隅	-9.7791
隙	-9.78007
十五	-9.78066
遶	-9.78112
棘	-9.78165
單	-9.78281
躋	-9.78289
翰林	-9.78299
政事	-9.78337
之樂	-9.78354
倡	-9.78477
桃李	-9.7849
以求	-9.78492
倅	-9.78689
處士	-9.78719
控	-9.78963
帳	-9.79002
聨	-9.79077
豈非	-9.79159
豈有	-9.79184
嫁	-9.79216
鱗	-9.79248
牕	-9.79378
區	-9.79421
其中	-9.79678
汙	-9.79722
的	-9.79731
蛇	-9.79829
者非	-9.79977
烹	-9.80058
萬一	-9.80152
憚	-9.80153
貶	-9.80165
太子	-9.80201
寔	-9.80213
固有	-9.80342
三千	-9.80393
夲	-9.80402
籌	-9.80414
清明	-9.80425
壤	-9.80538
相見	-9.80565
岩	-9.80584
而不能	-9.8066
公卿	-9.80679
其為	-9.80792
雖然	-9.80866
者以	-9.8107
猶未	-9.81079
詩人	-9.81151
而又	-9.81217
史記	-9.81311
囚	-9.81414
之數	-9.81462
硯	-9.8149
䏻	-9.81551
織	-9.81587
八年	-9.81766
四時	-9.81912
邵	-9.8195
臣聞	-9.82025
閔	-9.82232
若是	-9.82377
十一月	-9.82504
千萬	-9.82551
絳	-9.826
一年	-9.82603
叩	-9.82615
輟	-9.82616
其餘	-9.82661
乖	-9.82824
君子之	-9.82852
减	-9.82966
文武	-9.82971
金石	-9.83014
猷	-9.83086
態	-9.83088
出處	-9.83104
熊	-9.83113
勁	-9.83146
旬	-9.83148
令人	-9.83193
臂	-9.83211
之勢	-9.8332
祇	-9.83337
迂	-9.83346
一朝	-9.83455
媚	-9.83483
姓名	-9.83532
板	-9.83563
天上	-9.83584
沮	-9.83624
頋	-9.83838
別	-9.83869
姪	-9.83934
淪	-9.83987
之制	-9.8405
忙	-9.8412
壺	-9.84143
姚	-9.84144
叅	-9.84175
學問	-9.84205
聘	-9.84243
製	-9.84252
焦	-9.84255
杭	-9.84268
本朝	-9.84275
揆	-9.8428
汗	-9.843
僊	-9.84347
筵	-9.84353
此意	-9.84366
寖	-9.84381
之患	-9.84402
妾	-9.84409
勵	-9.84499
十八	-9.84588
矢	-9.84642
造化	-9.84704
濁	-9.84723
邈	-9.84728
是時	-9.84749
促	-9.84795
冗	-9.8493
不免	-9.84939
祿	-9.84996
泊	-9.84997
溝	-9.85058
慿	-9.85116
剪	-9.85144
不爲	-9.85184
飭	-9.85239
門下	-9.85355
托	-9.85489
闊	-9.85551
互	-9.85577
陣	-9.85609
言者	-9.85643
菜	-9.85644
四十	-9.85663
河北	-9.85731
何事	-9.85755
異時	-9.85776
悼	-9.85804
仗	-9.85806
凖	-9.85816
床	-9.85829
所居	-9.85862
埋	-9.85956
閣下	-9.85977
太宗	-9.86028
浮雲	-9.86031
吏部	-9.86044
禦	-9.86071
灰	-9.86127
詎	-9.86148
之職	-9.86148
不出	-9.86214
畔	-9.86232
夾	-9.86346
亦可	-9.86354
滴	-9.86361
事業	-9.86484
燒	-9.86564
餉	-9.86582
賁	-9.86619
風吹	-9.86634
其實	-9.86713
辛	-9.86724
奔走	-9.868
雍	-9.86827
臣等	-9.8684
新詩	-9.86876
僚	-9.86975
謫	-9.8698
藴	-9.87145
白頭	-9.87217
殁	-9.87252
謨	-9.87288
見寄	-9.87367
有感	-9.87393
而不知	-9.87395
咨	-9.87481
綸	-9.87541
斯人	-9.87568
以下	-9.87576
三百	-9.87693
其道	-9.87737
辭免	-9.87811
坊	-9.87837
淵明	-9.87854
亦無	-9.87889
天地之	-9.87895
者有	-9.87927
竿	-9.8794
仇	-9.87957
之舊	-9.8805
左傳	-9.88053
之弊	-9.88058
邇	-9.88119
𨽻	-9.88341
一見	-9.88365
攷	-9.88371
䕃	-9.88377
聼	-9.88409
冊	-9.88426
其名	-9.88432
元祐	-9.88472
隴	-9.88508
它	-9.88564
之望	-9.8859
往來	-9.88751
堤	-9.8879
當世	-9.88795
葺	-9.88801
八十	-9.88823
瀆	-9.88858
跨	-9.88872
惟有	-9.8889
以待	-9.89024
拒	-9.89029
猥	-9.89076
之詩	-9.89108
堆	-9.89118
古者	-9.89118
公以	-9.8917
不成	-9.89179
熈	-9.89205
不若	-9.89219
慢	-9.89244
人主	-9.89246
六十	-9.89307
人事	-9.89342
六經	-9.89346
不受	-9.89364
怯	-9.89376
執政	-9.89464
牆	-9.89548
為人	-9.8956
虧	-9.89568
窻	-9.89641
躍	-9.89653
之官	-9.89738
畀	-9.89768
皆以	-9.8977
道中	-9.89779
河東	-9.89813
有此	-9.89828
糴	-9.89914
冨	-9.89992
迺	-9.90016
死生	-9.90096
刋	-9.90103
千金	-9.90133
乍	-9.90242
濤	-9.90377
一身	-9.90427
幻	-9.90444
妍	-9.9046
挂	-9.90466
之類	-9.90551
者則	-9.9056
隋	-9.90562
嗜	-9.90598
毅	-9.90609
伏以	-9.90632
竊以	-9.90676
君臣	-9.90684
西南	-9.90717
萌	-9.90812
妃	-9.90825
徘徊	-9.90886
中庸	-9.90979
濯	-9.9101
兆	-9.91067
鑄	-9.91091
墓誌銘	-9.91095
而歸	-9.91098
獵	-9.91139
則又	-9.91141
大抵	-9.91179
神仙	-9.91193
尸	-9.91233
関	-9.91269
伏念臣	-9.91277
牢	-9.91334
十一	-9.91357
風月	-9.91395
稻	-9.91405
渚	-9.91424
蕭蕭	-9.91462
未見	-9.91545
者又	-9.9156
蠧	-9.9158
闈	-9.91612
文王	-9.91649
研	-9.91653
不是	-9.91661
依舊	-9.91684
漲	-9.91693
鈎	-9.91747
莭	-9.91776
哲	-9.91873
又以	-9.91888
冐	-9.91912
苔	-9.9195
未幾	-9.91971
嵩	-9.91993
藤	-9.92037
從之	-9.92094
懲	-9.92097
之行	-9.92205
云云	-9.92234
所有	-9.92326
鬼神	-9.92402
混	-9.92455
所見	-9.9259
租	-9.92593
霄	-9.92688
飲食	-9.92749
于是	-9.92774
頴	-9.92774
償	-9.92783
誥	-9.92795
芙蓉	-9.92827
覔	-9.92941
尚有	-9.92953
遮	-9.92966
再拜	-9.92998
慧	-9.93056
霑	-9.93084
殫	-9.93102
𦵏	-9.93128
涕	-9.93151
艱難	-9.93222
故其	-9.9324
懋	-9.93267
社稷	-9.93322
百世	-9.93327
徵	-9.93327
莫能	-9.9337
以謂	-9.93431
煥	-9.93504
乎其	-9.93583
他人	-9.93605
之誠	-9.93628
得失	-9.93638
楹	-9.93686
知之	-9.93731
郡縣	-9.93774
税	-9.93857
不易	-9.93879
誰知	-9.93949
无	-9.94214
愆	-9.94222
之語	-9.94334
之榮	-9.9434
㑹稽	-9.94387
軾	-9.94396
金陵	-9.945
五日	-9.94507
濶	-9.94526
白日	-9.94543
丕	-9.94615
碎	-9.94617
電	-9.94635
天之	-9.94641
穀	-9.94668
監司	-9.94714
森	-9.94783
之罪	-9.94808
十六	-9.9485
向來	-9.94859
栢	-9.94877
綏	-9.95012
吞	-9.95023
于此	-9.95031
罕	-9.9511
其說	-9.9511
又云	-9.9514
敢不	-9.95199
迨	-9.95248
不肖	-9.95266
迴	-9.95285
之變	-9.95313
猿	-9.95326
潰	-9.95331
灘	-9.95363
廬陵	-9.95376
之實	-9.95472
僻	-9.95585
麾	-9.9563
毫	-9.95633
吁	-9.95642
十三	-9.95664
渥	-9.95712
縣令	-9.95716
塵埃	-9.95728
以告	-9.9575
詩曰	-9.95778
倘	-9.95778
汲	-9.95798
淨	-9.958
矯	-9.95832
則曰	-9.95851
不作	-9.95977
則是	-9.95982
暨	-9.95991
西北	-9.96004
道路	-9.96047
夣	-9.96055
不獲	-9.96062
萬世	-9.96064
噐	-9.96096
牘	-9.96107
淫	-9.96144
無他	-9.96175
相從	-9.96266
衷	-9.96272
輕重	-9.96291
觀其	-9.96349
霽	-9.96395
者不	-9.96465
㢘	-9.9647
多士	-9.96549
江淮	-9.96598
之情	-9.96615
措置	-9.96729
奥	-9.9673
逼	-9.96739
蟠	-9.96837
溺	-9.9694
嬰	-9.97028
不朽	-9.97073
嶽	-9.97083
之術	-9.97153
認	-9.97206
臯	-9.97236
酣	-9.97257
桃花	-9.97342
不可不	-9.97353
變化	-9.97353
暢	-9.97476
不應	-9.97598
頂	-9.97604
學校	-9.97613
錢塘	-9.97627
巴	-9.97726
之難	-9.97727
於人	-9.97758
閫	-9.97864
不行	-9.97952
以上	-9.97966
一枝	-9.97989
榻	-9.98009
門外	-9.98073
揚州	-9.98091
徇	-9.9812
數十	-9.98123
莊子	-9.98168
禪師	-9.98304
宵	-9.98355
長者	-9.9839
濡	-9.98451
先王	-9.98454
臥	-9.98468
翳	-9.98483
之利	-9.98569
蟬	-9.98638
何足	-9.98697
者矣	-9.98714
詰	-9.98759
醜	-9.98789
桓	-9.98906
未可	-9.98933
有功	-9.99096
寨	-9.99098
廟堂	-9.99102
俯仰	-9.992
白首	-9.99219
縮	-9.99248
夙夜	-9.99259
不許	-9.99334
岐	-9.99367
文公	-9.99378
裳	-9.99545
需	-9.99575
慨然	-9.9963
汴	-9.99799
朽	-9.99809
太史	-9.99842
蓬萊	-9.99864
始終	-9.99881
畜	-9.99926
之大	-10.0003
未嘗不	-10.0003
弛	-10.0007
久矣	-10.0009
之勞	-10.0018
第二	-10.003
侍從	-10.0039
也又	-10.0046
未至	-10.0047
至是	-10.005
暉	-10.0052
栽	-10.0058
箭	-10.0059
太師	-10.0062
誌	-10.0065
萃	-10.0067
帷	-10.007
遣使	-10.0077
次第	-10.0078
未免	-10.0089
求之	-10.0091
膚	-10.0096
遁	-10.0103
截	-10.0105
竄	-10.0105
蟻	-10.0118
甲子	-10.0119
有子	-10.012
數年	-10.012
佑	-10.0125
蒸	-10.0139
妖	-10.0142
所在	-10.0147
數日	-10.0147
子之	-10.0153
日夜	-10.0153
徃徃	-10.0154
判官	-10.0164
也若	-10.0171
未盡	-10.0176
與其	-10.0177
頥	-10.0191
若此	-10.0191
耻	-10.0195
起居	-10.0196
文學	-10.0199
之力	-10.0202
耗	-10.0206
飲酒	-10.021
蠲	-10.0225
青雲	-10.0236
偷	-10.024
歸去	-10.0241
落日	-10.0242
荘	-10.0246
仁宗	-10.025
雕	-10.0251
牋	-10.0252
鄒	-10.0252
亦何	-10.0253
彩	-10.0268
回首	-10.0269
佇	-10.0269
恪	-10.0269
扉	-10.0274
貺	-10.0279
奬	-10.028
退之	-10.0288
軌	-10.029
栗	-10.0294
以至	-10.0294
二字	-10.0302
至正	-10.0309
犀	-10.0309
其所以	-10.0313
淸	-10.0319
嘯	-10.0321
懽	-10.0321
之家	-10.0335
十里	-10.0338
廩	-10.0343
朴	-10.0359
老成	-10.0362
與夫	-10.0364
副使	-10.0367
掠	-10.038
萬古	-10.0389
玷	-10.039
何日	-10.039
提刑	-10.0393
盆	-10.0398
罄	-10.0401
只是	-10.0403
踵	-10.0413
奸	-10.0422
鴉	-10.0423
傲	-10.0427
籬	-10.0429
所當	-10.043
此事	-10.0432
今之	-10.0436
不少	-10.0437
捧	-10.044
為我	-10.0442
豈惟	-10.0454
岑	-10.0459
齡	-10.0462
箇	-10.0466
黎	-10.0482
明堂	-10.0484
綺	-10.0491
是故	-10.0492
䑕	-10.0492
之末	-10.05
蠶	-10.0504
慘	-10.0508
該	-10.051
一家	-10.0513
王公	-10.0519
歷	-10.0521
軀	-10.0523
翰墨	-10.0524
恱	-10.0529
檻	-10.0532
昔人	-10.0535
峽	-10.054
冶	-10.0541
仲尼	-10.0542
不動	-10.0548
突	-10.0551
其文	-10.0552
挈	-10.0552
不欲	-10.0553
隐	-10.0555
乆矣	-10.056
玉堂	-10.056
欲以	-10.0561
雀	-10.0564
庾	-10.0569
恢	-10.0574
點	-10.0577
浚	-10.0578
不暇	-10.058
周旋	-10.0582
誰與	-10.0584
出門	-10.0586
帆	-10.0589
餞	-10.059
挺	-10.0591
妣	-10.0592
断	-10.0597
姬	-10.0597
嬉	-10.062
汚	-10.0621
祚	-10.0625
脉	-10.0627
皷	-10.063
安能	-10.0636
洛陽	-10.0639
灑	-10.0649
登臨	-10.0652
夕陽	-10.0662
乃知	-10.0667
樊	-10.0668
鷄	-10.0671
一字	-10.0676
註	-10.0681
其可	-10.0683
百官	-10.0687
太極	-10.0697
搜	-10.0698
嘉定	-10.0705
先後	-10.0706
三人	-10.0711
秘	-10.0714
憫	-10.0722
之用	-10.0725
戾	-10.0726
恣	-10.0727
成都	-10.0732
鼻	-10.0744
所作	-10.0745
者為	-10.0751
漢書	-10.0753
太學	-10.0758
不合	-10.0763
栖	-10.0771
有一	-10.0778
裴	-10.0803
寅	-10.0811
槩	-10.0821
從此	-10.083
若干	-10.0831
同年	-10.0834
詭	-10.0843
寃	-10.0849
挹	-10.085
可見	-10.0853
邂逅	-10.0864
不覺	-10.0867
賔客	-10.0873
幅	-10.0877
十四	-10.0881
誘	-10.0882
海内	-10.0887
蹇	-10.0892
四首	-10.0897
想見	-10.0898
算	-10.0899
慷慨	-10.0918
此詩	-10.0919
贍	-10.0927
我亦	-10.0927
樽	-10.093
鵲	-10.0934
邱	-10.0934
自知	-10.0935
以詩	-10.0936
緫	-10.0936
鷗	-10.0938
羨	-10.0939
構	-10.0949
阜	-10.0952
刺史	-10.0955
巽	-10.0955
塲	-10.0955
時有	-10.0958
替	-10.0975
腐	-10.0985
不妨	-10.0996
世事	-10.0998
張氏	-10.1001
歆	-10.1005
之門	-10.101
博士	-10.1011
之勤	-10.1012
蕪	-10.1018
九年	-10.1021
瓜	-10.1022
衮	-10.1025
待制	-10.1028
而不可	-10.1029
虹	-10.1035
有時	-10.1035
并序	-10.1045
畦	-10.1046
和氣	-10.1047
公子	-10.1054
瓶	-10.1058
蹤	-10.1064
歲月	-10.1066
隘	-10.1067
相對	-10.1067
陷	-10.1067
刼	-10.1068
揖	-10.1068
未得	-10.1071
𤓰	-10.1077
傳曰	-10.1079
不善	-10.1088
不死	-10.109
浴	-10.1094
饗	-10.1095
祉	-10.1096
猛	-10.1097
北山	-10.11
大事	-10.1104
斯民	-10.1112
臻	-10.1112
無一	-10.1113
棹	-10.1114
距	-10.1119
獸	-10.112
犬	-10.1121
銓	-10.1123
二公	-10.1125
終始	-10.1127
李氏	-10.1131
取其	-10.1139
安知	-10.1144
之治	-10.115
瑶	-10.1152
長沙	-10.1153
山下	-10.1154
行人	-10.1154
歐陽	-10.1155
自謂	-10.1157
車馬	-10.1158
百萬	-10.1158
拾	-10.1159
巷	-10.116
湛	-10.116
沐	-10.1162
其上	-10.1169
継	-10.117
准	-10.1174
冥	-10.1178
不言	-10.1178
饋	-10.1181
與君	-10.1185
自得	-10.1197
怠	-10.1199
聰	-10.1202
粲	-10.1205
沃	-10.1205
其親	-10.1213
恬	-10.1213
州郡	-10.1216
祕	-10.1225
團	-10.1236
伍	-10.1243
𢎞	-10.1245
此身	-10.1261
輯	-10.1264
喬	-10.1266
之始	-10.1269
庶㡬	-10.127
惰	-10.1275
虗	-10.1288
神明	-10.1291
其父	-10.1295
摇	-10.1299
臘	-10.1301
縈	-10.1303
盃	-10.131
有道	-10.1311
纂	-10.1314
天涯	-10.1321
與人	-10.1324
人言	-10.1324
簮	-10.1335
蔬	-10.1341
灌	-10.1341
咫尺	-10.1345
道也	-10.1348
造物	-10.135
詐	-10.1353
羮	-10.1355
儼	-10.136
㝠	-10.1361
不到	-10.1361
柏	-10.1363
忤	-10.1364
児	-10.1365
蜂	-10.1368
一事	-10.1368
儒者	-10.1371
潁	-10.1373
或曰	-10.1374
本末	-10.1374
議者	-10.1379
之資	-10.1379
公事	-10.1382
天台	-10.1383
年年	-10.1389
之選	-10.139
胷中	-10.1391
談笑	-10.1402
掲	-10.1406
埀	-10.1412
遏	-10.1413
箴	-10.1413
湖南	-10.1414
將以	-10.1419
括	-10.1422
人才	-10.1425
秪	-10.1429
茫茫	-10.1431
䕫	-10.1434
忩	-10.1438
昔者	-10.1444
禾	-10.1444
騷	-10.1449
鵬	-10.1454
握	-10.1455
不失	-10.1458
釐	-10.1459
片	-10.1459
綵	-10.1461
攬	-10.1461
先帝	-10.1467
貯	-10.147
佚	-10.147
家人	-10.1471
用兵	-10.1473
剡	-10.1477
繆	-10.1485
覧	-10.1489
滑	-10.1494
成功	-10.15
舘	-10.1507
僉	-10.1507
人人	-10.1508
豫章	-10.1512
生死	-10.1513
筠	-10.1521
墟	-10.1522
無心	-10.1524
門人	-10.1525
忠義	-10.1529
或有	-10.1532
劾	-10.1535
魄	-10.154
募	-10.1541
雋	-10.1541
樸	-10.1543
其先	-10.1544
之可	-10.1544
後來	-10.155
所聞	-10.1551
柯	-10.1553
法度	-10.1557
豆	-10.157
髙明	-10.1572
趂	-10.1577
平日	-10.1583
亞	-10.1585
而成	-10.1588
廪	-10.1593
為善	-10.1599
之役	-10.1599
師友	-10.1608
其徒	-10.1613
匠	-10.1614
狐	-10.1619
廵	-10.1619
太尉	-10.1624
上帝	-10.1628
恊	-10.1629
熙	-10.1635
廻	-10.1637
坎	-10.1637
受命	-10.1648
耆	-10.1649
已而	-10.1655
㓂	-10.1656
張公	-10.1657
如今	-10.1658
雉	-10.1661
丐	-10.1662
不惟	-10.1664
仙人	-10.1668
纎	-10.167
契丹	-10.1673
羣臣	-10.1679
迄	-10.1683
鉅	-10.1683
得人	-10.1683
軫	-10.1684
盛徳	-10.1685
不止	-10.1686
本無	-10.169
何妨	-10.1694
妨	-10.1696
幕府	-10.1696
人所	-10.1699
風雲	-10.17
以来	-10.1705
之謂	-10.1712
与	-10.1718
丈夫	-10.1725
而自	-10.1729
大小	-10.173
橘	-10.1733
級	-10.1735
寒暑	-10.1736
數百	-10.1742
薫	-10.1753
君家	-10.1759
近世	-10.1761
夭	-10.1762
書院	-10.1764
曰是	-10.1765
是為	-10.1765
臨川	-10.1768
弦	-10.1772
昬	-10.1772
多少	-10.1775
帛	-10.1775
洞庭	-10.1781
不求	-10.1789
㤙	-10.1789
先生之	-10.179
一官	-10.1793
抽	-10.1795
䧟	-10.1796
蝶	-10.1798
不已	-10.1799
以成	-10.1804
袍	-10.1806
為國	-10.1808
布衣	-10.1811
書生	-10.1813
詔書	-10.1817
聰明	-10.1822
册	-10.1823
架	-10.1824
無有	-10.1828
猶在	-10.1834
域	-10.1835
塟	-10.1836
羸	-10.1836
浄	-10.1837
童子	-10.1838
於世	-10.1841
竇	-10.1847
艾	-10.185
閤	-10.1851
箕	-10.1859
膽	-10.1859
槖	-10.1865
其地	-10.1867
茗	-10.1869
袂	-10.187
洒	-10.1872
裝	-10.1873
閉門	-10.1874
扣	-10.1876
不明	-10.1885
春色	-10.1891
胸中	-10.1891
鄉里	-10.1894
乎此	-10.1896
於斯	-10.1896
海上	-10.1904
夸	-10.1906
筭	-10.1912
縱横	-10.1912
一一	-10.1913
何其	-10.1917
舍人	-10.1919
劄	-10.192
諸將	-10.1922
他年	-10.1925
雖不	-10.1926
姜	-10.1927
胄	-10.1928
丹青	-10.1929
而復	-10.193
郡守	-10.1932
夢中	-10.1932
忠信	-10.1934
不知其	-10.1935
武帝	-10.1938
鋤	-10.1942
陛	-10.1944
此時	-10.1949
之節	-10.195
秀才	-10.1952
鈔	-10.1953
蕭然	-10.1954
攘	-10.1954
生於	-10.1961
之仁	-10.1964
之徳	-10.1967
而行	-10.1977
棟	-10.1977
上書	-10.1978
之原	-10.1982
無可	-10.1987
國公	-10.1988
取之	-10.1993
匹	-10.1994
大父	-10.1996
失其	-10.2003
巡	-10.2004
酸	-10.2004
之句	-10.2006
於天下	-10.201
浙	-10.2011
第三	-10.2015
填	-10.2015
杭州	-10.2018
餐	-10.2032
慨	-10.2034
顔色	-10.204
不問	-10.2043
而已矣	-10.2043
罹	-10.2044
緩急	-10.2049
東山	-10.2053
天命	-10.2054
三尺	-10.2061
公諱	-10.2064
文集	-10.207
言語	-10.207
奈	-10.2074
粧	-10.2074
梓	-10.2088
逺近	-10.2093
宇宙	-10.2094
曩	-10.2097
膠	-10.2102
城中	-10.2106
而止	-10.2114
穹	-10.2114
諷	-10.2116
而得	-10.2121
駒	-10.2124
典刑	-10.2131
緘	-10.2139
遂以	-10.2143
驥	-10.215
剥	-10.2152
後漢	-10.2154
矣今	-10.2155
之寄	-10.2156
梢	-10.2162
論語	-10.2166
月明	-10.2169
其才	-10.2171
視之	-10.2173
聮	-10.2173
邸	-10.2178
榦	-10.2191
佞	-10.2192
其下	-10.2193
其説	-10.2194
七日	-10.2194
下有	-10.2197
書曰	-10.2199
髙祖	-10.2199
非有	-10.2201
安危	-10.2212
而弗	-10.2212
來者	-10.2216
金華	-10.2221
周禮	-10.2227
鋪	-10.2228
捷	-10.2231
戈	-10.2232
觀之	-10.224
題詩	-10.2242
蔚	-10.2243
氣象	-10.2244
其一	-10.2246
一篇	-10.225
稱其	-10.2252
現	-10.2259
椒	-10.2262
䘏	-10.2268
其能	-10.227
礼	-10.2277
有大	-10.2278
豈可	-10.229
長老	-10.2293
江海	-10.2296
分明	-10.2303
訛	-10.2304
繄	-10.2305
迭	-10.2309
未甞	-10.2315
永嘉	-10.232
鬚	-10.2321
蹙	-10.2323
城南	-10.2328
睦	-10.2331
既而	-10.2334
轡	-10.2336
痕	-10.2336
纒	-10.2336
透	-10.2342
終不	-10.2343
堂堂	-10.235
嘲	-10.2359
組	-10.236
斧	-10.2364
寘	-10.2365
所為	-10.2366
虐	-10.2371
如此則	-10.2374
滌	-10.2378
孺	-10.2382
企	-10.2385
撓	-10.2389
憂患	-10.239
臧	-10.2391
遼	-10.2394
於朝	-10.2399
生日	-10.2403
幽人	-10.2407
繪	-10.2411
恠	-10.2415
皇后	-10.2418
演	-10.242
若夫	-10.2421
僣	-10.2424
尔	-10.2425
無愧	-10.2425
禮部	-10.2428
而卒	-10.2435
牡丹	-10.2439
窟	-10.2441
芽	-10.2446
及此	-10.2457
劉氏	-10.2457
霸	-10.2458
羈	-10.2463
金人	-10.2465
衆人	-10.2469
寒食	-10.2481
義理	-10.2483
今朝	-10.2497
雨露	-10.25
沾	-10.2509
潦	-10.251
朱子	-10.2511
治之	-10.2529
逋	-10.2529
甕	-10.2537
數月	-10.2539
何有	-10.2546
之辭	-10.2555
有言	-10.2561
模	-10.2562
窘	-10.2567
人家	-10.2568
者曰	-10.257
為政	-10.2575
苐	-10.2576
廬山	-10.2579
吾道	-10.2588
斤	-10.2591
鐡	-10.2592
欣然	-10.2593
五色	-10.2593
蔣	-10.2599
珪	-10.2603
州刺史	-10.2607
霖	-10.2609
有二	-10.2611
所能	-10.2614
遙	-10.2616
陜西	-10.2628
之謀	-10.2628
老去	-10.263
即位	-10.2633
閎	-10.2635
俸	-10.2644
可乎	-10.2645
天理	-10.2647
父兄	-10.2649
厄	-10.2652
未敢	-10.2653
宛	-10.2664
一方	-10.2672
矣夫	-10.2672
死者	-10.2673
峙	-10.2675
國朝	-10.2679
中間	-10.2681
簪	-10.2689
鬻	-10.269
纓	-10.2703
閭	-10.2706
一世	-10.271
孝友	-10.271
即事	-10.2716
諸路	-10.2722
太祖	-10.2727
干戈	-10.2728
簿書	-10.2733
鶯	-10.2735
何為	-10.2738
髯	-10.274
從來	-10.2744
謡	-10.2745
本路	-10.2752
未足	-10.2752
縷	-10.2753
號令	-10.2753
懦	-10.2762
欄	-10.2773
而未	-10.2777
稔	-10.2781
超然	-10.2787
時時	-10.2789
世俗	-10.2791
㓕	-10.2792
筍	-10.2794
鄕	-10.2795
本州	-10.2809
平時	-10.2812
武王	-10.2819
即日	-10.2822
迪	-10.2828
惟其	-10.2829
裔	-10.2833
絶句	-10.2836
物之	-10.2842
羌	-10.2846
之本	-10.2848
崩	-10.2849
湧	-10.2849
腴	-10.2852
葵	-10.2853
職事	-10.2856
之禍	-10.2861
豈能	-10.2863
圎	-10.2868
鑰	-10.2873
薰	-10.2882
晁	-10.2893
檜	-10.2902
前人	-10.2908
思之	-10.2909
笛	-10.291
瑩	-10.2911
弭	-10.2913
為君	-10.2914
幾何	-10.2917
一本	-10.2918
非所	-10.292
聞道	-10.2929
之請	-10.2933
名曰	-10.2934
之權	-10.2936
些	-10.2939
日日	-10.2942
而非	-10.2943
人有	-10.2948
酷	-10.2954
涯	-10.2954
甥	-10.2956
胡為	-10.2957
相繼	-10.2963
讀之	-10.2963
春日	-10.2963
版	-10.297
諸儒	-10.2971
事君	-10.2986
楽	-10.2993
窗	-10.2999
徼	-10.3002
怕	-10.3012
揭	-10.3012
閟	-10.3012
逕	-10.3016
楮	-10.3017
之業	-10.3022
駿	-10.3027
十九	-10.3032
追封	-10.3034
太原	-10.3035
耿	-10.3036
固已	-10.3037
可知	-10.3038
中謝	-10.3039
同知	-10.3042
妻子	-10.3046
於今	-10.305
淳熈	-10.3051
子由	-10.3052
之内	-10.3054
太常	-10.3056
今古	-10.3059
或以	-10.3061
寇	-10.3062
貲	-10.3063
之教	-10.3071
凋	-10.3072
牲	-10.3074
扵是	-10.3075
批	-10.3081
何由	-10.3083
規模	-10.3085
戮	-10.3086
炊	-10.3095
老矣	-10.3097
一生	-10.3101
此其	-10.3102
之妙	-10.3104
戢	-10.3104
經綸	-10.3105
不負	-10.3105
扁	-10.3105
茹	-10.3106
笏	-10.3114
言其	-10.3114
祔	-10.3114
李公	-10.3117
其二	-10.3129
寮	-10.3132
黍	-10.3132
教之	-10.3138
乃以	-10.3142
先人	-10.3156
一路	-10.3156
閏	-10.3164
眩	-10.3168
刃	-10.3169
黑	-10.317
鎭	-10.3173
稟	-10.3176
老夫	-10.3176
壻	-10.3178
道徳	-10.3184
兒童	-10.3187
二百	-10.3188
芒	-10.3194
有志	-10.3196
鳬	-10.3198
自此	-10.32
注云	-10.3201
歇	-10.3201
絮	-10.3203
三公	-10.3204
詩序	-10.3206
滕	-10.3206
屠	-10.3207
故也	-10.3214
炳	-10.3215
巫	-10.3217
亦以	-10.3219
人材	-10.3222
盜賊	-10.3224
雛	-10.3228
鞍	-10.3232
不逮	-10.3234
鬬	-10.3236
而言	-10.3238
吾子	-10.324
頽	-10.3242
舅	-10.3249
赫	-10.3249
襄陽	-10.325
天道	-10.3253
其行	-10.3254
堂記	-10.3263
次適	-10.3272
亦非	-10.3276
悵	-10.3276
豈知	-10.3281
矩	-10.3282
幸甚	-10.3286
城郭	-10.3287
諡	-10.3288
不通	-10.329
南陽	-10.3292
得一	-10.3292
狹	-10.3292
售	-10.3293
十七	-10.3293
疇昔	-10.3295
二三	-10.3297
陳氏	-10.3299
挿	-10.3307
忠孝	-10.3308
九州	-10.3314
拊	-10.3318
粥	-10.3321
白髮	-10.3322
兒女	-10.3322
而况	-10.3322
或者	-10.3324
襃	-10.3325
昇	-10.3327
再三	-10.333
衢	-10.3336
然其	-10.3336
著書	-10.3336
爻	-10.3337
勘	-10.3344
先王之	-10.3345
之深	-10.3347
渭	-10.3349
苛	-10.3355
明朝	-10.3356
擒	-10.3356
兎	-10.3359
年來	-10.3363
山東	-10.3364
之賜	-10.3367
廊	-10.3371
奎	-10.3372
察其	-10.3374
盗賊	-10.338
九重	-10.3385
也某	-10.339
譴	-10.3393
蘂	-10.3393
文選	-10.3395
湖山	-10.3398
先儒	-10.34
逺矣	-10.3409
㦸	-10.341
漿	-10.3415
萬人	-10.3417
聲名	-10.3418
薨	-10.3419
梯	-10.3426
因以	-10.3427
宥	-10.343
恭惟皇帝陛下	-10.3436
無異	-10.3437
瘴	-10.3446
事之	-10.3451
擲	-10.3454
草堂	-10.346
沿	-10.3461
培	-10.3461
以禮	-10.3467
也此	-10.3471
不厭	-10.3473
則為	-10.3473
五行	-10.3475
阮	-10.3479
鷹	-10.3481
聿	-10.3484
畵	-10.3484
多矣	-10.3486
啇	-10.3489
科舉	-10.349
系	-10.3492
煖	-10.3493
昨日	-10.3493
有常	-10.3494
釀	-10.3495
流落	-10.3496
者或	-10.3497
消息	-10.3505
之要	-10.3508
之典	-10.3512
何也	-10.3512
■	-10.3513
蘆	-10.3514
矣故	-10.3516
逍遥	-10.352
而上	-10.3521
坦	-10.3522
肖	-10.3524
元豐	-10.3527
塵土	-10.3529
桞	-10.3531
太白	-10.3533
棺	-10.3535
可為	-10.3535
太息	-10.3536
準	-10.3538
之方	-10.3541
勉之	-10.3544
昜	-10.3551
鄉人	-10.3557
者多	-10.356
江水	-10.356
光明	-10.3561
所知	-10.3562
衣食	-10.3562
建康	-10.3563
之失	-10.3567
詆	-10.3573
祁	-10.3575
之師	-10.3579
韜	-10.3583
勾	-10.3592
其有	-10.3594
禆	-10.3596
又何	-10.3603
至扵	-10.3603
言也	-10.3604
英雄	-10.3607
渴	-10.3613
膝	-10.3619
日以	-10.362
也自	-10.3629
於民	-10.363
参	-10.3636
之期	-10.3642
塢	-10.3644
之列	-10.3648
真人	-10.365
臣無任	-10.3659
之使	-10.3662
不廢	-10.3663
君不見	-10.3665
人以	-10.3669
之寵	-10.3682
不顧	-10.3688
匿	-10.3691
乾道	-10.3698
隕	-10.3705
於外	-10.3708
鄊	-10.3709
蛟	-10.3711
大學	-10.3712
貟	-10.3714
忱	-10.3719
藍	-10.3725
然也	-10.3725
躡	-10.3731
不起	-10.3732
何當	-10.3733
花開	-10.3735
豪傑	-10.3739
開元	-10.3745
東海	-10.3748
天意	-10.3752
以俟	-10.3756
零	-10.3759
梵	-10.3766
剖	-10.3769
何用	-10.3777
衙	-10.3784
經營	-10.3786
屐	-10.3788
礙	-10.379
以歸	-10.3792
以致	-10.3794
以爾	-10.3794
擕	-10.3794
渙	-10.3808
敘	-10.3817
段	-10.3817
行事	-10.3821
之訓	-10.3829
之效	-10.3831
仁者	-10.3833
一道	-10.3836
株	-10.3838
不逺	-10.3838
以備	-10.3839
之未	-10.3839
與世	-10.3841
芻	-10.3845
之責	-10.3846
堂上	-10.385
三世	-10.3854
澆	-10.3855
諸人	-10.3856
上有	-10.3858
自昔	-10.3859
宣和	-10.3859
五首	-10.386
𥿄	-10.3863
儘	-10.3872
去國	-10.3872
以文	-10.3874
馴	-10.3875
有聲	-10.3879
好學	-10.388
慶元	-10.3883
不絶	-10.3887
乙	-10.3887
曰我	-10.3892
相傳	-10.3896
對曰	-10.39
識者	-10.3903
不疑	-10.391
甚矣	-10.3916
橫	-10.3916
二日	-10.3924
諸君	-10.3942
其義	-10.3947
無由	-10.3947
大江	-10.3948
必以	-10.3952
槁	-10.3955
其本	-10.3956
而求	-10.3957
使其	-10.3965
其民	-10.3973
熾	-10.3982
輦	-10.3996
轅	-10.4002
之衆	-10.401
淂	-10.401
搖	-10.4011
公為	-10.4011
蜜	-10.4013
翰林學士	-10.4016
者乃	-10.402
測	-10.4021
滄海	-10.4024
其勢	-10.4029
嘉祐	-10.4038
庠	-10.4044
至誠	-10.4045
於天	-10.4045
豹	-10.4047
稼	-10.4059
蔓	-10.4061
芳草	-10.4063
所藏	-10.407
押	-10.4079
一百	-10.4083
國史	-10.4083
之㑹	-10.4086
之儀	-10.409
公言	-10.4094
做	-10.4096
姻	-10.4097
𣣔	-10.41
工夫	-10.4101
紆	-10.4103
反覆	-10.4107
公議	-10.4108
寝	-10.4115
叚	-10.4116
熏	-10.4119
在上	-10.4123
學之	-10.4124
獨立	-10.4125
聖主	-10.413
在此	-10.4131
儔	-10.414
不信	-10.4147
所言	-10.4151
公論	-10.4152
奕	-10.4153
汀	-10.4153
軟	-10.4154
方今	-10.4155
夜半	-10.4155
林下	-10.4157
徂	-10.4158
庚	-10.4158
賞罰	-10.4159
鳩	-10.4161
先是	-10.4164
厨	-10.4167
欹	-10.4168
粤	-10.4169
洎	-10.4169
竝	-10.4169
屨	-10.4172
廹	-10.4172
豁	-10.4173
公私	-10.4174
門前	-10.4178
歎息	-10.4179
禮記	-10.4179
中秋	-10.4185
氏之	-10.4186
楼	-10.4189
貧賤	-10.4194
知有	-10.42
民力	-10.42
氊	-10.4201
女子	-10.4205
何須	-10.4205
忿	-10.4209
耄	-10.4209
聯	-10.4213
湖上	-10.4218
之費	-10.4218
晝夜	-10.4223
屯田	-10.4224
将軍	-10.4227
考之	-10.4231
于今	-10.4235
未聞	-10.4237
生民	-10.4244
帙	-10.4245
渺	-10.4245
囯	-10.4247
渡江	-10.4247
柴	-10.4255
不改	-10.4258
謂其	-10.4258
翩翩	-10.4258
荆州	-10.4261
只有	-10.4262
相思	-10.4262
鞏	-10.4266
得此	-10.4266
之作	-10.4268
般	-10.427
海棠	-10.4278
民間	-10.428
宗廟	-10.4281
甄	-10.4282
蹟	-10.4287
沖	-10.4289
若有	-10.4289
上曰	-10.4293
武昌	-10.4295
可用	-10.4297
或謂	-10.4298
便是	-10.4298
嬌	-10.4301
吏民	-10.4301
愛之	-10.4302
龎	-10.4306
梧	-10.4306
伊尹	-10.4315
隷	-10.432
侣	-10.4321
多病	-10.4324
帝王	-10.4324
禮義	-10.4326
山之	-10.4329
徃來	-10.4335
野人	-10.4336
糾	-10.434
書之	-10.4341
此生	-10.4341
也哉	-10.4342
之流	-10.4345
萍	-10.4355
其功	-10.4358
畝	-10.4364
棊	-10.4367
莫若	-10.437
還家	-10.4373
衾	-10.4374
于朝	-10.4374
侮	-10.4375
易之	-10.4378
鵝	-10.4378
之女	-10.4378
則必	-10.4378
卻	-10.438
之勝	-10.4381
勃	-10.4383
退而	-10.4385
名臣	-10.4389
縣尉	-10.439
不獨	-10.4391
槎	-10.4393
様	-10.4395
流俗	-10.4399
徳之	-10.4403
驩	-10.4411
眇	-10.4414
有意	-10.4415
至公	-10.4424
承平	-10.4426
世家	-10.4429
以聞	-10.443
倪	-10.4433
咏	-10.4435
曽祖	-10.4437
鐫	-10.4437
畆	-10.4441
嶠	-10.4443
偈	-10.4447
望之	-10.4448
溪山	-10.4451
荀	-10.4451
也吾	-10.4452
小兒	-10.4453
趍	-10.4457
沂	-10.4458
喬木	-10.4458
刹	-10.446
安撫	-10.4465
以道	-10.4468
一夕	-10.4469
起家	-10.4471
我欲	-10.4482
子思	-10.4486
參政	-10.4487
詩文	-10.4488
翦	-10.4489
此言	-10.4491
不仕	-10.4499
莽	-10.4504
羲	-10.4505
洊	-10.4508
是用	-10.4509
悪	-10.4509
眺	-10.4514
與子	-10.4516
所宜	-10.4517
嗇	-10.4518
一片	-10.4518
有人	-10.4526
以言	-10.4531
鯨	-10.4533
庖	-10.4533
辤	-10.4538
其他	-10.4542
郡夫人	-10.4547
淵源	-10.4552
也然則	-10.4552
於時	-10.4563
僥倖	-10.4566
男子	-10.4568
轉運使	-10.4574
悍	-10.4574
轄	-10.4578
今來	-10.4583
無非	-10.4595
鵠	-10.4599
惟是	-10.4602
粒	-10.4603
鼇	-10.4607
萬年	-10.4614
無功	-10.4614
狄	-10.4618
悚	-10.4622
是則	-10.4622
焉而	-10.4624
靄	-10.4624
古詩	-10.4624
長江	-10.4624
有詩	-10.4626
渇	-10.4628
彛	-10.463
杳	-10.463
緯	-10.4647
顔子	-10.4647
青青	-10.4648
矣其	-10.4651
亦自	-10.4652
帽	-10.4654
鋭	-10.4654
禍福	-10.4655
沼	-10.4656
大義	-10.4657
肝	-10.4659
銳	-10.4662
先公	-10.4671
於前	-10.4674
日新	-10.4675
平居	-10.4678
慵	-10.4678
水旱	-10.4679
行省	-10.468
裒	-10.468
荐	-10.4681
貴賤	-10.4684
平章	-10.4684
諾	-10.4686
因其	-10.4688
琢	-10.4689
紀綱	-10.4694
三代之	-10.4695
以慰	-10.4696
莫如	-10.4698
蒼蒼	-10.4698
復何	-10.4701
鈍	-10.4704
失之	-10.4706
十萬	-10.4715
四十年	-10.4719
將帥	-10.4728
文書	-10.473
蘓	-10.473
夷狄	-10.4736
閨	-10.4739
有如	-10.4747
日暮	-10.4748
呂	-10.4748
悠然	-10.4749
縣君	-10.4749
相如	-10.4755
知君	-10.4757
同時	-10.4757
前輩	-10.4759
諸孫	-10.4761
不一	-10.4761
爱	-10.4766
有三	-10.4768
則亦	-10.4769
笋	-10.477
艮	-10.4773
君王	-10.4774
醪	-10.4777
之華	-10.4781
意氣	-10.4783
三子	-10.4783
青天	-10.4784
覬	-10.4785
鮑	-10.479
如故	-10.4791
泰山	-10.4795
慣	-10.48
自號	-10.4801
宗室	-10.4802
無遺	-10.4807
梗	-10.4808
不遇	-10.4808
稽古	-10.481
敞	-10.4816
闌	-10.4822
參差	-10.4824
蘄	-10.4825
謚	-10.4828
大徳	-10.4833
伏念某	-10.4835
也嗚呼	-10.4836
凛	-10.4838
今為	-10.4841
其職	-10.4842
抃	-10.4843
未暇	-10.4844
瑟	-10.4846
斑	-10.4848
五百	-10.4851
箋	-10.4854
舟中	-10.4855
憎	-10.4856
確	-10.4857
婉	-10.4858
㤗	-10.4862
褐	-10.4866
讒	-10.4867
綬	-10.4873
不允	-10.4875
此理	-10.4876
讎	-10.4877
此日	-10.4881
焉則	-10.4882
也非	-10.4884
四明	-10.4885
汎	-10.489
因循	-10.4891
黄花	-10.4893
僭	-10.4896
三朝	-10.4899
卓然	-10.4902
文帝	-10.4904
溥	-10.4911
棗	-10.4911
翟	-10.4913
而天下	-10.4926
辞	-10.4927
疾病	-10.4928
官府	-10.493
自言	-10.493
憔悴	-10.4931
是謂	-10.4933
聞者	-10.4933
也予	-10.4936
絡	-10.4942
近臣	-10.4946
江左	-10.4948
故鄉	-10.4953
處處	-10.4953
㕔	-10.4953
蛙	-10.4955
釁	-10.4956
燈火	-10.4961
猶可	-10.4962
依然	-10.4965
不入	-10.4968
脂	-10.4968
至矣	-10.4981
汲汲	-10.4983
老病	-10.4983
膳	-10.499
世人	-10.499
先朝	-10.4991
取進止	-10.4991
無用	-10.4992
具官	-10.4994
自笑	-10.5006
西京	-10.5008
近日	-10.501
人者	-10.5011
瘠	-10.5014
夜雨	-10.5017
士卒	-10.5018
惟公	-10.5019
舉進士	-10.502
之體	-10.5026
人知	-10.5028
行下	-10.5029
狗	-10.503
初無	-10.5038
覃	-10.5044
雖欲	-10.5045
䄂	-10.5045
太傅	-10.5047
穎	-10.5049
娛	-10.5049
一杯	-10.5052
廓	-10.5052
夫婦	-10.5053
悃	-10.5054
弘	-10.5054
自憐	-10.5056
笻	-10.5057
派	-10.506
友人	-10.5063
吝	-10.5064
根本	-10.5066
家有	-10.5066
求其	-10.5068
所以為	-10.5076
零落	-10.5088
浹	-10.5092
後生	-10.5093
山色	-10.5094
特賜	-10.5096
其書	-10.5097
目前	-10.5098
天子之	-10.5099
無情	-10.51
歐	-10.51
五代	-10.5115
豊	-10.5118
拳	-10.5119
斛	-10.512
二十四	-10.5128
皇帝陛下	-10.5129
道者	-10.5144
左氏	-10.5145
訂	-10.5146
人君	-10.5149
為文	-10.5154
發明	-10.5156
什	-10.5157
必欲	-10.5157
劔	-10.5159
於上	-10.5162
三山	-10.5163
媒	-10.5163
稷	-10.5167
贖	-10.5168
净	-10.5169
之孫	-10.517
空山	-10.5173
亢	-10.5176
軍節度使	-10.5182
島	-10.5183
郢	-10.5184
皓	-10.5185
出于	-10.5187
之屬	-10.5189
生意	-10.5193
濵	-10.5196
紳	-10.5196
歉	-10.5197
是日	-10.5203
拳拳	-10.5203
札	-10.5206
趙公	-10.5211
𥙿	-10.5212
差遣	-10.5219
隄	-10.5221
販	-10.5222
斈	-10.5222
乂	-10.5223
之思	-10.5226
灾	-10.5227
偶然	-10.5227
復有	-10.5231
天人	-10.5232
沛	-10.5234
溫	-10.5235
無餘	-10.5236
元氣	-10.5239
之傳	-10.5248
之聲	-10.5249
無言	-10.5251
嗔	-10.5255
不能自	-10.5257
故能	-10.5259
冕	-10.5259
譬如	-10.526
落花	-10.5265
所載	-10.5268
無恙	-10.527
尚可	-10.527
常平	-10.5271
耐	-10.5272
龔	-10.5277
榆	-10.5281
以事	-10.5281
秋水	-10.5285
臣愚	-10.5286
戦	-10.5293
髙下	-10.5296
芬	-10.5297
不克	-10.5299
風塵	-10.5303
氛	-10.532
也則	-10.5323
有客	-10.5325
寺丞	-10.5327
竈	-10.5327
婦人	-10.533
垢	-10.5331
淮西	-10.5333
田里	-10.5337
置之	-10.5339
蟄	-10.5343
光武	-10.535
而知	-10.535
殺人	-10.5353
以後	-10.5353
天資	-10.5355
而不得	-10.5355
覿	-10.5358
葦	-10.5359
韓文	-10.5365
鄂	-10.5368
雲山	-10.5369
敢忘	-10.537
孝子	-10.5375
孰不	-10.5378
蟾	-10.5379
愽	-10.5379
使臣	-10.5383
隻	-10.5384
縛	-10.5386
力行	-10.539
不下	-10.5393
也且	-10.54
檀	-10.54
可畏	-10.5403
人之所	-10.5406
弃	-10.5407
忠厚	-10.5409
㨗	-10.5414
善惡	-10.5414
嗟乎	-10.5414
雖無	-10.5417
二者	-10.5424
凄	-10.5424
枚	-10.5426
此書	-10.5432
而不敢	-10.5435
皇太后	-10.5437
者豈	-10.5437
止於	-10.5439
一也	-10.5443
屑	-10.5444
茅屋	-10.5447
詩成	-10.5448
鬭	-10.545
紅塵	-10.5451
蕭條	-10.5455
帯	-10.5456
始知	-10.5458
怡	-10.546
咽	-10.5462
軍馬	-10.5467
亊	-10.5474
八日	-10.5475
邃	-10.5477
餌	-10.5477
皆可	-10.5481
聞其	-10.5485
付之	-10.5488
磬	-10.5493
者何	-10.5493
用力	-10.5494
曽子	-10.5496
藹	-10.5496
斾	-10.5497
年少	-10.5497
塩	-10.5498
芹	-10.5503
覲	-10.5505
豐年	-10.5507
事親	-10.5507
程子	-10.5508
忠臣	-10.5509
杏	-10.5511
本司	-10.5511
徤	-10.5514
拍	-10.5518
衰病	-10.5522
抄	-10.5528
牖	-10.553
而民	-10.5535
不去	-10.5536
者固	-10.5536
奄	-10.5536
十五年	-10.5538
街	-10.5538
之善	-10.5539
隊	-10.554
之助	-10.5541
贏	-10.5547
山河	-10.5548
千秋	-10.5556
無為	-10.5558
一念	-10.5561
漆	-10.5563
雍容	-10.5563
欲乞	-10.5568
一心	-10.5572
其學	-10.5572
朗	-10.5572
處之	-10.5575
三十六	-10.5577
罵	-10.558
裾	-10.558
摹	-10.5585
惕	-10.5585
睠	-10.5588
盛時	-10.559
蒼生	-10.5595
倐	-10.5597
天性	-10.5598
畿	-10.5599
鞠	-10.5599
所欲	-10.5605
樞宻	-10.5605
斯言	-10.5607
者盖	-10.561
邢	-10.5614
恰	-10.5619
此地	-10.562
不樂	-10.5621
不遺	-10.5621
嗚呼哀哉	-10.5623
此則	-10.5631
馬上	-10.5632
餘生	-10.5638
後學	-10.564
搢紳	-10.5641
殷勤	-10.5642
千人	-10.5642
繹	-10.5645
艶	-10.5648
億	-10.5649
豈獨	-10.5652
篋	-10.5653
裹	-10.5657
呵	-10.5658
五言	-10.5659
視其	-10.5659
必先	-10.5663
煎	-10.5666
兾	-10.5668
大節	-10.5671
至大	-10.5684
愼	-10.5688
三司	-10.569
耒	-10.569
好事	-10.5691
九十	-10.5693
寂寥	-10.5693
壅	-10.5699
歌舞	-10.5699
從今	-10.57
之兵	-10.5704
離騷	-10.5707
㠶	-10.5707
不加	-10.571
之材	-10.5712
然亦	-10.572
也昔	-10.5727
知縣	-10.5727
縣主簿	-10.5734
縻	-10.5738
訣	-10.5739
者哉	-10.5739
以濟	-10.5747
訊	-10.5749
鈴	-10.575
賑	-10.5758
部使者	-10.5759
霍	-10.576
在於	-10.5763
惱	-10.5764
丙	-10.5765
在人	-10.5765
自信	-10.5765
間有	-10.577
一月	-10.5771
兔	-10.5774
延祐	-10.5776
䆫	-10.5777
之長	-10.5777
國夫人	-10.5778
暇日	-10.5783
灣	-10.5785
命之	-10.5786
堦	-10.5796
侑	-10.5802
殖	-10.5809
翹	-10.5811
則不	-10.5813
螢	-10.5817
之前	-10.5819
亦曰	-10.582
闇	-10.5822
靖康	-10.5844
猶能	-10.5846
但見	-10.5847
經術	-10.5847
明公	-10.5847
幸而	-10.5851
嵐	-10.5854
不辭	-10.5854
唐人	-10.5857
依前	-10.5858
今日之	-10.5858
歸来	-10.5859
知所	-10.5862
柩	-10.5863
吾家	-10.5867
世祖	-10.5868
玊	-10.5874
之良	-10.5875
以明	-10.5876
太夫人	-10.588
靳	-10.5891
存者	-10.5892
捲	-10.5894
改元	-10.5894
須臾	-10.5895
而行之	-10.5899
逈	-10.59
杜門	-10.5901
抛	-10.5903
之澤	-10.5905
小大	-10.5906
粮	-10.5907
一夜	-10.5915
之報	-10.5917
也余	-10.5919
漂	-10.5923
韓子	-10.5924
塊	-10.5924
燎	-10.5925
豈敢	-10.5926
一聲	-10.5932
此語	-10.5933
樞宻院	-10.5934
跳	-10.5942
可與	-10.5951
浩然	-10.5951
煮	-10.5952
則無	-10.5957
捍	-10.5958
不食	-10.5959
其弊	-10.596
固不	-10.5962
之議	-10.5964
表裏	-10.5964
不解	-10.5964
陜	-10.5966
之先	-10.5966
昆	-10.5967
聖明	-10.5969
譚	-10.5971
山人	-10.5972
奏乞	-10.5975
者蓋	-10.5977
悖	-10.5982
章句	-10.5985
瀾	-10.5986
江漢	-10.5991
鼠	-10.5994
歳月	-10.5998
詹	-10.6
孔子曰	-10.6001
馨	-10.6011
餓	-10.6012
椿	-10.6016
四人	-10.6017
閭里	-10.6018
辜	-10.6022
推官	-10.6024
生涯	-10.6025
不願	-10.6026
尋常	-10.6028
餽	-10.6029
逄	-10.6031
昌黎	-10.6032
故園	-10.6033
沽	-10.6036
報國	-10.6039
人亦	-10.604
郤	-10.6043
古之人	-10.6043
宗社	-10.605
伏乞	-10.6053
六日	-10.6053
檢校	-10.6055
功臣	-10.6057
伊川	-10.6057
丸	-10.6058
伺	-10.606
侔	-10.6062
葩	-10.6064
矣此	-10.6066
在天	-10.6067
萬國	-10.6071
形容	-10.6077
麓	-10.608
百尺	-10.6082
諸賢	-10.6088
斵	-10.6091
啄	-10.6094
守臣	-10.61
也是	-10.61
奉使	-10.6105
彭城	-10.6107
二千石	-10.6115
相去	-10.6115
大人	-10.612
子男	-10.6121
第四	-10.6122
用人	-10.6125
之世	-10.6128
無益	-10.6129
一時之	-10.6131
龍門	-10.6132
其門	-10.6133
臣某	-10.6133
不得不	-10.6134
以相	-10.6143
不倦	-10.6146
其罪	-10.6148
劑	-10.6148
由此	-10.6149
之能	-10.6151
年七十	-10.6152
贄	-10.6154
鎖	-10.6155
也雖然	-10.6157
無疑	-10.6158
一節	-10.6159
時事	-10.6162
穢	-10.6162
滄浪	-10.6165
翊	-10.6166
今人	-10.6169
可惜	-10.617
則知	-10.617
在外	-10.6174
其力	-10.6175
十分	-10.6184
之年	-10.6185
故國	-10.6187
琳	-10.6188
祝文	-10.6188
以身	-10.6189
無間	-10.619
彫	-10.6193
贅	-10.6195
声	-10.6195
門户	-10.6196
笑語	-10.6198
漢唐	-10.621
忻	-10.6216
子仁	-10.6217
冡	-10.6218
狎	-10.6219
美人	-10.6219
光華	-10.6222
竊惟	-10.6224
㳟	-10.6225
掇	-10.6226
廡	-10.6238
璞	-10.6239
載酒	-10.6242
重陽	-10.6243
絹	-10.6253
不宣	-10.6255
廊廟	-10.626
棠	-10.6262
公自注	-10.6262
献	-10.6263
卽	-10.6266
萬户	-10.6268
鷺	-10.6272
南渡	-10.6278
剰	-10.6278
儒學	-10.6281
而終	-10.6281
樂府	-10.6282
風采	-10.6284
万	-10.6291
致其	-10.6294
今乃	-10.6296
草草	-10.6296
鉢	-10.63
蘿	-10.6306
風露	-10.6307
熈寧	-10.6308
白玉	-10.6309
峭	-10.6313
陳公	-10.6314
鴨	-10.6317
先世	-10.6321
狼	-10.6321
侯之	-10.6329
為天下	-10.6329
樂天	-10.633
也公	-10.6331
覇	-10.6332
多事	-10.6335
學道	-10.6335
飜	-10.6348
不謂	-10.635
手足	-10.6351
舂	-10.6352
與我	-10.6353
無限	-10.6355
劵	-10.6355
落落	-10.6357
不從	-10.6358
閤下	-10.6362
三徑	-10.6363
鎻	-10.6368
可喜	-10.6369
劉公	-10.6369
員外郎	-10.637
時節	-10.6375
明白	-10.6376
以前	-10.6381
問之	-10.6387
溪上	-10.639
别有	-10.6391
無私	-10.6399
撲	-10.6404
沸	-10.6407
千百	-10.6409
號為	-10.6411
腥	-10.6413
亦未	-10.6415
稚	-10.6421
可否	-10.6425
嘗謂	-10.6426
其在	-10.6426
知者	-10.6427
形勢	-10.6427
風霜	-10.6428
骨肉	-10.6431
雨中	-10.6433
曾祖	-10.6434
司徒	-10.6438
以公	-10.644
穏	-10.6441
之異	-10.6441
奨	-10.6441
七言	-10.6446
詩句	-10.6449
寄題	-10.645
浙東	-10.6451
㝎	-10.6463
奏議	-10.6465
耿耿	-10.6467
臣敢不	-10.6467
性命	-10.6475
殺之	-10.6477
至其	-10.648
紗	-10.6481
葬于	-10.6481
尼	-10.6485
饌	-10.6486
幾時	-10.6487
我心	-10.6489
于時	-10.6489
毀	-10.649
香火	-10.649
而來	-10.6491
莫敢	-10.6491
顓	-10.6494
隳	-10.6498
誰復	-10.6503
可觀	-10.6503
非其	-10.6504
竊謂	-10.651
漳	-10.651
者謂	-10.6513
九原	-10.6513
論事	-10.6515
為誰	-10.6516
湖州	-10.652
無乃	-10.6525
頤	-10.6526
在位	-10.6527
為一	-10.6529
殞	-10.6534
日用	-10.6538
監察御史	-10.6539
十餘	-10.6539
有成	-10.6544
相知	-10.6545
奏事	-10.6548
此亦	-10.6549
廿	-10.655
黄州	-10.6551
那知	-10.6551
之䇿	-10.6552
某人	-10.6552
賡	-10.6553
㓗	-10.6554
治平	-10.6554
餅	-10.6557
之福	-10.6558
者雖	-10.6561
畨	-10.6561
睹	-10.6562
成王	-10.6564
我來	-10.6567
相期	-10.6568
不亦	-10.6568
更有	-10.6569
蛟龍	-10.657
拓	-10.6571
亦復	-10.6572
古來	-10.6573
於心	-10.6575
緇	-10.6576
揚雄	-10.6578
郡國	-10.6579
婚	-10.658
譁	-10.6582
之位	-10.6584
不妄	-10.6584
醴	-10.6585
嵗時	-10.6591
曰子	-10.6593
煑	-10.6594
紋	-10.6594
而爲	-10.6595
遂為	-10.6595
其母	-10.6596
教化	-10.6596
之音	-10.6597
為大	-10.6598
吾之	-10.6604
愛其	-10.6606
諸郡	-10.6606
叶	-10.6607
一室	-10.6607
可使	-10.6607
僞	-10.661
善人	-10.6614
中和	-10.6614
福建	-10.6615
諸老	-10.6618
斜陽	-10.6622
事有	-10.6623
之道也	-10.6626
胡不	-10.6626
而出	-10.663
㡌	-10.6632
諸軍	-10.6634
泉石	-10.6635
狥	-10.6636
浩蕩	-10.6637
守令	-10.664
運使	-10.6642
呌	-10.6647
論議	-10.6648
吾聞	-10.6653
異日	-10.6658
刪	-10.6658
莖	-10.6663
知制誥	-10.6664
萬象	-10.6664
惟恐	-10.6666
驂	-10.6671
文辭	-10.6672
在焉	-10.6675
而為之	-10.6677
祖宗之	-10.6677
原注	-10.6679
曺	-10.6683
椽	-10.6686
户部	-10.6687
糶	-10.669
治亂	-10.6691
建安	-10.6695
書云	-10.6696
黔	-10.6699
捉	-10.6703
吾心	-10.6705
用事	-10.6709
當是時	-10.6709
萬頃	-10.6711
勤勞	-10.6713
少卿	-10.6713
東方	-10.6714
濬	-10.6719
明道	-10.672
豈其	-10.6725
不宜	-10.6725
王師	-10.6728
君諱	-10.6729
天公	-10.6729
豕	-10.6732
問學	-10.6732
者歟	-10.6733
講學	-10.6734
郎官	-10.6735
拯	-10.6736
流涕	-10.6738
蹄	-10.6738
肌	-10.674
優游	-10.6749
婁	-10.675
十載	-10.675
雖未	-10.6755
而進	-10.6757
未成	-10.6758
儂	-10.6759
雲氣	-10.6761
東平	-10.6763
堕	-10.6766
魏公	-10.6768
是亦	-10.6769
官司	-10.677
大明	-10.6771
伏望	-10.6772
學官	-10.6772
之迹	-10.6774
泄	-10.6776
宗族	-10.678
中丞	-10.6782
王子	-10.6782
轂	-10.6785
平地	-10.6785
如許	-10.6787
豈特	-10.6789
所論	-10.6789
娥	-10.6794
不啻	-10.6796
親戚	-10.68
五人	-10.6801
所願	-10.6801
嵗寒	-10.6803
嬪	-10.6803
之交	-10.6807
祭祀	-10.6809
待罪	-10.681
臆	-10.6813
療	-10.6813
讐	-10.6815
欲其	-10.6821
而死	-10.6824
撼	-10.6825
佳句	-10.6825
若不	-10.6825
不可得	-10.6831
施於	-10.6832
而致	-10.6833
之德	-10.6835
感慨	-10.6839
之南	-10.6846
制度	-10.6847
不可得而	-10.6849
犢	-10.685
山隂	-10.6853
江浙	-10.6858
生靈	-10.6865
知音	-10.6866
之東	-10.6866
油	-10.6869
只今	-10.6872
國子	-10.6873
寐	-10.6874
把酒	-10.6875
闡	-10.6876
爲人	-10.6878
以見	-10.6882
砌	-10.6883
一門	-10.6884
幄	-10.6887
從而	-10.6888
髙宗	-10.6889
不息	-10.6889
譲	-10.689
乃有	-10.6891
人意	-10.6892
先聖	-10.6892
冬至	-10.6893
唐虞	-10.6893
宋史	-10.6895
聖賢之	-10.6898
降指揮	-10.6899
不便	-10.6902
給事中	-10.6904
三省	-10.6906
無能	-10.6907
畱	-10.691
擔	-10.6911
翕	-10.6911
難得	-10.6911
覈	-10.6916
湍	-10.6924
春雨	-10.6924
家法	-10.6924
元帥	-10.6927
來歸	-10.6928
庻幾	-10.6929
倩	-10.693
八九	-10.6933
唾	-10.6935
賚	-10.6937
有竒	-10.6937
自為	-10.6938
緡	-10.6938
䦨	-10.6938
泯	-10.6938
衲	-10.6939
遯	-10.694
知我	-10.6943
貂	-10.6943
黄帝	-10.6946
王室	-10.6949
夫豈	-10.6952
為學	-10.6952
天下之事	-10.6952
鏤	-10.6957
大體	-10.6958
非不	-10.696
功業	-10.696
昨夜	-10.6962
三四	-10.6964
䓁	-10.6966
成就	-10.6968
少陵	-10.697
所及	-10.6977
不仁	-10.6977
聖朝	-10.698
亦云	-10.6982
不果	-10.6986
寂寂	-10.6986
教子	-10.6992
蔑	-10.6992
何似	-10.6992
何哉	-10.6993
識其	-10.6995
名山	-10.7
得罪	-10.7002
搆	-10.7002
重來	-10.7004
秋色	-10.7004
之性	-10.7007
周之	-10.7008
邦人	-10.701
不治	-10.7011
埃	-10.7013
故有	-10.7019
何敢	-10.7023
家事	-10.7024
方寸	-10.7025
臨安	-10.7025
也臣	-10.7026
冤	-10.7031
文獻	-10.7031
翅	-10.7034
者惟	-10.7035
所學	-10.7041
傳聞	-10.7047
篁	-10.7047
江州	-10.7057
駢	-10.706
加以	-10.7062
甘泉	-10.7065
不審	-10.7067
出守	-10.7068
一語	-10.7068
幾人	-10.7069
坑	-10.7073
常州	-10.7074
夜深	-10.7075
豈容	-10.7075
經史	-10.7077
而今	-10.7078
孟子曰	-10.7084
可無	-10.7084
王孫	-10.7088
之慶	-10.7089
臣之	-10.709
者多矣	-10.709
主管	-10.7094
覊	-10.7101
騫	-10.7102
歸路	-10.7102
家世	-10.7104
不學	-10.7107
見于	-10.7108
奢	-10.7108
非特	-10.7117
復見	-10.7118
之光	-10.7118
取士	-10.7119
縣丞	-10.7124
牛羊	-10.713
之具	-10.713
必能	-10.7131
功成	-10.7133
以正	-10.7136
憾	-10.7136
自今	-10.7142
其爲	-10.7142
伏願	-10.7142
黯	-10.7148
感激	-10.715
濱	-10.7153
大師	-10.7153
疵	-10.7155
無疆	-10.7158
祖母	-10.7159
一曲	-10.7159
金玉	-10.7161
趙氏	-10.7163
死而	-10.7163
松風	-10.7163
風波	-10.7164
方外	-10.7165
礪	-10.7165
以時	-10.7168
叔父	-10.7171
壷	-10.7171
周官	-10.7175
摶	-10.7176
惇	-10.718
朝奉郎	-10.7184
㕘	-10.7185
曲折	-10.7187
之尊	-10.7188
元日	-10.7189
貴人	-10.719
季子	-10.7193
明主	-10.7193
盛事	-10.7195
東北	-10.7199
此道	-10.72
自愛	-10.7202
學術	-10.7202
其時	-10.7203
遞	-10.7205
諳	-10.7207
非常	-10.7208
嘗聞	-10.7209
靑	-10.7211
集巻十	-10.7212
一書	-10.722
立朝	-10.7222
譬	-10.7223
匡	-10.7224
猜	-10.7226
生平	-10.7232
如在	-10.7235
之班	-10.7239
事也	-10.724
皇皇	-10.7242
之宜	-10.7244
洋	-10.7245
搏	-10.7256
以義	-10.7261
可不	-10.7262
無足	-10.7262
京兆	-10.7262
留守	-10.7263
如水	-10.7264
雷霆	-10.7265
暝	-10.7268
之分	-10.727
南方	-10.7273
龍圖	-10.7273
之所謂	-10.7275
斟	-10.7278
不立	-10.7279
囂	-10.7282
大用	-10.7282
其徳	-10.7285
不安	-10.7289
遡	-10.729
頰	-10.7297
折衝	-10.7298
清光	-10.7301
乆之	-10.7305
其情	-10.7308
將相	-10.731
而用之	-10.7311
不滿	-10.7314
推之	-10.7314
神宗	-10.7317
之戒	-10.732
節制	-10.7322
知公	-10.7324
埸	-10.7326
於其	-10.7329
由來	-10.7329
者耶	-10.733
躔	-10.7333
而欲	-10.7333
余曰	-10.7336
鍳	-10.7338
建炎	-10.734
敵人	-10.7341
之常	-10.7341
此非	-10.7343
牟	-10.7345
竦	-10.7346
糜	-10.7351
白石	-10.7351
北海	-10.7355
其始	-10.7357
相似	-10.7357
禧	-10.7358
穉	-10.7365
赤子	-10.7367
柰何	-10.7368
林泉	-10.7369
旄	-10.7371
皆是	-10.7371
存亡	-10.7372
衫	-10.7373
公孫	-10.7373
成命	-10.7374
生事	-10.7374
腹心	-10.7374
酹	-10.7374
無極	-10.7379
之害	-10.738
始得	-10.738
久之	-10.7384
宜有	-10.7385
老杜	-10.7386
十二年	-10.7386
曵	-10.7392
変	-10.7394
近者	-10.7401
跂	-10.7401
攄	-10.7403
之極	-10.741
愛民	-10.7411
孽	-10.7411
賈誼	-10.7411
州軍	-10.7412
何年	-10.7412
年六十	-10.7413
鄭公	-10.7414
繋	-10.7414
笑曰	-10.7417
糓	-10.7422
知名	-10.7424
翛然	-10.7425
田園	-10.7425
四夷	-10.7426
稿	-10.7428
上天	-10.7429
智者	-10.7433
涇	-10.7434
即是	-10.7437
無聞	-10.7438
四日	-10.7439
教人	-10.744
氓	-10.7441
陽春	-10.7441
汾	-10.7444
臺諫	-10.7446
得意	-10.745
有光	-10.7456
劄子臣	-10.7456
匈奴	-10.7457
航	-10.746
倣	-10.7465
朝廷之	-10.7465
嘗以	-10.7465
古文	-10.7466
扶持	-10.7468
梨	-10.747
霈	-10.7483
浮屠	-10.7484
此豈	-10.7487
置酒	-10.7487
治道	-10.749
聫	-10.7491
天下之人	-10.7494
名家	-10.7494
桃源	-10.7495
無聲	-10.75
記之	-10.7503
於道	-10.7509
大道	-10.7515
惟陛下	-10.7515
見聞	-10.7523
歿	-10.7525
日益	-10.7527
以疾	-10.7529
偹	-10.753
安石	-10.7536
他時	-10.7536
拆	-10.7537
足矣	-10.7542
闔	-10.7543
吾友	-10.7544
殯	-10.7546
應副	-10.7547
雲間	-10.7549
清江	-10.7551
好惡	-10.7556
韓愈	-10.7561
萬石	-10.7563
椎	-10.7565
矣又	-10.7566
故山	-10.7567
墓誌	-10.7568
乃得	-10.7568
雪中	-10.7568
迓	-10.7571
麒麟	-10.7571
青春	-10.7573
蹊	-10.7574
有無	-10.7575
有加	-10.7576
無所不	-10.7578
戰國	-10.7579
以安	-10.7581
其詩	-10.7587
萬斛	-10.7588
一物	-10.7589
願言	-10.759
傳云	-10.7591
伏望聖慈	-10.7591
萊	-10.7592
蝗	-10.7593
楊氏	-10.7594
暁	-10.7597
家傳	-10.7598
人謂	-10.76
阡	-10.76
瓢	-10.7601
參知政事	-10.7602
孫男	-10.7603
伯夷	-10.7608
政和	-10.7609
公家	-10.761
遄	-10.7611
佳人	-10.7611
騐	-10.7612
五更	-10.7619
以報	-10.7621
譙	-10.7624
使我	-10.763
在乎	-10.7631
今又	-10.7631
白雪	-10.7642
六合	-10.7643
一洗	-10.7644
長子	-10.7645
嫉	-10.7646
聖人之道	-10.7646
歎曰	-10.7649
者如	-10.7651
惆悵	-10.7652
胷	-10.7659
行者	-10.766
北斗	-10.7664
辛苦	-10.7674
何異	-10.7674
别後	-10.768
晉書	-10.768
一新	-10.7681
大雅	-10.7681
非獨	-10.7683
兀	-10.7683
吸	-10.7686
番	-10.7686
壠	-10.7688
其子孫	-10.7689
道義	-10.7689
前代	-10.7691
之忠	-10.7692
至治	-10.7692
聆	-10.7693
春水	-10.7694
恩命	-10.7694
未始	-10.7695
憂國	-10.7697
第五	-10.7697
菲	-10.7698
圖書	-10.77
集中	-10.7702
不平	-10.7703
依依	-10.7706
妹	-10.7709
相國	-10.771
新安	-10.7713
覓	-10.7713
都城	-10.7718
亦嘗	-10.7721
奉詔	-10.7721
李白	-10.7721
不多	-10.7722
太后	-10.7726
其法	-10.7732
為言	-10.7732
紓	-10.7733
鉤	-10.7737
識之	-10.7741
中人	-10.7744
有能	-10.775
約束	-10.775
實録	-10.7752
故家	-10.7754
所著	-10.7758
正直	-10.7758
無數	-10.7759
小子	-10.776
磯	-10.776
鳯凰	-10.776
稽首	-10.7762
有罪	-10.7762
愍	-10.7762
徒以	-10.7762
君墓誌銘	-10.7765
不以為	-10.7766
十餘年	-10.7772
荆棘	-10.7772
其次	-10.7772
不離	-10.7775
漠漠	-10.7775
陳迹	-10.7777
炙	-10.7779
檣	-10.7781
慳	-10.7781
經筵	-10.7783
不傳	-10.7787
十數	-10.7788
人户	-10.7793
軍中	-10.7796
於其間	-10.7796
語言	-10.7799
能使	-10.78
禅	-10.7801
焚香	-10.7809
之靈	-10.781
黄河	-10.7813
一毫	-10.7816
彞	-10.7816
㒺	-10.7817
人不	-10.7817
秋日	-10.7817
有五	-10.7818
之祥	-10.7819
總管	-10.7827
持節	-10.7827
安在	-10.7829
帰	-10.783
謫仙	-10.7831
上方	-10.7833
浙西	-10.7836
孰為	-10.7837
訥	-10.7839
十五日	-10.7842
廣陵	-10.7843
安於	-10.7844
曰汝	-10.7845
皆得	-10.7846
可得	-10.7847
而反	-10.7849
夫人之	-10.7851
也蓋	-10.7852
園林	-10.7853
菩薩	-10.7854
一氣	-10.7855
居官	-10.7857
公獨	-10.7857
二十五	-10.7857
盛德	-10.7858
未應	-10.786
娯	-10.7863
未㡬	-10.7863
飈	-10.7863
滛	-10.7864
天心	-10.7868
諸州	-10.7869
液	-10.7871
王道	-10.7873
不任	-10.7876
匱	-10.7882
子瞻	-10.7882
明時	-10.7888
在我	-10.7888
縉紳	-10.7891
轉運司	-10.7892
子貢	-10.7892
盎	-10.7895
珮	-10.7897
庚申	-10.7899
也惟	-10.7901
當有	-10.7901
誰家	-10.7904
擾擾	-10.7907
債	-10.7908
愴	-10.7908
深入	-10.7908
韵	-10.791
敲	-10.7911
漢之	-10.7912
安用	-10.7914
于世	-10.7914
留意	-10.7916
獨有	-10.7916
髙風	-10.7918
築室	-10.7919
哺	-10.792
敢以	-10.792
於後	-10.7923
不才	-10.7924
不知所	-10.7926
溜	-10.7927
豈徒	-10.7929
慶厯	-10.7931
事功	-10.7931
瑣	-10.7934
五千	-10.7936
賖	-10.7937
塋	-10.7941
討論	-10.7944
吾民	-10.7946
祖考	-10.7948
楊栁	-10.7949
幾年	-10.7949
㤀	-10.7958
艷	-10.7958
匆匆	-10.7959
同一	-10.7961
有是	-10.7964
不可復	-10.7965
自非	-10.7975
舊物	-10.7982
上元	-10.7982
未遑	-10.7983
我有	-10.7983
予之	-10.7984
我生	-10.7985
篷	-10.7988
有酒	-10.7993
興起	-10.7995
竹林	-10.7995
先塋	-10.7995
邑人	-10.7998
兩浙	-10.7998
王者	-10.8002
拈	-10.8003
弟兄	-10.8004
宣城	-10.8006
而起	-10.8006
簇	-10.8011
宣王	-10.8015
收拾	-10.8016
時人	-10.8017
師道	-10.8017
為民	-10.8018
老杜詩	-10.802
闘	-10.8022
心事	-10.8024
蘋	-10.8024
異端	-10.8026
中年	-10.8029
秩滿	-10.803
歙	-10.8034
行道	-10.8035
一出	-10.8038
世有	-10.8043
不䏻	-10.8043
愜	-10.8051
斃	-10.8052
不避	-10.8056
其不	-10.8057
性之	-10.8058
亘	-10.8061
乃能	-10.8062
者是	-10.8067
而立	-10.8068
璋	-10.8068
弁	-10.807
居之	-10.8072
憶昔	-10.8072
下車	-10.8072
嚢	-10.8073
等處	-10.8075
諗	-10.8078
相過	-10.8083
實為	-10.8084
瑕	-10.8088
庠序	-10.8098
宰執	-10.8098
齎	-10.8098
暄	-10.8099
言而	-10.8102
星辰	-10.8102
異於	-10.8102
湖海	-10.8103
靡不	-10.8104
成敗	-10.8107
一章	-10.811
流離	-10.811
集賢	-10.812
復以	-10.8122
屡	-10.8124
思慮	-10.8129
廣大	-10.8129
稠	-10.8133
婺	-10.8133
臨風	-10.8135
安國	-10.8137
歐陽公	-10.8139
岫	-10.8144
賓客	-10.815
皇極	-10.815
司空	-10.815
一醉	-10.815
崔嵬	-10.8152
學而	-10.8152
大計	-10.8152
不思	-10.8152
冢	-10.8157
可得而	-10.8157
無補	-10.8158
直道	-10.816
相看	-10.8161
惻	-10.8161
之主	-10.8162
五湖	-10.8162
十首	-10.8163
釋氏	-10.8171
知已	-10.8172
之威	-10.8172
不得已	-10.8173
嬾	-10.8173
東陽	-10.8176
核	-10.8178
晞	-10.818
損益	-10.8181
乎哉	-10.8182
而易	-10.8182
婆娑	-10.8182
孺子	-10.8183
相忘	-10.8184
訝	-10.8184
福州	-10.8184
施之	-10.8185
屹	-10.8185
給事	-10.8191
委曲	-10.8192
中道	-10.8192
掖	-10.8192
其用	-10.8196
道德	-10.8199
主上	-10.8199
泳	-10.8199
如之何	-10.8201
以死	-10.8201
之貴	-10.8212
蟹	-10.8215
某日	-10.8218
兇	-10.822
人自	-10.8222
牓	-10.8222
店	-10.8223
知人	-10.8228
守之	-10.823
未安	-10.8232
江頭	-10.8234
縹緲	-10.8235
孰能	-10.8235
古人之	-10.8235
脅	-10.8239
何曽	-10.8241
乆而	-10.8243
之機	-10.8244
已矣	-10.8244
少時	-10.8244
天寒	-10.8248
頃刻	-10.8252
用心	-10.8254
桀	-10.8256
臭	-10.8257
凄凉	-10.826
自立	-10.8265
自任	-10.8267
能為	-10.8269
河朔	-10.827
而莫	-10.827
南海	-10.8272
同心	-10.8273
其利	-10.8274
泗	-10.8274
髣髴	-10.8277
廣東	-10.8277
曜	-10.8278
芸	-10.828
有㫖	-10.8281
民心	-10.8281
財用	-10.8282
這	-10.8283
推恩	-10.8287
欝	-10.8287
無此	-10.8288
一代	-10.8288
挽詞	-10.829
郵	-10.8292
過人	-10.8292
生成	-10.8293
召還	-10.8297
當以	-10.8299
使民	-10.83
瀉	-10.8304
缾	-10.8304
子雲	-10.8305
長官	-10.8306
穫	-10.8308
長生	-10.8312
出而	-10.8318
能以	-10.832
仆	-10.8321
蝕	-10.8322
冉冉	-10.8324
韓詩	-10.8324
不似	-10.8329
長樂	-10.8335
其材	-10.8335
花落	-10.8337
之運	-10.8339
方丈	-10.834
昉	-10.8341
碌碌	-10.8344
夢寐	-10.8345
其君	-10.8347
筮	-10.8347
物也	-10.8348
霜露	-10.8349
一卷	-10.8351
有神	-10.8357
盛衰	-10.8362
年五十	-10.8368
昔年	-10.8371
亭亭	-10.8373
韓公	-10.8374
中流	-10.8375
四方之	-10.8378
臣子	-10.8384
怙	-10.8385
胎	-10.8387
里中	-10.8389
如雲	-10.839
又聞	-10.8399
名士	-10.8402
其理	-10.8405
以書	-10.8408
雨後	-10.8415
綽	-10.8416
以進	-10.8417
論之	-10.842
扈	-10.8422
之西	-10.8427
繕	-10.8428
風光	-10.8429
前此	-10.843
晚節	-10.8431
管仲	-10.8432
雖云	-10.8434
老翁	-10.8437
或問	-10.8443
黄昏	-10.8444
吉州	-10.8445
暦	-10.8446
甘棠	-10.8447
於中	-10.8457
蜀人	-10.8464
安之	-10.8468
數千	-10.8471
而至	-10.8473
愛君	-10.8475
公與	-10.8482
考其	-10.8483
以及	-10.8484
魔	-10.8484
反復	-10.8486
不敢以	-10.8487
翫	-10.8488
有異	-10.849
所貴	-10.8491
之甚	-10.8498
涓	-10.8498
得請	-10.85
汰	-10.8505
㓛	-10.8506
翮	-10.8508
暮年	-10.8508
乱	-10.8509
承務郎	-10.851
人多	-10.8512
螺	-10.8513
無地	-10.8516
有聞	-10.8517
吿	-10.8518
之英	-10.8521
豈謂	-10.8522
嵓	-10.8522
不憚	-10.8524
中賀	-10.8524
躐	-10.8525
異數	-10.8526
不違	-10.8527
北風	-10.8527
官至	-10.8527
到任	-10.8528
其私	-10.8528
撤	-10.8528
外物	-10.8531
白鶴	-10.8533
一葉	-10.8535
臨江	-10.8537
楷	-10.8538
欽承	-10.8538
者衆	-10.8539
蠟	-10.8539
百餘	-10.8539
力學	-10.854
無幾	-10.854
數人	-10.8541
之物	-10.8541
繭	-10.8543
知府	-10.8546
詩卷	-10.8549
冨貴	-10.855
云爾	-10.8552
䆒	-10.8553
□	-10.8554
敖	-10.8555
賂	-10.8555
凱	-10.8555
一介	-10.8556
縣尹	-10.8557
蠅	-10.8557
有序	-10.8557
桑榆	-10.8558
南國	-10.8559
繳	-10.8564
平原	-10.8566
南州	-10.8567
固非	-10.8569
堰	-10.8574
称	-10.8574
到處	-10.8575
巍巍	-10.8575
無處	-10.8578
非常之	-10.8579
命也	-10.8582
此皆	-10.8583
股	-10.8587
當日	-10.8587
憩	-10.8589
羽翼	-10.8594
之吏	-10.8596
平江	-10.8596
且以	-10.8598
楫	-10.8612
深處	-10.8616
迅	-10.8616
悅	-10.8619
神武	-10.8619
法令	-10.8622
泓	-10.8622
未識	-10.8625
乃是	-10.863
所傳	-10.8633
當其	-10.8634
也盖	-10.8634
霜雪	-10.8636
爾雅	-10.8639
奉祠	-10.8639
剽	-10.864
臞	-10.8644
箱	-10.8645
簫	-10.8648
秦漢	-10.8654
與天	-10.8664
侍中	-10.8672
愿	-10.8677
誰為	-10.8677
保全	-10.8677
戱	-10.8677
壹	-10.8678
閒居	-10.8681
淮東	-10.8684
不愧	-10.8685
此去	-10.8688
前去	-10.8688
此邦	-10.8693
在前	-10.8697
蒿	-10.8698
文采	-10.87
長松	-10.87
龍蛇	-10.87
行矣	-10.8702
扵此	-10.8704
祖諱	-10.8707
姊	-10.871
風物	-10.8715
明詔	-10.8718
劣	-10.8721
妬	-10.8723
之精	-10.8723
則雖	-10.8727
十人	-10.873
不能無	-10.8731
斫	-10.8735
昔之	-10.8735
五六	-10.8735
不使	-10.8736
曳	-10.8741
飄零	-10.8743
歸田	-10.8743
不惜	-10.8743
稱之	-10.875
孝弟	-10.8751
惓惓	-10.8752
漠	-10.8756
驢	-10.8756
鉛	-10.8756
之遺	-10.8759
者三	-10.876
方其	-10.8761
一郡	-10.8764
眼前	-10.8764
髦	-10.8764
里人	-10.8766
不取	-10.8767
有味	-10.8768
鄉黨	-10.8771
天地間	-10.8773
溍	-10.8774
龍虎	-10.8774
有命	-10.8783
參軍	-10.8784
之亂	-10.8784
趾	-10.8784
瘁	-10.8786
而獨	-10.8793
能知	-10.8793
琵琶	-10.8794
﨑嶇	-10.8795
王君	-10.8796
支離	-10.8798
送李	-10.8802
虬	-10.8806
相親	-10.8809
不敏	-10.8809
馥	-10.8813
茵	-10.8813
留連	-10.8816
紱	-10.8817
行狀	-10.8818
必不	-10.8821
綰	-10.8822
弩	-10.8835
御史中丞	-10.884
吾君	-10.8841
遺書	-10.8847
舎人	-10.8847
始於	-10.8853
中山	-10.8858
其性	-10.8858
陌	-10.886
其兄	-10.8862
左丞	-10.8862
數千里	-10.8862
不稱	-10.8868
扄	-10.8869
躅	-10.887
落筆	-10.8871
不利	-10.8872
悶	-10.8873
貼	-10.8875
遣人	-10.8877
四川	-10.8878
笠	-10.888
之𥘉	-10.888
小詩	-10.888
以奉	-10.8881
槃	-10.8881
貟外郎	-10.8883
開封	-10.8884
臨事	-10.8888
嚼	-10.8897
誰謂	-10.8899
耆舊	-10.89
雲漢	-10.8903
者今	-10.8909
傷心	-10.8909
六七	-10.8911
也乃	-10.8912
泮	-10.8913
貝	-10.8914
之明	-10.8914
捄	-10.8914
蘇公	-10.8914
庶乎	-10.8915
嫡	-10.8918
鯉	-10.8918
婆	-10.892
制置	-10.8921
以行	-10.8924
名節	-10.8927
氷雪	-10.8928
顧我	-10.8929
帝王之	-10.8929
湖北	-10.893
奉行	-10.8932
之俗	-10.8934
史官	-10.8941
言曰	-10.8942
涸	-10.8942
長城	-10.8945
國家之	-10.8947
以遺	-10.8948
躁	-10.8951
聲色	-10.8952
三軍	-10.8955
凟	-10.8955
生而	-10.8956
騁	-10.8956
為詩	-10.8957
城東	-10.8957
閻	-10.8957
席上	-10.8959
了無	-10.896
幢	-10.8965
孫子	-10.8967
一㸃	-10.8967
同列	-10.8968
飄飄	-10.8968
嘗為	-10.897
臣以	-10.897
勸農	-10.897
俘	-10.8971
無過	-10.8974
俠	-10.8975
崑崙	-10.8975
自適	-10.8978
秖	-10.8979
已有	-10.8982
文昌	-10.8982
時方	-10.8984
朶	-10.8986
而退	-10.8987
是年	-10.8988
洋洋	-10.899
那得	-10.899
恍	-10.8991
青衫	-10.8992
郡人	-10.8994
酋	-10.8996
諛	-10.8996
二十八	-10.8997
江陵	-10.8998
少師	-10.9001
池上	-10.9004
傳家	-10.9007
甌	-10.9008
大業	-10.9009
衣裳	-10.901
其弟	-10.901
於是乎	-10.901
羔	-10.9012
九江	-10.9013
瀝	-10.9014
自以為	-10.9014
縦	-10.9017
玉山	-10.9019
拾遺	-10.9022
亦知	-10.9023
縣官	-10.9026
之興	-10.9027
泝	-10.9029
逞	-10.9031
未嘗有	-10.9031
不報	-10.9032
蘭亭	-10.9032
之問	-10.9033
有年	-10.9035
終於	-10.9036
欲求	-10.9037
右丞	-10.9038
贓	-10.9039
一巻	-10.9041
交情	-10.9042
其辭	-10.9042
咸淳	-10.9042
摭	-10.9042
之㫖	-10.9043
龜山	-10.9044
事者	-10.9045
平昔	-10.9046
逺方	-10.9046
旌旗	-10.9051
山寺	-10.9053
翕然	-10.9054
粲然	-10.9054
孰知	-10.9055
士民	-10.9058
一名	-10.906
山頭	-10.906
之厚	-10.9063
未發	-10.9063
修身	-10.9068
孱	-10.907
塾	-10.9073
經年	-10.9074
魯公	-10.9075
名字	-10.9076
杖屨	-10.9077
其國	-10.9079
七人	-10.9084
畫圖	-10.9086
之不可	-10.9087
奉聖㫖	-10.9089
擘	-10.909
瘳	-10.9091
嗤	-10.9091
自足	-10.9095
行路	-10.9097
去就	-10.9101
今兹	-10.9102
虚名	-10.9105
股肱	-10.9106
同前	-10.9107
不禁	-10.9111
又言	-10.9111
流行	-10.9112
甑	-10.9116
裡	-10.9118
于家	-10.912
至仁	-10.9124
國用	-10.9126
秋毫	-10.9126
丈人	-10.9126
志在	-10.9127
世道	-10.9129
渝	-10.9131
天下之士	-10.9132
重輕	-10.9132
樓臺	-10.9132
京口	-10.9132
萬餘	-10.9139
汨	-10.9141
顛倒	-10.9146
菊花	-10.9153
可行	-10.916
論思	-10.9162
可愛	-10.9164
叱	-10.9164
此乃	-10.9166
退之詩	-10.917
夜月	-10.9171
刻石	-10.9171
挑	-10.9174
旦夕	-10.9175
雲霄	-10.9177
寵光	-10.9178
憇	-10.9179
者猶	-10.9182
可知矣	-10.9182
鉞	-10.9183
霏	-10.9184
松栢	-10.9184
亦既	-10.9184
冺	-10.9186
脊	-10.9188
南京	-10.9193
作者	-10.9193
莫知	-10.9196
之謂也	-10.9198
城下	-10.9199
進取	-10.9201
盡心	-10.9202
發於	-10.9204
濟南	-10.9205
文物	-10.9207
名其	-10.9207
予曰	-10.9208
與公	-10.9211
諸司	-10.9211
家貧	-10.9211
炭	-10.9212
朝陽	-10.9212
深知	-10.9213
名之曰	-10.9217
郡邑	-10.9217
何能	-10.922
清談	-10.9223
棋	-10.9223
雨過	-10.9223
之表	-10.9224
身世	-10.9227
字子	-10.9227
不來	-10.9228
宣撫	-10.9232
責之	-10.9232
鉏	-10.9237
甚多	-10.9242
言行	-10.9243
杞	-10.9245
兢	-10.9245
劫	-10.9248
親見	-10.9249
五雲	-10.9251
公在	-10.9252
亦然	-10.9254
後有	-10.9254
二十日	-10.9256
孔孟	-10.9257
奏狀	-10.9257
空言	-10.9259
之嚴	-10.9261
皆不	-10.9261
䰟	-10.9262
楓	-10.9262
之正	-10.9263
子美	-10.9263
幽居	-10.9268
甲申	-10.9269
簟	-10.9271
淳熙	-10.9271
丙午	-10.9271
當路	-10.9272
以取	-10.9273
天下之大	-10.9279
則非	-10.9281
駸駸	-10.9282
而作	-10.9283
漢家	-10.9284
張子	-10.9285
皇天	-10.9287
㳂	-10.9288
見上	-10.9289
敢言	-10.929
一編	-10.9292
亹亹	-10.9294
黠	-10.9294
也因	-10.9294
起於	-10.9297
御筆	-10.93
者爲	-10.9302
之習	-10.9302
觀者	-10.9303
脈	-10.9305
煌煌	-10.9306
後先	-10.9306
非所以	-10.9308
皇太子	-10.9308
客來	-10.931
躬行	-10.931
尚何	-10.9316
非其人	-10.9316
北方	-10.9317
亾	-10.9317
月下	-10.9319
曾子	-10.9321
非是	-10.9325
日與	-10.9326
孺人	-10.9329
登髙	-10.9331
上言	-10.9331
當然	-10.9338
之隆	-10.9339
將來	-10.9341
飄然	-10.9341
漾	-10.9343
突兀	-10.9345
治天下	-10.9346
不難	-10.9348
沴	-10.9349
其位	-10.9351
元老	-10.9354
不得而	-10.9356
港	-10.9356
孤山	-10.9357
最為	-10.9358
悰	-10.936
山前	-10.9362
一經	-10.9362
著作	-10.9363
孜孜	-10.9367
妓	-10.937
方且	-10.9372
斯道	-10.9373
壁間	-10.9374
軼	-10.9375
不曽	-10.9375
睨	-10.9376
臺閣	-10.9379
蒼苔	-10.938
世故	-10.9383
橐	-10.9384
財賦	-10.9386
一再	-10.9389
𢾗	-10.9389
送張	-10.9391
難以	-10.9391
正是	-10.9393
熙寧	-10.9398
衆生	-10.9399
一州	-10.9401
伎	-10.9404
遺文	-10.9404
驅馳	-10.9406
以養	-10.9407
窠	-10.9408
其氣	-10.9408
之微	-10.941
四壁	-10.9411
孔明	-10.9413
春光	-10.9413
法從	-10.9414
恨不	-10.9414
偶成	-10.9421
娱	-10.9422
清溪	-10.9425
忘其	-10.9427
以副	-10.9427
皆為	-10.9428
遇事	-10.9432
誚	-10.9432
理之	-10.9435
從其	-10.9436
自天	-10.9437
無時	-10.9439
穩	-10.9442
豈復	-10.9444
即今	-10.9444
進而	-10.9448
大名	-10.945
挫	-10.945
壬辰	-10.9453
太常博士	-10.9461
將有	-10.9462
虎豹	-10.9463
壌	-10.9465
送客	-10.9465
進士第	-10.9471
物外	-10.9472
之譽	-10.9473
麤	-10.9475
懈	-10.9476
軍民	-10.9476
皂	-10.9476
不輕	-10.9477
灼	-10.9478
稜	-10.948
仰惟	-10.948
浩浩	-10.9481
之過	-10.9482
文正公	-10.9484
養生	-10.9485
不寐	-10.9486
秃	-10.9488
裙	-10.9488
文詞	-10.9489
癯	-10.949
倉卒	-10.9491
送王	-10.9492
發揮	-10.9492
况復	-10.9492
發其	-10.9493
城西	-10.9494
眼中	-10.9494
蒐	-10.9496
風雷	-10.9496
和尚	-10.9498
喙	-10.95
授之	-10.9501
春來	-10.9502
明經	-10.9503
甘露	-10.9508
燧	-10.9508
耘	-10.9511
至則	-10.9511
細雨	-10.9512
夫何	-10.9513
今已	-10.9514
歸於	-10.9514
松竹	-10.9515
嗟夫	-10.9521
瞽	-10.9523
于外	-10.9523
赫赫	-10.953
期於	-10.9531
凛凛	-10.9531
不計	-10.9532
未覺	-10.9534
亦是	-10.9535
受之	-10.954
杏花	-10.9541
更無	-10.9541
有四	-10.9541
者所以	-10.9545
中夜	-10.9548
行李	-10.955
衘	-10.9551
家居	-10.9552
瓠	-10.9553
炬	-10.9554
無盡	-10.9554
前漢	-10.9554
此又	-10.9554
閙	-10.9555
非吾	-10.9558
次曰	-10.9558
溉	-10.956
數萬	-10.9561
正色	-10.9564
南史	-10.9565
磊落	-10.9566
中大夫	-10.9568
人無	-10.9569
何可	-10.9569
詩集	-10.957
有可	-10.9571
囿	-10.9572
禮之	-10.9572
古道	-10.9574
天聖	-10.9576
䡖	-10.9576
焉其	-10.9576
輓	-10.9577
之序	-10.9578
言事	-10.958
山居	-10.9583
不得其	-10.9583
玉樹	-10.9583
猶存	-10.9583
概	-10.9585
世所	-10.9586
願陛下	-10.9587
孰謂	-10.9588
邑之	-10.959
顆	-10.9591
於下	-10.9595
而實	-10.9596
必得	-10.9596
凛然	-10.9597
聖意	-10.9599
撃	-10.9601
聊復	-10.9601
千丈	-10.9601
甸	-10.9601
可勝	-10.9606
小人之	-10.9608
開府	-10.9613
緝	-10.9615
安可	-10.9616
百家	-10.9616
所爲	-10.9618
我獨	-10.962
之象	-10.9621
又見	-10.9622
曰某	-10.9622
不能以	-10.9624
寤	-10.9625
不畏	-10.9629
之化	-10.9631
今世	-10.9632
圉	-10.9633
男女	-10.9635
洩	-10.9635
婢	-10.9638
公亦	-10.9639
流傳	-10.964
碧雲	-10.9642
邪正	-10.9643
夫子之	-10.9645
不能盡	-10.9648
鳶	-10.9649
不察	-10.965
聾	-10.9652
鄞	-10.9652
又得	-10.9653
得名	-10.9654
有不	-10.9655
詞章	-10.9656
紹聖	-10.9662
中州	-10.9664
也彼	-10.9666
淺深	-10.9669
内翰	-10.9669
未有不	-10.9673
其生	-10.9674
平陽	-10.9676
盡其	-10.9678
龕	-10.968
韓退之	-10.968
吁嗟	-10.9684
自重	-10.9685
譯	-10.9687
滔滔	-10.969
節度	-10.9691
十一日	-10.9692
㐮	-10.9694
大國	-10.9696
南風	-10.9698
捫	-10.97
梟	-10.9701
且曰	-10.9702
茫然	-10.9703
太和	-10.9704
為此	-10.9706
書來	-10.9706
仁人	-10.9707
水中	-10.9708
濮	-10.9711
苖	-10.9715
緜	-10.9717
未行	-10.9717
春草	-10.9719
寥寥	-10.9722
知己	-10.9724
不論	-10.9725
既已	-10.9726
古木	-10.9727
伯父	-10.9729
滿眼	-10.9729
卯	-10.9732
無多	-10.9737
士人	-10.9738
國有	-10.9738
不遑	-10.9741
為名	-10.9741
與物	-10.9744
之詞	-10.9747
安人	-10.9749
無敢	-10.9749
表臣某言	-10.975
辝	-10.975
舉世	-10.975
及於	-10.9756
鐸	-10.9757
化為	-10.9758
後進	-10.9762
千餘	-10.9763
不可以不	-10.9765
河陽	-10.9765
補之	-10.9768
哀哉	-10.9768
不移	-10.9769
亦已	-10.977
山陽	-10.9771
立言	-10.9772
李君	-10.9773
之益	-10.9774
莫非	-10.9774
十八日	-10.9776
嬴	-10.9776
我今	-10.978
君以	-10.9782
迪功郎	-10.9783
召公	-10.9783
林間	-10.9784
之墓	-10.9784
䜛	-10.9785
一麾	-10.9789
孫女	-10.9789
唐書	-10.979
若為	-10.979
南康	-10.9793
珠玉	-10.9796
鄉閭	-10.9796
身後	-10.9796
久而	-10.9796
一曰	-10.9796
之休	-10.98
亦足以	-10.9802
五十年	-10.9802
今者	-10.9805
所望	-10.981
功徳	-10.981
亦足	-10.9811
固無	-10.9812
憊	-10.9812
武陵	-10.9814
直言	-10.9816
竟何	-10.9817
疋	-10.9817
過於	-10.9817
淳祐	-10.9818
餘事	-10.982
封侯	-10.9822
某敢不	-10.9826
陳君	-10.9828
五帝	-10.9829
勲業	-10.9831
十三日	-10.9831
所用	-10.9832
論文	-10.9833
絲綸	-10.9837
尓	-10.9841
問訊	-10.9842
錦繡	-10.9843
丹陽	-10.9852
用其	-10.9852
伏審	-10.9852
興亡	-10.9852
自持	-10.9857
鄭氏	-10.9857
余嘗	-10.9859
二曰	-10.9861
中書舍人	-10.9861
装	-10.9862
田家	-10.9868
籥	-10.9869
卒以	-10.9872
君看	-10.9873
長年	-10.9874
之域	-10.9875
之所在	-10.9876
丹砂	-10.9877
秧	-10.9877
尚未	-10.9878
上意	-10.9879
二聖	-10.988
佳處	-10.988
赴闕	-10.9884
此山	-10.9884
博學	-10.9887
孝宗	-10.989
歸心	-10.9891
半夜	-10.9895
疑其	-10.9896
公自	-10.9896
爾其	-10.9898
九天	-10.9899
已見	-10.99
五福	-10.99
故里	-10.9904
異同	-10.9904
畒	-10.9905
動静	-10.9906
手自	-10.9909
之詔	-10.991
養之	-10.9911
察之	-10.9912
樂事	-10.9912
又謂	-10.9912
民有	-10.9913
十七日	-10.9916
臯陶	-10.9917
臣竊	-10.9923
柬	-10.9925
自守	-10.9925
愕	-10.9927
有所不	-10.9928
盡日	-10.9929
年八十	-10.993
匝	-10.9931
元昊	-10.9932
澄清	-10.9934
固當	-10.9935
筆力	-10.9937
郁	-10.9938
頸	-10.9939
太皇太后	-10.9939
列聖	-10.9939
國人	-10.9941
竟不	-10.9942
郊祀	-10.9943
子厚	-10.9944
倖	-10.9948
如玉	-10.9948
彼此	-10.9952
宫室	-10.9953
笑談	-10.9957
土木	-10.9958
孔氏	-10.9961
祖父	-10.9961
哦	-10.9963
禋	-10.9963
者故	-10.9964
日出	-10.9965
俛	-10.9965
于天	-10.9968
漬	-10.9968
居然	-10.9969
豈易	-10.9972
行樂	-10.9978
亦當	-10.9979
尚能	-10.998
光輝	-10.9982
其居	-10.9983
殄	-10.9986
芥	-10.9986
故云	-10.9988
弹	-10.999
舶	-10.999
丘壑	-10.9991
底事	-10.9992
苞	-10.9992
任使	-10.9993
能自	-10.9993
其大	-10.9996
太公	-10.9996
或可	-10.9997
歲時	-10.9998
夫以	-11.0004
何者	-11.0008
十三年	-11.0008
胸	-11.001
河漢	-11.0011
青燈	-11.0013
則天下	-11.0013
飛來	-11.0014
善類	-11.0014
思所以	-11.0015
遺愛	-11.0016
公所	-11.0018
禁中	-11.0018
是皆	-11.0024
事體	-11.0025
易曰	-11.0027
圜	-11.0028
日夕	-11.0028
葱	-11.003
石室	-11.003
閽	-11.0032
丁寧	-11.0035
髓	-11.0036
固知	-11.0037
長吏	-11.0044
舡	-11.0045
之病	-11.0045
弱冠	-11.0053
鉉	-11.0054
枝葉	-11.0056
朱氏	-11.0056
於家	-11.0059
得志	-11.006
出其	-11.006
大家	-11.0064
於學	-11.0064
已成	-11.0066
太行	-11.0068
孰與	-11.0069
晤	-11.0069
為主	-11.0072
别離	-11.0073
癖	-11.0074
昆弟	-11.0076
柰	-11.0081
未忘	-11.0083
避地	-11.0083
東歸	-11.0083
告成	-11.0084
太史公	-11.0085
衮衮	-11.0086
石上	-11.0087
二三子	-11.0088
張君	-11.0092
瑤	-11.0095
孔子之	-11.0095
澁	-11.0095
食之	-11.0101
范公	-11.0101
瀑	-11.0102
逆旅	-11.0102
何物	-11.0105
毫釐	-11.0106
之乆	-11.0111
有詔	-11.0111
某等	-11.0114
未央	-11.0116
七八	-11.0116
西方	-11.0117
慤	-11.0121
青州	-11.0123
然後知	-11.0124
源流	-11.0124
朝來	-11.0124
同志	-11.0125
道理	-11.0127
賸	-11.0134
與民	-11.0134
埽	-11.0135
釡	-11.0137
而臣	-11.0138
廣文	-11.014
如公	-11.014
無定	-11.0142
多情	-11.0143
謝公	-11.0147
蚊	-11.0151
不煩	-11.0151
者無	-11.0153
宜其	-11.0153
柴門	-11.0158
嗟我	-11.0159
北門	-11.0159
之北	-11.016
請以	-11.0162
與時	-11.0162
君父	-11.0163
赤壁	-11.0165
譬之	-11.0167
太保	-11.0169
伯仲	-11.0171
綂	-11.0176
將士	-11.0178
水火	-11.0178
之辰	-11.0179
蕙	-11.018
始以	-11.0181
桷	-11.0181
故舊	-11.0183
曼	-11.0185
徐州	-11.0185
訃	-11.0185
顚	-11.0186
半生	-11.019
車駕	-11.0195
何許	-11.0199
威儀	-11.0199
分别	-11.0204
區區之	-11.0207
清香	-11.0209
波濤	-11.021
盞	-11.021
變而	-11.0211
髙堂	-11.0212
十有二	-11.0213
萬物之	-11.0214
尖	-11.0216
問其	-11.022
野老	-11.0223
庚子	-11.0224
杜陵	-11.0225
家山	-11.0229
糟	-11.023
紛紜	-11.0231
寸心	-11.0231
陋巷	-11.0236
線	-11.0236
清廟	-11.0239
傳之	-11.0241
數十年	-11.0241
凌雲	-11.0243
王事	-11.0245
南郊	-11.0246
之狀	-11.0249
休息	-11.025
有懐	-11.0251
照臨	-11.0253
秋聲	-11.0254
皆非	-11.0254
千山	-11.0255
異乎	-11.0255
風雪	-11.0257
𠂻	-11.0258
作此	-11.0258
豚	-11.0263
𤨏	-11.0263
非敢	-11.0263
貎	-11.0265
之封	-11.0265
極其	-11.027
侍講	-11.027
屈原	-11.0272
用此	-11.0274
亥	-11.0276
囘首	-11.0276
慊	-11.0278
敢望	-11.0279
吟詩	-11.028
廣西	-11.028
存焉	-11.028
伏惟某官	-11.0284
亦不能	-11.0285
端明	-11.0285
可考	-11.0285
莫之	-11.0286
吉甫	-11.0288
家聲	-11.0289
皆在	-11.029
愬	-11.0292
雲中	-11.0294
廖	-11.0295
累年	-11.0298
東坡詩	-11.0298
善政	-11.0299
首尾	-11.0303
不由	-11.0304
合於	-11.0306
鬰	-11.0306
西州	-11.0308
窄	-11.0308
筋力	-11.0308
縞	-11.0309
正人	-11.031
顏	-11.031
清流	-11.031
果何	-11.031
不留	-11.0315
握手	-11.0317
逵	-11.0317
彭澤	-11.0319
飡	-11.0319
娘	-11.032
梳	-11.0322
械	-11.0323
國勢	-11.0326
舟楫	-11.033
風味	-11.0331
但恐	-11.0331
悲夫	-11.0331
二絶	-11.0333
明珠	-11.0336
始至	-11.0339
螭	-11.0339
前年	-11.0342
人臣	-11.0344
行義	-11.0345
人世	-11.0346
彷彿	-11.0348
卞	-11.0348
以勸	-11.0353
休戚	-11.0353
眉山	-11.0353
奉議郎	-11.0358
宴坐	-11.0359
乎夫	-11.036
天機	-11.036
若無	-11.0361
汶	-11.0361
謝安	-11.0364
千嵗	-11.0365
南宫	-11.0368
毓	-11.0368
儷	-11.0369
不湏	-11.0371
丑	-11.0371
吾鄉	-11.0372
俚	-11.0373
家庭	-11.0373
鶻	-11.0374
有期	-11.0375
小臣	-11.0377
聞而	-11.0377
孤舟	-11.0377
好古	-11.0377
許之	-11.0378
銖	-11.038
敷陳	-11.0383
本心	-11.0385
耽	-11.0386
同僚	-11.0386
鍊	-11.0387
啜	-11.0389
鬟	-11.039
諫官	-11.0392
霖雨	-11.0394
涖	-11.0395
十六日	-11.0395
欲使	-11.0395
武夷	-11.0395
天風	-11.0397
見得	-11.0397
而巳矣	-11.0398
珍重	-11.0399
大賢	-11.0399
往還	-11.0402
聖徳	-11.0403
瀟湘	-11.0404
告之	-11.0405
洪範	-11.0406
春寒	-11.0407
無從	-11.0407
人倫	-11.0409
恢復	-11.0411
諸孤	-11.0411
紊	-11.0412
所以爲	-11.0412
地下	-11.0414
是宜	-11.0415
應有	-11.0415
神之	-11.0415
刑部	-11.0419
明皇	-11.0419
子産	-11.0422
異之	-11.0423
竚	-11.0423
懌	-11.0426
丙辰	-11.0426
勞苦	-11.0429
更化	-11.0431
相遇	-11.0431
聖心	-11.0432
儆	-11.0432
典禮	-11.0433
御書	-11.0433
大士	-11.0435
真定	-11.044
語曰	-11.044
上流	-11.0443
閥	-11.0446
詩酒	-11.0447
尚存	-11.0448
雌	-11.0449
愉	-11.045
揔	-11.0452
烝	-11.0454
江流	-11.0455
奩	-11.0455
忽然	-11.0457
纍纍	-11.0458
朋黨	-11.0459
所與	-11.0464
曽孫	-11.0464
少保	-11.0467
不允詔	-11.0471
高明	-11.0472
阨	-11.0479
羇	-11.0481
菱	-11.0482
鶩	-11.0483
醮	-11.0483
東都	-11.0485
門生	-11.0487
廸	-11.0491
而生	-11.0493
雪霜	-11.0495
漪	-11.0498
秋月	-11.0499
軒冕	-11.05
乃為	-11.0503
鞅	-11.0504
舊章	-11.0505
而取	-11.0505
以次	-11.0505
不我	-11.0505
狡	-11.0508
所稱	-11.0508
臣願陛下	-11.0509
駁	-11.051
半年	-11.0511
者莫不	-11.0511
善者	-11.0512
脩竹	-11.0515
跪	-11.0516
手書	-11.0517
迥	-11.0521
潭州	-11.0523
甲寅	-11.0524
可笑	-11.0525
邦國	-11.0529
未肯	-11.053
蜀道	-11.0531
其孤	-11.0535
瀕	-11.0535
荆公	-11.0536
楊子	-11.0537
玲瓏	-11.0538
累贈	-11.0539
從公	-11.0541
愠	-11.0542
吾儕	-11.0543
酒酣	-11.0545
厠	-11.0545
於我	-11.0546
秋雨	-11.0546
承事郎	-11.0546
輅	-11.055
亶	-11.0554
光隂	-11.0555
吾所	-11.0555
䝉恩	-11.0555
舩	-11.0556
之久	-11.0557
先君子	-11.0562
父諱	-11.0563
飛鳥	-11.0563
西域	-11.0564
髻	-11.0565
在下	-11.0568
兩宫	-11.0572
劭	-11.0573
非徒	-11.0573
諸侯之	-11.0574
𧺫	-11.0576
八百	-11.0576
投老	-11.0577
不給	-11.058
不巳	-11.0582
而可	-11.0582
宣諭	-11.0583
儒術	-11.0586
兵馬	-11.0587
世無	-11.0587
錐	-11.0589
㽞	-11.059
見贈	-11.0591
無名	-11.0591
以稱	-11.0591
有徳	-11.0593
德之	-11.0593
丙申	-11.0595
前世	-11.0595
受其	-11.0595
金山	-11.0595
者當	-11.0601
悠	-11.0602
窒	-11.0602
獨不	-11.0602
之求	-11.0607
三分	-11.0609
國事	-11.0612
所存	-11.0614
徜徉	-11.0617
沔	-11.0617
奏聞	-11.0618
知此	-11.0618
堯卿	-11.062
暈	-11.0621
琦	-11.0625
未為	-11.0625
立法	-11.0629
猾	-11.0629
繼之	-11.0631
藜	-11.0631
風生	-11.0634
蒼茫	-11.0637
孟軻	-11.0639
眸	-11.0641
居民	-11.0641
使天下	-11.0642
郡王	-11.0643
雖曰	-11.0649
遹	-11.065
繡衣	-11.065
一行	-11.0651
也君	-11.0652
萬壑	-11.0653
題名	-11.0654
賢人	-11.0655
蛩	-11.066
行役	-11.0666
丙子	-11.0668
經義	-11.0669
坐令	-11.067
性情	-11.0671
燔	-11.0671
萬夫	-11.0672
其業	-11.0672
噪	-11.0676
慄	-11.0681
最後	-11.0682
入覲	-11.0685
燬	-11.0685
如山	-11.0686
本軍	-11.0686
簿領	-11.0687
非一	-11.0689
天竺	-11.0691
舟行	-11.0692
遘	-11.0693
其害	-11.0693
吾廬	-11.0694
鼓舞	-11.0701
之崇	-11.0703
信之	-11.0705
臣下	-11.0708
亦多	-11.0708
幙	-11.0709
二女	-11.0709
否則	-11.071
杖藜	-11.0711
未定	-11.0711
盂	-11.0713
掀	-11.0714
和平	-11.0716
駟	-11.0718
與天地	-11.0721
天威	-11.0721
無忘	-11.0725
之言曰	-11.0726
序送	-11.0726
本於	-11.0728
撑	-11.073
寛大	-11.0733
我家	-11.0736
深思	-11.0742
厓	-11.0742
涵養	-11.0742
喘	-11.0742
􁀙	-11.0743
此行	-11.0745
綃	-11.0745
子夏	-11.0746
短長	-11.0747
撫州	-11.0749
班固	-11.075
職方	-11.075
生長	-11.0754
魚龍	-11.0754
神靈	-11.0755
曽不	-11.0759
綱紀	-11.0762
經行	-11.0765
去處	-11.0766
矦	-11.0768
吏事	-11.0768
何幸	-11.077
爪	-11.0772
一何	-11.0773
離離	-11.0774
多所	-11.0775
人欲	-11.0775
十四日	-11.0777
毗	-11.0777
潤色	-11.0778
其為人	-11.0779
師之	-11.0779
復為	-11.078
大矣	-11.078
所請	-11.0781
宫中	-11.0781
清泉	-11.0782
許國	-11.0784
佃	-11.0784
焉故	-11.0784
轉運	-11.0785
上聞	-11.0785
偃蹇	-11.0786
自喜	-11.0786
制勑具官某	-11.0789
慟	-11.0789
髙人	-11.0793
賑濟	-11.0793
釋之	-11.0794
到此	-11.0795
仕宦	-11.0795
東門	-11.0796
騷人	-11.0796
法師	-11.08
昔日	-11.08
生子	-11.0801
軍旅	-11.0801
一句	-11.0802
相識	-11.0804
不測	-11.0804
官制	-11.0807
石門	-11.0807
再見	-11.0811
漫漫	-11.0812
醅	-11.0813
還朝	-11.0814
帑	-11.0814
所部	-11.0815
物色	-11.0821
鶚	-11.0822
里閭	-11.0823
盡力	-11.0823
刻之	-11.0826
卿等	-11.0826
而愈	-11.0827
紂	-11.0829
行行	-11.0831
燕子	-11.0833
山僧	-11.0841
芍藥	-11.0843
端平	-11.0844
四百	-11.0847
冥冥	-11.085
實有	-11.0851
圯	-11.0853
寒泉	-11.0854
此君	-11.0855
今觀	-11.0855
刷	-11.0856
賜之	-11.0856
山間	-11.0857
甚者	-11.0857
星斗	-11.0857
所取	-11.0862
少留	-11.0867
飮	-11.0867
惶	-11.0868
惜哉	-11.0872
吉凶	-11.0873
艇	-11.0873
上官	-11.0874
之器	-11.0876
松江	-11.0876
惟神	-11.0876
綜	-11.0877
胡氏	-11.0878
唯有	-11.0879
筆墨	-11.088
失所	-11.088
夔	-11.088
大槩	-11.0881
墓銘	-11.0881
頺	-11.0881
其體	-11.0882
又復	-11.0882
長歌	-11.0883
隨時	-11.0883
太古	-11.0888
十一年	-11.0889
待之	-11.0891
黽勉	-11.0893
燾	-11.0895
蠱	-11.0895
竊聞	-11.0896
揀	-11.0896
扃	-11.0897
笳	-11.0897
出納	-11.0908
詫	-11.0911
殊未	-11.0912
抹	-11.0913
恭以某官	-11.0913
二府	-11.0916
科第	-11.0917
有過	-11.0919
侍讀	-11.092
㪚	-11.0921
先正	-11.0922
相率	-11.0929
唐之	-11.0932
為世	-11.0932
乎曰	-11.0932
詒	-11.0932
之司	-11.0933
然猶	-11.0933
御史臺	-11.0934
朂	-11.0936
藏之	-11.0936
複	-11.0938
佀	-11.0938
承議郎	-11.0938
据	-11.0939
自來	-11.0941
年正月	-11.0944
不變	-11.0945
科目	-11.0946
下至	-11.0948
犒	-11.0949
圖畫	-11.0949
又嘗	-11.0949
遥知	-11.0949
也使	-11.095
諸葛	-11.0954
事事	-11.0956
白馬	-11.096
洙泗	-11.0964
三載	-11.0965
安樂	-11.0965
長嘯	-11.0965
犂	-11.0966
前軰	-11.0969
工部	-11.0969
件	-11.0969
私意	-11.097
云何	-11.0971
初不	-11.0972
而無所	-11.0974
祥符	-11.0975
相接	-11.0976
燠	-11.098
責其	-11.0982
不喜	-11.0984
窈窕	-11.0985
而樂	-11.0986
取諸	-11.0987
長史	-11.0988
鄴	-11.0988
循吏	-11.0988
溟	-11.0989
斡	-11.099
白鷗	-11.0994
㵼	-11.0997
陰陽	-11.0998
吼	-11.0999
之規	-11.0999
去其	-11.1001
蘇州	-11.1004
山澤	-11.1007
此等	-11.1007
之竒	-11.1009
笙	-11.101
擷	-11.1011
卉	-11.1011
祖妣	-11.1011
中天	-11.1011
初心	-11.1012
鸎	-11.1012
城市	-11.1013
南軒	-11.1014
如天	-11.1014
之工	-11.1015
也然而	-11.1015
無知	-11.1017
霆	-11.1019
丁未	-11.1019
予嘗	-11.102
吾黨	-11.102
遨	-11.1021
朝奉大夫	-11.1021
縫	-11.1023
幸有	-11.1024
三更	-11.1026
無涯	-11.1026
吻	-11.1028
芋	-11.1028
歌曰	-11.1029
稍稍	-11.1029
不但	-11.103
台州	-11.1033
千尺	-11.1035
孝悌	-11.1036
積善	-11.1036
鑠	-11.1036
思歸	-11.1037
淹留	-11.1037
窆	-11.1038
不苟	-11.1044
而益	-11.1045
薇	-11.1048
菑	-11.1049
陀	-11.105
令尹	-11.1052
任之	-11.1054
特授	-11.1054
著於	-11.1054
彂	-11.1054
使令	-11.1055
堂下	-11.1058
景物	-11.106
帝曰	-11.1061
能言	-11.1061
空餘	-11.1063
諉	-11.1063
禮也	-11.1066
將仕郎	-11.1066
然自	-11.1066
蓼	-11.1067
涎	-11.1067
清夜	-11.1068
究其	-11.1072
汗漫	-11.1074
尚饗	-11.1076
繚	-11.1079
歸休	-11.108
巘	-11.1081
病中	-11.1081
萬方	-11.1082
莘	-11.1084
祭文	-11.1085
妥	-11.1087
貞觀	-11.1088
之舉	-11.1091
㡬何	-11.1091
醉中	-11.1092
百工	-11.1094
不著	-11.1094
駑	-11.1095
也如	-11.1096
蹉跎	-11.1096
黛	-11.1096
棟宇	-11.1098
有定	-11.1099
陛下之	-11.1101
京城	-11.1103
蘚	-11.1105
急於	-11.1106
慱	-11.1107
馬蹄	-11.1107
甓	-11.1109
野水	-11.111
予言	-11.1112
而用	-11.1116
閤門	-11.112
但知	-11.1121
盪	-11.1121
服其	-11.1121
不雨	-11.1123
中朝	-11.1123
月色	-11.1124
訾	-11.1125
授以	-11.1126
雲夢	-11.1126
所陳	-11.1127
有情	-11.1127
乆不	-11.1128
尤甚	-11.113
治民	-11.1133
再和	-11.1135
隠居	-11.1136
嵗晚	-11.1137
剔	-11.1137
相承	-11.1138
有待	-11.1141
敬之	-11.1142
觀音	-11.1143
皆曰	-11.1143
不知何	-11.1145
淛	-11.1146
使得	-11.1146
聖恩	-11.1146
一嵗	-11.1147
天氣	-11.115
理也	-11.1151
一樽	-11.1155
針	-11.1156
客至	-11.116
固巳	-11.1162
瞰	-11.1163
湮	-11.1164
日長	-11.1164
堡	-11.1166
姑蘇	-11.1167
形骸	-11.1167
相應	-11.1168
西漢	-11.1169
筆端	-11.117
赤松	-11.1171
規矩	-11.1172
儒生	-11.118
人則	-11.118
在昔	-11.118
萬民	-11.1182
聞於	-11.1184
名實	-11.1186
雞鳴	-11.1188
而逝	-11.1195
侍御史	-11.1195
以助	-11.1195
鳳凰	-11.1198
可疑	-11.1198
臣伏見	-11.1201
程氏	-11.1201
方將	-11.1205
固宜	-11.1207
一飽	-11.1209
場屋	-11.1209
亦皆	-11.1209
近年	-11.1209
杪	-11.1209
吕氏	-11.121
南豐	-11.1213
歌詩	-11.1214
邊事	-11.1216
元戎	-11.1216
臣所	-11.1216
遺恨	-11.1216
無罪	-11.1217
果有	-11.1217
大理	-11.1217
漁樵	-11.1218
留題	-11.1219
之田	-11.1221
受知	-11.1222
淮海	-11.1222
犧	-11.1223
非無	-11.1226
以治	-11.1227
田野	-11.1231
開國	-11.1231
皎	-11.1233
誰識	-11.1233
僅存	-11.1234
論其	-11.1237
都事	-11.1241
之室	-11.1242
江城	-11.1243
義方	-11.1245
它日	-11.1245
為樂	-11.1248
以觀	-11.1248
上供	-11.1249
樗	-11.1249
具瞻	-11.125
嘘	-11.125
八卦	-11.1252
飫	-11.1253
曦	-11.1256
抉	-11.1257
公墓誌銘	-11.1257
忽忽	-11.1258
氣質	-11.1261
未見其	-11.1266
訶	-11.1267
固辭	-11.1267
南來	-11.1267
甚厚	-11.1268
諄諄	-11.1268
崢嶸	-11.1271
風化	-11.1271
豈止	-11.1271
大將	-11.1272
致政	-11.1275
此一	-11.1275
年華	-11.1276
之稱	-11.1277
頓首	-11.1279
壬子	-11.128
竅	-11.128
巔	-11.1282
于兹	-11.1283
烟霞	-11.1284
歴歴	-11.1285
周子	-11.1285
雩	-11.1285
亦可以	-11.1286
碣	-11.1289
不正	-11.129
天祥	-11.129
閨門	-11.129
所向	-11.1291
梧桐	-11.1293
士氣	-11.1294
楚人	-11.1295
奪之	-11.1299
無憾	-11.1303
三復	-11.1303
多故	-11.1305
掉	-11.1307
何止	-11.1308
杉	-11.1308
不失其	-11.1309
西園	-11.131
甃	-11.1313
朝請大夫	-11.1313
既成	-11.1314
史氏	-11.1316
殿中丞	-11.1316
也於是	-11.1316
大府	-11.1318
行藏	-11.132
故老	-11.132
不欺	-11.1321
京西	-11.1322
若曰	-11.1323
宰臣	-11.1323
兩朝	-11.1327
中正	-11.133
契勘	-11.1332
琅玕	-11.1333
牎	-11.1333
看花	-11.1335
悴	-11.1335
甲午	-11.1335
不歸	-11.1336
禮部尚書	-11.1336
在朝	-11.1338
意者	-11.1338
有天下	-11.1338
種種	-11.1339
官軍	-11.1341
市井	-11.1342
掣	-11.1343
紏	-11.1343
臣今	-11.1347
風聲	-11.1347
竊見	-11.135
孫氏	-11.135
諸道	-11.1351
難為	-11.1353
下風	-11.1354
金碧	-11.1354
焉者	-11.1356
不減	-11.1357
堵	-11.1361
𣺌	-11.1361
不屑	-11.1363
上林	-11.1366
聖門	-11.1369
蘖	-11.1369
而入	-11.137
叠	-11.137
先賢	-11.1372
郞	-11.1374
有限	-11.1376
光景	-11.1376
嘻	-11.1377
休命	-11.1378
夜坐	-11.1379
子也	-11.1381
制作	-11.1383
叅政	-11.1385
未報	-11.1385
癸酉	-11.1386
未到	-11.1386
不乏	-11.1388
燼	-11.1388
存心	-11.1392
聦明	-11.1394
利病	-11.1394
律詩	-11.1395
龍山	-11.1396
十四年	-11.1397
庚辰	-11.14
不憂	-11.14
此樂	-11.1402
滄洲	-11.1402
拖	-11.1403
壙	-11.1404
詩有	-11.1404
升堂	-11.1405
舊時	-11.1409
則吾	-11.1409
之意也	-11.1411
紫陽	-11.1412
入城	-11.1414
四世	-11.1414
恨無	-11.1416
之居	-11.1417
髙士	-11.1419
聞見	-11.1422
老眼	-11.1423
而忘	-11.1427
戕	-11.1429
尤為	-11.143
之境	-11.143
多寡	-11.1433
自安	-11.1436
大畧	-11.1437
可以為	-11.1437
所書	-11.1438
故雖	-11.1443
騖	-11.1444
吾身	-11.1446
堯舜之	-11.1446
乙酉	-11.1448
婺州	-11.145
又非	-11.145
寄語	-11.145
其術	-11.1452
經世	-11.1452
齋記	-11.1453
吏部侍郎	-11.1455
悽	-11.1457
匹夫	-11.1457
擎	-11.1458
䧏	-11.146
容易	-11.1462
啖	-11.1462
韓信	-11.1462
景祐	-11.1463
六人	-11.1464
髭	-11.1466
喜雨	-11.1466
南歸	-11.1469
日月之	-11.1471
親友	-11.1473
之所能	-11.1474
任重	-11.1475
二千	-11.1476
郝	-11.1477
劉向	-11.1477
廣平	-11.1478
雨聲	-11.148
孝思	-11.1483
正當	-11.1484
之積	-11.1485
紫芝	-11.1486
莅	-11.1486
山在	-11.1488
旒	-11.1488
華亭	-11.149
賢良	-11.149
其故	-11.149
大成	-11.1494
匣	-11.1495
主之	-11.1495
平反	-11.1497
長短	-11.1497
是邦	-11.15
爵禄	-11.15
貢士	-11.1501
賢而	-11.1501
浮生	-11.1502
裨	-11.1502
慝	-11.1503
先覺	-11.1505
銀河	-11.1506
蕚	-11.1506
往事	-11.1507
試問	-11.1507
豈得	-11.1515
甲辰	-11.1516
楊公	-11.1516
獨坐	-11.1516
甲兵	-11.1517
之國	-11.1518
買田	-11.152
問曰	-11.1521
者自	-11.1523
落葉	-11.1523
咲	-11.1523
之好	-11.1525
幡	-11.1525
厥後	-11.1525
國士	-11.1526
安撫使	-11.1529
鳥獸	-11.153
前修	-11.153
爾等	-11.1532
其初	-11.1532
黷	-11.1532
扶桑	-11.1535
之譏	-11.1538
始有	-11.1538
体	-11.1539
如此而	-11.1539
比之	-11.1539
大有	-11.1542
歸于	-11.1542
不幸而	-11.1543
湖廣	-11.1544
難於	-11.1547
崇寧	-11.1555
有得	-11.1557
見者	-11.1557
雞犬	-11.1557
老僧	-11.156
修撰	-11.1562
狩	-11.1563
伏念	-11.1563
樞密	-11.1563
有知	-11.1564
䂓	-11.1564
有遺	-11.1565
彬	-11.1566
𬞞	-11.1568
西來	-11.1568
之基	-11.1569
揣	-11.1569
䨇	-11.1581
曙	-11.1582
盲	-11.1582
何足以	-11.1582
兩淮	-11.1584
樞密院	-11.1584
用是	-11.1585
卒于	-11.1585
魯直	-11.1585
二十七日	-11.1588
士夫	-11.1589
讞	-11.1589
一寸	-11.159
餘慶	-11.1593
釵	-11.1594
石刻	-11.1595
之念	-11.1595
踰年	-11.1597
弑	-11.1598
荘子	-11.1598
僮	-11.1598
獄訟	-11.16
維摩	-11.16
悵望	-11.1603
杓	-11.1603
昂	-11.1604
水陸	-11.1606
筒	-11.1606
鍾山	-11.1607
不齊	-11.1607
雲雨	-11.1609
孤雲	-11.1611
周行	-11.1612
插	-11.1614
孤城	-11.1616
集序	-11.1616
無常	-11.1616
壯士	-11.1616
無聊	-11.1616
人道	-11.1617
大觀	-11.1621
壼	-11.1623
疚	-11.1624
大率	-11.1625
金帛	-11.1625
父之	-11.1626
同姓	-11.1627
哉然	-11.1631
建昌	-11.1632
罔不	-11.1635
鄂州	-11.1635
國子監	-11.1635
而不為	-11.1636
乃可	-11.164
名教	-11.1642
壬申	-11.1644
于上	-11.1644
三嵗	-11.1647
可知也	-11.1647
風動	-11.1648
謹按	-11.1649
真宗	-11.1651
溝壑	-11.1652
朱文公	-11.1653
𣙜	-11.1654
芘	-11.1654
擴	-11.1656
人力	-11.1661
曲江	-11.1661
芝蘭	-11.1662
西江	-11.1663
法也	-11.1664
總領	-11.1664
有素	-11.1665
岱	-11.1665
喜見	-11.1666
欲盡	-11.1667
登樓	-11.1667
老來	-11.1669
僖	-11.1669
亦欲	-11.167
雨餘	-11.167
水雲	-11.1671
太廟	-11.1671
高祖	-11.1674
為吏	-11.1675
聒	-11.1675
國論	-11.1676
聦	-11.1678
罔極	-11.168
斯世	-11.1682
惜其	-11.1683
子路	-11.1684
朝散大夫	-11.1689
無斁	-11.1689
諸縣	-11.1691
笥	-11.1693
尚書省	-11.1695
安道	-11.1696
今夕	-11.1697
不就	-11.1698
之懿	-11.17
揚子	-11.1701
薦之	-11.1705
君為	-11.1708
第十	-11.1709
也况	-11.1709
神物	-11.1712
然以	-11.1715
具奏	-11.1716
未歸	-11.1716
其字	-11.1718
公朝	-11.1719
於物	-11.1719
絃歌	-11.172
山房	-11.172
自覺	-11.1724
以病	-11.1724
桑麻	-11.1724
春事	-11.1727
胙	-11.1728
其任	-11.1732
人主之	-11.1732
顰	-11.1733
久不	-11.1733
庚寅	-11.1733
重於	-11.1733
某啓	-11.1739
有六	-11.1739
刑獄	-11.174
廣州	-11.174
巵	-11.1741
而食	-11.1741
空谷	-11.1742
為先	-11.1743
書某	-11.1743
嘗有	-11.1744
天官	-11.1744
多難	-11.1746
能盡	-11.1747
笞	-11.1748
祠堂	-11.1751
遂使	-11.1751
官職	-11.1752
詩禮	-11.1752
又將	-11.1753
頷	-11.1753
寵榮	-11.1755
筆硯	-11.1756
浣	-11.1757
盥	-11.1757
風日	-11.1761
羅浮	-11.1765
者此	-11.1765
䋲	-11.1765
壬	-11.1765
相依	-11.1767
罇	-11.1767
有九	-11.1768
年二十	-11.1771
也凡	-11.1772
齊魯	-11.1772
何心	-11.1774
謳	-11.1774
其來	-11.1775
説文	-11.1776
著作佐郎	-11.1777
講論	-11.1777
瓌	-11.1777
中都	-11.1777
涂	-11.1778
暮雲	-11.1778
之姿	-11.178
不然則	-11.178
櫝	-11.178
無端	-11.1781
移文	-11.1782
遒	-11.1782
僵	-11.1783
藝祖	-11.1783
不可及	-11.1785
甚於	-11.1786
留滯	-11.1786
榛	-11.1788
古風	-11.1791
肺	-11.1792
小民	-11.1793
見此	-11.1793
國太夫人	-11.1793
次韵	-11.1795
逓	-11.1797
莾	-11.1798
洞天	-11.18
逢人	-11.18
好事者	-11.1801
籟	-11.1803
宣室	-11.1803
瀘	-11.1804
舊學	-11.1807
吾母	-11.1808
旬日	-11.1809
權衡	-11.1812
如君	-11.1812
而遽	-11.1812
君恩	-11.1812
四海之	-11.1813
流光	-11.1814
爽氣	-11.1816
東漢	-11.182
大德	-11.1823
本自	-11.1825
聞命	-11.1827
殽	-11.1828
坂	-11.1829
十六年	-11.1829
若人	-11.183
龍飛	-11.1832
而使	-11.1834
不衰	-11.1835
是心	-11.1838
編修	-11.1841
之務	-11.1845
分符	-11.1846
萬巻	-11.1848
登科	-11.1849
也是以	-11.1849
廢興	-11.1851
告之曰	-11.1851
霄漢	-11.1854
瘞	-11.1856
庚午	-11.1858
紛然	-11.1859
此是	-11.1859
麋鹿	-11.186
别駕	-11.1862
贑	-11.1863
大功	-11.1863
或云	-11.1864
蘇軾	-11.1864
聞公	-11.1867
不可勝	-11.1868
器之	-11.187
崧	-11.1874
不可為	-11.1874
欲去	-11.1878
之歎	-11.188
自奮	-11.1882
賢能	-11.1882
則可以	-11.1882
叢林	-11.1886
上表	-11.1886
患難	-11.1889
婿	-11.1889
丁亥	-11.189
潄	-11.1891
嫩	-11.1892
言路	-11.1895
二十七	-11.1896
何謂	-11.1897
雖在	-11.1899
其失	-11.1899
痾	-11.19
權臣	-11.1902
剏	-11.1904
葆	-11.1905
到官	-11.1907
北闕	-11.191
吾生	-11.191
彤	-11.1911
東宫	-11.1916
搔	-11.1918
陬	-11.1919
入朝	-11.192
公卿大夫	-11.1923
所記	-11.1924
罅	-11.1924
兵革	-11.1925
入官	-11.1927
旂	-11.1927
先天	-11.1927
可能	-11.1929
勛	-11.1931
公侯	-11.1932
之雄	-11.1933
汲黯	-11.1934
猶是	-11.1935
也至於	-11.1937
愛惜	-11.1937
相視	-11.1937
記曰	-11.1938
所出	-11.194
從軍	-11.1941
京東	-11.1943
益堅	-11.1943
物理	-11.1946
過此	-11.1948
面目	-11.1948
群臣	-11.1949
推其	-11.195
於内	-11.1953
廷尉	-11.1955
杜甫	-11.1955
邦之	-11.1956
矣若	-11.1956
其傳	-11.1957
之秀	-11.1959
天下士	-11.196
舊制	-11.196
供奉	-11.1962
彥	-11.1964
弧	-11.1965
恩澤	-11.1969
不聽	-11.1969
入於	-11.197
無負	-11.197
亦必	-11.197
樽前	-11.197
一觴	-11.197
何嘗	-11.1978
知道	-11.1978
人以為	-11.1978
舄	-11.1979
百憂	-11.1981
意欲	-11.1982
溪水	-11.1982
聖學	-11.1983
險阻	-11.1986
唐太宗	-11.1987
聖天子	-11.1987
小雨	-11.1989
其誰	-11.1989
昭昭	-11.199
且復	-11.1991
耦	-11.1991
曲直	-11.1992
者吾	-11.1992
不可見	-11.1994
不窮	-11.1996
濠	-11.1996
奏請	-11.1997
坐客	-11.2
毫髪	-11.2
安仁	-11.2003
人望	-11.2004
天下事	-11.2004
温公	-11.2006
此所以	-11.2007
必曰	-11.201
經理	-11.2011
笑我	-11.2011
青松	-11.2013
公既	-11.2013
學也	-11.2016
考諱	-11.2017
酥	-11.2018
雖非	-11.202
筦	-11.2022
和靖	-11.2023
也若夫	-11.2024
諸家	-11.2025
秦人	-11.2027
東閣	-11.2027
竭力	-11.2029
朝散郎	-11.203
酤	-11.2031
杵	-11.2032
之側	-11.2033
又為	-11.2033
無害	-11.2034
旦暮	-11.2039
相度	-11.2041
非我	-11.2042
而必	-11.2042
幅巾	-11.2043
亦豈	-11.2043
瀛	-11.2043
服之	-11.2044
鬛	-11.2044
軻	-11.2044
墀	-11.2046
旻	-11.2047
循良	-11.2049
珊瑚	-11.205
俛仰	-11.2052
泰定	-11.2052
飛鴻	-11.2053
吾徒	-11.2053
或不	-11.2053
名世	-11.2055
三萬	-11.2055
公爲	-11.2056
登山	-11.2056
濳	-11.206
想像	-11.2062
卜居	-11.2062
辛丑	-11.2062
之親	-11.2064
五馬	-11.2065
此二	-11.2069
神人	-11.2069
只恐	-11.2071
此所謂	-11.2071
明徳	-11.2072
締	-11.2073
卒於	-11.2073
何曾	-11.2073
墳墓	-11.2074
脆	-11.2076
以廣	-11.2076
風濤	-11.2077
一夫	-11.2078
累日	-11.2079
哥	-11.208
之備	-11.2083
東家	-11.2084
得無	-11.2086
豈以	-11.2086
身在	-11.2086
宗師	-11.2088
五經	-11.2089
年十月	-11.2089
奉常	-11.209
烽	-11.209
百丈	-11.2093
今復	-11.2094
臣僚	-11.2095
今以	-11.2096
壬寅	-11.2097
同官	-11.2098
男兒	-11.2099
立功	-11.2101
經歴	-11.2102
不孝	-11.2104
慎按	-11.2104
未了	-11.2105
款	-11.2106
是豈	-11.211
為難	-11.211
㝡	-11.211
檐	-11.2112
傾倒	-11.2112
則民	-11.2112
愛人	-11.2113
其詳	-11.2113
者以其	-11.2114
大儒	-11.2115
丘園	-11.2117
無與	-11.2118
黄氏	-11.2118
新年	-11.2118
蓑	-11.2119
心如	-11.2119
今後	-11.212
魚鳥	-11.2121
細民	-11.2122
嶺南	-11.2125
有文	-11.2127
明矣	-11.2129
夏日	-11.2129
賢愚	-11.2129
以大	-11.213
虵	-11.213
二君	-11.213
亦不可	-11.2133
五字	-11.2137
謂公	-11.2137
古寺	-11.2138
韞	-11.2139
方來	-11.2141
戶	-11.2142
旃	-11.2144
不愛	-11.2145
困於	-11.2145
不屈	-11.2146
爼	-11.2146
忽驚	-11.215
孝經	-11.2151
有事	-11.2151
何在	-11.2151
承明	-11.2152
一邑	-11.2154
志士	-11.2154
稚子	-11.2155
哈	-11.2155
滿地	-11.2156
眎	-11.2157
無意	-11.2157
為法	-11.2157
勝負	-11.2158
下情	-11.2159
秋夜	-11.2159
之賦	-11.216
便宜	-11.2162
頗有	-11.2163
有愧	-11.2166
琮	-11.217
瑜	-11.2171
推轂	-11.2171
三曰	-11.2172
以天下	-11.2172
蹶	-11.2172
脾	-11.2174
鬂	-11.2176
東觀	-11.2177
齧	-11.2178
相屬	-11.2178
非惟	-11.2181
萬邦	-11.2183
恐懼	-11.2185
功夫	-11.2185
不恤	-11.2188
大軍	-11.2189
遂令	-11.2195
莆	-11.2196
煙霞	-11.2197
不類	-11.2199
扞	-11.2199
四五	-11.2199
纛	-11.2199
四面	-11.2199
大哉	-11.2202
小學	-11.2203
其大者	-11.2203
迄今	-11.2205
妻孥	-11.2205
丁酉	-11.2207
都官	-11.2207
掘	-11.2208
挽詩	-11.2209
要當	-11.2209
嘶	-11.2211
但有	-11.2212
風煙	-11.2212
為本	-11.2213
吳興	-11.2213
乙未	-11.2214
周公之	-11.2215
朱顔	-11.2218
也答	-11.2218
過我	-11.2218
沽酒	-11.2219
兊	-11.222
多方	-11.222
廨	-11.2222
餘年	-11.2223
隧	-11.2224
文王之	-11.2225
掃除	-11.2225
二十三日	-11.2227
當國	-11.2228
衣服	-11.2228
江河	-11.223
煙雨	-11.2232
庻㡬	-11.2232
太上皇帝	-11.2233
砥	-11.2234
去嵗	-11.2237
萬夀	-11.2238
為郡	-11.2239
又能	-11.2241
喫	-11.2242
何不	-11.2242
三十里	-11.2243
以便	-11.2244
經略	-11.2245
雷雨	-11.2246
司農	-11.2248
吾言	-11.2248
藐	-11.2251
原註	-11.2252
通直郎	-11.2252
翺翔	-11.2254
天下幸甚	-11.2255
枯槁	-11.2256
放翁	-11.2257
忽聞	-11.2257
家學	-11.2258
蕉	-11.2259
皇祐	-11.2261
不勝其	-11.2263
各自	-11.2263
墅	-11.2266
老農	-11.2266
賈生	-11.2267
憂勤	-11.2267
尊酒	-11.2268
之所為	-11.2268
安敢	-11.2269
内則	-11.227
知止	-11.2272
鴛鴦	-11.2273
二十四日	-11.2273
我輩	-11.2273
景仁	-11.2273
懐抱	-11.2273
君曰	-11.2274
無路	-11.2275
仕者	-11.2276
暘	-11.2278
甘心	-11.2279
蜚	-11.2279
白水	-11.228
兵火	-11.2281
扼	-11.2283
誡	-11.2283
年四十	-11.2284
水流	-11.2284
霰	-11.2287
之質	-11.2287
瞻望	-11.2291
先生曰	-11.2292
忠恕	-11.2292
形於	-11.2292
千户	-11.2292
轉官	-11.2294
睡起	-11.2295
無塵	-11.2295
者然	-11.2296
萬家	-11.2296
右軍	-11.2297
風景	-11.2298
燦	-11.2298
信州	-11.2299
元和	-11.2301
浙江	-11.2302
悵然	-11.2304
恩榮	-11.2306
三昧	-11.2307
聖慈	-11.231
覘	-11.2312
而猶	-11.2313
大理寺丞	-11.2314
以利	-11.2314
而言之	-11.2315
噴	-11.2315
帷幄	-11.2315
文正	-11.2317
劳	-11.2317
出扵	-11.2319
幃	-11.232
堂前	-11.2321
清白	-11.2323
畫像	-11.2324
芳菲	-11.2324
藹然	-11.2325
開門	-11.2328
感動	-11.2329
荆湖	-11.2329
所遇	-11.233
吳越	-11.2331
新除	-11.2334
及時	-11.2339
前賢	-11.234
復來	-11.2342
者如此	-11.2347
隱居	-11.2349
喉	-11.235
吏部尚書	-11.2351
諤	-11.2351
侍御	-11.2354
祈雨	-11.2355
我公	-11.2355
兵部	-11.2356
元元	-11.236
荷花	-11.236
為是	-11.2362
之神	-11.2363
黼	-11.2364
也雖	-11.2364
朕惟	-11.2365
去來	-11.2366
聶	-11.2366
棄之	-11.2366
之慮	-11.2366
唇	-11.2367
醖	-11.2368
之誅	-11.2368
莎	-11.2369
其樂	-11.2369
發之	-11.237
一體	-11.237
喜怒	-11.2371
百餘年	-11.2373
有法	-11.2374
蓮花	-11.2374
始見	-11.2374
比者	-11.2377
二十一日	-11.2377
予謂	-11.2379
以資	-11.238
之辨	-11.2381
節物	-11.2381
嘿	-11.2382
饕	-11.2383
孟氏	-11.2383
濺	-11.2386
列子	-11.2387
帥臣	-11.239
早晚	-11.239
三家	-11.2394
東湖	-11.2395
朝暮	-11.2398
蹔	-11.2399
懸知	-11.2399
臣嘗	-11.24
之源	-11.2401
鰲	-11.2402
棧	-11.2402
辛亥	-11.2403
馳驅	-11.2405
先師	-11.2407
者誰	-11.2407
大略	-11.2408
無求	-11.2408
庭下	-11.2411
晷	-11.2412
饒州	-11.2413
欲望	-11.2413
劉君	-11.2413
乙亥	-11.2416
生理	-11.2417
何言	-11.2418
閶闔	-11.2419
在廷	-11.242
聞風	-11.242
花木	-11.2421
因得	-11.2422
也後	-11.2423
逺遊	-11.2423
堯夫	-11.2424
雲林	-11.2426
大都	-11.2427
母夫人	-11.2428
窮理	-11.2428
精微	-11.2429
于人	-11.2429
華屋	-11.243
風雅	-11.243
前日之	-11.2431
兩月	-11.2431
洵	-11.2431
五里	-11.2432
紉	-11.2432
之令	-11.2434
松楸	-11.2435
淋漓	-11.2436
在官	-11.2439
不得巳	-11.244
國體	-11.244
甚衆	-11.2445
一水	-11.2446
之章	-11.2446
大字	-11.2448
癸丑	-11.2448
相尋	-11.2449
之游	-11.2449
自從	-11.2449
絕	-11.2451
剗	-11.2452
此固	-11.2452
後之人	-11.2452
而吾	-11.2452
公道	-11.2452
朝士	-11.2452
永叔	-11.2457
則不然	-11.246
宛轉	-11.2462
荆南	-11.2464
内有	-11.2465
不假	-11.2465
飢寒	-11.2466
煉	-11.2467
樽酒	-11.2469
第六	-11.2469
行中書省	-11.2469
命以	-11.2471
事理	-11.2471
禽獸	-11.2472
禮部侍郎	-11.2474
湖水	-11.2475
之幸	-11.2476
蓍	-11.2478
賄	-11.2478
之次	-11.2479
隂陽之	-11.2485
字韻	-11.2487
郡君	-11.2487
六首	-11.2487
慇懃	-11.2487
天門	-11.2487
誠心	-11.249
大政	-11.2493
某氏	-11.2495
太湖	-11.2498
陽之	-11.2498
虀	-11.2499
之號	-11.25
有勞	-11.2501
下筆	-11.2503
當自	-11.2505
消長	-11.2507
公主	-11.2508
鴻鴈	-11.2511
舊聞	-11.2511
朞	-11.2511
吾將	-11.2512
翩	-11.2516
誠意	-11.2517
猗	-11.252
次韻和	-11.252
子長	-11.2521
復古	-11.2523
留别	-11.2523
南浦	-11.2526
諮	-11.2528
樓閣	-11.2529
宜人	-11.253
滂	-11.2532
簡書	-11.2532
者常	-11.2532
讙	-11.2532
萬世之	-11.2534
筯	-11.2534
講明	-11.2535
努力	-11.2537
未許	-11.2538
報稱	-11.2538
其族	-11.254
都督	-11.254
之端	-11.2541
踞	-11.2541
百花	-11.2544
以故	-11.2545
家家	-11.2547
道院	-11.2547
棣	-11.2547
從官	-11.2548
聚散	-11.2548
也既	-11.2549
潑	-11.255
髙麗	-11.255
朝野	-11.2551
杯酒	-11.2554
不虞	-11.2555
血氣	-11.2556
惟爾	-11.2557
紫微	-11.2558
則不可	-11.2559
河間	-11.2559
敵國	-11.2559
月中	-11.2561
殃	-11.2562
境内	-11.2562
内侍	-11.2564
一等	-11.2564
天寳	-11.2566
購	-11.2568
豈但	-11.2569
交游	-11.257
浮沉	-11.257
不異	-11.257
制勑	-11.2571
藏書	-11.2572
以居	-11.2572
州人	-11.2572
蒼龍	-11.2572
肘	-11.2573
承天	-11.2573
有云	-11.2573
供職	-11.2573
窮通	-11.2574
擇其	-11.2574
咨嗟	-11.2575
以私	-11.2578
甲戌	-11.2579
吠	-11.2581
則當	-11.2582
有名	-11.2583
具位	-11.2584
百川	-11.2585
開封府	-11.2586
相隨	-11.2587
而安	-11.2589
極目	-11.2593
詩賦	-11.2593
盖有	-11.2596
鏘	-11.2597
摛	-11.2598
丁丑	-11.2601
晚年	-11.2603
者不過	-11.2605
自明	-11.2605
是嵗	-11.2607
蓬蒿	-11.2608
録事	-11.2608
得賢	-11.2608
不常	-11.2609
引去	-11.2612
起而	-11.2612
亭記	-11.2613
衒	-11.2614
諦	-11.2614
東流	-11.2615
重修	-11.2618
天下者	-11.2619
不墜	-11.262
碩人	-11.2621
世界	-11.2622
臣恐	-11.2624
儒林	-11.2625
一面	-11.2626
絢	-11.2627
伏見	-11.2628
䆳	-11.2629
記云	-11.2631
春官	-11.2632
榭	-11.2632
舛	-11.2632
以供	-11.2632
然有	-11.2633
之暇	-11.2633
逖	-11.2633
為治	-11.2635
道場	-11.2635
也必	-11.2639
年八月	-11.2639
文忠	-11.2639
二十餘年	-11.2641
古意	-11.2644
四顧	-11.2646
膏澤	-11.2646
州事	-11.2647
太平之	-11.2648
何求	-11.2649
二老	-11.2651
戊申	-11.2652
施設	-11.2653
鑾	-11.2655
少而	-11.2656
謂此	-11.2657
衰翁	-11.2657
之朝	-11.2658
辛酉	-11.2665
來往	-11.2665
謝表	-11.2665
借問	-11.2666
孕	-11.2666
熖	-11.2666
寄聲	-11.2667
迸	-11.2668
摩挲	-11.2669
怱怱	-11.2669
絶人	-11.2669
忽見	-11.267
闥	-11.2672
其舊	-11.2675
邕	-11.2676
列於	-11.2677
遲遲	-11.2677
蝸	-11.2677
雲霧	-11.2679
諜	-11.2679
成周	-11.2681
號曰	-11.2681
出乎	-11.2682
䛕	-11.2682
難忘	-11.2686
皎皎	-11.2687
客有	-11.2689
瀛洲	-11.269
遭逢	-11.2692
於國	-11.2693
單于	-11.2694
嘉其	-11.2695
委任	-11.2695
爾以	-11.2696
平章政事	-11.2696
煦	-11.2697
劉郎	-11.2698
綉	-11.2699
下馬	-11.27
欲知	-11.27
翎	-11.2702
享年六十	-11.2705
本根	-11.2706
伊洛	-11.2707
昻	-11.2711
郡侯	-11.2712
當今	-11.2712
戊辰	-11.2715
行在	-11.2715
書事	-11.2719
坐視	-11.272
興廢	-11.2721
軍政	-11.2725
得官	-11.2727
本草	-11.2732
籙	-11.2732
但覺	-11.2734
清秋	-11.2734
也豈	-11.2735
怖	-11.2735
維揚	-11.2737
僑	-11.2738
孰若	-11.2738
穰	-11.2742
獻納	-11.2743
同歸	-11.2743
刮	-11.2748
也陛下	-11.2749
所云	-11.275
商賈	-11.275
篙	-11.275
恭儉	-11.2751
丙寅	-11.2751
燃	-11.2752
非才	-11.2753
其三	-11.2753
蕭何	-11.2754
二詩	-11.2755
賴有	-11.2755
魯國	-11.2757
從政	-11.2759
青詞	-11.276
奉親	-11.2762
雲門	-11.2764
宣帝	-11.2764
竺	-11.2768
世傳	-11.277
東籬	-11.2771
之羙	-11.2773
昔在	-11.2773
相顧	-11.2774
大厦	-11.2779
十九年	-11.2779
延平	-11.278
肺肝	-11.2782
斟酌	-11.2784
惟我	-11.2785
三峽	-11.2787
池塘	-11.2787
春秋之	-11.2787
敷奏	-11.2788
咸平	-11.2788
矣某	-11.2788
遂成	-11.279
疑是	-11.2791
落成	-11.2791
有才	-11.2792
哉故	-11.2796
忘言	-11.2796
是爲	-11.2796
復還	-11.2798
大理評事	-11.2799
誰敢	-11.2799
有時而	-11.28
攅	-11.2801
齟齬	-11.2803
廂	-11.2805
圖之	-11.2805
迢迢	-11.2805
起舞	-11.2805
住持	-11.2806
之事也	-11.2806
城縣	-11.2808
起發	-11.2809
進封	-11.2809
貧者	-11.2809
聞人	-11.281
豈弟	-11.2811
銘銘曰	-11.2811
不意	-11.2812
華髪	-11.2813
越州	-11.2813
人或	-11.2814
八人	-11.2815
其終	-11.2817
草書	-11.2817
歸去來	-11.2819
壬午	-11.2819
𣲖	-11.2819
文武之	-11.282
薊	-11.282
自許	-11.282
白衣	-11.2822
茆	-11.2823
樂道	-11.2823
鱠	-11.2823
道傍	-11.2824
皆然	-11.2824
藥石	-11.2825
之智	-11.2826
流年	-11.2828
成書	-11.2829
夢魂	-11.283
上章	-11.2831
百辟	-11.2832
憲宗	-11.2833
閭閻	-11.2834
竆	-11.2835
卵	-11.2835
老大	-11.2836
在兹	-11.2838
二十二	-11.2838
之大者	-11.2841
安定	-11.2845
隆興	-11.2846
一飯	-11.2847
有田	-11.2848
一夢	-11.2848
也子	-11.2849
周氏	-11.285
蓋有	-11.285
乎吾	-11.285
孤忠	-11.2851
此間	-11.2851
之策	-11.2851
夥	-11.2852
江北	-11.2852
故以	-11.2852
亦難	-11.2856
蕨	-11.2857
常在	-11.2858
道心	-11.2858
雪後	-11.2861
之疾	-11.2867
天宇	-11.2868
無違	-11.2869
仁義之	-11.2871
後日	-11.2871
刈	-11.2875
豈必	-11.2876
楊花	-11.2878
鬯	-11.288
可見矣	-11.2881
英宗	-11.2881
漁父	-11.2886
我老	-11.2887
所可	-11.2888
不記	-11.2888
匏	-11.289
世路	-11.2891
得其人	-11.2893
巋然	-11.2894
司理	-11.2894
詳見前	-11.2895
逭	-11.2897
能詩	-11.2901
終其身	-11.2902
顒	-11.2903
前有	-11.2903
更不	-11.2903
利而	-11.2904
慾	-11.2904
何爲	-11.2904
我行	-11.2905
之科	-11.2906
閩中	-11.2906
玠	-11.2907
如彼	-11.2907
人能	-11.2908
土地	-11.2908
秋來	-11.2911
昊	-11.2912
親親	-11.2912
因縁	-11.2912
洪州	-11.2914
山上	-11.2914
祺	-11.2916
也故曰	-11.2917
居中	-11.2917
志於	-11.2918
三絶	-11.2918
稼穡	-11.292
九華	-11.292
矣哉	-11.292
直上	-11.292
危坐	-11.2921
大將軍	-11.2922
轟	-11.2922
吾父	-11.2923
師古曰	-11.2923
両	-11.2923
其形	-11.2924
碧玉	-11.2925
于民	-11.2925
視事	-11.2926
有若	-11.2926
品題	-11.2927
不特	-11.2932
三十二	-11.2932
失職	-11.2933
遺民	-11.2933
者得	-11.2934
甚盛	-11.2935
開府儀同三司	-11.2936
各以	-11.2936
千騎	-11.2937
多聞	-11.2937
太上	-11.2939
政令	-11.2941
蓴	-11.2941
得於	-11.2942
將何	-11.2943
事實	-11.2943
奉公	-11.2943
禮法	-11.2945
言之則	-11.2946
其成	-11.2947
月照	-11.2948
天香	-11.2949
入門	-11.2953
甲科	-11.2953
士林	-11.2956
不生	-11.2958
藪	-11.2958
巳而	-11.2958
政之	-11.2958
欲為	-11.2959
如是而	-11.2961
正位	-11.2961
固不可	-11.2962
山行	-11.2962
節度使	-11.2964
存乎	-11.2964
無力	-11.2967
必有以	-11.2971
重兵	-11.2972
雇	-11.2973
當此	-11.2973
不甚	-11.2974
燥	-11.2974
洙	-11.2975
居多	-11.2976
出山	-11.2977
都門	-11.2977
與余	-11.2979
所樂	-11.298
肴	-11.2984
爲我	-11.2988
政府	-11.299
一錢	-11.2992
茸	-11.2992
但以	-11.2996
宋玉	-11.2997
通鑑	-11.2998
公奏	-11.2999
專以	-11.2999
而遂	-11.3
其聲	-11.3001
等事	-11.3003
有用	-11.3003
嗟予	-11.3004
千齡	-11.3004
百戰	-11.3005
潢	-11.3005
于後	-11.3005
山長	-11.3006
螻蟻	-11.3006
華陽	-11.3009
如是則	-11.3011
宫觀	-11.3011
寥	-11.3011
綢繆	-11.3011
鵞	-11.3014
者十	-11.3014
乃欲	-11.3017
尺寸	-11.3019
召試	-11.302
釣魚	-11.302
髙卧	-11.3021
官舍	-11.3024
詩話	-11.3025
嫂	-11.3025
朝議大夫	-11.3026
兒孫	-11.3026
紫宸	-11.3031
已知	-11.3032
清絶	-11.3032
子房	-11.3034
度支	-11.3037
屛	-11.3043
修竹	-11.3045
濟時	-11.3046
不住	-11.3047
峩	-11.3049
無物	-11.3051
改官	-11.3051
遺老	-11.3053
有請	-11.3053
瞑	-11.3058
衰老	-11.3059
族人	-11.306
櫛	-11.3061
浮圖	-11.3063
道家	-11.3064
湄	-11.3066
立春	-11.3068
之殊	-11.3069
矣是	-11.3069
而至於	-11.307
呉興	-11.307
掃地	-11.307
館閣	-11.3071
校尉	-11.3073
四子	-11.3074
巻二十	-11.3075
者不可	-11.3076
以給	-11.3077
之喪	-11.3078
日下	-11.3078
皋	-11.3078
小者	-11.3079
葭	-11.3079
㑹合	-11.3079
折腰	-11.3081
異人	-11.3083
鄱陽	-11.3084
可信	-11.3087
精舍	-11.309
聖㫖	-11.3091
誠齋	-11.3092
白晝	-11.3092
相為	-11.3096
縶	-11.3096
誦之	-11.3097
天生	-11.3097
臭味	-11.3098
麴	-11.3099
蛾眉	-11.31
無窮之	-11.3101
鷗鷺	-11.3102
至順	-11.3103
惶恐	-11.3103
於衆	-11.3105
餘杭	-11.3107
燕雀	-11.3107
承乏	-11.3107
精明	-11.3109
厚薄	-11.311
亡矣	-11.3111
庀	-11.3112
榮辱	-11.3113
歘	-11.3114
其源	-11.3114
何啻	-11.3114
之操	-11.3116
士君子	-11.3116
衡門	-11.3116
按察	-11.3117
醺	-11.3117
日星	-11.3119
嘆曰	-11.3119
仕進	-11.312
黄葉	-11.312
惻然	-11.3121
殘年	-11.3124
士論	-11.3125
豈是	-11.3125
不飲	-11.3125
小舟	-11.3126
笄	-11.313
四字	-11.3132
輪囷	-11.3133
郷里	-11.3134
之險	-11.3135
向人	-11.3135
者若	-11.3136
執法	-11.3136
三五	-11.3137
西掖	-11.3138
賢不肖	-11.3141
舫	-11.3142
今也	-11.3146
並見	-11.3147
姑息	-11.3148
長卿	-11.3148
猶子	-11.3148
長句	-11.3149
武功	-11.315
安居	-11.3152
行則	-11.3154
五世	-11.3154
戊子	-11.3157
不患	-11.3157
奪其	-11.3157
二十餘	-11.3158
對酒	-11.3158
所不能	-11.316
登第	-11.3163
不載	-11.3164
不惑	-11.3164
擣	-11.3166
撞	-11.3167
不亂	-11.3167
吾宗	-11.3167
適當	-11.3168
鷁	-11.3168
乎故	-11.3169
原闕	-11.3172
百千	-11.3172
其類	-11.3175
末路	-11.3175
尊者	-11.3175
閭巷	-11.3176
圖報	-11.3176
此數	-11.3176
以授	-11.3177
得疾	-11.3177
翼翼	-11.3178
字字	-11.3179
進呈	-11.318
代之	-11.318
所恃	-11.318
兼侍讀	-11.3184
設施	-11.3185
知州	-11.3186
早卒	-11.3187
沓	-11.3188
怳	-11.3189
珠璣	-11.3189
以教	-11.319
三字	-11.3191
新法	-11.3194
三百年	-11.3195
清河	-11.3198
金馬	-11.3199
舊有	-11.3199
得句	-11.32
只在	-11.32
者焉	-11.3202
塜	-11.3205
親舊	-11.3205
鸚鵡	-11.3206
黜陟	-11.3206
臨御	-11.3207
路總管	-11.3208
以佐	-11.3209
不渝	-11.321
不驚	-11.321
子方	-11.3211
使節	-11.3212
陳乞	-11.3214
秘書	-11.3214
餼	-11.3216
甚明	-11.3216
時雨	-11.3217
泥塗	-11.3217
歐公	-11.3218
月滿	-11.3219
者即	-11.3219
纍	-11.322
然後可以	-11.3221
悞	-11.3221
亳	-11.3221
女適	-11.3222
世世	-11.3222
蹴	-11.3223
所難	-11.3224
縣太君	-11.3226
曇	-11.3226
有七	-11.3228
成於	-11.323
用也	-11.3232
相聞	-11.3232
年四月	-11.3233
二十二日	-11.3234
鴟	-11.3236
雙溪	-11.3236
徳音	-11.3236
氏墓誌銘	-11.3238
妄意	-11.324
分韻得	-11.324
鎮江	-11.3242
出師	-11.3244
延年	-11.3244
天爵	-11.3245
萬萬	-11.3248
其師	-11.3249
貢舉	-11.325
意思	-11.325
諸友	-11.3252
𬗋	-11.3254
錬	-11.3256
雨雪	-11.3258
定國	-11.3258
化之	-11.3258
尤難	-11.3259
怍	-11.326
何耶	-11.3264
公嘗	-11.3264
屈指	-11.3265
本原	-11.3265
精誠	-11.3266
之急	-11.3267
伏羲	-11.3267
逺而	-11.3269
時來	-11.3271
黥	-11.3272
展轉	-11.3273
漢陽	-11.3273
杲	-11.3274
天與	-11.3278
方知	-11.3278
隈	-11.3278
為重	-11.3279
兩府	-11.3279
浩歌	-11.3279
今嵗	-11.328
一命	-11.3281
周易	-11.3285
受業	-11.3286
所施	-11.3286
力辭	-11.3288
茨	-11.3288
為時	-11.3289
戊午	-11.3291
殊不	-11.3292
縑	-11.3292
餒	-11.3294
以謝	-11.3296
駮	-11.3296
風前	-11.3298
余言	-11.3298
知命	-11.3299
死矣	-11.3299
必至	-11.3299
大雪	-11.3299
之區	-11.33
常有	-11.3301
曽大父	-11.3302
有志於	-11.3303
鈐	-11.3306
三品	-11.3307
龍泉	-11.3307
學古	-11.3307
揜	-11.3309
不專	-11.331
自可	-11.331
彪	-11.3311
阡陌	-11.3312
髙山	-11.3312
觥	-11.3314
溷	-11.3314
享年七十	-11.3316
此說	-11.3318
舊遊	-11.3318
乎天	-11.3319
不害	-11.332
文嗚呼	-11.332
璽	-11.3321
却是	-11.3323
至若	-11.3323
有守	-11.3325
旭	-11.3327
曰昔	-11.3329
孩	-11.333
鏗	-11.3331
紹熈	-11.3331
片言	-11.3332
誤恩	-11.3332
其歸	-11.3332
南昌	-11.3336
天時	-11.3337
特與	-11.3339
夜來	-11.3341
而後已	-11.3343
塹	-11.3346
㺯	-11.3347
颯	-11.3347
盖其	-11.3347
溪流	-11.3347
去矣	-11.3348
聖俞	-11.3349
委之	-11.3349
詔令	-11.3352
枕上	-11.3352
雖多	-11.3353
秀色	-11.3354
終無	-11.3354
與予	-11.3355
悲歌	-11.3355
二百年	-11.3356
難矣	-11.3358
夜夜	-11.3359
為心	-11.336
梨花	-11.3361
酒杯	-11.3362
周南	-11.3363
制勅具官某	-11.3363
沛然	-11.3363
慎勿	-11.3365
不殺	-11.3366
長曰	-11.3369
燕山	-11.3369
犁	-11.337
凜	-11.3371
八荒	-11.3372
乃復	-11.3372
此外	-11.3373
了翁	-11.3374
所期	-11.3375
臣謂	-11.3378
春夏	-11.3378
無一事	-11.3379
太清	-11.3379
曆	-11.338
聞君	-11.338
者葢	-11.3382
胡公	-11.3383
體用	-11.3384
仞	-11.3384
蹲	-11.3385
真儒	-11.3386
㸑	-11.3386
慶曆	-11.3386
盡言	-11.3387
彚	-11.3388
死於	-11.3393
以救	-11.3396
醉鄉	-11.3397
守道	-11.3398
颺	-11.34
也又曰	-11.34
正大	-11.3401
料理	-11.3403
安縣	-11.3404
飛花	-11.3405
哉此	-11.3406
積雪	-11.3407
故常	-11.3408
夢裏	-11.3409
十卷	-11.3411
有不可	-11.3412
一别	-11.3414
農夫	-11.3415
重九	-11.3417
囑	-11.3417
盼	-11.3418
道學	-11.3418
如某者	-11.3418
回頭	-11.3419
遺事	-11.3421
至和	-11.3421
便欲	-11.3422
猶得	-11.3422
白樂天	-11.3422
用韻	-11.3423
泛舟	-11.3423
虢	-11.3425
第七	-11.3426
曰天	-11.3426
禁林	-11.3426
峴	-11.3427
大笑	-11.3428
春意	-11.3428
山南	-11.3428
之右	-11.343
故居	-11.343
過眼	-11.343
将以	-11.3431
乗興	-11.3432
為之記	-11.3433
合而	-11.3433
何堪	-11.3433
兼權	-11.3433
及今	-11.3437
連日	-11.3438
惜乎	-11.3438
拄	-11.3438
不存	-11.3438
便可	-11.344
矣雖然	-11.3443
之累	-11.3445
講求	-11.3446
致身	-11.3447
同郡	-11.3452
其鄉	-11.3454
松柏	-11.3455
而求之	-11.3455
紹定	-11.3456
煒	-11.3457
其末	-11.3458
何益	-11.3459
道塲	-11.346
菽	-11.346
〇	-11.3463
救之	-11.3464
諏	-11.3464
無量	-11.3466
果能	-11.3467
九鼎	-11.3468
何則	-11.347
暮春	-11.3471
兵民	-11.3473
趙君	-11.3473
萎	-11.3474
前來	-11.3477
知是	-11.3479
果然	-11.3479
崑	-11.3482
里之	-11.3484
棲遲	-11.3486
鯁	-11.3488
茁	-11.349
若何	-11.3492
侍臣	-11.3492
之感	-11.3492
天下而	-11.3493
茫	-11.3494
滄溟	-11.3494
時為	-11.3495
字畫	-11.3497
則可	-11.3497
千頃	-11.3497
詔㫖	-11.35
以名	-11.3501
家藏	-11.3502
定知	-11.3503
無間言	-11.3503
泗州	-11.3503
誰憐	-11.3504
見過	-11.3506
闕下	-11.3506
鹵	-11.3507
珥	-11.3508
不鄙	-11.3509
三事	-11.3509
明州	-11.351
應之	-11.3512
豈足	-11.3512
桓公	-11.3512
虚空	-11.3512
贈太師	-11.3513
尊前	-11.3514
今夫	-11.3515
烟雨	-11.3516
潁川	-11.3517
揮毫	-11.3517
繒	-11.3517
騎馬	-11.3517
有作	-11.3517
天下國家	-11.3517
水邊	-11.3519
職在	-11.3521
如來	-11.3523
六百	-11.3525
亦可謂	-11.3527
病起	-11.3527
無媿	-11.3529
矣嗚呼	-11.3531
邯鄲	-11.3531
即以	-11.3531
樂也	-11.3532
江邊	-11.3533
上都	-11.3533
鎮撫	-11.3534
卿大夫	-11.3535
岷	-11.3537
曽未	-11.3537
并引	-11.3538
猿鶴	-11.3538
所不及	-11.354
遺跡	-11.3541
香山	-11.3541
之比	-11.3541
自在	-11.3542
要之	-11.3544
桂林	-11.3544
耋	-11.3544
天際	-11.3544
酒醒	-11.3545
戊寅	-11.3545
琰	-11.3548
更相	-11.3551
旣而	-11.3552
乃心	-11.3555
曰君子	-11.3556
詞臣	-11.3559
老而	-11.3559
辛未	-11.3562
戊戌	-11.3563
估	-11.3564
賙	-11.3564
箸	-11.3564
固多	-11.3565
威名	-11.3565
漣	-11.3565
十七年	-11.3565
萬壽	-11.3565
無憂	-11.3566
命公	-11.3567
為陛下	-11.3567
樓上	-11.3568
未已	-11.3569
其語	-11.3571
之目	-11.3571
世上	-11.3572
志氣	-11.3573
厥官	-11.3573
承命	-11.3575
殿下	-11.3575
庶人	-11.3578
鈞天	-11.3579
捐軀	-11.3581
新晴	-11.3583
䔥	-11.3583
眼明	-11.3584
踰月	-11.3585
氣節	-11.3586
緬	-11.3586
嶼	-11.3587
言則	-11.3587
一舉	-11.3589
祗服	-11.3592
道則	-11.3593
者甚衆	-11.3593
萬緡	-11.3595
冬十月	-11.3595
室家	-11.3597
伏承	-11.3599
鎔	-11.36
之詳	-11.36
一尊	-11.36
百人	-11.36
髙帝	-11.3601
豳	-11.3601
所生	-11.3602
鍼	-11.3602
朱門	-11.3602
五季	-11.3603
好在	-11.3603
𫀆	-11.3604
歴代	-11.3606
生于	-11.3608
琴書	-11.3608
積累	-11.3609
其官	-11.3609
深厚	-11.361
嘗試	-11.361
巒	-11.3611
口宣	-11.3611
海陵	-11.3612
以仁	-11.3612
寓居	-11.3612
中郎	-11.3614
一女	-11.3616
哉今	-11.3617
囷	-11.3617
恂	-11.3617
誰言	-11.362
渤海	-11.3623
處置	-11.3623
民生	-11.3625
峥嶸	-11.3626
外臺	-11.3626
鬱鬱	-11.3627
弋	-11.363
北歸	-11.363
光禄	-11.3631
儒冠	-11.3635
在京	-11.3636
樁	-11.3637
欎	-11.3638
師儒	-11.3639
降詔	-11.364
無奈	-11.364
郡公	-11.3641
隨處	-11.3641
天開	-11.3641
砧	-11.3641
數百年	-11.3642
於兹	-11.3644
不備	-11.3645
經濟	-11.3646
望風	-11.3646
小雅	-11.3647
用意	-11.3651
非人	-11.3652
資政殿學士	-11.3653
之什	-11.3653
太虚	-11.3654
華嚴	-11.3654
經畧	-11.3656
尚多	-11.3656
上件	-11.3656
懾	-11.3657
廐	-11.3658
徒勞	-11.3659
縣事	-11.366
大中	-11.3661
不斷	-11.3661
爲一	-11.3662
功利	-11.3662
哉夫	-11.3664
黄庭	-11.3666
王母	-11.3666
天下無	-11.3667
未容	-11.3669
理財	-11.3669
閒暇	-11.367
古之君子	-11.3671
尤重	-11.3671
不可謂	-11.3672
瓦礫	-11.3675
盻	-11.3676
極矣	-11.3676
冉	-11.3678
興國	-11.3679
是何	-11.368
遑	-11.3681
璽書	-11.3681
自處	-11.3681
棟梁	-11.3682
除臣	-11.3682
畫一	-11.3682
又如	-11.3682
者可	-11.3683
霜風	-11.3683
而不知其	-11.3685
一貫	-11.3686
與客	-11.3686
非禮	-11.3687
維持	-11.3689
蘇氏	-11.369
逺山	-11.369
劬	-11.3692
仁宗皇帝	-11.3693
穗	-11.3694
淮甸	-11.3695
于學	-11.3697
如斯	-11.3699
躬耕	-11.3699
十巻	-11.3701
㝠㝠	-11.3704
以立	-11.3705
于斯	-11.3706
馳騁	-11.3707
一人之	-11.3712
詩巻	-11.3712
古有	-11.3713
靚	-11.3713
緒餘	-11.3718
一榻	-11.3718
行於	-11.3722
字仲	-11.3724
㑹有	-11.3724
與人交	-11.3726
無留	-11.3727
謹具	-11.3727
著述	-11.3728
承㫖	-11.3728
黄鵠	-11.3729
閉户	-11.3729
籖	-11.3731
榷	-11.3732
羗	-11.3733
緑隂	-11.3733
謔	-11.3734
胷次	-11.3736
無慮	-11.3736
益以	-11.3737
之虞	-11.3741
英俊	-11.3745
驚人	-11.3745
近侍	-11.3746
霏霏	-11.3746
上之人	-11.3748
以善	-11.3748
進用	-11.3749
百神	-11.3749
祓	-11.3751
北望	-11.3751
珎	-11.3751
誄	-11.3752
虺	-11.3752
羲皇	-11.3753
峩峩	-11.3753
風土	-11.3753
名者	-11.3753
便覺	-11.3753
醫藥	-11.3754
臣雖	-11.3755
肝膽	-11.3755
方面	-11.3756
耳目之	-11.3756
職業	-11.3758
既得	-11.376
優㳺	-11.3761
漢中	-11.3762
燮	-11.3763
退居	-11.3767
為子	-11.3767
及物	-11.3767
之路	-11.3767
不貲	-11.3772
庚戌	-11.3772
愷	-11.3773
不振	-11.3773
七百	-11.3775
當塗	-11.3775
儒者之	-11.3777
岳飛	-11.378
開禧	-11.3781
民無	-11.3782
疫	-11.3783
走馬	-11.3784
翠微	-11.3786
擯	-11.3787
君臣之	-11.3788
牌	-11.3788
清凉	-11.3789
妙語	-11.379
缶	-11.379
凈	-11.3791
甲乙	-11.3791
菌	-11.3792
飛去	-11.3793
邇來	-11.3795
址	-11.3796
王侯	-11.3797
疾苦	-11.38
黄塵	-11.38
豈期	-11.3801
不踰	-11.3803
流風	-11.3803
㕓	-11.3804
壬戌	-11.3806
之易	-11.3806
講習	-11.3807
朝請郎	-11.3807
得見	-11.3808
瘡	-11.3808
琉璃	-11.3808
碁	-11.3809
絶頂	-11.381
萼	-11.3812
聽之	-11.3812
所長	-11.3812
千仞	-11.3813
戲作	-11.3813
劉子	-11.3814
所行	-11.3815
人戸	-11.3817
無厭	-11.3817
虎符	-11.3821
天外	-11.3823
心知	-11.3823
中使	-11.3825
錦囊	-11.3825
先主	-11.3826
一雨	-11.3826
𣏌	-11.3827
元帝	-11.3827
所守	-11.3829
以寛	-11.3829
安民	-11.383
西望	-11.383
霹靂	-11.3831
毅然	-11.3833
名也	-11.3833
天下後世	-11.3834
如此其	-11.3834
稱職	-11.3836
葬於	-11.3836
王安石	-11.3837
付以	-11.3838
誠能	-11.3838
秋霜	-11.3838
以理	-11.3838
不擇	-11.3839
月夜	-11.384
又欲	-11.3842
腐儒	-11.3843
白鷺	-11.3845
代賀	-11.3845
不赴	-11.3846
抑亦	-11.3846
可稱	-11.3846
伏望皇帝陛下	-11.3846
予以	-11.3847
南征	-11.3848
要害	-11.3849
父某	-11.3852
其數	-11.3852
司馬遷	-11.3853
其死	-11.3857
忠言	-11.3857
不懈	-11.3858
資政	-11.3865
質之	-11.3866
草樹	-11.3866
之弗	-11.3869
自陳	-11.3871
巍	-11.3872
信乎	-11.3872
幽明	-11.3873
瑰	-11.3874
懼其	-11.3874
寺僧	-11.3874
荣	-11.3875
付與	-11.3876
嘉興	-11.3876
萬卷	-11.3877
求諸	-11.3878
持此	-11.388
端明殿學士	-11.3881
深山	-11.3882
海隅	-11.3883
纖	-11.3885
餘力	-11.3885
吾何	-11.3885
必求	-11.389
物物	-11.3893
成均	-11.3893
矣乎	-11.3894
無咎	-11.3895
獨以	-11.3896
陌上	-11.3896
宣教郎	-11.3898
無取	-11.3898
凡三	-11.39
幾日	-11.3901
某自	-11.3902
和議	-11.3902
后土	-11.3902
於古	-11.3906
舟車	-11.3908
刘	-11.3908
夜光	-11.3909
蕭瑟	-11.3909
焉耳	-11.3909
進之	-11.3913
不分	-11.3913
作新	-11.3914
酉	-11.3914
之愛	-11.3916
汝南	-11.3916
河水	-11.3917
罷去	-11.3918
猶記	-11.3918
平安	-11.3919
及第	-11.3919
腦	-11.392
令名	-11.392
畊	-11.3921
拏	-11.3922
數百里	-11.3922
有八	-11.3924
不返	-11.3924
易以	-11.3925
轉一官	-11.3926
𬋩	-11.3926
謂宜	-11.3927
莫問	-11.3927
一歲	-11.3927
俗吏	-11.3929
制置使	-11.393
之君子	-11.3931
不修	-11.3931
大者	-11.3932
其政	-11.3933
秣	-11.3936
中奉大夫	-11.3938
蘇子	-11.394
李侯	-11.3944
省劄	-11.3944
而廢	-11.3944
諸郎	-11.3945
不嫌	-11.3946
至尊	-11.3947
山有	-11.3948
出則	-11.3948
千里之	-11.3949
者獨	-11.3949
必大	-11.395
以全	-11.3952
還鄉	-11.3954
厎	-11.3954
昕	-11.3955
彖	-11.3955
名器	-11.3955
豔	-11.3956
殱	-11.3956
應詔	-11.3957
以表	-11.3958
伯氏	-11.3958
衡山	-11.3958
婣	-11.3958
仄	-11.3959
凡所	-11.3959
而居	-11.3959
十有四	-11.3962
之吉	-11.3963
亦不敢	-11.3963
自致	-11.3964
康節	-11.3965
四者	-11.3967
擇之	-11.3967
小園	-11.3968
于中	-11.3971
追隨	-11.3971
人不知	-11.3972
居家	-11.3972
者何也	-11.3975
者不能	-11.3976
戸部	-11.3976
桑梓	-11.3976
賻	-11.3978
董仲舒	-11.3982
直以	-11.3982
鵶	-11.3983
㡬時	-11.3983
漢儒	-11.3984
勻	-11.3984
雪滿	-11.3984
州防禦使	-11.3986
深矣	-11.3986
言哉	-11.3989
無敵	-11.3989
中書省	-11.3989
常恐	-11.3991
經始	-11.3991
簉	-11.3991
醻	-11.3995
上疏	-11.3995
介甫	-11.3995
官守	-11.3998
以昭	-11.4
朅來	-11.4003
渺渺	-11.4003
不羣	-11.4004
送劉	-11.4006
意其	-11.4007
其長	-11.401
夐	-11.4013
固難	-11.4013
皆能	-11.4014
乞賜	-11.4017
簞瓢	-11.4017
禰	-11.4018
食邑	-11.4019
故應	-11.4022
累月	-11.4023
小官	-11.4023
東望	-11.4023
而發	-11.4025
不敢不	-11.4026
事勢	-11.4027
應笑	-11.4028
以獻	-11.4028
君亦	-11.4029
痛飲	-11.4029
禮成	-11.4032
赫然	-11.4033
蒞	-11.4034
清議	-11.4034
之㣲	-11.4035
差官	-11.4035
蛻	-11.4036
誰云	-11.4039
甜	-11.404
少府	-11.404
韓琦	-11.4041
磔	-11.4041
誤國	-11.4043
至道	-11.4043
幾度	-11.4045
過矣	-11.4046
所繫	-11.4046
曰君	-11.4046
辛巳	-11.4047
京華	-11.4047
東野	-11.4047
蕭散	-11.4048
賜金	-11.4048
莫遣	-11.4048
學記	-11.4049
手詔	-11.4049
漢武	-11.405
互相	-11.4051
罪戾	-11.4052
公輔	-11.4053
曰不然	-11.4055
見公	-11.4055
褁	-11.4055
不事	-11.4056
我朝	-11.4058
拄杖	-11.4059
昌言	-11.4059
民瘼	-11.4061
此類	-11.4061
予聞	-11.4061
者以為	-11.4063
舊事	-11.4064
兩鬢	-11.4065
延閣	-11.4065
毁譽	-11.4066
自愧	-11.4066
縟	-11.4066
風清	-11.4071
聖神	-11.4072
濂溪	-11.4073
僦	-11.4075
黄鍾	-11.4076
皆知	-11.4076
治其	-11.4076
宗子	-11.4077
乎今	-11.4078
立身	-11.4079
民事	-11.4079
服除	-11.408
臨水	-11.4082
藕	-11.4082
義也	-11.4085
之符	-11.4085
以至於	-11.4086
大旱	-11.4089
百僚	-11.409
來自	-11.4091
凡有	-11.4091
攬轡	-11.4092
風起	-11.4092
者至	-11.4094
國風	-11.4094
乙丑	-11.4094
軋	-11.4095
坐中	-11.4096
之衝	-11.4097
數百人	-11.4099
仲子	-11.41
奉承	-11.41
告于	-11.41
又况	-11.4101
終于	-11.4101
特以	-11.4101
其亦	-11.4101
爲國	-11.4102
有疑	-11.4103
小山	-11.4108
事皆	-11.4108
主張	-11.4108
繁華	-11.411
謂何	-11.4111
恙	-11.4113
雲飛	-11.4113
以通	-11.4113
事上	-11.4115
泚	-11.412
七十二	-11.412
右司	-11.4121
商量	-11.4122
如舊	-11.4124
次之	-11.4124
無逸	-11.4129
官屬	-11.4129
內	-11.4129
竢	-11.413
潼	-11.413
益州	-11.4133
翥	-11.4133
莫大於	-11.4135
下民	-11.4136
吾州	-11.4136
能事	-11.4139
此老	-11.4139
仍舊	-11.414
簡編	-11.4142
必將	-11.4143
十有六	-11.4144
坐看	-11.4145
吾儒	-11.4146
客愁	-11.4149
惟時	-11.4149
宗皇帝	-11.415
肅然	-11.415
癸未	-11.415
威靈	-11.4152
而南	-11.4152
歳時	-11.4153
橈	-11.4155
節義	-11.4155
舉而	-11.4155
中書舎人	-11.4157
即此	-11.4158
皇華	-11.4159
也聖人	-11.4161
義之	-11.4163
所自	-11.4164
大河	-11.4164
昇平	-11.4164
百金	-11.4167
夜夢	-11.4169
以充	-11.417
禘	-11.417
上柱國	-11.417
跖	-11.4175
縳	-11.4176
脯	-11.4177
兩漢	-11.4178
已覺	-11.4178
樞機	-11.4178
其端	-11.4179
而治	-11.418
石渠	-11.4181
也何	-11.4182
入侍	-11.4183
伏讀	-11.4184
氏贈	-11.4184
遺風	-11.4185
蓋亦	-11.4185
鄰里	-11.4187
湯武	-11.4188
錮	-11.4188
㴱	-11.4188
謝事	-11.4189
睇	-11.4189
怡然	-11.419
之奉	-11.419
諫議	-11.4191
其流	-11.4192
法者	-11.4192
環堵	-11.4192
見示	-11.4193
誠有	-11.4193
闗中	-11.4194
升降	-11.4194
于前	-11.4196
其教	-11.4196
宇文	-11.4197
送陳	-11.4197
此蓋伏遇皇帝陛下	-11.4197
連年	-11.4197
燕居	-11.42
當為	-11.4203
以法	-11.4204
拜命	-11.4205
姒	-11.4206
連城	-11.4207
後世之	-11.421
譎	-11.421
日落	-11.4211
從臣	-11.4212
挟	-11.4213
造次	-11.4214
麄	-11.4215
不勞	-11.4217
藩籬	-11.4218
念此	-11.4218
江右	-11.4218
我昔	-11.4219
輔相	-11.4219
陽縣	-11.422
載之	-11.4222
何䖏	-11.4222
數語	-11.4223
嘆息	-11.4223
斜日	-11.4223
之形	-11.4224
西東	-11.4224
横流	-11.4224
撫字	-11.4224
永言	-11.4225
五斗	-11.4227
薤	-11.4227
王者之	-11.4228
下士	-11.4229
世為	-11.423
大鈞	-11.423
恐非	-11.4231
執中	-11.4231
多言	-11.4232
辨之	-11.4233
郡城	-11.4234
櫂	-11.4234
其選	-11.4234
無任	-11.4235
儀刑	-11.4236
今陛下	-11.4237
二十六	-11.4237
輝光	-11.4237
温州	-11.4238
池州	-11.4239
意謂	-11.424
秋光	-11.4241
甚善	-11.4241
嘉禾	-11.4242
䖍州	-11.4242
可傳	-11.4243
幸得	-11.4244
治行	-11.4244
未足以	-11.4245
獨醒	-11.4248
碧落	-11.4249
搴	-11.4251
刳	-11.4252
歡聲	-11.4252
取人	-11.4253
所由	-11.4254
知其為	-11.4254
翌日	-11.4255
未明	-11.4255
聽其	-11.4256
行乎	-11.4257
特立	-11.4258
仲舒	-11.4259
又作	-11.426
輔臣	-11.426
光照	-11.4262
不可無	-11.4262
苕	-11.4262
今天下	-11.4262
吾師	-11.4263
淺陋	-11.4263
遭時	-11.4263
盡矣	-11.4264
袁州	-11.4264
駟馬	-11.4264
特進	-11.4264
呉越	-11.4264
所養	-11.4266
捜	-11.4268
與俱	-11.4269
安得不	-11.427
論列	-11.427
獨行	-11.427
一半	-11.4273
其年	-11.4273
號稱	-11.4273
成人	-11.4274
災傷	-11.4275
不早	-11.4276
罍	-11.4277
百篇	-11.428
風度	-11.428
木石	-11.4282
徳行	-11.4284
斗酒	-11.4285
無際	-11.4285
一變	-11.4286
孔門	-11.4286
闌干	-11.4287
暌	-11.4288
出身	-11.4289
六國	-11.429
翩然	-11.4292
今若	-11.4295
泠泠	-11.4296
嗜好	-11.4296
從子	-11.4299
昭示	-11.43
東萊	-11.43
蹤跡	-11.4302
此中	-11.4306
惟謹	-11.4307
同遊	-11.4309
一尺	-11.4311
戡	-11.4311
詠歌	-11.4312
花前	-11.4313
臨流	-11.4313
森森	-11.4315
山城	-11.4315
教官	-11.4316
可取	-11.4318
必有所	-11.4319
積雨	-11.432
春歸	-11.432
我思	-11.4321
砂	-11.4321
看山	-11.4322
齒牙	-11.4324
剛柔	-11.4324
正則	-11.4325
求去	-11.4326
已久	-11.4329
峒	-11.4329
花枝	-11.433
㪯	-11.433
更張	-11.433
淮陽	-11.4332
書其	-11.4333
監丞	-11.4333
曾不	-11.4335
者二	-11.4335
存之	-11.4336
文義	-11.4337
網羅	-11.4339
以應	-11.4339
夏四月	-11.4341
墓表	-11.4342
紬	-11.4344
民以	-11.4344
具在	-11.4344
歲寒	-11.4347
簡易	-11.4347
學宫	-11.4348
謹奉	-11.4349
蒙恩	-11.435
傭	-11.4352
膓	-11.4352
自爲	-11.4353
本傳	-11.4353
臣竊見	-11.4353
玉音	-11.4356
經過	-11.4356
身如	-11.4358
顧惟	-11.4358
才名	-11.4359
法而	-11.4361
離别	-11.4362
承顔	-11.4363
動心	-11.4364
不見其	-11.4364
祧	-11.4364
水清	-11.4364
喟然	-11.4366
吾亦	-11.4366
羣生	-11.4366
簽書	-11.4366
曰今	-11.4366
筋	-11.4367
天地之間	-11.4368
欣欣	-11.4368
以臣	-11.4369
安有	-11.437
與李	-11.437
左司	-11.4372
而失	-11.4372
厚矣	-11.4373
有力	-11.4373
物情	-11.4373
晨起	-11.4374
然如	-11.4374
無虞	-11.4375
論交	-11.4375
潺湲	-11.4376
客子	-11.4377
老氏	-11.4377
守禦	-11.4379
曾孫	-11.438
向来	-11.438
仙翁	-11.4382
殿前	-11.4383
前朝	-11.4384
天錫	-11.4384
水上	-11.4385
事宜	-11.4386
波瀾	-11.4386
欒	-11.4388
飱	-11.4389
鎬	-11.4389
常山	-11.439
用前韻	-11.4391
拉	-11.4393
耳今	-11.4399
泉州	-11.4399
矣余	-11.44
者凡	-11.44
勅具官某	-11.4401
故相	-11.4401
歸老	-11.4402
亦將	-11.4402
同舍	-11.4403
君實	-11.4404
不偶	-11.4404
軄	-11.4407
蓍龜	-11.4408
賢之	-11.441
制勅	-11.4411
誅之	-11.4412
大雨	-11.4413
禾黍	-11.4413
一鄉	-11.4413
吾知	-11.4414
縠	-11.4414
里巷	-11.4414
雅頌	-11.4414
伏望陛下	-11.4414
硬	-11.4415
異恩	-11.4417
送君	-11.4421
余聞	-11.4423
得所	-11.4423
那復	-11.4423
改作	-11.4424
引領	-11.4424
所寄	-11.4425
自成	-11.4426
墾	-11.4427
癸亥	-11.4429
以是為	-11.443
恂恂	-11.4431
木之	-11.4431
燄	-11.4431
薦舉	-11.4432
杜鵑	-11.4432
史館	-11.4432
吊	-11.4433
呻吟	-11.4433
便有	-11.4434
是之謂	-11.4435
改正	-11.4437
叔度	-11.4438
知之矣	-11.444
松菊	-11.4442
都人	-11.4442
墉	-11.4443
先務	-11.4444
徯	-11.4445
責以	-11.4445
摯	-11.4446
不競	-11.4447
山靈	-11.4448
騶	-11.4448
白璧	-11.4449
謟	-11.445
於戲	-11.445
而受	-11.4451
可紀	-11.4451
讀易	-11.4451
襪	-11.4453
入于	-11.4453
南樓	-11.4454
奏曰	-11.4455
焉夫	-11.4455
之兆	-11.4456
詳定	-11.4456
東園	-11.4457
序云	-11.4458
尚在	-11.446
錢氏	-11.4463
城外	-11.4465
敢謂	-11.4465
四書	-11.4465
召對	-11.4466
庭前	-11.4466
儼然	-11.4467
之願	-11.4467
中國之	-11.4468
眼看	-11.4468
櫟	-11.4469
前件	-11.4469
椀	-11.447
蓬莱	-11.4472
矣予	-11.4473
趁	-11.4473
自當	-11.4474
萱	-11.4475
駛	-11.4475
也是故	-11.4475
之柄	-11.4475
加恩	-11.4475
覯	-11.4478
未全	-11.4479
徃還	-11.448
井田	-11.4482
御製	-11.4482
渡河	-11.4483
後昆	-11.4484
縣之	-11.4484
重重	-11.4486
動而	-11.4486
穽	-11.4487
肺腑	-11.449
告老	-11.4491
歲晚	-11.4492
逺人	-11.4492
以圖	-11.4492
祠下	-11.4497
也君子	-11.4498
之素	-11.4498
乎是	-11.4499
卧龍	-11.4501
今則	-11.4502
盡瘁	-11.4503
祲	-11.4503
灝	-11.4504
六朝	-11.4504
荀卿	-11.4504
雲水	-11.4505
一段	-11.4506
不至於	-11.4507
參寥	-11.4508
仁厚	-11.4509
鱸	-11.451
醉翁	-11.4511
來時	-11.4512
習之	-11.4514
服膺	-11.4514
世變	-11.4514
目之	-11.4515
器械	-11.4515
多謝	-11.4517
一軍	-11.4522
乃至	-11.4522
之悲	-11.4523
蒼梧	-11.4523
萬金	-11.4525
從事郎	-11.4526
黼黻	-11.4527
朝市	-11.4528
㩀	-11.4532
然非	-11.4533
變故	-11.4533
也曰	-11.4535
無怨	-11.4535
玉帛	-11.4536
横渠	-11.4536
諺	-11.4537
不置	-11.4538
府庫	-11.4539
若非	-11.4539
衰朽	-11.4541
之間而	-11.4541
功德	-11.4543
者能	-11.4544
疑之	-11.4544
區處	-11.4545
雲烟	-11.4546
晏然	-11.455
終焉	-11.4553
御前	-11.4553
佗	-11.4554
焰	-11.4554
大書	-11.4556
鯤	-11.4561
莫作	-11.4562
聖君	-11.4566
陶淵明	-11.4567
疴	-11.457
南城	-11.457
天也	-11.4571
接武	-11.4571
恐未	-11.4571
中心	-11.4572
尊號	-11.4572
良辰	-11.4573
蠡	-11.4573
蓋其	-11.4574
九霄	-11.4575
勤儉	-11.4576
歐陽文忠公	-11.4577
簽	-11.4578
歸舟	-11.4578
以傳	-11.4578
文明	-11.4579
觀風	-11.4579
提㸃	-11.458
望其	-11.4581
學有	-11.4581
詞賦	-11.4581
正在	-11.4582
事物	-11.4582
習俗	-11.4583
一般	-11.4584
全活	-11.4586
山翁	-11.4586
風氣	-11.4587
累朝	-11.4589
莱	-11.4591
蛾	-11.4591
未忍	-11.4592
即其	-11.4592
何憂	-11.4592
竟日	-11.4593
因書	-11.4593
赭	-11.4594
姑以	-11.4596
海外	-11.4596
征伐	-11.4596
友朋	-11.4596
曛	-11.4597
紺	-11.4597
聲聞	-11.4598
一分	-11.4598
天府	-11.4599
惟知	-11.4599
希夷	-11.46
始末	-11.4601
益思	-11.4603
通守	-11.4605
南臺	-11.4605
身為	-11.4606
華山	-11.4608
不務	-11.4611
制朕	-11.4612
賜以	-11.4612
又從而	-11.4612
擠	-11.4612
冽	-11.4613
所疑	-11.4613
滿城	-11.4614
朝議	-11.4615
起廢	-11.4616
漳州	-11.4617
勢利	-11.4617
湖光	-11.4618
開口	-11.4621
蔡州	-11.4622
輔之	-11.4622
好生	-11.4625
一息	-11.4625
駿奔	-11.4626
其祖	-11.4627
要知	-11.4627
也至	-11.4628
但願	-11.4631
何從	-11.4632
二十三	-11.4634
痩	-11.4634
石橋	-11.4635
仁也	-11.4636
出沒	-11.4637
近來	-11.4638
不勝幸甚	-11.464
俎	-11.4642
比年	-11.4643
御史大夫	-11.4643
南遷	-11.4644
河圖	-11.4646
與王	-11.4646
本非	-11.4648
循環	-11.4648
丹心	-11.4651
者悉	-11.4654
漚	-11.4656
夜宿	-11.4656
凡此	-11.4656
暎	-11.4656
磵	-11.4656
曝	-11.4657
以孝	-11.4657
塚	-11.4658
烘	-11.466
求賢	-11.4661
客路	-11.4662
寥廓	-11.4663
楊柳	-11.4663
右某	-11.4664
訐	-11.4666
今欲	-11.4666
太一	-11.4669
如前	-11.467
淮上	-11.467
理㑹	-11.4671
半山	-11.4672
公始	-11.4673
心期	-11.4677
之以為	-11.4677
物而	-11.4678
攪	-11.4678
蜃	-11.4679
生生	-11.4679
忘機	-11.4683
兵法	-11.4686
紛華	-11.4686
當代	-11.4686
而難	-11.4686
拂衣	-11.4686
飽食	-11.4687
軍事	-11.4687
還自	-11.4688
團團	-11.4691
斯堂	-11.4692
本是	-11.4693
𨳩	-11.4694
碑銘	-11.4695
堙	-11.4696
次其韻	-11.4696
槍	-11.4697
穠	-11.4698
矯矯	-11.4698
月落	-11.47
若使	-11.47
秋冬	-11.47
麽	-11.4701
六藝	-11.4701
全體	-11.4704
田廬	-11.4704
三章	-11.4705
也知	-11.4705
皇子	-11.4706
僥	-11.4707
霓	-11.4707
東朝	-11.4708
所同	-11.4708
甚難	-11.4709
萬山	-11.471
名流	-11.4711
于天下	-11.4712
槀	-11.4713
象山	-11.4713
下視	-11.4713
則已	-11.4715
茟	-11.4716
尚其	-11.4716
郭氏	-11.4716
年月日	-11.4717
之勇	-11.4718
豎	-11.472
請曰	-11.4721
假守	-11.4722
而不可得	-11.4722
衢州	-11.4723
枯木	-11.4724
有司之	-11.4726
時政	-11.4727
民物	-11.4728
媪	-11.4728
張仲	-11.4728
更覺	-11.4728
既至	-11.4729
名儒	-11.4729
子文	-11.4729
徳意	-11.4729
作書	-11.473
無二	-11.4731
徐氏	-11.4731
莫知所	-11.4732
圻	-11.4733
西清	-11.4734
竹間	-11.4734
之明年	-11.4735
急務	-11.4737
不誣	-11.4738
頡	-11.4739
宗正	-11.474
龐	-11.474
菖蒲	-11.474
未艾	-11.4741
去後	-11.4741
半月	-11.4743
别無	-11.4744
北京	-11.4746
運判	-11.4747
申命	-11.4748
懐古	-11.4748
問津	-11.475
武侯	-11.4752
湫	-11.4755
工部侍郎	-11.4755
𣸪	-11.4757
儀禮	-11.4757
無成	-11.4757
筆削	-11.4757
者往往	-11.476
叅軍	-11.4761
名卿	-11.4762
殻	-11.4762
行臺	-11.4763
梭	-11.4763
亦能	-11.4763
清淨	-11.4764
立而	-11.4764
臣寮	-11.4764
詩後	-11.4765
佛老	-11.4765
而勿	-11.4767
重華	-11.4768
依韻和	-11.4769
賢才	-11.4769
吏之	-11.477
故為	-11.4772
觀察	-11.4773
聞奏	-11.4774
自取	-11.4774
狀元	-11.4774
以興	-11.4775
林壑	-11.4776
璘	-11.4777
上饒	-11.4778
而與之	-11.4779
叫	-11.478
優劣	-11.4783
為貴	-11.4786
勉强	-11.4787
新城	-11.479
關中	-11.4795
而亡	-11.4795
遺像	-11.4796
人語	-11.4796
至京師	-11.4797
漁舟	-11.4798
撩	-11.4799
矚	-11.4799
繙	-11.4799
瀹	-11.48
壟	-11.48
食其	-11.48
漱	-11.48
膾	-11.4802
過客	-11.4803
石壁	-11.4804
不休	-11.4804
如初	-11.4805
保其	-11.4805
忘憂	-11.4805
李杜	-11.4806
而興	-11.4806
詩中	-11.4806
致逺	-11.4807
深衣	-11.4808
敕具官某	-11.4809
為利	-11.4812
並行	-11.4814
増重	-11.4815
賢否	-11.4815
在彼	-11.4816
人共	-11.4817
闖	-11.4818
無因	-11.482
厖	-11.4821
月日	-11.4821
髙情	-11.4822
留客	-11.4824
魏闕	-11.4824
似聞	-11.4825
歸期	-11.4825
琴瑟	-11.4827
前調	-11.4827
尺牘	-11.4829
人之情	-11.483
憲府	-11.483
文士	-11.4831
期㑹	-11.4834
殿中	-11.4838
舜之	-11.4838
宣徽	-11.4839
馘	-11.4839
寒士	-11.4841
飛雪	-11.4841
相慶	-11.4841
青眼	-11.4842
察臣	-11.4842
一定	-11.4843
蒲萄	-11.4844
瀨	-11.4845
窮愁	-11.4847
黄公	-11.4848
口占	-11.485
地上	-11.485
弗克	-11.485
猥以	-11.4851
也或曰	-11.4853
冕旒	-11.4853
昊天	-11.4854
戎馬	-11.4854
隴西	-11.4855
之最	-11.4855
其善	-11.4855
木蘭	-11.4855
自我	-11.4856
矣吾	-11.4858
移書	-11.4859
元符	-11.4859
字說	-11.4861
埜	-11.4861
甍	-11.4861
都下	-11.4862
麝	-11.4862
管勾	-11.4862
士子	-11.4863
迁	-11.4863
㦲	-11.4863
矣公	-11.4863
攫	-11.4864
印綬	-11.4864
所致	-11.4865
有懷	-11.4866
曹公	-11.4866
茅茨	-11.4867
兩儀	-11.4868
未厭	-11.4868
八極	-11.4868
袖手	-11.4871
兼簡	-11.4871
扈從	-11.4872
白露	-11.4874
鞍馬	-11.4874
正言	-11.4875
莫測	-11.4877
未之有	-11.488
丙戌	-11.488
曰公	-11.4881
遼東	-11.4881
藍田	-11.4882
而莫之	-11.4882
之可也	-11.4882
自治	-11.4883
湔	-11.4884
不道	-11.4884
啞	-11.4884
往来	-11.4885
人莫	-11.4885
濛	-11.4886
嘗與	-11.4886
圖經	-11.4887
玉雪	-11.4888
松下	-11.4888
睂	-11.4888
農桑	-11.489
者宜	-11.4892
丘山	-11.4893
見在	-11.4893
皆出	-11.4893
炷	-11.4894
經緯	-11.4894
毫髮	-11.4895
四句	-11.4896
行實	-11.4898
不足為	-11.49
怛	-11.49
四朝	-11.4901
復作	-11.4902
淄	-11.4902
涌	-11.4903
動靜	-11.4903
閬	-11.4903
琅	-11.4905
年九月	-11.4906
儕	-11.4907
淇	-11.4907
者謂之	-11.4908
心自	-11.491
貴乎	-11.4911
參議	-11.4911
乃今	-11.4911
舟人	-11.4912
文忠公	-11.4914
入蜀	-11.4915
湘水	-11.4915
尭	-11.4916
祝融	-11.4916
封疆	-11.4917
師魯	-11.4918
萬鍾	-11.4918
舅姑	-11.4919
願為	-11.492
如夢	-11.492
白鳥	-11.492
絜	-11.4921
鄉之	-11.4922
漕司	-11.4922
天運	-11.4924
三生	-11.4925
法當	-11.4925
熄	-11.4926
琛	-11.4926
聊以	-11.4926
翡翠	-11.4927
綆	-11.4928
才能	-11.493
蹕	-11.4931
與同	-11.4933
遺墨	-11.4933
下逮	-11.4935
能致	-11.4935
不義	-11.4936
近於	-11.4936
永康	-11.4938
欲望聖慈	-11.4939
代謝	-11.4942
庶民	-11.4943
曁	-11.4943
得非	-11.4943
天馬	-11.4943
也及	-11.4944
名為	-11.4945
大丞相	-11.4946
怵	-11.4947
公羊	-11.4947
爲善	-11.4949
夫君	-11.4949
摩詰	-11.4951
老我	-11.4952
來此	-11.4953
有數	-11.4953
舉子	-11.4955
授受	-11.4957
宣撫使	-11.4957
悸	-11.4959
麻姑	-11.496
二十一	-11.4961
二萬	-11.4961
毉	-11.4964
心術	-11.4965
以實	-11.4967
袤	-11.4967
早賜	-11.4968
窈	-11.4968
誑	-11.4968
筐	-11.4969
饜	-11.4969
磨勘	-11.497
推而	-11.497
弓矢	-11.497
儒雅	-11.4971
斗牛	-11.4971
籃輿	-11.4972
館職	-11.4973
柱石	-11.4973
江梅	-11.4975
之族	-11.4975
之珍	-11.4977
莫道	-11.4977
木葉	-11.4978
不中	-11.4978
致知	-11.4979
百事	-11.498
風力	-11.498
其難	-11.4982
一子	-11.4982
若乃	-11.4984
市人	-11.4987
方欲	-11.4987
主於	-11.4987
豺狼	-11.4987
卜筮	-11.4989
慕之	-11.4991
文祭	-11.4992
本以	-11.4993
李太白	-11.4994
曰朕	-11.4994
甚至	-11.4994
諸方	-11.4995
有所未	-11.4997
使司	-11.4997
海道	-11.4997
數十人	-11.4998
衆所	-11.4999
入山	-11.5003
交遊	-11.5004
刑罰	-11.5004
筴	-11.5004
不次	-11.5004
具存	-11.5005
新命	-11.5007
噬	-11.5007
踣	-11.5009
元吉	-11.501
月十二日	-11.501
酴醿	-11.501
更生	-11.5011
備矣	-11.5011
建立	-11.5014
及見	-11.5014
齋銘	-11.5015
衿	-11.5015
歡喜	-11.5017
自唐	-11.5018
特降	-11.502
宣力	-11.502
雲臺	-11.502
不曾	-11.5021
髙樓	-11.5024
大邦	-11.5026
能無	-11.5028
湛然	-11.5029
惠州	-11.5029
所賜	-11.503
藜藿	-11.503
湜	-11.5032
用則	-11.5032
髩	-11.5032
雨暘	-11.5034
無狀	-11.5036
赤城	-11.5037
太倉	-11.5038
慟哭	-11.5038
綍	-11.504
西歸	-11.504
箕子	-11.5042
姦邪	-11.5042
府事	-11.5042
周孔	-11.5043
南華	-11.5045
不亡	-11.5045
偉人	-11.5048
濟濟	-11.5049
意也	-11.5051
空中	-11.5052
龍眠	-11.5052
賽	-11.5053
逡巡	-11.5053
善士	-11.5054
崗	-11.5055
樓觀	-11.5056
刁	-11.5056
南安	-11.5057
頼有	-11.5058
承流	-11.5059
年七月	-11.5059
自少	-11.506
三歲	-11.506
牢落	-11.5062
老樹	-11.5062
後丗	-11.5063
太山	-11.5064
無不可	-11.5064
願得	-11.5064
災異	-11.5066
萬丈	-11.5066
如見	-11.5067
卧病	-11.5067
是知	-11.5068
海南	-11.5069
鶴山	-11.5069
論者	-11.507
有立	-11.507
云亡	-11.5072
形勝	-11.5072
擿	-11.5074
乞致仕	-11.5074
不圖	-11.5074
精力	-11.5075
自樂	-11.5079
困窮	-11.508
自棄	-11.5084
曲盡	-11.5084
引年	-11.5084
之首	-11.5085
門墻	-11.5087
深藏	-11.5087
所好	-11.5088
塲屋	-11.5089
其四	-11.5089
朕意	-11.5092
越人	-11.5093
君子之道	-11.5094
九齡	-11.5094
轉輸	-11.5096
遂至	-11.5096
其妻	-11.5096
入海	-11.5098
揷	-11.5098
磴	-11.5099
甚大	-11.51
保甲	-11.51
知非	-11.5101
椘	-11.5101
虚心	-11.5102
項羽	-11.5104
度越	-11.5105
山之原	-11.5105
顔淵	-11.5107
既有	-11.511
未可以	-11.511
多是	-11.5111
仰視	-11.5111
為害	-11.5111
西臺	-11.5111
督府	-11.5112
好音	-11.5113
無一人	-11.5114
不俟	-11.5114
十有五	-11.5114
啼鳥	-11.5115
其詞	-11.5117
熈寜	-11.5117
禇	-11.5118
性也	-11.5118
彬彬	-11.5118
惡之	-11.5119
學士大夫	-11.5119
二事	-11.5119
兒子	-11.512
先祖	-11.5121
不辨	-11.5122
其德	-11.5122
臣近	-11.5122
而不言	-11.5122
城頭	-11.5124
歡呼	-11.5124
致君	-11.5127
士有	-11.5128
滁	-11.5129
時聞	-11.513
者也故	-11.513
亦猶	-11.5131
脩身	-11.5133
人心之	-11.5134
張侯	-11.5136
致此	-11.5139
陳州	-11.5139
去冬	-11.5139
之心而	-11.5139
觀書	-11.514
汩	-11.5141
一畨	-11.5142
高下	-11.5142
山西	-11.5142
以才	-11.5142
水仙	-11.5143
其賢	-11.5143
因此	-11.5144
神龍	-11.5144
荔枝	-11.5145
紐	-11.5145
唱和	-11.5146
躋攀	-11.5147
不撓	-11.515
而就	-11.515
莊周	-11.5151
老臣	-11.5152
忠獻	-11.5153
淮隂	-11.5155
止此	-11.5156
和糴	-11.5157
而思	-11.5157
既無	-11.5158
用度	-11.5159
必使	-11.516
死不	-11.5162
已試	-11.5163
羣公	-11.5164
双	-11.5164
未老	-11.5164
滓	-11.5165
昏昏	-11.5168
未遂	-11.5168
當作	-11.5168
天下之至	-11.517
忭	-11.5172
天所	-11.5172
我師	-11.5174
黄冠	-11.5175
素志	-11.5178
尺書	-11.5179
十八年	-11.518
濁酒	-11.518
棄官	-11.5181
清濁	-11.5182
淒	-11.5183
以疾卒	-11.5183
躊躇	-11.5184
宣布	-11.5185
數目	-11.5185
諸王	-11.5185
笙歌	-11.5187
前事	-11.5188
曽無	-11.519
聞有	-11.519
而東	-11.5191
猶恐	-11.5196
不時	-11.5196
沉沉	-11.5197
華表	-11.5197
著于	-11.5201
槽	-11.5203
竊恐	-11.5204
何獨	-11.5204
以儒	-11.5205
斸	-11.5207
自相	-11.5208
補外	-11.5208
古今之	-11.5209
戚戚	-11.521
率土	-11.5211
辛勤	-11.5211
新月	-11.5212
長吟	-11.5213
有識	-11.5213
雖小	-11.5214
臺省	-11.5215
徐公	-11.5216
催科	-11.5216
聖王	-11.5216
常以	-11.5218
明而	-11.5219
珉	-11.5222
有意於	-11.5223
種竹	-11.5223
之愚	-11.5225
將安	-11.5226
斧斤	-11.5227
哀矜	-11.5227
菁	-11.5227
四六	-11.523
京洛	-11.5232
六言	-11.5233
苟且	-11.5233
乎若	-11.5234
惟一	-11.5235
皇甫	-11.5236
仙去	-11.5236
真成	-11.5237
應接	-11.5239
汾陽	-11.524
入境	-11.524
氏封	-11.524
鏡中	-11.5242
堪笑	-11.5243
祭酒	-11.5243
𡨕	-11.5247
天髙	-11.5248
行已	-11.525
類此	-11.5251
廵檢	-11.5253
王府	-11.5253
誠之	-11.5253
子細	-11.5253
髙郵	-11.5253
何知	-11.5255
教以	-11.5255
范文正公	-11.5258
墨竹	-11.526
者無不	-11.5261
召見	-11.5261
猶以	-11.5262
亰	-11.5262
王家	-11.5264
皈	-11.5264
居人	-11.5265
配天	-11.5266
司馬光	-11.5266
璫	-11.5267
等閒	-11.5267
佛法	-11.5268
箠	-11.5268
陽城	-11.5269
歸歟	-11.527
榼	-11.5271
聞于	-11.5272
豈意	-11.5272
佳城	-11.5273
遺編	-11.5273
於理	-11.5274
嵩山	-11.5275
籲	-11.5275
諸父	-11.5278
以誠	-11.5278
同氣	-11.5278
於朝廷	-11.5279
臨安府	-11.5279
徙居	-11.528
執筆	-11.528
臣子之	-11.5281
蠢	-11.5283
而加	-11.5285
夢覺	-11.5285
忘歸	-11.5286
蠻夷	-11.5286
越王	-11.5286
一陽	-11.5286
墊	-11.5288
袵	-11.5289
未仕	-11.5289
所屬	-11.5292
格物	-11.5292
公之子	-11.5294
良可	-11.5296
樂善	-11.5303
已過	-11.5303
癸	-11.5304
嶂	-11.5304
三王	-11.5305
祠部	-11.5305
聖訓	-11.5305
再世	-11.5306
虎頭	-11.5307
易地	-11.5307
之所由	-11.5308
山髙	-11.5309
南枝	-11.531
鑪	-11.5311
原隰	-11.5313
聊自	-11.5313
膏肓	-11.5314
在目	-11.5314
書中	-11.5315
此物	-11.5316
昔時	-11.5317
以徳	-11.5317
無所用	-11.5318
復生	-11.5319
其前	-11.5323
伯恭	-11.5325
惟此	-11.5326
難知	-11.5327
余謂	-11.5327
徭	-11.5328
辭曰	-11.5328
為郎	-11.5329
予與	-11.5329
城北	-11.5329
君獨	-11.5331
王佐	-11.5331
幽獨	-11.5332
宼	-11.5333
再任	-11.5334
瑾	-11.5336
鉄	-11.5336
計其	-11.5336
見扵	-11.5338
年五月	-11.5338
賫	-11.5339
何暇	-11.5339
當是	-11.534
田疇	-11.5344
再造	-11.5344
玉立	-11.5345
㡬人	-11.5345
知言	-11.5345
學正	-11.5346
東林	-11.5346
所親	-11.5348
本來	-11.5349
氷霜	-11.535
郴	-11.5351
櫓	-11.5353
者在	-11.5353
也亦	-11.5354
元龍	-11.5355
隂隂	-11.5355
砭	-11.5356
只應	-11.5357
家風	-11.5357
花下	-11.5358
竒絶	-11.5358
已甚	-11.5358
駱	-11.5359
仁祖	-11.5359
尽	-11.536
陶令	-11.5361
無辜	-11.5361
之頃	-11.5361
樹立	-11.5362
祖師	-11.5363
世務	-11.5363
服勤	-11.5364
一千	-11.5365
尚友	-11.5368
雲煙	-11.5368
分司	-11.5371
正始	-11.5371
乃爾	-11.5372
獨無	-11.5372
予亦	-11.5372
送别	-11.5373
之䘮	-11.5374
清華	-11.5375
景徳	-11.5376
為最	-11.5377
同日	-11.5377
未死	-11.5377
隋唐	-11.5377
菩提	-11.5378
帥府	-11.5379
内史	-11.5379
駝	-11.5379
南極	-11.538
昔我	-11.538
囙	-11.5381
如一	-11.5382
切於	-11.5383
致之	-11.5383
為之序	-11.5383
之至也	-11.5384
肅肅	-11.5384
上聖	-11.5385
一代之	-11.5386
切切	-11.5388
月十九日	-11.5389
而明	-11.539
崑山	-11.539
便當	-11.5393
曰卿	-11.5393
禍亂	-11.5395
爲學	-11.5395
在朝廷	-11.5396
庶政	-11.5397
剸	-11.5398
當世之	-11.5398
吕公	-11.54
以文學	-11.5401
木落	-11.5402
矣臣	-11.5403
不辱	-11.5403
太府	-11.5403
踐履	-11.5403
朝廷以	-11.5404
昔賢	-11.5405
不進	-11.5405
公車	-11.5406
生者	-11.5406
獨能	-11.5406
卷十	-11.5409
杜子美	-11.5409
物有	-11.5409
之孝	-11.541
搔首	-11.5411
别墅	-11.5411
天下有	-11.5414
調度	-11.5415
錢唐	-11.5417
旬月	-11.5417
必待	-11.542
宣慰	-11.542
者可以	-11.542
切磋	-11.542
猝	-11.542
舉頭	-11.542
須知	-11.5421
以盡	-11.5423
民情	-11.5423
鈐轄	-11.5423
丰	-11.5424
塗炭	-11.5424
靈山	-11.5424
已是	-11.5424
詡	-11.5425
兒曹	-11.5425
臼	-11.5425
庭闈	-11.5426
仕至	-11.5426
嶮	-11.5426
義理之	-11.5427
駞	-11.5427
則不能	-11.5428
而歸之	-11.5428
也先生	-11.5428
名聞	-11.5428
之歡	-11.5429
穡	-11.543
感而	-11.5431
昭明	-11.5431
秦檜	-11.5431
河洛	-11.5432
三皇	-11.5432
差役	-11.5432
後漢書	-11.5432
其首	-11.5433
欲作	-11.5433
崛	-11.5434
t	-11.5435
="33"/>	-11.5435
<	-11.5435
篤實	-11.5437
事狀	-11.5437
月令	-11.544
亦惟	-11.544
封建	-11.5443
潞	-11.5444
餘光	-11.5444
倬	-11.5445
一縣	-11.5446
霾	-11.5447
與衆	-11.5447
詘	-11.5448
仰止	-11.5448
鴻鵠	-11.5448
一種	-11.545
不數	-11.545
經傳	-11.545
㮣	-11.5451
春深	-11.5452
同異	-11.5454
兩路	-11.5455
從人	-11.5455
不舉	-11.5456
萬死	-11.5457
大王	-11.5459
紫翠	-11.5462
清朝	-11.5462
言動	-11.5466
秋七月	-11.5467
連山	-11.5469
天光	-11.547
鑚	-11.547
之過也	-11.5471
嗅	-11.5471
以文章	-11.5471
刀筆	-11.5471
粘	-11.5472
安撫司	-11.5472
桒	-11.5473
不省	-11.5473
長風	-11.5474
驪	-11.5475
前驅	-11.5476
睢陽	-11.5477
得書	-11.5477
夀考	-11.5479
秉燭	-11.5479
世情	-11.5479
詎可	-11.5479
狀右臣	-11.5479
如雪	-11.548
天禄	-11.548
禮樂之	-11.5481
念昔	-11.5481
别來	-11.5485
海門	-11.5486
名公	-11.5486
乙巳	-11.5487
賢士大夫	-11.5487
好善	-11.5488
鴛	-11.5488
斚	-11.5489
驍	-11.5489
輈	-11.549
為吾	-11.5491
糊	-11.5491
緊	-11.5492
兢兢	-11.5492
顧瞻	-11.5497
少有	-11.5499
二十九	-11.55
不祥	-11.5501
各一	-11.5503
不可知	-11.5504
能文	-11.5505
旁觀	-11.5507
朕命	-11.5507
忘情	-11.5507
感歎	-11.5508
光祖	-11.5509
中臺	-11.5509
而況	-11.551
空虚	-11.5511
一丘	-11.5511
頹	-11.5511
為師	-11.5511
於君	-11.5512
農事	-11.5512
箔	-11.5512
祛	-11.5514
儒臣	-11.5515
朕方	-11.5515
牛馬	-11.5515
少壯	-11.5516
其要	-11.5516
少游	-11.5516
與道	-11.5517
學行	-11.5517
羅漢	-11.5517
有容	-11.5518
錢物	-11.5519
大本	-11.552
幸免	-11.552
神州	-11.5521
未獲	-11.5522
折衷	-11.5524
而仕	-11.5524
伏覩	-11.5525
後来	-11.5525
史臣	-11.5526
勇退	-11.5528
且喜	-11.5528
湖湘	-11.5529
異姓	-11.5529
西蜀	-11.5529
秋氣	-11.5531
魏晉	-11.5531
之死	-11.5532
鈆	-11.5533
野鶴	-11.5536
檢㑹	-11.5536
竪	-11.5536
蝴蝶	-11.5536
悉以	-11.5537
釜	-11.5537
試以	-11.5539
幘	-11.5539
嶺海	-11.5541
耆老	-11.5542
蕩蕩	-11.5544
畢竟	-11.5545
南面	-11.5546
謝賜	-11.5547
休休	-11.5548
遲暮	-11.5548
辱書	-11.5549
窶	-11.5551
真可	-11.5552
治中	-11.5553
爲政	-11.5553
咸陽	-11.5554
薄暮	-11.5554
綵衣	-11.5556
謐	-11.5556
法制	-11.5556
於詩	-11.5557
跛	-11.5558
又皆	-11.5558
復用	-11.5558
於後世	-11.5561
知事	-11.5561
而知之	-11.5562
禹貢	-11.5564
玉壺	-11.5565
者果	-11.5565
苦心	-11.5565
推擇	-11.5566
今有	-11.5567
立國	-11.5567
所畏	-11.557
之耳	-11.5573
拭	-11.5573
皆自	-11.5573
母子	-11.5573
請命	-11.5574
曹操	-11.5574
亦甚	-11.5578
閼	-11.5578
結廬	-11.5579
僅能	-11.5579
小吏	-11.5581
明光	-11.5583
夜分	-11.5583
泪	-11.5584
蒼顔	-11.5584
無所不至	-11.5585
春山	-11.5586
簡在	-11.5586
宣州	-11.5587
臣昨	-11.5588
對月	-11.5588
始皇	-11.5589
國初	-11.5591
其外	-11.5592
空自	-11.5592
教養	-11.5592
可量	-11.5594
禮者	-11.5594
奮發	-11.5594
既久	-11.5594
清浄	-11.5594
差知	-11.5595
雲錦	-11.5595
此篇	-11.5598
益隆	-11.5599
而不及	-11.5599
吾夫子	-11.56
舉其	-11.5602
有賢	-11.5603
施于	-11.5603
禮經	-11.5604
則爲	-11.5604
蜩	-11.5606
未用	-11.5607
過從	-11.5607
縣人	-11.561
招提	-11.561
而言曰	-11.5613
東京	-11.5616
義則	-11.5617
不致	-11.5617
闋	-11.5618
時見	-11.5621
西溪	-11.5621
治世	-11.5621
君子小人	-11.5622
北人	-11.5623
皆謂	-11.5625
提㸃刑獄	-11.5625
顛沛	-11.5626
彎	-11.5626
爍	-11.5627
神道碑	-11.5628
此何	-11.5629
七言絶句	-11.5629
薺	-11.5629
重寄	-11.563
有美	-11.563
無邊	-11.563
安期	-11.563
集本	-11.5631
佳客	-11.5634
市朝	-11.5635
可爲	-11.5635
逢時	-11.5636
金城	-11.5637
天顔	-11.5637
將歸	-11.5638
衡陽	-11.5638
危機	-11.5638
東郊	-11.5639
犬馬之	-11.564
也或	-11.5642
所乞	-11.5642
至于今	-11.5643
今天子	-11.5643
憸	-11.5644
數十萬	-11.5644
成都府	-11.5645
之别	-11.5645
盾	-11.5646
之秩	-11.5647
宜春	-11.5648
三間	-11.5648
楚州	-11.5648
騏驥	-11.5649
足為	-11.565
之奠	-11.565
為道	-11.5651
道原	-11.5651
上恩	-11.5653
惜之	-11.5654
漢魏	-11.5654
有曰	-11.5655
奕世	-11.5656
涕泣	-11.5657
常人	-11.5657
四曰	-11.5658
而得之	-11.5658
語録	-11.5659
去取	-11.5659
錢糧	-11.5661
之子孫	-11.5661
為賢	-11.5662
乎然	-11.5662
佩服	-11.5663
賔主	-11.5664
全其	-11.5664
苴	-11.5667
徙倚	-11.5667
白酒	-11.5668
惻怛	-11.5669
簸	-11.567
喝	-11.5672
柵	-11.5672
簡而	-11.5672
佳氣	-11.5673
臉	-11.5674
提要	-11.5677
尚㓜	-11.5677
乞罷	-11.5678
所奏	-11.5678
實難	-11.5679
中央	-11.568
及門	-11.5681
届	-11.5681
者因	-11.5681
而喜	-11.5682
出没	-11.5683
此其所以	-11.5684
醉眠	-11.5684
十有七	-11.5685
歸夢	-11.5685
名利	-11.5686
賢哉	-11.5686
事多	-11.5686
苕溪	-11.5687
郡之	-11.5687
楊子曰	-11.5688
亦未嘗	-11.5688
震驚	-11.5689
餙	-11.569
終南	-11.5691
有差	-11.5692
列郡	-11.5693
㒷	-11.5693
去去	-11.5693
人誰	-11.5695
酪	-11.5695
山雲	-11.5695
六龍	-11.5696
皆當	-11.5696
秀州	-11.5697
戊	-11.5699
涕泗	-11.5699
慶暦	-11.5699
第八	-11.5702
臺諌	-11.5704
可期	-11.5704
為姦	-11.5705
燈前	-11.5705
思君	-11.5705
矣且	-11.5706
忠良	-11.5707
無酒	-11.5709
獎	-11.571
犬馬	-11.571
萬化	-11.571
司業	-11.5711
至於此	-11.5711
舊典	-11.5712
未有以	-11.5712
訪問	-11.5713
州團練使	-11.5713
要在	-11.5714
欤	-11.5715
顥	-11.5715
離合	-11.5716
世祖皇帝	-11.5716
百嵗	-11.5717
行且	-11.5717
遺音	-11.5718
生辰	-11.5718
几席	-11.5719
為多	-11.5721
余以	-11.5722
在家	-11.5722
禮文	-11.5722
遣興	-11.5723
黄菊	-11.5725
諸書	-11.5725
莫笑	-11.5727
頭白	-11.5728
之扵	-11.5728
之為人	-11.5729
不淺	-11.573
退食	-11.5733
邠	-11.5733
而還	-11.5733
之意而	-11.5734
紀昀	-11.5736
餘子	-11.5737
其俗	-11.5738
隗	-11.5738
未曽	-11.574
卜築	-11.574
婚姻	-11.574
字伯	-11.5741
炯	-11.5741
歸時	-11.5741
加於	-11.5742
未逺	-11.5742
臣言	-11.5742
與語	-11.5742
食肉	-11.5745
欲得	-11.5746
此翁	-11.5747
二章	-11.5747
注曰	-11.5747
山深	-11.5748
無術	-11.5748
法言	-11.5749
對客	-11.5749
者既	-11.575
一死	-11.5753
無語	-11.5755
記得	-11.5756
孫士毅總校官	-11.5759
以承	-11.5759
陸錫熊	-11.5759
職官	-11.576
諱某	-11.576
僅有	-11.5761
以重	-11.5762
艘	-11.5763
酬酢	-11.5763
婺源	-11.5767
山谷詩	-11.5767
有幾	-11.5768
篤於	-11.5768
臣某言	-11.5768
苟有	-11.577
報恩	-11.577
其室	-11.5772
矣然則	-11.5772
翠竹	-11.5774
冰雪	-11.5774
又明年	-11.5774
細故	-11.5775
耶抑	-11.5775
人民	-11.5775
中統	-11.5777
宜乎	-11.5779
厥有	-11.5779
其勞	-11.5781
眷言	-11.5782
然後能	-11.5783
治國	-11.5783
嬰兒	-11.5784
胃	-11.5785
狼狽	-11.5787
而某	-11.5789
江夏	-11.5789
涴	-11.5789
早世	-11.579
樾	-11.579
乎抑	-11.5791
仁聖	-11.5791
滿庭	-11.5792
異也	-11.5792
稱善	-11.5793
絲竹	-11.5793
忠定	-11.5794
應天	-11.5795
義士	-11.5795
下詔	-11.5798
若干卷	-11.5799
僕射	-11.58
師曰	-11.58
機㑹	-11.58
家書	-11.58
江隂	-11.5801
鷙	-11.5803
洮	-11.5804
近古	-11.5805
剝	-11.5805
治家	-11.5806
歸自	-11.5806
州觀察使	-11.5806
相聚	-11.5807
柑	-11.5807
君命	-11.5807
亦巳	-11.5808
而已哉	-11.5812
瀟洒	-11.5812
出城	-11.5812
佳節	-11.5813
不回	-11.5813
雅志	-11.5814
欲問	-11.5815
向者	-11.5816
明明	-11.5818
語及	-11.5822
龍興	-11.5825
祫	-11.5829
光禄大夫	-11.583
睫	-11.583
劃	-11.583
重以	-11.583
夢想	-11.5831
來訪	-11.5832
雲龍	-11.5832
皁	-11.5832
圮	-11.5832
矣然而	-11.5833
俄而	-11.5833
紹興府	-11.5834
有壬	-11.5834
徳業	-11.5834
諸弟	-11.5834
念我	-11.5835
無子	-11.5836
兩人	-11.5837
自稱	-11.5837
金銀	-11.5838
出此	-11.5838
君親	-11.5838
明命	-11.5841
舸	-11.5841
其治	-11.5841
能幾	-11.5841
茅簷	-11.5841
凭	-11.5842
鑱	-11.5843
盡忠	-11.5843
除書	-11.5845
更欲	-11.5848
飛騰	-11.5851
攻之	-11.5852
正如	-11.5852
卓犖	-11.5854
其孫	-11.5855
堂中	-11.5856
投閒	-11.5859
吾欲	-11.5859
將見	-11.586
荆門	-11.586
真是	-11.5861
不顯	-11.5861
計之	-11.5861
由是而	-11.5862
假借	-11.5863
武臣	-11.5864
月華	-11.5864
是歲	-11.5865
先生文集	-11.5865
傳燈録	-11.5866
寒梅	-11.5866
誰是	-11.5872
囬首	-11.5873
爲君	-11.5873
千五百	-11.5873
大夫士	-11.5874
那可	-11.5875
畸	-11.5875
晟	-11.5876
弥	-11.5876
猶堪	-11.5876
本縣	-11.5877
見訪	-11.5877
而後可	-11.5878
以還	-11.5878
臨之	-11.5878
饑寒	-11.5878
嫗	-11.5879
渌	-11.5879
綦	-11.5879
鄉校	-11.5879
凂	-11.588
益深	-11.5882
記其	-11.5883
避世	-11.5883
而後知	-11.5883
何患	-11.5883
直欲	-11.5884
永懐	-11.5886
念之	-11.5887
所立	-11.5889
於彼	-11.5892
巳有	-11.5892
天真	-11.5895
復出	-11.5895
廕	-11.5896
揉	-11.5898
諂	-11.5899
且將	-11.5899
勾當	-11.5901
未究	-11.5901
乃命	-11.5901
之効	-11.5901
靈光	-11.5901
窮達	-11.5901
其所謂	-11.5901
鼓吹	-11.5901
莓苔	-11.5902
雜著	-11.5902
不悟	-11.5902
無形	-11.5902
唐末	-11.5902
文維	-11.5902
深慮	-11.5903
已無	-11.5903
天縱	-11.5903
書堂	-11.5904
只得	-11.5904
得其所	-11.5904
僚屬	-11.5905
忽有	-11.5905
之誤	-11.5906
世居	-11.5906
皤	-11.5907
父祖	-11.5908
封章	-11.591
勿復	-11.5911
籬落	-11.5911
緡錢	-11.5912
漢武帝	-11.5912
之所存	-11.5913
風憲	-11.5913
嗣子	-11.5915
妙處	-11.5915
中興之	-11.5915
報政	-11.5917
齋居	-11.5917
甚詳	-11.5918
望於	-11.5918
不管	-11.5919
南嶽	-11.592
從事於	-11.592
送趙	-11.5921
彌縫	-11.5921
䜟	-11.5922
亂離	-11.5924
長淮	-11.5924
題云	-11.5924
之所以為	-11.5924
儒家	-11.5925
矛	-11.5926
者誠	-11.5926
曰予	-11.5928
二州	-11.5929
被命	-11.5929
與吾	-11.5931
歌聲	-11.5932
繩墨	-11.5933
也歟	-11.5934
止是	-11.5934
焉是	-11.5935
可言	-11.5935
瑶池	-11.5936
中立	-11.5937
要須	-11.5938
長驅	-11.5939
不服	-11.5939
會稽	-11.5939
諍	-11.594
花飛	-11.5941
愁絶	-11.5941
幽谷	-11.5942
誰其	-11.5945
廣漢	-11.5945
長於	-11.5945
砥柱	-11.5945
峡	-11.5947
荒政	-11.5948
繼以	-11.5949
西路	-11.5949
精㣲	-11.5949
晡	-11.595
姝	-11.595
水石	-11.5951
善頌	-11.5951
谷口	-11.5951
豸	-11.5951
一員	-11.5953
初度	-11.5954
舉手	-11.5954
寂然	-11.5955
書與	-11.5957
千載之	-11.5959
彈冠	-11.5959
政成	-11.5959
百物	-11.5959
朔方	-11.5961
窮途	-11.5961
舊徳	-11.5962
非若	-11.5963
吏治	-11.5963
不敢辭	-11.5964
敬夫	-11.5965
小試	-11.5967
出也	-11.5968
畬	-11.5968
竊意	-11.5969
山川之	-11.5969
大梁	-11.597
凋零	-11.5971
從教	-11.5971
風烟	-11.5974
求仁	-11.5975
蔕	-11.5975
善也	-11.5975
㐫	-11.5976
恩意	-11.5978
何如哉	-11.598
塵世	-11.598
之績	-11.5983
執事者	-11.5984
鄉先生	-11.5985
媮	-11.5987
甚重	-11.5988
定州	-11.5989
師表	-11.5989
幸甚幸甚	-11.5989
公請	-11.5992
亭上	-11.5992
未信	-11.5993
驊騮	-11.5996
沫	-11.5997
朕心	-11.5998
然哉	-11.5998
豐城	-11.6
衆人之	-11.6
君能	-11.6001
混一	-11.6002
公至	-11.6003
相憶	-11.6003
河西	-11.6004
吾親	-11.6004
无咎	-11.6004
衰遲	-11.6006
經界	-11.6008
之用心	-11.6009
一去	-11.601
此本	-11.601
于下	-11.601
於義	-11.601
癘	-11.6012
伏䝉	-11.6012
因成	-11.6012
謠	-11.6017
悄	-11.6018
澈	-11.6018
綾	-11.6019
彈壓	-11.602
淳化	-11.6021
近聞	-11.6022
禱雨	-11.6022
湯沐	-11.6023
坼	-11.6023
元勲	-11.6023
河内	-11.6024
棄捐	-11.6024
鹿鳴	-11.6024
已多	-11.6025
也葢	-11.6026
十倍	-11.6026
英才	-11.6027
盧仝	-11.6027
勺	-11.6027
只合	-11.6029
示余	-11.6029
爲此	-11.6031
文雅	-11.6031
生前	-11.6032
兩日	-11.6032
公又	-11.6032
請於	-11.6033
道術	-11.6033
嫓	-11.6036
代回	-11.6036
國子博士	-11.6037
五老	-11.6038
蜀之	-11.6039
燕趙	-11.604
褊	-11.604
終不能	-11.6041
計者	-11.6041
繫辭	-11.6041
縝	-11.6042
今昔	-11.6042
良臣	-11.6043
闐	-11.6043
萹	-11.6044
出世	-11.6046
筮仕	-11.6047
作過	-11.6048
曰非	-11.6048
謂我	-11.605
兵士	-11.605
劇談	-11.6052
庸人	-11.6052
三輔	-11.6052
教諭	-11.6053
歸耕	-11.6053
瞳	-11.6054
逺邇	-11.6054
以兵	-11.6055
要使	-11.6058
尊卑	-11.6059
恐其	-11.6059
苦寒	-11.6061
轉運判官	-11.6061
徑山	-11.6061
賢士	-11.6062
懵	-11.6063
瀬	-11.6067
毬	-11.6068
狙	-11.6069
韭	-11.6069
入對	-11.6069
飲水	-11.607
萬幾	-11.6072
河流	-11.6072
中謝伏念臣	-11.6072
緑野	-11.6072
林氏	-11.6072
乞身	-11.6072
一致	-11.6075
班班	-11.6078
巫山	-11.6081
為記	-11.6082
拜賜	-11.6084
老死	-11.6085
兵部侍郎	-11.6085
造朝	-11.6086
此盖	-11.6088
見稱	-11.609
外家	-11.609
子姪	-11.609
觜	-11.6092
臣不勝	-11.6095
相違	-11.6096
將何以	-11.6096
日已	-11.6097
所寓	-11.6099
百餘人	-11.61
不凡	-11.61
也銘曰	-11.6102
潁州	-11.6102
丁巳	-11.6103
鐘鼓	-11.6104
清時	-11.6107
酌酒	-11.6108
以從	-11.6108
百度	-11.6109
太常少卿	-11.611
秦州	-11.611
其視	-11.6111
太過	-11.6112
為客	-11.6112
嵬	-11.6113
焉今	-11.6115
知幾	-11.6115
禮畢	-11.6116
田間	-11.6117
相得	-11.6118
方是時	-11.6119
教育	-11.6122
州里	-11.6124
為二	-11.6124
之富	-11.6125
前古	-11.6125
端居	-11.6129
筆下	-11.613
一統	-11.613
微言	-11.6131
至有	-11.6132
鷓鴣	-11.6135
尚饗祭	-11.6135
衰殘	-11.6135
秦之	-11.6136
獨存	-11.6136
自省	-11.6136
徳宗	-11.6137
蜿蜒	-11.6137
詩情	-11.6138
菰	-11.6138
免於	-11.6138
太中大夫	-11.6138
伏奉	-11.6138
進秩	-11.6139
諸佛	-11.6139
改過	-11.6139
適意	-11.614
載籍	-11.6142
更新	-11.6144
一徑	-11.6144
端午	-11.6145
可樂	-11.6147
萬變	-11.6147
昭穆	-11.6147
終老	-11.6149
稱道	-11.6149
者尚	-11.6149
然臣	-11.6151
納之	-11.6152
求治	-11.6153
徳澤	-11.6156
磷	-11.6156
緫管	-11.6156
防秋	-11.6158
竟以	-11.6158
緹	-11.6159
重建	-11.616
先卒	-11.616
奕奕	-11.616
舉酒	-11.6161
尙	-11.6161
無適	-11.6161
自勉	-11.6162
望雲	-11.6162
拚	-11.6163
出家	-11.6164
悲風	-11.6164
皇恐	-11.6165
奉先	-11.6165
答曰	-11.6165
好語	-11.6165
心力	-11.6165
氣清	-11.6168
萬乗	-11.6168
不登	-11.6172
秦王	-11.6173
二篇	-11.6173
口號	-11.6176
神氣	-11.6176
安排	-11.6177
請銘	-11.6177
采石	-11.6179
忘年	-11.6181
不停	-11.6181
永州	-11.6181
蓋以	-11.6182
慈母	-11.6183
必自	-11.6183
明哲	-11.6184
有疾	-11.6184
長適	-11.6185
之秋	-11.6186
大年	-11.6186
甚髙	-11.6187
义	-11.6187
宗祀	-11.6187
有佳	-11.6187
綘	-11.6188
身外	-11.6189
天之所	-11.619
少安	-11.6191
益勵	-11.6191
醉裏	-11.6192
何苦	-11.6194
照人	-11.6194
父母之	-11.6194
崇仁	-11.6196
彼其	-11.6196
行止	-11.6197
文定	-11.6199
哭之	-11.6201
月二十八日	-11.6201
不茍	-11.6202
冬日	-11.6203
芟	-11.6204
官事	-11.6204
立志	-11.6206
也耶	-11.6206
之色	-11.6206
瘡痍	-11.6206
黙黙	-11.6208
嘗言	-11.6208
烏乎	-11.6209
治體	-11.6212
抗章	-11.6215
涪	-11.6216
乃翁	-11.6217
宿衛	-11.6217
復舊	-11.6218
從古	-11.6219
自欺	-11.6219
不同而	-11.6219
青城	-11.6219
一辭	-11.622
興元	-11.622
既以	-11.6222
所思	-11.6222
生物	-11.6223
骸	-11.6225
籜	-11.6226
乞與	-11.6226
楚王	-11.6227
哉雖然	-11.6229
教也	-11.6231
申錫	-11.6232
傳道	-11.6233
雅意	-11.6236
有足	-11.6237
州軍州事	-11.6239
啓伏審	-11.624
何勞	-11.624
今見	-11.6246
億萬	-11.6247
亂山	-11.6247
煙雲	-11.6248
雪山	-11.6249
縣學	-11.6249
尚書郎	-11.6249
哦詩	-11.625
宫殿	-11.6251
外有	-11.6252
之亡	-11.6253
文林郎	-11.6253
愷悌	-11.6254
昩	-11.6255
成湯	-11.6255
深居	-11.6256
撿	-11.6256
蜕	-11.6257
正字	-11.6257
禊	-11.6258
伐木	-11.6262
注意	-11.6262
衡州	-11.6263
使知	-11.6264
體國	-11.6264
僅得	-11.6264
臣竊以	-11.6265
節文	-11.6268
晉人	-11.6268
西都	-11.627
中書令	-11.6271
廢而	-11.6274
則所謂	-11.6275
東坡先生	-11.6275
屈伸	-11.6276
其處	-11.6276
處州	-11.6276
未立	-11.6277
軍節度	-11.6278
吟哦	-11.6279
所臨	-11.6279
橙	-11.6279
犇	-11.628
劬勞	-11.6281
豢	-11.6281
化工	-11.6281
何限	-11.6281
袒	-11.6282
樂其	-11.6282
出竒	-11.6283
君詩	-11.6284
於鄉	-11.6286
必行	-11.6287
而去之	-11.6288
汝州	-11.6288
太祖皇帝	-11.6289
為文章	-11.629
縱有	-11.629
蓋嘗	-11.629
者率	-11.6292
偉哉	-11.6292
厥職	-11.6293
洗心	-11.6294
失於	-11.6294
舅氏	-11.6295
願君	-11.6296
方略	-11.6297
之嘆	-11.6298
相仍	-11.6298
經費	-11.6301
一色	-11.6303
通議大夫	-11.6304
之養	-11.6305
之時也	-11.6305
幷	-11.6306
爲言	-11.6306
賢於	-11.6308
自代	-11.6308
并州	-11.631
子真	-11.6311
海宇	-11.6311
異哉	-11.6312
中庭	-11.6312
依歸	-11.6313
何待	-11.6314
所舉	-11.6314
不救	-11.6314
智力	-11.6315
名言	-11.6315
營田	-11.6316
居仁	-11.6316
但得	-11.6317
何足道	-11.6319
后山	-11.6321
急雨	-11.6322
山堂	-11.6322
飛雲	-11.6323
方叔	-11.6323
怪石	-11.6324
篚	-11.6324
王命	-11.6325
一盃	-11.6326
宸翰	-11.6328
矯首	-11.6329
纎悉	-11.6329
比丘	-11.6331
人耳	-11.6331
身心	-11.6331
典章	-11.6332
仙家	-11.6334
不經	-11.6334
嗟嗟	-11.6334
滿目	-11.6334
斷腸	-11.6335
次公曰	-11.6336
民社	-11.6337
蟠桃	-11.6338
大任	-11.6338
廷臣	-11.6338
今歲	-11.6339
嘉之	-11.6339
東風吹	-11.6344
士友	-11.6348
是書	-11.6349
嵗在	-11.6349
先志	-11.6349
氣味	-11.635
成文	-11.6351
入室	-11.6351
選擇	-11.6352
婦女	-11.6353
必無	-11.6354
世味	-11.6354
怜	-11.6354
鳯翔	-11.6354
楸	-11.6354
恍然	-11.6355
可復	-11.6356
三者	-11.6357
薑	-11.6357
貧富	-11.6358
塵外	-11.6359
閑居	-11.6361
兼知	-11.6361
横斜	-11.6364
但當	-11.6365
乎且	-11.6368
望日	-11.6369
不徒	-11.6369
秋八月	-11.6372
經云	-11.6373
衆皆	-11.6373
許以	-11.6374
廽	-11.6376
球	-11.6377
槳	-11.6379
杳杳	-11.6381
紫薇	-11.6381
胸次	-11.6381
羽儀	-11.6384
將至	-11.6384
二親	-11.6385
陳平	-11.6385
上馬	-11.6386
夷齊	-11.6386
無雙	-11.6387
楊墨	-11.6388
不减	-11.6389
盤桓	-11.639
寵數	-11.639
門戸	-11.6392
母儀	-11.6392
不好	-11.6393
於文	-11.6393
女二人	-11.6393
郎君	-11.6394
諸山	-11.6395
與張	-11.6395
原本	-11.6396
玉川	-11.6396
心之所	-11.6397
豈為	-11.6398
平湖	-11.6398
書問	-11.6398
酧	-11.64
富民	-11.6401
謌	-11.6401
皇考	-11.6402
蒲團	-11.6403
和州	-11.6403
民兵	-11.6403
清新	-11.6403
達於	-11.6404
山光	-11.6405
涇原	-11.6405
造物者	-11.6405
十餘萬	-11.6405
直秘閣	-11.6406
告以	-11.6408
三江	-11.6408
雲外	-11.6409
人之心	-11.641
儒宗	-11.6411
癸巳	-11.6411
之儲	-11.6413
而盡	-11.6416
新春	-11.6417
頻年	-11.6417
坐上	-11.6418
不得以	-11.6419
臣請	-11.642
因而	-11.6422
吾兄	-11.6423
一紙	-11.6424
與此	-11.6425
未然	-11.6426
尚幼	-11.6427
酲	-11.6427
皐	-11.6427
嘔	-11.6427
緋	-11.6428
拭目	-11.643
擊壤	-11.643
所從	-11.6431
三聖	-11.6432
書于	-11.6435
省察	-11.6436
一國	-11.6437
潤州	-11.6438
詩翁	-11.6438
草茅	-11.644
有日	-11.6441
和買	-11.6443
上皇	-11.6443
袴	-11.6444
之優	-11.6444
流泉	-11.6444
㡬年	-11.6445
喜聞	-11.6446
司封	-11.6447
儋	-11.6449
車騎	-11.6449
不敬	-11.6449
堊	-11.645
程公	-11.6451
尅	-11.6451
㓙	-11.6452
禁止	-11.6453
蹋	-11.6453
令君	-11.6455
兩山	-11.6458
直方	-11.6459
公歸	-11.646
交相	-11.646
解衣	-11.646
羲和	-11.6461
月上	-11.6462
而未嘗	-11.6465
鄆	-11.6466
月二十五日	-11.6467
有物	-11.6469
而後能	-11.647
二先生	-11.647
少傅	-11.647
瞿	-11.6471
寄書	-11.6472
麋	-11.6472
荼	-11.6473
吾嘗	-11.6473
所建	-11.6473
蒼翠	-11.6476
陁	-11.6476
春江	-11.6477
白鹿	-11.6478
九泉	-11.6478
依稀	-11.6478
九成	-11.648
盖自	-11.648
糝	-11.648
固自	-11.6481
徒有	-11.6481
如昨	-11.6481
子敬	-11.6481
遭遇	-11.6481
河南府	-11.6483
孟子之	-11.6483
以保	-11.6484
我知	-11.6484
水落	-11.6484
深念	-11.6487
十有三	-11.6487
永安	-11.6487
上心	-11.6488
多艱	-11.6488
與諸	-11.649
通籍	-11.649
三歎	-11.649
其衆	-11.6491
曏	-11.6492
書成	-11.6492
文思	-11.6493
句法	-11.6493
為仁	-11.6493
行雲	-11.6493
衆口	-11.6494
隨風	-11.6496
天地萬物	-11.6497
用功	-11.6497
之遊	-11.6497
寤寐	-11.6498
糞	-11.6498
湏臾	-11.6501
絀	-11.6501
芭蕉	-11.6502
四十九	-11.6503
月出	-11.6504
對越	-11.6505
第九	-11.6505
一堂	-11.6505
南望	-11.6507
月二十六日	-11.6508
恭人	-11.6509
十方	-11.651
余與	-11.6511
海中	-11.6512
此花	-11.6514
錫命	-11.6515
無何	-11.6515
之薦	-11.6515
何疑	-11.6516
兩制	-11.6516
明府	-11.6516
六十年	-11.6517
傳誦	-11.6518
巴蜀	-11.6518
正統	-11.6518
年三十	-11.6519
兩地	-11.6521
尺素	-11.6521
小小	-11.6521
煇	-11.6522
鶉	-11.6523
報之	-11.6524
好風	-11.6524
天池	-11.6524
古書	-11.6525
耨	-11.6525
弗能	-11.6527
牧守	-11.6527
涙	-11.6528
朔風	-11.6528
龍光	-11.6528
少長	-11.6529
一箇	-11.653
獨酌	-11.653
循循	-11.6531
無難	-11.6531
制勑某	-11.6531
韓氏	-11.6532
嬋娟	-11.6532
藜杖	-11.6532
下土	-11.6533
况今	-11.6534
登庸	-11.6536
大風	-11.6537
宰輔	-11.6537
大農	-11.6539
掞	-11.6539
而志	-11.6543
之義也	-11.6545
文翁	-11.6546
不急	-11.6546
篇章	-11.6546
甿	-11.6546
邏	-11.6547
撮	-11.6547
批答	-11.6547
泌	-11.6548
然皆	-11.6548
控扼	-11.6549
金鑾	-11.655
惨	-11.655
受賜	-11.6551
珂	-11.6551
到家	-11.6551
匕	-11.6551
南都	-11.6551
某以	-11.6552
舉人	-11.6552
假以	-11.6553
貂裘	-11.6554
萬木	-11.6554
師古	-11.6554
十有八	-11.6555
不自知	-11.6557
廟碑	-11.6558
不敢自	-11.656
去留	-11.6561
都㑹	-11.6566
後序	-11.6568
和而	-11.6569
稱觴	-11.6569
累世	-11.6569
一意	-11.6569
七夕	-11.6569
何意	-11.657
先事	-11.6571
哲宗	-11.6571
馬牛	-11.6572
瑛	-11.6572
醲	-11.6573
必為	-11.6573
示人	-11.6574
太平興國	-11.6574
子野	-11.6575
絶塵	-11.6577
股肱之	-11.6577
如春	-11.6577
皺	-11.6577
之歌	-11.6577
餘皆	-11.6578
髙門	-11.6578
之陋	-11.6579
㾗	-11.6579
舊日	-11.658
西郊	-11.658
條具	-11.6582
逢辰	-11.6582
惟新	-11.6582
此之謂	-11.6584
之所及	-11.6584
雖甚	-11.6585
世俗之	-11.6585
翬	-11.6587
奉和	-11.6588
仁孝	-11.6588
應變	-11.6588
祠之	-11.6589
已具	-11.6589
若以	-11.6591
與否	-11.6593
㐲	-11.6594
手持	-11.6594
趋	-11.6595
相近	-11.6595
典故	-11.6597
次韻王	-11.6597
沅	-11.6599
性命之	-11.6601
起復	-11.6602
艱危	-11.6603
導之	-11.6603
風節	-11.6604
鏡湖	-11.6605
又無	-11.6606
王父	-11.6606
蚌	-11.6606
表章	-11.6606
加之	-11.6606
往者	-11.6609
器識	-11.6612
神聖	-11.6612
英靈	-11.6612
重任	-11.6614
佛書	-11.6614
唯恐	-11.6614
天工	-11.6615
所共	-11.6617
一鳴	-11.6619
固然	-11.6621
囏	-11.6622
無方	-11.6623
况有	-11.6623
盛哉	-11.6624
上殿	-11.6624
嵇	-11.6627
正心	-11.6628
鏁	-11.6628
雨晴	-11.6629
誰道	-11.663
下流	-11.663
外任	-11.6631
白金	-11.6631
楊州	-11.6632
不能為	-11.6632
其尤	-11.6633
餘姚	-11.6634
俛首	-11.6634
鱸魚	-11.6634
白蓮	-11.6636
花香	-11.6638
老境	-11.6638
扆	-11.6638
勉旃	-11.6638
不比	-11.6638
大禮	-11.6639
之勲	-11.6639
登極	-11.664
右丞相	-11.6642
能否	-11.6643
髙談	-11.6644
至理	-11.6646
金紫	-11.6646
雪花	-11.6646
蓋自	-11.6647
千樹	-11.6647
撝	-11.6647
三十三	-11.6648
而化	-11.6651
濯纓	-11.6651
荆襄	-11.6651
等謹案	-11.6651
每見	-11.6653
哀榮	-11.6654
高宗	-11.6654
山空	-11.6654
之盟	-11.6654
夜寒	-11.6656
宣撫司	-11.6657
晨昏	-11.6658
貳卿	-11.6659
可恃	-11.6659
肯為	-11.6659
衮衣	-11.666
一隅	-11.666
王仲	-11.6661
某謹	-11.6661
寵章	-11.6661
故知	-11.6661
和韻	-11.6662
之漸	-11.6664
今上	-11.6665
花間	-11.6666
楚辭	-11.6666
及諸	-11.6667
寧復	-11.6667
莫教	-11.6669
之言也	-11.6669
勝處	-11.6669
玉色	-11.667
郊原	-11.667
論功	-11.667
非謂	-11.6671
見今	-11.6671
三十五	-11.6671
昭文	-11.6672
而使之	-11.6673
睽	-11.6673
岑寂	-11.6674
而善	-11.6674
欲歸	-11.6675
猫	-11.6675
帝紀	-11.6675
澣	-11.6676
迤邐	-11.6676
恍惚	-11.6678
曰若	-11.6678
不及見	-11.6679
瞞	-11.6679
子猷	-11.668
秋江	-11.6681
莫知其	-11.6683
所安	-11.6683
誰肯	-11.6686
遂有	-11.6686
青氊	-11.6686
髙陽	-11.6686
帡幪	-11.6688
公方	-11.6688
實在	-11.669
皇上	-11.669
學者之	-11.669
頌聲	-11.6691
學於	-11.6692
鬢毛	-11.6692
毖	-11.6693
竹帛	-11.6695
五事	-11.6695
錙銖	-11.6696
激昻	-11.6696
史君	-11.6696
康寧	-11.6696
葑	-11.6696
么	-11.6698
不足道	-11.6699
軍士	-11.6699
以請	-11.6701
司法	-11.6702
易也	-11.6702
豈曰	-11.6703
義勇	-11.6704
問道	-11.6706
兩年	-11.6706
大兵	-11.6708
竹枝	-11.6708
肩輿	-11.6709
罪人	-11.6709
萬戸	-11.6709
奏云	-11.6711
爛漫	-11.6711
武備	-11.6715
壽考	-11.6716
竽	-11.6719
得君	-11.6719
齋先生	-11.6719
醢	-11.672
園中	-11.6721
偶得	-11.6721
願以	-11.6721
此句	-11.6722
抒	-11.6722
權貴	-11.6723
扳	-11.6724
屍	-11.6724
此帖	-11.6724
詮	-11.6726
玉女	-11.6726
近代	-11.6726
見前	-11.6727
蓬山	-11.6727
短檠	-11.6727
即時	-11.6728
百拜	-11.6728
八首	-11.6728
兩岸	-11.673
是否	-11.673
朕以	-11.673
興衰	-11.6731
應是	-11.6733
於此者	-11.6733
百氏	-11.6733
凡在	-11.6734
夏人	-11.6734
至徳	-11.6734
荆溪	-11.6735
堯之	-11.6735
范氏	-11.6735
殘雪	-11.6736
聖德	-11.6736
除授	-11.6739
之繁	-11.6739
進賢	-11.6739
山路	-11.6741
平王	-11.6741
千巖	-11.6741
頭角	-11.6741
嘗曰	-11.6742
宵旰	-11.6743
澹然	-11.6744
天下之勢	-11.6744
自新	-11.6744
上京	-11.6745
徐君	-11.6746
江月	-11.6746
衎	-11.6746
儗	-11.6747
手植	-11.6748
柘	-11.6749
制勝	-11.6749
積年	-11.6749
矣昔	-11.675
名園	-11.675
代人	-11.675
之奥	-11.675
莊嚴	-11.6751
正論	-11.6752
叅知政事	-11.6752
地勢	-11.6752
兩家	-11.6753
案牘	-11.6753
如流	-11.6753
接物	-11.6753
在躬	-11.6753
不精	-11.6754
僖公	-11.6754
夏五月	-11.6758
恭以	-11.6759
止之	-11.676
燕坐	-11.676
或言	-11.676
前山	-11.6765
金谷	-11.6767
無妄	-11.6767
考功	-11.6767
情性	-11.6767
夢到	-11.6768
羣仙	-11.677
為憂	-11.6771
乎雖然	-11.6772
豁然	-11.6772
利者	-11.6772
當宁	-11.6772
李廣	-11.6773
一絶	-11.6778
殆非	-11.6778
蒔	-11.6779
缸	-11.6779
不遂	-11.6779
見知	-11.6779
兵部尚書	-11.6779
但聞	-11.6784
薦士	-11.6784
人間世	-11.6785
成章	-11.6787
王謝	-11.6787
昔有	-11.6788
書傳	-11.6788
常情	-11.6788
未知所	-11.6789
釣臺	-11.6789
書懐	-11.679
某所	-11.6791
直須	-11.6792
可忘	-11.6795
杜氏	-11.6795
瘝	-11.6795
聖上	-11.6796
入仕	-11.6798
闚	-11.6798
喜怒哀樂	-11.6799
前書	-11.6799
固可	-11.68
螟	-11.68
艸	-11.68
親朋	-11.68
隄防	-11.68
爕	-11.6801
事至	-11.6802
次韻答	-11.6803
年豐	-11.6804
之廣	-11.6805
太宗皇帝	-11.6805
學詩	-11.6806
蔡京	-11.6807
次前韻	-11.6807
五百年	-11.6807
有得於	-11.6808
其半	-11.6808
數里	-11.6809
寰	-11.6809
致力	-11.6809
神農	-11.6809
入夢	-11.681
氣候	-11.681
醉後	-11.6811
兖	-11.6813
擊之	-11.6814
以忠	-11.6814
士大夫之	-11.6814
如飛	-11.6815
老於	-11.6816
厦	-11.6817
有益	-11.6817
事機	-11.6818
苦吟	-11.6818
佳士	-11.682
㳙	-11.6821
精爽	-11.6821
三國	-11.6823
痊	-11.6823
軍國	-11.6824
咈	-11.6825
隸	-11.6825
東臯	-11.6826
詬	-11.6826
禎	-11.6826
擺	-11.6827
忠簡	-11.6827
五星	-11.683
在後	-11.6831
青陽	-11.6832
虎狼	-11.6833
賢相	-11.6833
於神	-11.6833
人數	-11.6833
二十里	-11.6834
永豐	-11.6834
遺我	-11.6834
未解	-11.6835
此人	-11.6835
無以異	-11.6836
曾未	-11.6839
陽和	-11.6839
校書	-11.6841
勝事	-11.6841
之力也	-11.6841
前聞	-11.6842
咸有	-11.6842
一叚	-11.6843
竒偉	-11.6844
痼	-11.6845
委蛇	-11.6846
而西	-11.6847
敇	-11.6848
盡得	-11.6851
風來	-11.6851
虞舜	-11.6853
殺身	-11.6853
交代	-11.6854
咄咄	-11.6855
若能	-11.6856
欽哉	-11.6857
負薪	-11.6857
始識	-11.6859
直前	-11.6859
教誨	-11.6859
大姓	-11.6861
論薦	-11.6861
鴟夷	-11.6861
固嘗	-11.6863
寘之	-11.6863
世之人	-11.6863
神宗皇帝	-11.6864
未詳	-11.6865
為賦	-11.6865
不可廢	-11.6865
不復見	-11.6866
生還	-11.6867
裴度	-11.6868
道上	-11.6869
登進士第	-11.6869
清涼	-11.6869
掬	-11.687
夤縁	-11.6872
朕所	-11.6873
吾兒	-11.6874
隤	-11.6875
好問	-11.6875
正議大夫	-11.6876
東州	-11.6877
貽書	-11.6878
天柱	-11.6878
岷峨	-11.6879
意在	-11.688
菰蒲	-11.6881
陵谷	-11.6881
羡君	-11.6882
醉眼	-11.6883
固守	-11.6883
零陵	-11.6884
二物	-11.6884
次韻荅	-11.6884
代言	-11.6885
行客	-11.6886
謝曰	-11.6886
公詩	-11.6891
享年五十	-11.6892
俗子	-11.6893
荆楚	-11.6893
又不能	-11.6893
留侯	-11.6893
可人	-11.6893
寵靈	-11.6893
無傳	-11.6895
亦恐	-11.6895
峴山	-11.6896
何故	-11.6897
上蔡	-11.6899
爼豆	-11.69
之嫌	-11.69
埏	-11.6901
名位	-11.6901
睥睨	-11.6901
勳	-11.6902
不虚	-11.6904
彈琴	-11.6904
閴	-11.6905
范蠡	-11.6906
盛開	-11.6907
杜牧	-11.6907
焉用	-11.6908
又與	-11.6908
兵戈	-11.691
今吾	-11.691
不收	-11.6911
今雖	-11.6912
何地	-11.6913
不開	-11.6913
三千里	-11.6916
我無	-11.6916
命駕	-11.6917
三州	-11.6918
善則	-11.6918
亭下	-11.6918
遂得	-11.6919
凡百	-11.6919
千鈞	-11.6921
窮年	-11.6921
不昧	-11.6923
令臣	-11.6923
嘗觀	-11.6924
賦役	-11.6924
語也	-11.6926
大方	-11.6927
結茅	-11.6927
毫端	-11.6929
曄	-11.6929
州判官	-11.693
獠	-11.693
不得已而	-11.6931
今夜	-11.6931
晨興	-11.6933
曲肱	-11.6934
仕而	-11.6934
嚴州	-11.6937
震動	-11.694
尚矣	-11.6942
營營	-11.6942
歌詠	-11.6942
平甫	-11.6942
所重	-11.6943
勇於	-11.6945
邦家	-11.6946
那能	-11.6948
桐廬	-11.6949
士類	-11.695
疇咨	-11.6951
所歸	-11.6952
沆	-11.6953
饑饉	-11.6953
罷之	-11.6953
种	-11.6954
雷電	-11.6955
濓溪	-11.6957
之宗	-11.6958
工部尚書	-11.696
山泉	-11.6962
風寒	-11.6964
謀猷	-11.6965
徃来	-11.6965
貧民	-11.6966
所加	-11.6967
送行	-11.697
度牒	-11.6973
居處	-11.6973
欲與	-11.6974
䖏士	-11.6976
夷夏	-11.6976
祼	-11.6977
不預	-11.6977
行當	-11.6979
自見	-11.6979
家無	-11.6979
仁義禮智	-11.698
撻	-11.6981
將兵	-11.6981
𦕈	-11.6982
鑑湖	-11.6982
里閈	-11.6983
急難	-11.6984
霓裳	-11.6985
贛	-11.6985
娟娟	-11.6985
之罪也	-11.6986
七尺	-11.6986
亦如	-11.6986
爾來	-11.6986
垂楊	-11.6987
有嘉	-11.6987
襦	-11.6988
要路	-11.6988
肉食	-11.6989
釋然	-11.6989
得免	-11.6989
都尉	-11.699
周流	-11.6991
名勝	-11.6992
宣公	-11.6993
矣乃	-11.6994
亦在	-11.6995
所述	-11.6995
人使	-11.6996
賞心	-11.6997
也方	-11.6997
春陽	-11.6997
八尺	-11.6998
信其	-11.7
术	-11.7001
去官	-11.7001
忠勤	-11.7004
之苦	-11.7004
自期	-11.7004
去此	-11.7004
福禄	-11.7005
而可以	-11.7005
任子	-11.7006
宫闕	-11.7006
求予	-11.7007
美酒	-11.7008
螯	-11.7011
隂晴	-11.7011
避暑	-11.7012
無已	-11.7013
前身	-11.7013
鈿	-11.7015
九萬	-11.7015
節用	-11.7016
翰苑	-11.7016
自負	-11.7018
而動	-11.7018
弓手	-11.7018
外則	-11.7018
别去	-11.7019
無以自	-11.7019
帝所	-11.702
抵掌	-11.7021
于公	-11.7021
任其責	-11.7021
待其	-11.7021
百草	-11.7022
頭上	-11.7022
生民之	-11.7022
敢辭	-11.7023
治安	-11.7025
之容	-11.7026
不再	-11.7027
不令	-11.7027
刑名	-11.7028
物華	-11.7029
曽祖諱	-11.7029
華堂	-11.703
伋	-11.7032
刄	-11.7032
申明	-11.7032
爲文	-11.7033
今日之事	-11.7033
掛冠	-11.7035
殤	-11.7035
蠒	-11.7038
都無	-11.7039
玉泉	-11.7039
偶書	-11.704
使吾	-11.704
俎豆	-11.704
孰非	-11.704
清曉	-11.7041
春雲	-11.7041
焉得	-11.7042
雲南	-11.7042
新亭	-11.7043
不隨	-11.7043
大猷	-11.7045
三十餘年	-11.7045
未備	-11.7045
山石	-11.7045
交趾	-11.7047
東來	-11.7049
非聖人	-11.705
三百里	-11.7051
貼黄	-11.7052
狷	-11.7053
九卿	-11.7053
朱熹	-11.7054
衆多	-11.7055
有善	-11.7055
贈别	-11.7055
寛厚	-11.7055
吹簫	-11.7055
可憂	-11.7056
乃見	-11.7056
筞	-11.7058
事見	-11.7059
羶	-11.7059
其敢	-11.7059
六卿	-11.7061
壺中	-11.7062
丁卯	-11.7062
不擾	-11.7063
所撰	-11.7066
試之	-11.7066
文舉	-11.7068
村落	-11.7068
九人	-11.7068
氏子	-11.7069
文墨	-11.7069
瓊瑶	-11.7072
絶無	-11.7072
敢期	-11.7074
門庭	-11.7076
節婦	-11.7076
郷人	-11.7078
便安	-11.7079
終更	-11.7079
如神	-11.708
昧死	-11.708
彀	-11.7082
詳矣	-11.7083
而後可以	-11.7083
厚而	-11.7084
炫	-11.7084
當與	-11.7084
尤多	-11.7084
逗	-11.7087
森然	-11.7087
枰	-11.7087
春雪	-11.7088
七首	-11.7088
天日	-11.7088
建議	-11.7089
流民	-11.7089
百八十	-11.7089
對此	-11.7089
賜臣	-11.709
綿綿	-11.709
萬全	-11.709
之瑞	-11.709
猶自	-11.709
濛濛	-11.7091
良吏	-11.7091
至人	-11.7092
亡國	-11.7092
治命	-11.7094
千峯	-11.7094
留得	-11.7094
其友	-11.7095
吾之所	-11.7096
則無以	-11.7096
緝熈	-11.7096
讀者	-11.7098
君今	-11.7098
首領	-11.7099
未須	-11.71
明德	-11.7104
賴以	-11.7104
亦與	-11.7105
而銘之	-11.7106
禪院	-11.7107
琯	-11.7109
刻意	-11.7109
蒼崖	-11.7113
萬貫	-11.7113
視草	-11.7113
鹹	-11.7115
讌	-11.7117
正寢	-11.7117
諌官	-11.7117
之設	-11.7117
有不能	-11.712
豈宜	-11.7122
之邦	-11.7123
釋奠	-11.7123
櫻桃	-11.7124
文藝	-11.7124
之濵	-11.7126
吳氏	-11.7127
焉以	-11.7129
商周	-11.7129
靦	-11.7129
言歸	-11.713
王制	-11.7131
說者	-11.7131
之禄	-11.7132
俶	-11.7132
者少	-11.7132
於身	-11.7132
殘月	-11.7133
禳	-11.7134
徽宗	-11.7134
至如	-11.7135
傾心	-11.7135
近在	-11.7136
癸卯	-11.7136
之祠	-11.7136
雲深	-11.7137
萬錢	-11.7137
礎	-11.7138
疾速	-11.714
来者	-11.714
山海	-11.7141
方得	-11.7144
風騷	-11.7145
為天子	-11.7146
漢水	-11.7146
夜氣	-11.7147
承家	-11.7147
輔弼	-11.7149
外制	-11.7149
選舉	-11.715
孝治	-11.715
卿相	-11.7151
極言	-11.7151
左史	-11.7151
雲開	-11.7152
玉局	-11.7153
千官	-11.7154
談經	-11.7154
華夷	-11.7156
從君	-11.7156
遺逸	-11.7157
仲淹	-11.7159
白沙	-11.7159
未即	-11.716
萬言	-11.716
皇朝	-11.716
屏山	-11.7161
山之陽	-11.7162
於事	-11.7162
遅	-11.7162
保明	-11.7163
晩節	-11.7164
查	-11.7165
崆峒	-11.7165
指顧	-11.7166
我國家	-11.7166
鬪	-11.7166
清晨	-11.7168
且夫	-11.7169
苜蓿	-11.7171
以為然	-11.7171
養士	-11.7171
何補	-11.7171
清心	-11.7172
東軒	-11.7173
其役	-11.7173
西門	-11.7174
民俗	-11.7176
南仲	-11.7177
眷眷	-11.7178
民田	-11.7178
黄門	-11.7178
荻	-11.7179
隨意	-11.718
土人	-11.718
景文	-11.718
且有	-11.7181
可望	-11.7181
學焉	-11.7182
江都	-11.7182
天河	-11.7183
可作	-11.7183
祕書	-11.7183
勘㑹	-11.7184
欲報	-11.7185
油然	-11.7185
示以	-11.7185
笈	-11.7188
吾志	-11.7188
荆榛	-11.7188
賜環	-11.7189
但欲	-11.7189
理則	-11.719
未衰	-11.7191
二紀	-11.7191
檢討	-11.7192
則夫	-11.7193
后稷	-11.7194
金錢	-11.7194
根柢	-11.7194
二程	-11.7194
稗	-11.7195
經學	-11.7195
入京	-11.7195
愛此	-11.7195
何以報	-11.7196
在室	-11.7199
友愛	-11.7199
經制	-11.72
何傷	-11.72
民安	-11.7204
於此時	-11.7204
耳然	-11.7204
大丈夫	-11.7204
復得	-11.7205
金門	-11.7205
篤行	-11.7205
員外	-11.7206
取次	-11.7206
看雲	-11.7206
惕然	-11.7207
日光	-11.7207
省事	-11.7208
看詳	-11.721
薬	-11.7211
稷契	-11.7211
百日	-11.7211
大患	-11.7213
兩三	-11.7213
縱使	-11.7213
最多	-11.7214
未乾	-11.7215
出自	-11.7215
伶	-11.7215
恐有	-11.7216
平易	-11.7216
夘	-11.7216
覆載	-11.7217
昱	-11.7217
宗伯	-11.7217
蒼然	-11.7218
蚓	-11.7218
地中	-11.7218
甘㫖	-11.7219
約而	-11.722
封禪	-11.722
某再拜	-11.7221
幽尋	-11.7227
寒心	-11.7228
遺言	-11.7228
至重	-11.723
譔	-11.7231
天地之心	-11.7231
寢食	-11.7232
兀兀	-11.7233
落月	-11.7234
不得與	-11.7234
天成	-11.7234
厶	-11.7234
桂陽	-11.7235
人品	-11.7236
兹山	-11.7237
無所容	-11.7238
而趨	-11.7238
肱	-11.7239
師帥	-11.7239
未甞不	-11.7239
推誠	-11.724
轉運副使	-11.7241
千餘人	-11.7241
吹嘘	-11.7241
鞫	-11.7242
多有	-11.7242
厚意	-11.7243
江村	-11.7244
跌	-11.7245
其墓	-11.7245
藝文	-11.7245
大法	-11.7245
敢問	-11.7246
又豈	-11.7247
督責	-11.7248
不惡	-11.7248
快意	-11.7249
以旌	-11.7249
取友	-11.725
二十萬	-11.725
諸君子	-11.725
所鍾	-11.725
負郭	-11.7251
百歩	-11.7252
乃與	-11.7252
陸氏	-11.7253
未平	-11.7253
拱手	-11.7253
月二十九日	-11.7255
持身	-11.7255
手澤	-11.7256
自力	-11.7257
隨事	-11.7259
臺上	-11.7259
平生所	-11.7259
耆英	-11.726
擢用	-11.7261
異而	-11.7261
徽州	-11.7261
照眼	-11.7265
齊安	-11.7265
言責	-11.7267
神明之	-11.7267
抜	-11.7267
諸将	-11.7268
嬖	-11.7268
出為	-11.7271
傍人	-11.7271
欲往	-11.7272
彭蠡	-11.7272
詩韻	-11.7276
於一時	-11.7276
輿情	-11.7277
乃獨	-11.7277
靈臺	-11.7278
經畫	-11.7278
萬馬	-11.7278
囊中	-11.728
今宵	-11.7281
新居	-11.7282
則易	-11.7282
天壤	-11.7283
曲成	-11.7284
問君	-11.7284
以成其	-11.7285
㑹當	-11.7285
悃愊	-11.7286
之本也	-11.7287
白蘋	-11.7287
與汝	-11.7288
未嘗一日	-11.7289
建康府	-11.7289
官曹	-11.7291
嘗從	-11.7292
深逺	-11.7292
豈勝	-11.7292
况是	-11.7293
祠官	-11.7293
秋山	-11.7294
誰歟	-11.7294
糗	-11.7297
塍	-11.7297
誰得	-11.7297
送酒	-11.7298
畤	-11.7298
扵人	-11.7298
不習	-11.7298
棐	-11.7299
初見	-11.7299
廣厦	-11.7299
洄	-11.73
撚	-11.7301
户部侍郎	-11.7301
有德	-11.7301
壯心	-11.7301
六尺	-11.7302
公謂	-11.7302
其愚	-11.7303
孝謹	-11.7305
非一日	-11.7305
延州	-11.7305
道逺	-11.7305
半空	-11.7305
孤立	-11.7305
益知	-11.7306
名譽	-11.7306
分付	-11.7306
嚴陵	-11.7307
指日	-11.7308
執經	-11.7311
杜預	-11.7311
與聞	-11.7313
睢	-11.7314
萬口	-11.7314
者也今	-11.7315
銘詩	-11.7318
詩注	-11.7319
草色	-11.7319
屹然	-11.7319
所適	-11.7319
翠華	-11.7319
未終	-11.732
公公	-11.732
要津	-11.732
亳州	-11.7321
考亭	-11.7322
英豪	-11.7323
微風	-11.7323
檠	-11.7324
廟學	-11.7324
㟁	-11.7324
鏖	-11.7325
黄鸝	-11.7325
縹	-11.7326
寗	-11.7327
漕運	-11.7327
龍圖閣學士	-11.7327
直指	-11.7327
歴年	-11.7327
芙蕖	-11.7328
蔗	-11.7328
牽牛	-11.7329
述作	-11.7332
禁軍	-11.7334
不知有	-11.7335
公名	-11.7335
伏惟皇帝陛下	-11.7338
未巳	-11.7338
北面	-11.7338
因人	-11.7338
而通	-11.7339
道途	-11.7339
太華	-11.7341
光芒	-11.7341
化育	-11.7341
劄子乞	-11.7342
一區	-11.7343
於漢	-11.7343
後村	-11.7343
書史	-11.7344
皇家	-11.7344
亦謂	-11.7344
淤	-11.7345
激切	-11.7345
汝等	-11.7345
連雲	-11.7345
過江	-11.7346
為義	-11.7348
招魂	-11.7349
盱	-11.7349
几杖	-11.7351
行路難	-11.7352
畏天	-11.7352
炯炯	-11.7353
名在	-11.7354
知之者	-11.7354
三篇	-11.7354
熈寕	-11.7355
竊發	-11.7355
錦衣	-11.7359
孤生	-11.7365
非真	-11.7365
細細	-11.7366
御筵	-11.7368
勞而	-11.7369
上古	-11.7371
則彼	-11.7373
列仙	-11.7374
婦道	-11.7374
溪頭	-11.7375
輕舟	-11.7375
安足	-11.7376
倐忽	-11.7376
者正	-11.7376
具狀	-11.7377
以為常	-11.7377
喚起	-11.7377
病骨	-11.7378
往年	-11.7378
囀	-11.7378
首以	-11.7378
詵	-11.7379
歳寒	-11.7379
隼	-11.7379
細事	-11.7379
芷	-11.738
不逢	-11.7381
曉日	-11.7381
仁政	-11.7381
小字	-11.7382
薫風	-11.7382
馴致	-11.7383
則臣	-11.7384
魏國	-11.7385
呼吸	-11.7386
墓碑	-11.7387
妙年	-11.7387
而知其	-11.739
先聲	-11.739
明年春	-11.7391
夢得	-11.7391
社稷之	-11.7391
都監	-11.7391
鄒魯	-11.7391
破屋	-11.7394
諭以	-11.7395
東君	-11.7395
力田	-11.7395
愚者	-11.7395
金閨	-11.7397
擢第	-11.7397
之藴	-11.7398
乃若	-11.7398
耕桑	-11.7399
元無	-11.7399
竹樹	-11.7399
不能忘	-11.7402
大卿	-11.7403
以罪	-11.7403
紬繹	-11.7403
駕言	-11.7403
無垠	-11.7404
合乎	-11.7404
辨其	-11.7405
堞	-11.7406
己酉	-11.7407
無少	-11.7408
浥	-11.7408
㨿	-11.7408
朝日	-11.741
有位	-11.7411
天王	-11.7411
道州	-11.7411
者四	-11.7411
奉聖旨	-11.7411
叔向	-11.7411
今既	-11.7412
不書	-11.7415
有以見	-11.7417
連天	-11.7417
巖巖	-11.7417
之得失	-11.7419
必也	-11.742
祀典	-11.742
神功	-11.7421
花發	-11.7421
過半	-11.7421
聲利	-11.7421
逸民	-11.7422
天下之心	-11.7423
朝天	-11.7423
余為	-11.7424
隰	-11.7425
純粹	-11.7426
忽憶	-11.7426
三十一	-11.7427
踴躍	-11.7428
照磨	-11.7429
杼	-11.7429
其子弟	-11.743
壽皇	-11.743
其禍	-11.743
之妻	-11.743
某月某日	-11.7431
雹	-11.7432
楨	-11.7433
以永	-11.7433
朝奉	-11.7435
年来	-11.7436
崇徳	-11.7437
獲罪	-11.7437
多暇	-11.7437
使指	-11.7437
喟	-11.7437
路人	-11.7438
傳記	-11.7438
之粟	-11.744
待詔	-11.7441
序之	-11.7441
兼侍講	-11.7442
中節	-11.7442
嘉猷	-11.7443
鄙夫	-11.7443
以寄	-11.7444
遂致	-11.7445
不以爲	-11.7446
遷延	-11.7446
良民	-11.7447
幕中	-11.7448
已老	-11.7448
昭然	-11.7449
前席	-11.7451
為書	-11.7453
黄雲	-11.7453
焉此	-11.7455
眡	-11.7455
又當	-11.7456
追還	-11.7457
以往	-11.7457
澧	-11.7458
塑	-11.7459
盛年	-11.7459
善良	-11.7459
煤	-11.746
咀	-11.746
驄	-11.7462
其美	-11.7462
同行	-11.7463
無礙	-11.7464
斯須	-11.7465
幽棲	-11.7466
穆公	-11.7466
敎授	-11.7468
江天	-11.7469
事具悉	-11.747
不腆	-11.7472
俯伏	-11.7473
楊君	-11.7473
淮水	-11.7474
英英	-11.7474
昨者	-11.7475
不免於	-11.7475
徐行	-11.7478
夾道	-11.7478
故名	-11.748
喜曰	-11.748
察院	-11.748
金沙	-11.7481
列城	-11.7482
出焉	-11.7483
南湖	-11.7483
枋	-11.7484
至孝	-11.7485
須㬰	-11.7485
嫠	-11.7485
太乙	-11.7485
朱絃	-11.7485
良醫	-11.7485
倚杖	-11.7485
窀穸	-11.7485
芾	-11.7486
冠冕	-11.7487
瀑布	-11.7489
畮	-11.7489
猛虎	-11.7489
余亦	-11.749
犬吠	-11.749
黄龍	-11.749
僧舍	-11.7491
幾於	-11.7492
鼎來	-11.7492
佩玉	-11.7492
醉墨	-11.7493
仲春	-11.7494
於有司	-11.7494
哲人	-11.7494
必致	-11.7494
維時	-11.7494
本乎	-11.7495
百司	-11.7495
涿	-11.7496
兄子	-11.7497
飛仙	-11.7497
少日	-11.7497
目録	-11.75
楚詞	-11.7501
謫居	-11.7501
應舉	-11.7502
上䟽	-11.7503
悠哉	-11.7506
軍興	-11.7506
璇	-11.7507
濯足	-11.7507
時出	-11.7507
創業	-11.7508
太陽	-11.7508
詩寄	-11.7509
六經之	-11.7509
推行	-11.7509
今爲	-11.751
不佞	-11.7511
於無窮	-11.7511
有嚴	-11.7511
本府	-11.7511
祜	-11.7511
不二	-11.7512
行歌	-11.7513
邊陲	-11.7514
苟非	-11.7514
殊不知	-11.7514
卿士	-11.7515
櫺	-11.7515
惹	-11.7516
追逐	-11.7517
誰信	-11.7518
去思	-11.7518
清詩	-11.7521
處分	-11.7523
頼以	-11.7524
年未	-11.7525
轉徙	-11.7525
時一	-11.7526
李白詩	-11.7526
邇英	-11.7527
金丹	-11.7528
建中	-11.7529
漢庭	-11.7529
衣鉢	-11.753
非復	-11.753
遂與	-11.753
格言	-11.7531
流亡	-11.7531
更須	-11.7532
天民	-11.7532
與劉	-11.7532
所無	-11.7532
其所為	-11.7533
去歲	-11.7534
振起	-11.7534
興來	-11.7535
廬州	-11.7536
青草	-11.7536
吏卒	-11.7537
詩思	-11.7537
他郡	-11.7537
才髙	-11.7537
科名	-11.7538
帚	-11.7539
情親	-11.7539
知巳	-11.7539
某嘗	-11.7539
姓字	-11.754
不可易	-11.754
器使	-11.754
當官	-11.7541
辛卯	-11.7542
矣况	-11.7543
臨民	-11.7543
觀此	-11.7547
須是	-11.7548
臨軒	-11.7549
飢民	-11.7549
滿前	-11.7549
乆逺	-11.7549
巢穴	-11.755
之遇	-11.755
松聲	-11.755
通書	-11.7552
性善	-11.7552
盖以	-11.7554
子之言	-11.7555
天聽	-11.7559
髙才	-11.7561
一瓢	-11.7561
四體	-11.7563
久已	-11.7563
畋	-11.7563
之峻	-11.7564
敢圖	-11.7567
萬機	-11.7568
䧺	-11.7568
噤	-11.7569
弗及	-11.7569
殆盡	-11.7569
攖	-11.7569
弦歌	-11.757
二人者	-11.757
義利	-11.7571
危言	-11.7572
深惟	-11.7573
奔馳	-11.7575
瞻仰	-11.7576
大治	-11.7577
是乃	-11.7578
無縁	-11.7578
古樂府	-11.758
物我	-11.758
五車	-11.7581
髙節	-11.7582
長洲	-11.7582
逝矣	-11.7582
所感	-11.7582
憂民	-11.7584
仁夀	-11.7585
矜式	-11.7586
古昔	-11.7587
罙	-11.7587
從兄	-11.7588
以終	-11.7588
逺業	-11.7588
舊人	-11.7589
語黙	-11.759
未休	-11.7591
櫻	-11.7593
凾	-11.7593
助之	-11.7595
卭	-11.7595
前哲	-11.7595
俻	-11.7595
七世	-11.7596
非止	-11.7597
逡廵	-11.7597
固應	-11.7598
諸葛亮	-11.7598
苓	-11.7599
諸處	-11.76
乃其	-11.7603
一本作	-11.7604
先子	-11.7604
百倍	-11.7604
皆由	-11.7605
景定	-11.7605
惘然	-11.7606
淑人	-11.7607
時務	-11.7608
以警	-11.7608
莫可	-11.7612
我則	-11.7612
呼兒	-11.7614
備員	-11.7614
茂陵	-11.7614
憲司	-11.7614
當知	-11.7614
云是	-11.7616
曰彼	-11.7616
一壺	-11.7616
也所謂	-11.7616
來朝	-11.7618
廟食	-11.7618
像設	-11.7618
有所謂	-11.7619
詔以	-11.7619
巖壑	-11.7621
匡廬	-11.7621
予奪	-11.7621
儁	-11.7622
公薨	-11.7622
璜	-11.7623
卹	-11.7623
倜儻	-11.7623
孟郊	-11.7625
羣山	-11.7625
大同	-11.7625
女一人	-11.7626
不輟	-11.7626
巡檢	-11.7626
毗陵	-11.7626
三衢	-11.7627
晴日	-11.7627
周室	-11.7627
論詩	-11.7628
因事	-11.7629
桓温	-11.763
編次	-11.7633
出示	-11.7633
人傑	-11.7634
辭免除	-11.7634
從渠	-11.7636
爭先	-11.7636
阮籍	-11.7636
杖履	-11.7637
穆穆	-11.7637
干冒	-11.7637
病眼	-11.7637
至樂	-11.7638
國學	-11.7638
次子	-11.7638
隨所	-11.7639
此誠	-11.764
蔡氏	-11.7642
晦翁	-11.7642
以輔	-11.7642
學教授	-11.7642
烏鵲	-11.7642
教者	-11.7642
爨	-11.7645
齊人	-11.7645
乃在	-11.7646
乃爲	-11.7647
羿	-11.7649
眄	-11.765
膴仕	-11.765
禦侮	-11.765
鄧州	-11.765
荔	-11.765
个	-11.7651
璉	-11.7651
濟川	-11.7652
某甲子	-11.7653
奉法	-11.7655
不盈	-11.7655
述其	-11.7656
碾	-11.7656
金湯	-11.7657
未開	-11.7657
籍籍	-11.7659
感泣	-11.7659
剡溪	-11.766
城上	-11.766
詔下	-11.7661
謂當	-11.7663
多福	-11.7663
襟期	-11.7664
斐	-11.7664
一無	-11.7665
上國	-11.7665
所求	-11.7666
相通	-11.7668
所居之	-11.7668
侵尋	-11.7674
宛然	-11.7675
繇是	-11.7675
為患	-11.7675
進退之	-11.7675
年老	-11.7676
今誰	-11.7676
畿甸	-11.7677
其誠	-11.7677
蹭蹬	-11.7677
訢	-11.7681
千歲	-11.7681
不可以無	-11.7681
春夢	-11.7681
極論	-11.7681
變易	-11.7682
臨海	-11.7682
髙年	-11.7682
吹笛	-11.7683
三卷	-11.7684
真州	-11.7684
以答	-11.7685
亦不過	-11.7686
永惟	-11.7687
者殆	-11.7688
猶勝	-11.7689
武林	-11.769
為急	-11.769
聖人之言	-11.7692
書上	-11.7692
特贈	-11.7693
如一日	-11.7693
猶以為	-11.7693
澤國	-11.7693
方士	-11.7694
箇中	-11.7695
天祐	-11.7695
眉宇	-11.7695
者必有	-11.7697
激烈	-11.7697
申公	-11.7697
獨得	-11.7699
偷安	-11.77
開闢	-11.7701
園池	-11.7701
相語	-11.7701
有後	-11.7702
三十餘	-11.7703
數聲	-11.7703
愛日	-11.7703
勞生	-11.7703
似此	-11.7704
此志	-11.7707
宓	-11.7708
膩	-11.7708
之由	-11.7709
七里	-11.7709
雙鬢	-11.7709
筌	-11.7709
勿以	-11.771
特加	-11.7711
鍜	-11.7711
真蹟	-11.7711
嵇康	-11.7713
心目	-11.7714
治功	-11.7715
大典	-11.7716
相呼	-11.7719
某竊	-11.772
見謂	-11.7722
墓在	-11.7723
不期	-11.7724
遥想	-11.7724
天理之	-11.7725
如雨	-11.7726
一枕	-11.7726
雖已	-11.7726
遺迹	-11.7727
側聞	-11.7728
滋味	-11.7728
之志也	-11.7729
萬分	-11.7729
焉有	-11.773
延陵	-11.7731
也唐	-11.7731
孥	-11.7732
之黨	-11.7732
陳留	-11.7733
秦淮	-11.7733
毳	-11.7734
其根	-11.7734
胡爲	-11.7734
蔭	-11.7734
戞	-11.7735
顔氏	-11.7736
髙閣	-11.7736
盖亦	-11.7737
素所	-11.7738
養氣	-11.7738
盌	-11.7739
器用	-11.774
鏃	-11.774
廣徳	-11.774
良田	-11.774
不得辭	-11.7741
文宗	-11.7741
也但	-11.7741
幽香	-11.7742
可致	-11.7742
枝上	-11.7745
棃	-11.7746
騎鯨	-11.7746
城壁	-11.7746
以書來	-11.7748
朝宗	-11.7748
吾人	-11.7749
徃事	-11.7749
石鼎	-11.7749
官爵	-11.775
制之	-11.7751
隠几	-11.7752
春風吹	-11.7752
不可用	-11.7752
雲霞	-11.7753
共理	-11.7754
神光	-11.7754
日邊	-11.7756
建陽	-11.7758
勤苦	-11.7762
私第	-11.7763
之地而	-11.7763
問答	-11.7764
王郎	-11.7765
花時	-11.7765
奮身	-11.7765
惋	-11.7766
醉倒	-11.7766
雒	-11.7766
示予	-11.7766
此蓋	-11.7767
在其中	-11.7768
絶俗	-11.7769
賞音	-11.7769
神交	-11.7769
弱水	-11.7771
却笑	-11.7772
無忝	-11.7772
助教	-11.7774
邦昌	-11.7775
考績	-11.7775
清隂	-11.7776
率皆	-11.7777
一徳	-11.7777
厚徳	-11.7778
視聽	-11.778
四十八	-11.778
書畫	-11.7781
晉公	-11.7782
則何以	-11.7783
人臣之	-11.7783
阻風	-11.7783
永日	-11.7783
鹿門	-11.7783
水利	-11.7784
前期	-11.7784
暗香	-11.7784
荀子	-11.7785
架閣	-11.7786
其所以為	-11.7787
天人之	-11.7787
眚	-11.7787
籩豆	-11.7787
自家	-11.7787
其旁	-11.7788
瀦	-11.7788
氣和	-11.7789
天水	-11.779
送迎	-11.779
黄堂	-11.779
三才	-11.7792
自得之	-11.7792
之藏	-11.7792
茂對	-11.7793
列于	-11.7793
提封	-11.7794
秔	-11.7794
輿地	-11.7794
先人之	-11.7794
於官	-11.7796
南園	-11.7796
乃眷	-11.7798
子昻	-11.7798
召為	-11.7798
子若孫	-11.7798
徳性	-11.7798
勤王	-11.7799
雖老	-11.7799
以就	-11.78
龍鍾	-11.78
匠石	-11.7802
子淵	-11.7802
境上	-11.7802
韻二首	-11.7803
元亮	-11.7804
所請宜不允	-11.7806
再娶	-11.7806
邵武	-11.7807
因思	-11.7807
豈若	-11.7809
春酒	-11.781
樂於	-11.781
于心	-11.7811
一第	-11.7811
車輪	-11.7812
遺經	-11.7813
從来	-11.7816
縂	-11.7818
歸計	-11.7819
為問	-11.7819
仰天	-11.7819
聀	-11.782
今巳	-11.7821
閘	-11.7821
蒹葭	-11.7821
撒	-11.7822
以貽	-11.7822
言笑	-11.7822
陛下以	-11.7826
建州	-11.7826
無計	-11.7827
蘆花	-11.7829
八座	-11.7829
眼底	-11.783
三紀	-11.783
一帶	-11.7831
日有	-11.7831
是耶	-11.7831
天然	-11.7832
王荆公	-11.7832
粹然	-11.7833
夏秋	-11.7834
乃作	-11.7834
精粗	-11.7834
長夜	-11.7835
元祐三年	-11.7835
易傳	-11.7835
朝㫖	-11.7836
其責	-11.7836
室中	-11.7837
倚樓	-11.7837
歴官	-11.7837
保障	-11.7839
性資	-11.784
致語	-11.784
除夜	-11.784
幡然	-11.7841
渾然	-11.7841
應無	-11.7841
奉天	-11.7841
朝家	-11.7843
從者	-11.7843
再至	-11.7844
之態	-11.7844
一歳	-11.7845
誰何	-11.7845
以防	-11.7845
衂	-11.7846
澡	-11.7846
今春	-11.7846
斧鉞	-11.7846
之施	-11.7846
有警	-11.7846
郡齋	-11.7846
𬒮	-11.7847
氈	-11.7847
其平生	-11.7848
惴惴	-11.7848
瀧	-11.785
武岡	-11.785
滄江	-11.7851
應時	-11.7851
孤根	-11.7852
清都	-11.7852
建隆	-11.7852
芬芳	-11.7853
以致其	-11.7857
喜氣	-11.7858
虛名	-11.7858
煩惱	-11.7858
大水	-11.7859
布宣	-11.7859
差人	-11.7859
宗工	-11.7859
今在	-11.786
誠可	-11.786
山立	-11.786
東方朔	-11.786
進學	-11.7861
過雨	-11.7862
所過	-11.7862
之鄉	-11.7862
髙第	-11.7862
萬松	-11.7863
紅葉	-11.7863
者咸	-11.7863
一端	-11.7865
不殊	-11.7865
方興	-11.7865
攸司	-11.7865
君子之所	-11.7867
以此為	-11.7868
琪	-11.7869
從我	-11.787
觚	-11.7871
發憤	-11.7871
訓詁	-11.7873
勿使	-11.7874
荏苒	-11.7875
司命	-11.7876
朋友之	-11.7876
略無	-11.7877
司馬相如	-11.7878
老師	-11.7879
啚	-11.7879
自作	-11.788
進讀	-11.788
勤於	-11.788
觀望	-11.7881
始生	-11.7881
其迹	-11.7883
剛毅	-11.7883
不敢當	-11.7884
通家	-11.7884
字説	-11.7888
知遇	-11.7889
愛山	-11.7889
可嘉	-11.7891
二毛	-11.7892
温厚	-11.7892
而後有	-11.7893
水竹	-11.7894
無外	-11.7895
真實	-11.7897
百斛	-11.7898
豪氣	-11.7898
近時	-11.7899
荔子	-11.7899
周人	-11.79
自顧	-11.79
洪鈞	-11.79
不忍去	-11.7903
同里	-11.7904
今猶	-11.7904
勅某	-11.7904
在眼	-11.7906
陟降	-11.7906
驅車	-11.7907
以避	-11.7907
從師	-11.7908
脛	-11.7908
蕋	-11.7909
百户	-11.7909
昭陵	-11.791
比來	-11.791
之所當	-11.791
肆其	-11.791
圖史	-11.7912
野色	-11.7915
成康	-11.7915
毫末	-11.7915
清淺	-11.7916
清夢	-11.7916
儒先	-11.7918
風俗之	-11.7921
以代	-11.7921
七閩	-11.7922
詳見	-11.7922
寳祐	-11.7923
苦無	-11.7923
朱公	-11.7923
之萬一	-11.7926
相送	-11.7927
命令	-11.7927
調發	-11.7929
忠誠	-11.7929
之適	-11.793
胥吏	-11.7931
諶	-11.7931
予觀	-11.7932
之碑	-11.7932
長春	-11.7933
憲章	-11.7933
不能言	-11.7933
薄俗	-11.7935
清霜	-11.7935
之中而	-11.7936
將行	-11.7936
篠	-11.7936
弗獲	-11.7936
不順	-11.7937
是生	-11.7937
宿草	-11.7937
合行	-11.7938
山北	-11.7938
所以致	-11.7939
請予	-11.794
毋以	-11.7941
張良	-11.7941
北堂	-11.7941
幕下	-11.7943
旁午	-11.7943
啓賀	-11.7944
兼領	-11.7946
祀事	-11.7946
諫議大夫	-11.7946
榮枯	-11.7947
一戰	-11.7948
峨	-11.7949
道山	-11.795
女三人	-11.795
三十八	-11.795
増秩	-11.795
比日	-11.7951
東路	-11.7952
嘗見	-11.7952
晶	-11.7953
有功於	-11.7954
備禦	-11.7955
新書	-11.7955
華胥	-11.7957
懇辭	-11.7958
無迹	-11.7958
饔	-11.7958
廣寒	-11.7959
登門	-11.7961
往服	-11.7962
涵泳	-11.7962
東郭	-11.7963
樞宻使	-11.7963
豺虎	-11.7963
妝	-11.7963
無錫	-11.7964
樂易	-11.7964
十五里	-11.7964
酈	-11.7966
凉風	-11.7966
不遷	-11.7967
女嫁	-11.7967
大宗	-11.7968
五品	-11.7968
嗜學	-11.7971
時復	-11.7971
蔡邕	-11.7971
相好	-11.7971
積水	-11.7972
贈言	-11.7973
有闕	-11.7973
大官	-11.7973
乗時	-11.7974
不拜	-11.7974
沙頭	-11.7975
之陽	-11.7975
屏居	-11.7975
知誰	-11.7976
深林	-11.7976
萬嵗	-11.7977
一川	-11.7977
道旁	-11.7977
名聲	-11.7978
正欲	-11.7978
習氣	-11.798
如意	-11.798
海水	-11.7981
九曲	-11.7981
聞說	-11.7982
子能	-11.7982
不直	-11.7983
斁	-11.7984
獨見	-11.7985
未若	-11.7987
駐蹕	-11.7987
澶淵	-11.7988
䴡	-11.7989
大懼	-11.799
爲主	-11.799
復歸	-11.799
西風吹	-11.7994
有涯	-11.7994
班行	-11.7995
害民	-11.7996
靖節	-11.7997
不講	-11.7997
論道	-11.7997
見和	-11.7998
竒才	-11.7998
况於	-11.7998
明敏	-11.7999
山鬼	-11.8003
二尺	-11.8005
廓然	-11.8006
淮南子	-11.8007
嗣位	-11.8008
籍甚	-11.8008
牽制	-11.8008
澄江	-11.8008
而往	-11.8009
君侯	-11.8011
守正	-11.8011
門牆	-11.8011
日進	-11.8012
學士院	-11.8013
溺於	-11.8014
利於	-11.8014
攽	-11.8015
吳中	-11.8015
樓前	-11.8016
願聞	-11.8016
忠武	-11.8017
長孺	-11.8018
事件	-11.8018
在望	-11.8018
肻	-11.8021
可是	-11.8021
上下相	-11.8021
厝	-11.8021
腕	-11.8022
發揚	-11.8022
前村	-11.8022
竊觀	-11.8024
内省	-11.8024
清和	-11.8025
柴桑	-11.8025
草廬	-11.8026
逺慮	-11.8026
傳呼	-11.8029
尚想	-11.803
空翠	-11.803
容與	-11.803
貞元	-11.803
一石	-11.8031
資於	-11.8032
地理	-11.8034
以彰	-11.8035
同此	-11.8036
之裔	-11.8037
俟命	-11.8038
一掃	-11.8039
歸葬	-11.8039
其費	-11.804
利用	-11.8041
十有一	-11.8041
部曲	-11.8042
賦此	-11.8042
之祀	-11.8043
誌銘	-11.8044
君名	-11.8044
醉吟	-11.8046
鵷	-11.8046
艱食	-11.8046
當在	-11.8046
𦂳	-11.8047
鯀	-11.8047
母氏	-11.8047
不泯	-11.8048
太皇太后陛下	-11.8048
侃	-11.8049
風急	-11.805
西夏	-11.805
羽衣	-11.805
嘗讀	-11.8052
名與	-11.8052
己丑	-11.8052
癭	-11.8052
薦紳	-11.8053
元祐二年	-11.8053
愽士	-11.8054
羃	-11.8054
精思	-11.8056
石頭	-11.8057
天下之民	-11.8058
光大	-11.8059
匹馬	-11.8059
未知其	-11.806
於今日	-11.8061
皇元	-11.8062
憐我	-11.8062
生徒	-11.8064
八千	-11.8065
迫於	-11.8068
滄	-11.8068
尊師	-11.8068
我聞	-11.8071
退藏	-11.8072
乙卯	-11.8074
先期	-11.8075
鬲	-11.8075
所指	-11.8076
羹	-11.8077
詳酌	-11.8077
清閒	-11.8077
其黨	-11.8077
境界	-11.8078
而氣	-11.8079
謹以	-11.8079
蟋蟀	-11.808
斯時	-11.808
墓碣	-11.8081
農家	-11.8082
目送	-11.8083
論心	-11.8083
金匱	-11.8084
四望	-11.8085
塵寰	-11.8086
因時	-11.8086
相迎	-11.8087
近而	-11.8088
將命	-11.8088
固陋	-11.809
水光	-11.809
花竹	-11.8091
得之矣	-11.8091
伏蒙	-11.8092
復命	-11.8092
之手	-11.8092
來謁	-11.8092
庭中	-11.8092
予因	-11.8092
其變	-11.8094
選人	-11.8094
於戯	-11.8094
滯留	-11.8097
令子	-11.8097
未必能	-11.8098
三百六十	-11.8099
晏子	-11.8099
終天	-11.8099
異論	-11.8099
過門	-11.81
異矣	-11.8101
芮	-11.8102
聖世	-11.8103
破碎	-11.8104
顙	-11.8104
黄屋	-11.8104
遊人	-11.8105
名重	-11.8105
請君	-11.8105
婚嫁	-11.8105
螘	-11.8107
先輩	-11.8107
大化	-11.8108
逍遙	-11.8108
事母	-11.8108
門巷	-11.8108
其去	-11.8109
顗	-11.811
善治	-11.8111
其人也	-11.8112
自若	-11.8112
倚天	-11.8112
嶺外	-11.8115
暴露	-11.8117
既去	-11.8117
有孫	-11.8117
不均	-11.8119
振衣	-11.812
開花	-11.8121
故君子	-11.8122
巖石	-11.8122
竒士	-11.8122
講義	-11.8123
官兵	-11.8124
終朝	-11.8124
仰祈	-11.8125
恤民	-11.8127
砦	-11.8127
誦詩	-11.8128
建言	-11.8129
肄	-11.8131
讃	-11.8132
自保	-11.8133
頡頏	-11.8133
鍵	-11.8133
於此矣	-11.8134
誰同	-11.8134
驪山	-11.8134
屣	-11.8135
者特	-11.8136
承直郎	-11.8137
而坐	-11.8137
就養	-11.8138
文行	-11.8138
新句	-11.8139
安在哉	-11.8139
户口	-11.814
雞豚	-11.8141
厚禄	-11.8141
三十七	-11.8141
凄然	-11.8141
終古	-11.8141
玉京	-11.8142
少監	-11.8142
文子	-11.8142
京邑	-11.8142
添差	-11.8143
飛龍	-11.8143
大禹	-11.8143
夏六月	-11.8145
數椽	-11.8146
日食	-11.8147
不謀	-11.8148
人馬	-11.8149
夢回	-11.8149
大如	-11.8151
屬予	-11.8152
築城	-11.8152
雲天	-11.8154
平仲	-11.8154
提刑司	-11.8155
潼川	-11.8157
承恩	-11.8157
適用	-11.8158
精忠	-11.8159
金盤	-11.8159
正學	-11.8159
主者	-11.816
竿牘	-11.816
忽焉	-11.8161
乎予	-11.8162
三十四	-11.8163
都指揮使	-11.8163
袋	-11.8163
襍	-11.8164
從班	-11.8165
私心	-11.8165
不謹	-11.8165
給之	-11.8166
比屋	-11.8167
逶迤	-11.8168
出知	-11.8169
親擢	-11.8169
撾	-11.8171
䕫州	-11.8171
亦須	-11.8171
愚衷	-11.8172
字元	-11.8172
曹氏	-11.8172
客裏	-11.8174
自合	-11.8174
景純	-11.8175
陲	-11.8175
律令	-11.8176
莫不有	-11.8177
實用	-11.8177
枝頭	-11.8178
勤勤	-11.818
煙波	-11.818
六十四	-11.8182
齊家	-11.8182
桂樹	-11.8187
倉皇	-11.8187
逢迎	-11.8187
䦨干	-11.8188
嘏	-11.8189
所係	-11.8189
音容	-11.8189
殛	-11.819
邊防	-11.819
爪牙	-11.8191
易為	-11.8192
後天	-11.8192
以厚	-11.8192
諄	-11.8193
壕	-11.8194
一燈	-11.8195
幽花	-11.8195
舊矣	-11.8196
巇	-11.8196
之趣	-11.8197
不觧	-11.8198
魴	-11.8198
昆仲	-11.8199
後嗣	-11.8199
三百篇	-11.8199
文殊	-11.8201
名氏	-11.8202
尚餘	-11.8202
喜色	-11.8203
不可測	-11.8203
萬騎	-11.8203
却憶	-11.8204
宋人	-11.8205
正朔	-11.8206
元貞	-11.8206
今我	-11.8206
統制	-11.8207
作賦	-11.8208
文蔚	-11.8209
臣竊惟	-11.8209
於此乎	-11.821
文史	-11.8212
晤語	-11.8212
紫㣲	-11.8213
相持	-11.8215
能令	-11.8216
見諸	-11.8216
衽	-11.8216
挂冠	-11.8217
月旦	-11.8217
嵗嵗	-11.8218
也昔者	-11.8219
詩律	-11.8219
觀文殿學士	-11.822
選用	-11.822
文景	-11.8221
無生	-11.8221
焉能	-11.8222
潮州	-11.8222
一言以	-11.8222
抱負	-11.8222
善言	-11.8223
枿	-11.8223
酒家	-11.8224
將作監主簿	-11.8224
是真	-11.8224
老更	-11.8225
致意	-11.8226
趙州	-11.8227
天邊	-11.8227
筠州	-11.8228
也夫人	-11.8228
巳見	-11.8228
欽惟	-11.8232
公實	-11.8233
也如此	-11.8233
咸謂	-11.8234
焉爾	-11.8236
日斜	-11.8237
緑水	-11.8238
思得	-11.824
易得	-11.824
徽音	-11.824
京畿	-11.8242
而觀之	-11.8242
少休	-11.8243
貫穿	-11.8244
倚門	-11.8245
要是	-11.8245
惸	-11.8247
敭	-11.8248
单	-11.8249
窩	-11.825
誰似	-11.825
制敕某	-11.825
三十九	-11.8251
向背	-11.8251
求詩	-11.8252
紈	-11.8252
巖廊	-11.8252
鉗	-11.8252
矗	-11.8252
竹溪	-11.8252
一幅	-11.8253
彌綸	-11.8254
醸	-11.8254
論奏	-11.8257
坐對	-11.8257
光彩	-11.8257
而不顧	-11.8257
體貌	-11.8259
素定	-11.8259
與誰	-11.8259
來請	-11.8261
才力	-11.8261
自便	-11.8262
緇衣	-11.8264
無失	-11.8264
十餘人	-11.8265
闕庭	-11.8267
蘭溪	-11.8267
四十五	-11.8267
於當世	-11.8268
俄頃	-11.8268
與趙	-11.8269
咨爾	-11.8271
合葬	-11.8271
别業	-11.8272
漢唐之	-11.8272
涓埃	-11.8273
升斗	-11.8273
安車	-11.8273
官錢	-11.8274
學力	-11.8274
吾祖	-11.8274
一紀	-11.8274
不如是	-11.8275
太博	-11.8276
更望	-11.8276
執鞭	-11.8276
官人	-11.8276
臬	-11.8277
莊子曰	-11.8277
感涕	-11.8279
扶杖	-11.8279
指其	-11.828
天衢	-11.828
外舅	-11.828
而不見	-11.8281
承奉郎	-11.8282
相值	-11.8282
默	-11.8283
兩間	-11.8283
服闋	-11.8283
哂	-11.8284
乎余	-11.8284
䆠	-11.8285
利禄	-11.8285
沆瀣	-11.8286
羽毛	-11.8286
俟其	-11.8287
慶歴	-11.8287
也孟子	-11.8288
從政郎	-11.8289
月餘	-11.8289
禮儀	-11.8289
先民	-11.829
國語	-11.8292
自念	-11.8293
識面	-11.8295
勿謂	-11.8296
容貌	-11.8296
紅日	-11.8297
感舊	-11.8298
信然	-11.8299
程文	-11.8302
設官	-11.8304
動色	-11.8304
秋九月	-11.8305
較之	-11.8308
虚實	-11.8308
輦轂	-11.8308
矢石	-11.8309
之辱	-11.8309
一㕓	-11.831
棼	-11.831
稍長	-11.8311
磅礴	-11.8311
沐浴	-11.8311
筝	-11.8312
累遷	-11.8312
繾綣	-11.8313
昔聞	-11.8313
惶懼	-11.8315
埭	-11.8316
尚克	-11.8316
而爲之	-11.8319
姑射	-11.8319
思齊	-11.8319
湘江	-11.8319
進奉	-11.8319
明發	-11.8322
洗耳	-11.8322
事變	-11.8323
自應	-11.8323
臧否	-11.8324
敵騎	-11.8325
書記	-11.8325
羽林	-11.8325
天禧	-11.8325
半世	-11.8326
屬官	-11.8327
不支	-11.8327
莫厭	-11.8328
夢斷	-11.8331
邵子	-11.8332
仁壽	-11.8333
即席	-11.8333
既定	-11.8333
流移	-11.8335
馬援	-11.8335
而獲	-11.8335
走筆	-11.8337
絶勝	-11.8337
愒	-11.8337
强敵	-11.8338
如新	-11.8339
以補	-11.834
即乞	-11.834
奭	-11.834
路分	-11.8341
晚嵗	-11.8342
江干	-11.8343
嘉泰	-11.8343
視此	-11.8344
猗歟	-11.8344
一理	-11.8344
道徳之	-11.8345
送春	-11.8345
文叔	-11.8345
春愁	-11.8345
日照	-11.8346
虞部	-11.8346
晃	-11.8348
濁醪	-11.8348
千葉	-11.8349
室廬	-11.835
迨今	-11.8352
之左	-11.8353
千尋	-11.8354
無實	-11.8355
某聞	-11.8355
飛泉	-11.8356
過庭	-11.8356
明帝	-11.8356
數尺	-11.8356
王元	-11.8357
權輿	-11.8357
著鞭	-11.8358
不定	-11.836
姪孫	-11.836
復起	-11.8361
天降	-11.8362
春晚	-11.8363
守土	-11.8363
辟雍	-11.8363
萬五千	-11.8364
終篇	-11.8364
恐是	-11.8365
相逺	-11.8366
十丈	-11.8366
子華	-11.8368
丹霞	-11.8368
不吝	-11.837
郊廟	-11.8371
期以	-11.8371
滿腹	-11.8371
琅琅	-11.8373
揺落	-11.8373
寓直	-11.8373
塞上	-11.8374
梅聖俞	-11.8376
眷懐	-11.8377
桑柘	-11.8377
又不見	-11.8378
流芳	-11.838
正恐	-11.838
嗟哉	-11.838
數十百	-11.838
何湏	-11.8381
憶昨	-11.8384
獨往	-11.8387
泣血	-11.8387
識君	-11.8388
鄉曲	-11.8389
綱目	-11.839
美哉	-11.8391
供億	-11.8391
廣南	-11.8391
石湖	-11.8392
犯法	-11.8395
者是也	-11.8396
河上	-11.8396
得酒	-11.8396
平分	-11.8397
褫	-11.8397
䙝	-11.8398
貰	-11.8399
洛中	-11.8401
滄波	-11.8401
陸子	-11.8402
廸功郎	-11.8402
曉然	-11.8402
天下皆	-11.8402
孤臣	-11.8403
魯齋	-11.8403
瑀	-11.8403
惟君	-11.8403
慈祥	-11.8404
同寅	-11.8405
必須	-11.8406
未嘗以	-11.8408
相賀	-11.8409
行部	-11.841
褒貶	-11.8411
先妣	-11.8411
感事	-11.8411
堂曰	-11.8412
太甚	-11.8414
聲華	-11.8415
王粲	-11.8416
衰年	-11.8417
終當	-11.8417
某年	-11.8418
吉祥	-11.8418
承宣	-11.8418
膝下	-11.8419
所愛	-11.8419
海山	-11.842
烟波	-11.842
楊雄	-11.842
也苟	-11.8421
其姦	-11.8426
耒耜	-11.8426
又恐	-11.8427
好山	-11.8428
戌	-11.8428
郛	-11.8429
量力	-11.8429
惲	-11.843
琱	-11.843
乘興	-11.8431
吾意	-11.8431
纜	-11.8431
竊慮	-11.8432
怒而	-11.8432
况乃	-11.8432
卓爾	-11.8432
必勝	-11.8433
剩	-11.8436
特地	-11.8437
並進	-11.8438
田宅	-11.8439
之聨	-11.8442
四山	-11.8443
不究	-11.8443
其主	-11.8443
其直	-11.8445
荷葉	-11.8446
書法	-11.8447
任事	-11.8447
已定	-11.8447
少寛	-11.8448
兌	-11.8449
者未必	-11.845
交割	-11.845
亦宜	-11.8451
矧惟	-11.8451
纉	-11.8451
奉安	-11.8452
得道	-11.8453
傚	-11.8455
勵精	-11.8455
判府	-11.8456
寛仁	-11.8457
諸廟	-11.8457
專城	-11.8457
垂老	-11.8457
定交	-11.8457
願公	-11.8458
餘波	-11.8458
邊城	-11.8459
如臣	-11.846
諸經	-11.846
淘	-11.8461
正名	-11.8461
鵉	-11.8461
昴	-11.8462
莒	-11.8462
熟視	-11.8462
褰	-11.8463
不能用	-11.8463
方便	-11.8464
以對	-11.8465
彈指	-11.8466
白骨	-11.8468
極力	-11.8469
齊民	-11.847
惟恐其	-11.8471
自視	-11.8471
語之曰	-11.8472
息肩	-11.8473
張皇	-11.8473
西戎	-11.8475
天明	-11.8475
心腹	-11.8476
長庚	-11.8476
同舎	-11.8477
我愛	-11.848
管絃	-11.848
朱墨	-11.8481
其效	-11.8482
天幸	-11.8483
講堂	-11.8483
故作	-11.8484
而不用	-11.8485
參天	-11.8485
周家	-11.8486
忠宣	-11.8486
金吾	-11.8486
之頌	-11.8487
十有九	-11.8488
某頓首	-11.8488
僃	-11.8488
各得其	-11.8488
勦	-11.8488
狃	-11.8488
箕裘	-11.8489
蘊	-11.8489
也抑	-11.8489
事物之	-11.849
公等	-11.8491
人皆有	-11.8491
畛	-11.8491
劎	-11.8492
緼	-11.8492
朝請	-11.8493
臣之所	-11.8494
叩門	-11.8494
藹藹	-11.8496
目擊	-11.8496
新唐書	-11.8496
身雖	-11.8497
秀發	-11.8498
機務	-11.8499
户牖	-11.8499
樞府	-11.8499
不知其幾	-11.85
城門	-11.8501
暮景	-11.8501
真如	-11.8503
松筠	-11.8503
之心也	-11.8504
秘閣	-11.8504
便蕃	-11.8504
空有	-11.8505
莫逆	-11.8505
父師	-11.8505
江表	-11.8507
帥閫	-11.8507
縣有	-11.8508
筆法	-11.8508
近班	-11.8509
某記	-11.8509
大喜	-11.851
英華	-11.851
秉心	-11.8511
一條	-11.8513
人謀	-11.8515
稱為	-11.8516
執事之	-11.8516
被召	-11.8517
扎	-11.8518
月恭校上總纂官	-11.8518
終身不	-11.8518
嗚	-11.8518
靴	-11.8519
耳而	-11.8519
園亭	-11.852
隨分	-11.852
紙上	-11.852
勸講	-11.852
瀟灑	-11.8521
殿中侍御史	-11.8521
以順	-11.8522
裊	-11.8522
舉首	-11.8523
訓詞	-11.8523
或以為	-11.8523
公府	-11.8526
故郷	-11.8526
學易	-11.8526
窮巷	-11.8527
騎驢	-11.8529
伯樂	-11.853
金粟	-11.8533
時年	-11.8534
知其非	-11.8534
賜第	-11.8535
屏風	-11.8535
則謂之	-11.8536
器也	-11.8536
戎狄	-11.8536
遴選	-11.8536
相别	-11.8537
父子兄弟	-11.8538
何取	-11.8538
紅紫	-11.8539
寸長	-11.8539
河中	-11.854
東下	-11.854
得士	-11.854
燈花	-11.8541
武夫	-11.8541
亦如之	-11.8542
提領	-11.8542
誰可	-11.8544
准尚書省劄子	-11.8545
典謨	-11.8546
伏波	-11.8546
悌	-11.8546
鈞慈	-11.8547
先大夫	-11.8547
論次	-11.8548
兩河	-11.8549
范仲淹	-11.8549
貍	-11.855
楚國	-11.855
永興	-11.855
蕞爾	-11.855
仲冬	-11.8551
起敬	-11.8552
晉陵	-11.8552
驤	-11.8553
苦雨	-11.8553
以詔	-11.8553
豋	-11.8554
貔貅	-11.8555
死灰	-11.8555
坐待	-11.8556
才智	-11.8557
鑣	-11.8557
幸其	-11.8558
間氣	-11.8559
徒自	-11.8559
自餘	-11.8559
吉日	-11.8561
片雲	-11.8561
其狀	-11.8562
國計	-11.8563
不敢忘	-11.8563
成徳	-11.8563
未省	-11.8565
泮水	-11.8566
君心	-11.8566
永年	-11.8567
年光	-11.8568
為貧	-11.8569
小樓	-11.857
十行	-11.857
成風	-11.857
許多	-11.8572
於京師	-11.8572
榮禄大夫	-11.8576
聖時	-11.8576
以定	-11.8576
者為之	-11.8577
不試	-11.8577
無㡬	-11.8578
焞	-11.8579
臨終	-11.8579
無以為	-11.8579
躰	-11.8579
髙文	-11.858
君子也	-11.858
悛	-11.858
有禮	-11.858
疑有	-11.858
不敢言	-11.858
徒為	-11.8581
蘧	-11.8581
偪	-11.8581
祟	-11.8582
昵	-11.8582
秫	-11.8583
且言	-11.8584
而北	-11.8584
釋褐	-11.8586
無用之	-11.8589
横山	-11.859
薄宦	-11.859
第一人	-11.859
早春	-11.8591
求銘	-11.8591
髙僧	-11.8592
之羞	-11.8592
度量	-11.8593
繼室	-11.8593
許令	-11.8594
鴻毛	-11.8595
㝢	-11.8595
鄆州	-11.8595
㸃檢	-11.8595
尊賢	-11.8596
荒蕪	-11.8597
於四方	-11.8598
外戚	-11.8598
當先	-11.8598
錫以	-11.8599
類皆	-11.86
后妃	-11.8603
在庭	-11.8605
三傳	-11.8606
死亡	-11.8608
能言之	-11.8609
篤志	-11.8611
淵聖	-11.8612
狠	-11.8612
兼并	-11.8613
利欲	-11.8613
龍圖閣直學士	-11.8613
苟不	-11.8614
搗	-11.8615
姥	-11.8616
纏	-11.8617
細看	-11.8617
潺潺	-11.8617
商山	-11.8617
㳟惟	-11.8617
未可知	-11.8621
者有之	-11.8622
矜憐	-11.8622
子儀	-11.8622
先登	-11.8623
訪聞	-11.8624
抑又	-11.8624
鳥聲	-11.8624
不放	-11.8627
厥初	-11.8628
横行	-11.863
者也夫	-11.863
應奉	-11.863
而罷	-11.8631
五常	-11.8631
羣吏	-11.8633
哀憐	-11.8634
醴泉	-11.8634
大賚	-11.8634
躓	-11.8635
秋草	-11.8635
象曰	-11.8636
餘論	-11.8637
賀表	-11.8638
忒	-11.8639
洺	-11.8639
翠㣲	-11.8639
黍稷	-11.8639
猶及	-11.864
庭樹	-11.864
桴	-11.864
瓣香	-11.8643
後時	-11.8643
理義	-11.8643
罟	-11.8645
肌膚	-11.8646
嵯峨	-11.8646
尊祖	-11.8647
瞑目	-11.8648
吾衰	-11.8648
慈湖	-11.8649
應物	-11.8649
其所以然	-11.865
天長	-11.865
和王	-11.8651
追思	-11.8651
哉予	-11.8652
請益	-11.8654
而升	-11.8656
並用	-11.8657
可堪	-11.8657
汲引	-11.8657
往時	-11.8659
屑屑	-11.8661
泫然	-11.8662
結屋	-11.8662
為榮	-11.8662
許公	-11.8662
買山	-11.8663
精深	-11.8664
黌	-11.8664
京國	-11.8668
千門	-11.8668
賦曰	-11.8668
難言	-11.8669
不自知其	-11.8669
飴	-11.8671
特起	-11.8671
塵垢	-11.8671
莞	-11.8672
磧	-11.8673
北極	-11.8673
故謂之	-11.8673
醫者	-11.8674
委寄	-11.8674
不汝	-11.8674
鞋	-11.8674
瘖	-11.8675
富而	-11.8675
自將	-11.8675
承信郎	-11.8676
焉知	-11.8676
一介之	-11.8676
黏	-11.8676
石泉	-11.8677
逢春	-11.8677
郡中	-11.8677
丈室	-11.8678
舊臣	-11.8679
河山	-11.8681
帝城	-11.8682
而新之	-11.8683
自㓜	-11.8683
規摹	-11.8683
以和	-11.8683
宗即位	-11.8684
倚欄	-11.8685
就道	-11.8686
羊腸	-11.8687
說文	-11.8687
樓船	-11.8688
謀身	-11.8689
明善	-11.869
忠烈	-11.869
制閫	-11.869
莫嫌	-11.869
我民	-11.8691
二帝	-11.8692
者不得	-11.8692
申尚書省	-11.8692
得喪	-11.8694
託於	-11.8694
人之道	-11.8694
問安	-11.8694
幾許	-11.8695
念念	-11.8695
坐使	-11.8699
相宜	-11.8699
之災	-11.87
有方	-11.87
楞嚴經	-11.87
玦	-11.8701
貫通	-11.8701
問我	-11.8703
而取之	-11.8703
推本	-11.8704
志云	-11.8704
莢	-11.8705
感通	-11.8706
故道	-11.8706
盈尺	-11.8706
貨財	-11.8706
四牡	-11.8707
才猷	-11.8707
罌	-11.8708
茒	-11.8708
威福	-11.8708
和張	-11.8708
恩禮	-11.8709
氏諱	-11.8709
杜宇	-11.8709
之賤	-11.8709
煩君	-11.871
許其	-11.8711
安豐	-11.8712
怡怡	-11.8713
荆山	-11.8715
論著	-11.8717
王畿	-11.8718
文集序	-11.8718
逾年	-11.8719
起坐	-11.8721
黄魯直	-11.8721
麈	-11.8722
誰當	-11.8723
友生	-11.8723
好客	-11.8723
寒光	-11.8723
行吟	-11.8724
廬阜	-11.8724
宫祠	-11.8726
踵門	-11.8726
吉水	-11.8726
榴	-11.8727
作此詩	-11.8728
感懐	-11.8729
得天下	-11.8729
一項	-11.873
青冥	-11.873
竊嘗	-11.8731
燁	-11.8731
翺	-11.8731
詩家	-11.8732
束書	-11.8735
贏得	-11.8735
傳後	-11.8735
鱣	-11.8735
漓	-11.8735
仁心	-11.8736
始覺	-11.8736
常若	-11.8736
則止	-11.8737
出使	-11.8738
者並	-11.874
仲宣	-11.874
亂石	-11.8741
循理	-11.8741
如畫	-11.8741
内助	-11.8741
無一毫	-11.8742
氏追封	-11.8743
最爲	-11.8743
蜀中	-11.8744
前知	-11.8744
抑揚	-11.8746
拜手	-11.8746
朝露	-11.8748
契闊	-11.8748
糴米	-11.8752
招隠	-11.8752
汪洋	-11.8753
國王	-11.8756
無它	-11.8756
憂時	-11.8757
畫㦸	-11.8757
晚風	-11.8757
垂拱	-11.8758
法界	-11.8759
地僻	-11.8761
恫	-11.8761
穆王	-11.8761
聞説	-11.8762
伽	-11.8763
家語	-11.8764
暮雨	-11.8765
頭顱	-11.8765
致太平	-11.8765
裔孫	-11.8765
都堂	-11.8766
攙	-11.8766
錢榖	-11.8767
相求	-11.8768
雖異	-11.8768
千鍾	-11.8768
數行	-11.8769
病者	-11.877
黃金	-11.8774
混沌	-11.8775
欲見	-11.8775
羣兒	-11.8775
自比	-11.8775
克勤	-11.8775
無一物	-11.8775
吳江	-11.8775
末年	-11.8776
士風	-11.8776
動則	-11.8777
暾	-11.8777
而不以	-11.8777
了不	-11.8777
都是	-11.8778
逸少	-11.8778
九疇	-11.8779
召入	-11.878
往復	-11.878
無庸	-11.8782
盡是	-11.8782
七十餘	-11.8782
至善	-11.8784
花影	-11.8785
死則	-11.8785
起予	-11.8786
湯湯	-11.8786
於左右	-11.8787
舒州	-11.8787
澗水	-11.8787
消磨	-11.8789
戇	-11.879
退休	-11.8792
其言曰	-11.8792
之事而	-11.8792
䔍	-11.8793
賾	-11.8793
醯	-11.8793
意外	-11.8794
世儒	-11.8794
竹杖	-11.8795
調䕶	-11.8795
死節	-11.8796
之渥	-11.8797
舉觴	-11.8798
季秋	-11.8799
十有二月	-11.88
之子也	-11.8801
攷之	-11.8801
呀	-11.8801
酒熟	-11.8802
酒食	-11.8802
高風	-11.8804
歳晚	-11.8805
飛絮	-11.8805
了了	-11.8805
閒人	-11.8805
几案	-11.8806
勿忘	-11.8806
釋老	-11.8808
推廣	-11.8808
蘭若	-11.8809
不替	-11.881
窺其	-11.881
更加	-11.8811
謝靈運	-11.8812
行遣	-11.8812
為君子	-11.8813
漢宫	-11.8813
眀年	-11.8813
角巾	-11.8813
方伯	-11.8814
一言而	-11.8814
宦遊	-11.8814
所示	-11.8814
不愆	-11.8814
靈均	-11.8817
側身	-11.8818
之野	-11.8818
鮮于	-11.8818
到任謝	-11.8819
猶曰	-11.8819
尤深	-11.8819
饑民	-11.882
貴於	-11.8821
商旅	-11.8822
向使	-11.8822
咄	-11.8824
琢磨	-11.8824
本意	-11.8824
也孔子	-11.8825
淬	-11.8826
狂歌	-11.8826
坌	-11.8826
眉州	-11.8827
錢米	-11.8828
劉禹錫	-11.8828
斌	-11.883
時中	-11.883
奉寄	-11.883
尚期	-11.8831
澠	-11.8832
泮宫	-11.8833
欹枕	-11.8834
孤蹤	-11.8835
馬首	-11.8835
青黄	-11.8836
羣玉	-11.8836
風烈	-11.8837
新作	-11.8838
烟雲	-11.8838
延登	-11.884
詩篇	-11.884
頌曰	-11.884
檝	-11.8846
客曰	-11.8847
弭節	-11.8847
吾曹	-11.8847
不懼	-11.8849
者也然	-11.885
林宗	-11.885
擇人	-11.885
一雙	-11.885
化作	-11.885
言論	-11.8851
窳	-11.8853
平明	-11.8853
謀謨	-11.8854
豈可以	-11.8854
焦勞	-11.8855
凡四	-11.8855
望見	-11.8857
終年	-11.8857
右史	-11.8857
紀事	-11.8857
放浪	-11.8857
玻瓈	-11.8858
甚嚴	-11.8858
古所謂	-11.8858
十篇	-11.8858
遟	-11.8859
鯨鯢	-11.8859
内閣	-11.8859
藂	-11.886
守節	-11.886
祠宇	-11.8861
馳騖	-11.8861
熈熈	-11.8865
責成	-11.8865
多才	-11.8866
觀之則	-11.8866
選掄	-11.8866
野客	-11.8866
適有	-11.8866
荇	-11.8866
未妨	-11.8866
磚	-11.8866
慶州	-11.8867
太甲	-11.8867
何至	-11.8867
冠帶	-11.8868
懇懇	-11.8868
四時之	-11.8869
慘淡	-11.8869
忘形	-11.887
清寒	-11.8871
縣西	-11.8872
流轉	-11.8872
謝氏	-11.8872
齒髪	-11.8872
夙昔	-11.8874
固將	-11.8875
無患	-11.8875
要令	-11.8876
荒凉	-11.8877
菽水	-11.8878
終不可	-11.8879
安集	-11.888
何况	-11.8881
盖嘗	-11.8881
晴雲	-11.8882
塵沙	-11.8883
莫辭	-11.8883
不易得	-11.8884
正義	-11.8884
上庠	-11.8885
世教	-11.8887
癡兒	-11.8888
畎畝	-11.8888
仍乞	-11.8889
仰荷	-11.8889
有之矣	-11.889
王莽	-11.8891
賛曰	-11.8892
寧有	-11.8892
汁	-11.8893
爛熳	-11.8893
巳成	-11.8893
州通判	-11.8894
賜名	-11.8894
吾輩	-11.8895
奏陳	-11.8895
綫	-11.8895
小心	-11.8896
千歳	-11.8897
不可一日	-11.8897
曷不	-11.8897
祕閣	-11.8899
窮山	-11.8899
師中	-11.8899
樂哉	-11.8899
豪傑之士	-11.8899
純孝	-11.89
洲渚	-11.89
對揚	-11.8901
思有以	-11.8902
難老	-11.8905
陽氣	-11.8906
諸天	-11.8906
深切	-11.8909
巳矣	-11.891
四出	-11.8911
拒之	-11.8911
平津	-11.8911
新秋	-11.8913
悲傷	-11.8914
上前	-11.8915
近習	-11.8918
全集	-11.8918
章奏	-11.8919
疆埸	-11.892
讋	-11.892
洶洶	-11.892
虎丘	-11.8921
夷陵	-11.8921
逺來	-11.8921
餘見前	-11.8922
柂	-11.8922
徒知	-11.8923
平沙	-11.8924
宜興	-11.8924
夜聞	-11.8925
楠	-11.8925
司諫	-11.8925
憲使	-11.8927
凜然	-11.8927
之言而	-11.8927
俗人	-11.8927
燕南	-11.8927
絆	-11.8928
全無	-11.8929
以紀	-11.8929
慈顔	-11.893
得雨	-11.8931
稻粱	-11.8931
一春	-11.8933
臣願	-11.8933
壯志	-11.8933
李斯	-11.8933
管城	-11.8934
未就	-11.8935
知所以	-11.8935
自修	-11.8935
永和	-11.8936
老兄	-11.8936
相業	-11.8937
乞銘	-11.8937
石屏	-11.8938
登朝	-11.8938
醉歸	-11.8938
之時而	-11.8939
西河	-11.8939
素餐	-11.8939
語云	-11.894
蔚然	-11.894
興盡	-11.8941
南唐	-11.8941
人所難	-11.8943
舉行	-11.8945
百城	-11.8946
而况於	-11.8946
易名	-11.8946
逹於	-11.8947
恭審	-11.8947
未果	-11.8949
兕	-11.8949
敷宣	-11.8949
權勢	-11.8949
春暉	-11.8949
皆爲	-11.895
一斗	-11.895
逺甚	-11.895
踪	-11.8951
爰自	-11.8951
才難	-11.8952
和李	-11.8953
無根	-11.8953
曾大父	-11.8953
感悟	-11.8954
夷吾	-11.8954
諸國	-11.8955
就列	-11.8955
孰云	-11.8955
通顯	-11.8955
始信	-11.8956
遴	-11.8956
澌	-11.8957
逺圖	-11.8958
追逺	-11.8958
都邑	-11.8959
妙用	-11.8959
米價	-11.896
顧謂	-11.896
采薇	-11.896
秋雲	-11.896
觴詠	-11.896
軺	-11.8962
題曰	-11.8962
猶當	-11.8963
晉宋	-11.8964
全身	-11.8964
潤澤	-11.8965
勸君	-11.8965
斗升	-11.8966
曼卿	-11.8967
在列	-11.8969
夢幻	-11.8969
獨自	-11.8969
徃年	-11.8969
丹丘	-11.897
得㫖	-11.897
司户	-11.8971
都統	-11.8973
五峯	-11.8974
湖邊	-11.8974
報本	-11.8975
不隔	-11.8975
嘉納	-11.8976
出郭	-11.8976
其屬	-11.8978
退然	-11.8978
已作	-11.8978
水軍	-11.8979
特賜敷奏	-11.8979
好義	-11.898
其鋒	-11.8981
黄石	-11.8982
寵以	-11.8983
長空	-11.8983
筦庫	-11.8983
寧國	-11.8985
親征	-11.8985
糲	-11.8985
丹桂	-11.8987
躭	-11.8987
楯	-11.8988
九重之	-11.8988
誰令	-11.8988
齋戒	-11.8989
將誰	-11.8989
屢空	-11.8989
菅	-11.8989
幔	-11.899
平野	-11.8991
焙	-11.8991
相因	-11.8991
工於	-11.8991
末流	-11.8992
空庭	-11.8992
不釋	-11.8992
短褐	-11.8992
愧無	-11.8993
改為	-11.8993
治兵	-11.8993
此卷	-11.8994
介然	-11.8995
以禦	-11.8995
考妣	-11.8995
神考	-11.8998
英氣	-11.8999
晦菴	-11.8999
屬邑	-11.9001
晴空	-11.9002
賜對	-11.9004
訪求	-11.9004
五曰	-11.9005
元公	-11.9006
太初	-11.9006
鄭州	-11.9006
盛矣	-11.9006
極於	-11.9008
出郊	-11.9008
千夫	-11.9008
以疾終	-11.9008
太𤣥	-11.9008
無疾	-11.9009
青苗	-11.9009
不能知	-11.9009
數世	-11.9009
呉氏	-11.901
幽蘭	-11.901
相問	-11.901
從何	-11.901
其智	-11.901
不可使	-11.9012
鋪張	-11.9012
四郊	-11.9012
更深	-11.9012
里社	-11.9013
休明	-11.9014
濆	-11.9015
宜得	-11.9015
宦情	-11.9015
兩端	-11.9016
緍	-11.9016
隂徳	-11.9018
扵世	-11.9018
城池	-11.9018
陸贄	-11.9019
節次	-11.902
尺寸之	-11.9021
墩	-11.9022
張浚	-11.9022
團練	-11.9022
說得	-11.9023
成名	-11.9023
莆田	-11.9025
至唐	-11.9025
䇿問	-11.9025
清芬	-11.9025
不與焉	-11.9026
無倦	-11.9027
曽是	-11.9028
出塞	-11.9028
載惟	-11.903
無瑕	-11.9031
奮然	-11.9031
我方	-11.9031
其所長	-11.9032
次韻張	-11.9034
聽雨	-11.9034
黄閣	-11.9034
其父母	-11.9034
不充	-11.9034
登高	-11.9035
列國	-11.9035
不售	-11.9036
已乆	-11.9037
傾蓋	-11.9038
滿堂	-11.9038
遲留	-11.9041
上游	-11.9041
雨霽	-11.9041
華顛	-11.9042
雜詩	-11.9042
浣花	-11.9042
黄鶴	-11.9043
埃塵	-11.9045
駑駘	-11.9046
雪堂	-11.9046
隠者	-11.9046
斤斧	-11.9047
求言	-11.9048
南飛	-11.9048
為國家	-11.9048
每嵗	-11.9049
不鳴	-11.9049
期年	-11.9049
一杯酒	-11.9051
辭章	-11.9053
題畫	-11.9053
醉卧	-11.9054
茅山	-11.9055
索居	-11.9056
不怕	-11.9057
龍象	-11.9058
常事	-11.9058
[...]
