<unk>	0
<s>	0
</s>	0
(	-3.9709
之	-4.23835
/	-4.3426
)	-4.34428
而	-4.87812
以	-4.99121
為	-5.07721
也	-5.09568
/)	-5.12627
字	-5.26529
有	-5.31681
書	-5.34555
者	-5.34971
其	-5.36585
於	-5.50822
人	-5.52639
曰	-5.5694
▁	-5.7285
唐	-5.8442
則	-5.86723
闕	-5.88227
一	-5.89093
王	-5.8978
不	-5.90648
文	-5.91585
又	-5.923
碑	-5.95069
撰	-5.97269
中	-5.97978
作	-6.01133
與	-6.01341
子	-6.06672
自	-6.13759
在	-6.19411
無	-6.21425
公	-6.22187
大	-6.247
故	-6.25034
傳	-6.26253
至	-6.30275
云	-6.30798
三	-6.31131
言	-6.31209
皆	-6.32078
元	-6.32767
)(	-6.33758
此	-6.33928
明	-6.36161
時	-6.36311
本	-6.39235
易	-6.40569
爲	-6.41909
矣	-6.42159
集	-6.42694
上	-6.43466
事	-6.44337
記	-6.45414
行	-6.4616
二	-6.46695
詩	-6.48
今	-6.48169
所	-6.48836
亦	-6.49139
乃	-6.49974
道	-6.51158
李	-6.5216
正	-6.52318
張	-6.53247
後	-6.54139
經	-6.54477
如	-6.54608
然	-6.54898
得	-6.55789
春秋	-6.56509
是	-6.58119
非	-6.58461
名	-6.59461
下	-6.59691
及	-6.60287
右	-6.62647
義	-6.63268
學	-6.65009
山	-6.65391
見	-6.65687
漢	-6.69595
同	-6.70606
陳	-6.71476
周	-6.71521
乎	-6.73132
知	-6.73798
四	-6.73913
君	-6.75243
志	-6.75585
天	-6.76065
石	-6.76902
録	-6.77353
復	-6.77742
于	-6.79217
宋	-6.79518
用	-6.80304
焉	-6.80377
五	-6.808
立	-6.80927
世	-6.82808
劉	-6.84211
古	-6.84273
成	-6.85661
論	-6.85832
相	-6.86151
多	-6.86329
州	-6.86821
氏	-6.86936
官	-6.87029
出	-6.87825
可	-6.88969
謂	-6.89364
一卷	-6.89882
方	-6.89905
通	-6.89943
禮	-6.91436
折	-6.92563
序	-6.92919
家	-6.93448
生	-6.93549
注	-6.93733
日	-6.94542
已	-6.94588
惟	-6.96205
因	-6.96415
臣	-6.97559
若	-6.97738
法	-6.99823
令	-7.01235
即	-7.0167
南	-7.02042
當	-7.03834
先生	-7.03845
<	-7.04394
="33"/>	-7.04394
t	-7.04394
始	-7.04462
或	-7.04545
載	-7.04634
史	-7.04988
從	-7.06451
何	-7.06859
圖	-7.07767
觀	-7.07855
師	-7.07979
國	-7.08406
九	-7.09034
前	-7.09709
稱	-7.10002
雖	-7.10887
長	-7.11742
初	-7.11828
説	-7.12422
六	-7.1246
徳	-7.12481
安	-7.13094
心	-7.13764
宗	-7.14177
按	-7.14851
善	-7.15879
等	-7.16281
命	-7.16635
遂	-7.17196
諸	-7.17513
取	-7.17899
孫	-7.18715
分	-7.18926
年	-7.19132
平	-7.19202
縣	-7.19483
陽	-7.19965
使	-7.20619
數	-7.20727
以為	-7.20966
十	-7.21238
章	-7.22925
髙	-7.23141
夫	-7.23668
余	-7.24033
楊	-7.2413
居	-7.24729
類	-7.24818
考	-7.25387
東	-7.25577
伯	-7.26519
既	-7.26601
定	-7.26963
意	-7.28239
十卷	-7.2825
八	-7.28553
神	-7.28703
能	-7.28943
修	-7.29033
先	-7.29352
帖	-7.29404
未	-7.29715
耳	-7.29908
入	-7.30442
鄭	-7.30683
合	-7.31216
凡	-7.31736
士	-7.3179
重	-7.31982
二卷	-7.32331
刻	-7.32811
民	-7.33186
林	-7.34011
著	-7.34046
真	-7.3448
晉	-7.34581
解	-7.34798
次	-7.35486
歸	-7.35514
金	-7.35885
趙	-7.36086
樂	-7.36093
光	-7.36247
黄	-7.3638
建	-7.37017
思	-7.38563
紀	-7.3892
新	-7.38963
缺	-7.38978
少	-7.39537
欲	-7.39844
七	-7.39896
存	-7.40135
水	-7.40706
小	-7.40721
尚書	-7.41455
西	-7.4223
實	-7.42385
周易	-7.43072
必	-7.43164
卷	-7.43505
治	-7.43701
一部一冊	-7.44414
釋	-7.44724
守	-7.45219
門	-7.45278
梁	-7.45448
興	-7.45887
應	-7.46572
齊	-7.46806
廣	-7.4687
理	-7.46883
蓋	-7.47124
辭	-7.47548
寺	-7.47574
常	-7.4835
象	-7.48598
魏	-7.49267
仲	-7.49384
且	-7.49544
疑	-7.49917
清	-7.50442
武	-7.50488
嘗	-7.51059
獨	-7.51064
舉	-7.51078
錄	-7.51297
深	-7.51511
將	-7.5214
銘	-7.52846
卿	-7.53312
𤣥	-7.53381
徐	-7.53481
地	-7.5365
侯	-7.53693
異	-7.5381
郡	-7.54032
仁	-7.54076
聖	-7.54102
朝	-7.54514
直	-7.54778
尚	-7.54801
間	-7.55227
玉	-7.55291
起	-7.55568
朱	-7.55636
哉	-7.55795
德	-7.56097
去	-7.56505
來	-7.56521
佚	-7.57094
孔子	-7.57477
表	-7.58012
龍	-7.58168
問	-7.58208
吳	-7.58495
語	-7.5851
三卷	-7.59155
進	-7.59244
述	-7.59571
予	-7.59619
吾	-7.59967
篇	-7.60744
外	-7.6078
府	-7.60806
編	-7.60888
父	-7.61534
逺	-7.61573
盡	-7.61808
風	-7.62063
原	-7.62753
節	-7.6317
餘	-7.63381
號	-7.63586
魯	-7.63797
雲	-7.64084
盖	-7.64149
題	-7.6417
政	-7.64531
萬	-7.64798
和	-7.65042
兼	-7.65071
祖	-7.65456
信	-7.65456
帝	-7.65801
辨	-7.66172
左	-7.66717
孝	-7.67034
首	-7.67066
内	-7.67241
變	-7.67263
爾	-7.67273
秦	-7.6734
聞	-7.67443
遷	-7.67765
猶	-7.68122
說	-7.68669
城	-7.68719
各	-7.68861
甚	-7.68993
體	-7.69322
處	-7.69389
堂	-7.70086
葢	-7.70453
授	-7.70664
舊	-7.70794
白	-7.70948
筆	-7.71101
求	-7.712
主	-7.71208
卒	-7.7196
續	-7.72519
月	-7.72663
學者	-7.72761
發	-7.72876
江	-7.72934
馬	-7.7318
制	-7.73383
卦	-7.74807
簡	-7.74913
華	-7.74962
所謂	-7.75046
齋	-7.75606
不能	-7.75851
極	-7.7596
敬	-7.76003
賢	-7.76139
㑹	-7.76387
北	-7.76709
固	-7.76964
詔	-7.77008
封	-7.77254
精	-7.775
物	-7.77954
海	-7.7809
叔	-7.78262
靈	-7.78352
元年	-7.78529
二年	-7.78556
讀	-7.78649
改	-7.78871
不可	-7.78937
都	-7.79048
别	-7.79307
補	-7.79895
引	-7.80008
并	-7.80063
遺	-7.80311
開	-7.80323
司	-7.81027
兩	-7.81169
終	-7.81188
百	-7.8142
益	-7.81543
我	-7.82039
難	-7.82165
老	-7.82732
夏	-7.83144
畧	-7.83472
論語	-7.83639
聖人	-7.83915
更	-7.84203
誤	-7.84833
要	-7.8517
近	-7.85349
高	-7.8563
僧	-7.858
屬	-7.85885
斯	-7.86005
天下	-7.86561
孔	-7.86829
而不	-7.86941
周禮	-7.86985
四卷	-7.8759
並	-7.87922
寳	-7.88015
置	-7.88045
呉	-7.88049
許	-7.882
廟	-7.88635
列	-7.89029
忠	-7.89456
承	-7.8965
全	-7.89782
不知	-7.898
太	-7.89802
田	-7.89813
失	-7.90447
止	-7.90508
者也	-7.90763
胡	-7.90822
此書	-7.9085
雜	-7.90878
臨	-7.90962
加	-7.91191
音	-7.91198
疏	-7.91694
景	-7.91863
金石	-7.92006
絶	-7.92257
所以	-7.9251
永	-7.92817
正書	-7.93245
寧	-7.93265
致	-7.9328
孟子	-7.93311
顧	-7.93374
俱	-7.93604
宜	-7.93822
畫	-7.93989
兵	-7.94248
儀	-7.94272
訓	-7.94314
比	-7.94399
氣	-7.9492
力	-7.95216
由	-7.95285
過	-7.95508
三年	-7.96364
附	-7.9657
昌	-7.968
斷	-7.97005
具	-7.97062
未見	-7.97135
度	-7.97143
共	-7.97313
隂	-7.97547
流	-7.97589
頌	-7.97667
朱子	-7.97698
進士	-7.98416
好	-7.98454
春	-7.98557
教	-7.99104
陸	-7.99108
豈	-7.99459
沈	-7.99589
微	-7.99596
歴	-7.99643
備	-7.99955
韓	-7.99976
登	-8.00375
目	-8.00847
其書	-8.00872
草	-8.00984
軍	-8.00999
顯	-8.01358
宫	-8.01638
化	-8.01669
亡	-8.01824
造	-8.02205
請	-8.02393
崇	-8.02444
死	-8.0254
而已	-8.02598
奉	-8.02628
誠	-8.0313
代	-8.03202
耶	-8.03653
議	-8.03898
宣	-8.04159
受	-8.04273
功	-8.04648
六卷	-8.04899
識	-8.05061
貞	-8.05184
藏	-8.05576
昭	-8.05592
任	-8.0584
特	-8.05883
嘉	-8.05909
左氏	-8.05912
聲	-8.05976
陵	-8.06142
良	-8.06749
賜	-8.06838
勝	-8.07082
亂	-8.07228
孝經	-8.07449
尊	-8.07495
略	-8.07596
工	-8.08348
但	-8.08607
楚	-8.08621
縣志	-8.08629
望	-8.0864
二十卷	-8.08954
部	-8.08959
位	-8.09104
服	-8.09129
尤	-8.09137
末	-8.09271
似	-8.09306
總	-8.09932
於是	-8.10336
之書	-8.1039
禮記	-8.10741
闕二	-8.10828
孟	-8.10992
業	-8.1113
女	-8.11914
親	-8.12031
賦	-8.12035
如此	-8.12127
季	-8.12287
蘇	-8.12321
乾	-8.12331
詳	-8.12627
弟子	-8.12708
手	-8.13421
除	-8.13446
十二卷	-8.13544
拜	-8.13738
五卷	-8.14425
稿	-8.14433
皇	-8.14765
廢	-8.15138
端	-8.15231
河	-8.15369
指	-8.15838
嚴	-8.1657
郭	-8.16884
衆	-8.16895
曹	-8.17078
四書	-8.17173
謝	-8.17235
之學	-8.17242
據	-8.17295
身	-8.17356
之所	-8.17551
典	-8.17929
順	-8.18383
州刺史	-8.18513
推	-8.19104
游	-8.19249
竒	-8.19706
王氏	-8.1982
泉	-8.20033
臺	-8.20063
古文	-8.20226
一作	-8.20239
十二	-8.20247
杜	-8.20247
博	-8.20252
溪	-8.20645
字子	-8.20942
厯	-8.20956
之説	-8.21696
程	-8.22233
省	-8.22501
京	-8.22762
采	-8.2281
之後	-8.22862
第	-8.23173
獻	-8.23254
達	-8.23343
八分書	-8.23425
此碑	-8.2389
古今	-8.24084
俗	-8.24131
謂之	-8.24326
千	-8.24367
隋	-8.24477
慶	-8.24625
□	-8.24795
路	-8.2481
咸	-8.24846
蔡	-8.25042
五經	-8.25078
足	-8.25129
當時	-8.25258
八卷	-8.25329
遊	-8.25357
木	-8.25466
太守	-8.25549
譜	-8.25598
貴	-8.26143
越	-8.26291
嘉靖	-8.26305
美	-8.26968
四年	-8.26996
濟	-8.27106
儒	-8.27827
閣	-8.2791
嵗	-8.28041
印	-8.28536
集古	-8.28571
盛	-8.29077
歲	-8.2946
叙	-8.2954
吕	-8.29586
出於	-8.29756
英	-8.29772
逸	-8.29867
悉	-8.29934
就	-8.30333
繼	-8.30429
兮	-8.30536
洪	-8.30651
虞	-8.30776
錢	-8.31005
邑	-8.31219
贈	-8.31528
奏	-8.31716
至於	-8.31745
運	-8.31797
利	-8.31868
反	-8.31871
鄉	-8.3189
例	-8.31975
約	-8.31997
習	-8.32312
甫	-8.32468
商	-8.32503
君子	-8.3257
冊	-8.32579
崔	-8.32981
萬厯	-8.33007
句	-8.33119
寶	-8.33174
視	-8.33609
隱	-8.33719
雅	-8.34185
范	-8.35453
頗	-8.35612
篆	-8.36045
姓	-8.36051
惡	-8.36773
母	-8.36825
福	-8.36942
每	-8.36987
詞	-8.37044
可以	-8.37115
殊	-8.37222
談	-8.37454
蕭	-8.37683
案	-8.37925
選	-8.38119
攷	-8.38137
科	-8.38168
不同	-8.38177
汝	-8.3844
告	-8.38656
克	-8.38834
莫	-8.38943
律	-8.38957
祠	-8.39063
𨽻	-8.39283
衛	-8.39289
澤	-8.39346
又有	-8.39394
恭	-8.39623
仙	-8.3968
三十卷	-8.39759
愚	-8.3988
才	-8.39913
土	-8.39946
向	-8.4007
性	-8.40129
川	-8.40175
纂	-8.40303
吉	-8.40459
大夫	-8.40897
彼	-8.41155
還	-8.41216
懐	-8.41541
冠	-8.41752
占	-8.41952
又曰	-8.41954
昔	-8.42086
韻	-8.4224
食	-8.42257
葉	-8.42274
當是	-8.42289
喜	-8.42306
大學	-8.42472
隨	-8.42514
星	-8.42556
輯	-8.42706
毛詩	-8.42765
適	-8.42837
石經	-8.4297
墨	-8.43033
五年	-8.43077
權	-8.43178
之言	-8.43451
友	-8.43756
蜀	-8.43773
動	-8.43774
諸儒	-8.43824
仕	-8.43829
康	-8.43888
六經	-8.4395
休	-8.44092
升	-8.44118
形	-8.44433
歌	-8.44632
翼	-8.44691
里	-8.44694
彦	-8.44802
素	-8.45033
序曰	-8.45034
秋	-8.45135
院	-8.45141
丘	-8.45145
顔	-8.45638
窮	-8.45668
榮	-8.45922
坐	-8.46131
容	-8.46199
維	-8.4623
盧	-8.46284
羅	-8.46367
尋	-8.46601
統	-8.46746
惠	-8.46836
秀	-8.46858
再	-8.46863
條	-8.4697
衡	-8.47077
題名	-8.47187
感	-8.472
器	-8.47742
薛	-8.47935
其後	-8.47952
夫子	-8.48074
殿	-8.48158
肅	-8.48176
講	-8.48282
虚	-8.48283
源	-8.48613
鼎	-8.48726
參	-8.48766
刋	-8.49052
延	-8.49146
青	-8.49236
病	-8.49325
幾	-8.49638
吏	-8.49675
妙	-8.49765
得之	-8.49795
㫖	-8.49823
蘭亭	-8.50057
轉	-8.50115
中庸	-8.50507
依	-8.50547
對	-8.50737
儀禮	-8.50862
之意	-8.50867
厚	-8.50872
輔	-8.50906
二十	-8.51167
交	-8.51174
疾	-8.51289
移	-8.51371
往	-8.51477
果	-8.51496
降	-8.51513
祭	-8.5184
曾	-8.52031
計	-8.52176
其所	-8.52456
洞	-8.52516
嗣	-8.52528
爻	-8.52653
淵	-8.52677
質	-8.52926
董	-8.53176
袁	-8.53329
羣	-8.53731
最	-8.53832
久	-8.54035
馮	-8.54052
下闕	-8.5411
智	-8.54333
諱	-8.54495
召	-8.54605
行書	-8.54877
散	-8.54924
野	-8.55014
自序曰	-8.55038
情	-8.5539
施	-8.55464
曽	-8.55989
車	-8.56111
雨	-8.56159
而後	-8.56499
曲	-8.56526
憲	-8.56671
不得	-8.56672
遇	-8.56824
燕	-8.56861
偽	-8.56865
松	-8.57049
一部	-8.57253
為之	-8.57335
威	-8.57827
谷	-8.579
弟	-8.58446
贊	-8.58622
二字	-8.58831
篆額	-8.5888
河南	-8.5945
莊	-8.59541
郎	-8.59554
便	-8.59735
率	-8.59751
差	-8.59839
右軍	-8.59878
夀	-8.60117
妄	-8.60137
其文	-8.60378
以爲	-8.60418
謹	-8.60753
亭	-8.60812
六年	-8.61123
鎮	-8.61123
間修	-8.61202
宏	-8.61333
希	-8.614
校	-8.6142
翁	-8.61452
垂	-8.61458
畢	-8.61517
御	-8.61567
執	-8.61657
夢	-8.61802
連	-8.61894
離	-8.61988
示	-8.62149
式	-8.62218
祀	-8.62253
圗	-8.62301
舍	-8.62306
司馬	-8.62543
薦	-8.62611
謙	-8.62683
泰	-8.62744
佛	-8.62848
申	-8.62855
幸	-8.62858
章句	-8.63072
隋志	-8.63121
滅	-8.63442
尹	-8.63566
期	-8.63615
後世	-8.63716
愛	-8.63768
是書	-8.63981
一篇	-8.64239
佳	-8.64257
積	-8.64409
飛	-8.64424
室	-8.64522
一字	-8.64975
隠	-8.65034
仍	-8.65107
紹興	-8.65145
殷	-8.65153
切	-8.65347
謀	-8.65352
空	-8.65805
禹	-8.65881
賈	-8.66029
天地	-8.66078
碑隂	-8.6619
客	-8.6641
恐	-8.66422
務	-8.66615
徴	-8.66771
資	-8.66818
半	-8.66868
純	-8.66908
湖	-8.66985
保	-8.67005
韋	-8.67012
充	-8.67249
所載	-8.67285
丁	-8.67542
註	-8.67611
證	-8.67804
追	-8.67812
諸侯	-8.67874
墓誌	-8.6789
於此	-8.67958
專	-8.68227
刑	-8.68238
又云	-8.68478
墓	-8.68629
震	-8.6871
之文	-8.69054
戒	-8.69092
摹	-8.69213
巖	-8.69837
試	-8.69913
是也	-8.69934
幽	-8.69942
得其	-8.69953
留	-8.70172
色	-8.70212
他	-8.70375
品	-8.70453
察	-8.70559
䝉	-8.70722
温	-8.70764
文字	-8.70987
徒	-8.70994
伏	-8.71128
兹	-8.71277
其説	-8.7141
夷	-8.71575
􁶚	-8.71592
諸家	-8.7162
射	-8.72073
辟	-8.72269
樓	-8.72496
職	-8.72499
監	-8.72888
設	-8.73126
竹	-8.73457
石刻	-8.73514
私	-8.73533
雄	-8.7356
弗	-8.73568
廷	-8.73716
晦	-8.74003
庭	-8.74007
姚	-8.74038
史記	-8.7413
鍾	-8.74174
苐	-8.74553
十一	-8.74579
二百	-8.74632
未嘗	-8.7465
養	-8.75179
爵	-8.75198
眞	-8.7521
裴	-8.75257
碑唐	-8.75267
脩	-8.7548
後人	-8.755
以來	-8.75672
陶	-8.75818
邦	-8.75872
周公	-8.76091
陳氏	-8.76182
符	-8.7654
獲	-8.76599
揚	-8.76788
然則	-8.76988
丞	-8.77227
格	-8.77232
南京	-8.77554
門人	-8.77863
洛	-8.78281
芳	-8.78661
僅	-8.78762
恩	-8.7887
况	-8.78986
掌	-8.79334
葬	-8.79455
覽	-8.79501
像	-8.79535
見於	-8.79543
豐	-8.7955
將軍	-8.79755
憂	-8.79895
文王	-8.79958
之道	-8.8001
竊	-8.8004
李氏	-8.80094
貫	-8.80398
跋	-8.80555
復齋	-8.80642
后	-8.80825
毛	-8.80872
邵	-8.80894
瑞	-8.81428
𢎞	-8.81456
偶	-8.81525
天子	-8.81671
坤	-8.81698
一部二冊	-8.81708
勤	-8.81788
持	-8.81938
之間	-8.8199
綱	-8.82017
三十	-8.82146
哀	-8.82204
丹	-8.8222
刻石	-8.82221
規	-8.82416
池	-8.82518
覺	-8.82535
井	-8.82587
茂	-8.82824
旁	-8.82867
徵	-8.82876
殆	-8.83229
允	-8.83271
穆	-8.83371
敏	-8.83475
口	-8.83542
房	-8.83659
未有	-8.83778
其事	-8.83801
衍	-8.83928
額	-8.84085
不敢	-8.84099
岳	-8.84118
而無	-8.84129
俾	-8.84177
鑑	-8.84216
晚	-8.84222
寫	-8.8433
堯	-8.84331
堅	-8.84334
以下	-8.84371
均	-8.84506
累	-8.8474
棄	-8.84762
愈	-8.84764
第一	-8.84782
願	-8.84904
夫人	-8.84934
汪	-8.84957
衣	-8.84991
範	-8.85042
隂陽	-8.85046
隆	-8.85859
八分	-8.86052
甲	-8.86112
佐	-8.86167
教授	-8.86268
魚	-8.86375
集一卷	-8.86384
晋	-8.864
一人	-8.86465
園	-8.8656
被	-8.86714
誦	-8.86789
闕三	-8.86798
亦有	-8.86823
丞相	-8.86877
此本	-8.86917
十五卷	-8.8694
博士	-8.87008
機	-8.87049
牧	-8.87183
倫	-8.87222
不及	-8.8728
忽	-8.87386
慎	-8.87451
模	-8.87601
火	-8.87611
循	-8.87613
字伯	-8.8765
傅	-8.87865
祥	-8.87881
碑以	-8.8794
籍	-8.8795
其言	-8.88022
懷	-8.88026
先儒	-8.8819
軒	-8.88251
之義	-8.88528
横	-8.88556
唯	-8.88622
繁	-8.8869
十三	-8.88721
潘	-8.88804
恒	-8.8882
上下	-8.89042
念	-8.89149
閒	-8.89246
文集	-8.8935
浮	-8.89468
究	-8.89683
烈	-8.89779
之事	-8.89894
寛	-8.89969
尉	-8.90044
雪	-8.90113
邪	-8.90288
可謂	-8.90327
京兆金	-8.90339
勅	-8.90382
收	-8.90422
集十卷	-8.90551
喪	-8.90652
術	-8.9069
一巻	-8.90771
七年	-8.9104
十年	-8.91107
字仲	-8.91128
會	-8.9117
敢	-8.91222
鄭氏	-8.91447
廟碑	-8.91497
不足	-8.91516
皇帝	-8.91826
標	-8.92043
之法	-8.92112
奇	-8.922
故吏	-8.92282
完	-8.92362
玩	-8.92438
司空	-8.92449
弼	-8.92586
繫辭	-8.92731
假	-8.92751
學士	-8.92845
侍	-8.92944
皆有	-8.93056
布	-8.93153
一日	-8.933
書法	-8.93497
履	-8.93525
緯	-8.93631
費	-8.93657
来	-8.93682
某	-8.93824
須	-8.93884
一卷又	-8.93894
放	-8.94062
漸	-8.94083
撫	-8.94113
然後	-8.94119
易之	-8.94133
十八	-8.9433
三百	-8.94331
劉氏	-8.94362
𫝊	-8.94375
經傳	-8.94457
竟	-8.94532
靖	-8.94548
古人	-8.94649
忘	-8.94871
蘭	-8.94925
有所	-8.94983
苟	-8.9504
之類	-8.95073
雍	-8.95075
爾雅	-8.95277
庶	-8.95447
之說	-8.95701
錫	-8.95717
十五	-8.95927
富	-8.96061
稽	-8.96144
張氏	-8.96225
太宗	-8.96313
後漢	-8.96471
錯	-8.9661
姑	-8.96617
五行	-8.96649
繫	-8.96693
悟	-8.9681
彭	-8.96967
遠	-8.96976
評	-8.97027
増	-8.97057
演	-8.97132
開元	-8.97269
稍	-8.97288
乗	-8.97295
襄	-8.97298
毁	-8.97374
冬	-8.97505
九卷	-8.9785
朔	-8.9799
跡	-8.9801
夜	-8.9812
珍	-8.9874
刪	-8.98805
管	-8.98853
基	-8.99009
麟	-8.99149
息	-8.99288
强	-8.99294
報	-8.99311
伐	-8.99592
破	-8.99593
戴	-8.9961
七卷	-8.99657
太子	-8.99701
唐志	-8.99767
碑録	-8.99847
賞	-9.0011
秘	-9.00352
湯	-9.00402
䇿	-9.00419
聖人之	-9.00459
族	-9.00482
今在	-9.00519
幼	-9.00525
壽	-9.00585
欽	-9.00657
石錄	-9.00698
庸	-9.00745
其義	-9.0076
落	-9.00795
乆	-9.01117
發明	-9.01162
審	-9.01288
姓名	-9.01475
字畫	-9.0164
禮樂	-9.01646
十六	-9.01683
也故	-9.01722
館	-9.01878
紹	-9.01944
紙	-9.02082
苦	-9.02119
時人	-9.02176
䟦	-9.02465
係	-9.02477
樹	-9.02618
遣	-9.02626
振	-9.02662
損	-9.02965
徙	-9.02994
擇	-9.02995
熊	-9.03142
周官	-9.03185
勢	-9.03225
龜	-9.03271
鳴	-9.03277
助	-9.03408
不見	-9.03454
卜	-9.03608
宿	-9.03616
無所	-9.03767
宋志	-9.03865
賊	-9.04019
寓	-9.04111
鴻	-9.0414
花	-9.04204
兆	-9.04426
宰	-9.04523
十七	-9.04659
米	-9.04758
長安	-9.04793
本義	-9.04827
八卦	-9.04837
易傳	-9.05058
州人	-9.05097
啟	-9.05421
厥	-9.05493
否	-9.05529
面	-9.0567
包	-9.0581
敦	-9.05974
覆	-9.05979
潤	-9.05989
文公	-9.06084
寺碑	-9.06357
勞	-9.06386
録一卷	-9.06402
所作	-9.06523
撰并書	-9.06526
一時	-9.06553
介	-9.06554
洪範	-9.06577
雷	-9.06581
旦	-9.06609
抄	-9.06694
析	-9.06738
庵	-9.06776
老子	-9.06796
峯	-9.06869
寒	-9.0696
㣲	-9.0697
鳳	-9.0717
香	-9.07199
材	-9.07233
者皆	-9.07483
退	-9.07511
迹	-9.07624
壁	-9.0764
融	-9.07662
避	-9.07768
領	-9.07802
遵	-9.07831
翰	-9.0791
陰	-9.07921
所書	-9.07965
子夏	-9.08081
鑒	-9.0814
貞觀	-9.08173
啓	-9.08272
亮	-9.08273
藝	-9.08304
照	-9.08422
慮	-9.08527
十四卷	-9.08537
桓	-9.08545
孰	-9.08552
調	-9.08709
擢	-9.08753
闗	-9.08796
正義	-9.08839
增	-9.08857
此帖	-9.08865
栁	-9.08914
唐人	-9.08915
之士	-9.08935
梅	-9.09012
十四	-9.09078
驗	-9.0922
户	-9.09282
日月	-9.09297
蒙	-9.09319
右唐	-9.09353
是以	-9.09399
醫	-9.09553
藥	-9.09641
賛	-9.09708
罪	-9.10017
波	-9.10026
御史	-9.10058
一卷存	-9.10091
公羊	-9.10174
羽	-9.10218
酒	-9.10272
鳯	-9.1028
祝	-9.10304
帥	-9.10347
勿	-9.10619
細	-9.10655
録目	-9.10685
不復	-9.10893
賔	-9.10919
患	-9.11137
襲	-9.1122
静	-9.11256
淳	-9.11286
宅	-9.11328
慈	-9.11511
殺	-9.11527
其間	-9.11649
十九	-9.1173
八年	-9.11744
貢	-9.11782
懼	-9.11812
關	-9.11924
脱	-9.1238
抑	-9.12442
講義	-9.12537
亦不	-9.12677
聚	-9.12753
阿	-9.12931
三月	-9.13016
諡	-9.13032
十三卷	-9.13149
歟	-9.13152
吴	-9.13152
逹	-9.13193
大觀	-9.13213
九年	-9.13221
寜	-9.13249
惜	-9.13253
桂	-9.13303
胡氏	-9.13349
衞	-9.13462
勸	-9.13517
怪	-9.13637
足以	-9.13673
亨	-9.13736
嗚呼	-9.1377
舜	-9.13882
禁	-9.13898
想	-9.13912
其一	-9.1396
左傳	-9.13964
太極	-9.13988
舒	-9.14079
普	-9.14179
歐陽	-9.14231
舟	-9.143
謬	-9.14357
天寳	-9.14416
集注	-9.14462
仰	-9.14575
叅	-9.14604
荒	-9.14852
宇	-9.15127
以後	-9.15303
超	-9.15335
農	-9.15355
也其	-9.15369
孤	-9.15446
闕一	-9.15483
一本	-9.15547
歎	-9.15573
所著	-9.15678
橋	-9.16106
辯	-9.16117
一部三冊	-9.16122
乘	-9.16177
負	-9.16197
鄒	-9.16223
黨	-9.16277
豫	-9.16401
己	-9.16516
碑云	-9.16565
所藏	-9.16579
右漢	-9.16729
狀	-9.16766
契	-9.16792
害	-9.16923
遭	-9.17177
三傳	-9.17265
言之	-9.17273
伏羲	-9.17329
所見	-9.17374
借	-9.17394
恨	-9.17541
訪	-9.176
處士	-9.17826
一百	-9.17828
賀	-9.17846
配	-9.17871
讓	-9.17872
其辭	-9.17889
搨	-9.17915
之下	-9.18069
以其	-9.18118
何以	-9.1816
版	-9.18417
逢	-9.18482
六十	-9.18545
麗	-9.18646
兄	-9.18702
十六卷	-9.18835
俊	-9.18847
聽	-9.18885
俞	-9.18912
而為	-9.18951
碑在	-9.19086
所得	-9.19163
之辭	-9.19235
洪武	-9.19248
筆法	-9.19296
奏議	-9.19297
密	-9.1935
仲尼	-9.19419
接	-9.19448
樞	-9.19482
秉	-9.19534
玄	-9.19584
字元	-9.19627
陳振孫曰	-9.19928
薄	-9.19962
集解	-9.2004
眀	-9.20068
侍中	-9.20176
擬	-9.20254
一書	-9.20331
納	-9.20506
輕	-9.20539
辰	-9.20775
讀易	-9.20803
徃	-9.20832
苑	-9.209
虛	-9.20946
集本	-9.20977
楷	-9.20987
十月	-9.21064
烏	-9.21139
靜	-9.21232
署	-9.21314
紫	-9.21525
潛	-9.21528
剛	-9.21585
劉向	-9.21606
策	-9.21677
者亦	-9.21828
觧	-9.2183
牛	-9.22012
道士	-9.22021
頭	-9.22032
戰	-9.22208
待	-9.22382
其名	-9.2242
結	-9.22448
文章	-9.22493
浩	-9.22522
漢儒	-9.22711
四十卷	-9.22762
黄帝	-9.2306
五十	-9.23074
所傳	-9.23294
南陽	-9.2338
乞	-9.2343
虎	-9.2351
徽	-9.23538
之子	-9.23662
種	-9.23708
宻	-9.23769
懿	-9.23799
歳	-9.24128
效	-9.24135
括	-9.24402
緒	-9.24418
賓	-9.24469
採	-9.24471
輒	-9.24541
本朝	-9.24609
較	-9.24687
司徒	-9.24702
梓	-9.24788
諸道石	-9.24854
天下之	-9.24862
讀書	-9.24864
一部四冊	-9.24902
託	-9.24925
壇	-9.24962
塔	-9.24977
判	-9.24996
二篇	-9.25232
送	-9.25248
程子	-9.2525
婦	-9.25255
傷	-9.25259
側	-9.25321
從事	-9.25342
著書	-9.25646
正月	-9.25647
之名	-9.2572
孔氏	-9.25839
委	-9.25918
童	-9.25962
必有	-9.26028
諸生	-9.26075
不合	-9.26233
姜	-9.26266
鶴	-9.26363
自號	-9.2646
以上	-9.26582
沒	-9.26652
輿	-9.26654
測	-9.2666
其為	-9.26686
将	-9.26696
頃	-9.2672
索	-9.2693
滿	-9.26966
誌	-9.26971
訂	-9.26974
郊	-9.27067
故曰	-9.27069
遜	-9.27078
貶	-9.27102
崖	-9.27119
太平	-9.2712
之數	-9.2714
璧	-9.27341
寅	-9.27347
罷	-9.27402
無不	-9.27429
偉	-9.27446
邊	-9.27528
板	-9.27726
營	-9.27729
到	-9.27756
大義	-9.27764
鏡	-9.27775
屋	-9.28214
漫	-9.28413
後魏	-9.28451
名曰	-9.28565
也然	-9.28602
二月	-9.28665
前後	-9.28698
衰	-9.28785
程氏	-9.28891
大中	-9.28929
十二月	-9.29142
記一卷	-9.29241
各有	-9.29315
攻	-9.29319
雙	-9.29378
之心	-9.29588
江西	-9.29765
翰林	-9.29847
本傳	-9.30033
圖次	-9.30042
府君	-9.30059
中有	-9.3006
諸書	-9.30094
妻	-9.3014
楊氏	-9.30191
册	-9.30272
禄	-9.30344
子孫	-9.30386
誤作	-9.30409
誰	-9.3044
詠	-9.30487
享	-9.30507
赤	-9.3082
而下	-9.30831
後有	-9.30894
喬	-9.31206
勒	-9.31254
人也	-9.31299
往往	-9.31365
彌	-9.31437
殘	-9.31476
刺	-9.3152
釋文	-9.31534
之中	-9.31601
慕	-9.31672
之語	-9.31706
髙宗	-9.31853
嘉定	-9.31886
鑿	-9.32058
也今	-9.32068
昇	-9.32292
逆	-9.32349
績	-9.32404
市	-9.32486
之外	-9.32503
圓	-9.32644
製	-9.32684
裕	-9.32708
掾	-9.32755
班	-9.32794
侍郎	-9.32817
付	-9.3284
見其	-9.32927
諫	-9.3306
十巻	-9.33082
導	-9.33205
漢書	-9.3323
縣令	-9.33244
成化	-9.33272
國公	-9.33485
太學	-9.3349
樊	-9.33523
永嘉	-9.33585
凢	-9.336
淳化	-9.33717
答	-9.33758
笑	-9.33848
朝廷	-9.33852
筮	-9.33857
味	-9.3386
闕四	-9.33908
趙氏	-9.33915
倉	-9.33951
斗	-9.33955
珠	-9.34008
角	-9.34019
刺史	-9.34039
為之序	-9.3415
君碑	-9.34165
一冊	-9.34251
自序	-9.34326
貞元	-9.34409
於易	-9.34413
尺	-9.34579
鄧	-9.34667
安國	-9.34706
丗	-9.34798
偏	-9.34803
哲	-9.34962
六十四卦	-9.35031
河圖	-9.35149
露	-9.35235
舉人	-9.35322
干	-9.35465
淺	-9.35547
勉	-9.35595
考之	-9.35597
河東	-9.35613
勲	-9.35668
祐	-9.35685
真蹟	-9.35745
世之	-9.35871
知其	-9.36012
戎	-9.36058
荆	-9.3624
始於	-9.3625
屢	-9.36458
太和	-9.36504
論一卷	-9.36507
之功	-9.3656
本末	-9.36736
三代	-9.36793
征	-9.36806
二人	-9.36836
段	-9.36901
一卷未見	-9.3701
舎	-9.37116
蔣	-9.37135
鼓	-9.37188
黄氏	-9.37206
由是	-9.37208
惑	-9.37223
字缺	-9.3734
誥	-9.37348
見之	-9.37637
懸	-9.37653
竇	-9.37676
柔	-9.37703
魯公	-9.37757
副	-9.37813
不載	-9.37833
革	-9.37854
是非	-9.38022
蒼	-9.3805
悲	-9.38051
僕	-9.38069
寄	-9.38128
役	-9.38171
京師	-9.38254
象數	-9.3828
其餘	-9.38293
求之	-9.38315
之際	-9.38417
旨	-9.38446
社	-9.38518
不然	-9.38523
輩	-9.38698
咸通	-9.38735
書之	-9.38831
黃	-9.3886
創	-9.38883
彖	-9.38942
奥	-9.38966
九經	-9.38983
重修	-9.3901
督	-9.39235
早	-9.39306
㑹稽	-9.3931
之徒	-9.39362
東坡	-9.39379
郎中	-9.39575
沙	-9.39583
七月	-9.39723
免	-9.39764
彰	-9.39772
危	-9.39784
詩集	-9.39866
集傳	-9.4003
北齊	-9.40064
岐	-9.40066
毅	-9.40104
之時	-9.40199
其意	-9.40261
洛陽	-9.40349
成都	-9.40366
太尉	-9.40485
澄	-9.4059
頴	-9.40598
謁	-9.40634
爰	-9.40656
閲	-9.40664
誅	-9.40666
乾坤	-9.40666
獄	-9.40863
四方	-9.4093
五百	-9.40933
辛	-9.40945
骨	-9.41022
或作	-9.41111
候	-9.41117
操	-9.41163
決	-9.41169
勁	-9.4133
炎	-9.4134
叟	-9.41408
含	-9.41512
今文	-9.41545
縱	-9.41571
决	-9.41605
不為	-9.4167
者則	-9.41737
曉	-9.41868
繹	-9.41883
違	-9.41936
官至	-9.41959
晏	-9.41972
樵	-9.42146
背	-9.42357
甲子	-9.42381
定武	-9.424
蔵	-9.42432
逮	-9.42479
五月	-9.42574
互	-9.4274
卑	-9.42789
彚	-9.42824
縁	-9.42831
三家	-9.42866
禪師	-9.4287
不過	-9.43021
公之	-9.43122
攝	-9.4316
圭	-9.43369
郡守	-9.43441
通志	-9.43509
訛	-9.43544
叢	-9.43593
艮	-9.43602
至今	-9.43882
詩一卷	-9.43899
𢎞治	-9.43906
禪	-9.43943
毋	-9.44137
箋	-9.44311
従	-9.44384
嵩	-9.44418
則有	-9.4443
暢	-9.44512
鮮	-9.44549
吉凶	-9.44559
集二卷	-9.44629
莫不	-9.4466
四十	-9.44706
左右	-9.44738
子曰	-9.44895
蔡氏	-9.44896
近世	-9.44979
靡	-9.44995
塞	-9.45023
之餘	-9.45044
月令	-9.45131
六月	-9.4517
存者	-9.45236
十八卷	-9.45239
敗	-9.45273
姓氏	-9.45323
所記	-9.45323
蔡邕	-9.45447
毎	-9.4546
元和	-9.45752
齋集	-9.4581
巨	-9.45848
津	-9.45865
京兆	-9.45875
三字	-9.46009
書目	-9.46054
異同	-9.4618
以明	-9.4633
義理	-9.46477
國語	-9.46565
急	-9.46718
敷	-9.46789
徐氏	-9.46878
之傳	-9.46904
聘	-9.4692
分書	-9.46983
卓	-9.47007
四月	-9.47142
霸	-9.47152
鳥	-9.47224
注云	-9.47238
黎	-9.4724
其子	-9.47352
躬	-9.47463
支	-9.47661
秩	-9.47665
䕶	-9.477
繆	-9.47861
削	-9.47903
之㫖	-9.47957
吟	-9.48025
植	-9.48119
邱	-9.48202
府志	-9.48208
一二	-9.4822
歴代	-9.48297
系	-9.48393
整	-9.48503
故事	-9.48533
成書	-9.48543
㳺	-9.48582
彛	-9.48664
以此	-9.48834
巻	-9.48915
環	-9.49025
桑	-9.49063
吕氏	-9.49084
肇	-9.4911
國史	-9.49173
至正	-9.49355
肆	-9.49399
挍	-9.4945
回	-9.49453
専	-9.4946
龔	-9.49488
罕	-9.4956
之作	-9.4957
給	-9.4987
祚	-9.4997
騎	-9.49979
綂	-9.49979
碣	-9.50019
閩	-9.50021
中興	-9.50045
父子	-9.50109
集二十卷	-9.50196
法帖	-9.50233
先後	-9.50261
國子監	-9.5032
該	-9.50429
軌	-9.50437
詣	-9.50451
趨	-9.50494
庶幾	-9.50497
傳注	-9.50628
瞻	-9.50722
廿	-9.50775
十一年	-9.50869
五十卷	-9.50904
其中	-9.50973
丈	-9.51136
褒	-9.51172
單	-9.51185
全書	-9.51194
鐫	-9.5121
討	-9.51238
譏	-9.51359
北海	-9.5141
九月	-9.51476
刻録	-9.51511
禹貢	-9.51701
云云	-9.51704
屈	-9.51765
其學	-9.51803
易解	-9.51803
也夫	-9.51942
刻之	-9.51957
篤	-9.52027
集三卷	-9.52037
祕	-9.52119
以前	-9.52178
之論	-9.52231
甘	-9.52249
兒	-9.52293
摘	-9.52328
柳	-9.52346
旣	-9.52353
人之	-9.52363
皆以	-9.52436
不相	-9.52575
者有	-9.52577
四字	-9.52636
熙	-9.52637
防	-9.52669
熈	-9.52672
曾子	-9.52683
洽	-9.52814
根	-9.52837
書成	-9.52981
通鑑	-9.53026
𨽻書	-9.53117
天地之	-9.5322
裔	-9.53236
男	-9.53294
知縣	-9.53314
用之	-9.53362
畏	-9.53374
書者	-9.53376
不著	-9.53377
没	-9.53703
優	-9.53801
弱	-9.53853
􁀙	-9.53876
易學	-9.53931
國朝	-9.54023
經一卷	-9.54097
太史	-9.54106
準	-9.5415
之所以	-9.54186
懋	-9.54247
扶	-9.54266
之理	-9.54275
曰吾	-9.54299
盈	-9.54329
不應	-9.54411
琴	-9.54486
朱氏	-9.5451
乙	-9.54623
淮	-9.54636
義疏	-9.54672
集四卷	-9.54701
藻	-9.5472
陞	-9.54783
耕	-9.54789
迄	-9.54835
十七卷	-9.5502
羊	-9.55056
臯	-9.55133
葛	-9.55191
文義	-9.55272
倣	-9.55281
宋史	-9.55355
大抵	-9.55384
元祐	-9.55476
又以	-9.555
韶	-9.55517
恵	-9.5553
外傳	-9.55594
塗	-9.55709
育	-9.55773
銅	-9.55814
村	-9.55825
宰相	-9.55931
年月	-9.55944
三禮	-9.55947
預	-9.56021
闡	-9.56234
不傳	-9.56407
訪碑	-9.56488
第二	-9.56526
浦	-9.56571
陋	-9.56611
鐘	-9.56631
併	-9.56724
探	-9.56762
凶	-9.56774
儉	-9.56782
致仕	-9.56856
窺	-9.56886
大小	-9.56935
二十四	-9.56949
之上	-9.57183
幹	-9.57202
奚	-9.57267
訓詁	-9.5727
也而	-9.57386
萬物	-9.57394
折衷	-9.57427
不以	-9.57469
量	-9.5758
只	-9.57598
朗	-9.57738
御製	-9.57775
誕	-9.57799
之禮	-9.5787
其下	-9.57985
未能	-9.58046
壯	-9.58152
之故	-9.58216
焚	-9.58238
招	-9.58298
痛	-9.58327
八月	-9.58595
函	-9.58629
趣	-9.58682
兄弟	-9.58685
文選	-9.58725
長史	-9.58759
局	-9.5876
荀	-9.5877
邢	-9.5879
五代	-9.58844
相傳	-9.58988
其人	-9.59
一行	-9.59032
諸經	-9.59123
取其	-9.59167
行於世	-9.59198
榖	-9.59211
謫	-9.59227
禮部尚書	-9.59235
鹿	-9.59241
輙	-9.59331
蒲	-9.59351
況	-9.59357
者其	-9.59439
涇	-9.59439
崇禎	-9.59457
十一卷	-9.59541
者為	-9.59541
▁同上	-9.59581
大全	-9.59615
喻	-9.59665
江南	-9.59748
偹	-9.59782
舞	-9.59799
大業	-9.59829
階	-9.59837
先天	-9.59924
乖	-9.59927
建安	-9.5993
可見	-9.60136
諸子	-9.60148
倪	-9.60172
崇文總目	-9.60247
恕	-9.60309
歴官	-9.60419
塵	-9.60424
王應麟曰	-9.60517
字叔	-9.60551
卜筮	-9.6058
其說	-9.60614
髙祖	-9.60708
謨	-9.60813
駕	-9.6084
曜	-9.60877
巧	-9.60882
悦	-9.60913
寵	-9.60922
太祖	-9.61112
百家	-9.61265
臧	-9.61279
巳	-9.61339
豫章	-9.61483
馳	-9.61485
州志	-9.61491
武帝	-9.61529
臨川	-9.61631
小學	-9.61699
諭	-9.61776
誓	-9.61806
界	-9.61927
翰林學士	-9.62
王弼	-9.62005
因之	-9.62138
當作	-9.62152
伏生	-9.62158
研	-9.62284
文學	-9.62285
漢志	-9.62351
嶽	-9.62358
殘缺	-9.6236
㕥	-9.62428
峻	-9.62462
者以	-9.62516
主簿	-9.62522
十二年	-9.62554
實録	-9.62641
宣和	-9.62681
珪	-9.62841
藴	-9.62899
疎	-9.63
慧	-9.63011
八十	-9.63031
獻之	-9.63163
傳之	-9.63213
羲	-9.63214
渠	-9.63221
字文	-9.63231
十三年	-9.63238
不可以	-9.63346
帝王	-9.63449
三篇	-9.63476
席	-9.63496
救	-9.63515
鄙	-9.63525
通考	-9.63525
滋	-9.63545
徑	-9.63569
所為	-9.63614
十四年	-9.63701
亷	-9.63725
聖賢	-9.6376
墳	-9.63815
經文	-9.63928
注疏	-9.63963
夕	-9.63967
而有	-9.64005
未見黄虞稷曰	-9.64023
垣	-9.64029
漏	-9.64051
協	-9.64077
苐一千	-9.64088
汝南	-9.64112
驚	-9.64117
僞	-9.64328
一函	-9.64384
失其	-9.64399
之妙	-9.64401
歩	-9.64413
粹	-9.64535
奔	-9.64609
厲	-9.64632
然而	-9.64688
歐陽公	-9.64723
失之	-9.64913
如是	-9.64952
了	-9.64989
峰	-9.65031
駁	-9.65134
牒	-9.65151
古之	-9.65151
歸藏	-9.65284
圖一卷	-9.65365
以示	-9.65405
柱	-9.65413
襍	-9.65574
亦無	-9.6559
黙	-9.65636
鈔	-9.65642
辨疑	-9.65677
二巻	-9.65684
翻	-9.65931
十一月	-9.65954
得失	-9.66036
太常	-9.66086
太𤣥	-9.66094
者矣	-9.66095
庫	-9.66144
之末	-9.66254
朱文公	-9.66309
君之	-9.66334
變化	-9.66342
淑	-9.66582
以求	-9.66676
㡬	-9.66738
罔	-9.66754
十二篇	-9.6679
擊	-9.66803
沉	-9.66814
譔	-9.66826
一部五冊	-9.66908
所刻	-9.66966
潭	-9.67012
篆書	-9.6725
禮部	-9.67254
裂	-9.67291
藉	-9.67353
責	-9.67354
閔	-9.67357
七十	-9.67677
山人	-9.6768
昧	-9.67754
援	-9.67811
褚	-9.67816
東漢	-9.6784
儒者	-9.67914
潜	-9.67916
世傳	-9.67974
無疑	-9.68009
蹟	-9.68333
之制	-9.68336
姪	-9.68424
裁	-9.6843
飲	-9.68462
旅	-9.68469
慰	-9.68495
君臣	-9.68498
草書	-9.68501
蘓	-9.68503
内外	-9.68507
禍	-9.68679
頥	-9.68743
之則	-9.68744
而成	-9.68813
傑	-9.68949
列傳	-9.68959
藩	-9.69021
綜	-9.69033
崑山	-9.69076
帶	-9.69082
節度	-9.6926
荘	-9.69384
觀其	-9.69391
之易	-9.69428
昏	-9.69452
二卷又	-9.69498
文言	-9.69525
矣然	-9.69584
竝	-9.69613
逰	-9.69635
俟	-9.69726
寡	-9.69769
道之	-9.6982
甞	-9.69858
之用	-9.69881
鬼	-9.69999
郷	-9.70025
伊川	-9.70072
潔	-9.70176
坊	-9.70185
渾	-9.70245
廬	-9.70258
冬官	-9.70288
不言	-9.7042
題曰	-9.70572
事實	-9.70573
未必	-9.70599
飾	-9.70691
挺	-9.70739
頓	-9.70741
翔	-9.70741
涉	-9.70746
匡	-9.70752
遽	-9.70761
或問	-9.70829
何氏	-9.70969
芝	-9.71059
天寶	-9.7107
一家	-9.71118
六十四	-9.71119
屏	-9.71124
孫氏	-9.7117
謚	-9.71229
隷	-9.71231
祈	-9.71273
圖書	-9.71284
易經	-9.71345
覩	-9.71349
家語	-9.71379
孔安國	-9.71444
也按	-9.7145
邕	-9.71458
泥	-9.7148
伊	-9.7178
坎	-9.71855
煩	-9.71876
顔魯公	-9.71933
人物	-9.71944
御書	-9.71961
孚	-9.72196
名臣	-9.72281
明年	-9.72313
集五卷	-9.72333
瓊	-9.72501
皇朝	-9.72505
斥	-9.72538
諡文	-9.72629
書也	-9.72681
九十	-9.72704
唐贈	-9.72775
武王	-9.72779
之屬	-9.72912
拙	-9.72996
二十四卷	-9.73157
賴	-9.73183
沙門	-9.7322
詩書	-9.73337
所撰	-9.73401
人事	-9.73623
逐	-9.7368
誣	-9.73734
確	-9.74069
旋	-9.74156
域	-9.74193
䟽	-9.7422
東萊	-9.74233
柏	-9.74239
咏	-9.74263
經籍	-9.7427
小序	-9.74284
二十二	-9.74346
上之	-9.74355
踰	-9.7438
庵集	-9.74429
漕	-9.74459
其父	-9.74484
從之	-9.74517
之前	-9.74531
於後	-9.74626
邵子	-9.7465
一部六冊	-9.7473
前有	-9.74793
陸氏	-9.74829
凌	-9.74854
給事中	-9.74923
自是	-9.7517
話	-9.75171
属	-9.75201
次第	-9.7524
三十六	-9.75278
一百卷	-9.75295
後學	-9.75307
顧作	-9.75349
間有	-9.7538
盟	-9.75388
湛	-9.75413
一帖	-9.75417
奪	-9.75427
与	-9.75453
彪	-9.75476
匪	-9.75518
争	-9.75566
不必	-9.75567
公碑	-9.75731
雜記	-9.75826
沛	-9.75834
之失	-9.75841
稱其	-9.75896
晁	-9.75908
也又曰	-9.75961
億	-9.75967
蕃	-9.76054
居士	-9.76249
帙	-9.76329
十翼	-9.76419
孔作	-9.76429
投	-9.76592
僭	-9.76647
迎	-9.76662
猶有	-9.7667
混	-9.76689
滕	-9.76693
婁	-9.76704
壊	-9.76735
殘碑	-9.7709
提	-9.77197
發揮	-9.77236
境	-9.77242
菴	-9.77298
塘	-9.77304
薨	-9.77304
儲	-9.77315
錄一部一冊	-9.7732
誼	-9.77325
攸	-9.77328
傾	-9.77348
相與	-9.77402
新安	-9.77439
饒	-9.77463
明皇	-9.77515
地理	-9.7755
藝文志	-9.7757
書院	-9.77574
南唐	-9.77597
問答	-9.77647
肥	-9.77662
嘆	-9.77721
喪服	-9.77868
濬	-9.77892
者不	-9.77898
茶	-9.77952
蔽	-9.77952
快	-9.77965
歐	-9.78099
山谷	-9.78105
一卷佚	-9.78173
易者	-9.78219
淳熙	-9.78235
永樂	-9.78281
刻於	-9.78304
士大夫	-9.78306
萬世	-9.78329
闕五	-9.78404
勑	-9.78433
迂	-9.78485
巡	-9.78518
湘	-9.78524
牟	-9.78531
傳云	-9.7854
之變	-9.78546
淫	-9.78555
福建	-9.78573
排	-9.78586
胥	-9.78594
使人	-9.78616
詩傳	-9.78643
也又	-9.78667
冀	-9.78725
二十八	-9.78786
舊本	-9.78881
明堂	-9.78942
子思	-9.79008
編次	-9.79074
二書	-9.79095
泰山	-9.79104
二十年	-9.79155
凖	-9.79167
險	-9.79173
奕	-9.79175
之地	-9.79229
本於	-9.79347
晁公武曰	-9.79407
二十七	-9.79477
朕	-9.79578
十五年	-9.79612
鉉	-9.79672
項	-9.79747
監察御史	-9.79748
欽定四庫全書	-9.79774
隸	-9.79816
詩經	-9.79928
未及	-9.80102
知府	-9.80156
槩	-9.80196
之序	-9.8021
後周	-9.80288
然其	-9.80309
萃	-9.80334
禎	-9.80352
逸少	-9.80356
戚	-9.80406
闢	-9.80426
劍	-9.80431
同異	-9.80443
不類	-9.80505
訣	-9.80513
下有	-9.80525
諸公	-9.80581
經史	-9.80699
遺稿	-9.80714
則曰	-9.80854
繇	-9.80869
蓍	-9.80929
黜	-9.8108
之舊	-9.81102
逵	-9.81103
即位	-9.81122
步	-9.81124
怒	-9.81125
劉歆	-9.8113
五字	-9.81186
政和	-9.81188
有司	-9.81291
目録	-9.81358
吏部尚書	-9.81485
齡	-9.81492
上有	-9.81528
非也	-9.81531
學易	-9.81548
大字	-9.81621
錄目	-9.81646
耀	-9.81674
暨	-9.81687
隆慶	-9.81695
爭	-9.81712
䘮	-9.81715
磨	-9.81723
蕩	-9.8173
詩序	-9.81732
所引	-9.8176
立碑	-9.81792
易説	-9.81813
十冊	-9.82012
觀之	-9.82015
節度使	-9.82078
二十五	-9.82118
而作	-9.82243
東南	-9.82245
噐	-9.82269
綴	-9.82318
其先	-9.82333
鋒	-9.82343
敕	-9.82382
春秋傳	-9.82515
𤣥宗	-9.82539
之本	-9.82541
四時	-9.82589
嘗為	-9.826
巴	-9.82613
鄭康成	-9.82673
生於	-9.8273
之於	-9.82791
所云	-9.82874
不明	-9.82888
門生	-9.82977
崩	-9.82991
隅	-9.83007
困	-9.83053
却	-9.83057
未詳	-9.83139
仕至	-9.83371
頒	-9.8342
譜一卷	-9.83497
藁	-9.83547
鹽	-9.83562
鸞	-9.83621
禽	-9.83674
讀之	-9.83732
集六卷	-9.83779
集一部一冊	-9.83852
墜	-9.83871
終於	-9.83901
周氏	-9.8407
第三	-9.84208
摭	-9.84249
枝	-9.8427
遲	-9.8427
碎	-9.84273
摩	-9.84281
邁	-9.84308
醇	-9.84311
冩	-9.84365
播	-9.84387
乙未	-9.84404
著述	-9.84541
無以	-9.84595
堯舜	-9.84609
古易	-9.84693
未盡	-9.84797
財	-9.84891
冢	-9.84904
是故	-9.8494
圃	-9.84951
脫	-9.84953
郁	-9.84974
縣人	-9.85031
東海	-9.85072
赴	-9.85212
而不知	-9.85304
庚	-9.85314
僅存	-9.85323
嘉祐	-9.85341
易也	-9.85408
三十二	-9.85416
太原	-9.85445
冲	-9.85465
學官	-9.85538
絳	-9.85564
三日	-9.85609
旌	-9.85622
騰	-9.85625
㠯	-9.85628
漢人	-9.85634
築	-9.85639
的	-9.85647
蝕	-9.85668
淳熈	-9.85672
或以	-9.85686
題云	-9.85704
唐書	-9.85704
三人	-9.85748
自然	-9.85809
重刻	-9.85842
豈不	-9.85864
無窮	-9.85908
遼	-9.85925
經義	-9.85981
廟記	-9.86003
類編	-9.86015
未知	-9.86088
鄱陽	-9.86106
丹陽	-9.86202
短	-9.86203
伸	-9.8623
祭酒	-9.86261
𥘉	-9.86305
鄭𤣥	-9.86339
元豐	-9.86375
真人	-9.86441
亦云	-9.86461
開皇	-9.86491
字體	-9.86539
小字	-9.86677
榖梁	-9.8681
午	-9.8682
之初	-9.86838
成王	-9.86868
壺	-9.86902
諤	-9.86946
粗	-9.86948
岡	-9.86964
今本	-9.86969
大將軍	-9.87063
杜預	-9.87072
之盛	-9.87116
靈帝	-9.87121
際	-9.87182
安得	-9.87183
堂集	-9.87192
或曰	-9.87198
溥	-9.87424
所聞	-9.87451
制度	-9.87499
秦漢	-9.87514
有二	-9.87519
雕	-9.87644
鄴	-9.8769
山東	-9.87778
首尾	-9.8784
之象	-9.87841
皆不	-9.8791
以成	-9.87954
天台	-9.87959
取之	-9.87993
同時	-9.88069
嗟	-9.88149
譌	-9.8821
洲	-9.88255
盤	-9.88258
者必	-9.88274
或有	-9.88306
渉	-9.88325
䖍	-9.88328
災	-9.88333
輝	-9.88335
唐李	-9.88345
汴	-9.8837
迨	-9.88374
束	-9.88375
或云	-9.88401
東平	-9.88702
浙江	-9.88715
疇	-9.88739
沖	-9.88971
是時	-9.88989
山川	-9.88994
也此	-9.89135
一曰	-9.89273
後漢書	-9.89338
可也	-9.89426
磨滅	-9.89467
檢	-9.89469
衢	-9.89474
墓碑	-9.89534
則又	-9.89594
長沙	-9.89622
平生	-9.89624
聖經	-9.89694
繪	-9.89724
𦙍	-9.89725
暴	-9.89752
寂	-9.89764
改元	-9.89775
班固	-9.89838
不盡	-9.89896
久矣	-9.89951
分為	-9.90022
石本	-9.90172
太傅	-9.90232
經學	-9.90253
足下	-9.90273
者乎	-9.90327
尾	-9.90345
坡	-9.90359
筠	-9.90393
宦	-9.90413
今觀	-9.90433
字季	-9.90433
亟	-9.90465
石墨鐫華	-9.90466
紫陽	-9.90538
奉勅	-9.90565
施作	-9.9067
仁義	-9.90779
音義	-9.90804
吏部	-9.91093
中書舍人	-9.91095
供	-9.91105
庻	-9.91108
三巻	-9.91145
抱	-9.91169
拾遺	-9.91188
訖	-9.91199
附於	-9.91202
字汝	-9.91343
閏	-9.91546
凝	-9.9158
文帝	-9.91596
集古録	-9.91607
博學	-9.9166
簿	-9.91668
□(	-9.91671
州都督	-9.91688
譚	-9.91741
副使	-9.91796
廬陵	-9.91834
沿	-9.91866
祗	-9.91883
十篇	-9.9195
行事	-9.92024
孺	-9.92025
程朱	-9.92111
吳氏	-9.92201
忌	-9.92373
家藏	-9.92463
布衣	-9.92544
羙	-9.92553
寕	-9.92561
㝠	-9.92582
傍	-9.92593
滯	-9.92601
乏	-9.92652
編年	-9.92705
豈非	-9.92707
産	-9.92791
云爾	-9.92857
金陵	-9.92947
其上	-9.92956
戰國	-9.9298
謂其	-9.9319
稷	-9.93193
霞	-9.93218
止於	-9.93244
矩	-9.93246
犯	-9.93288
呼	-9.93311
何也	-9.93319
之誤	-9.93321
精義	-9.93449
為一	-9.93495
書傳	-9.93506
連山	-9.9364
山陽	-9.93674
貧	-9.93738
祁	-9.93783
之世	-9.93824
碑文	-9.93878
二十三	-9.93927
君諱	-9.93953
搜	-9.93959
潁川	-9.93977
剥	-9.93996
迷	-9.93997
録二卷	-9.94032
寔	-9.94037
圍	-9.94038
譽	-9.94062
二十一	-9.94062
正徳	-9.94108
之要	-9.943
之詩	-9.94351
所有	-9.94471
猷	-9.94475
鐵	-9.94589
則其	-9.94606
一部十冊	-9.94613
胄	-9.94679
考工記	-9.94693
繩	-9.94697
咨	-9.94745
詢	-9.94751
噫	-9.94769
小篆	-9.94798
書中	-9.9487
經世	-9.95016
千古	-9.95038
三千	-9.95099
雖有	-9.95276
先王	-9.9531
以俟	-9.95383
邈	-9.95411
錦	-9.95457
沂	-9.95461
走	-9.95463
眼	-9.95468
閱	-9.95524
綸	-9.95724
行之	-9.95743
炳	-9.95743
▁立	-9.95758
㸃	-9.95774
莫能	-9.95786
集八卷	-9.95826
天文	-9.95833
有云	-9.95867
説文	-9.96004
慨	-9.96034
距	-9.96059
之日	-9.96076
衍義	-9.96089
銓	-9.9612
治平	-9.9613
大令	-9.96144
員	-9.96156
數十	-9.96216
拘	-9.9623
㓜	-9.96237
不足以	-9.96237
敵	-9.96261
爻辭	-9.96337
易象	-9.96423
綱目	-9.96477
襄陽	-9.96534
而卒	-9.96537
嵗月	-9.96539
三十年	-9.9654
仁宗	-9.96575
曲禮	-9.9661
東都	-9.96744
洪武中	-9.96847
碧	-9.96872
嬰	-9.96876
悔	-9.96884
賤	-9.96886
是編	-9.96941
宮	-9.96947
抗	-9.96973
記唐	-9.96994
爽	-9.97011
澹	-9.97017
瀆	-9.97027
皇甫	-9.97077
其實	-9.97098
之書也	-9.97102
正統	-9.97124
不免	-9.97152
都尉	-9.97266
學之	-9.97339
二冊	-9.97351
孝子	-9.97553
濳	-9.97603
魏晉	-9.97657
穿鑿	-9.9767
大厯	-9.9767
晦庵	-9.9769
也余	-9.97697
聴	-9.97714
徧	-9.97724
甲辰	-9.97741
聊	-9.9775
傳一卷	-9.97778
檢校	-9.98011
倍	-9.98057
今日	-9.98137
出入	-9.98147
諸人	-9.98159
亦以	-9.98162
台	-9.98336
庾	-9.98383
訥	-9.98403
屯	-9.98415
奎	-9.98446
榜	-9.98455
玊	-9.98473
披	-9.98493
奮	-9.98503
故其	-9.98536
金石文字記	-9.98536
康節	-9.98711
列於	-9.98728
其他	-9.98746
知之	-9.98776
河間	-9.98883
禮經	-9.98897
煥	-9.9901
一卷右	-9.99051
欣	-9.99098
巢	-9.99128
晨	-9.99143
小人	-9.99193
穿	-9.99198
䑓	-9.99228
閑	-9.99233
徃徃	-9.99267
肉	-9.99273
禇	-9.99292
倚	-9.99296
熈寧	-9.99346
嘉興	-9.99386
平原	-9.99426
鬼神	-9.99457
者又	-9.9976
杭	-9.99789
茅	-9.998
嶺	-9.99887
踐	-9.99935
教諭	-9.99946
眞蹟	-9.99982
鈐	-9.99994
寢	-9.99998
卧	-10
杖	-10.0002
翠	-10.0003
一名	-10.0005
岑	-10.0007
好古	-10.0009
不當	-10.002
注釋	-10.0027
林氏	-10.0029
先聖	-10.0031
左氏傳	-10.0036
二卷存	-10.0036
算	-10.0046
國家	-10.0048
不失	-10.0053
有功於	-10.0055
乎其	-10.0059
阮	-10.0061
序之	-10.0061
呂	-10.0063
熟	-10.0066
百篇	-10.0067
毛公	-10.0078
歷	-10.0078
廵	-10.0081
絲	-10.0081
健	-10.0082
當以	-10.0084
通判	-10.0085
大明	-10.0086
西漢	-10.0091
七十二	-10.0097
吳興	-10.0107
遂以	-10.0117
右皇朝	-10.0125
世家	-10.0128
自為	-10.0134
艾	-10.0151
鮑	-10.0153
膺	-10.0153
敎	-10.0155
之孫	-10.0155
㑹昌	-10.0157
揚雄	-10.016
祕閣	-10.0169
開成	-10.0179
安人	-10.0185
僖	-10.019
昭陵	-10.0192
儼	-10.0192
二碑	-10.0197
莆田人	-10.02
國之	-10.0201
纂要	-10.0202
史官	-10.0205
易說	-10.0206
尚有	-10.0207
八十一	-10.0217
渭	-10.0224
羲之	-10.0228
狄	-10.0231
散騎常侍	-10.0231
㫁	-10.0231
掩	-10.0237
綏	-10.0239
怨	-10.024
讖	-10.0245
時有	-10.0249
則知	-10.0251
千里	-10.0253
遺書	-10.0259
法師	-10.0262
矣而	-10.0265
古文尚書	-10.028
經解	-10.0298
杜氏	-10.0299
尚存	-10.031
壤	-10.0314
𦵏	-10.0314
許氏	-10.0314
森	-10.0315
勇	-10.0315
涼	-10.0316
戾	-10.0318
完好	-10.0328
陰陽	-10.0331
六藝	-10.0337
山隂	-10.035
事迹	-10.0354
自謂	-10.0363
不一	-10.0366
紛	-10.0373
以見	-10.0375
千載	-10.0375
儒學	-10.0382
耿	-10.0386
冕	-10.0388
艱	-10.039
誨	-10.0393
瑛	-10.0394
謹案右一帖草書	-10.0395
麓	-10.0395
冝	-10.0396
同上	-10.0401
别有	-10.0402
至元	-10.0403
則是	-10.0404
慶元	-10.0404
不出	-10.0412
智永	-10.0418
有功	-10.0423
常山	-10.0427
亦非	-10.043
陽人	-10.0435
神道碑	-10.0438
詩話	-10.0439
凡例	-10.0443
若此	-10.0446
熹	-10.045
㕘	-10.0453
十六年	-10.0454
疆	-10.0454
宣王	-10.0455
遺文	-10.0455
精微	-10.0457
金華	-10.0457
其本	-10.0459
南北	-10.0465
字景	-10.0468
柯	-10.0474
層	-10.0477
莊子	-10.0477
驛	-10.0478
強	-10.0478
字缺人	-10.0485
之首	-10.049
者多	-10.0492
不知其	-10.0494
終始	-10.0496
徐浩	-10.0501
得於	-10.0508
莆田	-10.051
詩一部一冊	-10.0515
不書	-10.0521
先生之	-10.0528
中立	-10.0548
之教	-10.0548
二十九	-10.0549
提舉	-10.0552
會稽	-10.0555
莭	-10.0557
獸	-10.0558
陷	-10.0559
穀梁	-10.056
軸	-10.0561
激	-10.0561
旬	-10.0566
流傳	-10.0567
其家	-10.0574
河内	-10.0585
誤也	-10.059
詩云	-10.0595
好事者	-10.0597
門下	-10.0597
易道	-10.0604
所稱	-10.061
先王之	-10.061
自有	-10.061
廉	-10.0618
佚按	-10.063
父母	-10.0631
固有	-10.0632
底	-10.0633
第四	-10.0633
乃知	-10.0635
鑄	-10.0637
㢲	-10.0638
拔	-10.0639
鄰	-10.0639
太師	-10.064
漢碑	-10.064
議論	-10.0646
杭州	-10.0654
曰此	-10.0659
與夫	-10.0659
兖	-10.0662
此其	-10.0667
不在	-10.0675
其地	-10.0679
暇	-10.0682
天之	-10.0686
洛書	-10.069
以来	-10.0693
翰林院檢討朱彝尊撰	-10.0695
詹	-10.0704
隱居	-10.0707
記云	-10.0709
神道	-10.0712
二十二卷	-10.0713
國子	-10.0716
作春秋	-10.072
璽	-10.0721
詭	-10.0721
看	-10.0724
截	-10.0724
仿	-10.0724
千文	-10.0725
叚	-10.0727
因以	-10.0731
所立	-10.0744
可疑	-10.075
序稱	-10.0752
睿	-10.0754
求其	-10.0763
一切	-10.0765
減	-10.0774
字彦	-10.0784
▁上	-10.0787
可知	-10.0789
傳授	-10.0793
者惟	-10.0795
鬱	-10.0801
豪	-10.0801
舊唐書	-10.0802
曷	-10.0802
補注	-10.0803
最為	-10.0803
尔	-10.0805
展	-10.0806
武后	-10.0809
累遷	-10.0816
人所	-10.0818
年號	-10.0818
於經	-10.0825
以正	-10.083
詮	-10.0837
以傳	-10.0838
多矣	-10.084
好學	-10.0855
不與	-10.0856
序云	-10.0864
若是	-10.0868
劉作	-10.0872
佑	-10.0881
鈎	-10.0882
卦爻	-10.0882
燈	-10.0882
五日	-10.0882
於前	-10.0883
割	-10.0886
潮	-10.0887
碩	-10.0887
亞	-10.0887
十卷佚	-10.0888
速	-10.0889
譙	-10.0891
八字	-10.0892
姦	-10.0892
濶	-10.0899
公穀	-10.09
高宗	-10.0912
者非	-10.0916
弓	-10.092
州碑記	-10.0922
無復	-10.0935
斯文	-10.0936
累官	-10.0938
以是	-10.0939
已上	-10.0939
諸篇	-10.0943
六字	-10.0947
而未	-10.0952
二家	-10.0953
何如	-10.0954
於斯	-10.0957
韓愈	-10.0957
缺一	-10.0958
衷	-10.0959
乃以	-10.096
此則	-10.096
歆	-10.0966
贅	-10.0971
四人	-10.0976
欺	-10.0976
題額	-10.0978
猶存	-10.0978
歿	-10.0979
唐太宗	-10.0989
字徳	-10.0994
五篇	-10.1005
春秋左傳	-10.1016
四冊	-10.102
大儒	-10.1021
補遺	-10.1022
二十巻	-10.1023
之門	-10.1026
何人	-10.1028
於朝	-10.1031
而非	-10.1046
周書	-10.1049
圖經	-10.105
集十二卷	-10.105
顛	-10.1055
貌	-10.106
冡	-10.106
遐	-10.1062
之精	-10.1065
中書	-10.1066
而其	-10.1067
一言	-10.1081
是正	-10.1082
朱子曰	-10.1083
成之	-10.1083
焦	-10.1087
於時	-10.1088
無錫人	-10.1095
前人	-10.1102
其於	-10.1103
書并篆額	-10.1108
稽古	-10.111
揆	-10.1114
治平元年	-10.1115
一章	-10.1116
廣東	-10.1117
㑹要	-10.1119
之不	-10.1124
跋曰	-10.1128
字孟	-10.1132
鵬	-10.1132
則以	-10.1133
可觀	-10.1134
得此	-10.1138
以自	-10.1139
閭	-10.1139
上柱國	-10.1143
措	-10.1143
競	-10.1147
冦	-10.1149
長慶	-10.1155
不用	-10.1156
七録	-10.1158
一一	-10.1161
大學士	-10.1173
考異	-10.1174
天道	-10.1182
太史公	-10.1185
板本	-10.1189
明矣	-10.1196
戸	-10.1197
莽	-10.1197
▁京兆	-10.1209
進退	-10.1212
詩文	-10.1215
爲之	-10.1216
於世	-10.1218
弊	-10.122
鼔	-10.1221
捨	-10.1231
諒	-10.1231
竭	-10.1232
孔子之	-10.1232
厭	-10.1234
粤	-10.1234
霜	-10.1235
随	-10.1237
第十	-10.1239
呉氏	-10.1239
大歴	-10.1244
樂府	-10.1247
損益	-10.1248
作傳	-10.1251
洪武初	-10.1253
新書	-10.1254
於天下	-10.1257
唐史	-10.1258
最後	-10.1266
寸	-10.1268
參政	-10.1279
有一	-10.128
字廷	-10.1281
以至	-10.1285
甚多	-10.1286
制作	-10.1287
明初	-10.1289
恪	-10.1289
神明	-10.1293
不知何	-10.1298
者如	-10.1302
不幸	-10.1307
魂	-10.131
几	-10.1312
宋志一卷佚	-10.1313
鉅	-10.1313
貽	-10.1316
鉤	-10.1318
子雲	-10.1318
宴	-10.1319
影	-10.1319
建炎	-10.132
纔	-10.132
陣	-10.1321
酌	-10.1321
住	-10.1322
本草	-10.1323
三十六卷	-10.1328
癸丑	-10.1331
若夫	-10.1339
大易	-10.134
孟氏	-10.1344
漢興	-10.1345
之文也	-10.1353
與此	-10.1357
宋人	-10.1359
别為	-10.1362
譯	-10.1364
錢塘人	-10.1365
志十卷	-10.1377
以備	-10.1387
今之	-10.1388
文武	-10.1391
湖州	-10.1395
課	-10.1398
諌	-10.1404
漁	-10.1404
大傳	-10.1407
座	-10.1407
弘	-10.1407
訓導	-10.1408
中興書目	-10.1412
亦可	-10.1417
張公	-10.1421
中和	-10.1424
馬融	-10.1424
未可	-10.1428
所述	-10.1431
六篇	-10.1434
什	-10.1446
宛	-10.1447
葉氏	-10.146
薛氏	-10.1464
而知	-10.1466
范氏	-10.1468
人名	-10.147
傳記	-10.1471
草木	-10.1474
舛	-10.1479
讀者	-10.1479
銜	-10.1482
之罪	-10.1485
胡一桂曰	-10.1485
琰	-10.1486
无	-10.1492
西南	-10.1493
則為	-10.1495
澂	-10.1495
矯	-10.1495
箴	-10.1495
警	-10.1496
牙	-10.1497
昨	-10.15
銀	-10.1502
古者	-10.1506
毫	-10.1518
不存	-10.1531
古本	-10.1532
毛氏	-10.1539
無傳	-10.1545
西山	-10.1545
四篇	-10.1545
季子	-10.1546
取諸	-10.1548
州刾史	-10.1551
受命	-10.1563
乾道	-10.1567
谿	-10.1569
永平	-10.157
皆非	-10.1572
四卷又	-10.1574
萊	-10.1576
王道	-10.1578
十有二	-10.158
朴	-10.1581
葵	-10.1582
年二月	-10.1584
矢	-10.1586
叛	-10.1587
鈞	-10.1587
暉	-10.1588
忤	-10.1589
奴	-10.1594
太公	-10.1602
所在	-10.1604
以字行	-10.1606
郡人	-10.1607
陸元輔曰	-10.1615
堪	-10.1617
所存	-10.1618
大衍	-10.1632
陳留	-10.1636
與前	-10.1637
合於	-10.1638
老人	-10.1639
錢氏	-10.1641
洗	-10.1644
潁	-10.1659
當世	-10.1665
考其	-10.1666
字公	-10.1667
佩	-10.1674
館閣書目	-10.1675
廣平	-10.1678
遍	-10.1679
樸	-10.1681
淳祐	-10.1684
大㫖	-10.1697
不行	-10.17
六百	-10.1702
文辭	-10.1705
而已矣	-10.1707
一也	-10.1709
其時	-10.1712
所録	-10.1714
修撰	-10.1718
名家	-10.1725
錢塘	-10.1727
異端	-10.1731
湖廣	-10.1733
京房	-10.1742
訣一卷	-10.1743
上書	-10.1744
四川	-10.1745
史傳	-10.1746
丘明	-10.1747
東陽	-10.1751
渙	-10.1762
軒集	-10.1762
雋	-10.1769
沈氏	-10.1769
祿	-10.1771
苗	-10.1772
那	-10.1772
徐鉉	-10.1772
顔氏	-10.1774
學校	-10.1784
翟	-10.1784
書經	-10.1791
晉書	-10.1793
先師	-10.1799
八篇	-10.18
六十卷	-10.1828
不就	-10.1828
補之	-10.1834
立石	-10.1835
兵部尚書	-10.1843
錄一卷	-10.1845
蘇氏	-10.1849
龎	-10.1859
弔	-10.1864
詆	-10.1865
淵源	-10.1866
烟	-10.1866
之難	-10.1867
甲午	-10.1867
狂	-10.1869
瘦	-10.1869
矦	-10.187
少卿	-10.1875
聖教序	-10.1886
年譜	-10.1886
人間	-10.1889
而復	-10.1897
立在	-10.1903
州府志	-10.1917
王肅	-10.1918
桐	-10.1923
城人	-10.1927
裒	-10.1927
澗	-10.1939
揲	-10.1951
壞	-10.1955
矜	-10.1955
光武	-10.1956
聖人之道	-10.1956
之謂	-10.1957
派	-10.1957
祥符	-10.1957
叶	-10.1958
庚午	-10.196
五官	-10.1962
娶	-10.1964
文獻	-10.1971
昆	-10.1973
馬氏	-10.198
明道	-10.1985
晚年	-10.1986
忍	-10.1989
其道	-10.199
不朽	-10.1994
也自	-10.2
注解	-10.2001
説卦	-10.2002
淮南	-10.2003
石室	-10.2003
穀	-10.2007
存焉	-10.2012
治亂	-10.2015
者乃	-10.2023
同而	-10.2025
於天	-10.2025
黄虞稷曰	-10.2028
豹	-10.2031
縣圖志二冊	-10.204
神仙	-10.2042
乂	-10.2043
擅	-10.2048
出為	-10.2049
尸	-10.2051
淡	-10.2053
廼	-10.2055
經筵	-10.2056
人心	-10.2059
十七年	-10.206
司馬遷	-10.2074
濟南	-10.2074
庚子	-10.2076
府君碑	-10.208
者何	-10.208
可讀	-10.2082
王安石	-10.2082
所自	-10.2082
先君	-10.2085
而止	-10.2087
原本	-10.2089
推之	-10.2092
紳	-10.2104
凡十	-10.2111
鄞縣人	-10.2111
口義	-10.2116
球	-10.212
禧	-10.2127
蜀人	-10.2127
羣書	-10.2128
周之	-10.2129
區	-10.2132
三十三	-10.2133
歸於	-10.2136
夲	-10.2137
訟	-10.2141
大成	-10.2141
康成	-10.2142
二公	-10.2143
太常博士	-10.2144
琅邪	-10.2145
偃	-10.2145
侵	-10.2146
㕔	-10.2148
溢	-10.2148
集又	-10.2148
三百六十	-10.2148
隔	-10.2153
公諱	-10.2159
周公之	-10.216
海内	-10.2163
嘗以	-10.2164
語録	-10.2167
内史	-10.2169
而得	-10.2169
舍人	-10.2177
子敬	-10.2187
他書	-10.2189
四明	-10.2198
史氏	-10.2199
政事	-10.2203
庠	-10.2207
經義考卷	-10.2219
朋	-10.2229
唐虞	-10.223
湜	-10.2232
醉	-10.2239
逃	-10.2239
曠	-10.224
迥	-10.224
敞	-10.224
宣帝	-10.2241
賁	-10.2241
道也	-10.2241
翊	-10.2241
輪	-10.2242
凉	-10.2242
遁	-10.2242
貪	-10.2244
盜	-10.2244
穴	-10.2244
本紀	-10.2245
都御史	-10.2246
俯	-10.2247
讐	-10.225
十里	-10.226
魯詩	-10.2273
年七月	-10.2276
非又	-10.2279
集義	-10.228
聞之	-10.2286
列國	-10.2287
七篇	-10.229
貞元十	-10.2291
愧	-10.2293
乎此	-10.2293
之體	-10.2294
次之	-10.2304
君名	-10.2313
多有	-10.2324
者蓋	-10.2326
弁	-10.2327
将軍	-10.233
技	-10.2334
托	-10.2335
雲南	-10.2337
卞	-10.2338
僻	-10.2338
収	-10.2339
雞	-10.2339
紅	-10.234
羡	-10.2346
又謂	-10.2347
僚	-10.2347
秘閣	-10.2351
反覆	-10.2351
第五	-10.2353
陜西	-10.2354
而言	-10.2357
猶未	-10.236
不可得	-10.2371
二十六卷	-10.2371
王子	-10.2374
其末	-10.2374
經之	-10.2392
集三十卷	-10.2411
録之	-10.2413
義例	-10.2422
三山	-10.2426
字君	-10.2427
禾	-10.2427
有三	-10.2428
琦	-10.2429
敘	-10.2429
公主	-10.2433
堂記	-10.2434
勛	-10.2434
􁬿	-10.2437
血	-10.2438
為主	-10.2438
貨	-10.244
媚	-10.2442
臻	-10.2442
氷	-10.2443
􁁊	-10.2446
圖説	-10.2446
未易	-10.2449
藏之	-10.2452
辛未	-10.2457
中郎	-10.2457
余嘗	-10.2462
末有	-10.2465
三公	-10.2466
丁未	-10.2477
三十五	-10.2477
欽定四庫全書經義考卷	-10.2482
然亦	-10.249
修身	-10.249
董氏	-10.2493
定為	-10.2493
晁氏	-10.2511
侍講	-10.2513
撰并正書	-10.252
尼	-10.2522
刊	-10.2523
之志	-10.2523
哭	-10.2523
碑陰	-10.2524
▁月	-10.253
讃	-10.2534
彥	-10.2534
襃	-10.2535
晝	-10.2539
年十月	-10.254
奄	-10.254
明經	-10.2541
名氏	-10.2542
二十六	-10.2549
中國	-10.2556
次序	-10.256
都督	-10.2561
丙午	-10.2565
可見者	-10.2568
功徳	-10.2569
韓詩	-10.2571
又何	-10.2574
於是乎	-10.2576
長洲人	-10.2583
經一部一冊	-10.2597
華陽	-10.2597
寺僧	-10.2598
和尚	-10.2601
有餘	-10.2616
僉	-10.2618
甚詳	-10.2619
苐九百	-10.262
浚	-10.2625
練	-10.2627
消	-10.2627
等撰	-10.2629
之遺	-10.263
明白	-10.2631
浸	-10.2634
苐四百	-10.2634
附以	-10.2635
嫌	-10.2637
苐一千五百	-10.2637
徹	-10.2639
王羲之	-10.264
東西	-10.264
無異	-10.2641
添	-10.2641
葺	-10.2643
龕	-10.2644
師道	-10.2646
心經	-10.2647
有此	-10.2657
待詔	-10.2657
苐五百	-10.2661
亦多	-10.2663
不甚	-10.2666
延熹	-10.267
管見	-10.2677
稿又	-10.2677
其次	-10.2678
咸淳	-10.2682
改正	-10.2683
及其	-10.2686
王莽	-10.2686
此石	-10.2688
四海	-10.2689
序卦	-10.2691
别本	-10.2691
始終	-10.2692
别集	-10.2693
吳郡	-10.2698
王君	-10.2702
進士第	-10.2704
其心	-10.2707
舘	-10.2709
書名	-10.271
溫	-10.2712
議郎	-10.2715
不如	-10.2722
苐一千四百	-10.2723
牽	-10.2728
隋書	-10.273
不具	-10.2731
皆云	-10.2733
衮	-10.2736
踈	-10.2737
伍	-10.2737
靖康	-10.2738
苐一千七百	-10.2748
苐七百	-10.2757
漢故	-10.2758
不著名氏	-10.2759
皇極	-10.2765
既而	-10.2773
未幾	-10.2782
二曰	-10.2783
始末	-10.2783
自得	-10.2784
楚辭	-10.2786
賦一卷	-10.279
大師	-10.2798
言其	-10.2798
二千	-10.2798
四十八	-10.2801
山中	-10.2803
之流	-10.2804
至此	-10.2805
矣故	-10.2806
善惡	-10.2806
後序	-10.2808
宣徳	-10.2808
瑩	-10.2811
去取	-10.2812
卷第	-10.2812
子貢	-10.2817
夫子之	-10.2818
憤	-10.2828
璣	-10.283
受業	-10.283
雖然	-10.2831
妃	-10.2835
愼	-10.2837
閻	-10.2837
古經	-10.2838
苐一千六百	-10.2838
泛	-10.2838
殁	-10.284
北史	-10.2842
釐	-10.2843
徳政碑	-10.2844
栢	-10.2844
貳	-10.2845
子弟	-10.2845
禪師碑	-10.2845
杞	-10.2848
休寧人	-10.285
㑹通	-10.2857
之目	-10.2862
名之曰	-10.2863
百姓	-10.287
將以	-10.2871
彖象	-10.2874
長子	-10.2874
不易	-10.2879
要義	-10.288
二年立	-10.2887
欲以	-10.289
大象	-10.289
國初	-10.2897
聖賢之	-10.2901
其可	-10.2909
咎	-10.2913
水經	-10.2916
同志	-10.292
魯史	-10.292
皮	-10.293
也若	-10.2934
昉	-10.2934
夔	-10.2936
怡	-10.2939
琳	-10.294
揭	-10.2942
途	-10.2942
霄	-10.2943
兌	-10.2943
鄞人	-10.295
可考	-10.295
一編	-10.2952
合而	-10.2954
待制	-10.2955
精神	-10.2961
荀卿	-10.2961
凱	-10.2965
鍾繇	-10.2968
為文	-10.2971
風雨	-10.2976
傳於世	-10.2992
苐一千三百	-10.2996
安石	-10.2997
夏侯	-10.2998
學者稱	-10.2999
從而	-10.3002
其詞	-10.3006
七錄	-10.3013
前代	-10.3019
諧	-10.3023
軰	-10.3023
是為	-10.3023
拓	-10.3025
一卷右皇朝	-10.3026
世孫	-10.3027
所以為	-10.3035
齒	-10.3038
瑗	-10.3039
霍	-10.3039
禦	-10.3042
緫	-10.3043
洵	-10.3043
然也	-10.3043
麻	-10.3044
諸國	-10.3045
恢	-10.3046
两	-10.3048
㧞	-10.3048
所未	-10.3048
竄	-10.3049
駮	-10.3051
郢	-10.3054
存稿	-10.3057
大暦	-10.3058
相類	-10.3059
書在	-10.3059
紹聖	-10.3067
十七篇	-10.3077
真跡	-10.308
綽	-10.3081
三曰	-10.3083
釋氏	-10.3094
皆在	-10.3107
他日	-10.3113
二本	-10.312
變而	-10.3124
光禄	-10.3125
無一	-10.3125
傳者	-10.3126
十五日	-10.3128
解義	-10.313
六爻	-10.3135
拱	-10.3139
囊	-10.3142
幕	-10.3144
仇	-10.3147
大徳	-10.3149
光禄大夫	-10.3151
萌	-10.3151
俄	-10.3152
乙酉	-10.3152
寘	-10.3152
禱	-10.3153
華亭	-10.3153
睦	-10.3153
恥	-10.3153
掃	-10.3154
丕	-10.3154
扶風	-10.3157
煙	-10.3158
牲	-10.316
師事	-10.3164
風俗	-10.3169
上下經	-10.3175
任城	-10.3175
十餘	-10.3175
縉	-10.3178
標題	-10.3179
亭記	-10.3183
集説	-10.3187
朱子之	-10.319
費氏	-10.3192
三十一	-10.3195
之亂	-10.3197
四行	-10.3199
至宋	-10.32
溪集	-10.3201
有以	-10.3202
畿	-10.3202
樂記	-10.3205
所注	-10.321
戊	-10.3214
其字	-10.3221
齋稿	-10.3222
叅軍	-10.3224
何休	-10.3224
著之	-10.3224
真卿	-10.3227
年六月	-10.3237
漢魏	-10.3242
新唐書	-10.3243
白雲	-10.3243
其所以	-10.3247
誡	-10.325
遯	-10.3251
札	-10.3252
瑾	-10.3253
曰易	-10.3255
返	-10.3256
巽	-10.3257
匠	-10.3257
鐸	-10.3259
七日	-10.3259
蓄	-10.326
始得	-10.3261
淂	-10.3262
校尉	-10.3263
毒	-10.3264
甲申	-10.3269
所能	-10.327
指歸	-10.3275
本也	-10.3279
故也	-10.3281
陽縣	-10.3284
也予	-10.3287
一經	-10.3287
筆削	-10.3292
旁通	-10.3294
是經	-10.3295
逺矣	-10.3295
本文	-10.3297
刋行	-10.3298
而為之	-10.33
東晉	-10.3304
二十五卷	-10.3308
金石録	-10.3316
昔人	-10.3322
經義考卷二百	-10.3322
一部八冊	-10.333
二子	-10.3335
殘闕	-10.3337
辨之	-10.3337
校正	-10.3341
城縣	-10.3342
坦	-10.3343
眉	-10.3344
其數	-10.3348
志一冊	-10.3353
人皆	-10.3355
識者	-10.3356
之氣	-10.3358
蓮	-10.3359
瑜	-10.3361
戊午	-10.3364
巡撫	-10.3365
獵	-10.3365
辱	-10.3365
其理	-10.3366
塔銘	-10.3367
姬	-10.3367
寮	-10.3368
侍御史	-10.337
遒	-10.3371
輸	-10.3371
陪	-10.3372
以道	-10.3375
御史大夫	-10.3378
三十二卷	-10.3383
名字	-10.3386
中山	-10.3388
其㫖	-10.3389
蔚	-10.339
筆意	-10.3395
欽定四庫全書經義考卷二百	-10.3397
曹史	-10.34
善本	-10.3401
而不可	-10.3402
率更	-10.3403
今世	-10.3406
九江	-10.341
▁洛	-10.3411
歐公	-10.3412
苐一千一百	-10.3415
年表	-10.3419
自稱	-10.3421
孝宗	-10.3433
觀碑	-10.3433
四十九	-10.3433
所刋	-10.3434
易義	-10.3437
十二巻	-10.3439
當為	-10.3443
無極	-10.3443
二卷未見	-10.3443
長樂	-10.3445
僊	-10.346
古書	-10.3461
卷又	-10.3461
揚州	-10.3461
冰	-10.3463
四十二	-10.3465
不仕	-10.3469
騐	-10.347
𨼆	-10.3472
綱領	-10.3475
粟	-10.3475
茲	-10.3476
吏部侍郎	-10.3476
悼	-10.3477
知制誥	-10.3483
蘇軾	-10.3483
歙	-10.3486
婺源人	-10.3496
二函	-10.3498
不知何人	-10.3498
仲子	-10.3499
九州	-10.3502
永嘉人	-10.3507
淪	-10.351
所當	-10.3514
講學	-10.3517
卷首	-10.3517
三十九	-10.3522
之術	-10.3524
三十四	-10.3528
張子	-10.3534
三年立	-10.354
至于	-10.355
一篇存	-10.3551
無所不	-10.3552
集一卷唐	-10.3554
曰春秋	-10.3559
呉興	-10.3562
一碑	-10.3563
瓘	-10.3569
六書	-10.3573
頗多	-10.3578
棠	-10.3581
子厚	-10.3582
又得	-10.3582
己酉	-10.3582
詰	-10.3582
邇	-10.3584
刀	-10.3584
倡	-10.3584
刋石	-10.3585
膚	-10.3585
若干	-10.3589
石鼓	-10.3589
其法	-10.3589
歡	-10.359
十八年	-10.359
陛下	-10.3591
靡不	-10.3594
之始	-10.3594
起於	-10.3594
上元	-10.3598
益州	-10.3598
七字	-10.3599
解佚	-10.36
志云	-10.3607
一卦	-10.361
解一卷	-10.3611
崇寧	-10.362
經術	-10.3623
廣漢	-10.3629
亦未	-10.3632
紀事	-10.3637
作者	-10.3646
明帝	-10.3646
公子	-10.3647
或謂	-10.3647
嵩山	-10.3648
以授	-10.3649
名物	-10.3654
己未	-10.3655
甚矣	-10.3662
丙	-10.3662
東北	-10.3662
於春秋	-10.3664
指南	-10.3668
宗實録	-10.3669
遂為	-10.3672
濤	-10.3673
又按	-10.3673
諡曰	-10.3677
大唐	-10.368
而終	-10.3685
頂	-10.369
諷	-10.3691
長睿	-10.3693
二年進士	-10.3693
陟	-10.3694
蓬	-10.3695
停	-10.3699
逾	-10.3699
觸	-10.37
四百	-10.3702
方一卷	-10.3703
紀年	-10.3713
經義考卷一百	-10.372
李公	-10.3723
四卷存	-10.3723
條例	-10.3728
法言	-10.373
皇祐	-10.373
改為	-10.3736
不可不	-10.3741
五冊	-10.3744
經者	-10.3746
通義	-10.3748
袁氏	-10.3749
之大	-10.3756
荆州	-10.3757
欽定四庫全書經義考卷一百	-10.3759
卒於	-10.3762
學於	-10.3763
熹平	-10.3769
有四	-10.3776
箕	-10.3782
萬里	-10.3783
源流	-10.3789
暦	-10.3789
不完	-10.3792
投壺	-10.3793
因其	-10.3793
韜	-10.3796
瓚	-10.3796
作易	-10.3798
活	-10.3798
詩選	-10.3799
與其	-10.38
宼	-10.3801
又為	-10.3802
戊辰	-10.3803
見聞	-10.3803
癸酉	-10.3803
蹈	-10.3804
吹	-10.3805
橅印	-10.3806
侃	-10.3807
鉅鹿	-10.3809
敝	-10.3809
語錄	-10.3811
衝	-10.3814
縱横	-10.3817
六日	-10.3822
乾符	-10.3822
神農	-10.3825
久而	-10.3827
中書令	-10.3829
而不能	-10.3833
志一卷	-10.3837
則不	-10.3837
附録	-10.3838
本之	-10.3838
參軍	-10.384
周子	-10.384
工部	-10.3842
華山	-10.3842
宋儒	-10.3843
少師	-10.3852
廣陵	-10.3861
翻刻	-10.3885
西北	-10.3892
不全	-10.3893
道徳	-10.3897
十字	-10.391
公卿	-10.3915
姿	-10.3916
鎭	-10.3917
覈	-10.3917
倒	-10.3918
響	-10.392
脉	-10.392
瑶	-10.3921
景祐	-10.3921
國子祭酒	-10.3924
裘	-10.3925
世祖	-10.3929
年九月	-10.393
大戴禮	-10.3931
門外	-10.3931
片	-10.3934
之迹	-10.3935
紙墨	-10.3936
元史	-10.3944
六巻	-10.3946
江州	-10.3949
闕十	-10.3951
顔真卿	-10.3951
世次	-10.3954
序次	-10.3959
隋唐	-10.3973
于此	-10.3974
彭城	-10.3978
所蔵	-10.3983
禮也	-10.3989
羣臣	-10.399
使君	-10.3991
荀子	-10.4006
世所	-10.4008
海鹽	-10.4013
萟	-10.4014
錄之	-10.4015
六卷存	-10.4018
日用	-10.4019
不待	-10.4022
後序曰	-10.4023
晟	-10.4025
㤗	-10.4026
桃	-10.4028
帛	-10.4028
壬辰	-10.4029
其傳	-10.4031
冥	-10.4033
緝	-10.4034
天命	-10.4034
區區	-10.4035
緩	-10.4035
躍	-10.4036
翰林院	-10.4036
延祐	-10.4037
顯慶	-10.4037
十卷右	-10.4037
辛酉	-10.4038
無有	-10.4038
重建	-10.4039
洋	-10.4039
恤	-10.404
脚	-10.404
剛柔	-10.404
淨	-10.404
夬	-10.404
值	-10.4041
癸未	-10.4047
奈何	-10.4048
用心	-10.4052
於心	-10.4058
六冊	-10.4062
年三月	-10.4063
行行	-10.4068
廬山	-10.4079
字宗	-10.4085
更定	-10.4092
舊史	-10.4094
編修	-10.4097
嗜	-10.4104
州郡	-10.4113
其功	-10.4125
也乃	-10.4125
文宗	-10.4126
壬戌	-10.413
自言	-10.4131
謝氏	-10.4132
江東	-10.4133
抵	-10.4135
耆	-10.4135
蟲	-10.4147
限	-10.4147
呈	-10.4147
耽	-10.4148
蠻	-10.4149
卦變	-10.4149
一旦	-10.415
偕	-10.4151
王公	-10.4152
湮	-10.4153
傷寒	-10.4153
捐	-10.4155
以補	-10.4156
壹	-10.4157
壬午	-10.4157
矧	-10.4158
伊尹	-10.4159
驅	-10.4159
映	-10.4161
焉而	-10.4165
▁兆	-10.4165
是則	-10.4179
舉進士	-10.4181
文志	-10.4184
言也	-10.4184
民之	-10.4185
其師	-10.4186
伯思云	-10.419
金剛經	-10.4191
聞見	-10.4192
申公	-10.4193
之情	-10.4197
校官	-10.4201
其辭曰	-10.4201
成於	-10.4205
秀水人	-10.4205
尤為	-10.4207
矣今	-10.4209
紹興中	-10.4212
五十五	-10.4218
字時	-10.422
附㑹	-10.4232
為是	-10.4233
𨽻釋	-10.4233
㢘	-10.4235
春秋左氏傳	-10.4254
瞿	-10.4255
本㫖	-10.4258
之至	-10.4258
李邕撰	-10.426
槐	-10.4263
數百	-10.4263
邸	-10.4263
璘	-10.4265
者葢	-10.4265
建武	-10.4265
蛇	-10.4266
戯	-10.4267
泣	-10.4268
二帖	-10.4268
忠臣	-10.4269
逈	-10.427
恱	-10.427
猛	-10.4271
栗	-10.4271
覧	-10.4273
褒貶	-10.4276
彊	-10.4276
贍	-10.4278
可不	-10.4278
說文	-10.4281
􁮖	-10.4282
而能	-10.4282
百世	-10.4282
一事	-10.4284
事也	-10.4284
皆作	-10.4284
謁者	-10.4289
卦之	-10.4291
之風	-10.4291
三才	-10.4294
久之	-10.4297
鄉里	-10.4298
往來	-10.4308
可與	-10.4312
隋志一卷佚	-10.4318
忠義	-10.4318
不勝	-10.4321
豈有	-10.4323
齊人	-10.4324
撰人	-10.4324
嘉興人	-10.4329
既成	-10.4334
南康	-10.4335
百餘	-10.434
八百	-10.435
初名	-10.4353
疑之	-10.4354
而又	-10.4356
山隂人	-10.4364
華亭人	-10.4366
於其	-10.4372
不可讀	-10.4376
十卷又	-10.4377
愽	-10.4377
浙	-10.4379
帝紀	-10.4383
山西	-10.4384
悖	-10.4385
為人	-10.4385
劇	-10.4386
荷	-10.4388
燭	-10.4389
迺	-10.4392
大學中庸	-10.4392
聖人之言	-10.4392
恬	-10.4395
丙子	-10.4397
碑銘	-10.44
其目	-10.44
自漢	-10.4401
未敢	-10.4405
祭祀	-10.4405
安定	-10.4408
肅宗	-10.4412
建寧	-10.4419
作詩	-10.4421
列子	-10.4422
九字	-10.4424
孫子	-10.4427
天官	-10.4433
之内	-10.4434
江陵	-10.4435
石柱	-10.4436
開元中	-10.4438
墓誌唐	-10.4441
氏之	-10.4443
偽作	-10.4444
邵氏	-10.4445
粲	-10.4454
弑	-10.4456
不肯	-10.4461
已有	-10.4462
淹	-10.4462
去其	-10.4465
甲戌	-10.4466
相去	-10.4466
大同	-10.4467
謹按	-10.4468
代宗	-10.4468
禮之	-10.447
王府	-10.447
具在	-10.4475
凡三	-10.4477
不疑	-10.4481
未成	-10.4482
邑人	-10.4486
後天	-10.4488
頤	-10.4493
文王之	-10.4495
春秋者	-10.4502
同州	-10.4502
説者	-10.4504
冶	-10.4504
璋	-10.4505
逄	-10.4506
福州	-10.4506
概	-10.4507
禮部侍郎	-10.4508
揖	-10.4508
酉	-10.4508
茍	-10.4509
轍	-10.4509
壻	-10.4509
棟	-10.4509
耳目	-10.4509
永興	-10.4511
孔頴達	-10.4511
枚	-10.4512
廓	-10.4515
之類是也	-10.4515
無考	-10.4516
曩	-10.4516
裝	-10.4517
識語	-10.4517
摸	-10.4518
曇	-10.4518
則云	-10.4519
瘞鶴銘	-10.4521
提要	-10.4522
保大	-10.4528
范陽	-10.4536
院記	-10.4536
方氏	-10.4537
四家	-10.4539
証	-10.4545
三十七	-10.4545
部員外郎	-10.4546
觀者	-10.4548
王制	-10.4549
今人	-10.455
得以	-10.4557
六官	-10.4559
雒陽	-10.4561
至是	-10.4562
尤甚	-10.4563
十卷存	-10.4569
集中	-10.4569
奉詔	-10.4569
志四卷	-10.457
百年	-10.4572
駿	-10.4578
考亭	-10.4588
漆	-10.4589
皆無	-10.4604
撰年	-10.4606
稚	-10.4606
孔廟	-10.4614
郭氏	-10.4614
太保	-10.4615
亦曰	-10.4616
大畧	-10.4617
孔子曰	-10.4618
所臨	-10.4621
棐	-10.4623
所言	-10.4626
志墓曰	-10.4629
禮者	-10.463
中郎將	-10.4631
吁	-10.4631
冷	-10.4633
欵	-10.4634
幣	-10.4635
握	-10.4635
旻	-10.4635
虞世南	-10.4636
斤	-10.4637
羽翼	-10.4637
岸	-10.4638
吐	-10.4638
嫁	-10.4642
宇文	-10.4643
閩縣人	-10.4643
考正	-10.4646
戊戌	-10.4654
集四十卷	-10.4654
昔者	-10.4656
者哉	-10.4662
論孟	-10.4662
亦然	-10.4665
筆勢	-10.4666
二王	-10.4666
或者	-10.4676
汪氏	-10.4683
曾孫	-10.4687
傳而	-10.4692
米云	-10.4696
聖人之意	-10.4696
文云	-10.4702
亡矣	-10.4703
歐陽詢	-10.4703
此云	-10.4713
涯	-10.4714
所編	-10.4715
春秋左氏	-10.4716
逺近	-10.4717
戴氏	-10.4718
潘本	-10.472
大雅	-10.4725
天王	-10.4739
志二冊	-10.4741
璞	-10.4746
檀弓	-10.4747
泌	-10.4748
畵	-10.4748
河圖洛書	-10.4749
暮	-10.4749
故受之以	-10.475
阜	-10.4752
梧	-10.4754
辛亥	-10.4755
岩	-10.4755
墻	-10.4757
魁	-10.4757
年十一月	-10.4757
聨	-10.4758
長於	-10.4759
灌	-10.4759
誘	-10.4759
逝	-10.4759
庚辰	-10.476
酷	-10.4761
山之	-10.4767
天下後世	-10.4769
崑山人	-10.477
其有	-10.4771
文中子	-10.4771
者或	-10.4774
滑	-10.4775
泯	-10.4778
山水	-10.4779
第七	-10.4785
數年	-10.4789
龜山	-10.479
陽令	-10.4791
五十六	-10.4792
而去	-10.4797
故有	-10.4798
詞一卷	-10.4798
汲	-10.48
藏本	-10.4803
疑其	-10.4804
温公	-10.4809
三體	-10.4811
人以	-10.4812
四巻	-10.4814
隠居	-10.4816
鄭注	-10.4823
并序	-10.4824
為博士	-10.4826
嵗在	-10.4827
等書	-10.483
濮	-10.4837
中間	-10.484
識其	-10.4841
序文	-10.4851
録三卷	-10.4855
内府	-10.4861
饗	-10.4864
異者	-10.4866
者盖	-10.4872
核	-10.4872
綬	-10.4874
皓	-10.4875
進呈	-10.4876
瑕	-10.4882
乙丑	-10.4884
圎	-10.4884
髪	-10.4885
先賢	-10.4885
一千	-10.4888
識之	-10.489
十餘年	-10.4893
建昌	-10.4899
存之	-10.4901
詩説	-10.4903
以待	-10.4905
其序	-10.4911
己丑	-10.4916
浮圖	-10.4916
皇極經世	-10.4919
不可考	-10.4922
宗廟	-10.4923
孔子廟	-10.4924
不通	-10.4928
工部尚書	-10.4928
廣西	-10.4932
校定	-10.4932
互體	-10.4936
乃云	-10.4947
備矣	-10.4958
未得	-10.4958
頓首	-10.4959
臨江	-10.496
草堂	-10.4961
神宗	-10.4961
府學	-10.4969
藏書	-10.497
者謂	-10.4973
性命	-10.4975
通典	-10.4978
外集	-10.4981
其志	-10.4984
熙寧	-10.4984
聖人之心	-10.4985
在今	-10.4987
河中	-10.4992
書畫	-10.4993
筭	-10.4995
唐宋	-10.4997
群	-10.5002
御史中丞	-10.5002
此亦	-10.5002
事而	-10.5004
甄	-10.5006
陏	-10.5007
踵	-10.5008
有五	-10.5008
瓌	-10.5008
挾	-10.5009
態	-10.5009
知者	-10.5009
之美	-10.5009
糾	-10.5011
甲寅	-10.5012
南山	-10.5012
郡縣	-10.5013
宋槧	-10.5013
斬	-10.5014
黒	-10.5014
出自	-10.5018
賈逵	-10.5018
臨川人	-10.5019
推官	-10.5024
龍門	-10.5024
未見陸元輔曰	-10.5026
矣夫	-10.5028
大都	-10.5042
正之	-10.5046
二十篇	-10.5048
集古錄	-10.505
西京	-10.5052
庿	-10.5052
討論	-10.5052
神龍	-10.5056
篆𨽻	-10.5056
永和	-10.5057
石渠	-10.5061
不獲	-10.5063
家有	-10.5064
定武本	-10.5067
得而	-10.5067
東魏	-10.5074
出而	-10.5074
修邑	-10.5075
未備	-10.5076
三卷右	-10.5081
不稱	-10.5089
八巻	-10.5092
論語解	-10.5093
臆	-10.5093
先是	-10.5093
此卷	-10.51
十九年	-10.5102
墓誌銘	-10.5102
十九卷	-10.5103
頼	-10.5107
無遺	-10.5107
拾	-10.5117
三行	-10.5117
三卷又	-10.5122
紛紛	-10.5123
於詩	-10.5125
瀛	-10.5129
公孫	-10.5129
西安	-10.5133
苖	-10.5133
椒	-10.5133
消息	-10.5134
汨	-10.5136
濫	-10.5138
時代	-10.5143
宋時	-10.5144
廵撫	-10.5144
而易	-10.5144
廷尉	-10.5145
惜其	-10.5146
楹	-10.5146
時為	-10.5147
撰立	-10.5148
不欲	-10.5149
渭南	-10.5149
易以	-10.515
本無	-10.5151
其徒	-10.5152
纂疏	-10.5153
縣西	-10.5155
撰并行書	-10.5163
河洛	-10.5163
中庸大學	-10.5168
書史	-10.5168
五十二	-10.5168
武徳	-10.5169
要之	-10.5169
臨安	-10.517
開封	-10.5179
必以	-10.5181
為序	-10.5181
佚閩書	-10.5185
經緯	-10.5186
周易注	-10.5193
大道	-10.5193
闕文	-10.52
南海	-10.5201
福寺	-10.5208
元帝	-10.5217
之分	-10.5218
後之	-10.5218
庿碑	-10.522
言易	-10.5222
癸	-10.5223
清河	-10.5225
經典	-10.5227
復為	-10.5229
壬	-10.523
禮義	-10.5232
不能無	-10.5233
元祐中	-10.5236
翰林院檢討朱彞尊撰	-10.5236
未免	-10.5237
十一篇	-10.5239
水利	-10.5242
或以為	-10.5251
定本	-10.5255
師説	-10.5256
音訓	-10.5257
删	-10.5259
三易	-10.5259
級	-10.5261
鑰	-10.5263
集賢	-10.5264
▁年	-10.5264
拒	-10.5265
婉	-10.5265
畔	-10.5266
酬	-10.5266
褚遂良	-10.5267
夾	-10.5267
摧	-10.5269
腹	-10.527
綺	-10.5271
庚申	-10.5273
舍利	-10.5275
萬年	-10.5279
二百四十	-10.5281
學宫	-10.5285
□□	-10.5286
惟其	-10.5287
者即	-10.5288
性情	-10.529
易有	-10.5292
三朝	-10.5292
婦人	-10.5295
唐初	-10.5296
口授	-10.5297
正德	-10.5299
溺	-10.5299
四象	-10.5303
一無	-10.5309
律吕	-10.5313
非其	-10.5314
兖州	-10.5316
二十八卷	-10.5322
詩稿	-10.5325
墓前	-10.5326
二三	-10.5329
其前	-10.5333
長睿云	-10.5345
宗伯	-10.5347
脈	-10.5348
之暇	-10.5352
説一卷	-10.5356
一年	-10.536
楨	-10.536
四聖	-10.5363
法一卷	-10.5364
案文獻通攷	-10.5366
不能盡	-10.5366
以便	-10.5366
東山	-10.5367
其失	-10.5368
一體	-10.5371
疏義	-10.5374
遺事	-10.5374
置之	-10.5376
答問	-10.5377
敖	-10.5383
家塾	-10.5386
壬子	-10.5389
兵部	-10.539
有大	-10.5391
黑	-10.5392
恠	-10.5392
正書無書撰人姓名	-10.5395
學庸	-10.5395
狩	-10.5395
蒼頡	-10.5398
謗	-10.5398
戈	-10.5401
勃海	-10.5401
妾	-10.5401
冉	-10.5402
遥	-10.5404
厯代	-10.5405
妖	-10.5406
法度	-10.5407
今以	-10.5417
年五月	-10.5422
訂正	-10.5424
次子	-10.5424
戊子	-10.5425
王元	-10.543
不可復	-10.5431
之實	-10.5434
近代	-10.5436
其論	-10.5438
以及	-10.5442
性理	-10.5447
字惟	-10.5455
撰序	-10.546
大和	-10.5463
員外郎	-10.5465
皇后	-10.5466
辛丑	-10.5468
廣大	-10.5478
郡王	-10.5478
志六卷	-10.5482
字希	-10.5491
知有	-10.5493
丙戌	-10.5494
夏時	-10.55
則非	-10.5508
聰	-10.5509
陜	-10.5511
渡	-10.5512
山集	-10.552
鞏	-10.552
君子之	-10.5521
裳	-10.5521
判官	-10.5525
楷書	-10.5525
邃	-10.5526
檀	-10.5526
横渠	-10.5528
蕪	-10.553
九篇	-10.553
扵	-10.553
記曰	-10.5532
十五篇	-10.5532
拂	-10.5533
涵	-10.5534
浪	-10.5534
仆	-10.5535
墨林快事	-10.5535
著作郎	-10.5537
以歸	-10.5538
規模	-10.5541
刹	-10.5541
著於	-10.5542
山林	-10.5544
百官	-10.5548
見而	-10.5553
通釋	-10.5556
法師碑	-10.5559
訓釋	-10.556
愍	-10.5561
引之	-10.5562
如何	-10.5563
晉江人	-10.5566
世儒	-10.5571
䖏	-10.5577
闕六	-10.5583
世系	-10.5587
文子	-10.5587
丁丑	-10.5587
凡二十	-10.5588
雜卦	-10.5593
不忘	-10.5594
實錄	-10.5602
以告	-10.5606
目錄	-10.5608
之言曰	-10.561
文正公	-10.5613
撰記	-10.5613
考訂	-10.5614
其用	-10.5615
始有	-10.5617
縣東	-10.562
載之	-10.5621
繼之	-10.5621
號曰	-10.5621
安平	-10.5622
宋元	-10.5624
即此	-10.5629
官制	-10.5631
明徳	-10.5631
羣經	-10.5635
字世	-10.5638
卷一百	-10.5638
炫	-10.5643
硯	-10.5644
像碑	-10.5645
憲宗	-10.5647
十卷右皇朝	-10.5656
奠	-10.5657
洎	-10.5657
禆	-10.5657
牘	-10.566
旗	-10.566
荅	-10.5661
天宝	-10.5661
歐陽修	-10.5662
栖	-10.5663
淸	-10.5663
苞	-10.5664
璹	-10.5664
董仲舒	-10.5664
傳曰	-10.5664
自述曰	-10.5664
冗	-10.5665
蘇州	-10.5665
岱	-10.5666
䓁	-10.5666
它	-10.5667
汎	-10.5668
諫議大夫	-10.5669
璟	-10.5671
刑部尚書	-10.5672
究其	-10.5674
五人	-10.5675
翰墨	-10.5678
舉要	-10.5681
不暇	-10.5681
而爲	-10.5684
雖不	-10.5688
見者	-10.5691
光和四年	-10.5691
漢初	-10.5693
高祖	-10.5694
部尚書	-10.5697
自古	-10.5698
稱為	-10.5699
箕子	-10.5699
帖中	-10.5699
格物	-10.5699
兩漢	-10.57
草法	-10.5713
不若	-10.5715
固已	-10.5717
年八月	-10.5719
春秋三傳	-10.5723
考證	-10.5725
漢世	-10.573
筆力	-10.5733
年正月	-10.5736
之旨	-10.5736
天祐	-10.5742
二十一卷	-10.5749
宙	-10.5752
舊文	-10.5754
繫之	-10.5756
頗有	-10.5764
洪氏	-10.5766
可為	-10.5771
鄉人	-10.5772
七百	-10.5775
至矣	-10.5777
兵法	-10.5778
造化	-10.578
廖	-10.5782
之藴	-10.5786
隂陽之	-10.5786
軻	-10.5789
禁中	-10.5792
勾	-10.5796
廸	-10.5797
亰	-10.5798
槃	-10.5798
支離	-10.5799
縣丞	-10.5801
闔	-10.5802
詩之	-10.5803
乙巳	-10.5804
鱗	-10.5805
案文獻通	-10.5808
霧	-10.581
無他	-10.5811
顧氏	-10.5813
功曹	-10.5814
皇太子	-10.5816
歌一卷	-10.5821
微言	-10.5821
出其	-10.5828
松江	-10.584
孝友	-10.5844
江夏	-10.5861
家傳	-10.5868
八日	-10.587
故以	-10.587
著易	-10.5874
少府	-10.5875
童子	-10.5881
異於	-10.5882
大臣	-10.5888
說卦	-10.5893
一代	-10.5893
府長史	-10.5896
石壁	-10.5897
一卷右唐	-10.5898
正經	-10.5899
元符	-10.5904
/)□(	-10.5907
卿大夫	-10.5909
同知	-10.5916
内篇	-10.5917
皇象	-10.5922
李陽冰	-10.5924
魏公	-10.5925
盗	-10.5931
印記	-10.5932
雁	-10.5932
取士	-10.5934
表章	-10.5935
國子司業	-10.5936
失真	-10.5936
沐	-10.5937
爲之序	-10.5937
過之	-10.5938
賾	-10.5939
劔	-10.5939
孔壁	-10.5939
寰宇	-10.5943
棲	-10.5944
醴泉	-10.5944
駢	-10.5946
為正	-10.5946
峙	-10.5948
綿	-10.5948
初無	-10.5949
又作	-10.5949
檄	-10.5949
祇	-10.5951
一首	-10.5952
王輔嗣	-10.5957
可信	-10.5965
天理	-10.597
一册	-10.5971
嗟乎	-10.5972
而自	-10.5973
元年立	-10.5973
典禮	-10.5975
聖教	-10.5976
刪定	-10.5979
立於	-10.5981
郡齋	-10.5983
矣此	-10.5986
深衣	-10.5986
相似	-10.5992
丙辰	-10.5993
撰月	-10.5996
天聖	-10.5997
進士官	-10.5998
不容	-10.601
對曰	-10.6011
武成	-10.6016
道者	-10.6016
集本有	-10.6019
以下原	-10.602
後為	-10.6021
雒	-10.6025
武功	-10.6026
禮儀	-10.6026
唐張	-10.6028
公榖	-10.6029
南渡	-10.6032
三卷佚	-10.6038
莫如	-10.6039
不忍	-10.6039
王者	-10.6039
秘書	-10.604
所收	-10.604
但云	-10.6042
不起	-10.6042
刻本	-10.6043
其詩	-10.6043
授受	-10.6048
二條	-10.6051
百餘年	-10.6055
邠	-10.6061
人萬厯	-10.6062
晉人	-10.6064
已亡	-10.6065
有道	-10.6067
六卷又	-10.6067
贛	-10.6068
黯	-10.6071
飬	-10.6072
穎	-10.6074
則亦	-10.6074
鵠	-10.6075
乙亥	-10.6076
遏	-10.6076
鳩	-10.6077
宋志十卷佚	-10.6077
押	-10.6078
亳	-10.6078
彬	-10.6078
参	-10.6079
當在	-10.6079
兵部侍郎	-10.6081
嘯	-10.6082
㳟	-10.6082
隣	-10.6082
牢	-10.6082
讚	-10.6084
赫	-10.6084
菊	-10.6084
􁭆	-10.6084
嘉祐八年	-10.6084
爛	-10.6085
暑	-10.6086
泉州	-10.6087
磬	-10.6087
入於	-10.6088
相承	-10.609
之卦	-10.6091
不自	-10.6092
四十一	-10.6098
卷末	-10.6098
行狀	-10.6099
太子太保	-10.6101
吾心	-10.6118
銘曰	-10.6118
刋誤	-10.6119
傳義	-10.6119
也蓋	-10.6123
四十五	-10.6123
僕射	-10.6124
理學	-10.6128
深於	-10.6129
彈	-10.6135
小戴	-10.6136
已見	-10.6143
矣其	-10.6143
多所	-10.6145
旁注	-10.6145
詁	-10.6145
韓氏	-10.6145
碑首	-10.6146
司馬光	-10.6147
所由	-10.6149
馮氏	-10.6161
太上	-10.6162
至唐	-10.6172
二十餘	-10.6176
畜	-10.6177
惲	-10.6186
尚多	-10.6188
陳君	-10.6188
八冊	-10.6191
得意	-10.6195
也然則	-10.6196
士之	-10.6202
唱	-10.6204
卒贈	-10.6205
亡其	-10.6208
南宫	-10.6211
具載	-10.6212
芬	-10.6213
剝	-10.6215
不著撰人名氏	-10.6216
網	-10.6216
掖	-10.6218
注引	-10.622
圜	-10.622
豳	-10.622
可愛	-10.6222
為之注	-10.6222
崧	-10.6223
道徳經	-10.6225
桞	-10.6226
彝	-10.6226
梵	-10.6227
朋友	-10.6227
買	-10.6228
聖人之經	-10.6228
烝	-10.6229
侈	-10.623
吕祖謙	-10.623
甥	-10.6231
契丹	-10.6232
漫滅	-10.6233
長興	-10.6238
集成	-10.6239
臨海	-10.6246
從掾位	-10.6248
景泰	-10.6249
皆為	-10.625
數字	-10.625
劉禹錫	-10.6252
十二字	-10.6252
職方	-10.6253
然自	-10.6255
六典	-10.626
三十八	-10.626
太康	-10.6261
所集	-10.6264
風雅	-10.6271
仲舒	-10.6272
當有	-10.6274
其首	-10.6275
南豐	-10.6277
成文	-10.6277
纂言	-10.6279
筆記	-10.6279
元嘉	-10.6283
來者	-10.6286
者豈	-10.6286
建中	-10.6287
睿宗	-10.6287
銑	-10.6288
莫知	-10.6289
上闕	-10.6291
豈可	-10.6295
庚戌	-10.6297
用力	-10.6297
何所	-10.6308
所定	-10.6309
之禍	-10.6312
太山	-10.6316
為本	-10.6317
以禮	-10.6318
劉公	-10.6319
事類	-10.6321
由此	-10.6329
南昌	-10.6332
刋本	-10.6333
所出	-10.6334
之位	-10.634
題字	-10.6343
燾	-10.6343
汾	-10.6349
儀注	-10.6349
攷之	-10.6351
瑣	-10.6354
水經注	-10.6357
李斯	-10.6358
之次	-10.636
一筆	-10.636
然不	-10.6362
顒	-10.6363
泳	-10.6364
姤	-10.6365
予嘗	-10.6366
寃	-10.6366
儻	-10.6367
督郵	-10.6367
囘	-10.6367
蒐	-10.6367
校書郎	-10.6369
辛巳	-10.637
嚮	-10.637
憾	-10.6372
据	-10.6372
濕	-10.6373
搆	-10.6373
丁巳	-10.6374
甘露	-10.6375
之力	-10.6375
靣	-10.6377
亢	-10.6378
蒸	-10.6379
郗	-10.6386
賦詩	-10.6387
其舊	-10.639
視之	-10.6396
召為	-10.6397
平王	-10.6403
解經	-10.6408
慨然	-10.6412
魯國	-10.6418
帝王之	-10.6425
戲	-10.6427
吳越	-10.6427
六行	-10.6433
終身	-10.6433
諸家之説	-10.6434
不得不	-10.6441
三百篇	-10.6443
書一部一冊	-10.6446
行草	-10.6447
數百年	-10.6449
在於	-10.6452
人姓名	-10.6454
按此	-10.6455
尚書郎	-10.6455
夫婦	-10.646
四十六	-10.6462
者多矣	-10.647
墨子	-10.647
主於	-10.6472
庶子	-10.6474
中平	-10.6476
未之	-10.648
濓	-10.6481
無足	-10.6481
幢	-10.6483
六壬	-10.6489
録十卷	-10.649
程傳	-10.6492
曺	-10.6494
於今	-10.6501
常州	-10.6503
此乃	-10.6505
邯鄲	-10.6507
漢唐	-10.651
璜	-10.6513
枯	-10.6513
亐	-10.6513
琮	-10.6515
顏	-10.6515
疵	-10.6515
蘄	-10.6516
昶	-10.6517
奬	-10.6517
侗	-10.6518
至大	-10.6518
閉	-10.6519
遒勁	-10.6519
大德	-10.652
攜	-10.6521
幅	-10.6521
不啻	-10.6523
壬寅	-10.6524
緜	-10.6524
也哉	-10.6527
不可得而	-10.6527
為之説	-10.6528
啖趙	-10.6528
穹	-10.653
阻	-10.6532
也至	-10.6534
權衡	-10.6535
粲然	-10.6535
諸儒之	-10.6536
真定	-10.6538
觀象	-10.6538
極其	-10.6544
命工	-10.6544
并書	-10.6548
太平興國	-10.6548
海鹽人	-10.655
餘皆	-10.6553
而上	-10.6554
受之	-10.6558
使者	-10.6558
釋經	-10.6562
所不	-10.6571
碑刻	-10.6572
余氏	-10.6577
肯	-10.6577
并隂	-10.6582
遺意	-10.6586
説經	-10.659
立此碑	-10.6591
相繼	-10.6596
攷作	-10.6602
孔孟	-10.6604
三卷存	-10.6609
摹刻	-10.6621
武陵	-10.6629
洙	-10.6631
世人	-10.6632
郝	-10.6645
天子之	-10.6647
惜乎	-10.6648
霖	-10.6651
用事	-10.6651
中丞	-10.6653
變易	-10.6655
鎬	-10.6656
十二卷又	-10.6657
碑額	-10.6657
髓	-10.6658
知名	-10.666
雜説	-10.6661
後儒	-10.6661
不惟	-10.6661
並行	-10.6661
沔	-10.6662
税	-10.6662
之治	-10.6662
迪	-10.6663
醜	-10.6663
瓦	-10.6663
繡	-10.6663
璉	-10.6664
戊寅	-10.6665
樗	-10.6666
鳳翔	-10.6667
枉	-10.6667
登進士第	-10.6668
泊	-10.6668
節要	-10.6671
廟中	-10.6677
稿一卷	-10.6678
志二卷	-10.6679
從顧從義釋	-10.6681
本作	-10.6681
可喜	-10.6684
所居	-10.6687
合之	-10.669
諸葛	-10.669
其字畫	-10.6692
道德	-10.6695
大守	-10.6703
沈約	-10.6706
凡五	-10.6707
諸賢	-10.6707
常熟人	-10.6708
正始	-10.6709
十七帖	-10.6711
學記	-10.6711
物之	-10.6711
鄒氏	-10.6714
凡百	-10.6715
未嘗不	-10.6718
知所	-10.6718
道人	-10.6718
八卷又	-10.6719
感應	-10.6719
其要	-10.672
九疇	-10.672
卷十	-10.6723
故不	-10.6724
歲月	-10.6725
字士	-10.6727
左僕射	-10.6729
彖傳	-10.6735
四年立	-10.674
慶厯	-10.6743
五巻	-10.6744
言者	-10.6745
長洲	-10.6746
亦猶	-10.6751
諸王	-10.6754
光和	-10.6754
象之	-10.6755
此記	-10.6756
黄門	-10.6761
十二卷存	-10.6761
於石	-10.6763
太極圖	-10.6765
筌	-10.6766
音釋	-10.6766
詔書	-10.6776
舊有	-10.6781
平江	-10.6783
卿撰	-10.6787
之弟	-10.679
衆説	-10.6793
何必	-10.6793
所錄	-10.6794
秀水	-10.6799
東觀	-10.6801
則無	-10.6805
之異	-10.6806
默	-10.6807
蹇	-10.681
九日	-10.681
復有	-10.6812
斑	-10.6812
武平	-10.6813
夙	-10.6813
閎	-10.6813
廟堂	-10.6813
沿革	-10.6814
象山	-10.6814
家禮	-10.6815
平章事	-10.6815
匹	-10.6815
船	-10.6816
少林寺	-10.6816
繕	-10.6816
檢討	-10.6817
僑	-10.6817
竦	-10.6818
榻	-10.6818
錯綜	-10.6819
戊申	-10.682
殫	-10.682
韓退之	-10.6821
換	-10.6823
唐明皇	-10.6823
亡名氏	-10.6823
十八篇	-10.6825
科斗	-10.6826
災異	-10.6828
而弗	-10.6829
行而	-10.683
堂稿	-10.6831
庶人	-10.6833
後來	-10.6836
孔門	-10.684
誤以	-10.6845
地官	-10.6848
豐城人	-10.6852
書賈	-10.6858
思之	-10.6859
錯簡	-10.6859
佚江西通志	-10.6861
丙申	-10.6865
前世	-10.6865
教人	-10.6865
仁夀	-10.6872
先生文集	-10.6873
國學	-10.6874
立言	-10.6874
倦	-10.6874
為此書	-10.6877
秦火	-10.6881
辨正	-10.6882
其非	-10.6884
不可曉	-10.6889
史館	-10.6897
之才	-10.6902
風流	-10.6904
字多	-10.6904
用筆	-10.6905
成此書	-10.6908
年八十	-10.6908
孔氏之	-10.6909
未聞	-10.6909
十日	-10.6912
搨本	-10.6914
國風	-10.6917
有序	-10.6918
師友	-10.6923
筆畫	-10.6926
名賢	-10.693
縉雲	-10.6935
一條	-10.6937
刻錄	-10.6937
曹氏	-10.6947
年十二月	-10.6948
三冊	-10.695
灾	-10.6951
台州	-10.6952
丁亥	-10.6956
承天	-10.6956
在焉	-10.6958
玉堂	-10.6958
輅	-10.6959
元初	-10.6959
一節	-10.6959
成公	-10.6962
萬一	-10.6963
柴	-10.6964
罰	-10.6965
鋭	-10.6965
郡國	-10.6966
月見本文	-10.6966
詡	-10.6966
蘊	-10.6968
王世貞	-10.6968
戍	-10.6969
恊	-10.6969
犬	-10.6969
繕寫	-10.697
馮翊	-10.697
需	-10.6971
沃	-10.6971
今此碑	-10.6971
句解	-10.6972
剔	-10.6972
逍遥	-10.6973
恂	-10.6973
渤海	-10.6974
作序	-10.6975
篇目同前	-10.6975
庚寅	-10.6975
蹤	-10.6975
售	-10.6975
逼	-10.6978
構	-10.6978
繁露	-10.6979
不至	-10.6984
皆可	-10.6984
珉	-10.6986
者猶	-10.6991
今改正	-10.6994
微㫖	-10.7
呉郡	-10.7002
不同者	-10.7002
皆同	-10.7003
志作	-10.7004
呉越	-10.7008
有年	-10.701
户部尚書	-10.7011
而求	-10.7013
十有四	-10.7014
鮮于	-10.7016
始皇	-10.7017
非是	-10.7019
於人	-10.7019
日記	-10.702
五言	-10.7025
發微	-10.7033
魏志	-10.7034
一句	-10.7037
景龍	-10.7041
購	-10.7045
閣帖	-10.7046
漢𨽻	-10.7047
歲在	-10.7047
存乎	-10.7049
一石	-10.705
縣尉	-10.705
梁武帝	-10.7052
字皆	-10.706
追贈	-10.706
專門	-10.7061
曰六經	-10.7062
舊聞	-10.7073
以意	-10.7075
崔氏	-10.7076
經以	-10.7086
魏了翁	-10.7087
大略	-10.7092
巫	-10.7094
冬至	-10.7101
嶠	-10.7101
附之	-10.7101
不同而	-10.7105
豆	-10.7109
疑是	-10.7111
者當	-10.7111
于朝	-10.7114
此銘	-10.7117
枕	-10.7117
屠	-10.7119
揮	-10.712
得罪	-10.7121
不詳	-10.7121
驟	-10.7123
釋之	-10.7123
歛	-10.7124
襃貶	-10.7125
易林	-10.7127
劾	-10.7127
紊	-10.7127
挈	-10.7128
勵	-10.7128
謹案右一帖行草	-10.7128
填	-10.713
使學者	-10.7131
弇州山人稿	-10.7132
熱	-10.7132
以相	-10.7132
米芾	-10.7132
鴈	-10.7132
闇	-10.7132
憑	-10.7133
暗	-10.7133
男女	-10.7138
賈誼	-10.714
典籍	-10.7143
僉事	-10.7144
通用	-10.7144
之子也	-10.7144
小楷	-10.7147
註疏	-10.7149
天順	-10.715
受禪	-10.7151
九百	-10.7152
貞觀中	-10.7155
千秋	-10.7157
出于	-10.7159
三載	-10.7162
可得而	-10.7162
建隆	-10.7169
嘗謂	-10.7169
而歸	-10.717
有言	-10.7177
歐陽氏	-10.7177
可見矣	-10.718
喪禮	-10.718
之疑	-10.7183
水火	-10.7187
第六	-10.7187
滄	-10.719
桂陽	-10.7192
他人	-10.7194
卓然	-10.7194
韻語	-10.7194
平陽	-10.72
元章	-10.72
碑中	-10.7202
曽孫	-10.7204
嵗次	-10.7206
金華人	-10.7207
浙東	-10.7211
學生	-10.7214
五帝	-10.7215
記之	-10.7221
羅氏	-10.7224
無逸	-10.723
舜典	-10.7236
載於	-10.7241
奉使	-10.7244
肖	-10.7246
旭	-10.7248
以知	-10.7249
之職	-10.7252
後唐	-10.7269
數也	-10.727
四十三	-10.7272
楊公	-10.7274
黍	-10.7275
墓銘	-10.7276
祺	-10.728
曄	-10.7281
曲江	-10.7282
蠶	-10.7282
遡	-10.7282
黔	-10.7283
馴	-10.7283
貝	-10.7284
饑	-10.7285
掇	-10.7285
何哉	-10.7285
嫡	-10.7286
撰并八分書	-10.7286
㑹元	-10.7287
陂	-10.7288
魯人	-10.7288
宸	-10.7289
湏	-10.729
准	-10.729
輦	-10.729
貯	-10.729
杜詩	-10.7292
書曰	-10.7293
宜其	-10.7294
古人之	-10.7294
書一卷	-10.7295
㨿	-10.7296
讖緯	-10.7298
嘉善人	-10.7298
其形	-10.7298
滎陽	-10.7305
無非	-10.7309
从	-10.731
塾	-10.7312
志八卷	-10.7313
絳帖	-10.7315
其半	-10.732
無可	-10.7321
撰正書	-10.7322
世所傳	-10.7323
唐末	-10.7325
先生碑	-10.7326
十有七	-10.7328
比之	-10.7328
心法	-10.7331
真宗	-10.7334
諸侯之	-10.7337
不獨	-10.7337
諸本	-10.7341
士元	-10.7345
録四卷	-10.7347
揚子	-10.7348
延平	-10.7351
摹本	-10.7352
不成	-10.7353
於上	-10.7353
中孚	-10.7353
萬言	-10.7355
十卷未見	-10.7356
八十卷	-10.7356
以己意	-10.7358
而傳	-10.7359
有異	-10.736
質之	-10.7363
其門人	-10.7367
稱之	-10.7371
明府	-10.7376
世子	-10.7379
數之	-10.7382
今亡	-10.739
州教授	-10.7391
禮器	-10.7392
尚未	-10.7394
當日	-10.7394
諸臣	-10.7396
一云	-10.7399
不絶	-10.74
四十七	-10.74
之年	-10.7403
載其	-10.7405
盛行	-10.7406
之圖	-10.7421
也惟	-10.7424
惜哉	-10.7427
四十四	-10.7429
灼	-10.743
篇首	-10.7431
南軒	-10.7433
以教	-10.7433
董真卿曰	-10.7438
璿	-10.7442
二傳	-10.7443
冺	-10.7443
物也	-10.7444
碑碣	-10.7444
靳	-10.7444
稾	-10.7444
秘書監	-10.7447
不亦	-10.7448
四曰	-10.7449
怠	-10.7449
狹	-10.745
壘	-10.7451
琛	-10.7451
卷一	-10.7452
祉	-10.7453
為最	-10.7455
彩	-10.7455
飭	-10.7455
始以	-10.7456
磨崖	-10.7457
姑蘇	-10.7457
鄂	-10.7458
崇文	-10.7459
纂修	-10.746
戴記	-10.7462
數千	-10.7463
曰孔子	-10.7463
規矩	-10.7464
為經	-10.7465
甲科	-10.7469
石門	-10.7471
嶺南	-10.7476
書籍	-10.7478
非敢	-10.748
費直	-10.748
米老	-10.7482
有能	-10.7486
易圖	-10.7486
始知	-10.7488
仁和人	-10.7488
亦自	-10.749
所取	-10.7492
乾元	-10.7493
北方	-10.7495
詳矣	-10.75
也因	-10.75
之非	-10.7505
五十七	-10.7506
賢良	-10.7508
李邕	-10.7513
孝武	-10.7517
貫通	-10.7518
以進	-10.7519
所進	-10.7522
集十五卷	-10.7523
文王周公	-10.7525
開寳	-10.7525
十有五	-10.7527
象占	-10.753
字敬	-10.754
釋作	-10.754
南安	-10.7545
所及	-10.7545
事物	-10.7553
佚後漢書	-10.7556
三聖	-10.7559
顔師古	-10.7561
尊師	-10.7562
友人	-10.7563
説詩	-10.7564
翺	-10.7564
惟此	-10.7565
千金	-10.7571
其能	-10.7572
歌詩	-10.7572
至徳	-10.758
各以	-10.7583
齋先生	-10.7593
郡太守	-10.7597
凡四	-10.7597
之極	-10.7598
一部二十冊	-10.7599
亥	-10.7599
藪	-10.76
柄	-10.7604
太學博士	-10.7604
禀	-10.7606
紋	-10.7606
丁酉	-10.7607
離騷	-10.7608
椿	-10.7608
曽祖	-10.7608
蜀郡	-10.7609
緣	-10.7609
騷	-10.761
㪚	-10.761
牓	-10.761
集七卷	-10.7611
繋	-10.7611
銷夏記	-10.7612
稼	-10.7612
纎	-10.7612
琅琊	-10.7613
苻	-10.7614
㤙	-10.7614
碑錄	-10.7615
功臣	-10.7615
嘉禾	-10.7616
附見	-10.7616
德政碑	-10.7616
者莫	-10.7618
勉齋	-10.7619
擾	-10.7621
朱熹	-10.7622
伊洛	-10.7622
甘泉	-10.7622
著其	-10.7624
千百	-10.7626
其身	-10.7627
春秋之	-10.7628
文忠公	-10.763
通解	-10.763
彖辭	-10.7631
廣川	-10.7631
去之	-10.7632
吉水人	-10.7638
相國	-10.764
為此	-10.7641
何其	-10.7648
第八	-10.7648
臨海人	-10.7649
故名	-10.7651
朝夕	-10.7652
餘姚人	-10.7652
江左	-10.7652
登第	-10.7653
奏疏	-10.7658
不著書撰人名氏	-10.7659
刪去	-10.7662
必先	-10.7663
流俗	-10.7663
於書	-10.7664
以象	-10.7669
非聖人	-10.7669
撰王	-10.767
潘氏	-10.7674
執政	-10.7682
特進	-10.7686
泰定	-10.7687
一百六十	-10.7687
眉山	-10.7688
七十六	-10.7689
此字	-10.7689
續集	-10.7692
章帝	-10.7695
佚姓譜	-10.7698
也且	-10.7699
乃命	-10.7699
出處	-10.7701
咸平	-10.7702
與今	-10.7706
詩者	-10.7712
獨存	-10.7718
而盡	-10.7719
右軍書	-10.7723
更名	-10.7724
一部十	-10.7724
精妙	-10.773
興化	-10.7737
州縣	-10.7743
姓譜	-10.7749
卷三	-10.775
塲	-10.7762
軾	-10.7763
現	-10.7765
論其	-10.7765
是謂	-10.7766
有不	-10.7766
奭	-10.7768
杲	-10.7769
列女傳	-10.7769
可知矣	-10.777
愷	-10.777
航	-10.7771
蠡	-10.7771
春官	-10.7772
懲	-10.7773
㐮	-10.7773
涕	-10.7774
獻王	-10.7775
効	-10.7776
勒石	-10.7776
甲乙	-10.7777
冨	-10.7777
滌	-10.7777
膠	-10.7777
穉	-10.7777
孔頴逹	-10.7778
河間獻王	-10.7778
毓	-10.7778
僣	-10.7778
壑	-10.7779
洪邁	-10.778
泰誓	-10.778
書雖	-10.7781
緑	-10.7781
巾	-10.7781
令狐	-10.7781
斜	-10.7782
隕	-10.7782
文字磨滅	-10.7782
濠	-10.7782
杯	-10.7782
䜟	-10.7783
斂	-10.7783
之原	-10.7784
掘	-10.7785
彞	-10.7786
七十卷	-10.7786
七巻	-10.7787
小子	-10.7788
慈溪人	-10.7788
六家	-10.7788
廡	-10.7788
張仲	-10.7788
太乙	-10.7789
臆説	-10.7792
▁月立	-10.7797
詳其	-10.7805
五經文字	-10.7807
寺記	-10.7807
雜事	-10.7808
吟稿	-10.781
編輯	-10.7811
好惡	-10.7813
顧從義作	-10.7813
師古	-10.7815
篆文	-10.7816
大名	-10.7827
邑令	-10.7831
也孔子	-10.7835
不審	-10.7835
武德	-10.7839
疑問	-10.7845
作此	-10.7846
外篇	-10.7849
清江	-10.785
正同	-10.785
記三卷	-10.7852
時事	-10.7854
十有八	-10.7857
二百卷	-10.7864
五星	-10.7866
古碑	-10.7872
厯官	-10.7874
賢者	-10.7874
壁中	-10.7879
後集	-10.7881
茅山	-10.7885
玉海	-10.7889
經也	-10.7891
以致	-10.7891
東宫	-10.7891
唐氏	-10.7894
之弊	-10.7902
曽子	-10.7906
之過	-10.7907
郡公	-10.791
年四月	-10.7912
為多	-10.7912
以通	-10.7913
證之	-10.7914
常熟	-10.7915
而此	-10.7915
所著也	-10.7916
魯相	-10.7918
五卷又	-10.7919
之微	-10.7925
場	-10.793
百九十	-10.7934
惇	-10.7935
兩行	-10.7935
開元十	-10.7943
愛之	-10.7943
璠	-10.7944
經而	-10.7944
糧	-10.7944
窟	-10.7945
迭	-10.7947
拯	-10.7948
九章	-10.7948
替	-10.7949
埋	-10.7949
開府儀同三司	-10.7949
礼	-10.7949
綰	-10.795
卷帙	-10.795
樂毅論	-10.795
鳯翔	-10.795
性之	-10.7951
黄門侍郎	-10.7951
重複	-10.7951
昌黎	-10.7952
撰并	-10.7952
廨	-10.7952
禊	-10.7952
加以	-10.7952
欵識	-10.7954
鼠	-10.7955
山居	-10.7955
刋之	-10.7956
叔敖	-10.7957
架	-10.7958
古字	-10.7961
獲麟	-10.7961
曰先生	-10.7962
先儒之	-10.7962
目為	-10.7964
史惟則	-10.7971
千餘	-10.7971
齊魯	-10.7972
二十七卷	-10.7972
收藏	-10.7973
自然之	-10.7973
史云	-10.7974
大意	-10.7976
新修	-10.7978
修春秋	-10.7978
伯宋贈	-10.7978
五代史	-10.7979
而讀之	-10.7979
重之	-10.7981
分門	-10.7984
御府	-10.7985
詩人	-10.7987
皆是	-10.7988
之先	-10.7989
婺	-10.7994
初學	-10.7994
已而	-10.7996
名山	-10.7998
已久	-10.8
占筮	-10.8001
常侍	-10.8002
於一	-10.8003
無錫	-10.8004
而反	-10.8005
存亡	-10.8007
穆公	-10.8008
世有	-10.801
未暇	-10.801
六十五	-10.8011
明朝	-10.8013
而刻之	-10.8019
於理	-10.8023
用意	-10.8024
校作	-10.8025
太常卿	-10.8028
人倫	-10.8034
世宗	-10.8041
成編	-10.8044
城縣志	-10.805
之句	-10.8053
宣宗	-10.8057
塔碑	-10.8058
字道	-10.8059
宗室	-10.8063
六十二	-10.8071
理之	-10.8071
三代之	-10.8075
字長	-10.8075
僅有	-10.8076
上帝	-10.8079
古文孝經	-10.8082
紀聞	-10.8085
唐詩	-10.8088
十有三	-10.8088
西嶽	-10.8091
有傳	-10.8095
雅頌	-10.8095
於後世	-10.8096
令人	-10.8097
人官至	-10.8098
丑	-10.81
隴	-10.8104
東京	-10.8105
新志	-10.8105
此編	-10.8106
於道	-10.8109
狐	-10.811
武陽	-10.8111
宗正	-10.8112
邉	-10.8115
複	-10.8115
安福人	-10.8115
焦竑	-10.8116
堯典	-10.8117
舉其	-10.8119
猗	-10.8119
弦	-10.812
􁅟	-10.8121
石幢	-10.8122
寖	-10.8123
無此	-10.8124
十三篇	-10.8124
希夷	-10.8125
雅言	-10.8125
虜	-10.8125
濵	-10.8129
廻	-10.8132
安帝	-10.8134
元年十月	-10.8135
似是	-10.8137
者固	-10.8138
使之	-10.814
章氏	-10.8141
温州	-10.8141
三卷右皇朝	-10.8144
近古	-10.815
南史	-10.8154
聖學	-10.8158
輕重	-10.8164
文正	-10.8167
可乎	-10.8167
議者	-10.8167
懷仁	-10.8167
十有一	-10.8171
自此	-10.8171
地名	-10.8172
術數	-10.8174
許敬宗撰	-10.8175
以别	-10.8175
清源	-10.8175
隨筆	-10.8185
魯齋	-10.8186
者是	-10.8187
天啓	-10.8188
但有	-10.8188
一卷唐	-10.8191
亦何	-10.8194
前輩	-10.8196
莫之	-10.8197
曰昔	-10.8197
而不及	-10.8201
所著有	-10.8202
華嶽	-10.8203
即其	-10.8207
七經	-10.8212
序其	-10.8213
書云	-10.8215
集註	-10.8215
皆出	-10.8216
所用	-10.822
矣又	-10.822
為政	-10.8221
故能	-10.8222
意者	-10.8223
經書	-10.8225
斯道	-10.8226
所論	-10.8227
之辨	-10.8236
魏氏	-10.8237
不得其	-10.8237
學問	-10.8237
籕	-10.8238
安能	-10.8255
科舉	-10.826
所作也	-10.8261
鬻	-10.8262
於其間	-10.8262
以謂	-10.8263
中天	-10.8268
有意	-10.8272
布政使	-10.8275
状	-10.8275
異聞	-10.8277
户部	-10.8278
覃	-10.8279
矣又曰	-10.8281
主人	-10.8281
全集	-10.8282
合為一	-10.8284
畫卦	-10.8285
人情	-10.8286
鏜	-10.8286
正其	-10.8287
無事	-10.8287
勘	-10.8287
楷法	-10.8289
籙	-10.829
蛟	-10.829
牴牾	-10.8291
捷	-10.8291
籖	-10.8293
頻	-10.8293
陳振孫書録解題	-10.8294
􁭁	-10.8295
番	-10.8295
晝夜	-10.8297
巍	-10.8297
謂是	-10.8298
書後	-10.8298
七十五	-10.8298
汗	-10.8299
紂	-10.8301
縮	-10.8301
奢	-10.8303
宋氏	-10.8305
駭	-10.8305
瑀	-10.8306
天人	-10.8306
若干卷	-10.8308
于是	-10.8309
廊	-10.831
一字石經	-10.8313
州長史	-10.8314
儒林傳	-10.8315
玠	-10.8317
不知所	-10.8319
道家	-10.8319
再拜	-10.8326
詩有	-10.8327
至治	-10.8327
之篇	-10.833
一貫	-10.8333
烏程	-10.8334
闕補卷	-10.8338
六朝	-10.8338
毛鄭	-10.8341
楊慎	-10.8343
空言	-10.8344
及此	-10.8345
籀	-10.8345
卦氣	-10.8345
黄初	-10.835
十四篇	-10.8351
以疾	-10.8353
生平	-10.8354
孔傳	-10.8356
亦是	-10.836
乃作	-10.8361
豈無	-10.8363
之典	-10.8363
在州	-10.8363
長編	-10.8367
趙有	-10.8371
顔子	-10.8371
御題	-10.8374
宋史藝文志	-10.8375
武侯	-10.8378
稿二卷	-10.8382
本諸	-10.8392
隱公	-10.8393
論語孟子	-10.8403
所輯	-10.8406
焉則	-10.8407
之樂	-10.8409
桓公	-10.841
朽	-10.8414
之訓	-10.8423
四六	-10.8426
不逮	-10.8428
志三卷	-10.8432
也非	-10.8436
言詩	-10.8438
延之	-10.8438
監本	-10.8441
陽冰	-10.8441
貢士	-10.8442
在位	-10.8444
然後知	-10.8447
史稱	-10.8448
歎曰	-10.8449
小象	-10.845
長卿	-10.845
得一	-10.8451
忠孝	-10.8455
之命	-10.8458
有九	-10.846
沆	-10.8461
鍼	-10.8462
輔嗣	-10.8463
鶚	-10.8463
五十三	-10.8465
一百二十	-10.8465
鋟	-10.8466
之詳	-10.8467
冊府元龜	-10.8467
北山	-10.8468
祖宗	-10.8468
掲	-10.8468
奐	-10.8468
社稷	-10.8469
掛	-10.8469
屑	-10.8469
叩	-10.847
郡齋讀書志	-10.847
笥	-10.8472
二十三卷	-10.8472
棺	-10.8472
岷	-10.8473
時所	-10.8473
浙江通志	-10.8473
􁬬	-10.8474
􁭋	-10.8474
米元章	-10.8474
棘	-10.8475
括蒼	-10.8475
蔓	-10.8475
宇宙	-10.8475
舅	-10.8476
居正	-10.8476
其弟	-10.8477
小異	-10.8478
灑	-10.8478
募	-10.8479
其兄	-10.8482
延壽	-10.8482
垂拱	-10.8483
東方	-10.8483
姊	-10.8483
右丞	-10.8486
傳寫	-10.8487
侍御	-10.8491
蘭陵	-10.8493
於秦	-10.8495
大司農	-10.8495
直學士	-10.8497
一月	-10.8501
素問	-10.8501
懐素	-10.8503
撰十	-10.8504
㸃畫	-10.8506
拓本	-10.8506
威儀	-10.8508
民間	-10.8512
此刻	-10.8513
辭而	-10.8515
之詞	-10.8515
宗之	-10.8518
見前	-10.852
其初	-10.852
子路	-10.8524
百餘字	-10.8529
司業	-10.8531
如此則	-10.8532
重加	-10.8534
歙人	-10.8535
辨其	-10.8537
龍興寺	-10.8542
不變	-10.8543
為宗	-10.8544
於孔子	-10.8549
也嗚呼	-10.855
一百四十	-10.8556
著作	-10.8557
有兩	-10.8557
專以	-10.8565
信之	-10.8567
䕫	-10.8574
其體	-10.8575
七八	-10.8576
二年二月	-10.858
附錄	-10.8583
十有六	-10.859
撰正書無姓名	-10.8601
者今	-10.8608
文忠	-10.861
碑隂記	-10.8611
字正	-10.8611
年五十	-10.8612
不識	-10.8614
者是也	-10.8615
幽州	-10.8615
不宜	-10.8617
飛白	-10.862
以春秋	-10.8621
翕	-10.8623
論著	-10.8624
卷四	-10.8627
義一卷	-10.8627
六十九	-10.8632
緯書	-10.8634
釋義	-10.8635
失名	-10.8636
遺經	-10.8638
六十一	-10.8638
順帝	-10.864
比干	-10.8641
二行	-10.8641
籌	-10.8643
乾隆	-10.8643
瀾	-10.8645
黼	-10.8646
斧	-10.8648
鏤	-10.8649
語錄一部一冊	-10.8649
可辨	-10.8649
癸卯	-10.865
電	-10.865
倩	-10.865
裨	-10.865
集有	-10.865
譲	-10.8651
鋪	-10.8652
格言	-10.8652
慿	-10.8652
殿中侍御史	-10.8652
字亦	-10.8652
書院山長	-10.8652
華隂	-10.8653
芻	-10.8653
按察使	-10.8653
贄	-10.8653
顓	-10.8654
訛謬	-10.8654
舌	-10.8655
己亥	-10.8655
邾	-10.8655
鞠	-10.8657
三墳	-10.8657
覇	-10.8658
軫	-10.8658
剖	-10.8659
字原	-10.866
笙	-10.866
蜀本	-10.8661
㸔	-10.8662
騫	-10.8663
墟	-10.8663
卷數	-10.8665
故民	-10.8666
嘉靖中	-10.8666
左丘明	-10.8668
摹搨	-10.8674
貢生	-10.8674
之謂也	-10.8675
衛尉	-10.8677
行於	-10.8682
公武	-10.8682
黄庭	-10.8694
講論	-10.8695
子瞻	-10.8697
又稱	-10.8698
所未發	-10.8698
字用	-10.8699
上虞	-10.87
二十一篇	-10.8704
俞氏	-10.8704
中原	-10.8706
退之	-10.8707
之例	-10.8716
始為	-10.8717
一百五十	-10.8721
正書無姓名	-10.8722
所宜	-10.8723
為一書	-10.8725
論議	-10.8727
卷五	-10.8729
條理	-10.8729
六籍	-10.8732
以詩	-10.8733
指要	-10.8733
律厯	-10.8736
二十卷存	-10.8738
亦同	-10.8739
東林寺	-10.874
姚氏	-10.8741
一見	-10.8742
望之	-10.8746
質疑	-10.8748
小傳	-10.8752
墨本	-10.8752
詎	-10.8753
兩字	-10.8753
序言	-10.8755
篆法	-10.8759
無聞	-10.8762
指掌	-10.8765
近於	-10.8767
宣城	-10.8767
誤矣	-10.8768
建康	-10.8773
數十年	-10.8783
記二卷	-10.8795
漢陽	-10.88
篇目	-10.8805
中正	-10.8807
不特	-10.8808
使其	-10.8808
經説	-10.8809
作於	-10.8809
部郎中	-10.8813
新義	-10.8816
章草	-10.8816
上蔡	-10.8817
卷二	-10.882
余家	-10.8822
軍事	-10.8823
闕里	-10.8828
麻姑	-10.8828
集說	-10.8828
撮	-10.883
也是故	-10.883
藳	-10.8831
女子	-10.8831
肩	-10.8832
未詳何人	-10.8832
琬	-10.8834
偈	-10.8835
纘	-10.8835
忱	-10.8835
旱	-10.8835
麤	-10.8835
漢末	-10.8836
連山歸藏	-10.8837
中書侍郎	-10.8838
促	-10.8838
朝散大夫	-10.8839
刃	-10.8839
􁁜	-10.8839
赦	-10.8841
厄	-10.8841
矣予	-10.8841
工部侍郎	-10.8841
晃	-10.8842
録五卷	-10.8842
劣	-10.8843
塟	-10.8843
染	-10.8843
牆	-10.8843
隐	-10.8843
未之見	-10.8843
衛將軍	-10.8843
濡	-10.8844
驥	-10.8844
注易	-10.8844
駱	-10.8844
寗	-10.8844
剪	-10.8845
料	-10.8846
沮	-10.8846
菩薩	-10.8846
盧熊	-10.8846
舊刻	-10.8847
退而	-10.8848
衙	-10.8848
恃	-10.8848
障	-10.8849
净	-10.8849
少保	-10.885
皎	-10.8851
弋	-10.8851
衣冠	-10.8854
十三日	-10.8857
饒州	-10.8857
永徽	-10.8862
騎都尉	-10.8862
述其	-10.8862
三禮圖	-10.8862
不取	-10.8864
其變	-10.8865
可知也	-10.8867
授之	-10.8872
金薤琳琅	-10.8873
昻	-10.8873
孟子曰	-10.8874
此文	-10.8876
難得	-10.8886
無名氏	-10.8887
益以	-10.8889
四日	-10.889
其偽	-10.8891
鄭公	-10.8892
先生諱	-10.8894
大槩	-10.8895
第九	-10.8901
其石	-10.8902
山陰	-10.8905
頒行	-10.8908
㑹稽人	-10.8911
其不	-10.8911
撮要	-10.8915
二尺	-10.8915
只是	-10.8915
簡而	-10.8916
聖門	-10.8925
八唐	-10.8928
縣北	-10.893
志三冊	-10.8932
説苑	-10.8933
此又	-10.8934
行世	-10.894
孰能	-10.8944
刑部	-10.8944
漫稿	-10.8944
譬	-10.8945
易之道	-10.8947
不果	-10.8951
言行	-10.8954
若水	-10.8956
虞氏	-10.8959
書説	-10.8961
尚書左僕射	-10.8962
治道	-10.8963
吳縣人	-10.8964
志十二卷	-10.8964
二十八年	-10.8973
誠意	-10.8974
濟隂	-10.8975
刻于	-10.8977
過於	-10.8982
意其	-10.8983
經㫖	-10.8986
知其為	-10.899
續編	-10.8992
習之	-10.8993
年譜一卷	-10.8994
文詞	-10.8996
武夷	-10.8997
白石	-10.8999
一段	-10.9003
珣	-10.9007
潞	-10.9009
而謂	-10.901
經三卷	-10.9012
燔	-10.9012
批	-10.9016
異而	-10.9017
珂	-10.9017
句讀	-10.9017
亦皆	-10.9021
肅公	-10.9021
鑾	-10.9023
潢	-10.9025
𤨏	-10.9026
絃	-10.9026
涓	-10.9027
砥	-10.9027
指揮	-10.9028
数	-10.9028
溧陽	-10.9029
俸	-10.9029
忝	-10.9029
觀察使	-10.9031
帷	-10.9031
自漢以來	-10.9031
擕	-10.9032
織	-10.9032
淺陋	-10.9032
虗	-10.9032
點	-10.9033
後又	-10.9034
三字石經	-10.9035
毗	-10.9035
元和姓纂	-10.9036
廬陵人	-10.9037
鳥獸	-10.9037
墮	-10.9037
隋志十卷佚	-10.9038
繞	-10.9039
牽合	-10.9041
出知	-10.9043
光暎	-10.9045
千字文	-10.9046
隷釋	-10.9046
書序	-10.9047
千五百	-10.9048
爻象	-10.9049
館閣	-10.905
欲求	-10.905
而史	-10.9055
大矣	-10.9055
之善	-10.9056
書佐	-10.9056
後五日	-10.9057
本原	-10.9061
蔡京	-10.9062
有法	-10.9066
人少	-10.9072
上古	-10.9076
自爲	-10.9077
以求其	-10.9078
暇日	-10.9078
也吾	-10.9079
文淵	-10.9082
乆之	-10.9084
靈臺	-10.9091
諸碑	-10.9097
直解	-10.9099
之問	-10.9102
海陵	-10.9102
能盡	-10.9103
可笑	-10.9104
者故	-10.9106
禪院	-10.9106
重刋	-10.9109
序後	-10.9109
用其	-10.911
間人	-10.9111
陳公	-10.9115
全文	-10.9117
襄公	-10.912
而欲	-10.912
李君	-10.912
昂	-10.9123
此以	-10.9123
十六篇	-10.9124
木記	-10.9131
大戴	-10.9131
開國	-10.9131
立政	-10.9133
通經	-10.9137
年七十	-10.9138
千八百	-10.9138
字大	-10.914
尚書令	-10.914
世俗	-10.9141
職官	-10.9143
江寧	-10.9149
之使	-10.915
蘭亭序	-10.915
廣政	-10.9151
其爲	-10.9154
不廢	-10.916
不聞	-10.916
三十八卷	-10.9162
百卷	-10.9166
較之	-10.917
内有	-10.9172
氣象	-10.9172
烏程人	-10.9175
諸史	-10.9176
其妙	-10.9177
桓帝	-10.9179
王室	-10.918
禮論	-10.918
後之人	-10.9182
建安人	-10.9183
讀史	-10.9185
英宗	-10.9191
滁	-10.9192
三尺	-10.9193
生民	-10.9193
庶乎	-10.9193
三年十月	-10.9198
楊時	-10.9198
中語	-10.9204
太初	-10.9206
未始	-10.9206
新史	-10.921
晷	-10.9212
啇	-10.9212
禘	-10.9213
太平御覽	-10.9213
無名	-10.9215
裏	-10.9215
夭	-10.9216
鐡	-10.9216
詵	-10.9217
銖	-10.9217
攀	-10.9218
大定	-10.9218
彖象文言	-10.9218
霆	-10.9219
剡	-10.9219
把	-10.9219
吞	-10.922
鉞	-10.922
攘	-10.922
毘陵	-10.9221
翳	-10.9222
造像記	-10.9223
考古	-10.9224
腐	-10.9224
辛夘	-10.9224
校勘	-10.9225
罹	-10.9226
腕	-10.9226
奸	-10.9226
牋	-10.9226
五禮	-10.9227
卦畫	-10.9227
适	-10.9227
曝書亭集	-10.9229
郭忠恕	-10.923
侯之	-10.923
潤色	-10.9231
桀	-10.9231
子長	-10.9232
下邳	-10.9234
眷	-10.9234
小兒	-10.9235
古禮	-10.9236
篇第	-10.9236
弇州	-10.9239
好事	-10.924
太一	-10.9241
褚河南	-10.9241
黄巖人	-10.9243
諸帖	-10.9247
誦習	-10.9248
又續	-10.9252
聰明	-10.9253
存其	-10.9254
卦辭	-10.9256
相近	-10.9258
主事	-10.926
園集	-10.9264
博陵	-10.9264
最多	-10.9273
一部二	-10.9273
年進士	-10.9274
李靖	-10.9278
自唐	-10.9281
贈太子少保	-10.9283
幸而	-10.9284
性善	-10.9285
六十三	-10.9289
天啟	-10.9292
宣公	-10.9294
前漢	-10.9299
城南	-10.9301
兩卷	-10.9301
不可解	-10.9303
五六	-10.9308
變通	-10.9313
者尚	-10.9314
呉人	-10.9321
世稱	-10.9326
以盡	-10.9326
猶在	-10.9326
賈氏	-10.9329
超然	-10.9335
者與	-10.9335
司馬公	-10.9336
曰天	-10.9337
不受	-10.9339
偽書	-10.934
司馬氏	-10.934
竊謂	-10.9344
三皇	-10.9348
可據	-10.9352
太僕	-10.9354
無能	-10.9354
夏商	-10.9356
四部	-10.9358
敬仲	-10.9361
不信	-10.9361
龍興	-10.9362
也至於	-10.9362
無言	-10.9363
厥後	-10.9365
復古	-10.9369
史類	-10.937
之耳	-10.937
此皆	-10.9371
五十四	-10.9373
有六	-10.9376
要㫖	-10.9379
補闕	-10.938
昭明	-10.9385
都昌	-10.9386
節文	-10.9386
九唐	-10.9386
文獻通考	-10.9387
後之學者	-10.9389
有志	-10.939
治天下	-10.9391
太𤣥經	-10.9393
於聖人	-10.9394
重立	-10.9394
▁右	-10.9395
宗即位	-10.9396
此語	-10.9397
不逺	-10.9398
櫟	-10.9399
而不敢	-10.9399
塋	-10.94
佃	-10.94
又引	-10.94
孟軻	-10.9401
醮	-10.9405
鄉飲酒	-10.9406
公名	-10.9407
碑隂題名	-10.9409
刋於	-10.9409
不可識	-10.9409
韓擇木	-10.941
聯	-10.941
國子助教	-10.941
今名	-10.941
零	-10.9412
梯	-10.9412
乾鑿度	-10.9412
司農	-10.9413
甸	-10.9413
甘棠	-10.9414
耦	-10.9414
卒于	-10.9414
固不	-10.9414
瑋	-10.9414
逕	-10.9415
王元美	-10.9416
蔑	-10.9416
瑯琊	-10.9417
癖	-10.9417
寒暑	-10.9417
誇	-10.9417
灰	-10.9419
書則	-10.9419
襄王	-10.942
襟	-10.942
考定	-10.942
絹	-10.9421
泐	-10.9421
髮	-10.9421
虹	-10.9422
之竒	-10.9423
飲食	-10.9426
百里	-10.9426
京氏	-10.9426
薛稷	-10.9427
隘	-10.9427
劉子	-10.9429
記其	-10.9429
二者	-10.943
劉炫	-10.943
太子少保	-10.943
歙縣人	-10.943
宋本	-10.9431
羊欣	-10.9432
見也	-10.9436
禹廟	-10.9436
京口	-10.9436
二年正月	-10.9436
中宗	-10.9437
餘杭	-10.9437
諸説	-10.9449
字思	-10.9451
教之	-10.9454
斷碑	-10.9455
桂林	-10.9456
理也	-10.9459
又言	-10.9459
承㫖	-10.946
杜甫	-10.946
學者之	-10.9461
老莊	-10.9461
集五十卷	-10.9466
名也	-10.9467
之家	-10.9471
平湖人	-10.9472
不無	-10.9472
論一部一冊	-10.9473
大要	-10.9474
以資	-10.9475
附焉	-10.9476
移置	-10.9478
不作	-10.9478
小雅	-10.948
讀詩	-10.9481
少室	-10.9482
髙氏	-10.9483
復以	-10.9487
窮經	-10.9494
約而	-10.9495
金人	-10.95
分𨽻	-10.9501
家世	-10.9503
三十巻	-10.9506
也何	-10.9507
韓子	-10.9508
名儒	-10.9513
者雖	-10.9515
義烏人	-10.9519
雜録	-10.9519
異也	-10.952
釋疑	-10.9523
可言	-10.9527
春秋集傳	-10.9529
迄於	-10.9531
陸徳明曰	-10.9533
既久	-10.9533
安世	-10.9534
不遺	-10.9535
遣使	-10.9535
是已	-10.954
詩曰	-10.9544
古雅	-10.9545
江都	-10.9546
事跡	-10.9554
建陽	-10.9559
六十六	-10.9559
敬之	-10.9561
進表	-10.9561
止此	-10.9564
邦國	-10.9565
北平	-10.9565
東郡	-10.9567
序作於	-10.9569
世昌	-10.9572
畧一卷	-10.9573
漢中	-10.9575
二十一年	-10.9577
言而	-10.9578
昊	-10.9578
宋公	-10.9579
山記	-10.958
易簡	-10.9581
其象	-10.9583
二百三十	-10.9583
乎哉	-10.9584
未至	-10.9586
須知	-10.9587
校之	-10.959
先人	-10.9592
不倫	-10.9599
而益	-10.9604
趙岐	-10.9605
九成	-10.9607
芸	-10.9608
顥	-10.9609
不可知	-10.9611
厓	-10.9612
卯	-10.9614
三王	-10.9614
冒	-10.9614
管窺	-10.9614
陀	-10.9614
瞽	-10.9615
隴西	-10.9615
國子博士	-10.9616
錠紋	-10.9616
癸巳	-10.9617
豊	-10.9617
漳	-10.9618
峭	-10.9618
朂	-10.9619
芒	-10.9619
儆	-10.962
猥	-10.962
銷	-10.962
牖	-10.962
而入	-10.962
謡	-10.9621
突	-10.9622
京兆尹	-10.9622
狼	-10.9622
亾	-10.9623
擁	-10.9624
低	-10.9625
陁	-10.9626
庭堅	-10.9626
天尊	-10.9629
四十六卷	-10.963
剥蝕	-10.9631
也如	-10.9631
消長	-10.9632
纂例	-10.9636
訓解	-10.9639
不經	-10.9642
曲阜	-10.9642
家居	-10.9645
之義也	-10.9646
故自	-10.9647
七唐	-10.9648
而求之	-10.9651
叅政	-10.9652
時已	-10.9654
會昌	-10.9654
正書并篆額	-10.9657
相見	-10.9658
侍讀	-10.9658
博采	-10.9665
希聲	-10.9667
七十七	-10.9667
張旭	-10.9668
法書	-10.9669
偽蜀	-10.967
秦王	-10.967
體用	-10.967
漢武	-10.9671
墓在	-10.9671
為名	-10.9672
熊氏	-10.9675
精於	-10.9676
多識	-10.9677
棄之	-10.9683
二十五篇	-10.9685
乃取	-10.9686
也聖人	-10.9687
恐是	-10.9692
城西	-10.9693
河北	-10.9696
贈司空	-10.9696
小説	-10.9703
州司馬	-10.9711
文皇	-10.9713
字義	-10.9717
嘗從	-10.9718
十數	-10.9719
未濟	-10.9719
萬歴	-10.972
而獨	-10.9725
去官	-10.9725
遼東	-10.9726
乾之	-10.9726
死於	-10.9727
也是	-10.9729
正學	-10.9729
名之	-10.9729
撰李	-10.973
李元	-10.9731
詩義	-10.9732
武宗	-10.9733
寳應	-10.9736
下缺	-10.9736
疑義	-10.9738
多而	-10.9739
者曰	-10.9739
新舊	-10.974
今存	-10.9743
王孫	-10.9743
刪詩	-10.9744
為三	-10.9745
周室	-10.9746
以此知	-10.9749
西湖	-10.9751
謚曰	-10.9751
至其	-10.9751
帝堯	-10.9752
三國	-10.9754
號為	-10.9755
五卷佚	-10.9756
故特	-10.9764
王通	-10.9765
絶句	-10.9767
百二十	-10.9769
仁和	-10.9771
之説而	-10.9771
王政	-10.9773
衛人	-10.9773
陸德明曰	-10.9775
唐世	-10.9776
一則	-10.9777
名號	-10.9781
今年	-10.9782
陽明	-10.9784
閬	-10.9784
睢	-10.9791
威宗	-10.9791
百三十	-10.9794
字少	-10.9796
所補	-10.9797
功德	-10.9799
儒林	-10.9801
晞	-10.9811
𥙷	-10.9811
其遺	-10.9812
股	-10.9812
轡	-10.9812
檜	-10.9813
愆	-10.9815
浄	-10.9815
參以	-10.9815
絜	-10.9815
錡	-10.9816
山海經	-10.9817
寤	-10.9818
燧	-10.9818
之所由	-10.9818
㓕	-10.9818
䆒	-10.9818
七錄一卷佚	-10.9818
昱	-10.9818
中書舎人	-10.9819
始出	-10.9819
著作佐郎	-10.9819
㾗	-10.9819
珙	-10.9819
揔	-10.982
俠	-10.982
禍福	-10.9821
無書	-10.9821
尭	-10.9821
􁑷	-10.9821
訾	-10.9822
擴	-10.9822
軼	-10.9823
樞密	-10.9823
鑱	-10.9823
上官	-10.9824
浮屠	-10.9824
五十一	-10.9824
倅	-10.9824
釗	-10.9824
提學副使	-10.9825
蚤	-10.9825
髣髴	-10.9825
禪師塔銘	-10.9825
價	-10.9826
大中祥符	-10.9826
興元	-10.9827
穢	-10.9827
霽	-10.9829
不止	-10.9829
春王正月	-10.9829
轉運使	-10.983
三年正月	-10.983
為一編	-10.983
眇	-10.983
洙泗	-10.9831
天地萬物	-10.9832
殷仲容	-10.9832
欲使	-10.9832
其姓	-10.9833
興國	-10.9833
裴休	-10.9835
從顧釋	-10.9836
為詩	-10.9837
仁傑	-10.9837
為大	-10.9839
井田	-10.984
一部十五冊	-10.9842
先公	-10.9842
見于	-10.9843
碑石	-10.9843
史之	-10.9845
詩也	-10.9849
禮書	-10.9851
論一篇存	-10.9854
廣韻	-10.9855
唐崔	-10.9856
過半	-10.9858
祀典	-10.9866
夫易	-10.9867
作書	-10.9868
伯玉	-10.9868
故謂之	-10.9872
給事	-10.9872
其語	-10.9874
補宋	-10.9875
青州	-10.9881
觀音	-10.9881
吉甫	-10.9883
存疑	-10.9883
推明	-10.9884
斯言	-10.9887
法也	-10.9891
有石	-10.9895
立廟	-10.9897
經注	-10.9898
行人	-10.9902
之勢	-10.9904
長生	-10.9905
數十百	-10.9906
其在	-10.991
延年	-10.9911
也昔	-10.9911
大體	-10.9912
郭璞	-10.9912
易通	-10.9913
惟有	-10.9914
歲次	-10.9916
今碑	-10.9921
大過	-10.9922
焉故	-10.9922
類稿	-10.9923
所著書	-10.9924
止存	-10.9924
名其	-10.9925
侯相	-10.9925
文翁	-10.9927
書如	-10.9927
訓傳	-10.9928
分類	-10.9929
缺二	-10.9939
六函	-10.9941
乃得	-10.9941
瑟	-10.9943
有七	-10.9943
後生	-10.9944
十五里	-10.9944
五十八	-10.9945
上黨	-10.9945
閩中	-10.9946
有得	-10.9948
附于	-10.9948
不離	-10.9949
歸田	-10.9955
漢時	-10.9955
要畧	-10.9958
伯思	-10.996
書於	-10.9962
二年四月	-10.9965
正則	-10.9968
上言	-10.9968
互相	-10.997
王文	-10.9972
進士累官	-10.9972
本名	-10.9972
别號	-10.9976
此二	-10.9978
亦復	-10.998
字德	-10.9981
减	-10.9982
郭君	-10.9983
非有	-10.9985
建文	-10.9987
先君子	-10.9988
以擬	-10.9989
茫	-10.9991
楊君	-10.9994
江隂	-10.9995
圖說	-10.9998
倡和	-10.9999
熹平四年	-11
上經	-11.0001
為天下	-11.0005
歸一	-11.0006
二十卷又	-11.0009
前賢	-11.0011
豕	-11.0013
通書	-11.0014
聶	-11.0017
樂經	-11.002
鄭樵	-11.0021
二十日	-11.0022
鉛	-11.0023
扈	-11.0023
禹錫	-11.0023
棫	-11.0023
忩	-11.0023
雖非	-11.0024
河陽	-11.0024
芾	-11.0024
邵武	-11.0025
飢	-11.0026
癸亥	-11.0026
滛	-11.0027
莫可	-11.0027
丨丨丨	-11.0027
乳	-11.0028
絡	-11.0028
且曰	-11.0029
䕃	-11.0029
囚	-11.0029
大父	-11.0029
媿	-11.003
事則	-11.0031
愔	-11.0031
掠	-11.0031
藏於	-11.0031
棣	-11.0031
司馬温公	-11.0031
樓鑰	-11.0032
詐	-11.0032
囬	-11.0033
街	-11.0033
萬厯中	-11.0033
䧟	-11.0034
雝	-11.0035
溟	-11.0035
琢	-11.0035
扁	-11.0036
隷書	-11.0036
坎離	-11.0037
伋	-11.0037
索隠	-11.0037
縣主簿	-11.0038
郡庠	-11.0041
公羊傳	-11.0042
愽士	-11.0042
二百八十	-11.0045
咸陽	-11.0046
亘	-11.0047
不可廢	-11.0051
各一	-11.0056
流行	-11.006
句容	-11.006
集十四卷	-11.0061
既有	-11.0062
王著	-11.0064
刻在	-11.0067
一覽	-11.0068
多以	-11.007
述作	-11.0071
忠定	-11.0074
襄州	-11.0076
一紙	-11.0076
之由	-11.0077
啟䝉	-11.0077
祕書	-11.0079
繇是	-11.008
石碑	-11.0081
精舍	-11.0081
蔡傳	-11.0085
結體	-11.0086
不求	-11.0088
解詁	-11.0089
近時	-11.0089
留守	-11.0091
大猷	-11.0091
經生	-11.0093
及諸	-11.0093
張文	-11.0093
也豈	-11.0094
以獻	-11.0099
從子	-11.0101
千年	-11.0101
在西安府學	-11.0102
十八章	-11.0105
有得於	-11.0109
唐藝文志	-11.0111
左氏春秋	-11.0112
實為	-11.0115
自得之	-11.0118
條目	-11.0122
吳人	-11.0123
聞其	-11.0124
殿中	-11.0124
有竒	-11.0129
憶	-11.0136
乆矣	-11.0136
慶歴	-11.0137
能通	-11.014
易則	-11.014
武昌	-11.0141
丘氏	-11.0142
鶴山	-11.0145
行也	-11.0148
合者	-11.0151
州知州	-11.0153
二日	-11.0156
之墓	-11.0157
取而	-11.0158
編集	-11.0159
參考	-11.0159
舜臣	-11.016
詔令	-11.016
右僕射	-11.0161
撰人姓名	-11.0162
不察	-11.0163
隋唐志	-11.0164
為郎	-11.0165
玉山	-11.017
十卷右唐	-11.0174
二百六十	-11.0175
不可勝	-11.0175
元城	-11.0182
登科	-11.0183
云漢	-11.0185
行者	-11.0188
不可辨	-11.0191
䝉求	-11.0192
武定	-11.0203
他經	-11.0205
景徳	-11.0205
俱作	-11.0208
諡忠	-11.0209
象曰	-11.0212
字克	-11.0213
六十七	-11.0219
吳中	-11.0219
小大	-11.0228
二十卷佚	-11.0228
鬯	-11.0229
六經之	-11.023
鰲	-11.0231
未足	-11.0232
宋齊	-11.0232
無為	-11.0233
劄	-11.0234
鍊	-11.0236
東門	-11.0236
駙馬都尉	-11.0236
俚	-11.0236
揲蓍	-11.0237
讜	-11.0238
紐	-11.0238
釣	-11.0238
戀	-11.024
語孟	-11.024
二十九卷	-11.024
羞	-11.024
真本	-11.0241
愁	-11.0241
焕	-11.0242
秊	-11.0243
李陽氷	-11.0244
睹	-11.0244
壬申	-11.0244
膏	-11.0244
亦作	-11.0244
惕	-11.0245
醒	-11.0245
護	-11.0246
戮	-11.0246
矣余	-11.0246
誚	-11.0246
舉孝亷	-11.0246
增損	-11.0246
夸	-11.0247
称	-11.0248
樞宻	-11.0248
字舜	-11.0248
莒	-11.0249
頴川	-11.0251
亡而	-11.0251
簒	-11.0252
三十五卷	-11.0252
憂患	-11.0252
者耶	-11.0252
委曲	-11.0252
嘗有	-11.0254
厨	-11.0255
原父	-11.0255
絳州	-11.0255
守道	-11.0256
濓溪	-11.0256
此下一	-11.0258
以立	-11.0259
内侍	-11.026
剥落	-11.026
皇上	-11.0262
佚春秋	-11.0264
初九	-11.0267
之類皆	-11.0268
升降	-11.0269
參差	-11.0271
一語	-11.0271
有聲	-11.0272
天寳十	-11.0277
詁訓	-11.0279
尤精	-11.0281
卷七	-11.0281
在此	-11.0285
欣然	-11.0287
續帖	-11.0289
田氏	-11.0289
是矣	-11.0291
四十二卷	-11.0293
百八十	-11.0296
不肖	-11.0298
所題	-11.03
合作	-11.03
之經	-11.0301
太學生	-11.0302
其孫	-11.0305
忠烈	-11.0308
雖無	-11.0308
光庭	-11.0308
吾夫子	-11.0309
今考	-11.031
吕氏春秋	-11.0311
乃有	-11.0311
石林	-11.0311
博物	-11.0315
軒稿	-11.0317
龍泉	-11.032
稿四卷	-11.032
鼎銘	-11.0322
分别	-11.0323
如故	-11.0324
兩儀	-11.0325
山堂	-11.0329
歸之	-11.0331
閒居	-11.0333
召見	-11.0338
三年進士	-11.0342
二十八篇	-11.0344
千頃堂書目卷	-11.0345
㑹同	-11.0347
老矣	-11.0347
者謂之	-11.0351
天保	-11.0352
成帙	-11.0352
歐陽詢書	-11.0353
闕補	-11.0354
武氏	-11.0355
潮州	-11.0356
是亦	-11.0357
而碑云	-11.0358
管子	-11.0359
渡江	-11.0363
中官	-11.0364
開卷	-11.0364
光化	-11.0364
家人	-11.0364
蜀中	-11.0365
家訓	-11.0366
太清	-11.0372
律令	-11.0372
越州	-11.0373
其門	-11.0375
中説	-11.0378
一統	-11.0378
之謬	-11.0382
卷八	-11.0384
也於是	-11.0388
世本	-11.0389
續書	-11.0392
貴州	-11.0392
七畧	-11.0393
亦稱	-11.0397
景定	-11.0398
手自	-11.0404
樂安	-11.0405
兩朝	-11.0405
撫州	-11.0406
前集	-11.0407
記室	-11.0412
本書	-11.0413
可疑者	-11.0414
曹掾	-11.0416
而明	-11.0417
且以	-11.0418
者四	-11.0423
工於	-11.0424
勃	-11.0424
示之	-11.0426
平子	-11.0426
隋開皇	-11.0428
故知	-11.0432
不備	-11.0432
劉次莊	-11.0437
遁甲	-11.0437
軍節度	-11.0439
非古	-11.0441
漳州	-11.0442
先天圖	-11.0443
至若	-11.0445
犂	-11.0449
不誣	-11.0449
贈太師	-11.045
杰	-11.045
汸	-11.045
薊	-11.0451
認	-11.0453
棊	-11.0455
諸傳	-11.0456
之本也	-11.0456
七十一	-11.0456
一百九十	-11.0456
牡	-11.0458
悠	-11.0458
徂	-11.0459
溝	-11.0459
燬	-11.046
周必大	-11.046
燒	-11.046
蠧	-11.046
駟	-11.046
邢昺	-11.046
李德裕	-11.046
企	-11.0461
虢	-11.0462
布政司	-11.0462
歐陽永叔	-11.0462
龢	-11.0462
趙明誠	-11.0463
三卷右唐	-11.0464
優劣	-11.0465
季札	-11.0465
揺	-11.0466
虬	-11.0467
示人	-11.0467
梁武	-11.0468
址	-11.0468
應劭	-11.0468
栁公權	-11.0469
取象	-11.047
餘姚	-11.047
㑹善寺	-11.047
漫漶	-11.0471
歐陽文忠公	-11.0472
一部七冊	-11.0472
逢吉	-11.0473
假借	-11.0473
湍	-11.0476
范文正公	-11.0477
和二年	-11.0477
禊帖	-11.0478
封禪	-11.0479
賓客	-11.048
元年十二月	-11.0481
煬帝	-11.0481
西域	-11.0483
集錄	-11.0485
鄉試	-11.0485
所纂	-11.0488
而廢	-11.0488
目之	-11.0489
吳江	-11.049
墓志	-11.049
胸中	-11.0491
朱子本義	-11.0491
釐正	-11.0492
高氏	-11.0493
正朔	-11.0497
得見	-11.0499
讀詩記	-11.0504
詳解	-11.0508
與天地	-11.0508
墨跡	-11.0509
遺跡	-11.051
石鼓文	-11.051
編二卷	-11.0514
然猶	-11.0514
劉顧作	-11.0517
趙子	-11.052
義士	-11.0524
安縣	-11.0524
此類	-11.0526
不窮	-11.053
莫知其	-11.0538
春秋説	-11.0538
内閣	-11.0539
六帖	-11.0539
朔方	-11.0539
従事	-11.0542
者已	-11.0542
說一卷	-11.0542
真偽	-11.0543
闕一字	-11.0544
七人	-11.0546
不可見	-11.0547
劉牧	-11.055
直指	-11.055
田何	-11.0551
方平	-11.0555
臨本	-11.0559
説一篇存	-11.0562
院碑	-11.0562
二首	-11.0568
五家	-11.0568
詩草	-11.0578
一㸃	-11.0579
以易	-11.0582
論説	-11.0582
説春秋	-11.0583
以薦	-11.0585
蘭亭叙	-11.0593
小稿	-11.0593
不赴	-11.0595
字源	-11.0604
可得	-11.0614
蔵本	-11.0623
讀為	-11.0627
石氏	-11.0631
江浙	-11.0635
言一卷	-11.0635
盛徳	-11.0638
病其	-11.0641
不已	-11.0643
也已	-11.0647
豈其	-11.0654
帖末	-11.0654
詩解	-11.0657
入為	-11.0657
太倉	-11.0658
齊梁	-11.066
唐𤣥宗	-11.066
栻	-11.066
二卷佚	-11.0669
龍虎	-11.067
樷	-11.0671
濳虛	-11.0671
暹	-11.0672
渚	-11.0675
翫	-11.0676
愿	-11.0676
按察司僉事	-11.0677
灝	-11.0679
大用	-11.0679
儋	-11.0682
魄	-11.0682
墖	-11.0682
慙	-11.0682
圯	-11.0683
椘	-11.0683
胤	-11.0684
虐	-11.0685
濱	-11.0685
黄震曰	-11.0685
偁	-11.0686
驪	-11.0686
逺而	-11.0687
兑	-11.0688
㓂	-11.0688
姓名殘缺	-11.0689
旂	-11.069
則必	-11.069
夏氏	-11.069
頽	-11.069
車騎將軍	-11.0691
潤州	-11.0691
諦	-11.0691
不入	-11.0691
續志	-11.0691
聳	-11.0692
卽	-11.0692
菜	-11.0692
中興頌	-11.0693
德宗	-11.0693
万	-11.0695
迄今	-11.0696
聖人所以	-11.0696
之勤	-11.0696
黄庭堅	-11.0698
人物志	-11.0701
景雲	-11.0702
王右軍	-11.0702
金石文	-11.0707
五音	-11.0707
通變	-11.0708
二年十月	-11.071
薦之	-11.0712
太宰	-11.0712
濟源	-11.0715
文定	-11.0717
鉤摹	-11.0717
二十九篇	-11.072
今此	-11.0722
既得	-11.0725
云此	-11.0725
事業	-11.0726
師塔銘	-11.0726
歐趙有	-11.0726
行省	-11.0726
鐘銘	-11.0727
▁年立	-11.0729
亦可以	-11.0733
蘇州府	-11.0735
於下	-11.0735
也但	-11.0736
篇次	-11.0736
福清人	-11.0737
之不可	-11.0738
疏草	-11.0738
不少	-11.0738
門弟子	-11.0739
玩辭	-11.074
壁間	-11.0746
集録	-11.0748
也葢	-11.0749
甚明	-11.0749
信然	-11.0753
盛衰	-11.0754
雜出	-11.0755
書亦	-11.0756
漢官	-11.0756
江縣	-11.0756
乾卦	-11.0758
曰我	-11.0758
唐王	-11.0762
領軍	-11.0763
畫像	-11.0764
泰伯	-11.0764
公主碑	-11.0769
無間	-11.077
士人	-11.0772
而傳之	-11.0775
内傳	-11.0776
從周	-11.0778
集十六卷	-11.0778
辨證	-11.0782
每行	-11.0783
而實	-11.0783
白虎	-11.0787
以明經	-11.0789
尚書省	-11.0789
文粹	-11.0794
言語	-11.0798
體也	-11.0799
難於	-11.0799
三十四卷	-11.0802
類要	-11.0803
代孫	-11.0805
始作	-11.0806
演義	-11.0807
殺之	-11.0807
後世之	-11.0809
不善	-11.0811
未甞	-11.0811
其姓名	-11.0813
經綸	-11.0813
太常寺	-11.0815
而不得	-11.0816
集古録云	-11.0816
詩以	-11.0818
端平	-11.082
其流	-11.0823
碑側	-11.0826
至當	-11.0826
名士	-11.0829
永樂中	-11.083
孔子廟碑	-11.0831
元年正月	-11.0831
五年立	-11.0834
執中	-11.0834
春秋之義	-11.0836
亦當	-11.0838
題其	-11.0838
覽者	-11.084
婺州	-11.0847
極於	-11.0849
三碑	-11.0849
卷六	-11.085
小史	-11.0858
託之	-11.0859
之甚	-11.0866
俱有	-11.0867
正誤	-11.087
黄伯思	-11.0879
土地	-11.0883
書皆	-11.0895
則謂	-11.0897
曰公	-11.0897
貸	-11.0898
下經	-11.0899
大聖	-11.09
炙	-11.09
稗	-11.0902
曆	-11.0904
尺牘	-11.0905
慤	-11.0905
仞	-11.0907
雖未	-11.091
膳	-11.091
尅	-11.0911
東林	-11.0911
寥	-11.0911
槀	-11.0911
濯	-11.0912
翰苑	-11.0912
嵩陽	-11.0912
宓	-11.0912
犀	-11.0913
孔叢子	-11.0913
張君	-11.0914
狥	-11.0914
吕公	-11.0915
丙寅	-11.0915
聿	-11.0916
洛誥	-11.0916
啓䝉	-11.0916
傅㑹	-11.0917
歐陽率更	-11.0917
舉孝廉	-11.0917
太誓	-11.0917
夏小正	-11.0917
益州太守	-11.0918
荼	-11.0918
錫熊	-11.0918
疲	-11.092
臨淮	-11.0921
庖	-11.0923
倬	-11.0923
揚子雲	-11.0923
弱冠	-11.0924
日録	-11.0925
糢糊	-11.0926
予之	-11.0928
子由	-11.0928
墨蹟	-11.0929
其成	-11.093
劉敞	-11.0931
辯才	-11.0932
十有九	-11.0933
松雪	-11.0934
獨孤	-11.0938
二年三月	-11.0938
博古	-11.0939
既已	-11.0939
殿記	-11.0939
知非	-11.0941
長短	-11.0942
永泰	-11.0942
謝安	-11.0943
初為	-11.0944
上方	-11.0944
蘭溪人	-11.0945
四子	-11.0946
三十三卷	-11.0947
多士	-11.0948
嘉泰	-11.0948
裔孫	-11.0949
其額題	-11.0951
未嘗有	-11.0952
説佚	-11.0952
韓文公	-11.0953
便於	-11.0954
總纂	-11.0954
元氏	-11.0955
其詳	-11.0962
左丞	-11.0965
篇名	-11.0968
而後有	-11.0975
四十年	-11.0977
七十三	-11.0977
而此碑	-11.0979
六子	-11.0982
監修	-11.0983
而亡	-11.0985
五十八篇	-11.0985
疑非	-11.0995
傅氏	-11.0996
八曰	-11.0996
之業	-11.0997
音韻	-11.0998
詩集一卷	-11.1
安樂	-11.1004
者得	-11.1004
四十九篇	-11.1007
長樂人	-11.1009
華州	-11.101
乎曰	-11.1011
以釋	-11.1011
西安府	-11.1016
輟	-11.1016
周正	-11.1022
四唐	-11.1022
建初	-11.1026
九十六	-11.1026
長文	-11.1027
直方	-11.1027
上清	-11.1029
公以	-11.1035
碑今在	-11.1036
一畫	-11.1038
官爵	-11.104
定其	-11.1042
纂集	-11.1044
世教	-11.1044
屬辭	-11.1045
不倦	-11.1047
舉子	-11.1047
用功	-11.1049
光明	-11.105
而已哉	-11.1053
之父	-11.1054
說者	-11.1055
嘗見	-11.1055
兾	-11.1057
上元人	-11.1058
先生集	-11.1058
實有	-11.1059
二年七月	-11.1062
醫學	-11.1062
經世之	-11.1065
傳於	-11.1074
大師碑	-11.1074
陳國	-11.1076
齊名	-11.1077
有志於	-11.1083
八十四	-11.1083
典故	-11.1085
竟不	-11.1087
有異同	-11.1088
趙孟頫	-11.1089
縣南	-11.1094
數語	-11.1095
書凡	-11.1096
學詩	-11.1098
中候	-11.11
自任	-11.1102
六人	-11.1103
語一卷	-11.1106
不著書人名氏	-11.1109
新語	-11.1113
凡七	-11.1115
云是	-11.1116
金氏	-11.1117
考宋史	-11.1119
汶	-11.1119
濂	-11.1121
人君	-11.1121
白居易	-11.1123
成帝	-11.1124
璵	-11.1127
等帖	-11.1129
无咎	-11.1134
蠱	-11.1134
闗中	-11.1134
葆	-11.1134
乙卯	-11.1135
牀	-11.1136
為之記	-11.1136
顧從義	-11.1136
成陽	-11.1137
妹	-11.1138
令狐楚	-11.1138
萬民	-11.1139
五典	-11.1139
參同契	-11.1139
翹	-11.1139
雀	-11.114
浴	-11.114
制誥	-11.114
挹	-11.1141
集賢院	-11.1141
婚	-11.1141
茹	-11.1142
聼	-11.1142
御製序	-11.1142
四卷未見	-11.1143
紆	-11.1143
曙	-11.1143
巷	-11.1143
祕書監	-11.1144
宋濓	-11.1144
欄	-11.1145
紹熙	-11.1145
隙	-11.1145
妣	-11.1146
列於學官	-11.1146
孫士毅	-11.1146
祕書省	-11.1147
東方朔	-11.1147
夷狄	-11.115
蘇子瞻	-11.115
雩	-11.115
河南尹	-11.115
翥	-11.1151
燦然	-11.1153
鴻漸	-11.1153
正傳	-11.1154
山縣志	-11.1156
纒	-11.1156
荆州刺史	-11.1156
終不	-11.1157
家所藏	-11.1159
晳	-11.1159
以卜筮	-11.1159
之工	-11.116
慈恩寺	-11.1161
有數	-11.1161
何為	-11.1163
援引	-11.1164
者非也	-11.1165
修禊	-11.1166
列之	-11.1166
詳説	-11.1167
索靖	-11.1167
蓋其	-11.1172
發之	-11.1173
何可	-11.1173
十二卷佚	-11.1174
與史	-11.1174
泰和人	-11.1177
詹事	-11.1177
王洙	-11.1179
曰是	-11.118
鐘鼎	-11.1181
博雅	-11.1181
全經	-11.1182
即是	-11.1182
晦庵先生	-11.1184
汾陽	-11.1184
孟子解	-11.1184
弟也	-11.1186
義而	-11.1188
發其	-11.1188
所從	-11.1189
和三年	-11.119
追封	-11.1194
一世	-11.1196
嵗久	-11.1198
和尚碑	-11.1201
隆興	-11.1201
三十餘	-11.1202
五曰	-11.1207
大學衍義	-11.1207
二百九十	-11.1211
獨此	-11.1213
史家	-11.1213
當是時	-11.1217
在天	-11.1219
淳于	-11.1219
刋定	-11.1226
真君	-11.1227
説之	-11.1228
寧海	-11.1233
開元寺	-11.1234
秦人	-11.1236
虞卿	-11.1237
一有此	-11.124
顧本	-11.1247
淮南子	-11.1248
五十九	-11.1251
所遺	-11.1252
者自	-11.1252
惟恐	-11.1253
于後	-11.1253
聖徳	-11.1257
所造	-11.1262
焦山	-11.1263
簡易	-11.1265
盧氏	-11.1266
各異	-11.1266
五里	-11.1274
諸儒之説	-11.1274
水之	-11.1275
後以	-11.1276
難讀	-11.1279
千萬	-11.128
羲文	-11.1288
吾家	-11.1288
鄭康成注	-11.1289
者衆	-11.1289
者若	-11.129
復得	-11.1293
其言曰	-11.1296
方圓	-11.1297
吏民	-11.1298
文多	-11.1299
▁昇	-11.1304
博而	-11.1305
所至	-11.1308
固辭	-11.1309
彼此	-11.1309
余以	-11.1312
婺源	-11.1315
注一卷	-11.1321
縣學生	-11.1321
所疑	-11.1325
二程	-11.1326
要覽	-11.1327
憚	-11.1331
祭禮	-11.1332
記事	-11.1333
七十四	-11.1337
漫録	-11.1338
手書	-11.134
陳振孫	-11.1343
亡也	-11.1349
之賢	-11.1349
亦足	-11.1349
凡一百	-11.1351
處州	-11.1354
定國	-11.1355
乃謂	-11.1355
碑記	-11.1359
盡在	-11.136
然以	-11.136
資治通鑑	-11.1364
語也	-11.1366
博通	-11.1367
曼	-11.1368
天平	-11.1369
悌	-11.1369
在上	-11.137
必欲	-11.1371
犧	-11.1371
昕	-11.1372
羌	-11.1374
都察院	-11.1374
殉	-11.1375
捕	-11.1375
三四	-11.1376
虧	-11.1376
遹	-11.1376
㝡	-11.1376
巗	-11.1376
叡	-11.1376
訢	-11.1376
也或曰	-11.1377
燮	-11.1377
侔	-11.1377
造像碑	-11.1379
遞	-11.1379
昺	-11.1379
之奥	-11.1379
汙	-11.138
卭	-11.1381
侮	-11.1382
冐	-11.1382
栁宗元	-11.1382
辦	-11.1382
煇	-11.1382
賚	-11.1382
泄	-11.1382
汲冢	-11.1382
覃思	-11.1382
艸	-11.1383
蕐	-11.1383
稜	-11.1383
賣	-11.1383
畨	-11.1384
云君諱	-11.1384
解釋	-11.1385
盪	-11.1385
堵	-11.1386
後人所	-11.1386
耄	-11.1387
貴賤	-11.1387
尚書左丞	-11.1388
悵	-11.1388
魯論	-11.1389
欽定四庫全書史部十四	-11.1391
凡六	-11.1392
晉宋	-11.1395
考明史	-11.1395
亳州	-11.1396
嘗著	-11.1398
除郎中	-11.14
應麟	-11.1401
延夀	-11.1401
書解	-11.1401
戒壇	-11.1402
以病	-11.1402
昭然	-11.1403
口訣	-11.1403
唐𤣥度	-11.1405
桓温	-11.1406
􁓑	-11.1406
呂氏	-11.1406
萬世之	-11.1407
反復	-11.1408
永淳	-11.1408
齊宣王	-11.1409
意也	-11.1412
宜興	-11.1413
黄公	-11.1414
李林甫	-11.1414
别傳	-11.1414
小畜	-11.1416
大理	-11.1416
表上	-11.1417
子也	-11.1417
此非	-11.1417
録八卷	-11.1417
各自	-11.1418
見矣	-11.1419
伯父	-11.1422
施於	-11.1425
亦從顧釋	-11.1427
兩帖	-11.1429
太后	-11.143
南城	-11.1431
四庫	-11.1431
二十餘年	-11.1435
他本	-11.1435
字茂	-11.1436
山有	-11.1441
獨以	-11.1443
凡八	-11.1443
又次	-11.1446
二氏	-11.1446
留題	-11.1446
亡者	-11.1447
縣有	-11.1452
舊圖	-11.1457
新城	-11.1457
七行	-11.1459
知也	-11.1459
濮陽	-11.1461
五卷存	-11.1461
伯恭	-11.1462
紀傳	-11.1465
保定	-11.1466
中書門下	-11.1466
求諸	-11.1469
而天下	-11.147
尹氏	-11.147
涿	-11.1474
訛舛	-11.1475
者因	-11.1477
者一	-11.1477
山房	-11.1477
李白	-11.1478
無量	-11.148
四月立	-11.1482
未為	-11.1483
于志寧撰	-11.1483
雜著	-11.1486
湖南	-11.1489
預修	-11.149
掇拾	-11.1492
通論	-11.1493
板本有	-11.1496
耒	-11.15
汝州	-11.1503
則一	-11.1504
齊詩	-11.1504
其墓	-11.1505
以聞	-11.1506
正叔	-11.1506
元結	-11.1507
無年月	-11.1511
古法	-11.1511
九十五	-11.1515
奥義	-11.1515
於此者	-11.1517
方一部一冊	-11.1524
卒諡文	-11.1525
起家	-11.1527
於魯	-11.1529
六十八	-11.1531
數家	-11.1534
子産	-11.1535
刋刻	-11.1535
泰和	-11.1539
予謂	-11.1539
百户	-11.154
闕疑	-11.1545
分爲	-11.1546
日抄	-11.1547
皆以為	-11.1548
字允	-11.1549
名為	-11.1552
並列	-11.1555
著有	-11.1556
百四十	-11.1558
然皆	-11.1558
親見	-11.156
為首	-11.1562
何異	-11.1563
七十八	-11.157
公事	-11.1573
黄長睿	-11.1574
又東	-11.1578
八行	-11.1581
明乎	-11.1588
家蔵	-11.1591
年六十	-11.1595
府知府	-11.1598
大綱	-11.16
佛像	-11.16
關中	-11.1603
教化	-11.1605
公羊榖梁	-11.1607
百五十	-11.1609
提綱	-11.1611
陸氏釋文	-11.1612
書坊	-11.1614
匿	-11.1616
脗合	-11.1616
徐嶠之	-11.1617
○	-11.1617
絢	-11.1617
下至	-11.1618
經二卷	-11.1618
懇	-11.1619
亭侯	-11.1619
打	-11.1619
太中大夫	-11.162
鎰	-11.162
己夘	-11.1621
紘	-11.1621
貲	-11.1621
仕為	-11.1621
應天	-11.1621
金縢	-11.1622
董逌	-11.1622
墅	-11.1622
范祖禹	-11.1623
長孫無忌	-11.1623
山下	-11.1623
慘	-11.1623
譎	-11.1623
纖	-11.1623
丁卯	-11.1624
隋經籍志	-11.1624
羨	-11.1625
惻	-11.1626
真徳秀	-11.1627
讎	-11.1627
駒	-11.1627
字今附録	-11.1627
土人	-11.1627
抽	-11.1627
俞汝言曰	-11.1627
蟠	-11.1627
疑即	-11.1628
惶	-11.1628
放生池	-11.1628
般若	-11.1629
論三卷	-11.1629
蘿	-11.1629
迫	-11.1629
詩二卷	-11.1629
眺	-11.1631
之物	-11.1631
土中	-11.1631
三里	-11.1632
依託	-11.1633
眩	-11.1633
瘞	-11.1633
伽	-11.1633
帑	-11.1633
携	-11.1634
大節	-11.1634
等謹案	-11.1634
郊祀	-11.1635
諸家之	-11.1636
己巳	-11.1638
徽州	-11.1638
事蹟	-11.1638
同年	-11.1641
朝野	-11.1642
張九齡	-11.1645
録又	-11.1645
歸安人	-11.1646
詮次	-11.1646
帖目當稱	-11.1648
不苟	-11.1649
李燾	-11.1649
著為	-11.1652
字孔	-11.1652
以為非	-11.1653
衛宏	-11.1655
富貴	-11.1656
焉者	-11.1656
格致	-11.1658
不爲	-11.166
程文	-11.1663
若有	-11.1664
葢自	-11.1665
太甲	-11.1667
所據	-11.1669
晉王	-11.167
直以	-11.1672
武帝時	-11.1672
道而	-11.1672
上虞人	-11.1672
學易者	-11.1675
此説	-11.1678
祖謙	-11.1678
論易	-11.1678
奉祠	-11.1679
多寡	-11.1684
之主	-11.1684
孝弟	-11.1686
廣徳	-11.1689
重卦	-11.1692
辨才	-11.1698
十人	-11.1701
余謂	-11.1706
藏經	-11.1707
神祠	-11.171
永寧	-11.1711
觀覽	-11.1711
十六字	-11.1711
雖曰	-11.1711
大都督	-11.1712
撰凡	-11.1713
公權	-11.1714
著録	-11.1715
之宜	-11.1715
太古	-11.1715
宋版	-11.1715
必自	-11.1716
大篆	-11.1717
西平	-11.1718
金石錄	-11.1718
二里	-11.1722
講明	-11.1727
太白	-11.1727
卒史	-11.1731
之見	-11.1732
筵	-11.1733
僖公	-11.1734
之性	-11.1734
言事	-11.1735
六七	-11.1737
窮理	-11.1739
至順	-11.1742
但以	-11.1747
舊在	-11.1748
新編	-11.1749
訪求	-11.175
其國	-11.1752
三世	-11.1753
嘉祐中	-11.1759
月十八日	-11.1762
王士	-11.1767
五唐	-11.1768
原本作	-11.1768
分章	-11.1769
尊信	-11.1773
也盖	-11.1773
去非	-11.1776
卷九	-11.1777
一百七十	-11.1778
論語孝經	-11.1785
新建	-11.1787
别為一	-11.1788
一百二十卷	-11.1789
元末	-11.1791
上自	-11.1793
三年二月	-11.1793
獨不	-11.1794
未安	-11.1795
玉篇	-11.1796
自序曰易	-11.1797
即今	-11.1797
安縣志	-11.1798
未發	-11.1803
也謂	-11.1805
操之	-11.1805
詩學	-11.1806
蓋亦	-11.1808
也雖然	-11.1808
鄉侯	-11.1815
闕七	-11.1816
藏於家	-11.1817
平仲	-11.182
衛大將軍	-11.182
吾鄉	-11.182
和平	-11.1822
祖述	-11.1823
以示人	-11.1823
易論	-11.1823
數十字	-11.1824
有不同	-11.1826
而行之	-11.1829
多與	-11.1832
歴年	-11.1835
已下	-11.1835
六經圖	-11.184
圻	-11.184
未就	-11.1849
液	-11.185
南昌人	-11.185
六畫	-11.1851
之手	-11.1851
疑焉	-11.1852
其一也	-11.1855
山詩	-11.1856
紀元	-11.1857
彤	-11.1861
其來	-11.1861
跋云	-11.1862
以父	-11.1862
娥	-11.1864
袖	-11.1865
絀	-11.1866
三書	-11.1866
副都御史	-11.1868
雉	-11.187
武進人	-11.187
隄	-11.187
斐	-11.187
儷	-11.1871
徘徊	-11.1871
馨	-11.1871
諶	-11.1871
馭	-11.1871
牛僧孺	-11.1872
華岳	-11.1872
錮	-11.1873
琪	-11.1873
駐	-11.1873
驕	-11.1873
鼂	-11.1873
翰林待詔	-11.1874
彷彿	-11.1874
易曰	-11.1875
晰	-11.1876
邯鄲淳	-11.1876
藍	-11.1876
憬	-11.1877
装	-11.1877
沈傳師	-11.1877
飯	-11.1879
弛	-11.1881
闊	-11.1881
兢	-11.1881
妍	-11.1883
謐	-11.1884
庻幾	-11.1884
壓	-11.1886
魏郡	-11.1886
一部四	-11.1889
此為	-11.1889
九十一	-11.189
碑稱	-11.189
周孔	-11.1891
怛	-11.1892
八十一首	-11.1894
嗟夫	-11.1894
四函	-11.1894
隂符經	-11.1896
古詩	-11.1896
陸淳	-11.1897
學古	-11.1897
豆盧	-11.1898
鴻都	-11.1898
靈芝	-11.1899
三國志	-11.1901
八十六	-11.1902
既以	-11.1907
摹印	-11.1907
黄庭經	-11.191
以理	-11.1911
陳子	-11.1911
未有不	-11.1912
為古文	-11.1914
祠堂記	-11.1916
末云	-11.1917
髙麗	-11.1917
成功	-11.1919
夫以	-11.1922
五服	-11.1924
其祖	-11.1925
歳月	-11.1926
聲音	-11.1927
奉化人	-11.1934
文饒	-11.1936
也春秋	-11.1937
咸亨	-11.1939
州知府	-11.194
不利	-11.1941
禮制	-11.1943
明夷	-11.1943
曾祖	-11.1943
韓愈撰	-11.1944
家本	-11.1945
經濟	-11.1945
者二	-11.1946
乃是	-11.1949
斯人	-11.195
此言	-11.195
林甫	-11.1953
至於今	-11.1954
南宋	-11.1958
卷二十	-11.1958
平日	-11.1961
先世	-11.1962
趙汝	-11.1965
講解	-11.1965
類聚	-11.1965
明日	-11.1966
詳定	-11.1966
養生	-11.1968
二十五年	-11.1969
不著録	-11.1971
二禮	-11.1976
所未及	-11.1977
陳元	-11.1978
義理之	-11.1979
大典	-11.198
荆公	-11.198
趙郡	-11.198
以訓	-11.1981
永叔	-11.1982
忠武	-11.1983
沛國	-11.1984
今按	-11.1986
至京師	-11.1988
其旨	-11.1989
遺言	-11.1994
與弟	-11.1995
獨有	-11.1995
二十九日	-11.1998
二十卷右	-11.2004
逸書	-11.2007
時作	-11.2012
入石	-11.2014
人主	-11.2018
而不言	-11.2021
幼學	-11.2025
宣武	-11.2027
同郡	-11.2027
篇一卷	-11.2027
之東	-11.2028
性命之	-11.2028
不顯	-11.2029
而論	-11.2031
皆稱	-11.2032
力行	-11.2032
以經	-11.2037
唐韋	-11.2038
我朝	-11.204
所重	-11.204
六合	-11.204
竊取	-11.2041
完書	-11.2042
今已	-11.2042
不堪	-11.2043
圗一卷	-11.2045
年四十	-11.2045
互有	-11.2046
甫撰	-11.2048
戴聖	-11.2048
為治	-11.2052
春秋公羊傳	-11.2054
陽山	-11.2056
决非	-11.2056
讀禮	-11.2061
為民	-11.2065
二十三年	-11.2065
蓋有	-11.2066
改定	-11.2066
十六巻	-11.2067
亦不能	-11.2068
亦必	-11.2072
禕	-11.2075
得之於	-11.2077
能知	-11.2079
多引	-11.208
五色	-11.2086
奉天	-11.2086
校刋	-11.2087
議曹掾	-11.2087
􁀙(	-11.2088
皆出於	-11.2089
應龍	-11.209
從容	-11.2091
楚人	-11.2094
而猶	-11.2095
其端	-11.2104
也是以	-11.2105
叙述	-11.2106
㦸	-11.2109
歐趙	-11.2113
四十里	-11.2114
帖云	-11.2115
周易義	-11.2115
獻帝	-11.2118
傳一部一冊	-11.2118
之門人	-11.2121
五千	-11.2121
黻	-11.2121
而正之	-11.2122
莞	-11.2123
別	-11.2123
磐	-11.2123
楫	-11.2124
皥	-11.2125
而生	-11.2125
賜號	-11.2126
慝	-11.2126
錠	-11.2126
希弁	-11.2127
躋	-11.2127
從弟	-11.2128
八十三	-11.2128
庶㡬	-11.2128
穰	-11.213
皮日休	-11.213
熾	-11.2131
鯨	-11.2131
頑	-11.2131
何喬新	-11.2131
弇	-11.2131
鄆	-11.2132
通鑑綱目	-11.2132
孔穎達	-11.2132
曹學佺	-11.2132
亂臣賊子	-11.2133
㛐	-11.2133
秦檜	-11.2133
鏤板	-11.2133
於兹	-11.2133
漢藝文志	-11.2133
磔	-11.2133
聚訟	-11.2133
司𨽻校尉	-11.2133
圈	-11.2134
樊毅	-11.2134
盍	-11.2135
禋	-11.2135
撓	-11.2135
𢎞農	-11.2135
胙	-11.2136
觴	-11.2137
悅	-11.2137
疊	-11.2139
時行	-11.214
蘇轍	-11.214
丁夘	-11.2141
一部十二冊	-11.2141
收蔵	-11.2142
字懋	-11.2146
御覽	-11.2146
元明	-11.2147
了翁	-11.2147
張彦逺	-11.2148
不工	-11.2148
淳安人	-11.2149
御史臺	-11.2149
程邈	-11.215
初以	-11.215
應天府	-11.215
版式	-11.2151
宋儋	-11.2151
臆見	-11.2153
奉勑	-11.2153
赤城	-11.2154
祓	-11.2154
白虎通	-11.2157
盡矣	-11.2157
以行	-11.216
爵里	-11.2161
髙帝	-11.2161
天禧	-11.2162
施宿作	-11.2163
亦已	-11.2164
商周	-11.2165
以言	-11.2167
詞科	-11.2167
夏官	-11.2168
者歟	-11.2172
書譜	-11.2173
縣志十卷	-11.2174
以降	-11.2175
一通	-11.2178
正史	-11.2179
子美	-11.2179
之意也	-11.2184
荆南	-11.2185
縣志八卷	-11.2188
耶律	-11.219
徙居	-11.219
豈惟	-11.2191
日新	-11.2193
豈獨	-11.2193
吾道	-11.2193
永夀	-11.2195
紹定	-11.2196
孟喜	-11.2198
等語	-11.2201
就正	-11.2202
甌	-11.2202
神武	-11.2202
言易者	-11.2203
纂輯	-11.2204
後之君子	-11.221
知此	-11.2213
陰符經	-11.2215
建國	-11.222
變占	-11.2222
止有	-11.2224
不復見	-11.2225
郡邑	-11.2227
又如	-11.223
文集二十卷	-11.2232
九人	-11.2232
淮陽	-11.2235
分之	-11.2236
不異	-11.2237
七卷又	-11.2237
俱無	-11.2237
杜門	-11.2246
又取	-11.2247
尊經	-11.2249
徽宗	-11.2252
八十二	-11.2253
九思	-11.2254
政和中	-11.2255
三年五月	-11.2255
六曰	-11.2257
一爻	-11.2259
其弊	-11.226
侍讀學士	-11.2262
一有	-11.2264
韋氏	-11.2264
守令	-11.2265
景帝	-11.2267
而藏之	-11.2268
解題	-11.2268
景文	-11.227
參之	-11.2271
外史	-11.2271
不失其	-11.228
曾氏	-11.2282
者所以	-11.2282
志四冊	-11.2286
但稱	-11.2286
莫非	-11.2291
開府	-11.2291
宋亡	-11.2292
九六	-11.2295
詩賦	-11.2297
其官	-11.2301
於中	-11.2302
安知	-11.2303
唐開元	-11.2304
以定	-11.2308
記一部一冊	-11.2309
經歴	-11.231
庵稿	-11.2311
所學	-11.2313
别録	-11.2315
用九	-11.2316
推其	-11.2318
一卷張	-11.2319
總管	-11.2321
右漢故	-11.2323
禇遂良	-11.2324
己意	-11.2326
盖其	-11.2327
觀於	-11.2327
生也	-11.2327
官名	-11.2328
父也	-11.2331
元和四年	-11.2331
天台人	-11.2333
不敢以	-11.2334
無慮	-11.2334
二十四年	-11.2336
文類	-11.2338
嚴氏	-11.2342
撮其	-11.2342
類例	-11.2343
文定公	-11.2343
免於	-11.2345
元年五月	-11.2346
以入	-11.2346
陸徳明	-11.2347
之思	-11.2347
晁公武	-11.2347
居士集	-11.2349
益之	-11.2352
鍾繇書	-11.2356
仙都	-11.2356
論語注	-11.2358
足矣	-11.2367
長孫	-11.2367
八卷存	-11.2367
張衡	-11.2367
鴻臚	-11.2369
讀書志	-11.237
有補	-11.2373
礪	-11.2375
麈	-11.2376
莫詳	-11.2376
尚矣	-11.2376
塔記	-11.2379
三十里	-11.2381
文集十卷	-11.2381
篇目同前此	-11.2382
而名	-11.2383
枋	-11.2384
焯	-11.2385
㨗	-11.2385
二年九月	-11.2385
㢤	-11.2385
郭子章	-11.2386
帳	-11.2386
髙陽	-11.2386
零陵	-11.2386
所可	-11.2387
世變	-11.2387
崇仁	-11.2387
峴	-11.2388
以紀	-11.2388
謹案右一帖行	-11.2388
溉	-11.2389
盆	-11.2389
虞翻	-11.2389
楊維楨	-11.2389
筴	-11.2389
燿	-11.239
溯	-11.239
寰	-11.2391
晴	-11.2391
題記	-11.2391
燼	-11.2392
官閥	-11.2393
詛	-11.2393
柳公權	-11.2393
瀚	-11.2394
一甲第	-11.2394
尉遲	-11.2395
諮	-11.2395
遺愛頌	-11.2395
蒞	-11.2395
顗	-11.2395
捧	-11.2395
幻	-11.2396
殖	-11.2396
芟	-11.2396
祜	-11.2397
陶隱居	-11.2397
廪	-11.2397
自信	-11.2397
通志一卷佚	-11.2397
暐	-11.2397
索隱	-11.2399
嶷	-11.2399
斵	-11.24
摯	-11.2401
賞罰	-11.2402
剏	-11.2402
一百五十卷	-11.2406
塜	-11.2406
東里	-11.2407
晦翁	-11.2407
尤多	-11.2407
釋例	-11.2407
腴	-11.2408
俎	-11.2408
無恙	-11.2408
住持	-11.2409
人之所	-11.2409
開禧	-11.2411
之道也	-11.2412
儒臣	-11.2412
或稱	-11.2414
宋景文	-11.2414
元宗	-11.2414
魯孔	-11.2414
蘭臺	-11.2415
九十二	-11.2416
轉運	-11.2418
吾友	-11.2418
中外	-11.242
司郎中	-11.242
白鹿	-11.2424
大書	-11.2425
集一百卷	-11.2426
睢陽	-11.2427
筆之	-11.2429
大理寺	-11.2429
智果	-11.243
兵火	-11.243
年間	-11.2431
顔淵	-11.2432
裴度撰	-11.2433
盛時	-11.2433
著名	-11.2434
四十五卷	-11.2436
孝廉	-11.2437
略例	-11.2437
之詩也	-11.2437
臨池	-11.2437
時年	-11.2438
稽首	-11.2439
周旋	-11.2441
項氏	-11.2442
二先生	-11.2443
在其中	-11.2444
當塗	-11.2444
又嘗	-11.2444
臨摹	-11.2449
以事	-11.2449
岐陽	-11.2451
昊天	-11.2451
削去	-11.2452
魏文帝	-11.2452
二南	-11.2452
開元二	-11.2453
劉次莊作	-11.2457
武都	-11.2458
方整	-11.2458
之陋	-11.2461
大禮	-11.2462
新序	-11.2463
何晏	-11.2466
孝亷	-11.2467
景君	-11.2468
到官	-11.2473
餘論	-11.2475
首行	-11.2477
其碑	-11.2477
徐州	-11.2479
拜議郎	-11.2481
頗詳	-11.2482
孔子之言	-11.2482
工夫	-11.2483
學春秋	-11.2488
再三	-11.249
形容	-11.249
續之	-11.249
謬誤	-11.2492
受業於	-11.2493
宋志三卷佚	-11.2497
吳縣	-11.2498
於外	-11.2498
為證	-11.25
可取	-11.2502
四面	-11.2503
元第五	-11.2505
禹謨	-11.2507
日以	-11.2509
而無所	-11.251
稿十卷	-11.2513
大有	-11.2513
之别	-11.2513
中尉	-11.2513
正䝉	-11.2515
踰年	-11.2515
草一卷	-11.2515
耳然	-11.2517
閩書	-11.2517
占法	-11.2521
既濟	-11.2522
翼之	-11.2523
昭德	-11.2524
不覺	-11.2527
祠堂	-11.2528
是年	-11.253
受易	-11.253
云云是	-11.2536
時時	-11.2537
不解	-11.2537
在乎	-11.2541
而發	-11.2542
之説也	-11.2543
問學	-11.2546
開元二十	-11.2548
府丞	-11.255
昇元	-11.255
居仁	-11.2557
碧落	-11.2558
元子	-11.2561
明史	-11.2562
亦與	-11.2563
素王	-11.2564
大行	-11.2564
冠軍	-11.2565
今亦	-11.2568
自宋	-11.2571
三老	-11.2573
蓋以	-11.2576
世間	-11.2576
微辭	-11.2581
佚王氏	-11.2584
十二冊	-11.2585
金丹	-11.2587
集一部二冊	-11.2589
夢得	-11.2591
平陽人	-11.2594
間以	-11.2594
病之	-11.2596
尚可	-11.2599
勤矣	-11.2604
未知何	-11.2606
羣玉	-11.2609
州學	-11.261
孔子弟子	-11.2612
拜郎中	-11.2613
豈能	-11.2614
石録	-11.2616
前書	-11.2618
張雲章曰	-11.2619
意見	-11.2619
模刻	-11.262
仲容	-11.262
卒以	-11.262
題辭	-11.2622
正字	-11.2622
而外	-11.2624
寺丞	-11.2625
余按	-11.2626
老君	-11.2628
類書	-11.2628
廙	-11.2632
進士歴官	-11.2632
崑	-11.2632
於民	-11.2633
疑者	-11.2633
淮安	-11.2634
附益	-11.2635
少時	-11.2637
不得已	-11.2637
彖爻	-11.264
顓頊	-11.264
江淮	-11.2641
府并屬縣	-11.2643
▁京	-11.2644
至如	-11.2645
猶是	-11.2651
立身	-11.2654
陸佃	-11.2654
顧云	-11.2654
埴	-11.2655
軒轅	-11.2655
梓潼	-11.2657
簽	-11.2658
善之	-11.2658
三百八十四爻	-11.2658
浹	-11.2658
綵	-11.2658
此經	-11.2662
金匱	-11.2662
胎	-11.2662
祔	-11.2662
髙士	-11.2662
鵞	-11.2662
躭	-11.2663
㓗	-11.2663
甎	-11.2664
飄	-11.2664
隳	-11.2664
夐	-11.2664
薪	-11.2665
恣	-11.2665
川集	-11.2665
藍田	-11.2665
鼻	-11.2666
泠	-11.2667
絶無	-11.2667
王師	-11.2668
今移改	-11.2668
蟲魚	-11.2668
蒋	-11.2668
堤	-11.2668
王知敬	-11.2668
正言	-11.2668
寐	-11.2669
翦	-11.2669
煨燼	-11.2669
瀧	-11.2669
藹	-11.2669
彫	-11.2669
緇衣	-11.267
灾異	-11.2671
七録一卷佚	-11.2671
三唐	-11.2672
愬	-11.2672
稀	-11.2673
㕘政	-11.2673
黄魯直	-11.2674
滇	-11.2674
搜訪	-11.2674
萬安	-11.2675
千載之下	-11.2675
葛洪	-11.2675
肄	-11.2675
稅	-11.2676
公羊穀梁	-11.2677
墨池	-11.2679
釁	-11.2679
唐僧	-11.268
奉敕	-11.268
焦氏	-11.268
俯仰	-11.268
王荆公	-11.2683
總督	-11.2684
謚文	-11.2684
白氏	-11.2684
六唐	-11.2684
韓勑	-11.2685
虎丘	-11.2686
王澍	-11.2688
而可	-11.269
一百三十卷	-11.2691
新昌人	-11.2691
輿地	-11.2695
言理	-11.2695
觀物	-11.2695
佛寺	-11.2697
為之傳	-11.2697
書并篆	-11.2698
萬六千	-11.2698
髙下	-11.2699
罔不	-11.2701
百王	-11.2701
盡心	-11.2703
詳而	-11.2704
趙文敏	-11.2706
萬五千	-11.2707
事親	-11.2707
初學記	-11.2707
增廣	-11.2708
萬事	-11.2709
以遺	-11.2711
持節	-11.2711
相同	-11.2711
永樂初	-11.2714
受學於	-11.2715
跋語	-11.2717
地里	-11.2718
刻梓	-11.2718
文昌	-11.2719
參議	-11.2719
推而	-11.2719
有益於	-11.2721
比於	-11.2721
平陵	-11.2721
五卷右	-11.2722
呉中	-11.2725
元載	-11.2726
撰年八分書	-11.2726
大備	-11.2726
二十七年	-11.2727
迄于	-11.2729
之源	-11.2729
三卷未見	-11.273
講習	-11.273
紀功	-11.2733
文選注	-11.2733
無疆	-11.2734
為國	-11.2735
其文云	-11.2738
尊王	-11.2739
並無	-11.2741
車馬	-11.2744
丹楊	-11.2744
無益	-11.2746
景伯	-11.2747
名數	-11.2749
為圖	-11.2753
太宗皇帝	-11.2754
紀載	-11.2754
皆用	-11.2756
永昌	-11.2757
元豐中	-11.2759
七卷存	-11.2759
殆盡	-11.2759
分而	-11.2759
傳聞	-11.276
天禄	-11.2763
異論	-11.2764
亦謂	-11.2768
後主	-11.277
贊易	-11.277
數人	-11.2772
要略	-11.2772
國人	-11.2773
文安	-11.2774
伯温	-11.2775
不齊	-11.2775
大序	-11.2778
之節	-11.2779
不減	-11.2784
京兆府	-11.2788
失於	-11.279
成祖	-11.2791
錫山	-11.2792
紹興初	-11.2793
之言也	-11.2795
西臺	-11.2795
山先生	-11.2798
長孺	-11.2798
其誤	-11.2799
九巻	-11.2805
及於	-11.2805
隨時	-11.2806
一種	-11.2806
尤工	-11.281
樓記	-11.2812
時嘗	-11.2817
題識	-11.282
其間有	-11.282
精而	-11.2821
禮記解	-11.2822
紀行	-11.2824
自知	-11.2828
少儀	-11.283
不空	-11.2831
之書而	-11.2832
而行	-11.2835
一方	-11.2837
全體	-11.2838
中大夫	-11.284
其三	-11.2841
黄山谷	-11.2846
不差	-11.2849
宗㫖	-11.2849
人姓氏	-11.285
知州	-11.285
用兵	-11.2856
莫不有	-11.2857
字法	-11.2859
未竟	-11.286
己丑進士	-11.2864
從孫	-11.2871
當年	-11.2871
遂良	-11.2876
兩浙	-11.2877
質諸	-11.2882
聖朝	-11.2882
長而	-11.2883
衡山	-11.2885
石湖	-11.2892
金剛	-11.2893
上谷	-11.2896
改易	-11.2896
家學	-11.2897
嶽廟	-11.2898
之筆	-11.29
亦頗	-11.2901
存陸元輔曰	-11.2903
元氣	-11.2904
如新	-11.2906
不惑	-11.2906
教也	-11.2907
經畧	-11.2911
集本無	-11.2912
者悉	-11.2913
劉君	-11.2918
詩一首	-11.2918
乃能	-11.2919
於家	-11.292
王仲	-11.2921
覲	-11.2922
文敏	-11.2922
進講	-11.2923
豁	-11.2923
亦嘗	-11.2925
氏族	-11.2927
日講官起居注	-11.2928
种	-11.2931
變卦	-11.2931
坐事	-11.2933
薫	-11.2934
榆	-11.2935
嬴	-11.2936
慈湖	-11.2936
盤庚	-11.2936
文曰	-11.2937
𤓰	-11.2937
不測	-11.2937
一齋書目有	-11.2938
牝	-11.2938
秦漢以來	-11.2938
苛	-11.2938
九家	-11.2939
按察副使	-11.294
韓康伯	-11.294
干戈	-11.294
舊説	-11.294
鷹	-11.294
趾	-11.2941
未是	-11.2941
樂清人	-11.2941
刑部侍郎	-11.2941
鄭康成曰	-11.2942
儁	-11.2942
以貽	-11.2942
淄川	-11.2942
謹案右一帖草書三行二十	-11.2943
閫	-11.2943
蒼潤軒帖䟦	-11.2943
縝	-11.2944
人家	-11.2944
未知孰是	-11.2944
學禮	-11.2944
右隷書不著書撰人名氏	-11.2945
禽獸	-11.2945
愛其	-11.2945
壮	-11.2946
瞭然	-11.2946
島	-11.2946
祝融	-11.2947
紱	-11.2947
篆籀	-11.2947
頋	-11.2947
太子太師	-11.2947
大理評事	-11.2947
編修官	-11.2947
䟦尾	-11.2947
之機	-11.2948
參知政事	-11.2948
汁	-11.2949
莆陽	-11.2951
乍	-11.2951
嘻	-11.2952
蕭子雲	-11.2952
文集一部	-11.2952
三十一卷	-11.2952
歐虞	-11.2953
亦為	-11.2954
正文	-11.2954
青田	-11.2957
以發	-11.2957
不可無	-11.2957
舉明經	-11.2957
散騎	-11.2958
補正	-11.2958
勿勿	-11.2959
述書	-11.2959
後復	-11.296
忠恕	-11.296
傳習	-11.2961
簡文帝	-11.2962
為第一	-11.2962
公車	-11.2964
盛事	-11.2964
長公	-11.2966
博議	-11.2966
白居易撰	-11.2967
當從	-11.2967
閩人	-11.2968
之交	-11.2968
傳為	-11.2968
所修	-11.2969
模搨	-11.2971
王介甫	-11.2972
錯亂	-11.2974
囉	-11.2977
宋祁	-11.2978
元魏	-11.2981
取義	-11.2984
姓纂	-11.2984
一部五	-11.2985
嘉定人	-11.2988
有取焉	-11.2988
悲夫	-11.2988
據碑	-11.2988
史學	-11.2989
三年七月	-11.2991
夏殷	-11.2992
嵩髙	-11.2992
延慶	-11.2995
納甲	-11.2997
尊之	-11.2997
法華	-11.2998
靈巖	-11.3
謂孔子	-11.3001
死生	-11.3001
周禮儀禮	-11.3001
三寸	-11.3001
西晉	-11.3004
叙事	-11.3007
同歸	-11.3007
徃來	-11.3009
志五卷	-11.3012
橋記	-11.3013
崇慶	-11.3013
陸游	-11.3017
雲集	-11.3017
張萱曰	-11.3018
漢上	-11.3019
三絶	-11.3021
孟春	-11.3021
聞喜	-11.3023
深得	-11.3026
殊不知	-11.3028
體例	-11.3028
西河	-11.3033
惟存	-11.3034
一尺	-11.3035
虞集	-11.3037
晉陽	-11.3038
下及	-11.3039
李北海	-11.304
考索	-11.3042
師授	-11.3042
衢州	-11.3042
二帝三王之	-11.3046
之父也	-11.3048
而今	-11.3048
從學	-11.3049
猶可	-11.3049
憲章	-11.305
銘文	-11.3051
今書	-11.3052
寜人	-11.3054
琴譜	-11.3055
淳熙中	-11.3057
家廟碑	-11.3058
皆不載	-11.3059
堂帖	-11.306
府同知	-11.3061
總論	-11.3062
後進	-11.3062
文武之	-11.3063
不足信	-11.3065
次公	-11.3067
定州	-11.3068
下方	-11.3073
樓觀	-11.3074
難明	-11.3077
具存	-11.3079
不許	-11.3081
改曰	-11.3088
目録後	-11.3088
大旨	-11.3092
仲弓	-11.3092
不勝其	-11.3096
和之	-11.3097
徳秀	-11.3098
羅漢	-11.3099
者宜	-11.3101
元包	-11.3103
及第	-11.3104
顔真卿書	-11.3105
春秋解	-11.3106
劉寛碑	-11.3106
吉州	-11.3108
夫人墓誌	-11.3108
秋官	-11.3109
大禹	-11.3113
此篇	-11.3114
軍節度使	-11.3117
故云	-11.3117
周公作	-11.3119
定論	-11.3123
前史	-11.3123
士子	-11.3125
能言	-11.313
佚陳氏	-11.3132
有不可	-11.3133
蘭亭考	-11.3135
三條	-11.3138
蕭氏	-11.3138
泉本	-11.3139
大事	-11.3139
可惜也	-11.314
則天	-11.3141
上九	-11.3141
春秋經	-11.3141
後題	-11.3141
遺法	-11.3142
二年五月	-11.3142
自見	-11.3143
乾徳	-11.3145
王縉	-11.3145
不克	-11.3147
襍記	-11.3148
誦之	-11.3151
以死	-11.3155
太子太傅	-11.316
筆削之	-11.3161
中平二年	-11.3164
峯集	-11.3167
是知	-11.3169
光和二年	-11.3171
哀公	-11.3172
廣州	-11.3175
從政	-11.3176
焉耳	-11.3177
印本	-11.3179
可傳	-11.318
張華	-11.3182
師承	-11.3183
在前	-11.3184
獨無	-11.3185
三十七卷	-11.3188
今移	-11.3189
下卷	-11.3189
紀綱	-11.3192
馬鄭	-11.3197
或言	-11.3198
又續集	-11.3203
二唐	-11.3203
于石	-11.3204
長慶三年	-11.3207
五事	-11.321
也又云	-11.3212
柟	-11.3212
宋志二十卷佚	-11.3215
帝即位	-11.3215
以廣其傳	-11.3216
文獻通攷	-11.3217
騁	-11.3218
理宗	-11.3218
饋	-11.3218
辜	-11.3218
等字	-11.3219
般	-11.3219
端明殿學士	-11.322
非禮	-11.3221
凡二百	-11.3221
表裏	-11.3221
貍首	-11.3222
頡	-11.3223
僎	-11.3223
不録	-11.3223
鈍	-11.3223
比事	-11.3223
程公	-11.3224
釋迦	-11.3224
淇	-11.3224
範圍	-11.3224
槎	-11.3224
膏肓	-11.3224
臂	-11.3224
賈公彦	-11.3225
颺	-11.3225
徼	-11.3226
抉	-11.3226
宥	-11.3226
后蒼	-11.3226
卅	-11.3227
巴郡	-11.3227
糓	-11.3227
榛	-11.3227
毫髪	-11.3227
銀青光禄大夫	-11.3227
李衛公	-11.3228
轅	-11.3228
奏議二卷	-11.3228
己卯	-11.3228
讒	-11.3228
筞	-11.3228
麥	-11.3229
儔	-11.3229
朙	-11.3229
淳化閣帖	-11.3229
象辭	-11.3229
亡於	-11.3229
袁桷	-11.3229
辛卯	-11.3229
遘	-11.323
􁂗	-11.323
杼	-11.323
闈	-11.323
麋	-11.323
匣	-11.323
太常少卿	-11.323
徐公	-11.323
宦者	-11.3231
狗	-11.3231
四門助教	-11.3231
慈谿	-11.3231
枝葉	-11.3231
慢	-11.3231
𣲖	-11.3232
戢	-11.3232
鷄	-11.3233
藤	-11.3233
齊王	-11.3233
暁	-11.3233
柩	-11.3234
又自	-11.3234
籠	-11.3234
顔真卿撰并書	-11.3235
翃	-11.3235
朞	-11.3236
頗為	-11.3236
畀	-11.3236
首卷	-11.3236
隲	-11.3236
慕容	-11.3237
哀帝	-11.3237
閨門	-11.3238
李心傳	-11.3238
昌齡	-11.3239
跨	-11.3239
跋尾	-11.3239
名世	-11.324
巋然	-11.3241
記十卷	-11.3242
撿	-11.3242
相表裏	-11.3242
禮部郎中	-11.3243
事君	-11.3245
萬古	-11.3249
鄉黨	-11.325
七十九	-11.325
先塋	-11.3251
天子諸侯	-11.3251
其母	-11.3251
庾翼	-11.3252
一定	-11.3253
條貫	-11.3253
兄子	-11.3258
補其	-11.326
崇福	-11.326
纂注	-11.3261
新喻	-11.3263
雜以	-11.3263
神之	-11.3264
布政	-11.3264
山寺	-11.327
所不能	-11.327
以已意	-11.327
所以明	-11.3273
錄一部	-11.3275
秘府	-11.3277
州别駕	-11.3277
石鼔	-11.3278
之資	-11.3281
考究	-11.3281
而莫	-11.3285
子張	-11.3289
謂為	-11.3291
通㫖	-11.3291
也若夫	-11.3293
大将軍	-11.3293
延陵	-11.3293
而加	-11.3296
元經	-11.3296
五尺	-11.33
十餘萬言	-11.3301
互異	-11.3307
乃爾	-11.3309
𨽻續卷	-11.3314
王朝	-11.3314
信安	-11.3314
岳陽	-11.3314
建碑	-11.3315
三年四月	-11.3317
理義	-11.3321
汲郡	-11.3321
無幾	-11.3321
人心之	-11.3322
成敗	-11.3324
元年十一月	-11.3326
可攷	-11.3327
補亡	-11.3328
軍碑記	-11.3329
恐非	-11.333
余於	-11.3332
先之	-11.3334
始自	-11.3334
共為	-11.3337
不加	-11.3343
鄞	-11.3344
嘆曰	-11.3345
之國	-11.3353
禅師	-11.3354
不可易	-11.3354
李陽冰篆	-11.3362
同者	-11.3363
之患	-11.3365
天錫	-11.3368
發題	-11.3369
集要	-11.3372
卒業	-11.3376
叙其	-11.3377
之私	-11.3378
惑於	-11.338
定之	-11.3381
興亡	-11.3388
長者	-11.3391
九贊	-11.3392
嵗時	-11.3392
和叔	-11.3393
齋文集	-11.3393
重陽	-11.3394
各為	-11.3396
機要	-11.3396
小過	-11.3397
一百一	-11.3399
先生以	-11.3399
書家	-11.3401
異義	-11.3404
在目	-11.3404
有子	-11.3406
二月立	-11.3406
受詔	-11.3406
都穆	-11.3408
之訛	-11.3408
歐陽公集古録	-11.341
元年四月	-11.341
説易	-11.3412
訓故	-11.3414
大率	-11.3417
神物	-11.3417
異人	-11.3417
三年三月	-11.342
左史	-11.342
門下侍郎	-11.3422
忠信	-11.3423
子明	-11.3428
十四日	-11.3429
里人	-11.3429
畧二卷	-11.3429
竊以	-11.343
魯之	-11.3431
非一人	-11.3432
墓下	-11.3433
著此書	-11.3435
四五	-11.3436
先天之	-11.3438
舛謬	-11.3442
清明	-11.3443
而折衷	-11.3445
不改	-11.3446
之方	-11.3447
里中	-11.3447
奉命	-11.345
亦異	-11.3451
已意	-11.3451
彚編	-11.3454
博聞	-11.3455
百有餘	-11.3459
穆帝	-11.3462
請於	-11.3466
四言	-11.3467
登善	-11.3468
永豐	-11.3469
建立	-11.347
康王	-11.3471
非孔子	-11.3472
集二十二卷	-11.3472
蔵書	-11.3475
不第	-11.3477
鎮江	-11.3478
此豈	-11.3481
正月立	-11.3481
書學	-11.3482
更為	-11.3483
趙君	-11.3484
篆字	-11.3487
道行	-11.3487
非常	-11.3489
成周	-11.3491
學術	-11.3491
有象	-11.3492
栁公權書	-11.3493
定武蘭亭	-11.3496
其文曰	-11.3498
張參	-11.3499
前明	-11.3499
陛	-11.3502
二十六年	-11.3502
淆	-11.3505
不厭	-11.3509
本經	-11.351
弩	-11.3511
戌	-11.3512
入元不仕	-11.3512
覿	-11.3512
徐鍇	-11.3513
轄	-11.3513
程敏政	-11.3515
不自揆	-11.3515
藝文	-11.3515
莘	-11.3516
庭筠	-11.3516
傲	-11.3516
昏禮	-11.3517
翼傳	-11.3517
查	-11.3517
韙	-11.3517
粉	-11.3518
緄	-11.3518
趙希弁曰	-11.3518
鯉	-11.3518
卋	-11.3518
臨淄	-11.3519
秪	-11.352
癸夘	-11.352
王維	-11.352
夾漈	-11.352
鳬	-11.3521
籥	-11.3521
永樂大典	-11.3521
杜光庭	-11.3521
東觀餘論	-11.3521
朱彛尊	-11.3522
耿耿	-11.3522
漿	-11.3522
刼	-11.3522
濛	-11.3522
𧺫	-11.3522
刑部主事	-11.3522
刻畫	-11.3522
萇	-11.3523
筋	-11.3523
驍	-11.3523
謹案右一帖草書二行十	-11.3523
􁧸	-11.3523
涪	-11.3523
蔡君謨	-11.3523
顔之推	-11.3523
贏	-11.3524
二年八月	-11.3524
廩	-11.3524
商瞿	-11.3525
梅花	-11.3525
銳	-11.3525
厯一卷	-11.3525
日休	-11.3526
鏞	-11.3526
馬端臨	-11.3526
孩	-11.3526
關睢	-11.3526
裦	-11.3527
元稹	-11.3528
卷中	-11.3529
乙乙	-11.3529
周穆王	-11.3529
敇	-11.3529
動靜	-11.353
慥	-11.3531
孫奭	-11.3532
三百五篇	-11.3532
涪陵	-11.3532
固非	-11.3533
行書無姓名	-11.3533
有差	-11.3534
桓譚	-11.3534
仍其舊	-11.3536
數日	-11.3537
天竺	-11.3538
文字殘缺	-11.3539
七曰	-11.3539
古篆	-11.354
宏綱	-11.354
祭器	-11.3541
羲皇	-11.3541
皆然	-11.3542
舉而	-11.3542
其二	-11.3542
紹彭	-11.3545
杲卿	-11.3545
春秋經傳	-11.3546
杜牧	-11.3546
等篇	-11.3546
逡	-11.3546
尊卑	-11.3547
字良	-11.3548
草創	-11.3548
志七卷	-11.3552
道塲	-11.3552
考功	-11.3556
紫微	-11.3557
朝聘	-11.3557
人物考	-11.356
孝經注	-11.356
少林	-11.3562
清朗	-11.3564
曲臺	-11.3565
承恩	-11.3565
許慎	-11.3565
舎人	-11.3569
府通判	-11.3569
周宣王	-11.3569
王㴻	-11.357
議一卷	-11.357
宣示	-11.3573
二十八日	-11.3577
元度	-11.3577
刻板	-11.3582
江湖	-11.3583
也此碑	-11.3584
屋壁	-11.3586
又於	-11.3586
三十卷右	-11.359
遂以為	-11.359
已殘缺	-11.3591
聖心	-11.3591
秋八月	-11.3593
者凡	-11.3593
比干墓	-11.3594
解元	-11.3598
立成	-11.3599
江氏	-11.36
詩書禮樂	-11.3601
天地間	-11.3601
十四巻	-11.3601
元和中	-11.3602
象傳	-11.3603
篤志	-11.3603
下一字	-11.3606
三十餘年	-11.3606
語曰	-11.3607
江西通志	-11.3607
不講	-11.361
自天子	-11.361
出一手	-11.3612
近之	-11.3612
補傳	-11.3612
楊士	-11.3613
南嶽	-11.3613
南面	-11.3613
出錢	-11.3613
竹林	-11.3613
丈人	-11.3614
年立	-11.3615
九峯	-11.3616
龍朔	-11.3622
像記	-11.3623
唐志一卷佚	-11.3627
老氏	-11.3628
不滿	-11.3628
二序	-11.3629
命曰	-11.3631
最佳	-11.3631
墨守	-11.3631
集九卷	-11.3632
草草	-11.3634
地震	-11.3635
李紳	-11.3636
丙戌進士	-11.3636
風俗通	-11.3637
不能不	-11.3637
留意	-11.3637
嗜古	-11.364
七十子	-11.3642
而出	-11.3646
梁氏	-11.3646
趙彦	-11.3646
仲尼之	-11.3647
學士大夫	-11.3647
游夏	-11.3652
不但	-11.3653
八九	-11.3654
曲水	-11.3654
進士官至	-11.3655
世道	-11.3659
易緯	-11.366
要一卷	-11.3663
宣德	-11.3665
張說	-11.3665
少陽	-11.3666
伯陽	-11.3668
六甲	-11.3668
似非	-11.3672
後附	-11.3674
丁氏	-11.3674
修元史	-11.3676
而不知其	-11.3677
據此	-11.368
莊周	-11.3685
開元十一年	-11.3685
天監	-11.3686
碑云君諱	-11.3689
穆王	-11.3689
二百故	-11.3691
問難	-11.3692
至理	-11.3696
集本云	-11.3697
淮海	-11.3698
聖王	-11.3701
東陽人	-11.3701
或是	-11.3701
間出	-11.3702
少子	-11.3703
郎官	-11.3712
文理	-11.3714
袁州	-11.3714
爻變	-11.3714
其為人	-11.3715
所建	-11.3716
孝孫	-11.3716
潭州	-11.3717
其親	-11.3719
十三行	-11.3719
貞白	-11.3719
科第	-11.372
聖政	-11.3722
學之士	-11.3724
泥於	-11.3725
冀州	-11.3725
其勢	-11.3725
嘗言	-11.3726
贈司徒	-11.3726
京氏易	-11.3728
四年四月	-11.3728
祖父	-11.3733
大司徒	-11.3733
王獻之	-11.3735
八分書并篆額	-11.3735
形似	-11.3737
過矣	-11.3737
李徳	-11.3738
異説	-11.3739
之大法	-11.3741
天成	-11.3742
其君	-11.3746
所授	-11.3747
小說	-11.375
自書	-11.375
未逺	-11.3751
溺於	-11.3753
自成	-11.3753
疑為	-11.3757
山陰人	-11.3759
文蔚	-11.3759
石銘	-11.3762
不喜	-11.3764
二十九年	-11.3765
其所謂	-11.3765
先生之學	-11.3767
簡編	-11.3772
未有能	-11.3772
八年立	-11.3774
當即	-11.378
有定	-11.3781
流而	-11.3784
煜	-11.3784
是書之	-11.3785
篋	-11.3786
上石	-11.3788
編纂	-11.3788
知言	-11.379
妻子	-11.3791
非特	-11.3792
劭	-11.3792
竒古	-11.3794
叅同契	-11.3801
皆亡	-11.3801
綦	-11.3802
易卦	-11.3802
魯直	-11.3804
邳	-11.3804
數篇	-11.3805
一物	-11.3807
反對	-11.3808
元素	-11.3808
己見	-11.3809
書無姓名	-11.381
帖一部一冊	-11.3811
攬	-11.3813
杏	-11.3813
缶	-11.3814
皇甫謐	-11.3814
剛中	-11.3815
庶吉士	-11.3816
煒	-11.3816
夘	-11.3817
甚精	-11.3818
信也	-11.3818
暫	-11.3818
柳宗元	-11.3818
字尚	-11.3818
龍圖	-11.3818
文靖公	-11.3819
刓	-11.3819
孜	-11.3819
亦足以	-11.3819
桐城人	-11.382
喆	-11.3822
雱	-11.3822
棗	-11.3822
樞密院	-11.3823
鹵	-11.3823
戰國䇿	-11.3823
蓼	-11.3824
侯官人	-11.3824
鼐	-11.3825
窒	-11.3825
炯	-11.3825
仗	-11.3825
洪适	-11.3825
李宗閔撰	-11.3825
崇文緫目	-11.3826
䔍	-11.3826
忿	-11.3826
舫	-11.3826
夙夜	-11.3826
訴	-11.3826
澈	-11.3827
總裁	-11.3827
萍	-11.3827
潰	-11.3828
琚	-11.3828
渝	-11.3828
鹿鳴	-11.3828
幡	-11.3828
夏禹	-11.3828
幷	-11.3829
汚	-11.3829
法帖釋文	-11.3829
亶	-11.3829
螭	-11.3829
蟄	-11.3829
九齡	-11.383
緻	-11.383
婆	-11.383
透	-11.383
休寧	-11.383
縫	-11.3831
宋志二卷佚	-11.3831
稔	-11.3831
悒	-11.3831
法帖譜系云	-11.3832
徒以	-11.3832
黄老	-11.3833
諲	-11.3833
増損	-11.3833
冡宰	-11.3834
六卷未見	-11.3834
迅	-11.3835
逋	-11.3835
左散騎常侍	-11.3836
服膺	-11.3836
談易	-11.3836
受經	-11.3837
中書省	-11.3838
宋志一卷存	-11.384
司冦	-11.384
精粗	-11.384
中嶽	-11.3841
模本	-11.3841
登封縣	-11.3841
敎授	-11.3842
韓嬰	-11.3842
太和中	-11.3844
六國	-11.3845
優游	-11.3845
康誥	-11.3845
祁門人	-11.3846
李翕	-11.3847
無方	-11.3849
衛夫人	-11.385
服食	-11.3852
華嚴	-11.3853
聖人作易	-11.3853
真草	-11.3853
九四	-11.3853
三原縣	-11.3853
嘗欲	-11.3854
洞庭	-11.3855
金石之屬	-11.3855
儒術	-11.3856
飛動	-11.3862
翕然	-11.3863
平湖	-11.3863
周秦	-11.3864
良輔	-11.3864
祖諱	-11.3865
所紀	-11.3866
無由	-11.3867
偏旁	-11.3867
維揚	-11.3867
襲封	-11.3867
宗道	-11.3868
山人集	-11.3868
千餘年	-11.387
百餘篇	-11.387
忠惠	-11.3871
李吉甫	-11.3875
獨得	-11.3876
而死	-11.3877
稽疑	-11.3878
李翺	-11.3878
詳見	-11.3879
之始也	-11.388
人居	-11.3881
漢代	-11.3881
序中	-11.3881
革命	-11.3882
冠昏	-11.3889
棄去	-11.3889
增益	-11.389
銜名	-11.3891
注孝經	-11.3891
别爲	-11.3891
風后	-11.3894
五寸	-11.3894
乾隆四十	-11.3895
何處	-11.3896
方回	-11.3896
洞天	-11.3898
晁公武曰皇朝	-11.3899
而理	-11.39
散失	-11.39
不從	-11.3906
號令	-11.3907
姜氏	-11.3909
本意	-11.391
西亭	-11.3912
字孝	-11.3912
海上	-11.3913
專主	-11.3914
箋注	-11.3914
爲主	-11.3915
之事也	-11.3918
畧例	-11.3919
聞人	-11.3919
尚在	-11.3919
晚出	-11.3921
編一卷	-11.3925
書目一卷	-11.3926
仲春	-11.3927
視其	-11.3927
華嶽碑	-11.3927
加詳	-11.3928
貞元中	-11.3929
石臺	-11.3936
葬于	-11.3937
富平	-11.3937
樂章	-11.3942
八寸	-11.3945
豈敢	-11.3949
而得之	-11.3949
之跡	-11.3954
刻字	-11.3955
又加	-11.3955
合乎	-11.3956
子朱子	-11.3956
太極圖說	-11.3958
凝之	-11.3958
為重	-11.3959
一百八十	-11.396
不讀	-11.3961
亡逸	-11.3963
大觀帖	-11.3963
宫碑	-11.3964
靈寳	-11.3965
梁書	-11.3966
碧落碑	-11.3969
從祀	-11.3971
壇山	-11.3972
精詳	-11.3978
著于	-11.3979
居中	-11.3981
不遇	-11.3981
五十餘	-11.3981
子昂	-11.3982
胡文定	-11.3983
離合	-11.3987
之得失	-11.3988
翬	-11.3989
附録一卷	-11.3991
范史	-11.3993
冠以	-11.3994
漢紀	-11.3998
律師碑	-11.4002
少陵	-11.4002
正書元和	-11.4003
録一卷又	-11.4006
逺甚	-11.4006
自孔子	-11.4007
仲夏	-11.4009
學書	-11.4009
山南	-11.401
之惑	-11.4011
錄一部二冊	-11.4011
嘉靖間	-11.4012
其一曰	-11.4015
府推官	-11.4017
自昔	-11.4017
大哉	-11.4017
八人	-11.4019
難通	-11.4021
乾元二年	-11.4022
備遺	-11.4022
泗	-11.4023
則皆	-11.4024
今為	-11.4027
可貴	-11.4028
▁同	-11.4029
至和	-11.403
校書	-11.4031
季友	-11.4032
别之	-11.4033
仲氏	-11.4035
然哉	-11.4036
合二	-11.4036
大統	-11.4039
遂使	-11.404
一卷不著名氏	-11.404
遺逸	-11.4048
策書	-11.4048
難知	-11.4048
謂非	-11.4048
何敢	-11.4049
而觀之	-11.4051
遂不復	-11.4051
集諸家	-11.4051
一手	-11.4051
十一月立	-11.4052
永州	-11.4053
自非	-11.4059
附經	-11.406
臣下	-11.4061
告成	-11.4062
大厯中	-11.4066
因是	-11.407
邪正	-11.4071
十一巻	-11.4071
城中	-11.4071
未見姓譜	-11.4072
圓圖	-11.4072
將來	-11.4074
因得	-11.4075
佞	-11.4075
治水	-11.4079
余為	-11.4082
子夏傳	-11.4082
項安	-11.4083
應詔	-11.4084
不可攷	-11.4091
授以	-11.4091
繫辭傳	-11.4094
案宋史藝文	-11.4094
互見	-11.4098
原甫	-11.4098
之狀	-11.41
矣嗚呼	-11.41
先儒謂	-11.4102
至道	-11.4103
天復	-11.4104
指為	-11.4107
講堂	-11.4108
夏至	-11.4109
月十二日	-11.411
順天	-11.4111
喪服經傳	-11.4114
中州	-11.4115
百餘人	-11.4115
隸書	-11.4116
季氏	-11.4116
引用	-11.412
鍳	-11.4121
名分	-11.4121
郵	-11.4122
一代之	-11.4123
窓	-11.4123
非若	-11.4123
涂	-11.4124
大司馬	-11.4125
鏗	-11.4126
何謂	-11.4126
繼以	-11.4126
䟦云	-11.4127
槧	-11.4128
修之	-11.4129
桃源	-11.413
以義	-11.413
大司樂	-11.4131
兎	-11.4131
剰	-11.4131
髀	-11.4131
其源	-11.4131
緇	-11.4132
後録	-11.4132
之衰	-11.4133
峩	-11.4133
晁以道	-11.4133
慟	-11.4134
唐志作	-11.4134
培	-11.4134
𦂳	-11.4134
筌蹄	-11.4134
詧	-11.4134
折𠂻	-11.4134
憫	-11.4134
巫咸	-11.4135
禪寺	-11.4135
楮	-11.4135
洩	-11.4135
也又按	-11.4136
轂	-11.4136
郯	-11.4136
撃	-11.4136
所無	-11.4136
五十二卷	-11.4136
圉	-11.4137
澣	-11.4137
武林	-11.4137
磻	-11.4137
文淵閣	-11.4138
鍵	-11.4138
燥	-11.4139
迪功郎	-11.4139
畝	-11.4139
斛	-11.414
腰	-11.414
元第一百	-11.414
紬繹	-11.414
杓	-11.414
乙夘	-11.414
周益公	-11.414
魔	-11.4141
龜鑑	-11.4141
囿	-11.4142
二經	-11.4142
耆舊	-11.4142
膝	-11.4142
竈	-11.4143
高堂生	-11.4143
又載	-11.4143
礙	-11.4144
太子賔客	-11.4144
汜	-11.4144
國子監祭酒	-11.4145
宋志一卷未見	-11.4145
鷟	-11.4145
孽	-11.4145
破碎	-11.4146
咒	-11.4147
工部郎中	-11.4147
尝	-11.4147
永康	-11.4147
畆	-11.4147
窽	-11.4148
范寗	-11.4149
分書并篆額	-11.4151
鐙	-11.4152
巒	-11.4152
蠲	-11.4152
山樵	-11.4155
尚書右僕射	-11.4155
陳櫟	-11.4155
不可以不	-11.4156
豐城	-11.4156
后稷	-11.4157
少年	-11.4159
符瑞	-11.4159
甘陵	-11.4162
秦焚	-11.4163
本乎	-11.4163
春秋榖梁傳	-11.4166
源委	-11.4169
郊廟	-11.417
意義	-11.417
因魯史	-11.4171
李鼎祚	-11.4171
辟雍	-11.4173
夢英	-11.4173
中都	-11.4174
卜商	-11.4175
吾身	-11.4177
二十二年	-11.4177
儒行	-11.4177
篤信	-11.4177
諡法	-11.4179
陸機	-11.4179
不敏	-11.418
秀才	-11.4182
淺深	-11.4182
命之曰	-11.4182
茫然	-11.4183
孝行	-11.4183
無邪	-11.4184
奏御	-11.4185
終日	-11.419
證以	-11.4192
周易本義	-11.4192
諸石	-11.4192
楊士竒曰	-11.4193
所序	-11.4193
昭公	-11.4193
於無窮	-11.4194
而通之	-11.4194
凡四十	-11.4194
宫室	-11.4195
中庸解	-11.4196
依據	-11.4198
興廢	-11.4199
一心	-11.42
訛缺	-11.4203
明善	-11.4203
慶厯中	-11.4203
萬物之	-11.4204
水經云	-11.4209
二部	-11.4211
増益	-11.4213
上饒	-11.4216
人名氏	-11.4219
著論	-11.4221
相生	-11.4221
未經	-11.4222
記四卷	-11.4223
義一巻	-11.4224
張芝	-11.4224
親親	-11.4225
之月	-11.4225
生焉	-11.4226
史舘	-11.4228
綱紀	-11.4229
總目	-11.4229
十餘人	-11.423
聖人之㫖	-11.4234
逸少書	-11.4234
初年	-11.4234
南鄉	-11.4236
父老	-11.4236
孔子作春秋	-11.4237
終于	-11.4238
與兄	-11.4238
欒城	-11.4239
惠王	-11.424
後出	-11.4242
所存者	-11.4243
和四年	-11.4243
義方	-11.4243
建寜	-11.4243
不得而	-11.4244
易曉	-11.4247
七百二十	-11.4248
僅得	-11.4248
器之	-11.4249
何所據	-11.4251
五世	-11.4252
門徒	-11.4254
語及	-11.4255
何由	-11.4255
次仲	-11.4256
浙西	-11.4261
皇祐中	-11.4267
天下之道	-11.427
張景	-11.4273
今從	-11.4274
千四百	-11.4278
湯武	-11.428
昔之	-11.4281
舊事	-11.4281
華隂縣	-11.4282
問之	-11.4282
忘其	-11.4283
方外	-11.4294
士林	-11.4295
萬嵗	-11.4297
撰集	-11.4301
樂平	-11.4302
昭王	-11.4303
方士	-11.4306
髙第	-11.431
是日	-11.431
狀元	-11.4311
數行	-11.4316
宣州	-11.4316
天下之理	-11.4318
胡廣	-11.4319
擇焉	-11.4322
大約	-11.4323
亦可謂	-11.4328
兩篇	-11.4328
於戲	-11.4328
後改	-11.4331
仍舊	-11.4333
明時	-11.4334
光和六年	-11.4337
思陵	-11.4337
太醫	-11.4337
所為也	-11.4338
變例	-11.4339
尚書右丞	-11.4339
朝鮮	-11.4341
其名字	-11.4342
志三十卷	-11.4345
之儀	-11.435
有補於	-11.4351
不墜	-11.4351
惠公	-11.4355
説一卷存	-11.4357
其位	-11.4358
韓公	-11.4359
已成	-11.436
見於此	-11.4363
三百五十	-11.4365
事宜	-11.4366
其業	-11.4366
五年四月	-11.4371
劉向校	-11.4372
伯英	-11.4372
緒言	-11.4372
二十卷未見	-11.4377
刪之	-11.4378
之志也	-11.4388
清風	-11.4389
𨽻法	-11.4392
注見	-11.4392
宋贈	-11.4393
窺其	-11.4395
以觀	-11.4396
分上下	-11.4396
四尺	-11.4396
厯法	-11.4399
文物	-11.4399
天厯	-11.44
夏五月	-11.4402
之害	-11.4404
可耳	-11.4409
寧國	-11.4413
族子	-11.4414
哉予	-11.4414
此論	-11.4414
初六	-11.4416
古法帖	-11.4419
胸	-11.442
佚漢書	-11.4422
豈特	-11.4424
奏之	-11.4428
先正	-11.4432
縣治	-11.4432
愚謂	-11.4433
録事	-11.4439
士衡	-11.444
以此為	-11.444
賜以	-11.444
𤾉	-11.4441
劒	-11.4446
鄉貢進士	-11.4447
熄	-11.4449
朝請大夫	-11.4449
極精	-11.4449
行筆	-11.445
肱	-11.445
莾	-11.445
余得	-11.4451
字様	-11.4451
蠢	-11.4451
古器物銘	-11.4451
撥	-11.4452
宗周	-11.4453
閨	-11.4453
朝奉郎	-11.4454
韓宣子	-11.4454
㤀	-11.4455
汰	-11.4455
秘書少監	-11.4455
刋正	-11.4455
陕	-11.4455
隻	-11.4455
上海人	-11.4455
隊	-11.4456
鯤	-11.4456
奉化	-11.4456
翰林院檢討朱彛尊撰	-11.4457
􁭉	-11.4457
蟾	-11.4457
罄	-11.4458
曹溶曰	-11.4459
欠	-11.4459
元第二百	-11.4459
太子詹事	-11.446
滂	-11.446
陳傅良	-11.446
張從申	-11.4461
騶虞	-11.4461
乎然	-11.4461
汾隂	-11.4461
寥寥	-11.4461
酢	-11.4462
屯田	-11.4462
欝	-11.4462
喙	-11.4462
屨	-11.4462
楓	-11.4462
竹帛	-11.4462
縷	-11.4462
潼川	-11.4462
倭	-11.4463
滔	-11.4463
鄖	-11.4463
縉紳	-11.4463
華陽真逸	-11.4464
畦	-11.4464
臚	-11.4465
晦菴	-11.4465
杳	-11.4466
金石刻	-11.4466
鏘	-11.4466
啓蒙	-11.4466
壙	-11.4466
迴	-11.4466
馮煥	-11.4467
員外	-11.4467
要皆	-11.4468
隋書經籍志	-11.4468
旁搜	-11.4468
草廬	-11.4468
遒逸	-11.4469
世為	-11.4469
絕	-11.4469
蔡中郎	-11.447
采摭	-11.447
挽	-11.447
文貞公	-11.4471
彖象繫辭	-11.4471
裹	-11.4471
頓首頓首	-11.4472
賔客	-11.4472
東莱	-11.4474
築室	-11.4474
劉原父	-11.4476
莫大乎	-11.4477
關雎	-11.4478
三種	-11.4479
秦始皇	-11.448
四年五月	-11.448
紛紜	-11.448
韓魏公	-11.4481
真書	-11.4481
大指	-11.4482
哉故	-11.4484
邵雍	-11.4484
幕府	-11.4485
歐陽子	-11.4485
典謨	-11.4486
萬厯間	-11.4486
我君	-11.4486
工拙	-11.4488
仙人	-11.4488
累官至	-11.449
介甫	-11.4495
改作	-11.4495
廟學	-11.4495
王佐	-11.4496
韋昭	-11.4496
叅議	-11.4497
精藴	-11.4497
餘事	-11.4498
邦竒	-11.4498
莊公	-11.4499
紙質	-11.4499
不可信	-11.45
博覽	-11.45
勒銘	-11.4503
所摹	-11.4503
立學官	-11.4508
許之	-11.451
五十九卷	-11.4513
標目	-11.4515
今古	-11.4515
避地	-11.4516
之表	-11.4516
講疏	-11.4517
意林	-11.4517
草𨽻	-11.4518
高皇帝	-11.4518
羣儒	-11.452
以發明	-11.452
志道	-11.4521
答曰	-11.4521
集疏	-11.4524
字邦	-11.4524
禮記音	-11.4524
幾何	-11.4525
畫一	-11.4525
州從事	-11.4525
御筆	-11.4526
羽林	-11.4528
太素	-11.4528
日食	-11.453
正宗	-11.4531
發於	-11.4531
附于後	-11.4531
鄭樵曰	-11.4532
舉人官	-11.4532
便覽	-11.4533
比丘	-11.4534
奏請	-11.4534
以開	-11.4534
潁上	-11.4537
建武中	-11.4539
正大	-11.4541
五霸	-11.4545
縉雲人	-11.4546
武后時	-11.4546
乎天	-11.4547
顔真卿撰	-11.4548
春秋戰國	-11.4549
易之為書	-11.455
額題	-11.4551
李淑	-11.4551
編十卷	-11.4553
且謂	-11.4554
榖城	-11.4554
尚完	-11.4554
為全書	-11.4554
卜筮之書	-11.4556
永豐人	-11.4558
二年六月	-11.456
汝陽	-11.4561
北京	-11.4565
之列	-11.4566
吳江人	-11.4566
直講	-11.4567
味道	-11.4567
何足	-11.4569
登封	-11.457
之勞	-11.4571
載籍	-11.4571
所解	-11.4583
之所在	-11.4583
去聖	-11.4583
有罪	-11.4584
以下不	-11.4585
宋志一卷	-11.4587
入神	-11.4587
而言之	-11.459
州判官	-11.4591
下獄	-11.4591
二戴	-11.4599
修定	-11.46
按唐書	-11.4602
度數	-11.4602
古帖	-11.4603
晦日	-11.4604
卒後	-11.4605
首章	-11.4607
五十年	-11.4607
亦誤	-11.461
擇其	-11.4619
齊家	-11.4621
又從而	-11.4622
祀之	-11.4624
曹參軍	-11.4633
七言	-11.4636
泰州	-11.4638
先民	-11.4638
止齋	-11.4639
因取	-11.4641
射禮	-11.4645
諸卦	-11.4645
朱公	-11.4646
僞作	-11.4646
里許	-11.4648
天資	-11.4653
來歸	-11.4656
俱非	-11.4656
二册	-11.4659
盡得	-11.466
一唐	-11.4665
字明	-11.4669
可識者	-11.4673
安西	-11.4675
焉夫	-11.4676
兼侍講	-11.4676
為誰	-11.4676
其所自	-11.4676
三聖之	-11.4677
哲宗	-11.4679
劉仲	-11.4679
考一卷	-11.4681
薦授	-11.4681
和七年	-11.4682
論二卷	-11.4683
風雲	-11.4686
再刻	-11.4687
非徒	-11.4688
卦名	-11.4688
碑不著書撰人名氏	-11.469
略云	-11.4695
詳畧	-11.4697
開成五年	-11.47
補入	-11.4702
終篇	-11.4703
今在西安府	-11.4704
助教	-11.4708
曰古者	-11.4709
子昻	-11.4712
隨其	-11.4712
顯徳	-11.4714
廣信	-11.4714
十月立	-11.4716
而後世	-11.4716
尚書解	-11.472
克用	-11.4721
和元年	-11.4722
顧命	-11.4724
每卷	-11.4728
端禮	-11.4728
附益之	-11.4734
晉侍中	-11.4735
光祖	-11.4735
知禮	-11.4735
進士歴	-11.4737
興起	-11.4737
神龜	-11.474
無從	-11.4741
其是非	-11.4741
三經	-11.4742
士禮	-11.4745
今據	-11.4745
澧	-11.4746
晉江	-11.4753
岳廟	-11.4753
經典釋文	-11.4755
右軍帖	-11.4757
四年六月	-11.4757
奏議十卷	-11.4758
征南	-11.4758
舉正	-11.4759
鄉射	-11.4769
暘	-11.4769
景雲二年	-11.477
覯	-11.477
四册	-11.4771
所編也	-11.4771
春秋時	-11.4772
也况	-11.4773
長慶二年	-11.4773
呉江人	-11.4774
小正	-11.4776
廸功郎	-11.4777
一部三十冊	-11.478
生死	-11.4781
竺	-11.4781
毗陵	-11.4782
痕	-11.4782
麾	-11.4782
希聖	-11.4782
十二卷未見	-11.4783
秘書省正字	-11.4784
弄	-11.4785
杌	-11.4785
祛	-11.4786
埜	-11.4786
憐	-11.4786
儒學提舉	-11.4786
翰林學士承㫖	-11.4786
休寜人	-11.4787
椽	-11.4787
倘	-11.4788
將仕郎	-11.4788
起居注	-11.4788
􁡿	-11.4788
㙮	-11.4788
闥	-11.4788
瑤	-11.4788
宵	-11.4789
炤	-11.4789
詩集十卷	-11.4789
矛	-11.479
汭	-11.479
組	-11.479
刁	-11.4791
閟	-11.4791
油	-11.4791
翰林院編修	-11.4791
遴	-11.4791
謇	-11.4791
倖	-11.4791
起居郎	-11.4792
覬	-11.4792
燉煌	-11.4792
甯	-11.4792
曦	-11.4792
司隷校尉	-11.4793
以類相從	-11.4793
𣙜	-11.4793
髙郵	-11.4793
舘閣	-11.4794
芮	-11.4794
伎	-11.4794
妨	-11.4795
翰林院學士	-11.4795
燎	-11.4795
上進	-11.4795
隧	-11.4795
貺	-11.4795
牡丹	-11.4796
集韻	-11.4796
刑部郎中	-11.4797
有以見	-11.4797
未詳其人	-11.4797
㩀	-11.4797
問荅	-11.4798
悶	-11.4798
杜佑	-11.4799
英乂	-11.4799
㝎	-11.48
内供奉	-11.4801
朱龜碑	-11.4801
批答	-11.4802
秘書郎	-11.4803
考古圖	-11.4804
冠冕	-11.4805
黄裳	-11.4805
家者流	-11.4805
在醴泉縣	-11.4805
李徳裕	-11.4806
萬餘言	-11.4807
刑名	-11.4808
錬	-11.4809
闕二字	-11.481
服䖍	-11.4812
王僧䖍	-11.4812
之說也	-11.4812
樂也	-11.4813
租	-11.4813
印板	-11.4815
本卦	-11.4816
二年十一月	-11.4817
隋文帝	-11.4817
百氏	-11.4818
今所存	-11.482
善政	-11.482
五季	-11.482
盡廢	-11.482
獻之白	-11.4822
行道	-11.4823
鄭伯	-11.4823
君房	-11.4825
武岡	-11.4827
其名而	-11.4827
可以見	-11.4828
屈原	-11.4828
府君諱	-11.483
備忘	-11.4831
甚大	-11.4834
夀翁	-11.4834
莫曉	-11.4835
大中八年	-11.4837
精意	-11.4838
開封府	-11.4838
幽州刺史	-11.4838
西征	-11.4838
手筆	-11.484
高麗	-11.484
附會	-11.4841
之冠	-11.4843
雍州	-11.4843
唐宰相	-11.4845
焉然	-11.4848
或疑	-11.4853
趙公	-11.4854
過庭	-11.4855
乃為	-11.4856
和靖	-11.4861
州圖經	-11.4862
不與焉	-11.4866
功成	-11.4866
夏四月	-11.4866
亭集	-11.487
為司徒	-11.487
狀曰	-11.487
增入	-11.4871
望日	-11.4874
六卿	-11.4874
隨事	-11.4875
延熹八年	-11.4877
齊桓	-11.4877
各一卷	-11.4879
出焉	-11.4879
樊氏	-11.488
敦銘	-11.488
孝㢘	-11.4881
見存	-11.4884
而愈	-11.4885
文房	-11.4885
懼其	-11.4886
要訣	-11.4891
之側	-11.4892
制科	-11.4895
合為	-11.4895
遠矣	-11.4896
鄱陽人	-11.4897
二卷右皇朝	-11.4898
五經四書	-11.4899
季春	-11.4899
海寧	-11.49
無忌	-11.4903
開元二十四年	-11.4908
書苑	-11.491
徴士	-11.4911
武康	-11.4913
遺愛碑	-11.4914
百代	-11.492
安在	-11.4922
詩一卷右唐	-11.4922
太廟	-11.4924
得其書	-11.4924
經營	-11.4929
春夏	-11.4929
後魏書	-11.493
例一卷	-11.493
薛君	-11.4931
多取	-11.4932
秦篆	-11.4935
城記	-11.4936
異矣	-11.4936
郃陽	-11.4937
通攷	-11.4939
十六卷存	-11.4939
韶州	-11.494
第三子	-11.494
入蜀	-11.4941
君謨	-11.4942
十五巻	-11.4947
詳說	-11.496
宛然	-11.4961
傳世	-11.4962
不輟	-11.4968
第一卷	-11.4968
重摹	-11.4969
易辨	-11.497
樹碑	-11.4971
論語說	-11.4972
佚宋史	-11.4973
得其傳	-11.4974
其子孫	-11.4976
史書	-11.4977
四夷	-11.4977
禅	-11.4978
一朝	-11.498
景德	-11.4982
天生	-11.4983
學正	-11.4984
前人之	-11.4984
二年十二月	-11.4985
詳於	-11.4988
建陽人	-11.4989
復置	-11.4989
召試	-11.4991
順陽	-11.4991
各一人	-11.4991
白馬	-11.4992
在茅山	-11.4995
七年立	-11.4998
胡氏傳	-11.4998
皇極經世書	-11.5
厯數	-11.5001
不死	-11.5002
西都	-11.5009
位至	-11.5011
梁國	-11.5012
九五	-11.5014
有天下	-11.5016
世號	-11.5019
以續	-11.5019
序説	-11.5022
集十八卷	-11.5026
一身	-11.5027
魯峻碑	-11.5028
宋咸	-11.5032
所未見	-11.5033
淪於	-11.5035
執經	-11.5036
當由	-11.5036
元人	-11.5038
陰符	-11.5041
傳疑	-11.5041
楞嚴	-11.5042
而用之	-11.5042
國子學	-11.5045
天下國家	-11.5049
王屋	-11.505
信都	-11.505
治春秋	-11.5051
按史記	-11.5054
紹興間	-11.5055
而還	-11.5055
景仁	-11.5056
詳焉	-11.5056
舊名	-11.5059
百工	-11.5061
世無	-11.5062
致治	-11.5064
抄本	-11.5065
蔡公	-11.5066
鄞縣	-11.5067
徐浩書	-11.5068
數本	-11.507
節解	-11.5071
宗元	-11.5072
大覺	-11.5073
為貴	-11.5073
名義	-11.5074
春秋公羊	-11.5075
餘力	-11.5075
宋初	-11.5076
其所著	-11.5076
陸德明	-11.508
十一冊	-11.5082
浦江人	-11.5083
漢武帝	-11.5083
真定府	-11.5084
廣德	-11.5086
過人	-11.5088
師法	-11.5088
永初	-11.5089
無一字	-11.5093
致知	-11.5095
雲間	-11.5096
於六經	-11.5098
論衡	-11.5099
喪祭	-11.5101
申明	-11.5104
以還	-11.5106
二十卷右皇朝	-11.511
撰八分書	-11.5112
功業	-11.5117
王羲之書	-11.5118
者不過	-11.5118
功名	-11.5119
况於	-11.5122
纓	-11.5125
僉都御史	-11.5127
臭	-11.5128
黄溍	-11.5128
焦贛	-11.5128
開物成務	-11.5129
玘	-11.5129
蠡測	-11.513
精思	-11.513
集賢院學士	-11.513
㝢	-11.5131
戡	-11.5131
堂谿典	-11.5132
聱	-11.5132
□□□□□□	-11.5133
韞	-11.5133
埤雅	-11.5133
殊不	-11.5133
瑄	-11.5133
爕	-11.5133
嗇	-11.5134
扣	-11.5134
殽	-11.5134
鋟梓	-11.5135
扉	-11.5136
伉	-11.5136
馬日磾	-11.5136
楙	-11.5136
太子少師	-11.5136
竑	-11.5137
飽	-11.5137
鄭餘慶	-11.5137
豈徒	-11.5137
梗槩	-11.5138
潼	-11.5138
佗	-11.5138
吉凶悔吝	-11.5138
悚	-11.5138
聫	-11.5138
扇	-11.5139
卄	-11.5139
當以碑為正	-11.5139
丸	-11.5139
椅	-11.5139
君臣父子	-11.5139
瀘	-11.5139
跂	-11.5139
探賾	-11.5139
編類	-11.5139
太子少傅	-11.514
洧	-11.514
趺	-11.514
州司户	-11.514
干禄	-11.514
挑	-11.5141
太僕寺卿	-11.5141
出乎	-11.5141
韓昌黎	-11.5141
陌	-11.5141
郄	-11.5142
叨	-11.5142
勦	-11.5143
賈島	-11.5143
芑	-11.5144
斟酌	-11.5144
使持節	-11.5145
嬉	-11.5146
阮逸	-11.5146
武三思	-11.5146
公孫龍	-11.5147
䘏	-11.5148
娑	-11.5149
開成二年	-11.515
上卷	-11.5151
考據	-11.5151
奉議郎	-11.5151
翌日	-11.5151
自晉	-11.5152
冬十月	-11.5153
尋繹	-11.5154
楊萬里	-11.5156
姜夔	-11.5156
朱震曰	-11.5157
有秩	-11.5158
利害	-11.5159
紀畧	-11.516
虞永興	-11.516
依倣	-11.516
程端學曰	-11.516
嚴氏春秋	-11.5162
私抄	-11.5162
星辰	-11.5162
特為	-11.5163
豫州刺史	-11.5165
文宣王廟記	-11.5165
司隷	-11.5166
誠齋	-11.5167
直言	-11.5167
無人	-11.5169
甗	-11.517
甚於	-11.517
袁宏	-11.517
皆合	-11.5172
喪亂	-11.5172
當屬	-11.5174
字形	-11.5176
召對	-11.5176
古意	-11.5177
唐文皇	-11.5177
梁鵠書	-11.5177
之異同	-11.5177
辨析	-11.5179
疾病	-11.5179
召還	-11.5179
紀事一卷	-11.5179
孔子家語	-11.5181
石晉	-11.5181
二千石	-11.5182
乃始	-11.5183
研精	-11.5183
大中大夫	-11.5183
短長	-11.5184
野人	-11.5185
炎武	-11.5186
别刻	-11.5187
蕭翼	-11.5188
雜說	-11.5189
垂訓	-11.519
始見	-11.5191
一手偽	-11.5192
李肇	-11.5193
者率	-11.5196
張説撰	-11.5196
利貞	-11.5196
戴德	-11.5197
治國	-11.52
倪氏	-11.5204
聲韻	-11.5204
太湖	-11.5205
天聖中	-11.5205
神人	-11.5205
國君	-11.5206
漢晉	-11.5207
行成	-11.5207
宫殿	-11.5208
無據	-11.521
孝經一卷	-11.5212
因革	-11.5215
據此則	-11.5216
所列	-11.5216
太和三年	-11.5216
趙孟頫書	-11.5217
授徒	-11.5217
聖言	-11.5219
予家	-11.5219
縣志四卷	-11.522
許公	-11.5221
耳而	-11.5221
兼山	-11.5223
黄佐	-11.5223
士龍	-11.5224
良弼	-11.5224
嚴陵	-11.5225
是歲	-11.5225
忠嗣	-11.5227
徳宗	-11.5232
月日	-11.5233
圖譜	-11.5234
監門	-11.5235
載道	-11.5237
張説	-11.5241
三十篇	-11.5241
黄州	-11.5242
郡志	-11.5246
梁丘	-11.5249
始成	-11.525
崔融	-11.5252
推本	-11.5252
篤學	-11.5254
紛然	-11.5255
各自為	-11.5256
詳節	-11.526
備載	-11.5262
佚陸德明曰	-11.5266
城内	-11.5266
嘗觀	-11.5266
誦詩	-11.5266
太過	-11.5269
自為序	-11.5269
卦象	-11.527
九行	-11.5272
百一十	-11.5273
安國寺	-11.5273
大壯	-11.5275
風雅頌	-11.5278
不韋	-11.5279
符命	-11.5279
佚黄虞稷曰	-11.5283
之謀	-11.5283
羣言	-11.5289
第十卷	-11.5291
易原	-11.5296
博矣	-11.5297
躬行	-11.5298
戰國時	-11.5299
洛陽記	-11.53
清臣	-11.53
易見	-11.5301
行實	-11.5302
誰氏	-11.5302
眀皇	-11.5303
學者多	-11.5303
佛法	-11.5304
大防	-11.5304
旁及	-11.5306
宋搨	-11.5315
元至正	-11.5315
天象	-11.5317
其罪	-11.532
徳明	-11.5321
節目	-11.5323
易詩書	-11.5323
末年	-11.5325
佚晉書	-11.5328
諸詩	-11.5328
景公	-11.5329
五官掾	-11.533
九三	-11.5332
相發明	-11.5333
四門	-11.5336
杜林	-11.5337
佚陸徳明曰	-11.5338
考工	-11.5341
白首	-11.5343
不可及	-11.5344
生徒	-11.5345
可證	-11.5347
山文集	-11.5348
彌勒	-11.5349
元和十	-11.535
異日	-11.535
晉陵	-11.5351
祥道	-11.5352
王褒	-11.5353
字學	-11.5356
三百年	-11.5358
君臣之	-11.5361
全本	-11.5363
諸老	-11.5363
㣲言	-11.5365
公羊春秋	-11.537
古器	-11.537
天水	-11.5372
失其真	-11.5373
元季	-11.5377
四年三月	-11.5378
十三巻	-11.5379
王彦	-11.5381
元凱	-11.5383
天后	-11.5383
而可以	-11.5385
纂圖	-11.5388
𢎞道	-11.5388
釐為	-11.5391
浦江	-11.5393
州廢	-11.54
昭徳	-11.54
修國史	-11.54
天下之事	-11.5403
揣	-11.5407
要道	-11.5407
禄山	-11.5408
六年四月	-11.5411
之類也	-11.5412
容齋	-11.5414
治易	-11.5415
月十一日	-11.5416
文清	-11.542
曺史	-11.5422
四年八月	-11.5429
所不及	-11.5432
極矣	-11.544
為主而	-11.544
無過	-11.5446
九流	-11.5448
隋志五行家	-11.5453
大饗	-11.5453
昌邑	-11.5455
方三卷	-11.5455
專於	-11.5456
齊侯	-11.5458
陽侯	-11.546
月七日	-11.5461
官屬	-11.5464
車騎	-11.5469
奈	-11.5469
公私	-11.547
而作也	-11.5471
東遷	-11.5472
莆	-11.5472
彜	-11.5472
唐刺史	-11.5473
附注	-11.5473
上中下	-11.5476
殤	-11.5476
自叙	-11.5477
羔	-11.5477
愉	-11.5478
黄石公	-11.548
苕	-11.548
資治通鑑綱目	-11.548
屬辭比事	-11.5481
摶	-11.5485
薇	-11.5485
攄	-11.5486
褐	-11.5486
崑崙	-11.5486
呪	-11.5487
躅	-11.5487
蕙	-11.5488
弧	-11.5488
療	-11.5489
斿	-11.5489
中散大夫	-11.549
忻	-11.549
肩吾	-11.549
撰人姓名殘缺	-11.5491
湛若水	-11.5491
竅	-11.5491
縦	-11.5491
爚	-11.5491
州諸軍事	-11.5491
澁	-11.5492
濁	-11.5492
歉	-11.5492
同中書門下平章事	-11.5492
武英殿	-11.5492
荀爽	-11.5492
䋲	-11.5493
公食大夫	-11.5493
殄	-11.5493
蠟	-11.5493
墀	-11.5493
蓬萊	-11.5493
㦤	-11.5494
淚	-11.5494
巔	-11.5494
毫釐	-11.5494
丐	-11.5494
皋	-11.5494
扐	-11.5495
萱	-11.5495
櫛	-11.5495
貫穿	-11.5495
提督	-11.5495
北海相景君碑	-11.5495
灸	-11.5495
周公禮殿	-11.5495
征伐	-11.5496
隋志二卷佚	-11.5496
岫	-11.5496
靄	-11.5496
髦	-11.5496
璇璣	-11.5497
浯溪	-11.5497
王應麟	-11.5497
貿	-11.5497
醴	-11.5497
瓛	-11.5497
錦衣	-11.5498
日月星辰	-11.5498
唐虞三代之	-11.5498
目錄類二	-11.5498
盲	-11.5499
沾	-11.5499
二十八宿	-11.55
娯	-11.55
混淆	-11.55
愴	-11.55
奔喪	-11.55
墉	-11.5501
大年	-11.5501
俶	-11.5502
庭誨	-11.5502
天文地理	-11.5502
邜	-11.5502
蒼梧	-11.5502
評書	-11.5503
隰	-11.5504
不知作者	-11.5504
譬之	-11.5505
洋洋	-11.5505
黍離	-11.5505
韓琦	-11.5505
講説	-11.5506
轉相	-11.5507
巨源	-11.5508
尤詳	-11.5508
𤣥奘	-11.5509
靚	-11.5509
朝議郎	-11.551
施行	-11.5511
舛誤	-11.5512
巨川	-11.5512
仲孫	-11.5513
墓碣	-11.5513
景迂	-11.5514
館陶	-11.5514
表章之	-11.5516
館職	-11.5516
陳與義	-11.5517
賄	-11.5517
大鴻臚	-11.5517
希烈	-11.5517
𣸪	-11.5517
未知其	-11.5518
吏部郎中	-11.5519
之民	-11.5521
四年九月	-11.5521
亦從	-11.5522
三子	-11.5524
合肥	-11.5524
元年八月	-11.5526
辨惑	-11.5527
六年立	-11.5529
蘇頲撰	-11.553
序略曰	-11.5531
形勢	-11.5535
崇安	-11.5535
柱國	-11.5536
淮隂	-11.5536
死罪	-11.5536
偃師	-11.5537
僖宗	-11.5538
滁州	-11.5538
汶陽	-11.5539
㦸門	-11.5539
研究	-11.5541
館集	-11.5543
奥㫖	-11.5543
青田人	-11.5544
宣尼	-11.5544
筆墨	-11.5544
侯國	-11.5545
月十六日	-11.5545
權輿	-11.5547
永壽	-11.5548
解一卷未見	-11.555
散逸	-11.5551
何似	-11.5552
上疏	-11.5552
草堂集	-11.5552
荀氏	-11.5557
邵武人	-11.5557
太倉人	-11.556
晦叔	-11.556
七政	-11.5561
安成	-11.5563
無可疑	-11.5566
舊典	-11.5566
佚李氏	-11.5566
安仁	-11.5567
百七十	-11.5568
豈得	-11.5571
潛心	-11.5577
最古	-11.5582
七卷佚	-11.5582
大功	-11.5582
増入	-11.5584
板行	-11.5588
篇章	-11.559
樂平人	-11.5591
諸君	-11.5591
未之及	-11.5594
叅以	-11.5597
千百年	-11.5597
吉水	-11.5599
本姓	-11.56
稱之曰	-11.56
四年進士	-11.5601
相符	-11.5605
隠士	-11.5607
聖祖	-11.5607
集議	-11.5608
德秀	-11.5609
自成一家	-11.561
青龍	-11.5611
受學	-11.5612
經師	-11.5613
並存	-11.5614
詩集四卷	-11.5614
夫人碑	-11.5615
宜春	-11.5615
左方	-11.5616
示余	-11.5616
進士授	-11.5618
二十一日	-11.5619
長公主	-11.5622
簡要	-11.5623
輯畧	-11.5625
微子	-11.5626
相接	-11.5626
閏月	-11.5627
叙録	-11.5628
萬卷	-11.5633
竊意	-11.5634
石淙	-11.5636
數百人	-11.5637
校理	-11.5639
律師	-11.5641
集十三卷	-11.5642
韓文	-11.5643
燕禮	-11.5647
河清	-11.5648
丈夫	-11.5649
肥瘦	-11.5649
絶筆	-11.5651
推廣	-11.5653
本旨	-11.5653
北征	-11.5656
指掌圖	-11.5657
聖人之書	-11.5659
各有所	-11.566
知止	-11.5663
易數	-11.5666
東歸	-11.5672
男子	-11.5675
贈太傅	-11.5676
新昌	-11.5678
廷相	-11.5679
晏子	-11.5679
集十卷唐	-11.568
大常	-11.5681
安道	-11.5682
卒葬	-11.5684
南海人	-11.5685
大中十	-11.5688
其謬	-11.5689
可以觀	-11.569
舊物	-11.5694
先帝	-11.5694
書丹	-11.5694
使民	-11.5696
不知何時	-11.5698
石橋	-11.5699
堂詩集	-11.57
佚陸元輔曰	-11.5702
圖象	-11.5703
逸篇	-11.5704
補音	-11.5705
涿郡	-11.5706
據依	-11.5709
史籀	-11.5715
者殆	-11.572
可識	-11.5724
於象數	-11.5725
用是	-11.5726
二種	-11.5728
觀變	-11.5728
大經	-11.5732
唐志十卷佚	-11.5734
刪其	-11.5736
江右	-11.5737
顔公	-11.5746
靈應	-11.575
髙弟	-11.5756
一十九	-11.5756
開元十五年	-11.5756
一部三	-11.5757
原石	-11.5763
公神道碑	-11.5763
在洛陽	-11.5765
切於	-11.5767
奏議一卷	-11.577
宋末	-11.5771
文集一部二冊	-11.5778
易詩書春秋	-11.5783
永安	-11.5783
初平	-11.5785
新宫	-11.5785
未必然	-11.5788
世譜	-11.5793
楊士竒	-11.5794
執禮	-11.5796
博識	-11.5798
四代	-11.58
之本意	-11.5801
兩家	-11.5803
樞要	-11.5803
名姓	-11.5806
周官禮	-11.5807
最善	-11.5809
德明	-11.5811
談經	-11.5812
法語	-11.5815
一卷未見黄虞稷曰	-11.5815
精語	-11.5815
固宜	-11.5816
鎮國	-11.5816
於其中	-11.5816
父兄	-11.5818
所長	-11.5818
例也	-11.582
劉禹錫撰	-11.5823
六十四卷	-11.5824
衡州	-11.5826
五年十月	-11.5829
製序	-11.583
以配	-11.5831
蘭溪	-11.5837
劉施	-11.5837
信乎	-11.584
黄龍	-11.5843
垢	-11.5849
顯然	-11.585
在盩厔縣	-11.5852
匱	-11.5852
讀書記	-11.5853
明逺	-11.5854
允文	-11.5855
吕柟	-11.5856
程大昌	-11.5857
瓉	-11.5858
摘稿	-11.5858
朝議大夫	-11.5858
筍	-11.5859
渤	-11.586
峨	-11.5861
沅	-11.5861
菽	-11.5861
窆	-11.5862
盾	-11.5862
拠	-11.5862
斌	-11.5862
三教	-11.5863
淆亂	-11.5863
庇	-11.5863
河南府	-11.5863
扆	-11.5863
桷	-11.5863
宕渠	-11.5863
械	-11.5863
謄	-11.5864
犖	-11.5864
竣	-11.5864
石闕銘	-11.5865
湫	-11.5865
秘書省	-11.5865
拳拳	-11.5865
􁗩	-11.5866
耻	-11.5866
撤	-11.5867
玭	-11.5867
張懐瓘	-11.5868
鏤版	-11.5868
榦	-11.5868
拖	-11.5868
鑽	-11.5868
劉餗	-11.5868
之役	-11.5868
一甲第一人	-11.5869
苔	-11.5869
菩提	-11.5869
揖讓	-11.5869
坑	-11.5869
范成大	-11.5869
贗	-11.5869
紇	-11.587
㳂	-11.587
杜元凱	-11.587
盂	-11.587
冏	-11.587
擯	-11.587
關内侯	-11.587
巫蠱	-11.5871
諌議大夫	-11.5871
李邕撰并書	-11.5872
漠	-11.5872
异	-11.5873
彧	-11.5873
聽訟	-11.5873
甃	-11.5873
隷額	-11.5874
吕東萊	-11.5874
兔	-11.5874
朝散郎	-11.5874
爪	-11.5874
舊藏	-11.5875
良臣	-11.5875
縂	-11.5875
賑	-11.5876
授經圖義例	-11.5876
訶	-11.5876
疋	-11.5877
壅	-11.5877
唱和	-11.5878
夏侯勝	-11.5878
從王澍釋	-11.5878
要語	-11.5878
道場	-11.5879
先後天	-11.5879
魏鄭公	-11.5879
右副都御史	-11.5879
復取	-11.5879
另	-11.5879
鄺	-11.5879
澀	-11.5879
緱氏	-11.588
深思	-11.5881
暎	-11.5881
六二	-11.5882
伏羲之易	-11.5883
復古編	-11.5883
右僉都御史	-11.5884
補痕	-11.5886
力學	-11.5887
字徑一寸	-11.5888
每卦	-11.5889
從施宿釋	-11.5891
嘉定中	-11.5891
筆駛	-11.5891
不可謂	-11.5891
無疑也	-11.5894
縣界	-11.5895
漢石經	-11.5895
城隍神	-11.5896
虚無	-11.5897
之兄	-11.5898
此書乃	-11.5898
竒怪	-11.5898
洺州	-11.5899
太和七年	-11.5899
懷素	-11.5899
陸績	-11.5901
玉藻	-11.5903
視事	-11.5905
補綴	-11.5906
第九卷	-11.5911
存繆泳曰	-11.5911
右都御史	-11.5911
宣撫	-11.5914
會要	-11.5915
太原王	-11.5917
良史	-11.5918
多用	-11.5918
劉知幾曰	-11.5918
太息	-11.5919
自序曰春秋	-11.592
黄金	-11.592
深考	-11.5921
既多	-11.5923
風骨	-11.5923
廷珪	-11.5923
金壇人	-11.5923
在長安	-11.5924
既沒	-11.5925
五百餘	-11.5925
知其非	-11.5925
齋集十卷	-11.5926
温陵	-11.5927
數十篇	-11.5927
上元二年	-11.5929
遺愛	-11.5935
不佞	-11.5936
案文獻通攷作	-11.5936
亦未嘗	-11.5936
夫子所	-11.594
譏其	-11.5942
天地之心	-11.5945
春秋列國	-11.5946
經意	-11.595
不减	-11.5953
宗師	-11.5955
片言	-11.596
魏徵	-11.596
季宣	-11.5964
羲文周孔之	-11.5964
長興人	-11.5964
之變也	-11.5966
之象也	-11.5966
散佚	-11.5967
景福	-11.5968
三十三篇	-11.5971
元二十	-11.5974
肆夏	-11.5975
贈太保	-11.5975
畫八卦	-11.5975
獨取	-11.5976
少傅	-11.5978
乾道中	-11.5979
崇聖	-11.5979
按後漢書	-11.5984
玄宗	-11.5985
淮南王	-11.5985
算法	-11.5987
九年十月	-11.5988
余靖	-11.5988
明太祖	-11.5989
四十九卷	-11.5989
咸寧	-11.599
有所得	-11.5991
文皇帝	-11.5991
未之見也	-11.5991
二十四篇	-11.5997
此所以	-11.5999
中常侍	-11.6003
計其	-11.6003
器銘	-11.6004
之中而	-11.6004
南方	-11.6004
天縱	-11.6004
史籕	-11.6007
者以其	-11.6007
山人稿	-11.6007
不得與	-11.6009
圖畫	-11.601
觀察	-11.6011
月二十三日	-11.6013
章奏	-11.6015
摹勒	-11.6016
光澤	-11.6017
佛老	-11.6018
尉氏	-11.6019
家法	-11.6022
劄子	-11.6022
十五卷存	-11.6023
十五冊	-11.6023
僅見	-11.6024
要領	-11.6025
無愧	-11.6027
郡學	-11.6027
可惜	-11.6033
祠記	-11.6033
夫豈	-11.6036
興平	-11.6037
購得	-11.604
造化之	-11.6041
人之手	-11.6041
程子曰	-11.6045
是書也	-11.6046
御注	-11.6046
聘禮	-11.6047
失其傳	-11.6049
四十篇	-11.6057
所製	-11.6057
難經	-11.6058
順伯	-11.6063
墓表	-11.6067
稱善	-11.6067
而歸之	-11.6072
元年二月	-11.6073
敏公	-11.6073
施氏	-11.6076
略同	-11.6077
歲時	-11.608
道路	-11.6081
單行	-11.6081
近得	-11.6086
陽氣	-11.609
繫於	-11.609
不著撰人	-11.6091
矣至於	-11.6092
王霸	-11.6093
論辨	-11.6093
開元二十五年	-11.6099
相屬	-11.61
道術	-11.6101
集古録云唐	-11.6102
所説	-11.6103
相里	-11.611
西銘	-11.6113
王右軍書	-11.6113
還丹	-11.6113
何耶	-11.6113
所殺	-11.6116
曰臣聞	-11.6119
人才	-11.6121
雲卿	-11.6123
盡去	-11.6123
千二百	-11.6126
元亮	-11.6126
孔宙	-11.6127
文敏公	-11.6127
鄉先生	-11.6128
逸詩	-11.6132
千載之	-11.6132
自序云	-11.6143
雜論	-11.6147
雙溪	-11.6151
諸君子	-11.6153
焞	-11.6162
永年	-11.6164
遺事一卷	-11.6166
相反	-11.6167
太和四年	-11.6169
文苑	-11.6175
終南	-11.6176
元和八年	-11.6178
五十篇	-11.6186
平易	-11.6187
也故曰	-11.6188
抑亦	-11.6188
南城人	-11.6194
七冊	-11.6195
佚張氏	-11.6197
十三經	-11.6197
都官	-11.6198
陽氷	-11.62
文集一部一冊	-11.6203
武仲	-11.6205
妄作	-11.6208
來朝	-11.6209
嶧山	-11.6211
非周公	-11.6211
逸民	-11.6214
平都	-11.6217
周易卦	-11.6218
八體	-11.6223
天下之大	-11.6225
陜州	-11.6227
校讐	-11.6228
盛矣	-11.6229
釡	-11.623
晉武帝	-11.6235
四千九十六	-11.6235
洮	-11.6236
扶溝	-11.6237
献	-11.6238
者往往	-11.6238
閼	-11.6238
掌書記	-11.6239
雌	-11.6241
鎔	-11.6241
集賢校理	-11.6242
箭	-11.6243
塼	-11.6243
旃	-11.6243
釋褐	-11.6244
璩	-11.6244
九經字様	-11.6245
泮	-11.6245
伶	-11.6245
沁	-11.6245
拊	-11.6246
伴	-11.6246
黷	-11.6247
邴	-11.6247
胡瑗	-11.6247
􁓤	-11.6247
虵	-11.6248
驤	-11.6249
王元羙	-11.6249
倐	-11.6249
峒	-11.6249
昜	-11.6249
絅	-11.6249
桐栢	-11.6249
李淳風	-11.6249
扎	-11.6249
馥	-11.625
謫戍	-11.625
藝文類聚	-11.625
元亨利貞	-11.625
挂	-11.625
陶宗儀	-11.625
㳅	-11.625
岀	-11.6251
羸	-11.6251
恭校上	-11.6251
門生東郡	-11.6251
辨一卷	-11.6251
烜	-11.6251
桞公權	-11.6251
改庶吉士	-11.6251
防禦	-11.6251
觚	-11.6251
莱	-11.6251
元第七百	-11.6252
弃	-11.6252
騶	-11.6252
蛾	-11.6252
楊循吉	-11.6252
所繫	-11.6252
征西	-11.6252
堙	-11.6253
具列	-11.6253
狡	-11.6253
茨	-11.6254
百萬	-11.6254
叠	-11.6254
不悖	-11.6254
尺寸	-11.6254
凋	-11.6255
禮部主事	-11.6255
泮宫	-11.6255
遺教經	-11.6255
峽	-11.6255
婢	-11.6255
柬	-11.6255
軀	-11.6255
埃	-11.6256
昬	-11.6256
旄	-11.6256
𢎞文館	-11.6257
治國平天下	-11.6257
刑獄	-11.6257
誄	-11.6257
妥	-11.6257
邵康節	-11.6257
酸棗	-11.6257
劫	-11.6257
窘	-11.6257
凍	-11.6258
珮	-11.6258
踐阼	-11.6258
司宼	-11.6258
陶𢎞景	-11.6259
貟	-11.6259
已乆	-11.6259
滴	-11.6259
濓洛	-11.6259
命儒臣	-11.6259
㒒	-11.6259
結銜	-11.6259
洒	-11.626
宋敏求	-11.626
五百處士	-11.6261
末學	-11.6261
踪	-11.6262
太清樓	-11.6262
天民	-11.6262
雜占	-11.6263
㱕	-11.6263
開元二十六年	-11.6263
鵝	-11.6264
潯陽	-11.6265
九江太守	-11.6265
一片	-11.6265
魏伯陽	-11.6266
張行成	-11.6267
蔡卞	-11.6267
豁然	-11.6267
十九篇	-11.6268
性命之理	-11.6269
麗澤	-11.6269
始興	-11.6269
提刑	-11.6272
袁評	-11.6272
禰	-11.6272
經始於	-11.6273
不煩	-11.6277
傅會	-11.6277
大半	-11.6278
艱難	-11.6278
其私	-11.6279
五經博士	-11.6279
李陽氷篆	-11.628
莫大於	-11.6281
帖目	-11.6281
宋諸儒	-11.6281
洛中	-11.6281
陽翟	-11.6282
康熈	-11.6282
皮氏	-11.6283
割去	-11.6283
旌表	-11.6283
創業	-11.6285
隴右	-11.6286
精密	-11.6286
淺近	-11.6286
周禮一書	-11.6288
祕府	-11.6288
七十五卷	-11.6289
横山	-11.629
竒偉	-11.629
四皓	-11.6293
海寧人	-11.6294
崇寜	-11.6295
亡失	-11.6296
長洲縣	-11.6296
先祖	-11.6296
一部一冊厯代	-11.6297
良佐	-11.63
永康人	-11.63
昭烈	-11.6301
倉卒	-11.6301
希孟	-11.6302
大訓	-11.6302
墨妙	-11.6303
清勁	-11.6307
撰不著書人名氏	-11.6308
罷歸	-11.6311
六十五卷	-11.6311
鐵石	-11.6313
思誠	-11.6313
𢎞景	-11.6317
序跋	-11.632
坦之	-11.632
補其闕	-11.6321
精㣲	-11.6324
九卿	-11.6324
末世	-11.6326
増廣	-11.6326
統紀	-11.633
㑹試	-11.633
崇義	-11.6331
維楨	-11.6332
今世所傳	-11.6333
新定	-11.6337
萬三千	-11.6342
器物	-11.6342
元祐初	-11.6343
淳化帖	-11.6347
萬夀	-11.6349
竹簡	-11.635
欽定	-11.635
過此	-11.6354
㫖趣	-11.6357
苟非	-11.636
秋七月	-11.6361
列傳云	-11.6363
一百六十卷	-11.6364
三十卷存	-11.6365
池陽	-11.6366
參校	-11.637
準易	-11.6371
井銘	-11.6373
北嶽	-11.6373
張霸	-11.6375
元祐間	-11.6376
知撰人	-11.6379
表奏	-11.6379
首載	-11.6379
元和二年	-11.6382
戸部	-11.6382
朱升	-11.6383
五十六卷	-11.6383
歴歴	-11.6383
曰朕	-11.6385
少尹	-11.6386
令問	-11.6387
五卷右皇朝	-11.639
問辨	-11.6396
弑君	-11.6397
絶學	-11.6397
餘印無考	-11.6397
安置	-11.64
會通	-11.6402
城隍	-11.6407
江都人	-11.6414
未必盡	-11.6415
萬國	-11.642
贈太尉	-11.6431
集觧	-11.6434
隱士	-11.6435
陶氏	-11.6437
乙丑進士	-11.6438
穆宗	-11.6442
城隍廟	-11.6449
開元十八年	-11.645
此碑云	-11.645
不敢自	-11.6453
申子	-11.6453
繁而	-11.6458
以觀其	-11.6459
陸費墀	-11.646
鍾氏	-11.6462
以是知	-11.6463
大誥	-11.6463
精要	-11.6466
河西	-11.6469
天授	-11.647
盛德	-11.6474
炳文	-11.6476
下篇	-11.6482
不勞	-11.6487
竊嘗	-11.6487
汀州	-11.6497
政要	-11.65
瘦勁	-11.6501
葉夢得	-11.6505
被召	-11.6505
月二日	-11.6506
杜子春	-11.6507
程先生	-11.6519
第五卷	-11.6519
建中元年	-11.6521
欒	-11.6523
地理志	-11.6529
之大者	-11.6533
莫辨	-11.6536
丹陽人	-11.6536
年修	-11.6539
中嶽廟	-11.6541
榖梁傳	-11.6542
野史	-11.6548
長慶四年	-11.6548
易之用	-11.6551
方慶	-11.6557
博雅君子	-11.6559
決非	-11.6562
孔子之易	-11.6563
舟中	-11.6564
義烏	-11.6565
淳化中	-11.6565
公羊氏	-11.6566
矣雖然	-11.6568
暮春	-11.657
啖	-11.6572
司馬法	-11.6572
遂寧	-11.6575
亭詩	-11.6576
等共	-11.6576
人舉進士	-11.6577
刻於石	-11.658
大小戴	-11.6586
建寧元年	-11.6587
必求	-11.6591
無可考	-11.6592
重定	-11.6593
一部一册	-11.6599
道德經	-11.6606
而附以	-11.6608
府并屬縣志一冊	-11.661
任氏	-11.6624
似孫	-11.6627
吉安	-11.6628
其序云	-11.6628
古音	-11.6631
齋詩集	-11.6633
贑州	-11.6634
陸放翁	-11.6634
成都府	-11.6635
所未備	-11.6635
澔	-11.6637
退居	-11.6637
伯盛	-11.6637
虙	-11.6637
茗	-11.6639
聾	-11.6641
䜿	-11.6641
牕	-11.6642
淄	-11.6642
酈	-11.6642
諸葛武侯	-11.6642
俛	-11.6642
鵲	-11.6644
豈即	-11.6644
按察司副使	-11.6644
郾	-11.6644
蔡有鄰	-11.6644
尢	-11.6644
桐廬	-11.6644
珵	-11.6644
小戴記	-11.6645
酸	-11.6645
賡	-11.6645
价	-11.6645
希弁所藏	-11.6645
璁	-11.6645
飫	-11.6646
琅	-11.6646
進書表	-11.6646
集二十四卷	-11.6646
經義考	-11.6647
餙	-11.6647
吏部員外郎	-11.6647
右丞相	-11.6648
慚	-11.6648
諍	-11.6649
顔氏家訓	-11.6649
柘	-11.6649
荔	-11.6649
􁭇	-11.665
炅	-11.665
吝	-11.665
陁羅尼	-11.665
詺	-11.6651
曽鞏	-11.6651
袐	-11.6651
私淑	-11.6651
旒	-11.6651
㝷	-11.6651
朐	-11.6651
元第三百	-11.6651
贖	-11.6651
殿中丞	-11.6651
晁説之	-11.6651
八分書無姓名	-11.6652
文淵閣書目	-11.6652
諺	-11.6652
尺二寸	-11.6652
竪	-11.6652
觕	-11.6652
抒	-11.6652
揚子法言	-11.6652
逖	-11.6653
栖霞	-11.6653
禮部右侍郎	-11.6653
巾箱	-11.6653
樞宻院	-11.6653
愕	-11.6653
悊	-11.6653
咄	-11.6654
南齊書	-11.6654
橫	-11.6654
零落	-11.6654
雲麾	-11.6655
岵	-11.6655
漂	-11.6655
沸	-11.6656
石經遺字	-11.6656
南郡	-11.6657
朝覲	-11.6657
擒	-11.6657
葉適	-11.6657
諸子百家	-11.6657
鉢	-11.6657
琬琰	-11.6658
簾	-11.6658
脅	-11.6659
黄門郎	-11.6659
雍熙	-11.6659
滄海	-11.6659
償	-11.6659
叱	-11.6659
含文嘉	-11.666
訊	-11.6661
儕	-11.6661
門生故吏	-11.6662
眠	-11.6663
凡此皆	-11.6663
裴公	-11.6663
之過也	-11.6664
批注	-11.6665
六年正月	-11.6666
憕	-11.6666
釋奠	-11.6667
行于世	-11.6667
景陽	-11.6667
袁昻	-11.6667
八月立	-11.6667
發憤	-11.6668
顔芝	-11.667
紹熈	-11.667
嵩岳	-11.6672
洪謨	-11.6673
八十五篇	-11.6673
張栻	-11.6674
蓮花	-11.6675
示予	-11.6675
橅刻	-11.6675
呉澄	-11.6675
辨一篇存	-11.6676
伊訓	-11.6677
元和五年	-11.6678
叔堅	-11.6678
保傅	-11.6679
宛平	-11.668
浦城人	-11.6681
康熙	-11.6681
十八冊	-11.6682
帖此帖	-11.6682
予觀	-11.6684
右布政使	-11.6685
洽聞	-11.6686
畧同	-11.6686
衛籍	-11.6686
衛恒	-11.6686
體要	-11.6687
易有太極	-11.6687
薛收	-11.6689
三輔	-11.6689
蔡襄	-11.669
秦誓	-11.6692
間嘗	-11.6693
阮氏	-11.6694
福清	-11.6694
江陰	-11.6696
燕公	-11.6699
嵗乆	-11.6699
建炎初	-11.67
士毅	-11.67
金碧	-11.6702
也然而	-11.6703
不分卷	-11.6703
徳裕	-11.6704
絶倫	-11.6706
流落	-11.6708
行書開元	-11.671
謫居	-11.6711
孫男	-11.6711
入翰林	-11.6713
解一卷存	-11.6713
整齊	-11.6713
刪改	-11.6713
天下萬世	-11.6715
石經大學	-11.6716
華陰	-11.6718
伊川先生	-11.6719
黄巖	-11.672
王惲	-11.6724
設教	-11.6725
告身	-11.6726
謬妄	-11.6726
𤣥孫	-11.6726
千有餘	-11.6726
邦彦	-11.6727
圖説一卷	-11.673
夏后	-11.673
孔聖	-11.6731
仲冬	-11.6732
洞極	-11.6733
廷臣	-11.6747
鄧氏	-11.675
深於春秋	-11.675
溫公	-11.6752
豈知	-11.6753
才老	-11.6754
封丘	-11.6755
黄鍾	-11.6755
未審	-11.6755
開成四年	-11.6763
今其書	-11.6768
好竒	-11.6769
三十卷右皇朝	-11.677
七月立	-11.6773
白日	-11.6774
究心	-11.6782
貞元十四年	-11.6789
每篇	-11.6789
了然	-11.679
紀功碑	-11.679
一無此	-11.6795
異辭	-11.6798
光顔	-11.6799
雲臺	-11.68
顔師古曰	-11.6801
圖籍	-11.6802
澤卿	-11.6803
州總管	-11.6806
延光	-11.6807
家貧	-11.6809
兾州	-11.6815
荘子	-11.6818
大圭	-11.682
秦氏	-11.6822
失眞	-11.6822
講易	-11.6822
唐㑹要	-11.6825
中庸説	-11.6826
子男	-11.6827
者莫如	-11.6829
否則	-11.6833
十餘篇	-11.6836
不能得	-11.6838
亦未必	-11.6838
宜興人	-11.6839
斷續	-11.6843
六經之道	-11.6843
掇其	-11.6845
已磨滅	-11.6845
鐫刻	-11.6851
魯頌	-11.6851
陸深	-11.6854
二卷右唐	-11.6855
是嵗	-11.6855
大業初州廢	-11.6862
惠帝	-11.6864
唐書列傳	-11.6864
今所傳	-11.6865
分合	-11.6867
風氣	-11.6868
諸印	-11.6869
羲之頓首	-11.687
元和六年	-11.6871
繆泳曰	-11.6871
彦逺	-11.6873
詳略	-11.6873
集二卷又	-11.6873
平生所	-11.6873
曲折	-11.6876
思齊	-11.6876
北面	-11.6881
橋梁	-11.6886
恵王	-11.6888
則知此	-11.6893
縱逸	-11.6894
儒生	-11.6896
宣城人	-11.6896
原本脱	-11.6896
什一	-11.6898
精深	-11.6904
詩集二卷	-11.6905
州里	-11.6905
夏商周	-11.6906
舊章	-11.6916
異哉	-11.6925
斯民	-11.6928
四書通	-11.693
碑𨽻額	-11.6936
之數也	-11.6938
私諡	-11.6938
相對	-11.6939
李維	-11.6941
夫子之言	-11.6946
新安人	-11.6949
詩亡	-11.6951
召拜	-11.6957
之徒皆	-11.6959
黎陽	-11.6959
未安者	-11.696
坊記	-11.696
科舉之	-11.6964
姓名闕	-11.6964
大尉	-11.6965
雲門	-11.697
不害	-11.697
愚按	-11.6973
金鄉	-11.6974
固多	-11.6977
興祖	-11.6978
儒家	-11.6983
子輿	-11.6989
同里	-11.6992
渾然	-11.7005
襄城	-11.7009
其所書	-11.7011
劉知幾	-11.7015
丹徒	-11.7016
五年正月	-11.702
乾封	-11.7022
詳明	-11.7024
圖一巻	-11.7026
所習	-11.703
祠下	-11.7032
五臟	-11.7037
春秋集解	-11.7038
數月	-11.7042
尤長	-11.7043
少保諡	-11.7043
昭武	-11.7046
貞觀政要	-11.7047
尼父	-11.7047
偽帖	-11.7048
梨	-11.7051
臘	-11.7052
一部九冊	-11.7052
纉	-11.7053
無餘藴	-11.7054
趙崡	-11.7054
藏用	-11.7056
宣教郎	-11.7056
線	-11.7057
非所以	-11.7057
讞	-11.7057
氛	-11.7057
熊朋來	-11.7057
宋志五卷佚	-11.7057
騏	-11.7058
右不題撰人	-11.7058
彀	-11.7059
晉江黄虞稷撰	-11.7059
爼	-11.7059
慈溪	-11.706
叅知政事	-11.706
針	-11.706
金壇	-11.7061
攽	-11.7061
儀禮經傳通解	-11.7061
天章閣待制	-11.7061
檇李	-11.7061
苴	-11.7062
宰相世系表	-11.7062
槖	-11.7062
伏羲畫卦	-11.7062
弓矢	-11.7063
公孫丑	-11.7063
恍	-11.7063
魏文侯	-11.7063
𬒳	-11.7063
尙	-11.7064
白樂天	-11.7064
蹊	-11.7064
逞	-11.7064
宸翰	-11.7065
偏傍	-11.7065
五官中郎將	-11.7065
其先出自	-11.7065
司隷從事	-11.7065
尊勝陀羅尼	-11.7065
巘	-11.7065
挍勘	-11.7065
断	-11.7065
烱	-11.7066
裴耀卿	-11.7066
狄梁公	-11.7066
溧水	-11.7066
珏	-11.7066
娛	-11.7066
蕪湖	-11.7067
范仲淹	-11.7067
駉	-11.7067
夥	-11.7067
勸農	-11.7068
沼	-11.7068
蕡	-11.7068
檻	-11.7068
今在西安府儒學	-11.7068
秦火之後	-11.7068
慷慨	-11.7069
大經大法	-11.7069
縛	-11.707
文淵閣大學士	-11.707
府志二冊	-11.707
大雲寺	-11.707
裴度	-11.707
筆陣圖	-11.707
癡	-11.707
莘老	-11.7071
故功曹史	-11.7071
氓	-11.7071
汲汲	-11.7071
稻	-11.7072
簫	-11.7072
范蠡	-11.7072
繙	-11.7072
緡	-11.7073
宣和書譜	-11.7073
擿	-11.7073
控	-11.7073
顛倒	-11.7073
圮	-11.7074
忉	-11.7074
張庭珪	-11.7074
匀	-11.7074
副元帥	-11.7074
延陵季子	-11.7074
殯	-11.7074
思無邪	-11.7074
楊用修	-11.7075
稠	-11.7075
宋均注	-11.7075
郗愔	-11.7076
蹲	-11.7076
憎	-11.7076
班班	-11.7076
尤袤	-11.7077
侣	-11.7077
元第九百	-11.7077
𨗳	-11.7078
嘗聞	-11.7078
堆	-11.7078
亭侯臣	-11.7079
呉縣人	-11.7081
施宿	-11.7081
廹	-11.7081
道統	-11.7082
占候	-11.7082
厠	-11.7082
昩	-11.7083
阮孝緒	-11.7083
又次之	-11.7083
履祥	-11.7084
太妃	-11.7084
歸妹	-11.7084
臆說	-11.7085
端拱	-11.7085
其大略	-11.7085
琳琅	-11.7086
宛陵	-11.7087
陳士元	-11.7087
直秘閣	-11.7087
司徒掾	-11.7088
收拾	-11.7088
墓側	-11.7088
博洽	-11.7089
尚書僕射	-11.709
豈止	-11.7091
文林郎	-11.7091
尚書侍郎	-11.7093
純乎	-11.7093
眞跡	-11.7093
莫先於	-11.7093
别集類	-11.7094
購求	-11.7095
不知誰	-11.7095
禇河南	-11.7096
李勣	-11.7098
隂符	-11.7098
孝經論語	-11.7099
雖亡	-11.7099
疾患	-11.71
毛作	-11.7102
南陽太守	-11.7103
氣候	-11.7104
尚書大傳	-11.7104
墓志銘	-11.7105
刑統	-11.7106
鄭氏注	-11.7106
震澤	-11.7109
不如是	-11.711
立教	-11.7111
儀鳳	-11.7112
微旨	-11.7112
濳心	-11.7114
後代	-11.7117
縣尹	-11.7117
數十家	-11.7118
大事記	-11.7119
内翰	-11.7122
犍為	-11.7122
諭徳	-11.7124
六部	-11.7124
靖難	-11.7126
王珪	-11.7127
㕘軍	-11.7129
夷陵	-11.713
景君碑	-11.713
孺子	-11.713
胡旦	-11.7131
有如此者	-11.7132
謹嚴	-11.7132
集四卷又	-11.7132
集右軍書	-11.7133
史晨	-11.7136
證據	-11.7139
昆弟	-11.714
李嶠	-11.7142
挍定	-11.7145
唐贈太尉	-11.7146
六年十月	-11.7147
乎雖然	-11.715
成帝時	-11.7151
管仲	-11.7156
從來	-11.7156
開元二十九年	-11.7157
集中有	-11.7158
二十一字	-11.716
距今	-11.7163
贈太子太保	-11.7163
以經術	-11.7166
月十日	-11.7167
龍池	-11.7168
前軰	-11.7169
五嶽	-11.717
永福	-11.7175
不揣	-11.7177
蔣氏	-11.7178
九族	-11.7181
科目	-11.7184
升堂	-11.7186
二三子	-11.7191
兩京	-11.7192
其本末	-11.7193
寳慶	-11.7194
音律	-11.7197
裒集	-11.7198
上下二篇	-11.7198
濟北	-11.7199
故以名	-11.7201
三昧	-11.7201
文并書	-11.7202
近嵗	-11.7204
列于	-11.7207
以薦授	-11.7208
思敬	-11.7209
江隂人	-11.721
鄉薦	-11.7211
湯氏	-11.7212
張溥	-11.7212
兩端	-11.7213
未見繆泳曰	-11.7213
公輔	-11.7214
封建	-11.7216
五世孫	-11.7221
入室	-11.7222
李邕書	-11.7222
衡陽	-11.7223
張長史	-11.7229
辛丑進士	-11.7231
晁氏曰	-11.7232
四種	-11.7232
伏羲氏	-11.7234
諸家之說	-11.7234
五十一卷	-11.7236
隋志一卷	-11.7236
鄒魯	-11.7238
庠序	-11.724
固不可	-11.7241
増多	-11.7242
之為書	-11.7243
玉泉	-11.7246
留心	-11.7247
魯峻	-11.7248
淳安	-11.7249
三年十二月	-11.7253
北地	-11.7254
承詔	-11.7255
三年八月	-11.7255
不踰	-11.7258
下筆	-11.7258
予聞	-11.7264
而後可	-11.7266
年代	-11.727
宣帝時	-11.727
栁州	-11.7271
小戴禮	-11.7277
以下皆	-11.7278
上半	-11.7278
雍正	-11.728
友善	-11.7282
延熹七年	-11.7283
子駿	-11.7285
未見張氏	-11.7287
嘉善	-11.7292
執筆	-11.7293
祭法	-11.7295
劄記	-11.7296
大厯十四年	-11.7297
鼎臣	-11.7297
江山	-11.7298
邪説	-11.7299
首篇	-11.7303
以是為	-11.7304
二百一十	-11.7309
未可以	-11.7309
蕭何	-11.7318
水陸	-11.732
四十三卷	-11.7327
問對	-11.733
總類	-11.7331
為之解	-11.7333
日夜	-11.7337
浦城	-11.7339
玄孫	-11.7342
咸亨元年	-11.7345
遂廢	-11.7345
第二卷	-11.7347
雅樂	-11.7353
精勁	-11.7359
休復	-11.7363
自序曰予	-11.7363
山房集	-11.7372
學者稱為	-11.7374
六位	-11.7374
清虚	-11.7375
崇禎中	-11.7376
龍興寺碑	-11.7384
西安府學	-11.7386
而一之	-11.7388
篇端	-11.7394
九宫	-11.7397
萬象	-11.7397
諸郡	-11.7397
天文志	-11.7398
清和	-11.7399
六十餘	-11.7402
叔父	-11.7403
朝士	-11.7404
利用	-11.7406
六册	-11.7412
仲景	-11.7414
不拘	-11.7415
孟卿	-11.742
月二十四日	-11.7424
抑又	-11.7425
髙安	-11.7426
少從	-11.7427
歐陽公謂	-11.7429
龍朔三年	-11.7431
大司空	-11.7431
不泯	-11.7434
二十二篇	-11.7439
唐書藝文志	-11.7447
希元	-11.7454
涇陽	-11.7455
制圖次	-11.7461
六十年	-11.7462
大觀作	-11.747
王逸少	-11.7473
設官	-11.7474
稹	-11.7477
豚	-11.7479
噬嗑	-11.7482
建中二年	-11.7482
典章	-11.7483
鼇	-11.7483
饌	-11.7483
然亦有	-11.7486
屯䝉	-11.7487
驂	-11.7487
啖助	-11.7489
畊	-11.7491
垓	-11.7492
箱	-11.7493
畤	-11.7493
餗	-11.7493
蟬	-11.7493
莅	-11.7494
葦	-11.7494
吕大臨	-11.7494
笏	-11.7494
博考	-11.7495
績溪人	-11.7495
邵堯夫	-11.7495
无妄	-11.7495
浣	-11.7495
鏐	-11.7496
隗	-11.7496
蘩	-11.7496
程鉅夫	-11.7496
贑	-11.7496
篆額二行	-11.7497
攀龍	-11.7497
珊瑚	-11.7497
笠	-11.7497
􁃟	-11.7497
鞭	-11.7497
清德頌	-11.7498
嬪	-11.7498
斆	-11.7498
兵部右侍郎	-11.7498
拱辰	-11.7498
八陣圖	-11.7498
華陽國志	-11.7498
摠	-11.7498
竒耦	-11.7498
珩	-11.7498
穆天子傳	-11.7498
儒學訓導	-11.7499
祁門	-11.7499
㴻	-11.7499
暌	-11.7499
卬	-11.7499
百石卒史	-11.7499
歴代帝王	-11.75
拆	-11.75
孜孜	-11.75
河汾	-11.7501
硬	-11.7501
芹	-11.7501
清濁	-11.7501
偓	-11.7501
畸	-11.7501
剽	-11.7501
渥	-11.7502
滙	-11.7502
遮	-11.7502
關子明	-11.7502
龍圖閣學士	-11.7502
粒	-11.7502
張嘉貞	-11.7502
吐蕃	-11.7502
耘	-11.7502
艷	-11.7502
裴松之	-11.7503
譌謬	-11.7503
涖	-11.7504
李儼撰	-11.7504
童子問	-11.7504
百世之下	-11.7504
晁錯	-11.7504
堰	-11.7504
晤	-11.7504
閉門	-11.7504
賜紫金魚袋	-11.7504
闚	-11.7504
粥	-11.7504
衘	-11.7504
探索	-11.7504
鑠	-11.7504
鄭覃	-11.7504
泝	-11.7505
逢辰	-11.7505
欹	-11.7505
幄	-11.7505
儒學教諭	-11.7505
椎	-11.7505
文簡公	-11.7506
為一類	-11.7506
一部一百	-11.7506
州天寳元年曰	-11.7507
昴	-11.7507
瀟	-11.7507
巡狩	-11.7507
網羅	-11.7508
劉向别録	-11.7508
斁	-11.7508
儀禮注	-11.7508
翰林修撰	-11.7508
大理寺卿	-11.7509
雎	-11.7509
左布政使	-11.7509
舉孝㢘	-11.7509
太常丞	-11.7509
薛紹彭	-11.7509
元第四百	-11.7509
高郵	-11.7509
筑	-11.751
閹	-11.751
隋志三卷佚	-11.751
棲霞	-11.7511
旡	-11.7511
塲屋	-11.7511
滑稽	-11.7512
府學訓導	-11.7512
兵部郎中	-11.7512
繩墨	-11.7513
寢疾	-11.7513
房琯	-11.7513
摩滅	-11.7513
施釋	-11.7514
夏后氏	-11.7514
璇	-11.7514
凑	-11.7514
澥	-11.7515
䕶持	-11.7515
正書無書	-11.7515
李善注	-11.7515
酣	-11.7515
蘇東坡	-11.7516
株	-11.7516
明堂位	-11.7516
胡証	-11.7517
王㽒	-11.7517
無書撰人名氏	-11.7517
評者謂	-11.7517
肝	-11.7517
石像記	-11.7518
太冲	-11.7518
頴達	-11.7519
义	-11.752
天寳元年	-11.752
永㤗	-11.7521
耆年	-11.7521
鈎𤣥	-11.7521
稍稍	-11.7521
程頥	-11.7521
鄭司農	-11.7522
汝礪	-11.7522
四百年	-11.7523
梁恵王	-11.7528
墳典	-11.7529
職掌	-11.753
貞元九年	-11.7532
斷裂	-11.7533
薛曜	-11.7535
中央	-11.7536
夏六月	-11.7537
字缺部	-11.7537
艱深	-11.7537
兩廡	-11.7537
贈吏部尚書	-11.7539
固陋	-11.7539
王圻	-11.7541
作者之意	-11.7541
王劭	-11.7544
逡遁	-11.7545
王廙	-11.7545
百官志	-11.7548
共五十	-11.7549
潞州	-11.7552
茂陵	-11.7552
緒餘	-11.7553
未㡬	-11.7554
錯雜	-11.7554
南渡後	-11.7555
伐燕	-11.7556
永樂間	-11.7556
厥功	-11.7557
官吏	-11.7557
博古圖	-11.7557
曉然	-11.7559
朱子嘗	-11.7561
唐文粹	-11.7561
大畜	-11.7563
元結撰	-11.7563
未可知也	-11.7565
金郷	-11.7565
日就	-11.7568
萬户	-11.757
興衰	-11.757
敏求	-11.7571
俱非又	-11.7572
受易於	-11.7574
其行事	-11.7575
父諱	-11.7575
禪林	-11.7578
變風	-11.7578
合璧	-11.758
圖一卷佚	-11.7581
前部	-11.7583
學博士	-11.7583
許謙	-11.7586
廬江	-11.7586
嗣位	-11.7588
熙寧中	-11.7589
國子監生	-11.759
稚子	-11.759
重熙	-11.7591
流布	-11.7592
祖禹	-11.7593
嵩陽觀	-11.7593
竊疑	-11.7594
大戴記	-11.7595
太室	-11.7597
所不載	-11.7597
者何也	-11.7602
夢龍	-11.7609
各以其	-11.761
遺稿二卷	-11.7612
紹聖中	-11.7616
苦心	-11.7616
如日月	-11.7616
七十餘	-11.7618
商頌	-11.7618
并篆額	-11.7619
麗水人	-11.7623
口耳	-11.7623
再遷	-11.7625
無咎	-11.7626
丨丨丨丨	-11.7627
補註	-11.7627
青城	-11.7628
没於	-11.7629
良工	-11.7631
有得焉	-11.7633
講授	-11.7634
堯夫	-11.7636
宰臣	-11.7637
汲縣	-11.7639
雜取	-11.7641
周密	-11.7641
重脩	-11.7641
記其事	-11.7644
暮年	-11.7647
王涯	-11.7647
粹言	-11.765
九年立	-11.7651
余所見	-11.7652
景純	-11.7652
政治	-11.7655
梁肅	-11.7658
府志一冊	-11.7659
圖說一卷	-11.766
光禄寺	-11.7661
題其後	-11.7667
所藏本	-11.7668
春三月	-11.7671
讀是書	-11.7673
佳本	-11.7673
翰林編修	-11.7674
精良	-11.7675
開元二十七年	-11.7677
而廣之	-11.7684
詞林	-11.769
𤣥度	-11.769
鍾㑹	-11.7691
其詮	-11.7693
建寧二年	-11.7699
見於世	-11.7703
新建人	-11.7707
易義佚	-11.7714
名醫	-11.7716
儒士	-11.772
永興軍	-11.7722
登科記	-11.7723
徴拜	-11.7723
王者之	-11.7724
漆書	-11.7724
集十卷右唐	-11.7725
金臺	-11.7727
數十人	-11.7736
大厯六年	-11.7738
運使	-11.7739
奏草	-11.774
賜名	-11.774
定位	-11.7741
是否	-11.7745
六十六卷	-11.7753
二百年	-11.7753
成均	-11.7753
五岳	-11.7759
詩話一卷	-11.7763
可否	-11.7764
朱子之意	-11.7767
造次	-11.7772
疑難	-11.7777
臨安府	-11.7779
左遷	-11.7791
繆公	-11.7796
果何	-11.78
以發其	-11.7801
耶抑	-11.7801
不復可	-11.7814
公綽	-11.7814
外孫	-11.7815
幸存	-11.7815
二百四十二年之	-11.7816
不止於	-11.7821
附入	-11.7823
七里	-11.7823
叔夜	-11.7824
四年二月	-11.7828
許敬宗	-11.7837
佚王應麟曰	-11.784
□□□	-11.7847
未能盡	-11.7851
有意於	-11.7853
曾不	-11.786
卷十五	-11.7864
先生之書	-11.7866
卒諡	-11.7867
不得已而	-11.7867
一千一百	-11.7872
乾元元年	-11.7884
甚工	-11.7885
賜姓	-11.7885
石刻鋪叙	-11.7888
東湖	-11.7897
益信	-11.7897
山谷云	-11.791
貞元五年	-11.791
不曉	-11.7923
少林寺碑	-11.7927
燦	-11.7931
廕	-11.7937
汪克寛	-11.794
月二十五日	-11.7941
聶崇義	-11.7942
房𤣥齡	-11.7944
慈恩	-11.7944
改月	-11.7944
謟	-11.7944
𠂻	-11.7945
翰林院侍講學士	-11.7945
番禺	-11.7945
出新意	-11.7946
宋以來	-11.7947
畋	-11.7947
堡	-11.7947
存黄虞稷曰	-11.7947
其所得	-11.7947
漕運	-11.7948
薈	-11.7948
鞅	-11.7948
崇徳人	-11.7949
太僕寺少卿	-11.795
笈	-11.795
泣血	-11.795
孟頫	-11.795
光禄勲	-11.7951
岳珂	-11.7951
黄岩人	-11.7951
李商隠	-11.7951
朓	-11.7951
宋洪适撰	-11.7951
籬	-11.7952
麻衣	-11.7952
芥	-11.7952
施孟梁丘	-11.7952
皇帝陛下	-11.7952
立於學官	-11.7952
右未詳撰人	-11.7953
鄔	-11.7953
佚隋書	-11.7954
塊	-11.7954
檢閲	-11.7954
胷	-11.7954
吉日癸巳	-11.7954
東都事畧	-11.7954
餌	-11.7954
閩縣	-11.7954
殽阬君神祠碑	-11.7955
袤	-11.7955
跌	-11.7955
聦	-11.7955
謔	-11.7955
多所發明	-11.7955
者甚衆	-11.7956
歇	-11.7956
餞	-11.7956
袪	-11.7956
塢	-11.7956
佺	-11.7956
袠	-11.7957
諸葛亮	-11.7957
諝	-11.7957
舂陵	-11.7957
模勒上石	-11.7957
天璽元年	-11.7957
館學士	-11.7957
光祿大夫	-11.7958
未央	-11.7958
格物致知	-11.7958
蘆	-11.7958
鳥獸草木	-11.7958
緬	-11.7958
楊震碑	-11.7959
崔湜	-11.7959
豪傑	-11.7959
嵬	-11.7959
齎	-11.7959
飲酒	-11.7959
酇	-11.7959
闡幽	-11.796
粮	-11.796
㽜	-11.796
殞	-11.796
蕫	-11.7961
鄭絪	-11.7961
袵	-11.7961
皷	-11.7961
宕	-11.7961
嶸	-11.7961
㕔壁記	-11.7961
廣川書䟦	-11.7961
楠	-11.7962
諛	-11.7962
隆慶辛未進士	-11.7962
隤	-11.7962
濂洛	-11.7962
先天後天	-11.7963
庖犧氏	-11.7963
舉子業	-11.7963
摩㓕	-11.7963
三百餘	-11.7963
岣嶁	-11.7964
矛盾	-11.7964
涒灘	-11.7964
豔	-11.7964
伯喈	-11.7964
豎	-11.7965
祕書郎	-11.7965
邇英	-11.7965
㽔	-11.7966
謩	-11.7966
蠻夷	-11.7966
雲麾將軍	-11.7966
葩	-11.7967
繋辭	-11.7967
臨卭	-11.7967
俘	-11.7968
一部十六冊	-11.7969
䧺	-11.7969
亊	-11.7969
春秋外傳國語	-11.7969
虞稷	-11.797
孔子廟堂碑	-11.797
拙齋	-11.797
諷誦	-11.7971
永和九年	-11.7972
譬諸	-11.7975
假託	-11.7975
陳摶	-11.7975
夏竦	-11.7975
秋九月	-11.7976
深於易	-11.7976
悠悠	-11.7977
宣慰	-11.7978
詩集八卷	-11.7979
㫖要	-11.7979
可寳也	-11.798
臯陶	-11.798
壬辰進士	-11.798
傳于世	-11.7981
開元八年	-11.7981
寶祐	-11.7983
李清臣	-11.7984
動静	-11.7986
孔廟碑	-11.7988
姓苑	-11.7989
參錯	-11.7991
率多	-11.7991
盟㑹	-11.7991
一洗	-11.7992
散見於	-11.7992
沙河	-11.7993
禮記正義	-11.7994
撰并篆	-11.7994
浮丘	-11.7994
博採	-11.7994
以言乎	-11.7995
莫知所	-11.7998
千載之後	-11.8002
太𤣥經注	-11.8002
篋中	-11.8003
古文苑	-11.8004
淮西	-11.8005
隸釋	-11.8005
司諫	-11.8005
厥土	-11.8006
地里志	-11.8007
北斗	-11.8007
卒於官	-11.801
嶧山碑	-11.8011
四書講義	-11.8011
楊億	-11.8012
華嚴經	-11.8013
内外篇	-11.8013
千餘人	-11.8015
元載撰	-11.8015
六寸	-11.8016
石刻鋪叙云	-11.8019
不得見	-11.802
從姪	-11.8024
釋文序録	-11.8026
備要	-11.8026
天子之事	-11.8027
東臯	-11.8027
而碑作	-11.8035
昌期	-11.8035
隂苐一百	-11.8036
典刑	-11.8036
仁壽	-11.8036
閬中	-11.8037
丹徒人	-11.8042
黄諫	-11.8044
儒宗	-11.8044
老子銘	-11.8046
二十七日	-11.8046
不屈	-11.8047
徐堅	-11.805
麟德	-11.805
六爻之	-11.805
文宣王廟碑	-11.8058
煥然	-11.8058
石幢記	-11.806
不復存	-11.806
章貢	-11.8061
掾史	-11.8061
吾衍	-11.8062
清江人	-11.8063
題跋	-11.8066
韋編	-11.8068
微妙	-11.8071
得一本	-11.8071
天寶元年	-11.8073
得免	-11.8074
撰并書月	-11.8075
無罪	-11.8077
瑩中	-11.8078
板本作	-11.808
李筌	-11.8082
王粲	-11.8083
遺墨	-11.8084
十四冊	-11.8087
分野	-11.8091
精博	-11.8092
末流	-11.8094
緒論	-11.8097
萬一千	-11.8097
開化	-11.8098
定哀	-11.8098
二百四十二年	-11.8103
開元六年	-11.8111
字缺右	-11.8116
葉夢得曰	-11.8117
解頥	-11.8117
標注	-11.8118
鄉賢	-11.8123
四十四卷	-11.8125
彭氏	-11.8125
州同知	-11.8127
從兄	-11.813
衆說	-11.8133
軍司馬	-11.8135
南雍	-11.8145
長沙王	-11.8147
開元二十八年	-11.8155
東征	-11.8156
説者謂	-11.8156
占驗	-11.816
大厯七年	-11.817
孟子說	-11.8171
泰始	-11.8172
政教	-11.8172
属文	-11.8174
天覺	-11.8175
侍從	-11.8175
秘訣	-11.8177
體仁	-11.8179
兼侍讀	-11.8181
儼然	-11.8184
齊魯韓	-11.8185
所以作也	-11.8187
都督府	-11.819
譯經	-11.8196
金石錄卷苐	-11.8196
聖人之志	-11.8197
朝邑	-11.8198
類纂	-11.8212
一千二百	-11.8221
吾儒	-11.8222
矣又按	-11.8231
大學章句	-11.8239
可怪	-11.8241
于志寧	-11.8241
首句	-11.8261
傷寒論	-11.8264
崇尚	-11.8266
所無者	-11.8268
成一家言	-11.8269
紹聖四年	-11.827
廢興	-11.827
武威	-11.8271
開元二十三年	-11.8274
輔氏	-11.8286
廬州	-11.8289
未完	-11.8298
秘要	-11.8299
永徽中	-11.83
釋文一卷	-11.8316
奏議四卷	-11.8322
眉州	-11.8335
愚嘗	-11.8343
入仕	-11.8346
我皇	-11.8348
汾州	-11.8352
紹興五年	-11.8353
陸雲	-11.8356
五十四卷	-11.8361
史惟則八分書	-11.8364
無名碑	-11.8369
勒成	-11.8374
開元七年	-11.8375
經旨	-11.838
鏊	-11.8382
顧炎武	-11.8383
勣	-11.8387
未獲	-11.8388
郝敬	-11.8389
梁鵠	-11.8389
鼎祚	-11.8395
劉君碑	-11.8411
亦不載	-11.8415
澍	-11.8415
菀	-11.8417
菅	-11.8417
遑	-11.8418
卷六十	-11.8418
正議大夫	-11.8418
堯舜禹湯文武	-11.8418
磁	-11.8418
姉	-11.8419
媵	-11.842
璫	-11.842
宋志三卷	-11.8421
跳	-11.8422
右春坊	-11.8422
趯	-11.8422
宋陳思撰	-11.8422
張舜民	-11.8422
文苑英華	-11.8423
伷	-11.8423
樣	-11.8424
書録解題	-11.8425
甕	-11.8426
嘏	-11.8426
金溪人	-11.8427
藜	-11.8427
一以貫之	-11.8427
太僕少卿	-11.8428
魏正始中	-11.8428
羿	-11.8429
蘧	-11.8429
其文辭	-11.8429
㒺	-11.8429
州圖志二冊	-11.8429
焱	-11.8429
臥	-11.843
淫奔	-11.843
范文正	-11.843
中興藝文志	-11.843
孫明復	-11.8431
去古未逺	-11.8431
磨㓕	-11.8431
搃	-11.8431
工部主事	-11.8431
直學士院	-11.8432
汝楳	-11.8432
枳	-11.8432
不知為何人	-11.8432
王稚子闕	-11.8432
起居舍人	-11.8433
㦯	-11.8433
賈似道	-11.8433
劉三吾	-11.8433
􁶜	-11.8433
緘	-11.8433
兇	-11.8434
蘋	-11.8434
舊列卷三第	-11.8434
簋	-11.8434
筋骨	-11.8434
乹	-11.8434
供養	-11.8435
諸書皆	-11.8435
陸徳明音義	-11.8435
炭	-11.8435
硏	-11.8436
盜賊	-11.8436
赫赫	-11.8436
驩	-11.8436
國史志	-11.8436
麒麟	-11.8437
罵	-11.8437
執金吾	-11.8437
梗	-11.8438
陳繼儒	-11.8438
喟	-11.8438
萬八千	-11.8438
劉勰	-11.8438
沽	-11.8438
楽	-11.8438
件	-11.8439
扃	-11.8439
珦	-11.8439
暈	-11.8439
仔	-11.8439
鍾紹京	-11.8439
薄紹之	-11.8439
嗚呼哀哉	-11.8439
䜟緯	-11.8439
董其昌	-11.8439
惋	-11.8439
倕	-11.8439
鶉	-11.844
何啻	-11.844
悍	-11.844
聖人作經	-11.844
譴	-11.844
棟宇	-11.844
劉軻撰	-11.8441
汲冡	-11.8441
元第八百	-11.8441
千有餘年	-11.8441
採摭	-11.8441
昭仁寺碑	-11.8441
棋	-11.8441
開元五年	-11.8441
嵌	-11.8442
繁陽令楊君	-11.8442
綘	-11.8442
曾鞏	-11.8442
后妃	-11.8443
玉帛	-11.8443
天地定位	-11.8444
君子小人	-11.8444
菲	-11.8444
帯	-11.8444
銕	-11.8445
府學教授	-11.8445
灘	-11.8447
舉於鄉	-11.8447
陸贄	-11.8447
庵先生	-11.8447
范曄	-11.8448
未之有也	-11.8448
旧史	-11.8448
賜進士第	-11.8448
梁元帝	-11.8448
九成宫	-11.8448
連珠	-11.8449
閭里	-11.8449
玩味	-11.8449
衿	-11.8449
秋壑	-11.8449
烹	-11.845
承乏	-11.8453
西掖	-11.8453
浚儀	-11.8455
循環	-11.8455
諫議	-11.8455
黔首	-11.8456
備考	-11.8456
孝經刋誤	-11.8456
據文獻通攷補入	-11.8457
盧植	-11.8458
不可勝數	-11.8459
濃	-11.846
歐陽脩	-11.846
得其實	-11.8461
殊不類	-11.8461
茶陵	-11.8461
佚右見	-11.8462
少詹事	-11.8462
府君墓誌	-11.8462
譜牒	-11.8462
鬼谷子	-11.8462
公孫𢎞	-11.8463
祝穆	-11.8464
嘉熙	-11.8465
投龍	-11.8465
師曠	-11.8466
紙色	-11.8466
廖氏	-11.8466
茂才	-11.8466
一區	-11.8467
州學正	-11.8467
在其中矣	-11.8468
郝敬曰	-11.8469
㑹萃	-11.8469
董鼎	-11.8471
無一言	-11.8472
正徳中	-11.8472
石澗	-11.8473
開化人	-11.8474
祠宇	-11.8475
孝宣	-11.8475
廷試	-11.8475
曾子問	-11.8476
常住	-11.8477
開闢	-11.8478
元趙孟頫	-11.8479
中書郎	-11.848
谷口	-11.848
諸暨人	-11.848
無所不通	-11.8481
咸恒	-11.8482
王勃	-11.8482
亭林	-11.8483
案唐書藝文志	-11.8484
英雄	-11.8486
繇辭	-11.8486
専門	-11.8488
顧瞻	-11.8489
開皇六年	-11.8491
太和九年	-11.8491
成湯	-11.8492
禮部員外郎	-11.8493
難曉	-11.8495
手寫	-11.8499
田敏	-11.8499
早卒	-11.8502
慎微	-11.8503
落筆	-11.8503
荆門	-11.8504
之力也	-11.8505
如之何	-11.8506
食邑	-11.8507
灼然	-11.8508
王珣	-11.8509
莊嚴	-11.8513
學徒	-11.8513
節婦	-11.8513
朱震	-11.8514
題䟦	-11.8517
鄭箋	-11.8518
確論	-11.8521
孟夏	-11.8523
先輩	-11.8525
黎民	-11.8526
王禕	-11.8526
法華寺	-11.8526
取舎	-11.8527
聲律	-11.8527
羲之白	-11.8527
咸通中	-11.8529
歴代史	-11.8531
數千年	-11.8533
言行錄	-11.8539
南征	-11.8542
永興元年	-11.8543
喻義	-11.8553
山房稿	-11.856
在少林寺	-11.8567
魏徴	-11.8567
太虚	-11.8572
縣知縣	-11.8576
三十九卷	-11.8576
熹平二年	-11.8577
曲直	-11.858
季路	-11.8583
春二月	-11.8584
附於後	-11.8584
魏了翁曰	-11.8585
集二十八卷	-11.8586
禇遂良書	-11.8587
二程先生	-11.8595
簡嚴	-11.8596
雜亂	-11.8597
不知何人所	-11.8597
一卷無名氏	-11.8607
米氏	-11.8608
二十里	-11.861
不揆	-11.8614
莫敢	-11.862
印無考	-11.8623
無所用	-11.8626
十二卷右皇朝	-11.8628
鄉舉	-11.8628
亦不過	-11.8634
水土	-11.8638
譌作	-11.8642
繫辭注	-11.8644
借觀	-11.8646
昭穆	-11.8648
五言詩	-11.8652
三墳書	-11.8655
寡矣	-11.8667
精好	-11.8674
歙縣	-11.8675
學易記	-11.8679
副本	-11.8687
記憶	-11.8688
遺失	-11.8696
天地之道	-11.8698
後昆	-11.8699
郭璞注	-11.8708
元和十四年	-11.8711
上下篇	-11.8718
數術	-11.8719
好異	-11.8737
所不取	-11.8772
其篇目	-11.8776
修孔子廟	-11.8794
文宣王廟	-11.8796
忠愍	-11.8812
江寜	-11.8817
補遺一卷	-11.8818
一毫	-11.8821
功封	-11.8821
縣志一冊	-11.8821
州府同知	-11.8821
歐陽修曰	-11.8834
江寧人	-11.8838
興國寺碑	-11.8845
希賢	-11.8854
時所作	-11.8859
麗水	-11.8864
謁廟	-11.8865
熹平三年	-11.8868
數種	-11.8871
案唐書藝文	-11.8885
孟蜀	-11.8886
所著有易	-11.8889
開元帝	-11.8896
茂叔	-11.8899
聖㫖	-11.8906
𨽻續	-11.8907
進賢人	-11.8909
集十卷右皇朝	-11.8913
鄧州	-11.8913
孛	-11.8915
堇	-11.8916
輟耕録	-11.8916
匆	-11.8916
萬厯癸未進士	-11.8917
縣西南	-11.8917
祫	-11.8919
引而伸之	-11.8919
翰林院檢討	-11.892
勳	-11.892
劓	-11.892
鄜	-11.8921
户部侍郎	-11.8921
趙秉文	-11.8921
瘠	-11.8922
嘉靖丁未進士	-11.8923
藎	-11.8923
眭	-11.8924
樽	-11.8924
淶	-11.8925
開元十七年	-11.8925
躔	-11.8925
卻	-11.8925
廣大悉備	-11.8925
鄙俚	-11.8925
巵	-11.8926
矇	-11.8926
宋志三十卷佚	-11.8926
顧起元	-11.8926
南鄉太守	-11.8927
擔	-11.8927
趙子函	-11.8927
七錄十卷佚	-11.8927
彗	-11.8927
承務郎	-11.8927
蕳	-11.8928
路總管	-11.8928
嵇	-11.8928
集賢學士	-11.8928
授經圖	-11.8928
肘	-11.8928
􁨾	-11.8929
欽定四庫全書金薤琳琅卷	-11.8929
根柢	-11.8929
中書侍郎平章事	-11.8929
因而重之	-11.8929
聮	-11.8929
穎達	-11.8929
梁昇卿	-11.8929
五子之歌	-11.8929
阼	-11.893
挍書郎	-11.893
驃騎大將軍	-11.893
建寕元年	-11.893
歐陽公集古錄云	-11.893
瑒	-11.893
明都穆撰	-11.893
君之碑篆額	-11.893
熙寜	-11.893
陳彭年	-11.893
九域志	-11.8931
崔子玉	-11.8931
䂓	-11.8931
頎	-11.8931
晁公武讀書志	-11.8931
甬	-11.8931
謹案右一帖草書五行三十	-11.8932
謳	-11.8932
紫芝	-11.8932
文王世子	-11.8932
徐盛全曰	-11.8932
説卦序卦雜卦	-11.8932
閤	-11.8932
糜	-11.8932
歲月未詳	-11.8932
蒯	-11.8933
贋	-11.8933
段文昌	-11.8933
菑	-11.8933
龍圖閣	-11.8933
台州府志	-11.8933
曵	-11.8933
隷釋卷第十	-11.8933
鉄	-11.8933
河上公	-11.8933
㫥	-11.8934
軄	-11.8934
戸部尚書	-11.8934
割裂	-11.8934
兀	-11.8934
韓秀弼	-11.8934
麴	-11.8934
梁昇卿八分書	-11.8934
糟粕	-11.8934
馮緄	-11.8935
餐	-11.8935
璲	-11.8935
耑	-11.8935
萼	-11.8935
焚香	-11.8935
嵩山㑹善寺	-11.8935
諴	-11.8935
博陵太守孔彪碑	-11.8935
膽	-11.8935
􁢉	-11.8935
文徵明	-11.8935
伽藍	-11.8936
簷	-11.8936
両	-11.8936
麻沙	-11.8936
諮議	-11.8936
鳳凰	-11.8936
􁊬	-11.8936
斃	-11.8936
撰并分書	-11.8936
大學古本	-11.8936
臆度	-11.8937
孝經論語爾雅	-11.8937
賂	-11.8937
温州府志	-11.8937
珽	-11.8937
叶韻	-11.8938
灣	-11.8938
殃	-11.8938
耐	-11.8938
趙明誠金石録	-11.8938
淳于長夏承碑	-11.8939
棻	-11.8939
申屠	-11.8939
姻	-11.8939
調露	-11.8939
刮	-11.8939
涌	-11.894
金紫光禄大夫	-11.894
化度寺	-11.894
頴逹	-11.894
瘧	-11.8941
衣裳	-11.8941
鋟木	-11.8941
未遑	-11.8941
清徳頌	-11.8941
在三原	-11.8942
何孟春	-11.8942
白石神君碑	-11.8943
古今人表	-11.8943
農桑	-11.8943
砌	-11.8943
儀禮十七篇	-11.8943
蕭望之	-11.8943
陸柬之	-11.8944
扄	-11.8944
紼	-11.8944
滄洲	-11.8944
影鈔	-11.8945
歎息	-11.8945
尠	-11.8945
諸暨	-11.8945
裝潢	-11.8946
殱	-11.8946
吳仁傑	-11.8946
脱去	-11.8946
程朱傳義	-11.8946
在曲阜縣	-11.8947
國子監丞	-11.8947
在咸陽縣	-11.8947
泰山都尉孔宙碑	-11.8948
鄧析	-11.8948
詩話一部一冊	-11.8949
簡牘	-11.8949
晏子春秋	-11.8949
筆札	-11.895
種種	-11.895
宋史無傳	-11.8951
鄉飲	-11.8953
區别	-11.8953
孟子七篇	-11.8953
現存	-11.8953
哀公問	-11.8953
光和元年	-11.8954
十八巻	-11.8956
各為一	-11.8956
衞宏	-11.8957
欽定天禄琳琅書目卷	-11.8957
模勒	-11.8958
宋濂	-11.8958
王之世詩	-11.8959
庾信	-11.8959
不云乎	-11.8959
興唐寺	-11.896
膠東	-11.896
數萬言	-11.896
宋理宗	-11.896
周易古經	-11.8961
王鏊	-11.8962
汪綱	-11.8963
履謙	-11.8964
公昉	-11.8964
六韜	-11.8964
元豐五年	-11.8964
罍	-11.8964
未見閩書	-11.8965
究竟	-11.8966
危素	-11.8966
濟寧州	-11.8967
丹青	-11.8968
汶上	-11.8969
郝氏	-11.8969
鳩工	-11.8969
堪輿	-11.8969
選擇	-11.8969
梁谿	-11.8969
對策	-11.8971
紀畧一卷	-11.8972
而後可以	-11.8972
普濟	-11.8974
篤好	-11.8975
維摩	-11.8975
鍾離	-11.8976
有感於	-11.8978
胡安國	-11.8978
非其人	-11.8979
寳祐	-11.898
平蠻	-11.8982
王順伯	-11.8983
克寛	-11.8984
鐫華	-11.8984
切韻	-11.8984
美刺	-11.8987
季海	-11.8987
面目	-11.8989
三十九篇	-11.8989
開元二年	-11.8991
昭示	-11.8992
奏對	-11.8992
衣食	-11.8992
頤正	-11.8993
陳瓘	-11.8995
靖康初	-11.8998
蒙求	-11.8998
凡若干	-11.8998
張九成	-11.9001
大厯十二年	-11.9003
歲久	-11.9004
二王帖	-11.9004
今文尚書	-11.9005
聖俞	-11.9006
其用心	-11.9006
舜俞	-11.9008
入太學	-11.9009
朱墨	-11.9014
饒氏	-11.9015
詳備	-11.9015
襍著	-11.9016
為一詩	-11.9016
寶慶	-11.902
唐元度	-11.902
左尉	-11.9022
所能及	-11.9025
鬻子	-11.9027
行状	-11.9029
坊間	-11.903
甚富	-11.9033
曾申	-11.9037
先儒之説	-11.9038
五峰	-11.904
趙岐曰	-11.9041
繼絶	-11.9043
萬邦	-11.9043
光啟	-11.9048
寓居	-11.905
分析	-11.9052
振孫	-11.9056
引證	-11.9056
行冲	-11.9057
何足以	-11.9058
佚徐氏	-11.9058
山濤	-11.906
四寸	-11.9065
審定	-11.9069
桐鄉	-11.9076
又續稿	-11.9077
中貢士	-11.9082
昔人謂	-11.9083
訂定	-11.9083
洗心	-11.909
兼權	-11.9094
唐志二十卷佚	-11.9094
聖天子	-11.9099
有所發明	-11.9105
汀	-11.9112
延熹三年	-11.9115
私第	-11.9122
連山易	-11.9124
屏山	-11.9129
名臣言行録	-11.9135
集二十卷右皇朝	-11.9136
拾遺一卷	-11.914
貢舉	-11.9141
其源流	-11.9142
撰正書無名	-11.9145
集十一卷	-11.915
初未嘗	-11.9154
譬如	-11.9156
刾史	-11.9157
庚戌進士	-11.9165
月二十六日	-11.9165
進士及第	-11.9166
四十七卷	-11.9166
有時而	-11.9167
唐開元中	-11.9175
子翬	-11.9179
太原府	-11.9181
建中靖國元年	-11.9186
高弟	-11.9187
曹叅軍	-11.9189
落成	-11.9189
撰立開元	-11.9198
集二十五卷	-11.921
建寧四年	-11.9216
北嶽廟	-11.9225
詩集五卷	-11.9227
郃	-11.9246
開元十三年	-11.9247
太極圖解	-11.9259
姑存	-11.9263
貞元八年	-11.9268
漢儒林傳	-11.927
其始末	-11.9273
堯母	-11.9274
貞觀四年	-11.9276
考証	-11.9279
廢置	-11.9293
集古錄云	-11.9306
祠堂碑	-11.9322
户曹	-11.933
大厯二年	-11.9339
宋庠	-11.9348
金薤琳琅卷	-11.9377
仰觀	-11.9383
臨蘭亭	-11.9388
神龍二年	-11.9389
滑州	-11.9389
困學	-11.9393
丨丨	-11.9402
别駕	-11.9404
鄂州	-11.9408
畼	-11.9415
其大者	-11.943
歐陽文忠	-11.9433
鍇	-11.9437
報恩	-11.9438
偷	-11.9442
嵊縣人	-11.9442
奨	-11.9442
臯陶謨	-11.9443
𥙿	-11.9443
諗	-11.9443
蘇天爵	-11.9444
馬端臨文獻通考	-11.9445
䠂	-11.9446
埤	-11.9446
瑊	-11.9446
媒	-11.9446
鋟諸梓	-11.9447
解佚閩書	-11.9447
勺	-11.9447
捃	-11.9448
砭	-11.9448
見諸行事	-11.9448
鼓吹	-11.9448
陬	-11.9448
思過半矣	-11.9448
喈	-11.9448
渴	-11.9448
林希逸	-11.9449
閭巷	-11.9449
橅	-11.9449
册府元龜	-11.9449
埀	-11.945
窮理盡性	-11.9451
扁鵲	-11.9451
壼	-11.9451
朝奉大夫	-11.9451
仙壇記	-11.9451
釣臺	-11.9451
墊	-11.9452
宣義郎	-11.9452
繳	-11.9452
楞伽	-11.9453
正書無姓	-11.9453
惓惓	-11.9453
夏時冠周月	-11.9453
三皇五帝	-11.9453
筦	-11.9453
名物度數	-11.9453
諾	-11.9453
薛尚功	-11.9453
户部主事	-11.9453
無極山碑	-11.9454
資政殿學士	-11.9454
乾坤二卦	-11.9454
漓	-11.9454
通直郎	-11.9454
賽	-11.9454
駰	-11.9455
璨	-11.9455
治平元年閏五月	-11.9455
楊時喬曰	-11.9455
一甲第二人	-11.9455
漳浦	-11.9455
舜禹	-11.9455
韓詩外傳	-11.9455
玢	-11.9456
覊	-11.9456
郊特牲	-11.9456
獬	-11.9456
漼	-11.9456
闍	-11.9456
苹	-11.9456
俞廷椿	-11.9456
韋編三絶	-11.9456
魴	-11.9456
蠅	-11.9456
弑其君	-11.9456
掖垣	-11.9457
糺	-11.9457
薛季宣	-11.9457
滸	-11.9457
簪	-11.9457
慱	-11.9457
李先芳	-11.9458
西嶽華山廟碑	-11.9458
楗	-11.9458
黟	-11.9458
門生魏郡	-11.9458
窩	-11.9458
交阯	-11.9459
穜	-11.9459
酈道元	-11.9459
詒	-11.9459
水經有歐趙有	-11.9459
貼	-11.9459
按察僉事	-11.9459
栁子厚	-11.9459
説文解字	-11.9459
述聖頌	-11.9459
澶	-11.946
算術	-11.946
楊凝式	-11.946
戴表元	-11.946
棨	-11.946
儵	-11.946
叚文昌	-11.946
太常寺少卿	-11.9461
頊	-11.9461
玷	-11.9461
團	-11.9461
𨽻書不著書撰人名氏	-11.9461
瑴	-11.9461
陸宣公	-11.9461
悞	-11.9461
𢎞農太守	-11.9462
熈寜	-11.9462
奕奕	-11.9462
頺	-11.9462
踊	-11.9462
翩翩	-11.9462
吕惠卿	-11.9463
姿態	-11.9463
書梁評	-11.9463
篁	-11.9463
霈	-11.9463
髙似孫	-11.9463
秘書丞	-11.9464
賜緋魚袋	-11.9464
矜式	-11.9464
股肱	-11.9464
蓺	-11.9465
眎	-11.9465
古本大學	-11.9465
辤	-11.9465
益都人	-11.9465
本二萬五大夫	-11.9465
弭	-11.9465
漢魏以來	-11.9466
法帖刋誤	-11.9466
濩	-11.9466
虔	-11.9466
蹙	-11.9466
第二十	-11.9466
永徽四年	-11.9466
盧藏用	-11.9466
窺測	-11.9466
杜鎬	-11.9467
凛	-11.9467
捍	-11.9467
宋志十二卷佚	-11.9467
氊	-11.9467
莖	-11.9467
蓍龜	-11.9467
抃	-11.9467
礱	-11.9467
毛萇	-11.9467
皦	-11.9468
畱	-11.9468
脩禊	-11.9468
囙	-11.9468
煮	-11.9469
劖	-11.9469
喧	-11.9469
楯	-11.9469
荣	-11.9469
懈	-11.9469
金履祥	-11.947
撥亂	-11.947
拈	-11.947
霅	-11.947
戰國策	-11.947
舛訛	-11.9471
韓侂胄	-11.9471
開元天寳	-11.9471
諡曰文	-11.9471
相授受	-11.9471
刓缺	-11.9472
殷奎	-11.9472
莪	-11.9472
法書苑	-11.9473
華嶽廟碑	-11.9473
栁公權正書	-11.9473
存於今者	-11.9473
侁	-11.9474
印綬	-11.9474
藏鋒	-11.9474
蔬	-11.9474
鷺	-11.9474
大觀標目	-11.9476
哥	-11.9476
衞將軍	-11.9477
結搆	-11.9478
庾亮	-11.9478
絶頂	-11.9479
昇仙太子	-11.9479
覲禮	-11.948
紹興書目	-11.948
鑿空	-11.948
呉兢	-11.948
耆老	-11.9482
鉦	-11.9482
元次山	-11.9482
開元十年	-11.9482
崐山	-11.9482
衛瓘	-11.9483
恭儉	-11.9483
左拾遺	-11.9483
胡銓	-11.9485
匹夫	-11.9486
曼卿	-11.9486
峴山	-11.9487
召誥	-11.9487
終其身	-11.9487
新舊唐書	-11.9487
徭	-11.9487
顛末	-11.9488
祥瑞	-11.9491
丁寛	-11.9491
王元美謂	-11.9494
彭澤	-11.9495
大觀摹	-11.9495
金谿	-11.9496
㑹昌四年	-11.9496
黄巢	-11.9497
章惇	-11.9497
權徳輿撰	-11.9498
張南軒	-11.9499
手抄	-11.95
誠懸	-11.9502
開元禮	-11.9506
黙識	-11.9506
葉適曰	-11.9506
庵文集	-11.9509
御製御書	-11.9509
李煜	-11.9513
碑以大厯	-11.9517
良樞	-11.9518
境内	-11.952
儒學生	-11.952
報恩寺	-11.952
西山先生	-11.9525
顧炎武曰	-11.9531
吉安府志	-11.9532
顧况	-11.9536
稍遷	-11.954
卷第二十	-11.9544
故功曹	-11.9546
車服	-11.9548
紀瞻	-11.9548
華嚴寺	-11.9548
建寅	-11.9554
任丘	-11.9557
彭祖	-11.9559
浮雲	-11.9561
精審	-11.9563
胡宏	-11.9565
詞賦	-11.9566
孔君碑	-11.9567
帖括	-11.9568
濟濟	-11.9569
中庸章句	-11.9571
北嶽碑	-11.9573
乾道六年	-11.9574
楞嚴經	-11.9575
氣質	-11.9577
規制	-11.9587
散亡	-11.9588
巫山	-11.9588
脈訣	-11.9589
臧氏	-11.9589
不憚	-11.9596
之佳者	-11.9597
太原縣	-11.9603
言行録	-11.962
存於世	-11.9621
禪宗	-11.9622
泗州	-11.9624
部侍郎	-11.9626
一寸	-11.9639
周公所作	-11.9642
魏石經	-11.9644
諡文恪	-11.9645
末葉	-11.9646
金華府志	-11.9664
上元三年	-11.9667
著於篇	-11.9667
潮陽	-11.9668
十三卷存	-11.9675
五十六篇	-11.9681
䕫州	-11.9689
開元中立	-11.9692
白鶴	-11.9698
月二十二日	-11.9712
秘訣一卷	-11.9713
子思子	-11.9723
神品	-11.9723
建中靖國	-11.9724
正人心	-11.973
伏讀	-11.973
丑進士	-11.9731
申韓	-11.9776
十倍	-11.9777
矣是故	-11.9792
昭昭	-11.9795
孔宙碑隂	-11.9805
明道先生	-11.9822
郡二漢	-11.9829
熹平元年	-11.9833
在華州	-11.984
大厯十三年	-11.9847
乾封元年	-11.9851
未見張萱曰	-11.9851
佚晋書	-11.9898
州志二冊	-11.9904
王次㸃	-11.9921
無所考	-11.9924
大中十年	-11.9929
在昭陵	-11.9933
疏畧	-11.9966
元和十五年	-11.9968
菉竹堂	-11.9972
文武周公	-11.9989
庖犧	-11.9991
元和九年	-11.9995
珫	-11.9996
秬	-11.9999
鬭	-11.9999
去思碑	-12
冠昏喪祭	-12
鶡冠子	-12.0001
觧題	-12.0001
鬼谷	-12.0001
嶼	-12.0001
字號第一厨書目	-12.0001
噩	-12.0001
脞	-12.0001
睽	-12.0002
喪大記	-12.0002
嵊	-12.0002
㞢	-12.0003
安撫司	-12.0004
無書撰人姓名	-12.0004
玉海紹興	-12.0005
直齋書録解題卷	-12.0005
蒿	-12.0005
影響	-12.0005
承事郎	-12.0005
嵐	-12.0005
俞琰	-12.0006
綯	-12.0006
王與之曰	-12.0006
醳	-12.0006
籤	-12.0007
紀事本末	-12.0008
碭	-12.0008
王欽若	-12.0008
典型	-12.0008
橘	-12.0008
越絶書	-12.0008
余家集録	-12.0008
一得之愚	-12.0009
𤣥秘塔	-12.0009
嵇康	-12.0009
易書詩禮	-12.0009
薤	-12.0009
不屑	-12.0009
塡	-12.0009
糅	-12.001
王充曰	-12.001
宋志十卷未見	-12.001
蕉	-12.001
蟻	-12.001
􁜭	-12.001
鄕	-12.0011
李商隱	-12.0011
王禹偁	-12.0011
蜂	-12.0011
二百故功曹	-12.0011
繁蕪	-12.0012
厝	-12.0012
從姜釋	-12.0012
篡	-12.0012
丰	-12.0012
嘉言善行	-12.0013
以意逆志	-12.0013
儀禮逸經	-12.0013
芭	-12.0013
隱居不仕	-12.0013
蠭	-12.0013
剞劂	-12.0013
騤	-12.0013
毫髮	-12.0014
怖	-12.0014
赧	-12.0014
轅固	-12.0014
元命包	-12.0014
户部郎中	-12.0014
締	-12.0014
羊士諤	-12.0014
屛	-12.0014
悔吝	-12.0014
隍	-12.0015
舎利塔	-12.0015
掣	-12.0015
領鄉薦	-12.0015
右漢隷不著書撰人名氏	-12.0015
蘇文忠	-12.0015
怳	-12.0015
琯	-12.0015
王穉登	-12.0015
養浩	-12.0016
款識	-12.0016
譔并書	-12.0016
場屋	-12.0016
鶯	-12.0016
集賢殿學士	-12.0016
干禄字書	-12.0016
程正叔	-12.0016
惚	-12.0017
屋漏	-12.0017
隆慶戊辰進士	-12.0017
錢謙益	-12.0017
兗	-12.0017
沛相楊君碑	-12.0017
蚩尤	-12.0017
吕成公	-12.0017
熊禾	-12.0018
名蹟録	-12.0018
螺	-12.0018
韓非子	-12.0018
祕書丞	-12.0018
榘	-12.0018
牽牛	-12.0018
易書詩春秋	-12.0018
寝	-12.0018
弈	-12.0018
李德𥙿	-12.0018
滓	-12.0018
逯	-12.0019
匏	-12.0019
吏部左侍郎	-12.0019
訕	-12.0019
上計掾	-12.0019
宋志六卷佚	-12.0019
蕚	-12.0019
握機	-12.002
山南東道	-12.002
洪興祖	-12.002
▁日立	-12.002
舟楫	-12.002
茟	-12.002
中奉大夫	-12.002
盧仝	-12.002
詘	-12.002
國子監直講	-12.002
徽猷閣待制	-12.002
鬰	-12.0021
提㸃	-12.0021
縟	-12.0021
袂	-12.0021
承議郎	-12.0022
徇	-12.0022
宋次道	-12.0022
拭	-12.0022
着	-12.0022
脂	-12.0022
擲	-12.0022
卲	-12.0023
經史子集	-12.0023
于頔	-12.0023
鵬飛	-12.0023
括地象	-12.0023
床	-12.0023
韋處厚	-12.0023
錢金甫曰	-12.0024
穎川	-12.0024
周禮六官	-12.0024
老聃	-12.0025
奈何奈何	-12.0025
咫	-12.0025
孔氏正義	-12.0025
握竒	-12.0025
啄	-12.0025
孔琳之	-12.0025
相王旦	-12.0025
禮樂征伐	-12.0026
春秋經傳集解	-12.0026
休咎	-12.0026
純粹	-12.0026
永康元年	-12.0026
蘇洵	-12.0026
遂初堂書目	-12.0026
二百好學	-12.0026
曹士冕	-12.0027
采蘋	-12.0027
徴拜議郎	-12.0027
朏	-12.0028
爱	-12.0028
縈	-12.0028
阮研	-12.0028
該貫	-12.0028
雅馴	-12.0028
霑	-12.0029
曝	-12.0029
司主事	-12.0029
吕大防	-12.0029
揜	-12.003
避暑	-12.003
車駕	-12.003
炬	-12.0031
竿	-12.0031
祈雨	-12.0031
尹更始	-12.0032
南京吏部尚書	-12.0032
具區	-12.0032
鶴鳴	-12.0032
妓	-12.0032
十六冊	-12.0033
彞尊	-12.0033
鈎深	-12.0033
布帛	-12.0034
為己任	-12.0034
湧	-12.0034
胃	-12.0035
趙子函云	-12.0035
子夏易傳	-12.0035
豐坊	-12.0035
不多見	-12.0035
怏	-12.0036
蜜	-12.0036
戲鴻	-12.0037
製并書	-12.0037
也折衷曰	-12.0037
菉竹堂目	-12.0037
泗水	-12.0038
朱晦翁	-12.0039
扈從	-12.0039
洪範五行	-12.0039
蔡湛	-12.004
貞觀十一年	-12.0042
獨孤及	-12.0042
鉅野	-12.0042
倒置	-12.0043
從劉釋	-12.0043
南郡太守	-12.0045
右正言	-12.0046
緯候	-12.0047
援據	-12.0048
李太白	-12.0048
鎮江府	-12.0049
無垢	-12.0049
萬七千	-12.0053
逆順	-12.0053
范太史	-12.0054
宰輔	-12.0054
蒼蒼	-12.0058
遇害	-12.0058
何如哉	-12.0059
之外别	-12.0062
李斯篆	-12.0063
散落	-12.0063
附麗	-12.0064
三家之説	-12.0066
精詣	-12.0066
謝鐸曰	-12.0068
度支	-12.0069
瞿氏	-12.007
録一卷右皇朝	-12.007
序作于	-12.0071
養性	-12.0071
巡按	-12.0071
象數之學	-12.0071
羲和	-12.0071
蓍卦	-12.0073
盡心焉	-12.0075
易説佚	-12.0076
古之學者	-12.0079
古樂府	-12.008
竒偶	-12.0081
大成殿	-12.0081
翼翼	-12.0082
崇文目	-12.0085
衣服	-12.0085
何如耳	-12.0085
修飾	-12.0085
新舊史	-12.0086
孟子十四卷	-12.0088
至元間	-12.009
黄幹	-12.009
李徳裕撰	-12.0092
類藁	-12.0094
盤銘	-12.0094
理財	-12.0095
論語集解	-12.0101
蜀廣政	-12.0102
郷里	-12.0109
精確	-12.0111
藴奥	-12.0112
大中五年	-12.0113
領校	-12.0129
塔院	-12.0139
開元十六年	-12.014
論語解佚	-12.0142
明世宗	-12.0151
豈復有	-12.0152
升庵	-12.0156
君子之道	-12.0157
古帝王	-12.0158
茂貞	-12.0168
致太平	-12.017
學士院	-12.0183
兖州都督	-12.0195
聖賢之心	-12.02
禹貢圖	-12.02
開元十四年	-12.0201
皇祐五年	-12.0202
北五里	-12.0215
京房易	-12.0218
元和七年	-12.0229
童䝉	-12.0257
急就章	-12.0263
三百一十	-12.0269
部主事	-12.0277
凡十篇	-12.0287
陸費墀欽定四庫全書	-12.0289
耒陽	-12.0289
武夷山	-12.0312
者此也	-12.0316
八十一卷	-12.0324
滄州	-12.0331
所傳聞	-12.0335
郴	-12.0343
丨	-12.0346
贈工部尚書	-12.0349
修孔子廟碑	-12.0359
二帝三王	-12.0378
百䖏	-12.0392
千户	-12.04
片石	-12.0404
四卷右皇朝	-12.0408
月十九日	-12.0432
元符三年	-12.0441
丙辰進士	-12.049
順天府	-12.0498
大中十三年	-12.0511
二十三篇	-12.0523
蘇頲	-12.0537
洺	-12.054
滎	-12.0541
七年九月	-12.0545
四書大全	-12.0561
太和六年	-12.0565
一部十四冊	-12.0569
大厯八年	-12.0573
朱謀㙔	-12.0577
溍	-12.0581
焦延夀	-12.0583
通卦驗	-12.0583
劑	-12.0586
易學啓䝉	-12.0587
晁說之	-12.0587
吸	-12.0587
字皆缺筆作	-12.0588
正徳丁丑	-12.0588
佚玉海	-12.0588
单	-12.0589
彌縫	-12.0589
揮麈録	-12.059
豢	-12.0591
􁃰	-12.0591
瘁	-12.0591
衛湜曰	-12.0592
尉繚子	-12.0592
兵備副使	-12.0592
嗤	-12.0592
賜進士出身	-12.0592
鄧元錫	-12.0593
隠居不仕	-12.0593
不詳何人	-12.0593
緼	-12.0593
嘉靖癸丑進士	-12.0593
容齋隨筆	-12.0594
奧	-12.0594
藺	-12.0594
鎖	-12.0595
泰山都尉	-12.0595
脯	-12.0595
􁉗	-12.0595
釵	-12.0595
研精覃思	-12.0595
徐獻忠	-12.0595
竢	-12.0595
棼	-12.0595
以母老	-12.0595
胸臆	-12.0595
薛應旂	-12.0596
攺	-12.0596
晋江人	-12.0596
朱元晦	-12.0596
府圖志二冊	-12.0596
寇	-12.0596
救荒	-12.0596
䧏	-12.0597
坐位帖	-12.0597
濂溪	-12.0597
多寳塔	-12.0597
窻	-12.0598
袒	-12.0598
溶	-12.0598
凈	-12.0598
胡三省	-12.0598
尊勝經	-12.0598
歐陽大小夏侯	-12.0598
盗賊	-12.0598
彬彬	-12.0598
溝洫	-12.0599
茫茫	-12.0599
互有得失	-12.0599
鈴	-12.0599
夣	-12.06
梅賾	-12.06
籟	-12.06
兢兢	-12.06
黌	-12.06
李百藥撰	-12.06
元好問	-12.06
嚴彭祖	-12.06
新淦	-12.06
演聖通論	-12.06
阿史那	-12.06
表而出之	-12.06
夷堅志	-12.06
馮椅曰	-12.06
六十四卦三百八十四爻	-12.0601
弼鄘	-12.0601
舊列卷二第	-12.0601
開元二十二年	-12.0601
爐	-12.0601
孕	-12.0601
謹案右一帖草書五行四十	-12.0601
惰	-12.0601
湮没	-12.0601
髫	-12.0601
柜	-12.0602
絛	-12.0602
山南西道	-12.0602
其與今文不同而兩通者	-12.0602
闌	-12.0602
蜚	-12.0602
􁐇	-12.0603
本三千分子	-12.0603
萬卷堂	-12.0603
一冊女直字	-12.0603
出錢二千主吏仲	-12.0603
未見平湖縣志	-12.0603
李延昰曰	-12.0603
鯀	-12.0603
都元敬	-12.0603
漱	-12.0603
憙	-12.0603
為之語曰	-12.0603
魏受禪碑	-12.0604
袍	-12.0604
㒷	-12.0604
法帖釋文考異	-12.0604
今以碑考之	-12.0604
翅	-12.0604
墠	-12.0604
舊列卷	-12.0605
崔行功	-12.0605
悽	-12.0605
仄	-12.0605
囑	-12.0605
非全書也	-12.0605
噲	-12.0605
塚	-12.0605
里巷	-12.0605
金液	-12.0605
元第六百	-12.0605
聆	-12.0605
陲	-12.0606
漢唐以來	-12.0606
古文篆𨽻三體	-12.0606
鄢陵	-12.0606
敦煌	-12.0606
天人之際	-12.0606
苾	-12.0606
朱彞尊	-12.0606
匜	-12.0606
嫂	-12.0607
二世詔	-12.0607
紛綸	-12.0607
羑里	-12.0607
躡	-12.0607
廿三日	-12.0607
虎賁	-12.0607
曳	-12.0607
騖	-12.0608
屬國都尉	-12.0608
斾	-12.0608
鄙淺	-12.0608
􁫱	-12.0608
包犧	-12.0608
書并題額	-12.0608
磚	-12.0608
軍今縣	-12.0608
峡	-12.0608
懾	-12.0608
桐柏	-12.0609
㫄	-12.0609
蘇易簡	-12.0609
御製并書	-12.0609
蘂	-12.0609
縑	-12.0609
骨肉	-12.0609
陳仲弓碑	-12.0609
茟法	-12.061
郎中鄭固碑	-12.061
閶	-12.061
鄊	-12.061
餽	-12.061
直龍圖閣	-12.061
岑文本撰	-12.061
霤	-12.061
可歎也	-12.061
元和十一年	-12.061
耜	-12.061
韋應物	-12.061
忒	-12.0611
曖	-12.0611
羯	-12.0611
點畫	-12.0611
贈太子太保諡文	-12.0611
紓	-12.0612
狎	-12.0612
尓	-12.0612
置三卷第	-12.0612
尊勝經幢	-12.0612
盎	-12.0613
彌綸	-12.0613
馮承素	-12.0613
脾	-12.0613
䏻	-12.0613
霓	-12.0613
奚斯	-12.0613
陶隠居	-12.0614
嵒	-12.0614
埽	-12.0614
翰林待制	-12.0614
阡	-12.0614
廬江太守	-12.0614
招討	-12.0615
憇	-12.0615
楊誠齋	-12.0615
甓	-12.0616
囦	-12.0616
汪藻	-12.0616
曲暢	-12.0616
秦燔	-12.0616
歐陽詹	-12.0616
從顧從義釋劉次莊作	-12.0616
款	-12.0616
繚	-12.0616
蕩蕩	-12.0617
凌迪知萬姓統譜載	-12.0617
豳風	-12.0617
李覯	-12.0618
從劉次莊釋	-12.0618
使後之	-12.0618
從姜䕫釋	-12.0621
玉枕	-12.0622
見於他書	-12.0622
數千百年	-12.0622
刻石年月	-12.0624
聟	-12.0624
元氏縣	-12.0625
胡安定	-12.0625
目覩	-12.0626
廞	-12.0626
財賦	-12.0626
伏波	-12.0626
丘濬	-12.0626
程頤	-12.0627
程伊川	-12.0627
樂正子	-12.0628
文集一部三冊	-12.0629
徃来	-12.063
洪熈	-12.0632
落職	-12.0634
研幾	-12.0634
赤松	-12.0635
退谷	-12.0636
劉穆之	-12.0637
孟軻氏	-12.0637
譜系	-12.0637
恍然	-12.0638
摹寫	-12.0639
攷訂	-12.064
延賞	-12.0642
諫大夫	-12.0642
以疾辭	-12.0642
撰并書篆額	-12.0643
從姜夔釋	-12.0643
金輪	-12.0644
纂并書	-12.0645
投進	-12.0646
顔栁	-12.0646
莫之能	-12.0646
雄偉	-12.0648
雷澤	-12.0648
䕶軍	-12.0648
廢墜	-12.0648
予奪	-12.065
隱桓	-12.0654
熟讀	-12.0656
羲獻	-12.0656
黄諌	-12.0658
特勒	-12.0658
實踐	-12.0658
乾祐	-12.0658
上元元年	-12.0659
百二十篇	-12.0663
萬厯甲戌	-12.0667
李後主	-12.0668
今之學者	-12.067
序畧曰	-12.067
汧陽	-12.0674
開元十二年	-12.0674
澧州	-12.0675
開元二十一年	-12.0675
嘉靖八年	-12.0678
蘭亭敘	-12.0678
閭丘	-12.0682
廣韻注	-12.0684
汝諧	-12.0687
鄉射禮	-12.07
元和十年	-12.0718
倡和集	-12.0719
邠州	-12.0724
為余言	-12.0728
筆硯	-12.073
大中九年	-12.0751
六年六月	-12.0753
黄初元年	-12.0757
擬議	-12.0771
元和十二年	-12.0772
尤邃	-12.0778
士喪禮	-12.079
刋板	-12.0794
誌銘	-12.0809
士亷	-12.0815
嵗貢	-12.0815
案原本	-12.0817
仲淹	-12.0819
丨丨丨丨丨	-12.0827
寸五分	-12.0827
侍講學士	-12.083
尺許	-12.0838
十五卷右皇朝	-12.0844
私謚	-12.086
詎可	-12.0873
京畿	-12.0879
行狀一卷	-12.0885
對待	-12.0915
無所據	-12.0929
人心之所	-12.0945
漕河	-12.097
開元十九年	-12.0976
急就	-12.0995
賊曹	-12.1011
巴東	-12.1026
嘉興府	-12.1027
淙	-12.1027
追諡	-12.1035
司馬文正	-12.1037
邃於易	-12.104
乾封二年	-12.1071
氏族譜	-12.108
十二年十一月	-12.1086
宋徽宗	-12.1106
卒謚	-12.1127
戌進士	-12.1157
唐志二卷佚	-12.1164
拍	-12.1198
葯	-12.12
胎息	-12.1201
丹訣一卷	-12.1202
浄土	-12.1204
近思録	-12.1204
氾	-12.1205
敔	-12.1206
佚寧波府志	-12.1207
戶	-12.1208
如指諸掌	-12.1209
祕書省正字	-12.1209
顯慶三年	-12.121
芻蕘	-12.121
宝	-12.1211
黄洪憲	-12.1211
天地自然之易	-12.1211
衒	-12.1211
芸閣	-12.1212
天慶觀	-12.1212
張紹文	-12.1212
佚孫㲄曰	-12.1213
崇禎丁丑	-12.1213
藐	-12.1214
亢倉子	-12.1214
鄭樵通志	-12.1214
陳仁錫	-12.1214
壎	-12.1215
瘡	-12.1215
錢陸燦曰	-12.1215
鄭文寳	-12.1215
佾	-12.1216
文懿公	-12.1216
朱睦㮮	-12.1216
猿	-12.1217
褘	-12.1217
悝	-12.1218
屯田員外郎	-12.1218
顚	-12.1218
抹	-12.1218
菁華	-12.1218
燋	-12.1218
綠	-12.1219
蠙	-12.1219
睂	-12.1219
旴江	-12.1219
隋志梁有	-12.1219
緗	-12.122
蚩	-12.122
晁氏讀書志	-12.122
左春坊左	-12.1221
趙冬曦	-12.1221
帚	-12.1221
霣	-12.1221
瑱	-12.1221
法書要錄	-12.1221
嗚	-12.1222
紕	-12.1222
洊	-12.1222
紕繆	-12.1222
譁	-12.1222
李方子	-12.1222
濫觴	-12.1222
逭	-12.1223
刑部右侍郎	-12.1223
安撫使	-12.1223
逌	-12.1223
盱江	-12.1223
鍚	-12.1223
錢惟演	-12.1223
周易講疏	-12.1223
吕與叔	-12.1223
廋	-12.1224
胡炳文	-12.1224
澮	-12.1224
七言律	-12.1224
妺	-12.1225
嘉靖戊戌進士	-12.1225
鮒	-12.1225
崛	-12.1225
翰林院修撰	-12.1225
𣺌	-12.1225
遂昌人	-12.1225
壌	-12.1225
莫盛於	-12.1225
鄣	-12.1226
商鞅	-12.1226
奉朝請	-12.1226
桴	-12.1227
管輅	-12.1227
􁊓	-12.1227
艸木	-12.1227
寳刻叢編	-12.1227
鬬	-12.1227
殽阬	-12.1227
呉才老	-12.1227
淇澳	-12.1228
庭珪	-12.1228
㬌	-12.1228
㙒	-12.1228
張平子碑	-12.1228
剖析	-12.1228
倞	-12.1228
猾	-12.1228
纎毫	-12.1229
隋志二十卷佚	-12.1229
尖	-12.1229
文章正宗	-12.1229
郡今縣	-12.1229
簣	-12.1229
呵	-12.1229
講義一卷存	-12.1229
北軍中候	-12.1229
薰	-12.1229
楊一清	-12.1229
酈道元注水經	-12.1229
褎	-12.1229
周伯琦	-12.1229
但標名今移	-12.1229
煉	-12.1229
邅	-12.1229
嘉興李光暎撰	-12.1229
十五國風	-12.1229
貭	-12.123
􁨿	-12.123
皇甫湜	-12.123
潄	-12.123
咽	-12.123
牽强	-12.123
鑪	-12.123
陶淵明	-12.123
縹	-12.123
張商英	-12.123
醪	-12.123
鴈塔題名	-12.123
骸	-12.123
惪	-12.123
援神契	-12.123
不能贊一辭	-12.123
畯	-12.1231
貟外郎	-12.1231
段成式	-12.1231
蕭思話	-12.1231
王明清	-12.1231
釀	-12.1231
張參五經文字	-12.1231
張士誠	-12.1231
誌其墓	-12.1231
劵	-12.1232
𦙍征	-12.1232
好古之士	-12.1232
崕	-12.1232
陸長源	-12.1232
緝熙	-12.1232
名畫記	-12.1232
薩	-12.1232
鄭畋	-12.1232
憫忠寺	-12.1232
簠	-12.1232
窈	-12.1233
廵狩	-12.1233
犁	-12.1233
法書要録	-12.1233
邀	-12.1233
岱嶽觀	-12.1233
廿九日	-12.1233
見太學題名碑	-12.1233
泓	-12.1234
子子孫孫	-12.1234
林希元	-12.1234
長短句	-12.1234
馮宿撰	-12.1234
髙八尺	-12.1234
司馬相如	-12.1234
曹娥碑	-12.1234
籩豆	-12.1234
監修國史	-12.1235
米云已上	-12.1235
范式碑	-12.1235
流涕	-12.1235
國子監博士	-12.1235
金粟道人	-12.1235
胡應麟曰	-12.1235
突厥	-12.1235
灋	-12.1236
方寸鐵	-12.1236
柰	-12.1236
吕本中	-12.1236
金石錄卷苐二十	-12.1236
謝靈運	-12.1236
抱朴子	-12.1237
娘	-12.1237
遐邇	-12.1237
湊	-12.1237
飛走	-12.1237
翰林侍講學士	-12.1237
程顥	-12.1237
琨	-12.1238
史思明	-12.1238
奔走	-12.1238
王世充	-12.1238
麄	-12.1238
九成宫醴泉銘	-12.1239
鬲	-12.1239
韓擇木八分書	-12.1239
駙馬	-12.1239
交趾	-12.1239
楮墨	-12.1239
濟隂太守	-12.1239
蜀郡太守	-12.1239
剗	-12.124
侯莫陳	-12.124
馳騁	-12.124
屹	-12.124
不自量	-12.124
周南召南	-12.124
太常寺卿	-12.124
夏侯湛	-12.124
撝謙	-12.124
松陽人	-12.1241
腸	-12.1241
慶元五年	-12.1241
蓍䇿	-12.1241
髙六尺	-12.1242
孔廟後碑	-12.1242
仝	-12.1243
不知名氏	-12.1243
中郎将	-12.1244
一至於此	-12.1244
始畫八卦	-12.1245
柏舟	-12.1246
楊震碑隂	-12.1247
圜丘	-12.1247
嵗月見本文	-12.1247
建和元年	-12.1248
匡衡	-12.1248
鴻烈	-12.1248
太僕卿	-12.1249
禮記集説	-12.1249
梁天監	-12.1249
咸通十一年	-12.125
政和八年	-12.125
水旱	-12.1251
所由作也	-12.1251
與聖人同	-12.1251
涪翁	-12.1251
唐順之	-12.1252
彛器	-12.1253
三百處士	-12.1253
乾道五年	-12.1254
圓勁	-12.1254
縚	-12.1254
汝霖	-12.1254
竭力	-12.1255
供奉	-12.1256
滕文公	-12.1256
雙湖	-12.1256
珍玩	-12.1258
文王演	-12.1258
呉萊	-12.1258
希讓	-12.1258
竒齡	-12.1259
所望於	-12.126
安禄山	-12.126
嘉謨	-12.1261
雁塔	-12.1261
根據	-12.1264
有不合者	-12.1266
章句或問	-12.1266
春秋天子之事	-12.1267
從顧從義釋一作	-12.1267
參訂	-12.1267
亦從姜釋	-12.1274
真行草	-12.1276
盛行於世	-12.1277
景龍二年	-12.1278
者鮮矣	-12.1279
翰林院檢討朱彞尊撰禮記	-12.1293
青城山	-12.1297
要訣一卷	-12.1299
貞元十五年	-12.1316
大足元年	-12.1317
碑之隂	-12.1337
其然乎	-12.1341
里祭酒	-12.1348
合爲一	-12.1354
咸亨四年	-12.1355
三傳異同	-12.1367
告之曰	-12.1377
節度副使	-12.1379
尹焞	-12.1386
轉相傳	-12.1387
萬厯丙	-12.1416
伏羲先天	-12.1417
廬墓	-12.1447
太僕寺	-12.1451
㑹昌三年	-12.1457
褚摹	-12.1457
元和十三年	-12.1492
十歩	-12.15
漢書儒林傳	-12.1517
千萬世	-12.1532
印無考闕補卷	-12.1556
千頃堂書目卷十	-12.1573
佚晁公武曰	-12.1591
考功郎	-12.1594
建寧府	-12.1622
建寧五年	-12.1627
建寧三年	-12.1639
南二十里	-12.1669
建中四年	-12.168
興化軍	-12.1709
文王周公孔子	-12.1769
五服圖	-12.1779
唐志五卷	-12.1793
犍	-12.1825
謝鐸	-12.1832
今據文獻通攷	-12.1841
診	-12.1856
易外别傳	-12.1863
紺珠	-12.1864
奉議大夫	-12.1869
王文秉	-12.1872
子華子	-12.1872
澠	-12.1873
師宜官	-12.1873
碁	-12.1875
鯁	-12.1875
顔眞卿	-12.1875
􁐓	-12.1876
寶刻叢編	-12.1876
劉元卿	-12.1877
沚	-12.1877
鄭衆賈逵	-12.1878
諄諄	-12.1878
王肯堂	-12.1879
毛竒齡曰	-12.1879
凟	-12.1879
於千載之上	-12.188
褊	-12.1881
尊王發微	-12.1881
蔀	-12.1882
鄩	-12.1882
遄	-12.1882
聞人通漢	-12.1882
鶴齡	-12.1882
佖	-12.1882
諜	-12.1883
龐	-12.1883
襄毅公	-12.1883
珤	-12.1883
范忠宣	-12.1883
腫	-12.1884
氐	-12.1884
蘖	-12.1884
鉗	-12.1884
蘅	-12.1884
讌	-12.1885
以前民用	-12.1885
嵓	-12.1885
耰	-12.1885
蹔	-12.1885
太府卿	-12.1885
懽	-12.1885
孫崇望	-12.1885
㽞	-12.1886
菁	-12.1886
陶宏景	-12.1886
滉	-12.1886
煌	-12.1886
撡	-12.1886
箎	-12.1886
涵泳	-12.1887
龍游人	-12.1887
觀物外篇	-12.1887
縊	-12.1887
七八九六	-12.1887
能品六十六人	-12.1887
蘇源明	-12.1887
顧野王	-12.1887
儘	-12.1887
螢	-12.1887
祧	-12.1887
闋	-12.1887
濰	-12.1888
張時徹	-12.1888
隋平陳郡廢	-12.1888
􁒐	-12.1888
璆	-12.1888
賵	-12.1888
以考工記補之	-12.1889
盩厔	-12.1889
佚紹興府志	-12.1889
州剌史	-12.1889
濆	-12.1889
彌陁	-12.1889
遊魂	-12.189
庾肩吾	-12.189
行書無書撰人姓名	-12.189
酬酢	-12.189
七十子之徒	-12.189
都官郎中	-12.189
乙速孤	-12.1891
蔡有隣	-12.1891
效顰	-12.1891
不書即位	-12.1891
搏	-12.1891
乾坤鑿度	-12.1891
羈	-12.1891
躐	-12.1891
參伍	-12.1891
蚓	-12.1891
薺	-12.1891
䑕	-12.1892
軆	-12.1892
不題所書人姓氏	-12.1892
狷	-12.1892
卣	-12.1892
努	-12.1892
凃	-12.1892
侵伐	-12.1892
王𢎞撰曰	-12.1892
字山甫	-12.1892
牂	-12.1892
楊君碑隂題名	-12.1892
縞	-12.1892
永新人	-12.1893
職方員外郎	-12.1893
莫備於	-12.1893
翮	-12.1893
童而習之	-12.1893
鍔	-12.1893
穰苴	-12.1893
翀	-12.1893
玉真公主	-12.1893
髠	-12.1893
𩔖	-12.1893
柰何柰何	-12.1893
風土記	-12.1894
治書侍御史	-12.1894
許康佐	-12.1894
龍溪人	-12.1894
邯	-12.1894
迸	-12.1894
顔元孫	-12.1894
餉	-12.1894
㳫	-12.1894
稽覽圖	-12.1894
蒼潤軒帖跋	-12.1894
霅川	-12.1894
徤	-12.1894
彣	-12.1894
燹	-12.1894
十餘條	-12.1895
港	-12.1895
購募	-12.1895
南華真經	-12.1895
都𤣥敬	-12.1895
晉天福	-12.1895
絪	-12.1895
琥	-12.1895
工部右侍郎	-12.1895
臆決	-12.1895
擢進士第	-12.1895
擘	-12.1895
潦	-12.1895
韓雲卿撰	-12.1895
七録二卷佚	-12.1896
立石年月	-12.1896
謹案右一帖楷書	-12.1896
奩	-12.1896
𢎞治丙辰進士	-12.1896
卦爻之辭	-12.1896
大學衍義補	-12.1896
可想見	-12.1896
阨	-12.1896
太倉州人	-12.1896
垍	-12.1896
鬚	-12.1896
臼	-12.1896
扞	-12.1897
熖	-12.1897
聖經賢傳	-12.1897
洹	-12.1897
瀏	-12.1897
不一而足	-12.1897
磨泐	-12.1897
滄浪	-12.1897
禮樂刑政	-12.1897
奉聖㫖	-12.1897
墩	-12.1897
謝曼卿	-12.1897
隋平陳	-12.1898
籩	-12.1898
主客郎中	-12.1898
菩薩戒	-12.1898
帖閒者軒帖考云	-12.1898
大小夏侯	-12.1898
㕘知政事	-12.1898
令狐徳棻	-12.1898
舅姑	-12.1898
胡母生	-12.1898
青霞	-12.1898
倉頡	-12.1899
縯	-12.1899
祝允明	-12.1899
馬鞍山	-12.1899
臨漳	-12.1899
凜	-12.1899
齊魯韓三家	-12.1899
砂	-12.19
行夏之時	-12.19
大厯四年	-12.19
右見綿	-12.19
東萊吕氏曰	-12.19
服闋	-12.19
佇	-12.19
真贋	-12.1901
門生平原	-12.1901
慼	-12.1901
踣	-12.1901
芙蓉	-12.1901
鹵簿	-12.1901
伺	-12.1901
穏	-12.1901
秃	-12.1901
無書人名氏	-12.1902
斫	-12.1902
古器物銘苐	-12.1902
煌煌	-12.1902
稚圭	-12.1902
李義府	-12.1903
成化甲辰進士	-12.1903
衡方碑	-12.1903
洛神賦	-12.1903
傖	-12.1903
諏	-12.1903
孝悌	-12.1903
窅	-12.1903
佳話	-12.1903
硬黄	-12.1904
吕不韋	-12.1904
文學掾	-12.1904
三藏聖教序	-12.1904
肌	-12.1905
鉤模	-12.1905
薛道祖	-12.1905
蓂	-12.1905
冣	-12.1905
禩	-12.1905
温彦博碑	-12.1905
公孫尼子	-12.1905
貞觀二十一年	-12.1906
孳	-12.1906
灰燼	-12.1907
貞觀二十二年	-12.1907
鹽鐵論	-12.1907
皴	-12.1907
寂寞	-12.1908
大理卿	-12.1908
酒誥	-12.1908
靈巖寺	-12.1909
自唐以來	-12.1909
從事中郎	-12.1909
瀋	-12.1909
嗜好	-12.1909
孔鮒	-12.1909
刪削	-12.1909
枯樹賦	-12.1909
韋蘇州	-12.191
馬端臨文獻通考載	-12.191
匾	-12.191
湯誥	-12.191
臨汾	-12.191
瘳	-12.191
臮	-12.191
所立年月	-12.1911
羲文周公	-12.1912
承奉郎	-12.1912
鄭夾漈	-12.1912
儒家類	-12.1913
堯舜禹	-12.1913
申培	-12.1913
吳兢	-12.1913
尤延之	-12.1913
削籍	-12.1915
馘	-12.1915
卒年七十	-12.1915
張懷瓘	-12.1916
宋志一卷周易	-12.1916
直史館	-12.1917
該洽	-12.1918
永徽六年	-12.1918
𬋩	-12.1918
倪寛	-12.192
勾踐	-12.192
名臣十三之	-12.1921
明朱睦㮮撰	-12.1921
不知誰氏	-12.1921
友朋	-12.1922
多一折	-12.1924
浩浩	-12.1924
咎繇	-12.1924
絲竹	-12.1928
度人經	-12.193
詩格一卷	-12.1931
武榮碑	-12.1933
萬厯甲辰進士	-12.1934
懷琳	-12.1941
通考一卷佚	-12.1941
貞元十七年	-12.1962
攝提	-12.1966
不外乎	-12.1967
存張雲章曰	-12.1983
拘拘	-12.1984
嵩嶽寺	-12.2002
太尉陳球碑	-12.2005
虎豹	-12.2028
禹治水	-12.205
嵩嶽	-12.2061
永徽二年	-12.2067
徽宗皇帝	-12.207
好古博雅	-12.2072
功曺	-12.2089
人嘉靖壬戌進士	-12.21
南昌府志	-12.2104
天寳九年	-12.2112
忠肅公	-12.2157
見稱於	-12.2158
未見江西通志	-12.2169
郴州	-12.2194
韓休撰	-12.223
月三十日	-12.2255
朝名臣言行	-12.2322
陽翟縣	-12.2346
藏書目	-12.2404
羲文周孔	-12.2413
忠獻公	-12.2477
靈帝中平	-12.2478
十國春秋	-12.252
程端學	-12.2538
懴	-12.2575
月開元二十	-12.2578
吉㐫	-12.2581
糴	-12.2582
時人語曰	-12.2585
搢紳	-12.2585
并属縣志	-12.2587
月十五日立	-12.2588
律吕新書	-12.2589
槁	-12.259
繒	-12.259
麻姑壇記	-12.259
將作監	-12.2591
頖	-12.2591
謝肇淛	-12.2591
鍜	-12.2592
字介夫	-12.2592
縣開國男	-12.2592
㐲	-12.2592
丁易東	-12.2593
蔭	-12.2593
燠	-12.2593
熒	-12.2594
套	-12.2594
徐偃王	-12.2595
東都事略	-12.2595
賈昌朝	-12.2595
漁樵	-12.2596
第一千九百	-12.2596
荃	-12.2596
火珠林	-12.2596
侑	-12.2596
許叔重	-12.2597
栩	-12.2597
釴	-12.2597
通議大夫	-12.2597
無遺憾	-12.2597
晧	-12.2598
索𨼆	-12.2599
金幼孜	-12.2599
王漸逵	-12.2599
郡開國公	-12.2599
耿定向	-12.2599
澹生堂	-12.2599
讀書附志	-12.2599
矚	-12.26
易者象也	-12.26
繄	-12.26
渇	-12.26
萬厯庚辰進士	-12.26
雛	-12.2601
怯	-12.2601
屠本畯	-12.2601
垕	-12.2601
孳孳	-12.2601
漬	-12.2601
狭	-12.2601
喉	-12.2602
佚徽州府志	-12.2602
軺	-12.2602
賻	-12.2602
梅堯臣	-12.2602
絰	-12.2602
禮部左侍郎	-12.2602
闓	-12.2603
六日七分	-12.2603
蘚	-12.2603
呉草廬	-12.2603
夤	-12.2603
亹亹	-12.2603
古文竒字	-12.2603
文王周公之辭	-12.2603
舶	-12.2603
鹤	-12.2603
顧應祥	-12.2604
張芸叟	-12.2604
延熹元年	-12.2604
齊履謙	-12.2604
舉一隅	-12.2604
廿二日	-12.2604
辝	-12.2604
魯相史晨	-12.2604
嘖	-12.2604
祕書少監	-12.2605
相為表裏	-12.2605
愻	-12.2605
劬	-12.2605
屠隆	-12.2605
腳	-12.2605
桀紂	-12.2605
晢	-12.2605
淛	-12.2605
萬厯丁丑進士	-12.2605
𤣥元皇帝	-12.2605
鎡	-12.2605
觸類而長	-12.2606
吕居仁	-12.2606
劉克莊	-12.2606
哂	-12.2606
權德輿	-12.2606
峕	-12.2606
􁅧	-12.2606
布政司參議	-12.2606
弘農太守	-12.2606
郡漢屬	-12.2606
宐	-12.2607
祖無擇	-12.2607
硤	-12.2607
偘	-12.2607
衎	-12.2607
􁶙	-12.2607
閠	-12.2607
李光弼	-12.2607
瑪	-12.2607
傭	-12.2608
輓	-12.2608
漯	-12.2608
吴通微	-12.2608
杭州府志	-12.2608
季振宜	-12.2608
沙陀	-12.2608
佶	-12.2608
􁒤	-12.2608
稟	-12.2608
此謂知本	-12.2609
袁褧	-12.2609
孔穎逹	-12.2609
徂徠	-12.2609
昃	-12.2609
禺	-12.2609
窪	-12.2609
轉運副使	-12.2609
薛道衡	-12.2609
佚金華志	-12.2609
煦	-12.2609
佚括蒼彚紀	-12.2609
迤	-12.261
駸駸	-12.261
兠	-12.261
暠	-12.261
拳	-12.261
羗	-12.261
㑓	-12.261
猜	-12.261
乞骸骨	-12.2611
[...]
