<unk>	0
<s>	0
</s>	0
。	-2.13195
,	-4.04903
者	-4.47619
也	-4.51341
故	-4.85686
▁	-4.99748
(	-5.2173
)	-5.24661
二	-5.25619
為	-5.28427
之	-5.28889
以	-5.32267
即	-5.37843
*	-5.38187
是	-5.40454
有	-5.56458
三	-5.57135
名	-5.59379
而	-5.64486
如	-5.64585
一	-5.66547
此	-5.67292
中	-5.67779
。】「	-5.68864
言	-5.71121
若	-5.72417
下	-5.76387
等	-5.80178
、	-5.84942
於	-5.85117
。」【	-5.85909
則	-5.91979
」	-5.9734
無	-5.98501
不	-5.99469
明	-6.02598
謂	-6.04032
云	-6.05639
至	-6.07925
說	-6.08812
法	-6.106
四	-6.13886
非	-6.14578
又	-6.16963
心	-6.18233
佛	-6.24908
生	-6.26852
人	-6.2689
得	-6.29205
今	-6.29799
行	-6.30206
初	-6.30543
菩薩	-6.31553
義	-6.31817
其	-6.32742
相	-6.32932
次	-6.36161
問	-6.37747
亦	-6.39919
見	-6.42374
「	-6.43761
及	-6.48121
答	-6.50254
與	-6.50556
時	-6.50569
大	-6.51874
經	-6.51879
即是	-6.52202
皆	-6.52448
從	-6.53445
因	-6.55216
自	-6.56361
觀	-6.57408
後	-6.623
上	-6.62997
通	-6.63133
身	-6.63572
釋	-6.64012
五	-6.64769
眾生	-6.6577
:	-6.66016
意	-6.66865
文	-6.67312
同	-6.71636
如來	-6.71802
前	-6.72393
;	-6.73393
本	-6.73705
事	-6.73918
故云	-6.7449
在	-6.77069
出	-6.79624
用	-6.79703
成	-6.80201
彼	-6.80533
巳	-6.81486
入	-6.81665
教	-6.82588
作	-6.83225
既	-6.83757
或	-6.83988
所	-6.84334
耶	-6.84399
但	-6.84796
我	-6.8596
然	-6.86908
別	-6.87271
論	-6.87583
能	-6.87661
。△	-6.88518
起	-6.88551
諸	-6.88696
雖	-6.88824
一切	-6.92094
智	-6.92276
應	-6.93175
知	-6.93476
修	-6.9353
理	-6.93659
解	-6.9508
由	-6.95558
等者	-6.9592
多	-6.96935
曰	-6.97324
道	-6.97501
▁二	-6.98737
令	-6.98819
果	-6.99048
譬	-6.99965
性	-7.0045
乃	-7.00494
欲	-7.01862
正	-7.02394
合	-7.03308
具	-7.0383
喻	-7.04422
緣	-7.05534
空	-7.05654
定	-7.06102
體	-7.06401
破	-7.07531
顯	-7.07956
耳	-7.08471
處	-7.08899
實	-7.09787
當	-7.0982
對	-7.09951
聞	-7.10215
如是	-7.10723
名為	-7.12328
善	-7.12486
六	-7.1399
難	-7.1474
先	-7.14986
依	-7.15228
。「	-7.16179
方便	-7.17297
眾	-7.17305
所以	-7.17348
約	-7.17738
證	-7.18022
常	-7.18197
住	-7.18548
乃至	-7.21337
記	-7.22005
復	-7.23014
門	-7.23433
不同	-7.23542
二乘	-7.2408
開	-7.26014
受	-7.26387
滅	-7.27237
涅槃	-7.28408
小	-7.28436
唯	-7.29063
立	-7.29226
分	-7.29242
》	-7.29576
取	-7.31086
可	-7.31336
離	-7.31874
十	-7.32488
?	-7.33868
矣	-7.34251
圓	-7.34592
七	-7.34839
苦	-7.35285
妙	-7.35359
是故	-7.35836
示	-7.36038
地	-7.36784
王	-7.36886
現	-7.37227
師	-7.37631
色	-7.37714
境	-7.37728
廣	-7.37731
斷	-7.38219
識	-7.38575
發	-7.39101
盡	-7.39275
子	-7.39527
位	-7.39665
異	-7.39739
方	-7.40552
未	-7.4076
隨	-7.41858
《	-7.42239
俱	-7.43132
已	-7.43244
來	-7.43516
】	-7.44202
總	-7.45391
淨	-7.45942
天	-7.45992
諸佛	-7.4654
信	-7.46677
大乘	-7.48006
念	-7.48087
第二	-7.48614
法華	-7.493
會	-7.49752
故名	-7.49868
指	-7.50406
引	-7.50488
攝	-7.50923
聲聞	-7.5115
化	-7.52449
功德	-7.52469
八	-7.52491
真	-7.52991
外	-7.53233
故言	-7.53827
樂	-7.54494
無量	-7.54574
字	-7.54666
求	-7.55135
餘	-7.5514
業	-7.56066
權	-7.56184
乎	-7.56546
分別	-7.56863
結	-7.57007
:「	-7.57271
將	-7.57993
無明	-7.58286
世尊	-7.59129
重	-7.59654
轉	-7.60305
去	-7.60563
法身	-7.60572
云云	-7.61129
何	-7.61333
頌	-7.61805
內	-7.62175
他	-7.62389
惡	-7.62929
止	-7.64621
疏	-7.65675
疑	-7.65737
數	-7.66212
必	-7.66242
不得	-7.66617
煩惱	-7.67346
深	-7.67356
須	-7.67797
不可	-7.67895
機	-7.68199
各	-7.68319
慧	-7.68552
說法	-7.69005
過	-7.69182
便	-7.6927
勝	-7.69492
除	-7.69498
具足	-7.70389
因緣	-7.70892
執	-7.70893
語	-7.71333
戒	-7.72132
請	-7.72315
此經	-7.72989
第三	-7.73019
舉	-7.73174
不知	-7.7418
水	-7.74259
表	-7.74418
且	-7.74475
略	-7.74948
持	-7.75058
九	-7.75096
共	-7.75159
並	-7.75342
兩	-7.75405
稱	-7.75942
次第	-7.75988
願	-7.76046
照	-7.76674
▁初	-7.77422
捨	-7.77671
使	-7.77777
汝	-7.7798
故知	-7.78095
著	-7.78155
況	-7.78444
云何	-7.78913
失	-7.79516
止觀	-7.7974
清淨	-7.79741
經云	-7.80017
力	-7.80256
世	-7.80505
因果	-7.80841
德	-7.80999
昔	-7.81553
屬	-7.81703
聲	-7.81869
向	-7.82055
第一	-7.82296
不能	-7.82696
遠	-7.82756
竟	-7.83649
乘	-7.83708
惑	-7.83779
宗	-7.84334
般若	-7.84586
益	-7.84854
想	-7.84896
品	-7.85228
聖	-7.8592
供養	-7.85923
之義	-7.85978
物	-7.86081
▁三	-7.8623
覺	-7.86618
更	-7.87519
少	-7.88427
近	-7.88555
生死	-7.88666
三乘	-7.89035
所謂	-7.89112
就	-7.90482
華	-7.90644
邪	-7.90974
世間	-7.92043
食	-7.93371
解脫	-7.93636
根	-7.93689
諸法	-7.93727
三昧	-7.94226
實相	-7.95208
如此	-7.95217
法界	-7.95314
報	-7.95355
悉	-7.95747
集	-7.95932
種	-7.96489
凡	-7.96829
悟	-7.97559
二者	-7.9801
施	-7.98296
動	-7.98338
極	-7.98535
辨	-7.98565
權實	-7.98642
智慧	-7.98903
種種	-7.99317
光	-7.996
藏	-8.00022
順	-8.00056
禪	-8.00806
。○	-8.01134
之法	-8.01394
音	-8.01418
思	-8.01426
度	-8.02098
何故	-8.03034
長	-8.03364
小乘	-8.03481
兼	-8.03879
學	-8.04629
障	-8.04655
利	-8.04673
歎	-8.04796
一者	-8.05011
猶	-8.05222
山	-8.05432
滿	-8.05544
假	-8.05714
迷	-8.0572
尚	-8.06023
還	-8.06027
豈	-8.06093
又云	-8.0719
居	-8.07196
此云	-8.07799
漸	-8.08213
國	-8.08694
成就	-8.08747
爾時	-8.0886
日	-8.08869
足	-8.09011
類	-8.09053
遍	-8.09057
故也	-8.10162
安	-8.10316
始	-8.10525
故曰	-8.10619
一乘	-8.10687
究竟	-8.10698
忍	-8.1094
華嚴	-8.11246
釋迦	-8.11667
病	-8.11972
一一	-8.12251
!	-8.12427
夫	-8.12543
命	-8.12595
香	-8.12877
斯	-8.12956
無有	-8.1346
三界	-8.14422
當知	-8.14596
判	-8.14692
似	-8.15028
法性	-8.15306
寶	-8.15492
三千	-8.15542
頓	-8.15602
火	-8.15691
凡夫	-8.16083
」,	-8.16322
息	-8.16325
土	-8.16491
以為	-8.16908
高	-8.17242
第四	-8.17264
四句	-8.17359
。」【△	-8.18531
中道	-8.18587
之人	-8.18752
此是	-8.1952
全	-8.19578
皆是	-8.19894
形	-8.20379
坐	-8.21157
偏	-8.21164
僧	-8.21221
一心	-8.21372
要	-8.21844
迹	-8.22126
造	-8.2224
成佛	-8.22251
菩提	-8.22346
主	-8.22514
徧	-8.22607
偈	-8.22835
被	-8.22838
比丘	-8.22892
界	-8.22924
不生	-8.22965
亦名	-8.23157
無漏	-8.23514
例	-8.23516
下明	-8.23917
計	-8.24229
述	-8.24232
而不	-8.24512
治	-8.24534
了	-8.24907
是名	-8.25036
家	-8.25251
俗	-8.25254
普	-8.25338
直	-8.25632
序	-8.25809
眼	-8.25884
無生	-8.26093
三藏	-8.26817
句	-8.27162
之相	-8.27318
達	-8.27779
歸	-8.28304
父	-8.28405
終	-8.28627
此中	-8.28951
喜	-8.29261
爾	-8.29294
往	-8.29584
於此	-8.29723
文殊	-8.29832
平等	-8.29874
城	-8.299
蓋	-8.30016
佛性	-8.30178
簡	-8.30231
別教	-8.30706
愛	-8.31121
絕	-8.31439
一念	-8.31459
神	-8.31577
亦是	-8.31981
切	-8.32067
三諦	-8.32488
加	-8.32731
風	-8.33113
修行	-8.33516
口	-8.3374
歡喜	-8.33757
習	-8.34005
進	-8.34074
劫	-8.3414
真如	-8.3423
反	-8.34298
領	-8.34761
望	-8.34887
標	-8.35183
趣	-8.35348
勸	-8.35646
獨	-8.35804
之中	-8.36043
莊嚴	-8.36169
情	-8.36294
于	-8.36474
傳	-8.36478
我等	-8.36792
所說	-8.3697
死	-8.36973
據	-8.37906
海	-8.3814
觀心	-8.38304
自在	-8.38545
法師	-8.38634
福	-8.3897
世界	-8.39258
十方	-8.3933
無常	-8.3957
遂	-8.39788
流	-8.39987
法門	-8.40148
彌勒	-8.40292
弟子	-8.4049
圓教	-8.40583
感	-8.41102
設	-8.41379
佛法	-8.41526
宜	-8.41865
舍利弗	-8.42317
親	-8.42416
何者	-8.42433
如何	-8.43043
以此	-8.43144
發心	-8.4326
易	-8.43383
之心	-8.43461
退	-8.44091
塵	-8.44257
白	-8.4453
之意	-8.44633
雙	-8.44849
授記	-8.44877
差別	-8.44925
慈悲	-8.45048
衣	-8.45134
陰	-8.45284
阿難	-8.45326
經文	-8.45526
神通	-8.45893
車	-8.46396
過去	-8.46478
亦不	-8.46492
次明	-8.46794
亦有	-8.46948
橫	-8.46971
散	-8.47239
久	-8.47448
故名為	-8.47451
人天	-8.47624
伏	-8.47712
魔	-8.47853
不見	-8.48418
染	-8.48484
變	-8.49135
女	-8.49301
列	-8.49478
大小	-8.49655
罪	-8.49815
一切眾生	-8.49842
妄	-8.49965
邊	-8.49972
.	-8.5044
哉	-8.50561
三種	-8.50949
壞	-8.51401
好	-8.51801
莫	-8.52736
到	-8.53155
禮	-8.5324
不思議	-8.53476
外道	-8.53879
金	-8.54013
恐	-8.54041
四諦	-8.54252
樹	-8.54289
行者	-8.54315
備	-8.54324
不定	-8.54585
味	-8.54639
下釋	-8.5538
仍	-8.554
有二	-8.55729
▁一	-8.56016
致	-8.56246
長者	-8.56811
鬼	-8.56863
利益	-8.56914
可知	-8.56928
齊	-8.57081
斥	-8.57122
出家	-8.57168
今經	-8.57221
并	-8.57416
蓮華	-8.57435
授	-8.58035
是則	-8.58397
許	-8.59036
精進	-8.59128
敘	-8.59158
慈	-8.59165
生滅	-8.59184
思惟	-8.59283
吾	-8.59346
讚	-8.59475
乃是	-8.59517
玄	-8.59518
一句	-8.59547
諦	-8.59891
書	-8.60079
各有	-8.60107
真實	-8.60213
不出	-8.60592
無相	-8.60689
焉	-8.60736
密	-8.60737
現在	-8.6125
待	-8.61415
而為	-8.61814
未來	-8.61897
部	-8.6199
中間	-8.62467
今文	-8.62664
無上	-8.62955
迦葉	-8.6309
十二	-8.63093
目	-8.63322
年	-8.63479
惟	-8.63828
翻	-8.63855
之言	-8.63892
玅	-8.64046
像	-8.6408
有三	-8.64194
月	-8.64276
是也	-8.64297
通教	-8.64739
增	-8.64868
觸	-8.65076
譬如	-8.65079
細	-8.65142
存	-8.65277
不二	-8.65554
第五	-8.65856
藥	-8.65924
不動	-8.66057
四教	-8.6611
名之為	-8.66269
流通	-8.66463
相應	-8.66862
麤	-8.66865
示現	-8.66967
光明	-8.67426
)。】「	-8.67645
▁四	-8.67714
舊	-8.67823
聽	-8.68251
前後	-8.68346
三世	-8.68466
註	-8.68545
一切法	-8.68565
頭	-8.68734
覆	-8.68759
二種	-8.68772
歷	-8.69161
身子	-8.69161
十地	-8.69243
三者	-8.69396
母	-8.6955
本迹	-8.69574
量	-8.69622
若不	-8.69759
內外	-8.6995
大經	-8.69984
却	-8.70171
手	-8.70628
之所	-8.70712
準	-8.70898
出世	-8.71304
尊	-8.71387
龍	-8.71396
善根	-8.71444
之文	-8.7155
若有	-8.72169
之時	-8.72234
古	-8.72238
助	-8.7255
貪	-8.72626
五百	-8.72659
亦無	-8.72705
十界	-8.72708
豈非	-8.72758
今日	-8.72912
縱	-8.73295
大眾	-8.73367
諸天	-8.73448
正明	-8.73474
無所	-8.73496
壽	-8.73663
脫	-8.73724
始終	-8.74059
推	-8.74108
常住	-8.74118
收	-8.74164
輕	-8.74491
所以者何	-8.74676
亡	-8.74708
一時	-8.74769
護	-8.74806
所有	-8.74944
尋	-8.74955
妙法	-8.74975
萬	-8.75013
章	-8.75031
告	-8.75052
之事	-8.75091
劣	-8.75206
羅漢	-8.75308
號	-8.75359
第六	-8.75787
如前	-8.75841
寂	-8.76201
咸	-8.76215
不可思議	-8.76288
葢	-8.76435
自他	-8.7665
雨	-8.76729
陳	-8.76767
欲界	-8.76853
興	-8.76879
果報	-8.77
末	-8.77077
廢	-8.77288
大論	-8.77392
獲	-8.77418
中有	-8.77526
眷屬	-8.77574
三觀	-8.77666
三德	-8.77829
六度	-8.77876
含	-8.7806
。」【○	-8.78311
根本	-8.78469
談	-8.78495
長行	-8.79212
輪	-8.79323
周	-8.79647
此即	-8.79736
無礙	-8.79934
珠	-8.80122
塔	-8.80145
隱	-8.80203
不說	-8.80251
亦爾	-8.80759
自行	-8.80863
不應	-8.80953
是為	-8.80976
而巳	-8.81344
初明	-8.81452
論云	-8.81584
千	-8.8159
四眾	-8.81774
贊曰	-8.81894
只	-8.82153
不淨	-8.82214
但是	-8.82359
事理	-8.82583
大師	-8.82587
及以	-8.82614
〉	-8.82711
強	-8.82867
百	-8.83134
此文	-8.83332
地獄	-8.83547
義也	-8.83691
無作	-8.83734
○	-8.83858
觀音	-8.8386
彰	-8.83925
之理	-8.83951
接	-8.83963
首	-8.84118
四種	-8.84179
雖有	-8.843
比	-8.84352
甚	-8.84473
經言	-8.84718
汝等	-8.84999
復有	-8.85285
善惡	-8.85372
種子	-8.85493
元	-8.85742
國土	-8.85743
寂滅	-8.85904
超	-8.8596
運	-8.85989
故以	-8.86098
五陰	-8.86617
支	-8.86631
亦復如是	-8.86975
科	-8.86978
座	-8.87028
佛言	-8.87118
聞法	-8.8719
此則	-8.87454
文云	-8.8778
微	-8.87974
違	-8.88232
〈	-8.88298
初心	-8.88312
誰	-8.88609
決	-8.88783
羅	-8.89064
化他	-8.89132
雜	-8.89159
境界	-8.89222
今此	-8.89403
功	-8.8941
半	-8.8946
其義	-8.89488
甚深	-8.89863
遣	-8.89986
故有	-8.89993
器	-8.90191
三法	-8.90493
方等	-8.90809
之名	-8.90837
諸經	-8.91105
決定	-8.91166
為說	-8.91186
無不	-8.91559
謂之	-8.91636
虗空	-8.91673
雲	-8.91681
名字	-8.91807
答曰	-8.91871
寄	-8.91903
恒	-8.91929
猶如	-8.92018
二義	-8.92107
而說	-8.92189
何以故	-8.92428
單	-8.92791
詮	-8.92847
間	-8.93073
亦云	-8.93077
唱	-8.93507
自然	-8.93604
一人	-8.9372
二頌	-8.93747
遮	-8.93815
具如	-8.93907
二諦	-8.93914
疏云	-8.94199
公	-8.94223
次釋	-8.94436
虗	-8.94534
志	-8.9474
不信	-8.95114
悲	-8.9535
皆有	-8.95356
對治	-8.9541
融	-8.95513
冥	-8.95578
受持	-8.95752
文中	-8.95771
禪定	-8.95926
舍	-8.96209
天台	-8.96384
大品	-8.96457
能生	-8.96808
諸菩薩	-8.97084
窮	-8.97185
隨喜	-8.97196
不受	-8.97484
殊	-8.9757
木	-8.97891
中云	-8.97918
經中	-8.97967
得名	-8.97994
敬	-8.9802
寺	-8.98494
脩	-8.98598
若爾	-8.98696
然後	-8.98786
制	-8.9882
互	-8.98869
亦如是	-8.98877
能所	-8.98962
癡	-8.99043
有四	-8.99145
何以	-8.99258
奉	-8.99289
緣覺	-8.99308
今明	-8.99524
邪見	-8.99555
此二	-8.99679
聖人	-8.99955
沙門	-9.00092
東	-9.00106
信解	-9.0027
財	-9.00276
棄	-9.00454
。【	-9.00481
正法	-9.00668
夢	-9.00714
專	-9.00796
申	-9.01006
夜	-9.01277
毒	-9.01455
二初	-9.01556
應知	-9.01634
最	-9.01703
曾	-9.01768
那	-9.01782
者謂	-9.01831
闕	-9.01847
今謂	-9.01853
增長	-9.01911
得道	-9.02104
見思	-9.02454
三業	-9.02943
行人	-9.02997
所見	-9.03284
辯	-9.03347
此明	-9.03417
問曰	-9.03437
下結	-9.03705
有情	-9.03823
都	-9.04031
草	-9.04033
墮	-9.04084
慢	-9.04158
固	-9.04203
聚	-9.04206
見佛	-9.04255
供	-9.04291
二明	-9.04407
節	-9.04614
救	-9.04748
【□	-9.05009
有漏	-9.05378
調	-9.05439
妙音	-9.05575
美	-9.05856
十六	-9.05865
毀	-9.06212
和	-9.06228
象	-9.06242
而言	-9.06546
平	-9.06672
遊	-9.06696
盛	-9.06705
有無	-9.06722
四明	-9.06731
不離	-9.06867
故須	-9.07061
智者	-9.07101
不退	-9.07129
資	-9.07387
此義	-9.07611
開顯	-9.07687
神力	-9.07932
於中	-9.07994
淨土	-9.08194
遇	-9.08419
初住	-9.08657
氣	-9.08691
輔行	-9.08934
亦然	-9.09045
面	-9.09232
無非	-9.09245
真諦	-9.09322
之說	-9.09323
下文	-9.09468
三身	-9.09498
一法	-9.09712
復次	-9.09724
此品	-9.09888
文句	-9.10059
賢	-9.10067
亦應	-9.10081
而有	-9.10106
為體	-9.10145
若言	-9.10326
西	-9.10392
提	-9.10436
索	-9.1061
林	-9.10708
」【	-9.10897
大悲	-9.10914
忘	-9.11099
佛道	-9.11149
置	-9.11304
作佛	-9.11317
亦可	-9.11346
沒	-9.11401
修習	-9.11414
石	-9.11503
於是	-9.11521
阿	-9.1192
藥王	-9.11975
滅度	-9.11993
所言	-9.12031
我今	-9.12033
改	-9.12165
父母	-9.12202
波	-9.12273
消	-9.12293
無為	-9.12341
新	-9.12344
放	-9.12519
現前	-9.12583
通別	-9.12735
弘經	-9.12808
普賢	-9.12833
宣	-9.12889
三教	-9.12922
此乃	-9.12956
熟	-9.12981
害	-9.13013
若以	-9.13133
安樂	-9.13134
相似	-9.1331
曲	-9.13348
譬喻	-9.13428
則有	-9.13605
不異	-9.13618
頌上	-9.13626
六根	-9.13676
路	-9.13787
此三	-9.14065
無邊	-9.14157
傍	-9.14292
金剛	-9.14484
依正	-9.14749
南	-9.14827
初地	-9.15057
四門	-9.15065
今初	-9.15374
能知	-9.15426
弘	-9.15478
之後	-9.15555
則無	-9.15577
逆	-9.1568
文殊師利	-9.15764
疾	-9.15919
梵	-9.15921
牛	-9.15958
交	-9.15987
壽量	-9.16093
空中	-9.16099
講	-9.16214
縛	-9.16413
背	-9.16486
徒	-9.16692
稟	-9.16732
成道	-9.16837
第七	-9.17012
契	-9.17143
而無	-9.1716
之道	-9.17205
既云	-9.17284
犯	-9.17293
乳	-9.17374
謗	-9.17415
誦	-9.17435
惱	-9.17465
誡	-9.17635
三寶	-9.17714
淺	-9.17739
)(	-9.17813
不為	-9.17839
殺	-9.17926
領解	-9.17964
為因	-9.18119
是人	-9.18305
帝	-9.18404
諸子	-9.18405
麁	-9.1847
亂	-9.18511
故不	-9.18519
多寶	-9.186
何得	-9.18604
懷	-9.18698
佛說	-9.18795
頂	-9.18808
倒	-9.18838
由此	-9.18847
悔	-9.18857
印	-9.18923
顛倒	-9.18929
二句	-9.19021
▁初明	-9.19322
解釋	-9.19371
以明	-9.19392
永	-9.19404
老	-9.19433
教化	-9.19467
知見	-9.19486
之處	-9.19494
皆悉	-9.19615
清	-9.19629
付	-9.19657
六道	-9.19746
竪	-9.19773
色心	-9.19774
宿	-9.20041
法輪	-9.2005
帶	-9.20067
可見	-9.20126
況復	-9.20157
自性	-9.20183
特	-9.20213
靜	-9.20284
准	-9.20351
鳥	-9.20364
其人	-9.2084
應身	-9.20937
誓	-9.20955
所依	-9.21031
服	-9.2111
而生	-9.21128
畢	-9.21203
譯	-9.21306
和合	-9.21426
勿	-9.21466
初禪	-9.21506
嚴	-9.21698
意也	-9.21704
壽命	-9.21722
觀行	-9.21859
垂	-9.21995
所得	-9.22001
第一義	-9.22135
瑞	-9.22219
乖	-9.22464
只是	-9.23306
所化	-9.2333
短	-9.23407
未得	-9.23783
暗	-9.23892
不滅	-9.23912
名曰	-9.24117
但有	-9.24148
借	-9.24259
其心	-9.24386
▁○	-9.24472
不起	-9.24521
但以	-9.24536
差	-9.2503
留	-9.25133
瓔珞	-9.25143
十一	-9.25229
隔	-9.25265
法華經	-9.25282
濟	-9.25348
注	-9.25389
旨	-9.25425
精	-9.25552
苦集	-9.2567
二十	-9.25975
穢	-9.26028
一向	-9.26074
十信	-9.26077
令其	-9.26169
室	-9.26211
言之	-9.26327
姓	-9.26347
容	-9.26367
十種	-9.2655
道品	-9.26599
一實	-9.26601
三明	-9.26719
河	-9.26734
堅	-9.26876
揀	-9.26928
總結	-9.26936
實智	-9.26998
巧	-9.27014
若無	-9.2703
拔	-9.27196
佛界	-9.27359
一切智	-9.27388
訖	-9.27587
損	-9.27635
速	-9.27803
同異	-9.28063
為一	-9.28202
無學	-9.28321
辭	-9.28339
瞋	-9.28512
熏	-9.28578
再	-9.28616
懺悔	-9.28644
自有	-9.28666
四者	-9.28737
故得	-9.28773
堂	-9.28783
如來藏	-9.28905
廣說	-9.291
經論	-9.29132
不然	-9.293
本無	-9.29308
靈	-9.29328
承	-9.29387
然此	-9.29486
濁	-9.29561
擬	-9.29657
問答	-9.29683
報身	-9.29767
陀羅尼	-9.29844
正是	-9.2993
妙覺	-9.30183
愚	-9.30211
佛果	-9.30233
分二	-9.30386
誠	-9.30394
入定	-9.30441
不識	-9.30933
點	-9.31121
感應	-9.31161
雖復	-9.31353
九界	-9.31511
為二	-9.31694
卷	-9.31844
故今	-9.31935
燒	-9.3196
不可得	-9.32005
無別	-9.32051
如文	-9.32412
何不	-9.32568
分身	-9.32651
淨名	-9.3266
可以	-9.32713
仰	-9.32749
五品	-9.32776
題	-9.3293
亦非	-9.32956
馬	-9.32994
三義	-9.33012
善男子	-9.33092
至於	-9.33213
否	-9.33213
何況	-9.33323
但云	-9.33328
此下	-9.33406
所作	-9.33507
根性	-9.33795
不住	-9.33839
此之	-9.33864
讀誦	-9.33987
第八	-9.34006
,「	-9.34048
或云	-9.34098
呪	-9.34221
緣起	-9.34225
摩	-9.34303
化城	-9.34305
讀	-9.34326
者即	-9.3444
結緣	-9.34622
勤	-9.34647
圓滿	-9.34747
熱	-9.34823
記云	-9.34825
該	-9.34837
?」	-9.34863
有人	-9.34884
得記	-9.3489
放光	-9.34921
約教	-9.34995
婆羅門	-9.35044
別圓	-9.35046
懺	-9.35066
圓融	-9.352
詳	-9.35222
巳上	-9.35273
五濁	-9.3537
無數	-9.35502
今言	-9.35545
之行	-9.35558
不言	-9.35802
五種	-9.36002
蔽	-9.36044
相即	-9.36049
所證	-9.36133
守	-9.36223
天人	-9.3625
▁五	-9.36338
諸教	-9.36409
影	-9.3644
顯實	-9.36537
開權	-9.36612
既是	-9.36613
祖	-9.36686
補	-9.3673
覩	-9.36736
二智	-9.36788
彌	-9.3679
菩薩摩訶薩	-9.36849
定慧	-9.36874
任運	-9.36958
此土	-9.37001
如是等	-9.37193
第十	-9.37201
料簡	-9.37265
局	-9.37274
其實	-9.37358
隨緣	-9.37483
不虗	-9.37491
北	-9.37503
發菩提心	-9.37519
道理	-9.3765
妨	-9.37751
最後	-9.37799
色界	-9.37858
諸眾生	-9.37955
持戒	-9.38057
性德	-9.38135
十八	-9.38178
此人	-9.38221
各各	-9.3828
法也	-9.38498
不須	-9.38873
二字	-9.38882
十二因緣	-9.38883
登	-9.38985
此約	-9.39011
落	-9.39069
法相	-9.39127
,《	-9.39135
附	-9.3921
故說	-9.39261
若約	-9.39518
繫	-9.39606
唯有	-9.39647
此法	-9.39676
得益	-9.39699
純	-9.39728
十住	-9.3984
大意	-9.39863
二邊	-9.3987
假名	-9.39903
五味	-9.40053
四禪	-9.40065
所生	-9.40168
又復	-9.4036
道場	-9.40451
阿羅漢	-9.40458
謬	-9.40459
並是	-9.40482
法中	-9.40558
修道	-9.40732
相對	-9.4082
以顯	-9.40943
得果	-9.40959
不聞	-9.41056
蒙	-9.4122
無盡	-9.41226
方便品	-9.41285
配	-9.4156
初二	-9.4161
四大	-9.41734
載	-9.41781
十法	-9.41832
肉	-9.41855
上下	-9.42001
此意	-9.42062
陀	-9.42106
不解	-9.42129
無異	-9.42157
三毒	-9.42295
皆名	-9.42307
不可說	-9.42544
應云	-9.42552
責	-9.42841
體用	-9.43047
之體	-9.43098
若能	-9.43121
之教	-9.43122
界外	-9.43129
期	-9.43196
為本	-9.43365
所明	-9.43508
十法界	-9.43542
若依	-9.4365
本有	-9.43706
又二	-9.43716
忽	-9.4376
初文	-9.43779
不取	-9.43867
佛身	-9.43888
導師	-9.4405
婆	-9.44171
無二	-9.44194
鹿苑	-9.44305
釋云	-9.44351
闇	-9.44406
淨心	-9.44415
不斷	-9.44422
心性	-9.44483
患	-9.44631
儀	-9.44791
代	-9.44803
無色	-9.44812
鼻	-9.44878
漏	-9.44917
理性	-9.44944
有所	-9.44975
開合	-9.45008
爾時世尊	-9.4504
律	-9.45082
鈍	-9.45121
修觀	-9.45157
最初	-9.45378
不覺	-9.45436
恩	-9.45501
有異	-9.45516
導	-9.45541
不成	-9.45583
而起	-9.45631
四悉	-9.45636
。」【【■	-9.45652
正說	-9.45702
若論	-9.45707
潤	-9.45708
舍利	-9.45889
非是	-9.45914
身心	-9.45985
賊	-9.46096
悉皆	-9.46136
念處	-9.46304
免	-9.46357
隨順	-9.46381
是以	-9.46426
舌	-9.46482
鏡	-9.46698
先明	-9.46823
一往	-9.46899
不復	-9.46946
而得	-9.46963
怨	-9.47099
即空	-9.47214
則是	-9.47235
合上	-9.47235
亦如	-9.47307
一切種智	-9.4733
前三	-9.47463
有二種	-9.47519
總別	-9.47672
廣大	-9.47697
降	-9.47698
發起	-9.47767
佛所	-9.47852
學者	-9.47861
持經	-9.47929
教門	-9.47945
第九	-9.47996
於彼	-9.48097
不失	-9.48167
智斷	-9.48203
呼	-9.48231
減	-9.48314
今以	-9.48399
之因	-9.48416
涉	-9.48499
音聲	-9.4854
圓頓	-9.48618
開權顯實	-9.48748
黑	-9.48834
醍醐	-9.48962
一家	-9.48979
境智	-9.48983
伹	-9.49002
亦得	-9.49096
為三	-9.4918
地前	-9.49517
分明	-9.49561
訓	-9.49689
凡聖	-9.49772
三周	-9.49897
預	-9.49971
其意	-9.5
寧	-9.50031
觀法	-9.50044
召	-9.50072
大法	-9.50078
十五	-9.50242
本門	-9.50268
剎那	-9.50288
發願	-9.50333
適	-9.50333
十四	-9.50565
等覺	-9.50602
:『	-9.50697
即以	-9.50722
虛	-9.50755
質	-9.50825
一行	-9.50832
幻	-9.50866
入涅槃	-9.50886
名義	-9.50891
己	-9.50907
必須	-9.50914
有五	-9.50957
。」【(	-9.50997
因中	-9.51151
意者	-9.51157
住持	-9.5122
或有	-9.51239
畢竟	-9.51247
則知	-9.51331
當體	-9.51423
演	-9.51443
功能	-9.51506
支佛	-9.51699
士	-9.51786
燈	-9.51841
歲	-9.51938
之性	-9.52009
希有	-9.52034
州	-9.52095
行相	-9.5224
五欲	-9.52243
本來	-9.52257
視	-9.52308
彼佛	-9.52329
任	-9.52382
太	-9.52424
彼經	-9.52655
之本	-9.52681
相續	-9.52737
利根	-9.52824
人法	-9.52832
諸文	-9.52971
有此	-9.52989
以其	-9.52993
沙	-9.53072
不及	-9.53122
若人	-9.53128
權智	-9.53188
貴	-9.53246
是時	-9.53329
必有	-9.53366
三句	-9.53393
男	-9.53398
師子	-9.53406
池	-9.53436
無量無邊	-9.53511
立名	-9.53593
染淨	-9.53692
梵王	-9.5373
青	-9.53731
七寶	-9.5376
法者	-9.53885
宅	-9.53962
牒	-9.54043
幾	-9.54265
豈可	-9.54332
界內	-9.54422
東方	-9.54441
朝	-9.54448
善知識	-9.54489
見道	-9.54536
引證	-9.54554
斷惑	-9.54579
詣	-9.54648
曉	-9.54947
微妙	-9.55008
傷	-9.55224
人也	-9.55224
驗	-9.55256
骨	-9.55272
迦	-9.55281
無情	-9.55421
既有	-9.55455
轉法輪	-9.555
有一	-9.55564
最勝	-9.55582
委	-9.55626
以下	-9.55672
化身	-9.55672
昔日	-9.55711
。】△	-9.55711
無間	-9.55713
威儀	-9.55822
無我	-9.5585
結成	-9.55881
不了	-9.56002
須知	-9.56104
臣	-9.56299
典	-9.56317
群	-9.56342
誓願	-9.56378
積	-9.56426
端	-9.56428
之身	-9.56442
演說	-9.56549
其中	-9.56598
四念處	-9.56652
日月	-9.56721
皆得	-9.5682
無性	-9.56864
大士	-9.56987
垢	-9.57052
如上	-9.57262
尊者	-9.57263
段	-9.57291
正因	-9.57312
生身	-9.57449
二人	-9.5755
女人	-9.57616
五時	-9.57622
一種	-9.57662
值	-9.57734
虛空	-9.57771
男女	-9.578
故此	-9.57852
迹門	-9.57855
法說	-9.58132
養	-9.58256
無畏	-9.58399
迴	-9.58447
此等	-9.58493
急	-9.58575
上來	-9.58615
多少	-9.5865
所行	-9.5876
堅固	-9.5884
謝	-9.5884
安隱	-9.58848
變易	-9.5886
之機	-9.58969
之旨	-9.59033
餘經	-9.59167
驚	-9.5932
若欲	-9.59341
如經	-9.59524
故稱	-9.59663
苦諦	-9.59737
貪欲	-9.59819
文字	-9.59847
憂	-9.59921
今云	-9.60082
慮	-9.60205
總持	-9.60344
安樂行	-9.60415
無復	-9.60533
佛乘	-9.60556
時節	-9.60568
其所	-9.60638
錄	-9.60702
源	-9.6074
七日	-9.60775
而說偈言	-9.6081
即有	-9.60937
處處	-9.60943
此言	-9.61192
遠離	-9.61282
性相	-9.6139
臨	-9.61444
二乘人	-9.61542
世人	-9.61673
生佛	-9.61812
今家	-9.61883
秖是	-9.61948
厭	-9.62085
利他	-9.62111
不爾	-9.62173
託	-9.62179
原	-9.62207
等也	-9.6222
福德	-9.62221
何所	-9.62323
之用	-9.62329
畏	-9.62348
夏	-9.62352
唯一	-9.6237
寂光	-9.6247
布施	-9.62548
皆以	-9.62566
星	-9.62619
不名	-9.62687
豈不	-9.62722
能破	-9.62769
為人	-9.62854
薄	-9.62922
於佛	-9.62956
宮	-9.6296
住於	-9.6305
娑婆	-9.63055
礙	-9.63095
之功	-9.63143
折	-9.63152
何等	-9.63184
前文	-9.63185
惡業	-9.63235
徹	-9.6329
則為	-9.63347
豎	-9.63409
的	-9.63496
之力	-9.63608
塞	-9.63619
佛智	-9.63658
越	-9.6367
十乘	-9.63678
不如	-9.63681
令得	-9.63714
底	-9.63733
久遠	-9.63749
王子	-9.63868
大經云	-9.6396
尼	-9.64061
疏主	-9.64064
為實	-9.641
訶	-9.64188
茲	-9.6419
濫	-9.64443
念念	-9.64465
是佛	-9.64502
付囑	-9.64634
讚歎	-9.64785
安心	-9.64807
之境	-9.64812
輔行云	-9.64827
所知	-9.6484
天眼	-9.64915
堪	-9.64955
淺深	-9.64975
此四	-9.65192
一生	-9.654
統	-9.65406
田	-9.6558
累	-9.65664
利鈍	-9.65667
勢	-9.657
疎	-9.65701
如彼	-9.65719
仁	-9.65738
暫	-9.65907
故能	-9.65911
義同	-9.65919
帝釋	-9.66015
恭敬	-9.66227
妙法蓮華經	-9.66249
漸頓	-9.66273
滅後	-9.66315
徵	-9.66334
狹	-9.66363
嘆	-9.66421
稍	-9.66472
三道	-9.66598
未曾	-9.66648
應以	-9.66653
忍辱	-9.66736
皆為	-9.66966
幽	-9.66984
善法	-9.67023
怖畏	-9.67048
百千	-9.67049
不許	-9.6707
天下	-9.67124
民	-9.67137
在於	-9.67185
檀	-9.67385
文義	-9.67507
得入	-9.67542
應作	-9.67572
飲食	-9.6758
苦行	-9.67623
防	-9.6777
緣了	-9.67777
廣明	-9.67844
展轉	-9.67867
每	-9.68064
諸比丘	-9.68081
魚	-9.68144
從此	-9.68176
不明	-9.68178
良	-9.68217
相好	-9.68273
古人	-9.6828
遺	-9.68367
一切諸法	-9.68379
諍	-9.68401
既無	-9.68419
之果	-9.68431
私	-9.68452
良由	-9.68464
內心	-9.68481
招	-9.68501
修性	-9.68527
無量義	-9.68616
所詮	-9.68705
種性	-9.68816
同時	-9.69258
一品	-9.69375
他人	-9.69397
花	-9.69428
觀察	-9.69441
不盡	-9.69672
無始	-9.69747
道諦	-9.69794
之由	-9.69812
▁【	-9.69851
為正	-9.70017
逐	-9.70039
非但	-9.70061
際	-9.70065
故無	-9.70239
更有	-9.70312
則不	-9.70328
諸行	-9.70394
移	-9.70398
及諸	-9.70524
滯	-9.70532
二釋	-9.70577
是法	-9.70622
安住	-9.70824
人中	-9.70829
一部	-9.70835
一分	-9.70926
他方	-9.70953
釋名	-9.71088
四法	-9.71142
懸	-9.71173
亦復	-9.71175
有云	-9.71337
鉢	-9.71412
異名	-9.71536
破無明	-9.71545
自心	-9.71634
唯識	-9.7176
即得	-9.71902
草木	-9.71951
怖	-9.71997
中說	-9.72148
三車	-9.72156
究	-9.72223
虗妄	-9.72261
賜	-9.72396
續	-9.72499
現身	-9.72602
擊	-9.72614
所攝	-9.7269
揚	-9.72737
前二	-9.7274
不善	-9.72755
泯	-9.72885
下約	-9.72892
不著	-9.72943
有十	-9.72946
生起	-9.73008
同一	-9.73116
建立	-9.73163
太子	-9.73212
何須	-9.73307
奪	-9.73342
皆云	-9.73346
龍女	-9.7338
釋曰	-9.73405
佛慧	-9.7341
此釋	-9.73484
開示	-9.73516
親近	-9.73548
能令	-9.73591
布	-9.73679
而能	-9.73762
非謂	-9.73792
增上慢	-9.73827
藏通	-9.73842
五乘	-9.73871
關	-9.73945
按	-9.74021
初句	-9.74091
二門	-9.74128
大車	-9.74188
合掌	-9.74357
佛子	-9.74436
滅諦	-9.74573
次約	-9.74689
析	-9.748
論曰	-9.74923
塵沙	-9.74963
建	-9.75026
玄文	-9.75029
八萬	-9.75038
其身	-9.75061
又如	-9.751
未盡	-9.75118
法王	-9.75138
萬行	-9.75211
氏	-9.75236
不共	-9.75365
客	-9.75442
是實	-9.7551
通達	-9.75616
葉	-9.75747
默	-9.7576
說之	-9.75787
返	-9.75848
稱歎	-9.75949
酬	-9.75954
長短	-9.7597
不以	-9.75978
辟支佛	-9.76035
不退轉	-9.76133
正釋	-9.76235
雙非	-9.76258
窮子	-9.7628
嗔	-9.76421
鼓	-9.76667
▁二釋	-9.7675
應化	-9.76821
有餘	-9.76827
▁「	-9.76872
惡道	-9.76895
兒	-9.76994
倍	-9.77025
說經	-9.77107
輪王	-9.77253
藉	-9.77272
不論	-9.77389
阿含	-9.7745
八地	-9.77459
無住	-9.77466
俗諦	-9.77567
赤	-9.7759
俱舍	-9.77606
上品	-9.777
雖無	-9.77743
心中	-9.77754
所成	-9.77834
鈍根	-9.77912
而論	-9.77968
四行	-9.78007
說一乘	-9.78096
追	-9.78114
通於	-9.78164
正觀	-9.78168
稱為	-9.78226
看	-9.7823
無記	-9.78324
論文	-9.78347
三十	-9.78378
泥	-9.7841
三頌	-9.7857
目連	-9.78658
寶塔	-9.78751
又曰	-9.78782
悅	-9.78811
十行	-9.78839
刀	-9.78846
希	-9.78884
露	-9.79025
彼此	-9.79068
懈怠	-9.79093
毛	-9.79144
大論云	-9.79255
分段	-9.79259
一味	-9.79262
竝	-9.79271
然則	-9.79325
聞經	-9.79347
十如	-9.79377
黃	-9.79399
普門	-9.794
妙境	-9.79426
前明	-9.79475
若是	-9.79476
初釋	-9.79575
早	-9.79671
誤	-9.79692
能持	-9.79703
釋疑	-9.79725
意識	-9.79738
以釋	-9.7974
十三	-9.79853
說也	-9.79932
不妨	-9.80026
西方	-9.80177
不在	-9.80179
若作	-9.80189
波若	-9.80222
不與	-9.80317
問訊	-9.80379
未有	-9.80401
不空	-9.80403
毗	-9.80453
佛眼	-9.8047
意在	-9.80478
佛為	-9.80505
即此	-9.80534
釋之	-9.80583
由是	-9.80691
既爾	-9.80691
大機	-9.80693
是菩薩	-9.80726
不合	-9.80797
三人	-9.80842
須彌	-9.80859
無知	-9.80997
投	-9.81009
君	-9.81019
億	-9.81025
天子	-9.81042
欲令	-9.81071
蓮	-9.81147
相也	-9.8133
餓鬼	-9.8136
大王	-9.81406
絕待	-9.81409
種智	-9.8143
釋籤	-9.81513
豈有	-9.81606
如佛	-9.81615
三品	-9.81723
寶所	-9.81775
飛	-9.81798
之與	-9.81841
啟	-9.8188
寂靜	-9.81883
一頌	-9.8195
能見	-9.82143
寬	-9.82157
十善	-9.82188
此翻	-9.82278
四方	-9.82287
篇	-9.82337
法體	-9.82429
橫竪	-9.82433
章安	-9.82497
開佛知見	-9.82515
故非	-9.8253
為緣	-9.82583
偈云	-9.82587
抑	-9.82603
逢	-9.82615
一切世間	-9.82847
二禪	-9.82989
火宅	-9.82998
不輕	-9.8308
一性	-9.83121
跡	-9.83218
若干	-9.83243
初標	-9.83344
無緣	-9.83363
乞	-9.83431
滿足	-9.8352
以是	-9.83546
之德	-9.83598
不可以	-9.83645
五行	-9.83669
梵行	-9.83675
義故	-9.83733
三根	-9.83794
赴	-9.83808
至此	-9.83845
六即	-9.83851
不壞	-9.83908
隨機	-9.84032
佛告	-9.84059
階	-9.84098
貫	-9.84189
非真	-9.84247
角	-9.84282
圖	-9.84384
昏	-9.84417
道滅	-9.84617
旋	-9.8463
若從	-9.8471
昧	-9.84761
可得	-9.84812
慕	-9.84874
妄想	-9.84914
三智	-9.84925
浮	-9.84943
是事	-9.84976
得聞	-9.85011
相待	-9.85089
上文	-9.85091
念佛	-9.85177
入道	-9.85182
之語	-9.85256
說者	-9.85306
之位	-9.85344
二法	-9.85348
祇	-9.85365
所緣	-9.85384
之智	-9.85471
無餘	-9.85484
也又	-9.85595
未能	-9.85675
為名	-9.85675
無著	-9.85685
有三種	-9.85725
入空	-9.85813
七地	-9.85895
之眾	-9.85929
別明	-9.8596
思之	-9.85972
終不	-9.86007
可解	-9.86221
符	-9.8632
是知	-9.86367
下根	-9.86385
退大	-9.86405
畜生	-9.86438
住處	-9.86638
是經	-9.86703
連	-9.86777
微塵	-9.8681
中有二	-9.86815
中二	-9.86864
相違	-9.86892
▁二若	-9.86915
第	-9.86922
行因	-9.86994
右	-9.87094
即成	-9.87123
離合	-9.87199
出生	-9.87231
須菩提	-9.87313
愍	-9.87423
此亦	-9.87482
。』	-9.87581
不求	-9.87625
國王	-9.87713
淨穢	-9.8779
當機	-9.87818
相者	-9.87922
方名	-9.87924
總名	-9.8797
總明	-9.87994
十七	-9.88062
富	-9.88067
某	-9.88107
無差別	-9.88175
通論	-9.88239
詞	-9.88264
欣	-9.88359
依報	-9.88375
一日	-9.88411
釋成	-9.8856
愈	-9.88579
不思議境	-9.88674
十九	-9.88701
妙玄	-9.88704
此方	-9.88709
能通	-9.8885
冠	-9.88875
甘露	-9.88912
如人	-9.88928
別釋	-9.88939
亦以	-9.88995
光宅	-9.89124
六種	-9.89179
聽法	-9.89227
善哉	-9.89239
行道	-9.89259
▁初釋	-9.89273
」「	-9.89372
諸惡	-9.89399
偏圓	-9.89493
賢聖	-9.89493
答言	-9.89512
官	-9.89634
唯心	-9.89699
五十	-9.89718
三事	-9.89826
唯在	-9.89949
餘三	-9.90027
之前	-9.90063
之異	-9.90102
大海	-9.90158
張	-9.90255
本是	-9.90325
梵天	-9.90366
佛知見	-9.90435
寒	-9.90458
大千	-9.90473
秖	-9.90475
初約	-9.90476
變化	-9.90529
有二義	-9.90566
玄義	-9.90606
今佛	-9.90698
所引	-9.90726
陽	-9.9074
尊特	-9.90775
佛土	-9.90831
漢	-9.90839
愚癡	-9.90866
如實	-9.90924
佛意	-9.90926
非實	-9.90955
輩	-9.90958
荊溪	-9.91075
酒	-9.91097
何名	-9.91098
諸法實相	-9.91155
心法	-9.9116
多聞	-9.91261
蘊	-9.91286
五根	-9.91301
經曰	-9.91306
鳴	-9.91317
而非	-9.91341
余	-9.91406
此心	-9.91413
秦	-9.91474
▁二頌	-9.91492
頌合	-9.91683
論中	-9.91714
狀	-9.91717
依止	-9.91808
唱滅	-9.91854
里	-9.91991
飲	-9.9205
師曰	-9.92096
不用	-9.92128
方法	-9.92147
扶	-9.92184
宛然	-9.9219
上根	-9.92281
入滅	-9.92292
無差	-9.92336
龍樹	-9.92585
罵	-9.92601
空觀	-9.92606
略明	-9.9263
即便	-9.92692
一云	-9.92875
非一	-9.92929
自知	-9.92987
非無	-9.93033
理觀	-9.93056
佛之	-9.93187
戲	-9.93199
顯示	-9.93327
修證	-9.93339
初果	-9.9335
集諦	-9.93373
伽	-9.93473
凡有	-9.93507
背捨	-9.9351
又以	-9.93612
不變	-9.93632
若云	-9.93734
負	-9.93984
文也	-9.94029
比丘尼	-9.9407
自謂	-9.94085
八萬四千	-9.94091
殘	-9.94152
護持	-9.94187
正為	-9.94291
唐	-9.94329
四果	-9.94359
能詮	-9.94375
偈頌	-9.94388
果也	-9.94404
便是	-9.94458
一偈	-9.94479
波羅蜜	-9.94604
獄	-9.94688
應當	-9.94693
思議	-9.94729
正宗	-9.94781
為大	-9.9488
不行	-9.94883
五道	-9.95
與記	-9.95057
文意	-9.95059
迹中	-9.95063
心生	-9.95084
仙	-9.95161
生疑	-9.95161
為四	-9.95192
鬼神	-9.95194
大涅槃	-9.95199
缺	-9.95301
中根	-9.95316
觀者	-9.95354
網	-9.95362
二子	-9.95402
不云	-9.95438
恒沙	-9.95577
因此	-9.95577
途	-9.95586
不具	-9.95606
若見	-9.95698
若得	-9.95707
不立	-9.95722
十妙	-9.95785
方得	-9.95792
偽	-9.95835
威	-9.9588
隨其	-9.95911
靈山	-9.9594
一門	-9.96042
厚	-9.96107
而復	-9.96123
說法華	-9.96171
旁	-9.96181
結集	-9.96185
之上	-9.96333
約行	-9.9652
真理	-9.96562
不作	-9.96666
七種	-9.96695
教道	-9.96772
不捨	-9.96796
古今	-9.96873
互相	-9.96888
說此經	-9.96939
少分	-9.96944
福慧	-9.97048
非有	-9.97071
行也	-9.97321
梵語	-9.97472
有為	-9.97515
時眾	-9.97521
無機	-9.97593
步	-9.97596
四義	-9.97607
。(△	-9.97623
無能	-9.97662
煩	-9.97795
入於	-9.97811
空寂	-9.97873
一切皆	-9.98057
眾多	-9.98061
初後	-9.98099
三千大千世界	-9.98101
既不	-9.98182
之外	-9.98319
大地	-9.98397
問何故	-9.98445
)。△	-9.98447
於前	-9.98476
百千萬億	-9.98664
智力	-9.98665
世諦	-9.98674
誘	-9.9874
眠	-9.9875
迴向	-9.98834
玉	-9.98851
臺	-9.98876
所起	-9.98954
牽	-9.98958
分三	-9.98981
其文	-9.99086
真俗	-9.9911
等事	-9.99152
不是	-9.99167
證得	-9.99168
第二明	-9.99179
苟	-9.99195
八十	-9.99231
勅	-9.99294
十力	-9.99324
臥	-9.99341
一處	-9.99351
宮殿	-9.99387
或言	-9.99398
佛地	-9.99575
身口	-9.99642
生善	-9.99663
若於	-9.99688
法空	-9.99723
現行	-9.99726
剎	-9.99734
為欲	-9.99757
所破	-9.99758
信受	-9.99784
教行	-9.99786
不入	-9.9985
性具	-9.99896
兵	-9.99897
一相	-9.99989
喚	-10
貧	-10.0002
而今	-10.0012
畜	-10.0015
意謂	-10.0018
醫	-10.0022
本願	-10.0046
加行	-10.0049
慶	-10.0049
七方便	-10.005
冷	-10.0054
不生不滅	-10.0054
攬	-10.0055
予	-10.0062
一體	-10.0065
八部	-10.0068
後二	-10.007
敷	-10.0071
三十二相	-10.0074
三因	-10.0077
狂	-10.009
空假	-10.0094
宋	-10.0099
名相	-10.0102
幸	-10.0105
聞者	-10.0109
約理	-10.0117
雖不	-10.0117
施權	-10.0127
摩訶衍	-10.0129
避	-10.0132
兩句	-10.0137
之類	-10.0139
繁	-10.014
束	-10.014
術	-10.0146
正道	-10.0152
娑婆世界	-10.0152
略說	-10.0153
婆沙	-10.0168
囑累	-10.0173
無窮	-10.0174
有何	-10.0179
釋論	-10.0182
於一	-10.0183
痛	-10.0184
助道	-10.0192
行處	-10.0195
下引證	-10.0199
以成	-10.0202
勞	-10.0214
明矣	-10.0228
拜	-10.0231
春	-10.0234
向上	-10.0235
四生	-10.024
小機	-10.0247
出入	-10.0248
心不	-10.0255
耶答	-10.0259
萬德	-10.026
為妙	-10.0265
善巧	-10.0265
般	-10.0268
本覺	-10.0273
又有	-10.0274
觀於	-10.0274
即指	-10.0277
十方諸佛	-10.0282
送	-10.0282
次引	-10.0284
正見	-10.0285
巳得	-10.0289
無疑	-10.0298
不虛	-10.0301
乾	-10.0301
三十二	-10.0303
身中	-10.0304
此間	-10.0305
延	-10.0307
知其	-10.0307
調伏	-10.031
是權	-10.0314
憑	-10.0318
巳後	-10.0349
下品	-10.0354
若非	-10.0357
方能	-10.0376
左	-10.0379
軌	-10.038
審	-10.0384
譬說	-10.0387
之妙	-10.0387
二偈頌	-10.0387
。【■	-10.0388
法故	-10.0395
得解	-10.0399
無上道	-10.0402
所聞	-10.0403
前云	-10.0403
教相	-10.0407
莫不	-10.0408
出假	-10.0416
拂	-10.0417
命終	-10.042
六根清淨	-10.0424
非不	-10.0427
開發	-10.0435
殊勝	-10.044
為宗	-10.0441
慈心	-10.0442
觀世音	-10.0447
俱有	-10.0462
白佛言	-10.0467
珍寶	-10.0467
秘密	-10.0469
閑	-10.0479
迴心	-10.0497
作此	-10.0498
未見	-10.05
蟲	-10.0502
枝	-10.0506
沈	-10.0512
五者	-10.0516
我見	-10.0519
不久	-10.0522
皆具	-10.0527
依此	-10.0527
即能	-10.0528
▁六	-10.0531
是一	-10.0534
或見	-10.0538
三結	-10.0539
明其	-10.055
喪	-10.0552
同體	-10.0552
不肯	-10.0552
三性	-10.0553
逗	-10.0558
中論	-10.056
二行	-10.0561
漸漸	-10.0561
憶	-10.0562
默然	-10.0566
教理	-10.0576
今欲	-10.0579
妙光	-10.0593
秋	-10.0597
言說	-10.0605
有六	-10.0609
不相	-10.0609
實報	-10.0609
護法	-10.0618
信心	-10.0619
離諸	-10.0624
之別	-10.0628
不敢	-10.0634
博	-10.0643
丈六	-10.0649
弊	-10.0652
有大	-10.0652
保	-10.0659
四十	-10.0665
而後	-10.0666
體性	-10.0677
五人	-10.0682
無所畏	-10.0689
巳下	-10.069
初又二	-10.0691
》,	-10.0695
同居	-10.0698
得未曾有	-10.0701
仙人	-10.0704
性空	-10.0704
甞	-10.071
如意	-10.0712
鹿	-10.0714
為果	-10.0718
梁	-10.0724
貪著	-10.0727
禁	-10.0729
緣生	-10.0734
增上	-10.0736
不過	-10.0739
遠近	-10.0745
法師品	-10.0762
實無	-10.0762
答疏言	-10.0763
大事	-10.0771
為難	-10.0785
於後	-10.0789
或說	-10.0799
於理	-10.0803
此名	-10.0811
乞食	-10.0817
打	-10.082
乃以	-10.0826
修多羅	-10.0835
回	-10.0839
敢	-10.0841
祕密	-10.0843
教也	-10.0845
如云	-10.0846
融通	-10.0851
說三乘	-10.0854
聞說	-10.0855
無方	-10.0861
人間	-10.0861
摩訶	-10.0866
江	-10.0867
教法	-10.0869
童子	-10.0872
通名	-10.0878
生於	-10.0879
所修	-10.0879
應供	-10.0879
妙行	-10.0881
弱	-10.0884
得此	-10.0887
即前	-10.0888
千二百	-10.0891
勸信	-10.0897
所顯	-10.0903
未知	-10.0903
雖是	-10.0905
蕩	-10.0906
了知	-10.0913
機緣	-10.0914
無所有	-10.0916
於諸	-10.092
大聖	-10.092
明了	-10.0931
履	-10.0934
今既	-10.0935
若就	-10.0935
驚怖	-10.0939
錢	-10.0945
四德	-10.0945
本末	-10.0953
者即是	-10.0959
充	-10.096
與前	-10.0962
俱是	-10.0967
習氣	-10.097
緣因	-10.097
一切諸	-10.0973
胡	-10.0979
三途	-10.098
老死	-10.0981
而成	-10.0983
前來	-10.0986
得見	-10.0989
真性	-10.0993
復以	-10.0997
鐵	-10.1005
獸	-10.1006
皆由	-10.1014
得失	-10.1041
餘人	-10.1042
各別	-10.105
書寫	-10.1057
錯	-10.1064
狗	-10.1067
位也	-10.1071
何謂	-10.1076
極果	-10.1076
自證	-10.1082
未必	-10.1088
但明	-10.1089
釋義	-10.109
利物	-10.1099
下正明	-10.1102
雙照	-10.1103
何處	-10.1113
擬宜	-10.1114
有門	-10.1114
今從	-10.1114
中之	-10.1118
尸	-10.1121
觀之	-10.1121
得菩提	-10.1123
四智	-10.1124
一一皆	-10.1127
修羅	-10.1133
御	-10.1134
語言	-10.1138
通塞	-10.114
此理	-10.1146
或以	-10.1149
了因	-10.1149
升	-10.115
夜叉	-10.1151
皮	-10.1163
不無	-10.1175
補處	-10.1181
下引	-10.1189
教化眾生	-10.1192
天竺	-10.1193
能觀	-10.1194
清涼	-10.1195
為他	-10.1197
一身	-10.1199
天王	-10.1201
三禪	-10.1201
聖道	-10.1202
濕	-10.1207
囑	-10.1216
庶	-10.1216
呵	-10.1217
鈔	-10.1221
不別	-10.1224
菩薩行	-10.1227
尚不	-10.123
二空	-10.1231
眾人	-10.1241
其名	-10.1244
根塵	-10.1245
理一	-10.125
受記	-10.1251
等三	-10.1251
一切諸佛	-10.1257
知識	-10.1258
略舉	-10.1268
最上	-10.1272
守護	-10.128
稱名	-10.1285
不必	-10.129
諸根	-10.1291
初問	-10.1291
閻浮提	-10.1302
若聞	-10.1303
性惡	-10.1304
其相	-10.131
其體	-10.1329
得悟	-10.1332
問云	-10.1334
唯佛	-10.1346
與佛	-10.1349
見聞	-10.1351
見者	-10.1354
諸人	-10.1356
等文	-10.1359
不實	-10.1361
今昔	-10.1363
具有	-10.1368
成佛道	-10.1373
三慧	-10.1375
夷	-10.1377
侍者	-10.1382
三一	-10.1382
心無	-10.139
八相	-10.1391
正覺	-10.1391
▁二明	-10.1394
無垢	-10.1408
義者	-10.1413
章門	-10.1416
噉	-10.1419
故是	-10.142
圓人	-10.142
酪	-10.1421
藥草	-10.1422
獨覺	-10.1422
吐	-10.1425
說法華經	-10.1425
令知	-10.1431
所釋	-10.1431
戒環曰	-10.1439
諸師	-10.1447
不殊	-10.1448
如幻	-10.1465
參	-10.1467
禮拜	-10.1473
觀智	-10.1477
饒益	-10.1477
贊	-10.1479
暢	-10.1482
孤	-10.1494
釋者	-10.1498
二約	-10.1499
實有	-10.1499
諸見	-10.1507
先釋	-10.151
而作	-10.1516
楞嚴	-10.1518
繼	-10.1521
一佛	-10.1539
納	-10.1547
何別	-10.1548
之實	-10.1552
有相	-10.1558
亦能	-10.1562
令入	-10.1564
於法	-10.1583
一名	-10.1584
八識	-10.1593
意言	-10.1596
此事	-10.1597
在家	-10.1598
三初	-10.1601
勝劣	-10.1607
惠	-10.1608
初頌	-10.1608
下正釋	-10.1613
三假	-10.1617
二云	-10.162
沙彌	-10.1625
吉	-10.163
始從	-10.1635
同也	-10.1636
威德	-10.1646
三藏教	-10.1649
菩提心	-10.1649
儒	-10.1649
撿	-10.165
大教	-10.1654
奇	-10.1658
名色	-10.1658
睡	-10.1663
二十五	-10.1667
身業	-10.1668
正當	-10.1669
樓	-10.1674
樹下	-10.1677
猶未	-10.1682
之地	-10.1686
撰	-10.1686
所觀	-10.1696
龍王	-10.1697
不足	-10.1699
來意	-10.17
真空	-10.1703
本具	-10.1703
檢	-10.1708
議	-10.171
禪師	-10.1713
一千	-10.1715
即為	-10.1718
作意	-10.1719
正報	-10.172
良以	-10.1725
幢	-10.1727
苦樂	-10.1727
軍	-10.173
涅槃經	-10.1734
夫人	-10.1735
侍	-10.1738
閉	-10.1739
此初也	-10.1741
柔軟	-10.1742
遙	-10.1752
不當	-10.1752
若謂	-10.1754
登地	-10.1764
均	-10.1764
以彼	-10.1764
更不	-10.1766
無心	-10.1767
哀	-10.1771
等四	-10.1772
燈明	-10.1774
謹	-10.1777
蛇	-10.1783
悟入	-10.1785
為證	-10.1785
以證	-10.179
更無	-10.1795
一音	-10.1799
大道	-10.1803
三段	-10.1805
可謂	-10.1805
此為	-10.1808
而為說法	-10.181
今依	-10.1819
阿耨多羅三藐三菩提	-10.1822
秘	-10.1823
一代	-10.1825
一期	-10.1835
巳去	-10.1835
正顯	-10.1839
他土	-10.1846
人民	-10.185
)。」【【■	-10.1851
廣略	-10.1867
其餘	-10.1873
故使	-10.1875
覺觀	-10.1875
盲	-10.188
走	-10.1884
自體	-10.1887
出三界	-10.1888
爾時世尊欲重宣此義而說偈言	-10.1888
妙理	-10.1895
慧命	-10.1895
笑	-10.1897
處所	-10.1905
六塵	-10.1909
闡提	-10.1911
心所	-10.1916
師云	-10.1918
斷見	-10.1927
舍那	-10.1933
乃云	-10.1942
無色界	-10.1943
殿	-10.1946
定性	-10.1947
此頌	-10.1952
居士	-10.1953
竹	-10.1958
法眼	-10.1961
無想	-10.1966
校	-10.1975
二十四	-10.1978
但言	-10.1979
當來	-10.1981
之門	-10.1992
血	-10.1993
頓漸	-10.1995
受生	-10.1997
研	-10.2001
生法	-10.2002
萬法	-10.2006
大智	-10.2007
佛滅度後	-10.2009
拘	-10.202
是我	-10.2023
之樂	-10.2029
豈得	-10.2033
諸善男子	-10.2038
以喻	-10.2039
入實	-10.2039
功用	-10.2041
上明	-10.2045
但為	-10.2046
色身	-10.2051
鶖子	-10.2054
卒	-10.2055
植	-10.2056
克	-10.2059
務	-10.2071
伴	-10.2089
且約	-10.2089
斷結	-10.209
智積	-10.2094
經意	-10.2095
即具	-10.2095
法華三昧	-10.2097
戰	-10.2101
腹	-10.2109
說此	-10.211
無量義經	-10.2117
大慈	-10.2118
自利	-10.2124
混	-10.2125
聲聞緣覺	-10.2131
諸有	-10.2134
得佛	-10.2134
齒	-10.2136
益物	-10.2138
巳來	-10.2142
于時	-10.2146
是非	-10.2153
沉	-10.2153
門中	-10.216
甚多	-10.2161
從初	-10.2166
端正	-10.2167
四悉檀	-10.2168
實際	-10.2169
圓妙	-10.217
九地	-10.217
總標	-10.2172
見惑	-10.2179
在後	-10.2184
既言	-10.2185
果上	-10.2189
各具	-10.2191
得度	-10.2191
何意	-10.2195
限	-10.2197
髮	-10.2197
觧	-10.2198
體是	-10.2204
開三	-10.2205
受用	-10.2208
釋中	-10.2211
臭	-10.222
方乃	-10.2228
甘	-10.2232
險	-10.2241
三行	-10.2241
五章	-10.2241
當時	-10.2246
與之	-10.2253
自身	-10.2255
勸持	-10.2261
逼	-10.2262
三障	-10.2263
無智	-10.2264
慳	-10.2275
羅剎	-10.2279
若據	-10.2279
不一	-10.2281
開示悟入	-10.2282
父子	-10.2283
之初	-10.2284
院	-10.2286
陵	-10.2299
機應	-10.23
涌出	-10.2301
心體	-10.2309
中明	-10.231
無盡意	-10.2311
為義	-10.2312
脚	-10.2314
筆	-10.2319
降伏	-10.232
自巳	-10.233
戲論	-10.2336
三惑	-10.2343
一百	-10.2344
發明	-10.2349
上慢	-10.2355
迷悟	-10.2355
譬上	-10.2357
別有	-10.2364
晉	-10.2372
亦同	-10.2373
受苦	-10.2376
所為	-10.2377
何異	-10.2384
不堪	-10.2392
▁初標	-10.2393
能證	-10.2394
通經	-10.2395
封	-10.2395
義通	-10.2397
房	-10.2399
澤	-10.2401
能化	-10.2403
今取	-10.2404
化眾生	-10.2412
遷	-10.2415
答云	-10.2418
不達	-10.2423
是諸	-10.2423
體同	-10.2423
述成	-10.2426
眾中	-10.2429
亦通	-10.2429
而來	-10.243
為是	-10.2435
塗	-10.2438
即無	-10.2441
又此	-10.2443
相望	-10.2445
能成	-10.2448
猶是	-10.2454
胎	-10.2454
即知	-10.2454
廣釋	-10.2455
天上	-10.2455
同前	-10.2462
成論	-10.2469
所造	-10.2473
屈	-10.2478
三軌	-10.2483
柱	-10.2487
初中	-10.2488
▁初頌	-10.2489
而作是言	-10.2492
行法	-10.2498
▁二答	-10.2509
起塔	-10.2515
等法	-10.2517
墜	-10.2519
之失	-10.2522
五塵	-10.2523
擇	-10.2526
慧眼	-10.2532
行行	-10.2534
齋	-10.2538
四一	-10.2541
佛之知見	-10.2541
開三顯一	-10.2545
五支	-10.2546
十義	-10.2546
恨	-10.2548
索車	-10.255
皆從	-10.2556
悉是	-10.2557
大通	-10.256
寫	-10.2566
本地	-10.2567
充滿	-10.2568
未曾有	-10.2571
醉	-10.2578
佛教	-10.2579
不待	-10.258
後世	-10.2587
有學	-10.2597
以由	-10.2598
▁初正	-10.2599
初一行	-10.2604
舊云	-10.2605
釋迦牟尼佛	-10.2605
因也	-10.261
又問	-10.2611
餘二	-10.2611
證道	-10.2612
佛語	-10.2614
出於	-10.2615
之子	-10.2616
詩	-10.2617
則能	-10.2634
之要	-10.2641
難陀	-10.2643
問佛	-10.2646
此教	-10.2659
此以	-10.2665
寂然	-10.2668
出宅	-10.2669
下合	-10.2683
二名	-10.2684
二文	-10.2688
於大	-10.2689
尺	-10.269
欲得	-10.2691
疏中	-10.2691
攝一切	-10.2694
則非	-10.2698
昇	-10.2702
考	-10.2702
銷	-10.2703
鄙	-10.2703
真心	-10.2704
而自	-10.2705
不依	-10.2707
本性	-10.271
受持讀誦	-10.2711
修因	-10.2712
洞	-10.2713
結前	-10.2713
增減	-10.2715
品中	-10.2719
用也	-10.2725
教中	-10.2729
妻	-10.273
其本	-10.2732
在前	-10.2735
逮	-10.2738
陰入	-10.2738
漏盡	-10.2741
正念	-10.2745
勝鬘	-10.2753
能發	-10.2759
瑜伽	-10.2762
在此	-10.2766
顯現	-10.2767
惡人	-10.2771
令他	-10.2789
未聞	-10.2789
相攝	-10.2795
嫌	-10.2795
百界	-10.2799
五義	-10.28
中觀	-10.2802
難解	-10.2804
意業	-10.2805
前四	-10.2812
正行	-10.2812
以上	-10.2816
歌	-10.2818
行成	-10.2826
苦惱	-10.2827
孔	-10.283
飯	-10.2831
眾苦	-10.2832
假觀	-10.2837
注云	-10.2838
不通	-10.2839
自行化他	-10.2843
寶藏	-10.2844
所表	-10.2854
楞伽	-10.2857
▁初約	-10.286
能說	-10.286
百年	-10.2862
園	-10.2863
當得	-10.2863
頓教	-10.2865
籤	-10.2867
愛見	-10.2871
飾	-10.2871
法華論	-10.2877
則成	-10.2885
當分	-10.2889
權教	-10.2894
為能	-10.2896
正以	-10.29
侵	-10.2909
▁二又	-10.2914
乃成	-10.2917
為顯	-10.2919
無上菩提	-10.292
阿僧祇	-10.2928
轉教	-10.2929
其理	-10.2929
根鈍	-10.2948
問何名	-10.2949
能得	-10.295
解云	-10.295
皆名為	-10.2953
纔	-10.2955
武	-10.2957
怪	-10.2961
方等般若	-10.2962
出現於世	-10.2964
雖然	-10.2967
有八	-10.2971
空門	-10.2975
全體	-10.2978
文略	-10.298
案	-10.2986
珍	-10.2987
修善	-10.2996
畫	-10.2997
既知	-10.2998
秪	-10.2999
若不爾者	-10.3014
一剎那	-10.3017
別義	-10.3018
名號	-10.302
一理	-10.3021
猶有	-10.3022
又見	-10.3023
名同	-10.3024
即假	-10.3025
察	-10.303
嚴飾	-10.3031
無生忍	-10.3038
不曉	-10.3043
有四種	-10.3044
化物	-10.3055
合譬	-10.3058
其事	-10.3059
衰	-10.306
流轉	-10.3067
三意	-10.3072
十方佛	-10.3074
毫	-10.3079
何能	-10.308
練	-10.3083
震	-10.3089
願力	-10.3094
法爾	-10.3095
異故	-10.3099
偈中	-10.3105
常樂	-10.3111
故成	-10.3112
才	-10.3113
所以然者	-10.3116
覽	-10.3117
掌	-10.3118
觀門	-10.3119
則以	-10.312
之間	-10.3121
傾	-10.3126
此身	-10.3134
疏文	-10.3134
十門	-10.3142
無益	-10.3144
論之	-10.3144
說於	-10.3144
逆順	-10.3149
潛	-10.3155
陳如	-10.3156
應須	-10.3157
若有眾生	-10.316
我當	-10.3162
見諦	-10.3171
即法身	-10.318
巳前	-10.3182
野	-10.3184
阿逸多	-10.3191
常行	-10.3193
小果	-10.3196
其國	-10.32
勉	-10.3202
生信	-10.3202
有七	-10.3203
弗	-10.3207
六句	-10.3207
種種因緣	-10.3214
懼	-10.3215
辦	-10.322
但約	-10.322
釋也	-10.3225
例如	-10.3227
同歸	-10.3227
瞋恚	-10.3228
全無	-10.3233
口業	-10.3237
衣服	-10.3238
力故	-10.324
蘇	-10.3244
何必	-10.3247
此皆	-10.3248
明之	-10.3253
息化	-10.3254
有人言	-10.3256
諸禪	-10.3262
故先	-10.3271
觀世音菩薩	-10.3273
空有	-10.3273
遭	-10.3275
快	-10.3275
既以	-10.3277
條	-10.3278
之始	-10.328
此說	-10.3281
試	-10.3285
竊	-10.3286
三門	-10.3291
宣說	-10.3294
眾經	-10.3302
▁初正釋	-10.3306
之緣	-10.3307
諸聲聞	-10.3308
圍繞	-10.3314
輔	-10.3318
歸依	-10.3318
二初明	-10.3327
寸	-10.3329
正意	-10.3329
深心	-10.3332
對於	-10.3333
出世間	-10.3336
之權	-10.3336
依於	-10.3339
萬物	-10.334
顧	-10.3346
五住	-10.335
知此	-10.3353
觀成	-10.3354
而行	-10.3355
非想	-10.3363
六趣	-10.3367
各異	-10.3369
一佛乘	-10.3369
又言	-10.3373
常在	-10.3375
序品	-10.3377
巳竟	-10.3385
三果	-10.3389
一卷	-10.3392
今說	-10.3397
下方	-10.3403
繩	-10.3405
盖	-10.341
聞慧	-10.3412
拔苦	-10.3413
皆能	-10.3415
相見	-10.3415
體相	-10.3416
」。「	-10.3416
行菩薩道	-10.3418
虛妄	-10.3418
不修	-10.3419
非有非無	-10.3421
正智	-10.3422
▁初問	-10.3425
二觀	-10.3429
縱橫	-10.343
三乘人	-10.3431
伽耶	-10.3432
為我	-10.3432
一切處	-10.3433
等是	-10.3435
理即	-10.3435
萬億	-10.3439
作是念	-10.3442
須陀洹	-10.3446
橫豎	-10.3449
孝	-10.3454
憍	-10.3454
攝取	-10.3455
相貌	-10.346
刻	-10.3461
往昔	-10.3464
二意	-10.3467
事須	-10.3469
乾闥婆	-10.3469
機感	-10.3472
實法	-10.3473
以是因緣	-10.3474
席	-10.3475
遵	-10.3476
所立	-10.3478
觀境	-10.3479
六十	-10.3481
之一	-10.3497
肉眼	-10.3508
得成佛	-10.3513
不唯	-10.3514
高下	-10.3517
瓶	-10.3519
婬	-10.3521
半滿	-10.3521
一經	-10.3521
般涅槃	-10.3527
解說	-10.3529
汝今	-10.3531
雖同	-10.3532
之大	-10.3535
久住	-10.3548
為五	-10.3548
不令	-10.3549
生生	-10.356
二果	-10.356
洲	-10.3562
是同	-10.3568
纏	-10.357
故於	-10.3572
俱生	-10.3576
今者	-10.3576
格量	-10.3588
磨	-10.359
值佛	-10.3595
因行	-10.3597
隣	-10.3599
洗	-10.3599
門者	-10.3599
即名	-10.36
小大	-10.3601
今且	-10.3617
是真	-10.3617
四十年前	-10.3619
讓	-10.362
經說	-10.3621
調達	-10.3623
吹	-10.3628
四聖	-10.3629
尊重	-10.3632
度眾生	-10.3633
聞之	-10.3634
金光明	-10.3635
促	-10.3643
義當	-10.3645
甲	-10.3649
故經云	-10.3653
梵志	-10.3655
諸佛如來	-10.3655
化生	-10.3664
遊戲	-10.3665
終至	-10.3666
後三	-10.367
競	-10.3681
別論	-10.3685
長遠	-10.3685
以對	-10.3686
圓觀	-10.3696
但說	-10.3699
如前說	-10.3703
榮	-10.371
不但	-10.3714
法施	-10.3716
六波羅蜜	-10.3716
不違	-10.3718
一義	-10.3727
九品	-10.3729
絕言	-10.3731
與授記	-10.3731
上人	-10.3732
異熟	-10.3761
五法	-10.3762
離欲	-10.3762
上界	-10.3765
我聞	-10.3765
焰	-10.3766
尅	-10.3767
為勝	-10.3774
始自	-10.3776
令人	-10.3779
粗	-10.3787
南無	-10.3792
世俗	-10.3795
佛世	-10.3797
能斷	-10.3798
能作	-10.38
發大心	-10.3805
不分	-10.3807
覓	-10.3808
隨宜	-10.3809
此解	-10.381
;「	-10.3812
相狀	-10.3821
亦即	-10.3829
彼土	-10.3834
屬於	-10.3834
婦	-10.3835
理具	-10.3838
當得作佛	-10.3842
之殊	-10.3844
為喻	-10.3847
我身	-10.3848
欲以	-10.3848
荷	-10.3848
或時	-10.3849
盜	-10.3851
相生	-10.3854
)。○	-10.3855
今約	-10.3857
之益	-10.3859
二身	-10.3861
當教	-10.3866
但得	-10.387
今問	-10.3871
之苦	-10.3874
崇	-10.3881
二合	-10.3885
是別	-10.3885
解行	-10.3886
所感	-10.3887
為性	-10.3888
牙	-10.389
以論	-10.3893
佛知	-10.3894
本事	-10.3896
過患	-10.3897
鑒	-10.3897
有所得	-10.3899
意云	-10.3907
後明	-10.3908
成熟	-10.3908
輒	-10.3912
成正覺	-10.3912
兩種	-10.3913
若知	-10.3916
可說	-10.3918
優婆塞	-10.3924
止觀云	-10.3926
同於	-10.393
供佛	-10.3931
而立	-10.3931
說偈	-10.3931
墨	-10.3931
祕	-10.3932
無因	-10.3933
領上	-10.3933
初三	-10.3935
後心	-10.3935
後一	-10.3936
都無	-10.3938
漸次	-10.3941
眾德	-10.3945
戒定慧	-10.3959
觀此	-10.3963
壽量品	-10.3968
而修	-10.3969
為權	-10.3972
雷	-10.3975
顯一	-10.398
何為	-10.3996
通途	-10.3998
二十五有	-10.4
心者	-10.4006
能顯	-10.4012
無分別	-10.4015
難得	-10.4019
卑	-10.4019
能以	-10.4023
。」【(△	-10.4024
何妨	-10.4027
俾	-10.4027
四倒	-10.4037
勝處	-10.4038
雨華	-10.4044
初總	-10.4045
彌陀	-10.405
牛車	-10.4051
難思	-10.4054
荊谿	-10.4055
貌	-10.4058
律儀	-10.4059
即時	-10.4059
初云	-10.4062
體也	-10.4066
劫數	-10.4067
得解脫	-10.4069
答中	-10.4069
梵音	-10.4073
羊	-10.4075
今意	-10.4079
述其	-10.4085
之徒	-10.4085
栴檀	-10.4087
次結	-10.4088
三百	-10.4089
與樂	-10.409
為門	-10.4093
今之	-10.4094
初文者	-10.4097
價	-10.41
眾寶	-10.4101
得之	-10.4103
妙樂云	-10.4105
史	-10.4109
之極	-10.411
床	-10.4115
苦果	-10.4115
裂	-10.4117
無人	-10.4121
起於	-10.4123
高廣	-10.4124
覺悟	-10.4128
二百	-10.4135
破戒	-10.4136
得無生忍	-10.414
兩行	-10.4143
用此	-10.4143
騰	-10.4153
所發	-10.4153
神變	-10.4155
以譬	-10.416
下是	-10.4162
佛滅後	-10.4167
之流	-10.4168
數息	-10.4171
寂照	-10.4179
示相	-10.4186
仁王	-10.4186
妙樂	-10.4186
我於	-10.4187
此十	-10.4191
金色	-10.4193
澄	-10.4194
煖	-10.4195
身見	-10.4198
十方世界	-10.42
分證	-10.4204
學人	-10.421
異也	-10.4216
具三	-10.4219
二千	-10.4224
之義也	-10.4228
二死	-10.4228
事相	-10.4229
佛出世	-10.4232
併	-10.4234
位中	-10.4236
所出	-10.4241
烏	-10.4243
初正	-10.4244
放逸	-10.4256
晝夜	-10.4256
理事	-10.4257
行位	-10.4261
而出	-10.4263
一塵	-10.4263
福田	-10.427
今但	-10.4271
習因	-10.4272
隋	-10.4277
無所得	-10.4278
而去	-10.4279
後文	-10.4281
十卷	-10.4284
以示	-10.4285
碎	-10.4289
三請	-10.4292
採	-10.4293
經家	-10.4294
四天下	-10.4295
身土	-10.4298
我心	-10.43
此一	-10.4303
異者	-10.4304
光照	-10.4309
知是	-10.4309
於一切	-10.4311
顯本	-10.4314
能感	-10.4326
於我	-10.4326
不次第	-10.4327
不從	-10.4328
聖教	-10.4328
為所	-10.4332
以來	-10.4333
坐道場	-10.4333
華嚴經	-10.4336
世世	-10.4337
品云	-10.4337
盈	-10.4342
憶念	-10.4344
度生	-10.4349
一界	-10.4351
皆同	-10.4351
事也	-10.4355
阿修羅	-10.4357
應是	-10.4363
三土	-10.4367
今當	-10.4369
別相	-10.4372
其有	-10.438
大小乘	-10.439
入假	-10.439
為第一	-10.4391
聲聞人	-10.4392
始末	-10.4401
用觀	-10.4402
時有	-10.4404
知之	-10.4408
意根	-10.4408
格	-10.4409
遲	-10.4416
羣	-10.442
爭	-10.442
所居	-10.443
諦觀	-10.4438
斷煩惱	-10.4441
安立	-10.4442
一諦	-10.4445
四意	-10.4448
或可	-10.4452
非法	-10.4459
文為二	-10.4461
為真	-10.447
通明	-10.4478
今為	-10.448
披	-10.4483
根利	-10.4486
修惡	-10.4489
白佛	-10.4502
薰	-10.4502
而已	-10.4502
竭	-10.4505
勸發	-10.4507
法行	-10.4508
謙	-10.4509
言其	-10.4525
令眾生	-10.4532
所由	-10.4538
泉	-10.454
文句云	-10.4551
一明	-10.4555
妙觀	-10.4564
即當	-10.4566
三番	-10.4567
樂說	-10.4571
初二句	-10.4573
如止觀	-10.4576
無失	-10.4577
且如	-10.4581
處也	-10.4582
三釋	-10.4585
薀	-10.459
穢土	-10.4594
曠	-10.4596
四人	-10.4596
雖云	-10.4597
顯露	-10.4598
乏	-10.4599
六識	-10.4601
之辭	-10.4604
彼文	-10.4606
得涅槃	-10.4606
賤	-10.4609
就此	-10.4611
不轉	-10.4615
勤修	-10.4621
即中	-10.4625
佛以	-10.463
坐禪	-10.4631
地持	-10.4633
亦乃	-10.4633
智照	-10.4637
中言	-10.4648
但取	-10.4652
之內	-10.4652
有三義	-10.4653
如向	-10.4655
輙	-10.4657
次別	-10.4664
營	-10.4665
難信	-10.4666
九想	-10.4671
岸	-10.4675
二經	-10.4678
聞佛	-10.4683
理智	-10.4684
若觀	-10.4687
引經	-10.4692
南嶽	-10.4693
見其	-10.4696
結云	-10.4702
那得	-10.4708
四住	-10.4709
言語	-10.4718
宿世	-10.472
之有	-10.472
於他	-10.4721
有緣	-10.4726
勝妙	-10.4726
來者	-10.4729
疑惑	-10.4736
初一	-10.4738
解者	-10.4744
一道	-10.4744
說有	-10.4746
自是	-10.4747
果德	-10.4752
或作	-10.4755
方可	-10.4755
生老病死	-10.4757
樂欲	-10.4766
歸一	-10.4772
妙也	-10.4772
上中下	-10.4772
四弘	-10.4774
常樂我淨	-10.4783
危	-10.4785
畢竟空	-10.4788
g	-10.4794
m	-10.4795
既非	-10.4801
將欲	-10.4802
譬喻品	-10.4802
奏	-10.4803
能為	-10.4806
唯取	-10.4807
後之	-10.4808
般若波羅蜜	-10.4809
三十七品	-10.4811
末世	-10.4812
三四	-10.4813
能除	-10.4815
十二部	-10.4816
大品云	-10.4817
i	-10.4826
不自	-10.4826
響	-10.4827
能治	-10.4828
利生	-10.4828
肩	-10.4829
先列	-10.4831
三佛	-10.4837
弟	-10.4837
其數	-10.4844
釋上	-10.4845
大體	-10.4848
能起	-10.485
諸位	-10.4851
迎	-10.4853
又三	-10.4855
<	-10.4858
能忍	-10.4858
油	-10.4859
捉	-10.486
別故	-10.4861
隆	-10.4863
心王	-10.4867
下判	-10.4868
自說	-10.4878
禪門	-10.488
聚落	-10.4883
了達	-10.489
誹謗	-10.4894
空假中	-10.4894
冀	-10.4895
觀照	-10.49
一心三觀	-10.49
法譬	-10.4903
和尚	-10.4904
亦為	-10.4907
雖殊	-10.4909
勝應	-10.4916
當知是人	-10.4924
能照	-10.4935
將來	-10.4936
門外	-10.4938
無生滅	-10.4939
三世諸佛	-10.4941
悉檀	-10.4945
第三句	-10.4946
十號	-10.4949
上上	-10.4952
雖未	-10.4953
馳	-10.4956
一番	-10.4956
諸部	-10.4958
彼岸	-10.4959
中初	-10.4965
因緣故	-10.4966
孫	-10.4966
手足	-10.4975
最為	-10.4975
雅	-10.4977
也然	-10.4978
所現	-10.4979
四分	-10.4979
中二先	-10.4981
倚	-10.4982
五戒	-10.4983
尤	-10.4985
破之	-10.4986
莊	-10.4992
諸功德	-10.4998
初言	-10.5002
規	-10.5011
現見	-10.5017
家業	-10.502
唯是	-10.5023
二教	-10.5025
約位	-10.5025
稟教	-10.503
族	-10.5034
三時	-10.5034
不獨	-10.5037
不破	-10.5043
皇	-10.5043
今亦	-10.5044
隨情	-10.5047
信行	-10.5047
災	-10.5047
弘誓	-10.505
輕重	-10.5052
一如	-10.5055
佛種	-10.5062
皆不	-10.5065
次文	-10.5066
貪愛	-10.5074
不忘	-10.5074
生處	-10.5081
豐	-10.5082
後得智	-10.5086
智德	-10.5086
號曰	-10.5094
伊	-10.5102
添	-10.5106
第四句	-10.5108
治病	-10.5112
沙門瞿曇	-10.5112
總相	-10.5117
消文	-10.5121
乃至云	-10.5123
須臾	-10.5127
令彼	-10.5128
法雨	-10.5129
則曰	-10.5133
釋尊	-10.514
我所	-10.5142
□	-10.5145
三轉	-10.5148
戒取	-10.515
合為	-10.5153
為下	-10.5158
友	-10.5164
佗	-10.5164
斷德	-10.5172
佛在	-10.5176
雖知	-10.5184
盧	-10.5186
修慧	-10.5186
測	-10.5192
實理	-10.5193
不等	-10.5194
大菩薩	-10.5196
言我	-10.5204
見此	-10.5205
泛	-10.5205
化儀	-10.5207
三菩提	-10.5208
如法	-10.521
次位	-10.5225
善心	-10.5225
能具	-10.5226
列名	-10.5228
全是	-10.5239
十境	-10.5243
地上	-10.5251
灰	-10.5254
更加	-10.5259
南方	-10.526
法藏	-10.526
尚無	-10.526
而入	-10.5266
無以	-10.5268
五千	-10.527
給	-10.5273
所住	-10.5274
淨名云	-10.5274
後方	-10.5278
湯	-10.528
何獨	-10.5282
頓悟	-10.5299
臂	-10.5301
顯於	-10.5301
正助	-10.5302
出離	-10.5315
四相	-10.5323
古佛	-10.5324
亦具	-10.5329
華嚴云	-10.5329
作佛事	-10.5332
翻為	-10.5333
十六王子	-10.5334
若此	-10.5335
辱	-10.5338
焚	-10.5339
斷常	-10.534
教主	-10.5345
三十六	-10.5346
約法	-10.5347
忻	-10.5352
天地	-10.5353
昭	-10.5355
見之	-10.5362
深妙	-10.5365
真應	-10.5369
衣食	-10.5371
不假	-10.5371
釋經	-10.5372
游	-10.5375
文相	-10.5375
外凡	-10.5376
與其	-10.538
是方便	-10.5389
權實二智	-10.5392
而不知	-10.5393
孰	-10.5395
定心	-10.5397
取著	-10.5404
前五	-10.5407
聽受	-10.5409
摧	-10.5418
神通力	-10.5419
作念	-10.542
三分	-10.5423
邪正	-10.5424
四依	-10.5427
耳根	-10.543
求法	-10.5431
此處	-10.5431
不來	-10.5438
無染	-10.5439
依經	-10.544
以佛	-10.544
別也	-10.5444
疑悔	-10.5448
如華嚴	-10.5449
重頌	-10.5452
現瑞	-10.5452
說是	-10.5453
依他	-10.5454
杖	-10.5456
不易	-10.5457
今更	-10.5458
示其	-10.5464
持經者	-10.547
二地	-10.5471
忽然	-10.5484
妙法華經	-10.5484
不有	-10.5486
心念	-10.5486
今則	-10.5493
互融	-10.5493
第一義諦	-10.5498
求佛道	-10.55
式	-10.5507
佛答	-10.551
使人	-10.551
即空假中	-10.5515
天台云	-10.5515
快樂	-10.5516
枯	-10.5522
慚愧	-10.5526
約事	-10.5529
所在	-10.5529
化佛	-10.5529
攝法	-10.553
會中	-10.5531
勇猛	-10.5537
論其	-10.5537
不疑	-10.554
入佛知見	-10.5541
化作	-10.5542
若說	-10.5544
喜見	-10.5549
兩處	-10.5549
引文	-10.5554
大樹	-10.5555
罪福	-10.5555
如今	-10.5556
一行半	-10.5558
管	-10.556
皆空	-10.5566
能解	-10.5569
頌中	-10.5576
中無	-10.5583
大慈悲	-10.5584
諸煩惱	-10.5585
離於	-10.5586
無實	-10.5587
活	-10.5588
本意	-10.5589
優劣	-10.5589
割	-10.5591
此正	-10.5596
名通	-10.5599
大旨	-10.5601
緊那羅	-10.5601
方是	-10.5602
恣	-10.5602
【	-10.5608
為境	-10.561
境也	-10.5612
之物	-10.5619
頓頓	-10.562
觀也	-10.562
君子	-10.5622
振	-10.5623
文旨	-10.5623
欲明	-10.5626
麤妙	-10.5627
智度論	-10.5632
一念心	-10.5632
憂惱	-10.5639
惡世	-10.5641
汝當	-10.5645
域	-10.5648
諸佛世尊	-10.5648
理體	-10.5649
皆非	-10.565
梵云	-10.5653
率	-10.5653
教觀	-10.5654
此諸	-10.5656
力用	-10.5657
記中	-10.5658
如理	-10.5663
伐	-10.5664
進退	-10.5664
瑞相	-10.5668
六通	-10.567
境觀	-10.5671
獻	-10.568
從佛	-10.5683
性故	-10.5684
較	-10.5685
初品	-10.569
但名	-10.5692
下去	-10.5694
既得	-10.5705
圓通	-10.5707
應有	-10.5715
分真	-10.5715
勸修	-10.5718
瘡	-10.573
頗	-10.5731
四時	-10.5735
證果	-10.5744
分齊	-10.5745
諸苦	-10.5745
家之	-10.575
枝葉	-10.5751
過於	-10.5753
五眼	-10.5757
難可	-10.5761
為方便	-10.5767
二初頌	-10.5769
雪山	-10.5771
惜	-10.5779
不樂	-10.578
此五	-10.5781
之觀	-10.5783
破惑	-10.5786
二別	-10.5786
停	-10.5786
尾	-10.5793
二處	-10.5794
證理	-10.5796
次從	-10.5797
如來滅後	-10.5798
若在	-10.58
穴	-10.5801
是所	-10.5807
三約	-10.5807
處中	-10.5809
之主	-10.581
信者	-10.581
南岳	-10.5823
二答	-10.5826
七覺	-10.5826
無量劫	-10.5826
經卷	-10.5827
發真	-10.5829
論師	-10.5832
譬中	-10.5834
相成	-10.5835
假使	-10.5843
起教	-10.5847
外境	-10.5854
自見	-10.5855
別名	-10.5857
異於	-10.5858
中品	-10.5862
且從	-10.5869
示之	-10.5871
略釋	-10.5874
多寶佛	-10.5883
之曰	-10.5883
思惑	-10.5884
修得	-10.5887
雪	-10.589
無行	-10.5891
不現	-10.5895
妙智	-10.5902
小教	-10.5903
▁初分科	-10.5906
藏教	-10.5907
覺知	-10.591
義理	-10.5913
但見	-10.5916
以表	-10.592
左右	-10.5924
朗	-10.5927
為法	-10.5927
故令	-10.5928
學無學	-10.593
憍慢	-10.593
道者	-10.5931
或曰	-10.5934
之一字	-10.5942
後人	-10.5943
是果	-10.5946
王言	-10.5953
嚴淨	-10.5956
為此	-10.5957
而云	-10.5957
魔王	-10.5958
良醫	-10.596
等賜	-10.5961
師弟	-10.5965
財物	-10.5966
瞻	-10.5968
師子吼	-10.5975
殷勤	-10.5976
佛心	-10.5979
▁三結	-10.5983
道種智	-10.5984
何但	-10.5987
或是	-10.5991
未入	-10.5992
安穩	-10.5993
箇	-10.5995
船	-10.6002
內凡	-10.6003
為首	-10.6005
亦當	-10.6011
常為	-10.6018
多有	-10.6018
為眾	-10.6019
度脫	-10.6019
理實	-10.602
深淺	-10.602
不止	-10.6026
是如來	-10.6028
逾	-10.6031
但舉	-10.6035
即入	-10.604
空無	-10.6041
䇿	-10.6043
炎	-10.6044
若望	-10.6045
若其	-10.6046
攝受	-10.6047
商	-10.6051
日光	-10.6055
同是	-10.6059
北方	-10.606
不融	-10.6061
下文云	-10.6062
約義	-10.6062
即理	-10.6065
入者	-10.6066
何有	-10.6066
施化	-10.6067
若準	-10.607
能滅	-10.607
不可盡	-10.6072
以方便力	-10.6072
以方便	-10.6074
作是	-10.6074
一字	-10.6074
為其	-10.6074
六行	-10.6079
省	-10.6079
墮落	-10.6079
道法	-10.6079
別立	-10.608
恒河沙	-10.6081
抱	-10.6084
虎	-10.6084
評	-10.6085
金銀	-10.6087
火起	-10.6087
素	-10.6089
時也	-10.6104
八品	-10.6107
二俱	-10.6108
四趣	-10.6111
出水	-10.6115
具四	-10.6115
陰界入	-10.6116
頻	-10.6117
體即	-10.6118
裏	-10.6119
之過	-10.6119
辨異	-10.612
政	-10.6122
冬	-10.6125
白佛言世尊	-10.6126
為佛	-10.6127
魏	-10.6132
獲益	-10.6137
未至	-10.6137
中三	-10.6137
熏習	-10.6137
約此	-10.6142
免難	-10.6144
兩字	-10.6148
位次	-10.615
得阿耨多羅三藐三菩提	-10.615
約人	-10.6153
鄉	-10.6155
匠	-10.6156
明佛	-10.6159
喻說	-10.6161
眼根	-10.6162
四釋	-10.6166
聞巳	-10.6168
佛事	-10.6177
我滅度後	-10.6177
亦名為	-10.6181
名大	-10.6185
造作	-10.6188
滋	-10.6189
能入	-10.6192
五百人	-10.6194
三藏中	-10.62
開悟	-10.6201
別序	-10.6201
別者	-10.6202
六者	-10.6205
發問	-10.6209
六地	-10.621
復云	-10.6211
柔	-10.6213
隨意	-10.6222
是苦	-10.6223
深遠	-10.6223
無此	-10.6224
無得	-10.6226
阿僧祇劫	-10.6226
惱亂	-10.6226
釋此	-10.6227
是其	-10.6236
心也	-10.6243
欲顯	-10.6243
四頌	-10.6249
化主	-10.6254
不絕	-10.6254
對前	-10.6256
無諦	-10.6262
以至	-10.6263
非道	-10.6264
薪	-10.6264
四運	-10.6265
當作佛	-10.6266
皆屬	-10.6267
不開	-10.6268
三藏菩薩	-10.6273
之數	-10.6273
未生	-10.6276
當以	-10.6277
轉輪聖王	-10.6278
▁初總	-10.6279
一雙	-10.6282
薩	-10.6283
古師	-10.6285
變為	-10.6285
茶	-10.6287
中下	-10.6289
屋	-10.6294
在昔	-10.6295
排	-10.6295
不即	-10.6297
本懷	-10.6298
即真	-10.6299
他國	-10.6308
理也	-10.6311
被接	-10.6315
如斯	-10.6317
即現	-10.632
其父	-10.6321
之下	-10.6321
各得	-10.6323
如如	-10.6323
十二緣	-10.6326
五百由旬	-10.6326
信解品	-10.6327
鑑	-10.6327
凝	-10.6332
彼彼	-10.6332
此上	-10.6334
醜	-10.6334
百劫	-10.6335
如水	-10.6335
其子	-10.6338
言此	-10.6338
▁初列	-10.6339
二十年	-10.6341
怒	-10.6342
此譬	-10.6343
第三明	-10.6344
如空	-10.6347
行果	-10.6348
論主	-10.6353
下示	-10.6357
休	-10.6358
求佛	-10.6362
誑	-10.6365
生時	-10.6372
與彼	-10.6376
向下	-10.638
華香	-10.6383
之意也	-10.6384
歎德	-10.6386
佛自	-10.6388
能造	-10.6388
第一明	-10.6391
▁初正明	-10.6392
方有	-10.6393
為求	-10.6397
施設	-10.6408
下劣	-10.641
心行	-10.6412
五識	-10.6412
所傳	-10.642
具明	-10.6427
經典	-10.6427
繫珠	-10.6431
之相也	-10.6433
往來	-10.6436
所用	-10.6437
體法	-10.6439
以大	-10.6441
眉	-10.6444
紀	-10.6447
淵	-10.645
衛	-10.645
後學	-10.6452
後得	-10.6452
轍	-10.6455
劫濁	-10.6455
初門	-10.6455
謂佛	-10.6456
楚	-10.6456
六義	-10.6456
六十二見	-10.6457
破壞	-10.6462
久近	-10.6462
信力	-10.6463
不二門	-10.6464
未甞	-10.6465
實非	-10.6472
慈恩	-10.6473
回向	-10.6475
包	-10.648
毗尼	-10.648
自生	-10.6481
又前	-10.6481
心地	-10.6482
出定	-10.6484
明如來	-10.6486
還是	-10.6491
今聞	-10.6495
九部	-10.6503
八教	-10.6507
身相	-10.651
撮	-10.6511
故不可	-10.6515
微細	-10.6516
疑念	-10.6516
言無	-10.6521
根熟	-10.6525
有差別	-10.6527
此語	-10.6528
計我	-10.6529
四事	-10.6531
下正	-10.6535
佛於	-10.6536
隱顯	-10.6541
富樓那	-10.6546
無殊	-10.6548
勇	-10.6551
理教	-10.6551
聖行	-10.6554
乃能	-10.6555
見佛性	-10.6564
終日	-10.6564
緫	-10.6567
所執	-10.6567
繞	-10.6571
供養佛	-10.6573
無量眾生	-10.6574
心是	-10.6575
歸命	-10.6578
猛	-10.6578
門也	-10.658
諸大菩薩	-10.6586
黨	-10.6589
無過	-10.6589
俱名	-10.659
以辨	-10.659
糞	-10.6591
餘四	-10.6597
空故	-10.6598
溺	-10.6599
修德	-10.66
所乘	-10.6601
工	-10.6602
云何名	-10.6605
皆爾	-10.6614
二十一	-10.6615
今釋	-10.6616
一化	-10.6617
若取	-10.6618
宿命	-10.662
常無常	-10.662
者何	-10.6621
瓦石	-10.6622
釋論云	-10.6625
彈指	-10.6625
場	-10.6627
故但	-10.6629
未免	-10.6636
有佛	-10.6636
出現	-10.6637
起行	-10.6637
法智	-10.6638
安忍	-10.6638
近遠	-10.6638
破惡	-10.6643
即同	-10.6644
毘	-10.6651
如上說	-10.6651
恚	-10.6653
雖在	-10.6654
已下	-10.6661
玅玄	-10.6661
註云	-10.6662
多人	-10.6663
我亦	-10.6669
數數	-10.6672
諦理	-10.6673
徑	-10.6675
上云	-10.6682
智也	-10.6685
得大勢	-10.6687
此句	-10.6694
即佛	-10.6694
住世	-10.6694
迦樓羅	-10.6697
翻譯	-10.6701
意同	-10.6705
側	-10.6707
舒	-10.6708
何故不	-10.6708
賴	-10.671
五蘊	-10.671
於一切法	-10.6711
基	-10.6716
先後	-10.6718
有佛性	-10.6719
康	-10.6723
或現	-10.6726
圓位	-10.6726
欲求	-10.6727
義兼	-10.6729
理無	-10.6732
判教	-10.6738
通釋	-10.6738
為王	-10.6743
教一	-10.6745
五句	-10.6748
隨所	-10.6748
淨名疏	-10.6749
米	-10.6754
成於	-10.6755
井	-10.6756
氷	-10.6757
善知	-10.6757
天親	-10.6764
假實	-10.6767
萬善	-10.6771
頌曰	-10.6776
樂小	-10.6779
如虗空	-10.6779
家家	-10.6779
闡	-10.6783
永無	-10.6783
為之	-10.6783
今謂此	-10.6787
教菩薩法	-10.6787
▁七	-10.6788
謀	-10.6788
依教	-10.6789
方知	-10.6791
孤山	-10.6791
其旨	-10.6793
不淨觀	-10.6795
一類	-10.6796
所通	-10.6801
輪迴	-10.6802
有人云	-10.6804
節節	-10.6806
𦦨	-10.6807
廿	-10.6808
顯理	-10.6809
後時	-10.681
中先	-10.6812
心為	-10.6816
所燒	-10.6816
法執	-10.6817
受化	-10.6818
末代	-10.6824
果中	-10.6832
一邊	-10.6844
未可	-10.6845
由旬	-10.6849
稽首	-10.6849
由前	-10.6854
琉璃	-10.6857
散亂	-10.6859
祭	-10.6861
實也	-10.6862
得其	-10.6862
剋	-10.6863
為十	-10.6863
校量	-10.6864
映	-10.6867
宿王華	-10.687
而未	-10.6873
一切法趣	-10.6875
麻	-10.6877
楊	-10.6879
前之	-10.6881
百億	-10.6882
生空	-10.6885
準此	-10.6888
大王當知	-10.689
四十餘年	-10.6896
蘭	-10.6899
恭	-10.6901
下句	-10.6902
展	-10.6902
空見	-10.6904
聲聞乘	-10.6905
景	-10.6908
善修	-10.6908
六入	-10.6911
雖多	-10.6915
已來	-10.6919
外人	-10.6929
即其義也	-10.6934
准此	-10.6939
生死涅槃	-10.6939
而觀	-10.694
魔事	-10.6946
善財	-10.6949
故下文云	-10.695
行之	-10.695
有二意	-10.695
於人	-10.696
文雖	-10.6961
內有	-10.6963
影響	-10.6975
十二部經	-10.6975
不墮	-10.6976
所計	-10.6976
完	-10.6983
喜樂	-10.6984
是大	-10.6988
略示	-10.6992
經行	-10.7001
漸圓	-10.7002
何法	-10.7003
僕	-10.7005
四味	-10.7007
是常	-10.701
至法華	-10.7011
即於	-10.7011
於大眾中	-10.7011
可信	-10.7012
無可	-10.7014
喻佛	-10.702
窟	-10.702
無二無別	-10.7021
人者	-10.7022
無由	-10.7022
所問	-10.7022
後說	-10.7022
嫉	-10.7023
逸	-10.7027
如其	-10.7027
引導	-10.7034
》、《	-10.7038
發迹	-10.7039
大覺	-10.7041
之師	-10.7046
奉持	-10.7052
八苦	-10.7052
曾見	-10.7054
邑	-10.7056
次句	-10.7056
不悟	-10.7056
二正	-10.7057
是理	-10.7058
靜慮	-10.7059
將此	-10.7059
昔教	-10.7061
正義	-10.7063
四面	-10.7065
穿	-10.7065
困	-10.7068
為異	-10.7072
是總	-10.7073
歷別	-10.7073
疑也	-10.7073
名聞	-10.7077
谷	-10.7088
二十八	-10.709
如說修行	-10.709
皆應	-10.7093
序中	-10.7093
我為	-10.7101
瑠璃	-10.7103
俱時	-10.7103
多寶如來	-10.7104
一乘之	-10.7105
指前	-10.7108
惡法	-10.7113
出生死	-10.7116
山林	-10.7117
衍	-10.712
然燈	-10.7122
業識	-10.7126
開譬	-10.7128
不縱不橫	-10.713
複	-10.7137
熟酥	-10.7138
煞	-10.7142
潔	-10.7144
廣如	-10.7146
丈夫	-10.7147
淫	-10.715
用之	-10.715
所說法	-10.7154
伯	-10.7158
天龍	-10.7171
開敷	-10.7181
循	-10.7182
八種	-10.7187
秀	-10.7191
方廣	-10.7191
三十心	-10.7192
有其	-10.7193
以無	-10.7193
如世	-10.7197
睡眠	-10.7198
何也	-10.7199
扣	-10.7203
開近顯遠	-10.7204
說三	-10.7204
受潤	-10.7204
共相	-10.7208
丈	-10.7208
增進	-10.721
分為二	-10.7212
從本	-10.7214
頌云	-10.7216
邊見	-10.7219
燒香	-10.7225
丘	-10.7226
各自	-10.7234
如下	-10.724
玅法	-10.7244
於今	-10.7247
雖非	-10.7248
上有	-10.725
破於	-10.7256
五事	-10.7257
大德	-10.7257
嘉	-10.7257
半偈	-10.726
晚	-10.7263
歟	-10.7265
所具	-10.7265
炬	-10.7266
頃	-10.727
賣	-10.7273
於空	-10.7273
五薀	-10.7277
益也	-10.7277
首楞嚴	-10.7283
縣	-10.7283
全身	-10.7284
天女	-10.7286
驚疑	-10.7287
救護	-10.7299
但中	-10.7301
即生	-10.7301
發言	-10.7314
四天王	-10.7314
下結成	-10.7315
便謂	-10.7316
扇	-10.7317
無漏智	-10.7317
攝云	-10.7318
以一	-10.7319
法喻	-10.7322
教意	-10.7329
如雲	-10.7333
善業	-10.7335
不息	-10.7341
論釋	-10.7341
初聞	-10.7342
法寶	-10.7343
四教義	-10.7344
所歸	-10.7344
何由	-10.7347
持品	-10.7348
然而	-10.7349
妙用	-10.7354
之佛	-10.7357
心大歡喜	-10.7363
亦須	-10.7363
修學	-10.7364
巳身	-10.7366
種類	-10.7366
兜率	-10.7368
本為	-10.737
漸教	-10.7371
九種	-10.7373
上言	-10.7377
而發	-10.7378
艸	-10.7378
乃可	-10.7379
朽	-10.7382
同名	-10.7385
一切煩惱	-10.7385
優	-10.7386
下重	-10.7388
千萬	-10.7389
復更	-10.7392
不能知	-10.7395
會通	-10.7396
位者	-10.7398
阿耨菩提	-10.7401
名無	-10.7406
今得	-10.741
不廢	-10.741
三十三天	-10.7414
二十三	-10.7421
故稱為	-10.7425
言教	-10.7433
現世	-10.7436
不發	-10.7437
得成	-10.7438
入中	-10.744
尚未	-10.7447
了義	-10.7448
前三教	-10.7448
常念	-10.745
次以	-10.745
諸外道	-10.7455
不同故	-10.7456
實性	-10.7459
無上士	-10.7459
止息	-10.746
十向	-10.746
證成	-10.746
暴	-10.7469
於小	-10.7471
兩教	-10.7471
童	-10.7471
渴	-10.7472
妄心	-10.7473
據此	-10.7474
初舉	-10.7474
奢	-10.7476
為主	-10.7479
今略	-10.7479
無定	-10.7482
判為	-10.7483
愧	-10.7485
溫	-10.7485
俱舍云	-10.7485
一地	-10.7488
散心	-10.7489
二佛	-10.749
釋迦牟尼	-10.749
令生	-10.7492
不定性	-10.7493
未明	-10.7493
正修	-10.7503
所應	-10.7504
體一	-10.7508
聞此	-10.7508
諸大眾	-10.7512
之稱	-10.7513
能於	-10.7513
嗣	-10.7516
偶	-10.7518
今是	-10.7518
雖通	-10.7519
▁二偈頌	-10.752
出其	-10.7523
僧祇	-10.7527
宗旨	-10.7527
從事	-10.7528
皆無	-10.753
佛告諸比丘	-10.753
群生	-10.7532
合前	-10.7534
烈	-10.7535
長夜	-10.7544
易知	-10.7545
四重	-10.7545
領悟	-10.7546
觀慧	-10.7546
傳云	-10.7546
恐怖	-10.7549
四初	-10.7549
擔	-10.755
人所	-10.7552
親友	-10.7552
拙	-10.7553
前品	-10.7554
心境	-10.7554
聖者	-10.7562
猶在	-10.7563
之能	-10.7563
射	-10.7564
司	-10.7564
非佛	-10.7568
生故	-10.7571
今觀	-10.7572
兩重	-10.7573
是諸眾生	-10.7575
初引	-10.7581
周徧	-10.7581
共成	-10.7584
不死	-10.7585
諸佛菩薩	-10.7587
之聲	-10.7587
初正釋	-10.7588
相資	-10.759
初正明	-10.7591
妄語	-10.7591
實是	-10.7595
爾時佛告	-10.7597
報佛	-10.7599
圍	-10.76
兔	-10.7604
下二句	-10.7604
所照	-10.7605
什	-10.7606
非常	-10.7608
善友	-10.761
國名	-10.7611
及餘	-10.7612
結勸	-10.7617
真常	-10.762
欺	-10.7622
善哉善哉	-10.7624
優婆夷	-10.7626
秪是	-10.7627
圓因	-10.7627
為麤	-10.7629
能障	-10.7629
五逆	-10.763
警	-10.7631
番	-10.7635
括	-10.7635
豈能	-10.7636
取捨	-10.7638
只一	-10.7642
道也	-10.7643
結會	-10.7644
始得	-10.7645
隨義	-10.765
本淨	-10.7652
猒	-10.7652
分四	-10.7654
相性	-10.7654
別說	-10.7655
銅	-10.7655
四位	-10.7656
而住	-10.766
八百	-10.7666
生者	-10.7666
得脫	-10.7667
故引	-10.7668
有作	-10.7672
付財	-10.7673
故佛	-10.7674
陰境	-10.7676
通序	-10.7677
秉	-10.768
此法華經	-10.7681
解義	-10.7682
既然	-10.7684
垂迹	-10.7688
壁	-10.7688
莖	-10.7697
先以	-10.7701
白牛	-10.7702
毗曇	-10.7703
之首	-10.7705
欲重宣此義	-10.7706
幡	-10.7708
佛號	-10.7709
二品	-10.771
勝義	-10.7721
紹	-10.7722
之罪	-10.7723
眾生心	-10.7724
根本智	-10.7725
名異	-10.7727
總是	-10.7728
種姓	-10.7728
互具	-10.7732
性體	-10.7734
所得功德	-10.7735
乃知	-10.7736
百千萬	-10.7737
說法者	-10.7738
智行	-10.7739
如我	-10.7743
何殊	-10.7744
皆成	-10.7744
圓理	-10.7746
點示	-10.775
算	-10.7752
天魔	-10.7752
道樹	-10.7753
川	-10.7755
刀杖	-10.7759
塵勞	-10.7772
此菩薩	-10.7773
十迴向	-10.7773
劣應	-10.7776
不同也	-10.7779
大集	-10.7781
。」【【	-10.7784
道中	-10.7785
雖異	-10.7787
舌根	-10.779
為成	-10.7793
亦皆	-10.7796
妙宗	-10.7806
第一義空	-10.7808
賓	-10.7808
淳	-10.7809
下別	-10.781
欲令眾生	-10.781
世智	-10.7811
雖說	-10.7814
皆約	-10.7815
翳	-10.7815
修禪	-10.7817
羅睺羅	-10.7817
之方	-10.7821
空處	-10.7825
佛出	-10.7828
八千	-10.783
僻	-10.7833
哀愍	-10.7833
本文	-10.7839
不遠	-10.784
四性	-10.784
巨	-10.7847
皆依	-10.7855
正合	-10.7857
東西	-10.7857
本自	-10.7862
智論	-10.7864
事中	-10.7866
志願	-10.7866
驗知	-10.7867
有頂	-10.7869
為用	-10.7873
神呪	-10.7878
大用	-10.7879
引之	-10.7879
六瑞	-10.7881
為菩薩	-10.7885
神力品	-10.7886
平等大慧	-10.7886
次正	-10.7887
因位	-10.7889
常不輕	-10.7889
既同	-10.789
个	-10.7894
煙	-10.7894
飢	-10.7894
乍	-10.7895
不正	-10.7895
受請	-10.7899
即應	-10.79
悟解	-10.7902
初發心	-10.7902
阿那含	-10.7902
復言	-10.7908
深信	-10.7911
正由	-10.7912
苑	-10.7913
亦未	-10.7914
皷	-10.7916
受戒	-10.7917
能現	-10.792
能行	-10.7921
之惑	-10.7922
▁三頌	-10.7926
釋籤云	-10.7926
心造	-10.7932
稱讚	-10.7934
結會古今	-10.7934
牒前	-10.7936
對辨	-10.7937
肅	-10.7941
善逝	-10.7943
偏小	-10.7944
大乘教	-10.7946
正定	-10.7947
生酥	-10.7951
佛成道	-10.7952
先標	-10.7956
非直	-10.7958
其間	-10.7963
自覺	-10.7965
西域	-10.7968
熾	-10.7968
疏釋	-10.7969
闍	-10.7969
勝故	-10.7977
所列	-10.7979
無三	-10.7982
住前	-10.7983
此就	-10.7983
候	-10.7984
今時	-10.7985
伏惑	-10.7986
役	-10.7988
認	-10.799
之所以	-10.7993
鹽	-10.7999
今乃	-10.8
雄	-10.8001
伸	-10.8005
中有三	-10.8009
如前釋	-10.801
此位	-10.801
曜	-10.8015
叉	-10.8018
紙	-10.8023
六年	-10.8023
此兩	-10.8025
一劫	-10.8026
講說	-10.8029
開會	-10.8032
三合	-10.8032
大化	-10.8033
受樂	-10.8034
丹	-10.8034
驅	-10.8034
天然	-10.8038
龜	-10.8038
與今	-10.8042
讚佛	-10.8043
兄	-10.8043
觀心者	-10.8043
三地	-10.8044
見子	-10.8046
。」《	-10.8047
第二句	-10.8049
邊際	-10.805
取證	-10.8053
長壽	-10.8053
追頌	-10.8055
是何	-10.8056
喻如來	-10.8062
此與	-10.8062
尚有	-10.8063
派	-10.8068
於心	-10.8073
未了	-10.8075
方便者	-10.808
之情	-10.8083
王三昧	-10.8088
如來亦復如是	-10.8093
見理	-10.8094
之宗	-10.8094
思慧	-10.8095
難知	-10.8095
三字	-10.8096
▁初引	-10.8097
我慢	-10.8098
歸於	-10.8099
請說	-10.8099
故前	-10.8101
能應	-10.8104
人之	-10.8107
一行頌	-10.8112
》「	-10.8114
羯磨	-10.8117
治之	-10.812
?「	-10.8121
知眾生	-10.8121
安得	-10.8123
教者	-10.8126
果位	-10.8128
為小	-10.8129
妻子	-10.813
既其	-10.813
法愛	-10.8133
證真	-10.8134
諸地	-10.8136
具一切法	-10.8136
故舉	-10.8137
所求	-10.8137
萬二千	-10.8138
偈文	-10.814
聖位	-10.8141
進修	-10.8143
八正道	-10.8144
除糞	-10.8145
由於	-10.8145
如大	-10.8146
上首	-10.8146
有量	-10.8149
義例	-10.8149
機宜	-10.8151
身命	-10.8151
具三千	-10.8153
色像	-10.8153
彌勒菩薩	-10.8154
幻化	-10.8154
於佛前	-10.8162
已後	-10.8162
開出	-10.8165
為通	-10.8165
能依	-10.8165
郡	-10.8166
法會	-10.8171
於世	-10.8173
上句	-10.8176
三止	-10.8183
提婆達多	-10.8185
四段	-10.819
二十七	-10.8196
入位	-10.8198
所宜	-10.8199
二乘之人	-10.8199
片	-10.8201
之業	-10.8202
是名為	-10.8204
障礙	-10.8205
今復	-10.8207
為物	-10.8209
諸相	-10.8217
八子	-10.8217
眼見	-10.8219
天人師	-10.8226
敵	-10.8236
晝	-10.824
安慰	-10.8241
正理	-10.8243
得授記	-10.8245
因者	-10.8245
一異	-10.8246
以何因緣	-10.8249
三處	-10.825
斷疑	-10.825
正憶念	-10.825
駕	-10.8251
正使	-10.8254
所受	-10.8256
如來知見	-10.8259
方成	-10.8261
一途	-10.8266
萬八千	-10.8266
誦經	-10.8267
餘文	-10.8269
敗	-10.8269
無所有處	-10.8269
上文云	-10.8271
之迹	-10.8272
四王	-10.8275
而見	-10.8279
能轉	-10.8282
廟	-10.8284
必當	-10.8289
設教	-10.8294
三世佛	-10.8298
對法	-10.8299
非究竟	-10.8299
蜜	-10.8299
斷見思	-10.8301
佛國	-10.8306
若心	-10.8308
巳成	-10.8308
有疑	-10.831
過失	-10.8311
善能	-10.8311
亦知	-10.8322
例前	-10.8324
未說	-10.8327
解也	-10.8328
告舍利弗	-10.8329
離垢	-10.833
諸境	-10.833
圓極	-10.8331
賢劫	-10.8331
諭	-10.8331
中亦有	-10.8333
持此經	-10.8334
成佛之	-10.8334
遊行	-10.8334
而作是念	-10.8334
至于	-10.8335
是第二	-10.8338
篤	-10.8338
流布	-10.8339
前說	-10.834
王舍城	-10.834
過去世	-10.8341
蓋是	-10.8341
是因	-10.8348
受報	-10.835
煩惱障	-10.835
恃	-10.8351
不專	-10.8355
近處	-10.8365
下總結	-10.8368
奉行	-10.8371
佛告阿難	-10.8373
莫非	-10.8376
消釋	-10.8377
易解	-10.8379
心起	-10.8379
此界	-10.8379
他心	-10.8379
南山	-10.8381
顏	-10.8385
如來智慧	-10.8386
未嘗	-10.8388
壯	-10.8389
產	-10.839
申明	-10.8392
有五種	-10.8408
作法	-10.8417
見有	-10.8418
後釋	-10.8423
四見	-10.8424
其言	-10.8426
其福	-10.8428
先舉	-10.8431
比丘比丘尼	-10.8432
庭	-10.8433
依他性	-10.8433
能仁	-10.8438
三年	-10.8442
三三昧	-10.8445
下地	-10.8446
華德	-10.8446
而知	-10.8456
伎樂	-10.8457
探	-10.846
直說	-10.8461
明義	-10.8461
諸門	-10.8462
引論	-10.8464
見於	-10.8467
一約	-10.8468
顯是	-10.8473
肯	-10.8475
峯	-10.8477
鷲	-10.8477
應機	-10.8478
正頌	-10.848
某甲	-10.8481
難云	-10.8481
寡	-10.8483
感佛	-10.8484
忌	-10.8486
喻於	-10.8487
諸弟子	-10.8488
從於	-10.8488
分身諸佛	-10.8489
觀中	-10.8492
女身	-10.8492
如是之人	-10.8495
逼迫	-10.8496
菩薩道	-10.8501
其佛	-10.8505
諸佛之	-10.8505
大臣	-10.8506
三七日	-10.8511
百界千如	-10.8512
時長	-10.8512
旨歸	-10.8516
從前	-10.8517
芽	-10.8518
而此	-10.8519
若有人	-10.8521
永異	-10.8525
擲	-10.8526
盤	-10.8526
理故	-10.8526
掩	-10.8528
主伴	-10.8529
舉一	-10.853
遙見	-10.8534
長時	-10.8534
二土	-10.8536
白毫	-10.8539
之慧	-10.8539
請問	-10.8541
四字	-10.8544
生天	-10.8545
說教	-10.8545
菩提樹下	-10.855
巳證	-10.8551
真妄	-10.8552
知音	-10.8553
何關	-10.8553
未審	-10.8554
說般若	-10.8557
別對	-10.8557
眾行	-10.8562
四品	-10.8568
取其	-10.8569
四百	-10.8569
領受	-10.8571
譏	-10.8571
若離	-10.8572
圓覺	-10.8573
者是也	-10.8574
深廣	-10.8576
彼時	-10.8576
分別功德品	-10.8581
方便說	-10.8582
圓別	-10.8582
彼國	-10.8582
生長	-10.8583
無言	-10.8583
之色	-10.8584
事故	-10.8584
世第一	-10.8589
故立	-10.8592
既巳	-10.8593
咎	-10.8595
本住	-10.8599
結歎	-10.8604
發相	-10.8606
喻之	-10.8608
心故	-10.8609
歡喜踊躍	-10.8611
嗚呼	-10.8612
祖師	-10.8613
羅云	-10.8615
親近處	-10.8617
赴機	-10.8618
溪	-10.862
頸	-10.8621
別人	-10.8624
不雜	-10.8624
別惑	-10.8625
李	-10.8627
以觀	-10.8629
可也	-10.8632
諸如來	-10.8632
偏真	-10.8639
為總	-10.864
重釋	-10.8644
諸經論	-10.8645
▁一頌	-10.8648
緩	-10.8649
金剛三昧	-10.865
尚非	-10.8653
正體	-10.8657
若修	-10.866
次二句	-10.866
色相	-10.8662
必具	-10.8665
水火	-10.8667
初觀	-10.8668
屍	-10.8671
為眾生	-10.8674
如日	-10.8675
二事	-10.8676
尋常	-10.8677
其道	-10.8678
其性	-10.868
復能	-10.8683
閻浮	-10.8683
總頌	-10.8693
大力	-10.8693
轉輪王	-10.8694
種善根	-10.8694
但在	-10.8696
千由旬	-10.8699
鐘	-10.8702
職	-10.8704
為善	-10.8705
莫能	-10.8705
佛菩提	-10.8707
必先	-10.8708
今生	-10.8708
最為第一	-10.8709
起信	-10.8709
即從座起	-10.871
合為一	-10.8713
初如文	-10.8718
紅	-10.8719
舍利弗當知	-10.8719
惡趣	-10.8725
總譬	-10.8725
不染	-10.8727
綱	-10.873
正示	-10.8741
云爾	-10.8744
未悟	-10.8744
久成	-10.8748
不同者	-10.8749
巳有	-10.8751
空法	-10.8752
允	-10.8755
豆	-10.8766
俱無	-10.8768
紫	-10.8768
大劫	-10.8769
大綱	-10.877
七者	-10.877
四番	-10.8771
鼠	-10.8771
教證	-10.8772
金錍	-10.8773
求之	-10.8776
五門	-10.8786
薩埵	-10.8786
無量功德	-10.8787
半字	-10.879
多分	-10.8794
有無量	-10.8794
一念三千	-10.8795
得樂	-10.8799
今解	-10.8801
未熟	-10.8801
知佛	-10.8806
它	-10.8806
止行	-10.8809
乃為	-10.881
怠	-10.881
府	-10.8813
忠	-10.8818
聽者	-10.8819
踊	-10.882
男子	-10.8821
佛所說	-10.8823
聰	-10.8825
得法	-10.8826
但觀	-10.8827
為破	-10.8827
六千	-10.8828
佛壽	-10.8829
諸善	-10.8834
增一	-10.884
今於	-10.8847
倫	-10.8848
以法	-10.8856
長安	-10.8856
妙音菩薩	-10.8861
明位	-10.8861
摩睺羅伽	-10.8862
仁者	-10.8866
戶	-10.8867
乃名	-10.8867
善人	-10.8867
理同	-10.8869
過去佛	-10.887
破其	-10.887
又若	-10.8871
師資	-10.8878
眾會	-10.888
大般涅槃	-10.8881
祥	-10.8882
呼為	-10.8883
須彌山	-10.8886
佛所護念	-10.8887
兩意	-10.8889
無妨	-10.8891
無極	-10.8892
得大	-10.8893
悟道	-10.8893
不欲	-10.8899
所治	-10.89
執著	-10.8902
觀空	-10.8903
不攝	-10.8903
未開	-10.8904
截	-10.8907
亦不得	-10.8908
不會	-10.8908
是無常	-10.891
意顯	-10.8913
十八界	-10.8914
得自在	-10.8915
圓中	-10.8922
斯經	-10.8924
疑者	-10.8924
一境	-10.8932
此二句	-10.8933
乾慧	-10.8933
迦旃延	-10.8934
無生門	-10.8936
空理	-10.8936
思量	-10.8941
鼻根	-10.8942
禪波羅蜜	-10.8943
十惡	-10.8944
於其	-10.8945
慎	-10.8945
能信	-10.8945
所持	-10.8946
二十二	-10.8946
悞	-10.8948
斷滅	-10.8948
聞持	-10.8956
辟支	-10.8959
次引證	-10.8961
欲說	-10.8963
經題	-10.8963
且以	-10.8964
法華云	-10.8966
十六心	-10.897
合論	-10.8972
實義	-10.8972
是能	-10.8972
四土	-10.8975
。􂔹	-10.8976
事用	-10.8977
」【(	-10.8978
以立	-10.8981
此一句	-10.8983
十方三世	-10.8988
於三界	-10.8989
業報	-10.8991
兄弟	-10.8991
料揀	-10.8995
未發	-10.8996
諸家	-10.8998
刑	-10.8999
一事	-10.9
圓成	-10.9002
物機	-10.9002
半行	-10.9003
是諸菩薩	-10.9004
五度	-10.9007
之謂	-10.9009
普賢菩薩	-10.9012
能受持	-10.9017
一方	-10.9017
四大弟子	-10.9017
諸餘	-10.9019
法華前	-10.902
下一行	-10.902
分之	-10.9021
或問	-10.9022
無諸	-10.9022
為道	-10.9023
外無	-10.9024
日夜	-10.9025
能緣	-10.903
慰	-10.9031
圓明	-10.9032
佛弟子	-10.9032
劫國	-10.9038
浪	-10.9041
無形	-10.9043
如意珠	-10.9044
吉祥	-10.9045
罔	-10.9048
五趣	-10.9049
若但	-10.905
行一	-10.9051
恠	-10.9053
䟦	-10.9058
今所	-10.9062
若未	-10.9062
重罪	-10.9064
疊	-10.9067
所知障	-10.9069
去聲	-10.9076
四無量心	-10.9077
或復	-10.9081
取相	-10.9082
性也	-10.9084
歡	-10.909
契經	-10.909
妄念	-10.9091
隨自意	-10.9091
爛	-10.9095
毘曇	-10.9095
舟	-10.91
承上	-10.9101
之經	-10.9101
是故須	-10.9106
二世	-10.9111
堪任	-10.9119
現生	-10.912
可爾	-10.9124
違順	-10.9125
圓行	-10.9126
經體	-10.9126
惑盡	-10.9131
一實諦	-10.9134
下譬	-10.9136
而求	-10.9138
受名	-10.9139
膝	-10.9141
正教	-10.9141
至今	-10.9142
洪	-10.9143
普照	-10.9145
今世	-10.9147
幼	-10.9148
有殊	-10.9149
本也	-10.9149
無虗妄	-10.9151
德也	-10.9152
此六	-10.9153
其法	-10.9154
異相	-10.9156
之解	-10.9162
軟	-10.9163
五分	-10.9164
合成	-10.9164
毛孔	-10.9169
增上慢人	-10.9169
此非	-10.917
亦說	-10.9179
數量	-10.9179
自爾	-10.9181
以是義故	-10.9184
無自性	-10.9186
勒	-10.9189
深入	-10.919
自得	-10.9191
人說	-10.9192
法喜	-10.9194
法忍	-10.9194
發誓	-10.9195
大通智勝佛	-10.9197
唯有一	-10.9199
海中	-10.9199
受者	-10.9202
化之	-10.9205
依何	-10.9211
𥁞	-10.9212
其一	-10.9213
彈	-10.9214
多種	-10.9216
聞是	-10.9217
之異名	-10.9223
至果	-10.9226
即般若	-10.9229
諸大	-10.923
化導	-10.9232
悉知	-10.9235
涌	-10.9237
一切佛法	-10.9237
智障	-10.9239
嗟	-10.924
此定	-10.924
標章	-10.9243
歎佛	-10.9244
徧滿	-10.9246
懃	-10.9247
為六	-10.9249
卿	-10.9249
令我	-10.925
攝得	-10.9251
現相	-10.9253
所對	-10.9256
皆須	-10.9258
多是	-10.9259
各三	-10.9259
大義	-10.926
小智	-10.926
乃有	-10.9266
隨文	-10.9268
利養	-10.9271
下辨	-10.9272
明淨	-10.9272
勝解	-10.9273
先世	-10.9275
忘失	-10.9277
顯密	-10.9278
以理	-10.9279
兆	-10.9287
三重	-10.9289
依文	-10.9289
創	-10.9293
說大乘	-10.93
降魔	-10.9303
有益	-10.9304
明珠	-10.9306
以小	-10.9308
偏空	-10.9308
如海	-10.9309
若對	-10.9309
明菩薩	-10.9312
二障	-10.9321
開為二	-10.9321
淨故	-10.9322
羊鹿	-10.9324
恒河沙等	-10.9329
之善	-10.9336
破執	-10.9336
說是經	-10.9337
形聲	-10.9344
如是展轉	-10.9345
板	-10.9347
別行	-10.9348
究盡	-10.9349
滅盡	-10.9349
虫	-10.935
十六行	-10.9355
吞	-10.9356
像法	-10.9356
結示	-10.9358
無作四諦	-10.9361
供養諸佛	-10.9363
熱惱	-10.9369
初列	-10.937
經旨	-10.9371
誘引	-10.9373
)。【	-10.9376
亦作	-10.9379
昔所	-10.938
本迹者	-10.9381
有如是	-10.9383
妙經	-10.9384
所斷	-10.9387
戀	-10.9388
俯	-10.9389
囑累品	-10.939
野干	-10.9391
聞此經	-10.9392
籠	-10.9392
不曾	-10.9393
亦二	-10.9393
習果	-10.9394
,〈	-10.9397
彩	-10.9398
宇	-10.9401
意樂	-10.9403
所解	-10.9405
所趣	-10.9405
護念	-10.9408
報應	-10.9409
臨終	-10.9411
分別性	-10.9414
未解	-10.9416
於如來	-10.9416
所無	-10.9416
八正	-10.942
利益眾生	-10.942
安置	-10.9423
能如是	-10.9424
湛	-10.9431
謂有	-10.9434
瞿曇	-10.9434
所覆	-10.9435
有智	-10.9436
無一	-10.944
染著	-10.944
眾生界	-10.944
休息	-10.9441
地中	-10.9442
譬如有人	-10.9444
津	-10.9445
但知	-10.9446
夕	-10.9447
善行	-10.9448
正像	-10.945
諱	-10.9453
善女人	-10.9453
我是	-10.9456
方顯	-10.9459
所從	-10.9469
此結	-10.947
流出	-10.9473
轉變	-10.9475
非權非實	-10.9475
委悉	-10.9475
立行	-10.9477
十二行	-10.9483
▁初法	-10.9483
正法華	-10.9484
祕藏	-10.9486
明行足	-10.9486
亦不能	-10.9487
又是	-10.9491
舉其	-10.9493
但能	-10.9493
徐	-10.9494
於未來世	-10.9498
心具	-10.9499
佛與	-10.9502
頌第二	-10.9505
尸羅	-10.9505
勸請	-10.9507
從理	-10.9508
眾生濁	-10.9513
在因	-10.9516
多劫	-10.9517
從地涌出	-10.9521
云何言	-10.9522
直明	-10.9524
二用	-10.9529
鄰	-10.9535
籍	-10.9538
自下	-10.9539
爾時下	-10.954
膠	-10.9541
愛樂	-10.9545
便為	-10.9546
進否	-10.9547
二萬	-10.9549
權也	-10.9552
兩義	-10.9552
何義	-10.9553
慚	-10.9559
有四句	-10.956
重重	-10.9561
開塔	-10.9562
斯陀含	-10.9563
大乘法	-10.9564
現滅	-10.9567
遠本	-10.9568
餘皆	-10.9568
滿慈	-10.9568
以前	-10.9572
等是也	-10.9573
毗盧遮那	-10.9575
皆在	-10.9582
人多	-10.9583
體者	-10.9584
覲	-10.9584
耆	-10.9588
第四禪	-10.9589
識處	-10.9591
無數劫	-10.9593
父王	-10.9594
難見	-10.9594
此喻	-10.9594
擁護	-10.96
忉利天	-10.96
有法	-10.9602
有生	-10.9605
鬘	-10.9606
心常	-10.9606
報果	-10.9607
夭	-10.9607
那由他	-10.9608
攝一切法	-10.961
名體	-10.9611
叵	-10.9616
個	-10.9617
修於	-10.9618
墮地獄	-10.9619
體具	-10.9621
以神通力	-10.9624
若入	-10.9626
有苦	-10.9627
利人	-10.9628
耀	-10.9628
於中先	-10.963
而顯	-10.9632
佛亦如是	-10.9633
。」「	-10.9633
直至道場	-10.9634
所動	-10.9635
菩提涅槃	-10.9635
淨佛國土	-10.9635
正解	-10.9636
等皆	-10.9638
那含	-10.9641
得生	-10.9642
之則	-10.9646
吳	-10.9647
直至	-10.9649
兼於	-10.9649
遮那	-10.965
大同	-10.965
與此	-10.9651
化道	-10.9651
奚	-10.9653
火燒	-10.9655
知者	-10.9656
性善	-10.9656
方始	-10.9658
破古	-10.9659
能問	-10.9659
共為	-10.966
達多	-10.966
名利	-10.9663
顯其	-10.9672
過去諸佛	-10.9676
又能	-10.9677
有餘涅槃	-10.9679
準知	-10.9679
▁二正	-10.9681
故用	-10.9681
迴轉	-10.9681
此一行	-10.9683
者只是	-10.9684
今品	-10.9685
皆可	-10.9685
菩薩乘	-10.9688
人非人等	-10.9689
若准	-10.9691
通者	-10.9693
緒	-10.9695
相稱	-10.9696
苦道	-10.9697
虧	-10.9699
枕	-10.9702
土地	-10.9705
問何	-10.9705
悟佛知見	-10.971
嬰兒	-10.9711
直指云	-10.9712
壇	-10.9716
作此說	-10.9723
撥	-10.9723
無量百千萬億	-10.9724
即性	-10.9724
滅道	-10.9729
僮僕	-10.9735
於實	-10.9735
有九	-10.9736
無生法忍	-10.9738
巍巍	-10.9738
知一切法	-10.974
無有是處	-10.9742
眾集	-10.9742
不改	-10.9744
伏難	-10.9745
二十五三昧	-10.9746
無見	-10.9751
中亦	-10.9753
維	-10.9759
往生	-10.9764
別則	-10.9767
三輪	-10.9767
千二百人	-10.9772
皆當	-10.978
俱得	-10.978
寶華	-10.9781
大略	-10.9784
干	-10.9787
文為三	-10.9792
弘法	-10.9793
大慧	-10.98
具十	-10.9801
論議	-10.9801
到彼岸	-10.9804
別顯	-10.9804
不見有	-10.9806
厥	-10.9806
殆	-10.9806
外國	-10.9808
迦羅	-10.9808
記主	-10.9809
會眾	-10.9809
三衣	-10.981
聖賢	-10.9813
七難	-10.9814
力者	-10.9814
業力	-10.9815
市	-10.9817
之見	-10.9817
誤也	-10.9817
教菩薩	-10.9818
不安	-10.9819
總釋	-10.9821
隨智	-10.9823
禮佛	-10.9824
二利	-10.9827
因聞	-10.9828
更明	-10.9831
惡鬼	-10.9833
雖則	-10.9833
無漏法	-10.9834
有性	-10.9836
加被	-10.9836
教人	-10.9837
不頌	-10.9838
示教利喜	-10.9839
梨	-10.9843
不相應	-10.9844
空空	-10.9844
次辨	-10.9844
假立	-10.9846
世間解	-10.9846
意趣	-10.9847
開解	-10.9848
賢首	-10.9848
眾疑	-10.9851
生解	-10.9853
攝大乘	-10.9853
即此意也	-10.9855
範	-10.9856
法花	-10.9857
宿世因緣	-10.9864
謂如來	-10.9865
非正	-10.9866
性者	-10.9867
除疑	-10.9867
同入	-10.9872
嫉妬	-10.9873
識心	-10.9873
大樂說	-10.9875
舍宅	-10.9876
能詮教	-10.9881
序分	-10.9881
亦由	-10.9882
自分	-10.9882
旃檀	-10.9883
始覺	-10.9885
作譬	-10.9889
直云	-10.989
禪中	-10.989
之難	-10.989
應言	-10.9892
為諸菩薩	-10.9893
文自	-10.9894
超頌	-10.9894
了了	-10.9896
穀	-10.9896
如虛空	-10.9902
真珠	-10.9902
國界	-10.9902
圍遶	-10.9903
之報	-10.9906
造業	-10.9906
三相	-10.9912
后	-10.9913
此觀	-10.9913
阿毗曇	-10.9914
樂小法	-10.9917
通教菩薩	-10.9919
周遍	-10.992
雲雨	-10.9922
化人	-10.9927
車體	-10.9927
此會	-10.993
多諸	-10.9934
得清淨	-10.9938
請記	-10.9938
悲心	-10.994
是諸佛	-10.9949
等義	-10.9949
大會	-10.9953
富貴	-10.9954
通稱	-10.9956
熾盛	-10.9958
真實性	-10.9958
利者	-10.9959
同故	-10.996
踰	-10.9961
溢	-10.9961
四攝	-10.9961
報恩	-10.9963
暮	-10.9963
論意	-10.9964
百歲	-10.9964
通義	-10.9964
部中	-10.9967
眾生有	-10.9967
為子	-10.9967
思念	-10.9968
前七	-10.997
覺了	-10.997
而白佛言	-10.9971
知有	-10.9974
亦隨	-10.9976
波旬	-10.9977
必得	-10.9979
修止觀	-10.9979
即見	-10.998
獲得	-10.9982
藥王菩薩	-10.9982
具此	-10.9982
旦	-10.9983
圓門	-10.9985
入初住	-10.9986
大乘經	-10.9987
▁八	-10.9992
未來世	-10.9992
柔和	-10.9993
調御丈夫	-10.9996
有兩	-10.9998
私謂	-10.9999
文有	-11
與拔	-11.0001
子曰	-11.0001
於生死	-11.0006
爾時釋迦牟尼佛	-11.0006
二喻	-11.0009
機發	-11.001
修中	-11.001
佛前	-11.0011
空也	-11.0011
證入	-11.0012
五明	-11.0013
弘通	-11.0013
羅睺	-11.0013
無所不	-11.0017
饑	-11.0017
若得此意	-11.0018
三名	-11.0018
至極	-11.0018
次一行	-11.0019
佛有	-11.002
堪忍	-11.0022
言辭	-11.0022
入海	-11.0025
慇懃	-11.0027
彼云	-11.0035
若我	-11.0035
果者	-11.0037
正約	-11.0037
地論	-11.004
只此	-11.004
謂我	-11.0042
圓實	-11.0051
殃	-11.0055
趣寂	-11.0056
箭	-11.0058
位在	-11.0058
之喻	-11.0058
諸國	-11.0059
觀相	-11.0062
惑業	-11.0068
而以	-11.0068
雙釋	-11.0068
誕	-11.0069
次答	-11.007
而取	-11.007
勵	-11.0071
心數	-11.0072
薩婆多	-11.0072
佛說法	-11.0079
所入	-11.008
華光	-11.008
又二初	-11.0082
前人	-11.0082
盡智	-11.0085
跋	-11.0087
無緣慈	-11.0089
貧窮	-11.009
兩番	-11.009
已得	-11.0091
佛化	-11.0096
佛法界	-11.0096
動地	-11.0098
合說	-11.0099
無障礙	-11.0099
妙解	-11.0103
謨云	-11.0103
千萬億	-11.0103
衍門	-11.0103
身體	-11.0104
那云	-11.0105
有損	-11.0106
重明	-11.0108
方便也	-11.011
以自	-11.0113
不復更	-11.0116
山川	-11.0119
維摩	-11.0119
命濁	-11.0119
散華	-11.0123
不容	-11.0124
奔	-11.0127
稱機	-11.0127
為說法	-11.013
育	-11.013
應用	-11.013
於法華	-11.0131
失於	-11.0131
辰	-11.0132
刃	-11.0133
豁然	-11.0135
妄執	-11.0139
三生	-11.0141
決了	-11.0142
因是	-11.0142
論義	-11.0144
是第三	-11.0144
所被	-11.0146
王者	-11.015
佛智慧	-11.0152
起滅	-11.0156
攝論	-11.0157
見愛	-11.0157
釋前	-11.0157
孔子	-11.0159
理本	-11.016
聞其	-11.0162
為實施權	-11.0163
寂場	-11.0163
戒善	-11.0164
德行	-11.0169
五悔	-11.017
彊	-11.017
難也	-11.0171
又聞	-11.0171
不調	-11.0171
奇特	-11.0171
作用	-11.0174
前釋	-11.0176
大段	-11.0177
又觀	-11.018
奴	-11.0181
法報	-11.0181
尸棄	-11.0182
為示	-11.0184
:《	-11.0185
鄭	-11.0186
請佛	-11.0193
分別說	-11.0196
何云	-11.0197
是大乘	-11.0198
十章	-11.02
三災	-11.0201
謗法	-11.0201
十六句	-11.0202
本師	-11.0203
發得	-11.0204
三塗	-11.0205
▁二今	-11.0206
豈是	-11.0208
震動	-11.0208
巳盡	-11.0208
智慧力	-11.0208
我有	-11.0211
摩訶般若	-11.0214
卵	-11.0214
為諸	-11.0216
三草二木	-11.0216
無願	-11.022
及與	-11.022
為機	-11.0221
八方	-11.0224
覈	-11.0225
冤	-11.0227
亦言	-11.0229
佛名	-11.023
何曾	-11.0231
逃	-11.0232
八十八使	-11.0236
天主	-11.0237
為別	-11.0237
初示	-11.0239
帖	-11.024
義便	-11.024
杜	-11.0242
方丈	-11.0242
聲聞眾	-11.0242
諸佛法	-11.0244
果滿	-11.0245
不觀	-11.0245
如來說法	-11.0248
化事	-11.025
寶珠	-11.0252
諦聽	-11.0252
來世	-11.0252
無體	-11.0256
有為無為	-11.0257
即解脫	-11.026
大人	-11.0262
台	-11.0264
思益	-11.0264
無生智	-11.0266
未斷	-11.0267
即第一義	-11.0268
泥洹	-11.0275
與眾生	-11.0278
籌量	-11.028
於時	-11.0281
憐愍	-11.0282
燃	-11.0284
一切佛	-11.0286
見諸佛	-11.0288
汝等當	-11.0289
聞是經	-11.029
翼	-11.029
策	-11.029
以大乘	-11.0292
荒	-11.0294
有想	-11.0297
諂	-11.0299
不測	-11.0299
真身	-11.0303
亦有亦無	-11.0309
說呪	-11.0313
諸聲聞眾	-11.0316
▁三若	-11.0316
便成	-11.0318
問此	-11.0321
我法	-11.0322
最大	-11.0325
父母所生	-11.0326
結歸	-11.0326
定是	-11.0327
譚	-11.0328
聞而	-11.0328
由彼	-11.033
今就	-11.0334
見取	-11.0336
此問	-11.0338
▁一標	-11.0339
第二釋	-11.034
義立	-11.0341
結使	-11.0341
三科	-11.0343
於眾生	-11.0345
今頌	-11.0345
所願	-11.0347
丸	-11.0349
心識	-11.0349
破徧	-11.0352
性中	-11.0352
五頌	-11.0353
集眾	-11.0355
二問	-11.0358
三無差別	-11.0358
長子	-11.0359
當知此	-11.036
欲見	-11.036
是法華經	-11.0364
以判	-11.0367
餘處	-11.037
實報土	-11.037
寶雲	-11.0372
夢中	-11.0372
又約	-11.0375
燒身	-11.0376
聞教	-11.0376
人情	-11.0377
昔有	-11.038
去來	-11.038
稱性	-11.0382
〔	-11.0385
其猶	-11.0386
維那	-11.0387
生死即涅槃	-11.0388
編	-11.0388
判屬	-11.0388
餘九	-11.0392
為他說	-11.0392
具在	-11.0394
破法徧	-11.0394
飢渴	-11.0394
唯以	-11.0395
剛	-11.0399
煩惱濁	-11.04
儻	-11.04
故約	-11.0401
得阿羅漢	-11.0404
躬	-11.0404
如是相	-11.0407
佛既	-11.0409
而實	-11.0411
首座	-11.0412
通至	-11.0419
雖曰	-11.0419
開章	-11.042
內身	-11.042
藍	-11.042
至寶所	-11.0423
身根	-11.0424
尚自	-11.0425
果地	-11.0427
成等正覺	-11.0428
眾也	-11.0433
仁王經	-11.0441
內觀	-11.0442
莫不皆	-11.0444
何用	-11.0444
輸	-11.0447
惡心	-11.045
諸菩薩眾	-11.045
擾	-11.0451
壅	-11.0452
三受	-11.0452
提婆	-11.0453
得於	-11.0454
開方便門	-11.0455
買	-11.0457
隨宜說法	-11.0458
先說	-11.0459
顯發	-11.0459
身上	-11.046
大也	-11.0462
常坐	-11.0462
種種方便	-11.0466
頌前	-11.0466
同類	-11.0468
人人	-11.0469
開化	-11.0471
進趣	-11.0473
皆言	-11.0476
六品	-11.0476
不自知	-11.0477
從一	-11.0477
受道	-11.0479
而不能	-11.0479
叵得	-11.0481
無說	-11.0481
無諍	-11.0482
出沒	-11.0482
魯	-11.0485
稱理	-11.0485
之香	-11.0487
舉譬	-11.0488
稱之為	-11.0494
復為	-11.0495
喻中	-11.0496
離相	-11.0497
入真	-11.0497
深達	-11.0499
一大事	-11.05
此舉	-11.05
並名	-11.0504
製	-11.0505
諮	-11.0507
涅槃經云	-11.0507
總攝	-11.0508
寢	-11.0508
照明	-11.051
妄計	-11.0512
實教	-11.0513
妙玄云	-11.0514
麗	-11.0514
有邊	-11.0515
作如是說	-11.0516
國中	-11.0518
於諸法	-11.0522
熾然	-11.0522
無功用	-11.0525
人心	-11.0527
作證	-11.0529
斷無明	-11.053
衡	-11.0534
徃	-11.0535
未足	-11.0539
分身佛	-11.054
進入	-11.0541
心即	-11.0547
滿字	-11.055
謂此	-11.0551
勢力	-11.0553
有見	-11.0554
以說	-11.0554
僧坊	-11.0556
之疑	-11.0556
募	-11.0557
瞻仰	-11.0558
遍滿	-11.056
旛	-11.0563
為對	-11.0564
坑	-11.0565
眼智	-11.0565
貞	-11.0566
不畏	-11.0567
末後	-11.0571
品題	-11.0572
六十二	-11.0573
能捨	-11.0573
行願	-11.0574
非唯	-11.0574
合有	-11.0574
中具	-11.0575
羅什	-11.0575
是真實	-11.0576
掉	-11.0577
有能	-11.0578
未出	-11.0579
心心	-11.0579
任持	-11.0579
文在	-11.0582
四魔	-11.0583
即屬	-11.0585
不隔	-11.0585
而用	-11.0593
出體	-11.0595
別在	-11.0596
頭陀	-11.0597
徵起	-11.0599
無念	-11.0601
請轉法輪	-11.0602
人壽	-11.0602
見我	-11.0602
爾乃	-11.0606
眾善	-11.0609
起時	-11.0609
之土	-11.0613
我以	-11.0616
性地	-11.0617
佛記	-11.0618
圓修	-11.0619
結上	-11.062
汎	-11.0622
而言之	-11.0623
灼然	-11.0623
籌	-11.0623
伺	-11.0625
之際	-11.0626
眼識	-11.0629
生滅四諦	-11.063
祈	-11.0631
癈	-11.0635
評曰	-11.0637
果後	-11.0639
三學	-11.064
不念	-11.064
禁戒	-11.0642
法音	-11.0643
摩尼	-11.0644
未成	-11.0645
之談	-11.0646
多羅	-11.0647
一教	-11.0648
譬本	-11.065
體達	-11.065
不差	-11.0651
常寂	-11.0651
受變易	-11.0654
並皆	-11.0655
望於	-11.0656
得近	-11.0656
捨身	-11.0656
十二句	-11.0661
忉利	-11.0661
爾前	-11.0662
而現	-11.0662
說大乘經	-11.0665
見如來	-11.0667
唯除	-11.0669
諸大乘經	-11.0669
浴	-11.067
五蓋	-11.0671
引大經	-11.0673
立義	-11.0674
乃得	-11.0676
貶	-11.0677
七十	-11.0681
破立	-11.0682
兼得	-11.0682
棲	-11.0682
七支	-11.0682
窺	-11.0682
於道	-11.0685
光中	-11.0686
丁	-11.0688
軀	-11.0692
四緣	-11.0693
若夫	-11.0693
空慧	-11.0695
山中	-11.0696
之甚	-11.0697
以能	-11.0698
且初	-11.07
入生死	-11.0702
故且	-11.0705
先引	-11.0705
是妙	-11.0706
次正釋	-11.0707
不謬	-11.0707
指要	-11.0707
皆如	-11.071
嘗	-11.0713
入於涅槃	-11.0719
障除	-11.0719
皆然	-11.072
還以	-11.0721
能令眾生	-11.0723
萬里	-11.0725
之謂也	-11.0725
久修	-11.0726
是道	-11.073
婆沙云	-11.073
悉見	-11.0733
人身	-11.0734
此依	-11.0734
欽	-11.0735
不免	-11.0736
那忽	-11.0737
拒	-11.0741
貝	-11.0741
陋	-11.0741
權巧	-11.0747
辯才	-11.0747
寶塔品	-11.0749
是法身	-11.0749
議曰	-11.0752
聞佛說	-11.0757
六法	-11.0759
解脫道	-11.0762
此道	-11.0763
是謂	-11.0763
為作	-11.0764
無偏	-11.0765
未始	-11.0766
心淨	-11.0768
在座	-11.0768
妙莊嚴王	-11.077
千佛	-11.0771
顯體	-11.0772
通則	-11.0773
所談	-11.0774
諸聖	-11.0774
若復有人	-11.0777
耆闍崛山	-11.0783
入理	-11.0784
經明	-11.0785
其說	-11.0786
佛世尊	-11.0787
萌	-11.0787
其德	-11.0788
云何得	-11.079
次觀	-11.0795
飽	-11.0795
無減	-11.0797
侯	-11.0797
顯今	-11.0799
諸菩薩摩訶薩	-11.08
慳貪	-11.0801
永不	-11.0801
捨離	-11.0802
趨	-11.0803
何事	-11.0813
脩行	-11.0815
巳心	-11.0815
聲聞菩薩	-11.0815
皆共	-11.0817
章句	-11.0818
誼	-11.0818
諸佛智慧	-11.0819
不生滅	-11.0823
其所以	-11.0823
諸釋	-11.0824
所取	-11.0826
外護	-11.0826
謂是	-11.0828
是用	-11.0831
此從	-11.0833
探領	-11.0834
是行	-11.0835
初文又二	-11.0839
令心	-11.0839
輕慢	-11.0841
復次下	-11.0844
長文	-11.0847
着	-11.0848
指上	-11.0849
願行	-11.0849
抄	-11.0849
次破	-11.0852
之深	-11.0855
俟	-11.0859
四陰	-11.0861
踊出	-11.0862
實行	-11.0862
奧	-11.0863
故文云	-11.0863
亦何	-11.0865
鴿	-11.0866
十八空	-11.0875
以圓	-11.0879
見濁	-11.0881
未證	-11.0881
元年	-11.0882
色無色	-11.0882
總答	-11.0883
共生	-11.0886
便有	-11.0888
南北	-11.089
下舉	-11.0891
第一卷	-11.0892
本時	-11.0892
紛	-11.0893
妙者	-11.0893
法華會	-11.0894
別約	-11.0898
特勝	-11.0898
銀	-11.09
之福	-11.09
為序	-11.0901
梵網	-11.0906
正用	-11.0906
豪	-11.0907
有退	-11.0908
鑽	-11.0912
大歡喜	-11.0912
唯此	-11.0917
後生	-11.0917
於此經	-11.0918
簡非	-11.0921
唯說	-11.0924
不由	-11.0927
是心	-11.0928
有說	-11.0929
名數	-11.093
疑云	-11.0933
九十	-11.0935
問若	-11.0935
如來說	-11.0937
都不	-11.0939
小善	-11.094
十信位	-11.0942
證法	-11.0945
十地菩薩	-11.095
生死之	-11.0951
能修	-11.0955
未顯	-11.0957
復生	-11.0959
因何	-11.0962
其形	-11.0963
十者	-11.0965
琴	-11.0971
前巳	-11.0972
徵釋	-11.0975
論家	-11.0976
)。(	-11.0976
掃	-11.098
達磨	-11.0981
理則	-11.0981
真因	-11.0982
湛然	-11.0984
詐	-11.0986
若別	-11.0988
當為	-11.0989
釋出	-11.0991
有多	-11.0991
先總	-11.0994
二解	-11.0995
速疾	-11.0996
雖具	-11.0997
識陰	-11.1002
五種法師	-11.1003
全同	-11.1003
初依	-11.1005
新云	-11.1005
辛	-11.1007
有十種	-11.1008
第八識	-11.1011
皆歡喜	-11.1016
從因	-11.1017
一切法皆	-11.1022
巳說	-11.1022
顯說	-11.1026
希望	-11.1026
內合	-11.1027
一切人	-11.1028
分段生死	-11.1031
指示	-11.1031
因緣者	-11.1032
淨德	-11.1036
諸佛所	-11.1036
豈無	-11.1037
異解	-11.104
業障	-11.1041
自非	-11.1042
摩羅	-11.1045
脩羅	-11.1045
趣向	-11.1045
即是佛	-11.1047
勸人	-11.1048
即離	-11.105
增益	-11.105
廣解	-11.1052
不能得	-11.1053
千歲	-11.1057
何因緣	-11.1059
約教者	-11.1062
不顯	-11.1064
妙體	-11.1068
遶	-11.107
法座	-11.1071
為眾生故	-11.1074
即實相	-11.1074
傍正	-11.1075
現通	-11.1076
眉間	-11.1076
唯觀	-11.1077
破諸	-11.1077
世出世	-11.1077
為度眾生	-11.1077
見性	-11.1082
度人	-11.1082
正徧知	-11.1087
踐	-11.109
為利	-11.1091
恥	-11.1092
焦	-11.1092
轉成	-11.1093
皆令	-11.1093
所須	-11.1094
可度	-11.1094
伽陀	-11.1096
無量四諦	-11.1102
『	-11.1103
棄捨	-11.1106
不可見	-11.1107
事造	-11.1108
推之	-11.1109
在佛	-11.1111
品名	-11.1116
逈	-11.1117
欲樂	-11.1118
七佛	-11.112
泰	-11.1123
受持是經	-11.1126
師子座	-11.1127
以神力	-11.1127
現起	-11.113
增數	-11.1131
師之	-11.1131
三世益物	-11.1131
常見	-11.1134
本空	-11.1134
實不	-11.1135
三乘同	-11.1136
外有	-11.1137
而證	-11.1137
用心	-11.114
心得自在	-11.1141
自此	-11.1144
色法	-11.1145
之詞	-11.1146
六蔽	-11.1147
喻如	-11.1148
作是說	-11.1152
色等	-11.1152
所施	-11.1154
陰入界	-11.1154
照了	-11.1157
已去	-11.1158
肥	-11.1158
祝	-11.1158
春秋	-11.1158
答前	-11.1159
依理	-11.1161
三千界	-11.1161
實體	-11.1162
法法	-11.1167
下料簡	-11.1167
下別釋	-11.1169
此智	-11.1173
三喻	-11.1175
從何	-11.1175
故屬	-11.118
則應	-11.118
但空	-11.1181
表之	-11.1182
八者	-11.1182
牟云	-11.1185
陀羅	-11.1185
深著	-11.1186
摩訶迦葉	-11.1186
若乃	-11.119
言或	-11.119
變易生死	-11.1192
兩段	-11.1196
明文	-11.1197
佛力	-11.1198
覆講	-11.1198
京	-11.1198
十萬	-11.1199
觀理	-11.1207
如實智	-11.1207
依法	-11.1208
麁妙	-11.1208
隻	-11.1208
四十八	-11.1209
沾	-11.121
度脫眾生	-11.1211
徧照	-11.1211
亦見	-11.1213
龍宮	-11.1213
最後身	-11.1214
環	-11.1215
三十四心	-11.1216
灑	-11.1216
大本	-11.1216
諸菩薩等	-11.1216
巖	-11.1216
不二而二	-11.1217
薩婆若	-11.1217
諫	-11.1221
不相違	-11.1221
教他	-11.1225
佛菩薩	-11.1228
爾雅云	-11.1229
住者	-11.1233
勝進	-11.1233
從勝	-11.1239
一月	-11.124
淨行	-11.1241
則巳	-11.1241
破見思	-11.1243
可知矣	-11.1245
菩薩為	-11.1246
是空	-11.1247
助成	-11.1248
雖爾	-11.1253
二性	-11.1254
牟尼	-11.1257
我巳	-11.1258
如一	-11.1259
托	-11.1263
秊	-11.1266
無罪	-11.1268
並在	-11.1268
妙道	-11.1268
得無生法忍	-11.1269
為樂	-11.1269
諸句	-11.127
整	-11.127
擯	-11.127
質直	-11.127
躭	-11.1272
心相	-11.1274
通指	-11.1277
無文	-11.1279
訪	-11.128
初說	-11.1287
不遍	-11.129
瑩	-11.1291
二說	-11.1292
法界次第	-11.1292
來生	-11.1293
三十子	-11.1293
異說	-11.1293
二因	-11.1295
是正	-11.1297
順理	-11.1298
而於	-11.1299
聊	-11.1301
所念	-11.1303
上二界	-11.1307
約觀	-11.1308
忖	-11.1308
一切菩薩	-11.1308
請答	-11.1309
停心	-11.1309
之法也	-11.1312
所因	-11.1313
惡口	-11.1313
靡	-11.1314
次列	-11.1315
法合	-11.1315
會三歸一	-11.1316
生不生	-11.1318
諷誦	-11.1318
苦因	-11.1319
今論	-11.1321
身口意	-11.1322
別譬	-11.1322
動靜	-11.1327
中有四	-11.1329
五力	-11.133
展轉相	-11.1334
晦	-11.1334
人皆	-11.1336
瑜伽論	-11.1336
▁一正	-11.1338
搆	-11.1338
夙	-11.134
教理行果	-11.1341
近代	-11.1344
慧解脫	-11.1345
其上	-11.1347
讚嘆	-11.1348
金輪	-11.1351
無際	-11.1352
不礙	-11.1354
復何	-11.1355
更須	-11.1357
證於	-11.1358
於三	-11.1358
當生	-11.1369
聰明	-11.137
之狀	-11.1375
並屬	-11.138
一雨	-11.138
一心頂禮	-11.138
定力	-11.1382
我及	-11.1382
始行	-11.1383
隨類	-11.1383
本心	-11.1384
問既	-11.1385
詔	-11.1386
燭	-11.1386
大迦葉	-11.1386
十使	-11.1387
如是則	-11.1387
之功德	-11.1388
天帝	-11.1389
爪	-11.1389
無明為	-11.1389
中陰	-11.139
涼	-11.139
地位	-11.1391
我昔	-11.1391
嬉戲	-11.1392
如來出世	-11.1393
多說	-11.1394
烟	-11.1394
即非	-11.1394
猶豫	-11.1396
及見	-11.1396
積聚	-11.1399
仲	-11.14
非色	-11.1404
正應	-11.1405
真法	-11.1409
皆不可得	-11.1411
亦成	-11.1412
諸方	-11.1412
悉能	-11.1413
並有	-11.1418
化為	-11.1419
於如來滅後	-11.1425
緣理	-11.1426
頌長行	-11.1427
道德	-11.1428
所說之法	-11.1431
亦與	-11.1431
入無餘	-11.1433
動執生疑	-11.1433
外色	-11.1436
位位	-11.1436
欲知	-11.1437
昔說	-11.1441
何緣	-11.1441
半頌	-11.1443
雙樹	-11.1443
漂	-11.1445
之惡	-11.1447
吼	-11.145
約於	-11.145
吟	-11.1451
中生	-11.1452
華果	-11.1453
墮惡道	-11.1453
若用	-11.1453
匪	-11.1455
即起	-11.1456
般若中	-11.1462
業道	-11.1462
▁二釋明	-11.1463
誨	-11.1467
上之	-11.1468
常精進	-11.1469
陰陽	-11.147
後五	-11.1471
言有	-11.1471
得是	-11.1472
廣狹	-11.1474
常以	-11.1476
後有	-11.1478
上地	-11.1478
此據	-11.1478
三有	-11.148
具云	-11.1482
宛	-11.1486
無等等	-11.1487
受教	-11.1488
名目	-11.1491
正在	-11.1496
資生	-11.1497
六七	-11.1498
助宣	-11.1501
神足	-11.1504
煩惱即菩提	-11.1504
電	-11.1509
亦空	-11.1509
安樂行品	-11.1511
亦兼	-11.1511
即攝	-11.1511
作者	-11.1511
第一義悉檀	-11.1513
位不退	-11.1516
已前	-11.1518
乾慧地	-11.1519
難者	-11.1519
刺	-11.1521
相故	-11.1522
起修	-11.1522
何者是	-11.1524
檀越	-11.1525
還歸	-11.1525
成觀	-11.1525
當得阿耨多羅三藐三菩提	-11.1529
大果	-11.1531
妙德	-11.1531
六十劫	-11.1535
死屍	-11.1536
何時	-11.1536
入城	-11.1547
答意者	-11.1552
三十七	-11.1553
四佛	-11.1554
疲	-11.1554
世第一法	-11.1555
十番	-11.1556
無希取	-11.1557
赤色	-11.1557
欲重宣此義而說偈言	-11.156
既能	-11.156
作禮	-11.1561
可畏	-11.1562
作是言	-11.1562
說文云	-11.1562
天華	-11.1563
本識	-11.1566
一科	-11.1567
▁初略	-11.1569
鮮	-11.1569
為事	-11.1569
攻	-11.1571
六妙門	-11.1576
自利利他	-11.1579
施主	-11.1579
誰能	-11.1579
討	-11.1581
訛	-11.1581
身長	-11.1583
渡	-11.1584
湖	-11.1584
云何名為	-11.1587
親疎	-11.1588
閱	-11.1588
化度	-11.159
王城	-11.1592
且依	-11.1593
將護	-11.1594
假中	-11.1596
於斯	-11.1597
攝心	-11.1601
無非法界	-11.1602
一聞	-11.1602
初長行	-11.1604
此由	-11.1605
於境	-11.1609
若更	-11.161
非我	-11.161
▁初立	-11.1621
終無	-11.1623
搖	-11.1623
五部	-11.1624
大菩提	-11.1626
離苦	-11.1626
黎	-11.1627
十雙	-11.1628
例然	-11.1629
即空即假即中	-11.1629
隨時	-11.163
寶樹	-11.163
本經	-11.1632
如次	-11.1632
熟蘇	-11.1634
或謂	-11.1634
契理	-11.1634
八背捨	-11.1636
分文	-11.1636
菩薩聲聞	-11.1636
具十界	-11.1637
離染	-11.1638
身也	-11.1639
諍論	-11.1639
互舉	-11.1641
菓	-11.1642
世界悉檀	-11.1643
入初地	-11.1644
即上	-11.1644
之病	-11.1646
拈	-11.1647
娛樂	-11.1648
斫	-11.1649
第二從	-11.165
迷惑	-11.165
與上	-11.165
不還	-11.1651
善惡業	-11.1651
不忍	-11.1652
兩足	-11.1652
若發	-11.1652
摩訶止觀	-11.1654
中理	-11.1658
經初	-11.1658
中自有	-11.1659
亦異	-11.1659
一个	-11.1661
一大事因緣	-11.1661
多所	-11.1661
如月	-11.1664
一子	-11.1665
力也	-11.1666
變造	-11.1672
六凡	-11.1672
為眾生說	-11.1675
作如是言	-11.1677
此門	-11.1679
無滅	-11.1679
及南曰	-11.168
但成	-11.168
不名為	-11.1681
是身	-11.1682
說耳	-11.1682
唯願	-11.1685
寶物	-11.1685
爽	-11.1687
諦境	-11.1689
天中	-11.169
請觀音	-11.1693
馳走	-11.1694
既明	-11.1694
此合	-11.1694
無名	-11.1696
誡勸	-11.1697
瘦	-11.1699
義不成	-11.17
午	-11.1701
則通	-11.1702
他經	-11.1702
餘法	-11.1704
憐	-11.1706
設化	-11.1707
渠	-11.1708
班	-11.1709
要須	-11.1709
松	-11.171
有本	-11.1714
擇滅	-11.1714
或從	-11.1718
而釋	-11.1719
人天乘	-11.1719
信法	-11.172
俱解脫	-11.1723
事者	-11.1723
以求	-11.1723
是世界	-11.1724
三惡	-11.1725
等經	-11.1725
大通智勝	-11.1726
結業	-11.1728
輪轉	-11.1732
天雨	-11.1732
相傳	-11.1735
答疏云	-11.1735
同彼	-11.1735
不散	-11.1735
三祇	-11.1738
妙法蓮華	-11.1741
有多種	-11.1741
時人	-11.1742
俱非	-11.1743
觀解	-11.1744
舉喻	-11.1745
即破	-11.1745
能度	-11.1745
圓解	-11.1746
持法	-11.1748
陶	-11.1749
斷盡	-11.1752
智度	-11.1753
為諸眾生	-11.1754
與大	-11.1755
所變	-11.1755
答問	-11.1756
明見	-11.1759
就文為二	-11.1761
髻	-11.1761
峰	-11.1762
問如何	-11.1762
以智	-11.1762
十歲	-11.1764
總說	-11.1765
祀	-11.1767
幹	-11.1767
真似	-11.1772
總舉	-11.1772
猶如虗空	-11.1772
徧一切處	-11.1773
亦得名	-11.1773
藥病	-11.1779
剌	-11.178
即法	-11.178
一心合掌	-11.178
成阿耨多羅三藐三菩提	-11.178
譽	-11.178
兮	-11.1782
不能盡	-11.1783
五略	-11.1784
以此為	-11.1784
其土	-11.1785
所以下	-11.1786
但由	-11.1787
欲聞	-11.1791
我執	-11.1794
方便力	-11.1795
互用	-11.1798
次譬	-11.1799
若開	-11.18
八王子	-11.1801
他云	-11.1802
大願	-11.1802
妙慧	-11.1805
先敘	-11.181
文末	-11.1811
覺分	-11.1815
前六	-11.1817
亦令	-11.1817
卉木	-11.1819
彈斥	-11.1819
餘之	-11.182
小樹	-11.182
變土	-11.1824
為令	-11.1825
劫初	-11.1826
高山	-11.1826
便得	-11.1828
法藥	-11.183
得意	-11.183
於事	-11.1831
未起	-11.1831
把	-11.1831
調停	-11.1833
真智	-11.1834
三味	-11.1835
健	-11.1836
第四明	-11.1839
二年	-11.184
縱有	-11.1841
地動	-11.1842
耶輸	-11.1842
大寶	-11.1845
記者	-11.1847
略頌	-11.1848
此指	-11.185
他身	-11.1851
借別	-11.1851
諦緣	-11.1852
玅覺	-11.1853
百萬億	-11.1853
於十方	-11.1858
十觀	-11.1858
是體	-11.1866
四洲	-11.187
唯約	-11.1876
初一行半	-11.1877
以見	-11.1879
諸論	-11.1881
初修	-11.1881
初合	-11.1886
褒	-11.1886
威神	-11.1887
爐	-11.1888
超越	-11.1889
法名	-11.189
賈	-11.1891
染法	-11.1891
示滅	-11.1891
叡	-11.1893
會之	-11.1894
娑	-11.1894
淡	-11.1894
茂	-11.1895
詳之	-11.1897
能聞	-11.1897
不妄	-11.1897
下破	-11.1897
空不空	-11.1901
賞	-11.1903
姑	-11.1904
一位	-11.1905
寶積	-11.1905
說大	-11.1906
遍一切處	-11.1907
上生	-11.1907
修成	-11.1909
林中	-11.1914
比丘比丘尼優婆塞優婆夷	-11.1916
而分	-11.1916
雖聞	-11.1917
斯乃	-11.192
大梵	-11.1923
可為	-11.1924
不徧	-11.1924
與我	-11.1927
無緣慈悲	-11.1927
通達無礙	-11.1927
皆稱	-11.1929
資成	-11.1929
世法	-11.1932
諸法皆	-11.1933
蒙佛	-11.1934
住此	-11.1936
類也	-11.1937
受法	-11.195
失也	-11.1951
之想	-11.1951
有色	-11.1952
旋陀羅尼	-11.1955
初文二	-11.1956
之餘	-11.1956
既具	-11.1957
當於	-11.1959
層	-11.196
力無所畏	-11.196
村	-11.1961
證也	-11.1961
四聖諦	-11.1961
禍	-11.1962
呈	-11.1963
聾	-11.1964
儀式	-11.1964
法本	-11.1967
何等為	-11.1967
倉	-11.1967
為七	-11.1972
麥	-11.1973
自能	-11.1973
遭苦	-11.1973
止止	-11.1974
所潤	-11.1975
斷三界	-11.1979
操	-11.1979
應物	-11.1982
事法	-11.1983
阿難言	-11.1984
不亂	-11.1986
必以	-11.1988
一段	-11.199
書云	-11.199
行妙	-11.199
知法	-11.1991
即說	-11.1992
根未熟	-11.2
七行	-11.2
一切行	-11.2001
本非	-11.2002
兩門	-11.2002
隨逐	-11.2003
未曾有法	-11.2003
如來室	-11.2004
餘習	-11.2006
名不	-11.2007
梵本	-11.2008
意明	-11.2009
不移	-11.2012
如來所說	-11.2013
四乘	-11.2013
標名	-11.2014
故不得	-11.2014
互為	-11.2014
堪為	-11.2015
熏心	-11.2016
諸佛出世	-11.2017
四地	-11.2018
豁	-11.2018
結前生後	-11.2018
在其中	-11.202
圓證	-11.2021
例餘	-11.2022
身心不動	-11.2023
自作	-11.2026
欠	-11.2026
直指	-11.2029
凡夫二乘	-11.203
費	-11.2031
僅	-11.2032
已上	-11.2033
等正覺	-11.2036
來至	-11.2037
上忍	-11.2037
此疑	-11.2038
剎利	-11.2039
斗	-11.2039
朱	-11.2041
何言	-11.2042
說小	-11.2043
所論	-11.2043
如說	-11.2047
現於	-11.2051
欣樂	-11.2051
毒藥	-11.2052
入無餘涅槃	-11.2053
宣揚	-11.2053
經歷	-11.2056
諸經中	-11.2059
如後	-11.206
約四教	-11.2062
尚爾	-11.2063
之論	-11.2065
止觀中	-11.2066
相現	-11.2069
次合	-11.2071
於權	-11.2078
作如是	-11.2078
只有	-11.2079
以何	-11.208
百由旬	-11.2082
起用	-11.2084
六十小劫	-11.2086
折伏	-11.2089
經家敘	-11.2089
放大光明	-11.209
體非	-11.2091
小兒	-11.2092
莊子	-11.2093
勘	-11.2095
不便	-11.2095
藥王品	-11.2096
未到	-11.2098
大事因緣	-11.2102
但用	-11.2102
令諸眾生	-11.2104
聖諦	-11.2104
肆	-11.2105
鄣	-11.2106
父見子	-11.2107
由佛	-11.2107
得福	-11.2109
此性	-11.211
持者	-11.211
初立	-11.211
一問	-11.2111
余曰	-11.2113
譬作本	-11.2115
不虗也	-11.2115
數也	-11.2119
中途	-11.2119
王宮	-11.2119
文勢	-11.2124
塔廟	-11.2127
肇	-11.2127
淨妙	-11.2127
通別二	-11.2128
不順	-11.2133
明因	-11.2133
別答	-11.2136
無障	-11.214
盡是	-11.2142
小劫	-11.2142
信樂	-11.2142
此並	-11.2143
商人	-11.2145
初總標	-11.2145
初周	-11.2146
繫縛	-11.2146
又解	-11.2146
未度	-11.2146
去取	-11.2148
是無	-11.2148
無生無滅	-11.2153
難易	-11.2155
伏忍	-11.2156
閣	-11.2156
功成	-11.2157
聞名	-11.2157
九法界	-11.2157
三十一	-11.2157
樂受	-11.2158
退失	-11.2159
得免	-11.2159
等四句	-11.2161
綿	-11.2162
英	-11.2162
援	-11.2162
果人	-11.2163
淚	-11.2166
行六度	-11.2166
殺人	-11.2167
自相	-11.2169
法華中	-11.217
求於	-11.2171
小超	-11.2172
愍念	-11.2172
斯義	-11.2172
初文又二初	-11.2172
此法門	-11.2174
設方便	-11.2174
等相	-11.2177
受命	-11.2179
題目	-11.2179
法華會上	-11.2185
聞品	-11.2185
▁初長行	-11.2186
亦明	-11.2188
略出	-11.2188
漫	-11.2189
於無量	-11.2189
我說	-11.2189
隨事	-11.2191
修菩薩行	-11.2192
能離	-11.2195
初是	-11.2195
平聲	-11.2195
對論	-11.2196
名無量義	-11.2197
嘉祥	-11.2198
相海	-11.22
發露	-11.2202
財施	-11.2202
示佛知見	-11.2202
令住	-11.2204
必是	-11.2205
族姓子	-11.2205
也又云	-11.2205
譬於	-11.2207
二章	-11.2209
脩多羅	-11.221
長大	-11.221
譬也	-11.2212
為最	-11.2214
許說	-11.2214
在世	-11.2214
雲集	-11.2215
為生	-11.2215
調熟	-11.2216
亘	-11.2216
殺生	-11.2217
曠野	-11.2218
祗	-11.2218
三惡道	-11.2218
憚	-11.2219
界內外	-11.2222
霑	-11.2223
無外	-11.2224
。」△	-11.2225
入住	-11.2225
求索	-11.2225
有為法	-11.2226
次說	-11.2227
兩釋	-11.2227
怯弱	-11.2228
變現	-11.223
舍利弗言	-11.223
是故名為	-11.2232
而坐	-11.2232
覔	-11.2232
定中	-11.2233
何耶	-11.2233
說妙法	-11.2233
自立	-11.2235
餘五	-11.2235
毀謗	-11.2235
巳還	-11.2236
成就眾生	-11.2238
針	-11.2238
直以	-11.2239
滅故	-11.224
不周	-11.2241
命根	-11.2241
自恣	-11.2244
酥	-11.2244
初教	-11.2244
為所依	-11.2246
字義	-11.2247
多用	-11.2248
渴仰	-11.2248
文可見	-11.2249
說為	-11.225
發生	-11.2251
先出	-11.2257
大城	-11.2259
約部	-11.226
志求	-11.2262
機熟	-11.2262
圓家	-11.2266
譬之	-11.2268
仍須	-11.2268
成菩提	-11.2269
菩薩地	-11.2269
是眾生	-11.227
障道	-11.227
八句	-11.2271
山頂	-11.2273
滅度之後	-11.2273
悉有	-11.2274
六種震動	-11.2275
義亦	-11.2275
不至	-11.2279
何益	-11.228
定有	-11.2281
何人	-11.2282
秘藏	-11.2283
庫	-11.2286
入三昧	-11.2286
常住不滅	-11.2288
敕	-11.229
園林	-11.2291
頑	-11.2291
栖	-11.2292
下至	-11.2296
佛不	-11.2296
一言	-11.2299
又為二	-11.2301
因人	-11.2302
行業	-11.2303
是諸人等	-11.2304
月光	-11.2305
海水	-11.2305
為下根	-11.2308
作大	-11.2309
為惡	-11.231
無比	-11.2312
依之	-11.2312
使其	-11.232
此有	-11.232
其功	-11.232
一多	-11.2321
應受	-11.2321
二生	-11.2325
得羅漢	-11.2326
事業	-11.2327
雖得	-11.2327
今皆	-11.2328
舍利弗等	-11.2329
無他	-11.2331
即合	-11.2333
二十六	-11.2336
天宮	-11.2337
天行	-11.2339
勳	-11.2339
入出	-11.234
所開	-11.234
菩	-11.2342
瑞應	-11.2343
大雲	-11.2343
之因緣	-11.2345
後分	-11.2345
即圓	-11.2345
所致	-11.2346
非人	-11.2348
相入	-11.2351
時至	-11.2355
義意	-11.2359
惟忖	-11.236
或為	-11.2361
然其	-11.2361
刪	-11.2361
激	-11.2361
取之	-11.2363
陣	-11.2363
分為	-11.2365
屠	-11.2366
修六度	-11.2368
三乘之	-11.2368
由心	-11.2371
陷	-11.2371
苗	-11.2371
枝末	-11.2373
通因果	-11.2373
究竟涅槃	-11.2375
相空	-11.2377
大千界	-11.2377
之日	-11.2379
俱舍論	-11.2379
煗	-11.2379
如是我聞	-11.238
自昔	-11.238
聞思	-11.2381
狹小	-11.2382
橫論	-11.2382
婬欲	-11.2382
聲聞弟子	-11.2384
吾祖	-11.2384
障重	-11.2385
即顯	-11.2387
供養舍利	-11.2387
在彼	-11.239
四種四諦	-11.2391
七生	-11.2392
大弟子	-11.2396
入佛慧	-11.2403
通用	-11.2404
次斷	-11.2405
豈同	-11.2405
諸業	-11.2405
第十地	-11.2408
見眾生	-11.2408
甚為希有	-11.2408
恐誤	-11.2408
一相一味	-11.2408
初略	-11.241
名觀世音	-11.2413
成實	-11.2414
次正明	-11.2416
聽聞	-11.2417
如來座	-11.2419
末法	-11.2419
比決	-11.2424
慧行	-11.2425
食之	-11.2426
佛及	-11.2428
初以	-11.2428
於餘	-11.2429
在果	-11.2429
又四	-11.2429
醒	-11.2429
方便教	-11.2432
弘宣	-11.2433
利行	-11.2435
占	-11.2435
望前	-11.2437
本中	-11.2438
仲尼	-11.2438
待絕	-11.244
額	-11.2442
忿	-11.2443
逗機	-11.2444
三文	-11.2446
灰斷	-11.2447
分得	-11.245
證此	-11.245
流入	-11.2452
一大	-11.2456
四善根	-11.2456
喫	-11.2456
佛亦	-11.2458
若眾生	-11.2461
邪法	-11.2461
為麁	-11.2462
此節	-11.2468
知機	-11.2468
人師	-11.2473
一切種	-11.2474
况	-11.2476
今合	-11.2477
染性	-11.2478
性本	-11.2479
於汝意云何	-11.248
他宗	-11.248
證信	-11.2481
可識	-11.2482
釋文	-11.2483
則易	-11.2485
萬八千土	-11.2487
唯佛與佛	-11.2488
中又二	-11.2488
故復	-11.249
告諸比丘	-11.2491
列眾	-11.2491
觀陰	-11.2492
龕	-11.2492
境妙	-11.2493
▁二合	-11.2496
有別	-11.2496
法身地	-11.2499
有通別	-11.2501
曹	-11.2502
供給	-11.2502
次下	-11.2502
三昧者	-11.2506
謂於	-11.2507
不分別	-11.2508
胸	-11.2508
灾	-11.251
所譯	-11.2512
據實	-11.2515
赴緣	-11.2516
一十	-11.2517
令成	-11.2523
共有	-11.2526
而辨	-11.2531
二行半	-11.2531
即今	-11.2532
成佛時	-11.2533
是通	-11.2534
此相	-11.2535
實故	-11.2536
法力	-11.2537
三苦	-11.2539
四十二	-11.254
起見	-11.2541
增道損生	-11.2544
從三昧起	-11.2547
既通	-11.2548
開示悟入佛之知見	-11.2548
或於	-11.2548
釋迦佛	-11.2552
執持	-11.2553
二十九	-11.2555
四空	-11.2557
遍計	-11.2557
蔭	-11.2558
八相成道	-11.2563
世出世間	-11.2564
證涅槃	-11.2565
不可量	-11.2565
答此	-11.2565
怯	-11.2566
黃金	-11.2566
飜	-11.2566
好惡	-11.2567
未堪	-11.2567
正遍知	-11.2567
智境	-11.2568
獨處	-11.2569
而且	-11.257
拳	-11.2571
中智	-11.2572
無遺	-11.2572
六處	-11.2572
謂為	-11.2574
賦	-11.2578
忍位	-11.258
初番	-11.2581
而常	-11.2582
一實相	-11.2589
八難	-11.259
前約	-11.2591
無限	-11.2591
服藥	-11.2592
下有	-11.2592
以諸	-11.2592
色香	-11.2593
兩品	-11.2593
止之	-11.2598
仍有	-11.2599
歸趣	-11.2599
從實	-11.2601
惟願	-11.2606
淨業	-11.2606
據理	-11.2606
一則	-11.261
在人	-11.261
六度菩薩	-11.261
門門	-11.261
變成	-11.2612
斷疑生信	-11.2613
勤苦	-11.2614
委釋	-11.2614
之源	-11.2614
次第者	-11.2615
皆巳成佛道	-11.2616
如乳	-11.2616
我之	-11.2617
加持	-11.2617
十德	-11.2617
污	-11.2618
釋提桓因	-11.2618
眾僧	-11.262
事觀	-11.262
經首	-11.2621
財富無量	-11.2621
斯文	-11.2621
涅	-11.2625
就文	-11.2627
成一	-11.2629
惡獸	-11.263
谿	-11.2631
鬪	-11.2633
千里	-11.2633
之分	-11.2635
現神力	-11.2637
裁	-11.2637
餘國	-11.2637
事禪	-11.2639
殺賊	-11.2639
灌頂	-11.264
敬禮	-11.2642
疑問	-11.2642
必定	-11.2643
且據	-11.2644
近迹	-11.2645
洎	-11.2646
不惟	-11.2648
善吉	-11.2648
犬	-11.2649
精舍	-11.2649
聲教	-11.2649
兩經	-11.265
蓮花	-11.2651
巳生	-11.2653
籤云	-11.2653
眼目	-11.2654
雙結	-11.2654
本生	-11.2655
囊	-11.2656
即表	-11.2657
三十三	-11.2658
悟理	-11.2659
上妙	-11.2661
一句一偈	-11.2662
皆大歡喜	-11.2665
為一乘	-11.2665
五通	-11.2668
正勤	-11.2672
無所依	-11.2673
皆得解脫	-11.2676
判釋	-11.2676
財寶	-11.2677
生後	-11.2677
引大論	-11.2677
己身	-11.2678
出火宅	-11.2679
如淨名	-11.2679
是涅槃	-11.2679
眾生法	-11.268
我常	-11.2681
此華	-11.2685
鎧	-11.2686
難遇	-11.2686
淨法	-11.2687
七識	-11.2688
別列	-11.2689
發阿耨多羅三藐三菩提心	-11.2689
終歸	-11.2691
神通之力	-11.2694
今古	-11.2694
始於	-11.2695
二頌合	-11.2696
總有	-11.27
有實	-11.27
螺	-11.2702
聞聲	-11.2704
法身也	-11.2705
昔佛	-11.2707
輝	-11.2708
宏	-11.2709
即此義也	-11.271
四無量	-11.2711
問意	-11.2712
端嚴	-11.2712
劫名	-11.2712
愆	-11.2714
慈氏	-11.2714
火宅中	-11.2715
嗔恚	-11.2716
等耶	-11.2716
應在	-11.2717
故來	-11.2717
如實知	-11.2718
通約	-11.2718
瞿	-11.2719
相分	-11.272
能了	-11.272
以何法	-11.2721
貨	-11.2723
序云	-11.2723
歎法	-11.2726
諸禪定	-11.2728
束為	-11.273
即世界	-11.2732
讀者	-11.2733
妙假	-11.2735
教以	-11.2736
起慈悲	-11.2739
八生	-11.2743
實道	-11.2744
愛著	-11.2744
三月	-11.2747
本因	-11.2747
益他	-11.275
至心	-11.275
三密	-11.2751
生蘇	-11.2752
求其	-11.2752
前解	-11.2758
時分	-11.2759
普門示現	-11.2764
親族	-11.2764
有時	-11.2768
隨喜者	-11.2768
覺者	-11.2769
灌	-11.277
等賜大車	-11.2774
當念	-11.2774
軒	-11.2775
具如止觀	-11.2775
善道	-11.2775
▁一明	-11.2775
高原	-11.2776
有德	-11.2777
二而不二	-11.2777
諸味	-11.2778
心想	-11.2778
妙果	-11.2783
教之	-11.2784
在會	-11.2784
三點	-11.2786
中邊	-11.279
未是	-11.279
則可	-11.2791
皆巳	-11.2791
彰其	-11.2792
前諸	-11.2792
老子	-11.2793
若有比丘	-11.2793
阿脩羅	-11.2794
深重	-11.2794
星宿	-11.2794
隨應	-11.2794
火災	-11.2794
此佛	-11.2795
或在	-11.2799
如身子	-11.28
若復	-11.2802
故論云	-11.2803
既成	-11.2804
是第一義	-11.2804
佛德	-11.2805
總言	-11.2806
六神通	-11.2807
略不頌	-11.2809
一文	-11.2809
示同	-11.2812
法有	-11.2812
被機	-11.2812
斷除	-11.2813
威力	-11.2815
此偈	-11.282
報化	-11.282
初喻	-11.2821
右手	-11.2821
非滅現滅	-11.2823
遣使	-11.2823
滿願	-11.2824
外緣	-11.2825
善也	-11.2826
六師	-11.2826
筋	-11.2827
所學	-11.2827
正因佛性	-11.2828
內證	-11.2828
開廢	-11.2828
又為	-11.2834
在初	-11.2835
亦不知	-11.2835
有支	-11.2838
九次第定	-11.284
漸悟	-11.2841
若唯	-11.2841
牀	-11.2844
無分	-11.2845
行解	-11.2845
冰	-11.2847
在下	-11.2847
效	-11.2848
且云	-11.2848
祕密藏	-11.285
付家業	-11.2852
▁九	-11.2852
南洲	-11.2852
五眾	-11.2852
舊解	-11.2852
機也	-11.2853
大部	-11.2854
百萬	-11.2854
唯一佛乘	-11.2854
菴	-11.2854
巳知	-11.2855
五戒十善	-11.2858
四微	-11.2859
出自	-11.2859
律師	-11.286
五停心	-11.2863
是故如來	-11.2863
所著	-11.2864
唱言	-11.2865
記文	-11.2866
見色	-11.2868
得知	-11.2869
自餘	-11.287
寂滅忍	-11.2872
生歡喜	-11.2874
調柔	-11.2875
之水	-11.2878
復是	-11.2879
初有	-11.2881
令眾	-11.2882
當說	-11.2882
佛即	-11.2883
佛剎	-11.2884
阿含云	-11.2884
如何是	-11.2885
若解	-11.2888
無足	-11.2889
聞法華經	-11.2891
假設	-11.2891
玉篇	-11.2893
初一句	-11.2894
若將	-11.2895
住空	-11.2897
遍身	-11.2897
〉、〈	-11.2897
從來	-11.2898
法師云	-11.29
菩薩眾	-11.2901
念彼觀音力	-11.2901
智光	-11.2903
又無	-11.2904
稱其	-11.2904
不顛倒	-11.2904
世間相常住	-11.2904
未論	-11.2906
怨賊	-11.2907
行不退	-11.2908
迹示	-11.2912
具列	-11.2916
岳	-11.2919
為例	-11.2921
且置	-11.2924
以種種	-11.2926
為相	-11.2927
前四時	-11.2928
一見	-11.2929
地也	-11.2929
觀佛	-11.2929
如實相	-11.293
辨才	-11.2931
薦	-11.2931
所熏	-11.2932
諸魔	-11.2934
七科	-11.2938
其地	-11.2941
七年	-11.2941
正答	-11.2942
更互	-11.2943
普賢觀	-11.2943
雙標	-11.2944
聞佛所說	-11.2944
今何	-11.2946
為師	-11.2947
惡行	-11.2947
教授	-11.2948
六道眾生	-11.2949
身證	-11.2955
即是法身	-11.2956
小乘人	-11.2958
智勝	-11.296
是假	-11.2962
無厭	-11.2963
所云	-11.2964
精勤	-11.2965
少時	-11.2966
切音	-11.2966
更相	-11.2967
至理	-11.2968
明知	-11.2974
先約	-11.2974
世之	-11.2974
無量千萬億	-11.2978
有通有別	-11.2978
能受	-11.2979
秘密藏	-11.298
淨戒	-11.2982
之火	-11.2983
荼	-11.2984
根緣	-11.2985
如夢	-11.2986
藥草喻品	-11.2988
跪	-11.299
總為	-11.2991
不能自	-11.2992
之矣	-11.2992
詰	-11.2994
同行	-11.2995
轉釋	-11.2996
三行頌	-11.2997
▁初舉	-11.2997
諸義	-11.2998
吒	-11.3003
頂禮	-11.3006
為後	-11.3006
五分法身	-11.3008
適時	-11.3008
如來衣	-11.3009
現報	-11.3009
諸三昧	-11.301
曉了	-11.301
此通	-11.3014
季	-11.3014
不障	-11.3014
世間出世間	-11.3015
功報	-11.3015
緣修	-11.3016
亦先	-11.3022
正直	-11.3022
義異	-11.3023
為行	-11.303
下解釋	-11.3031
八番	-11.3031
句句	-11.3031
繫念	-11.3033
一切聲聞	-11.3036
無央數	-11.3037
金口	-11.3037
植眾德本	-11.3039
䟽	-11.304
為究竟	-11.304
厭苦	-11.3041
汙	-11.3042
五地	-11.3046
第二段	-11.3047
衣裓	-11.3048
機動	-11.3051
隨心	-11.3051
於義	-11.3051
永斷	-11.3052
如是性	-11.3052
喻曰	-11.3052
為彼	-11.3052
我雖	-11.3057
能取	-11.3057
無數方便	-11.3059
法師功德品	-11.3059
巳斷	-11.306
之方便	-11.306
摩頂	-11.3062
三界火宅	-11.3063
既未	-11.3065
▁二出	-11.3066
通別圓	-11.3066
還成	-11.3066
我今當	-11.3066
第二卷	-11.3067
別示	-11.3068
空相	-11.307
須約	-11.307
罰	-11.3072
求佛道者	-11.3072
好醜	-11.3072
詮量	-11.3074
袈裟	-11.3074
斛	-11.3074
四種三昧	-11.3074
祿	-11.3075
波羅	-11.3076
四正勤	-11.3077
之世	-11.3077
佛經	-11.3077
雞	-11.3079
為菩薩說	-11.3079
因緣生	-11.3085
行苦	-11.3085
不預	-11.3085
又二先	-11.3086
四三昧	-11.3086
善見	-11.3086
十里	-11.3086
為得	-11.3089
為上	-11.3089
庸	-11.3089
之化	-11.3094
罪報	-11.3099
藏識	-11.3099
能趣	-11.31
論解	-11.31
聖凡	-11.3101
今師	-11.3102
八解脫	-11.3102
▁三又	-11.3105
▁三明	-11.3106
妬	-11.3106
本論	-11.3106
何要	-11.3108
豈唯	-11.311
入見道	-11.3111
不窮	-11.3112
不思	-11.3115
斥之	-11.3115
簡異	-11.3115
有三意	-11.3116
以教	-11.3118
解脫門	-11.3119
因成	-11.3122
九者	-11.3123
心相體信	-11.3123
願我	-11.3124
斯事	-11.3124
法利	-11.3126
維摩詰	-11.3127
諍競	-11.3129
法樂	-11.313
對境	-11.3132
別理	-11.3133
▁初示	-11.3135
必無	-11.3137
鳳	-11.3139
徒眾	-11.3139
除滅	-11.314
於諸佛所	-11.314
勤求	-11.3142
咨	-11.3143
鶴	-11.3143
如上所說	-11.3143
佛祖	-11.3144
六門	-11.3145
有功	-11.3145
澁	-11.3145
形像	-11.3145
不生不生	-11.3146
三日	-11.3151
境中	-11.3151
之屬	-11.3154
義釋	-11.3155
所轉	-11.3156
結顯	-11.3158
羽	-11.316
為人說	-11.316
見心	-11.3162
置毒	-11.3163
種種諸	-11.3164
次判	-11.3166
體徧	-11.3166
乘體	-11.3167
文言	-11.3167
只如	-11.3168
巧拙	-11.3168
一世	-11.3169
客曰	-11.317
頂上	-11.3171
三十五	-11.3174
行中	-11.3174
彼經云	-11.3175
為自	-11.3176
說不能盡	-11.3176
佛因	-11.3177
踊躍	-11.3177
重說	-11.3179
雜心	-11.3182
入大乘	-11.3182
文理	-11.3183
日出	-11.3183
而照	-11.3185
若直	-11.3186
不知其	-11.3186
若了	-11.3188
應現	-11.3188
華臺	-11.3188
若行	-11.3188
過此	-11.3189
自陳	-11.3191
大悲心	-11.3195
見空	-11.3196
示以	-11.3196
來集	-11.3202
分別功德	-11.3202
阿鼻	-11.3202
我若	-11.3202
疏言	-11.3203
薩遮	-11.3206
什公	-11.3207
攝盡	-11.3207
一頌半	-11.3209
則同	-11.321
實慧	-11.3211
臍	-11.3211
伏斷	-11.3212
鎮	-11.3213
能攝	-11.3213
勝於	-11.3213
遽	-11.3213
是善	-11.3215
戾	-11.3215
行有	-11.3215
狼	-11.3215
銘	-11.3217
功德也	-11.3217
邦	-11.3218
豈以	-11.3218
其要	-11.322
蒼	-11.3221
無動	-11.3221
非獨	-11.3222
說是法華經	-11.3222
後報	-11.3223
領納	-11.3223
十億	-11.3223
以身	-11.3224
三藏佛	-11.3225
七善	-11.3228
當知是	-11.323
未久	-11.3231
為巳	-11.3234
尚書	-11.3235
脈	-11.3235
疑網	-11.3236
他生	-11.3236
果成	-11.3239
揀非	-11.3242
如此等	-11.3244
本不生	-11.3244
彼論	-11.3245
有種種	-11.3245
為空	-11.3248
請法	-11.3251
此二種	-11.3256
淨性	-11.3256
之音	-11.3257
隨眾生	-11.3257
麤細	-11.3259
起大悲心	-11.326
此師	-11.326
虗相	-11.3264
勝鬘經	-11.3266
理顯	-11.3266
法說中	-11.3268
無病	-11.3268
大慈大悲	-11.3269
薩遮尼乾子	-11.3269
化菩薩	-11.3272
理合	-11.3273
即證	-11.3277
哲	-11.3278
自顯	-11.3279
二味	-11.3279
四念	-11.3281
普門品	-11.3283
眾喜	-11.3284
中道第一義諦	-11.3285
往詣	-11.3288
火難	-11.3289
日用	-11.329
犢子	-11.3291
白言	-11.3291
偷	-11.3292
嶽	-11.3293
勝者	-11.3296
柔輭	-11.3296
中路	-11.3297
驢	-11.3297
見佛聞法	-11.3298
唾	-11.3298
通利	-11.3299
出過	-11.33
百八	-11.3302
久矣	-11.3302
四章	-11.3303
之儀	-11.3303
深觀	-11.3308
迦葉當知	-11.331
三乘共	-11.3311
諸波羅蜜	-11.3312
五六	-11.3312
行善	-11.3316
第十六	-11.3317
求道	-11.3318
別指	-11.3319
例知	-11.3325
不被	-11.3326
意耳	-11.3326
或約	-11.3327
各論	-11.3327
淨覺	-11.3327
不驚	-11.3327
之真	-11.3331
門人	-11.3332
爾時長者	-11.3334
十意	-11.3335
故喻以	-11.3336
諸品	-11.3337
跨節	-11.3338
教旨	-11.3338
成就者	-11.334
法華為	-11.3343
四安樂行	-11.3343
於世間	-11.3344
通說	-11.3344
皆先	-11.3344
別頌	-11.3347
又說	-11.3348
頌第一	-11.3349
得初果	-11.3353
阿毘曇	-11.3354
有淺深	-11.3356
佛地論	-11.3356
從心	-11.3357
又於	-11.3357
俱通	-11.3358
於虗空中	-11.3358
毋	-11.3358
於圓	-11.3358
略不	-11.3358
過現	-11.3362
非非想	-11.3364
顯真實	-11.3365
若破	-11.3368
七種方便	-11.3369
還復	-11.337
絃	-11.3371
楞嚴云	-11.3371
攀緣	-11.3372
十二種	-11.3374
如來方便	-11.3374
惟其	-11.3376
諸天子	-11.3379
言詞	-11.3379
來至此	-11.3379
滅相	-11.3379
授與	-11.3381
初生	-11.3382
二境	-11.3383
香華	-11.3384
見諸眾生	-11.3386
為治	-11.3388
因地	-11.3388
見相	-11.339
亦不可	-11.3391
不相離	-11.3392
上方	-11.3392
韋陀	-11.3394
並以	-11.3396
究竟等	-11.3397
皆明	-11.3399
並云	-11.3399
永盡	-11.3402
求菩提	-11.3403
其次	-11.3403
雙舉	-11.3406
著心	-11.3407
顯妙	-11.3408
無所著	-11.3408
漸中	-11.341
下化	-11.3412
妄見	-11.3412
皆見	-11.3414
令物	-11.3415
樓閣	-11.3417
之人也	-11.3417
足以	-11.3418
此應	-11.3418
應生	-11.3419
值遇	-11.3421
介爾	-11.3422
緣者	-11.3422
從其	-11.3423
罵詈	-11.3423
觀諸法	-11.3425
會權歸實	-11.3425
即是如來	-11.3425
厄	-11.3426
小乘中	-11.3427
安可	-11.3427
勸令	-11.3427
常寂光	-11.3427
遞	-11.3427
小異	-11.3428
全在	-11.3428
十千	-11.3428
勤精進	-11.3429
畔	-11.3432
入如來室	-11.3434
宰	-11.3434
位高	-11.3434
居初	-11.3437
善來	-11.3438
訶責	-11.3439
化緣	-11.344
知禮	-11.344
不存	-11.3442
智地	-11.3442
釋迦如來	-11.3442
力士	-11.3445
得滅度	-11.3447
諸難	-11.3447
有疾	-11.3448
為除	-11.3448
義則	-11.345
前進	-11.3451
必不	-11.3452
菩提樹	-11.3452
在迷	-11.3455
例此	-11.3456
莫過	-11.3456
相承	-11.3459
之志	-11.3461
五百弟子	-11.3461
地地	-11.3464
唯圓	-11.3466
一闡提	-11.3468
不稱	-11.3468
太虗	-11.3468
如疏	-11.3472
真偽	-11.3472
宿王	-11.3475
令一切眾生	-11.3475
是故我	-11.3475
日月燈明佛	-11.3478
下四句	-11.3478
別教菩薩	-11.3481
至等覺	-11.3482
諸佛土	-11.3483
故略	-11.3484
一釋	-11.3485
縮	-11.3485
今文云	-11.3488
異體	-11.3492
非常非無常	-11.3492
佛住	-11.3492
十玅	-11.3495
於一佛乘分別說三	-11.3495
即對治	-11.3497
金剛心	-11.3499
靈鷲	-11.3499
別異	-11.35
似解	-11.3502
勑	-11.3503
知諸法	-11.3504
人見	-11.3505
無違	-11.3506
諸梵	-11.3508
相似位	-11.351
修此	-11.351
揭	-11.351
四句分別	-11.351
仗	-11.3511
立法	-11.3513
象馬	-11.3513
方等中	-11.3513
歎經	-11.3514
屏	-11.3515
四名	-11.3516
是有漏	-11.3516
頌第三	-11.3516
長行中	-11.3517
叔	-11.3519
還生	-11.352
風吹	-11.352
鍾	-11.352
孟	-11.3521
安能	-11.3521
淨光	-11.3522
於一一	-11.3522
北洲	-11.3522
道前	-11.3523
有力	-11.3524
於外	-11.3525
萬歲	-11.3525
婆娑	-11.3526
相關	-11.3528
涅槃云	-11.3529
微塵數	-11.3531
十種三法	-11.3533
學道	-11.3535
未發心	-11.3539
為障	-11.3542
願佛	-11.3543
子也	-11.3545
所獲	-11.3548
令離	-11.3549
涅槃是	-11.355
從初發心	-11.355
章中	-11.355
此三昧	-11.3551
從緣生	-11.3551
為兩	-11.3552
智妙	-11.3553
持地	-11.3555
十二支	-11.3557
苦苦	-11.3559
若執	-11.3561
正破	-11.3562
迭	-11.3564
退轉	-11.3567
似有	-11.3567
離愛	-11.3569
觀因緣	-11.3569
則全	-11.357
後身	-11.3572
經之	-11.3572
繒	-11.3574
兩足尊	-11.3574
滅盡定	-11.3577
所及	-11.3577
融會	-11.3577
斯人	-11.3577
天龍八部	-11.3578
當成	-11.3579
剩	-11.3579
略為	-11.3579
長行云	-11.358
入不二法門	-11.358
咄	-11.3582
法義	-11.3583
炭	-11.3584
永嘉	-11.3588
妙義	-11.3588
爾時彌勒菩薩	-11.359
一心三智	-11.3591
執小	-11.3592
何因	-11.3595
眾緣	-11.3595
是乘	-11.3597
十戒	-11.3597
擅	-11.3597
即涅槃	-11.3597
科文	-11.3599
破三	-11.36
下頌	-11.3601
第五十人	-11.3602
卷第一	-11.3602
未為	-11.3602
寶樹下	-11.3603
故號	-11.3605
入大	-11.361
今開	-11.361
梵眾	-11.3613
無分別智	-11.3617
只緣	-11.3619
古德	-11.362
法化	-11.3621
昔時	-11.3622
更約	-11.3624
異生	-11.3627
不獲	-11.3628
如王	-11.3629
性淨	-11.363
戒定	-11.3631
鈍者	-11.3633
取小	-11.3634
真道	-11.3636
從緣	-11.3639
諸法空	-11.364
無惑	-11.364
戒也	-11.364
所化眾生	-11.3642
道同	-11.3643
即發	-11.3644
約五味	-11.3644
後念	-11.3645
滿中	-11.3648
新舊	-11.3652
與他	-11.3653
慈悲喜捨	-11.3654
隷	-11.3654
筌	-11.3655
云何為	-11.3657
下例	-11.3658
未會	-11.366
釋題	-11.366
庫藏	-11.3663
敷演	-11.3664
先示	-11.3665
獵	-11.3665
瓦	-11.3666
身量	-11.3666
乙	-11.3666
樹王	-11.3667
淪	-11.3668
自成	-11.3668
發真無漏	-11.3669
捕	-11.3669
妙有	-11.367
不見佛	-11.3671
一心中	-11.3674
往古	-11.3674
脣	-11.3675
又從	-11.3675
罪人	-11.3676
青蓮華	-11.3676
為一切	-11.3677
先觀	-11.3678
詩云	-11.3679
為根本	-11.368
正語	-11.3682
易見	-11.3682
外觀	-11.3682
一心稱名	-11.3684
形色	-11.3686
當處	-11.3687
大種	-11.3688
初牒	-11.3688
觀經	-11.3689
略廣	-11.3689
諸方便	-11.369
無復煩惱	-11.369
大神通	-11.3691
是色	-11.3692
初總明	-11.3692
目前	-11.3694
而反	-11.3696
無佛	-11.3697
肝	-11.3697
空生	-11.3698
既久	-11.3699
亦曰	-11.37
頌文	-11.3702
以心	-11.3702
經教	-11.3702
既盡	-11.3702
深密	-11.3703
之空	-11.3706
利使	-11.3706
能招	-11.3707
持業	-11.3707
齊教	-11.3707
恐人	-11.3707
供養者	-11.3708
普現色身	-11.3708
所不能	-11.3711
樂著	-11.3711
前世	-11.3713
不釋	-11.3713
復名	-11.3713
故更	-11.3713
思之思之	-11.3716
非生現生	-11.3717
險道	-11.3717
自云	-11.3717
頭面禮足	-11.372
結加趺坐	-11.3724
函	-11.3724
更說	-11.3726
一章	-11.3727
幼稚	-11.3727
以後	-11.3727
攀	-11.3728
推求	-11.3728
能開	-11.3728
自當	-11.3734
今見	-11.3734
具說	-11.3734
之端	-11.3735
舞	-11.3736
為人悉檀	-11.3736
若至	-11.3737
壞苦	-11.3737
權說	-11.374
低	-11.374
▁初敘	-11.3741
迹為	-11.3741
多佛	-11.3742
十劫	-11.3743
今教	-11.3745
日月燈明	-11.3745
菩薩以	-11.3745
從果	-11.3745
二諦也	-11.3746
前是	-11.3747
此見	-11.3749
趙	-11.375
問答料簡	-11.3752
定起	-11.3754
初二行	-11.3754
滑	-11.3755
媚	-11.3755
前念	-11.3755
通局	-11.3756
者何耶	-11.3758
菩薩戒	-11.3758
什師	-11.3762
正出	-11.3763
所集	-11.3763
度入	-11.3764
生彼	-11.3765
不信受	-11.3766
自誓	-11.377
欲使	-11.3773
何以知	-11.3773
死魔	-11.3775
我弟子	-11.3775
常途	-11.3777
非空	-11.3778
並為	-11.378
流通分	-11.3785
法師功德	-11.3788
常說	-11.379
彈訶	-11.3794
六萬	-11.3794
於地	-11.3797
此下是第二	-11.3799
六十四	-11.38
從因至果	-11.3803
三云	-11.3805
自古	-11.3805
知一切	-11.3806
智體	-11.3807
方便土	-11.3807
第二十	-11.3808
其母	-11.3809
時諸梵天王	-11.3809
未除	-11.3809
初入	-11.381
菩薩名	-11.3811
有在	-11.3813
小千	-11.3813
身而為說法	-11.3815
之士	-11.3815
滅也	-11.3815
此四句	-11.3816
逝	-11.3816
眷	-11.3816
喧	-11.3818
矜	-11.3819
願為	-11.382
破法遍	-11.382
不放逸	-11.3821
化也	-11.3821
下第二	-11.3821
充足	-11.3822
革	-11.3823
禽獸	-11.3827
阻	-11.3827
有即非有	-11.3828
盡其	-11.383
拔濟	-11.383
病者	-11.3832
卓	-11.3832
為汝	-11.3835
玄籤	-11.3837
則不然	-11.3841
說名	-11.3841
人一	-11.3842
應無	-11.3842
合云	-11.3843
次有	-11.3845
本寂	-11.3846
如是法	-11.3847
後解	-11.3847
不殺	-11.3848
之號	-11.3848
道後	-11.3849
前兩	-11.3852
論說	-11.3852
自念	-11.3855
果名	-11.3856
成妙	-11.3856
與汝	-11.3856
即兼	-11.3858
他受用	-11.3859
七八	-11.386
此經是	-11.3862
有我	-11.3862
冥顯	-11.3863
非滅	-11.3863
能救	-11.3866
意以	-11.3867
雖即	-11.3869
持名	-11.387
似位	-11.3871
果果	-11.3875
入室	-11.3875
一華	-11.3876
問前	-11.3877
破見	-11.3884
提謂	-11.3884
之終	-11.3886
疲極	-11.3888
於茲	-11.3888
食者	-11.3888
勇猛精進	-11.3889
前言	-11.3891
墮苦	-11.3891
線	-11.3892
卷第二	-11.3893
不惜身命	-11.3893
唇	-11.3893
一長行	-11.3893
是圓	-11.3894
便生	-11.3895
亭	-11.3897
深法	-11.3898
身為	-11.39
滅定	-11.39
所疑	-11.39
無餘涅槃	-11.39
鬱	-11.3901
戴	-11.3902
分科	-11.3903
絲	-11.3903
鋒	-11.3904
五初	-11.3904
小草	-11.3905
翅	-11.3905
毀者	-11.3907
羞	-11.3907
分於	-11.3909
故有此	-11.391
以偈	-11.3914
皇帝	-11.3914
以慈	-11.3914
聞是法	-11.3916
郎	-11.3916
劉	-11.3917
事行	-11.3917
七百	-11.3919
中劫	-11.3922
因茲	-11.3924
既為	-11.3926
非關	-11.3927
天衣	-11.3928
有長行偈頌	-11.393
為聲聞	-11.3933
眾惡	-11.3934
五重	-11.3934
無前後	-11.3934
三歸	-11.3935
不問	-11.3936
不可得故	-11.3938
報因	-11.3943
所能	-11.3943
不辨	-11.3945
說大法	-11.3945
一觀	-11.3949
聲聞辟支佛	-11.395
願滿	-11.395
二萬佛	-11.3951
問言	-11.3951
應為	-11.3951
隨其所	-11.3952
修止	-11.3953
三別	-11.3953
無滯	-11.3959
所不能知	-11.3959
非心	-11.3961
三賢	-11.3963
既多	-11.3964
深故	-11.3964
助顯	-11.3965
之名也	-11.3965
是觀	-11.3965
一指	-11.3965
眾聖	-11.3966
陸	-11.3967
佛神力	-11.3969
宗要	-11.3973
百千萬億那由他	-11.3973
十心	-11.3974
因名	-11.3975
下答	-11.3975
受之	-11.3978
諸說	-11.3983
難測	-11.3984
不關	-11.3985
一念隨喜	-11.3985
吏	-11.3986
能潤	-11.3987
近果	-11.3987
開導	-11.3988
慰喻	-11.3988
法華之	-11.3989
霜	-11.3989
憎	-11.399
色陰	-11.3991
當用	-11.3993
理應	-11.3994
純一	-11.3996
鳩	-11.3997
三權	-11.3998
名行	-11.3999
即無明	-11.4
此二義	-11.4003
二乘菩薩	-11.4007
真中	-11.401
皆入	-11.401
八萬劫	-11.401
變異	-11.4011
二德	-11.4016
解經	-11.4016
持經之人	-11.4017
不現前	-11.4017
著於	-11.4019
委明	-11.4019
各有所	-11.4023
無用	-11.4023
即心	-11.4025
真如理	-11.4026
第六識	-11.4027
▁二問	-11.4027
復須	-11.4029
鈴	-11.4029
指此	-11.4029
方軌	-11.403
機情	-11.403
見巳	-11.403
本在	-11.403
果故	-11.4032
受持者	-11.4033
析法	-11.4033
大火	-11.4035
悲智	-11.4035
頂法	-11.4036
不犯	-11.4038
為復	-11.404
十六沙彌	-11.4042
子等	-11.4043
全性起修	-11.4043
圓常	-11.4043
也今謂	-11.4043
其門	-11.4045
凖	-11.4045
轉為	-11.4045
不偏	-11.4046
藥艸	-11.4046
隨喜品	-11.4048
為他人說	-11.4048
愁	-11.4049
第二解	-11.4051
塵數	-11.4051
此當	-11.4052
頂戴	-11.4054
四結	-11.4054
亦難	-11.4055
見父	-11.4055
則不能	-11.4055
遺教	-11.4055
下列	-11.406
▁初通	-11.4061
由我	-11.4061
夫子	-11.4061
然今	-11.4062
表於	-11.4063
等心	-11.4064
三初頌	-11.4064
佛境界	-11.4064
卷第三	-11.4065
在茲	-11.4068
迹本	-11.4069
復作是念	-11.407
枉	-11.407
不暇	-11.4071
故不須	-11.4072
令修	-11.4072
方為	-11.4072
二師	-11.4074
是明	-11.4074
所障	-11.4074
決疑	-11.4074
斷絕	-11.4075
不次	-11.4076
初一頌	-11.4077
遍知	-11.4078
名真	-11.408
照境	-11.4081
二十五法	-11.4082
傍人	-11.4083
是子	-11.4084
聚集	-11.4089
既聞	-11.409
五佛	-11.4091
聞思修	-11.4091
正取	-11.4094
教體	-11.4094
說四諦	-11.4099
通為	-11.41
或示	-11.41
貴賤	-11.4102
調心	-11.4102
在大	-11.4105
後後	-11.4106
於昔	-11.4106
兼別	-11.4107
令不	-11.4107
離此	-11.4109
經部	-11.4112
普明	-11.4117
不涉	-11.4117
四處	-11.4117
坐師子座	-11.4117
耶若	-11.4118
依論	-11.4119
稱妙	-11.4119
表法	-11.4119
不自覺知	-11.4121
天耳	-11.4122
釋中二	-11.4122
開之	-11.4122
寂而常照	-11.4124
僧寶	-11.4125
以何為	-11.4126
噫	-11.4128
七行半	-11.4129
療	-11.4129
得一	-11.4129
在心	-11.4131
敦	-11.4133
若有菩薩	-11.4133
何足	-11.4134
行於	-11.4135
大般若	-11.4135
匝	-11.4135
誣	-11.4136
法住	-11.4136
弄	-11.4136
生死苦	-11.4137
殃掘	-11.4137
無缺	-11.414
信也	-11.4141
住果	-11.4143
今正	-11.4143
故謂之	-11.4143
是自行	-11.4144
望後	-11.4146
立此	-11.4147
一根	-11.4148
是定	-11.4149
但依	-11.415
奉命	-11.4152
三空	-11.4153
昌	-11.4153
出處	-11.4154
離一切	-11.4155
各四	-11.4155
王舍	-11.4156
然燈佛	-11.4157
一萬	-11.4157
之勝	-11.4157
不除	-11.4159
以彰	-11.416
而歸	-11.4162
此證	-11.4163
得無漏	-11.4163
奈何	-11.4163
四十六	-11.4165
得六根清淨	-11.4166
得有	-11.4167
金剛藏	-11.4168
汝身	-11.4168
隨分	-11.4168
兜率天	-11.417
又不	-11.4172
重舉	-11.4172
集分身	-11.4173
全不	-11.4173
引華嚴	-11.4175
火所燒	-11.4176
翻名	-11.4176
略言	-11.4177
凡位	-11.4177
於四	-11.4178
地涌	-11.4179
今日之	-11.4181
不談	-11.4184
中各有	-11.4184
三說	-11.4184
。】「【	-11.4185
經劫	-11.4186
所觀境	-11.4187
聖眾	-11.4187
安處	-11.4191
于今	-11.4191
號為	-11.4192
惟願世尊	-11.4196
至真	-11.4197
接引	-11.4199
名稱普聞	-11.42
過是巳後	-11.4201
身得度者	-11.4201
句也	-11.4203
寮	-11.4204
暇	-11.4206
後結	-11.4206
能與	-11.4208
?』	-11.4208
具述	-11.4208
不索	-11.421
婆羅	-11.4211
放捨	-11.4212
之恩	-11.4212
大品經	-11.4212
見諸	-11.4213
所觀之境	-11.4213
方便智	-11.4214
伎	-11.4214
輕賤	-11.4214
如來能知	-11.4214
來入	-11.4216
五十餘年	-11.4217
二依	-11.4217
小王	-11.422
屢	-11.4223
分位	-11.4224
之利	-11.4226
捐	-11.4226
為迹	-11.4228
卜	-11.4229
意生身	-11.4229
如來以	-11.4229
法王子	-11.4231
明於	-11.4231
煎	-11.4232
是智	-11.4232
有三品	-11.4232
鷄	-11.4234
幻有	-11.4235
必由	-11.4236
尋伺	-11.4238
於中初	-11.424
授記品	-11.4241
二途	-11.4245
上說	-11.4246
六行半	-11.4247
戒體	-11.4248
顯益	-11.4248
中之一	-11.4249
此地	-11.425
下界	-11.425
我與	-11.4251
者由	-11.4251
明本迹	-11.4252
道果	-11.4254
別舉	-11.4255
所度	-11.4256
▁二如	-11.4257
即是實相	-11.4258
即為人	-11.426
證知	-11.426
必假	-11.4261
報也	-11.4261
曇	-11.4265
欲與	-11.4266
觀一切法	-11.4267
亦自	-11.4268
入地	-11.4269
空智	-11.4271
娑羅	-11.4272
釋梵	-11.4275
諸有情	-11.4279
著如來衣	-11.4281
各各不同	-11.4282
入圓	-11.4282
此經明	-11.4283
空即	-11.4286
難解難入	-11.4287
指歸	-11.4289
性欲	-11.4291
瓔	-11.4291
名妙法蓮華	-11.4291
根力	-11.4292
拔苦與樂	-11.4293
不備	-11.4295
帖合	-11.4296
來此	-11.4297
劫中	-11.4297
三行半	-11.4298
漏無漏	-11.4299
顛	-11.4301
歷事	-11.4301
童女	-11.4302
巡	-11.4302
詎	-11.4303
侶	-11.4303
然以	-11.4304
死人	-11.4305
一乘實相	-11.4306
初經家敘	-11.4306
意亦	-11.4306
若善男子	-11.4309
不列	-11.431
今文中	-11.4311
五位	-11.4315
不變隨緣	-11.4317
得三菩提	-11.4317
推功	-11.4318
如須彌山	-11.432
不多	-11.4323
既皆	-11.4323
於涅槃	-11.4324
具於	-11.4325
脉	-11.4326
天台大師	-11.4327
全經	-11.4328
所習	-11.4328
名句文	-11.433
亦稱	-11.4331
自受用身	-11.4332
下云	-11.4332
成前	-11.4336
二偈	-11.4338
甚大久遠	-11.434
持經人	-11.434
由有	-11.434
戒者	-11.4341
奈	-11.4342
下別明	-11.4344
譯經	-11.4345
為苦	-11.4346
若起	-11.4348
歷五味	-11.4349
實語	-11.4349
各有三	-11.4349
界如	-11.435
下結示	-11.4352
於諸法中	-11.4354
聖果	-11.4355
三七	-11.4355
而獨	-11.4355
摩耶	-11.4356
好樂	-11.4356
具一切	-11.4357
不濫	-11.4357
法身菩薩	-11.4358
之具	-11.4358
野客	-11.4358
從佛聞	-11.4359
教為	-11.4359
涅槃也	-11.4359
從假入空	-11.436
餘者	-11.4362
現在佛	-11.4364
義推	-11.4365
超過	-11.4365
未滿	-11.4366
中國	-11.4368
無量諸佛	-11.4368
三總結	-11.4369
從何所來	-11.4369
料	-11.4369
優曇華	-11.437
蛣𧏙	-11.4373
華嚴中	-11.4373
爾許	-11.4374
正慧	-11.4375
長阿含	-11.4376
袒	-11.4377
諸物	-11.4378
凡有三	-11.4378
此眾	-11.4379
於一乘	-11.4381
體宗用	-11.4382
說法時	-11.4383
、「	-11.4384
不一不異	-11.4384
猗	-11.4385
其大	-11.4388
共念處	-11.4388
便能	-11.4389
良藥	-11.439
則不可	-11.439
無樂	-11.439
諸佛道同	-11.439
所迷	-11.4393
填	-11.4393
庶幾	-11.4394
喜根	-11.4394
各一	-11.4398
因緣所生法	-11.4401
智度論云	-11.4401
龍神	-11.4401
無量菩薩	-11.4402
償	-11.4403
下釋疑	-11.4404
▁二結	-11.4406
大自在	-11.4407
修定	-11.441
孤起	-11.4413
願得	-11.4414
真修	-11.4414
智為	-11.4415
即與	-11.4416
不約	-11.4417
七方便人	-11.4418
理行	-11.4419
佛見	-11.4419
是聲聞	-11.4421
斷伏	-11.4423
意欲	-11.4425
加以	-11.4426
有得	-11.4427
諸山	-11.443
方盡	-11.4433
所領	-11.4433
能引	-11.4435
說一	-11.4436
六位	-11.4437
十二年	-11.4438
三際	-11.4439
▁二約	-11.444
應先	-11.4442
今法華	-11.4442
所至	-11.4442
不巳	-11.4442
煩惱魔	-11.4445
要知	-11.4445
十句	-11.445
巳具	-11.445
妙心	-11.445
寂滅相	-11.445
此論	-11.4451
有無量相	-11.4454
殖	-11.4454
」。《	-11.4454
所護	-11.4461
而不得	-11.4461
崖	-11.4463
五年	-11.4465
判之	-11.4466
圓乘	-11.4468
潤生	-11.4468
淨用	-11.4469
鬪諍	-11.4469
伏無明	-11.4469
悟者	-11.447
於大乘	-11.4471
前雖	-11.4471
飄	-11.4472
無大機	-11.4472
佛說是	-11.4474
具二義	-11.4475
藏中	-11.4475
無聞	-11.4477
一念信解	-11.4477
下斥	-11.4478
為化	-11.4478
略無	-11.4479
與法華	-11.4484
▁十	-11.4484
佛之智慧	-11.4485
先知	-11.4486
法是	-11.4487
心安	-11.4488
二類	-11.4488
成壞	-11.4488
迷中	-11.4489
為淨	-11.4489
法印	-11.449
而不說	-11.4491
平正	-11.4497
二慧	-11.4498
毒害	-11.4501
佛告舍利弗	-11.4507
善巧方便	-11.4507
說法教化	-11.4509
破遍	-11.4514
顯了	-11.4514
諸佛世界	-11.4515
其後	-11.4515
巳能	-11.4516
轉入	-11.452
一切眾生喜見菩薩	-11.4522
判位	-11.4524
於佛道	-11.4526
懈	-11.453
爾時舍利弗	-11.453
祇是	-11.453
多生	-11.4531
心外	-11.4533
經有	-11.4534
凡情	-11.4536
名橫	-11.4537
諸大士	-11.4537
有心	-11.4538
各二	-11.4538
金剛般若	-11.4539
盡未來際	-11.454
一節	-11.454
其疾如風	-11.4542
妙悟	-11.4542
羸	-11.4544
結跏趺坐	-11.4544
卷第四	-11.4544
繇	-11.4544
憫	-11.4546
耐	-11.4546
寂滅道場	-11.4547
削	-11.4548
心自在	-11.4549
真正	-11.4552
然彼	-11.4552
意地	-11.4553
不謗	-11.4553
僧中	-11.4553
復見	-11.4554
內淨	-11.4555
粟	-11.4556
肘	-11.4557
脂	-11.4558
三譬	-11.4559
過未	-11.456
二萬億佛所	-11.456
音樂	-11.4562
救濟	-11.4562
初從	-11.4563
自家	-11.4564
此三種	-11.4565
一會	-11.4565
者蓋	-11.4566
身內	-11.4567
十二品	-11.4567
稱揚	-11.4568
其類	-11.4568
若定	-11.4568
迷於	-11.4569
處者	-11.4569
有機	-11.4569
法付	-11.4571
蘭若	-11.4571
非真實	-11.4571
所不及	-11.4571
膏	-11.4572
也妙樂云	-11.4573
於中又二	-11.4575
醫師	-11.4575
記也	-11.4577
無住本	-11.458
為極	-11.4581
端坐	-11.4582
因時	-11.4586
被燒	-11.4586
總論	-11.4586
皆歸	-11.4587
八觸	-11.4587
生無生	-11.4589
以例	-11.459
開後	-11.4591
白衣	-11.4592
功德成就	-11.4592
為真實	-11.4593
無識	-11.4594
二修	-11.4595
除諸	-11.4595
區	-11.4595
當有	-11.4596
垂應	-11.4597
以慈悲	-11.4598
為理	-11.4599
雙明	-11.46
消經	-11.46
四句者	-11.46
恒河	-11.4602
明一乘	-11.4602
別觀	-11.4603
所行道	-11.4604
而欲	-11.4604
與二乘	-11.4609
久久	-11.4612
汝等所行是菩薩道	-11.4616
▁一標示	-11.4618
清水	-11.462
宜應	-11.4621
不齊	-11.4621
熏修	-11.4622
穿鑿	-11.4624
起愛	-11.4624
得如是	-11.4625
四海	-11.4627
祇夜	-11.4627
為如來	-11.4628
剃	-11.4629
宿習	-11.4629
四辯	-11.4631
但說無上道	-11.4631
藝	-11.4632
隨緣不變	-11.4632
洽	-11.4633
祐	-11.4634
肉髻	-11.4634
法無	-11.4634
永離	-11.4634
商主	-11.4636
當觀	-11.4636
道成	-11.4636
甚深無量	-11.4636
俱名為	-11.4636
隱實	-11.4637
古來	-11.4637
鍊	-11.4639
示真實相	-11.464
猛利	-11.464
迴心向大	-11.4643
諸漏	-11.4646
透	-11.4646
下第三	-11.4647
無煩惱	-11.465
證法身	-11.465
滅者	-11.4651
皮肉	-11.4651
適願	-11.4652
實為	-11.4652
不護	-11.4656
有義	-11.4657
荊溪云	-11.4657
更開	-11.4659
次難	-11.4661
解心	-11.4661
決定性	-11.4662
各以	-11.4662
已說	-11.4663
鈍使	-11.4663
見彼	-11.4665
天性	-11.4666
常有	-11.4667
而又	-11.4667
為令眾生	-11.467
頗有	-11.4671
諸王	-11.4671
聞知	-11.4672
辨同異	-11.4672
巳見	-11.4672
即法性	-11.4673
為譬	-11.4673
詺為	-11.4674
兼帶	-11.4675
色是	-11.4677
別記	-11.4677
即事	-11.4677
識通塞	-11.4677
具德	-11.4677
時處	-11.4678
惟佛	-11.4678
不少	-11.4679
三乘之人	-11.468
因緣生法	-11.4682
六根淨	-11.4682
二酥	-11.4683
道慧	-11.4684
德本	-11.4686
一曰	-11.4686
阿彌陀佛	-11.4688
無處不	-11.4688
受行	-11.4689
空華	-11.469
安在	-11.4691
觀色	-11.4692
見諸菩薩	-11.4692
荅	-11.4692
如是等種種	-11.4695
仁義	-11.4696
億百千	-11.4698
化城喻品	-11.4707
三引	-11.4707
感應道交	-11.4707
其前	-11.4709
不因	-11.471
互有	-11.471
理須	-11.471
几	-11.4711
然後乃	-11.4713
佛令	-11.4713
選	-11.4713
發者	-11.4714
如何得	-11.4714
必依	-11.4715
抖擻	-11.4718
佛位	-11.4719
蓋由	-11.4719
實說	-11.4719
定也	-11.4721
無力	-11.4721
由來	-11.4722
根器	-11.4722
有於	-11.4722
根機	-11.4722
帛	-11.4722
新譯	-11.4723
勝相	-11.4725
中唯	-11.4727
施與	-11.4727
玅法蓮華經	-11.4729
為父	-11.473
後五百歲	-11.473
顯圓	-11.4731
殺害	-11.4732
重者	-11.4733
廢權	-11.4735
異類	-11.4735
於汝	-11.4735
能伏	-11.4741
更為	-11.4742
上智	-11.4742
小者	-11.4743
由斯	-11.4747
以手	-11.4747
入法界	-11.4747
是菩薩道	-11.4748
人聞	-11.4748
圓宗	-11.4748
日月淨明德佛	-11.4749
十智	-11.475
體本	-11.475
病患	-11.475
是對治	-11.4752
因由	-11.4752
之形	-11.4753
觀道	-11.4753
證經	-11.4754
設使	-11.4754
之耳	-11.4754
極樂	-11.4759
唯識論	-11.476
何疑	-11.4761
與論	-11.4765
問何不	-11.4765
我皆	-11.4765
尼眾	-11.4766
力大	-11.4767
上座	-11.4768
正作	-11.477
非今	-11.4773
中引	-11.4775
無事	-11.4776
正信	-11.4777
計有	-11.4777
並不	-11.4778
空無相	-11.4778
此時	-11.478
一切眾	-11.4782
心則	-11.4784
謦欬	-11.4787
無問自說	-11.4787
欲天	-11.4789
同在	-11.479
略述	-11.4791
下更	-11.4792
而明	-11.4794
非情	-11.4795
禮拜供養	-11.4796
𦘕	-11.4798
破塵沙	-11.4798
纖	-11.4799
得聞是經	-11.4799
下生	-11.4801
今始	-11.4801
妙旨	-11.4802
其中眾生	-11.4805
真位	-11.4805
帶方便	-11.4807
彼處	-11.4807
緊	-11.4809
斬	-11.481
旨趣	-11.4811
大集經	-11.4812
哭	-11.4812
諸法門	-11.4812
此諸菩薩	-11.4815
禱	-11.4815
膚	-11.4817
並非	-11.4817
化意	-11.4817
損生	-11.4818
為八	-11.4818
項	-11.4822
漚	-11.4824
互通	-11.4829
託事	-11.483
廣演	-11.4832
章安云	-11.4833
昔曾	-11.4833
不俟	-11.4834
起應	-11.4837
初長文	-11.4842
非餘	-11.4843
先破	-11.4845
當自	-11.4846
語業	-11.4846
法妙	-11.4847
因心	-11.4847
聞大乘	-11.485
獨頭	-11.4854
滴	-11.4855
況今	-11.4856
利樂	-11.4856
三千大千	-11.4858
分為三	-11.4858
後四	-11.4862
用權	-11.4862
大小俱	-11.4864
調適	-11.4864
相顯	-11.4864
有十二	-11.4868
▁一出	-11.4871
次云	-11.4871
但聞	-11.4872
自在故	-11.4876
叢林	-11.4877
大乘機發	-11.4878
言語道斷	-11.4879
世樂	-11.488
自釋	-11.488
半行頌	-11.4882
可以意得	-11.4882
竺	-11.4883
能壞	-11.4884
羊車	-11.4887
常處	-11.4889
砂	-11.4889
鹹	-11.489
諸善根	-11.489
不可言	-11.4891
果頭	-11.4891
豫	-11.4891
四月	-11.4892
臘	-11.4893
墻壁	-11.4894
即自	-11.4896
俱在	-11.4897
超出	-11.4899
退席	-11.4902
圓義	-11.4902
而巳矣	-11.4903
諳	-11.4903
桃	-11.4903
同得	-11.4906
文有三	-11.4908
欲說大法	-11.491
闍梨	-11.4912
現在前	-11.4912
此惑	-11.4913
其因	-11.4913
闍王	-11.4914
我我所	-11.4914
方稱	-11.4915
姓也	-11.4916
幢幡	-11.4917
聞即	-11.4917
難思議	-11.4917
心作	-11.4919
迷妄	-11.4923
觀四諦	-11.4923
增道	-11.4924
聞此法	-11.4925
無苦	-11.4925
故大經云	-11.4925
若通	-11.4926
禪者	-11.4928
清濁	-11.4929
風輪	-11.493
愛語	-11.4931
其數無量	-11.4932
不滯	-11.4933
明白	-11.4935
中忍	-11.4936
示珠	-11.4937
塵劫	-11.4937
次別釋	-11.4937
因緣和合	-11.4938
見真	-11.4938
時會	-11.494
具諸法	-11.494
手執	-11.494
即彼	-11.4942
縱廣	-11.4944
凡諸	-11.4945
明理	-11.4945
皆通	-11.4946
色無色界	-11.4948
謂無	-11.495
9	-11.4952
覆障	-11.4954
明權實	-11.4955
於巳	-11.4955
微玅	-11.4955
瓔珞經	-11.4956
於菩薩	-11.4957
分五	-11.4958
欲示	-11.4958
下簡	-11.4959
次問	-11.4961
中草	-11.4961
千萬億劫	-11.4962
屬對	-11.4962
勿生	-11.4963
須依	-11.4963
相從	-11.4964
從別	-11.4964
智佛	-11.4965
不可也	-11.4965
象馬車乘	-11.4966
此三法	-11.4967
結文	-11.4967
諸趣	-11.4968
〕	-11.4969
遊戲神通	-11.497
學佛	-11.497
一切法門	-11.4972
理者	-11.4973
第三時	-11.4973
無二乘	-11.4975
得法眼淨	-11.4976
邁	-11.4977
既曰	-11.4978
摩訶薩	-11.4979
有體	-11.4979
呵責	-11.498
雨華動地	-11.4981
今我	-11.4982
如下文	-11.4983
錫	-11.4986
報土	-11.4986
恩德	-11.4986
汁	-11.4987
一妙	-11.499
他佛	-11.499
猪	-11.499
一切色	-11.499
別體	-11.4994
糓	-11.4996
但於	-11.4996
咽	-11.4997
今借	-11.4999
重擔	-11.5001
若使	-11.5001
瓜	-11.5003
是有為	-11.5006
隨喜功德	-11.5006
出要	-11.5006
菩薩位	-11.5009
與人	-11.501
得出	-11.5013
為名也	-11.5014
論明	-11.5015
懺法	-11.5018
先須	-11.5019
非理	-11.502
調和	-11.502
對上	-11.5021
是誰	-11.5022
增上慢者	-11.5022
騰疑	-11.5022
合喻	-11.5023
難事	-11.5023
於色	-11.5024
凡所	-11.5025
隨宜所說	-11.5029
至佛所	-11.5032
虵	-11.5033
如是下	-11.5036
而應	-11.5036
永滅	-11.5036
業相	-11.5037
致令	-11.5038
義如	-11.5039
破他	-11.5041
法器	-11.5042
能熏	-11.5042
之光	-11.5042
我所說	-11.5043
尋之	-11.5043
惑者	-11.5044
住地	-11.5044
破云	-11.5044
起惑	-11.5044
病行	-11.5045
黑色	-11.5045
一致	-11.5046
依彼	-11.5046
無明滅	-11.5046
樂也	-11.5047
大夫	-11.5047
皆實不虗	-11.5047
我從	-11.5048
逮得	-11.5048
義成	-11.5049
無學道	-11.505
中最	-11.505
乃約	-11.5053
自述	-11.5053
軸	-11.5054
一二三	-11.5054
餘如	-11.5054
如雨	-11.5056
八年	-11.5057
昔為	-11.5057
密行	-11.5059
即一而三	-11.506
此境	-11.5061
旃陀羅	-11.5061
譬喻言辭	-11.5062
未離	-11.5062
桓	-11.5065
例爾	-11.5065
亦於	-11.5067
無生四諦	-11.5069
三教菩薩	-11.5071
知諸	-11.5072
剖	-11.5073
名別	-11.5074
思修	-11.5074
感果	-11.5075
喘	-11.5075
寄言	-11.5076
嘿	-11.5077
於上	-11.5077
泣	-11.5077
替	-11.5078
昔於	-11.508
彼人	-11.508
伽藍	-11.508
自責	-11.5081
但隨	-11.5081
鉤	-11.5081
與夫	-11.5081
慶喜	-11.5082
若實	-11.5084
得定	-11.5086
指廣	-11.5088
乃至老死	-11.5088
引物	-11.509
不聞法	-11.509
社	-11.5091
此娑婆世界	-11.5091
是長者	-11.5091
安養	-11.5092
來至佛所	-11.5093
可不	-11.5095
權法	-11.5095
猶屬	-11.5096
反顯	-11.5097
百萬億那由他	-11.5098
七卷	-11.5098
雖明	-11.5098
初𦦨	-11.5101
是約	-11.5103
▁初譬	-11.5105
貼文	-11.5108
辨其	-11.5109
其時	-11.5111
就法	-11.5111
滅罪	-11.5111
實證	-11.5112
將何	-11.5113
示人	-11.5113
方見	-11.5113
亦且	-11.5113
普現	-11.5113
其罪	-11.5114
亦應有	-11.5116
人之所	-11.5116
始成	-11.5116
青色	-11.5119
行施	-11.5124
佛旨	-11.5127
二譬	-11.5129
因緣釋	-11.5129
情無情	-11.513
上流	-11.513
通前	-11.5132
廣引	-11.5135
須用	-11.5136
慈雲	-11.5136
大章	-11.5136
四觀	-11.5138
二論	-11.5142
局在	-11.5142
厭離	-11.5142
而可	-11.5144
先立	-11.5145
何以知之	-11.5146
並無	-11.5148
瓦礫	-11.5149
起觀	-11.5149
性念處	-11.5149
奮迅	-11.515
饒	-11.5151
一周	-11.5153
諸土	-11.5153
安居	-11.5154
三乘法	-11.5155
佛告迦葉	-11.5156
第五卷	-11.5156
受大	-11.5156
豈應	-11.5157
攝入	-11.5157
故云爾也	-11.5157
二家	-11.5157
未曾說	-11.5158
河沙	-11.5158
上求下化	-11.5159
皃	-11.5159
欺誑	-11.516
度之	-11.516
至涅槃	-11.516
總而言之	-11.516
乞士	-11.5164
佳	-11.5164
以是方便	-11.5168
第三段	-11.5168
大根	-11.5168
崩	-11.5168
攝大乘論	-11.517
墻	-11.517
菩薩得	-11.517
以下是	-11.517
未及	-11.517
初學	-11.5171
三千世界	-11.5171
圓具	-11.5172
從容	-11.5172
覺性	-11.5173
呂	-11.5174
於未來	-11.5175
之家	-11.5177
今先	-11.518
䨱	-11.518
本國	-11.5182
方便門	-11.5183
又下文云	-11.5186
盧舍那	-11.5186
異耳	-11.5186
說言	-11.5187
初又三	-11.5187
善解	-11.5188
容有	-11.5189
各隨	-11.519
藻	-11.5191
如是次第	-11.5193
根源	-11.5193
食人	-11.5194
若言下	-11.5195
則其	-11.5197
一意	-11.5197
由其	-11.52
演說諸法	-11.5201
權實不二	-11.5202
十重	-11.5206
六十二億	-11.5206
此示	-11.5207
一切功德	-11.5207
盡也	-11.5212
只為	-11.5214
性無	-11.5214
此妙法	-11.5214
現量	-11.5215
之多	-11.5215
後代	-11.5216
愚人	-11.5219
二部	-11.5221
尚不能	-11.5224
現未	-11.5226
七住	-11.5227
緣由	-11.5227
雖能	-11.523
於內	-11.523
不能動	-11.5233
=	-11.5236
助發	-11.5236
三變	-11.5236
果法	-11.5236
嶮	-11.5237
始知	-11.5237
罄	-11.5239
卦	-11.524
乘乘	-11.524
唯願世尊	-11.524
了無	-11.5242
諦緣度	-11.5244
臆	-11.5244
示生	-11.5245
更生	-11.5245
解了	-11.5246
四眾八部	-11.5247
曆	-11.5249
挫	-11.525
之象也	-11.525
一喻	-11.5252
染心	-11.5252
如幻化	-11.5252
中夜	-11.5253
地住	-11.5253
致使	-11.5254
自思惟	-11.5254
較量	-11.5255
逕	-11.5255
此經典	-11.5256
其過	-11.5259
慧性	-11.5261
正受	-11.5263
耻	-11.5263
昨	-11.5264
犯戒	-11.5264
等取	-11.5268
往往	-11.5269
正命	-11.5271
則顯	-11.5271
自言	-11.5273
小菩薩	-11.5273
更無別	-11.5274
在文	-11.5274
二執	-11.5276
千年	-11.5276
定無	-11.5279
四子	-11.528
德業	-11.528
復由	-11.5282
只是一	-11.5283
直約	-11.5284
生忍	-11.5284
香氣	-11.5286
結要	-11.5286
垢衣	-11.5286
具十法界	-11.529
貪瞋	-11.529
懷疑	-11.529
最第一	-11.5295
諸天人	-11.5296
遍法界	-11.5297
諸色	-11.5297
大利	-11.5297
倦	-11.5298
二千人	-11.5299
現像	-11.5299
同聲	-11.5301
不屬	-11.5301
智圓	-11.5302
而猶	-11.5302
以之為	-11.5305
以智慧	-11.5307
能燒	-11.5311
是義	-11.5311
在地	-11.5312
遍十方	-11.5313
而致	-11.5314
從所	-11.5314
與菩薩	-11.5315
圓信	-11.5315
常不輕菩薩	-11.5316
圓佛	-11.5318
從座而起	-11.5318
不生生	-11.5318
解曰	-11.532
授記作佛	-11.5321
叉手	-11.5323
三問	-11.5324
一色	-11.5324
坐如來座	-11.5329
辨之	-11.533
珊瑚	-11.5331
臻	-11.5333
心觀	-11.5334
為要	-11.5334
波羅密	-11.5334
作是思惟	-11.5336
長行偈頌	-11.5336
饑渴	-11.5338
座席	-11.5338
即用	-11.5338
挾	-11.5341
世所	-11.5341
眾所知識	-11.5343
自然智	-11.5343
啼	-11.5343
宣示	-11.5343
膳	-11.5345
本不	-11.5346
求名	-11.5346
無法	-11.5346
對治悉檀	-11.5347
一極	-11.5347
淨藏	-11.5348
向後	-11.5349
判麤妙	-11.5352
其聲	-11.5352
是父	-11.5357
能變	-11.5358
從彼	-11.5359
於果	-11.5359
縷	-11.5359
設有	-11.5361
濟度	-11.5361
願生	-11.5362
〉,	-11.5362
足下	-11.5363
受此	-11.5368
六趣眾生	-11.5369
四支	-11.5369
出時	-11.537
定者	-11.5371
不退菩薩	-11.5371
飲光	-11.5372
今用	-11.5373
所詮理	-11.5373
金云	-11.5375
二結	-11.5376
故感	-11.5378
以別	-11.5378
八色	-11.5378
長養	-11.5379
傳持	-11.5379
大千世界	-11.538
卷上	-11.5385
普賢行	-11.5392
如大品	-11.5393
須破	-11.5393
圓照	-11.5393
為初門	-11.5397
兩教二乘	-11.5401
二支	-11.5402
一心奉請	-11.5402
不燒	-11.5403
為涅槃	-11.5403
元是	-11.5403
大性	-11.5404
楞伽經	-11.5404
說三乘法	-11.5405
得佛道	-11.5405
說偈言	-11.5406
得安隱	-11.5408
之文也	-11.5408
字也	-11.5409
後來	-11.541
非如非異	-11.541
牟	-11.5414
解脫者	-11.5414
正法住世	-11.5414
梵世	-11.5415
雖欲	-11.5416
旬	-11.5417
自慶	-11.5417
一空一切空	-11.5417
本源	-11.542
嗅	-11.542
有慧	-11.5423
染淨二	-11.5423
罷	-11.5424
如來述成	-11.5425
一真	-11.5425
妃	-11.5425
奴婢	-11.5425
恐是	-11.5428
爾時佛告舍利弗	-11.5428
掘	-11.5429
瑕	-11.543
聞法華	-11.5431
純陀	-11.5433
大威德	-11.5433
所欲	-11.5434
聞大	-11.5435
煖法	-11.5435
鑿	-11.5435
有智慧	-11.5437
之壽	-11.5438
蹈	-11.5439
大菩薩眾	-11.544
昔權	-11.5441
本處	-11.5441
雨寶	-11.5443
神智	-11.5444
雙林	-11.5445
純是	-11.5446
有漏無漏	-11.5448
千億	-11.5448
色空	-11.5449
智即	-11.5449
分別說三	-11.5449
韋	-11.545
若能如是	-11.5451
不更	-11.5452
亦有三	-11.5452
聞已	-11.5455
迷情	-11.5455
五十小劫	-11.5456
此但	-11.5457
是慧	-11.5457
自然而	-11.546
四十里	-11.5461
正與	-11.5462
罪業	-11.5462
顯此	-11.5463
所宗	-11.5465
名阿羅漢	-11.5466
破邪	-11.5466
是妙音菩薩	-11.5466
所將	-11.5469
無果	-11.5469
十數	-11.547
殷	-11.547
出界	-11.547
者應云	-11.5471
非離	-11.5472
偏執	-11.5473
伽羅	-11.5475
運載	-11.5478
然於	-11.5478
淨也	-11.5478
則俱	-11.5478
說實	-11.5479
之念	-11.548
未到地	-11.548
先現	-11.5481
發聲	-11.5481
觀體	-11.5482
別開	-11.5483
記莂	-11.5485
五緣	-11.5485
合明	-11.5486
妙法也	-11.5486
大勢	-11.5487
之可	-11.5487
皆成佛道	-11.5488
初文中	-11.5489
引例	-11.5489
以事	-11.549
分座	-11.5491
威音王佛	-11.5491
生喜	-11.5492
初敘	-11.5492
初四	-11.5494
於佛法	-11.5495
前長行	-11.5496
大乘者	-11.5497
即中道	-11.5498
因故	-11.5498
番問答	-11.5499
但從	-11.55
應同	-11.55
水中	-11.55
異義	-11.5501
若善男子善女人	-11.5501
次示	-11.5503
觀眾生	-11.5503
住忍辱地	-11.5504
並約	-11.5506
三十六句	-11.5506
二乘作佛	-11.5507
偏說	-11.551
毀訾	-11.551
盆	-11.551
對曰	-11.5511
得作佛	-11.5513
箋	-11.5514
澍	-11.5514
喻文	-11.5515
不隨	-11.5516
會歸	-11.5516
▁二復次下	-11.5517
開迹顯本	-11.5518
八萬四千劫	-11.5518
燄	-11.5518
佛是	-11.5519
我等今者	-11.552
渧	-11.5521
柔順忍	-11.5521
是究竟	-11.5523
牢	-11.5524
化法	-11.5524
措	-11.5525
緣故	-11.5527
掣	-11.5528
威音	-11.553
煩惱業	-11.553
九境	-11.5531
而義	-11.5531
身智	-11.5532
八地巳上	-11.5532
此輩	-11.5532
係	-11.5535
福智	-11.5535
巳他	-11.5536
脹	-11.5538
五停	-11.554
故雖	-11.5542
異熟果	-11.5542
能分別	-11.5543
迦葉等	-11.5544
四無礙	-11.5545
證明	-11.5547
人等	-11.5548
廣顯	-11.5549
形容	-11.555
作業	-11.555
說時	-11.5554
正指	-11.5555
涅槃時	-11.5555
深生	-11.5556
故不說	-11.5559
於下	-11.5559
開為三	-11.5564
後二句	-11.5564
隨佛	-11.5566
推尋	-11.5568
意說	-11.5568
行時	-11.5569
▁初合	-11.5569
機教	-11.5572
得無量	-11.5572
修福	-11.5572
堪能	-11.5573
可論	-11.5573
何須更	-11.5575
諸世間	-11.5575
諸世界	-11.5576
唯見	-11.5576
四階	-11.5579
因性	-11.558
方圓	-11.558
色究竟	-11.5583
增一阿含	-11.5583
準前	-11.5584
四五	-11.5587
法緣	-11.5587
令捨	-11.5589
文殊師利言	-11.559
互顯	-11.559
今雖	-11.559
兩家	-11.5591
正位	-11.5595
及其	-11.5597
增上緣	-11.5598
約說	-11.56
口中	-11.56
常修梵行	-11.56
上求	-11.56
非因非果	-11.5601
指南	-11.5602
半月	-11.5602
出息	-11.5603
初法	-11.5603
次又	-11.5603
一百二十	-11.5605
能達	-11.5605
級	-11.5606
三正	-11.5608
釋名者	-11.5609
定判	-11.561
明暗	-11.5611
從始至終	-11.5612
八十種好	-11.5612
雙照二諦	-11.5612
身受心法	-11.5612
波羅奈	-11.5613
於中道	-11.5613
醒悟	-11.5614
撲	-11.5614
吸	-11.5614
揖	-11.5615
構	-11.5615
掛	-11.5616
甚難	-11.5616
萬劫	-11.5616
中止一城	-11.5616
消滅	-11.5617
此旨	-11.5618
宗者	-11.5618
所使	-11.5619
福德莊嚴	-11.562
畵	-11.5621
貪嗔癡	-11.5622
所愛	-11.5622
著衣	-11.5624
昔因	-11.5625
便可	-11.5625
果時	-11.5626
天眾	-11.5627
復二	-11.5627
爾也	-11.5627
圓果	-11.5628
並由	-11.5628
寓	-11.5632
中庸	-11.5633
傳法	-11.5634
正習	-11.5635
天樂	-11.5636
聽經	-11.5637
禮記	-11.5637
上長行	-11.5638
初得	-11.5638
難明	-11.564
則一切	-11.5641
開方便	-11.5646
異見	-11.5647
七覺支	-11.5648
中本有	-11.5648
止門	-11.5649
眾生不知	-11.5649
元意	-11.5651
欲界定	-11.5657
言又	-11.5657
權行	-11.5659
諸大弟子	-11.5659
不了義	-11.5659
佛性者	-11.566
上釋	-11.5662
六重	-11.5663
加行位	-11.5663
無所見	-11.5664
於中有二	-11.5664
故爾	-11.5665
劫盡	-11.5666
於眾	-11.5666
又初	-11.5667
清淨故	-11.5668
其功德	-11.5668
智深	-11.567
形相	-11.5671
于世	-11.5672
不能生	-11.5674
如來所	-11.5674
得離	-11.5676
法供養	-11.5677
於無量劫	-11.5678
其如	-11.5678
正文	-11.568
僧伽	-11.5682
𣗳	-11.5682
顯正	-11.5682
妙光菩薩	-11.5683
神我	-11.5685
對彼	-11.5686
世尊說	-11.5686
六百	-11.5688
即滅	-11.5692
得現一切色身三昧	-11.5693
阿難白佛言	-11.5694
淨眼	-11.5694
華嚴經云	-11.5695
平地	-11.5697
浩	-11.5702
四十九	-11.5702
揵	-11.5702
本習	-11.5703
檀波羅蜜	-11.5703
即佛性	-11.5705
及至	-11.5706
耳聞	-11.5707
荷負	-11.5707
智性	-11.5708
性三	-11.5708
稱佛	-11.5708
更以	-11.5708
自高	-11.571
唯為	-11.571
下對	-11.571
滿月	-11.5711
知心	-11.5711
一重	-11.5712
路云	-11.5712
須以	-11.5713
躡	-11.5715
相去	-11.5717
猶不	-11.5718
智用	-11.5718
怛	-11.5719
是化他	-11.572
顯出	-11.572
黎耶	-11.5722
中根人	-11.5722
從性	-11.5723
十年	-11.5724
一切眾生皆	-11.5726
怖魔	-11.5727
十方界	-11.5727
皆用	-11.5728
通取	-11.5728
百福	-11.5728
王之	-11.573
隨人	-11.5731
小法	-11.5732
四大聲聞	-11.5733
朗然	-11.5736
造像	-11.5737
貪嗔	-11.5738
問意者	-11.5739
觀十二因緣	-11.574
為授記	-11.5741
久巳	-11.5741
善用	-11.5743
方等經	-11.5743
為多	-11.5748
今將	-11.5749
此敘	-11.575
猶存	-11.5752
依主釋	-11.5754
執有	-11.5755
非全	-11.5755
定執	-11.5755
業生	-11.5756
圓詮	-11.5757
▁一正明	-11.5758
供養恭敬	-11.5758
復於	-11.5758
或因	-11.576
何可	-11.5761
胎生	-11.5762
能施	-11.5764
三脫	-11.5765
破法	-11.5767
為始	-11.5767
西南	-11.5768
例之	-11.577
即法界	-11.5772
瑞也	-11.5773
別解	-11.5777
觀機	-11.5778
開者	-11.5778
而曰	-11.5778
二初正	-11.5779
轉身	-11.5779
應具	-11.5779
客作	-11.578
轉輪	-11.578
故應	-11.5781
淨天	-11.5782
慈愍	-11.5786
傳傳	-11.5786
五行半	-11.5787
而眾生	-11.5787
若單	-11.579
引用	-11.579
顯勝	-11.579
尚能	-11.5791
二行頌	-11.5791
假使有人	-11.5791
二聖	-11.5792
告之	-11.5792
速得	-11.5794
合掌向佛	-11.5795
曼	-11.5797
部內	-11.5797
歸心	-11.5797
明常	-11.5798
斯言	-11.5799
周匝	-11.5799
中收	-11.58
魅	-11.5802
所縛	-11.5803
搜	-11.5803
十不二門	-11.5805
不到	-11.5806
菩薩藏	-11.5808
擣	-11.5808
若不得	-11.5808
於菩提	-11.5808
若斯	-11.5812
即空即中	-11.5812
天人阿修羅	-11.5813
品初	-11.5814
大身	-11.5815
杵	-11.5815
譬佛	-11.5816
爰	-11.5817
具如前	-11.5819
斯則	-11.5819
難值	-11.5819
初四句	-11.582
三乘教	-11.5821
飛行	-11.5822
不喜	-11.5822
同聞	-11.5822
無明住地	-11.5824
分也	-11.5825
附文	-11.5825
劍	-11.5827
千如	-11.5829
又上	-11.5829
咸皆	-11.5829
獨在	-11.583
勝法	-11.583
有行	-11.5833
有對	-11.5835
三悉	-11.5836
押	-11.5836
明圓	-11.5837
亦從	-11.5837
前教	-11.5837
名實	-11.5839
三業供養	-11.5841
凡言	-11.5842
千人	-11.5843
同證	-11.5849
如地	-11.5849
迫	-11.585
四宗	-11.585
為力	-11.5851
普應	-11.5851
行滿	-11.5851
含中	-11.5854
授藥	-11.5854
之所以也	-11.5856
身念處	-11.5856
經宗	-11.5856
悔過	-11.5856
是惡	-11.5859
妙性	-11.586
眾生聞	-11.5861
苦受	-11.5862
破有	-11.5862
假想	-11.5867
即體	-11.5868
佛藏	-11.5868
骨人	-11.5871
勝德	-11.5873
菩薩亦爾	-11.5873
單約	-11.5873
他事	-11.5874
皆知	-11.5875
無有異	-11.5877
日日	-11.5878
華光佛	-11.5879
前境	-11.5879
先問	-11.5881
甄	-11.5882
終歸於空	-11.5882
此云大	-11.5885
廣也	-11.5886
意令	-11.5887
為開	-11.5888
觀時	-11.5888
意趣難解	-11.5889
乃可為說	-11.589
未曾見	-11.5892
聞香悉能知	-11.5893
問云何	-11.5893
出胎	-11.5893
又何	-11.5894
各說	-11.5895
溝	-11.5895
閇	-11.5896
心神	-11.5896
釆	-11.5896
從淺至深	-11.5897
說因	-11.5898
葢以	-11.5898
佛雖	-11.5902
織	-11.5902
憶想	-11.5903
青黃赤白	-11.5903
後當	-11.5903
是經典	-11.5903
淹	-11.5904
觀外	-11.5904
互現	-11.5904
別接通	-11.5904
阿若	-11.5906
痴	-11.5907
貪瞋癡	-11.5907
對之	-11.5908
破二十五有	-11.5909
何以得知	-11.591
為乘	-11.591
▁三合	-11.5911
天龍夜叉	-11.5912
是為人	-11.5912
有生滅	-11.5913
聞香	-11.5914
合也	-11.5914
笈多	-11.5915
貪心	-11.5916
於一切眾生	-11.5916
二菩薩	-11.5917
樂見	-11.5918
此妙	-11.5919
見慢	-11.5919
有分	-11.592
曾聞	-11.592
即悟	-11.5923
作觀	-11.5926
善入	-11.5928
無礙智	-11.5928
如世間	-11.5929
耳又	-11.593
事畢	-11.5931
巳明	-11.5931
非止	-11.5931
空義	-11.5931
兩序	-11.5932
迷解	-11.5933
恒沙佛法	-11.5934
謂能	-11.5934
意別	-11.5934
方便道	-11.5934
過者	-11.5935
豈獨	-11.5936
一切心	-11.5936
第三卷	-11.5937
今辨	-11.5938
若生	-11.594
證滅	-11.594
故輔行云	-11.594
教權	-11.594
不定教	-11.5941
無依	-11.5942
但論	-11.5942
更立	-11.5945
領知	-11.5947
智知	-11.5948
初分	-11.5948
一時俱	-11.595
得不退轉	-11.5951
全性	-11.5952
結答	-11.5953
有用	-11.5955
二三四	-11.5956
異乎	-11.5956
是本	-11.5957
證前	-11.5957
之藏	-11.5959
天授	-11.596
觀其	-11.5961
無退	-11.5961
此翻為	-11.5961
事即理	-11.5963
生因	-11.5963
中道之	-11.5963
得受記	-11.5966
得神通	-11.5968
深山	-11.5969
疏記	-11.5971
轉名	-11.5971
龍華	-11.5971
能住	-11.5971
亦復然	-11.5971
敬信	-11.5972
教詮	-11.5972
入實際	-11.5973
理為	-11.5976
牛羊	-11.5976
重故	-11.5977
有三乘	-11.5978
名大涅槃	-11.598
堂司行者	-11.598
以小乘	-11.5981
六天	-11.5981
大喜	-11.5983
牆壁	-11.5985
油燈	-11.5985
不具足	-11.5986
斯等	-11.599
不證	-11.599
正直捨方便	-11.5991
方說	-11.5991
鬚	-11.5991
三佛性	-11.5992
戲笑	-11.5992
可依	-11.5994
住行向地	-11.5995
何等法	-11.5996
翫	-11.5997
深也	-11.5998
覆藏	-11.6
和會	-11.6
四信	-11.6
鑒機	-11.6001
善住	-11.6002
是巳	-11.6002
巾	-11.6003
或名	-11.6003
毗沙門	-11.6004
難信難解	-11.6005
作序	-11.6005
常自	-11.6005
東南	-11.6006
獼猴	-11.6006
自行權實	-11.6006
無量法	-11.6007
是則為難	-11.6007
椎	-11.6008
為九	-11.6009
嶺	-11.601
目之為	-11.601
攝屬	-11.6011
輻	-11.6012
爾時窮子	-11.6015
子見父	-11.6015
次二	-11.6016
專心	-11.6017
唯色	-11.6017
境故	-11.6017
退屈	-11.6019
殊不知	-11.6021
有小	-11.6022
渾	-11.6023
十六門	-11.6024
次言	-11.6024
小乘教	-11.6025
大莊嚴	-11.6026
消伏	-11.6027
偏舉	-11.6027
俱為	-11.6028
通大小	-11.6029
一覺	-11.603
佛寶	-11.6031
體狀	-11.6031
直爾	-11.6032
厭患	-11.6032
者意云	-11.6032
理具三千	-11.6033
含容	-11.6034
不出於	-11.6035
險難	-11.6035
道力	-11.6035
所敬	-11.6036
次半行	-11.6036
果性	-11.604
諸識	-11.6041
寧有	-11.6041
情智	-11.6041
佛功德	-11.6041
斷一切	-11.6042
商略	-11.6043
限量	-11.6044
親承	-11.6045
敘其	-11.6049
四卷	-11.6051
□□	-11.6052
如鏡	-11.6054
嬰兒行	-11.6056
破二	-11.606
保證	-11.606
非天	-11.606
為先	-11.6061
推檢	-11.6063
為當	-11.6064
雙游	-11.6065
見地	-11.6066
亦應云	-11.6066
一面	-11.6067
是亦	-11.6068
正性	-11.607
生一切法	-11.6073
前文云	-11.6074
無處	-11.6074
四弘誓	-11.6076
共不共	-11.6077
因緣也	-11.6077
可斷	-11.6077
無為法	-11.6078
分陀利	-11.608
濁水	-11.608
作此釋	-11.6081
親證	-11.6083
不成佛	-11.6086
薝蔔	-11.6086
大數	-11.6086
彰灼	-11.6087
槃	-11.6087
復起	-11.6088
耽	-11.6088
第二時	-11.6089
央掘	-11.6089
不親近	-11.6089
耶輸陀羅	-11.609
名異義同	-11.6091
偈半	-11.6091
歡喜也	-11.6091
有三一	-11.6093
延促	-11.6093
屈曲	-11.6094
聞於	-11.6094
但有名字	-11.6095
總示	-11.6096
分對	-11.6097
俱起	-11.61
結之	-11.61
漁	-11.6101
得阿羅漢果	-11.6102
▁二喻	-11.6102
即妙	-11.6103
虔	-11.6103
淨潔	-11.6105
悉得	-11.6105
正請	-11.6105
城邑	-11.6106
耆婆	-11.6106
遐	-11.6106
二界	-11.6106
遠因	-11.6107
腦	-11.6108
出聲	-11.6108
頹	-11.6108
芥子	-11.6109
人不見之	-11.6109
宛轉	-11.6111
說文	-11.6113
淨色	-11.6115
損益	-11.6115
章敬云	-11.6115
死後	-11.6117
從人	-11.6117
亦可云	-11.612
之藥	-11.6123
彌勒等	-11.6123
狐	-11.6126
業果	-11.6127
略開	-11.6127
起誓	-11.6127
無情有性	-11.6127
一經之	-11.6128
不休	-11.6129
親見	-11.613
頂墮	-11.6133
講者	-11.6134
兩舌	-11.6134
亡照	-11.6135
凡小	-11.6135
心喜	-11.6137
圓機	-11.6138
攝也	-11.6138
歎美	-11.6138
密雲	-11.6139
釋品	-11.6139
對破	-11.614
四十位	-11.6144
流注	-11.6145
隨彼	-11.6147
爾時文殊師利	-11.6147
有二一	-11.6148
初行	-11.615
二乘不知	-11.6152
不勝	-11.6154
未達	-11.6155
廣說此經	-11.6155
所惱	-11.6156
當得菩提	-11.6158
誠諦	-11.6158
四無礙智	-11.616
狀如	-11.6161
身分	-11.6161
語云	-11.6164
舌相	-11.6165
可證	-11.6165
受持此經	-11.6165
十行半	-11.6167
八十年	-11.6168
約智	-11.6168
故受	-11.617
非字	-11.617
不任	-11.6171
六意	-11.6172
通舉	-11.6172
隨意所	-11.6176
有四義	-11.6178
身手有力	-11.6178
皆與	-11.6182
并前	-11.6183
別意	-11.6183
可修	-11.6184
乘戒	-11.6184
眼等	-11.6184
濃	-11.6184
斥小	-11.6184
獨得	-11.6186
即三而一	-11.6186
二分	-11.6187
其車高廣	-11.6187
欄楯	-11.6187
四部眾	-11.619
不緣	-11.619
必能	-11.6191
法財	-11.6191
中攝	-11.6192
佛法中	-11.6193
亦約	-11.6194
無瞋	-11.6196
淨名疏云	-11.6197
詠	-11.6197
鏡像	-11.6198
約機	-11.6198
何故云	-11.6199
未暇	-11.6199
與若干百千眷屬俱	-11.62
第五品	-11.6201
擎	-11.6202
十功德	-11.6202
孕	-11.6203
唯依	-11.6204
盡矣	-11.6207
旋轉	-11.6208
嗜	-11.6209
芳	-11.621
以分	-11.621
所示	-11.621
妙音品	-11.6211
洋	-11.6211
山門	-11.6211
從多	-11.6212
不缺	-11.6212
唯有一門	-11.6213
柳	-11.6213
思慮	-11.6213
六界	-11.6214
此三義	-11.6217
相與	-11.6217
四行半	-11.6221
施三	-11.6222
入聖	-11.6222
斥奪	-11.6223
斷思	-11.6224
小人	-11.6224
髓	-11.6226
教行理	-11.6228
遊化	-11.6229
存略	-11.623
即足	-11.6233
此光	-11.6233
巧度	-11.6234
涅槃中	-11.6234
有漏法	-11.6238
於一佛乘	-11.6238
眷屬妙	-11.6243
修之	-11.6245
之事也	-11.6245
令見	-11.6246
字訓	-11.6246
乃至第十	-11.6246
未敢	-11.6246
一光	-11.6248
攝於	-11.625
顯教	-11.6252
須開	-11.6253
初引經	-11.6253
如盲	-11.6254
在空	-11.6254
本法	-11.6255
不翻	-11.6259
退墮	-11.626
九方	-11.6261
乘也	-11.6262
所許	-11.6263
除障	-11.6263
法中論	-11.6266
前方便	-11.6269
初出	-11.627
靜處	-11.6272
執我	-11.6272
唯識云	-11.6273
可知也	-11.6273
入正定聚	-11.6275
亦在	-11.6275
合之	-11.6278
善權	-11.6278
瞻仰尊顏	-11.6279
樂者	-11.6279
其迹	-11.6279
二惑	-11.6279
人道	-11.628
別門	-11.6281
難持	-11.6282
依主	-11.6285
一尺	-11.629
。】【△	-11.629
廓	-11.6292
韓	-11.6293
慧心	-11.6293
請轉	-11.6294
紺	-11.6295
由智	-11.6295
廣分別	-11.6296
未得謂得	-11.6296
秤	-11.6298
碑	-11.6299
執權	-11.63
初發	-11.63
益者	-11.6304
躍	-11.6304
相當	-11.6304
言五	-11.6304
六字	-11.6304
自住	-11.6305
可然	-11.6306
因果俱	-11.6306
六十四番	-11.6306
不語	-11.6307
善生	-11.6309
理雖	-11.6309
文竟	-11.6309
是釋	-11.6311
如大經	-11.6311
法塵	-11.6311
耕	-11.6313
問文殊	-11.6314
弓	-11.6315
山家	-11.6315
真境	-11.6315
齊等	-11.6317
習盡	-11.6317
不說法	-11.6318
顯法	-11.6318
有權實	-11.6318
而我	-11.6319
祖承	-11.632
教義	-11.632
得無生	-11.6321
三十六物	-11.6321
釋種	-11.6322
五色	-11.6322
故喜	-11.6322
三念	-11.6322
無增減	-11.6323
電光	-11.6324
尊特身	-11.6324
百二十	-11.6325
於過去	-11.6329
誦持	-11.633
不近	-11.6332
如風	-11.6333
解惑	-11.6334
現觀	-11.6336
肺	-11.6336
定性聲聞	-11.6336
之國	-11.6336
初信	-11.6339
頓說	-11.6339
分大小	-11.6339
使者	-11.634
律中	-11.6342
聖旨	-11.6342
兩偈	-11.6342
衰老	-11.6343
故重	-11.6343
西晉	-11.6343
例上	-11.6344
漸入	-11.6345
熱病	-11.6346
器世間	-11.6347
亦各	-11.6349
念不退	-11.635
是第四	-11.635
化城品	-11.6351
引文證	-11.6351
見一切	-11.6352
十方三世諸佛	-11.6353
無別體	-11.6354
菩提道	-11.6355
法應	-11.6356
具引	-11.6356
至誠	-11.6359
今還	-11.6364
緣境	-11.6364
無因緣	-11.6366
既在	-11.6368
亦三	-11.6369
遇佛	-11.6371
為護	-11.6371
心等	-11.6374
所可	-11.6374
法界眾生	-11.6375
諷	-11.6375
入觀	-11.6375
諸凡夫	-11.6376
生大歡喜	-11.6376
外別有	-11.6376
生厭	-11.6378
受想	-11.638
授聲聞記	-11.6382
玅音	-11.6382
是化	-11.6384
若許	-11.6384
多寶佛塔	-11.6385
此山	-11.6387
第一義也	-11.6388
悉令	-11.6388
懈倦	-11.6389
略引	-11.6391
兼行六度	-11.6393
閑居編第	-11.6393
得證	-11.6395
法上	-11.6395
十度	-11.6397
廁	-11.6398
䟦提	-11.6398
震旦	-11.6398
皈	-11.6399
三千三諦	-11.6399
此座	-11.6399
非空非有	-11.6399
特為	-11.64
妙莊嚴	-11.6401
問其	-11.6402
四十一位	-11.6402
何以知然	-11.6402
起信論	-11.6405
二木	-11.6406
還約	-11.6406
恬	-11.6407
四辨	-11.6409
勝也	-11.6409
菩薩住	-11.641
江河	-11.641
周旋	-11.641
檢校	-11.6411
兩文	-11.6411
一毫	-11.6413
決擇	-11.6415
一心精進	-11.6415
呪護	-11.6415
朕	-11.6415
於物	-11.6416
取境	-11.6419
亦復不	-11.6419
故但云	-11.642
二嚴	-11.6421
不覺不知	-11.6422
皆因	-11.6422
無常無我	-11.6422
含藏	-11.6422
一點	-11.6424
觀身	-11.6424
權即實	-11.6426
愛念	-11.6426
初一偈	-11.6427
是故說	-11.6427
無非實相	-11.6428
流行	-11.6428
自歸	-11.6428
軌則	-11.6428
遍於	-11.6429
會麼	-11.6432
波水	-11.6433
染污	-11.6434
文後	-11.6434
此段	-11.6435
心得	-11.6437
普為	-11.644
唯得	-11.6442
於行	-11.6444
趣果	-11.6446
果佛	-11.6446
廣開	-11.6449
不進	-11.6453
遮照	-11.6454
應更	-11.6455
迹顯本	-11.6457
勸誡	-11.6458
分分	-11.6459
初中後	-11.6462
得陀羅尼	-11.6462
是魔	-11.6463
然雖	-11.6463
中止	-11.6465
歎二智	-11.6465
總喻	-11.6467
涅槃相	-11.6469
二重	-11.6471
滅除	-11.6472
先除	-11.6474
脫苦	-11.6475
在一念	-11.6475
了別	-11.6476
理外	-11.6477
故知是	-11.6479
起心	-11.648
流通也	-11.648
則異	-11.6482
外用	-11.6483
常作	-11.6484
若識	-11.6487
即是法性	-11.6487
體空	-11.6488
化用	-11.6488
國人	-11.6488
能隨	-11.6488
同事	-11.6489
模	-11.6491
直言	-11.6492
心佛眾生	-11.6492
何物	-11.6493
執近	-11.6493
故寄	-11.6495
監	-11.6495
踞	-11.6495
即名為	-11.6496
歇	-11.6498
即其事也	-11.6498
方所	-11.65
事同	-11.65
同居土	-11.6501
峻	-11.6503
參差	-11.6503
之所由	-11.6504
在上	-11.6504
準例	-11.6505
見身	-11.6505
方便波羅蜜	-11.6506
便作是念	-11.6507
三雙	-11.6507
雌	-11.6508
人不知	-11.6508
田宅	-11.6509
効	-11.6509
輿	-11.651
出之	-11.651
䭾	-11.6511
迷理	-11.6512
一合	-11.6513
復作	-11.6513
華開	-11.6514
捷	-11.6517
蜈蚣	-11.6517
十二門	-11.6517
二舉	-11.6518
心心數法	-11.6518
之願	-11.652
攝持	-11.6524
得理	-11.6528
梵天王	-11.6531
惡友	-11.6532
一乘教	-11.6535
但作	-11.6535
能覺	-11.6537
亦指	-11.6537
佛果菩提	-11.6537
知我	-11.6538
故致	-11.6538
無常等	-11.6539
滅化	-11.6542
或得	-11.6542
三根聲聞	-11.6544
實事	-11.6544
殊妙	-11.6544
名為解脫	-11.6549
默念	-11.6549
所離	-11.6549
是故當知	-11.655
竪論	-11.655
寒熱	-11.6551
無惡	-11.6551
密說	-11.6552
先述	-11.6556
何故但	-11.6557
五藏	-11.6558
不斷惑	-11.656
為法身	-11.656
起後	-11.656
淨名經	-11.6563
百法	-11.6565
住在	-11.6565
為種	-11.6565
之寶	-11.6567
成大	-11.6567
昔之	-11.6569
我亦如是	-11.6571
為深	-11.6571
經時	-11.6573
之所生	-11.6573
所止	-11.6574
求大乘	-11.6576
上至有頂	-11.6577
是般若	-11.6578
第五明	-11.6578
曾無	-11.6579
名稱	-11.6579
偈讚	-11.6579
疏主解	-11.658
無始來	-11.658
二十八品	-11.6582
十二入	-11.6583
法性身	-11.6583
周帀	-11.6584
到於彼岸	-11.6586
是小乘	-11.6586
令諸	-11.6588
歸本	-11.659
無雜	-11.6592
蓋以	-11.6594
勝用	-11.6594
安隱得出	-11.6595
閒	-11.6598
貽	-11.6598
無有餘乘	-11.6598
炷	-11.6599
新發意菩薩	-11.6599
鈔云	-11.66
宗也	-11.66
劇	-11.6601
直示	-11.6602
大相	-11.6602
蕭	-11.6603
母胎	-11.6603
諸佛之所	-11.6603
毒蟲	-11.6604
異時	-11.6605
餘教	-11.6606
華藏	-11.6607
宗用	-11.6607
先達	-11.6607
略指	-11.6607
離過	-11.6607
燕	-11.6607
遍行	-11.6607
中二初	-11.6608
巳為	-11.661
五百年	-11.661
功德莊嚴	-11.661
他日	-11.6611
所得法	-11.6612
暖	-11.6612
發來	-11.6612
又復應知	-11.6613
諸惑	-11.6614
隨力	-11.6617
一偈一句	-11.6617
炙	-11.6617
應時	-11.6617
謗經	-11.6617
若遇	-11.6618
丙	-11.6619
會同	-11.662
無主	-11.6621
修空	-11.6621
約心	-11.6621
頂受	-11.6622
造惡	-11.6623
不出此	-11.6624
隨順眾生	-11.6624
無上法	-11.6625
金光明經	-11.6625
果用	-11.6625
別修	-11.6627
以勸流通	-11.6628
後辨	-11.6628
例可知	-11.663
耳識	-11.6631
為侍者	-11.6632
味也	-11.6632
僕從	-11.6634
邪命	-11.6634
忍法	-11.6635
能盡	-11.6636
今對	-11.6636
引入	-11.6637
宗體	-11.6638
三昧力	-11.6639
施小	-11.6641
禮敬	-11.6641
是三昧	-11.6641
未詳	-11.6641
將謂	-11.6642
毗婆沙	-11.6644
為對治	-11.6645
寶山	-11.6646
前喻	-11.6651
達摩	-11.6651
無量百千	-11.6653
耶曰	-11.6654
善聽	-11.6655
一切天人	-11.6656
無始終	-11.6656
八倒	-11.6657
百千億	-11.6658
高座	-11.6659
徒施	-11.666
經力	-11.6661
初標章	-11.6662
密遣二人	-11.6663
千界	-11.6663
中論云	-11.6664
為智	-11.6665
所緣境	-11.6665
部教	-11.6665
至下	-11.6666
說耶	-11.6668
如是乃至	-11.6673
往因	-11.6674
樂聞	-11.6674
四攝法	-11.6674
廣頌	-11.6675
妙達	-11.6675
非相	-11.6678
又見菩薩	-11.6679
若先	-11.6682
知息	-11.6686
諸佛智慧甚深無量	-11.6687
方名為	-11.6688
顯遠	-11.6688
捨此	-11.6688
世雄	-11.6689
身形	-11.669
遊於四方	-11.6691
先正釋	-11.6691
極微	-11.6692
僭補	-11.6693
開四	-11.6694
能出	-11.6695
更互相	-11.6696
准知	-11.6696
隅	-11.6697
憂悲苦惱	-11.6698
正法華經	-11.6699
四無所畏	-11.6699
說因緣	-11.67
並同	-11.6703
韻	-11.6704
食時	-11.6705
是因緣	-11.6707
十乘觀法	-11.6707
如牛	-11.6708
生愛	-11.6709
滅時	-11.671
諸欲	-11.671
敗種	-11.6711
且略	-11.6712
三解脫	-11.6713
為論	-11.6713
不可思議也	-11.6713
不煩	-11.6713
罪過	-11.6713
言雖	-11.6717
諸漏巳盡	-11.6717
能信受	-11.6718
収	-11.6718
得所	-11.6718
七重	-11.6719
又非	-11.6719
▁初引經	-11.6721
大明	-11.6724
俱舍頌云	-11.6725
為法界	-11.6725
三變淨土	-11.6725
四年	-11.6726
毱多	-11.6726
但可	-11.6727
入地獄	-11.6728
初成道時	-11.6728
八勝處	-11.6728
丑	-11.6729
所讚	-11.6729
我等今日	-11.673
既稱	-11.6732
二初約	-11.6732
十品	-11.6732
依持	-11.6733
故當	-11.6737
惟一	-11.6739
亦不生	-11.6741
須明	-11.6742
從是	-11.6744
涯	-11.6746
亦有二	-11.6746
何位	-11.6747
之王	-11.6748
十喻	-11.6749
不能令	-11.6752
觀禪	-11.6753
一緣	-11.6753
付屬	-11.6753
施食	-11.6754
二段	-11.6757
是佛子	-11.6757
延慶	-11.6759
略有	-11.6759
照機	-11.6759
能覆	-11.676
知事	-11.6761
空性	-11.6762
位妙	-11.6763
自受用	-11.6763
自念言	-11.6764
此經亦復如是	-11.6765
冥機	-11.6766
亦無所	-11.6767
▁四頌	-11.6767
常修	-11.6767
破彼	-11.6768
謂彼	-11.6773
差別也	-11.6776
種種法門	-11.6777
冥益	-11.6782
亦不出	-11.6782
從空入假	-11.6784
二初問	-11.6784
二百五十	-11.6785
滿故	-11.6787
位居	-11.6789
化功	-11.6789
知病	-11.6789
非有想非無想	-11.6791
無謬	-11.6791
差降	-11.6791
造論	-11.6792
鐵圍山	-11.6792
其疑	-11.6794
四隨	-11.6794
八人	-11.6794
鹿車	-11.6794
氣息	-11.6794
違於	-11.6796
中路懈退	-11.6796
敦信	-11.6799
抑亦	-11.6799
非漏非無漏	-11.6799
次第也	-11.6801
斥云	-11.6803
破魔	-11.6803
四弘誓願	-11.6805
兩班	-11.6805
為食	-11.6807
摸	-11.6807
塗香	-11.6808
六時	-11.6809
般舟	-11.6809
必至	-11.6811
禹	-11.6812
不可計	-11.6812
八門	-11.6812
資粮	-11.6813
至後	-11.6813
無價	-11.6813
動搖	-11.6815
稚	-11.6815
疏意	-11.6816
準此可知	-11.6816
略也	-11.6818
倘	-11.6818
昔人	-11.6818
初偈	-11.6818
城中	-11.6818
隨根	-11.6819
鎖	-11.682
程	-11.682
更無餘	-11.682
申之	-11.6821
空閑	-11.6821
一代教	-11.6822
藏等	-11.6822
不增	-11.6824
更修	-11.6824
供具	-11.6824
郭	-11.6824
經中說	-11.6825
唯有一乘	-11.6826
△	-11.6826
經疏	-11.6826
審實	-11.6826
不足以	-11.6828
如是種種	-11.6829
初破	-11.6829
恭敬供養	-11.6831
存沒	-11.6832
如此方	-11.6832
三摩地	-11.6832
為頓頓	-11.6832
羯	-11.6833
具度	-11.6833
慈父	-11.6834
腰	-11.6834
斷通惑	-11.6835
喚作	-11.6835
心與	-11.6836
明釋迦	-11.6836
智者大師	-11.6837
槩	-11.6838
弦	-11.6838
正業	-11.684
頭首	-11.684
界界	-11.6841
種種譬喻	-11.6843
舉如意云	-11.6844
比量	-11.6845
來也	-11.6845
靡不	-11.685
在纏	-11.6851
時時	-11.6852
顯成	-11.6854
於諸眾生	-11.6854
至佛	-11.6854
▁△	-11.6855
隨眠	-11.6858
善現	-11.686
所判	-11.686
成實論	-11.686
四眼	-11.6861
分者	-11.6862
隨他	-11.6864
坐座	-11.6864
第五十	-11.6868
譯人	-11.6868
同諸佛	-11.687
知苦	-11.6871
帳	-11.6873
道士	-11.6873
便利	-11.6874
二十小劫	-11.6875
如來神力	-11.6875
起謗	-11.6875
東北	-11.6876
理境	-11.6876
妙因	-11.6877
色心不二	-11.6877
為我說	-11.688
一切時	-11.688
用方便	-11.688
制心	-11.6881
於空中	-11.6881
王等	-11.6882
語者	-11.6882
分段變易	-11.6882
通後	-11.6883
因於	-11.6884
但頌	-11.6884
合在	-11.6885
內德	-11.6885
以大悲	-11.6887
即是中道	-11.6888
無翻	-11.6888
同佛	-11.6889
藥草喻	-11.6891
第二第三	-11.6891
大行	-11.6893
從義	-11.6897
本際	-11.6897
義別	-11.6897
已成	-11.6897
賢者	-11.6899
如來身	-11.69
照東方	-11.69
經書	-11.6901
亦無有	-11.6902
十想	-11.6904
或指	-11.6904
聽眾	-11.6905
得少為足	-11.6906
無大	-11.6908
忍力	-11.6908
但教化菩薩	-11.6909
發時	-11.6909
於身	-11.6911
勇施	-11.6911
碧	-11.6912
留難	-11.6912
行住坐臥	-11.6916
又見佛子	-11.6917
踰繕那	-11.6917
亦用	-11.6917
有二種一	-11.6917
何故爾	-11.6918
進道	-11.6918
名竪	-11.6919
在法華	-11.692
九十八使	-11.692
不即不離	-11.692
雙亦	-11.6921
身子等	-11.6921
闢	-11.6922
緣覺乘	-11.6922
內無	-11.6922
抵	-11.6923
於佛滅後	-11.6924
其行	-11.6924
淨命	-11.6925
初又二初	-11.6927
純熟	-11.6927
霧	-11.6927
技	-11.6927
三摩	-11.6928
以一乘	-11.6928
厚薄	-11.6929
分為四	-11.6929
得受	-11.693
刀兵	-11.6932
十八變	-11.6932
下舉譬	-11.6932
毒蛇	-11.6934
詣佛	-11.6935
其志	-11.6935
靈瑞	-11.6935
十八不共法	-11.6937
定法	-11.6938
顯然	-11.6938
常得	-11.6938
可通	-11.6938
卷中	-11.694
詮理	-11.6941
報得	-11.6941
想行	-11.6942
終始	-11.6942
煖頂	-11.6943
雙亡	-11.6943
通相	-11.6944
大乘中	-11.6945
如火	-11.6946
真實法	-11.6947
第五記	-11.6948
屬事	-11.6949
雖言	-11.695
白骨	-11.6951
舉例	-11.6955
約果	-11.6955
貪等	-11.6955
起諸	-11.6957
德藏	-11.6958
不得自在	-11.6959
極其	-11.6959
從地	-11.696
解脫德	-11.6961
戒律	-11.6964
二卷	-11.6965
諸佛之法	-11.697
平等說法	-11.6971
所遊	-11.6971
二示	-11.6973
聞一句	-11.6974
然矣	-11.6975
時諸	-11.6975
徧於	-11.6975
糞穢	-11.6976
近成	-11.6977
解釋者	-11.6978
說小乘	-11.698
二根	-11.698
遍照	-11.6982
持法華經	-11.6983
三初明	-11.6985
我實	-11.6985
無量壽	-11.6987
三乘根性	-11.6987
不真	-11.6987
而退	-11.6988
假者	-11.6989
說頓	-11.6989
所收	-11.6989
可觀	-11.6989
此之二	-11.6991
根本禪	-11.6992
惡知識	-11.6993
尚在	-11.6994
所歎	-11.6995
有聲	-11.6995
究其	-11.7
一行半頌	-11.7001
先佛	-11.7001
華香瓔珞	-11.7003
此之謂也	-11.7004
其教	-11.7005
起七寶塔	-11.7006
遇緣	-11.7006
在家出家	-11.7007
諸佛子	-11.7007
得道者	-11.7007
墯	-11.7008
減少	-11.7008
以性	-11.7009
普告	-11.7009
三十八	-11.701
大人相	-11.7011
夢見	-11.7013
阿耨	-11.7013
卷下	-11.7013
十身	-11.7014
次例	-11.7014
教教	-11.7014
抗	-11.7014
猷	-11.7015
善權方便	-11.7015
諸佛所說	-11.7017
通惑	-11.7017
敬心	-11.7017
爭出火宅	-11.7018
文殊問	-11.7018
又引	-11.7019
入中道	-11.7019
瞑	-11.7019
更增	-11.7021
進行	-11.7021
侵習	-11.7021
匹	-11.7022
眾流	-11.7023
無數億	-11.7023
三千世間	-11.7024
光明照	-11.7025
埋	-11.7025
㝹	-11.7026
理非	-11.7026
自具	-11.7028
巳曾	-11.7028
纓絡	-11.7029
皆當作佛	-11.703
有人問	-11.7033
錢唐	-11.7034
所染	-11.7035
三識	-11.7035
攝在	-11.7037
齧	-11.704
由眾生	-11.704
漿	-11.7041
三七思惟	-11.7045
觀不思議境	-11.7045
金錢	-11.7048
博地	-11.7052
況出	-11.7052
起盡	-11.7056
破假	-11.7056
習學	-11.7059
尚須	-11.7059
見思惑	-11.7062
初中先	-11.7063
味味	-11.7064
無貪	-11.7067
故喻云	-11.7067
所以言	-11.7067
一乘法	-11.7067
憂悔	-11.7068
不乖	-11.7069
年少	-11.7069
後位	-11.7069
稱嘆	-11.707
如何言	-11.7071
善不善	-11.7073
文殊答	-11.7074
觀師	-11.7075
為諸聲聞	-11.7077
▁初總標	-11.7078
一乘因果	-11.7079
觀解者	-11.7081
廣宣	-11.7081
多在	-11.7082
為佛事	-11.7083
不堪聞	-11.7084
拙度	-11.7084
總合	-11.7084
口密	-11.7085
百六十	-11.7085
受旨	-11.7086
初通	-11.7087
義門	-11.7089
有過	-11.7091
猶為	-11.7092
後品	-11.7093
三章	-11.7096
隨於	-11.7099
為經	-11.71
佛時	-11.71
或當	-11.7103
非異	-11.7104
求出家	-11.7104
於佛智慧	-11.7105
即作是念	-11.7107
孰能	-11.7108
無難	-11.7111
非妙	-11.7111
超斷	-11.7111
現世安隱	-11.7112
功由	-11.7113
念住	-11.7114
會異	-11.7115
隨他意語	-11.7115
深禪定	-11.7116
而告之言	-11.7117
雜亂	-11.7118
成辦	-11.7118
細尋	-11.7118
智證	-11.7119
體既	-11.712
為常	-11.7121
告言	-11.7122
濃淡	-11.7122
中人	-11.7122
就初	-11.7122
森羅	-11.7122
向來	-11.7123
最尊	-11.7123
教所詮	-11.7123
具釋	-11.7125
隱實施權	-11.7126
發迹顯本	-11.7126
芥	-11.7127
非聖	-11.7129
叢	-11.7129
攝諸	-11.7129
階位	-11.7129
乾土	-11.7131
演暢	-11.7131
▁一長行	-11.7133
爾時會中	-11.7134
且舉	-11.7134
四天	-11.7135
故不應	-11.7137
般若經	-11.7137
迹也	-11.7137
一日一夜	-11.7138
巳入	-11.7138
數多	-11.7139
品類	-11.7139
畢竟無	-11.7139
淨飯王	-11.7139
當學般若	-11.7139
曷	-11.714
贈	-11.7141
凶	-11.7141
囉	-11.7142
國王大臣	-11.7143
不下	-11.7144
次一偈	-11.7145
毒虫	-11.7146
遙聞	-11.7147
佛佛	-11.7148
求食	-11.7148
』	-11.7148
愛敬	-11.7149
為失	-11.7149
縛脫	-11.7149
持經之	-11.7149
態	-11.715
只得	-11.715
霅川	-11.715
作種種	-11.715
一大車	-11.7152
教詔	-11.7153
可成	-11.7153
得勝	-11.7154
慧日	-11.7154
二乘教	-11.7154
餘乘	-11.7155
次論	-11.7155
梅	-11.7156
皆是方便	-11.7156
令入佛道	-11.7157
自開	-11.7158
妙好	-11.7158
一切法空	-11.7159
定障	-11.7159
無等	-11.7161
下根人	-11.7161
用大	-11.7163
法華巳前	-11.7164
巳如前	-11.7165
未念	-11.7165
大權	-11.7167
不善業	-11.7169
既約	-11.7171
理融	-11.7172
略標	-11.7172
堪受	-11.7174
種也	-11.7174
初發心時	-11.7175
流通此經	-11.7176
語其	-11.7177
施開	-11.718
為女	-11.718
知足	-11.7182
示為	-11.7182
千世界	-11.7183
死生	-11.7185
而施	-11.7185
法味	-11.7185
為中根	-11.7186
七歲	-11.7187
論語	-11.7189
方便品中	-11.7192
發於	-11.7192
果記	-11.7193
何由可	-11.7194
所以為	-11.7194
會三	-11.7194
未周	-11.7198
為四眾	-11.7199
次文者	-11.72
略知	-11.72
滅不滅	-11.72
本來無	-11.7202
頌第四	-11.7202
癡人	-11.7202
印可	-11.7204
重述	-11.7206
玅樂	-11.7206
吾今	-11.7209
未圓	-11.7211
此天	-11.7211
故此品來	-11.7212
令識	-11.7213
即約	-11.7214
所逼	-11.7215
不可定	-11.7216
通理	-11.7218
但念	-11.7218
自信	-11.7219
人眾	-11.7219
破一切	-11.7221
他性	-11.7222
有子	-11.7224
師子奮迅	-11.7224
無出	-11.7224
厭生死	-11.7225
六頌	-11.7225
應非	-11.7227
心要	-11.7227
行門	-11.7227
毀呰	-11.7228
初轉法輪	-11.7229
實得	-11.7231
授記者	-11.7231
此難	-11.7231
如釋籤	-11.7232
待時	-11.7235
集註	-11.7236
五番	-11.7236
良有以也	-11.7236
波斯匿王	-11.7237
大海水	-11.7237
悋	-11.7237
皰	-11.7238
甚可怖畏	-11.7238
恐其	-11.7239
稽	-11.7239
炳然	-11.724
罕	-11.7242
呌	-11.7243
說十地	-11.7243
生天上	-11.7244
懇	-11.7244
敏	-11.7244
水陸	-11.7246
斷故	-11.7246
作方便	-11.7246
品末	-11.7247
有宗	-11.7248
地水火風	-11.7248
四十二位	-11.7249
赫	-11.7249
無量阿僧祇劫	-11.7249
淺處	-11.725
三草	-11.725
發揮	-11.7251
所期	-11.7252
五處	-11.7253
朔	-11.7253
四如意足	-11.7254
遠也	-11.7254
寬狹	-11.7256
陀羅尼品	-11.7256
鐵圍	-11.7257
四十心	-11.7258
黃帝	-11.7259
猶如虛空	-11.7259
故經言	-11.7259
諸佛護念	-11.7261
不停	-11.7261
苦法忍	-11.7261
疾得	-11.7262
異同	-11.7264
為橫	-11.7266
自他俱	-11.7267
中第一	-11.7267
小乘法	-11.727
其能	-11.7271
妄生	-11.7271
五百羅漢	-11.7272
悲願	-11.7273
而失	-11.7273
緣念處	-11.7274
一由旬	-11.7274
不繁	-11.7274
結斥	-11.7276
萬象	-11.7279
未來佛	-11.7279
說無量義經	-11.728
聖主	-11.7281
下證	-11.7281
三解脫門	-11.7283
補注	-11.7284
對位	-11.7287
聖法	-11.7288
菩薩說	-11.729
應作是念	-11.729
終成	-11.7293
如前所說	-11.7294
頌上第二	-11.7295
標列	-11.7295
無住處	-11.7295
從略	-11.7296
撥無	-11.7297
引導眾生	-11.7298
隱沒	-11.7299
為正宗	-11.7301
定時	-11.7301
俱破	-11.7303
光色	-11.7303
餘殘	-11.7304
以權	-11.7304
二番	-11.7306
對機	-11.7307
福業	-11.7308
傳燈	-11.7308
五濁障	-11.7313
作此解	-11.7313
退法	-11.7315
失其	-11.7316
老人	-11.7317
法身德	-11.7318
二初釋	-11.732
頓等	-11.7321
史記	-11.7322
即通	-11.7322
願求	-11.7323
甚廣	-11.7323
當得成佛	-11.7323
離言	-11.7325
非別	-11.7325
荊谿云	-11.7325
不照	-11.7327
姟	-11.7328
四十年	-11.7329
增勝	-11.7329
然身	-11.733
眾見	-11.7331
即觀	-11.7331
聲聞之人	-11.7332
去至	-11.7334
無慧	-11.7336
樞	-11.7336
乃指	-11.7336
之譬	-11.7336
他化	-11.7337
皆是吾子	-11.7339
加頌	-11.734
被物	-11.7342
品文	-11.7343
為順	-11.7344
復次常精進	-11.7344
團	-11.7344
雨大法雨	-11.7345
用與	-11.7345
譬如下	-11.7347
於我滅後	-11.7347
許之	-11.7348
如似	-11.7349
此領	-11.735
調御	-11.735
醜陋	-11.735
寤	-11.7351
駭	-11.7351
所述	-11.7352
未彰	-11.7354
還入	-11.7356
優婆塞優婆夷	-11.7357
▁三結示	-11.7358
無垢稱	-11.7359
撫	-11.736
依正不二	-11.736
其華	-11.7361
本宗	-11.7363
悶	-11.7364
便成正覺	-11.7364
徙	-11.7365
安坐	-11.7365
胤	-11.7366
蚖	-11.7367
兩向	-11.7367
云何能	-11.7369
脩習	-11.737
誡聽	-11.737
斤	-11.737
一標	-11.7371
有二解	-11.7371
初半行	-11.7373
斯旨	-11.7374
十二年前	-11.7376
簡要云	-11.7377
之患	-11.7379
練磨	-11.7379
兼明	-11.7379
今巳	-11.738
未斷惑	-11.738
而便	-11.738
生熟	-11.7381
故不能	-11.7381
退者	-11.7383
多故	-11.7384
暫時	-11.7386
影像	-11.7387
又知	-11.7392
無明法性	-11.7395
諸佛子等	-11.7397
餘七	-11.7397
智論云	-11.7399
次舉	-11.7401
塔中	-11.7402
舊住	-11.7402
交互	-11.7404
此初	-11.7406
入證	-11.7408
一何	-11.7409
由因	-11.741
人云	-11.7411
圓頓止觀	-11.7413
其果	-11.7415
何甞	-11.7422
名解脫	-11.7422
不執	-11.7423
中千	-11.7423
從生	-11.7424
捨之	-11.7424
和南	-11.7427
有解	-11.7427
結也	-11.7428
乃見	-11.7428
六番	-11.7432
十六子	-11.7436
初三行	-11.7437
引古	-11.7438
所當	-11.7438
從行	-11.7439
正要	-11.744
防護	-11.744
且寄	-11.7441
初重	-11.7442
不能解	-11.7443
修治	-11.7445
惡果	-11.7445
巳畢	-11.7446
出興	-11.7446
其土平正	-11.7448
護持法藏	-11.7449
大聖人	-11.745
五十二位	-11.745
不可稱計	-11.7452
於意云何	-11.7452
為定	-11.7453
始有	-11.7453
諸塵	-11.7454
恭敬圍繞	-11.7455
比知	-11.7455
方云	-11.7455
迂	-11.7457
非內非外	-11.7457
下依	-11.7457
無不皆	-11.7458
自謂巳得	-11.7459
賀	-11.746
下三句	-11.746
國邑聚落	-11.746
本妙	-11.7462
法華開顯	-11.7463
身邊	-11.7463
羣生	-11.7464
念觀音	-11.7466
孚	-11.7466
不聽	-11.7467
王曰	-11.7467
舉體	-11.7467
正問	-11.7467
人王	-11.7469
酧	-11.7469
作是觀	-11.747
莫知	-11.747
但令	-11.747
頞	-11.7471
愽	-11.7472
難以	-11.7473
應知此	-11.7474
斷見惑	-11.7475
唯佛能知	-11.7475
資糧	-11.7476
之案	-11.7478
奉佛	-11.7478
初業	-11.7479
何所不	-11.7479
之記	-11.7479
玅樂云	-11.7481
之象	-11.7481
中復有	-11.7482
三疑	-11.7483
五果	-11.7483
俱空	-11.7484
必知	-11.7486
莂	-11.7487
下述	-11.7488
三千性相	-11.7489
不聞不知	-11.7491
次開	-11.7492
現身說法	-11.7493
知彼	-11.7495
正論	-11.7495
顯佛	-11.7495
色想	-11.7495
敘昔	-11.7495
今人	-11.7496
從定起	-11.7498
蓮子	-11.7498
此又	-11.7499
必應	-11.75
委論	-11.75
三十七道品	-11.7501
於此會得	-11.7502
文證	-11.7502
不須更	-11.7502
眾生世間	-11.7504
欲退還	-11.7505
六欲天	-11.7506
亦不可得	-11.7507
諸數	-11.7508
心懷	-11.7508
如經云	-11.7509
不去	-11.751
病相	-11.751
始見	-11.7512
宅中	-11.7512
所稟	-11.7512
後更	-11.7514
所繫	-11.7514
饒益眾生	-11.7515
不得不	-11.7517
)。「	-11.7517
自地	-11.7519
漸初	-11.7519
非數	-11.7521
又名	-11.7521
知巳	-11.7524
於其中	-11.7525
受於	-11.7527
受益	-11.7527
學地	-11.7528
立一切法	-11.7528
自在神力	-11.753
元無	-11.7533
幡蓋	-11.7537
求大	-11.7537
若菩薩	-11.7539
則生	-11.7542
眾心	-11.7543
俱成	-11.7543
迦葉佛	-11.7543
玄云	-11.7546
俱屬	-11.7546
道俗	-11.7547
往復	-11.7548
決定心	-11.7548
刊	-11.7548
五百比丘	-11.7548
之使	-11.7548
還同	-11.7549
修道品	-11.7553
其例	-11.7554
次料簡	-11.7556
嵗	-11.7557
品目	-11.7557
供養經卷	-11.7557
如來智	-11.7558
入息	-11.7559
向前	-11.7559
不亡	-11.756
還用	-11.7563
謨	-11.7564
不遇	-11.7569
置於	-11.757
問經從	-11.757
子孫	-11.757
入於佛慧	-11.7571
醉臥	-11.7572
低頭	-11.7574
佛難值	-11.7575
秦言	-11.7575
浴池	-11.7576
喻眾生	-11.7577
禰	-11.7578
病也	-11.7578
不受後有	-11.7578
通菩薩	-11.7579
說諸法	-11.758
借用	-11.758
單複	-11.7581
於佛法中	-11.7582
從他	-11.7582
算數	-11.7583
裔	-11.7583
播	-11.7585
攝末歸本	-11.7585
名為佛	-11.7585
車乘	-11.7585
虞	-11.7586
三種意生身	-11.7586
未全	-11.7587
頓悟菩薩	-11.7587
匡	-11.7587
捧	-11.7588
鞭	-11.7588
一真法界	-11.7589
在凡	-11.759
開為四	-11.759
慈善根力	-11.759
先牒	-11.759
及聲聞眾	-11.7591
三無性	-11.7591
無所住	-11.7591
十中	-11.7593
隔異	-11.7595
▁二如來	-11.7595
然有	-11.7596
但上	-11.7596
不敬	-11.7596
庚	-11.7597
比丘等	-11.7598
真宗	-11.7598
仕	-11.7599
猶居	-11.76
可思議	-11.76
別出	-11.7601
馬鳴	-11.7602
三部	-11.7602
四衢	-11.7603
不同耳	-11.7603
十事	-11.7604
初歎	-11.7604
眾數	-11.7606
二妙	-11.7606
有二十	-11.7607
凌	-11.7607
桑	-11.7608
文為四	-11.7608
行支	-11.7611
由聞	-11.7611
問之	-11.7611
推撿	-11.7613
真金	-11.7614
雖見	-11.7614
魔界	-11.7616
苦痛	-11.7617
二別明	-11.7619
佛讚	-11.762
如玄文	-11.7621
俱亡	-11.7621
而示	-11.7622
付法	-11.7622
如是諸人等	-11.7624
白象	-11.7625
大分	-11.7625
正言	-11.7627
次重	-11.7627
三觀一心	-11.7627
貼	-11.7628
斷集	-11.7629
方生	-11.7632
宗教	-11.7633
大心	-11.7635
七地巳前	-11.7635
又為三	-11.7635
機者	-11.7636
其色	-11.7638
名字即	-11.7639
順忍	-11.7639
名外	-11.764
四念處云	-11.7641
同學	-11.7642
為足	-11.7642
本迹二門	-11.7643
深知	-11.7643
依處	-11.7643
異方便	-11.7644
觀音玄	-11.7645
說法也	-11.7646
可言	-11.7651
一行明	-11.7652
文有四	-11.7652
惡魔	-11.7653
而更	-11.7654
喻上	-11.7654
似如	-11.7654
而辯	-11.7656
十五日	-11.7657
終不能	-11.7659
難問	-11.7659
風雨	-11.766
因緣譬喻	-11.766
入禪	-11.7661
心住	-11.7663
表報	-11.7664
經末	-11.7664
般若德	-11.7664
不退者	-11.7665
皆是菩薩	-11.7665
名為大	-11.7665
不動地	-11.7666
名出	-11.7667
我等諸宮殿	-11.7667
阿逸	-11.7668
而得解脫	-11.7668
墮在	-11.7669
影現	-11.7669
▁四若	-11.767
6	-11.767
往聽	-11.767
慈悲心	-11.7673
豈異人乎	-11.7674
訛也	-11.7676
其家	-11.7676
一果	-11.7677
思議境	-11.7678
接入	-11.7678
是何等	-11.7678
▁一示	-11.7682
菩薩修	-11.7683
皎	-11.7683
千二百歲	-11.7684
性種	-11.7686
愛取	-11.7687
禦	-11.7688
淘汰	-11.7689
自無	-11.769
之尊	-11.7691
與奪	-11.7691
百非	-11.7692
二道	-11.7692
起惡	-11.7693
妙名	-11.7693
修禪定	-11.7694
便即	-11.7695
八行	-11.7697
此娑婆	-11.7698
鏁	-11.7699
號日月燈明	-11.7699
又依	-11.77
二住	-11.77
斷於	-11.77
不帶	-11.7701
之美	-11.7703
眾機	-11.7704
糠	-11.7705
恕	-11.7705
岐	-11.7706
洛	-11.7707
阿闍世王	-11.7708
為是義故	-11.7708
無生行	-11.771
泡	-11.771
疏解	-11.7711
依境	-11.7712
詢	-11.7713
功歸	-11.7713
騎	-11.7713
約味	-11.7713
巧說	-11.7716
是橫	-11.7717
祠	-11.7718
種種不同	-11.7719
為外	-11.7721
一一皆有	-11.7721
憂念	-11.7723
惟是	-11.7724
入妙	-11.7724
豈容	-11.7725
今引	-11.7726
臥具	-11.7726
能持是經者	-11.7729
義含	-11.7729
根境	-11.7729
慈力	-11.773
中取	-11.7732
七事	-11.7734
其力	-11.7735
用車	-11.7735
塔寺	-11.7736
賢位	-11.7736
白色	-11.7736
惟有	-11.7737
於惡	-11.774
則便	-11.7745
持國	-11.7747
正思惟	-11.7747
多矣	-11.7749
不思議之	-11.775
而難	-11.775
卷第五	-11.7751
法身大士	-11.7753
出入息	-11.7753
由觀	-11.7753
文似	-11.7753
為現	-11.7753
發大願	-11.7755
中諦	-11.7755
王數	-11.7756
於今日	-11.7757
於菩薩法	-11.7758
亦滅	-11.7758
二初正明	-11.776
自論	-11.776
依前	-11.7762
宣傳	-11.7762
第七卷	-11.7762
善順	-11.7762
是性	-11.7762
常身	-11.7762
非如	-11.7765
利智	-11.7768
章疏	-11.777
令我等	-11.7771
上合	-11.7772
其諸	-11.7773
當果	-11.7773
為何	-11.7773
所好	-11.7774
通云	-11.7776
十二月	-11.7777
生公	-11.778
次修	-11.778
鑑機	-11.7781
推理	-11.7782
為塞	-11.7783
天帝釋	-11.7784
分節	-11.7785
湧	-11.7785
之圓	-11.7786
歎曰	-11.7786
迷者	-11.7786
有前後	-11.7787
綺	-11.7792
偏袒右肩	-11.7795
種種供養	-11.7795
紫金	-11.7796
為弟子	-11.7798
九行半	-11.78
十方國土	-11.78
聖師	-11.78
可破	-11.7801
其情	-11.7804
後起	-11.7804
實相之理	-11.7804
不值佛	-11.7805
安之	-11.7805
方堪	-11.7806
滅惡	-11.7806
勗	-11.7807
為業	-11.7807
大藏	-11.7807
一體三寶	-11.7807
總以	-11.7808
一切聲聞辟支佛	-11.7809
譏嫌	-11.781
廣破	-11.781
雕	-11.7811
杳	-11.7811
功力	-11.7813
施眾生	-11.7813
疣	-11.7813
梵王請	-11.7814
可了	-11.7814
斷界內	-11.7815
劒	-11.7815
有二義一	-11.7816
無量義處	-11.7817
矩	-11.7817
作四句	-11.7818
汲	-11.7819
煑	-11.7819
上聲	-11.7819
思之可知	-11.7819
元來	-11.782
別中	-11.7821
神通變化	-11.7821
蹔	-11.7821
倣	-11.7822
㵎	-11.7823
剃髮	-11.7823
欲擬	-11.7824
退菩提心	-11.7824
其智慧門	-11.7825
義足	-11.7825
於法身	-11.7825
報障	-11.7826
為眾生說法	-11.7826
天台智者	-11.7827
而轉	-11.7828
輕毀	-11.7828
火滅	-11.7829
輔行釋	-11.7829
有一導師	-11.7829
因緣說	-11.7831
鐵輪	-11.7832
葬	-11.7832
我即	-11.7832
除其	-11.7833
衝	-11.7836
白母	-11.7836
汝若	-11.7837
轉者	-11.7839
安於	-11.784
阿彌陀	-11.784
教部	-11.7843
不述	-11.7843
通會	-11.7843
智眼	-11.7843
勝餘	-11.7845
分別解說	-11.7846
即開	-11.7847
無德	-11.7848
受學	-11.7849
助開	-11.7849
具三義	-11.785
而死	-11.785
萬由旬	-11.7851
具足一切	-11.7852
雜染	-11.7856
念佛三昧	-11.7856
各執	-11.7856
二緣	-11.7861
彌勒問	-11.7861
專使	-11.7862
龍女成佛	-11.7863
與涅槃	-11.7863
假令	-11.7864
非器	-11.7868
但釋	-11.7868
露地	-11.7869
序文	-11.787
十一切處	-11.7871
別位	-11.7871
少欲	-11.7872
含於	-11.7873
發意	-11.7874
發心者	-11.7876
通三界	-11.7876
自明	-11.7877
三十四	-11.7878
中上	-11.7879
見火譬	-11.7879
直下	-11.7879
希求	-11.7882
輭	-11.7882
加之	-11.7884
煩惱生死	-11.7885
成佛也	-11.7886
須具	-11.7887
有百	-11.7888
八諦	-11.7889
甚為	-11.789
即空故	-11.7891
火坑	-11.7891
二種生死	-11.7893
況餘	-11.7893
欲來	-11.7894
則攝	-11.7895
佛現	-11.7895
無教	-11.7895
牛頭	-11.7895
多途	-11.7896
戀慕	-11.7896
皆說	-11.7896
宿因	-11.7897
諸佛同	-11.79
慧力	-11.7901
不休息	-11.7901
知覺	-11.7901
麁細	-11.7902
者乎	-11.7902
玄文云	-11.7904
受想行識	-11.7908
娛	-11.7909
十月	-11.7909
尚得	-11.7909
初發心住	-11.791
尊重讚歎	-11.7913
雙流	-11.7914
正等覺	-11.7914
斷欲界	-11.7914
重寶	-11.7914
是趣不過	-11.7917
艱	-11.7917
常懷	-11.7917
頗梨	-11.7918
捨於	-11.7918
而皆	-11.792
自在天	-11.792
上行	-11.7923
於時世尊	-11.7923
積集	-11.7924
雇	-11.7927
謟	-11.7927
繫緣	-11.7928
狐疑	-11.7928
嬈	-11.7928
轉計	-11.7929
大乘人	-11.7929
歷劫	-11.7929
爾雅	-11.7929
朋	-11.793
七信	-11.793
直是	-11.7931
是無漏	-11.7931
次更	-11.7932
欝	-11.7932
能安	-11.7934
悶絕	-11.7934
可愛	-11.7934
說種種法	-11.7935
絕言歎	-11.7936
求聲聞者	-11.7936
袪	-11.7936
犍	-11.7936
騐	-11.7937
受諸	-11.7937
有教	-11.7937
僊	-11.7938
戚	-11.7938
等無有異	-11.7942
為一切眾生	-11.7942
當作	-11.7946
聞見	-11.7947
物情	-11.7947
習種性	-11.795
還依	-11.7951
勝前	-11.7952
梵輔	-11.7952
你	-11.7953
止於	-11.7954
剎海	-11.7959
法數	-11.796
雜修	-11.7961
諸禪三昧	-11.7962
如山	-11.7966
無法不	-11.7966
功德者	-11.7966
之力也	-11.7966
大象	-11.7966
莫大	-11.7968
迦葉白佛言	-11.7969
今具	-11.797
脾	-11.797
行布	-11.7972
上二句	-11.7974
迷真	-11.7974
般若時	-11.7975
中道觀	-11.7976
居中	-11.7976
行近	-11.7977
有二釋	-11.7977
別傳	-11.7978
感應妙	-11.7979
融攝	-11.7979
一槩	-11.7981
稱之	-11.7982
滅度後	-11.7985
與諸菩薩	-11.7985
歎其	-11.7985
十界十如	-11.7986
又更	-11.7987
二位	-11.799
價直	-11.7992
若法	-11.7992
無道	-11.7994
結意	-11.7994
即煩惱	-11.7996
更無有	-11.7998
有樂	-11.8001
第十五	-11.8004
說默	-11.8004
法雲	-11.8006
一念心起	-11.8006
三種止觀	-11.8006
中道正觀	-11.8006
甚大	-11.8008
生謗	-11.8008
有妨	-11.8009
所指	-11.8014
學無學人	-11.8015
必待	-11.8016
而與	-11.8017
故不可說	-11.8017
苦者	-11.8018
涌現	-11.8018
初解	-11.8018
三千法	-11.8019
如是妙法	-11.802
六欲	-11.802
道人	-11.8021
四無畏	-11.8023
巳解	-11.8023
之輩	-11.8025
四諦法	-11.8025
六章	-11.8026
▁二示	-11.8028
濕性	-11.8029
彼則	-11.803
無謀	-11.8031
寶樹莊嚴	-11.8032
坐於道場	-11.8033
再三	-11.8033
鳩槃茶	-11.8033
感得	-11.8035
後一頌	-11.8036
翻破	-11.8037
由行	-11.8038
▁初因緣	-11.8038
深入禪定	-11.8038
次頌	-11.8039
諸法相	-11.8039
心心所	-11.804
弄引	-11.8041
巳久	-11.8041
釋妨	-11.8041
不思議解脫	-11.8044
仍是	-11.8045
顯揚	-11.8045
可云	-11.8045
非菩薩	-11.8045
心意	-11.8046
多含	-11.8048
彚	-11.8048
四十二字	-11.8048
踈	-11.8048
稻	-11.8049
著述	-11.8049
眾生佛性	-11.805
大目犍連	-11.805
語通	-11.8051
讚揚	-11.8052
眼耳	-11.8052
明來意	-11.8052
從師	-11.8054
兼通	-11.8054
荊	-11.8054
此之三	-11.8055
坦然	-11.8058
前已	-11.8058
中含	-11.806
此即是	-11.8061
隨處	-11.8061
一土	-11.8062
筵	-11.8063
茅	-11.8065
得子	-11.8067
鴻	-11.8068
唯我	-11.8068
金光	-11.8069
從佛聞法	-11.8072
出苦	-11.8073
終身	-11.8075
七益	-11.8076
容易	-11.8076
惛	-11.8078
諸度	-11.8078
六度萬行	-11.8079
但略	-11.808
第十三	-11.808
通佛	-11.808
沼	-11.8082
之頂	-11.8083
此禪	-11.8083
菩薩所行	-11.8083
縱令	-11.8083
紀國	-11.8084
自在無礙	-11.8085
之不同	-11.8088
必欲	-11.8089
立誓	-11.809
無子	-11.809
約時	-11.809
持淨戒	-11.809
真觀	-11.8091
皆盡	-11.8091
十力無畏	-11.8091
以立名	-11.8092
咸歸	-11.8092
何如	-11.8094
真子	-11.8094
末香	-11.8095
周禮	-11.8101
外現	-11.8101
可取	-11.8101
九行	-11.8102
如是果	-11.8106
得戒	-11.8107
理一也	-11.8107
憍陳如	-11.8107
說無量義	-11.8108
一般	-11.8109
慈忍	-11.8112
作惡	-11.8116
此取	-11.8117
誡門	-11.8118
大羅漢	-11.8122
本利	-11.8124
雖俱	-11.8127
如華	-11.8127
自稱	-11.8128
引法華	-11.8128
是過去	-11.813
顯機	-11.813
如是如是	-11.813
即解	-11.8132
到此	-11.8133
六因	-11.8135
度無極	-11.8135
聲聞法	-11.8137
愛心	-11.8137
妙高	-11.8137
病人	-11.8141
五品位	-11.8141
大富	-11.8141
名不退	-11.8143
及諸菩薩	-11.8144
初請	-11.8148
盡理	-11.8148
第四卷	-11.8149
秘密之藏	-11.815
失旨	-11.815
外事	-11.8152
丹丘	-11.8153
二輪	-11.8155
打擲	-11.8157
少病少惱	-11.8157
餘門	-11.8159
上根人	-11.816
佛光	-11.8161
亦屬	-11.8162
餘義	-11.8163
對教	-11.8163
㭊玄	-11.8165
牧	-11.8167
苦集滅道	-11.8168
疲勞	-11.8169
一坐	-11.8171
迦毗羅	-11.8172
先歎	-11.8173
墮於	-11.8173
貧里	-11.8174
介	-11.8174
實相理	-11.8174
功勳	-11.8175
即於佛前	-11.8176
圭	-11.8177
縫	-11.8177
概	-11.8177
貯	-11.8178
之用也	-11.818
受其	-11.8181
綺語	-11.8183
小行	-11.8184
此一段	-11.8184
羅剎女	-11.8184
貧人	-11.8186
開漸	-11.8186
農	-11.8187
說聽	-11.8187
初後俱	-11.8188
圓教四門	-11.8188
借彼	-11.8192
百八十	-11.8192
九世	-11.8192
圓入通	-11.8192
為未來	-11.8195
二疑	-11.8196
佛滅	-11.8196
鬼畜	-11.8196
為二初	-11.8197
廣博	-11.8197
上天	-11.8198
容受	-11.8198
中興	-11.8198
鼎	-11.8198
則失	-11.8199
求無上道	-11.8199
雖分	-11.8199
白淨	-11.82
成立	-11.8201
明利	-11.8202
勝意	-11.8202
發動	-11.8204
其智	-11.8205
問若爾	-11.8205
燃燈	-11.8206
後必	-11.8207
翁	-11.8208
夜摩	-11.8208
唯是一	-11.8209
下訖	-11.8209
所說者	-11.8209
畢定	-11.821
只應	-11.821
皆謂	-11.8212
此中明	-11.8212
名小	-11.8214
引攝	-11.8215
既深	-11.8216
地獄界	-11.8218
身壽	-11.8218
初開	-11.8219
障轉	-11.8221
皆悉具足	-11.8222
棄之	-11.8222
帝網	-11.8223
從上	-11.8225
之體也	-11.8225
下結歸	-11.8226
今作	-11.8228
舊本	-11.823
至道場	-11.823
不擇	-11.8231
八行半	-11.8231
凡人	-11.8234
如酪	-11.8236
深敬	-11.8237
復說	-11.8238
少異	-11.8239
總指	-11.8239
大苦	-11.824
記別	-11.824
玅觀	-11.824
見修	-11.8241
淺識	-11.8242
次會	-11.8243
說法妙	-11.8243
華葉	-11.8245
直就	-11.8246
引論文	-11.8247
不接	-11.8248
如是體	-11.8249
生著	-11.8252
三會	-11.8252
諸乘	-11.8252
西北	-11.8253
欲心	-11.8256
一切教	-11.8258
未窮	-11.8259
義顯	-11.826
第五時	-11.8261
)。】	-11.8263
各各自	-11.8264
故注	-11.8266
大自在天	-11.8267
名句	-11.8268
感報	-11.8269
生人天	-11.8271
中有五	-11.8271
法慧	-11.8272
大小二	-11.8272
後果	-11.8272
及二乘	-11.8273
生子	-11.8273
不同二乘	-11.8275
却住一面	-11.8275
諸來	-11.8275
佛自住大乘	-11.8276
捃拾	-11.8278
矣然	-11.8279
易明	-11.828
下結意	-11.828
而供養之	-11.8281
入一乘	-11.8281
如意足	-11.8283
普賢觀經	-11.8284
旃	-11.8286
在圓	-11.8286
王所	-11.8288
莫測	-11.8288
盡諸有結	-11.8289
勇健	-11.8289
非空非有門	-11.829
責之	-11.829
翠	-11.8291
第十二	-11.8291
捨几用車	-11.8292
闊	-11.8294
吠	-11.8294
報佛恩	-11.8294
拾	-11.8294
跛	-11.8296
盡無生智	-11.8296
靈山一會	-11.8298
自悟	-11.8298
無雲	-11.8298
佛勅	-11.8298
崛	-11.8298
那羅延	-11.8299
二初標	-11.8299
壓	-11.8299
良由於此	-11.83
統紀	-11.83
菜	-11.83
今因	-11.8302
置之	-11.8303
奮	-11.8303
在懷	-11.8304
昔來	-11.8305
難曉	-11.8305
一心聽	-11.8305
應從	-11.8306
沸	-11.8307
從初至	-11.8307
勝人	-11.8307
稱為妙	-11.8308
二周	-11.8309
嫁	-11.8311
此顯	-11.8312
三悉檀	-11.8314
。』」	-11.8314
俗人	-11.8314
已生	-11.8315
淨六根	-11.8317
不可改	-11.8317
結名	-11.8317
著我	-11.8318
檀度	-11.8319
預流	-11.832
大乘經典	-11.8322
第八地	-11.8322
六種法師	-11.8323
寧不	-11.8324
不傳	-11.8326
不害	-11.8329
三周說法	-11.8329
智觀	-11.833
具出	-11.833
七句	-11.8331
果縛	-11.8331
顯實也	-11.8334
重也	-11.8334
尊貴	-11.8335
七月	-11.8336
義便故	-11.8337
不善法	-11.8341
」【△	-11.8341
初地巳上	-11.8342
於後世	-11.8343
終是	-11.8346
得值	-11.8348
)○	-11.8351
其根	-11.8352
多明	-11.8352
是有法	-11.8354
施於	-11.8354
未具	-11.8356
體德	-11.8359
初地菩薩	-11.836
若成	-11.836
自來	-11.8362
歸真	-11.8362
是名菩薩	-11.8362
皆已	-11.8363
又經云	-11.8364
於王	-11.8364
以求佛道	-11.8365
體遍	-11.8366
信根	-11.8366
作諸	-11.8368
那律	-11.8368
計常	-11.837
彼以	-11.837
煩惱道	-11.8374
隨念	-11.8374
既見	-11.8375
大精進	-11.8375
此塔	-11.8375
演義	-11.8376
論開	-11.838
得罪	-11.838
四枯	-11.8381
堅執	-11.8381
脩道	-11.8382
萬二千人	-11.8383
諸法本	-11.8383
涅槃城	-11.8384
明鏡	-11.8384
即三諦	-11.8387
疑除	-11.8387
今當說	-11.8389
皆妙	-11.839
不怖	-11.839
山河	-11.839
互發	-11.839
天鼓	-11.8391
今日世尊	-11.8392
是則名為	-11.8392
草庵	-11.8393
無想天	-11.8394
練根	-11.8394
安禪	-11.8397
失本心	-11.8398
八法	-11.8398
於後惡世	-11.84
憍恣	-11.8402
得幾所福	-11.8402
攝取事門	-11.8403
十七名	-11.8403
互相推排	-11.8403
意道	-11.8403
前以	-11.8404
濤	-11.8405
中亦二	-11.8405
不滿	-11.8405
威猛	-11.8407
燒臂	-11.8407
殞	-11.8408
功德智慧	-11.841
捷疾	-11.841
行如來事	-11.8411
之由也	-11.8413
薄拘羅	-11.8413
常隨	-11.8414
一心觀佛	-11.8414
污穢	-11.8415
毗舍闍	-11.8415
波羅夷	-11.8416
疆	-11.8417
上位	-11.8417
話	-11.8417
檀那	-11.8417
下忍	-11.8418
賓主	-11.8418
現種種	-11.8419
解脫相	-11.842
為語	-11.842
牒經	-11.8421
維摩經	-11.8421
可喻	-11.8424
六明	-11.8424
梯	-11.8424
赦	-11.8425
傳教	-11.8426
若異	-11.8429
勿令	-11.843
蝮	-11.8432
復宗	-11.8433
隴	-11.8433
故大論云	-11.8433
獲大	-11.8433
色究竟天	-11.8434
證智	-11.8434
第三周	-11.8435
中皆有	-11.8435
具含	-11.8435
不逮	-11.8435
菩薩修行	-11.8436
踏	-11.8436
六度行	-11.8437
以種種因緣	-11.8439
此用	-11.844
大品經云	-11.8443
之理也	-11.8444
勸供養	-11.8445
若滅	-11.8446
取意	-11.8447
空三昧	-11.8451
八九	-11.8451
此等皆	-11.8452
嚴身	-11.8453
唯有如來	-11.8453
降靈	-11.8454
不善心	-11.8455
根莖枝葉	-11.8455
不可分別	-11.8456
授之	-11.8456
即對	-11.8457
信順	-11.8459
佛法僧	-11.846
腎	-11.8461
餘六	-11.8462
眼所見	-11.8462
總歎	-11.8462
犯重	-11.8466
為眾生作	-11.8467
出分段	-11.847
菩提果	-11.8472
奉事	-11.8472
實諦	-11.8473
況顯	-11.8474
其處	-11.8475
昭然	-11.8476
為長	-11.8476
實智也	-11.8478
付業	-11.8479
豈知	-11.848
今且從	-11.8483
第六卷	-11.8483
憂喜	-11.8483
自疑	-11.8484
取果	-11.8487
真如實相	-11.8487
今據	-11.8491
淨者	-11.8492
此中意	-11.8493
因果也	-11.8493
以消	-11.8495
其名曰	-11.8495
中乘	-11.8495
苦報	-11.8497
卷第六	-11.8498
何在	-11.8498
捨受	-11.8499
淺近	-11.85
汝見	-11.85
淨身	-11.8501
後際	-11.8501
無相行	-11.8505
陰魔	-11.8505
坐時	-11.8506
融即	-11.8508
治法	-11.8509
根性不同	-11.851
說華嚴	-11.851
佛命	-11.851
十如是	-11.851
不減	-11.8511
下八句	-11.8511
覺支	-11.8512
待對	-11.8512
現在世	-11.8513
他土六瑞	-11.8515
王臣	-11.8516
遠聞	-11.8517
立宗	-11.8517
琉璃為地	-11.8518
於身中現	-11.8521
解無上士調御丈夫天人師佛世尊	-11.8521
相扶	-11.8522
帝王	-11.8522
示迹	-11.8522
而往	-11.8522
巳成佛	-11.8522
驚駭	-11.8524
多所饒益	-11.8525
但列	-11.8529
所共	-11.853
非三非一	-11.853
阿練若	-11.853
忽見	-11.8531
三結成	-11.8531
演大法義	-11.8531
佐	-11.8533
瞬	-11.8533
大富長者	-11.8534
接之	-11.8535
他解	-11.8536
之時也	-11.8537
十法成乘	-11.8537
共行	-11.8537
非色非心	-11.8538
至梵天	-11.8539
大智度論	-11.8539
一法界	-11.8539
五十年	-11.854
徧十方	-11.8541
一生補處	-11.8541
摩醯首羅	-11.8542
清凉	-11.8543
釋氏	-11.8544
見十方佛	-11.8545
善說法	-11.8545
換	-11.8545
人尊	-11.8545
之道也	-11.8545
猴	-11.8545
怨嫌	-11.8545
講堂	-11.8545
我子	-11.8546
率爾	-11.8548
世音	-11.8549
無遮	-11.8549
鷹	-11.8549
仍存	-11.855
不可數	-11.8553
此是苦	-11.8553
全用	-11.8553
普潤	-11.8554
吉凶	-11.8554
妖	-11.8554
業煩惱	-11.8555
挺	-11.8555
確	-11.8556
未曾聞	-11.8556
此是第二	-11.8556
付法藏	-11.8557
癰	-11.8558
便起	-11.8559
輕安	-11.856
六方	-11.856
自知作佛	-11.8562
以智方便	-11.8562
般若解脫	-11.8562
他受用身	-11.8563
何容	-11.8563
三喜	-11.8564
我等亦如是	-11.8565
此所謂	-11.8566
證菩提	-11.8566
初法說	-11.8566
十由旬	-11.8567
彼法	-11.8567
真如隨緣	-11.8567
般若是	-11.8569
無量無數	-11.857
穢惡	-11.857
離生死	-11.8573
趣入	-11.8573
是比丘	-11.8578
濁世	-11.8578
放光照	-11.8579
義趣	-11.8579
不簡	-11.858
從假入空觀	-11.858
地獄中	-11.8584
現神變	-11.8584
能遮	-11.8585
得道果	-11.8585
光音	-11.8585
。】「△	-11.8586
方便品云	-11.8587
斷證	-11.8588
求涅槃	-11.859
若然者	-11.859
雖廣	-11.859
滅受想	-11.8591
初一行頌	-11.8592
永失	-11.8594
三根人	-11.8595
未來世中	-11.8596
稱歎方便	-11.8597
煗法	-11.8599
第二周	-11.8599
初成道	-11.86
約三法	-11.86
現文	-11.86
見火	-11.8601
未破	-11.8602
戒禁	-11.8605
寧可	-11.8605
狹劣	-11.8607
與珠	-11.8608
正等	-11.8611
釋其義	-11.8611
摩尼寶	-11.8611
數中	-11.8612
各開	-11.8612
塵垢	-11.8614
學大乘	-11.8615
之辭也	-11.8616
敵對	-11.8616
經無量劫	-11.8617
即擬	-11.8618
果乘	-11.8619
尊勝	-11.8619
相無相	-11.8621
增一云	-11.8622
柰	-11.8625
億百千姟	-11.8629
離惡	-11.863
佛陀	-11.863
先略	-11.8631
證相	-11.8632
故假	-11.8632
九法	-11.8633
水草	-11.8633
生死煩惱	-11.8633
既許	-11.8635
眾生迷	-11.8638
初釋名	-11.8638
今有	-11.8639
轉於法輪	-11.864
稍異	-11.8641
藏通別圓	-11.8642
四諦下	-11.8643
聖智	-11.8644
念力	-11.8644
破僧	-11.8646
依空	-11.8647
其位	-11.8647
來處	-11.8647
大乘因	-11.8647
是法皆為一佛乘故	-11.8648
大異	-11.8648
等賜大車譬	-11.8648
以道受樂	-11.8649
即實而權	-11.865
見子便識	-11.8651
高會	-11.8651
天雨四華	-11.8651
歎法希有	-11.8651
立觀	-11.8651
法亦如是	-11.8651
所將人眾	-11.8653
。』「	-11.8653
了此	-11.8653
今疏	-11.8654
五重玄義	-11.8654
如幻如化	-11.8654
終教	-11.8655
阿閦	-11.8655
見分	-11.8656
領家業	-11.8656
安詳	-11.8656
付囑有在	-11.8657
來至法華	-11.8657
常法	-11.8657
無二亦無三	-11.8659
八十億	-11.866
常教化	-11.8661
毘尼	-11.8661
應爾	-11.8661
於世尊前	-11.8662
三類	-11.8662
山海	-11.8665
有愛	-11.8665
婆沙中	-11.8665
楯	-11.8665
梁棟	-11.8667
坎	-11.8667
▁初出	-11.8668
巳聞	-11.8669
閑居	-11.8669
婦女	-11.867
次偈	-11.8671
十五心	-11.8671
摩尼珠	-11.8671
於欲界	-11.8672
亡泯	-11.8673
頴	-11.8673
香風	-11.8676
餘有	-11.8676
一歲	-11.8677
別教教道	-11.8677
禽	-11.8677
之咎	-11.8677
來往	-11.8677
一道清淨	-11.8677
十三句	-11.8677
不堪受	-11.8679
教文	-11.868
轂	-11.8681
是善男子善女人	-11.8681
大家	-11.8681
同二乘	-11.8682
頌上長行	-11.8682
香味	-11.8682
簡擇	-11.8682
隔歷	-11.8684
了悟	-11.8686
逗會	-11.8687
恐畏	-11.8688
略耳	-11.8689
人福	-11.8691
為鈍根	-11.8692
愚者	-11.8692
故不名	-11.8693
廣讚	-11.8694
有病	-11.8694
不逾	-11.8695
薄德	-11.8696
覆相	-11.8696
不毀	-11.8699
不計	-11.8699
是皆	-11.8699
善識	-11.8699
八音	-11.87
無煩	-11.87
密教	-11.8702
況此	-11.8703
何故言	-11.8704
二初示	-11.8704
有大小	-11.8704
迷事	-11.8705
口出	-11.8705
簡之	-11.8706
賴耶	-11.8707
身光	-11.8707
淨不淨	-11.8709
本智	-11.871
如向所	-11.8711
第三釋	-11.8711
八念	-11.8714
當文	-11.8714
那提	-11.8715
古德云	-11.8715
傳授	-11.8715
通三乘	-11.8716
先得	-11.8716
因乘	-11.8717
為眾說法	-11.872
舊譯	-11.8723
視之	-11.8723
識種	-11.8728
罪重	-11.8729
之貌	-11.8729
持業釋	-11.873
勸門	-11.873
三不退	-11.8731
使知	-11.8732
四分律	-11.8732
與今佛	-11.8732
化他權實	-11.8732
秘妙	-11.8734
亦不相違	-11.8735
巳利	-11.8735
無量壽佛	-11.8736
其有眾生	-11.8737
非先	-11.874
我已	-11.874
第七記	-11.8741
之父	-11.8743
四華	-11.8744
持說	-11.8744
大勢至	-11.8744
二萬億佛	-11.8746
上半	-11.8746
約六即	-11.8748
故為一	-11.8749
化二乘	-11.875
流傳	-11.8751
索三	-11.8751
應佛	-11.8754
難處	-11.8754
曾不	-11.8754
神通妙	-11.8756
故借	-11.8756
更重	-11.8759
即三德	-11.876
期心	-11.876
▁初總明	-11.8763
行理	-11.8764
適意	-11.8764
以致	-11.8765
餘事	-11.8767
乃名為	-11.8768
意取	-11.877
之末	-11.8773
在外	-11.8774
持犯	-11.8774
統攝	-11.8774
如是力	-11.8774
初述	-11.8774
唯然世尊	-11.8775
當須	-11.8776
於三七日中	-11.8778
亦得名為	-11.8779
千子	-11.8779
廢權立實	-11.878
驗之	-11.8781
當為說	-11.8781
老病死	-11.8781
阿若憍陳如	-11.8781
能用	-11.8781
從體起用	-11.8782
全云	-11.8783
根有利鈍	-11.8783
淤泥	-11.8783
勸進	-11.8784
三藐三菩提	-11.8784
諸龍	-11.8784
悲華	-11.8784
要當	-11.8784
月十五日	-11.8785
是法不可示	-11.8786
涌出品	-11.8787
即是假	-11.879
諸天人民	-11.8791
閑靜	-11.8791
五千退席	-11.8792
卷舒	-11.8792
約三諦	-11.8792
生苦	-11.8793
棃	-11.8793
百川	-11.8794
抽	-11.8794
諂曲	-11.8795
如輔行	-11.8796
糟	-11.8796
瀉	-11.8796
藪	-11.8797
起大悲	-11.8797
先師	-11.8797
求解脫	-11.8798
讚法	-11.8798
對昔	-11.8798
處非處	-11.8798
智慧莊嚴	-11.8799
攘	-11.8799
能到	-11.88
宿緣	-11.88
諒	-11.88
佛昔	-11.8801
更起	-11.8801
此科	-11.8802
一雙也	-11.8802
流水	-11.8802
終於	-11.8803
具法	-11.8803
不宜	-11.8803
一定	-11.8804
上乘	-11.8804
矧	-11.8804
事本	-11.8804
膺	-11.8805
兩臂	-11.8805
惑智	-11.8805
甚麼	-11.8807
斧	-11.8807
欄	-11.8808
起塔供養	-11.8812
十三行	-11.8813
有感	-11.8813
正歎	-11.8816
何則	-11.8817
緇	-11.882
衣鉢	-11.8821
下約教	-11.8822
新學	-11.8822
深厚	-11.8822
徧攝	-11.8823
向佛	-11.8825
正欲	-11.8825
所請	-11.8826
此一偈	-11.8827
伊字	-11.8827
性常	-11.8828
竝是	-11.8829
遭難	-11.8829
辨訛曰	-11.8831
稱我	-11.8831
互攝	-11.8833
觀真	-11.8833
未究竟	-11.8834
真諦理	-11.8834
大慈心	-11.8835
則別	-11.8835
尚不可得	-11.8835
自在力	-11.8835
不肖	-11.8836
質礙	-11.8836
相符	-11.8837
法護	-11.8838
邪僻	-11.8838
色中	-11.8839
精進力	-11.884
肉身	-11.884
隔別	-11.884
成滿	-11.8841
速成	-11.8841
得此意	-11.8841
不男	-11.8841
以助	-11.8842
下為人	-11.8842
今舉	-11.8843
在何處	-11.8844
同異者	-11.8844
境發	-11.8845
怨親	-11.8845
宜以	-11.8846
開前	-11.8846
於惡世	-11.8847
我無我	-11.8849
教化成就	-11.8852
本欲	-11.8852
初會	-11.8852
出世法	-11.8853
西國	-11.8854
無論	-11.8855
破障	-11.8856
大因	-11.8858
授手	-11.8858
如來應供正徧知明行足善逝世間	-11.886
此蓋	-11.886
無漏慧	-11.886
冥應	-11.886
下種	-11.8861
空無所有	-11.8863
無時不	-11.8863
上草	-11.8864
約教釋	-11.8865
密表	-11.8865
入胎	-11.8866
共論	-11.8866
無涯	-11.887
精持	-11.8871
妄謂	-11.8871
於道場	-11.8873
圓寂	-11.8877
出世本懷	-11.8878
十八不共	-11.8878
佛眼觀	-11.8879
法念處	-11.888
絕妙	-11.8882
一切有為	-11.8884
明開顯	-11.8884
奉上	-11.8887
無不盡	-11.8887
勤作	-11.8888
入初禪	-11.8891
之路	-11.8891
以況	-11.8891
性戒	-11.8892
執迹	-11.8892
後問答	-11.8892
生報	-11.8894
照理	-11.8895
頓證	-11.8896
無嗔	-11.8896
殊特	-11.8896
力無畏等	-11.8896
水難	-11.8897
無量劫來	-11.8899
張本	-11.8899
二頌半	-11.89
釋迦章	-11.89
開方便門示真實相	-11.8901
同類因	-11.8903
總名為	-11.8904
抹	-11.8904
頭上	-11.8905
清信士	-11.8906
既破	-11.8907
同生	-11.8907
第一義中	-11.8908
佛所說法	-11.8908
歷法	-11.8909
玩	-11.891
罣	-11.8912
不須復說	-11.8912
普遍	-11.8912
涅槃樂	-11.8912
盈縮	-11.8912
阿羅漢果	-11.8912
莊校	-11.8913
可發	-11.8914
有權有實	-11.8915
緯	-11.8915
寶渚	-11.8916
從實施權	-11.8916
汝可	-11.8916
妙寶	-11.8917
擊鼓	-11.8918
艸木	-11.8919
數人	-11.892
侍衛	-11.892
不堅	-11.892
及眷屬	-11.8921
兩楹	-11.8921
雨法雨	-11.8922
現大	-11.8922
豈止	-11.8922
揣	-11.8922
巳滿	-11.8922
磬	-11.8923
圓應	-11.8924
文是也	-11.8924
若有女人	-11.8925
應頌	-11.8925
流浪	-11.8926
開三乘	-11.8927
如是報	-11.8927
四十一	-11.8927
病苦	-11.8928
無差而差	-11.8928
金翅鳥	-11.8928
剪	-11.8929
衣覆	-11.8929
託胎	-11.8929
非擇滅	-11.893
脇	-11.893
法堂	-11.8931
所不能及	-11.8931
膩	-11.8931
說無上道	-11.8931
法身常住	-11.8933
口索	-11.8936
思盡	-11.8936
汗	-11.8939
偏用	-11.8939
析空	-11.894
翹	-11.894
次一行半	-11.894
材	-11.8941
嵩	-11.8942
鑄	-11.8942
門側	-11.8942
只云	-11.8943
東南方	-11.8945
一切凡夫	-11.8947
憶持	-11.8948
讀經	-11.8948
淨佛土	-11.8948
此一節	-11.8949
山城	-11.8949
對法論	-11.895
堅滿	-11.8951
因之	-11.8951
先於	-11.8951
疑者云	-11.8952
染汙	-11.8954
稱觀世音	-11.8954
一國	-11.8954
中分二	-11.8956
五十由旬	-11.8957
取信	-11.8958
人非人	-11.8959
何失	-11.8959
而不信	-11.896
曾於	-11.8962
日輪	-11.8963
於頓	-11.8964
俱泯	-11.8964
約修	-11.8965
若有下	-11.8965
何教	-11.8966
通有	-11.8966
致敬	-11.8967
若干種	-11.8967
無處所	-11.8967
實境	-11.8967
高大	-11.8967
小化	-11.8968
畢竟清淨	-11.8968
中央	-11.8969
遠來	-11.897
引彼	-11.8971
阿那律	-11.8971
佛在世時	-11.8973
從昔	-11.8975
就理	-11.8976
下次明	-11.8977
用小	-11.8977
之中有	-11.8977
真諦三藏	-11.8978
頌上合	-11.8978
此之四	-11.8978
色聲	-11.8982
行事	-11.8983
繫心	-11.8984
昔緣	-11.8984
往事	-11.8984
勝因	-11.8986
所記	-11.8987
通觀	-11.8989
不俱	-11.8989
即大涅槃	-11.899
勿得	-11.8991
身力	-11.8992
名常不輕	-11.8994
唯論	-11.8996
轉深	-11.8996
乃於	-11.8997
十小劫	-11.8997
科云	-11.8997
弘道	-11.9
科釋	-11.9002
是故云	-11.9002
中自有二	-11.9003
天神	-11.9006
依熏	-11.9009
志求佛道	-11.901
廣利	-11.901
五百萬億	-11.9015
俱盡	-11.9017
不收	-11.9017
今示	-11.9018
牽生	-11.9018
歷教	-11.9018
佛在世	-11.9023
敬佛	-11.9024
五常	-11.9025
修中觀	-11.9026
祭祀	-11.903
將非	-11.903
在定	-11.9031
廣則	-11.9032
不貪	-11.9034
福報	-11.9034
後生善處	-11.9034
坐於	-11.9035
明靜	-11.9036
今亦如是	-11.9037
本無生	-11.9038
亦不見	-11.9039
純一無雜	-11.904
退大取小	-11.9041
二初合	-11.9041
須曼那	-11.9041
所食	-11.9041
兩觀	-11.9042
三千大千國土	-11.9042
下第一義	-11.9042
唯佛與佛乃能究盡	-11.9043
此下是	-11.9043
橫計	-11.9043
即是無明	-11.9044
益相	-11.9044
五見	-11.9044
自覺覺他	-11.9045
大誓願	-11.9045
未曉	-11.9045
能使	-11.9045
緣緣	-11.9045
饍	-11.9047
法式	-11.9048
遙見其父	-11.9048
持經功德	-11.9049
禪定智慧	-11.9049
意在於	-11.9049
枯榮	-11.9049
涅槃道	-11.9051
亦未為難	-11.9051
爾時世尊欲重宣此義	-11.9051
隨自意語	-11.9052
濕土	-11.9052
胡跪	-11.9053
矛	-11.9054
常照	-11.9056
賖	-11.9056
梓	-11.9056
略開三顯一	-11.9057
虗空中	-11.9057
次第三觀	-11.9059
世間法	-11.9059
無上義	-11.906
為三百	-11.906
階級	-11.9061
虎狼	-11.9062
命終之後	-11.9062
惑障	-11.9063
即得解脫	-11.9064
淨居天	-11.9065
億劫	-11.9066
威勢	-11.9066
普現色身三昧	-11.9067
龜茲	-11.9067
字函	-11.9068
員	-11.9068
傳寫	-11.9069
違理	-11.907
婢	-11.9071
不自在	-11.9071
一偈半	-11.9072
提婆達多品	-11.9073
筏	-11.9073
西域記云	-11.9074
佛道長遠	-11.9077
緣熟	-11.9077
劫燒	-11.9081
百姓	-11.9083
還源	-11.9084
勸流通	-11.9084
有何不可	-11.9086
而般涅槃	-11.9086
現形	-11.9088
九道	-11.9088
受記作佛	-11.9088
拂迹	-11.9089
僧眾	-11.9089
因緣所生	-11.909
下對治	-11.909
入門	-11.909
墮惡	-11.909
理極	-11.9091
界內界外	-11.9091
蒙益	-11.9092
自性清淨	-11.9092
大河	-11.9094
問經云	-11.9095
歎實智	-11.9095
一說	-11.9095
地種	-11.9095
受食	-11.9097
不損	-11.9097
▁二如是下	-11.9097
分判	-11.9098
譬如長者	-11.9098
初通明	-11.9098
前之二	-11.91
首楞嚴定	-11.9101
連持	-11.9101
名為覺	-11.9102
而起大悲	-11.9106
八聖道	-11.9106
帖釋	-11.9106
人空	-11.9107
見不空	-11.9108
有一人	-11.9108
何其	-11.9111
禪度	-11.9113
諸侯	-11.9115
土淨	-11.9116
種種行	-11.9119
利益一切	-11.912
常存	-11.912
若信	-11.9121
既殊	-11.9121
今曰	-11.9122
義例云	-11.9122
不二故	-11.9124
欲想	-11.9126
東晉	-11.9128
薩婆	-11.9128
月天子	-11.9129
通號	-11.9129
亦如前	-11.9132
修相	-11.9132
欲度	-11.9132
動轉	-11.9136
開皇	-11.9138
善說	-11.9142
依因	-11.9145
云何如來	-11.9147
非他	-11.9149
汝舍利弗	-11.9149
遠矣	-11.9151
下半	-11.9152
無虧	-11.9153
各於	-11.9153
事識	-11.9153
轉邪	-11.9154
通四教	-11.9154
餘品	-11.9154
世界中	-11.9156
前四句	-11.9156
權智也	-11.9157
無學人	-11.9157
之本也	-11.9159
吾佛	-11.9159
大阿羅漢	-11.9161
簡別	-11.9161
梵福	-11.9161
極惡	-11.9165
之根本	-11.9165
度諸眾生	-11.9168
得禪	-11.9169
於法性	-11.917
審諦	-11.917
如來滅度	-11.917
標釋結	-11.9171
其智慧門難解難入	-11.9172
六譬	-11.9172
廣記	-11.9175
遣化人	-11.9176
陁	-11.9176
一日之價	-11.9177
如是之人乃可為說	-11.9178
帀	-11.9179
百佛世界	-11.9179
競共馳走	-11.9179
庫司	-11.918
驚入火宅	-11.918
庵	-11.918
不多不少	-11.9181
皆是如來	-11.9181
悲愍	-11.9181
地居	-11.9183
一四句偈	-11.9184
責其	-11.9184
餘方	-11.9184
不應言	-11.9185
先權後實	-11.9185
或取	-11.9186
不見佛性	-11.9187
即是菩提	-11.9188
嚮	-11.9192
今釋迦	-11.9194
令汝	-11.9194
酬因	-11.9195
愛欲	-11.9196
一年	-11.9197
敗壞	-11.9197
必在	-11.9197
橋	-11.9198
辨相	-11.9198
剛強	-11.9199
今實	-11.92
因滅	-11.92
當知下結	-11.9203
若通論	-11.9204
又三初	-11.9204
開麤	-11.9205
餓	-11.9205
有四意	-11.9205
所從來	-11.9206
善本	-11.9206
告諸	-11.9206
下重釋	-11.9207
遏	-11.9209
如實知見	-11.9209
處胎	-11.9211
鵲	-11.9211
醯	-11.9212
大成云	-11.9212
罪滅	-11.9213
俱發	-11.9214
巳是	-11.9214
興供	-11.9215
寶帳	-11.9218
引大品	-11.922
在於此	-11.922
行向	-11.9221
種種功德	-11.9222
啟請	-11.9224
佛滅度	-11.9225
臭穢	-11.9225
手指	-11.9226
首題	-11.9226
諸緣	-11.9227
佛像	-11.9228
雖各	-11.9228
說大乘法	-11.9231
為說大乘	-11.9231
不難	-11.9231
此因	-11.9232
小乘三藏	-11.9233
赤白	-11.9234
開遮	-11.9236
信毀	-11.9236
於此經中	-11.9238
次一句	-11.9238
樹木	-11.9239
即報身	-11.9243
惡因	-11.9243
明月	-11.9243
是沙門瞿曇	-11.9244
於此土	-11.9245
十四品	-11.9246
非假	-11.9247
皆成佛	-11.9248
告曰	-11.9249
身子領解	-11.925
重顯	-11.9251
降神	-11.9251
補頌	-11.9251
弘始	-11.9252
專在	-11.9252
大涅槃經	-11.9255
譯者	-11.9257
謗毀	-11.9257
復云何	-11.9261
智慧門	-11.9262
初文云	-11.9262
阿含經	-11.9263
一切色身	-11.9263
一切善法	-11.9266
▁初以	-11.9266
趣舉	-11.9267
自度	-11.9267
如之何	-11.9267
用對	-11.9267
只在	-11.9267
金山	-11.9267
俱失	-11.9268
普賢品	-11.927
果證	-11.927
王家	-11.9271
相繼	-11.9272
亦常	-11.9273
第一句	-11.9275
化土	-11.9275
之行也	-11.9276
諸天眾	-11.9277
鈍根菩薩	-11.9279
今何故	-11.9279
差別不同	-11.9281
心數法	-11.9282
亦不成	-11.9283
寶臺	-11.9283
見他	-11.9284
如如智	-11.9284
正同	-11.9285
各十	-11.9286
舊醫	-11.9288
圓道	-11.9289
日月燈	-11.9289
護世	-11.929
乃至等覺	-11.9292
父子相失	-11.9293
七喻	-11.9296
天下之	-11.9297
不二也	-11.9299
一旦	-11.9301
究竟皆得一切種智	-11.9303
違經	-11.9306
欲引	-11.9307
十力四無所畏	-11.9307
若自書	-11.9307
)。」【○	-11.9308
手摩	-11.9308
即權而實	-11.9309
告諸大眾	-11.931
受諸苦惱	-11.9311
優波提舍	-11.9312
佛種從緣起	-11.9312
善事	-11.9312
六住	-11.9313
憍曇彌	-11.9313
佛未出	-11.9313
經王	-11.9313
無明緣行	-11.9313
不二門云	-11.9314
恡	-11.9315
兩存	-11.9315
判云	-11.9315
八十八	-11.9316
出廣長舌	-11.9316
不可說不可說	-11.9316
利眾生	-11.9316
今正是時	-11.9317
文廣	-11.9318
三頌合	-11.9319
過去益物	-11.932
房舍	-11.9321
觀外色	-11.9321
香水海	-11.9322
懈退	-11.9324
三明六通	-11.9324
塊	-11.9325
群機	-11.9325
過罪	-11.9327
非想非非想	-11.9328
傭作	-11.9328
有斯	-11.9329
裹	-11.9329
憂愁	-11.933
鱗	-11.9332
群臣	-11.9333
輟	-11.9333
㲉	-11.9334
矯	-11.9335
法身慧命	-11.9335
名見如來	-11.9336
棟	-11.9337
俄	-11.9337
畢竟空寂	-11.9337
密語	-11.9339
玅境	-11.934
戌	-11.934
如蓮華	-11.9341
冶	-11.9342
無所知	-11.9344
書之	-11.9346
如來法身	-11.9346
所餘	-11.9346
果智	-11.9347
一切智慧	-11.9348
發禪	-11.9348
三諦之理	-11.9349
遍覆	-11.935
授以	-11.9351
酉	-11.9351
乳教	-11.9354
有一比丘	-11.9355
是法住法位	-11.9356
五百歲	-11.9356
遠由	-11.9356
三卷	-11.9357
又舍利弗	-11.9357
對當	-11.9357
眾病	-11.9358
權乘	-11.9359
有六種	-11.936
立稱	-11.936
力弱	-11.9361
與諸佛	-11.9362
直入	-11.9365
時釋迦牟尼佛	-11.9365
智慧明了	-11.9366
安國云	-11.9368
今且依	-11.9368
疑情	-11.937
光瑞	-11.937
真淨	-11.9371
心印	-11.9371
入山	-11.9372
化現	-11.9375
一德	-11.9375
冥伏	-11.9377
短長	-11.9377
其語	-11.9379
為火	-11.9379
結請	-11.938
讀之	-11.9381
備矣	-11.9382
圓意	-11.9383
卵生	-11.9383
問何以	-11.9386
發業	-11.9387
蔑	-11.9387
出纏	-11.9389
非佛性	-11.939
一一句	-11.9391
鬼難	-11.9395
不安隱	-11.9395
其光	-11.9396
親聞	-11.9398
何文	-11.9398
無福	-11.9399
學問	-11.9399
昔未	-11.94
與昔	-11.9403
定境	-11.9403
智積菩薩	-11.9404
得大神通	-11.9404
經稱	-11.9406
以此法	-11.9407
實益	-11.9407
隨教	-11.9408
陰心	-11.9409
利益妙	-11.9411
為一大事因緣	-11.9411
所樂	-11.9412
分布	-11.9414
梨耶	-11.9415
慈恩云	-11.9415
癡愛	-11.9416
如是說	-11.9416
胎經	-11.9417
無師	-11.9419
行布施	-11.9419
後宮	-11.9419
但除	-11.9423
妙覺位	-11.9427
靈智	-11.9428
雖少	-11.9428
住劫	-11.9435
教誨	-11.9436
决	-11.9438
若人遭苦	-11.9438
順修	-11.9439
為便	-11.944
須待	-11.9441
相須	-11.9441
三藐三佛陀	-11.9441
甚矣	-11.9441
尋念	-11.9443
頞鞞	-11.9446
造塔	-11.9446
出大音聲	-11.9447
析體	-11.9448
之器	-11.9448
來聽法	-11.9449
體內	-11.9451
真是佛子	-11.9451
富單那	-11.9451
本無今有	-11.9452
以要言之	-11.9452
阿闍世	-11.9453
會稽	-11.9453
一地所生	-11.9453
穩	-11.9453
巳除	-11.9454
色聲香味觸	-11.9454
六根互用	-11.9454
虛空中	-11.9454
聚落城邑	-11.9455
如此則	-11.9455
四部	-11.9455
至親友家	-11.9456
可軌	-11.9457
幔	-11.9457
無憂	-11.9457
日照	-11.9459
導利眾生	-11.9459
以待	-11.946
從爾時	-11.9461
略辨	-11.9461
疾病	-11.9462
阿蘭若	-11.9463
來儀	-11.9463
住不退地	-11.9465
誅	-11.9466
所弘	-11.9466
但彼	-11.9467
大益	-11.9468
更復	-11.9469
搏	-11.9469
即真如	-11.947
九十一劫	-11.947
秘要	-11.9471
仞	-11.9471
蜂	-11.9471
對眾	-11.9471
滓	-11.9472
▁二正明	-11.9472
卷第七	-11.9474
猿	-11.9475
十二分教	-11.9476
風災	-11.9476
債	-11.9476
厨	-11.9477
近事	-11.9478
翰	-11.9478
妙應	-11.9479
雖似	-11.948
愛憎	-11.9481
即是涅槃	-11.9483
授受	-11.9485
五下分	-11.9485
信知	-11.9485
亦無量	-11.9486
武帝	-11.9489
放光明	-11.949
原夫	-11.9491
燈明佛	-11.9492
▁初牒	-11.9494
周公	-11.9497
故名如來	-11.9497
立意	-11.9498
眾魔	-11.9499
易信	-11.9499
為說三乘	-11.95
雙遮	-11.9501
歷一切法	-11.9501
宅主	-11.9503
第一義天	-11.9504
欲說是經	-11.9504
讚美	-11.9504
正法念經	-11.9507
清白	-11.951
損害	-11.9511
第十一	-11.9513
依正色心	-11.9515
巳熟	-11.9516
為人演說	-11.9521
唯然	-11.9522
怕	-11.9522
慧俱	-11.9531
其辭	-11.9533
佛初成道	-11.9534
三即一	-11.9535
及一切法	-11.9536
無損	-11.9536
誠言	-11.9536
萬像	-11.9536
重宣	-11.9538
佛邊	-11.9538
從因緣生	-11.954
使得	-11.9541
四諦理	-11.9541
太過	-11.9542
述昔	-11.9547
出於世	-11.9548
巧慧	-11.9548
八風	-11.9552
所滅	-11.9552
來去	-11.9555
易得	-11.9555
理善	-11.9556
所歸趣	-11.9557
下引例	-11.9559
宜聞	-11.956
千法	-11.9561
徧覆	-11.9561
隨宜說	-11.9561
籤文	-11.9563
柱根	-11.9563
唯佛能	-11.9564
三千實相	-11.9564
發無漏	-11.9565
意在於此	-11.9565
等流	-11.9568
尊極	-11.9571
得須陀洹	-11.9573
流動	-11.9575
揀境	-11.9576
發趣	-11.9577
自敘	-11.9577
覆護	-11.9577
一目	-11.9579
現在未來	-11.9579
識藥	-11.9579
大科	-11.958
阿羅訶	-11.9581
長遠壽量	-11.9581
三界外	-11.9585
志念堅固	-11.9585
當成佛	-11.9585
眾寶莊校	-11.9587
轉四諦法輪	-11.9587
騃	-11.9587
還本土	-11.9588
佛界十如	-11.9588
焚燒	-11.9589
諸求三乘人	-11.9589
臨欲終時	-11.959
先三後一	-11.959
委如	-11.9591
習小	-11.9591
泯然	-11.9592
亦猶	-11.9592
平等法	-11.9593
受化者	-11.9594
對治助開	-11.9594
有三句	-11.9595
柔和忍辱	-11.9595
能拔	-11.9596
佉	-11.9596
六年苦行	-11.9597
晨	-11.9597
貿	-11.9598
事異	-11.9598
紛紜	-11.9598
悉能受持	-11.9598
劫賓那	-11.9598
攝一切行	-11.9599
迴小入大	-11.9599
即不即	-11.96
有所表	-11.96
像法決疑	-11.96
閡	-11.96
鬬	-11.9601
不顧	-11.9601
受持讀誦解說書寫	-11.9602
十地論	-11.9602
頰	-11.9603
文章	-11.9604
令信	-11.9604
能遍	-11.9604
百穀	-11.9605
赴物	-11.9606
不信不解	-11.9606
實相為體	-11.9608
五十人	-11.9608
說戒	-11.9608
篋	-11.9608
證小果	-11.9609
見中道	-11.961
約四諦	-11.961
邏	-11.961
絡	-11.961
誦呪	-11.9611
之衣	-11.9612
通結	-11.9612
理必	-11.9613
魔羅	-11.9613
厲	-11.9615
心變	-11.9615
無師智	-11.9615
根莖	-11.9615
恰	-11.9616
無量義者	-11.9616
非真滅	-11.9619
寧得	-11.962
正行六度	-11.962
心具三千	-11.9621
圓斷	-11.9623
說此法	-11.9624
但標	-11.9626
要義	-11.9626
小志	-11.9626
臰	-11.9627
修三觀	-11.963
勝身	-11.9631
於夢中	-11.9632
埵	-11.9635
地前菩薩	-11.9637
下一行半	-11.9641
詳解	-11.9641
汝應	-11.9642
第二義	-11.9643
四阿含	-11.9643
今但頌	-11.9643
該攝	-11.9644
義明矣	-11.9645
勝負	-11.9647
口輪	-11.965
自乘	-11.9651
大雨	-11.9653
俱斷	-11.9654
列章	-11.9655
在欲界	-11.9656
一半	-11.9656
斷正使	-11.9656
禪悅	-11.9656
五段	-11.9657
一毛	-11.9659
尊敬	-11.9659
如恒河沙	-11.966
頌諸佛	-11.9661
動出	-11.9661
故淨名云	-11.9661
讀誦此經	-11.9661
長行竟	-11.9663
讀文	-11.9664
垢淨	-11.9664
得利益	-11.9666
令發心	-11.9666
喜心	-11.9668
上卷	-11.9668
為乘體	-11.9669
別別	-11.967
此屬	-11.9671
為四句	-11.9675
在乎	-11.9677
寶莊嚴	-11.9678
生盲	-11.9678
鉢羅	-11.9679
妄情	-11.9679
字應作	-11.9679
安國	-11.968
見釋迦	-11.968
約教道	-11.968
真實相	-11.9682
為上根	-11.9683
阿梨	-11.9686
身香	-11.9686
只由	-11.9686
善行菩薩道	-11.9688
涅槃經中	-11.9688
調伏眾生	-11.9689
文心	-11.9693
既已	-11.9694
國師	-11.9694
超果	-11.9694
圓備	-11.9695
一切大眾	-11.9696
無與等	-11.9696
事釋	-11.9698
高祖	-11.9699
字誤	-11.97
往彼	-11.9701
故不別	-11.9701
五德	-11.9701
諸眷屬	-11.9702
風俗	-11.9704
可否	-11.9704
密遣	-11.9704
須達	-11.9705
向大	-11.9707
堪聞	-11.9711
權實本迹	-11.9712
1	-11.9712
別教中	-11.9714
江河沙	-11.9715
止止不須說	-11.9716
而不見	-11.9717
硨磲碼碯	-11.9717
修攝其心	-11.9717
三昧破	-11.9721
還國	-11.9723
要當說真實	-11.9724
來至我所	-11.9724
長行與偈	-11.9724
天道	-11.9725
會理	-11.9725
阿僧祗	-11.9725
蠲除	-11.9726
鞞	-11.9726
宰官	-11.9726
通達大智	-11.9727
為尊	-11.9728
牕	-11.9728
珍玩	-11.9729
卉木叢林	-11.9729
八百弟子	-11.973
之玅	-11.9731
其數如恒沙	-11.9731
生法二身	-11.9731
還家	-11.9731
旃延	-11.9733
兵眾	-11.9733
第三從	-11.9733
我始坐道場	-11.9734
見彼土	-11.9734
復倍上數	-11.9735
何名為	-11.9735
挂	-11.9735
獎	-11.9736
捨心	-11.9736
奠	-11.9737
暉	-11.9737
聞法歡喜	-11.9738
別境	-11.9739
塵點劫	-11.974
令法久住	-11.974
兜	-11.9741
坦	-11.9742
遵式	-11.9743
非一非異	-11.9743
性德緣了	-11.9743
十萬億	-11.9745
性種性	-11.9746
之像	-11.9748
舅	-11.9749
內體	-11.9751
法華教	-11.9752
靜室	-11.9752
下正示	-11.9753
根利鈍	-11.9754
承當	-11.976
故說是經	-11.9761
八術	-11.9761
以方便力故	-11.9762
中阿含	-11.9762
能運	-11.9764
平復	-11.9765
非要	-11.9765
盲人	-11.9766
之麤	-11.9769
因門	-11.977
果體	-11.9771
起悲	-11.9774
小小	-11.9775
見寶塔品	-11.9776
十日	-11.9778
振動	-11.978
三惡趣	-11.9782
題云	-11.9783
說壽量	-11.9784
大悟	-11.9785
文句記	-11.9786
苦海	-11.9787
改元	-11.9792
約十界	-11.9792
宿種	-11.9793
開善	-11.9794
一四天下	-11.9797
末云	-11.98
甘露門	-11.98
但合	-11.9802
他心智	-11.9804
去聲呼	-11.9804
五十六	-11.9805
乃曰	-11.9805
正因性	-11.9805
水災	-11.9806
上味	-11.9806
橫廣	-11.9806
法華之前	-11.9806
佛坐道場	-11.9807
圓漸	-11.9808
破疑	-11.9811
尚不知	-11.9811
摧伏	-11.9812
聽許	-11.9814
諸處	-11.9814
義勢	-11.9815
下四行	-11.9815
引發	-11.9817
能護	-11.9818
悕	-11.9821
實相印	-11.9823
第一先明	-11.9823
或恐	-11.9826
彌勒當知	-11.9826
根本法輪	-11.9828
後還	-11.9829
破暗	-11.983
告彌勒	-11.983
若爾下	-11.9834
歡喜地	-11.9834
並須	-11.9835
絕分	-11.9836
纂者	-11.9837
分限	-11.9838
次問者	-11.9842
之車	-11.9842
會遇	-11.9844
大眾部	-11.9846
但應	-11.9847
始生	-11.9847
忽聞	-11.9847
舉果	-11.9848
之功德也	-11.9851
而論之	-11.9852
後智	-11.9853
許多	-11.9853
惟願說之	-11.9853
不遺	-11.9855
事理不二	-11.9855
5	-11.9857
真性軌	-11.9859
登住	-11.9859
增至	-11.9859
摩訶曼陀羅華	-11.986
人無我	-11.9861
得好	-11.9861
自活	-11.9862
戒法	-11.9862
得成佛道	-11.9862
不見其	-11.9863
六十五	-11.9864
世出世法	-11.9865
利根智慧	-11.9865
詶	-11.9866
亦具三	-11.9867
汝等皆當作佛	-11.9867
現大神力	-11.9868
即色是空	-11.9868
不昧	-11.9869
無去來	-11.987
者何也	-11.9871
諸病	-11.9871
荊棘	-11.9871
善學	-11.9871
常寂光土	-11.9872
以偈問曰	-11.9872
佛自證	-11.9872
出無佛世	-11.9873
婆藪	-11.9874
方便有餘土	-11.9875
當修	-11.9875
能導	-11.9876
有大威德	-11.9876
藏通二教	-11.9877
芭蕉	-11.9877
皮膚	-11.9878
聾啞	-11.9879
心不喜樂	-11.9879
以大音聲	-11.988
彼天	-11.988
住最後身	-11.9881
安隱眾生	-11.9882
典籍	-11.9882
修大行	-11.9883
贅	-11.9884
救之	-11.9884
品品	-11.9886
偃	-11.9887
淮	-11.9888
圓旨	-11.9889
沫	-11.9891
咀嚼	-11.9893
能所合	-11.9893
能安忍	-11.9893
總敘	-11.9894
浮囊	-11.9894
律云	-11.9895
人人本具	-11.9896
鋪	-11.9896
等活	-11.9896
滌	-11.9897
終竟	-11.9898
叩	-11.9898
證淨	-11.9898
本質	-11.9901
委曲	-11.9901
前八	-11.9902
約本迹	-11.9902
重請	-11.9902
他方菩薩	-11.9903
事理二觀	-11.9904
浩然	-11.9905
如鳥	-11.9906
▁四又	-11.9906
不虛妄	-11.9907
真如不變	-11.9907
詳明	-11.9908
故不可以	-11.9909
所證理	-11.991
初文三	-11.991
累劫	-11.9912
相值	-11.9914
勸聽	-11.9915
住行向	-11.9916
不相應行	-11.9916
各計	-11.9918
善根力	-11.9919
本來寂滅	-11.9919
當依	-11.9919
兩行半	-11.9921
大車譬	-11.9921
誡令	-11.9922
性染	-11.9923
體不二	-11.9924
道路	-11.9924
減劫	-11.9926
五雙	-11.9926
修發	-11.9929
童真	-11.993
斷四住	-11.993
自足	-11.9933
心生歡喜	-11.9933
餘八	-11.9934
無學果	-11.9935
當為汝說	-11.9936
隱其	-11.9936
食肉	-11.9937
兩土	-11.9938
可悉	-11.994
知根	-11.9942
獨顯	-11.9942
修梵行	-11.9943
常恒	-11.9943
火宅喻	-11.9944
還須	-11.9945
何假	-11.9946
會本	-11.9946
尋光	-11.9947
得四禪	-11.9947
逆罪	-11.9947
條然	-11.9947
此呪	-11.9948
」,《	-11.9948
對二乘	-11.995
為傍	-11.995
佛本意	-11.9954
四十年中	-11.9956
八十劫	-11.9956
內解	-11.9957
律儀戒	-11.9959
領眾	-11.9959
圓入別	-11.9961
而行之	-11.9961
居先	-11.9962
未極	-11.9963
據此則	-11.9967
無此事	-11.9968
葢由	-11.9968
文義相	-11.9968
凡師	-11.9972
此章	-11.9975
方便之力	-11.9977
準長行	-11.9978
一切語言	-11.9979
讚善	-11.9979
宅內	-11.9983
真佛	-11.9984
生支	-11.9989
便作	-11.9993
佛恩	-11.9993
示真實	-12
不苦不樂	-12.0001
勸發品	-12.0001
次正釋中	-12.0001
優波	-12.0002
百錄	-12.0003
不瞋	-12.0003
雜眾	-12.0005
正喻	-12.0006
族姓	-12.0006
性計	-12.0007
人物	-12.0008
行法行王	-12.0008
帙	-12.0009
非生非不生	-12.001
適子所願	-12.0011
注曰	-12.0011
祥邁	-12.0011
苦滅	-12.0012
初三句	-12.0013
愍眾生故	-12.0013
必藉	-12.0013
十方三世一切諸佛	-12.0014
擊大法鼓	-12.0014
不務速說	-12.0014
依圓	-12.0016
始見我身	-12.0016
如文云	-12.0017
從一法生	-12.0018
本自有之	-12.0018
行步平正	-12.0018
挍	-12.0018
約觀心	-12.0018
入禪定	-12.002
魔波旬	-12.002
一心為體	-12.0021
許可	-12.0021
妓	-12.0022
猶通	-12.0022
內秘外現	-12.0022
甘蔗	-12.0023
規矩	-12.0025
天台四教儀	-12.0026
今文意	-12.0026
大光明	-12.0027
喉	-12.0028
七種二諦	-12.0028
五體投地	-12.0028
隨喜功德品	-12.0029
放光現瑞	-12.0029
嬰	-12.003
綵	-12.0031
䇿進	-12.0031
鎻	-12.0032
七品	-12.0032
浣	-12.0033
甫	-12.0033
號令	-12.0034
萎	-12.0034
居後	-12.0034
摶	-12.0035
煩惱境	-12.0035
甚深微妙	-12.0036
樣	-12.0036
行本	-12.0038
猜	-12.0038
殿堂	-12.0039
能詮之教	-12.0039
諸大乘	-12.004
種種相貌	-12.004
體勢	-12.0041
未識	-12.0042
能執	-12.0042
受接	-12.0042
十寶山	-12.0043
右旋	-12.0044
名為佛性	-12.0045
憂悲	-12.0045
綸	-12.0045
今我亦如是	-12.0046
羨	-12.0046
苦逼	-12.0047
通攝	-12.0048
諸羅漢	-12.0048
難化	-12.0049
舜	-12.0049
字誤也	-12.0051
禪經	-12.0051
攝論云	-12.0053
蓬	-12.0055
螫	-12.0055
兩人	-12.0056
今恐	-12.0056
顏色	-12.0058
世界種	-12.006
外化	-12.0062
無不具足	-12.0063
玉女	-12.0066
第三第四	-12.0067
無二無三	-12.0067
一句頌	-12.0067
垢穢	-12.0068
形貌	-12.0068
此半行	-12.0069
乘急	-12.007
何得言	-12.007
出家人	-12.007
文中云	-12.0072
字平聲	-12.0073
十三卷	-12.0074
前之四	-12.0076
論權實	-12.0076
釋結	-12.0079
法華涅槃	-12.0079
入化城	-12.008
招感	-12.0081
思益云	-12.0081
氣分	-12.0082
剎土	-12.0082
定體	-12.0088
名雖同	-12.0088
此一品	-12.009
五濁八苦	-12.0091
金錍云	-12.0091
明日	-12.0092
令得解脫	-12.0092
亦不須	-12.0093
唯是一心	-12.0093
諸神通	-12.0094
散善	-12.0094
互論	-12.0097
周易	-12.0097
釋中先	-12.0097
七頌	-12.0098
婆沙論	-12.0098
定知	-12.0098
髻珠	-12.01
中本有二	-12.0103
諸邪見	-12.0104
收攝	-12.0106
寶相	-12.0106
正宗分	-12.0106
印度	-12.0107
破煩惱	-12.0108
見釋迦牟尼佛	-12.0108
宮中	-12.011
不共般若	-12.0111
觀行位	-12.0113
共別	-12.0113
生老死	-12.0113
一心念	-12.0114
證甚深	-12.0114
諸祖	-12.0116
略敘	-12.0117
』,	-12.0118
常情	-12.0119
不越	-12.0119
從座起	-12.0121
緩急	-12.0122
七十二	-12.0124
折攝	-12.0124
遍應	-12.0125
門內	-12.0126
是漸頓	-12.0128
自他因果	-12.013
三節	-12.013
利用	-12.0137
下二行	-12.0139
已還	-12.014
既不能	-12.014
最妙	-12.014
前列	-12.0141
比丘眾	-12.0143
幡葢	-12.0144
伏疑	-12.0144
地獄餓鬼畜生	-12.0149
頌法合	-12.015
為五百	-12.0151
徧應	-12.0152
心口	-12.0153
一十六	-12.0154
破外道	-12.0154
齊此	-12.0154
界入	-12.0155
說是偈巳	-12.0155
淨華宿王智佛	-12.0156
大地獄	-12.0156
安住實智中	-12.0157
勝利	-12.0158
彌勒佛	-12.0158
其始	-12.0159
如止觀第三記	-12.0159
悅可眾心	-12.0159
低頭舉手	-12.0161
觧脫	-12.0161
庠序	-12.0163
微密	-12.0164
焦炷	-12.0164
古釋	-12.0164
所以爾者	-12.0165
十條	-12.0166
給侍	-12.0167
大長者	-12.0168
有大力	-12.0168
為火所燒	-12.0169
安置丹枕	-12.017
諸樹	-12.017
其家廣大	-12.0171
箜篌	-12.0171
唐言	-12.0172
觀世音者	-12.0172
當為宣說	-12.0173
定不定	-12.0174
尼乾	-12.0174
稼	-12.0175
幽谷	-12.0176
俱胝	-12.0176
諍訟	-12.0177
迷悶	-12.0177
意在此也	-12.0178
善入佛慧	-12.0178
阿鼻獄	-12.0179
權智照	-12.018
寂默	-12.018
能通達	-12.018
澆	-12.018
定散	-12.0181
疑難	-12.0181
槌	-12.0182
獨自	-12.0182
姊	-12.0182
貢	-12.0182
略之	-12.0183
陀羅尼呪	-12.0183
脊	-12.0183
令生信	-12.0183
隘	-12.0183
迅	-12.0185
賜與	-12.0185
我法二執	-12.0186
瑜伽云	-12.0187
初章	-12.0188
握	-12.019
出無量	-12.0191
大力菩薩言	-12.0191
突	-12.0192
義當於	-12.0193
尊卑	-12.0195
能摧	-12.0195
八萬諸天	-12.0196
有何差別	-12.0198
阿修羅王	-12.0198
第七地	-12.0201
皆具足	-12.0202
助顯第一義	-12.0202
聞我所說	-12.0204
何嘗	-12.0204
觀一切法空	-12.0206
將何以	-12.0207
何得云	-12.0207
下中上	-12.0208
僧堂	-12.021
深義	-12.021
甚深之事	-12.021
邊地	-12.0212
窮盡	-12.0217
諸眾生等	-12.0218
傍為	-12.0218
究竟道	-12.0218
修供養	-12.0221
以申	-12.0223
正辨	-12.0224
四四諦	-12.0227
破三惑	-12.0228
他化自在天	-12.0229
為末	-12.0229
此豈非	-12.0229
能所俱	-12.023
隨情智	-12.0231
四濁	-12.0236
事障	-12.0236
門戶	-12.0237
因果不二	-12.0238
妙嚴	-12.0243
能說法	-12.0243
名字不同	-12.0243
一切世間天人	-12.0244
事度	-12.0245
虗通	-12.0248
初雙標	-12.0249
方隅	-12.0251
辟支佛乘	-12.0253
利根人	-12.0254
令悟	-12.0256
前問答	-12.0256
亦不住	-12.0257
已曾	-12.0258
思想	-12.0259
入水	-12.0259
二乘涅槃	-12.0261
之德也	-12.0261
故名為大	-12.0262
明佛性	-12.0264
薄地	-12.0266
得阿耨菩提	-12.0266
▁初述	-12.0266
名波羅蜜	-12.0267
反觀	-12.0269
無字	-12.0271
能信解	-12.0278
法無我	-12.028
有三謂	-12.0281
還來	-12.0282
無怨	-12.0284
慈悲誓願	-12.0288
超入	-12.0289
結責	-12.0289
如下文云	-12.029
秦本	-12.0292
名阿那含	-12.0294
一切凡聖	-12.0296
相遇	-12.0297
二偈頌二初頌	-12.0297
爾時五百萬億諸梵天王	-12.03
若有善男子善女人	-12.0301
衢	-12.0303
不要	-12.0303
且就	-12.0305
第七識	-12.0305
天地之	-12.0305
不了了	-12.0308
柔和善順	-12.0308
諸小王	-12.0308
我等長夜	-12.0309
卅	-12.031
行七步	-12.0311
僉	-12.0311
合掌恭敬	-12.0312
自資	-12.0313
乘是寶乘	-12.0313
何故說	-12.0313
導之	-12.0313
諸善法	-12.0314
愛取有	-12.0314
於寶塔中	-12.0314
無住菩薩言	-12.0315
八字	-12.0317
出火	-12.0319
有大勢力	-12.0319
著五欲	-12.032
大圓鏡智	-12.0321
問疾	-12.0322
國淨	-12.0324
牢獄	-12.0324
無厭足	-12.0324
瞽	-12.0326
不倦	-12.0326
別號	-12.0326
撓	-12.0326
別破	-12.0326
中道實相	-12.0327
不自生	-12.0328
頭面	-12.0328
百福莊嚴	-12.0328
不輕之	-12.0328
享	-12.0328
靈山會上	-12.0329
於一念中	-12.0329
眼智明覺	-12.033
豈不然	-12.0331
輦	-12.0331
離三界	-12.0332
自在神通之力	-12.0333
讖	-12.0333
抑揚	-12.0333
應當一心	-12.0334
知見波羅蜜	-12.0335
則墮	-12.0336
閻	-12.0337
沉水	-12.0337
而談	-12.0337
無量心	-12.0338
富那	-12.0339
脫落	-12.0341
威音王	-12.0341
神仙	-12.0341
一一界	-12.0342
䆳	-12.0343
離欲界	-12.0343
頭痛	-12.0344
要解云	-12.0346
辨訛	-12.0346
妾	-12.0347
如影	-12.0348
發道心	-12.035
俱寂	-12.035
靈知	-12.0352
齊教領	-12.0353
唯局	-12.0353
魂	-12.0353
藥珠	-12.0355
自滅	-12.0356
源底	-12.0357
首楞嚴三昧	-12.0357
智慧第一	-12.0358
志固	-12.0359
?《	-12.036
還從	-12.036
大千經卷	-12.0362
當來成佛	-12.0363
千國土	-12.0363
佛法身	-12.0363
僧殘	-12.0364
金輪王	-12.0365
苟非	-12.0367
虗實	-12.0373
大通佛所	-12.0374
真體	-12.0375
云何說	-12.0378
貴在	-12.0379
下引經	-12.0379
始入	-12.038
離障	-12.0381
盧舍那佛	-12.0382
互出	-12.0385
二初長行	-12.0388
全體是	-12.039
一念具足	-12.0392
判權實	-12.0392
成一切種智	-12.0395
部旨	-12.0396
何哉	-12.0399
淨信	-12.0399
內外凡	-12.0401
等覺位	-12.0403
非虗	-12.0405
能表	-12.0411
化城喻	-12.0413
莊嚴法身	-12.0415
慧根	-12.0415
執實	-12.0417
格量本	-12.0417
無言說	-12.0417
是無為	-12.042
小聖	-12.0429
壞法	-12.043
眾生身中	-12.0431
以為莊嚴	-12.0433
觸處	-12.0434
制多	-12.0435
中具有	-12.0436
必然	-12.044
威光	-12.044
且順	-12.0441
今謂若	-12.0443
二十劫	-12.0446
今詳	-12.0446
斯經典	-12.0448
行菩薩行	-12.0448
即緣因	-12.0449
相帶	-12.0449
道安	-12.0453
以偈頌曰	-12.0454
二次明下	-12.0456
未融	-12.0457
坐寶蓮華	-12.0459
空識	-12.046
頌開譬	-12.046
十方分身	-12.046
引經文	-12.0461
種諸善根	-12.0461
火不能燒	-12.0462
眾罪	-12.0463
順道法愛	-12.0464
打罵	-12.0464
時乃說之	-12.0465
〕-【	-12.0466
阿修羅等	-12.0467
得佛法分	-12.0467
為聽法故	-12.0467
觀練熏修	-12.0468
久默斯要	-12.0468
成就大志	-12.0469
熈	-12.0469
作此念	-12.047
復有諸鬼	-12.047
輔宏記	-12.047
吝	-12.047
此序	-12.047
飡	-12.0471
爵	-12.0472
義邊	-12.0472
禮樂	-12.0472
五濁惡世	-12.0472
分出	-12.0473
慶幸	-12.0473
嚬	-12.0473
無目	-12.0473
無漏無為	-12.0474
第二品	-12.0475
了了分明	-12.0475
對四教	-12.0475
諸比丘眾	-12.0476
斟酌	-12.0479
上節	-12.0479
即墮	-12.048
遜	-12.0484
偈曰	-12.0484
絲竹	-12.0485
衒	-12.0485
絹	-12.0486
更無異	-12.0486
寧非	-12.0486
襲	-12.0486
誘進	-12.0487
亦翻	-12.0487
豈可以	-12.0488
乳味	-12.0489
四明云	-12.0492
造修	-12.0492
名之曰	-12.0492
可悲	-12.0492
能緣心	-12.0493
別行玄	-12.0495
揮	-12.0496
亦得是	-12.0498
江東	-12.0498
高麗	-12.0498
不勞	-12.0498
鈎	-12.0499
界方便	-12.0499
等無差別	-12.05
如來亦爾	-12.0501
隨所應	-12.0503
唐三藏	-12.0503
無塵智	-12.0504
隨其所應	-12.0505
既屬	-12.0506
所演	-12.051
若讀	-12.051
之總名	-12.051
泥水	-12.0513
而於其中	-12.0514
該於	-12.0516
說方等	-12.0518
中三初	-12.0518
舉勝	-12.0518
以諸因緣	-12.0519
專注	-12.0519
不與珠	-12.052
科判	-12.052
五無間	-12.0521
孟子	-12.0522
千倍	-12.0522
如止觀第五記	-12.0523
七位	-12.0523
不退位	-12.0526
讀誦通利	-12.0526
麤弊	-12.0529
四偈	-12.0532
我以佛眼觀	-12.0533
應迹	-12.0534
奇異	-12.0536
多方	-12.0538
非常之	-12.0539
約教中	-12.0539
爾時四眾	-12.054
的指	-12.0541
樹神	-12.0542
屬別	-12.0543
止觀輔行	-12.0544
無倦	-12.0549
果號	-12.0549
惡見	-12.0549
慈定	-12.0552
注云云	-12.0552
邪心	-12.0552
見佛身	-12.0555
昔日之	-12.0558
十方世界中	-12.0558
約三世	-12.0559
最下	-12.056
世間禪	-12.056
二別釋	-12.0562
後一行	-12.0562
大集云	-12.0562
新記	-12.0563
須臾聞	-12.0564
施戒	-12.0566
小根	-12.0568
世禪	-12.0569
之方便也	-12.057
一行三昧	-12.0571
故以為名	-12.0572
方便善巧	-12.0573
龍象	-12.0575
初中二初	-12.0576
法華文句	-12.0576
正法念	-12.0577
四悉檀意	-12.0578
作是念巳	-12.0582
千劫	-12.0583
妙教	-12.0585
得大自在	-12.0587
勸他	-12.0589
如夜	-12.0589
為一劫	-12.0589
隨便	-12.0589
第二正明	-12.0591
於阿耨多羅三藐三菩提	-12.0592
大論二十	-12.0592
俱來	-12.0594
自軌	-12.0595
出水義	-12.0598
非滅唱滅	-12.06
見大千	-12.0601
大宗	-12.0601
惶	-12.0603
樂想	-12.0604
宜須	-12.0605
亦只	-12.0606
相應心	-12.0606
準望	-12.0606
大師云	-12.0608
畧	-12.0609
我實成佛巳來	-12.0609
巳度	-12.061
為害	-12.061
成最正覺	-12.0612
金剛錍	-12.0614
總顯	-12.0614
生安隱想	-12.0614
十住位	-12.0615
罄無不盡	-12.0615
得車歡喜	-12.0615
求辟支佛者	-12.0616
汝巳	-12.0616
疲倦	-12.0617
捨几	-12.0618
快得安隱	-12.0618
番番	-12.0618
擁	-12.0619
世尊甚希有	-12.0619
訂	-12.062
玫瑰	-12.062
無有障礙	-12.062
常寂滅相	-12.062
平等法界	-12.062
通收	-12.0621
二頌文	-12.0622
更無餘乘	-12.0623
能觀之智	-12.0623
所作巳辦	-12.0623
無慚愧	-12.0625
形色憔悴	-12.0627
以一音	-12.0629
魔業	-12.0629
趺	-12.063
羸瘦	-12.063
佩	-12.063
匿	-12.0631
不取不捨	-12.0631
文殊師利法王子	-12.0632
歛	-12.0633
正法像法	-12.0633
大悲拔苦	-12.0633
沐	-12.0633
寶掌	-12.0633
囚	-12.0634
既被	-12.0635
▁二別明	-12.0635
一毛孔	-12.0635
境境	-12.0636
思之可見	-12.0636
哆	-12.0636
法雲地	-12.0636
大草	-12.0638
盂	-12.0638
想念	-12.0639
廣雅云	-12.0639
受稱	-12.064
平等法身	-12.064
鑊	-12.064
販	-12.064
但立	-12.0641
似識	-12.0641
得度者	-12.0643
邇	-12.0643
粥	-12.0643
生生不可說	-12.0643
菩薩大士	-12.0644
辜	-12.0644
法服	-12.0644
縈	-12.0644
現證	-12.0647
香爐	-12.0647
稱南無佛	-12.0648
若有善男子	-12.0648
離著	-12.0648
不彰	-12.0648
覩瑞	-12.0649
恐繁	-12.065
三十三身	-12.0651
成無上道	-12.0652
華德菩薩	-12.0654
則我身是	-12.0655
序正	-12.0655
臣佐	-12.0655
天皷	-12.0657
無妄	-12.0657
便宜	-12.0657
殺盜	-12.0658
潞	-12.0658
更引	-12.0659
甚遠	-12.066
無咎	-12.0661
其或不然	-12.0661
行蘊	-12.0663
邀	-12.0664
菀	-12.0665
掉舉	-12.0666
論家家	-12.0666
苟不	-12.0666
染淨二性	-12.0667
四諦十二因緣	-12.0667
仁王般若	-12.0667
我先	-12.067
其事如是	-12.067
初住巳上	-12.0671
理內	-12.0671
在虗空	-12.0674
大途	-12.0674
一雨所潤	-12.0674
眾生之心	-12.0677
得小果	-12.0678
君臣	-12.0681
百一	-12.0682
入塔	-12.0683
密意	-12.0683
法身平等	-12.0683
一切智智	-12.0683
無量億	-12.0684
未安	-12.0684
法皷	-12.0685
之別名	-12.0686
北地	-12.0687
訖此	-12.0687
心意識	-12.069
領前	-12.069
順情	-12.0691
五佛章	-12.0691
自佗	-12.0694
福德智慧	-12.0695
白蓮華	-12.0695
導行	-12.0695
情見	-12.0695
對面	-12.0697
為四百	-12.0701
消息	-12.0701
難遭	-12.0703
邪慢	-12.0704
諸德	-12.0706
趣菩提	-12.0706
八解	-12.0709
三乘方便	-12.071
為菩薩時	-12.0711
皆是佛法	-12.0717
一一門	-12.0717
聞佛說法	-12.0718
轉增	-12.072
合雲	-12.0725
權理	-12.0727
順從	-12.0727
頌上第三	-12.0727
此頌長行	-12.0728
淨水	-12.0732
觀支	-12.0734
解髻	-12.0734
因禪	-12.0735
少光	-12.0736
羣機	-12.0736
新經	-12.0739
一切有情	-12.0741
菩薩之道	-12.0745
譬如大雲	-12.0746
絕歎	-12.0746
亦如之	-12.0749
外道計	-12.0749
新發意	-12.0751
未到定	-12.0752
遍攝	-12.0753
興供養	-12.0753
被加	-12.0755
在俗	-12.0755
巧妙	-12.0758
本迹雖殊不思議一	-12.0758
巳辦	-12.0762
名增上慢	-12.0762
必兼	-12.0763
前四味	-12.0763
無勞	-12.0764
四榮	-12.0765
佛壽十二小劫	-12.0765
從本垂迹	-12.0766
宗門	-12.0766
病惱	-12.0767
在在處處	-12.0767
八歲	-12.0767
庠	-12.0767
父子相見	-12.0768
欲聞具足道	-12.0768
我本行菩薩道	-12.077
正因緣	-12.0771
專精	-12.0771
合長者	-12.0773
一行一切行	-12.0773
起巳遊行	-12.0775
生希有心	-12.0775
鳩槃荼	-12.0776
行深妙道	-12.0776
航	-12.0776
十波羅蜜	-12.0776
[...]
