<unk>	0
<s>	0
</s>	0
之	-4.17888
而	-4.50413
以	-4.88617
也	-5.08801
者	-5.17572
為	-5.18214
其	-5.20604
有	-5.27076
於	-5.44484
公	-5.69125
一	-5.73382
不	-5.73772
人	-5.74346
則	-5.77658
與	-5.96216
自	-5.96754
無	-5.99263
如	-6.06059
時	-6.13146
曰	-6.16016
子	-6.16618
矣	-6.18693
得	-6.20488
行	-6.20696
君	-6.20699
中	-6.20854
生	-6.21544
在	-6.25651
上	-6.28181
事	-6.30149
至	-6.30943
亦	-6.31714
大	-6.34031
是	-6.35929
又	-6.36468
乎	-6.3675
此	-6.37341
見	-6.39721
書	-6.42153
出	-6.42291
然	-6.43293
文	-6.44139
若	-6.45185
所	-6.45687
天	-6.46755
故	-6.47656
心	-6.4775
焉	-6.48294
皆	-6.48895
日	-6.49171
于	-6.51115
言	-6.52133
已	-6.52159
山	-6.53248
道	-6.54923
非	-6.57381
今	-6.57967
我	-6.58705
歸	-6.59324
當	-6.60855
兮	-6.61712
來	-6.61909
乃	-6.62758
長	-6.63258
▁	-6.6346
作	-6.63962
可	-6.64172
下	-6.6427
名	-6.6427
復	-6.65045
及	-6.65122
王	-6.65633
知	-6.67455
多	-6.67814
明	-6.69316
相	-6.69883
欲	-6.7018
且	-6.70619
先生	-6.71221
同	-6.71932
重	-6.73408
三	-6.74799
入	-6.7506
後	-6.75278
(	-6.75538
吾	-6.7573
成	-6.7623
將	-6.78614
用	-6.79723
方	-6.79947
家	-6.81582
去	-6.82739
即	-6.82994
官	-6.84344
能	-6.84903
從	-6.85076
水	-6.86418
何	-6.86629
爲	-6.8674
使	-6.87369
夫	-6.8752
臣	-6.89247
過	-6.89533
正	-6.89695
雖	-6.89745
惟	-6.91765
思	-6.91907
或	-6.92061
清	-6.93038
學	-6.93308
二	-6.9541
聞	-6.96384
予	-6.9645
深	-6.96561
必	-6.96831
逺	-6.96855
既	-6.97525
未	-6.97962
世	-6.98102
風	-6.98317
前	-7.00263
傳	-7.01552
居	-7.01766
春	-7.02174
意	-7.03687
遂	-7.04335
詩	-7.05457
民	-7.05991
盡	-7.06143
雲	-7.06347
諸	-7.07047
先	-7.0705
哉	-7.07099
髙	-7.07289
獨	-7.0767
石	-7.07808
還	-7.07924
分	-7.09131
間	-7.09189
地	-7.09607
起	-7.09984
因	-7.10109
實	-7.10996
應	-7.13696
處	-7.13766
安	-7.14767
令	-7.15298
新	-7.1544
余	-7.17242
望	-7.17345
猶	-7.17541
初	-7.1777
老	-7.19851
金	-7.19862
徳	-7.19873
命	-7.20327
始	-7.20783
耳	-7.21693
發	-7.21788
士	-7.21837
古	-7.21856
志	-7.22241
善	-7.22684
月	-7.2317
難	-7.23826
外	-7.2393
開	-7.23978
稱	-7.23979
本	-7.24152
小	-7.24176
問	-7.25338
數	-7.25472
南	-7.25627
立	-7.25864
爾	-7.25951
更	-7.2617
元	-7.26501
少	-7.26573
身	-7.27376
云	-7.28309
守	-7.28322
兩	-7.28783
花	-7.29225
益	-7.29276
好	-7.29419
空	-7.30023
玉	-7.30237
以為	-7.3075
尚	-7.31006
張	-7.31164
易	-7.31246
陳	-7.31277
四	-7.32061
師	-7.32471
兵	-7.32509
東	-7.32595
秋	-7.32742
平	-7.3285
舉	-7.33001
情	-7.3349
近	-7.33683
取	-7.33942
字	-7.34077
氣	-7.34085
樂	-7.34278
謂	-7.3523
觀	-7.35507
周	-7.36407
死	-7.36439
不能	-7.36859
真	-7.36942
西	-7.37407
通	-7.37661
興	-7.37863
固	-7.37905
經	-7.37953
客	-7.3802
聲	-7.3835
法	-7.38383
語	-7.38574
常	-7.38843
送	-7.39113
白	-7.39842
神	-7.40066
合	-7.40173
題	-7.40228
五	-7.40347
坐	-7.41443
朝	-7.41981
親	-7.42105
母	-7.42369
禮	-7.43048
辭	-7.43255
馬	-7.43441
流	-7.43723
定	-7.43907
/)	-7.44218
論	-7.44528
和	-7.44604
求	-7.44833
年	-7.45107
)	-7.45491
舊	-7.45997
甚	-7.46422
義	-7.4668
集	-7.46928
扵	-7.46945
州	-7.46951
治	-7.47202
不可	-7.47477
門	-7.4782
㑹	-7.47934
/	-7.48388
國	-7.48438
别	-7.487
夜	-7.49226
序	-7.49373
賢	-7.49472
進	-7.49478
宜	-7.49677
理	-7.49783
江	-7.50108
光	-7.50368
翁	-7.50395
寒	-7.5043
請	-7.5143
林	-7.51436
信	-7.51441
共	-7.51532
莫	-7.51715
黄	-7.51762
城	-7.52115
圖	-7.52207
動	-7.53209
飛	-7.53238
凡	-7.53582
雨	-7.54308
病	-7.55175
卒	-7.55276
視	-7.55556
等	-7.55599
力	-7.55623
李	-7.56405
向	-7.57051
終	-7.57358
致	-7.57362
龍	-7.57417
侯	-7.57608
各	-7.57811
歌	-7.58142
奉	-7.58616
賦	-7.59129
次	-7.59256
贈	-7.5958
物	-7.59595
華	-7.598
誠	-7.59856
弗	-7.60377
寄	-7.60675
直	-7.60827
似	-7.61488
絶	-7.61771
餘	-7.61805
天下	-7.62128
教	-7.626
内	-7.63039
某	-7.6368
所以	-7.63829
喜	-7.63854
留	-7.63947
樹	-7.6423
顧	-7.64239
父	-7.6427
才	-7.64374
足	-7.64592
氏	-7.65059
汝	-7.6522
任	-7.65457
嘗	-7.65879
酒	-7.65949
陽	-7.66456
海	-7.66458
伯	-7.66604
漢	-7.6712
彼	-7.67741
色	-7.67746
宗	-7.67823
斯	-7.67914
念	-7.68003
記	-7.68047
食	-7.68611
交	-7.68708
九	-7.6885
登	-7.6942
素	-7.6949
遊	-7.69802
堂	-7.69957
田	-7.70284
節	-7.70477
来	-7.70485
豈	-7.70889
俱	-7.70967
德	-7.71179
不知	-7.71199
受	-7.71356
高	-7.7145
度	-7.72013
報	-7.72197
幸	-7.72238
盖	-7.72517
縣	-7.7303
計	-7.73517
敬	-7.73722
承	-7.7431
衆	-7.75032
女	-7.75145
異	-7.75327
路	-7.75508
解	-7.76038
仁	-7.76057
謝	-7.76413
耶	-7.77114
滿	-7.77187
政	-7.77216
竹	-7.77392
宋	-7.77558
久	-7.77586
六	-7.77795
服	-7.78075
所謂	-7.78077
封	-7.78704
失	-7.78915
北	-7.79441
具	-7.80187
愛	-7.80739
良	-7.8085
懐	-7.81569
著	-7.81929
嵗	-7.81968
手	-7.82256
草	-7.82412
臨	-7.82549
劉	-7.8287
功	-7.82983
性	-7.83241
衣	-7.83282
孤	-7.83421
存	-7.83519
主	-7.83548
識	-7.83703
萬	-7.83787
章	-7.83979
再	-7.84118
由	-7.8428
武	-7.84351
看	-7.84427
君子	-7.84465
修	-7.84545
期	-7.84581
仲	-7.84585
隨	-7.84652
適	-7.84777
極	-7.85146
貴	-7.85175
而不	-7.85377
到	-7.85419
比	-7.8557
尤	-7.85836
止	-7.85976
青	-7.86055
首	-7.8613
便	-7.86547
寧	-7.86685
嚴	-7.86727
景	-7.86782
府	-7.86993
誰	-7.87575
原	-7.87753
百	-7.88117
感	-7.88313
夢	-7.88563
屬	-7.88618
忽	-7.89302
對	-7.89997
載	-7.90026
兼	-7.90087
勝	-7.90092
利	-7.90228
雪	-7.90417
議	-7.90468
畫	-7.9054
輕	-7.90614
廣	-7.90628
孫	-7.90756
就	-7.90789
不得	-7.91275
化	-7.91692
将	-7.91835
者也	-7.91849
都	-7.9195
持	-7.92086
靈	-7.92192
繼	-7.92817
幾	-7.92899
要	-7.92957
溪	-7.93164
遺	-7.93378
兹	-7.93392
香	-7.93838
容	-7.94214
臺	-7.9428
試	-7.94662
落	-7.94704
養	-7.94898
往	-7.95001
尊	-7.95227
之所	-7.9537
加	-7.95447
幽	-7.95587
祖	-7.95588
許	-7.95893
隂	-7.96222
賊	-7.96473
泉	-7.9667
轉	-7.96708
美	-7.96858
葢	-7.97105
省	-7.9716
遇	-7.9721
亂	-7.97671
如此	-7.97679
精	-7.97695
憂	-7.98064
齊	-7.98354
疑	-7.98429
每	-7.98466
榮	-7.98593
願	-7.9865
連	-7.98667
窮	-7.98964
於是	-7.99016
體	-7.99158
目	-7.99602
變	-7.99856
口	-7.99975
曲	-8.00085
全	-8.00159
勞	-8.00235
散	-8.00272
苦	-8.00461
業	-8.00836
備	-8.01028
鄉	-8.01104
吏	-8.01236
羣	-8.01433
厚	-8.01687
可以	-8.01901
郡	-8.02207
唐	-8.02283
説	-8.02326
永	-8.0254
游	-8.02756
竒	-8.02898
遷	-8.02996
蓋	-8.03127
楊	-8.03185
鳴	-8.03412
考	-8.04125
照	-8.04196
悲	-8.04273
越	-8.04384
弟	-8.04391
拜	-8.04496
負	-8.04499
惡	-8.04519
職	-8.0455
司	-8.046
吳	-8.04656
河	-8.04781
聖	-8.04921
制	-8.05131
木	-8.05335
克	-8.05624
告	-8.05892
垂	-8.05902
號	-8.05986
半	-8.06266
推	-8.06283
奏	-8.0637
聽	-8.06453
授	-8.06636
積	-8.06707
右	-8.06736
盛	-8.06828
謀	-8.06959
亭	-8.06976
宫	-8.0703
賜	-8.07167
簡	-8.07173
夀	-8.07205
十	-8.07282
疾	-8.07502
驚	-8.07706
待	-8.07712
土	-8.0786
引	-8.07872
被	-8.07917
邊	-8.08055
愁	-8.08482
星	-8.08663
秦	-8.08772
閒	-8.09299
徒	-8.09425
忠	-8.09756
𤣥	-8.10054
頭	-8.10084
齋	-8.10097
果	-8.1011
但	-8.10153
尋	-8.10228
改	-8.10291
巳	-8.10527
帝	-8.10619
史	-8.107
胡	-8.10773
野	-8.10947
私	-8.11295
指	-8.11395
微	-8.11478
軍	-8.11894
工	-8.12171
醉	-8.12341
列	-8.1247
代	-8.12599
卿	-8.12938
徐	-8.12947
八	-8.12957
仙	-8.1299
恩	-8.13426
却	-8.14102
而已	-8.14147
仍	-8.14171
務	-8.14408
崇	-8.14627
朱	-8.14652
休	-8.15385
楚	-8.15388
端	-8.15442
友	-8.15589
夏	-8.15646
謹	-8.15682
選	-8.1588
顯	-8.16142
七	-8.16512
特	-8.16516
寺	-8.16546
葉	-8.16583
俗	-8.1707
早	-8.17118
薄	-8.17537
移	-8.17706
松	-8.17728
亡	-8.17756
建	-8.17811
讀	-8.17851
邑	-8.1791
飲	-8.18736
車	-8.18912
急	-8.19091
說	-8.19199
調	-8.19475
巻	-8.19482
宿	-8.19659
接	-8.1973
兄	-8.19849
魚	-8.19921
昔	-8.19932
率	-8.20151
他	-8.20215
燕	-8.2096
左	-8.21144
回	-8.2135
維	-8.21489
不敢	-8.21522
恐	-8.21574
乆	-8.21593
約	-8.21713
脩	-8.21803
最	-8.21859
斷	-8.21863
羅	-8.21923
火	-8.22091
舟	-8.2214
結	-8.22363
壽	-8.22378
廢	-8.22406
哀	-8.22469
軒	-8.22647
達	-8.22825
位	-8.22922
咸	-8.23041
並	-8.23169
悉	-8.23245
芳	-8.23248
疏	-8.23339
室	-8.23343
竟	-8.23647
孝	-8.23766
雙	-8.24186
撫	-8.24445
孺人	-8.24782
施	-8.24844
置	-8.24912
甫	-8.25162
勢	-8.25213
千	-8.25256
樓	-8.25369
收	-8.25534
薦	-8.2555
塵	-8.25569
孟	-8.25957
虚	-8.26057
浮	-8.26085
筆	-8.26303
為之	-8.26426
歲	-8.26519
笑	-8.26539
之間	-8.26562
其所	-8.26569
里	-8.26714
傷	-8.26728
表	-8.26764
習	-8.26822
獲	-8.26851
漸	-8.27067
除	-8.27078
類	-8.27383
庭	-8.27513
曽	-8.27578
息	-8.2772
錢	-8.28082
須	-8.28583
梁	-8.28596
詞	-8.28712
累	-8.29096
懷	-8.29113
恒	-8.29135
藏	-8.29578
貞	-8.29737
刻	-8.29824
仰	-8.29838
銘	-8.30289
愈	-8.30612
順	-8.30774
川	-8.30828
有所	-8.31043
擬	-8.31127
追	-8.3134
離	-8.31514
隠	-8.31682
走	-8.31742
紅	-8.31756
叔	-8.3268
况	-8.3297
切	-8.33048
兒	-8.33077
静	-8.33274
遣	-8.33479
慕	-8.33571
荒	-8.34026
闕	-8.34059
運	-8.34074
僕	-8.34075
邪	-8.342
夫人	-8.34218
閣	-8.34396
萬里	-8.3446
破	-8.3477
裏	-8.34797
露	-8.34953
韻	-8.35204
厥	-8.35433
濟	-8.35663
英	-8.3598
賞	-8.36077
惠	-8.36191
執	-8.36229
俾	-8.36446
福	-8.36451
資	-8.36496
附	-8.36647
詔	-8.36785
勤	-8.37295
倚	-8.37365
反	-8.37367
質	-8.37552
慶	-8.37607
只	-8.3762
偏	-8.37743
延	-8.37758
趙	-8.37791
殊	-8.38007
寳	-8.38102
銀	-8.38128
并	-8.38173
程	-8.38285
公之	-8.3832
冠	-8.38419
揚	-8.38465
一日	-8.38466
闗	-8.38477
依	-8.3849
婦	-8.38595
保	-8.38644
雅	-8.38889
舍	-8.39075
强	-8.39218
造	-8.39476
稍	-8.39647
敢	-8.39691
仕	-8.39728
曹	-8.39924
折	-8.40224
降	-8.40646
徃	-8.4072
篇	-8.40725
役	-8.40849
殘	-8.40924
振	-8.41059
影	-8.41086
祭	-8.41094
覺	-8.41195
抱	-8.41395
昭	-8.41424
嘉	-8.41698
曾	-8.41729
威	-8.42003
罪	-8.42107
千里	-8.42191
晉	-8.42312
澤	-8.4233
屢	-8.42384
鶴	-8.42433
霜	-8.42556
儀	-8.42586
湖	-8.42622
池	-8.43218
御	-8.43278
雄	-8.43289
營	-8.43542
郎	-8.4361
晚	-8.43651
面	-8.43858
愚	-8.43931
天地	-8.44009
形	-8.44414
鳥	-8.4452
召	-8.4468
棄	-8.44853
獻	-8.44857
梅	-8.44888
據	-8.44891
材	-8.44931
橋	-8.45029
衛	-8.45224
朝廷	-8.45337
聖人	-8.45415
隔	-8.45825
紀	-8.46002
象	-8.46207
補	-8.46217
懸	-8.46421
衰	-8.46477
輒	-8.4651
翠	-8.46521
靜	-8.46623
伏	-8.46658
總	-8.46661
廟	-8.4678
呼	-8.46852
祠	-8.46939
候	-8.47
典	-8.47143
人之	-8.47268
第	-8.47441
忘	-8.4746
嗚呼	-8.47668
姑	-8.47701
暮	-8.47728
侍	-8.4773
横	-8.47749
沈	-8.47763
關	-8.47784
鎮	-8.47843
逢	-8.47876
而後	-8.4794
歴	-8.48055
罷	-8.48116
戒	-8.4825
談	-8.48334
秀	-8.48545
勿	-8.48581
天子	-8.48607
憶	-8.48754
吟	-8.48802
徴	-8.49117
放	-8.49222
宣	-8.49271
陵	-8.49305
之意	-8.49505
偶	-8.4969
晩	-8.499
録	-8.50076
屋	-8.50116
音	-8.50161
陸	-8.50298
曉	-8.5056
危	-8.5056
兄弟	-8.5066
皇	-8.50671
恭	-8.50755
堪	-8.50946
訪	-8.51259
殺	-8.51336
至於	-8.51501
烟	-8.51541
戰	-8.51733
讀書	-8.51973
迎	-8.51979
佐	-8.51991
妙	-8.52272
布	-8.52353
聚	-8.52482
委	-8.52494
鄭	-8.52496
赴	-8.52521
履	-8.52572
太	-8.52574
曰吾	-8.52632
設	-8.52903
處士	-8.52954
頗	-8.5307
慎	-8.53093
慮	-8.53158
孰	-8.53289
沙	-8.53412
不足	-8.53451
顔	-8.53481
御史	-8.53496
足以	-8.53514
子孫	-8.53616
機	-8.53621
不為	-8.53858
隱	-8.53925
違	-8.54018
蘭	-8.54064
領	-8.54201
虎	-8.54206
無所	-8.54288
儒	-8.54417
逐	-8.5456
貧	-8.54588
退	-8.54867
塞	-8.54901
辱	-8.54973
雜	-8.55251
帶	-8.55262
夷	-8.55369
訓	-8.55427
種	-8.55489
不及	-8.55714
細	-8.56179
惜	-8.563
博	-8.56608
效	-8.56645
之士	-8.56647
季	-8.5669
波	-8.56728
逰	-8.5684
之心	-8.56858
古人	-8.56892
隆	-8.57083
充	-8.57123
寛	-8.57207
之後	-8.57213
春秋	-8.57251
一時	-8.57407
園	-8.5744
市	-8.57515
乞	-8.57694
恨	-8.57812
僧	-8.58057
嗣	-8.58063
今日	-8.58067
府君	-8.58531
㣲	-8.5854
按	-8.58559
示	-8.58901
毋	-8.59018
智	-8.59045
族	-8.59094
堅	-8.59105
敵	-8.59309
跡	-8.59358
竊	-8.59558
部	-8.59568
投	-8.59759
姓	-8.60306
碧	-8.60339
之道	-8.60351
殿	-8.60395
不以	-8.60543
二首	-8.60646
富	-8.60736
狀	-8.60819
平生	-8.60886
村	-8.61438
詳	-8.61451
愧	-8.6172
遲	-8.61897
魯	-8.6203
進士	-8.62078
葬	-8.62138
藥	-8.62183
彦	-8.62226
夕	-8.62509
希	-8.62589
答	-8.62701
趨	-8.62855
商	-8.6313
避	-8.63148
操	-8.6321
昌	-8.63231
禁	-8.63374
匪	-8.63569
三年	-8.63755
佛	-8.63809
丘	-8.6402
洞	-8.64022
差	-8.64106
爭	-8.64254
察	-8.64317
馳	-8.64322
呉	-8.64338
畏	-8.64373
也夫	-8.64392
逸	-8.6463
擢	-8.64794
費	-8.64829
管	-8.65042
壯	-8.65148
甘	-8.65197
諸生	-8.65243
覆	-8.65444
責	-8.65553
采	-8.65581
船	-8.65618
枝	-8.65646
招	-8.65773
源	-8.65814
申	-8.65832
給	-8.65903
述	-8.65908
誦	-8.65957
傾	-8.66045
庶	-8.66104
權	-8.66442
憐	-8.66465
器	-8.66911
十年	-8.67111
卧	-8.67156
烏	-8.67327
醫	-8.67364
緑	-8.67407
廷	-8.67545
左右	-8.67613
淵	-8.67634
紫	-8.67919
怨	-8.67974
介	-8.68028
傍	-8.68129
谷	-8.68261
祀	-8.68323
峰	-8.68338
聴	-8.68484
吉	-8.68712
丁	-8.68717
專	-8.68792
峯	-8.69097
縱	-8.69265
懼	-8.69275
不見	-8.69283
根	-8.69349
允	-8.69403
孔	-8.69455
莊	-8.69651
蘇	-8.6999
缺	-8.69998
邦	-8.70008
大夫	-8.70071
冬	-8.70213
文章	-8.70345
當時	-8.7066
升	-8.707
鼎	-8.70927
白雲	-8.71009
免	-8.71228
㡬	-8.7125
想	-8.71332
茂	-8.71337
京	-8.71423
乗	-8.71473
譜	-8.71489
肅	-8.71551
困	-8.71555
其子	-8.71694
否	-8.71739
謁	-8.71907
菴	-8.71962
舞	-8.72006
辨	-8.72126
巖	-8.72258
籍	-8.72262
晴	-8.72381
納	-8.7264
索	-8.72702
䝉	-8.72765
駕	-8.7281
豐	-8.72891
勸	-8.72976
㳺	-8.7302
其人	-8.73021
南京	-8.73299
寓	-8.73387
歳	-8.73404
丹	-8.73507
豪	-8.73549
支	-8.73604
温	-8.73708
珠	-8.73822
借	-8.74045
繁	-8.74167
完	-8.74255
虛	-8.743
徑	-8.74319
慰	-8.74626
虞	-8.74694
墓	-8.74699
足下	-8.7476
學者	-8.74935
麗	-8.75161
短	-8.75227
征	-8.75421
格	-8.75427
患	-8.75532
相與	-8.75539
含	-8.75603
畢	-8.75747
錦	-8.758
喪	-8.75821
抑	-8.75926
何以	-8.76055
席	-8.76058
了	-8.76153
的	-8.7624
諱	-8.76285
毎	-8.764
父母	-8.76661
庸	-8.76724
例	-8.76734
督	-8.76753
骨	-8.76827
陞	-8.76836
者皆	-8.76894
畧	-8.77081
科	-8.77317
鮮	-8.77332
假	-8.77384
靡	-8.77496
鳯	-8.77558
故人	-8.77564
逹	-8.77571
徵	-8.77576
啓	-8.77703
䇿	-8.77862
頻	-8.77936
韓	-8.77991
栁	-8.78041
刑	-8.78043
釋	-8.78145
縁	-8.78501
孔子	-8.78504
寫	-8.78544
怒	-8.78789
敗	-8.78866
環	-8.78929
天下之	-8.79237
條	-8.79334
配	-8.79426
僅	-8.79547
境	-8.79769
康	-8.79848
亦有	-8.79989
牛	-8.80149
館	-8.8022
祝	-8.80277
聊	-8.80571
遥	-8.80575
會	-8.80612
歎	-8.8075
賀	-8.80823
乘	-8.81012
娶	-8.81028
句	-8.81205
己	-8.81305
郭	-8.81316
奪	-8.81568
墨	-8.81667
殆	-8.81939
唯	-8.82017
監	-8.82172
熟	-8.82187
歡	-8.82239
瑞	-8.82446
鍾	-8.82544
頌	-8.8272
邉	-8.82776
魏	-8.82829
寜	-8.83003
佳	-8.83036
痛	-8.83039
耕	-8.83233
祥	-8.83264
旣	-8.83385
争	-8.83748
宅	-8.83824
勉	-8.83961
甲	-8.83973
憲	-8.84062
誤	-8.8423
攻	-8.84242
翻	-8.84243
續	-8.84251
翼	-8.84252
者乎	-8.84433
射	-8.84478
量	-8.84531
哭	-8.84613
盤	-8.84764
嶺	-8.84843
鳳	-8.84843
吹	-8.84974
桂	-8.84996
百年	-8.85042
茍	-8.85109
講	-8.85129
是以	-8.85192
尚書	-8.8525
歟	-8.85284
趣	-8.85478
擇	-8.85481
狂	-8.85503
有司	-8.85647
肆	-8.85652
繫	-8.85674
洪	-8.85741
騎	-8.85872
必有	-8.85984
律	-8.86026
山中	-8.86084
風雨	-8.86172
之言	-8.86368
漫	-8.86523
也而	-8.86642
侵	-8.867
疎	-8.86827
青山	-8.86882
輔	-8.8695
以爲	-8.86967
迷	-8.87065
其後	-8.87112
舎	-8.87124
衡	-8.87451
増	-8.87521
徙	-8.87521
院	-8.87523
鴻	-8.87531
禄	-8.87583
託	-8.87623
之事	-8.87652
鼓	-8.87672
煩	-8.87968
均	-8.88237
末	-8.88326
險	-8.88364
奚	-8.88386
未嘗	-8.88398
植	-8.88465
害	-8.88465
輩	-8.88514
盈	-8.88532
悟	-8.88535
剛	-8.88569
消	-8.88575
可謂	-8.88679
禍	-8.88712
房	-8.88738
陶	-8.88937
輙	-8.89017
米	-8.89101
式	-8.89122
裁	-8.89226
賔	-8.89362
助	-8.89382
之學	-8.89433
背	-8.89689
掌	-8.89706
純	-8.89766
絲	-8.89943
至今	-8.89977
寡	-8.89989
也其	-8.90215
署	-8.90287
厯	-8.9032
豈不	-8.90364
奔	-8.90378
詠	-8.90413
嗟	-8.90476
琴	-8.90526
享	-8.90581
春風	-8.90605
無不	-8.90614
瞻	-8.90632
卜	-8.90772
步	-8.90788
干	-8.90851
沒	-8.90882
於此	-8.90946
户	-8.91127
供	-8.91133
荷	-8.91253
敏	-8.9128
覽	-8.91327
旋	-8.9136
循	-8.91447
者亦	-8.91678
宻	-8.91857
賈	-8.91873
錫	-8.92086
符	-8.92372
爵	-8.9251
一人	-8.92524
慈	-8.92611
國家	-8.92831
碑	-8.92853
何處	-8.92983
也故	-8.93168
遽	-8.93195
羽	-8.93239
其事	-8.93255
諭	-8.93423
優	-8.93424
參	-8.93474
厲	-8.93479
淚	-8.93498
屈	-8.93603
蜀	-8.93674
决	-8.93677
如何	-8.93712
吏部	-8.93814
凝	-8.939
江南	-8.93957
眼	-8.93978
赤	-8.94024
角	-8.94178
煙	-8.94232
謙	-8.94452
也今	-8.94645
蕭	-8.94775
逆	-8.94793
嘉靖	-8.95009
藩	-8.95348
審	-8.95533
日月	-8.95605
齒	-8.95737
君之	-8.95762
雷	-8.95829
之人	-8.95902
躬	-8.96111
弱	-8.96119
巧	-8.96211
人心	-8.9634
篤	-8.96465
掩	-8.96612
卑	-8.96702
編	-8.96729
遠	-8.9681
執事	-8.96888
妻	-8.97066
撰	-8.97207
住	-8.97442
之功	-8.97459
襲	-8.97504
何如	-8.9756
後世	-8.97709
言之	-8.9776
讓	-8.98042
底	-8.9807
未有	-8.98249
注	-8.98273
擁	-8.98402
冷	-8.98442
其心	-8.98464
統	-8.98476
呈	-8.98597
獄	-8.9864
秉	-8.98643
階	-8.98725
壁	-8.98828
井	-8.98937
烈	-8.98938
三月	-8.98977
上下	-8.99073
防	-8.99219
其二	-8.99428
叙	-8.99474
江西	-8.99493
預	-8.99703
糧	-8.9973
劍	-8.99922
京師	-9.00158
人也	-9.00439
味	-9.00587
有餘	-9.00595
暫	-9.00619
奮	-9.00699
藉	-9.00729
岡	-9.00755
童	-9.00936
戴	-9.00944
貢	-9.0104
棲	-9.01066
寵	-9.01131
托	-9.01198
産	-9.01308
犯	-9.01405
蒼	-9.01535
霞	-9.01539
以來	-9.01613
牧	-9.01709
忍	-9.01785
扶	-9.02027
四方	-9.02067
古今	-9.02222
亟	-9.02246
嘆	-9.02358
十二	-9.02381
學士	-9.02528
該	-9.02577
禪	-9.02637
厭	-9.02675
謂之	-9.02695
泣	-9.02748
廬	-9.02771
農	-9.02851
之地	-9.02901
大臣	-9.03248
毛	-9.03514
潤	-9.0361
校	-9.03643
杜	-9.03796
浪	-9.04008
酬	-9.04101
尹	-9.04253
副	-9.04314
拂	-9.04448
明年	-9.04514
泥	-9.0456
然後	-9.04942
啟	-9.04949
曠	-9.05114
㸔	-9.05182
激	-9.0526
他日	-9.05276
自是	-9.05364
凉	-9.05503
窺	-9.05563
巢	-9.05676
妄	-9.0577
潔	-9.05836
菊	-9.05889
暴	-9.05971
速	-9.05985
鴈	-9.06022
術	-9.06126
迹	-9.06521
貪	-9.06554
踰	-9.06865
䘮	-9.06904
乾	-9.06988
將軍	-9.07015
没	-9.07167
淺	-9.07417
皇上	-9.07432
彌	-9.07435
迴	-9.07475
凌	-9.07482
究	-9.07612
擊	-9.07662
俊	-9.07873
覩	-9.07894
偉	-9.07981
卷	-9.08011
伐	-9.08012
旁	-9.08021
映	-9.08458
阻	-9.08519
沉	-9.08701
倫	-9.08724
贊	-9.08858
滅	-9.08899
明月	-9.09012
昏	-9.09222
返	-9.09262
蒙	-9.09456
阿	-9.09477
旌	-9.09533
其志	-9.09671
其間	-9.0977
饒	-9.09822
紛	-9.09876
吐	-9.09955
占	-9.0997
人間	-9.10009
藝	-9.10036
蔽	-9.10112
快	-9.10168
太守	-9.10221
際	-9.10249
勇	-9.10481
怪	-9.10503
東南	-9.10545
夫子	-9.10548
不復	-9.1059
晝	-9.10593
塘	-9.10742
閩	-9.10808
探	-9.10904
屏	-9.10916
也然	-9.10916
財	-9.10979
殷	-9.10984
其言	-9.11052
革	-9.11057
社	-9.11104
震	-9.11119
途	-9.1115
抵	-9.11286
拙	-9.1142
貫	-9.11458
珍	-9.11512
泰	-9.11548
眠	-9.11639
而無	-9.11644
幼	-9.11716
父子	-9.11794
柔	-9.11804
㫖	-9.11814
然而	-9.11899
氷	-9.12006
展	-9.12321
矣而	-9.12462
不勝	-9.12884
緩	-9.1313
暗	-9.13143
飾	-9.13151
錄	-9.13163
付	-9.13243
其家	-9.13288
遭	-9.13304
驛	-9.13667
宴	-9.13693
苟	-9.13737
巨	-9.13775
輝	-9.13782
旦	-9.13829
印	-9.1384
之為	-9.1385
岸	-9.13878
欽	-9.13993
敦	-9.14014
弊	-9.1411
囘	-9.14117
買	-9.14118
蕩	-9.14518
歩	-9.14567
陰	-9.14595
契	-9.14614
稀	-9.14749
不如	-9.14865
超	-9.1491
築	-9.15016
不忍	-9.15216
粟	-9.15462
偕	-9.15493
損	-9.15537
晨	-9.15608
宏	-9.15785
渡	-9.15897
肯	-9.1591
地方	-9.15919
譽	-9.15944
戎	-9.15945
洲	-9.1602
之義	-9.16047
掃	-9.16142
品	-9.16347
旅	-9.16402
班	-9.16485
秩	-9.16767
七十	-9.16811
不然	-9.17135
宇	-9.17143
驅	-9.17171
不必	-9.17243
世之	-9.17316
不佞	-9.17541
崖	-9.1785
圗	-9.17875
值	-9.18149
往往	-9.18167
千載	-9.18186
規	-9.18255
𢎞	-9.18464
策	-9.18516
出於	-9.18643
黙	-9.18653
脱	-9.18757
其身	-9.18759
諸公	-9.18812
舒	-9.18844
戚	-9.18859
潮	-9.18884
莫不	-9.18941
催	-9.19037
鸞	-9.1906
酌	-9.19228
丞	-9.19259
強	-9.19463
丈	-9.19498
競	-9.19588
之際	-9.19646
不肖	-9.19697
鄰	-9.19771
燈	-9.19779
玩	-9.19825
蔡	-9.19849
輸	-9.19903
山川	-9.20082
朕	-9.20128
亷	-9.20182
山水	-9.20186
柳	-9.20226
長安	-9.20374
秋風	-9.20478
淮	-9.20748
眀	-9.20817
挾	-9.2088
爰	-9.20989
䟽	-9.21036
浦	-9.21174
渠	-9.2119
燭	-9.21268
觴	-9.21316
斗	-9.21369
陛下	-9.214
課	-9.21403
鬼	-9.21524
澄	-9.21546
岳	-9.21565
騰	-9.21567
敷	-9.21642
曷	-9.2175
把	-9.21869
傅	-9.21935
繞	-9.21991
鬱	-9.2206
誣	-9.22132
太平	-9.22174
漏	-9.22424
踈	-9.22456
辟	-9.22566
奇	-9.22697
河南	-9.22927
俟	-9.23047
帖	-9.23074
鄙	-9.2311
之時	-9.23143
宦	-9.23158
閑	-9.23262
千古	-9.23265
不過	-9.23266
董	-9.23302
盜	-9.23549
育	-9.23633
儲	-9.23787
乾坤	-9.23913
密	-9.23926
枯	-9.24018
不可以	-9.24064
靖	-9.24095
響	-9.24103
圍	-9.24108
魂	-9.24114
遵	-9.24261
盧	-9.24322
鐘	-9.24336
洪武	-9.24417
鏡	-9.24593
決	-9.24767
者其	-9.25136
澗	-9.25176
披	-9.25196
敎	-9.25204
佩	-9.2526
不同	-9.25442
吴	-9.25558
羊	-9.25627
不盡	-9.25832
賤	-9.25901
安得	-9.26005
内外	-9.26204
倒	-9.26326
賛	-9.26427
䕶	-9.26559
績	-9.26614
璧	-9.26655
舜	-9.26659
逮	-9.26683
庶幾	-9.26858
朝夕	-9.26954
晦	-9.26987
四海	-9.27023
俯	-9.27027
劇	-9.2709
白日	-9.27237
冀	-9.2726
今年	-9.27497
救	-9.2754
紹	-9.27583
之盛	-9.27716
孟子	-9.27831
併	-9.27838
毁	-9.2791
血	-9.27954
翔	-9.27991
其中	-9.28065
悠悠	-9.28097
士大夫	-9.28117
不足以	-9.28126
圓	-9.28137
吕	-9.28328
基	-9.28386
那	-9.28411
郊	-9.28422
聖賢	-9.2843
塟	-9.28447
出入	-9.28448
屯	-9.28461
叢	-9.28571
警	-9.28589
奠	-9.28635
之外	-9.28643
賴	-9.28648
者矣	-9.28847
淑	-9.29012
之餘	-9.29308
係	-9.29342
者必	-9.2944
聞之	-9.29475
以是	-9.2948
二子	-9.29718
𦵏	-9.29899
六月	-9.29905
亦不	-9.30085
略	-9.30293
之志	-9.3042
查	-9.30474
冦	-9.30536
湯	-9.30626
不忘	-9.30684
衍	-9.30753
寶	-9.30842
寢	-9.30968
啼	-9.31075
稿	-9.31098
斜	-9.31146
墮	-9.31188
者非	-9.31338
未能	-9.31392
銘曰	-9.31437
徹	-9.31543
尾	-9.31585
貌	-9.31588
午	-9.31624
誇	-9.31649
鑒	-9.31672
弄	-9.31695
朱子	-9.3172
禹	-9.31721
衣冠	-9.31881
黨	-9.31995
逃	-9.32404
羞	-9.32467
黃	-9.32543
饑	-9.32571
稽	-9.32592
區區	-9.32603
江湖	-9.32656
富貴	-9.3289
見其	-9.33038
裕	-9.33165
一旦	-9.33236
以此	-9.33329
隣	-9.33356
司馬	-9.33381
而為	-9.33465
亨	-9.33506
之法	-9.33607
少年	-9.33723
伸	-9.33861
人生	-9.33883
況	-9.33924
輿	-9.33953
霧	-9.33959
欺	-9.3399
之中	-9.33999
倉	-9.34
古之	-9.34062
五月	-9.34126
艱	-9.34194
雞	-9.34315
勲	-9.34391
麟	-9.3444
知其	-9.3456
濕	-9.34597
有以	-9.34632
㢤	-9.34693
之所以	-9.34694
芙蓉	-9.34746
側	-9.34788
刺	-9.34799
增	-9.34818
檄	-9.35074
海内	-9.35193
鄉人	-9.35201
倦	-9.35202
峻	-9.35297
膺	-9.35302
泛	-9.35304
二月	-9.3532
眞	-9.35364
二年	-9.3538
曰此	-9.35395
梅花	-9.35432
惑	-9.35454
罔	-9.35475
潛	-9.35574
而又	-9.3563
澹	-9.35646
太史	-9.35704
垣	-9.35714
陋	-9.35727
誅	-9.35821
范	-9.35851
山東	-9.35862
割	-9.35893
辯	-9.35937
彭	-9.35997
叅	-9.36138
中丞	-9.36224
山人	-9.3629
孚	-9.36334
倍	-9.36359
杖	-9.36422
其地	-9.36521
馮	-9.36555
長者	-9.36807
無窮	-9.36812
之日	-9.3684
喻	-9.36842
以自	-9.36846
遍	-9.36855
潜	-9.3689
汪	-9.37041
飯	-9.37045
杯	-9.37088
像	-9.37122
枕	-9.37178
淳	-9.37253
援	-9.37368
恵	-9.37486
憑	-9.37691
歸來	-9.37899
錯	-9.38064
其意	-9.38067
宰	-9.38113
茶	-9.38115
滋	-9.38143
致仕	-9.38185
八月	-9.38206
悔	-9.38336
提	-9.38397
㸃	-9.38435
聘	-9.38546
焚	-9.38649
摧	-9.38675
䖏	-9.3883
釣	-9.38928
豈非	-9.3948
脫	-9.39497
堯	-9.39639
子弟	-9.39674
紙	-9.39746
臣等	-9.39784
桑	-9.39811
奸	-9.39896
滯	-9.39993
頓	-9.40013
得其	-9.40016
得之	-9.40019
渾	-9.40045
暨	-9.40095
侍御	-9.40131
竭	-9.40147
矣然	-9.40149
融	-9.40162
較	-9.40302
之子	-9.40308
然則	-9.40386
諸子	-9.40386
帥	-9.40387
倡	-9.40417
辰	-9.40457
禮樂	-9.40475
貽	-9.40482
逾	-9.40505
驗	-9.40528
擅	-9.40556
閲	-9.40558
乎其	-9.40582
觸	-9.40625
)(	-9.40769
鹽	-9.40791
禽	-9.40811
瓊	-9.40849
戍	-9.40865
訟	-9.41051
不在	-9.41138
禮部	-9.41197
輪	-9.41249
人皆	-9.41251
炎	-9.41332
削	-9.41339
夙	-9.41382
六十	-9.41391
局	-9.41461
又曰	-9.41493
停	-9.41565
一切	-9.41597
盗	-9.41606
褒	-9.41666
是非	-9.4186
涉	-9.41973
其父	-9.42142
尺	-9.42249
洗	-9.42296
詩書	-9.42343
者則	-9.42394
藻	-9.42642
挽	-9.4267
妾	-9.42701
庵	-9.42783
由是	-9.42835
之文	-9.42858
斥	-9.42863
江上	-9.4305
筵	-9.43172
其先	-9.43235
壇	-9.43298
一二	-9.43467
金陵	-9.43564
豫	-9.4358
昨	-9.43625
逝	-9.43752
知之	-9.43798
荆	-9.43814
之民	-9.43867
低	-9.44028
驕	-9.44179
蚤	-9.44251
太夫人	-9.44278
皆有	-9.44323
翰	-9.44327
潭	-9.44337
邀	-9.44434
懽	-9.44446
如是	-9.44469
寂	-9.445
淡	-9.44502
額	-9.44614
祗	-9.44682
抗	-9.4475
穆	-9.4475
忌	-9.44767
恤	-9.44869
諸侯	-9.44963
肉	-9.44965
界	-9.44995
矢	-9.45008
南北	-9.45064
津	-9.45067
攝	-9.45078
奈何	-9.45104
塗	-9.4516
從容	-9.45163
乏	-9.45188
餉	-9.45211
牽	-9.45302
旗	-9.45304
辦	-9.45323
墜	-9.45353
従	-9.45414
使人	-9.45415
劒	-9.45553
苑	-9.45686
樵	-9.4573
髪	-9.45769
戀	-9.45846
盟	-9.46055
耀	-9.46296
姿	-9.46305
蓬	-9.46322
健	-9.4643
銜	-9.46439
甞	-9.46444
恃	-9.46515
賓	-9.46535
誼	-9.46557
添	-9.46563
戲	-9.46572
慚	-9.46616
遐	-9.46618
價	-9.46619
話	-9.46776
悦	-9.47145
小人	-9.47178
百里	-9.47228
纔	-9.4742
五十	-9.47491
次韻	-9.47493
之故	-9.47581
不肯	-9.47595
時時	-9.47649
寸	-9.47678
徧	-9.4768
弓	-9.47776
迺	-9.47781
袁	-9.47788
詣	-9.47869
殁	-9.47961
標	-9.47991
㓜	-9.48032
先生之	-9.48045
又有	-9.48067
衝	-9.48085
爽	-9.48104
伍	-9.48167
明日	-9.48197
咨	-9.48257
偽	-9.48283
懋	-9.48283
眉	-9.4835
未嘗不	-9.48414
湘	-9.48488
不幸	-9.48499
鑑	-9.48526
而下	-9.48585
溢	-9.48603
黄金	-9.48619
攸	-9.48719
何人	-9.48768
攜	-9.4884
漁	-9.48878
使者	-9.48881
熊	-9.48909
採	-9.48974
弟子	-9.49017
鐵	-9.49033
敝	-9.49055
十月	-9.49066
羡	-9.49111
㫁	-9.49228
以其	-9.49282
閱	-9.49298
戸	-9.49333
捕	-9.49354
潘	-9.49366
儉	-9.49433
則有	-9.49475
也吾	-9.49508
案	-9.49544
迂	-9.49764
胥	-9.50037
播	-9.50043
見之	-9.501
無事	-9.50208
顛	-9.50237
𥘉	-9.50371
王公	-9.50397
随	-9.50431
斬	-9.50447
矜	-9.50486
后	-9.50508
之曰	-9.50509
壑	-9.5059
故曰	-9.50607
囊	-9.50731
着	-9.50836
勒	-9.50858
頃	-9.50934
蒲	-9.50981
刀	-9.51143
腹	-9.51185
倘	-9.51225
歛	-9.5133
今之	-9.51346
之說	-9.51348
練	-9.51437
束	-9.5154
茲	-9.51698
萬物	-9.51702
闢	-9.51715
矧	-9.51735
専	-9.51789
太學	-9.51827
肥	-9.51842
相逢	-9.5202
繇	-9.52074
属	-9.52151
穿	-9.52211
桃	-9.52262
二十	-9.52298
觧	-9.52328
第一	-9.52351
欽定四庫全書	-9.52374
周公	-9.52381
郎中	-9.52464
捐	-9.52671
駐	-9.52802
鹿	-9.52819
茅	-9.5285
枉	-9.52896
行之	-9.53063
飭	-9.53137
至是	-9.53236
男	-9.53265
迫	-9.53309
彰	-9.5336
清風	-9.53457
不至	-9.53514
涼	-9.53673
之徒	-9.5373
伊	-9.53731
冊	-9.53777
渚	-9.53863
浩	-9.53915
導	-9.53943
諫	-9.5396
恥	-9.53966
磨	-9.54113
緒	-9.54138
謫	-9.5415
創	-9.54234
飄	-9.54234
乍	-9.54351
已而	-9.54421
攀	-9.54445
浮雲	-9.54457
謬	-9.54511
三日	-9.5452
製	-9.54531
宵	-9.54595
所為	-9.54664
弔	-9.54707
蓮	-9.54808
一言	-9.54871
蕃	-9.54982
暢	-9.55032
巡	-9.55062
紛紛	-9.55113
海上	-9.5513
其為	-9.55146
翰林	-9.55241
範	-9.55276
冒	-9.55305
整	-9.5531
勵	-9.55466
侈	-9.55488
九月	-9.55555
八十	-9.55577
銷	-9.55593
後人	-9.55628
繡	-9.55686
簾	-9.55716
風流	-9.55727
羨	-9.55747
群	-9.55774
兆	-9.55818
檢	-9.55851
醒	-9.55867
之説	-9.5606
於人	-9.56125
襟	-9.56151
功名	-9.56191
諒	-9.56205
綺	-9.56213
怠	-9.56292
落日	-9.56325
文學	-9.56328
東風	-9.56446
流水	-9.56449
南山	-9.56452
則又	-9.565
飽	-9.56504
憤	-9.56513
喧	-9.56551
姦	-9.56674
中有	-9.56682
永樂	-9.56699
曰是	-9.56781
状	-9.56812
使君	-9.56851
誥	-9.57129
監察御史	-9.57279
亮	-9.57292
而有	-9.57428
以示	-9.57476
之至	-9.57507
雖然	-9.57519
東西	-9.5762
鄒	-9.57657
之不	-9.57682
溺	-9.57686
媚	-9.57733
證	-9.57747
是故	-9.57793
綱	-9.57825
蹈	-9.57831
斂	-9.58007
勅	-9.58132
前後	-9.58158
伴	-9.58192
減	-9.58195
子之	-9.58305
風塵	-9.58337
協	-9.58346
之上	-9.58507
荅	-9.5851
祈	-9.5852
若是	-9.58524
者又	-9.58542
其名	-9.5869
民之	-9.58862
嵩	-9.5889
門下	-9.58903
邁	-9.58924
揺	-9.58977
為人	-9.59037
同年	-9.59075
不易	-9.59118
文字	-9.59162
衞	-9.59228
渉	-9.59241
芝	-9.59269
不朽	-9.59298
草木	-9.59327
山林	-9.59597
不待	-9.59646
毒	-9.59679
固有	-9.59928
魁	-9.60322
促	-9.60343
上人	-9.60377
榜	-9.60389
圃	-9.60489
遙	-9.60495
拔	-9.6051
塲	-9.60544
限	-9.60606
若此	-9.60668
傑	-9.60673
矣夫	-9.6076
若干	-9.60809
可也	-9.60942
朗	-9.60987
腸	-9.61159
衷	-9.612
繩	-9.61372
君子之	-9.61384
効	-9.61392
唱	-9.6148
𨽻	-9.61499
洽	-9.61534
暖	-9.61555
災	-9.61571
雖有	-9.61632
是也	-9.61726
麥	-9.6177
人情	-9.61871
者以	-9.61884
搆	-9.61895
鑿	-9.61912
用之	-9.62006
無人	-9.6213
僻	-9.6213
終身	-9.62174
四月	-9.62215
苔	-9.62271
子曰	-9.62347
不聞	-9.62433
終日	-9.62482
貲	-9.62482
宜人	-9.62494
葛	-9.62521
叟	-9.62651
廉	-9.62665
噫	-9.62902
梓	-9.62957
蓄	-9.62977
蔵	-9.6298
文武	-9.63034
三十	-9.6306
豈無	-9.63101
鞭	-9.63116
何時	-9.63118
綠	-9.63152
當年	-9.63217
之則	-9.63502
令人	-9.63536
徽	-9.63537
不用	-9.63614
王氏	-9.63628
洛	-9.63803
二十年	-9.63837
埀	-9.63845
障	-9.63906
徘徊	-9.63919
飢	-9.6397
浙	-9.63978
矯	-9.6409
絃	-9.64108
日夜	-9.64121
簷	-9.64147
詢	-9.64167
而能	-9.64227
之賢	-9.64253
之才	-9.64264
有子	-9.64395
暇	-9.64456
仁義	-9.6446
慨	-9.6448
千年	-9.64483
鬢	-9.6454
主人	-9.64679
榻	-9.64685
不欲	-9.64711
墳	-9.64713
往來	-9.6488
賢者	-9.64881
陟	-9.64901
之於	-9.64906
桃花	-9.64913
廣東	-9.64941
卓	-9.64953
裂	-9.6497
公以	-9.65107
握	-9.65166
此心	-9.65221
不堪	-9.65319
朋	-9.65383
父老	-9.65387
襄	-9.65495
奴	-9.6562
郷	-9.65648
畔	-9.65701
自有	-9.65728
草堂	-9.65846
龜	-9.6588
不自	-9.65901
座	-9.66016
谿	-9.66085
黒	-9.66119
七月	-9.66284
軰	-9.66288
之命	-9.66331
安人	-9.66475
涵	-9.66584
精神	-9.66668
眷	-9.66706
黎	-9.66719
邵	-9.66835
湖廣	-9.66887
俞	-9.66922
壊	-9.66932
彈	-9.66955
知縣	-9.66995
者有	-9.67094
䟦	-9.67114
岩	-9.67258
鄧	-9.67324
態	-9.67366
孝子	-9.67376
嶽	-9.6741
幹	-9.67567
析	-9.67643
主事	-9.67801
擾	-9.67886
廻	-9.67931
及其	-9.67938
天上	-9.67979
沾	-9.68
其親	-9.68097
五年	-9.68105
金華	-9.68109
士之	-9.68147
窓	-9.68201
揮	-9.68258
賦詩	-9.68289
台	-9.68347
榖	-9.68496
亦何	-9.68527
以求	-9.68587
姚	-9.68629
雕	-9.68639
銅	-9.68663
碩	-9.68674
千秋	-9.68689
誌	-9.68695
未幾	-9.68696
准	-9.68719
料	-9.68793
未及	-9.68865
巾	-9.68871
姬	-9.68904
耳目	-9.68916
行人	-9.68936
染	-9.68939
遜	-9.6901
欵	-9.69053
韶	-9.69132
壓	-9.69243
閉	-9.69328
則其	-9.69522
嫌	-9.69527
丞相	-9.6955
蕭蕭	-9.69728
數年	-9.69767
蠻	-9.69784
先後	-9.69931
詩序	-9.70012
剪	-9.70069
既而	-9.70074
夾	-9.7008
不相	-9.70133
踏	-9.70154
與之	-9.70225
誓	-9.7024
哲	-9.70337
齡	-9.7037
頼	-9.70514
拘	-9.70524
排	-9.70543
判	-9.70551
欣	-9.70652
淫	-9.7068
所至	-9.70705
皇帝	-9.70876
侍郎	-9.70902
緣	-9.70946
寃	-9.71005
穴	-9.71117
聖明	-9.71136
者不	-9.71153
霽	-9.71187
丈夫	-9.71201
疇	-9.71224
乖	-9.71235
久之	-9.71272
駭	-9.71295
其文	-9.71338
翩翩	-9.71342
悼	-9.71374
層	-9.71511
之情	-9.71512
自然	-9.71514
進退	-9.7156
祿	-9.71625
朔	-9.71683
白頭	-9.71723
西山	-9.7176
不出	-9.71769
成化	-9.71789
千金	-9.71793
馭	-9.71811
篆	-9.71846
不獲	-9.71924
中原	-9.71973
嫁	-9.71987
陪	-9.71999
詎	-9.7206
不免	-9.72124
嚮	-9.72139
也哉	-9.72336
寂寞	-9.72373
至于	-9.72376
而不能	-9.72518
四十	-9.72556
肇	-9.72585
暑	-9.7267
不是	-9.72773
織	-9.72828
畜	-9.7285
幕	-9.72883
鄉里	-9.72908
薛	-9.72979
踐	-9.7299
槩	-9.73003
孝友	-9.73029
何所	-9.73072
也予	-9.73086
青雲	-9.73209
包	-9.73325
扇	-9.73424
不識	-9.73441
㢘	-9.73461
驟	-9.73491
韋	-9.73649
熱	-9.73839
不少	-9.73889
中外	-9.73934
十五	-9.73957
禱	-9.74078
宮	-9.7408
於斯	-9.74152
邇	-9.74204
秘	-9.74382
翳	-9.74422
姪	-9.74578
天涯	-9.74681
討	-9.74738
疊	-9.7478
各有	-9.74805
而不知	-9.74871
膏	-9.74944
彩	-9.74985
賣	-9.75045
昧	-9.75058
相見	-9.75143
扁舟	-9.75214
雁	-9.75254
道之	-9.75274
之行	-9.75282
互	-9.75296
求之	-9.75379
濤	-9.75457
爛	-9.75486
一朝	-9.75508
籠	-9.75671
得以	-9.75683
俸	-9.75772
自古	-9.75845
夭	-9.76083
無以	-9.76094
也則	-9.76162
貨	-9.76177
嵗月	-9.76239
牀	-9.76243
數十	-9.76283
活	-9.76336
跋	-9.7634
而弗	-9.76389
匿	-9.76397
回首	-9.76431
恱	-9.76462
髮	-9.76473
飬	-9.76526
家人	-9.76549
罰	-9.76555
塔	-9.7661
朴	-9.76664
萬古	-9.76795
正月	-9.76872
庻	-9.76892
也公	-9.77126
諧	-9.77182
㧞	-9.77225
六年	-9.77329
混	-9.77363
摩	-9.77394
茫茫	-9.77513
崔	-9.77583
三十年	-9.77612
於世	-9.77874
學校	-9.77878
相望	-9.77977
而歸	-9.78032
項	-9.7806
正統	-9.78075
慧	-9.7814
故事	-9.78147
蟲	-9.78192
一身	-9.78295
又何	-9.78323
次第	-9.78324
帆	-9.78353
大父	-9.78377
蛇	-9.78379
熈	-9.78435
棹	-9.78452
叛	-9.78502
喬	-9.78513
逼	-9.78609
白髪	-9.78632
鱗	-9.78704
先君	-9.78738
此日	-9.788
輯	-9.78824
不覺	-9.78835
也又	-9.78862
懶	-9.78912
山西	-9.78913
焉而	-9.78933
二人	-9.78999
仗	-9.79017
視之	-9.79018
以下	-9.79159
懿	-9.79229
浙江	-9.79273
𢎞治	-9.79292
書院	-9.79339
教之	-9.79358
者曰	-9.79444
西風	-9.7947
公曰	-9.79541
做	-9.79589
其能	-9.79653
洞庭	-9.79757
沮	-9.79769
也若	-9.79861
誕	-9.79918
之名	-9.79986
柱	-9.8006
貳	-9.80174
勁	-9.80182
之氣	-9.80201
凢	-9.80227
陣	-9.80272
妖	-9.80275
綴	-9.80285
久矣	-9.80314
淹	-9.80344
張公	-9.80381
而卒	-9.80411
䏻	-9.8048
六經	-9.80677
堯舜	-9.8072
人人	-9.80732
疲	-9.80933
三千	-9.81033
晏	-9.81102
所得	-9.81115
之下	-9.81175
教授	-9.81199
評	-9.81231
三代	-9.81256
風吹	-9.81271
誰能	-9.81366
中書	-9.81385
几	-9.81439
樞	-9.81472
牙	-9.81484
不容	-9.81565
隅	-9.81588
蹤	-9.81589
旱	-9.81721
突	-9.81731
簿	-9.81852
夕陽	-9.81867
瓦	-9.81943
俄	-9.82023
懇	-9.8205
僚	-9.8206
九日	-9.82109
臯	-9.82113
叩	-9.8213
逺近	-9.82141
四年	-9.82175
天之	-9.82176
黜	-9.82184
之樂	-9.82254
漕	-9.82395
以告	-9.82448
䑓	-9.82594
弼	-9.82611
慷慨	-9.82653
之風	-9.82655
壮	-9.82709
郡縣	-9.82709
鋒	-9.82924
㕘	-9.82928
寔	-9.8294
恕	-9.82983
不與	-9.83103
墻	-9.83194
涕	-9.83343
鬼神	-9.8336
區	-9.83437
正徳	-9.83488
坡	-9.83624
幻	-9.83641
百姓	-9.83788
泊	-9.83794
恣	-9.83956
道路	-9.84098
其才	-9.8411
距	-9.84148
諸君	-9.84287
而已矣	-9.84289
楹	-9.8429
携	-9.84304
者哉	-9.8436
咎	-9.84362
出處	-9.84456
慙	-9.84738
雍	-9.84741
囬	-9.84759
所見	-9.84775
壤	-9.84848
聨	-9.84852
美人	-9.84892
之政	-9.8495
巡撫	-9.84985
坊	-9.85132
其道	-9.85202
其餘	-9.85255
虜	-9.85281
公子	-9.85351
槐	-9.85425
不當	-9.85437
頂	-9.8544
為我	-9.85458
庫	-9.85539
冲	-9.85584
單	-9.85677
忝	-9.8577
太孺人	-9.85795
毅	-9.85818
叨	-9.85831
侣	-9.85847
不受	-9.85857
學問	-9.85892
穀	-9.86003
湏	-9.86029
頑	-9.86033
不死	-9.86039
鼔	-9.86041
岑	-9.8605
濬	-9.86064
獵	-9.86169
詭	-9.86196
掛	-9.86254
先是	-9.86322
㝠	-9.86336
之類	-9.86576
別	-9.86674
只是	-9.86675
始終	-9.86724
十一	-9.86863
蓬萊	-9.86982
是時	-9.87003
嗜	-9.87088
又以	-9.87094
捷	-9.8711
瑶	-9.87154
猶未	-9.87178
節婦	-9.87186
誨	-9.87196
帳	-9.87201
者為	-9.87244
大小	-9.87286
濂	-9.87379
濫	-9.87455
芳草	-9.87467
十日	-9.87541
金石	-9.87542
隴	-9.87543
意氣	-9.87611
壘	-9.8779
李公	-9.87824
迨	-9.87826
莫能	-9.87857
轍	-9.8787
掠	-9.87908
之臣	-9.87931
栢	-9.88052
之美	-9.88058
壺	-9.88068
戾	-9.88082
寅	-9.88084
冩	-9.88098
虹	-9.88157
藴	-9.8816
君臣	-9.88268
躍	-9.88307
栖	-9.88319
不已	-9.88329
柯	-9.8834
燒	-9.88342
儒者	-9.8837
刼	-9.88389
使之	-9.88528
隂陽	-9.88589
故鄉	-9.88589
有言	-9.88621
便是	-9.88654
福建	-9.88681
萃	-9.88768
咫尺	-9.88816
樸	-9.88839
濃	-9.88868
亦無	-9.88979
醇	-9.89063
可憐	-9.89071
十三	-9.89075
浸	-9.89078
幣	-9.892
鉅	-9.89222
廬陵	-9.89291
此其	-9.89345
所居	-9.89372
或有	-9.89382
躋	-9.89383
風俗	-9.89445
以成	-9.8945
從事	-9.89513
之謂	-9.89923
匡	-9.89948
相思	-9.90006
相繼	-9.90057
凍	-9.90116
仙人	-9.90261
見於	-9.90429
頒	-9.9043
徼	-9.90484
措	-9.9049
羙	-9.90508
言者	-9.90564
故其	-9.90602
廵	-9.90611
郡守	-9.90626
一笑	-9.9067
冝	-9.907
也乃	-9.90714
仇	-9.90717
禦	-9.9073
打	-9.9075
未必	-9.90769
掲	-9.90832
奥	-9.90863
媿	-9.90905
網	-9.90951
傲	-9.90988
神仙	-9.91051
亦可	-9.91113
何必	-9.91132
七年	-9.91171
蔣	-9.91175
軌	-9.91306
歿	-9.91323
其所以	-9.91353
構	-9.91371
忤	-9.91403
綿	-9.91423
先人	-9.9144
矣今	-9.91471
截	-9.91494
焦	-9.91598
懲	-9.91694
湛	-9.91797
者固	-9.9184
遂以	-9.91853
籌	-9.91975
勘	-9.91987
其行	-9.92108
良知	-9.92165
員	-9.92211
以致	-9.92213
皮	-9.92217
當是時	-9.92268
捧	-9.92291
拱	-9.92318
生平	-9.92322
猶有	-9.92336
祖宗	-9.92369
與其	-9.92371
之教	-9.92444
教諭	-9.92663
卽	-9.92715
墓誌銘	-9.92721
濁	-9.9276
坤	-9.92768
苗	-9.92779
蹇	-9.92834
未盡	-9.92846
之書	-9.92879
泰和	-9.92935
粗	-9.9298
旬	-9.92998
讀之	-9.93008
収	-9.93056
濶	-9.93075
岐	-9.93122
豈有	-9.93222
之詩	-9.93235
零	-9.93243
奔走	-9.93302
償	-9.93386
縉紳	-9.93402
忩	-9.93456
棘	-9.93492
其母	-9.93573
之作	-9.9359
薪	-9.93591
技	-9.93622
人物	-9.93632
萬世	-9.93635
凶	-9.93694
月明	-9.93699
遁	-9.93707
中國	-9.93787
邈	-9.93835
二公	-9.93948
以至	-9.93977
廼	-9.94018
為文	-9.94052
友人	-9.94069
舌	-9.94119
無復	-9.94145
不負	-9.94172
何事	-9.94218
而去	-9.94234
摘	-9.9424
酣	-9.94293
尚有	-9.94331
玄	-9.94404
遼	-9.94408
這	-9.94417
箇	-9.9442
兵部	-9.94437
訴	-9.94505
弛	-9.94537
需	-9.9466
暉	-9.94675
勑	-9.94682
勉之	-9.94686
百世	-9.94738
十一月	-9.94762
先世	-9.94803
陳氏	-9.94811
慘	-9.94811
不失	-9.94895
飲食	-9.94899
僉事	-9.94902
江山	-9.94938
之初	-9.95027
嗟乎	-9.95053
何日	-9.95076
至正	-9.95076
桐	-9.95086
牘	-9.95105
埋	-9.95136
函	-9.95138
屠	-9.95319
汗	-9.95378
稅	-9.95402
謨	-9.95461
纎	-9.95474
三百	-9.9551
四首	-9.95578
副使	-9.9558
十二月	-9.95667
都御史	-9.95699
挺	-9.95701
君不見	-9.95716
東海	-9.95721
之難	-9.95763
袖	-9.95763
斯文	-9.95766
蹟	-9.95767
老人	-9.95791
隘	-9.95794
其實	-9.95909
拒	-9.95948
峙	-9.95972
得失	-9.96093
臥	-9.9615
公諱	-9.96153
狎	-9.96207
徃徃	-9.96237
萬一	-9.96319
五色	-9.96354
東山	-9.96379
耗	-9.96419
竄	-9.96451
税	-9.96486
疆	-9.96553
白首	-9.96565
死者	-9.96602
嘯	-9.96604
者多	-9.96614
有聲	-9.96622
囚	-9.96631
咏	-9.96635
其三	-9.96666
鈎	-9.96891
其學	-9.96917
淪	-9.96945
其有	-9.96952
蘿	-9.97202
裝	-9.97217
至此	-9.9722
以故	-9.9732
社稷	-9.97364
陂	-9.97369
儼	-9.97431
批	-9.97444
書之	-9.97487
為君	-9.97684
雨露	-9.97718
撥	-9.97721
汚	-9.97722
滄海	-9.97725
眺	-9.97746
太常	-9.97789
神明	-9.97801
慨然	-9.9781
淸	-9.9784
隙	-9.9786
菜	-9.9789
忠孝	-9.97902
諸君子	-9.97912
聖天子	-9.97916
二三	-9.97946
惓惓	-9.97948
槖	-9.98084
雲南	-9.98236
普	-9.98276
憲副	-9.98299
嬰	-9.98337
怡	-9.98385
鷄	-9.9843
􁀙	-9.98467
之制	-9.98524
圭	-9.98524
愛之	-9.98665
譏	-9.98674
逕	-9.98707
郡邑	-9.98707
天理	-9.98723
臻	-9.98741
馴	-9.98752
從之	-9.98818
姜	-9.98828
貸	-9.98874
舉進士	-9.98959
天道	-9.98962
詐	-9.98972
之先	-9.99027
之徳	-9.99087
憫	-9.9909
相對	-9.99096
去年	-9.99113
䕃	-9.99173
也余	-9.99187
粤	-9.99214
靣	-9.99256
於天下	-9.99312
以待	-9.99368
奬	-9.99388
國朝	-9.99392
西湖	-9.99396
十八	-9.99412
僊	-9.9944
九重	-9.99535
夣	-9.99615
劾	-9.99617
指揮	-9.99724
知府	-9.99785
博士	-9.99837
而復	-9.9984
扉	-9.99857
床	-9.99888
裔	-9.99902
棺	-9.99912
安能	-9.99955
周旋	-9.99955
車馬	-9.99989
治之	-10
觀其	-10.0001
青天	-10.0001
挂	-10.0004
窻	-10.0004
皆以	-10.0006
裳	-10.0013
煥	-10.0015
一年	-10.0016
苐	-10.0017
匹	-10.0019
也雖然	-10.002
戈	-10.0023
所在	-10.0029
之禮	-10.0032
畵	-10.004
所當	-10.005
肩	-10.0056
猷	-10.006
訊	-10.006
以俟	-10.0064
而公	-10.0066
拾	-10.0067
魄	-10.0076
亦以	-10.0076
㓂	-10.0081
淑人	-10.0088
粹	-10.0088
笛	-10.009
恬	-10.0093
大抵	-10.0095
汙	-10.0096
其民	-10.0101
王君	-10.0103
風雲	-10.0104
罕	-10.0104
觀之	-10.0106
為政	-10.0109
堤	-10.0111
搜	-10.0117
天台	-10.0118
腰	-10.012
逋	-10.0125
電	-10.0141
聖人之	-10.0148
公為	-10.0157
妍	-10.016
册	-10.0168
派	-10.0175
悵	-10.0178
生於	-10.0181
劉氏	-10.0189
猿	-10.0198
斯人	-10.0205
舘	-10.0206
註	-10.0215
政事	-10.0217
寨	-10.0232
冰	-10.0232
歇	-10.0232
踵	-10.0233
之論	-10.0242
之變	-10.0245
之原	-10.0245
濯	-10.0247
給事	-10.0255
算	-10.0267
溝	-10.0269
西北	-10.0276
死生	-10.0285
之理	-10.0286
於今	-10.0289
方伯	-10.0292
偃	-10.0293
餞	-10.0294
壻	-10.0301
乎哉	-10.0304
老成	-10.0306
片	-10.0307
驥	-10.031
日暮	-10.031
盍	-10.0318
陜西	-10.0321
裘	-10.0323
晝夜	-10.0323
人有	-10.0324
乎此	-10.0326
睦	-10.0327
望之	-10.0332
不許	-10.0336
罹	-10.0336
講學	-10.0338
時有	-10.0344
門人	-10.0344
睡	-10.0345
張氏	-10.0351
旦夕	-10.0352
荘	-10.0354
諌	-10.0357
題詩	-10.0358
板	-10.036
不一	-10.0365
變化	-10.0367
倐	-10.0367
乳	-10.0368
吾兄	-10.0368
此時	-10.0369
八年	-10.037
尉	-10.0372
憚	-10.0373
綵	-10.0379
消息	-10.0389
之用	-10.0392
家居	-10.0397
柄	-10.0399
十六	-10.0403
元年	-10.0407
譚	-10.0412
里中	-10.0412
公卿	-10.0413
邸	-10.0414
揭	-10.0414
他人	-10.0419
求其	-10.042
居士	-10.042
墟	-10.0423
䖍	-10.0424
詰	-10.0425
桃李	-10.043
閔	-10.0433
衢	-10.0439
麻	-10.0444
蕪	-10.0448
杭	-10.0455
一首	-10.0455
之役	-10.046
未可	-10.0465
不啻	-10.0468
俯仰	-10.0469
帷	-10.0473
不獨	-10.0478
年年	-10.0483
不成	-10.0486
軸	-10.049
錢塘	-10.0493
聰	-10.0501
謂其	-10.0502
而巳	-10.051
恠	-10.0513
無他	-10.0517
道中	-10.0519
昔人	-10.0527
以上	-10.053
脚	-10.0531
妃	-10.0538
炳	-10.055
灘	-10.0562
一家	-10.0562
崑山	-10.0566
膚	-10.0567
先生曰	-10.0575
賁	-10.0577
鴉	-10.0582
秋色	-10.0583
國之	-10.0584
輟	-10.0587
鈞	-10.0596
蠧	-10.0601
巷	-10.0605
夫婦	-10.0613
所稱	-10.0615
春日	-10.0622
箴	-10.0622
卦	-10.0625
謾	-10.0625
一見	-10.0638
惟有	-10.0643
灑	-10.0651
牌	-10.0655
北京	-10.0659
數日	-10.0671
古者	-10.0672
無恙	-10.0674
不作	-10.0683
厓	-10.0687
何其	-10.0695
童子	-10.0697
之内	-10.0699
不亦	-10.071
不宜	-10.0711
州縣	-10.0711
藤	-10.0717
𤓰	-10.0717
虧	-10.0718
一事	-10.0722
造化	-10.0724
粉	-10.0724
九年	-10.0724
碎	-10.0725
道也	-10.0729
十里	-10.0732
沐	-10.0733
不暇	-10.074
爲之	-10.0744
昇	-10.0745
闌	-10.0745
桓	-10.0747
之治	-10.0752
同知	-10.0755
愆	-10.0762
有感	-10.077
同心	-10.0771
牆	-10.0771
大學	-10.0782
有序	-10.0783
祚	-10.0789
壞	-10.079
事業	-10.0793
四時	-10.0799
然也	-10.0807
朋友	-10.0808
禀	-10.0809
租	-10.0813
庇	-10.0817
逺矣	-10.0817
牒	-10.0822
之任	-10.0832
世家	-10.0837
艾	-10.0842
天命	-10.0848
廣西	-10.0849
故園	-10.0853
脉	-10.0854
豪傑	-10.0854
沿	-10.0858
鷗	-10.0858
控	-10.0861
何足	-10.0862
縱横	-10.0863
猛	-10.0863
三首	-10.0869
鶯	-10.0873
揆	-10.0877
霄	-10.0878
未易	-10.0881
淨	-10.0883
也嗚呼	-10.0884
閭	-10.0884
城南	-10.0887
於天	-10.0891
坦	-10.0893
不厭	-10.0901
誘	-10.0904
灣	-10.0905
為善	-10.0908
臂	-10.0909
雖不	-10.0914
灌	-10.0915
工部	-10.0916
矩	-10.0916
弦	-10.0919
三人	-10.0928
之罪	-10.0938
其一	-10.0942
利害	-10.0943
矣其	-10.0943
宛	-10.0944
徇	-10.0946
於時	-10.0948
道士	-10.095
護	-10.0952
崩	-10.0952
瘦	-10.0961
未得	-10.0966
槎	-10.0968
祇	-10.0973
玉堂	-10.0974
可見	-10.0976
豫章	-10.0987
或曰	-10.0989
麓	-10.0994
慢	-10.0996
綏	-10.0999
峽	-10.1005
婉	-10.1006
狐	-10.1007
級	-10.1015
王子	-10.1017
挹	-10.1018
森	-10.1019
有一	-10.103
妣	-10.1035
畝	-10.1037
布衣	-10.1042
無愧	-10.1045
人事	-10.1045
巴	-10.1064
哨	-10.1065
冥	-10.1071
纓	-10.1076
之業	-10.1078
大義	-10.1079
其情	-10.1082
鵬	-10.1083
遶	-10.1084
將以	-10.1102
太學生	-10.1103
毫	-10.1105
頽	-10.1106
汀	-10.1107
阜	-10.1107
寇	-10.1124
昔者	-10.1129
一一	-10.1131
頴	-10.1136
虐	-10.1138
牕	-10.1139
株	-10.114
灰	-10.1142
之職	-10.1147
學之	-10.1154
些	-10.1155
樊	-10.1157
珮	-10.1157
出門	-10.1163
認	-10.1166
而非	-10.1168
不合	-10.1172
禾	-10.1177
有二	-10.1178
匠	-10.1181
釐	-10.1183
登臨	-10.1184
顔色	-10.1188
十四	-10.1188
先公	-10.1188
竿	-10.1189
僉	-10.1192
記之	-10.1193
場	-10.1199
不行	-10.1205
測	-10.1216
未知	-10.1216
工夫	-10.1217
謗	-10.1218
庶㡬	-10.1225
綸	-10.1229
遏	-10.1233
於家	-10.1234
域	-10.124
李氏	-10.1246
吾子	-10.1249
濡	-10.1249
從此	-10.1255
軀	-10.1262
其功	-10.127
有志	-10.1277
門外	-10.1286
聳	-10.1287
江水	-10.1289
以歸	-10.1296
大人	-10.1296
萬事	-10.1298
敘	-10.1302
蟬	-10.1314
自謂	-10.1317
換	-10.1318
妻子	-10.1322
嬉	-10.1325
攬	-10.1325
黄河	-10.1335
者或	-10.1337
西南	-10.1342
相知	-10.1347
僉憲	-10.1351
之大	-10.1353
暝	-10.1366
太子	-10.1367
先王	-10.1371
等處	-10.1376
與君	-10.1382
絳	-10.1384
陳公	-10.1384
汎	-10.1388
杳	-10.1391
自得	-10.1393
之官	-10.1399
莆	-10.1401
之使	-10.1408
尚未	-10.1414
之數	-10.1414
道徳	-10.1415
不若	-10.1421
募	-10.1424
春色	-10.1427
佑	-10.1429
成功	-10.143
不起	-10.1434
之矣	-10.1434
張君	-10.1436
括	-10.1438
冗	-10.1443
雛	-10.1447
歐陽	-10.1447
天地之	-10.1448
葵	-10.145
焉則	-10.1453
是為	-10.1456
者乃	-10.1456
矣故	-10.1457
當世	-10.1459
團	-10.1469
讐	-10.1473
銓	-10.1476
奎	-10.1483
久而	-10.1493
椒	-10.1497
雀	-10.1498
骨肉	-10.1498
粲	-10.1502
之資	-10.1506
舟中	-10.1508
豁	-10.1509
擒	-10.151
沃	-10.1512
耻	-10.1515
聰明	-10.1515
縈	-10.1518
獸	-10.152
元氣	-10.1522
不須	-10.1532
不可不	-10.1544
何也	-10.1544
不知其	-10.1546
鄕	-10.1546
諡	-10.1549
耆	-10.1552
蒸	-10.1561
何為	-10.1565
户部	-10.1569
膠	-10.1574
渺	-10.1575
茹	-10.1576
雲中	-10.1582
楊氏	-10.1599
揖	-10.1601
姓名	-10.1604
覔	-10.1606
填	-10.1607
宇宙	-10.1608
湧	-10.1619
倭	-10.1622
十載	-10.1635
非有	-10.1635
文王	-10.1635
䘏	-10.1642
生死	-10.1651
逈	-10.1652
鬻	-10.1653
蒼蒼	-10.1657
尋常	-10.1657
夙夜	-10.1659
籬	-10.1667
甥	-10.1668
汲	-10.167
也自	-10.1671
寒暑	-10.1674
妨	-10.1675
蟠	-10.168
氏之	-10.1687
輕重	-10.1689
慿	-10.169
中間	-10.1694
歉	-10.1697
喚	-10.1697
其職	-10.1702
詩曰	-10.1706
穢	-10.1708
守令	-10.1712
萌	-10.1715
無一	-10.1722
瑾	-10.1725
鑄	-10.1727
檻	-10.1735
婁	-10.1736
其於	-10.1738
之私	-10.1739
斧	-10.1741
萬年	-10.1741
惰	-10.1742
訝	-10.1742
其本	-10.1742
之力	-10.1746
不樂	-10.1751
帛	-10.1753
也非	-10.1755
人以	-10.1756
而得	-10.1759
數月	-10.176
舅	-10.1763
其在	-10.1763
貯	-10.1767
賔客	-10.1768
提學	-10.1771
則曰	-10.1776
彊	-10.1777
躡	-10.178
無異	-10.178
爐	-10.1782
汴	-10.1784
陷	-10.1788
凋	-10.1789
等官	-10.1795
相傳	-10.1803
纂	-10.1808
九十	-10.1815
未至	-10.182
其可	-10.1822
不言	-10.1827
不逮	-10.1828
文獻	-10.1835
祐	-10.1838
辛	-10.1855
官軍	-10.1855
無可	-10.1856
繼之	-10.1859
熙	-10.1859
甲子	-10.186
聼	-10.1862
城中	-10.1866
也然則	-10.1871
者何	-10.1874
徳之	-10.1875
羈	-10.1876
芬	-10.1877
再拜	-10.1883
不善	-10.1901
縮	-10.1907
三尺	-10.1909
蔚	-10.1918
腐	-10.192
以慰	-10.1924
仲子	-10.1928
梧	-10.1929
其他	-10.1932
于是	-10.1932
分明	-10.1934
知君	-10.1934
吁	-10.1936
都憲	-10.1941
異日	-10.1942
有此	-10.1946
培	-10.1948
名曰	-10.195
沛	-10.1956
婚	-10.1959
白雪	-10.196
文辭	-10.1962
有功	-10.1969
所以為	-10.1977
栽	-10.1977
有不	-10.1978
鐡	-10.1979
後先	-10.1986
也是	-10.1986
丹青	-10.1989
日以	-10.1989
五日	-10.1991
繪	-10.1997
禎	-10.2001
其時	-10.2005
演	-10.2007
邱	-10.2007
奕	-10.2013
然其	-10.2017
撓	-10.2021
悠然	-10.2022
者歟	-10.2022
雉	-10.2022
潰	-10.2026
取其	-10.2032
三載	-10.2035
尸	-10.2037
騷	-10.204
訓導	-10.2042
山下	-10.2046
數百	-10.2053
不明	-10.2054
烹	-10.206
刑部	-10.2064
而行	-10.2064
錦衣	-10.2065
减	-10.207
退而	-10.2073
覈	-10.2087
中庸	-10.2095
栗	-10.211
布政司	-10.2115
一片	-10.2118
一念	-10.212
江東	-10.212
必以	-10.2123
於外	-10.2123
鐸	-10.2125
次適	-10.2128
憾	-10.2128
者盖	-10.213
滌	-10.2132
冶	-10.2132
寕	-10.2135
於是乎	-10.214
葺	-10.2148
畆	-10.2152
侯之	-10.2153
楊公	-10.2155
以文	-10.2159
以後	-10.2159
袂	-10.2168
蕭條	-10.2173
㑹稽	-10.2173
彛	-10.2174
贅	-10.2174
欲以	-10.2177
瑩	-10.2177
緘	-10.2179
之節	-10.2185
人家	-10.2186
有成	-10.2187
倪	-10.2188
豹	-10.219
南昌	-10.2194
隋	-10.2206
犬	-10.2213
起居	-10.2214
不止	-10.2214
不廢	-10.2226
餐	-10.2229
悍	-10.223
渭	-10.223
千萬	-10.2232
四川	-10.2236
吾道	-10.2242
而止	-10.2246
赫	-10.2253
𬒳	-10.2255
棟	-10.2257
司徒	-10.2259
其上	-10.2259
予嘗	-10.226
男子	-10.226
隄	-10.226
搖	-10.2261
售	-10.2261
跨	-10.2261
廩	-10.2263
起家	-10.2268
藍	-10.227
乃以	-10.2276
詩文	-10.228
模	-10.2281
劉公	-10.2286
使其	-10.2297
可知	-10.2301
什	-10.2304
蔬	-10.2313
攘	-10.2314
湖上	-10.2314
之恩	-10.2315
大江	-10.2318
畱	-10.2319
醜	-10.2321
同志	-10.2322
也此	-10.2323
感激	-10.2327
忙	-10.2331
失其	-10.2335
何由	-10.2335
歸省	-10.2336
凖	-10.2336
弱冠	-10.2336
其子孫	-10.2337
藁	-10.2339
鈔	-10.2345
為此	-10.2349
與人	-10.2359
一體	-10.2364
鋭	-10.237
日日	-10.2377
黑	-10.2383
瀆	-10.2384
天性	-10.2384
在此	-10.2386
若夫	-10.2398
十餘年	-10.2403
袍	-10.2403
作者	-10.2408
而成	-10.2409
輓	-10.2415
羣臣	-10.2422
禮義	-10.2425
秋水	-10.2431
曰我	-10.2431
衣食	-10.2431
年來	-10.2432
世間	-10.2436
給事中	-10.244
考績	-10.2441
宣徳	-10.2443
之勝	-10.2449
於心	-10.2449
冐	-10.245
恭人	-10.2452
長沙	-10.2454
曙	-10.2455
不絶	-10.2456
恊	-10.2458
闊	-10.2462
睿	-10.2469
相率	-10.2469
秪	-10.2474
萬厯	-10.2476
之實	-10.2476
因以	-10.2484
霑	-10.2486
受命	-10.2488
齎	-10.2488
鳩	-10.2492
白石	-10.25
若有	-10.2501
上書	-10.2508
架	-10.2509
出而	-10.2509
名家	-10.2512
粮	-10.2514
於民	-10.2515
於朝	-10.2516
多矣	-10.2517
紳	-10.252
歆	-10.2527
箭	-10.2527
皷	-10.2529
奉命	-10.2532
不能無	-10.255
戢	-10.2551
有時	-10.2553
君家	-10.2557
堂記	-10.2561
其徳	-10.2563
曽祖	-10.2565
焉其	-10.2573
斑	-10.2573
逍遥	-10.2578
歙	-10.2578
多少	-10.2579
頥	-10.2588
乃知	-10.2589
滴	-10.259
山之	-10.2593
烟霞	-10.2593
怯	-10.2595
段	-10.2596
窟	-10.26
朽	-10.2605
得人	-10.2608
所能	-10.261
睹	-10.2617
牲	-10.2617
邃	-10.2625
巫	-10.2629
其下	-10.2632
於公	-10.2633
無能	-10.2644
行事	-10.2649
以禮	-10.2651
此地	-10.2656
縣令	-10.2656
堆	-10.2663
慟	-10.2663
人所	-10.2667
訣	-10.2667
為國	-10.2669
䑕	-10.2669
復有	-10.2678
世貞	-10.268
于今	-10.2684
有道	-10.269
亦自	-10.269
嵗時	-10.2691
偷	-10.2704
㨗	-10.2705
不問	-10.2707
一字	-10.2713
畨	-10.2716
彷彿	-10.2717
抽	-10.2726
失之	-10.2727
柴	-10.273
吞	-10.2731
邑之	-10.2731
於後	-10.2737
有三	-10.2738
十七	-10.2741
議論	-10.2749
膽	-10.2749
識之	-10.2763
惆悵	-10.2765
多病	-10.2768
確	-10.2772
髙祖	-10.2776
司空	-10.2779
蠲	-10.2779
它	-10.2784
四明	-10.2785
鞠	-10.2791
可為	-10.2794
奈	-10.2795
一代	-10.28
竇	-10.2809
之典	-10.2812
國公	-10.2814
旨	-10.2817
髯	-10.2829
知己	-10.283
之世	-10.283
洒	-10.2832
紆	-10.2834
殫	-10.2837
曾祖	-10.2844
系	-10.2859
之流	-10.2864
姻	-10.2865
自愛	-10.2867
世事	-10.2868
也且	-10.2871
大同	-10.2871
之思	-10.2874
其四	-10.2877
莽	-10.2879
致其	-10.2881
嗟夫	-10.2887
狼	-10.2887
取之	-10.2888
太宰	-10.2889
髙堂	-10.2891
鳬	-10.2894
庠	-10.2895
街	-10.2903
勦	-10.2903
佚	-10.2908
白沙	-10.2911
妬	-10.2912
異時	-10.2918
靡不	-10.292
而獨	-10.292
忠信	-10.2923
腴	-10.2928
緩急	-10.2932
未敢	-10.2934
其説	-10.2937
訖	-10.2945
涇	-10.2945
㝷	-10.2947
浴	-10.2947
吾母	-10.2949
三子	-10.2956
亦非	-10.2957
員外郎	-10.2957
溥	-10.2959
忿	-10.2962
雲山	-10.2962
閉門	-10.2965
歸去	-10.297
文公	-10.2973
苖	-10.2974
物之	-10.2976
粧	-10.2979
不信	-10.2983
札	-10.2983
禆	-10.2985
芒	-10.2986
哉夫	-10.2993
世人	-10.2994
野人	-10.2995
儔	-10.3
所藏	-10.3
北上	-10.3001
鼻	-10.3001
世有	-10.3016
一巻	-10.3019
國初	-10.3019
通判	-10.3025
焚香	-10.3027
惇	-10.3035
泯	-10.3036
依依	-10.3036
終始	-10.3038
蒼生	-10.3039
於其	-10.3039
無間	-10.3043
予與	-10.3044
之㫖	-10.3047
恪	-10.3049
問學	-10.3051
遂為	-10.3052
可乎	-10.3055
花開	-10.3062
裡	-10.3066
吾友	-10.3072
江海	-10.3077
叶	-10.308
得一	-10.3086
人才	-10.3089
糾	-10.3097
君王	-10.3098
島	-10.3098
膳	-10.3099
肖	-10.3104
别號	-10.3104
将軍	-10.3105
武王	-10.3108
絡	-10.3109
本院	-10.3112
上有	-10.3112
企	-10.3113
隊	-10.3113
鮑	-10.3118
予曰	-10.3119
牖	-10.3119
以事	-10.3121
不辭	-10.3132
幾何	-10.3135
一方	-10.314
遘	-10.314
思之	-10.3142
此意	-10.3146
自號	-10.3151
老子	-10.3154
太宗	-10.3155
䕫	-10.3167
空山	-10.3168
豈能	-10.3172
徃來	-10.3178
鬬	-10.3179
鵲	-10.318
扣	-10.3182
擲	-10.3182
新安	-10.3185
而欲	-10.3186
饋	-10.3189
年七十	-10.3193
不求	-10.32
扵是	-10.3201
好學	-10.3201
鄉試	-10.3203
盃	-10.3204
於道	-10.3206
吾家	-10.3209
宸	-10.3211
贍	-10.3213
浚	-10.3213
忠義	-10.3213
曩	-10.3223
霸	-10.3227
未見	-10.3228
而不可	-10.3232
春雨	-10.3234
貺	-10.3238
而自	-10.3241
鵠	-10.3244
之勢	-10.3244
之患	-10.3252
歎曰	-10.3256
迥	-10.3256
筠	-10.3261
梵	-10.3263
已矣	-10.3275
置之	-10.3282
贏	-10.3287
李君	-10.3287
其義	-10.3291
三世	-10.3292
以行	-10.3292
貶	-10.3295
孺	-10.3296
祖母	-10.33
于鱗	-10.3305
也於是	-10.3306
十五年	-10.3314
無限	-10.3318
之弊	-10.3323
不得已	-10.3325
亘	-10.3327
乆矣	-10.3333
嬌	-10.3338
門前	-10.3341
於上	-10.3343
滑	-10.3345
參差	-10.3346
吾父	-10.3347
閟	-10.335
可知矣	-10.336
林下	-10.3361
祔	-10.3376
予之	-10.3376
飲酒	-10.3383
癡	-10.3383
與夫	-10.3392
娛	-10.3398
賑	-10.3398
坑	-10.3399
長洲	-10.3412
氛	-10.3414
云云	-10.3415
廪	-10.3415
柬	-10.3418
倣	-10.3442
酋	-10.3443
贖	-10.3448
陽春	-10.3454
功業	-10.3457
徂	-10.3459
稱之	-10.3466
而為之	-10.3468
乆之	-10.3468
猶在	-10.3468
淮南	-10.3478
落花	-10.348
拓	-10.348
譬之	-10.3483
洛陽	-10.3484
少保	-10.3487
明公	-10.3492
蕭然	-10.3493
之計	-10.3497
蠶	-10.3505
牢	-10.351
諸孫	-10.351
不顧	-10.3513
璞	-10.3516
眩	-10.3516
豈惟	-10.3518
塢	-10.3519
今人	-10.352
正德	-10.3521
公所	-10.3524
龍門	-10.3524
劣	-10.3525
之術	-10.3526
簮	-10.353
欣然	-10.353
或以	-10.354
吾之	-10.3543
經史	-10.355
至矣	-10.3558
平原	-10.3572
酷	-10.3576
阮	-10.359
迄	-10.3591
佞	-10.3592
岀	-10.3601
楊栁	-10.3603
與子	-10.3605
戯	-10.3613
稱其	-10.362
人者	-10.3624
侮	-10.3624
軍民	-10.3627
新詩	-10.3627
伏惟	-10.3631
勾	-10.3636
為民	-10.3638
所著	-10.3641
日益	-10.3641
洋	-10.3646
所宜	-10.3647
之重	-10.3649
縛	-10.3651
輦	-10.3651
陜	-10.366
漲	-10.3661
研	-10.3667
縷	-10.3668
夢中	-10.3677
杏	-10.3679
蟻	-10.368
人言	-10.3682
諷	-10.3684
知已	-10.3686
萍	-10.3686
對曰	-10.3687
涯	-10.3688
未㡬	-10.3689
欠	-10.369
我心	-10.3692
隕	-10.3696
悖	-10.3701
之妙	-10.3701
敕	-10.3712
耄	-10.3713
捲	-10.3714
痕	-10.3715
梗	-10.3715
䦨	-10.3715
霍	-10.3715
以備	-10.3717
所載	-10.3718
官府	-10.3726
之家	-10.3728
英雄	-10.3732
父兄	-10.3733
而知	-10.3736
師友	-10.374
得此	-10.3743
南歸	-10.3749
官員	-10.3752
郢	-10.3753
宥	-10.3753
雲間	-10.3753
墓表	-10.3757
王孫	-10.3758
訂	-10.3763
黄花	-10.3764
不下	-10.3764
二百	-10.3766
而况	-10.3768
于時	-10.3769
龔	-10.3772
一室	-10.3773
吾心	-10.3776
剖	-10.3776
以及	-10.3778
豈獨	-10.3785
噐	-10.379
者耶	-10.3794
所作	-10.3797
闡	-10.3799
刋	-10.3803
存者	-10.3805
聞道	-10.3809
各官	-10.3813
閫	-10.3815
平日	-10.3815
雨中	-10.3818
聖主	-10.3821
柏	-10.3827
用是	-10.3829
三山	-10.3837
透	-10.3844
組	-10.3849
扁	-10.3849
不動	-10.385
之屬	-10.385
㓕	-10.3851
甚矣	-10.3854
至則	-10.3855
始知	-10.386
蛟	-10.386
翊	-10.3864
繆	-10.3864
稻	-10.3868
有竒	-10.3874
之深	-10.3875
羮	-10.3879
孝弟	-10.3882
罄	-10.3894
畀	-10.3895
然亦	-10.3895
小民	-10.3897
此身	-10.3898
處之	-10.3906
蛟龍	-10.3906
無所不	-10.3914
大明	-10.3915
之望	-10.3918
祭酒	-10.3921
古之人	-10.3922
所聞	-10.393
少卿	-10.3933
廵撫	-10.3933
陳君	-10.3934
七日	-10.3938
以詩	-10.3943
渡江	-10.3945
不利	-10.3947
于此	-10.3947
之本	-10.395
靳	-10.3953
乙	-10.3954
事君	-10.3964
𦙍	-10.3965
幅	-10.3965
摹	-10.3969
耿耿	-10.3972
施行	-10.3974
知有	-10.3977
者雖	-10.3983
詹	-10.3985
冕	-10.3986
飈	-10.3989
臧	-10.399
之善	-10.3999
白髮	-10.401
寮	-10.4016
沼	-10.4023
耿	-10.4027
僣	-10.4028
某某	-10.4029
熾	-10.403
泄	-10.4033
二日	-10.4033
予言	-10.4036
道人	-10.4036
丕	-10.4043
其勢	-10.4044
咲	-10.4057
靄	-10.4062
戮	-10.407
丸	-10.4071
多士	-10.4071
馨	-10.4073
則亦	-10.4075
明朝	-10.4081
而今	-10.4081
姑蘇	-10.4082
繹	-10.4082
太僕	-10.409
廓	-10.409
婦人	-10.4093
韜	-10.4096
羌	-10.4096
顔子	-10.4098
惟是	-10.41
四十年	-10.4101
胸中	-10.4107
其說	-10.4107
廿	-10.4108
握手	-10.4111
貴州	-10.4113
何敢	-10.4116
閨	-10.4117
功成	-10.412
一世	-10.4121
洩	-10.4124
知者	-10.4125
為詩	-10.413
刃	-10.413
瀾	-10.4132
瑟	-10.4136
生民	-10.4136
永嘉	-10.4139
今古	-10.414
名山	-10.4141
惟公	-10.4143
太祖	-10.4145
也是故	-10.4155
亢	-10.4157
赦	-10.416
季子	-10.4166
為學	-10.4167
之遺	-10.4167
崑崙	-10.4167
宗族	-10.4171
不改	-10.4173
溫	-10.4176
濠	-10.4178
言也	-10.4179
足矣	-10.4179
事親	-10.4183
明白	-10.4185
科第	-10.4187
滄浪	-10.4191
橘	-10.4194
於前	-10.4199
蝶	-10.4205
釀	-10.4216
一枝	-10.4221
挫	-10.4225
之門	-10.4226
奄	-10.4226
于家	-10.423
鎖	-10.4232
五湖	-10.4232
廟堂	-10.4232
豈可	-10.4234
俠	-10.4235
為之記	-10.424
江漢	-10.4241
誰知	-10.4251
狥	-10.4251
不惟	-10.4253
不遇	-10.4259
衙門	-10.4262
狹	-10.4274
迭	-10.4279
之憂	-10.4279
劉君	-10.4279
循吏	-10.4283
松栢	-10.4289
詆	-10.4289
劵	-10.429
挈	-10.4294
蘆	-10.4296
别有	-10.4298
相去	-10.4299
等因	-10.4308
有大	-10.4309
之年	-10.431
作詩	-10.4315
豆	-10.432
朂	-10.4321
大理	-10.4325
山色	-10.4327
何能	-10.433
上帝	-10.4331
同官	-10.4333
貴人	-10.4335
識者	-10.4338
蔓	-10.4339
處處	-10.4342
以死	-10.4343
大事	-10.4343
種種	-10.4344
南陽	-10.4345
武昌	-10.4347
上官	-10.4347
之末	-10.4349
㦸	-10.4354
萊	-10.4366
十餘	-10.4369
公與	-10.4373
大節	-10.4374
遮	-10.4375
事之	-10.4377
人亦	-10.4379
吾邑	-10.4391
寘	-10.4393
無有	-10.4396
間有	-10.4398
讒	-10.4399
山隂	-10.44
雲霄	-10.4401
之利	-10.4404
娥	-10.4409
䧟	-10.4413
覲	-10.4418
山谷	-10.4421
濵	-10.4422
詩人	-10.4424
穹	-10.4427
無遺	-10.4429
由來	-10.4439
之訓	-10.444
犀	-10.444
青青	-10.4441
終不	-10.4441
駒	-10.4446
而求	-10.4449
伺	-10.4453
吳中	-10.4455
衆人	-10.4456
龎	-10.4459
祁	-10.4461
縣官	-10.4461
鬭	-10.4467
近世	-10.4473
矣此	-10.4473
姊	-10.4475
如故	-10.4478
浄	-10.4481
饗	-10.4485
五百	-10.4485
嵐	-10.4485
掖	-10.4488
一何	-10.449
霖	-10.4491
粥	-10.4494
優游	-10.4494
瘠	-10.4502
族人	-10.4505
鬚	-10.4507
窘	-10.4507
抄	-10.4508
則必	-10.4508
榆	-10.4508
著書	-10.4511
歸而	-10.4514
也惟	-10.4515
平居	-10.452
太師	-10.4523
不果	-10.4529
太白	-10.4529
之仁	-10.4536
以相	-10.4536
掇	-10.4546
隳	-10.4548
而上	-10.4549
刪	-10.455
始得	-10.455
矣予	-10.455
稍稍	-10.4551
茅屋	-10.4553
華亭	-10.456
反覆	-10.4565
敢不	-10.4568
也因	-10.457
騁	-10.4577
苛	-10.4582
真人	-10.4585
都督	-10.4607
憶昔	-10.4609
臣之	-10.461
幾人	-10.461
髙明	-10.4611
乎夫	-10.4614
居官	-10.4616
厄	-10.4616
者豈	-10.4617
相從	-10.462
堡	-10.4621
題畫	-10.4621
寥寥	-10.4624
花落	-10.4629
揚州	-10.4629
天順	-10.463
虗	-10.4633
硯	-10.4638
誰與	-10.464
自信	-10.4643
斯民	-10.4646
綬	-10.4651
太極	-10.4656
孽	-10.4656
迪	-10.4656
滄洲	-10.4659
巵	-10.466
一夜	-10.4665
無子	-10.4666
趾	-10.4667
故有	-10.4672
楫	-10.4674
桞	-10.4675
葩	-10.4676
清明	-10.4677
垢	-10.4678
殺人	-10.4679
載酒	-10.4679
不有	-10.468
能以	-10.4683
两	-10.4685
遡	-10.4687
登髙	-10.469
孰不	-10.469
吉水	-10.469
樽	-10.4699
少師	-10.4699
咽	-10.4706
所欲	-10.4706
十九	-10.4706
有事	-10.4708
甕	-10.4709
之誠	-10.471
必欲	-10.4712
復以	-10.4712
宗伯	-10.4713
莫敢	-10.4713
視其	-10.4714
㠶	-10.4716
惟恐	-10.4719
别離	-10.472
太宜人	-10.4727
煖	-10.4731
死而	-10.4732
序之	-10.4732
詩云	-10.4733
則為	-10.474
所云	-10.474
長子	-10.4741
兵備	-10.4745
柰何	-10.4746
怕	-10.4747
艱難	-10.4751
蹙	-10.4753
不平	-10.4755
駢	-10.4756
人之所	-10.4761
其詩	-10.4762
以来	-10.4762
玉樹	-10.477
者惟	-10.4772
聞而	-10.4775
如也	-10.4776
巽	-10.4776
麒麟	-10.4777
祉	-10.4781
南都	-10.4781
臨川	-10.4785
仕者	-10.4788
鳯凰	-10.479
未足	-10.4791
之賜	-10.4794
云爾	-10.4794
坎	-10.4795
椿	-10.4795
聮	-10.4795
有光	-10.4796
聞者	-10.4797
幽人	-10.4799
潦	-10.48
東坡	-10.4808
地下	-10.4809
現	-10.481
名臣	-10.4815
有如	-10.4815
太史公	-10.4817
藹	-10.4818
叅政	-10.482
任之	-10.482
當其	-10.4823
曰子	-10.4837
氓	-10.4849
殯	-10.4849
嘗以	-10.4854
其門	-10.4865
夜深	-10.4866
仁者	-10.4867
謡	-10.4868
北斗	-10.4873
帝王	-10.4885
庚	-10.4886
廊	-10.4888
狗	-10.4888
朱氏	-10.4888
也先生	-10.4889
哉然	-10.4891
惕	-10.4893
不能盡	-10.4895
羸	-10.4897
亦知	-10.4899
亦可以	-10.4901
年六十	-10.4901
逞	-10.4902
其弟	-10.4902
蒞	-10.4908
内閣	-10.4908
雋	-10.4909
拯	-10.4909
曜	-10.4911
城西	-10.4915
感慨	-10.4916
未免	-10.4916
而不得	-10.4917
日夕	-10.4917
屐	-10.4918
其氣	-10.4919
而致	-10.4919
之體	-10.4919
欝	-10.4922
敞	-10.4925
自知	-10.4928
人主	-10.4931
郵	-10.4932
訃	-10.4934
太原	-10.4935
縣丞	-10.4936
剥	-10.494
庖	-10.4941
矣又	-10.4945
嗇	-10.4948
汲汲	-10.4948
焉耳	-10.4951
諸臣	-10.4956
堦	-10.4957
千户	-10.4958
長歌	-10.4959
南海	-10.4962
弭	-10.4963
滇	-10.4964
湍	-10.4966
珪	-10.4967
彼此	-10.4967
湖山	-10.4967
尼	-10.4972
六合	-10.4973
中流	-10.4978
羲	-10.498
者故	-10.4983
一曲	-10.4983
琅玕	-10.4984
詫	-10.4995
所言	-10.4997
周氏	-10.4997
不克	-10.4999
後之人	-10.4999
此則	-10.5001
十萬	-10.5002
城郭	-10.5004
畦	-10.5007
昨夜	-10.5007
以道	-10.501
年少	-10.5014
其鄉	-10.5014
核	-10.5018
自昔	-10.5023
篋	-10.5024
因其	-10.5026
聖學	-10.5032
孺子	-10.5033
經術	-10.5037
也盖	-10.5038
兎	-10.5038
觀者	-10.5038
之道也	-10.5038
也君	-10.5038
太安人	-10.5042
所及	-10.5044
考功	-10.5048
無言	-10.5053
仲尼	-10.5053
白馬	-10.5055
都門	-10.5059
大道	-10.5059
太行	-10.506
零落	-10.5061
即位	-10.5067
銳	-10.5069
楷	-10.507
是日	-10.507
數人	-10.507
明道	-10.5073
譁	-10.5077
鄭氏	-10.5079
兇	-10.5079
宰相	-10.5082
教化	-10.5082
其為人	-10.5083
秋日	-10.509
𣲖	-10.5091
官兵	-10.5092
無聞	-10.5094
之習	-10.5102
天地間	-10.5103
君以	-10.5105
渙	-10.5105
何年	-10.511
不妨	-10.5121
前代	-10.5122
阡	-10.5129
固已	-10.5133
之責	-10.5136
漿	-10.5139
未有不	-10.514
閒居	-10.5142
不逺	-10.5144
吾聞	-10.5148
卓然	-10.5151
厨	-10.5151
在焉	-10.5153
泉石	-10.5163
山河	-10.5167
彬	-10.5169
不可得	-10.5176
昻	-10.5177
不倦	-10.5184
玊	-10.5184
于朝	-10.5186
唐虞	-10.519
長生	-10.5191
以傳	-10.5192
翟	-10.5192
非其	-10.5193
江右	-10.5193
撲	-10.5194
杞	-10.5195
簪	-10.5196
殷勤	-10.5205
三公	-10.5215
霄漢	-10.5218
學宫	-10.522
数	-10.522
茗	-10.5221
别後	-10.5221
聯	-10.5223
穎	-10.5228
其兄	-10.5233
長江	-10.5243
柩	-10.5246
前人	-10.5246
訾	-10.5252
臘	-10.5252
漆	-10.526
之孫	-10.5268
胡為	-10.5269
桃源	-10.5271
明府	-10.5275
而民	-10.5279
不到	-10.528
矣公	-10.5283
徐公	-10.5285
不敢以	-10.5286
無由	-10.5289
羅浮	-10.529
攷	-10.5292
譲	-10.5294
蜂	-10.5297
超然	-10.5297
五雲	-10.5298
件	-10.5302
日用	-10.5304
不通	-10.5304
公公	-10.5307
劑	-10.5308
掾	-10.531
右軍	-10.5315
亞	-10.5322
落落	-10.5324
豈其	-10.5325
秀才	-10.5325
乎曰	-10.5327
暎	-10.5328
請予	-10.5333
箕	-10.5333
彬彬	-10.5336
二親	-10.5338
手書	-10.534
匱	-10.5344
近日	-10.5348
長史	-10.5352
瘴	-10.5356
中人	-10.5359
貧賤	-10.5362
必先	-10.5363
文集	-10.5366
之要	-10.5369
饌	-10.5371
教子	-10.5371
盡心	-10.5371
非所	-10.5373
第二	-10.5376
老矣	-10.5378
磯	-10.5381
鋤	-10.5381
事理	-10.5383
擕	-10.5384
轡	-10.5386
國史	-10.5387
旌旗	-10.5388
不解	-10.5389
雲氣	-10.539
濓	-10.5391
之謂也	-10.5392
子也	-10.5397
推官	-10.5398
小兒	-10.5398
言語	-10.5399
以明	-10.5399
流俗	-10.5399
琢	-10.5401
其辭	-10.5401
幸而	-10.5402
嫡	-10.5403
迢迢	-10.5406
諾	-10.5406
在人	-10.5406
承恩	-10.5411
渴	-10.5413
賢才	-10.5417
最後	-10.542
二字	-10.542
不得不	-10.5422
謚	-10.5425
庾	-10.5428
裾	-10.5428
艶	-10.5429
鋪	-10.5435
名之曰	-10.5436
孫子	-10.5438
焉者	-10.5441
禍福	-10.5442
弗能	-10.5452
目前	-10.5455
經營	-10.5455
膝	-10.5456
璫	-10.5457
斯道	-10.5459
之語	-10.546
替	-10.5465
有名	-10.5468
帽	-10.5471
其力	-10.5472
迅	-10.5476
是則	-10.5477
所知	-10.5478
知所	-10.5483
矣乎	-10.5483
㑹試	-10.5492
欄	-10.5497
小子	-10.5497
勛	-10.55
守備	-10.55
酸	-10.5502
盆	-10.5503
南宫	-10.5503
縹緲	-10.5506
經筵	-10.5507
士夫	-10.5512
老去	-10.5517
匆匆	-10.5521
其故	-10.5523
甸	-10.5531
筭	-10.5532
於乎	-10.5534
之㑹	-10.5538
奢	-10.5541
譴	-10.5545
一夕	-10.5546
緝	-10.5547
星辰	-10.5548
驂	-10.5549
浹	-10.555
嘆曰	-10.5555
天下之事	-10.5559
其始	-10.556
脈	-10.5561
繄	-10.5575
郁	-10.5577
箋	-10.5578
胄	-10.5579
徤	-10.558
而終	-10.5585
稔	-10.5589
胡公	-10.559
里人	-10.5593
之傳	-10.5594
余言	-10.5595
呌	-10.5596
泰山	-10.5598
覧	-10.5607
衾	-10.5608
性命	-10.5609
其不	-10.561
蒼茫	-10.5612
還家	-10.5613
罵	-10.5617
十四年	-10.5617
老而	-10.562
學術	-10.5621
諳	-10.5622
曰某	-10.5622
太倉	-10.5623
為天下	-10.5626
大司馬	-10.5626
惟其	-10.5628
琳	-10.5628
闈	-10.5631
千百	-10.5632
哉雖然	-10.5634
溪上	-10.5638
蕙	-10.564
歐	-10.5643
之榮	-10.5644
埃	-10.5646
不意	-10.5647
按察使	-10.5647
其業	-10.565
訛	-10.5651
其徒	-10.5651
守之	-10.5658
上林	-10.5664
帙	-10.5664
駁	-10.5664
液	-10.5671
笑曰	-10.5675
灼	-10.568
用兵	-10.5685
逓	-10.5685
不䏻	-10.5691
浩蕩	-10.5691
之聲	-10.5695
醴	-10.5696
叱	-10.5696
世道	-10.5702
夜半	-10.5707
賄	-10.5709
百萬	-10.5714
復何	-10.5715
蹶	-10.5715
以濟	-10.5716
曰汝	-10.5722
炊	-10.5727
幸甚	-10.5727
恢	-10.5728
而不敢	-10.5731
樓臺	-10.5735
經綸	-10.5743
有無	-10.5746
數十年	-10.5749
聖朝	-10.575
洋洋	-10.5751
上疏	-10.5754
螺	-10.5759
等項	-10.5763
何須	-10.5765
或謂	-10.5773
科目	-10.5774
善人	-10.5776
北山	-10.5776
於鄉	-10.578
安知	-10.5787
而未	-10.5788
言曰	-10.5793
昆	-10.5794
諸賢	-10.5795
中興	-10.5796
不愧	-10.5798
歷	-10.5799
不甚	-10.5803
臆	-10.5805
赤子	-10.5806
夜月	-10.5807
媒	-10.5807
不仕	-10.5808
净	-10.5809
先儒	-10.5812
則以	-10.5815
驩	-10.5816
其居	-10.5816
卒以	-10.5816
瑛	-10.5819
獨坐	-10.5819
斃	-10.582
九州	-10.5823
迓	-10.5824
矣乃	-10.5825
翰墨	-10.5827
豐城	-10.5828
弁	-10.5828
不爲	-10.5829
紹興	-10.583
自足	-10.5833
孜孜	-10.5835
而行之	-10.5838
軫	-10.5838
之請	-10.5839
檜	-10.5847
鷺	-10.5848
獨立	-10.5849
參政	-10.5849
○	-10.5853
慣	-10.5855
公既	-10.5859
太息	-10.5861
虎豹	-10.5861
居之	-10.5873
行者	-10.5874
倖	-10.5879
監司	-10.5883
君諱	-10.5885
纒	-10.5885
盛時	-10.5888
無非	-10.5889
之費	-10.5891
冉冉	-10.5892
杜門	-10.5895
幾時	-10.5896
所自	-10.5896
知公	-10.5896
進而	-10.5902
者多矣	-10.5902
舄	-10.5902
之可	-10.5911
為之序	-10.5912
渥	-10.5912
拳拳	-10.5913
綰	-10.5913
聞其	-10.5918
為大	-10.5919
故舊	-10.5921
敢以	-10.5923
隻	-10.5923
不息	-10.5923
女子	-10.5924
瑄	-10.5928
立言	-10.593
夜雨	-10.5936
三四	-10.5942
扶桑	-10.5942
翫	-10.5947
養之	-10.595
有能	-10.5955
天下後世	-10.5958
鷹	-10.5961
干戈	-10.5965
平陽	-10.5973
忠厚	-10.5974
公亦	-10.5978
瀟湘	-10.5981
不食	-10.5982
其族	-10.5985
山房	-10.5991
忱	-10.5992
不入	-10.5994
吏民	-10.5994
二十四	-10.5996
桑梓	-10.5996
嶺南	-10.6001
壅	-10.6002
提督	-10.6003
從而	-10.6015
一生	-10.6016
天風	-10.602
今朝	-10.602
草草	-10.602
大矣	-10.6021
後來	-10.6025
購	-10.6029
燈火	-10.603
沸	-10.6034
傳之	-10.6036
儻	-10.6038
氣象	-10.6039
猜	-10.6041
卒於	-10.6042
明時	-10.6048
家事	-10.605
中夜	-10.6051
蘓	-10.6056
在位	-10.6056
我欲	-10.6057
不應	-10.6058
甌	-10.6059
愴	-10.6062
鈍	-10.6063
黔	-10.6063
侍講	-10.6064
瑤	-10.6065
者咸	-10.6073
如此則	-10.6075
翮	-10.6075
覃	-10.6075
看花	-10.6077
之好	-10.6079
依然	-10.6084
寐	-10.6086
之南	-10.6086
臨風	-10.6089
黍	-10.6095
其性	-10.6098
行而	-10.6099
舅姑	-10.6099
入覲	-10.6101
軼	-10.6105
棗	-10.6106
愜	-10.6107
書曰	-10.6107
稍長	-10.6107
陌	-10.6108
漠	-10.6108
一百	-10.6108
之東	-10.611
稚	-10.6114
廖	-10.6117
兒女	-10.6118
呵	-10.6118
梯	-10.6118
泝	-10.6119
不去	-10.6124
命之	-10.6124
為誰	-10.6125
煌煌	-10.6126
古文	-10.6129
太公	-10.613
遣使	-10.6132
又云	-10.6136
忻	-10.6137
本無	-10.6139
和氣	-10.614
芻	-10.6141
何當	-10.6141
以前	-10.6143
薫	-10.6145
程子	-10.6146
撤	-10.6148
人多	-10.6149
春水	-10.6152
春草	-10.6156
瑕	-10.6158
貴賤	-10.6163
此事	-10.6167
無心	-10.6168
異之	-10.6168
人知	-10.617
之墓	-10.617
封君	-10.6172
祖父	-10.6175
裴	-10.6179
時事	-10.6179
忘其	-10.6179
藩臬	-10.6183
林泉	-10.6183
婺	-10.6186
皓	-10.6187
以義	-10.6188
心事	-10.6191
古來	-10.6193
相看	-10.6197
聖賢之	-10.62
畿	-10.62
皆可	-10.6202
梢	-10.6203
出其	-10.6207
豈徒	-10.6208
駿	-10.6209
以身	-10.6214
兔	-10.6215
而起	-10.6217
東陽	-10.6221
生子	-10.6225
只今	-10.6226
無疆	-10.6228
此非	-10.6229
竝	-10.6232
光禄	-10.624
亡何	-10.624
京兆	-10.6243
有作	-10.6243
中秋	-10.6245
武夷	-10.6246
於中	-10.6247
篁	-10.625
卉	-10.6251
百餘	-10.6251
中天	-10.6257
且以	-10.6257
亭亭	-10.626
博學	-10.6262
也昔	-10.6264
傷心	-10.627
夢寐	-10.6271
甘泉	-10.6273
天子之	-10.6279
即事	-10.628
糜	-10.628
楓	-10.6286
哉予	-10.6287
授之	-10.6289
禪師	-10.6291
之表	-10.6293
編修	-10.6297
之前	-10.6299
鯉	-10.6299
著述	-10.63
譬	-10.6303
非獨	-10.6304
雖欲	-10.6306
未嘗有	-10.6307
殖	-10.631
十二年	-10.6316
之師	-10.6317
在天	-10.632
一月	-10.6324
其賢	-10.6325
景泰	-10.6329
此書	-10.6332
自立	-10.6337
城東	-10.6343
絶句	-10.6344
雲霞	-10.6345
有異	-10.6345
主簿	-10.6346
鰲	-10.6347
不衰	-10.6347
年五十	-10.635
送王	-10.6354
夫豈	-10.636
祖考	-10.6361
者即	-10.6363
禮部尚書	-10.6364
狄	-10.6369
當道	-10.6372
小大	-10.6374
訥	-10.6375
旭	-10.6376
莫如	-10.6377
世俗	-10.6377
河東	-10.638
跪	-10.638
耽	-10.6381
一官	-10.6382
松江	-10.6383
來者	-10.6389
考其	-10.6392
唐人	-10.6393
勃	-10.6394
其友	-10.6394
數千	-10.6398
閏	-10.64
衙	-10.6403
㑹同	-10.6406
仆	-10.6406
洎	-10.6407
之精	-10.6412
東方	-10.6413
以聞	-10.6415
江陵	-10.6416
春來	-10.6417
嗟嗟	-10.6423
數千里	-10.6425
愽	-10.6429
安之	-10.6434
無極	-10.6442
嗚呼哀哉	-10.6443
至其	-10.6444
抛	-10.6444
見寄	-10.645
億	-10.6451
宗社	-10.6453
與公	-10.6455
贓	-10.6458
白玉	-10.6461
在上	-10.6464
蒼梧	-10.6465
事功	-10.6465
之暇	-10.6465
大用	-10.647
凄	-10.647
江左	-10.6471
北風	-10.6473
衮	-10.6474
始於	-10.6477
以安	-10.6479
者謂	-10.6479
今日之	-10.648
他年	-10.6481
既成	-10.6481
月色	-10.6482
不離	-10.6486
將來	-10.6489
也葢	-10.649
奉使	-10.6491
棠	-10.6492
人世	-10.6494
鉞	-10.6495
堂上	-10.6496
生而	-10.6498
焉夫	-10.6499
諸人	-10.6499
公論	-10.6501
今為	-10.6505
九江	-10.651
總督	-10.6511
無乃	-10.6511
偃蹇	-10.6512
手足	-10.6514
必得	-10.6518
何異	-10.652
寂寥	-10.6523
也耶	-10.6523
太淑人	-10.6524
以居	-10.6527
囂	-10.6527
之能	-10.6529
又能	-10.6532
察其	-10.6534
不謂	-10.6535
自為	-10.6537
其官	-10.6537
能知	-10.6537
以見	-10.6539
脂	-10.6541
鳳凰	-10.6542
善惡	-10.6546
乃今	-10.6546
為主	-10.655
人君	-10.6556
邢	-10.6556
或者	-10.6557
吾鄉	-10.6557
太監	-10.6559
吾儒	-10.656
靑	-10.6563
無為	-10.6563
是謂	-10.6566
楮	-10.6568
峭	-10.6568
門户	-10.6572
四百	-10.6574
格物	-10.6575
所生	-10.6575
稷	-10.6576
無論	-10.658
翕然	-10.6584
先王之	-10.6586
胡不	-10.6587
騐	-10.6589
下有	-10.6596
亦不能	-10.6599
昨日	-10.66
不違	-10.6601
緬	-10.6602
親戚	-10.6604
磬	-10.6606
邂逅	-10.6609
簿書	-10.6612
一也	-10.6615
發之	-10.6617
擔	-10.6619
嵗寒	-10.6619
古道	-10.662
辛丑	-10.6622
釁	-10.6623
漂	-10.6624
歌舞	-10.6626
翛然	-10.6626
麾	-10.6629
談笑	-10.663
天人	-10.663
斜陽	-10.6633
豈知	-10.6633
之福	-10.6634
不加	-10.6635
於君	-10.6637
孔孟	-10.6638
療	-10.6638
誚	-10.6638
丁未	-10.664
圖書	-10.6641
付之	-10.6646
後有	-10.6648
南國	-10.6648
同時	-10.6652
𣣔	-10.6653
孔子曰	-10.6657
窈窕	-10.6661
瘁	-10.6661
愼	-10.6669
晤	-10.667
滕	-10.6673
異端	-10.6673
孰與	-10.6675
賞罰	-10.6675
鯨	-10.6678
别駕	-10.6683
於物	-10.6684
表裏	-10.669
周禮	-10.6692
家有	-10.6693
者今	-10.6694
蘭亭	-10.67
誰為	-10.67
應天	-10.6701
世居	-10.6702
翹	-10.6702
柴門	-10.6704
文明	-10.6704
能為	-10.6705
子姓	-10.6707
瓜	-10.6707
無足	-10.6708
先師	-10.6709
落葉	-10.671
以奉	-10.6711
在於	-10.6712
礪	-10.6713
得意	-10.6716
衣裳	-10.6717
悵望	-10.6717
稼	-10.6718
有常	-10.6719
捨	-10.6722
非不	-10.6722
徒以	-10.6723
須臾	-10.6725
年八十	-10.6726
之禍	-10.6727
之良	-10.6732
閭里	-10.6732
則無	-10.6737
賚	-10.6741
囿	-10.6742
沖	-10.6743
殞	-10.6745
未成	-10.6746
繕	-10.6748
番	-10.6749
哉故	-10.6758
豔	-10.676
頃刻	-10.676
昌黎	-10.6764
物也	-10.6766
漳	-10.6769
晋	-10.677
波濤	-10.6771
成之	-10.6772
吾民	-10.6773
施於	-10.6774
從子	-10.6775
聖人之道	-10.6775
事也	-10.6779
珊瑚	-10.6779
名士	-10.678
不可無	-10.6781
聲名	-10.6781
歲月	-10.6782
縣知縣	-10.6783
後進	-10.679
扼	-10.6791
郤	-10.6791
昂	-10.6792
無敢	-10.6792
古之君子	-10.6793
妹	-10.6799
夫人之	-10.6802
閭閻	-10.6806
安於	-10.6809
之厚	-10.681
武功	-10.681
掣	-10.6813
二君	-10.6813
亦皆	-10.6819
明徳	-10.682
矣吾	-10.6821
加以	-10.6822
不任	-10.6825
皆得	-10.6825
好古	-10.6827
亦多	-10.6829
蟾	-10.6829
本部	-10.6834
黄氏	-10.6835
刹	-10.6839
庚戌	-10.6841
武帝	-10.6842
陛	-10.6842
生意	-10.6847
民間	-10.685
此言	-10.685
督學	-10.6851
尚可	-10.6858
股	-10.6858
河間	-10.6859
為言	-10.686
渇	-10.6861
竈	-10.6861
丙子	-10.6862
事事	-10.6864
炙	-10.6868
所由	-10.6871
造物	-10.6871
冢	-10.6877
艷	-10.6878
砌	-10.688
何用	-10.688
易之	-10.688
大夫士	-10.6881
何哉	-10.6889
甲申	-10.689
竅	-10.6892
搏	-10.6896
飄飄	-10.6898
不遺	-10.69
豕	-10.6902
後學	-10.6906
邑人	-10.6907
盛徳	-10.6907
太湖	-10.6908
概	-10.6909
緯	-10.6912
其次	-10.6914
極其	-10.6921
之性	-10.6921
以正	-10.6922
信之	-10.6924
化為	-10.6926
與世	-10.6926
公車	-10.6926
儗	-10.6929
窗	-10.6929
盪	-10.693
竟以	-10.6934
無益	-10.6937
余嘗	-10.6938
閣下	-10.6939
蓮花	-10.6939
一心	-10.6943
鑰	-10.6944
戕	-10.6946
歸田	-10.6952
□	-10.6957
闇	-10.6958
瞑	-10.6962
婣	-10.6962
予聞	-10.6963
則是	-10.6963
賦此	-10.6963
矣雖然	-10.6964
一書	-10.6964
書生	-10.6965
不異	-10.6968
岫	-10.6976
於學	-10.698
十六年	-10.6984
錢糧	-10.6985
先朝	-10.6985
子與	-10.6987
相期	-10.6991
登樓	-10.6993
請於	-10.6998
為序	-10.6999
縻	-10.7
竹林	-10.7002
所致	-10.7002
一語	-10.7008
又得	-10.7011
蘄	-10.7013
憊	-10.7014
此皆	-10.702
不置	-10.7022
安可	-10.7023
以言	-10.7028
倅	-10.7029
昆弟	-10.703
藪	-10.7031
畫圖	-10.7031
猶存	-10.7033
張子	-10.7038
誰家	-10.704
之德	-10.7041
只在	-10.7041
司訓	-10.7041
其用	-10.7043
不從	-10.7045
興起	-10.7053
我亦	-10.7057
宋之	-10.7058
吁嗟	-10.7059
至扵	-10.7059
風霜	-10.706
可得	-10.7065
黄公	-10.7067
如今	-10.7068
何如也	-10.7069
努力	-10.707
蟄	-10.707
重來	-10.7071
聆	-10.7072
且曰	-10.7072
聿	-10.7072
明主	-10.7072
塵埃	-10.7079
徐氏	-10.708
稟	-10.7085
煉	-10.7086
窩	-10.709
千餘	-10.709
愛民	-10.7092
南康	-10.7094
周之	-10.7099
剿	-10.7099
蔑	-10.7102
匡廬	-10.7102
煦	-10.7102
亦惟	-10.7102
祖諱	-10.7105
之辭	-10.711
有知	-10.711
明珠	-10.7116
璽	-10.7117
余曰	-10.7123
而吾	-10.7125
行省	-10.7129
上天	-10.713
墓在	-10.7131
丙辰	-10.7136
大雅	-10.7137
拳	-10.7138
濳	-10.7139
百官	-10.7141
道理	-10.7141
何物	-10.7142
之所為	-10.7143
大家	-10.7143
即是	-10.7144
九原	-10.7147
自持	-10.7149
璽書	-10.715
也彼	-10.715
芸	-10.7154
猶可	-10.7154
寸心	-10.7154
屈指	-10.7158
非徒	-10.7158
屬予	-10.7159
乃有	-10.7163
無錫	-10.7164
四人	-10.7164
壬辰	-10.7166
人謂	-10.7166
施之	-10.7168
髙下	-10.7168
紅塵	-10.7168
科舉	-10.7171
曳	-10.7172
公私	-10.7172
装	-10.7174
無疑	-10.7179
有五	-10.7182
許之	-10.7184
宜其	-10.7189
與予	-10.7191
之機	-10.7194
使我	-10.7197
偶然	-10.72
之父	-10.7201
昔年	-10.7202
兩廣	-10.7204
一篇	-10.7205
問之	-10.7208
港	-10.7208
史氏	-10.7209
者葢	-10.7209
焉故	-10.7211
臬	-10.7213
斾	-10.7213
於無窮	-10.7214
可與	-10.7216
廬山	-10.7216
奉聖㫖	-10.7219
吳興	-10.7225
能無	-10.7226
巡按	-10.7227
之澤	-10.7229
憩	-10.723
不能自	-10.7233
官吏	-10.7236
傳曰	-10.7238
相如	-10.7238
也臣	-10.724
不可得而	-10.724
改元	-10.7241
詘	-10.7243
紀綱	-10.7244
支離	-10.7249
牛羊	-10.7252
風波	-10.7258
縦	-10.7258
也况	-10.7259
於其間	-10.7259
開元	-10.7263
有聞	-10.7265
飡	-10.7265
翺翔	-10.7266
遣人	-10.7266
娯	-10.7266
一門	-10.7267
寂寂	-10.727
㝠㝠	-10.7272
恍	-10.7273
裒	-10.7277
兩京	-10.728
何可	-10.7283
之交	-10.7283
於我	-10.7285
天門	-10.7287
及此	-10.7288
對酒	-10.7289
性情	-10.7289
冠帶	-10.7289
有懐	-10.729
汰	-10.7294
為御史	-10.7295
少時	-10.7296
雨後	-10.7296
非吾	-10.7298
數萬	-10.7298
你	-10.7299
璋	-10.73
芹	-10.73
必能	-10.7302
簫	-10.7302
六日	-10.7302
昔之	-10.7303
樂也	-10.7307
想見	-10.7308
荀	-10.7309
也豈	-10.7318
漢唐	-10.7318
瓶	-10.732
二者	-10.7321
一毫	-10.7324
紫氣	-10.7324
士民	-10.7324
軍門	-10.7326
無已	-10.7327
三十六	-10.7327
所有	-10.7329
暇日	-10.7329
十一年	-10.733
元季	-10.7331
何似	-10.7332
癸丑	-10.7333
百尺	-10.7333
風月	-10.7335
歸於	-10.7337
蹉跎	-10.7337
乎是	-10.7338
一時之	-10.734
航	-10.7351
兒童	-10.7357
孤城	-10.7357
吾弟	-10.736
鄉之	-10.7361
萬國	-10.7362
交游	-10.7365
跳	-10.7366
故也	-10.7368
未甞	-10.7368
賂	-10.737
隐	-10.737
以進	-10.7371
欲其	-10.7374
終其身	-10.7377
經歴	-10.7383
吾將	-10.7384
灾	-10.7384
枚	-10.7387
妥	-10.7388
纍纍	-10.7389
蘇州	-10.7391
紫陽	-10.7392
東園	-10.7395
固不	-10.7395
霜露	-10.7396
祠堂	-10.7396
撫按	-10.7396
斤	-10.7398
誠有	-10.7399
其生	-10.7399
浩然	-10.74
之具	-10.7401
大都	-10.7403
悅	-10.7404
廹	-10.7404
之弗	-10.7404
自以為	-10.7406
古人之	-10.7406
而益	-10.7408
忠臣	-10.7413
此豈	-10.7414
之衆	-10.7417
恂恂	-10.7421
究其	-10.7422
𥙷	-10.7422
者蓋	-10.7422
明堂	-10.7425
蝕	-10.7427
先祖	-10.7428
覿	-10.7428
國家之	-10.7429
齊魯	-10.7432
前輩	-10.7433
江淮	-10.7434
有文	-10.7435
拈	-10.7439
而不為	-10.7443
東北	-10.7443
本於	-10.7446
甲辰	-10.7446
道者	-10.7446
諸儒	-10.7448
之所謂	-10.7449
太和	-10.7452
大學士	-10.7454
先君子	-10.7455
行狀	-10.7456
侍從	-10.7456
剔	-10.7458
庚辰	-10.7458
瑜	-10.7459
甲戌	-10.7459
猥	-10.746
徜徉	-10.7462
于世	-10.7463
細雨	-10.7463
濱	-10.7464
侑	-10.7466
其書	-10.747
絮	-10.7473
劄	-10.7473
撼	-10.7478
𠂻	-10.7479
南還	-10.748
之女	-10.748
能不	-10.7483
為樂	-10.7485
無意	-10.7485
未發	-10.7487
雨過	-10.7487
嫉	-10.7492
月下	-10.7494
士君子	-10.7496
趂	-10.7496
沂	-10.7497
不屑	-10.7498
凡三	-10.7498
粒	-10.7499
劔	-10.7499
成王	-10.7499
礙	-10.7505
臨江	-10.7506
為公	-10.7508
光輝	-10.751
之極	-10.751
其罪	-10.7513
多所	-10.7514
在我	-10.7518
以資	-10.7518
沽	-10.7519
太傅	-10.7519
者吾	-10.7523
嘉興	-10.7526
懦	-10.7529
薨	-10.753
正學	-10.7537
疾病	-10.754
先卒	-10.754
莖	-10.7542
憎	-10.7546
中書舍人	-10.7546
相親	-10.7547
赫赫	-10.755
天意	-10.7556
六七	-10.756
喬木	-10.7561
學官	-10.7567
點	-10.7569
有待	-10.7574
天官	-10.7574
彚	-10.7579
其大	-10.7582
像贊	-10.7584
其私	-10.7585
潁	-10.7586
篷	-10.7586
其樂	-10.7587
幃	-10.7591
未暇	-10.7593
鄉黨	-10.7595
存心	-10.7595
之靈	-10.7599
一鄉	-10.7599
武陵	-10.7601
壙	-10.7601
不茍	-10.7602
國士	-10.7604
又謂	-10.7606
杪	-10.7607
而言	-10.7608
本末	-10.7609
行矣	-10.7609
嘅	-10.761
方寸	-10.7617
餌	-10.7618
餽	-10.7619
謝曰	-10.7621
湮	-10.7622
戊辰	-10.7625
儘	-10.7625
命也	-10.7629
綂	-10.7631
不難	-10.7631
之爲	-10.7634
難為	-10.7635
羽翼	-10.7636
詞林	-10.7637
以次	-10.7641
兾	-10.7642
胡氏	-10.7643
今觀	-10.7643
既已	-10.7644
孔明	-10.7646
一物	-10.7647
顆	-10.7647
亦未	-10.7649
屑	-10.7652
取諸	-10.7652
而忘	-10.7654
鞍	-10.7654
龍泉	-10.7655
罔不	-10.7655
義理	-10.7659
身後	-10.7659
鸚鵡	-10.7663
腥	-10.7663
其長	-10.7665
屯田	-10.7665
為治	-10.7666
轅	-10.7679
黠	-10.768
推恩	-10.7683
攄	-10.7684
幾度	-10.7685
孰謂	-10.769
教官	-10.7696
乆而	-10.7697
萬壑	-10.7697
未聞	-10.7701
世世	-10.7703
嘉定	-10.7705
漠漠	-10.7709
風景	-10.7711
墅	-10.7712
教人	-10.7713
雨雪	-10.7714
而思	-10.7714
秋夜	-10.7718
庚子	-10.772
有年	-10.7724
闕下	-10.7724
如水	-10.7725
離離	-10.7728
肝	-10.7728
毅然	-10.7732
璉	-10.7733
踪	-10.7734
中州	-10.7737
求諸	-10.774
祖妣	-10.7741
塾	-10.7745
天心	-10.7745
其位	-10.7746
相過	-10.7748
斯言	-10.7748
告之	-10.7749
通家	-10.7751
今天下	-10.7751
鄉先生	-10.7751
方今	-10.7752
臣聞	-10.7752
瓢	-10.7752
止於	-10.7752
犢	-10.7754
報國	-10.7757
趍	-10.7757
言其	-10.7758
吾輩	-10.7758
而猶	-10.7758
醪	-10.7759
眇	-10.7761
一節	-10.7763
願言	-10.7765
部使者	-10.7768
長嘯	-10.7769
豎	-10.777
其成	-10.7773
萬石	-10.7774
敲	-10.7774
欹	-10.7775
本體	-10.7776
送陳	-10.7777
流涕	-10.7778
愉	-10.7783
金門	-10.7784
無聲	-10.7787
經濟	-10.779
十三年	-10.779
天下事	-10.7791
㒺	-10.7792
孰為	-10.7792
夸	-10.7792
酒酣	-10.7794
之分	-10.7796
茫然	-10.7807
不能以	-10.7808
瘳	-10.7808
何有	-10.7808
盜賊	-10.781
叔父	-10.7812
秋霜	-10.7812
燬	-10.7814
空谷	-10.7814
縉	-10.7815
不思	-10.7816
以報	-10.7819
有意	-10.782
流光	-10.7821
夜夜	-10.7823
黯	-10.7825
丙戌	-10.7827
受其	-10.7829
予以	-10.783
天下之人	-10.783
追封	-10.783
者如	-10.783
滿地	-10.783
百家	-10.7831
懈	-10.7831
瀉	-10.7833
憔悴	-10.7833
虬	-10.7836
如之何	-10.7836
送張	-10.7836
丘壑	-10.7837
𣺌	-10.7839
事者	-10.7842
者當	-10.7847
患難	-10.7848
伊尹	-10.7848
與余	-10.7848
葦	-10.785
中心	-10.785
贈言	-10.7853
詩成	-10.7854
而退	-10.7855
艮	-10.786
紗	-10.7865
職方	-10.7866
倉卒	-10.7866
愛其	-10.7868
悶	-10.7868
旦暮	-10.787
燕山	-10.7872
從來	-10.7874
故能	-10.7874
不以為	-10.7875
貢士	-10.788
吾郡	-10.788
光明	-10.7886
湖南	-10.7886
春光	-10.7888
男女	-10.7888
癖	-10.789
城市	-10.7891
有四	-10.7891
如玉	-10.7892
之域	-10.7894
日新	-10.7895
送君	-10.7896
惻	-10.7896
考之	-10.79
汶	-10.7904
者然	-10.7904
迄今	-10.7905
老夫	-10.7907
穉	-10.7907
家世	-10.7908
襄陽	-10.791
辜	-10.7912
伯仲	-10.7915
鴻鴈	-10.7915
佳人	-10.7915
悵然	-10.7917
十數	-10.7918
魚龍	-10.7919
鐫	-10.7922
田園	-10.7923
二十日	-10.7925
穫	-10.7925
黛	-10.7926
在兹	-10.7939
世所	-10.7944
儒學	-10.7947
之勞	-10.7947
池上	-10.7952
翕	-10.7953
祭祀	-10.7954
北海	-10.7956
更有	-10.7956
江河	-10.7959
所屬	-10.7961
而天下	-10.7963
橫	-10.7963
亦然	-10.7966
文詞	-10.7966
餓	-10.7966
也何	-10.7967
鍊	-10.797
謂公	-10.7971
不惜	-10.7971
再三	-10.7973
俘	-10.7974
書法	-10.7975
一章	-10.7975
家庭	-10.7977
誦之	-10.7978
一曰	-10.7979
令子	-10.798
聲色	-10.7982
在官	-10.7983
有過	-10.7984
可考	-10.7989
論之	-10.7994
理之	-10.7995
天際	-10.7995
前項	-10.7996
拍	-10.7997
奉㫖	-10.7999
可知也	-10.8001
廡	-10.8003
而君	-10.8004
為一	-10.8005
乃為	-10.8005
萱	-10.8007
嶠	-10.8008
百嵗	-10.8013
不便	-10.8013
起而	-10.8017
丁酉	-10.8019
壬午	-10.802
棄之	-10.8022
然以	-10.8027
學而	-10.8028
還鄉	-10.8028
皇明	-10.8029
有客	-10.8031
相應	-10.8033
正是	-10.8036
稽首	-10.8036
少傅	-10.8039
州府	-10.8039
固宜	-10.8039
青春	-10.8039
萬方	-10.804
胸	-10.8041
公在	-10.8041
酹	-10.8041
不稱	-10.8042
榦	-10.8042
所願	-10.8049
名其	-10.8052
員外	-10.8052
吏部尚書	-10.8053
浮屠	-10.8054
溪山	-10.8057
白鶴	-10.8057
王母	-10.8058
閎	-10.8058
如雲	-10.8068
椎	-10.8068
安危	-10.8072
又明年	-10.8072
而死	-10.8076
篤於	-10.8078
來京師	-10.8079
蕭氏	-10.8081
秋聲	-10.8084
題曰	-10.8084
無情	-10.809
綜	-10.809
轂	-10.8094
丁亥	-10.8096
五行	-10.8098
無定	-10.8099
墓銘	-10.8104
行義	-10.8105
有遺	-10.8105
十三日	-10.8112
舟楫	-10.8112
梧桐	-10.8113
雖未	-10.8114
無幾	-10.8115
建安	-10.8116
堕	-10.8116
徐君	-10.8116
剡	-10.8118
滛	-10.8119
紛紜	-10.812
矣余	-10.8121
即今	-10.8122
道德	-10.8125
踰年	-10.8125
暮雲	-10.8125
獨有	-10.8126
貝	-10.8127
五馬	-10.8128
儼然	-10.813
為記	-10.8132
按察副使	-10.8133
塋	-10.8135
吝	-10.8135
其大者	-10.8138
叅議	-10.8138
甲午	-10.8139
皋	-10.8139
其亦	-10.8139
之宜	-10.8142
宣德	-10.8143
不妄	-10.8144
力學	-10.8146
存焉	-10.8151
亦必	-10.8153
覬	-10.8153
庚午	-10.8154
溷	-10.8155
樓船	-10.8155
稠	-10.8156
山澤	-10.8156
某等	-10.8157
覊	-10.8158
濟南	-10.8159
不滿	-10.816
乎吾	-10.8161
以文學	-10.8164
宛轉	-10.8166
石上	-10.8167
慊	-10.8168
杏花	-10.8169
之效	-10.817
不傳	-10.8171
之詳	-10.8172
故家	-10.8173
乞歸	-10.8174
聫	-10.8175
銀河	-10.8175
東林	-10.8176
往事	-10.8178
今上	-10.8178
循良	-10.8179
吳公	-10.8179
而出	-10.8181
馬上	-10.8185
之失	-10.8186
然哉	-10.8188
舂	-10.8195
思所以	-10.8197
滄溟	-10.8198
得無	-10.8199
一面	-10.82
異於	-10.8202
帑	-10.8203
根本	-10.8204
甚至	-10.8205
又嘗	-10.8205
日與	-10.8208
刻之	-10.8209
本官	-10.821
啄	-10.8212
以教	-10.8216
氷雪	-10.822
風氣	-10.8231
盼	-10.8231
胎	-10.8232
鎭	-10.8236
十六日	-10.8237
孤舟	-10.8237
清溪	-10.8237
之狀	-10.8238
不治	-10.8238
至京師	-10.8241
推之	-10.8241
不願	-10.8246
杯酒	-10.8246
在乎	-10.8248
四日	-10.8248
舍人	-10.8249
者猶	-10.825
吾儕	-10.825
刺史	-10.825
以書	-10.8253
學行	-10.8256
左氏	-10.8264
是皆	-10.8265
能使	-10.8268
其法	-10.8269
冡	-10.8269
千山	-10.827
萬人	-10.8271
總兵	-10.8271
遞	-10.8271
伯子	-10.8272
笏	-10.8273
雖無	-10.8274
故里	-10.8277
不能不	-10.8277
事宜	-10.8279
待之	-10.8279
不似	-10.8283
發於	-10.8285
歎息	-10.8287
鉉	-10.8288
婢	-10.8292
伯玉	-10.8292
殄	-10.8292
吾黨	-10.8293
按察	-10.8294
十二日	-10.8294
楊君	-10.8298
莫非	-10.8303
暘	-10.8307
士竒	-10.8307
者若	-10.8309
浩浩	-10.8312
秋月	-10.8317
睇	-10.8319
好惡	-10.832
到處	-10.8326
又為	-10.8328
雞鳴	-10.8328
之兵	-10.8332
者三	-10.8333
逵	-10.8333
弗克	-10.8333
卻	-10.8334
八日	-10.8334
之長	-10.8337
尤為	-10.8338
去後	-10.8338
不遑	-10.8339
不使	-10.834
豈以	-10.8345
騫	-10.8345
不立	-10.8346
具奏	-10.8346
物理	-10.8348
戊戌	-10.835
中道	-10.835
廷臣	-10.8352
厠	-10.8352
居民	-10.8354
一本	-10.8356
不但	-10.8357
不寐	-10.8359
又聞	-10.8361
士卒	-10.8362
授以	-10.8363
召公	-10.8364
秦漢	-10.837
儂	-10.837
癸酉	-10.837
亦是	-10.8372
為世	-10.8372
丙申	-10.8372
悽	-10.8375
并序	-10.8375
必不	-10.8375
匣	-10.8377
者如此	-10.8385
十一日	-10.8386
子男	-10.8387
治天下	-10.8387
淛	-10.8388
公獨	-10.8392
鬂	-10.8392
京華	-10.8392
五人	-10.8393
曵	-10.8394
亦嘗	-10.84
要之	-10.8402
鴻臚	-10.8405
服闋	-10.8407
哉今	-10.8408
江流	-10.8416
今天子	-10.8418
程氏	-10.8419
余與	-10.8422
十八日	-10.8423
贄	-10.8425
遯	-10.8431
國子生	-10.8431
鉤	-10.8433
先塋	-10.8433
人倫	-10.8436
師道	-10.8437
何幸	-10.8438
殺之	-10.8438
若不	-10.8439
不孝	-10.8443
嘗為	-10.8443
與天	-10.8443
驅馳	-10.8447
幾年	-10.8447
自今	-10.8448
宗廟	-10.845
此亦	-10.8451
陽明	-10.8453
以時	-10.8454
綃	-10.8454
旬日	-10.8464
諸友	-10.8465
瞽	-10.8469
槁	-10.8469
西江	-10.8474
勤儉	-10.8474
即日	-10.8478
周子	-10.848
之感	-10.848
之始	-10.8483
詠歌	-10.8485
發其	-10.8492
嗔	-10.8492
之族	-10.8494
皆為	-10.8494
躭	-10.8496
之化	-10.8498
禮之	-10.8498
江北	-10.8502
爲人	-10.8506
壬寅	-10.8509
丙午	-10.851
於兹	-10.851
皎	-10.8511
予亦	-10.8513
也故曰	-10.8513
識其	-10.8517
可無	-10.8519
睠	-10.8523
相國	-10.8524
濟濟	-10.8525
過之	-10.8527
以養	-10.8528
禽獸	-10.8528
偈	-10.853
狡	-10.8533
其教	-10.8535
筍	-10.8535
大將軍	-10.8535
薰	-10.8535
天下之大	-10.8535
墩	-10.8535
鴛鴦	-10.8536
也蓋	-10.8537
世為	-10.8539
成均	-10.854
戸部	-10.854
不學	-10.8548
三品	-10.8548
甄	-10.8549
成都	-10.8551
祕	-10.8551
夫以	-10.8552
入朝	-10.8552
有若	-10.8553
荆棘	-10.8556
見者	-10.8557
九天	-10.8563
筴	-10.8567
多寡	-10.8569
以疾卒	-10.8569
公事	-10.8572
聖徳	-10.8573
萬萬	-10.8579
致之	-10.8581
後之	-10.8582
而反	-10.8584
恰	-10.8586
所學	-10.8588
躁	-10.8588
都司	-10.8591
自此	-10.8593
片言	-10.8593
芽	-10.8594
功夫	-10.8597
無私	-10.8598
上方	-10.86
道義	-10.8601
窮理	-10.8602
其外	-10.8603
著於	-10.8604
其理	-10.8606
世祖	-10.8607
留意	-10.8608
之堂	-10.861
不知所	-10.861
笳	-10.8611
故國	-10.8613
肌	-10.8616
西園	-10.8617
憇	-10.8617
癸未	-10.8619
樂府	-10.8619
不輕	-10.862
不疑	-10.862
漁樵	-10.862
正直	-10.8622
布政	-10.8623
如在	-10.8623
乎今	-10.8627
齋居	-10.8627
皇皇	-10.8628
此去	-10.8629
僭	-10.863
臭	-10.8631
清秋	-10.8632
固非	-10.8633
騖	-10.8634
炫	-10.8635
吾師	-10.8639
言行	-10.8639
天寒	-10.864
以疾	-10.8649
清江	-10.8651
以病	-10.8652
大體	-10.8652
莅	-10.8652
有是	-10.8656
而來	-10.8656
帯	-10.8656
嗤	-10.8657
丈人	-10.8658
榛	-10.8659
在外	-10.8659
五首	-10.8659
荆州	-10.866
竟日	-10.8661
自少	-10.8662
無端	-10.8663
湖海	-10.8663
萬餘	-10.8663
山之原	-10.8667
拏	-10.8676
摶	-10.8677
向來	-10.8677
但見	-10.8678
重修	-10.8678
也已	-10.8679
何如哉	-10.868
松風	-10.8681
號令	-10.8682
不安	-10.8682
學道	-10.8686
白金	-10.8686
經過	-10.8687
欲求	-10.8687
庻幾	-10.8688
不齊	-10.8693
躬行	-10.8693
五六	-10.8693
鄊	-10.8694
則雖	-10.8696
畊	-10.8697
瘞	-10.8697
涸	-10.8705
兵馬	-10.8712
出于	-10.8712
有定	-10.8714
水流	-10.8716
查得	-10.8721
亦既	-10.8726
之方	-10.8727
然非	-10.8728
黄帝	-10.8728
諸司	-10.873
眼前	-10.8732
海宇	-10.8733
淵源	-10.8733
文嗚呼	-10.8733
大儒	-10.8733
行道	-10.8735
龍蛇	-10.8739
娱	-10.874
以副	-10.8742
霏	-10.8746
善者	-10.8748
之言曰	-10.8748
經年	-10.8751
開府	-10.8752
球	-10.8753
龍虎	-10.8756
和平	-10.8757
摭	-10.8757
孟子曰	-10.8757
都察院	-10.876
翰林學士	-10.8764
成進士	-10.8766
而遽	-10.877
見聞	-10.8772
絶頂	-10.8773
則不	-10.8775
漾	-10.8776
於戲	-10.878
堵	-10.8781
油	-10.8783
亦已	-10.8785
戊子	-10.8788
固當	-10.8788
議者	-10.8793
王事	-10.8793
笙	-10.8793
也曰	-10.8794
又不	-10.8795
深入	-10.8797
無忝	-10.8798
疇昔	-10.8799
竟不	-10.8799
尺寸	-10.88
孰能	-10.88
周君	-10.8814
可得而	-10.8814
此生	-10.8815
清白	-10.8817
様	-10.8821
請曰	-10.8823
有志於	-10.8824
蛾眉	-10.8827
刑部主事	-10.8828
諸山	-10.8832
盗賊	-10.8833
居然	-10.8833
也必	-10.8836
鬱鬱	-10.8836
流行	-10.8838
乂	-10.8839
閻	-10.884
詩以	-10.8842
潞	-10.8847
乎天	-10.8847
淹留	-10.8849
哺	-10.8853
而用之	-10.8854
豈敢	-10.8855
二十餘年	-10.8856
乙亥	-10.8856
髙宗	-10.8857
慕之	-10.8857
君為	-10.8859
竦	-10.886
其年	-10.8861
水旱	-10.8866
易曰	-10.8869
者無	-10.8871
一聲	-10.8874
也然而	-10.8877
猾	-10.8877
屍	-10.8881
呂	-10.8881
該部	-10.8883
者莫不	-10.8884
牡丹	-10.8885
霜雪	-10.8889
至誠	-10.889
長松	-10.8894
無何	-10.8895
無用	-10.8896
出也	-10.89
檀	-10.8902
寤	-10.8903
而實	-10.8908
我朝	-10.8908
尚在	-10.8908
執筆	-10.8909
不可及	-10.891
此巻	-10.8912
凱	-10.8912
髙風	-10.8915
拂衣	-10.8917
不假	-10.892
能盡	-10.892
莭	-10.8922
皆能	-10.8922
念之	-10.8923
龍山	-10.8923
棋	-10.8927
陀	-10.8935
有可	-10.8938
大有	-10.8939
拊	-10.8939
治道	-10.8941
名世	-10.8942
詡	-10.8942
㒒	-10.8943
丁丑	-10.8944
因循	-10.8946
宜有	-10.8948
壬申	-10.8949
江頭	-10.895
重陽	-10.895
囘首	-10.895
之異	-10.8953
用心	-10.8954
無涯	-10.8957
有加	-10.8958
塵土	-10.8959
夏日	-10.896
史官	-10.8962
嫂	-10.8963
壬子	-10.8965
薜蘿	-10.897
日出	-10.8972
衆皆	-10.8974
珍重	-10.8974
斯世	-10.8976
之期	-10.8984
壬戌	-10.8986
氊	-10.8987
頤	-10.8988
吾所	-10.8988
奏請	-10.8988
菱	-10.8988
悲夫	-10.8989
裙	-10.8989
挿	-10.8989
子雲	-10.8989
子女	-10.8992
惜之	-10.8994
德之	-10.8996
通行	-10.8997
二三子	-10.8999
章句	-10.8999
諸書	-10.9001
瑣	-10.9005
依舊	-10.9006
而易	-10.9007
極目	-10.9008
巔	-10.9009
颺	-10.901
諸郡	-10.9013
來歸	-10.9016
錢唐	-10.9019
成立	-10.9021
溟	-10.9023
五經	-10.9024
聖恩	-10.9026
眼中	-10.9027
世之人	-10.9028
太恭人	-10.9029
諸弟	-10.9031
都事	-10.9032
取士	-10.9032
之西	-10.9033
泗	-10.9035
事有	-10.9037
蒼苔	-10.904
先生以	-10.9045
女二	-10.9045
可愛	-10.9047
按察司	-10.9048
禮也	-10.9049
上命	-10.905
母夫人	-10.9051
之甚	-10.9055
中貴人	-10.9056
欲為	-10.9057
公墓誌銘	-10.9065
方外	-10.9066
趙氏	-10.9066
翰林院	-10.9067
鵝	-10.9069
變而	-10.907
之裔	-10.9071
弟子員	-10.9073
還朝	-10.9081
側室	-10.9086
無負	-10.9086
遼東	-10.9087
可否	-10.9087
人以為	-10.9089
元美	-10.9093
乙未	-10.9093
固無	-10.9094
㤙	-10.9094
遺書	-10.9095
蕋	-10.9095
典刑	-10.9095
五世	-10.9097
闔	-10.9097
公乃	-10.9098
知音	-10.9098
雍容	-10.9103
承平	-10.9105
風起	-10.9109
於下	-10.911
所司	-10.9111
八九	-10.9112
為子	-10.9113
孫女	-10.9116
皆在	-10.9121
魏公	-10.9122
爻	-10.9125
萬象	-10.9126
告成	-10.9128
以善	-10.9129
褐	-10.913
頓首	-10.9132
其體	-10.9133
而南	-10.9134
得罪	-10.9135
戊寅	-10.9136
讎	-10.9136
兩月	-10.9137
廣陵	-10.9138
軟	-10.9138
贈公	-10.9141
翁之	-10.9141
生者	-10.9142
鄉閭	-10.9143
是年	-10.9143
存乎	-10.9143
此圖	-10.9143
明卿	-10.9143
瀛洲	-10.9148
竟何	-10.9148
矦	-10.9148
之所在	-10.9151
佇	-10.9151
便宜	-10.9152
藜	-10.9153
隠居	-10.9155
已有	-10.9155
枝葉	-10.9156
締	-10.9158
其德	-10.9159
逺遊	-10.9159
梟	-10.9159
身心	-10.9162
人等	-10.9164
三代之	-10.9166
自家	-10.9168
莫道	-10.917
也雖	-10.9172
餒	-10.9174
千人	-10.9174
此中	-10.9177
寝	-10.9178
王父	-10.918
耐	-10.9181
竊惟	-10.9184
乃復	-10.9187
自言	-10.9188
之不可	-10.9188
主之	-10.9188
剽	-10.919
凛	-10.9195
委曲	-10.9195
同邑	-10.9195
乙酉	-10.9197
自幼	-10.9197
天機	-10.9198
老先生	-10.9201
殃	-10.9201
髩	-10.9202
甲寅	-10.9204
忽忽	-10.9204
論語	-10.9204
可用	-10.9214
焉以	-10.9216
矣嗚呼	-10.9217
蒿	-10.9217
舫	-10.9218
緇	-10.9218
庚申	-10.9223
小學	-10.9225
阨	-10.9226
節義	-10.9228
雷霆	-10.9228
崔嵬	-10.9229
于天	-10.9233
實録	-10.9235
知道	-10.9235
數百年	-10.9236
豈必	-10.9237
敬之	-10.9238
倐忽	-10.9241
蹊	-10.9242
宣府	-10.9244
嬴	-10.9246
三軍	-10.9254
備矣	-10.9255
其初	-10.9255
别去	-10.9256
也使	-10.9256
稽古	-10.9259
者自	-10.9259
圮	-10.9263
之音	-10.9265
舊遊	-10.9265
楨	-10.9266
雲林	-10.9268
斵	-10.9268
繳	-10.9269
夀考	-10.9273
閶闔	-10.9274
奉詔	-10.9275
歸来	-10.9277
宛然	-10.9277
漫漫	-10.9279
是宜	-10.928
不取	-10.9287
仁宗	-10.9287
磊落	-10.9287
兩人	-10.9287
複	-10.9287
茫	-10.9288
戊午	-10.9289
將歸	-10.929
萎	-10.9291
崑	-10.9292
薊	-10.9292
若何	-10.9293
次曰	-10.9299
汾	-10.9299
幽居	-10.93
入門	-10.93
孝思	-10.9301
已成	-10.9301
盖有	-10.9302
愿	-10.9302
㤀	-10.9303
今世	-10.9305
矣若	-10.9305
則已	-10.9306
懾	-10.9307
志於	-10.9308
可惜	-10.9308
籟	-10.9309
者是	-10.931
碧雲	-10.9315
人自	-10.9315
把酒	-10.9316
食之	-10.9318
其爲	-10.932
薊門	-10.932
鄙人	-10.9321
相接	-10.9323
相顧	-10.9324
一出	-10.9326
之報	-10.9326
亦曰	-10.9327
澆	-10.9335
一道	-10.9336
巍巍	-10.9336
其孫	-10.9339
軒記	-10.9341
惜其	-10.9345
非特	-10.9347
城下	-10.9352
絕	-10.9352
笋	-10.9353
其祖	-10.9354
䂓	-10.9354
明經	-10.9357
論文	-10.9362
繁華	-10.9363
人曰	-10.9365
之操	-10.9367
之夫	-10.9369
東門	-10.937
咸陽	-10.9372
鄉薦	-10.9374
同一	-10.9375
裹	-10.9375
慈母	-10.9375
石門	-10.9376
以供	-10.9378
者得	-10.9378
孝敬	-10.9381
鼇	-10.9381
都城	-10.9388
鹵	-10.939
七尺	-10.9392
於予	-10.9393
庚寅	-10.9394
可以為	-10.9394
傭	-10.9396
簇	-10.9397
者以為	-10.9399
兵部尚書	-10.9403
為名	-10.9403
皇太子	-10.9404
法度	-10.9404
自處	-10.9405
林壑	-10.9408
直指	-10.941
一介	-10.9414
廸	-10.9414
寖	-10.9416
銀兩	-10.9417
莫之	-10.9418
睨	-10.9421
至於今	-10.9422
無餘	-10.9425
乃能	-10.9428
夜宿	-10.9431
過從	-10.9431
合而	-10.9433
金玉	-10.9435
圎	-10.9435
可不	-10.9436
之物	-10.9438
昉	-10.944
惜哉	-10.9441
飛來	-10.9442
白鷗	-10.9442
塊	-10.9444
甘心	-10.9445
而已哉	-10.9453
逺而	-10.9455
吾親	-10.9456
甲第	-10.9456
臨清	-10.9459
成就	-10.9459
友愛	-10.946
南渡	-10.9461
在堂	-10.9461
誰復	-10.9464
吊	-10.9465
燎	-10.9466
看得	-10.9466
有人	-10.9466
無知	-10.9467
穏	-10.9467
児	-10.9467
不避	-10.9469
事例	-10.947
自天	-10.9472
氣質	-10.9474
固知	-10.9474
公生	-10.9475
銘銘曰	-10.9478
行李	-10.9479
址	-10.9481
蒐	-10.9483
憂患	-10.9484
也亦	-10.9484
飄然	-10.9485
盎	-10.9486
鄂	-10.9486
東宫	-10.9486
非惟	-10.9488
峩峩	-10.9488
不煩	-10.949
大計	-10.9493
文成	-10.9493
然自	-10.9497
中山	-10.9498
民生	-10.9499
圖畫	-10.9504
損益	-10.9504
夫子之	-10.9504
衫	-10.9506
野老	-10.9508
甓	-10.9508
有諱	-10.951
逢人	-10.951
曼	-10.951
有期	-10.951
朝陽	-10.951
諸將	-10.9511
馥	-10.9511
炭	-10.9515
十九日	-10.9515
滄江	-10.952
薦之	-10.9524
於身	-10.9525
予謂	-10.9527
既得	-10.9529
搗	-10.953
待罪	-10.9532
自守	-10.9532
坂	-10.9533
明故	-10.9533
一千	-10.9533
翩	-10.9535
扈從	-10.9535
不來	-10.9535
浮生	-10.9536
先帝	-10.9536
以便	-10.9536
少陵	-10.9536
寥	-10.9538
則知	-10.9541
知名	-10.9543
人臣	-10.9543
而愈	-10.9546
髙樓	-10.9549
殤	-10.955
石室	-10.9551
當有	-10.9552
不事	-10.9553
故山	-10.9554
之大者	-10.9556
此固	-10.9557
樓閣	-10.956
舉業	-10.956
之神	-10.9561
號為	-10.9561
南安	-10.9562
甘露	-10.9563
曲江	-10.9566
不禁	-10.9566
代之	-10.9567
東歸	-10.9567
父也	-10.9568
功徳	-10.9569
車駕	-10.9569
六百	-10.9574
賻	-10.9575
人材	-10.9576
誄	-10.9576
失所	-10.9576
送别	-10.9577
語曰	-10.9578
扈	-10.9579
子思	-10.958
公至	-10.9582
宗室	-10.9583
欲得	-10.9585
之隆	-10.9585
舊時	-10.9586
重輕	-10.9587
一錢	-10.9587
捍	-10.9591
乃得	-10.9592
揚雄	-10.9597
吸	-10.9597
君父	-10.9597
於古	-10.9598
物色	-10.9603
縣人	-10.9607
君曰	-10.9608
禮法	-10.9608
及時	-10.9609
賓客	-10.9609
卒業	-10.961
弑	-10.9611
約束	-10.9612
蹄	-10.9614
贊曰	-10.9615
亦豈	-10.9615
旻	-10.9618
那得	-10.9618
病中	-10.9619
吳越	-10.9619
猶自	-10.9619
十七日	-10.962
一編	-10.9621
淵明	-10.9624
師之	-10.9626
而興	-10.9627
質之	-10.9627
深處	-10.9628
别墅	-10.9629
隆慶	-10.9631
諸家	-10.9632
閤	-10.9632
吾身	-10.9633
有詩	-10.9636
孤雲	-10.9637
死矣	-10.964
奨	-10.964
之材	-10.964
可畏	-10.964
弩	-10.9641
媵	-10.9643
䨇	-10.9645
即以	-10.9646
彭蠡	-10.9647
琦	-10.9648
丙	-10.9649
諸老	-10.9652
泮	-10.9653
堂堂	-10.9653
謳	-10.9656
既以	-10.9657
伯父	-10.9657
然猶	-10.9657
成敗	-10.9658
難矣	-10.9658
之死	-10.9659
國子	-10.9661
不喜	-10.9663
諄諄	-10.9664
二十五	-10.9665
鬯	-10.9667
别來	-10.9669
昊	-10.9673
辛苦	-10.9676
月滿	-10.9677
閩中	-10.968
如斯	-10.9681
無地	-10.9683
疵	-10.9687
思親	-10.9688
翦	-10.9689
予友	-10.9689
有徳	-10.9689
悃	-10.969
南風	-10.9691
築室	-10.9692
與我	-10.9695
厰	-10.9696
彭澤	-10.9699
碣	-10.9701
正色	-10.9703
故為	-10.9703
形容	-10.9705
後生	-10.9707
屨	-10.9707
蠅	-10.9708
浙東	-10.9708
千戸	-10.9709
二十八	-10.971
猶能	-10.971
笞	-10.9711
男兒	-10.9711
墀	-10.9712
所與	-10.9712
也遂	-10.9712
今已	-10.9712
大行	-10.9719
威儀	-10.9719
冺	-10.9724
藹然	-10.9724
所取	-10.9726
亥	-10.9728
之以為	-10.9728
相憶	-10.9731
孟氏	-10.9733
離别	-10.9735
悲風	-10.9736
不愛	-10.9737
吾兒	-10.9737
逄	-10.9737
金馬	-10.9737
其視	-10.9738
盛矣	-10.9742
曽孫	-10.9742
玉山	-10.9743
風紀	-10.9744
也子	-10.9748
三江	-10.9748
草色	-10.9749
猗	-10.9752
聞人	-10.9752
宼	-10.9754
悲歌	-10.9754
所書	-10.9755
朶	-10.9758
逶迤	-10.976
唐宋	-10.9762
鍾山	-10.9766
惟謹	-10.9767
盡其	-10.9767
責之	-10.9774
萬頃	-10.9775
鑾	-10.9775
公孫	-10.9776
不得而	-10.9776
不仁	-10.9776
應之	-10.9779
之積	-10.978
深山	-10.9782
不乏	-10.9782
歸路	-10.9783
譜牒	-10.9788
驄	-10.9789
亦可謂	-10.9792
夜坐	-10.9793
臣子	-10.9794
吏治	-10.9794
風生	-10.9795
順天	-10.9795
不論	-10.9796
實有	-10.9798
髻	-10.98
諗	-10.98
焉是	-10.9803
丹砂	-10.9803
噴	-10.9804
太保	-10.9804
幄	-10.9804
三徑	-10.9805
大海	-10.9806
用功	-10.9807
頋	-10.9808
嘗聞	-10.9809
時方	-10.9811
知也	-10.9812
字子	-10.9815
疫	-10.9815
衡門	-10.9817
李子	-10.9821
成而	-10.9822
曇	-10.9824
書來	-10.9824
殱	-10.9825
販	-10.9825
家法	-10.9826
今又	-10.9826
薇	-10.9828
知人	-10.9831
賢而	-10.9832
刻石	-10.9837
四五	-10.9839
去其	-10.9848
風日	-10.9849
有才	-10.985
斜日	-10.9851
萬户	-10.9853
矣是	-10.9856
八百	-10.986
與否	-10.9862
風雅	-10.9864
其材	-10.9867
乎故	-10.9867
龍飛	-10.9867
朝來	-10.9868
以貽	-10.9869
毓	-10.987
於後世	-10.987
醫藥	-10.9871
儷	-10.9871
雲霧	-10.9873
有神	-10.9875
不可知	-10.9877
門生	-10.9879
用其	-10.9879
為文章	-10.9882
相公	-10.9885
一郡	-10.9889
諉	-10.9895
蠱	-10.9896
延平	-10.9897
未央	-10.9903
五更	-10.9903
直道	-10.9905
不畏	-10.9906
業已	-10.9907
又皆	-10.9913
偹	-10.9913
勲業	-10.9915
送客	-10.9915
撃	-10.9919
老母	-10.9919
榮名	-10.992
岱	-10.992
不至於	-10.9921
老病	-10.9928
安在	-10.9929
酉	-10.9933
其術	-10.9937
田里	-10.9938
顓	-10.9939
逺道	-10.9939
南望	-10.9939
昬	-10.9943
大梁	-10.9944
柟	-10.9944
紋	-10.9946
贑	-10.9948
鎮守	-10.9949
送李	-10.9954
賢否	-10.9958
不特	-10.996
鵞	-10.9961
殉	-10.9961
劫	-10.9961
為諸生	-10.9962
啖	-10.9963
戊申	-10.9964
涖	-10.9965
淋漓	-10.9965
民力	-10.9965
尊酒	-10.9966
稱為	-10.9966
賖	-10.9966
七人	-10.9967
史記	-10.9975
令名	-10.9975
於理	-10.9976
濟之	-10.9976
若干巻	-10.9979
學也	-10.998
益以	-10.998
清光	-10.9981
多情	-10.9984
頰	-10.9985
列聖	-10.9985
乙丑	-10.9989
免於	-10.999
邯鄲	-10.9991
徙居	-10.9992
吾知	-10.9993
題名	-10.9995
宋人	-10.9996
否則	-10.9998
南畿	-10.9998
自成	-11.0001
曽子	-11.0001
知州	-11.0004
行藏	-11.0005
不窮	-11.0005
文物	-11.0005
廣文	-11.0005
者衆	-11.0007
蘋	-11.0008
喙	-11.0009
鎻	-11.0013
之子孫	-11.0013
十人	-11.0013
因之	-11.0014
入於	-11.0014
也凡	-11.0016
長風	-11.0016
夢裏	-11.0017
泠泠	-11.0018
不得其	-11.0022
千尺	-11.0023
浣	-11.0025
亦足	-11.0027
砥	-11.0027
嶂	-11.0028
婆	-11.0028
而逝	-11.0031
出守	-11.0031
唾	-11.0031
之興	-11.0034
茆	-11.0034
以昭	-11.0035
亦云	-11.0035
不測	-11.0036
之勤	-11.0039
沓	-11.0039
大業	-11.004
多事	-11.004
者宜	-11.0042
昔日	-11.0043
留别	-11.0049
幕府	-11.005
鼓舞	-11.005
一嵗	-11.0052
安南	-11.0053
韓公	-11.0054
頸	-11.0055
慤	-11.0057
儒生	-11.0057
斟酌	-11.0058
南浦	-11.0059
用力	-11.0061
意也	-11.0063
凄凉	-11.0063
古詩	-11.0064
到家	-11.0064
和之	-11.0067
二氏	-11.007
者尚	-11.0073
致政	-11.0075
孔子之	-11.0076
人不	-11.0078
貂	-11.0079
若無	-11.008
受之	-11.0081
人欲	-11.0081
夲	-11.0082
日落	-11.0083
理也	-11.0086
西來	-11.0087
早卒	-11.0088
考滿	-11.0088
試之	-11.0088
至元	-11.0089
相承	-11.0089
菊花	-11.0094
之懿	-11.0096
父諱	-11.0097
論議	-11.0097
梁園	-11.01
其國	-11.0101
才名	-11.0102
守仁	-11.0104
不休	-11.0106
慵	-11.0107
庠序	-11.0107
之正	-11.0107
蹔	-11.0109
矯矯	-11.0111
相尋	-11.0111
異同	-11.0112
是嵗	-11.0114
官至	-11.0115
是亦	-11.0116
文選	-11.0117
不變	-11.012
之主	-11.012
非常	-11.0121
可喜	-11.0121
封侯	-11.0123
長老	-11.0124
之戒	-11.0126
嘗謂	-11.0126
伯兄	-11.0129
榮辱	-11.0129
建昌	-11.013
汨	-11.013
馬蹄	-11.0132
道傍	-11.0135
而先生	-11.0136
古木	-11.0136
望其	-11.0143
月中	-11.0144
尚存	-11.0144
不敏	-11.0145
悚	-11.0145
不歸	-11.0147
立志	-11.0147
桂樹	-11.0151
辛巳	-11.0151
煎	-11.0153
燦	-11.0155
敢忘	-11.0155
戚戚	-11.016
相忘	-11.016
太古	-11.0162
風采	-11.0163
看山	-11.0168
今夜	-11.017
不具	-11.0171
執政	-11.0173
詞賦	-11.0174
貼	-11.0176
苦心	-11.0176
齋記	-11.0176
集序	-11.0178
桀	-11.0178
水火	-11.0178
白露	-11.018
辛未	-11.018
君恩	-11.0181
行樂	-11.0184
何妨	-11.0185
遂成	-11.0186
二千	-11.0186
其政	-11.0187
廷尉	-11.0192
皇天	-11.0193
常熟	-11.0193
公名	-11.0194
與諸	-11.0195
風光	-11.0197
李白	-11.0199
有疾	-11.0199
不可見	-11.02
光景	-11.02
鳥獸	-11.0201
疚	-11.0201
之境	-11.0201
慝	-11.0201
楊柳	-11.0203
攅	-11.0205
其先世	-11.0205
分守	-11.0205
也及	-11.0206
又見	-11.0211
柰	-11.0212
而入	-11.0214
北望	-11.0217
又將	-11.0218
而莫	-11.0218
治平	-11.0218
山寺	-11.0219
文采	-11.022
齋先生	-11.022
乎予	-11.0222
㕘政	-11.0223
謔	-11.0224
窆	-11.0224
敖	-11.0226
非一	-11.0226
之孝	-11.0227
大書	-11.0229
孺人之	-11.023
偶成	-11.023
杭州	-11.0231
皆是	-11.0231
一言以	-11.0242
先聖	-11.0242
海門	-11.0247
乎然	-11.0249
來往	-11.0249
此又	-11.025
麋鹿	-11.025
㤗	-11.0252
不懈	-11.0252
桑麻	-11.0254
瀕	-11.0256
經義	-11.0256
合葬	-11.0257
有六	-11.0258
不然則	-11.0259
長公	-11.026
君亦	-11.0261
水部	-11.0261
之水	-11.0262
王道	-11.0265
立朝	-11.0265
歴歴	-11.0265
始有	-11.0266
文以	-11.0266
林氏	-11.0267
扵此	-11.0268
河漢	-11.0271
風雪	-11.0272
也歟	-11.0272
吻	-11.0273
抉	-11.0273
鼠	-11.0275
遒	-11.0275
晞	-11.0276
絢	-11.0279
至公	-11.0282
贈之	-11.0287
白晝	-11.0288
公家	-11.0296
盡日	-11.0297
異乎	-11.0298
者悉	-11.0301
河流	-11.0303
存亡	-11.0306
竭力	-11.0306
事體	-11.0308
非其人	-11.0309
兢兢	-11.0309
者可	-11.031
月出	-11.0311
家政	-11.0312
訐	-11.0316
比之	-11.0316
芥	-11.0318
猝	-11.0319
泓	-11.0323
死於	-11.0325
舸	-11.0325
其五	-11.0325
同郡	-11.0325
閘	-11.0327
者誰	-11.0329
不多	-11.033
螢	-11.0331
髙士	-11.0331
不可以不	-11.0332
以全	-11.0332
梨	-11.0333
之未	-11.0335
借問	-11.0335
漢之	-11.0335
名位	-11.0338
用人	-11.0338
修身	-11.0339
客有	-11.0342
之位	-11.0344
顏	-11.0345
其弊	-11.0347
雪中	-11.0349
中朝	-11.0349
倩	-11.035
紓	-11.0351
只有	-11.0351
南來	-11.0352
凡有	-11.0352
之權	-11.0353
來請	-11.0354
膝下	-11.0354
升堂	-11.0356
及於	-11.0358
不偶	-11.036
過人	-11.036
赤壁	-11.0363
必有所	-11.0364
者此	-11.0365
此是	-11.0367
𦂳	-11.037
鏞	-11.037
自喜	-11.0373
年四十	-11.0373
然有	-11.0376
父母之	-11.0376
詩禮	-11.0379
玉壺	-11.038
版	-11.038
縣治	-11.0385
下車	-11.0385
之句	-11.0386
糴	-11.039
店	-11.0392
嘶	-11.0393
人或	-11.0393
以佐	-11.0394
皂	-11.0395
别業	-11.0395
留都	-11.0397
孕	-11.0397
為郡	-11.0398
曰夫	-11.0399
古昔	-11.0399
遺文	-11.0401
曾孫	-11.0402
庭前	-11.0403
之辨	-11.0405
一氣	-11.0409
今兹	-11.0409
無任	-11.041
難於	-11.0411
莆田	-11.0412
修撰	-11.0412
戱	-11.0416
伯氏	-11.0416
讌	-11.0419
一名	-11.0419
隱居	-11.0419
以治	-11.042
晷	-11.0421
玷	-11.0421
不察	-11.0421
其任	-11.0421
蛩	-11.0423
年二十	-11.0425
通政	-11.0425
親之	-11.0431
郡城	-11.0431
道心	-11.0433
山居	-11.0433
寰	-11.0435
甘棠	-11.0436
四子	-11.0438
匍匐	-11.044
百金	-11.044
之誼	-11.0444
豈特	-11.0444
喜曰	-11.0446
哉此	-11.0448
能自	-11.0449
其端	-11.045
弗及	-11.0451
肅肅	-11.0451
而爲	-11.0453
不足為	-11.0453
深矣	-11.0455
積善	-11.0455
人無	-11.0456
始以	-11.0457
儕	-11.0458
一水	-11.0458
民者	-11.0458
華陽	-11.0459
形勝	-11.046
請銘	-11.0461
聚散	-11.0461
圜	-11.0463
悠	-11.0466
京口	-11.0467
嶼	-11.0468
杖屨	-11.0469
臣愚	-11.047
髙皇帝	-11.047
之詞	-11.0471
澁	-11.0471
為本	-11.0471
宸濠	-11.0471
塚	-11.0472
生長	-11.0473
登進士第	-11.0475
以充	-11.0476
賡	-11.0477
亦復	-11.0478
邑庠生	-11.0478
各處	-11.0478
其所為	-11.0481
執法	-11.0481
戰國	-11.0482
四夷	-11.0483
吉安	-11.0483
田野	-11.0483
爾等	-11.0485
各該	-11.0489
與王	-11.049
之念	-11.049
復見	-11.049
鉢	-11.0491
檣	-11.0493
智者	-11.0493
豸	-11.0494
出納	-11.0495
桑榆	-11.0497
一觴	-11.0498
翠微	-11.0499
其善	-11.05
行部	-11.05
非所以	-11.05
民有	-11.0501
而余	-11.0505
莫若	-11.0507
長卿	-11.0511
果有	-11.0512
平地	-11.0512
月照	-11.0513
不聽	-11.0513
以遺	-11.0517
難得	-11.0518
溜	-11.0518
蛙	-11.052
聊以	-11.052
湖水	-11.0521
以終	-11.0521
舉人	-11.0523
蓬蒿	-11.0523
吳氏	-11.0523
始祖	-11.0525
君君	-11.0527
而始	-11.0527
不知何	-11.053
復為	-11.0533
先大夫	-11.0539
濮	-11.0539
廕	-11.0539
而居	-11.0539
有賢	-11.0541
昔在	-11.0542
發明	-11.0542
圉	-11.0543
扄	-11.0545
治亂	-11.0557
提舉	-11.0557
是已	-11.0557
公嘗	-11.056
腹心	-11.0561
生員	-11.0564
亹亹	-11.0565
亦將	-11.0566
孔門	-11.0566
隨處	-11.0566
鴨	-11.0567
髙帝	-11.0567
卧病	-11.057
入翰林	-11.057
奪之	-11.0571
知我	-11.0572
文昌	-11.0573
渝	-11.0575
比部	-11.0575
而可	-11.0577
宋元	-11.0578
過於	-11.0579
不才	-11.0579
五千	-11.0582
篤行	-11.0583
居家	-11.0583
黄鵠	-11.0584
致知	-11.0585
主上	-11.0589
贈别	-11.0589
諛	-11.0589
命下	-11.059
方其	-11.059
孔氏	-11.059
行行	-11.0591
釵	-11.0593
南州	-11.0595
三朝	-11.0601
不憚	-11.0603
為難	-11.0608
月十五日	-11.0609
問曰	-11.0609
司理	-11.061
既歸	-11.0613
宜興	-11.0613
同里	-11.0613
東望	-11.0614
筮	-11.0615
繋	-11.0615
緡	-11.0617
黄昏	-11.0617
者獨	-11.0617
一箇	-11.0619
所重	-11.0619
霆	-11.0619
盛事	-11.0621
儒臣	-11.0621
鉛	-11.0624
具本	-11.0625
第三	-11.0626
長城	-11.0626
者既	-11.0628
登山	-11.0629
五代	-11.0631
王侯	-11.0631
於詩	-11.0632
自憐	-11.0632
元日	-11.0635
雌	-11.0637
照得	-11.0638
與民	-11.0641
痰	-11.0641
足為	-11.0643
互相	-11.0644
之常	-11.0644
滔滔	-11.0645
脅	-11.0646
之績	-11.0649
惟我	-11.065
三十餘年	-11.0652
㕔	-11.0652
制作	-11.0653
一再	-11.0656
以觀	-11.0658
凌雲	-11.0659
舊業	-11.066
婿	-11.0662
挑	-11.0662
相似	-11.0663
逺邇	-11.0663
己丑	-11.0663
祀之	-11.0664
乎人	-11.0666
歴官	-11.0667
蕚	-11.0667
松楸	-11.0668
拆	-11.0669
勞苦	-11.0671
不徒	-11.0673
之病	-11.0676
起復	-11.0676
極矣	-11.0678
六朝	-11.0679
有曰	-11.0681
其師	-11.0682
瑰	-11.0683
趙公	-11.0684
伯夷	-11.0684
衰病	-11.0685
不類	-11.0686
壯士	-11.0689
僵	-11.0689
外物	-11.0689
琛	-11.0689
十四日	-11.0689
然者	-11.0691
水利	-11.0693
前日	-11.0696
百餘年	-11.07
闗中	-11.0702
以去	-11.0705
顯者	-11.0706
鄱陽	-11.0713
客至	-11.0714
煮	-11.0715
近代	-11.0715
鏤	-11.0716
於官	-11.0717
吿	-11.0718
人士	-11.0719
讞	-11.0719
矣哉	-11.072
暈	-11.072
所遇	-11.0721
入官	-11.0723
家君	-11.0723
踞	-11.0724
至京	-11.0726
之微	-11.0727
碧山	-11.0728
用事	-11.0729
山僧	-11.0733
軍中	-11.0734
急於	-11.0736
萬山	-11.0737
秩滿	-11.0737
碌碌	-11.0742
鄞	-11.0743
嘆息	-11.0748
者不能	-11.0748
一尊	-11.0749
與人交	-11.0751
貧者	-11.0754
土官	-11.0756
怙	-11.0757
斗酒	-11.0758
席上	-11.076
久不	-11.0765
養生	-11.0765
股肱	-11.0766
孰知	-11.0766
佛氏	-11.077
之居	-11.077
師儒	-11.0775
使民	-11.0777
憲使	-11.0778
昭昭	-11.0779
安民	-11.0779
郎官	-11.0779
無際	-11.0781
至善	-11.0782
志士	-11.0783
具題	-11.0785
夔	-11.079
鄭公	-11.079
尤難	-11.0795
塜	-11.0795
或可	-11.0797
漢家	-11.0798
者何也	-11.0798
當為	-11.0801
送劉	-11.0802
辭曰	-11.0803
自適	-11.0808
翼翼	-11.081
也既	-11.0812
欲盡	-11.0812
襍	-11.0813
胷	-11.0813
嘲	-11.0814
手自	-11.0814
大將	-11.0815
景物	-11.0816
道學	-11.0818
㪚	-11.0819
劬	-11.082
人道	-11.082
凟	-11.0821
菑	-11.0822
長吏	-11.0822
婆娑	-11.0822
殽	-11.0822
驅車	-11.0825
之議	-11.0825
思君	-11.0827
服除	-11.0828
山靈	-11.0829
壠	-11.083
石刻	-11.0832
天開	-11.0833
數語	-11.0834
奉母	-11.0834
獨行	-11.0834
笑語	-11.0835
樗	-11.0837
即此	-11.0839
法司	-11.084
噬	-11.084
其妻	-11.0841
鬰	-11.0842
聞君	-11.0845
名者	-11.0845
之謀	-11.0846
鞅	-11.0847
此理	-11.085
甚多	-11.085
而樂	-11.0851
行役	-11.0852
三分	-11.0854
亦當	-11.0854
柱國	-11.0855
當路	-11.0857
去之	-11.0857
顒	-11.0866
爪	-11.0866
行誼	-11.0866
癸亥	-11.0867
將有	-11.087
力行	-11.087
㩀	-11.087
朱公	-11.0871
天下士	-11.0873
先考	-11.0873
世情	-11.0875
十七年	-11.0875
至于今	-11.0877
民心	-11.0877
將無	-11.0878
伊川	-11.088
更無	-11.088
理學	-11.0881
其利	-11.0883
成周	-11.0886
大母	-11.0886
厚矣	-11.0886
燈前	-11.0887
豚	-11.089
囑	-11.0891
所著有	-11.0891
我國家	-11.0892
氣節	-11.0893
脯	-11.0893
西京	-11.0894
誠意	-11.0895
琮	-11.0895
覓	-11.0896
絃歌	-11.0897
煑	-11.0897
揷	-11.0897
不報	-11.0897
服之	-11.09
公於	-11.0901
大者	-11.0902
賢之	-11.0907
不虞	-11.0909
窶	-11.0913
於文	-11.0915
不可復	-11.0916
酧	-11.0917
顰	-11.0919
不分	-11.0919
大名	-11.092
龕	-11.092
規矩	-11.0924
尤甚	-11.0927
不給	-11.0928
郡國	-11.0928
歸于	-11.0928
薄暮	-11.093
幸有	-11.093
世系	-11.093
竊謂	-11.0935
笥	-11.0936
善政	-11.0937
之意也	-11.0937
而無所	-11.0939
館閣	-11.094
未見其	-11.0942
弘	-11.0942
安得不	-11.0942
所存	-11.0943
文帝	-11.0943
侃侃	-11.0943
之區	-11.0944
琵琶	-11.0945
寥廓	-11.0945
駸駸	-11.0946
聶	-11.0947
動静	-11.095
其難	-11.0951
山頭	-11.0953
其父母	-11.0954
可觀	-11.0956
達於	-11.0957
匏	-11.0958
遭逢	-11.0962
何不	-11.0963
春深	-11.0964
一通	-11.0964
君墓誌銘	-11.0965
孫男	-11.0965
惱	-11.0967
江城	-11.0968
仁人	-11.0968
都指揮	-11.0968
伎	-11.0968
押	-11.0969
盛衰	-11.0971
葆	-11.0972
城頭	-11.0975
有法	-11.0976
數行	-11.0977
竺	-11.0978
若干人	-11.0979
也即	-11.0981
之為人	-11.0988
天地萬物	-11.0988
曰若	-11.099
不幸而	-11.0991
詞章	-11.0991
則非	-11.0992
得請	-11.0994
剰	-11.0996
園林	-11.0997
暁	-11.0997
所不	-11.0998
撫之	-11.0999
東平	-11.1002
又非	-11.1002
豐年	-11.1002
林間	-11.1003
以請	-11.1004
家聲	-11.1004
之象	-11.1005
公卿大夫	-11.1005
鄉邦	-11.1006
瞿	-11.1007
擾擾	-11.1008
滄	-11.101
風動	-11.1012
制度	-11.1014
勳	-11.1018
河山	-11.1018
糓	-11.1019
頺	-11.102
河水	-11.1021
信乎	-11.1022
不移	-11.1022
都察院右副都御史	-11.1023
于兹	-11.1024
一經	-11.1024
盈盈	-11.1025
公卒	-11.1026
風雷	-11.1027
扃	-11.1027
聞見	-11.1029
誌銘	-11.1032
公言	-11.1034
遲遲	-11.1035
白璧	-11.1038
神人	-11.1038
有詔	-11.104
西域	-11.1041
一葉	-11.1042
驢	-11.1042
子之言	-11.1045
圯	-11.1047
軄	-11.1048
準	-11.1049
鄭君	-11.105
徭	-11.1054
曰不然	-11.1055
毁譽	-11.1056
秋官	-11.1056
烽火	-11.1056
享年七十	-11.1062
初度	-11.1065
請以	-11.1065
耶抑	-11.1065
譬如	-11.1066
歌曰	-11.1067
及今	-11.1067
珂	-11.1069
十八年	-11.107
所親	-11.1071
丐	-11.1072
己巳	-11.1073
貎	-11.1073
書此	-11.1074
痾	-11.1075
王府	-11.1076
冥冥	-11.1076
騎馬	-11.1079
軍務	-11.108
之君子	-11.1081
嘗有	-11.1082
不踰	-11.1083
颯	-11.1086
端居	-11.1091
之助	-11.1091
比於	-11.1091
舛	-11.1096
歌詠	-11.1097
卜居	-11.1097
媪	-11.1098
况復	-11.1099
登第	-11.1099
䆳	-11.1101
以取	-11.1101
蕉	-11.1104
斛	-11.1104
磵	-11.1105
老氏	-11.1105
書成	-11.1105
仕宦	-11.1105
愕	-11.1105
神靈	-11.1106
置酒	-11.1106
一邑	-11.1106
尊前	-11.1107
乎若	-11.1108
同遊	-11.1108
釋之	-11.1109
嘉禾	-11.111
香山	-11.1111
十首	-11.1114
稚子	-11.1115
平時	-11.1117
習之	-11.1118
紫芝	-11.112
四世	-11.1121
駟	-11.1121
如天	-11.1122
時人	-11.1123
藐	-11.1125
治民	-11.1125
捉	-11.1127
親友	-11.1128
蹴	-11.113
飫	-11.113
精舍	-11.1131
械	-11.1132
上曰	-11.1132
受業	-11.1133
有情	-11.1134
二女	-11.1137
却憶	-11.1137
乞休	-11.1137
親親	-11.114
也顧	-11.1143
郡人	-11.1143
千仞	-11.1144
而進	-11.1145
以明經	-11.1146
即有	-11.1147
翅	-11.1151
乙巳	-11.1152
所好	-11.1152
水陸	-11.1152
摇	-11.1153
不就	-11.1154
鎮撫	-11.1158
廊廟	-11.1163
徳業	-11.1163
焉今	-11.1163
進士第	-11.1164
安敢	-11.1166
所施	-11.1172
乎雖然	-11.1174
人稱	-11.1181
于公	-11.1181
無數	-11.1181
筐	-11.1182
泳	-11.1183
櫂	-11.1183
葬于	-11.1183
不允	-11.1183
不減	-11.1184
立功	-11.1185
治家	-11.1185
蠟	-11.1185
冨	-11.1185
得於	-11.1189
燕子	-11.1191
飛鳥	-11.1192
暮雨	-11.1194
目之	-11.1198
生事	-11.1198
元帥	-11.1199
人意	-11.1199
流傳	-11.1203
毀	-11.1203
葱	-11.1203
斟	-11.1205
春酒	-11.1205
己酉	-11.1208
逆旅	-11.1209
服食	-11.121
事上	-11.121
得志	-11.121
物外	-11.121
與物	-11.121
四壁	-11.1211
霰	-11.1211
歘	-11.1212
如一日	-11.1214
民物	-11.1215
象山	-11.1216
為師	-11.1217
分别	-11.1217
欣欣	-11.1218
矣然則	-11.1219
二千石	-11.1219
四面	-11.1223
而至於	-11.1227
秋雨	-11.1229
人民	-11.1232
恨不	-11.1232
北極	-11.1233
賈生	-11.1233
不墜	-11.1233
奕奕	-11.1234
綽	-11.1234
我來	-11.1235
君子之所	-11.1236
推轂	-11.1238
翥	-11.1238
屬之	-11.1238
科道	-11.1241
金山	-11.1241
世業	-11.1245
滿眼	-11.1246
邑庠	-11.1254
太宗皇帝	-11.1254
六人	-11.1257
屹	-11.1259
藏之	-11.1259
匝	-11.126
公侯	-11.126
吳江	-11.1262
般	-11.1262
以進士	-11.1268
餘姚	-11.1269
事臣	-11.127
瀝	-11.1271
不可為	-11.1277
瀑	-11.128
嫗	-11.1281
曰惟	-11.1281
不備	-11.1284
躅	-11.1284
士人	-11.1284
十分	-11.1284
巍	-11.1285
逺人	-11.1287
天生	-11.1288
生涯	-11.1291
自負	-11.1295
天威	-11.13
惶	-11.1302
瀛	-11.1302
何謂	-11.1305
亾	-11.1307
之亂	-11.1308
亦足以	-11.1309
氏族譜序	-11.1311
己未	-11.1311
孱	-11.1312
䖏士	-11.1312
之室	-11.1313
吳門	-11.1314
歌聲	-11.1319
廵按	-11.1322
所遺	-11.1322
應有	-11.1322
告之曰	-11.1322
遄	-11.1323
遺跡	-11.1323
另	-11.1324
數十人	-11.1329
綱常	-11.1329
碩人	-11.1333
軾	-11.1334
僑	-11.1334
按察僉事	-11.1335
儆	-11.1336
之久	-11.1336
匈奴	-11.1337
留連	-11.1337
一㸃	-11.1339
我師	-11.1339
㓗	-11.1339
稜	-11.1339
平章	-11.134
凈	-11.134
同歸	-11.134
三五	-11.1341
用世	-11.1341
幢	-11.1342
揮毫	-11.1342
巘	-11.1344
纍	-11.1345
潺湲	-11.1345
飛花	-11.1346
族之	-11.1347
氷霜	-11.1347
相視	-11.1348
有得於	-11.1348
嘘	-11.1348
百户	-11.1349
往年	-11.1349
長年	-11.1352
所望	-11.1352
號曰	-11.1352
導之	-11.1354
巒	-11.1356
苞	-11.1362
世路	-11.1363
溉	-11.1363
不驚	-11.1364
何許	-11.1366
林木	-11.1366
邑中	-11.1367
夐	-11.1368
所傳	-11.1368
昭穆	-11.1369
寒食	-11.1369
星斗	-11.1372
其孤	-11.1372
其字	-11.1372
者率	-11.1373
擒斬	-11.1373
朱顔	-11.1377
各自	-11.1377
學政	-11.1379
焉有	-11.1379
也僕	-11.138
予既	-11.1383
冉	-11.139
多故	-11.139
是豈	-11.139
前年	-11.139
當然	-11.1391
寧不	-11.1391
按狀	-11.1392
精力	-11.1392
炬	-11.1394
鵷	-11.1395
月某日	-11.1395
於内	-11.1396
淮安	-11.1398
庶乎	-11.1401
天外	-11.1402
不辱	-11.1404
雲漢	-11.1404
黄門	-11.1406
繡衣	-11.1407
供奉	-11.1408
清夜	-11.1412
僇	-11.1412
果能	-11.1413
不能為	-11.1414
杜陵	-11.1415
有天下	-11.1416
果然	-11.1416
流離	-11.1419
於禮	-11.1419
怍	-11.1419
華山	-11.142
余聞	-11.1421
樂之	-11.1421
有得	-11.1421
壹	-11.1421
序送	-11.1423
庶人	-11.1424
功臣	-11.1425
見素	-11.1425
繼母	-11.1425
自任	-11.1429
臨流	-11.143
持節	-11.1433
溪水	-11.1434
公實	-11.1437
琅	-11.1438
縞	-11.1438
二先生	-11.1439
之益	-11.1443
暄	-11.1444
一般	-11.1445
赴京	-11.1449
之趣	-11.1453
禾黍	-11.1453
既有	-11.1458
煙霞	-11.146
優㳺	-11.146
不返	-11.1462
公自	-11.1465
而立	-11.1466
平江	-11.1466
針	-11.147
無處	-11.1472
士也	-11.1472
通州	-11.1472
朝廷之	-11.1472
聖心	-11.1472
轟	-11.1473
黜陟	-11.1474
愷	-11.1474
萬安	-11.1475
蒹葭	-11.1475
無虞	-11.1478
有不可	-11.148
非無	-11.148
之舊	-11.1486
嵗暮	-11.1489
如前	-11.1492
陰陽	-11.1494
承乏	-11.1494
彞	-11.1497
舊有	-11.1497
歲時	-11.1498
鍳	-11.1499
中和	-11.15
厥後	-11.15
之愛	-11.1501
相依	-11.1505
主於	-11.1511
非禮	-11.1512
進之	-11.1514
春雲	-11.1517
耳而	-11.1523
出自	-11.1524
覇	-11.1524
莫可	-11.1525
意者	-11.1526
古稱	-11.1526
婦道	-11.1529
綢繆	-11.153
怡然	-11.153
相為	-11.1531
髓	-11.1532
十有二	-11.1533
大官	-11.1535
王師	-11.1536
二十五日	-11.1536
無奈	-11.1538
弟兄	-11.1538
實為	-11.1538
則皆	-11.1538
保障	-11.1541
特以	-11.1543
今年春	-11.1545
鄉貢進士	-11.1545
又復	-11.1546
湖州	-11.1546
祀典	-11.1547
司冦	-11.1547
無過	-11.1547
從兄	-11.1551
從今	-11.1551
者能	-11.1552
肺	-11.1553
蜿蜒	-11.1557
庄	-11.1559
春陽	-11.1559
錦繡	-11.1559
髣髴	-11.156
屬余	-11.156
無弗	-11.1561
不誣	-11.1561
氤氲	-11.1562
者尤	-11.1563
斯堂	-11.1565
土木	-11.1566
黄葉	-11.157
几席	-11.1573
磴	-11.1573
所述	-11.1574
驄馬	-11.1575
于後	-11.1575
依稀	-11.1579
合無	-11.158
妓	-11.1583
無不可	-11.1584
賈誼	-11.1585
宋儒	-11.1585
莎	-11.1587
五嶽	-11.1587
聞訃	-11.159
􁁊	-11.1591
七十二	-11.1593
可見矣	-11.1598
其終	-11.1599
往還	-11.1602
窒	-11.1604
與時	-11.1604
則可	-11.1607
不存	-11.1607
尚饗祭	-11.1611
何意	-11.1612
有八	-11.1613
夫何	-11.1614
唐之	-11.1614
蒼翠	-11.1626
乎抑	-11.1627
飄零	-11.1628
由此	-11.1628
水中	-11.1629
四書	-11.1629
而歸之	-11.163
王先生	-11.1631
直言	-11.1631
搢紳	-11.1632
察之	-11.1632
閼	-11.1633
有酒	-11.1634
御史大夫	-11.1638
承之	-11.1638
如彼	-11.1639
木葉	-11.1639
惜乎	-11.164
笻	-11.1641
間以	-11.1643
永豐	-11.1645
之害	-11.1646
望雲	-11.1647
因得	-11.1648
下至	-11.1649
山海	-11.1649
空言	-11.1649
志也	-11.165
同列	-11.1651
茂才	-11.1652
仰天	-11.1652
乃爾	-11.1653
尚友	-11.1657
而使	-11.166
臨岐	-11.166
里之	-11.1662
客路	-11.1662
唇	-11.1662
陸氏	-11.1663
債	-11.1664
夥	-11.1664
平湖	-11.1665
辛亥	-11.1667
捫	-11.1668
巋然	-11.1668
也至於	-11.1669
耳今	-11.167
程朱	-11.1671
本年	-11.1675
太平之	-11.1675
吾志	-11.1676
六藝	-11.1677
秋來	-11.1679
金銀	-11.1681
南征	-11.1681
閨門	-11.1684
具在	-11.1685
彼其	-11.1689
然後知	-11.1692
最為	-11.1692
燼	-11.1694
西東	-11.1695
馳騁	-11.1696
簟	-11.1696
在昔	-11.1698
皇極	-11.1699
叚	-11.17
當以	-11.1701
蹤跡	-11.1701
為贈	-11.1702
未歸	-11.1705
其黨	-11.1714
咨嗟	-11.1716
一分	-11.1718
老翁	-11.1718
安成	-11.1719
於義	-11.1719
兒子	-11.1719
諜	-11.172
隈	-11.1722
迤	-11.1722
眸	-11.1724
吉凶	-11.1724
婦女	-11.1725
彭城	-11.1726
裊	-11.1726
有云	-11.1727
樂善	-11.1728
此道	-11.1729
鄉飲	-11.1731
鏡中	-11.1732
容易	-11.1734
已久	-11.1735
一新	-11.1739
恚	-11.1744
我皇上	-11.1745
隂隂	-11.1746
之尊	-11.1747
始至	-11.1748
鳶	-11.175
噪	-11.1753
沈氏	-11.1754
皎皎	-11.1756
太尉	-11.1756
年華	-11.1756
不宣	-11.1757
一息	-11.1759
為賢	-11.1762
家學	-11.1763
在宋	-11.1763
物而	-11.1763
沽酒	-11.1765
之苦	-11.1765
薦紳	-11.1768
近來	-11.1769
北平	-11.177
東湖	-11.177
以圖	-11.1771
愍	-11.1772
余亦	-11.1772
烽	-11.1773
僞	-11.1774
耳然	-11.1775
之跡	-11.1776
家貧	-11.1776
𥿄	-11.1777
那能	-11.178
三省	-11.1781
是何	-11.1782
二十餘	-11.1783
丁巳	-11.1785
致身	-11.1786
一杯	-11.1788
近者	-11.1789
好事	-11.1789
傳至	-11.1792
廟學	-11.1792
展轉	-11.1793
檢討	-11.1793
先人之	-11.1794
君子也	-11.1795
廣大	-11.1795
日長	-11.1798
觀察	-11.1799
名教	-11.1799
好義	-11.1799
南方	-11.1799
二十四日	-11.18
謝公	-11.1801
悞	-11.1802
者所以	-11.1802
光華	-11.1804
此君	-11.1804
圖之	-11.1804
先天	-11.1805
前有	-11.1805
赤松	-11.1806
某月日	-11.1812
可使	-11.1813
赫然	-11.1814
倡和	-11.1817
隨風	-11.182
為客	-11.1822
府縣	-11.1822
命公	-11.1825
卯	-11.1828
遺愛	-11.1828
所論	-11.1828
若曰	-11.1828
安慶	-11.1829
其配	-11.183
之間而	-11.183
擴	-11.183
蘖	-11.1832
郭氏	-11.1832
舟行	-11.1832
闘	-11.1833
魔	-11.1833
䙝	-11.1834
其所謂	-11.1834
彥	-11.1835
盻	-11.1835
其聲	-11.1835
今官	-11.1836
傳聞	-11.184
堂曰	-11.1842
起於	-11.1842
霖雨	-11.1842
之選	-11.1843
縣學	-11.1843
黄鶴	-11.1843
今夕	-11.1844
州人	-11.1845
疑其	-11.1851
懌	-11.1853
賜之	-11.1854
母子	-11.1856
白鹿	-11.1856
紅顔	-11.1856
享年六十	-11.1857
考亭	-11.1859
之墟	-11.186
青陽	-11.1863
公始	-11.1863
吾祖	-11.1864
就養	-11.1864
玲瓏	-11.1865
然皆	-11.1865
輅	-11.1867
大率	-11.1867
我有	-11.1868
釋氏	-11.1869
颷	-11.1869
田家	-11.187
其室	-11.1872
言路	-11.1882
上海	-11.1886
埒	-11.1887
艘	-11.1887
此語	-11.1887
誡	-11.1888
癯	-11.1889
祀事	-11.1889
詩句	-11.1889
賫	-11.1889
冬至	-11.189
鈴	-11.1891
怡怡	-11.1891
五言	-11.1896
于人	-11.1897
於國	-11.1898
哀毁	-11.1902
亦不敢	-11.1902
松柏	-11.1902
三司	-11.1904
汗漫	-11.1904
以盡	-11.1904
丹陽	-11.1905
青松	-11.191
仰止	-11.191
喉	-11.1913
嚢	-11.1915
荐	-11.1915
去國	-11.1917
婚嫁	-11.1917
㟁	-11.1918
縶	-11.1919
非人	-11.1923
大賢	-11.1926
所行	-11.1926
殿下	-11.1927
巻十	-11.193
復來	-11.193
無時	-11.193
出乎	-11.1931
榭	-11.1931
孫氏	-11.1932
艇	-11.1932
於吾	-11.1933
小臣	-11.1935
無憾	-11.194
古有	-11.1941
拮据	-11.1943
宫中	-11.1944
而尤	-11.1945
㡌	-11.1945
黽勉	-11.1946
之頃	-11.1948
龍溪	-11.1949
一應	-11.195
可行	-11.1952
戎馬	-11.1953
孝宗	-11.1953
相聞	-11.1954
而予	-11.1956
鄒魯	-11.1956
之母	-11.1956
郎署	-11.1957
女一	-11.1957
世儒	-11.1958
而後已	-11.1959
物情	-11.1959
興化	-11.1964
笠	-11.1967
未定	-11.1969
用韻	-11.1969
晟	-11.197
之寄	-11.1972
絹	-11.1973
舉而	-11.1973
青燈	-11.1973
甚厚	-11.1977
立身	-11.1977
侍讀	-11.1978
風前	-11.1978
積雪	-11.1983
在京師	-11.1987
予觀	-11.1988
岷	-11.1989
涕淚	-11.1991
入城	-11.1991
不我	-11.1995
非敢	-11.1995
某月某日	-11.1999
斌	-11.2001
裨	-11.2002
花間	-11.2004
名節	-11.2005
丙寅	-11.2005
壁間	-11.2005
穠	-11.2005
邇來	-11.2006
不振	-11.2007
所不能	-11.2007
獨不	-11.2008
時嘗	-11.2008
東流	-11.2009
不斷	-11.2009
志在	-11.2012
毋得	-11.2013
士習	-11.2013
清泉	-11.2014
進取	-11.2016
乎且	-11.2019
一别	-11.2021
五老	-11.2023
水上	-11.2024
能詩	-11.2024
而必	-11.2024
在朝	-11.2025
欽此	-11.2025
國學	-11.2025
白下	-11.2026
劉子	-11.2026
平安	-11.2028
此二	-11.2028
魚鳥	-11.2029
大宗	-11.2029
痊	-11.2029
無害	-11.203
蝗	-11.203
林公	-11.203
領鄉薦	-11.2034
於先生	-11.2036
時已	-11.2038
渺渺	-11.2038
四顧	-11.204
州守	-11.2041
天恩	-11.2042
無少	-11.2043
雪滿	-11.2044
者十	-11.2044
之心而	-11.2046
任使	-11.2047
哉吾	-11.2047
城外	-11.2048
三嵗	-11.2048
九霄	-11.205
一統	-11.2051
縣之	-11.2051
秀色	-11.2052
罔極	-11.2054
吾生	-11.2054
牟	-11.2055
個	-11.2055
亦欲	-11.2056
司主事	-11.2058
旂	-11.2058
堰	-11.2059
涕泣	-11.2061
國有	-11.2061
其俗	-11.2064
北方	-11.2064
雞犬	-11.2065
至大	-11.2067
與焉	-11.2069
四方之	-11.2072
韓子	-11.2074
為令	-11.2075
之鄉	-11.2075
寧知	-11.2078
一代之	-11.2081
勺	-11.2083
委任	-11.2084
哉余	-11.2085
者往往	-11.2087
兩岸	-11.2087
守臣	-11.2087
尚寳	-11.2088
而不知其	-11.209
孝亷	-11.209
淤	-11.2092
七言	-11.2092
開門	-11.2093
中郎	-11.2096
又豈	-11.2097
夜來	-11.2097
那知	-11.2097
鄉邑	-11.2098
載籍	-11.2102
孝經	-11.2103
必曰	-11.2105
經世	-11.2105
嘗讀	-11.2107
錢氏	-11.2107
之累	-11.2108
疑之	-11.2108
其盛	-11.2108
二十一日	-11.2108
其形	-11.2109
縣學生	-11.2111
羔	-11.2112
家傳	-11.2117
肘	-11.2119
九載	-11.2119
皇甫	-11.2121
鶩	-11.2122
當代	-11.2122
五陵	-11.2123
僚友	-11.2126
此詩	-11.2131
不患	-11.214
以贈	-11.214
則民	-11.2141
言動	-11.2141
近體	-11.2144
如山	-11.2145
睥睨	-11.2145
梳	-11.2147
之北	-11.2147
罏	-11.2147
而加	-11.2147
泪	-11.2148
那堪	-11.2148
之心也	-11.2149
侃	-11.2149
不常	-11.2149
宗法	-11.2152
翡翠	-11.2153
一子	-11.2154
其夫	-11.2154
瞰	-11.2155
謂非	-11.2156
哀哉	-11.2158
推其	-11.2162
莫大於	-11.2165
八人	-11.2165
旄	-11.2166
知是	-11.2168
焉然	-11.2169
憂國	-11.2169
禕	-11.217
曺	-11.217
長樂	-11.217
之務	-11.2171
烏乎	-11.2172
䋲	-11.2173
泣曰	-11.2174
悴	-11.2174
㝎	-11.2176
甃	-11.2177
復命	-11.2177
固將	-11.2178
形骸	-11.2178
碣石	-11.218
伐木	-11.2181
工部尚書	-11.2182
亦不可	-11.2183
儒術	-11.2185
述其	-11.2186
聖皇	-11.2187
考諱	-11.2187
不失其	-11.2187
賢士大夫	-11.2187
雨晴	-11.2188
前來	-11.2188
休致	-11.2189
而不可得	-11.219
猿鶴	-11.2191
蜜	-11.2202
北堂	-11.2204
治行	-11.2205
出則	-11.2205
見示	-11.2207
次公	-11.2207
數百里	-11.221
自致	-11.221
孰非	-11.221
宣城	-11.2215
及諸	-11.2217
予惟	-11.2223
如是則	-11.2223
世故	-11.2224
以承	-11.2225
祖宗之	-11.2227
不惑	-11.2228
揺落	-11.223
辛酉	-11.2232
服其	-11.2233
有命	-11.2234
遣官	-11.2234
北闕	-11.2235
漢魏	-11.2235
上聞	-11.2235
而取	-11.2236
慄	-11.2236
對月	-11.2236
行路	-11.2236
飛雲	-11.2238
賢能	-11.2239
徬徨	-11.224
異也	-11.224
突兀	-11.2241
氣之	-11.2242
中年	-11.2245
他鄉	-11.2245
殆盡	-11.2247
大畧	-11.2247
軍士	-11.2253
本司	-11.2255
月夜	-11.2259
璣	-11.2261
谷口	-11.2262
洵	-11.2262
木石	-11.2263
直𨽻	-11.2264
譔	-11.2265
不勝其	-11.2269
十九年	-11.2269
庠生	-11.227
相送	-11.227
懼其	-11.227
之舉	-11.2273
北來	-11.2274
有善	-11.2274
以立	-11.2275
由是而	-11.2275
今乃	-11.2279
誠以	-11.2281
非我	-11.2282
離合	-11.2283
君行	-11.2283
性之	-11.2284
化之	-11.2284
離羣	-11.2285
知事	-11.2286
自勵	-11.2286
鞏	-11.2286
士林	-11.2286
名實	-11.2288
衿	-11.229
䆒	-11.229
冢宰	-11.2291
蛾	-11.2292
短長	-11.2293
幸得	-11.2294
耒	-11.2294
臣以	-11.2294
癸卯	-11.2295
里閈	-11.2296
書屋	-11.2297
聽之	-11.2299
任事	-11.2304
考察	-11.2304
太后	-11.2305
歳月	-11.2306
分司	-11.2306
之列	-11.2307
石田	-11.2308
芳菲	-11.2308
其去	-11.2311
五十年	-11.2312
其流	-11.2313
而遂	-11.2313
一段	-11.2314
山陽	-11.2314
肄	-11.2317
之設	-11.2319
無愧於	-11.232
右布政使	-11.232
交情	-11.2321
肅然	-11.2322
瘡	-11.2322
丁卯	-11.2322
紂	-11.2322
釡	-11.2322
有㫖	-11.2323
迸	-11.2324
駑	-11.2326
璚	-11.2326
西方	-11.2328
以仁	-11.2328
翺	-11.2328
總是	-11.2328
要害	-11.2331
焉若	-11.2331
見公	-11.2332
㡬何	-11.2332
秦淮	-11.2333
能言	-11.2334
一路	-11.2334
黄君	-11.2335
而求之	-11.2336
千峰	-11.2336
同鄉	-11.2337
傾倒	-11.2337
赤城	-11.2338
而還	-11.234
移文	-11.2342
自許	-11.2346
新建	-11.2346
大成	-11.2348
賴以	-11.2348
賦得	-11.2353
不好	-11.2355
詩巻	-11.2356
紫宸	-11.2357
天下之士	-11.2358
家住	-11.2359
除夕	-11.2359
霏霏	-11.2359
為義	-11.236
可勝	-11.2362
不著	-11.2363
銓曹	-11.2363
野水	-11.2364
聖賢之學	-11.2368
先哲	-11.2369
旃	-11.2371
十巻	-11.2371
吾宗	-11.2373
武林	-11.2374
母氏	-11.2374
一致	-11.2374
願得	-11.2375
鬛	-11.2376
血氣	-11.2376
虎丘	-11.2378
壬	-11.2378
自㓜	-11.2379
示之	-11.2381
曰爾	-11.2382
其詳	-11.2383
螭	-11.2383
恍惚	-11.2385
餅	-11.2386
躑躅	-11.2387
生生	-11.2389
琴書	-11.2389
天錫	-11.2393
九卿	-11.2396
進階	-11.2397
風聲	-11.2398
夫君	-11.2399
亦宜	-11.24
髙第	-11.2402
果何	-11.2404
始克	-11.2405
不知有	-11.2405
當日	-11.2409
徙倚	-11.2412
有美	-11.2413
鬟	-11.2413
海天	-11.2413
與客	-11.2413
覘	-11.2414
嘉其	-11.2414
清流	-11.2414
之所由	-11.2415
太乙	-11.2415
甦	-11.2416
查照	-11.2417
忽見	-11.2417
之國	-11.242
以予	-11.2422
舉其	-11.2424
星河	-11.2424
少宰	-11.2424
雪後	-11.2424
從公	-11.2425
不屈	-11.2426
所出	-11.2427
如君	-11.2428
職業	-11.2428
睢	-11.243
廣平	-11.2431
于斯	-11.2431
三復	-11.2431
丘園	-11.2432
之所存	-11.2432
僮	-11.2436
為道	-11.2437
萬巻	-11.2437
捄	-11.2437
官舍	-11.2438
杲	-11.2438
聖門	-11.2443
哉且	-11.2443
月落	-11.2443
吾意	-11.2443
宗人	-11.2446
何益	-11.2447
定山	-11.2449
穰	-11.245
受知	-11.2451
卒于	-11.2451
筆硯	-11.2451
易也	-11.2451
公又	-11.2452
珠玉	-11.2455
秉燭	-11.2455
其舊	-11.2457
勤勞	-11.2458
臨水	-11.246
之器	-11.2463
臨池	-11.2464
計者	-11.2465
銖	-11.2469
去去	-11.2471
法也	-11.2471
躓	-11.2473
者焉	-11.2473
鳴琴	-11.2473
棄去	-11.2473
居常	-11.2476
湯藥	-11.2477
其詞	-11.2477
石城	-11.2478
則吾	-11.2478
參議	-11.2479
避地	-11.2479
以重	-11.248
連城	-11.248
臨事	-11.248
法而	-11.248
聲聞	-11.2484
爲善	-11.2485
山城	-11.2486
西昌	-11.2488
聞公	-11.2489
典禮	-11.2491
墳墓	-11.2491
未識	-11.2496
其首	-11.2497
肺腑	-11.2499
繭	-11.25
跂	-11.2501
為先	-11.2502
朱絃	-11.2503
維時	-11.2506
方氏	-11.2506
歸心	-11.2509
天下無	-11.2509
小山	-11.2512
甲科	-11.2517
軍旅	-11.2517
墨竹	-11.2517
甘㫖	-11.2519
又自	-11.2519
仰視	-11.252
也或	-11.2521
承明	-11.2522
必須	-11.2523
王生	-11.2524
今嵗	-11.2524
皆非	-11.2526
乃至	-11.2527
文忠	-11.2529
肻	-11.2531
彤	-11.2532
祛	-11.2533
春坊	-11.2534
者因	-11.2534
累世	-11.2535
廣信	-11.2539
聲譽	-11.2539
不時	-11.254
先賢	-11.2541
求賢	-11.2541
楊子	-11.2542
顛倒	-11.2546
身世	-11.2547
詩酒	-11.2552
未許	-11.2553
縫	-11.2555
元老	-11.2556
遺像	-11.2557
郡之	-11.2558
兵燹	-11.256
豢	-11.256
二十二	-11.2561
燄	-11.2562
視事	-11.2562
撑	-11.2563
踟蹰	-11.2565
者也故	-11.2565
籙	-11.2566
毋論	-11.2568
吾人	-11.2569
江隂	-11.2572
相屬	-11.2573
欲去	-11.2574
天下國家	-11.2576
巳而	-11.2577
洞天	-11.2578
芝蘭	-11.258
金吾	-11.2583
言事	-11.2583
豈得	-11.2585
楚人	-11.2587
駱	-11.2588
宣和	-11.2588
吾言	-11.2588
娘	-11.2589
奪其	-11.2591
譎	-11.2592
不可謂	-11.2592
自非	-11.2593
萬夀	-11.2595
宫室	-11.2595
收拾	-11.2595
孤山	-11.2596
脩竹	-11.2596
遇事	-11.2597
代有	-11.2599
瑶池	-11.26
聖賢之道	-11.2602
將何	-11.2604
漕運	-11.2605
執事之	-11.2606
請記	-11.2606
於用	-11.2608
不自知	-11.2608
之所能	-11.261
自笑	-11.261
得疾	-11.2611
紫霞	-11.2613
多有	-11.2615
沉沉	-11.2615
西望	-11.2616
訶	-11.2616
佳氣	-11.2617
者至	-11.2617
是用	-11.2618
無補	-11.2619
先正	-11.262
嫠	-11.262
事皆	-11.2622
所未	-11.2622
之宗	-11.2622
攫	-11.2622
山髙	-11.2624
滂	-11.2624
有罪	-11.2625
紉	-11.2626
年間	-11.2627
次子	-11.2627
箱	-11.2627
去而	-11.2628
過訪	-11.2629
師生	-11.263
近時	-11.2631
予為	-11.2631
獨以	-11.2631
輝光	-11.2633
如初	-11.2637
風物	-11.2639
言官	-11.2639
衲	-11.2642
所受	-11.2646
明明	-11.2647
風化	-11.2649
原任	-11.2651
稼穡	-11.2651
尖	-11.2651
髦	-11.2653
㵼	-11.2654
以為何如	-11.2654
芟	-11.2654
㺯	-11.2655
抑亦	-11.2655
瓠	-11.2655
論者	-11.2656
窈	-11.2657
州刺史	-11.2657
常州	-11.2657
豺狼	-11.2658
二十七日	-11.2658
閽	-11.266
前事	-11.266
京國	-11.2662
幽明	-11.2662
圖為	-11.2664
諸士	-11.2664
語及	-11.2664
周官	-11.2664
宫闕	-11.2665
本色	-11.2665
從弟	-11.2665
矣且	-11.2668
所貴	-11.267
不怠	-11.2674
燕趙	-11.2677
天池	-11.2677
其平生	-11.2678
為夀	-11.2679
者以其	-11.2679
不由	-11.268
固然	-11.2681
線	-11.2681
經傳	-11.2682
錮	-11.2683
舶	-11.2684
刷	-11.2686
政之	-11.2687
盡力	-11.2688
知此	-11.2689
是固	-11.269
軒冕	-11.2691
封疆	-11.2692
曽大父	-11.2693
朝天	-11.2694
正大	-11.2698
塵世	-11.2698
舉於鄉	-11.27
菽	-11.27
風烟	-11.2701
無常	-11.2701
其源	-11.2701
不爽	-11.2702
可能	-11.2707
不得已而	-11.2709
溪流	-11.2709
弧	-11.271
世教	-11.2711
古文辭	-11.2711
作賦	-11.2712
相遇	-11.2713
厪	-11.2713
必將	-11.2714
何言	-11.2715
擘	-11.2715
逗	-11.2715
民情	-11.2715
冬十月	-11.2715
吼	-11.2715
春山	-11.2717
林君	-11.2717
枯槁	-11.2719
友也	-11.2721
安期	-11.2722
潯	-11.2722
可傳	-11.2723
奏議	-11.2724
可笑	-11.2726
祭文	-11.2726
者凡	-11.2727
未之有	-11.2729
觀風	-11.2731
以通	-11.2731
圖報	-11.2731
蠻夷	-11.2733
供職	-11.2733
青州	-11.2733
左丞	-11.2734
豈直	-11.2735
人莫	-11.2736
倉皇	-11.2736
方面	-11.2737
餼	-11.2739
春官	-11.2739
閹	-11.2739
忽然	-11.274
闥	-11.274
無間言	-11.2744
砧	-11.2747
雨聲	-11.2748
六卿	-11.2748
棧	-11.2748
不可也	-11.2748
合於	-11.275
聞有	-11.2755
堂前	-11.2756
毫釐	-11.2756
山之陽	-11.2756
建立	-11.2757
東家	-11.2757
前此	-11.2765
晩節	-11.2767
封公	-11.2768
何限	-11.2768
去住	-11.2769
在家	-11.277
歌詩	-11.277
者恒	-11.277
世無	-11.2771
已無	-11.2773
塩	-11.2773
殮	-11.2775
紏	-11.2775
禧	-11.2775
不載	-11.2776
脆	-11.2777
先輩	-11.2779
安所	-11.2779
恐其	-11.278
國事	-11.2781
之光	-11.2781
天也	-11.2781
規模	-11.2781
余以	-11.2783
至宋	-11.2784
將行	-11.2788
以為常	-11.2794
其前	-11.2794
他時	-11.2795
百戰	-11.2796
義也	-11.2797
觀於	-11.2797
督府	-11.2797
石橋	-11.2799
時節	-11.2799
湄	-11.2801
遂令	-11.2802
吾何	-11.2803
者鮮矣	-11.2804
風露	-11.2804
刑部尚書	-11.2804
煜	-11.2804
未了	-11.2805
倜儻	-11.2807
子若孫	-11.2807
漬	-11.2808
滁	-11.2808
照舊	-11.2808
禄養	-11.281
弘治	-11.2811
有足	-11.2812
汩	-11.2813
文正公	-11.2813
仕而	-11.2815
題其	-11.2817
許氏	-11.2818
進於	-11.2818
議處	-11.282
之所以為	-11.2821
年十二月	-11.2826
相違	-11.2826
者予	-11.2826
義之	-11.2827
賢良	-11.2828
天香	-11.2828
垂楊	-11.283
卞	-11.2832
二十六日	-11.2833
入山	-11.2834
之俗	-11.2834
先生諱	-11.2834
昇平	-11.2835
詈	-11.2836
云何	-11.2838
潦倒	-11.284
玉帛	-11.284
鳳陽	-11.284
若人	-11.2841
以利	-11.2843
也若夫	-11.2843
以達	-11.2845
不務	-11.2845
已出	-11.2848
自見	-11.2848
猶是	-11.285
女婦	-11.285
忽聞	-11.2851
天資	-11.2852
中都	-11.2853
入海	-11.2855
清河	-11.2856
鄉進士	-11.2856
鎮江	-11.2857
七八	-11.2858
人能	-11.2859
問訊	-11.2859
筮仕	-11.286
元至正	-11.286
毗	-11.2861
職事	-11.2862
都下	-11.2862
夷狄	-11.2865
世徳	-11.2865
墉	-11.2865
髫	-11.2865
唯唯	-11.2866
盡矣	-11.2871
昊天	-11.2872
見諸	-11.2874
之儀	-11.2875
娶於	-11.2875
謝恩	-11.2879
集中	-11.2879
神武	-11.288
遺孤	-11.288
衛所	-11.288
黄鳥	-11.2881
二十一	-11.2882
不赴	-11.2885
感恩	-11.2885
菲	-11.2885
不第	-11.2887
之側	-11.2888
莫向	-11.2889
也銘曰	-11.289
涵養	-11.2892
相好	-11.2892
相隨	-11.2894
慾	-11.2895
未始	-11.2895
滙	-11.2898
飛鴻	-11.2898
今夫	-11.2899
以是為	-11.2899
人咸	-11.29
皤	-11.29
十有六	-11.29
膓	-11.2901
望中	-11.2902
巢穴	-11.2903
為吏	-11.2905
以勵	-11.2905
曰彼	-11.2906
出沒	-11.2907
金臺	-11.2907
或問	-11.2908
飛揚	-11.2909
言於	-11.2909
逺大	-11.2911
之忠	-11.2913
嘗從	-11.2915
髙山	-11.2915
酒杯	-11.2916
以復	-11.2917
臺下	-11.2918
盛世	-11.2918
軍餉	-11.292
時雨	-11.2922
人語	-11.2922
臣下	-11.2925
矣於是	-11.2927
卒之	-11.2929
休寧	-11.293
皆出	-11.293
之基	-11.293
棊	-11.2931
鶚	-11.2932
癸巳	-11.2933
之迹	-11.2934
萬物之	-11.2935
明矣	-11.2937
左布政使	-11.2937
玉女	-11.2939
一去	-11.2939
安石	-11.2939
於彼	-11.2939
氏墓誌銘	-11.294
政教	-11.2941
滿目	-11.2945
造物者	-11.2945
岐路	-11.2945
斬獲	-11.2946
眉山	-11.2947
願為	-11.2947
有懷	-11.2947
容與	-11.2949
空中	-11.2949
國計	-11.2949
竹枝	-11.295
坐對	-11.295
一榻	-11.2951
懐古	-11.2951
哲人	-11.2952
不恤	-11.2952
菴先生	-11.2953
羅氏	-11.2953
梨花	-11.2955
明德	-11.2955
丹心	-11.2956
一舉	-11.2956
以至於	-11.2959
水雲	-11.2961
像賛	-11.2961
如公	-11.2962
秋草	-11.2965
茁	-11.2965
搶	-11.2966
聲華	-11.2966
謫仙	-11.2972
名賢	-11.2974
蕭瑟	-11.2974
絲綸	-11.2975
想像	-11.2976
文者	-11.2978
今昔	-11.2979
數百人	-11.2982
百花	-11.2989
郡庠	-11.2992
恂	-11.2992
家家	-11.2992
以成其	-11.2993
滸	-11.2994
蠡	-11.2995
鴟	-11.2995
在彼	-11.2996
從軍	-11.2997
逖	-11.2997
淩	-11.2999
判官	-11.3
及門	-11.3001
遊子	-11.3002
經理	-11.3003
娟娟	-11.3004
最是	-11.3005
以往	-11.3006
險阻	-11.3006
一家之	-11.3008
且有	-11.3008
邑令	-11.3015
僖	-11.3016
何足以	-11.3016
行至	-11.3016
動靜	-11.3016
貴乎	-11.3017
黄庭	-11.3019
務要	-11.3021
夜泊	-11.3022
熖	-11.3023
少而	-11.3023
閭巷	-11.3023
未嘗一日	-11.3024
軋	-11.3025
錐	-11.3025
照耀	-11.3027
紈	-11.3028
浮沉	-11.3028
漪	-11.303
二十八日	-11.3033
公之子	-11.3033
邦家	-11.3035
與先生	-11.3035
南園	-11.3035
下馬	-11.3036
望於	-11.3036
與弟	-11.3038
疾苦	-11.3038
明光	-11.3039
雖在	-11.304
也後	-11.3041
太虚	-11.3047
為國家	-11.3047
仙家	-11.3047
風濤	-11.305
有田	-11.305
差人	-11.3051
八荒	-11.3055
書史	-11.3055
竢	-11.3056
瀘	-11.3057
豪傑之士	-11.3059
逡巡	-11.306
大要	-11.3061
試問	-11.3064
筋力	-11.3064
財賦	-11.3065
境内	-11.3066
困於	-11.3068
始遷	-11.3069
黙黙	-11.307
詩歌	-11.307
其語	-11.307
與兄	-11.3071
以獻	-11.3072
弗獲	-11.3072
余之	-11.3074
曰天	-11.3075
頷	-11.3084
重於	-11.3086
一端	-11.3086
中官	-11.3086
下獄	-11.3088
莾	-11.3091
闗山	-11.3091
必至	-11.3094
青蓮	-11.3095
人力	-11.3096
百司	-11.3096
以大	-11.3097
長夜	-11.3097
誰言	-11.31
子男四	-11.3103
是心	-11.3103
朱君	-11.3107
能文	-11.311
千樹	-11.311
我家	-11.311
大喜	-11.311
萬家	-11.3111
罍	-11.3114
者將	-11.3114
臣民	-11.3115
海棠	-11.3119
諱某	-11.3119
賙	-11.312
名堂	-11.3121
逭	-11.3122
啇	-11.3122
以保	-11.3122
乃在	-11.3124
真定	-11.3126
聖王	-11.3128
采石	-11.3128
閉户	-11.3128
與俱	-11.313
自念	-11.3131
又不能	-11.3131
八極	-11.3135
此行	-11.3135
西涯	-11.3135
之兆	-11.3136
其要	-11.3137
天王	-11.3141
既久	-11.3141
不見其	-11.3141
未艾	-11.3142
金紫	-11.3143
又如	-11.3145
桂林	-11.3146
操觚	-11.3148
誰憐	-11.315
逝者	-11.3151
之祖	-11.3152
大哉	-11.3152
珎	-11.3152
隨時	-11.3153
鎬	-11.3153
東閣	-11.3154
肴	-11.3155
九成	-11.3156
舅氏	-11.3157
鑠	-11.3157
表章	-11.3159
夙昔	-11.316
學士大夫	-11.316
所爲	-11.3162
得其人	-11.3163
以儒	-11.3163
户部尚書	-11.3163
所不及	-11.3164
惻然	-11.3165
而徒	-11.3165
者二	-11.3165
雲深	-11.3166
以給	-11.3166
送人	-11.3167
五子	-11.3168
入京	-11.3169
䝉恩	-11.3173
抹	-11.3174
無成	-11.3179
花滿	-11.3179
夢魂	-11.318
淺深	-11.3181
志之	-11.3181
到此	-11.3182
巻一	-11.3182
羣公	-11.3184
詬	-11.3184
來自	-11.3185
尚能	-11.3185
先妣	-11.3185
諦	-11.3185
此等	-11.3185
佃	-11.3186
赭	-11.3186
熏	-11.3187
叠	-11.3188
謠	-11.3188
其精	-11.3189
愛人	-11.3191
者果	-11.3194
在下	-11.3195
營營	-11.3195
先期	-11.3196
兒孫	-11.3196
不遂	-11.3197
或不	-11.3198
為是	-11.3199
漁父	-11.32
瞻望	-11.32
無慮	-11.32
還自	-11.3202
之秀	-11.3202
文皇	-11.3203
又次	-11.3203
鳥鳴	-11.3205
啼鳥	-11.3205
有限	-11.3207
不及見	-11.3209
節制	-11.3209
南城	-11.321
使節	-11.321
襄事	-11.3211
不能已	-11.3211
非是	-11.3214
墾	-11.3215
隧	-11.3216
正當	-11.3217
掉	-11.3218
應天府	-11.3218
之易	-11.3219
草書	-11.3221
冠裳	-11.3221
然若	-11.3222
老僧	-11.3223
事勢	-11.3225
緑樹	-11.3228
高明	-11.3229
嘗與	-11.3232
洪武初	-11.3235
為法	-11.3236
不鄙	-11.3236
之賢者	-11.3238
琴瑟	-11.3239
兊	-11.3241
廨	-11.3246
如見	-11.3247
凉風	-11.3248
君獨	-11.3248
縣尹	-11.3249
各一	-11.3249
才識	-11.3252
形勢	-11.3253
僅一	-11.3253
曦	-11.3253
己亥	-11.3254
與李	-11.3255
溘	-11.3257
之運	-11.3258
向人	-11.3263
女一適	-11.3263
此一	-11.3264
而竟	-11.3267
要在	-11.3267
莫知	-11.327
便道	-11.3272
有所不	-11.3272
及見	-11.3274
先生者	-11.3275
椽	-11.3275
而謂	-11.3277
身在	-11.328
也知	-11.328
舉世	-11.3281
醉後	-11.3281
高祖	-11.3282
䰟	-11.3283
妻孥	-11.3285
尤多	-11.3285
秋八月	-11.3285
陬	-11.3285
崧	-11.3286
錬	-11.3287
錦衣衛	-11.3287
謂何	-11.3288
氏諱	-11.3289
記得	-11.3289
因而	-11.329
璇	-11.329
位而	-11.3293
紛華	-11.3294
名為	-11.3294
二曰	-11.3295
秋氣	-11.3295
胡君	-11.3296
小心	-11.3297
爵禄	-11.3297
有容	-11.3298
重臣	-11.3299
固辭	-11.33
故老	-11.3302
燠	-11.3302
郡學	-11.3304
顯揚	-11.3304
燕市	-11.3304
金帛	-11.3305
庶子	-11.3306
清時	-11.3306
千門	-11.3307
仁厚	-11.3308
卵	-11.3309
言哉	-11.3309
得名	-11.331
也又曰	-11.3311
性也	-11.3311
武臣	-11.3311
跽	-11.3313
觀音	-11.3314
滿庭	-11.3316
翎	-11.3318
知其為	-11.3318
必求	-11.332
法師	-11.3322
復得	-11.3322
于鄉	-11.3322
二弟	-11.3329
上元	-11.3329
伏枕	-11.3331
發而	-11.3332
哀之	-11.3332
如是而	-11.3333
維持	-11.3334
曰然	-11.3334
洪武中	-11.3335
居人	-11.3339
先生為	-11.3339
諍	-11.3339
曾子	-11.3341
蓋有	-11.3342
以防	-11.3343
臯陶	-11.3344
學生	-11.3345
二十三	-11.3345
棣	-11.3347
槃	-11.3348
列傳	-11.3348
蘚	-11.3348
所用	-11.3348
茵	-11.3349
一日之	-11.3349
予故	-11.335
閴	-11.3351
鳯陽	-11.3353
瞑目	-11.3354
刑罰	-11.3354
衣服	-11.3355
而志	-11.3356
以誠	-11.3356
司業	-11.3357
前去	-11.3358
大笑	-11.3363
哭之	-11.3363
客來	-11.3365
不羣	-11.3366
也是以	-11.3366
烟雨	-11.3368
城北	-11.3368
勉焉	-11.3369
領兵	-11.3373
捐館	-11.3373
慎勿	-11.3374
隠君	-11.3376
矣况	-11.3376
該道	-11.3379
萬斛	-11.338
之喪	-11.338
抵家	-11.338
以私	-11.3381
晉人	-11.3381
天顔	-11.3381
穩	-11.3384
莫逆	-11.3385
駛	-11.3386
璜	-11.3387
長日	-11.3388
花下	-11.3388
待制	-11.3388
次即	-11.3389
已又	-11.3389
竊聞	-11.3391
文華	-11.3391
逍遙	-11.3391
莫遣	-11.3395
焉公	-11.3395
忘機	-11.3396
問其	-11.3397
而歎曰	-11.3397
布政使	-11.3397
畀之	-11.3398
今則	-11.3398
予因	-11.34
大宗伯	-11.34
者誠	-11.3402
簡書	-11.3406
以永	-11.3406
意其	-11.3407
絶無	-11.3407
之耳	-11.3408
念我	-11.341
燥	-11.341
存之	-11.341
其君	-11.3411
鄉之人	-11.3412
憐君	-11.3412
曄	-11.3412
涙	-11.3413
荼	-11.3413
隷	-11.3413
辭以	-11.3414
一畨	-11.3415
必自	-11.3416
疴	-11.3418
生靈	-11.3418
花枝	-11.3419
好事者	-11.3419
不辨	-11.3421
粲然	-11.3422
自宋	-11.3423
兢	-11.3425
之首	-11.3425
以贈之	-11.3425
使得	-11.3426
入室	-11.3426
必有以	-11.3429
弗敢	-11.3429
在室	-11.343
精誠	-11.343
者甚衆	-11.3431
南贛	-11.3431
烈婦	-11.3433
馳驅	-11.3433
余讀	-11.3438
丑	-11.344
呼吸	-11.3444
謁予	-11.3446
召還	-11.3446
洶洶	-11.3446
擯	-11.3446
沴	-11.3447
愠	-11.3447
誑	-11.3448
翹首	-11.3449
碁	-11.345
淮隂	-11.3451
髙閣	-11.3452
淒	-11.3453
南極	-11.3453
故居	-11.3455
滄波	-11.3456
許多	-11.3456
江門	-11.3457
士風	-11.3459
但恐	-11.3459
修竹	-11.3459
東籬	-11.3459
誥命	-11.3459
謂之曰	-11.3459
綱紀	-11.3461
攀龍	-11.3462
半夜	-11.3462
皆然	-11.3464
之嵗	-11.3465
焉爾	-11.3465
子姪	-11.3467
以祀	-11.3468
茨	-11.3468
朝野	-11.3472
著作	-11.3473
脾	-11.3475
之竒	-11.3475
仁宗皇帝	-11.3476
脊	-11.3477
其所自	-11.3477
文維	-11.3477
月上	-11.3478
洙泗	-11.3478
以授	-11.3479
以彰	-11.3479
承天	-11.348
秋江	-11.3483
洪範	-11.3483
有弗	-11.3486
至治	-11.3487
本是	-11.3488
軒轅	-11.3491
竹樹	-11.3491
秦人	-11.3494
癸	-11.3494
鷄鳴	-11.3495
不憂	-11.3497
本之	-11.3498
瀚	-11.35
自相	-11.35
往来	-11.35
青田	-11.3502
日已	-11.3503
甲兵	-11.3504
叅將	-11.3504
葢自	-11.3507
古意	-11.3509
疋	-11.351
糞	-11.351
斫	-11.3513
鷙	-11.3513
國用	-11.3514
嬾	-11.3517
矣惟	-11.3519
嗣位	-11.352
上國	-11.3521
國子監	-11.3524
風清	-11.3526
吾嘗	-11.3529
亦能	-11.3529
澄清	-11.3529
秘書	-11.3531
已經	-11.3531
淮海	-11.3531
數里	-11.3532
山前	-11.3532
矣是故	-11.3534
賢人	-11.3534
而讀之	-11.3535
昔時	-11.3536
復起	-11.3536
時復	-11.3536
陳子	-11.3537
金莖	-11.3537
州之	-11.354
萬金	-11.3541
雷雨	-11.3542
以文章	-11.3542
年三十	-11.3542
為最	-11.3543
留之	-11.3544
壽考	-11.3544
緑水	-11.3545
黼黻	-11.3546
掘	-11.3547
蓼	-11.3549
毫髪	-11.3549
關山	-11.3549
與同	-11.3549
呻吟	-11.355
用以	-11.3551
鷁	-11.3551
流泉	-11.3552
鹿門	-11.3552
蒼龍	-11.3552
為重	-11.3553
世上	-11.3556
之富	-11.3558
未備	-11.3561
分教	-11.3563
青鳥	-11.3563
蜚	-11.3564
兩地	-11.3566
大觀	-11.3571
邇者	-11.3573
本乎	-11.3575
爽氣	-11.3576
著其	-11.3577
縳	-11.3578
邏	-11.358
諮	-11.3581
彫	-11.3581
君子謂	-11.3583
瓌	-11.3584
益甚	-11.3585
何心	-11.3585
計其	-11.3585
當自	-11.3588
文士	-11.3588
文正	-11.3589
俱有	-11.3593
神龍	-11.3593
本心	-11.3594
又當	-11.3595
畢竟	-11.3595
者也夫	-11.3595
加焉	-11.3597
侔	-11.3597
敵人	-11.3598
扶持	-11.3598
也抑	-11.3598
宜乎	-11.3598
明發	-11.3601
在前	-11.3603
落魄	-11.3603
慟哭	-11.3604
族譜	-11.3604
瀟洒	-11.3606
奉公	-11.3606
所撰	-11.3606
將士	-11.3606
大徳	-11.3607
哈	-11.3609
宗之	-11.361
亦難	-11.361
無多	-11.3611
皇后	-11.3611
匹夫	-11.3613
君名	-11.3613
陽和	-11.3614
綉	-11.3614
恍然	-11.3615
不得以	-11.3615
稱觴	-11.3615
謂曰	-11.3616
仄	-11.3616
浥	-11.3617
器之	-11.3621
朝宗	-11.3621
冠服	-11.3623
成人	-11.3623
家山	-11.3624
顧其	-11.3624
臺省	-11.3625
懇懇	-11.3626
生擒	-11.3626
上之人	-11.3628
數數	-11.3629
政務	-11.3629
西蜀	-11.3631
賢不肖	-11.3631
以卒	-11.3633
則自	-11.3633
耆舊	-11.3636
近臣	-11.3637
峩	-11.3637
者莫	-11.3637
助之	-11.3637
不數	-11.3639
醖	-11.3641
只恐	-11.3641
歴代	-11.3641
高堂	-11.3643
無難	-11.3643
盂	-11.3643
單于	-11.3643
已見	-11.3644
少壯	-11.3644
啜	-11.3647
同事	-11.3648
混沌	-11.3648
醮	-11.3648
設施	-11.365
其治	-11.365
天宇	-11.3651
藏書	-11.3651
振衣	-11.3652
不道	-11.3652
處置	-11.3654
有恒	-11.3655
無功	-11.3658
肩輿	-11.3659
一區	-11.366
衰老	-11.3663
蘇氏	-11.3664
累贈	-11.367
新城	-11.3672
玉立	-11.3673
安定	-11.3674
人子	-11.3676
吕氏	-11.3677
喜而	-11.3677
儁	-11.3678
時聞	-11.3678
為别	-11.3679
既至	-11.3679
清廟	-11.3679
舉行	-11.3679
馘	-11.368
磚	-11.368
諼	-11.368
豈為	-11.368
𤨏	-11.368
也茍	-11.368
遨	-11.3682
𡨕	-11.3683
龍江	-11.3683
舉子	-11.3684
山川之	-11.3685
莫測	-11.3685
經學	-11.3685
荏苒	-11.3686
假令	-11.3687
而况於	-11.3687
海水	-11.3688
天下而	-11.3689
兩浙	-11.369
餘生	-11.3693
自我	-11.3694
儒林	-11.3695
懐抱	-11.3697
二百年	-11.3698
髙歌	-11.3698
北征	-11.3701
虚名	-11.3701
人耳	-11.3702
上言	-11.3703
無忘	-11.3703
徐州	-11.3703
今復	-11.3705
生理	-11.3707
僃	-11.3708
光大	-11.3709
隠隠	-11.3709
莱	-11.3709
良可	-11.371
孳孳	-11.3713
缶	-11.3713
不能忘	-11.3714
泣下	-11.3714
言則	-11.3716
以應	-11.3716
惋	-11.3717
竪	-11.3717
潄	-11.3721
異鄉	-11.3722
盤桓	-11.3723
不渝	-11.3724
復作	-11.3725
鄴	-11.3725
之令	-11.3729
可稱	-11.3733
髙卧	-11.3733
緑隂	-11.3733
都是	-11.3734
中正	-11.3734
予於	-11.3737
烟霧	-11.3737
矯首	-11.3739
未竟	-11.374
焉予	-11.374
今之人	-11.374
君今	-11.3741
凡所	-11.3743
重重	-11.3744
升降	-11.3748
肝膽	-11.3748
其真	-11.3749
毘陵	-11.3749
眎	-11.375
濁酒	-11.375
而況	-11.3753
羇	-11.3753
無媿	-11.3754
無從	-11.3754
凛然	-11.3755
發憤	-11.3757
之工	-11.3758
為務	-11.3758
萬邦	-11.3759
桓公	-11.3759
移家	-11.376
月華	-11.3761
三百篇	-11.3761
兀	-11.3761
撫臣	-11.3762
可信	-11.3762
災異	-11.3762
居庸	-11.3763
而後可	-11.3763
一望	-11.3763
吾與	-11.3763
揚子	-11.3764
前朝	-11.3764
九華	-11.3764
出為	-11.3765
兄之	-11.3766
木蘭	-11.3767
連日	-11.3768
旭日	-11.3769
督撫	-11.3771
出師	-11.3771
取進士	-11.3773
未遑	-11.3774
騶	-11.3777
二章	-11.3777
與吾	-11.3777
父曰	-11.3778
嗟哉	-11.3778
萬民	-11.3779
飛去	-11.3781
閣老	-11.3782
箠	-11.3782
下上	-11.3783
匯	-11.3783
瑯琊	-11.3784
計也	-11.3785
者殆	-11.3785
縠	-11.3786
出塞	-11.3787
加意	-11.3787
惕然	-11.3788
地也	-11.3788
司農	-11.3789
同姓	-11.3789
金錢	-11.379
長短	-11.379
將相	-11.3791
懇切	-11.3792
走馬	-11.3793
頗有	-11.3795
三秋	-11.3796
而善	-11.3796
自愧	-11.3796
曰善	-11.3797
長驅	-11.3799
今幸	-11.3799
也君子	-11.38
又三年	-11.3801
矣昔	-11.3802
登臺	-11.3807
未老	-11.3808
奉養	-11.3811
昜	-11.3811
訓詁	-11.3812
無斁	-11.3813
治生	-11.3814
陳情	-11.3815
欲使	-11.3815
我思	-11.3816
箸	-11.3816
入太學	-11.3817
沅	-11.3818
謂此	-11.3818
踣	-11.3818
何在	-11.3818
成名	-11.3818
利而	-11.3819
辛卯	-11.3819
嶙峋	-11.382
之雅	-11.382
雙龍	-11.382
蓑	-11.382
藕	-11.3821
竒之	-11.3825
森森	-11.3825
我生	-11.3826
二十七	-11.3826
樂道	-11.3826
而北	-11.3829
雨餘	-11.383
歸自	-11.383
所思	-11.383
之田	-11.3831
河上	-11.3832
笙歌	-11.3832
為心	-11.3833
焉此	-11.3835
欲問	-11.3836
具疏	-11.3837
終無	-11.3839
春暉	-11.384
瀑布	-11.3841
人之心	-11.3844
河圖	-11.3848
素心	-11.3849
不輟	-11.3849
產	-11.385
将以	-11.3852
沾沾	-11.3852
復古	-11.3852
漣	-11.3852
正氣	-11.3854
詔書	-11.3857
矚	-11.3857
留滯	-11.3858
焉能	-11.3859
萬全	-11.3859
成章	-11.3859
治化	-11.386
不再	-11.3862
可樂	-11.3863
數十萬	-11.3863
當何如	-11.3865
公復	-11.3865
則可以	-11.3865
著之	-11.3865
號稱	-11.3866
再見	-11.3866
故雖	-11.3866
晚節	-11.3868
骸	-11.3869
以表	-11.387
教育	-11.3872
小者	-11.3873
甚難	-11.3875
我兵	-11.3876
瑶草	-11.3877
也不然	-11.3878
手持	-11.3878
其遺	-11.388
王氣	-11.3881
光武	-11.3881
往時	-11.3882
吾夫子	-11.3882
哉昔	-11.3883
花前	-11.3884
異哉	-11.3884
與天地	-11.3885
聒	-11.3885
詩後	-11.3886
女三	-11.3886
之親	-11.3886
距其生	-11.3886
百川	-11.3886
棲遲	-11.3887
燃	-11.3887
乃命	-11.3887
砥柱	-11.3887
終古	-11.3888
釣魚	-11.3889
此本	-11.3889
不淺	-11.3889
仕進	-11.389
𦕈	-11.3891
余謂	-11.3892
入為	-11.3892
天氣	-11.3897
歌行	-11.3899
不專	-11.39
可以觀	-11.3902
而言曰	-11.3903
愛敬	-11.3904
譯	-11.3904
一命	-11.3906
論其	-11.3907
城府	-11.3907
不雨	-11.3908
周公之	-11.3908
平反	-11.3908
封孺人	-11.3911
鄖	-11.3913
耆老	-11.3913
無以為	-11.3914
有益於	-11.3914
十有三	-11.3915
珥	-11.3916
庶吉士	-11.3917
杵	-11.3918
冽	-11.3918
未已	-11.3921
待詔	-11.3921
愬	-11.3922
擣	-11.3922
暮春	-11.3922
嬪	-11.3923
吉甫	-11.3923
何地	-11.3924
見過	-11.3924
萬樹	-11.3925
而後能	-11.3925
觥	-11.3926
光彩	-11.3927
嘉之	-11.3927
權貴	-11.3929
年已	-11.393
開國	-11.393
天光	-11.3931
多方	-11.3932
氏之先	-11.3932
參軍	-11.3935
百代	-11.3935
則思	-11.3937
曰公	-11.3937
以才	-11.3938
壯而	-11.3938
轄	-11.394
徐子	-11.3941
紫薇	-11.3941
引領	-11.3941
子長	-11.3944
一夫	-11.3944
其美	-11.3946
坐視	-11.3947
鏗	-11.3948
異人	-11.3949
仕為	-11.3949
則夫	-11.395
以理	-11.395
縱有	-11.395
吳山	-11.3951
二十二日	-11.3952
拭	-11.3953
空林	-11.3955
幔	-11.3956
人心之	-11.3956
翩然	-11.3957
合乎	-11.3957
為宗	-11.3958
寤寐	-11.3958
扳	-11.3958
妝	-11.3959
涎	-11.3959
擎	-11.396
金谷	-11.3961
擷	-11.3962
一則	-11.3962
寒雲	-11.3963
對客	-11.3963
居恒	-11.3964
休戚	-11.3965
尚多	-11.3967
學於	-11.3967
余既	-11.3968
案牘	-11.3969
千丈	-11.397
渡河	-11.397
大約	-11.3971
於法	-11.3974
錫之	-11.3975
其六	-11.3979
紱	-11.3979
南溪	-11.398
而廢	-11.398
欽此欽遵	-11.3981
眼底	-11.3982
知非	-11.3983
所部	-11.3984
園亭	-11.3984
乃已	-11.3984
賊巢	-11.3985
文行	-11.3985
諸軍	-11.3985
一女	-11.3986
附於	-11.3987
流落	-11.3987
一句	-11.3988
人哉	-11.3988
陸子	-11.3988
未為	-11.399
明王世貞撰	-11.399
修之	-11.399
憲臣	-11.399
乙卯	-11.3992
才子	-11.3992
腕	-11.3993
厚而	-11.3994
臨淮	-11.3994
御史中丞	-11.3994
盛年	-11.3996
曰予	-11.3999
家弟	-11.4002
蕩蕩	-11.4002
草莽	-11.4003
遣之	-11.4004
臣惟	-11.4006
而食	-11.4006
俎豆	-11.4006
此類	-11.4008
無憂	-11.401
商賈	-11.4012
緋	-11.4012
臨安	-11.4013
垂老	-11.4013
載道	-11.4013
歸老	-11.4015
諸天	-11.4015
去矣	-11.4016
揣	-11.4016
維新	-11.4017
十有五	-11.4018
寄語	-11.402
此所以	-11.4021
含情	-11.4021
麋	-11.4022
王者	-11.4022
自奮	-11.4022
田廬	-11.4023
炯	-11.4024
臧獲	-11.4024
草樹	-11.4025
乃若	-11.4025
燧	-11.4026
之處	-11.4026
花發	-11.4027
沁	-11.4027
柝	-11.4028
朝暮	-11.4029
二十九日	-11.4032
五里	-11.4034
卿大夫	-11.4037
賊首	-11.4037
天日	-11.4037
溺於	-11.4037
終焉	-11.4038
交遊	-11.4039
嗚呼痛哉	-11.404
大廷	-11.4041
能致	-11.4041
終於	-11.4042
都尉	-11.4043
蒼然	-11.4044
知先生	-11.4045
不服	-11.4045
九曲	-11.4047
為縣	-11.4048
諸孤	-11.405
僅得	-11.4051
砥礪	-11.4053
義而	-11.4054
帝王之	-11.4055
俚	-11.4055
狩	-11.4056
處州	-11.4056
子貢	-11.4057
也當	-11.4057
僦	-11.4058
中書舎人	-11.4058
哦	-11.4058
於衆	-11.4059
以徳	-11.406
楣	-11.406
文藝	-11.406
礦	-11.406
關中	-11.406
發揮	-11.406
恫	-11.4061
蜀道	-11.4061
黼	-11.4062
齟齬	-11.4062
在京	-11.4063
保定	-11.4064
君生	-11.4066
秫	-11.4066
家藏	-11.4067
嶺海	-11.4067
有七	-11.4069
甚衆	-11.4071
相通	-11.4071
狂歌	-11.4072
譙	-11.4074
有不能	-11.4075
女也	-11.4075
道則	-11.4077
河陽	-11.4077
悲哉	-11.4078
我行	-11.4081
脩身	-11.4081
大士	-11.4081
鮮有	-11.4082
烟波	-11.4083
得所	-11.4083
佛老	-11.4083
謐	-11.4083
諸葛	-11.4085
獨憐	-11.4086
朞	-11.4086
詩集	-11.4087
亦在	-11.4087
于外	-11.4088
故以	-11.409
曰非	-11.409
曾孫男	-11.409
石湖	-11.4091
其害	-11.4094
萬夫	-11.4095
使臣	-11.4095
海外	-11.4095
明王	-11.4097
之慶	-11.4098
太子太保	-11.4101
幽棲	-11.4102
史傳	-11.4103
神交	-11.4104
其孝	-11.4108
之雄	-11.4108
富而	-11.411
恙	-11.4113
物故	-11.4113
不敢不	-11.4114
一紙	-11.4116
指㸃	-11.4117
其傳	-11.4121
誠心	-11.4123
堯舜之	-11.4123
無與	-11.4123
瑶臺	-11.4124
異而	-11.4124
轅門	-11.4125
光祿	-11.4126
哉是	-11.4127
同朝	-11.4127
上意	-11.4128
教以	-11.4129
石梁	-11.413
莫不有	-11.4131
拖	-11.4131
以從	-11.4132
縑	-11.4132
怖	-11.4132
詮	-11.4135
同門	-11.4136
臣不勝	-11.4138
尊卑	-11.4138
循循	-11.4138
耶夫	-11.4142
爾雅	-11.4143
中宵	-11.4144
賢哉	-11.4145
非常之	-11.4146
同行	-11.4146
往者	-11.4154
曾大父	-11.4156
東郭	-11.416
㡬時	-11.4162
浩歌	-11.4162
松下	-11.4163
璘	-11.4163
𣙜	-11.4163
㱕	-11.4164
是編	-11.4164
三輔	-11.4164
疑是	-11.4164
先徳	-11.4164
其世	-11.4165
震澤	-11.4166
天津	-11.4167
幾日	-11.4167
貞節	-11.4167
壼	-11.4167
䄂	-11.4168
服膺	-11.4168
暇則	-11.4169
三十二	-11.4169
靚	-11.4169
輞川	-11.417
無罪	-11.417
大河	-11.4174
柴桑	-11.4174
無所用	-11.4175
謝事	-11.4175
里居	-11.4175
下第	-11.4176
君既	-11.4176
武庫	-11.4176
怳	-11.4177
土地	-11.4178
日星	-11.4178
見得	-11.4179
秋七月	-11.4179
語也	-11.418
而稱	-11.4181
羲皇	-11.4183
縁係	-11.4184
益深	-11.4185
六首	-11.4187
思慮	-11.4189
者僅	-11.4189
太子少保	-11.4191
遺墨	-11.4191
萬言	-11.4191
誰謂	-11.4192
三十里	-11.4192
十有一	-11.4195
非所謂	-11.4195
㐮	-11.4195
無違	-11.4198
者不過	-11.4198
從事於	-11.42
長空	-11.4201
又言	-11.4202
昔賢	-11.4203
乎余	-11.4203
蚊	-11.4203
性命之	-11.4203
頫	-11.4204
記其	-11.4205
欒	-11.4205
戀戀	-11.4205
甚者	-11.4207
桓桓	-11.4207
昱	-11.4207
伏乞	-11.4208
進學	-11.421
既長	-11.4211
雲飛	-11.4211
者不可	-11.4211
行則	-11.4212
兵戈	-11.4212
過此	-11.4213
經行	-11.4215
而治	-11.4215
其常	-11.4217
嘗觀	-11.4218
邦人	-11.4219
之身	-11.4222
夷齊	-11.4223
天髙	-11.4225
以清	-11.4226
客中	-11.4226
斗牛	-11.4226
飛龍	-11.4227
者輒	-11.4227
之季	-11.4228
匹馬	-11.4229
萬嵗	-11.4231
猺	-11.4235
不終	-11.4235
風度	-11.4235
吾亦	-11.4236
年正月	-11.4236
非若	-11.4236
我獨	-11.4236
拉	-11.4237
此物	-11.4237
篤實	-11.4238
謁選	-11.4238
益大	-11.4238
㴱	-11.4238
砂	-11.4238
雲門	-11.4238
摛	-11.4239
秖	-11.424
亦卒	-11.424
告曰	-11.4242
不留	-11.4244
婺源	-11.4246
而安	-11.4247
豺虎	-11.4248
莓苔	-11.4248
之吏	-11.4249
雲烟	-11.425
之俾	-11.425
遂使	-11.425
沛然	-11.4251
尺牘	-11.4251
名姓	-11.4251
夏四月	-11.4253
大本	-11.4253
府事	-11.4257
維揚	-11.4259
極力	-11.426
于天下	-11.4263
耳目之	-11.4264
敏政	-11.4264
生二子	-11.4265
杜甫	-11.4266
玘	-11.4267
看雲	-11.4267
特賜	-11.4269
男婦	-11.4269
蘭溪	-11.4269
郭公	-11.4269
亦如之	-11.4269
元夕	-11.4273
舉子業	-11.4274
甍	-11.4277
喜怒	-11.4277
委官	-11.4277
民俗	-11.4277
攬轡	-11.4278
杖藜	-11.4279
下土	-11.4279
崢嶸	-11.4279
不自知其	-11.428
嵗嵗	-11.428
空同	-11.4282
形於	-11.4283
禹貢	-11.4284
井田	-11.4286
達人	-11.4286
之至也	-11.4287
論學	-11.4288
兹山	-11.4288
尤篤	-11.4289
矣因	-11.4289
髙人	-11.4289
年月日	-11.4294
藍田	-11.4296
典史	-11.4298
其處	-11.4301
神功	-11.4303
太初	-11.4304
大化	-11.4305
弋	-11.4305
耦	-11.4306
嘗曰	-11.4307
兩家	-11.4307
太上	-11.4309
則所謂	-11.4309
同寅	-11.431
峒	-11.4311
自來	-11.4311
堂下	-11.4311
噫嘻	-11.4311
謂我	-11.4311
臨御	-11.4313
此吾	-11.4314
覯	-11.4314
春江	-11.4316
尚何	-11.4316
繚	-11.4317
如是者	-11.4317
不習	-11.4318
中央	-11.4318
樂其	-11.4319
壺觴	-11.4319
習俗	-11.4321
父子兄弟	-11.4321
若是者	-11.4321
從吾	-11.4322
㑹有	-11.4322
廷試	-11.4325
勉旃	-11.4325
行止	-11.4328
以名	-11.4328
利病	-11.4329
之本也	-11.4329
蜃	-11.4331
委之	-11.4332
典籍	-11.4332
守節	-11.4332
樂事	-11.4332
英英	-11.4334
著姓	-11.4335
其神	-11.4336
汝父	-11.4338
至理	-11.4338
筋	-11.4339
少長	-11.4339
守禦	-11.4339
誰云	-11.4341
過客	-11.4341
難也	-11.4342
而東	-11.4342
刈	-11.4343
請告	-11.4344
講習	-11.4344
漓	-11.4346
爲學	-11.4346
一第	-11.4346
伏望皇上	-11.4347
悰	-11.4347
顚	-11.4347
堞	-11.4347
諏	-11.4348
萼	-11.4351
終不能	-11.4352
凭	-11.4352
西安	-11.4353
惡之	-11.4353
應知	-11.4353
其責	-11.4356
也嗟乎	-11.436
海濵	-11.4362
如此其	-11.4365
切切	-11.4366
名儒	-11.4368
受封	-11.4369
傳家	-11.4369
自從	-11.437
去就	-11.437
三更	-11.4371
感動	-11.4372
乃是	-11.4372
先民	-11.4372
人文	-11.4373
三十餘	-11.4374
花香	-11.4376
於人者	-11.4378
参	-11.4379
李杜	-11.4379
名流	-11.438
衒	-11.438
遥遥	-11.4381
我何	-11.4381
抒	-11.4382
秃	-11.4382
刮	-11.4382
室廬	-11.4383
特立	-11.4383
盖其	-11.4385
過予	-11.4388
其數	-11.4389
伏羲	-11.4389
立而	-11.4392
遇之	-11.4392
為問	-11.4393
國恩	-11.4393
望族	-11.4396
以勸	-11.4397
方丈	-11.4397
漢宫	-11.4399
相得	-11.44
盖自	-11.4401
嘉樹	-11.4401
徳行	-11.4403
先生之學	-11.4403
君心	-11.4406
深林	-11.4408
十有九	-11.4408
好善	-11.441
為多	-11.4411
祠下	-11.4412
之疾	-11.4412
逢君	-11.4413
兵革	-11.4414
得見	-11.4414
黄山	-11.4414
擿	-11.4415
何䖏	-11.4416
磔	-11.4418
世守	-11.4418
得免	-11.4419
良民	-11.4419
凛凛	-11.442
冡宰	-11.442
沫	-11.442
斡	-11.4421
賸	-11.4421
百人	-11.4421
邵子	-11.4422
奕世	-11.4422
登堂	-11.4422
渤海	-11.4422
親民	-11.4422
一詩	-11.4423
一峯	-11.4424
毋以	-11.4425
主客	-11.4425
世傳	-11.4425
終南	-11.4426
遐思	-11.4428
科名	-11.443
太清	-11.443
其尤	-11.4435
水西	-11.4439
周易	-11.444
出没	-11.444
汝南	-11.4441
吾徒	-11.4441
清源	-11.4445
樂天	-11.4446
義士	-11.4446
多賢	-11.4446
天之所	-11.4447
司馬公	-11.4448
喫	-11.4449
牝	-11.4449
櫛	-11.445
見此	-11.4451
貟	-11.4451
黷	-11.4452
我聞	-11.4452
報稱	-11.4452
三吳	-11.4453
雲水	-11.4454
知止	-11.4454
不審	-11.4455
事多	-11.4457
日月之	-11.4457
遥望	-11.4458
搴	-11.4459
之弟	-11.446
畿内	-11.4462
地僻	-11.4462
交㳺	-11.4463
髙臺	-11.4463
講求	-11.4465
照例	-11.4467
近年	-11.4468
以老	-11.4471
相仍	-11.4472
長揖	-11.4472
爼豆	-11.4472
激烈	-11.4473
泠	-11.4476
也或曰	-11.4476
㕘議	-11.448
為教	-11.4481
萬木	-11.4481
其季	-11.4483
責其	-11.4484
忽驚	-11.4486
命有司	-11.4486
俛	-11.4487
棼	-11.4487
㸑	-11.4489
羣從	-11.449
誰識	-11.449
雲雨	-11.4492
幽谷	-11.4492
興學	-11.4493
撞	-11.4494
芾	-11.4494
者為之	-11.4495
對此	-11.4495
岧嶤	-11.4497
後世之	-11.4497
三王	-11.4497
餘慶	-11.4498
濯纓	-11.4499
又多	-11.45
子厚	-11.4501
退食	-11.4503
以寛	-11.4503
幾於	-11.4503
愛日	-11.4503
土兵	-11.4504
大藩	-11.4504
永新	-11.4508
宣王	-11.451
漁舟	-11.4511
寧有	-11.4511
行且	-11.4512
晚年	-11.4513
石壁	-11.4514
滿林	-11.4514
録之	-11.4514
任其	-11.4515
討論	-11.4516
聖神	-11.4517
酌酒	-11.4517
君子之道	-11.452
遑	-11.4521
論也	-11.4523
緊	-11.4523
䛕	-11.4524
莊子	-11.4525
繒	-11.4525
嫓	-11.4525
嘖嘖	-11.4525
鍼	-11.4526
省城	-11.4526
元元	-11.4526
滓	-11.4527
㕓	-11.4527
萬世之	-11.4527
緫	-11.4528
瘡痍	-11.4528
逺方	-11.453
壟	-11.453
先生先生	-11.453
鄉心	-11.4531
窺其	-11.4532
謝客	-11.4532
文義	-11.4533
成於	-11.4534
落成	-11.4535
天下者	-11.4536
令徳	-11.4537
舊日	-11.4538
教養	-11.4539
於一時	-11.454
當此	-11.454
歐陽公	-11.454
亦猶	-11.454
先子	-11.4541
三曰	-11.4541
豈是	-11.4543
孝義	-11.4543
告歸	-11.4544
而外	-11.4546
夜夢	-11.4546
後右	-11.4546
榮之	-11.4547
㡬人	-11.4547
景明	-11.4549
年未	-11.4549
塲屋	-11.455
良工	-11.455
郡志	-11.455
見在	-11.4551
思歸	-11.4554
全活	-11.4556
難忘	-11.4556
于心	-11.4557
作此	-11.4558
國子祭酒	-11.4558
小人之	-11.4559
書云	-11.4559
諸侯之	-11.456
宇内	-11.4561
乎外	-11.4562
本自	-11.4563
學成	-11.4563
幷	-11.4564
南去	-11.4565
拚	-11.4566
其不可	-11.4566
韻二首	-11.4566
不二	-11.4568
老大	-11.4568
勤於	-11.4568
調理	-11.4569
迢逓	-11.457
官司	-11.457
虺	-11.4571
無外	-11.4571
雖其	-11.4573
首尾	-11.4574
出世	-11.4575
居室	-11.4575
古所謂	-11.4576
諭以	-11.4577
賜金	-11.4577
次之	-11.4579
以助	-11.4579
何嘗	-11.4579
僕之	-11.4581
京城	-11.4581
夾攻	-11.4581
里許	-11.4582
俎	-11.4583
世其家	-11.4586
學正	-11.4586
千五百	-11.4588
保全	-11.4588
生徒	-11.4588
入夢	-11.4589
私心	-11.459
塞上	-11.459
以興	-11.4591
獨能	-11.4593
白鳥	-11.4593
之中而	-11.4594
而身	-11.4595
扞	-11.4598
所敢	-11.4599
五品	-11.4599
矣君	-11.4599
内翰	-11.46
千嵗	-11.46
風節	-11.4601
飱	-11.4603
甚盛	-11.4606
事情	-11.4607
武選	-11.4608
寢食	-11.461
少有	-11.4612
之貴	-11.4613
興國	-11.4614
流風	-11.4614
先業	-11.4614
令尹	-11.4618
日就	-11.4618
盖以	-11.462
亦得	-11.4621
痛哭	-11.4622
故多	-11.4625
無後	-11.4626
較之	-11.4627
去留	-11.4628
駟馬	-11.4629
予所	-11.4629
絀	-11.4634
登高	-11.4635
盲	-11.4635
官守	-11.4635
貞婦	-11.4636
証	-11.4638
日斜	-11.4638
為事	-11.464
鶻	-11.464
何啻	-11.464
筦	-11.464
懵	-11.464
為爾	-11.4643
趙君	-11.4644
埭	-11.4646
江浦	-11.4647
雲開	-11.4647
數十百	-11.465
江浙	-11.4651
澹然	-11.4651
我銘	-11.4653
青眼	-11.4654
若干年	-11.4655
而别	-11.4656
堂中	-11.4657
行路難	-11.4657
停雲	-11.4661
諸王	-11.4662
誰是	-11.4664
哉公	-11.4667
持此	-11.4667
立法	-11.4668
逝矣	-11.4669
而已也	-11.467
昭明	-11.4671
頭目	-11.4671
櫬	-11.4672
女二人	-11.4672
某年某月某日	-11.4673
與語	-11.4674
安福	-11.4675
朝鮮	-11.4675
而不以	-11.4675
寵命	-11.4677
罪人	-11.4678
怵	-11.4678
信宿	-11.4679
皆由	-11.4679
惟此	-11.4679
一縣	-11.4681
者常	-11.4681
臨海	-11.4683
美而	-11.4683
手澤	-11.4684
委蛇	-11.4688
建業	-11.4688
登進士	-11.4688
蔚然	-11.4688
賑濟	-11.4689
牛馬	-11.469
何如耳	-11.4691
早朝	-11.4692
卜以	-11.4692
鴻鵠	-11.4694
所居之	-11.4695
九泉	-11.4695
夕照	-11.4695
繽紛	-11.4696
所感	-11.4697
救之	-11.4698
傳後	-11.47
無聊	-11.47
如子	-11.4706
病起	-11.4706
轉運	-11.4706
業儒	-11.4706
而後知	-11.4707
袒	-11.4708
腦	-11.4709
有功於	-11.4709
晏然	-11.471
落木	-11.4711
體用	-11.4712
永永	-11.4713
帝鄉	-11.4713
之義也	-11.4714
然後能	-11.4715
休息	-11.4716
本朝	-11.4719
蕭散	-11.4719
白水	-11.4721
無一人	-11.4724
者也今	-11.4724
名公	-11.4724
尺素	-11.4726
而近	-11.4726
從者	-11.4727
以謂	-11.4727
所繫	-11.4729
其衆	-11.4731
口占	-11.4732
衆所	-11.4732
聞命	-11.4735
篤志	-11.4739
大作	-11.4739
放歌	-11.4741
秋毫	-11.4742
池塘	-11.4743
安用	-11.4744
兼之	-11.4746
過矣	-11.4746
尤重	-11.4749
何曽	-11.4749
清朝	-11.4749
載之	-11.475
或以為	-11.475
生成	-11.4751
驊騮	-11.4752
故云	-11.4754
之濵	-11.4755
煒	-11.4756
某年月日	-11.4756
當宁	-11.4757
惴惴	-11.4759
泫然	-11.4759
我今	-11.476
民皆	-11.476
紀之	-11.476
者莫如	-11.476
者必有	-11.4761
知之矣	-11.4761
貴顯	-11.4761
重建	-11.4763
草萊	-11.4763
累日	-11.4764
手教	-11.4764
其來	-11.4765
甲乙	-11.4766
錦袍	-11.4767
庭闈	-11.477
盛而	-11.4771
思欲	-11.4773
且夫	-11.4774
其所得	-11.4774
次日	-11.4775
能得	-11.4775
未可以	-11.4777
將帥	-11.4778
新民	-11.4779
十有八	-11.4781
犬馬	-11.4781
勿以	-11.4782
綿綿	-11.4782
長吟	-11.4783
諸父	-11.4783
亦甚	-11.4783
字仲	-11.4784
僥倖	-11.4786
以忠	-11.4789
者無不	-11.4789
不可測	-11.479
自取	-11.479
生于	-11.479
有警	-11.4792
的人	-11.4792
天柱	-11.4792
鏜	-11.4793
言論	-11.4793
上虞	-11.4794
春三月	-11.4794
闐	-11.4796
諭之	-11.4797
翠華	-11.48
行實	-11.4805
塹	-11.4805
康寧	-11.4807
有素	-11.4809
而後有	-11.481
州郡	-11.4812
豈謂	-11.4813
闕里	-11.4814
起舞	-11.4814
仲昭	-11.4816
君子所	-11.4816
也某	-11.4819
受教	-11.4821
莫問	-11.4821
嗟我	-11.4822
上客	-11.4822
斬首	-11.4823
剏	-11.4823
混一	-11.4824
蝟	-11.4827
焰	-11.4828
湘水	-11.4828
我輩	-11.4828
蹲	-11.4828
如雪	-11.4829
以屬	-11.483
者謂之	-11.4831
㳟	-11.4831
爛漫	-11.4833
之譽	-11.4834
山先生	-11.4835
薜荔	-11.4836
七欽定四庫全書	-11.4837
聊復	-11.4837
皆知	-11.4839
漁陽	-11.4839
累官	-11.4842
七言律	-11.4843
盛德	-11.4846
吾心之	-11.4848
樂於	-11.4849
求余	-11.4849
奉天	-11.485
廢而	-11.485
葬於	-11.4851
且復	-11.4851
寒泉	-11.4851
疾作	-11.4852
貴富	-11.4852
我昔	-11.4853
此夜	-11.4856
長林	-11.4856
武侯	-11.4858
羽毛	-11.4859
不令	-11.486
才力	-11.486
知言	-11.4861
其容	-11.4863
墓志銘	-11.4863
曲折	-11.4864
異常	-11.4864
豈但	-11.4865
舁	-11.4866
吏事	-11.4866
之英	-11.4867
而獲	-11.4867
天然	-11.4868
出扵	-11.4868
食飲	-11.4868
崕	-11.4868
寛厚	-11.4869
守道	-11.4869
太華	-11.487
仰惟	-11.4871
躍馬	-11.4872
州知州	-11.4873
越人	-11.4873
意欲	-11.4876
黯然	-11.4878
入國朝	-11.4878
今宵	-11.4879
雷電	-11.4879
稍有	-11.4879
繼室	-11.4882
仙翁	-11.4882
從其	-11.4882
所自出	-11.4883
弔古	-11.4885
勝之	-11.4889
差官	-11.4889
親見	-11.4892
享其	-11.4894
矣然而	-11.4896
丹丘	-11.4897
闌干	-11.4898
者爲	-11.4898
發兵	-11.49
聲利	-11.49
其内	-11.4901
芳樹	-11.4901
屛	-11.4903
撻	-11.4904
崆峒	-11.4904
瀦	-11.4904
秉彛	-11.4905
其身而	-11.4906
有取於	-11.4908
風土	-11.4909
秋雲	-11.4909
孝養	-11.4909
媛	-11.491
百氏	-11.491
大功	-11.491
沈沈	-11.491
侶	-11.4911
未獲	-11.4913
黄雲	-11.4914
按察司僉事	-11.4916
浦陽	-11.4916
嚴氏	-11.4917
呉氏	-11.4917
喟然	-11.4918
古寺	-11.4918
禄位	-11.4919
君親	-11.4922
茍有	-11.4927
但願	-11.4928
余所	-11.4928
恭惟	-11.4929
防守	-11.493
萬死	-11.4933
功利	-11.4933
世澤	-11.4933
拜命	-11.4933
東來	-11.4934
賢士	-11.4934
折節	-11.4935
安仁	-11.4936
今後	-11.4938
無二	-11.4939
曰昔	-11.4939
禇	-11.494
遂至	-11.4941
途中	-11.4941
一無所	-11.4942
蠢	-11.4942
同氣	-11.4943
璿	-11.4943
戒之	-11.4943
揜	-11.4943
翰林編修	-11.4944
相聚	-11.4945
尚矣	-11.4945
澹泊	-11.4945
無欲	-11.4946
應制	-11.4946
嵯峨	-11.4947
非偶然	-11.4947
廟廊	-11.4947
有今日	-11.4947
立教	-11.4949
酒食	-11.4949
其辭曰	-11.495
在目	-11.4953
止此	-11.4953
凡十	-11.4954
幙	-11.4957
其末	-11.4958
賦役	-11.4959
贈君	-11.4961
乃大	-11.4962
其狀	-11.4963
鐘聲	-11.4963
髙情	-11.4964
從父	-11.4964
特進	-11.4964
光照	-11.4965
不隨	-11.4965
里閭	-11.4966
之威	-11.4967
王國	-11.4968
輔導	-11.497
總制	-11.497
澄江	-11.4971
陽城	-11.4972
論事	-11.4973
斯文之	-11.4973
熄	-11.4974
空餘	-11.4975
切磋	-11.4976
関	-11.4978
公署	-11.4978
瀟灑	-11.4978
盡其道	-11.4979
濟時	-11.4979
奉行	-11.498
掄	-11.498
摩挲	-11.4981
㽞	-11.4981
髙年	-11.4984
風憲	-11.4985
行在	-11.4986
及乎	-11.4987
燿	-11.4988
僅存	-11.4989
郡中	-11.499
講論	-11.4992
嗜學	-11.4993
考妣	-11.4994
浦江	-11.4995
正人	-11.4995
本原	-11.4996
常有	-11.4996
家大人	-11.4998
七言律詩	-11.5
指揮使	-11.5001
人莫不	-11.5002
里有	-11.5006
刑獄	-11.5006
王室	-11.5006
華夷	-11.5007
不曾	-11.5009
佳節	-11.501
切於	-11.501
令君	-11.501
孫男二	-11.5011
涓	-11.5012
禦之	-11.5013
公議	-11.5013
歸養	-11.5014
屹然	-11.5014
陌上	-11.5014
樓上	-11.5014
以天下	-11.5015
知識	-11.5015
貞觀	-11.5015
彪	-11.5015
蟠桃	-11.5015
而西	-11.5016
掀	-11.5016
豈易	-11.5016
壌	-11.5018
安居	-11.5018
腔	-11.5019
犂	-11.5019
請余	-11.502
民瘼	-11.5021
後昆	-11.5021
之辰	-11.5022
造詣	-11.5024
時用	-11.5024
早世	-11.5025
有德	-11.5025
且謂	-11.5026
拾遺	-11.5027
不亂	-11.5028
詩有	-11.5032
過我	-11.5032
鳥啼	-11.5034
加於	-11.5034
為銘	-11.5035
于上	-11.5035
矣何	-11.5036
石泉	-11.5038
田州	-11.5038
執手	-11.5038
及是	-11.504
時來	-11.5041
輔臣	-11.5042
教者	-11.5043
何忍	-11.5044
卜築	-11.5045
腆	-11.5045
歸休	-11.5046
語云	-11.5047
甚於	-11.5048
聽其	-11.5048
之夀	-11.5048
且為	-11.5049
人猶	-11.505
論功	-11.5051
終老	-11.5051
碧玉	-11.5052
侍臣	-11.5052
僕射	-11.5054
璟	-11.5055
釋然	-11.5055
日下	-11.5056
孝廉	-11.5057
䧏	-11.5058
精微	-11.5059
顧瞻	-11.5059
自失	-11.5059
剝	-11.5059
届	-11.506
駝	-11.5061
焉知	-11.5061
詞翰	-11.5062
題竹	-11.5062
鳥雀	-11.5062
澂	-11.5062
大尹	-11.5063
蓬瀛	-11.5063
允明	-11.5065
流芳	-11.5065
感時	-11.5066
宦情	-11.5067
古今之	-11.5069
海東	-11.5069
吳人	-11.5071
吾欲	-11.5072
天下之至	-11.5075
沾衣	-11.5075
春正月	-11.5075
漢武	-11.5076
言乎	-11.5077
人不知	-11.5078
扁曰	-11.508
弱水	-11.508
殘雪	-11.5081
近於	-11.5081
而後可以	-11.5081
醫者	-11.5081
三間	-11.5083
事聞	-11.5084
雖云	-11.5084
稱之曰	-11.5088
端坐	-11.5089
事母	-11.5089
凡百	-11.5089
一變	-11.509
一洗	-11.509
宫殿	-11.509
永寧	-11.5092
地理	-11.5092
五嶺	-11.5096
顯榮	-11.5097
燔	-11.5097
松竹	-11.5097
嵗華	-11.5098
其所居	-11.5098
所向	-11.5099
籜	-11.5099
巗	-11.5101
鎔	-11.5101
為吾	-11.5105
轉移	-11.5105
士子	-11.5106
公雖	-11.5106
必盡	-11.5107
賢豪	-11.5109
乞身	-11.5111
日進	-11.5111
其主	-11.5112
清霜	-11.5112
扁其	-11.5114
大槩	-11.5117
之妻	-11.5119
相識	-11.5119
曲直	-11.5119
之過也	-11.5119
結交	-11.512
名族	-11.512
於今日	-11.512
亦且	-11.5121
春意	-11.5122
蘇之	-11.5122
油然	-11.5123
不亡	-11.5123
不義	-11.5125
花竹	-11.5126
論交	-11.5126
什一	-11.5127
風煙	-11.5127
從祀	-11.5128
矛	-11.5128
往復	-11.5129
第五	-11.513
也嘗	-11.513
名園	-11.5131
者也其	-11.5132
寺僧	-11.5133
此外	-11.5134
擠	-11.5134
爲此	-11.5134
咈	-11.5135
盖亦	-11.5135
霓裳	-11.5136
淆	-11.5136
宋公	-11.5136
韞	-11.5137
百丈	-11.5137
艸	-11.5137
綦	-11.5137
禁中	-11.5139
闗河	-11.5139
請為	-11.5139
却笑	-11.5139
與公同	-11.5139
裊裊	-11.514
臺諫	-11.514
翰苑	-11.514
府州縣	-11.514
城池	-11.5141
用前韻	-11.5142
紫翠	-11.5143
流於	-11.5143
春夏	-11.5146
易以	-11.5147
賢母	-11.5147
所難	-11.5148
莫言	-11.5148
方以	-11.5149
執鞭	-11.515
無方	-11.5157
大雨	-11.5157
可不謂	-11.5158
未應	-11.5159
雲外	-11.5159
至老	-11.5161
二王	-11.5164
云是	-11.5164
簒	-11.5165
所治	-11.5166
奉勅	-11.5166
俄而	-11.5167
北地	-11.5167
蔡氏	-11.517
鎰	-11.5171
鞫	-11.5171
姑息	-11.5171
八首	-11.5174
嫩	-11.5174
而可以	-11.5174
踴躍	-11.5174
事必	-11.5174
一石	-11.5174
讜	-11.5175
逸民	-11.5176
讙	-11.5176
騶虞	-11.5176
鎗	-11.5177
値	-11.5178
遺之	-11.5178
見于	-11.518
難以	-11.5182
不祥	-11.5184
荃	-11.5185
延陵	-11.5186
不越	-11.5188
彈琴	-11.519
年九月	-11.519
釣臺	-11.5193
名字	-11.5194
致治	-11.5194
未行	-11.5195
四字	-11.5195
器械	-11.5195
空自	-11.5196
邦國	-11.5197
實錄	-11.5197
筒	-11.5199
各賊	-11.52
若為	-11.5201
呉興	-11.5202
舟車	-11.5202
不省	-11.5202
而莫之	-11.5205
不得辭	-11.5206
追隨	-11.5206
鏊	-11.5206
而氣	-11.5207
于官	-11.5207
民無	-11.5208
方將	-11.5208
矣先生	-11.5209
至仁	-11.5209
傷哉	-11.5209
福州	-11.521
剗	-11.5211
一死	-11.5211
過半	-11.5211
花木	-11.5213
以法	-11.5213
卓犖	-11.5214
即死	-11.5214
豊	-11.5214
擊節	-11.5214
止之	-11.5215
七百	-11.5216
兕	-11.5216
所恃	-11.5216
帝曰	-11.5217
詞客	-11.5217
瀨	-11.5218
河朔	-11.5218
時出	-11.5218
悉以	-11.5221
江都	-11.5222
明良	-11.5222
颸	-11.5223
白苧	-11.5224
始自	-11.5225
寰宇	-11.5225
相向	-11.5226
分兵	-11.5227
凡四	-11.5228
家食	-11.5229
校官	-11.523
鈞天	-11.523
親王	-11.523
少谷	-11.5231
而推	-11.5234
瞻仰	-11.5235
吾知其	-11.5236
長即	-11.5236
已知	-11.5237
未休	-11.5237
征伐	-11.5241
其最	-11.5243
漢中	-11.5245
其非	-11.5246
請命	-11.5246
竣	-11.5246
當今	-11.5247
鼓吹	-11.5247
浙西	-11.5247
鏹	-11.5248
所寓	-11.5248
紀載	-11.525
有立	-11.525
太醫院	-11.5251
小景	-11.5252
迤邐	-11.5252
杉	-11.5252
海隅	-11.5253
篠	-11.5255
則固	-11.5257
大叅	-11.5257
揖讓	-11.5257
嫋嫋	-11.5257
之養	-11.5258
笄	-11.5258
睡起	-11.5259
有司之	-11.526
上章	-11.526
先年	-11.5261
飇	-11.5261
古城	-11.5261
直上	-11.5262
其施	-11.5263
虞廷	-11.5266
而觀之	-11.5267
者輙	-11.5268
勢利	-11.5269
希文	-11.5269
斐	-11.5271
趨朝	-11.5272
傳世	-11.5272
文定公	-11.5273
丈夫子	-11.5273
而受	-11.5275
真如	-11.5277
豁然	-11.5278
而知其	-11.528
顧問	-11.5284
臨之	-11.5285
搔	-11.5287
六龍	-11.5288
學古	-11.529
擇其	-11.529
取法	-11.529
同居	-11.5291
室家	-11.5293
嵬	-11.5293
宕	-11.5294
為二	-11.5295
上䟽	-11.5296
凄凄	-11.5298
絶壁	-11.5298
語之曰	-11.5299
雖老	-11.5299
擊壤	-11.53
票	-11.53
偉然	-11.53
楚江	-11.5301
吹簫	-11.5301
屬邑	-11.5302
索居	-11.5303
亶	-11.5304
曰君	-11.5304
八座	-11.5306
時與	-11.5307
鐘鼓	-11.5307
遲暮	-11.5308
留客	-11.5308
以薦	-11.5309
文林郎	-11.531
分手	-11.5311
小宗	-11.5312
之源	-11.5312
雲影	-11.5312
湯武	-11.5318
自勉	-11.5318
一醉	-11.5319
此所謂	-11.5319
亟稱	-11.532
積雨	-11.532
四體	-11.532
而傳之	-11.5321
不正	-11.5321
二巻	-11.5322
莘	-11.5323
政成	-11.5324
纂修	-11.5324
深思	-11.5326
人口	-11.5326
茂陵	-11.5331
生還	-11.5331
獨存	-11.5332
豈足	-11.5332
翠竹	-11.5333
主恩	-11.5333
其節	-11.5334
事變	-11.5335
漢書	-11.5335
楚楚	-11.5335
之㣲	-11.5337
者夫	-11.5338
而失	-11.5339
近而	-11.5339
其子弟	-11.5339
爍	-11.534
而未能	-11.5341
棟梁	-11.5342
雙飛	-11.5342
某年	-11.5344
足跡	-11.5344
得與	-11.5345
信其	-11.5345
特命	-11.5346
之險	-11.5347
山雲	-11.5347
劉向	-11.5349
管仲	-11.5349
入夜	-11.535
龜山	-11.535
千峯	-11.535
獨往	-11.5351
循環	-11.5351
然如	-11.5352
曰君子	-11.5353
一寸	-11.5354
民困	-11.5355
無力	-11.5356
九百	-11.5358
雙闕	-11.5359
多言	-11.5361
惟一	-11.5361
行已	-11.5361
道途	-11.5362
恐懼	-11.5366
所樂	-11.5366
秋光	-11.5368
紛然	-11.5368
少者	-11.5369
祺	-11.5371
遺事	-11.5371
新淦	-11.5372
纖	-11.5372
休休	-11.5372
睂	-11.5373
今以	-11.5373
篙	-11.5374
孩	-11.5375
淇	-11.5375
坼	-11.5375
勗	-11.5375
無形	-11.5376
諸篇	-11.5378
發身	-11.5378
詩篇	-11.5378
陸公	-11.5379
相待	-11.5379
至日	-11.5381
搨	-11.5382
任重	-11.5382
邸報	-11.5382
片片	-11.5382
士氣	-11.5383
髙枕	-11.5384
非但	-11.5385
宦遊	-11.5386
繼以	-11.5386
亦未嘗	-11.5386
美之	-11.5387
春寒	-11.5388
則謂	-11.539
月日	-11.539
無怨	-11.539
欲知	-11.5391
忘言	-11.5391
無期	-11.5391
住持	-11.5392
分宜	-11.5392
先覺	-11.5394
各以	-11.5394
變也	-11.5394
讀者	-11.5395
儒家	-11.5396
恩澤	-11.5399
心術	-11.54
長適	-11.5401
力辭	-11.5402
舟人	-11.5402
至尊	-11.5402
語言	-11.5403
朔風	-11.5404
家書	-11.5405
鳥道	-11.5406
者四	-11.5407
旬月	-11.5408
溧陽	-11.541
珉	-11.541
天語	-11.5411
以為榮	-11.5411
那可	-11.5411
大風	-11.5411
南軒	-11.5412
府知府	-11.5412
甚大	-11.5412
壩	-11.5412
瓚	-11.5413
所可	-11.5414
余故	-11.5414
嚼	-11.5414
雖非	-11.5415
又從而	-11.5416
棟宇	-11.5416
乞恩	-11.5416
相類	-11.5417
在是	-11.5417
敢言	-11.5417
僮僕	-11.5417
國是	-11.5417
缸	-11.5417
泚	-11.5418
綘	-11.5419
何氏	-11.542
綱目	-11.5421
守者	-11.5422
荷花	-11.5422
雲樹	-11.5422
遭遇	-11.5423
進賢	-11.5424
亭記	-11.5424
未終	-11.5424
已乎	-11.5425
傳記	-11.5425
擊之	-11.5426
北門	-11.5426
世次	-11.5426
南樓	-11.5427
徃事	-11.5427
以廣	-11.5429
還山	-11.543
何獨	-11.543
居多	-11.5431
勝地	-11.5431
遂與	-11.5431
將見	-11.5431
兹土	-11.5431
園中	-11.5431
餘年	-11.5432
安樂	-11.5433
下筆	-11.5433
辭章	-11.5436
自保	-11.5437
來朝	-11.5437
非公	-11.5439
五季	-11.5439
鶯花	-11.544
太廟	-11.544
某氏	-11.544
持之	-11.5443
買田	-11.5443
迎養	-11.5443
雩	-11.5444
山有	-11.5444
湘江	-11.5446
義利	-11.5448
申明	-11.5448
以寓	-11.5449
頡頏	-11.5449
黄塵	-11.5449
砭	-11.5449
神物	-11.5451
力疾	-11.5453
忘之	-11.5453
非義	-11.5453
茍不	-11.5454
嚮者	-11.5454
葢有	-11.5454
所建	-11.5455
矣臣	-11.5455
府通判	-11.5457
始末	-11.5457
三萬	-11.5459
授受	-11.546
字伯	-11.546
其七	-11.5461
青霄	-11.5461
天馬	-11.5462
善士	-11.5463
列國	-11.5464
吾丈	-11.5464
花鳥	-11.5465
銘其墓	-11.5468
自分	-11.5468
書者	-11.547
無計	-11.5471
人得	-11.5472
烟雲	-11.5472
令終	-11.5473
叔子	-11.5475
不致	-11.5475
變故	-11.5475
抑何	-11.5478
相近	-11.5478
永年	-11.5479
學有	-11.548
百僚	-11.548
弗可	-11.5481
有古	-11.5481
簡易	-11.5482
紅日	-11.5485
承家	-11.5486
獄中	-11.5486
空庭	-11.5486
而就	-11.5487
請書	-11.5488
序予	-11.5488
保其	-11.5489
戡	-11.5489
病者	-11.5489
叅軍	-11.549
始見	-11.549
麤	-11.549
畸	-11.5491
道經	-11.5492
達之	-11.5492
一隅	-11.5493
烏啼	-11.5493
人品	-11.5493
朝朝	-11.5494
忒	-11.5495
如許	-11.5495
善也	-11.5496
巻後	-11.5496
躊躇	-11.5496
勤苦	-11.5497
此之謂	-11.5498
其墓	-11.5498
身為	-11.55
不知也	-11.55
自陳	-11.5502
誰不	-11.5502
請益	-11.5503
狀元	-11.5503
潯陽	-11.5506
仕也	-11.5507
亦各	-11.5507
元戎	-11.5509
我公	-11.5511
法令	-11.5512
凡事	-11.5513
哉若	-11.5513
卒時	-11.5515
廣寒	-11.5515
晶	-11.5515
章章	-11.5517
厚薄	-11.5518
照磨	-11.5518
呉越	-11.552
而不顧	-11.552
赤日	-11.5521
巨室	-11.5523
不易得	-11.5523
大禮	-11.5524
帝子	-11.5525
元祐	-11.5527
之施	-11.5531
最深	-11.5531
水邊	-11.5532
姒	-11.5533
尚幼	-11.5534
于中	-11.5534
邕	-11.5534
歸舟	-11.5535
中賀	-11.5535
不無	-11.5535
苓	-11.5535
元馭	-11.5536
機務	-11.5536
孫男一	-11.5536
洄	-11.5536
其制	-11.5537
言及	-11.5538
吠	-11.5539
台州	-11.554
霾	-11.5541
雖小	-11.5542
之稱	-11.5543
光榮	-11.5543
陋巷	-11.5544
義官	-11.5544
奉親	-11.5544
慘淡	-11.5545
人之情	-11.5545
謂予曰	-11.5546
也宜	-11.5546
莫知其	-11.5546
甚重	-11.5547
在吾	-11.5547
山月	-11.5548
按察司副使	-11.5549
神京	-11.555
不凡	-11.5551
是之謂	-11.5552
神氣	-11.5552
必為	-11.5552
不計	-11.5555
四十餘年	-11.5556
致祭	-11.5556
意思	-11.5558
念其	-11.5558
謝氏	-11.5558
之志也	-11.5558
改過	-11.5559
長淮	-11.5564
罷歸	-11.5564
河梁	-11.5566
大丈夫	-11.5566
兩山	-11.5567
諺	-11.5569
一徑	-11.5569
後事	-11.557
其殆	-11.5571
憸	-11.5573
自重	-11.5574
者實	-11.5574
惻怛	-11.5574
蒼頭	-11.5575
紅葉	-11.5576
天真	-11.5576
慳	-11.5577
逺山	-11.5577
溝壑	-11.5577
承事郎	-11.5577
巻五	-11.5578
■	-11.5578
䜛	-11.5579
潁川	-11.5579
芍藥	-11.5579
斁	-11.5581
廐	-11.5581
所係	-11.5583
為臣	-11.5583
以繼	-11.5585
講明	-11.5587
寥落	-11.5587
不收	-11.5588
葢其	-11.5589
政治	-11.559
猶記	-11.559
巫山	-11.559
烝	-11.5591
草廬	-11.5593
不與焉	-11.5595
僚屬	-11.5595
公謂	-11.5595
倫理	-11.5596
有時而	-11.5596
如其官	-11.5597
使天下	-11.5597
勲名	-11.5598
天竺	-11.5598
分韻得	-11.5599
到臣	-11.56
補之	-11.56
相同	-11.5601
興廢	-11.5603
暮年	-11.5603
忘歸	-11.5605
春二月	-11.5605
民安	-11.5607
秦王	-11.561
益盛	-11.561
其勞	-11.561
祖塋	-11.561
却是	-11.5611
府推官	-11.5611
彎	-11.5613
何者	-11.5613
字畫	-11.5614
宋氏	-11.5615
而巳矣	-11.5616
榮禄大夫	-11.5617
鹿鳴	-11.5617
詒	-11.5618
封建	-11.5619
使知	-11.562
如此而	-11.562
於予予	-11.5623
否乎	-11.5624
贛	-11.5625
五載	-11.5626
月餘	-11.5626
茅茨	-11.5628
為首	-11.5628
朱子之	-11.5632
婚姻	-11.5632
公主	-11.5634
有本	-11.5635
竊以為	-11.5638
必由	-11.5639
下令	-11.5639
文書	-11.564
自解	-11.5642
規制	-11.5643
好禮	-11.5643
苕	-11.5643
河北	-11.5645
扵人	-11.5645
斷腸	-11.5645
禋	-11.5646
愛此	-11.5648
永久	-11.5652
餙	-11.5653
相問	-11.5653
積累	-11.5653
呉公	-11.5653
㨿	-11.5654
套	-11.5654
雖曰	-11.5654
横行	-11.5655
跌	-11.5656
之態	-11.5656
侍中	-11.5657
怛	-11.5657
㓙	-11.5658
瀧	-11.5658
生氣	-11.5659
必然	-11.5659
颯颯	-11.5659
三老	-11.566
坪	-11.5661
開口	-11.5661
一國	-11.5663
始為	-11.5664
吉士	-11.5664
廣州	-11.5664
呉中	-11.5666
知本	-11.5666
者豈非	-11.5666
五分	-11.5667
早晚	-11.5667
右丞	-11.5667
宋玉	-11.5671
華髪	-11.5672
有所得	-11.5672
冬日	-11.5672
告於	-11.5673
紀事	-11.5674
濠梁	-11.5675
不免於	-11.5678
思有以	-11.568
建寧	-11.5681
曰仁	-11.5682
不虚	-11.5682
不遷	-11.5682
於京師	-11.5683
不外	-11.5684
天下有	-11.5684
愈益	-11.5685
不敢當	-11.5685
但有	-11.5687
隨意	-11.5689
吳君	-11.5689
之祀	-11.5692
事舅姑	-11.5693
遺言	-11.5694
南郊	-11.5695
氏世居	-11.5695
史臣	-11.5695
廬墓	-11.5696
則不然	-11.5696
畫船	-11.5697
禮部侍郎	-11.5698
蓴	-11.5698
艦	-11.5698
闤闠	-11.5698
荻	-11.5699
馬首	-11.5699
攖	-11.57
霈	-11.57
衘	-11.57
鶉	-11.57
能忘	-11.5701
興來	-11.5701
延年	-11.5702
好生	-11.5702
巡按御史	-11.5703
萬丈	-11.5705
伊洛	-11.5705
不昧	-11.5705
而發	-11.5707
不俟	-11.5707
忠節	-11.5708
為己	-11.5709
定省	-11.571
為盛	-11.5711
一種	-11.5712
種竹	-11.5718
其何以	-11.5718
安足	-11.5719
自給	-11.5721
之華	-11.5721
儒者之	-11.5724
五侯	-11.5724
君命	-11.5728
也昔者	-11.5728
不生	-11.573
孟兼	-11.5731
曽孫男	-11.5733
忘憂	-11.5734
為郎	-11.5735
史館	-11.5735
人來	-11.5736
不同而	-11.5738
珊	-11.5739
窄	-11.5739
中庭	-11.574
尠	-11.574
河之	-11.574
丰	-11.574
繩繩	-11.5741
有方	-11.5741
為仁	-11.5742
闖	-11.5744
沙漠	-11.5745
雖以	-11.5746
指授	-11.5746
胷中	-11.5747
致意	-11.5748
長途	-11.5748
就道	-11.5749
同然	-11.575
率其	-11.5751
且將	-11.5751
復生	-11.5752
所養	-11.5753
不替	-11.5754
義烏	-11.5755
假借	-11.5756
十餘里	-11.5758
行草	-11.576
辨之	-11.5761
所據	-11.5762
非耶	-11.5763
頻年	-11.5765
本縣	-11.5765
二品	-11.5765
存問	-11.5769
咸謂	-11.5771
之䇿	-11.5773
世界	-11.5774
呼酒	-11.5774
欲往	-11.5774
義方	-11.5775
哉盖	-11.5776
建學	-11.5777
青草	-11.5778
引年	-11.5779
黄石	-11.5779
厝	-11.578
篁墩	-11.578
廂	-11.5781
料理	-11.5781
圻	-11.5781
適意	-11.5781
滇南	-11.5782
吾廬	-11.5783
討之	-11.5784
者也然	-11.5784
開封	-11.5784
㓛	-11.5785
大軍	-11.5787
釋褐	-11.5787
求予	-11.5787
天壤	-11.5787
苜蓿	-11.5787
醑	-11.5787
平易	-11.5788
兹行	-11.5788
名在	-11.5788
論心	-11.5789
交相	-11.579
用此	-11.579
不得與	-11.5791
皆稱	-11.5791
其半	-11.5795
七夕	-11.5797
世襲	-11.5797
不泯	-11.5798
如雨	-11.5798
無賴	-11.5799
給之	-11.5801
顧氏	-11.5803
其㫖	-11.5803
况是	-11.5803
焉於是	-11.5804
山青	-11.5805
時雍	-11.5805
江州	-11.5806
造就	-11.5807
之明年	-11.5808
半生	-11.5811
可以無	-11.5813
子陵	-11.5814
鮮不	-11.5815
南行	-11.5815
三事	-11.5817
畿甸	-11.5817
之祥	-11.5818
㫤	-11.5819
鷓鴣	-11.5819
英宗	-11.582
汪公	-11.5822
閧	-11.5822
踰月	-11.5823
碧海	-11.5824
脇	-11.5824
大郡	-11.5825
鑣	-11.5825
奩	-11.5825
遭時	-11.5825
故特	-11.5825
聾	-11.5828
杳杳	-11.5829
舖	-11.5829
耶然	-11.5829
未報	-11.583
千家	-11.5832
於已	-11.5835
銀漢	-11.5835
宋史	-11.5838
大典	-11.5839
八景	-11.5839
之意而	-11.584
深知	-11.584
庭中	-11.5841
其將	-11.5843
雲夢	-11.5844
耳夫	-11.5844
世俗之	-11.5844
萬姓	-11.5846
某官	-11.5847
異代	-11.5848
瞳	-11.5848
臣竊	-11.5849
早晩	-11.5849
門戸	-11.585
難治	-11.585
幽蘭	-11.585
直欲	-11.5851
分得	-11.5852
有約	-11.5854
能言之	-11.5855
估	-11.5855
而去之	-11.5856
五福	-11.586
示以	-11.586
所鍾	-11.586
燕臺	-11.586
祜	-11.5863
為天子	-11.5863
﨑嶇	-11.5866
縟	-11.5866
銕	-11.5867
蟹	-11.5867
青絲	-11.5867
在翰林	-11.5868
憂之	-11.5868
連山	-11.5869
詞臣	-11.5869
生物	-11.5869
飜	-11.587
藉以	-11.587
憮然	-11.5871
足稱	-11.5871
懐人	-11.5871
蔓草	-11.5873
津津	-11.5874
陳先生	-11.5874
江邊	-11.5877
行雲	-11.5877
面目	-11.5878
久逺	-11.5879
期於	-11.5879
晨昏	-11.588
第進士	-11.5881
時政	-11.5883
河西	-11.5885
夏五月	-11.5886
老我	-11.5886
詔下	-11.5887
百世之下	-11.5888
和尚	-11.5888
總戎	-11.589
其宗	-11.5892
鏘	-11.5893
天之生	-11.5895
無所容	-11.5896
如意	-11.5896
仕途	-11.5897
碧樹	-11.5897
處也	-11.5898
二十六	-11.5899
价	-11.59
以厚	-11.5901
國人	-11.5902
盛哉	-11.5902
不忝	-11.5902
獠	-11.5905
痼	-11.5905
本源	-11.5905
毳	-11.5907
仁義之	-11.5907
有禮	-11.5908
乙夘	-11.5908
仍舊	-11.5909
髙秋	-11.591
之形	-11.591
獨得	-11.5911
東風吹	-11.5912
莫知所	-11.5912
忠誠	-11.5912
在内	-11.5912
其所以為	-11.5914
千百年	-11.5914
東昌	-11.5914
藹藹	-11.5914
方岳	-11.5915
元瑞	-11.5915
大理寺	-11.5915
羽林	-11.5916
驛路	-11.5916
庶民	-11.5919
而喜	-11.592
好施	-11.592
序余	-11.5922
種樹	-11.5923
舎人	-11.5923
固不可	-11.5923
雲錦	-11.5925
執經	-11.5925
靈臺	-11.5925
本職	-11.5926
致力	-11.5926
抑之	-11.5927
里甲	-11.5927
敢望	-11.5928
即使	-11.5928
㸔得	-11.5929
貧不能	-11.5929
新月	-11.593
二十九	-11.593
白簡	-11.593
嗚	-11.593
老臣	-11.5933
不經	-11.5933
羲和	-11.5934
閒情	-11.5935
俯視	-11.5935
穆穆	-11.5935
其一也	-11.5936
自奉	-11.5936
世卿	-11.5937
曛	-11.594
深厚	-11.594
重慶	-11.5941
哉其	-11.5941
澌	-11.5942
銘之	-11.5943
邑諸生	-11.5943
人在	-11.5944
在廷	-11.5944
碧草	-11.5944
耘	-11.5944
不苟	-11.5945
訃聞	-11.5945
臚	-11.5946
二絶	-11.5946
陶令	-11.5947
竊有	-11.5949
復出	-11.5949
扼腕	-11.595
㷀㷀	-11.595
盞	-11.595
芭蕉	-11.5952
以孝	-11.5952
敬愛	-11.5953
事父母	-11.5953
禮成	-11.5955
政令	-11.5957
常情	-11.5957
飄風	-11.5958
于民	-11.5959
不舉	-11.596
野鶴	-11.5961
有疑	-11.5961
矣顧	-11.5962
可疑	-11.5963
制之	-11.5963
論詩	-11.5963
庭下	-11.5964
孰若	-11.5964
何况	-11.5965
未嘗以	-11.5965
是詩	-11.5967
三者	-11.5967
善夫	-11.5967
莊周	-11.5968
端重	-11.5969
歳時	-11.5969
某山之原	-11.597
來時	-11.5972
馬氏	-11.5974
墓誌	-11.5975
乃獨	-11.5975
所業	-11.5975
暝色	-11.5976
莒	-11.5977
及公	-11.5977
生前	-11.5978
不修	-11.5979
出身	-11.598
東城	-11.5981
江村	-11.5981
酒醒	-11.5981
宣慰	-11.5981
昆季	-11.5982
酒家	-11.5984
以為然	-11.5984
燾	-11.5984
何患	-11.5985
名勝	-11.5985
而與之	-11.5986
麗澤	-11.5987
寄書	-11.5987
者不知	-11.5987
示予	-11.5988
秋山	-11.5989
遺經	-11.5989
默	-11.5989
莫教	-11.599
顥	-11.5991
樽酒	-11.5991
持身	-11.5992
泐	-11.5992
醺	-11.5992
嚚	-11.5992
山麓	-11.5994
庶其	-11.5995
户部主事	-11.5995
筯	-11.5998
曰先生	-11.5999
紿	-11.5999
賢於	-11.6
世以	-11.6001
田間	-11.6006
文忠公	-11.6006
不能得	-11.6006
便欲	-11.6008
誰其	-11.6009
九人	-11.6009
永樂初	-11.6009
駕言	-11.6011
喜得	-11.6012
真有	-11.6014
歲寒	-11.6015
顧謂	-11.6016
内臣	-11.6018
一帶	-11.6021
烏得	-11.6021
嵗久	-11.6022
彩筆	-11.6023
副總兵	-11.6024
乞致仕	-11.6025
此誠	-11.6026
城隍	-11.6027
南豐	-11.6029
櫓	-11.6029
笑談	-11.6029
未巳	-11.6029
水落	-11.6033
忽有	-11.6033
三章	-11.6033
内官	-11.6034
緜	-11.6035
爇	-11.6035
春花	-11.6036
内則	-11.6036
多在	-11.6036
非真	-11.6037
阡陌	-11.6037
有家	-11.6038
其誰	-11.6038
氣和	-11.6038
帝城	-11.6038
近侍	-11.6038
繙	-11.6038
勻	-11.6039
賦詩以	-11.604
若使	-11.604
良臣	-11.6041
其歸	-11.6041
之虞	-11.6042
門巷	-11.6042
雅頌	-11.6042
不拘	-11.6043
蘆花	-11.6044
興亡	-11.6045
忘年	-11.6045
蘭若	-11.6045
羣山	-11.6046
曲盡	-11.6046
之賊	-11.6046
人之道	-11.6047
其迹	-11.6047
有差	-11.6049
數世	-11.605
良醫	-11.605
蘇公	-11.6051
為貴	-11.6051
之於是	-11.6051
剛毅	-11.6051
謂予	-11.6052
於余	-11.6052
唯恐	-11.6053
撫字	-11.6053
書畫	-11.6053
誰當	-11.6054
道術	-11.6054
武備	-11.6055
蓋其	-11.6055
花飛	-11.6056
相成	-11.6056
之篤	-11.6056
憐之	-11.6056
相戒	-11.6061
心之所	-11.6062
中行	-11.6062
心志	-11.6064
之倫	-11.6064
月二十三日	-11.6064
天朝	-11.6068
異者	-11.6069
自當	-11.607
客子	-11.6071
菩薩	-11.6071
猛虎	-11.6072
永平	-11.6073
富人	-11.6074
而使之	-11.6074
沔	-11.6075
蝸	-11.6076
方且	-11.6077
謁余	-11.6077
𥙿	-11.6078
囬首	-11.6078
故君子	-11.6079
三百年	-11.608
潑	-11.6081
心性	-11.6082
竹間	-11.6082
黄鸝	-11.6082
故知	-11.6082
咸有	-11.6083
起坐	-11.6083
明哲	-11.6084
冠冕	-11.6084
古聖賢	-11.6085
真蹟	-11.6086
金匱	-11.6086
處士之	-11.6087
不敢辭	-11.6089
崇徳	-11.6089
都給事中	-11.609
勸之	-11.6091
司寇	-11.6093
應詔	-11.6094
綵衣	-11.6094
抵掌	-11.6095
在野	-11.6097
在山	-11.6097
呈稱	-11.6098
等閒	-11.6098
討賊	-11.6098
風裁	-11.6098
巖穴	-11.61
名也	-11.6102
過雨	-11.6102
仞	-11.6103
博雅	-11.6104
憑誰	-11.6105
勉强	-11.6105
有恩	-11.6106
又奚	-11.6107
嗚咽	-11.6108
推擇	-11.6109
常在	-11.6109
為報	-11.6109
邪正	-11.611
石為	-11.6111
不殺	-11.6112
江天	-11.6115
闋	-11.6116
望望	-11.6116
原是	-11.6116
亦不過	-11.6118
刁	-11.6119
木落	-11.6119
泌	-11.612
當其時	-11.612
冤	-11.612
時見	-11.612
徃来	-11.6121
瓦礫	-11.6121
而力	-11.6122
媺	-11.6123
偵	-11.6123
犧	-11.6123
惟應	-11.6124
於有司	-11.6124
師表	-11.6125
志行	-11.6125
離騷	-11.6127
猶以	-11.6128
礱	-11.6129
大水	-11.6131
到任	-11.6132
不懌	-11.6133
水清	-11.6134
有孫	-11.6134
麻姑	-11.6135
不貳	-11.6136
行臺	-11.6136
氷壺	-11.614
當事者	-11.6141
逺行	-11.6142
乘興	-11.6143
中國之	-11.6145
數嵗	-11.6146
之端	-11.6147
帝命	-11.6147
有不同	-11.6148
縣主簿	-11.6149
不敢言	-11.615
卒之日	-11.615
長河	-11.6151
籍籍	-11.6151
似有	-11.6151
年踰	-11.6152
於事	-11.6153
終天	-11.6153
其質	-11.6154
取道	-11.6156
感而	-11.6157
甘肅	-11.6157
紊	-11.6158
雨霽	-11.6159
易水	-11.6159
雪夜	-11.6159
宗子	-11.6159
大雪	-11.6159
涘	-11.616
鯨鯢	-11.616
仁也	-11.6161
顙	-11.6161
東萊	-11.6161
兖	-11.6162
酬酢	-11.6162
咏歌	-11.6162
屑屑	-11.6163
其躬	-11.6163
的意思	-11.6163
曝	-11.6164
出郭	-11.6164
耳若	-11.6165
詹事	-11.6165
纏	-11.6166
既無	-11.6166
虀	-11.6166
元末	-11.6167
佯	-11.6168
騏驥	-11.6168
子敬	-11.6168
懸知	-11.6169
遵照	-11.617
約而	-11.6172
哀辭	-11.6172
神之	-11.6172
必無	-11.6173
以致其	-11.6175
而得之	-11.6176
弓矢	-11.6177
之陽	-11.6177
漢儒	-11.618
若將	-11.6181
順徳	-11.6182
不曽	-11.6184
則天下	-11.6185
誰道	-11.6185
讀易	-11.6186
爼	-11.6188
豈若	-11.619
何居	-11.619
述作	-11.619
大禹	-11.6192
無似	-11.6194
右副都御史	-11.6196
天與	-11.6196
得乎	-11.6196
此正	-11.6196
八寨	-11.6198
晦翁	-11.6198
神道	-11.6199
左侍郎	-11.62
之繁	-11.62
為壽	-11.62
絲竹	-11.62
調度	-11.62
貞白	-11.6201
故凡	-11.6201
一員	-11.6202
人非	-11.6203
蓍	-11.6204
推而	-11.6206
竒絶	-11.6207
珩	-11.6208
桴	-11.6209
敦厚	-11.621
洊	-11.621
雒	-11.621
秣	-11.6211
無窮之	-11.6211
恩義	-11.6211
楚客	-11.6212
巉	-11.6212
無塵	-11.6213
父某	-11.6213
天降	-11.6215
但知	-11.6215
不顯	-11.6216
社學	-11.6216
綜理	-11.6217
夜分	-11.6221
自省	-11.6222
謹以	-11.6223
龍光	-11.6224
著于	-11.6226
克明	-11.6227
皆不仕	-11.6228
文苑	-11.6228
中土	-11.6228
不棄	-11.6228
六十年	-11.6229
帝京	-11.623
總兵官	-11.623
晨起	-11.6231
結廬	-11.6232
有感焉	-11.6232
王守仁	-11.6232
以和	-11.6235
篇章	-11.6236
故物	-11.6237
人共	-11.6238
微風	-11.6241
千頃	-11.6241
楊花	-11.6241
内顧	-11.6242
潞河	-11.6242
逺者	-11.6243
諸經	-11.6244
字字	-11.6246
古之道	-11.6246
鄉國	-11.6247
者顧	-11.625
撮	-11.625
夷猶	-11.625
孫公	-11.6252
琰	-11.6252
埜	-11.6252
徳音	-11.6253
文廟	-11.6253
之野	-11.6255
水深	-11.6257
文墨	-11.6257
至若	-11.6258
百世之	-11.6258
君子曰	-11.6259
長身	-11.6259
惘然	-11.6259
須㬰	-11.626
踪跡	-11.626
有益	-11.626
不職	-11.6261
還京	-11.6261
記曰	-11.6261
應是	-11.6261
汾陽	-11.6262
飛騰	-11.6263
也噫	-11.6264
殺身	-11.6264
同舟	-11.6264
志學	-11.6266
一貫	-11.6266
玉汝	-11.6268
兩漢	-11.6268
吟咏	-11.6268
箕子	-11.627
短歌	-11.627
偉哉	-11.6271
隠者	-11.6271
御製	-11.6272
芰荷	-11.6273
自樂	-11.6273
濂溪	-11.6274
影響	-11.6274
責成	-11.6275
禮儀	-11.6275
光隂	-11.6275
所志	-11.6275
今之世	-11.6276
天所	-11.6278
贈王	-11.6278
嗚呼公	-11.6279
浮名	-11.6279
洛書	-11.6282
經厯	-11.6283
經緯	-11.6283
第一人	-11.6283
烏能	-11.6284
蜀之	-11.6285
雖多	-11.6287
者之所	-11.6287
韓愈	-11.6288
重任	-11.629
亂離	-11.6292
山之麓	-11.6292
治人	-11.6292
素所	-11.6293
靈光	-11.6294
舉目	-11.6294
漠然	-11.6295
處分	-11.6295
旺	-11.6297
䧺	-11.6298
安國	-11.6298
引之	-11.6298
善繼	-11.6299
蟋蟀	-11.6302
全盛	-11.6302
熈熈	-11.6302
乎其間	-11.6303
十世	-11.6303
不殊	-11.6303
彷徨	-11.6305
山水之	-11.6307
神聖	-11.6308
遨遊	-11.6308
所指	-11.6308
於此而	-11.6309
一堂	-11.6309
底事	-11.631
為王	-11.631
乃欲	-11.6311
入仕	-11.6312
愛惜	-11.6313
竹帛	-11.6314
僅僅	-11.6315
奄忽	-11.6315
築城	-11.6316
知遇	-11.6317
成書	-11.6319
燈下	-11.6321
恐未	-11.6321
分巡	-11.6322
獅子	-11.6322
死則	-11.6322
左遷	-11.6323
余觀	-11.6325
龍潭	-11.6325
艱危	-11.6325
許公	-11.6325
公文	-11.6327
信義	-11.633
舊學	-11.6331
才能	-11.6335
戌	-11.6335
愧我	-11.6336
方畧	-11.6337
如禮	-11.6337
地勢	-11.6338
犒	-11.6338
系之	-11.6338
七言絶句	-11.6339
常存	-11.6341
崗	-11.6341
頭白	-11.6342
二兄	-11.6343
其邑	-11.6344
爲文	-11.6346
南唐	-11.6346
嗚呼此	-11.6346
吏胥	-11.6347
予奪	-11.6347
為書	-11.6347
嵗年	-11.6348
壁立	-11.6348
自治	-11.635
主者	-11.635
兵法	-11.6351
浮丘	-11.6354
恩命	-11.6354
潘氏	-11.6356
必待	-11.6359
女紅	-11.6359
與爾	-11.6362
新阡	-11.6364
焉曰	-11.6365
志意	-11.6366
幡	-11.6366
無勞	-11.6367
前人之	-11.6367
邵武	-11.6367
得賢	-11.6368
蕭君	-11.637
類此	-11.6372
厚者	-11.6372
居處	-11.6374
壯心	-11.6374
姑以	-11.6374
所未有	-11.6374
多才	-11.6375
樓前	-11.6375
靡靡	-11.6377
乃謂	-11.6378
公少	-11.6379
亦有所	-11.638
歐陽氏	-11.638
辛勤	-11.638
今而後	-11.6381
翰林庶吉士	-11.6382
考終	-11.6382
空翠	-11.6382
知愛	-11.6383
留心	-11.6383
愁絶	-11.6383
煽	-11.6384
葡萄	-11.6384
一行	-11.6385
消長	-11.6386
恤民	-11.6387
所以致	-11.6387
忭	-11.6388
去嵗	-11.6388
穗	-11.6389
晩年	-11.6391
三台	-11.6391
清芬	-11.6391
好名	-11.6392
天目	-11.6392
養民	-11.6392
遂得	-11.6393
乃止	-11.6393
誰敢	-11.6393
予心	-11.6394
隙地	-11.6396
伏望	-11.6399
朅來	-11.64
細故	-11.64
其愚	-11.64
兵民	-11.6402
惟恐其	-11.6402
惟先生	-11.6402
未就	-11.6403
禰	-11.6404
晨夕	-11.6404
嚴霜	-11.6405
歸矣	-11.6405
猶恐	-11.6405
再遷	-11.6405
永言	-11.6406
奉答	-11.6406
朝覲	-11.6406
白衣	-11.6408
不敢忘	-11.6409
從龍	-11.6409
而㑹	-11.641
已過	-11.641
猶然	-11.6411
終當	-11.6411
具慶	-11.6411
究心	-11.6412
山深	-11.6412
絃誦	-11.6412
召入	-11.6412
順天府	-11.6414
子路	-11.6415
於宋	-11.6416
列於	-11.6416
况有	-11.6416
梁公	-11.6416
聞風	-11.6418
楚王	-11.642
向誰	-11.6422
鄉校	-11.6423
千官	-11.6423
三欽定四庫全書	-11.6424
媮	-11.6427
蒋	-11.6427
誠能	-11.6427
正在	-11.6428
迯	-11.6429
珠璣	-11.643
宵旰	-11.643
好音	-11.6431
雜著	-11.6432
其後人	-11.6434
取友	-11.6435
前修	-11.6437
賜祭	-11.6437
伏願	-11.6437
不講	-11.6438
新年	-11.6438
不中	-11.6439
也由	-11.6439
難易	-11.644
解衣	-11.6441
此舉	-11.6441
環珮	-11.6441
籲	-11.6442
之色	-11.6443
以醫	-11.6444
談經	-11.6445
七十餘	-11.6445
殘月	-11.6445
亡弟	-11.6446
黄州	-11.6446
益重	-11.6447
節鉞	-11.645
經畧	-11.6452
南服	-11.6453
不覩	-11.6455
蕭索	-11.6455
與道	-11.6456
丹霞	-11.6457
之陋	-11.6458
所適	-11.6458
自放	-11.6459
覩其	-11.6459
一大	-11.646
郊祀	-11.646
邑大夫	-11.6461
飛雪	-11.6462
未全	-11.6462
宿草	-11.6463
圖治	-11.6463
之歎	-11.6463
烈烈	-11.6464
請于	-11.6466
不得志	-11.6468
司郎中	-11.6468
而書之	-11.6468
挟	-11.6469
躍然	-11.6469
職也	-11.647
齧	-11.647
再世	-11.6471
孝子之	-11.6471
大王	-11.6471
士類	-11.6472
流年	-11.6472
政府	-11.6473
鯤	-11.6475
客愁	-11.6476
驍	-11.6477
彀	-11.6477
柵	-11.6478
弗得	-11.6478
𠞰	-11.6478
仲蔚	-11.6479
而趨	-11.6482
百千	-11.6482
謹按	-11.6484
之存	-11.6485
道在	-11.6486
不能知	-11.6486
豈復	-11.6487
用薦	-11.6488
諸兄	-11.6489
詩韻	-11.6489
崇禎	-11.6489
益堅	-11.6491
無路	-11.6492
叩頭	-11.6492
諸暨	-11.6493
幾回	-11.6494
其尚	-11.6494
新婦	-11.6494
全體	-11.6495
瓊瑶	-11.6495
于學	-11.6496
黄菊	-11.6497
會稽	-11.6497
而返	-11.6499
友生	-11.6499
無失	-11.6501
道里	-11.6504
歐陽子	-11.6505
所推	-11.6506
年老	-11.6509
大司空	-11.651
其八	-11.6511
良友	-11.6511
於庭	-11.6511
之罪也	-11.6512
其機	-11.6513
設官	-11.6513
是書	-11.6514
忠愍	-11.6515
樹杪	-11.6515
櫝	-11.6516
荼毒	-11.6516
入于	-11.6517
安其	-11.6518
風急	-11.6519
士論	-11.652
送周	-11.652
濁醪	-11.6521
明聖	-11.6522
渟	-11.6523
人性	-11.6524
校尉	-11.6527
者有之	-11.6528
廷議	-11.6528
鐙	-11.6529
海月	-11.653
這等	-11.653
南湖	-11.6531
庻㡬	-11.6531
我我	-11.6532
兩年	-11.6532
秋九月	-11.6532
遘疾	-11.6532
以勤	-11.6533
忠貞	-11.6533
洗心	-11.6533
良勝	-11.6534
遂有	-11.6534
曰朕	-11.6536
披圖	-11.6536
不可言	-11.6536
諸大夫	-11.6537
直以	-11.6538
蘇子	-11.654
所當為	-11.6541
百神	-11.6543
一飯	-11.6544
皆足以	-11.6545
燁	-11.6547
尅	-11.6547
私意	-11.6547
以紀	-11.6549
又恐	-11.655
第四	-11.6553
傳誦	-11.6554
所共	-11.6554
玉京	-11.6554
不期	-11.6555
止是	-11.6557
繾綣	-11.6559
温州	-11.6559
玉帶	-11.6561
一言之	-11.6563
御極	-11.6564
賢王	-11.6564
恩榮	-11.6564
所造	-11.6565
克勤	-11.6565
頎	-11.6565
老親	-11.6567
仲舒	-11.6567
烟樹	-11.6568
東去	-11.657
謂余	-11.657
青衿	-11.6571
政績	-11.6572
者邪	-11.6573
早春	-11.6574
仁愛	-11.6574
之所宜	-11.6575
城上	-11.6575
八分	-11.6575
筆札	-11.6576
伊誰	-11.6576
望日	-11.6577
藥餌	-11.6577
實用	-11.6578
浙之	-11.6579
於四方	-11.6579
長幼	-11.658
憂時	-11.658
田宅	-11.6582
而動	-11.6582
天邊	-11.6584
之所及	-11.6585
雍雍	-11.6585
固在	-11.6587
喜見	-11.6589
泛舟	-11.6589
化作	-11.659
賢人君子	-11.6592
美哉	-11.6592
慎獨	-11.6593
已非	-11.6593
北郭	-11.6598
子相	-11.6598
湯湯	-11.6599
和而	-11.6599
卓卓	-11.6601
不忠	-11.6601
蕡	-11.6602
洞口	-11.6602
公遂	-11.6603
楊先生	-11.6604
淬	-11.6605
若斯	-11.6605
蛻	-11.6606
衡山	-11.6606
上世	-11.6606
陡	-11.6607
仕至	-11.6607
韵	-11.6607
憶昨	-11.6609
巍然	-11.6609
朂之	-11.6609
有靈	-11.6609
猗歟	-11.6609
鯁	-11.6611
周孔	-11.6612
壚	-11.6612
拂拭	-11.6612
無盡	-11.6612
頡	-11.6612
民風	-11.6614
一適	-11.6614
沍	-11.6614
大夫之	-11.6615
焉盖	-11.6616
逆瑾	-11.6617
俛仰	-11.6617
每見	-11.6618
百辟	-11.6618
天河	-11.6618
二府	-11.6619
藝文	-11.6619
軍國	-11.6619
客裏	-11.662
金碧	-11.6621
福禄	-11.6621
不欺	-11.6622
累朝	-11.6623
穆公	-11.6623
閩之	-11.6623
文貞	-11.6624
清香	-11.6624
撫州	-11.6625
自明	-11.6626
濛	-11.6626
雙鬢	-11.6627
致此	-11.6629
厚徳	-11.6629
以還	-11.6631
列郡	-11.6632
嗣子	-11.6632
玉樓	-11.6633
章奏	-11.6635
未果	-11.6636
許君	-11.6636
凡若干	-11.6637
韋布	-11.6637
所望於	-11.6638
元之	-11.6639
臣父	-11.664
乞銘	-11.6641
竣事	-11.6642
自棄	-11.6642
左傳	-11.6642
難言	-11.6642
之地而	-11.6643
東下	-11.6643
徭役	-11.6643
則凡	-11.6644
十五日	-11.6645
不次	-11.6645
繼娶	-11.6646
之祭	-11.6647
秋冬	-11.6648
區畫	-11.6649
已覺	-11.6649
守巡	-11.665
人固	-11.6651
噉	-11.6652
犁	-11.6652
明詔	-11.6653
隸	-11.6653
乞骸	-11.6655
才華	-11.6655
白骨	-11.6655
紺	-11.6656
長官	-11.6656
霓	-11.6656
菁	-11.6657
筝	-11.6657
盥	-11.6658
登壇	-11.6658
無厭	-11.6658
矗	-11.6659
曽不	-11.666
龍章	-11.666
少府	-11.666
此夕	-11.666
窅	-11.6661
枕上	-11.6661
為人所	-11.6662
奮然	-11.6662
樹立	-11.6662
其人而	-11.6663
隱君	-11.6663
上舍	-11.6663
云胡	-11.6664
凌風	-11.6666
臨别	-11.6667
其效	-11.6668
恭敬	-11.6668
而思之	-11.6669
二老	-11.6671
臺上	-11.6671
戊	-11.6671
詎能	-11.6672
愛重	-11.6672
贈行	-11.6673
影落	-11.6673
再至	-11.6674
而嘆曰	-11.6675
逢迎	-11.6675
流通	-11.6675
不可一日	-11.6677
玉泉	-11.6678
國體	-11.6678
亦與	-11.6679
亡矣	-11.6681
而病	-11.6681
太𤣥	-11.6682
金剛	-11.6684
而上之	-11.6685
農夫	-11.6686
矣遂	-11.6687
則不可	-11.6688
先生嘗	-11.6688
受學	-11.6688
召見	-11.6689
不可得也	-11.6689
不開	-11.6689
士有	-11.6689
饑寒	-11.669
其所學	-11.6691
當是	-11.6691
事狀	-11.6692
班師	-11.6693
内有	-11.6693
恭儉	-11.6693
爵位	-11.6694
獄訟	-11.6694
退之	-11.6696
祲	-11.6697
纉	-11.6698
鴻濛	-11.6699
來謁	-11.67
資善大夫	-11.6701
此樂	-11.6701
晃	-11.6703
拒之	-11.6703
劃	-11.6704
薙	-11.6704
世宗	-11.6706
以代	-11.6707
益進	-11.6707
精明	-11.6708
目擊	-11.6708
數千言	-11.6709
畏之	-11.6711
則所以	-11.6713
折衷	-11.6713
十有七	-11.6714
縣事	-11.6716
景行	-11.6716
未有能	-11.6717
府同知	-11.6718
老樹	-11.672
水石	-11.6721
好徳	-11.6721
室中	-11.6721
職掌	-11.6722
沈君	-11.6724
風木	-11.6724
定奪	-11.6725
墓碑	-11.6728
必使	-11.6728
宋季	-11.6729
濯足	-11.6729
湛然	-11.6731
云送	-11.6731
予聞之	-11.6731
野色	-11.6731
以功	-11.6731
舊事	-11.6732
自己	-11.6735
萬騎	-11.6735
亭上	-11.6736
刑部郎中	-11.6736
六代	-11.6738
吳郡	-11.6741
文雅	-11.6741
嘿	-11.6742
悄	-11.6743
相將	-11.6744
折衝	-11.6744
陳迹	-11.6745
懟	-11.6746
封章	-11.6746
已甚	-11.6747
誅之	-11.6747
好山	-11.6749
之廣	-11.6749
仲氏	-11.6749
週	-11.675
低昻	-11.675
濓溪	-11.675
武宗	-11.675
乃自	-11.6751
焉者也	-11.6751
進兵	-11.6752
今且	-11.6752
近聞	-11.6753
到日	-11.6754
天末	-11.6754
金粟	-11.6755
待人	-11.6756
唯有	-11.6756
奕葉	-11.6757
有虞	-11.6758
江夏	-11.6759
以自見	-11.6759
海中	-11.676
伊何	-11.676
欽定四庫全書集部六	-11.676
異數	-11.6761
催科	-11.6763
紀述	-11.6764
藥石	-11.6764
幽獨	-11.6765
名宦	-11.6765
防禦	-11.6765
過家	-11.6765
必當	-11.6766
立春	-11.6766
吕梁	-11.6773
伏波	-11.6773
留守	-11.6773
淮水	-11.6774
春雪	-11.6776
佳句	-11.6778
三人者	-11.6778
身任	-11.6779
禁林	-11.6779
則然	-11.6779
避世	-11.678
難哉	-11.6783
伏以	-11.6784
有後	-11.6785
該府	-11.6786
胃	-11.6788
益信	-11.6788
塤	-11.679
之不足	-11.6791
剸	-11.6792
皆從	-11.6792
閒暇	-11.6792
臞	-11.6793
子夏	-11.6793
石洞	-11.6794
鴛	-11.6794
漢庭	-11.6794
造次	-11.6794
以樂	-11.6795
香爐	-11.6795
芷	-11.6796
槳	-11.6796
歸時	-11.6798
心期	-11.6798
夜光	-11.6799
激切	-11.68
獻納	-11.6801
墓道	-11.6801
之譏	-11.6801
下風	-11.6802
四野	-11.6802
延祐	-11.6802
雕蟲	-11.6803
之質	-11.6805
永訣	-11.6806
烟火	-11.6807
訪得	-11.6808
祝融	-11.681
三才	-11.681
長干	-11.681
八卦	-11.681
其言曰	-11.6812
養親	-11.6813
者再	-11.6814
夀七十	-11.6814
世稱	-11.6815
提調	-11.6815
某也	-11.6816
法律	-11.6816
海雲	-11.6817
山行	-11.6818
之遇	-11.6818
予讀	-11.6819
承命	-11.6819
隱隱	-11.682
之願	-11.6821
易為	-11.6822
又據	-11.6822
五夜	-11.6824
賦之	-11.6824
緒餘	-11.6825
阿母	-11.6827
嘗見	-11.6828
好竒	-11.6828
吾曹	-11.6829
振振	-11.683
與張	-11.683
過余	-11.6832
茸	-11.6832
臣某	-11.6832
汪洋	-11.6832
其誠	-11.6833
三千里	-11.6834
濟川	-11.6835
饒州	-11.6836
矻矻	-11.6836
蘧	-11.6837
嚙	-11.6837
吾之所	-11.6837
烏可	-11.6839
狼狽	-11.6839
顯融	-11.6841
鮫	-11.6841
不可留	-11.6841
也謂	-11.6842
不翅	-11.6843
制行	-11.6843
不答	-11.6843
迢遞	-11.6843
丁寧	-11.6843
何耶	-11.6844
東臯	-11.6844
挽詩	-11.6844
所守	-11.6845
居京師	-11.6846
竚	-11.6848
車騎	-11.6848
孝也	-11.6849
頭角	-11.6849
西風吹	-11.6851
老師	-11.6852
隠然	-11.6853
煥然	-11.6853
賊徒	-11.6853
京邸	-11.6855
乃可	-11.6856
僨	-11.6858
何有於	-11.6859
所欲言	-11.6861
焉用	-11.6861
生三子	-11.6861
矣雖	-11.6862
雪花	-11.6863
省親	-11.6864
海岱	-11.6864
長楊	-11.6864
况於	-11.6865
大旱	-11.6865
才行	-11.6865
下士	-11.6865
裔孫	-11.6866
銀燭	-11.6867
其事而	-11.6869
當世之	-11.687
數聲	-11.687
而好	-11.6873
嗜好	-11.6873
送楊	-11.6874
招撫	-11.6875
亰	-11.6876
之曰是	-11.6877
進止	-11.6877
寧王	-11.6877
否也	-11.6879
衛指揮使	-11.688
天地之間	-11.688
見説	-11.6881
幘	-11.6881
方壺	-11.6881
䜟	-11.6882
暹	-11.6882
日照	-11.6883
殊不	-11.6884
熹	-11.6885
愛君	-11.6885
吳縣	-11.6886
集賢	-11.6886
一律	-11.6886
視彼	-11.6888
知學	-11.6888
涼風	-11.6888
所寄	-11.6889
簸	-11.6889
飄颻	-11.689
片雲	-11.689
轉輸	-11.689
者且	-11.6891
為君子	-11.6892
無逸	-11.6893
也始	-11.6893
未遂	-11.6893
蒼松	-11.6895
貽書	-11.6895
貧民	-11.6895
溪頭	-11.6895
以著	-11.6896
致書	-11.6896
大姓	-11.6897
與他	-11.6898
以降	-11.6899
范氏	-11.69
聖人之心	-11.6902
風來	-11.6902
碧落	-11.6903
已復	-11.6904
無量	-11.6905
何曾	-11.6906
之卒	-11.6906
醴泉	-11.6907
今雖	-11.6909
飛泉	-11.6909
若是其	-11.6909
三里	-11.6909
年甫	-11.6909
吹笙	-11.6909
亮之	-11.691
因風	-11.691
尤精	-11.6914
成績	-11.6916
思齊	-11.6917
起敬	-11.6917
示余	-11.6917
于前	-11.6918
同日	-11.6919
鑱	-11.6919
豈止	-11.692
麒	-11.692
令聞	-11.6921
諡文	-11.6923
舊制	-11.6924
温厚	-11.6924
同僚	-11.6924
敢辭	-11.6926
工部主事	-11.6928
民命	-11.6929
真成	-11.6929
斧鉞	-11.6929
窮達	-11.6929
喝	-11.693
氣運	-11.693
窀穸	-11.693
嘯歌	-11.693
愀然	-11.6931
下民	-11.6931
齷齪	-11.6932
湖之	-11.6932
郴	-11.6933
緝熈	-11.6933
晡	-11.6933
猶子	-11.6933
毖	-11.6934
弇	-11.6935
豈容	-11.6935
叫	-11.6935
自然之	-11.6936
山公	-11.6936
留侯	-11.6938
勞而	-11.6938
鳴珂	-11.6941
客心	-11.6941
亦奚	-11.6944
無物	-11.6944
明鏡	-11.6946
餘力	-11.6946
湖湘	-11.6947
天乎	-11.6948
汪氏	-11.6949
華表	-11.695
而信	-11.695
進士授	-11.6951
相逺	-11.6952
不記	-11.6952
森然	-11.6954
尚饗	-11.6954
虞山	-11.6954
財用	-11.6954
有涯	-11.6955
娶王氏	-11.6957
微茫	-11.6957
字文	-11.6958
惡者	-11.6959
微言	-11.6959
袁氏	-11.6959
里長	-11.696
於當時	-11.6961
授簡	-11.6961
言言	-11.6962
北面	-11.6962
慈親	-11.6963
其失	-11.6965
一丘	-11.6966
數十里	-11.6968
固亦	-11.6968
予方	-11.6968
露華	-11.6971
其土	-11.6971
少司馬	-11.6972
先事	-11.6972
神農	-11.6973
特為	-11.6974
乃始	-11.6974
亦莫	-11.6974
戅	-11.6974
奉政大夫	-11.6975
鶯啼	-11.6976
㐫	-11.6976
皦	-11.6976
水木	-11.6977
自唐	-11.6977
朱衣	-11.6978
道上	-11.6978
膩	-11.6979
舉觴	-11.6979
二十里	-11.698
拄	-11.698
赧	-11.698
此老	-11.698
蒔	-11.698
廿年	-11.6981
班固	-11.6981
復任	-11.6981
首惡	-11.6983
向日	-11.6984
職務	-11.6987
吾觀	-11.6987
之圖	-11.6988
慮其	-11.6988
以為贈	-11.6988
山上	-11.6989
顧公	-11.6989
忽憶	-11.6989
虎狼	-11.699
之需	-11.699
故自	-11.6992
儀刑	-11.6993
旬宣	-11.6994
曹氏	-11.6994
先達	-11.6995
武進	-11.6995
以識	-11.6995
不定	-11.6995
而教之	-11.6996
佐之	-11.7001
南飛	-11.7003
老來	-11.7004
其色	-11.7004
輿論	-11.7004
佳麗	-11.7005
寧無	-11.7005
觴詠	-11.7006
以顯	-11.7006
聲光	-11.7006
平昔	-11.7007
嗟予	-11.7007
事畢	-11.7007
無所得	-11.7008
古今人	-11.7012
正位	-11.7012
竟誰	-11.7013
公之所	-11.7015
侍養	-11.7015
益加	-11.7016
踐履	-11.7017
柱史	-11.7017
使吾	-11.7017
之口	-11.7018
九疑	-11.7018
老兄	-11.7019
門墻	-11.7019
南臺	-11.702
後嗣	-11.702
忮	-11.7021
毉	-11.7021
樹色	-11.7022
女三人	-11.7022
林中	-11.7022
轉徙	-11.7022
冬十一月	-11.7022
仙子	-11.7022
八欽定四庫全書	-11.7022
龍鱗	-11.7023
明善	-11.7024
固可	-11.7025
錙銖	-11.7025
斚	-11.7025
帷幄	-11.7026
機杼	-11.7027
嚴君	-11.7028
以輔	-11.7028
文王之	-11.7029
鴟夷	-11.7029
褁	-11.7032
作新	-11.7034
髙樹	-11.7034
汪君	-11.7034
驪	-11.7035
山光	-11.7039
尚義	-11.7039
離思	-11.7041
旁午	-11.7043
大府	-11.7043
其仁	-11.7044
兩宫	-11.7045
間出	-11.7045
子美	-11.7046
治兵	-11.7047
始信	-11.7047
招提	-11.7048
監生	-11.7048
先登	-11.7052
劉先生	-11.7052
大吏	-11.7052
閩人	-11.7053
而又有	-11.7054
不阿	-11.7054
兩朝	-11.7057
不盈	-11.7059
期以	-11.7059
市井	-11.7059
滿城	-11.706
晉陽	-11.706
半空	-11.7061
天下之物	-11.7061
純甫	-11.7061
貧富	-11.7062
時一	-11.7062
佳期	-11.7064
大司徒	-11.7064
則不能	-11.7065
其惠	-11.7065
多聞	-11.7067
自新	-11.7069
之所當	-11.707
辛夘	-11.707
半月	-11.7071
涂	-11.7071
閃	-11.7072
壷	-11.7072
嵇	-11.7072
交阯	-11.7073
設法	-11.7073
多見	-11.7073
愛我	-11.7073
日光	-11.7074
又不見	-11.7074
遼陽	-11.7074
又若	-11.7076
郊原	-11.7076
有述	-11.7076
梭	-11.7076
自力	-11.7078
所過	-11.7078
河洛	-11.7079
實在	-11.708
二世	-11.708
賞心	-11.7082
為恨	-11.7082
之右	-11.7082
儀禮	-11.7084
不擾	-11.7085
師古	-11.7085
公曰吾	-11.7085
之談	-11.7085
皓首	-11.7085
精於	-11.7086
行乎	-11.7087
則易	-11.7087
賢愚	-11.7088
荔	-11.709
其或	-11.7091
君子之學	-11.7093
結屋	-11.7094
聖君	-11.7094
性善	-11.7096
女一人	-11.7097
高下	-11.7097
人子之	-11.7098
既卒	-11.7098
有事於	-11.7098
貴而	-11.7099
恩禮	-11.7101
闗西	-11.7101
若是則	-11.7102
四境	-11.7105
㑹合	-11.7107
意在	-11.7107
而顧	-11.7108
以補	-11.7109
良吏	-11.7109
相呼	-11.711
此輩	-11.7111
治水	-11.7112
松菊	-11.7114
曰兒	-11.7116
矣彼	-11.7117
致良知	-11.7119
羣仙	-11.7119
奉職	-11.712
燮	-11.7121
首簡	-11.7122
掃除	-11.7122
江雲	-11.7124
㩦	-11.7125
首陽	-11.7125
毫髮	-11.7126
自安	-11.7126
原野	-11.7127
善教	-11.7127
涌	-11.7128
問道	-11.7129
白蓮	-11.7129
顧獨	-11.7133
者余	-11.7134
孫男三	-11.7135
子産	-11.7136
遭際	-11.7137
有所思	-11.7137
瀛海	-11.7137
孔孟之	-11.7138
昔聞	-11.7139
彈冠	-11.714
崇文	-11.714
行旅	-11.7141
船頭	-11.7141
荒村	-11.7141
羊腸	-11.7142
有所感	-11.7142
咸以	-11.7143
鑑湖	-11.7144
吾君	-11.7146
知命	-11.7146
飛動	-11.7146
尚當	-11.7149
絶倫	-11.7149
志氣	-11.7149
宋南渡	-11.715
于庭	-11.7151
飲水	-11.7151
南雄	-11.7151
所積	-11.7157
自京師	-11.716
之慮	-11.716
吟詩	-11.7161
考最	-11.7161
昔我	-11.7161
若非	-11.7163
永樂中	-11.7164
萬仞	-11.7164
十餘人	-11.7165
徃還	-11.7166
而翁	-11.7166
晨興	-11.7166
諂	-11.7167
猖獗	-11.7167
雪山	-11.7168
耨	-11.7168
將何以	-11.7169
陛下之	-11.7169
無名	-11.7169
明興	-11.717
己卯	-11.717
海波	-11.717
攻之	-11.717
供億	-11.7171
虚無	-11.7171
不勞	-11.7171
猫	-11.7172
鈿	-11.7173
典教	-11.7173
石渠	-11.7173
紫雲	-11.7174
評事	-11.7175
心知	-11.7175
聞説	-11.7176
為孝	-11.7176
旣而	-11.7176
蕭森	-11.7176
青宫	-11.7176
如昨	-11.7178
也矧	-11.7179
絶人	-11.7179
吾妻	-11.7179
姓氏	-11.718
也按	-11.7181
化育	-11.7182
曷不	-11.7182
括蒼	-11.7183
予之所	-11.7184
瀟瀟	-11.7185
勸懲	-11.7187
丹崖	-11.719
為邑	-11.7191
守正	-11.7192
世變	-11.7192
徃年	-11.7193
逢時	-11.7193
其十	-11.7195
於地下	-11.7195
檢校	-11.7195
形迹	-11.7196
知所以	-11.7196
諭徳	-11.7198
未始不	-11.7202
二載	-11.7203
自期	-11.7205
天衢	-11.7205
狙	-11.7207
逐一	-11.7207
多難	-11.7208
為利	-11.721
嚴而	-11.721
戦	-11.721
表表	-11.7211
崛	-11.7211
一品	-11.7212
危坐	-11.7213
內	-11.7213
槀	-11.7216
尤深	-11.7216
鹺	-11.7216
耳非	-11.7216
好客	-11.7217
濺	-11.7217
檐	-11.7217
將安	-11.7218
惹	-11.7218
紀昀	-11.7218
吾見	-11.7219
悸	-11.7219
友朋	-11.722
遺風	-11.722
重門	-11.7221
告于	-11.7222
隱者	-11.7222
主司	-11.7223
講讀	-11.7223
輈	-11.7224
几杖	-11.7224
燕中	-11.7225
之藏	-11.7225
寵榮	-11.7226
偕老	-11.7227
之奉	-11.7228
家禮	-11.7231
畫一	-11.7231
而興起	-11.7234
是圖	-11.7234
有數	-11.7235
愛子	-11.7235
而内	-11.7236
陽明先生	-11.7237
録序	-11.7238
過者	-11.7239
以寄	-11.7239
自覺	-11.7239
曾不	-11.724
不撓	-11.7241
務為	-11.7243
又作	-11.7243
不久	-11.7245
時年	-11.7245
余惟	-11.7245
講道	-11.7246
泠然	-11.7246
心目	-11.7247
人去	-11.7248
不云乎	-11.7249
今吾	-11.7249
務在	-11.725
風致	-11.725
所處	-11.7251
家譜	-11.7253
傳經	-11.7254
淞	-11.7254
鴈門	-11.7257
乎乃	-11.7257
寵光	-11.7257
前賢	-11.7258
養士	-11.7258
三原	-11.7258
豈意	-11.7259
棄置	-11.7259
重華	-11.7259
棐	-11.7259
麄	-11.726
又欲	-11.726
狷	-11.7261
蘭臺	-11.7262
軺	-11.7263
跛	-11.7263
歴事	-11.7263
曰此吾	-11.7263
刳	-11.7264
昔有	-11.7265
蹕	-11.7265
天府	-11.7266
陸錫熊	-11.7266
竊意	-11.7266
豈可以	-11.7267
之事也	-11.7267
逢春	-11.7269
鷗鷺	-11.727
望風	-11.7271
前驅	-11.7272
摩詰	-11.7272
沆瀣	-11.7274
六師	-11.7275
念此	-11.7275
何待	-11.7276
晴雲	-11.7276
女弟	-11.7277
積徳	-11.7277
内史	-11.7277
論著	-11.7278
從善	-11.7279
兮又	-11.7281
以敬	-11.7281
更新	-11.7281
幸哉	-11.7283
登科	-11.7283
醫士	-11.7284
者始	-11.7284
淮陽	-11.7285
既沒	-11.7287
官民	-11.7287
盡言	-11.7288
四欽定四庫全書	-11.7288
富民	-11.7288
為榮	-11.7288
之足	-11.7292
道徳之	-11.7292
簡而	-11.7292
簡編	-11.7293
也但	-11.7294
白鷺	-11.7295
五岳	-11.7295
是月	-11.7297
小試	-11.7298
送行	-11.7298
貧乏	-11.7298
朱門	-11.7299
佩服	-11.7299
以節	-11.73
不責	-11.73
清夢	-11.7302
晳	-11.7303
矣抑	-11.7306
歸興	-11.7308
粘	-11.7308
其人也	-11.7309
余友	-11.731
無以自	-11.7311
日久	-11.7312
照依	-11.7313
長春	-11.7313
徽州	-11.7313
蔭	-11.7313
其廬	-11.7314
慰我	-11.7315
與凡	-11.7315
丁夘	-11.7315
其果	-11.7316
皇華	-11.7316
言必	-11.7316
菴公	-11.7316
藂	-11.7316
中軍	-11.7317
恬然	-11.7318
箕裘	-11.7318
自稱	-11.732
詳矣	-11.7321
英才	-11.7321
懿行	-11.7322
蕨	-11.7322
此際	-11.7324
崇卑	-11.7325
空虚	-11.7325
聖人之學	-11.7325
吕公	-11.7325
諫議	-11.7326
所請	-11.7327
上司	-11.7328
助教	-11.7329
不飲	-11.733
嬰兒	-11.733
無此	-11.733
四十餘	-11.7331
白蘋	-11.7332
十嵗	-11.7332
被召	-11.7332
司㓂	-11.7333
之左	-11.7334
露下	-11.7335
龍川	-11.7339
試禮部	-11.734
無辜	-11.734
痛哉	-11.7341
晉江	-11.7341
向之	-11.7342
以修	-11.7343
其儀	-11.7343
也久矣	-11.7344
儀部	-11.7345
青門	-11.7345
此數	-11.7347
之緒	-11.7348
髙等	-11.7349
連天	-11.7349
從師	-11.735
駿馬	-11.7351
工於	-11.7351
上夀	-11.7351
貿	-11.7356
鱸	-11.7356
尤善	-11.7356
叢桂	-11.7356
云耳	-11.7356
主宰	-11.7358
表其墓	-11.7358
未足以	-11.7358
清談	-11.7359
太常少卿	-11.7361
無一事	-11.7361
禩	-11.7361
淄	-11.7361
敢有	-11.7362
柑	-11.7362
蜕	-11.7362
襪	-11.7363
貟外郎	-11.7363
孫士毅總校	-11.7363
鄉書	-11.7363
揉	-11.7363
囀	-11.7365
蓬莱	-11.7366
所繇	-11.7366
希顔	-11.7366
既定	-11.7366
以此為	-11.7368
可望	-11.7369
追思	-11.7369
苦辛	-11.737
鳩工	-11.7371
道逺	-11.7373
婁江	-11.7373
或勸	-11.7374
獲罪	-11.7375
矣故曰	-11.7375
涕泗	-11.7376
十有四	-11.7376
大亂	-11.7376
唐太宗	-11.7378
乗風	-11.7378
臺閣	-11.7379
避暑	-11.7379
遺編	-11.738
是役也	-11.7381
兩間	-11.7382
師事	-11.7383
區區之	-11.7384
獨念	-11.7384
鴻雁	-11.7384
門庭	-11.7384
倚門	-11.7385
哉嗚呼	-11.7386
蒼天	-11.7386
調停	-11.7386
之用心	-11.7386
清濁	-11.7387
務學	-11.7388
六載	-11.7388
恐後	-11.7389
周行	-11.739
烏鵲	-11.7391
成湯	-11.7391
具存	-11.7393
寒夜	-11.7393
致仕歸	-11.7394
茍且	-11.7395
竊念	-11.7397
之號	-11.7399
西平	-11.74
砦	-11.74
有國	-11.74
之碑	-11.7401
牀頭	-11.7401
二十三年	-11.7401
之乆	-11.7403
僖公	-11.7405
嚴陵	-11.7409
嘉議大夫	-11.7409
襁褓	-11.741
等衙門	-11.741
人之善	-11.741
蓊	-11.7412
弇州續稿巻	-11.7412
跖	-11.7413
盛美	-11.7414
之配	-11.7414
峴	-11.7414
顧乃	-11.7414
顧影	-11.7415
長興	-11.7415
㝡	-11.7415
性理	-11.7416
聊自	-11.7416
信陽	-11.7418
大師	-11.7419
稱賢	-11.7419
疏題為	-11.7421
䘏典	-11.7421
女四	-11.7423
正心	-11.7424
意甚	-11.7425
公行	-11.7426
孝行	-11.7426
斯須	-11.7428
剛柔	-11.7428
我民	-11.7428
三字	-11.7429
古書	-11.7429
忠勤	-11.7429
等事	-11.743
貴於	-11.7431
餘皆	-11.7432
可比	-11.7433
行將	-11.7433
方舟	-11.7433
勤王	-11.7438
有識	-11.7438
偉人	-11.7439
卿相	-11.7439
無㡬	-11.7439
后土	-11.744
有意於	-11.7441
豈曰	-11.7443
曰然則	-11.7443
又從	-11.7444
曉日	-11.7446
以為非	-11.7446
巖巖	-11.7447
即欲	-11.7447
朋友之	-11.7448
北行	-11.7448
口耳	-11.745
至親	-11.745
地名	-11.745
諸身	-11.745
具載	-11.745
該臣	-11.7451
萬馬	-11.7452
聖諭	-11.7452
鴈行	-11.7452
深谷	-11.7453
慎重	-11.7453
節度	-11.7454
最多	-11.7456
爨	-11.7458
糲	-11.7458
辭免	-11.7458
泉聲	-11.7458
瓉	-11.7458
㸔花	-11.7459
鈐	-11.7459
纜	-11.746
月恭校上總纂官	-11.7461
雪霜	-11.7462
髠	-11.7462
繫之	-11.7462
咀	-11.7463
哥	-11.7464
郡侯	-11.7464
鵰	-11.7466
黝	-11.7466
成帙	-11.7468
報恩	-11.7468
月白	-11.7468
報可	-11.7469
元勲	-11.7469
授徒	-11.7471
文定	-11.7471
相逐	-11.7472
為賦	-11.7472
文敏	-11.7473
可大	-11.7473
出焉	-11.7474
魏晉	-11.7475
唳	-11.7478
不達	-11.7478
未忘	-11.7479
善類	-11.7479
少室山房集	-11.748
也今夫	-11.7481
菽水	-11.7481
之難也	-11.7482
各衙門	-11.7483
草木之	-11.7484
父師	-11.7485
宗譜	-11.7486
沙頭	-11.7486
法當	-11.7487
無因	-11.7488
人間世	-11.7489
哉惟	-11.7491
别時	-11.7491
雙溪	-11.7492
不染	-11.7492
舍弟	-11.7492
計日	-11.7493
西門	-11.7493
提要	-11.7495
泉州	-11.7496
視昔	-11.7497
小小	-11.7497
詩名	-11.7498
究竟	-11.7498
髙陽	-11.7499
逾年	-11.7499
而屬	-11.7499
内府	-11.7501
此特	-11.7503
兌	-11.7503
這箇	-11.7504
避之	-11.7504
嘔	-11.7504
表之	-11.7505
書籍	-11.7505
厚於	-11.7505
由是觀之	-11.7506
鳥聲	-11.7506
老者	-11.7507
紐	-11.7507
又况	-11.7508
優劣	-11.7508
之由	-11.7509
君才	-11.7509
丼	-11.7509
丹書	-11.751
聲音	-11.751
本諸	-11.7511
不孤	-11.7511
慎之	-11.7511
萬兩	-11.7512
寒山	-11.7513
宣力	-11.7513
何以異	-11.7513
以食	-11.7514
來世	-11.7516
長孺	-11.7516
治安	-11.7517
通鑑	-11.7518
出城	-11.7518
守官	-11.7521
李侯	-11.7521
通於	-11.7522
季父	-11.7522
栁色	-11.7523
亦多矣	-11.7523
撫綏	-11.7523
忽焉	-11.7524
而言之	-11.7525
野服	-11.7526
多年	-11.7526
賜以	-11.7526
譽之	-11.7527
有傳	-11.7527
為之銘曰	-11.7528
可恃	-11.7529
陟降	-11.7529
下流	-11.753
思恩	-11.7531
欽遵	-11.7531
者耳	-11.7531
大舉	-11.7531
不即	-11.7532
升斗	-11.7533
清尊	-11.7533
西去	-11.7533
此帖	-11.7534
茍非	-11.7534
閤下	-11.7535
騎射	-11.7535
感歎	-11.7536
令我	-11.7536
其有不	-11.7537
倍之	-11.7538
變幻	-11.7539
言笑	-11.7539
府庫	-11.754
青林	-11.754
貳守	-11.754
十倍	-11.7541
喜其	-11.7541
士皆	-11.7541
彭氏	-11.7544
形而	-11.7544
以實	-11.7544
有徴	-11.7545
傍人	-11.7545
房屋	-11.7546
不競	-11.7546
善則	-11.7548
餞之	-11.7548
京畿	-11.7549
既去	-11.7551
賊勢	-11.7552
萬化	-11.7552
闓	-11.7553
憲府	-11.7553
可期	-11.7554
方知	-11.7556
昵	-11.7556
永康	-11.7556
循理	-11.7556
東郊	-11.7558
等謹案	-11.7558
其根	-11.7558
飮	-11.7559
饘粥	-11.756
片語	-11.756
凡五	-11.756
瘵	-11.756
葉氏	-11.7561
焉嗚呼	-11.7561
遺稿	-11.7561
鑿鑿	-11.7562
篤信	-11.7563
牋	-11.7563
生男	-11.7564
聖德	-11.7565
者可以	-11.7566
九齡	-11.7566
未解	-11.7567
東漢	-11.7568
寺丞	-11.7568
語人曰	-11.757
鄉曲	-11.7571
隨事	-11.7573
太祖髙皇帝	-11.7574
成誦	-11.7574
終養	-11.7574
月光	-11.7575
未艾也	-11.7575
典章	-11.7578
刀筆	-11.7578
浮沈	-11.7578
祠之	-11.758
大澤	-11.7581
事實	-11.7581
昭代	-11.7581
西臺	-11.7582
之什	-11.7582
不敬	-11.7582
天空	-11.7582
者未必	-11.7584
占籍	-11.7584
烟水	-11.7584
秩秩	-11.7584
無所不至	-11.7586
要其	-11.7586
青城	-11.7586
焉余	-11.759
詣闕	-11.7591
招隠	-11.7592
大國	-11.7592
先志	-11.7593
禹穴	-11.7593
况乃	-11.7593
鄙夫	-11.7593
授官	-11.7593
交友	-11.7595
閥	-11.7595
望見	-11.7595
感發	-11.7597
便有	-11.7597
楚天	-11.7597
廣徳	-11.7598
送徐	-11.7598
執其	-11.7598
示人	-11.7598
陳言	-11.7599
竽	-11.76
台臺	-11.7601
稱述	-11.7601
者欲	-11.7601
者比	-11.7602
賽	-11.7603
桐江	-11.7604
釜	-11.7604
同調	-11.7606
艤	-11.7606
昕	-11.7606
别意	-11.7607
更生	-11.7608
金闕	-11.7608
褰	-11.7609
無故	-11.7609
醅	-11.761
柁	-11.761
生計	-11.761
蔗	-11.7611
名利	-11.7611
髭	-11.7611
感應	-11.7612
咄咄	-11.7612
忘情	-11.7613
蘂	-11.7613
彛倫	-11.7614
合塟	-11.7614
輔之	-11.7614
亡所	-11.7616
一意	-11.7617
而亡	-11.7617
鳥飛	-11.7617
肖甫	-11.7618
閶	-11.7618
藝苑	-11.7621
精舎	-11.7622
淙	-11.7622
誦習	-11.7624
韓氏	-11.7625
而未嘗	-11.7625
之規	-11.7626
世務	-11.7627
享年五十	-11.7628
已乃	-11.7628
心力	-11.7628
君侯	-11.7628
舟次	-11.7628
備至	-11.7631
法制	-11.7631
四曰	-11.7633
書中	-11.7633
七嵗	-11.7634
也孔子	-11.7636
統領	-11.7637
報政	-11.7638
藜杖	-11.7639
李先生	-11.764
未嘗一	-11.764
備員	-11.764
之智	-11.7641
原籍	-11.7641
七首	-11.7641
陲	-11.7641
司馬遷	-11.7644
八十餘	-11.7644
躔	-11.7646
諭祭	-11.7647
西郊	-11.7647
内帑	-11.7648
今見	-11.7648
良朋	-11.7649
之所得	-11.765
持論	-11.7651
當塗	-11.7652
蕭山	-11.7652
曽氏	-11.7654
困窮	-11.7654
騏	-11.7654
踊	-11.7656
杰	-11.7656
呼童	-11.7656
寗	-11.7656
儋	-11.7657
憂勤	-11.7657
鮮矣	-11.7657
惡惡	-11.7657
指示	-11.7657
獨無	-11.7658
太液	-11.766
孜	-11.766
沐浴	-11.766
以謝	-11.7661
不可辭	-11.7661
空有	-11.7662
以定	-11.7662
嗷嗷	-11.7664
嬋娟	-11.7664
和鳴	-11.7665
者有矣	-11.7665
創業	-11.7665
於海	-11.7665
款	-11.7665
俛首	-11.7666
負氣	-11.7666
抗疏	-11.7666
䦨干	-11.7667
年九十	-11.7667
渠魁	-11.7668
疏請	-11.7668
廢興	-11.7668
題王	-11.7668
金幣	-11.7669
班行	-11.7669
雲起	-11.7669
老年	-11.7671
落月	-11.7671
清興	-11.7671
外史	-11.7672
全集	-11.7673
之秋	-11.7673
内地	-11.7673
巡檢	-11.7673
校書	-11.7675
為害	-11.7675
中節	-11.7675
龍興	-11.7677
可憂	-11.7677
公輔	-11.7677
馨香	-11.7678
子房	-11.7679
振起	-11.768
驛丞	-11.768
曷為	-11.7681
系出	-11.7682
也初	-11.7682
豈弟	-11.7682
與其弟	-11.7683
再起	-11.7683
上谷	-11.7683
周流	-11.7683
賢聖	-11.7683
濟寧	-11.7685
莫怪	-11.7686
雲臺	-11.7686
起兵	-11.7686
之序	-11.7687
歌頌	-11.7687
交際	-11.7688
盛唐	-11.7688
率爾	-11.7689
枝上	-11.7689
四出	-11.7689
民居	-11.769
𤣥圃	-11.769
之勇	-11.7691
家塾	-11.7692
榮華	-11.7692
籲天	-11.7693
仲淹	-11.7694
不吝	-11.7694
大年	-11.7695
是為記	-11.7696
未有以	-11.7696
臨軒	-11.7696
燕雀	-11.7697
夏六月	-11.7698
心體	-11.7698
村落	-11.7699
靖難	-11.77
公等	-11.77
距生	-11.7701
機宜	-11.7701
女適	-11.7701
蜀中	-11.7702
報之	-11.7702
其績	-11.7702
督責	-11.7704
㡬度	-11.7704
文皇帝	-11.7704
雨暘	-11.7705
子婦	-11.7705
和易	-11.7706
緻	-11.7706
琪	-11.7707
軻	-11.7708
權衡	-11.7708
奉直大夫	-11.7708
叵測	-11.7709
園池	-11.7709
本府	-11.7709
襦	-11.771
窳	-11.771
走筆	-11.771
初九日	-11.7711
奭	-11.7711
之適	-11.7711
鍔	-11.7712
諸作	-11.7712
大兵	-11.7713
蓼莪	-11.7713
薦舉	-11.7713
往返	-11.7713
文彩	-11.7714
五尺	-11.7714
如流	-11.7715
中使	-11.7716
族屬	-11.7716
已是	-11.7717
幸矣	-11.7717
卧龍	-11.7718
所舉	-11.7718
水土	-11.7718
上請	-11.7719
季弟	-11.772
出示	-11.7721
登極	-11.7721
髙門	-11.7721
曖	-11.7721
瓊林	-11.7723
青史	-11.7723
出山	-11.7724
一遇	-11.7724
昭示	-11.7725
動人	-11.7725
改作	-11.7726
具有	-11.7726
理則	-11.7728
天倫	-11.7728
恨無	-11.773
軍前	-11.773
巖壑	-11.773
凡人	-11.7731
明星	-11.7731
經畫	-11.7731
慶元	-11.7733
居仁	-11.7733
山石	-11.7734
何暇	-11.7736
親故	-11.7737
閲月	-11.7738
從征	-11.774
門牆	-11.774
僕夫	-11.7742
吾聞之	-11.7744
河源	-11.7746
存而	-11.7746
為徳	-11.7747
旌表	-11.7748
督兵	-11.7749
襟期	-11.775
事機	-11.7751
音書	-11.7752
賴之	-11.7755
祠宇	-11.7755
驚人	-11.7755
甚嚴	-11.7756
五花	-11.7756
而升	-11.7757
閒雲	-11.7757
券	-11.7758
其全	-11.7759
形似	-11.776
籖	-11.776
其鄉人	-11.7761
筌	-11.7761
綫	-11.7761
躐	-11.7762
今皆	-11.7762
清修	-11.7764
癘	-11.7764
其跡	-11.7765
亦頗	-11.7766
禮義之	-11.7766
陶然	-11.7767
良知之	-11.7767
何憾	-11.7767
頴敏	-11.7768
氣清	-11.777
磐石	-11.7771
通顯	-11.7771
天理之	-11.7771
十丈	-11.7771
求去	-11.7771
齊民	-11.7772
所藴	-11.7773
困苦	-11.7773
拜稽首	-11.7774
府君諱	-11.7776
屈原	-11.7776
横渠	-11.7776
髙齋	-11.7778
願學	-11.7778
不貴	-11.7779
復還	-11.778
記憶	-11.7781
斯言也	-11.7781
聲稱	-11.7782
王家	-11.7782
不竭	-11.7783
南雍	-11.7784
之子也	-11.7785
春歸	-11.7786
才智	-11.7786
敢謂	-11.7786
石頭	-11.7787
團團	-11.7787
訃至	-11.7788
楚之	-11.779
波浪	-11.779
因君	-11.7792
快哉	-11.7793
耋	-11.7793
他郡	-11.7795
嵗次	-11.7798
既老	-11.78
九鼎	-11.7801
屬吏	-11.7803
歸葬	-11.7803
經旬	-11.7804
四品	-11.7805
白眼	-11.7806
漚	-11.7806
不可以無	-11.7806
翰林修撰	-11.7808
會同	-11.7808
君卒	-11.7808
琉璃	-11.7808
送子	-11.7809
監軍	-11.781
患無	-11.781
修省	-11.781
上春官	-11.781
脛	-11.7811
病骨	-11.7811
文質	-11.7812
其直	-11.7812
竊發	-11.7813
老眼	-11.7813
二欽定四庫全書	-11.7813
奏聞	-11.7814
蜩	-11.7814
初十日	-11.7815
古君子	-11.7815
擄	-11.7815
年方	-11.7815
且喜	-11.7816
里巷	-11.7816
關河	-11.7817
埽	-11.7817
進講	-11.7817
永夜	-11.7818
華堂	-11.7818
芋	-11.7819
烏紗	-11.7819
好風	-11.782
有道者	-11.782
先生名	-11.7822
以為難	-11.7823
渾然	-11.7825
前身	-11.7827
三百六十	-11.783
與予同	-11.7831
誠可	-11.7832
由進士	-11.7832
身死	-11.7833
上恩	-11.7833
土田	-11.7834
非才	-11.7834
郡公	-11.7834
塵俗	-11.7835
必致	-11.7835
泊然	-11.7835
何也曰	-11.7835
百餘人	-11.7837
人命	-11.7837
波瀾	-11.7837
不肖孤	-11.7838
歸夢	-11.7839
次韻答	-11.7839
洪濤	-11.7839
士大夫之	-11.784
遺我	-11.784
未必能	-11.7841
何知	-11.7842
措之	-11.7843
猶以為	-11.7844
人爭	-11.7844
乎道	-11.7846
明敏	-11.7847
信哉	-11.7848
去來	-11.7849
之力也	-11.785
於此者	-11.7851
年兄	-11.7851
灝	-11.7852
通籍	-11.7853
楊愛	-11.7853
萬鍾	-11.7853
兩鬢	-11.7853
大字	-11.7854
還應	-11.7854
汀州	-11.7855
暌	-11.7855
美酒	-11.7856
黄冠	-11.7856
推重	-11.7857
首級	-11.7857
臘月	-11.7857
不停	-11.7858
不回	-11.786
積之	-11.786
穽	-11.7861
竁	-11.7862
魑魅	-11.7862
朂哉	-11.7862
山翁	-11.7862
邨	-11.7862
有位	-11.7863
之途	-11.7863
竟無	-11.7864
撾	-11.7865
殛	-11.7865
醢	-11.7865
𨳩	-11.7865
禮官	-11.7865
托之	-11.7867
蓀	-11.7867
腸斷	-11.7868
張侯	-11.7868
奏疏	-11.7868
新晴	-11.7872
倚樓	-11.7873
江鄉	-11.7873
濟人	-11.7874
入貢	-11.7876
效之	-11.7876
唐詩	-11.7878
傷神	-11.7879
南斗	-11.788
坐看	-11.788
大聖	-11.7881
去取	-11.7883
奚以	-11.7884
也聖人	-11.7884
求予文	-11.7884
中堂	-11.7885
不相及	-11.7886
郁離子曰	-11.7886
亡論	-11.7886
受經	-11.7887
江口	-11.7888
康節	-11.7889
先府君	-11.7891
總管	-11.7894
可必	-11.7894
其請	-11.7896
不腆	-11.7897
嘻	-11.7899
忠愛	-11.79
歸途	-11.79
美矣	-11.7901
茅堂	-11.7902
范公	-11.7902
南面	-11.7904
逸興	-11.7904
之生也	-11.7905
孫男十	-11.7905
青鸞	-11.7906
永昌	-11.7906
力田	-11.7906
其槩	-11.7907
芳洲	-11.7907
頃之	-11.7908
歸去來	-11.7908
巻二	-11.7908
子一人	-11.7909
孑	-11.7909
别為	-11.7909
不設	-11.7911
黌	-11.7911
筏	-11.7911
相業	-11.7911
學業	-11.7912
灑然	-11.7912
荔枝	-11.7913
讋	-11.7914
义	-11.7915
褫	-11.7915
絡繹	-11.7917
建章	-11.7917
五斗	-11.7917
必死	-11.7918
几筵	-11.7918
古禮	-11.7919
瓣香	-11.7919
有物	-11.792
金氏	-11.792
環堵	-11.792
之外者	-11.792
即席	-11.792
四十八	-11.7921
司務	-11.7922
延師	-11.7922
廽	-11.7922
其論	-11.7922
藩籬	-11.7923
羣雄	-11.7923
胄監	-11.7924
苦節	-11.7924
之殊	-11.7927
緑野	-11.7927
與之同	-11.7928
起自	-11.793
墓上	-11.793
遂書以	-11.793
誰將	-11.7931
蘇松	-11.7931
絶勝	-11.7932
軫念	-11.7934
慶雲	-11.7934
殿卿	-11.7936
所獲	-11.7936
與賊	-11.7936
筆墨	-11.7937
濛濛	-11.7937
隴西	-11.794
建祠	-11.794
其行事	-11.7941
苑洛	-11.7941
罷官	-11.7942
凜	-11.7942
太過	-11.7943
正寢	-11.7945
上苑	-11.7945
記誦	-11.7945
已盡	-11.7945
君能	-11.7946
渭水	-11.7946
古之所謂	-11.7948
幸免	-11.7948
驗之	-11.7948
水竹	-11.7951
濆	-11.7951
繼述	-11.7951
其目	-11.7953
汲汲於	-11.7954
鄉賢	-11.7955
下詔	-11.7956
報主	-11.7956
昭烈	-11.7956
臣無任	-11.7957
怪石	-11.7957
盛典	-11.7957
飽食	-11.7957
禅	-11.7958
者有所	-11.7958
堪憐	-11.7958
鸛	-11.7958
少小	-11.7958
人之生	-11.7961
抱負	-11.7962
屡	-11.7962
菩提	-11.7963
居鄉	-11.7964
黄巖	-11.7964
相連	-11.7964
深造	-11.7964
繼之以	-11.7965
摸	-11.7966
承㫖	-11.7966
自在	-11.7966
纘	-11.7966
郝	-11.7966
磅礴	-11.7966
飴	-11.7966
弇州	-11.7967
夾道	-11.7968
或云	-11.797
唁	-11.7971
考槃	-11.7971
不售	-11.7971
昭然	-11.7971
天成	-11.7972
悚然	-11.7972
文翁	-11.7973
不可易	-11.7973
縹	-11.7973
鏡裏	-11.7974
鶺鴒	-11.7974
一度	-11.7974
無礙	-11.7975
與汝	-11.7976
懸車	-11.7978
驚心	-11.798
延佇	-11.7981
月初	-11.7982
遐邇	-11.7983
芬芳	-11.7983
惟善	-11.7983
至意	-11.7984
南枝	-11.7984
庭樹	-11.7984
清凉	-11.7986
後期	-11.7989
風沙	-11.7989
有之矣	-11.7989
人望	-11.799
恍若	-11.799
書詩	-11.799
福履	-11.7991
同年友	-11.7991
况今	-11.7992
同學	-11.7994
公道	-11.7995
足以為	-11.7996
赴任	-11.7997
今已矣	-11.7997
奉寄	-11.7997
乾隆	-11.7998
録其	-11.7998
之别	-11.8
嘗言	-11.8
景星	-11.8001
統兵	-11.8002
山嶽	-11.8004
祧	-11.8004
自慰	-11.8004
勝負	-11.8006
一半	-11.8007
益勤	-11.801
適有	-11.8011
名卿	-11.8011
自可	-11.8011
郡丞	-11.8012
奮發	-11.8012
家無	-11.8012
為功	-11.8013
剩	-11.8013
掬	-11.8014
習於	-11.8014
堯舜禹湯文武	-11.8014
夜寒	-11.8016
昶	-11.8016
希賢	-11.8016
淇澳	-11.8017
百歲	-11.8018
數多	-11.8018
娃	-11.8018
攜手	-11.802
不讓	-11.802
享年八十	-11.8021
熒熒	-11.8022
希夷	-11.8022
撒	-11.8022
沗	-11.8022
以干	-11.8023
有志之士	-11.8024
可取	-11.8024
城門	-11.8025
一幅	-11.8026
因是	-11.8026
銅柱	-11.8026
之愚	-11.8028
萬壽	-11.8029
可數	-11.8031
意外	-11.8033
各以其	-11.8033
細民	-11.8033
憫其	-11.8034
之得失	-11.8034
一色	-11.8034
吾恐	-11.8035
初七日	-11.8036
皇仁	-11.8037
舉進士為	-11.8038
禍亂	-11.8038
輕舟	-11.804
平定	-11.8042
姥	-11.8042
廓然	-11.8042
謳歌	-11.8043
錢榖	-11.8044
意見	-11.8044
萬變	-11.8045
未久	-11.8046
神遊	-11.8047
江干	-11.8047
兮孰	-11.8049
其類	-11.805
不榖	-11.805
殺氣	-11.805
聲詩	-11.805
撫育	-11.8051
巻三	-11.8051
然後可以	-11.8051
商山	-11.8051
四望	-11.8052
兩三	-11.8053
姻戚	-11.8055
樽前	-11.8055
州里	-11.8055
下視	-11.8056
接武	-11.8057
甚詳	-11.8058
二程	-11.8058
音容	-11.8059
前古	-11.806
如吾	-11.806
落盡	-11.8061
以訓	-11.8062
以某年月日	-11.8062
不容已	-11.8063
徳意	-11.8065
盡忠	-11.8065
糶	-11.8065
其言之	-11.8067
遺恨	-11.8068
麾下	-11.8069
蚌	-11.8069
州判官	-11.8069
膏肓	-11.8069
訕	-11.807
腫	-11.8071
讃	-11.8071
噤	-11.8072
蔣氏	-11.8072
卜筮	-11.8073
名譽	-11.8073
光禄大夫	-11.8074
真知	-11.8075
類如此	-11.8076
魯公	-11.8076
培植	-11.8077
邦相	-11.8077
謫戍	-11.8077
即便	-11.8079
已極	-11.8079
以制	-11.808
非止	-11.808
謙之	-11.808
川原	-11.8082
此情	-11.8082
清歌	-11.8083
之不暇	-11.8084
惡乎	-11.8084
相值	-11.8085
即行	-11.8085
九峯	-11.8085
是真	-11.8086
連雲	-11.8087
不相見	-11.8088
漳州	-11.809
開闢	-11.809
千餘人	-11.809
故吾	-11.8091
始生	-11.8091
一至	-11.8091
自好	-11.8092
憲宗	-11.8092
孫男四	-11.8092
提兵	-11.8093
膏澤	-11.8093
臨終	-11.8094
復何言	-11.8095
秋深	-11.8095
即為	-11.8096
感懐	-11.8097
接踵	-11.8097
提刑	-11.8099
至道	-11.8099
晴日	-11.8099
之所至	-11.81
免其	-11.8101
冨貴	-11.8101
信然	-11.8101
九疇	-11.8102
功次	-11.8103
日華	-11.8107
其姑	-11.8108
良弼	-11.8109
承顔	-11.8109
親賢	-11.8109
豈在	-11.811
聖代	-11.8111
蓋自	-11.8111
雜詩	-11.8111
之衝	-11.8112
又如此	-11.8112
肆其	-11.8112
亦須	-11.8113
玉雪	-11.8113
太陽	-11.8113
不可勝	-11.8114
學詩	-11.8114
孺人墓誌銘	-11.8117
行當	-11.8117
毋使	-11.8118
先世之	-11.8118
刲股	-11.812
仝	-11.812
中憲大夫	-11.8121
真能	-11.8121
焯	-11.8121
未安	-11.8122
應酬	-11.8123
贐	-11.8123
也足下	-11.8123
薤	-11.8124
此山	-11.8124
毋乃	-11.8124
攢	-11.8125
行歌	-11.8125
敬美	-11.8125
踔	-11.8126
國子助教	-11.8126
既又	-11.8127
十有五年	-11.8127
姝	-11.8127
品題	-11.8128
而父	-11.8129
葭	-11.8129
但得	-11.8129
所以爲	-11.813
欲歸	-11.813
定逺	-11.813
榕	-11.8131
大意	-11.8131
覽之	-11.8132
復從	-11.8134
新聲	-11.8134
元配	-11.8135
懷古	-11.8135
青衫	-11.8136
初三日	-11.8137
於古人	-11.8138
魯國	-11.814
入雲	-11.8141
顯而	-11.8141
書此以	-11.8141
新秋	-11.8142
為儒	-11.8142
五世祖	-11.8142
歸期	-11.8142
盡禮	-11.8144
揚揚	-11.8145
勝國	-11.8145
入賀	-11.8145
乎然則	-11.8147
可哀	-11.8147
尚寶	-11.8147
造化之	-11.8147
浣花	-11.8148
漫興	-11.815
凌空	-11.8151
巡視	-11.8153
池水	-11.8154
今年夏	-11.8154
罅	-11.8155
何處是	-11.8157
為惡	-11.8158
襄公	-11.8158
形神	-11.8159
此無他	-11.8159
誠敬	-11.816
俊秀	-11.8161
内助	-11.8161
問津	-11.8162
清泠	-11.8162
入閩	-11.8162
之可也	-11.8163
上馬	-11.8165
坐令	-11.8166
潼	-11.8166
爛然	-11.8166
三國	-11.8169
作書	-11.8169
相當	-11.8169
糊	-11.8171
偪	-11.8172
弃	-11.8173
乎於是	-11.8173
蹋	-11.8173
韓退之	-11.8173
玦	-11.8173
窮愁	-11.8174
謭	-11.8176
御醫	-11.8176
有母	-11.8177
忽已	-11.8177
賜宴	-11.8177
閙	-11.8177
鼉	-11.8178
姓字	-11.8178
黄鍾	-11.8178
飼	-11.8179
昩	-11.8179
望逺	-11.818
山雨	-11.818
清商	-11.818
秣陵	-11.818
崦	-11.818
孤鶴	-11.8181
軿	-11.8183
未覺	-11.8183
羊裘	-11.8183
羃	-11.8185
當筵	-11.8186
躋攀	-11.8188
巴蜀	-11.8189
孤忠	-11.819
仲冬	-11.819
與君同	-11.8192
朔望	-11.8192
文移	-11.8193
賢哲	-11.8194
頭顱	-11.8194
子四人	-11.8195
必不能	-11.8195
三峽	-11.8195
所愛	-11.8195
固不能	-11.8195
驚起	-11.8196
開軒	-11.8196
則謂之	-11.8197
令其	-11.8197
善學	-11.8198
西川	-11.82
懇乞	-11.82
故為序	-11.8201
寧復	-11.8202
清隂	-11.8202
下榻	-11.8203
余因	-11.8203
感此	-11.8205
清晨	-11.8206
卑而	-11.8207
遺澤	-11.8208
一州	-11.821
尚文	-11.8211
白楊	-11.8212
一覽	-11.8212
龍吟	-11.8213
忠良	-11.8214
老弱	-11.8214
黎民	-11.8215
同舍	-11.8215
寓目	-11.8215
顧我	-11.8216
之章	-11.8217
情深	-11.8218
夜郎	-11.8218
爭先	-11.8219
躬耕	-11.8222
百餘里	-11.8222
餘黨	-11.8224
勒銘	-11.8224
楼	-11.8224
本道	-11.8224
也夫以	-11.8224
過眼	-11.8225
年来	-11.8226
相迎	-11.8226
巻舒	-11.8227
離情	-11.8227
惟以	-11.8227
胙	-11.8228
也既而	-11.8228
嬖	-11.8228
畛	-11.8229
中途	-11.8229
珙	-11.823
中大夫	-11.8231
民事	-11.8232
五言古詩	-11.8232
以書來	-11.8232
何至	-11.8232
西行	-11.8232
不知其所	-11.8233
楓林	-11.8233
云乎哉	-11.8233
芙蕖	-11.8233
經書	-11.8233
不言而	-11.8234
雹	-11.8234
記室	-11.8236
雖不能	-11.8237
鄉舉	-11.8237
仲兄	-11.8238
秋興	-11.8238
百倍	-11.8239
糧餉	-11.824
農桑	-11.824
濯濯	-11.824
之軀	-11.8241
宣公	-11.8244
其屬	-11.8244
於其中	-11.8245
而不失	-11.8246
百戸	-11.8246
才猷	-11.8247
簮纓	-11.8248
腐儒	-11.8248
時中	-11.8249
作何	-11.8249
孫君	-11.8252
各兵	-11.8252
友諒	-11.8253
瀚海	-11.8253
尤切	-11.8253
問君	-11.8254
寡欲	-11.8254
老成人	-11.8257
敗之	-11.8259
邊城	-11.826
井井	-11.826
禮讓	-11.8261
不出於	-11.8261
博士弟子	-11.8262
一燈	-11.8262
謂君	-11.8263
一樹	-11.8263
白羽	-11.8263
未幾而	-11.8263
以是而	-11.8265
剡溪	-11.8266
放浪	-11.8268
不向	-11.8269
習禮	-11.8269
連年	-11.8271
濟世	-11.8271
非謂	-11.8271
凡為	-11.8272
葢亦	-11.8272
官屬	-11.8273
删	-11.8275
簧	-11.8275
桂花	-11.8275
伽	-11.8275
騷人	-11.8275
知吾	-11.8275
以下皆	-11.8277
可立	-11.8279
不流	-11.8279
敓	-11.8279
斥之	-11.8279
擺	-11.828
頌聲	-11.8281
此處	-11.8281
冀北	-11.8282
曷嘗	-11.8282
伯衡	-11.8282
聞諸	-11.8284
看君	-11.8284
野寺	-11.8284
胸臆	-11.8285
青霞	-11.8285
敬慎	-11.8285
良辰	-11.8285
毆	-11.8285
千萬世	-11.8286
文教	-11.8286
李斯	-11.8286
日甚	-11.8287
幌	-11.8287
汁	-11.8287
琚	-11.8287
管絃	-11.8288
漉	-11.8288
愚者	-11.8289
且盡	-11.8291
養志	-11.8292
來問	-11.8295
此學	-11.8296
吹笛	-11.83
思誠	-11.83
祥符	-11.8301
延綏	-11.8304
維摩	-11.8304
百計	-11.8304
曰嘻	-11.8305
羽翰	-11.8305
雙眼	-11.8306
其光	-11.8306
交誼	-11.8306
封事	-11.8307
是理	-11.8308
篤生	-11.8308
抱病	-11.8308
於戯	-11.8308
寒色	-11.8309
無留	-11.831
海潮	-11.831
清節	-11.8311
常人	-11.8311
威武	-11.8311
居焉	-11.8313
幡然	-11.8313
爾其	-11.8313
胡以	-11.8314
愁思	-11.8314
養老	-11.8314
也嗟夫	-11.8315
源流	-11.8316
杜詩	-11.8317
聖祖	-11.8317
盛於	-11.8319
永世	-11.8321
私欲	-11.8322
有書	-11.8322
金蘭	-11.8322
賊級	-11.8322
百粤	-11.8322
萋萋	-11.8322
於堂	-11.8322
弇州續稿巻一百	-11.8323
不得巳	-11.8326
山空	-11.8328
是誠	-11.8328
誠意伯	-11.8328
董仲舒	-11.8328
何故	-11.8329
久已	-11.833
朔方	-11.833
民兵	-11.8331
聦	-11.8332
湖光	-11.8332
逺别	-11.8334
大中	-11.8335
立石	-11.8335
臼	-11.8335
都指揮僉事	-11.8336
引去	-11.8337
悼惜	-11.8338
了無	-11.8338
毬	-11.8338
同異	-11.8338
蒙恩	-11.8339
謄	-11.8339
懷抱	-11.8339
行禮	-11.8339
海鹽	-11.8339
給與	-11.834
二君子	-11.834
柴扉	-11.8341
一帙	-11.8342
前聞	-11.8342
小樓	-11.8342
二家	-11.8344
二句	-11.8344
孤村	-11.8344
長庚	-11.8344
亦謂	-11.8346
百物	-11.8346
予知	-11.8346
喜雨	-11.8346
劉郎	-11.8347
千尋	-11.8347
海虞	-11.8348
字廷	-11.8348
樹下	-11.8349
睢陽	-11.8349
融融	-11.835
係於	-11.8352
淺陋	-11.8352
甚悉	-11.8353
贈淑人	-11.8353
胸次	-11.8356
故常	-11.8356
不預	-11.8357
死節	-11.8358
千餘里	-11.8359
觀望	-11.8359
六籍	-11.836
未可知也	-11.8361
肉食	-11.8362
如洗	-11.8363
不悟	-11.8364
惟徳	-11.8365
一部	-11.8366
草亭	-11.8366
大敗	-11.8367
薄俗	-11.8367
為何如	-11.8368
不住	-11.8368
月朔	-11.837
宦途	-11.837
哉乃	-11.8371
易易	-11.8371
文臣	-11.8372
夏公	-11.8373
雖甚	-11.8374
㑹議	-11.8374
顯晦	-11.8376
游子	-11.8377
東吳	-11.8378
儼山集巻	-11.8379
二詩	-11.838
離筵	-11.838
天年	-11.838
禮記	-11.838
始獲	-11.8381
伉	-11.8382
子男二長	-11.8382
見訪	-11.8383
哉於是	-11.8385
有用	-11.8385
璠	-11.8385
否耶	-11.8385
一壺	-11.8385
四朝	-11.8385
縝	-11.8385
墨池	-11.8386
生我	-11.8386
三百餘	-11.8387
曆	-11.8388
棄捐	-11.8388
不嫌	-11.839
鑚	-11.839
覆載	-11.839
嵌	-11.8391
碍	-11.8391
峥嶸	-11.8391
始居	-11.8391
若干篇	-11.8392
是為序	-11.8392
須知	-11.8393
王維	-11.8394
無倦	-11.8394
不究	-11.8394
秋髙	-11.8394
於人也	-11.8394
而己	-11.8395
富者	-11.8396
也後世	-11.8396
泥塗	-11.8396
雲端	-11.8397
億萬	-11.8399
紅雲	-11.8399
桑田	-11.84
故名	-11.8402
千仭	-11.8404
稷契	-11.8405
睦族	-11.8405
畫中	-11.8405
未死	-11.8406
天下之治	-11.8407
子男三	-11.8408
教其子	-11.8408
所忌	-11.8409
乗興	-11.841
數百言	-11.8413
二十一年	-11.8413
成行	-11.8414
道家	-11.8414
高皇帝	-11.8414
兼有	-11.8417
殆有	-11.8417
雲松	-11.8418
閒身	-11.8419
養病	-11.8419
其忠	-11.842
固難	-11.842
數載	-11.8422
今始	-11.8426
各有所	-11.8427
道院	-11.8428
上清	-11.8428
勝事	-11.843
竹軒	-11.843
燈花	-11.843
真可	-11.8431
自矜	-11.8431
皇太后	-11.8432
海道	-11.8434
辟易	-11.8434
善治	-11.8434
到官	-11.8434
綺羅	-11.8436
大夏	-11.8439
林丘	-11.8439
苧	-11.8439
褚	-11.844
獷	-11.844
不支	-11.8441
漢陽	-11.8442
致用	-11.8442
登庸	-11.8442
畎畝	-11.8442
南中	-11.8443
斯亦	-11.8443
質直	-11.8444
琬琰	-11.8445
隨地	-11.8445
在當時	-11.8446
恡	-11.8446
賒	-11.8446
笑我	-11.8447
缾	-11.8447
生民之	-11.8447
徳化	-11.8447
未到	-11.8449
夜氣	-11.8449
黍稷	-11.8451
天南	-11.8451
膾	-11.8452
寧夏	-11.8454
儀真	-11.8454
邅	-11.8454
從君	-11.8454
荆榛	-11.8455
金盤	-11.8456
我歌	-11.8459
一紀	-11.8459
行吟	-11.8459
局促	-11.846
相愛	-11.8461
迨今	-11.8461
香火	-11.8463
自傷	-11.8464
奉常	-11.8464
若此者	-11.8467
陽侯	-11.8468
聖道	-11.8469
外舅	-11.8469
有日矣	-11.847
郎君	-11.847
渾無	-11.847
思家	-11.8471
更相	-11.8471
秘閣	-11.8471
紅樹	-11.8472
水濵	-11.8473
俟其	-11.8474
昆明	-11.8475
范文正公	-11.8475
輝映	-11.8476
市中	-11.8476
君實	-11.8477
就中	-11.8478
返照	-11.8478
世之所	-11.8479
徳善	-11.8479
子瞻	-11.848
善言	-11.848
亦不得	-11.848
時俗	-11.8481
下帷	-11.8481
的事	-11.8482
腎	-11.8482
之京	-11.8483
夜色	-11.8483
處世	-11.8487
句曲	-11.8487
放舟	-11.8487
金鑾	-11.8487
也古之	-11.8488
初六日	-11.8489
張仲	-11.849
元標	-11.8491
一處	-11.8492
禘	-11.8492
祠記	-11.8493
忘世	-11.8493
喘	-11.8494
處事	-11.8494
方來	-11.8496
賾	-11.8497
袵	-11.8497
農事	-11.8498
炤	-11.8498
瞶	-11.8499
妯娌	-11.85
千萬年	-11.85
竆	-11.8501
觚	-11.8501
中貴	-11.8501
異姓	-11.8501
故因	-11.8502
相告	-11.8502
晁	-11.8502
為戒	-11.8503
弹	-11.8503
於邑	-11.8504
青瑣	-11.8505
峨眉	-11.8509
之産	-11.851
尚方	-11.851
醫學	-11.851
髙節	-11.8511
引疾	-11.8512
昌言	-11.8513
二十二年	-11.8514
器用	-11.8515
莫先於	-11.8515
于道	-11.8515
土人	-11.8516
先生之文	-11.8517
浮梁	-11.8519
故敢	-11.852
留題	-11.8522
其親者	-11.8523
東里	-11.8524
之誅	-11.8524
同聲	-11.8526
攬衣	-11.8526
史稱	-11.8526
按部	-11.8526
則其所	-11.8527
老死	-11.8528
猶堪	-11.8529
三楹	-11.8529
酒熟	-11.8531
古樂府	-11.8532
公府	-11.8533
勒石	-11.8533
淮揚	-11.8534
口授	-11.8535
壯哉	-11.8535
湫	-11.8536
得非	-11.8537
驤	-11.8537
尊兄	-11.8537
假以	-11.8537
退休	-11.8537
河橋	-11.8539
綾	-11.8539
孝婦	-11.8539
通衢	-11.854
化工	-11.854
為士者	-11.854
勤慎	-11.854
友于	-11.8543
純孝	-11.8545
初八日	-11.8545
五言律詩	-11.8546
不可解	-11.8546
磧	-11.8546
冠盖	-11.8547
兵事	-11.8547
憂民	-11.8548
白虎	-11.8548
寡人	-11.8549
月旦	-11.8551
與衆	-11.8551
無傳	-11.8552
齊梁	-11.8552
窪	-11.8553
揀	-11.8554
古雅	-11.8555
紡績	-11.8555
昔人謂	-11.8555
最愛	-11.8556
弗稱	-11.8557
憲章	-11.8557
澤民	-11.8557
蒯	-11.8558
淘	-11.8558
未開	-11.8559
偶爾	-11.856
請教	-11.856
旒	-11.8561
霅	-11.8561
祠部	-11.8561
碑銘	-11.8562
比屋	-11.8563
先大父	-11.8563
伊人	-11.8564
京闈	-11.8565
鄖陽	-11.8566
唐氏	-11.8566
栖栖	-11.8566
棄其	-11.8566
治世	-11.8567
獨知	-11.8567
大地	-11.8568
弇州四部稿巻	-11.857
者衆矣	-11.857
不害	-11.8571
作歌	-11.8572
閒來	-11.8572
情事	-11.8572
御史臺	-11.8573
武城	-11.8573
恐有	-11.8574
三春	-11.8575
寄題	-11.8575
松雪	-11.8576
兩都	-11.8576
竊以	-11.8576
漢室	-11.8577
最久	-11.8577
駐馬	-11.8578
便可	-11.8578
康强	-11.8578
有味	-11.8578
為之銘	-11.8579
出竒	-11.8579
督臣	-11.8579
長鳴	-11.8581
塵外	-11.8581
大司農	-11.8581
儀曹	-11.8582
百憂	-11.8583
世譜	-11.8583
嘗試	-11.8585
獨酌	-11.8585
不能言	-11.8585
杖履	-11.8586
西河	-11.8586
六欽定四庫全書	-11.8586
寄贈	-11.8587
揆之	-11.8588
大族	-11.8589
滿堂	-11.8589
至於此	-11.8589
榴	-11.8589
北風吹	-11.8589
急難	-11.8591
即令	-11.8593
帶雨	-11.8593
千林	-11.8593
髙誼	-11.8593
咸淳	-11.8593
遠近	-11.8593
自娛	-11.8594
嵗晚	-11.8595
清晝	-11.8597
講堂	-11.8597
睫	-11.8598
呉江	-11.8599
夢覺	-11.86
天師	-11.8601
仲宣	-11.8602
蝦	-11.8602
冰雪	-11.8603
知之者	-11.8603
山水圖	-11.8603
練兵	-11.8603
身外	-11.8606
一尺	-11.8607
元亮	-11.8607
執紼	-11.8607
顔氏	-11.8608
安排	-11.8608
每一	-11.8608
㦯	-11.8608
行令	-11.8609
未須	-11.861
猶得	-11.861
楊友	-11.8611
瘴癘	-11.8611
其可以	-11.8612
皁	-11.8612
恧	-11.8612
熊羆	-11.8612
灤	-11.8613
晝錦	-11.8614
慰藉	-11.8614
斧斤	-11.8615
不敢自	-11.8615
老父	-11.8616
滁陽	-11.8617
適當	-11.8617
生辰	-11.8618
樓記	-11.8619
舉于鄉	-11.8619
推本	-11.8619
題其後	-11.862
藉手	-11.862
無有也	-11.862
所需	-11.8621
無咎	-11.8622
言之則	-11.8622
崛起	-11.8622
三年而	-11.8623
之遺意	-11.8624
折腰	-11.8625
無一言	-11.8625
精兵	-11.8625
分布	-11.8626
荒蕪	-11.8627
洞中	-11.8627
殁而	-11.8627
當事	-11.8631
山勢	-11.8632
千里外	-11.8632
者久之	-11.8634
蔬食	-11.8635
不可使	-11.8635
恩典	-11.8635
有力者	-11.8636
蜀人	-11.8637
以春秋	-11.8639
嗟爾	-11.864
書札	-11.864
曙色	-11.8641
元化	-11.8641
二人者	-11.8642
教民	-11.8642
之戚	-11.8645
萱草	-11.8645
理宗	-11.8647
新昌	-11.8647
孫男六	-11.8648
龍池	-11.8651
自修	-11.8652
功在	-11.8654
下逮	-11.8654
可悲	-11.8654
不謂之	-11.8654
視學	-11.8655
報功	-11.8655
網羅	-11.8656
三昧	-11.8657
二子長	-11.8657
癢	-11.866
鍾愛	-11.866
青樓	-11.8661
君子小人	-11.8662
醯	-11.8663
疽	-11.8663
不法	-11.8663
風教	-11.8663
飛霜	-11.8664
祟	-11.8664
孝弟忠信	-11.8664
臣工	-11.8665
金閨	-11.8665
因時	-11.8666
天之所以	-11.8666
瓛	-11.8668
大驚	-11.8668
蓐	-11.8668
墨蹟	-11.867
惻惻	-11.8671
蒲團	-11.8672
簫鼓	-11.8673
共事	-11.8675
文衡	-11.8677
而不及	-11.8678
阻風	-11.8679
視為	-11.8679
諸士子	-11.868
以詔	-11.8681
無忌	-11.8681
記其事	-11.8682
君看	-11.8682
[...]
