<unk>	0
<s>	0
</s>	0
/	-4.52204
之	-4.52792
(	-4.59855
)	-4.8637
以	-4.88972
為	-5.14213
者	-5.26199
於	-5.34703
其	-5.37773
而	-5.39729
有	-5.55856
一	-5.57565
及	-5.705
也	-5.72897
)(	-5.75439
至	-5.79448
人	-5.9234
不	-5.9689
則	-5.99921
曰	-6.01426
官	-6.01502
/)	-6.03304
上	-6.0431
二	-6.04812
三	-6.07107
▁	-6.14918
與	-6.14946
自	-6.15812
等	-6.16598
王	-6.1672
中	-6.18034
大	-6.18603
皆	-6.26095
時	-6.26849
行	-6.26902
在	-6.27709
所	-6.27984
子	-6.30327
如	-6.30754
各	-6.31085
又	-6.31282
無	-6.32167
用	-6.32417
四	-6.34804
臣	-6.39162
後	-6.41261
同	-6.42668
文	-6.47061
令	-6.49137
州	-6.49763
事	-6.50297
内	-6.50673
出	-6.52773
凡	-6.52775
○	-6.54235
五	-6.54946
下	-6.55809
入	-6.59266
今	-6.60193
縣	-6.61366
設	-6.64255
若	-6.67528
正	-6.6782
言	-6.68522
奏	-6.70548
將	-6.71183
前	-6.72253
山	-6.72402
應	-6.73068
明	-6.7336
兵	-6.74357
名	-6.74594
分	-6.74611
復	-6.74901
立	-6.75491
定	-6.75807
于	-6.77659
亦	-6.7801
禮	-6.78011
或	-6.7824
日	-6.78448
道	-6.7856
即	-6.79151
六	-6.8003
並	-6.80875
地	-6.8154
長	-6.81877
故	-6.82154
得	-6.83463
元	-6.83648
金	-6.84111
此	-6.84171
次	-6.84189
本	-6.85582
馬	-6.8564
國	-6.89679
書	-6.89865
見	-6.89908
使	-6.8999
軍	-6.90328
置	-6.90386
乃	-6.90915
南	-6.916
安	-6.91721
從	-6.92033
當	-6.92135
水	-6.92162
天	-6.94062
成	-6.94354
外	-6.94841
進	-6.95604
公	-6.9653
命	-6.96762
城	-6.97621
府	-6.97712
平	-6.9872
作	-6.98911
司	-7.00672
多	-7.0078
民	-7.01001
諸	-7.01384
重	-7.01623
門	-7.02304
合	-7.02353
請	-7.02507
西	-7.02757
已	-7.04747
九	-7.04937
八	-7.05137
方	-7.05634
通	-7.05908
生	-7.06361
是	-7.07228
非	-7.07867
法	-7.09963
一人	-7.09986
因	-7.10195
陳	-7.10403
初	-7.10541
東	-7.10707
年	-7.10974
樂	-7.11283
可	-7.11316
加	-7.11465
取	-7.11745
數	-7.11874
兩	-7.12177
服	-7.13011
封	-7.13133
俱	-7.13872
十	-7.14461
經	-7.1635
石	-7.16552
引	-7.17394
先	-7.17582
漢	-7.1816
周	-7.18384
河	-7.1869
徳	-7.18748
由	-7.18938
實	-7.19149
七	-7.20153
錢	-7.20813
每	-7.211
奉	-7.21551
相	-7.21991
知	-7.22627
字	-7.23915
小	-7.24176
謂	-7.24296
武	-7.24356
云	-7.24365
主	-7.24852
矣	-7.24919
惟	-7.2506
張	-7.255
未	-7.26613
氏	-7.26791
宜	-7.26797
祭	-7.26916
位	-7.26974
仍	-7.2712
稱	-7.28889
家	-7.29202
右	-7.29531
帝	-7.29553
黄	-7.30018
改	-7.30171
北	-7.30362
傳	-7.3058
興	-7.30909
舉	-7.3114
既	-7.3131
給	-7.31583
議	-7.31611
郡	-7.32217
宫	-7.3308
然	-7.34195
和	-7.3446
例	-7.34625
詔	-7.34646
開	-7.34704
省	-7.34714
髙	-7.35561
皇帝	-7.3604
宋	-7.36045
齊	-7.36365
共	-7.36609
屬	-7.37069
除	-7.37174
降	-7.37683
李	-7.37984
發	-7.38027
布	-7.38138
制	-7.39327
遂	-7.40278
古	-7.40654
新	-7.40718
三年	-7.40824
神	-7.4158
始	-7.41587
受	-7.41688
常	-7.41908
銀	-7.4209
路	-7.42565
均	-7.42838
廣	-7.42955
朝	-7.42993
部	-7.43573
必	-7.43724
任	-7.43834
唐	-7.44421
圖	-7.45199
授	-7.45592
清	-7.45805
白	-7.46148
居	-7.4629
二人	-7.46367
義	-7.47064
親	-7.47907
止	-7.4835
以下	-7.48459
歸	-7.48493
雖	-7.48641
舊	-7.48691
餘	-7.49151
賜	-7.49307
考	-7.499
焉	-7.50774
按	-7.51223
處	-7.51402
海	-7.5233
間	-7.52338
原	-7.52353
夫	-7.52946
照	-7.53359
營	-7.53436
龍	-7.53455
左	-7.53732
世	-7.53831
律	-7.54064
起	-7.54127
田	-7.54236
建	-7.54269
都	-7.54586
坐	-7.55183
陽	-7.55187
升	-7.553
工	-7.55482
月	-7.55732
户	-7.55976
隨	-7.56009
土	-7.5648
木	-7.5654
嵗	-7.56926
守	-7.56984
儀	-7.57234
玉	-7.57251
集	-7.57852
學	-7.58107
備	-7.58597
并	-7.58708
來	-7.59184
口	-7.59224
心	-7.59778
食	-7.59821
兼	-7.59967
去	-7.60329
理	-7.60349
廟	-7.60465
直	-7.60571
永	-7.60844
以上	-7.60902
著	-7.60938
管理	-7.61223
過	-7.6138
何	-7.617
士	-7.62553
具	-7.62703
治	-7.63143
撰	-7.63343
還	-7.6346
衛	-7.63575
爾	-7.63622
車	-7.64018
掌	-7.64521
光	-7.64613
聲	-7.64712
節	-7.65072
将	-7.65092
修	-7.65283
易	-7.65467
逺	-7.65711
領	-7.65936
佐領	-7.66005
欲	-7.66148
首	-7.66327
師	-7.6689
詣	-7.66961
乎	-7.6711
執	-7.67315
保	-7.6738
旗	-7.67812
且	-7.67934
載	-7.67978
詩	-7.68433
流	-7.68753
率	-7.69008
尚	-7.69678
度	-7.69748
特	-7.69762
宗	-7.7044
更	-7.70808
拜	-7.70838
盡	-7.71232
納	-7.71362
論	-7.71389
㑹	-7.71451
春	-7.72068
告	-7.72131
依	-7.72173
祀	-7.7231
交	-7.72368
承	-7.72377
侯	-7.72422
朕	-7.72878
以為	-7.7312
善	-7.73341
獻	-7.73526
代	-7.73918
遣	-7.74317
江	-7.7438
免	-7.7474
鎮	-7.74844
二年	-7.75609
風	-7.75762
左右	-7.7583
物	-7.75889
功	-7.75915
運	-7.76113
别	-7.76281
死	-7.7655
解	-7.7665
近	-7.76824
色	-7.77336
聖	-7.77502
青	-7.777
能	-7.7798
計	-7.78098
聞	-7.78201
畢	-7.78361
再	-7.78643
額	-7.78769
深	-7.78864
就	-7.79142
報	-7.79147
晉	-7.79314
角	-7.79494
陵	-7.79572
志	-7.79999
問	-7.80163
克	-7.80188
少	-7.80233
收	-7.80244
雲	-7.80245
章	-7.80354
劉	-7.80496
送	-7.80872
宣	-7.80898
衣	-7.81049
選	-7.81101
列	-7.81164
米	-7.81178
犯	-7.81408
管	-7.81743
殿	-7.81855
徴	-7.82018
御	-7.82502
典	-7.82565
補	-7.83497
據	-7.83578
林	-7.83894
班	-7.84416
衆	-7.84518
利	-7.84736
恭	-7.84972
襲	-7.84992
不能	-7.85136
監	-7.8519
皇后	-7.85274
思	-7.85391
案	-7.85414
天下	-7.85459
訖	-7.86463
全	-7.87317
但	-7.87497
紀	-7.87524
君	-7.87614
地方	-7.87678
號	-7.87759
音	-7.88047
充	-7.88182
視	-7.88215
科	-7.88407
不得	-7.88707
調	-7.88898
禁	-7.89175
卒	-7.89187
賊	-7.89538
尊	-7.8966
里	-7.90292
差	-7.90347
寧	-7.9054
夏	-7.91023
卷	-7.91044
萬	-7.91701
堂	-7.91872
祖	-7.92211
減	-7.92308
臨	-7.92369
寳	-7.9343
頭	-7.93655
史	-7.9369
益	-7.93952
増	-7.9396
廢	-7.94081
州縣	-7.94121
商	-7.9413
表	-7.94558
星	-7.9457
太	-7.95367
造	-7.95455
庫	-7.95656
昭	-7.95849
倉	-7.959
阿	-7.95916
達	-7.96379
難	-7.96747
伯	-7.96875
順	-7.96965
異	-7.97391
望	-7.97564
許	-7.97666
丁	-7.97746
/)(	-7.98075
附	-7.9811
我	-7.98141
諭	-7.98178
五年	-7.98197
酒	-7.98494
務	-7.98578
慶	-7.98787
爵	-7.98856
致	-7.99022
福	-7.99086
罪	-7.99335
吏	-7.9943
失	-7.99456
之人	-7.99813
梁	-7.99814
恩	-7.99832
秦	-7.999
元年	-7.99967
敬	-7.99968
十二	-8.00107
百	-8.00317
女	-8.00388
四年	-8.00961
朱	-8.01093
求	-8.01569
房	-8.0166
嘉	-8.02303
臺	-8.02311
闗	-8.02602
折	-8.02957
觀	-8.03078
羅	-8.03424
之妻	-8.03564
反	-8.0361
往	-8.0364
孫	-8.04102
試	-8.0427
詳	-8.04374
甚	-8.04558
不可	-8.04927
意	-8.04942
職	-8.05015
闕	-8.0513
猶	-8.05245
花	-8.05569
鹽	-8.0558
崇	-8.0603
皇	-8.06044
比	-8.06139
二十	-8.06179
身	-8.06528
存	-8.06791
仁	-8.06802
帶	-8.06943
退	-8.07049
華	-8.07078
濟	-8.07151
將軍	-8.07246
登	-8.0747
滿	-8.07539
船	-8.07557
冠	-8.0763
景	-8.07799
嚴	-8.07824
銅	-8.08763
格	-8.09069
罷	-8.09171
固	-8.09183
耳	-8.09325
悉	-8.09339
壇	-8.0951
鼓	-8.09684
勅	-8.09768
支	-8.10021
父	-8.10102
配	-8.10279
信	-8.10326
厚	-8.10328
追	-8.11174
赴	-8.11225
趙	-8.11432
遇	-8.11622
祝	-8.1215
象	-8.12229
私	-8.12473
留	-8.12737
被	-8.13129
糧	-8.13275
靈	-8.13372
甲	-8.13392
轉	-8.13774
遷	-8.14081
德	-8.1414
編	-8.14176
政	-8.14179
勒	-8.1434
申	-8.14547
鄉	-8.14908
力	-8.15137
條	-8.15433
移	-8.15904
火	-8.16448
昌	-8.16487
魏	-8.16633
總	-8.16663
殺	-8.16845
查	-8.16847
吉	-8.16901
積	-8.17282
類	-8.17491
體	-8.17512
教	-8.17552
役	-8.17645
有司	-8.17765
蓋	-8.17864
半	-8.18106
貴	-8.18289
毎	-8.18314
斯	-8.18427
對	-8.18468
咸	-8.1869
爲	-8.18742
室	-8.18817
向	-8.18927
端	-8.19394
簡	-8.19602
誠	-8.19719
雜	-8.19897
刑	-8.19908
之後	-8.20145
贊	-8.20339
高	-8.20673
寺	-8.20764
楊	-8.2083
署	-8.21163
足	-8.21221
孝	-8.21399
連	-8.21816
注	-8.21958
盛	-8.22122
六年	-8.22221
天子	-8.22245
歌	-8.22473
征	-8.22592
面	-8.22898
氣	-8.23066
良	-8.23354
從之	-8.23485
素	-8.23643
舞	-8.2376
該	-8.23863
印	-8.24767
記	-8.24966
秋	-8.25356
所以	-8.25379
辭	-8.25651
八旗	-8.25942
大臣	-8.25942
紅	-8.26106
序	-8.26237
戰	-8.26273
散	-8.26281
副	-8.26516
員	-8.26567
扵	-8.26654
忠	-8.26728
便	-8.26838
主人	-8.26936
尚書	-8.27067
川	-8.27127
魯	-8.27591
到	-8.27921
隆	-8.28031
曲	-8.2833
冊	-8.28782
貢	-8.29024
察	-8.29167
化	-8.29369
推	-8.29428
期	-8.29469
准	-8.2957
邊	-8.29953
賞	-8.30118
孔	-8.30154
十月	-8.30186
席	-8.302
資	-8.30245
祠	-8.30348
限	-8.30438
泰	-8.30643
輕	-8.30695
蘇	-8.31019
終	-8.31168
盖	-8.31211
變	-8.31482
謂之	-8.31591
施	-8.31791
獨	-8.32043
題	-8.32246
御史	-8.32424
係	-8.32455
籍	-8.32619
牛	-8.32642
郎	-8.32808
羣	-8.33338
楚	-8.33642
增	-8.33648
養	-8.33719
貫	-8.33799
之制	-8.33854
鄭	-8.33927
延	-8.34127
接	-8.34164
四人	-8.34327
動	-8.34518
徒	-8.34534
錫	-8.34779
官員	-8.35026
要	-8.35128
供	-8.35153
后	-8.35179
羽	-8.35446
草	-8.35681
極	-8.35725
母	-8.35739
兮	-8.36003
委	-8.36301
禮部	-8.36324
澤	-8.365
結	-8.36542
放	-8.36937
夀	-8.37314
情	-8.37374
屯	-8.37562
録	-8.37571
説	-8.37657
賔	-8.37735
越	-8.37792
嗣後	-8.38036
絶	-8.38151
騎	-8.38154
老	-8.38201
薦	-8.38236
手	-8.38324
習	-8.38538
皇太子	-8.38599
業	-8.38734
等處	-8.39231
卿	-8.39367
賢	-8.3942
權	-8.39693
篇	-8.39729
豐	-8.39915
戸	-8.39953
統	-8.39979
康	-8.40069
嗣	-8.40363
尋	-8.40406
勝	-8.40546
容	-8.40693
江南	-8.40749
三十	-8.40886
宿	-8.41025
寶	-8.41062
山東	-8.41065
博	-8.41125
射	-8.41182
繼	-8.41416
圍	-8.41677
久	-8.4174
跪	-8.41742
院	-8.41751
器	-8.41971
疏	-8.422
哉	-8.42218
行禮	-8.42241
市	-8.42246
垂	-8.4227
十二月	-8.42309
迎	-8.42327
恐	-8.42531
沙	-8.42685
富	-8.42691
末	-8.429
燕	-8.43036
亡	-8.43037
香	-8.43041
八月	-8.43069
徐	-8.43073
三月	-8.43115
太祖	-8.43186
曹	-8.43194
之例	-8.43221
賦	-8.43342
繫	-8.43346
庶	-8.43391
巴	-8.43466
威	-8.43476
回	-8.43616
䝉古	-8.43704
局	-8.4372
謹	-8.44279
之事	-8.44291
八年	-8.44424
盤	-8.44502
候	-8.44537
而不	-8.44735
兹	-8.44974
撥	-8.45174
十一月	-8.45302
赤	-8.45365
式	-8.45426
九月	-8.45718
嘗	-8.45985
擊	-8.46004
莫	-8.46067
予	-8.46362
七年	-8.46511
裁	-8.46692
𨽻	-8.4696
擬	-8.46979
等謹按	-8.47042
春秋	-8.47146
各一人	-8.47254
伊	-8.47271
畫	-8.47332
穆	-8.47477
種	-8.475
七月	-8.47635
葢	-8.47766
吳	-8.48034
河南	-8.48057
真	-8.4808
酌	-8.48215
来	-8.48252
果	-8.48424
第	-8.48424
關	-8.48485
京	-8.48586
親王	-8.48855
指	-8.48878
胡	-8.4899
刻	-8.49005
御製	-8.49073
豈	-8.49119
駐劄	-8.49184
享	-8.49335
肅	-8.49469
買	-8.49557
切	-8.49737
審	-8.49808
茶	-8.49817
斷	-8.50052
贈	-8.50132
於是	-8.50351
費	-8.50572
隊	-8.50611
革	-8.50771
約	-8.50923
改為	-8.50977
千	-8.50982
英	-8.5102
量	-8.51066
太子	-8.51262
妃	-8.51349
精	-8.51362
藏	-8.51635
獲	-8.51658
攻	-8.51658
諡	-8.51669
某	-8.5209
冬	-8.5222
辦	-8.52283
使者	-8.52462
大夫	-8.52517
六月	-8.52676
好	-8.52819
語	-8.52843
須	-8.52858
烏	-8.53014
謀	-8.53174
雅	-8.5324
奠	-8.53272
幸	-8.53281
厯	-8.53385
夜	-8.53633
珠	-8.53638
内外	-8.53811
俟	-8.54053
奏請	-8.54321
之禮	-8.54329
歲	-8.54624
三人	-8.54769
滿洲	-8.55178
為之	-8.55344
故以	-8.55388
泉	-8.55456
徵	-8.55493
傷	-8.56168
界	-8.56227
諸侯	-8.563
竒	-8.56487
課	-8.5679
雨	-8.56791
寛	-8.56998
五月	-8.57044
邑	-8.57049
停	-8.57076
稍	-8.57103
亭	-8.5746
品	-8.57703
目	-8.5775
錢糧	-8.57883
願	-8.58512
之法	-8.58534
九年	-8.58653
各省	-8.58658
瑞	-8.58742
讀	-8.5886
敵	-8.58939
維	-8.58956
之處	-8.59186
駕	-8.59271
四川	-8.59447
喪	-8.59653
鈔	-8.59861
亂	-8.60052
衞	-8.60061
懐	-8.60087
座	-8.60192
聽	-8.60286
朔	-8.60386
如有	-8.60387
郭	-8.60394
價	-8.60483
十年	-8.60541
協	-8.60582
專	-8.60727
以來	-8.61067
疑	-8.61078
徑	-8.61205
所謂	-8.61366
勤	-8.61637
符	-8.61764
社	-8.61811
東西	-8.62177
駐	-8.62353
至於	-8.62621
遺	-8.62641
隋	-8.62731
禄	-8.62732
湖	-8.62932
喜	-8.63181
夷	-8.63201
持	-8.63254
百官	-8.63268
乾	-8.63472
召	-8.63488
副都統	-8.63531
飾	-8.63544
畧	-8.63666
隂	-8.63701
適	-8.63861
塞	-8.6404
册	-8.64244
尺	-8.64394
乞	-8.64402
階	-8.64567
等官	-8.64602
惠	-8.64657
其後	-8.6473
之地	-8.64824
榮	-8.64975
乗	-8.6512
再拜	-8.6523
浙江	-8.65873
韓	-8.6591
陞	-8.66147
缺	-8.66361
揚	-8.66464
參	-8.66655
顯	-8.66695
祥	-8.66746
仲	-8.67542
勞	-8.67559
占	-8.67616
漸	-8.67622
哈	-8.67677
杖	-8.67757
督	-8.67785
陜西	-8.67827
四月	-8.67847
齋	-8.67852
破	-8.68006
遼	-8.68057
他	-8.68409
門外	-8.68566
所屬	-8.68834
魚	-8.68858
仰	-8.69173
洪	-8.69255
太廟	-8.69295
念	-8.69329
鑄	-8.69333
繡	-8.69402
閣	-8.6986
莊	-8.69871
而已	-8.69957
息	-8.70125
公主	-8.70193
伏	-8.70236
驛	-8.70401
羊	-8.70564
豆	-8.70692
柱	-8.70802
强	-8.70819
姓	-8.70924
五十	-8.71092
顧	-8.71274
彼	-8.71383
子孫	-8.71444
覆	-8.71829
京師	-8.71834
之數	-8.71874
不許	-8.72116
詞	-8.72259
税	-8.72273
庭	-8.72456
四十	-8.72529
横	-8.72537
竹	-8.72595
釋	-8.73016
乘	-8.73047
俗	-8.73174
皇上	-8.73281
假	-8.73309
館	-8.73445
允	-8.73516
輸	-8.73675
空	-8.7371
丞	-8.73788
進士	-8.73814
其餘	-8.73817
歴	-8.7389
紫	-8.73908
是以	-8.73931
謝	-8.74032
離	-8.74089
俾	-8.7411
葉	-8.74125
将軍	-8.74276
待	-8.74288
美	-8.74337
丹	-8.74396
可以	-8.74652
辦理	-8.74666
源	-8.74923
吾	-8.75104
直𨽻	-8.75139
督撫	-8.75144
敗	-8.75167
撫	-8.75178
殷	-8.75183
之時	-8.75212
寜	-8.75242
質	-8.75335
輿	-8.75649
園	-8.75673
野	-8.75727
井	-8.75845
雲南	-8.75919
郊	-8.75944
閲	-8.75986
尤	-8.76015
遣使	-8.76296
虞	-8.76331
俸	-8.76549
孟	-8.76626
農	-8.76723
樓	-8.77003
各一	-8.7709
以後	-8.77123
續	-8.77149
漢軍	-8.77282
者皆	-8.7738
唯	-8.77504
之子	-8.77584
吏部	-8.77645
旁	-8.77645
頂	-8.77883
一員	-8.779
場	-8.77962
户部	-8.78142
細	-8.78401
兵部	-8.78624
樂止	-8.78648
宮	-8.7868
完	-8.78768
眀	-8.78866
啟	-8.78976
索	-8.79326
姦	-8.79383
幣	-8.79388
才	-8.79568
責	-8.7958
十五	-8.79595
太宗	-8.79803
橋	-8.80047
校	-8.80089
大學士	-8.80207
災	-8.80256
賣	-8.80305
樹	-8.80362
筆帖式	-8.8045
弟	-8.80516
二月	-8.80584
示	-8.80627
殊	-8.80791
福建	-8.80899
盜	-8.81137
似	-8.81207
池	-8.81209
族	-8.81249
十六	-8.81288
辰	-8.81583
皮	-8.81763
奉㫖	-8.81812
飛	-8.81953
築	-8.81955
照例	-8.81982
準	-8.82044
妻	-8.82202
賓	-8.82206
䕶	-8.82252
懸	-8.82385
百姓	-8.82426
累	-8.82452
優	-8.82536
倫	-8.82902
𫝊	-8.82936
程	-8.82983
逐	-8.83129
是年	-8.83139
帥	-8.83148
借	-8.83181
訓	-8.83322
宗室	-8.83338
絲	-8.83458
壽	-8.83484
派	-8.83562
休	-8.83773
邉	-8.83792
誤	-8.83836
薨	-8.83891
松	-8.84007
昔	-8.8409
江西	-8.84269
虚	-8.84354
呼	-8.84416
牧	-8.84467
葬	-8.84641
一名	-8.8473
又有	-8.85003
分别	-8.85225
遵	-8.85233
牲	-8.85428
賛	-8.85471
蘭	-8.85533
惡	-8.85654
郡王	-8.85815
歳	-8.85837
急	-8.85868
榖	-8.86015
愛	-8.86022
舍	-8.86026
輪	-8.86224
虎	-8.863
識	-8.86381
罰	-8.86471
曽	-8.86543
婦	-8.86704
文武	-8.86733
侍郎	-8.86773
位於	-8.86878
都統	-8.86914
勿	-8.87006
各官	-8.87102
考試	-8.87215
鐵	-8.87312
之所	-8.87369
一卷	-8.87375
廷	-8.87425
呉	-8.87502
銜	-8.87529
鳯	-8.87665
一分	-8.87696
侍	-8.87713
六十	-8.87772
佐	-8.87813
哭	-8.87825
戒	-8.87833
溪	-8.87927
會	-8.87934
東南	-8.87938
所有	-8.88048
兵丁	-8.88189
叙	-8.88285
伐	-8.88303
三分	-8.88494
驗	-8.88548
每年	-8.88658
屢	-8.88662
不足	-8.88691
十一	-8.88742
者也	-8.88768
姑	-8.88868
循	-8.89103
徹	-8.89154
采	-8.89236
防	-8.89289
舒	-8.89315
倍	-8.89347
豫	-8.89677
先是	-8.89693
斗	-8.89798
斬	-8.89812
領催	-8.8983
至是	-8.90048
在京	-8.90238
形	-8.90374
靖	-8.90379
旱	-8.90388
不敢	-8.90574
朝廷	-8.90631
縱	-8.90832
人等	-8.90956
况	-8.90976
立於	-8.91053
展	-8.91107
黒	-8.91172
財	-8.91181
版	-8.91297
聴	-8.91361
微	-8.91446
宴	-8.91451
併	-8.91463
䝉	-8.91587
十三年	-8.91821
聚	-8.91826
一日	-8.91921
旋	-8.92038
刑部	-8.92043
秩	-8.92116
樂作	-8.92176
如此	-8.92641
専	-8.92651
純	-8.92686
産	-8.92692
巡	-8.92819
不及	-8.9282
縁	-8.92833
鼎	-8.93191
租	-8.93193
導	-8.93272
仗	-8.93365
蜀	-8.93509
一百	-8.93565
違	-8.93621
鳴	-8.93794
捧	-8.93822
寨	-8.93847
五分	-8.93878
勢	-8.93925
侍中	-8.9401
温	-8.94054
逆	-8.9408
上下	-8.94125
然後	-8.94155
拉	-8.9449
之意	-8.9452
賀	-8.94661
叔	-8.94715
憲	-8.94848
屋	-8.94887
盛京	-8.94933
錦	-8.9497
單	-8.95002
繁	-8.95059
雙	-8.95242
㫖	-8.95461
段	-8.9549
振	-8.95512
廣東	-8.95518
熟	-8.95521
頌	-8.95619
較	-8.95826
普	-8.95952
䇿	-8.96544
佛	-8.96609
圓	-8.96781
之日	-8.96784
句	-8.96895
决	-8.96968
咨	-8.9698
距	-8.97019
落	-8.97109
根	-8.97427
不知	-8.97553
害	-8.97584
西北	-8.97623
頃	-8.98254
感	-8.98254
逹	-8.98275
狀	-8.98318
擇	-8.98345
西南	-8.98387
衡	-8.9847
𢎞	-8.98478
不同	-8.98621
辨	-8.98628
滅	-8.98677
病	-8.98859
鍾	-8.98903
一年	-8.98989
躬	-8.99129
竊	-8.99134
巡撫	-8.99141
背	-8.99196
衙門	-8.99254
夾	-8.99269
三日	-8.99327
粟	-8.99401
貞	-8.99511
抵	-8.99546
杜	-8.99604
官兵	-8.99611
欽	-8.99724
十三	-8.99726
底	-8.99739
子弟	-8.99757
國家	-8.99775
頒	-8.99881
偽	-8.99956
儒	-8.99981
畝	-8.99991
敢	-9.00026
人員	-9.00116
慈	-9.00117
坊	-9.00188
製	-9.00341
環	-9.00385
述	-9.00464
負	-9.0067
耕	-9.00694
卜	-9.00817
太平	-9.00825
步	-9.00902
山西	-9.00973
䕶軍	-9.00994
稅	-9.01027
總督	-9.01071
南京	-9.0112
减	-9.01225
獄	-9.0139
預	-9.01549
皇太后	-9.01653
稽	-9.01722
鄂	-9.01751
干	-9.01849
勘	-9.01898
希	-9.01929
算	-9.01963
博士	-9.02078
勲	-9.0208
哀	-9.02123
茂	-9.02158
浮	-9.02292
太尉	-9.02367
五人	-9.02427
薄	-9.02531
侍衛	-9.02593
檢	-9.02628
十二年	-9.02707
奪	-9.02728
羣臣	-9.02819
湯	-9.02841
穀	-9.02866
堡	-9.02909
駐防	-9.03023
彌	-9.03164
湖廣	-9.03191
宏	-9.03423
最	-9.03625
履	-9.03683
戎	-9.03747
鐘	-9.03758
渠	-9.03841
徙	-9.03846
季	-9.03921
㕔	-9.04024
疾	-9.04199
工部	-9.04352
早	-9.04419
者亦	-9.04471
汝	-9.04514
助	-9.04589
毛	-9.04649
戴	-9.04748
付	-9.04971
介	-9.04996
恒	-9.05189
提督	-9.05216
一等	-9.05317
太常	-9.05479
客	-9.05577
屯田	-9.05583
塔	-9.05696
陸	-9.05766
第一	-9.05982
曾	-9.06009
誅	-9.06113
敏	-9.06185
板	-9.06211
致祭	-9.06484
以次	-9.06581
慎	-9.06589
性	-9.06693
欽此	-9.06834
鳳	-9.06852
舟	-9.06854
具奏	-9.06888
賑	-9.06966
一體	-9.06967
遣官	-9.07072
二百	-9.07211
諸王	-9.07225
宻	-9.07261
㑹同	-9.07397
刺史	-9.07446
東北	-9.07455
輔	-9.07461
叅	-9.07549
巾	-9.07631
敦	-9.07645
前後	-9.0766
之外	-9.0799
說	-9.08112
損	-9.08158
絹	-9.08237
夫人	-9.0829
赦	-9.08309
呈	-9.08399
故事	-9.08467
不必	-9.08559
弗	-9.08613
招	-9.08647
三百	-9.08667
慮	-9.08812
塲	-9.08862
之南	-9.08872
敕	-9.09073
貨	-9.09121
尾	-9.0925
収	-9.09275
皇子	-9.09424
䘮	-9.09446
決	-9.09552
觧	-9.09552
宗廟	-9.0956
烈	-9.09812
逃	-9.09899
淮	-9.09908
嘉靖	-9.09956
大小	-9.09979
乆	-9.10024
於此	-9.1009
副使	-9.10102
毁	-9.10112
壩	-9.10117
歩	-9.10142
凖	-9.10274
輦	-9.10324
聖祖仁皇帝	-9.10343
佳	-9.10454
之類	-9.1052
窮	-9.10579
傅	-9.10654
斤	-9.10736
刀	-9.10759
弓	-9.1085
仙	-9.10903
材	-9.10975
究	-9.11039
境	-9.11144
之間	-9.11157
添	-9.11238
廣西	-9.1143
父母	-9.11471
畨	-9.11528
避	-9.11649
妄	-9.11859
十四	-9.11863
随	-9.12007
六人	-9.12125
叛	-9.12137
八人	-9.12285
不過	-9.12365
二分	-9.12377
荒	-9.12394
之儀	-9.12472
邦	-9.12681
厰	-9.12705
郎中	-9.12744
桑	-9.1281
囚	-9.12917
揖	-9.1293
尸	-9.12935
蔡	-9.12942
韻	-9.13136
盗	-9.13148
雷	-9.13204
直省	-9.13283
十五年	-9.13333
棄	-9.13539
不行	-9.13641
徃	-9.13675
出入	-9.13819
討	-9.13831
趨	-9.13872
一次	-9.139
寒	-9.13935
吕	-9.13985
官吏	-9.14061
那	-9.1425
頗	-9.14284
偏	-9.1432
以備	-9.14371
勸	-9.14492
民間	-9.14541
唱	-9.1486
十一年	-9.15049
司馬	-9.15203
翼	-9.15267
什	-9.15312
蕭	-9.15325
沈	-9.15475
范	-9.15679
瞻	-9.15703
南北	-9.15749
判	-9.15805
項	-9.15874
祭祀	-9.15898
二等	-9.15941
投	-9.16084
震	-9.16093
懷	-9.16123
鴻	-9.16124
囘	-9.16147
麟	-9.16201
祗	-9.16293
十四年	-9.16343
陛下	-9.16616
武帝	-9.16686
第二	-9.16708
零	-9.16713
採	-9.16787
禮畢	-9.16793
速	-9.1699
天地	-9.17067
僅	-9.17145
舉人	-9.17318
堪	-9.17395
束	-9.1748
𤣥	-9.17534
牙	-9.1762
谷	-9.17722
麥	-9.17734
正月	-9.17808
講	-9.1805
壁	-9.18159
袍	-9.18304
襄	-9.18311
汛	-9.18335
提	-9.18493
堅	-9.18537
十八	-9.18587
洛	-9.18599
饑	-9.18759
而後	-9.18839
周禮	-9.18869
僧	-9.18886
綱	-9.18909
毋	-9.19018
黑	-9.19337
雍	-9.19346
雄	-9.19388
堯	-9.19523
▁(	-9.19592
丞相	-9.1979
日月	-9.19864
即位	-9.20025
牌	-9.20052
村	-9.20236
是也	-9.20274
十人	-9.20309
赫	-9.20367
嶺	-9.20372
盧	-9.2048
錄	-9.20612
攝	-9.20626
熙	-9.20664
番	-9.20677
地方官	-9.20697
苑	-9.20749
標	-9.20906
竟	-9.20983
捕	-9.20995
明年	-9.21046
饌	-9.21116
援	-9.21124
一切	-9.21129
蠻	-9.2114
貝勒	-9.21155
帛	-9.21343
南向	-9.21471
洞	-9.21545
料	-9.21586
贖	-9.21674
州府	-9.21694
毆	-9.21733
筆	-9.21935
却	-9.21996
密	-9.21999
總管	-9.22006
等項	-9.22011
岳	-9.22016
二十四	-9.22041
太祝	-9.22217
啓	-9.22284
竢	-9.2231
俎	-9.22612
國公	-9.22625
覺	-9.22842
弊	-9.22842
大將軍	-9.22913
侵	-9.23064
喇	-9.23151
在外	-9.23287
中書	-9.23333
扇	-9.23398
絃	-9.23408
男	-9.23431
丈	-9.2344
十六年	-9.2348
以致	-9.23536
策	-9.2358
其所	-9.23621
津	-9.2368
救	-9.23692
四分	-9.23733
員外郎	-9.23744
岱	-9.23947
復位	-9.24043
漕	-9.24087
之義	-9.24259
略	-9.24311
厥	-9.24384
秀	-9.24415
皆有	-9.24742
濫	-9.24777
崩	-9.24886
幾	-9.24932
八分	-9.25023
陳設	-9.25105
兄弟	-9.25121
騐	-9.25215
亦如之	-9.25296
麻	-9.25377
主事	-9.25396
塘	-9.2547
露	-9.25541
生員	-9.25572
患	-9.25726
規	-9.25838
未有	-9.25971
令其	-9.26287
奔	-9.26465
匹	-9.26629
三等	-9.26659
擢	-9.26668
孔子	-9.2668
顔	-9.26697
瓦	-9.2674
乾隆	-9.26807
契	-9.26877
效	-9.26885
裕	-9.26912
貯	-9.26996
飲	-9.27
恵	-9.27044
贓	-9.27132
婦人	-9.27179
蒙古	-9.27334
湖南	-9.27417
執事	-9.27465
乙	-9.27736
機	-9.27879
勇	-9.27982
紹	-9.27997
貴州	-9.28075
者以	-9.28309
隠	-9.28339
邪	-9.28395
黨	-9.28416
懿	-9.28497
開元	-9.28522
陣	-9.28594
同知	-9.28681
㸃	-9.28802
裏	-9.28858
董	-9.28988
驍騎	-9.29053
四方	-9.29211
圗	-9.29225
走	-9.29334
属	-9.29405
賤	-9.29496
東向	-9.29499
紙	-9.2958
河東	-9.29642
兆	-9.29716
藥	-9.29827
帳	-9.29951
黃	-9.30011
墨	-9.3004
七十	-9.30076
二名	-9.30233
西向	-9.30375
險	-9.3049
濶	-9.30662
基	-9.30773
芳	-9.30888
無所	-9.30996
八十	-9.31
勾	-9.31003
藩	-9.31095
守備	-9.3124
洪武	-9.31334
十八年	-9.31433
尉	-9.31482
看	-9.31702
之道	-9.31739
又以	-9.31743
校尉	-9.31879
綿	-9.31937
畆	-9.32016
苦	-9.32065
住	-9.32176
禹	-9.32251
冒	-9.32286
學士	-9.32435
側	-9.3246
倘	-9.32608
謁	-9.32612
徧	-9.32631
逢	-9.32769
治罪	-9.32827
各處	-9.33076
其事	-9.33374
寢	-9.33795
是日	-9.34116
酌量	-9.34134
韋	-9.34155
六分	-9.34165
紹興	-9.34174
育	-9.34343
陛	-9.34435
兒	-9.34436
蕃	-9.34438
故以其子	-9.34466
有竒	-9.34504
佩	-9.34597
緑	-9.34678
從前	-9.34694
蠲	-9.34701
亦有	-9.34707
遊	-9.34748
引見	-9.34761
憂	-9.34776
綬	-9.34815
答	-9.34824
其子	-9.34931
北向	-9.34934
停止	-9.34938
明堂	-9.35093
以上者	-9.35245
爰	-9.35301
甫	-9.35547
註	-9.3589
催	-9.35976
為一	-9.36112
用之	-9.3618
矢	-9.36191
欽定四庫全書	-9.36197
七分	-9.36437
以前	-9.36703
給與	-9.36715
旌	-9.36759
溝	-9.36778
遲	-9.36878
神主	-9.36943
暨	-9.37012
飭	-9.37069
衍	-9.3711
革職	-9.37118
隔	-9.37135
禘	-9.37147
山川	-9.37243
銷	-9.37262
懼	-9.37302
滋	-9.37424
其地	-9.3752
初獻	-9.37544
甘肅	-9.37596
箭	-9.37629
所司	-9.37637
馳	-9.37713
藉	-9.37716
宰相	-9.37719
司徒	-9.37859
綏	-9.37901
邱	-9.3805
智	-9.38096
洗	-9.38285
倚	-9.3855
之東	-9.38657
敷	-9.38723
尼	-9.38736
孤	-9.38745
朝服	-9.38759
王公	-9.38763
廵	-9.38797
皆以	-9.38803
<	-9.38934
t	-9.38935
="33"/>	-9.38936
崔	-9.39041
之屬	-9.39163
賴	-9.3939
奏聞	-9.39438
寄	-9.39584
值	-9.39601
聖人	-9.39697
逸	-9.39765
驍騎校	-9.39776
斛	-9.39789
雪	-9.39863
蒼	-9.40032
太后	-9.40086
鹿	-9.40183
包	-9.40227
盈	-9.4029
栁	-9.40383
畏	-9.40563
覽	-9.40567
肆	-9.4059
各有	-9.40615
長安	-9.40798
墓	-9.40884
線	-9.4098
鼔	-9.41023
忽	-9.41053
輕重	-9.4109
托	-9.41178
閘	-9.41326
萬年	-9.41385
内務府	-9.41428
刺	-9.41468
彭	-9.41641
珍	-9.41667
渾	-9.417
三公	-9.4177
麗	-9.41799
至元	-9.41807
太常寺	-9.41825
爭	-9.41836
世職表	-9.42015
祈	-9.42089
有差	-9.42099
也今	-9.42103
幽	-9.42248
甘	-9.42284
二縣	-9.42404
捐	-9.42438
譜	-9.42473
薩	-9.4248
牒	-9.42555
有所	-9.42559
康熈	-9.42674
□	-9.4276
静	-9.42919
耶	-9.43052
輅	-9.43154
愈	-9.43167
内侍	-9.43194
庸	-9.43211
具題	-9.43298
諸州	-9.43322
執事者	-9.43585
稽察	-9.43599
舊制	-9.43615
五百	-9.43643
後漢	-9.43662
姓名	-9.43709
十七年	-9.43738
吹	-9.43742
第三	-9.43756
翟	-9.43847
之中	-9.43867
擅	-9.43891
賈	-9.43974
卑	-9.44078
儲	-9.44102
游	-9.44187
黎	-9.44309
之内	-9.44386
荘	-9.44387
諸臣	-9.44412
十七	-9.44434
又定	-9.44625
前鋒	-9.44776
伍	-9.44825
二十年	-9.44825
仕	-9.44837
之西	-9.44878
輝	-9.44889
九分	-9.44953
尹	-9.45003
當時	-9.45083
璧	-9.45083
遇有	-9.45088
之官	-9.45145
塗	-9.45175
二十五	-9.45204
叅領	-9.45294
都司	-9.45399
操	-9.45423
萬厯	-9.45488
緩	-9.45548
二員	-9.45743
之樂	-9.45759
雞	-9.45774
兄	-9.45843
人犯	-9.45877
纂	-9.45888
施行	-9.46028
辟	-9.46068
糴	-9.46183
抑	-9.462
饗	-9.46305
二卷	-9.46311
之上	-9.46393
鋪	-9.46428
騰	-9.46446
自是	-9.46501
三千	-9.46555
只	-9.46615
肉	-9.46758
舍人	-9.46815
承襲詳	-9.4683
台	-9.47042
扶	-9.47115
罕	-9.47172
術	-9.47191
有功	-9.47276
社稷	-9.47303
冬至	-9.47328
析	-9.47429
屈	-9.47452
給事中	-9.47461
鳥	-9.47573
本朝	-9.47616
彦	-9.47625
秉	-9.47749
蒲	-9.4777
衰	-9.47791
壯	-9.47922
豪	-9.48004
批	-9.48084
謙	-9.48087
行事	-9.48124
不復	-9.48133
典禮	-9.48138
礮	-9.48162
儀注	-9.48257
俊	-9.48322
死者	-9.48466
潔	-9.48475
陶	-9.48503
弱	-9.48555
太常卿	-9.48601
黄鍾	-9.48614
排	-9.48762
僕	-9.48779
奏准	-9.48779
又設	-9.48912
舜	-9.48993
琴	-9.49022
渡	-9.49025
遠	-9.49089
帖	-9.49278
淵	-9.49411
笙	-9.4942
知縣	-9.49509
行之	-9.49597
滿漢	-9.49691
拘	-9.49691
亮	-9.49705
北面	-9.49715
膺	-9.49749
並無	-9.4988
祖宗	-9.49906
㣲	-9.50126
之名	-9.50166
波	-9.50263
屏	-9.50275
油	-9.50276
宅	-9.50329
漏	-9.50394
中國	-9.50438
謹按	-9.50485
筵	-9.50524
卓	-9.50674
一曰	-9.50774
己	-9.50812
短	-9.50921
之神	-9.50927
一出	-9.50933
命婦	-9.50951
匠	-9.51136
廵撫	-9.51302
淺	-9.51356
押	-9.51448
核	-9.51455
創	-9.51475
獸	-9.51546
鄧	-9.51618
冀	-9.51704
臣等	-9.5182
圭	-9.51896
匈奴	-9.51921
另	-9.51954
現	-9.51974
練	-9.52004
寵	-9.52108
輯	-9.52135
古今	-9.52153
超	-9.5222
車駕	-9.52289
貧	-9.52314
冦	-9.52343
皇考	-9.52395
復置	-9.52401
従	-9.52466
旦	-9.5251
國子監	-9.5252
沒	-9.52559
戍	-9.52638
隸	-9.52665
之心	-9.52792
虛	-9.52804
軍民	-9.52825
哲	-9.52882
荆	-9.52889
架	-9.52912
㕘	-9.52947
夕	-9.53032
藍	-9.53065
䖍	-9.53306
垣	-9.53329
愚	-9.53362
晋	-9.53443
馬匹	-9.53467
籌	-9.53496
監察御史	-9.53568
謨	-9.53608
疏言	-9.53626
本年	-9.53656
綴	-9.53776
含	-9.53801
一時	-9.53867
旗人	-9.53914
亞獻	-9.53987
貪	-9.54041
其中	-9.54079
九十	-9.54108
弼	-9.54216
得㫖	-9.54216
處分	-9.54255
文武官	-9.54261
喀	-9.5434
之前	-9.54668
夲	-9.54682
亷	-9.54818
禪	-9.54851
未經	-9.54892
主簿	-9.54899
貸	-9.5505
錯	-9.55085
遞	-9.55306
一月	-9.55332
寸	-9.55352
危	-9.55365
覺羅	-9.5538
成化	-9.55464
欠	-9.55474
未嘗	-9.55498
暴	-9.5551
齡	-9.55659
而無	-9.55689
訪	-9.55713
舉行	-9.55768
泥	-9.55802
不在	-9.55805
二十二年	-9.55834
帯	-9.55955
冕	-9.55972
禮部尚書	-9.56061
鹵簿	-9.56276
詐	-9.56323
防禦	-9.56395
枝	-9.56444
逮	-9.56474
徽	-9.56493
柄	-9.56602
三品	-9.56605
蒙	-9.56619
挑	-9.5669
現在	-9.56738
何以	-9.56744
内有	-9.56797
笛	-9.56858
街	-9.56923
之説	-9.57046
柴	-9.57078
是時	-9.57107
即行	-9.57149
曉	-9.57149
馮	-9.57193
髙祖	-9.57274
餉	-9.57382
㕘領	-9.57537
胥	-9.57565
河北	-9.57601
以聞	-9.57613
簫	-9.57618
之北	-9.57657
者為	-9.57668
植	-9.57705
官軍	-9.57754
賞給	-9.57934
隄	-9.57941
碑	-9.57962
之家	-9.58021
漆	-9.58052
暫	-9.582
幹	-9.58203
大同	-9.5821
妾	-9.58263
三十六	-9.58296
繩	-9.58313
篤	-9.58373
指揮	-9.58381
太和	-9.5839
内府	-9.58589
或有	-9.58623
數目	-9.58628
軒	-9.58641
榜	-9.58698
漢人	-9.58705
證	-9.58709
後世	-9.58756
醫	-9.58763
又議準	-9.58888
彰	-9.58997
稷	-9.59029
衝	-9.59072
脚	-9.59107
緣	-9.59178
荷	-9.59192
黍	-9.59257
丘	-9.59339
上帝	-9.59406
噶	-9.59463
郡國	-9.59464
亦不	-9.59518
扣	-9.59527
璽	-9.59528
位于	-9.59657
讓	-9.59763
繪	-9.59802
姚	-9.59892
洽	-9.59921
阜	-9.59981
桂	-9.60001
潛	-9.60049
之用	-9.60061
篚	-9.60156
釋奠	-9.60248
樂章	-9.60251
阻	-9.6032
司官	-9.6049
龜	-9.60542
寫	-9.60788
者即	-9.60792
如初	-9.60793
品級	-9.60822
童	-9.60881
祿	-9.60919
所在	-9.61117
千總	-9.61169
一百二十	-9.61263
截	-9.6128
諱	-9.61442
伊等	-9.61572
級	-9.61614
有餘	-9.61621
諸路	-9.61654
侍衞	-9.61667
祭酒	-9.61678
知府	-9.61731
彚	-9.61742
焚	-9.61784
郡縣	-9.61909
苗	-9.62033
制度	-9.62074
者各	-9.62218
十九年	-9.62234
東面	-9.62409
匪	-9.62467
輒	-9.62522
行走	-9.62641
五千	-9.62646
之弊	-9.62663
仁宗	-9.62675
聼	-9.62735
誣	-9.6281
仍令	-9.62826
籩豆	-9.62848
五品	-9.62869
扎	-9.62887
入官	-9.63083
弦	-9.63105
獻官	-9.63126
各二	-9.63132
疆	-9.63255
永樂	-9.63303
諸司	-9.63323
祚	-9.63331
不用	-9.63335
估	-9.63396
前一日	-9.63433
藻	-9.63443
之文	-9.63538
若干	-9.63739
桓	-9.63809
斂	-9.63884
閒	-9.63891
後魏	-9.63899
神位	-9.639
如常	-9.64008
輙	-9.64128
綵	-9.64184
佑	-9.64232
本部	-9.64278
各二人	-9.64308
貞觀	-9.6431
穿	-9.64426
藝	-9.64597
不應	-9.64615
監生	-9.64642
警	-9.64931
每嵗	-9.64947
骨	-9.6501
五日	-9.65121
國朝	-9.65131
長官司	-9.65209
誘	-9.65243
翰林	-9.65323
如常儀	-9.65367
事務	-9.65369
宰	-9.65383
沛	-9.65406
歡	-9.65415
脱	-9.65417
整	-9.6545
纛	-9.65501
西面	-9.65624
饒	-9.65675
尚書省	-9.65701
如儀	-9.65825
熊	-9.65868
又曰	-9.65879
齎	-9.65957
世職	-9.65977
宇	-9.65982
雖有	-9.66003
内閣	-9.66063
余	-9.66082
教習	-9.6611
潤	-9.66191
虧	-9.66194
怨	-9.66223
行宫	-9.66281
浦	-9.66382
世祖	-9.66402
之下	-9.66455
肇	-9.66609
所用	-9.66663
婚	-9.66717
簿	-9.6675
隻	-9.66797
銀兩	-9.6683
無不	-9.66836
齒	-9.66856
把	-9.66856
四品	-9.66871
洋	-9.66893
節度使	-9.66973
籩	-9.67222
鑒	-9.67247
單于	-9.67252
定例	-9.67263
直隸	-9.67282
布政司	-9.67385
大功	-9.67473
掠	-9.67501
該管官	-9.67575
其國	-9.67679
南郊	-9.67701
湖北	-9.67719
瑪	-9.67772
靡	-9.67875
十九	-9.67941
二十一年	-9.6796
包衣	-9.68034
測	-9.6804
中外	-9.68157
換	-9.68157
桃	-9.68309
之士	-9.68526
文帝	-9.68549
韶	-9.68556
次之	-9.68678
民人	-9.68737
陰	-9.68743
祔	-9.68782
莫不	-9.68799
祐	-9.68909
儀仗	-9.68997
恪	-9.69021
掩	-9.69146
奉天	-9.69161
太學	-9.69468
不敷	-9.69547
友	-9.69551
覈	-9.69768
淳	-9.69953
羣官	-9.7001
所載	-9.70015
朝鮮	-9.70023
廬	-9.70027
帷	-9.70047
喀爾喀	-9.70136
偕	-9.70138
者照	-9.70247
幕	-9.70292
貼	-9.70435
並同	-9.70563
京城	-9.70647
拜位	-9.70768
補用	-9.70775
困	-9.70841
憑	-9.70887
御書	-9.70964
十分	-9.71053
官司	-9.71163
鮮	-9.71189
範	-9.71203
割	-9.71303
僉	-9.71355
耀	-9.71381
郊祀	-9.71382
凝	-9.71383
若有	-9.71517
途	-9.71525
没	-9.7161
委官	-9.71631
擒	-9.71646
正中	-9.71767
争	-9.71815
勉	-9.71816
陷	-9.71822
五色	-9.719
歴代	-9.71903
寅	-9.71956
飯	-9.72038
擾	-9.72083
糶	-9.72273
實以	-9.72333
裳	-9.72344
都督	-9.7237
黙	-9.72417
括	-9.72422
需	-9.72493
二千	-9.72549
際	-9.7255
其有	-9.72604
二十三年	-9.7268
緯	-9.72738
十有二	-9.72752
神位前	-9.72795
欣	-9.72831
託	-9.72834
先後	-9.72856
雍正元年	-9.72908
睿	-9.73063
澄	-9.73125
之舞	-9.73173
披	-9.73214
皂	-9.73244
鞭	-9.73258
通行	-9.73401
遜	-9.73468
歛	-9.73527
鼓吹	-9.73546
頓	-9.73564
名曰	-9.73636
之言	-9.73742
三十年	-9.73743
通判	-9.73772
壺	-9.7379
奸	-9.73794
互	-9.73817
茍	-9.73925
獵	-9.73967
世居	-9.74008
梅	-9.74027
天津	-9.74055
踰	-9.74122
不合	-9.74204
𢎞治	-9.74265
禮成	-9.74413
縣界	-9.74454
一千	-9.74525
從祀	-9.74532
疋	-9.7458
䕶軍校	-9.74587
四名	-9.74628
羌	-9.74629
膳	-9.74634
吴	-9.74641
追封	-9.74654
堤	-9.74695
曠	-9.74716
罇	-9.74797
償	-9.74802
健	-9.74965
君子	-9.74969
萬夀	-9.74997
偶	-9.75002
午	-9.75021
觔	-9.7505
輔國公	-9.75208
武職	-9.75213
暢	-9.7528
舊例	-9.7531
内監	-9.7536
葛	-9.75481
昏	-9.75537
两	-9.75562
每月	-9.75613
察哈爾	-9.75711
提舉	-9.75732
之分	-9.75766
詳見	-9.75852
坤	-9.75856
北齊	-9.7587
祇	-9.75902
遥	-9.75922
翰	-9.76032
使副	-9.7604
邁	-9.76092
康熙	-9.76108
等謹案	-9.76122
㤗	-9.76162
二十六年	-9.76207
邀	-9.7626
者謂	-9.76285
奏言	-9.76292
禮樂	-9.76303
訛	-9.76363
二十七年	-9.764
之左	-9.76457
公卿	-9.76531
褒	-9.76706
金銀	-9.76725
和碩	-9.76763
劍	-9.76789
刋	-9.76847
融	-9.76927
内地	-9.76955
前代	-9.77079
遁	-9.77092
起居	-9.77136
四百	-9.77249
績	-9.7728
耗	-9.77302
乏	-9.77334
六品	-9.77374
則有	-9.77406
周公	-9.7742
次引	-9.77519
諸軍	-9.77596
不為	-9.77632
)○	-9.77654
悦	-9.77693
煩	-9.77705
辛	-9.77708
二十四年	-9.7774
十日	-9.7789
該管	-9.7793
城縣	-9.78077
鉛	-9.78105
効力	-9.78119
戸部	-9.78147
燭	-9.78164
設立	-9.78186
此等	-9.7819
免其	-9.78252
溢	-9.78346
謬	-9.78405
契丹	-9.78457
總兵	-9.78488
地畝	-9.78508
薛	-9.78512
誕	-9.78561
閱	-9.78623
旅	-9.78638
几	-9.78725
禮儀	-9.78728
陣亡	-9.78879
區	-9.7892
四卷	-9.78929
又覆準	-9.78929
誦	-9.79059
以示	-9.79072
門内	-9.79075
正統	-9.79087
府州縣	-9.79096
巖	-9.79138
禮官	-9.79188
七人	-9.79193
從征	-9.79212
填	-9.79228
脩	-9.79239
忘	-9.79274
寕	-9.79335
五帝	-9.79354
占曰	-9.79422
世宗憲皇帝	-9.79504
鄉試	-9.79601
沐	-9.79709
攸	-9.7979
磬	-9.79808
甸	-9.7983
禦	-9.7988
二十五年	-9.79906
諾	-9.79922
之罪	-9.79924
汪	-9.79964
欵	-9.79992
南面	-9.80022
以其	-9.80024
祝版	-9.80074
匿	-9.80142
厲	-9.8018
甲子	-9.80244
釐	-9.80268
諫	-9.80333
幄	-9.80454
舎	-9.80581
翠	-9.80616
在前	-9.80705
禱	-9.80793
劾	-9.80845
功臣	-9.80901
銓	-9.80924
緒	-9.81005
等物	-9.81018
峯	-9.81028
就位	-9.81066
驚	-9.8116
隨時	-9.81229
層	-9.81242
今年	-9.8133
鶴	-9.8133
爾等	-9.81415
古者	-9.8145
嵩	-9.81466
附近	-9.81508
鏡	-9.81542
幼	-9.81581
慰	-9.81603
𦵏	-9.81676
䟽議曰	-9.81687
抄	-9.81695
受命	-9.81706
削	-9.81754
織	-9.818
各設	-9.81814
孰	-9.81847
旬	-9.81868
遼東	-9.81925
樞	-9.8193
巨	-9.81975
長子	-9.81994
陞任	-9.82009
迴	-9.82032
打	-9.8209
閩	-9.82189
翁	-9.82222
議處	-9.8223
者則	-9.82261
増設	-9.82299
少卿	-9.82337
壊	-9.82382
陪	-9.82462
二日	-9.82485
怒	-9.82528
耆	-9.82572
隱	-9.82601
判官	-9.82619
商人	-9.8267
第四	-9.82679
為民	-9.82774
黜	-9.82786
大定	-9.82792
是為	-9.82839
一百五十	-9.82849
欽定	-9.82908
其間	-9.83016
訥	-9.83058
者有	-9.83067
亨	-9.83068
旂	-9.83128
先期	-9.83143
三名	-9.83188
影	-9.83246
確	-9.83307
拒	-9.83371
陽縣	-9.83394
恃	-9.83469
血	-9.83489
燎	-9.8355
欺	-9.83564
俛伏興	-9.83583
州刺史	-9.83631
凶	-9.83645
承襲	-9.83649
元豐	-9.8365
素服	-9.83666
㦸	-9.83738
蠲免	-9.83744
長史	-9.83849
一例	-9.83856
鬼	-9.83867
濬	-9.83916
鄰	-9.83922
太原	-9.83925
五代	-9.83949
太守	-9.83963
太白	-9.83969
站	-9.83969
江蘇	-9.84034
揚州	-9.84035
頻	-9.84139
祧	-9.84307
弔	-9.84444
四時	-9.84571
弩	-9.84696
縁事革退以	-9.84703
殘	-9.84704
爼	-9.84724
工程	-9.8473
二十九年	-9.84756
壞	-9.84783
詠	-9.84872
朗	-9.84877
户口	-9.84913
逾	-9.84914
大将軍	-9.84966
恤	-9.85032
弁	-9.85095
四海	-9.85119
奴婢	-9.85235
登歌	-9.85368
師古曰	-9.85384
部議	-9.85398
已經	-9.85446
牀	-9.85454
嫁	-9.85462
㡬	-9.85529
各衙門	-9.85536
監督	-9.8554
緞	-9.85553
縣令	-9.85609
西安	-9.85928
奮	-9.85965
雍正	-9.85966
自後	-9.85979
毅	-9.85992
御史臺	-9.86066
汗	-9.86093
黄河	-9.86115
千里	-9.86122
應用	-9.86143
往往	-9.86149
抱	-9.86164
蘓	-9.862
縀	-9.86211
我皇上	-9.86216
九卿	-9.86257
軍器	-9.86281
絳	-9.86298
通州	-9.8632
千户所	-9.86343
副將	-9.86344
二十八	-9.86355
懋	-9.86364
協領	-9.86383
淑	-9.86471
之孫	-9.86491
二十七	-9.86518
内大臣	-9.86551
公服	-9.86571
出於	-9.86649
二十八年	-9.86752
潮	-9.86754
遭	-9.86781
緝	-9.86903
剛	-9.87013
叚	-9.87111
改元	-9.87117
儉	-9.87119
壘	-9.87146
淮南	-9.87148
翰林院	-9.87201
足以	-9.87213
丕	-9.87238
蕩	-9.87288
請㫖	-9.87346
還宫	-9.87371
腰	-9.87395
叶	-9.87402
必有	-9.8745
撃	-9.87497
文字	-9.8752
墾	-9.87624
舉哀	-9.87727
國初	-9.87763
未完	-9.878
畜	-9.87838
牆	-9.87848
西域	-9.87859
上諭	-9.87865
奚	-9.87875
鑿	-9.87882
繳	-9.87932
漫	-9.88006
燒	-9.88028
不當	-9.88052
杭州	-9.88061
訟	-9.88062
䕶軍統領	-9.88115
芝	-9.88145
㧞	-9.88149
言之	-9.88241
虜	-9.88256
概	-9.88262
序立	-9.88267
貧民	-9.88353
貿易	-9.88377
詢	-9.8843
誥	-9.88549
竿	-9.88552
強	-9.88572
長官	-9.88674
混	-9.88698
蔽	-9.88768
鑑	-9.88793
替	-9.88917
補授	-9.88922
上司	-9.8897
懲	-9.88983
之際	-9.89026
誰	-9.89128
謁者	-9.89146
辦事	-9.8921
祫	-9.89291
庶人	-9.8931
置於	-9.89311
支給	-9.89373
晏	-9.89375
又題準	-9.8943
都察院	-9.89481
碩	-9.89492
鸞	-9.89547
疎	-9.89641
不等	-9.89687
銘	-9.89763
飬	-9.89804
諸道	-9.89835
遽	-9.89859
世宗	-9.89866
事件	-9.89909
巡檢司	-9.89949
弓矢	-9.89958
總兵官	-9.90021
該督撫	-9.90079
慕	-9.90084
禮記	-9.90123
者不	-9.902
鎗	-9.90242
逼	-9.90352
奉安	-9.90377
奏準	-9.90414
十卷	-9.90497
賚	-9.90525
嫡	-9.90562
冲	-9.90589
函	-9.90597
像	-9.90604
鐸	-9.90613
文官	-9.90627
一品	-9.90729
巻	-9.90797
酬	-9.90798
部落	-9.90805
二十人	-9.90817
家人	-9.90819
五寸	-9.90823
後周	-9.90845
上言	-9.90881
妙	-9.90953
運河	-9.90994
貝	-9.90995
武官	-9.91015
不以	-9.91056
一尺	-9.91128
巧	-9.9113
都尉	-9.91143
一應	-9.91165
朱子	-9.91194
否	-9.91239
嶽	-9.91267
而下	-9.91274
黄道	-9.91385
三代	-9.91386
袁	-9.91399
之初	-9.91404
故也	-9.91442
本司	-9.91444
今日	-9.91453
次第	-9.91526
繞	-9.91535
以授	-9.91625
驅	-9.91697
闢	-9.91699
蠶	-9.91731
因之	-9.91786
訴	-9.91793
炳	-9.91851
出身	-9.91855
也故	-9.91974
衫	-9.92064
人之	-9.9208
拔	-9.92098
今後	-9.92156
第五	-9.9221
由是	-9.92254
報部	-9.92292
演	-9.92311
貽	-9.92325
拱	-9.92331
竭	-9.92402
諭曰	-9.92403
低	-9.92403
軍士	-9.92413
惜	-9.92422
二十二	-9.92424
自行	-9.92451
募	-9.92452
茅	-9.92464
逺近	-9.92471
網	-9.92515
違者	-9.92525
碧	-9.9254
詔曰	-9.92585
衮	-9.92586
二十三	-9.92595
傾	-9.92616
之右	-9.92617
不見	-9.92623
恩賜雲騎尉世職	-9.92692
鑄錢	-9.92708
齊集	-9.9277
所得	-9.92787
順天府	-9.92844
知之	-9.92922
江浙	-9.92965
圜	-9.92976
岐	-9.93007
學政	-9.93027
槍	-9.93052
二十一	-9.93159
敎	-9.93263
篆	-9.93306
職官	-9.93317
復為	-9.93359
陵寢	-9.93393
前期	-9.93481
柩	-9.93543
駐蹕	-9.9358
之徒	-9.93623
五品以上	-9.93636
黄帝	-9.93824
世子	-9.93881
七品	-9.93898
未能	-9.93947
消	-9.94008
交與	-9.94095
裴	-9.94162
麾	-9.94202
諸生	-9.94264
上香	-9.94346
蝗	-9.94369
御前	-9.94396
纓	-9.94415
逰	-9.94437
摩	-9.94461
一面	-9.94462
訊	-9.94463
効	-9.94499
永平	-9.94521
吏部尚書	-9.94523
民田	-9.94648
天下之	-9.94669
髙宗	-9.94679
之典	-9.94706
人丁	-9.94743
毋得	-9.94767
跡	-9.94767
斜	-9.94811
夢	-9.94812
小民	-9.94835
又令	-9.94857
外其	-9.94865
該部	-9.9491
歟	-9.94919
寇	-9.94977
中有	-9.95007
紗	-9.95016
查明	-9.95071
中興	-9.9512
脊	-9.95164
把總	-9.95188
其人	-9.95213
然則	-9.95233
舎人	-9.95362
渭	-9.95416
繙譯	-9.95437
咨部	-9.95484
廂	-9.95516
取其	-9.95528
其日	-9.95551
轄	-9.95582
楹	-9.95591
東宫	-9.95646
菜	-9.95671
死罪	-9.95675
由部	-9.95683
件	-9.95705
殯	-9.95711
萬九千	-9.95718
搢笏	-9.95836
司空	-9.95841
加恩	-9.95841
修理	-9.9596
之曲	-9.9599
奎	-9.96017
彈	-9.96046
絞	-9.96076
以此	-9.96077
平定	-9.96083
凌	-9.96203
寡	-9.96266
畿	-9.96274
行文	-9.96275
兼管	-9.96302
冠服	-9.9635
公事	-9.96416
題準	-9.96523
萬國	-9.96589
雍正二年	-9.96593
再行	-9.96679
也其	-9.96687
宣徳	-9.96749
原任	-9.96761
實録	-9.9686
𤼵	-9.96874
圜丘	-9.96923
太監	-9.96926
三寸	-9.96929
柔	-9.97008
所奏	-9.97015
六寸	-9.97052
十五日	-9.9708
勵	-9.97115
錠	-9.97135
犯罪	-9.97154
不便	-9.97197
前導	-9.97198
立于	-9.97223
杖一百	-9.97244
率兵	-9.97282
熒惑	-9.97315
者俱	-9.97385
江淮	-9.97458
陳氏曰	-9.97513
繕	-9.97518
者並	-9.97575
見於	-9.97623
使臣	-9.97636
廐	-9.97705
事宜	-9.97721
棺	-9.97826
遍	-9.97834
拂	-9.97837
見在	-9.97837
竇	-9.97884
票	-9.97905
讀書	-9.9791
霑	-9.97912
樂奏	-9.97915
灌	-9.97948
墳	-9.9796
八名	-9.98099
萬壽	-9.9814
管領	-9.98166
猛	-9.98196
中書省	-9.98246
已上	-9.9826
沿	-9.98265
太官令	-9.98318
廕	-9.9832
枚	-9.98356
注云	-9.98432
疊	-9.9853
開列	-9.98544
齋戒	-9.98566
棟	-9.98567
烟	-9.98586
之物	-9.98626
進呈	-9.98651
風俗	-9.98687
階下	-9.98728
荆州	-9.98736
府屬	-9.98736
宰臣	-9.9874
應行	-9.98788
江寧	-9.9879
或以	-9.98825
貞元	-9.98852
常平	-9.98866
雲騎尉	-9.98888
二品	-9.98936
紛	-9.98988
二十六	-9.98995
隴	-9.99072
萬餘	-9.99216
貝子	-9.99279
談	-9.99284
卦	-9.99313
閤	-9.99427
靜	-9.99506
庻	-9.99525
九人	-9.99529
聖祖	-9.99574
氏世居	-9.99585
溥	-9.99613
雕	-9.99636
蟲	-9.99662
萬石	-9.99696
挾	-9.99704
大兵	-9.99729
鈎	-9.99751
冐	-9.99847
樂器	-9.99849
世祖章皇帝	-9.99976
其制	-9.99988
幅	-10.0002
前往	-10.0013
國王	-10.0013
樁	-10.0013
無疆	-10.0015
突	-10.0017
鐡	-10.0018
禁止	-10.0025
乾隆元年	-10.0025
史記	-10.0028
殺人	-10.0029
巫	-10.003
髙麗	-10.0044
因而	-10.0048
播	-10.0054
乖	-10.0058
抽	-10.006
之民	-10.0062
姑洗	-10.0064
徐州	-10.0073
該旗	-10.008
常服	-10.0081
軌	-10.0085
岸	-10.0086
煥	-10.0091
七日	-10.0092
聘	-10.0093
閉	-10.01
出征	-10.0101
昨	-10.0102
衣服	-10.0103
的	-10.0106
沁	-10.0107
兵部尚書	-10.0111
闡	-10.0121
奉諭㫖	-10.0124
奴	-10.0127
執事官	-10.013
千户	-10.0132
又奏準	-10.015
一百三十	-10.0152
台吉	-10.0155
團	-10.0155
不勝	-10.0159
蔵	-10.0166
競	-10.0167
之位	-10.0173
得其	-10.0173
眷	-10.0175
潰	-10.0179
大使	-10.0179
箱	-10.018
瑚	-10.0198
一百四十	-10.02
瓊	-10.02
周官	-10.0202
古之	-10.0202
八百	-10.0206
多寡	-10.0213
一百六十	-10.0216
十名	-10.0248
不准	-10.0259
又諭	-10.0259
本色	-10.026
不相	-10.0264
駁	-10.027
水旱	-10.0272
翊	-10.0282
舊有	-10.0283
分左右	-10.0287
䘏	-10.0288
布政使	-10.0291
緋	-10.0293
莽	-10.0294
頼	-10.0295
撤	-10.0297
一百八十	-10.0301
撥給	-10.0301
壓	-10.0303
人户	-10.0304
每旗	-10.0306
在位	-10.0311
准其	-10.0311
之盛	-10.0313
㑹試	-10.0314
本旗	-10.0316
定制	-10.0317
潘	-10.0318
等語	-10.0322
忌	-10.0322
塵	-10.0326
皇祖	-10.0327
大唐	-10.0336
燈	-10.0342
地震	-10.0342
大理	-10.0347
毎年	-10.0347
充軍	-10.0347
南巡	-10.0359
片	-10.0359
醴	-10.036
罰俸一年	-10.036
嫌	-10.0367
政和	-10.0374
逓	-10.0397
東方	-10.0397
庶子	-10.0409
其一	-10.0419
壻	-10.0421
状	-10.0423
州郡	-10.0426
灣	-10.043
娶	-10.0432
邵	-10.0432
議准	-10.0439
以資	-10.0446
二百五十	-10.0452
六名	-10.0453
使人	-10.0453
殿上	-10.0457
帽	-10.0457
給發	-10.0457
豕	-10.046
瘞	-10.0465
十萬	-10.0466
戚	-10.0466
厭	-10.0466
故曰	-10.0467
至今	-10.0469
上曰	-10.0469
發遣	-10.0474
之服	-10.0481
二次	-10.0486
牢	-10.0489
七百	-10.0489
覆準	-10.0491
箇	-10.0491
二萬	-10.0498
盟	-10.0501
正徳	-10.0505
五名	-10.0507
綾	-10.0514
檢校	-10.0516
殺之	-10.052
牽	-10.0522
爐	-10.0541
行省	-10.0546
古人	-10.0553
阿爾	-10.0554
學者	-10.0561
以来	-10.0563
退復位	-10.0564
倭	-10.0566
順天	-10.0566
臻	-10.0566
宫中	-10.0574
教授	-10.0585
安徽	-10.0592
據實	-10.0604
伊犁	-10.0605
來屬	-10.0607
尚有	-10.0608
堂官	-10.061
㨗	-10.061
軍營	-10.0611
湏	-10.0612
之年	-10.0617
太蔟	-10.0617
先師	-10.062
及諸	-10.0621
諸國	-10.0624
以待	-10.0626
情形	-10.0627
糾	-10.063
戈	-10.0634
大軍	-10.0634
覲	-10.0637
港	-10.0638
次日	-10.064
系出	-10.0647
簾	-10.0648
往來	-10.0657
靣	-10.0663
人數	-10.067
艱	-10.0672
籠	-10.0674
文王	-10.0677
當差	-10.0679
朝賀	-10.0684
宥	-10.0686
腹	-10.0693
灾	-10.07
不堪	-10.0703
隂陽	-10.0703
二十九	-10.0704
綺	-10.072
男女	-10.0723
禍	-10.0723
中書令	-10.0729
九寸	-10.0732
仍照	-10.0734
題叅	-10.0744
錦州	-10.0744
令史	-10.0749
未免	-10.0751
咎	-10.0755
熈	-10.0758
萬物	-10.0759
員闕	-10.0765
百里	-10.0776
學校	-10.0785
壯丁	-10.0786
七寸	-10.0786
國之	-10.0788
閭	-10.0792
毫	-10.0795
雇	-10.0797
俯	-10.0797
等事	-10.0798
竈	-10.0806
祀典	-10.0807
斥	-10.0817
鬻	-10.0817
之故	-10.0824
四十八	-10.0834
河間	-10.0834
每日	-10.0834
廊	-10.0835
未及	-10.0836
惑	-10.0839
傍	-10.0841
峻	-10.0843
太師	-10.0844
凉	-10.0848
浩	-10.0856
騎都尉	-10.0856
舁	-10.0857
販	-10.0859
漲	-10.0864
十二卷	-10.0866
東至	-10.0877
坦	-10.0878
笑	-10.0879
對曰	-10.0881
若不	-10.0891
之次	-10.0894
更定	-10.0894
御史大夫	-10.0897
二百四十	-10.0897
可汗	-10.0899
王子	-10.0909
裝	-10.0911
四千	-10.0913
安南	-10.0915
來京	-10.0916
佃	-10.0918
哩	-10.0918
奏事	-10.0921
道路	-10.0923
作樂	-10.0923
鎭	-10.0926
六品以下	-10.0926
觶	-10.0928
涉	-10.0929
右翼	-10.0932
三縣	-10.0935
亦無	-10.0938
傑	-10.0942
崖	-10.0943
我朝	-10.0953
伸	-10.0956
可也	-10.0961
王者	-10.0972
升殿	-10.0975
萬世	-10.0976
墜	-10.0976
譯	-10.0978
則以	-10.0978
土司	-10.0979
承㫖	-10.098
亞	-10.098
閒散	-10.0989
即以	-10.0991
大樂	-10.0992
加一等	-10.0997
衢	-10.1008
重行	-10.101
睦	-10.101
城門	-10.1016
髪	-10.1017
大祀	-10.1019
偹	-10.1019
晦	-10.1039
二千石	-10.1042
䧟	-10.1042
岡	-10.1042
敘	-10.1048
元年正月	-10.1054
衛所	-10.1058
耕種	-10.1064
誓	-10.1065
廪	-10.1066
堰	-10.1068
三品以上	-10.1069
此書	-10.107
不載	-10.1071
是月	-10.1071
鈞	-10.1073
之員	-10.1079
闕里	-10.1079
二年正月	-10.1082
所生	-10.1082
域	-10.1094
祁	-10.1098
羽林	-10.1099
御座	-10.1099
宣帝	-10.11
突厥	-10.1104
配享	-10.1106
定為	-10.1111
三十五	-10.1112
柳	-10.1117
一錢	-10.1119
準其	-10.1119
禾	-10.112
元和	-10.112
分為	-10.1123
綽	-10.1124
肯	-10.1126
秒	-10.1128
宸	-10.1131
洲	-10.1141
孚	-10.1141
為首	-10.1147
祝文	-10.1147
八卷	-10.1147
稻	-10.1147
閑	-10.115
着	-10.1154
埋	-10.1166
杭	-10.1168
昆	-10.117
明白	-10.1182
一帶	-10.1183
尚未	-10.1184
革帶	-10.1189
刷	-10.1191
凡有	-10.1193
上以	-10.1194
擊之	-10.1198
滯	-10.1204
五行	-10.1209
掃	-10.1212
了	-10.1219
㓜	-10.1228
恭奉	-10.1228
旌表	-10.1231
禽	-10.1232
也又	-10.1238
配位	-10.124
障	-10.1241
綸	-10.1245
成服	-10.1253
依舊	-10.126
騎射	-10.1261
不得過	-10.1262
彩	-10.1262
他人	-10.1263
奉先殿	-10.1266
立定	-10.1267
倒	-10.1267
六卷	-10.1267
不宜	-10.128
居住	-10.1281
氷	-10.1284
佟	-10.1286
不致	-10.1296
馭	-10.1296
旗員	-10.1298
駝	-10.1306
受爵	-10.1307
京官	-10.1309
肩	-10.131
痛	-10.131
來歸	-10.131
甚多	-10.1311
典儀	-10.1313
成都	-10.1314
先生	-10.1314
彛	-10.1318
掣	-10.1319
三卷	-10.1319
閑散	-10.132
浪	-10.1322
州縣官	-10.1334
不免	-10.1339
朝㑹	-10.1343
珪	-10.1344
扈從	-10.1359
肥	-10.136
告官	-10.1362
不可以	-10.1362
月犯	-10.137
不言	-10.1372
繹	-10.1374
欽天監	-10.1387
輩	-10.1393
其數	-10.1394
翔	-10.1394
百日	-10.1397
自古	-10.14
賑濟	-10.14
持節	-10.1402
淤	-10.1403
分數	-10.1406
教官	-10.1412
弛	-10.1419
稿	-10.1421
四寸	-10.1432
掛	-10.1435
庚子	-10.1437
迺	-10.1438
武功	-10.144
琳	-10.1451
宣和	-10.1451
外藩	-10.1452
三十二	-10.1457
小功	-10.1457
增設	-10.1457
劄	-10.146
再拜訖	-10.1472
字號	-10.1478
致仕	-10.1491
司祝	-10.1503
平之章	-10.1503
聨	-10.1505
綠	-10.1505
宛	-10.1507
大赦	-10.1513
賛者	-10.1515
隣	-10.1515
晨	-10.152
寓	-10.1522
自今	-10.1523
知其	-10.1536
紐	-10.1539
㫁	-10.1545
抗	-10.1555
數年	-10.1556
左翼	-10.1559
樂工	-10.1564
粤	-10.1568
札	-10.1571
奉恩將軍	-10.1571
鑲黄旗	-10.1577
入貢	-10.1579
俘	-10.1585
財物	-10.1586
苖	-10.1588
光武	-10.1614
殤	-10.1618
島	-10.1634
臨時	-10.1635
眼	-10.1635
駒	-10.164
首領	-10.1643
委署	-10.1644
霍	-10.1646
亟	-10.1648
殆	-10.1658
之期	-10.1658
薪	-10.1662
日期	-10.1666
奏稱	-10.1675
乘輿	-10.1682
其名	-10.1686
墻	-10.169
額駙	-10.1696
孝宗	-10.1697
煙	-10.17
晴	-10.17
一併	-10.1701
理藩院	-10.1702
𤓰	-10.1702
君臣	-10.1703
樂舞	-10.1708
𣙜	-10.1714
二十名	-10.1733
西路	-10.1744
告成	-10.1748
沉	-10.175
十六人	-10.1754
郊廟	-10.176
暇	-10.1764
婁	-10.1764
二字	-10.1769
添設	-10.1773
姜	-10.1783
以供	-10.1788
各州縣	-10.1789
乗輿	-10.1798
哨	-10.1799
漢書	-10.1802
父子	-10.1805
毋庸	-10.1809
隆慶	-10.1812
掌事者	-10.1817
親屬	-10.1822
巢	-10.1823
山縣	-10.1825
難以	-10.1828
從者	-10.1838
冶	-10.1838
蹕	-10.1841
百人	-10.1847
婦女	-10.1849
鎮國公	-10.1849
瑟	-10.1857
寃	-10.1859
鑲白旗	-10.186
禮部侍郎	-10.1862
一兩	-10.1864
數十	-10.1867
遐	-10.1872
正紅旗	-10.1881
店	-10.1882
竄	-10.1884
舅	-10.1889
毒	-10.189
傳曰	-10.1894
乾道	-10.1901
僖	-10.1909
灰	-10.1914
渉	-10.1915
太宗文皇帝	-10.1915
軸	-10.1915
詔書	-10.1923
勑	-10.1934
探	-10.1935
之半	-10.1942
孟子	-10.1954
㳺	-10.1958
裘	-10.1958
炎	-10.1959
收貯	-10.196
議準	-10.1965
人心	-10.1967
列於	-10.1968
閏	-10.197
玩	-10.197
少退	-10.1971
冰	-10.1973
臘	-10.198
帑	-10.198
匡	-10.1986
旺	-10.1989
謚	-10.1992
宗人府	-10.1993
漳	-10.1993
妖	-10.1994
謝恩	-10.1994
北京	-10.1995
亦可	-10.1998
寔	-10.1999
箋	-10.1999
䟽	-10.2003
沃	-10.2003
四十五	-10.2017
粮	-10.2019
已下	-10.2028
本省	-10.2029
五尺	-10.2033
聖駕	-10.2036
既而	-10.2038
到部	-10.2044
從事	-10.2047
倘有	-10.2051
被災	-10.2051
三萬	-10.2052
祭器	-10.2053
豈可	-10.2053
選用	-10.2058
永寧	-10.206
雲龍	-10.2065
終獻	-10.2075
議者	-10.2082
憲宗	-10.2086
纔	-10.2095
陸續	-10.21
正白旗	-10.2109
開墾	-10.2114
弟子	-10.2116
灘	-10.2117
戲	-10.2118
廩	-10.2119
辯	-10.2126
鎮總兵	-10.213
酌獻	-10.2132
殿中	-10.214
先王	-10.2144
一半	-10.2154
晝	-10.2155
仍以	-10.2155
清河	-10.2157
三省	-10.2162
學生	-10.2165
謁者引	-10.2173
儀禮	-10.2173
拏獲	-10.2177
禀	-10.2179
二州	-10.2179
洩	-10.2182
覩	-10.2183
之書	-10.2183
法司	-10.2187
印信	-10.219
数	-10.2194
魁	-10.2195
之職	-10.2203
無可	-10.2204
神武	-10.2204
水利	-10.221
降㫖	-10.2211
鄙	-10.2211
之費	-10.2217
淮安	-10.2218
磨	-10.2218
讀祝	-10.2226
年老	-10.2227
虹	-10.2228
改正	-10.2235
各以	-10.2238
先儒	-10.2238
保定	-10.2239
事故	-10.224
拏	-10.224
黔	-10.2242
神宗	-10.2245
詰	-10.2265
旨	-10.2272
失察	-10.2274
鬭	-10.2276
南陽	-10.2279
褥	-10.2289
來朝	-10.2293
見經類	-10.2295
中書門下	-10.2297
謹案	-10.2299
大理寺	-10.2304
送部	-10.2308
洛陽	-10.2309
氊	-10.2319
不至	-10.2322
時有	-10.2322
内官	-10.2322
林鍾	-10.2329
二曰	-10.2332
味	-10.2335
天寳	-10.2343
朔望	-10.2345
管轄	-10.235
歆	-10.236
揆	-10.2365
一對	-10.2366
鐫	-10.2369
不論	-10.2369
三尺	-10.2371
男子	-10.2371
而行	-10.2377
如是	-10.2378
而止	-10.2379
懇	-10.2389
耿	-10.2392
保之妻	-10.2392
軫	-10.2392
八寸	-10.2403
蓄	-10.2406
壤	-10.2408
䑓	-10.2409
侍從	-10.2413
砦	-10.2417
學習	-10.243
貳	-10.2434
入於	-10.2437
各項	-10.2441
世襲	-10.2443
雉	-10.2449
者仍	-10.2452
叩	-10.2452
北向立	-10.2453
衣冠	-10.2453
縣人	-10.246
之利	-10.2461
科道	-10.2463
匣	-10.2467
昭穆	-10.2468
刼	-10.2468
狼	-10.2469
牐	-10.2476
玊	-10.2478
而為	-10.248
外省	-10.2489
鋭	-10.2505
刪	-10.2506
中軍	-10.2509
漕糧	-10.2521
之案	-10.2521
愧	-10.2524
禧	-10.2529
昇平	-10.2529
桐	-10.2535
諸將	-10.2536
士卒	-10.2539
貴妃	-10.2541
膏	-10.2541
代之	-10.2543
贍	-10.2546
大水	-10.2546
擁	-10.2547
吟	-10.2549
瑶	-10.255
酉	-10.2555
大抵	-10.2557
未詳	-10.2559
濁	-10.2565
一寸	-10.2569
閔	-10.257
土官	-10.2582
不如	-10.2584
冊寳	-10.2584
太僕寺	-10.2584
泛	-10.2592
官屬	-10.2594
河道	-10.2597
即於	-10.2598
者多	-10.2601
經理	-10.2608
無論	-10.2609
吉林	-10.2612
曰某	-10.2621
搜	-10.2622
殿下	-10.2624
文學	-10.2624
者將	-10.2626
兼轄	-10.2632
臺灣	-10.2642
玉帛	-10.2649
其言	-10.2652
議奏	-10.266
斃	-10.266
蛇	-10.2663
槩	-10.2668
霸	-10.267
遵行	-10.2673
如故	-10.2682
乳	-10.2683
文章	-10.2684
罔	-10.2687
五星	-10.2687
釘	-10.2688
北上	-10.2695
也夫	-10.27
照數	-10.2701
觴	-10.2706
誌	-10.2707
親軍	-10.2708
蹟	-10.2712
悼	-10.2717
吐蕃	-10.2718
唐制	-10.2724
不一	-10.2729
宜令	-10.2734
呂	-10.2738
十二人	-10.2739
絡	-10.2742
陋	-10.2743
如遇	-10.2744
冠者	-10.2745
三百六十	-10.2749
如前	-10.2749
鳴鞭	-10.2751
盥	-10.2751
偷	-10.2751
馬甲	-10.2752
舖	-10.2756
帝曰	-10.2758
囊	-10.2761
寧夏	-10.2764
經歴	-10.2767
佐領下	-10.2767
認	-10.2768
縣丞	-10.2773
鐙	-10.2776
有罪	-10.2785
五等	-10.2787
熙寧	-10.2792
蔣	-10.2792
和之曲	-10.2793
亦以	-10.2794
右衛	-10.2795
罪人	-10.2797
串	-10.2798
大吕	-10.2803
辛未	-10.2804
更名	-10.2805
三年正月	-10.2805
營兵	-10.2811
迹	-10.2815
十有五	-10.2819
盥洗	-10.2832
䕶軍㕘領	-10.2835
僚	-10.2838
六千	-10.2842
𣲖	-10.2846
嘉定	-10.2851
賽	-10.2852
光禄寺	-10.2859
笞	-10.2863
飾以	-10.2873
屍	-10.2878
原係	-10.2881
大次	-10.2886
淹	-10.289
察出	-10.2893
鉞	-10.2896
劒	-10.2897
在西	-10.29
可謂	-10.2902
送神	-10.2906
官及	-10.2906
四十九	-10.2908
平陽	-10.291
俞	-10.2912
迎神	-10.2912
七十二	-10.2915
各一員	-10.2915
議叙	-10.2916
章京	-10.2916
明帝	-10.2919
題請	-10.2923
為名	-10.2931
二年二月	-10.2933
三次	-10.2937
貂	-10.2938
六部	-10.2945
樽	-10.2949
屆	-10.2952
六百	-10.2954
䕃	-10.2954
轅	-10.2957
三十四	-10.2957
噐	-10.2967
自應	-10.2968
兵馬	-10.2972
蒸	-10.2973
部院	-10.298
就近	-10.2981
朋	-10.2983
不與	-10.2985
祉	-10.2986
勦	-10.2989
文書	-10.2991
節度	-10.2993
迄	-10.2997
神座	-10.2998
竝	-10.3005
一件	-10.3007
臯	-10.3008
今之	-10.3024
其實	-10.3029
所由	-10.304
給銀	-10.3043
為上	-10.3047
贊引	-10.3051
安定	-10.3052
猷	-10.3057
千餘	-10.3058
在東	-10.3063
金吾	-10.3064
入朝	-10.3066
東平	-10.3066
此次	-10.3067
曰此	-10.3069
卯	-10.3071
會同	-10.3076
繋	-10.3077
駮	-10.3078
浙	-10.308
太皇太后	-10.3082
倣	-10.3084
向來	-10.3087
遼陽	-10.309
昇	-10.3092
凱旋	-10.3093
西方	-10.3095
王府	-10.3103
萬里	-10.3105
採買	-10.3106
之禁	-10.3108
頭目	-10.3108
山陵	-10.3109
霜	-10.3112
大都	-10.3112
臣僚	-10.3114
各營	-10.3116
服之	-10.3118
一家	-10.312
功封	-10.3125
四面	-10.3128
順治	-10.313
相應	-10.3133
親詣	-10.3135
奉迎	-10.3138
也然	-10.3143
領縣二	-10.3145
圏	-10.316
衷	-10.3163
襄陽	-10.3166
不然	-10.3167
尊長	-10.3167
奏銷	-10.3172
二十日	-10.3178
職掌	-10.3179
鳥槍	-10.318
㓂	-10.3189
狄	-10.3189
兩淮	-10.319
度支	-10.3191
激	-10.3194
正位	-10.3195
間有	-10.3196
三曰	-10.3202
者許	-10.3202
闈	-10.3208
丑	-10.3209
活	-10.3214
粉	-10.3214
迨	-10.3215
槽	-10.3216
銀一兩	-10.3221
幫	-10.3229
努	-10.323
黄金	-10.3231
左衛	-10.3233
泰山	-10.3235
戮	-10.3242
三十九	-10.3245
政事	-10.3246
一百七十	-10.3247
参	-10.3247
旣	-10.3249
正藍旗	-10.3252
東西相向	-10.3254
留守	-10.3255
赤道	-10.3256
贊者	-10.3258
律吕	-10.3258
亥	-10.326
太陽	-10.3266
瀆	-10.3268
百萬	-10.3269
妻妾	-10.3271
控	-10.3272
鞏	-10.3274
以昭	-10.3275
察覈	-10.3275
公私	-10.3276
崇徳	-10.3277
穴	-10.3278
多爾濟	-10.3278
兑	-10.3285
先聖	-10.3285
偃	-10.3287
者必	-10.329
本處	-10.329
敬謹	-10.3292
之功	-10.3292
暮	-10.3297
長沙	-10.3298
議定	-10.3299
營都司一人	-10.3303
以下皆	-10.3305
己未	-10.3305
乃以	-10.3307
蟒	-10.3311
即令	-10.3315
系	-10.3323
仍舊	-10.3327
百户	-10.3327
又於	-10.3328
承辦	-10.3333
故殺	-10.3333
繒	-10.3335
自此	-10.3335
瓶	-10.334
議曰	-10.3341
多少	-10.3342
勺	-10.3343
豁免	-10.3344
東西面	-10.3345
一凡	-10.3352
厄魯特	-10.3353
額外	-10.3355
璋	-10.3356
有犯	-10.3356
閤門	-10.3356
貶	-10.3356
太史	-10.3358
徴收	-10.3363
一萬	-10.3368
五卷	-10.3369
怪	-10.3372
疏曰	-10.3373
步軍	-10.3373
巡幸	-10.3377
叢	-10.3381
其家	-10.3389
得以	-10.339
人皆	-10.3396
塊	-10.3404
窺	-10.3406
昻	-10.3407
上年	-10.341
返	-10.3412
縫	-10.3417
貢生	-10.3424
鼓鑄	-10.3425
壬午	-10.3429
為主	-10.3439
武王	-10.3444
不通	-10.3446
淫	-10.3449
三十一年	-10.3452
千秋	-10.3454
諭㫖	-10.3456
不從	-10.3462
太傅	-10.3467
考取	-10.3469
河西	-10.3469
士子	-10.3471
蘆	-10.3474
賠	-10.3477
栢	-10.3482
嬪	-10.3484
犬	-10.3485
大明	-10.349
以便	-10.3492
悟	-10.3494
月令	-10.3496
禮儀使	-10.3497
職事	-10.3497
培	-10.3498
揭	-10.3504
取之	-10.3505
其法	-10.3507
羃	-10.3509
互相	-10.3512
坫	-10.3514
民生	-10.3514
邸	-10.3516
丁丑	-10.3517
皆用	-10.3523
永安	-10.3523
三司	-10.3526
如何	-10.3528
偉	-10.3531
里南至	-10.3533
千人	-10.3534
元帝	-10.3535
届	-10.3541
西向立	-10.3545
吐	-10.3545
其上	-10.3547
其書	-10.355
孝經	-10.3552
遲延	-10.3553
千石	-10.3557
西京	-10.3561
脅	-10.3561
飢	-10.3565
大事	-10.3569
等縣	-10.3569
有事	-10.3569
悔	-10.3573
其罪	-10.358
銅錢	-10.3588
宿衛	-10.3594
䕫	-10.3602
領縣三	-10.3606
窩	-10.3607
凡遇	-10.3608
遣官致祭	-10.3609
鼐	-10.3609
夾鍾	-10.3614
差官	-10.3614
四員	-10.3618
萬兩	-10.3621
甲辰	-10.3622
三十七	-10.3626
帝即位	-10.3626
初置	-10.3627
限内	-10.3631
監司	-10.3635
有無	-10.3639
宫架	-10.3641
外其餘	-10.3644
不肯	-10.3647
一十	-10.3655
向例	-10.3655
諸儒	-10.3656
移駐	-10.3656
十有六	-10.3659
萬人	-10.366
伎	-10.3661
也若	-10.3665
經過	-10.3667
熱河	-10.3674
二寸	-10.3675
祼	-10.3675
改設	-10.3677
漕運	-10.3678
霞	-10.3681
率衆	-10.3684
無事	-10.3691
隘	-10.3693
後為	-10.3695
轎	-10.3698
平糶	-10.37
殿中監	-10.3703
盛典	-10.3705
受冊	-10.3707
妻子	-10.371
枉	-10.3714
升降	-10.3714
一座	-10.3714
隅	-10.3714
一嵗	-10.3717
分獻官	-10.3719
祝史	-10.3719
原籍	-10.3723
其下	-10.3725
紬	-10.3727
開復	-10.3728
上書	-10.3729
湘	-10.373
考之	-10.3734
順治元年	-10.3743
㳟	-10.3744
降輿	-10.3752
庚	-10.3755
侍御史	-10.3757
姪	-10.3761
制書	-10.3764
巳	-10.3765
奉諭	-10.3767
亦同	-10.3768
𠞰	-10.377
商賈	-10.3776
流民	-10.3781
一卷陳氏曰	-10.3785
各置	-10.3785
裔	-10.3788
升壇	-10.3791
奬	-10.3792
鉶	-10.3793
實為	-10.3798
旗一	-10.3803
致死	-10.3819
庚辰	-10.3823
河工	-10.3825
臨清	-10.3831
殿前	-10.3839
慶賀	-10.384
億	-10.3844
隨行	-10.385
價銀	-10.3855
奉上諭	-10.3858
鑪	-10.3861
周制	-10.3862
中軍守備一人千總二人把總四人兵	-10.3862
民之	-10.387
帝王	-10.3871
詭	-10.3873
一丈	-10.3875
停其	-10.3876
天命	-10.3881
緬	-10.3885
旒	-10.3889
遵㫖	-10.389
羙	-10.3892
十三日	-10.3894
在内	-10.3896
不加	-10.39
縣知縣	-10.3902
一并	-10.3902
之妻張	-10.3902
襲封	-10.3905
提舉司	-10.3906
昊天上帝	-10.3908
庥	-10.3908
滿洲䝉古	-10.3908
皆如	-10.3913
光禄	-10.3914
鹽課	-10.3915
家口	-10.3917
一部	-10.3919
黒龍江	-10.3921
堆	-10.3924
禮物	-10.3924
嚮	-10.3927
境内	-10.3927
人以	-10.3927
水師	-10.3934
后土	-10.3935
染	-10.394
各給	-10.3943
里北至	-10.3946
九品	-10.3947
家長	-10.3949
邇	-10.3954
歩軍	-10.3954
司庫	-10.3955
見任	-10.3955
事例	-10.3956
皆為	-10.3956
坎	-10.3957
封爵	-10.3962
行在	-10.3962
兩浙	-10.3963
兩省	-10.3969
慢	-10.3972
正黄旗	-10.3973
床	-10.3977
不盡	-10.398
盆	-10.3991
一百九十	-10.3992
泊	-10.3993
恬	-10.3995
建昌	-10.3998
棚	-10.4001
裂	-10.4004
至大	-10.4005
酋	-10.4005
奉禮	-10.4011
正殿	-10.4011
三間	-10.4014
胄	-10.4015
萬七千	-10.4022
之則	-10.4028
茲	-10.4028
洵	-10.4028
此皆	-10.4029
管理續以	-10.403
籥	-10.4031
姬	-10.4033
以俟	-10.4036
並如	-10.4037
數百	-10.4039
禮直官	-10.404
隐	-10.404
百二十	-10.4046
時以	-10.4049
一二	-10.4049
浚	-10.405
般	-10.405
例議處	-10.4052
口糧	-10.4052
取中	-10.4052
其年	-10.4056
之恩	-10.4061
鋒	-10.4064
殿内	-10.4066
遊擊	-10.4067
損益	-10.4073
鞍	-10.4075
鄒	-10.4079
又詔	-10.4082
祭天	-10.4082
御史中丞	-10.4085
房屋	-10.4085
鴻臚寺	-10.4091
艾	-10.4092
助教	-10.4095
浸	-10.4096
如式	-10.4098
北方	-10.4099
午門	-10.4099
酌定	-10.4103
諧	-10.4109
宣宗	-10.4115
康熙四十	-10.4117
俯伏興	-10.4121
並不	-10.4122
葦	-10.4123
乙酉	-10.4123
之妻𤓰勒佳	-10.4125
瀛	-10.4126
貺	-10.4127
中書舍人	-10.4129
即將	-10.413
恩詔	-10.413
東海	-10.4136
渤海	-10.4136
女官	-10.4137
外任	-10.4138
臣民	-10.4139
英宗	-10.4141
銷金	-10.4141
后稷	-10.4142
照舊	-10.4142
申報	-10.4143
貲	-10.4144
户部尚書	-10.4146
一律	-10.4146
丹墀	-10.415
不出	-10.4154
准此	-10.4154
完結	-10.4154
吉禮	-10.4156
膠	-10.4156
南海	-10.4158
其次	-10.4158
諸部	-10.4158
套	-10.416
又云	-10.4161
曰吾	-10.4161
躋	-10.4162
東京	-10.4172
雍正三年	-10.4176
文職	-10.4177
怠	-10.4179
作為	-10.4179
䕶軍叅領	-10.4182
世爵	-10.4185
鞫	-10.4185
蘇州	-10.4186
導引	-10.4187
眉	-10.4188
踐	-10.4188
之理	-10.4188
風雨	-10.4189
又言	-10.4189
於太廟	-10.4193
評	-10.4193
二尺	-10.4195
劣	-10.4196
又置	-10.4202
第六	-10.4203
京兆	-10.4204
歉	-10.4206
南吕	-10.4209
大禮	-10.4211
請以	-10.4211
三旗	-10.4215
上元	-10.4218
老人	-10.4218
溺	-10.4218
樞宻院	-10.4221
刑部尚書	-10.4225
所轄	-10.4227
王莽	-10.423
建武	-10.4231
穹	-10.4232
漕船	-10.4247
聰	-10.4248
不準	-10.4251
鑾	-10.4258
榆	-10.4261
荀	-10.4263
恕	-10.4266
愆	-10.4267
為大	-10.4268
朝貢	-10.4271
䕶衛	-10.4272
四十人	-10.4275
匏	-10.4277
組	-10.4282
五萬	-10.4283
真宗	-10.4287
栗	-10.429
統領	-10.4291
則不	-10.4291
之始	-10.4291
文舞	-10.4293
蓮	-10.4294
奏報	-10.4296
左庶子	-10.4296
刃	-10.4298
者其	-10.43
五經	-10.4303
軍功	-10.4305
盜賊	-10.4306
八品	-10.4307
今嵗	-10.4308
匱	-10.4313
妨	-10.4313
檐	-10.4314
將士	-10.4321
安縣	-10.4322
簡選	-10.4322
四十二	-10.4327
經義	-10.433
映	-10.4335
以及	-10.4336
眞	-10.4337
多羅	-10.4337
太保	-10.4339
逋	-10.4345
汴	-10.4345
牘	-10.4347
檄	-10.4349
不入	-10.435
曜	-10.4352
扈	-10.4353
棗	-10.4354
闊	-10.4355
一道	-10.4359
功徳	-10.4366
武舞	-10.4367
光禄卿	-10.4371
用兵	-10.4372
㑹典	-10.4375
竊盜	-10.4375
鴈	-10.4378
通考	-10.438
下馬	-10.4382
違限	-10.4382
辛巳	-10.4383
僧道	-10.4386
芻	-10.4387
需用	-10.4387
廉	-10.4387
次於	-10.4388
賞賚	-10.4389
奏曰	-10.439
書曰	-10.4393
褥位	-10.4397
七名	-10.4399
三十八年	-10.4402
買補	-10.4402
聿	-10.4405
器械	-10.4406
萬方	-10.4408
東都	-10.4409
所出	-10.4411
無異	-10.4413
太常博士	-10.4415
太僕	-10.4419
飲食	-10.442
引河	-10.4421
為從	-10.4421
收買	-10.4422
兩月	-10.4427
燔	-10.4428
文武百官	-10.4429
親臨	-10.4431
蕃王	-10.4438
幢	-10.4441
孝武	-10.4444
上表	-10.4444
元祐	-10.4445
餘皆	-10.4448
其義	-10.4457
餘兩	-10.446
南方	-10.4461
殺傷	-10.4464
北郊	-10.4466
不忍	-10.4467
天子之	-10.4468
樊	-10.4473
潜	-10.4475
戾	-10.4476
萬五千	-10.4479
羲	-10.4481
鏤	-10.4483
一斤	-10.4484
於廟	-10.4486
羡	-10.4487
氐	-10.4487
皆同	-10.4489
入就位	-10.449
潭	-10.4498
而有	-10.4499
然而	-10.4503
布政使司	-10.4505
大成	-10.4507
鈐	-10.4507
鷹	-10.451
倉庫	-10.4517
該撫	-10.4518
表裏	-10.4518
暉	-10.4521
永昌	-10.4522
恭遇	-10.4523
豹	-10.4523
八千	-10.4524
陜	-10.4525
矟	-10.4527
四年正月	-10.4531
神座前	-10.4531
者或	-10.4533
各旗	-10.4534
僻	-10.4541
歸於	-10.4545
喬	-10.4546
存留	-10.4549
皇貴妃	-10.4552
此則	-10.4553
某官	-10.4558
御殿	-10.4558
樸	-10.456
文曰	-10.4562
愍	-10.4563
溯	-10.4564
中書侍郎	-10.4567
矜	-10.4575
知情	-10.4578
冊寶	-10.4579
霄	-10.4581
百餘	-10.4583
皆不	-10.4583
諸衛	-10.4588
二十七日	-10.459
徒一年	-10.4593
無窮	-10.4595
門下	-10.4596
斧	-10.4596
貨物	-10.46
臂	-10.4601
降復位	-10.4602
覆奏	-10.4606
朝堂	-10.4607
衍聖公	-10.4608
其衆	-10.4611
高祖	-10.4614
謹按本朝定制	-10.4615
踏	-10.4615
如此則	-10.4617
萃	-10.4618
迭	-10.4618
人民	-10.4623
應鍾	-10.4624
改置	-10.4625
忍	-10.4627
廼	-10.463
王公大臣	-10.4631
鬯	-10.4633
壝	-10.4634
保舉	-10.4635
知州	-10.4639
之長	-10.4641
中丞	-10.4642
亦照	-10.4643
丙	-10.4644
成王	-10.4645
學官	-10.4645
明洪武	-10.4645
田地	-10.4646
經畧	-10.4648
二百二十	-10.465
庾	-10.4652
辱	-10.4654
五間	-10.4657
五十六	-10.4663
鉅	-10.4663
扎薩克	-10.4667
濟南	-10.4667
成帝	-10.4667
該處	-10.4669
祖父	-10.4672
雖不	-10.4672
訂	-10.4672
至徳	-10.4674
三十三	-10.4675
縣地	-10.468
傷人	-10.4681
罰俸	-10.4683
征明	-10.4685
位前	-10.4685
南直𨽻	-10.469
統轄	-10.4692
十里	-10.4697
領縣一	-10.4701
府州	-10.4702
法駕	-10.4703
請於	-10.4704
不時	-10.4704
武宗	-10.4704
箕	-10.4705
應得	-10.4707
出次	-10.4708
之實	-10.4708
之妻李	-10.4713
大徳	-10.4714
拆	-10.4719
設於	-10.4719
先農	-10.4719
以次出	-10.4723
宋史	-10.4724
班首	-10.4725
仇	-10.4725
始祖	-10.4732
聞之	-10.4732
五城	-10.4735
將來	-10.4738
屠	-10.4739
粗	-10.4741
緡	-10.4741
繖	-10.4742
咨送	-10.475
執爵	-10.4756
尅	-10.4757
炭	-10.4757
沂	-10.4759
武徳	-10.476
宗正	-10.476
其父	-10.4762
一事	-10.4766
三十六年	-10.4768
鎮守	-10.4769
元旦	-10.4772
臧	-10.4774
睿宗	-10.4777
燦	-10.478
喇嘛	-10.4781
該地方官	-10.4782
玉幣	-10.4783
金川	-10.4789
甎	-10.4792
其弟	-10.4794
仿	-10.4794
本身	-10.4797
草木	-10.4797
定議	-10.4798
有大	-10.4799
龕	-10.4801
造冊	-10.4803
其文	-10.4805
約束	-10.481
東階	-10.481
減一等	-10.481
罰俸六月	-10.4811
鑲藍旗	-10.4814
奥	-10.4816
捷	-10.4818
其説	-10.4819
玉輅	-10.482
被水	-10.4823
礦	-10.4823
議敘	-10.483
夫子	-10.4835
黄鍾之	-10.4836
多羅貝勒	-10.4837
譽	-10.4843
繇	-10.4843
亢	-10.4846
虧空	-10.4847
沿途	-10.4849
叅將	-10.4851
太平興國	-10.4854
梓宫	-10.4855
福晉	-10.4855
奉命	-10.4855
廷臣	-10.4855
先行	-10.4857
不可不	-10.4862
所作	-10.4866
髙下	-10.4868
不拘	-10.4869
嚴行	-10.487
柏	-10.487
惕	-10.4872
侈	-10.4874
所居	-10.4875
此項	-10.4875
刑名	-10.4883
疲	-10.4887
不報	-10.4887
辛丑	-10.4888
齋郎	-10.4904
閭閻	-10.4904
不足以	-10.4907
升為	-10.4907
稱賀	-10.4909
祜	-10.4909
司道	-10.4912
左傳	-10.4915
道府	-10.492
悲	-10.4921
趣	-10.4923
天聰	-10.4923
握	-10.4924
故云	-10.4926
涼	-10.4926
景帝	-10.4934
安西	-10.4938
左門	-10.4939
自首	-10.4941
武舉	-10.4943
齋宫	-10.4944
安撫司	-10.4945
三十八	-10.4945
孝文	-10.4948
於民	-10.4949
按察使	-10.495
重者	-10.4952
徳州	-10.4956
原封	-10.4957
本寺	-10.4957
私鑄	-10.496
裹	-10.4961
四字	-10.4962
脫	-10.4963
衚衕	-10.4963
工部尚書	-10.4968
緦麻	-10.4973
預備	-10.4973
中間	-10.4977
乾隆二年	-10.4979
東門	-10.4979
逐一	-10.4987
天之	-10.4987
六十四	-10.4988
數千	-10.4993
總理	-10.4995
砌	-10.4997
譏	-10.4999
陪祀	-10.5003
敇	-10.5003
響	-10.5015
畫一	-10.5015
巴爾	-10.5027
未必	-10.5028
妥	-10.503
鄭氏	-10.5037
看守	-10.504
交易	-10.5049
驕	-10.5051
倡	-10.5053
月食	-10.5055
不實	-10.5057
凱	-10.5058
潞	-10.5061
所殺	-10.5068
丁未	-10.5068
諸郡	-10.5073
不設	-10.5075
甚衆	-10.5078
之末	-10.5078
上都	-10.508
故以其弟	-10.5083
應試	-10.509
以時	-10.5091
天順	-10.5092
三十人	-10.5092
上命	-10.5092
兩旁	-10.5093
之祭	-10.5094
之政	-10.5098
之女	-10.5099
犀	-10.5105
公同	-10.5106
備用	-10.5109
不肖	-10.511
回部	-10.5112
髮	-10.5113
鞾	-10.5117
之任	-10.5117
列聖	-10.5121
於上	-10.5125
稽查	-10.5125
徹饌	-10.5126
二府	-10.5128
轉運	-10.5129
儼	-10.513
該省	-10.5133
國用	-10.5133
見史類	-10.5136
之世	-10.5137
鑲紅旗	-10.5139
萬三千	-10.5141
之本	-10.5143
闔	-10.5145
四拜	-10.5145
雍正七年	-10.5146
兩廡	-10.5146
其時	-10.5149
議覆	-10.515
物料	-10.5153
鎮江	-10.5155
涇	-10.5158
聲明	-10.5159
可知	-10.516
渥	-10.516
夏至	-10.5161
西階	-10.5164
堂上	-10.5165
五里	-10.5168
昧	-10.517
罷之	-10.5171
分給	-10.5176
謀殺	-10.5177
之學	-10.5178
一字	-10.5181
於後	-10.5184
楷	-10.5184
戌	-10.5184
社倉	-10.5189
計贓	-10.519
十斤	-10.5191
乂	-10.5193
國語	-10.5194
私鹽	-10.5198
王公百官	-10.5199
以其子	-10.5201
疇	-10.5205
楞	-10.5205
汲	-10.5206
冝	-10.5207
搆	-10.5208
折色	-10.5209
尚儀	-10.5214
牛羊	-10.5214
大典	-10.5214
者曰	-10.5215
地平	-10.5217
游擊	-10.5223
躍	-10.5224
黄門侍郎	-10.5225
毓	-10.5226
滕	-10.5231
皇城	-10.5235
並令	-10.5245
題補	-10.5245
城内	-10.5246
四曰	-10.5257
牟	-10.5258
攷	-10.5258
祭之	-10.5261
及第	-10.5266
哈達	-10.527
題准	-10.5277
今據	-10.5277
承天	-10.5279
球	-10.5279
摘	-10.5279
長吏	-10.528
額數	-10.5283
饑民	-10.5286
寝	-10.5288
一條	-10.5289
蹈	-10.5289
都督府	-10.529
明史	-10.5291
三十一	-10.5294
僭	-10.5298
舄	-10.5298
自然	-10.5298
禘祫	-10.5299
昂	-10.53
苛	-10.5302
為宫	-10.5305
始於	-10.5306
候補	-10.5307
止於	-10.5308
水勢	-10.531
軍節度	-10.531
譚	-10.5315
翻	-10.5318
吿	-10.5319
監臨	-10.5321
之說	-10.5321
賊衆	-10.5323
司農	-10.5323
況	-10.5324
暗	-10.5324
則是	-10.5326
所定	-10.5326
造册	-10.5326
詳定	-10.5328
尊卑	-10.5331
修築	-10.5334
宣慰司	-10.5334
惟是	-10.5334
常朝	-10.5337
庚戌	-10.5337
無益	-10.5348
萬六千	-10.5351
應令	-10.5353
成功	-10.5353
人情	-10.5355
所部	-10.5356
定擬	-10.5358
兖州	-10.5359
徼	-10.536
折銀	-10.5361
五十年	-10.5364
菴	-10.5369
考滿	-10.537
之計	-10.5372
宗即位	-10.5373
田租	-10.5373
遂以	-10.5375
時享	-10.5376
奏樂	-10.5376
有二	-10.5379
官有	-10.538
遏	-10.538
兩京	-10.5381
翰林學士	-10.5384
聖徳	-10.5385
之左右	-10.5386
坡	-10.5387
應照	-10.5387
所需	-10.5388
漂	-10.5391
伏以	-10.5391
芒	-10.5391
列侯	-10.5392
大學	-10.5393
責成	-10.5393
綜	-10.5395
之餘	-10.5396
剪	-10.5397
紳	-10.5401
於本	-10.5405
復以	-10.5406
月初一日	-10.5407
各屬	-10.5418
胙	-10.5418
領侍衛内大臣	-10.5419
已有	-10.542
之主	-10.5422
貢方物	-10.5423
以金	-10.5423
人君	-10.5424
棍	-10.5426
千萬	-10.5436
喻	-10.5437
公子	-10.5439
簽	-10.5444
擇日	-10.5449
暖	-10.5453
戊申	-10.5453
𦂳	-10.5454
貟	-10.5456
羮	-10.5457
而還	-10.546
晝夜	-10.546
侍立	-10.5462
太白犯	-10.5464
掘	-10.547
真定	-10.5471
鱗	-10.5473
己酉	-10.5473
四十名	-10.5476
少府	-10.5481
之至意	-10.5483
貢使	-10.5487
是嵗	-10.5488
秋審	-10.5488
丙午	-10.5491
森	-10.5491
晚	-10.5494
莭	-10.5495
北平	-10.5498
一篇	-10.5503
聖主	-10.5506
各依	-10.5506
奉國將軍	-10.5508
出師	-10.5508
諡文	-10.5509
售	-10.5512
未可	-10.5512
恭進	-10.5514
卧	-10.5514
大將	-10.552
前鋒校	-10.5524
督撫提鎮	-10.5524
雅樂	-10.5525
城中	-10.5527
景泰	-10.5528
拾	-10.5529
每石	-10.553
巷	-10.5534
賞罰	-10.5536
甲午	-10.5539
條奏	-10.554
二百八十	-10.5545
其聲	-10.5547
淳化	-10.5547
暈	-10.555
十兩	-10.5551
五十四	-10.556
口外	-10.5565
照依	-10.5566
四十年	-10.5571
兊	-10.5571
慧	-10.5571
雁	-10.5572
立法	-10.5577
多有	-10.5581
忱	-10.5583
廣州	-10.5587
破之	-10.5589
壮	-10.5591
兇	-10.5594
弓箭	-10.5598
所當	-10.5603
為首者	-10.5605
外國	-10.5612
鬬	-10.5612
三十五年	-10.5615
蓬	-10.5615
徴銀	-10.5618
十有八	-10.562
國史	-10.5623
相去	-10.5625
員外	-10.5626
有三	-10.5627
半年	-10.5627
則為	-10.5627
模	-10.5632
踵	-10.5634
一章	-10.5635
不絶	-10.5636
金石	-10.5638
四十七	-10.5643
佳氏	-10.5644
三十九年	-10.5646
阮	-10.565
𦂳要	-10.5651
㢘	-10.5652
攝事	-10.5653
銖	-10.5656
額爾	-10.5658
第十	-10.5668
中都	-10.5668
詎	-10.567
乙巳	-10.567
黄門	-10.5671
致齋	-10.5671
四十六	-10.5672
指揮使	-10.5673
劇	-10.5674
淳熙	-10.5675
乾坤	-10.5676
丁憂	-10.5683
原額	-10.5684
北靣	-10.5685
六十五	-10.5686
三獻	-10.5688
纂修	-10.569
滇	-10.569
癸酉	-10.5691
狗	-10.5691
乙未	-10.5694
其屬	-10.5694
無射	-10.5695
使之	-10.5697
元年二月	-10.5698
十有一	-10.5702
勘合	-10.5703
從官	-10.5703
四尺	-10.5704
奇	-10.5707
戊辰	-10.5709
爽	-10.5709
冗	-10.5711
同上	-10.5712
艘	-10.5712
人材	-10.5712
稽古	-10.5713
寧逺	-10.5721
漢中	-10.5724
奉禮郎	-10.573
保甲	-10.573
支領	-10.5731
沾	-10.5734
亦曰	-10.5734
本犯	-10.5737
恩賜	-10.5738
出納	-10.574
其他	-10.5749
事發	-10.5751
研	-10.5752
之君	-10.5752
並未	-10.5759
職銜	-10.576
等議	-10.5765
想	-10.5769
年月	-10.577
降階	-10.5775
位在	-10.5776
六尺	-10.5777
崇禎	-10.5778
二十四人	-10.5778
進酒	-10.5782
三十七年	-10.5784
儀同	-10.5784
叠	-10.5787
移咨	-10.5788
八十一	-10.579
僕射	-10.579
九州	-10.579
必須	-10.5796
鞭一百	-10.5796
天文	-10.5802
所言	-10.5802
千古	-10.5806
五官	-10.5806
明日	-10.5808
礙	-10.5812
邢	-10.5814
新舊	-10.5817
漁	-10.5818
七千	-10.5818
噶爾丹	-10.582
自有	-10.5822
年間	-10.5822
砂	-10.5823
船隻	-10.5826
雍正五年	-10.5826
民力	-10.5829
陽郡	-10.5831
讐	-10.5835
措	-10.5845
昊	-10.5846
妃嬪	-10.5846
搭	-10.5848
一千二百	-10.5848
㕘將	-10.585
裙	-10.5851
技	-10.5851
誼	-10.5851
供奉	-10.5853
嚴加	-10.5854
爛	-10.5858
呈報	-10.5859
覃	-10.5864
祖母	-10.5867
両	-10.5872
汾	-10.5877
三年二月	-10.5878
沿海	-10.588
豈不	-10.5882
行至	-10.5883
㑹議	-10.5886
嚕	-10.5887
案件	-10.5888
形勢	-10.5889
瓚	-10.5892
劵	-10.5893
碎	-10.5894
書院	-10.5894
䓁	-10.5894
動支	-10.5895
十疋	-10.5898
先帝	-10.5899
臚	-10.5901
九名	-10.5902
三老	-10.5903
職名	-10.5907
枷	-10.5908
方物	-10.5909
條例	-10.5911
于是	-10.5912
矯	-10.5916
神牌	-10.5919
長樂	-10.592
二十萬	-10.5922
吏部侍郎	-10.5923
或曰	-10.5924
鈴	-10.5931
處所	-10.5932
第七	-10.5933
樂懸	-10.5934
廷尉	-10.5936
瀋陽	-10.5936
股	-10.5937
幔	-10.5942
至于	-10.5951
俄	-10.5952
幡	-10.5953
朕心	-10.5957
鄴	-10.5957
以出	-10.5957
開寳	-10.5963
攤	-10.5966
諸色	-10.5968
者聽	-10.5969
次年	-10.5971
合於	-10.5974
遣人	-10.5975
装	-10.5975
迷	-10.5978
後殿	-10.598
外官	-10.5982
中道	-10.5983
衙署	-10.5984
左氏	-10.5984
絰	-10.5985
圈	-10.5987
尋常	-10.5991
最為	-10.5995
叩頭	-10.5995
丙辰	-10.5995
狐	-10.5996
徒流	-10.5997
一疋	-10.5997
之患	-10.5998
之號	-10.6001
文公	-10.6001
不易	-10.6001
因循	-10.6004
王以下	-10.6005
跪受	-10.6007
生事	-10.6013
為此	-10.6015
㤙	-10.6016
己亥	-10.6017
焦	-10.6018
可見	-10.6018
軍事	-10.6028
别有	-10.6031
順帝	-10.6032
按察司	-10.6032
彼此	-10.6033
至日	-10.6034
五十五	-10.6035
三十二年	-10.6038
詹事	-10.6041
曰朕	-10.6041
四縣	-10.6041
散官	-10.6044
一經	-10.6045
筮	-10.6046
揀選	-10.6056
礟	-10.6056
存貯	-10.6059
者令	-10.6061
中宫	-10.6062
著為令	-10.6064
開國	-10.6069
中式	-10.6072
版位	-10.6075
乙丑	-10.6078
囬	-10.6078
四十四	-10.6078
癸巳	-10.6079
筐	-10.6082
一石	-10.6086
册寶	-10.6091
封禪	-10.6094
夷則	-10.6098
察明	-10.61
拊	-10.6103
軍政	-10.6106
於壇	-10.6107
猪	-10.6108
始置	-10.6112
鞠躬	-10.6114
京畿	-10.6117
正副使	-10.6118
壬申	-10.6118
官民	-10.6119
丁酉	-10.6122
敝	-10.6123
廣寧	-10.6123
水陸	-10.6123
幷	-10.6124
潁	-10.6125
擊敗	-10.6126
次詣	-10.6126
矩	-10.6127
異姓	-10.6129
二年四月	-10.6138
犢	-10.6139
涵	-10.614
彪	-10.6142
内史	-10.6143
衮冕	-10.6146
三十四年	-10.6147
様	-10.6148
初屬	-10.6149
十丈	-10.615
山東河南	-10.6157
居民	-10.6157
答拜	-10.6158
柵	-10.6162
熒惑犯	-10.6162
陀	-10.6162
毎嵗	-10.6163
武昌	-10.6167
特命	-10.617
揑	-10.617
所請	-10.6172
該員	-10.6172
黍稷	-10.6172
長短	-10.6173
案内	-10.6175
云云	-10.6176
俱照	-10.6179
十有三	-10.618
四夷	-10.6182
丙申	-10.6184
苐	-10.6185
􁀙	-10.6185
等奏	-10.6187
守衛	-10.6188
如果	-10.6188
慶元	-10.6189
大司馬	-10.6191
其二	-10.6194
女子	-10.6196
而言	-10.6197
修撰	-10.6197
選舉	-10.6201
宫縣	-10.6204
天地之	-10.6206
主之	-10.621
國人	-10.6214
泗	-10.6214
噶爾	-10.6215
跪進	-10.6216
受之	-10.6216
陳於	-10.6217
貴賤	-10.6217
周易	-10.6218
簷	-10.6218
丙戌	-10.6223
竣	-10.6224
六合	-10.6225
令丞	-10.6225
嬰	-10.6226
石塘	-10.6228
做	-10.6231
滙	-10.6245
諌	-10.6245
鉤	-10.6248
滌	-10.6249
擇其	-10.6257
上有	-10.6258
佐領係	-10.6265
一在	-10.6268
畤	-10.6268
情願	-10.6275
盗賊	-10.6276
古文	-10.6277
帝崩	-10.6278
梓	-10.6278
帝以	-10.6283
太社	-10.6289
十餘	-10.629
禋	-10.6293
無以	-10.6294
祭文	-10.6295
旗下	-10.6295
二年三月	-10.6295
杆	-10.6296
進退	-10.6297
堯舜	-10.6299
門下侍郎	-10.6301
一同	-10.6303
一人掌	-10.6307
唐宋	-10.6307
琮	-10.6308
丹陛	-10.6309
奢	-10.631
萬八千	-10.6311
照常	-10.6311
肅宗	-10.6313
恣	-10.6325
塩	-10.6326
分引	-10.6327
快	-10.6328
官至	-10.6328
地畆	-10.633
辛酉	-10.633
陂	-10.6332
淨	-10.6334
厯代	-10.6334
皇地祇	-10.6335
訓導	-10.6336
嚴禁	-10.6337
八兩	-10.6341
稼	-10.6342
領縣四	-10.6345
而去	-10.6347
一斗	-10.6348
各部院	-10.6348
觀察使	-10.635
廻	-10.6355
兖	-10.6357
鑾儀衛	-10.6358
緑營	-10.6359
狹	-10.636
恢	-10.6361
西上	-10.6365
乘馬	-10.6365
永興	-10.6367
東上	-10.6369
乾隆十六年	-10.6372
東西向	-10.6374
憚	-10.6374
在位者皆再拜	-10.6378
索倫	-10.638
堂下	-10.6381
衙	-10.6381
朕思	-10.6383
嘉祐	-10.6386
勃	-10.6387
例應	-10.6389
枯	-10.6394
迫	-10.6395
梯	-10.6396
江陵	-10.6396
虐	-10.6397
漢文	-10.6398
擔	-10.6398
栱	-10.6404
補服	-10.6406
五十九	-10.6409
庚午	-10.6413
壬寅	-10.6414
而未	-10.6415
慿	-10.6416
逃人	-10.6416
鎖	-10.6418
臣某	-10.6422
之聲	-10.6424
立廟	-10.6429
均照	-10.6431
疏請	-10.6431
貴人	-10.6433
馨	-10.6433
許之	-10.6438
丙子	-10.6438
國學	-10.644
之大	-10.644
奄	-10.644
袴	-10.6442
桌	-10.6445
以濟	-10.6445
於西	-10.6447
渡江	-10.6448
動用	-10.6452
協律郎	-10.6452
甄	-10.6453
祖父母父母	-10.6454
日食	-10.6455
太倉	-10.6456
海内	-10.6457
彞	-10.6458
其弊	-10.6458
笏	-10.6458
日給	-10.646
百斤	-10.6465
奏明	-10.6466
弧	-10.6468
無算	-10.6469
以成	-10.6473
嗣立	-10.648
鎮標	-10.6481
婆	-10.6484
四十五年	-10.6486
四萬	-10.6489
青海	-10.6489
鑰	-10.6489
卿大夫	-10.649
十萬石	-10.6491
質明	-10.6494
生計	-10.6496
州界	-10.6497
得失	-10.6497
檀	-10.6498
圓明園	-10.6499
㸔	-10.6501
欄	-10.6505
斟酌	-10.6508
每一	-10.6508
古尺	-10.6511
里南北距	-10.6518
數萬	-10.6521
㡌	-10.6521
萬二千	-10.6522
鎮國將軍	-10.6523
初設	-10.6524
犯法	-10.6525
相對	-10.6533
屬官	-10.6534
所宜	-10.6534
皆得	-10.6535
大興	-10.6535
在右	-10.6538
至此	-10.6538
降調	-10.6544
掲	-10.6545
不欲	-10.6546
選人	-10.6554
應天	-10.6556
百五十	-10.656
海塘	-10.656
得之	-10.6562
保送	-10.6563
正官	-10.6564
戊戌	-10.6564
之舊	-10.6567
又按	-10.657
盥手	-10.6571
十二日	-10.6574
無庸	-10.6575
夥	-10.6576
徇	-10.6579
製造	-10.658
尚書令	-10.6584
戊寅	-10.6585
百年	-10.6587
開封府	-10.6589
一千五百	-10.659
駢	-10.6591
犧尊	-10.6591
宵	-10.6591
蠻夷	-10.6593
十一日	-10.66
行人	-10.66
副将	-10.6601
陕西	-10.6605
贖罪	-10.6611
在左	-10.6613
侍臣	-10.6614
人多	-10.6615
唐虞	-10.6615
乃命	-10.6619
敖	-10.6621
二百七十	-10.6624
依律	-10.6625
甲申	-10.6625
至正	-10.6627
濯	-10.6627
僱	-10.6627
各就位	-10.6632
生民	-10.6633
辜	-10.6634
如無	-10.6639
堵	-10.6641
皆仍	-10.6641
殿庭	-10.6647
實在	-10.6648
官一人	-10.6648
者又	-10.6653
琵琶	-10.6655
廣平	-10.6657
不給	-10.666
二百六十	-10.6674
平縣	-10.6674
悉心	-10.6675
祭日	-10.6677
觸	-10.6677
狩	-10.6682
號曰	-10.6683
伯克	-10.6684
辟雍	-10.6685
忠義	-10.6686
饋	-10.669
夘	-10.669
奉行	-10.6691
乾清門	-10.6692
主昏者	-10.6695
叟	-10.6695
寧古塔	-10.6698
捨	-10.6699
恥	-10.6702
入門	-10.6703
節制	-10.6706
差役	-10.6706
酌酒	-10.6707
阿之妻	-10.6707
埽	-10.6714
四十九年	-10.6716
詳議	-10.6717
珊瑚	-10.6718
福州	-10.6718
窄	-10.6719
古制	-10.6719
癸未	-10.6725
開封	-10.6727
無過	-10.6728
甲寅	-10.6729
俵	-10.6736
韜	-10.6742
科爾沁	-10.6742
槃	-10.6742
狂	-10.6743
恨	-10.6744
世孫	-10.6745
賫	-10.6746
琿	-10.6749
餘同	-10.675
左輔	-10.6753
與其	-10.6757
該督	-10.6757
州或為	-10.6757
墊	-10.6761
㑹稽	-10.6762
大觀	-10.6762
辛亥	-10.6763
小學	-10.6763
厨	-10.6769
秘	-10.677
工人	-10.6772
人口	-10.6772
二百三十	-10.6772
數日	-10.6774
樞密院	-10.6777
贊禮唱	-10.6777
軍中	-10.6777
塗金	-10.6777
其意	-10.6778
夙	-10.678
未得	-10.6782
駙馬	-10.6782
記曰	-10.6783
澗	-10.6787
欲以	-10.6789
帥其屬	-10.6789
不分	-10.6793
亦為	-10.6793
進貢	-10.6798
所至	-10.6804
相見	-10.6806
者革職	-10.6807
飽	-10.6808
仲春	-10.681
三十里	-10.6811
拓	-10.6812
亦應	-10.6816
食甚	-10.6822
魏晉	-10.6822
高宗	-10.6822
縣民	-10.6824
加一級	-10.6826
松山	-10.6828
司香	-10.6828
府學	-10.6828
聖人之	-10.6828
郡守	-10.683
九日	-10.6836
禮部堂官	-10.6837
晌	-10.6837
萬民	-10.6839
讞	-10.6841
三年三月	-10.6841
軍務	-10.6842
四等	-10.6843
之限	-10.6843
皆再拜	-10.6844
加以	-10.6844
之議	-10.6845
贊引引	-10.6845
承祭官	-10.685
申明	-10.6851
壬辰	-10.6852
龎	-10.6853
因事	-10.6857
官學生	-10.6858
不即	-10.686
建立	-10.6866
加意	-10.6869
軍人	-10.6871
大中	-10.6873
遴選	-10.6875
驟	-10.6875
復命	-10.6876
煎	-10.6876
壅	-10.6876
中軍守備一人	-10.688
太白晝見	-10.6881
引禮引	-10.6881
矣然	-10.6883
駿	-10.6886
則例	-10.6886
論語	-10.6892
照磨	-10.6893
卽	-10.6894
羞	-10.6894
樞宻	-10.6896
藴	-10.6898
己丑	-10.6898
奨	-10.6899
神明	-10.6899
終身	-10.6903
丁巳	-10.6907
進攻	-10.6909
剿	-10.6916
大臣官員	-10.6918
南山	-10.6918
鬱	-10.6919
其禮	-10.6921
城外	-10.6923
奉㫖依議	-10.6925
大如	-10.6927
大風	-10.693
復舊	-10.6931
襖	-10.6932
掖	-10.6933
田賦	-10.6933
未盡	-10.6933
律令	-10.6933
四日	-10.6937
出笏	-10.6938
七十五	-10.6942
繆	-10.6942
襲爵	-10.6943
祖父母	-10.6945
者一	-10.6946
奮勇	-10.6947
有常	-10.6948
罵	-10.6948
内命婦	-10.6949
二年五月	-10.6949
丁亥	-10.695
總管府	-10.6952
為始	-10.6952
配天	-10.6954
大業	-10.6954
原註	-10.6954
鞍馬	-10.696
先賢	-10.6964
戊午	-10.6965
三等侍衛	-10.6965
因其	-10.6967
十餘萬	-10.6967
萌	-10.6968
所見	-10.6971
年限	-10.6972
而出	-10.6972
兩翼	-10.6973
滄	-10.6974
脯	-10.6974
烝	-10.6978
曺	-10.6979
是故	-10.6979
情罪	-10.6982
紅羅	-10.6983
暑	-10.6984
爾雅	-10.6985
經筵	-10.6985
曾孫	-10.6985
芬	-10.6987
曽孫	-10.6987
尊諡	-10.6989
冩	-10.6989
葵	-10.6991
遮	-10.6991
相繼	-10.6992
五十三	-10.6994
人所	-10.6995
氏正白旗滿洲馬甲	-10.6997
以至	-10.6998
三百五十	-10.6998
配帝	-10.7
二年六月	-10.7003
袖	-10.7004
四十三	-10.7005
在今	-10.7008
義倉	-10.7009
缺出	-10.701
揮	-10.7011
中門	-10.7011
忒	-10.7011
谿	-10.7012
甲戌	-10.7012
取具	-10.7013
元孫	-10.7013
官二人	-10.7014
賡	-10.7015
行幸	-10.7017
十六日	-10.702
鬼神	-10.7021
提㸃	-10.7028
在於	-10.7028
濤	-10.7033
香案	-10.7038
祭告	-10.704
王氏	-10.7043
本紀	-10.7043
銀米	-10.7046
未見	-10.7047
二十卷	-10.7055
郡公	-10.7056
孽	-10.7057
乗馬	-10.7058
特進	-10.7061
參軍	-10.7063
文廟	-10.7065
儒學	-10.7069
喪服	-10.7069
定限	-10.707
其職	-10.7072
調補	-10.7077
建康	-10.7078
踈	-10.7078
奉詔	-10.7079
號為	-10.7084
奠爵	-10.7093
簋	-10.7099
驢	-10.7101
逃亡	-10.7102
丙寅	-10.7102
人主	-10.7103
庚申	-10.7106
曷	-10.7109
九江	-10.7114
到任	-10.7114
後人	-10.7118
永嘉	-10.7123
之情	-10.7125
晩	-10.7125
姊妹	-10.7127
卷一百	-10.7127
椿	-10.7127
之役	-10.7129
幃	-10.7134
内附	-10.7134
祭服	-10.7138
畱	-10.714
北面立	-10.7141
亦當	-10.7144
五福	-10.7146
巴里坤	-10.7148
之水	-10.715
後改	-10.7152
訓練	-10.7153
嵗星	-10.7154
減等	-10.7157
北向西上	-10.7158
萬户	-10.7158
北路	-10.716
相距	-10.716
降一級調用	-10.7161
各有差	-10.7162
總領	-10.7163
又再拜	-10.7165
輔國將軍	-10.7165
時刻	-10.7166
中宗	-10.7167
之節	-10.7167
著加恩	-10.7175
制錢	-10.7178
降襲	-10.7179
緩急	-10.718
大門外	-10.7183
罍	-10.7184
各服其服	-10.7186
隆興	-10.7188
所犯	-10.719
搏	-10.7191
門之外	-10.7194
故有	-10.7199
冷	-10.7199
者雖	-10.7206
傘	-10.7214
獻爵	-10.7215
三員	-10.7217
歎	-10.7217
元史	-10.7218
並用	-10.7219
丈夫	-10.7222
安置	-10.7226
軒轅	-10.7226
衆官	-10.7227
通事舍人	-10.7235
可得	-10.7237
攀	-10.7237
諸子	-10.7238
更代	-10.724
城郭	-10.7242
十五人	-10.7245
席於	-10.7247
之象	-10.7249
大樂令	-10.7249
失其	-10.725
所過	-10.7253
鎮撫	-10.7256
律治罪	-10.7257
戊子	-10.7266
官弁	-10.7266
見其	-10.7266
不問	-10.7268
征伐	-10.7268
九百	-10.7269
磚	-10.7272
中和	-10.7275
起解	-10.7277
十畝	-10.7278
土地	-10.7278
兩五錢	-10.728
名為	-10.7285
復有	-10.7285
秦漢	-10.7286
虎賁	-10.7287
王大臣	-10.7288
宫人	-10.7296
祀天	-10.7297
萬緡	-10.7304
順治二年	-10.7308
䖏	-10.7313
裁汰	-10.7314
執政	-10.7316
傳諭	-10.7316
禫	-10.7317
事者	-10.732
各四	-10.7322
壬子	-10.7324
黑龍江	-10.7325
一度	-10.7326
龍亭	-10.7327
奕	-10.7328
長蘆	-10.7331
瓣	-10.7334
其本	-10.7337
年諡	-10.7337
彊	-10.7339
八旬	-10.7342
聖朝	-10.7342
視其	-10.7344
吏目	-10.7347
無故	-10.7349
糧道	-10.7349
人命	-10.735
武臣	-10.7355
差遣	-10.7356
敞	-10.7358
湧	-10.7358
達爾	-10.7359
邏	-10.7359
追尊	-10.7361
忿	-10.7362
挺	-10.7362
管勾	-10.7362
稍前	-10.7364
分司	-10.7364
者止	-10.7369
佐領名	-10.7369
徽宗	-10.737
太公	-10.7372
前引	-10.7372
皇孫	-10.7373
濵	-10.7373
清吏司	-10.7375
各府	-10.7375
賄	-10.7376
縷	-10.7382
等弊	-10.7385
殱	-10.7385
濮	-10.7389
迴避	-10.7389
搶	-10.7393
孝子	-10.7394
者杖一百	-10.7396
第八	-10.74
萬四千	-10.7402
奉移	-10.7403
攬	-10.7403
仲吕	-10.7404
相承	-10.7405
新城	-10.7405
詩書	-10.7406
解部	-10.7408
金輅	-10.741
三十名	-10.7412
尤為	-10.7412
三百二十	-10.7412
詔以	-10.7412
不容	-10.7413
入海	-10.7415
建安	-10.7416
中尉	-10.7417
天竺	-10.7424
衾	-10.7425
贊禮郎	-10.743
蜡	-10.7432
八尺	-10.7432
旗分	-10.7433
薦舉	-10.7433
青州	-10.7433
病故	-10.7436
交代	-10.7437
敗之	-10.7437
舊典	-10.744
牧馬	-10.7443
方許	-10.7443
在官	-10.7445
未聞	-10.7447
一釐	-10.745
存案	-10.7451
盞	-10.7455
不獲	-10.7456
莅	-10.7457
皷	-10.7457
親征	-10.7458
保題	-10.7459
至意	-10.7461
引見補授	-10.7463
千戸	-10.7469
臣下	-10.7469
後唐	-10.747
坍	-10.747
未知	-10.7473
貌	-10.7476
槐	-10.7476
者若	-10.7477
轉運使	-10.7477
通省	-10.7479
諸王大臣	-10.7479
恊	-10.7479
特穆爾	-10.7479
十有四	-10.7481
増置	-10.7482
省牲	-10.7482
所管	-10.7483
几筵	-10.7485
省入	-10.7486
選擇	-10.7487
五十人	-10.7487
全完	-10.7491
夏秋	-10.7491
萬嵗	-10.7495
子曰	-10.7495
浴	-10.75
款	-10.7501
濠	-10.7504
執笏	-10.7507
下至	-10.7508
忌辰	-10.751
孟春	-10.751
李氏	-10.7513
書吏	-10.7513
在上	-10.7514
改用	-10.7515
禮直官引	-10.7516
者如	-10.7516
十六卷	-10.7516
右侍郎	-10.7517
元日	-10.7518
幽州	-10.7521
庶幾	-10.7523
分班	-10.7525
弑	-10.7531
祈穀	-10.7531
通事	-10.7533
豁	-10.7533
出宫	-10.7534
明經	-10.7535
升堂	-10.7536
曉諭	-10.754
煬帝	-10.7542
五十名	-10.7549
字子	-10.7549
鳩	-10.7549
捉	-10.755
待制	-10.755
清口	-10.755
常平倉	-10.7551
誡	-10.7551
率土	-10.7557
者與	-10.7559
崇寧	-10.756
皆無	-10.7562
於前	-10.7569
株	-10.7571
跋	-10.7571
己巳	-10.7572
纒	-10.7573
等州	-10.7576
蔚	-10.7577
卑幼	-10.7578
安奉	-10.7579
濟寧	-10.7584
員缺	-10.7587
指示	-10.7587
斌	-10.759
發落	-10.7591
安設	-10.7591
蠟	-10.7594
赴京	-10.7595
庚寅	-10.7597
哭盡哀	-10.7597
無子	-10.7598
又為	-10.7598
粥	-10.7598
三年四月	-10.76
餘如	-10.76
沮	-10.7601
朕意	-10.7601
商民	-10.7603
禮部官	-10.7607
文宗	-10.7607
克圖	-10.7607
縣官	-10.7609
八十四	-10.7611
下有	-10.7613
即今	-10.7613
實心	-10.7614
自稱	-10.7615
北極	-10.7616
班第	-10.7616
二百九十	-10.7617
時日	-10.7622
蔬	-10.7624
牖	-10.7624
乾隆三年	-10.7625
災傷	-10.7626
一處	-10.7626
郢	-10.7626
主婦	-10.7628
鑲	-10.7632
元年四月	-10.7632
三府	-10.7635
武德	-10.7637
士庶	-10.7638
前鋒䕶軍	-10.7638
杏	-10.7638
等皆	-10.7639
為正	-10.7641
之子孫	-10.7648
所能	-10.765
相符	-10.7651
夙夜	-10.7651
徒三年	-10.7651
設官	-10.7655
之犯	-10.7655
應將	-10.7656
立為	-10.7657
西寧	-10.7658
元初	-10.7659
查勘	-10.766
賁	-10.7669
淡	-10.7672
為人	-10.7672
之衆	-10.7674
春夏	-10.7675
定額	-10.7675
公孫	-10.7682
武弁	-10.7684
提調	-10.7684
中郎將	-10.7687
上公	-10.7689
是書	-10.7691
椒	-10.7692
筠	-10.7692
舞蹈	-10.7693
烏嚕木齊	-10.7694
薊	-10.7696
也而	-10.7696
本官	-10.7697
筭	-10.7697
運司	-10.7697
跪奏	-10.7701
王等	-10.7704
五曰	-10.7706
原設	-10.7707
府尹	-10.771
相度	-10.7714
醉	-10.7714
無卷	-10.7714
右門	-10.7717
五十八	-10.772
之妻趙	-10.772
硃	-10.7721
無定員	-10.7724
四十三年	-10.7724
革退	-10.7725
陟	-10.7726
著將	-10.7732
二兩	-10.7733
四書	-10.7735
任内	-10.7736
憶	-10.7739
不待	-10.774
另行	-10.7741
電	-10.7741
䑕	-10.7741
拾遺	-10.7743
珮	-10.7744
俱係	-10.7747
四年二月	-10.7748
王國	-10.7748
少頃	-10.7751
官制	-10.7751
與民	-10.7755
日久	-10.7756
入學	-10.7762
詩曰	-10.7763
㪚	-10.7764
免罪	-10.7765
營守備一人	-10.7766
將領	-10.7766
汎	-10.7767
藤	-10.7767
注册	-10.7771
古北口	-10.7771
卭	-10.7773
六十七	-10.7775
失之	-10.7777
官一員	-10.7779
以防	-10.7781
殿門	-10.7783
跳	-10.7787
通典	-10.7789
潦	-10.779
彤	-10.7794
聞奏	-10.7794
去處	-10.7797
脱逃	-10.7801
朝見	-10.7802
聚衆	-10.7804
霧	-10.7809
太康	-10.781
伯克一人	-10.7812
乙亥	-10.7813
旭	-10.7815
皆由	-10.7815
請將	-10.7817
官田	-10.7817
臨軒	-10.7818
涖	-10.7819
品官	-10.7823
一首	-10.7827
等第	-10.7828
戊	-10.7829
尚食	-10.783
簧	-10.7832
滑	-10.7832
舊章	-10.7833
都䕶	-10.7836
四旗	-10.7838
近侍	-10.784
鼻	-10.7844
元帥	-10.7847
公侯	-10.7847
復設	-10.7849
艱難	-10.7851
耆老	-10.7852
伯叔	-10.7859
尚饗	-10.786
大司樂	-10.7863
愷	-10.7864
𨗳	-10.7865
五采	-10.7865
者均	-10.7866
不完	-10.7867
儆	-10.7868
皁	-10.7869
分兵	-10.7869
方澤	-10.787
嵗時	-10.788
典簿	-10.7883
恭逢	-10.7883
開採	-10.7887
莊頭	-10.7892
鵬	-10.7892
釁	-10.7893
諸書	-10.7893
今尺	-10.7895
無常	-10.7898
磁	-10.7899
情弊	-10.7903
七廟	-10.7904
宣府	-10.7906
康熙二十三年	-10.7909
如前儀	-10.791
械	-10.791
徵收	-10.7911
七卷	-10.7912
挽	-10.7912
從重治罪	-10.7914
發兵	-10.7915
三輔	-10.7916
駭	-10.7917
張家口	-10.7917
墮	-10.7918
為率	-10.7923
不願	-10.7923
熱	-10.7924
孝陵	-10.7925
城南	-10.7925
言其	-10.793
都御史	-10.7932
固山貝子	-10.7934
給以	-10.7937
癸亥	-10.794
數人	-10.7942
還本位	-10.7943
典儀贊	-10.7945
碉	-10.7947
通事舍人引	-10.7954
千二百	-10.7954
不服	-10.7956
六釐	-10.7957
如舊	-10.7961
有益	-10.7962
攻克	-10.7962
令各	-10.7962
進爵	-10.7964
憐	-10.7964
癸丑	-10.7964
祖考	-10.7965
外命婦	-10.7965
灑	-10.7967
朴	-10.7969
厪	-10.7973
中統	-10.7975
為奴	-10.7977
諸處	-10.7978
安國	-10.7979
不下	-10.798
醢	-10.798
於下	-10.7981
四十一年	-10.7981
奉表	-10.7982
豈有	-10.7983
截留	-10.7986
多者	-10.7989
警蹕	-10.7991
千載	-10.7992
琉璃	-10.7994
坑	-10.7995
太宰	-10.8
首飾	-10.8002
椽	-10.8007
者非	-10.8008
禮服	-10.8009
二年十一月	-10.8011
江東	-10.8012
元年詔	-10.8015
聖夀	-10.8017
冕服	-10.8017
悃	-10.8017
蠧	-10.8017
南昌	-10.8018
蠡	-10.8021
租銀	-10.8021
在南	-10.8022
官給	-10.8023
應天府	-10.8032
寧縣	-10.8033
初以	-10.8035
厄	-10.8036
溜	-10.804
東路	-10.8041
撫臣	-10.8042
不滿	-10.8044
龍門	-10.8046
顆	-10.8047
大義	-10.8047
之月	-10.8049
之度	-10.805
一百一十	-10.8051
隙	-10.8057
知事	-10.8059
奉祀	-10.806
百石	-10.8061
𩔖	-10.8063
答曰	-10.8064
應請	-10.8065
元年七月	-10.8067
皆在	-10.8068
五十二年	-10.8069
期滿	-10.8069
階上	-10.8069
情實	-10.8072
稍有	-10.8072
元年三月	-10.8072
先詣	-10.8076
未成	-10.8076
枉法	-10.808
之國	-10.8083
改屬	-10.8085
前殿	-10.8085
堂子	-10.8086
永逺	-10.8087
導從	-10.8088
西洋	-10.8089
不舉	-10.8089
罰俸三月	-10.809
進至	-10.809
薩載	-10.8091
宫門	-10.8091
恭領	-10.8092
十二月襲	-10.8092
以外	-10.8092
鹽法	-10.8097
東井	-10.8098
頤	-10.8099
不改	-10.81
頒發	-10.8101
昴	-10.8104
萊	-10.8107
西門	-10.8108
月日	-10.8108
北岸	-10.8109
上供	-10.811
康熙十三年	-10.811
等言	-10.811
故不	-10.8111
星出	-10.8112
以禮	-10.8112
内管領	-10.8115
内務府總管	-10.8115
童生	-10.8116
昆弟	-10.8116
十有七	-10.8118
二旗	-10.8118
同日	-10.812
孺	-10.8121
其在	-10.8122
後復	-10.8125
二年詔	-10.8125
相同	-10.8126
之責	-10.8127
道士	-10.8132
等各	-10.8133
改名	-10.8133
宣撫司	-10.8133
分置	-10.8134
士民	-10.8135
未幾	-10.8135
棉	-10.8138
若此	-10.814
枕	-10.8142
謁者引太尉	-10.8144
仍將	-10.8144
近日	-10.8148
儀衛	-10.815
寺丞	-10.8151
王制	-10.8153
種地	-10.8156
天成	-10.8161
舛	-10.8162
禎	-10.8163
歐陽	-10.8166
甘泉	-10.8173
我兵	-10.8174
二年七月	-10.8176
年久	-10.8177
五十七	-10.8179
本州	-10.8179
諸家	-10.818
水手	-10.8182
釐五毫	-10.8183
梵	-10.8185
五升	-10.8185
所獲	-10.8187
有不	-10.8187
少監	-10.8188
左右衛	-10.8189
宰執	-10.819
紵絲	-10.8191
雲中	-10.8192
惇	-10.8195
前鋒統領	-10.8195
粹	-10.8196
宋制	-10.8199
酷	-10.82
措置	-10.8211
秦州	-10.8211
婢	-10.8215
河内	-10.8215
文移	-10.8217
各員	-10.8218
本管	-10.8223
安之樂作	-10.8223
任意	-10.8224
奴僕	-10.8229
考功	-10.8231
納采	-10.8234
額設	-10.824
聖訓	-10.8242
筵宴	-10.8243
懈	-10.8244
散騎常侍	-10.8245
闌	-10.8245
苞	-10.8245
雅爾	-10.8248
晟	-10.825
產	-10.825
士大夫	-10.8252
完顔	-10.8253
元年五月	-10.8253
編為	-10.8254
十二名	-10.8256
河臣	-10.8259
所為	-10.8264
安帝	-10.8267
幄次	-10.8267
廣徳	-10.8268
赴部	-10.8268
紋	-10.8268
治平	-10.8271
七十六	-10.8272
巴圖魯	-10.8273
自當	-10.8273
淮揚	-10.8275
至京	-10.8275
咸平	-10.8277
西至	-10.8279
八音	-10.8282
同時	-10.8286
例治罪	-10.8286
委員	-10.8286
景福	-10.8287
侑	-10.8289
二人掌	-10.829
稔	-10.8291
臣工	-10.8294
醬	-10.8297
蜜	-10.83
同居	-10.8308
郎官	-10.831
曲阜	-10.831
大厯	-10.8312
於外	-10.8314
乾徳	-10.8317
漠	-10.8318
米價	-10.8318
運糧	-10.8318
宵旰	-10.8319
已即位	-10.832
濕	-10.832
犯者	-10.8321
天神	-10.8321
玉牒	-10.8322
典故	-10.8323
飲酒	-10.8324
縣屬	-10.8326
卒哭	-10.8327
牲畜	-10.8328
王妃	-10.8328
私自	-10.8328
餅	-10.8329
各以其	-10.8329
得罪	-10.8331
百匹	-10.8337
自為	-10.8339
之風	-10.8343
神坐	-10.8343
十七日	-10.8343
行三跪九叩禮	-10.8345
其王	-10.8345
爪	-10.8346
宫殿	-10.8347
泣	-10.8347
促	-10.8348
教坊	-10.8348
安得	-10.8351
科舉	-10.8356
必先	-10.8357
山陽	-10.8357
蘇松	-10.8368
秦王	-10.8369
雩	-10.8372
壬戌	-10.8372
之弟	-10.8374
並行	-10.8374
三年五月	-10.8375
五十里	-10.8376
者斬	-10.8376
長春	-10.8376
磨勘	-10.8377
三百四十	-10.8379
浙省	-10.838
案上	-10.8381
乃詔	-10.8382
前行	-10.8383
力戰陣亡	-10.8385
涸	-10.8386
朝夕	-10.8389
二錢	-10.8391
攜	-10.8395
六經	-10.8395
頁	-10.8395
卓異	-10.8397
柯	-10.8399
二三	-10.84
散齋	-10.8401
袋	-10.8401
推官	-10.8402
亦然	-10.8406
之廟	-10.8408
監本	-10.8413
所收	-10.8414
衣食	-10.8416
朔方	-10.8416
貼金	-10.8416
於壇上	-10.8418
形如	-10.8419
隨征	-10.8419
誣告	-10.8421
黄鐘	-10.8422
臨安	-10.8423
倒斃	-10.8424
溫	-10.8424
賞賜	-10.8424
虢	-10.8426
青龍	-10.8427
絛	-10.8427
乾元	-10.8427
七尺	-10.8427
河道總督	-10.8428
醇	-10.8428
二十八日	-10.8429
五兩	-10.8432
三州	-10.8437
經史	-10.8438
立春	-10.8438
之妻劉	-10.8443
愛民	-10.8444
坐罪	-10.8446
一等輕車都尉	-10.8446
給賞	-10.8446
摺	-10.845
鳥鎗䕶軍	-10.8451
十四卷	-10.8452
各部	-10.8455
祫祭	-10.8455
峩	-10.8457
尊號	-10.8457
兩有竒	-10.8457
二年八月	-10.8458
陌	-10.8459
州屬	-10.846
轝	-10.846
詳加	-10.8462
較之	-10.8462
達嚕噶齊	-10.8464
之路	-10.8465
之語	-10.8468
者依	-10.847
霖	-10.847
剰	-10.8471
中官	-10.8472
萬一	-10.8472
一路	-10.8473
八釐	-10.8476
寮	-10.8477
四十一	-10.8479
乾隆二十二年	-10.848
沖	-10.8482
已久	-10.8483
屨	-10.8484
除之	-10.8485
粒	-10.8488
監候	-10.8489
海陵	-10.8492
直長	-10.8495
考察	-10.8499
盡行	-10.8506
三百三十	-10.8506
宣德	-10.8506
從其	-10.8507
升自西階	-10.8508
神功	-10.8509
中原	-10.8513
相傳	-10.8513
金山	-10.8514
宿遷	-10.8514
營田	-10.8514
詩賦	-10.8515
六百石	-10.8523
景祐	-10.8523
妣	-10.8524
三等男	-10.8525
雍正四年	-10.8525
錦衣衛	-10.8531
悖	-10.8533
淳熈	-10.8534
三釐	-10.8535
東省	-10.8536
養馬	-10.8536
自今以後	-10.8539
驛站	-10.8539
城守	-10.8539
雨雹	-10.854
縣學	-10.854
也此	-10.8541
進士官至	-10.8545
交部	-10.8545
具呈	-10.8545
掾	-10.8546
餘石	-10.8553
一本	-10.8554
仍行	-10.8556
内選	-10.8556
徹豆	-10.8557
疏濬	-10.856
罪止	-10.856
勤勞	-10.8561
贊禮者引	-10.8561
經費	-10.8565
其應	-10.8566
秋冬	-10.8571
麴	-10.8573
官為	-10.8574
倖	-10.8588
興化	-10.8588
祥符	-10.8589
之宜	-10.8592
三十三年	-10.8597
朶	-10.8598
初制	-10.8598
將此	-10.8598
陞座	-10.8602
者罰俸一年	-10.8602
千五百	-10.8604
用者	-10.8605
一百十	-10.8608
岑	-10.8608
杯	-10.8608
午門外	-10.861
襯	-10.861
大中祥符	-10.8611
琛	-10.8615
請照	-10.8617
康熙元年	-10.8617
收成	-10.8617
琖	-10.8618
一門	-10.862
本府	-10.862
降為	-10.8622
始以	-10.8623
本末	-10.8625
氏正黄旗滿洲馬甲	-10.8626
不忘	-10.8629
非所以	-10.8629
可比	-10.8631
漢官	-10.8633
翎	-10.8633
興工	-10.8635
親詣行禮	-10.8636
就次	-10.8636
醮	-10.8638
車馬	-10.8638
為重	-10.8639
纁	-10.8642
國子	-10.8644
於東	-10.8649
郊社	-10.8654
七十八	-10.8654
或因	-10.8657
顯慶	-10.8657
四十四年	-10.8658
各按	-10.8662
後又	-10.8663
諫議大夫	-10.8665
各督撫	-10.8665
尹繼善	-10.8666
而又	-10.8667
百王	-10.8668
峽	-10.867
漢陽	-10.867
三年七月	-10.8671
文武各官	-10.8672
左右翼	-10.8673
防守	-10.8674
領之	-10.8675
龍頭	-10.8676
都指揮使	-10.8676
百戸	-10.868
杖八十	-10.868
出境	-10.8684
氏鑲黄旗滿洲馬甲	-10.8685
不止	-10.8686
永徽	-10.8687
二年九月	-10.8688
南嚮	-10.8692
以給	-10.8693
轍	-10.8693
慕容	-10.8694
二十五日	-10.8698
九十六	-10.8698
嘉禮	-10.87
大臣等	-10.87
不息	-10.87
偏西	-10.8702
降自西階	-10.8702
若夫	-10.8705
巡視	-10.8707
修造	-10.8708
拜訖	-10.8709
禮經	-10.8711
簪	-10.8711
候選	-10.8712
之令	-10.8712
由此	-10.8712
不成	-10.8714
正法	-10.8715
駕至	-10.8716
兼理	-10.8718
解送	-10.8719
孳生	-10.872
遞運所	-10.8721
十八日	-10.8723
逰擊	-10.8724
壇下	-10.8725
籖	-10.8725
務令	-10.8726
景徳	-10.8731
近臣	-10.8731
以爵	-10.8737
更為	-10.8739
複	-10.874
頒行	-10.8742
四角	-10.8747
送至	-10.8748
加封	-10.8749
四年三月	-10.875
無服	-10.8751
序班	-10.8751
軍需	-10.8752
都事	-10.8752
分設	-10.8753
而成	-10.8753
既不	-10.8753
三十卷	-10.8753
百僚	-10.8754
三等輕車都尉	-10.8755
簠簋	-10.8758
教化	-10.8758
不另圖	-10.8759
御容	-10.8762
郵	-10.8763
此其	-10.8763
留心	-10.8764
里東至	-10.8765
揺	-10.8767
一書	-10.8767
旛	-10.8771
踴躍	-10.8773
倪	-10.8773
十匹	-10.8773
諒	-10.8775
北海	-10.8775
中允	-10.8775
四十里	-10.8775
弄	-10.8778
卡	-10.8781
詳悉	-10.8781
中央	-10.8785
聽其	-10.8792
問擬	-10.8793
泰和	-10.8793
曼	-10.8795
患病	-10.8797
不失	-10.8799
樂府	-10.88
偵	-10.88
晉封	-10.8801
綢	-10.8802
謫	-10.8803
親祭	-10.8803
壇廟	-10.8805
火藥	-10.8806
治之	-10.8807
北斗	-10.8808
官者	-10.8808
郊社令	-10.8809
七釐	-10.881
親祀	-10.8811
郊壇	-10.8814
離任	-10.8815
丹陽	-10.8816
奠酒	-10.8819
原有	-10.882
大名	-10.8821
湛	-10.8823
嵗終	-10.8824
冀州	-10.8826
腥	-10.8827
上京	-10.883
撒	-10.8832
萬邦	-10.8833
太極	-10.8833
之音	-10.8835
東晉	-10.8837
冉	-10.8838
各該	-10.8839
新安	-10.8841
賔客	-10.8842
不若	-10.8842
金龍	-10.8843
應升	-10.8845
揀	-10.8846
城守尉	-10.8848
葺	-10.8849
授為	-10.8852
棘	-10.8856
以獻	-10.8856
散秩大臣	-10.8857
周之	-10.8857
沽	-10.8859
罪名	-10.8859
學正	-10.8863
矣今	-10.8865
四門	-10.8865
賂	-10.8866
領縣五	-10.8867
行營	-10.8869
今既	-10.887
並非	-10.8871
賜宴	-10.8876
六十八	-10.8877
祀之	-10.8878
勁	-10.888
㝠	-10.8881
延祐	-10.8882
果有	-10.8882
粢盛	-10.8883
之論	-10.8887
梟	-10.8887
豋	-10.8888
集議	-10.8888
耳目	-10.8888
敢不	-10.8891
等衙門	-10.8892
議凖	-10.8892
至京師	-10.8894
領軍	-10.8895
諸太祝	-10.8896
哈爾	-10.8899
未至	-10.8901
有此	-10.8903
何也	-10.8904
頴	-10.8909
清明	-10.891
者悉	-10.891
從容	-10.8911
寖	-10.8912
外委	-10.8915
六十一	-10.8918
分屬	-10.892
沅	-10.892
三年八月	-10.8924
跪迎	-10.8925
守臣	-10.8926
阿管理	-10.8927
無復	-10.8929
伴	-10.893
斿	-10.8931
諸侯之	-10.8933
蟠	-10.8933
今以	-10.8934
尤甚	-10.8934
拿	-10.8934
彝	-10.8935
前跪	-10.8935
棲	-10.8935
雍正十三年	-10.8935
乃止	-10.8936
祭於	-10.8937
免議	-10.8938
迪	-10.8938
轉運司	-10.8939
衛尉	-10.8939
交納	-10.8942
責令	-10.8943
相沿	-10.8944
六旬	-10.8945
左都御史	-10.8947
隴西	-10.8948
需索	-10.8948
教之	-10.8949
御極	-10.895
以下至	-10.8952
重修	-10.8952
縣省入	-10.8953
操演	-10.8955
封建	-10.8955
闗防	-10.8956
每人	-10.8958
之東西	-10.896
袒	-10.896
長三尺	-10.8961
藝文志	-10.8962
之變	-10.8962
哈薩克	-10.8963
髻	-10.8963
琦	-10.8964
五錢	-10.8965
廹	-10.8966
殫	-10.8966
濱	-10.8967
五十二	-10.8968
回鑾	-10.8969
强盜	-10.8972
上林	-10.8972
賑之	-10.8974
四十二年	-10.8975
家産	-10.8977
之喪	-10.8978
星辰	-10.8979
諸縣	-10.8979
熈寧	-10.8981
等並	-10.8982
保管理	-10.8983
蕤	-10.8983
降二級調用	-10.899
爾哈	-10.8992
頑	-10.8992
軼	-10.8993
均由	-10.8994
武成	-10.8997
開元禮	-10.8998
侍講	-10.8998
第九	-10.9
隠匿	-10.9001
建炎	-10.9001
之氣	-10.9005
在後	-10.9007
改建	-10.9008
尊者	-10.9009
月支	-10.901
三十日	-10.9011
御筆	-10.9016
億萬	-10.9017
以北為上	-10.9019
祭官	-10.9022
舌	-10.9023
於天	-10.9025
塟	-10.9026
文明	-10.9029
方色	-10.9031
有六	-10.9033
拜褥	-10.9034
諸科	-10.9036
奉旨	-10.9037
子女	-10.904
十卷陳氏曰	-10.9042
石五斗	-10.9042
瓜	-10.9043
即此	-10.9043
此事	-10.9043
廡	-10.9046
縧	-10.905
奠於	-10.9051
九重	-10.9051
殿中侍御史	-10.9052
者乃	-10.9052
圖管理	-10.9053
不受	-10.9053
軍前	-10.9054
始有	-10.9055
營造	-10.9059
通志	-10.906
五年正月	-10.906
提鎮	-10.9061
加減	-10.9062
穆宗	-10.9065
江縣	-10.9065
官物	-10.9066
謹附識	-10.9066
間以	-10.9069
此外	-10.907
望燎	-10.9071
漢時	-10.9071
仍於	-10.9073
六十六	-10.9073
兵餉	-10.9073
遙	-10.9076
少保	-10.9076
設法	-10.9076
迓	-10.9078
著於	-10.9079
纎	-10.9079
京口	-10.908
年嵗	-10.9084
何必	-10.9084
泰之妻	-10.9087
承制	-10.9088
問罪	-10.9093
陸路	-10.9094
道員	-10.9095
案前	-10.9095
其身	-10.9097
於朝	-10.9098
均於	-10.9098
樣	-10.9099
祗候	-10.91
道南	-10.9101
塋	-10.9105
叅處	-10.9105
璜	-10.9106
汚	-10.9106
鎮總兵官	-10.9108
烏喇	-10.9112
歸化城	-10.9115
廣南	-10.9115
多士	-10.9116
長興	-10.9117
餘人	-10.9119
廕生	-10.9123
天聖	-10.9123
受禪	-10.9127
理宗	-10.9129
種馬	-10.9129
遵照	-10.9132
肺	-10.9133
省方	-10.9136
君之	-10.9139
仍留	-10.914
潢	-10.9143
直學士	-10.9147
之勢	-10.9148
改定	-10.9149
即用	-10.915
筆帖式二人	-10.915
皇極	-10.9151
考官	-10.9152
事畢	-10.9153
地勢	-10.9153
霽	-10.9156
吉凶	-10.9157
良人	-10.916
是非	-10.9161
童子	-10.9162
䦨	-10.9165
等省	-10.9166
又改	-10.9167
鵠	-10.9168
以象	-10.9172
兵民	-10.9174
守禦	-10.9178
居中	-10.9179
除服	-10.918
戰國	-10.9181
北至	-10.9181
火器營	-10.9187
擊賊	-10.9189
貢舉	-10.919
月給	-10.919
非常	-10.9191
浄	-10.9193
十四日	-10.9194
翰林院編修	-10.9194
案於	-10.9195
此時	-10.9197
一千一百	-10.9198
禮器	-10.9202
教職	-10.9202
為國	-10.9203
官職	-10.9203
有奇	-10.9207
元年九月	-10.9213
弓馬	-10.9216
昌期	-10.9216
一頃	-10.9216
考覈	-10.9216
凛	-10.9217
來㑹	-10.9217
經緯	-10.9217
肄業	-10.9219
因以	-10.9219
稜	-10.9219
男婦	-10.9224
現任	-10.9224
遂為	-10.9226
出口	-10.9226
小人	-10.9228
以明	-10.9232
匠役	-10.9235
安之樂	-10.9237
武定	-10.9238
農桑	-10.9242
二丈	-10.9242
地丁	-10.9242
甘州	-10.9242
螺	-10.9243
毛血	-10.9244
彬	-10.9246
犧	-10.9246
無力	-10.9247
閻	-10.9247
匝	-10.9248
鳥鎗	-10.9249
幘	-10.925
以進	-10.9251
諡曰	-10.9255
一貫	-10.9256
正門	-10.9257
二刻	-10.9259
忻	-10.9259
太常寺卿	-10.9262
主事一人	-10.9262
而得	-10.9263
二年十月	-10.9264
限一年	-10.9267
則用	-10.9268
百神	-10.9268
輸納	-10.9268
馬一匹	-10.9268
黼	-10.927
墩	-10.927
靄	-10.9272
海寧	-10.9273
帕	-10.9274
銀一錢	-10.9277
莒	-10.9279
之兵	-10.9282
平日	-10.9283
禮同	-10.9283
宋齊	-10.9284
秤	-10.9284
石工	-10.9286
明初	-10.9291
未便	-10.9295
莫能	-10.9297
黄龍	-10.9297
以定	-10.93
醴齊	-10.9302
嶽鎮海瀆	-10.9303
欽惟我皇上	-10.9304
碾	-10.9307
里西至	-10.9307
朝日	-10.9307
馬駝	-10.9308
歸附	-10.9308
其利	-10.9309
拒捕	-10.9311
皆是	-10.9316
去年	-10.9316
監視	-10.9317
祭神	-10.9318
車騎	-10.9319
所經	-10.9323
萬斤	-10.9326
年終	-10.9326
元年十二月	-10.9327
成祖	-10.933
蒐	-10.9331
五百里	-10.9331
太祖太宗	-10.9332
不須	-10.9333
教諭	-10.9333
大慶	-10.9333
鄱陽馬端臨貴與著	-10.9334
廓	-10.9334
圃	-10.9334
漢制	-10.9335
褂	-10.9336
於門外	-10.9338
買賣	-10.9339
元年十一月	-10.9342
入就	-10.9342
充補	-10.9343
於南郊	-10.9344
引進	-10.9344
中和韶樂	-10.9348
萬壽詩	-10.9349
俱有	-10.935
増減	-10.9351
經厯	-10.9353
之首	-10.9354
進封	-10.9355
行圍	-10.9357
文獻通考卷	-10.9357
有徳	-10.9357
百家	-10.9359
等府	-10.9363
矣而	-10.9364
晷	-10.9365
一也	-10.9365
八日	-10.9367
又命	-10.9367
薊州	-10.9377
賜之	-10.9378
入廟	-10.9379
家莊	-10.9379
就拜位	-10.9381
廵狩	-10.9383
恭請	-10.9384
俄羅斯	-10.9385
大祭	-10.9387
膚	-10.9387
初為	-10.9388
奉御	-10.9389
撲	-10.9389
泗州	-10.9389
嗟	-10.939
近年	-10.939
各三	-10.939
每遇	-10.9393
嘉興	-10.9395
大王	-10.9399
尚可	-10.94
百餘人	-10.94
恭上	-10.9402
之術	-10.9403
六宫	-10.9404
河水	-10.9405
司獄	-10.9405
王公以下	-10.9406
猶有	-10.9408
麓	-10.9412
史館	-10.9413
蘄	-10.9413
摧	-10.9415
之律	-10.9415
㝷	-10.9416
贄	-10.9419
亶	-10.9419
一星	-10.9422
白金	-10.9422
㑹昌	-10.9424
執事人	-10.9425
父兄	-10.9426
鐘磬	-10.9427
羊豕	-10.9427
官學	-10.9428
侍讀	-10.9428
朽	-10.9428
為限	-10.9429
亦未	-10.9431
伏惟	-10.9434
飲福	-10.9434
五六	-10.9436
之所以	-10.9436
三百八十	-10.9438
外祖父母	-10.9439
之福	-10.9439
聖王	-10.944
祀官	-10.9444
雀	-10.9444
器物	-10.9445
瀾	-10.9445
亦宜	-10.9446
二釐	-10.9446
元年六月	-10.9449
從此	-10.9449
大駕	-10.945
本路	-10.9451
進賢	-10.9451
襪	-10.9451
以下皆再拜	-10.9452
譙	-10.9453
養贍	-10.9454
興國	-10.9455
米麥	-10.9459
織造	-10.9459
其先	-10.9462
祀事	-10.9463
抒	-10.9465
所稱	-10.9468
靖康	-10.9469
居之	-10.9471
贊禮	-10.9471
議郎	-10.9473
雹	-10.9476
優劣	-10.9481
浙西	-10.9482
漢唐	-10.9483
初虧	-10.9484
四十八年	-10.9486
千餘人	-10.9487
世宗嘉靖	-10.9487
之田	-10.9488
耕耤	-10.9489
其南	-10.9489
平原	-10.9491
孟冬	-10.9491
三嵗	-10.9498
十八人	-10.9501
統兵	-10.9501
梨	-10.9503
差人	-10.9503
無多	-10.9504
漢之	-10.9504
變宫	-10.9505
三師	-10.9509
龔	-10.951
宫室	-10.9512
修葺	-10.9513
於大門外	-10.9517
沿邊	-10.9518
互見	-10.9522
毎月	-10.9522
亦非	-10.9523
九章	-10.9525
接濟	-10.9527
鹽政	-10.9527
議論	-10.953
購	-10.9531
貢物	-10.9531
絨	-10.9533
良民	-10.9533
庠	-10.9533
人才	-10.9537
留任	-10.9537
拷	-10.9538
名色	-10.9539
殁	-10.9539
祗告	-10.9539
東向立	-10.954
窑	-10.9546
各衛	-10.9546
一縣	-10.9547
以杜	-10.955
平人	-10.9551
元年十月	-10.9552
既有	-10.9557
巡檢	-10.9557
交部議處	-10.9559
安撫	-10.956
威儀	-10.9561
舊名	-10.9562
力戰	-10.9563
囉	-10.9563
瘠	-10.9567
十餘里	-10.9567
四兩	-10.9567
沿革	-10.9572
馬驛	-10.9575
此為	-10.9575
四年四月	-10.9577
九釐	-10.9578
輕車都尉	-10.958
户部侍郎	-10.9581
清水	-10.9581
書之	-10.9582
不得不	-10.9586
捐納	-10.959
之徳	-10.9591
峙	-10.9593
藁	-10.9594
戰船	-10.9599
序曰	-10.9599
方丘	-10.9599
兩端	-10.96
積欠	-10.9601
開平	-10.9601
一十五	-10.9603
祖廟	-10.9603
起程	-10.9606
退立於	-10.9608
哈喇	-10.9609
貂皮	-10.961
民食	-10.9611
一千三百	-10.9612
禹貢	-10.9614
尺寸	-10.9615
宦	-10.9618
畔	-10.9622
有五	-10.9622
鷄	-10.9624
軰	-10.9625
汰	-10.9625
祔廟	-10.9626
哥	-10.9626
峪	-10.9627
一級	-10.9627
明安	-10.963
輔臣	-10.9635
等謹案是書	-10.9636
搢笏跪	-10.9637
朝覲	-10.9639
𤣥酒	-10.964
秀才	-10.9642
紹聖	-10.9644
受財	-10.9644
宣化	-10.9645
軫念	-10.9646
各省督撫	-10.965
州知州	-10.9652
瓉	-10.9653
箴	-10.9653
史官	-10.9655
官各	-10.9656
一作	-10.9658
二等侍衛	-10.9661
招撫	-10.9663
分管	-10.9663
天皇	-10.9665
四百五十	-10.9665
餘並	-10.9666
五嶽	-10.9668
汶	-10.9668
成造	-10.967
西魏	-10.967
學臣	-10.967
海州	-10.9677
悞	-10.9681
未備	-10.9681
相近	-10.9684
取士	-10.9685
本人	-10.9685
鷺	-10.9687
之章	-10.9688
運至	-10.9688
並以	-10.9691
更有	-10.9691
中山	-10.9693
封號	-10.9693
内廷	-10.9698
寧之曲	-10.9701
是編	-10.9701
山海闗	-10.9706
受其	-10.9706
王肅	-10.9706
長一丈	-10.9706
赦天下	-10.9708
正使	-10.971
泉州	-10.971
觀其	-10.971
二年十二月	-10.9712
擊敗之	-10.9715
十年正月	-10.9715
守之	-10.9715
太祖髙皇帝	-10.9715
成書	-10.9716
扎布	-10.9716
編修	-10.9717
黜陟	-10.9717
秉公	-10.9719
等十	-10.972
宋舊	-10.9722
部曲	-10.9724
大司農	-10.9724
降神	-10.9725
奠幣	-10.9726
二疋	-10.9728
二等輕車都尉	-10.9732
郡主	-10.9732
追諡	-10.9732
以東	-10.9733
飾東珠	-10.9734
西河	-10.9734
賛禮唱	-10.9735
到日	-10.9735
燧	-10.9736
舅姑	-10.9737
盾	-10.9737
地置	-10.9742
惟有	-10.9744
也且	-10.9744
出自	-10.9744
朝官	-10.9747
五十一	-10.9748
於天下	-10.9751
珍珠	-10.9753
時為	-10.9755
請令	-10.9757
枷號	-10.9758
氏正藍旗滿洲馬甲	-10.976
儀制	-10.9765
兵部侍郎	-10.9765
壇上	-10.9768
為三	-10.9768
南至	-10.9768
賜名	-10.9769
其母	-10.9771
孔氏	-10.9772
大行	-10.9772
璘	-10.9773
桂陽	-10.9774
元年八月	-10.9774
黄麾	-10.9774
贊唱	-10.9775
禮也	-10.9775
椀	-10.9776
盛事	-10.9776
請依	-10.9777
嫁娶	-10.9777
長慶	-10.9777
宣制	-10.978
以充	-10.978
位次	-10.9781
殿試	-10.9781
山海	-10.9783
清江	-10.9784
浙東	-10.9785
布哈	-10.9785
同姓	-10.9788
得人	-10.9789
價直	-10.9789
中郎将	-10.9791
聊	-10.9791
米一石	-10.9792
典籍	-10.9794
總河	-10.9794
仁夀	-10.9798
減半	-10.9799
恰	-10.9799
致死者	-10.98
旄	-10.9802
者著	-10.9808
白玉	-10.9809
一十二	-10.9809
而上	-10.9812
服制	-10.9814
皆跪	-10.9815
太和殿	-10.9819
田土	-10.9822
賠補	-10.9822
大敗	-10.9823
昊天	-10.9824
册寳	-10.9826
編審	-10.9828
運軍	-10.9828
轡	-10.9832
灼	-10.9832
五丈	-10.9834
收贖	-10.9835
安民	-10.9836
曰我	-10.9841
二百餘	-10.9842
而復	-10.9846
刑部侍郎	-10.9847
似此	-10.9848
爾圖	-10.9849
唐置	-10.9849
不無	-10.985
字様	-10.985
都監	-10.9852
滄州	-10.9854
一升	-10.9856
享太廟	-10.9857
淀	-10.9857
掃除	-10.9858
之别	-10.9859
二十九日	-10.9861
不法	-10.9861
使相	-10.9862
回京	-10.9865
奉勅	-10.9865
有四	-10.9865
彭城	-10.9869
隕	-10.9871
事實	-10.9874
内使	-10.9875
笞杖	-10.9876
止用	-10.988
横行	-10.988
河南府	-10.988
必以	-10.9881
駕士	-10.9882
樞密	-10.9883
則曰	-10.9884
起至	-10.9887
以兵	-10.989
亦必	-10.989
休致	-10.989
梗	-10.9891
人也	-10.9895
開報	-10.9898
燕京	-10.9899
其子孫	-10.9903
二斗	-10.9903
虡	-10.9905
於殿庭	-10.9905
侍儀	-10.9907
西階下	-10.9907
萬一千	-10.9908
田畝	-10.9911
新疆	-10.9914
别廟	-10.9917
敔	-10.9918
櫛	-10.9918
人為	-10.9919
正旦	-10.992
犯人	-10.992
烏爾	-10.992
先王之	-10.9921
琴瑟	-10.9922
債	-10.9922
寘	-10.9925
求之	-10.9926
鑾駕	-10.9926
於午門外	-10.9927
司爵	-10.9928
古禮	-10.9931
各加	-10.9935
鳴贊	-10.9935
錢法	-10.9936
東川	-10.9937
章宗	-10.9937
翼日	-10.9939
遣兵	-10.9939
利害	-10.994
録事	-10.9944
初封	-10.9945
列名	-10.9946
饌筵	-10.9947
之誠	-10.9948
選取	-10.995
機宜	-10.9952
籙	-10.9953
情節	-10.9953
也言	-10.9954
通計	-10.9954
二十二日	-10.9955
其主	-10.9956
定逺	-10.9964
等因	-10.9965
九品以上	-10.9967
還京	-10.9968
引禮	-10.9973
髤	-10.9973
吉服冠	-10.9974
齊王	-10.9976
一隻	-10.9977
正副	-10.9977
熹	-10.9977
之親	-10.9977
之㫖	-10.9978
請嗣後	-10.998
入内	-10.998
珥	-10.9981
數多	-10.9981
督率	-10.9983
豐年	-10.9983
無人	-10.9984
一十六	-10.9985
其三	-10.9988
檢討	-10.9991
六日	-10.9994
尺二寸	-10.9994
明徳	-10.9996
今請	-10.9996
更換	-10.9997
進皇帝	-10.9997
之祀	-10.9998
又不	-11.0004
王師	-11.0004
圖書	-11.0004
稀	-11.0004
各減	-11.0005
僉事	-11.0006
柷	-11.0009
平行	-11.0009
吏民	-11.001
奉制	-11.001
金城	-11.0011
京兆府	-11.0011
可用	-11.0012
檐下	-11.0013
愁	-11.0015
成之曲	-11.0016
率府	-11.0016
通融	-11.0017
餘丁	-11.0018
銀印	-11.0018
一旗	-11.0019
法令	-11.002
所属	-11.0021
本無	-11.0021
躬親	-11.0024
次子	-11.0024
八旗都統	-11.0026
雖未	-11.003
既無	-11.0033
令有司	-11.0033
三年詔	-11.0033
明昌	-11.0035
財賦	-11.0037
江北	-11.0037
又奏	-11.0037
起科	-11.0039
六十九	-11.0041
順治九年	-11.0041
小者	-11.0042
阿桂	-11.0043
觀之	-11.0044
謹以	-11.0044
奏告	-11.0045
牡	-11.0046
與夫	-11.0047
論罪	-11.0048
仍照舊例	-11.0053
各於	-11.0056
四年五月	-11.006
斬之	-11.0061
改歸	-11.0061
題報	-11.0062
價值	-11.0065
䟦	-11.0066
主婚者	-11.0066
衆皆	-11.0067
報銷	-11.0067
今若	-11.0072
守令	-11.0072
五世	-11.0074
淪	-11.0074
大雨	-11.0075
裒	-11.0079
捍	-11.0079
帝命	-11.008
六十三	-11.0081
七十九	-11.0081
者三	-11.0082
封為	-11.0086
鞠躬拜興拜興平身	-11.0088
儀刀	-11.0089
州衛	-11.009
勿論	-11.009
等路	-11.009
劉氏	-11.0096
餘頃	-11.0097
於殿	-11.0097
伺	-11.0098
之先	-11.01
所取	-11.0102
安州	-11.0103
劉向	-11.0105
縣有	-11.0105
稽首	-11.0105
典儀唱	-11.0105
兌	-11.0106
曩	-11.0107
尊崇	-11.0109
以求	-11.0111
規避	-11.0112
於明堂	-11.0114
建元	-11.0116
皇祐	-11.0118
班次	-11.012
人物志	-11.0121
督臣	-11.0121
議行	-11.0124
荅	-11.0124
隨從	-11.0129
從人	-11.0129
命有司	-11.013
行者	-11.0134
嚴飭	-11.0136
何如	-11.0136
之繼妻	-11.0137
南極	-11.0138
奉天門	-11.0141
領兵	-11.0141
太妃	-11.0141
乾隆二十七年	-11.0147
五方	-11.0148
四十六年	-11.0149
至尊	-11.015
渡河	-11.0155
旗各一	-11.0157
詔令	-11.0158
諳	-11.0158
寺觀	-11.0161
金飾	-11.0162
選補	-11.0164
减一等	-11.0165
坐落	-11.0167
一匹	-11.0167
藏之	-11.0168
依例	-11.0169
碑文	-11.0169
諸物	-11.0172
之妻伊爾根覺羅氏	-11.0172
甲胄	-11.0172
单	-11.0173
平地	-11.0174
江都	-11.0174
耦	-11.0174
問曰	-11.0179
無逸	-11.0182
漕米	-11.0185
於左	-11.0189
氏鑲藍旗滿洲馬甲	-11.0189
官府	-11.0189
實力	-11.019
豫省	-11.019
軍節度使	-11.0191
受封	-11.0193
事之	-11.0193
復圓	-11.0194
扶風	-11.0195
义	-11.0198
中正	-11.02
帮	-11.02
聯	-11.0201
宣讀	-11.0202
天道	-11.0203
可行	-11.0203
郁	-11.0204
鄉村	-11.0204
等五	-11.0204
慶典	-11.0205
太常卿引皇帝	-11.0205
熾	-11.0205
飭令	-11.0207
二千五百	-11.0207
俱在	-11.0207
十五名	-11.0208
幞頭	-11.0209
旗鼓	-11.0209
明太祖洪武	-11.0213
撮	-11.0215
為定	-11.0216
嵩呼	-11.0217
有序	-11.022
乾隆十三年	-11.0226
為君	-11.0228
富民	-11.023
副都御史	-11.0231
布爾	-11.0232
不著	-11.0232
檜	-11.0233
一項	-11.0235
百餘里	-11.024
巡狩	-11.024
哈宻	-11.024
偽總兵	-11.0242
刑獄	-11.0244
賞銀	-11.0244
省分	-11.0245
文選	-11.0246
諸陵	-11.0246
富察	-11.0247
之寳	-11.0249
曠典	-11.025
宣洩	-11.025
凡人	-11.0254
營遊擊一人	-11.0258
里東西距	-11.0258
繼母	-11.0259
年號	-11.0261
未明	-11.0262
南康	-11.0263
三刻	-11.0263
鳳陽	-11.0264
文集	-11.0264
還樽所	-11.0266
年九月	-11.0266
跪取	-11.0266
大旱	-11.0267
五縣	-11.0269
若以	-11.027
重罪	-11.0271
皆從	-11.0271
籍田	-11.0271
夹	-11.0272
庫使	-11.0272
諸親	-11.0273
其功	-11.0276
者聴	-11.0277
事也	-11.0278
府領	-11.0279
律例	-11.0279
則又	-11.028
奏議	-11.0284
主者	-11.0291
簠	-11.0291
太樂令	-11.0293
特氏	-11.0294
阼階	-11.0295
凍	-11.0298
並依	-11.03
曰今	-11.03
各就	-11.03
河州	-11.03
於庭	-11.0301
起運	-11.0302
蘭州	-11.0306
職方	-11.0308
三度	-11.0311
州軍	-11.0311
授官	-11.0311
應於	-11.0312
永定	-11.0316
以黄	-11.0318
一所	-11.0319
八十五	-11.0321
澹	-11.0323
二十餘	-11.0324
簮	-11.0324
攔	-11.0325
笄	-11.0325
春官	-11.0326
俱著	-11.0326
降三級調用	-11.0327
天禧	-11.0328
髙帝	-11.0329
並為	-11.033
二寸五分	-11.0331
僖祖	-11.0331
壬	-11.0331
廬舍	-11.0332
祈榖	-11.0334
錢塘	-11.0336
督催	-11.0337
族人	-11.0338
無遺	-11.0338
一代	-11.0338
桂林	-11.0341
更不	-11.0342
祭禮	-11.0344
吉日	-11.0346
禰	-11.0346
辭曰	-11.0347
上親	-11.0348
分立	-11.0348
凉州	-11.0349
入詣	-11.0349
徭	-11.0349
崇徳元年	-11.0351
降革	-11.0352
鈕	-11.0353
人有	-11.0354
齊衰	-11.0358
期親	-11.036
衆賔	-11.036
壙	-11.0362
牛录	-11.0362
三成	-11.0363
御馬	-11.0363
雨水	-11.0364
年正月	-11.037
賛禮	-11.0371
海口	-11.0371
内閣學士	-11.0374
披甲	-11.0376
廟庭	-11.0377
個	-11.0379
記名	-11.0385
楮	-11.0386
桞	-11.0387
既已	-11.0388
骨朶	-11.0388
席前	-11.039
其半	-11.039
異同	-11.0391
項下	-11.0391
提領	-11.0394
千八百	-11.0394
來降	-11.0395
前進	-11.0396
璣	-11.0397
雲梯	-11.0398
徭役	-11.0398
常侍	-11.0401
之區	-11.0402
擊鼓	-11.0405
都統副都統	-11.0406
或云	-11.041
葉赫	-11.0412
益州	-11.0412
簡用	-11.0412
靴	-11.0413
城東	-11.0413
檔	-11.0414
撫按	-11.0415
伏乞	-11.0415
每名	-11.0416
流罪	-11.0419
巽	-11.0419
東序	-11.0419
無罪	-11.0419
峰	-11.042
神州	-11.0421
煮	-11.0422
首告	-11.0423
有能	-11.0423
給之	-11.0424
緇	-11.0424
紏	-11.0425
别立	-11.0426
大員	-11.0426
費揚古	-11.0426
奏凖	-11.0427
永和	-11.0428
剌	-11.0432
助祭	-11.0433
實有	-11.0438
貢獻	-11.0438
郡地	-11.0438
積水	-11.0439
所致	-11.0444
耶律	-11.0445
勾當	-11.0446
家屬	-11.0446
址	-11.0446
趙王	-11.0449
山水	-11.0449
東珠	-11.045
贊冠者	-11.045
九尺	-11.045
三百里	-11.0451
杖一百流三千里	-11.0451
回籍	-11.0453
唐書	-11.0455
髦	-11.0456
之詩	-11.0457
陪位	-11.0459
夔	-11.0459
七十三	-11.046
文徳	-11.046
龍江	-11.0463
白馬	-11.0465
府治	-11.0466
奠獻	-11.0467
之辭	-11.0469
之正	-11.0473
梧	-11.0476
馴	-11.0477
兩二錢	-11.0477
衞所	-11.0478
限期	-11.0478
南岸	-11.0479
襲職	-11.048
近代	-11.048
之亂	-11.048
曽祖	-11.0481
前此	-11.0482
外餘	-11.0483
毬	-11.0483
平江	-11.0484
璇	-11.0486
涯	-11.0487
宣諭	-11.0487
三路	-11.0487
三年十月	-11.0488
者自	-11.049
喪主	-11.0493
入覲	-11.0493
實錄	-11.0494
卒子	-11.0496
亞終獻	-11.0496
省城	-11.0496
一尺二寸	-11.0496
傷者	-11.0498
奈何	-11.0499
自號	-11.0499
踊	-11.05
該犯	-11.0504
舉麾	-11.0509
制如	-11.051
承傳	-11.0511
疫	-11.0513
中天	-11.0514
作亂	-11.0514
先於	-11.0519
逄	-11.052
即照	-11.0522
擊賊於	-11.0523
若無	-11.0523
劄付	-11.0525
宜依	-11.0525
罪犯	-11.0526
以從	-11.0526
乾隆十九年	-11.0527
正史	-11.0528
然其	-11.0532
已而	-11.0532
考其	-11.0534
四年七月	-11.0535
二麥	-11.0535
束帛	-11.0535
十有二人	-11.0536
合祭	-11.0537
景陵	-11.0539
珠爾	-11.0539
工匠	-11.0542
俸餉	-11.0542
象尊	-11.0543
奏定	-11.0549
悠	-11.0551
换	-11.0551
五銖	-11.0551
扣除	-11.0551
星去極	-11.0552
憫	-11.0554
者絞	-11.056
建中	-11.0561
報明	-11.0565
與人	-11.0568
迎送	-11.0569
皆可	-11.0569
免死	-11.0569
但有	-11.0573
監試	-11.0574
常起居	-11.0575
豈非	-11.0576
銓選	-11.0576
法也	-11.0576
百世	-11.0577
日出	-11.0577
實行	-11.058
公侯伯	-11.058
伽	-11.0581
事理	-11.0582
有聲	-11.0583
人物	-11.0585
久之	-11.0586
塤	-11.0589
討之	-11.059
賛引	-11.0591
聖賢	-11.0592
為從者	-11.0593
例處分	-11.0594
親迎	-11.0595
刋刻	-11.0596
違禁	-11.0599
五聲	-11.0603
四年六月	-11.0604
鍍金	-11.0605
亦不得	-11.0606
酌議	-11.0607
六年正月	-11.0607
螭	-11.0608
漢魏	-11.0609
服議	-11.0609
齊縗	-11.061
三年九月	-11.0611
大率	-11.0611
封贈	-11.0611
名數	-11.0613
歇	-11.0616
推之	-11.0616
若今	-11.0616
詹事府	-11.0618
米豆	-11.0623
人力	-11.0624
挨	-11.0624
咸寧	-11.0624
長隨	-11.0625
之遺	-11.0625
里西北至	-11.0626
皇帝御	-11.0626
推恩	-11.0627
有力	-11.0631
年分	-11.0637
俸銀	-11.0638
一十八	-11.064
遇賊	-11.0643
其外	-11.0645
營伍	-11.0645
緩決	-11.0646
嶠	-11.0647
颺	-11.0652
兩路	-11.0653
軍機大臣	-11.0654
山林	-11.0654
大學士等	-11.0658
二石	-11.0658
今理	-11.066
行禮畢	-11.066
西山	-11.0662
七萬	-11.0665
天心	-11.0665
一實	-11.0665
荒地	-11.0666
陪臣	-11.0666
二十里	-11.0667
旗二	-11.0667
亦得	-11.067
安車	-11.0671
陳奏	-11.0672
名下	-11.0674
建隆	-11.0675
易之	-11.0678
滿洲䝉古漢軍	-11.0679
羔	-11.0679
言語	-11.068
皓	-11.0681
不常	-11.0683
曰大	-11.0684
三兩	-11.0685
視事	-11.0685
定數	-11.0686
合用	-11.0686
分防	-11.0687
手足	-11.0688
之失	-11.0688
開成	-11.0689
光禄大夫	-11.0689
印結	-11.069
泰陵	-11.069
廣陵	-11.069
穢	-11.0691
十四人	-11.0696
汝南	-11.07
我軍	-11.0701
糧船	-11.0702
格之妻	-11.0702
立功	-11.0702
七十四	-11.0702
太醫院	-11.0703
無私	-11.0703
天眷	-11.0706
詳報	-11.0706
當是	-11.0707
聲應	-11.0707
馬氏	-11.0708
已成	-11.0708
再加	-11.071
既成	-11.071
司正	-11.0711
大凌河	-11.0712
肅州	-11.0713
鹽鐵	-11.0715
歸入	-11.0715
巍巍	-11.0718
冠帶	-11.0719
告於	-11.072
仍用	-11.0722
自殺	-11.0723
臨江	-11.0726
獻祖	-11.0726
個月	-11.0726
徒二年	-11.0727
進表	-11.0727
太微	-11.073
稽考	-11.0731
從來	-11.0737
尖	-11.0739
查核	-11.0745
誨	-11.0747
附於	-11.0747
鹵	-11.0749
出結	-11.0751
綰	-11.0751
鈿	-11.0752
乾隆三十年	-11.0755
寧府	-11.0755
滿洲蒙古	-11.0756
庭中	-11.0757
再犯	-11.076
和糴	-11.0762
伏見	-11.0764
氏正黄旗滿洲䕶軍	-11.0765
勒索	-11.0768
秋成	-11.0772
覈實	-11.0774
三四	-11.0775
孔雀	-11.0775
長公主	-11.0777
江夏	-11.0777
天寶	-11.0777
乾清宫	-11.0779
掌印	-11.0779
携	-11.078
品秩	-11.0781
大安	-11.0781
作弊	-11.0782
靈帝	-11.0782
則無	-11.0786
亦皆	-11.0787
怡	-11.0791
之義也	-11.0791
嘉禾	-11.0795
崇文	-11.0796
故城	-11.0797
照例議處	-11.0798
其大	-11.0798
刑罰	-11.0799
五府	-11.0799
内殿	-11.0801
杖六十	-11.0802
涼州	-11.0803
喪禮	-11.0806
者矣	-11.0807
籩豆簠簋	-11.0808
聖節	-11.0808
減價	-11.0808
以下及	-11.0809
令該	-11.081
歸順	-11.0811
法度	-11.0811
憤	-11.0812
襟	-11.0813
養育兵	-11.0815
構	-11.0815
首尾	-11.0815
鍋	-11.0816
左右司	-11.0816
降一級	-11.0818
喀喇沁	-11.0818
所未	-11.0818
四百六十	-11.0818
始行	-11.0819
賢能	-11.082
不備	-11.0823
排列	-11.0824
縁事	-11.0825
宣徽使	-11.0827
我國家	-11.0827
者每	-11.0827
南向立	-11.0827
鄂爾	-11.0834
烏拉	-11.0837
食鹽	-11.0838
記云	-11.084
不善	-11.0841
此乃	-11.0842
饒州	-11.0845
曽經	-11.0845
勒石	-11.0846
永清	-11.0847
兩江總督	-11.0847
所議	-11.0847
服色	-11.0848
郝	-11.0849
脂	-11.0851
參知政事	-11.0851
果能	-11.0852
經制	-11.0858
改元一	-11.0858
在位官皆再拜	-11.0859
賢良	-11.0859
三百七十	-11.0861
縗	-11.0863
縣君	-11.0863
乾隆七年	-11.0864
遺漏	-11.0864
雍正六年	-11.0864
主司	-11.0865
歩兵	-11.0865
可否	-11.0865
鑄造	-11.0866
西向北上	-11.0868
六七	-11.087
厫	-11.0871
爻	-11.0872
内壝	-11.0873
所著	-11.0874
侯伯	-11.0874
賛禮者引	-11.0876
又復	-11.0876
挈	-11.0881
畀	-11.0884
文宣王	-11.0884
仍照例	-11.0884
昭王	-11.0885
凡四	-11.0887
升自	-11.0887
獲罪	-11.0888
其位	-11.0889
降諭㫖	-11.0889
所云	-11.089
籌畫	-11.089
行事執事官	-11.0892
例凡	-11.0893
兩拜	-11.0897
殿後	-11.0897
龍旗	-11.09
巡按	-11.0901
代為	-11.0903
東階下	-11.0904
不知其	-11.0904
一寸五分	-11.0906
親行	-11.0906
宫懸	-11.0908
運米	-11.0909
我皇	-11.0909
名也	-11.0911
朝獻	-11.0912
建寧	-11.0912
嘆	-11.0913
縮	-11.0914
戢	-11.0914
侍班	-11.0915
掄	-11.0915
恩賞	-11.0916
泰安	-11.0917
積貯	-11.0919
十有九	-11.0919
取進	-11.0922
設香案	-11.0925
氏正紅旗滿洲馬甲	-11.0926
白虎	-11.0927
一刻	-11.0928
達色	-11.0928
三處	-11.0929
者不得	-11.093
詩云	-11.0933
考課	-11.0934
各府州縣	-11.0934
詹	-11.0934
也自	-11.0936
日本	-11.0938
石門	-11.0938
哀帝	-11.0938
權衡	-11.0939
候過	-11.0941
薩哈	-11.0941
山谷	-11.0942
楚王	-11.0943
國有	-11.0947
太子太保	-11.0948
景靈宫	-11.095
供給	-11.095
保結	-11.0951
者免	-11.0951
除授	-11.0954
七星	-11.0955
交趾	-11.0956
先農壇	-11.0957
護	-11.0957
孟夏	-11.0958
均與	-11.096
小次	-11.096
應否	-11.0961
其舊	-11.0961
降輅	-11.0964
睢	-11.0964
如意	-11.0964
六萬	-11.0965
乾隆十四年	-11.0965
六十人	-11.0965
諭朕	-11.0966
本地	-11.0966
尚書侍郎	-11.0967
承應	-11.0967
莫若	-11.0968
以奉	-11.0968
西東向	-11.0968
數月	-11.0969
通鑑	-11.097
十有六人	-11.097
經傳	-11.097
陞任以	-11.0973
游牧	-11.0973
廟號	-11.0974
按年	-11.0974
栽	-11.0975
用樂	-11.0975
庇	-11.0976
為中	-11.0976
别為	-11.0978
本名	-11.0979
金人	-11.0979
有異	-11.098
宗子	-11.098
檻	-11.098
半徑	-11.0982
勅㫖	-11.0984
中書門下奏	-11.0985
耒	-11.0985
緦	-11.0986
七十七	-11.0986
五斗	-11.0986
岳州	-11.0987
不明	-11.0989
香案前	-11.099
分獻	-11.0991
殿門外	-11.0991
朝鮮國王	-11.0993
四年詔	-11.0993
益都	-11.0994
沿河	-11.0994
復行	-11.0995
平時	-11.1
十六名	-11.1001
稱為	-11.1001
十二律	-11.1002
雨露	-11.1005
潁川	-11.101
乍	-11.1011
朂	-11.1012
應徴	-11.1013
贏	-11.1013
凡三	-11.1013
始也	-11.1015
子男	-11.1015
進獻	-11.1016
太廟令	-11.1017
霖雨	-11.1017
者除	-11.1017
司馬光	-11.1017
凡六	-11.1019
一案	-11.102
驛馬	-11.1021
臨御	-11.1021
畿内	-11.1023
吏典	-11.1025
遞減	-11.1026
二省	-11.1028
題凖	-11.1029
諸侯王	-11.103
束帶	-11.1034
易州	-11.1035
氏正白旗滿洲䕶軍	-11.1036
課銀	-11.1036
周人	-11.1038
八十七	-11.1039
前來	-11.104
凢	-11.1044
每斤	-11.1044
矛	-11.1045
朝集使	-11.1047
楮帛	-11.1048
氏鑲紅旗滿洲馬甲	-11.1048
之要	-11.1049
縛	-11.1049
不安	-11.1051
每位	-11.1051
出迎	-11.1052
保安	-11.1052
必致	-11.1053
規模	-11.1053
祠祭	-11.1053
鳯翔	-11.1053
昌平	-11.1055
殖	-11.1055
分理	-11.1056
天恩	-11.1057
城隍	-11.1057
雖無	-11.1058
丈餘	-11.106
尊親	-11.1061
嶺南	-11.1061
孔子曰	-11.1064
六軍	-11.1064
盛徳	-11.1066
褐	-11.1067
者謂之	-11.1068
所領	-11.1069
大統	-11.1071
起於	-11.1071
城守營	-11.1073
稱職	-11.1073
上辛	-11.1076
矣又	-11.1076
後裔	-11.1078
渝	-11.1079
左丞	-11.1079
置于	-11.1081
甚屬	-11.1081
長五尺	-11.1082
典章	-11.1082
祀昊天上帝	-11.1084
朝鮮國	-11.1084
翠華	-11.1084
八十九	-11.1085
𠡠	-11.1085
十三人	-11.1086
佔	-11.1086
桓帝	-11.1086
欽定續文獻通考卷	-11.1086
之命	-11.1087
釐八毫	-11.1087
迄今	-11.1088
大清	-11.1089
全書	-11.1092
加級	-11.1094
屬府	-11.1099
當以	-11.11
别無	-11.11
賑恤	-11.11
樂正	-11.1102
以下者	-11.1103
水縣	-11.1105
和之樂	-11.1108
十餘年	-11.1108
於篚	-11.1109
者惟	-11.111
辰星	-11.111
湖水	-11.1112
三年六月	-11.1112
鼗	-11.1113
鮑	-11.1114
垓	-11.1115
卹	-11.1115
多羅郡王	-11.1116
不符	-11.1117
於中	-11.1118
糜	-11.1118
刁	-11.1118
因公	-11.1118
寰	-11.1118
拖欠	-11.1119
戀	-11.112
三年十一月	-11.1123
藉以	-11.1123
疾苦	-11.1126
升轉	-11.1128
千匹	-11.1128
升祔	-11.113
俸滿	-11.113
乾隆四十五年	-11.1132
戸口	-11.1132
詞訟	-11.1135
者加	-11.1138
在此	-11.114
周圍	-11.1144
分撥	-11.1145
謡	-11.1147
縁由	-11.1149
諡忠	-11.1149
國書	-11.1152
於案	-11.1154
㨿	-11.1154
薫	-11.1155
寧州	-11.1155
武備	-11.1157
為法	-11.1159
祭法	-11.1159
試卷	-11.116
代宗	-11.116
北面西上	-11.1161
監修	-11.1163
俱用	-11.1165
禁中	-11.1165
榆林	-11.1166
平章	-11.1166
太一	-11.1166
莖	-11.1168
亦令	-11.1168
七年正月	-11.1171
互市	-11.1172
作何	-11.1175
話	-11.1177
為王	-11.1178
是謂	-11.1178
嵗月	-11.1179
者給	-11.1182
霸州	-11.1182
洎	-11.1185
罪囚	-11.1185
西平	-11.1186
伊犂	-11.1187
氏正藍旗滿洲	-11.1187
水師營	-11.1187
宼	-11.1188
慤	-11.1188
四釐	-11.1188
𫝊曰	-11.1188
昉	-11.1189
箎	-11.1191
扼	-11.1191
諏吉	-11.1192
召見	-11.1192
又何	-11.1197
六十里	-11.1199
數十萬	-11.1199
再三	-11.1203
附郭	-11.1203
六兩	-11.1205
所造	-11.1205
行移	-11.1207
公羊	-11.1209
者准	-11.121
大赦天下	-11.121
神坐前	-11.121
食之	-11.1213
查出	-11.1213
公田	-11.1215
七十里	-11.1217
一等男	-11.1218
顒	-11.1218
從重	-11.1219
出兵	-11.122
垂拱	-11.1221
挂	-11.1221
棣	-11.1221
事而	-11.1222
漿	-11.1222
摹	-11.1223
内侍省	-11.1223
三里	-11.1223
地祇	-11.1225
未滿	-11.1229
里東北至	-11.1229
二星	-11.1229
不識	-11.1232
九十九	-11.1234
桃源	-11.1234
瀘	-11.1235
出圭	-11.1239
社稷壇	-11.124
寛免	-11.124
毆傷	-11.1242
隋唐	-11.1242
後有	-11.1243
同知通判	-11.1243
釋之	-11.1244
漢初	-11.1244
從之又	-11.1244
五年二月	-11.1246
小臣	-11.1247
可考	-11.1249
佚	-11.1249
嵗貢	-11.1249
摭	-11.125
訖引	-11.1253
八十里	-11.1254
雍正九年	-11.1254
千九百	-11.1257
大内	-11.1257
覇	-11.1257
搶奪	-11.1258
陞殿	-11.1259
叨	-11.126
樂舞生	-11.1261
自今已後	-11.1261
鵞	-11.1263
雍熙	-11.1264
之重	-11.1265
祕	-11.1266
用紅	-11.1266
烏什	-11.1267
商船	-11.1268
宫内	-11.127
御座前	-11.1272
闗係	-11.1274
馬政	-11.1275
大口袴	-11.1278
漳州	-11.1279
該衙門	-11.1279
即為	-11.1281
之作	-11.1282
生擒	-11.1283
逞	-11.1286
王圻續通考	-11.1287
砲	-11.1287
而非	-11.1288
罍洗	-11.1289
疾病	-11.129
視之	-11.1291
飲福受胙	-11.1291
俯伏興平身	-11.1292
鴻臚寺官	-11.1293
法駕鹵簿	-11.1294
缾	-11.1295
丁卯	-11.1295
可為	-11.1296
一間	-11.1296
一方	-11.1298
即是	-11.1301
至三	-11.1303
某人	-11.1306
發引	-11.1306
徃徃	-11.1307
救荒	-11.1307
也至	-11.1308
有天下	-11.131
其儀	-11.1313
登極	-11.1313
斬首	-11.1314
樂部	-11.1314
老疾	-11.1315
監丞	-11.1315
以西	-11.1315
軍旅	-11.1315
銅鉛	-11.1315
明兵	-11.1317
鑾輿	-11.1317
二部	-11.1319
併入	-11.132
井田	-11.132
宋朝	-11.1323
罽	-11.1324
靈臺	-11.1325
各照	-11.1325
廸	-11.1325
擎	-11.1326
摯	-11.1327
二頃	-11.1327
鴨	-11.1328
不雨	-11.1328
舂	-11.1329
表文	-11.1331
婚姻	-11.1331
闘	-11.1332
編入	-11.1332
畿輔	-11.1333
二處	-11.1333
里西南至	-11.1334
柴塘	-11.1334
宣王	-11.1335
國事	-11.1336
用事	-11.1336
新河	-11.1337
器皿	-11.1337
鄉侯	-11.1338
零不等	-11.1338
温州	-11.1339
太府	-11.1341
瑪爾	-11.1342
加増	-11.1343
上三旗	-11.1343
子為	-11.1343
志云	-11.1345
水災	-11.1345
平常	-11.1348
進饌	-11.1349
赤質	-11.1351
先蠶	-11.1352
屬之	-11.1353
十萬兩	-11.1355
縂	-11.1355
服同	-11.1357
文理	-11.1358
時價	-11.1358
拯	-11.1361
毗	-11.1362
轉行	-11.1363
聖廟	-11.1364
瑜	-11.1365
圉	-11.1365
如來儀	-11.1366
宿衞	-11.1366
川縣	-11.1367
承平	-11.1367
升自東階	-11.1368
特㫖	-11.1369
日用	-11.137
臨幸	-11.1373
里東南至	-11.1373
開泰	-11.1374
太湖	-11.1375
飄	-11.1376
大慶殿	-11.1377
慶祝	-11.1382
可不	-11.1383
之謂	-11.1384
海運	-11.1385
惟神	-11.1386
鐵錢	-11.1387
於大	-11.1387
天祐	-11.139
告者	-11.1392
不自	-11.1392
皮弁	-11.1393
安撫使	-11.1393
立班	-11.1394
俘獲	-11.1394
漢興	-11.1395
或為	-11.1396
不食	-11.1396
懽	-11.1396
六曰	-11.1396
變價	-11.1398
剥	-11.1398
於内	-11.1398
襄王	-11.1399
其兄	-11.14
減二等	-11.1401
秘書	-11.1403
鎮國	-11.1405
千百	-11.1408
兩岸	-11.1409
倣此	-11.141
前導皇帝	-11.1415
賦役	-11.1415
其族	-11.1416
常山	-11.1416
州為	-11.1416
九千	-11.1417
俱令	-11.1418
夾帶	-11.1421
發覺	-11.1423
雍正八年	-11.1423
無定	-11.1424
黄色	-11.1425
膝	-11.1427
窪	-11.1429
去其	-11.1429
於殿上	-11.1429
書成	-11.143
旗民	-11.143
而立	-11.1432
罄	-11.1433
京都	-11.1434
初次	-11.1435
一統	-11.1435
三營	-11.1436
曰天	-11.1436
甄别	-11.1437
悍	-11.1437
湖北湖南	-11.1438
其四	-11.1438
武陵	-11.144
封疆	-11.1441
清濁	-11.1445
田宅	-11.1445
孝思	-11.1446
兩六錢	-11.1446
雨雪	-11.1448
台州	-11.145
祈禱	-11.1453
門之内	-11.1455
九十七	-11.1455
縣主	-11.1457
而不知	-11.1458
同前	-11.1458
支用	-11.1458
視朝	-11.1459
編次	-11.146
見錢	-11.1461
首領官	-11.1462
烽	-11.1463
蛟	-11.1465
証	-11.1466
禮義	-11.1467
之多寡	-11.1472
工竣	-11.1474
焉其	-11.1474
人不	-11.1474
鉦	-11.1476
大祥	-11.1477
導駕官	-11.1477
稱有制	-11.1482
庫爾	-11.149
使司	-11.1492
填星	-11.1495
草料	-11.1497
布衣	-11.1497
州治	-11.1498
神龍	-11.1499
罹	-11.15
制作	-11.15
水草	-11.15
伶	-11.1501
從五品	-11.1501
固山	-11.1502
所設	-11.1505
移送	-11.1505
五彩	-11.1506
攘	-11.1508
襴	-11.1509
耒耜	-11.1511
宦者	-11.1511
錢文	-11.1512
限滿	-11.1513
南門	-11.1514
大行皇帝	-11.1515
若是	-11.1516
而入	-11.1518
中途	-11.1522
十一年正月	-11.1522
何所	-11.1524
座前	-11.1526
特恩	-11.153
俎豆	-11.1531
亦多	-11.1531
禮制	-11.1532
名臣	-11.1533
搢圭	-11.1536
江左	-11.1536
稟	-11.1538
猶未	-11.1539
六十名	-11.1539
軍民人等	-11.154
譬	-11.154
浹	-11.1541
夫婦	-11.1542
龜兹	-11.1542
而不能	-11.1545
百司	-11.1545
平凉	-11.1545
佐領驍騎校	-11.1545
竅	-11.1546
入室	-11.1546
教坊司	-11.1547
拒戰	-11.1547
舊法	-11.1548
萬貫	-11.1549
沔	-11.1551
歿	-11.1553
用金	-11.1554
多不	-11.1554
不齊	-11.1556
蕤賔	-11.1556
天保	-11.1559
鄉里	-11.1562
北軍	-11.1562
廢弛	-11.1563
本道	-11.1563
以北	-11.1563
米石	-11.1568
神之	-11.1569
筩	-11.157
托克托	-11.1571
以通	-11.1571
壑	-11.1572
柘	-11.1575
年八月	-11.1576
邦國	-11.1579
我皇考	-11.1582
大計	-11.1584
養亷	-11.1584
十五卷	-11.1585
恩澤	-11.1586
三星	-11.1586
軍流	-11.1587
山下	-11.1588
每歲	-11.1589
天啟	-11.1591
凖噶爾	-11.1591
運送	-11.1593
聖壽	-11.1594
石零	-11.1594
東上閤門官	-11.1594
有闕	-11.1594
北面跪	-11.1596
湖州	-11.1597
五祀	-11.1598
與天	-11.16
職任	-11.1601
北魏	-11.1603
牲牢	-11.1603
千牛	-11.1604
刑法	-11.1605
營房	-11.1607
該管上司	-11.1608
翣	-11.161
嗜	-11.161
安石	-11.1611
頸	-11.1611
武衛	-11.1612
簇	-11.1612
各引	-11.1613
乾隆十五年	-11.1614
享官	-11.1615
中祀	-11.1615
父老	-11.1615
䧏	-11.1616
號令	-11.1617
明太祖	-11.1618
燔柴	-11.1619
人康熙	-11.162
之父	-11.162
府知府	-11.1624
餘俱如	-11.1625
布帛	-11.1625
按照	-11.1626
三層	-11.1627
縣南	-11.1628
五釐	-11.1634
大辟	-11.1635
廵察	-11.1635
其妻	-11.1636
乾隆二十一年	-11.1637
皇帝再拜	-11.1638
四年十月	-11.1639
縀一疋	-11.164
縣界一百	-11.1641
三百餘	-11.1641
滚	-11.1641
戯	-11.1644
氅	-11.1646
至誠	-11.1647
䋲	-11.1647
車輅	-11.1647
瑛	-11.1648
沐浴	-11.1648
牛馬	-11.1648
醜	-11.1649
皇帝至	-11.1649
圎	-11.165
烏孫	-11.1652
戶	-11.1652
衢州	-11.1652
採辦	-11.1656
三軍	-11.1656
給事	-11.1659
太之妻	-11.166
章句	-11.1662
年二月	-11.1663
到京	-11.1663
五音	-11.1663
方畧	-11.1663
萬全	-11.1664
明代	-11.1664
有司奏	-11.1666
移文	-11.1672
而民	-11.1672
志曰	-11.1672
豈能	-11.1673
之序	-11.1673
簴	-11.1673
器用	-11.1674
僎	-11.1675
下詔	-11.1676
狥	-11.1679
雲漢	-11.1679
安東	-11.1681
己卯	-11.1681
燬	-11.1681
埠	-11.1682
兵起	-11.1682
鶻	-11.1682
斡	-11.1683
薨子	-11.1684
擡	-11.1684
弭	-11.1684
延安	-11.1684
諷	-11.1686
班固	-11.1687
生於	-11.1689
雜記	-11.169
朕惟	-11.169
興元	-11.1691
時巡	-11.1692
即可	-11.1693
長一尺	-11.1695
洪武初	-11.1695
姦夫	-11.1696
内臣	-11.1698
六度	-11.1698
所掌	-11.1698
四百八十	-11.1699
不立	-11.1701
桓公	-11.1702
二十一日	-11.1703
一箇	-11.1705
借給	-11.1707
貧者	-11.171
於國	-11.1711
神靈	-11.1712
千餘里	-11.1713
羣牧	-11.1715
起居注	-11.1716
巵	-11.1717
扎爾	-11.1717
酢	-11.1717
喧	-11.1719
西藏	-11.1719
松江	-11.1719
恭導皇帝	-11.172
六十二	-11.172
笳	-11.1721
五字	-11.1726
兵器	-11.1727
里西南到	-11.1731
創業	-11.1732
正五品	-11.1732
后妃	-11.1736
屬州	-11.1736
皇朝	-11.1737
者從	-11.1741
太陰	-11.1741
倉厫	-11.1741
給地	-11.1744
景運	-11.1744
農民	-11.1744
聖明	-11.1745
堅固	-11.1746
左手	-11.1747
薩爾	-11.1747
按月	-11.1747
六縣	-11.1749
兩四錢	-11.175
親戚	-11.175
慶雲	-11.1751
僖公	-11.1752
癸卯	-11.1753
賃	-11.1755
惰	-11.1755
以行	-11.1758
猾	-11.1758
松潘	-11.1759
行慶賀禮	-11.176
卞	-11.176
之尊	-11.1761
洪範	-11.1762
依次	-11.1762
貢馬	-11.1763
交角	-11.1764
正黄旗滿洲	-11.1764
前任	-11.1765
奠玉帛	-11.1765
昌縣	-11.1767
南斗	-11.1768
歩軍統領	-11.1768
失於	-11.1769
扵是	-11.1769
女直	-11.177
京西	-11.177
仁和	-11.1772
差使	-11.1772
豹尾	-11.1772
行止	-11.1774
投誠	-11.1779
中大夫	-11.178
正七品	-11.1782
笞五十	-11.1782
洗馬	-11.1786
加至	-11.1787
轂	-11.1788
城垣	-11.1789
拍	-11.179
務期	-11.179
邊外	-11.179
吞	-11.1791
二里	-11.1792
金史	-11.1792
二舞	-11.1793
百兩	-11.1794
奠帛	-11.1794
安樂	-11.1795
用印	-11.1799
普天	-11.18
其孫	-11.1801
遣官祭	-11.1802
一丈二尺	-11.1803
十八卷	-11.1803
以爲	-11.1803
福胙	-11.1804
領縣六	-11.1806
去嵗	-11.1809
大營	-11.1809
計其	-11.1812
與賊	-11.1816
水火	-11.1818
竽	-11.1819
甘露	-11.182
以補	-11.1821
駟	-11.1823
自備	-11.1824
者衆	-11.1826
自漢	-11.1827
同城	-11.1827
酺	-11.1829
十五里	-11.183
三毫	-11.1832
制置	-11.1832
舶	-11.1833
者乎	-11.1833
冄拜	-11.1834
主客	-11.1834
伏請	-11.1835
兩廣	-11.1835
任其	-11.1837
髙郵	-11.1838
臨洮	-11.1839
遵守	-11.1839
今欲	-11.1844
抹	-11.1849
養老	-11.1849
則其	-11.185
歴年	-11.185
分𨽻	-11.1853
執法	-11.1853
穫	-11.1855
乃令	-11.1856
六毫	-11.1856
詮	-11.1857
四年八月	-11.1857
不均	-11.1857
樵	-11.1858
之道也	-11.1858
臣子	-11.186
之慶	-11.1861
夾室	-11.1862
蔡邕	-11.1862
施於	-11.1862
詩集	-11.1863
筋	-11.1863
紆	-11.1865
東巡	-11.1865
青羅	-11.1867
媚	-11.1868
用其	-11.1869
四府	-11.187
自陳	-11.187
甕	-11.1871
通用	-11.1871
宫門外	-11.1873
加元服	-11.1873
民有	-11.1873
其心	-11.1874
聫	-11.1874
正四品	-11.1874
京察	-11.1875
辨其	-11.1875
古稀	-11.1875
百二十里	-11.1876
身死	-11.1876
降級	-11.1877
五經博士	-11.1877
東坡	-11.1877
餘官	-11.1879
下嫁	-11.188
著照	-11.188
彗	-11.1882
東漢	-11.1883
不覺	-11.1884
不惟	-11.1884
職者	-11.1884
所據	-11.1884
氏鑲白旗滿洲馬甲	-11.1885
或謂	-11.1885
之資	-11.1885
五刑	-11.1887
而自	-11.1889
一十四	-11.1891
可乎	-11.1891
年三月	-11.1893
䨇	-11.1897
追至	-11.1898
僣	-11.1899
金華	-11.1899
議政大臣	-11.1901
陳留	-11.1901
三頃	-11.1902
大國	-11.1904
都城	-11.1905
㒺	-11.1905
應給	-11.1906
上施	-11.1906
察其	-11.1908
宣示	-11.1911
禆	-11.1911
一里	-11.1912
税銀	-11.1912
雲南貴州	-11.1914
王元	-11.1914
五年七月	-11.1914
乾隆四年	-11.1915
親王郡王	-11.1917
特諭	-11.1919
雍州	-11.1919
歌頌	-11.1921
威逺	-11.1923
延綏	-11.1923
四品以上	-11.1924
南上	-11.1926
釋服	-11.1926
九卷	-11.1926
也按	-11.1927
卿等	-11.1928
儀節	-11.1928
三百九十	-11.1929
書籍	-11.193
省饌	-11.193
順治八年	-11.1933
嘉祥	-11.1934
出洋	-11.1934
燾	-11.1937
犁	-11.1938
受幣	-11.1938
神祇	-11.1939
之難	-11.194
南安	-11.194
窘	-11.1941
謀反	-11.1941
禮部奏	-11.1943
市價	-11.1943
翦	-11.1944
璉	-11.1944
門人	-11.1944
改發	-11.1944
均令	-11.1945
以實	-11.1945
司樂	-11.1947
曾祖	-11.1947
氏正藍旗滿洲䕶軍	-11.1948
皇統	-11.1949
革去	-11.195
里去東京	-11.1951
徒罪	-11.1952
律一首行書	-11.1953
人役	-11.1954
宗廟之	-11.1956
商販	-11.1956
入城	-11.1957
至治	-11.1958
九十四	-11.1959
月糧	-11.1959
鎮圭	-11.1959
兩八錢	-11.1961
販賣	-11.1961
千一百	-11.1962
插	-11.1962
以朱	-11.1963
理事官	-11.1968
皆與	-11.1969
禮儀使奏請	-11.197
學問	-11.1971
無主	-11.1972
展限	-11.1973
致有	-11.1974
盡心	-11.1976
渙	-11.1977
涪	-11.1978
縣為	-11.198
壮丁	-11.1981
鄭康成	-11.1981
奉天府	-11.1982
沿塗	-11.1982
改𨽻	-11.1984
定州	-11.1984
□(	-11.1986
録用	-11.1987
鈒	-11.1987
千兩	-11.1988
令民	-11.1992
屬國	-11.1994
蠲租	-11.1995
不限	-11.1996
三錢	-11.1996
新任	-11.1997
各退	-11.2001
枓	-11.2002
等州縣	-11.2005
緡錢	-11.2007
用青	-11.2008
文武官員	-11.2008
等六	-11.201
一旦	-11.2011
撞	-11.2012
不經	-11.2012
群	-11.2013
迅	-11.2014
簽書	-11.2016
軟	-11.2017
二十七月	-11.202
繖扇	-11.2022
考選	-11.2024
各工	-11.2025
公費	-11.2027
廟門	-11.2029
正義	-11.203
申飭	-11.2031
民户	-11.2032
詣盥洗位	-11.2032
調用	-11.2033
巴延	-11.2033
諭令	-11.2033
元始	-11.2034
通事舎人引	-11.2034
皇帝皇后	-11.2035
坐於	-11.2037
穰	-11.2038
禁軍	-11.2038
東靣	-11.2042
地理	-11.2045
屯糧	-11.2046
河南山東	-11.2046
而歸	-11.2047
出門	-11.2047
建國	-11.2048
叙功	-11.205
審理	-11.205
拖	-11.2053
二條	-11.2053
發往	-11.2054
鵲	-11.2054
又加	-11.2054
暢春園	-11.2055
客商	-11.2056
以祀	-11.2056
逈	-11.2056
峒	-11.2057
三升	-11.2059
他處	-11.2059
三載	-11.206
過多	-11.206
私販	-11.206
一定	-11.206
賔主	-11.2061
集賢	-11.2062
世世	-11.2065
四斗	-11.2065
圓丘	-11.2065
敢昭告於	-11.2068
將該	-11.2069
行使	-11.2069
印文	-11.2071
州領	-11.2072
二百一十	-11.2072
前有	-11.2072
便宜	-11.2073
詳察	-11.2073
公文	-11.2073
聖母	-11.2073
𤣥宗	-11.2075
各四人	-11.2076
十員	-11.2077
大駕鹵簿	-11.2078
泰管理	-11.2078
欽惟	-11.2079
歸徳	-11.2081
士人	-11.2084
分發	-11.2085
楨	-11.2086
入殿	-11.2087
吏治	-11.209
門入	-11.2091
各色	-11.2091
八十三	-11.2092
中衛	-11.2094
餓	-11.2094
屬員	-11.2095
初定	-11.2096
淄	-11.2097
廖	-11.2097
故為	-11.2101
二衛	-11.2101
米榖	-11.2105
太嵗	-11.2105
一尺五寸	-11.2105
録一卷	-11.2106
腰輿	-11.2107
工食	-11.2107
司射	-11.2109
始封	-11.2109
違例	-11.2109
無聞	-11.2113
召募	-11.2113
滿洲漢人各一人	-11.2114
百名	-11.2114
改封	-11.2115
十一人	-11.2117
一千四百	-11.2117
此例	-11.212
各用	-11.212
者罪	-11.2121
長白山	-11.2122
有㫖	-11.2122
清查	-11.2123
本院	-11.2123
十千	-11.2123
冪	-11.2126
都省	-11.2127
紊	-11.2128
武進士	-11.213
鎬	-11.2131
祭品	-11.2132
釀	-11.2133
元屬	-11.2133
囂	-11.2134
正身	-11.2134
貧乏	-11.2135
七年二月	-11.2136
典制	-11.2136
大畧	-11.2136
上生	-11.2137
無由	-11.2138
華亭	-11.2138
四十七年	-11.2141
勛	-11.2142
為序	-11.2143
著尊	-11.2144
邾	-11.2144
小旗	-11.2145
擇吉	-11.2147
永順	-11.2147
歸併	-11.2148
特賜	-11.2149
七八	-11.215
稱臣	-11.215
入立於	-11.215
山東巡撫	-11.2151
安郡	-11.2151
胥吏	-11.2151
籲	-11.2152
通曉	-11.2153
武庫	-11.2154
規制	-11.2154
御製詩	-11.2154
鈔法	-11.2155
官馬	-11.2157
神廟	-11.216
大閲	-11.2161
溷	-11.2164
辛卯	-11.2166
先登	-11.2166
閬	-11.2167
行軍	-11.2167
蔽膝	-11.2169
稠	-11.2171
常以	-11.2173
脚價	-11.2173
寰宇	-11.2173
主人以下	-11.2174
祀昭忠祠	-11.2174
無有	-11.2175
我師	-11.2177
䕶送	-11.2182
承恩	-11.2182
右手	-11.2183
吏卒	-11.2183
圍錦州	-11.2184
司言	-11.2184
事有	-11.2186
其俗	-11.2187
四品官	-11.2187
中州	-11.2189
朕躬	-11.219
千六百	-11.219
色楞	-11.2191
婿	-11.2192
王安石	-11.2192
春秋時	-11.2195
以為常	-11.2196
唐縣	-11.2197
時人	-11.2199
趕	-11.2199
侵蝕	-11.2203
祺	-11.2203
不暇	-11.2206
八十六	-11.2206
緬甸	-11.2207
聖宗	-11.2207
世宗大定	-11.2208
受賀	-11.2208
康熙五十	-11.2209
鄱陽	-11.221
聲教	-11.2211
尺八寸	-11.2213
按其	-11.2213
九年正月	-11.2214
漢字	-11.2216
太子少保	-11.2216
爾吉	-11.2218
在其南	-11.2218
南苑	-11.2219
爾部	-11.2221
臣竊	-11.2225
升階	-11.2225
開府	-11.2226
天顔	-11.2228
格爾	-11.2229
廵幸	-11.223
粧	-11.2232
三朝	-11.2232
重犯	-11.2234
詩文	-11.2235
鎮一	-11.2235
音樂	-11.2235
建文	-11.2236
二百里	-11.2236
文臣	-11.2237
牧長	-11.2238
協副將一人	-11.224
福康安	-11.2241
順義	-11.2242
納糧	-11.2243
翅	-11.2245
誅之	-11.2245
遣陪臣	-11.2246
遣官祭告	-11.2247
有道	-11.2247
四州	-11.2249
上夀	-11.2249
流三千里	-11.2249
左右各	-11.2251
六字	-11.2251
四星	-11.2251
惠帝	-11.2254
宇文	-11.2254
不坐	-11.2255
開户	-11.2256
食貨	-11.2256
赴任	-11.2258
流入	-11.2258
徳宗	-11.2258
之志	-11.2259
庫銀	-11.2261
輔國	-11.2261
輿情	-11.2262
奉爵	-11.2263
所立	-11.2263
議以	-11.2263
某氏	-11.2264
平王	-11.2266
無極	-11.2267
儀與	-11.2271
金塗	-11.2271
丹陛上	-11.2271
軾	-11.2272
嫡子	-11.2272
賭博	-11.2276
哷	-11.2276
地名	-11.2276
鞠	-11.2277
髙一尺	-11.2277
降輦	-11.2279
綦	-11.2279
入宫	-11.228
皇仁	-11.2281
鮮卑	-11.2281
壕	-11.2282
八十二	-11.2282
鎛鐘	-11.2282
楯	-11.2283
天門	-11.2283
守備一人	-11.2283
兎	-11.2285
四百二十	-11.2286
慎重	-11.2288
梓宮	-11.2289
而行之	-11.2289
神御	-11.229
止哭	-11.2293
職事官	-11.2293
情由	-11.2294
百八十	-11.2294
三獻官	-11.2294
里西北到	-11.2295
抑勒	-11.2297
四次	-11.2297
納之	-11.2297
以其地	-11.2299
雍正十年	-11.2301
七里	-11.2301
朕之	-11.2303
印綬	-11.2304
以告	-11.2306
專管	-11.2307
十餘人	-11.2307
鄆	-11.2307
冄	-11.2308
申嚴	-11.2309
秋分	-11.2312
博爾	-11.2314
一等台吉	-11.2315
奉使	-11.2315
員額	-11.2316
年四月	-11.2316
嗚呼	-11.2317
衡州	-11.2317
税課	-11.2317
史志	-11.2318
頭等	-11.2318
倦	-11.2321
有應	-11.2322
更始	-11.2322
羨	-11.2323
侍衛如常儀	-11.2324
授以	-11.2326
司員	-11.2326
冊使	-11.2327
稼穡	-11.2328
興安	-11.2329
長二尺	-11.2329
罪一等	-11.233
詔從之	-11.2332
額徴	-11.2332
䕶軍校䕶軍	-11.2333
輟	-11.2333
上天	-11.2333
者準	-11.2339
均以	-11.2339
順治初年定	-11.2339
禮文	-11.2339
等四	-11.2341
進兵	-11.2342
之列	-11.2347
害稼	-11.2347
婚禮	-11.2347
漢武帝	-11.2348
賛者引	-11.2348
阿里	-11.2348
奉安於	-11.2349
告祭	-11.2349
西階上	-11.235
悉行	-11.2353
著落	-11.2353
進士官	-11.2354
窮民	-11.2354
俾得	-11.2355
己夘	-11.2355
鼂氏曰	-11.2357
山澤	-11.2358
聖恩	-11.2358
折衝	-11.2359
不計	-11.236
城北	-11.2362
梁冠	-11.2362
耤田	-11.2363
立碑	-11.2364
脯醢	-11.2365
各隨	-11.2365
用黄	-11.2366
天子諸侯	-11.2366
皇太子妃	-11.2366
釐二毫	-11.237
之𩔖	-11.2372
泛齊	-11.2372
四品五品	-11.2372
補闕	-11.2372
增置	-11.2374
聴其	-11.2378
循環	-11.2378
者何	-11.2383
然也	-11.2383
為皇后	-11.2386
城下	-11.2386
三年一	-11.2386
即與	-11.2388
通事舎人	-11.2389
門下省	-11.239
如上儀	-11.2391
發明	-11.2392
故其	-11.2393
業經	-11.2393
繁多	-11.2395
琅	-11.2396
餼	-11.2397
縦	-11.2397
濡	-11.2398
正三品	-11.2398
得財	-11.2399
礬	-11.24
太祖高皇帝	-11.2401
司業	-11.2404
乃得	-11.2405
豫章	-11.2405
髙晉	-11.2405
安平	-11.2405
晉王	-11.2406
之權	-11.2407
達禮	-11.2408
往返	-11.2409
作人	-11.2409
金玉	-11.2409
嗣王	-11.2411
年逾	-11.2411
編立	-11.2412
親王以下	-11.2413
出使	-11.2414
儐者	-11.2415
大吏	-11.2415
鹿角	-11.2416
甚至	-11.2418
順徳	-11.2418
順治五年	-11.2419
太常寺官	-11.2419
之異	-11.2421
輪流	-11.2423
千三百	-11.2426
祖宗之	-11.2427
租賦	-11.2429
東安	-11.2429
定邊	-11.243
隨行禮	-11.2431
金帛	-11.2434
深入	-11.2434
筆帖式一人	-11.2435
瓦爾喀	-11.2435
彜	-11.2436
挹	-11.2436
祭地	-11.2437
郤	-11.2437
頡利	-11.2438
苟	-11.2438
五年六月	-11.244
猥	-11.244
御幄	-11.2445
膽	-11.2445
察罕	-11.2446
六年二月	-11.2447
馬歩	-11.245
天章	-11.2451
六十年	-11.2452
速行	-11.2453
燕王	-11.2454
十三年正月	-11.2455
榻	-11.2461
跪奏請	-11.2464
止許	-11.2465
有成	-11.2466
多方	-11.2466
第一星	-11.2467
實於	-11.2467
太牢	-11.2468
縣北	-11.2469
聖心	-11.2472
也凡	-11.2473
待詔	-11.2474
小祥	-11.2474
十五萬	-11.2474
官錢	-11.2478
滴	-11.2479
補放	-11.2479
岱宗	-11.2483
農事	-11.2483
其色	-11.2483
止有	-11.2483
如例	-11.2486
五年三月	-11.2489
清蹕	-11.2491
拜送	-11.2491
恩施	-11.2492
各路	-11.2493
籌辦	-11.2494
未嘗不	-11.2494
五十餘	-11.2495
既定	-11.2496
有一	-11.2496
八句	-11.2498
部臣	-11.2498
三衛	-11.2499
上疏	-11.2501
䕶衞	-11.2502
挨次	-11.2505
河決	-11.2506
三斗	-11.2507
掌之	-11.2508
其情	-11.2509
宫赤道在	-11.2509
清文	-11.2509
故謂之	-11.251
八年正月	-11.2512
翹	-11.2512
魂	-11.2513
虗	-11.2513
狡	-11.2514
日月星辰	-11.2514
埸	-11.2516
墉	-11.2517
埒	-11.2517
杜典	-11.2518
縣西	-11.2518
八旗漢軍	-11.2519
既經	-11.252
靈座	-11.252
大寧	-11.2521
好生	-11.2522
得實	-11.2523
青衣	-11.2527
流星	-11.2528
稍却	-11.2529
四百四十	-11.2531
北境	-11.2532
禮之	-11.2532
蕃主	-11.2533
而作	-11.2534
淮西	-11.2535
道里	-11.2535
此二	-11.2536
牧養	-11.2538
戰於	-11.2539
曰天子	-11.2541
每等異位重行	-11.2541
尚膳	-11.2542
南北向	-11.2542
水田	-11.2544
詣神位前	-11.2544
此後	-11.2545
收其	-11.2546
講武	-11.2546
懿祖	-11.2547
興修	-11.2549
置於案	-11.2549
者即行	-11.2549
鳯陽	-11.2552
帙	-11.2552
覧	-11.2553
出具考語	-11.2554
三等奉國將軍	-11.2554
保寧	-11.2555
糊	-11.2556
相當	-11.2556
為府	-11.2557
次序	-11.2557
萬姓	-11.2557
箇月	-11.2559
来朝	-11.2559
内外命婦	-11.2559
上疏曰	-11.2561
抵銷	-11.2563
晉武帝	-11.2565
張氏	-11.2565
不得已	-11.2567
會典	-11.2568
陽侯	-11.2568
永康	-11.2568
亦用	-11.2568
二十五人	-11.2568
阿拉	-11.2569
除名	-11.257
鼓舞	-11.2572
誠敬	-11.2573
自相	-11.2574
畜産	-11.2575
奔走	-11.2575
遺詔	-11.2576
易於	-11.2576
西嚮	-11.2577
儘	-11.2578
詔有司	-11.2578
倉米	-11.2579
遵化	-11.2579
特磬	-11.258
統之	-11.258
江寜	-11.2582
諭内閣	-11.2583
三年以	-11.2586
肄	-11.2588
跪奠	-11.259
寂	-11.259
制同	-11.2592
特牲	-11.2592
陰陽	-11.2592
署丞	-11.2592
六科	-11.2594
内簡選	-11.2594
格管理	-11.2594
隳	-11.2595
園寢	-11.2595
太常禮院	-11.2595
步軍統領	-11.2596
𢃄	-11.2596
處置	-11.2601
哲宗	-11.2604
曰臣聞	-11.2604
在家	-11.2604
閲視	-11.2605
五十兩	-11.2606
神宗萬厯	-11.2607
仲尼	-11.2608
里東南到	-11.2608
盡善	-11.2608
太常卿奏	-11.2609
笞四十	-11.2611
嗣後凡	-11.2611
高下	-11.2612
九十五	-11.2614
執事者以	-11.2614
儒者	-11.2615
相國	-11.2616
明矣	-11.2617
都指揮使司	-11.2618
者将	-11.2618
一摺	-11.262
元符	-11.2622
即有	-11.2623
六曹	-11.2625
駐守	-11.2627
十頃	-11.2627
十年五月	-11.2627
之闕	-11.2629
尚多	-11.263
之形	-11.263
於堂	-11.263
袤	-11.2631
翕	-11.2632
以上皆	-11.2632
當為	-11.2633
每畝	-11.2633
寳座	-11.2634
擬絞監候	-11.2634
令地方官	-11.2634
賜以	-11.2634
未足	-11.2635
殳	-11.2635
悅	-11.2636
之使	-11.2637
載入	-11.2637
孜孜	-11.2639
之項	-11.264
比較	-11.264
乾隆八年	-11.2641
攢	-11.2642
九成	-11.2643
自此始	-11.2645
以上及	-11.2648
滇省	-11.2649
内院	-11.265
軍馬	-11.2651
後因	-11.2651
給還	-11.2651
奠訖	-11.2653
薦新	-11.2653
工字	-11.2654
吉服	-11.2655
武生	-11.2655
應陞	-11.2657
市易	-11.2662
五十五年	-11.2664
煌煌	-11.2667
荆湖	-11.2667
四頃	-11.2668
金黄	-11.2668
甲兵	-11.2668
不能自	-11.2669
因此	-11.2671
牧場	-11.2672
用度	-11.2672
大江	-11.2672
以節	-11.2673
諤	-11.2673
山南	-11.2674
菽	-11.2674
按季	-11.2676
遣大臣	-11.2676
可嘉	-11.2677
為天	-11.2677
少者	-11.2677
順治三年	-11.2678
更衣	-11.2679
總裁	-11.268
候㫖	-11.2681
閏月	-11.2683
今已	-11.2684
朝臣	-11.2685
提標	-11.2685
饋食	-11.2685
詣闕	-11.2687
𢎞農	-11.269
之忱	-11.2691
二千餘	-11.2691
進立於	-11.2693
為害	-11.2693
一夫	-11.2693
陵縣	-11.2694
内外官	-11.2694
為太子	-11.2694
興販	-11.2694
財用	-11.2695
寄養	-11.2696
左營	-11.2697
下河	-11.2698
鴻臚	-11.27
親祠	-11.27
之勞	-11.27
都統等	-11.27
科斷	-11.2702
不聞	-11.2703
東嶽	-11.2703
七十一	-11.2706
景山	-11.2708
山罍	-11.2709
祇候	-11.2709
之美	-11.271
因時	-11.2711
四年九月	-11.2712
企	-11.2713
乾隆五年	-11.2713
正賦	-11.2713
甚為	-11.2714
二隻	-11.2715
究治	-11.2715
剏	-11.2716
産業	-11.2716
以重	-11.2717
乗之	-11.2717
任事	-11.2719
元嘉	-11.272
牓	-11.272
宣撫	-11.2722
和氣	-11.2724
外戚	-11.2725
準噶爾	-11.2725
及各	-11.2726
二千二百	-11.2727
或用	-11.273
每引	-11.2732
功曹	-11.2733
氏正白旗滿洲	-11.2734
亦如	-11.2734
常州	-11.2735
經管	-11.2736
在任	-11.2738
其長	-11.274
康熙二年	-11.274
鄭𤣥	-11.2742
有年	-11.2743
買馬	-11.2744
諮	-11.2746
縣東	-11.2747
不稱	-11.2748
於北	-11.2748
衣裳	-11.2749
貢士	-11.2749
然亦	-11.2749
乾隆四十九年	-11.2749
定價	-11.275
又増	-11.2751
流通	-11.2752
造作	-11.2752
白色	-11.2754
内庫	-11.2755
相向	-11.2755
葅	-11.2756
在逃	-11.2757
瑣	-11.2758
糧餉	-11.2758
潼闗	-11.2759
班師	-11.276
庶民	-11.2761
論俸	-11.2763
如天	-11.2763
七毫	-11.2765
𠫭領	-11.2768
獅子	-11.2768
北門	-11.2769
叅奏	-11.2771
栿	-11.2771
府縣	-11.2771
諸水	-11.2773
泰州	-11.2775
不取	-11.2775
讀祝官	-11.2776
五十七年	-11.2777
諸人	-11.2778
逋賦	-11.2779
晰	-11.2781
營守備	-11.2787
歐	-11.2788
中庸	-11.279
畒	-11.2791
食俸	-11.2792
置一	-11.2792
喪儀	-11.2792
矧	-11.2793
評事	-11.2793
為文	-11.2794
棧	-11.2794
庶吉士	-11.2795
幰	-11.2795
扆	-11.2796
雖非	-11.2796
犯贓	-11.2797
西靣	-11.2797
慙	-11.2798
始終	-11.2799
之䘮	-11.28
鐃歌	-11.28
永泰	-11.2802
香帛	-11.2802
有願	-11.2802
甲士	-11.2802
計程	-11.2802
劔	-11.2803
川郡	-11.2803
曰昔	-11.2804
坪	-11.2805
一等公	-11.2807
一等侍衛	-11.2808
繼之	-11.2808
必欲	-11.2808
鄜	-11.2809
非是	-11.2809
編鐘	-11.281
覺察	-11.281
八十八	-11.2811
于闐	-11.2812
簒	-11.2813
三十萬	-11.2813
之妾	-11.2814
各司	-11.2814
一千八百	-11.2815
黎元	-11.2815
領運	-11.2816
清酒	-11.2816
月朔	-11.2817
科罪	-11.2818
在北	-11.2821
官役	-11.2822
而退	-11.2823
五服	-11.2824
府庫	-11.2827
紘	-11.2828
趾	-11.2832
前徃	-11.2832
幂	-11.2832
可觀	-11.2833
透	-11.2833
豳	-11.2834
週	-11.2836
鄉君	-11.2836
銑	-11.2838
額曰	-11.2838
考成	-11.2838
萬幾	-11.2838
三老五更	-11.2839
四品以下	-11.2839
兼用	-11.2841
珂	-11.2841
穗	-11.2842
太祖皇帝	-11.2842
文義	-11.2847
歸化	-11.2847
比年	-11.2848
則服之	-11.2849
下部議行	-11.2851
兄弟之子	-11.2851
道徳	-11.2852
又無	-11.2853
而死	-11.2853
北直𨽻	-11.2853
有過	-11.2853
不遵	-11.2854
别置	-11.2854
四十餘	-11.2855
一成	-11.2856
前衛	-11.2857
燕饗	-11.2858
分晰	-11.286
太隂	-11.2861
豈得	-11.2861
少牢	-11.2862
務要	-11.2862
水驛	-11.2863
欲令	-11.2864
兩次	-11.2865
亦著	-11.2868
烏蘇	-11.2872
靳	-11.2872
青帝	-11.2873
造報	-11.2874
寧宗	-11.2874
京兆尹	-11.2875
譴	-11.2876
八年二月	-11.2877
仁義	-11.2877
曦	-11.2878
毎日	-11.2878
於神	-11.2879
武備院	-11.288
太簇	-11.2882
黥	-11.2882
御營	-11.2882
忝	-11.2883
來貢	-11.2883
之隆	-11.2884
所行	-11.2887
朔日食	-11.2888
最高	-11.2889
二千八百	-11.289
果毅	-11.2892
滎陽	-11.2894
酒尊	-11.2895
鑲藍旗滿洲	-11.2896
墾田	-11.2898
俱以	-11.29
絁	-11.29
青陽	-11.2901
郡邑	-11.2902
監禁	-11.2905
營汛	-11.2905
庵	-11.2907
後以	-11.2908
物價	-11.2909
臨安府	-11.2909
慶歴	-11.291
烟瘴	-11.2911
而取	-11.2911
工料	-11.2912
薨諡	-11.2913
皆令	-11.2914
瘞坎	-11.2914
輜重	-11.2915
滿洲一人	-11.2915
嘏	-11.2915
大晟	-11.2916
有疾	-11.2917
頂帶	-11.2918
腐	-11.2918
舊額	-11.2921
千四百	-11.2922
使其	-11.2922
瑕	-11.2923
王后	-11.2924
生子	-11.2924
建議	-11.2924
徽號	-11.2924
屯衛	-11.2924
廣儲司	-11.2925
四百三十	-11.2926
運使	-11.2928
宫臣	-11.293
希圖	-11.2932
變通	-11.2932
以南	-11.2934
人嘉靖進士官至	-11.2934
二營	-11.2934
惠王	-11.2936
百六十	-11.2938
二升	-11.2939
情理	-11.2941
三門	-11.2942
南廵	-11.2944
頒詔	-11.2945
先入	-11.2946
安陸	-11.2946
家令	-11.2946
大宗	-11.2946
臨淮	-11.2949
征討	-11.2949
至死者	-11.295
春分	-11.2955
亹	-11.2955
三法司	-11.2955
集十卷	-11.2955
朕以	-11.2956
以内	-11.2956
鳬	-11.2958
上用	-11.2958
九十三	-11.2959
徳管理	-11.2959
滛	-11.296
辛夘	-11.296
為額	-11.296
武英殿	-11.2962
嵌	-11.2962
藹	-11.2963
叔父	-11.2965
燉煌	-11.2966
協同	-11.2966
沂州	-11.2966
精神	-11.2966
五輅	-11.2968
一槩	-11.2969
鄉㑹試	-11.2973
琉球	-11.2976
臨川	-11.2977
雍正十二年	-11.2977
者杖八十	-11.2978
九龍	-11.2978
從七品	-11.2981
唐縣有	-11.2984
故名	-11.2985
凡五	-11.2986
恭候	-11.2987
潮州	-11.2988
寸二分	-11.2988
尚宫	-11.2988
騷	-11.2992
懦	-11.2998
籍貫	-11.2999
倍之	-11.3002
藍翎侍衛	-11.3003
氏曰	-11.3003
亦與	-11.3005
各十	-11.3006
僧尼	-11.3007
原定	-11.3008
石青	-11.3008
七品官	-11.301
外壝	-11.301
弋	-11.3012
中元	-11.3012
喝	-11.3013
寳應	-11.3013
四隅	-11.3015
已行	-11.3018
物力	-11.3019
亦屬	-11.3023
列祖	-11.3025
如係	-11.3026
太尊	-11.3027
從六品	-11.3028
見易類	-11.303
酒罇	-11.3031
錢鈔	-11.3032
當日	-11.3033
官人	-11.3033
未定	-11.3035
所存	-11.3037
厚一寸	-11.3038
泰定	-11.3039
顓頊	-11.304
里長	-11.3041
永豐	-11.3042
墟	-11.3042
等俱	-11.3044
陣亡賞䘏如例	-11.3048
長夀	-11.3048
進取	-11.3048
洋洋	-11.305
相與	-11.3051
不但	-11.3051
喀爾	-11.3052
酌減	-11.3052
安慶	-11.3053
後主	-11.3053
數十年	-11.3054
即古	-11.3055
之極	-11.3059
下手	-11.306
民情	-11.306
其勢	-11.3065
勸農	-11.3065
人無	-11.3069
本章	-11.307
計之	-11.3072
關防	-11.3073
定奪	-11.3073
不已	-11.3077
言者	-11.3077
萬騎	-11.3077
四匹	-11.3078
事蹟	-11.3078
不動	-11.3079
朝儀	-11.3079
依議	-11.308
癸夘	-11.3081
未入流	-11.3081
非有	-11.3082
公主適	-11.3083
自立	-11.3083
銳	-11.3083
者減	-11.3088
甲乙	-11.3089
十三卷	-11.309
事竣	-11.309
十惡	-11.3092
八十名	-11.3093
之仁	-11.3096
有事於	-11.3098
八九	-11.3098
大享	-11.3099
朝審	-11.3099
供應	-11.3101
鳳翔	-11.3103
者得	-11.3104
柩車	-11.3106
前項	-11.3107
祭社稷	-11.3108
改補	-11.3108
戸部尚書	-11.3108
丁銀	-11.3108
此亦	-11.3108
民居	-11.3109
監官	-11.3109
副都統一人	-11.3109
城西	-11.3111
五百兩	-11.3112
祫享	-11.3112
少西	-11.3115
年置	-11.3116
大帶	-11.3116
四百七十	-11.3117
佐貳	-11.312
荒田	-11.312
備辦	-11.3121
六年五月	-11.3124
馬兵	-11.3125
升用	-11.3128
龍首	-11.313
象牙	-11.313
皆出	-11.313
盝	-11.3133
陞轉	-11.3134
而致	-11.3137
百代	-11.3137
多而	-11.3139
九十二	-11.3141
彰徳	-11.3142
卷鼂氏曰皇朝	-11.3143
論其	-11.3144
河清	-11.3144
叅将	-11.3145
順治十八年	-11.3145
河源	-11.3146
伏誅	-11.3146
鳯凰	-11.3148
狀元	-11.3149
軍民府	-11.3149
馬牛	-11.3149
挿	-11.3154
嫡孫	-11.3155
牲體	-11.3155
署令	-11.3157
瞻仰	-11.3157
覆以	-11.3159
匾	-11.316
進奉	-11.316
擴	-11.3162
江州	-11.3163
殊恩	-11.3165
殺人者	-11.3166
聰明	-11.3166
搢	-11.3166
鉢	-11.3167
侍讀學士	-11.3169
踞	-11.317
不禁	-11.317
葱	-11.3172
廬陵	-11.3173
黷	-11.3173
鎮安	-11.3173
年行書	-11.3178
帶領引見	-11.318
里東北到	-11.318
十九日	-11.3181
留養	-11.3181
藉端	-11.3182
三疋	-11.3182
年滿	-11.3184
其民	-11.3184
以其弟	-11.3185
經文	-11.3186
屆期	-11.3186
可疑	-11.3192
咸朝服	-11.3193
丈五尺	-11.3194
科目	-11.3194
第一等	-11.3194
司𨽻	-11.3195
重囚	-11.3196
瀋	-11.3196
國中	-11.3196
居官	-11.3197
八萬	-11.3201
半之	-11.3202
京堂	-11.3203
覔	-11.3204
良醖令	-11.3205
吾子	-11.3206
所及	-11.3207
斬絞	-11.3207
及時	-11.3208
胃	-11.3209
偽造	-11.3209
新羅	-11.3211
腸	-11.3211
二斤	-11.3214
伏願	-11.3214
甥	-11.3214
一九	-11.3216
縣來屬	-11.3217
首從	-11.3217
神農氏	-11.3218
張文	-11.3221
以降	-11.3221
八員	-11.3221
華蓋	-11.3221
午階	-11.3222
務使	-11.3224
爵酒	-11.3225
天福	-11.3228
於今	-11.323
先天	-11.323
巡察	-11.3231
不敬	-11.3232
禮云	-11.3235
正字	-11.3235
裁減	-11.3236
虎符	-11.3237
并州	-11.3237
硃紅漆	-11.324
不登	-11.3241
者此	-11.3241
各自	-11.3244
其黨	-11.3246
管佐領	-11.3248
京東	-11.3249
乙卯	-11.3252
事主	-11.3252
筒	-11.3253
四年十一月	-11.3254
徃來	-11.3255
千戸所	-11.3256
鵝	-11.3256
海宇	-11.3256
九門	-11.3256
帝后	-11.3257
蕃客	-11.3257
驥	-11.3257
鎔	-11.3259
六年六月	-11.326
會稽	-11.3261
告廟	-11.3262
從而	-11.3263
來年	-11.3264
車服	-11.3264
貝勒貝子	-11.3264
節省	-11.3265
衛士	-11.3265
總漕	-11.3265
左右丞	-11.3268
御太和殿	-11.3269
提調官	-11.3269
康熙六年	-11.3269
固已	-11.327
之域	-11.3272
是則	-11.3273
舞者	-11.3273
一獻	-11.3273
則天	-11.3273
如禮	-11.3276
皇帝出	-11.3276
雜職	-11.3276
東南西向	-11.3281
正直	-11.3282
衛輝	-11.3283
有禆益	-11.3283
不著撰人名氏	-11.3285
九十八	-11.3286
又引	-11.3288
覆凖	-11.3288
杖一百徒三年	-11.3288
萬古	-11.3289
實屬	-11.3289
八旗滿洲	-11.3289
夏侯	-11.3291
一朝	-11.3293
其議	-11.3295
將帥	-11.3295
愉	-11.3295
附録	-11.3296
先師孔子	-11.3298
管理李	-11.3299
即如	-11.3299
七祀	-11.33
惶	-11.33
驗看	-11.33
藏於	-11.3302
皆因	-11.3307
員數	-11.3307
私行	-11.3308
十四年正月	-11.3309
蠲除	-11.3312
典史	-11.3314
正白旗滿洲	-11.3314
不知何	-11.3315
宣武	-11.3315
俱詣	-11.3319
者免議	-11.3322
之矣	-11.3322
同罪	-11.3323
以廣	-11.3323
亘	-11.3324
躔	-11.3327
歌舞	-11.3329
在下	-11.3329
昭陵	-11.333
殉	-11.3331
盂	-11.3331
亰	-11.3332
恭謁	-11.3333
開放	-11.3335
藪	-11.3335
醖	-11.3336
也然則	-11.3336
出城	-11.3336
裨	-11.3337
寒暑	-11.3337
平章事	-11.3337
織金	-11.3338
孝皇帝	-11.3339
聶	-11.3342
太原府	-11.3343
固原	-11.3343
廣運	-11.3344
保障	-11.3344
淳祐	-11.3345
端拱	-11.3345
常熟	-11.3346
參政	-11.3346
厦門	-11.3347
二十三日	-11.3347
通政使司	-11.3347
慶厯	-11.335
鉅典	-11.335
而能	-11.3351
巴顔	-11.3351
司郎中	-11.3355
緑旗兵	-11.3356
隋初	-11.336
不顧	-11.3361
崇明	-11.3361
黄水	-11.3361
金鼓	-11.3362
璟	-11.3363
馬價	-11.3364
統於	-11.3365
州城	-11.3366
河泊所	-11.3366
依前	-11.3367
驍	-11.3367
上聞	-11.3368
聖武	-11.3369
抹金銅	-11.3369
者當	-11.3373
疏入	-11.3373
王圻	-11.3376
二十四日	-11.3376
焚香	-11.3376
善惡	-11.3377
從九品	-11.3378
閏五月	-11.3378
旌旗	-11.3378
鞏昌	-11.3379
魄	-11.3379
邈	-11.3379
功牌	-11.3379
皇太后皇后	-11.3382
納吉	-11.3384
前二日	-11.3384
賞䘏如例	-11.3384
大者	-11.3385
京營	-11.3386
折衷	-11.3387
察驗	-11.3387
祭畢	-11.3387
頒給	-11.339
餘與	-11.339
還罇所	-11.3391
市舶	-11.3392
久矣	-11.3394
司直	-11.3396
皇甫	-11.3397
課程	-11.3397
尋以	-11.3398
口徑	-11.3399
皆退	-11.34
老子	-11.34
千把總	-11.3401
七年三月	-11.3401
奏請皇帝	-11.3401
天人	-11.3402
相接	-11.3403
郎中員外郎	-11.3403
二年以	-11.3404
營繕	-11.3404
右丞相	-11.3409
過半	-11.341
孛	-11.3411
後廢	-11.3413
料錢	-11.3414
都䕶府	-11.3416
以助	-11.3418
少傅	-11.3418
新建	-11.3418
拙	-11.3419
月任	-11.3419
氏鑲紅旗滿洲䕶軍	-11.3419
擺	-11.342
怯	-11.342
何人	-11.342
解任	-11.342
洊	-11.3421
卸	-11.3421
王貝勒	-11.3422
濛	-11.3423
胎	-11.3423
望祭	-11.3423
延夀	-11.3423
猺	-11.3423
沙河	-11.3425
侔	-11.3425
光宗	-11.3425
擕	-11.3426
者按	-11.3428
天文志	-11.3428
開府儀同三司	-11.343
各六	-11.343
文忠	-11.3432
北地	-11.3435
十四名	-11.3436
逾限	-11.3436
並將	-11.3437
百疋	-11.3439
日為始	-11.3439
司務	-11.344
分賠	-11.3442
元氣	-11.3443
總計	-11.3445
實授	-11.3446
溉	-11.3446
杖罪	-11.3447
正六品	-11.345
陳氏	-11.345
輟朝	-11.345
親身	-11.3451
嵗以	-11.3452
錢粮	-11.3458
在中	-11.3458
入奏	-11.3459
大破之	-11.346
羸	-11.3463
鑾儀衞	-11.3463
菹	-11.3465
之精	-11.3465
倉榖	-11.3465
既多	-11.3466
型	-11.3466
可憫	-11.3467
茫	-11.3467
旗軍	-11.3467
奏聖躬萬福	-11.3467
誇	-11.3467
筝	-11.3468
坐事削爵	-11.3468
跨	-11.3468
泗水	-11.3468
近者	-11.3468
精兵	-11.3468
討論	-11.3469
杞	-11.3469
營總	-11.347
嗣位	-11.347
保住	-11.3472
欒	-11.3472
瓊州	-11.3474
深衣	-11.3474
五疋	-11.3474
對越	-11.3477
行用	-11.3478
豐稔	-11.3478
五匹	-11.3478
殿最	-11.3478
許其	-11.3479
管束	-11.3479
正藍旗滿洲	-11.348
和碩親王	-11.3481
抹額	-11.3484
每船	-11.3487
成例	-11.3488
川省	-11.3489
宗室覺羅	-11.349
農夫	-11.3492
本生	-11.3494
明禋	-11.3494
異者	-11.3494
人倫	-11.3496
幨	-11.3498
遷徙	-11.3501
一室	-11.3501
馬端臨	-11.3502
四五	-11.3502
榛	-11.3502
臨陣	-11.3504
大射	-11.3504
釋放	-11.3505
鐵匠	-11.3505
立秋	-11.3506
直班	-11.3506
之缺	-11.351
道也	-11.351
岀	-11.3511
槖	-11.3512
則當	-11.3512
經由	-11.3514
朱雀	-11.3517
其說	-11.3517
應徵	-11.352
責之	-11.352
以青	-11.3521
二百石	-11.3523
逺方	-11.3532
奠玉幣	-11.3534
給價	-11.3538
王貝勒貝子公	-11.354
泰一	-11.354
會試	-11.3543
餘丈	-11.3544
咏	-11.3546
塼	-11.3546
前因	-11.3547
技藝	-11.3547
九十里	-11.355
金花	-11.355
欲使	-11.355
俛伏	-11.3551
捜	-11.3551
泮	-11.3551
之饌	-11.3552
蕆	-11.3553
則知	-11.3553
奮勉	-11.3553
百官志	-11.3554
定鼎	-11.3555
餘鹽	-11.3555
桀	-11.3555
迥	-11.3555
不聽	-11.3556
萬福	-11.3558
隆阿	-11.3558
之方	-11.3559
唐志	-11.3561
凡十	-11.3562
幣以	-11.3563
青色	-11.3564
格外	-11.3565
也又曰	-11.3566
任滿	-11.3566
為天子	-11.3569
忭	-11.3569
郡君	-11.3573
漢軍鑲黄旗人	-11.3573
占城	-11.3575
三千餘	-11.3575
表案	-11.3575
已見	-11.3575
靡不	-11.3576
之體	-11.3576
料理	-11.3577
矣故	-11.3579
三年十二月	-11.3579
他省	-11.3583
亳	-11.3586
照此例	-11.3586
一舉	-11.3587
時封	-11.3587
屬縣	-11.3588
用銀	-11.3589
什物	-11.3591
查辦	-11.3591
包攬	-11.3592
不特	-11.3593
將原	-11.3593
飼	-11.3594
期年	-11.3595
縑	-11.3596
斬獲	-11.3596
旗幟	-11.3596
應補	-11.3597
翼領	-11.3598
河自	-11.3599
弓匠	-11.36
闗中	-11.36
墳墓	-11.3601
於京師	-11.3602
内遴選	-11.3602
地方任	-11.3603
以見	-11.3603
五年四月	-11.3603
房三間	-11.3606
孝宗𢎞治	-11.3607
陕	-11.3607
土田	-11.3607
受册	-11.3608
品物	-11.3608
三重	-11.3609
稍後	-11.3611
隨侍	-11.3611
氏正黄旗滿洲	-11.3613
二十八宿	-11.3614
呈明	-11.3614
車師	-11.3617
化縣	-11.3619
廬州	-11.3619
參差	-11.362
武帝時	-11.3621
南向設	-11.3623
萬匹	-11.3624
以白	-11.3624
用錢	-11.3624
載之	-11.3625
為四	-11.3626
頗有	-11.3626
載於	-11.3627
本國	-11.3627
為本	-11.3629
不到	-11.363
勢必	-11.363
蹲	-11.3631
豐之章	-11.3631
量加	-11.3632
乙字	-11.3633
三百石	-11.3634
委任	-11.3635
卡倫	-11.3637
朝會	-11.3638
歩軍尉	-11.3638
六十一年	-11.3639
平身	-11.3639
王大臣等	-11.3639
蹙	-11.364
夜明	-11.364
移於	-11.364
為天下	-11.3641
剖	-11.3641
為政	-11.3641
一萬五千	-11.3642
蹄	-11.3643
出糶	-11.3645
趺	-11.3647
俸禄	-11.3649
實數	-11.3649
必得	-11.365
舟師	-11.365
南路	-11.3651
秋禾	-11.3651
上中下	-11.3654
楹間	-11.3655
銅器	-11.3655
山河	-11.3656
不克	-11.3656
依限	-11.3656
覆准	-11.3661
開禧	-11.3662
專司	-11.3662
侍立位	-11.3663
官爵	-11.3665
賢否	-11.3667
鐘鼓	-11.3668
五百人	-11.3668
天水	-11.3669
計算	-11.3669
十年四月	-11.367
奉神主	-11.367
禁約	-11.3671
寳慶	-11.3674
崇祀	-11.3674
永為	-11.3677
所未有	-11.3678
文昌	-11.368
龍泉	-11.3681
例不	-11.3681
廷試	-11.3683
實係	-11.3683
講學	-11.3684
銃	-11.3684
銀庫	-11.3685
宇宙	-11.3685
筍	-11.3685
餙	-11.3686
邕	-11.3686
冊命	-11.3687
永著為例	-11.3689
丹陛大樂	-11.3689
將應	-11.3692
各倉	-11.3692
伊爾	-11.3692
廵檢	-11.3693
黄麾仗	-11.3693
謹遣	-11.3693
亦照此例	-11.3695
未為	-11.3695
奉禮設	-11.3695
爲之	-11.3695
社壇	-11.3696
終於	-11.3698
以憑	-11.3698
讀冊	-11.3699
釐四毫	-11.3699
佩刀	-11.37
改易	-11.3702
扶同	-11.3703
三河	-11.3703
之苦	-11.3707
核實	-11.3707
五百八十	-11.3708
分駐	-11.371
雲貴	-11.3711
妹	-11.3716
㑹要	-11.3716
第二星	-11.3716
户外	-11.3719
如所請	-11.3723
圩	-11.3725
前鋒叅領	-11.3725
騾	-11.3727
名目	-11.3728
奉先	-11.3729
閫	-11.373
完竣	-11.3731
已定	-11.3731
躡	-11.3733
服衮冕	-11.3733
鞋	-11.3734
乙夘	-11.3734
灌溉	-11.3735
匾額	-11.3736
華盖	-11.3737
現年一百	-11.3737
告竣	-11.3739
仍歸	-11.3739
贊善	-11.3742
以歸	-11.3742
如在	-11.3742
甞	-11.3744
梁陳	-11.3745
等情	-11.3745
光華	-11.3747
夏税	-11.3748
所置	-11.3748
鄉縣	-11.3749
印官	-11.3749
十數	-11.3749
姨	-11.375
三上香	-11.3752
聖神	-11.3752
册内	-11.3753
大饑	-11.3753
宗祀	-11.3753
迤	-11.3754
稍南	-11.3754
審擬	-11.3755
二尺二寸	-11.3759
各五	-11.3759
而南	-11.376
武后	-11.3761
之源	-11.3762
本傳	-11.3762
舍人引	-11.3764
死刑	-11.3764
氏鑲白旗滿洲	-11.3765
武威	-11.3766
屯兵	-11.3766
新設	-11.3767
遞加	-11.3769
葉爾羌	-11.377
綂	-11.3771
其故	-11.3771
考校	-11.3772
者今	-11.3772
縴	-11.3772
謁者引太常卿	-11.3773
人並	-11.3773
並列	-11.3773
壅滯	-11.3774
卜日	-11.3775
紛紛	-11.3775
礪	-11.3775
反覆	-11.3776
七百二十	-11.3776
防守尉	-11.3777
中和殿	-11.3778
蔓	-11.3779
鳥獸	-11.3779
為盜	-11.3783
赭	-11.3783
先朝	-11.3784
山隂	-11.3784
從一品	-11.3785
夙興	-11.3786
金鉦	-11.3788
等衛	-11.3788
其不	-11.3789
近世	-11.3789
恭導	-11.3789
相合	-11.379
咸陽	-11.379
六年十一月	-11.3794
工部侍郎	-11.3794
徇情	-11.3796
十貫	-11.3796
江省	-11.3797
者照例	-11.3798
尺字	-11.3799
身故	-11.38
衆人	-11.38
跪讀	-11.3802
同文	-11.3805
三石	-11.3807
崇文門	-11.3808
者先	-11.3809
共為	-11.3809
屬於	-11.3812
各還	-11.3812
之器	-11.3812
所費	-11.3812
所進	-11.3814
棠	-11.3814
耽	-11.3816
苴	-11.3819
曾經	-11.3821
寧王	-11.3822
遷都	-11.3822
賢者	-11.3822
蟄	-11.3823
舉者	-11.3823
鑲黄旗滿洲	-11.3824
府丞	-11.3825
金錢	-11.3827
蓮花	-11.3827
二千四百	-11.3828
貨賣	-11.3829
逃走	-11.3833
五百餘	-11.3833
直𨽻總督	-11.3834
長孫	-11.3834
四丈	-11.3834
賑糶	-11.3834
亦係	-11.3836
十七人	-11.3838
改作	-11.3838
之害	-11.3838
康熙三年	-11.384
置之	-11.3841
南境	-11.3841
聮曰	-11.3842
前隊	-11.3842
追贈	-11.3842
神龍元年	-11.3842
臣以為	-11.3843
承以	-11.3844
四年以	-11.3844
不詳	-11.3845
窰	-11.3846
府城	-11.3847
撥補	-11.3847
難於	-11.3847
司俎	-11.3848
雲氣	-11.3848
孝王	-11.3848
日中	-11.3852
借端	-11.3853
五石	-11.3854
者以為	-11.3854
宣撫使	-11.3855
散處	-11.3855
相生	-11.3855
毫無	-11.3856
官員兵丁	-11.3858
圍場	-11.3859
擾累	-11.3859
倧	-11.386
萬户府	-11.386
初獻官	-11.3861
宫殿監	-11.3861
觜	-11.3862
一班	-11.3863
欽差	-11.3866
敵兵	-11.3866
瑯琊	-11.3868
猝	-11.3868
鎻	-11.3868
進當	-11.3869
傳云	-11.387
火器	-11.387
克什	-11.3872
物件	-11.3872
庶㡬	-11.3873
不甚	-11.3874
敬天	-11.3875
普安	-11.3876
揑報	-11.3876
淮陽	-11.3876
聖慈	-11.3877
五方帝	-11.388
供奉官	-11.3884
連坐	-11.3884
少而	-11.3885
抵通	-11.3885
數倍	-11.3885
師古	-11.3887
副叅領	-11.3887
於地	-11.3887
襄公	-11.3887
髙一丈	-11.389
蕪	-11.3892
鴈門	-11.3892
哭於	-11.3893
圻	-11.3894
王道	-11.3895
酒食	-11.3896
紀録	-11.3897
集一卷	-11.3898
三匹	-11.3899
一副	-11.3899
酌尊所	-11.39
少府監	-11.3902
以下各	-11.3902
成都府	-11.3903
城池	-11.3904
紺	-11.3904
暫停	-11.3905
安瀾	-11.3906
麤	-11.3907
傭	-11.3908
行令	-11.3908
州同	-11.3909
阿克蘇	-11.3909
水軍	-11.391
土黙特	-11.391
耄	-11.3913
後改為	-11.3915
鍊	-11.3918
章奏	-11.3918
殺死	-11.392
文獻通考	-11.3922
五榖	-11.3922
㸃檢	-11.3923
加於	-11.3924
三丈	-11.3926
千七百	-11.3926
張掖	-11.3927
蒼生	-11.3927
祕書	-11.3928
自唐	-11.3928
校正	-11.3931
六年四月	-11.3931
相和	-11.3932
今考	-11.3935
郡界	-11.3936
逆賊	-11.3936
象輅	-11.3936
之政令	-11.3937
重於	-11.3938
七世	-11.3938
雖然	-11.394
吉安	-11.3941
音律	-11.3944
織成	-11.3946
界内	-11.3947
集四卷	-11.395
感激	-11.395
以表	-11.3952
椅	-11.3952
拭	-11.3952
攅	-11.3953
積年	-11.3953
喀什噶爾	-11.3953
元鼎	-11.3953
無非	-11.3953
沅州	-11.3954
涿州	-11.3954
如今	-11.3954
人萬厯進士官至	-11.3955
彈壓	-11.3955
故地	-11.3956
功加	-11.3956
祥瑞	-11.3957
閎	-11.3958
錢物	-11.3959
明宗	-11.3959
降一等	-11.396
妥協	-11.396
七曰	-11.3961
不係	-11.3961
萬餘人	-11.3963
不嚴	-11.3963
降出	-11.3965
干戈	-11.3966
光祿寺	-11.3969
宫闈令	-11.3969
納喇	-11.3969
滿日	-11.3973
過失殺	-11.3973
指授	-11.3973
歙	-11.3977
完納	-11.3978
運官	-11.398
振武	-11.398
莫敢	-11.398
溪縣	-11.398
同心	-11.3981
甚少	-11.3981
典吏	-11.3984
於斯	-11.3986
之妻楊	-11.3988
漢志	-11.399
廢為	-11.399
清道	-11.3991
鼠	-11.3991
以應	-11.3992
達於	-11.3992
魏公	-11.3993
乾隆二十四年	-11.3995
編輯	-11.3996
東陽	-11.3998
左右門	-11.3998
論之	-11.3998
揣	-11.3998
通同	-11.3998
之祖	-11.3999
煦	-11.3999
西面北上	-11.4
並與	-11.4
滿洲二人	-11.4
勒限	-11.4
流賊	-11.4001
銀内	-11.4003
崑崙	-11.4003
贅	-11.4005
變賣	-11.4005
列傳	-11.4007
各三人	-11.4007
分路	-11.401
老成	-11.401
惡之	-11.4011
五刻	-11.4012
酋長	-11.4012
始末	-11.4013
横吹	-11.4016
所辦	-11.4016
以罪	-11.4017
軍興	-11.4022
貞祐	-11.4023
官品	-11.4023
兼領	-11.4025
正聲	-11.4026
奈	-11.4026
從四品	-11.4027
允協	-11.4027
互異	-11.4027
有故	-11.4028
行禮如儀	-11.4028
閏三月	-11.4031
邠	-11.4032
等率	-11.4036
人事	-11.4036
韈	-11.4037
二人位於	-11.4037
合為一	-11.4038
延慶	-11.4039
詔可	-11.404
繪金	-11.4043
海蘭察	-11.4044
丈量	-11.4044
姿	-11.4045
渚	-11.4045
逕	-11.4045
四百九十	-11.4046
羣生	-11.4046
夕月	-11.4047
椎	-11.4047
煌	-11.4048
望燎位	-11.4048
部員外郎	-11.4048
君長	-11.4051
于此	-11.4051
何處	-11.4051
重大	-11.4053
刺字	-11.4053
丕基	-11.4054
龠	-11.4054
麫	-11.4054
百四十	-11.4055
四季	-11.4058
三品以下	-11.4059
未獲	-11.406
吏員	-11.4061
庫掌	-11.4061
每佐領下	-11.4063
之東北	-11.4063
提學	-11.4064
使某	-11.4066
鹽井	-11.4069
才能	-11.4069
聖學	-11.4069
千斤	-11.407
皇帝廟號	-11.4071
三皇	-11.4072
者所以	-11.4072
義州	-11.4072
神人	-11.4072
教塲	-11.4074
而不可	-11.4074
香山	-11.4076
三辰	-11.4076
康熙八年	-11.4077
為差	-11.4077
儒臣	-11.4078
者一人	-11.4083
雒	-11.4084
自天	-11.4085
詣罍洗	-11.4086
疏稱	-11.4086
液	-11.4087
六品官	-11.4087
鐃	-11.4088
節儉	-11.4088
觀察	-11.4089
迂	-11.4089
修整	-11.409
逵	-11.409
主祭	-11.4091
恐有	-11.4091
等於	-11.4091
鎧	-11.4092
御仗	-11.4093
慘	-11.4093
時令	-11.4093
鹽引	-11.4094
遂至	-11.4094
平州	-11.4095
獄訟	-11.4095
之詔	-11.4095
卜筮	-11.4095
之治	-11.4096
億兆	-11.4097
拿獲	-11.4098
増定	-11.41
書目	-11.41
五百五十	-11.4103
從三品	-11.4104
五員	-11.4104
西海	-11.4108
無嗣	-11.4109
無所不	-11.4109
衞尉	-11.411
報可	-11.411
經書	-11.411
祀日	-11.4112
送部引見	-11.4113
蕩平	-11.4113
子思	-11.4116
已過	-11.4116
夫役	-11.4116
令各處	-11.4117
行掃除	-11.4118
降為縣	-11.4118
言曰	-11.4119
水路	-11.4121
始皇	-11.4122
水土	-11.4122
國柱	-11.4123
范陽	-11.4126
琉球國	-11.4128
氏正白旗漢軍	-11.4128
旗纛	-11.4128
舊欠	-11.4131
和平	-11.4132
爾格	-11.4133
淮東	-11.4134
賭	-11.4134
也朕	-11.4134
常徳	-11.4136
塘工	-11.4136
但以	-11.4137
地共	-11.4137
若遇	-11.4137
儷	-11.4138
萬安	-11.4139
犒	-11.4139
櫃	-11.414
獲者	-11.414
則必	-11.414
聖㫖	-11.414
瀛臺	-11.4143
七百五十	-11.4143
又請	-11.4144
五年五月	-11.4145
滁州	-11.4145
回回	-11.4146
上尊號	-11.4146
奪其	-11.4147
進𠞰	-11.4149
御道	-11.415
騎兵	-11.415
州都督	-11.4151
内賛	-11.4151
司賛	-11.4151
宣力	-11.4152
按翼	-11.4155
無文	-11.4155
採桑	-11.4155
前明	-11.4156
矣夫	-11.4157
之狀	-11.4158
從軍	-11.4158
八十以上	-11.4159
賜爵	-11.4159
廢疾	-11.4161
廣東廣西	-11.4161
建大	-11.4163
河防	-11.4163
奉特㫖	-11.4165
憲宗成化	-11.4165
六頃	-11.4165
詳審	-11.4167
以彰	-11.4168
門外位	-11.4172
那移	-11.4172
㑹計	-11.4173
貢院	-11.4176
日行	-11.4177
稱其	-11.4178
甌	-11.4179
從駕	-11.4179
姊	-11.418
日祭	-11.418
剔	-11.418
行銷	-11.4182
行下	-11.4182
冊内	-11.4182
從寛	-11.4183
捕盜	-11.4183
推諉	-11.4186
文武大臣	-11.4186
官地	-11.4186
初二日	-11.4187
三百人	-11.4188
奏禮畢	-11.4189
大袖	-11.419
時憲書	-11.419
靈駕	-11.4191
兠	-11.4192
從入	-11.4192
朕甚	-11.4193
里初屬	-11.4194
同一	-11.4196
日新	-11.4197
上御	-11.4198
進俎	-11.4198
興京	-11.4199
著該部	-11.4201
亡者	-11.4201
不廢	-11.4201
滿洲鑲黄旗人姓	-11.4202
知所	-11.4204
勤政	-11.4205
王世	-11.4207
中下	-11.4208
東門外	-11.4209
皇帝詣	-11.4209
西湖	-11.421
康熙十四年	-11.4211
二十六日	-11.4212
外有	-11.4213
之象也	-11.4214
乾隆六年	-11.4218
匀	-11.4218
藍翎	-11.4219
之流	-11.4219
宣慰	-11.4219
而為之	-11.422
鎮逺	-11.422
之師	-11.4221
十五年正月	-11.4221
北面再拜	-11.4221
為便	-11.4222
世家	-11.4223
末年	-11.4224
嫻	-11.4226
小國	-11.4226
大政	-11.4227
瑾	-11.4231
氏鑲黄旗滿洲䕶軍	-11.4232
縈	-11.4232
聖諭	-11.4232
鞍轡	-11.4233
嵐	-11.4233
㝢	-11.4233
者罰俸六月	-11.4234
九年六月	-11.4235
梯航	-11.4235
各道	-11.4236
侮	-11.4237
租税	-11.4237
夭	-11.4237
遂有	-11.4237
根本	-11.4238
該堂官	-11.4238
尋議	-11.4239
五斤	-11.424
汾州	-11.4242
步兵	-11.4243
見今	-11.4243
四疋	-11.4243
集賢院	-11.4243
靈州	-11.4243
宗人	-11.4244
數千里	-11.4247
起兵	-11.4248
若非	-11.4252
理合	-11.4258
一十三	-11.4259
轉飭	-11.4259
紅漆	-11.426
暹羅	-11.426
千牛將軍	-11.4262
乾隆二十年	-11.4264
即日	-11.4264
銀二兩	-11.4264
一年内	-11.4266
縣置	-11.4267
右營	-11.4268
厥後	-11.4268
子康熙	-11.4269
汀	-11.427
仍前	-11.4271
義理	-11.4273
失事	-11.4277
為兵	-11.428
七錢	-11.4281
並請	-11.4281
内外皆	-11.4282
繚	-11.4283
忌日	-11.4283
制門	-11.4283
臭	-11.4284
太常少卿	-11.4285
壺尊	-11.4285
明春	-11.4285
築城	-11.4286
各該督撫	-11.4286
鉅鹿	-11.4286
陜州	-11.4287
表章	-11.4288
里去西京	-11.4288
每旗各	-11.4288
無辜	-11.4289
表箋	-11.429
敗賊	-11.4292
以故	-11.4292
天帝	-11.4293
鼓一	-11.4293
黄幄	-11.4295
成人	-11.4296
獻俘	-11.4298
兵一百	-11.4298
延平	-11.4302
無能	-11.4305
季秋	-11.4306
配以	-11.4307
一寸二分	-11.4308
命官	-11.4308
罪二等	-11.4309
此言	-11.431
擾民	-11.431
求其	-11.4312
阿睦爾撒納	-11.4314
宣祖	-11.4314
諭禮部	-11.4314
以相	-11.4315
列為	-11.4316
大宛	-11.4316
無他	-11.4317
也謂	-11.4318
紇	-11.4319
人掌	-11.4319
車書	-11.4319
無考	-11.432
總統	-11.432
阼階上	-11.4321
也乃	-11.4321
辰州	-11.4325
支河	-11.4326
六年十月	-11.4327
盎齊	-11.4327
粱	-11.4329
橫	-11.4329
葱嶺	-11.4329
殄	-11.4329
地理志	-11.4329
名口倉存榖	-11.4329
神農	-11.433
望瘞	-11.433
漕運總督	-11.4331
巍	-11.4332
顓	-11.4333
皆稱	-11.4335
人世居	-11.4336
非也	-11.4336
公廨	-11.4336
監軍	-11.4336
冊立	-11.4338
地土	-11.4338
遇恩詔晉	-11.4339
始定	-11.4339
賓客	-11.4339
又經	-11.434
不令	-11.4341
犯死罪	-11.4342
取用	-11.4342
以期	-11.4345
該國王	-11.4346
三十餘	-11.4351
漢武	-11.4352
演習	-11.4354
建徳	-11.4355
攻之	-11.4356
而用之	-11.4356
巴林	-11.4358
正一品	-11.436
連年	-11.4361
商量	-11.4361
各該處	-11.4363
化為	-11.4364
中心	-11.4364
營游擊一人	-11.4364
貧富	-11.4366
白氣	-11.4366
四周	-11.4367
署理	-11.4367
正二品	-11.4367
其辭	-11.4368
糧米	-11.4368
驃騎	-11.437
還齋所	-11.437
濩	-11.4372
不置	-11.4372
貎	-11.4372
上駟院	-11.4373
原本	-11.4374
跪奠於	-11.4374
經度	-11.4375
䕶軍校驍騎校	-11.4375
經營	-11.4376
訃	-11.4376
年襲	-11.4378
當年	-11.4378
由來	-11.4379
花釵	-11.4379
通政司	-11.4379
汙	-11.438
河渠	-11.4381
募民	-11.4381
授職	-11.4381
窠	-11.4382
引皇太子	-11.4382
以祭	-11.4383
周詳	-11.4384
多至	-11.4385
清理	-11.4385
土著	-11.4386
篤疾	-11.4386
自盡	-11.4389
而東	-11.4389
户部議	-11.439
之最	-11.439
不獨	-11.439
方今	-11.4393
前人	-11.4394
雩祀	-11.4395
諸司職掌	-11.4397
定國	-11.4397
縣尉	-11.4403
花文	-11.4404
台吉等	-11.4406
五臺	-11.4407
體例	-11.4408
實用	-11.441
蔡京	-11.4411
仰體	-11.4411
領郡	-11.4413
二萬五千	-11.4413
與同罪	-11.4414
典賣	-11.4414
稍西	-11.4414
木輅	-11.4418
盛世	-11.4418
廳	-11.4418
脉	-11.4418
彼處	-11.4419
禁之	-11.442
滂	-11.442
獨石口	-11.4421
蟒袍	-11.4421
祈雨	-11.4421
蘇軾	-11.4423
有兵	-11.4423
順治四年	-11.4424
啇	-11.4424
恱	-11.4425
者仍照	-11.4425
書云	-11.4425
所舉	-11.4425
都司一人	-11.4425
郊特牲	-11.4425
大小官員	-11.4426
銀數	-11.4426
露布	-11.4427
晡後	-11.4427
第十二	-11.4427
繕寫	-11.4427
清廟	-11.4427
工本	-11.4428
鞮	-11.4429
重加	-11.4433
釋菜	-11.4433
亦是	-11.4434
該州縣	-11.4434
二品以上	-11.4435
功成	-11.4435
軍國	-11.4436
兩三錢	-11.4436
奏入報聞	-11.4438
下生	-11.4438
徳音	-11.444
二尺五寸	-11.444
各門	-11.4441
司尊	-11.4442
平生	-11.4443
武清	-11.4443
獻帝	-11.4443
通髙	-11.4444
水溢	-11.4445
假有	-11.4445
他物	-11.4445
五年十月	-11.4447
今從	-11.4448
倉糧	-11.4448
至二十	-11.445
海道	-11.4451
三分之一	-11.4451
毋許	-11.4451
以竹	-11.4452
異數	-11.4452
説文	-11.4453
喪主以下	-11.4453
别駕	-11.4455
陽氣	-11.4456
講求	-11.4456
太子太傅	-11.4458
天興	-11.4459
憩	-11.446
牧放	-11.446
不少	-11.446
八分有餘	-11.4461
進士舉人	-11.4462
請也	-11.4462
一巻	-11.4466
丸	-11.4466
事無	-11.4468
大學士九卿	-11.4468
帛一	-11.447
寰區	-11.447
千總把總	-11.447
們	-11.4471
明知	-11.4471
相間	-11.4472
蒿	-11.4473
慚	-11.4473
五部	-11.4473
捕役	-11.4473
拍板	-11.4474
辦銅	-11.4474
洙泗	-11.4475
廟宇	-11.4476
為下	-11.4476
收受	-11.4476
銀三兩	-11.4477
厯年	-11.4477
率屬	-11.4479
三角	-11.448
附載	-11.448
並如上儀	-11.4481
奉節	-11.4482
人間	-11.4484
升恒	-11.4485
冠禮	-11.4488
家語	-11.4489
編磬	-11.449
用此	-11.449
衆多	-11.449
遂命	-11.4491
青城	-11.4493
班位	-11.4494
十三年二月	-11.4499
利州	-11.4501
不遷	-11.4501
塞外	-11.4501
司吏	-11.4503
殺賊	-11.4503
司儀	-11.4504
鑲白旗滿洲	-11.4504
失所	-11.4507
中使	-11.4507
萬夀詩	-11.4507
極邊	-11.4508
風雲	-11.4509
宋元	-11.451
兩江	-11.451
鏤金	-11.451
上銜	-11.451
禳	-11.451
罪之	-11.451
左僕射	-11.451
至聖	-11.451
十哲	-11.4511
者罪之	-11.4511
櫜鞬	-11.4513
天徳	-11.4514
之差	-11.4514
懐柔	-11.4516
百三十	-11.4516
三大節	-11.4519
瑄	-11.4519
公中佐領	-11.4521
孝弟	-11.4529
編年	-11.453
民無	-11.4531
親盡	-11.4532
之意也	-11.4533
望闕	-11.4535
西廡	-11.4537
米穀	-11.4537
視學	-11.4539
入告	-11.4539
侍講學士	-11.4541
布管理	-11.4541
滿洲正白旗人姓	-11.4544
儀物	-11.4544
不知所	-11.4544
擢用	-11.4545
邊境	-11.4545
上郡	-11.4546
六員	-11.4547
禋祀	-11.4547
棄市	-11.4548
於圜丘	-11.4551
莫如	-11.4552
南詔	-11.4552
姑林	-11.4552
宋時	-11.4554
重譯	-11.4554
大修	-11.4554
數十人	-11.4555
請将	-11.4555
不使	-11.4555
氏鑲藍旗滿洲䕶軍	-11.4556
沿江	-11.4556
第十一	-11.4557
平允	-11.4557
祀天地	-11.4557
於禮	-11.4559
别行	-11.4559
二匹	-11.456
縹	-11.4562
濓	-11.4563
六年三月	-11.4563
楚克	-11.4565
兼置	-11.4565
席羊	-11.4566
奉冊	-11.4567
荔	-11.4568
知制誥	-11.4568
官房	-11.4569
謹題為	-11.4569
欣逢	-11.457
諡法	-11.457
良鄉	-11.4571
紀綱	-11.4571
年月日	-11.4572
晉天福	-11.4572
鑲白	-11.4572
復立	-11.4573
伊勒	-11.4574
小錢	-11.4574
不可勝	-11.4576
八佾	-11.4577
登州	-11.4578
大名府	-11.4579
其親	-11.458
帝王之	-11.458
仰見	-11.4582
投充	-11.4583
棄之	-11.4583
爵弁	-11.4585
成婚	-11.4585
十五年二月	-11.4585
之大小	-11.4586
廟堂	-11.4586
一歲	-11.4586
瀕	-11.4587
自餘	-11.4587
藩司	-11.4589
五十九年	-11.4591
比例	-11.4591
便殿	-11.4591
衆星	-11.4592
塌	-11.4593
莫知	-11.4593
西畨	-11.4598
東廡	-11.4598
已後	-11.4601
室中	-11.4601
三年一次	-11.4602
戰功	-11.4602
輓	-11.4604
犯該	-11.4604
開寶	-11.4604
▁本朝	-11.4605
三叩	-11.4605
拜舞	-11.4607
訖興	-11.4607
合式	-11.461
變而	-11.4611
祝文曰	-11.4611
繅	-11.4611
滋擾	-11.4611
本注曰	-11.4613
禜	-11.4613
紫羅	-11.4613
高麗	-11.4614
昭宗	-11.4614
甚矣	-11.4614
聳	-11.4615
窟	-11.4617
座於	-11.4618
戒之	-11.4618
受朝	-11.4618
下部議	-11.4619
蒼梧	-11.4619
酒脯	-11.462
坐贓論	-11.4621
是後	-11.4621
滿漢各一人	-11.4621
寧海	-11.4622
郎將	-11.4623
所遺	-11.4624
盈餘	-11.4625
海外	-11.4625
尚舍	-11.4625
馳驛	-11.4626
臺站	-11.4627
紀事	-11.4627
奸民	-11.4629
案宋史	-11.4629
民籍	-11.4629
通寳	-11.463
度數	-11.4631
白石	-11.4633
▁疏曰	-11.4636
雒陽	-11.4636
梁王	-11.4638
變徴	-11.4638
頥	-11.4638
無用	-11.464
中二千石	-11.464
文安	-11.4642
靈阿	-11.4643
三寸五分	-11.4643
修建	-11.4644
専司	-11.4646
顯祖	-11.4646
以避	-11.4647
正八品	-11.4649
集二卷	-11.4649
石壩	-11.465
一十七	-11.465
貢監	-11.465
人衆	-11.4651
就坐	-11.4651
江南浙江	-11.4652
家有	-11.4653
墀	-11.4653
食糧	-11.4653
奏入	-11.4653
崧	-11.4655
内閣中書	-11.4659
後宫	-11.4659
南靣	-11.4659
兩七錢	-11.466
州學	-11.4663
賻	-11.4664
芹	-11.4664
行初獻禮	-11.4664
更無	-11.4665
陣亡贈	-11.4666
欽命	-11.4667
延年	-11.4667
三等輔國將軍	-11.4669
應付	-11.4669
石城	-11.4669
以免	-11.467
以鐵	-11.4671
役者	-11.4671
内給事	-11.4671
袱	-11.4673
兩頭	-11.4673
宣徽院	-11.4674
事例洪武	-11.4676
向無	-11.4677
年一貢	-11.4678
王侯	-11.4678
協理	-11.4678
公主福晉以下	-11.4679
神厨	-11.4682
上黨	-11.4683
降立於	-11.4684
稍東	-11.4685
詳細	-11.4686
下同	-11.4687
卯階	-11.4687
大宗伯	-11.4689
小兒	-11.469
亦不能	-11.4691
鑲黄	-11.4691
倉場	-11.4692
亭侯	-11.4692
佐貳官	-11.4693
福禄	-11.4693
民欠	-11.4693
分明	-11.4694
不啻	-11.4698
現有	-11.4703
制曰	-11.4703
加賞	-11.4704
永福	-11.4704
其直	-11.4705
文案	-11.4705
死亡	-11.4706
十石	-11.4706
副尉	-11.4706
七言律	-11.4707
女為	-11.4709
河中	-11.4709
新書	-11.471
統軍	-11.4712
髀	-11.4713
位北向立	-11.4714
葭	-11.4714
鎮海	-11.4715
各分	-11.4716
壹	-11.4716
隱匿	-11.4717
髙五尺	-11.4717
厮	-11.4717
者宜	-11.4718
屯種	-11.4718
太室	-11.472
章帝	-11.472
七百七十	-11.4723
侵欺	-11.4724
之力	-11.4724
三十兩	-11.4725
烏桓	-11.4726
乾隆二十	-11.4726
元年改	-11.4727
革輅	-11.4728
軍機	-11.4729
取㫖	-11.4729
一尺三寸	-11.4729
亞獻終獻	-11.4731
者準其	-11.4732
追賠	-11.4733
睿親王	-11.4733
桑阿	-11.4734
越王	-11.4735
蝕	-11.4735
設伏	-11.4737
其首	-11.4737
大夫士	-11.4738
始得	-11.4743
歡呼	-11.4748
劭	-11.4748
五年十一月	-11.4748
仍宋	-11.4748
二十兩	-11.4748
八年三月	-11.4752
見行	-11.4752
萬戸	-11.4752
色爾	-11.4753
出外	-11.4753
異於	-11.4754
故以其叔	-11.4754
都官	-11.4755
錢帛	-11.4755
漾	-11.4756
此數	-11.4756
纘	-11.4757
僧格	-11.4757
等次	-11.4758
兵攻	-11.4758
羈	-11.4759
蘇爾	-11.476
兩零	-11.4761
明道	-11.4761
茹	-11.4761
劫	-11.4762
繭	-11.4762
諸神	-11.4763
闇	-11.4763
芸	-11.4763
本罪	-11.4764
兾	-11.4764
所傳	-11.4765
一畝	-11.4765
之妻王氏	-11.4765
杓	-11.4765
冢	-11.4765
蓬萊	-11.4765
嘉泰	-11.4765
至德	-11.4766
將兵	-11.4766
百寮	-11.4769
凖其	-11.4771
以是	-11.4772
糾察	-11.4773
被灾	-11.4773
溉田	-11.4773
今則	-11.4774
四瀆	-11.4775
援兵	-11.4775
拜興	-11.4776
九廟	-11.4776
分贓	-11.4776
七縣	-11.4778
俯伏	-11.478
源流	-11.478
射之	-11.4782
他日	-11.4784
五頃	-11.4784
分貯	-11.4785
止令	-11.4785
界西至	-11.4788
訖樂止	-11.4789
諸府	-11.4789
恭紀	-11.479
五十一年	-11.479
青白	-11.479
滿洲正黄旗人姓	-11.4791
白帝	-11.4791
注曰	-11.4793
業已	-11.4794
分守	-11.4796
西漢	-11.4796
章程	-11.4797
致詞	-11.4798
府屬之	-11.4799
瑞應	-11.4801
北有	-11.4801
班齊	-11.4803
十八名	-11.4804
别項	-11.4804
鎮巡檢司	-11.4805
薰	-11.4805
獲其	-11.4806
麒麟	-11.4809
平帝	-11.481
司帛	-11.481
公爵	-11.481
九萬	-11.481
䆒	-11.4811
亳州	-11.4812
撰擬	-11.4812
二世	-11.4812
之西東向	-11.4814
各省駐防	-11.4814
整飭	-11.4815
兔	-11.4816
不力	-11.4816
英宗正統	-11.4816
半俸	-11.4817
駕幸	-11.4817
磧	-11.4817
爾泰	-11.4818
昆明	-11.4818
季夏	-11.4818
新附	-11.4819
順治十年	-11.4819
飲訖	-11.482
也至於	-11.4822
詣罍洗盥手洗爵	-11.4823
三國	-11.4823
西南面	-11.4823
秦屬	-11.4824
閣門	-11.4825
為小	-11.4826
銀錢	-11.4826
有光	-11.4828
輿鬼	-11.4828
直𨽻州	-11.4828
米糧	-11.4829
遣使者	-11.483
祖妣	-11.4831
一尺八寸	-11.4831
進跪	-11.4832
四度	-11.4833
三品官	-11.4833
舉兵	-11.4833
白糧	-11.4834
都指揮	-11.4834
降一級留任	-11.4836
二嵗	-11.4837
里正	-11.4838
孳	-11.4839
用人	-11.484
洪武中	-11.4841
半月	-11.4841
桿	-11.4842
鑲紅旗滿洲	-11.4844
過淮	-11.4844
不得以	-11.4844
無得	-11.4845
被害	-11.4845
目録	-11.4845
族長	-11.4847
湖廣總督	-11.4849
進御	-11.4849
江西湖廣	-11.4849
既久	-11.4849
和爾	-11.4851
官私	-11.4851
殷實	-11.4854
臣聞	-11.4855
武平	-11.4857
龍鳳	-11.4857
南門外	-11.4857
斚	-11.4859
兩朝	-11.4859
黎庶	-11.486
僥倖	-11.486
無從	-11.486
匃奴	-11.4861
上谷	-11.4862
攻城	-11.4862
橋梁	-11.4862
降二級	-11.4864
倉場侍郎	-11.4865
羊一豕一	-11.4866
部郎中	-11.4867
不變	-11.4867
禽獸	-11.4867
汀州	-11.4867
擬絞	-11.4868
盡數	-11.4868
下游	-11.4869
所在官司	-11.487
以入	-11.4872
平涼	-11.4872
而欲	-11.4875
實封	-11.4875
為人後者	-11.4875
謁廟	-11.488
几筵前	-11.4881
里克	-11.4882
莞	-11.4882
一千六百	-11.4883
竊盗	-11.4884
民多	-11.4884
有限	-11.4884
問名	-11.4885
而反	-11.4887
太官	-11.4888
兵馬司	-11.4889
名號	-11.4889
御坐	-11.4893
太初	-11.4894
薩克	-11.4894
崑山	-11.4895
惟恐	-11.4896
蕩蕩	-11.4896
龍虎	-11.4896
歸海	-11.4897
三班	-11.4897
將至	-11.4898
小京官	-11.4899
之具	-11.4902
秋收	-11.4902
令該督撫	-11.4902
覆之	-11.4903
一片	-11.4905
遇恩詔	-11.4905
驂	-11.4906
香燭	-11.4906
乎其	-11.4906
天長	-11.4906
之虞	-11.4907
有意	-11.4908
誤也	-11.4911
殪	-11.4912
過於	-11.4914
正黄	-11.4914
北向設	-11.4914
尚方	-11.4914
江隂	-11.4914
躬行	-11.4915
五百四十	-11.4915
挫	-11.4915
掌饌者	-11.4916
開原	-11.4916
塹	-11.4916
無虞	-11.4917
數百人	-11.4919
禮部尚書侍郎	-11.492
枷責	-11.492
劉歆	-11.4922
文武百僚	-11.4922
黄赤	-11.4923
詞臣	-11.4925
山在	-11.4925
韓愈	-11.4926
州廢	-11.4928
牙行	-11.4928
敬宗	-11.4928
元制	-11.4928
學宫	-11.4928
而生	-11.4929
一時之	-11.4929
南唐	-11.4929
水患	-11.4929
其形	-11.493
大武	-11.4931
各闗	-11.4932
供職	-11.4932
理事	-11.4932
理宜	-11.4933
之詞	-11.4935
國子祭酒	-11.4935
亦不可	-11.4936
唐人	-11.4937
帳房	-11.494
不惜	-11.4941
度牒	-11.4942
欽定八旗通志卷	-11.4945
咸通	-11.4945
羊一	-11.4946
用玉	-11.4946
武太后	-11.4946
將校	-11.4947
謂其	-11.4948
門曰	-11.495
皆照	-11.4951
臣僚言	-11.4951
初年	-11.4954
厚薄	-11.4954
紅錦	-11.4955
殿外	-11.4956
無疆之	-11.4957
下士	-11.4959
氛	-11.4959
搖	-11.496
銀二錢	-11.4961
伏兵	-11.4961
濃	-11.4961
倬	-11.4962
三等阿思哈尼哈畨	-11.4962
嬉	-11.4962
孕	-11.4963
盃	-11.4963
和闐	-11.4963
嵗支	-11.4965
未協	-11.4966
鈐轄	-11.4967
扉	-11.4967
東西各	-11.4967
節次	-11.4969
萬歲	-11.4969
盒	-11.4969
地丁錢糧	-11.4969
是否	-11.497
瑗	-11.4971
盛漲	-11.4971
客星	-11.4972
慶陽	-11.4973
革退以	-11.4974
不能盡	-11.4974
五絃	-11.4974
春風	-11.4975
十二分	-11.4975
不作樂	-11.4975
其方	-11.4976
蕪湖	-11.4976
西陛	-11.4977
招降	-11.4977
執之	-11.4978
屬車	-11.4979
分掌	-11.498
兵役	-11.498
挑選	-11.4981
整齊	-11.4981
博羅	-11.4982
亦各	-11.4983
按數	-11.4984
嘗為	-11.4985
三部	-11.4986
不正	-11.4987
數内	-11.4989
原議	-11.4989
可矜	-11.499
升詣	-11.499
生徒	-11.4991
獅	-11.4991
而弗	-11.4993
勒令	-11.4993
以上俱	-11.4996
今宜	-11.4996
審明	-11.4998
短少	-11.4999
一等子	-11.4999
柔逺	-11.5
儀駕	-11.5001
一官	-11.5002
之東西向	-11.5004
蜃	-11.5004
禇	-11.5005
自序	-11.5005
尚在	-11.5006
目前	-11.5007
副總管	-11.5007
太社太稷	-11.5008
春臺	-11.5008
皇族	-11.5008
使副使	-11.5008
馬頭	-11.5009
胸	-11.5009
楊氏	-11.501
覆載	-11.501
諸曹	-11.501
施恩	-11.501
來者	-11.501
成額	-11.501
無此	-11.5011
正配位	-11.5011
祭酒三爵	-11.5011
鑠	-11.5011
㐮	-11.5011
寃抑	-11.5011
兵仗	-11.5012
估計	-11.5012
流二千里	-11.5013
罇罍	-11.5013
凖此	-11.5015
一千九百	-11.5015
諸公	-11.5015
賛冠者	-11.5016
散給	-11.5016
鄭司農云	-11.5016
王公等	-11.5017
丁夘	-11.5017
右丞	-11.5018
正紅	-11.5018
於堂上	-11.5018
拈香	-11.5019
罇所	-11.5023
福酒	-11.5024
東昌	-11.5025
道東	-11.5025
以正	-11.5028
帶領	-11.5029
蘭泰	-11.503
院使	-11.503
樞密使	-11.503
頒賜	-11.503
漕項	-11.503
界南至	-11.5032
未㡬	-11.5032
服飾	-11.5034
人夫	-11.5035
康熙九年	-11.5036
東宮	-11.5038
皇帝親	-11.5038
官革職	-11.5039
多所	-11.504
諭曰朕	-11.504
之稱	-11.504
長六尺	-11.504
跪奠爵	-11.504
穆穆	-11.5041
水脚	-11.5041
巴什	-11.5042
講官	-11.5042
四里	-11.5042
七政	-11.5043
三卷陳氏曰	-11.5044
肆赦	-11.5044
各八	-11.5045
二成	-11.5046
收税	-11.5046
大海	-11.5047
遇害	-11.5048
臨期	-11.5049
家法	-11.5049
林南林	-11.5049
二度	-11.505
兩漢	-11.505
木植	-11.5051
奮擊	-11.5051
率領	-11.5052
人戸	-11.5054
於義	-11.5054
冊封	-11.5055
服也	-11.5056
河口	-11.5057
十五年三月	-11.5058
邵武	-11.506
岩	-11.506
楅	-11.506
琢	-11.5061
謗	-11.5062
涓	-11.5062
二年置	-11.5062
所撰	-11.5063
紂	-11.5063
驪	-11.5064
漣	-11.5065
有司設	-11.5065
穂	-11.5065
按此	-11.5066
索諾木	-11.5067
躬詣	-11.5069
前期一日	-11.5069
亦謂之	-11.507
鼔吹	-11.5071
糓	-11.5071
照原	-11.5071
以副朕	-11.5072
鄭元	-11.5072
眀帝	-11.5072
詣厨	-11.5072
汴梁	-11.5072
踰年	-11.5073
帝徳	-11.5073
徒一年半	-11.5074
使民	-11.5074
階間	-11.5076
來使	-11.5078
在城	-11.5078
兵制	-11.5079
請改	-11.508
岷	-11.5081
曰古者	-11.5083
前設	-11.5085
醴泉	-11.5086
曹州	-11.5087
無知	-11.5087
祝帛	-11.5089
上尊	-11.5089
申送	-11.509
承政	-11.5091
樂安	-11.5091
宻雲	-11.5092
騎士	-11.5093
大德	-11.5093
所記	-11.5097
都水	-11.5098
之條	-11.5098
遺失	-11.5098
更改	-11.5099
之婦	-11.51
矣其	-11.51
賦税	-11.5101
分列	-11.5101
家奴	-11.5101
都爾	-11.5101
悉照	-11.5102
勞苦	-11.5103
二十疋	-11.5103
破賊	-11.5105
比照	-11.5107
正白	-11.5107
八十人	-11.5108
蔚州	-11.5108
永陵	-11.5108
於是乎	-11.5109
驍騎校一人	-11.511
十五兩	-11.511
紓	-11.5111
印烙	-11.5112
二卷陳氏曰	-11.5112
詆	-11.5113
篋	-11.5113
琪	-11.5113
撓	-11.5113
靠	-11.5114
愜	-11.5115
幣篚	-11.5115
馨香	-11.5116
固守	-11.5117
屑	-11.5117
清寧	-11.5118
祭則	-11.5118
三面	-11.5118
牽牲	-11.5118
緑旗	-11.512
遊表	-11.512
義勇	-11.512
同異	-11.5123
玉環	-11.5125
江蘇安徽	-11.5126
唐末	-11.5126
八年四月	-11.5126
元明	-11.513
後仍	-11.5131
廣大	-11.5131
吾仗	-11.5131
奉皇太后	-11.5132
三十二人	-11.5133
字仲	-11.5133
龍鳯	-11.5133
人馬	-11.5134
太宗皇帝	-11.5134
十年二月	-11.5135
行參軍	-11.5137
乾隆二十三年	-11.5138
部衆	-11.5138
不拜	-11.514
木蘭	-11.514
八年五月	-11.5141
相望	-11.5143
所産	-11.5144
十畆	-11.5145
曰夫	-11.5145
其廣	-11.5145
引兵	-11.5146
撫州	-11.5147
加增	-11.5149
四年十二月	-11.515
故縱	-11.5153
徳行	-11.5154
命將	-11.5154
四鎮	-11.5155
遣將	-11.5157
五年八月	-11.5157
以上至	-11.5157
救之	-11.5159
叛逆	-11.5161
部尚書	-11.5161
文華殿	-11.5161
顛	-11.5162
歲星	-11.5163
五言排律	-11.5163
之㑹	-11.5165
授之	-11.5165
穎	-11.5165
相等	-11.5166
諸将	-11.5166
囿	-11.5166
在府西南	-11.5166
與否	-11.5167
佾	-11.5168
名山大川	-11.5168
執笏俛伏興	-11.5169
鑼	-11.5171
前列	-11.5174
上佐	-11.5174
長城	-11.5175
數多寡	-11.5175
東南隅	-11.5175
收復	-11.5176
京倉	-11.5176
竟不	-11.5176
化成	-11.5177
詣壇	-11.5177
易以	-11.5178
均用	-11.5179
不預	-11.518
位於其後	-11.5184
大禮使	-11.5187
得雨	-11.5187
進征	-11.5188
也昔	-11.5189
良法	-11.519
康熙五十二年	-11.519
漢軍正白旗人	-11.519
房中	-11.5192
五十三年	-11.5192
取一	-11.5193
四部	-11.5195
至扵	-11.5195
否則	-11.5195
来京	-11.5196
百嵗	-11.5196
宗伯	-11.5197
帑金	-11.5198
紀年	-11.5198
送内閣	-11.5198
者盖	-11.52
河陽	-11.52
不可復	-11.52
馬軍	-11.5201
合樂	-11.5202
三世	-11.5203
存者	-11.5204
入設於	-11.5206
巒	-11.5208
便於	-11.5209
兢	-11.5209
金州	-11.521
分遣	-11.5212
炬	-11.5212
筵燕	-11.5212
髙昌	-11.5214
一尺六寸	-11.5214
雋	-11.5214
蟬	-11.5214
内聲明	-11.5217
腦	-11.5217
縱容	-11.5218
凡字	-11.5218
諡號	-11.5219
與此	-11.5219
兩廣總督	-11.5219
於丹墀	-11.522
毎旗	-11.522
稅課	-11.5221
銀十兩	-11.5222
太上皇	-11.5223
無疑	-11.5223
大都督	-11.5227
濟南府	-11.5227
闕下	-11.5228
操練	-11.5228
各直省	-11.5229
俱於	-11.523
史冊	-11.5231
贛	-11.5232
漢舊縣	-11.5233
元宗	-11.5233
氏鑲紅旗滿洲	-11.5236
曰君	-11.5236
出至	-11.5237
建極	-11.5239
奠于	-11.5239
仁壽	-11.5244
奉幣	-11.5245
四寸五分	-11.5247
隴右	-11.525
南城	-11.5251
遼史	-11.5251
侍者	-11.5252
人人	-11.5253
典儀官	-11.5253
妄行	-11.5254
康王	-11.5257
晉宋	-11.5257
定其	-11.526
朱漆	-11.5261
逺矣	-11.5265
而知	-11.5265
刑部郎中	-11.5265
拜唐阿	-11.5265
未敢	-11.5266
旃	-11.5266
廿	-11.5267
既葬	-11.5267
纚	-11.5267
琬	-11.5267
等差	-11.5268
毛詩	-11.5268
失火	-11.5268
脈	-11.5271
六百八十	-11.5271
毎石	-11.5271
僉書	-11.5272
金印	-11.5272
河身	-11.5272
於右	-11.5276
豚	-11.5277
吏科	-11.5278
鞏固	-11.5278
禄米	-11.5278
祭儀	-11.528
住俸	-11.5281
萬夀聖節	-11.5282
司贊	-11.5283
合計	-11.5283
登封	-11.5284
東流	-11.5284
其器	-11.5284
香爐	-11.5284
師傅	-11.5285
於室	-11.5287
五言	-11.5287
版圖	-11.5287
殺其	-11.5288
中單	-11.529
以救	-11.529
奉天殿	-11.5292
廟祀	-11.5292
所知	-11.5292
兄子	-11.5294
立案	-11.5294
七年五月	-11.5295
制服	-11.5297
五十四年	-11.5298
鴻臚寺官引	-11.53
為亂	-11.5301
秋糧	-11.5301
尋復	-11.5302
縵	-11.5302
册使	-11.5303
雖多	-11.5304
齋宿	-11.5307
明水	-11.5308
久逺	-11.531
州置	-11.5311
刦	-11.5312
愿	-11.5314
地面	-11.5316
少東	-11.5317
烹	-11.5317
剋	-11.5318
轉輸	-11.5318
行一跪三叩禮	-11.5318
騫	-11.5319
璿	-11.5321
祝辭	-11.5323
月初三日	-11.5323
詳明	-11.5324
魯克	-11.5326
兆民	-11.5328
駙馬都尉	-11.5328
銀二十兩	-11.533
唐㑹要	-11.5331
用心	-11.5331
例辦理	-11.5332
承審	-11.5332
照例治罪	-11.5335
本屬	-11.5335
盜案	-11.5335
五百七十	-11.534
圖之妻	-11.534
人臣	-11.5341
端門	-11.5341
欽定四庫全書通典卷	-11.5341
釐正	-11.5342
於神座	-11.5343
者充	-11.5343
之妻富察氏	-11.5344
為一等	-11.5346
長史司馬	-11.5346
在籍	-11.5346
為左	-11.5348
二十八人	-11.5348
一心	-11.5351
加二等	-11.5354
皆係	-11.5355
各三間	-11.5359
漁陽	-11.536
原無	-11.5361
十有四人	-11.5361
暫行	-11.5361
納銀	-11.5363
鄭注	-11.5363
獄囚	-11.5363
堂上官	-11.5363
其北	-11.5364
經略	-11.5364
啟閉	-11.5364
伯父	-11.5364
安逺	-11.5365
碩色	-11.5365
縁坐	-11.5365
疏通	-11.5365
為父	-11.5366
歸國	-11.5367
本籍	-11.5368
用牲	-11.5368
鑊	-11.537
𠂻	-11.5371
柶	-11.5371
蕃使	-11.5372
陜甘	-11.5373
留守司	-11.5373
其君	-11.5374
鏃	-11.5374
芮	-11.5375
庖	-11.5376
四百餘	-11.5377
某官某	-11.5377
阿達哈哈畨	-11.5377
莊田	-11.5378
匙	-11.5378
盔甲	-11.5379
洮	-11.5379
因病辭退以	-11.5379
六成	-11.538
交通	-11.538
按律	-11.538
鄂爾泰	-11.538
茶鹽	-11.5382
三代之	-11.5383
七旬	-11.5386
三絃	-11.5386
日以	-11.5386
東向北上	-11.5387
文教	-11.5387
於階下	-11.5388
總章	-11.5389
中霤	-11.539
錄事	-11.539
六年七月	-11.5391
為昭	-11.5393
囚徒	-11.5394
分為二	-11.5394
輕者	-11.5396
御輿	-11.5397
𨽻焉	-11.5399
而不作	-11.5399
第一行	-11.5403
朕所	-11.5404
其任	-11.5408
九百六十	-11.5413
三道	-11.5414
宗正卿	-11.5414
一尺一寸	-11.5414
入陳	-11.5415
水道	-11.5415
䦕	-11.5418
恭惟	-11.5418
定襄	-11.5418
四庫全書	-11.5421
臨朝	-11.5421
卵	-11.5423
顔子	-11.5423
堦	-11.5424
瞽	-11.5425
額賦	-11.5425
殘疾	-11.5426
仔	-11.5426
鍵	-11.5426
紀録一次	-11.5428
過失	-11.5429
前鋒㕘領	-11.5429
牲一	-11.5429
流官	-11.5431
雲騎尉世職	-11.5432
千官	-11.5434
中常侍	-11.5434
實無	-11.5436
可知矣	-11.5437
顯宗	-11.5437
月初六日	-11.5438
新興	-11.544
具疏	-11.544
其害	-11.544
片金	-11.544
皆然	-11.5441
聖德	-11.5441
建坊	-11.5441
杜預	-11.5444
二郡	-11.5446
穆占	-11.5447
配饗	-11.5447
御用	-11.5448
二司	-11.5449
三千人	-11.545
長寧	-11.545
大體	-11.5451
交界	-11.5452
典樂	-11.5452
地利	-11.5453
皆屬	-11.5454
青質	-11.5455
使持節	-11.5456
諸司職掌凡	-11.546
玉燭	-11.546
廣濟	-11.5462
丞一人	-11.5463
之妻陳	-11.5464
輛	-11.5466
該將軍	-11.547
長二丈	-11.5471
鼂	-11.5471
謄	-11.5471
無幾	-11.5472
肝	-11.5472
抃	-11.5473
監門	-11.5474
金寳	-11.5475
生童	-11.5475
邳州	-11.5475
讎	-11.5476
盪	-11.5476
䏻	-11.5476
住之妻	-11.5476
冥	-11.5477
廵檢司	-11.5477
騶	-11.5478
烏蘭	-11.5479
四條	-11.5479
覈明	-11.548
元舊	-11.548
天山	-11.548
開銷	-11.5481
緊要	-11.5482
夷狄	-11.5482
塜	-11.5483
兆惠	-11.5483
少詹事	-11.5484
酒饌	-11.5484
大星	-11.5484
如數	-11.5484
謄録	-11.5485
僑	-11.5485
二百名	-11.5485
舛錯	-11.5486
留後	-11.5487
親王府	-11.5488
杖鼓	-11.5488
咨取	-11.5492
古法	-11.5492
用白	-11.5493
祈年	-11.5493
三年期滿	-11.5493
豫備	-11.5494
輕車	-11.5495
羣黎	-11.5496
又東	-11.5496
給米	-11.5497
老弱	-11.5499
三王	-11.5499
室韋	-11.55
西戎	-11.55
者少	-11.5501
四十日	-11.5502
賜茶	-11.5502
者葢	-11.5503
之業	-11.5503
定罪	-11.5504
交鈔	-11.5505
元𨽻	-11.5506
復位立	-11.5506
甬	-11.5506
閩省	-11.5508
五品已上	-11.5509
區别	-11.5511
七百四十	-11.5514
一萬四千	-11.5514
蒲州	-11.5515
達色之妻	-11.5515
上尊號曰	-11.5516
繪圖	-11.5518
納米	-11.5518
五百六十	-11.5521
閏二月	-11.5522
三百兩	-11.5523
降一級畱任	-11.5524
世次	-11.5524
興州	-11.5526
黻	-11.5526
本衙門	-11.5526
具載	-11.5528
思明	-11.5528
佞	-11.5528
殃	-11.5528
龍山	-11.553
董仲舒	-11.553
緝拏	-11.5531
起送	-11.5531
六百七十	-11.5531
酌醴齊	-11.5532
純嘏	-11.5532
京房	-11.5532
始立	-11.5532
巴圖	-11.5533
湮	-11.5534
東嚮	-11.5534
来貢	-11.5535
禮臣	-11.5535
又遣	-11.5536
更造	-11.5536
斟酒	-11.5537
粟米	-11.5537
升祔太廟	-11.5539
雲文	-11.5539
著交	-11.554
二年改	-11.554
國家之	-11.554
加一雲騎尉	-11.5542
綱目	-11.5542
奉慰	-11.5542
鹽價	-11.5543
國除	-11.5544
諸貝勒	-11.5545
弊端	-11.5547
仗衛	-11.5551
舊錢	-11.5551
皇恩	-11.5552
東面北上	-11.5552
祖禰	-11.5553
夀春	-11.5553
舉子	-11.5553
之祥	-11.5553
姑息	-11.5555
解京	-11.5555
相似	-11.5556
庫車	-11.5557
歌工	-11.5557
㕘政	-11.5557
節文	-11.5558
親親	-11.5559
自可	-11.556
十三名	-11.556
皆斬	-11.5561
仰惟	-11.5562
一萬二千	-11.5563
團扇	-11.5563
不得與	-11.5563
調發	-11.5564
既得	-11.5564
諸事	-11.5565
進講	-11.5566
部内	-11.5566
第三子	-11.5567
破其	-11.5569
欽定續通典卷	-11.557
常例	-11.557
故知	-11.5571
初立	-11.5572
三桂	-11.5573
入至	-11.5574
不知情	-11.5574
恒星	-11.5575
相連	-11.5577
不孝	-11.5577
莆田	-11.558
丈二尺	-11.558
散秩官	-11.558
砍	-11.5582
營㕘將一人	-11.5583
䭾	-11.5584
盖以	-11.5584
䙝	-11.5585
知㑹	-11.5585
執饌者	-11.5585
斫	-11.5586
菱	-11.5586
發帑	-11.5586
三字	-11.5586
鬬毆	-11.5586
増至	-11.5587
鹻	-11.5587
氏鑲藍旗滿洲	-11.5587
億萬斯年	-11.5587
本品	-11.5588
八里	-11.5589
特簡	-11.559
若將	-11.559
凡七	-11.559
全無	-11.559
仲秋	-11.5591
四柱	-11.5591
之吏	-11.5592
備矣	-11.5592
雖經	-11.5593
守宫設	-11.5597
馬步	-11.56
邳	-11.56
守衞	-11.56
髤朱	-11.5602
八旬萬夀	-11.5602
祠部	-11.5603
得㫖允行	-11.5604
一節	-11.5605
立夏	-11.5605
尼堪	-11.5606
四世	-11.5607
餘地	-11.5607
十嵗以上	-11.5607
隋志	-11.5608
難名	-11.5611
縱横	-11.5611
法物	-11.5612
古爾	-11.5612
身長	-11.5613
孝敬	-11.5615
三之一	-11.5616
進止	-11.5617
隋置	-11.5618
五穀	-11.5618
等處地方	-11.5618
大裘	-11.5619
道西	-11.5622
大梁	-11.5622
華山	-11.5623
深為	-11.5623
照舊例	-11.5623
職司	-11.5624
將事	-11.5625
布之妻	-11.5628
升龍	-11.5628
杖七十	-11.5628
自成	-11.5629
北面東上	-11.563
祝釐	-11.563
弇	-11.563
無為	-11.5632
象限	-11.5632
陬	-11.5634
出錢	-11.5634
和州	-11.5635
浩蕩	-11.5636
犂	-11.5636
瑪瑙	-11.5637
隨駕	-11.5637
澆	-11.5637
洙	-11.5638
詐稱	-11.5638
舉案	-11.5638
海螺	-11.5639
其道	-11.5639
率師	-11.564
刨	-11.5641
耐	-11.5641
押運	-11.5642
糜費	-11.5643
絳紗	-11.5644
兵共	-11.5644
三章	-11.5645
十萬緡	-11.5646
巡按御史	-11.5646
昭公	-11.5647
領縣七	-11.5649
既至	-11.5649
建言	-11.565
以禦	-11.5651
其月	-11.5651
二百人	-11.5653
行取	-11.5653
天馬	-11.5655
關中	-11.5658
請命	-11.5659
老病	-11.5659
南宫	-11.5662
二篇	-11.5663
裁革	-11.5665
法制	-11.5665
正紅旗滿洲	-11.5666
至是復	-11.5666
惟以	-11.5667
誥命	-11.5668
五世孫	-11.5668
横刀	-11.5669
數千人	-11.5669
經學	-11.5669
見子類	-11.567
山崩	-11.567
審實	-11.5672
皆作	-11.5674
宗社	-11.5674
南平	-11.5675
此即	-11.5675
閏七月	-11.5677
輔政	-11.5677
蘇州府	-11.5677
不如法	-11.5678
五百二十	-11.5679
之廣	-11.5679
九分有餘	-11.5679
體制	-11.568
癸	-11.568
田産	-11.5683
一概	-11.5683
復古	-11.5683
舒赫徳	-11.5685
開具	-11.5686
俞允	-11.5686
處州	-11.5686
櫺	-11.5687
名山	-11.5687
悮	-11.5689
昱	-11.569
夏后氏	-11.569
不由	-11.5691
喚	-11.5691
棱	-11.5693
弁兵	-11.5693
乾隆九年	-11.5695
擬罪	-11.5695
煤	-11.5695
縳	-11.5696
雇工人	-11.5696
郯	-11.5696
崇政殿	-11.5696
治儀正	-11.5697
瑞靄	-11.5697
蕃國	-11.5697
七百六十	-11.5697
東上閤門	-11.5699
和風	-11.5699
髙廟	-11.57
斬衰	-11.57
定陶	-11.57
釐九毫	-11.57
馴象	-11.5701
八旗大臣	-11.5701
礮手	-11.5702
加賑	-11.5702
濟運	-11.5702
太史局	-11.5703
非禮	-11.5703
河流	-11.5705
從二品	-11.5706
俱再拜	-11.5707
池州	-11.5708
穆爾	-11.5709
年表	-11.5709
器服	-11.5709
添建	-11.571
昭徳	-11.571
務須	-11.5712
設神位	-11.5712
五百三十	-11.5714
制帛	-11.5715
事情	-11.5715
呈請	-11.5716
任都統	-11.5717
無忌	-11.5717
有違	-11.5718
自昔	-11.5721
本班	-11.5722
派出	-11.5723
為壇	-11.5723
舎人引	-11.5724
朝冠	-11.5727
萬斛	-11.5728
未發	-11.573
出嫁	-11.573
宋為	-11.573
從弟	-11.5731
銅鐵	-11.5732
水次	-11.5732
順治十六年	-11.5733
于篚	-11.5733
南郡	-11.5733
也盖	-11.5734
殊非	-11.5734
卿雲	-11.5738
累朝	-11.5738
玻璃	-11.5739
㑹子	-11.574
七十餘	-11.5741
釣	-11.5741
遣奠	-11.5741
正朔	-11.5742
九年四月	-11.5743
琰	-11.5743
此又	-11.5744
摛	-11.5746
和買	-11.5747
禅	-11.5749
年老辭退以	-11.575
裁去	-11.5751
佐雜	-11.5753
墾種	-11.5753
配座	-11.5754
鄭州	-11.5754
太僕卿	-11.5756
隋文帝	-11.5757
縣界二百	-11.5758
明季	-11.5759
校書郎	-11.576
方准	-11.576
徽州	-11.576
北嶽	-11.5762
滿洲漢軍	-11.5762
銅印	-11.5763
淵源	-11.5764
淮徐	-11.5764
景雲	-11.5765
華祝	-11.5765
治中	-11.5769
舉羃	-11.5769
祖奠	-11.5769
六年九月	-11.5772
濟濟	-11.5772
正書	-11.5773
察勘	-11.5773
人文	-11.5774
存其	-11.5777
爵三	-11.5778
之誤	-11.5779
自來	-11.5781
兹據	-11.5782
五州	-11.5782
六百四十	-11.5783
該上司	-11.5785
列坐	-11.5787
周天	-11.5789
健鋭營	-11.5789
西安府	-11.579
回空	-11.5791
訣	-11.5791
建鼓	-11.5791
公用	-11.5792
同謀	-11.5793
倩	-11.5793
斷獄	-11.5793
婺	-11.5795
房山	-11.5796
靈車	-11.5796
合食	-11.5796
改葬	-11.5796
無名	-11.5797
領隊大臣	-11.5797
擲	-11.5798
昭帝	-11.5798
磔	-11.5799
莘	-11.5799
将領	-11.5799
奉俎	-11.5799
翳	-11.58
餐	-11.58
媵	-11.5801
卑㓜	-11.5801
瘦	-11.5801
柷敔	-11.5802
清平	-11.5803
吐谷渾	-11.5804
門户	-11.5804
之門	-11.5804
茨	-11.5804
觥	-11.5804
工作	-11.5804
屯地	-11.5804
赤帝	-11.5805
瓘	-11.5805
伏望	-11.5805
罰俸九月	-11.5805
大門	-11.5805
鹿脯	-11.5807
亦在	-11.5807
塾	-11.5807
祝嘏	-11.5807
洺	-11.5807
經典	-11.5809
得功牌	-11.5809
國史院	-11.5809
四年改	-11.5811
不可得	-11.5812
底定	-11.5812
供事	-11.5812
為三等	-11.5813
江湖	-11.5814
不逮	-11.5814
列陣	-11.5815
行三跪九叩禮畢	-11.5815
曹公	-11.5819
騎操	-11.5819
並免	-11.582
三千五百	-11.5821
以興	-11.5823
俱行	-11.5823
休息	-11.5823
地廣	-11.5823
優者	-11.5823
天授	-11.5823
一金	-11.5827
慈寧宫	-11.5827
塔爾	-11.5827
自新	-11.5827
萬計	-11.5829
和親	-11.5831
勒帛	-11.5832
正項	-11.5834
第二等	-11.5835
祭也	-11.5835
䕫州	-11.5835
令天下	-11.5836
之休	-11.5838
遇赦	-11.5838
安福	-11.5839
親蠶	-11.5839
受業	-11.584
總制	-11.5841
兼佐領	-11.5841
下注	-11.5843
衰服	-11.5843
後來	-11.5844
據此	-11.5844
三斤	-11.5845
生成	-11.5845
二千一百	-11.5845
云爾	-11.5847
之賦	-11.5847
見有	-11.5847
方可	-11.5848
本日	-11.5849
紀載	-11.5849
鎛	-11.5849
一營	-11.5851
鉉	-11.5852
臆	-11.5853
腊	-11.5853
土爾扈特	-11.5853
姆	-11.5854
菁	-11.5854
亦何	-11.5854
閨	-11.5855
若係	-11.5855
降自東階	-11.5855
摶	-11.5856
所藏	-11.5858
八百八十	-11.586
夾道	-11.586
財産	-11.5861
至階	-11.5861
干戚	-11.5862
分别議處	-11.5862
沱	-11.5862
四望	-11.5863
維新	-11.5863
漢法	-11.5864
宜加	-11.5865
乾隆十八年	-11.5865
鰲拜	-11.5867
呵	-11.5867
地方由	-11.5867
四百名	-11.5869
出力	-11.5871
康熙十六年	-11.5871
明瑞	-11.5872
經降㫖	-11.5872
五色雲	-11.5875
立哭	-11.5878
乃復	-11.5879
訖退	-11.5879
所闗	-11.588
甚者	-11.588
雍和	-11.588
鳳凰	-11.588
文藝	-11.5881
徑一尺	-11.5883
誤作	-11.5883
防䕶	-11.5884
者發	-11.5887
氏正紅旗滿洲	-11.5887
棗栗	-11.5887
補官	-11.5888
至元二年	-11.5888
春秋致祭	-11.5888
龍潭	-11.5889
天縱	-11.589
硯	-11.589
馬邑	-11.5891
死於	-11.5893
經朕	-11.5894
牧丁	-11.5895
魏王	-11.5896
大通	-11.5896
廊下	-11.5898
陽和	-11.5898
慶成	-11.5899
名次	-11.5899
騎都尉世職	-11.5899
給假	-11.5901
何得	-11.5902
謹奏	-11.5902
不利	-11.5902
王家	-11.5903
九十一	-11.5904
諸太祝各	-11.5904
月朔日	-11.5905
册封	-11.5905
經術	-11.5905
春秋二季	-11.5908
大喪	-11.5908
田獵	-11.5909
二尺四寸	-11.591
禕	-11.5911
周知	-11.5911
袠	-11.5911
饗殿	-11.5911
蘋	-11.5911
緌	-11.5912
嘉靖中	-11.5913
碗	-11.5913
所以為	-11.5914
而易	-11.5914
其能	-11.5914
令人	-11.5914
各於其	-11.5915
湟	-11.5916
和帝	-11.5916
王命	-11.5916
愼	-11.5917
優長	-11.5918
題曰	-11.5918
朔日	-11.5918
女子子	-11.5919
本律	-11.592
防範	-11.5923
等八	-11.5923
直宿	-11.5924
崑	-11.5925
用昭	-11.5927
慶府	-11.5928
本主	-11.5929
在天	-11.593
載在	-11.593
叅軍	-11.5932
紫宸殿	-11.5932
長尺	-11.5932
學士院	-11.5932
為定制	-11.5935
趙氏	-11.5938
雅圖	-11.5938
舊為	-11.5939
傷人者	-11.594
採取	-11.5941
五營	-11.5942
五品以下	-11.5943
權宜	-11.5944
衡山	-11.5945
此意	-11.5946
界北至	-11.5946
率所屬	-11.5947
主考	-11.5948
保䕶	-11.5949
部屬	-11.5949
私錢	-11.5949
東行	-11.5949
絲毫	-11.5949
即将	-11.595
取爵	-11.5951
一十九	-11.5953
不思	-11.5956
隨即	-11.5956
厯數	-11.5957
名實	-11.5957
簿書	-11.5958
一二人	-11.596
至公	-11.596
黄緞	-11.5961
初七日	-11.5962
煖	-11.5963
距星	-11.5963
㠯	-11.5963
紫宸	-11.5963
乾隆二十六年	-11.5964
西方北方	-11.5965
成憲	-11.5965
七間	-11.5966
淇	-11.5966
遂罷	-11.5967
雝	-11.5967
賓主	-11.5967
親廟	-11.5969
各部院衙門	-11.597
歲貢	-11.597
西東面	-11.597
蒼璧	-11.597
臨海	-11.5971
𨼆	-11.5972
隰	-11.5972
來犯	-11.5972
灑掃	-11.5972
至死	-11.5973
匏爵	-11.5974
屬下	-11.5974
司命	-11.5975
朱熹	-11.5976
縣𨽻	-11.5976
受胙	-11.5977
乾隆四十六年	-11.5977
一小	-11.5977
京朝官	-11.5977
石青色	-11.5979
諸道州府	-11.598
届期	-11.598
之禍	-11.5982
也但	-11.5983
服御	-11.5983
工價	-11.5983
尊罍	-11.5984
遂致	-11.5985
錢榖	-11.5986
容留	-11.5986
下令	-11.5986
紫禁城	-11.5987
歉收	-11.5988
八曰	-11.5988
因命	-11.599
九年二月	-11.5993
十七卷	-11.5994
三條	-11.5996
佟國	-11.5996
不親	-11.5996
小麥	-11.5997
皇天	-11.5997
軍官	-11.5998
姓氏	-11.5999
皆非	-11.6
升輿	-11.6002
邊逺	-11.6002
天壇	-11.6003
五年九月	-11.6004
學田	-11.6004
送燎	-11.6005
中郎	-11.6005
以此為	-11.6005
牛一	-11.6008
節級	-11.6008
沒於	-11.6009
教訓	-11.6009
袴褶	-11.6009
其音	-11.601
等罪	-11.601
朕親	-11.601
或被	-11.6011
其城	-11.6013
錦繡	-11.6013
為患	-11.6013
竹木	-11.6014
拴	-11.6015
所執	-11.6016
六宗	-11.6016
刄	-11.6016
掌儀	-11.6017
媒	-11.6017
六年十二月	-11.6021
就座	-11.6021
衿	-11.6021
贊者承傳	-11.6021
餘黨	-11.6021
煜	-11.6022
二十四卷	-11.6022
涕	-11.6023
設洗於	-11.6023
跪送	-11.6025
防禦使	-11.6025
饑饉	-11.6025
入籍	-11.6025
飲福酒	-11.6027
太常卿引皇帝進	-11.6028
忠臣	-11.6029
十二年二月	-11.6029
六匹	-11.6029
費用	-11.603
徇庇	-11.603
備物	-11.6031
遣使朝貢	-11.6034
各異	-11.6037
七百八十	-11.6041
營遊擊	-11.6041
草率	-11.6041
錦衣	-11.6042
乾隆三十六年	-11.6046
推升	-11.6046
公項	-11.6046
河南尹	-11.6047
北南向	-11.6048
樂利	-11.6049
三禮	-11.6051
監守	-11.6052
犧牲	-11.6052
兵二千	-11.6053
正祭	-11.6054
調遣	-11.6054
府君	-11.6055
梓宫於	-11.6055
壝門外	-11.6056
也蓋	-11.6056
加耗	-11.6057
福建浙江	-11.6058
亦准	-11.6058
神位前北向立	-11.6058
十六年正月	-11.6059
之憂	-11.606
三等子	-11.6064
祝案	-11.6065
大雩	-11.6065
今古	-11.6066
倍於	-11.6066
祕書監	-11.6066
之東南	-11.6066
更加	-11.6068
緊	-11.6069
不得用	-11.607
減去	-11.607
之境	-11.6071
邜	-11.6072
祠堂	-11.6072
者罰	-11.6072
戞	-11.6072
之色	-11.6073
冡	-11.6073
贊者引	-11.6073
地丁銀	-11.6075
參議	-11.6075
諸衞	-11.6075
屢經	-11.6076
六里	-11.6077
通長	-11.6077
永樂元年	-11.6077
阿喇	-11.6078
鈸	-11.6078
貟外郎	-11.6078
九如	-11.6078
朐	-11.6078
昶	-11.6079
黼黻	-11.6079
皇太后宫	-11.6079
隋縣有	-11.6079
褚	-11.608
若因	-11.6081
十三年四月	-11.6081
菩薩	-11.6081
豫親王多鐸	-11.6084
平章政事	-11.6084
周年	-11.6086
可知也	-11.6087
制科	-11.6088
供用	-11.6091
者甚多	-11.6091
擊壤	-11.6092
此㫖	-11.6092
七度	-11.6092
國君	-11.6093
陞授	-11.6093
入見	-11.6094
率其屬	-11.6095
往来	-11.6096
安南國王	-11.6096
許令	-11.6097
安插	-11.6097
聫曰	-11.6099
萬餘兩	-11.6099
詐偽	-11.6099
並騎	-11.6099
乃有	-11.61
十五度	-11.61
兩九錢	-11.6102
又自	-11.6102
大鼓	-11.6105
之處著	-11.6106
黄鍾宫	-11.6106
限以	-11.6107
千年	-11.6107
秦始皇	-11.6108
愚民	-11.6108
兩縣	-11.6109
五度	-11.611
固倫公主	-11.611
禁令	-11.6111
應役	-11.6111
忠孝	-11.6113
更易	-11.6113
改鑄	-11.6114
世系	-11.6114
來㑹經	-11.6114
死子	-11.6117
五原	-11.6117
贓罰	-11.6117
朝謁	-11.6119
旬日	-11.6122
五更	-11.6123
闋	-11.6125
太和門	-11.6125
税糧	-11.6125
曰汝	-11.6126
固安	-11.6128
大人	-11.6128
清字	-11.6128
收支	-11.6128
天祚	-11.613
光昭	-11.6131
營馬	-11.6132
襍	-11.6132
二人引	-11.6132
中階	-11.6133
三尺五寸	-11.6133
糧草	-11.6133
常人	-11.6133
有加	-11.6134
如淳曰	-11.6134
雜録	-11.6134
賦銀	-11.6135
卉	-11.6136
率以	-11.6136
其來	-11.6137
泌	-11.6137
眀堂	-11.6137
五十萬	-11.6137
加倍	-11.6137
於壇下	-11.6138
雲貴總督	-11.6138
著為例	-11.6138
年八十	-11.6139
何為	-11.6139
初令	-11.6139
梁武帝	-11.614
元㑹	-11.614
擎執	-11.6141
並宜	-11.6142
鬱林	-11.6143
萊州	-11.6145
彼時	-11.6145
義學	-11.6145
宿州	-11.6147
幕次	-11.6147
入閤	-11.6148
髙斌	-11.6148
極貧	-11.6151
陞用	-11.6151
冠頂	-11.6153
所餘	-11.6153
期於	-11.6153
滋事	-11.6153
胥役	-11.6154
顯徳	-11.6155
拔補	-11.6156
考核	-11.6156
洗爵	-11.6156
又在其南	-11.6157
無量	-11.6158
道宗	-11.6159
欽遵	-11.6159
勘明	-11.616
仍依	-11.6162
從八品	-11.6162
四川總督	-11.6163
本家	-11.6163
其價	-11.6164
雅頌	-11.6164
今擬	-11.6165
奉差	-11.6165
翊衛	-11.6169
教養	-11.617
乾符	-11.6172
著作	-11.6172
可得而	-11.6172
正交	-11.6173
十之三	-11.6174
三犯	-11.6174
之明日	-11.6174
賊兵	-11.6174
矣若	-11.6178
寧國	-11.618
大夏	-11.618
該地方	-11.618
永州	-11.618
諫曰	-11.6181
庶品	-11.6182
姦婦	-11.6182
致滋	-11.6183
軍衛	-11.6184
塡	-11.6184
大角	-11.6185
降車	-11.6185
繡金	-11.6186
而來	-11.6186
鑲黄旗䝉古	-11.6187
亦云	-11.6187
宋初	-11.6189
酎	-11.6189
該都統	-11.6189
艮	-11.6192
挖	-11.6192
年七十以上	-11.6193
不降	-11.6193
世管佐領	-11.6193
郡太守	-11.6194
療	-11.6194
戰國時	-11.6194
違制	-11.6196
不起	-11.6196
千總二人把總四人兵七百	-11.6196
恩賜騎都尉世職	-11.6196
加上	-11.6197
骨肉	-11.6197
嗣立在位	-11.6197
撻	-11.6198
成宗	-11.6198
官二員	-11.6199
陪祭	-11.6199
木質	-11.6199
荆南	-11.6199
其用	-11.62
二年封	-11.62
尚存	-11.62
掖庭	-11.62
賢良祠	-11.6202
召試	-11.6202
這	-11.6203
縂督	-11.6204
把總二人	-11.6204
五廟	-11.6205
郊天	-11.6205
具朝服	-11.6206
清漢文	-11.6207
十一年議準	-11.6208
丈尺	-11.6208
司爼	-11.6208
月掩	-11.6208
六年八月	-11.6211
豁除	-11.6212
流外	-11.6215
臣請	-11.6216
責其	-11.6216
乎此	-11.6218
院事	-11.6218
名例	-11.6219
以次進	-11.622
達海	-11.622
四路	-11.622
者賞	-11.6221
土木	-11.6221
昭示	-11.6224
務在	-11.6224
復業	-11.6225
𤓰勒佳	-11.6225
二十斤	-11.623
卑者	-11.6231
者該督撫	-11.6231
則非	-11.6233
為先	-11.6233
職田	-11.6234
賣者	-11.6236
行臺	-11.6236
大祭祀	-11.6238
丈六尺	-11.6239
所入	-11.624
始令	-11.6243
受賄	-11.6243
一實以	-11.6244
芡	-11.6244
懐逺	-11.6245
餧養	-11.6246
冬夏	-11.6246
燠	-11.6246
古樂	-11.6247
二千里	-11.6247
樂平	-11.6247
歸之	-11.6247
題明	-11.6248
迅速	-11.6249
杠	-11.6249
鎮南	-11.6249
搬	-11.625
四升	-11.6251
出則	-11.6251
儧	-11.6252
凟	-11.6252
損壞	-11.6253
承制官	-11.6254
瞿	-11.6254
獠	-11.6256
領州一	-11.6258
理應	-11.6258
矣此	-11.626
不妨	-11.626
者准其	-11.6263
恭順	-11.6263
折鈔	-11.6264
斛斗	-11.6264
之私	-11.6265
正當	-11.6266
此日	-11.6266
分派	-11.6266
行中書省	-11.6269
註冊	-11.627
達爾漢	-11.6271
適中	-11.6272
而進	-11.6273
笞三十	-11.6274
興復位	-11.6274
驛六十里	-11.6275
樂用	-11.6275
等員	-11.6277
親往	-11.6277
田廬	-11.6278
鑲紅	-11.6278
兩處	-11.6279
十一年二月	-11.6279
又謂	-11.6279
氏鑲白旗滿洲䕶軍	-11.6279
左門入	-11.6279
宋志	-11.628
邊門	-11.628
又取	-11.6281
樹木	-11.6281
又議	-11.6281
兵備	-11.6283
四廟	-11.6287
治道	-11.6288
未央	-11.6289
其才	-11.629
四十萬	-11.629
日星	-11.6291
各該衙門	-11.6291
為太祖	-11.6292
流離	-11.6293
蕭何	-11.6293
滁	-11.6293
隨帶	-11.6293
原繫	-11.6294
曲直	-11.6298
先祖	-11.6301
郡二百	-11.6301
閃	-11.6301
醆	-11.6303
彙	-11.6304
内府三旗	-11.6304
見聞	-11.6304
富平	-11.6305
宣宗宣徳	-11.6306
州縣衛所	-11.6306
緹	-11.6307
恂	-11.6307
王㑹	-11.6309
駕出	-11.6309
帥兵官	-11.631
上殿	-11.631
鬚	-11.6311
亡國	-11.6311
所給	-11.6311
潼川	-11.6313
近來	-11.6313
貫石	-11.6313
笞二十	-11.6315
閶闔	-11.6315
十分之三	-11.6317
該督撫等	-11.6317
乾隆三十	-11.6318
南嶽	-11.6319
然自	-11.6319
明器	-11.6319
賞卹如例恩賜雲騎尉世職	-11.632
城市	-11.632
里户	-11.632
進發	-11.6321
藏匿	-11.6321
並不得	-11.6322
舊儀	-11.6322
重複	-11.6322
仍有	-11.6323
鹽池	-11.6323
吏胥	-11.6326
監收	-11.6327
三級	-11.6327
紅色	-11.6327
體恤	-11.6327
罪應	-11.6328
兵法	-11.6329
抽分	-11.633
兵革	-11.6331
大祫	-11.6332
同州	-11.6332
里甲	-11.6333
者不過	-11.6335
經籍	-11.6336
海中	-11.6336
銅觔	-11.6337
又次之	-11.6337
又免	-11.6339
僚屬	-11.6339
犢一	-11.634
寢殿	-11.6341
贊拜	-11.6341
之輕重	-11.6342
犯壘壁陣	-11.6342
少尹	-11.6343
州三縣	-11.6344
增減	-11.6345
嵗暮	-11.6345
條例一	-11.6345
七年十一月	-11.6346
額内	-11.6346
首出	-11.6348
九十度	-11.6348
盛於	-11.6349
開除	-11.6349
戴罪	-11.635
仍由	-11.6351
将士	-11.6351
考驗	-11.6352
白布	-11.6353
教場	-11.6353
虞書	-11.6355
牕	-11.6355
多取	-11.6356
食邑	-11.6356
正額	-11.6356
暘	-11.6358
讒	-11.6358
再議	-11.6358
二等男	-11.6358
本於	-11.636
夷人	-11.636
悉令	-11.6361
乍浦	-11.6363
四庫	-11.6364
同提舉	-11.6364
玠	-11.6365
箜篌	-11.6365
經籍考	-11.6365
紳衿	-11.6366
覘	-11.6366
梁州	-11.6366
為母	-11.6369
七年六月	-11.637
郎中一人	-11.637
欲其	-11.6371
致齋三日	-11.6372
麋	-11.6373
相次	-11.6373
民公	-11.6373
九嬪	-11.6373
焜	-11.6375
簾降	-11.6375
協副將	-11.6375
悉以	-11.6376
額管理	-11.6377
記室	-11.6378
多以	-11.6378
師道	-11.6379
讀訖	-11.638
宣城	-11.638
詣香案前	-11.6381
於御座	-11.6381
者為之	-11.6383
楚子	-11.6384
引禮官	-11.6384
諡勤	-11.6384
兵二百	-11.6385
苦累	-11.6386
者降一級調用	-11.6387
赤黄	-11.6389
天文生	-11.6394
州判	-11.6394
名氏	-11.6395
指名	-11.6398
不作	-11.6401
者咸	-11.6401
入已	-11.6401
徳明	-11.6402
朔州	-11.6402
餘悉	-11.6405
亦名	-11.6406
武岡	-11.6406
四百石	-11.6407
掌儀司	-11.6409
荘頭	-11.6409
驍騎校二人	-11.6412
徳化	-11.6412
後從	-11.6413
不幸	-11.6414
為飾	-11.6416
太醫	-11.6416
倒死	-11.6417
餽	-11.6417
察議	-11.6417
恩綸	-11.6417
瑩	-11.6419
皇太后徽號	-11.642
復加	-11.642
如法	-11.642
硝	-11.6421
捲	-11.6421
朞	-11.6422
其詞	-11.6422
保和殿	-11.6423
縣治	-11.6427
藩臬	-11.6427
一曲	-11.6429
鎮星	-11.6429
分道	-11.643
司禮監	-11.643
即御座	-11.643
聖誕	-11.643
振旅	-11.643
於戲	-11.6431
宫架樂作	-11.6431
鹿鳴	-11.6432
卷首	-11.6433
嗣子	-11.6433
開皇	-11.6433
印票	-11.6435
路總管府	-11.6436
每室	-11.6438
今日之	-11.6439
登歌樂作	-11.644
大官令	-11.644
大約	-11.6442
錫福	-11.6443
銀五錢	-11.6443
一千七百	-11.6443
送到	-11.6444
太武	-11.6445
諸王貝勒	-11.6445
致敬	-11.6445
旗地	-11.6446
三百一十	-11.6446
愛戴	-11.6446
建置	-11.6446
彗星	-11.6448
鼓柷	-11.6448
阿克	-11.645
勅諭	-11.6451
八方	-11.6451
明嵗	-11.6451
髙堰	-11.6452
屬焉	-11.6452
恭代	-11.6454
難行	-11.6455
多矣	-11.6456
一尺四寸	-11.6458
領催驍騎	-11.6459
祠宇	-11.6461
終不	-11.6462
各具	-11.6462
商旅	-11.6463
大街	-11.6463
流徒	-11.6464
雲門	-11.6465
有才	-11.6465
碣	-11.6466
大聖	-11.6468
差務	-11.6469
髙陽	-11.6471
尚書郎	-11.6471
樽二	-11.6472
閼	-11.6473
其私	-11.6473
乾隆十	-11.6473
教令	-11.6473
各縣	-11.6475
黄羅	-11.6476
撥給旗人地	-11.6476
諴	-11.6476
蓍	-11.6477
拮据	-11.6479
莫之	-11.6479
蒋	-11.648
為皇太后	-11.6481
臣庶	-11.6481
東方南方	-11.6481
霈	-11.6481
閤門使	-11.6482
竪	-11.6483
忠勇	-11.6483
有虞氏	-11.6483
輕罪	-11.6483
迄於	-11.6484
鄂爾多斯	-11.6484
曰陛下	-11.6485
畧曰	-11.6485
者蓋	-11.6486
本月	-11.6487
借貸	-11.6487
升補	-11.6489
棒	-11.6489
從父	-11.649
鄖陽	-11.649
精鋭	-11.649
大河	-11.6491
一品官	-11.6492
衙役	-11.6492
熒惑入	-11.6492
閏六月	-11.6492
常有	-11.6496
旗務	-11.6496
日夜	-11.6496
路費	-11.6497
絶其	-11.6497
驗明	-11.6498
隄防	-11.6498
席位於	-11.6498
終始	-11.6499
乃退	-11.6499
東自	-11.6499
金門	-11.65
申定	-11.65
將相	-11.6501
南渡	-11.6501
廬江	-11.6501
啟行	-11.6504
右文	-11.6505
梁山	-11.6505
成祖永樂	-11.6505
二對	-11.6507
天聰八年	-11.6507
耆民	-11.6508
差徭	-11.6508
神庫	-11.6512
滿洲正白旗人	-11.6516
下五旗	-11.6518
禮饌	-11.6518
各該旗	-11.652
孔林	-11.652
陪從	-11.6522
晡	-11.6522
建造	-11.6523
祈官	-11.6523
加勺	-11.6523
宸章	-11.6523
版籍	-11.6524
而卒	-11.6527
一幷	-11.6528
舊本	-11.6529
萬頃	-11.653
欽承	-11.653
守候	-11.653
乾封	-11.6531
瀘州	-11.6531
副將軍	-11.6531
已滿	-11.6532
者由	-11.6534
柱管理	-11.6534
比來	-11.6534
設位	-11.6535
兩年	-11.6535
督標	-11.6535
安化	-11.6536
鄖	-11.6536
艦	-11.6536
泄	-11.6537
以疾	-11.6537
車輛	-11.6538
罔不	-11.6538
紱	-11.6538
集二十卷	-11.6538
唐初	-11.6539
袵	-11.6539
屡	-11.654
亦須	-11.654
國在	-11.6541
八年七月	-11.6541
濊	-11.6541
掖門	-11.6543
蜂	-11.6543
邯鄲	-11.6544
司賔引	-11.6544
亘古	-11.6545
殺虎口	-11.6547
何由	-11.6547
天錫	-11.6547
海防	-11.6548
陪祭官	-11.6549
維艱	-11.6551
尊祖	-11.6551
用刑	-11.6551
吳越	-11.6552
緩决	-11.6553
氏正白旗漢軍馬甲	-11.6554
酒泉	-11.6554
二年復	-11.6554
其神	-11.6555
卒諡	-11.6555
不可行	-11.6556
一行	-11.6556
祀五帝	-11.6556
糶賣	-11.6557
始用	-11.6557
本意	-11.6557
雨澤	-11.6558
於郊	-11.6559
上游	-11.6561
先經	-11.6561
列國	-11.6563
廢帝	-11.6563
支放	-11.6566
經過地方	-11.6567
五年詔	-11.6567
先入就位	-11.6569
國子學	-11.6574
不死	-11.6575
梧州	-11.6575
亦自	-11.6576
開濬	-11.6577
並有	-11.6578
澧	-11.6579
最多	-11.6579
王爵	-11.6579
考績	-11.658
紀錄	-11.658
聖躬	-11.658
以太牢	-11.6581
魯特	-11.6582
擬以	-11.6582
分寸	-11.6583
臣愚	-11.6585
詔下	-11.6585
四十卷	-11.6587
百畝	-11.6588
城上	-11.659
方位	-11.659
持案者	-11.659
諭徳	-11.6591
榭	-11.6592
接引	-11.6593
分東西	-11.6593
沴	-11.6593
庄	-11.6593
而用	-11.6596
拜手	-11.6596
囑	-11.6597
源縣	-11.6598
夸	-11.6598
肆行	-11.6599
不在此限	-11.6599
丐	-11.66
監造	-11.66
忤	-11.6601
注明	-11.6601
冊文	-11.6601
殿東	-11.6601
不亦	-11.6602
伏羲	-11.6602
贊引奏	-11.6603
應入	-11.6603
凑	-11.6603
撃敗	-11.6603
擯	-11.6604
蕤賓	-11.6604
牧地	-11.6605
討平之	-11.6606
絹各	-11.6606
土人	-11.6609
烝嘗	-11.661
取進童生	-11.6611
至位樂止	-11.6611
副總兵	-11.6611
之大者	-11.6612
丈四尺	-11.6612
必當	-11.6613
令典	-11.6615
湖口	-11.6615
孝宣	-11.6615
十里西至	-11.6616
制可	-11.6618
命大臣	-11.6621
建平	-11.6621
分為三	-11.6623
竊見	-11.6624
本錢	-11.6624
高帝	-11.6624
魏武	-11.6625
之飾	-11.6625
后稷氏	-11.6625
氏鑲紅旗漢軍	-11.6626
流移	-11.6627
澧州	-11.6629
季冬	-11.663
團練	-11.6632
副提舉	-11.6632
為界	-11.6632
内使監官	-11.6633
五品官	-11.6633
矦	-11.6633
羊酒	-11.6634
等郡	-11.6635
甚大	-11.6637
排班	-11.6638
寳相花	-11.6638
如繫	-11.6642
月初八日	-11.6642
民饑	-11.6642
六世	-11.6643
姻	-11.6644
合詞	-11.6645
河務	-11.6647
朝享	-11.6647
綱紀	-11.6647
十八年正月	-11.6648
祠祀	-11.6648
蜀郡	-11.6649
赤子	-11.665
引班引	-11.665
府同知	-11.6651
文治	-11.6652
匕	-11.6654
狀如	-11.6654
之才	-11.6655
大長公主	-11.6655
相率	-11.6656
東壁	-11.6656
劑	-11.6656
為最	-11.6657
元封	-11.6658
廏	-11.6659
華陽	-11.6659
鶚	-11.6659
處死	-11.6659
鶯	-11.6659
百五十里	-11.6659
則與	-11.6661
惻	-11.6661
守禦千户所	-11.6661
親郊	-11.6661
舟楫	-11.6662
隄岸	-11.6662
盱眙	-11.6663
請罷	-11.6663
應差	-11.6663
舘	-11.6664
詡	-11.6664
者不準	-11.6665
勸懲	-11.6665
岳託	-11.6666
雌	-11.6666
舉劾	-11.6668
辟邪	-11.667
酤	-11.6671
定海	-11.6671
初刻	-11.6671
身為	-11.6672
亦準	-11.6672
廟制	-11.6672
直隸州	-11.6672
贏餘	-11.6672
出差	-11.6674
什長	-11.6674
通政使	-11.6675
縣公	-11.6677
竊惟	-11.6677
救䕶	-11.6677
念其	-11.6678
官罰俸一年	-11.6678
每季	-11.668
征湖廣	-11.6683
扇二	-11.6683
大朝㑹	-11.6684
識者	-11.6686
俱已	-11.6686
富人	-11.6686
山東山西河南	-11.6687
金牌	-11.6687
行糧	-11.6687
二層	-11.6687
者以其	-11.6688
萬歴	-11.6688
再鼓皆	-11.6688
漸次	-11.6689
内大臣侍衛	-11.669
故道	-11.6691
千總一人	-11.6692
内除	-11.6692
清漢	-11.6693
二十二人	-11.6694
之句	-11.6695
䕶軍驍騎	-11.6695
修補	-11.6695
並須	-11.6696
子母	-11.6697
八品官	-11.6697
肉刑	-11.6698
天監	-11.6699
並屬	-11.67
概行	-11.67
引入	-11.6701
之科	-11.6701
正白旗人	-11.6702
之規	-11.6703
幸闕里	-11.6703
開明	-11.6704
景德	-11.6704
昭武	-11.6706
雖已	-11.6707
圖海	-11.6707
現今	-11.6709
順治十五年	-11.6709
十九人	-11.6709
潼	-11.6709
縣西北	-11.6709
尚茶	-11.671
榖梁	-11.6711
釡	-11.6712
其祖	-11.6712
譲	-11.6712
孝孫	-11.6712
净	-11.6714
五禮	-11.6714
省牲位	-11.6715
髙三尺	-11.6715
白雲	-11.6717
眀年	-11.6719
天厯	-11.6719
長至	-11.6719
未易	-11.6719
行一叩禮	-11.6719
重輕	-11.6719
萇	-11.6719
隨宜	-11.6719
眡	-11.6721
漢兵	-11.6721
采亭	-11.6721
敷文	-11.6722
杌	-11.6722
撫綏	-11.6722
折衝都尉	-11.6723
栅	-11.6723
銀三錢	-11.6723
交阯	-11.6724
太元	-11.6724
東郡	-11.6725
吉祥	-11.6726
升為州	-11.6726
定以	-11.6728
傳制	-11.6728
一品以下	-11.6729
袁州	-11.6729
制曰可	-11.6729
荒蕪	-11.6731
莊浪	-11.6731
肅清	-11.6734
亦難	-11.6734
係官	-11.6735
保定府	-11.6735
至元十三年	-11.6735
四年令	-11.6737
射者	-11.6737
十一年四月	-11.6737
並從	-11.6737
累民	-11.6737
親耕	-11.6737
䕶軍營	-11.6745
明㑹典卷	-11.6747
其所以	-11.6747
黄太	-11.6747
遷於	-11.6747
額之妻	-11.6747
珠玉	-11.6749
孟秋	-11.675
東境	-11.6751
守偹	-11.6751
至期	-11.6752
長生	-11.6752
失業	-11.6753
六百五十	-11.6753
化日	-11.6755
杖九十	-11.6757
禮志	-11.6758
尼雅	-11.6758
進勦	-11.6759
海潮	-11.6759
軍屯	-11.676
江海	-11.6761
自然之	-11.6761
之寶	-11.6762
財物者	-11.6762
小祀	-11.6762
父祖	-11.6767
分地	-11.6768
前三日	-11.6768
木為之	-11.6768
等謹案是編	-11.6769
政令	-11.6769
盎	-11.677
具本	-11.677
善為	-11.677
叅政	-11.677
管軍	-11.677
䜟	-11.6771
道北南向	-11.6771
長九寸	-11.6771
後代	-11.6774
帨	-11.6775
數百里	-11.6775
淸	-11.6777
大有	-11.6777
謳	-11.6777
如别儀	-11.6778
蠱	-11.6778
欝	-11.6779
武藝	-11.6779
戕	-11.678
泰定帝	-11.678
簟	-11.678
盡力	-11.6781
掇	-11.6782
元皇帝	-11.6782
比之	-11.6784
太液	-11.6784
授執事者	-11.6784
曲柄	-11.6784
逆回	-11.6785
錯誤	-11.6786
塔拉	-11.6789
民公侯伯	-11.6789
民尉	-11.679
専管	-11.6791
分年	-11.6791
賽音	-11.6794
每歳	-11.6795
年年	-11.6797
叅議	-11.6798
甘雨	-11.6798
順治元年定	-11.6798
種植	-11.68
醫藥	-11.6803
頗為	-11.6804
而論	-11.6805
乾隆十一年	-11.6806
唐太宗	-11.6808
奏裁	-11.6809
日乆	-11.6809
各邊	-11.6811
八十兩	-11.6812
傳㫖	-11.6812
神祠	-11.6813
督捕	-11.6814
六百三十	-11.6814
倉穀	-11.6814
重定	-11.6815
月初十日	-11.6816
禮部議	-11.6817
唐時	-11.6817
嚴察	-11.6819
西行	-11.6819
不同而	-11.6819
上士	-11.6821
柱國	-11.6821
進詣	-11.6822
時務	-11.6822
司道府	-11.6822
零陵	-11.6822
集八卷	-11.6822
者甚衆	-11.6823
條理	-11.6824
最大	-11.6824
送神奏	-11.6825
毋致	-11.6829
馘	-11.6829
哈什	-11.6829
康居	-11.683
何事	-11.6831
紅旗	-11.6834
進京	-11.6834
也是以	-11.6834
碍	-11.6835
詳考	-11.6835
師還	-11.6835
皆取	-11.6835
宦官	-11.6836
景宗	-11.6837
節氣時刻	-11.6837
纉	-11.6838
嵗修	-11.6838
十二年正月	-11.684
龍文	-11.684
蟻	-11.6841
櫝	-11.6841
北邊	-11.6841
畦	-11.6841
膏腴	-11.6842
菁菹	-11.6842
克之	-11.6842
汁	-11.6843
篪	-11.6844
富者	-11.6844
棨	-11.6846
三千里	-11.6846
著作郎	-11.6846
承受	-11.6848
獄官	-11.6848
所指	-11.6848
營建	-11.6849
年乆	-11.6849
人順治	-11.685
執圭	-11.6851
覃敷	-11.6851
為貴	-11.6852
人參	-11.6853
違犯	-11.6854
黄鍾為	-11.6854
查照	-11.6854
以州治	-11.6856
之化	-11.6856
稍北	-11.6856
十八年二月	-11.6857
時雨	-11.6858
嘉靖年諡	-11.6859
愍帝	-11.6861
限一月	-11.6862
后土氏	-11.6863
打牲	-11.6864
閤外	-11.6866
納后	-11.6867
欽若	-11.6867
有流星	-11.6867
夏國	-11.6868
退出	-11.6868
限年	-11.6869
酌撥	-11.6869
▁㫖	-11.687
命儒臣	-11.6872
冊案	-11.6873
中嶽	-11.6873
紳士	-11.6874
香合	-11.6874
太常卿奏請	-11.6874
元江	-11.6875
奉聖㫖	-11.6878
輪班	-11.6881
元元	-11.6881
正紅旗人	-11.6882
繁簡	-11.6883
二千六百	-11.6885
丹陛樂	-11.6886
七言絶	-11.6887
其力	-11.6888
五百九十	-11.6888
亡命	-11.6889
南渡後	-11.6889
洩水	-11.6889
勝兵	-11.6891
執照	-11.6892
文獻	-11.6893
上馬	-11.6893
擘	-11.6894
慟	-11.6895
公府	-11.6895
所向	-11.6895
以木為	-11.6897
捍禦	-11.6898
扎拉	-11.6898
豎	-11.6898
紵	-11.6898
左司	-11.6899
額爾徳尼	-11.6899
幻	-11.6899
筑	-11.6901
騙	-11.6901
瑤	-11.6902
訶	-11.6902
相機	-11.6902
治天下	-11.6903
子午	-11.6903
絹一疋	-11.6903
稾	-11.6903
怙	-11.6904
上香行禮	-11.6904
煒	-11.6904
君也	-11.6905
附見	-11.6905
銅山	-11.6905
董率	-11.6907
升科	-11.6908
農隙	-11.6908
復令	-11.6909
唐貞觀	-11.6909
榥	-11.691
夀考	-11.6911
俸米	-11.6911
船料	-11.6911
查得	-11.6913
之母	-11.6913
孝亷	-11.6914
未嘗有	-11.6914
皇帝既	-11.6914
三才	-11.6916
要地	-11.6917
均輸	-11.6917
鹽運司	-11.6919
夾侍	-11.6919
改造	-11.6922
宗族	-11.6922
槩行	-11.6924
豐潤	-11.6924
滿洲鑲黄旗人	-11.6925
照時價	-11.6926
年力	-11.6926
遂令	-11.6926
講讀	-11.6927
考定	-11.6927
一代之	-11.6929
强盗	-11.693
太監等	-11.6932
筵前	-11.6932
仍復	-11.6936
安能	-11.6937
朱裏	-11.6939
五年十二月	-11.694
一省	-11.694
龍朔	-11.694
今乃	-11.6942
左氏傳	-11.6942
且有	-11.6942
四色	-11.6943
租庸	-11.6944
鉛錫	-11.6945
萬觔	-11.6947
哈逹	-11.6947
金匱	-11.6947
入闗	-11.6947
侯子	-11.6947
耳今	-11.6948
草場	-11.6948
神仙	-11.6949
登科	-11.695
七年八月	-11.6951
十一卷	-11.6951
十餘丈	-11.6951
異也	-11.6952
紀錄一次	-11.6952
又非	-11.6954
對立	-11.6955
韶州	-11.6955
攙	-11.6956
餘俱	-11.6958
思恩	-11.6959
詩話	-11.6959
随時	-11.696
者降二級調用	-11.696
滚壩	-11.696
五十八年	-11.696
嘴	-11.6961
金棺	-11.6961
嶧	-11.6962
鰲	-11.6962
入八分公	-11.6962
衞士	-11.6963
纊	-11.6964
之本意	-11.6964
雲麾使	-11.6964
於正寢	-11.6965
分洩	-11.6965
節鎮	-11.6966
十間	-11.6966
四錢	-11.6967
從祖	-11.6968
成周	-11.6969
絫	-11.6971
於殿内	-11.6971
楞額	-11.6971
彦博	-11.6971
不遺	-11.6971
百錢	-11.6971
莫大於	-11.6971
興定	-11.6973
遣官祗告	-11.6974
案牘	-11.6974
起居郎	-11.6977
盤察	-11.6977
水漲	-11.6977
朝珠	-11.6978
征收	-11.6979
纂輯	-11.6979
出立於	-11.6979
隊伍	-11.698
年來	-11.6981
部族	-11.6982
竈户	-11.6984
得此	-11.6985
描金	-11.6987
然猶	-11.6988
回人	-11.6989
御筵	-11.6989
憲章	-11.6989
佐領内	-11.699
兵丁等	-11.6991
奉敕	-11.6991
應劭曰	-11.6992
遂使	-11.6992
甬道	-11.6993
𤣥武	-11.6993
等地方	-11.6993
赦書	-11.6994
十卷鼂氏曰	-11.6995
自序曰	-11.6995
海澄	-11.6996
兖州府	-11.6996
清釐	-11.6997
而天下	-11.6997
審録	-11.6997
諾爾	-11.6997
億萬年	-11.7
初四日	-11.7
陜西甘肅	-11.7001
緋羅	-11.7001
體察	-11.7002
恵帝	-11.7002
華封	-11.7003
各有竒	-11.7004
上古	-11.7007
亦即	-11.7009
方得	-11.7009
鹽城	-11.701
孝慈	-11.7011
釐一毫	-11.7011
敷天	-11.7011
序略曰	-11.7011
宗學	-11.7011
坦水	-11.7012
以薦	-11.7012
贊跪	-11.7014
成帝時	-11.7015
思哈	-11.7015
泓	-11.7016
補足	-11.7018
騷擾	-11.7018
勤民	-11.7019
其叔父	-11.702
餕	-11.702
聲音	-11.7022
翰林院檢討	-11.7023
萬萬	-11.7023
升座	-11.7023
稚	-11.7024
穆宗隆慶	-11.7025
綘	-11.7025
孫子	-11.7025
鬭毆	-11.7025
九年題準	-11.7025
藩庫	-11.7026
善政	-11.7026
蔑	-11.7028
北嚮	-11.703
限外	-11.703
配食	-11.7031
三家	-11.7031
祭享	-11.7032
七年議準	-11.7032
事體	-11.7033
還官	-11.7033
日月之	-11.7033
篴	-11.7033
勲舊	-11.7033
未安	-11.7034
轉送	-11.7035
導迎樂	-11.7036
縣侯	-11.7036
仍照舊	-11.7037
工役	-11.7037
姑姊妹	-11.7038
頗多	-11.7038
大都督府	-11.7039
朝野	-11.704
購買	-11.7041
入境	-11.7042
咸淳	-11.7042
大火	-11.7045
黔中	-11.7045
建始	-11.7047
南北郊	-11.7047
十分之一	-11.7049
三少	-11.7051
看詳	-11.7051
治事	-11.7051
初無	-11.7054
撫標	-11.7055
豈無	-11.7055
已前	-11.7056
之妻佟	-11.7057
天威	-11.7058
大半	-11.7058
百濟	-11.7058
府軍	-11.7059
舉酒	-11.7061
諸城	-11.7064
尚衣	-11.7064
充裕	-11.7064
時和	-11.7065
無外	-11.7066
精義	-11.7066
謀叛	-11.7066
崇文總目	-11.7069
摺内	-11.707
災異	-11.7073
洮州	-11.7073
元至元	-11.7073
遷移	-11.7076
合符	-11.7076
餘姚	-11.7076
得免	-11.7077
遂廢	-11.7079
九年議準	-11.708
斯民	-11.7081
絮	-11.7082
已故	-11.7083
生色	-11.7083
陡	-11.7084
雕木	-11.7084
之䇿	-11.7084
當今	-11.7085
頽	-11.7086
臺諫	-11.7086
濫行	-11.7087
大亂	-11.7087
在府東南	-11.7087
一如	-11.7087
外郎	-11.7088
瞭	-11.7088
南掌	-11.7089
娑	-11.709
皇帝入	-11.7092
園陵	-11.7094
海賊	-11.7096
十一年十一月	-11.71
完日	-11.71
仍給	-11.7101
設樂	-11.7102
統制	-11.7103
平樂	-11.7104
禁斷	-11.7104
康熙六十一年	-11.7104
十年三月	-11.7104
兹當	-11.7105
光明	-11.7106
豆籩	-11.7106
篆文	-11.7106
髙皇帝	-11.7107
爾賽	-11.7107
宫商	-11.7108
七升	-11.7109
為羽	-11.7109
十二年四月	-11.711
西苑	-11.7112
試用	-11.7113
詔天下	-11.7115
門西	-11.7116
解官	-11.7116
十二年議準	-11.7117
中聲	-11.7119
以下俱	-11.712
報功	-11.712
文物	-11.712
給付	-11.7121
繖一	-11.7123
彚奏	-11.7123
漢髙祖	-11.7126
捕獲	-11.7126
赴援	-11.713
此禮	-11.7134
敵人	-11.7134
黃道	-11.7134
便民	-11.7136
垂幨	-11.7137
設一案	-11.7137
天武	-11.7139
者杖六十	-11.714
鎮江府	-11.714
滿洲鑲紅旗人姓	-11.7141
五軍	-11.7141
國計	-11.7141
協濟	-11.7143
釵	-11.7143
季春	-11.7143
量為	-11.7144
縠	-11.7145
媒氏	-11.7145
緜	-11.7146
瑋	-11.7147
菲	-11.7147
知貢舉	-11.7148
拉克	-11.7148
秣	-11.7149
二分五釐	-11.7149
寳坻	-11.715
挑濬	-11.715
嫓	-11.7151
乞降	-11.7151
領侍衞内大臣	-11.7151
百觔	-11.7151
霍集占	-11.7152
垜	-11.7152
按禮	-11.7152
册籍	-11.7152
典祠啓	-11.7152
牝馬	-11.7154
大司徒	-11.7154
濟隂	-11.7154
僉都御史	-11.7155
西夏	-11.7157
雜犯死罪	-11.7158
臣愚以為	-11.7158
堂主事	-11.7159
地祗	-11.7159
樓前	-11.7159
著令	-11.716
之價	-11.716
隨征金川	-11.7161
出首	-11.7161
侯王	-11.7161
咸亨	-11.7162
播種	-11.7163
八年十月	-11.7165
甚重	-11.7165
在室者	-11.7166
發賣	-11.7167
在焉	-11.7169
管理富	-11.717
方準	-11.717
康熙二十二年	-11.7172
祭酒司業	-11.7173
易曰	-11.7176
恩波	-11.7177
設皇太子	-11.7179
原官	-11.718
六百六十	-11.7182
每門	-11.7184
觀望	-11.7185
摺奏	-11.7187
者不論	-11.7188
奉寶	-11.7188
黄鍾之律	-11.7189
揭報	-11.7189
開元中	-11.719
上食	-11.7191
每案	-11.7192
全完者	-11.7195
還宮	-11.7195
富貴	-11.7195
十一年題準	-11.7196
晉陽	-11.7196
之額	-11.7197
吉州	-11.7198
初名	-11.7201
桯	-11.7201
黄道赤道	-11.7201
一十一	-11.7202
漕司	-11.7203
剡	-11.7206
行都司	-11.7206
出題	-11.7207
迤北	-11.7207
溶	-11.7208
七年四月	-11.7209
騶虞	-11.7209
賞卹如例	-11.7209
阿爾泰	-11.7209
兼轄官	-11.7209
姒	-11.721
筯	-11.721
實以醴齊	-11.721
拭爵	-11.721
北上設	-11.7211
猗	-11.7211
順天鄉試	-11.7212
賈誼	-11.7212
不赴	-11.7214
嶼	-11.7214
流亡	-11.7214
流門	-11.7214
蠕蠕	-11.7214
馮翊	-11.7215
肖	-11.7215
琯	-11.7216
寡人	-11.7217
報本	-11.7218
延燒	-11.7218
康熙四年	-11.722
造入	-11.722
貢監生	-11.722
臨淄	-11.722
願陛下	-11.722
並許	-11.722
其末	-11.7221
土産	-11.7221
金陵	-11.7223
熱審	-11.7223
攝提	-11.7224
神策	-11.7224
十倍	-11.7224
昌黎	-11.7224
十二年題準	-11.7225
論曰	-11.7225
五嵗	-11.7226
通天冠	-11.7226
二千人	-11.7226
德州	-11.7227
由䕶軍	-11.7229
行間	-11.7229
綵輿	-11.723
始命	-11.7232
哭止	-11.7233
阿勒	-11.7233
帝座	-11.7234
道旁	-11.7234
注銷	-11.7235
諸蠻	-11.7236
大敗之	-11.7238
應奉	-11.724
定式	-11.724
尤多	-11.7241
本夫	-11.7243
囘籍	-11.7243
偏東	-11.7244
翌日	-11.7245
確查	-11.7245
舉人官	-11.7248
傅恒	-11.7251
四處	-11.7252
九年五月	-11.7255
南寧	-11.7255
庫大使	-11.7256
密雲	-11.7257
牧副	-11.7258
門外之西東面	-11.7259
依式	-11.7259
街道	-11.7261
入仕	-11.7261
止設	-11.7262
新法	-11.7263
持服	-11.7264
遼太祖	-11.7264
餘條	-11.7265
耗米	-11.7267
察拏	-11.7268
吻	-11.7269
侍臣上馬	-11.727
滿洲正黄旗人	-11.7271
針	-11.7271
鯨	-11.7272
旻	-11.7272
氓	-11.7275
鏞	-11.7275
翰林院庶吉士	-11.7276
未入	-11.7276
壇壝	-11.7278
哺	-11.7278
候朕	-11.7278
確估	-11.7278
區區	-11.7279
拖沙喇哈番	-11.7279
歸順封	-11.7279
華州	-11.7279
招討司	-11.7281
又改為	-11.7282
刪定	-11.7282
之制也	-11.7282
珣	-11.7284
江水	-11.7285
饌幔内	-11.7285
百八十里	-11.7286
又議准	-11.7287
退出地共	-11.7287
講書	-11.7288
徑一寸	-11.7288
親加	-11.7291
本非	-11.7292
武進	-11.7292
餘衆	-11.7294
左丞相	-11.7294
正員	-11.7294
累年	-11.7296
實政	-11.7296
者量	-11.7296
立定奉禮曰再拜	-11.7298
量其	-11.7298
分之一	-11.7298
内外俱	-11.7299
宜興	-11.7299
浙江巡撫	-11.7299
八縣	-11.7299
減免	-11.73
常祀	-11.7301
爵洗	-11.7303
武安	-11.7303
天意	-11.7304
滋生	-11.7306
分領	-11.7306
嘉薦	-11.7307
扁	-11.7307
合格	-11.7309
西面立	-11.7309
立即	-11.7309
賑貸	-11.731
監察	-11.7311
十三年十一月	-11.7311
民地	-11.7312
永固	-11.7312
雲集	-11.7314
徳之妻	-11.7315
大猷	-11.7316
哭臨	-11.7316
乘車	-11.7317
百丈	-11.7319
詳慎	-11.7319
通商	-11.7321
州牧	-11.7322
梁頭	-11.7322
六年奏準	-11.7322
執事官各	-11.7323
斷罪	-11.7323
孔廟	-11.7326
呼嵩	-11.7326
白澤	-11.7327
承徳	-11.7331
允當	-11.7331
晃	-11.7332
禁衛	-11.7332
即當	-11.7332
蕉	-11.7333
萬餘石	-11.7334
吐魯畨	-11.7335
幣帛	-11.7335
諸州府	-11.7335
親族	-11.7335
鼇	-11.7335
為定額	-11.7335
楫	-11.7336
康熙十五年	-11.7336
樞宻使	-11.7336
聖宗統和	-11.7337
嬴	-11.7337
擬定正陪	-11.7337
五萬石	-11.7337
葡萄	-11.7337
順帝至正	-11.7338
廣漢	-11.7338
不平	-11.7339
侃	-11.7339
雨師	-11.7339
徘徊	-11.7339
文淵閣	-11.734
閹	-11.734
闢展	-11.734
即皇帝位	-11.734
國子監祭酒	-11.7341
月俸	-11.7341
匜	-11.7341
奏可	-11.7342
脚幞頭	-11.7343
祕閣	-11.7343
宫闈	-11.7344
孔安國	-11.7344
陵廟	-11.7344
致令	-11.7345
一丁	-11.7346
成熟	-11.7346
中殿	-11.7346
職貢	-11.7346
議以為	-11.7347
十二年三月	-11.7348
訾	-11.7348
險阻	-11.7348
可以為	-11.7348
恭謝	-11.7349
兵一千	-11.7349
復還	-11.735
管理阿	-11.7351
既畢	-11.7351
左右二營	-11.7354
依法	-11.7357
祝融	-11.7358
唐開元	-11.7359
五十六年	-11.7359
或作	-11.736
佟佳	-11.7362
瞻雲	-11.7364
天地宗廟	-11.7366
造意	-11.7367
大鴻臚	-11.7368
子爵	-11.7369
食貨志	-11.737
泰寧	-11.7372
邊防	-11.7372
夀星	-11.7373
濟陽	-11.7376
集六卷	-11.7376
此案	-11.7377
委之	-11.7378
盛京將軍	-11.7383
印房	-11.7383
少南	-11.7384
樂人	-11.7385
之妻白	-11.7385
二品官	-11.7385
承奉	-11.7385
十二兩	-11.7386
㕘奏	-11.7388
我皇祖	-11.7388
廨	-11.7389
告身	-11.7389
譌	-11.7389
焞	-11.7392
資格	-11.7393
斯文	-11.7394
詁	-11.7395
梢	-11.7396
二千九百	-11.7396
元世祖	-11.7396
鞞	-11.7396
内撥	-11.7397
拳	-11.7397
蓄洩	-11.7398
不可用	-11.7398
合班	-11.7398
六星	-11.7399
躭	-11.74
另户	-11.74
事由	-11.7401
詔免	-11.7401
賛者承傳	-11.7401
端平	-11.7401
行三跪九拜禮	-11.7401
首領太監	-11.7402
以佐	-11.7402
杲	-11.7403
嵗辦	-11.7403
控告	-11.7404
宕	-11.7405
受勞問者	-11.7406
燕山	-11.7406
阡陌	-11.7407
侍中中書令	-11.7407
請准	-11.7408
豹尾班	-11.7408
馬考	-11.7409
記注官	-11.741
勞績	-11.741
汾隂	-11.741
恐後	-11.7411
註云	-11.7412
顏	-11.7412
侯景	-11.7413
失察之	-11.7413
永平府	-11.7413
威寧	-11.7414
寶座	-11.7414
鸞旗	-11.7415
十七年正月	-11.7417
内壝之外	-11.7417
潭州	-11.7419
𤓰州	-11.7419
色之妻	-11.742
畱任	-11.742
巴勒	-11.7421
遲誤	-11.7421
妻女	-11.7422
行於	-11.7423
未曽	-11.7423
沈齊	-11.7423
在其後	-11.7424
著該督撫	-11.7425
宴㑹	-11.7425
直𨽻山東	-11.7425
糾叅	-11.7426
百千	-11.7427
秘書監	-11.7427
俱由	-11.7427
觀音	-11.7428
直省督撫	-11.7429
僅存	-11.743
道統	-11.743
圖説	-11.743
咨報	-11.7431
樂制	-11.7431
之妻納喇氏	-11.7432
特加	-11.7433
下所司	-11.7434
漢軍一人	-11.7434
晝見	-11.7435
尤重	-11.7435
軍門	-11.7437
之效	-11.7438
在部	-11.7438
請封	-11.7438
不允	-11.744
諫官	-11.744
革除	-11.7442
同都統	-11.7442
事屬	-11.7443
自謂	-11.7446
西序	-11.7446
呈堂	-11.7446
代州	-11.7447
排立	-11.7447
少師	-11.7447
牝	-11.7452
代題	-11.7452
上將軍	-11.7453
簠實	-11.7453
後衛	-11.7454
碑亭	-11.7455
只是	-11.7456
東西兩	-11.7456
忩	-11.7456
生息	-11.7456
音韻	-11.7461
之需	-11.7461
治民	-11.7461
紅髹	-11.7461
伏查	-11.7462
詔自今	-11.7462
騎尉	-11.7463
又多	-11.7463
縻	-11.7463
慝	-11.7464
囹圄	-11.7464
前行禮	-11.7465
酳	-11.7465
遶	-11.7466
八年九月	-11.7466
固山額真	-11.7466
殮	-11.7467
皇太孫	-11.7467
輻	-11.7467
撫順	-11.7467
剽	-11.7467
今制	-11.7468
嫂	-11.7468
爨	-11.7469
僊	-11.7469
今擬國朝	-11.7469
芽	-11.747
貢監生員	-11.747
闥	-11.7471
㸑	-11.7471
一丈八尺	-11.7474
八百餘	-11.7476
平陽府	-11.7477
以為然	-11.7477
詔曰朕	-11.7479
員闕於	-11.7479
賜胙	-11.7481
情重	-11.7481
中京	-11.7482
千總二人把總四人兵八百	-11.7483
西川	-11.7486
海鹽	-11.7486
迤西	-11.7487
十一名	-11.7487
此處	-11.7487
設奠	-11.7488
懇請	-11.7489
廢置	-11.749
鹽鐡	-11.749
奏凱	-11.7493
皇親	-11.7493
九頃	-11.7493
並著	-11.7494
撥運	-11.7495
天然	-11.7496
安世	-11.7496
無卷數	-11.7497
龍興	-11.7497
魏氏	-11.7498
以上並	-11.7499
什一	-11.75
屏風	-11.75
督兵	-11.7502
預為	-11.7503
三十六人	-11.7503
四百里	-11.7503
追捕	-11.7505
二十四名	-11.7506
諸蕃	-11.7507
闐	-11.751
讀祝文	-11.7511
漢軍副都統	-11.7512
正藍	-11.7513
七品以上	-11.7514
旋宫	-11.7516
向来	-11.7517
平南	-11.7519
訪聞	-11.752
恐致	-11.752
長貳	-11.7522
祝曰	-11.7522
凶禮	-11.7523
訐	-11.7523
五日一	-11.7524
三寸三分	-11.7524
隨入	-11.7525
雜糧	-11.7527
梅勒章京	-11.7528
請給	-11.7528
香盤	-11.7529
私罪	-11.7529
七頃	-11.7529
事據	-11.753
樓船	-11.753
大逆	-11.753
倅	-11.7531
茂州	-11.7531
飾金	-11.7532
歌詩	-11.7532
餉銀	-11.7532
仗馬	-11.7532
糖	-11.7533
近聞	-11.7534
寗	-11.7535
漢軍正黄旗人	-11.7535
皇地祗	-11.7535
接任官	-11.7536
法律	-11.7536
木邦	-11.7537
詈	-11.7538
𦍑	-11.7538
册立	-11.7541
年貌	-11.7541
鞭八十	-11.7541
不可勝數	-11.7541
立𤓰	-11.7541
歡騰	-11.7541
數萬人	-11.7542
追擊	-11.7542
倉儲	-11.7543
商稅	-11.7544
欽明	-11.7544
當陽	-11.7544
富徳	-11.7544
事聞	-11.7545
立冬	-11.7545
納鈔	-11.7546
土兵	-11.7546
雜處	-11.7546
皆以為	-11.7546
副都	-11.7547
而食	-11.7548
開運	-11.7548
後唐同光	-11.755
宰桑	-11.755
向化	-11.7551
曲禮	-11.7551
稱制	-11.7552
賊黨	-11.7553
崇德	-11.7555
未遑	-11.7556
衡陽	-11.7557
撤回	-11.7561
賜酒	-11.7561
本科	-11.7563
入焉	-11.7563
子夏	-11.7564
寢室	-11.7567
今校改	-11.7567
他官	-11.757
大司空	-11.757
儒林	-11.7571
唐因之	-11.7572
給散	-11.7572
撃賊	-11.7573
正陽	-11.7573
曲折	-11.7574
為兄弟	-11.7576
御名	-11.7576
在府東	-11.7577
乾隆十二年	-11.7577
支米	-11.7581
盔	-11.7584
帥府	-11.7584
削爵	-11.7585
舵	-11.7587
濮州	-11.7587
正陽門	-11.759
廣寜	-11.7591
詳查	-11.7592
搢笏盥手帨手	-11.7593
出貢	-11.7593
各學	-11.7593
者免其	-11.7594
一卷鼂氏曰	-11.7594
在府南	-11.7594
故實	-11.7595
股肱	-11.7596
家廟	-11.7596
私家	-11.7596
殿曰	-11.7597
内謁者監	-11.7597
沙州	-11.7597
依此	-11.7598
人員内	-11.7598
税務	-11.7598
夜郎	-11.7598
直言	-11.7598
考工記	-11.7599
宋太祖	-11.7599
大斂	-11.7599
毆死	-11.76
共一百	-11.76
佃户	-11.76
髙年	-11.7601
灝	-11.7601
奭	-11.7601
百餘年	-11.7601
精微	-11.7601
弓弩	-11.7603
乾隆十三年欽定大駕鹵簿	-11.7603
有事故	-11.7603
繼祖	-11.7603
欽奉	-11.7604
正九品	-11.7604
侵漁	-11.7604
囘鑾	-11.7604
國號	-11.7604
管内	-11.7604
考語	-11.7605
襄城	-11.7605
性理	-11.7605
諸葛	-11.7606
羽籥	-11.7607
雜犯	-11.7607
西陲	-11.7608
主管	-11.7608
資生	-11.7609
哈密	-11.761
通濟	-11.7611
宣公	-11.7612
増損	-11.7612
帝從之	-11.7613
三年置	-11.7613
弓箭手	-11.7613
申奏	-11.7614
十三年三月	-11.7614
和尚	-11.7618
二十六人	-11.7618
翼尉	-11.7618
减二等	-11.7618
能否	-11.7619
紫微	-11.7619
四郊	-11.7621
凶年	-11.7622
二百十	-11.7622
成徳	-11.7623
太常丞	-11.7624
力不能	-11.7626
詣御座前	-11.7627
兵一百名	-11.7628
徽音	-11.763
以上俱於	-11.763
未到	-11.7631
流徙	-11.7631
故能	-11.7632
日躔	-11.7632
别室	-11.7632
從輕	-11.7633
把總一人兵一百	-11.7633
侵盜	-11.7634
太史令	-11.7635
順治十二年	-11.7636
禮部太常寺	-11.7636
權停	-11.7637
於太和殿	-11.7638
澳	-11.7638
三千六百	-11.7639
㸃視	-11.764
長七尺	-11.764
親製	-11.764
該府	-11.764
吳興	-11.7641
一子	-11.7641
謂宜	-11.7647
室内	-11.7647
粲	-11.7648
所論	-11.7649
十字	-11.7649
錢幣	-11.765
軍儲	-11.765
史書	-11.7651
祗應	-11.7652
詔罷	-11.7652
百物	-11.7653
算學	-11.7653
箸	-11.7653
木龍	-11.7653
石有竒	-11.7655
兀	-11.7656
珙	-11.7656
七寸五分	-11.7656
漢軍鑲紅旗人	-11.7657
窖	-11.7658
珠翠	-11.7658
命案	-11.7659
呼爾	-11.7659
簍	-11.7659
太微垣	-11.766
毆人	-11.7661
樽罍	-11.7661
客省	-11.7661
原屬	-11.7662
前楹	-11.7662
孝賢皇后	-11.7662
尾閭	-11.7662
擾害	-11.7663
大寳	-11.7663
黄琮	-11.7663
斐	-11.7663
溝洫	-11.7664
燮	-11.7664
道監察御史	-11.7664
杭州府	-11.7664
皇圖	-11.7665
霍山	-11.7665
拐	-11.7665
煽	-11.7666
羈縻	-11.7667
春秋仲月	-11.7667
鳯旗	-11.7667
紼	-11.7667
某年生小子	-11.7668
閟	-11.7668
不多	-11.7668
受傷	-11.7668
燿	-11.7669
牽牛	-11.7669
設鹵簿	-11.7671
杻	-11.7672
州𨽻	-11.7672
俊秀	-11.7672
衙署一所	-11.7672
建廟	-11.7673
伯叔父母	-11.7675
廵捕	-11.7678
三等䕶衛	-11.7678
二十七人	-11.7679
就位立定	-11.768
黄州	-11.768
山西巡撫	-11.7682
已完	-11.7682
左副都御史	-11.7683
不到者	-11.7685
許州	-11.7685
已來	-11.7686
十三年議準	-11.7686
地界	-11.7688
以内者	-11.7689
六年詔	-11.7692
於丹陛上	-11.7693
其要	-11.7693
安豐	-11.7693
江山	-11.7693
皇帝服通天冠絳紗袍	-11.7695
守陵	-11.7695
今春	-11.7695
兼任	-11.7696
前件	-11.7696
鄉射	-11.7697
北向東上	-11.7698
銀一分	-11.77
此制	-11.77
懲治	-11.7702
滿洲正藍旗人姓	-11.7702
果毅都尉	-11.7702
五百石	-11.7703
貴陽	-11.7703
恩㫖	-11.7704
業主	-11.7704
贊跪叩興	-11.7705
字伯	-11.7706
立極	-11.7706
確實	-11.7708
本條	-11.7708
乃遣	-11.771
符寳郎	-11.7711
材官	-11.7712
達什	-11.7714
田禾	-11.7715
精詳	-11.7716
足矣	-11.7716
氏鑲黄旗漢軍馬甲	-11.7717
五雲	-11.7718
頡	-11.7718
埏	-11.7718
齋殿	-11.772
陽城	-11.7722
碟	-11.7723
俱准	-11.7723
今世	-11.7727
功過	-11.7727
緘	-11.7727
閏四月	-11.7728
月初九日	-11.7728
右僕射	-11.773
被殺	-11.7732
六錢	-11.7732
靳輔	-11.7732
明安穆昆	-11.7732
十觔	-11.7733
知照	-11.7734
吝	-11.7734
八座	-11.7734
搏拊	-11.7736
僚佐	-11.7736
有情願	-11.7737
領縣十	-11.7738
覿	-11.7739
律文	-11.7739
餻	-11.7741
銀五十兩	-11.7742
茶酒	-11.7742
前導至	-11.7743
較前	-11.7744
虧欠	-11.7744
本監	-11.7745
數少	-11.7746
控鶴	-11.7747
綠旗	-11.7747
仍照原	-11.7748
石灰	-11.775
三年之喪	-11.7751
民命	-11.7751
嵗入	-11.7753
勲官	-11.7753
永定河	-11.7756
犍為	-11.7756
城堡	-11.7758
正中設	-11.7758
淮北	-11.776
左右廂	-11.7761
贊引官	-11.7762
十六年二月	-11.7763
天氣	-11.7766
僖宗	-11.7767
禁革	-11.7767
乾隆四十三年	-11.7767
畢樂止	-11.7769
行事官	-11.777
請勅	-11.7771
勸諭	-11.7771
杏山	-11.7774
江西浙江	-11.7774
一身	-11.7776
各邉	-11.7777
下户	-11.7777
初犯	-11.7777
侍衛等	-11.7781
九年三月	-11.7781
各歸	-11.7782
州四縣	-11.7783
較重	-11.7783
隨副都統	-11.7784
初授	-11.7785
額勒	-11.7786
揚州府	-11.7787
山梁	-11.7788
七百三十	-11.7789
撈	-11.7789
去取	-11.7791
扛	-11.7791
和卓	-11.7791
紹興中	-11.7791
二座	-11.7792
瀦	-11.7792
徂	-11.7793
特遣	-11.7794
集十二卷	-11.7794
諸葛亮	-11.7794
字樣	-11.7794
苻	-11.7795
脇	-11.7795
罰俸一月	-11.7795
蓆	-11.7796
江寧府	-11.7796
捐軀	-11.7797
縢	-11.7797
氏正藍旗漢軍	-11.7797
蚤	-11.7798
殞	-11.7798
就望瘞位	-11.7799
暄	-11.7799
此法	-11.78
徵銀	-11.78
敢有	-11.78
諸州使人	-11.7801
彫	-11.7802
紹定	-11.7802
儋	-11.7802
八年六月	-11.7802
先代	-11.7804
其酋	-11.7804
耕者	-11.7804
皇皇	-11.7805
需銀	-11.7805
掾屬	-11.7806
文徳殿	-11.7809
乾隆三十一年	-11.7809
道右	-11.781
各案	-11.781
竭力	-11.781
啟聖	-11.7811
漢家	-11.7814
江寕	-11.7814
巴拉	-11.7815
王室	-11.7816
食物	-11.7816
霍光	-11.7817
還大次	-11.7819
左右武衛	-11.7819
應如所請	-11.782
朝宗	-11.782
揚雄	-11.7821
允宜	-11.7825
單月	-11.7825
陟降	-11.7826
十年題準	-11.7826
造化	-11.7827
得勝	-11.7829
氏鑲黄旗滿洲	-11.7829
各衛所	-11.783
鈒花	-11.7832
遵義	-11.7833
給由	-11.7833
準此	-11.7836
塔山	-11.7836
前鋒侍衛	-11.7837
黄銅	-11.7837
御覽	-11.7837
十四年四月	-11.7839
典膳	-11.7839
兩宫	-11.784
八頃	-11.784
所欲	-11.784
二章	-11.784
孝惠	-11.7842
金帶	-11.7844
開載	-11.7845
赦文	-11.7846
象罇	-11.7846
而獨	-11.7846
為凖	-11.7848
八旗滿洲䝉古	-11.7849
留意	-11.785
大破	-11.7851
為業	-11.7851
宋儒	-11.7852
臺省	-11.7852
是知	-11.7853
承種	-11.7853
猶可	-11.7854
遷延	-11.7854
重慶	-11.7855
收管	-11.7855
就席	-11.7857
紹興府	-11.7857
𬗟	-11.7859
鋄	-11.786
詒	-11.786
淆	-11.786
𠫭	-11.7861
選拔	-11.7862
芟	-11.7862
態	-11.7862
樂歌	-11.7862
長三丈	-11.7862
鍳	-11.7863
𦙍	-11.7864
瓠	-11.7864
耨	-11.7864
聽政	-11.7864
楣	-11.7865
宋人	-11.7865
少前	-11.7865
東門之外	-11.7865
恭候欽定	-11.7867
在朝	-11.7868
中士	-11.7868
大理卿	-11.7868
媯	-11.7868
所編	-11.7869
歐陽修	-11.7869
壼	-11.787
福陵昭陵	-11.787
不虞	-11.7872
鋤	-11.7872
絳紗袍	-11.7872
開鑄	-11.7872
遣使來	-11.7872
頒詔天下	-11.7873
外洋	-11.7873
六年議準	-11.7873
寶相花	-11.7874
罔極	-11.7875
内贊	-11.7875
非謂	-11.7876
升東階	-11.7877
頻年	-11.7877
而不用	-11.7878
利用	-11.7878
揖位	-11.7879
各五人	-11.7881
載籍	-11.7881
儀式	-11.7882
軍糧	-11.7882
隂陽之	-11.7883
鑲黄旗漢軍	-11.7883
精誠	-11.7883
巴克	-11.7884
乾祐	-11.7884
東萊	-11.7887
皆須	-11.7888
州二縣	-11.7888
勤慎	-11.7888
清齋	-11.7888
同正位	-11.7889
成法	-11.789
下大夫	-11.789
相者引	-11.7891
駝馬	-11.7894
以病	-11.7894
裁定	-11.7895
王以下各官	-11.7895
崇慶	-11.7897
宫觀	-11.7897
著書	-11.7898
享祀	-11.7899
固請	-11.7899
助奠	-11.7899
孝昭	-11.7901
久不	-11.7901
二萬石	-11.7902
項羽	-11.7902
元年封	-11.7902
天頂	-11.7903
萬世之	-11.7903
瀚海	-11.7904
永樂間	-11.7905
各半	-11.7906
順成	-11.7906
剩	-11.7907
反叛	-11.7908
一倍	-11.7908
題㕘	-11.7908
在府西	-11.7908
子粒	-11.791
獻酒	-11.791
滿洲蒙古漢軍	-11.7911
給錢	-11.7913
小斂	-11.7914
附入	-11.7914
勅令	-11.7917
申詳	-11.7918
郴州	-11.792
太稷	-11.7921
均平	-11.7922
六十餘	-11.7923
興宗	-11.7924
閽	-11.7925
自西階	-11.7926
派往	-11.7926
以爵授執事者	-11.7926
咫尺	-11.7927
蹇	-11.7927
肘	-11.7927
女史	-11.7928
徴収	-11.7928
咄	-11.7928
流傳	-11.7928
喜峯口	-11.7929
荒政	-11.7929
一丈一尺	-11.7929
欽定四庫全書大唐開元禮卷	-11.7929
常行	-11.793
西境	-11.7931
冠軍使	-11.7932
應舉	-11.7932
閒㪚	-11.7932
之二世孫	-11.7935
湛露	-11.7935
寛大	-11.7936
兕	-11.7937
主帥	-11.7937
𤣥纁	-11.7937
百一十	-11.7938
五旗	-11.7938
七年七月	-11.7939
近南	-11.7941
之妻馬	-11.7946
禮部郎中	-11.7947
不以為	-11.7949
溝渠	-11.7949
隨往	-11.7952
免役	-11.7955
率由	-11.7955
一靣	-11.7956
駐防官兵	-11.7957
二千三百	-11.7958
率所部	-11.7958
東華門	-11.7959
衙前	-11.7959
暹羅國	-11.796
正隆	-11.796
從重論	-11.7961
名之曰	-11.7961
賊犯	-11.7962
賑給	-11.7963
六百九十	-11.7964
圖籍	-11.7965
冬官	-11.7965
岷州	-11.7965
收掌	-11.7965
上壽	-11.7966
運道	-11.7966
日麗	-11.7966
永光	-11.7967
擒斬	-11.7967
章服	-11.7967
右司	-11.7968
詳載	-11.7968
記注	-11.7968
九百三十	-11.797
二十餘年	-11.7971
丹墀内	-11.7971
仍元	-11.7972
海西	-11.7972
兵二百名	-11.7973
團龍	-11.7974
下流	-11.7974
乾隆十年	-11.7976
王士	-11.7976
御書額曰	-11.7976
授騎都尉	-11.7977
張衡	-11.7978
乾隆十七年	-11.7979
相因	-11.798
無定額	-11.798
[...]
