<unk>	0
<s>	0
</s>	0
之	-4.25504
以	-4.71734
/	-4.83785
而	-4.87468
為	-4.98506
其	-5.24414
者	-5.28312
也	-5.29757
有	-5.33521
(	-5.34669
公	-5.44336
於	-5.48574
)	-5.53399
)(	-5.57341
人	-5.60955
不	-5.63028
曰	-5.65789
則	-5.8177
與	-5.84282
一	-5.88925
至	-5.89673
自	-5.90197
時	-5.94359
上	-5.94361
無	-5.96048
大	-6.08214
事	-6.08381
言	-6.08733
王	-6.09563
皆	-6.15992
中	-6.16815
及	-6.17324
又	-6.1759
子	-6.18806
所	-6.19064
▁	-6.25023
矣	-6.2648
如	-6.26813
行	-6.2803
在	-6.29241
知	-6.29957
得	-6.34046
復	-6.34945
亦	-6.3689
先生	-6.37768
是	-6.41665
故	-6.41816
此	-6.42633
乃	-6.43227
出	-6.4382
見	-6.44226
使	-6.44833
于	-6.48321
即	-6.51812
然	-6.51823
非	-6.52894
道	-6.5348
氏	-6.54279
明	-6.55045
等	-6.55308
後	-6.55919
官	-6.5836
三	-6.60128
兵	-6.61394
遂	-6.61692
當	-6.61838
山	-6.62648
今	-6.6413
乎	-6.64165
文	-6.64272
書	-6.6632
從	-6.66815
歸	-6.6713
心	-6.67171
若	-6.67665
臣	-6.67916
已	-6.68856
命	-6.69188
欲	-6.69209
可	-6.70633
正	-6.70792
用	-6.71874
多	-6.72013
必	-6.72726
將	-6.72937
生	-6.7297
入	-6.74262
相	-6.74734
令	-6.74748
下	-6.76479
理	-6.77591
學	-6.78231
方	-6.79676
孫	-6.80002
天	-6.80458
名	-6.80527
安	-6.82391
謂	-6.82768
成	-6.82987
字	-6.84264
進	-6.84358
同	-6.84371
善	-6.84732
二	-6.85044
民	-6.866
州	-6.88524
請	-6.88828
徳	-6.89253
國	-6.8984
焉	-6.89853
因	-6.90801
陳	-6.90884
來	-6.92173
立	-6.92381
初	-6.9246
雖	-6.93008
去	-6.94736
且	-6.9533
日	-6.9534
卒	-6.96589
聞	-6.96672
張	-6.97424
君	-6.98228
常	-6.98863
未	-6.99385
處	-6.9946
死	-6.99484
詔	-7.00297
李	-7.01268
問	-7.01439
軍	-7.01618
禮	-7.03261
能	-7.03421
守	-7.03614
長	-7.03709
世	-7.04254
何	-7.04427
圖	-7.04949
爾	-7.05278
意	-7.05908
作	-7.0614
實	-7.06925
定	-7.07199
任	-7.07213
家	-7.08155
吾	-7.08186
居	-7.08493
我	-7.08566
元	-7.09681
既	-7.10349
惟	-7.1092
先	-7.11212
本	-7.11744
馬	-7.11912
賊	-7.11959
諸	-7.13108
始	-7.13247
傳	-7.13397
云	-7.13553
克	-7.13799
議	-7.13844
南	-7.13974
平	-7.15214
法	-7.15869
前	-7.16007
取	-7.16446
不可	-7.16592
/)	-7.16978
分	-7.17156
地	-7.17519
外	-7.17672
四	-7.17767
或	-7.183
城	-7.18641
義	-7.18925
原	-7.18967
金	-7.18994
以為	-7.19764
數	-7.20924
盡	-7.21055
論	-7.21489
思	-7.21577
求	-7.2192
舉	-7.2196
起	-7.2219
天下	-7.22432
水	-7.22562
和	-7.22793
夫	-7.22874
師	-7.23087
發	-7.23204
齊	-7.23255
由	-7.23563
重	-7.23649
達	-7.24166
帝	-7.24863
拜	-7.24902
授	-7.24985
易	-7.25104
五	-7.25267
通	-7.25524
治	-7.26155
過	-7.26523
武	-7.26757
除	-7.26865
耳	-7.28515
海	-7.29557
士	-7.29573
石	-7.29689
宜	-7.29727
奏	-7.30423
不能	-7.30561
劉	-7.3084
特	-7.30965
布	-7.30988
還	-7.31811
志	-7.3187
德	-7.319
都	-7.31962
清	-7.32646
遷	-7.33117
縣	-7.33203
甚	-7.34687
益	-7.34931
西	-7.35431
稱	-7.36182
改	-7.36567
衆	-7.36623
間	-7.36686
身	-7.3685
内	-7.36897
深	-7.37236
門	-7.37679
親	-7.37701
古	-7.38212
直	-7.38601
獨	-7.38833
原任	-7.38862
氣	-7.38951
東	-7.39844
父	-7.39881
周	-7.40033
語	-7.40222
宗	-7.41058
性	-7.41218
髙	-7.41294
年	-7.41393
合	-7.41466
兼	-7.42255
俱	-7.42468
修	-7.42633
賜	-7.42841
加	-7.43475
朝	-7.44384
固	-7.44901
嘗	-7.4495
哉	-7.45011
著	-7.45041
㑹	-7.45379
説	-7.46056
爲	-7.46125
色	-7.46139
納	-7.46764
凡	-7.4704
應	-7.47407
逺	-7.47719
少	-7.48139
保	-7.48314
主	-7.48409
兩	-7.48612
遣	-7.48652
白	-7.49277
次	-7.49353
興	-7.5028
其子	-7.50596
封	-7.51222
漢	-7.52318
濟	-7.52605
黄	-7.5267
猶	-7.5291
仁	-7.52957
動	-7.53392
小	-7.53406
章	-7.53472
經	-7.536
觀	-7.53759
坐	-7.54121
力	-7.5427
賢	-7.55206
降	-7.55484
樂	-7.55531
府	-7.55604
便	-7.5589
阿	-7.55956
信	-7.55966
召	-7.5708
尚	-7.57763
集	-7.58062
泰	-7.5814
陽	-7.58413
受	-7.58713
新	-7.5881
格	-7.58859
物	-7.59156
風	-7.59188
卿	-7.59287
誠	-7.59345
止	-7.59528
政	-7.59532
忠	-7.59711
功	-7.59718
服	-7.59931
難	-7.6003
終	-7.60088
辭	-7.62267
林	-7.63247
伯	-7.63517
神	-7.64127
致	-7.64436
宋	-7.64884
朝廷	-7.65136
往	-7.65396
如此	-7.65633
計	-7.66103
留	-7.66612
解	-7.66693
節	-7.66695
所以	-7.66863
吳	-7.67109
好	-7.67339
楊	-7.6751
就	-7.67562
福	-7.67566
光	-7.67836
屬	-7.68103
異	-7.68916
六	-7.69019
敵	-7.69107
九	-7.69701
吏	-7.69764
各	-7.69933
北	-7.70546
更	-7.70579
要	-7.70759
號	-7.70871
制	-7.71058
率	-7.71465
不得	-7.71588
所謂	-7.71594
食	-7.71746
穆	-7.72191
登	-7.72272
江	-7.72482
開	-7.72486
置	-7.72551
詩	-7.73247
視	-7.73313
陛下	-7.73814
近	-7.73914
真	-7.74014
再	-7.74195
老	-7.74315
敬	-7.74885
望	-7.74952
對	-7.74982
聖	-7.75045
舊	-7.75118
田	-7.75433
失	-7.76206
蘇	-7.76267
寧	-7.77042
首	-7.77411
晉	-7.77616
廣	-7.78235
教	-7.7885
病	-7.7902
察	-7.79068
萬	-7.79289
罷	-7.79508
罪	-7.79742
素	-7.80235
耶	-7.80252
亂	-7.80363
果	-7.8065
遇	-7.80669
河	-7.8067
司	-7.80755
郡	-7.81077
建	-7.81516
戰	-7.81665
利	-7.8191
悉	-7.8214
而不	-7.82419
職	-7.82505
隨	-7.82717
祖	-7.83043
口	-7.83066
謀	-7.83074
尋	-7.83196
聲	-7.83383
許	-7.84456
魯	-7.8454
百	-7.84634
具	-7.85071
才	-7.85689
疏	-7.85767
但	-7.85968
愛	-7.86132
考	-7.86176
學者	-7.86406
雲	-7.86454
奉	-7.86663
嚴	-7.86767
别	-7.86789
流	-7.86878
木	-7.86883
存	-7.869
代	-7.86987
惡	-7.87063
並	-7.87369
務	-7.87506
選	-7.87517
貴	-7.87871
度	-7.879
嵗	-7.88204
極	-7.88213
省	-7.88222
權	-7.88554
告	-7.88768
楚	-7.89122
唐	-7.89178
富	-7.89485
絶	-7.89941
攻	-7.90846
地方	-7.90906
推	-7.90969
史	-7.91245
母	-7.91268
尤	-7.91322
襲	-7.91345
朕	-7.91449
良	-7.91532
三年	-7.91939
每	-7.91962
領	-7.92241
羅	-7.92368
化	-7.92666
反	-7.92676
恐	-7.92724
交	-7.92841
額	-7.93128
龍	-7.93214
左	-7.93274
恩	-7.9346
引	-7.9378
巴	-7.9393
葢	-7.94441
雅	-7.94495
殺	-7.94503
精	-7.9488
會	-7.94931
侯	-7.94938
顧	-7.94952
久	-7.94973
退	-7.95009
私	-7.95075
顯	-7.95168
按	-7.95186
吉	-7.95319
乞	-7.9538
識	-7.95523
予	-7.95567
不知	-7.9572
營	-7.95891
永	-7.95945
端	-7.95992
載	-7.96079
趙	-7.96158
疑	-7.96977
邊	-7.97089
厚	-7.97565
喜	-7.97587
八	-7.97951
體	-7.98095
贈	-7.98155
豈	-7.98613
亡	-7.98855
念	-7.98981
記	-7.99166
全	-7.99207
他	-7.9936
表	-7.99478
汝	-7.99594
謝	-7.99606
路	-7.99616
位	-7.99651
薦	-7.99787
大臣	-7.99923
錫	-8.00044
情	-8.00225
疾	-8.00421
春	-8.00583
備	-8.00738
徐	-8.01154
遺	-8.01452
録	-8.01543
變	-8.01554
博	-8.01641
竒	-8.02176
順	-8.02439
簡	-8.02642
養	-8.02777
比	-8.02942
敗	-8.03178
彼	-8.03179
七	-8.03189
轉	-8.03517
承	-8.0394
陞	-8.0466
崇	-8.04845
諭	-8.04846
設	-8.04922
錢	-8.05039
持	-8.05305
廟	-8.05506
女	-8.05705
於是	-8.05706
給	-8.05866
十	-8.06032
移	-8.06264
胡	-8.06597
而已	-8.07009
伊	-8.07327
里	-8.07445
附	-8.07514
元孫	-8.07953
太	-8.08002
二年	-8.08167
朱	-8.08219
繼	-8.08457
仲	-8.08543
庫	-8.0875
岱	-8.08775
鎮	-8.08979
部	-8.09065
鄉	-8.09433
恭	-8.0946
鄭	-8.09486
夜	-8.09724
高	-8.0977
某	-8.10158
約	-8.10592
孝	-8.10885
願	-8.10899
村	-8.11016
曽孫	-8.11033
現任	-8.11341
充	-8.11371
玉	-8.11409
弟	-8.11538
列	-8.1167
歴	-8.12158
勒	-8.12278
獻	-8.12355
手	-8.12444
仍	-8.1261
延	-8.12667
擢	-8.12732
執	-8.12888
華	-8.12918
臨	-8.12979
勿	-8.13079
者也	-8.13229
土	-8.13374
秦	-8.13883
蓋	-8.13888
廢	-8.14007
衛	-8.14267
右	-8.14285
被	-8.14327
英	-8.14578
據	-8.15131
向	-8.15231
適	-8.15434
曹	-8.15588
斯	-8.16123
校	-8.16125
指	-8.16249
共	-8.16536
音	-8.16549
勞	-8.16569
尚書	-8.16593
調	-8.16738
盛	-8.16773
臺	-8.16821
月	-8.17106
塔	-8.17404
追	-8.17581
将	-8.17685
嘉	-8.18008
破	-8.18125
勝	-8.1827
餘	-8.18372
補	-8.18724
容	-8.18827
屯	-8.19099
塞	-8.19151
魏	-8.19239
莫	-8.19613
不敢	-8.19703
報	-8.19724
昭	-8.19744
赴	-8.19964
積	-8.2009
御史	-8.20184
愈	-8.20576
扵	-8.20701
說	-8.20758
可以	-8.20847
夏	-8.20852
宫	-8.21137
景	-8.21162
烏	-8.21357
徙	-8.21567
足	-8.21587
哈	-8.22246
儀	-8.22265
第	-8.22444
尊	-8.2258
静	-8.22666
只	-8.22701
隂	-8.22892
郎	-8.23155
君子	-8.23271
美	-8.23321
錄	-8.24108
堂	-8.24334
典	-8.24412
幸	-8.24423
宣	-8.24779
原任驍騎校	-8.24818
一日	-8.25476
幾	-8.25539
闗	-8.25653
覺	-8.25685
辨	-8.25768
責	-8.2589
盖	-8.26086
怒	-8.26659
陵	-8.26804
威	-8.27118
滿	-8.27158
衣	-8.27174
感	-8.27182
擊	-8.27833
强	-8.28153
輕	-8.2827
鄂	-8.28296
業	-8.28372
呉	-8.28392
試	-8.28442
科	-8.28501
赫	-8.28537
敏	-8.28558
屢	-8.28589
叔	-8.28632
紀	-8.28807
頭	-8.28822
習	-8.28854
須	-8.29064
無所	-8.2908
禁	-8.29211
窮	-8.29336
兮	-8.29649
藏	-8.29668
原任䕶軍校	-8.29773
累	-8.29948
散	-8.29959
拉	-8.29977
進士	-8.30348
越	-8.30396
并	-8.30603
之學	-8.30696
連	-8.30753
梁	-8.30955
明年	-8.3104
却	-8.31248
御	-8.31695
目	-8.31816
来	-8.31969
未嘗	-8.32118
泉	-8.32295
讀	-8.32318
聖人	-8.32369
待	-8.3297
賞	-8.33001
公曰	-8.3307
邑	-8.33204
族	-8.33252
急	-8.33302
𫝊	-8.33317
朱子	-8.33379
祠	-8.33699
講	-8.33977
弗	-8.34387
憂	-8.34421
逹	-8.34512
獲	-8.34733
韓	-8.34933
四年	-8.34994
舍	-8.35098
曽	-8.35521
免	-8.35621
有所	-8.35665
倫	-8.3567
詳	-8.35792
懼	-8.363
工夫	-8.36354
侍	-8.3649
謹	-8.3649
斷	-8.36525
索	-8.36567
京師	-8.36749
靈	-8.36791
黨	-8.368
伏	-8.36878
舟	-8.36907
造	-8.37155
狀	-8.37194
慮	-8.37208
聽	-8.3725
五年	-8.37284
息	-8.37296
孔子	-8.37376
之心	-8.37422
殿	-8.37583
資	-8.38026
昌	-8.38156
榮	-8.38165
亮	-8.38179
后	-8.38188
其孫	-8.38276
帥	-8.38362
沙	-8.3874
征	-8.38777
現	-8.3881
戒	-8.39078
蜀	-8.39116
逆	-8.39286
負	-8.39417
草	-8.39465
皇	-8.39492
費	-8.39528
元年	-8.39596
期	-8.39626
左右	-8.39661
天子	-8.39708
懐	-8.39966
春秋	-8.39983
監	-8.40075
似	-8.40277
飛	-8.40359
瑚	-8.40556
序	-8.40606
客	-8.40607
偽	-8.40617
獄	-8.40892
渾	-8.40983
送	-8.41113
輒	-8.41147
闕	-8.41245
禄	-8.41288
車	-8.41327
而後	-8.41355
籍	-8.41397
專	-8.416
悟	-8.41632
曾孫	-8.41779
羣	-8.41904
希	-8.42086
微	-8.42137
友	-8.42628
空	-8.42691
離	-8.42832
孟	-8.42947
棄	-8.43023
讀書	-8.43141
曰吾	-8.43149
青	-8.43154
慶	-8.43268
運	-8.43389
之間	-8.43403
京	-8.43534
邪	-8.4365
統	-8.43664
儒	-8.43728
叛	-8.43757
訓	-8.43764
余	-8.43919
俗	-8.44057
慎	-8.44147
最	-8.44388
收	-8.44523
密	-8.44531
賦	-8.44606
柱	-8.44786
宻	-8.44872
巳	-8.44948
走	-8.44957
撫	-8.45194
器	-8.45378
撰	-8.45384
謂之	-8.45398
喀	-8.45454
隆	-8.45506
游	-8.45516
珠	-8.45568
虚	-8.45572
冦	-8.45718
齋	-8.45818
犯	-8.45907
溪	-8.45922
憲	-8.45955
到	-8.45955
擇	-8.46004
澤	-8.46219
秋	-8.46279
舒	-8.46713
依	-8.46863
昔	-8.46896
爵	-8.46957
人心	-8.47348
質	-8.47569
切	-8.47598
碑	-8.47637
稍	-8.47668
誅	-8.47773
洪	-8.47855
卷	-8.48271
智	-8.48483
郭	-8.48761
咸	-8.48782
竟	-8.48944
牧	-8.48975
將軍	-8.48983
工	-8.49014
兄	-8.49035
學士	-8.49073
祭	-8.49097
喪	-8.49118
嗣	-8.49261
迎	-8.49281
機	-8.49519
寺	-8.4965
為之	-8.49667
火	-8.49684
根	-8.49844
温	-8.49867
甫	-8.49892
葉	-8.49992
徃	-8.50044
遊	-8.50318
仕	-8.50385
川	-8.50443
至於	-8.50912
輔	-8.51135
勢	-8.51404
雜	-8.51716
總	-8.51833
面	-8.51849
揚	-8.52179
援	-8.52228
關	-8.52244
傷	-8.52503
其所	-8.52553
顔	-8.52931
回	-8.53074
滅	-8.53155
不足	-8.53212
佛	-8.53325
騎	-8.53328
放	-8.53458
忽	-8.5354
之後	-8.53619
頗	-8.53623
宰相	-8.53879
蔡	-8.54006
䇿	-8.54222
刑	-8.54251
形	-8.54293
象	-8.54355
勤	-8.54524
苦	-8.54539
示	-8.54582
允	-8.55077
副	-8.55353
惠	-8.55394
敢	-8.55424
編	-8.55446
之所	-8.55667
商	-8.55674
趨	-8.55798
酒	-8.55818
勸	-8.55828
畢	-8.55912
危	-8.56024
)○	-8.56114
施	-8.56229
訥	-8.56365
瑪	-8.56544
圍	-8.5657
曾	-8.56872
薄	-8.56926
呼	-8.56991
室	-8.57555
偕	-8.57566
答	-8.57579
襲職	-8.57725
差	-8.57782
操	-8.57914
六年	-8.57936
哀	-8.57974
怨	-8.5814
之意	-8.58192
不為	-8.58271
那	-8.58572
休	-8.58594
原任筆帖式	-8.58639
詞	-8.58756
康	-8.59077
程	-8.59114
天地	-8.59172
寛	-8.59273
卒其子	-8.59285
孤	-8.59314
其後	-8.59459
八年	-8.59459
尼	-8.59615
歲	-8.59657
釋	-8.59718
徒	-8.59801
對曰	-8.59876
結	-8.59945
振	-8.60003
户	-8.60052
聚	-8.60104
孔	-8.60135
了	-8.60212
爭	-8.60256
役	-8.60269
畏	-8.60515
千	-8.60557
松	-8.6088
忘	-8.61054
便是	-8.61251
維	-8.61506
謁	-8.61629
寳	-8.61869
決	-8.61953
之子	-8.62076
害	-8.62084
助	-8.6233
隠	-8.62365
署	-8.62379
申	-8.62454
漸	-8.62505
何以	-8.62759
敦	-8.62792
避	-8.63117
寵	-8.63134
宿	-8.63561
諫	-8.63902
階	-8.63911
人也	-8.64133
奪	-8.64165
堅	-8.64241
杜	-8.64551
祀	-8.64562
純	-8.6467
四世孫	-8.64785
之説	-8.64854
班	-8.64875
㫖	-8.64942
畧	-8.65144
患	-8.65368
普	-8.65445
縱	-8.65567
季	-8.65628
勇	-8.65632
燕	-8.657
七年	-8.65729
佐	-8.6599
十年	-8.66216
靜	-8.66222
於此	-8.66234
妻	-8.66372
條	-8.66381
夷	-8.66393
莊	-8.66451
市	-8.66495
未幾	-8.66789
馳	-8.67031
末	-8.67265
妄	-8.67302
例	-8.67372
丹	-8.6739
刻	-8.67586
良知	-8.676
然後	-8.6768
乆	-8.67778
不及	-8.68116
河南	-8.68355
斬	-8.68731
茂	-8.68821
毎	-8.6888
廷	-8.68921
傅	-8.68953
之言	-8.69283
國家	-8.69287
一時	-8.69464
孟子	-8.69813
太宗	-8.69821
湖	-8.69897
筆	-8.70273
半	-8.70351
嶺	-8.70417
之道	-8.70427
托	-8.70467
現任䕶軍校	-8.70542
虛	-8.70558
禪	-8.70609
甲	-8.70728
述	-8.70753
之功	-8.70907
旗	-8.7093
圗	-8.71015
丁	-8.71025
判	-8.71113
禍	-8.71323
委	-8.71437
彦	-8.71476
致仕	-8.71476
掌	-8.71633
牛	-8.71814
夫人	-8.71843
三月	-8.71898
督	-8.71932
優	-8.72291
什	-8.72309
有司	-8.7234
横	-8.72485
俊	-8.72573
姓	-8.72679
肅	-8.72758
原任佐領	-8.72821
遣使	-8.72936
曰此	-8.72948
談	-8.7305
以來	-8.73156
劾	-8.73233
野	-8.73267
毋	-8.73332
一人	-8.73534
今日	-8.73629
沈	-8.73763
篇	-8.73861
逐	-8.7389
米	-8.7391
詣	-8.73958
震	-8.74028
救	-8.74077
丞相	-8.74263
未有	-8.74487
衞	-8.74657
茍	-8.74684
現任筆帖式	-8.74773
厯	-8.74791
岳	-8.74794
源	-8.74832
早	-8.74917
竊	-8.7492
境	-8.75235
糧	-8.75356
照	-8.75398
徴	-8.75449
㣲	-8.75486
伐	-8.75609
陜西	-8.75729
江西	-8.75737
翁	-8.75784
只是	-8.75805
范	-8.75871
聞之	-8.75931
俾	-8.75979
由是	-8.76054
偏	-8.76116
董	-8.76143
蘭	-8.76203
鼎	-8.7631
者皆	-8.76371
之士	-8.76387
係	-8.76509
假	-8.76574
葬	-8.76738
落	-8.76845
乾	-8.76967
淵	-8.76996
院	-8.77093
冬	-8.77462
接	-8.77486
奔	-8.77731
閩	-8.77959
増	-8.78081
虎	-8.78478
謙	-8.78493
參	-8.78533
辟	-8.78603
折	-8.7871
太子	-8.7878
現任驍騎校	-8.78934
承襲	-8.78936
南京	-8.78994
吕	-8.79
浚	-8.79071
庭	-8.79194
䝉	-8.79233
冠	-8.79373
介	-8.79447
曲	-8.79548
寜	-8.79569
抑	-8.79669
大夫	-8.79762
其言	-8.79796
晚	-8.80136
當時	-8.80267
自是	-8.8035
貢	-8.80572
管	-8.80594
可謂	-8.80723
貧	-8.80727
己	-8.8073
争	-8.80841
乗	-8.80953
均	-8.81011
討	-8.81341
畫	-8.81342
至是	-8.81363
脩	-8.81448
又曰	-8.8149
無不	-8.816
衡	-8.81828
略	-8.81878
賀	-8.81907
屈	-8.81937
丘	-8.81996
違	-8.82013
覆	-8.82122
▁(	-8.82243
亭	-8.82571
量	-8.82587
陸	-8.82696
占	-8.82806
尉	-8.8281
從之	-8.82848
之事	-8.83057
四方	-8.83172
墓	-8.83478
如何	-8.83543
天理	-8.8361
邦	-8.83615
偉	-8.83694
魚	-8.83788
誣	-8.83924
寨	-8.84044
小人	-8.84051
策	-8.84068
夀	-8.84091
否	-8.84186
愚	-8.84326
的	-8.84354
困	-8.84546
大軍	-8.84586
薩	-8.84599
八月	-8.84756
啟	-8.84873
諸將	-8.8489
决	-8.84966
革	-8.85033
仰	-8.85147
乘	-8.85154
剛	-8.8522
言之	-8.85306
門人	-8.85316
貞	-8.85329
靖	-8.85487
防	-8.85693
不以	-8.85842
兄弟	-8.85972
亟	-8.86098
卓	-8.86129
招	-8.86139
自然	-8.86691
藩	-8.8683
仁宗	-8.86835
貝勒	-8.86849
規	-8.86872
材	-8.86939
二人	-8.8694
知其	-8.8696
懷	-8.86974
式	-8.87062
先是	-8.87346
講學	-8.8752
遽	-8.87546
尹	-8.87874
吏部	-8.87898
夢	-8.87907
黙	-8.87923
豐	-8.88047
花	-8.88069
人之	-8.8836
船	-8.88409
之地	-8.88629
殊	-8.88659
古人	-8.88762
上曰	-8.88821
掠	-8.88872
子孫	-8.88877
唯	-8.88889
百姓	-8.88994
貫	-8.89025
住	-8.89059
夫子	-8.891
太守	-8.89174
僧	-8.89294
逮	-8.89346
邉	-8.89452
類	-8.89512
星	-8.89524
讓	-8.89811
暴	-8.90011
賴	-8.90114
侵	-8.90171
閣	-8.90171
九年	-8.90289
浮	-8.90356
是時	-8.9037
潛	-8.90453
預	-8.90792
界	-8.90825
䕶	-8.90943
循	-8.91124
虞	-8.91296
庶	-8.91299
兒	-8.91345
賚	-8.91414
樹	-8.91632
篤	-8.91664
效	-8.91861
駐	-8.91873
遁	-8.91949
斥	-8.92327
席	-8.92489
𨽻	-8.9249
五月	-8.92576
抵	-8.92708
論曰	-8.9287
綱	-8.92922
履	-8.93099
諸生	-8.93184
烈	-8.93204
足以	-8.93317
必有	-8.93456
庸	-8.93481
雄	-8.93497
盜	-8.93509
况	-8.93727
陷	-8.93804
飲	-8.93862
驚	-8.93873
執政	-8.93954
恨	-8.9428
九月	-8.94536
笑	-8.94545
寒	-8.94642
晏子	-8.94749
貪	-8.94756
訪	-8.94845
其事	-8.94866
雨	-8.9492
四月	-8.9492
干	-8.94992
捕	-8.9508
聖賢	-8.95361
亷	-8.95448
銘	-8.95473
險	-8.95498
熟	-8.95503
六月	-8.95538
徵	-8.95609
銀	-8.95696
是以	-8.95763
謨	-8.95776
案	-8.96116
蔽	-8.96136
誤	-8.96173
審	-8.96181
隱	-8.96201
壯	-8.96209
橋	-8.96408
弼	-8.96439
檄	-8.96646
看	-8.9669
聴	-8.96718
之孫	-8.9676
而無	-8.96892
有功	-8.96923
不同	-8.97025
多爾濟	-8.9708
鼓	-8.97191
投	-8.97197
厲	-8.97212
衰	-8.97239
謫	-8.97267
久之	-8.97274
築	-8.97309
奸	-8.97455
歌	-8.97515
十月	-8.97915
台吉	-8.97978
肆	-8.97987
佳氏	-8.98036
原任員外郎	-8.9806
財	-8.98089
之人	-8.981
誰	-8.98121
本體	-8.98176
宏	-8.98206
巻	-8.98273
升	-8.98371
毁	-8.98615
勲	-8.98682
父母	-8.98699
碩	-8.98807
垂	-8.98888
慕	-8.98902
襄	-8.98993
鼐	-8.9901
以此	-8.99097
内外	-8.99137
欽	-8.99235
陶	-8.99261
貶	-8.99271
山東	-8.99365
噶爾丹	-8.99457
不復	-8.99559
文公	-8.99566
逸	-8.99661
姑	-8.99945
此心	-9.001
谷	-9.00177
中書	-9.00285
陽明	-9.0033
親王	-9.00345
付	-9.00442
律	-9.00657
已而	-9.00996
奮	-9.01001
之時	-9.01067
輩	-9.01129
知之	-9.01325
躬	-9.01332
喇	-9.01384
公之	-9.01394
印	-9.01567
館	-9.01591
眀	-9.01606
金人	-9.01634
嵩	-9.01647
太祖	-9.01734
七月	-9.01801
兆	-9.01855
候	-9.0195
遜	-9.02001
祿	-9.0213
上下	-9.02277
恒	-9.02294
一切	-9.02456
佐領	-9.02622
洛	-9.02784
太后	-9.0284
倚	-9.03025
射	-9.03043
勉	-9.03168
𢎞	-9.03219
佳	-9.03763
題	-9.03822
徹	-9.03877
兼佐領	-9.03897
第一	-9.04042
赦	-9.04176
故事	-9.0418
秉	-9.04182
中庸	-9.04245
兹	-9.04304
札	-9.0442
誦	-9.0452
也今	-9.04583
駕	-9.04584
不過	-9.04629
擒	-9.04653
諱	-9.04916
樓	-9.0493
戎	-9.05079
其家	-9.05225
蕭	-9.05366
天下之	-9.05456
原任郎中	-9.05575
寶	-9.05854
弊	-9.05982
遵	-9.06146
旦	-9.06159
既而	-9.06423
十一月	-9.06476
擬	-9.06484
中外	-9.06962
孰	-9.07185
卒子	-9.07246
鹽	-9.07251
支	-9.07332
勅	-9.07644
格物	-9.07679
減	-9.07764
扎	-9.07827
竹	-9.07881
國公	-9.07918
使人	-9.07944
没	-9.08353
激	-9.08622
禮部	-9.08651
其心	-9.08676
𩔖	-9.08685
提	-9.08786
喀爾喀	-9.08825
秀	-9.0887
姦	-9.0899
僅	-9.09006
不如	-9.09193
沒	-9.09329
逃	-9.09495
注	-9.09522
雷	-9.09662
輙	-9.097
妾	-9.09733
旋	-9.0985
井	-9.09968
寢	-9.1006
細	-9.10067
戴	-9.10234
賈	-9.10246
宴	-9.1037
學問	-9.10376
基	-9.10393
鍾	-9.10474
不然	-9.10544
舎	-9.10595
從征	-9.106
完	-9.10706
妙	-9.10935
堪	-9.10968
來歸	-9.10982
虜	-9.11095
種	-9.11101
步	-9.11116
廉	-9.11208
鄧	-9.11238
五世孫	-9.1124
纔	-9.11465
俟	-9.11561
給事中	-9.11586
殆	-9.11703
雍	-9.11774
淮	-9.11878
太極	-9.11908
卜	-9.11931
十二月	-9.11979
莫不	-9.12029
閩書	-9.12199
粟	-9.1222
未發	-9.12238
士大夫	-9.12315
哲	-9.1243
褒	-9.12502
桑	-9.12597
耕	-9.13042
贊	-9.13119
荒	-9.13367
原任防禦	-9.13416
痛	-9.13482
郡王	-9.13837
幽	-9.13883
諡	-9.14024
傾	-9.14116
禦	-9.14326
不見	-9.14337
奇	-9.14442
萬物	-9.14505
同族	-9.14599
厥	-9.14664
甘	-9.1475
速	-9.14892
祥	-9.15103
不許	-9.15106
續	-9.15106
娶	-9.15324
太平	-9.15409
通判	-9.15876
羣臣	-9.15942
符	-9.16028
訟	-9.16036
配	-9.16054
藥	-9.16146
房	-9.16147
裁	-9.16161
壽	-9.16318
超	-9.16384
哭	-9.16788
惑	-9.1681
人皆	-9.16826
宇	-9.16875
弱	-9.16902
即是	-9.16951
政事	-9.17014
郎中	-9.17021
寄	-9.17164
儲	-9.17179
恃	-9.17193
竄	-9.17348
皇帝	-9.1738
池	-9.17683
侍郎	-9.17703
婦	-9.17813
渠	-9.1793
杖	-9.18055
一姓世居	-9.18105
噶	-9.18166
崔	-9.18168
缺	-9.18225
輸	-9.18228
豪	-9.18333
墨	-9.18394
背	-9.18417
平生	-9.18633
寂	-9.18675
二月	-9.187
黜	-9.1893
也故	-9.1896
拔	-9.19073
江南	-9.19154
汗	-9.19229
得其	-9.19241
叙	-9.19277
繫	-9.19284
故曰	-9.1945
扎薩克	-9.19455
諸侯	-9.19545
陣	-9.19583
嘉靖	-9.19818
亦不	-9.1982
渡	-9.19845
拒	-9.19951
子弟	-9.19971
為人	-9.20042
農	-9.20082
馮	-9.20389
専	-9.20402
出入	-9.2042
居正	-9.20576
先帝	-9.20608
雪	-9.20667
洞	-9.20771
徑	-9.21024
古今	-9.21054
秩	-9.21071
攝	-9.21105
績	-9.21433
殷	-9.21444
享	-9.21475
僕	-9.21477
其人	-9.21477
湯	-9.21617
軍校	-9.2184
損	-9.21887
倉	-9.21912
悔	-9.22091
䘮	-9.22241
辱	-9.22363
傑	-9.22379
又有	-9.22405
啓	-9.22454
大學	-9.22526
澄	-9.22528
趣	-9.22626
幼	-9.22688
汪	-9.22772
嗚呼	-9.2288
翰林	-9.22962
辯	-9.23051
慈	-9.23075
之際	-9.23092
文章	-9.23118
大學士	-9.23392
抗	-9.23417
言者	-9.23468
歳	-9.23521
二十年	-9.23856
災	-9.23884
鳴	-9.23942
不肯	-9.24094
究	-9.24208
惜	-9.24261
屏	-9.24562
行之	-9.24576
丞	-9.24653
蒙	-9.24925
是也	-9.2502
忤	-9.25045
叅	-9.25129
諾	-9.25131
賔	-9.25318
郊	-9.25399
之法	-9.25704
綽	-9.25877
削	-9.25906
榜	-9.25964
襲職時削去	-9.25977
伊川	-9.26159
託	-9.2616
寓	-9.26205
薨	-9.26253
靡	-9.26405
敎	-9.26442
彌	-9.26639
舜	-9.26647
吴	-9.26679
繁	-9.2668
禹	-9.26762
淺	-9.26825
詩云	-9.26908
峻	-9.26972
擾	-9.27065
明日	-9.27214
是非	-9.27275
後世	-9.27331
祖宗	-9.27431
得之	-9.27688
瞻	-9.27721
帶	-9.2773
凖噶爾	-9.2774
前後	-9.27786
晦	-9.27824
借	-9.2784
覽	-9.2788
壁	-9.28239
皆有	-9.28255
飾	-9.28333
𦵏	-9.284
植	-9.28489
寡	-9.2849
諌	-9.2853
歎	-9.28919
正月	-9.28937
之曰	-9.28993
遠	-9.29202
達理	-9.29204
不可以	-9.29212
俸	-9.29228
不從	-9.29287
遭	-9.29399
使者	-9.29434
味	-9.29632
十二	-9.29652
倡	-9.29709
翰	-9.29849
○	-9.29973
宅	-9.30002
以下	-9.30033
創	-9.30133
邁	-9.30174
戍	-9.30181
㓜	-9.3023
裕	-9.30248
先生曰	-9.30281
公言	-9.30362
堯	-9.30367
做	-9.30448
屋	-9.3046
𤣥	-9.30741
阿爾	-9.30796
員	-9.30833
至今	-9.30847
不忍	-9.30973
導	-9.30995
不容	-9.31022
盗	-9.31041
綬	-9.31077
朔	-9.31077
環	-9.31124
上疏	-9.31125
課	-9.31427
數十	-9.31479
梅	-9.31548
岸	-9.31641
宰	-9.31784
之外	-9.31856
幹	-9.31881
皇上	-9.31976
翼	-9.3209
如是	-9.32118
也夫	-9.32125
魁	-9.32359
賽	-9.3237
巨	-9.32406
瓦	-9.32502
見之	-9.32795
上書	-9.32813
出於	-9.32973
亦有	-9.33102
從容	-9.33123
檜	-9.33144
父子	-9.33181
露	-9.33258
卑	-9.33356
融	-9.33376
縁	-9.33417
萬厯	-9.33473
采	-9.33481
雲南	-9.3351
津	-9.33628
廬	-9.33642
薛	-9.33658
社	-9.33709
旁	-9.33712
明道	-9.33721
所部	-9.33757
紹	-9.33858
盧	-9.33919
為滿洲一姓此	-9.34028
字子	-9.34086
頃	-9.34153
見其	-9.34153
角	-9.34346
三日	-9.34367
十二年	-9.34434
不在	-9.34484
産	-9.34659
戸	-9.34661
泊	-9.34788
旣	-9.34859
怪	-9.34861
品	-9.34876
諭曰	-9.34942
跡	-9.3496
閒	-9.34994
巖	-9.35014
桂	-9.35116
警	-9.35216
二十	-9.35383
悦	-9.35441
瑞	-9.3545
併	-9.35528
盟	-9.35584
尺	-9.35606
不受	-9.35643
河東	-9.35778
句	-9.35833
遼	-9.36004
副使	-9.36008
雙	-9.36074
紹興	-9.36116
厭	-9.36138
議論	-9.36154
盤	-9.36339
毛	-9.36367
所著有	-9.36371
邵	-9.36389
州刺史	-9.36429
即位	-9.36682
斗	-9.36841
都督	-9.3685
不出	-9.36869
東南	-9.36915
值	-9.36918
園	-9.37056
誘	-9.37143
不必	-9.37151
㡬	-9.37158
增	-9.37185
艱	-9.37303
用兵	-9.3741
淳	-9.37461
社稷	-9.37506
洪武	-9.37561
浙江	-9.37749
提舉	-9.378
不至	-9.37811
與之	-9.37875
不當	-9.37973
弟子	-9.38042
輿	-9.38085
扶	-9.38093
竭	-9.38094
踰	-9.38123
騰	-9.38159
姜	-9.38189
其間	-9.38269
乾隆	-9.38348
坦	-9.38452
教授	-9.38478
歟	-9.38562
努	-9.38647
閲	-9.38736
泣	-9.38813
俄	-9.38815
等處	-9.38855
無事	-9.38902
欺	-9.38923
之日	-9.39093
緩	-9.39228
安石	-9.3934
用之	-9.39397
鐵	-9.39465
河北	-9.39479
彰	-9.39484
景公	-9.39525
都統	-9.39763
佟	-9.39793
阻	-9.39873
證	-9.39935
赤	-9.39987
脱	-9.40016
之義	-9.40052
頌	-9.40156
恥	-9.40264
潰	-9.40274
驕	-9.40329
冀	-9.40353
以示	-9.40436
所至	-9.4044
之中	-9.40466
無以	-9.40587
巡撫	-9.40588
窺	-9.40636
台	-9.40683
個	-9.4073
底	-9.40803
不報	-9.40804
現襲職又	-9.40941
欲以	-9.41069
迹	-9.41072
于是	-9.41073
聘	-9.41193
不行	-9.4124
逢	-9.41278
之理	-9.41353
何如	-9.41442
致知	-9.41465
堯舜	-9.41467
潔	-9.41529
天命	-9.41536
忌	-9.41542
樞	-9.41542
芳	-9.41584
途	-9.41629
活	-9.4164
拱	-9.41649
者亦	-9.41665
懿	-9.41807
貝子	-9.41898
囚	-9.41955
奈何	-9.41976
契丹	-9.41988
内閣	-9.42026
其曽孫	-9.42034
員外郎	-9.421
麟	-9.42207
也然	-9.42213
整	-9.42363
彭	-9.42388
追封	-9.42417
終日	-9.42521
勵	-9.42613
擅	-9.42728
吏部尚書	-9.42736
採	-9.42767
姚	-9.42802
長子	-9.42877
蘓	-9.42994
祝	-9.43244
童	-9.43449
㠯	-9.43469
術	-9.4349
相繼	-9.43506
熊	-9.43539
眞	-9.43546
其曾孫	-9.43616
黒	-9.43633
錯	-9.43765
曉	-9.43768
抱	-9.43776
鳯	-9.44004
仙	-9.4407
従	-9.4416
保住	-9.44189
十三年	-9.4421
浩	-9.44234
不用	-9.44278
斂	-9.4429
忍	-9.44381
豈不	-9.44427
湖廣	-9.44465
者必	-9.44545
滯	-9.44563
又言	-9.44585
肯	-9.44667
總兵	-9.44743
餉	-9.44864
許之	-9.44965
東林	-9.45017
珍	-9.45185
菴	-9.45198
買	-9.45235
峯	-9.4524
白沙	-9.45275
饑	-9.45299
洲	-9.45487
稽	-9.45513
簿	-9.45513
殘	-9.45716
像	-9.45739
往往	-9.4579
四川	-9.45858
所在	-9.45891
不是	-9.46076
尾	-9.46224
塘	-9.46239
羊	-9.46255
遂以	-9.46344
錦	-9.46458
所得	-9.46495
公為	-9.46566
輝	-9.46589
搆	-9.46589
成化	-9.46706
沉	-9.46882
憤	-9.47019
諸公	-9.47077
鮮	-9.47096
昏	-9.47185
崖	-9.47332
七十	-9.47385
滋	-9.47446
刺	-9.47747
骨	-9.4775
香	-9.47892
悲	-9.4792
地方人	-9.47948
袁	-9.47955
育	-9.48029
彬	-9.48034
流行	-9.48181
利害	-9.48257
喻	-9.48298
次子	-9.48352
逰	-9.48582
匿	-9.48635
譽	-9.48652
鄙	-9.48818
司馬	-9.48873
伸	-9.48899
之則	-9.48947
義理	-9.49004
氣質	-9.49032
至此	-9.49081
禮部尚書	-9.49147
公以	-9.49264
包衣	-9.49298
殺之	-9.4937
相與	-9.49502
大將軍	-9.49608
狂	-9.49777
副都統	-9.49823
十一年	-9.49864
毅	-9.49942
潜	-9.49954
也其	-9.49954
編修	-9.49973
茶	-9.50003
囘	-9.50084
逼	-9.50085
廣東	-9.50236
鑑	-9.50263
罰	-9.50274
亨	-9.50319
列傳	-9.50354
現係	-9.50368
伍	-9.50396
蕃	-9.50408
恤	-9.50483
潮	-9.50489
現任佐領	-9.50567
愧	-9.50581
不已	-9.50591
五十	-9.5063
豫	-9.50636
遲	-9.50668
挾	-9.50692
隂陽	-9.50706
檢	-9.50769
軒	-9.50799
公與	-9.50906
呂	-9.50916
衍	-9.50926
驛	-9.51126
旨	-9.51143
上言	-9.51168
壘	-9.51426
召為	-9.51487
塵	-9.51521
局	-9.51565
税	-9.51582
募	-9.51588
以其	-9.51703
神宗	-9.51931
文字	-9.52051
太學	-9.52177
原任步軍校	-9.52277
儉	-9.52296
矢	-9.52349
不足以	-9.52397
兵部尚書	-9.52428
衝	-9.5243
紫	-9.5251
停	-9.52674
強	-9.5275
夕	-9.52817
中原	-9.52947
波	-9.52952
碧	-9.52971
鑒	-9.53093
三十年	-9.53134
諸子	-9.53262
而去	-9.5327
永樂	-9.53382
洋	-9.53492
蠻	-9.53606
小名	-9.53607
布衣	-9.53632
他日	-9.53659
焚	-9.53727
大事	-9.53879
忠義	-9.53928
銓	-9.53947
掩	-9.53964
驗	-9.54001
福建	-9.54004
進退	-9.5414
不合	-9.5418
恩詔加	-9.54213
莽	-9.54254
柄	-9.54275
康熙	-9.54281
確	-9.54328
較	-9.54526
奚	-9.54566
港	-9.54586
往來	-9.54748
數日	-9.54756
戚	-9.54821
巴爾	-9.54979
其學	-9.551
州縣	-9.55167
血	-9.55375
煩	-9.55408
瓊	-9.55784
詩曰	-9.55786
矜	-9.55787
書院	-9.55829
有餘	-9.55879
十五年	-9.55904
男	-9.55949
闢	-9.56089
練	-9.561
衮	-9.56106
不免	-9.56184
坤	-9.5634
包	-9.56382
距	-9.56402
峰	-9.56472
也若	-9.56481
排	-9.56502
子曰	-9.56533
程子	-9.56612
沮	-9.56641
卧	-9.56742
䕶軍校	-9.56785
偶	-9.56808
善惡	-9.56822
幣	-9.56962
動静	-9.57033
蕩	-9.57325
世居	-9.57433
準	-9.57441
短	-9.57463
皇太子	-9.57509
㸃	-9.57571
玩	-9.57594
道理	-9.57676
側	-9.57769
醫	-9.57928
璧	-9.57942
頼	-9.57954
盈	-9.57957
契	-9.57957
十四年	-9.58123
凝	-9.58182
賤	-9.58237
北京	-9.58261
寇	-9.58265
奬	-9.58316
富貴	-9.58333
歩	-9.58345
其中	-9.58358
之臣	-9.58515
飭	-9.58587
用事	-9.58627
詢	-9.58631
者非	-9.5864
賛	-9.5873
禮樂	-9.58772
山西	-9.58776
召還	-9.58777
氣象	-9.58844
之謂	-9.58884
不相	-9.58892
貸	-9.58899
真宗	-9.5896
漕	-9.59093
恕	-9.59111
數年	-9.59119
又以	-9.59149
三人	-9.59163
杭	-9.59229
姬	-9.59254
古之	-9.59544
這	-9.59557
世祖	-9.59609
宮	-9.59629
以待	-9.59633
之氣	-9.59657
未能	-9.59669
不勝	-9.59717
之所以	-9.59732
以聞	-9.5976
耀	-9.59766
不宜	-9.59808
皇后	-9.59814
凖	-9.59872
歎曰	-9.59889
國初	-9.59891
䟽	-9.59917
六經	-9.60062
舉進士	-9.60079
榖	-9.60127
束	-9.60193
敕	-9.60193
懸	-9.60205
正統	-9.60236
是年	-9.60373
人情	-9.60427
名臣	-9.60626
不與	-9.60703
倭	-9.60709
䝉古	-9.60758
原任主事	-9.60851
輔國公	-9.60918
諸軍	-9.61135
儒者	-9.61269
黎	-9.61286
無窮	-9.61292
之體	-9.61321
六世孫	-9.61375
乏	-9.61452
其地	-9.6146
柔	-9.61533
國之	-9.61585
為學	-9.61746
潤	-9.61784
堡	-9.61848
詐	-9.61857
得失	-9.61894
供	-9.61943
拘	-9.62019
一事	-9.62066
豈可	-9.62124
長安	-9.62133
入覲	-9.62205
羌	-9.62249
耳目	-9.62262
嬰	-9.62341
協	-9.62354
青海	-9.62377
喬	-9.62407
三代	-9.6242
藉	-9.62501
千里	-9.62769
消	-9.62883
辦	-9.63162
以疾	-9.63229
瑾	-9.6337
窮理	-9.63373
自有	-9.63375
求之	-9.63389
英宗	-9.63457
之㫖	-9.63716
以兵	-9.63732
士卒	-9.63864
四十	-9.63881
収	-9.6391
詆	-9.64171
驅	-9.64233
麗	-9.64351
海内	-9.64386
閉	-9.64456
詠	-9.64528
謬	-9.64528
未至	-9.64661
額爾	-9.6467
況	-9.64875
一百	-9.64891
畜	-9.64998
鳳	-9.65028
其先	-9.65107
疆	-9.65118
終身	-9.65162
恪	-9.65191
諸臣	-9.65215
其身	-9.65364
裔	-9.65421
可見	-9.65422
鳥	-9.65569
先後	-9.65575
世忠	-9.656
八十	-9.65652
修撰	-9.65736
以自	-9.65744
先聖	-9.65786
葛	-9.65786
廵	-9.65795
寃	-9.65842
二子	-9.65851
以是	-9.65901
騎都尉	-9.66051
未嘗不	-9.66164
妻子	-9.66169
綏	-9.66198
道之	-9.6625
浙	-9.66268
於朝	-9.66279
日月	-9.66379
中國	-9.66395
誠意	-9.66455
貨	-9.66499
饒	-9.66549
任驍騎校	-9.66583
厄魯特	-9.66698
凌	-9.66829
想	-9.66844
仇	-9.66927
扎布	-9.66929
知府	-9.66987
人物	-9.67047
其意	-9.67063
涉	-9.67159
認	-9.6719
文武	-9.67223
㧞	-9.67291
栁	-9.67299
壊	-9.6731
妃	-9.67381
而下	-9.67402
輯	-9.67485
君臣	-9.67552
勘	-9.67619
轍	-9.67657
歛	-9.6769
騎校	-9.6777
始終	-9.67855
性命	-9.67859
文集	-9.6788
所居	-9.67884
百官	-9.67904
原任典儀	-9.67917
一旦	-9.67986
勑	-9.68045
時有	-9.68092
岡	-9.68112
巡	-9.68181
太原	-9.68379
稱其	-9.68424
丈	-9.68512
誓	-9.68534
蘭泰	-9.68552
皆以	-9.68651
之罪	-9.68669
聖學	-9.68737
未及	-9.68813
叙功	-9.68826
現任防禦	-9.68832
聰	-9.68927
之門	-9.68943
標	-9.68955
遣人	-9.68979
都御史	-9.68992
之初	-9.6902
眷	-9.69034
歡	-9.69068
旱	-9.69106
陰	-9.69155
祐	-9.69183
三十	-9.69292
禮部侍郎	-9.693
及其	-9.69302
紅	-9.69338
霸	-9.6935
曰我	-9.69351
捷	-9.69395
冒	-9.69413
不忘	-9.69425
擁	-9.69503
得罪	-9.69665
凶	-9.69679
閱	-9.69723
將士	-9.69788
罕	-9.69948
豈有	-9.69981
撤	-9.70013
塲	-9.70074
忿	-9.701
糾	-9.70104
而已矣	-9.70195
文學	-9.7024
郡守	-9.70287
疎	-9.70331
註	-9.70391
主事	-9.70428
潘	-9.70433
突	-9.70443
筆帖式	-9.70469
出為	-9.70656
倍	-9.7076
一物	-9.70764
淫	-9.70777
官至	-9.70831
安得	-9.70898
有一	-9.70904
緒	-9.70923
大抵	-9.70946
多所	-9.71068
展	-9.71133
公卿	-9.71147
所言	-9.71156
慰	-9.71258
十三	-9.71259
侍講	-9.71265
其父	-9.71316
崩	-9.7143
邀	-9.71521
不聽	-9.71608
然則	-9.71608
知縣	-9.71622
罔	-9.71668
以求	-9.71674
汛	-9.71733
家人	-9.71848
兵部	-9.71858
濫	-9.71899
㓂	-9.71902
寸	-9.7205
暮	-9.72123
不欲	-9.72155
為文	-9.72196
旌	-9.72237
死者	-9.72259
之故	-9.72367
其志	-9.72417
昇	-9.72417
成都	-9.7245
王氏	-9.72558
以上俱附載	-9.72559
而言	-9.7261
判官	-9.72635
謗	-9.72666
訴	-9.72668
仁義	-9.72804
鄒	-9.72988
鄰	-9.72996
蓄	-9.73017
劍	-9.73024
其衆	-9.73036
城中	-9.73064
君之	-9.73083
受命	-9.73156
塟	-9.73236
碩色	-9.73268
自古	-9.73314
大同	-9.7333
蒲	-9.73351
齒	-9.7337
十六	-9.7342
羽	-9.73457
矯	-9.73678
元祐	-9.73706
巧	-9.7374
鑲紅旗	-9.73777
嘆	-9.73887
森	-9.73973
詭	-9.74039
栢	-9.7404
者多	-9.74078
鹿	-9.74107
其實	-9.74152
懲	-9.74158
艾	-9.74209
雅圖	-9.74255
之志	-9.74324
不息	-9.74387
塗	-9.74396
縣令	-9.74398
詰	-9.74399
者以	-9.74464
總督	-9.74553
數百	-9.74725
可也	-9.74733
之語	-9.7475
析	-9.7476
磨	-9.74799
祁	-9.74812
此理	-9.74831
猛	-9.74834
江淮	-9.74836
庶幾	-9.74918
諸儒	-9.74994
衣冠	-9.7503
六十	-9.75063
嫌	-9.75097
觸	-9.7522
蹈	-9.75241
襲職卒其子	-9.75359
鄉人	-9.75384
隔	-9.75397
㠘	-9.75444
博士	-9.75479
奏事	-9.7552
級	-9.75545
岐	-9.75546
稅	-9.75614
當世	-9.75762
則有	-9.75795
氏曽祖	-9.75796
家居	-9.75818
有㫖	-9.75887
咎	-9.75971
建康	-9.76065
其罪	-9.76316
奠	-9.76342
来歸	-9.76389
限	-9.76471
澳	-9.76528
來朝	-9.76543
宦	-9.76585
鴻	-9.76636
中有	-9.76706
譏	-9.76749
囊	-9.76767
之名	-9.7677
雖有	-9.76844
天之	-9.76875
龜山	-9.76878
者乎	-9.76993
見得	-9.77012
人才	-9.77098
匪	-9.77112
夾	-9.77146
不言	-9.77162
潭	-9.77278
韶	-9.77306
未必	-9.77342
噶爾	-9.77372
範	-9.77459
查	-9.77462
誥	-9.77499
肉	-9.77509
上以	-9.77519
賑	-9.77528
晝	-9.7754
從事	-9.77578
十六年	-9.77849
東宫	-9.77865
不識	-9.77881
溢	-9.77919
該	-9.77924
廣西	-9.77974
自得	-9.78039
日用	-9.78075
鐘	-9.78242
刀	-9.78281
毒	-9.78317
諷	-9.78326
數萬	-9.78485
不得已	-9.78532
垣	-9.78685
之計	-9.78688
恩詔所	-9.78695
於心	-9.78731
也而	-9.78833
十五	-9.78862
擊之	-9.78871
天地之	-9.7899
臣等	-9.7903
健	-9.79068
而有	-9.79093
有二	-9.79097
精神	-9.79138
晝夜	-9.79145
桓	-9.79203
人主	-9.79247
𢎞治	-9.79267
絡	-9.79273
俞	-9.79403
上命	-9.79483
昭烈	-9.7957
主宰	-9.79661
心之	-9.79714
弓	-9.79815
之勢	-9.79875
涵養	-9.799
原任歩軍校	-9.79987
帝曰	-9.80028
教人	-9.80092
二百	-9.80092
洛陽	-9.80256
議者	-9.80258
書曰	-9.80273
渉	-9.80282
其功	-9.80342
憚	-9.80356
咨	-9.8051
朗	-9.80524
一也	-9.80528
命公	-9.80573
措	-9.80586
勦	-9.80666
勁	-9.8067
為善	-9.80864
障	-9.80921
鐸	-9.80955
理學	-9.80956
紳	-9.81023
迫	-9.81067
纂	-9.8108
任䕶軍校	-9.81239
天地萬物	-9.81252
然而	-9.8126
不起	-9.81278
以告	-9.8135
徽	-9.81357
耿	-9.81388
第二	-9.81391
轄	-9.81431
鋭	-9.81435
殁	-9.81448
壞	-9.81483
軾	-9.81489
南北	-9.8151
四人	-9.81589
段	-9.81788
曠	-9.81838
誌	-9.81841
墜	-9.81842
巢	-9.81849
戮	-9.81923
未知	-9.8194
鑲藍旗	-9.81975
而不知	-9.82058
懋	-9.82073
論語	-9.82187
十餘	-9.82232
返	-9.82309
桑格	-9.82345
藝	-9.82356
軍中	-9.82458
此書	-9.82547
劇	-9.82585
正紅旗	-9.82594
者為	-9.82618
屯田	-9.82635
蔣	-9.82642
為主	-9.82646
𠞰	-9.82665
際	-9.82676
擊敗	-9.82831
不少	-9.82866
十七年	-9.82902
户部	-9.83065
千餘	-9.83118
性之	-9.83147
飲食	-9.83167
頒	-9.832
如故	-9.8328
正白旗	-9.83284
不幸	-9.8335
戲	-9.83489
恣	-9.83497
亦是	-9.83497
曰臣	-9.83665
吾心	-9.83771
苗	-9.83821
所屬	-9.83845
繩	-9.83858
恵	-9.83885
數月	-9.83897
遏	-9.83915
有言	-9.83932
醉	-9.83955
旺	-9.84173
㳺	-9.84189
韋	-9.84216
而卒	-9.84241
偵	-9.84242
隙	-9.84375
鬼神	-9.84392
把	-9.84412
觀之	-9.84495
㨗	-9.84586
俘	-9.84625
以爲	-9.84634
之徒	-9.84676
坊	-9.84705
料	-9.84839
鏡	-9.84852
割	-9.84963
一二	-9.84987
蓀	-9.85025
無一	-9.85026
顔子	-9.85026
荆	-9.85066
率兵	-9.85118
留守	-9.85133
閔	-9.85146
陋	-9.85165
銘曰	-9.85191
地方人其孫	-9.85302
淑	-9.85376
矣然	-9.85411
任筆帖式	-9.85457
暨	-9.85467
鬼	-9.8548
墮	-9.85523
牙	-9.8558
亦無	-9.85595
奴	-9.85609
中興	-9.85675
之禮	-9.85705
莫能	-9.85902
敝	-9.85923
貳	-9.85928
含	-9.85948
稿	-9.85967
慷慨	-9.85978
渡江	-9.85994
即日	-9.86036
反覆	-9.86073
總管	-9.86153
太常	-9.86193
鶴	-9.86288
二字	-9.86354
飢	-9.86364
鑿	-9.86395
一言	-9.8643
莫敢	-9.86432
秦檜	-9.86439
竇	-9.86442
第三子	-9.86484
司徒	-9.86497
蒼	-9.86543
侍衛	-9.86552
原任牧長	-9.86566
宗室	-9.86612
琥	-9.86653
正藍旗	-9.86719
穀	-9.86776
膺	-9.86784
矩	-9.86797
迷	-9.86816
何為	-9.86818
之論	-9.86877
貽	-9.86911
現任員外郎	-9.87067
而歸	-9.87162
仗	-9.87167
之說	-9.87207
傍	-9.87251
炳	-9.87261
溥	-9.87262
敗之	-9.87336
黃	-9.8735
其才	-9.87385
所著	-9.87436
鈔	-9.87461
門下	-9.87484
不明	-9.87552
於人	-9.87593
凱	-9.87608
醇	-9.87649
祗	-9.87662
主簿	-9.87687
笑曰	-9.87718
麻	-9.87812
頓	-9.87901
好學	-9.87996
慨然	-9.88014
聖人之	-9.88021
探	-9.88061
快	-9.88064
暫	-9.88076
是故	-9.88092
匡	-9.88099
晏	-9.88161
所為	-9.88319
粹	-9.88361
實録	-9.88363
競	-9.88368
郡縣	-9.88401
冊	-9.88402
神道	-9.88413
一念	-9.88523
甞	-9.88634
駭	-9.88692
不若	-9.88699
為政	-9.88718
辰	-9.88755
不動	-9.88787
終不	-9.88916
倒	-9.88923
聰明	-9.88943
琦	-9.88969
而止	-9.88983
驍騎校	-9.89034
旅	-9.8909
改元	-9.89092
願陛下	-9.89188
聞見	-9.89303
徇	-9.89349
生死	-9.89358
濬	-9.89365
浪	-9.89373
人以	-9.89416
同知	-9.89445
風俗	-9.89478
時時	-9.89515
藍	-9.89621
翰林學士	-9.89622
圓	-9.89686
怠	-9.89899
等兵	-9.89933
公諱	-9.89955
朝夕	-9.89977
不失	-9.89982
覩	-9.9
宣徳	-9.9012
乃以	-9.90142
苑	-9.90197
而還	-9.90219
邸	-9.90233
虐	-9.90266
帖	-9.90271
不易	-9.90272
諸路	-9.90299
冝	-9.90318
之書	-9.90324
達色	-9.90393
廷臣	-9.9053
軰	-9.90556
泛	-9.90674
之民	-9.90675
讐	-9.90683
緣	-9.90684
賣	-9.90708
之變	-9.90788
大節	-9.90926
浦	-9.90964
施行	-9.91005
五百	-9.91039
不聞	-9.91058
璫	-9.91093
尸	-9.91146
陳氏	-9.91179
先儒	-9.91214
舞	-9.91234
上意	-9.91242
公獨	-9.91291
猷	-9.91303
復以	-9.91366
二十一年	-9.91397
肇	-9.91496
輔臣	-9.91623
至善	-9.91631
其弟	-9.91798
西北	-9.91806
楞	-9.91823
江陵	-9.91835
懇	-9.91842
長史	-9.91848
周公	-9.91873
之才	-9.91889
原任驍	-9.91909
大小	-9.91929
世之	-9.91947
番	-9.92011
獵	-9.9204
貝	-9.9206
曰朕	-9.92127
巴顔	-9.92155
同列	-9.92284
踐	-9.92288
鈕	-9.92324
四海	-9.92354
以後	-9.92395
荷	-9.92414
僻	-9.92419
有大	-9.92424
累遷	-9.92442
與人	-9.92487
以歸	-9.92501
飬	-9.92509
在此	-9.92574
各有	-9.92579
經史	-9.92785
東西	-9.928
弔	-9.9281
紙	-9.92862
徧	-9.92891
妣	-9.92895
畨	-9.92901
祭酒	-9.93055
喜怒哀樂	-9.93079
何也	-9.93096
宥	-9.93194
之弊	-9.93197
單	-9.93198
粗	-9.93301
玠	-9.93306
知制誥	-9.93308
齎	-9.93343
贍	-9.93346
濠	-9.93356
藁	-9.93371
敷	-9.93532
延平	-9.93532
二公	-9.93632
妖	-9.93693
自謂	-9.93734
俱原任筆帖式	-9.93743
臯	-9.93756
不可不	-9.93766
朴	-9.93787
諸王	-9.93793
使之	-9.93794
曰是	-9.93799
賓	-9.9381
本末	-9.93856
者則	-9.93865
中丞	-9.93979
謂其	-9.93997
公在	-9.9403
不善	-9.94102
酋	-9.94122
又云	-9.94155
樸	-9.9425
無可	-9.94265
十一	-9.94273
觧	-9.94311
好惡	-9.94312
車駕	-9.94331
以上	-9.9434
之曽孫	-9.9435
銅	-9.94389
辛	-9.94457
襄陽	-9.94465
誼	-9.94466
國朝	-9.945
互	-9.945
中書舍人	-9.94525
慎獨	-9.94603
鎭	-9.94651
攜	-9.94703
弛	-9.94712
項	-9.94712
嗟	-9.94726
節度	-9.94783
烏珠	-9.94801
三千	-9.94931
而能	-9.94936
太師	-9.94951
漏	-9.94988
事君	-9.94995
故不仕祖	-9.95033
國史	-9.95071
憾	-9.95078
帖式	-9.95089
無他	-9.95142
幕	-9.95145
渭	-9.95181
三百	-9.95198
刑部	-9.95281
奉命	-9.95293
葉赫地方	-9.95304
四書	-9.9535
貴州	-9.95386
車凌	-9.95428
未可	-9.95457
爾圖	-9.95542
嘆曰	-9.95552
悼	-9.95554
漁	-9.95595
僉	-9.95623
不仕	-9.95627
荘	-9.95638
價	-9.9565
租	-9.95672
其餘	-9.95685
刺史	-9.95691
山川	-9.95975
正黄旗	-9.96002
賢者	-9.96008
酌	-9.96087
廵撫	-9.96091
駁	-9.96103
孚	-9.96115
偃	-9.96154
中官	-9.96171
數千	-9.96194
知覺	-9.96218
於外	-9.96279
之風	-9.96294
曽祖	-9.96338
槩	-9.96338
贈雲騎	-9.96508
牽	-9.96525
泥	-9.96559
長子乾隆	-9.96638
百餘	-9.96697
性也	-9.96703
思之	-9.96745
不絶	-9.96745
入朝	-9.96885
曰陛下	-9.96941
擊賊	-9.96943
閑	-9.97026
䘏	-9.97028
李氏	-9.97029
故也	-9.97069
侃	-9.97081
處之	-9.9715
原任䕶	-9.97166
而死	-9.97173
佞	-9.97268
派	-9.97302
不問	-9.97308
以備	-9.97414
所見	-9.97417
誨	-9.97428
睦	-9.97448
學術	-9.97456
寅	-9.97467
蠲	-9.97557
三司	-9.97597
不顧	-9.97741
而行	-9.97855
髙祖	-9.97898
頴	-9.97919
參政	-9.97923
慢	-9.97968
㫁	-9.98009
曰昔	-9.98021
嫁	-9.98034
奏曰	-9.98074
眼	-9.98183
扎薩克一等台吉	-9.98218
溺	-9.98218
班第	-9.98338
綸	-9.98372
萌	-9.98396
心體	-9.98423
隘	-9.98435
賂	-9.98476
讒	-9.98522
龜	-9.98636
達爾	-9.98702
溫	-9.98705
雲騎尉	-9.98749
萬里	-9.98788
盡心	-9.98798
其説	-9.98808
羅卜藏	-9.98846
峽	-9.98874
鑄	-9.98912
冲	-9.98915
混	-9.98936
召對	-9.98988
博學	-9.99091
現襲職	-9.99113
之命	-9.9924
測	-9.99274
任佐領	-9.99277
隋	-9.99367
只在	-9.99449
之上	-9.99476
平日	-9.99478
萬餘	-9.99567
昧	-9.99724
絳	-9.99743
陣亡	-9.99743
僚	-9.99782
爽	-9.99798
嶽	-9.99872
午	-9.99873
以進	-9.99931
枉	-9.99949
孝友	-9.99984
衮布	-10.0002
銜	-10.0013
十八	-10.0022
淡	-10.0031
大義	-10.0038
世孫	-10.0038
驟	-10.0039
為本	-10.0043
其元孫	-10.0044
不待	-10.0054
之文	-10.0056
者其	-10.0061
熈	-10.0071
漳	-10.0076
不自	-10.0077
至于	-10.0078
忠孝	-10.008
□	-10.009
御史中丞	-10.009
荀	-10.0096
撓	-10.0105
淮南	-10.0106
二十二年	-10.0115
髪	-10.0116
▁初來歸	-10.0125
人人	-10.0125
金陵	-10.0127
曰汝	-10.0127
人有	-10.0135
釋之	-10.0135
疲	-10.0135
茅	-10.0152
齡	-10.0153
隅	-10.0155
帛	-10.0158
安國	-10.0166
卦	-10.0174
脫	-10.018
絲	-10.0183
原任司庫	-10.0184
鄉里	-10.0184
淵源	-10.0185
裂	-10.0185
指揮	-10.0188
力行	-10.0189
爾等	-10.0194
成功	-10.0197
為國	-10.0205
江東	-10.0206
五人	-10.0208
字伯	-10.0214
無有	-10.0232
訖	-10.0237
進士授	-10.0237
不應	-10.0245
其名	-10.0245
謚	-10.0251
十九年	-10.0251
達什	-10.0253
而出	-10.0256
一心	-10.0256
寡人	-10.0264
當以	-10.0265
必以	-10.0268
透	-10.0277
之元孫	-10.0279
揭	-10.0282
氷	-10.0282
本朝	-10.0284
十八年	-10.0286
詩文	-10.0287
脅	-10.0307
賦詩	-10.0323
字仲	-10.0326
属	-10.0327
挺	-10.0328
朋友	-10.0333
曰今	-10.0341
都尉	-10.0356
以書	-10.0361
天道	-10.0368
不獲	-10.037
又何	-10.0372
邇	-10.0376
𤼵	-10.0377
奎	-10.038
太尉	-10.038
䧟	-10.0381
分别	-10.0383
司空	-10.0383
償	-10.0383
錦州	-10.0385
三等	-10.0387
經筵	-10.0394
道也	-10.0394
王公	-10.0401
京兆	-10.0403
鑲白旗	-10.0412
湛	-10.0415
轉運使	-10.0417
爾泰	-10.0423
枝	-10.043
姓名	-10.0431
也公	-10.0432
捐	-10.0432
影	-10.0433
無敢	-10.0438
故其	-10.0441
劉氏	-10.0443
五日	-10.0445
原任七品官	-10.0449
西南	-10.0452
曰君	-10.0459
原任䕶軍	-10.0461
効	-10.0467
以身	-10.0468
縉	-10.0471
亦以	-10.0474
見於	-10.0477
島	-10.0479
汴	-10.0479
㢘	-10.0479
伺	-10.0483
跪	-10.0485
禽	-10.0487
金華	-10.0489
不盡	-10.049
其母	-10.05
發明	-10.0507
諸郡	-10.0515
監司	-10.0517
丕	-10.0517
炎	-10.0518
者矣	-10.0518
嚮	-10.0519
萬人	-10.0519
城下	-10.052
為相	-10.0521
朋	-10.0521
藻	-10.0523
荆州	-10.0523
粤	-10.0526
鋒	-10.0527
祜	-10.0529
陜	-10.053
册	-10.0533
魂	-10.0535
侈	-10.0535
鄂爾	-10.0536
福州	-10.0536
分兵	-10.0539
游牧	-10.054
以死	-10.0543
之禍	-10.0552
百里	-10.0557
王師	-10.0557
十萬	-10.0562
望之	-10.0574
洽	-10.0577
久矣	-10.0579
俯	-10.0582
釁	-10.0586
矣而	-10.0587
誕	-10.0588
周子	-10.0588
婦人	-10.059
原任三等侍衛	-10.0592
召見	-10.0594
遼東	-10.0595
監察御史	-10.0597
若不	-10.0598
心也	-10.0603
和碩	-10.0609
分明	-10.0614
原任協領	-10.0619
萬世	-10.0628
薩哈	-10.0631
防禦	-10.0631
十四	-10.0631
觀其	-10.0632
壇	-10.0632
踵	-10.0636
浸	-10.0637
原係	-10.0637
播	-10.0639
燈	-10.0642
列𫝊	-10.0644
未免	-10.0648
變化	-10.0648
姪	-10.0661
評	-10.0661
姓世居	-10.0662
或問	-10.0666
之本	-10.0666
學校	-10.0666
嘗曰	-10.0669
騐	-10.0674
講論	-10.0674
以禮	-10.0675
乆之	-10.0683
而不能	-10.0684
佩	-10.0684
縛	-10.0686
孔子曰	-10.0688
殺人	-10.0698
論事	-10.071
守備	-10.0725
故不仕父	-10.0725
自此	-10.0725
逺近	-10.0732
現係生員	-10.0734
迪	-10.0737
裴	-10.0737
屠	-10.0739
㕘	-10.0741
効力	-10.0741
贓	-10.0746
湖南	-10.0747
根本	-10.0757
億	-10.0757
天性	-10.0762
博爾	-10.0762
一年	-10.0762
哩	-10.0763
年七十	-10.0766
平居	-10.0769
之要	-10.0774
老成	-10.0778
有以	-10.0779
曷	-10.0781
之用	-10.0782
節度使	-10.0782
矣故	-10.0783
琳	-10.0789
刼	-10.0789
蚤	-10.0794
以至	-10.0794
或有	-10.0797
諡曰	-10.0798
而非	-10.0808
之役	-10.0808
蒙古	-10.0814
程朱	-10.0815
執事	-10.0816
教諭	-10.0831
祚	-10.0833
以上俱有傳	-10.0836
之盛	-10.0838
工部	-10.0838
随	-10.0839
禀	-10.0843
漫	-10.0845
圭	-10.0847
叟	-10.0847
奏請	-10.0857
十餘年	-10.0864
言行	-10.0873
諸書	-10.0875
入見	-10.0879
貌	-10.0884
在外	-10.0887
四十年	-10.0888
元帥	-10.0889
訊	-10.0896
飯	-10.0896
流涕	-10.0905
止之	-10.0911
奉詔	-10.0912
釋氏	-10.0916
本心	-10.0922
棟	-10.0927
其為	-10.0927
今之	-10.0928
胥	-10.0928
静坐	-10.0929
輪	-10.0945
奕	-10.0949
穴	-10.095
退而	-10.095
守之	-10.0951
烏喇地方	-10.0951
軍節度使	-10.0953
其門	-10.097
掃	-10.0984
視之	-10.0986
次第	-10.0989
坡	-10.099
隸	-10.099
是日	-10.0991
為一	-10.0992
逾	-10.0994
有詔	-10.0996
泉州	-10.0996
可乎	-10.0997
山中	-10.0998
攸	-10.0999
脚	-10.1
之實	-10.1003
更無	-10.1004
用力	-10.101
諡文	-10.1013
州人	-10.1017
元豐	-10.1018
以上俱係應立傳之人	-10.1018
皆是	-10.1026
原任三等䕶衛	-10.1028
既至	-10.1031
地方人其子	-10.1031
大計	-10.1035
忠臣	-10.1041
費揚古	-10.1047
萬一	-10.1048
睿	-10.1048
至則	-10.1049
士竒	-10.105
察哈爾	-10.1052
梓	-10.1055
弄	-10.1057
熹	-10.1066
時政	-10.1068
死生	-10.1075
後人	-10.1082
諒	-10.1097
裏	-10.1099
仲尼	-10.1103
霍	-10.1103
龍溪	-10.1104
阿喇布坦	-10.1105
功名	-10.1106
汲	-10.1108
冕	-10.1109
孚敬	-10.1109
促	-10.1112
弱冠	-10.1113
燭	-10.1116
揚州	-10.1118
可為	-10.1118
所當	-10.1121
等地方	-10.1122
直言	-10.1131
曰卿	-10.1132
不樂	-10.1151
道學	-10.1155
戈	-10.1157
公子	-10.1161
物也	-10.1162
惰	-10.1166
得人	-10.1175
丗	-10.1179
吏民	-10.118
十里	-10.1183
繼之	-10.1189
不通	-10.119
柏	-10.1201
知止	-10.1205
匹	-10.1208
達爾漢	-10.1219
媚	-10.122
摧	-10.1221
暢	-10.1221
璘	-10.1221
太史	-10.1239
本無	-10.1247
紛	-10.1248
親弟	-10.1251
忠信	-10.1254
座	-10.1257
臧	-10.1265
修身	-10.1266
孝宗	-10.1267
掲	-10.1272
卽	-10.1274
一個	-10.1279
相傳	-10.1287
草木	-10.1292
行在	-10.1294
必欲	-10.1302
失其	-10.1306
乞休	-10.1315
溝	-10.1324
蛇	-10.1328
瑜	-10.133
晉江人	-10.1332
達頼喇嘛	-10.1333
一毫	-10.1336
必先	-10.1338
我軍	-10.134
鎮江	-10.1344
一見	-10.1346
原任驍騎	-10.1354
嘉祐	-10.1356
一身	-10.1359
西山	-10.1359
松山	-10.1366
是為	-10.1376
一貫	-10.1376
為滿洲一姓此一	-10.1378
奄	-10.1378
得以	-10.138
狄	-10.1381
披	-10.1381
聞者	-10.1382
侍從	-10.1383
惇	-10.1386
僖	-10.1392
詹	-10.1403
大體	-10.1413
所知	-10.1413
皮	-10.1424
誅之	-10.1424
械	-10.1431
取之	-10.1434
奥	-10.1435
稟	-10.1438
吟	-10.1438
問曰	-10.1439
門外	-10.144
括	-10.1443
于朝	-10.1446
百萬	-10.145
襲一次襲	-10.1452
之妙	-10.1456
師友	-10.1463
行省	-10.1485
聶	-10.1492
綿	-10.1493
譚	-10.1494
欵	-10.1494
人欲	-10.1494
韻	-10.1495
撃	-10.1497
奮勇	-10.15
不安	-10.1506
吾儒	-10.1507
薦之	-10.1512
不求	-10.1514
賜之	-10.1524
大敗	-10.1531
南陽	-10.1535
著書	-10.1539
遇事	-10.1548
夙	-10.1548
晟	-10.1548
忠賢	-10.1551
烏爾	-10.1556
若是	-10.1561
曰子	-10.1567
請以	-10.1569
豈非	-10.1569
俱原任	-10.1575
不便	-10.1579
有三	-10.1585
也乃	-10.1592
批	-10.1592
事物	-10.1601
軍民	-10.1609
彈	-10.1611
天祥	-10.1612
糴	-10.1612
刑部尚書	-10.1615
哈達地方	-10.1622
域	-10.1626
他人	-10.1639
甚衆	-10.1652
扈從	-10.1655
若此	-10.1657
摘	-10.1662
湘	-10.1662
龎	-10.1662
國事	-10.1664
庇	-10.1664
染	-10.1664
晨	-10.1665
藴	-10.1665
蠧	-10.1667
樊	-10.1669
翰林院	-10.167
一姓此一姓世居	-10.1675
也又	-10.1679
同時	-10.1681
之下	-10.1685
二十三年	-10.1693
内侍	-10.1694
由此	-10.1696
數百人	-10.1697
東平	-10.1699
今人	-10.1702
瑪爾	-10.1705
原任八品官	-10.1715
涵	-10.1715
秘	-10.1716
揆	-10.1717
近臣	-10.1718
㸔	-10.1721
讎	-10.1722
遍	-10.1723
暗	-10.1723
牢	-10.1724
按察使	-10.1724
歐陽	-10.1724
譴	-10.1725
二十七年	-10.1729
武帝	-10.1734
吏部侍郎	-10.1735
開元	-10.1737
其本	-10.174
佛氏	-10.1743
平江	-10.1745
多羅	-10.1755
則是	-10.1769
原任䕶軍叅領	-10.177
長沙	-10.1771
軍士	-10.1771
之餘	-10.1771
其長子	-10.1771
場	-10.1774
攷	-10.1776
攘	-10.1779
巫	-10.178
一體	-10.1781
元昊	-10.1785
遂為	-10.1794
之患	-10.18
少卿	-10.1806
麾	-10.1808
二十里	-10.1812
是謂	-10.1814
濓	-10.1817
俱現任筆帖式	-10.1818
明白	-10.1822
頤	-10.1825
考功	-10.1825
隴	-10.1827
叩	-10.1827
墨爾根	-10.1828
異端	-10.183
烟	-10.183
襲二次襲	-10.183
衷	-10.1833
芝	-10.1833
虧	-10.1835
佑	-10.1838
枕	-10.1839
甲辰	-10.1839
言語	-10.1841
卒年七十	-10.1844
有差	-10.1845
小字	-10.1848
數人	-10.1849
躬行	-10.185
哈達	-10.1851
宗廟	-10.1853
不屈	-10.1856
一字	-10.1857
之女	-10.186
乾道	-10.1865
大將	-10.1868
文成	-10.1872
公奏	-10.1874
教之	-10.1874
逺矣	-10.1877
開封	-10.1878
襲扎薩克一等台吉	-10.1884
以事	-10.1884
道徳	-10.1891
州郡	-10.1893
灣	-10.1894
戾	-10.1894
拂	-10.1896
薪	-10.1897
光武	-10.19
當國	-10.1907
現襲	-10.1911
法度	-10.1914
可用	-10.1921
孔孟	-10.1929
襲封	-10.1929
有聲	-10.1932
秩滿	-10.1935
象山	-10.1938
者有	-10.194
崇禎	-10.194
此言	-10.1941
躍	-10.1946
添	-10.1948
神明	-10.195
闡	-10.1951
繕	-10.1951
彊	-10.1953
鬭	-10.1954
湏	-10.1954
宰桑	-10.1955
僉事	-10.1956
或曰	-10.1957
仲淹	-10.1959
論學	-10.1961
立朝	-10.1962
齋先生	-10.1964
上怒	-10.1975
之節	-10.1978
而自	-10.1979
常州	-10.1987
諸人	-10.1989
長者	-10.1992
進士第	-10.1993
甚多	-10.1995
陟	-10.2009
▁初來歸其孫	-10.2009
無復	-10.2012
思慮	-10.2012
墳	-10.2012
▁初來歸其子	-10.2013
者不	-10.2014
横渠	-10.2014
製	-10.2018
工部尚書	-10.202
名曰	-10.2021
固有	-10.2028
於世	-10.203
斬之	-10.2038
薩爾	-10.2038
再拜	-10.2041
敗賊	-10.2042
不離	-10.2048
未見	-10.2051
所能	-10.2057
嘗言	-10.2057
受業	-10.2059
大怒	-10.2061
寫	-10.2072
恂	-10.2082
和議	-10.2109
何所	-10.211
其黨	-10.2124
駐防	-10.2127
婚	-10.2128
廕	-10.2129
挈	-10.2131
刋	-10.2131
苛	-10.2132
悖	-10.2133
未發之中	-10.214
率衆	-10.2146
功夫	-10.2147
未㡬	-10.2151
洗	-10.2159
年二十	-10.2159
則曰	-10.2166
晏子曰	-10.2166
大用	-10.2175
君子之	-10.2175
彥	-10.2178
牒	-10.2181
謂曰	-10.2183
索諾木	-10.2183
官吏	-10.2185
梗	-10.2188
王曰	-10.2188
豪傑	-10.2189
王安石	-10.219
銳	-10.2192
之制	-10.2197
正學	-10.2201
也吾	-10.2207
以功	-10.221
從子	-10.2212
無欲	-10.2216
用功	-10.2217
其一	-10.2221
官軍	-10.2228
生平	-10.224
不倦	-10.2243
摩	-10.2245
侮	-10.2249
𤦺	-10.2249
迨	-10.2249
十七	-10.2249
焦	-10.2251
當是時	-10.2258
終始	-10.2258
不允	-10.2259
大兵	-10.2262
察哈爾地方	-10.2267
著述	-10.2269
居官	-10.2274
掾	-10.2298
公主	-10.2299
截	-10.23
織	-10.2306
祈	-10.2309
者乃	-10.2309
搜	-10.2309
千古	-10.2311
提督	-10.2316
户部尚書	-10.2317
治道	-10.2322
與其	-10.2323
侍讀	-10.233
正徳	-10.2339
舉人	-10.2343
去之	-10.2343
道者	-10.2346
為先	-10.2347
與公	-10.2348
遣官	-10.2351
熙	-10.2354
已發	-10.2359
之性	-10.2364
至元	-10.2367
撥	-10.2368
求去	-10.2372
此是	-10.2374
以前	-10.2375
瑄	-10.2376
澹	-10.2378
有事	-10.2379
行狀	-10.238
出知	-10.2388
千載	-10.239
安撫	-10.2391
生於	-10.2403
不下	-10.2404
固辭	-10.2404
其下	-10.2411
人所	-10.2412
卓然	-10.2413
少師	-10.2418
上章	-10.242
文王	-10.242
以上俱世居	-10.2422
佛保	-10.2423
斃	-10.2425
昻	-10.2426
察罕	-10.2428
言官	-10.2429
後學	-10.2429
惟恐	-10.2433
板	-10.2434
汙	-10.2434
狐	-10.2435
者又	-10.2435
吐魯番	-10.2437
二日	-10.2437
之政	-10.2439
日夜	-10.2444
恢復	-10.2453
或以	-10.2455
遺書	-10.2465
歴任	-10.2465
真定	-10.2471
亦可	-10.2476
也先生	-10.2478
其書	-10.2482
無善無惡	-10.2487
慧	-10.2491
棺	-10.2498
第四子	-10.251
之難	-10.2516
程氏	-10.2517
猶未	-10.2519
千户	-10.2523
嘗謂	-10.2524
叅領	-10.2524
視事	-10.2531
侍中	-10.254
腹	-10.2541
車稜	-10.2551
服闋	-10.2554
琴	-10.2555
覈	-10.2555
驥	-10.2555
之前	-10.2557
穎	-10.2558
都察院	-10.2559
乖	-10.256
翠	-10.2563
刃	-10.2563
二十五年	-10.2567
至矣	-10.2572
閣臣	-10.2575
此事	-10.2582
大名	-10.259
叅政	-10.2592
授騎都尉	-10.2592
訂	-10.26
先君	-10.2603
知人	-10.2608
欽定四庫全書	-10.2609
敞	-10.2612
閏	-10.2613
不信	-10.2613
十名	-10.2614
廩	-10.2617
動靜	-10.2618
杭州	-10.2621
倪	-10.2621
不立	-10.2622
珙	-10.2626
諸賢	-10.2632
眉	-10.2635
身心	-10.2637
且曰	-10.2653
襲職又	-10.2659
恬	-10.266
憲宗	-10.2665
暑	-10.2678
樵	-10.2678
鈞	-10.2681
灌	-10.2682
臂	-10.2687
之教	-10.2692
有此	-10.2693
為心	-10.2695
風雨	-10.2701
輕重	-10.2709
治之	-10.2719
繇	-10.2728
酬	-10.273
問之	-10.2732
無愧	-10.2737
阜	-10.2744
區	-10.2745
致良知	-10.2745
再三	-10.2746
隊	-10.2746
俠	-10.2748
踰年	-10.2749
兵部侍郎	-10.2755
勛	-10.2755
不肖	-10.2767
賞罰	-10.2772
丁未	-10.2773
方是	-10.2777
非所以	-10.2784
雖然	-10.2789
師道	-10.28
久而	-10.2802
聞其	-10.2802
一語	-10.2805
父老	-10.2806
▁尉其子	-10.2808
哈爾	-10.2808
哨	-10.2809
挽	-10.281
贄	-10.2811
耻	-10.2812
工部侍郎	-10.2813
寮	-10.2813
四時	-10.2817
安危	-10.2818
惡之	-10.2818
等皆	-10.2819
七人	-10.2819
二十九年	-10.2824
二十四年	-10.2825
内附	-10.2826
無非	-10.2826
諸葛	-10.2828
髙宗	-10.2833
卒其	-10.2838
家貧	-10.286
民之	-10.2861
天順	-10.2862
人材	-10.2868
近世	-10.2868
裘	-10.2868
壬辰	-10.287
倘	-10.2871
爰	-10.2873
叢	-10.2873
先師	-10.2878
盜賊	-10.288
下獄	-10.2884
閹	-10.2884
性善	-10.2889
太監	-10.2895
原任六品官	-10.2899
鎮守	-10.29
少保	-10.2903
三子	-10.2909
無所不	-10.2918
莫非	-10.2919
嘗與	-10.2923
我師	-10.2926
應之	-10.2928
人君	-10.2929
貲	-10.2932
概	-10.2933
丹津	-10.2934
大理評事	-10.294
寕	-10.2941
於天	-10.2942
出處	-10.2944
國子監	-10.2945
不堪	-10.2952
為民	-10.2955
塔爾	-10.2959
卒無嗣	-10.297
不得不	-10.2976
孝弟	-10.2979
復為	-10.2981
張浚	-10.299
檢討	-10.2992
其文	-10.2994
納木扎勒	-10.2996
拖	-10.2997
碎	-10.2998
它	-10.2998
倖	-10.3001
堤	-10.3002
體認	-10.3004
皓	-10.3004
之議	-10.3006
徼	-10.3007
埀	-10.3007
漢中	-10.3007
賄	-10.3031
若有	-10.3039
掖	-10.3058
所載	-10.306
嘉定	-10.3061
者曰	-10.3064
科舉	-10.3065
璋	-10.3066
雖不	-10.3066
額森	-10.3077
乃止	-10.308
紀綱	-10.3082
大本	-10.3095
者甚衆	-10.3095
讀之	-10.3096
不赴	-10.3096
北征	-10.3097
四世	-10.3103
也此	-10.3107
爾哈	-10.3111
二格	-10.3111
矣今	-10.3114
恢	-10.3116
人倫	-10.3116
其義	-10.3123
前日	-10.3128
扼	-10.3132
潁	-10.3133
隣	-10.3135
庵	-10.3135
賔客	-10.314
减	-10.3142
握	-10.3142
元兵	-10.3151
如此則	-10.3166
異之	-10.3168
此意	-10.3169
未盡	-10.3171
䕶軍	-10.3172
珪	-10.3177
起居	-10.3177
用人	-10.3179
四格	-10.3183
之情	-10.3184
之行	-10.3192
揮	-10.3193
柴	-10.3194
於天下	-10.3196
緝	-10.3197
平定	-10.3197
召公	-10.3198
鞏	-10.3199
袍	-10.32
箴	-10.3201
寘	-10.3201
歿	-10.3202
鬻	-10.3202
喀喇	-10.3203
之謂也	-10.3205
不利	-10.3207
待之	-10.321
大明	-10.3216
巴圖	-10.3217
别有	-10.3219
太夫人	-10.3221
國夫人	-10.3221
嗣位	-10.3222
衆皆	-10.3224
鑲黄旗	-10.3225
形勢	-10.3226
皆為	-10.3226
萬事	-10.3229
之職	-10.3231
不悦	-10.3237
有道	-10.3241
則無	-10.3242
則知	-10.3245
事業	-10.3246
軍務	-10.3247
自號	-10.3254
烏梁海	-10.3261
邱	-10.3263
侍讀學士	-10.3265
南昌	-10.327
不就	-10.3276
所聞	-10.3284
百年	-10.3288
生民	-10.329
俱原任佐領	-10.329
飲酒	-10.3292
算	-10.3297
節制	-10.3297
西路	-10.3297
汝愚	-10.3301
進兵	-10.3301
詔以	-10.3308
預修	-10.331
號令	-10.3318
民力	-10.3321
民間	-10.3329
色稜	-10.3329
推官	-10.3329
懦	-10.3331
在位	-10.3331
破賊	-10.3332
之力	-10.3333
自今	-10.3333
冗	-10.3335
諾爾布	-10.3338
爾岱	-10.3339
畝	-10.3339
表裏	-10.3339
功臣	-10.3341
便宜	-10.3341
岱青	-10.3349
其妻	-10.3356
詩書	-10.3358
南海	-10.3365
以来	-10.3366
薩克	-10.3368
行事	-10.3372
至誠	-10.3377
豈能	-10.3379
道路	-10.3386
揖	-10.3389
代之	-10.3391
翊	-10.3396
待制	-10.3399
内地	-10.34
鞫	-10.3402
汚	-10.3402
馭	-10.3403
諜	-10.3403
刑部侍郎	-10.3403
有竒	-10.3404
存心	-10.3405
之物	-10.3406
帝王	-10.3406
聞而	-10.3406
中正	-10.3417
郎阿	-10.3419
通志	-10.3422
經術	-10.3427
昆	-10.3428
晚年	-10.343
庠	-10.3436
知名	-10.3448
有無	-10.3448
状	-10.345
故能	-10.345
欣	-10.345
失之	-10.3455
張公	-10.3459
郡志	-10.3465
憐	-10.3468
斌	-10.3472
泄	-10.3473
捨	-10.3474
吐	-10.3474
感應	-10.3476
力戰	-10.3482
權貴	-10.3487
罷之	-10.349
甲申	-10.3492
戒懼	-10.3493
布爾	-10.3495
公亦	-10.3497
奉祠	-10.3497
人臣	-10.3498
吾人	-10.3503
然其	-10.3506
楊士竒	-10.3506
淮西	-10.3512
年五十	-10.3514
不入	-10.3515
自以為	-10.3517
鄉試	-10.3517
黑	-10.3518
旬	-10.352
副將	-10.3522
悅	-10.3524
數十萬	-10.3524
之衆	-10.3531
宗社	-10.3531
話	-10.3532
華色	-10.3533
葺	-10.3533
培	-10.3534
右係有傳	-10.3535
傲	-10.3537
不去	-10.3538
其道	-10.3538
嶠	-10.3539
篆	-10.3541
打	-10.3541
慤	-10.3546
復有	-10.3547
皇太后	-10.355
其兄	-10.3551
猶有	-10.3552
乙未	-10.3553
無功	-10.3556
恱	-10.3558
不疑	-10.3559
禍福	-10.3564
無益	-10.3564
二十四	-10.3564
三十里	-10.3566
不茍	-10.3569
將帥	-10.3573
七世孫	-10.3574
一家	-10.3575
守臣	-10.3577
而得	-10.3578
昨	-10.3584
十九	-10.3592
葉赫	-10.3592
𤓰	-10.3595
乃知	-10.3601
疇	-10.3601
之師	-10.3601
安能	-10.3602
麥	-10.3606
熾	-10.3607
臺諫	-10.3608
者即	-10.361
太和	-10.3611
此則	-10.3612
粮	-10.3613
又謂	-10.3613
漢唐	-10.3614
嗜	-10.3616
吹	-10.3618
㑹稽	-10.3619
明徳	-10.3625
不可得	-10.3626
第十	-10.3629
中人	-10.3631
同年	-10.3633
道心	-10.3637
服除	-10.3638
置之	-10.3638
不知其	-10.3644
上問	-10.365
實錄	-10.365
伊犁	-10.3653
意思	-10.3659
嘉之	-10.366
繹	-10.3667
破之	-10.367
桑阿	-10.3672
區區	-10.3672
足矣	-10.3673
亢	-10.3675
准	-10.3677
者惟	-10.3678
膳	-10.368
取其	-10.3682
而巳	-10.3685
先主	-10.3686
二千	-10.3687
措置	-10.3687
至京師	-10.3692
伊爾	-10.3692
歸於	-10.3693
於上	-10.3695
可得	-10.3696
諾顔	-10.3696
景泰	-10.3707
經義	-10.3708
言也	-10.3712
有過	-10.3713
事上	-10.3714
二程	-10.3717
衣食	-10.3717
嗟乎	-10.3721
乞歸	-10.3722
無間	-10.3723
泰原任	-10.3731
永嘉	-10.3732
而成	-10.3732
三遇	-10.3734
下令	-10.3734
言曰	-10.3735
討之	-10.3737
坑	-10.3738
濁	-10.374
羲	-10.3741
勾	-10.3743
乎其	-10.3743
也且	-10.3744
尼堪	-10.3745
瑋	-10.3749
寖	-10.375
唐古特	-10.375
靣	-10.375
襲職任	-10.3756
秦州	-10.3759
魏忠賢	-10.3764
宣撫使	-10.3769
在於	-10.3773
自任	-10.3775
亦自	-10.3777
有志	-10.3777
儼	-10.3784
九十	-10.3788
天聰時来歸	-10.3791
聖門	-10.3799
告子	-10.3799
里第	-10.3801
仕至	-10.3801
古者	-10.3803
禱	-10.3807
頻	-10.3807
襲三次襲	-10.3808
力辭	-10.3809
一本	-10.3812
是嵗	-10.3813
賻	-10.3815
逋	-10.3817
宋儒	-10.3818
識者	-10.382
酷	-10.382
之術	-10.3821
抄	-10.3823
庻	-10.3823
以致	-10.3824
招撫	-10.3829
一曰	-10.3831
公至	-10.3837
宣撫	-10.3837
本貫	-10.384
故人	-10.3841
常在	-10.3851
将軍	-10.3851
公自	-10.3853
甲子	-10.3855
楞額	-10.3858
自家	-10.3867
歸年分無考其子	-10.387
沿	-10.3871
暇	-10.3871
足下	-10.3874
鄂齊爾	-10.388
引兵	-10.3881
贖	-10.3885
餽	-10.3886
太常少卿	-10.3886
灘	-10.3888
飽	-10.3889
悍	-10.3889
鞭	-10.3891
朋黨	-10.3901
艱難	-10.3907
制度	-10.3909
現係䕶軍	-10.3911
所宜	-10.3916
朝鮮	-10.392
長白山地方	-10.3923
問學	-10.393
譜	-10.3932
勉之	-10.3933
知也	-10.3935
不死	-10.3944
此其	-10.3946
聼	-10.3947
宰執	-10.3947
訐	-10.3947
還朝	-10.3949
浙東	-10.3949
耆	-10.3949
煥	-10.3951
羞	-10.3952
深入	-10.3953
宇宙	-10.3954
宗即位	-10.3955
倭赫	-10.3955
言其	-10.3956
所以為	-10.3956
在我	-10.3956
以俟	-10.3959
冷	-10.396
存亡	-10.396
著有	-10.3961
訣	-10.3963
斤	-10.3966
死之	-10.3968
嘗以	-10.3968
書云	-10.3972
號為	-10.3983
三等輕車都尉	-10.3984
帳	-10.3989
言性	-10.3989
鎮國公	-10.3995
處士	-10.3995
竟不	-10.4001
不覺	-10.4003
卒年六十	-10.4004
中貴人	-10.4006
知有	-10.401
在人	-10.4012
禁中	-10.4013
達瓦齊	-10.4016
鸞	-10.4016
世宗	-10.4017
鵬	-10.402
未易	-10.4022
巾	-10.4025
贊曰	-10.4026
未得	-10.4026
燧	-10.4028
斬首	-10.4028
愼	-10.4028
承宗	-10.4029
迂	-10.4031
俱原任䕶軍校	-10.4034
耗	-10.4039
國子祭酒	-10.4039
乎曰	-10.404
宋史	-10.4051
克圖	-10.4052
宦官	-10.4056
來歸年分無考其子	-10.4063
之曾孫	-10.4063
支離	-10.4069
事親	-10.4069
其所以	-10.407
諸司	-10.4078
之使	-10.4079
京城	-10.4082
歴官	-10.4084
携	-10.4103
固山貝子	-10.4107
郤	-10.4107
第三	-10.411
不變	-10.4113
己巳	-10.4114
體用	-10.4116
疏言	-10.4117
孔氏	-10.412
年三十	-10.412
尚有	-10.4121
以成	-10.4126
以為不可	-10.4128
喀爾	-10.4128
年六十	-10.4131
之利	-10.4132
侍御史	-10.4136
天聰	-10.4146
人生	-10.4148
力學	-10.4149
之分	-10.4149
現任主事	-10.4155
宣和	-10.4158
軍營	-10.4159
相望	-10.4159
乙	-10.416
察其	-10.4161
品官	-10.4165
一等	-10.4168
殱	-10.417
臻	-10.4171
弭	-10.4173
縣人	-10.4176
唱	-10.4177
壺	-10.4177
郷	-10.4178
几	-10.4178
霜	-10.4179
規模	-10.418
奢	-10.4181
公論	-10.4181
翌日	-10.4182
歸之	-10.4183
小學	-10.4192
先生之學	-10.4192
儒臣	-10.4193
登進士第	-10.4195
時方	-10.4199
皇子	-10.42
不知所	-10.42
家傳	-10.4205
師事	-10.4208
其在	-10.422
文帝	-10.4221
二十六年	-10.4222
訓導	-10.4228
迄	-10.4231
張氏	-10.4233
時事	-10.4235
頃之	-10.4236
不聴	-10.4237
雞	-10.4241
右係應立傳之人	-10.4244
公既	-10.4248
銷	-10.4252
自信	-10.4253
誡	-10.4254
翕然	-10.4258
嘉納	-10.4261
而復	-10.4262
死而	-10.4271
諫官	-10.4272
之屬	-10.4274
箇	-10.4278
言事	-10.4278
用心	-10.4281
不果	-10.4289
臣子	-10.4292
則又	-10.4298
為性	-10.4299
之知	-10.43
後進	-10.43
為言	-10.4304
莆	-10.4305
之所謂	-10.4307
需	-10.4312
帑	-10.4313
之私	-10.4313
天下事	-10.4319
饋	-10.432
起復	-10.432
柵	-10.4321
廣州	-10.4324
鑾	-10.4324
愆	-10.4325
礙	-10.4327
私意	-10.4328
又嘗	-10.4328
演	-10.4328
遥	-10.433
邢	-10.4333
將以	-10.4334
於道	-10.4334
矣夫	-10.4337
非是	-10.4338
奉使	-10.4344
而知	-10.4345
不止	-10.4345
妨	-10.4347
公事	-10.4348
當其	-10.4352
孫男	-10.4353
二三	-10.4356
為天下	-10.4362
流賊	-10.4368
其能	-10.4373
阿睦爾撒納	-10.4374
入為	-10.4376
胄	-10.4376
非有	-10.4377
人多	-10.4379
皆可	-10.4383
所云	-10.4384
十日	-10.4386
事有	-10.439
丁丑	-10.4391
現係馬甲	-10.4391
辛丑	-10.4391
而退	-10.4392
柯	-10.4393
從此	-10.4395
漠	-10.4397
給事	-10.4398
廸	-10.4401
之先	-10.4402
同里	-10.4402
楷	-10.4402
以故	-10.4403
畱	-10.4403
文定	-10.4409
於時	-10.4417
追至	-10.4417
學者稱	-10.4419
以獻	-10.4419
多矣	-10.4425
大喜	-10.443
腹心	-10.4433
正心	-10.4434
也非	-10.4435
下詔	-10.4437
魏公	-10.4438
遣兵	-10.4439
五經	-10.4439
遁去	-10.4445
毅然	-10.4447
晉侯	-10.4448
全體	-10.4454
卿等	-10.4456
辛酉	-10.4472
膏	-10.4472
人言	-10.4475
本於	-10.4476
不暇	-10.4477
鬱	-10.4477
挫	-10.4479
闗中	-10.448
參軍	-10.448
丙子	-10.4481
救之	-10.4482
公議	-10.4485
至京	-10.4485
伯克	-10.4491
自言	-10.4491
沂	-10.4496
平章	-10.45
從而	-10.4502
學派	-10.4507
原任頭等䕶衛	-10.4511
動而	-10.4513
語曰	-10.452
沛	-10.4521
皇考	-10.4521
未行	-10.4523
行者	-10.4523
子貢	-10.4526
語録	-10.4526
其可	-10.4527
亞	-10.4529
之數	-10.453
䕫	-10.4531
正人	-10.4534
遮	-10.4534
未嘗有	-10.4535
群	-10.4538
額爾徳尼	-10.4539
荅	-10.4548
萃	-10.4548
國初来歸	-10.4549
居家	-10.455
癸丑	-10.4551
賛曰	-10.4551
蔚	-10.4552
其用	-10.4554
神道碑	-10.4555
司馬光	-10.4571
後來	-10.4575
性情	-10.4578
入對	-10.4579
答曰	-10.4587
前鋒	-10.4588
十數	-10.4597
倦	-10.4601
可否	-10.4608
隆阿	-10.4608
東陽	-10.4609
替	-10.461
敢言	-10.4613
渾然	-10.4613
陛	-10.4614
亦非	-10.4617
而生	-10.4618
歸化城	-10.462
爾布	-10.462
靖康	-10.462
奏議	-10.4623
曰某	-10.4623
沐	-10.4625
年四十	-10.4628
戢	-10.4628
東北	-10.4628
龔	-10.4629
繪	-10.4631
諤	-10.4633
兼學士	-10.4634
不著	-10.4635
豫章	-10.4637
始得	-10.4651
六格	-10.4655
愛之	-10.4657
拒之	-10.4658
處州	-10.4661
親兄	-10.4666
復命	-10.4668
學之	-10.4672
畿	-10.4672
氣節	-10.4676
生而	-10.4681
之辨	-10.4685
以安	-10.4688
譬	-10.4689
成額	-10.4691
璟	-10.4691
嚕	-10.4693
文子	-10.4694
居民	-10.4695
夔	-10.47
國太夫人	-10.4702
遐	-10.4703
中和	-10.4703
廪	-10.4704
膠	-10.4706
廼	-10.4707
丙午	-10.4707
羡	-10.4708
字元	-10.4709
七日	-10.471
感激	-10.4714
孔明	-10.4717
彦博	-10.4719
何事	-10.472
不避	-10.4727
事之	-10.4728
爾賽	-10.4733
頂	-10.4739
先生之	-10.4744
憫	-10.4746
渡河	-10.4752
宣諭	-10.4753
疏請	-10.4754
李公	-10.4755
十餘萬	-10.4759
政和	-10.4761
擊賊陣亡	-10.4764
庶吉士	-10.4765
色布騰	-10.4767
大理	-10.4768
澗	-10.477
孔門	-10.4771
文莊	-10.4773
桃	-10.4775
狼	-10.4776
籌	-10.4778
或謂	-10.4778
十人	-10.4779
正是	-10.4779
膽	-10.4781
穿	-10.4782
罵	-10.4783
造化	-10.4784
彛	-10.4785
沆	-10.4787
燒	-10.4789
人事	-10.479
胸中	-10.4796
原任三等䕶衞	-10.4799
無異	-10.4801
索柱	-10.4805
入於	-10.4808
肅然	-10.4811
杜門	-10.4816
一清	-10.482
不朽	-10.4825
䕃	-10.4827
一一	-10.4828
知者	-10.483
系	-10.4832
己未	-10.4833
千萬	-10.4834
哲宗	-10.4836
歸年分無考其孫	-10.4838
不食	-10.484
重之	-10.4846
旒	-10.4849
王道	-10.485
無二	-10.4853
入城	-10.4857
云云	-10.4858
扣	-10.4858
有罪	-10.486
衆人	-10.486
三十一年	-10.4861
庚戌	-10.4862
迺	-10.4865
墩	-10.4865
知公	-10.4865
佚	-10.4866
夙夜	-10.4866
太皇太后	-10.4867
左翼	-10.4869
苟	-10.487
相見	-10.4881
三省	-10.4881
聖徳	-10.4886
行人	-10.4897
護	-10.4901
因以	-10.4909
而實	-10.4912
知識	-10.4915
出師	-10.4917
中書令	-10.4918
何謂	-10.492
輝發地方	-10.492
臨安	-10.492
原任筆帖	-10.492
之機	-10.4921
圖爾	-10.4922
主上	-10.4926
敵人	-10.4928
翔	-10.4929
手詔	-10.4931
濶	-10.4933
滿洲	-10.4934
贈雲騎尉其子	-10.4934
金帛	-10.4934
講官	-10.4935
襟	-10.4935
乎此	-10.4936
叱	-10.4937
廓	-10.4938
甘肅	-10.4938
公私	-10.4938
匱	-10.494
頑	-10.494
璉	-10.494
登第	-10.494
手足	-10.4941
士民	-10.4941
廖	-10.4942
介甫	-10.495
涕	-10.4957
蔡京	-10.4958
服其	-10.496
災異	-10.4961
五千	-10.4962
之亂	-10.4964
山下	-10.4964
巴什	-10.4964
而起	-10.4966
西京	-10.4977
學於	-10.4983
要害	-10.4987
不逺	-10.4993
原任驍騎校孫	-10.4998
為詩	-10.4998
數十人	-10.5
綱常	-10.5003
錡	-10.5004
城守	-10.5006
氣之	-10.5009
得一	-10.5012
成就	-10.5012
斯道	-10.5013
自為	-10.5013
公公	-10.5013
格爾	-10.5014
丙辰	-10.5014
孺	-10.5015
柳	-10.5015
乙丑	-10.5017
枯	-10.502
知本	-10.5021
慘	-10.5021
匈奴	-10.5022
地方人其	-10.5022
狥	-10.5023
乾坤	-10.5024
千人	-10.5026
丹陽	-10.5029
章句	-10.5031
諸部	-10.5034
詔書	-10.5035
布政	-10.5036
五代	-10.5038
乃命	-10.5043
者或	-10.5044
之類	-10.5047
即以	-10.5048
致之	-10.505
郡邑	-10.5054
佛老	-10.5057
男女	-10.5057
贈太師	-10.5059
東海	-10.506
過人	-10.506
名儒	-10.5067
邊事	-10.5078
永感下第	-10.5081
武昌	-10.5082
稱之	-10.5083
侍衞	-10.5085
額駙	-10.5086
廹	-10.5092
戕	-10.5095
諸葛亮	-10.5095
之美	-10.5096
大理寺丞	-10.51
國正白旗人世居	-10.51
屍	-10.5101
袖	-10.5102
不法	-10.5103
則為	-10.5107
文忠	-10.5107
常平	-10.5109
心性	-10.5111
不克	-10.5115
主之	-10.5121
縣丞	-10.5122
原任二等侍衛	-10.5124
之兵	-10.513
異同	-10.5132
何不	-10.5138
稱為	-10.5147
諌官	-10.5151
爾吉	-10.5153
極言	-10.516
故不仕本貫	-10.5163
▁初来歸	-10.5163
顏	-10.5166
天人	-10.5168
勃	-10.5168
夸	-10.517
墻	-10.5171
箕	-10.5172
江州	-10.5173
僭	-10.5177
雅爾	-10.5177
牌	-10.5179
以次	-10.518
欠	-10.518
匠	-10.5182
傳之	-10.5184
紫陽	-10.5185
慙	-10.5186
靡不	-10.5188
廬陵	-10.5188
累官	-10.5189
也自	-10.5193
而求	-10.5196
輟	-10.5196
昂	-10.5196
僧格	-10.5197
未聞	-10.5201
朝議	-10.5201
大破之	-10.5203
其他	-10.5213
太傅	-10.5215
所論	-10.5218
有不	-10.5223
俱原任驍騎校	-10.5226
言路	-10.5232
莫若	-10.5234
鑲藍旗人世居	-10.5234
其屬	-10.5237
安置	-10.5238
子思	-10.5239
十卷	-10.5239
事事	-10.5241
興化	-10.5243
禧	-10.5244
則不	-10.5245
綺	-10.5247
呈	-10.5249
都城	-10.5251
又與	-10.5257
額敏和卓	-10.5257
存養	-10.5259
鼔	-10.526
孝子	-10.526
饗	-10.5261
三十五年	-10.5261
繋	-10.5262
箭	-10.5263
童子	-10.5267
岩	-10.5267
削籍	-10.5268
若無	-10.5271
緩急	-10.5272
仁者	-10.5273
無罪	-10.5274
原任副都統	-10.5276
者公	-10.5277
兵馬	-10.5278
以正	-10.5278
周旋	-10.5281
濟南	-10.5281
閩中	-10.529
墓誌銘	-10.53
姓此一姓世居	-10.5304
則必	-10.5308
待罪	-10.531
也是	-10.5311
不正	-10.5312
此時	-10.5313
尋以	-10.5315
非常	-10.5316
斯文	-10.5316
壤	-10.5318
先王之	-10.5319
所學	-10.5321
典禮	-10.5322
犬	-10.5324
萬户	-10.5332
為名	-10.5334
斛	-10.5335
户部侍郎	-10.5337
壬午	-10.5338
韜	-10.5338
熱	-10.5338
逵	-10.5338
嫉	-10.5338
張子	-10.5339
球	-10.5341
絹	-10.5342
所向	-10.5342
八百	-10.5343
不一	-10.5344
為我	-10.5345
為二	-10.5347
應詔	-10.5349
正直	-10.535
同族世居	-10.5352
以文	-10.5357
鉅	-10.5361
理氣	-10.5362
清明	-10.5363
授雲騎尉	-10.5365
原任三等侍衞	-10.5369
無極	-10.5384
聖明	-10.5384
有得	-10.5384
百世	-10.5396
趙氏	-10.5396
疑之	-10.5398
諡忠	-10.5405
引去	-10.541
汰	-10.5418
泰山	-10.5419
曰公	-10.542
便有	-10.5421
盍	-10.5421
畔	-10.5422
一夕	-10.5423
庚辰	-10.5424
琮	-10.5427
南安	-10.5428
綜	-10.5429
不亦	-10.5429
棄之	-10.543
桓公	-10.5431
以病	-10.5432
加恩	-10.5437
平時	-10.5442
親征	-10.5445
常綬	-10.5447
即此	-10.5448
吾之	-10.545
之𩔖	-10.5451
得免	-10.5452
至大	-10.5453
為宗	-10.5454
廣大	-10.5457
無私	-10.5462
男子	-10.5464
也遂	-10.5467
公所	-10.5467
及門	-10.5468
烏喇	-10.5479
若干	-10.5483
君子謂	-10.5485
江上	-10.5485
翻	-10.5487
獨不	-10.5487
慶元	-10.5489
而未	-10.549
與夫	-10.5491
禮義	-10.5494
鑲黄旗包衣旗鼓人世居瀋陽地方來	-10.5495
言動	-10.5497
數十年	-10.5497
衢	-10.5502
鈎	-10.5502
戊辰	-10.5503
仁義禮智	-10.5504
叚	-10.5505
所作	-10.5506
巴圖魯	-10.5506
吝	-10.5507
喇嘛	-10.5509
曰彼	-10.5509
醜	-10.551
噫	-10.5511
舊制	-10.5517
從祀	-10.5521
感動	-10.5522
勤勞	-10.5526
不加	-10.5529
無人	-10.5534
經畧	-10.5538
至正	-10.554
珠瑚	-10.5541
鄉薦	-10.5543
者衆	-10.5544
汾	-10.5544
湖州	-10.5547
經學	-10.5548
攻之	-10.5552
可知	-10.5553
百餘人	-10.5556
事也	-10.5558
敘功	-10.5561
之道也	-10.5569
以明	-10.5571
敘	-10.5572
此皆	-10.5572
召入	-10.5574
有異	-10.5575
謂之曰	-10.5578
員外	-10.5582
禎	-10.5584
戌	-10.5586
肥	-10.5587
愷	-10.5588
籠	-10.5589
度支	-10.5589
牘	-10.5589
艘	-10.5593
鮑	-10.5594
欲為	-10.5595
白金	-10.5596
辭曰	-10.5597
䑓	-10.5599
行於世	-10.5605
安民	-10.5606
脈	-10.5616
臣之	-10.5628
為滿洲一姓其氏	-10.563
求其	-10.5634
不能自	-10.5637
庚	-10.5646
若夫	-10.5652
大業	-10.5654
二先生	-10.5655
準噶爾	-10.5664
六人	-10.5668
矣公	-10.567
灼	-10.5672
其行	-10.5672
劉公	-10.5672
禕	-10.5675
狹	-10.5676
壻	-10.5676
夏人	-10.5676
孟子曰	-10.5676
闇	-10.5676
之害	-10.5676
䜛	-10.5678
治亂	-10.5679
戊戌	-10.5679
憑	-10.5679
之失	-10.568
劒	-10.5681
弁	-10.5683
欣然	-10.5705
詣闕	-10.5706
其親	-10.5708
公著	-10.5719
所欲	-10.572
凡所	-10.5722
軌	-10.5723
可與	-10.573
永平	-10.5731
教化	-10.5734
而民	-10.574
與語	-10.5745
同志	-10.5747
二府	-10.5748
尼雅	-10.5751
研	-10.5753
現係廕生	-10.5756
望風	-10.5756
二十八年	-10.576
歆	-10.5761
郢	-10.5761
人少	-10.5761
芻	-10.5762
奨	-10.5764
鉉	-10.5768
手書	-10.5769
中使	-10.5771
異於	-10.5771
䖍	-10.5773
魄	-10.5774
太僕	-10.5774
少年	-10.5779
山林	-10.5782
景公問	-10.5782
先公	-10.5784
忠厚	-10.5784
祭祀	-10.5789
二十餘年	-10.579
子産	-10.5794
公乃	-10.5794
不喜	-10.5797
考亭	-10.5799
間有	-10.58
年老	-10.5805
人以為	-10.5826
物之	-10.5828
兼侍讀	-10.5833
不須	-10.5833
閭	-10.5837
日生外氏	-10.584
舌	-10.5842
邑人	-10.5845
芬	-10.5847
乂	-10.5848
譬之	-10.5848
書成	-10.5851
堰	-10.5851
鱗	-10.5852
根敦	-10.5853
墓誌	-10.5854
二十五	-10.5855
樞宻院	-10.5856
原任䕶軍校孫	-10.5859
倣	-10.586
千餘人	-10.5864
伏誅	-10.5864
封輔國公	-10.5866
治平	-10.5866
南渡	-10.5869
淪	-10.5871
聖賢之	-10.5874
現任步軍校	-10.5879
於家	-10.588
原任驍騎校元孫	-10.5881
大驚	-10.5885
巴勒	-10.5885
萬古	-10.5885
順治	-10.589
無形	-10.5891
受之	-10.5891
又請	-10.5891
自立	-10.5896
珠爾	-10.5899
心而	-10.5903
南都	-10.5904
先天	-10.5905
成敗	-10.5907
未始	-10.5908
無遺	-10.5909
濮	-10.5911
乃得	-10.5912
賊衆	-10.5922
交阯	-10.5923
辛未	-10.5923
重兵	-10.5923
在朝	-10.5924
姿	-10.5924
䖏	-10.5925
鉞	-10.5925
殉	-10.5926
涯	-10.5926
以報	-10.5927
天地間	-10.5927
陂	-10.593
㤗	-10.5931
棲	-10.5933
菜	-10.5933
事聞	-10.5934
瑩	-10.5936
右翼	-10.5936
拓	-10.5936
踈	-10.5937
紛紛	-10.5937
各一	-10.5938
裝	-10.594
光世	-10.5943
極論	-10.5943
罷去	-10.5944
而立	-10.5945
臣聞	-10.5945
考其	-10.5947
大王	-10.5948
夫婦	-10.5949
疏入	-10.5949
抗疏	-10.595
武宗	-10.5952
稱㫖	-10.5953
年八十	-10.5954
愍	-10.5957
等書	-10.5957
戸部	-10.596
慶厯	-10.5968
三曰	-10.5971
合而	-10.5976
城門	-10.5977
發其	-10.5979
西銘	-10.5982
楊氏	-10.5982
倉卒	-10.5984
而欲	-10.599
多羅貝勒	-10.5992
意見	-10.5992
劄	-10.5993
之内	-10.5995
見聞	-10.5996
山谷	-10.6003
鑲黄旗包衣管領下人世居瀋陽地方	-10.6009
阿哈	-10.601
因其	-10.601
任員外郎	-10.6011
吾子	-10.6015
聞公	-10.6017
綴	-10.6018
諧	-10.6018
苖	-10.6019
甲午	-10.6019
渙	-10.602
巴哈	-10.6021
必不	-10.6021
土黙特	-10.6021
冶	-10.6023
滕	-10.6027
薩穆哈	-10.603
甚厚	-10.6031
現任八品官	-10.6032
不測	-10.6033
授扎薩克	-10.6034
一子	-10.6036
南山	-10.6036
同官	-10.6039
有能	-10.6041
開國	-10.6048
安撫使	-10.605
易之	-10.6052
大畧	-10.6054
巴海	-10.6058
夫子之	-10.6059
心則	-10.6059
以謂	-10.6059
哈密	-10.6062
臣下	-10.6063
推之	-10.6064
圍錦州	-10.6064
何必	-10.6068
貟外郎	-10.6069
不妄	-10.607
疏上	-10.6076
新法	-10.6076
原任御史	-10.6077
嫡	-10.6079
百户	-10.6082
未定	-10.6082
丐	-10.6084
行至	-10.6089
内臣	-10.6092
軍事	-10.6092
奏言	-10.6095
扎薩克輔國公	-10.6095
來歸年分無考其孫	-10.6098
訛	-10.6101
縝	-10.6102
霄	-10.6103
慟	-10.6103
為諸生	-10.6104
陪	-10.6105
𣙜	-10.6107
晉江	-10.6108
牀	-10.6108
峙	-10.6109
五品	-10.6109
霞	-10.611
砦	-10.6111
竈	-10.6112
監國	-10.6114
人其孫	-10.6114
徃徃	-10.6123
嘗有	-10.6126
壬子	-10.6129
有文	-10.6132
之賢	-10.6142
安排	-10.6145
文辭	-10.6147
矣此	-10.6151
父兄	-10.6152
也哉	-10.6162
濵	-10.6165
嶺南	-10.6165
稱善	-10.6166
人者	-10.6169
也上	-10.6172
授以	-10.6174
其年	-10.6175
天啟	-10.6178
何故	-10.6178
中節	-10.6179
濤	-10.6189
主敬	-10.6191
着	-10.6194
南康	-10.6195
禆	-10.6196
進講	-10.6197
乙酉	-10.6197
丁酉	-10.6198
布政使	-10.6198
迭	-10.6198
太常博士	-10.6198
核	-10.6198
壓	-10.62
戊申	-10.62
媿	-10.6202
士之	-10.6202
曩	-10.6202
而又	-10.6202
羸	-10.6202
四十里	-10.6203
之望	-10.6204
統之	-10.6204
貯	-10.6205
自知	-10.6213
邪正	-10.6218
錦衣	-10.622
立功	-10.6223
爭之	-10.6226
元氣	-10.6229
太虛	-10.6231
召試	-10.6232
以見	-10.6232
叔向	-10.6235
進取	-10.6238
原任前鋒校	-10.624
百人	-10.6243
無算	-10.6243
亦何	-10.6243
君父	-10.6246
公嘗	-10.6254
五行	-10.6256
不惟	-10.6258
作亂	-10.6261
獲罪	-10.6266
俱原	-10.6267
而反	-10.6268
中山	-10.6269
烏什	-10.6274
凉	-10.6274
上親	-10.6275
公請	-10.6276
兩宫	-10.6276
受其	-10.6283
知州	-10.6283
蘇氏	-10.6284
逞	-10.6287
歉	-10.6287
則可	-10.629
屢敗	-10.6291
柩	-10.6292
哈薩克	-10.6292
姻	-10.6293
温公	-10.6294
晦翁	-10.6294
凢	-10.6294
都爾	-10.6296
原任叅領	-10.6296
以老	-10.6303
達哈	-10.6306
卒年八十	-10.631
髮	-10.6311
之憂	-10.6313
毫	-10.632
立志	-10.632
命也	-10.6321
喜曰	-10.6322
上蔡	-10.6323
河西	-10.6324
定國	-10.6325
曰若	-10.6331
現任三等侍衛	-10.6335
之業	-10.634
者是	-10.6343
十餘人	-10.6343
守將	-10.6344
尚書令	-10.6345
進曰	-10.6345
闈	-10.6346
於前	-10.6351
一書	-10.6351
禮記	-10.6354
少傅	-10.6354
些	-10.636
進攻	-10.636
詔獄	-10.6366
出兵	-10.6368
移書	-10.6368
二曰	-10.6373
釣	-10.6374
原任五品官	-10.6374
友諒	-10.6375
寔	-10.6375
使臣	-10.6377
丙申	-10.6378
其性	-10.638
兩遇	-10.638
吾道	-10.638
窘	-10.638
吉林烏喇地方	-10.6381
蹙	-10.6381
沔	-10.6381
孝經	-10.6383
中間	-10.6383
聨	-10.6385
諫議大夫	-10.6387
大江	-10.6387
于此	-10.6389
幾何	-10.6392
建言	-10.6393
省察	-10.6397
一名	-10.6399
固守	-10.6401
爾瑚	-10.6401
不答	-10.6401
把總一兵	-10.6406
建議	-10.6416
識之	-10.6417
黄氏	-10.6417
號曰	-10.6417
一篇	-10.642
異日	-10.6421
崇徳	-10.6423
又明年	-10.6428
天資	-10.6429
又問	-10.6431
兼侍講	-10.6432
二十餘	-10.6432
二聖	-10.6434
史官	-10.6437
留之	-10.6442
此一	-10.6449
原任佐領孫	-10.6451
見公	-10.6452
異時	-10.6453
其為人	-10.6454
廟堂	-10.6456
子男	-10.6459
遣歸	-10.6461
皆不	-10.6461
俄羅斯	-10.6467
控	-10.6468
次適	-10.6468
一員	-10.6469
人性	-10.6469
則其	-10.647
牆	-10.647
態	-10.6471
愁	-10.6471
之子也	-10.6473
戒慎恐懼	-10.6474
國正黄旗人世居	-10.6476
朱文公	-10.6477
囂	-10.6479
監軍	-10.6482
姊	-10.6485
熙寧	-10.6486
三公	-10.6486
奔走	-10.6487
歙	-10.6487
奉天	-10.649
庚子	-10.649
泗	-10.649
宗族	-10.6493
人亦	-10.6493
㑹試	-10.6494
光明	-10.6494
遇之	-10.6495
成進士	-10.65
善長	-10.6501
數千人	-10.6504
稱職	-10.6508
而不可	-10.6511
長樂	-10.6514
喜怒	-10.6517
加一雲騎尉	-10.652
二等輕車都尉	-10.6522
人不	-10.6524
節義	-10.6528
不輟	-10.653
上帝	-10.6533
聲色	-10.6533
臨事	-10.6534
尋陞	-10.6535
條理	-10.6535
宣子	-10.6536
發兵	-10.6536
偽總兵	-10.6537
明德	-10.6542
作詩	-10.6552
此語	-10.6552
辦事	-10.6552
蘇爾	-10.6552
扎爾	-10.6556
金石	-10.6556
廬州	-10.6557
先生以	-10.6557
蹇	-10.6559
弩	-10.656
懽	-10.6561
壮	-10.6561
守禦	-10.6564
斜	-10.6564
寒暑	-10.6565
督學	-10.6565
僣	-10.6565
聳	-10.6566
之病	-10.6566
輦	-10.6567
侂胄	-10.6567
網	-10.6568
拯	-10.6572
治天下	-10.6573
原任廐長	-10.6573
錢塘	-10.6573
班師	-10.6576
樞密院	-10.6576
叩頭	-10.6576
晏子對曰	-10.6581
五里	-10.6582
太宗曰	-10.6588
蜀人	-10.6589
兩浙	-10.6591
感悟	-10.6595
堯夫	-10.6597
流俗	-10.66
自守	-10.6618
無嗣	-10.6622
不負	-10.6623
聖祖	-10.6625
赤子	-10.663
官兵	-10.6635
逆瑾	-10.6639
自己	-10.6641
現任郎中	-10.6647
取士	-10.6648
敖	-10.6649
皆在	-10.665
剖	-10.6652
車布登	-10.6652
一路	-10.6653
黯	-10.6655
棘	-10.6655
購	-10.6656
膚	-10.6656
慚	-10.6658
踐履	-10.6659
冐	-10.666
禡木特	-10.6661
允文	-10.6661
戊午	-10.6661
公對曰	-10.6664
之樂	-10.6665
不滿	-10.6665
初授	-10.6671
元和	-10.6671
都理	-10.6685
亦多	-10.6687
不治	-10.6688
落職	-10.6691
平陽	-10.6692
村地方	-10.6692
語及	-10.6694
温州	-10.6695
䏻	-10.6701
所過	-10.6701
卒其孫	-10.6702
明兵	-10.6704
竒之	-10.6706
天聖	-10.6706
而上	-10.6707
祖父	-10.6709
之䇿	-10.671
大禮	-10.6713
魯人	-10.6714
吾輩	-10.6719
官屬	-10.6724
前代	-10.6726
名節	-10.6735
提學	-10.6735
舅	-10.6737
知所	-10.6739
班珠爾	-10.674
正白旗包衣管領下人世居瀋陽地方	-10.6741
徃來	-10.6743
繞	-10.6743
駐蹕	-10.6748
三十六	-10.6751
奪其	-10.6752
搏	-10.6754
斧	-10.6755
安南	-10.6755
開封府	-10.6756
峒	-10.6757
曰天	-10.6758
左遷	-10.6759
纎	-10.676
妹	-10.6761
狗	-10.6762
總裁	-10.6764
其上	-10.6764
方畧	-10.6764
矣又	-10.6767
亡何	-10.6769
以公為	-10.677
非禮	-10.6771
原任内管領	-10.6771
至公	-10.6773
相似	-10.6774
原是	-10.6775
門户	-10.6777
黙然	-10.6779
晦菴	-10.6782
莆田	-10.6783
正白旗人世居	-10.6785
謝曰	-10.6785
道南	-10.6789
賜宴	-10.679
由佐領	-10.6791
癸未	-10.6794
次曰	-10.6794
陳公	-10.68
寺丞	-10.6804
靈阿	-10.6806
矣其	-10.6807
任防禦	-10.681
惟陛下	-10.6818
樞密	-10.6818
士人	-10.6826
入内閣	-10.6829
只有	-10.6829
之權	-10.6839
旺扎勒	-10.6839
十事	-10.6841
灑	-10.6841
一生	-10.6841
諭以	-10.6841
䇿妄阿喇布坦	-10.6844
墟	-10.6844
壬戌	-10.6845
無聲無臭	-10.6845
甲戌	-10.6846
襲職三遇	-10.6846
己丑	-10.6846
仆	-10.685
以道	-10.6851
其徒	-10.6851
國用	-10.6853
約束	-10.6853
以上俱係國初來歸之人	-10.6856
霽	-10.6857
廷試	-10.6859
始知	-10.686
太常卿	-10.6863
原任頭等侍衛	-10.6863
儒學	-10.6868
一等輕車都尉	-10.687
王室	-10.687
臣恐	-10.6872
世傑	-10.6874
建安	-10.6877
之資	-10.6878
邵武	-10.6882
經略	-10.6885
女子	-10.6887
生擒	-10.6888
無物	-10.689
嘗為	-10.6895
三十六年	-10.6895
然亦	-10.6895
因言	-10.6898
本原	-10.6901
順昌	-10.6902
周易	-10.6902
祀之	-10.6903
之謀	-10.6906
發之	-10.6907
國鑲黄旗人世居	-10.6911
有五	-10.6911
宫中	-10.6913
布禄	-10.6915
前輩	-10.6916
否曰	-10.6922
門生	-10.6924
其勢	-10.6926
敢不	-10.6927
璽	-10.6928
原任筆	-10.6929
明堂	-10.6931
層	-10.6933
復召	-10.6935
示之	-10.6936
第五	-10.694
霧	-10.6943
聊	-10.6943
壬寅	-10.6944
理也	-10.6944
穢	-10.6945
不解	-10.6946
諸君	-10.6946
羨	-10.6947
弑	-10.6948
甲寅	-10.6949
守令	-10.6953
提刑	-10.6954
之弟	-10.6954
者自	-10.6955
主静	-10.6956
之四世孫	-10.6956
前此	-10.6961
疑其	-10.6966
阿拉	-10.6969
樞宻使	-10.697
河陽	-10.6972
後有	-10.6974
從征雲南	-10.6975
左氏	-10.6979
心者	-10.6979
財用	-10.6981
懈	-10.6985
而動	-10.6987
子也	-10.6988
有加	-10.6993
由閒散	-10.6996
世襲	-10.6998
之極	-10.7002
有年	-10.7009
不可為	-10.7011
惟公	-10.702
朱氏	-10.7024
本院	-10.7024
瀚	-10.7025
瀋陽地方	-10.7031
不可得而	-10.7031
之傳	-10.7036
粲	-10.7037
軸	-10.704
胡公	-10.704
覿	-10.7041
建炎	-10.7041
竝	-10.7041
宸	-10.7042
資政殿學士	-10.7042
國正藍旗人世居	-10.7045
隐	-10.7048
文華殿	-10.705
相率	-10.7051
人其子	-10.7053
納之	-10.7054
陛辭	-10.7055
言於	-10.7055
先朝	-10.7057
河朔	-10.7058
秀才	-10.7058
小心	-10.7058
全活	-10.7058
不給	-10.7061
閉門	-10.7062
臣竊	-10.7062
詹事	-10.7063
哈納	-10.7063
字叔	-10.7063
城外	-10.7066
愛民	-10.707
之句	-10.7077
以行	-10.7079
否則	-10.708
與焉	-10.7081
極其	-10.7089
時人	-10.7091
名士	-10.7094
為治	-10.7102
九江	-10.7102
受學	-10.7105
之治	-10.7108
乞致仕	-10.7112
其民	-10.7116
出而	-10.7124
二十萬	-10.7124
嘉其	-10.7125
蝗	-10.7131
散秩大臣	-10.7133
版	-10.7134
矧	-10.7135
且言	-10.7138
沃	-10.714
坎	-10.7141
廡	-10.7141
翺	-10.7143
艮	-10.7143
洶洶	-10.7143
辛亥	-10.7144
子二長	-10.7147
瀕	-10.7147
辛巳	-10.7147
所存	-10.7152
軍功	-10.7157
㕘政	-10.7159
還京	-10.7165
徳之	-10.7168
經濟	-10.7168
使其	-10.7171
其弊	-10.7174
浙西	-10.7177
海上	-10.7177
令人	-10.7181
則心	-10.7183
不納	-10.7193
近日	-10.7193
塔哈	-10.7194
無疑	-10.7196
上聞	-10.7198
其子孫	-10.7198
登城	-10.7204
巷	-10.7208
四字	-10.721
援兵	-10.721
報國	-10.7212
上御	-10.7216
樞宻	-10.7218
御史大夫	-10.7218
惟其	-10.7221
黑龍江地方	-10.7224
一巻	-10.7224
所掠	-10.7227
現係監生	-10.7227
福王	-10.7229
一㸃	-10.723
葉爾羌	-10.7234
副都御史	-10.7234
水火	-10.7235
怯	-10.7235
齊賢	-10.7235
寝	-10.7236
筠	-10.7237
椘	-10.7237
壅	-10.7238
無用	-10.7239
聖人之道	-10.7239
觴	-10.7242
參知政事	-10.7242
恚	-10.7242
韓公	-10.7243
婁	-10.7243
周禮	-10.7245
北平	-10.7246
以便	-10.7247
莫如	-10.725
左都御史	-10.725
於是乎	-10.7253
曰爾	-10.7258
上前	-10.7258
授為	-10.7261
主於	-10.7262
親戚	-10.7267
墓碑	-10.7269
其體	-10.727
理會	-10.7272
凡有	-10.7277
子路	-10.7277
康齋	-10.7277
蘇州	-10.728
▁尉	-10.7283
此之謂	-10.7285
原任䕶軍校元孫	-10.7286
有定	-10.7289
安世	-10.7292
拙	-10.7295
臨川	-10.7297
為滿洲一姓其氏族	-10.7299
其城	-10.7301
三軍	-10.7304
若水	-10.7308
時為	-10.731
辜	-10.7312
先王	-10.7317
經傳	-10.732
人之所	-10.7328
釐	-10.7328
刪	-10.7329
過之	-10.7331
湧	-10.7333
麄	-10.7334
剿	-10.7334
淹	-10.7335
圃	-10.7335
宛	-10.7335
禽獸	-10.7336
鳳翔	-10.7336
尚未	-10.7337
闔	-10.7338
槐	-10.7339
老子	-10.734
罹	-10.7341
濂	-10.7341
孽	-10.7341
躋	-10.7342
而入	-10.7343
雕	-10.7346
世俗	-10.7349
疾病	-10.7349
團	-10.7357
江右	-10.7357
人父	-10.7357
富弼	-10.7363
饒州	-10.7364
荆南	-10.7364
子羽	-10.737
却之	-10.7372
主管	-10.7375
有意	-10.7377
始有	-10.7383
千五百	-10.7386
其親弟	-10.7388
功業	-10.7397
則不可	-10.7398
吾身	-10.7398
非所	-10.7399
純仁	-10.7399
大中	-10.74
所行	-10.7401
由䕶軍校	-10.7404
以養	-10.7405
先生與	-10.7406
年少	-10.7411
之長子	-10.7413
居之	-10.7413
鑲白旗人世居	-10.7417
件	-10.742
踰月	-10.7421
今為	-10.7425
外郎	-10.7426
最為	-10.7427
之官	-10.7429
三十二年	-10.7433
蛟	-10.7434
行而	-10.7435
固已	-10.7439
祖妣	-10.744
淳熙	-10.744
阮	-10.7441
淚	-10.7442
歸年分無考其曽孫	-10.7442
沁	-10.7442
與王	-10.7444
擠	-10.7446
不違	-10.7446
閤	-10.7447
弇	-10.7447
閎	-10.745
人世居	-10.7451
非其	-10.7452
漳州	-10.7453
從者	-10.7456
太廟	-10.7457
宗正	-10.7457
之南	-10.7461
無内外	-10.7462
最後	-10.7462
絶人	-10.7464
永安	-10.7465
兩淮	-10.7467
擊敗之	-10.747
麾下	-10.7472
之末	-10.7476
北方	-10.7476
正色	-10.7477
侍講學士	-10.7479
事皆	-10.748
及此	-10.7482
允之	-10.7487
同安	-10.7488
君子小人	-10.749
公等	-10.7491
俘獲	-10.7492
通阿	-10.7497
人力	-10.7498
纂修	-10.7499
科爾沁	-10.7501
都督府	-10.7503
之正	-10.7507
遂與	-10.7507
逆賊	-10.7512
不逮	-10.7517
不成	-10.7518
然也	-10.7519
相繼承襲	-10.7519
諸道	-10.7519
為亂	-10.7522
惜之	-10.7522
髙明	-10.7529
起為	-10.753
原任城門尉	-10.7532
上䟽	-10.7532
原任二等䕶衛	-10.7533
常明	-10.7534
萊	-10.7539
脉	-10.7539
吐蕃	-10.7539
畀	-10.754
須是	-10.7541
其族	-10.7542
埋	-10.7543
禮部右侍郎	-10.7544
沾	-10.7544
貟	-10.7545
繡	-10.7545
恊	-10.7545
簾	-10.7546
滛	-10.7546
售	-10.7547
戊子	-10.7549
諳	-10.7549
侃侃	-10.755
春坊	-10.7551
貴人	-10.7553
𣣔	-10.7553
寗	-10.7554
涕泣	-10.7557
畧曰	-10.756
譬如	-10.756
其私	-10.7562
任事	-10.7565
帝王之	-10.7569
上官	-10.7571
氣質之性	-10.7571
令其	-10.7575
武功	-10.7577
三山	-10.7578
所用	-10.7579
靖難	-10.7579
婺州	-10.7579
御前	-10.758
人或	-10.7582
為大	-10.7582
此處	-10.7585
黒龍江地方	-10.7593
何可	-10.7593
布哈	-10.7593
意氣	-10.7599
上疏言	-10.76
天也	-10.76
來降	-10.7604
生事	-10.7605
也即	-10.7607
舟師	-10.7608
族人	-10.7613
更有	-10.7614
騷	-10.7617
入貢	-10.7619
老而	-10.7619
一月	-10.7621
柱國	-10.7623
校尉	-10.7625
喇布坦	-10.7628
拾	-10.7632
性理	-10.7632
架	-10.7634
逝	-10.7634
顛	-10.7635
亦曰	-10.7635
擕	-10.7636
阿爾台	-10.7636
緯	-10.7637
鈍	-10.7639
鼻	-10.7639
稷	-10.764
蓮	-10.764
冰	-10.7641
蓬	-10.7642
擊敗賊	-10.7642
噐	-10.7643
庚午	-10.7644
函	-10.7644
煙	-10.7645
頓首	-10.7645
紘	-10.7645
偏侍下第	-10.7646
扇	-10.7646
殯	-10.7648
荆襄	-10.7649
可畏	-10.765
冉	-10.7651
林氏	-10.7651
逆璫	-10.7653
陽明先生	-10.7654
自少	-10.7656
換	-10.7657
何處	-10.7662
淮東	-10.7663
究其	-10.7663
大政	-10.7664
愛人	-10.7665
安定	-10.7665
歎息	-10.7667
其次	-10.7667
人心之	-10.7669
卒於	-10.7671
安在	-10.7671
入冦	-10.7673
其氣	-10.7673
多少	-10.7679
不使	-10.768
討賊	-10.7681
西域	-10.7683
講求	-10.7684
而來	-10.7685
二千石	-10.7687
無過	-10.7687
不厭	-10.7692
篤行	-10.7693
賽音	-10.7693
祖宗之	-10.7694
從弟	-10.7696
扎薩克台吉	-10.77
就道	-10.77
宗㫖	-10.7701
其四世孫	-10.7704
之徳	-10.7712
泌	-10.7715
以為然	-10.7716
覲	-10.7717
理㑹	-10.7718
就擒	-10.7718
為文章	-10.7719
於民	-10.7721
配享	-10.7725
於物	-10.7727
貞觀	-10.7729
天下國家	-10.773
對曰臣	-10.773
京口	-10.7735
以全	-10.7735
忠獻	-10.7736
恰	-10.7739
証	-10.7741
上表	-10.7741
司農	-10.7742
催	-10.7743
倅	-10.7744
以濟	-10.7744
當然	-10.7744
隻	-10.7745
夲	-10.7748
戊寅	-10.7749
禮也	-10.7749
光禄大夫	-10.775
襲四次襲	-10.775
二萬	-10.7751
填	-10.7752
疊	-10.7752
有成	-10.7752
躁	-10.7753
緑	-10.7753
武臣	-10.7754
上有	-10.7754
仔	-10.7754
色爾	-10.7757
我兵	-10.7758
其君	-10.7759
累贈	-10.7759
行也	-10.7761
冩	-10.7761
愬	-10.7763
吾心之	-10.7764
都司	-10.7768
見而	-10.7769
何足	-10.7769
二者	-10.777
李先生	-10.777
者哉	-10.7772
統制	-10.778
太保	-10.7783
日益	-10.7791
無禮	-10.7793
之流	-10.7795
扈	-10.7801
及第	-10.7802
相去	-10.7803
甚矣	-10.7803
山陵	-10.7804
未有不	-10.7805
公生	-10.7809
其辭	-10.781
而終	-10.781
獨知	-10.7819
泰現任	-10.7824
氣也	-10.7826
洪武初	-10.7831
土爾扈特	-10.7832
不平	-10.7836
得㫖	-10.784
闕下	-10.7843
池州	-10.7843
牲	-10.7847
著加恩	-10.7851
躡	-10.7851
餘黨	-10.7852
模	-10.7852
肩	-10.7853
規矩	-10.7853
也及	-10.7854
腐	-10.7855
望見	-10.7855
交趾	-10.7855
人自	-10.7856
楹	-10.7856
瑛	-10.7857
實有	-10.7859
保定	-10.7859
也故曰	-10.7859
笞	-10.786
笏	-10.786
宣公	-10.7861
和托	-10.7861
不取	-10.7863
有名	-10.7866
可言	-10.7868
可行	-10.7873
削爵	-10.7874
人無	-10.7878
旬日	-10.7878
臺諌	-10.788
大行	-10.7881
歐	-10.7883
皆非	-10.7883
國子	-10.7883
瑚爾	-10.7886
不以為	-10.7888
有四	-10.7892
向髙	-10.7894
無心	-10.7894
一室	-10.7894
之㑹	-10.7896
相公	-10.7897
達海	-10.7897
襲職卒其	-10.7898
内大臣	-10.7902
文正	-10.7903
徐州	-10.7911
外史氏曰	-10.7913
廷和	-10.7916
之遺	-10.7918
法司	-10.7924
守正	-10.7925
北路	-10.793
惕	-10.7933
蹟	-10.7936
進封	-10.7937
善巴	-10.7944
之原	-10.7946
噶哈	-10.7947
之善	-10.7947
滑	-10.795
現係舉人	-10.7952
家事	-10.7953
霍集斯	-10.7955
誤國	-10.7955
漲	-10.7956
礪	-10.7956
天命之性	-10.7957
府君	-10.7957
琰	-10.7958
跋	-10.7959
瑕	-10.7959
冺	-10.796
黔	-10.7961
畆	-10.7962
醒	-10.7962
瀾	-10.7963
羈	-10.7963
文皇	-10.7963
四百	-10.7964
殿中侍御史	-10.7965
稔	-10.7965
攻城	-10.7967
范仲淹	-10.7967
其說	-10.7967
薩穆	-10.7967
洎	-10.797
廷尉	-10.7971
鯉	-10.7973
知此	-10.7976
賜諡	-10.7976
僚屬	-10.798
有子	-10.7982
水旱	-10.7985
去其	-10.7986
由䕶軍校從征	-10.7986
兩人	-10.7989
莫之	-10.799
亦未	-10.7992
庫爾	-10.7995
民心	-10.7995
毫髪	-10.7997
曾祖	-10.7998
也葢	-10.7998
未上	-10.8
之次子	-10.8002
者三	-10.8004
喇什	-10.8007
簡易	-10.8008
一舉	-10.801
一則	-10.801
所稱	-10.8012
事宜	-10.8014
䕶軍叅領	-10.8015
郡人	-10.8015
康節	-10.8016
涇原	-10.8018
學官	-10.8021
千百	-10.8022
會試	-10.8022
却是	-10.8023
地震	-10.8024
今日之	-10.8035
城南	-10.8037
正黄旗人	-10.8038
正黄旗人世居	-10.8038
孔子之	-10.8038
常保	-10.8042
賢良	-10.8045
公復	-10.8045
閩中理學淵源考卷	-10.8048
鑲黄旗人世居	-10.8048
来歸年分無考	-10.8049
故有	-10.8049
宣宗	-10.8053
和囉理	-10.8053
此乃	-10.8054
克之	-10.8056
睹	-10.8061
體仁	-10.8062
别號	-10.8063
狎	-10.8064
輅	-10.8064
壬申	-10.8064
可惜	-10.8065
技	-10.8067
心無	-10.8068
如初	-10.8068
祇	-10.8068
譖	-10.8069
蕪	-10.8069
二十二	-10.807
緘	-10.807
彞	-10.807
軫	-10.807
王府	-10.8071
鎮撫	-10.8071
薊	-10.8071
仁也	-10.8072
貎	-10.8072
毁譽	-10.8073
又奏	-10.8073
日以	-10.8073
太學生	-10.8078
天則	-10.8079
長吏	-10.8079
卞	-10.8084
熈寧	-10.8086
為法	-10.8088
不得其	-10.8091
忠誠	-10.8093
尤為	-10.8094
騎都尉兼一雲騎尉	-10.8094
曹操	-10.8095
寂然	-10.8096
紹聖	-10.81
召至	-10.81
文簡	-10.8111
不願	-10.8111
善者	-10.8112
地方人其曽孫	-10.8113
海中	-10.8115
不意	-10.8116
政府	-10.8117
遊擊	-10.8117
世儒	-10.8118
先世	-10.8118
係隸滿洲旗分之蒙古一	-10.8124
告之	-10.8132
勲徳	-10.8135
此非	-10.8136
大敗之	-10.8136
理之	-10.8152
之君	-10.8153
都是	-10.8155
范公	-10.8156
不恤	-10.8158
於我	-10.8159
御製	-10.816
持節	-10.8162
兇	-10.8168
以詩	-10.8168
不附	-10.8168
廣平府知府李清馥撰	-10.817
廷議	-10.817
燮	-10.817
鑲	-10.8171
乳	-10.8172
扎木素	-10.8172
另	-10.8173
彩	-10.8173
諛	-10.8176
豹	-10.8177
以私	-10.8178
捍	-10.8179
庾	-10.8179
鬚	-10.818
其職	-10.818
攬	-10.8181
始以	-10.8181
野史氏曰	-10.8182
龍圖閣直學士	-10.8183
小人之	-10.8186
不廢	-10.8188
生意	-10.8189
欲用	-10.8191
揚阿	-10.8194
之典	-10.8196
而行之	-10.8197
一卷	-10.8198
台州	-10.82
二等	-10.8201
誠心	-10.8207
者悉	-10.8209
至其	-10.821
原任中書	-10.821
河間	-10.8211
當下	-10.8219
胡氏	-10.822
有云	-10.8227
所致	-10.8229
▁加之職承襲	-10.8229
通州	-10.823
日與	-10.8231
兖州	-10.8233
送之	-10.8235
太子太保	-10.8235
贈騎都	-10.8238
楊榮	-10.8239
乾元	-10.824
為此	-10.8247
兀魯特地方	-10.8251
孟氏	-10.8251
日食	-10.8252
數千言	-10.8252
正白旗人	-10.8255
二十一	-10.8257
武王	-10.8257
心不	-10.8261
死於	-10.8261
經世	-10.8264
也又曰	-10.827
心為	-10.8271
縁事	-10.8272
雖欲	-10.8272
少時	-10.8273
生靈	-10.8276
兀	-10.8279
巴克	-10.8279
養之	-10.8283
濕	-10.8283
裳	-10.8285
彚	-10.8287
十五里	-10.8287
舶	-10.8289
論議	-10.8289
阿克蘇	-10.829
皇祐	-10.829
庚申	-10.8291
丁母憂	-10.8291
達爾扎	-10.8291
欽定四庫全書閩中理學淵源考卷	-10.8291
不事	-10.8294
朝政	-10.8296
尼雅哈	-10.8298
不由	-10.8299
留意	-10.83
築城	-10.8303
所自	-10.8309
説得	-10.8311
與人交	-10.8312
府事	-10.8315
直指	-10.8315
輔導	-10.8315
諸将	-10.8318
劾之	-10.8325
老矣	-10.8326
京東	-10.8327
西安	-10.8327
天意	-10.8328
學案	-10.8333
引疾	-10.8334
恩澤	-10.8338
威儀	-10.8339
來者	-10.8347
仍兼	-10.8348
正藍旗人	-10.8351
黄門	-10.8352
惟有	-10.8352
求仁	-10.8354
上疏曰	-10.8357
境内	-10.8358
矣乃	-10.8361
者以為	-10.8366
不仁	-10.8374
叔父	-10.8377
乃是	-10.8381
精兵	-10.8382
塋	-10.8385
以上俱係來歸年分無考之人	-10.8386
執中	-10.8386
從學	-10.8387
原任庫掌	-10.8389
凱旋	-10.8389
臣所	-10.8391
榻	-10.8392
不祥	-10.8393
賁	-10.8395
洩	-10.8395
瓜	-10.8395
新安	-10.8396
禾	-10.8396
剪	-10.8398
不難	-10.8399
低	-10.8399
閻	-10.8399
毫釐	-10.84
三世	-10.8402
岑	-10.8405
犒	-10.8405
特恩	-10.8405
國鑲藍旗人世居	-10.8407
奏上	-10.8407
考官	-10.841
洪武中	-10.841
宰臣	-10.841
曰非	-10.841
也如	-10.8416
復起	-10.8417
吉州	-10.8418
其力	-10.8418
詡	-10.8418
當死	-10.8418
得疾	-10.8427
一代	-10.8428
制置	-10.843
王文	-10.8431
悉以	-10.8431
互相	-10.8432
史館	-10.8434
東門	-10.8434
南郊	-10.8436
副將軍	-10.8439
只為	-10.8442
舍人	-10.8442
於學	-10.8446
長子康熙	-10.8447
原任筆帖式元孫	-10.8449
出來	-10.8449
何人	-10.8453
正白旗包衣管領下人世居	-10.8454
師魯	-10.8458
卓爾	-10.8458
敵兵	-10.8458
不論	-10.846
不思	-10.8463
蕭然	-10.8465
山先生	-10.8466
文正公	-10.8467
也惟	-10.8477
三品	-10.8478
軍旅	-10.8479
一節	-10.8479
失守	-10.848
正大	-10.848
乃復	-10.8481
可知矣	-10.8481
乃為	-10.8483
不能盡	-10.8485
君實	-10.8489
於中	-10.8489
靜坐	-10.8491
掇	-10.8492
見性	-10.8498
蔵	-10.8502
窟	-10.8503
擔	-10.8504
栗	-10.8506
民有	-10.8507
捧	-10.8507
暉	-10.8509
覧	-10.851
校書郎	-10.851
乙亥	-10.851
建州	-10.8511
押	-10.8511
駿	-10.8512
侍臣	-10.8514
講讀	-10.8515
府庫	-10.8515
莅	-10.8516
職方	-10.8516
縉紳	-10.8517
豆	-10.8518
曰先生	-10.852
彪	-10.8521
率性	-10.8522
責之	-10.8522
委曲	-10.8523
驍	-10.8523
建寧	-10.8526
在上	-10.8526
惠卿	-10.8527
祖諱	-10.8528
立言	-10.8529
乃可	-10.853
隆慶	-10.853
世家	-10.8533
文華	-10.8537
有疾	-10.8539
親叔	-10.854
聞之曰	-10.8542
一般	-10.8542
奉㫖	-10.8544
生理	-10.8547
直道	-10.8553
音布	-10.8554
必能	-10.8557
道體	-10.856
不敬	-10.8561
品級	-10.8569
納穆	-10.857
一次襲	-10.857
襲職現任	-10.8571
一息	-10.8574
自陳	-10.8575
精微	-10.858
何時	-10.8593
諸君子	-10.8598
者何	-10.86
國人	-10.8601
友人	-10.8601
子儀	-10.8604
中大夫	-10.8605
偷	-10.8606
見上	-10.8607
先人	-10.8608
本傳	-10.8608
諭之曰	-10.8609
原任佐	-10.861
具慶下第	-10.8612
昉	-10.8612
谿	-10.8613
問其故	-10.8614
瑗	-10.8615
父為户第	-10.8618
剽	-10.8619
不可復	-10.8619
流於	-10.8621
癸酉	-10.8621
京西	-10.8621
嵗月	-10.8623
邏	-10.8624
而用之	-10.8624
瀆	-10.8625
宸濠	-10.8626
鞠	-10.8626
其不	-10.8626
伯淳	-10.8628
獸	-10.8628
兩廣	-10.8629
宼	-10.8632
今上	-10.8633
安慶	-10.8634
忱	-10.8635
第四	-10.8636
䕶衛	-10.8636
者如	-10.8639
幕府	-10.8639
伊洛	-10.8641
爾濟	-10.8643
卒年五十	-10.8645
而天下	-10.8646
等官	-10.8651
改知	-10.8653
勤王	-10.8655
李文	-10.8655
瑚什	-10.8656
漕運	-10.8659
古文	-10.8663
亦原任	-10.8664
黙識	-10.867
為仁	-10.8676
泣下	-10.8678
四子	-10.8682
致祭	-10.8688
親切	-10.8689
荆湖	-10.869
庶人	-10.8691
世為	-10.8694
南方	-10.8695
信之	-10.8696
餘衆	-10.8696
字徳	-10.8696
陛下之	-10.8698
未甞	-10.8701
是月	-10.8704
孰能	-10.8706
殿下	-10.8708
目前	-10.8709
廐	-10.871
筭	-10.8713
稍長	-10.8717
四夷	-10.8717
識得	-10.8717
再遷	-10.8718
居敬	-10.8719
自明	-10.872
五名	-10.872
罷歸	-10.8723
尚書省	-10.8726
所及	-10.8727
祕	-10.8729
委任	-10.8731
様	-10.8733
蒞	-10.8734
婉	-10.8735
任之	-10.8736
吞	-10.8738
盡力	-10.8739
縳	-10.8739
陽縣	-10.874
則亦	-10.874
蔑	-10.8741
絃	-10.8741
夷狄	-10.8741
學也	-10.8741
掛	-10.8741
油	-10.8742
詎	-10.8743
考察	-10.8743
旦夕	-10.8744
收斂	-10.8744
甄	-10.8746
茹	-10.8746
意也	-10.8747
侂冑	-10.8747
而為之	-10.8747
頃刻	-10.8748
應天府	-10.8749
物而	-10.8751
法令	-10.8751
保現任	-10.8751
怒曰	-10.8753
何物	-10.8756
以資	-10.8761
建昌	-10.8761
許多	-10.8762
兄子	-10.8763
諸州	-10.8768
科爾沁地方	-10.8768
近侍	-10.8772
官制	-10.8772
一門	-10.8774
招降	-10.8779
性體	-10.878
矣若	-10.8784
一句	-10.8786
為陛下	-10.8787
有才	-10.8789
寧夏	-10.8796
也初	-10.8796
三萬	-10.8796
下車	-10.8798
為三	-10.88
處分	-10.8802
斯人	-10.8802
略曰	-10.8804
忠良	-10.8804
大悦	-10.8806
建文	-10.8809
一分	-10.8813
公謂	-10.8816
張俊	-10.8817
只此	-10.8818
一朝	-10.882
係隸滿洲旗分之䝉古	-10.882
武子	-10.882
之恩	-10.8821
卒以	-10.8823
洙	-10.8824
程子曰	-10.8824
職事	-10.8824
議事	-10.8824
松阿	-10.8829
出其	-10.883
若何	-10.883
莆田人	-10.8831
烏蘇	-10.8834
征明	-10.8834
水陸	-10.8836
太上	-10.8836
于上	-10.8838
道南源委	-10.884
瓘	-10.8841
厥後	-10.8842
址	-10.8845
蔬	-10.8846
揺	-10.8847
原係雲騎尉	-10.8847
嵗餘	-10.8848
憶	-10.8848
峭	-10.8849
摭	-10.8851
煽	-10.8851
濡	-10.8852
汲汲	-10.8853
僑	-10.8854
霍集占	-10.8856
易曰	-10.8857
餞	-10.8857
拊	-10.8858
起兵	-10.8858
爛	-10.8858
椒	-10.8858
冥	-10.8858
苐	-10.8858
譯	-10.8859
正白旗包衣	-10.8859
不存	-10.8861
忠貞	-10.8861
仁宗皇帝	-10.8862
中行	-10.8863
為己任	-10.8863
徽宗	-10.8869
欽宗	-10.8869
賓客	-10.887
巴朗	-10.887
忤㫖	-10.887
不知也	-10.8871
不服	-10.8871
惻然	-10.8873
少有	-10.8882
事不	-10.8882
和氣	-10.8883
正藍旗人世居	-10.8885
髙皇帝	-10.8888
稍稍	-10.8889
縣主簿	-10.889
畢竟	-10.8892
徙居	-10.8893
吉甫	-10.8894
太宗皇帝	-10.8898
未敢	-10.89
益州	-10.8901
札爾	-10.8906
月餘	-10.8908
朽	-10.8908
與我	-10.891
相對	-10.8915
後為	-10.8915
起家	-10.8917
不第	-10.8917
參議	-10.8922
物格	-10.8922
不能無	-10.8925
原任驍騎校曽孫	-10.8926
故謂之	-10.8928
道周	-10.8929
軍政	-10.893
常以	-10.8931
天啓	-10.8932
為多	-10.8936
可考	-10.8936
乃與	-10.8941
也因	-10.8944
甚急	-10.8946
鑲紅旗人世居	-10.8951
奏乞	-10.8953
後以	-10.8953
之家	-10.8954
一等台吉	-10.8958
征雲南	-10.8958
愿	-10.8962
淨	-10.8966
鐡	-10.8966
駝馬	-10.8967
蘆	-10.8968
淳熈	-10.8968
訓詁	-10.8968
原籍無考	-10.8969
必死	-10.897
掘	-10.8971
褚	-10.8971
慝	-10.8971
上曰朕	-10.8972
裹	-10.8973
股肱	-10.8973
時年	-10.8974
兾	-10.8974
頽	-10.8975
即命	-10.8975
補外	-10.8975
叅知政事	-10.8975
裒	-10.8979
婢	-10.898
郁	-10.8981
東坡	-10.8983
何異	-10.8992
保全	-10.8992
貴賤	-10.8992
常存	-10.8996
孺子	-10.8998
下手	-10.8999
論之	-10.9001
趙鼎	-10.9001
謂公	-10.9002
為御史	-10.9012
吳爾	-10.9015
遣中使	-10.9016
和州	-10.9018
動也	-10.9022
之賜	-10.9027
兵至	-10.903
欲使	-10.903
將相	-10.9031
海州	-10.9033
公名	-10.9035
髙下	-10.9037
丈夫	-10.9042
責其	-10.9042
以奉	-10.9042
羣小	-10.9043
俄而	-10.9044
臣願	-10.905
得志	-10.9051
小臣	-10.9052
有個	-10.9056
穆爾	-10.9058
疋	-10.9059
右都御史	-10.9069
何者	-10.9069
國鑲白旗人世居	-10.9069
亦皆	-10.9073
可觀	-10.9074
族孫	-10.9076
滿都	-10.9077
偽學	-10.9077
義利	-10.9078
竿	-10.9081
現係副䕶軍校	-10.9084
既歸	-10.9085
充國	-10.9087
縮	-10.9087
行義	-10.9088
額爾克	-10.9088
孰為	-10.9088
嬉	-10.9089
丙戌	-10.9089
猝	-10.909
宋濂	-10.9091
幻	-10.9092
鑰	-10.9092
濯	-10.9093
來歸年分無考其曽孫	-10.9093
㝠	-10.9096
器械	-10.9096
道義	-10.9097
實為	-10.9097
嶷	-10.9098
安之	-10.9098
種種	-10.9099
冬十月	-10.91
哀毁	-10.9102
辭不受	-10.9104
貧賤	-10.9107
之費	-10.911
家世	-10.911
二氏	-10.9112
逖	-10.9113
考績	-10.9115
龍門	-10.9118
黄金	-10.9119
欽定四庫全書八旗滿洲氏族通譜卷	-10.9123
四十二年	-10.9127
其主	-10.9127
開門	-10.9129
不衰	-10.9129
為難	-10.913
而南	-10.9134
然有	-10.9137
片	-10.914
識其	-10.914
九卿	-10.9144
人知	-10.9144
福清	-10.9149
襲扎薩克多羅郡王	-10.915
浩然	-10.9154
請老	-10.9156
盗賊	-10.9156
源流	-10.916
朝士	-10.916
加以	-10.916
學行	-10.9162
肖	-10.9165
所由	-10.9169
有何	-10.917
謂此	-10.9171
字文	-10.9172
四十九	-10.9179
處事	-10.9191
大水	-10.9191
萬餘衆	-10.9192
何其	-10.9192
盡矣	-10.9193
遣之	-10.9199
閫	-10.92
尋常	-10.92
以上俱係國初来歸之人	-10.92
久不	-10.9202
私欲	-10.9202
集義	-10.9204
厄	-10.9204
四曰	-10.9205
克什	-10.9207
烏巴什	-10.9207
以慰	-10.9207
鷄	-10.9208
个	-10.9208
浄	-10.921
當阿	-10.9211
囑	-10.9212
土人	-10.9212
販	-10.9212
丁内艱	-10.9212
察罕丹津	-10.9213
傳卷之	-10.9213
終身不	-10.9213
綂	-10.9213
貂	-10.9214
大理寺	-10.9214
凋	-10.9214
覘	-10.9215
不甚	-10.9217
忻	-10.9217
僥倖	-10.9218
飄	-10.9218
扎木	-10.9219
善也	-10.9219
夜半	-10.922
桀	-10.922
寧逺	-10.9221
嗾	-10.9221
璽書	-10.9224
恩詔所加之職	-10.9227
乃能	-10.9228
著於	-10.923
形氣	-10.9232
多見	-10.9232
所生	-10.9233
自相	-10.9236
檢校	-10.9237
陵寢	-10.9237
公為人	-10.9239
三載	-10.9241
管仲	-10.9241
太宰	-10.9243
遺事	-10.9243
尤多	-10.9243
謂人曰	-10.9244
文書	-10.9246
石亨	-10.9247
亦不能	-10.9261
諾爾	-10.9261
色勒	-10.9261
無幾	-10.9262
延州	-10.9264
見在	-10.9264
過失	-10.9267
總兵官	-10.9268
遂定	-10.927
學以	-10.9276
威福	-10.9277
之方	-10.9277
四千	-10.9278
萬石	-10.9279
若以	-10.9279
也帝	-10.9283
而進	-10.9287
直學士	-10.9288
般	-10.9289
考之	-10.929
于家	-10.929
光宗	-10.9291
所親	-10.9292
入門	-10.9296
知行	-10.9297
機宜	-10.9302
令尹	-10.9303
明安	-10.9306
者多矣	-10.9306
語錄	-10.9307
不敢以	-10.9307
道而	-10.9308
不移	-10.9308
隨事	-10.9312
胡什	-10.9313
分無考其曽孫	-10.9316
桐	-10.9316
牟	-10.9318
辨之	-10.9319
厓	-10.9323
即所謂	-10.9323
體也	-10.9324
中道	-10.9325
經歴	-10.9326
海道	-10.9327
涖	-10.9327
蔓	-10.9327
皷	-10.9329
帕	-10.933
鋪	-10.933
丁亥	-10.933
便殿	-10.9331
鞍馬	-10.9331
狡	-10.9332
端明殿學士	-10.9332
亘	-10.9334
砲	-10.9334
癸巳	-10.9336
▁初来歸其子	-10.9338
紿	-10.9338
吿	-10.934
灰	-10.934
止於	-10.9341
賜號	-10.9342
袤	-10.9342
端倪	-10.9343
加太子太保	-10.9343
百家	-10.9346
看得	-10.9346
處置	-10.9346
巡按	-10.9347
軍前	-10.9348
如也	-10.9348
城人	-10.9349
丕揚	-10.9351
是性	-10.9351
江北	-10.9353
先生謂	-10.9353
陰陽	-10.9353
尤甚	-10.9357
也昔	-10.9358
方今	-10.936
下詔獄	-10.9361
風采	-10.9368
一雲騎尉	-10.9368
二十七	-10.9368
形容	-10.9369
戰守	-10.9369
同心	-10.937
守者	-10.9372
數千里	-10.9373
今襲	-10.9376
公即	-10.9376
晏子諫	-10.9383
付之	-10.9384
推恩	-10.9384
之東	-10.9384
地方來歸年分無考	-10.9386
星阿	-10.9386
合於	-10.9386
輕車都尉	-10.9387
曰夫	-10.9387
權臣	-10.9388
承天	-10.9389
可以為	-10.939
順天	-10.9391
家學	-10.9391
果然	-10.9395
好古	-10.9395
後征	-10.9395
致其	-10.9398
只要	-10.9399
天生	-10.94
阿布	-10.9401
川陜	-10.9402
始於	-10.9403
之主	-10.9403
皆從	-10.9404
九日	-10.9404
其國	-10.9404
婺	-10.9405
知言	-10.941
襲輔國公	-10.9413
曾子	-10.9414
自見	-10.9417
先登	-10.9419
中軍	-10.9421
乎對曰	-10.9426
左丞	-10.9429
一變	-10.9429
顔氏	-10.943
盛徳	-10.9431
征伐	-10.9431
西寧	-10.9434
蘇完地方	-10.9435
天下之人	-10.9436
是心	-10.9436
衢州	-10.9437
所有	-10.9438
具奏	-10.9439
禦之	-10.9441
在京	-10.9443
咸平	-10.9443
祖考	-10.9448
殄	-10.9449
現任中書	-10.945
帷	-10.9451
扁	-10.9451
帙	-10.9451
槖	-10.9451
渥	-10.9451
國子博士	-10.9453
朋素克	-10.9454
猾	-10.9454
竅	-10.9454
瓦爾達	-10.9454
靳	-10.9455
禮儀	-10.9455
琛	-10.9456
使民	-10.9457
世子	-10.9457
夭	-10.9457
粥	-10.9458
楫	-10.9458
嬖	-10.9459
或勸	-10.9459
翟	-10.9459
厰	-10.9459
怖	-10.946
孜孜	-10.946
丙寅	-10.9462
二十三	-10.9462
枝葉	-10.9463
上曰卿	-10.9466
摯	-10.9468
頥	-10.9468
抃	-10.9473
師還	-10.9474
於内	-10.9475
命有司	-10.9477
將來	-10.9479
與弟	-10.9479
徳行	-10.948
逹色	-10.9481
第五子	-10.9481
正紅旗人	-10.9484
惡其	-10.9484
當先	-10.9487
御史臺	-10.9493
事實	-10.9494
校元孫	-10.9498
而後有	-10.95
不好	-10.9502
有方	-10.9503
公品級	-10.9508
公曰吾	-10.951
機務	-10.9512
臣請	-10.9514
石門	-10.9515
請罷	-10.9519
水軍	-10.952
曰臣聞	-10.9523
於易	-10.9523
金兵	-10.9524
此之謂也	-10.9524
始至	-10.9524
曰吾聞	-10.9528
昆弟	-10.9528
廣平	-10.9529
山隂	-10.953
去就	-10.9535
之重	-10.9538
餘皆	-10.9539
日新	-10.9541
將兵	-10.9541
有詩	-10.9543
乃還	-10.9545
尚可	-10.9547
之任	-10.9551
卒于	-10.9553
瑚錫	-10.9554
作用	-10.9555
文選	-10.9557
猶在	-10.956
北面	-10.9561
詔封	-10.9561
思哈	-10.9566
納海	-10.9566
稜	-10.957
竦	-10.957
如之何	-10.9573
江浙	-10.9573
豈無	-10.9574
椿	-10.9574
攀	-10.9576
講明	-10.9576
馨	-10.9576
彥博	-10.9577
輜重	-10.9578
阿濟格	-10.9578
焚之	-10.9578
生子	-10.958
衙	-10.9581
轅	-10.9581
祔	-10.9583
錫爾	-10.9583
街	-10.9583
懾	-10.9584
原任親軍校	-10.9584
蟲	-10.9584
迴	-10.9586
圖庫	-10.9586
頸	-10.9586
欒	-10.9586
臥	-10.9587
駢	-10.9588
五世	-10.9589
現任六品官	-10.9589
乙巳	-10.9589
道士	-10.9589
字季	-10.959
韓琦	-10.9591
之西	-10.9592
使至	-10.9593
公輔	-10.9593
景祐	-10.9593
利病	-10.9596
齊國	-10.9603
死不	-10.9606
心術	-10.9606
承㫖	-10.9613
章奏	-10.9613
清河	-10.9613
之靈	-10.9615
稽古	-10.9618
不學	-10.9619
忠節	-10.9623
浩善	-10.9623
襲扎薩克輔國公	-10.9626
乆矣	-10.9627
詹事府	-10.9632
恐懼	-10.9635
鑲黄旗人	-10.9635
英額	-10.9635
語人曰	-10.9636
未襲	-10.9637
官爵	-10.9637
必得	-10.9642
與兄	-10.9645
南征	-10.9647
是則	-10.965
喜怒哀樂未發	-10.9653
涇	-10.9654
化之	-10.9659
宣府	-10.9663
復用	-10.9663
之精	-10.9665
一時之	-10.9666
入海	-10.9669
登極	-10.9669
鄆	-10.967
不作	-10.9672
衡州	-10.9676
襄公	-10.9676
響	-10.9677
赫訥	-10.9682
哈喇	-10.9685
此道	-10.9686
其忠	-10.9687
軍馬	-10.9691
磯	-10.9693
布祿	-10.9693
爻	-10.9699
吁	-10.97
藹	-10.97
琨	-10.9702
特賜	-10.9702
惶	-10.9703
攀龍	-10.9706
和卓	-10.9707
去位	-10.9707
遞	-10.9707
甥	-10.9708
縷	-10.9708
電	-10.9708
又從	-10.971
八日	-10.971
舘	-10.971
膝	-10.9711
褐	-10.9711
裨	-10.9711
學派按	-10.9711
單騎	-10.9712
西川	-10.9712
焚其	-10.9712
卒其親弟	-10.9713
人望	-10.9714
慶歴	-10.9715
甘泉	-10.9715
輔政	-10.9715
喟然	-10.9715
與李	-10.9716
出身	-10.9718
消息	-10.9719
目之	-10.9723
夏四月	-10.9726
兗州	-10.9728
縱横	-10.973
易學	-10.9731
一理	-10.9731
天機	-10.9733
常山	-10.9736
上流	-10.9737
甲科	-10.9738
指為	-10.9738
采石	-10.974
文肅	-10.9741
上諭	-10.9745
先正	-10.9746
無為	-10.9747
涼	-10.9748
瑚理	-10.9748
不可謂	-10.9749
遂罷	-10.9753
之列	-10.9755
士氣	-10.9755
也公曰	-10.9756
事而	-10.9756
得力	-10.9759
語言	-10.976
不中	-10.976
訥殷地方	-10.9762
生生	-10.9763
管領	-10.9764
以法	-10.9764
名教	-10.9764
興起	-10.9765
舉兵	-10.9765
以通	-10.9765
患難	-10.9766
不設	-10.9768
原任員外	-10.9769
敬之	-10.9771
學宫	-10.9773
鄉舉	-10.9773
八人	-10.9773
具疏	-10.9774
乎哉	-10.9775
三等男	-10.9776
文獻	-10.9778
正字	-10.9778
從其	-10.9784
公因	-10.9787
任郎中	-10.9787
相國	-10.9789
要在	-10.979
上方	-10.979
大儒	-10.9793
朝野	-10.9794
不踰	-10.9797
在其中	-10.9797
叅領兼佐領	-10.9797
龍山	-10.9799
善政	-10.98
為首	-10.9803
也陛下	-10.9805
臺省	-10.9806
出戰	-10.9806
之可	-10.9806
其位	-10.981
䕶軍統領	-10.9811
福寧	-10.9814
武夷	-10.9815
墾	-10.9817
未足	-10.9821
髙弟	-10.9821
不豫	-10.9821
心學	-10.9821
額琳沁	-10.9822
正白旗包衣旗鼓人世居瀋陽地方來	-10.9825
赴闕	-10.9825
旺舒克	-10.9826
搖	-10.9828
四日	-10.9828
諸家	-10.9829
譁	-10.9833
疫	-10.9833
耄	-10.9834
梏	-10.9835
擯	-10.9835
浮屠	-10.9837
剛柔	-10.9837
䟦	-10.9837
晴	-10.9838
殞	-10.9838
襲扎薩克固山貝子	-10.9839
虢	-10.9839
構	-10.9839
太子太傅	-10.984
現係副驍騎校	-10.984
奉行	-10.9841
珏	-10.9842
囬	-10.9842
能知	-10.9843
綰	-10.9844
領兵	-10.9846
祖母	-10.9847
濓溪	-10.9847
之所為	-10.9849
者謂之	-10.9851
其害	-10.9851
賊兵	-10.9851
察之	-10.9851
潁川	-10.9852
維揚	-10.9854
髙麗	-10.9856
遵化	-10.9857
制置使	-10.9859
章惇	-10.986
而况	-10.9862
皆出	-10.9863
三朝	-10.9867
不欺	-10.9874
皇甫	-10.9875
萬殊	-10.9877
詔授	-10.9878
少孤	-10.9878
求諸	-10.9879
召之	-10.988
天心	-10.988
叔孫	-10.9881
推誠	-10.9882
太息	-10.9882
兵三千	-10.9885
官保	-10.9886
諫曰	-10.9886
静中	-10.9887
存之	-10.9888
真心	-10.9888
氏封	-10.989
王珪	-10.9893
不獨	-10.9893
不愧	-10.9896
山水	-10.9897
分為	-10.9897
復何	-10.9902
無善	-10.9904
嗜學	-10.9907
大旱	-10.9908
泰州	-10.9909
伏兵	-10.9911
之始	-10.9913
侍御	-10.9917
盡忠	-10.9922
不屑	-10.9924
定議	-10.9927
問答	-10.9927
邪説	-10.993
上亦	-10.9934
下有	-10.9935
後主	-10.9935
之誠	-10.9939
一世	-10.994
要之	-10.9942
氏族世居	-10.9945
扎薩克圖汗	-10.995
浦城	-10.9955
之訓	-10.9955
駝	-10.9956
分道	-10.9958
瘴	-10.9959
梯	-10.9959
殖	-10.996
也臣	-10.9961
濱	-10.9962
揣	-10.9963
念頭	-10.9964
讞	-10.9965
邈	-10.9965
幅	-10.9965
稼	-10.9966
戀	-10.9969
之舊	-10.9969
左春坊	-10.9969
▁初率	-10.997
繆	-10.997
冨	-10.997
萬全	-10.9971
視聽言動	-10.9971
摇	-10.9972
武英殿大學士	-10.9972
襃	-10.9972
志在	-10.9972
煜	-10.9973
之德	-10.9973
遯	-10.9973
箋	-10.9975
絀	-10.9975
舊臣	-10.9975
歷	-10.9978
譛	-10.9978
右丞	-10.9979
初為	-10.9982
降者	-10.9985
和爾	-10.9985
吕氏	-10.9986
萬餘人	-10.9987
其孤	-10.9987
假借	-10.9987
紫峰	-10.9987
拒戰	-10.9994
下至	-10.9998
些子	-10.9998
者無	-10.9999
告歸	-10.9999
淺深	-11
理宗	-11.0002
何由	-11.0005
外戚	-11.0007
而致	-11.0007
撫州	-11.0008
韓愈	-11.0009
損益	-11.001
格致	-11.0011
後生	-11.0012
凡三	-11.0014
陞南京	-11.0016
太極圖	-11.0017
備禦	-11.0018
索爾	-11.002
王者	-11.0021
進士仕至	-11.0022
鄭氏	-11.0026
世道	-11.0027
操存	-11.0027
寐	-11.0028
死矣	-11.0029
隨大軍	-11.0031
利用	-11.0033
去官	-11.0034
而弗	-11.0034
不懈	-11.0036
助教	-11.0038
友愛	-11.0039
則已	-11.0039
切責	-11.004
精明	-11.0041
之象	-11.0041
驍騎	-11.0041
黒龍江	-11.0043
都指揮使	-11.0044
待詔	-11.0045
用其	-11.0045
與物	-11.0047
封爵	-11.0048
兩朝	-11.0048
也問	-11.0048
一新	-11.0049
應天	-11.005
三格	-11.0051
人能	-11.0052
慊	-11.0053
叡	-11.0062
謚曰	-11.0064
豈得	-11.0065
合一	-11.0065
五十年	-11.0066
衣服	-11.0067
立教	-11.0074
濟農	-11.0076
部曲	-11.0078
不改	-11.0079
怡	-11.0085
亦原	-11.0085
薦為	-11.0088
燔	-11.009
欽定外藩䝉古回部王公表傳卷之	-11.0091
两	-11.0091
壑	-11.0092
皆得	-11.0093
擴	-11.0094
礟	-11.0094
宣撫司	-11.0094
巴里坤	-11.0096
弓矢	-11.0098
釋奠	-11.0098
赫爾	-11.0098
帯	-11.0098
瘠	-11.0099
檀	-11.0099
文淵閣	-11.0099
敇	-11.0101
嵗時	-11.0101
鐫	-11.0102
萬計	-11.0102
國家之	-11.0102
國正紅旗人世居	-11.0103
若謂	-11.0103
昔者	-11.0107
一姓其氏族世居	-11.0109
譙	-11.0111
以防	-11.0113
外物	-11.0113
欲求	-11.0114
商賈	-11.0115
究竟	-11.0117
岳飛	-11.0118
從上	-11.0119
恩格	-11.0121
克錫	-11.0122
削去	-11.0129
經理	-11.0134
神仙	-11.0139
把總	-11.014
血氣	-11.014
先生為	-11.0142
人謂	-11.0146
同郡	-11.0153
徙牧	-11.0153
等䕶衛	-11.0155
六日	-11.0156
大舉	-11.0156
靈明	-11.0157
外無	-11.0159
母喪	-11.0162
餘姚	-11.0163
原任長史	-11.0163
殺其	-11.0165
器之	-11.0167
者固	-11.0169
叅將	-11.017
顔色	-11.0173
李賢	-11.0176
建陽	-11.0178
殆盡	-11.0178
又為	-11.0182
李綱	-11.0182
千金	-11.0188
史記	-11.0189
聖賢之學	-11.0189
之深	-11.019
自欺	-11.0191
進用	-11.0192
之基	-11.0192
功利	-11.0193
世人	-11.0194
歴代	-11.0201
公遂	-11.0203
大觀	-11.0205
天聰時	-11.0205
第八	-11.0206
視其	-11.0206
大戰	-11.0211
叔祖	-11.0213
中允	-11.0214
殫	-11.0214
世襲罔替	-11.0214
自㓜	-11.0218
可得而	-11.0218
營撥守	-11.022
之所在	-11.0222
博貝	-11.0222
翳	-11.0223
以罪	-11.0224
鄴	-11.0225
山海	-11.0226
沖	-11.0226
渚	-11.0226
焞	-11.0228
榆	-11.0229
庚寅	-11.0229
釋褐	-11.023
良臣	-11.023
誚	-11.0231
冢	-11.0231
扎薩克固山貝子	-11.0232
青衮咱卜	-11.0233
饌	-11.0234
純粹	-11.0234
癸卯	-11.0234
隳	-11.0235
諮	-11.0235
卒後	-11.0236
慟哭	-11.0236
圉	-11.0238
宵	-11.0238
丕勒	-11.0239
上皇	-11.024
果有	-11.0243
自為户第	-11.0243
只是一個	-11.0244
之國	-11.0244
經綸	-11.0244
貴妃	-11.0249
蘇軾	-11.0249
兼侍讀學士	-11.0249
不阿	-11.0251
復請	-11.0253
柰何	-11.0254
自稱	-11.0254
竭力	-11.0258
綱紀	-11.0259
何嘗	-11.026
伊尹	-11.026
稽首	-11.0262
現任䕶	-11.0262
必須	-11.0264
李絳	-11.0264
其過	-11.0264
以語	-11.0265
專以	-11.0266
字彦	-11.0267
知性	-11.0268
力請	-11.0268
何哉	-11.0269
四十餘	-11.027
顧問	-11.0271
典籍	-11.0272
此二	-11.0272
希憲	-11.0274
公又	-11.0274
秉政	-11.0278
不假	-11.0284
篤信	-11.0285
其要	-11.0288
五格	-11.029
下之	-11.029
關中	-11.0292
阿海	-11.0293
物欲	-11.0293
何敢	-11.0294
升之	-11.0295
永興	-11.0296
鑲藍旗包衣	-11.0297
世間	-11.0302
國體	-11.0303
之習	-11.0304
儒士	-11.0305
篤志	-11.0307
卒於官	-11.0307
神武	-11.0308
無餘	-11.0309
阿喇	-11.0309
其鄉	-11.031
無知	-11.0311
山在	-11.0311
潛心	-11.0313
相近	-11.0314
存焉	-11.0315
有常	-11.0315
布原任	-11.0315
三十餘	-11.0316
不遺	-11.0318
以天下	-11.0319
鑲白旗人	-11.0319
六十里	-11.032
原任筆帖式四世孫	-11.032
書生	-11.0321
此豈	-11.0322
卒贈	-11.0325
悉平	-11.0328
諸台吉	-11.033
特進	-11.033
何等	-11.0331
既有	-11.0332
五十餘	-11.0334
復還	-11.0335
司郎中	-11.0335
自若	-11.0336
無所得	-11.0336
授為二等輕車都尉	-11.0336
亦必	-11.0338
端坐	-11.0339
也於是	-11.0342
豁	-11.0343
有是	-11.0345
告以	-11.0349
宗伯	-11.035
兵陣亡	-11.0352
乍	-11.0353
原任筆帖式曽孫	-11.0353
永福	-11.0353
白雲	-11.0354
巴圖爾	-11.0354
喀爾喀部人姓博爾濟吉特	-11.0357
正德	-11.0357
抽	-11.0359
五十里	-11.0359
水利	-11.0359
以救	-11.036
鳯翔	-11.036
僉都御史	-11.036
恩詔加至二等輕車都尉	-11.036
東山	-11.0361
馴	-11.0361
巴林	-11.0362
魯公	-11.0363
岳託	-11.0363
骸	-11.0364
株	-11.0364
別	-11.0364
擣	-11.0365
必為	-11.0365
汎	-11.0366
一以貫之	-11.0366
梧	-11.0366
潦	-11.0367
軍國	-11.0367
芒	-11.0367
尺寸	-11.0368
經書	-11.0369
提㸃	-11.0371
逓	-11.0371
皆自	-11.0371
綵	-11.0372
寤	-11.0372
蝕	-11.0373
梟	-11.0373
徤	-11.0374
太平興國	-11.0375
庶㡬	-11.0375
象昇	-11.0375
之本體	-11.0377
其論	-11.0378
繳	-11.0378
亳州	-11.038
大海	-11.0381
改過	-11.0381
藤	-11.0381
者雖	-11.0382
恐其	-11.0384
召問	-11.0387
進呈	-11.0387
為户第	-11.0387
舒書	-11.0388
偽將	-11.0391
㕘議	-11.0391
乘勝	-11.0391
季子	-11.0393
以父	-11.0395
於後	-11.0396
色克	-11.0396
竟以	-11.0398
上書言	-11.04
誥命	-11.0401
所獲	-11.0402
淮陽	-11.0404
難得	-11.0405
萬物之	-11.0405
等護衛	-11.0407
現任三等侍衞	-11.0407
殿前	-11.0408
四面	-11.0408
當道	-11.0409
奪情	-11.041
惜其	-11.0415
銀幣	-11.042
助之	-11.0422
善人	-11.0422
今年	-11.0422
兵備	-11.0423
被執	-11.0424
固請	-11.0424
善之	-11.0425
公始	-11.0426
大成	-11.0428
賜金	-11.0429
上疏請	-11.0429
世職	-11.0435
之所以為	-11.0436
劾奏	-11.0437
東京	-11.0437
大猷	-11.0437
惠安	-11.0437
縣尉	-11.044
劉豫	-11.0441
唐虞	-11.0443
黒色	-11.0447
塞爾	-11.0452
流民	-11.0452
以問	-11.0453
瓦爾喀	-11.0454
早卒	-11.0457
通書	-11.0457
矣上	-11.0457
于世	-11.0458
四十九年	-11.0458
良久	-11.0459
任步軍校	-11.0462
從遊	-11.0463
泗州	-11.0464
大略	-11.0464
不務	-11.0466
追之	-11.047
給之	-11.0471
諍	-11.0476
所守	-11.0476
文詞	-11.0477
為盜	-11.0477
及諸	-11.0477
論者	-11.048
總是	-11.0483
表章	-11.0487
乃自	-11.0487
帝怒	-11.0488
甌	-11.0488
條上	-11.0489
六百	-11.049
勸上	-11.049
曰今日	-11.0491
生徒	-11.0491
憂國	-11.0492
徳爾	-11.0493
其理	-11.0493
江夏	-11.0493
拉哈	-11.0495
成衮扎布	-11.0495
璞	-11.0497
艦	-11.0497
軀	-11.0498
己亥	-11.0498
覬	-11.0499
留中	-11.05
瞿	-11.0501
牖	-11.0502
不覩不聞	-11.0503
二十名	-11.0504
䑕	-11.0504
爾渾	-11.0505
勿忘勿助	-11.0506
鯁	-11.0507
床	-11.0508
㤀	-11.0509
雒	-11.051
㓕	-11.0511
妥	-11.0511
首領	-11.0512
畋	-11.0513
殿中丞	-11.0513
和碩特	-11.0514
富民	-11.0516
之妻	-11.0517
現任筆帖	-11.0518
十巻	-11.0518
襲鎮國公	-11.052
有功授雲騎尉	-11.052
貢士	-11.052
天下後世	-11.0521
軍叅領	-11.0521
興國	-11.0523
執法	-11.0523
承襲卒其子	-11.0528
罷相	-11.0528
郡國	-11.0529
矢石	-11.0533
其議	-11.0535
海口	-11.0536
後宫	-11.0541
之力也	-11.0544
瑪哈	-11.0544
小子	-11.0546
彼此	-11.0546
中書省	-11.0547
冠服	-11.0548
明經	-11.055
臨御	-11.0552
文敏	-11.0553
申公	-11.0554
晏然	-11.0555
一軍	-11.0556
而心	-11.0557
原任三	-11.0558
廣徳	-11.0558
首以	-11.056
授受	-11.0562
曰君子	-11.0563
有功授	-11.0563
置酒	-11.0564
問公	-11.0565
五萬	-11.0566
原任知縣	-11.0567
東都	-11.0569
瑪拉	-11.0572
宋之	-11.0574
被召	-11.0578
自强	-11.0578
江左	-11.0579
刑獄	-11.0581
果爾	-11.0585
言陛下	-11.0585
食邑	-11.0587
州教授	-11.0587
寡欲	-11.0591
繼母	-11.0595
岱原任	-11.0597
擢為	-11.0598
依舊	-11.0599
所司	-11.0599
楊時	-11.0599
文靖	-11.0601
形於	-11.0603
圖原任	-11.0603
卒於家	-11.0603
將何	-11.0603
是無	-11.0606
避地	-11.0607
刑部主事	-11.0609
宦者	-11.0611
奈	-11.0613
冬至	-11.0614
法也	-11.0615
自能	-11.0615
也既	-11.0616
與俱	-11.0618
以應	-11.0618
發而	-11.0619
人之心	-11.0621
去國	-11.0622
既得	-11.0623
時已	-11.0623
主一	-11.0623
不拜	-11.0624
收其	-11.0625
楊公	-11.0627
與同	-11.0627
天下之事	-11.0627
克其城	-11.0629
欽定四庫全書八旗滿洲氏族通譜目録	-11.063
者故	-11.063
改容	-11.0631
來歸年	-11.0633
誄	-11.0633
帆	-11.0634
自處	-11.0637
論其	-11.0637
隕	-11.0638
現任親軍校	-11.0638
灾	-11.0639
豕	-11.064
塹	-11.0641
祥符	-11.0641
㤙	-11.0642
乙卯	-11.0642
按察副使	-11.0642
訾	-11.0642
紛紜	-11.0642
▁初来歸其孫	-11.0642
觀文殿學士	-11.0643
太祖髙皇帝	-11.0643
踞	-11.0643
喀什噶爾	-11.0644
廂	-11.0646
鄉黨	-11.0646
奮勉	-11.0648
乞降	-11.0648
賢才	-11.0649
授之	-11.0652
一千	-11.0652
䛕	-11.0652
固不	-11.0653
刑罰	-11.0653
逾年	-11.0655
莒	-11.0656
自持	-11.066
大人	-11.0665
禪學	-11.0665
金壇	-11.0666
二十八	-11.0667
步軍校	-11.0668
丁巳	-11.0669
有人	-11.0671
兩河	-11.0671
獲其	-11.0672
交通	-11.0672
後先	-11.0673
歸年分無考其元孫	-11.0677
進士及第	-11.0677
無乃	-11.0679
逆黨	-11.0683
草堂	-11.0684
已有	-11.0684
猶可	-11.0684
無由	-11.0685
其徳	-11.0686
扎薩克多羅郡王	-11.0689
公知	-11.0692
善而	-11.0693
雖未	-11.0698
長白山	-11.0699
東閣	-11.0699
授一等台吉	-11.0703
士皆	-11.0703
危坐	-11.0703
太過	-11.071
章疏	-11.0712
鄂對	-11.0712
大國	-11.0718
現任䕶軍	-11.072
處也	-11.0721
貫通	-11.0722
而後已	-11.0732
有時而	-11.0735
仍令	-11.0738
曰不可	-11.0738
事多	-11.0748
指其	-11.0749
常人	-11.0749
科道	-11.075
難以	-11.0751
大雨	-11.0752
遑	-11.0758
餓	-11.0763
且以	-11.0767
賜以	-11.0767
成祖	-11.0767
隆興	-11.0768
瑚圖	-11.077
後漢	-11.077
土謝圖汗	-11.0771
天子之	-11.0772
栻	-11.0772
右係國初來歸之人	-11.0773
擴充	-11.0777
此身	-11.0777
朝奉郎	-11.0778
湮	-11.0778
世蕃	-11.0778
景帝	-11.0778
雋	-11.0779
良知之	-11.078
爐	-11.0781
隄	-11.0782
劵	-11.0783
王子	-11.0784
克己	-11.0784
蔡文莊	-11.0785
泯	-11.0786
羙	-11.0786
諂	-11.0786
莱	-11.0786
奭	-11.0786
腰	-11.0786
上念	-11.0786
舉於鄉	-11.0787
不敢言	-11.0788
原任藍翎侍衞	-11.0788
慿	-11.0788
剔	-11.0789
葵	-11.0789
兼權	-11.0792
騎兵	-11.0793
原任藍翎侍衛	-11.0793
築室	-11.0794
當路	-11.0799
城郭	-11.0799
明主	-11.0801
舉業	-11.0802
年譜	-11.0802
蔡氏	-11.0803
特命	-11.0804
詔令	-11.0804
上謂	-11.0804
佳為滿洲一姓此	-11.0807
然非	-11.0809
工詩	-11.0809
潞	-11.081
聖主	-11.0813
立碑	-11.0813
追贈	-11.0816
發憤	-11.0818
而先生	-11.0819
既成	-11.0819
父喪	-11.0819
訃聞	-11.082
而不敢	-11.0822
儼然	-11.0822
北山	-11.0823
也何	-11.0826
牛羊	-11.0827
髙第	-11.0831
之過	-11.0832
大亂	-11.0832
恩詔授	-11.0833
心之本體	-11.0833
泣曰	-11.0834
語之曰	-11.0834
以利	-11.0835
進學	-11.0836
優詔	-11.0837
起居注	-11.0839
請於	-11.084
授為騎都尉	-11.0841
於理	-11.0848
布爾哈	-11.0849
寛厚	-11.0851
初以	-11.0853
直以	-11.0856
亦當	-11.0856
大父	-11.0857
之於是	-11.0858
來歸年分無考	-11.086
朝臣	-11.0861
有物	-11.0861
討論	-11.0865
司業	-11.0865
三十八年	-11.0866
銜之	-11.0866
剛毅	-11.0866
俊卿	-11.0868
三尺	-11.0869
廬山	-11.0872
聖人之學	-11.0876
當自	-11.0877
我朝	-11.0877
論性	-11.0877
白石	-11.0878
信州	-11.0878
等事	-11.0881
無意	-11.0881
此學	-11.0885
年九十	-11.0889
所遺	-11.0892
天下士	-11.0894
復遣	-11.0895
忝	-11.0896
偏圖	-11.0899
零	-11.0901
七八	-11.0904
故相	-11.0904
後因	-11.0905
鄂州	-11.0908
孥	-11.0908
大要	-11.0909
若干卷	-11.0909
貼	-11.0909
寳慶	-11.091
係國初來歸之人	-11.0914
鄂木布	-11.0919
晋	-11.092
城縣	-11.0921
薊州	-11.0922
臣不敢	-11.0923
中郎將	-11.0924
廊	-11.0925
壩	-11.0925
原任頭等䕶衞	-11.0925
沸	-11.0926
鎬	-11.0926
鎗	-11.0926
行臺	-11.0927
夣	-11.0929
科給事中	-11.093
當為	-11.0932
國子司業	-11.0932
蠱	-11.0934
洪範	-11.0935
大凌河	-11.0936
楚州	-11.0937
花色	-11.0937
贒	-11.0937
撲	-11.0938
猥	-11.0938
相顧	-11.0939
阿爾泰	-11.0941
其㫖	-11.0942
仝	-11.0943
思孝	-11.0943
而逝	-11.0944
蘄	-11.0944
巴拜	-11.0945
儀禮	-11.0948
非其人	-11.0949
什泰	-11.095
不可用	-11.0951
之流行	-11.0954
禮之	-11.0955
原係副驍騎校	-11.0956
心之所	-11.0958
為害	-11.096
遺文	-11.0962
五十九	-11.0963
襲職遇	-11.0973
自負	-11.0975
失所	-11.0978
不畏	-11.098
又徙	-11.0983
往復	-11.0985
尋改	-11.0986
争之	-11.0986
分無考	-11.0987
初學	-11.0989
如公	-11.0989
四十一年	-11.0989
原任護軍校	-11.0989
記曰	-11.0989
出守	-11.0989
不義	-11.0992
反復	-11.0996
及至	-11.1002
達克	-11.1003
勝之	-11.1003
之碑	-11.1005
獻子	-11.1005
則天下	-11.101
以母老	-11.1012
觀察使	-11.1013
者在	-11.1013
蘇赫	-11.1014
散處於	-11.1015
而忘	-11.1018
自覺	-11.1019
酣	-11.1021
雖無	-11.1024
楚子	-11.1027
高祖	-11.1029
存柱	-11.1029
四十八年	-11.1029
焉其	-11.1031
庶子	-11.1031
保原任	-11.1032
是書	-11.1033
兩路	-11.1037
聞人	-11.1037
只是一	-11.1039
授為一等輕車都尉	-11.1041
有形	-11.1045
以立	-11.1046
之念	-11.1051
做得	-11.1051
帝以	-11.1061
鹵	-11.1062
皆然	-11.1062
愛敬	-11.1065
方正	-11.1066
淳祐	-11.1067
儁	-11.1068
愉	-11.1069
疵	-11.1069
偹	-11.1069
孩提	-11.107
在天	-11.1071
涇陽	-11.1071
永樂中	-11.1071
猜	-11.1071
也豈	-11.1072
剴切	-11.1073
將至	-11.1074
以實	-11.1074
東廓	-11.1075
磐	-11.1076
韓世忠	-11.1078
近習	-11.108
聖心	-11.108
骨肉	-11.1081
在内	-11.1082
何益	-11.1082
冠帶	-11.1083
無恙	-11.1083
羽翼	-11.1084
方其	-11.1085
一方	-11.1085
即有	-11.1086
集中	-11.1087
吉凶	-11.1087
原係監生	-11.1087
慰勞	-11.1089
尚在	-11.109
當今	-11.109
者謂	-11.1094
無一毫	-11.1094
何有	-11.1096
矣是	-11.1099
現任歩軍校	-11.11
忠恕	-11.11
禮官	-11.1101
休息	-11.1105
所奏	-11.1107
一郡	-11.1107
登科	-11.1108
無主	-11.1109
邵子	-11.111
一等男	-11.111
召用	-11.1111
成王	-11.1111
世有	-11.1112
今天下	-11.1113
領之	-11.1116
辦理	-11.1118
忠定	-11.1119
雖在	-11.112
者葢	-11.1121
觀望	-11.1122
儒林	-11.1123
以義	-11.1127
矣先生	-11.1132
者當	-11.1133
講説	-11.1134
公薨	-11.1134
天地之心	-11.1137
察哈	-11.1137
俱現任	-11.1141
本來	-11.1144
學正	-11.1144
憂之	-11.1145
立祠	-11.1147
不任	-11.1147
存問	-11.1148
論列	-11.1149
以遺	-11.115
無少	-11.1151
本然之	-11.1152
視聽	-11.1153
不傳	-11.1153
千戸	-11.1157
縣官	-11.1158
聖王	-11.1158
曽子	-11.1159
使君	-11.1159
而罷	-11.116
國勢	-11.1161
屯兵	-11.1162
修起居注	-11.117
理義	-11.1172
所傳	-11.1174
此便是	-11.1176
以供	-11.1176
徙知	-11.1177
之責	-11.1178
異也	-11.1178
亦不敢	-11.118
第六	-11.118
閒居	-11.118
大率	-11.1183
授徒	-11.1183
遂命	-11.1184
逐之	-11.1185
易州地方	-11.1185
易簡	-11.1185
間斷	-11.1187
成徳	-11.1188
封還	-11.1189
何用	-11.1191
諸縣	-11.1194
右正言	-11.1194
得無	-11.1194
間道	-11.1195
明道先生	-11.1197
有欲	-11.1198
附之	-11.1198
自幼	-11.1199
無一人	-11.12
今若	-11.12
獻公	-11.1201
五十八	-11.1203
既定	-11.1203
二次襲	-11.1204
上親征	-11.1207
臘	-11.1207
四維	-11.1208
臭	-11.1209
雀	-11.121
安縣	-11.121
其情	-11.1212
至尊	-11.1212
讀易	-11.1212
又遣	-11.1213
萬安	-11.1214
過於	-11.1215
跨	-11.1215
邃	-11.1216
垢	-11.1216
宣王	-11.1218
承務郎	-11.1218
咏	-11.1219
郝	-11.1219
稀	-11.1219
糜	-11.1219
多士	-11.1219
首先	-11.1221
黜陟	-11.1221
非義	-11.1222
勒克	-11.1222
天章閣待制	-11.1222
盡性	-11.1222
瀛	-11.1223
喧	-11.1223
豎	-11.1223
嘿	-11.1224
霖	-11.1224
惓惓	-11.1224
所記	-11.1224
棠	-11.1225
東萊	-11.1226
布政司	-11.1226
鋤	-11.1227
蟒	-11.1227
阿里	-11.1228
所薦	-11.1229
鹽鐵	-11.1229
太子太師	-11.1229
劫	-11.123
可使	-11.1231
並進	-11.1233
歸而	-11.1234
與諸	-11.1237
襲五次襲	-11.1237
黄河	-11.1237
意者	-11.1238
之具	-11.1239
雙江	-11.1241
家法	-11.1242
輝特	-11.1242
上封事	-11.1243
汀	-11.1244
虛靈	-11.1245
遂行	-11.1247
華亭	-11.1249
出城	-11.1249
天下無	-11.1251
就職	-11.1252
字景	-11.1253
學而	-11.1257
亦不可	-11.1257
享年六十	-11.1259
主者	-11.126
明善	-11.1261
所與	-11.1261
年十月	-11.1261
州守	-11.1263
忌之	-11.1264
謹按	-11.1264
定州	-11.1268
地也	-11.1269
字君	-11.1271
一氣	-11.1271
僕射	-11.1272
改𨽻	-11.1272
將有	-11.1273
奏對	-11.1273
民皆	-11.1274
兩府	-11.1274
意欲	-11.1275
磨滅	-11.1278
叅議	-11.1279
兼佐	-11.128
發於	-11.1282
四品	-11.1283
奮擊	-11.1284
師之	-11.1285
襲職卒	-11.1285
麓	-11.1287
越王	-11.129
瓦爾喀地方	-11.129
為騎都尉	-11.1291
坐事	-11.1292
成帝	-11.1292
變易	-11.1295
宿衛	-11.1295
詔下	-11.1296
篤實	-11.1296
天文	-11.1299
請復	-11.1299
薩爾圖	-11.1301
所請	-11.1303
未詳	-11.1304
行營	-11.1305
無定	-11.131
十餘里	-11.1314
其利	-11.1315
治民	-11.1315
羅卜藏丹津	-11.1317
復入	-11.1321
督兵	-11.1321
為戒	-11.1324
後儒	-11.1324
山陽	-11.1325
亦然	-11.1325
上遣	-11.1326
念慮	-11.1326
天變	-11.1326
大呼	-11.133
古理	-11.1332
不爲	-11.1333
徳裕	-11.1336
仁義之	-11.1337
既已	-11.1338
其初	-11.1339
仕進	-11.134
以圖	-11.1346
超然	-11.1346
歐陽修	-11.1346
患之	-11.1347
隨時	-11.1347
理原任	-11.1348
居多	-11.1348
特赫	-11.1349
續征雲南	-11.1351
正紅旗人世居	-11.1351
馥	-11.1353
不知有	-11.1356
與賊	-11.1357
在官	-11.1357
學有	-11.1357
日久	-11.1358
安圖	-11.1359
命乾清門行走	-11.136
卓哩克圖	-11.136
十有二	-11.1361
幄	-11.1361
由正白旗改隸	-11.1361
明矣	-11.1363
校官	-11.1363
文臣	-11.1363
己酉	-11.1365
儘	-11.1365
急務	-11.1366
焉則	-11.1366
鄒元標	-11.1367
哈理	-11.1367
療	-11.1367
執之	-11.1367
儆	-11.1367
原任二等䕶衞	-11.1368
滌	-11.1368
髯	-11.1368
枚	-11.1368
杞	-11.1368
寂然不動	-11.1368
中書舎人	-11.1369
轡	-11.1369
因病告退其子	-11.1371
之路	-11.1371
哥	-11.1371
数	-11.1372
汶	-11.1372
無考	-11.1372
趙南星	-11.1374
隠居	-11.1374
起而	-11.1374
開府	-11.1375
安人	-11.1376
漆	-11.1376
奏聞	-11.1376
與弼	-11.1376
也然則	-11.1377
此之謂也頌曰	-11.1377
劉光世	-11.1378
青苗	-11.1378
吏部左侍郎	-11.1379
鄱陽	-11.138
認得	-11.138
奐	-11.1381
失利	-11.1382
百僚	-11.1382
了翁	-11.1384
克塔	-11.1386
豈其	-11.1386
亦未嘗	-11.1388
賑之	-11.1389
以本官	-11.139
婦女	-11.1391
獨以	-11.1392
祭之	-11.1396
為國家	-11.1396
賞賚	-11.1397
之微	-11.1397
賜白金	-11.1398
誠敬	-11.14
新城	-11.14
敬齋	-11.1405
名其	-11.1406
海門	-11.1406
財賦	-11.1408
宫室	-11.1411
行已	-11.1412
不孝	-11.1413
而北	-11.1413
之辭	-11.1413
無辜	-11.1414
聖意	-11.1415
叙功授雲騎尉	-11.1416
體之	-11.1416
劄子	-11.1416
如何曰	-11.1417
夷簡	-11.1418
户口	-11.142
賢士大夫	-11.1422
難矣	-11.1422
之母	-11.1424
形而	-11.1425
不失其	-11.1426
無體	-11.1427
英廟	-11.1429
吾儕	-11.1431
江寧	-11.1432
顧謂	-11.1436
考其孫	-11.1436
駐兵	-11.1437
此正	-11.1437
龍江	-11.1438
伏望	-11.1438
千秋	-11.1438
擢用	-11.1439
方有	-11.1444
烏里雅蘇台	-11.1446
無厭	-11.1447
累日	-11.1447
部衆	-11.1447
初無	-11.1448
在廷	-11.1449
朕心	-11.1449
有警	-11.1449
三十九年	-11.1452
以文學	-11.1453
正當	-11.1454
墨爾	-11.1457
士論	-11.1459
原任包衣大	-11.1459
貧者	-11.1459
永寧	-11.146
疾革	-11.146
詰之	-11.1462
河中	-11.1463
為人所	-11.1465
告急	-11.1466
伊等	-11.1469
語黙	-11.147
敵騎	-11.1471
身為	-11.1471
自劾	-11.1471
益堅	-11.1472
立廟	-11.1473
也後	-11.1474
臨江	-11.1476
不惑	-11.148
良知也	-11.148
古爾	-11.1482
有七	-11.1483
累年	-11.1483
是之謂	-11.1483
三泰	-11.1484
賊將	-11.1486
成誦	-11.1488
為小人	-11.149
賜祭	-11.1491
公命	-11.1492
之漸	-11.1492
歸年分無考	-11.1492
去矣	-11.1496
不敢犯	-11.1497
心中	-11.1498
故任	-11.1498
塾	-11.1499
敗走	-11.1503
考諱	-11.1503
以守	-11.1503
甚至	-11.1506
者心之	-11.1507
銑	-11.1509
慕之	-11.1509
騰機思	-11.151
敦多布	-11.1511
不能用	-11.1513
狩	-11.1513
靠	-11.1513
剰	-11.1513
蒸	-11.1514
水之	-11.1514
㪚	-11.1514
岷	-11.1514
理藩院	-11.1516
浹	-11.1516
巍	-11.1516
頭腦	-11.1517
蟠	-11.1517
沅	-11.1517
三保	-11.1517
和羅	-11.1518
琬	-11.1518
焚香	-11.1519
砥	-11.1519
映	-11.1519
同中書門下平章事	-11.1519
杯	-11.1519
詔世襲罔替	-11.152
嘯	-11.152
春正月	-11.152
教以	-11.1521
埜	-11.1521
鎰	-11.1521
蒐	-11.1521
壹	-11.1522
這個	-11.1522
犀	-11.1523
窒	-11.1523
力言	-11.1524
稚	-11.1525
也是故	-11.1525
可任	-11.1526
薦公	-11.1526
心與	-11.1527
兩月	-11.1527
統兵	-11.1527
卵	-11.1527
為尚書	-11.1528
莭	-11.1528
為惡	-11.1529
三十二	-11.1529
是理	-11.1529
洵	-11.153
邇英	-11.1531
堅守	-11.1532
主靜	-11.1532
居處	-11.1537
多事	-11.1538
嗣昌	-11.1538
易傳	-11.1539
其首	-11.1542
者凡	-11.1543
屑	-11.1543
之為人	-11.1544
青山	-11.1544
二十七日	-11.1548
相接	-11.155
從父	-11.1552
卒其弟	-11.1553
於今	-11.1553
未下	-11.1553
姑蘇	-11.1554
緡	-11.1554
二卷	-11.1564
子女	-11.1566
其部	-11.1568
言心	-11.1568
闕里	-11.1568
領鄉薦	-11.1575
兵二千	-11.1579
力争	-11.1579
入蜀	-11.1579
格物致知	-11.158
伏闕	-11.1581
時相	-11.1582
阿林	-11.1583
已定	-11.1583
吉納	-11.1586
舟中	-11.1588
噶爾瑪	-11.1589
金山	-11.1589
保甲	-11.1591
布魯	-11.1596
既還	-11.1597
烏蘭	-11.1598
七十二	-11.1601
赫色	-11.1601
此所謂	-11.1602
能以	-11.1605
大夫也	-11.1605
胡廣	-11.1608
無得	-11.1611
惟是	-11.1614
故名	-11.1614
獻可	-11.1616
公曰此	-11.1617
承平	-11.1619
委署	-11.162
五十六	-11.162
由䕶軍叅領	-11.1621
安得不	-11.1624
此人	-11.1624
郵	-11.1624
二百餘	-11.1625
視朝	-11.1625
以清	-11.1626
民兵	-11.1626
國鑲紅旗人世居	-11.1628
安泰	-11.1628
地方人其曾孫	-11.1631
三四	-11.1635
貽書	-11.1635
從事於	-11.1635
兵民	-11.164
有力	-11.164
相應	-11.1641
全在	-11.1642
一品	-11.1643
歸附	-11.1644
六部	-11.1645
景仁	-11.1645
經營	-11.1647
原任䕶軍校曽孫	-11.1647
與民	-11.1648
青州	-11.1648
三州	-11.1649
祠堂	-11.1652
中貴	-11.1654
文淵閣大學士	-11.1654
吾所	-11.1655
慨	-11.1657
江湖	-11.1658
晉封	-11.1659
德爾	-11.1661
策凌	-11.1661
納木	-11.1664
遣子	-11.1664
復出	-11.1666
授為三等輕車都尉	-11.1667
﨑	-11.1667
三代之	-11.1667
師門	-11.1668
嗇	-11.1668
凍	-11.1669
子三長	-11.167
車布登扎布	-11.167
楨	-11.167
襍	-11.167
尅	-11.1672
藏之	-11.1672
將吏	-11.1672
對上	-11.1673
退居	-11.1673
滿丕	-11.1674
有古	-11.1674
渇	-11.1675
戡	-11.1675
者猶	-11.1675
企	-11.1676
殃	-11.1677
劉子	-11.1678
尉卒其子	-11.1678
不啻	-11.1679
擲	-11.1679
有如	-11.1679
尙書	-11.168
賡	-11.168
講習	-11.1682
乃遣	-11.1682
戰功	-11.1683
同平章事	-11.1683
方略	-11.1683
感泣	-11.1684
何能	-11.1687
朱熹	-11.1688
為君	-11.1689
聞先生	-11.1689
現任三等䕶衛	-11.1689
爾薩	-11.1689
改隸	-11.169
之不可	-11.1691
三路	-11.1695
紀律	-11.1696
空言	-11.1698
乞罷	-11.1701
統領	-11.1702
於其間	-11.1703
斬其	-11.1703
以此為	-11.1703
乃使	-11.1703
不煩	-11.1705
少詹事	-11.1705
父諱	-11.1705
即知	-11.1706
河内	-11.1708
唐阿	-11.1711
章獻	-11.1712
治國	-11.1713
中傷	-11.1715
漢陽	-11.1717
請益	-11.1717
以疾卒	-11.1718
物理	-11.1723
軍節度	-11.1723
事功	-11.1724
日中	-11.1727
為體	-11.1727
聽之	-11.1727
伊勒	-11.1729
切直	-11.173
爾格	-11.173
永昌	-11.1732
瀋陽	-11.1737
臨終	-11.1737
也雖	-11.1738
乎若	-11.174
無不善	-11.174
之聲	-11.1742
議和	-11.1742
和靖	-11.1743
反之	-11.1744
義勇	-11.1749
之别	-11.1749
自勵	-11.1749
為功	-11.1752
事務	-11.1753
平生所	-11.1754
者十	-11.1755
御書	-11.1757
可矣	-11.176
旗分	-11.1761
丹巴	-11.1761
廷對	-11.1763
臣也	-11.1763
城陷	-11.1764
存者	-11.1765
乆而	-11.1771
公孫	-11.1775
長子雍正	-11.1778
未立	-11.1779
三才	-11.1779
承制	-11.1782
于外	-11.1783
嘉興	-11.1784
動處	-11.1785
宋人	-11.1788
耳今	-11.1789
錮	-11.1793
二縣	-11.1794
什哈	-11.1794
古禮	-11.1795
塊	-11.1796
其喪	-11.1796
指揮使	-11.1798
原任防	-11.1798
屹	-11.1802
漢之	-11.1803
降襲	-11.1806
茫	-11.1807
立國	-11.1807
屏山	-11.1808
朱子曰	-11.1808
雍正元年	-11.1808
宜興	-11.181
㕔	-11.1811
壬	-11.1812
賊黨	-11.1813
聞道	-11.1814
今君	-11.1815
大道	-11.1816
明儒學案卷	-11.1818
永泰	-11.1819
現係庫使	-11.1819
丁謂	-11.1819
右係國初来歸之人	-11.182
社稷之	-11.182
鞍	-11.182
之端	-11.182
宣慰	-11.182
承事郎	-11.1821
一處	-11.1822
迤	-11.1822
犯法	-11.1825
篋	-11.1825
磁	-11.1825
癸亥	-11.1826
恂恂	-11.1826
大司馬	-11.1827
為己	-11.1827
雁	-11.1827
官職	-11.1828
毓	-11.1828
瑣	-11.1828
荆公	-11.1828
不載	-11.183
眩	-11.183
之真	-11.1831
瘞	-11.1831
徳秀	-11.1832
跳	-11.1832
阨	-11.1832
不睹不聞	-11.1832
𨼆	-11.1833
薛文清	-11.1833
原任二等侍衞	-11.1834
尋除	-11.1834
今乃	-11.1837
治兵	-11.1839
謫戍	-11.184
特立	-11.184
做工夫	-11.184
蠻夷	-11.184
終於	-11.1842
秋七月	-11.1843
歸宿	-11.1844
凛然	-11.1844
原任驍騎校曾孫	-11.1845
儒術	-11.1846
端重	-11.1846
以明經	-11.1846
中立	-11.1847
現任筆	-11.1848
格現任	-11.185
三十四年	-11.1851
曰朝廷	-11.1851
遣將	-11.1851
恭敬	-11.1853
有可	-11.1853
禮部郎中	-11.1855
孫權	-11.1856
現任三等䕶衞	-11.1857
食之	-11.1857
光祖	-11.1857
相繼承襲又	-11.1859
一段	-11.186
皇祖	-11.1861
子厚	-11.1862
授雲騎尉三遇	-11.1863
亦可以	-11.1867
宣帝	-11.1869
錦衣衛	-11.1874
館閣	-11.1875
其謀	-11.1876
逹理	-11.1876
死節	-11.1876
即為	-11.1882
者耶	-11.1883
在焉	-11.1884
養氣	-11.1888
交友	-11.1889
守道	-11.1889
三等子	-11.189
三十餘年	-11.1891
兵法	-11.1892
三者	-11.1892
北伐	-11.1892
非徒	-11.1892
諸經	-11.1893
尚寳	-11.1894
從政	-11.1894
卒年四十	-11.1895
得所	-11.1897
有疑	-11.1898
未安	-11.19
永樂初	-11.1901
四端	-11.1903
二千餘	-11.1904
詩集	-11.1904
松江	-11.1904
大震	-11.1904
又論	-11.1906
國初来歸其	-11.1911
持之	-11.1912
以避	-11.192
知幾	-11.1921
其教	-11.1925
菴先生	-11.1925
兖	-11.1925
是何	-11.1926
光景	-11.1929
輝發地方人其	-11.1931
擒其	-11.1931
江山	-11.1933
馬步兵	-11.1942
鑲紅旗人	-11.1943
不即	-11.1945
薦舉	-11.1949
明阿	-11.195
過矣	-11.1952
丙	-11.1954
年十八	-11.1954
參領	-11.1958
命下	-11.1959
一官	-11.1959
堯舜之	-11.1962
何得	-11.1963
者宜	-11.1965
忠直	-11.1965
泰原	-11.1968
王佐	-11.1971
𣲖	-11.1971
之功也	-11.1973
真實	-11.1975
疾苦	-11.1975
覃	-11.1978
漳浦	-11.1978
孝亷	-11.1979
他事	-11.1979
頥浩	-11.1979
不忠	-11.198
来歸年分	-11.1981
而見	-11.1982
諄諄	-11.1983
開府儀同三司	-11.1984
風雲	-11.1984
卻	-11.1985
優賚	-11.1985
儻	-11.1985
洙泗	-11.1985
殮	-11.1986
宋公	-11.1986
鍊	-11.1986
腦	-11.1988
情識	-11.1988
虚實	-11.1988
特穆爾	-11.199
𠡠	-11.199
友善	-11.1991
种	-11.1992
其手	-11.1992
妙用	-11.1992
賢否	-11.1993
登額	-11.1994
覇	-11.1995
太中大夫	-11.1995
暁	-11.1995
戰艦	-11.1995
之北	-11.1996
己卯	-11.1996
以言事	-11.1997
馳驛	-11.1997
燾	-11.1998
主張	-11.1998
醫藥	-11.1998
舍稜	-11.1999
咸淳	-11.2
震悼	-11.2
博爾濟	-11.2001
端平	-11.2002
閤門	-11.2004
同異	-11.2004
部落	-11.2005
斯言	-11.2008
之詞	-11.2008
哈什	-11.2009
右布政使	-11.2009
夏五月	-11.201
果能	-11.201
天禧	-11.201
日記	-11.2016
以授	-11.2016
告曰	-11.2017
樞密使	-11.2017
魯國	-11.202
騎尉	-11.202
不可及	-11.2021
不備	-11.2021
異議	-11.2024
勞苦	-11.2025
但以	-11.2025
奏罷	-11.2025
郡中	-11.2026
以誠	-11.2027
報可	-11.2028
希孟	-11.2029
襲扎薩克	-11.2029
既不	-11.203
州事	-11.2032
其大	-11.2032
入翰林	-11.2034
我者	-11.2037
常有	-11.2037
又欲	-11.204
代善	-11.2041
知開封府	-11.2041
大任	-11.2041
分無考其孫	-11.2042
選侍	-11.2042
三司使	-11.2044
不可奪	-11.2045
并州	-11.2047
曰不然	-11.2048
現任驍	-11.2049
中州	-11.2051
筵	-11.2051
衆議	-11.2052
二等男	-11.2053
斥之	-11.2055
六七	-11.2055
耳若	-11.2055
上疏論	-11.2055
擒之	-11.2055
宣州	-11.2057
可法	-11.2061
乘間	-11.2061
大典	-11.2064
之本也	-11.2064
安可	-11.2066
入太學	-11.2066
其材	-11.207
也性	-11.2071
從兄	-11.2072
白水	-11.2076
現任䕶軍叅領	-11.2076
於下	-11.2077
南星	-11.2078
辭歸	-11.2078
當事	-11.208
因事	-11.2081
不殺	-11.2083
所發	-11.2084
所不及	-11.2086
凡事	-11.2086
里人	-11.2091
登進士	-11.2092
天津	-11.2093
受知	-11.2093
相從	-11.2094
人主之	-11.2094
授三等輕車都尉	-11.2095
不患	-11.2096
非吾	-11.2096
恩詔所加之職承襲騎都尉	-11.2097
顧命	-11.2097
不亂	-11.2098
淮安	-11.2099
嘗論	-11.2099
其餘無事蹟可立傳者附載於後鑲黄旗	-11.21
胸	-11.2104
忠烈	-11.2105
入奏	-11.2105
則非	-11.2105
自奉	-11.2106
邁圖	-11.2108
非不	-11.2108
武安	-11.211
家無	-11.2114
也至於	-11.2118
千餘衆	-11.2118
以相	-11.2124
宣德	-11.2125
物物	-11.2125
入京	-11.2128
職又	-11.213
哭之	-11.2131
安用	-11.2131
妄言	-11.2132
地方人其元孫	-11.2132
見先生	-11.2132
天徳	-11.2134
▁皇帝	-11.2134
七百	-11.2134
未仕本貫	-11.2135
焉而	-11.2135
境上	-11.2135
車臣汗	-11.2136
柱原任	-11.2136
洒	-11.2137
榮之	-11.214
將作監主簿	-11.214
人康熙時自科爾沁	-11.2141
破其	-11.2142
肝	-11.2142
堆	-11.2143
迪功郎	-11.2143
四十三年	-11.2143
講義	-11.2143
托克托	-11.2144
蘇克	-11.2144
煉	-11.2145
怙	-11.2146
贑	-11.2147
一死	-11.2149
以寛	-11.2149
襲扎薩克鎮國公	-11.2149
俯仰	-11.2149
百餘里	-11.215
漣	-11.2151
去而	-11.2152
岳州	-11.2153
為君子	-11.2153
而猶	-11.2153
留心	-11.2153
撼	-11.2153
京畿	-11.2153
公初	-11.2155
縦	-11.2155
巴理	-11.2155
三十七年	-11.2156
親民	-11.2156
磬	-11.2157
衙門	-11.2158
上乃	-11.2159
無慮	-11.2159
分無考其子	-11.216
門下侍郎	-11.2161
清濁	-11.2161
嘗從	-11.2166
出于	-11.2166
引咎	-11.2166
見者	-11.2168
莆陽	-11.2169
長適	-11.2174
上元	-11.2175
奏曰臣	-11.2175
貴戚	-11.2175
為已	-11.2176
齊名	-11.218
諸大臣	-11.218
奉勅	-11.2181
之長	-11.2182
是歲	-11.2183
賢之	-11.2184
精一	-11.2186
入境	-11.2186
永豐	-11.2187
隨處	-11.2188
湛然	-11.2191
無能	-11.2193
赫赫	-11.2194
積累	-11.2194
盡言	-11.2195
城北	-11.2197
阿濟	-11.2198
徽州	-11.2198
趙公	-11.2199
者正	-11.22
勝負	-11.22
為變	-11.2201
老氏	-11.2201
老人	-11.2203
或言	-11.2204
今已	-11.2205
指示	-11.2206
東漢	-11.2206
莊公	-11.221
充塞	-11.221
原任佐領元孫	-11.2212
許國	-11.2212
駐牧	-11.2213
事勢	-11.2215
道則	-11.2218
詞章	-11.2219
必將	-11.2222
里中	-11.2226
敘功授雲騎尉	-11.2227
三十四	-11.2227
謝罪	-11.2228
不軌	-11.2229
其軍	-11.2232
尋命	-11.2232
致力	-11.2232
東阿	-11.2232
愛其	-11.2235
有遺	-11.2237
使知	-11.2243
神保	-11.2252
紹興初	-11.2253
莫知其	-11.2253
鑲藍旗人	-11.2255
安知	-11.2258
持重	-11.2258
部郎中	-11.2259
不令	-11.2263
邊境	-11.2268
郎官	-11.2268
第九	-11.2269
湖北	-11.2271
之學也	-11.2272
不得而	-11.2272
追擊	-11.2272
曰然則	-11.2272
禮法	-11.2272
九人	-11.2273
仁人	-11.2273
叛賊	-11.2275
流離	-11.2277
費雅	-11.2279
而難	-11.228
欲其	-11.228
不恱	-11.228
設伏	-11.2281
部尚書	-11.2282
示以	-11.2282
上嘗	-11.2283
錫喇	-11.2284
心存	-11.2285
拾遺	-11.2287
不虞	-11.2287
黼	-11.2292
入侍	-11.2295
兵於	-11.23
延安	-11.2302
嘗問	-11.2302
一介	-11.2304
由正白旗改𨽻	-11.2305
公雖	-11.2306
塔布囊	-11.2306
餒	-11.2307
渴	-11.2308
四十八	-11.2308
䆳	-11.2308
議政大臣	-11.2308
怕	-11.231
多羅郡王	-11.231
捫	-11.231
鼠	-11.231
尋卒	-11.231
纒	-11.231
盪	-11.2314
修身為本	-11.2315
閬	-11.2315
等䕶衞	-11.2315
與子	-11.2316
阿哈瑪特	-11.2317
晉泰	-11.2317
蹤	-11.2318
大器	-11.2318
戸部尚書	-11.232
遵㫖	-11.232
蔬食	-11.2321
中書侍郎	-11.2321
弦	-11.2322
得此	-11.2322
降詔	-11.2322
翰林侍讀學士	-11.2324
非惟	-11.2325
蠶	-11.2326
右諫議大夫	-11.2327
數里	-11.2328
行則	-11.2328
杏山	-11.2329
祕書	-11.2331
不戰	-11.2331
煒	-11.2332
干戈	-11.2333
宣力	-11.2333
畏之	-11.2333
秦漢	-11.2339
之喪	-11.234
文升	-11.2341
訓練	-11.2343
請行	-11.2343
于時	-11.2343
三十萬	-11.2344
南宫	-11.2345
其時	-11.2346
魏徴	-11.2349
六合	-11.2349
院事	-11.235
道德	-11.235
十八人	-11.2351
中都	-11.2352
九齡	-11.2352
之策	-11.2353
一片	-11.2354
人與	-11.2361
奸邪	-11.2363
二十九	-11.2363
鄆州	-11.2365
若能	-11.2365
忠簡	-11.2366
近溪	-11.2369
意在	-11.2371
順之	-11.2375
沂中	-11.2375
現任七品官	-11.2377
造化之	-11.2377
戰死	-11.2381
族散處於	-11.2382
黨人	-11.2383
單于	-11.2383
不俟	-11.2384
無妄	-11.2388
能盡	-11.2388
徳明	-11.2391
三桂	-11.2395
如其言	-11.2398
亦只是	-11.2399
先生之言	-11.24
諸處	-11.2402
一嵗	-11.2403
城東	-11.2403
燕京	-11.2404
下士	-11.241
十五人	-11.241
無名	-11.2411
獨立	-11.2413
而不得	-11.2419
甲第	-11.242
此心之	-11.242
困於	-11.2422
薨于	-11.2424
閣下	-11.2424
初名	-11.2428
正道	-11.2428
交薦	-11.2434
放過	-11.2436
發見	-11.2439
豈敢	-11.2439
大功	-11.2439
其失	-11.2439
賊勢	-11.2439
次之	-11.2442
且謂	-11.2443
矣吾	-11.2443
諸將皆	-11.2446
終不能	-11.2447
興元	-11.2449
棄官	-11.245
民田	-11.245
撃敗	-11.2453
更始	-11.2455
一種	-11.2459
文炳	-11.2459
巴格	-11.2464
杜爾伯特	-11.2465
吉安	-11.2466
正黄旗包衣人世居	-11.2466
穆圖	-11.2466
大徳	-11.2469
傳曰	-11.2469
一時名	-11.247
卒業	-11.247
科布多	-11.2471
瑟	-11.2472
睡	-11.2472
與本旗同里	-11.2473
滸	-11.2473
札魯特地方	-11.2473
晏子對㠯	-11.2474
賴以	-11.2474
鳩	-11.2475
▁至三等輕車都尉	-11.2476
巽	-11.2478
右僉都御史	-11.2478
礦	-11.2479
屨	-11.2479
而言之	-11.248
部事	-11.248
臆	-11.248
大都	-11.248
慄	-11.248
觀文殿大學士	-11.2481
逕	-11.2481
則雖	-11.2482
擿	-11.2482
相知	-11.2483
而東	-11.2483
太常寺卿	-11.2485
参	-11.2485
醴	-11.2487
北狩	-11.2487
廷杖	-11.2488
羞惡	-11.2491
交章	-11.2491
名為	-11.2493
權倖	-11.2495
儉約	-11.2498
雲中	-11.2501
西方	-11.2502
於斯	-11.2503
清流	-11.2503
發揮	-11.2504
所舉	-11.2504
公侯	-11.2505
原任通事官	-11.2505
有徳	-11.2507
則吾	-11.2509
衆心	-11.2511
選舉	-11.2512
上覽	-11.2512
親親	-11.2512
不輕	-11.2513
辭以	-11.2518
民無	-11.2518
道原	-11.252
姦邪	-11.2521
長驅	-11.2523
楞泰	-11.2524
恩特	-11.2525
公奏曰	-11.2526
五曰	-11.2526
現任佐領又	-11.2526
達禮	-11.2526
文清	-11.2528
居中	-11.253
則民	-11.2531
智者	-11.2534
誠能	-11.2535
動作	-11.2535
舉朝	-11.2535
也君	-11.2535
才識	-11.2536
子瞻	-11.2536
邕	-11.254
協理	-11.2541
疏論	-11.2541
之言曰	-11.2544
撫之	-11.2544
在乎	-11.2544
以治	-11.2544
毋得	-11.2544
王爵	-11.2547
之異	-11.2548
和理	-11.255
部使者	-11.255
士子	-11.2551
也但	-11.2557
目為	-11.2559
沮之	-11.2559
華善	-11.256
正黄旗包衣人世居瀋陽地方來歸年	-11.256
攻克	-11.256
率師	-11.256
以給	-11.2562
轉運司	-11.2564
史氏	-11.2564
行于世	-11.2565
司冦	-11.2565
二帝	-11.2566
皆由	-11.2568
請上	-11.2569
僧保	-11.2569
内徙	-11.257
緒山	-11.257
也聖人	-11.2572
隱居	-11.2576
來援	-11.2576
不能容	-11.2576
詩賦	-11.2578
所以能	-11.2582
㑹有	-11.2583
于民	-11.2584
日講	-11.2587
阿敏	-11.2587
希文	-11.2589
竊謂	-11.2589
無子	-11.2591
自足	-11.2591
有法	-11.2592
被逮	-11.2592
唐書	-11.2592
壯士	-11.2594
力爭	-11.2599
封事	-11.2601
在前	-11.2602
同日	-11.2603
以下皆	-11.2605
此中	-11.2607
都統制	-11.2612
而遽	-11.2612
相承	-11.2613
訃聞上	-11.2614
土木	-11.2615
逺方	-11.2617
諭之	-11.2618
文貞	-11.262
自當	-11.2622
中流	-11.2623
復官	-11.2623
不到	-11.2624
六事	-11.2624
叔子	-11.2626
則可以	-11.2627
推重	-11.2627
韙之	-11.2628
安樂	-11.2629
而作	-11.2631
布理	-11.2631
乃出	-11.2632
文忠公	-11.2632
廻	-11.2634
其詞	-11.2634
亳	-11.2635
四明	-11.2636
徒以	-11.2637
位至	-11.2638
為翰林學士	-11.2638
鄂爾多斯	-11.2639
由委署	-11.2639
店	-11.264
從前	-11.264
察琿多爾濟	-11.2641
厦門	-11.2641
礁	-11.2642
論道	-11.2643
仁厚	-11.2643
鳶飛魚躍	-11.2644
迅	-11.2645
滇	-11.2645
鷹	-11.2645
稍遷	-11.2646
城上	-11.2646
為郡	-11.2646
顥	-11.2646
糶	-11.2646
譎	-11.2647
葉赫地方人	-11.2649
栖	-11.2651
冢宰	-11.2651
薫	-11.2651
磔	-11.2651
瑀	-11.2651
於上前	-11.2652
閭里	-11.2653
沽	-11.2653
深矣	-11.2653
恩禮	-11.2654
直集賢院	-11.2654
贏	-11.2655
姒	-11.2656
第巴	-11.2656
亡也	-11.2657
諸侯之	-11.2657
伊克	-11.2657
折衷	-11.2658
包衣大	-11.2658
祧	-11.2659
士習	-11.2659
謐	-11.2659
不落	-11.266
吳氏	-11.2661
欽定四庫全書明儒學案卷	-11.2662
鶻	-11.2663
嘗聞	-11.2663
氓	-11.2664
頗羅鼐	-11.2666
金銀	-11.2666
季氏	-11.2667
族弟	-11.2667
㳺牧	-11.2669
原任給事中	-11.2669
明覺	-11.2671
乎天	-11.2672
第六子	-11.2674
噶斯	-11.2674
潭州	-11.2678
虚齋	-11.268
執禮	-11.268
集賢	-11.2681
吏治	-11.2686
邊將	-11.2687
督府	-11.269
惜乎	-11.269
生也	-11.2691
語孟	-11.2693
通鑑	-11.2694
時務	-11.2695
潮州	-11.2698
比年	-11.2698
欽州	-11.2699
禍亂	-11.27
行軍	-11.27
數事	-11.2701
實踐	-11.2703
之勞	-11.2703
唐太宗	-11.2704
為重	-11.2712
心齋	-11.2712
靈公	-11.2714
恤民	-11.2715
國學	-11.2716
現任協領	-11.2718
萬兩	-11.2718
郡公	-11.2718
夢陽	-11.2721
周程	-11.2721
不預	-11.2723
其難	-11.2725
震怒	-11.2725
直𨽻	-11.2726
不勝其	-11.2727
之罪也	-11.2727
之運	-11.2728
與君	-11.2731
楚王	-11.2733
北門	-11.2733
之迹	-11.2733
滄	-11.2735
屬之	-11.2735
江隂	-11.2738
一無所	-11.2738
欲得	-11.2738
征湖廣	-11.274
為物	-11.2741
為丞相	-11.2743
未可知	-11.2746
鑲黄旗包衣管領下人世居	-11.2747
一箇	-11.2747
行誼	-11.2752
入内	-11.2753
不差	-11.2755
崇安	-11.2755
問疾	-11.2756
所殺	-11.2759
擇其	-11.276
上欲	-11.2762
成書	-11.2763
者歟	-11.2765
右丞相	-11.2768
方人	-11.2768
襲職從征	-11.2768
十五日	-11.277
甚力	-11.277
家庭	-11.2771
二州	-11.2771
也凡	-11.2772
不生	-11.2773
欲令	-11.2774
調兵	-11.2777
所撰	-11.2778
夏侯	-11.2779
因問	-11.2781
殿中	-11.2781
其所謂	-11.2786
宫人	-11.2787
不齊	-11.2789
刻石	-11.2793
謚文	-11.2795
之獄	-11.2795
一出	-11.2796
蘇尼特	-11.2797
恐非	-11.2799
入閣	-11.28
之甚	-11.28
逮繫	-11.2802
丹濟拉	-11.2805
十八日	-11.2805
何如曰	-11.2806
季孫	-11.2809
峩	-11.2809
國本	-11.281
扞	-11.281
循理	-11.2811
名位	-11.2812
衮楚克	-11.2813
於身	-11.2813
睿親王	-11.2813
郡太守	-11.2813
七十餘	-11.2813
克西克騰地方	-11.2814
噶布拉	-11.2814
左僕射	-11.2815
本係地名因以為姓	-11.2816
圖巴	-11.2816
提㸃刑獄	-11.2816
奉議郎	-11.2819
羮	-11.282
爾漢	-11.282
紊	-11.2821
更相	-11.2821
㨿	-11.2822
布顔	-11.2822
棨	-11.2822
歇	-11.2822
杳	-11.2823
倫泰	-11.2824
禮部左侍郎	-11.2824
朕意	-11.2824
鞅	-11.2824
訪求	-11.2825
侔	-11.2825
翀	-11.2826
知無不言	-11.2826
以賜	-11.2827
款	-11.2827
壕	-11.2827
撰墓志	-11.2827
末年	-11.2828
之禁	-11.283
昬	-11.2831
得請	-11.2831
無疆	-11.2832
九疇	-11.2832
先賢	-11.2832
某日	-11.2832
亦嘗	-11.2834
澶淵	-11.2835
直史館	-11.2835
家國天下	-11.2836
不往	-11.2837
爲之	-11.2838
休戚	-11.2839
仁體	-11.2841
洪武元年	-11.2842
幸而	-11.2844
必曰	-11.2846
不察	-11.2846
修徳	-11.2846
為南京	-11.2847
和碩齊	-11.2848
緣事革退	-11.2852
不置	-11.2852
馳赴	-11.2855
著作佐郎	-11.2856
叙功授	-11.2857
擊敗賊偽	-11.2858
從征湖廣	-11.2861
賦役	-11.2861
光祿	-11.2861
者獨	-11.2861
所造	-11.2863
出自	-11.2863
物故	-11.2865
察哈爾布爾尼	-11.2866
三巻	-11.2867
未嘗以	-11.2869
縣君	-11.2871
大司農	-11.2871
現任典儀	-11.2872
改正	-11.2873
賊首	-11.2873
以居	-11.2873
辟為	-11.2873
首尾	-11.2876
七嵗	-11.2878
三十五	-11.2879
等侍衛	-11.288
二王	-11.288
民困	-11.2883
齊克	-11.2883
纂官	-11.2883
以佐	-11.2884
二十六	-11.2887
謂公曰	-11.2887
原任佐領其子	-11.2888
防守	-11.2888
齊布	-11.2888
之處	-11.289
元帝	-11.2893
晏子對	-11.2897
守忠	-11.2897
終無	-11.2898
敬則	-11.2901
名器	-11.2903
朝廷以	-11.2904
之大者	-11.2905
殺賊	-11.2906
擊敗賊偽將	-11.2908
士風	-11.2909
惡者	-11.291
州觀察使	-11.2912
先鋒	-11.2913
不見其	-11.2914
都指揮	-11.2917
襲職任佐領	-11.2918
皆能	-11.292
去年	-11.2922
賑濟	-11.2923
自得之	-11.2928
五六	-11.2929
自後	-11.293
將行	-11.2934
者不能	-11.2936
是夕	-11.2942
誠有	-11.2943
惜哉	-11.2943
視師	-11.2944
人也少	-11.2944
不憚	-11.2945
此一姓世居	-11.2947
與本旗	-11.2947
克已	-11.2949
流亡	-11.2955
於國	-11.2955
覺羅	-11.2956
也余	-11.2957
可復	-11.2959
係隸滿洲旗分之蒙古	-11.296
延年	-11.2962
家禮	-11.2962
十六人	-11.2963
十分	-11.2963
魯齋	-11.2965
羅氏	-11.2966
重慶	-11.2967
寧阿	-11.2968
不為動	-11.2969
須要	-11.297
入官	-11.297
乃見	-11.2971
家子	-11.2974
生物	-11.2974
自殺	-11.2977
榦	-11.2977
懇辭	-11.298
直抵	-11.2981
左侍郎	-11.2984
奉先	-11.2985
其長	-11.2986
虎爾哈地方	-11.2988
原任鳴贊	-11.2988
世務	-11.2988
貞元	-11.2988
觀音保	-11.2989
顧實汗	-11.299
張獻忠	-11.299
而身	-11.299
急於	-11.299
涌	-11.2991
溯	-11.2991
體認天理	-11.2991
博羅特	-11.2994
舛	-11.2994
燬	-11.2994
既去	-11.2994
▁初來歸其曽孫	-11.2995
捉	-11.2996
檻	-11.2997
瞽	-11.2997
曰天下	-11.2998
濂溪	-11.2998
為朕	-11.2998
春秋臣傳巻	-11.2998
伊勒登	-11.2999
組	-11.2999
伊川先生	-11.2999
車都尉	-11.3
雷霆	-11.3
輓	-11.3
襲扎薩克多羅貝勒	-11.3002
湜	-11.3002
左諭徳	-11.3003
昶	-11.3003
鬬	-11.3003
一戰	-11.3005
之黨	-11.3005
蹕	-11.3005
晁	-11.3005
里克	-11.3006
夜氣	-11.3006
天下之大本	-11.3006
樞密副使	-11.3006
噬	-11.3006
今又	-11.3008
漢軍	-11.3009
姓氏	-11.301
兵五百	-11.301
謂宜	-11.3011
尚書左丞	-11.3012
賢不肖	-11.3012
和尚	-11.3012
沙喇	-11.3013
以字行	-11.3013
仲子	-11.3017
環慶	-11.3018
玄	-11.3018
少長	-11.3018
郊祀	-11.3019
編脩	-11.302
曲折	-11.3023
從軍	-11.3023
仁傑	-11.3023
為宰相	-11.3023
答之	-11.3024
四路	-11.3025
樞宻副使	-11.3026
敗績	-11.3029
造詣	-11.303
每有	-11.3031
二十日	-11.3031
田地	-11.3032
㑹議	-11.3032
一道	-11.3033
絶其	-11.3034
汝南	-11.3035
大破	-11.3036
楊墨	-11.3038
也嗚呼	-11.3038
艾軒	-11.304
節儉	-11.3041
賜銀	-11.3042
其政	-11.3043
復見	-11.3044
與此書	-11.3044
特係隸滿洲旗分之蒙古	-11.3046
武侯	-11.3047
衆論	-11.3049
西喇	-11.3049
城西	-11.3049
一致	-11.3051
朔望	-11.3053
聞命	-11.3053
以至於	-11.3055
定鼎燕京時	-11.3055
有心	-11.3056
八九	-11.3056
重臣	-11.3057
遇害	-11.3057
正域	-11.3058
施於	-11.306
親伯	-11.3062
施之	-11.3064
相持	-11.3064
書奏	-11.3066
故道	-11.3066
其外	-11.3067
宗之	-11.3069
接人	-11.307
罪人	-11.307
皆欲	-11.307
乎且	-11.3071
君子也	-11.3073
親故	-11.3075
天下而	-11.3076
龍圖	-11.3077
光弼	-11.3077
人馬	-11.3078
風化	-11.3078
病卒	-11.308
不異	-11.3082
章京	-11.3085
多寡	-11.3086
韶州	-11.3086
賜巴圖	-11.3094
致書	-11.3095
四十六	-11.3095
色原任	-11.3098
為樂	-11.3099
元符	-11.3099
䕶軍參領	-11.3101
帝即位	-11.3102
為太子	-11.3103
安福	-11.3105
何患	-11.3106
長江	-11.3107
代還	-11.3111
敎人	-11.3112
科第	-11.3113
不書	-11.3114
少而	-11.3115
此等	-11.3116
國政	-11.3116
達禪	-11.3119
為是	-11.3122
時中	-11.3125
▁初	-11.3127
大風	-11.3128
正言	-11.313
襲固山貝子	-11.3131
萬斛	-11.3133
甘心	-11.3134
大學之	-11.3135
首輔	-11.3135
王莽	-11.3135
居士	-11.3135
一章	-11.3137
忠武	-11.3138
為真	-11.3139
尋遷	-11.314
補官	-11.3141
今陛下	-11.3144
太子少保	-11.3144
不自安	-11.3145
召拜	-11.3148
悚	-11.3149
首言	-11.3149
之狀	-11.3149
嘉靖初	-11.3153
告老	-11.3154
金使	-11.3155
者豈	-11.3155
正黄旗包衣	-11.3157
濟爾哈朗	-11.3159
雍正九年	-11.316
成公	-11.316
色理	-11.316
陀	-11.3161
鴻臚寺	-11.3162
禁止	-11.3163
玉牒	-11.3163
窩	-11.3165
今欲	-11.3165
黍	-11.3165
不能奪	-11.3166
鰲	-11.3166
聞上	-11.3167
史傳三編卷	-11.3167
誇	-11.3167
侗	-11.3167
博羅	-11.3168
車凌烏巴什	-11.3168
睢	-11.3168
為善去惡	-11.3169
十三人	-11.3169
户部主事	-11.317
不誠	-11.3171
續征	-11.3171
肩輿	-11.3172
鎧	-11.3172
炙	-11.3172
策妄阿喇布坦	-11.3173
光祿大夫	-11.3174
佛阿拉地方	-11.3174
餌	-11.3174
應龍	-11.3174
貢舉	-11.3174
甸	-11.3175
駟	-11.3175
橫	-11.3176
楊漣	-11.3176
謡	-11.3177
宗廟社稷	-11.3178
玊	-11.3178
今世	-11.3179
兵部右侍郎	-11.318
安溪	-11.318
其誠	-11.3181
劑	-11.3182
茲	-11.3182
頋	-11.3183
至老	-11.3187
總理	-11.3187
為用	-11.3188
建白	-11.3189
之效	-11.319
興祖	-11.319
莫知	-11.3191
先生嘗	-11.3192
土地	-11.3192
叅軍	-11.3193
欽定四庫全書史傳三編卷	-11.3193
阿拉善	-11.3194
易也	-11.3195
桓子	-11.3196
字廷	-11.3196
有主	-11.3197
百司	-11.3198
觀者	-11.32
李東陽	-11.32
海原任	-11.3202
伊川曰	-11.3202
曹彬	-11.3203
原吉	-11.3203
其生	-11.3204
有六	-11.3205
宋濓	-11.3205
復來	-11.3207
今古	-11.3207
延夀	-11.3208
後又	-11.3208
係隸滿洲旗分之䝉古一	-11.3209
復言	-11.321
終是	-11.3211
海澄	-11.3211
成都府	-11.3214
時議	-11.3214
東野	-11.3214
次子乾隆	-11.3215
易以	-11.3215
心之體	-11.3216
立身	-11.3216
不决	-11.3217
歎服	-11.3217
左副都御史	-11.3218
奪之	-11.3218
死事	-11.3221
諸國	-11.3221
盛京	-11.3222
同邑	-11.3224
日月之	-11.3224
號稱	-11.3226
圖理	-11.3226
致仕歸	-11.3227
洪州	-11.3228
肅宗	-11.3228
都綂	-11.3229
而使	-11.3234
之敗	-11.3234
祭文	-11.3237
萬年	-11.3238
順應	-11.324
水寨	-11.3241
諸城	-11.3241
本㫖	-11.3242
阿爾賽	-11.3242
真知	-11.3242
翼日	-11.3242
不時	-11.3243
交結	-11.3243
嘗語	-11.3245
詔曰	-11.3246
無一物	-11.3247
四萬	-11.3248
聽命	-11.3249
其大者	-11.325
無錫	-11.325
連江	-11.3251
為吏	-11.3254
尼喀	-11.3256
恩詔	-11.3256
豈以	-11.3258
講解	-11.3259
所著書	-11.326
親臨	-11.326
渾春地方	-11.3262
不分	-11.3264
者咸	-11.3264
數萬人	-11.3266
動則	-11.3267
不急	-11.3268
獄中	-11.3272
縁事革退	-11.3273
出門	-11.3273
受學於	-11.3275
常住	-11.3278
固非	-11.328
護軍校	-11.3283
厯任	-11.3286
天台	-11.3288
與天地	-11.3288
水中	-11.3288
年十五	-11.329
懼其	-11.329
因循	-11.3291
而發	-11.3292
列聖	-11.3297
一意	-11.3297
有石	-11.3297
協領	-11.3298
為姦	-11.3298
回部	-11.3299
雅哈	-11.3299
分殊	-11.3302
不專	-11.3302
吳越	-11.3307
所係	-11.331
鄭公	-11.3312
燕山	-11.3313
人道	-11.3314
國初来歸其孫	-11.3315
三傳	-11.3316
州安置	-11.3319
習於	-11.3319
定天下	-11.332
必自	-11.3321
偶然	-11.3321
加禮	-11.3321
行世	-11.3322
曰國家	-11.3323
上總	-11.3323
試之	-11.3324
指授	-11.3327
神也	-11.3329
使還	-11.333
名山	-11.333
原任内	-11.3331
都堂	-11.3332
文義	-11.3332
尼馬察地方	-11.3332
東路	-11.3332
興師	-11.3332
瓦爾	-11.3332
道中	-11.3333
大獄	-11.3334
兩端	-11.3334
遂使	-11.3335
以為言	-11.3338
征四川	-11.3339
任佐領卒其子	-11.334
魯克	-11.3341
願得	-11.3342
生機	-11.3343
宗人府	-11.3345
所疑	-11.3346
公方	-11.3347
全斌	-11.3348
鎮海	-11.335
廵檢司	-11.335
昱	-11.3351
雉	-11.3352
趾	-11.3354
龍圖閣學士	-11.3354
棣	-11.3354
榛	-11.3354
歸路	-11.3355
須臾	-11.3356
捄	-11.3356
裡	-11.3356
玷	-11.3356
簒	-11.3356
琢	-11.3357
分遣	-11.3358
𢡟	-11.3358
燄	-11.3358
副都	-11.3359
頡	-11.3359
公神道碑銘	-11.3359
螺	-11.336
曰願	-11.3361
閩縣人	-11.3361
冡宰	-11.3361
諌議大夫	-11.3362
虗	-11.3362
淑人	-11.3363
崧	-11.3363
徭	-11.3364
集賢校理	-11.3364
睢陽	-11.3364
穰	-11.3364
起居郎	-11.3365
陕西	-11.3366
㐮	-11.3367
椎	-11.3368
彭城	-11.3368
乘輿	-11.3369
不可勝計	-11.3369
其法	-11.337
㕘知政事	-11.337
印綬	-11.3371
門徒	-11.3372
寂感	-11.3372
南軒	-11.3373
創業	-11.3375
周氏	-11.3375
疑獄	-11.3377
韋齋	-11.3378
歸家	-11.3379
已久	-11.3379
現任藍翎侍衛	-11.3379
自成	-11.338
以忠義	-11.3382
二十二日	-11.3385
今以	-11.3385
原任佐領曽孫	-11.3387
原任三等	-11.3387
聖躬	-11.3387
齊旺	-11.3387
内帑	-11.3389
空虚	-11.3389
天下皆	-11.339
在朝廷	-11.339
非獨	-11.339
鄉先生	-11.339
乎夫	-11.339
匹夫	-11.3391
字汝	-11.3392
兄弟二人	-11.3394
還京師	-11.3395
矣遂	-11.3397
撫順	-11.34
有大志	-11.3401
勵精	-11.3403
昭然	-11.3403
二十四日	-11.3404
必勝	-11.3404
歐陽公	-11.3406
委之	-11.3406
從征厄魯特噶爾丹	-11.341
過也	-11.3411
以忠	-11.3411
之宜	-11.3412
以文章	-11.3413
瑾誅	-11.3414
紹定	-11.3415
永康	-11.3417
而後行	-11.3419
起於	-11.3421
鳯陽	-11.3422
尚多	-11.3423
葬於	-11.3423
上從之	-11.3424
所指	-11.3424
袁州	-11.3425
夜分	-11.3425
益以	-11.3427
泰現任驍騎校	-11.3429
近於	-11.3431
風流	-11.3431
尹直	-11.3433
▁孫	-11.3434
不決	-11.3434
驚曰	-11.3435
也予	-11.3435
公使	-11.3436
綱目	-11.3437
與張	-11.3439
長官	-11.344
欲殺	-11.344
以疾辭	-11.344
者今	-11.3441
三百餘	-11.3441
選兵	-11.3442
何罪	-11.3444
忠宣	-11.3449
香山	-11.3449
建武	-11.345
吕公	-11.3452
三嵗	-11.3461
有他	-11.3461
不可見	-11.3461
静而	-11.3463
可嘉	-11.3464
吾聞	-11.3465
邑志	-11.3468
汝州	-11.3468
鄭州	-11.3469
大帥	-11.347
徐公	-11.347
導之	-11.3472
而後能	-11.3474
哲爾	-11.3474
行道	-11.3475
時論	-11.3476
漢王	-11.3477
接物	-11.3478
為務	-11.3479
太常寺	-11.348
淵聖	-11.3484
將校	-11.3485
民多	-11.3487
小民	-11.3488
現任委署	-11.3489
圖書	-11.3491
伏見	-11.3492
莫可	-11.3495
並行	-11.3496
㑹典	-11.3497
不乏	-11.3497
因而	-11.3497
其居	-11.3498
仁孝	-11.3499
從公	-11.3503
言之則	-11.3504
齊魯	-11.3505
豈惟	-11.3506
處便是	-11.3507
不雜	-11.3507
嗣子	-11.3509
可取	-11.3509
用此	-11.351
平昔	-11.3511
從征明	-11.3513
者輒	-11.3514
勝非	-11.3514
回人	-11.3514
不修	-11.3515
上心	-11.3516
便可	-11.3516
必無	-11.3518
厚恩	-11.3518
聽其	-11.3518
貧民	-11.3518
前人	-11.3519
奉聖	-11.3519
駕幸	-11.3519
無所容	-11.352
其所為	-11.352
也知	-11.3521
一人而已	-11.3523
然猶	-11.3523
也使	-11.3523
五十九年	-11.3524
太公	-11.3526
正在	-11.3527
之世	-11.3527
主客	-11.3528
而前	-11.3528
居常	-11.3528
韓氏	-11.3529
詩有	-11.353
繼遷	-11.3531
字公	-11.3531
夫人子男	-11.3532
士多	-11.3533
本自	-11.3533
係來歸年分無考之人	-11.3533
西特庫	-11.3533
現任驍騎	-11.3535
流水	-11.3535
緬	-11.3535
原係庫使	-11.3536
慾	-11.3536
筦	-11.3536
攻取	-11.3537
悠悠	-11.3537
不稱	-11.3537
闖	-11.3538
征南	-11.3539
股	-11.3539
穹	-11.3539
喚	-11.3539
問之曰	-11.3539
嬴	-11.3539
感而遂通	-11.3539
闊	-11.354
喫	-11.354
也願	-11.354
枋得	-11.3541
而與之	-11.3541
孝孺	-11.3541
扎薩克多羅貝勒	-11.3542
毗	-11.3542
以理	-11.3543
賫	-11.3543
芟	-11.3543
衾	-11.3544
太宗文皇帝	-11.3544
旻	-11.3544
謹身殿大學士	-11.3545
歌詩	-11.3545
寰	-11.3546
紏	-11.3546
獠	-11.3546
憸	-11.3546
祕閣	-11.3547
自新	-11.3548
為患	-11.3549
芥	-11.3549
棗	-11.355
復職	-11.3551
㢤	-11.3551
上嘉納之	-11.3551
婿	-11.3552
菊	-11.3553
想見	-11.3553
剥	-11.3554
下學	-11.3558
福爾	-11.356
元定	-11.3561
萬世之	-11.3561
沙津	-11.3561
解縉	-11.3561
原任員	-11.3563
學道	-11.3563
名將	-11.3563
原任六品包衣大	-11.3564
正白旗人来歸年分無考	-11.3565
如是則	-11.3566
巴延	-11.3566
當是	-11.3566
李成	-11.3566
怡然	-11.3567
擅權	-11.3568
壼	-11.3568
國子生	-11.357
既無	-11.3572
桂林	-11.3573
帝意	-11.3575
不悔	-11.3576
編佐領	-11.3576
其流	-11.3576
空寂	-11.3576
營田	-11.3577
聲名	-11.3578
供職	-11.3579
進忠	-11.358
現任前鋒校	-11.358
有變	-11.3581
春芳	-11.3584
待以	-11.3584
遺詔	-11.3585
御筆	-11.3589
年已	-11.3589
茍有	-11.3591
元齡	-11.3591
保柱	-11.3594
景隆	-11.3594
消長	-11.3596
守節	-11.3596
應舉	-11.3597
君命	-11.3598
先生言	-11.3599
上柱國	-11.3599
可勝	-11.3599
樂道	-11.36
兼領	-11.36
乃令	-11.3601
自來	-11.3604
此亦	-11.3605
四十五年	-11.3606
不言而	-11.3607
紓	-11.3608
風節	-11.3608
服之	-11.3609
至道	-11.3609
足為	-11.361
興學	-11.361
死于	-11.3611
不悅	-11.3613
聖恩	-11.3613
十二人	-11.3615
善則	-11.3616
慶之	-11.3616
方寸	-11.3616
入閩	-11.3619
曲阜	-11.3619
到此	-11.362
塔喇	-11.3622
伯宗	-11.3622
奉公	-11.3623
何氏	-11.3628
乗間	-11.3628
學之要	-11.363
曲直	-11.363
物則	-11.3631
祖為户第	-11.3632
詳定	-11.3634
也上曰	-11.3634
授編修	-11.3635
其語	-11.3637
自省	-11.3639
者幾	-11.364
京官	-11.3641
功成	-11.3642
之儀	-11.3642
不貳	-11.3644
既平	-11.3644
罷兵	-11.3645
故贈	-11.3645
避之	-11.365
布達	-11.3651
智髙	-11.3653
晉人	-11.3655
南唐	-11.3656
庶乎	-11.3657
不才	-11.3659
而失	-11.3659
死罪	-11.3661
養性	-11.3663
元季	-11.3663
如舊	-11.3663
臣愚	-11.3665
者得	-11.3667
逺人	-11.3667
馬察地方	-11.3669
起念	-11.3671
仍命	-11.3671
梯攻	-11.3673
孔子廟	-11.3674
制作	-11.3676
新鄭	-11.3677
永州	-11.3678
未嘗一日	-11.3679
也已	-11.3681
著力	-11.3684
歐公	-11.3684
既久	-11.3684
疾作	-11.3685
呼曰	-11.369
在翰林	-11.3691
廬墓	-11.3695
右副都御史	-11.3695
梁王	-11.3699
餘悉	-11.37
自治	-11.3702
隨之	-11.3706
必求	-11.3707
原任副	-11.3711
其半	-11.3711
上召	-11.3712
加意	-11.3713
舒穆	-11.3717
惟一	-11.3718
三次襲	-11.3718
巴特瑪	-11.3719
湍	-11.3719
欽定外藩蒙古回部王公表傳卷之	-11.3721
未成	-11.3721
𦍑	-11.3722
王振	-11.3722
黄州	-11.3724
伊犂	-11.3724
朝散大夫	-11.3725
矣且	-11.3727
丐祠	-11.3727
氛	-11.3728
廨	-11.3728
信得	-11.3728
亾	-11.3728
念菴	-11.3728
𦙍	-11.3729
惺惺	-11.3729
詈	-11.373
脂	-11.3731
朂	-11.3731
攄	-11.3731
嚴嵩	-11.3732
三等台吉	-11.3732
學問思辨	-11.3732
黠	-11.3732
起知	-11.3733
孫士毅	-11.3733
無所不至	-11.3733
昀	-11.3733
盎	-11.3734
鴻臚	-11.3734
净	-11.3734
張士誠	-11.3734
學者稱為	-11.3735
直秘閣	-11.3736
涿	-11.3736
頴悟	-11.3737
澤潞	-11.3738
吏部右侍郎	-11.3739
以親老	-11.3739
閽	-11.374
濠州	-11.374
大理寺卿	-11.374
緋	-11.3742
沿江	-11.3742
主人	-11.3743
城府	-11.3744
鎖	-11.3744
平常	-11.3745
大理卿	-11.3747
通政使	-11.3747
詞臣	-11.3747
性至孝	-11.3748
小國	-11.375
誰能	-11.3752
景泰初	-11.3752
任䕶軍叅領	-11.3754
商量	-11.3755
所忌	-11.3757
志氣	-11.3758
路安撫使	-11.3758
魏國公	-11.3759
十有八	-11.376
復舊	-11.3761
清白	-11.3761
會稽	-11.3763
智勇	-11.3764
本院官	-11.3765
不遷	-11.3765
聖朝	-11.3766
曰自	-11.3767
葬于	-11.3768
數百里	-11.3771
事變	-11.3773
之險	-11.3773
宥之	-11.3776
武備	-11.3779
權奸	-11.3779
原無	-11.3779
不擾	-11.3781
有志於	-11.3782
不可測	-11.3784
每事	-11.3784
歸田里	-11.3785
甚於	-11.3785
抗章	-11.3785
惟在	-11.3788
敎授	-11.379
心即	-11.3791
告之曰	-11.3794
只説	-11.3795
長短	-11.3796
開平	-11.3797
家屬	-11.3797
循吏	-11.3797
數十里	-11.3799
原任步	-11.38
始祖	-11.38
放下	-11.3801
公少	-11.3802
亦如之	-11.3803
春風	-11.3805
蒼生	-11.3805
獨處	-11.3809
獻王	-11.3809
進階	-11.3809
名世	-11.3811
襲職歴任	-11.3812
保安	-11.3813
汝等	-11.3816
亦原任䕶軍校	-11.3816
良玉	-11.3816
為急	-11.3818
者也故	-11.3819
亦須	-11.3819
爾庫	-11.382
論死	-11.3822
執經	-11.3824
之忠	-11.3825
江口	-11.3829
亡國	-11.3829
剛直	-11.383
五事	-11.383
北溪	-11.3831
行部	-11.3832
王王	-11.3833
録其	-11.3835
入謝	-11.3839
市易	-11.3846
古聖賢	-11.3848
見矣	-11.3848
倉庫	-11.3857
請留	-11.3857
賜坐	-11.3859
比之	-11.3859
昭昭	-11.3861
告成	-11.3861
舉子	-11.3862
郭氏	-11.3863
文靖公	-11.3863
優授	-11.3863
王世	-11.3867
西藏	-11.387
天下之大	-11.387
宋元	-11.387
益急	-11.3871
其業	-11.3872
平章事	-11.3874
因命	-11.3874
四十四年	-11.3877
賢士	-11.3879
乎吾	-11.388
入相	-11.3882
十七人	-11.3885
古田	-11.3889
按此	-11.3889
誰可	-11.3889
遂除	-11.389
典故	-11.389
而後知	-11.3892
廓然	-11.3892
之會	-11.3894
黜之	-11.3896
習之	-11.3897
即行	-11.3898
國王	-11.39
葢自	-11.3901
九成	-11.3902
以為憂	-11.3905
程門	-11.3905
事理	-11.3906
郭爾	-11.3907
理則	-11.3908
亡命	-11.3909
如前	-11.3909
年分無考其子	-11.3909
獲馬	-11.3909
記誦	-11.3911
累封	-11.3912
右係来歸年分無考之人	-11.3912
瓌	-11.3912
額赫	-11.3912
簽	-11.3913
睿親王多爾衮	-11.3913
然如	-11.3913
噶爾丹䇿凌	-11.3914
大振	-11.3914
詬	-11.3914
實用	-11.3915
覊	-11.3916
右係來歸年分無考之人	-11.3917
危言	-11.3917
在告	-11.3918
右係附載	-11.3918
有不善	-11.3918
粒	-11.3919
現任司庫	-11.3919
撒	-11.392
期以	-11.392
覺和托	-11.3921
貺	-11.3922
多有	-11.3923
愽	-11.3924
㫤	-11.3924
二女	-11.3924
詘	-11.3924
益重	-11.3925
阿克	-11.3925
欽定四庫全書史部七	-11.3926
瘳	-11.3926
精思	-11.3926
譲	-11.3927
加太子少保	-11.3927
翦	-11.3927
等處屢敗賊	-11.3927
蠢	-11.3928
纓	-11.3929
沛公	-11.393
炭	-11.393
囿	-11.3931
賢能	-11.3931
正論	-11.3932
去取	-11.3933
起居舍人	-11.3934
忠勇	-11.3934
之源	-11.3936
吳王	-11.3937
餘杭	-11.3937
穉	-11.3937
懸空	-11.3938
用工	-11.3939
市舶	-11.3939
私淑	-11.3939
之詩	-11.394
胷中	-11.394
三十七	-11.394
延綏	-11.3941
而不為	-11.3941
以重	-11.3942
昭公	-11.3943
邦彦	-11.3943
真卿	-11.3943
二次	-11.3945
十九日	-11.3945
或云	-11.3946
慰諭	-11.3947
憐之	-11.3947
恭儉	-11.3947
不可使	-11.3951
定鼎	-11.3952
義士	-11.3952
激切	-11.3954
大意	-11.3954
聖人之心	-11.3955
立命	-11.3956
封疆	-11.3956
易經	-11.3956
之急	-11.3957
化育	-11.3957
其旁	-11.3957
石圖	-11.3959
不懌	-11.396
哈宻	-11.396
同門	-11.3961
又敗	-11.3965
頓首謝	-11.3965
贈太子少保	-11.3969
名之曰	-11.397
十一人	-11.397
提要	-11.397
出征	-11.3971
馬歩兵	-11.3971
免官	-11.3971
欲立	-11.3973
乞骸骨	-11.3973
扵是	-11.3974
之殊	-11.3974
萬緡	-11.3976
太虚	-11.3976
雷州	-11.3976
次日	-11.3978
卒無	-11.3979
之一字	-11.3979
為吏部尚書	-11.3984
㕘軍	-11.3985
從官	-11.3986
精㣲	-11.3986
求道	-11.3987
馳至	-11.3987
澶州	-11.3988
非謂	-11.3989
之根	-11.3989
卒于官	-11.3992
人服其	-11.3993
能言	-11.3994
三十八	-11.4
又多	-11.4002
封禪	-11.4002
天地之間	-11.4003
阿岱	-11.4003
外史氏曰先生	-11.4003
柱現任	-11.4004
下人	-11.4005
上都	-11.4005
邠	-11.4005
直前	-11.4007
光禄	-11.4008
門戸	-11.4008
人咸	-11.4011
擬議	-11.4011
福禄	-11.4012
撫臣	-11.4013
其鋒	-11.4016
撫按	-11.4017
鼎曰	-11.4017
云爾	-11.4018
立法	-11.4018
十倍	-11.4021
順天府	-11.4021
自將	-11.4021
先生學	-11.4023
之境	-11.4027
徐氏	-11.4027
圍城	-11.4029
朔方	-11.4031
十六日	-11.4032
其始	-11.4033
可立	-11.4034
不撓	-11.4037
仍舊	-11.404
用公	-11.404
母憂	-11.4041
老臣	-11.4041
右僕射	-11.4041
而用	-11.4042
治行	-11.4044
臣僚	-11.4049
兼佐領又	-11.4049
稱臣	-11.405
孟子言	-11.4052
邑之	-11.4054
論功	-11.4055
太倉	-11.4055
車臣	-11.4055
撰墓誌	-11.4056
此説	-11.4057
序曰	-11.4058
府推官	-11.4062
吾君	-11.4065
金國	-11.4067
備考	-11.4068
帥師	-11.407
進𠞰	-11.4071
恭順	-11.4072
兼知	-11.4073
功授	-11.4078
甚善	-11.4079
者蓋	-11.408
反身	-11.4081
套	-11.4084
對曰陛下	-11.4085
之形	-11.4086
其寃	-11.4089
清節	-11.409
似道	-11.409
招之	-11.4092
車馬	-11.4092
繫獄	-11.4096
胡文定	-11.4096
不舉	-11.4096
諾穆	-11.4098
悔之	-11.4098
夫豈	-11.4099
十九人	-11.41
是冬	-11.4106
過北京征山東	-11.4107
比至	-11.4108
帽	-11.4108
不得已而	-11.4109
寒士	-11.4109
不省	-11.411
金吾	-11.411
前鋒統領	-11.411
胎	-11.4111
二也	-11.4112
廖道南曰	-11.4112
鏗	-11.4113
譔	-11.4114
釀	-11.4114
土謝圖	-11.4115
杜稜	-11.4115
以觀	-11.4116
曼	-11.4116
浴	-11.4117
合兵	-11.4118
軼	-11.4118
箠	-11.4118
揀	-11.4118
此為	-11.4118
藩臬	-11.4118
辛卯	-11.4118
纛	-11.4119
薩喇	-11.4119
五十一	-11.4119
焰	-11.412
宣教郎	-11.412
丁卯	-11.4121
湊	-11.4121
高明	-11.4121
巴克什	-11.4121
贅	-11.4121
穆成額	-11.4122
驢	-11.4122
秀實	-11.4122
阿竒木伯克	-11.4122
帷幄	-11.4123
複	-11.4123
予曰	-11.4124
禮部主事	-11.4124
其門人	-11.4125
粉	-11.4125
鏜	-11.4126
穆克	-11.4126
終制	-11.4126
熈寜	-11.4126
招討使	-11.4127
樞宻直學士	-11.4127
慶州	-11.4127
想像	-11.4128
固執	-11.4129
屈伸	-11.4131
騫	-11.4131
削奪	-11.4131
不顯	-11.4132
年十二	-11.4132
沿海	-11.4132
明也	-11.4133
器也	-11.4134
馬氏	-11.4134
討平之	-11.4135
來歸其孫	-11.4135
母夫人	-11.4135
錫理	-11.4136
叛逆	-11.4136
邀擊	-11.4136
側目	-11.414
氏追封	-11.4141
禪布	-11.4141
師傅	-11.4141
保現	-11.4143
儒生	-11.4144
防秋	-11.4144
掃除	-11.4145
以廣	-11.4145
焉耳	-11.4145
優游	-11.4147
調停	-11.4147
曰性	-11.4148
之墓	-11.4148
持論	-11.415
數言	-11.4151
丞相亮	-11.4152
者莫不	-11.4153
天寳	-11.4153
伯父	-11.4153
桂陽	-11.4154
與敵	-11.4155
徳宗	-11.4155
河地方	-11.4158
趙孟	-11.4158
滁州	-11.4158
得釋	-11.4158
乃已	-11.4159
良心	-11.416
病痛	-11.416
徒步	-11.4163
迄今	-11.4163
祖禹	-11.4164
禦敵	-11.4167
遇賊	-11.4168
而獨	-11.4169
元標	-11.417
書籍	-11.417
恩詔加一雲騎尉	-11.4171
分襲	-11.4173
數百年	-11.4174
不早	-11.4174
大治	-11.4175
而食	-11.4176
在郡	-11.418
怵惕	-11.4181
縣治	-11.4183
䕃補	-11.4183
浮雲	-11.4183
不習	-11.4184
供奉	-11.4185
再按	-11.4187
賞給	-11.4187
設施	-11.4188
源頭	-11.4188
孫阿	-11.4189
孟子所謂	-11.4189
下馬	-11.4191
為小	-11.4191
塔山	-11.4191
性無	-11.4192
甚嚴	-11.4192
也盖	-11.4193
十三日	-11.4194
老母	-11.4194
晚節	-11.4195
師旋	-11.4195
直是	-11.4195
究心	-11.4197
問焉	-11.4198
人身	-11.4198
乃曰	-11.42
尚存	-11.42
好色	-11.4202
為書	-11.4203
相州	-11.4203
愛惜	-11.4203
薦起	-11.4205
邑令	-11.4206
近者	-11.4207
絶不	-11.4207
改南京	-11.4207
達賴	-11.4208
郡城	-11.4211
立本	-11.4217
有功於	-11.4218
今天子	-11.4219
講道	-11.422
求賢	-11.422
張文	-11.4221
巴達	-11.4222
聞其名	-11.4223
憚之	-11.4225
得書	-11.4225
按察	-11.4225
頗有	-11.4226
再調	-11.4226
位而	-11.4226
主意	-11.4227
儕	-11.4227
和平	-11.423
大賢	-11.423
臨之	-11.4234
仙人	-11.4235
清苦	-11.4237
監修	-11.4237
第二子	-11.4238
無怨	-11.424
楓	-11.4242
士君子	-11.4245
存乎	-11.4246
實地	-11.4252
而謂	-11.4254
奸人	-11.4254
其本體	-11.4255
次年	-11.4256
享年	-11.4257
虚靈	-11.4259
善繼	-11.4262
同舍	-11.4262
清慎	-11.4263
錫爵	-11.4264
富察	-11.4265
江中	-11.4265
罪狀	-11.4265
也是以	-11.4266
提兵	-11.4268
此體	-11.4268
因請	-11.4268
不遇	-11.4269
朝命	-11.4269
在下	-11.427
八世孫	-11.4271
不實	-11.4271
北向	-11.4272
欲與	-11.4274
北兵	-11.4275
吉陽	-11.4275
自經	-11.4276
元末	-11.4276
一經	-11.4277
惻	-11.4277
必待	-11.4279
必盡	-11.428
公彦	-11.428
質之	-11.4281
宿州	-11.4282
妄念	-11.4283
俗學	-11.4284
薩理	-11.4287
莫知所	-11.4287
俱原任員外郎	-11.4287
旁有	-11.4289
多言	-11.4289
請和	-11.4289
明年春	-11.4295
與先生	-11.4297
進圍	-11.4298
悠	-11.4298
知非	-11.4299
凡人	-11.43
為滿洲一姓其	-11.4301
與劉	-11.4302
由佐領從征	-11.4304
翕	-11.4304
因此	-11.4306
為良知	-11.4308
額爾齊斯	-11.431
忠憲	-11.4311
瞰	-11.4311
扎爾固齊	-11.4312
有違	-11.4312
伽	-11.4313
▁加之職	-11.4313
瘁	-11.4313
而學	-11.4313
牲畜	-11.4314
持守	-11.4315
啼	-11.4315
騖	-11.4316
渡淮	-11.4316
▁初來歸其元孫	-11.4317
而性	-11.4317
㝷	-11.4318
未决	-11.4318
呵	-11.4318
七十里	-11.4319
顧憲成	-11.4319
寥	-11.4319
額爾徳尼昭	-11.4319
復辟	-11.4319
前軍	-11.4319
腸	-11.432
產	-11.432
嬪	-11.432
畊	-11.4321
藩籬	-11.4321
扺	-11.4321
優劣	-11.4321
逰擊	-11.4321
奉朝請	-11.4321
丁父憂	-11.4322
布爾尼	-11.4323
戸部侍郎	-11.4323
建興	-11.4324
弟子員	-11.4325
蹶	-11.4325
拭	-11.4325
䘚	-11.4325
驩	-11.4325
淮甸	-11.4325
旄	-11.4326
淛	-11.4326
五十四年	-11.4326
拳	-11.4327
州防禦使	-11.4327
不二	-11.4327
閘	-11.4328
太子中允	-11.4329
罸	-11.4329
淤	-11.4329
懇切	-11.4329
其善	-11.4329
行走	-11.433
櫛	-11.433
轉運	-11.433
海島	-11.433
偪	-11.4331
城破	-11.4332
求放心	-11.4332
髙攀龍	-11.4333
寧國	-11.4333
莫大於	-11.4334
烏喇特	-11.4334
儋	-11.4335
盛德	-11.4336
精鋭	-11.4336
反側	-11.4339
者所以	-11.434
十朋	-11.4341
談論	-11.4342
泰現任䕶軍校	-11.4342
退保	-11.4342
歸牧	-11.4343
益深	-11.4343
無何	-11.4343
以為非	-11.4343
八旗滿洲氏族通譜卷	-11.4346
一邊	-11.4347
榜進士	-11.4349
上聞之	-11.435
阿穆	-11.4351
内批	-11.4352
姑息	-11.4352
脩撰	-11.4353
以往	-11.4353
其餘無事蹟可立傳者附載於後正黄旗	-11.4355
晦叔	-11.4357
英雄	-11.4357
向來	-11.4358
豈容	-11.4358
未仕	-11.4361
使天下	-11.4364
扶風	-11.4364
是真	-11.4369
上賜	-11.437
出降	-11.437
不渝	-11.4371
靖康初	-11.4372
舊有	-11.4374
不昧	-11.4374
三等䕶衛	-11.4374
私人	-11.4376
皂	-11.4377
奉母	-11.4378
功績	-11.4379
畿内	-11.438
募兵	-11.4381
完顔	-11.4384
不可以為	-11.4385
稍有	-11.4385
定論	-11.4386
六十三	-11.4386
繼以	-11.4388
七十八	-11.4389
論奏	-11.4389
黙特	-11.439
而未嘗	-11.4391
其詳	-11.4392
之福也	-11.4392
馮保	-11.4393
於衆	-11.4394
再娶	-11.4396
御營	-11.4401
復奏	-11.4402
是夜	-11.4403
小吏	-11.4404
潮陽	-11.4405
先臣	-11.4405
勞之	-11.4405
已具	-11.4405
盛衰	-11.4406
至孝	-11.441
登舟	-11.4412
吉水	-11.4412
半年	-11.4413
龍泉	-11.4414
編修官	-11.4414
經制	-11.4416
何獨	-11.4416
難之	-11.4417
生員	-11.4418
既以	-11.442
諭㫖	-11.4422
有感	-11.4423
時嘗	-11.4423
大饑	-11.4425
帝問	-11.4426
百餘年	-11.4426
永春	-11.4427
二年二月	-11.4427
曰天子	-11.4428
險阻	-11.4438
稱曰	-11.4438
徳音	-11.4438
官府	-11.4439
毁之	-11.4439
誦之	-11.4439
能文	-11.4441
真體	-11.4444
行矣	-11.4448
誰敢	-11.4449
無逸	-11.445
上喜	-11.4456
陜州	-11.4456
無惡	-11.4457
楚材	-11.4459
著作郎	-11.4461
昌言	-11.4462
未報	-11.4462
▁子	-11.4466
吾民	-11.4466
千總	-11.4471
者已	-11.4472
齊格	-11.4473
天錫	-11.4474
𢎞文	-11.4475
其官	-11.4475
至城下	-11.4476
博文	-11.4478
楚人	-11.4479
軍法	-11.448
請令	-11.448
而廢	-11.4481
出竒	-11.4481
同僚	-11.4481
絶無	-11.4486
滁	-11.4489
一等公	-11.449
極力	-11.4493
以入	-11.4495
丑	-11.4496
樂善	-11.4497
而無所	-11.4498
甚盛	-11.4498
同一	-11.4501
歸省	-11.4502
以制	-11.4502
官其子	-11.4503
巴雅爾	-11.4507
任使	-11.4509
佟國	-11.4509
長孫	-11.451
所立	-11.451
學博	-11.4512
祀典	-11.4512
其所學	-11.4512
遶	-11.4513
二事	-11.4514
闗保	-11.4514
士馬	-11.4515
阿玉什	-11.4515
在彼	-11.4515
摹	-11.4515
巒	-11.4515
聖祖仁皇帝	-11.4517
偁	-11.4517
彗	-11.4517
榮禄大夫	-11.4518
太常寺太祝	-11.4519
生生之	-11.4519
辛夘	-11.452
石城	-11.452
朝請大夫	-11.4521
乙夘	-11.4521
峪	-11.4521
盱眙	-11.4522
搢紳	-11.4522
之交	-11.4523
絲毫	-11.4523
甕	-11.4523
是已	-11.4523
巢穴	-11.4524
自在	-11.4524
太宗謂侍臣曰	-11.4524
啖	-11.4525
薩哈連	-11.4525
狀元	-11.4525
山海闗	-11.4526
多故	-11.4527
影響	-11.4527
禘	-11.4528
而先	-11.4528
不講	-11.4529
腔子	-11.4529
甘露	-11.453
曄	-11.453
霆	-11.4531
乃請	-11.4532
伉	-11.4532
厨	-11.4532
京兆尹	-11.4532
太常丞	-11.4533
梓宫	-11.4535
誰為	-11.4535
十嵗	-11.4536
松花江地方	-11.4537
康伯	-11.4537
襲封衍聖公	-11.4538
指㸃	-11.4538
慈湖	-11.4539
不順	-11.4539
公上疏	-11.454
金玉	-11.454
原係副䕶軍校	-11.4541
然後可以	-11.4542
無失	-11.4542
悳	-11.4542
故舊	-11.4543
兼侍中	-11.4544
范純仁	-11.4545
太醫	-11.4546
藝祖	-11.4546
人品	-11.4547
隴西	-11.4547
嚴毅	-11.455
唯唯	-11.4551
臨朝	-11.4552
羣盜	-11.4554
三千餘	-11.4555
西門	-11.4555
西林	-11.4559
其禍	-11.4559
儒者之	-11.4561
三等侍衛	-11.4561
舉行	-11.4561
差役	-11.4562
五十三	-11.4562
城地方	-11.4563
▁加	-11.4563
薩爾泰	-11.4564
勒赫	-11.4564
成名	-11.457
綽爾	-11.4572
許州	-11.4573
原任步軍	-11.4573
也蓋	-11.4577
王直	-11.458
抵罪	-11.4582
大位	-11.4583
民生	-11.4585
請立	-11.4586
扎薩克鎮國公	-11.4588
遷延	-11.4588
恐未	-11.459
達於	-11.459
使自	-11.459
天理之	-11.4591
嗜欲	-11.4592
害民	-11.4592
仕宦	-11.4592
淮上	-11.4594
歩軍	-11.4598
只一	-11.4603
養心	-11.4604
之號	-11.4604
伯祖	-11.4605
長於	-11.4606
平凉	-11.4607
勞問	-11.4607
原任郎中兼佐領	-11.4607
西喇塔拉地方	-11.461
殊不知	-11.461
羅倫	-11.4611
兵敗	-11.4614
先生先生	-11.4614
三十三	-11.4615
安州	-11.4615
等曰	-11.4615
論孟	-11.4615
文安	-11.4616
兩京	-11.4617
行禮	-11.4618
墓志	-11.4619
此所以	-11.4623
暇則	-11.4623
過此	-11.4625
千總一兵	-11.4627
戒之	-11.4628
釋老	-11.4628
乘之	-11.463
自昔	-11.463
御極	-11.4631
原任二	-11.4632
文藝	-11.4633
必不能	-11.4634
前世	-11.4637
寢疾	-11.4639
平之	-11.4647
三十名	-11.4651
知揚州	-11.4651
則謂之	-11.4651
不曽	-11.4652
其源	-11.4655
便覺	-11.4655
不可易	-11.466
之器	-11.4663
亦原任佐領	-11.4665
不經	-11.467
著作	-11.467
又聞	-11.467
歸葬	-11.4672
明詔	-11.4674
上嘉其	-11.4678
薨於	-11.4678
聲援	-11.4678
戰士	-11.4681
可保	-11.4682
聖道	-11.4683
素知	-11.4684
練兵	-11.4685
運糧	-11.4686
托和	-11.4691
相視	-11.4693
親軍	-11.4693
不先	-11.4693
之年	-11.4694
於庭	-11.4695
贈太傅	-11.4695
堡地方	-11.4695
部將	-11.4695
順帝	-11.4697
誠之	-11.4697
敵國	-11.4699
多爾	-11.4699
有集	-11.4704
封多羅貝勒	-11.4706
思索	-11.4707
盡得	-11.4708
皆以為	-11.4711
封鎮國公	-11.4712
燦	-11.4712
斯民	-11.4713
遂得	-11.4713
欲去	-11.4713
辨其	-11.4714
講席	-11.4714
令其子	-11.4716
正藍旗包衣人世居瀋陽地方來歸年	-11.4719
正黄旗包衣旗鼓人世居瀋陽地方來	-11.472
死亡	-11.4722
堵	-11.4722
犂	-11.4723
悵	-11.4723
祺	-11.4724
心腹	-11.4724
郎小字	-11.4725
崇徳元年	-11.4725
璮	-11.4725
恩詔加至三等輕車都尉	-11.4726
之誤	-11.4726
萼	-11.4726
深思	-11.4727
襲六次襲	-11.4727
憎	-11.4728
緇	-11.4728
猖獗	-11.4728
中常侍	-11.4728
拳拳	-11.4729
為奸	-11.473
迓	-11.4731
方能	-11.4731
欄	-11.4731
佯	-11.4731
凜	-11.4731
薰	-11.4731
殪	-11.4732
黷	-11.4732
耐	-11.4732
舉火	-11.4732
等謹案	-11.4732
幟	-11.4732
悞	-11.4733
恁地	-11.4733
沙漠	-11.4733
倨	-11.4733
未見其	-11.4733
曙	-11.4734
春夏	-11.4734
謔	-11.4734
曳	-11.4735
有天下	-11.4735
踪	-11.4736
者不過	-11.4737
庻幾	-11.4737
隧	-11.4737
扈蹕	-11.4738
前事	-11.4738
燼	-11.4738
翰墨	-11.4738
斟酌	-11.4738
氏係隸滿洲旗分之高麗	-11.4738
黥	-11.4738
訕	-11.4738
鳥獸	-11.4738
大學中庸	-11.4739
地位	-11.4739
功曹	-11.4739
琪	-11.4739
曜	-11.4739
興化軍	-11.474
汩	-11.474
呼吸	-11.474
擊賊偽將	-11.474
仍以	-11.4741
本路	-11.4741
莫測	-11.4742
藏於家	-11.4742
滂	-11.4742
遙	-11.4742
為憂	-11.4743
愕然	-11.4743
雖死	-11.4744
循循	-11.4745
才能	-11.4746
副總裁	-11.4746
原任驍騎校四世孫	-11.4746
正色曰	-11.4746
痛哭	-11.4747
有謀	-11.4747
無虚日	-11.4748
左布政使	-11.4748
丈人	-11.475
蠟	-11.475
選庶吉士	-11.475
革退	-11.4752
爌	-11.4754
歸田	-11.4755
繼祖	-11.4756
龍谿	-11.4757
霍光	-11.4758
習心	-11.4758
失色	-11.4758
甚者	-11.4758
境界	-11.476
原任六品	-11.4762
計較	-11.4764
地方擊賊陣亡	-11.4766
家廟	-11.4767
重於	-11.4767
蔡確	-11.4768
入援	-11.4769
軍需	-11.477
太祖皇帝	-11.477
秋冬	-11.4771
豁然	-11.4774
自此始	-11.4775
傳記	-11.4776
原任防禦元孫	-11.4776
崇禎初	-11.4776
不定	-11.4776
而外	-11.4777
義州	-11.4781
綏分地方	-11.4781
良弼	-11.4782
載之	-11.4783
不得與	-11.4785
群臣	-11.4789
歴任副都統	-11.479
十四人	-11.4791
五峯	-11.4791
乃召	-11.4791
甲胄	-11.4793
有益	-11.4794
而後可以	-11.4795
等率兵	-11.4798
年十九	-11.48
憂患	-11.4801
庶政	-11.4801
本意	-11.4803
天臺	-11.4803
通政	-11.4806
宜先	-11.4806
從征江西	-11.4809
精舍	-11.4809
卓異	-11.481
學教授	-11.4811
七十六	-11.4812
鄉之	-11.4813
寧古塔	-11.4813
强記	-11.4814
優授騎都尉	-11.4814
賜第	-11.4816
楓山	-11.4818
在其中矣	-11.4819
軍門	-11.4819
移文	-11.482
年未	-11.4821
平地	-11.4821
即令	-11.4822
如流	-11.4822
篤學	-11.4822
且請	-11.4823
佛爾	-11.4823
所敗	-11.4826
知潭州	-11.4826
分司	-11.4827
清源	-11.4828
有光	-11.4828
最著	-11.4828
額爾格	-11.4828
先哲	-11.4829
覺悟	-11.4829
云何	-11.4829
善念	-11.483
河洛	-11.4831
遂至	-11.4832
步兵	-11.4833
知能	-11.4833
用事者	-11.4834
於京師	-11.4836
移疾	-11.484
大槩	-11.4841
君子曰	-11.4843
平易	-11.4843
分無考其元孫	-11.4843
天聰時來歸其	-11.4844
號泣	-11.4845
寧古塔地方	-11.4849
終喪	-11.4849
姦人	-11.4852
回衆	-11.4853
無足	-11.4854
不悟	-11.4856
六師	-11.4856
天威	-11.4856
受詔	-11.4856
六品官	-11.4856
向者	-11.4857
又復	-11.4858
之累	-11.4858
年分無考其曽孫	-11.486
遺表	-11.4864
補闕	-11.4864
賴之	-11.4869
備兵	-11.487
用其言	-11.4871
秀州	-11.4871
為滿洲一姓	-11.4873
不審	-11.4874
金主	-11.4874
便自	-11.4878
死耳	-11.4879
六十八	-11.4881
感而	-11.4881
受業於	-11.4882
小大	-11.4883
貧不能	-11.4883
百戸	-11.4884
仰視	-11.4886
燕居	-11.4886
正叔	-11.489
過目	-11.489
侍經筵	-11.4892
定制	-11.4895
日夕	-11.4896
用命	-11.4897
予之	-11.4898
山寨	-11.4898
歸順	-11.4899
哉然	-11.4901
以聖賢	-11.4901
孫氏	-11.4906
任叅領	-11.4906
所好	-11.4907
山南	-11.4909
送至	-11.491
曽祖諱	-11.4911
往諭	-11.4914
司直	-11.4915
六十一	-11.4915
為第一	-11.4915
母后	-11.4916
無常	-11.4917
文毅	-11.4918
三卷	-11.4919
屬縣	-11.4922
者以其	-11.4922
阿玉竒	-11.4923
虹	-11.4923
上顧	-11.4924
子姪	-11.4925
顯忠	-11.4927
生氣	-11.493
也君子	-11.4931
兵赴	-11.4933
琿台吉	-11.4934
鏹	-11.4936
縁事革	-11.4936
郃	-11.4938
府志	-11.4938
舖	-11.4938
承璀	-11.4938
朝散郎	-11.4938
行間	-11.4938
葦	-11.4939
貿	-11.4939
金錢	-11.4939
禇	-11.4939
宣聖	-11.4939
潼	-11.494
黑龍江	-11.4941
顓	-11.4942
暘	-11.4943
清議	-11.4943
撮	-11.4943
羔	-11.4943
晦庵	-11.4943
所部兵	-11.4943
賙	-11.4943
藪	-11.4943
聞風	-11.4943
承議郎	-11.4945
莽古爾泰	-11.4945
誑	-11.4945
原任員外郎孫	-11.4945
縑	-11.4945
諦	-11.4946
何思何慮	-11.4946
原係生員	-11.4947
唾	-11.4947
以金	-11.4948
祉	-11.4948
糓	-11.4948
扉	-11.4948
溉	-11.4949
砥礪	-11.4949
竟日	-11.4949
紐	-11.4949
入于	-11.4949
觀察	-11.4951
提學副使	-11.4951
行中書省	-11.4951
者無不	-11.4952
恠	-11.4952
斫	-11.4952
拱辰	-11.4952
酬酢	-11.4953
某月某日	-11.4954
此輩	-11.4954
垂簾	-11.4954
賈誼	-11.4955
璁	-11.4955
殽	-11.4955
殺身	-11.4956
六十四	-11.4957
饑寒	-11.4957
萬民	-11.4958
其墓	-11.4958
藩邸	-11.4959
織造	-11.4959
狠	-11.496
賞之	-11.496
文皇帝	-11.4963
徳性	-11.4964
辨析	-11.4964
秋八月	-11.4965
十七日	-11.4965
陳友諒	-11.4969
造就	-11.4969
賞賜	-11.497
細故	-11.497
孰不	-11.497
牽制	-11.4971
之位	-11.4971
直入	-11.4972
未備	-11.4973
已見	-11.4975
則當	-11.4976
聚徒	-11.4976
友徳	-11.4976
先入	-11.4979
忠肅	-11.498
一百二十	-11.498
與戰	-11.4984
喬年	-11.4985
是氣	-11.4985
以平	-11.4985
圖現任	-11.4985
廷弼	-11.4985
禮經	-11.4986
巴布	-11.4986
不進	-11.4989
實封	-11.4989
分宜	-11.499
赫勒	-11.4991
迎之	-11.4994
三十九	-11.4995
如水	-11.4995
定西	-11.4996
多鐸	-11.4996
矣於是	-11.4998
崇仁	-11.4999
别無	-11.5
都事	-11.5001
三十人	-11.5001
諸暨	-11.5002
從何處	-11.5002
山十名	-11.5002
更定	-11.5003
許衡	-11.5004
之助	-11.5004
不可犯	-11.5005
自我	-11.5005
還家	-11.5005
止至善	-11.5006
泰和	-11.5007
頭目	-11.5007
有禮	-11.5007
就是	-11.5009
景徳	-11.5009
不協	-11.5011
不窮	-11.5011
亦難	-11.5011
副都統兼佐領	-11.5012
短長	-11.5012
主考	-11.5014
將何以	-11.5014
光州	-11.5015
庫理	-11.5016
源委	-11.5016
步軍	-11.5017
坐貶	-11.5018
隂陽之	-11.502
苦心	-11.5024
六十年	-11.5025
知貢舉	-11.5028
不敢當	-11.5028
宜令	-11.5028
請降	-11.5028
先輩	-11.5029
酋長	-11.5029
大章	-11.503
乏食	-11.5031
白日	-11.5037
中夜	-11.5038
終不可	-11.5038
震動	-11.5038
尊號	-11.5039
入道	-11.5039
往視	-11.504
自便	-11.504
誣奏	-11.5041
傳㫖	-11.5041
軒先生	-11.5042
孝行	-11.5042
若之何	-11.5044
陽明之	-11.5045
曰予	-11.5047
涪	-11.5048
有貞	-11.5049
請於朝	-11.505
州判官	-11.5052
為天子	-11.5053
脅從	-11.5054
萬幾	-11.5055
更生	-11.5055
嚴州	-11.5057
稱之曰	-11.5057
都下	-11.5057
而可	-11.5057
甚喜	-11.5063
督師	-11.5064
正統初	-11.5065
陣亡優	-11.5066
二巻	-11.5066
有條理	-11.507
達喇	-11.507
朝服	-11.507
請託	-11.5072
風紀	-11.5072
大駭	-11.5073
習禮	-11.5075
放心	-11.5078
自安	-11.5078
破敵	-11.5079
一隅	-11.5079
但當	-11.5079
哈那	-11.5083
任副都統	-11.5083
十二日	-11.5085
劾罷	-11.5085
而後可	-11.5085
乃謂	-11.5088
務在	-11.509
吉林	-11.5091
教習	-11.5092
甲兵	-11.5092
執奏	-11.5093
類此	-11.5093
先覺	-11.5093
知事	-11.5093
諸貝勒	-11.5093
不妨	-11.5098
戰國	-11.51
仲舒	-11.5102
髙逺	-11.5103
内降	-11.5103
志節	-11.5105
來犯	-11.5106
世事	-11.5107
叙功優授	-11.5107
兄弟三人	-11.5107
城池	-11.5107
監丞	-11.5108
形體	-11.5112
陞南	-11.5113
文仲	-11.5113
忠言	-11.5113
全無	-11.5117
朕所	-11.5117
殺傷	-11.5118
講和	-11.5118
竣	-11.512
之序	-11.5122
總之	-11.5122
尼瑪	-11.5124
里居	-11.5125
奏疏	-11.5125
諸孤	-11.5129
對䇿	-11.5133
不守	-11.5134
拉塔	-11.5135
四次襲	-11.5135
真切	-11.5136
耳非	-11.5143
二部	-11.5143
諸山	-11.5144
二書	-11.5144
凛	-11.5146
齊喀	-11.5146
相通	-11.5148
士元	-11.5152
涸	-11.5152
春官	-11.5152
正白旗包衣人世居瀋陽地方來歸年	-11.5152
伯恭	-11.5154
聿	-11.5154
翎	-11.5155
斡	-11.5155
條奏	-11.5157
虎爾哈	-11.5157
闥	-11.5157
無虞	-11.5157
耽	-11.5158
宋氏	-11.5159
白鹿洞	-11.5159
轉運判官	-11.516
詔求直言	-11.5161
餘姚黄宗羲撰	-11.5161
名實	-11.5161
丁外艱	-11.5162
峨	-11.5162
太子少師	-11.5162
亹亹	-11.5162
榆林	-11.5162
渠魁	-11.5163
撻	-11.5163
知善知惡	-11.5163
尋擢	-11.5164
剗	-11.5164
塗炭	-11.5165
明徐紘撰	-11.5166
首惡	-11.5166
遣官諭祭	-11.5166
直學士院	-11.5166
𠂻	-11.5167
夢昱	-11.5167
往見	-11.5168
埒	-11.5168
非禮勿	-11.5168
張邦昌	-11.5169
㦸	-11.5169
蠡	-11.517
刁	-11.5171
鼓舞	-11.5172
彭韶	-11.5172
康成	-11.5173
婆	-11.5174
高麗	-11.5174
致知格物	-11.5174
毛文龍	-11.5175
蜚	-11.5175
簽書	-11.5175
無害	-11.5175
瑶	-11.5175
瑚什巴	-11.5176
精義	-11.5177
神人	-11.5178
二十人	-11.5178
忠勤	-11.5179
紇	-11.518
紛擾	-11.518
乾隆元年	-11.5182
郡庠	-11.5183
鄉閭	-11.5185
司主事	-11.5186
勉齋	-11.5187
無憾	-11.5187
凡四	-11.5188
勉强	-11.5189
𥘉	-11.5189
四出	-11.519
篤於	-11.5192
太上皇	-11.5193
平仲	-11.5194
屬吏	-11.5194
世界	-11.5194
者不知	-11.5196
反為	-11.5198
仙遊	-11.5198
賜錢	-11.5199
尤精	-11.5199
端拱	-11.5199
第一子	-11.52
擁衆	-11.52
毛詩	-11.5202
茍能	-11.5205
身先	-11.5207
老弱	-11.5208
府同知	-11.521
既又	-11.5211
非真	-11.5212
校書	-11.5212
日進	-11.5212
其女	-11.5214
等語	-11.5216
不敢不	-11.5217
遇敵	-11.5218
本部	-11.5218
以待之	-11.5218
嶺表	-11.5218
也孔子	-11.5221
令伊	-11.5222
廟庭	-11.5222
三年正月	-11.5222
道監察御史	-11.5224
内翰	-11.5225
甚重	-11.5225
則所謂	-11.5229
所重	-11.5231
凡百	-11.5232
深造	-11.5237
拜監察御史	-11.5238
紛然	-11.5239
聲震	-11.5242
割地	-11.5244
屢敗賊	-11.5244
憂勤	-11.5245
載籍	-11.5246
農桑	-11.5247
之暇	-11.525
景榮	-11.525
孫吳	-11.5251
然後知	-11.5251
諸邑	-11.5251
故多	-11.5252
追念	-11.5253
〇	-11.5253
歸朝	-11.5255
總制	-11.5256
其根	-11.5256
戰于	-11.5258
不留	-11.5259
文宣王	-11.526
十有五	-11.5261
方人其	-11.5262
得士	-11.5263
反求	-11.5265
下第	-11.5265
從古	-11.5265
免役	-11.5265
知泉州	-11.5266
居喪	-11.5267
時宰	-11.5267
或者	-11.5268
初即位	-11.527
滄州	-11.5272
真州	-11.5273
義烏	-11.5274
先行	-11.5276
士誠	-11.5278
二親	-11.5278
尚書右丞	-11.5282
長白山地方人	-11.5282
何也曰	-11.5288
協力	-11.5291
堂堂	-11.5292
總領	-11.5293
尋復	-11.5298
欽若	-11.53
大懼	-11.53
定䇿	-11.5301
老格	-11.5301
不可勝	-11.5302
善言	-11.5306
不致	-11.5306
平旦	-11.5307
左右皆	-11.5313
政務	-11.5314
凡五	-11.5315
季通	-11.532
張皇	-11.5321
上幸	-11.5322
實心	-11.5324
夾擊	-11.5324
巳而	-11.5326
獨得	-11.5326
西戎	-11.5327
罪削爵	-11.5327
僧額	-11.5327
每見	-11.5329
即今	-11.5331
曰自古	-11.5332
之心也	-11.5332
西拉木楞地方	-11.5335
復從	-11.5337
西漢	-11.5338
萬言	-11.5342
後天	-11.5344
為右	-11.5344
州知州	-11.5348
吏事	-11.5349
入仕	-11.5349
諸弟	-11.5351
阿都	-11.5351
法保	-11.5351
養生	-11.5353
之偏	-11.5354
而求之	-11.5355
六軍	-11.5356
親政	-11.5356
勢必	-11.5356
饑民	-11.536
不害	-11.5361
京營	-11.5362
一念之	-11.5363
兵二百	-11.5364
自取	-11.5364
好善	-11.5365
親屬	-11.5365
酉	-11.5366
甚切	-11.5366
第七	-11.537
站	-11.5373
𦂳	-11.5374
大厯	-11.5374
數語	-11.5377
皋	-11.5378
兌	-11.5379
癸夘	-11.5381
故地	-11.5381
烹	-11.5381
睨	-11.5381
瞬	-11.5381
語云	-11.5381
▁加之職承襲騎都尉	-11.5382
咫尺	-11.5382
佟保	-11.5382
所養	-11.5383
稠	-11.5383
廵檢	-11.5383
之本然	-11.5384
蘿	-11.5384
眠	-11.5384
領催	-11.5385
竒塔特	-11.5386
詮	-11.5386
妄動	-11.5386
安逺	-11.5386
杲	-11.5386
噪	-11.5387
皇太孫	-11.5387
十一年卒子	-11.5387
斁	-11.5387
耨	-11.5388
原任委署	-11.5388
煖	-11.5388
闓	-11.5389
猶能	-11.5389
敏珠爾	-11.5389
磨勘	-11.5389
紂	-11.5389
蟬	-11.5389
按新唐書	-11.539
估	-11.539
不可輕	-11.539
澆	-11.5391
毘陵	-11.5391
綵幣	-11.5392
券	-11.5392
兵部員外郎	-11.5392
鞏昌	-11.5393
原任内副管領	-11.5393
鉤	-11.5394
焕	-11.5394
師事之	-11.5394
收拾	-11.5395
躐	-11.5395
酸	-11.5396
六曰	-11.5397
羗	-11.5397
知學	-11.5398
畫像	-11.5398
梨	-11.5398
朝議大夫	-11.5398
之至也	-11.5399
通政司	-11.5399
天澤	-11.5399
應酬	-11.54
耒	-11.5401
識仁	-11.5402
蘇完	-11.5402
崑山	-11.5403
零陵	-11.5403
須有	-11.5407
辤	-11.5408
誘之	-11.541
八十里	-11.541
顔淵	-11.541
師次	-11.5411
恨之	-11.5411
閲月	-11.5411
五路	-11.5413
有序	-11.5414
趙汝愚	-11.5414
四事	-11.5415
濟王	-11.5415
管見	-11.5416
而知之	-11.5417
周孔	-11.5417
不能得	-11.5417
於鄉	-11.5417
華山	-11.5418
巡視	-11.5418
七品官	-11.5419
初年	-11.5421
現任二等侍衛	-11.5422
俱原任防禦	-11.5422
仁恕	-11.5424
停襲	-11.5424
沛然	-11.5425
已甚	-11.5425
使相	-11.5425
華陽	-11.5425
玩好	-11.5428
十四日	-11.5429
兵三萬	-11.5431
按先生	-11.5432
知己	-11.5433
齊人	-11.5433
詔罷	-11.5434
邊防	-11.5437
不知此	-11.5437
浮梁	-11.5438
不免於	-11.544
一端	-11.544
典儀	-11.5441
被害	-11.5441
鑲白旗包衣	-11.5442
大丈夫	-11.5443
英格	-11.5443
烏拉	-11.5447
悉心	-11.5448
旣而	-11.545
伊拉	-11.545
敗賊偽將	-11.5452
心心	-11.5452
不敢復	-11.5458
故君子	-11.5458
民居	-11.5459
帥臣	-11.546
議郎	-11.5461
索理	-11.5462
折節	-11.5464
愛君	-11.5466
邊患	-11.5468
已成	-11.5468
士林	-11.5469
館職	-11.5471
外廷	-11.5472
不可與	-11.5473
小小	-11.5473
進止	-11.5474
者能	-11.5476
知永興軍	-11.5477
賜名	-11.5478
已是	-11.5478
推明	-11.5478
周官	-11.5479
軍興	-11.548
南豐	-11.548
所不能	-11.5482
儒釋	-11.5483
移駐	-11.5486
憲廟	-11.5489
要地	-11.5489
保原任筆帖式	-11.549
内官	-11.549
建陽人	-11.5491
至論	-11.5491
小兒	-11.5492
迎降	-11.5493
萬五千	-11.5493
持正	-11.5497
我我	-11.5497
褒美	-11.5497
司禮	-11.55
未有如	-11.55
編次	-11.55
之族	-11.5502
傳註	-11.5503
綏哈	-11.5504
釋然	-11.5513
蘭太	-11.5514
副之	-11.5515
鍾山	-11.5516
武進	-11.5517
其誰	-11.5519
歲餘	-11.5519
公爵	-11.552
康子	-11.5522
特授	-11.5523
大全	-11.5525
教子	-11.5526
靈武	-11.5526
應事	-11.5528
獨與	-11.5529
大哉	-11.553
乎公曰	-11.553
夏國	-11.553
敵情	-11.5531
為義	-11.5531
效之	-11.5532
良知者	-11.5532
大罪	-11.5533
興復	-11.5533
文士	-11.5535
可信	-11.5535
青陽	-11.5535
明帝	-11.5536
數嵗	-11.5536
謹獨	-11.5537
西界	-11.5537
被命	-11.5537
秉忠	-11.5537
敏中	-11.5537
安豐	-11.5537
列於	-11.5538
恭格	-11.5539
由驍騎校從征	-11.5541
不道	-11.5542
募民	-11.5544
敬字	-11.5544
仍留	-11.5545
念念	-11.5545
抗言	-11.5549
遷官	-11.5549
糧道	-11.5549
累朝	-11.555
收復	-11.555
無忌	-11.555
父子兄弟	-11.5551
明初	-11.5551
甚詳	-11.5554
而不言	-11.5554
原任䕶軍校曾孫	-11.5555
先事	-11.5555
信義	-11.5562
何憂	-11.5562
今日之事	-11.5562
乃作	-11.5565
亂政	-11.5566
殿試	-11.5566
道輔	-11.5567
主將	-11.5568
知杭州	-11.5572
後嗣	-11.5574
皆從之	-11.5575
為皇太子	-11.5575
國維	-11.5576
彼時	-11.5577
全軍	-11.5577
不曾	-11.5578
十有四	-11.5578
廣寧	-11.5579
姓其氏族世居	-11.558
潯	-11.5581
晉公	-11.5582
宣廟	-11.5583
索爾和	-11.5583
丹徒	-11.5583
八事	-11.5584
牧長	-11.5584
從征浙江福建	-11.5585
無一事	-11.5586
大潰	-11.5586
之理也	-11.5587
阿蘭泰	-11.5587
清風	-11.5587
原任防禦孫	-11.5587
卒于家	-11.559
應物	-11.559
邊人	-11.5591
獻納	-11.5596
小事	-11.5596
於市	-11.5598
中宫	-11.5598
責授	-11.5598
鄖	-11.5599
樗	-11.5599
霑	-11.56
由本旗包衣改	-11.5603
絅	-11.5603
朝奉大夫	-11.5603
原任筆帖式孫	-11.5604
臣願陛下	-11.5604
淄	-11.5604
忒	-11.5604
通議大夫	-11.5604
渺	-11.5605
覔	-11.5605
相慶	-11.5606
不諱	-11.5606
鄜延	-11.5607
前鋒侍衛	-11.5607
戩	-11.5607
拉庫	-11.5607
學者須	-11.5608
順治元年	-11.5608
㑹同	-11.5608
卯	-11.5608
叨	-11.5608
両	-11.5608
跌	-11.5609
紱	-11.5609
縁事降為	-11.5609
泚	-11.5609
大中祥符	-11.5609
無故	-11.561
宣城	-11.561
戯	-11.561
南朝	-11.5611
常徳	-11.5611
太學博士	-11.5612
冑	-11.5612
舁	-11.5613
將作監丞	-11.5613
旂	-11.5613
胙	-11.5613
錠	-11.5614
科爾	-11.5614
餐	-11.5614
桀紂	-11.5614
叵測	-11.5614
切磋	-11.5615
祫	-11.5615
廖道南曰予觀	-11.5616
啇	-11.5616
倐	-11.5617
孟軻	-11.5617
諉	-11.5617
舟楫	-11.5617
駮	-11.5617
媒	-11.5617
漂	-11.5617
刷	-11.5618
之思	-11.5618
籲	-11.5618
緹騎	-11.5619
縂	-11.5619
髙郵	-11.5619
𦂳要	-11.562
理藩院議	-11.562
等兵於	-11.562
耆舊	-11.5622
縶	-11.5622
謂何	-11.5622
儷	-11.5622
咨訪	-11.5624
額爾赫	-11.5624
尼瑪哈	-11.5624
圜丘	-11.5624
稻	-11.5624
舉子業	-11.5624
茫然	-11.5625
操履	-11.5627
瞑目	-11.5627
惶恐	-11.5627
延祐	-11.5627
其親兄之子	-11.5629
潛邸	-11.563
某云	-11.563
無狀	-11.563
騷動	-11.563
乃拜	-11.563
幼孜	-11.5632
現承襲又	-11.5633
服膺	-11.5635
廵視	-11.5636
外事	-11.5637
諭曰朕	-11.5638
强弱	-11.5639
征朝鮮	-11.5639
卒論曰	-11.5641
言事者	-11.5642
南面	-11.5644
編管	-11.5645
洗馬	-11.5646
鑲藍旗人来歸年分無考	-11.5646
大防	-11.5647
當日	-11.5649
藩鎮	-11.5649
昔人	-11.565
集議	-11.565
○○	-11.565
市井	-11.5653
斥逐	-11.5654
國初来歸其子	-11.5655
無忘	-11.5656
南城	-11.5658
瑚魯	-11.5659
和林	-11.566
三鎮	-11.566
羣下	-11.5661
太平州	-11.5661
南門	-11.5662
頭等侍衛	-11.5664
真是	-11.5665
東昌	-11.5666
敬宗	-11.5666
害之	-11.5667
併力	-11.5668
其末	-11.5669
我何	-11.5671
養母	-11.5671
是用	-11.5672
文懿	-11.5672
惕然	-11.5672
辭不就	-11.5672
郡夫人	-11.5677
二十六日	-11.5679
五常	-11.5679
吉林烏喇	-11.5682
人不知	-11.5682
之朝	-11.5686
造次	-11.5686
伯夷	-11.5687
都監	-11.5688
身後	-11.5689
進擊	-11.569
虚心	-11.5693
革職	-11.5693
出鎮	-11.5695
七千	-11.5699
三人者	-11.5699
明皇	-11.5702
素有	-11.5703
原任二等	-11.5707
其祖	-11.5707
方外	-11.5708
縁事革退其	-11.5709
賜賚	-11.5709
勞績	-11.5712
崇安人	-11.5713
辨論	-11.5714
入闗	-11.5714
人所難	-11.5715
三十三年	-11.5716
林下	-11.5716
之苦	-11.5716
居鄉	-11.5717
得名	-11.5719
治家	-11.5721
來歸年分無考其	-11.5722
上殿	-11.5722
簿書	-11.5722
亦能	-11.5728
諸老	-11.5732
鄉民	-11.5732
説書	-11.5737
以為榮	-11.5737
少從	-11.5739
成化初	-11.5743
修道	-11.5745
豐城	-11.5745
范氏	-11.5747
所惡	-11.5748
除知	-11.5748
正黃旗人	-11.5752
樂易	-11.5752
特克	-11.5753
塞楞	-11.5755
扎什	-11.5755
為誰	-11.5755
萬衆	-11.5756
發用	-11.5757
親信	-11.5757
巴泰	-11.5757
多聞	-11.5758
集註	-11.5759
海冦	-11.5763
相為	-11.5763
守法	-11.5764
請罪	-11.5764
唐人	-11.5765
和通	-11.5766
皆稱	-11.5771
順徳	-11.5771
功徳	-11.5772
切於	-11.5772
知我	-11.5774
試禮部	-11.5774
扈駕	-11.5776
言於上	-11.5778
奉表	-11.5779
上即位	-11.5781
從大軍	-11.5782
不返	-11.5782
于前	-11.5784
暇日	-11.5784
那木都魯地方	-11.5785
親友	-11.5789
薦授	-11.5792
後數日	-11.5793
禁之	-11.5793
受用	-11.5798
遣大臣	-11.5798
熹宗	-11.5798
河南府	-11.5799
降之	-11.5801
諭徳	-11.5801
稱疾	-11.5804
吏部郎中	-11.5804
養士	-11.5807
此物	-11.5808
曰此人	-11.5808
為賊所	-11.5809
恩意	-11.581
合下	-11.581
思叔	-11.5811
鮮不	-11.5811
惠州	-11.5814
者是也	-11.5817
乃詔	-11.5817
便能	-11.5818
拈	-11.582
寛大	-11.5821
䕶衞	-11.5821
所著有易	-11.5822
之體也	-11.5822
不但	-11.5822
如神	-11.5824
鴈	-11.5824
建祠	-11.5825
凡十	-11.5825
承襲又	-11.5826
分屯	-11.5826
哥小字	-11.5827
䨇	-11.5828
現係副	-11.5828
正氣	-11.5829
渥巴錫	-11.583
佛氏之	-11.5831
韐	-11.5831
任三等侍衛	-11.5831
新建	-11.5832
作書	-11.5832
以為常	-11.5833
碣	-11.5834
嫂	-11.5835
六萬	-11.5835
近代	-11.5835
以祀	-11.5835
㡌	-11.5835
鑲藍旗包衣人世居	-11.5835
潼闗	-11.5835
蜚悠城地方	-11.5836
近年	-11.5836
承奉郎	-11.5836
憲成	-11.5836
褒諭	-11.5837
孝悌	-11.5837
形而上者	-11.5837
不可得也	-11.5837
槃	-11.5837
嶼	-11.5837
獎	-11.5838
愠	-11.5838
有善有惡	-11.5838
博囉	-11.5838
謨爾渾	-11.5838
楠	-11.5838
還鄉	-11.5838
見稱	-11.5839
直龍圖閣	-11.584
洮	-11.584
第二登城克之	-11.584
明敏	-11.5841
𢷬	-11.5841
㳂	-11.5842
撿	-11.5842
寀	-11.5842
丸	-11.5843
椽	-11.5843
禁兵	-11.5843
叠	-11.5843
欲盡	-11.5843
烏珠穆沁	-11.5843
義理之	-11.5843
顙	-11.5843
原任郎	-11.5844
免於	-11.5844
前鋒校	-11.5845
迥	-11.5845
拉察布	-11.5845
糗	-11.5846
軟	-11.5846
秋毫	-11.5846
不繼	-11.5846
棋	-11.5846
塲屋	-11.5847
謄	-11.5847
邾	-11.5847
笥	-11.5847
玉素卜	-11.5848
等侍衞	-11.5849
伋	-11.5849
鉛	-11.5849
先後承襲	-11.5849
猶存	-11.585
按察司	-11.585
莖	-11.585
州别駕	-11.585
貴乎	-11.5851
瘡	-11.5851
荆棘	-11.5851
毆	-11.5851
涇野	-11.5851
通問	-11.5852
泳	-11.5852
憊	-11.5852
塢	-11.5853
尚何	-11.5853
州團練使	-11.5853
扎庫木地方	-11.5854
温體仁	-11.5854
左僉都御史	-11.5855
按察僉事	-11.5855
遣使者	-11.5856
筮仕	-11.5857
𥙷	-11.5858
矯㫖	-11.5858
什圖	-11.5859
舊郡志	-11.5859
新郡志	-11.5859
可見矣	-11.586
則彼	-11.586
追論	-11.5861
禆益	-11.5862
曽鞏	-11.5864
騎都	-11.5865
善類	-11.5865
至於此	-11.5865
新進	-11.5867
色赫	-11.5868
之可也	-11.5868
吕公著	-11.5868
一燝	-11.5869
本色	-11.587
被創	-11.5871
滑州	-11.5871
雅爾泰	-11.5873
紹興府	-11.5873
索住	-11.5874
等各	-11.5876
之裔	-11.5876
百五十	-11.5876
太原府	-11.5878
光曰	-11.5879
不可勝數	-11.5879
高皇帝	-11.588
雲龍	-11.5881
粲然	-11.5883
商英	-11.5884
人一舉娶	-11.5884
調䕶	-11.5884
納原任	-11.5886
斬獲	-11.5887
豈知	-11.5887
品典儀	-11.5888
公羊	-11.5892
四十五	-11.5892
舊典	-11.5892
鑲黃旗	-11.5892
知得	-11.5894
夾攻	-11.5895
信然	-11.5896
喀拉	-11.5897
免死	-11.5901
但知	-11.5901
温陵	-11.5903
忠正	-11.5904
詔㫖	-11.5905
耶律	-11.5906
獲免	-11.5906
平反	-11.5909
兄之子	-11.591
教養	-11.591
諫諍	-11.5911
靜中	-11.5911
先期	-11.5911
歲時	-11.5911
四十餘年	-11.5912
遺民	-11.5915
習氣	-11.5915
其獄	-11.5916
庫車	-11.5916
五巻	-11.5918
結廬	-11.5918
易州	-11.592
順逆	-11.592
原任城守尉	-11.5922
樂也	-11.5923
萬象	-11.5924
威武	-11.5924
憂懼	-11.5926
任䕶	-11.5926
逆順	-11.5927
截然	-11.5928
威名	-11.5928
書堂	-11.5928
有備	-11.5928
濮王	-11.5929
保䕶	-11.5931
好生	-11.5939
兵屯	-11.5939
皇極	-11.5941
士竒曰	-11.5942
愚謂	-11.5944
都勒	-11.5947
天下之理	-11.5948
訃	-11.5948
江水	-11.5948
下吏	-11.5949
心法	-11.595
禮畢	-11.5951
恩信	-11.5951
容易	-11.5955
感恩	-11.5956
輩皆	-11.5957
調發	-11.5957
江漢	-11.5958
清介	-11.5961
驗之	-11.5961
舟人	-11.5966
虚明	-11.5968
致仕卒	-11.5968
頌曰	-11.5971
白都訥	-11.5972
不寐	-11.5973
中國之	-11.5973
明總兵	-11.5973
先卒	-11.5975
儀制	-11.5976
潞公	-11.5977
遇春	-11.5978
天聰時來歸	-11.5981
期而	-11.5981
佟養	-11.5982
二年正月	-11.5983
二十餘人	-11.5983
無一不	-11.5984
元老	-11.5986
哉夫	-11.5987
長子乾隆四十	-11.5988
可喜	-11.5989
穆克登	-11.5989
從征福建	-11.5992
講筵	-11.5992
未解	-11.5993
母子	-11.5993
分守	-11.5995
政令	-11.5996
真儒	-11.5999
師説	-11.5999
親族	-11.5999
部長	-11.5999
奏免	-11.6002
四先生	-11.6002
律令	-11.6004
賢相	-11.6004
穆齊	-11.6005
而不知其	-11.6006
墓道	-11.6007
原任頭等	-11.6008
進士歴	-11.6008
上用功	-11.6009
石室	-11.6014
頼以	-11.6014
大㫖	-11.6018
徳化	-11.6019
時弊	-11.6022
師古	-11.6022
現任叅領	-11.6023
六十五	-11.6025
昌邑	-11.6025
九載	-11.6027
去留	-11.6028
原任都統	-11.603
草廬	-11.6031
皇明	-11.6032
安集	-11.6033
一欽定四庫全書	-11.6034
在蜀	-11.6034
因論	-11.6036
牧守	-11.6036
題曰	-11.6036
杏	-11.6037
從孫	-11.6037
晚嵗	-11.6038
河決	-11.6039
宗元	-11.604
幽州	-11.604
罵曰	-11.6041
無違	-11.6043
上征明	-11.6043
知柔	-11.6045
秦氏	-11.6046
所感	-11.6046
祠之	-11.6046
虛無	-11.6048
深山	-11.6048
朱門	-11.6052
以萬計	-11.6053
知秦州	-11.6053
石頭	-11.6054
嘗作	-11.6055
之水	-11.6055
信乎	-11.6059
雅拉	-11.6059
㳟	-11.6061
臣嘗	-11.6062
即拜	-11.6062
往援	-11.6063
深為	-11.6064
峝	-11.6068
平原	-11.607
名家	-11.607
現任庫掌	-11.6071
而言則	-11.6071
云論曰	-11.6071
由鑲黄旗改𨽻	-11.6071
硯	-11.6072
魯昭公	-11.6072
拆	-11.6072
三吾	-11.6074
汨	-11.6074
鄂爾坤	-11.6074
每言	-11.6076
賜孔雀翎	-11.6076
豈獨	-11.6076
嘉木湖	-11.6076
澧	-11.6077
阿南達	-11.6077
殁於陣	-11.6078
櫬	-11.6078
遹	-11.6078
世祖章皇帝	-11.6078
劔	-11.6079
拷	-11.6079
抜	-11.6079
線	-11.6079
稱疾不	-11.608
徘徊	-11.6081
轉運副使	-11.6081
琿	-11.6081
格致誠正	-11.6082
信任	-11.6082
全書	-11.6082
拍	-11.6083
顒	-11.6083
喉	-11.6083
郴	-11.6083
書史	-11.6083
珠爾黙特納木扎勒	-11.6083
縫	-11.6083
襲職兩遇	-11.6083
酹	-11.6083
駐劄	-11.6084
國子監祭酒	-11.6084
事事物物	-11.6084
庖	-11.6084
猶恐	-11.6084
鵠	-11.6084
熒惑	-11.6085
阿巴噶	-11.6085
都督僉事	-11.6086
任主事	-11.6086
徽猷閣待制	-11.6086
赫達色	-11.6087
妬	-11.6087
灤	-11.6088
穫	-11.6088
正黄旗包衣管領下人世居瀋陽地方	-11.6089
謖	-11.6089
鄜	-11.6089
駒	-11.6089
容貌	-11.609
閒散	-11.609
咸通	-11.609
竑	-11.6092
嚴重	-11.6092
佃	-11.6094
管勾	-11.6094
入井	-11.6094
維祺	-11.6094
八卦	-11.6098
侑	-11.6098
繼恩	-11.6098
權勢	-11.61
布拉	-11.61
彈劾	-11.6101
巡幸	-11.6101
征山東	-11.6101
暠	-11.6102
非我	-11.6102
内史	-11.6103
知陳州	-11.6105
欽定四庫全書今獻備遺卷	-11.6107
出閣	-11.6108
安仁	-11.6109
射之	-11.6109
互異	-11.611
談笑	-11.611
人之善	-11.6111
乳母	-11.6111
遷給事中	-11.6111
而返	-11.6111
嘉謨	-11.6112
現任護軍校	-11.6112
征西	-11.6112
樂安	-11.6113
文恪	-11.6113
九重	-11.6114
謂左右曰	-11.6114
二十九日	-11.6116
而殺之	-11.6117
西湖	-11.6118
海南	-11.6119
希佛	-11.6121
戍兵	-11.6121
郊廟	-11.6122
備至	-11.6122
文煥	-11.6122
然後可	-11.6122
現任副䕶軍叅領	-11.6122
齊侯	-11.6123
方且	-11.6123
條例	-11.6123
罔上	-11.6123
主乎	-11.6125
魏徵	-11.6126
進見	-11.6126
兵力	-11.6126
天下之士	-11.6127
五色	-11.6128
子史	-11.6128
而不自知	-11.6129
既行	-11.6129
廣信	-11.6129
五十七	-11.6131
交遊	-11.6132
矣又曰	-11.6134
變故	-11.6134
捕之	-11.6134
襲衣	-11.6135
不可行	-11.6135
廣南	-11.6136
頭等䕶衛	-11.6136
以所部	-11.6137
金幣	-11.6137
經畧使	-11.614
索倫	-11.614
使學者	-11.614
授盟長	-11.6142
尋轉	-11.6143
為友	-11.6143
指揮同知	-11.6147
幾於	-11.615
保現任筆帖式	-11.6152
四卷	-11.6155
弗聽	-11.6155
不外	-11.6156
東湖	-11.6156
聲言	-11.6158
洗心	-11.6158
福保	-11.6158
博覽	-11.616
達頼	-11.6161
上達	-11.6163
玉堂	-11.6163
復諭	-11.6163
以聞上	-11.6164
所執	-11.6164
分布	-11.6166
昌黎	-11.6166
越州	-11.6168
流落	-11.6169
曹氏	-11.617
向使	-11.6171
片言	-11.6172
兵柄	-11.6172
鑲白旗包衣人世居	-11.6173
東川	-11.6173
重輕	-11.6173
大笑	-11.6176
兵革	-11.6178
事體	-11.6182
范陽	-11.6182
湯武	-11.6182
千二百	-11.6183
帝崩	-11.6184
迎戰	-11.6185
同部	-11.6185
好名	-11.6185
瑞安	-11.6186
私第	-11.6188
我輩	-11.619
朝堂	-11.619
意念	-11.6191
鳳陽	-11.6193
運判	-11.6195
甘州	-11.6198
塞下	-11.6198
諱某	-11.62
又征	-11.62
舉動	-11.6201
寡君	-11.6201
自修	-11.6202
固不可	-11.6203
以春秋	-11.6203
誣以	-11.6203
追復	-11.6204
謀議	-11.6208
建康府	-11.621
居第	-11.6213
二百里	-11.6213
贊善	-11.6215
小舟	-11.6215
宗周	-11.6216
郡君	-11.6217
帝命	-11.6219
起用	-11.622
尋進	-11.6221
鏡山	-11.6222
獻俘	-11.6223
通好	-11.6227
是年冬	-11.6228
言論	-11.6232
未決	-11.6234
近時	-11.6235
生焉	-11.6235
偽官	-11.6235
吾家	-11.6236
十一日	-11.6236
錫圖	-11.6237
以勸	-11.6238
吾性	-11.6239
臨清	-11.6239
亦足以	-11.624
而不及	-11.624
博通	-11.6242
爵禄	-11.6245
義兵	-11.6249
在物	-11.625
千三百	-11.625
主帥	-11.6252
明倫	-11.6253
夷吾	-11.6253
巴濟	-11.6254
大夏	-11.6254
微而	-11.6256
富公	-11.6256
殿上	-11.6256
盜起	-11.6257
太白	-11.6259
徳安	-11.6261
二百年	-11.6262
汀州	-11.6263
兼佐領卒其子	-11.6266
夷人	-11.6266
班布	-11.6266
極陳	-11.6266
實錄成	-11.6267
各自	-11.6269
肅清	-11.6271
二等台吉	-11.6271
内廷	-11.6273
忠愍	-11.6274
南京禮部尚書	-11.6276
進討	-11.6276
未嘗少	-11.6277
阿納	-11.6278
真性	-11.6278
者何也	-11.6278
進賢	-11.6278
數四	-11.6279
尚書郎	-11.6279
所賜	-11.6283
性剛	-11.6284
欲速	-11.6285
不測之	-11.6286
為盗	-11.629
二員	-11.6291
僮	-11.6291
本州	-11.6294
古帝王	-11.6295
為最	-11.6298
嚴明	-11.6298
良輔	-11.6299
得其情	-11.6299
北海	-11.6302
特爾	-11.6303
矣故曰	-11.6304
多爾衮	-11.6311
炊	-11.6314
原任四品官	-11.6315
琉	-11.6316
䝉正	-11.6317
聯	-11.6317
薩拉爾	-11.6317
貢駝馬	-11.6317
崑	-11.6319
捐軀	-11.632
倜儻	-11.632
彪佳	-11.632
督撫	-11.632
秘閣	-11.6321
驂	-11.6321
知行合一	-11.6321
嫩	-11.6322
泰然	-11.6323
淆	-11.6324
蹴	-11.6324
孑	-11.6325
敵衆	-11.6325
泰原任筆帖式	-11.6325
死守	-11.6325
太子少傅	-11.6325
樞密直學士	-11.6325
碩壘	-11.6325
五星	-11.6326
液	-11.6326
猖狂	-11.6326
伊拉齊	-11.6326
兎	-11.6327
海蘭	-11.6327
妍	-11.6327
跋扈	-11.6328
躭	-11.6328
時偉按	-11.6328
改吏部	-11.6329
刑部右侍郎	-11.6329
建立	-11.633
太常寺少卿	-11.633
栅	-11.633
旰	-11.633
扎哈沁	-11.6331
穿鑿	-11.6331
鏤	-11.6331
呈露	-11.6332
默	-11.6332
鑠	-11.6333
鶚	-11.6333
窺伺	-11.6334
抉	-11.6334
伏羲	-11.6334
台吉等	-11.6334
湖湘	-11.6335
踏	-11.6335
劉宗周	-11.6335
互市	-11.6336
贖罪	-11.6336
逄	-11.6337
濓洛	-11.6337
更名	-11.6338
復業	-11.6338
赫碩色	-11.6338
妻孥	-11.6339
原任前鋒叅領	-11.634
顯著	-11.6341
吏部員外郎	-11.6341
旬月	-11.6341
異者	-11.6342
刪定	-11.6342
警敏	-11.6344
楊龜山	-11.6348
深然之	-11.6348
媵	-11.6349
以父任	-11.635
不休	-11.6352
草創	-11.6352
所述	-11.6353
野人	-11.6354
自誓	-11.6354
士英	-11.6354
學𣲖	-11.6355
請問	-11.6356
由防禦	-11.6357
終其身	-11.6357
屹然	-11.6357
學識	-11.6359
仰天	-11.6359
先生曰此	-11.6361
任頭等侍衛	-11.6362
都總管	-11.6363
戮力	-11.6366
名賢	-11.6367
興學校	-11.6368
傳誦	-11.6368
晉國	-11.6369
縱火	-11.637
設法	-11.6371
文綺	-11.6371
自唐	-11.6373
劉瑾	-11.6373
李延平	-11.6374
貢獻	-11.6375
兵部郎中	-11.6377
典章	-11.6377
分析	-11.6377
帳下	-11.6377
威徳	-11.638
如公言	-11.6382
金紫	-11.6383
奮發	-11.6385
省事	-11.6385
遼陽地方	-11.6386
之言也	-11.6389
懷光	-11.6389
寢食	-11.6391
授檢討	-11.6392
甚難	-11.6394
瀘	-11.6394
堯舜之道	-11.6396
得勝	-11.6397
公聞之	-11.6397
嚴肅	-11.6397
黙坐	-11.6398
在何處	-11.64
招集	-11.6404
運司	-11.6404
舊例	-11.6405
泌曰	-11.6405
維持	-11.6407
成衮	-11.6408
州學正	-11.6409
清江	-11.641
無所用	-11.6412
現任佐	-11.6413
宫禁	-11.6413
陳白沙	-11.6415
聖德	-11.6415
衛士	-11.6417
福綬	-11.6417
薩里	-11.6417
鄂羅	-11.6418
長興	-11.642
公平生	-11.642
東封	-11.642
君臣父子	-11.6421
後果	-11.6422
肅州	-11.6422
三禮	-11.6423
湖水	-11.6423
士夫	-11.6425
不然則	-11.6426
祖訓	-11.6426
詞林	-11.6429
奉天門	-11.643
兩儀	-11.6433
萬變	-11.6434
年十三	-11.6435
兵勢	-11.6439
元史	-11.6441
韓子	-11.6441
星變	-11.6441
邵氏	-11.6443
未嘗一	-11.6445
唐末	-11.6449
口授	-11.6449
六十餘	-11.645
世稱	-11.6451
母䘮	-11.6453
先生之門	-11.6454
欲殺之	-11.6454
任協領	-11.6456
聚衆	-11.6457
親賢	-11.6459
征察哈爾	-11.6463
之孫也	-11.6464
可不謂	-11.6466
土官	-11.6468
可知也	-11.6469
進士調	-11.6471
豈徒	-11.6471
三分	-11.6472
百氏	-11.6474
必致	-11.6476
子夏	-11.6476
征討	-11.6476
之過也	-11.6477
仁廟	-11.6479
侍坐	-11.648
莫有	-11.6481
詔有司	-11.6485
剛正	-11.6486
有許多	-11.6487
器用	-11.6488
亦猶	-11.6492
來攻	-11.6492
思量	-11.6493
三事	-11.6495
今觀	-11.6496
史傳	-11.6496
詔給	-11.6496
少府	-11.6497
天祐	-11.6497
尚能	-11.65
大河	-11.65
竊發	-11.65
髙士	-11.6502
孔顔	-11.6503
剛中	-11.6506
擒獲	-11.6508
下流	-11.6512
騎射	-11.6513
擒斬	-11.6514
宋亡	-11.6516
萬物一體	-11.6517
有限	-11.6517
財利	-11.6517
公車	-11.6518
進士第一	-11.6519
多病	-11.6519
等輕車都尉	-11.6521
校曽孫	-11.6522
期年	-11.6522
定逺	-11.6525
嗣後	-11.6534
精力	-11.654
授為三等男	-11.6542
魏氏	-11.6543
田宅	-11.6545
瑊	-11.6548
地方擊	-11.6548
逐物	-11.6549
蕭何	-11.6549
殊不	-11.655
東郭	-11.655
奉養	-11.655
始末	-11.6551
世世	-11.6551
屬官	-11.6551
本𫝊	-11.6554
二欽定四庫全書	-11.6558
疾惡	-11.6565
蟻	-11.6566
丹津多爾濟	-11.6566
母病	-11.6566
出迎	-11.6567
相遇	-11.6567
指揮僉事	-11.6568
典型	-11.6569
騷達色	-11.6569
現任鳴贊	-11.6569
正藍旗包衣	-11.6569
風憲	-11.6569
追及	-11.657
氊	-11.657
冡	-11.657
將胡國秉	-11.6571
之藴	-11.6572
納噶察	-11.6572
知覺運動	-11.6572
通直郎	-11.6573
筋	-11.6573
遂不復	-11.6574
活潑	-11.6574
讙	-11.6574
亥	-11.6574
所害	-11.6574
元璐	-11.6575
蕡	-11.6575
人姓博爾濟吉特	-11.6575
國子助教	-11.6575
咽	-11.6575
日月星辰	-11.6575
戍卒	-11.6576
苴	-11.6576
芮	-11.6576
大學衍義	-11.6576
圈	-11.6576
洊	-11.6577
未赴	-11.6577
褫	-11.6577
你	-11.6577
讌	-11.6578
芸	-11.6578
恩克	-11.6578
玘	-11.6578
們	-11.6578
䋲	-11.6578
釡	-11.6578
國初来歸其曾孫	-11.6579
馮翊	-11.6579
惻隱	-11.6579
伴	-11.6579
百二十	-11.6579
蘊	-11.6579
素服	-11.6579
翹	-11.658
剡	-11.658
庻吉士	-11.658
千六百	-11.658
文龍	-11.6581
劉三吾	-11.6581
廟實録	-11.6581
州團練副使	-11.6582
棄去	-11.6582
不可以不	-11.6582
亶	-11.6582
洪熈	-11.6582
維璉	-11.6583
刑部郎中	-11.6583
趍	-11.6584
政教	-11.6584
圜	-11.6584
踊	-11.6584
賜祭葬	-11.6584
形色	-11.6585
婺源	-11.6585
哈逹	-11.6585
襄毅	-11.6587
璡	-11.6588
糞	-11.6589
青苖	-11.6589
耆老	-11.6589
暹	-11.6589
觜	-11.6589
申救	-11.6589
突厥	-11.659
中途	-11.659
庠序	-11.659
莽噶里克	-11.659
㕘領	-11.659
讀史	-11.659
戅	-11.6592
星額	-11.6592
光大	-11.6592
欽此	-11.6593
有所得	-11.6596
卒其親兄之子	-11.6596
退朝	-11.6597
白首	-11.6599
博洛	-11.66
韙	-11.6601
舊學	-11.6601
文節	-11.6602
直截	-11.6603
拊循	-11.6603
某事	-11.6605
同行	-11.6606
種子	-11.6606
希烈	-11.6606
崔氏	-11.6607
不可不察	-11.6609
六藝	-11.661
邦昌	-11.6615
擢進士第	-11.6616
何耶	-11.6617
但見	-11.6618
形迹	-11.6618
曰諾	-11.6618
塞克圖	-11.6619
它日	-11.662
非敢	-11.6621
瀚海	-11.6623
征廣東	-11.6623
一姓	-11.6624
體察	-11.6626
面目	-11.6627
阿睦爾撒納叛	-11.6627
立心	-11.6627
持不可	-11.663
王旦	-11.6633
二十一日	-11.6634
皇天	-11.6634
而歸之	-11.6634
僉書	-11.6636
錢糧	-11.6638
臣道南	-11.6639
盛行	-11.6642
連日	-11.6643
遼陽	-11.6643
劉文	-11.6643
察爾	-11.6645
學力	-11.6651
言是也	-11.6652
兵圍	-11.6652
事物之	-11.6653
特贈	-11.6655
東下	-11.6657
次即	-11.6659
原任筆帖式曾孫	-11.6659
襲爵	-11.6659
母弟	-11.666
賛善	-11.666
邊臣	-11.6661
長綬	-11.6661
其言曰	-11.6664
日用之間	-11.6665
粹然	-11.6665
咨嗟	-11.6666
臨安府	-11.6667
到官	-11.6671
厚薄	-11.6671
四十七年	-11.6671
繇是	-11.6671
感通	-11.6673
可望	-11.6676
裁定	-11.6678
富平	-11.6678
詰責	-11.6682
下愚	-11.6684
天德	-11.6685
其餘無事蹟可立傳者附載於後	-11.6686
臨海	-11.6686
塞克	-11.6687
奪職	-11.6687
進讀	-11.669
者此也	-11.6691
請銘	-11.6692
遺愛	-11.6696
故老	-11.6698
輕騎	-11.6698
溺於	-11.67
六品	-11.6701
調度	-11.6701
無隠	-11.6705
督戰	-11.6707
歩軍校	-11.6708
七十一	-11.6708
風教	-11.6709
作樂	-11.6711
居庸	-11.6712
得其人	-11.6713
入室	-11.6714
劉基	-11.6715
改封	-11.6717
前鋒叅領	-11.6718
呼為	-11.6718
二物	-11.6722
辭受	-11.6722
尚文	-11.6724
名譽	-11.6727
郡學	-11.6728
聖母	-11.6729
原任䕶軍校其子	-11.6731
俱原任筆	-11.6732
具言	-11.6732
順流	-11.6735
閩人	-11.6735
節用	-11.6738
三百人	-11.6738
理財	-11.6739
制勝	-11.6739
求治	-11.6739
居易	-11.674
復禮	-11.6742
起滅	-11.6742
茍且	-11.6747
致太平	-11.6747
祀事	-11.6747
名重	-11.675
寳元	-11.6751
原任助教	-11.6754
自為一	-11.6755
留後	-11.6755
力疾	-11.6756
本義	-11.6757
擇人	-11.6757
訪問	-11.676
尤深	-11.676
不怠	-11.6761
尋授	-11.6761
學舍	-11.6763
二等侍衞	-11.6763
萬死	-11.6765
治罪	-11.6775
兵三百	-11.6775
者輙	-11.6776
雅克	-11.6776
戊	-11.6776
勸農	-11.6778
承襲卒其	-11.6779
徽之	-11.678
亦原任驍騎校	-11.6781
條陳	-11.6782
益甚	-11.6783
不貲	-11.6784
巴岱	-11.6784
共事	-11.6785
承命	-11.6786
權要	-11.6786
降㫖	-11.6787
剛簡	-11.6787
應變	-11.6787
北邊	-11.6788
尤篤	-11.6789
生計	-11.679
封固山貝子	-11.6792
七十三	-11.6793
文定公	-11.6793
與諸生	-11.6797
沈氏	-11.6802
贈少保	-11.6802
沾河	-11.6807
自知之	-11.681
達瑪璘	-11.6811
操行	-11.6812
字孟	-11.6817
招徠	-11.6817
失職	-11.6817
兵食	-11.6817
煦	-11.6817
王恕	-11.682
專權	-11.6821
筍	-11.6822
狷	-11.6823
嘗讀	-11.6823
沙克都爾扎布	-11.6824
嘉禾	-11.6824
欽定外藩蒙古回部王公表𫝊卷之	-11.6824
太僕少卿	-11.6824
敬以直内	-11.6825
張家口	-11.6826
騁	-11.6826
回民	-11.6827
附㑹	-11.6827
訶	-11.6827
資善大夫	-11.6828
騶	-11.6828
南向	-11.6828
自代	-11.6829
二帝三王	-11.6829
土謝圖汗部	-11.683
蹄	-11.683
房𤣥齡	-11.683
摶	-11.683
脇	-11.6831
潢	-11.6831
尹焞	-11.6831
㮚	-11.6832
鑨	-11.6833
圯	-11.6833
頲	-11.6834
愜	-11.6834
襲職任佐領卒其子	-11.6834
妓	-11.6834
顛倒	-11.6834
罄	-11.6834
肄	-11.6834
喀喇沁	-11.6835
文林郎	-11.6835
謟	-11.6836
鈐轄	-11.6836
臬	-11.6837
海陵	-11.6839
不墜	-11.684
喫𦂳	-11.684
伎	-11.684
深厚	-11.684
紆	-11.6841
瀟	-11.6841
史館修撰	-11.6841
郛	-11.6841
不得行	-11.6841
彬彬	-11.6842
易有太極	-11.6842
葉向髙	-11.6842
璣	-11.6842
吕惠卿	-11.6842
莫先於	-11.6842
禳	-11.6842
保現任䕶軍校	-11.6842
憲章	-11.6843
債	-11.6843
勇於	-11.6843
安堵	-11.6843
知樞密院事	-11.6845
渾淪	-11.6846
其五世孫	-11.6847
薩里罕	-11.6847
儔	-11.6847
曰此吾	-11.6848
卜筮	-11.6848
撰行狀	-11.6849
維垣	-11.6851
延齡	-11.6851
僵	-11.6851
闔門	-11.6851
數百萬	-11.6852
南歸	-11.6854
同鄉	-11.6855
議者謂	-11.6855
嗚呼公	-11.6856
童貫	-11.6856
思所以	-11.6857
元帥府	-11.6857
納爾泰	-11.6859
将士	-11.686
五十萬	-11.686
挺身	-11.686
是個	-11.6863
獄訟	-11.6865
蘭溪	-11.6866
悚然	-11.6866
左右翼	-11.6866
扶持	-11.6866
加少保	-11.6867
夏六月	-11.6871
楊溥	-11.6871
悔罪	-11.6872
臨陣	-11.6873
兩制	-11.6873
貴顯	-11.6873
於其中	-11.6874
南畿	-11.6874
一件	-11.6875
安陸	-11.6878
騷然	-11.6881
祠祀	-11.6882
遂良	-11.6882
厯官	-11.6883
部侍郎	-11.6885
弗能	-11.6887
潤州	-11.6888
田里	-11.6889
墓表	-11.689
遭時	-11.689
六卿	-11.6892
其餘無事蹟可立傳者附載於後正白旗	-11.6892
文天祥	-11.6892
雅圗	-11.6893
往討	-11.6894
未經	-11.6894
既退	-11.6894
張永	-11.6898
靈州	-11.6898
納哈	-11.6899
兵討	-11.69
今上即位	-11.6903
西征	-11.6904
于廷	-11.6905
辭章	-11.6905
孰與	-11.6909
慨然有	-11.691
日暮	-11.691
眉山	-11.6911
由委署䕶軍校從	-11.6912
其親弟之子	-11.6913
授騎都尉卒其子	-11.6914
極諫	-11.6916
是一個	-11.6917
方面	-11.6917
得之矣	-11.6918
竊見	-11.6919
鄉貢	-11.692
繼隆	-11.6921
舎人	-11.6921
岱原	-11.6923
渾厚	-11.6924
元太祖	-11.6925
龍川	-11.6926
益都	-11.6931
山河	-11.6932
聲勢	-11.6933
一代之	-11.6933
旋師	-11.6934
南野	-11.6934
龍飛	-11.6935
堅壁	-11.6935
寜逺	-11.6936
校四世孫	-11.6941
不至於	-11.6943
贈太子太保	-11.6945
明年正月	-11.6948
力陳	-11.6948
應接	-11.6951
固當	-11.6954
六尺	-11.6956
來京	-11.6958
色楞	-11.6959
雨露	-11.6959
英宗即位	-11.6959
尊素	-11.6965
張居正	-11.6966
敬義	-11.6966
挺之	-11.6966
嘉歎	-11.6972
惟謹	-11.6973
庭下	-11.6974
徳現任	-11.6975
唐宋	-11.6976
大路	-11.6979
謝恩	-11.6979
夷齊	-11.698
雅爾湖地方	-11.698
監生	-11.6981
歴仕	-11.6981
坐視	-11.6982
皇皇	-11.6983
其本心	-11.6984
不拘	-11.6985
佳為滿洲一姓其氏族	-11.6986
再疏	-11.6987
莊重	-11.6987
任二等侍衛	-11.6988
門弟子	-11.6989
堂上	-11.699
勇士	-11.699
原任叅領兼佐領	-11.6996
正紅旗包衣	-11.7001
不巳	-11.7001
朝論	-11.7002
喜甚	-11.7003
相聚	-11.7004
吏士	-11.7007
深切	-11.7008
征達瓦齊	-11.7008
右係天聰時來歸之人	-11.7008
任用	-11.7009
抑亦	-11.7011
奬諭	-11.7012
陸氏	-11.7013
禮遇	-11.7013
進士第調	-11.7014
既沒	-11.7015
於後世	-11.7016
聖㫖	-11.7017
海外	-11.7017
安居	-11.7019
變化氣質	-11.7024
薩海	-11.7024
學政	-11.7025
某年	-11.7025
連年	-11.7026
恩詔加至一等輕車都尉	-11.7026
石刻	-11.7027
任司庫	-11.7027
五十二	-11.7031
伊父	-11.7032
滿岱	-11.7036
鑲黄旗包衣	-11.7037
大軍至	-11.7041
秦王	-11.7041
終養	-11.705
窺見	-11.7054
一等輕車都尉兼一雲騎尉	-11.7063
由䕶軍	-11.7066
奮然	-11.7067
道遇	-11.7068
弋	-11.7069
不伐	-11.7071
雖小	-11.7072
不支	-11.7072
誤矣	-11.7075
慈母	-11.7075
贛	-11.708
卓特巴	-11.7082
遺意	-11.7083
獨行	-11.7083
誦讀	-11.7085
教民	-11.7086
瓚	-11.7086
頺	-11.7087
揜	-11.7087
賜雙眼孔雀翎	-11.7088
不與焉	-11.7088
劣	-11.7088
滁陽	-11.7088
阿巴泰	-11.7089
俱現	-11.7089
憩	-11.709
痊	-11.7091
欽定外藩䝉古回部王公表𫝊卷之	-11.7091
上供	-11.7091
剏	-11.7092
登城克之	-11.7092
額爾徳尼額爾克托克托鼐	-11.7092
知其為	-11.7092
竺	-11.7093
泠	-11.7093
棹	-11.7093
廸功郎	-11.7093
烽火	-11.7093
遡	-11.7093
莆陽文獻	-11.7094
為考試官取	-11.7094
褊	-11.7095
囉	-11.7095
請祠	-11.7095
能屬文	-11.7095
烝	-11.7096
汲黯	-11.7096
剽掠	-11.7097
掌書記	-11.7097
干以私	-11.7097
申明	-11.7097
有味	-11.7098
磧	-11.7098
豪傑之士	-11.7098
重修	-11.7098
刮	-11.7098
牓	-11.7098
釋氏之	-11.7098
壙	-11.7098
攖	-11.7098
魯哀公	-11.7099
娣	-11.7099
疚	-11.71
馳騁	-11.71
與其弟	-11.71
天理人欲	-11.71
番禺	-11.7101
知諫院	-11.7101
館伴	-11.7101
不辱	-11.7101
鵝	-11.7102
起居舎人	-11.7102
丁夘	-11.7102
殛	-11.7103
三千人	-11.7103
工部主事	-11.7103
擄	-11.7103
坂	-11.7103
鄂絡	-11.7103
永興軍	-11.7103
璲	-11.7104
僦	-11.7104
開封府推官	-11.7105
義理之性	-11.7105
悶	-11.7105
梁氏	-11.7105
槊	-11.7106
孝敬	-11.7106
北軍	-11.7106
堕	-11.7107
商輅	-11.7107
北界	-11.7107
璠	-11.7108
賜五品服	-11.7108
左庶子	-11.7108
鏞	-11.7109
加封	-11.7109
愴	-11.711
逆旅	-11.7111
翰林學士承㫖	-11.7111
不出於	-11.7111
寃獄	-11.7111
舅姑	-11.7112
洺	-11.7112
妄意	-11.7113
頤浩	-11.7113
從龍	-11.7113
和親	-11.7114
陽翟	-11.7115
裴度	-11.7117
三等輕車	-11.7118
過北京征山東攻	-11.7118
精深	-11.7118
律厯	-11.7119
睦州	-11.7119
同族其孫	-11.712
移居	-11.712
字宗	-11.712
禹偁	-11.7121
劉錡	-11.7121
太重	-11.7122
筆札	-11.7123
校勘	-11.7123
揚雄	-11.7123
部屬	-11.7124
可大用	-11.7125
往返	-11.7125
嚴氏	-11.7128
輔弼	-11.7129
論劾	-11.7129
茶鹽	-11.7131
逢吉	-11.7132
族姪	-11.7134
兼文淵閣大學士	-11.7135
原任副將	-11.7136
報聞	-11.7137
方人其孫	-11.7137
同體	-11.7138
時削去	-11.714
訥赫	-11.714
鑲紅旗人来歸年分無考	-11.714
備矣	-11.7142
者也今	-11.7142
首論	-11.7142
事竣	-11.7142
國泰	-11.7144
三輔	-11.7145
現任二等侍衞	-11.7146
朝覲	-11.7146
文彦博	-11.7147
封侯	-11.7147
三十一	-11.7149
乗勝	-11.715
備顧問	-11.715
才名	-11.715
無時不	-11.715
錢帛	-11.7151
穆瑚	-11.7151
廬江	-11.7151
昌期	-11.7152
諸汛	-11.7153
廷相	-11.7153
詞賦	-11.7153
率所部	-11.7154
凖噶爾賊	-11.7154
之義也	-11.7155
傳習	-11.7155
條目	-11.7156
鴻儒	-11.7157
元孫福	-11.7157
至是復	-11.7158
都統兼佐領	-11.7163
追𠞰	-11.7167
本性	-11.7167
定柱	-11.7167
秘書監	-11.7168
被圍	-11.717
亞夫	-11.7172
施設	-11.7173
一錢	-11.7174
公曰臣	-11.7175
諸蠻	-11.7176
志學	-11.7176
力救	-11.7177
之盟	-11.718
四年正月	-11.7182
未艾	-11.7183
性性	-11.7184
入山海闗	-11.7184
塞勒	-11.7185
行宫	-11.7186
之中而	-11.7186
不回	-11.7186
曰善哉	-11.7187
康熙二十七年	-11.7188
文襄	-11.719
蘇松	-11.7195
北流	-11.7197
穆哈	-11.7197
陸子	-11.7198
聚散	-11.7199
宗登極	-11.7199
第一義	-11.7199
舊職	-11.72
子貢曰	-11.72
先知	-11.7201
督責	-11.7201
卒弟	-11.7202
君臣之義	-11.7203
邊備	-11.7205
悲夫	-11.7207
皆不就	-11.721
青田	-11.7214
與諸將	-11.7215
厲聲曰	-11.7215
者斬	-11.722
畏服	-11.7223
訟者	-11.7224
建業	-11.7227
三台	-11.7228
口耳	-11.7229
撃賊	-11.7229
文法	-11.723
四十三	-11.7232
俱原任郎中	-11.7235
廣陵	-11.7237
天地之性	-11.7238
牧地	-11.7242
年十七	-11.7243
特㫖	-11.7243
直方	-11.7245
覩聞	-11.7247
格物者	-11.7247
出境	-11.7251
諸物	-11.7252
必敗	-11.7253
相𩔖	-11.7257
不䏻	-11.726
十有九	-11.726
戮之	-11.7261
如是者	-11.7262
神氣	-11.7263
待人	-11.7265
兵討之	-11.7267
嶺外	-11.7269
功授雲騎尉	-11.7269
還奏	-11.7271
洛陽人	-11.7273
真偽	-11.7275
自奮	-11.7275
諭德	-11.7277
不得志	-11.7279
銅山	-11.7279
悦服	-11.728
端方	-11.7283
能致	-11.7283
據險	-11.7285
雨雪	-11.7286
皂保	-11.7288
索倫地方	-11.729
論著	-11.7299
任城守尉	-11.7299
統體	-11.7301
太府	-11.7302
其親叔之子	-11.7303
吏卒	-11.7303
除却	-11.7304
謁見	-11.7309
益信	-11.731
牧馬	-11.7314
則可謂	-11.7315
同安人	-11.7319
任重	-11.732
正白旗包衣人世居	-11.7321
太祖太宗	-11.7323
倡道	-11.7326
流通	-11.7327
出没	-11.7328
優禮	-11.7329
朗阿	-11.7333
有隙	-11.7334
最多	-11.7334
宫殿	-11.7335
勿復	-11.7341
二十八日	-11.7341
外藩	-11.7342
曰此非	-11.7342
𩔖此	-11.7343
改授	-11.7345
筮	-11.7345
䇿凌敦多卜	-11.7349
為三等輕車都尉	-11.7349
之姪	-11.7349
朞	-11.735
三郡	-11.7351
酢	-11.7351
以大義	-11.7353
餼	-11.7353
二里	-11.7355
非但	-11.7356
領孫	-11.7356
安敢	-11.7357
魏博	-11.7357
太僕寺少卿	-11.7357
界外	-11.7358
覓	-11.7358
昺	-11.7358
内務府總管	-11.7359
八品官	-11.7359
軀殻	-11.736
藎	-11.736
兢	-11.736
掞	-11.736
由正黄旗改	-11.736
娯	-11.736
蔡虚齋	-11.736
燃	-11.736
額爾德尼	-11.7361
犢	-11.7361
噶達渾	-11.7361
鳯凰	-11.7362
槁	-11.7362
▁至二等輕車都尉	-11.7362
麒麟	-11.7362
謂之性	-11.7363
理事官	-11.7363
櫟	-11.7364
曺	-11.7364
袂	-11.7364
立信	-11.7364
泮	-11.7364
昌平	-11.7364
晉封固山貝子	-11.7364
乞留	-11.7364
蘖	-11.7365
以孝聞	-11.7365
朝貢	-11.7365
琅	-11.7365
鈐	-11.7366
泝	-11.7366
上大怒	-11.7366
蒼梧	-11.7366
昩	-11.7366
巵	-11.7366
現任五品官	-11.7366
醮	-11.7366
如何是	-11.7367
栽	-11.7367
髫	-11.7368
赤子之心	-11.7368
聫	-11.7368
盆	-11.7368
著為令	-11.7369
樁	-11.7369
正心誠意	-11.7369
烽	-11.7369
猗	-11.737
噶卜倫	-11.7371
傭	-11.7371
屯田員外郎	-11.7371
宓	-11.7372
輗	-11.7372
澈	-11.7372
鏊	-11.7373
移師	-11.7373
澥	-11.7373
髙煦	-11.7374
散騎常侍	-11.7374
莘	-11.7374
民物	-11.7375
嗚呼此友兮	-11.7375
􁀊	-11.7375
𤣥宗	-11.7376
潁昌	-11.7376
藏于家	-11.7376
彭時	-11.7377
合肥	-11.7377
渤	-11.7377
峴	-11.7379
黄道周	-11.7379
拉藏汗	-11.7379
旁午	-11.7379
盛暑	-11.7379
嗟悼	-11.738
嬰兒	-11.738
蕩蕩	-11.738
身體	-11.7381
聲聞	-11.7382
州居住	-11.7382
可疑	-11.7382
玉帶	-11.7383
開陳	-11.7383
虛明	-11.7384
梁冀	-11.7385
奪俸	-11.7385
激烈	-11.7386
不究	-11.7386
門内	-11.7388
參贊	-11.7388
重地	-11.7388
鵬舉	-11.7389
聲動	-11.7389
作春秋	-11.7389
不擇	-11.739
履祥	-11.739
暴露	-11.739
彭澤	-11.7391
有大功	-11.7391
彝	-11.7391
集若干卷	-11.7391
取舍	-11.7392
合浦	-11.7392
引疾歸	-11.7393
與否	-11.7394
紹興二年	-11.7395
招討	-11.7396
聚兵	-11.7396
蹇義	-11.7397
號慟	-11.7397
秋九月	-11.7398
舉孝亷	-11.7399
旱蝗	-11.7401
殺戮	-11.7402
光辰	-11.7403
享年五十	-11.7403
恭領	-11.7404
八陣	-11.7404
河套	-11.7405
現任内管領	-11.7406
等䖏	-11.7407
儒宗	-11.7409
困窮	-11.741
雍容	-11.7411
以經術	-11.7415
六千	-11.7416
學徒	-11.7416
百代	-11.7417
闕失	-11.7419
震驚	-11.742
邦華	-11.7423
豈可以	-11.7424
親舊	-11.7425
弗及	-11.7425
國棟	-11.7425
原任頭等侍衞	-11.7426
一言而	-11.7427
河口	-11.7429
執筆	-11.7431
思退	-11.7432
草詔	-11.7432
專一	-11.7433
丁氏	-11.7434
朱陸	-11.7435
滯於	-11.7436
尤善	-11.7441
襲職卒無嗣	-11.7446
建寜	-11.7446
復其官	-11.7449
潛夫	-11.7454
懐安	-11.7454
鹽法	-11.7456
繫辭	-11.7456
引見	-11.7456
常止	-11.7457
為不善	-11.7458
四百餘	-11.7461
帖然	-11.7461
孤忠	-11.7462
人曽祖	-11.7462
先見	-11.7464
也况	-11.7465
仁愛	-11.7467
忠彦	-11.747
㸃檢	-11.7471
矣嗚呼	-11.7471
勤苦	-11.7471
伊蘭	-11.7472
一峯	-11.7476
丹忠	-11.7476
不遜	-11.7478
拒守	-11.7478
三欽定四庫全書	-11.7479
邦直	-11.7479
辭不許	-11.7481
忌諱	-11.7482
達賚	-11.7482
莫得	-11.7483
響應	-11.7484
月給	-11.7485
從游	-11.7486
是工夫	-11.7487
由驍騎校	-11.7487
宫觀	-11.7488
厯代	-11.7489
心服	-11.7491
莊子	-11.7491
處即是	-11.7494
章阿	-11.7494
罔不	-11.7495
兵五千	-11.7496
公以謂	-11.7497
其次子	-11.7499
再見	-11.75
鄉侯	-11.75
道統	-11.7503
致其知	-11.7504
為上言	-11.7504
變通	-11.7505
請給	-11.7505
元晦	-11.7507
諫止	-11.7507
龍興	-11.7508
一面	-11.751
年襲多羅貝勒	-11.7511
食禄	-11.7511
八十四	-11.7512
而去之	-11.7516
經籍	-11.7516
耕種	-11.7516
不消	-11.7517
過北京征山東梯攻	-11.7518
異論	-11.7518
而不顧	-11.7522
紀元	-11.7524
無處不	-11.7528
鄉兵	-11.7529
並稱	-11.753
建儲	-11.7532
伐宋	-11.7533
王文成	-11.7535
長子康熙五十	-11.7536
聽政	-11.7537
清溪	-11.7539
達蘭	-11.7539
約禮	-11.7541
陽侯	-11.7545
一等子	-11.7547
秦伯	-11.7549
現在	-11.7557
惻隠	-11.7558
議不合	-11.7559
知之矣	-11.7562
力不能	-11.7563
盡棄	-11.7565
𠞰賊	-11.7566
鮮有	-11.7566
長卿	-11.7567
之事也	-11.7568
象數	-11.7571
滅亡	-11.7572
康王	-11.7573
三里	-11.7573
國初來歸其	-11.7578
就學	-11.758
竊恐	-11.7582
外補	-11.7582
庶民	-11.7583
則無以	-11.7583
確然	-11.7583
翁果	-11.7583
勸講	-11.7584
遣屬	-11.7585
宣布	-11.7586
武陵	-11.7586
盧氏	-11.7587
舉進士授	-11.7588
天下之物	-11.7592
詔許	-11.7595
蘄州	-11.7595
幸甚	-11.7596
纔有	-11.7596
白都訥地方	-11.7598
鄭伯	-11.7598
須知	-11.7599
歎曰吾	-11.7606
孤立	-11.7607
萊公	-11.7608
自効	-11.7608
率屬	-11.7612
以直言	-11.7616
周公之	-11.7618
萬理	-11.7619
待考	-11.762
二三子	-11.7621
之主也	-11.7621
和倫	-11.7622
久之乃	-11.7623
針	-11.7627
寧宗	-11.7628
蔡州	-11.7632
涵泳	-11.7632
柬	-11.7632
奉議大夫	-11.7632
四十六年諭曰	-11.7632
撫逺大將軍	-11.7632
將佐	-11.7633
過不及	-11.7635
詩經	-11.7635
楚琥爾	-11.7635
茗	-11.7635
黄裳	-11.7635
協理台吉	-11.7636
七十五	-11.7637
仞	-11.7637
樽	-11.7638
彭蠡	-11.7638
忠臣義士	-11.7638
能詩	-11.7639
崇德	-11.7639
扎嚕特	-11.7639
滙	-11.7639
達賴喇嘛	-11.7639
燎	-11.7639
編佐領使統之	-11.7639
麓川	-11.764
著有勞績	-11.764
挂	-11.7641
再辭	-11.7641
甚好	-11.7641
袒	-11.7642
旗幟	-11.7642
襲職現任佐領又	-11.7642
處厚	-11.7642
兩省	-11.7642
俛	-11.7642
撞	-11.7643
乾清宫	-11.7643
資政殿大學士	-11.7643
橘	-11.7643
羊舌	-11.7644
佟世	-11.7644
髦	-11.7644
哲卜尊丹巴呼圖克圖	-11.7644
曽祖妣	-11.7645
書院山長	-11.7645
駑	-11.7645
徭役	-11.7646
晰	-11.7646
與人言	-11.7647
年分無考其孫	-11.7647
僨	-11.7648
餙	-11.7648
肻	-11.7648
斐	-11.7649
諄	-11.7649
康熈	-11.765
誰與	-11.765
工部郎中	-11.7651
槍	-11.7651
遷太常博士	-11.7652
擾擾	-11.7652
昔日	-11.7652
戎狄	-11.7652
兵部主事	-11.7653
茫茫	-11.7653
城隍	-11.7654
刦	-11.7654
焯	-11.7654
装	-11.7654
嵬	-11.7654
仁祖	-11.7654
凝聚	-11.7655
剖析	-11.7655
現任千總	-11.7656
倩	-11.7656
戸部主事	-11.7657
疆場	-11.7658
可其奏	-11.7658
不敢出	-11.7658
奉聖㫖	-11.7658
條例司	-11.7659
圻	-11.7659
亷恥	-11.766
商旅	-11.766
一統	-11.766
人之生	-11.766
臧否	-11.7661
閉户	-11.7661
闗陜	-11.7663
元勲	-11.7664
其裔	-11.7665
龕	-11.7667
嶴	-11.7667
信陽	-11.7667
侵擾	-11.7668
汝輩	-11.7668
師表	-11.767
撫軍	-11.767
公卿大夫	-11.767
州司户	-11.7671
精粗	-11.7671
年老告退其子	-11.7672
合謀	-11.7673
邵武人	-11.7675
州推官	-11.7676
墮於	-11.7676
智力	-11.7676
郊迎	-11.7677
二萬餘	-11.7677
此類	-11.7678
疏救	-11.7678
希亮	-11.768
累疏	-11.768
賊馬步兵二十萬衆	-11.768
家塾	-11.7681
天之生	-11.7681
羣兒	-11.7681
七十四	-11.7683
逺邇	-11.7684
惡念	-11.7685
面折	-11.7687
葉臣	-11.7688
不聼	-11.7688
孰知	-11.7689
𤓰州	-11.7689
勲業	-11.769
第進士	-11.769
二十三日	-11.769
遠近	-11.7691
子翬	-11.7693
何爲	-11.7694
浮費	-11.7695
應昇	-11.7695
聞訃	-11.7696
火器	-11.7698
佳為滿洲一姓此一	-11.7699
安否	-11.77
歲月	-11.7702
雍正二年	-11.7702
姦臣	-11.7702
以學行	-11.7703
敷陳	-11.7705
甚悉	-11.7705
事蹟	-11.7706
力排	-11.7707
朝謁	-11.7708
爾雅	-11.7709
合併	-11.771
遮道	-11.7711
尚幼	-11.7712
地界	-11.7712
樂府	-11.7715
養兵	-11.7719
輔佐	-11.772
賜勅	-11.7721
妖書	-11.7721
道術	-11.7722
其子弟	-11.7722
繼室	-11.7722
子皮	-11.7723
羣書	-11.7727
躬自	-11.7727
豈宜	-11.7729
昇平	-11.773
寃抑	-11.773
原任䕶軍校四世孫	-11.7733
有不同	-11.7733
職卒其子	-11.7733
十五萬	-11.7736
與公同	-11.7738
切要	-11.774
大名府	-11.7741
不雨	-11.7741
崇阿	-11.7742
景濓	-11.7743
主和議	-11.7745
授雲騎尉卒其子	-11.7746
四十二	-11.7747
幸得	-11.7747
感疾	-11.7758
解體	-11.7758
哈達地方人	-11.7762
乃所以	-11.7762
無倦	-11.7762
任三等侍衞	-11.7763
東流	-11.7769
脩身	-11.7769
府教授	-11.7769
敬謹	-11.777
第二人	-11.7773
漢髙	-11.7774
評事	-11.7774
法制	-11.7775
日星	-11.7775
遣還	-11.7775
原任郎中孫	-11.7778
信哉	-11.7779
一百五十	-11.7779
䕶送	-11.7781
金剛	-11.7782
克什圖	-11.7783
事迹	-11.7784
窮究	-11.7785
草制	-11.7786
事跡	-11.7787
遂絶	-11.7789
建炎二年	-11.779
君子之道	-11.779
集二十巻	-11.7793
原任同知	-11.7795
邉事	-11.7795
十四年卒子	-11.7796
侍立	-11.7797
孝廟	-11.78
三百年	-11.7801
名利	-11.7802
民財	-11.7803
濟拉	-11.7803
訥殷	-11.7805
乾隆二年	-11.7806
原任知府	-11.7811
卒其長子	-11.7811
躬耕	-11.7817
助軍	-11.7818
不能支	-11.782
襄城	-11.7821
面諭	-11.7823
長子康熙四十	-11.7826
泰原任䕶軍校	-11.7827
希賢	-11.7828
其行事	-11.7829
五十六年	-11.783
鄧州	-11.7836
細民	-11.7839
數倍	-11.7842
行伍	-11.7842
原籍	-11.7844
叛逃	-11.7848
賜御	-11.7851
不可失	-11.7853
西夏	-11.7856
物我	-11.7856
頒行	-11.7857
秘書	-11.7858
於諸侯	-11.786
良吏	-11.7862
是歳	-11.7863
一團	-11.7864
謁告	-11.7866
和諾	-11.7869
萬化	-11.7869
空中	-11.7871
六十九	-11.7872
部署	-11.7873
可紀	-11.7873
一區	-11.7874
賜璽書	-11.7874
舍此	-11.7875
千餘里	-11.7876
考選	-11.7879
赴京	-11.7886
衛指揮使	-11.7888
異常	-11.7893
並用	-11.7897
方鎮	-11.7898
不干	-11.7898
胷	-11.7899
謀反	-11.7901
䖍州	-11.7903
徳業	-11.7903
就養	-11.7903
黒龍江地方人其	-11.7904
明習	-11.7904
昊天	-11.7908
年卒子二長	-11.7908
謂良知	-11.791
才智	-11.791
好問	-11.7913
阿蘭	-11.7914
薩哈璘	-11.7914
揷	-11.7914
髓	-11.7914
襲職時削	-11.7915
贈雲騎尉	-11.7916
用度	-11.7916
䂓	-11.7919
以上俱有𫝊	-11.7919
正黃旗人世居	-11.792
牡	-11.7921
陳獻章	-11.7922
土謝圖汗察琿多爾濟	-11.7922
丰	-11.7922
元飇	-11.7923
衡山	-11.7923
誾	-11.7923
潼關	-11.7925
悃	-11.7925
厮	-11.7925
布拉呢敦	-11.7926
太祖高皇帝	-11.7926
驍勇	-11.7926
屢立戰功	-11.7926
徂	-11.7927
獻駝馬	-11.7927
凑	-11.7928
誌其墓	-11.7929
頃零	-11.7929
刈	-11.7929
喀喇烏蘇	-11.7929
二十八人	-11.793
都察院右副都御史	-11.793
讋	-11.793
驤	-11.793
有一毫	-11.7931
聮	-11.7931
剝	-11.7931
然後能	-11.7931
黄勉齋	-11.7931
閨門	-11.7931
粧	-11.7932
顚	-11.7933
珣	-11.7933
嘉議大夫	-11.7933
一條	-11.7933
逍遥	-11.7933
靄	-11.7933
皖	-11.7934
何繼祖等	-11.7934
中流矢	-11.7934
避難	-11.7935
荼	-11.7935
禁錮	-11.7935
以憂去	-11.7935
鯨	-11.7935
兢兢	-11.7936
秣	-11.7936
遺言	-11.7936
岀	-11.7936
煎	-11.7936
紗	-11.7936
日用間	-11.7936
漿	-11.7936
黻	-11.7937
則不然	-11.7937
官員	-11.7937
奥巴	-11.7937
䙝	-11.7939
涣	-11.794
諡恭	-11.794
詛	-11.794
贈太師中書令	-11.794
佩刀	-11.794
珂	-11.794
盥	-11.7941
藺	-11.7941
茂烈	-11.7942
􁇾	-11.7942
薛瑄	-11.7943
説話	-11.7943
琬琰	-11.7943
雱	-11.7943
副元帥	-11.7945
景㤗	-11.7945
晏駕	-11.7945
奉使契丹	-11.7946
形骸	-11.7947
滿色	-11.7947
聚斂	-11.7948
瑪喇	-11.7949
欺罔	-11.795
廢弛	-11.795
培養	-11.7951
翰林修撰	-11.7951
乗輿	-11.7952
淮揚	-11.7954
嘆息	-11.7954
蜀郡	-11.7955
詔從之	-11.7956
埇	-11.7957
隔絶	-11.7959
叩首	-11.796
宰輔	-11.796
羣雄	-11.7961
愽士	-11.7962
鍾離	-11.7963
邉境	-11.7965
嘉奬	-11.7967
設汛	-11.7967
刑賞	-11.7968
先塋	-11.7968
有所見	-11.7969
裁抑	-11.797
蘭谿	-11.7971
擒獻	-11.7971
原任員外郎元孫	-11.7972
天下幸甚	-11.7973
屢敗賊兵	-11.7974
漸漸	-11.7974
七里	-11.7975
昭明	-11.7976
依違	-11.7976
妄想	-11.7977
向背	-11.7978
削職	-11.798
或疑	-11.7982
十六年卒子	-11.7983
窮治	-11.7984
二十五日	-11.7984
委質	-11.7984
真西山	-11.7985
猶豫	-11.7985
光斗	-11.7986
要語	-11.7988
國計	-11.7988
親擢	-11.799
總𫝊	-11.799
教育	-11.799
唐鄧	-11.7992
柏齋	-11.7993
鄞縣	-11.7995
戒慎	-11.7997
偕弟	-11.7997
庶務	-11.7999
被㫖	-11.8004
清修	-11.8005
未可以	-11.8005
由閒	-11.8006
希夷	-11.8007
舟車	-11.8008
欲有所	-11.8011
講堂	-11.8012
趙普	-11.8014
原任歩軍	-11.8014
高宗	-11.8016
所從出	-11.8017
石齋	-11.8017
奉祀	-11.8019
靈覺	-11.802
文武之	-11.8023
良乆	-11.8023
圖報	-11.8024
者為之	-11.8024
聲臭	-11.8024
辭免	-11.8025
羅密	-11.8025
設教	-11.8026
此其所以	-11.8026
無事時	-11.8029
形勝	-11.803
思誠	-11.8031
八千	-11.8031
再起	-11.8032
額勒	-11.8032
次弟	-11.8032
奸臣	-11.8033
盛夏	-11.8034
聘君	-11.8037
三十巻	-11.8037
布拉克	-11.8037
為人臣	-11.8037
本旗	-11.8038
避亂	-11.8039
餘慶	-11.8043
酒酣	-11.8043
朔州	-11.8045
墓側	-11.8045
温察	-11.8047
耀州	-11.8051
元祐初	-11.8053
任驍	-11.8054
勢利	-11.8059
博約	-11.806
賜鈔	-11.8061
屋漏	-11.8061
布占	-11.8062
誓不	-11.8063
阿魯	-11.8063
上㫖	-11.8064
道問學	-11.8066
圖喇	-11.8069
兵二萬	-11.8072
日厯	-11.8072
其姓名	-11.8072
餘干	-11.8073
六年正月	-11.8077
士𩔖	-11.8077
流冦	-11.8078
▁魯號	-11.8079
穆爾泰	-11.8082
宇文	-11.8083
原任佐領曾孫	-11.8084
塞赫	-11.8087
庫布	-11.8088
内殿	-11.8089
封贈	-11.809
人畜	-11.8093
十二卷	-11.8093
亦可謂	-11.8093
四十四	-11.8101
變色	-11.8101
師儒	-11.8106
供養	-11.811
濟哈	-11.811
聖經	-11.8111
博聞	-11.8112
未形	-11.8114
禪家	-11.8114
經畫	-11.8114
陜右	-11.8115
産業	-11.8117
畏天	-11.8119
聲氣	-11.812
億萬	-11.8125
自焚	-11.8127
八品	-11.8129
安貧	-11.813
二等侍衛	-11.8133
財物	-11.8135
刑法	-11.8135
答書	-11.8136
善𩔖	-11.8138
中㫖	-11.8138
鄉校	-11.8139
最久	-11.8139
原係副	-11.8142
文簡公	-11.8146
冀州	-11.8148
子四長	-11.815
戒之曰	-11.8151
尊信	-11.8157
疏劾	-11.8157
開口	-11.8159
任歩軍校	-11.8161
中進士第	-11.8162
康熙五十	-11.8163
征江西	-11.8168
曉得	-11.8169
兵丁	-11.8175
首先登城克之	-11.8175
科目	-11.8178
無際	-11.8179
有益於	-11.818
驍騎校元孫	-11.8182
大洲	-11.8184
惑衆	-11.8187
公上言	-11.8192
世情	-11.8193
泉南	-11.8194
久逺	-11.8195
怳	-11.8196
功烈	-11.8199
節目	-11.82
訥黙庫	-11.8201
怍	-11.8202
假令	-11.8202
元年畫界自	-11.8203
茭	-11.8204
養親	-11.8205
衛拉特	-11.8206
承恩	-11.8206
言者論	-11.8208
係國初来歸之人	-11.821
鑲藍旗包衣人世居瀋陽地方來歸年	-11.821
偏將	-11.8211
阡	-11.8211
塞外	-11.8213
萬國	-11.8213
鍵	-11.8215
鴻訓	-11.8215
諾木齊	-11.8216
黄馬褂	-11.8216
阿哈尼堪	-11.8216
原係牧副	-11.8216
滔	-11.8217
洪承疇	-11.8218
坪	-11.8218
呌	-11.8218
色提卜阿勒氐	-11.8218
秘書郎	-11.8218
噶爾丹策凌	-11.8218
齊旺多爾濟	-11.8218
牋	-11.8219
及各地方	-11.8219
齋醮	-11.8219
逹爾漢	-11.8219
因家焉	-11.822
哺	-11.822
近思録	-11.822
綠	-11.822
布嚕特	-11.822
禋	-11.822
隲	-11.8221
惴惴	-11.8221
袵	-11.8222
愀然	-11.8222
衿	-11.8222
甦	-11.8222
顧忌	-11.8222
磊落	-11.8222
㐫	-11.8223
迦	-11.8223
詔授扎薩克一等台吉	-11.8223
踴躍	-11.8223
烱	-11.8224
埽	-11.8224
僊	-11.8225
忮	-11.8225
天文地理	-11.8225
隄防	-11.8226
滴	-11.8226
璘沁	-11.8226
砥柱	-11.8226
旗包衣	-11.8226
滎陽	-11.8227
彫	-11.8227
善屬文	-11.8227
股栗	-11.8227
河南尹	-11.8227
兆恵	-11.8227
尚書右僕射	-11.8227
何啻	-11.8228
新附	-11.8228
脊	-11.8228
陬	-11.8228
謾	-11.8228
爱	-11.8228
在相位	-11.8229
肄業	-11.8229
邯鄲	-11.8229
豢	-11.8229
中書門下	-11.8229
唇	-11.8229
衆神保	-11.8229
臯陶	-11.8229
五十人	-11.8229
奔競	-11.8229
叶	-11.823
輟視朝一日	-11.823
酤	-11.823
票	-11.823
穎悟	-11.823
莾	-11.823
己夘	-11.823
縻	-11.8231
翰苑	-11.8231
猊	-11.8231
籬	-11.8231
累世	-11.8231
灝	-11.8232
到底	-11.8232
聦	-11.8232
右司諫	-11.8232
場屋	-11.8233
無極而太極	-11.8233
洒掃	-11.8233
矛盾	-11.8233
肎	-11.8234
蒿	-11.8234
青海諸台吉	-11.8234
手加額	-11.8234
誤認	-11.8234
淂	-11.8235
宙	-11.8235
董仲舒	-11.8235
楮幣	-11.8236
逾月	-11.8237
熊廷弼	-11.8237
鏖戰	-11.8237
性理大全	-11.8237
外庫	-11.8239
國鑲白旗人	-11.8241
得力處	-11.8242
吕誨	-11.8245
洞庭	-11.8245
以成其	-11.8246
撫綏	-11.8247
歩兵	-11.8248
輪對	-11.8248
資治通鑑	-11.8249
現任䕶軍校元孫	-11.825
相友善	-11.8251
流風	-11.8251
所以致	-11.8252
祥符人	-11.8252
漢武帝	-11.8253
五經四書	-11.8254
丁壯	-11.8254
疾馳	-11.8254
造物	-11.8256
有得於	-11.8256
給事御史	-11.8256
鄂鼐	-11.8259
精騎	-11.826
色克圖	-11.8263
鄭親王	-11.8263
持敬	-11.8264
偷生	-11.8265
扎庫	-11.8265
臺臣	-11.8266
㕔事	-11.8266
須從	-11.8269
日殫	-11.8269
庫勒	-11.827
但恐	-11.827
額哲	-11.8271
荆門	-11.8275
石柱	-11.8276
籍溪	-11.8276
防城	-11.8277
齋集	-11.8279
江河	-11.8281
容止	-11.8281
非聖人	-11.8282
備位	-11.8284
故聖人	-11.8285
薩哈爾察地方	-11.8285
以上俱係天聰時來歸之人	-11.8285
年四十七	-11.8287
僅存	-11.8288
碑文	-11.8288
竭誠	-11.8289
治體	-11.8289
范文正公	-11.8289
布顔圖	-11.8289
論救	-11.829
侍左右	-11.829
夀春	-11.829
欺君	-11.8291
南界	-11.8292
有言曰	-11.8294
未久	-11.8294
竹林	-11.8294
危急	-11.8296
石門坎黄草壩	-11.8297
三年春	-11.8298
納林	-11.8299
那穆	-11.83
平恕	-11.8301
宣示	-11.8301
病篤	-11.8308
路轉運使	-11.831
五十四	-11.8312
往年	-11.8316
喀木	-11.8321
在政府	-11.8322
達爾濟	-11.8324
涉於	-11.8325
下手處	-11.8328
進屯	-11.8329
允恭	-11.8329
有旨	-11.8329
當塗	-11.8333
定邊	-11.8333
格原任筆帖式	-11.8336
擢第	-11.8338
眼前	-11.8341
内難	-11.8342
兵二萬餘衆	-11.8343
畫一	-11.8344
驍騎校曾孫	-11.8344
母老	-11.8345
好施	-11.8346
什巴	-11.8346
逆謀	-11.8349
晉師	-11.835
諌議	-11.8356
以賄	-11.8365
輔相	-11.8369
謀逆	-11.837
漢室	-11.837
頷之	-11.8372
商周	-11.8375
治亂之	-11.8377
等處屢	-11.8377
抵家	-11.8378
賜牧	-11.8378
齊什	-11.838
應對	-11.8381
在中書	-11.8381
後患	-11.8381
編年	-11.8383
附會	-11.8383
里許	-11.8385
次崖	-11.8387
不如是	-11.8388
諸公皆	-11.839
詞氣	-11.8394
茍不	-11.8395
不可廢	-11.84
敗賊衆	-11.8405
世教	-11.8407
每遇	-11.8408
附近	-11.8408
題名	-11.8409
轉戰	-11.8411
勇力	-11.8412
百八十	-11.8415
刻意	-11.8416
海康	-11.8419
寛仁	-11.8423
邕州	-11.8425
柄用	-11.8427
李靖	-11.8428
上曰此	-11.8436
無能為	-11.8438
買田	-11.844
豈特	-11.844
鑲黃旗人世居	-11.8441
歴任都統	-11.845
武康	-11.8453
年二十四	-11.8453
也臣聞	-11.8456
程文	-11.8457
山澤	-11.846
原任遊擊	-11.846
渝	-11.8462
介然	-11.8462
注意	-11.8465
洞然	-11.8466
叔元	-11.8466
爵賞	-11.8467
古制	-11.8468
十餘日	-11.8469
撫定	-11.8469
諸軍事	-11.8474
成均	-11.8478
而二之	-11.8482
命之曰	-11.8482
位號	-11.8483
雜記	-11.8487
部院	-11.8489
其畧曰	-11.8489
每嵗	-11.8493
阿蘇	-11.8496
定鼎燕京	-11.8496
薦召	-11.8496
僖公	-11.8497
統制官	-11.8498
順治三年	-11.8499
酒食	-11.85
閨	-11.8502
無考其子	-11.8506
司馬公	-11.8507
嘗考	-11.8507
固嚕什喜	-11.8507
而已哉	-11.8508
溺死	-11.8509
斯世	-11.851
雌	-11.851
應感	-11.8511
墉	-11.8512
尙	-11.8512
逹爾瑪	-11.8513
巔	-11.8514
榘	-11.8514
崇政殿説書	-11.8515
繒	-11.8515
以上俱係天聰時来歸之人	-11.8516
自成一家	-11.8516
猿	-11.8517
右係天聰時来歸之人	-11.8518
扎薩克和碩親王	-11.8518
譟	-11.8518
不亦可乎	-11.8519
無忌憚	-11.8519
四年二月	-11.8519
屢著戰功	-11.852
朋素克喇布坦	-11.852
墅	-11.852
旗祖次	-11.8521
繙	-11.8521
喀拉沁地方	-11.8521
駙馬都尉	-11.8521
現任二等䕶衛	-11.8521
和託輝特	-11.8522
賢良方正	-11.8522
髻	-11.8522
挑	-11.8523
恩詔所加之職承襲雲騎尉	-11.8523
霾	-11.8523
滿珠習禮	-11.8523
以病罷子	-11.8523
宕	-11.8523
臨洮	-11.8524
職時削去	-11.8524
勲臣	-11.8524
孕	-11.8525
卹	-11.8525
四十七	-11.8526
孝弟忠信	-11.8526
芽	-11.8526
夢寐	-11.8526
倉廩	-11.8526
糊	-11.8526
雩	-11.8526
濳	-11.8527
爪牙	-11.8527
原任博士	-11.8527
愎	-11.8528
砲臺	-11.8528
三面	-11.8528
▁初來歸其曾孫	-11.8528
牝	-11.8529
蹂	-11.8529
糟	-11.8529
都督同知	-11.8529
欝	-11.8529
尼喀達	-11.853
瞑	-11.853
𤨏	-11.853
科都給事中	-11.853
優㳺	-11.8531
耿耿	-11.8531
猺	-11.8531
聖政	-11.8531
陴	-11.8531
句句	-11.8531
餽遺	-11.8532
溷	-11.8532
雞鳴	-11.8532
褘	-11.8533
乞終養	-11.8534
晷	-11.8534
伶	-11.8534
襲職卒無嗣其	-11.8534
耿介	-11.8535
妖人	-11.8535
必有事焉	-11.8535
鴟	-11.8536
原任千總	-11.8537
纂述	-11.8537
墳墓	-11.8537
貫穿	-11.8537
學士大夫	-11.8538
居無何	-11.8538
遲速	-11.8538
熖	-11.8539
吕夷簡	-11.8539
以謝天下	-11.8539
車騎將軍	-11.854
同知樞宻院事	-11.854
現任六品	-11.854
耘	-11.854
烺	-11.8541
瑪色	-11.8542
經緯	-11.8544
器識	-11.8544
研幾	-11.8544
敗遁	-11.8545
僚友	-11.8545
辭疾	-11.8547
開言路	-11.8547
薩弼	-11.8547
疾甚	-11.8547
閒住	-11.8548
周流	-11.8548
其術	-11.855
業已	-11.8552
汝父	-11.8553
侍側	-11.8553
熈河	-11.8553
二十巻	-11.8554
俸禄	-11.8555
杜氏	-11.8556
不倚	-11.8557
犯邊	-11.8558
鎭江	-11.8558
恩詔優	-11.8559
展轉	-11.8559
通額	-11.8559
輟朝	-11.8561
都部署	-11.8561
噶勒	-11.8562
赫然	-11.8563
神化	-11.8566
蘭州	-11.8566
羽林	-11.8566
正獻公	-11.8566
律吕	-11.8567
程子所謂	-11.8568
豪右	-11.8568
徳輝	-11.857
四十六年詔世襲罔替	-11.8571
希哲	-11.8571
嚴整	-11.8572
嗟夫	-11.8573
竦然	-11.8573
秋風	-11.8574
舅氏	-11.8574
隨征	-11.8575
祝史	-11.8577
險要	-11.8578
横山	-11.8578
何如人	-11.8582
喜曰吾	-11.8583
寜夏	-11.8583
百物	-11.8583
哈拉	-11.8584
宋璟	-11.8587
君子之學	-11.8587
詹同	-11.8588
天順初	-11.859
給驛	-11.8592
曰古者	-11.8593
㕘將	-11.8593
原任委署䕶軍叅領	-11.8594
由委	-11.8594
貞吉	-11.8594
泰現任筆帖式	-11.8594
隆鄂	-11.8595
統軍	-11.8599
原任知州	-11.86
㨗聞	-11.8602
事繼母	-11.8602
喬逺	-11.8603
㣲仲	-11.8605
震恐	-11.8606
堅執	-11.8606
程子云	-11.8606
神器	-11.8607
所嚮	-11.8607
良佐	-11.8608
究極	-11.8608
諡曰文	-11.8609
曷嘗	-11.861
安頓	-11.861
直諒	-11.8611
心即理	-11.8612
風雷	-11.8615
忠憤	-11.8616
定鼎燕京時入山海	-11.8619
也孔子曰	-11.8621
珠玉	-11.8622
享太廟	-11.8623
臧孫	-11.8623
得不死	-11.8626
同姓	-11.8627
公為相	-11.8628
君諱	-11.8629
羣盗	-11.863
朕甚	-11.8632
城市	-11.8635
四十一	-11.8636
原任步軍校孫	-11.8636
奉迎	-11.8638
孝感	-11.8638
預焉	-11.8639
失律	-11.8639
𫝊諭	-11.864
大将軍	-11.8642
今之學者	-11.8643
頭村	-11.8644
貴溪	-11.8645
大軍𠞰	-11.8645
縣知縣	-11.8645
絶倫	-11.8649
智謀	-11.8652
師旦	-11.8653
實録成	-11.8653
敬慎	-11.8655
厲聲	-11.8656
卜居	-11.8656
尊崇	-11.8657
授騎都尉三遇	-11.8664
受降	-11.8669
迎擊	-11.8672
不易得	-11.8673
二等輕	-11.8674
五百餘	-11.8675
無錫人	-11.8679
公曰善	-11.868
直講	-11.8681
諫議	-11.8681
納諫	-11.8684
散處	-11.8692
其叔父	-11.8696
王導	-11.8698
都元帥	-11.87
配天	-11.8705
少監	-11.8706
右庶子	-11.8708
怨望	-11.8709
賜爵	-11.8712
天寶	-11.8712
引退	-11.8714
輝發	-11.8715
千聖	-11.8716
阿普	-11.8718
溫公	-11.8723
敬仲	-11.8723
不敢近	-11.8731
廟祀	-11.8732
㡬何	-11.8733
年二十六	-11.8735
經㫖	-11.8736
牛馬	-11.8736
吾黨	-11.8738
達哩	-11.8741
虛實	-11.8742
機㑹	-11.8745
淪於	-11.875
彰徳	-11.875
咸稱	-11.8752
甚謹	-11.8753
公天資	-11.8753
孺人	-11.8758
謹厚	-11.8759
攻圍	-11.876
齋戒	-11.8761
山之原	-11.8763
姪孫	-11.877
嵗饑	-11.8771
丁憂	-11.8771
羊酒	-11.8773
西山先生	-11.8773
三等侍衞	-11.8775
質直	-11.8777
托羅	-11.8778
衆寡	-11.8779
不能堪	-11.878
一級	-11.878
托爾	-11.8781
吾鄉	-11.8783
糧餉	-11.8787
為監察御史	-11.8789
備邊	-11.879
景德	-11.879
用賔	-11.8803
攻破	-11.8806
賊李定國	-11.8806
娛	-11.8806
千七百	-11.8813
其所長	-11.8815
厦	-11.8816
隨處體認天理	-11.8819
摶霄	-11.8821
豫親王	-11.8821
齊巴克扎布	-11.8821
初次襲	-11.8822
鄭親王濟爾哈朗	-11.8823
瞞	-11.8824
䇿旺扎布	-11.8825
獄吏	-11.8827
眺	-11.8827
嚨	-11.8827
以上俱係来歸年分無考之人	-11.8827
巴達克山	-11.8828
勤王之師	-11.8828
馮從吾	-11.8828
專主	-11.883
哲庫訥	-11.883
孟子道性善	-11.8832
悌	-11.8832
珊	-11.8832
包衣管領下人世居撫順地方	-11.8832
鄂斯璊	-11.8833
慥	-11.8833
狃	-11.8833
屢著軍功	-11.8833
洪果爾	-11.8834
賜三眼孔雀翎	-11.8834
䜟	-11.8834
建中靖國	-11.8834
荐	-11.8834
摸	-11.8835
罅	-11.8835
駱	-11.8835
駙馬	-11.8835
卦爾察	-11.8835
將仕郎	-11.8836
剋	-11.8836
▁加之職現襲騎	-11.8836
授所部副將軍	-11.8836
榭	-11.8836
鷺	-11.8837
應事接物	-11.8837
蒋	-11.8837
鴨	-11.8837
濂洛	-11.8838
弓弩	-11.8838
貝子品級	-11.8838
四十七代	-11.8838
伊爾根覺羅氏	-11.8839
暖	-11.8839
瑚什塔	-11.8839
煞	-11.8839
虎豹	-11.8839
浩然之氣	-11.8839
淬	-11.8839
巡狩	-11.8839
搗	-11.884
血肉	-11.884
不學不慮	-11.8841
衂	-11.8841
透徹	-11.8841
沐浴	-11.8841
根柢	-11.8841
高攀龍	-11.8841
顗	-11.8842
吟咏	-11.8842
宋王當撰	-11.8842
各得其所	-11.8842
披靡	-11.8843
如成人	-11.8843
諒祚	-11.8843
摠	-11.8844
任其責	-11.8844
据	-11.8844
吐魯畨	-11.8844
三班院	-11.8844
程頤	-11.8844
軋	-11.8844
宣徽使	-11.8845
鷙	-11.8845
収斂	-11.8845
墀	-11.8846
國子監直講	-11.8846
蔭	-11.8846
蒯	-11.8846
纍	-11.8846
到處	-11.8847
瑭	-11.8847
喝	-11.8847
隗	-11.8847
司馬温公	-11.8847
竹帛	-11.8847
麤	-11.8848
戒懼慎獨	-11.8849
秘書省	-11.8849
博第	-11.8849
止於至善	-11.8849
湟	-11.885
翼翼	-11.885
肱	-11.885
訢	-11.8851
娘	-11.8851
沿邊	-11.8851
王守仁	-11.8851
俘斬	-11.8851
嘯聚	-11.8852
劉大夏	-11.8852
郾	-11.8852
兼太子太傅	-11.8852
梅花	-11.8853
孝義	-11.8853
副總兵	-11.8853
詵	-11.8854
嗜酒	-11.8855
楊文貞	-11.8855
恬退	-11.8856
治喪	-11.8856
鴈門	-11.8856
奔潰	-11.8857
孝㢘	-11.8857
馬步軍	-11.8857
二三大臣	-11.8858
魏大中	-11.8859
孤城	-11.886
受教	-11.8861
錢穀	-11.8862
彌篤	-11.8862
天地鬼神	-11.8862
在是矣	-11.8863
羅織	-11.8863
邢州	-11.8865
張世傑	-11.8868
旁及	-11.8871
虞廷	-11.8873
造作	-11.8873
毀	-11.8873
有力焉	-11.8873
廷機	-11.8874
納欵	-11.8875
堯佐	-11.8876
驍騎校四世孫	-11.8877
累擢	-11.8877
長孺	-11.8877
不必言	-11.8878
嘗試	-11.8879
曰嘻	-11.8879
宿弊	-11.8879
疾篤	-11.888
謚忠	-11.8881
應辰	-11.8883
讀其書	-11.8884
睿宗	-11.8885
王欽若	-11.8888
都轉運使	-11.8891
何面目	-11.8891
衛尉	-11.8893
城堡	-11.8894
孫小字	-11.8895
暮年	-11.8895
無分於	-11.8896
轉輸	-11.8897
屏風	-11.8899
辭不拜	-11.89
萬壽	-11.8901
充斥	-11.8901
稱快	-11.8902
成化間	-11.8904
西洋	-11.8905
不外乎	-11.8906
考訂	-11.8906
量移	-11.8907
年十四	-11.8908
總帥	-11.8909
敬姜	-11.891
不數月	-11.8911
遭遇	-11.8912
兩翼	-11.8912
盡得其	-11.8914
僅得	-11.8916
鄉邦	-11.8921
虚名	-11.8921
同僉	-11.8922
臨難	-11.8922
賜幣	-11.8924
而言謂之	-11.8925
州司法	-11.8925
害道	-11.8926
貫徹	-11.8927
考試	-11.893
甚備	-11.8932
論者謂	-11.8934
黄淮	-11.8935
趙彦	-11.8938
尚寶	-11.8939
可憫	-11.894
雲梯	-11.894
講說	-11.8942
題詩	-11.8943
其餘無事蹟可立傳者附載於後正紅旗	-11.8944
斯須	-11.8947
年十六	-11.8953
三十卷	-11.8953
窮追	-11.8956
綏州	-11.8957
莫敢言	-11.8958
賢愚	-11.896
路頭	-11.8961
龍溪人	-11.8963
四欽定四庫全書	-11.8964
以恩信	-11.8964
羅察	-11.8965
甲士	-11.8967
九世孫	-11.8967
六十七	-11.8969
杜度	-11.8969
一丈	-11.897
克嚕倫河	-11.8971
嚴憚	-11.8972
考索	-11.8973
叔向曰	-11.8974
内管領	-11.8974
叙功授雲騎尉卒其	-11.8974
足疾	-11.8975
恩威	-11.8976
著落	-11.8977
女弟	-11.8978
石壁	-11.8978
黄牛	-11.898
潜心	-11.8983
最盛	-11.8984
考滿	-11.8985
坐累	-11.8985
好讀書	-11.8986
獨留	-11.8988
敘功優授	-11.899
宻院	-11.8992
何傷	-11.8992
久廢	-11.8993
阿附	-11.8995
巴蜀	-11.8998
不離乎	-11.9001
辭不允	-11.9003
動念	-11.9005
具足	-11.9006
七歲	-11.9009
黎明	-11.9011
佞人	-11.9011
擁兵	-11.9011
右衛	-11.9011
秦晉	-11.9013
心目	-11.9016
十有六	-11.9019
看來	-11.9022
帝從之	-11.9023
根特	-11.9023
己意	-11.9024
歸𦵏	-11.9028
滿泰	-11.9028
國子學	-11.903
移宫	-11.9032
十有三	-11.9034
比部	-11.9038
攝政	-11.9039
雲騎尉卒其子	-11.9039
者莫如	-11.9039
躬親	-11.904
揚古	-11.904
所至皆	-11.9041
經紀	-11.9042
曲阜縣	-11.9044
行旅	-11.9049
只是要	-11.9049
迎合	-11.905
以紓	-11.905
嘉泰	-11.9052
天下之心	-11.9058
五千餘	-11.9058
贈禮部尚書	-11.9058
其文曰	-11.9061
財力	-11.9062
即位之初	-11.9067
偽都督	-11.9068
安撫司	-11.9069
朝奉	-11.907
得其正	-11.9071
質夫	-11.9074
淮北	-11.9075
宣仁	-11.9077
常熟	-11.9077
縁事革退其親弟	-11.9078
職掌	-11.9081
進士歴官	-11.9081
祖述	-11.9082
山陰	-11.9085
萬頃	-11.9087
坦然	-11.9088
弟姪	-11.909
嘉祐二年	-11.909
積年	-11.9091
吏部郎	-11.9092
現任副䕶軍	-11.9093
史稱	-11.9094
變更	-11.9094
震孟	-11.9096
保現任驍騎校	-11.9097
士庶	-11.91
任典儀	-11.9101
竒功	-11.9102
何忍	-11.9102
扎薩克郡王	-11.9102
余嘗	-11.9105
忠肅公	-11.9114
委署䕶軍叅領	-11.9115
氏族散處於	-11.912
八年二月	-11.9122
及即位	-11.9125
輩出	-11.9125
獨斷	-11.9128
癸	-11.913
麒	-11.9131
數百言	-11.9136
七篇	-11.9137
正藍旗包衣人世居	-11.9143
蝦	-11.9145
鉗	-11.9147
尹和靖	-11.915
鄂謨克	-11.915
原任三等䕶	-11.915
未冠	-11.915
罕篤	-11.9151
屛	-11.9152
掌詹事府事	-11.9152
蚌	-11.9153
丙戍	-11.9153
惋	-11.9153
蓮花	-11.9153
阿庫里	-11.9153
楮	-11.9154
义	-11.9154
光禄寺丞	-11.9154
盾	-11.9154
純孝	-11.9155
贐	-11.9155
命御前行走	-11.9155
恆	-11.9155
八旗滿洲氏族通譜目錄卷	-11.9156
弧	-11.9156
箝	-11.9156
羅多理	-11.9156
鮒	-11.9157
形而下者	-11.9157
氏家世學派按	-11.9157
世宗憲皇帝	-11.9157
塵埃	-11.9157
落落	-11.9157
窈	-11.9157
掄	-11.9157
藐	-11.9157
憒	-11.9158
涪陵	-11.9158
怵	-11.9158
通謨克	-11.9159
勺	-11.9159
充經筵講官	-11.9159
㩁	-11.9159
無思無為	-11.916
草壩	-11.916
性與天道	-11.916
大理少卿	-11.916
賾	-11.916
現任二等䕶衞	-11.916
名臣言行録	-11.916
乖戾	-11.9161
腴	-11.9161
巍巍	-11.9162
諸葛武侯	-11.9162
和闐	-11.9162
團練	-11.9162
躓	-11.9162
輟視朝	-11.9162
曦	-11.9162
糲	-11.9163
昭文館大學士	-11.9163
俶	-11.9163
顆	-11.9163
謂侍臣曰	-11.9164
兑	-11.9164
從征浙江舟山	-11.9164
緍	-11.9164
博文約禮	-11.9165
升遐	-11.9165
鹹	-11.9165
熏	-11.9165
色布騰巴爾珠爾	-11.9165
鍼	-11.9166
不遺餘力	-11.9166
薇	-11.9166
吻	-11.9166
媪	-11.9166
以是為	-11.9167
矍然	-11.9167
糺	-11.9167
灑落	-11.9168
何鏡山	-11.9168
授户部主事	-11.9168
戱	-11.9168
耳目口鼻	-11.9168
左春坊大學士	-11.9168
惻怛	-11.9169
俚	-11.9169
翰林院庶吉士	-11.9169
為諫官	-11.917
吠	-11.9171
翰林院學士	-11.9171
訝	-11.9171
疇昔	-11.9172
厠	-11.9173
鎮撫司	-11.9173
啄	-11.9173
韓侂胄	-11.9173
誅戮	-11.9173
芻粟	-11.9173
稹	-11.9174
孩	-11.9175
尚書左僕射	-11.9175
緝熈	-11.9176
原任歩	-11.9176
廊廟	-11.9176
兼翰林院學士	-11.9176
人心道心	-11.9176
原任員外郎兼佐領	-11.9177
二十萬衆	-11.9177
開禧	-11.9178
敖漢	-11.9179
洞見	-11.918
[...]
