<unk>	0
<s>	0
</s>	0
/	-3.51106
(	-3.95547
)	-4.05903
)(	-4.57721
之	-4.72272
人	-5.04686
為	-5.13698
以	-5.14073
而	-5.40454
有	-5.41397
在	-5.45295
山	-5.56583
其	-5.68521
於	-5.71544
一	-5.84302
縣	-5.85258
也	-5.85688
者	-5.90593
曰	-5.92162
王	-5.99834
至	-6.02083
大	-6.02649
中	-6.07253
水	-6.10062
自	-6.10603
不	-6.1643
與	-6.17973
/)	-6.20377
子	-6.22805
又	-6.25732
時	-6.26988
三	-6.29358
上	-6.3033
城	-6.31901
南	-6.3565
二	-6.35785
則	-6.36444
▁	-6.39273
河	-6.43307
明	-6.4387
無	-6.45567
石	-6.45799
張	-6.45936
東	-6.46409
西	-6.46779
州	-6.46814
名	-6.47622
出	-6.47668
入	-6.49492
行	-6.50305
後	-6.52045
如	-6.53533
李	-6.53641
下	-6.56252
志	-6.56271
公	-6.56346
文	-6.56443
所	-6.57153
道	-6.58512
皆	-6.59503
及	-6.60124
今	-6.61199
元	-6.63772
陳	-6.65378
知	-6.65401
即	-6.68243
事	-6.69109
氏	-6.69197
官	-6.70003
宋	-6.70316
北	-6.70402
地	-6.72235
此	-6.74554
天	-6.75583
復	-6.77766
長	-6.78429
乃	-6.78738
四	-6.78928
五	-6.79114
字	-6.79544
建	-6.80691
周	-6.81227
金	-6.81586
得	-6.82184
故	-6.84585
劉	-6.84644
亦	-6.848
平	-6.85083
令	-6.85166
民	-6.85219
馬	-6.85256
江	-6.8541
成	-6.85855
于	-6.85887
門	-6.88139
生	-6.89923
見	-6.91042
多	-6.91714
國	-6.92415
安	-6.9267
書	-6.94146
作	-6.94306
可	-6.94454
正	-6.94887
等	-6.95494
通	-6.95532
唐	-6.96957
黄	-6.97072
言	-6.97559
兵	-6.97796
里	-6.98837
立	-6.9902
家	-6.99121
日	-6.99903
歸	-7.00309
使	-7.00406
矣	-7.01782
方	-7.02092
郡	-7.02303
髙	-7.02443
相	-7.02679
從	-7.0312
橋	-7.03209
遂	-7.03254
將	-7.04588
臣	-7.06088
前	-7.06322
清	-7.07059
置	-7.07098
同	-7.08237
府	-7.08774
因	-7.09334
軍	-7.09646
年	-7.11181
漢	-7.11407
經	-7.11947
寺	-7.12031
來	-7.12245
分	-7.12641
云	-7.13733
開	-7.14056
楊	-7.14508
口	-7.14737
本	-7.1512
初	-7.15175
鎮	-7.15218
是	-7.1531
古	-7.15469
去	-7.15606
妻	-7.15742
若	-7.16031
治	-7.16051
應	-7.16603
六	-7.16983
屬	-7.17431
學	-7.18079
然	-7.18232
龍	-7.18322
用	-7.18814
任	-7.19367
焉	-7.19368
守	-7.19588
詩	-7.19734
俱	-7.19988
田	-7.20042
小	-7.20068
士	-7.20623
當	-7.20958
居	-7.21713
合	-7.22013
白	-7.22341
海	-7.22642
重	-7.22821
内	-7.23189
雲	-7.23731
已	-7.24311
兩	-7.24653
舊	-7.25067
何	-7.25318
夫	-7.2536
林	-7.2568
諸	-7.26247
溪	-7.27205
修	-7.27499
湖	-7.27809
間	-7.27826
光	-7.27951
世	-7.28243
九	-7.28363
記	-7.28792
武	-7.29216
路	-7.29262
亭	-7.30143
風	-7.30712
都	-7.30808
高	-7.31397
泉	-7.31775
賊	-7.32437
傳	-7.32524
命	-7.32628
觀	-7.32743
死	-7.33286
外	-7.3339
欲	-7.33865
興	-7.33955
處	-7.34124
新	-7.3454
起	-7.34673
知縣	-7.36084
孫	-7.36093
非	-7.36434
定	-7.36439
進	-7.36719
流	-7.37738
八	-7.37771
廣	-7.37866
陽	-7.38302
始	-7.38309
卒	-7.3855
心	-7.40092
趙	-7.40276
七	-7.40373
師	-7.41346
集	-7.41401
吳	-7.41573
徐	-7.41575
善	-7.41664
原	-7.41929
或	-7.42036
先	-7.42372
聞	-7.4243
梁	-7.43275
過	-7.43297
晉	-7.43661
常	-7.44107
各	-7.44545
惟	-7.44613
㑹	-7.44747
義	-7.44988
臺	-7.45149
請	-7.45222
鄉	-7.45255
舉	-7.45822
數	-7.45888
未	-7.46334
封	-7.46605
深	-7.46647
改	-7.47261
法	-7.47579
實	-7.485
由	-7.49094
堂	-7.49402
思	-7.49421
司	-7.4995
十	-7.50116
塘	-7.50349
遷	-7.50396
土	-7.50485
嶺	-7.51064
必	-7.51268
村	-7.51391
玉	-7.51681
神	-7.52419
和	-7.52515
爲	-7.52806
朱	-7.53606
君	-7.53895
我	-7.53958
禮	-7.53975
徳	-7.54063
乎	-7.54319
取	-7.54908
朝	-7.55048
侯	-7.56016
萬	-7.56332
川	-7.56676
發	-7.57087
按	-7.57539
盡	-7.57541
嘗	-7.57964
界	-7.57993
稱	-7.58958
宗	-7.59111
直	-7.59412
既	-7.59463
逺	-7.60146
羅	-7.60207
百	-7.60263
左	-7.60438
宜	-7.61747
進士	-7.62172
能	-7.62231
木	-7.62456
營	-7.6286
錢	-7.62987
齊	-7.63082
廟	-7.63257
且	-7.63321
樂	-7.63524
省	-7.63692
沙	-7.6382
易	-7.63926
宫	-7.64303
望	-7.64595
墓	-7.64679
春	-7.64877
引	-7.6499
設	-7.6505
謂	-7.65066
圖	-7.65152
花	-7.6578
女	-7.66015
帝	-7.67354
雖	-7.68024
秦	-7.68033
章	-7.68191
三年	-7.68274
甚	-7.68968
許	-7.69025
德	-7.6911
議	-7.69146
右	-7.69152
尚	-7.69184
華	-7.694
池	-7.69461
父	-7.69717
月	-7.69999
並	-7.70177
度	-7.70187
洞	-7.70188
丁	-7.70265
授	-7.70481
少	-7.70594
爾	-7.70779
胡	-7.70866
著	-7.70924
詔	-7.70935
陸	-7.71189
共	-7.71301
還	-7.7211
頭	-7.7258
二年	-7.72781
近	-7.73017
登	-7.73161
永	-7.73829
衆	-7.74375
青	-7.74711
仁	-7.751
廢	-7.75595
節	-7.75836
築	-7.76234
臨	-7.76405
魏	-7.7652
邑	-7.77265
史	-7.77811
獨	-7.78165
加	-7.78427
餘	-7.78931
凡	-7.79402
樓	-7.79695
祠	-7.7973
母	-7.79936
老	-7.80316
伯	-7.80369
吾	-7.80486
景	-7.80531
政	-7.82318
益	-7.82333
以為	-7.8262
聖	-7.82819
銀	-7.82864
聲	-7.83304
每	-7.83959
難	-7.84368
更	-7.84438
號	-7.84888
郭	-7.85101
殿	-7.85122
力	-7.85142
除	-7.85272
主	-7.85337
▁(	-7.85634
問	-7.85873
奉	-7.86018
受	-7.86574
濟	-7.86684
夏	-7.86834
靈	-7.87311
賢	-7.87319
理	-7.87492
意	-7.87616
陵	-7.87873
信	-7.88041
止	-7.88085
關	-7.88369
克	-7.88846
載	-7.89469
草	-7.89491
樹	-7.89794
計	-7.89906
鄭	-7.8999
布	-7.90245
呉	-7.90671
身	-7.90827
解	-7.91133
奏	-7.91245
工	-7.91279
忠	-7.9129
食	-7.91407
谷	-7.91563
衛	-7.91895
於此	-7.91923
井	-7.92064
巖	-7.92668
色	-7.92811
達	-7.93287
首	-7.93433
沈	-7.93468
兼	-7.93554
葉	-7.93761
拜	-7.93872
堡	-7.94295
隨	-7.94478
渠	-7.9463
崇	-7.947
不可	-7.94722
注	-7.94802
闗	-7.95004
絶	-7.95385
嵗	-7.9552
嚴	-7.95541
論	-7.95566
元年	-7.95745
院	-7.95754
化	-7.95914
連	-7.96119
源	-7.9668
耳	-7.97095
真	-7.97358
昌	-7.97373
賜	-7.97382
祖	-7.97436
僧	-7.97456
不能	-7.98188
親	-7.98493
東南	-7.98498
坐	-7.98554
異	-7.98582
寧	-7.98666
猶	-7.98877
部	-7.98925
遊	-7.99022
謝	-7.99161
承	-7.99254
利	-7.99659
遇	-7.99931
秋	-7.99953
次	-7.99971
歴	-8.00017
縣界	-8.00105
良	-8.00291
代	-8.01423
仍	-8.01526
功	-8.0165
降	-8.01734
閣	-8.01778
空	-8.02036
留	-8.02059
雨	-8.02069
運	-8.02224
勝	-8.02444
固	-8.02688
洪	-8.02875
轉	-8.03065
移	-8.03331
越	-8.03406
香	-8.03708
孝	-8.04005
澤	-8.04017
求	-8.04519
余	-8.04556
物	-8.0465
十里	-8.04682
嘉	-8.04696
邊	-8.04706
延	-8.05115
竹	-8.05138
往	-8.05309
吏	-8.0548
曹	-8.05814
率	-8.05827
特	-8.05906
保	-8.06053
飛	-8.06081
楚	-8.06409
蘇	-8.06524
尋	-8.06763
氣	-8.06983
順	-8.07481
忽	-8.07491
韓	-8.07603
魚	-8.07679
會	-8.08001
松	-8.08307
繼	-8.08844
四年	-8.08947
夜	-8.09216
浦	-8.09449
全	-8.09482
悉	-8.09496
〕	-8.09529
遣	-8.09605
極	-8.09637
英	-8.09666
顧	-8.09916
溝	-8.10058
福	-8.1031
峯	-8.10947
米	-8.10948
終	-8.11054
列	-8.11353
仲	-8.11589
接	-8.11723
渡	-8.11784
敬	-8.119
一名	-8.12917
汝	-8.13254
科	-8.13259
再	-8.13649
港	-8.13651
考	-8.13778
衣	-8.1387
卿	-8.1388
向	-8.13973
西北	-8.13989
撫	-8.1401
千	-8.1417
康	-8.14665
備	-8.14707
盛	-8.14748
宣	-8.15311
服	-8.15339
西南	-8.15663
斯	-8.15704
程	-8.15807
語	-8.16033
納	-8.16046
制	-8.16096
魯	-8.16177
賦	-8.1635
别	-8.16642
據	-8.16793
客	-8.1704
并	-8.1708
五年	-8.17248
星	-8.17665
表	-8.17772
太	-8.17857
好	-8.1786
兮	-8.17869
市	-8.18208
領	-8.18333
足	-8.18809
寨	-8.19075
補	-8.19182
額	-8.19186
恩	-8.1926
堰	-8.20107
存	-8.20151
致	-8.20262
屯	-8.20409
仙	-8.20517
具	-8.21162
視	-8.21173
秀	-8.21192
横	-8.21382
船	-8.21691
疏	-8.21848
微	-8.21928
慶	-8.21955
火	-8.22037
蜀	-8.22205
破	-8.22285
就	-8.22384
貴	-8.22769
祀	-8.22925
厯	-8.22957
簡	-8.23642
塞	-8.23892
竒	-8.24429
車	-8.24486
太守	-8.24566
美	-8.25054
户	-8.25222
野	-8.25399
歲	-8.25543
紀	-8.25557
東北	-8.25828
教	-8.2585
折	-8.25967
隆	-8.26199
交	-8.26649
鹽	-8.26834
阿	-8.26925
莊	-8.2694
端	-8.27156
牛	-8.27172
杜	-8.27248
)〔	-8.27263
榮	-8.27354
蓋	-8.27394
果	-8.27451
戰	-8.27617
莫	-8.27625
六年	-8.27767
夷	-8.27871
素	-8.27895
天下	-8.27984
對	-8.28272
哉	-8.28351
碑	-8.28419
造	-8.28509
徙	-8.28848
境	-8.28891
遺	-8.28923
積	-8.28996
目	-8.29016
旌	-8.29071
獻	-8.29148
酒	-8.29242
失	-8.29342
衞	-8.29977
性	-8.30053
山東	-8.30149
予	-8.30291
寳	-8.30432
報	-8.30442
閘	-8.30517
烏	-8.30791
豐	-8.30824
弟	-8.30916
涇	-8.30916
孟	-8.31033
升	-8.31309
務	-8.31379
容	-8.3143
被	-8.31501
顯	-8.31721
江南	-8.31792
擢	-8.31844
舟	-8.31858
似	-8.31902
園	-8.32036
殺	-8.3228
河南	-8.32304
室	-8.3272
尤	-8.3355
昭	-8.33634
才	-8.33894
管	-8.33896
泰	-8.34204
贈	-8.34257
隄	-8.34323
業	-8.34352
誠	-8.34372
重修	-8.34394
落	-8.34412
選	-8.34651
驛	-8.34698
撰	-8.349
恭	-8.34907
送	-8.35109
吉	-8.3519
威	-8.35211
倉	-8.35523
蕭	-8.35711
施	-8.35741
署	-8.35938
寒	-8.36009
比	-8.36255
謂之	-8.36522
監	-8.36606
虎	-8.36705
攻	-8.36722
姑	-8.37147
録	-8.37167
收	-8.37262
詳	-8.37295
役	-8.37454
縣西	-8.37793
糧	-8.37869
照	-8.37899
紅	-8.38274
縣東	-8.38332
佛	-8.3844
給	-8.38513
陂	-8.38698
謀	-8.38711
資	-8.38758
約	-8.39048
商	-8.39136
散	-8.39156
亂	-8.39241
附	-8.39306
丹	-8.39562
惠	-8.39605
要	-8.39681
知府	-8.39684
職	-8.39813
京	-8.39866
儀	-8.39887
調	-8.40758
廷	-8.40854
支	-8.40912
手	-8.41084
闕	-8.41218
動	-8.41225
宿	-8.41285
又有	-8.41361
之所	-8.41531
岡	-8.41622
半	-8.41777
告	-8.42106
適	-8.4214
厚	-8.42142
音	-8.42189
盤	-8.42204
潭	-8.42215
兒	-8.4225
貢	-8.42252
題	-8.42255
増	-8.42435
孔	-8.42693
盧	-8.42716
滿	-8.42959
甲	-8.42966
崖	-8.43241
面	-8.43397
伏	-8.43641
先生	-8.43754
昔	-8.43784
圍	-8.43958
便	-8.43971
指	-8.43976
典	-8.44075
縣志	-8.44159
召	-8.44637
雙	-8.44946
御	-8.45063
卷	-8.45086
曲	-8.45163
孤	-8.45281
坊	-8.45428
淮	-8.45467
精	-8.45589
蔡	-8.45639
喜	-8.45761
寛	-8.45788
病	-8.45801
象	-8.45835
總	-8.45872
咸	-8.45963
七年	-8.46194
俗	-8.46457
羣	-8.46484
隂	-8.46527
燕	-8.46695
御史	-8.46813
種	-8.47357
熙	-8.4739
賈	-8.47454
但	-8.475
亡	-8.47602
范	-8.4762
勢	-8.47668
決	-8.47825
籍	-8.47884
維	-8.48102
塔	-8.48362
浮	-8.4838
藏	-8.48927
久	-8.48936
養	-8.49112
均	-8.49208
以上	-8.4928
乾	-8.49349
變	-8.49353
甫	-8.49359
環	-8.49397
位	-8.49666
急	-8.49718
斷	-8.50064
罷	-8.50082
房	-8.50219
游	-8.503
山西	-8.50448
八年	-8.50487
垂	-8.50687
郎	-8.50709
幸	-8.50826
將軍	-8.50952
勒	-8.51073
馮	-8.51199
結	-8.51219
江西	-8.51242
呼	-8.51347
宅	-8.51519
嗣	-8.51618
説	-8.51775
齋	-8.51832
豈	-8.51852
期	-8.51917
錫	-8.52044
陜西	-8.52111
持	-8.5251
芳	-8.52538
董	-8.52565
督	-8.5274
巴	-8.53041
浙江	-8.5308
陞	-8.53154
於是	-8.5322
鳴	-8.5333
費	-8.53382
不得	-8.53567
辭	-8.53629
雪	-8.53648
防	-8.53721
畫	-8.53734
峰	-8.53786
到	-8.53809
徵	-8.5404
征	-8.54081
富	-8.54224
縣南	-8.54312
累	-8.54332
迎	-8.54351
姚	-8.5438
夢	-8.54612
反	-8.54745
二十	-8.54869
歌	-8.54892
末	-8.54966
聚	-8.55065
伍	-8.55288
雄	-8.5551
依	-8.55527
權	-8.55579
赤	-8.55584
州刺史	-8.55592
苦	-8.55805
鼎	-8.55888
刻	-8.55941
堤	-8.55986
最	-8.55997
春秋	-8.56074
蘭	-8.56091
畧	-8.56232
温	-8.56421
疾	-8.56468
五里	-8.5664
疑	-8.56748
獲	-8.56772
叔	-8.56857
故名	-8.56955
雜	-8.57141
所謂	-8.57403
雍	-8.57489
情	-8.57558
茂	-8.5757
博	-8.57652
執	-8.57785
充	-8.57803
曾	-8.57875
振	-8.57881
瑞	-8.57901
貞	-8.57909
雅	-8.58126
汪	-8.58156
皇	-8.58349
免	-8.58351
荒	-8.5842
澗	-8.58512
縣人	-8.58819
畢	-8.58951
葢	-8.58961
漸	-8.59001
走	-8.5912
畝	-8.59168
彭	-8.59353
駐	-8.59511
堅	-8.59531
之地	-8.59609
彼	-8.59766
重建	-8.59906
尚書	-8.59975
壩	-8.60046
桂	-8.60066
帶	-8.6012
愛	-8.60174
申	-8.60409
潮	-8.60412
壁	-8.6064
仕	-8.60674
吕	-8.60728
雷	-8.60733
鳳	-8.61055
憲	-8.61067
敗	-8.61208
息	-8.61261
屢	-8.61355
懐	-8.61484
步	-8.61552
毛	-8.61757
梅	-8.61803
産	-8.61812
盖	-8.61825
體	-8.61837
波	-8.62014
舍	-8.62174
陶	-8.62189
編	-8.62449
擊	-8.62522
願	-8.62771
同知	-8.63024
左右	-8.63025
庫	-8.63036
寶	-8.63211
習	-8.63311
回	-8.63443
案	-8.63448
祥	-8.63594
虞	-8.6361
祭	-8.63701
懷	-8.63742
縣北	-8.63852
禁	-8.63865
尹	-8.64127
薦	-8.6457
幾	-8.64587
戴	-8.64635
恐	-8.6468
館	-8.64783
負	-8.64802
濬	-8.64973
裁	-8.65033
鳯	-8.65357
曽	-8.65793
十年	-8.65795
潘	-8.66159
序	-8.66244
一員	-8.66417
袁	-8.66427
統	-8.66673
洛	-8.66681
塵	-8.67018
将	-8.67031
珠	-8.67136
姓	-8.67184
邦	-8.67211
肆	-8.67225
萬厯	-8.6744
幽	-8.67548
徑	-8.67988
追	-8.6803
愈	-8.6806
烈	-8.68084
第	-8.68092
條	-8.68097
通判	-8.68108
源出	-8.68248
勞	-8.68304
州人	-8.68343
險	-8.68402
紫	-8.68443
推	-8.6872
庭	-8.68932
稍	-8.6894
洲	-8.68988
輕	-8.69074
徴	-8.69111
識	-8.69226
訓	-8.69258
本朝	-8.69331
嘉靖	-8.69588
形	-8.69657
休	-8.69681
隋	-8.69795
奔	-8.69952
察	-8.70018
試	-8.70102
薛	-8.70127
儒	-8.70179
揚	-8.70236
敵	-8.70365
岸	-8.70416
敏	-8.706
勤	-8.70824
乞	-8.70876
三十	-8.70931
斗	-8.70997
妻王氏	-8.71157
旁	-8.71194
津	-8.71262
鍾	-8.71504
謹	-8.71566
婦	-8.71743
遼	-8.71767
鄧	-8.72123
基	-8.72318
窮	-8.72414
夀	-8.72461
器	-8.72466
抵	-8.72494
丘	-8.72522
上有	-8.72826
貫	-8.72843
相傳	-8.72867
委	-8.72874
差	-8.73045
徒	-8.73095
甘	-8.73827
私	-8.73945
宏	-8.73988
襲	-8.74273
書院	-8.74405
彦	-8.74505
俊	-8.74533
放	-8.74635
隠	-8.74809
屋	-8.74878
希	-8.75142
兹	-8.75167
東西	-8.75252
赴	-8.75316
門外	-8.75331
退	-8.75556
尊	-8.75746
寇	-8.75792
耶	-8.7589
九年	-8.75997
遠	-8.76077
頃	-8.76148
顔	-8.7616
副使	-8.76285
𢎞	-8.76536
類	-8.76537
鐵	-8.76573
旗	-8.76625
䝉	-8.7663
絲	-8.76653
靖	-8.76847
不敢	-8.76888
佐	-8.76963
衡	-8.77106
賞	-8.77425
灘	-8.77549
藥	-8.77649
錦	-8.77687
季	-8.77687
碧	-8.7793
犯	-8.78179
翁	-8.7835
肅	-8.78405
之後	-8.7841
强	-8.78429
騎	-8.78507
避	-8.78741
黎	-8.78747
其地	-8.78758
傅	-8.7876
湯	-8.78788
索	-8.78817
翼	-8.78851
念	-8.78884
虚	-8.7893
岳	-8.78958
蠻	-8.79097
他	-8.79208
可以	-8.79245
知州	-8.79417
某	-8.79697
震	-8.79738
隱	-8.79941
友	-8.79972
允	-8.80284
翠	-8.80412
智	-8.80535
黃	-8.80564
罪	-8.80626
崔	-8.80764
邱	-8.80841
印	-8.80888
妻張氏	-8.80986
三十里	-8.81028
薄	-8.81105
仰	-8.81308
而不	-8.81375
筆	-8.81396
投	-8.81547
覺	-8.81746
感	-8.82267
長安	-8.8257
輔	-8.82641
巡撫	-8.82732
細	-8.82854
叛	-8.83146
守節	-8.83156
軒	-8.83168
䕶	-8.83248
禹	-8.83293
湖廣	-8.83327
寜	-8.83333
招	-8.83346
乗	-8.8359
𨽻	-8.83715
淵	-8.83866
查	-8.83914
冠	-8.83971
覆	-8.84052
閒	-8.84062
寕	-8.84357
符	-8.84497
弗	-8.84521
紹	-8.84581
鶴	-8.84591
鳥	-8.84767
懸	-8.85054
密	-8.85127
慈	-8.85365
冬	-8.85366
栁	-8.85399
格	-8.855
待	-8.85749
側	-8.85839
者也	-8.85963
飲	-8.86003
葬	-8.8604
聽	-8.86146
討	-8.8616
謙	-8.8617
獄	-8.86203
族	-8.86209
創	-8.86268
太平	-8.86288
驚	-8.86355
一日	-8.86392
冦	-8.86714
京師	-8.86801
寄	-8.86864
茶	-8.86934
乘	-8.86981
增	-8.87099
潛	-8.87223
逆	-8.87239
誰	-8.87319
掌	-8.87367
輒	-8.87377
循	-8.87409
狀	-8.87413
根	-8.87669
植	-8.87838
南北	-8.88099
縣治	-8.88129
伐	-8.88137
所以	-8.8821
宇	-8.88284
員	-8.88565
蒲	-8.88676
鼓	-8.8885
不知	-8.88959
坡	-8.89033
舖	-8.89207
社	-8.89233
帥	-8.89477
勸	-8.89524
專	-8.89631
四川	-8.89632
欽	-8.89642
底	-8.89659
黄河	-8.89813
歳	-8.89867
完	-8.89878
妻李氏	-8.90056
巨	-8.90125
穆	-8.9017
二十里	-8.90242
河東	-8.90244
故城	-8.90438
漕	-8.90713
朝廷	-8.90786
銅	-8.9082
十二	-8.90836
峽	-8.90941
露	-8.90955
朕	-8.91158
述	-8.91249
係	-8.91343
釋	-8.91432
竟	-8.91496
趨	-8.91559
須	-8.91717
倚	-8.91762
舉人	-8.9177
辨	-8.92065
角	-8.92094
牧	-8.92281
舊志	-8.92418
蔣	-8.92558
離	-8.92636
羊	-8.92863
倫	-8.92925
患	-8.93109
機	-8.93115
缺	-8.93147
介	-8.93167
熊	-8.9317
之間	-8.93295
害	-8.934
質	-8.93443
輸	-8.93583
諭	-8.93613
菴	-8.94121
澄	-8.94287
殊	-8.94304
詣	-8.94308
蕩	-8.94442
洋	-8.94887
賀	-8.94899
有司	-8.94971
詞	-8.9516
枝	-8.95597
粟	-8.95782
革	-8.95918
縣屬	-8.9604
逕	-8.96095
例	-8.96506
盜	-8.96507
十五里	-8.96515
□	-8.96665
怒	-8.96711
水經注	-8.96756
山下	-8.97003
減	-8.97049
中有	-8.97167
棄	-8.97263
侍	-8.97295
邵	-8.97507
頗	-8.9751
候	-8.97533
鑿	-8.97628
刑	-8.97633
抱	-8.97648
射	-8.97671
參	-8.97766
傷	-8.98233
来	-8.98286
零	-8.98356
值	-8.98464
䇿	-8.9879
壽	-8.98835
訪	-8.98843
滅	-8.98894
課	-8.98978
玖	-8.99109
憂	-8.99112
伊	-8.9916
續	-8.99193
危	-8.99209
貳	-8.9937
泥	-8.99565
麟	-8.99633
熟	-8.99727
淺	-8.99729
干	-8.99814
奇	-8.99892
像	-8.99956
陷	-8.99985
救	-9.00244
慮	-9.00275
苗	-9.00413
兄	-9.00567
舒	-9.00643
殷	-9.00679
曰吾	-9.00848
東至	-9.0087
普	-9.00955
講	-9.0143
尉	-9.01491
壇	-9.01606
副	-9.01619
錄	-9.01717
地方	-9.01745
讀	-9.01746
麻	-9.01788
珍	-9.01824
胥	-9.01904
純	-9.01985
鹿	-9.01987
改為	-9.01991
穴	-9.02095
恒	-9.02109
僅	-9.0219
静	-9.0231
壹	-9.02466
三月	-9.02497
履	-9.02513
是也	-9.02515
福建	-9.02587
烟	-9.02898
亮	-9.02976
尾	-9.03136
國朝	-9.03142
丈	-9.03171
戒	-9.03288
雲南	-9.03505
旋	-9.03513
榜	-9.03724
為之	-9.03767
靜	-9.03867
啟	-9.03924
哈	-9.04107
農	-9.04179
四十	-9.04312
廬	-9.04356
衝	-9.04633
駕	-9.04655
如此	-9.04731
峻	-9.0476
戎	-9.04803
貧	-9.04829
助	-9.04835
街	-9.04853
材	-9.04862
導	-9.04871
四十里	-9.04879
歩	-9.04913
該	-9.04917
在縣西	-9.04978
太祖	-9.04985
在縣東	-9.05058
拔	-9.0507
諸生	-9.05143
惡	-9.0518
藩	-9.05262
三里	-9.05307
巡	-9.05524
城南	-9.05549
六月	-9.05697
縣西北	-9.05859
俾	-9.05895
堯	-9.05945
侵	-9.0614
亷	-9.0631
鴻	-9.0636
人進士	-9.06695
妙	-9.06763
灣	-9.06889
寰宇記	-9.0691
逸	-9.0697
桑	-9.07023
銘	-9.07054
早	-9.07214
爭	-9.07381
㕔	-9.07452
逢	-9.07477
妻陳氏	-9.07681
毎	-9.07892
縱	-9.07898
敢	-9.07904
瀆	-9.08182
之水	-9.08264
葛	-9.08363
採	-9.08369
潤	-9.08491
奪	-9.08505
庶	-9.08549
曉	-9.0875
汛	-9.09007
苑	-9.09038
教諭	-9.09351
縣西南	-9.09373
懼	-9.09406
勿	-9.09706
骨	-9.09811
墩	-9.09835
二百	-9.09929
說	-9.10013
供	-9.10027
黨	-9.10091
篇	-9.10105
誤	-9.10152
冊	-9.10207
戸	-9.10216
五十	-9.10256
謁	-9.10268
陰	-9.10648
皮	-9.10913
水出	-9.10933
宻	-9.10977
圓	-9.11048
韋	-9.11146
祝	-9.11461
屈	-9.11595
戍	-9.11871
襄	-9.11995
頂	-9.12137
捕	-9.12226
扶	-9.12342
馳	-9.12343
切	-9.12464
刺	-9.1249
場	-9.12574
夾	-9.12574
讀書	-9.12577
荆	-9.12669
看	-9.12714
丞	-9.12806
辟	-9.12919
勲	-9.12921
直𨽻	-9.12943
刺史	-9.13004
其中	-9.13043
班	-9.13089
㫖	-9.13167
己	-9.13215
壯	-9.13241
量	-9.13255
百姓	-9.13324
八月	-9.13382
耕	-9.13476
派	-9.1348
柳	-9.13539
乆	-9.13549
住	-9.13642
城東	-9.13653
律	-9.13716
麗	-9.13717
勇	-9.1387
式	-9.14019
阻	-9.14065
舊名	-9.14092
操	-9.14176
徃	-9.14357
段	-9.14505
敦	-9.14677
以來	-9.14762
即此	-9.14763
垣	-9.14868
阜	-9.14982
縣東北	-9.15029
柱	-9.1517
卜	-9.15198
二里	-9.15215
州縣	-9.15222
綱	-9.1528
羽	-9.15304
占	-9.15309
浪	-9.15656
超	-9.1567
爵	-9.15695
旱	-9.15762
幹	-9.15792
禄	-9.15937
黒	-9.15993
縣東南	-9.16029
大夫	-9.16214
百里	-9.1623
佳	-9.16289
妾	-9.16434
巳	-9.16494
溢	-9.17
逐	-9.17084
康熈	-9.17098
穀	-9.17307
十一年	-9.17334
鋪	-9.17366
五月	-9.17523
示	-9.17598
墨	-9.17805
併	-9.18052
慎	-9.18063
太原	-9.18103
山川	-9.18219
勅	-9.1831
饒	-9.18351
鑑	-9.18504
童	-9.1858
賓	-9.18606
城西	-9.18741
吴	-9.18771
番	-9.1878
逹	-9.18818
遵	-9.18864
讓	-9.18901
衍	-9.19044
麥	-9.1905
一里	-9.19256
税	-9.19308
𤣥	-9.19332
舜	-9.19364
采	-9.19514
秉	-9.19526
偉	-9.19632
逼	-9.19641
影	-9.19696
厥	-9.19736
什	-9.19872
累遷	-9.20069
紹興	-9.20174
砦	-9.20183
至於	-9.20493
而已	-9.20532
協	-9.20667
昇	-9.20673
誅	-9.20809
却	-9.20828
贊	-9.20845
生員	-9.20869
那	-9.20896
繁	-9.21062
廉	-9.21202
彌	-9.2147
父母	-9.21692
覽	-9.2184
毁	-9.21867
浚	-9.21893
檄	-9.21914
十三年	-9.21948
入海	-9.22073
績	-9.22107
上下	-9.22181
背	-9.22182
翰	-9.22363
舊有	-9.22402
灌	-9.22434
邑人	-9.22509
哨	-9.22614
魁	-9.22617
第一	-9.22627
距	-9.22666
其後	-9.2271
辦	-9.22785
斬	-9.22826
雞	-9.22837
哀	-9.2284
無所	-9.22857
幼	-9.22867
五十里	-9.22893
穿	-9.22893
○	-9.22925
巻	-9.22926
談	-9.22935
豪	-9.23002
援	-9.23126
俞	-9.23266
天子	-9.23275
禪	-9.23318
傑	-9.23342
緑	-9.23435
一人	-9.23439
暴	-9.23514
瞻	-9.2362
踰	-9.23635
騰	-9.23804
水利	-9.23804
隘	-9.23878
墓在	-9.23934
句	-9.23952
七里	-9.24039
傍	-9.24162
訓導	-9.24333
龜	-9.24363
兆	-9.24427
隔	-9.24456
喬	-9.24601
項	-9.24609
笑	-9.24716
六十	-9.24735
輝	-9.24842
跨	-9.25039
宴	-9.25113
泊	-9.25188
蒼	-9.25211
品	-9.25329
陽縣	-9.25489
買	-9.25575
畆	-9.25662
年任	-9.25737
亦有	-9.25751
擇	-9.25773
桃	-9.25781
妻劉氏	-9.25802
御製	-9.25808
渭	-9.25835
至今	-9.25853
盈	-9.25855
通志	-9.25885
傾	-9.25933
十二年	-9.26012
跡	-9.26053
没	-9.26103
脩	-9.26178
六十里	-9.26181
北至	-9.26229
責	-9.26395
繞	-9.26561
標	-9.26598
賔	-9.26696
旦	-9.26769
喪	-9.26822
鐘	-9.26964
亨	-9.27039
假	-9.27186
捌	-9.27324
僉事	-9.27469
聘	-9.275
含	-9.27579
畏	-9.27696
裏	-9.27757
一百	-9.27874
撥	-9.27895
繫	-9.27913
司馬	-9.27945
在縣南	-9.28003
南至	-9.28049
峪	-9.28106
后	-9.28107
規	-9.28149
康熙	-9.28269
九月	-9.28354
座	-9.28398
杖	-9.28443
湘	-9.28451
辰	-9.28537
席	-9.28639
鄒	-9.28652
廣東	-9.28703
校	-9.29004
運河	-9.29054
瓦	-9.29095
輿	-9.29106
刀	-9.29113
千里	-9.29182
包	-9.29346
成都	-9.29616
浩	-9.29641
略	-9.29659
縣有	-9.29724
霜	-9.2991
竇	-9.30138
廣西	-9.30248
等處	-9.30254
㣲	-9.30291
其上	-9.30348
價	-9.30397
淳	-9.30448
有竒	-9.30542
巢	-9.306
府志	-9.30733
舞	-9.30737
因名	-9.30757
名曰	-9.3084
城北	-9.3102
島	-9.31035
瓊	-9.31107
劍	-9.31118
偏	-9.31149
味	-9.3118
姜	-9.31397
裕	-9.31401
七十里	-9.31406
迴	-9.31421
停	-9.31491
儲	-9.31618
元和志	-9.31647
總督	-9.3173
層	-9.31839
字子	-9.31952
辛	-9.32039
成化	-9.32047
况	-9.32129
諫	-9.32199
屏	-9.32293
財	-9.32366
裴	-9.32391
啓	-9.32646
掠	-9.32682
岐	-9.32793
蒙	-9.32904
謨	-9.32917
叄	-9.32977
三百	-9.32998
眼	-9.33148
頌	-9.33198
𢎞治	-9.33246
逰	-9.33252
羌	-9.33318
策	-9.33424
鎭	-9.33477
愚	-9.33566
不足	-9.33604
在縣	-9.3402
台	-9.34186
數十	-9.3425
巷	-9.34287
晴	-9.34357
主簿	-9.34576
坑	-9.34605
嵩	-9.34768
凌	-9.34795
節度使	-9.34914
稽	-9.3493
閩	-9.35119
嘉定	-9.3512
邉	-9.35127
育	-9.35363
西至	-9.35518
豫	-9.35798
忘	-9.35831
闢	-9.35909
鬼	-9.35975
鄰	-9.35994
堪	-9.35997
析	-9.36027
十五	-9.36191
一在	-9.36194
卧	-9.36227
七月	-9.36236
旌表	-9.36248
人舉人	-9.36376
從之	-9.36419
下有	-9.3643
蕃	-9.36474
板	-9.36594
于此	-9.36611
尺	-9.36647
判	-9.36899
牙	-9.36904
寓	-9.36986
束	-9.37049
懋	-9.37207
累官	-9.37216
煙	-9.37314
潰	-9.37369
璧	-9.37463
復置	-9.37488
太子	-9.37492
郎中	-9.37543
縁	-9.37588
祐	-9.37618
隸	-9.37648
練	-9.37848
山在	-9.38036
效	-9.38258
綿	-9.38264
詠	-9.3833
十五年	-9.38368
預	-9.38609
審	-9.38648
一時	-9.39105
激	-9.3911
茅	-9.39147
譚	-9.39395
朔	-9.39401
十六年	-9.39404
大小	-9.39415
割	-9.39533
偽	-9.39622
厲	-9.39674
濶	-9.39746
凝	-9.3981
竊	-9.39823
悟	-9.40025
匹	-9.40125
殘	-9.40129
卓	-9.4013
塲	-9.40156
棲	-9.40667
州治	-9.40696
漢書	-9.4074
南京	-9.40742
永樂	-9.40862
募	-9.40914
弼	-9.41
逃	-9.41053
輪	-9.41211
唯	-9.41232
階	-9.4126
縣學	-9.4127
侍郎	-9.41345
浙	-9.41385
揚州	-9.41427
漫	-9.41478
慕	-9.41515
配	-9.41614
奮	-9.41765
隴	-9.41779
樊	-9.41824
在縣北	-9.41977
捐	-9.41987
都督	-9.42109
迹	-9.42319
晚	-9.42421
蓮	-9.42439
縣令	-9.42502
芝	-9.42525
属	-9.42661
肉	-9.42709
亦名	-9.42762
十三	-9.42842
八十里	-9.42911
霞	-9.42955
太宗	-9.43274
暮	-9.43359
明年	-9.43435
奸	-9.43488
單	-9.43639
不及	-9.43834
君子	-9.43848
吟	-9.43913
賴	-9.44092
其子	-9.44124
渾	-9.44196
皇帝	-9.44318
至此	-9.44333
禦	-9.44606
限	-9.4466
肇	-9.44677
醉	-9.448
决	-9.44816
沒	-9.45111
郊	-9.45126
推官	-9.45169
徽	-9.45242
遣使	-9.45316
燈	-9.45756
四月	-9.45776
擒	-9.45858
擬	-9.45871
又名	-9.45924
九十里	-9.45987
篤	-9.46004
郡守	-9.46126
一卷	-9.46134
亟	-9.46173
風俗	-9.46187
宋史	-9.46361
十四年	-9.46408
㑹稽	-9.46484
鮮	-9.46533
流入	-9.46562
優	-9.46659
邪	-9.46703
囘	-9.46826
㭍	-9.4683
丞相	-9.46893
峙	-9.46934
霍	-9.46984
躬	-9.47071
蛇	-9.47173
滋	-9.4721
未嘗	-9.47279
緩	-9.47394
柏	-9.47555
弊	-9.47557
欽定四庫全書	-9.47559
弱	-9.47563
耀	-9.47637
速	-9.47774
提	-9.47883
修築	-9.47926
店	-9.47958
而後	-9.47999
拉	-9.48013
十月	-9.48067
宰	-9.48158
藉	-9.48209
潔	-9.48252
黙	-9.48304
七十	-9.48376
寵	-9.4863
租	-9.48641
𦵏	-9.48694
驗	-9.48728
夕	-9.48776
鄂	-9.48797
遜	-9.48842
餉	-9.48845
殁	-9.48926
壊	-9.48965
大臣	-9.49113
其事	-9.4919
遭	-9.49225
泣	-9.49331
困	-9.49387
拒	-9.49425
訟	-9.49445
抑	-9.4946
悲	-9.49504
之南	-9.49621
鏡	-9.49658
借	-9.49717
僕	-9.49723
削	-9.49749
托	-9.49795
由是	-9.49832
自是	-9.50042
術	-9.50058
剛	-9.50108
遁	-9.50127
錢塘	-9.50132
歡	-9.50135
曰此	-9.50145
壘	-9.5015
冀	-9.50182
綏	-9.50204
都御史	-9.50243
謫	-9.504
焚	-9.50403
争	-9.50457
學士	-9.50465
致仕	-9.50479
閲	-9.50539
柴	-9.50548
際	-9.50557
慧	-9.50629
偶	-9.50655
洪武	-9.50678
榖	-9.50695
五代	-9.50697
先是	-9.50745
攝	-9.50946
河北	-9.50959
絳	-9.50985
庵	-9.51266
儉	-9.513
之法	-9.51325
洗	-9.51328
虛	-9.51437
棟	-9.51455
朗	-9.51463
韻	-9.51635
往來	-9.51661
哲	-9.51713
災	-9.51716
𫝊	-9.51716
壑	-9.51789
教授	-9.51928
釐	-9.51948
祚	-9.52034
所居	-9.52039
官至	-9.52112
武帝	-9.52166
詩云	-9.52179
陣	-9.52224
太湖	-9.52258
皆有	-9.52319
披	-9.52364
其所	-9.52426
然後	-9.52557
罕	-9.5266
不從	-9.52673
脱	-9.5271
藻	-9.5275
當時	-9.52804
頓	-9.52813
枕	-9.529
叢	-9.52961
註	-9.52961
恵	-9.5297
磨	-9.53038
弓	-9.53056
又東	-9.53116
前後	-9.53131
眀	-9.53213
石門	-9.53376
之東	-9.53441
韶	-9.53655
涉	-9.53708
守備	-9.53751
奴	-9.53908
以下	-9.54072
州界	-9.54154
斜	-9.54191
而死	-9.54257
未幾	-9.5426
山中	-9.54299
五百	-9.5432
遥	-9.5441
誦	-9.54415
卑	-9.54464
稅	-9.54656
漲	-9.54664
饑	-9.54697
扵	-9.54706
黑	-9.54819
而下	-9.54855
㸃	-9.54871
劾	-9.54903
人物	-9.54995
遲	-9.55091
嶽	-9.55117
閉	-9.55129
毅	-9.55146
萬歴	-9.55167
奚	-9.55245
臯	-9.55566
十八	-9.55609
血	-9.55656
截	-9.55697
炎	-9.55718
有功	-9.55852
稿	-9.5598
敷	-9.56009
其下	-9.56019
洩	-9.56044
縣地	-9.56069
兄弟	-9.56255
庸	-9.56345
指揮	-9.56379
八里	-9.56489
午	-9.56499
局	-9.56512
料	-9.56514
疆	-9.56573
河水	-9.5659
杭	-9.56618
製	-9.56741
翔	-9.56742
貴州	-9.56847
虜	-9.56852
融	-9.56873
舊作	-9.56884
秩	-9.56894
擁	-9.56967
偕	-9.5703
八十	-9.57039
晏	-9.57187
淤	-9.57208
敎	-9.57358
二月	-9.57387
後魏	-9.57543
之處	-9.57617
繇	-9.5769
大同	-9.57761
輩	-9.57762
祁	-9.57943
級	-9.58011
鄉人	-9.5802
尼	-9.58044
不見	-9.58107
貨	-9.58115
唐書	-9.58118
祿	-9.58248
山水	-9.5838
貯	-9.58386
也今	-9.58446
之北	-9.58492
有奇	-9.58601
呈	-9.58601
桓	-9.5861
驅	-9.58614
國公	-9.58658
土人	-9.58721
冶	-9.58786
妻楊氏	-9.58911
誣	-9.58976
子孫	-9.58988
勉	-9.58989
人康熙	-9.59009
鑄	-9.59079
氷	-9.59163
醫	-9.59352
擾	-9.59363
十二月	-9.59432
俟	-9.59472
水經	-9.59545
史記	-9.59546
塗	-9.59599
障	-9.59659
沉	-9.59749
寢	-9.59823
怪	-9.59884
琴	-9.59895
白雲	-9.59937
塢	-9.59987
而去	-9.60028
綸	-9.60032
錯	-9.60042
緒	-9.60075
十一月	-9.60125
焦	-9.60158
倭	-9.60202
蘆	-9.60253
洛陽	-9.60273
舎	-9.60284
龍泉	-9.60324
損	-9.60359
之上	-9.60382
萬里	-9.60445
永安	-9.60456
繩	-9.6048
廬陵	-9.60616
只	-9.60635
宮	-9.60643
主事	-9.60695
城内	-9.60717
紙	-9.6074
俸	-9.60756
曠	-9.60788
晦	-9.60811
殺之	-9.60849
北直	-9.60919
哭	-9.60961
叅	-9.60973
奎	-9.60976
現	-9.61047
縣城	-9.61106
城中	-9.61168
叙	-9.61198
孔子	-9.612
城縣	-9.61229
映	-9.61241
泗	-9.61282
沿	-9.61362
下流	-9.61508
太和	-9.61608
濤	-9.61647
摩	-9.61661
誓	-9.61671
在城東	-9.61689
屯田	-9.61802
勘	-9.62022
是以	-9.62022
爰	-9.62059
抗	-9.62089
闊	-9.62106
漏	-9.62229
整	-9.62277
徹	-9.62365
飾	-9.62522
毋	-9.62826
排	-9.62923
區	-9.63025
東流	-9.63047
岩	-9.63065
毫	-9.63067
十一	-9.63072
範	-9.6308
無不	-9.63104
逮	-9.63255
二縣	-9.63262
拱	-9.63396
違	-9.6341
褒	-9.63629
十八年	-9.63663
之西	-9.63705
在今	-9.63868
桐	-9.63929
豆	-9.63948
汴	-9.64195
賣	-9.64405
者為	-9.64457
原額	-9.64514
坪	-9.64554
平陽	-9.64554
十六	-9.64801
後為	-9.6487
倍	-9.64884
鸞	-9.64908
葺	-9.65009
樞	-9.6505
大江	-9.65101
活	-9.65197
居民	-9.65269
禱	-9.6528
藍	-9.65298
叁	-9.65376
不復	-9.65382
三日	-9.65423
究	-9.65424
亦曰	-9.65506
徐州	-9.65645
聴	-9.65648
龔	-9.65809
展	-9.65843
矢	-9.66023
匪	-9.66086
荷	-9.66108
倒	-9.66129
付	-9.66233
茍	-9.66237
衰	-9.66329
二十年	-9.66364
低	-9.66406
正徳	-9.66417
墜	-9.66436
寡	-9.66569
歐陽	-9.66731
較	-9.66754
甸	-9.67045
溥	-9.67046
冷	-9.67078
禪師	-9.67214
煥	-9.67275
不為	-9.67315
谿	-9.6733
濠	-9.67339
鵬	-9.6744
記云	-9.67624
途	-9.67759
者皆	-9.6777
新城	-9.67815
在縣東南	-9.67872
盗	-9.68036
渚	-9.68038
之事	-9.68041
不過	-9.68048
彰	-9.68165
炳	-9.68211
元和	-9.68264
西湖	-9.68271
寅	-9.6829
靡	-9.68387
西山	-9.68497
門内	-9.68506
十七年	-9.68549
古今	-9.68715
縣丞	-9.6892
岑	-9.68947
王氏	-9.68988
腹	-9.69008
警	-9.69231
在縣西南	-9.69277
遼東	-9.69302
之名	-9.69318
酌	-9.69346
何以	-9.69364
墳	-9.69542
岱	-9.6956
猛	-9.69583
怨	-9.69726
詢	-9.69749
開元	-9.69878
齡	-9.69917
杭州	-9.6999
南山	-9.70089
今日	-9.70187
所著有	-9.70201
給事中	-9.70261
數百	-9.70395
喇	-9.70406
恨	-9.70435
乾隆	-9.70443
禍	-9.70454
河道	-9.70492
一帶	-9.70536
耿	-9.70664
天地	-9.70701
享	-9.70757
乳	-9.70778
沛	-9.70794
㡬	-9.70862
斤	-9.70944
之時	-9.7108
即今	-9.71231
貪	-9.71271
四方	-9.71304
雍正	-9.71325
志云	-9.71364
篆	-9.71474
消	-9.71501
龍門	-9.71526
毒	-9.71535
粒	-9.71616
湧	-9.71713
祈	-9.71774
榆	-9.71786
三十年	-9.71794
所在	-9.7189
蔽	-9.71914
凉	-9.71977
突	-9.71984
之意	-9.7212
漳	-9.72142
學校	-9.72258
響	-9.7231
廵	-9.72344
夫人	-9.72389
清河	-9.72399
娶	-9.72407
咨	-9.72444
漁	-9.72566
諡	-9.72577
有二	-9.72596
道士	-9.72725
恤	-9.72769
丹陽	-9.7288
按察使	-9.7293
輙	-9.72966
四里	-9.72994
俱在	-9.73066
愁	-9.73225
圃	-9.73263
痛	-9.73269
水勢	-9.73438
賑	-9.73489
其間	-9.73524
吐	-9.73698
枯	-9.73746
後漢	-9.73915
在縣東北	-9.74113
競	-9.74235
懿	-9.74329
南昌	-9.74417
否	-9.74468
箭	-9.74496
圭	-9.74522
添	-9.7456
在城西	-9.74639
等謹按	-9.74666
之子	-9.74707
西安	-9.74786
佑	-9.74869
構	-9.74992
銜	-9.75098
簿	-9.75126
同上	-9.75148
獵	-9.7523
風雨	-9.75236
荆州	-9.75428
廵撫	-9.75452
戚	-9.7547
鐸	-9.75519
燬	-9.75592
之外	-9.7564
聞之	-9.75692
十四	-9.75752
復為	-9.75823
有所	-9.75859
夫亡	-9.75884
艱	-9.75935
爽	-9.76093
漠	-9.7612
畨	-9.76372
總兵	-9.76504
禹貢	-9.76506
攜	-9.76523
因之	-9.76582
聳	-9.76622
惜	-9.7665
内有	-9.7665
水自	-9.76678
楹	-9.76689
掩	-9.76733
時有	-9.76843
二百里	-9.76863
飯	-9.76865
郡人	-9.76886
南陽	-9.76891
在縣西北	-9.77119
淑	-9.77165
妻周氏	-9.77211
俯	-9.77232
帛	-9.77365
縣境	-9.77382
菜	-9.77737
二員	-9.77774
汲	-9.77785
肥	-9.77852
藝	-9.77859
其家	-9.77882
鈔	-9.77883
勵	-9.78052
隣	-9.78067
公之	-9.78124
東南至	-9.7813
琳	-9.78143
以其	-9.78214
國家	-9.78227
出為	-9.7828
把	-9.78288
在城南	-9.78346
憑	-9.7838
殆	-9.78836
藤	-9.78889
壞	-9.78947
銷	-9.78948
使者	-9.79028
孰	-9.79056
霧	-9.79098
埽	-9.79149
四十五里	-9.79151
浸	-9.79167
崇禎	-9.79251
起至	-9.79303
匿	-9.79338
髪	-9.79495
迷	-9.79585
崩	-9.79606
趣	-9.79609
金陵	-9.79623
境内	-9.79664
姦	-9.79674
齒	-9.79705
陜	-9.79708
郡縣	-9.79744
煩	-9.79805
妻徐氏	-9.79807
坦	-9.79933
婁	-9.80004
二十四	-9.80136
涼	-9.80169
疊	-9.80276
㳺	-9.80311
繡	-9.80426
渺	-9.8045
脚	-9.80482
冲	-9.80504
白馬	-9.80565
織	-9.80603
祗	-9.80605
控	-9.80659
柔	-9.80686
三十五里	-9.80698
錢糧	-9.80721
倪	-9.80903
一曰	-9.80935
呂	-9.80961
東北至	-9.80997
閻	-9.81029
郡治	-9.81033
墟	-9.81082
故道	-9.81113
諸水	-9.81131
李氏	-9.81146
長史	-9.81374
黔	-9.8143
死之	-9.81449
短	-9.81461
噶	-9.81465
監生	-9.81477
窺	-9.81599
父老	-9.8164
吹	-9.81747
准	-9.81762
民田	-9.81808
衢	-9.81843
斥	-9.8186
挑	-9.81889
改曰	-9.81939
棺	-9.81968
竭	-9.81979
弟子	-9.81987
龍山	-9.82261
士民	-9.8228
頒	-9.82429
不同	-9.82579
蘇州	-9.82618
淮南	-9.82822
妄	-9.82848
滙	-9.82853
男	-9.8286
契	-9.82879
挾	-9.82905
出入	-9.82959
旬	-9.82965
刃	-9.82975
抄	-9.83023
壤	-9.83188
豫章	-9.83192
有三	-9.83267
河西	-9.83274
隻	-9.83357
圗	-9.83369
柒	-9.83371
册	-9.83379
亦不	-9.83417
蓄	-9.83444
北流	-9.83451
訛	-9.83646
滇	-9.83705
遍	-9.83757
之利	-9.83945
汶	-9.84024
燒	-9.84036
銓	-9.84039
武進人	-9.8411
正月	-9.84125
旅	-9.8414
西北至	-9.84147
之士	-9.84181
妃	-9.84282
佩	-9.84355
健	-9.84362
檢	-9.84372
一百二十里	-9.84422
恃	-9.84454
把總	-9.84506
霸	-9.84602
二人	-9.8476
鮑	-9.84879
倡	-9.84919
打	-9.84919
二十五里	-9.84924
臨安	-9.84939
之民	-9.85009
一百里	-9.85058
内外	-9.85078
幕	-9.85132
疎	-9.85133
輯	-9.85147
諱	-9.85171
得其	-9.85279
以此	-9.85471
飭	-9.85511
在州東	-9.85601
孚	-9.85658
廢縣	-9.85695
團	-9.8572
森	-9.85725
之道	-9.85768
有大	-9.85777
鬱	-9.85949
禽	-9.86003
㓂	-9.86033
卽	-9.8605
學者	-9.86137
日月	-9.86139
也其	-9.86166
本漢	-9.86257
屠	-9.86273
正統	-9.86415
所至	-9.86475
明一統志	-9.86478
儒學	-9.8648
在州西	-9.86546
新安	-9.86582
翟	-9.86636
之中	-9.86636
陛下	-9.86672
子弟	-9.86715
探	-9.8673
槐	-9.86784
家貧	-9.86816
眞	-9.86844
辱	-9.86886
巧	-9.86896
歎	-9.86978
足以	-9.87038
牌	-9.87058
誘	-9.87071
䖍	-9.87093
厰	-9.87116
坤	-9.87126
鑒	-9.87174
斂	-9.87293
明統志	-9.87336
堆	-9.87357
宰相	-9.87377
確	-9.87402
未有	-9.87406
形勢	-9.87411
晝	-9.87462
若干	-9.87514
寂	-9.87553
強	-9.87558
邁	-9.87585
妻趙氏	-9.87593
粮	-9.87643
之患	-9.87726
三十六	-9.87736
之功	-9.87736
訛作	-9.87768
江水	-9.87768
妻朱氏	-9.87784
文章	-9.878
緣	-9.87869
僉	-9.88025
中國	-9.88027
演	-9.88062
答	-9.88063
晝夜	-9.88065
氏女	-9.88073
提舉	-9.88102
相繼	-9.8811
西南至	-9.88275
頻	-9.88279
人皆	-9.88309
四百	-9.88374
十七	-9.88393
更名	-9.88425
了	-9.88437
長沙	-9.88499
熈	-9.88571
赫	-9.88643
囊	-9.88655
域	-9.8869
在州	-9.88729
大將軍	-9.88841
嘉興	-9.88844
張氏	-9.88881
省入	-9.88886
燭	-9.8893
搆	-9.88956
粤	-9.88968
蓬	-9.88986
託	-9.88994
裔	-9.89019
不許	-9.89024
栢	-9.89054
寺在	-9.89154
在府	-9.89188
翻	-9.89194
郭勒	-9.89259
汗	-9.89307
曰我	-9.8933
徧	-9.89369
乙	-9.89417
盟	-9.89431
是為	-9.89503
湛	-9.89507
培	-9.89702
御書	-9.89721
安縣	-9.89767
檀	-9.89775
既而	-9.89831
一年	-9.89921
至是	-9.89982
一百二十	-9.8999
播	-9.90057
蹟	-9.9007
暨	-9.9015
紛	-9.90308
鬻	-9.9044
遽	-9.90454
有石	-9.90474
本傳	-9.90476
廊	-9.90568
廖	-9.90572
返	-9.90573
庚	-9.9059
會稽	-9.90608
囚	-9.90649
悦	-9.90688
亞	-9.90722
一千	-9.90882
邢	-9.90941
譽	-9.90956
寫	-9.9108
世祖	-9.91165
吐蕃	-9.91187
㓜	-9.9123
知其	-9.91329
峒	-9.91468
瑪	-9.91512
莫不	-9.9156
遐	-9.91672
樵	-9.91695
裂	-9.91741
猷	-9.91772
挺	-9.91781
架	-9.91814
𩔖	-9.91891
艾	-9.91911
流賊	-9.91926
崑山	-9.9194
翰林	-9.92019
在府城	-9.92052
轄	-9.9209
牆	-9.92267
而無	-9.92306
暢	-9.92336
冰	-9.92342
十九年	-9.92469
在城	-9.92636
晨	-9.92649
霄	-9.9265
淨	-9.92701
數年	-9.92767
諸侯	-9.92768
陋	-9.92797
築城	-9.92821
昏	-9.92855
髙祖	-9.92928
㢘	-9.92933
泛	-9.92976
〕〔	-9.9299
涸	-9.9299
云云	-9.93023
又云	-9.93031
蔚	-9.93057
冢	-9.93119
嫁	-9.93138
證	-9.93294
漆	-9.93349
籠	-9.93371
邀	-9.93372
至元	-9.9339
貽	-9.93458
站	-9.9347
䑓	-9.93578
攸	-9.93578
則有	-9.93639
覩	-9.93701
沂	-9.93747
匠	-9.93777
璋	-9.93817
郷	-9.93916
冒	-9.93949
臨川	-9.93955
貶	-9.94027
斌	-9.9403
喻	-9.94041
沃	-9.94047
暉	-9.94053
想	-9.94054
學宫	-9.94083
壓	-9.94122
牐	-9.94154
其水	-9.94258
酋	-9.94326
皇上	-9.94373
匡	-9.94412
山有	-9.94422
岀	-9.94481
䟽	-9.94528
西域	-9.94528
樸	-9.94565
油	-9.94575
詹	-9.94581
慰	-9.946
湖南	-9.94698
催	-9.94747
二十五	-9.94831
者曰	-9.94901
郝	-9.94907
十餘	-9.94983
耗	-9.94985
仇	-9.94988
大水	-9.95026
霖	-9.95061
司空	-9.95068
憶	-9.95086
姪	-9.95142
永嘉	-9.95279
各有	-9.95347
襄陽	-9.95394
禾	-9.95397
又東逕	-9.95415
汾	-9.95504
華亭	-9.9555
彩	-9.95568
栗	-9.95622
海口	-9.95643
奕	-9.9568
数	-9.95779
判官	-9.958
奠	-9.95829
官兵	-9.95857
漢中	-9.95872
河口	-9.95943
塩	-9.95972
嶼	-9.95995
洽	-9.96178
䕃	-9.96189
腰	-9.96397
擅	-9.96405
恕	-9.96464
家莊	-9.96468
元史	-9.96538
卒贈	-9.96605
又西	-9.96704
不忍	-9.96778
往往	-9.96821
分防	-9.96874
三千	-9.96881
潁	-9.96936
忌	-9.96949
灰	-9.96951
冕	-9.96973
臂	-9.9698
譜	-9.97054
捷	-9.9707
三百里	-9.97122
専	-9.97265
湖水	-9.97272
鐡	-9.97279
發源	-9.97291
脊	-9.97296
以備	-9.97426
中書	-9.97443
偃	-9.97473
暫	-9.97572
繪	-9.97584
竝	-9.97586
拂	-9.97634
又曰	-9.97648
閭	-9.97692
有餘	-9.97806
節度	-9.97822
俄	-9.97827
従	-9.9784
大學士	-9.97891
壺	-9.9791
昆	-9.97926
長洲人	-9.97976
柯	-9.97988
阮	-9.98019
禎	-9.98049
山上	-9.98126
龎	-9.98138
奉天	-9.98166
諸山	-9.98212
琦	-9.98225
欺	-9.98388
仕至	-9.98433
在城北	-9.98494
玩	-9.98503
拓	-9.98544
安福	-9.98577
州城	-9.98593
纂	-9.9867
九十	-9.98731
清水	-9.98747
戲	-9.98766
軍民	-9.98787
河決	-9.9883
久之	-9.98833
鱗	-9.98868
北有	-9.98926
城在	-9.98938
慶元	-9.99074
恪	-9.99123
南海	-9.99249
勺	-9.99329
地名	-9.99372
之日	-9.99409
将軍	-9.99453
數千	-9.99491
纔	-9.99611
忤	-9.99732
之心	-9.99735
一切	-9.99774
劒	-9.99776
眉	-9.99802
今改正	-9.99909
武功	-9.99949
永平	-10.0001
赦	-10.0003
潜	-10.0003
圯	-10.0008
是年	-10.0008
獸	-10.0013
百餘	-10.0015
三分	-10.0017
北岸	-10.0024
總管	-10.0024
鈞	-10.0027
絹	-10.0029
安定	-10.0046
快	-10.0047
珪	-10.0053
逾	-10.0062
觧	-10.0063
狂	-10.007
綺	-10.0072
甘泉	-10.0076
綠	-10.0084
孝子	-10.0086
有聲	-10.0091
薩	-10.0093
一十	-10.01
長子	-10.0102
不受	-10.0106
武昌	-10.0111
產	-10.0116
沔	-10.0122
諾	-10.0129
溺	-10.0134
此山	-10.0137
益州	-10.0139
嵐	-10.0142
楷	-10.015
州府	-10.0152
之下	-10.0153
建昌	-10.0154
牟	-10.0155
咸陽	-10.0162
至正	-10.0167
白水	-10.0172
巫	-10.0172
遶	-10.0174
金人	-10.0177
後人	-10.0181
江淮	-10.0181
鄞	-10.02
圩	-10.0217
文帝	-10.023
天下之	-10.0243
躍	-10.0247
隅	-10.0256
畔	-10.0257
蠲	-10.0261
龍潭	-10.0263
溉田	-10.0265
嘉慶	-10.0267
昻	-10.0267
京兆	-10.0267
㧞	-10.027
宦	-10.0271
初為	-10.0275
麓	-10.028
建安	-10.0285
貢生	-10.0288
沖	-10.0291
哩	-10.0296
暗	-10.0304
沐	-10.0307
山南	-10.0307
居之	-10.0308
永寧	-10.0311
溉	-10.0313
所築	-10.0316
碩	-10.0318
彬	-10.0338
〔	-10.0342
䕫	-10.0345
所屬	-10.0353
膏	-10.0359
淡	-10.0361
上流	-10.0362
䘮	-10.037
本朝康熙	-10.0375
而上	-10.0377
萬年	-10.0386
肯	-10.0388
永昌	-10.0399
庾	-10.0411
狼	-10.0411
故曰	-10.0413
已上	-10.0414
準	-10.0415
狹	-10.0415
九里	-10.0422
渤海	-10.0425
即古	-10.0428
函	-10.0429
乏	-10.0435
祀之	-10.0446
巡司	-10.0449
峭	-10.0458
文武	-10.046
明初	-10.046
一百五十	-10.046
通州	-10.0461
墮	-10.0466
睿	-10.047
都司	-10.0471
爛	-10.0478
廟在	-10.0489
石橋	-10.0497
詳見	-10.0498
妻胡氏	-10.0501
建康	-10.0501
順治	-10.0509
址	-10.0516
訖	-10.0521
灌田	-10.0523
雁	-10.0524
陽城	-10.0528
者亦	-10.0531
竄	-10.0535
帳	-10.0537
忍	-10.0543
東山	-10.055
妻黄氏	-10.0553
丙	-10.0554
永豐	-10.0555
青山	-10.0555
莽	-10.0558
有一	-10.0559
滕	-10.0561
叅政	-10.057
松江	-10.0571
儼	-10.0572
朱子	-10.0576
故事	-10.0577
尚存	-10.0579
字仲	-10.0584
牽	-10.0587
今廢	-10.0592
鼔	-10.0599
天台	-10.0599
也又	-10.0602
改屬	-10.0606
觸	-10.0612
梵	-10.0614
䝉古	-10.0619
家口	-10.0627
巾	-10.0628
嗟	-10.063
名宦	-10.0632
諸將	-10.0636
江東	-10.0655
自縊	-10.0662
唱	-10.0662
人心	-10.0668
人舉	-10.0672
石城	-10.0673
溜	-10.0676
從事	-10.0683
即位	-10.0685
圮	-10.0692
攀	-10.0696
旣	-10.0699
熱	-10.0709
已而	-10.0718
俗名	-10.072
霽	-10.0725
稻	-10.0726
荘	-10.0727
陟	-10.0727
誥	-10.0731
寸	-10.0732
九江	-10.0733
纎	-10.074
成立	-10.0743
不絶	-10.0748
山隂	-10.0751
漕運	-10.0762
逺近	-10.077
芙蓉	-10.0774
布政司	-10.0775
無子	-10.078
璽	-10.0781
監察御史	-10.0785
四面	-10.0786
六里	-10.0787
父子	-10.0789
字伯	-10.079
是時	-10.0791
數日	-10.0795
必有	-10.0796
行省	-10.0806
憤	-10.0812
帖	-10.0813
舉進士	-10.0817
南流	-10.0817
閔	-10.0822
濕	-10.0826
脫	-10.083
陽人	-10.083
弁	-10.0845
辯	-10.0847
寃	-10.0849
歟	-10.0849
天順	-10.0856
豹	-10.0856
江陵	-10.0862
郁	-10.0868
改建	-10.0871
膺	-10.0872
民間	-10.0878
犬	-10.0879
収	-10.0883
𤓰	-10.0883
數萬	-10.0885
山陽	-10.0888
百丈	-10.089
利害	-10.0893
歿	-10.0896
平江	-10.0901
暑	-10.0902
十卷	-10.0904
贍	-10.0904
大河	-10.0904
逵	-10.0905
廳	-10.0909
軌	-10.091
劇	-10.0912
勁	-10.0918
刼	-10.0919
貸	-10.092
南海人	-10.0931
水合	-10.0936
㨗	-10.0944
涵	-10.0944
王子	-10.0957
跪	-10.0957
雕	-10.0959
堵	-10.0959
泰和	-10.0961
罔	-10.0969
五千	-10.0971
宸	-10.0973
上書	-10.0976
金華	-10.0977
戈	-10.098
不如	-10.0981
工部	-10.0982
敞	-10.0983
庠生	-10.0987
之言	-10.0988
互	-10.0989
長官司	-10.099
率衆	-10.0993
為政	-10.0997
撤	-10.1001
蓮花	-10.1001
無錫人	-10.1002
蘓	-10.1002
宛	-10.1006
鄙	-10.1012
叟	-10.1012
勾	-10.1014
染	-10.1015
朴	-10.1018
入於	-10.1022
得之	-10.1026
先後	-10.1027
山縣	-10.1036
鄉里	-10.1037
掃	-10.1044
紳	-10.1046
兩浙	-10.1049
其人	-10.1049
敕	-10.105
家人	-10.1053
梓	-10.1053
又北	-10.1054
為一	-10.1056
官軍	-10.1056
鋭	-10.1057
妻吳氏	-10.106
瑜	-10.1064
関	-10.1076
之義	-10.1085
窟	-10.1098
浴	-10.1102
庠	-10.1103
里自界首至	-10.1103
二子	-10.1105
砌	-10.1106
妻沈氏	-10.1113
而東	-10.1114
髮	-10.1119
典史	-10.1122
為名	-10.1127
滑	-10.1128
沙河	-10.1138
二州	-10.1139
二十二年	-10.1144
今為	-10.1145
劉氏	-10.1146
洞庭	-10.1146
誕	-10.1147
牒	-10.1153
捍	-10.1154
不至	-10.1156
鞭	-10.1159
崑山人	-10.116
其餘	-10.116
第二	-10.1168
洪武初	-10.1168
仗	-10.1172
平地	-10.1172
白石	-10.1174
十餘里	-10.1186
苦節	-10.1186
十萬	-10.1189
屍	-10.1191
者以	-10.1203
千户	-10.1205
榆林	-10.1209
數十里	-10.1213
明日	-10.1213
明洪武	-10.1215
壅	-10.1219
見之	-10.1222
䧟	-10.1232
左傳	-10.1232
田地	-10.1232
欵	-10.1232
言之	-10.1234
見前	-10.1239
契丹	-10.1245
省志	-10.1246
河源	-10.1249
轉運使	-10.1251
隙	-10.1252
仙人	-10.1265
十八里	-10.1266
千總	-10.1266
東海	-10.1267
琮	-10.127
人以	-10.1272
被執	-10.1273
鄴	-10.1276
太尉	-10.1281
東平	-10.1288
其名	-10.1288
薪	-10.1293
尸	-10.1293
如故	-10.1294
在州南	-10.1294
浜	-10.1295
濁	-10.1298
誌	-10.1302
中建	-10.1303
形如	-10.1303
對曰	-10.1304
捨	-10.1305
人少	-10.1306
晩	-10.1309
濱	-10.1312
之曰	-10.132
南有	-10.1321
網	-10.1322
縛	-10.1329
輦	-10.1331
擊之	-10.1344
祥符	-10.1344
五丈	-10.135
亘	-10.1351
以後	-10.1352
聰	-10.1352
一百五十里	-10.1368
鷄	-10.1368
吉水	-10.137
之學	-10.1372
渉	-10.1374
填	-10.1378
迫	-10.138
遏	-10.1381
稷	-10.1384
訴	-10.1387
文學	-10.139
古人	-10.1408
軍節度使	-10.1409
潦	-10.142
湖州	-10.1421
婚	-10.1423
廩	-10.1426
梯	-10.1432
三尺	-10.1439
水口	-10.1439
畜	-10.1445
碎	-10.1446
南岸	-10.146
近刻	-10.1475
與之	-10.1476
拾	-10.1484
提督	-10.1484
世傳	-10.1493
半里	-10.1495
虹	-10.1502
巡檢	-10.1503
後世	-10.151
縣知縣	-10.1514
算	-10.1516
訥	-10.1518
蒸	-10.1526
陳氏	-10.1527
平原	-10.1527
太后	-10.1528
挽	-10.1534
府治	-10.1538
東陽	-10.1544
嘆	-10.1545
常熟人	-10.1546
石壁	-10.1549
世宗	-10.1555
清江	-10.1556
駭	-10.1575
燦	-10.1591
廣州	-10.1592
十九	-10.1595
鉅	-10.1595
長樂	-10.1596
濵	-10.1598
沮	-10.1603
皆以	-10.1603
弄	-10.1607
滯	-10.1608
水患	-10.1615
常熟	-10.1621
見其	-10.1626
墻	-10.1633
相與	-10.1633
婆	-10.1642
城外	-10.1645
改名	-10.1646
百餘里	-10.165
衙	-10.1653
東坡	-10.1659
進士授	-10.1661
家橋	-10.1662
同州	-10.1666
臨江	-10.1671
觀音	-10.1678
蛟	-10.168
登進士	-10.1686
暇	-10.1687
聖人	-10.1693
之勢	-10.1694
丕	-10.1696
而卒	-10.1699
閱	-10.1704
山麓	-10.1707
吏部	-10.1707
丑進士	-10.1713
遙	-10.1716
山北	-10.1718
揮	-10.1718
敝	-10.1718
扇	-10.1722
混	-10.173
貝	-10.1731
弔	-10.1736
墾	-10.174
膠	-10.174
而南	-10.1744
者有	-10.1746
從征	-10.1746
南康	-10.1754
聊	-10.1756
又南	-10.1756
欄	-10.1763
人監生	-10.1768
之故	-10.177
揭	-10.1771
地勢	-10.1773
後以	-10.1781
草木	-10.1783
兵部尚書	-10.1801
在府城東	-10.1802
悔	-10.1804
溫	-10.1818
十二里	-10.1823
坂	-10.1826
不通	-10.1831
閏	-10.1837
號曰	-10.1842
華山	-10.1847
猿	-10.1849
不以	-10.1855
朋	-10.1859
滿洲	-10.1863
視之	-10.187
司徒	-10.1874
西有	-10.1881
逋	-10.1882
閑	-10.1883
河自	-10.1885
七日	-10.1888
河内	-10.19
塟	-10.1909
衮	-10.1913
大理	-10.1922
有記	-10.1935
瑾	-10.1935
城東南	-10.1935
迪	-10.1936
而為	-10.1941
金山	-10.1943
二十一年	-10.1945
碑記	-10.1955
三江	-10.1962
侍中	-10.1963
駿	-10.1963
其一	-10.1964
伸	-10.1966
蠶	-10.1971
崑崙	-10.1974
毓	-10.1982
尖	-10.1982
二十八	-10.1986
棗	-10.1986
蘇軾	-10.1987
詰	-10.1989
甚多	-10.1994
棘	-10.1996
駐劄	-10.2004
片	-10.2006
城西南	-10.2015
東有	-10.2017
桃花	-10.2021
梗	-10.2023
又以	-10.2031
吏民	-10.2031
出於	-10.2035
府城	-10.2035
皇后	-10.2043
雉	-10.2052
正德	-10.2055
也故	-10.206
工程	-10.2063
户部	-10.2064
雲中	-10.2065
人丁	-10.2066
死者	-10.2068
公主	-10.2075
妻子	-10.2078
卒於官	-10.2087
于是	-10.2095
粉	-10.2101
溪水	-10.2101
之則	-10.2104
相望	-10.2104
螺	-10.2105
脉	-10.2109
妻孫氏	-10.211
欣	-10.211
刋	-10.2111
不必	-10.2113
釣	-10.2114
禮部	-10.2118
𣲖	-10.2121
諌	-10.2126
運道	-10.2128
凖	-10.2133
扁	-10.2134
衣冠	-10.2134
國語	-10.2136
兩岸	-10.2136
浙西	-10.2138
忠義	-10.2142
諒	-10.2169
有詩	-10.2169
鞏	-10.2169
括	-10.2172
之亂	-10.2175
貲	-10.2183
肩	-10.2189
淹	-10.2196
淳熙	-10.2206
掘	-10.2207
不出	-10.2214
磯	-10.2218
另	-10.2219
扎	-10.2222
瑶	-10.2236
廕	-10.224
狐	-10.2241
槩	-10.2242
著字	-10.2248
襟	-10.2249
南城	-10.2263
脈	-10.2266
謹按	-10.2268
驥	-10.2271
核	-10.2278
苖	-10.2282
摧	-10.2282
城下	-10.2287
泄	-10.2287
沁	-10.2291
稱其	-10.2293
之不	-10.2297
豁	-10.2298
五分	-10.2301
喀	-10.2308
舅姑	-10.2313
山谷	-10.2319
之説	-10.2323
地理志	-10.2324
以子	-10.2324
拘	-10.2325
為大	-10.2326
年間	-10.2327
數里	-10.2328
不然	-10.2332
竈	-10.2332
糴	-10.2335
臧	-10.2339
聨	-10.2346
廣陵	-10.2349
真人	-10.2354
其父	-10.2357
株	-10.2357
布政使	-10.2361
中為	-10.2362
貌	-10.2364
南安	-10.2371
二水	-10.2379
償	-10.2391
在城内	-10.2391
好學	-10.2393
著有	-10.2397
華亭人	-10.2398
穎	-10.2398
後漢書	-10.24
晉書	-10.2403
之内	-10.2404
城東北	-10.2409
今之	-10.2409
猺	-10.2418
可謂	-10.2419
不勝	-10.2423
爐	-10.2427
不肯	-10.2442
遮	-10.2445
政和	-10.245
搜	-10.2478
僻	-10.2478
臨海	-10.2484
之役	-10.2486
新河	-10.2486
籌	-10.2493
治之	-10.2494
彥	-10.2495
魂	-10.2495
璉	-10.2497
酬	-10.2512
乾道	-10.2513
誼	-10.252
歴官	-10.2524
之制	-10.2526
以示	-10.2539
撫孤	-10.2542
畿	-10.2544
瓚	-10.2554
入江	-10.2555
萬安	-10.2556
博學	-10.2559
惑	-10.2563
在府城西	-10.2566
城郭	-10.257
八百	-10.2571
潞	-10.2571
雀	-10.2576
都尉	-10.2583
鎬	-10.2586
嗚呼	-10.2603
駐防	-10.2604
罵	-10.2606
八分	-10.2607
測	-10.2608
南唐	-10.2609
萃	-10.261
餘姚	-10.2612
州境	-10.2612
遞	-10.2616
人父	-10.2618
攷	-10.2621
甕	-10.2621
其言	-10.2624
妖	-10.2625
二十三年	-10.263
而出	-10.2632
龕	-10.2639
减	-10.264
況	-10.2641
姓名	-10.2641
烈婦	-10.2642
諸軍	-10.2645
政事	-10.2645
周圍	-10.2646
頴	-10.2649
鐫	-10.265
瓜	-10.2652
厭	-10.2656
恬	-10.2658
滌	-10.2667
睦	-10.2668
嬰	-10.267
𥘉	-10.2676
㟁	-10.2676
六合	-10.2681
率兵	-10.2683
上疏	-10.2685
瑛	-10.2686
牢	-10.269
王公	-10.2694
悍	-10.2697
終身	-10.27
匯	-10.27
戌進士	-10.2704
名山	-10.2705
耆	-10.271
行人	-10.2712
鈎	-10.2719
樂安	-10.272
入城	-10.2725
士大夫	-10.2729
一十五里	-10.2739
頤	-10.2741
鉞	-10.2742
吏部尚書	-10.2747
陪	-10.2753
或曰	-10.2756
博士	-10.2756
叩	-10.2757
絡	-10.2768
歙縣人	-10.2769
狄	-10.2774
濯	-10.2778
以待	-10.2778
剿	-10.2779
揆	-10.2786
嘴	-10.2788
未進士	-10.2792
矜	-10.2794
裘	-10.2795
坎	-10.2797
楓	-10.2804
晋	-10.2804
藴	-10.2808
濮	-10.2808
宣徳	-10.281
需	-10.2811
詭	-10.2815
幣	-10.2821
水也	-10.2833
不屈	-10.2836
樁	-10.2837
綴	-10.2838
校尉	-10.2841
鑾	-10.2842
罰	-10.2845
匈奴	-10.2848
之際	-10.2855
以通	-10.2857
而西	-10.286
仁和	-10.2863
緯	-10.2866
桃源	-10.2872
嶂	-10.2879
檢校	-10.2882
淮安	-10.2896
愧	-10.2896
今名	-10.2902
勦	-10.2906
澹	-10.2907
生子	-10.2909
靣	-10.2914
嘉靖間	-10.2918
員外郎	-10.2919
吞	-10.2928
柵	-10.293
石室	-10.2943
埋	-10.2948
臣等	-10.2949
二十五年	-10.295
棠	-10.295
巡檢司	-10.2951
以聞	-10.2952
州知州	-10.296
瑩	-10.296
濫	-10.2971
用之	-10.2975
遊擊	-10.2979
又東南	-10.298
鼻	-10.2988
迨	-10.2988
淳祐	-10.2997
仁宗	-10.2997
薨	-10.2998
奉㫖	-10.3003
瑄	-10.3003
大定	-10.3003
疋	-10.3004
彪	-10.3006
賛	-10.3011
譙	-10.3014
泰山	-10.3014
二千	-10.3014
凱	-10.3022
昂	-10.3025
贖	-10.3027
卒於	-10.3028
守兵	-10.3032
陀	-10.3045
狀如	-10.3051
洪武中	-10.3051
凶	-10.3051
蓬萊	-10.3053
遇害	-10.3053
両	-10.3055
破之	-10.3055
江州	-10.3057
漢軍	-10.3063
西河	-10.3064
郢	-10.3068
二十七年	-10.3073
㫁	-10.3073
恥	-10.3073
雍正七年	-10.3073
迄	-10.3073
順天	-10.3074
分置	-10.3078
相對	-10.3079
頼	-10.308
記曰	-10.3084
眺	-10.3092
經史	-10.3092
淪	-10.3095
倘	-10.3095
無以	-10.3112
講學	-10.3114
五色	-10.3118
永興	-10.3119
河中	-10.3121
貝勒	-10.3121
斧	-10.3127
聶	-10.3127
鄉試	-10.3134
二字	-10.3134
華陽	-10.3137
兩六錢	-10.3148
元祐	-10.3151
不食	-10.3153
使人	-10.3155
諷	-10.3156
其先	-10.3157
謬	-10.3157
枚	-10.3162
剏	-10.3168
以防	-10.3172
字元	-10.3175
朝夕	-10.3175
臨清	-10.3182
杯	-10.3186
諸郡	-10.3186
邑令	-10.3189
二十四年	-10.319
効	-10.319
戮	-10.3198
奏請	-10.3199
廂	-10.3199
皇朝	-10.3199
參政	-10.32
東漢	-10.32
長洲	-10.3209
未婚	-10.3214
取之	-10.3216
九域志	-10.3219
几	-10.322
間建	-10.3222
防守	-10.3223
筠	-10.3223
旨	-10.3225
江山	-10.3231
鄱陽	-10.3231
内史	-10.324
柄	-10.3243
譯	-10.3248
六百	-10.3248
圖經	-10.325
者必	-10.3254
七十二	-10.3259
以致	-10.3264
得名	-10.3267
山之	-10.3268
五尺	-10.3271
安撫	-10.3272
如是	-10.3274
恢	-10.3274
茹	-10.3275
秘	-10.3283
海中	-10.3289
太白	-10.3289
無窮	-10.3291
府人	-10.3294
江都	-10.3297
鬬	-10.3297
直隸	-10.3304
奬	-10.3307
叅議	-10.3314
剡	-10.3316
改今名	-10.3316
憐	-10.3319
二尺	-10.332
常山	-10.332
異之	-10.3321
股	-10.3323
陳留	-10.3324
隊	-10.3328
檜	-10.3329
抽	-10.333
二卷	-10.333
丈餘	-10.3333
旁有	-10.3339
其南	-10.334
餘姚人	-10.3342
二十六年	-10.3352
詐	-10.3352
相近	-10.3353
蟲	-10.3354
并州	-10.3354
賤	-10.3354
形勝	-10.3355
疇	-10.3356
萊	-10.3359
後廢	-10.336
馴	-10.3363
俗呼	-10.3365
以便	-10.3365
嶺南	-10.3368
公祠	-10.3372
同縣	-10.3373
廬山	-10.3384
其北	-10.3385
百二十里	-10.3385
甲子	-10.3387
馭	-10.3387
在州北	-10.3391
後周	-10.3393
長城	-10.3396
二十二	-10.3401
自此	-10.3404
自古	-10.3405
作亂	-10.3406
時為	-10.3408
刻石	-10.3415
在西	-10.3421
奥	-10.3422
一十里	-10.3423
大興	-10.3428
三國	-10.3432
管理	-10.3432
渡江	-10.3432
四時	-10.3433
城陷	-10.3433
邸	-10.3435
一百八十里	-10.3438
少卿	-10.3439
扼	-10.3442
百年	-10.3443
之數	-10.3445
札	-10.3446
駐蹕	-10.345
西曰	-10.345
禧	-10.3452
合流	-10.3452
夙	-10.3454
遂以	-10.3455
璘	-10.3457
四分	-10.3459
旭	-10.3461
士卒	-10.3462
鴨	-10.3463
柩	-10.3464
泗州	-10.3465
窩	-10.3468
盆	-10.3471
其東	-10.3474
埠	-10.348
廨	-10.3482
居此	-10.3483
北山	-10.3485
也夫	-10.3486
縣之	-10.3488
飽	-10.3493
新興	-10.3494
緬	-10.3495
斃	-10.3496
郡志	-10.3499
灑	-10.3499
妻呉氏	-10.3501
狗	-10.3504
漾	-10.3505
飄	-10.3507
啼	-10.3508
寰	-10.3512
漂	-10.3512
新建	-10.3515
琛	-10.3518
萬餘	-10.3522
文字	-10.3523
水中	-10.3532
督撫	-10.3534
賦詩	-10.3536
何處	-10.3537
然則	-10.3537
間有	-10.3537
汚	-10.3546
繕	-10.3547
後有	-10.3559
辰進士	-10.356
由此	-10.3561
在府城南	-10.3562
學正	-10.3563
晟	-10.3565
宋時	-10.3571
副將	-10.3581
貞觀	-10.3596
召為	-10.3607
濟南	-10.3607
藍田	-10.3608
延安	-10.3609
懇	-10.361
湍	-10.3619
食之	-10.3623
埃	-10.3625
摘	-10.3627
一方	-10.3627
石塘	-10.3629
淮水	-10.3629
愷	-10.3631
䖏	-10.3633
孝友	-10.3635
嶠	-10.3636
老人	-10.3639
斛	-10.3644
二十七	-10.3645
而北	-10.3656
蟠	-10.3659
景泰	-10.3662
五日	-10.3669
光武	-10.3673
一百三十	-10.3675
唐書地理志	-10.3676
朩	-10.3683
綵	-10.3683
一百四十	-10.3692
綬	-10.37
安南	-10.3703
添設	-10.3705
千餘	-10.3706
為文	-10.3711
東入	-10.3719
嚮	-10.372
所得	-10.3725
而入	-10.3729
此地	-10.3734
護	-10.3737
舌	-10.3745
崇徳	-10.3748
青州	-10.3756
興化	-10.3757
如何	-10.3759
三十五	-10.3768
之餘	-10.3776
芒	-10.3781
興國	-10.3787
城西北	-10.3787
的	-10.3791
改置	-10.3805
歙	-10.3807
扣	-10.3807
官吏	-10.3808
事聞	-10.3816
鴈	-10.3817
鋒	-10.3821
巒	-10.3825
糾	-10.383
一百六十	-10.3835
掾	-10.3836
文集	-10.3839
明月	-10.385
乂	-10.3851
飢	-10.3852
分野	-10.3855
淚	-10.3864
簷	-10.3867
塹	-10.387
太學	-10.387
然而	-10.3871
亦以	-10.3876
自號	-10.3877
成功	-10.3877
每年	-10.3882
髙宗	-10.3887
武陵	-10.389
之盛	-10.3894
模	-10.39
卞	-10.3902
愍	-10.3904
梁山	-10.3922
廓	-10.3923
剖	-10.3925
猶存	-10.3928
覈	-10.3928
黍	-10.393
不與	-10.3933
帆	-10.3934
厯官	-10.3935
踏	-10.3943
里人	-10.3948
寕縣	-10.3948
故址	-10.3953
防禦	-10.3955
多所	-10.3963
曜	-10.3964
無事	-10.3972
夫卒	-10.3972
前有	-10.3973
二十八年	-10.3974
瀘	-10.3976
滄	-10.398
四十年	-10.3982
疲	-10.3995
谷水	-10.3999
太倉	-10.4002
流經	-10.4006
廬墓	-10.4014
實録	-10.4022
恣	-10.4023
陸拾	-10.4023
随	-10.4026
杏	-10.4027
幽州	-10.4028
牀	-10.403
歐	-10.4031
綽	-10.4033
上元	-10.4033
估	-10.4036
守禦	-10.404
西流	-10.4043
實在	-10.4047
不起	-10.4048
天啟	-10.4048
有古	-10.4052
詎	-10.4054
雖有	-10.4056
安國	-10.4057
憚	-10.4058
竿	-10.4063
不下	-10.4063
婦人	-10.4067
夫子	-10.4068
自然	-10.4069
號為	-10.4073
驕	-10.4075
璫	-10.4079
瞿	-10.4082
之勝	-10.4087
平生	-10.4089
緝	-10.4091
朝陽	-10.4091
出知	-10.4093
葵	-10.4095
中丞	-10.41
東門	-10.4102
姿	-10.4104
者多	-10.4105
薊	-10.4107
千人	-10.4109
不相	-10.4117
眷	-10.4123
天門	-10.4124
開封	-10.413
㑹同	-10.413
版	-10.4137
有小	-10.4138
中外	-10.414
𣺌	-10.4146
吳興	-10.4148
舅	-10.415
兩三錢	-10.4153
至大	-10.4153
咸淳	-10.4154
倣	-10.4156
羲	-10.4156
無錫	-10.4158
瀛	-10.4161
清風	-10.4171
稀	-10.4174
郡王	-10.4179
頽	-10.4182
高祖	-10.4183
從此	-10.4184
東北流	-10.4185
羅漢	-10.4186
亢	-10.4192
敘	-10.4194
之類	-10.4194
兩九錢	-10.4196
所載	-10.4199
行之	-10.4199
兵部	-10.4205
神仙	-10.4206
廻	-10.4207
者則	-10.4208
僚	-10.4208
而還	-10.421
本朝因之	-10.421
之屬	-10.421
其母	-10.4213
在南	-10.4219
桂陽	-10.4222
兵馬	-10.4223
祠在	-10.4224
掛	-10.4225
暖	-10.4225
熙寧	-10.4228
樂平	-10.4229
蕪	-10.4236
茲	-10.4236
透	-10.4238
稱為	-10.4239
天文	-10.4242
未詳	-10.4245
裝	-10.4246
僊	-10.4246
州西	-10.4249
二名	-10.4253
漢置	-10.4254
周公	-10.4255
之難	-10.4259
水西	-10.4261
舊址	-10.4278
中興	-10.4284
南昌人	-10.4288
迺	-10.4291
不便	-10.4297
餘杭	-10.4299
跋	-10.4301
人也	-10.4306
鳩	-10.4307
在焉	-10.4308
黜	-10.4313
縷	-10.4314
韜	-10.4318
積石	-10.4319
次第	-10.432
嘯	-10.433
舊傳	-10.433
㕘	-10.4331
相去	-10.4333
晉陽	-10.4334
芬	-10.4335
箕	-10.4336
處也	-10.4343
曰汝	-10.4345
衞人	-10.4362
孟子	-10.4365
巡按	-10.4365
提刑	-10.4366
在東	-10.4367
歛	-10.4368
黄金	-10.4373
以前	-10.4373
一百三十里	-10.4375
理志	-10.4377
踐	-10.4383
妻汪氏	-10.4385
古之	-10.4402
翳	-10.4404
千載	-10.4404
虧	-10.4408
北曰	-10.4408
本府	-10.4409
兩一錢	-10.4411
稱之	-10.4414
賜額	-10.4419
不用	-10.4423
以濟	-10.4425
檻	-10.4428
浄	-10.4431
盤山	-10.4432
告成	-10.4434
案近刻	-10.4438
姬	-10.4443
嘉靖中	-10.4444
西門	-10.4451
丨丨	-10.4455
楊氏	-10.4455
要害	-10.4456
嘉祐	-10.4456
箐	-10.4457
二十一	-10.4458
鎮守	-10.4462
彭城	-10.4462
在縣治東	-10.4463
羣臣	-10.4467
昧	-10.4475
顛	-10.4476
年十八	-10.4476
里許	-10.448
状	-10.4494
朔方	-10.4498
烈女	-10.4499
賚	-10.4502
觀察使	-10.4506
上言	-10.4509
貞元	-10.4526
行宫	-10.4528
二萬	-10.4529
遼陽	-10.453
鷹	-10.4531
突厥	-10.4531
城池	-10.4531
不應	-10.4534
菊	-10.4541
温泉	-10.4542
參軍	-10.4544
編户	-10.4548
掖	-10.4553
秦州	-10.4553
玠	-10.4555
牲	-10.4562
額曰	-10.4566
西京	-10.4567
地理	-10.4567
踞	-10.457
騐	-10.4571
瀾	-10.4575
措	-10.458
甲申	-10.4586
水之	-10.4589
和尚	-10.4591
咎	-10.4594
地震	-10.4599
換	-10.46
南曰	-10.4601
工部尚書	-10.4601
四海	-10.4601
祇	-10.4609
隴西	-10.4617
軾	-10.4621
豐城	-10.4624
敖	-10.4629
山頂	-10.4635
郡城	-10.4636
一百八十	-10.4648
宋建	-10.465
長興	-10.4652
虢	-10.4654
楫	-10.4654
筵	-10.4657
明帝	-10.466
不一	-10.4661
平縣	-10.4668
宣城	-10.467
簾	-10.4672
一水	-10.4672
諡曰	-10.4673
道路	-10.4673
愛民	-10.4675
分守	-10.4677
民之	-10.4677
夫死	-10.468
礦	-10.4681
白沙	-10.4683
留守	-10.4688
郡邑	-10.4695
二十六	-10.4696
砂	-10.4697
奢	-10.47
靈山	-10.47
户口	-10.4702
誨	-10.4707
安撫使	-10.4707
諸臣	-10.4707
一作	-10.4708
媳	-10.4708
本朝乾隆	-10.4709
男女	-10.4713
袤	-10.4715
分水	-10.4718
泰州	-10.4721
二十九	-10.4721
犀	-10.4723
悼	-10.4724
州志	-10.4724
之變	-10.4724
寰宇	-10.4725
奈何	-10.4726
修葺	-10.4727
翊	-10.4728
力戰	-10.4732
六分	-10.4737
扶風	-10.4737
南流入	-10.4738
梨	-10.4738
粹	-10.4738
舊城	-10.475
於上	-10.4755
叠	-10.4761
每嵗	-10.4762
大旱	-10.4762
百户	-10.4767
荀	-10.4775
二十三	-10.4775
琰	-10.4776
又東北	-10.4777
壹千	-10.4781
吳越	-10.4788
人多	-10.4797
應龍	-10.4801
宣和	-10.4804
躡	-10.481
番禺人	-10.4811
貞女	-10.4815
鏞	-10.4817
之費	-10.4817
積水	-10.4817
一道	-10.4819
飲食	-10.4823
錢塘人	-10.4829
數月	-10.4831
也然	-10.4833
杲	-10.4845
見於	-10.4845
未及	-10.4845
纖	-10.4846
畱	-10.4847
鳯翔	-10.4853
陽山	-10.4855
年建	-10.4857
裹	-10.4857
弩	-10.486
土官	-10.4861
峩	-10.4862
衛人	-10.4869
䘏	-10.4869
膽	-10.487
繹	-10.487
鉢	-10.487
海鹽	-10.4874
亦可	-10.488
禮部尚書	-10.488
擔	-10.4886
岫	-10.4887
而止	-10.4889
鄞人	-10.4889
昨	-10.4891
仍舊	-10.4892
椿	-10.4894
一夕	-10.49
皓	-10.4901
保定	-10.4905
二分	-10.4907
延綏	-10.4919
羡	-10.4923
捧	-10.4925
滴	-10.4926
州東	-10.4929
旺	-10.4932
溧陽	-10.4932
其利	-10.4936
不免	-10.4938
天啓	-10.4941
扈	-10.4941
中原	-10.4942
安得	-10.4947
保安	-10.4948
脅	-10.4949
一百一十	-10.495
明萬厯	-10.495
尚有	-10.4954
宜春	-10.4959
漕河	-10.4959
闡	-10.4962
霑	-10.4963
漢陽	-10.4964
河陽	-10.4968
輿地紀勝	-10.4969
眠	-10.4973
灌溉	-10.4974
西南流	-10.4976
斬之	-10.4977
林志	-10.4978
河流	-10.498
蠟	-10.4984
壁立	-10.4988
塜	-10.4994
社稷	-10.4995
雍州	-10.4995
名勝志	-10.4996
之句	-10.4996
第三	-10.4996
河工	-10.4997
七分	-10.5001
山隂人	-10.5003
莫能	-10.5004
江寧	-10.5007
不等	-10.5008
甞	-10.501
涯	-10.5012
其西	-10.5013
縈	-10.5013
取其	-10.5014
東都	-10.5014
渭水	-10.5014
三丈	-10.5015
昔有	-10.5017
淳化	-10.5019
矩	-10.5021
侃	-10.5021
瀉	-10.5028
醇	-10.503
皆為	-10.503
瀦	-10.5033
椒	-10.5034
孺	-10.5034
文昌	-10.5036
瀑	-10.5038
唐時	-10.5042
本州	-10.5044
元初	-10.5047
刹	-10.5047
國王	-10.5049
之田	-10.5049
舊設	-10.5055
石山	-10.5056
聯	-10.506
鉉	-10.506
妻何氏	-10.5066
鬭	-10.5069
詩文	-10.5069
彈	-10.5074
不行	-10.5076
羨	-10.5076
梧	-10.5078
臻	-10.5079
二十九年	-10.5079
城人	-10.5082
明洪武初	-10.5083
古蹟	-10.5083
望之	-10.5083
璞	-10.5084
四十五	-10.5087
王莽	-10.5093
王廟	-10.5094
殉	-10.5097
神廟	-10.5098
人順治	-10.5099
相接	-10.5099
宗室	-10.5102
蔓	-10.5103
賽	-10.5106
事宜	-10.511
湖北	-10.5115
庄	-10.512
常州	-10.5121
明嘉靖	-10.5122
弛	-10.5124
侈	-10.5126
山上有	-10.513
矯	-10.513
水陸	-10.5131
吳縣人	-10.5132
三縣	-10.5133
節婦	-10.5134
替	-10.514
沁水	-10.5143
桐城人	-10.5144
朝鮮	-10.5145
崑	-10.5147
遂為	-10.5148
稜	-10.5149
字文	-10.5151
震澤	-10.5153
一萬	-10.5156
億	-10.5159
永樂中	-10.516
蘿	-10.5167
黄岡人	-10.5169
隄防	-10.517
員外	-10.5171
相連	-10.5173
髙麗	-10.5173
宜興人	-10.5174
萬人	-10.5176
在府城北	-10.5177
橘	-10.518
四員	-10.5181
清口	-10.5183
之險	-10.5184
國之	-10.5186
元末	-10.5186
慷慨	-10.5188
踵	-10.519
古城	-10.5191
三人	-10.5192
縉	-10.5193
人夫	-10.5194
狀元	-10.5194
吳江	-10.52
創建	-10.5206
附郭	-10.5207
壬午	-10.5209
分流	-10.5216
三員	-10.5224
河之	-10.5224
民力	-10.5225
㸔	-10.5234
國初	-10.5236
徼	-10.5236
妹	-10.5237
一分	-10.5238
世襲	-10.5241
御史中丞	-10.5242
硯	-10.5245
白鶴	-10.5251
佃	-10.5252
埭	-10.5255
東南流	-10.5259
蠡	-10.5264
江口	-10.5265
妻郭氏	-10.5268
吳郡	-10.5272
塊	-10.5272
許之	-10.5272
曷	-10.5274
來㑹	-10.5284
成化間	-10.5288
討之	-10.529
蜜	-10.5292
三萬	-10.5297
南北朝	-10.5302
宼	-10.5307
鎖	-10.531
一百四十里	-10.5312
大海	-10.5313
庻	-10.5318
立廟	-10.5319
昔人	-10.532
或云	-10.5327
勃	-10.5327
治河	-10.533
而成	-10.5339
太康	-10.5343
亦無	-10.5347
懲	-10.5347
研	-10.5347
治東	-10.535
立祠	-10.535
者不	-10.5355
戢	-10.5356
白鹿	-10.5358
不就	-10.5365
華州	-10.537
孝宗	-10.5374
至于	-10.5375
伺	-10.5376
水入	-10.5383
土司	-10.5389
軍節度	-10.539
同時	-10.5393
最為	-10.5397
開濬	-10.5398
其勢	-10.5403
一旦	-10.5407
洵	-10.5407
嫌	-10.5412
永康	-10.5414
豐城人	-10.5414
何如	-10.5427
人嘉靖	-10.5428
東注	-10.5428
水旱	-10.5429
所有	-10.5434
婢	-10.5434
雒	-10.5435
其功	-10.5437
北海	-10.5437
山下有	-10.544
驟	-10.5441
大中	-10.5441
蝗	-10.5443
沼	-10.5444
不宜	-10.545
俱有	-10.5451
有五	-10.5459
小民	-10.546
舊在	-10.546
公私	-10.5462
咸平	-10.5462
𠞰	-10.5464
掲	-10.5465
酉	-10.5466
巔	-10.5468
舊為	-10.5474
衙門	-10.5475
沸	-10.5478
總兵官	-10.5478
不忘	-10.548
沾	-10.5481
知之	-10.5484
蔵	-10.5486
雍正五年	-10.5487
迥	-10.5488
其國	-10.549
兵備	-10.549
鼇	-10.5497
萬厯間	-10.5504
鳳翔	-10.5506
以資	-10.5509
嗜	-10.5509
築隄	-10.5509
青龍	-10.551
獅子	-10.5512
内地	-10.5514
渡河	-10.5515
移駐	-10.5517
又西南	-10.5519
以供	-10.552
永和	-10.5522
上黨	-10.5532
未能	-10.5533
宵	-10.5536
九千	-10.5536
漢水	-10.5537
宜興	-10.5538
拯	-10.554
邈	-10.5541
壬	-10.5541
台州	-10.5551
守之	-10.5554
孝義	-10.5557
曰大	-10.5557
捐俸	-10.5561
逝	-10.5565
穹	-10.5567
訊	-10.5571
歎曰	-10.5572
妻程氏	-10.5574
延祐	-10.5576
二年建	-10.5576
母病	-10.5577
水又東	-10.5578
袖	-10.558
烏程	-10.558
天津	-10.5584
汀	-10.5585
一百七十	-10.5592
神宗	-10.5597
二百五十	-10.5603
之弊	-10.5607
等官	-10.5609
以爲	-10.5609
駢	-10.561
贑	-10.5615
南門	-10.5617
而歸	-10.5617
隷	-10.5619
而行	-10.5621
撃	-10.5626
彊	-10.5635
禮樂	-10.5637
通鑑	-10.5639
敗之	-10.564
濟寧	-10.564
北門	-10.5646
紡績	-10.5648
之計	-10.5648
蹈	-10.565
玖拾	-10.5654
捌拾	-10.5654
數百人	-10.5655
汝南	-10.5655
彚	-10.5661
舊浙江通志	-10.5666
豈不	-10.5666
廪	-10.5666
五萬	-10.5667
明末	-10.567
金史	-10.567
川縣	-10.5671
甚衆	-10.5671
安人	-10.5674
議者	-10.5676
鴉	-10.5681
浙東	-10.5681
死於	-10.5682
土地	-10.5683
人知	-10.5689
丙子	-10.5692
葦	-10.5692
使君	-10.5704
布政	-10.5706
太常	-10.5708
蠧	-10.571
庚子	-10.571
佐領	-10.5711
握	-10.5711
明倫堂	-10.5719
上官	-10.5721
着	-10.5721
當塗人	-10.5723
入于	-10.5726
熾	-10.5726
崇寧	-10.5727
妻鄭氏	-10.5729
施行	-10.5738
本縣	-10.5738
建武	-10.5739
太史	-10.5739
都城	-10.5757
千秋	-10.5758
沿海	-10.5759
民居	-10.5762
流水	-10.5764
憩	-10.5765
乙酉	-10.5766
日夜	-10.5777
坍	-10.578
苔	-10.5784
年十九	-10.5784
之一	-10.5785
俘	-10.5785
觴	-10.5787
請於	-10.5788
江都人	-10.5795
聖祖仁皇帝	-10.5798
中軍	-10.5801
本草	-10.5801
中流	-10.5808
販	-10.5812
道人	-10.5812
十餘年	-10.5816
于闐	-10.5817
衷	-10.5818
臥	-10.5819
剪	-10.5826
本名	-10.5829
話	-10.5829
長安志	-10.5833
茫	-10.5835
冀州	-10.5835
為民	-10.5837
隆慶	-10.5838
稼	-10.5842
嘆曰	-10.5845
渙	-10.585
一二	-10.5859
邃	-10.586
雍正二年	-10.5863
潞州	-10.5869
宣城人	-10.587
詩曰	-10.5873
線	-10.5874
故城在	-10.5876
甃	-10.5877
山勢	-10.5877
文公	-10.5877
神明	-10.5878
昉	-10.5883
州郡	-10.5891
不在	-10.5891
滎陽	-10.5892
斗門	-10.5894
地形	-10.5896
栖	-10.5901
叅軍	-10.5901
經畧	-10.5901
無異	-10.5904
可容	-10.5906
玊	-10.5908
諡文	-10.5912
闔	-10.5914
貼	-10.5916
寧州	-10.5917
瘠	-10.5918
一座	-10.5922
三卷	-10.5926
瀑布	-10.5939
不易	-10.5939
東莞人	-10.5942
富平	-10.5947
諸葛	-10.5949
栽	-10.5951
以功	-10.5959
廡	-10.596
百官	-10.5966
經營	-10.5969
揖	-10.5974
登第	-10.5975
甲午	-10.5977
怡	-10.5977
盛京	-10.5978
帑	-10.5981
永新	-10.5981
分為	-10.5988
榻	-10.5988
三十二	-10.5989
麾	-10.599
漢志	-10.5991
轍	-10.5994
壬子	-10.5995
淤塞	-10.5999
百萬	-10.6
哈喇	-10.6002
江湖	-10.6002
婺	-10.6002
絃	-10.6009
今年	-10.601
數百里	-10.6013
三州	-10.6014
漢武帝	-10.6015
天竺	-10.6017
海内	-10.6017
癸未	-10.6019
雍正八年	-10.602
一丈	-10.6022
宫室	-10.6023
夔	-10.6039
周迴	-10.6044
怠	-10.6045
縣故城南	-10.605
有泉	-10.6052
河在	-10.6053
諸州	-10.6056
越王	-10.6057
泗水	-10.606
宗即位	-10.6061
慕容	-10.6064
昱	-10.6066
南入	-10.6071
去縣	-10.6074
乃以	-10.6076
其山	-10.6078
香山	-10.6079
鉛	-10.6087
窪	-10.6089
年二十	-10.6094
行者	-10.6095
平定	-10.6095
三面	-10.6098
家居	-10.61
殺人	-10.6105
知名	-10.6106
歇	-10.6109
莫敢	-10.6113
流至	-10.6118
有方	-10.6118
讐	-10.6119
顆	-10.6122
淫	-10.6124
戊子	-10.6125
歸併	-10.6137
二丈	-10.6142
弦	-10.6143
有異	-10.6149
安仁	-10.615
國朝順治	-10.6152
辛酉	-10.6158
舟楫	-10.6158
不入	-10.6163
十丈	-10.6163
顒	-10.6164
睢	-10.6165
粥	-10.6166
伍拾	-10.6166
槖	-10.6168
大使	-10.6169
得免	-10.6169
趾	-10.6176
軸	-10.6177
之用	-10.6178
邏	-10.6178
童子	-10.6178
冉	-10.6179
部落	-10.6181
挹	-10.6181
處士	-10.6183
兩二錢	-10.6183
駱	-10.6184
年八十	-10.6186
鰲	-10.6186
漿	-10.6188
中書舍人	-10.619
慶厯	-10.619
壬辰	-10.6192
瑚	-10.6192
不可以	-10.6193
里東至	-10.6195
㦸	-10.6202
杞	-10.6207
廬江	-10.6208
所著	-10.6216
宥	-10.6221
諤	-10.6228
闈	-10.6228
是日	-10.6228
周禮	-10.6228
開化	-10.623
大軍	-10.6233
賄	-10.6237
詩書	-10.6252
渭南	-10.6256
太行	-10.626
本朝順治	-10.626
瞰	-10.6261
海門	-10.6264
欠	-10.6266
遺址	-10.6268
一石	-10.6271
禪寺	-10.6271
翰林學士	-10.6272
河間	-10.6275
討平之	-10.6277
南三十里	-10.6279
都統	-10.6279
大如	-10.6286
虐	-10.6287
忠孝	-10.6287
侍御史	-10.6295
水注之	-10.6298
萬石	-10.6301
民生	-10.6307
概	-10.6307
觔	-10.6308
與弟	-10.6311
郡公	-10.6317
兵丁	-10.6319
江夏	-10.6322
平陸	-10.6337
竅	-10.6337
萬世	-10.6337
爾雅	-10.6339
千金	-10.634
球	-10.6342
刷	-10.6345
名也	-10.6345
齎	-10.6349
戌	-10.635
三門	-10.635
賜名	-10.6351
龍池	-10.6352
二女	-10.6352
靳	-10.6355
廣徳	-10.6356
珙	-10.6358
景定	-10.6359
大徳	-10.6371
忠臣	-10.6371
者其	-10.6373
北齊	-10.6376
毗	-10.6378
事之	-10.638
陛	-10.6382
汾州	-10.6384
靄	-10.6393
開封府	-10.6394
遣人	-10.6394
斬首	-10.6398
雋	-10.6402
孤山	-10.6406
矧	-10.6412
綜	-10.6412
迅	-10.6413
龍溪	-10.6421
庶幾	-10.6422
建徳	-10.6423
闗中	-10.6426
蔬	-10.6427
追封	-10.6428
俗謂之	-10.6432
甘露	-10.6434
安邑	-10.6438
械	-10.6442
促	-10.6447
甘肅	-10.6451
澳	-10.6452
蜀人	-10.6458
休寧人	-10.6458
賁	-10.646
膳	-10.6462
析置	-10.6469
府學	-10.6471
散騎常侍	-10.6471
皇清	-10.6481
黄帝	-10.6485
居官	-10.6488
改元	-10.6492
常平	-10.6493
春秋時	-10.6496
海上	-10.6496
黄龍	-10.6501
訣	-10.6502
城隍廟	-10.6509
絳州	-10.6511
公卿	-10.6511
帯	-10.6512
系	-10.6517
洙	-10.6522
六尺	-10.6523
管轄	-10.6533
為記	-10.6534
山也	-10.6535
咸寧	-10.6535
矣然	-10.654
北三十里	-10.6541
賑濟	-10.6541
㝷	-10.6549
醴泉	-10.655
其實	-10.6551
乞歸	-10.6552
伴	-10.6554
十三里	-10.6559
大名	-10.656
繆	-10.656
馨	-10.6561
文廟	-10.6561
四十八	-10.6562
北京	-10.6567
㑹昌	-10.6567
應天	-10.6567
萬户	-10.6567
數丈	-10.6569
袍	-10.657
枉	-10.657
喧	-10.6572
守志	-10.6572
幻	-10.6576
所稱	-10.6578
監司	-10.6578
舘	-10.6581
王府	-10.6582
水又東逕	-10.6584
也自	-10.6588
金城	-10.659
摇	-10.6592
東流入	-10.6593
歷	-10.6593
陽郡	-10.6594
戰死	-10.6594
乍	-10.6598
不言	-10.6599
徃來	-10.6603
雍正六年	-10.6612
無復	-10.6612
絶頂	-10.6614
藝文	-10.6618
大業	-10.6618
臘	-10.6619
張公	-10.6619
來者	-10.6619
電	-10.662
妻馬氏	-10.6622
江隂	-10.6624
馬戰兵	-10.6626
中官	-10.6629
燧	-10.663
沅	-10.6631
中知	-10.6631
百尺	-10.6634
祀典	-10.6636
婺源人	-10.6636
祭酒	-10.6636
本紀	-10.6644
人間	-10.6646
徵銀	-10.6647
徘徊	-10.665
分司	-10.6653
療	-10.6654
人萬厯	-10.6654
西岸	-10.6655
石泉	-10.666
清平	-10.6661
冇	-10.6665
開皇	-10.6669
傭	-10.6673
他日	-10.6675
水漲	-10.6677
深入	-10.6678
哀毁	-10.668
斑	-10.6681
慨然	-10.6681
以兵	-10.6682
莖	-10.6682
治水	-10.6683
字叔	-10.6687
盜賊	-10.6687
鎮江	-10.6688
其衆	-10.669
而來	-10.6694
朔州	-10.6698
國朝康熙	-10.6699
安平	-10.67
聖祖	-10.6702
之徒	-10.6702
批	-10.6703
寘	-10.6704
銀兩	-10.6705
炭	-10.6706
之初	-10.6708
之遂	-10.6716
督學	-10.6717
冡	-10.6717
甄	-10.6717
涌	-10.6718
宣德	-10.6719
元豐	-10.6721
永嘉人	-10.6723
公子	-10.6725
禦之	-10.6728
楨	-10.6729
吉林	-10.673
鼠	-10.673
里南北距	-10.673
三間	-10.6732
縮	-10.6733
邇	-10.6736
之境	-10.6737
駝	-10.6743
鳳凰	-10.6743
東岸	-10.6745
湮	-10.6746
經歴	-10.6749
官員	-10.6751
也而	-10.6755
憲宗	-10.6755
築堤	-10.6758
安樂	-10.6762
城守	-10.6769
江北	-10.6771
一十五	-10.6772
文獻	-10.6775
仁和人	-10.6775
用兵	-10.6775
授以	-10.6778
罹	-10.6783
㝠	-10.6785
本色	-10.6792
二十餘	-10.6792
黒水	-10.6792
挂	-10.6793
頑	-10.6794
郡太守	-10.6795
一尺	-10.6796
燾	-10.6796
辛未	-10.6797
總河	-10.6798
衡山	-10.6801
南接	-10.6803
邳州	-10.6807
從容	-10.6809
𣙜	-10.681
槎	-10.6813
編修	-10.6819
上虞	-10.6824
芮	-10.6826
軫	-10.6828
攘	-10.6832
守臣	-10.6835
魏書	-10.6836
因以	-10.684
磬	-10.6841
元兵	-10.6843
人進	-10.6845
磧	-10.6848
在府治	-10.685
三輔	-10.6852
以自	-10.6855
吉水人	-10.6857
橫	-10.686
萬厯中	-10.686
觀之	-10.686
鬼神	-10.6863
天聖	-10.6863
額徵	-10.6875
歉	-10.6875
共銀	-10.6876
水流	-10.6876
遺孤	-10.6886
不聽	-10.6888
粗	-10.689
西路	-10.689
寔	-10.6892
三十一年	-10.6892
瓶	-10.6892
京城	-10.6899
間任	-10.69
商賈	-10.6904
即以	-10.6905
今所	-10.6907
布拉克	-10.6907
玉山	-10.6909
鵞	-10.6911
誇	-10.6911
珣	-10.6912
金銀	-10.6912
武定	-10.6913
溯	-10.6913
亳	-10.6918
㤗	-10.6918
泓	-10.692
武進	-10.6921
叱	-10.6921
車駕	-10.6922
大師	-10.6922
皆在	-10.6927
北流入	-10.6928
州南	-10.6931
不合	-10.6931
辛丑	-10.6932
五百里	-10.6932
不容	-10.6933
治西	-10.6935
裳	-10.6936
曲江	-10.6938
支河	-10.6938
腦	-10.6939
大兵	-10.6939
交阯	-10.694
擲	-10.694
兩山	-10.6943
雍正四年	-10.6946
七百	-10.6947
祀名宦	-10.695
以歸	-10.6951
桞	-10.6954
淳熈	-10.6959
聼	-10.696
併入	-10.696
石鼓	-10.6961
自縊死	-10.6961
忻	-10.6964
叄拾	-10.6965
娥	-10.697
石頭	-10.6973
鯉	-10.6977
相度	-10.698
奉命	-10.6981
撒	-10.6984
以進	-10.6985
洛陽人	-10.6985
隂陽	-10.6986
敎諭	-10.6986
饗	-10.6986
上俱	-10.6987
庚午	-10.6989
春風	-10.699
而有	-10.6991
癸	-10.6996
被害	-10.7011
頭山	-10.7012
璟	-10.7012
布衣	-10.7013
胄	-10.7013
京口	-10.7016
時人	-10.7016
致祭	-10.702
一百六十里	-10.7023
㭍拾	-10.7027
之害	-10.7028
者即	-10.7036
驢	-10.7039
殮	-10.704
於朝	-10.7045
也若	-10.7047
而寡	-10.7048
人稱	-10.7049
軍士	-10.705
七年任	-10.7054
婺源	-10.706
後改	-10.7064
河源出	-10.7066
勛	-10.707
盂	-10.7074
認	-10.7075
窰	-10.7079
山寺	-10.7081
其黨	-10.709
西北流	-10.7093
璜	-10.7094
千古	-10.7096
鼐	-10.7102
一統志	-10.7105
劄	-10.7106
或有	-10.7108
猶有	-10.7108
縣置	-10.7109
紹定	-10.7109
舶	-10.7111
㕘政	-10.7127
或以	-10.7131
羞	-10.7133
所部	-10.7137
天柱	-10.7138
賂	-10.7138
河渠	-10.714
羮	-10.7141
者乎	-10.7143
入朝	-10.7145
通考	-10.715
濡	-10.715
曇	-10.7152
王家	-10.7152
其城	-10.7153
疏請	-10.7157
紋	-10.716
得以	-10.7164
人以為	-10.7165
戰於	-10.7165
邑之	-10.7167
將士	-10.7169
江上	-10.717
帽	-10.717
又為	-10.7171
東西二	-10.7171
年十七	-10.7172
路通	-10.7173
態	-10.7173
妻許氏	-10.7175
藪	-10.7176
地也	-10.7179
時任	-10.7185
大破之	-10.7186
三十七	-10.7186
祀宋	-10.7191
殱	-10.7195
隠居	-10.7195
五年任	-10.7198
朶	-10.7211
水出焉	-10.7214
平湖	-10.7216
之氣	-10.7219
此其	-10.722
嶴	-10.7223
同邑	-10.7225
釋之	-10.7227
塚	-10.723
招撫	-10.723
錦州	-10.7232
鄂拉	-10.7239
四千	-10.7244
湏	-10.7245
各一	-10.7246
葱	-10.7251
覲	-10.7252
救之	-10.7253
輅	-10.7255
慈谿人	-10.7258
不知其	-10.7259
潼	-10.726
肖	-10.7261
寺僧	-10.7262
職方	-10.7263
撫按	-10.7264
可為	-10.7265
之神	-10.7266
驛丞	-10.7268
鯨	-10.7273
宗時	-10.7274
聞其	-10.7274
諸書	-10.7276
卒子	-10.7278
泉水	-10.7279
煒	-10.728
饒州	-10.7281
噴	-10.7283
王師	-10.7284
以死	-10.7284
沽	-10.7285
諧	-10.7286
槽	-10.7287
錢氏	-10.7292
躋	-10.7296
嘉禾	-10.7298
之大	-10.7299
分為二	-10.7299
北入	-10.7304
三山	-10.7308
石刻	-10.7311
涕	-10.7314
元至正	-10.7315
二十餘里	-10.7315
以禮	-10.732
膝	-10.7322
宇文	-10.7322
膚	-10.7324
額外	-10.7325
家浜	-10.7326
雍正三年	-10.7326
四名	-10.7327
般	-10.7328
甦	-10.7336
入蜀	-10.7336
灼	-10.7336
注於	-10.7339
箇	-10.7345
商州	-10.7345
其民	-10.7347
故也	-10.7352
鑰	-10.7365
一千二百	-10.737
渝	-10.737
五經	-10.7372
張文	-10.7373
安福人	-10.7373
銳	-10.7374
煮	-10.7374
曲折	-10.7375
欒	-10.738
杉	-10.7383
來注之	-10.7383
自經	-10.7385
元時	-10.7386
甌	-10.7387
縣尹	-10.7393
之風	-10.7393
淀	-10.7395
有四	-10.74
不當	-10.74
一百九十	-10.7401
中式	-10.7401
鵲	-10.7404
賊至	-10.7404
於今	-10.7406
秩滿	-10.7408
璣	-10.7411
不堪	-10.7416
受命	-10.7417
其弟	-10.7423
元帥	-10.7425
技	-10.7429
中山	-10.7431
以是	-10.7434
灝	-10.7435
居士	-10.7435
於民	-10.7436
二百四十	-10.7441
在縣治	-10.7443
歸安	-10.7443
無一	-10.7445
福州	-10.7446
詩集	-10.7446
仁夀	-10.7448
皇甫	-10.7449
行至	-10.7451
鎗	-10.7453
跳	-10.7453
松山	-10.7453
髙下	-10.7457
恱	-10.7458
粲	-10.7458
定襄	-10.7458
來歸	-10.7458
紆	-10.7461
終日	-10.7465
吉州	-10.7467
厓	-10.747
入境	-10.7471
進賢	-10.7474
臺山	-10.7475
一千五百	-10.7476
關中	-10.7478
東京	-10.7482
呼為	-10.7486
囬	-10.7493
立石	-10.7494
咏	-10.7495
東逕	-10.7495
徭	-10.7499
不足以	-10.7499
五毫	-10.75
州廢	-10.7503
公孫	-10.7506
頸	-10.7507
宣化	-10.7507
六千	-10.7508
大抵	-10.7509
鹹	-10.751
乙未	-10.7512
東曰	-10.7513
遺跡	-10.7513
莘	-10.7517
其徒	-10.752
著書	-10.752
涪	-10.7524
三十四	-10.7529
安撫司	-10.7529
痕	-10.7532
舊制	-10.7532
失其	-10.7535
倦	-10.7539
君之	-10.7542
之力	-10.7545
山海經	-10.7547
鹽井	-10.7551
知縣王	-10.7552
癸酉	-10.7552
餽	-10.7555
饋	-10.7559
老子	-10.756
大雨	-10.7564
卒諡	-10.7564
南境	-10.7569
為害	-10.7574
諸國	-10.7577
以至	-10.758
鳯凰	-10.7582
縣治東	-10.7585
夏秋	-10.7587
趙氏	-10.7587
煎	-10.7588
撮	-10.7591
汎	-10.7594
八千	-10.7594
不報	-10.7597
奉天人	-10.76
甲辰	-10.7605
八尺	-10.7609
通典	-10.7609
秦始皇	-10.7609
磚	-10.7615
國子監	-10.7615
丙午	-10.7619
州屬	-10.762
君臣	-10.7622
蘇松	-10.7622
公署	-10.7623
豕	-10.7625
圻	-10.7635
穢	-10.7638
丁丑	-10.7639
温州	-10.764
治平	-10.764
有成	-10.7641
從子	-10.7645
獠	-10.765
彛	-10.7651
各官	-10.7653
覃	-10.7654
元至元	-10.7656
被殺	-10.7659
又東北逕	-10.7661
山巔	-10.7663
到任	-10.7664
岐山	-10.7666
官民	-10.7675
乃止	-10.768
西接	-10.768
琅邪	-10.7681
正黄旗	-10.7682
谷口	-10.7682
兖	-10.7684
永樂初	-10.7685
稚	-10.7687
叚	-10.7687
湖口	-10.769
濃	-10.7692
蘭州	-10.7693
顏	-10.7694
寧縣	-10.7695
西平	-10.7695
贛	-10.7696
徇	-10.7696
孀居	-10.7699
蒼梧	-10.77
閑散	-10.7704
其文	-10.7708
兔	-10.7709
蠲免	-10.7709
韓愈	-10.7709
鞠	-10.771
廣濟	-10.7711
海塘	-10.7711
都督府	-10.7714
祺	-10.7718
三原	-10.7719
糜	-10.7721
隱居	-10.7721
邕	-10.7723
四明	-10.7733
數十年	-10.7737
當年	-10.7742
拒之	-10.7743
曹州	-10.7747
春夏	-10.7749
漊	-10.7749
南直	-10.7749
杜甫	-10.775
黄水	-10.7752
山之陽	-10.7758
八名	-10.7759
之所以	-10.7761
保障	-10.7763
鵝	-10.7767
評	-10.7767
増修	-10.7768
注云	-10.7769
元帝	-10.7769
插	-10.7769
璠	-10.777
人貢生	-10.7772
海道	-10.7776
數十人	-10.7779
航	-10.7788
兵至	-10.7789
城破	-10.7793
節制	-10.7798
大義	-10.78
不竭	-10.7804
寮	-10.7808
以疾	-10.7808
五十年	-10.7811
新昌	-10.7811
一出	-10.7811
高宗	-10.7814
水道	-10.7815
民多	-10.7816
悅	-10.7817
零陵	-10.7818
杳	-10.782
定海	-10.7821
幅	-10.7821
購	-10.7826
恊	-10.7829
庇	-10.783
無人	-10.7831
中間	-10.7831
沙門	-10.7836
字公	-10.7838
在城西南	-10.7839
秦王	-10.7841
先主	-10.7848
緩急	-10.785
之文	-10.7851
於斯	-10.7859
縱横	-10.786
東路	-10.7866
寧海	-10.7867
紹興中	-10.7868
第五	-10.7876
與夫	-10.7877
志在	-10.7877
十日	-10.7878
多寡	-10.7878
瀚	-10.7879
名臣	-10.788
始興	-10.7884
厨	-10.7885
北接	-10.7885
流寇	-10.7886
丁酉	-10.7888
菩薩	-10.7889
召見	-10.789
洞天	-10.7891
昆明	-10.7891
雍正九年	-10.7895
之始	-10.7903
門四	-10.7907
李公	-10.7907
延袤	-10.7908
耳目	-10.7911
麻城人	-10.7912
各省	-10.7915
涇陽	-10.7916
箴	-10.7916
郵	-10.7917
凍	-10.7917
曰是	-10.7924
未可	-10.7927
禪院	-10.7931
煉	-10.7933
代州	-10.7933
相近有	-10.7934
五行	-10.7936
慘	-10.7937
以成	-10.7938
益都	-10.794
楠	-10.7941
化為	-10.7941
努	-10.7943
象山	-10.7944
稔	-10.7945
西魏	-10.7947
屯兵	-10.7949
海州	-10.7952
萌	-10.7953
故宅	-10.7953
不少	-10.7955
三十八	-10.7956
四尺	-10.7957
庚辰	-10.7958
不死	-10.7962
巽	-10.7963
祀明	-10.7965
藁	-10.7971
冬十月	-10.7972
邠	-10.7972
參議	-10.7974
武安	-10.7974
塞外	-10.7975
迂	-10.7975
未至	-10.7975
年十六	-10.7975
殫	-10.7976
陜州	-10.7977
矣而	-10.7981
漢書地理志	-10.7982
惟有	-10.7983
千年	-10.7984
寺觀	-10.7985
舊縣	-10.7985
襄城	-10.7987
立為	-10.7987
轉運	-10.7987
者乃	-10.7988
欲以	-10.7988
五十五里	-10.7991
舊通志	-10.7994
妻陸氏	-10.7996
太師	-10.7996
武徳	-10.8002
碣	-10.8002
初建	-10.8003
捲	-10.8004
峴	-10.8008
脂	-10.8011
水門	-10.8011
澧	-10.8012
不止	-10.8015
金壇	-10.8017
州北	-10.8019
承天	-10.8022
把總一員	-10.8024
䑕	-10.8025
戊午	-10.8026
五臺	-10.8028
入淮	-10.803
知縣張	-10.8031
單騎	-10.804
清溪	-10.8042
台吉	-10.8044
三十三	-10.8045
妻高氏	-10.8047
以告	-10.8048
洎	-10.8049
主人	-10.805
蕪湖	-10.805
澤州	-10.805
僑	-10.805
四人	-10.8051
號泣	-10.8054
之前	-10.8054
十餘丈	-10.8055
建置沿革	-10.8056
雲陽	-10.8062
諸子	-10.8071
三十二年	-10.8074
恂	-10.8074
不仕	-10.8076
水又	-10.8077
内附	-10.8077
冐	-10.8079
北境	-10.8079
又西北	-10.808
暘	-10.8081
考之	-10.8081
十年任	-10.8082
在郡	-10.8085
無敢	-10.809
邠州	-10.8091
白居易	-10.8091
以次	-10.8093
臨海人	-10.8093
陵縣	-10.8095
罵賊	-10.8095
初置	-10.8097
汾水	-10.8103
過此	-10.8107
千餘人	-10.8111
年七十	-10.8121
鄉薦	-10.8125
壮	-10.8128
祠廟	-10.8128
巨石	-10.813
七十五里	-10.8132
三省	-10.8136
之孫	-10.8137
擢御史	-10.8138
茗	-10.8138
其處	-10.814
癸丑	-10.8142
崧	-10.8142
復以	-10.8143
王元	-10.8144
改設	-10.8146
大觀	-10.8147
止長	-10.8148
叅將	-10.8149
之舊	-10.815
括地志	-10.815
俗傳	-10.8151
琪	-10.8152
妻潘氏	-10.8153
不克	-10.8153
正統間	-10.8154
可也	-10.8157
汙	-10.8159
刑部	-10.8159
珂	-10.8162
弋陽	-10.8165
劫	-10.8167
蜿蜒	-10.8171
金石	-10.8173
故有	-10.8174
未必	-10.8176
之使	-10.8177
合浦	-10.8177
者又	-10.818
等項	-10.8181
苛	-10.8181
挈	-10.8182
馬頭	-10.8183
成化中	-10.8184
曩	-10.8185
筍	-10.8185
柘	-10.8186
墅	-10.8186
得一	-10.8188
論語	-10.8189
<	-10.8189
林木	-10.8189
="33"/>	-10.8189
t	-10.8189
寺前	-10.8192
中和	-10.8194
普安	-10.8197
浮梁	-10.8198
草堂	-10.8201
安東	-10.8204
者三	-10.8205
許字	-10.8207
譌	-10.8207
世職	-10.8209
煜	-10.8211
曲沃	-10.8213
生於	-10.8214
太傅	-10.8215
陌	-10.8217
鎮海	-10.822
十數	-10.8221
之家	-10.8223
安州	-10.823
而復	-10.823
梁州	-10.8231
漳水	-10.8231
兀	-10.8237
竭力	-10.8237
縣治西	-10.8237
海潮	-10.824
濛	-10.824
蒲州	-10.8242
事姑	-10.8245
水源出	-10.8247
周易	-10.8248
引水	-10.8249
家港	-10.8251
臨川人	-10.8253
凡三	-10.8257
寧夏	-10.8262
仙居	-10.8264
興安	-10.8271
建平	-10.8276
林寺	-10.828
起兵	-10.8283
攬	-10.8284
不動	-10.8284
鏤	-10.8286
所出	-10.8288
不盡	-10.8291
刑部尚書	-10.8291
二百二十	-10.8293
不識	-10.8294
在縣治西	-10.8295
為患	-10.8301
諸路	-10.8302
之禮	-10.8304
二三	-10.8304
先賢	-10.8304
北二十里	-10.8309
四十二	-10.8311
謂其	-10.8316
富貴	-10.8322
實徴	-10.8322
水溢	-10.8324
可得	-10.8325
四十九	-10.8328
永福	-10.8328
夏四月	-10.8331
巘	-10.8333
在州西南	-10.8333
雁門	-10.8335
呉越	-10.8336
朽	-10.8338
禮部侍郎	-10.8339
一門	-10.8341
男子	-10.8343
建德	-10.8347
三十九	-10.8349
綂	-10.8349
彭澤	-10.8351
曦	-10.8352
挿	-10.8354
丙辰	-10.8356
有惠政	-10.8358
改今額	-10.8359
神武	-10.836
子曰	-10.8361
弱冠	-10.8362
袁州	-10.8363
文王	-10.8364
人性	-10.8365
明季	-10.8366
以時	-10.8369
攻城	-10.8369
處州	-10.837
汾陽	-10.8373
千餘里	-10.8375
宣帝	-10.8381
平章	-10.8381
右翼	-10.8382
正殿	-10.8384
移治	-10.8384
嘗為	-10.8384
淇	-10.8384
下車	-10.8386
奉詔	-10.8386
石上	-10.8387
艘	-10.839
時稱	-10.839
仁義	-10.839
副都統	-10.839
及其	-10.8393
渥	-10.8394
泰和人	-10.8397
薰	-10.8398
非也	-10.8401
不事	-10.8401
宣慰司	-10.8402
濓	-10.8404
左翼	-10.8409
閤	-10.841
平之	-10.8413
瀘州	-10.8414
甲戌	-10.8415
方山	-10.8416
祖宗	-10.8417
南渡	-10.8418
交趾	-10.8423
丙戌	-10.8426
洪武間	-10.843
鹵	-10.843
合肥人	-10.8432
北平	-10.8436
軍中	-10.8436
福山	-10.8437
壻	-10.844
不已	-10.844
伯克	-10.8441
引河	-10.8441
雲山	-10.8443
腸	-10.8443
升為	-10.8446
通行	-10.8446
玉泉	-10.8447
澇	-10.8447
給事	-10.845
其説	-10.8451
兩河	-10.8452
盩厔	-10.8452
佛寺	-10.8452
荆門	-10.8453
軍事	-10.8455
嘉興人	-10.8455
義學	-10.8457
難以	-10.8459
撫子	-10.8459
附近	-10.8462
押	-10.8466
萬物	-10.8467
字景	-10.8468
鏜	-10.8472
壕	-10.8472
入河	-10.8476
飬	-10.8477
天成	-10.8479
以禦	-10.8481
廣平	-10.8483
週	-10.8483
宋元	-10.8486
題名	-10.8486
代之	-10.8488
隋書	-10.8489
聖賢	-10.8489
行臺	-10.8491
暹	-10.8491
泰定	-10.8492
女子	-10.8492
蹕	-10.8493
鳬	-10.8494
瑤	-10.8494
隋開皇	-10.8499
固守	-10.8501
洛水	-10.8503
纓	-10.8504
扉	-10.8504
弭	-10.8505
一千一百	-10.8509
城門	-10.851
淮揚	-10.8513
也乃	-10.8514
漢為	-10.8516
連山	-10.8517
所云	-10.852
人情	-10.852
後復	-10.8522
寧都	-10.8524
三楹	-10.8526
上元人	-10.8527
妻金氏	-10.8527
潁川	-10.8527
撓	-10.8528
等因	-10.8528
三代	-10.8528
蹤	-10.8538
縣故城	-10.8538
觜	-10.8539
鵠	-10.8541
之罪	-10.8541
隋書地理志	-10.8542
四丈	-10.8545
鬚	-10.8545
公事	-10.8547
長江	-10.8549
又於	-10.855
三年任	-10.8551
明堂	-10.8552
寕州	-10.8552
次子	-10.8553
夭	-10.8554
劔	-10.8559
江夏人	-10.8559
南詔	-10.856
武城	-10.8561
之右	-10.8565
憫	-10.8565
在此	-10.8567
工部侍郎	-10.8569
修撰	-10.8569
秋七月	-10.8573
終不	-10.8573
以安	-10.8574
獅	-10.8577
夫婦	-10.8579
又置	-10.8589
礪	-10.859
售	-10.8591
遁去	-10.8591
以西	-10.8593
監軍	-10.8594
套	-10.8594
掣	-10.8595
閎	-10.8595
丹徒	-10.8598
奄	-10.8602
歆	-10.8607
諸葛亮	-10.8607
剥	-10.8607
醜	-10.8608
二百餘里	-10.861
李白	-10.8613
四年任	-10.8616
天祐	-10.8618
冝	-10.8619
鑲紅旗	-10.862
滄州	-10.8621
傳云	-10.8621
殯	-10.8626
戊戌	-10.8627
瀕	-10.8628
徙居	-10.8629
長者	-10.863
東門外	-10.8631
叶	-10.8631
江陵人	-10.8631
家灣	-10.8633
上海	-10.8633
入為	-10.8636
輟	-10.8637
江浙	-10.8638
遇閏加銀	-10.864
以身	-10.8643
引兵	-10.8647
簫	-10.8647
凢	-10.8648
對峙	-10.8648
百步	-10.865
一月	-10.865
四萬	-10.8653
雍正元年	-10.8654
親王	-10.8656
襃	-10.8657
順徳人	-10.8659
方輿勝覽	-10.8662
徴銀	-10.8663
二日	-10.8663
一十二	-10.8664
安陸	-10.8664
拆	-10.8665
六十五里	-10.8666
烹	-10.8667
不可不	-10.8669
耀州	-10.867
綰	-10.8673
疏濬	-10.8673
嚕	-10.8678
峝	-10.868
白龍	-10.8682
横山	-10.8684
贏	-10.8685
之書	-10.8688
棹	-10.8689
戊辰	-10.8689
統志	-10.869
上海人	-10.869
無他	-10.8691
興工	-10.8693
之衆	-10.8693
浮圖	-10.8696
題請	-10.8697
髻	-10.8697
大敗	-10.8698
賜號	-10.87
賦役	-10.8702
太監	-10.8705
六經	-10.8705
考證	-10.8706
有龍	-10.8706
遇賊	-10.8707
雲氣	-10.8707
逓	-10.8709
鹽官	-10.871
逞	-10.8711
竦	-10.8712
泉州	-10.8713
清泉	-10.8715
蒿	-10.8716
百五十里	-10.8717
其罪	-10.8719
曲阜	-10.872
所殺	-10.8725
官知縣	-10.8728
相應	-10.873
以孝聞	-10.873
二百八十	-10.8734
稠	-10.8736
遣官	-10.8737
百餘人	-10.8737
與其	-10.8737
慢	-10.8738
妻曹氏	-10.874
直抵	-10.8741
陣亡	-10.8742
穗	-10.8743
仆	-10.8743
忿	-10.8745
太平興國	-10.8747
自稱	-10.8748
達於	-10.8749
南五里	-10.8751
遂安	-10.8751
祀鄉賢	-10.8751
一路	-10.8755
之美	-10.876
刁	-10.8761
甓	-10.8761
側有	-10.8767
徽宗	-10.8768
沱	-10.877
武宗	-10.8772
者如	-10.8772
景祐	-10.8776
教子	-10.8781
詣闕	-10.8781
以居	-10.8782
門下	-10.8782
殿前	-10.8785
山林	-10.8788
三十餘	-10.8789
昌黎	-10.8789
真君	-10.8791
縉雲	-10.8791
迤	-10.8794
郃陽	-10.8795
裒	-10.8795
永定	-10.8795
豐縣	-10.8798
春正月	-10.8799
建祠	-10.88
芻	-10.8802
東接	-10.8803
腐	-10.8804
萬頃	-10.8805
少保	-10.8807
十一年任	-10.8807
菱	-10.8809
琬	-10.8809
禱雨	-10.8811
駒	-10.8811
之衝	-10.8813
三司	-10.8818
蟬	-10.8818
有差	-10.8823
海運	-10.8823
針	-10.8827
門人	-10.8828
安西	-10.8832
瓘	-10.8834
吳王	-10.8835
衢州	-10.8836
蒲城	-10.8837
矢志	-10.884
之區	-10.8841
河上	-10.8842
矣今	-10.8842
鞍	-10.8844
里有	-10.8846
牖	-10.8848
南豐	-10.8849
瘞	-10.8853
譏	-10.8853
床	-10.8854
太倉人	-10.8858
亦謂之	-10.8859
求之	-10.8861
涂	-10.8862
孫氏	-10.8863
八年任	-10.8863
猾	-10.8863
餅	-10.8865
疆域	-10.8865
南旺	-10.8866
嘉之	-10.8867
旻	-10.8868
清流	-10.887
者非	-10.887
石梁	-10.8874
兌	-10.8874
諸縣	-10.8876
鄉民	-10.8878
鄧州	-10.8879
一家	-10.8879
大寧	-10.8882
使之	-10.8884
若此	-10.8884
卦	-10.8887
戊	-10.8888
前代	-10.8888
復有	-10.8889
精舍	-10.889
王國	-10.889
和州	-10.889
一體	-10.8891
髙郵	-10.8894
未知	-10.8899
餘黨	-10.8899
單于	-10.8901
貳千	-10.8902
瘴	-10.8902
以奉	-10.8908
經理	-10.8908
第四	-10.891
王廷	-10.891
東川	-10.8911
豈非	-10.8913
以東	-10.8914
以給	-10.8914
登臨	-10.8921
龜兹	-10.8922
西來	-10.8922
三十八年	-10.8923
迤邐	-10.8925
三載	-10.8927
兵部侍郎	-10.8927
四卷	-10.8927
在府城内	-10.8928
歴代	-10.893
祕	-10.8931
縣儒學	-10.8935
便宜	-10.8937
褐	-10.8937
上林	-10.8938
丁銀	-10.8938
制度	-10.8946
民皆	-10.8947
至則	-10.895
風吹	-10.895
縫	-10.895
州判	-10.8951
营	-10.8951
大饑	-10.8952
山莊	-10.8954
西門外	-10.8956
越州	-10.8958
翁姑	-10.8958
孝武	-10.8961
廣寧	-10.8965
▁以上	-10.8965
始於	-10.8965
徙治	-10.8967
十二年任	-10.8967
四十四	-10.8968
少年	-10.8973
廷臣	-10.8974
開墾	-10.8976
笛	-10.898
其意	-10.8981
特穆爾	-10.8984
奉使	-10.8985
臨晉	-10.8985
氐	-10.8991
蒙古	-10.8997
南五十里	-10.8997
皂	-10.8998
祉	-10.9
鋤	-10.9002
竺	-10.9003
一毫	-10.9004
千户所	-10.9007
兇	-10.9007
泌	-10.9011
濟水	-10.9011
兎	-10.9013
常有	-10.9018
帝時	-10.9019
西三十里	-10.9025
不屈死	-10.9026
在州東南	-10.9032
妻姚氏	-10.9033
大明	-10.9035
吏部侍郎	-10.9035
三十餘年	-10.9037
腴	-10.9037
倅	-10.9038
麗水	-10.9038
所經	-10.9042
以故	-10.9044
桂林	-10.9047
田賦	-10.9048
之術	-10.9048
教之	-10.905
自給	-10.9051
在大	-10.9052
紫陽	-10.9053
修復	-10.9053
廸	-10.9054
文明	-10.9055
衣食	-10.9055
遷於	-10.9056
故地	-10.9058
闌	-10.9058
卯	-10.9061
人貢士	-10.9062
及卒	-10.9062
丁未	-10.9065
璿	-10.9067
肅然	-10.9068
拾遺	-10.9068
今改	-10.9071
久矣	-10.9072
之路	-10.9074
愿	-10.9074
具題	-10.9075
德州	-10.9076
𤼵	-10.9076
嵗時	-10.9078
潢	-10.9079
言其	-10.9079
豈可	-10.9079
北七十里	-10.908
忠節	-10.908
民有	-10.9085
漕渠	-10.9094
三十五年	-10.9094
潼闗	-10.9097
福寺	-10.9098
撫臣	-10.9102
鄉縣	-10.9102
錠	-10.9105
丸	-10.9108
陡	-10.911
戾	-10.911
大中祥符	-10.9114
斫	-10.9118
妥	-10.9119
嵗月	-10.9121
九日	-10.9122
訂	-10.9122
副榜	-10.9122
執政	-10.9123
周文	-10.9125
所見	-10.9128
始皇	-10.9131
王安石	-10.9134
七千	-10.9134
迄今	-10.9135
人嵗貢	-10.914
吏目	-10.9145
帷	-10.9147
九州	-10.9147
問之	-10.9148
南二十里	-10.9148
疫	-10.915
泮	-10.9154
無可	-10.9156
蜂	-10.9158
七十五	-10.9163
度支	-10.9163
數十萬	-10.9166
瑋	-10.9166
外委	-10.9168
海陽人	-10.917
古文	-10.9171
一面	-10.9172
琢	-10.9172
永樂間	-10.9176
戰國	-10.9176
分别	-10.9177
偹	-10.9183
忠烈	-10.9184
戀	-10.9186
梓潼	-10.9186
其心	-10.9188
郡國	-10.9188
開河	-10.9189
祔	-10.919
丁亥	-10.9191
山一名	-10.9192
奏議	-10.9192
惇	-10.9201
濟源	-10.9201
澗水	-10.9204
寧逺	-10.9205
有才	-10.9206
不朽	-10.9213
生平	-10.9215
孫權	-10.9216
人物志	-10.9218
拙	-10.9221
三百六十	-10.9222
秋風	-10.9222
之流	-10.9222
因以名	-10.9225
迭	-10.9231
)□(	-10.9231
龍洞	-10.9232
以北	-10.9233
字君	-10.9233
同官	-10.9233
梅花	-10.9237
安民	-10.9239
原設	-10.9244
妻葉氏	-10.9247
鄭州	-10.9249
雖然	-10.925
十餘萬	-10.925
方畧	-10.9251
復設	-10.9253
一千三百	-10.9253
合肥	-10.9254
南下	-10.9254
薦之	-10.9254
其流	-10.9255
慚	-10.9258
一十四	-10.9258
折銀	-10.9261
在任	-10.9263
琉璃	-10.9266
南向	-10.9267
東為	-10.927
數人	-10.927
樂清	-10.9271
其源	-10.9273
成之	-10.9275
軍務	-10.9277
雍正十年	-10.9277
臨淄	-10.928
新豐	-10.9281
世謂之	-10.9281
廼	-10.9283
洞中	-10.9284
奉化	-10.9284
馮翊	-10.9289
甯	-10.929
二年任	-10.929
武侯	-10.9293
丹徒人	-10.9294
歸附	-10.9294
僖	-10.9294
無算	-10.9295
西溪	-10.9295
瓌	-10.9296
匱	-10.9296
羅山	-10.9297
醒	-10.9297
四百里	-10.9297
大溪	-10.9298
肆分	-10.9299
姑蘇	-10.9301
之理	-10.9303
華隂	-10.9306
所建	-10.9306
立碑	-10.9307
都指揮	-10.9308
塍	-10.9308
之弟	-10.9309
部郎中	-10.9309
婺州	-10.9309
土産	-10.931
亥	-10.9312
鑲白旗	-10.9313
汧	-10.932
蟻	-10.932
今裁	-10.9321
不改	-10.9324
䝉古語	-10.9324
三名	-10.9325
東湖	-10.9326
五人	-10.9329
北地	-10.933
閬	-10.9331
媚	-10.9331
珩	-10.9331
淩	-10.9332
翦	-10.9333
台州府志	-10.9335
聞而	-10.9337
正藍旗	-10.9347
慈谿	-10.9347
衝決	-10.9349
彝	-10.9349
磴	-10.9353
東行	-10.9356
賴之	-10.9356
囂	-10.9358
州學	-10.9359
不倦	-10.9361
流涕	-10.9361
捍禦	-10.9362
功臣	-10.9362
諸部	-10.9363
以南	-10.9366
庶吉士	-10.9367
酷	-10.9367
所據	-10.9368
甲寅	-10.9371
所轄	-10.9372
鑲黄旗	-10.9372
有水	-10.9373
大者	-10.9373
部尚書	-10.9375
湫	-10.9378
竣	-10.9378
流出	-10.9382
輓	-10.9382
大成	-10.9382
皷	-10.9383
饌	-10.9384
大厯	-10.9384
一十六	-10.9388
幢	-10.9388
正徳間	-10.9389
白日	-10.9392
穰	-10.9393
妨	-10.9396
氛	-10.9396
嵗貢	-10.9397
偷	-10.9398
苞	-10.9399
山多	-10.9399
峯巒	-10.94
力學	-10.9403
賴以	-10.9405
妻林氏	-10.9405
偈	-10.9406
水源	-10.9409
人夫亡	-10.9411
蘄	-10.9416
羣山	-10.9418
飲酒	-10.9419
崇禎間	-10.9419
事舅姑	-10.942
江流	-10.9422
書曰	-10.9426
秦漢	-10.9428
勸農	-10.9429
百餘丈	-10.9429
決口	-10.9429
東三十里	-10.943
進士知	-10.943
匝	-10.9433
籬	-10.9434
旂	-10.9436
虬	-10.9437
蕙	-10.9437
來朝	-10.9438
南平	-10.9443
殖	-10.9448
嘉靖初	-10.9451
鎮撫	-10.9457
宣宗	-10.9457
陽江	-10.9458
我朝	-10.9464
建中	-10.9468
四十六	-10.9472
海寧	-10.9472
瑕	-10.9472
皋	-10.9474
侍衛	-10.9475
所為	-10.9475
燮	-10.9476
岷	-10.9477
庚戌	-10.948
液	-10.9484
存焉	-10.9484
為郡	-10.9485
鳳陽	-10.9487
新淦	-10.9488
分界	-10.9489
縣為	-10.949
姊	-10.9491
二年置	-10.9492
熈寧	-10.9493
爪	-10.9495
曙	-10.9502
甎	-10.9503
佟	-10.9503
教化	-10.9504
河身	-10.9504
鶚	-10.9505
土城	-10.9509
琅	-10.951
昌平	-10.9513
再拜	-10.9515
南門外	-10.9516
建元	-10.9518
紗	-10.9523
帝王	-10.9524
後唐	-10.9524
薫	-10.9525
三百餘里	-10.9527
𨗳	-10.9527
兵備道	-10.9528
昌縣	-10.9532
復曰	-10.9532
岳陽	-10.9533
國也	-10.9534
先登	-10.9542
鄜州	-10.9542
𢎞治間	-10.9545
江寧人	-10.9546
長官	-10.9548
分兵	-10.9552
湖中	-10.9552
餘里	-10.9552
又自	-10.9553
汰	-10.9554
於海	-10.9557
拖	-10.9558
故其	-10.9559
無考	-10.9559
别有	-10.9561
題旌冊	-10.9562
鎮南	-10.9563
師曰	-10.9563
京兆尹	-10.9565
中州	-10.9566
在城東北	-10.9567
荒蕪	-10.9569
語曰	-10.957
兩四錢	-10.9575
擕	-10.9575
分巡	-10.9575
後主	-10.9576
雲夢	-10.9577
實為	-10.9577
新都	-10.9579
安陽	-10.9581
牘	-10.9582
各州縣	-10.9585
之政	-10.9586
伍釐	-10.9586
糶	-10.9587
閫	-10.9587
惕	-10.9588
其前	-10.9588
性至孝	-10.9589
内除	-10.9591
入貢	-10.9591
得失	-10.9593
源自	-10.9593
贓	-10.9594
相率	-10.9595
重之	-10.9596
莒	-10.9597
窄	-10.9602
接界	-10.9602
召還	-10.9602
樽	-10.9603
馥	-10.9603
珏	-10.9604
七尺	-10.9604
南四十里	-10.9606
言者	-10.9608
敎授	-10.9609
之左	-10.9609
流民	-10.961
賊怒	-10.9612
天寳	-10.9615
其門	-10.9618
忻州	-10.9624
冗	-10.9624
孕	-10.9625
功徳	-10.9627
府同知	-10.9627
萬一	-10.9628
芹	-10.9629
安吉	-10.963
寳應	-10.963
仞	-10.9633
加意	-10.9633
流寓	-10.9633
三年建	-10.9633
泣曰	-10.9635
亳州	-10.9635
番禺	-10.9642
去後	-10.9647
不欲	-10.9648
在城東南	-10.965
夕陽	-10.965
寖	-10.9651
相國	-10.9652
搏	-10.9654
两	-10.9654
妻謝氏	-10.9656
李文	-10.9658
夜郎	-10.9659
榛	-10.9665
汭	-10.9666
數千人	-10.9668
睢州	-10.9669
輕重	-10.9669
鷗	-10.967
和州人	-10.9672
猶未	-10.9673
大安	-10.9675
夏人	-10.9678
清源	-10.9678
止之	-10.9679
咽喉	-10.9681
忱	-10.9683
泳	-10.9683
神祠	-10.9684
孝經	-10.9685
不獲	-10.9687
􁇢	-10.9687
徳化	-10.9689
遯	-10.9689
持節	-10.969
築室	-10.9691
險要	-10.9692
其志	-10.9693
吳淞江	-10.9695
字彦	-10.9696
西二十里	-10.9696
河橋	-10.9698
長春	-10.9698
松潘	-10.9701
炊	-10.9703
乙丑	-10.9703
曼	-10.9704
隰	-10.9704
注于	-10.9705
元年建	-10.9707
舉於鄉	-10.9709
二郡	-10.9709
笑曰	-10.971
鹽池	-10.971
不待	-10.9712
艮	-10.9713
荅	-10.9713
各縣	-10.9715
氊	-10.9715
家溝	-10.9716
以詩	-10.9718
富順	-10.972
三十三年	-10.972
木蘭	-10.972
孝感	-10.9723
之異	-10.9725
𬒳	-10.9726
諡忠	-10.9726
肆百	-10.9728
社學	-10.9731
兩廡	-10.9731
規模	-10.9732
壹分	-10.9733
湧出	-10.9734
靈臺	-10.9735
當世	-10.9741
十三年任	-10.9741
而至	-10.9745
家山	-10.9745
妻方氏	-10.9747
領縣	-10.9749
二府	-10.975
尖山	-10.9751
諸公	-10.9751
移於	-10.9752
犍為	-10.9754
洮	-10.9757
霍山	-10.9761
己酉	-10.9763
大道	-10.9766
阿爾	-10.9766
彭蠡	-10.9777
正白旗	-10.9779
在州西北	-10.9781
廣南	-10.9783
鹽課	-10.9784
安化	-10.9785
尚未	-10.9785
為侯國	-10.9786
知縣李	-10.9787
太極	-10.9787
以獻	-10.9791
者悉	-10.9796
真定	-10.9796
大學	-10.9799
布哈	-10.98
潁州	-10.9801
陽武	-10.9801
大庾	-10.9802
始終	-10.9806
刪	-10.9809
蹙	-10.981
有神	-10.9811
東宫	-10.9812
委官	-10.9812
則又	-10.9813
蠻夷	-10.9814
西境	-10.9815
之交	-10.9815
峭壁	-10.9815
我皇上	-10.9816
之說	-10.9821
婦女	-10.9823
秦檜	-10.9826
參差	-10.9827
卭	-10.9828
而不知	-10.9832
澆	-10.9835
第十	-10.9835
告歸	-10.9836
四字	-10.9836
不甚	-10.9836
不測	-10.9838
渦	-10.984
愛之	-10.9843
妻馮氏	-10.9844
炬	-10.9848
泖	-10.9854
一支	-10.9857
夫殁	-10.9858
湖山	-10.986
不致	-10.986
又改	-10.9864
鶯	-10.9866
河又	-10.9867
肆拾	-10.9867
記之	-10.9868
其妻	-10.9869
㕘議	-10.9869
屹	-10.9871
大統	-10.9872
有白	-10.9873
呉興	-10.9874
厄	-10.9875
久廢	-10.9876
無遺	-10.9876
巫山	-10.9886
察罕	-10.9886
之議	-10.9886
之半	-10.989
蕭然	-10.9892
注之	-10.9896
而終	-10.9896
己丑	-10.9898
中書令	-10.9899
慙	-10.9899
大罵	-10.99
齧	-10.9902
南郡	-10.9903
合於	-10.9904
鄖	-10.9904
在府西	-10.9904
興平	-10.9905
至京師	-10.9906
興學	-10.9906
西城	-10.9907
此水	-10.9907
法師	-10.9911
劵	-10.9912
北魏	-10.9913
形似	-10.9915
江中	-10.9919
巴爾	-10.9919
一則	-10.9919
靡不	-10.9921
翀	-10.9923
隆興	-10.9923
楞	-10.9924
九年任	-10.9924
若有	-10.9926
桐鄉	-10.9926
北四十里	-10.9926
溧水	-10.9927
悞	-10.9927
嶺下	-10.9928
提學	-10.9929
徃徃	-10.993
瑗	-10.993
丙申	-10.9931
嘉靖浙江通志	-10.9934
安慶	-10.9936
始建	-10.9936
陸分	-10.9941
浹	-10.9943
洩水	-10.9943
户部尚書	-10.9943
若不	-10.9944
沂州	-10.9947
兼管	-10.9949
潮州	-10.9955
里源出	-10.9956
嘗有	-10.9958
正紅旗	-10.9963
不知所	-10.9964
真宗	-10.9964
溺死	-10.9965
壬寅	-10.9966
太平寰宇記	-10.9967
於此置	-10.9969
數千里	-10.9969
舊唐書	-10.997
制置使	-10.997
軰	-10.997
明道	-10.9971
不可得	-10.9973
崇仁	-10.9973
支流	-10.9975
洪州	-10.9979
惰	-10.998
經厯	-10.998
組	-10.9982
釁	-10.9982
東二十里	-10.9989
作詩	-10.9993
十七里	-10.9996
與兄	-10.9999
南六十里	-10.9999
隄岸	-11
宿遷	-11.0001
聿	-11.0007
光明	-11.001
冥	-11.0011
廵按	-11.0012
乖	-11.0012
複	-11.0012
之遺	-11.0013
龍川	-11.0016
本末	-11.0018
妻宋氏	-11.0018
臨淮	-11.0022
始置	-11.0022
鉅野	-11.0024
龜山	-11.0025
不常	-11.0025
秀水	-11.0027
翰林院	-11.0031
何為	-11.0035
覔	-11.0036
明經	-11.0036
大梁	-11.0037
睡	-11.004
瑞安	-11.0041
商人	-11.0041
隴州	-11.0043
峯山	-11.0045
矣其	-11.0046
歸徳	-11.0049
南二里	-11.0049
古者	-11.0051
潼關	-11.0051
之例	-11.0053
懸崖	-11.0053
鑲藍旗	-11.0054
參將	-11.0055
郴	-11.0059
全活	-11.0059
宸濠	-11.0062
隐	-11.0065
子山	-11.0065
慿	-11.0066
落成	-11.0067
人力	-11.0068
萬八千	-11.007
大石	-11.007
可見	-11.0071
企	-11.0071
不問	-11.0072
長吏	-11.008
麒	-11.0082
故縣	-11.0082
貧民	-11.0082
真觀	-11.0084
東南流入	-11.0085
圈	-11.0086
四十五年	-11.0086
為諸生	-11.0087
風流	-11.0088
於江	-11.009
二十卷	-11.009
生民	-11.0092
郡之	-11.0093
踈	-11.0094
六年任	-11.0095
漢末	-11.0099
三毫	-11.0099
始得	-11.0102
丨	-11.0106
不若	-11.0107
永清	-11.0107
廬州	-11.0109
於前	-11.0109
左氏	-11.011
兖州	-11.0113
諸王	-11.0114
夫役	-11.0114
方輿	-11.0114
唐置	-11.0116
邵武	-11.0117
不聞	-11.0119
慨	-11.0119
又按	-11.0119
嘉其	-11.0123
相見	-11.0123
東向	-11.0123
名為	-11.0124
五十四	-11.0125
水上	-11.0127
熙寕	-11.0127
一十八	-11.0129
約束	-11.0129
廹	-11.0132
謡	-11.0132
鎻	-11.0132
其俗	-11.0136
蕭山	-11.0136
為縣	-11.0138
蜀郡	-11.014
增修	-11.014
天寶	-11.014
之女	-11.014
思之	-11.0142
無恙	-11.0146
呉縣人	-11.0147
舊治	-11.0149
無益	-11.0149
南通	-11.015
不載	-11.015
折色	-11.0151
魚臺	-11.0152
紹聖	-11.0154
或謂	-11.0154
以上俱	-11.0155
端平	-11.0158
淸	-11.0161
黄浦	-11.0163
纒	-11.0167
寺有	-11.0171
綿亘	-11.0171
上自	-11.0174
路總管	-11.0177
宋初	-11.0178
三峯	-11.0178
東安	-11.0183
之乃	-11.0183
旬日	-11.0184
誓不	-11.0186
成都府	-11.0188
颺	-11.0188
寺後	-11.019
流冦	-11.0191
風濤	-11.0191
巨浸	-11.0192
夏侯	-11.0197
子女	-11.0198
翹	-11.02
戯	-11.02
貴溪	-11.0203
餘干	-11.0204
䕶軍	-11.0204
明成化	-11.0206
曰君	-11.0208
指揮使	-11.0208
乾坤	-11.0209
畵	-11.0209
五名	-11.0211
陳州	-11.0212
趙州	-11.0214
慟	-11.0215
砲	-11.0216
洞口	-11.0217
四十二年	-11.0217
太原府	-11.0221
在舊	-11.0222
江海	-11.0223
九曲	-11.0225
奏聞	-11.0226
懽	-11.0226
侣	-11.0227
十四年任	-11.0227
何所	-11.0229
之門	-11.0231
武王	-11.0231
是故	-11.0232
石為	-11.0232
太廟	-11.0232
左營	-11.0234
之命	-11.0236
唐貞觀	-11.0238
實錄	-11.0238
等銀	-11.0245
多方	-11.0248
其他	-11.0249
廣漢	-11.025
四十一年	-11.0251
南方	-11.0251
即日	-11.0254
胸	-11.0254
縣界一百	-11.0255
水東	-11.0257
范仲淹	-11.026
薊州	-11.026
瀝	-11.0262
車馬	-11.0263
翅	-11.0265
白河	-11.0266
一巻	-11.0267
祭祀	-11.0267
畦	-11.0268
鍾山	-11.0269
人夫亡守節	-11.0269
其身	-11.027
蹇	-11.027
廬陵人	-11.027
盪	-11.027
城也	-11.027
東阿	-11.0271
烏程人	-11.0271
恰	-11.0272
謚	-11.0273
自守	-11.0276
戸部	-11.0279
尋改	-11.028
滚	-11.0281
摹	-11.0281
𤣥宗	-11.0282
簇	-11.0283
肅宗	-11.0284
翥	-11.0285
窻	-11.0285
富民	-11.0287
此則	-11.0288
一錢	-11.0288
英宗	-11.0289
赤城	-11.0292
棧	-11.0293
入山	-11.0294
在城西北	-11.0294
殺其	-11.0295
元年改	-11.0297
四書	-11.0302
鈴	-11.0308
餌	-11.0308
所司	-11.0309
纘	-11.0313
上源	-11.0314
捌分	-11.0318
乙亥	-11.0318
達巴	-11.0319
十七年任	-11.0319
等州	-11.032
世之	-11.0321
建議	-11.0322
鄠縣	-11.0323
魄	-11.0325
褚	-11.0325
自西	-11.0326
軼	-11.0326
列女	-11.0327
萬夀	-11.0328
横塘	-11.0328
天池	-11.0331
涪州	-11.0332
𥙷	-11.0336
酈	-11.0336
城隍	-11.0338
而又	-11.0339
屬之	-11.034
侍御	-11.0341
在州治	-11.0347
罷歸	-11.0347
妻羅氏	-11.0349
百人	-11.0349
安志	-11.035
用事	-11.035
己亥	-11.0352
貿易	-11.0354
為之記	-11.0354
乾元	-11.0357
青城	-11.0361
於時	-11.0362
之聲	-11.0364
牡丹	-11.0366
不自	-11.0366
紿	-11.0367
四十三	-11.0369
主之	-11.037
十五日	-11.037
牕	-11.037
妻錢氏	-11.0371
合而	-11.0372
武德	-11.0373
綱目	-11.0373
上方	-11.0375
盡孝	-11.0379
定逺	-11.0381
所當	-11.0382
不時	-11.0383
二百六十	-11.0384
冤	-11.0386
二百三十	-11.0386
縣界五十里	-11.0387
省城	-11.0387
凡有	-11.0388
水南	-11.0391
沿河	-11.0391
唐宋	-11.0395
辛巳	-11.0398
北十里	-11.04
列傳	-11.0402
上京	-11.0403
後又	-11.0404
䨇	-11.0406
緡	-11.0407
騷	-11.0407
傲	-11.0407
一峯	-11.0408
王道	-11.0409
琯	-11.0412
漁陽	-11.0414
北五里	-11.0415
四十七	-11.0415
為亂	-11.0416
善政	-11.0419
何也	-11.0421
五湖	-11.0421
嶷	-11.0422
營遊擊	-11.0423
釘	-11.0423
磁	-11.0424
東出	-11.0424
襄陵	-11.0425
屛	-11.0425
金壇人	-11.0426
設法	-11.0427
乾州	-11.0427
理宗	-11.0428
孟津	-11.0429
致仕歸	-11.0429
有此	-11.0431
博羅	-11.0432
曽孫	-11.0433
儁	-11.0435
東井	-11.0437
元魏	-11.0437
人才	-11.0437
在州東北	-11.0439
四十餘	-11.0441
石柱	-11.0442
一千四百	-11.0446
天命	-11.0449
三十餘里	-11.0451
明史	-11.0454
賊衆	-11.0454
塌	-11.0459
汶水	-11.0459
請以	-11.046
嘗以	-11.046
南十里	-11.0461
一郡	-11.0462
大都	-11.0463
槃	-11.0464
開府	-11.0465
平山	-11.0465
二十餘年	-11.0467
鞫	-11.0471
運使	-11.0472
五六	-11.0475
棚	-11.0475
衡陽	-11.0476
回部	-11.0476
入覲	-11.0476
受業	-11.0477
豳	-11.0477
三子	-11.0479
二曰	-11.0479
利州	-11.048
大通	-11.048
險阻	-11.0481
眉州	-11.0484
北三里	-11.0488
隋大業	-11.0488
十有二	-11.0493
所由	-11.0494
之官	-11.0497
百家	-11.0497
題詩	-11.0499
東莞	-11.05
縣界三十里	-11.0501
時建	-11.0502
吳縣	-11.0503
以避	-11.0503
仁宗時	-11.0503
通海	-11.0504
杜門	-11.0504
堯舜	-11.0505
焉耆	-11.0507
崗	-11.0507
蓼	-11.0509
浮屠	-11.0509
舍利	-11.0511
奔走	-11.0514
撫州	-11.0515
赤水	-11.0515
河防	-11.0515
新羅	-11.0516
煉丹	-11.0519
二百一十	-11.0521
商邱	-11.0522
儀封	-11.0522
在府治東	-11.0523
一千八百	-11.0525
漢陽人	-11.0528
吳人	-11.0529
撲	-11.053
西川	-11.0532
舍人	-11.0532
縊	-11.0533
南逕	-11.0536
因其	-11.0538
汝州	-11.0542
之要	-11.0543
灾	-11.0546
五十八	-11.0546
卻	-11.0546
西華	-11.0547
步戰兵	-11.0552
可汗	-11.0554
下至	-11.0554
河出	-11.0557
猪	-11.0558
江縣	-11.0559
羙	-11.056
伍分	-11.0563
滁	-11.0564
迤西	-11.0566
樟	-11.0569
黄巖	-11.057
折而東	-11.0571
堞	-11.0572
貟	-11.0572
順治初	-11.0573
歸化	-11.0573
水泉	-11.0573
孔道	-11.0574
領兵	-11.0574
其故	-11.0574
子也	-11.0575
大風	-11.0578
兵燹	-11.058
南路	-11.0581
浮橋	-11.0582
壬戌	-11.0584
高平	-11.0584
三十六年	-11.0585
長生	-11.0587
紀事	-11.0588
盍	-11.0592
刑部主事	-11.0594
丁口	-11.0595
元符	-11.0598
堙	-11.0601
復建	-11.0602
賊首	-11.0602
昊	-11.0604
遼東人	-11.0606
𦂳	-11.0606
城市	-11.0607
公曰	-11.061
礙	-11.0613
幕府	-11.0615
永明	-11.0615
世家	-11.0616
規制	-11.0618
矗	-11.0618
巴陵	-11.0618
府屬	-11.0619
之謂	-11.062
北五十里	-11.0621
六十年	-11.0623
縣故城北	-11.0623
使臣	-11.0624
下臨	-11.0624
寒暑	-11.0625
聖人之	-11.0628
廣德	-11.0628
江隂人	-11.0629
吳江人	-11.0634
景帝	-11.0635
開寳	-11.0636
師道	-11.0638
武陽	-11.0642
御製詩	-11.0643
笏	-11.0643
初以	-11.0644
至孝	-11.0645
涓	-11.0645
覧	-11.0645
蒐	-11.0646
墉	-11.0648
平涼	-11.0648
言曰	-11.0649
墊	-11.0652
之次	-11.0652
不得已	-11.0653
六十四	-11.0655
初知	-11.066
苟	-11.066
江漢	-11.066
五十餘	-11.0662
貢士	-11.0662
理學	-11.0665
運司	-11.0667
孝感人	-11.0667
九毫	-11.0672
是非	-11.0673
貳釐	-11.0674
六卷	-11.0675
景徳	-11.0676
歴年	-11.0676
富陽	-11.0677
楮	-11.0678
南巡	-11.0678
未㡬	-11.068
之虞	-11.068
遣兵	-11.068
黯	-11.068
寶應	-11.0681
太平人	-11.0682
丑	-11.0688
因而	-11.069
府君	-11.0691
不幸	-11.0692
圉	-11.0693
本路	-11.0695
元年任	-11.0696
沂水	-11.0697
奈	-11.0698
諮	-11.0698
三十四年	-11.0701
行於世	-11.0706
箋	-11.0708
字徳	-11.0709
元嘉	-11.071
熹	-11.0712
佛像	-11.0714
攤	-11.0716
禀	-11.0718
漕糧	-11.072
未盡	-11.072
紘	-11.072
踰年	-11.0724
五代時	-11.0724
唐武德	-11.0727
五員	-11.0727
九分	-11.0728
攻之	-11.0732
建炎	-11.0734
共長	-11.0734
所作	-11.0734
二首	-11.0737
南史	-11.0737
修治	-11.0738
者矣	-11.0739
拳	-11.0741
六十五	-11.0742
沛縣	-11.0744
著述	-11.0745
額設	-11.0747
司道	-11.0748
黃河	-11.0749
八卷	-11.0749
皆可	-11.075
仍屬	-11.0751
熱河	-11.0751
噫	-11.0753
南八十里	-11.0754
巴東	-11.0757
三十一	-11.0758
西四十里	-11.0758
禮義	-11.0758
張掖	-11.0763
驤	-11.0764
五十六	-11.0765
人家	-11.0766
娘	-11.077
宣王	-11.0772
常平倉	-11.0773
宣府	-11.0774
澮	-11.0775
玖釐	-11.0776
文選	-11.0777
臨洮	-11.0777
題曰	-11.0777
直言	-11.0777
十名	-11.0779
玘	-11.078
黄山	-11.0781
昶	-11.0782
北向	-11.0783
千萬	-11.0783
故居	-11.0787
囑	-11.0788
若夫	-11.0788
不去	-11.0788
玉女	-11.0788
靈州	-11.0789
西北隅	-11.079
長慶	-11.0791
廣武	-11.0796
永寕	-11.0796
濮州	-11.0799
旌其門	-11.0799
叄百	-11.0801
己未	-11.0802
郡隋	-11.0802
髙平	-11.0803
裙	-11.0807
驍	-11.0808
三字	-11.0808
武威	-11.0808
州守	-11.0812
而不能	-11.0813
家堰	-11.0813
妻唐氏	-11.0817
二百七十	-11.0819
里中	-11.0819
一百一十里	-11.082
曾孫	-11.0821
它	-11.0823
矣又	-11.0824
答曰	-11.0824
山陰	-11.0826
避暑	-11.0827
醴	-11.0827
寰宇記在	-11.0833
萬嵗	-11.0834
字季	-11.0836
刲股	-11.0836
中都	-11.0837
炙	-11.0838
修理	-11.0838
十六年任	-11.0839
百歩	-11.0839
本朝雍正	-11.0839
清白	-11.084
光禄	-11.0843
世居	-11.0844
妻年二十	-11.0845
州西南	-11.0845
肝	-11.0846
詳名宦	-11.0851
青溪	-11.0852
宫殿	-11.0852
榭	-11.0853
天禧	-11.0856
尤甚	-11.0856
則以	-11.0856
人謂	-11.0856
十二卷	-11.0862
不逺	-11.0863
須臾	-11.0866
唐末	-11.0866
笋	-11.0866
以事	-11.0867
之臣	-11.0867
之狀	-11.0872
郭璞	-11.0873
河合	-11.0876
軍門	-11.0877
蹄	-11.0878
也後	-11.0878
當以	-11.0881
今有	-11.0883
其旁	-11.0884
山之麓	-11.0885
夲	-11.0888
馬邑	-11.0889
令其	-11.0889
户部侍郎	-11.0892
壹釐	-11.0894
謗	-11.0897
香爐	-11.0903
廬墓三年	-11.0905
江浦	-11.0905
羸	-11.0906
毫有竒	-11.0907
自持	-11.0909
淘	-11.0911
臨潼	-11.0912
五十五	-11.0913
一十七	-11.0915
講堂	-11.0915
票	-11.0915
何必	-11.0915
蘄州	-11.0917
税銀	-11.0918
官一員	-11.0922
寧人	-11.0925
為小	-11.0927
劉公	-11.0927
長橋	-11.0929
焚香	-11.0932
而名	-11.0934
嘉定人	-11.0934
羈	-11.0936
城上	-11.0937
携	-11.0938
不暇	-11.094
陳公	-11.0941
崇德	-11.0942
桐城	-11.0945
為我	-11.0945
出守	-11.0945
内閣	-11.0945
北二里	-11.0946
二百九十	-11.095
遂遇害	-11.095
五十七	-11.0952
黄州	-11.0954
國史	-11.0954
三百五十	-11.0955
儀門	-11.0955
珊	-11.0957
徳清	-11.0957
興元	-11.096
於天	-11.096
幷	-11.0961
僭	-11.0963
十里有	-11.0963
十里至	-11.0963
額徴	-11.0964
光化	-11.0967
將兵	-11.0967
漣	-11.0967
四十三年	-11.0968
信州	-11.0969
顥	-11.0969
可知	-11.0974
來㑹又	-11.0974
亭在	-11.098
題准	-11.0982
而民	-11.0984
酋長	-11.0987
之師	-11.0988
舒城人	-11.0991
服之	-11.0993
壹拾	-11.0994
建置	-11.0996
開禧	-11.0996
伊犂	-11.0998
下獄	-11.0999
孜	-11.1
搖	-11.1
師事	-11.1002
杰	-11.1004
南七十里	-11.1005
門曰	-11.1006
上帝	-11.1013
行事	-11.1013
高郵	-11.1013
爨	-11.1014
其才	-11.1015
銘曰	-11.1018
管河	-11.1019
妻顧氏	-11.102
飲之	-11.1021
家渡	-11.1023
出家	-11.1024
壬申	-11.1027
今屬	-11.103
久而	-11.1032
以俟	-11.1034
妻韓氏	-11.1035
浮山	-11.1036
耕種	-11.1037
□(	-11.1039
右副都御史	-11.1039
櫃	-11.1039
雲龍	-11.104
逈	-11.1043
小人	-11.1048
五龍	-11.1048
金谿	-11.1049
新開	-11.1053
之憂	-11.1055
涖	-11.1055
肆釐	-11.1056
凹	-11.1057
中郎將	-11.1057
以父	-11.1058
癸卯	-11.1058
韓城	-11.106
僅存	-11.106
寗	-11.1062
武康	-11.1062
當塗	-11.1064
當作	-11.1066
兄子	-11.1068
溟	-11.1068
犢	-11.1069
繼之	-11.107
天錫	-11.1071
朱氏	-11.1072
河南府	-11.1072
摭	-11.1074
御史大夫	-11.1074
成帝	-11.1076
年少	-11.1078
皇太子	-11.1079
池州	-11.1081
二百餘	-11.1083
溝水	-11.1084
芽	-11.1089
煌	-11.109
炯	-11.109
所宜	-11.1092
舊額	-11.1093
北為	-11.1093
縣也	-11.1094
定州	-11.1094
周氏	-11.1095
扁曰	-11.1098
入於海	-11.1099
題詠	-11.1101
廿	-11.1102
濼	-11.1103
范陽	-11.1103
守貞	-11.1103
不知何	-11.1105
晉陵	-11.1106
先生之	-11.1109
待制	-11.1109
曹操	-11.111
件	-11.1114
之國	-11.1115
窘	-11.1115
艱難	-11.1116
武林	-11.1116
笙	-11.1116
茭	-11.1117
四十餘年	-11.1119
怪石	-11.112
曰若	-11.1122
乎其	-11.1123
歐陽修	-11.1123
平越	-11.1125
必先	-11.1125
正色	-11.113
嘉泰	-11.113
莅	-11.1131
自有	-11.1131
堅守	-11.1132
在長安	-11.1134
蓄水	-11.1134
建文	-11.1135
妻蔡氏	-11.1137
中江	-11.1137
嶧	-11.1139
潁州人	-11.114
書之	-11.1141
仍為	-11.1142
不利	-11.1142
癸亥	-11.1143
割股	-11.1145
濂	-11.1146
寳慶	-11.1147
光祖	-11.1147
大士	-11.1147
南面	-11.1148
攢	-11.1148
措置	-11.1148
夜半	-11.1148
歙縣	-11.115
唐武徳	-11.1154
東境	-11.1154
西寧	-11.1154
哥	-11.1154
丐	-11.1157
人康	-11.1163
北一里	-11.1165
不避	-11.1165
葉爾羌	-11.117
從弟	-11.1172
兩五錢	-11.1172
之源	-11.1174
姥	-11.1176
名其	-11.1178
檢討	-11.1179
大節	-11.1179
涼州	-11.118
副總兵	-11.1182
之語	-11.1183
武舉	-11.1183
進士第	-11.1183
北行	-11.1184
價銀	-11.1184
相傳為	-11.1184
龍王廟	-11.1185
守備一員	-11.1186
服其	-11.119
儻	-11.1192
太原人	-11.1192
不顧	-11.1192
道院	-11.1193
北六十里	-11.1194
水縣	-11.1195
盡禮	-11.1197
民以	-11.1198
國人	-11.1198
南河	-11.1198
執事	-11.1199
定國	-11.12
諸暨	-11.1206
徳州	-11.1207
詔以	-11.1209
庚申	-11.1209
神龍	-11.1212
咸通	-11.1215
田畝	-11.1215
呉江	-11.1216
醫學	-11.1217
縣在	-11.1218
龍江	-11.1218
守令	-11.1222
峩眉	-11.1225
神之	-11.1227
於後	-11.1229
挑濬	-11.123
城垣	-11.1231
所害	-11.1232
數尺	-11.1232
六員	-11.1234
先師	-11.1242
賡	-11.1243
不法	-11.1246
合州	-11.1246
却之	-11.1247
所能	-11.1248
港口	-11.1249
應劭曰	-11.125
自經死	-11.1251
龍井	-11.1252
碑文	-11.1252
重脩	-11.1256
馬鞍山	-11.126
酌量	-11.126
乃得	-11.126
剔	-11.1263
妻丁氏	-11.1263
縣入	-11.1264
二十萬	-11.1264
可通	-11.1265
不治	-11.1266
唐初	-11.1267
嬴	-11.1269
山陽人	-11.1269
萬古	-11.127
兑	-11.1271
為賊所	-11.1272
安置	-11.1274
分水嶺	-11.1276
東郡	-11.1278
北自	-11.1283
都察院	-11.1283
簪	-11.1284
莆田	-11.1286
累官至	-11.1289
乆之	-11.1289
一千六百	-11.129
功封	-11.1291
嵊	-11.1291
汶上	-11.1296
縣本	-11.1298
癸巳	-11.1298
趙汝	-11.1301
北八十里	-11.1302
徳之	-11.1303
鳩工	-11.1304
西向	-11.1304
鎮逺	-11.1305
在府東	-11.1305
愉	-11.1306
長安人	-11.1306
猖獗	-11.1307
碣石	-11.1308
衛所	-11.1308
款	-11.1308
郡國志	-11.131
上曰	-11.1311
冩	-11.1315
箱	-11.1315
成化杭州府志	-11.1318
受其	-11.1323
得罪	-11.1324
幫	-11.1324
搗	-11.1325
目前	-11.1325
登山	-11.1327
所置	-11.1328
筭	-11.1331
尚書令	-11.1334
嘉善	-11.1335
金兵	-11.1336
進退	-11.1336
又逕	-11.1339
諸城	-11.1339
間道	-11.134
縣故城西	-11.1343
何人	-11.1344
鍊	-11.1347
者或	-11.1347
祖母	-11.1348
噐	-11.1349
前鋒	-11.1351
以病	-11.1355
牛羊	-11.1356
晉王	-11.1356
萬山	-11.1356
長山	-11.1357
四十一	-11.1357
五十三	-11.1358
蒞	-11.1359
民不	-11.1363
者甚衆	-11.1363
嗣後	-11.1366
吳中	-11.1366
相距	-11.1369
又東為	-11.1369
武平	-11.137
嫡	-11.1372
晉州	-11.1372
棲霞	-11.1374
八員	-11.1376
學道	-11.1376
嚴州	-11.1378
撫之	-11.1378
皇祐	-11.138
三四	-11.1381
前人	-11.1381
千頃	-11.1382
刦	-11.1382
職官	-11.1382
大德	-11.1383
不擾	-11.1383
黠	-11.1389
為業	-11.1389
入焉	-11.1391
次之	-11.1392
天王	-11.1396
昕	-11.1399
蓄洩	-11.1401
繳	-11.1401
垢	-11.1404
鬰	-11.1405
紛紛	-11.1405
尅	-11.1406
所執	-11.1406
十五年任	-11.1409
喚	-11.141
洸	-11.141
尋復	-11.1412
皇考	-11.1412
責成	-11.1412
惟是	-11.1412
徐氏	-11.1414
獨不	-11.1415
水面	-11.1415
金吾	-11.1415
嵗久	-11.1419
伽藍	-11.1419
朂	-11.142
完顔	-11.1423
都指揮使	-11.1425
兵三	-11.1425
事親	-11.1427
我兵	-11.1427
北通	-11.1428
一千七百	-11.1428
字汝	-11.1431
猶在	-11.1436
桐廬	-11.1436
嵗饑	-11.1436
邨	-11.1437
存者	-11.1437
笥	-11.1439
各處	-11.1439
母喪	-11.144
修武	-11.144
視事	-11.1447
許州	-11.145
隋志	-11.1453
皇太后	-11.1458
都昌	-11.1458
六萬	-11.146
河津	-11.1461
水從	-11.1462
傳曰	-11.1467
鑿石	-11.1469
蘇州府	-11.147
經流	-11.1471
當其	-11.1471
等書	-11.1472
六丈	-11.1473
東魏	-11.1474
行營	-11.1474
閬中	-11.1475
者惟	-11.1475
倬	-11.1476
狡	-11.1483
西行	-11.1483
㑹於	-11.1485
門户	-11.1487
郴州	-11.1488
遼史	-11.1488
州事	-11.1488
一子	-11.1489
猗氏	-11.1494
辜	-11.1496
挫	-11.1496
剌	-11.1497
贅	-11.1499
𢎞農	-11.1501
黼	-11.1502
郤	-11.1504
色如	-11.1505
明永樂	-11.1506
嘉興府志	-11.1506
自東	-11.1506
天之	-11.1508
並無	-11.1508
治南	-11.1511
宫中	-11.1511
蝦	-11.1512
大業初	-11.1514
様	-11.1514
蚤	-11.1515
咸淳臨安志	-11.1515
西南有	-11.1517
當道	-11.1517
賜今額	-11.1519
豈能	-11.1521
奪其	-11.1521
相通	-11.1525
事者	-11.1527
得道	-11.1527
觀察	-11.1529
石佛	-11.153
自殺	-11.1531
漢時	-11.1534
不果	-11.1542
討平	-11.1542
擊賊	-11.1542
見一	-11.1543
海陵	-11.1543
平樂	-11.1543
鄉舉	-11.1545
摶	-11.1545
隰州	-11.1546
西十里	-11.1548
奉新	-11.1549
二千石	-11.155
則為	-11.1551
人所	-11.1552
東鄉	-11.1556
州同知	-11.1556
靈泉	-11.1556
道里	-11.1556
尋以	-11.156
舫	-11.1562
閩縣人	-11.1562
天地之	-11.1563
兵民	-11.1567
西鄉	-11.1572
赭	-11.1573
淖爾	-11.1573
圖書	-11.1574
甘州	-11.1574
以及	-11.1576
苐	-11.1576
膏腴	-11.158
現在	-11.1581
建寧	-11.1581
雅爾	-11.1582
滸	-11.1584
又西為	-11.1585
而逝	-11.1587
官司	-11.1588
十八年任	-11.1588
蔚州	-11.1589
詔書	-11.1589
刑獄	-11.1591
書院在	-11.1592
一小	-11.1593
茅山	-11.1597
家河	-11.1597
移建	-11.1598
喉	-11.1598
詡	-11.1599
高麗	-11.1602
天聰	-11.1602
旌之	-11.1605
沿江	-11.1606
建立	-11.1607
居人	-11.1607
豁免	-11.1609
華嚴	-11.1611
舉兵	-11.1613
琨	-11.1613
衆皆	-11.1614
儔	-11.1615
張秋	-11.1617
擄	-11.1617
大將	-11.1618
中置	-11.1619
諸司	-11.1619
破賊	-11.1621
七星	-11.1622
定陶	-11.1625
自今	-11.1626
一升	-11.1628
妻蔣氏	-11.1635
昌邑	-11.1635
木為	-11.1636
篋	-11.1639
府事	-11.1639
武岡	-11.1639
能詩	-11.1639
州總管	-11.1641
人咸	-11.1642
宗廟	-11.1643
橋在	-11.1645
有道	-11.1648
普濟	-11.1649
州西北	-11.1649
西入	-11.1649
化縣	-11.165
寓居	-11.1652
靖安	-11.1654
捌百	-11.1655
揺	-11.1657
西為	-11.1658
又東過	-11.1662
照磨	-11.1665
刑部侍郎	-11.1667
霆	-11.1667
皇祖	-11.1669
舖兵	-11.1669
愆	-11.167
戊寅	-11.1671
狥	-11.1672
粧	-11.1674
加以	-11.1674
宣撫	-11.1674
板橋	-11.1676
宗本紀	-11.1676
塋	-11.1676
投井死	-11.1676
鎮西	-11.1677
實徵	-11.1677
識者	-11.168
轅	-11.1681
棣	-11.1682
其法	-11.1686
鹽城	-11.1686
武鄉	-11.1687
早寡	-11.1688
休寧	-11.1688
蟹	-11.1689
緜	-11.169
五十二	-11.1691
晁	-11.1692
滄浪	-11.1692
梢	-11.1693
珮	-11.1694
翺	-11.1696
哈達	-11.1696
舉人知	-11.17
舟師	-11.1701
寰宇記云	-11.1703
橋西	-11.1705
宣撫司	-11.1706
一貫	-11.1707
置縣	-11.1708
至徳	-11.1708
男婦	-11.1711
設立	-11.1713
淄	-11.1714
既成	-11.1714
出焉	-11.1715
東下	-11.1718
若是	-11.1719
憇	-11.172
鶴慶	-11.172
在北	-11.1721
天井	-11.1721
左布政使	-11.1723
鬱林	-11.1724
辛亥	-11.1725
千總一員	-11.1725
妻余氏	-11.1726
燎	-11.1726
舟行	-11.173
諸湖	-11.1731
三世	-11.1733
太保	-11.1735
農桑	-11.1737
虗	-11.1737
岷山	-11.1739
凋	-11.174
蹲	-11.174
李元	-11.1741
銅山	-11.1741
酣	-11.1743
俠	-11.1743
永年	-11.1743
孽	-11.1744
深廣	-11.1745
毫有奇	-11.1746
江津	-11.1747
二公	-11.1748
三河	-11.1748
庚寅	-11.1752
殻	-11.1752
名勝	-11.1753
玲瓏	-11.1753
正統中	-11.1754
安能	-11.1757
衡州	-11.1757
雪山	-11.1757
曹縣	-11.1758
殺賊	-11.1758
在位	-11.1759
工費	-11.1759
絶粒	-11.1761
發兵	-11.1762
易之	-11.1767
殆盡	-11.1768
盤踞	-11.1768
光州	-11.1769
尤為	-11.177
興學校	-11.1775
於官	-11.1776
賞罰	-11.1776
師古曰	-11.1776
大司馬	-11.1779
巡視	-11.1779
死節	-11.1783
綿州	-11.1784
南宫	-11.1785
砥	-11.1785
有二一在	-11.1787
乃命	-11.179
暄	-11.1791
金州	-11.1792
早卒	-11.1792
叁拾	-11.1792
泠	-11.1792
修之	-11.1794
服闋	-11.1794
右營	-11.1796
舉行	-11.1796
多有	-11.1796
開元中	-11.1798
里北至	-11.1798
所言	-11.1805
追至	-11.1806
經此	-11.1808
來屬	-11.1808
聞者	-11.1812
各一員	-11.1814
斡	-11.1814
知縣劉	-11.1816
縣出	-11.1818
平陵	-11.1818
一頃	-11.1822
有光	-11.1824
伽	-11.1824
岔	-11.1826
孝弟	-11.1826
沿革	-11.1826
避兵	-11.1827
官府	-11.1828
崇文	-11.1829
淮西	-11.183
項羽	-11.183
無為	-11.1831
軟	-11.1832
祠之	-11.1835
㵼	-11.1836
按察司	-11.1837
廣昌	-11.1841
涿州	-11.1844
南充	-11.1846
之任	-11.1849
琵琶	-11.185
彤	-11.1851
人民	-11.1851
故人	-11.1851
山海	-11.1852
清澗	-11.1853
沆	-11.1853
流亡	-11.1856
不輟	-11.1856
濟陽	-11.1857
隕	-11.1858
五十九	-11.1859
有碑	-11.186
豈有	-11.1861
鷺	-11.1861
糞	-11.1862
上饒	-11.1866
嵌	-11.1866
徭役	-11.1866
五卷	-11.1867
左遷	-11.1868
金川	-11.1869
金大定	-11.187
傍有	-11.1871
遵義	-11.1875
弋	-11.1877
懈	-11.1882
内侍	-11.1883
逍遥	-11.1883
外有	-11.1883
瑣	-11.1885
金沙江	-11.1887
太清	-11.1889
盤龍	-11.1892
白塔	-11.1892
王文	-11.1894
鑲	-11.1895
慤	-11.1896
後屬	-11.1898
攔	-11.1899
戍守	-11.19
覇	-11.1902
俄而	-11.1905
鉅鹿	-11.1906
兩淮	-11.1909
始知	-11.191
隍	-11.1911
達嚕噶齊	-11.1917
州東南	-11.1917
社倉	-11.1917
一丈五尺	-11.1918
肅州	-11.1919
山後	-11.1922
儒士	-11.1922
堂集	-11.1927
誡	-11.193
矣夫	-11.193
聚衆	-11.1931
四合	-11.1931
與同	-11.1931
下注	-11.1935
制置	-11.1935
綿竹	-11.1936
橋東	-11.1937
迤東	-11.1942
既至	-11.1943
晉天福	-11.1947
墀	-11.1948
藺	-11.1949
病篤	-11.1949
不赴	-11.195
凌雲	-11.195
妻范氏	-11.1952
於外	-11.1953
千戸	-11.1957
利之	-11.1957
議論	-11.1958
其首	-11.1959
丈夫	-11.1959
倐	-11.1959
為主	-11.1959
啖	-11.1959
至順	-11.196
堂記	-11.1961
苴	-11.1961
繋	-11.1962
丹陽人	-11.1963
煖	-11.1963
漳州	-11.1963
避地	-11.1964
欹	-11.1966
為界	-11.1972
士子	-11.1974
氏張	-11.1974
四門	-11.1974
憾	-11.1975
州同	-11.1976
東南隅	-11.198
八十五	-11.198
燕京	-11.198
寺詩	-11.1981
隋唐	-11.1982
福建人	-11.1982
兩貳錢	-11.1984
囉	-11.1985
詵	-11.1985
復舊	-11.1985
北面	-11.1986
大山	-11.1989
後遷	-11.1992
荆南	-11.1993
入學額數	-11.1993
政績	-11.1996
之稱	-11.1998
雷雨	-11.1999
蒲州人	-11.2001
吏治	-11.2001
二年改	-11.2003
屑	-11.2004
山河	-11.2005
當在	-11.2009
犁	-11.2009
而未	-11.201
事母	-11.201
之才	-11.2011
工食	-11.2011
嵇	-11.2014
内江	-11.2015
州東北	-11.2016
觀其	-11.2017
瑀	-11.2017
也且	-11.2019
臨河	-11.2019
初任	-11.202
小溪	-11.2021
河州	-11.2025
雩	-11.2026
塔克	-11.2027
縣流入	-11.2027
禇	-11.2028
曳	-11.203
明昌	-11.203
也此	-11.2031
置屬	-11.2031
盜起	-11.2033
城固	-11.2035
賠	-11.2036
觀者	-11.2036
區區	-11.204
哈薩克	-11.2042
昌化	-11.2044
剽	-11.2044
郡唐	-11.2044
都監	-11.2044
毬	-11.2044
鳳山	-11.2045
河入	-11.2046
抗疏	-11.2048
重慶	-11.2049
齊名	-11.205
三十九年	-11.2057
九尺	-11.2059
勑	-11.2061
石洞	-11.2061
衫	-11.2062
瓊山人	-11.2062
咸寧人	-11.2062
一十三	-11.2064
橋下	-11.2065
固辭	-11.2065
城樓	-11.2065
夷陵	-11.2066
以洩	-11.2067
落日	-11.2067
妻董氏	-11.2067
滄海	-11.2068
祠祀	-11.2069
白蓮	-11.207
陽春	-11.2071
每歲	-11.2072
青陽	-11.2072
門三	-11.2076
涿	-11.2076
東晉	-11.2077
遼州	-11.2078
八十四	-11.2078
而能	-11.2081
錡	-11.2081
諳	-11.2082
朝宗	-11.2084
十人	-11.2085
源流	-11.2089
杜預	-11.209
然也	-11.2092
罄	-11.2094
點	-11.2094
溪橋	-11.2097
一新	-11.2098
青衣	-11.2099
龍首	-11.21
誅之	-11.2103
兵攻	-11.2103
偵	-11.2106
忠州	-11.2106
九成	-11.2107
菽	-11.2107
之别	-11.2107
以祀	-11.2108
故老	-11.2109
曰昔	-11.211
郡唐屬	-11.211
祥符人	-11.2111
字廷	-11.2111
終南	-11.2113
贑州	-11.2113
廷尉	-11.2114
臨水	-11.2116
言於	-11.2117
湖上	-11.2117
六十二	-11.2118
慶雲	-11.212
磔	-11.2122
鄒平	-11.2122
兩零	-11.2125
無疑	-11.2126
明時	-11.2126
寧國	-11.2128
耽	-11.2128
遴	-11.213
復置屬	-11.2132
不惟	-11.2133
可愛	-11.2135
宿州	-11.2137
參知政事	-11.2139
璽書	-11.2142
華陽國志	-11.2142
本年	-11.2143
乙卯	-11.2143
有文	-11.2143
愼	-11.2145
延慶	-11.2146
耒	-11.2146
瀨	-11.2146
鎰	-11.2147
漢屬	-11.2147
里甲	-11.2147
尉氏	-11.2149
唐李	-11.2151
經制	-11.2152
便之	-11.2153
不獨	-11.2157
移置	-11.2157
避亂	-11.2158
京畿	-11.2158
霸州	-11.2158
畤	-11.2159
千百	-11.216
僉都御史	-11.2162
廬舍	-11.2163
金帛	-11.2165
望風	-11.2165
氏王	-11.2166
亦云	-11.2167
可考	-11.2168
天平	-11.2168
開國	-11.2169
上諭	-11.2172
户部主事	-11.2174
賜之	-11.2176
九十九	-11.2181
故城在今	-11.2186
萬壽	-11.2189
小者	-11.2191
増築	-11.2191
垜	-11.2192
扆	-11.2194
都䕶	-11.2194
不失	-11.2195
有事	-11.2197
在天	-11.2197
廟前	-11.2198
㕘將	-11.2199
鄞縣	-11.2199
諫議大夫	-11.2199
溱	-11.2199
江左	-11.22
貢賦	-11.2204
糠	-11.2205
閭閻	-11.2206
經術	-11.2207
三十七年	-11.2209
副都御史	-11.2209
孝文	-11.2209
欽州	-11.221
又何	-11.2211
水災	-11.2211
銑	-11.2212
畀	-11.2212
隳	-11.2213
南三里	-11.2217
河南人	-11.222
每遇	-11.222
衣服	-11.222
聞喜	-11.2221
將來	-11.2222
為州	-11.2225
黄岡	-11.2226
縣尉	-11.2226
泉在	-11.2229
東南流逕	-11.2229
喀喇	-11.2229
永州	-11.223
佚	-11.223
自後	-11.223
餘慶	-11.2231
部主事	-11.2232
潄	-11.2232
雲霧	-11.2234
悉平	-11.2236
在府城西南	-11.2238
猝	-11.2238
里西至	-11.2238
饑民	-11.224
鳳凰山	-11.2241
登州	-11.2243
邛	-11.2243
駁	-11.2244
見而	-11.2244
洒	-11.2245
乾徳	-11.2247
清河縣	-11.2249
彞	-11.2249
延州	-11.225
中下	-11.225
於石	-11.225
新平	-11.2251
環繞	-11.2251
逶迤	-11.2251
疑即	-11.2254
六名	-11.2255
直指	-11.2255
大破	-11.2256
中部	-11.2258
車師	-11.2259
平陽人	-11.226
不覺	-11.226
法華	-11.2261
仁壽	-11.2261
集十卷	-11.2262
豪右	-11.2262
相如	-11.2263
以養	-11.2264
金沙	-11.2266
其夫	-11.2268
埂	-11.2269
巍	-11.227
人崇禎	-11.2271
一自	-11.2273
禮記	-11.2274
儀真	-11.2276
藕	-11.228
嚴明	-11.228
四縣	-11.2281
相視	-11.2282
又東至	-11.2283
翕然	-11.2283
一等	-11.2284
謂曰	-11.2284
狩	-11.2285
貳分	-11.2286
崕	-11.2288
骸	-11.2289
一女	-11.2289
未嘗不	-11.229
橋梁	-11.229
小河	-11.2291
六七	-11.2292
一十九	-11.2292
埒	-11.2294
髙山	-11.2294
帝曰	-11.2298
邳	-11.2298
苧	-11.23
所向	-11.2301
荔	-11.2302
都水	-11.2302
元龜	-11.2302
州之	-11.2303
一片	-11.2304
右布政使	-11.2304
駐此	-11.2304
初名	-11.2305
之側	-11.2305
七十餘	-11.2305
自成	-11.2305
地理志曰	-11.2306
蘭陽	-11.2307
州牧	-11.2308
宗族	-11.2309
南征	-11.231
馬湖	-11.231
數十丈	-11.2311
茂州	-11.2312
辰州	-11.2313
其形	-11.2314
有九	-11.2314
王莽之	-11.2315
頥	-11.2316
不納	-11.2317
太學生	-11.232
陘	-11.2324
不啻	-11.2326
嬉	-11.2332
㨿	-11.2333
煦	-11.2334
江右	-11.2334
人許字	-11.2343
唐建	-11.2344
三水	-11.2345
祜	-11.2348
剝	-11.2348
天祥	-11.2348
為國	-11.2348
族人	-11.2348
禆	-11.2351
塞之	-11.2351
東五里	-11.2353
洪水	-11.2353
徽州	-11.2354
莆田人	-11.2354
於中	-11.2355
諸道	-11.2357
乞休	-11.236
河曲	-11.236
預備倉	-11.2361
少有	-11.2361
軀	-11.2362
南行	-11.2363
戰守	-11.2365
而自	-11.2367
於河	-11.2367
總理	-11.2369
在上元縣	-11.237
永寜	-11.2372
改正	-11.2372
浣	-11.2378
小兒	-11.2378
渴	-11.238
至正間	-11.238
行世	-11.238
燃	-11.2381
咽	-11.2381
戶	-11.2382
晃	-11.2383
生而	-11.2386
週圍	-11.239
我師	-11.2392
晉屬	-11.2393
戦	-11.2395
之責	-11.2396
興州	-11.2399
三百四十	-11.2401
召對	-11.2402
隨州	-11.2402
三百二十	-11.2402
人户	-11.2403
兩旁	-11.2406
宗皇帝	-11.2407
千仞	-11.2407
南二十五里	-11.2407
宣武	-11.2409
貺	-11.241
禍福	-11.2411
唐開元	-11.2413
拊	-11.2414
為三	-11.2415
悠悠	-11.2415
舊訛	-11.2417
地丁	-11.2417
潼川	-11.2418
令人	-11.2418
從其	-11.2419
乃知	-11.2419
兊	-11.242
曰今	-11.242
四十餘里	-11.2425
沁州	-11.2426
其學	-11.2427
學田	-11.2428
戊申	-11.2431
咫尺	-11.2432
棋	-11.2432
遺愛	-11.2433
如有	-11.2435
宣慰	-11.2437
卧龍	-11.2437
樂平人	-11.2437
其害	-11.2438
不成	-11.2442
夷人	-11.2442
餓	-11.2444
卉	-11.2444
主管	-11.2445
清明	-11.2446
密雲	-11.2449
滂	-11.2449
歸仁	-11.245
盧龍	-11.2451
北方	-11.2453
天山	-11.2455
久不	-11.2456
院在	-11.2457
水深	-11.2457
之樂	-11.2459
北逕	-11.2459
襄王	-11.2459
新舊	-11.2459
在衛	-11.246
陵川	-11.2461
耆老	-11.2462
官屬	-11.2462
設官	-11.2465
正學	-11.2468
明兵	-11.247
順天府	-11.2471
即其	-11.2473
永濟	-11.2476
偃師	-11.2477
五峯	-11.2477
六毫	-11.2478
遂成	-11.2479
納之	-11.248
即墨	-11.248
詆	-11.248
五原	-11.2481
日照	-11.2482
貧者	-11.2483
通江	-11.2484
互相	-11.2485
至京	-11.2486
邯鄲	-11.2487
南道	-11.2488
竟不	-11.2488
颯	-11.2489
亦自	-11.2489
兗州	-11.249
紹興間	-11.249
編審	-11.2491
其力	-11.2491
地下	-11.2494
王世	-11.2495
泛溢	-11.2495
修建	-11.2496
去城	-11.2497
等縣	-11.2497
爾等	-11.2498
西通	-11.2498
笞	-11.2499
㡌	-11.25
参	-11.25
滑縣	-11.25
寺丞	-11.2502
庖	-11.2502
之兵	-11.2503
稼穡	-11.2504
本朝乾隆四十一年	-11.2506
又東南逕	-11.2506
嶺上	-11.2507
多士	-11.2509
望見	-11.2509
慶州	-11.2509
别駕	-11.2511
則無	-11.2512
昌國	-11.2513
北距	-11.2513
地多	-11.2517
勤於	-11.2518
烏蘇	-11.2518
丹青	-11.2519
鄔	-11.2521
襄垣	-11.2521
遣將	-11.2521
輿地	-11.2522
一室	-11.2523
長寧	-11.2523
邱縣	-11.2523
隨征	-11.2524
雅州	-11.2526
湾	-11.2526
古北口	-11.2526
臼	-11.2528
荆溪	-11.2529
無餘	-11.253
潯	-11.2531
至道	-11.2532
舁	-11.2532
上游	-11.2533
矣故	-11.2534
胎	-11.2535
經筵	-11.2535
寥	-11.2537
譬	-11.2539
廟記	-11.2542
玉門	-11.2543
涇州	-11.2544
雇	-11.2545
卒諡曰	-11.2547
二十名	-11.2548
瑞州	-11.2548
張元	-11.2549
眉山	-11.2549
之志	-11.2549
中河	-11.2551
縣東三十里	-11.2551
奉姑	-11.2552
存留	-11.2552
廟學	-11.2552
太常卿	-11.2552
聞喜人	-11.2553
下邳	-11.2553
安徽	-11.2555
河之水	-11.2556
溝洫	-11.2557
一邑	-11.2558
氏俱	-11.2559
者謂	-11.2561
登科	-11.2561
義州	-11.2564
大事	-11.2564
建州	-11.2566
文安	-11.2567
姐	-11.2569
進爵	-11.2569
險峻	-11.257
住持	-11.2572
烝	-11.2573
惜之	-11.2575
汊	-11.2577
以行	-11.2578
歲貢	-11.2582
交城	-11.2582
侯景	-11.2582
殞	-11.2584
一嵗	-11.2585
初授	-11.2585
及諸	-11.2586
楊廷	-11.2586
集賢	-11.2587
九百	-11.2588
又言	-11.2588
曰天	-11.2589
四望	-11.2589
處處	-11.259
雞鳴	-11.259
王守仁	-11.2591
蟾	-11.2592
無定	-11.2592
窩集	-11.2593
之苦	-11.2593
荆山	-11.2594
其次	-11.2594
民無	-11.2595
為最	-11.2596
叩頭	-11.2598
臨汾	-11.2598
鄢陵	-11.26
靖康	-11.26
睢陽	-11.2602
新喻	-11.2602
怯	-11.2602
黄花	-11.2603
守城	-11.2604
二道	-11.2607
走馬	-11.2609
嵗旱	-11.261
亭侯	-11.2612
天水	-11.2612
妻章氏	-11.2612
彌勒	-11.2613
長垣	-11.2613
節義	-11.2615
陽曲	-11.2618
三百七十	-11.262
山口	-11.2621
時以	-11.2622
泉出	-11.2622
督兵	-11.2622
鸚鵡	-11.2623
西洋	-11.2624
轂	-11.2626
之㑹	-11.2628
沅州	-11.2629
太常少卿	-11.2632
椽	-11.2632
朝邑	-11.2635
鴈門	-11.2638
阿克蘇	-11.2638
潮水	-11.2639
山前	-11.2639
海防	-11.2639
倩	-11.2639
汁	-11.264
不加	-11.264
瘦	-11.264
恍	-11.264
妓	-11.2641
登進士第	-11.2642
七萬	-11.2643
書云	-11.2647
拱辰	-11.2647
盗賊	-11.2648
歸於	-11.2649
莫若	-11.2649
宅在	-11.2649
避難	-11.2654
皆不	-11.2656
謐	-11.2656
水即	-11.2657
三曰	-11.2657
龍王	-11.2658
勒石	-11.2659
天和	-11.2659
在寕	-11.266
金華人	-11.266
郿	-11.2661
新㑹人	-11.2661
亦如之	-11.2662
常侍	-11.2662
忽有	-11.2666
少師	-11.2669
好古	-11.2671
宋史地理志	-11.2673
湜	-11.2676
四毫	-11.2676
龍虎	-11.2677
愽	-11.2678
下瞰	-11.2678
東萊	-11.2678
一種	-11.268
即其地	-11.2682
淮安府	-11.2682
兗	-11.2682
焉其	-11.2682
之世	-11.2684
高宗純皇帝	-11.2685
楚雄	-11.2687
通志在	-11.2687
稽古	-11.2687
鹽法	-11.2688
雜記	-11.2688
即是	-11.2689
釀	-11.2691
報國	-11.2691
是嵗	-11.2691
殿中	-11.2691
中牟	-11.2696
二百五十里	-11.2696
騫	-11.2699
建興	-11.2704
而生	-11.2707
道中	-11.2708
宜黄	-11.2711
梁王	-11.2712
餞	-11.2713
藹	-11.2714
上虞人	-11.2715
知事	-11.2717
奉行	-11.2718
漢武	-11.2719
牧馬	-11.2723
一言	-11.2724
蕉	-11.2725
杭州府志	-11.2725
釡	-11.2726
殄	-11.2726
尺五寸	-11.2726
風雲	-11.2726
襄公	-11.2727
紹興初	-11.2727
州都督	-11.2728
忝	-11.2728
未見	-11.273
洞門	-11.2731
當事	-11.2733
不茍	-11.2733
運糧	-11.2733
嚴陵志	-11.2735
銀一千	-11.2737
如初	-11.2737
教寺	-11.2739
古跡	-11.2741
水所出	-11.2741
樓臺	-11.2742
令狐	-11.2742
一百七十里	-11.2745
西北有	-11.2747
不到	-11.2747
盞	-11.2747
大成殿	-11.2751
其半	-11.2752
禁中	-11.2756
其書	-11.2757
濟運	-11.2763
惲	-11.2763
方丈	-11.2765
二石	-11.2765
南越	-11.2766
當為	-11.2766
成王	-11.2769
竹山	-11.2769
漢唐	-11.277
中庸	-11.2771
姑病	-11.2771
景德	-11.2771
泰安	-11.2775
事務	-11.2776
佯	-11.2778
筏	-11.278
闇	-11.2781
寳祐	-11.2781
屏山	-11.2782
齋集	-11.2783
惠民	-11.2786
西流入	-11.2787
黄氏	-11.2788
次日	-11.279
不給	-11.2791
西五十里	-11.2793
四五	-11.2793
姻	-11.2793
三原人	-11.2793
人幼	-11.2794
萬全	-11.2795
酸	-11.2798
劉宋	-11.2798
交州	-11.2799
渤	-11.2801
十二名	-11.2801
王墓	-11.2803
之號	-11.2804
𦙍	-11.2804
妻袁氏	-11.2806
而退	-11.2808
月餘	-11.2809
李光	-11.281
而言	-11.2811
五十餘年	-11.2811
歸里	-11.2811
子城	-11.2812
即漢	-11.2814
彼此	-11.2817
綾	-11.2817
益都人	-11.2818
性孝友	-11.2818
皆出	-11.2819
椎	-11.2819
厯代	-11.2819
太乙	-11.2822
大都督	-11.2822
新鄭	-11.2824
石樓	-11.2825
一本	-11.2829
塾	-11.283
𢎞治中	-11.283
沔陽	-11.283
二十二年任	-11.2831
垣曲	-11.2832
必須	-11.2833
以求	-11.2835
鎔	-11.2835
鍾離	-11.2837
丨丨丨	-11.2838
夙夜	-11.2841
城堡	-11.2843
開平	-11.2843
六十七	-11.2843
西海	-11.2844
搶	-11.2845
宋置	-11.2847
文殊	-11.2847
故瀆	-11.2847
起居	-11.2848
何時	-11.2848
二十丈	-11.2848
維新	-11.2849
十五丈	-11.2849
同心	-11.285
七十八	-11.285
山石	-11.285
家塘	-11.285
婉	-11.2851
新之	-11.2851
百世	-11.2852
擴	-11.2853
堦	-11.2853
之分	-11.2853
妻梁氏	-11.2854
屯留	-11.2855
財賦	-11.2858
責之	-11.2858
知縣陳	-11.286
後因	-11.286
宣州	-11.286
武帝時	-11.2862
京東	-11.2862
匹馬夫	-11.2864
百三十里	-11.2866
俗呼為	-11.2866
非其	-11.2867
中書侍郎	-11.2867
也遂	-11.2867
年十五	-11.2869
九絲	-11.287
貞觀元年	-11.2873
縊死	-11.2875
蔡京	-11.2875
安石	-11.288
豫州	-11.2883
扞	-11.2885
功曹	-11.2887
西南隅	-11.2887
子午	-11.2888
馬氏	-11.2889
以報	-11.2891
壁間	-11.2893
乾隆四十	-11.2893
四年建	-11.2894
斐	-11.2894
船隻	-11.2894
兩肆錢	-11.2895
葱嶺	-11.2895
犒	-11.2897
所獲	-11.29
行旅	-11.2901
塑	-11.2903
貂	-11.2904
痛哭	-11.2904
諸儒	-11.2906
陵墓	-11.2909
栻	-11.291
酒泉	-11.2912
始至	-11.2914
可行	-11.2914
以其地	-11.2914
歸安人	-11.2914
名之曰	-11.2915
開山	-11.2915
俱出	-11.2918
至治	-11.2919
通衢	-11.2919
元季	-11.292
石八斗	-11.2922
餐	-11.2923
闥	-11.2923
二毫	-11.2927
貞祐	-11.293
功名	-11.293
梁武帝	-11.2931
沙磧	-11.2933
安堵	-11.2933
屬縣	-11.2933
笠	-11.2934
如玉	-11.2935
十餘人	-11.2937
郡中	-11.2937
自誓	-11.294
荻	-11.2941
播州	-11.2945
鄭氏	-11.2945
本朝洪武	-11.2946
積雪	-11.2947
豊	-11.2948
在府城西北	-11.2948
凡十	-11.2949
生徒	-11.2954
課銀	-11.2955
左丞	-11.2956
奉母	-11.2957
終身不	-11.296
溪流	-11.2963
後魏置	-11.2963
表裏	-11.2965
以書	-11.2965
其義	-11.297
十六里	-11.2971
新鄉	-11.2971
何氏	-11.2974
依舊	-11.2974
所生	-11.2975
冬月	-11.2975
流逕	-11.2976
如此則	-11.2976
清涼	-11.2977
徳安	-11.2977
安逺	-11.2979
水在	-11.2979
可乎	-11.2981
妻俞氏	-11.2983
科銀	-11.2983
水田	-11.2985
濮陽	-11.2988
王時	-11.299
櫬	-11.299
青田	-11.299
縳	-11.2991
八丈	-11.2991
賜爵	-11.2991
於學	-11.2991
開府儀同三司	-11.2992
厦	-11.2995
嘉祥	-11.2997
學問	-11.2997
貴池人	-11.2998
此皆	-11.2999
金錢	-11.2999
榦	-11.2999
門山	-11.3003
渡口	-11.3007
通濟	-11.3007
從祀	-11.3008
邑也	-11.3008
文宗	-11.3009
蜀之	-11.301
鹽鐵	-11.301
公以	-11.301
豎	-11.3011
泰州人	-11.3011
卒諡文	-11.3013
諭以	-11.3014
耐	-11.3015
吉安	-11.3015
河臣	-11.3016
一百二	-11.3017
謂此	-11.3018
七八	-11.3018
大怒	-11.3018
明皇	-11.3018
天目	-11.3023
楊文	-11.3024
髙陵	-11.3025
宋紹興	-11.3026
巖下	-11.3027
出没	-11.3027
無疆	-11.3028
八旗	-11.3029
辛卯	-11.3031
山髙	-11.3032
俱屬	-11.3033
秋八月	-11.3036
仔	-11.3037
後徙	-11.3039
朱熹	-11.3041
六十八	-11.3042
燕山	-11.3042
不敷	-11.3042
臨安府	-11.3043
擒之	-11.3043
之勞	-11.3043
流合	-11.3044
盡心	-11.3046
赴水死	-11.3046
工部主事	-11.3051
闗外	-11.3051
要地	-11.3053
石崖	-11.3054
不肖	-11.3054
喀什噶爾	-11.3055
雍正十三年	-11.3056
兩陸錢	-11.3058
有名	-11.3059
恢復	-11.306
北門外	-11.3062
莫如	-11.3062
司馬光	-11.3063
嫂	-11.3064
校書郎	-11.3064
閉門	-11.3067
扁額	-11.3067
越巂	-11.3068
味甘	-11.3069
府境	-11.3069
其道	-11.3069
溧陽人	-11.3069
黛	-11.3069
自為	-11.307
亶	-11.307
冠帶	-11.307
靈石	-11.3071
應之	-11.3072
未免	-11.3073
如生	-11.3074
有兩	-11.3075
姓氏	-11.3075
天福	-11.3075
正直	-11.3078
髙堰	-11.3078
流注	-11.3079
天長	-11.3082
安居	-11.3083
里南至	-11.3084
家營	-11.3084
括蒼彚紀	-11.3085
之可	-11.3085
開州	-11.3086
飛泉	-11.3086
拍	-11.3087
膠州	-11.3089
夫亡守節	-11.3091
諸蠻	-11.3091
尺餘	-11.3097
滁州	-11.3097
泉源	-11.3099
改縣曰	-11.3101
翠微	-11.3103
道也	-11.3103
侍講	-11.3103
証	-11.3103
或勸	-11.3104
討賊	-11.3105
涕泣	-11.3106
大畧	-11.3107
經始	-11.3107
東北隅	-11.3108
己巳	-11.3108
菁	-11.311
萬五千	-11.3113
先聖	-11.3117
水逕	-11.3118
義倉	-11.312
縣属	-11.3122
蝕	-11.3125
南部	-11.3127
誓死	-11.313
寶慶	-11.3132
皎	-11.3132
右軍	-11.3132
在府南	-11.3134
義士	-11.3134
萬計	-11.3135
曰臣	-11.314
妻蕭氏	-11.314
瓢	-11.3142
也余	-11.3142
變化	-11.3142
民困	-11.3144
團練	-11.3145
今譯改	-11.3146
未聞	-11.3148
昆明人	-11.3148
有善政	-11.3149
總制	-11.315
鄆	-11.3152
湟	-11.3154
錦衣	-11.3155
舂	-11.3156
獻公	-11.3156
糖	-11.3157
城周	-11.3158
陽侯	-11.3158
又北逕	-11.3158
縣城東	-11.3159
筆帖式	-11.3159
字士	-11.3161
廟碑	-11.3162
皁	-11.3165
鯤	-11.3165
百四十里	-11.3166
西安府	-11.3166
无	-11.3166
下令	-11.3166
幼子	-11.3169
不得不	-11.317
諸處	-11.3172
犂	-11.3174
涇原	-11.3176
並在	-11.3176
五城	-11.3177
鮮卑	-11.3178
潯陽	-11.318
明嘉靖間	-11.3181
本道	-11.3182
思州	-11.3182
視其	-11.3191
與民	-11.3192
撫育	-11.3192
樂府	-11.3193
贄	-11.3193
正德中	-11.3194
起運	-11.3195
具奏	-11.3197
明州	-11.3197
洄	-11.3197
八十五里	-11.3198
六日	-11.3198
起家	-11.3198
麒麟	-11.32
宋書	-11.32
好施	-11.3201
七十七	-11.3201
雍熙	-11.3203
黄庭堅	-11.3204
煬帝	-11.3205
湮塞	-11.3205
石五斗	-11.3206
歸之	-11.3207
夀州人	-11.3207
元屬	-11.3208
光禄大夫	-11.3211
嘉靖寧波府志	-11.3211
朝貢	-11.3213
不廢	-11.3214
㮣	-11.3217
紬	-11.3217
闖	-11.3217
部員外郎	-11.3218
常以	-11.3218
陸路	-11.322
初屬	-11.3221
白虎	-11.3223
大用	-11.3227
十四里	-11.3229
縣西三十里	-11.323
諜	-11.3231
亭曰	-11.3232
种	-11.3233
器械	-11.3233
愛其	-11.3235
無虞	-11.3236
從前	-11.3236
南溪	-11.3237
丁卯	-11.3237
館陶	-11.3239
綏徳	-11.324
楚王	-11.3241
祈禱	-11.3241
百八十里	-11.3242
酈注	-11.3243
正徳中	-11.3244
棐	-11.3244
伍千	-11.3245
其外	-11.3245
反覆	-11.3246
東十里	-11.3248
亦非	-11.3249
羗	-11.325
及第	-11.325
筋	-11.3253
巴蜀	-11.3253
東西廣	-11.3255
查得	-11.3257
藏書	-11.3257
灤	-11.3258
長清	-11.3258
雲門	-11.3258
氏之	-11.3258
觀在	-11.3259
東平州	-11.3259
年十月	-11.326
苻	-11.326
在縣署	-11.3261
八萬	-11.3261
縣故	-11.3262
經費	-11.3263
堂後	-11.3263
松江府	-11.3263
鉛山	-11.3265
三年置	-11.3268
金牛	-11.3268
潤州	-11.3268
東西兩	-11.3271
辟為	-11.3273
天順間	-11.3273
狎	-11.3273
池中	-11.3274
行部	-11.3274
永徽	-11.3275
陽太守	-11.3276
蜀漢	-11.3277
宣撫使	-11.3281
一萬三千	-11.3281
勅建	-11.3282
濟南府	-11.3283
擊敗之	-11.3284
統制	-11.3285
蘋	-11.3286
不阿	-11.3287
撫綏	-11.3287
焚之	-11.3289
蘇子瞻	-11.329
巴郡	-11.329
經過	-11.329
機宜	-11.329
古木	-11.329
訝	-11.3292
竟陵	-11.3292
橋南	-11.3293
緘	-11.3294
國地	-11.3294
賊黨	-11.3295
丈許	-11.3296
尺許	-11.3298
鎮安	-11.3298
一萬一千	-11.3299
待之	-11.3299
曄	-11.33
蛟龍	-11.3302
浦江	-11.3305
襄陽人	-11.3306
清介	-11.3307
波濤	-11.3308
慟哭	-11.3309
武后	-11.3309
者謂之	-11.3309
縣界八十里	-11.331
溪山	-11.3312
進兵	-11.3314
自昔	-11.3315
永泰	-11.3316
白玉	-11.3316
唐志	-11.3318
石工	-11.3321
四日	-11.3323
俱係	-11.3323
衲	-11.3324
召拜	-11.3324
地方官	-11.3325
定邊	-11.3328
一見	-11.3329
媿	-11.333
群	-11.333
凡五	-11.333
閼	-11.333
首尾	-11.3333
石屏	-11.3333
武義	-11.3334
宗正	-11.3336
事聞旌表	-11.3336
交界	-11.334
峽中	-11.3341
洊	-11.3342
而得	-11.3343
進士累官	-11.3343
賢祠	-11.3344
上命	-11.3345
黔中	-11.3346
簽	-11.3347
則是	-11.3347
伎	-11.3347
夀昌	-11.3348
蔥嶺	-11.3348
大名府	-11.3353
功成	-11.3353
六十三	-11.3353
瓠	-11.3357
祠宇	-11.3358
所過	-11.3359
巉	-11.3361
妻杜氏	-11.3363
寺中	-11.3366
夥	-11.3366
太公	-11.3367
黑水	-11.3367
宇記	-11.3368
望海	-11.3369
佺	-11.3369
瀼	-11.337
歙人	-11.3371
宏治	-11.3371
二千五百	-11.3372
四百八十	-11.3372
東昌	-11.3373
一丈二尺	-11.3373
靖州	-11.3374
相屬	-11.3374
循吏	-11.3375
東西距	-11.3375
周書	-11.3375
部郎	-11.3376
以文	-11.3376
廵檢	-11.3377
而居	-11.3377
平州	-11.3378
以節	-11.338
不敢犯	-11.3381
盤石	-11.3382
湖之	-11.3383
輿鬼	-11.3383
甥	-11.3383
為賊	-11.3384
三嵗	-11.3385
折而	-11.3387
覓	-11.3388
縣界七十里	-11.3389
所造	-11.3389
三十卷	-11.339
賜祭葬	-11.3391
西去	-11.3392
里至	-11.3394
北十五里	-11.3395
二百四十里	-11.3396
夫歿	-11.3398
祀唐	-11.3399
州為	-11.3401
次年	-11.3401
呉郡	-11.3403
自立	-11.3403
宜都	-11.3405
六十六	-11.3405
十畝	-11.3406
萬曆	-11.3408
靈應	-11.341
泝	-11.3411
鈐轄	-11.3415
八升	-11.3416
池水	-11.3416
復修	-11.3417
秦淮	-11.3418
賔客	-11.3419
歸葬	-11.342
鎮江府	-11.342
府州縣	-11.342
秘書	-11.342
部議	-11.3422
霏	-11.3422
府界	-11.3425
貴人	-11.3428
烏拉	-11.3429
鄣	-11.3429
三等	-11.343
永城	-11.3431
帝即位	-11.3431
營田	-11.3432
幇	-11.3432
吐谷渾	-11.3433
黄土	-11.3433
盱眙	-11.3433
十五名	-11.3434
太子少保	-11.3436
釋奠	-11.3436
黒龍江	-11.3438
縣城南	-11.3438
加封	-11.3438
歌曰	-11.3439
北路	-11.3446
鋐	-11.3447
因以為名	-11.3447
殿後	-11.3447
翼城	-11.3448
泉流	-11.3449
周四里	-11.3449
七十三	-11.345
歸來	-11.345
刄	-11.3453
府通判	-11.3454
開原	-11.3455
秀州	-11.3456
訐	-11.3457
盡力	-11.3458
清逺	-11.3461
絮	-11.3461
流移	-11.3464
下同	-11.3465
中統	-11.3466
未得	-11.3468
開封人	-11.3471
在縣治東南	-11.3472
疏勒	-11.3472
以助	-11.3473
問曰	-11.3476
葫蘆	-11.3476
年二十四	-11.3476
尚在	-11.3477
阨	-11.3478
書堂	-11.3478
江陰人	-11.3479
闕里	-11.3481
為盜	-11.3481
惠州	-11.3482
三百餘	-11.3482
西五里	-11.3485
入渭	-11.3486
矣此	-11.3486
不辱	-11.3487
見者	-11.3488
水北	-11.3488
楊家	-11.3489
之䇿	-11.3492
送之	-11.3493
𨼆	-11.3496
巴延	-11.3497
動支	-11.3498
讒	-11.3498
峯下	-11.3499
固原	-11.3501
南一里	-11.3503
九龍	-11.3503
威逺	-11.3503
之先	-11.3503
川水	-11.3504
瓊州	-11.3504
韶州	-11.3505
元置	-11.3505
東道	-11.3506
滎澤	-11.3506
會同	-11.3506
南與	-11.3506
原額人丁	-11.3507
五合	-11.3509
捐貲	-11.3512
在府學	-11.3514
儒林	-11.3515
筒	-11.3517
青海	-11.352
青雲	-11.352
州防禦使	-11.3522
敦煌	-11.3523
二門	-11.3525
鄢	-11.3526
一萬二千	-11.3526
此為	-11.3526
水軍	-11.3527
閩縣	-11.3528
父病	-11.3531
相持	-11.3532
巖山	-11.3532
新増	-11.3534
稽首	-11.3535
聨曰	-11.3536
貳拾	-11.3536
三道	-11.3538
秀水人	-11.3538
明洪武三年	-11.3538
未嫁	-11.3539
秣陵	-11.354
潮汐	-11.354
八九	-11.3541
連江	-11.3542
瀧	-11.3543
奭	-11.3543
其側	-11.3543
會稽人	-11.3545
始有	-11.3546
丈五尺	-11.3547
一首	-11.3548
舉人任	-11.3548
先帝	-11.355
引去	-11.355
氏李	-11.3551
識之	-11.3551
康熙六年	-11.3551
方正	-11.3552
餼	-11.3552
部侍郎	-11.3553
號令	-11.3553
險工	-11.3554
覺寺	-11.3554
覘	-11.3554
嫩	-11.3555
可觀	-11.3558
民兵	-11.3559
也昔	-11.3559
璇	-11.356
陜西人	-11.3561
過之	-11.3562
與諸	-11.3562
唐虞	-11.3562
萬國	-11.3562
連州	-11.3563
好義	-11.3563
全州	-11.3565
白茆	-11.3568
黄巢	-11.3569
京兆府	-11.3569
蔭	-11.3571
萬壑	-11.3572
渾河	-11.3572
郡廢	-11.3572
紹興府	-11.3573
也臣	-11.3574
窠	-11.3574
三寸	-11.3575
净	-11.3576
里克	-11.3578
扳	-11.3579
保寧	-11.3579
者衆	-11.3581
感其	-11.3582
圍城	-11.3582
守道	-11.3582
天然	-11.3583
海棠	-11.3584
土木	-11.3586
裨	-11.3587
病卒	-11.3587
二百二十里	-11.3588
其時	-11.3589
應詔	-11.359
自言	-11.3592
飛來	-11.3592
乾德	-11.3592
右丞	-11.3594
鐵嶺	-11.3596
按此	-11.3596
昺	-11.3596
鉤	-11.3597
餘兩	-11.3598
雙溪	-11.36
之竒	-11.3601
亭亭	-11.3602
迦	-11.3603
郫	-11.3603
出師	-11.3604
在縣治南	-11.3605
屹立	-11.3605
俗稱	-11.3606
二丈五尺	-11.3607
胡氏	-11.3607
三合	-11.3609
南城人	-11.361
岳州	-11.3612
拒守	-11.3612
崇明	-11.3614
柑	-11.3616
有序	-11.3616
㳟	-11.3616
墖	-11.3616
闖賊	-11.3617
復業	-11.3618
亦何	-11.3618
春二月	-11.362
小學	-11.3621
冬夏	-11.3621
東明	-11.3624
澧州	-11.3625
鍔	-11.3625
皖	-11.3626
西方	-11.3626
知制誥	-11.3627
澄城	-11.3628
磊	-11.3629
考城	-11.3629
順帝	-11.3629
其兄	-11.3629
猴	-11.3631
湄	-11.3631
家陂	-11.3632
籙	-11.3632
埜	-11.3635
涇陽人	-11.3639
有志	-11.3639
口入	-11.3639
錢塘縣志	-11.364
下馬	-11.3642
俯仰	-11.3642
年年	-11.3642
先儒	-11.3643
入冦	-11.3644
撫字	-11.3645
堤岸	-11.3646
艦	-11.3646
賑之	-11.3647
一百十里	-11.3647
以清	-11.3649
近年	-11.365
力請	-11.365
至元中	-11.3652
不踰	-11.3652
和闐	-11.3653
州貢	-11.3653
釵	-11.3654
轡	-11.3655
茂陵	-11.3661
來攻	-11.3662
哲宗	-11.3665
棄之	-11.3666
結廬	-11.3667
扶溝	-11.3667
浮梁人	-11.3668
金剛	-11.3669
所立	-11.3669
玖分	-11.3669
明洪武中	-11.3672
遵化	-11.3674
樓閣	-11.3675
籟	-11.3677
涇縣人	-11.3678
襟帶	-11.3679
治中	-11.368
虞城	-11.3683
三百九十	-11.3683
有詔	-11.3683
元年置	-11.3684
大治	-11.3685
華亭縣	-11.3685
等事	-11.3685
剽掠	-11.3686
比之	-11.3686
賫	-11.3686
槍	-11.3687
妍	-11.369
壠	-11.3691
察院	-11.3691
萬餘人	-11.3693
分宜	-11.3694
雖不	-11.3695
家堡	-11.3696
盧氏	-11.3696
三公	-11.3697
宛然	-11.3698
浮雲	-11.3699
僕射	-11.3703
窑	-11.3706
時方	-11.3707
東江	-11.3708
土著	-11.3708
㭍釐	-11.371
築土	-11.3711
不解	-11.3712
安邑人	-11.3713
北史	-11.3714
遣其	-11.3714
寕府	-11.3715
以金	-11.3716
屈曲	-11.3716
舊例	-11.3717
公輔	-11.3722
魏書地形志	-11.3722
明嘉靖中	-11.3723
縣治南	-11.3725
北界	-11.3726
漳浦	-11.3728
東四十里	-11.3728
紐	-11.3729
為此	-11.373
學政	-11.3731
夏五月	-11.3731
邦人	-11.3731
諭之	-11.3732
堅固	-11.3732
四十四年	-11.3732
蔑	-11.3733
薑	-11.3734
稱㫖	-11.3735
一線	-11.3736
年旌	-11.3738
鄜	-11.3739
東南有	-11.3741
文忠	-11.3742
道之	-11.3742
三百一十	-11.3743
隨時	-11.3745
進攻	-11.3745
也是	-11.3746
東城	-11.3746
在府城東北	-11.3746
解元	-11.3749
布政使司	-11.3751
因循	-11.3753
土兵	-11.3754
讞	-11.3754
有洞	-11.3756
横亘	-11.3759
西江	-11.3762
大有	-11.3762
太常博士	-11.3764
本姓	-11.3764
節孝	-11.3764
武都	-11.3765
石二斗	-11.3767
歌舞	-11.3767
曰小	-11.3767
鳯凰山	-11.3768
讜	-11.3769
投水死	-11.3769
侔	-11.3771
延平	-11.3774
其徳	-11.3775
入室	-11.3776
工詩	-11.3777
風氣	-11.3778
卹	-11.3779
瀟	-11.378
宿州人	-11.3781
國子祭酒	-11.3782
識其	-11.3783
安帝	-11.3785
臣聞	-11.3786
首領	-11.3791
郡有	-11.3791
尚可	-11.3792
和平	-11.3793
廣順	-11.3795
海鹽人	-11.3797
楼	-11.3797
物也	-11.3798
而不可	-11.3799
鄱陽人	-11.3799
又東經	-11.3801
則其	-11.3804
䟦	-11.3804
土貢	-11.3804
深五尺	-11.3805
以来	-11.3805
嶺山	-11.3805
於天下	-11.3805
於水	-11.3808
未易	-11.3809
萬四千	-11.3811
及長	-11.3811
張士	-11.3813
華陰	-11.3815
登封	-11.3816
虎頭	-11.3817
養濟院	-11.3819
㦸門	-11.3821
醮	-11.3824
遣之	-11.3824
其能	-11.3824
部左侍郎	-11.3824
霖雨	-11.3824
景福	-11.3825
北征	-11.3826
無常	-11.3826
髯	-11.3826
三岔	-11.3827
圜	-11.3828
葆	-11.3828
圖經云	-11.3832
讀書處	-11.3832
治行	-11.3832
不滿	-11.3833
州知府	-11.3834
司理	-11.3834
一貟	-11.3834
臆	-11.3835
老君	-11.3837
斬獲	-11.3838
七十六	-11.3838
上谷	-11.3838
無何	-11.3839
閹	-11.384
法度	-11.3841
折而南	-11.3841
配享	-11.3844
燔	-11.3845
僚屬	-11.3845
栅	-11.3846
蕪湖人	-11.3847
逺矣	-11.3848
相公	-11.3848
五百餘里	-11.3849
以縣屬	-11.3853
塘河	-11.3856
之望	-11.3856
總管府	-11.3856
守正	-11.3857
曰南	-11.3857
奉勅	-11.3859
二源	-11.3862
從來	-11.3862
鶻	-11.3863
顗	-11.3865
覿	-11.3868
迸	-11.3868
南為	-11.3869
去年	-11.3869
豈無	-11.3869
年二十二	-11.387
徂	-11.3871
二頃	-11.3872
牓	-11.3873
年十四	-11.3874
岢嵐	-11.3874
玉堂	-11.3876
在府治西	-11.3876
聖朝	-11.3877
為立祠	-11.3879
以達	-11.3879
更有	-11.3879
九十五	-11.388
賢者	-11.388
妻吕氏	-11.388
熒惑	-11.3881
續文獻通考	-11.3882
譁	-11.3882
漢州	-11.3883
年七月	-11.3883
建閘	-11.3884
縣北三十里	-11.3884
奐	-11.3885
桀	-11.3885
何事	-11.3886
進士任	-11.3886
焰	-11.3886
本色糧	-11.3886
鎮東	-11.3886
可不	-11.3887
呌	-11.3887
無極	-11.3887
千尺	-11.389
罷之	-11.389
譙樓	-11.3891
以法	-11.3891
葬之	-11.3891
收穫	-11.3895
勢必	-11.3895
諶	-11.3895
額爾	-11.3896
上有石	-11.3897
赤城志	-11.3898
誰能	-11.3899
善屬文	-11.39
里東西距	-11.39
南湖	-11.39
則曰	-11.3903
衚衕	-11.3903
嘉魚	-11.3904
橋北	-11.3904
民安	-11.3905
僰	-11.3907
張浚	-11.3907
其巔	-11.3908
永順	-11.3908
陬	-11.3909
賑饑	-11.3909
石如	-11.391
宕渠	-11.391
篁	-11.3912
兩伍錢	-11.3913
殿宇	-11.3914
陷城	-11.3914
和元年	-11.3917
焚其	-11.3918
流離	-11.3919
妻戴氏	-11.392
不煩	-11.3921
曡	-11.3921
寐	-11.3924
妻夏氏	-11.3925
萬載	-11.3926
妻任氏	-11.3928
讚	-11.3928
旦夕	-11.3931
釗	-11.3931
王母	-11.3932
塔山	-11.3933
進封	-11.3933
邊外	-11.3934
於道	-11.3935
留之	-11.3935
皆得	-11.3936
悠	-11.3937
兩壹錢	-11.3937
上其事	-11.3939
承平	-11.3939
神木	-11.3939
名宦祠	-11.3941
南去	-11.3943
祠堂	-11.3947
去官	-11.3948
更始	-11.395
有六	-11.395
孀	-11.3957
山形	-11.3957
經行	-11.3958
一朝	-11.3959
中多	-11.396
後進	-11.3961
東方	-11.3962
文獻通考	-11.3962
明敏	-11.3964
良臣	-11.3965
無名	-11.3965
千丈	-11.3966
孝行	-11.3967
北河	-11.3969
龍州	-11.3969
里西北至	-11.397
三十丈	-11.397
駐兵	-11.3971
樂陵	-11.3975
封疆	-11.3976
上郡	-11.3976
長夀	-11.3977
婁江	-11.3977
陳文	-11.3979
福地	-11.3982
羈縻	-11.3983
幡	-11.3986
扈從	-11.3988
帝本紀	-11.3989
義兵	-11.399
家有	-11.399
磐	-11.3993
白渠	-11.3994
寜人	-11.3997
少府	-11.3997
兠	-11.4
萍	-11.4003
南北二	-11.4006
一合	-11.4006
水路	-11.4007
雍正十一年	-11.4007
信安	-11.401
溪上	-11.4011
厘	-11.4011
營州	-11.4012
靖難	-11.4013
生擒	-11.4013
潭州	-11.4014
祠記	-11.4014
滹沱	-11.4015
百花	-11.4017
年二十七	-11.4017
耶律	-11.4018
糓	-11.4019
惠王	-11.4021
渰	-11.4023
山色	-11.4024
穉	-11.4028
悖	-11.4029
鹿邑	-11.403
利病	-11.403
阪	-11.4031
碭山	-11.4031
水東流	-11.4033
原本	-11.4033
三百三十	-11.4034
解州	-11.4034
一處	-11.4035
廣信	-11.4039
修煉	-11.4039
高唐	-11.404
大書	-11.4041
大清	-11.4041
在府城東南	-11.4043
又南逕	-11.4044
西界	-11.4044
成祖	-11.4044
立祠祀之	-11.4044
均徭	-11.4046
新昌人	-11.4047
松陽	-11.4048
六十九	-11.4052
新城人	-11.4053
必以	-11.4053
窗	-11.4053
屯丁	-11.4053
行在	-11.4057
谷中	-11.406
鄆州	-11.406
汀州	-11.4061
全活甚衆	-11.4061
王宗	-11.4061
為先	-11.4061
貧不能	-11.4062
與賊	-11.4064
呵	-11.4066
怖	-11.4068
臬	-11.4068
權貴	-11.4068
十里源出	-11.4068
昌言	-11.4071
接壤	-11.4071
餘丈	-11.4071
掄	-11.4072
石四斗	-11.4073
為上	-11.4073
占城	-11.4074
初改	-11.4076
分明	-11.4076
妻江氏	-11.408
驪	-11.4081
悌	-11.4082
翕	-11.4082
道州	-11.4083
恤民	-11.4085
昇平	-11.4085
戰功	-11.4085
鎧	-11.4086
之論	-11.4086
嘗與	-11.4087
馬蹄	-11.4088
吼	-11.4088
置酒	-11.4089
人監	-11.4089
暝	-11.4089
繚	-11.409
安之	-11.4092
斯文	-11.4095
日暮	-11.4096
丁巳	-11.4096
平湖人	-11.4097
多少	-11.4098
未仕	-11.4098
平陽府	-11.4098
良弼	-11.4099
六十一	-11.41
啟閉	-11.4103
瞽	-11.4103
上聞	-11.4103
句容	-11.4104
豬	-11.4104
聖母	-11.4104
嫗	-11.4106
等語	-11.4106
東北逕	-11.4106
矛	-11.4108
沮水	-11.4108
碁	-11.4108
圏	-11.4109
順德	-11.4111
依山	-11.4111
詮	-11.4112
唐太宗	-11.4115
伏秋	-11.4115
釣臺	-11.4116
四州	-11.4116
無私	-11.4116
三百八十	-11.4116
馬步戰守兵	-11.4117
太僕	-11.4118
以薦	-11.4119
田廬	-11.4123
諸軍事	-11.4125
增築	-11.4125
鴛鴦	-11.4125
一絲	-11.4126
杓	-11.4126
文炳	-11.4126
葭州	-11.4127
司郎中	-11.4129
否則	-11.4129
縣官	-11.4129
國用	-11.413
焜	-11.413
之宜	-11.4131
之實	-11.4133
聖寺	-11.4133
白狼	-11.4134
之重	-11.4137
惻	-11.4138
成進士	-11.4139
兩月	-11.4139
空中	-11.4139
喇嘛	-11.4144
合為一	-11.4144
新增	-11.4144
葬於	-11.4144
在官	-11.4148
茫茫	-11.4149
疑獄	-11.4151
五雲	-11.4154
思誠	-11.4157
今縣	-11.4157
經制外委	-11.416
今已	-11.4162
并序	-11.4162
世孫	-11.4164
字希	-11.4164
頺	-11.4165
豫章書	-11.4165
南來	-11.4166
厪	-11.4168
嚙	-11.4169
於地	-11.4173
不離	-11.4173
第進士	-11.4175
遂廢	-11.4175
日到任	-11.4176
止於	-11.4177
茨	-11.418
俄羅斯	-11.4181
光宗	-11.4182
武陵人	-11.4182
九十六	-11.4184
脇	-11.4186
一字	-11.4186
新橋	-11.4187
宇宙	-11.4188
濺	-11.4188
驪山	-11.419
李自成	-11.419
左衛	-11.4191
徳宗	-11.4192
半月	-11.4194
青石	-11.4194
龍尾	-11.4194
則不	-11.4196
三郡	-11.4196
叄分	-11.4197
今治	-11.4197
察其	-11.4198
軍器	-11.4198
其職	-11.4199
父兄	-11.4202
斷其	-11.4204
漢江	-11.4205
十八日	-11.4206
在縣東三十里	-11.4208
不變	-11.4209
萬六千	-11.4209
學者稱	-11.421
殉難	-11.421
列於	-11.421
南一百里	-11.421
明徳	-11.4211
隴右	-11.4213
髙安	-11.4214
閟	-11.4214
巴州	-11.4214
長老	-11.4215
一枝	-11.4218
各屬	-11.4218
悉心	-11.422
龍游	-11.4224
以充	-11.4224
食邑	-11.4226
處之	-11.4227
追之	-11.4228
石穴	-11.4228
瀕海	-11.4228
緇	-11.4229
雩都	-11.423
乙巳	-11.423
之教	-11.423
墓誌	-11.4231
橋河	-11.4231
衆山	-11.4231
寀	-11.4231
五升	-11.4234
方物	-11.4236
圖畫	-11.4237
此時	-11.4237
囿	-11.4238
仕為	-11.4238
今存	-11.424
敢不	-11.4242
名賢	-11.4245
上都	-11.4246
通天	-11.4246
招降	-11.4249
螭	-11.4249
南鄭	-11.4249
郟	-11.4249
渟	-11.4249
杵	-11.425
通道	-11.425
帙	-11.4252
别為	-11.4254
開渠	-11.4255
羅城	-11.4255
相似	-11.4255
窓	-11.4256
為田	-11.4257
自漢	-11.4258
東去	-11.4259
五寸	-11.426
麾下	-11.426
孺子	-11.4262
穆宗	-11.4264
海寇	-11.4265
萇	-11.4267
埔	-11.4268
各汛	-11.4268
烏江	-11.4268
年六十	-11.4268
丙寅	-11.4269
安鄉	-11.4269
按察副使	-11.4269
卒官	-11.427
凑	-11.427
兵五	-11.4271
畋	-11.4271
為首	-11.4273
東北流入	-11.4273
津梁	-11.4274
詩話	-11.4275
秦置	-11.4276
祭之	-11.4276
二升	-11.4276
在州城東	-11.4277
免其	-11.4277
奉上諭	-11.4278
悉以	-11.4279
於是乎	-11.4281
俱廢	-11.4282
藏之	-11.4283
沅陵	-11.4283
無所不	-11.4284
其墓	-11.4285
廟祀	-11.4286
為治	-11.4287
為御史	-11.4287
未央宫	-11.4288
劉瑾	-11.4288
然其	-11.4289
化之	-11.4289
昭文	-11.429
通州人	-11.4292
達爾	-11.4292
三年改	-11.4294
岷州	-11.4294
蒋	-11.4295
提㸃	-11.4296
道塲	-11.4296
練湖	-11.4297
運判	-11.4299
太初	-11.4299
嗟乎	-11.4301
屹然	-11.4305
胡公	-11.4305
年老	-11.4306
凡四	-11.4308
幄	-11.4309
龍興	-11.4309
毅然	-11.4309
劉文	-11.431
民甚	-11.4311
奮勇	-11.4312
陞為	-11.4312
洪洞	-11.4312
泯	-11.4314
詩有	-11.4316
丹水	-11.4318
壯士	-11.4318
擊破之	-11.4318
白金	-11.432
轉輸	-11.432
處所	-11.4321
分支	-11.4323
景雲	-11.4325
北注	-11.4326
以終	-11.4328
賓客	-11.4328
訓導一員	-11.4331
瓣	-11.4331
居庸	-11.4333
漬	-11.4333
遷都	-11.4333
造化	-11.4335
郡地	-11.4336
妻盧氏	-11.4337
者自	-11.4337
屐	-11.4338
二種	-11.4339
賢良	-11.4341
一寸	-11.4341
有金	-11.4341
逃亡	-11.4346
七嵗	-11.4348
人嘉靖進士	-11.4348
先年	-11.4348
縂	-11.4348
泚	-11.4349
承恩	-11.4349
絶壁	-11.4349
璩	-11.435
王士	-11.4351
縣南三十里	-11.4352
府知府	-11.4352
滔	-11.4353
吸	-11.4353
署在	-11.4355
文翁	-11.4355
成熟	-11.4355
水由	-11.4356
自刎	-11.4356
佗	-11.4357
其居	-11.4358
萬斛	-11.4358
雲臺	-11.4358
於家	-11.4361
豪傑	-11.4364
應元	-11.4365
友善	-11.4366
司農	-11.4366
諸泉	-11.4367
又從	-11.4368
滕縣	-11.437
値	-11.437
白帝	-11.4372
卵	-11.4373
二十里至	-11.4373
賜以	-11.4375
陽曲人	-11.4375
崇義	-11.4375
在州城西	-11.4378
遡	-11.4378
水又西	-11.4381
侯廟	-11.4381
新志	-11.4383
别墅	-11.4384
棟宇	-11.4385
鎮標	-11.4385
照例	-11.4386
酉陽	-11.439
長平	-11.439
二十日	-11.4391
銅梁	-11.4391
苻堅	-11.4392
淳安	-11.4393
名士	-11.4393
圎	-11.4393
峴山	-11.4394
艷	-11.4394
鄉兵	-11.4394
漪	-11.4395
何不	-11.4396
六朝	-11.4396
崞縣	-11.4398
信都	-11.4399
星子	-11.4402
國柱	-11.4403
其弊	-11.4403
紱	-11.4403
外實	-11.4404
瀋陽	-11.4405
鄉賢祠	-11.4407
甚有	-11.4408
浙省	-11.441
夏邑	-11.441
竊發	-11.4411
匣	-11.4411
倖	-11.4411
天監	-11.4411
奨	-11.4412
善騎射	-11.4415
直上	-11.4416
竹木	-11.4417
睹	-11.4419
湘水	-11.4419
柰	-11.442
有法	-11.442
清凉	-11.4421
依然	-11.4421
平凉	-11.4421
義勇	-11.4422
以石	-11.4424
縣漢	-11.4424
季子	-11.4426
在州治東	-11.443
金鄉	-11.4433
錦繡	-11.4434
射圃	-11.4435
凄	-11.4435
已久	-11.4435
陳大	-11.4436
晉因之	-11.4436
腥	-11.4436
安豐	-11.4436
時年	-11.4439
波羅	-11.444
東北有	-11.444
梁置	-11.4442
福清	-11.4443
一十一	-11.4444
刑部郎中	-11.4445
者何	-11.4445
李廷	-11.4446
天章	-11.4448
氣象	-11.445
羅浮	-11.4453
中京	-11.4455
莫之	-11.4456
輔臣	-11.4456
成都人	-11.4457
所掠	-11.4458
人材	-11.4458
鬢	-11.4459
養姑	-11.446
沓	-11.446
田疇	-11.4462
圖志	-11.4463
民心	-11.4467
海子	-11.4467
一千九百	-11.4467
大路	-11.4467
富春	-11.4467
縣界九十里	-11.4468
終始	-11.4469
報可	-11.4471
十字	-11.4473
五十一	-11.4473
顔色	-11.4473
更為	-11.4474
八十六	-11.4474
郡領	-11.4474
▁按	-11.4476
凉州	-11.4477
復還	-11.4478
藜	-11.4478
人事	-11.448
赤烏	-11.448
山書院	-11.4482
㐮	-11.4482
洋縣	-11.4483
舛	-11.4483
琇	-11.4484
最髙	-11.4486
曲曲	-11.4488
縣界四十里	-11.4489
縣西四十里	-11.449
峨	-11.4491
遺風	-11.4491
今嵗	-11.4492
上猶	-11.4492
厥後	-11.4492
孔氏	-11.4495
為天下	-11.4496
靈芝	-11.4501
臨安人	-11.4501
孝養	-11.4501
成名	-11.4503
芾	-11.4503
冨	-11.4506
井陘	-11.4507
紹熙	-11.4507
物産	-11.4509
可用	-11.451
等皆	-11.4511
繼妻	-11.4513
譴	-11.4515
宫在	-11.4518
公廟	-11.4518
流沙	-11.4519
所用	-11.452
深不可測	-11.452
撞	-11.452
西陵	-11.4521
蝶	-11.4521
靈異	-11.4521
百濟	-11.4522
道徳	-11.4524
帝紀	-11.4525
庶子	-11.4525
八日	-11.4526
三品	-11.4526
獨山	-11.453
之本	-11.453
賜金	-11.4532
猗	-11.4533
章句	-11.4534
千總二員	-11.4534
執法	-11.4534
縉紳	-11.4534
吉祥	-11.4535
地為	-11.4535
緊	-11.4536
妻鄧氏	-11.4537
武寧	-11.4538
梟	-11.454
媒	-11.454
日以	-11.4541
五代史	-11.4542
靈隠	-11.4542
無有	-11.4542
棉	-11.4542
老僧	-11.4542
盃	-11.4543
㕘軍	-11.4543
袂	-11.4543
元吉	-11.4544
以拒	-11.4545
德清	-11.4546
七十四	-11.4546
九十七	-11.4547
學記	-11.4551
甘棠	-11.4553
稷山	-11.4553
府尹	-11.4555
呉淞江	-11.4555
合江	-11.4556
之禍	-11.4556
凡所	-11.4557
嘉納	-11.456
監生康	-11.456
妻彭氏	-11.4561
至縣治	-11.4562
逰擊	-11.4563
卸	-11.4563
剰	-11.4564
於内	-11.4566
擎	-11.4566
情形	-11.4567
歴城人	-11.457
平城	-11.457
烏什	-11.457
矣乃	-11.4571
異常	-11.4571
者是也	-11.4571
建學	-11.4572
而進	-11.4574
元一統志	-11.4575
兩崖	-11.4579
俶	-11.4579
出沒	-11.4581
稟	-11.4581
太谷	-11.4582
遂平	-11.4582
廣陽	-11.4582
傳詳	-11.4582
棄官	-11.4583
兵備副使	-11.4583
曰公	-11.4584
普定	-11.4584
雲寺	-11.4585
塘長	-11.4585
今日之	-11.4588
大呼	-11.4589
此處	-11.459
黄公	-11.4592
祀漢	-11.4594
揚子	-11.4594
建寺	-11.4595
人正徳	-11.4597
去其	-11.4598
時政	-11.4598
得人	-11.46
東連	-11.4601
被災	-11.4603
晷	-11.4603
海水	-11.4606
藎	-11.4606
以利	-11.4608
遂與	-11.4609
晞	-11.461
請於朝	-11.461
海岸	-11.4611
驂	-11.4611
之職	-11.4612
曰朕	-11.4613
一一	-11.4614
紇	-11.462
水又南	-11.4621
尋陞	-11.4622
特命	-11.4624
繒	-11.4624
南九十里	-11.4624
萬家	-11.4624
著作郎	-11.4625
侮	-11.4625
己卯	-11.4626
榆次	-11.4626
卒年八十	-11.4626
此又	-11.4627
歴知	-11.4627
右都御史	-11.4628
豸	-11.4631
垓	-11.4631
縣𨽻	-11.4632
總領	-11.4632
燿	-11.4633
雍正十二年	-11.4633
化州	-11.4634
四百五十	-11.4634
非常	-11.4634
四百二十	-11.4635
年二月	-11.4636
大猷	-11.4638
事聞贈	-11.4639
銅鼓	-11.464
高山	-11.464
州領	-11.4643
竹林	-11.4643
杪	-11.4643
興廢	-11.4645
累擢	-11.4646
社稷壇	-11.4647
按察	-11.4648
春三月	-11.4649
家樓	-11.4649
羊腸	-11.465
中立	-11.465
又謂	-11.4652
學官	-11.4653
趙公	-11.4653
母疾	-11.4654
党	-11.4655
郡後漢	-11.4655
太宗時	-11.4656
日本	-11.4656
延陵	-11.4656
文正	-11.4658
興隆	-11.466
修舉	-11.4661
海寜	-11.4661
宕	-11.4662
啓閉	-11.4664
抛	-11.4665
敗走	-11.4667
鈐	-11.4667
濟隂	-11.4667
無忌	-11.4668
尤精	-11.4669
愜	-11.4669
荆湖	-11.467
募兵	-11.467
堂邑	-11.467
山房	-11.4671
徐邳	-11.4675
増置	-11.4675
忙	-11.4676
一篇	-11.4676
山即	-11.468
蘭谿	-11.4683
忠信	-11.4684
其狀	-11.4684
之徳	-11.4684
勸之	-11.4685
之典	-11.4686
髙昌	-11.4688
亦為	-11.4689
淮陽	-11.4692
懐逺	-11.4692
疏通	-11.4693
脆	-11.4694
内黄	-11.4695
坳	-11.4696
開寶	-11.4697
萬松	-11.4697
南流至	-11.4698
齊魯	-11.47
南出	-11.47
之陽	-11.47
是則	-11.4702
㑹試	-11.4703
卒年七十	-11.4704
世同居	-11.4706
見在	-11.4707
年二十五	-11.4709
兩峯	-11.4712
之西南	-11.4713
一望	-11.4714
射之	-11.4714
改適	-11.4715
謫戍	-11.4716
宜陽	-11.4721
高下	-11.4722
新建人	-11.4723
五十丈	-11.4723
以明經	-11.4725
七丈	-11.4726
祕書	-11.4726
萬緡	-11.4727
祁門人	-11.4727
秀才	-11.4733
間知	-11.4733
混同江	-11.4734
每石	-11.4736
異時	-11.4736
百餘年	-11.4738
斾	-11.4739
在縣西三十里	-11.4742
百斤	-11.4745
也按	-11.4746
景龍	-11.4747
羣盜	-11.4747
四圍	-11.475
二十年任	-11.4754
元史地理志	-11.4754
滿洲人	-11.4754
人呼為	-11.4756
繁昌	-11.476
寂寞	-11.4761
有不	-11.4763
金碧	-11.4763
魏晉	-11.4764
采石	-11.4764
縣城西	-11.4767
朝天	-11.4767
叄千	-11.4773
聰明	-11.4774
唐人	-11.4775
以賑	-11.4776
其色	-11.4776
溶	-11.4777
忤㫖	-11.4777
窖	-11.4778
閭里	-11.4779
有㫖	-11.478
供養	-11.4781
都督僉事	-11.4782
芸	-11.4783
范蠡	-11.4783
關外	-11.4783
山名	-11.4784
導之	-11.4786
五年建	-11.4786
雷州	-11.4786
虹橋	-11.4787
交河	-11.4789
第六	-11.4791
精神	-11.4792
如前	-11.4792
俱死	-11.4796
巢穴	-11.4797
娛	-11.4797
者無	-11.4797
嘗謂	-11.4798
惠帝	-11.4799
水至	-11.4799
兩廣	-11.48
四寸	-11.48
隘口	-11.4802
蛤	-11.4802
蒼翠	-11.4803
新設	-11.4806
正德間	-11.4806
四十八年	-11.4808
州推官	-11.4808
奉裁	-11.4809
蒙古語	-11.4809
子胥	-11.4809
舉孝亷	-11.4811
烟霞	-11.4811
貳百	-11.4812
山之東	-11.4813
元江	-11.4814
慈溪	-11.4816
置巡司	-11.4817
周五里	-11.4818
芮城	-11.4818
麋	-11.4818
延年	-11.482
辛夘	-11.4821
萬象	-11.4821
有年	-11.4822
芋	-11.4823
亂石	-11.4823
十五卷	-11.4823
枋	-11.4824
繫獄	-11.4825
三府	-11.4825
復出	-11.4826
家寨	-11.4828
櫺星門	-11.4831
聊城	-11.4831
士庶	-11.4832
可望	-11.4834
為本	-11.4837
宜君	-11.4838
砩	-11.4839
堂上	-11.4839
之靈	-11.4841
詔曰	-11.4842
义	-11.4843
立功	-11.4845
侍從	-11.4845
柟	-11.4845
芥	-11.4845
保甲	-11.4846
駛	-11.4848
也因	-11.4849
欣然	-11.4849
澍	-11.485
東來	-11.4851
其行	-11.4852
大體	-11.4852
梁天監	-11.4855
封禪	-11.4855
致仕卒	-11.4857
憚之	-11.4858
元和郡縣志	-11.4858
諭㫖	-11.4859
罵不絶口	-11.486
南自	-11.4861
鎮之	-11.4862
雉堞	-11.4862
故以	-11.4862
西自	-11.4863
抜	-11.4864
簮	-11.4865
伍毫	-11.4866
王佐	-11.4866
四年置	-11.4867
巗	-11.4867
應麟	-11.4867
汨	-11.4869
最多	-11.487
開浚	-11.487
峪口	-11.487
墊江	-11.4871
不存	-11.4872
者十	-11.4872
牂牁	-11.4873
六寸	-11.4873
新化	-11.4873
泉石	-11.4874
元韻	-11.4876
進賢人	-11.4876
地置	-11.4876
西距	-11.488
嶺北	-11.488
牋	-11.4881
魏郡	-11.4881
惡之	-11.4881
倜儻	-11.4881
楚州	-11.4882
靑	-11.4882
史館	-11.4883
韓信	-11.4885
穫	-11.4886
佞	-11.4886
桓公	-11.4886
國子	-11.4886
都水監	-11.4886
轉運副使	-11.4886
北來	-11.4887
吿	-11.4888
於市	-11.4891
七升	-11.4894
在縣西二十里	-11.4894
今則	-11.4895
定遠	-11.4896
縣故城東	-11.4897
甃石	-11.4897
莎	-11.49
壹毫	-11.4901
闕下	-11.4902
自南	-11.4904
侍讀	-11.4905
大禮	-11.4905
紺	-11.4906
蠱	-11.4907
入洛	-11.4907
竒之	-11.4908
而弗	-11.4908
洶湧	-11.4909
茸	-11.491
而為之	-11.491
牛山	-11.4912
訾	-11.4912
大典	-11.4915
王者	-11.4915
元氣	-11.4916
人跡	-11.4916
徵米	-11.4917
之㫖	-11.4918
嘉慶十	-11.4919
當路	-11.4921
大驚	-11.4922
縣城内	-11.4922
家壩	-11.4923
以老	-11.4923
文辭	-11.4923
選貢	-11.4927
蘄水人	-11.4928
順義	-11.4928
咄	-11.4928
疾苦	-11.4928
闔閭	-11.4929
金雞	-11.4931
水次	-11.4931
在上	-11.4932
北去	-11.4934
雲漢	-11.4934
於兹	-11.4935
汾隂	-11.4937
東南入	-11.4938
三角	-11.494
妻蘇氏	-11.4944
萬騎	-11.4945
哀之	-11.4947
曲靖	-11.4947
縣東二十里	-11.4947
東北入	-11.4949
嵓	-11.4949
設伏	-11.495
銖	-11.4951
人洪武中	-11.4951
之請	-11.4952
遠近	-11.4953
翎	-11.4955
惟一	-11.4956
水皆	-11.4957
根本	-11.4958
北九十里	-11.4958
待詔	-11.496
陂塘	-11.4963
最大	-11.4965
日久	-11.4965
以救	-11.4965
殿中侍御史	-11.4968
前來	-11.4968
澠池	-11.4969
地形志	-11.497
也吾	-11.497
産錢	-11.4971
庥	-11.4971
致之	-11.4972
延安府	-11.4973
王孫	-11.4974
儆	-11.4974
轟	-11.4977
黟	-11.4977
一區	-11.4978
精兵	-11.4979
柿	-11.4981
七人	-11.4983
寜縣	-11.4983
入于海	-11.4983
捉	-11.4983
上蔡	-11.4984
雨雹	-11.4984
二千七百	-11.4985
里東北至	-11.4986
薦授	-11.4987
居焉	-11.4987
天性	-11.4988
之業	-11.4988
趙與	-11.4988
時時	-11.4989
論功	-11.4991
還之	-11.4992
領軍	-11.4994
毛詩	-11.4994
噶爾	-11.4997
銃	-11.4997
周旋	-11.4999
倉卒	-11.5001
入黄河	-11.5001
淯	-11.5003
惟此	-11.5004
㕔事	-11.5006
碭	-11.5007
梓州	-11.5008
盾	-11.5008
劉禹錫	-11.5008
夀春	-11.5011
由來	-11.5012
村落	-11.5013
招徠	-11.5015
魏武	-11.5015
治北	-11.5015
水師	-11.5015
事也	-11.5016
八合	-11.5017
中央	-11.5017
沫	-11.5018
鄜延	-11.502
肆毫	-11.5021
門前	-11.5021
吝	-11.5022
人萬厯進士	-11.5022
驛站	-11.5022
琚	-11.5025
上洛	-11.5025
元明	-11.5025
遂寧	-11.5026
溪口	-11.503
靈巖	-11.5032
妻田氏	-11.5032
南齊	-11.5034
元至正間	-11.5034
有靈	-11.5034
五老	-11.5034
深處	-11.5034
車騎	-11.5035
夏六月	-11.5035
安世	-11.5036
謝安	-11.5037
以文學	-11.5037
臺灣	-11.5037
人行伍	-11.5037
忩	-11.5038
緋	-11.5039
小水	-11.5039
沐浴	-11.5039
嵊縣	-11.5041
懦	-11.5041
三升	-11.5042
文煥	-11.5043
均乾隆年間	-11.5043
元昊	-11.5045
騎都尉	-11.5046
廣寕	-11.5046
不歸	-11.5046
四百六十	-11.5047
長壽	-11.5049
西六十里	-11.5049
皇慶	-11.5049
官田	-11.505
㭍分	-11.505
延津	-11.5053
十有八	-11.5053
於世	-11.5053
通濟橋	-11.5054
中大夫	-11.5055
額外外委	-11.5056
就近	-11.5057
一萬四千	-11.5057
東五十里	-11.5058
昭烈	-11.5061
萼	-11.5062
翫	-11.5062
侯國	-11.5063
卡倫	-11.5063
者數	-11.5063
崆峒	-11.5063
有田	-11.5063
嘯聚	-11.5064
為東	-11.5064
邾	-11.5064
言語	-11.5066
兵亂	-11.5067
賑恤	-11.5069
問其	-11.507
領之	-11.5071
伏兵	-11.5072
捌毫	-11.5073
最高	-11.5073
扁舟	-11.5074
西偏	-11.5074
間以	-11.5074
百頃	-11.5075
端拱	-11.5076
七十九	-11.5076
鯁	-11.508
具題奉	-11.508
二百步	-11.5081
劉應	-11.5081
陸毫	-11.5082
鄂州	-11.5082
僣	-11.5082
風土	-11.5083
一州	-11.5083
儒者	-11.5084
實徴銀	-11.5085
綦	-11.5087
孤城	-11.5087
邵伯	-11.5089
執中	-11.509
髙二丈	-11.509
力戰死	-11.5092
畿輔	-11.5094
好事者	-11.5094
不負	-11.5094
萊州	-11.5096
濟河	-11.5097
我來	-11.5097
衞所	-11.5098
而今	-11.5099
殤	-11.5101
士元	-11.5101
該督撫	-11.5101
先王	-11.5103
伏誅	-11.5104
母卒	-11.5104
北一百里	-11.5106
肄業	-11.5106
前此	-11.5108
摯	-11.5108
在府東南	-11.5108
烏蘭	-11.5108
煑	-11.5109
征伐	-11.511
如龍	-11.511
已有	-11.5112
頭目	-11.5112
者咸	-11.5112
字宗	-11.5112
延夀	-11.5113
供億	-11.5113
烏撒	-11.5113
兵敗	-11.5115
五百五十	-11.5115
所鑿	-11.5118
里東南至	-11.5119
改築	-11.5119
朝議	-11.5119
迤北	-11.512
準噶爾	-11.5122
啜	-11.5122
墾田	-11.5122
不須	-11.5123
二十七里	-11.5124
營守備	-11.5124
少寡	-11.5124
作記	-11.5125
而巳	-11.5131
建康府	-11.5131
守禦千户所	-11.5132
珉	-11.5133
舊河	-11.5134
也哉	-11.5135
儀徵	-11.5136
相承	-11.5137
西三里	-11.5137
常熟縣	-11.5139
入闗	-11.514
八十三	-11.514
秋冬	-11.5141
又請	-11.5143
餘皆	-11.5145
七名	-11.5146
過人	-11.5146
伊吾	-11.5146
四㑹	-11.5147
愬	-11.5147
進士為	-11.515
諸人	-11.515
之物	-11.5153
之首	-11.5153
所致	-11.5153
顓	-11.5155
水草	-11.5155
有無	-11.5156
凛	-11.5157
日出	-11.5159
古田	-11.5159
左布政	-11.516
原係	-11.516
仍令	-11.5163
荔枝	-11.5164
題為	-11.5165
部使者	-11.5165
收其	-11.5166
之資	-11.5166
百川	-11.5167
牛馬	-11.5167
頌之	-11.5168
烽	-11.5172
獻賊	-11.5172
嵯峨	-11.5173
江蘇	-11.5173
鏗	-11.5174
正綂	-11.5175
飼	-11.5176
嘉熙	-11.5176
香火	-11.5177
不雨	-11.5177
遘	-11.5178
其所以	-11.5178
艇	-11.5179
其右	-11.5181
召入	-11.5183
何其	-11.5185
獻帝	-11.5186
以捍	-11.5186
新蔡	-11.5187
鄉黨	-11.5188
漯	-11.5189
書法	-11.5189
所及	-11.5189
滎	-11.5191
思明	-11.5192
先農壇	-11.5193
按察司僉事	-11.5193
人舉進士	-11.5195
貴陽人	-11.5196
淞江	-11.5196
騁	-11.5198
未敢	-11.5198
飲馬	-11.5198
正定	-11.5199
以守	-11.5199
相合	-11.5199
三十萬	-11.52
尚書省	-11.5201
鄠	-11.5202
隧	-11.5202
太華	-11.5202
别業	-11.5202
髙帝	-11.5203
其内	-11.5203
河南尹	-11.5203
泉山	-11.5204
壽昌	-11.5206
所開	-11.5207
父喪	-11.5207
又與	-11.5208
顯慶	-11.5209
大悦	-11.5209
蜀王	-11.5211
州判官	-11.5212
黎陽	-11.5213
簿書	-11.5214
一半	-11.5216
工役	-11.5217
旄	-11.5217
聖明	-11.5218
范公	-11.5218
猫	-11.5218
拈	-11.5219
築壩	-11.5219
計之	-11.522
軻	-11.522
幾何	-11.522
德化	-11.522
愕	-11.5222
隨之	-11.5224
醴陵	-11.5226
順治二年任	-11.5226
又東入	-11.5227
諸峯	-11.5227
晉江	-11.5227
非一	-11.5227
邑有	-11.5227
東三里	-11.5228
山高	-11.5229
亦多	-11.5229
昭義	-11.523
不取	-11.5231
代宗	-11.5231
汜水	-11.5231
其舊	-11.5233
兵起	-11.5234
經畫	-11.5235
字道	-11.5235
之恩	-11.5236
經義	-11.5239
斯民	-11.5239
瘡	-11.5239
哺	-11.524
拏	-11.5241
噬	-11.5242
曰卿	-11.5242
九名	-11.5244
鈕	-11.5246
其說	-11.5247
盎	-11.5247
一大	-11.5248
坐事	-11.5252
十三日	-11.5254
全書	-11.5254
忠祠	-11.5255
邦彦	-11.5256
勤勞	-11.5257
遇事	-11.5257
百二十	-11.5257
與語	-11.5258
果有	-11.5258
不渝	-11.5258
黄門侍郎	-11.5259
明正德	-11.5259
勣	-11.5259
清慎	-11.5259
長隄	-11.526
置之	-11.5262
衾	-11.5262
四百四十	-11.5264
之墟	-11.5265
僦	-11.5266
軍營	-11.5266
利民	-11.5267
繭	-11.5267
䧏	-11.5268
信陽	-11.5269
水涸	-11.5269
其制	-11.5271
招討使	-11.5271
大門	-11.5273
東陽人	-11.5273
河溢	-11.5274
捌錢	-11.5275
樂昌	-11.5276
汜	-11.5276
捕之	-11.5278
今在	-11.528
使其	-11.528
水發	-11.5282
義興	-11.5282
在縣南三十里	-11.5284
鑪	-11.5285
薦為	-11.5286
閃	-11.5289
騶	-11.529
東七十里	-11.529
宣慰使	-11.5291
四十里至	-11.5292
諸夷	-11.5293
養母	-11.5297
高陽	-11.5299
未足	-11.5301
足矣	-11.5301
夀陽	-11.5302
朐	-11.5305
何足	-11.5307
小山	-11.5308
水不	-11.5308
遺腹	-11.5309
六百里	-11.5309
詈	-11.5309
以正	-11.5311
有八	-11.5311
同安	-11.5311
建隆	-11.5311
郭氏	-11.5312
以固	-11.5312
遂昌	-11.5312
酈道元	-11.5312
鄖陽	-11.5313
萊蕪	-11.5315
鑛	-11.5315
人癸	-11.5315
部員外	-11.5316
兵火	-11.5316
塘浦	-11.5316
事繼母	-11.5317
嗇	-11.5317
浙江人	-11.5317
廢帝	-11.5319
見殺	-11.532
一身	-11.5321
正當	-11.5322
又東南流	-11.5322
事例	-11.5323
茶陵	-11.5324
北二十五里	-11.5326
催科	-11.5326
閣學士	-11.5326
殉節	-11.5326
若水	-11.5327
于今	-11.5327
發帑	-11.5328
援兵	-11.5328
小舟	-11.5328
崇聖祠	-11.5328
明正統	-11.5329
宜城	-11.5329
常州府	-11.5329
為刺史	-11.5329
卒氏	-11.533
輿地紀勝在	-11.5331
以實	-11.5332
不樂	-11.5332
夘	-11.5334
撼	-11.5335
轉運司	-11.5335
一百九十里	-11.5336
臨武	-11.5336
太僕卿	-11.5336
是其	-11.5337
子幼	-11.534
吾民	-11.5341
十有六	-11.5341
明洪武間	-11.5341
東風	-11.5343
府推官	-11.5343
義之	-11.5343
自唐	-11.5344
孝亷	-11.5344
國有	-11.5345
筮	-11.5346
豪强	-11.5347
所撰	-11.5349
督理	-11.535
留心	-11.5351
懶	-11.5355
㭍百	-11.5358
嘉興府	-11.5358
瑰	-11.5359
亭記	-11.536
泰始	-11.5361
張國	-11.5361
此城	-11.5361
家店	-11.5362
班固	-11.5364
于此置	-11.5366
門樓	-11.5367
統領	-11.5368
入寇	-11.5369
清操	-11.5369
教民	-11.537
西漢	-11.5371
定逺人	-11.5372
有備	-11.5373
則必	-11.5374
奸民	-11.5374
夫差	-11.5375
妻陶氏	-11.5376
性命	-11.5376
入太學	-11.5378
集二十卷	-11.5379
戕	-11.5379
晰	-11.5379
海外	-11.538
氓	-11.5381
裡	-11.5381
西充	-11.5381
對官	-11.5382
南十五里	-11.5382
屢修	-11.5382
甚厚	-11.5382
夏州	-11.5383
之工	-11.5383
哈爾	-11.5383
們	-11.5386
里南北距一百	-11.5386
府長史	-11.5388
以遏	-11.5388
曲水	-11.5389
修城	-11.539
周之	-11.5391
二千四百	-11.5392
東通	-11.5393
閤門	-11.5393
二處	-11.5393
國事	-11.5394
縣東四十里	-11.5395
建言	-11.5395
虎豹	-11.5395
枝江	-11.5396
周官	-11.5397
力行	-11.5397
舉人康熙	-11.5398
公為	-11.5399
泮池	-11.54
嶺在	-11.5401
死子	-11.5401
兼置	-11.5401
頡	-11.5402
漢川	-11.5402
懌	-11.5405
山頂有	-11.5405
黄氏書目	-11.5406
君子之	-11.5406
破其	-11.5407
廵檢司	-11.5408
旴	-11.5409
督府	-11.5409
字敬	-11.5411
已經	-11.5413
妻魏氏	-11.5416
泇河	-11.5418
推之	-11.5418
臨幸	-11.542
昭王	-11.5421
者輒	-11.5421
文徳	-11.5423
詔贈	-11.5423
突起	-11.5424
起下至	-11.5424
始平	-11.5425
鑿山	-11.5425
晉太康	-11.5425
言也	-11.5426
汛地	-11.5426
一萬五千	-11.5426
櫟陽	-11.5427
右衛	-11.5429
言事	-11.5431
萬二千	-11.5431
定安	-11.5431
蹊	-11.5433
即行	-11.5433
建祀	-11.5434
城邑	-11.5435
雲集	-11.5435
㫤	-11.5435
慶陽	-11.5436
峽口	-11.5438
黄門	-11.544
經學	-11.544
金堂	-11.544
逐一	-11.544
勤王	-11.5441
入學	-11.5441
廩生	-11.5442
山陽縣	-11.5445
錐	-11.5445
州團練使	-11.5445
貢院	-11.5445
詩序	-11.5445
大夏	-11.5446
元大徳	-11.5448
戸口	-11.5448
二載	-11.5449
八十七	-11.5449
之精	-11.545
氏年二十	-11.545
縹緲	-11.545
趙希	-11.545
桶	-11.5451
八十八	-11.5452
三十六里	-11.5453
行禮	-11.5453
居喪	-11.5454
縣西二十里	-11.5456
家庄	-11.5458
元祐中	-11.5458
廣袤	-11.5458
不逮	-11.5459
王維	-11.5462
輿圖	-11.5462
揚雄	-11.5463
蘄州人	-11.5464
聞風	-11.5466
知所	-11.5467
人進士康	-11.5467
蘭溪	-11.5468
太和中	-11.5468
又分	-11.5468
招之	-11.5468
晉人	-11.5469
之末	-11.547
不息	-11.5471
滛	-11.5472
罔不	-11.5473
莆	-11.5473
御前	-11.5474
南流經	-11.5474
保妻	-11.5474
未央	-11.5475
隈	-11.5476
歲饑	-11.5476
絢	-11.5476
范成大	-11.5477
逄	-11.5477
大計	-11.5477
鏘	-11.5478
松滋	-11.5479
友愛	-11.5479
碶	-11.5479
石勒	-11.548
自謂	-11.5481
巡按御史	-11.5482
金谿人	-11.5482
如也	-11.5482
他人	-11.5483
貴池	-11.5484
黄沙	-11.5484
雙流	-11.5485
房山	-11.5486
蒼蒼	-11.5487
初平	-11.5488
龍巖	-11.5491
亦未	-11.5491
縣界二百	-11.5491
潮陽人	-11.5493
迤南	-11.5494
再三	-11.5494
劃	-11.5494
軍需	-11.5495
也漢	-11.5497
非有	-11.5498
棊	-11.5498
突兀	-11.5498
將以	-11.5499
夾道	-11.5499
字德	-11.5501
癸夘	-11.5501
疏言	-11.5501
録事	-11.5501
其可	-11.5502
大城	-11.5504
神道碑	-11.5504
歴城	-11.5505
仲淹	-11.5506
其本	-11.5506
麻姑	-11.5506
順治元年	-11.5507
與此	-11.551
其左	-11.551
㑹稽人	-11.5511
池上	-11.5512
經略	-11.5513
廷試	-11.5514
伏流	-11.5514
所知	-11.5515
僖宗	-11.5517
我國家	-11.5519
九萬	-11.5519
文詞	-11.552
非所	-11.552
四百七十	-11.552
無水	-11.5521
𫝊詳	-11.5521
登髙	-11.5521
八十二	-11.5521
中有石	-11.5521
菑	-11.5522
尚書郎	-11.5522
地有	-11.5523
夸	-11.5523
荆州刺史	-11.5524
長治	-11.5524
仙釋	-11.5524
高陵	-11.5525
雯	-11.5526
牽牛	-11.5526
無為州	-11.5526
皇子	-11.5528
一也	-11.5529
振武	-11.5529
中郎	-11.553
商旅	-11.5532
等府	-11.5533
一事	-11.5533
石首	-11.5535
如一日	-11.5536
豐州	-11.5536
琿	-11.5537
斬其	-11.5537
媯	-11.5537
為詩	-11.5538
信之	-11.5538
今古	-11.5538
州學正	-11.554
㪚	-11.5542
飛雲	-11.5542
菩提	-11.5542
玖毫	-11.5543
郭外	-11.5543
如其言	-11.5544
少陵	-11.5544
長一千	-11.5545
祖陵	-11.5547
同居	-11.5548
敗績	-11.5549
良田	-11.5549
工食銀	-11.5551
鳯陽	-11.5551
南畿志	-11.5552
諸邑	-11.5552
給之	-11.5553
桓温	-11.5554
莫測	-11.5554
督臣	-11.5555
亦在	-11.5555
守仁	-11.5556
陽故城	-11.5557
躬親	-11.5558
庫車	-11.5559
燼	-11.5561
杭州府	-11.5562
己夘	-11.5562
十六日	-11.5563
處置	-11.5564
九原	-11.5564
銀一十	-11.5565
濳	-11.5565
看得	-11.5566
冺	-11.5566
唐屬	-11.5568
戰敗	-11.5568
發其	-11.5569
崙	-11.5569
南嶽	-11.5569
日用	-11.557
砥柱	-11.5571
者今	-11.5571
長於	-11.5572
九十二	-11.5572
東偏	-11.5572
高堰	-11.5573
林泉	-11.5574
有加	-11.5574
與子	-11.5575
帥師	-11.5575
俗尚	-11.5577
各以	-11.5578
斗六升	-11.5578
無際	-11.5578
縣署	-11.558
軍馬	-11.558
加修	-11.5582
嘉州	-11.5582
皇城	-11.5582
折而西	-11.5584
丫	-11.5586
有池	-11.5587
聫	-11.5587
三峽	-11.5588
感泣	-11.5588
與戰	-11.5589
甚盛	-11.5591
埀	-11.5593
無患	-11.5594
鄆城	-11.5594
淙	-11.5595
二城	-11.5597
數目	-11.5597
之節	-11.5599
來降	-11.5599
騏	-11.5599
京西	-11.5602
東二里	-11.5605
避之	-11.5606
圖説	-11.5608
二十八年任	-11.5608
烏孫	-11.5608
洧	-11.561
元貞	-11.561
總理河道	-11.561
各該	-11.561
國學	-11.5611
尺寸	-11.5611
墓側	-11.5611
鸛	-11.5612
無功	-11.5614
簡州	-11.5615
中出	-11.5615
賊平	-11.5616
之長	-11.5616
故里	-11.5619
貳毫	-11.5619
杜甫詩	-11.5622
晶	-11.5622
用其	-11.5623
洵陽	-11.5623
羣書	-11.5624
大禹	-11.5624
曰子	-11.5626
三十名	-11.5626
有七	-11.5628
郯	-11.5628
石磴	-11.563
南界	-11.5631
支給	-11.5631
白衣	-11.5631
至本州界	-11.5632
自得	-11.5632
以入	-11.5633
大舉	-11.5634
單縣	-11.5634
縣界六十里	-11.5637
中書省	-11.5638
一百五	-11.5638
撰文	-11.5639
直至	-11.564
性剛	-11.564
陳倉	-11.5641
經籍	-11.5642
紫雲	-11.5642
和碩	-11.5643
長白山	-11.5644
石隄	-11.5644
張子	-11.5644
邊境	-11.5645
楊公	-11.5645
風月	-11.5647
崖州	-11.5648
有言	-11.5649
楊林	-11.5649
邑中	-11.5649
為利	-11.565
鳥獸	-11.565
大雅	-11.5651
之口	-11.5653
纂修	-11.5653
中宗	-11.5654
懾	-11.5654
衢州府志	-11.5655
豪猾	-11.5655
舉人授	-11.5655
蚌	-11.5655
蒲圻人	-11.5656
壽州	-11.5656
河至	-11.5657
妻薛氏	-11.5657
進士康熙	-11.5657
石一斗	-11.5658
朝散大夫	-11.5659
授編修	-11.566
遼西	-11.566
馬嶺	-11.5662
蟄	-11.5663
良久	-11.5664
東北流逕	-11.5664
新野	-11.5665
柒拾	-11.5667
郡屬	-11.5668
今據	-11.5669
晏然	-11.567
后土	-11.567
其來	-11.567
他處	-11.5672
死而	-11.5674
高峻	-11.5674
西征	-11.5675
河即	-11.5675
糧運	-11.5675
之訛	-11.5678
仲尼	-11.5679
著聞	-11.5679
者得	-11.568
撻	-11.5682
雌	-11.5683
届	-11.5683
以手	-11.5683
牛頭	-11.5684
六斗	-11.5684
吉甫	-11.5685
還家	-11.5685
西八十里	-11.5685
九華	-11.5685
同郡	-11.5687
翮	-11.5688
五百六十	-11.5689
其屍	-11.569
土山	-11.569
人謂之	-11.569
李時	-11.5693
寺西	-11.5694
仙去	-11.5695
礟	-11.5696
從父	-11.5697
滑州	-11.5699
用以	-11.57
旌旗	-11.5701
又嘗	-11.5701
城即	-11.5703
三都	-11.5703
立朝	-11.5705
甲科	-11.5705
罅	-11.5706
便民	-11.5706
朝奉郎	-11.5708
大将軍	-11.5708
河内人	-11.5709
張家	-11.5709
恩貢	-11.5709
漢之	-11.571
如來	-11.5711
桐柏	-11.5711
舊無	-11.5711
之性	-11.5713
典禮	-11.5714
張廷	-11.5717
倍之	-11.5717
佳氏	-11.5717
章邱	-11.5717
硤	-11.5717
四十六年	-11.5718
年九十	-11.5719
天師	-11.572
租銀	-11.5722
四曰	-11.5722
棗陽	-11.5722
忽見	-11.5725
沿邊	-11.5725
糧儲	-11.5726
漢王	-11.5726
晉安	-11.5727
該部	-11.5727
近世	-11.5728
刳	-11.5728
青天	-11.5728
塗山	-11.5728
之象	-11.5731
都㑹	-11.5731
先鋒	-11.5731
至和	-11.5732
嶺西	-11.5733
侯之	-11.5734
建於	-11.5734
捫	-11.5735
佘	-11.5735
之情	-11.5737
正陽	-11.5739
擢監察御史	-11.5741
下流入	-11.5741
邑民	-11.5742
州衛	-11.5744
歴陞	-11.5745
科舉	-11.5747
義烏	-11.575
不生	-11.5752
龍圖	-11.5752
叅知政事	-11.5753
封邱	-11.5754
曰爾	-11.5754
駱駝	-11.5754
儼然	-11.5755
叨	-11.5755
當國	-11.5755
髦	-11.5757
逐之	-11.5758
萬泉	-11.5758
伍絲	-11.5759
北極	-11.5762
日新	-11.5763
弓矢	-11.5763
界一百	-11.5765
巖石	-11.5767
姓者	-11.5768
博平	-11.577
陕西	-11.577
靖江	-11.5771
營汛	-11.5773
勝覽	-11.5773
在州城	-11.5774
庫爾	-11.5777
無慮	-11.5777
助之	-11.5777
吁	-11.5777
淄川	-11.578
軒轅	-11.578
直隷	-11.578
守將	-11.5782
馬兵	-11.5782
北與	-11.5783
則自	-11.5785
堨	-11.5786
洪範	-11.5786
三泉	-11.5789
生死	-11.579
自新	-11.5794
八人	-11.5795
秃	-11.5797
欲奪其志	-11.5797
揚州府	-11.5797
正義	-11.5797
失所	-11.5798
之具	-11.5798
原任	-11.5799
以孝	-11.58
狀若	-11.58
訓練	-11.58
隋改	-11.5801
應時	-11.5801
遷徙	-11.5802
周三里	-11.5802
鐘鼓	-11.5802
臭	-11.5803
舊唐書地理志	-11.5803
士英	-11.5806
扺	-11.5806
朔望	-11.5807
隆慶間	-11.5807
土中	-11.581
晉江人	-11.5811
鄉貢	-11.5812
屬邑	-11.5813
異日	-11.5815
虞集	-11.5816
喀爾喀	-11.5817
宋蘇軾	-11.5817
聲聞	-11.5817
復起	-11.5818
萬仞	-11.582
同年	-11.582
哈宻	-11.582
没於	-11.5822
魏公	-11.5823
又東流	-11.5824
無憂	-11.5828
元封	-11.5829
二千二百	-11.5829
芷	-11.5831
三川	-11.5831
瞭	-11.5831
平時	-11.5832
河長	-11.5832
銅陵	-11.5832
項城	-11.5837
察哈爾	-11.5837
璵	-11.5838
天厯	-11.584
寛厚	-11.584
英雄	-11.5843
詔賜	-11.5843
祭器	-11.5844
邊牆	-11.5844
臨漳	-11.5846
世稱	-11.5846
碾	-11.5846
土門	-11.5847
樞密院	-11.5847
七卷	-11.5849
良鄉	-11.5849
他郡	-11.5849
德安	-11.5849
䓁	-11.585
居多	-11.5852
捜	-11.5852
以才	-11.5852
蜃	-11.5852
簟	-11.5853
又南為	-11.5853
有石室	-11.5855
疑其	-11.5856
二千三百	-11.5856
籲天	-11.5857
宣和中	-11.5857
永夀	-11.5857
邕州	-11.5857
宗時為	-11.5857
齊王	-11.5857
明一	-11.5858
人生	-11.5858
亭詩	-11.5859
查勘	-11.5864
水清	-11.5865
荒田	-11.5869
二山	-11.5869
重鎮	-11.5872
四百三十	-11.5872
搭	-11.5872
深山	-11.5874
耒陽	-11.5874
每畝	-11.5875
始末	-11.5875
扄	-11.5876
都人	-11.5877
公安	-11.5877
一徑	-11.5878
一隅	-11.5878
彷彿	-11.5879
黄陂	-11.588
毘陵	-11.588
相依	-11.588
羽林	-11.588
日益	-11.5882
極言	-11.5882
十分	-11.5884
夫故	-11.5885
原有	-11.5886
徳興	-11.5887
氏陳	-11.5887
分道	-11.5888
鄉侯	-11.5889
百畝	-11.589
七百里	-11.589
縣界一百二十里	-11.5891
自盡	-11.5893
初封	-11.5893
平章政事	-11.5895
葑	-11.5895
建炎初	-11.5896
洞在	-11.5897
洮州	-11.5897
莊嚴	-11.5897
昭宗	-11.5898
失之	-11.59
籍貫	-11.5902
日夕	-11.5906
指揮僉事	-11.5906
樓煩	-11.5906
經注	-11.5906
蔗	-11.5906
可憐	-11.5907
阡	-11.5908
壬辰進士	-11.5908
東流經	-11.5908
固有	-11.5908
之東南	-11.5909
利而	-11.5909
驍勇	-11.5909
嘉祐中	-11.591
明崇禎	-11.591
澈	-11.591
時嘗	-11.5911
退而	-11.5912
三座	-11.5914
受之	-11.5915
囤	-11.5917
磁州	-11.5917
虞鄉	-11.5917
杞縣	-11.5918
二千餘	-11.5919
鍋	-11.592
威將軍	-11.5921
不傳	-11.5921
段氏	-11.5922
沙灣	-11.5922
貎	-11.5922
清節	-11.5922
北出	-11.5923
海鹽縣	-11.5923
岳飛	-11.5924
元康	-11.5927
層巒	-11.5927
東溪	-11.5928
郇	-11.5928
軫念	-11.593
入關	-11.593
孔明	-11.5931
成化初	-11.5931
以罪	-11.5931
死不	-11.5933
宗時任	-11.5933
百計	-11.5934
人夫亡守節同縣	-11.5934
廣安	-11.5934
五百餘	-11.5934
九峯	-11.5935
物料	-11.5935
在州治西	-11.5937
李景	-11.5938
金門	-11.5938
濰縣	-11.5938
霍州	-11.5939
以全	-11.5939
丙戌進士	-11.5939
元和中	-11.594
乃與	-11.594
審増	-11.594
大宛	-11.5941
馬援	-11.5942
長孫	-11.5942
水東逕	-11.5943
近者	-11.5943
者哉	-11.5946
無間	-11.5946
江岸	-11.5947
李繼	-11.5948
刈	-11.5949
五間	-11.5949
逾年	-11.5949
覆以	-11.595
太倉州	-11.5951
恠	-11.5951
建業	-11.5951
珥	-11.5951
來自	-11.5952
齊東	-11.5952
俯瞰	-11.5953
天妃	-11.5954
之賢	-11.5954
太武	-11.5954
統兵	-11.5954
仍以	-11.5955
王建	-11.5955
終於	-11.5956
北望	-11.5957
之東北	-11.5957
縣交界	-11.5958
鳥道	-11.5958
錢唐	-11.5959
鈺	-11.596
金元	-11.5962
間僧	-11.5962
歴任	-11.5963
句容人	-11.5964
成公	-11.5965
擢知	-11.5966
西安人	-11.5967
巡幸	-11.5967
招集	-11.5968
紓	-11.5968
軍餉	-11.5969
爾噶	-11.5969
崇禎初	-11.597
關内	-11.5973
尋廢	-11.5973
里西南至	-11.5974
蓊	-11.5974
阿里	-11.5974
起科	-11.5975
天長人	-11.5975
騎射	-11.5976
力爭	-11.5977
為漢	-11.5978
暠	-11.5979
樹木	-11.5979
太和人	-11.598
或言	-11.5981
置閘	-11.5981
黎州	-11.5982
舊志云	-11.5983
秋糧	-11.5984
之裔	-11.5984
廵司	-11.5984
兩縣	-11.5987
乾寧	-11.5988
廢郡	-11.5989
北斗	-11.5989
湧泉	-11.599
端坐	-11.599
蜀中	-11.5991
年二十三	-11.5991
鞏昌	-11.5991
昌樂	-11.5992
有能名	-11.5993
求其	-11.5993
夔州	-11.5993
六十餘	-11.5994
應天府	-11.5996
通流	-11.5996
縣民	-11.5997
蘚	-11.5998
摺	-11.5998
奉文	-11.5998
泇	-11.5999
有警	-11.5999
在縣北三十里	-11.6
四十九年	-11.6
賊遂	-11.6001
嘗曰	-11.6003
尤多	-11.6004
晉寧	-11.6004
櫟	-11.6005
昭陵	-11.6006
事有	-11.6006
仙山	-11.6007
八年建	-11.6008
九十五里	-11.6009
讀之	-11.6009
三軍	-11.601
土田	-11.6011
嗣位	-11.6011
青陽人	-11.6011
白土	-11.6012
東界	-11.6012
金華府志	-11.6012
吏事	-11.6013
汝陽	-11.6016
兜	-11.6017
等十	-11.6017
遺書	-11.6017
不求	-11.6018
武昌人	-11.6019
武陟	-11.6019
鞋	-11.602
鍵	-11.6021
以免	-11.6022
郾城	-11.6023
乃自	-11.6023
居仁	-11.6025
郛	-11.6025
韭	-11.6026
案此	-11.6026
八十九	-11.6026
曲陽	-11.6028
壹百	-11.6032
然有	-11.6033
在府西南	-11.6033
八百里	-11.6033
中貴	-11.6034
毘	-11.6036
應奎	-11.6036
安寧	-11.6037
損益	-11.6038
十九日	-11.6039
興起	-11.6039
備至	-11.6041
汲縣	-11.6043
鼈	-11.6043
篤學	-11.6043
前殿	-11.6043
五丁	-11.6043
時事	-11.6045
佛法	-11.6049
以障	-11.605
輻輳	-11.605
莾	-11.605
衝要	-11.605
喝	-11.6051
難於	-11.6051
新淦人	-11.6051
有僧	-11.6051
雲州	-11.6051
十九年任	-11.6053
進士官	-11.6054
新繁	-11.6055
奏罷	-11.6056
本省	-11.6056
於潛	-11.6057
入大江	-11.6058
較之	-11.6058
壯麗	-11.6058
八十一	-11.6059
開成	-11.606
崑山縣	-11.6062
不可復	-11.6064
家村	-11.6065
妻傅氏	-11.6065
此河	-11.6066
千佛	-11.6066
賻	-11.6067
縣侯	-11.6067
南斗	-11.6067
貿	-11.6067
不服	-11.6068
珊瑚	-11.6068
安岳	-11.6069
夢得	-11.607
石門山	-11.607
俱以	-11.607
陽平	-11.6073
貞觀中	-11.6073
䕫州	-11.6073
苦之	-11.6073
為池	-11.6074
米脂	-11.6074
巍然	-11.6074
永豐人	-11.6075
真州	-11.6076
塤	-11.6078
公所	-11.6078
二里許	-11.6079
竟以	-11.6081
瀏陽	-11.6082
夾江	-11.6083
再遷	-11.6085
上表	-11.6085
石首人	-11.6087
所治	-11.6087
臨朐	-11.6087
滋生	-11.6087
抃	-11.6088
澄清	-11.6088
南臨	-11.6089
惶	-11.6093
䆳	-11.6093
復故	-11.6094
寝	-11.6095
調度	-11.6096
西二里	-11.6098
要路	-11.6099
蒲坂	-11.61
十一日	-11.6102
寳應人	-11.6102
宣洩	-11.6103
淮東	-11.6103
距京師	-11.6104
年二十一	-11.6105
相傳有	-11.6106
不畏	-11.6106
是邦	-11.6108
淮泗	-11.6109
追贈	-11.6111
旱禱	-11.6114
戰國時	-11.6114
於縣置	-11.6114
伯玉	-11.6115
建初	-11.6115
往来	-11.6117
默	-11.6117
悚	-11.6119
不善	-11.6119
東六十里	-11.6119
醫藥	-11.612
民咸	-11.612
藏經	-11.612
巴西	-11.6121
士人	-11.6122
麽	-11.6122
縣南二十里	-11.6123
秋水	-11.6123
練兵	-11.6124
臨桂	-11.6125
狄道	-11.6125
瓛	-11.6126
涇水	-11.6127
宋因之	-11.613
夫病	-11.6131
撰記	-11.6134
應祥	-11.6134
叄釐	-11.6136
易以	-11.6139
亦稱	-11.6139
拮据	-11.614
五十餘里	-11.614
大作	-11.6141
唐為	-11.6141
宣大	-11.6142
金史地理志	-11.6142
㸑	-11.6144
九十八	-11.6144
西域傳	-11.6144
以為常	-11.6145
㭍毫	-11.6145
髙士	-11.6146
嶮	-11.6147
啇	-11.6148
能為	-11.6148
纍纍	-11.6148
䭾	-11.6149
故謂之	-11.6149
閿鄉	-11.6149
湖州府	-11.615
而起	-11.615
十有四	-11.6152
賢之	-11.6152
循良	-11.6153
導河	-11.6154
未完	-11.6155
十有一	-11.6158
樞宻院	-11.6158
不信	-11.6159
平衍	-11.6159
新㑹	-11.6159
兹土	-11.6161
月明	-11.6162
十步	-11.6165
靈武	-11.6166
個	-11.6166
崇禎處州府志	-11.6168
賜諡	-11.6168
也則	-11.6169
本司	-11.617
經濟	-11.617
沮洳	-11.6172
中任	-11.6172
陽城人	-11.6172
不支	-11.6172
竪	-11.6172
逖	-11.6173
澱	-11.6174
為守	-11.6175
掇	-11.6175
關隘	-11.6176
介休	-11.6176
舟中	-11.6176
選舉	-11.6176
新唐書	-11.6176
瀦水	-11.6176
折而北	-11.618
焯	-11.618
廷杖	-11.6184
源發	-11.6185
在縣西四十里	-11.6186
南麓	-11.6187
有二一	-11.6191
敇	-11.6193
雲雨	-11.6194
望江	-11.6194
獲免	-11.6196
瑟	-11.6196
阡陌	-11.6196
廟貌	-11.6196
仄	-11.6197
叢林	-11.6197
丁夘	-11.6198
京兆人	-11.6198
中營	-11.6198
謝靈運	-11.6199
隴山	-11.6199
二閘	-11.62
剛直	-11.62
年二十六	-11.6201
芟	-11.6202
厲壇	-11.6202
慶厯中	-11.6204
禁止	-11.6206
太元	-11.6206
駟	-11.6209
萬厯杭州府志	-11.621
縣接界	-11.621
州民	-11.6213
小石	-11.6214
河岸	-11.6217
南注	-11.6217
將帥	-11.6217
之跡	-11.6217
西夏	-11.6218
吏胥	-11.6218
治此	-11.6219
通省	-11.6219
李世	-11.6219
唐咸通	-11.6219
如神	-11.622
祲	-11.622
祈雨	-11.622
髓	-11.6221
兹山	-11.6224
石三斗	-11.6224
檣	-11.6228
黎城	-11.6228
蘭陵	-11.6229
大振	-11.6229
涿郡	-11.623
政尚	-11.6232
接壌	-11.6232
聖天子	-11.6235
書屋	-11.6235
功加	-11.6236
興國人	-11.6236
劭	-11.6236
石巖	-11.6237
星紀	-11.6239
表其	-11.624
仰天	-11.624
南宋	-11.6241
此亦	-11.6242
渇	-11.6243
一畆	-11.6244
平夷	-11.6244
西南三十里	-11.6245
馬夫	-11.6245
屨	-11.6245
乾隆元年	-11.6245
十二日	-11.6247
紵	-11.6247
佇	-11.6247
文天祥	-11.6247
能文	-11.6248
媪	-11.6248
嚴嵩	-11.6248
堂曰	-11.6248
之作	-11.6249
偶然	-11.6251
孝婦	-11.6252
俘獲	-11.6253
濰	-11.6253
其官	-11.6253
縣北二十里	-11.6254
萬一千	-11.6254
呉王	-11.6255
昔之	-11.6256
出塞	-11.6256
遷建	-11.6257
清江浦	-11.6258
海南	-11.626
杜陵	-11.6261
女也	-11.6262
文成	-11.6262
滙為	-11.6265
尚書左僕射	-11.6265
鄉賢	-11.6265
亭山	-11.6268
洱	-11.6269
溝河	-11.6269
臨淮人	-11.6274
盤旋	-11.6275
襍	-11.6276
命之	-11.6279
乾符	-11.6279
後改為	-11.6279
滿洲語	-11.6281
永初	-11.6281
㑹于	-11.6284
其境	-11.6285
師古	-11.6286
怙	-11.6286
稱便	-11.6287
巴縣	-11.6288
子雲	-11.629
神人	-11.6291
錮	-11.6291
也舊作	-11.6291
河一道	-11.6291
要衝	-11.6292
隋文帝	-11.6293
嗜學	-11.6293
分屬	-11.6295
肌	-11.6295
臨湘	-11.6296
濟北	-11.6297
勝地	-11.6297
翌日	-11.6297
隋置	-11.6297
杜牧	-11.6297
兵餉	-11.6297
古名	-11.6297
有罪	-11.6298
長堤	-11.6298
吳氏	-11.6298
任事	-11.6299
開門	-11.63
烽火	-11.6301
獨立	-11.6301
舟車	-11.6301
下河	-11.6302
宫内	-11.6304
廢為	-11.6305
徐公	-11.6305
西寕	-11.6308
復命	-11.6308
神農	-11.6309
寧古塔	-11.6311
之形	-11.6313
繼母	-11.6314
縣本漢	-11.6315
大理評事	-11.6315
字世	-11.6315
僧道	-11.6317
也於是	-11.6318
淤淺	-11.6319
霓	-11.6319
漑	-11.6319
跑	-11.632
鑄錢	-11.632
趂	-11.632
七十一	-11.6322
黌	-11.6322
又作	-11.6323
衿	-11.6325
縣主簿	-11.6326
曰某	-11.6326
野人	-11.6328
命為	-11.6331
所産	-11.6331
行舟	-11.6332
聞訃	-11.6336
當陽	-11.6336
地中	-11.6338
東昌府	-11.6339
貳絲	-11.6339
大約	-11.634
串	-11.634
龍城	-11.6341
光祿	-11.6343
家世	-11.6344
今考	-11.6345
攅	-11.6346
崔嵬	-11.6347
卓異	-11.6347
詔旌其門	-11.6347
濬縣	-11.6347
備禦	-11.6349
當是	-11.6349
國計	-11.635
中行	-11.635
甚至	-11.6351
縣唐	-11.6352
祖父	-11.6353
以相	-11.6353
崇禎中	-11.6354
程氏	-11.6354
一十八里	-11.6355
聖水	-11.6356
鞅	-11.6357
捐修	-11.6357
睢寧	-11.6357
兼知	-11.6357
六人	-11.6357
去之	-11.6358
間為	-11.6359
松柏	-11.6359
也公	-11.6359
趙師	-11.6359
帕	-11.6361
東流至	-11.6361
諸君	-11.6365
大壩	-11.6366
鄱	-11.6367
耄	-11.6367
受禪	-11.6368
莭	-11.6369
億萬	-11.6369
甍	-11.637
寧鄉	-11.637
江潮	-11.6371
環抱	-11.6374
歲旱	-11.6375
蓬州	-11.6375
副都	-11.6376
督率	-11.6377
凡六	-11.6377
西戎	-11.6379
重築	-11.6379
徴收	-11.6381
庠序	-11.6381
趙彦	-11.6383
當死	-11.6388
甚急	-11.6388
惟恐	-11.6391
二兩	-11.6391
改知	-11.6392
西連	-11.6394
擣	-11.6395
聖主	-11.6395
多爾濟	-11.6395
在府治南	-11.6397
擺	-11.6397
敲	-11.6398
讎	-11.6398
雜處	-11.64
該銀	-11.64
明萬厯間	-11.6401
其一也	-11.6402
無論	-11.6404
宋末	-11.6405
先世	-11.6405
漑田	-11.6405
封為	-11.6406
滅之	-11.6411
禹州	-11.6411
水晶	-11.6412
登樓	-11.6412
澶州	-11.6412
福院	-11.6412
世為	-11.6413
未之	-11.6414
賊將	-11.6414
儉約	-11.6415
樂天	-11.6415
東西距一百	-11.6415
被掠	-11.6415
旱則	-11.6416
東林	-11.6416
桃李	-11.6416
先期	-11.6417
朝野	-11.6417
大理寺	-11.6417
五嶽	-11.6418
孩	-11.6418
儋州	-11.6418
一條	-11.6419
雲南府	-11.642
歸順	-11.6421
所未	-11.6421
丁夫	-11.6421
九卿	-11.6426
做	-11.6426
正中	-11.6428
紀其	-11.6429
氣節	-11.643
有能	-11.643
移文	-11.6431
櫓	-11.6431
河朔	-11.6432
崇信	-11.6432
山頭	-11.6432
即舊	-11.6433
人戊	-11.6433
大雪	-11.6433
頗有	-11.6434
山寨	-11.6434
不詳	-11.6436
敢言	-11.6436
逋賦	-11.6436
夫亡守	-11.6439
府谷	-11.644
應州	-11.644
當有	-11.6444
陂陂	-11.6444
景泰間	-11.6444
肆絲	-11.6445
土築	-11.6445
洛川	-11.6445
無數	-11.6447
真宗時	-11.6447
不妄	-11.6448
有石如	-11.6448
旃	-11.6449
廟堂	-11.6449
鍼	-11.6451
紹興府志	-11.6453
勉之	-11.6453
者當	-11.6455
隋屬	-11.6455
宣公	-11.6455
皥	-11.6456
條上	-11.6457
匾	-11.6457
者名	-11.6458
山之南	-11.6459
冬十一月	-11.646
三千餘	-11.6462
有巨	-11.6462
伊犁	-11.6462
靈寳	-11.6463
蘄水	-11.6466
百戸	-11.6466
表其門	-11.6466
知縣楊	-11.6467
士竒	-11.6468
亦死	-11.6469
嘉善人	-11.6469
世子	-11.647
阿拉	-11.6471
不移	-11.6471
銅仁	-11.6471
頃刻	-11.6472
縣隋	-11.6472
躭	-11.6473
率其	-11.6473
絡繹	-11.6474
乎此	-11.6474
景明	-11.6475
近日	-11.6476
出戰	-11.6476
▁國朝	-11.6478
使持節	-11.6478
沭	-11.6479
棨	-11.6481
閉户	-11.6482
嘉謨	-11.6482
同日	-11.6483
南流逕	-11.6485
至正中	-11.6487
本無	-11.6487
教以	-11.6488
文華	-11.6488
手足	-11.649
其數	-11.6492
石井	-11.6492
九十三	-11.6493
嘉陵江	-11.6493
在府西北	-11.6493
闢展	-11.6495
大司農	-11.6495
劣	-11.6496
建坊	-11.6497
云爾	-11.6497
這	-11.6497
謠	-11.6498
以身代	-11.6498
締	-11.6501
頃之	-11.6502
之俗	-11.6503
叡	-11.6503
出自	-11.6504
上天	-11.6506
載之	-11.6506
入運河	-11.651
明洪武二年	-11.651
蘇轍	-11.651
尚書左丞	-11.651
二座	-11.6512
辦理	-11.6512
謁者	-11.6517
所請	-11.6521
煽	-11.6521
縑	-11.6521
一株	-11.6522
地畝	-11.6524
孱	-11.6525
屯軍	-11.6525
庀	-11.6526
以廣	-11.6527
道經	-11.6527
移鎮	-11.6527
項下	-11.653
出納	-11.653
十巻	-11.6531
五年置	-11.6531
序云	-11.6531
泛濫	-11.6532
大川	-11.6532
安陸人	-11.6533
云是	-11.6533
卜居	-11.6533
羊角	-11.6533
著作	-11.6534
逺而	-11.6534
一遇	-11.6535
秋九月	-11.6536
議大夫	-11.6539
六十里至	-11.654
祠下	-11.654
妻施氏	-11.6541
之居	-11.6541
其議	-11.6541
元建	-11.6542
大澤	-11.6543
渠魁	-11.6544
潮陽	-11.6544
以私	-11.6545
臨清州	-11.6545
縣界二十里	-11.6546
秦嶺	-11.6546
離宫	-11.6546
徼外	-11.6546
之西北	-11.6547
以佐	-11.6548
之設	-11.6549
衛將軍	-11.6549
惠安	-11.6549
因此	-11.655
同平章事	-11.655
以母老	-11.6551
莫知所	-11.6551
營都司	-11.6552
照舊	-11.6552
伶	-11.6553
三十里至	-11.6553
儘	-11.6553
鶉	-11.6555
湟水	-11.6555
聮	-11.6555
友人	-11.6559
不減	-11.656
山賊	-11.656
評事	-11.6563
倉在	-11.6563
四山	-11.6563
堂堂	-11.6564
本營	-11.6564
遂絶	-11.6565
然亦	-11.6566
麗江	-11.6567
陽明	-11.6569
之最	-11.6574
易於	-11.6574
三頃	-11.6575
澤州人	-11.6578
一統	-11.6578
彧	-11.6579
講求	-11.6579
糯	-11.6579
驩	-11.658
惟神	-11.658
都勻	-11.658
建炎中	-11.658
貳伯	-11.6581
謝公	-11.6582
居中	-11.6584
哈密	-11.6584
一經	-11.6585
其手	-11.6586
役夫	-11.6587
士林	-11.659
著於	-11.6592
平章事	-11.6594
辛丑進士	-11.6595
萬戸	-11.6595
獲其	-11.6596
蒙古名	-11.6597
此事	-11.6597
有巨石	-11.6597
柘城	-11.66
均嘉慶年間	-11.6601
雲間	-11.6601
傳至	-11.6602
覬	-11.6603
荆棘	-11.6603
齊州	-11.6603
義烏人	-11.6603
而非	-11.6604
事皆	-11.6604
豚	-11.6605
上虞縣	-11.6605
惟謹	-11.6606
資灌溉	-11.6606
死守	-11.6608
冬至	-11.6608
州諸軍事	-11.6609
子成立	-11.6611
捌絲	-11.6612
花開	-11.6614
襲封	-11.6614
五里至	-11.6614
代郡	-11.6614
開通	-11.6616
妻倪氏	-11.6617
壅塞	-11.662
奉先	-11.6621
洗馬	-11.6621
百六十里	-11.6622
多矣	-11.6623
班師	-11.6623
改封	-11.6624
雍州刺史	-11.6625
术	-11.6625
堵塞	-11.6626
勢若	-11.6626
額引	-11.6626
山之西	-11.6627
進取	-11.6627
經年	-11.6627
兵於	-11.6628
逼之	-11.6628
不意	-11.6628
甚大	-11.6628
装	-11.6628
䋲	-11.6629
檐	-11.663
天上	-11.663
灤河	-11.663
孳	-11.663
䕶國	-11.6632
其性	-11.6632
崖下	-11.6632
至誠	-11.6633
幼孤	-11.6633
無幾	-11.6634
頂有	-11.6635
都事	-11.6637
有政績	-11.6637
母子	-11.6638
淮隂	-11.6638
自界首至	-11.6639
克之	-11.6642
八寸	-11.6642
必不	-11.6644
柱國	-11.6645
籍貫見前	-11.6645
此日	-11.6646
三營	-11.6648
水閘	-11.6648
而立	-11.6649
纛	-11.665
覺羅	-11.6651
五十步	-11.6653
脯	-11.6653
利也	-11.6653
曝	-11.6654
黄道	-11.6654
高明	-11.6654
佛殿	-11.6654
松風	-11.6654
貴溪人	-11.6655
揣	-11.6656
以表	-11.6656
髣髴	-11.6658
罵賊死	-11.6659
削籍	-11.666
滋陽	-11.666
府庫	-11.6661
是謂	-11.6662
故鄉	-11.6662
昆陽	-11.6663
縣城北	-11.6664
二十一年任	-11.6664
拔貢	-11.6666
一縣	-11.6666
松林	-11.6667
四郡	-11.6667
貞元中	-11.6668
無愧	-11.6668
奏事	-11.6669
韓琦	-11.6669
徐州人	-11.6669
擒斬	-11.667
孝昌	-11.6671
直沽	-11.6671
其役	-11.6673
也予	-11.6674
髙陽	-11.6674
親詣	-11.6675
嵗支	-11.6676
萍鄉	-11.6678
圓通	-11.6679
名世	-11.6679
歸路	-11.668
魯國	-11.668
華容人	-11.668
戩	-11.6681
爾哈	-11.6681
㳂	-11.6682
顔真卿	-11.6683
吳山	-11.6684
平反	-11.6685
宋屬	-11.6687
寒泉	-11.6687
冽	-11.6687
定額	-11.6688
年二十八	-11.6691
直下	-11.6691
東一里	-11.6694
増設	-11.6696
卓然	-11.6698
訃	-11.67
艱苦	-11.67
在縣南二十里	-11.67
妻邵氏	-11.67
詩經	-11.6701
流泉	-11.6701
知杭州	-11.6702
忠武	-11.6703
七年建	-11.6704
金齒	-11.6706
扃	-11.6707
未成	-11.6708
浯	-11.6709
望仙	-11.671
畫一	-11.671
唐天寳	-11.6711
塔寺	-11.6711
方伯	-11.6711
其業	-11.6712
叅将	-11.6712
回首	-11.6714
臺上	-11.6714
籌畫	-11.6715
睿宗	-11.6716
優免	-11.6717
李士	-11.6717
廢州	-11.672
五百四十	-11.6721
蘇峻	-11.6722
義陽	-11.6723
年修	-11.6725
泥沙	-11.6725
如臯	-11.6725
工部郎中	-11.6725
上柱國	-11.6726
麻城	-11.6726
妻嚴氏	-11.6726
寳山	-11.6727
宦官	-11.6727
礁	-11.6728
也惟	-11.6729
從化	-11.6729
歸善	-11.6729
矣遂	-11.673
閣待制	-11.6731
禕	-11.6732
同里	-11.6733
臚	-11.6735
盤江	-11.6736
出城	-11.6736
吕梁	-11.6737
本色米	-11.6737
謳	-11.6737
榆社	-11.6737
明萬厯中	-11.6738
歸德	-11.6738
我軍	-11.6738
河中府	-11.6738
天徳	-11.6739
處分	-11.6739
年三十	-11.6739
豐樂	-11.6741
者凡	-11.6742
兵部右侍郎	-11.6742
里南北袤	-11.6742
四百九十	-11.6743
仙女	-11.6743
呼曰	-11.6743
都官	-11.6743
江寧府	-11.6744
京山人	-11.6744
永利	-11.6744
其鄉	-11.6744
山出	-11.6744
每日	-11.6745
崤	-11.6747
以寛	-11.6747
亦然	-11.6748
郢州	-11.6748
禋	-11.6748
覆之	-11.6748
字孟	-11.6748
止有	-11.6748
北伐	-11.6749
等五	-11.6751
豫州刺史	-11.6751
生靈	-11.6752
何年	-11.6753
長河	-11.6753
大街	-11.6754
年來	-11.6754
魏忠賢	-11.6755
二州刺史	-11.6755
一畝	-11.6757
涪陵	-11.6757
水入焉	-11.6758
僵	-11.6758
十有三	-11.6759
即有	-11.6759
數百年	-11.6761
絕	-11.6762
光寺	-11.6763
時號	-11.6763
大敗之	-11.6764
市舶	-11.6764
㑹稽郡	-11.6764
張獻忠	-11.6765
領催	-11.6765
一節	-11.6766
興化人	-11.6766
正北	-11.6767
暴漲	-11.6767
九河	-11.6767
減水	-11.6769
二合	-11.6769
籲	-11.6771
卒於家	-11.6772
臺下	-11.6772
而化	-11.6773
淳安人	-11.6773
西南流入	-11.6774
五頃	-11.6775
莫可	-11.6777
復來	-11.6777
奉祠	-11.6778
尋常	-11.6778
山居	-11.6778
至矣	-11.6778
同中書門下平章事	-11.6778
亡命	-11.6778
五百人	-11.6779
兩京	-11.678
鄺	-11.678
猶可	-11.6781
田租	-11.6781
山之北	-11.6781
甜	-11.6783
攀龍	-11.6783
率師	-11.6785
碑刻	-11.6786
四子	-11.6786
又經	-11.6786
遒	-11.6787
寕夏	-11.6787
嶢	-11.6787
宛平	-11.6787
可無	-11.6787
實心	-11.6788
嶺東	-11.6789
皆由	-11.6789
侑	-11.679
八角	-11.679
居正	-11.6791
上書言	-11.6791
直學士	-11.6791
然自	-11.6792
里一名	-11.6793
垂拱	-11.6793
葉赫	-11.6794
信豐	-11.6794
潛山人	-11.6796
暇日	-11.6796
必欲	-11.6796
進士厯	-11.6798
民事	-11.6799
苕	-11.68
太原郡	-11.6801
有遺	-11.6802
陵在	-11.6803
葛洪	-11.6805
汾河	-11.6807
河漕	-11.6807
闍	-11.6809
河患	-11.6812
㓕	-11.6812
縦	-11.6813
隙地	-11.6813
東經	-11.6813
槁	-11.6813
期年	-11.6813
羔	-11.6813
淶	-11.6813
又東北流	-11.6814
西魏置	-11.6815
偪	-11.6815
﨑	-11.6815
伋	-11.6815
眩	-11.6816
至元間	-11.6817
矣若	-11.6817
維翰	-11.6818
山腰	-11.6819
超然	-11.682
帝以	-11.6822
一塵	-11.6824
都元帥	-11.6826
把總二員	-11.6827
玉帶	-11.6827
數萬人	-11.6829
至州	-11.6829
空山	-11.683
壺闗	-11.6832
千五百	-11.6833
北流經	-11.6834
輸納	-11.6835
九疑	-11.6835
夫亡殉節	-11.6836
菖蒲	-11.6839
㤙	-11.684
兼理	-11.6841
推重	-11.6844
復立	-11.6844
聞於	-11.6844
洪武三年	-11.6845
髙峻	-11.6846
鞏縣	-11.6848
不異	-11.6849
氣候	-11.6849
馬軍	-11.6852
太平縣	-11.6853
八十餘	-11.6856
考其	-11.6857
撫孤成立	-11.6858
部覆	-11.6858
無量	-11.6858
人言	-11.686
井泉	-11.6861
黄陂人	-11.6862
牡	-11.6864
出海	-11.6865
涎	-11.6865
以圖	-11.6866
連城	-11.6868
妻賈氏	-11.6868
元鼎	-11.687
而實	-11.6871
干戈	-11.6871
劉元	-11.6872
舟人	-11.6873
梅溪	-11.6875
仙洞	-11.6875
丹砂	-11.6875
古有	-11.6876
樓觀	-11.6878
中路	-11.6878
宋齊	-11.6878
前為	-11.6879
若干卷	-11.688
水衝	-11.6881
十四日	-11.6881
高密	-11.6882
二十五日	-11.6882
寧陵	-11.6883
奔喪	-11.6884
載記	-11.6884
突出	-11.6885
膚施	-11.6885
而易	-11.6886
常州人	-11.6887
鄭公	-11.6887
也蓋	-11.6888
能以	-11.6888
楚之	-11.6889
恚	-11.689
應期	-11.6891
得此	-11.6891
湊	-11.6891
一百八	-11.6892
厠	-11.6892
永康人	-11.6893
題名記	-11.6894
是役也	-11.6896
蘂	-11.6898
丈量	-11.6899
縣治北	-11.69
泰興	-11.6901
此言	-11.6901
十隻	-11.6901
十一里	-11.6901
大洋	-11.6903
歸去	-11.6905
髙僧	-11.6905
濟橋	-11.6905
府縣	-11.6905
茌平	-11.6905
屈而	-11.6906
舊經云	-11.6907
獄訟	-11.6907
大足	-11.6909
屏風	-11.691
西南七十里	-11.6911
五品	-11.6911
不勞	-11.6912
其年	-11.6913
魔	-11.6917
節年	-11.6917
洪雅	-11.6917
馬上	-11.6918
湓	-11.6919
釃	-11.6919
僱	-11.6919
顯忠	-11.6919
從而	-11.6919
龍頭	-11.692
射洪	-11.692
九重	-11.6921
雛	-11.6922
年裁	-11.6922
畎	-11.6923
樗	-11.6925
明白	-11.6926
付之	-11.6926
閨	-11.6928
以此為	-11.6929
崇山	-11.6929
海寧人	-11.693
齊河	-11.6931
糧米	-11.6932
縣界一百里	-11.6933
龍橋	-11.6933
後先	-11.6934
死難	-11.6935
電白	-11.6935
州别駕	-11.6937
揭陽人	-11.6938
咱	-11.694
趙崇	-11.6941
仙遊	-11.6941
以贍	-11.6943
闗帝廟	-11.6943
月河	-11.6943
洑	-11.6944
擊敗	-11.6944
貧乏	-11.6946
蕭條	-11.6947
郿縣	-11.6951
不願	-11.6952
題云	-11.6952
者是	-11.6953
土百户	-11.6955
合無	-11.6955
崇寕	-11.6956
畫圖	-11.6958
發運使	-11.6958
聖廟	-11.6958
梧州	-11.6959
夀州	-11.696
良民	-11.6961
亦皆	-11.6962
燕王	-11.6963
留後	-11.6964
併力	-11.6964
承㫖	-11.6965
逼近	-11.6965
郎官	-11.6965
宋王	-11.6966
乙丑進士	-11.6966
始為	-11.6967
四兩	-11.6968
子嶺	-11.6968
為奸	-11.6968
矢石	-11.6969
科貫見	-11.6969
松栢	-11.6971
馬鞍	-11.6971
筑	-11.6972
嚴禁	-11.6972
炫	-11.6972
葩	-11.6973
規畫	-11.6973
沈氏	-11.6973
乙夘	-11.6974
以教	-11.6975
㠶	-11.6975
西南夷	-11.6975
等謹案	-11.6976
鈍	-11.6976
二十七年任	-11.6978
註云	-11.6979
戡	-11.6979
北抵	-11.698
峡	-11.6981
祝融	-11.6982
萬三千	-11.6983
按今	-11.6983
在内	-11.6985
感激	-11.6985
建瓴	-11.6985
文書	-11.6985
元和志在	-11.6987
義烏縣	-11.6987
䖍州	-11.6988
六百五十	-11.6991
四境	-11.6995
中使	-11.6995
在府北	-11.6995
肄	-11.6996
娶婦	-11.6997
云此	-11.6997
經世	-11.6999
釜	-11.6999
性理	-11.6999
麟遊	-11.6999
乃作	-11.7
水月	-11.7001
薈	-11.7002
漳河	-11.7003
昬	-11.7004
荼	-11.7004
於庭	-11.7005
炤	-11.7006
文苑	-11.7006
潞城	-11.7008
五里有	-11.7009
肇慶	-11.7009
黑龍江	-11.7009
昔日	-11.701
原武	-11.7011
拒戰	-11.7011
父卒	-11.7012
安知	-11.7012
思賢	-11.7013
無能	-11.7014
陽縣界	-11.7014
樂善	-11.7014
有感	-11.7016
會昌	-11.7016
得勝	-11.7016
修防	-11.7017
人服其	-11.7019
收復	-11.7019
停止	-11.702
此即	-11.702
之秀	-11.702
城䧟	-11.702
都賦	-11.7022
躬自	-11.7023
兵燬	-11.7023
化龍	-11.7023
曺	-11.7024
愴	-11.7028
所感	-11.7029
火燒	-11.7029
禱於	-11.7031
彫	-11.7031
驄	-11.7031
遂得	-11.7033
落職	-11.7033
控扼	-11.7034
秦人	-11.7034
接濟	-11.7035
後省	-11.7035
蕭縣	-11.7036
訪之	-11.7037
禱雨輒應	-11.7037
水手	-11.7037
後來	-11.7038
正白旗人	-11.7038
鹽亭	-11.704
一代	-11.7041
十有五	-11.7042
仙居人	-11.7044
乃出	-11.7045
手書	-11.7045
花園	-11.7045
五楹	-11.7047
鴿	-11.7048
劉廷	-11.7049
灞	-11.7049
松江人	-11.7049
復入	-11.705
箬	-11.7052
郭下	-11.7053
西北三十里	-11.7054
水上承	-11.7054
論者	-11.7055
考功	-11.7055
五嶺	-11.7056
景物	-11.7056
蘖	-11.7056
在縣東二十里	-11.7056
王應	-11.7057
區畫	-11.7058
燥	-11.7059
糧銀	-11.7059
白公	-11.7061
順徳	-11.7062
山半	-11.7062
或問	-11.7066
風波	-11.7069
少好學	-11.7069
為第一	-11.7069
劒州	-11.7069
也至	-11.707
金玉	-11.7071
出水	-11.7072
延川	-11.7072
登岸	-11.7073
召之	-11.7075
一夜	-11.7076
如意	-11.7076
精於	-11.7076
雍正五年濬	-11.7077
授之	-11.7077
備兵	-11.7077
靚	-11.7077
六年建	-11.7079
歸州	-11.708
蹶	-11.708
如舊	-11.708
抹	-11.7081
因號	-11.7081
朝請大夫	-11.7082
梭	-11.7085
利於	-11.7085
寤	-11.7085
投之	-11.7086
沃壤	-11.7086
今皆	-11.7087
大率	-11.7087
斟酌	-11.7088
小麥	-11.7089
暐	-11.7091
之墓	-11.7091
父死	-11.7092
陶侃	-11.7092
全椒	-11.7093
方可	-11.7094
西風	-11.7095
朱家	-11.7095
大喜	-11.7096
澂江	-11.7098
聲教	-11.7098
故能	-11.7099
禮儀	-11.71
白崖	-11.71
六百八十	-11.71
口至	-11.7101
化成	-11.7103
治西南	-11.7103
實徵銀	-11.7105
楊梅	-11.7105
津橋	-11.7106
招討	-11.7107
闔門	-11.7109
修道	-11.7109
筐	-11.7109
慄	-11.7111
踪	-11.7111
鼎新	-11.7111
平逺	-11.7112
如例	-11.7113
躬行	-11.7115
者莫不	-11.7116
威名	-11.7119
陸續	-11.7119
料銀	-11.712
道旁	-11.712
累陞	-11.7121
左都御史	-11.7122
不假	-11.7124
方外	-11.7125
年二十九	-11.7125
商民	-11.7126
七員	-11.7126
復州	-11.7126
鄂爾	-11.7128
之不可	-11.7128
王君	-11.7128
黄淮	-11.713
丈尺	-11.7131
崇禎時	-11.7131
秦屬	-11.7131
礬	-11.7133
七寸	-11.7134
﨑嶇	-11.7134
高聳	-11.7134
今無	-11.7135
明洪	-11.7135
善後	-11.7135
梳	-11.7136
有定	-11.7137
人廕生	-11.7137
不衰	-11.7138
供奉	-11.7142
於蜀	-11.7142
下詔	-11.7143
從兄	-11.7144
烏程縣	-11.7144
慈雲	-11.7145
在府東北	-11.7145
閩中	-11.7145
戰于	-11.7146
所欲	-11.7152
宜賓	-11.7153
文教	-11.7154
二千一百	-11.7154
天眷	-11.7155
赴闕	-11.7155
)○	-11.7156
經書	-11.7156
卓錫	-11.7156
兵圍	-11.7157
劉子	-11.7158
又東南經	-11.7159
建陽	-11.716
和議	-11.716
訓子	-11.7161
注之又	-11.7162
籀	-11.7164
訛為	-11.7165
放生池	-11.7166
繼祖	-11.7167
天府	-11.7167
垠	-11.7168
尋遷	-11.7168
拭	-11.7169
長松	-11.7169
不是	-11.7169
糧船	-11.7169
尉遲	-11.7171
圍之	-11.7172
民瘼	-11.7173
重門	-11.7173
養之	-11.7174
貴妃	-11.7175
耳今	-11.7176
堂東	-11.7176
中土	-11.7178
舞陽	-11.7178
寺碑	-11.7179
改作	-11.718
驛傳	-11.7182
有文集	-11.7182
郫縣	-11.7184
戊辰進士	-11.7185
開江	-11.7186
兵法	-11.7187
妻姜氏	-11.7187
忒	-11.7187
浚儀	-11.719
器之	-11.7191
名實	-11.7191
復合	-11.7192
懐安	-11.7192
明安	-11.7193
記室	-11.7195
宿遷縣	-11.7197
鼓吹	-11.7197
勳	-11.7197
則可	-11.7199
土酋	-11.7199
徒步	-11.7199
王景	-11.7199
今按	-11.7202
士多	-11.7202
蕭蕭	-11.7203
有常	-11.7203
焉而	-11.7204
民情	-11.7205
保全	-11.7205
尤工	-11.7205
㵎	-11.7206
不作	-11.7207
三江口	-11.7208
鼓舞	-11.7209
汴河	-11.721
星辰	-11.721
天寶初	-11.721
華容	-11.7211
工料	-11.7211
髙明	-11.7212
而愈	-11.7213
欲汚之	-11.7213
榜曰	-11.7213
祁縣	-11.7215
三千五百	-11.7215
一物	-11.7215
風雲雷雨山川壇	-11.7216
西七十里	-11.7216
二十八里	-11.7217
聞見	-11.7217
陵寢	-11.7217
一曲	-11.7217
目為	-11.7218
築土城	-11.7218
龍岡	-11.7218
者一	-11.7219
彎	-11.7219
糧道	-11.7219
楊子	-11.7219
弑	-11.722
新寧	-11.722
果然	-11.7221
磐石	-11.7221
增城	-11.7222
颶風	-11.7225
紫荆	-11.7225
萬厯初	-11.7226
飛去	-11.7227
果得	-11.7228
博陵	-11.7228
慕之	-11.723
沙州	-11.723
遮道	-11.7231
獨孤	-11.7232
神靈	-11.7233
建坊旌表	-11.7234
之期	-11.7234
古松	-11.7234
李應	-11.7234
縣南四十里	-11.7235
器用	-11.7235
南漢	-11.7236
並峙	-11.7236
以見	-11.7238
一萬八千	-11.7239
南陵	-11.7239
復改	-11.7239
恒山	-11.724
趙善	-11.7242
九十四	-11.7243
縣附郭	-11.7243
盡行	-11.7244
向來	-11.7244
米價	-11.7245
皆是	-11.7245
兢	-11.7247
元統	-11.7251
后稷	-11.7251
湯藥	-11.7251
之便	-11.7251
北城	-11.7252
月堤	-11.7253
副将	-11.7253
九思	-11.7254
城在今	-11.7254
起於	-11.7255
隆慶初	-11.7256
蒲城人	-11.7256
蕭山人	-11.7257
珽	-11.7258
河底	-11.7259
泛舟	-11.726
固始	-11.7261
樓上	-11.7261
北連	-11.7262
宋淳熙	-11.7262
壽光	-11.7264
觀風	-11.7265
百五十	-11.7266
南郊	-11.7266
蘇州人	-11.7266
是月	-11.7266
壹絲	-11.7267
洞洞	-11.7267
莫知	-11.7268
攻破	-11.7269
少孤	-11.7269
開鑿	-11.7269
二十九年任	-11.7269
騾	-11.7269
憐之	-11.727
風化	-11.7271
水落	-11.7273
荷花	-11.7273
一萬七千	-11.7273
建國	-11.7274
褒城	-11.7276
不佞	-11.7276
鄉勇	-11.7276
夣	-11.7276
負土	-11.728
呉中	-11.7281
報恩寺	-11.7282
寺東	-11.7284
傳聞	-11.7285
易州	-11.7286
縣南五十里	-11.7288
玉環	-11.7288
吕公	-11.7291
為重	-11.7293
報恩	-11.7295
直省	-11.7295
直隸州	-11.7295
盡得	-11.7296
喪葬	-11.7296
再任	-11.7296
體仁	-11.7298
萬厯金華府志	-11.7298
旱澇	-11.7299
天慶觀	-11.7299
威武	-11.7299
所聞	-11.73
亦宜	-11.73
弇	-11.7304
南雄	-11.7304
隋末	-11.7305
蒼山	-11.7306
辭曰	-11.7306
睦州	-11.7306
東望	-11.7306
但見	-11.7307
水灌田	-11.7309
塘工	-11.731
神山	-11.7312
聘妻	-11.7313
河隄	-11.7314
贑縣	-11.7316
賢堂	-11.7317
提調官	-11.7317
之妙	-11.7319
不可考	-11.7319
邑志	-11.732
階州	-11.7321
畧陽	-11.7321
雍勝	-11.7321
宛轉	-11.7321
東南流經	-11.7321
平坦	-11.7321
民得	-11.7321
三吳	-11.7322
稽查	-11.7322
井中	-11.7323
撰碑	-11.7323
兩㭍錢	-11.7324
士女	-11.7325
所重	-11.7325
巢縣人	-11.7325
孜孜	-11.7326
樹下	-11.7327
宋大中祥符	-11.7327
去處	-11.7328
守節終身	-11.7329
創築	-11.7329
碧雲	-11.733
俯視	-11.733
論之	-11.7332
畏之	-11.7332
等共	-11.7332
重華	-11.7333
其主	-11.7333
石罅	-11.7334
博覽	-11.7334
二千八百	-11.7335
失守	-11.7335
曵	-11.7336
儒術	-11.7336
五兩	-11.7337
縣東五十里	-11.7337
五載	-11.7339
各府	-11.734
邊事	-11.7341
江陰	-11.7342
龍南	-11.7342
宋元嘉	-11.7342
路史	-11.7343
導江	-11.7343
乍浦	-11.7343
劉世	-11.7344
遂自縊	-11.7344
郊祀	-11.7344
之域	-11.7346
甘㫖	-11.7347
烏爾	-11.7348
世隆	-11.7348
金馬	-11.7349
宫闕	-11.7349
刻之	-11.735
所以為	-11.7351
魯山	-11.7352
之謀	-11.7352
莒州	-11.7352
二千九百	-11.7352
卒葬	-11.7353
李宗	-11.7356
西南入	-11.7356
嬪	-11.7356
彈壓	-11.7358
久逺	-11.7358
瑪瑙	-11.7359
忭	-11.7361
妻鍾氏	-11.7361
沭陽	-11.7362
籥	-11.7363
至德	-11.7363
汪洋	-11.7364
武成	-11.7364
著名	-11.7365
宋紹興間	-11.7365
計者	-11.7366
正平	-11.7367
安成	-11.7367
不拘	-11.7367
石壩	-11.7368
令民	-11.7369
繁峙	-11.737
歎息	-11.7371
何敢	-11.7373
封爵	-11.7373
如流	-11.7373
臨邑	-11.7375
上多	-11.7375
次曰	-11.7375
條奏	-11.7376
經傳	-11.7377
控制	-11.7379
特進	-11.7379
非是	-11.7381
八兩	-11.7386
陡門	-11.7386
紂	-11.7388
乾隆四十一年	-11.7388
山陰人	-11.7389
力竭	-11.739
三峰	-11.739
國子生	-11.7391
當日	-11.7392
如雲	-11.7392
設有	-11.7392
海陽	-11.7392
五百七十	-11.7392
年四月	-11.7392
安塞	-11.7394
元光	-11.7395
之𩔖	-11.7396
于朝	-11.7397
肅清	-11.74
輔國	-11.74
張士誠	-11.74
五縣	-11.7401
俚	-11.7401
乞留	-11.7403
躍入	-11.7403
手植	-11.7405
三才	-11.7405
原作	-11.7405
華林	-11.7405
任城	-11.7406
増建	-11.7407
平日	-11.7408
長驅	-11.7408
終南山	-11.7408
之迹	-11.7409
鄯善	-11.7409
獻之	-11.741
鷲	-11.741
不可勝	-11.741
遇之	-11.7411
嫉	-11.7411
祀焉	-11.7413
拜監察御史	-11.7413
嘗從	-11.7413
横流	-11.7413
曹公	-11.7414
即事	-11.7414
郡後魏	-11.7415
以形似名	-11.7416
踴躍	-11.7416
鵰	-11.7417
三十九年任	-11.7419
相同	-11.7419
一十二里	-11.7421
洺	-11.7422
隄堰	-11.7424
取土	-11.7425
赤子	-11.7426
雲梯	-11.7426
五百二十	-11.7426
萬金	-11.7427
萬州	-11.7427
挺身	-11.7429
大半	-11.743
申請	-11.7432
委之	-11.7433
峽江	-11.7433
入見	-11.7433
吴縣人	-11.7434
望之如	-11.7435
入漢	-11.7436
武徳四年	-11.7436
趙文	-11.7437
募民	-11.7438
遇閏加	-11.7439
上海縣	-11.7439
瘳	-11.7439
昆明池	-11.7439
堌	-11.744
伊川	-11.744
毎年	-11.7441
礎	-11.7442
䜟	-11.7443
墓碑	-11.7443
取諸	-11.7444
後周置	-11.7444
從者	-11.7445
璁	-11.7447
助教	-11.7447
徑山	-11.7447
白志	-11.7448
隆安	-11.7448
死事	-11.7448
部都尉	-11.7449
明太祖	-11.745
妻崔氏	-11.7451
魯公	-11.7452
共徵	-11.7452
被水	-11.7453
渠水	-11.7456
七斗	-11.7457
元元	-11.7457
旁午	-11.7457
從軍	-11.7458
四十四年任	-11.7458
黔陽	-11.7458
統軍	-11.7458
燕子	-11.7458
有疾	-11.7459
虎丘	-11.7462
一次	-11.7464
皆屬	-11.7465
丁丑進士	-11.7466
髙唐	-11.7466
所親	-11.7468
江油	-11.7469
欽此	-11.747
卒于	-11.7472
張栻	-11.7472
東十五里	-11.7472
堊	-11.7473
忠賢	-11.7473
前項	-11.7473
不答	-11.7474
奉表	-11.7474
劈	-11.7474
征討	-11.7475
風雷	-11.7475
捌千	-11.7476
枝葉	-11.7476
有云	-11.7477
羣峯	-11.7477
瀹	-11.7479
二寸	-11.7479
字正	-11.748
雲霞	-11.7481
必死	-11.7482
門二	-11.7483
濟州	-11.7483
凡七	-11.7484
建亭	-11.7484
大震	-11.7484
一歲	-11.7484
頰	-11.7489
自來	-11.7489
朕心	-11.7489
天道	-11.7489
至老	-11.7489
絶無	-11.7489
四頃	-11.7489
自相	-11.749
太上	-11.749
縣地屬	-11.749
天生	-11.7491
秦時	-11.7493
蟠龍	-11.7494
開元寺	-11.7494
樂安人	-11.7496
妻鄒氏	-11.7496
離石	-11.7496
腹心	-11.7498
國朝因之	-11.7498
丁未進士	-11.7498
喙	-11.75
贛榆	-11.75
相州	-11.7502
衝激	-11.7503
四十七年	-11.7504
者雖	-11.7505
昭公	-11.7505
桴	-11.7505
斟	-11.7505
煇	-11.7507
實有	-11.7511
入官	-11.7513
新泰	-11.7514
宰臣	-11.7514
士習	-11.7514
滇池	-11.7514
委曲	-11.7514
上供	-11.7515
白色	-11.7515
其土	-11.7516
不疑	-11.7516
縣省入	-11.7517
年置	-11.7517
廢入	-11.7518
壹萬	-11.7519
冷泉	-11.752
極目	-11.7522
惠政	-11.7523
奏免	-11.7523
定制	-11.7523
以忤	-11.7524
踊	-11.7524
吕氏	-11.7524
迓	-11.7525
二十一日	-11.7525
室中	-11.7527
用心	-11.7527
入京	-11.7527
府州	-11.7528
青州府	-11.7528
均州	-11.7529
世昌	-11.7529
嘗作	-11.7529
其節	-11.7529
蒲圻	-11.753
七合	-11.7534
朝邑人	-11.7534
書史	-11.7534
頂山	-11.7535
㑹通河	-11.7536
𤣥武	-11.7536
守者	-11.7536
非所以	-11.7536
東過	-11.7537
大吏	-11.7539
在縣北二十里	-11.7539
四十年任	-11.7539
壹忽	-11.754
登城	-11.7542
妻孟氏	-11.7543
田土	-11.7543
東距	-11.7543
伏乞	-11.7544
門入	-11.7546
玉田	-11.7547
而新之	-11.7548
哀毁骨立	-11.7549
小清河	-11.7551
方城	-11.7551
築之	-11.7552
聲如	-11.7552
娯	-11.7553
説法	-11.7553
資州	-11.7553
俎豆	-11.7554
宓	-11.7554
鹺	-11.7554
老成	-11.7554
潛山	-11.7554
謾	-11.7554
徵收	-11.7554
淛	-11.7555
裾	-11.7555
湔	-11.7555
嵗修	-11.7555
海濵	-11.7556
瑯琊	-11.7556
宫城	-11.7557
少而	-11.7557
成化四明郡志	-11.7558
二河	-11.7559
飛瀑	-11.7559
尤善	-11.7559
一夫	-11.7563
通舟楫	-11.7563
掌印	-11.7564
所敗	-11.7564
上接	-11.7567
懷逺	-11.7567
百餘步	-11.757
上承	-11.7572
南三十五里	-11.7573
三十八年任	-11.7576
萬歴間	-11.7577
新添	-11.7577
樞密	-11.7578
鴟	-11.7578
以昭	-11.7579
閶門	-11.7579
筦	-11.7583
奉養	-11.7583
年月	-11.7583
和順	-11.7584
諦	-11.7584
賊攻	-11.7585
儂	-11.7586
國子博士	-11.7586
鬛	-11.7586
南川	-11.7586
不辭	-11.7586
紏	-11.7586
紳士	-11.7587
芝草	-11.759
中夜	-11.7591
秋月	-11.7592
孔子廟	-11.7592
寧武	-11.7593
児	-11.7594
不撓	-11.7596
折色糧	-11.7597
猗氏人	-11.7597
後移	-11.7597
水又東南逕	-11.7598
六百七十	-11.7598
縣西南三十里	-11.76
之策	-11.7603
州教授	-11.7604
二汛	-11.7605
武清	-11.7606
黄鶴	-11.7606
二千六百	-11.7606
路明屬	-11.7607
張君	-11.7608
又東北經	-11.7608
者以為	-11.7609
隨父	-11.7609
在外	-11.761
蓬溪	-11.761
立法	-11.7611
陜西人康熙	-11.7614
仿	-11.7614
朱文公	-11.7615
尚文	-11.7616
年八十餘	-11.7616
乾隆十六年	-11.7617
堽	-11.7617
倂	-11.7617
四鎮	-11.7617
榕	-11.7617
南臺	-11.7618
涔	-11.7619
印綬	-11.7619
聽其	-11.762
書生	-11.762
人舉人康	-11.7621
樾	-11.7621
仝	-11.7621
倡亂	-11.7623
鳯山	-11.7623
差役	-11.7624
孝女	-11.7628
兼領	-11.7628
南陵人	-11.7629
改折	-11.7629
調兵	-11.7629
稍東	-11.763
南陽人	-11.763
山與	-11.7631
南江	-11.7633
在縣西五十里	-11.7634
隋初	-11.7635
遂定	-11.7635
海豐	-11.7636
般若	-11.7636
昌齡	-11.7637
之固	-11.7638
精舎	-11.7639
必由	-11.764
肆千	-11.764
尋甸	-11.764
者佳	-11.7641
政務	-11.7642
昴	-11.7642
毆	-11.7642
南昌府	-11.7643
景泰中	-11.7644
見聞	-11.7645
於下	-11.7646
勅賜	-11.7646
兵部主事	-11.7646
禽獸	-11.7647
慣	-11.7648
疾病	-11.7649
郜	-11.7651
淺深	-11.7651
巴勒	-11.7653
當事者	-11.7654
世傑	-11.7655
石堤	-11.7656
投繯	-11.7657
伏羲	-11.7658
縣東北三十里	-11.7658
南望	-11.7658
之賦	-11.7658
土爾扈特	-11.7658
五十里至	-11.7659
石渠	-11.7659
茂林	-11.766
壽春	-11.766
逆賊	-11.7661
協濟	-11.7661
九釐	-11.7662
鴻臚	-11.7662
洪洞人	-11.7662
尚義	-11.7663
為郎	-11.7663
行道	-11.7663
西蜀	-11.7664
人主	-11.7664
出于	-11.7667
特賜	-11.7668
盥	-11.7668
廣元	-11.7668
歲久	-11.7669
陽信	-11.7669
父殁	-11.7669
枳	-11.7669
娠	-11.7669
太古	-11.767
甲戌進士	-11.7672
舊宅	-11.7672
舸	-11.7673
鑲黄旗人	-11.7673
左有	-11.7673
申明	-11.7673
益以	-11.7674
蕚	-11.7674
萊陽	-11.7674
窈	-11.7674
長卿	-11.7676
岷江	-11.7678
順昌	-11.7679
水注之水出	-11.7681
十載	-11.7681
魚池	-11.7681
宋太平興國	-11.7683
奉化人	-11.7684
大理卿	-11.7684
賊巢	-11.7685
蘭谿人	-11.7686
陸游	-11.7686
道場	-11.7687
名節	-11.7687
所封	-11.7688
條陳	-11.7689
節孝祠	-11.7689
癸丑進士	-11.7689
神宗時	-11.7689
治所	-11.7693
二年正月	-11.7693
元延祐	-11.7693
執之	-11.7695
萬歲	-11.7695
簡易	-11.7695
而欲	-11.7696
家廟	-11.7697
和卓	-11.7697
壌	-11.7697
貞節	-11.7698
西抵	-11.7698
北流至	-11.7698
又東北至	-11.7698
桷	-11.7699
巖洞	-11.77
黄巖人	-11.7701
東北七十里	-11.7701
軍興	-11.7701
復生	-11.7701
暈	-11.7702
▁王	-11.7703
連理	-11.7704
禮成	-11.7705
偁	-11.7705
之傳	-11.7706
玫	-11.7707
共地	-11.7708
窈窕	-11.7709
軍旅	-11.7709
西苑	-11.771
甲辰進士	-11.771
其神	-11.7711
瓉	-11.7712
乃令	-11.7714
時論	-11.7715
文忠公	-11.7715
子美	-11.7717
是夜	-11.772
表之	-11.7721
户部郎中	-11.7721
閲月	-11.7721
阿克	-11.7723
智者	-11.7724
行鹽	-11.7725
巷戰	-11.7726
深一丈	-11.7727
㒺	-11.7727
縣南十里	-11.7728
一變	-11.7728
華原	-11.7728
縣東五里	-11.7729
癡	-11.773
又謂之	-11.7731
崇福	-11.7731
漢書西域傳	-11.7732
甲兵	-11.7732
蜚	-11.7732
號稱	-11.7732
請命	-11.7733
王氣	-11.7734
一百十	-11.7734
北隅	-11.7734
竊惟	-11.7735
梁國	-11.7735
獨存	-11.7735
馬驛	-11.7736
功陞	-11.7737
趙城	-11.7738
半山	-11.7741
村堡	-11.7742
雒南	-11.7742
花木	-11.7743
兩叄錢	-11.7743
乙未進士	-11.7745
湯隂	-11.7746
卒于官	-11.7746
南浦	-11.7748
一丈八尺	-11.7749
七百五十	-11.775
流血	-11.7751
修濬	-11.7751
靈璧	-11.7754
寜夏	-11.7754
西一里	-11.7755
蟒	-11.7756
擘	-11.7756
小而	-11.7758
武備	-11.7758
袋	-11.7758
臨汾人	-11.7758
之父	-11.7759
不修	-11.776
奩	-11.776
之野	-11.776
責令	-11.776
諏	-11.7763
足下	-11.7763
伊洛	-11.7763
遂至	-11.7765
舉家	-11.7765
長一百	-11.7767
威惠	-11.777
利津	-11.777
財用	-11.777
蘭亭	-11.7771
可免	-11.7774
瑞金	-11.7775
山澤	-11.7775
左合	-11.7776
二十三年任	-11.7776
萊陽人	-11.7777
史傳	-11.7778
異同	-11.7778
上髙	-11.7778
固安	-11.7779
烏桓	-11.7779
赤壁	-11.778
人萬歴	-11.778
積石山	-11.7781
東北三十里	-11.7781
世間	-11.7781
膩	-11.7783
公諱	-11.7784
不妨	-11.7784
出粟	-11.7785
釋迦	-11.7785
碗	-11.7785
殲	-11.7786
嶺表	-11.7786
今朝	-11.7786
四十萬	-11.7787
昇仙	-11.7787
藐	-11.7788
屡	-11.7788
霄漢	-11.7791
瀰	-11.7791
新喻人	-11.7793
冊府	-11.7793
巋然	-11.7793
主客	-11.7795
冬春	-11.7795
天心	-11.7795
百餘頃	-11.7795
晉侯	-11.7798
歲時	-11.7799
黄梅	-11.7799
交易	-11.78
興修	-11.78
文物	-11.78
統轄	-11.7801
夫餘	-11.7802
發明	-11.7803
四百餘里	-11.7804
右布政	-11.7805
詔旌	-11.7805
濡水	-11.7805
度使	-11.7806
溫州	-11.7806
地志	-11.7807
夀光	-11.7807
修竹	-11.7808
可久	-11.7808
重慶府	-11.7809
六百三十	-11.781
𤱔	-11.781
䘙	-11.7811
神功	-11.7812
平泉州	-11.7813
五百一十	-11.7814
濠州	-11.7816
元年正月	-11.7817
寜海	-11.7818
轉運判官	-11.7818
子瞻	-11.7819
驍騎校	-11.7819
盱	-11.7821
臺城	-11.7822
郡置	-11.7823
寧夏人	-11.7823
其女	-11.7823
清苑	-11.7825
咸寕	-11.7825
四百一十	-11.7825
為善	-11.7826
𦂳要	-11.7826
四十一年任	-11.7826
篷	-11.7827
縣西南六十里	-11.7828
齊人	-11.7828
汝水	-11.7828
蕭山縣	-11.7829
偏西	-11.783
姚安	-11.7831
石馬	-11.7832
敵臺	-11.7832
為吏	-11.7835
此心	-11.7835
據險	-11.7839
不分	-11.784
不流	-11.7842
東南七十里	-11.7843
以功授	-11.7844
之福	-11.7844
縞	-11.7845
民苦	-11.7845
提學副使	-11.7846
琅琊	-11.7846
四十卷	-11.7846
城濠	-11.7846
妻史氏	-11.7847
犯法	-11.7848
裔孫	-11.7848
叔父	-11.7848
兵食	-11.7848
越嶲	-11.7849
墓前	-11.7849
硝	-11.7851
長沙人	-11.7851
附於	-11.7852
士俊	-11.7852
吳淞	-11.7853
言訖	-11.7854
為梁	-11.7854
雨則	-11.7854
祁門	-11.7857
石虎	-11.7857
首惡	-11.7857
御史臺	-11.7858
萬户府	-11.7859
年十三	-11.7859
寧波	-11.7862
博興	-11.7862
四壁	-11.7864
崇禮	-11.7864
既已	-11.7865
教養	-11.7866
遇有	-11.7866
南漳	-11.7866
魏志	-11.7868
工完	-11.7869
該縣	-11.7869
雍正二年任	-11.7869
為便	-11.787
絲捌忽	-11.7871
駐本營	-11.7871
昔者	-11.7872
瘁	-11.7872
靺鞨	-11.7872
鏃	-11.7873
一萬六千	-11.7875
何須	-11.7876
盼	-11.7876
羅源	-11.7876
灃	-11.7877
譔	-11.7877
共計	-11.7877
型	-11.7877
等路	-11.7879
罩	-11.788
不能自	-11.788
攫	-11.788
東南逕	-11.788
冷水	-11.7881
村南	-11.7881
毋得	-11.7881
四十三年任	-11.7883
蓁	-11.7884
縣東十里	-11.7884
闗係	-11.7884
西十五里	-11.7888
句踐	-11.7888
均平	-11.7892
州貞觀	-11.7893
重地	-11.7894
夫殁氏年二十	-11.7894
十八年改	-11.7894
論事	-11.7895
曲沃人	-11.7897
遊擊一員	-11.7898
烏石	-11.7899
桃源縣	-11.7899
雲霄	-11.79
復見	-11.7901
擇其	-11.7901
劉士	-11.7902
德興	-11.7902
自若	-11.7902
燄	-11.7902
三千六百	-11.7902
甘貧	-11.7904
飛鳥	-11.7905
禱之	-11.7905
年十二	-11.7905
軍政	-11.7905
二百六十里	-11.7906
曽記	-11.7906
九疇	-11.7909
無為人	-11.7909
漕米	-11.7909
稍稍	-11.791
舉明經	-11.791
四鄉	-11.791
子國	-11.7914
明王	-11.7916
鶴鳴	-11.7916
張居正	-11.7917
留題	-11.7918
入湖	-11.7919
沔陽人	-11.792
水又東南	-11.792
亦不能	-11.7922
桂芳	-11.7923
不備	-11.7923
黄牛	-11.7923
赴京	-11.7925
盂縣	-11.7925
何能	-11.7925
峰山	-11.7926
圖之	-11.7926
延壽	-11.7927
雍正五年任	-11.7927
鏐	-11.7928
嵩山	-11.7932
是夕	-11.7932
山對峙	-11.7932
今圯	-11.7933
一由	-11.7933
娱	-11.7935
滉	-11.7935
宜州	-11.7936
潺湲	-11.7937
重陽	-11.7937
甘露降	-11.7938
肱	-11.7938
俱為	-11.7939
十里南至	-11.794
也但	-11.794
竑	-11.7941
郟縣	-11.7941
倭寇	-11.7942
家法	-11.7944
高帝	-11.7944
為相	-11.7944
遇閏	-11.7944
宋史本傳字	-11.7945
衡陽人	-11.7945
公家	-11.7946
攻圍	-11.7948
厲聲	-11.7948
最後	-11.795
忘其	-11.7951
益州刺史	-11.7951
指示	-11.7953
乃復	-11.7957
長汀	-11.7957
州通判	-11.7957
詳請	-11.7958
解散	-11.7958
桑麻	-11.7958
圍錦州	-11.7959
百金	-11.7959
乎哉	-11.7959
病者	-11.7959
親征	-11.796
亙	-11.796
足跡	-11.7961
徽宗時	-11.7961
殪	-11.7962
劑	-11.7963
一百四	-11.7966
黄泥	-11.7966
役者	-11.7966
藩臬	-11.7966
養親	-11.7967
劇賊	-11.7968
韓城人	-11.797
雙節	-11.797
奉議郎	-11.7971
定鼎	-11.7971
稱疾	-11.7972
康王	-11.7972
遹	-11.7972
或以為	-11.7973
徙於	-11.7973
康熙元年	-11.7974
其頂	-11.7974
四十丈	-11.7976
亡守節	-11.7977
達州	-11.7977
五百九十	-11.7981
德宗	-11.7981
水淺	-11.7981
四出	-11.7983
廷議	-11.7983
宋嘉定	-11.7984
嘗遊	-11.7985
昔時	-11.7985
帝命	-11.7987
新亭	-11.7988
陽縣西	-11.7988
奉檄	-11.7988
乘勝	-11.7989
顔子	-11.7989
元帥府	-11.799
濟川	-11.7991
漷	-11.7992
給以	-11.7993
猥	-11.7993
滴水	-11.7994
譖	-11.7994
張仲	-11.7994
楚人	-11.7994
噪	-11.7994
四十二年任	-11.7994
綘	-11.7995
元朔	-11.7995
溝渠	-11.7998
孀姑	-11.7998
日中	-11.7999
嘏	-11.7999
六塵	-11.8004
沃野	-11.8004
湯泉	-11.8006
皇極	-11.8007
賜宴	-11.801
劉家	-11.801
又東合	-11.801
到此	-11.8011
康熙九年	-11.8011
開皇初	-11.8013
巴哈	-11.8013
治道	-11.8013
前所	-11.8014
赤松	-11.8015
趙王	-11.8016
學生	-11.8018
妻湯氏	-11.8021
所記	-11.8022
沔水	-11.8022
縣界二十五里	-11.8022
十員	-11.8023
三千七百	-11.8023
左衞	-11.8024
三國魏	-11.8025
妻熊氏	-11.8025
無辜	-11.8027
厯知	-11.8027
王敦	-11.8028
魚鱗	-11.8028
城鎮	-11.8028
啄	-11.8028
萬卷	-11.8029
欝	-11.803
屬焉	-11.803
少時	-11.803
近臣	-11.8031
勢甚	-11.8031
龍湫	-11.8032
梧桐	-11.8033
八陣	-11.8033
一兩	-11.8034
闗内	-11.8034
死生	-11.8036
正南	-11.8036
峰巒	-11.8037
新城縣	-11.8037
長陵	-11.8037
桑乾	-11.8039
仙橋	-11.8039
營堡	-11.8039
蔡州	-11.8039
巴什	-11.804
樓下	-11.8043
改爲	-11.8044
學舍	-11.8044
皇清順治	-11.8046
葭	-11.8048
兵船	-11.8049
杜氏	-11.8049
揚州刺史	-11.805
民地	-11.805
鄮	-11.805
第七	-11.8051
建築	-11.8052
妻石氏	-11.8052
清化	-11.8053
平昌	-11.8054
昔年	-11.8055
全椒人	-11.8055
節儉	-11.8055
絲九忽	-11.8055
妻秦氏	-11.8056
海濱	-11.8056
髙厚	-11.8056
無間言	-11.8057
雖無	-11.8057
軍使	-11.8058
騖	-11.8061
百七十里	-11.8061
而返	-11.8062
塔拉	-11.8062
平川	-11.8063
梁大同	-11.8064
為太子	-11.8064
明矣	-11.8064
三城	-11.8064
原書	-11.8065
衛指揮	-11.8066
曉諭	-11.8067
二百八十里	-11.8067
所藏	-11.8067
七頃	-11.8067
雍正元年任	-11.8067
建本朝	-11.8068
稍長	-11.8068
議開	-11.8069
養士	-11.8069
義熙	-11.807
欲使	-11.8071
流通	-11.8072
西北四十里	-11.8074
巴陵人	-11.8075
屈原	-11.8075
人倫	-11.8075
守土	-11.8075
復何	-11.8077
君王	-11.8077
異於	-11.8077
東南三十里	-11.8079
之位	-11.808
不涸	-11.8081
㑹議	-11.8082
丹井	-11.8083
而小	-11.8083
仲子	-11.8083
取道	-11.8083
南經	-11.8083
九齡	-11.8084
楊栁	-11.8085
相向	-11.8085
一覽	-11.8086
夏后	-11.8087
誤也	-11.8088
隋開皇三年	-11.8088
張應	-11.8089
髙聳	-11.8089
未經	-11.8089
以平	-11.8089
犯境	-11.809
九斗	-11.809
利其	-11.8091
逺望	-11.8091
上昇	-11.8091
白頭	-11.8091
晉時	-11.8092
長短	-11.8094
召募	-11.8094
廐	-11.8094
良佐	-11.8095
趙抃	-11.8096
第八	-11.8096
南陽府	-11.8097
舊置	-11.8097
玉皇	-11.8099
石零	-11.8099
太平橋	-11.8099
甚嚴	-11.8099
坐落	-11.81
貞觀初	-11.81
藍山	-11.8101
萬年人	-11.8102
已成	-11.8103
連年	-11.8103
武城人	-11.8104
芳草	-11.8105
萬民	-11.8108
進討	-11.8108
帥府	-11.8108
天聖中	-11.8109
傳子	-11.8109
六兩	-11.8112
所遺	-11.8112
洋洋	-11.8112
曰彼	-11.8116
二十五年任	-11.8116
穆王	-11.8116
天保	-11.8117
聖賢之	-11.8117
整飭	-11.8117
壬戌進士	-11.8118
霈	-11.8118
瀰漫	-11.8118
胷	-11.8121
暎	-11.8122
提舉司	-11.8123
蔡邕	-11.8123
長蘆	-11.8124
踰月	-11.8124
于海	-11.8125
營山	-11.8127
羅氏	-11.8128
兵革	-11.813
郡後周	-11.8131
晚年	-11.8132
宋太祖	-11.8133
大潰	-11.8137
襄州	-11.8138
自為記	-11.8138
一心	-11.8139
把總四員	-11.8139
尋陽	-11.814
継	-11.8141
龍灣	-11.8142
無此	-11.8143
本朝初	-11.8143
詩賦	-11.8144
傾圮	-11.8144
淺阻	-11.8146
剙	-11.8147
至元二	-11.8147
四府	-11.8149
江南人	-11.8149
疾卒	-11.8149
萬春	-11.8149
价	-11.815
公帑	-11.8154
六年置	-11.8154
杏山	-11.8154
諸家	-11.8154
榮河	-11.8155
不均	-11.8155
冬十二月	-11.8156
海洋	-11.8156
額森	-11.8157
三釐	-11.8159
千八百	-11.8159
雷霆	-11.8161
試之	-11.8163
王永	-11.8163
盛夏	-11.8164
士嘉靖時任	-11.8165
子儀	-11.8165
應辰	-11.8165
當是時	-11.8165
蠕蠕	-11.8166
用是	-11.8167
以功封	-11.8167
積貯	-11.8167
郡丞	-11.8168
者盖	-11.8171
肺	-11.8173
三兩	-11.8174
王導	-11.8175
對岸	-11.8175
二十三里	-11.8175
澁	-11.8178
勔	-11.8178
禩	-11.8178
莊浪	-11.8178
車騎將軍	-11.8179
河隂	-11.818
五斗	-11.818
熒	-11.818
先朝	-11.818
莎車	-11.8181
厯城	-11.8181
江寕	-11.8181
碑云	-11.8182
合葬	-11.8183
吉凶	-11.8184
宗周	-11.8184
天順中	-11.8185
山為名	-11.8185
欲令	-11.8185
而反	-11.8186
舉火	-11.8186
榆林人	-11.8187
安邊	-11.8187
東抵	-11.8188
遑	-11.819
世忠	-11.8191
高要人	-11.8192
惻然	-11.8192
隋開皇初	-11.8194
石閘	-11.8198
州軍事	-11.8199
騰越	-11.82
延之	-11.82
感動	-11.8201
夢中	-11.8201
回鶻	-11.8203
吟咏	-11.8205
五百八十	-11.8205
春坊	-11.8205
國朝康熈	-11.8206
顯謨	-11.8206
蠢	-11.8207
跣足	-11.8208
淋	-11.8209
簒	-11.8209
友諒	-11.8211
營兵	-11.8211
戰馬	-11.8212
邊城	-11.8212
擒其	-11.8212
渡水	-11.8212
如屏	-11.8213
䦨	-11.8214
事理	-11.8215
之辭	-11.8217
巴圖魯	-11.8218
捐金	-11.8219
伐之	-11.8221
之道也	-11.8221
斗牛	-11.8221
亷介	-11.8221
湖之水	-11.8222
想見	-11.8224
飾以	-11.8225
哀號	-11.8225
中分	-11.8225
六百六十	-11.8226
四年改	-11.8229
亦嘗	-11.8229
禺	-11.8231
隋開皇十六年	-11.8232
通漕	-11.8232
嘔血	-11.8233
疏鑿	-11.8233
薇	-11.8233
債	-11.8233
泡	-11.8233
盧溝	-11.8233
蓆	-11.8234
撫遺腹子	-11.8234
中正	-11.8235
中條山	-11.8236
縝	-11.8237
東關	-11.8238
民俗	-11.8238
延長	-11.8238
躬耕	-11.8238
示之	-11.8239
遺蹟	-11.8239
女真	-11.824
王十朋	-11.8241
在縣東四十里	-11.8241
不聴	-11.8241
出兵	-11.8244
俛	-11.8244
指授	-11.8245
山僧	-11.8247
按舊志	-11.8247
孟氏	-11.8247
甚著	-11.8247
杜陵人	-11.825
同死	-11.8252
十頃	-11.8253
乃還	-11.8254
道出	-11.8255
紀勝	-11.8256
潰決	-11.8256
康熙年間	-11.8258
乃為	-11.826
版圖	-11.8263
崇祀	-11.8263
天涯	-11.8264
黄圖	-11.8265
一所	-11.8265
夏津	-11.8266
風起	-11.8266
峯頂	-11.8266
木石	-11.8266
而前	-11.8268
宰桑	-11.8269
遨	-11.8269
本朝康	-11.8269
大王	-11.827
者至	-11.827
年設	-11.827
閆	-11.827
可坐	-11.8271
綦江	-11.8272
怕	-11.8273
耨	-11.8273
續文獻	-11.8273
腋	-11.8274
山東南流	-11.8274
力辭	-11.8276
沁河	-11.8276
閶闔	-11.8276
其下有	-11.8276
親戚	-11.8277
一時之	-11.8279
射陽湖	-11.828
光禄寺	-11.8281
所入	-11.8281
極論	-11.8282
雨後	-11.8283
於其上	-11.8283
至城下	-11.8284
兼轄	-11.8285
過半	-11.8287
祠祀之	-11.8288
故基	-11.8289
祀事	-11.829
雹	-11.829
洋州	-11.8291
之姪	-11.8291
元勲	-11.8291
兵討	-11.8293
寛平	-11.8293
家無	-11.8294
萬狀	-11.8294
令尹	-11.8294
輔政	-11.8295
昭化	-11.8295
博通	-11.8295
十九里	-11.8296
桃林	-11.8297
縻	-11.8297
汴梁	-11.8298
先王之	-11.8299
姒	-11.83
頭村	-11.8301
青草	-11.8301
厎	-11.8302
而致	-11.8302
衛河	-11.8302
法令	-11.8303
紀之	-11.8304
仁和縣	-11.8304
年號	-11.8305
珦	-11.8305
與俱	-11.8306
唐武德四年	-11.8306
績溪	-11.8306
西北七十里	-11.8306
起為	-11.8308
順治二年	-11.8309
近刻竝訛作經	-11.8309
宋氏	-11.8311
鄧艾	-11.8311
家湖	-11.8311
之表	-11.8313
東嶽廟	-11.8313
每一	-11.8313
以身殉	-11.8313
甲乙	-11.8315
語云	-11.8316
額數	-11.8316
捐資	-11.8317
永元	-11.8319
一里許	-11.8321
濟寧州	-11.8321
石龍	-11.8321
春日	-11.8321
俱入	-11.8322
妻白氏	-11.8323
界内	-11.8323
魚龍	-11.8324
其廬	-11.8325
羊山	-11.8327
詔令	-11.8327
聲如雷	-11.8328
退居	-11.8328
賈似道	-11.8328
上堂	-11.8329
既有	-11.8329
最著	-11.833
至若	-11.833
指揮同知	-11.833
伉	-11.8331
文英	-11.8331
抉	-11.8332
後歸	-11.8333
縣南五里	-11.8334
曬	-11.8335
漢中府	-11.8335
零陵人	-11.8335
濞	-11.8336
夏縣	-11.8337
鎮國	-11.8337
者蓋	-11.8339
子婦	-11.8339
殺我	-11.834
其用	-11.8341
升九合	-11.8342
宗元	-11.8342
闐	-11.8344
不第	-11.8344
寳雞	-11.8345
大定府	-11.8345
一斗	-11.8346
壺關	-11.8346
叱之	-11.8346
中峯	-11.8346
青浦	-11.8349
使民	-11.835
湖廣人	-11.835
額銀	-11.835
大竹	-11.8351
田間	-11.8352
隄長	-11.8352
三處	-11.8353
民貧	-11.8357
水發源	-11.8357
挖	-11.8357
苾	-11.8358
上馬	-11.8358
通利	-11.8359
贈太師	-11.8359
悶	-11.836
石榴	-11.8361
堠	-11.8361
宣政	-11.8362
掖縣	-11.8362
胥吏	-11.8365
三十一年任	-11.8366
也盖	-11.8367
務本	-11.8367
不憚	-11.8367
南七里	-11.8367
南一百二十里	-11.8367
紫芝	-11.8368
瀟湘	-11.8368
軍於	-11.8369
家涇	-11.837
北麓	-11.8371
縣西北三十里	-11.8371
尋擢	-11.8372
石湖	-11.8372
魏文帝	-11.8373
興京	-11.8374
即此地	-11.8374
之儀	-11.8375
得宜	-11.8376
敏中	-11.8376
貞觀八年	-11.8376
在縣南十里	-11.8376
訓導署	-11.8376
盛世	-11.8377
在縣治西南	-11.838
代人	-11.838
齊乘	-11.8381
貴賤	-11.8381
河套	-11.8381
生一子	-11.8383
諍	-11.8385
四十名	-11.8385
雍正六年任	-11.8385
黔江	-11.8386
三十五年任	-11.8387
榷	-11.8387
人天啟	-11.8387
風采	-11.8388
二十餘丈	-11.8388
今欲	-11.8388
紡	-11.839
夀張	-11.8391
少監	-11.8392
還鄉	-11.8392
西南八十里	-11.8393
乾道中	-11.8393
惆悵	-11.8394
里上有	-11.8394
炮	-11.8398
六載	-11.8399
西南六十里	-11.8399
達于	-11.84
從征明	-11.84
不懈	-11.84
窣堵波	-11.8401
一云	-11.8401
三國志	-11.8402
趙時	-11.8403
建廟	-11.8405
上林苑	-11.8405
俱於	-11.8406
熙寧中	-11.8406
十里西北至	-11.8406
耆舊	-11.8407
五百三十	-11.8407
劾之	-11.8407
之支	-11.8407
肇慶府	-11.8408
豐年	-11.8409
界首	-11.8409
商河	-11.841
老弱	-11.841
北上	-11.8411
威儀	-11.8411
寶山	-11.8412
汶河	-11.8412
兩省	-11.8412
稍南	-11.8413
受學	-11.8414
碉	-11.8415
脅之	-11.8417
二十八日	-11.8419
釋氏	-11.8419
大順	-11.842
埸	-11.842
高氏	-11.8421
丰	-11.8422
妻洪氏	-11.8422
子河	-11.8422
斵	-11.8423
淵明	-11.8423
七十里至	-11.8423
號慟	-11.8423
李綱	-11.8423
宏治中	-11.8425
臨平	-11.8426
閘一座	-11.8426
元宗	-11.8426
四瀆	-11.8426
嶓冢	-11.8427
有詩云	-11.8427
㩀	-11.8428
良玉	-11.8429
淮河	-11.843
彭城人	-11.843
郃	-11.843
馮氏	-11.8432
太白山	-11.8432
不乏	-11.8433
山東人	-11.8433
世世	-11.8433
雨雪	-11.8434
其政	-11.8435
可知也	-11.8436
興利	-11.8436
色白	-11.8437
𤦺	-11.8438
興復	-11.8438
遼金	-11.8439
生事	-11.844
步騎	-11.8441
寒食	-11.8442
優游	-11.8443
西南五十里	-11.8443
中道	-11.8443
自勵	-11.8444
十嵗	-11.8445
濟寜	-11.8446
詞賦	-11.8448
時已	-11.8448
遵行	-11.845
資政殿學士	-11.8451
所需	-11.8451
庫在	-11.8452
畬	-11.8452
中秋	-11.8452
寺記	-11.8453
公安人	-11.8453
天文志	-11.8453
任滿	-11.8453
悽	-11.8454
崞	-11.8455
醋	-11.8455
郪	-11.8456
僑置	-11.8456
太子太保	-11.8456
人稱為	-11.8456
不惜	-11.8458
從孫	-11.8459
王莽更名	-11.846
書畫	-11.846
皇清因之	-11.8461
曽子	-11.8462
蓴	-11.8462
不食死	-11.8462
除荒	-11.8463
張良	-11.8463
增置	-11.8465
軍國	-11.8466
夏税	-11.8466
引為	-11.8468
陳友諒	-11.8469
每畆	-11.8471
客死	-11.8471
修文	-11.8472
任邱	-11.8472
宣和間	-11.8474
池陽	-11.8474
可知矣	-11.8476
泣下	-11.8476
失利	-11.8477
詔褒	-11.8477
哷	-11.8478
三老	-11.8478
在縣東十里	-11.8479
風景	-11.848
礫	-11.8482
一府	-11.8482
薙	-11.8483
毁容	-11.8483
覆舟	-11.8484
各設	-11.8484
紅花	-11.8484
都司一員	-11.8485
平居	-11.8486
綏德	-11.8486
易名	-11.8487
全河	-11.8488
後人因	-11.8488
秦晉	-11.8489
浦口	-11.849
兵防	-11.8491
南陽郡	-11.8491
叢生	-11.8491
譲	-11.8492
宣諭	-11.8492
髙一丈	-11.8492
紀功	-11.8493
哈什	-11.8495
出身	-11.8496
萱	-11.8498
二十二里	-11.8501
在昔	-11.8501
即今之	-11.8503
仰視	-11.8503
字時	-11.8503
將軍廟	-11.8503
克圖	-11.8503
路轉運使	-11.8505
安慶府	-11.8506
大年	-11.8506
所書	-11.8508
相𫝊	-11.8509
清江人	-11.8509
廣濟人	-11.8509
城守營	-11.851
目之	-11.851
西陲	-11.8511
宋咸淳	-11.8511
誰知	-11.8512
寕遠	-11.8513
後殿	-11.8513
何由	-11.8515
降者	-11.8515
詩人	-11.8515
聞其名	-11.8516
遇旱	-11.8517
龍泉人	-11.8517
天子之	-11.8517
矚	-11.8518
定例	-11.8518
國家之	-11.8518
奏報	-11.8518
語録	-11.852
掉	-11.8521
生員張	-11.8521
賀蘭	-11.8522
巉巖	-11.8525
進士授行人	-11.8526
三鄉	-11.8526
南贑	-11.8527
緡錢	-11.8527
以賜	-11.8528
委任	-11.853
又建	-11.8531
曽祖	-11.8532
事君	-11.8532
七浦	-11.8533
三十七年任	-11.8533
又築	-11.8535
稍北	-11.8535
向化	-11.8536
淵源	-11.8536
堤工	-11.8537
楚子	-11.8538
不決	-11.8541
者豈	-11.8543
光祿大夫	-11.8543
汶川	-11.8543
河務	-11.8544
十里東南至	-11.8544
崇禎末	-11.8546
三千人	-11.8546
所奏	-11.8546
賦税	-11.8547
疑之	-11.8547
豐潤	-11.8551
元豐中	-11.8552
文筆	-11.8552
悦服	-11.8553
地利	-11.8553
大同府	-11.8553
紫微	-11.8554
青蓮	-11.8555
基址	-11.8555
勞苦	-11.8555
郗	-11.8555
據此	-11.8556
命有司	-11.8556
安集	-11.8557
嚴肅	-11.8557
桐栢	-11.8557
北庭	-11.8558
如法	-11.8558
行幸	-11.8559
村西	-11.8559
諸城人	-11.856
兵士	-11.8561
雨水	-11.8561
瑞昌	-11.8563
隋書地	-11.8564
甚矣	-11.8565
豪民	-11.8565
治平三年	-11.8565
乾隆八年	-11.8566
距縣	-11.8566
課士	-11.8567
虹縣	-11.8568
民户	-11.8568
石埭	-11.8569
沈約	-11.8569
見稱	-11.857
皆稱	-11.8571
巡檢一員	-11.8571
出境	-11.8571
閘壩	-11.8574
垾	-11.8574
蜀道	-11.8574
靈邱	-11.8575
工部覆	-11.8576
本軍	-11.8576
大木	-11.8576
葬此	-11.8577
新法	-11.8578
士風	-11.8579
升降	-11.8579
六纎	-11.8579
長樂人	-11.858
鳶	-11.8581
縣東六十里	-11.8581
十六名	-11.8581
明洪武二十	-11.8582
夢龍	-11.8582
椅	-11.8582
入門	-11.8583
瑊	-11.8583
靈鷲	-11.8584
公孫述	-11.8584
俎	-11.8584
議具奏	-11.8585
陽和	-11.8586
典史署	-11.8586
衆流	-11.8586
躔	-11.8586
民不知	-11.8587
行義	-11.8588
追及	-11.8588
効力	-11.8589
之化	-11.8591
終其身	-11.8592
舊時	-11.8592
字用	-11.8593
胙	-11.8593
九載	-11.8594
元至元間	-11.8594
逋負	-11.8595
字惟	-11.8595
至聖	-11.8595
官署	-11.8595
供給	-11.8596
典籍	-11.8597
高二丈	-11.8597
巖巖	-11.8598
右合	-11.8598
三百人	-11.8599
東面	-11.8599
建安中	-11.86
髙田	-11.86
墨池	-11.86
稱善	-11.86
通許	-11.8602
西州	-11.8603
蒲臺	-11.8604
無嗣	-11.8605
銅鞮	-11.8606
滿城	-11.8608
置田	-11.8609
四方之	-11.8609
臨事	-11.8609
風浪	-11.861
捐軀	-11.861
幟	-11.861
領鄉薦	-11.8611
贇	-11.8611
東自	-11.8612
妻曾氏	-11.8612
洪武二年	-11.8612
特立	-11.8612
江寜	-11.8612
而不得	-11.8613
什邡	-11.8613
遂入	-11.8614
鋸	-11.8614
藉以	-11.8614
吳越王	-11.8614
有謀	-11.8615
朱公	-11.8616
諸勝	-11.8617
十分之	-11.8617
窮民	-11.8618
宣徳間	-11.8618
所傳	-11.8619
等物	-11.862
浩蕩	-11.862
縣西五里	-11.8621
不虞	-11.8622
地廣	-11.8623
湘江	-11.8624
相顧	-11.8624
乃遣	-11.8624
山靈	-11.8625
三十六年任	-11.8625
不厭	-11.8625
五都	-11.8626
皇清因之編户	-11.8628
宣歙	-11.863
三千九百	-11.863
七百八十	-11.863
監生康熙	-11.863
築塞	-11.8631
免官	-11.8631
又復	-11.8631
政和中	-11.8631
盛徳	-11.8633
洪武十	-11.8634
之詩	-11.8634
笄	-11.8635
賦曰	-11.8635
八百五十	-11.8635
東闗	-11.8636
盛事	-11.8637
五寨	-11.8638
陸氏	-11.8638
壽張	-11.8638
券	-11.8638
行水金鑑巻	-11.8638
一百餘里	-11.8639
以勞	-11.864
歸善人	-11.864
又得	-11.8641
旗軍	-11.8642
善射	-11.8642
首陽	-11.8643
夜夢	-11.8643
慝	-11.8643
𥙿	-11.8643
闞	-11.8643
廊廡	-11.8644
氾	-11.8644
隗	-11.8645
新津	-11.8645
菰	-11.8646
必致	-11.8646
其子孫	-11.8647
四夷	-11.865
被圍	-11.8651
孔雀	-11.8652
塵埃	-11.8652
七年改	-11.8652
姚州	-11.8653
題其	-11.8654
庚戌進士	-11.8655
天中式	-11.8655
二十四年任	-11.8656
川陜	-11.8656
堙塞	-11.8657
屢經	-11.8657
乘間	-11.8659
所領	-11.8659
鄭國	-11.866
莊宗	-11.8661
固已	-11.8661
宋濓	-11.8666
許氏	-11.8666
既定	-11.8667
昆弟	-11.8667
古爾	-11.8669
譟	-11.8669
按漢	-11.8669
七百二十	-11.8669
天門人	-11.867
三台	-11.8671
有石洞	-11.8672
禹廟	-11.8673
以溉田	-11.8673
闓	-11.8674
擾民	-11.8675
共徴銀	-11.8676
河洛	-11.8676
秉忠	-11.8676
五十名	-11.8676
為己任	-11.8677
母家	-11.8678
畚鍤	-11.8679
澚	-11.8679
巵	-11.868
十二丈	-11.868
詢之	-11.8681
㢲	-11.8681
相思	-11.8681
不返	-11.8682
題旌冊年二十	-11.8684
思恩	-11.8684
覆准	-11.8684
召至	-11.8685
漢髙帝	-11.8685
岐陽	-11.8685
官給	-11.8686
渭橋	-11.8686
在縣南五十里	-11.8687
重兵	-11.8688
監利人	-11.8688
不使	-11.8689
他適	-11.869
不繼	-11.8691
翼城人	-11.8691
格爾	-11.8693
漢初	-11.8695
荆襄	-11.8695
方士	-11.8695
其氣	-11.8696
憐其	-11.8696
豈惟	-11.8696
可作	-11.8697
兖州府	-11.8697
尋卒	-11.8699
陳君	-11.8699
礮	-11.8699
難行	-11.8701
靖邊	-11.8704
翰墨	-11.8704
珍珠	-11.8705
鐘樓	-11.8708
二萬五千	-11.8709
玄	-11.8709
決河	-11.871
千石	-11.871
濓溪	-11.871
蛙	-11.871
山在縣西南	-11.8711
其像	-11.8713
拂衣	-11.8713
者葢	-11.8713
大清河	-11.8713
縣知縣署	-11.8713
教塲	-11.8714
從龍	-11.8714
前事	-11.8716
門五	-11.8716
一百三	-11.8716
尊者	-11.8717
承襲	-11.8717
出處	-11.8719
溝泉	-11.8719
卒年六十	-11.8719
協力	-11.872
太平府	-11.872
文舉	-11.872
餘衆	-11.8722
始以	-11.8723
十餘日	-11.8723
天台人	-11.8724
初因之	-11.8724
職事	-11.8724
進士歴	-11.8725
燬於兵	-11.8726
在縣北四十里	-11.8727
原州	-11.8728
古寺	-11.8729
州觀察使	-11.8729
泰妻	-11.8729
領縣二	-11.8731
高安	-11.8731
復歸	-11.8731
居鄉	-11.8734
茆	-11.8734
咸康	-11.8735
龍門山	-11.8735
順治十六年	-11.8735
大全	-11.8736
西南境	-11.8736
清泰	-11.8737
一例	-11.8737
九頃	-11.8737
水溉田	-11.8739
後漢省	-11.874
摛	-11.874
興祖	-11.8741
彘	-11.8742
靈帝	-11.8742
别置	-11.8742
列聖	-11.8743
永新人	-11.8744
翬	-11.8744
晉封	-11.8745
能言	-11.8747
都爾	-11.8749
居家	-11.875
而作	-11.8751
不特	-11.8752
計其	-11.8753
悉為	-11.8755
漢置縣屬	-11.8756
雲峯	-11.8757
苦竹	-11.8757
終無	-11.8758
董卓	-11.8759
括蒼	-11.876
武當	-11.8761
建寕	-11.8761
閘夫	-11.8762
行路	-11.8762
北流注于	-11.8762
劍川	-11.8762
古稱	-11.8763
釋名	-11.8763
西園	-11.8764
仁恕	-11.8764
處州府	-11.8766
僧㑹司	-11.8767
昭明	-11.8767
今以	-11.8767
同縣節婦	-11.8767
自府治至	-11.8769
舊經	-11.877
萬厯紹興府志	-11.877
又西逕	-11.877
無用	-11.8771
耘	-11.8771
翁源	-11.8771
因家焉	-11.8771
白茅	-11.8771
迎恩	-11.8772
甲於	-11.8772
天爵	-11.8773
逆流	-11.8773
朝奉大夫	-11.8774
讌	-11.8774
親臨	-11.8774
縣東南三十里	-11.8775
正殿三楹	-11.8776
漁人	-11.8776
斗五升	-11.8777
𢎞治湖州府志	-11.8777
妻王氏王	-11.8778
范文正公	-11.8779
又東南入	-11.8782
補之	-11.8782
順流	-11.8783
千二百	-11.8783
聖駕	-11.8783
糧餉	-11.8783
七年置	-11.8784
如飛	-11.8785
闗西	-11.8786
目擊	-11.8788
林下	-11.8789
堂前	-11.8789
瀋	-11.879
二百三十里	-11.879
武臣	-11.879
既久	-11.8791
王仲	-11.8791
龍安	-11.8792
科第	-11.8794
招諭	-11.8795
始見	-11.8796
淡水	-11.8797
母憂	-11.8797
出而	-11.8798
還朝	-11.8799
浩然	-11.88
此書	-11.8801
無非	-11.8802
貢方物	-11.8802
設險	-11.8803
袒	-11.8804
界二百	-11.8804
請復	-11.8805
喫	-11.8805
磵	-11.8805
水一名	-11.8806
蘧	-11.8806
罍	-11.8808
西二十五里	-11.8808
崢嶸	-11.8808
龍陽	-11.8808
種種	-11.8809
廷對	-11.8809
十事	-11.8809
版籍	-11.8811
榖城	-11.8812
舉孝廉	-11.8812
嵗餘	-11.8813
太息	-11.8814
權知	-11.8816
河渡	-11.8816
此非	-11.8818
石經	-11.882
之方	-11.882
倉庫	-11.8821
濁水	-11.8821
相繼修葺	-11.8822
傳之	-11.8823
幸甚	-11.8823
在長洲縣	-11.8825
順治三年	-11.8825
隄工	-11.8828
嵐州	-11.8829
存之	-11.8829
安義	-11.8833
人馬	-11.8834
所都	-11.8834
白山	-11.8834
淦	-11.8834
貴陽	-11.8835
取士	-11.8835
王室	-11.8835
故以名	-11.8836
大儒	-11.8836
黷	-11.8837
泰伯	-11.8837
患之	-11.8837
又南至	-11.8839
璨	-11.8839
砌石	-11.884
㤀	-11.884
餘杭縣	-11.884
真武	-11.884
睨	-11.8841
糊	-11.8842
一清	-11.8844
河池	-11.8844
萬方	-11.8844
安溪	-11.8845
李靖	-11.8845
适	-11.8845
三歲	-11.8845
峯寺	-11.8846
年閒	-11.8846
知州事	-11.8849
巖寺	-11.8849
休息	-11.885
巡撫都御史	-11.885
南徙	-11.8853
峻嶺	-11.8853
為屋	-11.8854
石灰	-11.8855
州司馬	-11.8855
妻侯氏	-11.8856
崇慶	-11.8856
子厚	-11.8856
富人	-11.8857
哀帝	-11.8858
一軍	-11.8858
又南入	-11.8859
錦屏	-11.886
黒龍	-11.886
甚廣	-11.8862
常樂	-11.8862
玷	-11.8862
分為三	-11.8862
亦當	-11.8862
卡	-11.8862
諭祭	-11.8863
鎮北	-11.8864
請代	-11.8864
悉力	-11.8865
氏閑散	-11.8866
罽	-11.8866
雍正七年任	-11.8867
魴	-11.8867
西南四十里	-11.8869
縣界三十五里	-11.8869
章邱人	-11.8869
安吉州	-11.8869
顔師古	-11.8869
纍	-11.887
圳	-11.887
嘉興縣	-11.8871
鼉	-11.8871
嘶	-11.8871
清水河	-11.8872
猜	-11.8872
櫂	-11.8873
逹於	-11.8874
水合流	-11.8875
狄道人	-11.8875
正統初	-11.8875
以為神	-11.8875
朝議大夫	-11.8875
靖逺	-11.8875
新田	-11.8876
代州人	-11.8877
絲肆忽	-11.8878
慈谿縣	-11.8878
日記	-11.8878
築臺	-11.888
因舊	-11.8881
在京	-11.8883
誦經	-11.8884
武進縣	-11.8884
出門	-11.8885
在縣城	-11.8886
丹陽郡	-11.8889
鹽場	-11.8889
施州	-11.889
凜	-11.889
弓兵	-11.889
齊侯	-11.889
咸亨	-11.8893
堂西	-11.8894
王化	-11.8895
王繼	-11.8895
穴中	-11.8896
輜重	-11.8896
縣西五十里	-11.8898
左僕射	-11.8899
富室	-11.8899
五言	-11.89
夜長	-11.89
匡廬	-11.8901
應募	-11.8902
宋紹興中	-11.8904
千餘頃	-11.8905
監督	-11.8906
青神	-11.8907
永固	-11.8907
縠	-11.8909
存亡	-11.8909
石臼	-11.891
唐刺史	-11.891
喪父	-11.891
綱紀	-11.8911
二等	-11.8911
三十二年任	-11.8911
部曲	-11.8912
在縣南四十里	-11.8913
水之陽	-11.8913
六十丈	-11.8913
汴州	-11.8913
六安	-11.8913
十有七	-11.8915
山海經曰	-11.8916
阿喇	-11.8917
感悟	-11.8918
鶴山	-11.8919
三國呉	-11.8919
一部	-11.892
其姑	-11.8923
之暇	-11.8923
飛昇	-11.8925
東隅	-11.8925
衞河	-11.8925
悠然	-11.8926
草塘	-11.8927
山又名	-11.8928
伐蜀	-11.8929
李君	-11.8929
大寕	-11.893
正大	-11.893
脅從	-11.8932
剗	-11.8934
六百四十	-11.8934
澱山湖	-11.8936
飈	-11.8937
寃獄	-11.8937
深三尺	-11.8937
葡萄	-11.8937
萬言	-11.8937
溪合	-11.8938
穏	-11.8939
鏊	-11.894
樓船	-11.8941
與我	-11.8942
山半有	-11.8942
名儒	-11.8942
西陽	-11.8943
輝縣	-11.8943
喬木	-11.8945
割屬	-11.8946
王朝	-11.8946
有大志	-11.8947
治民	-11.8947
賊勢	-11.8947
方廣	-11.8947
人嘉靖中	-11.8948
安危	-11.8949
之兄	-11.895
政教	-11.895
張伯	-11.8952
程鄉	-11.8953
便於	-11.8954
該道	-11.8954
文淵	-11.8954
縣西十里	-11.8955
防禦使	-11.8955
唐書地	-11.8956
嘉定中	-11.8958
函谷	-11.8959
懐逺人	-11.8959
熙寜	-11.8959
宛如	-11.896
每月	-11.896
無盡	-11.8961
之年	-11.8961
叅領	-11.8963
多盜	-11.8965
雲巖	-11.8966
環以	-11.8967
曰願	-11.8967
史記秦	-11.8968
後陞	-11.8968
以憂去	-11.8969
既無	-11.897
巍巍	-11.897
壖	-11.897
美人	-11.8971
漢光武	-11.8971
先生祠	-11.8971
疏論	-11.8971
篙	-11.8972
災傷	-11.8974
一笑	-11.8975
之冠	-11.8975
釋褐	-11.8975
之目	-11.8978
速行	-11.8978
死矣	-11.898
順治十	-11.8981
永久	-11.8981
之累	-11.8982
思齊	-11.8983
自知	-11.8985
祭告	-11.8987
時值	-11.8989
永壽	-11.899
廟中	-11.899
庭堅	-11.899
銅柱	-11.8991
引見	-11.8991
三十三年任	-11.8991
欽定	-11.8992
繼室	-11.8992
差官	-11.8995
二十七日	-11.8995
東光	-11.8996
授徒	-11.8996
一峰	-11.8996
解衣	-11.8996
句章	-11.8997
趙孟頫	-11.8998
拽	-11.8999
五十二年	-11.9
營葬	-11.9001
又南流	-11.9002
贛州	-11.9002
宵旰	-11.9003
士龍	-11.9003
璡	-11.9003
殃	-11.9004
而行之	-11.9004
澣	-11.9005
居敬	-11.9006
畿内	-11.9007
帶徵	-11.9007
利弊	-11.9008
凃	-11.9009
南北兩	-11.901
環慶	-11.901
之誤	-11.901
儋	-11.9011
其地有	-11.9011
三國吳	-11.9011
蕭何	-11.9012
長安城	-11.9014
二十三日	-11.9015
朝臣	-11.9016
亦必	-11.9016
殿内	-11.9017
告竣	-11.9018
知府張	-11.9019
追擊	-11.9022
絳縣	-11.9022
鳯翔府	-11.9022
長溪	-11.9022
特起	-11.9024
方今	-11.9024
昭帝	-11.9026
之誠	-11.9027
又南經	-11.9027
千乘	-11.9027
自投	-11.9028
秤	-11.9029
後拜	-11.9029
縣北四十里	-11.9029
横截	-11.9031
長洲縣	-11.9031
三輔黄圖	-11.9031
臨海縣	-11.9031
恭和御製	-11.9033
結茅	-11.9033
淂	-11.9034
舎人	-11.9035
安化縣	-11.9035
奉公	-11.9035
蒔	-11.9036
等六	-11.9036
雍正十	-11.9036
舊志在	-11.9036
寇亂	-11.9037
王羲之	-11.9037
東麓	-11.9038
沿途	-11.9039
徳政	-11.9039
䆒	-11.904
大悲	-11.904
縈紆	-11.904
五十卷	-11.904
焉故	-11.904
昭應	-11.9044
義寧	-11.9044
喜曰	-11.9046
六安人	-11.9047
西面	-11.9047
言官	-11.9047
諸賢	-11.9048
習俗	-11.9048
京山	-11.9048
累日	-11.905
秋成	-11.9053
汴水	-11.9053
海豐人	-11.9054
酌議	-11.9054
嶽廟	-11.9055
麻陽	-11.9056
長葛	-11.9057
呉人	-11.9057
莊子	-11.9057
五峰	-11.9058
張宗	-11.906
並為	-11.906
御河	-11.906
積弊	-11.906
有虎	-11.9061
仙觀	-11.9061
撈	-11.9061
之旁	-11.9062
祖師	-11.9063
無從	-11.9063
宜川	-11.9064
陳堯	-11.9065
闞駰	-11.9067
闉	-11.9067
聖王	-11.9068
舊屬	-11.9069
庫勒	-11.9069
方位	-11.9069
料理	-11.9072
天興	-11.9073
赤山	-11.9074
南蠻	-11.9074
國珍	-11.9075
具疏	-11.9075
既平	-11.9076
畏服	-11.9076
右丞相	-11.9077
也然則	-11.9077
留意	-11.9078
木橋	-11.9079
𤓰州	-11.9079
北對	-11.9082
平定人	-11.9082
殿中丞	-11.9082
以制	-11.9083
康樂	-11.9086
御極	-11.9086
本部	-11.9087
敬宗	-11.909
仭	-11.909
輿地志	-11.9091
南軒	-11.9092
元至元中	-11.9093
時雨	-11.9093
再加	-11.9093
帑金	-11.9093
參将	-11.9096
廣州府	-11.9096
積年	-11.9096
三百五十里	-11.9096
紉	-11.9097
端明殿學士	-11.9097
荆楚	-11.9098
不祥	-11.9098
礱	-11.9099
農事	-11.9099
湖塘	-11.91
畚	-11.91
倍於	-11.91
厮	-11.91
内府	-11.9101
乆矣	-11.9102
字思	-11.9102
撑	-11.9102
抒	-11.9102
進士及第	-11.9102
福清人	-11.9103
鐘聲	-11.9104
徙都	-11.9105
西望	-11.9105
重臣	-11.9106
琥	-11.9107
節省	-11.9107
不論	-11.9107
順治四年任	-11.9107
如削	-11.9108
淄川人	-11.9109
左馮翊	-11.911
受降城	-11.911
潁水	-11.911
寜州	-11.911
烏珠	-11.911
四十五年任	-11.9111
在縣治北	-11.9111
率所部	-11.9112
公車	-11.9112
兵科給事中	-11.9113
山川卷	-11.9113
舉秀才	-11.9113
在縣東南三十里	-11.9113
用力	-11.9115
康熙三十八年	-11.9115
千畝	-11.9117
赴援	-11.9118
九真	-11.9121
不齊	-11.9122
諸河	-11.9123
字原本	-11.9123
篤志	-11.9125
諱改	-11.9126
訟者	-11.9127
順治十五年	-11.9127
一駐本營	-11.9128
六十餘里	-11.9128
五釐	-11.913
忠厚	-11.9132
鎮志	-11.9132
歙州	-11.9132
中流矢	-11.9133
檝	-11.9134
聞於朝	-11.9134
誘之	-11.9134
二年復	-11.9136
退保	-11.9137
豢	-11.9138
彬彬	-11.9139
思敬	-11.9141
三層	-11.9141
蔬食	-11.9142
在兹	-11.9144
金湯	-11.9145
占曰	-11.9145
婁縣人	-11.9146
伊克	-11.9147
科給事中	-11.9147
以慰	-11.9148
挑浚	-11.9148
臣竊	-11.9148
師友	-11.9149
白樂天	-11.9151
淮海	-11.9151
趙家	-11.9152
天光	-11.9153
取水	-11.9153
乾隆二十四年	-11.9154
灤州	-11.9155
疏陳	-11.9155
起伏	-11.9155
稍遷	-11.9156
豁然	-11.9159
諸浦	-11.916
口外	-11.9161
康熙八年	-11.9162
六百一十	-11.9164
翼翼	-11.9164
江華	-11.9166
不登	-11.9167
新市	-11.9167
立廟祀之	-11.9168
揷	-11.917
神泉	-11.917
查明	-11.917
成就	-11.917
錢鏐	-11.917
政和間	-11.917
佔	-11.9171
年五十	-11.9171
大殿	-11.9172
澨	-11.9172
埏	-11.9172
之思	-11.9172
國語解見	-11.9172
璹	-11.9175
三十二里	-11.9178
其教	-11.9179
質直	-11.9179
必得	-11.918
釣魚	-11.918
招提	-11.9182
廣寜	-11.9182
困於	-11.9182
州界一百	-11.9183
自隨	-11.9185
曹娥	-11.9185
[...]
