<unk>	0
<s>	0
</s>	0
,	-2.26497
。	-2.84757
、	-3.39158
;	-4.56706
!	-4.7992
故	-5.09308
者	-5.09995
(	-5.14415
)	-5.15594
:「	-5.17672
?	-5.38424
。「	-5.45482
。」	-5.50102
▁	-5.68135
為	-5.69301
如是	-5.70496
若	-5.76782
以	-5.81334
於	-5.82178
不	-5.83399
世尊	-5.87868
心	-5.89247
爾時	-5.89589
之	-5.91645
是	-5.92173
有	-5.93025
行	-5.97378
無	-5.99535
一切	-6.00264
而	-6.01493
法	-6.02666
及	-6.04761
菩薩	-6.05233
言	-6.05897
善男子	-6.06953
時	-6.10785
眾生	-6.12792
如	-6.15597
得	-6.16007
如來	-6.16917
已	-6.2307
等	-6.23925
也	-6.27379
身	-6.27744
中	-6.29175
此	-6.30516
諸	-6.32119
彼	-6.32319
佛	-6.34123
我	-6.3434
生	-6.34739
人	-6.3633
其	-6.39833
見	-6.41399
乃至	-6.41904
二	-6.46753
.	-6.47171
一	-6.51353
相	-6.56004
名	-6.56006
即	-6.56942
所	-6.59343
:『	-6.6011
說	-6.62405
能	-6.6643
或	-6.66431
皆	-6.68919
亦	-6.7011
大	-6.70159
:	-6.70619
常	-6.73042
非	-6.75503
知	-6.76068
?」	-6.77494
欲	-6.77818
智	-6.78061
*	-6.81024
三	-6.83126
自	-6.83648
住	-6.84078
當	-6.85644
多	-6.86053
作	-6.86463
處	-6.86599
令	-6.87085
入	-6.8738
具足	-6.87418
清淨	-6.88071
則	-6.90931
受	-6.95001
天	-6.96889
樂	-6.9753
意	-6.97669
云何	-6.97778
無有	-6.98423
觀	-6.99943
悉	-7.00661
二者	-7.02376
無量	-7.03122
一者	-7.03296
善	-7.03334
眾	-7.0334
聲	-7.0381
與	-7.04375
語	-7.04983
修	-7.05372
。』	-7.05383
曰	-7.05598
念	-7.06198
四	-7.06267
淨	-7.06564
是名	-7.06755
復次	-7.06889
因	-7.07267
離	-7.07528
復	-7.08313
善哉	-7.10225
上	-7.11384
道	-7.12648
又	-7.12681
事	-7.13856
施	-7.15428
至	-7.16925
今	-7.17486
種種	-7.17643
盡	-7.1794
功德	-7.18367
汝	-7.18727
佛言	-7.2045
出	-7.20675
具	-7.2071
莊嚴	-7.20783
王	-7.2098
願	-7.21132
聞	-7.21732
何以故	-7.22021
成就	-7.22219
從	-7.22234
想	-7.22359
戒	-7.2238
應	-7.22761
智慧	-7.23567
起	-7.23648
經	-7.23797
力	-7.24279
業	-7.25294
色	-7.25882
苦	-7.28075
是故	-7.28322
云	-7.29639
求	-7.29658
供養	-7.29766
諸佛	-7.29801
一切眾生	-7.30676
慧	-7.3088
三昧	-7.31025
地	-7.32321
惡	-7.32574
捨	-7.32868
在	-7.33264
所謂	-7.33407
空	-7.33584
解脫	-7.3362
滅	-7.33851
若有	-7.34223
謂	-7.34492
識	-7.36069
因緣	-7.36184
義	-7.39232
成	-7.39466
性	-7.40253
隨	-7.41333
白佛言	-7.41345
精進	-7.41655
定	-7.4256
菩薩摩訶薩	-7.42643
所有	-7.42702
五	-7.44052
現	-7.4502
下	-7.46916
方便	-7.47059
世間	-7.51208
持	-7.51548
來	-7.51755
正	-7.51896
平等	-7.52119
亦復如是	-7.52458
寶	-7.52543
不能	-7.52874
勝	-7.54694
耶	-7.54763
——	-7.55082
明	-7.56145
聲聞	-7.56732
三者	-7.56782
界	-7.57288
信	-7.57841
煩惱	-7.5825
遠離	-7.58893
本	-7.61067
國	-7.61201
取	-7.61308
八	-7.61356
分別	-7.61786
忍	-7.63022
然	-7.634
前	-7.64455
門	-7.64878
我今	-7.65478
水	-7.65664
諸法	-7.65975
生死	-7.66427
亦不	-7.6646
六	-7.66709
。】「	-7.66911
龍	-7.67803
解	-7.68286
世	-7.68496
報	-7.68528
難	-7.68725
我等	-7.69311
他	-7.69386
果	-7.70015
同	-7.70384
雖	-7.71318
阿	-7.7174
斷	-7.72542
緣	-7.72762
。」【	-7.72981
七	-7.73063
可	-7.73316
問	-7.7377
善根	-7.73799
句	-7.74064
光	-7.75034
使	-7.76077
既	-7.76534
。△	-7.77423
罪	-7.78058
增長	-7.78743
光明	-7.78998
修行	-7.7926
皆悉	-7.79664
是為	-7.79773
斯	-7.79822
乃	-7.79864
初	-7.79906
夜叉	-7.79987
十	-7.80143
思惟	-7.80784
不生	-7.81126
眼	-7.81788
是人	-7.8267
用	-7.83035
分	-7.83035
利	-7.83312
唯	-7.83392
依	-7.83574
由	-7.8403
教	-7.84122
比丘	-7.84195
轉	-7.84244
過	-7.84328
於彼	-7.84457
德	-7.853
婆	-7.85579
俱	-7.85597
矣	-7.85948
佛法	-7.86553
食	-7.86726
便	-7.86882
菩提	-7.86901
耳	-7.87558
後	-7.87821
口	-7.88172
亦無	-7.88494
滿	-7.88918
》	-7.8914
各	-7.8942
所以者何	-7.89707
譬如	-7.8999
神通	-7.90306
除	-7.90406
不得	-7.90472
發	-7.90491
根	-7.90963
那	-7.91572
復有	-7.9176
猶如	-7.92735
無所	-7.932
數	-7.93911
四者	-7.94903
何	-7.94944
化	-7.95073
地獄	-7.95115
正法	-7.95223
共	-7.95945
羅	-7.96166
福	-7.96184
布施	-7.96251
說法	-7.9627
大乘	-7.96365
妙	-7.97538
不見	-7.97797
即是	-7.97924
壞	-7.98072
虛空	-7.98112
護	-7.98146
廣	-7.98635
覺	-7.99075
火	-7.99874
巳	-8.00016
實	-8.0015
深	-8.00388
法界	-8.00696
舍利弗	-8.00834
真實	-8.01649
種	-8.02172
眷屬	-8.02198
於此	-8.02272
華	-8.02309
死	-8.02344
度	-8.02719
諸天	-8.03125
賢護	-8.03405
乎	-8.0343
普	-8.0355
未	-8.03875
子	-8.04379
摩	-8.05101
命	-8.05293
去	-8.05353
最勝	-8.05364
著	-8.05639
世界	-8.05672
音	-8.06948
自在	-8.07036
所攝	-8.0705
觀察	-8.07301
九	-8.08449
但	-8.08571
名為	-8.08574
一切法	-8.09221
汝等	-8.09673
尊	-8.09676
物	-8.0996
內	-8.10355
諸菩薩	-8.1107
貪	-8.11086
利益	-8.112
涅槃	-8.11327
示	-8.11577
反	-8.11754
不空見	-8.11812
證	-8.12296
日	-8.12955
先	-8.13408
集	-8.13513
辯	-8.13713
是時	-8.13927
受持	-8.13982
獲	-8.14283
境界	-8.14292
造	-8.14822
真	-8.1541
之所	-8.15519
向	-8.15615
主	-8.16021
自然	-8.16184
龍王	-8.16279
學	-8.16796
神	-8.16813
十方	-8.16976
合	-8.17257
寂靜	-8.17651
失	-8.17741
劫	-8.17954
觸	-8.18403
安住	-8.18409
愛	-8.18503
師	-8.18685
迦	-8.18988
安	-8.19081
不可思議	-8.19089
過去	-8.19218
雨	-8.19324
大悲	-8.19433
重	-8.19501
無盡	-8.19904
阿修羅	-8.2046
持戒	-8.20774
好	-8.2135
名曰	-8.21847
歡喜	-8.22379
阿難	-8.2268
必	-8.22861
作如是言	-8.22942
悉皆	-8.23088
聖	-8.23108
如是等	-8.23381
趣	-8.23572
國土	-8.23661
像	-8.23741
沙門	-8.24121
山	-8.24258
不可	-8.24408
往	-8.24412
第一	-8.24937
輪	-8.2545
一切諸法	-8.25537
忍辱	-8.25688
無明	-8.25765
香	-8.25847
還	-8.26389
白	-8.2646
其心	-8.26604
少	-8.2667
餘	-8.26704
次名	-8.27007
思	-8.27254
僧	-8.27888
及以	-8.28001
若有眾生	-8.28473
外	-8.2851
喜	-8.28585
流	-8.28915
又復	-8.28984
魔	-8.29166
發心	-8.29474
陀	-8.29657
微妙	-8.29829
無上	-8.30219
無我	-8.30336
調伏	-8.3105
結	-8.31187
無礙	-8.31961
習	-8.32286
破	-8.32418
讀誦	-8.32488
以此	-8.3269
不知	-8.3277
稱	-8.32781
更	-8.3302
禪定	-8.3367
致	-8.33974
恒	-8.33976
若能	-8.34044
修集	-8.34132
小	-8.34211
形	-8.34337
攝	-8.34493
猶	-8.34725
恭敬	-8.35083
無相	-8.35138
極	-8.35288
風	-8.35343
亦復	-8.35534
禪	-8.35962
飲食	-8.35965
速	-8.36139
聽	-8.36434
無邊	-8.3663
示現	-8.36794
異	-8.37044
現在	-8.37136
不為	-8.37209
動	-8.37282
慈	-8.37389
而不	-8.37638
通	-8.37806
立	-8.37883
於諸	-8.37914
辯才	-8.37922
堅固	-8.37999
所作	-8.39137
三界	-8.39573
所說	-8.39642
乘	-8.39944
之法	-8.40252
護持	-8.40531
能令	-8.40583
或有	-8.40621
百	-8.40736
別	-8.40858
順	-8.41141
引	-8.41143
病	-8.41427
寶女	-8.4199
陀羅尼	-8.42001
癡	-8.4204
大眾	-8.42216
囉	-8.42237
!」	-8.42255
一心	-8.42565
梵天	-8.42791
達	-8.42965
到	-8.43056
婆羅門	-8.43574
終不	-8.43629
不捨	-8.43825
及諸	-8.44151
究竟	-8.44551
畢竟	-8.44945
大王	-8.45103
出家	-8.45217
足	-8.45293
無常	-8.45637
藏	-8.45854
了	-8.46364
各各	-8.46544
散	-8.46554
方	-8.46593
味	-8.46813
滿足	-8.47083
遍	-8.47193
設	-8.47301
其身	-8.4736
?』	-8.47614
緣覺	-8.47714
品	-8.47844
諸眾生	-8.47947
瞋恚	-8.48377
坐	-8.48459
十二	-8.48523
邊	-8.48525
善法	-8.48528
邪	-8.48739
宣說	-8.49261
夜	-8.49445
愚癡	-8.49554
我當	-8.49774
闍	-8.49794
復有一法	-8.49965
歸	-8.50324
瞋	-8.50742
女	-8.51383
何謂	-8.51387
族姓子	-8.51391
印	-8.51519
鬼	-8.51613
顯	-8.52058
一一	-8.52074
莫	-8.52272
修習	-8.52458
大德	-8.5256
未來	-8.52968
體	-8.52982
將	-8.53041
海	-8.53098
有情	-8.53195
以是因緣	-8.53217
海意	-8.53259
之心	-8.53325
答	-8.53393
樹	-8.53549
不著	-8.53836
亦如是	-8.53935
應供	-8.54471
父母	-8.55099
衣服	-8.5512
如此	-8.55356
智者	-8.55376
破壞	-8.55451
惡業	-8.55663
法門	-8.55735
福德	-8.55739
於是	-8.56016
毘	-8.56089
隨順	-8.56107
甚深	-8.56144
咸	-8.56422
目	-8.56431
不思議	-8.56476
果報	-8.56486
。」「	-8.56492
餓鬼	-8.5653
邪見	-8.56634
師子	-8.56654
呵	-8.56999
音聲	-8.57125
地藏	-8.57164
告	-8.57165
乾闥婆	-8.5722
被	-8.57604
文	-8.57699
《	-8.57701
遮	-8.5818
家	-8.58614
增	-8.58663
讚	-8.58715
提	-8.59277
金	-8.59465
奉	-8.59528
無生	-8.59578
憍陳如	-8.60136
衣	-8.60292
以是	-8.60367
遠	-8.60521
器	-8.6063
墮	-8.60657
經云	-8.60694
和合	-8.60702
脫	-8.61052
中有習	-8.61283
讚歎	-8.61616
諸惡	-8.61665
障	-8.61831
安樂	-8.62012
帝	-8.62035
當知	-8.62069
菩薩言	-8.62333
。』「	-8.62426
奢利弗	-8.62508
。○	-8.62864
建立	-8.62874
母	-8.6295
守護	-8.63132
尼	-8.63427
大士	-8.63437
付囑	-8.63461
月	-8.63634
二合	-8.63816
迷	-8.63819
志	-8.63847
若有菩薩	-8.64191
開	-8.64231
所行	-8.64673
號	-8.6471
不動	-8.64999
萬	-8.65108
佛告	-8.65478
總持	-8.65488
獲得	-8.65498
伽	-8.65611
頭	-8.65813
答言	-8.65859
土	-8.66014
長	-8.66104
論	-8.66148
決定	-8.66185
奮迅王	-8.66291
是菩薩	-8.66458
魔王	-8.6659
無為	-8.66659
壽命	-8.66765
須	-8.66837
己	-8.669
諸根	-8.6738
威儀	-8.67599
應當	-8.67708
昔	-8.67754
慈悲	-8.67833
身心	-8.67848
吾	-8.67899
高	-8.68712
手	-8.68858
花	-8.68917
不可說	-8.69074
遊	-8.69389
善女人	-8.69553
毒	-8.69762
五者	-8.69938
廣大	-8.70009
何況	-8.70015
陰	-8.70122
字	-8.70211
釋	-8.70411
千	-8.70522
比	-8.70674
了知	-8.71012
叉	-8.71082
則為	-8.71284
住於	-8.71291
四大	-8.71361
親	-8.71481
百千	-8.71651
曉了	-8.71817
不住	-8.72203
令其	-8.72814
理	-8.72825
緊那羅	-8.72957
覩	-8.73507
諦	-8.73521
天人	-8.73755
甚	-8.73755
波	-8.73797
名之為	-8.73958
境	-8.74048
剎利	-8.74249
不依	-8.7431
不念	-8.74399
最上	-8.74412
聚	-8.74445
擁護	-8.74526
至心	-8.74586
若人	-8.74739
相應	-8.74743
久	-8.75128
親近	-8.75132
無量無邊	-8.75255
三寶	-8.75376
見佛	-8.75529
鬼神	-8.75666
計	-8.75922
歸依	-8.7596
汝今	-8.75968
無數	-8.76004
勿	-8.76111
位	-8.76115
指	-8.76305
多聞	-8.76402
云何當得	-8.7665
彼佛	-8.76962
十六	-8.76966
藥	-8.77005
梵	-8.7709
興	-8.77341
鼻	-8.77348
會	-8.77487
顛倒	-8.7753
畜生	-8.7756
城	-8.77645
之事	-8.77647
一切諸	-8.77838
爾	-8.77899
中有五陰	-8.7802
不淨	-8.78179
居	-8.78234
加	-8.78235
無畏	-8.78267
泥	-8.78327
敬	-8.78645
如虛空	-8.78774
彼人	-8.78908
際	-8.79005
惱	-8.79042
寂滅	-8.79121
人天	-8.79277
塵	-8.79539
諸仁者	-8.79595
終	-8.7976
十一	-8.79845
亦爾	-8.80263
即得	-8.8059
怖畏	-8.80747
復有二法	-8.80794
疑	-8.80892
是名菩薩	-8.81043
悲	-8.81179
諸有	-8.81207
進	-8.81378
十三	-8.81791
害	-8.81819
舍	-8.82394
執	-8.82427
菩提心	-8.82436
不離	-8.82636
照	-8.82786
置	-8.82838
不以	-8.82907
圓滿	-8.8307
為諸眾生	-8.83475
▁南無	-8.83968
不取	-8.84065
三世	-8.84131
法性	-8.84149
夫	-8.84271
三乘	-8.84446
不壞	-8.84491
悉能	-8.8458
屬	-8.847
要	-8.8546
類	-8.85664
益	-8.85737
比丘尼	-8.85805
六者	-8.8604
虛空藏菩薩	-8.86071
正見	-8.86317
於法	-8.86428
遇	-8.86855
其人	-8.86986
蓮華	-8.87075
舉	-8.87147
發阿耨多羅三藐三菩提心	-8.87298
七者	-8.87392
當來	-8.87528
不應	-8.87783
而說偈言	-8.87807
時彼	-8.87834
憍慢	-8.88058
近	-8.88309
行者	-8.88309
金剛	-8.88337
圓	-8.8842
轉入	-8.88453
波旬	-8.88503
一切諸佛	-8.88631
安隱	-8.88853
為欲	-8.88925
欲得	-8.89104
娑	-8.8919
於我	-8.8932
懺悔	-8.89604
量	-8.89636
希有	-8.89814
或復	-8.8989
彌	-8.90006
無漏	-8.90253
成熟	-8.9028
而能	-8.90379
離於	-8.90472
於諸眾生	-8.90675
棄	-8.90752
勸	-8.90877
令彼	-8.90911
視	-8.91006
二十	-8.91177
未曾	-8.91188
供	-8.91259
何等	-8.91319
彼等	-8.9135
然後	-8.91391
沙	-8.91561
燒	-8.91825
等正覺	-8.92
次	-8.92134
縛	-8.92416
于	-8.92626
善逝	-8.92682
十八	-8.92688
請	-8.92759
河	-8.93002
之人	-8.93012
退	-8.9305
次第	-8.93173
熱	-8.9335
天女	-8.93429
離諸	-8.93433
疾	-8.93467
憶念	-8.9348
禮	-8.93599
云何菩薩	-8.94037
教化	-8.94048
依止	-8.94189
辟支佛	-8.94224
正覺	-8.94435
懷	-8.94459
并	-8.94505
不起	-8.94544
羅剎	-8.94581
若欲	-8.94672
財	-8.94966
察	-8.95091
路	-8.95129
之中	-8.95147
諸煩惱	-8.95242
息	-8.9529
長者	-8.95416
入於	-8.95485
獨	-8.95537
變	-8.95658
假使	-8.95772
三千大千世界	-8.96112
力故	-8.96623
無不	-8.96681
何故	-8.96749
於一切	-8.9701
皆得	-8.9701
慢	-8.97017
經典	-8.97072
破戒	-8.97282
能知	-8.97561
犯	-8.97585
苦惱	-8.97591
正遍知	-8.97906
不樂	-8.98025
?」「	-8.98139
聞已	-8.98289
而為說法	-8.98389
宣	-8.98393
一切智	-8.98505
不善	-8.98548
都	-8.98557
無能	-8.98588
頌	-8.98681
優婆塞	-8.98729
慈心	-8.99353
八者	-8.99439
演說	-8.99711
無垢	-8.99848
天子	-8.9995
止	-8.99953
當得	-9.00067
永	-9.00143
以為	-9.00211
大方等大集經	-9.00315
善惡	-9.00383
首	-9.00462
釋迦如來	-9.0054
象	-9.00708
非法	-9.00762
十五	-9.00901
文字	-9.01343
大慈	-9.01649
逮	-9.01839
大海	-9.02118
若不	-9.02164
由此	-9.02217
故名	-9.02255
宜	-9.02308
出世	-9.02337
熾然	-9.02378
勇猛	-9.02583
寂	-9.02613
於一切法	-9.02966
是為菩薩	-9.02978
即便	-9.02986
復有三法	-9.02995
尋	-9.03219
不可得	-9.03389
此經	-9.03453
始	-9.03747
不失	-9.03856
七寶	-9.03903
而為	-9.04254
假	-9.04255
)(	-9.04317
治	-9.04422
欲界	-9.04733
凡	-9.04889
之處	-9.04977
梨	-9.05144
惑	-9.05554
不退	-9.05583
念佛	-9.05906
堅	-9.05985
鳩槃茶	-9.06065
三種	-9.06144
護持正法	-9.0629
無願	-9.06517
吉祥	-9.06571
世尊告	-9.06604
是法	-9.06831
諦聽	-9.06871
況	-9.07049
億	-9.07065
貪欲	-9.07107
不求	-9.07149
對	-9.07187
誹謗	-9.07197
如法	-9.07324
是名為	-9.07826
若無	-9.07841
:「『	-9.07971
十四	-9.07998
面	-9.08123
獄	-9.08138
一念	-9.08203
作是言	-9.08372
▁初	-9.08439
覆	-9.08488
勤	-9.08592
瓔珞	-9.08594
亦非	-9.08648
此是	-9.0934
一曰	-9.09342
易	-9.09523
自在王	-9.09713
表	-9.09721
年	-9.09733
諸龍	-9.09926
自身	-9.1008
或作	-9.10097
聽受	-9.10295
底	-9.10333
放	-9.10345
喻	-9.10484
男女	-9.10592
合掌	-9.10606
聲聞乘	-9.10773
輕	-9.11038
智本	-9.11231
所生	-9.11305
鉢	-9.11408
。「『	-9.1185
諸魔	-9.12058
有一	-9.12071
則能	-9.12109
有所	-9.12257
阿羅漢	-9.123
三十	-9.12537
福田	-9.12959
􂚲	-9.12996
諸法無	-9.13084
二曰	-9.13228
之業	-9.13303
是也	-9.1334
宿	-9.13373
亂	-9.13403
一切世間	-9.13461
畏	-9.13486
懈怠	-9.13499
放逸	-9.13539
雲	-9.13594
誼	-9.13707
不作	-9.13776
悉得	-9.13832
棄捨	-9.13931
誰	-9.14152
染	-9.14397
氣	-9.14602
佛土	-9.14798
空中	-9.14825
凡夫	-9.14975
獨覺	-9.14996
嚴	-9.15073
和	-9.15104
妙法	-9.15142
憂	-9.15181
所以	-9.15817
障礙	-9.15835
大臣	-9.15862
八萬四千	-9.15931
隷	-9.15967
感	-9.15993
人民	-9.16004
虛空藏	-9.16021
發菩提心	-9.16082
摩睺羅伽	-9.16299
捨離	-9.16338
為說	-9.16406
己身	-9.1646
於佛	-9.16528
優婆夷	-9.16725
唯然	-9.16752
受苦	-9.16772
不復	-9.16784
記	-9.16798
邏	-9.16914
壽	-9.16964
不可盡	-9.1697
得聞	-9.17105
廣說	-9.17143
受用	-9.17216
亦能	-9.17358
住處	-9.17364
末	-9.17507
之行	-9.17514
聽法	-9.1755
慚愧	-9.17774
愛樂	-9.17882
無作	-9.17997
隨喜	-9.18224
呿	-9.18432
威德	-9.18503
佛所	-9.18553
痛	-9.18568
書寫	-9.18589
日月	-9.18715
直	-9.19126
勤修	-9.19211
沒	-9.19296
宮	-9.19371
因緣故	-9.1942
安置	-9.19677
無量眾生	-9.19909
般若	-9.19919
諸佛世尊	-9.20116
如彼	-9.20315
女人	-9.20353
生於	-9.20395
誦	-9.20507
情	-9.20613
導師	-9.20803
最	-9.2099
我見	-9.2115
內外	-9.21191
造作	-9.21328
闇	-9.21428
休息	-9.21589
怨	-9.21628
不斷	-9.21816
一切善法	-9.22056
毀	-9.22063
摩訶	-9.22182
不與	-9.2238
外道	-9.22391
帝釋	-9.2243
寂然	-9.22684
佉	-9.22775
令得	-9.22966
隨意	-9.23061
無二	-9.23097
諸行	-9.23193
法身	-9.23229
作是念	-9.23385
伏	-9.23576
天人師	-9.23595
殺	-9.23609
常行	-9.23638
生滅	-9.23724
於其	-9.23804
得阿耨多羅三藐三菩提	-9.24162
法者	-9.24374
薩	-9.24444
尊重	-9.24619
詣	-9.24642
遠離一切	-9.24661
忽	-9.24691
復有四法	-9.24777
精勤	-9.2483
寧	-9.24975
」	-9.24982
若於	-9.25
不也	-9.25135
知識	-9.2518
亦如	-9.25242
攝受	-9.25431
迦樓羅	-9.25464
兩	-9.2547
童子	-9.2553
演	-9.25546
若菩薩	-9.25617
則得	-9.25767
而生	-9.25776
善能	-9.25791
雖復	-9.25799
車	-9.26066
今日	-9.26096
迴向	-9.26179
一切有情	-9.26363
三十二	-9.2657
法師	-9.26636
超	-9.26644
此人	-9.26705
頂	-9.26827
「	-9.26855
無所有	-9.26899
守	-9.26936
富	-9.26953
娑婆世界	-9.27007
隨其	-9.2709
神足	-9.2722
差別	-9.2729
三曰	-9.27343
瞿曇	-9.27371
唯願	-9.27435
隸	-9.2748
漏	-9.2759
賢聖	-9.27591
十七	-9.276
大地	-9.27635
梵行	-9.27642
皆是	-9.2766
度脫	-9.27689
者即是	-9.27726
定意	-9.27766
閻浮提	-9.2779
他人	-9.27847
至誠	-9.27901
竟	-9.27909
名字	-9.27954
曾	-9.28018
此法	-9.2803
十方諸佛	-9.28031
出生	-9.28162
塵勞	-9.28349
如是奢利弗	-9.28349
備	-9.28426
畢	-9.28494
無間	-9.28625
雜	-9.28746
〈	-9.28842
怖	-9.28886
魔業	-9.28902
如實	-9.29026
十九	-9.29213
拔	-9.29269
乃能	-9.29286
不同	-9.29331
知一切法	-9.29461
蛇	-9.29706
滅度	-9.29738
盛	-9.29752
辭	-9.29759
言辭	-9.29819
五陰	-9.29842
根本	-9.2986
十力	-9.3023
現前	-9.30394
神力	-9.30708
之時	-9.30871
端正	-9.30958
正念	-9.30976
絕	-9.31048
般若波羅蜜	-9.31143
四天下	-9.3129
一時	-9.3134
不信	-9.31614
有人	-9.31749
而得	-9.31873
葢	-9.31991
及餘	-9.3203
命終	-9.32064
二十五	-9.3209
具足故	-9.32104
自性	-9.3218
觀於	-9.32217
令我	-9.3224
其所	-9.32271
法中	-9.32306
若見	-9.32364
冥	-9.32394
九者	-9.32488
嫉妬	-9.32526
鬪諍	-9.32533
心不	-9.32618
一切聲聞	-9.32621
間	-9.32656
授	-9.32657
五百	-9.32679
善友	-9.32758
第一義	-9.32795
周	-9.32815
發起	-9.32871
彼岸	-9.32871
大德婆伽婆	-9.33018
百億	-9.3305
能得	-9.33101
欲令	-9.33224
即時	-9.33284
所可	-9.33374
罪人	-9.33503
知見	-9.33595
譬	-9.33684
婆婆	-9.33754
毘舍	-9.33774
鞞	-9.33828
穢	-9.33884
語言	-9.33907
不久	-9.34074
惡心	-9.34078
令諸眾生	-9.3415
不退轉	-9.34201
垢	-9.34301
因果	-9.34304
四種	-9.34432
何等為四	-9.34441
妄語	-9.34547
一切皆	-9.34734
地藏菩薩	-9.34858
護持養育	-9.349
如幻	-9.34941
成佛	-9.34984
弟子	-9.35178
彌勒	-9.35313
顯示	-9.35399
心行	-9.35642
通達	-9.35952
老	-9.35996
無極	-9.36054
歎	-9.3609
欲求	-9.36099
禁戒	-9.36178
信解	-9.36208
珠	-9.36462
石	-9.36562
劫中	-9.36675
亦然	-9.36677
所見	-9.36745
或為	-9.36748
所願	-9.36879
常樂	-9.37107
恩	-9.37172
豈	-9.3746
合掌向佛	-9.37492
法故	-9.37601
牟尼	-9.37633
善知識	-9.38104
如斯	-9.38131
惡道	-9.3815
猶如虛空	-9.38189
亦當	-9.38234
服	-9.38283
積	-9.38345
二十四	-9.38419
座	-9.3859
得見	-9.38757
一切勇	-9.38786
舌	-9.39001
無想	-9.39184
柔軟	-9.39208
奉行	-9.39217
準	-9.39236
四曰	-9.39278
救	-9.39453
大集	-9.39528
色相	-9.39587
十方世界	-9.3964
若我	-9.3975
从	-9.3977
毘夜也	-9.39793
聖人	-9.39841
其有	-9.39975
南	-9.4001
有為	-9.40022
說此	-9.40053
一切大眾	-9.40136
而住	-9.4016
而有	-9.40168
哆	-9.40295
不令	-9.40401
銕	-9.4065
一切佛法	-9.40756
夢	-9.40932
信心	-9.40938
開示	-9.40968
磨	-9.41074
而作	-9.41139
彼諸眾生	-9.41234
平	-9.41258
變化	-9.41273
尚	-9.41366
之相	-9.41424
制	-9.41442
厭	-9.4146
不行	-9.41606
攝取	-9.41666
勢力	-9.41701
之力	-9.41711
汝當	-9.41813
天眼	-9.41902
譬如有人	-9.41918
佛及	-9.41981
見已	-9.41999
有三昧名曰	-9.4202
是經	-9.42178
法行	-9.42198
頂禮佛足	-9.4229
善知	-9.42468
悟	-9.42546
慳貪	-9.42581
何謂為	-9.42613
。《	-9.42641
八十	-9.42694
剎	-9.42719
差	-9.42783
五欲	-9.42863
丈夫	-9.42911
一人	-9.42988
流轉	-9.43085
大仙	-9.43192
我所	-9.43393
能生	-9.43426
調	-9.4343
善業	-9.43455
。」《	-9.43457
十者	-9.43474
城邑	-9.43496
唯願世尊	-9.43527
第三	-9.4359
輩	-9.43639
珍寶	-9.43659
青	-9.43909
趣向	-9.43946
百眷屬	-9.43949
誓	-9.44048
蒙	-9.44053
眾寶	-9.44098
憐愍	-9.44099
云何名為	-9.4421
亦名	-9.44251
威神	-9.44258
▁「	-9.44667
佛剎	-9.44687
。』」「	-9.44702
心無	-9.44708
有定名	-9.44762
常當	-9.44763
我身	-9.44815
略	-9.44901
四方	-9.45046
惟	-9.4505
諸如來	-9.45224
如是之人	-9.45336
無異	-9.45392
吒	-9.45401
諸有情	-9.45452
宮殿	-9.45476
得解脫	-9.45491
此云	-9.45574
二十一	-9.45596
我亦	-9.45621
所得	-9.4566
牛	-9.45714
甘露	-9.45927
二十八	-9.45976
馬	-9.46076
蘇	-9.46089
若干	-9.46092
是三昧	-9.46166
是為魔業	-9.4621
如前	-9.46306
節	-9.46336
佛道	-9.46398
呪	-9.46716
滅盡	-9.46819
違	-9.46977
田	-9.4704
妄	-9.47135
何等為十	-9.4715
種子	-9.4716
翻	-9.47181
今此	-9.47246
常念	-9.47342
密	-9.47345
赤	-9.47392
登	-9.47426
聞法	-9.47454
而不可盡	-9.47474
惡趣	-9.47598
婆羅門等	-9.47673
淨戒	-9.47689
網	-9.47875
相續	-9.47941
臥具	-9.48003
無色	-9.48048
勿念	-9.48136
無住	-9.48183
國王	-9.48187
骨	-9.48216
斷除	-9.48364
充滿	-9.48502
容	-9.48521
首陀	-9.48542
此三昧	-9.48554
繫縛	-9.4859
荼	-9.48606
曉	-9.48642
有諸眾生	-9.48733
黑	-9.48811
消滅	-9.4884
二十三	-9.4909
俗	-9.49336
得菩提	-9.49349
答曰	-9.49382
東方	-9.49439
書	-9.49523
承	-9.49546
皆令	-9.49742
及與	-9.49765
法眼	-9.49879
相好	-9.49894
大慈大悲	-9.49913
跋	-9.49925
元	-9.49983
生天	-9.50066
誓願	-9.50095
却伽	-9.50172
似	-9.50198
非是	-9.50231
第二	-9.50533
消	-9.50617
五百眷屬	-9.50698
機	-9.50739
檀	-9.50741
即能	-9.50757
眾中	-9.50794
禮拜	-9.50932
從座而起	-9.51079
說是法時	-9.51111
無上士	-9.51157
泥洹	-9.51186
微	-9.51268
覺觀	-9.51624
善思惟	-9.5177
鬼王	-9.51785
為令	-9.51796
云何為	-9.51842
無障礙	-9.52053
無所著	-9.5214
仙人	-9.52168
修學	-9.52202
約	-9.52294
不忘	-9.52474
無著	-9.5253
強	-9.52687
藥上	-9.52715
悔	-9.52768
幢	-9.5284
婆羅	-9.52841
大哀	-9.52853
隨時	-9.53117
常為	-9.5315
真如	-9.53207
降	-9.53323
適	-9.53362
所言	-9.53403
二十二	-9.53501
諸菩薩等	-9.53518
所修	-9.53617
不共法	-9.53625
能以	-9.5375
旃荼羅	-9.53818
眾人	-9.5386
後世	-9.53903
施與	-9.54011
華果	-9.54023
正道	-9.54037
如空	-9.54172
遣	-9.54252
哀	-9.54331
殊勝	-9.54342
北方	-9.54399
不受	-9.5441
二十六	-9.54626
大智	-9.54658
菩薩行	-9.54663
悉令	-9.54744
交	-9.54757
而得調伏	-9.54787
無厭	-9.54866
離欲	-9.54957
佛身	-9.55171
葉	-9.55321
而無	-9.55337
彼菩薩	-9.55342
幻	-9.55403
諸善男子	-9.55637
清淨故	-9.55801
響	-9.55838
功	-9.55871
律	-9.55898
惱亂	-9.55951
諸菩薩眾	-9.56127
承事	-9.56266
降伏	-9.56314
心常	-9.56505
大聖	-9.56601
本願	-9.56637
支	-9.56706
積集	-9.56714
阿耨多羅三藐三菩提	-9.56752
縱	-9.56807
誠	-9.56858
世間解	-9.56874
正行	-9.56895
若諸有情	-9.56969
漸	-9.57021
有二	-9.57205
六入	-9.57333
亦令	-9.57448
仁	-9.57702
尊者	-9.57748
無言菩薩	-9.5788
調御丈夫	-9.5796
三藐三佛陀	-9.57974
阿羅訶	-9.57989
復以	-9.58062
履	-9.58096
男	-9.58101
遂	-9.58153
西	-9.58199
勤求	-9.58206
今者	-9.58214
蓋	-9.58379
在於	-9.58385
梵王	-9.58421
覩見	-9.58479
化作	-9.58523
歲	-9.5859
父	-9.58634
教化眾生	-9.58644
眾會	-9.58735
如是菩薩	-9.58752
我以	-9.58795
非人等	-9.58995
辟支佛乘	-9.59076
讀	-9.59127
恚	-9.59287
無餘	-9.5934
勇健	-9.59363
移	-9.59411
美	-9.59489
各有	-9.59525
不墮	-9.59572
愍	-9.59574
每	-9.59593
大梵	-9.59683
稱讚	-9.59888
星	-9.60001
地藏菩薩摩訶薩	-9.60005
若復	-9.60129
仰	-9.60338
多有	-9.60377
可得	-9.60409
林	-9.60441
無分別	-9.60531
四天王	-9.60781
十二因緣	-9.60831
明行足	-9.60834
勤行精進	-9.60947
我於	-9.60957
救濟	-9.60962
所聞	-9.61186
減	-9.61267
皆由	-9.61305
顯現	-9.61363
佛說	-9.61364
故曰	-9.61384
往昔	-9.61565
諸眾生故	-9.61577
精	-9.61619
照明	-9.61743
悅	-9.61994
聖慧	-9.62019
毘舍遮	-9.6216
吉	-9.62232
髮	-9.62309
普勇	-9.62327
是諸眾生	-9.62453
浮	-9.62477
復有二法難作	-9.62488
就	-9.6251
虛	-9.62569
賢	-9.62627
合掌恭敬	-9.62767
天王	-9.62814
是謂	-9.62878
賊	-9.63018
是中	-9.6302
而作是言	-9.63145
流布	-9.63198
颰陀和	-9.63214
增上	-9.63371
人中	-9.63389
常住	-9.63417
菩提道	-9.63583
其意	-9.63693
大虛空藏菩薩	-9.637
肉	-9.63704
一法	-9.63923
諸聲聞	-9.63973
六波羅蜜	-9.64093
之身	-9.64145
二十九	-9.64155
句義	-9.64211
而白佛言	-9.64276
歷	-9.64292
不滅	-9.64319
為諸	-9.64421
無言	-9.64588
是諸	-9.64664
之言	-9.64723
緣覺乘	-9.64855
菩薩如是	-9.6496
其中	-9.65005
亡	-9.65091
能作	-9.65092
頂禮	-9.65104
西方	-9.65125
心生	-9.65199
銀	-9.65251
聚落	-9.65339
如來至真	-9.65346
二乘	-9.65364
授記	-9.6538
不分別	-9.65384
衰	-9.65417
貧窮	-9.65424
復有二法多作	-9.65496
修習靜慮	-9.65505
飲	-9.65524
財物	-9.65557
於一切眾生	-9.65573
一劫	-9.6564
三業	-9.65671
是等	-9.65673
長老阿難	-9.65724
苦行	-9.65749
饒益	-9.65786
二十七	-9.65787
成熟眾生	-9.65828
色界	-9.65897
修於	-9.6597
慕	-9.66056
燈	-9.66125
純	-9.66309
知足	-9.66427
仙	-9.66552
諸善根	-9.66569
遍滿	-9.66725
逮得	-9.66805
驚怖	-9.66842
事業	-9.66868
七日	-9.67283
仁者	-9.67317
暫	-9.67317
四諦	-9.67327
無上菩提	-9.67401
亦不可盡	-9.67527
?「	-9.67592
名稱	-9.67673
復白佛言	-9.67754
虛妄	-9.67826
清	-9.6785
即說呪曰	-9.67861
希	-9.67879
隨所	-9.6794
熟	-9.68009
決	-9.68014
污	-9.68041
刀	-9.68077
相故	-9.68103
婬	-9.68156
不貪	-9.68164
喜樂	-9.68164
存	-9.68223
烏	-9.68294
總	-9.68357
患	-9.68382
如是眾生	-9.68393
飢饉	-9.68427
富單那	-9.68457
一切菩薩	-9.68482
獸	-9.68508
名色	-9.68512
南方	-9.68579
亦復然	-9.68621
勝妙	-9.68642
此陀羅尼	-9.68665
已得	-9.68684
且	-9.6873
為眾生	-9.68759
無行	-9.68894
眾苦	-9.69054
毛	-9.69104
實際	-9.69155
故知	-9.69219
身口意	-9.69244
開化	-9.69247
諸佛法	-9.69292
常得	-9.69395
彼諸	-9.69401
波羅蜜	-9.69509
若以	-9.69544
却	-9.69548
謗	-9.69581
惡行	-9.69748
落	-9.69835
得無生法忍	-9.69885
於他	-9.69899
巧	-9.70004
轉輪聖王	-9.70044
無礙智	-9.70072
背	-9.70099
士	-9.70184
垂	-9.70186
阿差末	-9.70206
徧	-9.70247
真諦	-9.7038
星宿	-9.70389
一切煩惱	-9.70545
覺了	-9.7066
須彌	-9.7068
魔眾	-9.70847
於眾生	-9.70901
惡鬼	-9.70959
殊	-9.71153
諸苦	-9.71263
恭敬供養	-9.7129
諸比丘	-9.71379
窮	-9.71501
得佛	-9.7156
云何名	-9.71574
行處	-9.71617
所以然者	-9.71667
唯除	-9.71712
而自	-9.71721
或現	-9.71756
拏	-9.718
盧	-9.7185
呼	-9.71861
解說	-9.71888
非色	-9.72007
五根	-9.72111
於如來	-9.72279
則以	-9.72421
咩	-9.72458
於中	-9.7266
跡	-9.72739
能壞	-9.72747
奢	-9.72795
法施	-9.72829
速疾	-9.72875
所念	-9.72954
布	-9.73092
諸功德	-9.73214
若復有人	-9.73256
許	-9.73337
晝夜	-9.73401
古	-9.73435
第一義諦	-9.73448
是則	-9.73454
利養	-9.73466
或以	-9.73471
受生	-9.73489
淨心	-9.73491
臨	-9.73492
而復	-9.73557
於未來世	-9.73582
重罪	-9.73618
甚多	-9.73626
於阿耨多羅三藐三菩提	-9.73644
越	-9.73686
迷惑	-9.73687
則為行法	-9.73748
二種	-9.7388
速得	-9.73967
無量功德	-9.7397
無盡意	-9.7403
見彼	-9.74059
皆能	-9.74104
釋迦	-9.74158
草木	-9.7416
即以	-9.74336
無比	-9.74346
血	-9.7442
當知是人	-9.74508
惡人	-9.74541
白言	-9.74578
塔	-9.74582
除滅	-9.74679
中間	-9.74752
細	-9.7489
四十	-9.74925
大眾咸皆讚	-9.74967
悉知	-9.75011
不可宣說	-9.75059
護法	-9.75125
勤精進	-9.75234
心念	-9.75242
何因緣故	-9.75344
聖道	-9.75386
不放逸	-9.75428
源	-9.75449
如是等法	-9.75552
今我	-9.7556
道場	-9.75617
亦無所	-9.75723
天下	-9.75762
助	-9.75788
無人	-9.75852
無限	-9.7589
所須	-9.75992
惡口	-9.7606
而彼	-9.76094
業報	-9.76233
▁二	-9.7624
濟	-9.76327
能淨	-9.76339
竭	-9.76481
黃	-9.76487
靜	-9.76487
清淨平等	-9.76495
迴	-9.76519
】	-9.76606
亦為	-9.76612
右膝著地	-9.76621
。』」	-9.76631
舍利子	-9.76652
愚	-9.76675
自他	-9.76705
第四	-9.76718
之本	-9.76884
鳥	-9.76955
師子吼	-9.77059
無所畏	-9.77197
世人	-9.7721
大論云	-9.77233
值	-9.77268
聞是	-9.77371
義者	-9.77402
所依	-9.77415
意樂	-9.77485
礙	-9.77508
善行	-9.77518
有佛	-9.77543
受教	-9.77636
儞	-9.77768
作者	-9.77839
亦有	-9.77867
出世間	-9.77881
忘	-9.7789
一切天	-9.77898
典	-9.77939
今當	-9.77942
神變	-9.78054
釋迦牟尼佛	-9.78063
略說	-9.78116
諸眾生等	-9.78141
若得	-9.78321
嚴飾	-9.78403
臨命終時	-9.78424
道者	-9.78486
橫	-9.78492
十地	-9.78556
則無	-9.7856
罪業	-9.78575
切	-9.78684
香華	-9.78698
所有眾生	-9.78778
姓	-9.788
為彼	-9.789
諍	-9.78926
亦得	-9.79079
如我	-9.79091
過於	-9.79106
智力	-9.79145
何者	-9.79388
說如是偈	-9.79459
醯	-9.79488
暢	-9.79502
如法住	-9.79541
不出	-9.79613
譬如虛空	-9.79755
池	-9.798
將護	-9.79871
快樂	-9.79875
處處	-9.79889
三十一	-9.7998
殺生	-9.80046
叉婆	-9.80051
報應	-9.80065
不可稱計	-9.80109
法器	-9.8024
惠施	-9.80251
亦皆	-9.80256
哩	-9.80266
教令	-9.80301
專	-9.80396
說言	-9.80397
一日	-9.80408
久住	-9.80471
疑惑	-9.80507
善說	-9.80517
佛智	-9.80568
諸見	-9.8069
又如	-9.80716
尾	-9.80774
世尊以	-9.80779
拘	-9.80784
財寶	-9.80823
梵名	-9.80997
如其	-9.81026
是方便	-9.81061
無量阿僧祇	-9.81157
諸人	-9.8117
若有善男子	-9.8123
互相	-9.81251
深心	-9.81273
說是	-9.81347
精氣	-9.81384
惡見	-9.81427
諸佛國土	-9.81529
處所	-9.81572
發願	-9.81711
言說	-9.81723
如實知	-9.8181
遊戲	-9.81824
是為慧之業	-9.81871
如意	-9.81988
是為慧業	-9.82019
貪著	-9.8202
羅漢	-9.82023
善道	-9.82047
增益	-9.82065
佛告颰陀和	-9.8208
索	-9.82099
潤	-9.82127
阿修羅王	-9.82149
佛復告	-9.82301
剎土	-9.82321
訶	-9.82351
一切善根	-9.82437
恐怖	-9.82698
惱害	-9.82715
過失	-9.82882
故云	-9.82917
能為	-9.82939
六道	-9.83054
三十二相	-9.83103
章句	-9.83116
繫	-9.83157
是則為	-9.83205
御	-9.83458
十種	-9.83505
鐵	-9.83561
奢摩他	-9.83623
導	-9.83638
於諸法	-9.83675
睡眠	-9.83693
】【	-9.8373
不自	-9.83803
隨其所應	-9.83876
貴	-9.83877
哉	-9.83877
徒	-9.83883
樂說	-9.83904
見聞	-9.83926
解脫知見	-9.83959
無動	-9.83972
如來悉知	-9.84002
弘	-9.84044
善巧方便	-9.84129
與我	-9.84181
作如是念	-9.8428
佛世尊	-9.84431
生處	-9.84451
悉見	-9.84515
加護	-9.84642
多少	-9.84645
摩尼	-9.84874
民	-9.849
五力	-9.84989
諸佛如來	-9.85002
不如	-9.8505
皆為	-9.85053
如是法	-9.85109
何所	-9.85111
損	-9.85225
慈愍	-9.85418
業障	-9.85455
影	-9.85472
以是義故	-9.85544
熾盛	-9.85607
未得	-9.85656
焰	-9.85656
號曰	-9.85666
莎呵	-9.85676
悲心	-9.85705
四無所畏	-9.85773
運	-9.8578
負	-9.85851
手足	-9.85905
阿那	-9.85928
往來	-9.85986
我已	-9.86037
諸天人	-9.8606
信樂	-9.8627
離一切	-9.86405
婆呵	-9.86427
為眾生故	-9.8688
轉法輪	-9.86953
不染	-9.87004
輒	-9.87133
大力	-9.87234
無諍	-9.87359
木	-9.87376
具足成就	-9.87403
集會	-9.87427
寶藏	-9.87435
於意云何	-9.87496
臥	-9.87524
為人	-9.87529
鳩	-9.87568
新	-9.87583
呤	-9.87611
之義	-9.87647
曲	-9.87663
偏	-9.87741
身命	-9.87753
幢幡	-9.87772
數數	-9.87792
真珠	-9.8784
資	-9.88188
如夢	-9.88197
諂曲	-9.88428
營	-9.88429
道法	-9.88451
望	-9.88521
默然	-9.88569
法忍	-9.88648
是故菩薩	-9.88769
人所	-9.88821
此等	-9.88841
奪	-9.88873
室	-9.88902
莫不	-9.88969
若彼	-9.89036
乘者	-9.89044
逆	-9.89094
作是	-9.89156
斷見	-9.89159
亦說	-9.89203
法王	-9.89231
北	-9.89255
勅	-9.89332
汝等共護	-9.89414
不說	-9.89456
勸請	-9.89462
身口意業	-9.89512
笑	-9.8957
收	-9.89665
皆當	-9.89692
遭	-9.89732
彼處	-9.89769
文殊	-9.89803
復作是念	-9.89871
招	-9.89881
身體	-9.89927
牟	-9.89927
〉	-9.89994
觀身	-9.90051
一味	-9.90113
怨敵	-9.90128
為本	-9.90136
惡法	-9.90145
罪福	-9.90195
不亂	-9.90242
聞此	-9.90246
彼時	-9.90391
覺知	-9.90573
心意	-9.90694
離垢	-9.90726
勇	-9.90783
中有	-9.91022
心性	-9.91022
有無量	-9.91047
為我	-9.91071
此道	-9.91118
難得	-9.91123
不共諸佛之法	-9.9119
居士	-9.91191
慮	-9.91232
即為	-9.91274
飢渴	-9.91286
飛	-9.9129
受者	-9.91291
今既	-9.91314
為他	-9.91386
一切眾	-9.91391
傳	-9.91416
熏	-9.9144
娜	-9.91487
若聞	-9.91497
明了	-9.91639
他方	-9.91862
受樂	-9.91899
微塵	-9.91952
聞是三昧	-9.91993
奴	-9.92032
勸助	-9.92033
聲聞緣覺	-9.92238
建	-9.92271
步	-9.92303
無所得	-9.92323
其性	-9.92379
作如是	-9.924
三惡道	-9.92499
若諸眾生	-9.92674
愛欲	-9.9272
唱	-9.92725
若觀	-9.92798
本末	-9.92805
會中	-9.92816
若有比丘	-9.92834
兩舌	-9.92867
憶	-9.92924
百八	-9.92982
隱	-9.9301
不盡	-9.93031
不聞	-9.93032
是陀羅尼	-9.93046
當令	-9.93051
修多羅	-9.93212
而常	-9.93273
能除	-9.93309
半	-9.93317
若未來世	-9.93437
思念	-9.93509
如佛	-9.93563
軍	-9.9361
蓮花	-9.93672
所在	-9.93729
炎	-9.9376
大願	-9.93815
威	-9.93838
十惡	-9.93962
形像	-9.94014
聞者	-9.94037
禪波羅蜜	-9.94068
如來所	-9.94084
釋迦牟尼如來	-9.94107
作惡	-9.9413
三十三	-9.94158
善入	-9.94163
天地	-9.94224
薄	-9.94289
何等為	-9.94306
邊際	-9.94308
海意菩薩	-9.94316
救護	-9.94343
王子	-9.94432
二法	-9.94441
求法	-9.94493
教他	-9.94529
應知	-9.94539
諸餘	-9.9456
其福	-9.94571
貧	-9.94603
十方佛	-9.94697
化生	-9.94714
禮拜供養	-9.94719
長老	-9.94772
無染	-9.94783
能說	-9.94804
修道	-9.94846
樓	-9.95017
復有眾生	-9.95029
不可見	-9.95172
倒	-9.95207
為求	-9.95232
伎樂	-9.95249
那吒	-9.95279
殺害	-9.95301
戲	-9.95324
湯藥	-9.9536
造業	-9.95361
無取	-9.95377
即從座起	-9.95449
富貴	-9.95617
載	-9.9565
十善	-9.95744
淨故	-9.95791
周遍	-9.95792
普廣	-9.95836
訖	-9.95868
為作	-9.95883
佛現	-9.95976
蘊	-9.95987
無量無數	-9.96099
天宮	-9.96126
不畏	-9.9621
端	-9.96269
妻子	-9.9632
講說	-9.96397
上妙	-9.96422
聽聞	-9.96437
諸界	-9.96468
床	-9.96481
調伏眾生	-9.96503
病苦	-9.96576
頗	-9.96606
少分	-9.96607
大會	-9.96625
留	-9.96638
戲論	-9.96715
災	-9.96717
受持讀誦	-9.96825
不聽	-9.96882
特	-9.96907
養育	-9.96928
能令眾生	-9.96932
偈	-9.96943
何緣	-9.96959
及諸菩薩	-9.96983
我昔	-9.97141
講	-9.97188
原	-9.97254
志性	-9.97256
損減	-9.97297
攀緣	-9.97326
善住	-9.97346
相貌	-9.97352
閉	-9.97355
伴	-9.97395
無貪	-9.97459
豆	-9.97474
園林	-9.97514
之意	-9.97515
若有人	-9.97532
列	-9.97558
云何得	-9.9756
莎	-9.97574
毘尼	-9.97579
乳	-9.97595
擊	-9.97614
正士	-9.97654
晝	-9.97669
含	-9.97687
薩婆	-9.97721
化眾生	-9.97779
圍繞	-9.97825
虎	-9.9789
曜	-9.98029
於佛前	-9.98071
之者	-9.98131
現身	-9.98159
五曰	-9.98237
娑羅	-9.98314
『	-9.98429
或有眾生	-9.98564
􂚲(	-9.98599
成就如是	-9.986
有漏	-9.98609
皆有	-9.98634
作大	-9.98653
獨覺乘	-9.98751
兵	-9.98801
此善男子	-9.9881
盲	-9.98824
天神	-9.98843
善巧	-9.98925
執持	-9.98968
三摩	-9.98974
二相	-9.99
坐禪	-9.99023
栴檀	-9.99053
常以	-9.99075
隱沒	-9.99127
吹	-9.99166
見者	-9.99216
之道	-9.99217
之名	-9.99255
專精	-9.99283
苦樂	-9.9929
終無	-9.99422
四念處	-9.99609
卷第三	-9.99646
乞	-9.99654
安慰	-9.99658
▁一心頂禮	-9.99681
普賢	-9.99708
捨於	-9.99755
枝葉	-9.99788
以偈頌	-9.99856
是大	-9.99879
種姓	-9.9997
五十	-9.99979
君	-9.99996
不能知	-10.0003
內心	-10.0009
於世間	-10.0017
去來	-10.0018
疑網	-10.0027
是如來	-10.0028
蟲	-10.0037
所施	-10.005
於虛空中	-10.0052
船	-10.006
恐	-10.006
而行	-10.0077
本無	-10.0081
打	-10.0082
毀壞	-10.0086
三十六	-10.0092
六根	-10.0094
犯根本罪	-10.0106
眾生界	-10.0106
其數	-10.0122
寶珠	-10.0132
三摩地	-10.0136
娑婆	-10.0137
善護	-10.0139
八正道	-10.0141
行施	-10.0142
華香	-10.0149
到彼岸	-10.0156
毘婆舍那	-10.016
則有	-10.0164
鼓	-10.0167
臭穢	-10.017
世俗	-10.017
捨諸	-10.0171
又問	-10.0171
三塗	-10.0176
尸波羅蜜	-10.018
付	-10.0184
孝	-10.0193
之慧	-10.0196
此諸	-10.0196
牙	-10.0202
至於	-10.0202
誰能	-10.0207
色像	-10.021
萬物	-10.0227
此名	-10.0238
勇猛精進	-10.0244
梵語	-10.0245
能斷	-10.0249
善修	-10.0251
此世界	-10.026
以何因緣	-10.0261
汝於	-10.0268
一名	-10.0268
過去諸佛	-10.0269
具足智慧	-10.0273
不空見菩薩摩訶薩	-10.028
形色	-10.028
超越	-10.0282
退失	-10.029
井	-10.0291
而得解脫	-10.0294
無罣礙	-10.0307
資生	-10.031
捨身	-10.0313
如所	-10.0321
濁	-10.0322
出現於世	-10.0332
熱惱	-10.0337
無量百千	-10.0339
我聞	-10.0345
諸佛世界	-10.0346
其事	-10.0355
於佛法中	-10.0355
有二種	-10.0369
大神通	-10.0373
限	-10.0376
權	-10.0376
不定	-10.0384
羼提波羅蜜	-10.039
校計	-10.0391
為眾	-10.0392
發露懺悔	-10.0393
草	-10.0393
?』「	-10.0394
唯有	-10.0396
迴向阿耨多羅三藐三菩提	-10.04
我時	-10.0404
善心	-10.041
三十五	-10.041
究	-10.0412
譬喻	-10.0417
盜	-10.0417
某	-10.0417
則是	-10.042
不可量	-10.042
得三昧	-10.0434
行法	-10.0436
序	-10.0438
何能	-10.0439
若能如是	-10.0447
佛國	-10.0452
故名為	-10.0453
菩薩念佛三昧	-10.0461
我為	-10.0465
未曾有	-10.0471
復能	-10.0473
六萬	-10.0474
無諸	-10.0474
佛界	-10.048
稱名	-10.0482
痛痒	-10.0485
能成就	-10.0491
難可	-10.0496
)」	-10.0497
天龍	-10.05
即於	-10.0512
藥王軍	-10.0513
是故如來	-10.0514
到已	-10.0515
於菩提	-10.0519
魔波旬	-10.0519
張	-10.0524
諍訟	-10.0525
能修	-10.0529
前後	-10.0539
出入	-10.0555
麁	-10.0559
我能	-10.0563
蜜	-10.0569
部	-10.0572
逼	-10.0573
摩訶薩	-10.0574
稽首	-10.058
讚言	-10.058
不異	-10.0581
議	-10.0583
名聞	-10.059
迦吒富單那	-10.0594
得無生忍	-10.0598
東	-10.0599
四眾	-10.06
得大	-10.0604
卷第二	-10.0612
有大	-10.0617
堪任	-10.0623
碎	-10.0633
枝	-10.0635
調御	-10.0637
禮敬	-10.0638
祇	-10.0639
園	-10.0641
擲	-10.0644
歸命	-10.0645
代	-10.0654
無上尊	-10.0659
雙	-10.066
迦葉	-10.0661
諸外道	-10.0667
惡友	-10.067
我於爾時	-10.0671
救拔	-10.0672
六度	-10.0678
喻如虛空	-10.0679
於空	-10.0679
眾惡	-10.0683
勤行	-10.0686
是善男子	-10.0692
人非人等	-10.0702
正等正覺	-10.0706
恒沙	-10.0706
亦復不	-10.0707
復有地獄	-10.0713
於諸法中	-10.0716
眼識	-10.0718
觀者	-10.0719
樂欲	-10.0719
大師	-10.0724
福者	-10.0732
是慧	-10.0734
能滅	-10.074
尊者阿難	-10.0762
所趣	-10.0762
等事	-10.0769
瞻	-10.0769
袈裟	-10.0778
齋	-10.0787
傷	-10.0791
貢高	-10.0793
諸善	-10.0794
聞佛所說	-10.0795
令他	-10.081
全	-10.0813
〉、	-10.0821
令住	-10.083
必當	-10.0831
諸相	-10.0834
遵修	-10.0838
度眾生	-10.0839
末香	-10.0842
惠	-10.0845
應時	-10.0848
偏袒右肩	-10.0855
補特伽羅	-10.0861
倍	-10.0863
下劣	-10.0864
法藏	-10.0865
堅牢	-10.087
功勳	-10.0872
舍利	-10.0873
以是之故	-10.0875
於生死中	-10.0882
聚集	-10.0884
自心	-10.0886
脾	-10.0892
五道	-10.0892
公	-10.0893
放捨	-10.0894
解了	-10.0896
畜	-10.0897
頓	-10.0898
拔陂	-10.0899
不入	-10.0904
卷	-10.0908
已來	-10.091
修羅	-10.0916
體性	-10.0922
觀法	-10.0922
利益眾生	-10.0931
迦羅	-10.0933
印者	-10.094
本際	-10.0942
不覺	-10.0943
親友	-10.0945
行於	-10.0945
得是三昧	-10.0954
任	-10.0957
一切諸天	-10.096
亂心	-10.0968
舍利弗言	-10.097
禁	-10.0973
若有人能	-10.0984
不懷	-10.0985
有三	-10.0992
能度	-10.1001
苾芻	-10.1008
言語	-10.1017
遊行	-10.1025
大小	-10.1026
須彌山	-10.1031
幾	-10.1034
虗	-10.1059
眾具	-10.1066
眾僧	-10.1071
於生死	-10.1087
印所印	-10.1089
經法	-10.1089
無所住	-10.1093
法輪	-10.1094
如汝所說	-10.1097
能善	-10.1097
樂聞	-10.11
婆伽婆	-10.1102
殊特	-10.1105
不可計	-10.1106
從初發心	-10.1108
於大眾中	-10.1109
蒱	-10.111
震動	-10.1111
善權	-10.1112
華鬘	-10.1114
脩	-10.1116
諸菩薩摩訶薩	-10.1117
塞	-10.1119
願力	-10.1121
若在	-10.1121
期	-10.1124
不隨	-10.1125
身相	-10.1129
以其	-10.1132
轉輪王	-10.114
威力	-10.1141
虛空藏菩薩摩訶薩	-10.1144
行菩薩道	-10.1145
靈	-10.1148
正路	-10.1149
祭	-10.115
何處	-10.115
亦無有	-10.1153
三十四	-10.1154
倫	-10.1156
聞佛	-10.1158
供養佛	-10.1167
大慈悲	-10.1176
其義	-10.1177
三十七	-10.1184
甚深法	-10.1186
微笑	-10.119
悉為	-10.1208
毀謗	-10.1208
是事	-10.1218
誑	-10.1226
施者	-10.1227
所緣	-10.1228
思想	-10.1231
岸	-10.1232
願佛	-10.1234
往彼	-10.1245
靜慮	-10.1251
妙音	-10.1257
三十八	-10.126
光味	-10.1264
今現在	-10.1267
諸佛所	-10.1268
世尊即說	-10.1268
波羅	-10.1269
十輪	-10.127
我今當	-10.1272
展轉	-10.1277
得自在	-10.1284
陀羅	-10.1287
生大	-10.1288
地神	-10.1295
作佛	-10.1302
雖有	-10.1309
如上	-10.131
說之	-10.131
見如來	-10.1316
懺	-10.1318
此中	-10.1321
中道	-10.1333
呵責	-10.1339
茶	-10.134
皆空	-10.1341
若諸菩薩	-10.1341
或有變作	-10.1341
不用	-10.1343
斷一切	-10.1345
沙門瞿曇	-10.1346
佛語	-10.1347
斫	-10.1352
難思議	-10.1352
低	-10.1355
奴婢	-10.1356
能持	-10.1357
故得	-10.1357
十八不共法	-10.1362
圍遶	-10.1363
除諸	-10.1371
及諸眷屬	-10.1379
五濁	-10.1387
無上道	-10.139
能護法	-10.1394
養	-10.1396
唯願如來	-10.1397
令諸	-10.1405
放大光明	-10.141
聞說	-10.1416
百千萬億	-10.1423
深信	-10.1425
心者	-10.1427
欺誑	-10.143
則不	-10.1432
諸欲	-10.1432
以神通力	-10.1432
所應	-10.1433
於大乘	-10.144
斷滅	-10.1442
無所依	-10.1447
得此	-10.1447
鬘	-10.145
若天	-10.145
惡事	-10.1452
彌勒菩薩	-10.1453
所知	-10.1465
三有	-10.1474
證知	-10.1481
我是	-10.1488
淨信	-10.1503
往詣	-10.1505
行故	-10.1507
乾	-10.1507
無緣	-10.1512
日光	-10.1513
無色界	-10.1514
佛世界	-10.1525
復更	-10.1529
是故名為	-10.154
亦是	-10.1542
了了	-10.155
見有	-10.155
散亂	-10.1556
一日一夜	-10.1563
天魔	-10.1564
諸波羅蜜	-10.1576
無知	-10.1579
舊	-10.1581
能入	-10.1581
合集	-10.1588
充足	-10.159
醫藥	-10.1597
野	-10.1599
有因	-10.1599
卑	-10.1602
忉利天	-10.1603
遵	-10.1607
法義	-10.1607
私	-10.1609
譯	-10.1611
一切種智	-10.1614
為得	-10.1615
勤作	-10.1617
設使	-10.1621
千眷屬	-10.1622
走	-10.1626
最後	-10.1629
隨住	-10.1633
安立	-10.1634
所欲	-10.1635
於己	-10.1637
則為誼	-10.1641
觀一切法	-10.1644
右遶三匝	-10.1646
皆共	-10.1649
不觀	-10.1653
剎那	-10.1659
諸所	-10.1669
聲聞弟子	-10.167
所求	-10.1679
如來所說	-10.1683
入涅槃	-10.1689
俱胝	-10.1692
神通力	-10.1698
五種	-10.1699
一切法門	-10.1708
寺	-10.1711
在家	-10.1717
之眾	-10.172
戒行	-10.1721
方便智	-10.1723
普照	-10.1727
幡蓋	-10.173
甲冑	-10.173
善方便	-10.1739
蔽	-10.1745
快	-10.1753
得如是	-10.1754
所受	-10.1762
修行者	-10.1766
貪愛	-10.1768
女身	-10.1768
善哉善哉	-10.1773
兒	-10.1775
惡魔	-10.1776
柔和	-10.1779
皮	-10.1781
夫人	-10.1792
投	-10.1796
上下	-10.18
如是如是	-10.1803
有如是	-10.1811
種諸善根	-10.1825
阿婆	-10.1826
身業	-10.183
身中	-10.1831
成阿耨多羅三藐三菩提	-10.1831
自大	-10.1833
樹林	-10.1837
有四	-10.1838
入定	-10.1843
未來世中	-10.1843
捨心	-10.1843
多所	-10.1847
空無相願	-10.1849
怛	-10.1852
天中天	-10.1852
真實福田	-10.1853
黎	-10.1855
樂著	-10.1856
不生不滅	-10.1856
釋提桓因	-10.1857
即當	-10.1858
隨逐	-10.1858
此土	-10.1859
此即	-10.186
誹謗正法	-10.186
輪迴	-10.1865
執著	-10.1865
宗	-10.1866
篤信	-10.1867
當為	-10.1867
闕	-10.1868
領	-10.1869
我等今者	-10.1875
難陀	-10.1875
若干種	-10.1886
行布施	-10.1891
一切天人	-10.1892
三十九	-10.1904
敬禮	-10.1909
罣礙	-10.1914
斷諸	-10.1915
精進力	-10.1917
滅除	-10.192
論云	-10.1935
塗	-10.1935
緣起	-10.1935
依著	-10.1939
有三摩地名為	-10.1943
起於	-10.1948
諸業	-10.1968
摩那	-10.1976
重擔	-10.1977
即說偈言	-10.1978
若此	-10.1982
而以	-10.1988
檀波羅蜜	-10.1988
空寂	-10.2
坻	-10.2005
能觀	-10.201
照曜	-10.2011
云云	-10.2012
魔事	-10.2014
知色	-10.2021
無所行	-10.2022
知於	-10.2025
瞻禮	-10.2036
於世	-10.2038
復於	-10.2039
伺察	-10.2047
墜	-10.2053
所居	-10.2054
大法	-10.2061
寄	-10.2065
愛敬	-10.2074
心無厭足	-10.2085
之類	-10.2087
普遍	-10.2089
六十	-10.2093
怒	-10.2107
同一	-10.211
欺	-10.2122
宣暢	-10.2124
劣	-10.2126
於當來世	-10.2128
刺	-10.2128
應以	-10.213
供具	-10.2141
尤	-10.2145
衣食	-10.2148
殃	-10.2148
奚	-10.215
利益安樂	-10.2184
梵志	-10.2185
剎利王	-10.2186
而於	-10.2196
那由他	-10.2208
固	-10.2209
左	-10.221
從彼	-10.2212
除去	-10.2236
是曰	-10.2238
【	-10.2246
得安樂	-10.2249
曠野	-10.225
見諸佛	-10.2253
具戒	-10.2255
惡聲	-10.226
為大	-10.226
亦知	-10.2268
能成	-10.2279
如如	-10.2281
悕望	-10.2282
皆以	-10.2292
灌頂	-10.2293
儀	-10.2294
阿修羅等	-10.2301
云何當得如	-10.2301
角	-10.2309
有三摩地名	-10.2313
乃至一切	-10.2314
是名菩薩摩訶薩	-10.2315
永離	-10.2316
教人	-10.2316
無得	-10.2321
意業	-10.2321
生念	-10.2322
因此	-10.2326
恨	-10.2334
常修	-10.2335
其餘	-10.2336
菩提之心	-10.2336
良	-10.2337
作此	-10.2337
於時	-10.234
賢劫	-10.2341
正說	-10.2345
藥草	-10.2345
哀愍	-10.2347
或時	-10.235
入道	-10.2351
又善男子	-10.2354
堂	-10.2354
麁獷	-10.2356
蠲除	-10.236
墮地獄	-10.2365
罵辱	-10.2366
大利	-10.2367
免	-10.237
佛前	-10.237
得生	-10.2371
飯	-10.2378
受報	-10.2379
脾蛇	-10.2381
殊妙	-10.2385
佛說海意菩薩所問淨印法門經	-10.2386
頗梨	-10.2386
受大苦惱	-10.2387
唎	-10.2389
此即是為	-10.239
律儀	-10.2391
不息	-10.2392
伊	-10.2394
誡	-10.2395
竝	-10.2396
成辦	-10.2397
唐言	-10.2397
跛	-10.2399
此三千大千世界	-10.24
須臾	-10.2401
嚩	-10.2402
陳	-10.2403
勞	-10.2405
述	-10.2405
訓	-10.2409
纏	-10.241
接	-10.2411
心終	-10.2414
即現	-10.2421
有如是相	-10.2421
實語	-10.2424
能捨	-10.2425
信根	-10.2428
有能	-10.243
為是	-10.2431
大將	-10.2435
隨其所	-10.2437
一切所有	-10.2437
能破	-10.2442
知其	-10.2445
長夜	-10.2446
其行	-10.2446
善根者	-10.2447
自在定	-10.2455
如是三昧	-10.2456
聖法	-10.2457
正使	-10.2459
復問	-10.2463
常懷	-10.2471
能施	-10.249
不共	-10.2496
修行菩提道	-10.2496
共相	-10.2499
以何	-10.25
離煩惱	-10.25
等心	-10.2501
清涼	-10.2514
無疑	-10.2527
不瞋	-10.2532
道心	-10.2535
同時	-10.2542
捉	-10.2552
勢	-10.256
或因	-10.256
阿僧祇	-10.2561
為令眾生	-10.2572
閻浮	-10.2574
稱揚	-10.2575
般涅槃	-10.2577
令此	-10.2579
彼世界	-10.2587
知之	-10.2589
二名	-10.2592
不從	-10.2598
假名	-10.26
猶若	-10.2613
況復	-10.2613
是名諸法	-10.2614
而死	-10.2614
煩惱障	-10.2615
大苦	-10.2617
頂上	-10.2618
以法	-10.2626
我法	-10.2628
剃除鬚髮	-10.2631
宋	-10.2633
甚難	-10.2645
願我	-10.2649
歌	-10.2658
卷第五	-10.266
黑闇	-10.2666
宰官	-10.267
樹木	-10.2672
阿那含	-10.2674
教授	-10.2675
寶蓋	-10.2676
乏	-10.2679
玄	-10.2679
福利	-10.2679
滅百八	-10.2679
對治	-10.2688
消除	-10.2691
我心	-10.2691
尸羅	-10.2692
諸大菩薩	-10.2692
諸陰	-10.2692
三解脫門	-10.2696
若知	-10.2696
酒	-10.27
官	-10.27
長阿含	-10.27
是名如來	-10.2701
實性	-10.2702
取著	-10.2712
自知	-10.2722
諸世間	-10.2724
大智慧	-10.273
不得令	-10.2732
作諸	-10.2732
緣生	-10.2736
釋梵	-10.2741
無等	-10.2747
為佛	-10.2753
恒河沙	-10.2753
一句	-10.2766
一乘	-10.2771
今世	-10.2779
有佛出世	-10.2781
問言	-10.2786
是身	-10.2795
覺悟	-10.2797
詐	-10.2824
心懷	-10.2824
房	-10.2828
臣	-10.283
無有是處	-10.2832
身行	-10.2834
皆從	-10.2836
阿僧祇劫	-10.2839
色身	-10.284
戰	-10.2847
此身	-10.2849
千億	-10.2855
文殊師利	-10.2858
加持	-10.286
如人	-10.2862
善解	-10.2864
憐愍眾生	-10.2866
所有諸	-10.2874
令汝	-10.2881
之日	-10.2892
水火	-10.2894
百八便	-10.2895
心之所興發	-10.2898
如是種種	-10.2898
我慢	-10.29
當以	-10.2903
念法	-10.2904
須菩提	-10.2906
暗	-10.2907
修禪	-10.2907
諸漏	-10.2908
專念	-10.2912
知諸法	-10.2912
止觀	-10.2918
)􂚲	-10.2918
枯竭	-10.2919
奮迅	-10.2921
淨於	-10.2924
是故我	-10.2927
休	-10.2928
出離	-10.2935
質	-10.2936
敷	-10.2936
摩訶衍	-10.2936
十善業道	-10.2938
房舍	-10.2942
待	-10.2944
毀呰	-10.2947
王言	-10.2948
乃往古世	-10.2948
麼	-10.2951
頒宣	-10.2951
大集經	-10.2953
兄弟	-10.2956
吼	-10.2957
舍宅	-10.2957
是則名曰	-10.2959
宅	-10.2965
並	-10.2968
時魔波旬	-10.2968
所住	-10.2971
妄想	-10.2974
呿伽	-10.2974
而悉	-10.2975
獨覺乘等	-10.2975
敬信	-10.2976
不實	-10.2978
名號	-10.2979
泥犁	-10.298
所起	-10.2981
悉是	-10.2984
點	-10.2987
七十	-10.2988
我說	-10.2988
一相	-10.299
塗香	-10.2993
摧伏	-10.2993
信受	-10.2996
悉當	-10.2999
大莊嚴	-10.3
二事	-10.3
金銀	-10.3001
注	-10.3002
侍	-10.3007
而起	-10.3008
菩提薩埵	-10.3012
無生忍	-10.3016
諸大	-10.3018
妙色	-10.3019
請問	-10.302
其土	-10.3023
無邊際	-10.3026
可愛	-10.3033
以一	-10.3034
無窮	-10.3041
我等當	-10.3047
四無量心	-10.3052
三毒	-10.3056
天耳	-10.306
異人	-10.3065
彼此	-10.3067
無壞	-10.3068
亦應	-10.3076
修善	-10.3081
聖眾	-10.3082
身口	-10.3086
輸	-10.3087
如說	-10.3088
以無	-10.3099
慚	-10.31
互	-10.3103
第五	-10.311
賒	-10.3112
追	-10.3119
臭	-10.3123
諸眷屬	-10.3132
如是等事	-10.3136
胎	-10.3142
為說法	-10.3144
知已	-10.3154
成正覺	-10.316
茂	-10.3168
若魔	-10.3168
得入	-10.3171
所致	-10.3174
福報	-10.3174
得道	-10.3177
諸方	-10.3177
男子	-10.3179
三十三天	-10.3183
不能得	-10.3187
表示一切法	-10.3187
妙香	-10.3188
以彼	-10.3189
地界	-10.3199
佛出世	-10.32
者即	-10.3204
迴向菩提	-10.3209
渴	-10.321
意識	-10.3212
彼土	-10.3212
何因緣	-10.3213
信者	-10.3217
累	-10.3218
鎧	-10.322
餘人	-10.3222
不在	-10.3223
此事	-10.3224
法華	-10.3229
修福	-10.3232
何以	-10.3234
喜心	-10.3235
怛哩	-10.3235
此三宿日	-10.3236
善思念之	-10.3237
慇懃	-10.3237
一切佛	-10.3242
澹泊	-10.3242
虛誑	-10.3247
澤	-10.3247
瓶	-10.3248
假使有人	-10.3249
瞻仰	-10.3249
如是念	-10.3249
兩足尊	-10.325
大梵天王	-10.3256
諸世界	-10.3257
疾病	-10.3257
故言	-10.3262
汝應	-10.3265
發寶心	-10.3265
毘梨耶波羅蜜	-10.3265
是心	-10.3268
等法	-10.3272
又於	-10.3275
能於	-10.3276
彼國	-10.3277
猛火	-10.3282
初又二初	-10.3284
嫉	-10.3286
歌舞	-10.3287
實無	-10.3292
惡知識	-10.3293
當為汝說	-10.3296
卷第四	-10.3298
如來世尊	-10.33
如須彌山	-10.3303
非時	-10.3306
見諸	-10.3309
復為	-10.3313
至真	-10.3324
成佛道	-10.3326
此由	-10.3327
無處	-10.3328
不自知	-10.3328
杖	-10.3341
虛空目	-10.3344
劫數	-10.3346
菩薩眾	-10.3347
厭離	-10.3351
珍	-10.3354
飾	-10.3355
無罪	-10.3356
邪婬	-10.3357
士夫	-10.3359
未來世	-10.3363
見諸眾生	-10.3363
恒河沙等	-10.3364
自見	-10.3368
便得	-10.3368
堪	-10.337
無際	-10.3371
無瞋	-10.3371
靡不	-10.3377
所問	-10.3378
二人	-10.3382
時節	-10.3382
從是	-10.3383
驢	-10.3385
得人身	-10.341
覺意	-10.341
念佛三昧	-10.3411
歡喜踊躍	-10.3421
輪故	-10.3422
清淨智	-10.3423
四十二	-10.3424
所說法	-10.3426
諸陀羅尼	-10.3427
無量世中	-10.3432
樂受	-10.3432
五逆	-10.3437
一切悉	-10.3441
欲見	-10.3443
得大利益	-10.3443
佛號	-10.3449
知法	-10.3453
非有	-10.3455
大明	-10.3458
真實知	-10.3461
以種種	-10.3465
獄中	-10.3465
千劫	-10.347
菩薩白佛言	-10.3472
於三世	-10.3477
短	-10.348
謗毀	-10.3487
齊	-10.3494
五穀	-10.3507
旃陀羅	-10.3511
知眾生	-10.3514
之地	-10.3516
無心	-10.3517
四十一	-10.3517
於道	-10.3518
魔界	-10.3519
信力	-10.3524
人身	-10.3528
佛境界	-10.3529
要當	-10.3534
四十五	-10.3538
諸入	-10.354
端嚴	-10.3544
作業	-10.3544
狂	-10.3545
為壞	-10.3545
無有退轉	-10.3546
過患	-10.3546
而來	-10.3548
脚	-10.3549
諸善法	-10.355
說是語時	-10.355
塔寺	-10.3551
三摩提	-10.3553
徹	-10.3556
罵詈	-10.3558
頭陀	-10.3558
如來出世	-10.3558
口業	-10.3558
之樂	-10.3559
是名正見	-10.3562
咸共	-10.3563
自作	-10.3564
雪山	-10.3565
太子	-10.3567
心生歡喜	-10.3569
!」「	-10.3572
諸大眾	-10.3572
四無礙智	-10.3573
狼	-10.3573
是虛空藏菩薩摩訶薩	-10.3575
天帝釋	-10.3575
升	-10.3579
得須陀洹果	-10.3583
化度	-10.3588
銅	-10.359
說法者	-10.3593
土地	-10.3602
吾當	-10.3604
如大	-10.3607
初生	-10.3611
分身	-10.3621
生老病死	-10.3625
心始	-10.363
此四天下	-10.3631
南無	-10.3632
非我	-10.3634
摧	-10.3641
染著	-10.3647
勤苦	-10.3649
寂定	-10.3651
愛語	-10.3658
佛於是	-10.3665
即是精進	-10.3673
證得	-10.3692
房宿	-10.3693
常見	-10.3698
三藏	-10.3701
輕慢	-10.3706
天上	-10.3717
菩薩大士	-10.3727
以諸	-10.3728
之福	-10.3736
作禮	-10.3738
能行	-10.3738
十輪經	-10.3739
解脫門	-10.3739
知彼	-10.3744
若自	-10.3745
得是	-10.3745
彼一切	-10.3751
供養恭敬	-10.3761
聲聞眾	-10.3765
依於	-10.3766
不惜身命	-10.3771
於過去	-10.3773
等言	-10.3774
得清淨	-10.3778
亦不能	-10.3778
復言	-10.3781
大乘經典	-10.3784
法雨	-10.3785
還復	-10.3785
無非	-10.3786
里	-10.3789
所住處	-10.3792
尸	-10.3796
無差別	-10.3797
無央數	-10.3799
一切智智	-10.3805
四禪	-10.3805
及彼	-10.3807
為我說	-10.3809
是故我今	-10.3811
貫	-10.382
如汝	-10.3826
阿差末菩薩	-10.3827
宿命	-10.3827
世尊復告	-10.3829
輪也	-10.3832
念念	-10.3832
云何行	-10.3834
又言	-10.384
若為	-10.3843
大誓莊嚴	-10.3843
漏盡	-10.3844
敵	-10.3846
非時風雨	-10.3847
如上所說	-10.385
四大天王	-10.3851
諸聲聞眾	-10.3851
遺	-10.3851
昇	-10.3852
洗	-10.3853
辦	-10.3854
富樓那	-10.3855
送	-10.3857
妬	-10.3858
臂	-10.3859
咨嗟	-10.3859
得於	-10.386
五千眷屬	-10.3862
露	-10.3863
臨終	-10.3864
灑	-10.3866
膩	-10.3867
四聖諦	-10.3867
寒	-10.3869
眷屬圍遶	-10.3871
冷	-10.3872
又此精進	-10.3872
何等為八	-10.3873
而說頌	-10.3873
意行	-10.3874
逢	-10.3875
無所生	-10.3877
焚燒	-10.3877
縱廣	-10.3881
參	-10.3885
平等故	-10.3885
更不	-10.3885
逐	-10.3887
故須	-10.3898
之後	-10.3906
作是思惟	-10.3909
聰明	-10.3911
無所罣礙	-10.3917
念處	-10.3918
永不	-10.3919
染污	-10.3927
闍婆	-10.3931
毀戒	-10.3941
心中	-10.3943
是慈	-10.3946
小乘	-10.395
唯佛	-10.3953
得無	-10.3955
同共	-10.3958
當念	-10.3958
百七十	-10.3959
墮惡趣	-10.3963
不忍	-10.3965
此法門	-10.3966
一切法性	-10.3968
果實	-10.3971
可意	-10.3976
勸化	-10.3977
虗空	-10.3978
寒熱	-10.3982
菩薩道	-10.3982
是何	-10.3984
生時	-10.3986
身分	-10.3987
資糧	-10.3992
菩薩以	-10.3994
皆大歡喜	-10.3997
見此	-10.3998
不名	-10.3998
之聲	-10.4006
奉持	-10.4017
得度	-10.4017
是諸菩薩	-10.4023
於正法	-10.4023
瞿	-10.4031
正修行	-10.4034
大德世尊	-10.4035
不敢	-10.404
渡	-10.4042
悉共	-10.4042
分別說	-10.4049
菩薩所行	-10.4055
為因	-10.4058
諸苦惱	-10.406
何者是	-10.4064
臺	-10.407
活	-10.4084
疫病	-10.4091
與諸	-10.4092
知諸	-10.4093
慧根	-10.4094
本性	-10.4097
即於佛前	-10.41
世尊讚	-10.41
說於	-10.4102
若菩薩摩訶薩	-10.4111
心得自在	-10.4111
不合	-10.4111
住持	-10.4117
眾生心	-10.4122
德本	-10.4124
慶	-10.4127
捨施	-10.4129
因是	-10.413
菩薩若	-10.413
擔	-10.4139
剎帝利	-10.4145
分布	-10.4145
恣	-10.4151
故當知是忍	-10.4155
慧明	-10.4156
頃	-10.4158
行相	-10.4165
已能	-10.4168
若曹	-10.4171
梵天王	-10.4174
安隱快樂	-10.4175
頻婆娑羅王	-10.4176
乃得名戒	-10.4177
焦	-10.4177
能與	-10.4178
觸惱	-10.4178
瞋怒	-10.4181
所歸	-10.4181
空行	-10.4181
寶幢	-10.4183
推	-10.4186
頭面禮足	-10.4188
箭	-10.4188
旋	-10.4191
恐懼	-10.4193
諸山	-10.4196
魔王波旬	-10.4197
關	-10.4197
無量億	-10.4198
如是無量	-10.42
異學	-10.4201
申	-10.4204
夷	-10.4204
噉	-10.4206
不違	-10.4206
如佛所說	-10.4208
歸趣	-10.4208
有大威德	-10.4208
懸	-10.4209
師子座	-10.4209
無依	-10.421
不可數	-10.4211
希利	-10.4211
言教	-10.4212
幽	-10.4217
之性	-10.4218
來至此	-10.4219
題	-10.4221
為其	-10.4221
或有地獄	-10.4222
白佛	-10.4231
施設	-10.4234
然後乃	-10.4243
流通	-10.4243
心意識	-10.4248
常在	-10.4254
奉事	-10.4255
虛空中	-10.4257
之報	-10.4258
性相	-10.427
皆見	-10.427
暴	-10.4271
業緣	-10.4272
摩尼寶	-10.4275
第六	-10.4278
佛功德	-10.4285
結使	-10.4289
身壞命終	-10.429
分別解說	-10.4293
吾我	-10.4294
所成	-10.4301
種善根	-10.4301
福聚	-10.4304
如法住者	-10.4316
遙	-10.4318
一切智心	-10.4319
智人	-10.4325
無量菩薩	-10.433
則能為	-10.4338
何名	-10.4348
疾得	-10.435
三世諸佛	-10.4356
正住	-10.4358
以我	-10.4361
是為四	-10.4362
菩薩亦復如是	-10.4365
善作	-10.4378
最尊	-10.438
願行	-10.4389
光佛	-10.4395
審	-10.4397
金色	-10.4397
之智	-10.4398
多人	-10.4402
觀佛	-10.4402
求於	-10.4407
而出	-10.4407
無生法忍	-10.4411
之形	-10.4412
於十方	-10.4412
得成	-10.4415
深廣	-10.4415
如海	-10.4416
以來	-10.4418
清淨心	-10.4418
輪轉	-10.4422
見我	-10.4426
摩羅	-10.4428
三惡	-10.4432
供養如來	-10.4436
正定	-10.4445
瓔珞莊嚴	-10.4452
受我	-10.446
能解	-10.4466
甘	-10.4471
無數劫	-10.4475
所興	-10.4478
又見	-10.4482
妙樂	-10.4482
佛名	-10.45
匝	-10.4501
何法	-10.4502
在在處處	-10.4503
能忍	-10.4504
由是因緣	-10.4506
承佛威神	-10.4506
如說修行	-10.4508
諸弟子	-10.4508
不轉	-10.4509
師長	-10.4511
如法而住	-10.4511
支節	-10.4512
無二無別	-10.4513
血肉	-10.4513
憂愁	-10.4513
於戒	-10.4515
棄捐	-10.4516
復說偈言	-10.4518
麤	-10.4518
鉢囉	-10.4519
穀	-10.4519
宣揚	-10.452
出入息	-10.452
悅豫	-10.4522
發露	-10.4523
止息	-10.4524
施主	-10.4527
諮問	-10.4529
奇	-10.453
為首	-10.4532
大道	-10.4536
盈滿	-10.4536
壁	-10.4536
歡樂	-10.4543
眾生故	-10.4547
正直	-10.4553
彼善男子	-10.4555
無本	-10.4567
於閻浮提	-10.4567
陽	-10.4569
往古	-10.457
諂	-10.4572
聽者	-10.4573
問佛	-10.4583
生疑	-10.459
求菩提	-10.4593
阿羅	-10.4595
之故	-10.4598
第七	-10.4605
可說	-10.461
信敬	-10.4613
羅婆	-10.462
能壞一切	-10.4622
住者	-10.4622
不修	-10.4626
無受	-10.4627
輪王	-10.4632
不及	-10.4634
加行	-10.4638
雜色	-10.464
所造	-10.4641
憂惱	-10.4645
海慧菩薩	-10.4649
修善法	-10.4654
無形	-10.4654
於我法中	-10.4669
之門	-10.4669
堅住	-10.4671
十法	-10.4674
見法	-10.4682
是則名為	-10.4682
是謂為	-10.4684
猶豫	-10.4688
百六十	-10.4692
善事	-10.4694
人眾	-10.4698
一切諸惡	-10.4699
正勤	-10.47
善觀	-10.47
於佛法	-10.4705
左右	-10.4705
現世	-10.4706
於汝	-10.4707
無實	-10.4709
不可以	-10.4717
之罪	-10.4719
正信	-10.4725
時有	-10.473
汝可	-10.4734
隨念	-10.4734
不二	-10.4743
生死罪	-10.4745
慳	-10.4747
歡悅	-10.4748
諸菩薩摩訶薩等	-10.4749
一毛	-10.4752
恭	-10.4763
不疑	-10.4763
觀心	-10.4766
速能	-10.4767
世法	-10.4768
受行	-10.4771
無欲	-10.4783
罵	-10.4788
音樂	-10.4793
惡眾生	-10.4803
供給	-10.4803
麗	-10.4806
危	-10.4815
給	-10.4817
初行菩薩	-10.482
其形	-10.482
如是大悲	-10.4821
經中	-10.4821
無起	-10.4825
無智	-10.4827
護世	-10.4827
心故	-10.4844
空無	-10.4847
作證	-10.4849
我念往昔	-10.485
星生者	-10.485
及其眷屬	-10.4852
六十四	-10.4853
射	-10.4854
周匝	-10.4855
阿彌陀佛	-10.4857
唐	-10.4858
於世尊前	-10.4859
從坐而起	-10.486
為他說	-10.486
那婆	-10.486
輕毀	-10.4863
綺語	-10.4863
所觀	-10.4863
寫	-10.4864
洲	-10.4867
刀杖	-10.4869
久遠	-10.487
畫	-10.4871
發者	-10.4872
段	-10.4874
涅	-10.4875
溺	-10.4876
大乘法	-10.4877
隨所在處	-10.4877
是則名戒	-10.4879
大人相者	-10.488
受諸苦惱	-10.4881
泉	-10.4885
親近善友	-10.4889
為他說法	-10.4891
錄	-10.4893
是處	-10.4894
覺分	-10.4895
諷誦	-10.4896
百由旬	-10.4896
輕重	-10.4898
不解	-10.4903
不可取	-10.4907
於彼國土	-10.4913
伺察者	-10.4917
本淨	-10.4919
無性	-10.4925
力勢	-10.4926
供養於佛	-10.4929
於三界	-10.4931
侵	-10.4938
知是	-10.4938
備悉	-10.4951
攝持	-10.4952
佛正法	-10.4958
勤作者	-10.4959
即不能	-10.4959
在彼	-10.496
樂法	-10.4964
遮障	-10.4967
先世	-10.4967
深法	-10.4969
發意	-10.4969
求解脫	-10.497
佛眼	-10.4986
根性	-10.499
此菩薩	-10.499
愁	-10.4996
樹下	-10.4998
百五十	-10.4998
由是	-10.4999
那羅延	-10.4999
空處	-10.5012
獄卒	-10.5022
是以	-10.5023
正真	-10.5025
無一	-10.5031
伽羅	-10.5042
白法	-10.5051
為護	-10.5057
)「	-10.5061
諸佛土	-10.5061
毛孔	-10.5064
一切法中	-10.5067
燒然	-10.5068
唯見	-10.507
所宣	-10.507
此剎	-10.5072
汝若	-10.5072
各自	-10.5078
人間	-10.5081
放光	-10.5083
無復	-10.5086
諸王	-10.5086
念力	-10.5087
正觀	-10.5094
令人	-10.5097
力者	-10.5105
宿世	-10.5111
之物	-10.5114
牽	-10.5117
便能	-10.5119
實相	-10.512
慧力	-10.5123
而坐	-10.5123
死魔	-10.5124
能斷一切	-10.5143
歸敬	-10.5145
皆應供養	-10.5145
其地	-10.5145
為一	-10.5146
淨妙	-10.5147
此諸眾生	-10.515
因緣生	-10.5152
斷絕	-10.5153
罪報	-10.516
無生無滅	-10.5162
腹	-10.5162
亦不見	-10.5163
於彼何者	-10.5164
等無有異	-10.5164
斗宿	-10.5165
受於	-10.5166
諸佛所說	-10.517
栴達囉	-10.5183
鬪	-10.5184
軟	-10.5185
護正法	-10.5196
有三種	-10.5198
歸於	-10.52
姥	-10.5202
三千大千	-10.5202
願向菩提	-10.5203
義理	-10.5204
無有二	-10.5205
鹿	-10.5206
恒河沙數	-10.5206
欝	-10.5207
老死	-10.5208
方面	-10.5208
淨行	-10.5209
斯陀含	-10.521
嬈	-10.5212
不可窮盡	-10.5212
此會	-10.5214
四神足	-10.5214
產	-10.5215
比丘僧	-10.5217
踰	-10.5217
聞是語已	-10.5218
愍哀	-10.5218
菩薩摩訶薩成就此輪	-10.5219
稱量	-10.522
汝今當知	-10.5221
此則	-10.5222
卷第一	-10.5222
偷盜	-10.5222
鏡	-10.5223
狐疑	-10.5225
命終之後	-10.5225
獨步	-10.5225
素	-10.5226
族	-10.5227
又發起者	-10.5228
憍尸迦	-10.5228
徒眾	-10.5229
濘	-10.5229
甲	-10.5229
羅網	-10.523
囑	-10.523
喚	-10.5231
廁	-10.5231
怨家	-10.5232
遮羅	-10.5232
不安	-10.5235
犁	-10.5236
冀	-10.5237
生者	-10.5238
佛告梵王	-10.5239
佛告舍利弗	-10.524
酬	-10.5246
真善剎利	-10.5246
一切諸來大眾	-10.5247
三千	-10.5248
急	-10.5251
胃	-10.5257
入息	-10.5258
馳	-10.5259
聖行	-10.5259
惜	-10.5264
說偈言	-10.5265
若法	-10.5269
禍	-10.5271
生天上	-10.5271
常生	-10.5277
故有	-10.528
五通	-10.5285
功德天	-10.529
昴宿	-10.5291
一切眾會	-10.5292
正語	-10.5295
眾生性	-10.5296
有得	-10.5297
得住	-10.5301
當作	-10.5302
護戒	-10.5304
在世	-10.5306
▁爾時	-10.5308
第十	-10.5309
樂於	-10.5325
柳宿	-10.5333
右遶	-10.5335
亦不得	-10.5335
佛所說	-10.5349
正受	-10.5361
大劫	-10.5365
師子王	-10.5365
寶髻	-10.5365
時不空見	-10.5384
不相	-10.5385
八種	-10.5386
然彼	-10.5391
或見	-10.5391
佛之	-10.5393
聽我	-10.5397
所演	-10.5403
王佛	-10.5409
無量世界	-10.5411
若有能	-10.5412
恭敬合掌	-10.5414
遠離於	-10.5425
慧眼	-10.5427
剎中	-10.5428
又云	-10.5433
王舍城	-10.5442
悲愍	-10.5446
修慈	-10.5451
香花	-10.5454
難思	-10.5455
與彼	-10.5468
於聲聞乘	-10.5468
復有無量	-10.5471
王位	-10.5473
毀辱	-10.5475
亦悉	-10.548
聞名	-10.5483
度無極	-10.5484
念心	-10.5488
真正	-10.5491
彼彼	-10.5494
心相	-10.5494
敗	-10.5498
非處	-10.5502
三受	-10.5502
演說法	-10.5503
譽	-10.5504
一切法無	-10.5509
進退	-10.5512
意力	-10.5512
缺	-10.5513
地獄中	-10.5513
不具	-10.5516
軍眾	-10.5521
摧滅	-10.553
於心	-10.5532
一身	-10.5532
從何	-10.5541
賴	-10.5542
非識	-10.5543
避	-10.5547
諸經	-10.5549
一切勇菩提薩埵	-10.5549
法音	-10.5551
一生補處	-10.5559
婁宿	-10.556
闍羅	-10.5565
彼諸菩薩	-10.5565
受想行識	-10.5567
陰界入	-10.5569
右	-10.5569
深妙	-10.5572
自言我無罪	-10.5572
惡比丘	-10.5573
花果	-10.5574
奉獻	-10.5575
無量諸佛	-10.5577
王舍大城	-10.5577
章	-10.5577
是為賢聖之正見也	-10.558
以是緣故	-10.5581
亦以	-10.5583
作是語已	-10.5584
行住坐臥	-10.5584
所有一切	-10.5585
退坐一面	-10.5585
聰慧	-10.5586
發勤精進	-10.5587
虛偽	-10.5588
作大福田	-10.5589
翳	-10.5589
慎	-10.559
象馬	-10.559
嚧	-10.559
算	-10.559
值遇	-10.5591
充	-10.5593
咤	-10.5593
寺舍	-10.5595
群黎	-10.5595
喜悅	-10.5596
願樂欲聞	-10.5598
食噉	-10.5598
銷滅	-10.56
弗	-10.5602
譏毀	-10.5602
繫念	-10.5602
瞋忿	-10.5602
悅可	-10.5603
寐	-10.5605
舒	-10.5606
談	-10.5611
所得功德	-10.5612
多羅	-10.5613
焚	-10.5614
白衣	-10.5615
貪心	-10.5615
不退轉地	-10.5626
無增減	-10.5628
枯	-10.563
守護供養	-10.563
我若	-10.5634
而去	-10.5635
作沙門	-10.5636
所出	-10.5639
長壽	-10.5641
無減	-10.5654
嘆	-10.5659
弊惡	-10.566
者名為	-10.5667
三行	-10.5667
墮於	-10.5668
踊躍	-10.5669
廣說乃至	-10.5676
大人	-10.5677
其順法者不	-10.5677
為善知識	-10.5679
護念	-10.5681
諸惡業	-10.5683
樂見	-10.5685
不護	-10.5688
虛宿	-10.5692
未盡	-10.5696
如金剛	-10.5711
生長	-10.5711
一佛	-10.5713
宣說正法	-10.5714
四王	-10.5718
墮落	-10.5719
寶鬘	-10.5726
諦觀	-10.5727
其心平等	-10.573
聞此法門	-10.573
或在	-10.573
觀音	-10.5739
菩薩摩訶薩亦復如是	-10.574
乾闥婆等	-10.5752
闇冥	-10.5755
凡有	-10.5756
千佛	-10.5763
造惡	-10.5764
非離	-10.5764
一切諸佛世尊	-10.5768
敬重	-10.578
終不能	-10.5781
少欲	-10.5781
調柔	-10.5786
淨土	-10.5788
是為如來	-10.5788
無有異	-10.579
坐於	-10.579
而致	-10.5793
行時	-10.5801
心得	-10.5803
羯	-10.5808
習行	-10.5809
我反	-10.5809
亦見	-10.5813
百四十	-10.5815
億百千	-10.582
為諸菩薩	-10.5831
能見	-10.5838
象王	-10.5849
能除斷	-10.5851
真善	-10.5851
諸惡趣	-10.5855
咃	-10.586
同名	-10.5861
則見	-10.5864
十千	-10.5865
此三	-10.5865
又能	-10.5865
於無量劫	-10.5871
此非	-10.5873
于時	-10.5876
與之	-10.5877
如是行者	-10.5878
檀越	-10.5881
是觀	-10.5889
歡	-10.5893
皆生	-10.5894
不眴菩薩	-10.5895
舍摩他	-10.5902
過去世	-10.5905
佛輪	-10.5907
乃是	-10.5908
說呪曰	-10.5909
涅槃道	-10.591
即見	-10.5911
無障	-10.5916
不害	-10.5916
向佛	-10.5921
悉無	-10.5922
焉	-10.5927
諸寶	-10.5927
不欲	-10.5929
爾乃	-10.5939
閻羅	-10.5941
藥上菩提薩埵	-10.5942
無可	-10.5943
出現	-10.5944
以慧	-10.5945
諸菩薩問佛	-10.5951
佛問諸菩薩	-10.5953
忿	-10.5954
作是觀已	-10.5957
若斯	-10.5957
豐	-10.5958
謫罰	-10.5958
漸漸	-10.5959
結加趺坐	-10.5961
擾亂	-10.5962
田宅	-10.5963
伐	-10.5964
伽樓羅	-10.5964
三月	-10.5965
大寶坊中	-10.5966
逮成佛道	-10.5968
太	-10.5968
障蔽	-10.597
以權方便	-10.5972
竪	-10.5972
不喜	-10.5973
七覺分	-10.5974
牢獄	-10.5974
告言	-10.5976
毒藥	-10.5979
毫	-10.5979
人中尊	-10.5981
周旋	-10.5981
娑婆呵	-10.5984
植	-10.5984
屈	-10.5986
了達	-10.5987
翅	-10.5988
召	-10.5989
攝護養育	-10.5989
慰	-10.5991
雞	-10.5991
齒	-10.5993
不肯	-10.5993
詳	-10.5995
魚	-10.6001
無量劫	-10.6003
諸天世人	-10.6006
仍	-10.6007
獻	-10.6008
已曾	-10.6008
不虛	-10.601
有如是等	-10.6011
分明	-10.6013
中出	-10.6014
能令一切	-10.6015
名如法住	-10.6016
魔言	-10.6016
無上大乘	-10.6016
其國	-10.6019
能得成就	-10.6019
我今以彼	-10.602
念誦	-10.602
沉	-10.602
有生	-10.6021
見之	-10.6021
一切諸法亦復如是	-10.6022
嚴淨	-10.6022
江	-10.6022
法味	-10.6023
雖知	-10.6025
默	-10.6028
修忍	-10.6033
三惡趣	-10.6033
勤修精進	-10.6034
毒蛇	-10.6039
翼	-10.604
何等為三	-10.6048
今以	-10.6049
不悔	-10.6052
戒禁	-10.6053
皆發阿耨多羅三藐三菩提心	-10.6062
報恩	-10.6063
幻化	-10.6067
令離	-10.6068
非常	-10.6068
一切苦	-10.6076
苗稼	-10.6078
佛事	-10.6081
功德莊嚴	-10.6082
此佛剎	-10.6084
令彼眾生	-10.6087
性空	-10.6087
度彼岸	-10.6088
十二緣	-10.6094
樂修	-10.6101
遍知	-10.6104
修定	-10.6104
中有一	-10.6105
夢中	-10.6107
法寶	-10.6115
敢	-10.6118
業感	-10.6119
同於	-10.6126
於虛空	-10.6128
是定	-10.6132
若作	-10.6133
十方諸	-10.614
八萬	-10.614
得此三昧	-10.614
多羅樹	-10.614
眾多	-10.6141
四十四	-10.6148
則知	-10.6149
其名曰	-10.6152
電	-10.6155
受安樂	-10.6159
大陀羅尼	-10.616
水中	-10.616
黨	-10.6164
當有	-10.6167
正智	-10.6175
是苦	-10.6179
實非	-10.6182
乏少	-10.6184
無量無邊阿僧祇	-10.6198
大論	-10.6199
賤	-10.6201
禮佛	-10.6201
故能	-10.6202
此界	-10.6212
一切行	-10.6213
但為	-10.6218
菩薩爾時	-10.6219
愧	-10.6223
一處	-10.6232
術	-10.6238
階	-10.6238
犯根本重罪	-10.6242
心清淨	-10.6243
電光	-10.6244
非人	-10.6246
如日	-10.6249
百劫	-10.6251
更無	-10.6252
令不	-10.6252
普為一切	-10.6253
無勝	-10.6254
百千劫	-10.6256
十五日	-10.626
驚	-10.6261
欲來	-10.6272
以偈讚	-10.6277
聞此三昧	-10.6278
此二	-10.6283
見於	-10.6284
平等心	-10.6288
不能自	-10.6291
停	-10.6291
平等無二	-10.6294
供養諸佛	-10.6302
城邑聚落	-10.6304
魔子	-10.6307
懼	-10.631
狂亂	-10.6312
忍力	-10.6315
箕宿	-10.6317
不善法	-10.6318
虛空孕菩薩	-10.6318
世尊所	-10.6318
是初發	-10.632
羅國	-10.6323
瞋恨	-10.6324
爛	-10.6328
及其	-10.6331
設有	-10.6331
復令	-10.6332
瑞	-10.6335
迹	-10.6337
住此	-10.6337
如是經典	-10.6338
白彼佛言	-10.634
猶若虛空	-10.6343
我我所	-10.6344
惟願	-10.6346
譏	-10.6347
度世	-10.635
堅持	-10.6355
二萬	-10.6357
富伽羅	-10.6358
却坐一面	-10.636
不須	-10.6361
羅睺羅阿修羅王	-10.6361
質直	-10.6362
得阿羅漢果	-10.6362
一百	-10.6363
大悲心	-10.6365
即從坐起	-10.6366
我曹	-10.6366
慳悋	-10.637
一切世界	-10.637
良醫	-10.6371
多地也他	-10.6371
法樂	-10.6372
與虛空等	-10.6373
禽獸	-10.6373
三昧正受	-10.6374
敷演	-10.6375
佛告藥上菩提薩埵	-10.6375
或求	-10.6375
方等	-10.6376
栽	-10.6376
豐饒	-10.6377
優	-10.6381
吐	-10.6381
爾時世尊	-10.6384
珊瑚	-10.6385
憐	-10.6385
阿羅漢果	-10.6385
所樂	-10.6386
鳴	-10.6389
所著	-10.6389
長養	-10.6392
育	-10.6392
伺察門	-10.6393
具大慈悲	-10.6394
大菩提	-10.6395
彼則	-10.6395
忽然	-10.6396
教誨	-10.6398
涅槃之道	-10.6398
日藏	-10.6398
無厭足	-10.6399
會中有	-10.64
花鬘	-10.64
氏	-10.6401
無病	-10.6401
請問如來	-10.6402
苦痛	-10.6403
者則	-10.6404
栴檀香	-10.641
潛	-10.6413
無有障礙	-10.6413
得受記	-10.6416
各異	-10.6419
之苦	-10.6422
當於	-10.6422
大地獄	-10.6423
生起	-10.6426
根源	-10.6427
之難	-10.6431
生死流轉	-10.6432
其中眾生	-10.6433
俗人	-10.6437
威光	-10.644
愈	-10.6441
不眴	-10.6442
所獲	-10.6446
復得	-10.6449
一向	-10.645
若男	-10.6451
婬欲	-10.6452
遍照	-10.6453
於身	-10.6454
能使	-10.6456
亦說無	-10.647
大集會	-10.6474
斗	-10.6475
如是名為	-10.648
藥王軍菩薩	-10.6481
須陀洹	-10.6481
四十六	-10.6483
若是	-10.6486
百千億	-10.6487
如本	-10.6488
塵欲	-10.6491
大乘者	-10.6491
施戒	-10.6497
普勇菩薩	-10.6498
離散	-10.65
一子	-10.65
不識	-10.6501
氐宿	-10.6506
以手	-10.6507
又其	-10.6508
汝等應當	-10.651
既得	-10.6516
定慧	-10.6518
莫能	-10.6519
下方	-10.6523
常求	-10.6525
滅定	-10.6529
千萬	-10.6533
能盡	-10.6536
於色	-10.6537
佛弟子	-10.6537
慈悲心	-10.6542
學是三昧	-10.6558
我欲	-10.6565
其佛	-10.6573
眾生得	-10.6573
天主	-10.6589
作佛事	-10.6591
見如	-10.66
諸通	-10.6603
解釋	-10.6605
為眾生說	-10.6608
來者	-10.6609
來世	-10.6612
常為一切	-10.6613
大光明	-10.6614
超勝一切聲	-10.6618
九十九	-10.6619
能發	-10.6619
墮惡道	-10.6619
寶德	-10.662
住世	-10.6621
道中	-10.6624
於諸如來	-10.6625
婆囉	-10.6625
不久當	-10.6627
無明闇	-10.6628
猶如大海	-10.6634
三萬	-10.6635
劫名	-10.6636
無出	-10.6641
四攝	-10.6643
得脫	-10.6646
同是	-10.6647
卒	-10.6649
彼即	-10.6651
熾	-10.6652
眾生煩惱	-10.6652
第八	-10.6652
智光	-10.6654
光照	-10.6658
如是一切	-10.6659
此之	-10.6659
種種色	-10.6664
依法	-10.6668
常有	-10.6669
不能動	-10.6669
能到	-10.6676
樂行	-10.6679
於大乘法	-10.6679
眼見	-10.6684
之功	-10.6689
能調	-10.6691
心淨	-10.6693
盡力	-10.6697
未生	-10.6699
彼亦	-10.6707
由旬	-10.6707
說偈	-10.6708
兜	-10.6709
恩愛	-10.6712
成就眾生	-10.6712
何謂菩薩	-10.6715
高下	-10.6717
生歡喜	-10.6717
眼目	-10.6721
時舍利弗	-10.6723
得法	-10.6725
於一切處	-10.6731
隨彼	-10.6732
啟	-10.6749
看	-10.6751
見他	-10.6753
億那由他	-10.6755
競	-10.6761
能滿	-10.6761
婦女	-10.6761
二百	-10.6764
詞	-10.6767
來集	-10.6771
巧方便	-10.6773
剎利旃陀羅	-10.6776
踊	-10.6776
所入	-10.6777
童男童女	-10.678
工巧	-10.678
苦海	-10.678
而修	-10.6781
不妄置立	-10.6782
諛諂	-10.6782
承他音	-10.6784
菩	-10.6785
群	-10.6786
渴愛	-10.6787
沈	-10.6787
胃宿	-10.6787
此義	-10.6788
叢林	-10.6788
四正勤	-10.6789
八聖道分	-10.6789
飢	-10.679
此經典	-10.679
炬	-10.6791
何等為五	-10.6791
資具	-10.6792
弟	-10.6792
枯涸	-10.6794
非法器	-10.6794
嶮	-10.6795
汝今諦聽	-10.6795
伏藏	-10.6795
微細	-10.6796
惡王	-10.6796
善權方便	-10.6797
而是	-10.6797
日用事	-10.6797
生希有心	-10.6799
聽受正法	-10.6801
眼色	-10.6802
統	-10.6802
塔廟	-10.6803
昏	-10.6803
合會	-10.6804
返	-10.6805
容受	-10.6805
瘡	-10.6805
斬	-10.6806
訶䫂	-10.6807
改	-10.6808
其無	-10.6808
彼岸故	-10.681
驅	-10.6811
庶	-10.6811
羊	-10.6812
禪思	-10.6816
為他人說	-10.6817
能分別	-10.6817
不貪著	-10.6819
藉	-10.6821
無缺	-10.6822
皆應	-10.6822
一偈	-10.6825
案	-10.6829
六通	-10.6831
摩呵	-10.6831
司	-10.6832
見其	-10.6833
託	-10.6836
本來	-10.6839
向彼	-10.6839
時王	-10.684
作師子吼	-10.6841
為人說	-10.6846
何因	-10.6848
所化	-10.6858
所集	-10.6863
常能	-10.6867
在此	-10.687
為愛	-10.6886
法時	-10.6887
如風	-10.6888
不雜	-10.6897
如是觀已	-10.6903
因緣法	-10.6904
毀禁	-10.6907
定根	-10.6907
調眾生	-10.6913
大涅槃	-10.6913
所因	-10.6914
油	-10.6926
我之	-10.6927
一切佛剎	-10.6928
勝智	-10.6929
欲令眾生	-10.6931
四十八	-10.6931
兩手	-10.6931
資財	-10.6933
海中	-10.6936
甚大	-10.6947
經卷	-10.6948
盡智	-10.6951
明識	-10.6951
何等法	-10.6955
其心清淨	-10.6962
遙見	-10.6962
讀經	-10.6965
若離	-10.6969
山王	-10.6972
極惡	-10.6975
所有善根	-10.6991
眾德	-10.6994
猗	-10.6996
大菩薩	-10.6998
大名稱	-10.7
其光	-10.7001
不以為	-10.7003
一類	-10.7007
無自性	-10.7013
彼佛言	-10.7015
不誑	-10.7019
知我	-10.702
如是三	-10.7027
奎宿	-10.7034
張宿	-10.7035
除斷	-10.7036
凡所	-10.7045
婇女	-10.7047
無量劫中	-10.7048
所問經	-10.7058
彼王	-10.706
於諸有情	-10.7061
知諸眾生	-10.7062
最初	-10.7066
若女	-10.707
離相	-10.7077
下至	-10.7082
乃得	-10.709
可見	-10.7096
奢摩	-10.7096
無有邊際	-10.7099
慧命	-10.71
摩醯首羅	-10.71
常與	-10.7102
見十方	-10.7105
種類	-10.7113
五趣	-10.7113
退沒	-10.7118
海水	-10.7127
八法	-10.7127
是空	-10.7128
八千	-10.7131
善語	-10.7131
善利	-10.7132
法空	-10.7137
皆同	-10.7138
誰當	-10.7138
受之	-10.714
穢濁	-10.7143
諸結	-10.7152
震	-10.7153
承事供養	-10.7153
一切法界	-10.7153
觀世音菩薩	-10.7163
能示	-10.7164
善分別	-10.7167
自在力	-10.7168
轉增	-10.7169
之內	-10.7173
聞正法	-10.7175
處於	-10.7176
翼宿	-10.7178
佛神力故	-10.7183
發起精進	-10.7188
至彼	-10.719
陰入界	-10.719
心所	-10.7192
優波離	-10.7193
華嚴	-10.7194
動轉	-10.7194
問訊	-10.7196
四十三	-10.7197
從其	-10.7197
者是	-10.7197
初發心菩薩	-10.7198
卷第十	-10.7198
雄	-10.72
尚不能	-10.7201
天藏大梵	-10.7202
識處	-10.7204
菩薩不退印	-10.7206
為惡	-10.721
莖	-10.721
作是觀時	-10.7211
說是偈已	-10.7213
入於涅槃	-10.7215
非積聚不可	-10.7216
大乘大集地藏十輪經	-10.7216
即與	-10.7218
而度脫之	-10.7219
到於彼岸	-10.7219
禰	-10.722
鮮潔	-10.7221
屋宅	-10.7221
當復	-10.7222
良藥	-10.7222
馬瑙	-10.7222
巨	-10.7223
助歡喜	-10.7223
善家子善家女	-10.7224
醉	-10.7225
奇哉	-10.7225
諸菩薩報佛	-10.7225
三脫門	-10.7226
𠼝	-10.7226
[	-10.7227
男夫婦女	-10.7227
阿須倫	-10.7228
怪	-10.7232
丘	-10.7234
受勝妙樂	-10.7234
漂	-10.7234
清淨者	-10.7238
次復	-10.724
音響	-10.7242
勒	-10.7247
胸	-10.7247
愆	-10.7248
知識無	-10.7249
無有邊	-10.7249
而此	-10.7249
明見	-10.725
危宿	-10.725
喪	-10.725
可謂	-10.7251
佛告寶女	-10.7252
較	-10.7252
延	-10.7252
迫	-10.7253
法性爾	-10.7256
凶	-10.7256
之德	-10.7257
它	-10.7258
彰	-10.726
以智慧	-10.7261
彼菩薩摩訶薩	-10.7261
無眾生	-10.7264
駈	-10.7265
達摩	-10.7266
秪	-10.7271
一切諸眾生	-10.7271
而為供養	-10.7275
!』	-10.7279
諸色	-10.728
智故	-10.7282
順忍	-10.7284
渴仰	-10.7284
大威德	-10.7288
大利益	-10.7293
無聲	-10.7295
聖教	-10.7295
生苦	-10.7298
高座	-10.7298
而知	-10.7299
之數	-10.7305
安忍	-10.7306
利樂	-10.7307
諸惡眾生	-10.7309
廢	-10.7309
世中	-10.7311
常自	-10.7312
惡報	-10.7315
正命	-10.7317
於一	-10.7318
佛告阿難	-10.7321
財施	-10.7321
法座	-10.7324
等日	-10.7325
皆已	-10.7326
有四種	-10.7326
了義	-10.7328
出時	-10.7335
深義	-10.7339
造惡業	-10.734
當得阿耨多羅三藐三菩提	-10.7342
智海	-10.7345
所立	-10.7345
法相	-10.7346
若遇	-10.735
法行比丘	-10.7353
想念	-10.7353
彼佛世界	-10.7362
陰蓋	-10.7366
之間	-10.7366
不絕	-10.7368
繩	-10.7372
其上	-10.7373
眾事	-10.7373
如來身	-10.7374
眾中有	-10.7381
恃	-10.7381
空三昧	-10.7386
斯等	-10.7389
群生	-10.7391
寶手	-10.7393
大自在	-10.7393
波利	-10.7396
契	-10.7401
是名為慧	-10.7403
具足如是	-10.7406
相者	-10.7411
所為	-10.7416
忍者	-10.7433
罪過	-10.7434
一切功德	-10.7445
得離	-10.7448
婁	-10.7459
善見	-10.7464
世事	-10.7484
諸事	-10.7488
能除一切	-10.7489
皆來	-10.7491
井宿	-10.7493
爾所	-10.7508
有何	-10.7511
變為	-10.7513
諸佛菩薩	-10.7513
法光明	-10.7515
舍婆	-10.7518
得大自在	-10.7521
倚	-10.7526
一生	-10.7528
必定	-10.7529
於自	-10.7529
必得	-10.7532
證菩提	-10.7541
恭敬禮拜	-10.7546
亦離	-10.7547
魔軍	-10.7553
兼	-10.7554
城中	-10.7555
供養世尊	-10.7556
勝菩提	-10.7557
是持	-10.7563
為緣	-10.7566
諸天子	-10.7568
諸物	-10.757
弊	-10.7574
非不	-10.7576
苦受	-10.7588
大梵王	-10.759
欲知	-10.7591
百千萬	-10.7594
由彼	-10.7597
一字	-10.7599
定力	-10.7601
殿	-10.7602
悉入	-10.7604
不思	-10.7607
失行	-10.7608
經行	-10.761
業果	-10.761
假令	-10.7613
以佛	-10.7613
黠	-10.7616
不和合	-10.7621
上中下	-10.7622
所有功德	-10.7623
智慧莊嚴	-10.7624
謂菩薩	-10.7625
聖智	-10.7628
空性	-10.7628
無底	-10.763
普皆	-10.7631
大導師	-10.7632
三事	-10.7641
此閻浮提	-10.7641
譬如大海	-10.7643
各以	-10.7643
積聚	-10.7645
廣宣	-10.7646
於斯	-10.7648
樓閣	-10.7648
觀諸法	-10.765
逼迫	-10.7653
斷常	-10.7654
得不退轉	-10.7654
憍	-10.7654
眾善	-10.7656
係	-10.766
淨光	-10.7664
聖諦	-10.7664
不輕	-10.7665
諸魔眾	-10.7666
寤	-10.7666
名為淨印	-10.7666
滿足六波羅蜜	-10.767
觀眾生	-10.7671
梯	-10.7672
幡	-10.7672
=	-10.7675
佛教	-10.7675
黎庶	-10.7676
漿	-10.7676
嫌	-10.7676
墮於惡道	-10.7678
荒	-10.7678
朗	-10.7679
不求果報	-10.7679
揭	-10.7679
事者	-10.7679
善趣	-10.768
一切五欲皆	-10.7681
參宿	-10.7681
不增不減	-10.7681
畢宿	-10.7682
莎波呵	-10.7684
人非人	-10.7684
恐畏	-10.7685
傾	-10.7685
又其處者	-10.7685
厚	-10.7685
將來	-10.7687
積累	-10.7687
覆蔽	-10.7687
諸惡業障	-10.7687
灌	-10.7689
是名曰	-10.7689
涌	-10.7689
活命	-10.769
逸	-10.7691
已到第一	-10.7693
增進	-10.7694
妻	-10.7694
於三寶中	-10.7694
非想	-10.7694
居家	-10.7696
覆藏	-10.7696
逼切	-10.7697
折	-10.7697
昧	-10.7697
汦	-10.7699
自謂	-10.7699
之想	-10.7699
穢惡	-10.77
有能至心稱名	-10.77
無有差別	-10.7704
陵	-10.7706
下賤	-10.7706
此言	-10.7709
借	-10.7709
抱	-10.7714
附	-10.7715
半月	-10.7717
以天	-10.7717
聖母	-10.7721
惡不善法	-10.7722
皆成	-10.7722
四事	-10.7725
陀那	-10.7725
阿鼻	-10.7726
先當	-10.7729
名譽	-10.7731
審諦	-10.7737
助道	-10.7738
天眾	-10.774
無覺觀	-10.7741
陀羅尼門	-10.7742
甚深經典	-10.7743
汁	-10.7745
青色	-10.7747
鬼宿	-10.7749
而言	-10.7749
三寶種	-10.7749
種種莊嚴	-10.7755
微塵等	-10.7757
空相	-10.7757
心法	-10.7757
出要	-10.7758
猛	-10.776
長者子	-10.7761
一切諸行	-10.7762
生怖畏	-10.7764
曠	-10.7764
大梵天	-10.7767
得勝	-10.7769
此處	-10.7769
善師	-10.7773
具大	-10.7774
諸國土	-10.7774
集故	-10.7777
平正	-10.778
神通變化	-10.778
此間	-10.778
一面	-10.7782
根本罪	-10.779
疑心	-10.7792
菩提行	-10.7793
福業	-10.7794
法而	-10.78
二邊	-10.78
菩薩所	-10.7806
住在	-10.7808
四十七	-10.7809
流轉生死	-10.7811
菩提樹下	-10.7816
能護	-10.7817
即無	-10.7818
善女人等	-10.7824
得至	-10.7825
拔濟	-10.7827
若入	-10.7827
宿等日	-10.7828
令入	-10.7828
一切諸龍	-10.7835
而不能	-10.7836
而彼菩薩	-10.7838
知此	-10.7838
火燒	-10.7839
化人	-10.7841
普為	-10.7842
邪論	-10.7844
三道	-10.7845
如是乃能	-10.7846
天人大眾	-10.785
地上	-10.7853
心所念	-10.7853
諸龍王	-10.7853
之前	-10.7857
無所從來	-10.7858
無戲論	-10.786
而亦	-10.7861
據	-10.7867
增減	-10.7868
行人	-10.7868
施福	-10.7873
亢宿	-10.7874
修諸	-10.7876
成道	-10.7877
有五	-10.7886
道意	-10.7892
我等亦	-10.7892
如來十力	-10.7895
受諸	-10.7896
九十五	-10.7904
亦與	-10.7905
獨覺乘法	-10.7906
豈非	-10.7907
之寶	-10.7907
自得	-10.7909
四魔	-10.7913
一一皆	-10.792
哭	-10.7921
悔過	-10.7926
威神力故	-10.7934
彼等眾生	-10.7948
嘍	-10.795
行道	-10.795
龍神	-10.7951
六種	-10.7957
初禪	-10.7958
我常	-10.7961
為菩薩	-10.7966
諸病	-10.7968
食之	-10.7968
金剛䐡	-10.7971
未曾聞	-10.7971
欲塵	-10.7973
當云何	-10.7975
不懈	-10.7977
柔	-10.7977
繫心	-10.7979
能救	-10.7992
初心	-10.7995
即生	-10.7996
首楞嚴三昧	-10.8007
說此法門	-10.801
如是等人	-10.8014
種種諸	-10.8016
奉施	-10.802
法句	-10.8024
第四禪	-10.8027
聲聞獨覺	-10.8031
作種種	-10.8039
瑕穢	-10.804
了了知	-10.8047
大光	-10.8047
大眾中	-10.8057
世諦	-10.8058
除一切	-10.8059
所謂識	-10.806
能摧	-10.8062
增上慢	-10.8062
相違	-10.8063
厭患	-10.8078
見是	-10.8079
修供養	-10.8079
弭	-10.808
辟宿	-10.808
復滅	-10.8081
最大	-10.8088
標	-10.8092
黑暗	-10.8094
牢固	-10.8097
則無有	-10.8098
有是	-10.8099
侵奪	-10.8103
見一切法	-10.8105
善根故	-10.8107
商主	-10.8109
法教	-10.8109
光明照	-10.8113
知一切法無	-10.8115
空閑	-10.8117
帝王	-10.8119
毒害	-10.8125
滯	-10.8126
施時	-10.8129
隨有	-10.813
五十三	-10.8131
愚人	-10.8138
無言說	-10.8138
無憂	-10.8139
沈水	-10.8142
菩薩若能	-10.8142
非想非非想處	-10.8142
顏	-10.8143
從心	-10.8143
吾當為汝分別解說	-10.8144
呵罵	-10.8144
月藏菩薩摩訶薩	-10.8145
默然而住	-10.8145
相似	-10.8148
長跪合掌	-10.8148
將養	-10.8149
却住一面	-10.8149
威儀禮節	-10.815
并諸眷屬	-10.815
得福	-10.815
蘇婆呵	-10.8151
佛爾時頌偈	-10.8151
堅強	-10.8151
歸依三寶	-10.8152
娑伽羅龍王	-10.8153
務	-10.8153
見是事已	-10.8154
獲十種功德	-10.8154
目連	-10.8154
須彌山王	-10.8155
於一念頃	-10.8155
村	-10.8156
耆闍崛山	-10.8156
心如實知	-10.8157
蓰	-10.8158
正慧	-10.8158
覆護	-10.8159
思量	-10.816
而現	-10.816
大功德	-10.816
次復置	-10.8161
險	-10.8161
涉	-10.8161
䫂	-10.8162
受其	-10.8162
誤	-10.8162
隣	-10.8163
觜宿	-10.8163
若是法器	-10.8164
四十九	-10.8166
天龍八部	-10.8166
能自	-10.8168
無等倫	-10.8168
藥叉	-10.8169
銷	-10.8169
開悟	-10.8169
無量佛	-10.817
諸三摩地	-10.817
六衰	-10.8171
嗅	-10.8171
保	-10.8172
神通之力	-10.8173
疏	-10.8174
童女	-10.8174
剛	-10.8175
樂說無礙	-10.8175
供養地藏菩薩摩訶薩者	-10.8177
洪	-10.8177
是三昧者	-10.8177
正位	-10.8177
與諸眷屬	-10.8178
精還	-10.8179
是經典	-10.8179
出息	-10.8179
牛王	-10.8179
造罪	-10.818
淺	-10.8181
親屬	-10.8181
泯	-10.8182
雲集	-10.8182
作是說	-10.8182
當生	-10.8182
他世	-10.8185
父王	-10.8185
南洲	-10.8186
若非法器	-10.8188
妙行	-10.8189
荷	-10.819
釋梵護世	-10.8191
明智	-10.8198
得解	-10.8198
為多不	-10.8199
若念	-10.82
聖賢	-10.8201
劍	-10.8201
無有住處	-10.8201
四流	-10.8203
險道	-10.8204
真金	-10.8204
得安隱	-10.8204
財業	-10.8207
慈悲喜捨	-10.8208
比丘言	-10.8209
判	-10.8209
四法	-10.821
如是念已	-10.8211
而得自在	-10.8213
考	-10.8215
名瓔珞莊嚴	-10.8215
供養已	-10.8218
無量眾	-10.8219
可知	-10.8226
十方界	-10.8228
合成	-10.8233
十二者	-10.824
無始	-10.8242
錯	-10.8245
好色	-10.8247
勝上	-10.8252
天帝	-10.8254
以自	-10.8257
五千	-10.8259
順法	-10.826
其力	-10.8265
專心	-10.8265
眼根	-10.8268
如應	-10.8271
山林	-10.8273
諍論	-10.8274
而說	-10.8274
末世	-10.8275
汝等當	-10.8283
之源	-10.8283
時佛	-10.8286
朋	-10.8289
無處所	-10.829
勝法	-10.8292
其順法者	-10.8294
有相	-10.8297
聞經	-10.8298
犯罪	-10.8301
勸令	-10.8305
摩訶薩言	-10.8312
修治	-10.8314
此四	-10.8318
難及	-10.8323
帝釋天	-10.8327
茲	-10.8328
鈍根	-10.8333
安止	-10.8335
為一切眾生	-10.8338
詣彼	-10.8342
心宿	-10.8342
聽經	-10.8343
佛性	-10.8345
樂求	-10.8346
現作	-10.835
』	-10.8356
往生	-10.8356
髓	-10.8356
彼中	-10.8357
亦空	-10.8358
如須彌	-10.836
曼	-10.8361
若善男子	-10.837
道慧	-10.8375
一切如來	-10.8375
攝心	-10.8377
作是念已	-10.8383
如大海	-10.8385
念過去	-10.8387
死苦	-10.8387
持禁戒	-10.84
受苦惱	-10.8402
勿令	-10.8402
無退	-10.8403
十由旬	-10.8403
偽	-10.8404
心歡喜	-10.8405
跋帝	-10.8405
牛宿	-10.8407
其志	-10.8407
清淨持戒	-10.8409
作事	-10.841
如是功德	-10.8411
蓮華上	-10.8412
在中	-10.8412
無念	-10.842
觀彼	-10.8427
欲聞	-10.8429
變成	-10.8431
之子	-10.8432
修禪定	-10.8434
常應	-10.8435
誦經	-10.8436
成菩提	-10.8443
四生	-10.8451
我住	-10.8458
種種寶	-10.8459
清淨戒	-10.8462
成就阿耨多羅三藐三菩提	-10.8473
無所見	-10.8473
謂一切法	-10.8473
入空	-10.8474
誦持	-10.8477
苦報	-10.8478
阿摩	-10.8485
此名能	-10.8487
由此定	-10.8487
惡色	-10.8488
損耗	-10.8492
皆悉平等	-10.8496
阿蘭若	-10.8497
毗	-10.8503
住大乘	-10.8506
聞是法	-10.851
汝能	-10.8512
無命	-10.8512
觀之	-10.8512
寶莊嚴	-10.8514
諸阿修羅	-10.8517
寶星陀羅尼經	-10.852
一切人民	-10.852
之文	-10.8521
無身	-10.8523
十一者	-10.8523
無盡意菩薩	-10.8527
觀諸	-10.8534
有德	-10.8536
形相	-10.8541
世尊知	-10.8541
自致	-10.8543
上首	-10.8549
本行	-10.855
無我我所	-10.8553
能受持	-10.8555
!「	-10.8566
不厭	-10.8569
跋陀和	-10.8569
四天王天	-10.8572
歸依佛	-10.8574
世尊復	-10.8575
九十	-10.8576
是亦	-10.858
佛子	-10.8585
不得行	-10.8586
釋迦牟尼	-10.8589
散滅	-10.8591
一切佛法亦	-10.8592
大罪	-10.8595
鐵圍	-10.8598
如月	-10.86
世尊即	-10.8603
不有	-10.8606
大海水	-10.8606
世間人	-10.8608
異相	-10.8612
僧物	-10.8612
不現	-10.8617
口中	-10.8621
真陀羅	-10.8624
說經	-10.8624
莊嚴其身	-10.8625
大丈夫	-10.8626
所獲福聚	-10.8627
不空見菩薩	-10.8633
身不	-10.8635
如何	-10.8637
憙	-10.8639
轉於	-10.8639
婦	-10.8641
賜	-10.8641
我今欲	-10.8641
奈	-10.8644
其罪	-10.8645
不當	-10.8646
諸忍諸地	-10.8646
頻婆羅	-10.8646
夜叉大將	-10.8647
色無	-10.8647
算數譬喻所不能及	-10.8649
讁罰	-10.8649
知色無	-10.865
採	-10.865
膝	-10.865
叉手	-10.8652
悲泣	-10.8652
槃	-10.8653
有大勢力	-10.8653
異口同音	-10.8653
傾動	-10.8653
逼惱	-10.8653
娑婆世界主大梵天王	-10.8654
墮諸惡趣	-10.8654
狗	-10.8654
呪術	-10.8657
於汝意云何	-10.8657
纏縛	-10.8659
如前所說	-10.8659
聾	-10.866
深固	-10.866
選擇	-10.8661
早	-10.8662
坐道場	-10.8663
讖	-10.8663
按云	-10.8664
諸國	-10.8665
闡	-10.8665
得法眼淨	-10.8665
非因	-10.8666
復有二種	-10.8669
及與眷屬	-10.8669
雅	-10.8669
救世	-10.8669
破戒比丘	-10.867
繫屬	-10.8671
諸華	-10.8673
如是大悲出	-10.8673
淳至	-10.8673
五無間罪	-10.8674
崩	-10.8674
自歸	-10.8675
生大歡喜	-10.8676
過去未來現在	-10.8676
四真諦	-10.8677
受是	-10.8678
纔	-10.868
值佛	-10.868
安置生天	-10.868
猶如金剛	-10.8681
聞之	-10.8681
得淨	-10.8681
四攝法	-10.8682
現前三昧	-10.8682
朝	-10.8683
正典	-10.8684
淫	-10.8685
聲聞之人	-10.8686
按	-10.8687
空無相無願	-10.8688
局	-10.8693
於法界	-10.8693
歟	-10.8695
發於	-10.8696
為欲欲	-10.8699
至此	-10.8704
檀那	-10.8705
惟佛	-10.8705
閻浮眾生	-10.871
是真	-10.871
以此善根	-10.8711
無依行	-10.8711
悉以	-10.8717
之像	-10.8717
自恣	-10.872
我佛	-10.8724
盡滅	-10.8726
音聲故	-10.873
能淨於	-10.8732
百八十	-10.8734
得無所畏	-10.8735
長短	-10.8736
有為無為	-10.8737
是我	-10.8741
於後	-10.8741
作如是等	-10.8742
』,	-10.8742
為供養	-10.8745
無有疑	-10.8746
所愛	-10.8748
何者為	-10.875
正業	-10.8757
妄言	-10.8758
亦復不能	-10.876
阿鼻地獄	-10.8762
喻如	-10.8764
牛頭栴檀	-10.8764
非空	-10.8766
燒身	-10.877
勝解	-10.877
四無畏	-10.8771
為利	-10.8771
彼族姓子	-10.8774
見釋迦牟尼佛	-10.8776
法幢	-10.8776
流出	-10.878
若言	-10.8782
出於	-10.8784
脫門	-10.8791
大富	-10.8793
數量	-10.8795
三結	-10.8806
不得勝	-10.8806
不計	-10.8808
其明	-10.8811
尊敬	-10.8814
置於	-10.8815
於一切時	-10.8817
好聲	-10.8817
菩薩不共法	-10.882
於佛所	-10.8821
定心	-10.8822
無物	-10.8824
為破	-10.8826
得見佛	-10.8828
止住	-10.8834
觀諸眾生	-10.8839
上音	-10.884
菩薩得是	-10.8842
常處	-10.8843
名大	-10.8845
無有我	-10.8847
初發心	-10.8849
不墮惡道	-10.8851
寶洲	-10.8855
角宿	-10.8856
開解	-10.8857
無有能	-10.8858
於三寶	-10.8861
天衣	-10.8862
除愈	-10.8865
他故	-10.8871
月光	-10.8872
來此	-10.8873
熱銕	-10.8874
復見	-10.8874
佛神力	-10.8875
行步	-10.8876
彼法	-10.8878
能作如是	-10.8878
正知	-10.8881
旨	-10.8882
二字	-10.8882
皆因	-10.8885
此翻	-10.8887
受諸苦	-10.8887
無邊身	-10.8889
修因	-10.889
現在諸佛	-10.8892
最上之	-10.8892
自用	-10.8895
才	-10.8898
為難	-10.89
既聞	-10.8904
復應	-10.8906
如是次第	-10.8915
道德	-10.8916
法已	-10.8916
可畏	-10.8919
非即	-10.892
虛空界	-10.8921
靡	-10.8921
惡龍	-10.8925
害心	-10.8928
滿月	-10.8931
超過	-10.8932
大千	-10.8936
彼於	-10.8943
須知	-10.8944
他身	-10.8945
當得成佛	-10.8948
一切外道	-10.8948
及見	-10.895
意止	-10.8953
悉具足	-10.8954
善丈夫	-10.8956
有十	-10.8959
又令	-10.896
利國	-10.8965
色陰	-10.8968
應受	-10.8971
辟	-10.8971
當如是	-10.8977
不善業	-10.898
唱言	-10.898
枉	-10.8981
不可壞	-10.8983
瞋心	-10.8983
復欲	-10.8985
眾生精氣	-10.8986
我亦如是	-10.8987
滿中	-10.8987
不敬	-10.8987
可以	-10.8987
六種震動	-10.8988
三解脫	-10.8995
梵音	-10.8996
者也	-10.8998
婆帝	-10.9005
跋陀和菩薩	-10.9006
住是	-10.9007
健	-10.9007
如影	-10.9007
觀是	-10.9011
不順	-10.9018
一眾生	-10.9018
說者	-10.9019
是喜	-10.9023
或於	-10.9025
諸禪定	-10.9025
誑惑	-10.9028
摩摩	-10.9037
來詣	-10.9042
阿難陀	-10.9045
多諸	-10.9046
沫	-10.9051
至佛所	-10.9058
入淨	-10.9058
彼無	-10.9061
例	-10.9061
悉來	-10.9065
我當云何	-10.907
令彼佛土一切	-10.9072
雜染	-10.9073
不學	-10.9074
猶如幻	-10.908
測	-10.9084
無思	-10.9087
聖女	-10.9091
國中	-10.9093
於涅槃	-10.9094
皆來集會	-10.9101
病者	-10.9101
修菩薩行	-10.9103
虛空藏答	-10.9105
等苦	-10.9105
惡獸	-10.9106
羸劣	-10.9106
』「	-10.9107
五蓋	-10.9108
彼諸如來	-10.9113
無法	-10.9114
恒河沙等諸佛世界	-10.9114
法無	-10.9115
諸妙	-10.9116
以供養	-10.912
即還入	-10.9123
三昧者	-10.9124
若住	-10.9125
常作	-10.9126
諸來大眾	-10.9128
我知	-10.9129
其音	-10.9131
不苦不樂	-10.9131
無間地獄	-10.9132
之要	-10.9132
誨	-10.9135
心自在	-10.9138
生隨喜	-10.9138
洗浴	-10.9139
大覺	-10.9144
眾生之類	-10.9147
顧	-10.9147
何也	-10.9151
力能	-10.9153
不見眾生	-10.9156
眼所見中色	-10.9156
耳所聞惡聲	-10.9157
鼻所聞好香	-10.9157
耳所聞中聲	-10.9157
優波底沙	-10.9158
是名聞聲	-10.9158
眼所見惡色	-10.9158
墮三惡道	-10.9159
口所得惡味惡語言	-10.9159
入于	-10.916
而用	-10.916
斯有是處	-10.9163
中有五百四十百八愛行	-10.9164
便滅	-10.9164
深入	-10.9166
何有	-10.9167
所獲功德	-10.9168
憺怕	-10.9169
因緣著痛	-10.9169
演說正法	-10.917
無滅	-10.917
佛告一切勇	-10.917
卷第六	-10.9171
多伽羅香	-10.9171
寶炬陀羅尼	-10.9171
無覺	-10.9171
無生無起	-10.9172
鈍	-10.9172
出家弟子	-10.9173
紹三寶種	-10.9173
鳥獸	-10.9175
算數	-10.9175
帝幢	-10.9175
不去不來	-10.9177
鳩槃荼	-10.9177
如是行者應如實知何者名為	-10.9178
軫宿	-10.9178
不止守	-10.9178
無有窮盡	-10.9178
歎未曾有	-10.9178
說頌	-10.9178
傍	-10.9178
總𠢕王菩薩	-10.9179
所得福德	-10.9179
度者	-10.918
發大誓願	-10.918
憂波提舍	-10.918
大甲冑輪	-10.918
灰	-10.918
譯經三藏朝散大夫試鴻臚卿	-10.918
當爾之時	-10.918
村落	-10.9181
朋黨	-10.9181
佛告藥上	-10.9182
貪恚癡	-10.9183
大師子吼	-10.9184
遲	-10.9184
不受果報	-10.9184
諮受	-10.9185
遍滿虛空	-10.9185
聽許	-10.9185
徑路	-10.9185
故來	-10.9186
七日七夜	-10.9186
我於今者	-10.9186
途	-10.9187
和雅	-10.9188
咸作是言	-10.9188
獼猴	-10.9188
欣樂	-10.9188
窟	-10.9188
不可稱量	-10.9189
請問世尊如斯大義	-10.9189
四如意足	-10.9192
為之	-10.9192
頸	-10.9192
若有男子女人	-10.9193
賢士	-10.9194
羅婆國	-10.9194
燒香	-10.9195
防	-10.9196
學無學	-10.9196
奉敬	-10.9196
擇	-10.9196
女宿	-10.9196
興發	-10.9197
緊	-10.9197
淵	-10.9198
土境	-10.9199
習氣	-10.92
乖	-10.92
俱時	-10.9201
捺	-10.9201
為業	-10.9201
推求	-10.9202
久近	-10.9202
光顯	-10.9203
不能滅	-10.9203
終始	-10.9203
吞	-10.9204
卿	-10.9204
冤	-10.9205
具足最上第一	-10.9206
闍師	-10.9206
理趣	-10.9206
三名	-10.9207
迎	-10.9208
般若波羅蜜多	-10.921
摩波利婆	-10.9212
與佛	-10.9213
前際	-10.9213
綿	-10.9214
呵呵	-10.9214
善惡業	-10.9215
欲心	-10.9216
軟語	-10.9216
均	-10.9218
開化眾生	-10.9219
以不	-10.9222
身心寂靜	-10.9223
於彼佛所	-10.9223
無有休息	-10.9226
六情	-10.9227
之分	-10.9228
府	-10.9228
通利	-10.9228
􂚲􂚲(	-10.9231
持是三昧	-10.9233
得未曾有	-10.9238
諸聖	-10.924
是故名	-10.9241
眾生所有	-10.9241
於人	-10.9242
而行布施	-10.9243
故不可盡	-10.9244
緊那羅王	-10.9247
犯重罪	-10.9247
唯除如來	-10.9248
此三摩地	-10.9248
除其	-10.9252
水聚	-10.9257
教示	-10.9257
如天	-10.9258
是為愛	-10.9262
福智	-10.9262
是二	-10.9262
文句	-10.9262
大捨	-10.9263
能具	-10.9263
何人	-10.9264
獨處	-10.9268
所學	-10.9268
不破	-10.9268
慧業	-10.927
不想	-10.927
已見	-10.9271
樂寂靜	-10.9274
上方	-10.9278
人等	-10.9278
業故	-10.928
住十地	-10.928
精進行	-10.9283
無所作	-10.9286
普告	-10.9291
五十一	-10.9295
閻羅王	-10.9297
如是言	-10.9299
無所分別	-10.93
聞是經	-10.9305
天中	-10.9308
亦常	-10.931
不惟	-10.9311
應誼	-10.9312
身得	-10.9315
同聲	-10.9316
魔境界	-10.9316
本處	-10.9317
五十二	-10.9321
不造	-10.9322
菩薩摩訶薩言	-10.9324
一切勇猛	-10.9324
我者	-10.9332
所現	-10.9334
勝慧	-10.934
風吹	-10.9343
寶性	-10.9343
即有	-10.9345
問如來	-10.9346
日月光	-10.9348
無生滅	-10.9349
與眾生	-10.9352
順從	-10.9359
與其	-10.936
胡麻	-10.9361
取證	-10.9363
其德	-10.9365
為除	-10.9366
不毀	-10.937
以智	-10.937
轉復	-10.9375
亦淨	-10.9378
種種供養	-10.9379
如是比丘	-10.9381
我皆	-10.9384
具足神通	-10.9384
發誓願	-10.9385
諸趣	-10.9387
而共	-10.9394
著於	-10.94
復當	-10.9403
具足五滓	-10.9404
祭之	-10.9405
不還	-10.9408
八十四	-10.9409
五百人	-10.9412
有罪	-10.9414
滅後	-10.942
乃至沙門	-10.942
一切諸魔	-10.9422
滅壞	-10.9422
忘失	-10.9425
有四事	-10.9426
如法比丘	-10.9428
不然	-10.9433
無上大	-10.9436
水界	-10.9437
無損	-10.944
自思惟	-10.9451
其子	-10.9451
奎	-10.9453
寶飾	-10.9455
諸過失	-10.9455
使我	-10.9458
妙好	-10.9459
出世法	-10.9459
即入	-10.9463
種性	-10.9466
不空	-10.9467
欲滅	-10.9469
持此	-10.947
辭無礙	-10.9471
所不能	-10.9471
能離	-10.9472
說法師	-10.9473
於無量	-10.9474
我觀	-10.9476
當忍	-10.9481
囉婆	-10.9483
惡世	-10.9491
諸罪	-10.9494
佛為	-10.9495
戒者	-10.9501
伽多	-10.9502
生已	-10.9502
佛知	-10.9504
名利	-10.9505
助菩提	-10.9509
布施供養	-10.9509
自言	-10.9512
一切人	-10.9517
諸乘	-10.9518
於諸佛所	-10.9522
遶	-10.9522
不變	-10.9524
我即	-10.9525
有八	-10.9527
當觀	-10.9529
嘙	-10.9531
如來功德	-10.9537
是名方便	-10.954
諸邪見	-10.9543
惡相	-10.9554
現在世	-10.9556
闍那	-10.9558
為此	-10.9558
善學	-10.9559
出於世	-10.956
一月	-10.9561
欲樂	-10.9561
施已	-10.9563
涅槃樂	-10.9566
非彼	-10.9567
胡	-10.9568
夜叉王	-10.9572
利他	-10.9574
觀此	-10.9576
不報	-10.9583
無價	-10.9584
佛菩提	-10.9585
邪命	-10.9585
自利	-10.9588
發大	-10.9592
燈明	-10.9592
欲度	-10.9593
此世	-10.9596
遍覆	-10.9598
之母	-10.9605
諸賢聖	-10.9609
如我所	-10.9611
不足	-10.9613
心亦不	-10.9615
七財	-10.9616
利益故	-10.9621
大神力	-10.9623
三德	-10.9625
其本	-10.9626
渧	-10.9627
羣	-10.9628
一一眾生	-10.9629
之一	-10.9631
於地	-10.9632
者即是無	-10.9633
如今	-10.9635
若說	-10.9636
法海	-10.9637
經論	-10.9638
功德智慧	-10.964
不愛	-10.9641
十三者	-10.9643
普入	-10.9645
決擇	-10.9648
又於過去	-10.9648
我於彼	-10.9651
於四	-10.9654
善不善	-10.9657
迦吒富單那等	-10.9659
便為	-10.9659
四天	-10.966
忍行戒	-10.966
一切菩薩摩訶薩	-10.9661
閦浮	-10.9662
馱	-10.9664
咎	-10.9664
自念	-10.9664
眾生心行	-10.9665
為滅百八不捨淨	-10.9668
更相	-10.9668
如地	-10.9671
陀摩	-10.9673
妙華	-10.9674
行願	-10.9674
彼天	-10.9676
掌	-10.9679
百三十	-10.9683
麥	-10.9683
生死河	-10.9688
剎帝利旃荼羅王	-10.9689
天樂	-10.9694
不願	-10.9697
是為不捨盡	-10.9697
乞食	-10.9698
吾今	-10.97
博	-10.9703
聖種	-10.9704
因故	-10.9706
彼有	-10.9708
是為貫生	-10.9711
穿	-10.9713
口所得中味中語言	-10.9715
善德	-10.9716
身所得好細軟可身	-10.9716
鼻所聞中香	-10.9716
滅中有百八後世當復生受不滅	-10.9717
是為種痛	-10.9717
佛力	-10.9721
中有百八罪不可見	-10.9721
便辱百八	-10.9721
蔽礙	-10.9722
如是諸	-10.9722
蜜低	-10.9723
療	-10.9724
剛強	-10.9724
其有逮得	-10.9727
當坐因緣生死痛	-10.9727
娑囉	-10.9727
是為辱	-10.9728
芽莖	-10.973
忽然不現	-10.9731
伴侶	-10.9731
盲冥	-10.9731
大方廣	-10.9731
壯	-10.9732
是名進力	-10.9732
是為進行入道	-10.9733
是為罪識	-10.9734
弘誓	-10.9734
為他解說	-10.9734
頂戴	-10.9735
猛利	-10.9735
諸天及人	-10.9735
如意珠	-10.9735
菩薩要當斷是盛百八生死	-10.9736
般涅槃後	-10.9736
屋	-10.9736
安詳	-10.9736
經無量劫	-10.9736
便生栽	-10.9738
形貌	-10.9738
調戲	-10.9738
寂寞	-10.9738
八聖道	-10.9738
甞	-10.9739
絰	-10.974
相與	-10.974
是名慧力	-10.9741
是名念力	-10.9741
一切龍王	-10.9741
懈廢	-10.9742
室宿	-10.9742
耽	-10.9742
此之謂也	-10.9743
魔宮	-10.9743
遊戲神通	-10.9743
汝等今者	-10.9743
月滿	-10.9743
弘廣	-10.9743
啟受	-10.9744
敗壞	-10.9744
至心諦聽	-10.9744
宣布	-10.9745
納	-10.9745
其土人民	-10.9746
是為墮	-10.9746
照耀	-10.9747
兔	-10.9748
醜陋	-10.9748
為壞眾生如是	-10.9749
竊	-10.9749
再	-10.975
甘露味	-10.975
如來知	-10.9752
捐	-10.9752
耆	-10.9753
困	-10.9753
如實了知	-10.9754
輕賤	-10.9755
孝順	-10.9756
揚	-10.9757
未能	-10.9758
智度無極	-10.9759
豪	-10.9761
恒河	-10.9761
貝	-10.9763
錢	-10.9764
傷害	-10.9764
旦	-10.9765
猪	-10.9766
慈哀	-10.9766
閑林	-10.9766
濟度	-10.9766
未聞	-10.9766
軌	-10.9767
得授記	-10.9767
畢竟成佛	-10.9768
處在	-10.9769
▁○	-10.977
墮道	-10.977
不捨眾生	-10.977
根原	-10.9771
是善思惟	-10.9771
工	-10.9773
鷹	-10.9773
具足六波羅蜜	-10.9773
爭	-10.9776
祿	-10.9778
若茲	-10.9778
即是佛智	-10.9779
受身	-10.978
秘藏	-10.978
故施	-10.9782
若心	-10.9783
得具足	-10.9785
和上	-10.9787
眾罪	-10.9789
尚不	-10.9793
頭目	-10.9797
尸利	-10.9799
為一切	-10.98
光目	-10.9803
良由	-10.9804
大迦葉	-10.9806
分散	-10.9806
希求	-10.9807
復有四	-10.9807
名為業	-10.9809
是不	-10.981
一渧	-10.9812
樂故	-10.9812
觀世音	-10.9812
百九十	-10.9815
亦等	-10.9816
隨諸眾生	-10.9818
阿那含果	-10.9819
地獄眾生	-10.982
伽陀	-10.9821
自守	-10.9824
可反	-10.9826
不思議事	-10.9829
菩薩持戒	-10.983
無怨	-10.983
花樹	-10.9834
起諸	-10.9836
念還	-10.9837
現在未來	-10.9839
菩薩乘	-10.9839
暫時	-10.9841
佛出	-10.9846
一日一夜行	-10.9848
無別	-10.9849
四面	-10.9849
而見	-10.9854
如響	-10.9857
生空中	-10.9858
謗法	-10.9863
所生處	-10.9867
念於	-10.9868
婆邏	-10.9873
憶持	-10.9874
福行	-10.9876
無所有處	-10.9877
三品	-10.9878
惡言	-10.9886
都無	-10.9887
」【△	-10.9888
汝等當知	-10.989
其王	-10.9892
成滿	-10.9893
諸佛剎	-10.9894
減少	-10.9894
法藥	-10.9895
敬心	-10.9895
非身	-10.9896
或乘	-10.9901
聞如是	-10.9903
無有分別	-10.9908
利根	-10.9908
年少眾生	-10.9914
而入	-10.9915
不濁	-10.9917
此諸菩薩	-10.992
力士	-10.992
我弟子	-10.9925
令解脫	-10.9927
共護	-10.9929
如來說	-10.9934
此則名為	-10.9934
聲聞辟支佛	-10.9935
得阿羅漢	-10.9936
趣入	-10.9939
遍觀	-10.994
色如	-10.9942
無記	-10.9946
好香	-10.9946
種種華	-10.9948
立名	-10.9952
手執	-10.9954
斷於	-10.9956
無住處	-10.9963
捨身命	-10.9965
亦不念	-10.9969
共住	-10.9976
光味菩薩	-10.9976
兵眾	-10.9977
能調伏	-10.9982
念根	-10.999
他化自在天	-10.999
諸力	-10.999
我又	-10.9992
受法	-10.9993
五十七	-10.9995
影像	-11.0013
今是	-11.0016
事故	-11.0022
若梵	-11.0027
復生	-11.0027
出已	-11.0027
授阿耨多羅三藐三菩提記	-11.0029
未知	-11.0031
如文	-11.0032
持是	-11.0034
心業	-11.0035
日夜	-11.0038
耳聞	-11.0043
到彼	-11.0046
未出	-11.0047
入城	-11.0049
問世尊	-11.0056
不恃	-11.0058
有餘	-11.0058
種種瓔珞	-11.0059
說法時	-11.0062
一切人天	-11.0067
復觀	-11.0068
於無上道	-11.0071
如是說	-11.0073
天華	-11.0074
無所取	-11.0077
十五者	-11.0077
所覆	-11.0078
慧自在	-11.0079
名為根	-11.0085
入佛法	-11.0088
字句	-11.0088
更有	-11.0088
觀行	-11.009
故我	-11.0091
中有習為	-11.0101
憐愍心	-11.0105
忍受	-11.0108
萬億	-11.0112
為他人	-11.0117
各各自	-11.0119
場	-11.0127
眾病	-11.013
其慧	-11.0132
深妙法	-11.0133
大乘經	-11.0135
是眼	-11.0137
發菩提	-11.0147
淨慧	-11.0147
僧眾	-11.0151
十四日合	-11.0151
久已	-11.0153
成就具足	-11.0154
四無量	-11.0158
不動搖	-11.0159
寶聚	-11.0161
兜率天	-11.0163
以大	-11.0164
尾宿	-11.0166
他國	-11.0169
為淨	-11.017
一切法空	-11.0173
眾生見	-11.0173
無難	-11.0175
號釋迦牟尼	-11.0178
阿耨多羅三藐三菩提記	-11.0179
大慈心	-11.0179
所疑	-11.0181
第	-11.0182
我復	-11.0182
伽邏	-11.0183
住法	-11.0184
童真	-11.0184
十六者	-11.0188
無吾我	-11.0189
菩提分法	-11.0193
不為有	-11.0193
是名法行	-11.0195
是故汝等	-11.0199
得忍	-11.0201
不忘失	-11.0202
說此法時	-11.0204
并及	-11.0207
皆不	-11.0214
之教	-11.0217
醫	-11.0218
美味	-11.0224
大石	-11.0225
異生	-11.023
又復菩薩	-11.0233
知者	-11.0234
瑕	-11.0247
使人	-11.0251
如是神通	-11.0252
能出	-11.0253
見於眾生	-11.0256
敘	-11.0259
有力	-11.0259
省	-11.0262
者則無	-11.0264
願說	-11.0265
長大	-11.0265
欲使	-11.0266
補	-11.0269
價	-11.027
為欲欲中有五陰	-11.0272
獲得如是	-11.0272
大水	-11.0283
願故	-11.0285
聲聞乘法	-11.0286
要言之	-11.0286
應器	-11.0287
一日合	-11.0288
利慧	-11.0289
以己	-11.0291
一切魔	-11.0293
不知為疑	-11.0293
乃至迦吒富單那等	-11.0294
得佛道	-11.0295
常於	-11.0296
今言	-11.0296
一分	-11.0298
法聲	-11.0298
初生者	-11.0299
那羅	-11.03
隨諸佛國入	-11.03
彼諸天	-11.0301
謂之	-11.0301
從座起	-11.0301
眼所見好色	-11.0302
其聲	-11.0306
菩薩摩訶薩眾	-11.0308
頭面作禮	-11.0309
疾疫	-11.031
藥上菩提薩埵摩訶薩埵	-11.0311
陣	-11.0311
是佛	-11.0312
轉正法輪	-11.0312
根本重罪	-11.0314
緊陀羅	-11.0315
得須陀洹果乃至阿羅漢果	-11.0315
○	-11.0315
餘如上說	-11.0316
不知為癡	-11.0316
濕	-11.0317
能過	-11.0318
當辱	-11.0318
如水中月	-11.0318
八十種好	-11.0318
虫	-11.0319
阿脩羅	-11.0319
少欲知足	-11.032
多地夜他	-11.0321
承佛神力	-11.0321
悉來集會	-11.0322
從坐起	-11.0322
衛護	-11.0322
亢旱	-11.0322
菩薩修定	-11.0323
醜	-11.0323
所住之處	-11.0323
三十七品	-11.0323
之上	-11.0324
無有厭足	-11.0324
修集慈心	-11.0324
其日生者	-11.0324
而自莊嚴	-11.0325
牢	-11.0325
有處示現	-11.0325
卷第七	-11.0326
群萌	-11.0326
下至一頌	-11.0326
羅睺羅	-11.0327
何者名為	-11.0327
坦然	-11.0328
當墮無間地獄	-11.0328
戀	-11.0329
穀米	-11.0329
厄	-11.0329
瓦	-11.0329
斧	-11.0329
墮於惡趣	-11.0329
三摩地門	-11.0329
斯陀含果	-11.033
給施	-11.033
戶	-11.0331
過諸	-11.0331
日月星宿	-11.0331
從今	-11.0332
是名信力	-11.0332
尊重恭敬	-11.0333
而可	-11.0334
㝹	-11.0335
佛法僧	-11.0335
何等名為	-11.0335
紅	-11.0336
柱	-11.0337
奪其精氣	-11.0337
如理	-11.0338
𦦨	-11.0338
親族	-11.0339
為還應戒	-11.0339
勝三昧	-11.0339
盜賊	-11.034
五事	-11.0341
正法眼	-11.0341
莊嚴於	-11.0341
葛	-11.0341
橋	-11.0343
心心數法	-11.0343
覩是以後	-11.0344
諸佛正法護持	-11.0345
披	-11.0345
擾	-11.0347
如是相	-11.0348
如是等輩	-11.0349
進止	-11.035
惟願如來	-11.035
顏色	-11.0351
鄉	-11.0351
住胎	-11.0351
衣服飲食	-11.0353
稍	-11.0353
咽	-11.0355
尊位	-11.0355
悳	-11.0357
瑞應	-11.0357
不可動	-11.0358
腸	-11.0358
憂苦	-11.0359
扶	-11.036
本性清淨	-11.036
想行	-11.0362
教誡	-11.0362
百倍	-11.0364
雨於	-11.0367
瑜伽	-11.0368
垢穢	-11.0372
為調眾生	-11.0372
簡	-11.0374
於空中	-11.0374
之因	-11.0375
增長善法	-11.0376
幾時	-11.0378
經歷	-11.0378
深遠	-11.0378
生淨信	-11.0383
從此	-11.0385
所云	-11.0389
今於	-11.039
倒見	-11.0393
成就故	-11.0395
為諸眾生說	-11.0396
必須	-11.0396
菩薩摩訶薩等	-11.0398
及諸大眾	-11.0399
非如來	-11.0399
於如來前	-11.04
不隨他	-11.0404
我終不	-11.0404
五神通	-11.0406
滅為	-11.0407
魂	-11.0408
純善	-11.041
已度	-11.041
得無量	-11.041
小王	-11.0411
應念	-11.0411
心平等	-11.0411
今為	-11.0411
諸佛境界	-11.0412
六神通	-11.0412
億劫	-11.0414
一切無餘	-11.0414
無有作者	-11.0415
復以種種	-11.0415
當說	-11.042
為化眾生	-11.0421
為彼眾生	-11.0423
諸佛正法	-11.0425
變異	-11.0426
之患	-11.0427
無壽	-11.0429
柔順	-11.0429
陀利	-11.0431
發道意	-11.0431
得陀羅尼	-11.0439
若非	-11.0441
諸佛剎土	-11.0443
若諸菩薩摩訶薩	-11.0443
而無所著	-11.0445
若行	-11.0447
離惡道	-11.0448
此忍	-11.0451
一切樂	-11.0451
智慧力	-11.0454
黠慧	-11.0455
願求	-11.0455
著袈裟	-11.0457
惡夢	-11.0459
人者	-11.0462
如其所	-11.0464
之座	-11.0466
諸種	-11.0467
有此	-11.0467
眾相	-11.0469
之所建立	-11.0473
業力	-11.0474
瞻波	-11.0475
成於	-11.0482
一切境界	-11.0482
從緣生	-11.0483
在前	-11.0488
法語	-11.0488
智自在	-11.049
身形	-11.0492
義是	-11.0495
大法王	-11.0495
食者	-11.0499
摩頂	-11.05
極大	-11.0503
斯成	-11.0503
尋即	-11.0506
多種	-11.0506
佛時	-11.0509
自說	-11.0514
獲福	-11.0521
而令	-11.0523
無量世	-11.0525
永斷	-11.0531
五欲樂	-11.0532
如先佛	-11.0535
有所得	-11.0535
身而為說法	-11.0535
生人天	-11.0538
同歸	-11.0544
如說行	-11.0544
真實義	-11.0544
無取著	-11.0551
吾等	-11.0552
於三乘中	-11.0555
火災	-11.0559
佛地	-11.0561
三障	-11.0563
十七者	-11.0564
舉身	-11.0566
說是經	-11.0568
大城	-11.0569
此心	-11.0569
發問	-11.057
業者	-11.0573
五逆罪	-11.0574
此佛世界	-11.0576
空故	-11.0577
王等	-11.0578
菩薩修行	-11.0579
為於	-11.0581
欲行	-11.0583
一切惡業	-11.0586
法要	-11.0589
正法念	-11.0596
諸禪	-11.0596
此娑婆世界	-11.0597
識者	-11.0598
是故今	-11.0598
界中	-11.0599
化樂天	-11.0599
眾生等	-11.0608
憒閙	-11.061
施行	-11.0614
之際	-11.0615
世尊說	-11.0615
識知	-11.0618
性識	-11.0621
胎藏	-11.0621
放光明	-11.0624
我願	-11.0631
而欲	-11.0632
般	-11.0634
一塵	-11.0638
不從他	-11.0638
利行	-11.0641
欲入	-11.0643
一切魔眾	-11.0646
知苦	-11.0647
得無上智	-11.0647
法無礙	-11.0651
起瞋	-11.0654
心寂靜	-11.0655
魔怨	-11.0655
善果	-11.0658
辛	-11.0661
善現	-11.0663
愛著	-11.0665
為世	-11.0669
五戒	-11.0671
又以	-11.0674
於眾	-11.0675
道行	-11.0682
以對	-11.0683
五十八	-11.0684
無毀	-11.0686
如是思惟	-11.0686
十四者	-11.0687
重病	-11.0692
薄福	-11.0692
千年	-11.0692
加害	-11.0693
得利益	-11.0693
坐臥	-11.0693
成就無量	-11.0694
邊見	-11.0695
中生	-11.0697
過去佛	-11.0704
為自	-11.0709
願為	-11.0709
婆利	-11.0709
第九	-11.0711
性故	-11.0712
十八者	-11.0715
心亂	-11.072
精進求	-11.0721
道義	-11.0721
道果	-11.0723
與無量	-11.0725
在生死	-11.0742
問者	-11.075
無差	-11.0751
入三昧	-11.0756
懈	-11.0758
知一切	-11.0761
初出	-11.0761
修智慧	-11.0774
涅槃界	-11.0775
柳	-11.0777
相謂言	-11.0779
五濁惡世	-11.078
於此正法	-11.0784
欣	-11.0788
有為法	-11.0789
獲大	-11.0792
以見	-11.0792
之主	-11.0797
白世尊	-11.0799
誘	-11.0801
毘婆	-11.0802
汝以	-11.0806
凡夫法	-11.0815
如應說法	-11.0818
身觸	-11.0819
於三乘	-11.0819
百福	-11.0819
如是大	-11.0826
修菩提	-11.0826
自相	-11.0828
大菩提心	-11.0831
不了	-11.0834
彼如來	-11.0839
如來正法	-11.0841
婆國	-11.0841
志心	-11.0841
聞其	-11.0842
聲聞大眾	-11.0843
能現	-11.0844
果證	-11.0847
遠行	-11.0847
修第一義	-11.0849
問答	-11.0851
綺	-11.0853
得成就	-11.0855
修精進	-11.0856
而懷	-11.0857
世世	-11.0858
其處	-11.0867
實法	-11.0869
慧者	-11.0869
天身	-11.087
少眾生	-11.0871
之所行	-11.0873
憎	-11.0873
死者	-11.0873
國界	-11.088
忍心	-11.0881
聰	-11.0881
告不空見	-11.0881
供養三寶	-11.0883
所來	-11.0884
遊步	-11.0886
十九者	-11.089
善淨	-11.0892
所犯	-11.0893
讚說	-11.0893
一切諸眾生故	-11.0896
常勤	-11.0901
尊貴	-11.0905
能具足	-11.0905
關令不動	-11.0907
定自在王	-11.091
咸皆	-11.0913
江河	-11.0914
餘處	-11.0917
復有一類	-11.0918
狀	-11.0921
我有	-11.0922
耳所聞好聲	-11.0924
說伽陀	-11.0924
清淨無垢	-11.0925
非大乘器	-11.0925
續	-11.0926
如是因緣	-11.0928
真善剎帝利王	-11.0929
夫菩提者	-11.093
身所得中細軟	-11.093
其相	-11.0931
生善道	-11.0931
善本	-11.0932
如是法門	-11.0933
又不	-11.0934
十方一切	-11.0935
四大洲	-11.0935
眠	-11.0937
悲因緣故宣說	-11.0937
如來具足	-11.0938
於彼處	-11.0938
阿逸多	-11.0939
五體投地	-11.0939
淳	-11.0939
懃	-11.0941
辟支佛作大福田	-11.0942
蚊虻	-11.0942
得無誤失	-11.0942
於諸善法	-11.0942
其日得病	-11.0943
為他廣說	-11.0943
死屍	-11.0943
謙下	-11.0944
大千世界	-11.0944
地平如掌	-11.0945
乾竭	-11.0945
轉妙法輪	-11.0945
輔	-11.0945
誐	-11.0946
腦	-11.0947
峯	-11.0947
聞是佛名	-11.0947
恥	-11.0947
成就十輪	-11.0947
柘	-11.0948
遇斯光	-11.0948
賀	-11.0948
次第而坐	-11.0948
車𤦲	-11.0948
麁穬	-11.0949
廣宣流布	-11.0949
殊異	-11.0949
弄	-11.0949
憎嫉	-11.095
故感	-11.095
廣博	-11.095
欲說	-11.095
三摩跋提	-11.095
眾生壽命士夫	-11.095
蘊魔	-11.095
卷第八	-11.0951
顯曜	-11.0951
頞	-11.0952
駄	-11.0952
前後圍遶	-11.0952
泣	-11.0952
殑伽沙等	-11.0953
不可稱載	-11.0955
離諸怖畏	-11.0955
慰喻	-11.0955
皆出	-11.0955
赴	-11.0956
淨居天	-11.0956
隱蔽	-11.0956
復有四事	-11.0957
五大河	-11.0957
珊	-11.0957
說是呪	-11.0957
莊飾	-11.0958
愚冥	-11.0958
祥	-11.0958
迷亂	-11.0959
無量無邊眾生	-11.096
不令流布	-11.096
自不	-11.0962
以施	-11.0962
簸	-11.0963
誦習	-11.0963
剋	-11.0963
啼哭	-11.0963
嬰	-11.0964
歲星	-11.0964
能為眾生	-11.0966
賣	-11.0966
羅剎母	-11.0966
毒龍	-11.0968
貞	-11.0968
試	-11.0968
乃至迦吒富單那	-11.0968
繞	-11.0968
不能盡	-11.0969
如法修行	-11.0969
東西	-11.097
生疑菩薩	-11.097
芽	-11.0971
叵	-11.0971
隔	-11.0971
名金剛句	-11.0971
吟	-11.0972
復有無量無邊眾生	-11.0972
五蘊	-11.0973
心大歡喜	-11.0973
魔法門	-11.0974
脚跡	-11.0974
科	-11.0975
紙	-11.0975
祖	-11.0975
光曜	-11.0975
幽冥	-11.0975
卷上	-11.0976
罪苦眾生	-11.0976
啼泣	-11.0977
舉動	-11.0977
春	-11.0979
隆	-11.098
寶坊	-11.0981
耗	-11.0981
療治	-11.0981
而無厭足	-11.0982
驗	-11.0984
林中	-11.0985
諍競	-11.099
若有女人	-11.0991
愚癡無智	-11.0992
大龍	-11.0992
學者	-11.0993
調善	-11.0993
不生驚怖	-11.0994
若如是者	-11.0995
息諸	-11.0995
所習	-11.0995
無量有情	-11.0997
繫閉	-11.0997
變現	-11.1001
十萬	-11.1004
徵	-11.1005
跋陀	-11.1005
不證	-11.1006
皆住	-11.1008
儻	-11.1009
飛行	-11.1009
受持正法	-11.1009
不種善根	-11.101
準大論	-11.1011
於大乘中	-11.1011
會中有一菩薩	-11.1012
所生之處	-11.1014
給與	-11.1015
此為	-11.1016
善能分別	-11.1018
妙丈夫	-11.102
六趣	-11.102
阿毘	-11.1023
一由旬	-11.1024
刃	-11.1024
無慚	-11.1025
變易	-11.1025
以偈問	-11.1025
金寶	-11.1026
非為	-11.1026
知一切法性	-11.1027
業道	-11.1034
佛告不空見	-11.1037
托	-11.1038
耶婆	-11.1038
現此	-11.1038
會中有一	-11.1042
羅剎女	-11.1044
起世經	-11.1045
舉聲	-11.1046
婆娑	-11.1049
久修	-11.105
怨賊	-11.105
迦國	-11.1055
一切聲	-11.1058
得解脫者	-11.1058
一切凡夫	-11.1059
六道眾生	-11.1063
超度	-11.1068
於此法門	-11.107
樂處	-11.1074
犯戒	-11.1078
瑞相	-11.108
過去無量阿僧祇劫	-11.1083
豈不	-11.1084
正思惟	-11.1086
於四天下	-11.1089
一切眾生心	-11.109
出聲	-11.1092
身如	-11.1096
生信心	-11.1096
不生分別	-11.1097
此約	-11.1097
無所不	-11.1101
轉者	-11.1101
及未來世	-11.1103
辱	-11.1103
地水火風	-11.1106
起大悲心	-11.1107
)【	-11.1109
從本	-11.111
疑悔	-11.1113
喜捨	-11.1116
方所	-11.1119
城門	-11.1127
道路	-11.1127
起惡	-11.1129
人之	-11.1131
能引	-11.1131
得樂	-11.1137
涅槃已	-11.114
那國	-11.1142
之果	-11.1143
知佛	-11.1144
性命	-11.1146
業行	-11.1146
如是甚深	-11.1165
等如虛空	-11.1167
開發	-11.1167
所說正法	-11.1172
無生智	-11.1174
身見	-11.1176
以天眼	-11.1177
是義	-11.1178
我此	-11.1179
與人	-11.1183
可樂	-11.1186
尊重讚歎	-11.1187
相隨	-11.119
風界	-11.119
法律	-11.1193
金剛䐡菩薩	-11.1193
其間	-11.1196
諸來	-11.1196
名香	-11.1197
三曜	-11.1201
越度	-11.1204
恒河沙劫	-11.1204
淨信心	-11.1207
三世平等	-11.121
地中	-11.1211
摩伽陀國	-11.1212
眾生根	-11.1213
梵眾	-11.1214
彌勒菩薩摩訶薩	-11.1214
不休息	-11.1216
於今日	-11.1219
我忍	-11.122
虛空性	-11.1221
出過	-11.1222
如來智慧	-11.1223
必有	-11.1226
利眾生	-11.1226
悲哀	-11.1227
不得自在	-11.1231
生此	-11.1232
名發起	-11.1237
不猗	-11.124
深奧	-11.1241
昴	-11.1242
之語	-11.1244
一切有	-11.1244
聖者	-11.1247
皆作	-11.1248
而心	-11.1257
大寶	-11.1259
故稱	-11.1261
缺漏	-11.1261
不遠	-11.1261
有所說	-11.1263
若佛	-11.1263
口行	-11.1267
今悉	-11.1267
為體	-11.1267
大喜	-11.1274
奉上	-11.1276
出世間法	-11.1277
世界名	-11.1277
娑摩	-11.128
隨應	-11.1281
造立	-11.1294
如是見	-11.1295
阿㝹	-11.1295
釋天	-11.1297
即知	-11.13
之首	-11.13
無文字	-11.1302
摸	-11.1316
菩薩身	-11.132
清淨法	-11.1321
尚爾	-11.1322
智慧光明	-11.1325
云何菩薩摩訶薩	-11.1326
禮世尊足	-11.1328
稱譽	-11.1329
心相續	-11.1331
兜率	-11.1334
能受	-11.1334
無上智	-11.1336
不增	-11.1337
八難	-11.134
自性清淨	-11.1341
於善法	-11.1345
普令	-11.1347
不成	-11.1352
眾生類	-11.1355
於一時	-11.1355
妙寶	-11.1355
降伏魔	-11.1359
我今說	-11.136
五十六	-11.1362
有八種	-11.1363
生信	-11.1363
諸怖畏	-11.1366
惡習	-11.1368
婆那	-11.1377
不興	-11.1379
深重	-11.1379
尚可	-11.1381
生死苦	-11.1383
語汝	-11.139
生歡喜心	-11.139
方得	-11.1391
八人	-11.1392
當應	-11.1393
繒	-11.1397
非無	-11.14
又有	-11.1402
山谷	-11.1403
死時	-11.141
種種微妙	-11.1411
百千那由他	-11.1413
行不	-11.1414
自修	-11.1415
二句	-11.1417
精進根	-11.1419
端坐	-11.1424
持戒者	-11.1429
一切眾生皆	-11.1429
其功德	-11.1436
受無量苦	-11.1438
不可稱	-11.1441
淨身	-11.1442
滅者	-11.1443
若被	-11.145
閻浮提中	-11.1454
夢見	-11.1456
入諸	-11.1457
於諸佛	-11.1457
無失	-11.1458
不能見	-11.1459
不得解脫	-11.1465
為諸聲聞	-11.1467
立於	-11.147
世間眾生	-11.1471
得之	-11.1471
癡心	-11.1472
是慈能	-11.1477
皆知	-11.1479
不畏後世	-11.1479
三垢	-11.1483
此正	-11.1488
墮在	-11.1489
以身	-11.1491
說如是	-11.1491
破戒者	-11.1492
問佛言	-11.1496
有大力	-11.1496
親近供養	-11.1497
令修	-11.1498
復作	-11.15
此彼	-11.15
為如來	-11.1504
財利	-11.1508
亦為眾生	-11.1513
王所	-11.1514
妙三昧	-11.1515
三日合	-11.1519
是人不久	-11.1522
限量	-11.1526
我子	-11.1528
囑累	-11.1532
億數	-11.1541
隨從	-11.1541
所纏	-11.1543
閻浮洲	-11.1544
豫	-11.1544
行無盡	-11.1546
復出	-11.155
瞋惡	-11.1552
竟不	-11.1552
人道	-11.1555
如是乃至	-11.1556
華蓋	-11.1558
若欲得	-11.1559
胎生	-11.1559
貌	-11.1562
受眾苦	-11.1563
到佛所	-11.1565
說此偈已	-11.1567
如轉輪王	-11.1571
誰有	-11.1571
之辭	-11.1572
祠祀	-11.1575
不關者墮罪	-11.1575
修聲聞	-11.1576
入胎	-11.1578
有異	-11.1578
則於	-11.158
貪嫉	-11.1582
睡	-11.1584
將欲	-11.1584
即此	-11.1586
迴向薩婆若	-11.159
慧明三昧	-11.159
六念	-11.1591
謝過	-11.1593
首楞嚴	-11.1594
而有所	-11.1594
所共	-11.1594
藪	-11.1596
身所得惡麁堅苦痛不可身	-11.1597
光味仙人	-11.1598
散華	-11.1599
增長三精氣	-11.16
緣生法	-11.1601
應如是學	-11.1603
一切處	-11.1604
伸	-11.1605
不自知著不自知滅中有五陰	-11.1606
偈讚佛已	-11.1606
從初發意	-11.1607
族姓	-11.1607
如意寶珠	-11.1607
鞭杖	-11.1607
從三昧起	-11.1607
比牟	-11.1608
若其	-11.161
本罪百八行	-11.161
右繞三匝	-11.161
煖	-11.161
於晨朝時	-11.1611
寂度無極	-11.1611
千俱胝	-11.1611
喪失	-11.1611
迦留羅	-11.1611
見佛身	-11.1611
趣向惡道	-11.1611
間錯	-11.1612
擯	-11.1612
涕	-11.1612
不離親近供養眾僧	-11.1612
遠塵離垢	-11.1613
多地他	-11.1613
其色	-11.1613
川	-11.1613
二十者	-11.1613
泉池	-11.1614
由延	-11.1614
剎帝利旃荼羅	-11.1614
潤澤	-11.1614
三業相應	-11.1614
雄猛	-11.1615
竹	-11.1615
籌	-11.1615
儉	-11.1615
寶座	-11.1615
世尊欲重明此義	-11.1615
動欲分別中有盛百	-11.1616
愚闇	-11.1616
師子將軍	-11.1617
舞	-11.1617
丁	-11.1617
覆蓋	-11.1617
以佛力故	-11.1618
毘舍闍	-11.1618
業因緣	-11.1618
薩埵	-11.1619
往詣佛所	-11.1619
知身	-11.1619
九日合	-11.1619
陀羅尼自在王菩薩	-11.1619
閑靜	-11.1619
封	-11.1619
胡跪合掌	-11.162
羸	-11.162
一四句偈	-11.162
所得果報	-11.162
念慧	-11.162
不離聞法	-11.162
職	-11.162
曾於過去	-11.1621
溫	-11.1621
憂悲苦惱	-11.1622
交露	-11.1622
楚	-11.1623
嗜	-11.1623
所遊	-11.1624
遏	-11.1624
而供養之	-11.1624
往返	-11.1624
鮮明	-11.1625
以精進故	-11.1625
攬	-11.1626
蒲	-11.1626
生惡心	-11.1626
奔	-11.1627
四倒	-11.1627
隨所住國	-11.1627
完具	-11.1627
修羼提波羅蜜	-11.1628
籌量	-11.1628
怯	-11.1628
不可限量	-11.1628
疲	-11.1628
所當	-11.1629
知一切眾生心	-11.1629
徙	-11.163
五十校計	-11.163
未甞	-11.1631
我念過去	-11.1631
供養眾僧	-11.1632
愍傷	-11.1632
彼有菩薩名	-11.1633
霑	-11.1633
㵎	-11.1633
今正是時	-11.1633
嬈害	-11.1634
吉凶	-11.1635
水精	-11.1636
翹	-11.1636
身教化眾生	-11.1637
是名為禪	-11.1637
於善	-11.1638
宇	-11.1638
無作無受	-11.1638
米	-11.1639
忌	-11.1639
毘沙門	-11.1639
滋味	-11.164
梁	-11.1641
玉	-11.1642
僕使	-11.1642
奏	-11.1642
為當	-11.1643
三千大千世界六種震動	-11.1643
然此	-11.1643
精進清淨平等	-11.1643
無窮盡	-11.1644
如聞	-11.1644
化導	-11.1644
搆	-11.1644
商人	-11.1645
得知	-11.1645
午	-11.1645
雜香	-11.1648
滋	-11.165
普攝	-11.1651
品題	-11.1651
吸	-11.1651
役	-11.1651
無有慈愍	-11.1651
俗諦	-11.1651
嗔	-11.1652
佛告諸菩薩	-11.1652
孰	-11.1653
是人能禮	-11.1655
以如是等	-11.1655
幸	-11.1656
赤色	-11.1657
從生	-11.1657
法之	-11.1658
瞿曇沙門	-11.1659
毘摩	-11.1659
憑	-11.1659
樂具	-11.1661
等無差別	-11.1662
夙	-11.1665
惟願世尊	-11.1666
已於過去	-11.1666
師子意	-11.1667
資生所須	-11.1669
準長阿含	-11.1669
名為誑	-11.1671
復有三種	-11.1675
四梵行	-11.1676
食肉	-11.1676
此正法	-11.1677
罔	-11.1677
蘇摩	-11.1679
有八萬四千	-11.1679
豫知	-11.168
階道	-11.1681
第一彼岸故	-11.1683
是為菩薩超	-11.1683
最第一	-11.1684
之也	-11.1684
脫苦	-11.1685
結縛	-11.1686
無有眾生	-11.1688
其心寂靜	-11.169
舉手	-11.1691
聞是法已	-11.1691
不可稱限	-11.1692
於正法中	-11.1692
紫金	-11.1692
說偈讚	-11.1692
復還	-11.1694
滅中有五陰	-11.1698
諸法相	-11.1698
襍	-11.1698
世界中	-11.1699
亦無所住	-11.1701
同利	-11.1708
七覺	-11.1711
具修	-11.1712
憶想	-11.1713
故而為說法	-11.1714
耳根	-11.1719
龍女	-11.1723
菩提場	-11.1725
劫盡	-11.1726
大火	-11.1728
救度	-11.173
向於	-11.1733
無慚愧	-11.1734
惡風	-11.1734
亦不可得	-11.1735
我曾	-11.1736
如來今者	-11.1736
薩婆若	-11.1737
妙藥	-11.1742
即生念	-11.1745
佉伽	-11.1749
道品	-11.1754
為滅	-11.1754
亦不可說	-11.1756
不減	-11.1758
我母	-11.1758
為樂	-11.1759
今已	-11.176
聞此陀羅尼	-11.1766
如水月	-11.1768
諸臣	-11.1769
大眾皆	-11.1771
豈能	-11.1773
於如來所	-11.1774
斯人	-11.1777
慧光明	-11.1778
是為忍	-11.1781
呵多	-11.1781
滅煩惱	-11.1784
八生死	-11.1788
乃至不住	-11.1788
心如虛空	-11.1793
我等今	-11.1798
大河	-11.18
受此	-11.18
若比丘	-11.18
摧壞	-11.1801
於此佛剎	-11.1801
佛像	-11.1802
惡毒	-11.1802
使得	-11.1805
四名	-11.1809
豈有	-11.1809
無邪	-11.181
以神力	-11.1819
善說如來	-11.1824
在佛	-11.1825
不惜	-11.1826
行六波羅蜜	-11.1826
城內	-11.1827
離諸煩惱	-11.1829
皆悉成就	-11.1829
最妙	-11.1831
得涅槃	-11.1832
則無所	-11.1834
菩薩見	-11.1835
者何	-11.1841
之誼	-11.1845
諸神通	-11.1848
五十九	-11.1852
患難	-11.1853
鼻所聞惡臭	-11.1855
人皆	-11.1856
無濁	-11.1856
劇	-11.1858
合掌而	-11.1859
從緣	-11.1859
千萬億劫	-11.1859
亦非空	-11.1863
萬四千	-11.1865
妙聲	-11.1865
復與	-11.1866
說一切法	-11.1866
口出	-11.187
定者	-11.1871
當獲	-11.1872
譬如有	-11.1873
常護	-11.1873
為頂	-11.1874
求聲聞	-11.1878
吾以	-11.1878
若若	-11.1879
應如是	-11.1883
聖王	-11.1884
應速	-11.1884
皆大	-11.1886
勝義	-11.1889
當學	-11.1891
身色	-11.1892
現見	-11.1893
淨法	-11.1894
生人中	-11.1896
客	-11.1899
說此三昧	-11.1901
以偈答	-11.1901
諸天眾	-11.1902
不耶	-11.1902
觀一切	-11.1909
菩薩承佛聖旨	-11.191
真空	-11.1914
十方諸佛世界	-11.1918
佛告跋陀和	-11.1918
作利益	-11.192
一切諸法皆	-11.1923
不依止	-11.1924
知真實	-11.1925
極重	-11.1928
復告	-11.1932
不怖	-11.1932
今經	-11.1934
山中	-11.1934
度脫眾生	-11.1934
具足莊嚴	-11.1934
火光	-11.1935
等物	-11.1935
善守護	-11.1936
其後	-11.1938
雖在	-11.1939
大乘之法	-11.1946
僧伽	-11.195
為斷	-11.1951
至今	-11.1953
諸處	-11.1956
但能	-11.1958
自莊嚴	-11.1958
修身念處	-11.1958
為宣說	-11.1962
我悉	-11.1964
妙定	-11.1965
訟	-11.1965
有所問	-11.1966
無救	-11.1967
作何	-11.1967
作意	-11.1968
而我	-11.1969
阿囉	-11.1974
此明	-11.1976
還家	-11.1978
悉已	-11.1979
火界	-11.1981
之家	-11.1988
讚佛	-11.1993
一切皆得	-11.1994
命者	-11.1996
月合	-11.1996
愛念	-11.1997
大事	-11.1999
佛果	-11.2003
發此	-11.2003
不生憍慢	-11.2005
雖未	-11.2009
業因	-11.2011
口言	-11.2014
利益之事	-11.2018
安住於	-11.2026
永無	-11.2026
佛剎土	-11.2027
所持	-11.2027
開顯	-11.203
盡其	-11.2032
婆提	-11.2033
悉集	-11.2034
風雨	-11.2036
之恩	-11.2037
一切大地	-11.204
八事	-11.2041
高廣	-11.2047
二俱	-11.2047
施我	-11.2048
從於	-11.205
於聲聞	-11.2052
彼比丘	-11.2053
無說	-11.2057
得神通	-11.2057
入禪定	-11.2059
諸不善法	-11.2062
亂意	-11.2062
不斷絕	-11.2062
佛說如是	-11.2068
初名	-11.2071
娑婆界	-11.2072
其實	-11.2072
不假	-11.2074
或言	-11.2074
身意	-11.2078
不著於	-11.2081
法念處	-11.2081
未有	-11.2081
彼佛世尊	-11.2081
利益心	-11.2082
始終	-11.2084
便生	-11.2084
淨意	-11.2085
七日合	-11.2091
乃至意	-11.2091
乃名曰	-11.2098
無有盡	-11.21
佛者	-11.2103
生人間	-11.2107
等覺	-11.2114
所聞法	-11.2114
摧諸	-11.2114
而聽	-11.2116
百歲	-11.2121
光寶	-11.2125
煩惱魔	-11.2125
佛陀	-11.2132
好樂	-11.2133
佛說是	-11.2133
不謗	-11.2136
如恒沙	-11.2137
一種	-11.2137
知心	-11.2139
迦葉佛	-11.2148
菩薩復白佛言	-11.2149
諸緣	-11.2149
有一菩薩	-11.2151
而立	-11.2151
令眾	-11.2156
非真	-11.2159
隨於	-11.216
醫王	-11.2164
殖	-11.2166
五無間	-11.2167
日密	-11.2167
受記	-11.2171
功德聚	-11.2172
不散	-11.2176
或生	-11.2176
火中	-11.2177
勸發	-11.2177
得名	-11.2177
令生	-11.2178
三昧智	-11.218
十方一切諸佛	-11.2186
彼界	-11.2187
已知	-11.2191
讚嘆	-11.2197
卷下	-11.2198
多劫	-11.22
心住	-11.2202
刀劍	-11.2202
等者	-11.2204
香氣	-11.2205
諸子	-11.2205
戒聚	-11.2206
是道	-11.2208
不堪	-11.2208
不處	-11.2209
惡者	-11.2211
其智	-11.2213
意法	-11.2223
正法久住	-11.2228
到涅槃	-11.223
如火	-11.2231
鴦	-11.224
自應	-11.2242
失於	-11.2244
若起	-11.2245
如教	-11.2245
不食	-11.2247
不倚	-11.2247
令得解脫	-11.2248
住彼	-11.2248
法平等	-11.2249
不名為	-11.2251
時諸	-11.2252
求阿耨多羅三藐三菩提	-11.2252
最為	-11.2253
此苦	-11.2256
辯才故	-11.2257
不覩	-11.2263
不過	-11.2263
如實際	-11.2266
志求	-11.2268
隨心	-11.2271
不壞故	-11.2272
無與等	-11.2272
菩薩應當	-11.2273
此大地	-11.228
受無量	-11.2282
他心	-11.2282
法船	-11.2285
發遣	-11.2286
所講	-11.2289
或閉牢獄	-11.2292
之體	-11.2293
糞	-11.2296
方便故	-11.23
率爾呵舉破戒苾芻	-11.2301
有十種	-11.2302
塚間	-11.2303
無癡	-11.2303
欲盡	-11.2304
發無上正真道意	-11.2305
貪瞋癡	-11.2307
八萬四千法聚	-11.2308
神呪	-11.2308
則生	-11.231
煩	-11.231
但以	-11.231
出興於世	-11.231
勝行	-11.2312
說此陀羅尼	-11.2313
不斷三寶	-11.2313
整理衣服	-11.2314
出現世間	-11.2315
轉大法輪	-11.2315
阿蘭若處	-11.2316
能令菩薩摩訶薩等	-11.2317
於現身中	-11.2318
衣裳	-11.232
賓	-11.232
滋茂	-11.2321
淚	-11.2321
豐足	-11.2321
以少	-11.2322
惑亂	-11.2322
閻浮檀金	-11.2323
常得不離見一切佛	-11.2323
并其眷屬	-11.2324
於阿耨多羅三藐三菩提而成正覺	-11.2324
四維	-11.2324
是為菩薩能過魔界	-11.2324
與其眷屬	-11.2324
謹慎	-11.2325
所作已辦	-11.2326
入無畏城	-11.2326
染衣	-11.2326
如來則為讚說	-11.2327
諸佛國	-11.2327
身心安樂	-11.2327
歎言	-11.2327
眉間	-11.2328
酤胝	-11.2328
逝	-11.2329
從何處來	-11.2329
押	-11.2329
藥王軍菩薩復	-11.2329
死此生彼	-11.233
得已	-11.2331
於是法中	-11.2331
閑居	-11.2331
甚奇	-11.2331
為聽法故	-11.2331
世尊重顯此義	-11.2331
阿鼻獄	-11.2332
頭面禮	-11.2332
城郭	-11.2332
未來之世	-11.2333
尸羅波羅蜜	-11.2333
訓誨	-11.2333
溢	-11.2333
五十四	-11.2334
降伏諸魔	-11.2334
於其中間	-11.2335
膿	-11.2335
自利利他	-11.2335
舌味	-11.2335
十號具足	-11.2335
成無上道	-11.2336
甘美	-11.2336
廣說如前	-11.2336
或有說言	-11.2337
橋梁	-11.2337
僮僕	-11.2337
六度無極	-11.2337
緩	-11.2337
伺	-11.2338
坑	-11.2338
以用供養	-11.2338
毀他	-11.2338
麁澁	-11.2338
側	-11.2339
施度無極	-11.2339
慳惜	-11.2339
傘蓋	-11.2339
項	-11.2339
有疑	-11.234
無少	-11.2341
眾行	-11.2341
隨眠	-11.2341
埵	-11.2341
不可言說	-11.2342
人說言	-11.2342
侯	-11.2342
?』」	-11.2343
求出無期	-11.2343
皆悉消滅	-11.2343
一心歸依	-11.2344
奮	-11.2344
涯	-11.2344
佛言藥王軍	-11.2344
洛	-11.2344
不可為喻	-11.2344
終無有能	-11.2344
釋子	-11.2345
佛說法	-11.2345
鑑	-11.2345
屍	-11.2346
剌	-11.2346
肅	-11.2346
究盡	-11.2346
瑟	-11.2347
敷具	-11.2347
無愛	-11.2347
為調伏	-11.2347
弱	-11.2348
大鐵圍山	-11.2349
兮	-11.2349
裂	-11.2349
弓	-11.235
不謬	-11.235
此輩	-11.235
湯	-11.2351
波履婆	-11.2351
劫奪	-11.2351
如所聞法	-11.2351
得安隱住	-11.2352
彼剎帝利旃荼羅王	-11.2352
知生死	-11.2352
自念言	-11.2352
孤	-11.2352
爪	-11.2353
小兒	-11.2353
鼻香	-11.2354
顛	-11.2355
五百年	-11.2358
無量人天	-11.2359
短命	-11.2359
妖	-11.2359
五支	-11.236
花香	-11.236
毘囉娑	-11.236
丈	-11.2361
皆發無上正真道意	-11.2361
然其	-11.2362
婬泆	-11.2364
九十一劫	-11.2365
撲	-11.2366
跋坻	-11.2368
分別演說	-11.2368
無作無	-11.2368
饑渴	-11.2368
恭對	-11.2368
行業	-11.2369
滌	-11.2369
復念	-11.237
拘留孫佛	-11.237
諸地	-11.2371
州	-11.2372
魂神	-11.2372
長遠	-11.2372
我正法	-11.2374
或復有人	-11.2375
之音	-11.2375
嘉	-11.2376
諮嗟	-11.2376
圖	-11.2377
光色	-11.2379
泰	-11.238
無過	-11.238
陰陽	-11.2381
耳鼻	-11.2383
人心	-11.2383
損害	-11.2383
足下	-11.2385
如是菩薩摩訶薩	-11.2385
有菩薩名	-11.2385
是非	-11.2386
難量	-11.2388
羅摩	-11.2388
進根	-11.239
不顧	-11.239
眾寶莊嚴	-11.2391
槩	-11.2391
禮已	-11.2391
》《	-11.2391
十八界	-11.2392
菩提樹	-11.2393
怨親	-11.2393
須菩提言	-11.2394
氣力	-11.2395
寶聚如來	-11.2395
以能	-11.2397
我令	-11.2397
畢竟忍	-11.24
皆無	-11.2401
取一	-11.2403
從因緣生	-11.2406
十方無量	-11.2408
輔行	-11.2408
總持方便	-11.2409
優鉢羅華	-11.2409
遮遮	-11.241
譬如大	-11.2411
遠近	-11.2411
不生怖畏	-11.2414
自覺	-11.2414
寶臺	-11.2417
生老死	-11.2419
夜叉千眷屬	-11.2419
於外	-11.242
與眾等	-11.2421
持淨戒	-11.2422
諸龍眾	-11.2422
住阿蘭若	-11.2425
三昧力故	-11.2425
悉發阿耨多羅三藐三菩提心	-11.2425
不可說菩薩	-11.2426
一切有為	-11.2427
盡諸漏	-11.2428
虛空孕菩薩摩訶薩	-11.2428
遇善知識	-11.2429
譬如人	-11.2432
其座	-11.2433
下生	-11.2434
為世間	-11.2435
歎此	-11.2437
居處	-11.2438
百千萬劫	-11.2439
修忍辱	-11.244
失念	-11.2441
令諸有情	-11.2443
有想	-11.2444
所供養	-11.2444
於彼何者是	-11.2444
不難	-11.2445
等相	-11.2447
彼輩	-11.2448
受罪	-11.2448
子云	-11.245
堅固不退	-11.2454
受持禁戒	-11.2459
參合	-11.246
七分	-11.2463
諸人天	-11.2465
無主	-11.2465
光雲	-11.2467
稱佛	-11.2468
所作功德	-11.2468
此岸	-11.2472
往彼世界	-11.2472
三十二事	-11.2472
其名	-11.2475
無上涅槃	-11.2475
禪那	-11.2476
以慈	-11.2476
他心智	-11.2478
忍能	-11.2478
諸通慧	-11.2479
月藏	-11.2482
種種香	-11.2482
摩睺羅伽等	-11.2483
過於彼	-11.2483
地精氣	-11.2488
既自	-11.2489
隨宜	-11.249
所止	-11.2492
於前	-11.2492
不妄	-11.2493
連	-11.2494
決了	-11.2495
四恩	-11.2496
佛告地藏菩薩	-11.2498
與此	-11.2498
至心聽受	-11.25
虗妄	-11.2504
未曾見	-11.2505
波邏	-11.2505
計於	-11.2507
印句	-11.2508
十方無量諸佛	-11.2514
三日	-11.2515
為何所	-11.2515
一切過去	-11.2515
巳來	-11.2517
有時	-11.2518
不犯	-11.2519
而語	-11.252
修慈心	-11.2523
願令	-11.2523
得果	-11.2524
初地	-11.2525
乃至畜生	-11.2528
修梵行	-11.2531
命盡	-11.2531
阿那婆	-11.2533
耳鼻舌身意	-11.2533
不顛倒	-11.2534
得其	-11.2535
說三乘	-11.2536
多眾生	-11.2536
損壞	-11.2538
無見	-11.2538
東方有	-11.254
敬仰	-11.254
無分別故	-11.2542
本所	-11.2543
今生	-11.2543
菩薩當	-11.2547
六十一	-11.2547
各與	-11.2549
無上法	-11.255
感動	-11.255
覆其上	-11.2554
福慧	-11.2557
授與	-11.2557
其母	-11.2558
適意	-11.2559
出家人	-11.2562
眾色	-11.2563
種種方便	-11.2568
汝見	-11.2571
氐	-11.2572
上至	-11.2573
獲大利	-11.2575
佛讚	-11.2577
眾魔	-11.2579
堪忍	-11.2582
其城	-11.2582
無所得故	-11.2583
我本	-11.2584
法會	-11.2584
本清淨	-11.2585
給侍	-11.2587
面見	-11.2588
然燈佛	-11.2588
去處	-11.2591
毀滅	-11.2592
廣分別說	-11.2593
一體	-11.2594
大阿羅漢	-11.2595
八部	-11.2595
住戒	-11.2595
宿命智	-11.2595
向菩提	-11.2596
是人則能	-11.2596
如來法中	-11.2598
此眾	-11.26
增長善根	-11.2601
乃為	-11.2611
色力	-11.2611
國城	-11.2611
眾妙	-11.2611
苦事	-11.2612
以用	-11.2618
離染	-11.2623
為汝說	-11.2623
降魔	-11.2626
五十五	-11.2626
之初	-11.2627
無有生	-11.263
四句	-11.2631
九十二	-11.2631
誠心	-11.2632
受陰	-11.2634
三昧力	-11.2636
常不	-11.2649
無憍慢	-11.265
有一人	-11.2653
既見	-11.2653
譬如虛空無有	-11.2653
之屬	-11.2653
不堅	-11.2654
而受	-11.2656
四果	-11.2657
證滅	-11.2657
法誼	-11.266
眾生處在	-11.2662
將非	-11.2664
其法	-11.2666
賢者	-11.2668
生中	-11.267
令一切	-11.2671
無一眾生	-11.2672
後世所生	-11.2679
彼世尊	-11.2679
頂受	-11.2681
千倍	-11.2681
是人能	-11.2682
清淨行	-11.2683
即告	-11.2683
善神	-11.2686
龍身	-11.2687
所由	-11.2689
百分千分百千	-11.269
成等正覺	-11.269
長時	-11.2691
超勝	-11.2693
憎愛	-11.2694
美妙	-11.2695
發道心	-11.2698
不越	-11.2699
欲壞	-11.2701
六處	-11.2701
若有菩薩修四	-11.2705
愚癡人	-11.2707
極苦	-11.2708
大品	-11.271
得供養	-11.2713
得成佛	-11.2714
明解	-11.2715
是輩	-11.2718
退轉	-11.272
之王	-11.2722
自高	-11.2722
如來為	-11.2731
驚恐	-11.2734
自行	-11.2736
海印	-11.2736
六萬八千	-11.2736
之妙	-11.274
夜行	-11.2741
汝等一切	-11.2742
佛乘	-11.2743
隨行	-11.2746
若有欲	-11.2746
大神通力	-11.275
品第	-11.2758
此乘	-11.2759
貴賤	-11.2761
之大	-11.2761
變作	-11.2763
而是菩薩	-11.2772
眾邪	-11.2779
屬於	-11.278
分別此	-11.2782
大沙門	-11.2785
如有	-11.2785
無違	-11.2786
無定	-11.2788
久住於世	-11.2788
如是四法	-11.2792
又聞	-11.2799
種種上妙	-11.28
宮中	-11.2801
受持此經	-11.2802
而作佛事	-11.2805
魔眷屬	-11.2807
善意	-11.2817
常說	-11.2818
死生	-11.282
乃至菩提	-11.2821
我相	-11.2826
其國土	-11.2828
眾華	-11.2828
諸佛前	-11.283
百千俱胝	-11.2835
諸女	-11.2836
能轉	-11.2836
能證	-11.284
令一切眾生	-11.2842
趣菩提	-11.2843
心數	-11.2844
又為	-11.2844
少聞	-11.2845
諸苾芻	-11.2846
得利	-11.2847
教勅	-11.2849
得聞此	-11.2849
無漏法	-11.2855
能覺	-11.2855
於父母	-11.2856
祀	-11.2859
三千世界	-11.286
友	-11.286
僧中	-11.2861
種種珍寶	-11.2863
為證	-11.2867
於人天	-11.287
不廢	-11.2871
證明	-11.2872
摩帝	-11.2873
諸香	-11.2874
如大地	-11.2875
空義	-11.2876
世間法	-11.2878
疲倦	-11.2878
割	-11.2879
今欲	-11.2886
諸願	-11.2887
實為	-11.2888
淨佛土	-11.2888
聞聲	-11.2889
難忍	-11.2891
頗有	-11.2893
因地	-11.2897
利世間	-11.2899
義無礙	-11.29
上乘	-11.2903
戒清淨	-11.2904
眾生平等	-11.2907
上聲	-11.2912
人王	-11.2913
意所	-11.2914
鬼身	-11.2915
除諸煩惱	-11.2916
所護	-11.2918
常觀	-11.2923
淨口	-11.2929
一切樂具	-11.2929
性即是	-11.2934
亦不住	-11.2937
九萬二千	-11.2937
單	-11.294
未證	-11.294
布施清淨平等	-11.2944
至于	-11.2944
此會中	-11.295
宮內	-11.2951
菩提故	-11.2954
意念	-11.2956
當往	-11.2958
得出	-11.2958
并諸	-11.296
八解脫	-11.2961
所感	-11.2963
猛風	-11.2965
得彼	-11.2969
聞此法	-11.2971
轉輪王身	-11.2973
又彼	-11.2974
化變	-11.2975
如世	-11.2982
仇	-11.2985
於內	-11.2988
觀見	-11.2995
已說	-11.2996
受請	-11.2997
無學	-11.3
水月	-11.3001
無始來	-11.3001
無量苦惱	-11.3002
識界	-11.3003
諮	-11.3005
巳上	-11.3007
眾俱	-11.3007
優鉢羅	-11.3007
聞法已	-11.301
離貪	-11.301
知恩	-11.3014
壽命無量	-11.3014
不信者	-11.3015
是無	-11.3015
得善	-11.3021
阿彌陀	-11.3021
乃至真善	-11.3022
有不	-11.3023
從他聞	-11.3025
離故知	-11.3027
九十六	-11.3027
後有	-11.3027
受持是經	-11.3029
濁惡	-11.3029
大藏	-11.303
閻	-11.303
甚深微妙	-11.3035
如是正法	-11.3039
去離	-11.3039
聽聞正法	-11.3045
何等為二	-11.3048
不應取著	-11.305
善觀作王	-11.305
我今已	-11.3051
餓鬼等	-11.3052
俱共	-11.3052
秋	-11.3055
遮婆	-11.3056
非一	-11.3058
一佛剎	-11.3059
有諸菩薩	-11.3059
於三惡道	-11.306
法聚	-11.3061
懷大哀	-11.3061
白月	-11.3064
解脫者	-11.3069
金剛藏菩薩	-11.3069
不惱	-11.3069
清淨信	-11.307
一千	-11.3072
煩惱業	-11.3073
諸法性	-11.3073
菩薩便	-11.3075
永除	-11.3076
得無上	-11.3076
治罰	-11.3077
菩薩于彼興發大哀為說經	-11.3079
俱利多	-11.3079
拜	-11.308
梵世	-11.308
如理作意	-11.3082
卵生	-11.3083
牆壁	-11.3083
甚可愛樂	-11.3083
於流轉中	-11.3084
人及非人	-11.3085
而不取證	-11.3085
眾所	-11.3088
無所猜	-11.3088
悕	-11.3088
令法久住	-11.3088
閑	-11.3088
毛竪	-11.3088
鬪訟	-11.3088
所愛妻子	-11.3088
稱讚貴重	-11.3089
遮障惡眾生	-11.3089
毘奈耶	-11.3089
應如是知	-11.309
阿若憍陳如	-11.309
言有	-11.3091
於聲聞乘得無誤失	-11.3091
法欲滅時	-11.3092
金縷	-11.3092
常得昇進	-11.3093
為諸有情如應說法	-11.3093
常得值遇諸善知識	-11.3093
南閻浮提	-11.3093
真珠瓔珞	-11.3094
結恨	-11.3094
衰惱	-11.3094
甚為希有	-11.3095
虛空庫藏	-11.3095
兜率陀天	-11.3096
烟	-11.3096
阿閦	-11.3096
是名說義	-11.3096
伴黨	-11.3096
捨命	-11.3097
有漏無漏	-11.3097
尋伺	-11.3097
分百千萬分	-11.3097
摧壓	-11.3097
方能	-11.3098
芥子	-11.3098
通慧	-11.3098
既聞法已	-11.3098
庫藏	-11.3098
毘沙門天王	-11.3098
開敷	-11.3099
厄難	-11.3099
於剎那頃	-11.3099
來至佛所	-11.3099
結舌不言	-11.31
滿中珍寶	-11.31
三種精氣	-11.31
建立法幢	-11.31
犯四重禁	-11.31
社	-11.31
為人說經	-11.3101
從空而下	-11.3101
如幻化	-11.3102
轉於法輪	-11.3102
牟尼聖人住處	-11.3102
行法比丘	-11.3102
市	-11.3103
隋天竺三藏那連提耶舍譯	-11.3103
淨印三昧	-11.3103
岐	-11.3103
一剎那頃	-11.3103
濕生	-11.3103
遮止	-11.3103
否	-11.3103
隨順而行	-11.3104
樂於寂靜	-11.3105
栗	-11.3105
而無所	-11.3105
縮	-11.3106
命根	-11.3106
此二宿日	-11.3106
僉	-11.3106
諸所有	-11.3107
為他演說	-11.3107
尠	-11.3107
遠離惡友	-11.3107
無明黑闇	-11.3107
虎狼	-11.3108
來詣佛所	-11.3108
兵仗	-11.3108
精勤修習	-11.3108
繒綵	-11.3108
由是之故	-11.3109
如是鎧甲	-11.3109
膿血	-11.3109
車乘	-11.311
諸根不具	-11.311
疊	-11.3111
僕	-11.3111
支體	-11.3111
僧祇	-11.3111
堪任摧壓	-11.3111
思惟其義	-11.3111
菴	-11.3111
石蜜	-11.3112
菩薩見已修集	-11.3112
秘密	-11.3113
整	-11.3113
是畢竟忍	-11.3113
履反	-11.3114
護持淨戒	-11.3114
速得自在	-11.3114
證此三昧	-11.3115
於諸善根常	-11.3115
具足成滿	-11.3115
愁憂	-11.3116
如汝所言	-11.3116
地味	-11.3116
婢	-11.3116
因其	-11.3117
十千眷屬	-11.3117
生死海	-11.3118
乳哺	-11.3118
即是我之	-11.3119
當得作佛	-11.3119
處大眾中	-11.312
持戒清淨	-11.3121
百二十	-11.3121
是其莊嚴	-11.3121
存亡	-11.3122
忍波羅蜜	-11.3123
遍十方	-11.3123
劫燒	-11.3123
誠諦	-11.3124
畢竟盡	-11.3124
朽	-11.3125
未來世此佛土中	-11.3125
搜	-11.3125
無央數劫	-11.3126
谷	-11.3126
作不	-11.3127
不止	-11.3127
涅槃後	-11.3127
束	-11.3127
我於今日	-11.3128
毒氣	-11.3129
勝義諦	-11.3129
興立	-11.3129
又有眾生	-11.313
廣設方便	-11.313
至心受持	-11.313
勤勞	-11.313
乃至夢中	-11.313
飽	-11.3131
好醜	-11.3131
羅剎子	-11.3131
海慧	-11.3132
堪受	-11.3132
壓	-11.3133
牀	-11.3133
山川	-11.3134
無所依止	-11.3134
仗	-11.3135
眾生樂見	-11.3136
如是如來	-11.3136
隨眾生	-11.3136
求哀懺悔	-11.3136
擬	-11.3137
妹	-11.3137
住虛空中	-11.3138
窮脾	-11.3138
塑像	-11.3138
厥	-11.3139
辛苦	-11.3139
自在王菩薩	-11.3141
彼以	-11.3142
禽	-11.3142
生大怖畏	-11.3143
禍福	-11.3143
佛塔	-11.3143
是其	-11.3143
日月光明	-11.3144
為眾生說法	-11.3144
妙吉祥	-11.3146
墮於地獄	-11.3146
旛	-11.3147
眾生修集悲心	-11.3147
清白	-11.3147
得其便	-11.3148
供養之具	-11.3148
壞時	-11.3151
寧可	-11.3152
秦言	-11.3153
多日夜	-11.3154
得如月	-11.3154
諸大龍王	-11.3155
迦樓羅王	-11.3157
預	-11.3157
影現	-11.3157
暫住	-11.3157
世尊聲聞弟子	-11.3159
不善根	-11.3159
一切法障	-11.3159
當墮	-11.3159
於一切定	-11.316
現神變	-11.3162
修行善法	-11.3163
違背	-11.3163
還來	-11.3165
一道	-11.3166
於過去世	-11.3166
驚疑	-11.3167
一音	-11.3168
於百千劫	-11.3168
實義	-11.3168
亦可	-11.3168
清淨梵行	-11.3169
我今當說	-11.317
空見	-11.317
無量無邊不可思議	-11.3171
彼城	-11.3171
到菩提	-11.3171
能伏一切	-11.3172
壤	-11.3173
不別	-11.3174
守是三昧	-11.3175
出沒	-11.3175
貪瞋	-11.3176
大海中	-11.3176
得成阿耨多羅三藐三菩提	-11.3177
大醫王	-11.3181
來到佛所	-11.3181
不去	-11.3183
不取不捨	-11.3184
非聲聞	-11.3184
衝	-11.3185
得無礙智	-11.3188
無識	-11.3188
身證	-11.3189
眼觸	-11.3189
經於	-11.3191
所有事	-11.3192
不見一法	-11.3194
化成	-11.3194
而供養佛	-11.3194
速證	-11.3198
等類	-11.32
無悕望	-11.3201
薩多	-11.3201
閻浮提人	-11.3202
受大	-11.3203
業盡	-11.3204
欲事	-11.3205
三法	-11.3207
皆歸	-11.3209
為菩提故	-11.3209
常當念	-11.321
請佛	-11.321
於其中	-11.3211
苦諦	-11.3213
那由他百千	-11.3213
餘業	-11.3215
相已	-11.3215
幢相	-11.3215
色想	-11.3216
愛重	-11.3216
修行六波羅蜜	-11.3217
是故奢利弗	-11.322
具足戒	-11.3221
施諸眾生	-11.3223
珠瓔	-11.3223
勝福	-11.3225
甘樂	-11.3225
疑網心	-11.3226
受大苦	-11.323
七種	-11.3231
如是展轉	-11.3231
乃至得阿耨多羅三藐三菩提	-11.3231
取相	-11.3234
令使	-11.3235
愛心	-11.3235
失道者	-11.3235
護佛法	-11.3236
我等亦當	-11.3236
百年	-11.3236
惡名	-11.3236
戒律	-11.3237
眾星	-11.3237
辟支佛法	-11.324
發動	-11.3241
毀犯	-11.3243
為王	-11.3246
高聲	-11.3248
自境界	-11.3249
常勤精進	-11.325
散壞	-11.3252
如是說者	-11.3254
或復有	-11.3255
如是等眾	-11.3255
幾所福	-11.3255
義趣	-11.3256
曇摩	-11.3259
應生	-11.3261
無染著	-11.3262
摩睺羅伽王	-11.3262
大人相	-11.3263
行菩薩行	-11.3263
心已	-11.3263
成形	-11.3264
是念	-11.3265
譬如世間	-11.3265
四顛倒	-11.3265
若彼眾生	-11.3266
法僧	-11.3268
諸惡見	-11.3268
所縛	-11.327
所發	-11.3272
說已	-11.3275
皆得解脫	-11.3278
別異	-11.3279
作是言已	-11.3279
大精進	-11.3285
此大集會正法	-11.3286
及眷屬	-11.3286
中得	-11.3287
此經法	-11.3287
無放逸	-11.329
蓮華座	-11.329
無去來	-11.3294
發生	-11.3298
成就無量功德	-11.33
隨轉	-11.3303
普聞	-11.3305
聞彼	-11.3305
若龍	-11.3307
明達	-11.3307
取於	-11.3309
前世	-11.3309
是人如是	-11.3309
第一義空	-11.3315
尋時	-11.3315
歸向	-11.3316
稱意	-11.3317
應著	-11.3318
世尊為我宣說	-11.3319
等身	-11.332
歸依彼	-11.3323
精進勇猛	-11.3324
樂事	-11.3326
悉除	-11.3327
於夢中	-11.3329
譏嫌	-11.333
一切無量眾生	-11.3331
繫著	-11.3331
相無相	-11.3332
在世間	-11.3335
入一切	-11.3336
十界	-11.3337
如是見者	-11.3339
譬之	-11.334
聞知	-11.3341
千世界	-11.3343
法名	-11.3345
見諸法	-11.3351
及得	-11.3353
彼龍	-11.3354
使令	-11.3355
得無上道	-11.3356
觀已	-11.3356
皮肉	-11.3358
為信力	-11.3359
若受	-11.336
我作	-11.3364
已盡	-11.3372
正教	-11.3374
悉達	-11.3374
無想念	-11.3375
耳聲	-11.3377
所染	-11.338
之願	-11.3381
故而得調伏	-11.3381
呿婆	-11.3382
況能	-11.3382
如審	-11.3384
知世	-11.3387
種種善根	-11.3391
與眾	-11.3393
一樹	-11.3398
病人	-11.34
諸行無常	-11.34
如法界	-11.3403
若人欲	-11.3403
不知恩	-11.3404
至心歸依	-11.3405
惡業障	-11.3406
念欲	-11.3406
水天	-11.341
發行	-11.3416
無虛	-11.3421
語已	-11.3423
是義不	-11.3423
苦道	-11.3424
是故當知	-11.3426
舍摩	-11.3427
勤心	-11.3428
寶樹	-11.3434
愁惱	-11.3435
大婆羅門	-11.3436
世尊為重明此義	-11.344
乘此	-11.3443
法障	-11.3445
我今為汝	-11.345
汝觀	-11.3452
久生	-11.3453
一事	-11.3455
所作業	-11.3476
有過	-11.3478
如是方便	-11.3482
是乘	-11.3483
佛形像	-11.3485
欲見佛	-11.3485
之位	-11.3486
現於	-11.3487
告彼	-11.3489
道教	-11.349
異見	-11.3492
其果	-11.3493
放大	-11.3494
當受	-11.3495
宣示	-11.3496
六十七	-11.3499
其邊	-11.3499
伽婆	-11.3501
當起	-11.3503
如是觀時	-11.3504
學法	-11.3506
即非	-11.3507
空法	-11.3511
不通	-11.3511
可怖	-11.3518
真實語	-11.3519
一世界	-11.3524
作是念言	-11.3527
甚為	-11.3527
等像	-11.3529
法緣慈	-11.353
難勝	-11.3531
而諸眾生	-11.3532
結上	-11.354
大歡喜	-11.3541
所能	-11.3542
諸蘊	-11.3544
受種種	-11.3545
過者	-11.3545
彼諸善男子	-11.3548
不能壞	-11.3548
能伏	-11.3549
色空	-11.3553
十一日合	-11.3557
二業	-11.3561
汝所	-11.3561
無求	-11.3561
雖受	-11.3563
諸水	-11.3566
大姓	-11.3566
求佛	-11.3568
得作	-11.357
致於	-11.357
真實見	-11.3571
自在菩薩	-11.3573
志願	-11.3573
得證	-11.3577
色貪	-11.3578
樹者	-11.3584
不許	-11.3586
因緣和合	-11.359
即白	-11.3593
其根	-11.3598
相見	-11.3601
作福	-11.3601
今復	-11.3604
皆如	-11.3605
如是大士	-11.3605
我往	-11.3611
八萬四千劫	-11.3611
金剛三昧	-11.3611
慧故	-11.3611
眾前	-11.3612
融	-11.3613
言曰	-11.3619
是名莊嚴	-11.3622
即彼	-11.3623
千歲	-11.3623
無有餘	-11.3623
入海	-11.3624
十三日合	-11.3625
於我所	-11.3625
那伽	-11.3634
說是三昧	-11.3634
實有	-11.3638
囉闍	-11.364
能護持	-11.3642
雖多	-11.3643
麻油	-11.3644
之神	-11.3644
得增長	-11.3645
無慈	-11.3645
說大集會正法	-11.3646
起大	-11.3648
所有福德	-11.3651
為善	-11.3652
求佛道	-11.3653
隨佛	-11.3654
利鈍	-11.3655
於此三千大千世界	-11.3656
如水	-11.3661
無依止	-11.3662
一切皆悉	-11.3663
無所壞	-11.3663
作惡業	-11.3663
斯經	-11.3666
即是空	-11.367
遮護	-11.3671
由心	-11.3674
苦集	-11.3676
功德海	-11.3676
或三	-11.3677
言已	-11.3678
如佛世尊	-11.3679
二十種	-11.3679
寶器	-11.3681
聽受法	-11.3682
諸想	-11.3682
持此經	-11.3685
無師	-11.369
普能	-11.3691
即名為	-11.3692
佛威神	-11.3692
得罪	-11.3693
微少	-11.3694
汝已	-11.3697
十住	-11.3702
三萬六千	-11.3703
無所犯	-11.3705
此皆	-11.3711
有三十二	-11.3711
有百千	-11.3712
諸魔業	-11.3717
遍照十方	-11.3717
為成熟	-11.3722
施其	-11.3725
善調	-11.3725
生瞋	-11.3725
邏娑	-11.3727
意根	-11.3728
諸法無我	-11.3729
身受	-11.3732
於菩提道	-11.3737
道業	-11.3738
不可得故	-11.3741
佛十力	-11.3742
智知	-11.3742
度諸	-11.3743
令我等	-11.3744
魔力	-11.3744
離故	-11.3744
為聽	-11.3745
母胎	-11.3747
六十五	-11.3752
三人	-11.3756
廣行	-11.3761
饒	-11.3763
苦眾生	-11.3763
說其	-11.3763
為汝	-11.3764
發精進	-11.3764
之具	-11.3766
修悲	-11.3767
如王	-11.3769
後生	-11.3769
一切諸佛之	-11.377
二子	-11.3771
是三	-11.3772
有大光明	-11.3773
發言	-11.3776
遍見	-11.3777
陀羅尼已	-11.3778
彼既	-11.3779
汝身	-11.3781
佛法中	-11.3783
能破一切	-11.3793
菩薩見已修	-11.3794
場和	-11.3795
其口	-11.3796
法界性	-11.3798
化身	-11.3798
所加	-11.38
色無色	-11.3801
禪定解脫	-11.3803
佛國土	-11.3809
若未	-11.3811
甚深佛法	-11.3813
諸菩薩行	-11.3813
諸罪人	-11.3814
為諸天	-11.3814
語者	-11.3814
無熱惱	-11.3815
及他	-11.3816
不可知	-11.3816
僧事	-11.3819
寶蓮華	-11.382
佛以	-11.3821
惡作	-11.3823
說此經	-11.3833
當速	-11.3833
如電	-11.3841
彼是	-11.3841
波那	-11.3841
八道	-11.3843
於餘	-11.3844
言音	-11.3845
於彼眾生	-11.3847
悉知之	-11.3847
平等行	-11.3848
而無有	-11.385
宣說如是	-11.3851
羂	-11.3852
佛法故	-11.3856
業果報	-11.3857
愛樂法	-11.3859
還自	-11.3862
牟尼尊	-11.3864
從定起	-11.3867
供養彼佛	-11.3868
不淨觀	-11.387
治國	-11.3872
不可說法	-11.3873
闍耶	-11.3875
從事	-11.3876
除罪	-11.3877
作無量	-11.3877
法想	-11.3879
亦云	-11.388
然燈如來	-11.3882
當持	-11.3883
惹	-11.3884
云何說	-11.3886
我得	-11.3886
白象	-11.3887
口所得美味好語言	-11.3888
然燈	-11.3889
搖	-11.389
意菩薩	-11.3891
宰	-11.3892
彼剎	-11.3893
修集慈悲	-11.3894
皆歡喜	-11.3897
種樹	-11.3898
共行	-11.3899
眼視	-11.3899
非想非非想	-11.39
說是偈	-11.3901
無來	-11.3903
不施	-11.3906
見聞隨喜	-11.3906
阿樓那	-11.3907
囉拏	-11.3908
亦能令彼一切眾生	-11.3908
弗沙	-11.391
北涼天竺三藏曇無讖譯	-11.3911
商	-11.3911
骨瑣	-11.3913
惡麁堅苦痛不可身	-11.3913
鬪亂	-11.3913
如是忍者是無	-11.3914
諸三昧門	-11.3915
盈	-11.3915
縱廣高下	-11.3916
澁	-11.3917
離間語	-11.3918
九萬九千	-11.3919
汝亦應令得生敬信	-11.3919
驚動	-11.3919
事而持禁戒	-11.3919
摩睺勒	-11.392
麻	-11.392
靜室	-11.392
造身語意	-11.3921
舉苾芻	-11.3921
蓮華藏如來	-11.3921
無力	-11.3921
既命終已	-11.3922
堪為聲聞	-11.3922
貧匱	-11.3923
沒履呿	-11.3923
於獨覺乘得無誤失	-11.3923
戲笑	-11.3924
於獨覺乘補特伽羅得無誤失	-11.3924
盡形壽	-11.3924
把	-11.3924
此即能修	-11.3924
輕蔑	-11.3925
發弘誓願	-11.3925
薰	-11.3925
俱胝那庾多百千	-11.3925
我及我所	-11.3926
得究竟淨	-11.3926
忻	-11.3926
阿那婆達多龍王	-11.3926
暉	-11.3926
或從	-11.3926
下至一切被片袈裟剃	-11.3926
隨所生處	-11.3927
能滿六波羅蜜	-11.3927
不生樂想	-11.3927
是故如來於諸眾生而	-11.3927
贍部洲	-11.3928
縱廣正等	-11.3928
世尊復告賢護菩薩	-11.3928
常於菩提種種行願	-11.3928
挑	-11.3929
為佛作禮	-11.3929
伎藝	-11.3929
澄	-11.3929
此呪	-11.3929
他方怨敵	-11.3929
鬪戰	-11.3929
芬	-11.3929
塊	-11.393
彊	-11.393
受諸苦毒痛切難忍	-11.393
於是中	-11.393
如說而作	-11.3931
噉食	-11.3931
於睡夢中	-11.3931
迷悶	-11.3932
班宣	-11.3932
乃往過去	-11.3932
扇	-11.3932
度諸眾生	-11.3932
即我身是	-11.3932
知如是者則知緣生法	-11.3932
憙樂	-11.3933
怖懼	-11.3933
童男	-11.3933
徑	-11.3933
天子千眷屬	-11.3933
八萬四千歲	-11.3933
剃髮	-11.3933
義故	-11.3934
作留難	-11.3934
無教	-11.3934
信受奉行	-11.3934
命終定生無間	-11.3934
從何所來	-11.3934
發無上菩提心	-11.3935
究暢	-11.3935
我等從今	-11.3935
陸	-11.3935
澡浴	-11.3936
為護法故	-11.3936
嬈亂	-11.3936
四梵住	-11.3936
窓	-11.3936
日行藏菩薩	-11.3937
羯磨	-11.3937
不作是念我起	-11.3937
為彼守護	-11.3937
所作諸業	-11.3937
曷囉	-11.3937
親近善知識	-11.3937
是故我禮	-11.3937
躬	-11.3938
夜叉等	-11.3938
刀兵	-11.3938
如是菩薩摩訶薩住第一義忍清淨平等	-11.3938
貪欲瞋恚愚癡	-11.3938
寬	-11.3938
丹	-11.3938
不如有人	-11.3939
乃至斷命	-11.3939
斫芻	-11.3939
駕	-11.394
疎	-11.394
厭倦	-11.394
以己神力	-11.394
朱	-11.3941
導御	-11.3941
謝	-11.3941
超異	-11.3941
虛空之性	-11.3941
讀誦書寫	-11.3941
婆迦	-11.3941
無所悕望	-11.3941
名為自說	-11.3942
簁	-11.3942
所作善根	-11.3942
未解脫者	-11.3942
枳	-11.3942
呬	-11.3943
龜	-11.3943
產業	-11.3943
大乘得無誤失	-11.3944
牟嘍	-11.3944
我於往昔	-11.3944
頻	-11.3944
政	-11.3945
諸根圓滿	-11.3945
隨業	-11.3946
香潔	-11.3946
綵	-11.3947
踊躍歡喜	-11.3947
家宅	-11.3947
撥無因果	-11.3948
橫死	-11.3948
金色光	-11.3948
臍	-11.3948
水災	-11.3948
以妙香花	-11.3949
細滑	-11.3949
片	-11.3949
踈	-11.3949
遠行安隱	-11.3949
危害	-11.395
黑繩	-11.395
度人	-11.395
此四宿日	-11.395
法兄	-11.3951
孔	-11.3951
今得	-11.3952
刻	-11.3952
依怙	-11.3952
女形	-11.3952
當墮惡道	-11.3953
率	-11.3953
各五百眷屬	-11.3953
超殊	-11.3953
稟	-11.3953
雷	-11.3953
是辰	-11.3954
不缺	-11.3954
譬如大地	-11.3954
恣意	-11.3954
洞	-11.3954
獵	-11.3954
塹	-11.3955
瞻視	-11.3955
或得	-11.3955
佛慧	-11.3956
金剛齊菩薩比丘	-11.3956
聚會	-11.3957
殘	-11.3957
又為一切	-11.3957
責	-11.3957
警	-11.3958
騰	-11.3958
只	-11.3958
糞穢	-11.3958
二別明	-11.3959
娜娜	-11.3959
無疑惑	-11.3959
婆羅門旃荼羅	-11.3959
亦不知	-11.3959
地藏慈尊	-11.3959
是命終人	-11.396
法典	-11.396
任運	-11.3961
少有	-11.3961
藝	-11.3961
篋	-11.3961
夏	-11.3962
習惡	-11.3962
毋	-11.3962
忉利天宮	-11.3962
墮阿鼻地獄	-11.3963
五濁世	-11.3963
裴	-11.3963
汝當受持	-11.3963
之根	-11.3963
入出息	-11.3964
問曰	-11.3964
減損	-11.3965
虛空之中	-11.3965
鋸	-11.3966
履尼	-11.3966
著我	-11.3966
幼	-11.3968
絃	-11.3968
神主當	-11.3968
鍾	-11.3969
狐	-11.3969
夢覺	-11.3969
是金剛句	-11.3969
阿吒	-11.397
十不善業	-11.397
殊勝功德	-11.3971
殊致羅娑	-11.3971
京	-11.3972
非受	-11.3972
胞胎	-11.3972
不可說故	-11.3973
觀佛三昧經	-11.3973
鑒	-11.3974
他化自在天王	-11.3974
初分三初	-11.3974
導利	-11.3974
沸	-11.3975
過咎	-11.3975
以為眷屬	-11.3975
百千生中	-11.3975
有大因緣	-11.3975
鼠	-11.3975
并餘	-11.3975
不可破壞	-11.3976
自稱我	-11.3977
盛滿	-11.3977
有剎帝利旃荼羅王	-11.3977
因陀羅	-11.3978
初分二初	-11.3979
鑊	-11.398
愍眾生	-11.398
自觀身	-11.398
饑	-11.398
是名第二	-11.3981
彼釋子	-11.3981
受三歸	-11.3981
而來至此	-11.3983
常樂寂靜	-11.3984
是諸人等	-11.3985
是名第三	-11.3986
度量	-11.3988
斛	-11.3988
無所獲	-11.3988
是名護法	-11.3989
即入三昧	-11.3989
我於過去	-11.399
離善知識	-11.399
去來現在	-11.3992
此是菩薩摩訶薩	-11.3993
毫相	-11.3993
吏	-11.3994
如是人等	-11.3994
非聖	-11.3995
至心聽法	-11.3997
不復生	-11.3998
智奮迅	-11.3998
惡臭	-11.3999
修集大悲	-11.3999
楞嚴云	-11.3999
與欲	-11.4
西天	-11.4
磨滅	-11.4002
大山	-11.4002
能師子吼	-11.4003
四洲	-11.4003
如斯念	-11.4003
是名非法	-11.4004
狀如	-11.4005
入王舍城	-11.4005
滅沒	-11.401
眾聖	-11.4011
戒義	-11.4013
夜摩天	-11.4014
巧方便智	-11.4016
知他心	-11.4016
能與眾生	-11.4017
一切法自性	-11.4017
入胎者	-11.4018
雷震	-11.4019
如是等經	-11.402
普觀	-11.4023
但有	-11.4026
隨機	-11.4026
品類	-11.4026
非行	-11.4026
攝諸	-11.4027
種種音樂	-11.4028
去來今	-11.4029
是白月	-11.403
微妙法	-11.4032
國王大臣	-11.4033
威勢	-11.4034
一切三世	-11.4035
唯舍利弗	-11.4035
速成阿耨多羅三藐三菩提	-11.4035
滅已	-11.4035
得無上菩提	-11.4036
後夜	-11.4036
八十億	-11.4037
三牟陀	-11.4037
亦有二	-11.4038
有漏法	-11.4039
息入出	-11.4041
知諸法性	-11.4042
所壞	-11.4043
為上	-11.4045
無有處所	-11.4046
處非處	-11.4046
本來清淨	-11.4048
中央	-11.4048
難見	-11.4049
聞三昧	-11.4051
生死涅槃	-11.4052
依何	-11.4054
受彼	-11.4054
大乘法義	-11.4058
不漏	-11.4058
眾中有一	-11.4058
遠聞	-11.406
分別辯	-11.406
令彼等	-11.4061
復現	-11.4062
欲天	-11.4062
諸天人等	-11.4062
於彼世界	-11.4063
常定	-11.4063
而師子吼	-11.4064
遍至	-11.4066
乃至命終	-11.4067
或一	-11.4067
已斷	-11.4068
不捨一切眾生	-11.4069
我復又	-11.407
等御	-11.4071
無所起	-11.4071
主命	-11.4072
持用	-11.4073
別離	-11.4075
六反	-11.4077
種種苦	-11.4077
乃至證得	-11.4077
在地獄	-11.408
無間斷	-11.4086
嚴身	-11.4086
無蓋	-11.4089
善人	-11.409
此四天下所有	-11.409
空無所有	-11.409
人生	-11.4091
獲得菩提	-11.4091
聞佛說	-11.4091
一切眾生境界	-11.4091
眼空	-11.4092
上來	-11.4092
信於	-11.4092
波羅蜜多	-11.4093
小國王	-11.4095
以頌讚	-11.4098
具行	-11.41
不念我	-11.4101
如山	-11.4104
遠離煩惱	-11.4104
宜應	-11.4106
其華	-11.4106
幾種	-11.4109
無懈倦	-11.411
不正	-11.4111
諸初生者	-11.4112
受福	-11.4114
護之	-11.4115
聞我	-11.4115
諸阿羅漢	-11.4116
厭足	-11.4118
各得	-11.4118
無諂	-11.4119
故今	-11.412
寧不	-11.4123
諸度無極	-11.4123
受快樂	-11.4124
未定	-11.4124
成就智	-11.4126
林樹	-11.4126
於此世界	-11.4127
善聽	-11.4129
無聞	-11.413
得福多	-11.4132
安諦	-11.4132
日日	-11.4133
并其	-11.4135
究竟具足	-11.4135
八萬億	-11.4139
六十三	-11.4144
無退轉	-11.4145
與諸眾生	-11.4147
若施	-11.4149
生厭離	-11.415
是無為	-11.4151
日合箕	-11.4153
悉捨	-11.4154
法也	-11.4154
光明遍照	-11.4155
心得解脫	-11.4158
功能	-11.4159
之精	-11.416
是何等	-11.416
諸法悉	-11.4161
日合觜	-11.4162
虛無	-11.4164
清淨施	-11.4165
知故	-11.4166
不死	-11.4167
善觀作	-11.4168
菩薩具足	-11.4168
世有	-11.417
名為如說	-11.4171
或勸	-11.4172
惡病	-11.4174
度生	-11.4175
無怖畏	-11.4178
若今現在	-11.4181
若約	-11.4182
諸佛功德	-11.4183
無闇	-11.4185
善順	-11.4185
比一	-11.4185
依止於	-11.4193
治生	-11.4195
業因緣故	-11.4197
塵數	-11.4199
初稱名	-11.42
行檀波羅蜜	-11.4202
利益世間	-11.4203
亦是菩薩	-11.4203
勸人	-11.4206
耀	-11.4208
諸如來是	-11.4208
一切所作	-11.421
有善男子	-11.4211
諸法實相	-11.4214
餘乘	-11.4216
愛因緣	-11.4216
以何等	-11.4218
莊嚴者	-11.422
憐愍一切	-11.4222
悉得解脫	-11.4223
不宜	-11.4223
四萬	-11.4224
若諸	-11.4225
無慢	-11.4226
與諸菩薩	-11.4231
日合軫	-11.4232
心所行	-11.4232
雖聞	-11.4235
無斷	-11.4235
法等	-11.4238
其水	-11.424
獨行	-11.4241
帝利	-11.4241
行惡	-11.4242
此應	-11.4244
以偈	-11.4246
由因	-11.4247
無作者	-11.4249
萬眷屬	-11.4256
欲貪	-11.4258
明慧	-11.4258
無非是	-11.4259
福力	-11.4262
知是眾生	-11.4262
六十二	-11.4262
度生死	-11.4264
四無礙	-11.4268
斷諸煩惱	-11.4269
一切國土	-11.4269
深知	-11.4273
調伏諸根	-11.4273
自稱	-11.4274
云何可	-11.4276
其量	-11.4276
日合亢	-11.4276
於無量世	-11.4278
非著	-11.428
次觀	-11.4281
如來法	-11.4281
心想	-11.4283
成立	-11.4283
如昔	-11.4286
同事	-11.4287
見彼佛	-11.4288
聽我說	-11.429
無歸	-11.429
壞亂	-11.429
則不能	-11.4291
作於	-11.4293
薩遮	-11.4294
未學	-11.4295
一切勇菩提薩埵摩訶薩埵	-11.4295
正意	-11.4297
如母	-11.4299
蒙佛	-11.4299
煩惱病	-11.4301
持法	-11.4301
諸威儀	-11.4303
己國	-11.4306
日合氐	-11.4307
那蛇	-11.4307
出苦	-11.4307
空界	-11.4308
不任	-11.4308
諸塵勞	-11.4309
置之	-11.4311
觸身	-11.4313
諸剎土	-11.4313
者無有是處	-11.4317
所稱譽	-11.4318
知有	-11.4318
無字	-11.4318
法服	-11.4319
諸小	-11.4319
是不住	-11.4321
未來眾生	-11.4321
當成	-11.4323
於娑婆世界	-11.4327
汝為	-11.4328
志在	-11.4333
於當來	-11.4334
復有一	-11.4334
令於	-11.4338
四日	-11.4338
即是菩提	-11.4339
如是智慧	-11.4342
人天樂	-11.4344
神通自在	-11.4345
如師子王	-11.4346
不來	-11.4351
佛法僧寶	-11.4352
往佛所	-11.4354
善因	-11.4355
中香	-11.4355
智慧方便	-11.4359
彼二人	-11.4361
無障礙故	-11.4365
菩提者	-11.4365
是我所	-11.4366
舍利弗問	-11.4369
中最	-11.4371
修行布施	-11.4373
而讚歎	-11.4374
惡道中	-11.4375
真實功德	-11.4376
善來	-11.4377
無為法	-11.4378
於往昔	-11.4378
;『	-11.4378
三乘法	-11.4378
魔女	-11.4384
等無異	-11.4387
欲往	-11.4391
大威力	-11.4392
即令	-11.4393
無捨	-11.4394
眾生諸根	-11.4399
法緣	-11.44
緣覺之乘	-11.44
曾無	-11.4401
是四	-11.4402
億千	-11.4403
色欲	-11.4404
逮成	-11.4405
佉婆	-11.4406
處胎	-11.4408
甘蔗	-11.4408
是誰	-11.4408
分身地藏	-11.4409
若生	-11.4416
是地藏菩薩	-11.4418
智方便	-11.4425
諸佛之所	-11.4426
菩薩復有四	-11.4426
佛足	-11.4427
佛會	-11.443
能照	-11.443
無變	-11.4431
所謂菩薩	-11.4431
當行	-11.4432
眾等	-11.4433
多惡	-11.4438
十二日合	-11.4439
應修	-11.4441
菩薩心	-11.4445
萬歲	-11.4446
一切佛法故	-11.4446
所建立	-11.4449
佉羅	-11.4451
一切音聲	-11.4453
而成	-11.4453
方便者	-11.4454
王宮	-11.4454
有佛名	-11.4454
於我所說	-11.4455
無因	-11.4455
行十善	-11.4457
廣設	-11.4459
此乃	-11.4461
鬼道	-11.4462
作如是觀	-11.4463
謂於	-11.4463
復有四種	-11.4464
眾生發阿耨多羅三藐三菩提心	-11.4467
感果	-11.447
壞滅	-11.4478
之所為	-11.4479
諸法平等	-11.4479
以是因緣故	-11.4483
中尊	-11.4484
入心	-11.4485
能壞眾生	-11.4486
山頂	-11.4491
皆悉具足	-11.4493
莫知	-11.45
諸如來所	-11.4504
日合婁	-11.4507
羅龍王	-11.4507
功德力	-11.4508
萬二千菩薩	-11.451
之所稱讚	-11.4512
求法者	-11.4512
淨水	-11.4515
未見	-11.4516
現大	-11.4516
日合辟	-11.4517
沙門婆羅門	-11.4517
定中	-11.4519
不捨離	-11.4519
於未來	-11.4521
黃金	-11.4523
利益事	-11.4525
斷愛	-11.4526
威神之力	-11.4526
我今以此	-11.453
妙音聲	-11.4532
二十一者	-11.4533
識滅	-11.4533
羞慚	-11.4537
恭敬尊重	-11.4542
悋	-11.4543
懈怠者	-11.4543
即能獲得	-11.4543
設供養	-11.4546
據此	-11.4547
塵沙	-11.4549
手中	-11.4552
作大利益	-11.4553
生疑惑	-11.4553
生相	-11.4561
滅罪	-11.4568
起時	-11.4573
飲食衣服	-11.4575
我應	-11.4575
如是觀察	-11.4575
諸神	-11.4576
猶如幻化	-11.4577
寶物	-11.4577
永不復	-11.4581
亦無不	-11.4581
令無	-11.4582
而實	-11.4583
一切諸佛之所	-11.4586
億那由他百千	-11.4587
能速	-11.4589
速疾得	-11.4601
生慚愧	-11.4603
之乘	-11.4606
王者	-11.461
善念	-11.4612
諸蟲	-11.4615
行來	-11.4615
者豈	-11.4621
明淨	-11.4629
悉解	-11.4629
或聞	-11.4631
生慈心	-11.4635
能通達	-11.4638
曇	-11.464
或能	-11.4642
牛頭	-11.4644
觸欲	-11.4645
今地藏	-11.4647
瑕疵	-11.4648
汝今當	-11.465
作護	-11.4651
法炬	-11.4655
若聲聞	-11.466
自然故	-11.4661
遠離諸惡	-11.4662
三惡道苦	-11.4662
度一切	-11.4663
造諸惡	-11.4664
是人得	-11.4665
願王	-11.4667
觜	-11.4667
喻如虛空無有	-11.4672
持經	-11.4676
若一切法	-11.468
所照	-11.4681
爾時有佛	-11.4685
罪惡	-11.4686
堪能	-11.4686
於今	-11.4686
更作	-11.4687
說無量	-11.4687
於彼等	-11.4688
不調	-11.4689
乃有	-11.4689
如是行者得	-11.4692
說陀羅尼	-11.4695
在地	-11.4697
於煩惱	-11.4701
一切相	-11.4702
知過去	-11.4703
順行	-11.4706
諸樹	-11.471
慧聚	-11.4711
力也	-11.4711
貪身	-11.4716
常令	-11.472
心及	-11.4721
怙	-11.4724
顯說	-11.4725
隨願	-11.4726
能堪任	-11.4727
無邊智	-11.4729
色無色界	-11.4731
巧說	-11.4732
虛空相	-11.4733
世間出世間	-11.4734
天然	-11.4735
乃至百千	-11.4736
法母	-11.4736
觀時	-11.4737
侶	-11.4737
餘道	-11.4739
出大	-11.4741
不可思議功德	-11.4742
信行	-11.4743
智業	-11.4752
以善	-11.4754
為欲利益	-11.4756
沙國	-11.4759
我行	-11.4761
此識	-11.4761
壞者	-11.4762
復遇	-11.4767
無受者	-11.4769
證三昧	-11.4769
微妙經典	-11.4771
諸法故	-11.4771
具是	-11.4773
行三昧	-11.4773
動搖	-11.4774
尸棄	-11.4775
說妙法	-11.4777
系	-11.4778
箕	-11.4778
防護	-11.478
過惡	-11.4789
藥王軍菩薩言	-11.4789
童	-11.4792
伎術	-11.4792
破戒惡行苾芻	-11.4795
入地獄	-11.4795
受戒	-11.4797
鈴	-11.4798
蘭	-11.48
彼雖	-11.48
乃至以精進	-11.48
種種資生	-11.4802
和悅	-11.4803
護於	-11.4804
信施	-11.4804
無相無願	-11.4804
雖欲修	-11.4805
告我言	-11.4806
空者	-11.4807
正言	-11.4808
證涅槃	-11.4813
於禪	-11.4813
有限	-11.4815
金剛力士	-11.4815
死尸	-11.4818
釋迦文佛	-11.482
修平等行	-11.482
如是生死無數劫是為顛倒	-11.4822
境界即佛境界	-11.4824
奇特	-11.4824
北涼天竺三藏曇無讖	-11.4824
沓	-11.4825
悉從	-11.4825
毘樓博叉天王	-11.4825
是慢業	-11.4825
或斷其命	-11.4826
伎	-11.4826
皆悉輾壞	-11.4826
勿生	-11.4827
毘樓勒叉天王	-11.4827
世之	-11.4827
美味好語言	-11.4827
求樂離苦	-11.4827
是為菩薩成就八法	-11.4827
能稱地藏菩薩名號	-11.4827
將命終時	-11.4827
提頭賴吒天王	-11.4828
憂苦逼切	-11.4828
日輪	-11.4828
毘摩質多羅阿修羅王	-11.4829
剡魔王	-11.4829
權方便	-11.4829
假使菩薩	-11.483
四方僧	-11.483
是為菩薩校計	-11.483
無所積聚	-11.483
酒所醉無覺知者	-11.483
深生敬信	-11.4831
皆言	-11.4831
灌頂剎利王	-11.4831
若人於此	-11.4831
阿素洛	-11.4831
不驚不怖	-11.4831
朋友	-11.4831
其順法者亦不	-11.4832
於聲聞乘補特伽羅得無誤失	-11.4832
端正聰明	-11.4832
細軟	-11.4832
五日合	-11.4832
常能熾然三寶種姓	-11.4832
於其大乘補特伽羅得無誤失	-11.4832
是為菩薩成就四法	-11.4833
恭敬圍遶	-11.4833
審如有知	-11.4833
慧燈三昧	-11.4833
頭面敬禮	-11.4833
以戒莊嚴	-11.4834
般泥洹	-11.4834
?』」「	-11.4834
鉗	-11.4835
諸佛所說念佛三昧	-11.4835
陰界諸入	-11.4835
體廢缺	-11.4835
利益安樂無量有情	-11.4835
汝曹	-11.4835
波羅提木叉	-11.4835
不久便當	-11.4836
怛薩阿竭	-11.4836
既出家已	-11.4836
八萬四千諸	-11.4837
東方去此	-11.4837
恣汝所問	-11.4837
地藏菩薩本願經	-11.4837
日合翼	-11.4837
一句一偈	-11.4837
蠲除一切	-11.4838
知恩報恩	-11.4838
齎持	-11.4838
燃燈	-11.4838
芻	-11.4838
難測	-11.4838
令無有餘	-11.4838
四方僧物	-11.4838
護世四王	-11.4839
乾闥婆千眷屬	-11.4839
閣	-11.4839
妬嫉	-11.4839
僧伽吒	-11.484
麁惡語	-11.484
迦留尼迦	-11.484
剃	-11.484
槊	-11.484
譏呵者	-11.484
出家修道	-11.484
中細軟	-11.484
微薄	-11.4841
懅	-11.4841
蔭	-11.4841
波羅奈	-11.4842
是名如來第十	-11.4842
有黑子	-11.4842
於後末世	-11.4842
化作床座	-11.4843
復有八事	-11.4843
冠	-11.4843
床座	-11.4843
遭遇	-11.4843
擊大法鼓	-11.4843
前為佛作禮	-11.4843
妻妾	-11.4843
伽藍	-11.4844
令法久熾然	-11.4844
常不遠離	-11.4844
環	-11.4844
憒	-11.4845
向佛合掌	-11.4846
雹	-11.4846
正定聚	-11.4846
映	-11.4846
不可議	-11.4846
所以迴反	-11.4846
破和合僧	-11.4846
寂靜心	-11.4846
憒亂	-11.4846
四意斷	-11.4846
難得人身	-11.4846
一切殊勝善	-11.4846
怨讎	-11.4847
大授記陀羅尼	-11.4847
我為是等	-11.4848
具大果報	-11.4848
若男若女	-11.4848
說此呪已	-11.4848
彼精進王	-11.4849
若人能	-11.4849
逆罪	-11.4849
流布之處	-11.4849
陛	-11.485
功祚	-11.485
一滴水	-11.4851
此陀羅尼有大勢力	-11.4851
雪	-11.4851
帝釋天主	-11.4851
如是得三昧	-11.4851
一百一十	-11.4851
患厭	-11.4852
哂	-11.4852
無受無取	-11.4853
能求一切	-11.4853
髓腦	-11.4853
予	-11.4854
孤獨	-11.4854
毀罵	-11.4854
不觀後世畏	-11.4855
至世尊所	-11.4855
天上世間	-11.4855
無轉	-11.4855
鬚髮者	-11.4855
沐浴	-11.4856
阿惟越致	-11.4856
浪	-11.4856
靡所不	-11.4856
八正	-11.4857
崇	-11.4857
跛履侈	-11.4857
官屬	-11.4857
針	-11.4857
博叉	-11.4857
赤真珠	-11.4857
雜類	-11.4857
刑	-11.4858
寢	-11.4858
波羅提	-11.4858
壞煩惱魔	-11.4858
欽	-11.4858
薄少	-11.4858
苗	-11.4858
迴轉	-11.4859
筆	-11.486
不如意事	-11.486
犯禁	-11.486
謀	-11.486
挽	-11.486
阿奴	-11.4861
我今敬禮	-11.4861
包	-11.4861
財產	-11.4861
汝可持	-11.4861
出微妙音	-11.4861
一彈指頃	-11.4861
永不退轉	-11.4861
遍智	-11.4861
此善男子亦復如是	-11.4862
向彼魔王	-11.4862
發菩提之心	-11.4862
區	-11.4862
或有得於	-11.4863
淨潔	-11.4863
入三昧已	-11.4864
一品	-11.4864
衛	-11.4865
寶貝	-11.4865
是寶曜總持	-11.4865
魏	-11.4865
罪障	-11.4865
成熟有情	-11.4865
出大音聲	-11.4865
且置	-11.4865
言訟	-11.4866
沒唎	-11.4866
膳	-11.4866
或自	-11.4867
能了	-11.4867
布薩	-11.4867
黑山	-11.4867
成熟故	-11.4868
倉	-11.4868
不望報	-11.4868
飲酒	-11.4869
不可計會	-11.4869
問於如來	-11.4869
一切諸如來	-11.487
性識無定	-11.487
昭	-11.4871
於彼命終	-11.4871
善根者謂	-11.4871
匹	-11.4871
在日前	-11.4872
復有二事	-11.4872
具大神通	-11.4872
皆悉降伏	-11.4872
祕	-11.4872
十方無量世界	-11.4873
偷	-11.4873
欲界諸天	-11.4873
除煩惱病	-11.4874
畵	-11.4874
狹	-11.4875
普覆	-11.4875
阿耨菩提	-11.4875
回	-11.4876
移轉	-11.4876
校	-11.4876
鉤	-11.4876
此三昧者	-11.4877
蘭若	-11.4877
余	-11.4877
月黑月	-11.4877
一切眾生心行	-11.4878
頑	-11.4878
男女眷屬	-11.4878
分齊	-11.4881
分二	-11.4881
隨其所樂	-11.4882
忠	-11.4882
無高	-11.4882
所牽	-11.4882
地行	-11.4882
陶	-11.4883
耕	-11.4884
冬	-11.4884
嘗	-11.4884
以自莊嚴	-11.4885
千里	-11.4885
土中	-11.4885
無所造作	-11.4885
該	-11.4885
苦毒	-11.4887
凡聖	-11.4887
佛隨念	-11.4887
及大菩薩	-11.4887
淨身口意	-11.4888
無限量	-11.4889
無上乘	-11.4889
臣民	-11.489
磨瑩	-11.489
生善處	-11.4891
混	-11.4891
四海	-11.4891
啟問	-11.4892
跪	-11.4892
九十一	-11.4893
厭惡	-11.4894
根器	-11.4894
銕城	-11.4895
千子	-11.4895
廿	-11.4896
懷來	-11.4896
法界亦爾	-11.4897
輕安	-11.4897
波利婆	-11.4897
所不能及	-11.4897
循	-11.4898
演出	-11.4898
果名精進處	-11.4899
阿鞞	-11.49
定意莊嚴	-11.49
一一毛孔	-11.49
應機	-11.4901
遍動	-11.4901
覽	-11.4901
三千界	-11.4902
炙	-11.4904
於上	-11.4905
大集會正法	-11.4906
廣遠	-11.4906
是即	-11.4906
壽終	-11.4907
雀	-11.4908
梵釋	-11.4908
修持	-11.4909
常欺	-11.4909
彼說	-11.4911
有大利益	-11.4912
老病	-11.4913
種種病	-11.4913
人中上	-11.4914
當知即是	-11.4914
不誑諸佛	-11.4915
不了義	-11.4915
離癡	-11.4915
如是等類	-11.4915
普賢如來	-11.4918
偈頌	-11.4919
錯亂	-11.4919
無暗	-11.492
所行處	-11.4921
供像	-11.4921
發心布施	-11.4921
如來三昧	-11.4921
名為善	-11.4921
鐵圍山	-11.4922
作如是說	-11.4923
奪精氣	-11.4923
若有法師	-11.4923
百種	-11.4923
往反	-11.4924
三百眷屬	-11.4924
以方便故	-11.4924
眾生處於	-11.4924
但是	-11.4924
無悋惜	-11.4926
現其身	-11.4928
飯食	-11.4929
清淨戒行	-11.4929
於此大乘	-11.493
葱	-11.493
藏中	-11.4931
勤力	-11.4932
天祠	-11.4932
婆呵囉	-11.4937
勸諸眾生	-11.4938
知一切諸法	-11.4939
供奉	-11.4939
一切文字	-11.4939
己利	-11.4942
此八	-11.4943
云何如來	-11.4944
為我等說	-11.4946
圓成	-11.4946
乃名	-11.4947
我涅槃後	-11.495
真實了知	-11.4951
不自在	-11.4954
或樂	-11.4954
何由	-11.4955
得正見	-11.4958
誰為	-11.4958
四姓	-11.4958
念諸佛	-11.4961
隨所樂	-11.4961
如是知已	-11.4963
菩薩名	-11.4965
佛告比丘	-11.4965
殺處	-11.4966
是名菩薩修行	-11.4967
不怯弱	-11.4968
九種	-11.497
同等	-11.4971
墮大地獄	-11.4974
宿主於	-11.4975
戒依止	-11.4975
邪道	-11.4977
分中	-11.4977
四天王等	-11.4978
當來世	-11.4979
二顯益	-11.4979
鴦伽	-11.4979
小果	-11.4979
與共	-11.498
惡不善業	-11.498
求是三昧	-11.4981
尊者舍利弗	-11.4982
陀羅尼者	-11.4983
如來行處	-11.4983
須彌頂	-11.4983
之原	-11.4983
斷集	-11.4984
無量福	-11.4984
自見身	-11.4986
於甚深法	-11.4989
餘報	-11.4989
分別諸	-11.499
生其土	-11.4993
如菩薩摩訶薩	-11.4995
我今於此	-11.4995
七重	-11.4995
雜寶	-11.4996
如來之身	-11.4996
諸有情類	-11.4996
臭惡	-11.4997
何用	-11.4997
不恐	-11.4998
於經中	-11.4999
大虛空藏菩薩摩訶薩	-11.5003
諸梵	-11.5004
日合危	-11.5005
亦自	-11.5007
其事如是	-11.5007
大長者	-11.501
是言	-11.5012
攝一切法	-11.5015
具足滿	-11.5015
地獄苦	-11.5015
受念處	-11.5019
諸不善業	-11.502
無等等	-11.5022
洋銅	-11.5022
於佛正法	-11.5023
日合角	-11.5027
盧遮那	-11.5029
必能	-11.5029
世尊告不空見	-11.503
總持莊嚴	-11.5031
烏闍	-11.5032
可厭患	-11.5033
能了知	-11.5033
是智	-11.5037
親愛	-11.5037
宣說妙法	-11.5038
入一	-11.5038
諸善知識	-11.504
墮地	-11.5043
亦無所得	-11.5045
眼界	-11.5047
則能具足	-11.5048
成就一切	-11.5048
倍復	-11.5049
皆號	-11.5051
同彼	-11.5051
諸惡道	-11.5052
名為梵行	-11.5056
眾數	-11.5057
行檀	-11.5059
坐處	-11.5059
施心	-11.506
其有眾生	-11.5061
不相應	-11.5062
蒙世尊	-11.5063
無上菩提道	-11.5065
我所說	-11.5073
之所供養	-11.5074
一切眾生之心	-11.5077
無明滅	-11.508
身念處	-11.5081
凡愚	-11.5081
法界平等	-11.5082
然而	-11.5084
如意寶	-11.5085
觸因緣	-11.5088
貪求	-11.509
雨種種寶	-11.509
成法器	-11.509
與樂	-11.5091
不污	-11.5092
彼諸世尊	-11.5093
未脫	-11.5093
知宿命	-11.5094
作障礙	-11.5096
之機	-11.5101
感應	-11.5102
心無所著	-11.5102
當善	-11.5103
無患	-11.5109
身壞命終得生	-11.5113
聲聞辟支佛乘	-11.5114
斯法	-11.5115
不善思惟	-11.5115
問難	-11.5115
覩諸	-11.5119
而退	-11.5119
詣世尊所	-11.5119
比摩	-11.5121
天耳聞	-11.5122
能害	-11.5123
王與	-11.5126
令護	-11.5127
座上	-11.5128
元首	-11.5128
閻浮提內	-11.5129
乘最	-11.5129
入此三昧	-11.513
菩薩亦如是	-11.5131
無道	-11.5133
於佛道	-11.5133
名數	-11.5134
即是虛空	-11.5136
死後	-11.5138
還得	-11.514
第一樂	-11.5142
名為菩薩摩訶薩	-11.5144
說文	-11.5145
真智	-11.5145
眾生諸煩惱	-11.5145
隨緣	-11.5147
闍鞞	-11.5147
一大樹	-11.5147
能如是知	-11.5147
如師子	-11.515
應捨	-11.5151
照了	-11.5152
高明	-11.5153
巧便	-11.5154
千生	-11.5154
則非	-11.5155
非心	-11.5155
取彼	-11.5156
滿其中	-11.5159
繒蓋	-11.5164
而皆	-11.5166
墮苦	-11.5167
滅無餘	-11.5169
得聖	-11.5171
大菩薩眾	-11.5174
故特	-11.5176
故我今日	-11.5177
能永斷	-11.5179
汝意	-11.518
造行	-11.518
其月	-11.5181
為喻	-11.5181
▁薩	-11.5182
隨處	-11.5183
不加	-11.5183
自慚	-11.5185
轉生	-11.5186
其中所有	-11.5188
業煩惱	-11.5188
白色	-11.5191
無量天人	-11.5198
是人則	-11.5209
入智	-11.521
斷故	-11.5211
宿業	-11.5213
中陰	-11.5213
菩薩大悲	-11.5216
愚者	-11.5223
於後世	-11.5226
菩薩雖	-11.5228
同心	-11.5233
說時	-11.5233
正精進	-11.5234
演法	-11.5237
明月	-11.524
滅界	-11.5246
彼人言	-11.5246
達囉	-11.5247
見十方佛	-11.5248
在外	-11.5248
持是三昧者	-11.525
諸塵	-11.525
大音聲	-11.525
諸群生	-11.525
證阿耨多羅三藐三菩提	-11.5252
皆生歡喜	-11.5252
今有	-11.5256
作諸惡	-11.5262
呵囉	-11.5264
一切鬪諍	-11.5265
是地藏菩薩摩訶薩	-11.5266
取捨	-11.5267
十日合	-11.5268
受女身	-11.5269
雖生	-11.5272
亦得如是	-11.5272
於無為	-11.5272
鴦耆	-11.5274
以至	-11.5274
善願	-11.5275
不染著	-11.5276
為根本	-11.5277
字語	-11.5281
持正法	-11.5284
能降	-11.5284
壽者	-11.5285
如是精進	-11.5285
國主	-11.5289
六日合	-11.5291
事已	-11.5292
福德莊嚴	-11.5293
非道	-11.5293
為障礙	-11.5295
世尊欲重宣此義	-11.5298
不退心	-11.5298
未到	-11.5301
未解	-11.5301
佛上	-11.5302
初住	-11.5302
寶光	-11.5304
不見諸法	-11.5305
一反	-11.5308
有佛世尊名	-11.5309
生邊地	-11.5309
若一	-11.5313
所逼	-11.5315
利智	-11.5315
攝護	-11.5319
八十八	-11.5325
出三界	-11.5325
非唯	-11.5326
壞諸	-11.5327
其神	-11.5331
用是故	-11.5331
所食	-11.5337
道力	-11.5339
從地	-11.5339
無礙智慧	-11.5341
日合室	-11.5345
所想	-11.5345
彼世界中	-11.5345
得成就阿耨多羅三藐三菩提	-11.5349
爾許	-11.535
是比丘	-11.5351
得聞正法	-11.5361
魔所	-11.5362
更生	-11.5364
不和	-11.5364
方便智慧	-11.5366
菩薩形像	-11.537
囉娑	-11.5371
亦捨	-11.5373
如先	-11.5373
未度	-11.5375
我禮	-11.5377
不持	-11.5379
菩提心者	-11.538
師想	-11.5381
伽那	-11.5382
有見	-11.5382
菩薩具足如是	-11.5384
曼陀	-11.5385
毒惡	-11.5388
言之	-11.5388
是王	-11.5389
大雲	-11.5392
一沙	-11.5399
齋日	-11.5401
十二月	-11.5402
見已即	-11.5402
無心意識	-11.5403
所歎	-11.5403
奧	-11.5403
七星	-11.541
在閻浮提	-11.5411
妙智	-11.5415
呵呿	-11.5418
口說	-11.542
諸佛之法	-11.542
大夜叉	-11.5421
從因緣	-11.5421
無量力	-11.5422
二十三者	-11.5422
何行	-11.5423
今何	-11.5423
菩薩於彼	-11.5424
若婆羅門	-11.5425
莊嚴身	-11.5427
如來大悲	-11.5427
德龍王	-11.5429
為根	-11.5431
陀羅尼呪	-11.5434
觀無常	-11.5436
國人	-11.5437
復有三	-11.5438
是忍	-11.5438
分別諸法	-11.5445
我不能	-11.5446
歸命禮	-11.5446
同聲讚	-11.5447
告諸大眾	-11.5449
而應	-11.545
二十四者	-11.5451
而獲	-11.5452
眾想	-11.5452
復說	-11.5453
得無礙	-11.5454
為攝	-11.5455
汝不空見	-11.5457
聖達	-11.5458
誠實	-11.5459
法住	-11.5459
呪曰	-11.546
來會	-11.546
至心聽	-11.546
樹王	-11.5462
▁生	-11.5463
二十二者	-11.5465
四如意	-11.5466
淨不淨	-11.5467
色界天	-11.5469
親承	-11.547
上品	-11.5471
有多	-11.5475
不誹謗	-11.5476
不決定	-11.5477
邪行	-11.5478
婆訶	-11.548
)。△	-11.5481
作惱亂	-11.5481
若有眾生樂	-11.5482
七十二	-11.5483
永滅	-11.5483
救苦	-11.5484
斯那	-11.5485
而興	-11.5486
下有	-11.5493
我雖	-11.5495
在會	-11.5501
因從	-11.5503
能作是	-11.5506
慈力	-11.5507
況今	-11.5509
所說之法	-11.551
說諸法	-11.5514
十惡業	-11.5517
亦不著	-11.5518
有無	-11.5534
得見諸佛	-11.5535
受苦者	-11.554
自度	-11.5541
七十六	-11.5545
覩其	-11.5546
未至	-11.5547
真實性	-11.5549
得成熟	-11.5551
質多羅	-11.5551
初二	-11.5554
諸菩薩摩訶薩眾	-11.5554
軫	-11.5554
明相	-11.5555
想著	-11.5556
三十五佛	-11.5558
使者	-11.5559
六十億	-11.556
無煩惱	-11.5562
而說法	-11.5563
極樂	-11.5565
任持	-11.5565
心施	-11.557
供養供給	-11.557
妙花	-11.5574
之流	-11.5575
故說	-11.5575
思惟分別	-11.5578
佛身相	-11.5581
不見如來	-11.5582
依地	-11.5582
非餘	-11.5584
其戒	-11.5585
其願	-11.5586
此光	-11.5587
求之	-11.559
能堪忍	-11.5592
謂有	-11.5592
種種相	-11.5593
為菩提	-11.5596
或是	-11.5598
七七日	-11.5599
及欲	-11.5599
及智慧	-11.56
奉散	-11.5601
彼法師	-11.5602
通達一切	-11.5606
大威	-11.561
身內	-11.5614
為解說	-11.5617
我但	-11.562
業輪	-11.562
是人即得	-11.5623
識生	-11.5623
皆得無生法忍	-11.5623
何等是	-11.5623
廣演	-11.5623
未久	-11.5623
不久當得	-11.5624
得受	-11.5624
無上正等菩提	-11.5626
如來真實	-11.5631
彼若	-11.5632
遊於	-11.5634
右手	-11.5634
無熱	-11.5635
頌讚佛	-11.5637
助成	-11.5642
所種善根	-11.5646
戒品	-11.5647
斯事	-11.5648
各於	-11.5651
九十四	-11.5651
三明	-11.5653
而修行	-11.5653
能忍受	-11.5654
利生	-11.5654
化度眾生	-11.5655
坊	-11.5665
郁	-11.5666
亦不能得	-11.5667
禪支	-11.5669
為最	-11.567
堅固精進	-11.567
復有菩薩	-11.5675
亢	-11.5675
一行	-11.5676
大龍王	-11.5678
一百二十	-11.5686
救我	-11.5694
諸習氣	-11.5695
皆來集	-11.5695
今說	-11.5697
慧光	-11.5697
聲聞人	-11.5699
廣普	-11.5699
為勝	-11.5699
本願力故	-11.5702
雖行	-11.5703
無所貪	-11.5705
無雜	-11.5707
無量眾生得	-11.5709
得值遇	-11.571
問其	-11.571
云何菩薩得	-11.5711
然我	-11.5711
。『	-11.5713
第三禪	-11.5717
受持讀誦書寫	-11.5717
鬚	-11.5718
百千方便	-11.5718
生信解	-11.5721
多欲	-11.5726
求多聞	-11.5726
滅智	-11.573
內法	-11.5731
顯發	-11.5733
各皆	-11.5737
名無生智	-11.5737
聞佛名	-11.5738
海意菩薩摩訶薩	-11.5738
十八不共	-11.5739
菩薩布施	-11.574
梵聲	-11.5744
知三世	-11.5746
能捨一切	-11.5747
一切法故	-11.5747
年少	-11.5751
野馬	-11.5755
菩提記	-11.5757
問已	-11.5758
歸依處	-11.5758
求救	-11.5758
而巳	-11.5759
分別法界	-11.576
能宣說	-11.5764
善觀察	-11.5764
欲色	-11.5765
蓮	-11.5766
所頒宣	-11.5772
之鬼	-11.5773
多眾	-11.5773
皆是如來	-11.5774
自有	-11.5775
煩惱故	-11.5775
髻	-11.5775
復放	-11.5778
清淨微妙	-11.5783
身根	-11.5784
種智	-11.5786
後時	-11.5791
悉平等	-11.5793
餓	-11.5795
汝於過去	-11.5795
解此	-11.5795
下中上	-11.5797
於定	-11.5797
恒河沙等諸佛	-11.5797
一百四十	-11.5797
住不退轉地	-11.5799
智者所	-11.58
應作	-11.58
善思	-11.5801
淨眼	-11.5801
著淨	-11.5803
彼行布施清淨平等時	-11.5804
以明	-11.5805
取其	-11.5806
中味中語言	-11.5807
能開	-11.5809
專一	-11.5809
樂音	-11.5813
其界	-11.5813
留難	-11.5813
一切諸法性	-11.5814
能大	-11.5817
邪業	-11.5818
鄙	-11.5818
羞恥	-11.5819
危脆	-11.5819
潔	-11.5819
􂚹	-11.582
惡語	-11.582
相清淨故	-11.5822
唾	-11.5823
三藐三菩提記	-11.5823
如來於此而起大悲	-11.5823
本心	-11.5824
亦不授我阿耨多羅	-11.5825
諸尼乾陀眾	-11.5825
充遍	-11.5826
婆羅底	-11.5826
耳不聞聲	-11.5826
茷舍	-11.5827
詣寶高座住	-11.5827
持法比丘	-11.5827
五百妓女	-11.5827
皆共親愛	-11.5827
域	-11.5828
殊勝思惟	-11.5828
愚戇	-11.5828
於多	-11.5829
求覓	-11.5829
快哉	-11.5829
青琉璃	-11.5829
色二界中間	-11.583
依彼修學離	-11.583
三十日	-11.583
般舟三昧經	-11.583
心不生悔	-11.583
燒沈水香	-11.583
毀呰聖人	-11.583
僧伽藍	-11.5831
不動轉	-11.5831
迅疾	-11.5831
樂聽法	-11.5831
金翅鳥	-11.5831
漸次趣入	-11.5831
疾得是三昧	-11.5831
截	-11.5831
不共之法	-11.5831
無取無捨	-11.5831
惡夜叉	-11.5831
如實而知	-11.5832
有情來生其國	-11.5832
地及虛空	-11.5832
時無數菩薩	-11.5832
沈水香	-11.5833
來至我所	-11.5833
不斷佛種	-11.5833
名為如作	-11.5833
心生瞋忿	-11.5833
妙寶莊嚴堂	-11.5834
於五陰	-11.5834
須臾之頃至此忍界	-11.5834
眾生所行	-11.5834
於諸眾生其心平等	-11.5834
薜荔多	-11.5834
德華藏佛	-11.5834
與十江河沙等諸菩薩	-11.5835
住慧力時	-11.5835
旱潦	-11.5835
佛悉在前立	-11.5836
如是生死無數劫為顛倒	-11.5836
卷第九	-11.5836
遶佛三匝	-11.5836
妨礙	-11.5837
一心敬禮	-11.5837
住定力時	-11.5837
煙	-11.5837
節節支解	-11.5837
人與非人	-11.5837
立佛前	-11.5837
分陀利華	-11.5837
佛告一切勇菩提薩埵	-11.5837
得柔順忍	-11.5837
振	-11.5837
床敷	-11.5838
住信力時	-11.5838
於一食頃	-11.5838
隨所有處	-11.5838
俱胝大菩薩眾	-11.5838
曠劫	-11.5838
為聞法故	-11.5838
近善知識	-11.5838
我人壽命	-11.5838
於四眾中	-11.5838
受人天	-11.5838
各二千五百眷屬	-11.5839
紹	-11.5839
俱共發來至娑婆世界	-11.5839
智德峯王如來	-11.5839
諮啟	-11.5839
色貌	-11.5839
不可得思議	-11.584
我成如是第	-11.584
右繞七匝	-11.584
善住龍王	-11.584
是為菩薩出世間道	-11.584
阿須輪	-11.584
亦化眾人	-11.584
不可算數	-11.584
十二有支	-11.584
藥叉神	-11.584
元元	-11.5841
佗	-11.5841
唯願仁者	-11.5841
楚毒	-11.5841
無上正真之道	-11.5841
艱苦	-11.5841
而為其頂	-11.5841
如是比像	-11.5841
忍辱波羅蜜多	-11.5841
二萬一千	-11.5841
貪悋	-11.5841
難稱量	-11.5841
齎	-11.5842
提頭賴吒	-11.5842
開府儀同三司	-11.5842
炎德藏菩薩	-11.5842
不生不起	-11.5842
經家敘	-11.5842
則超魔境	-11.5843
躍	-11.5843
摶	-11.5843
巖	-11.5843
闥	-11.5843
令增壽命	-11.5843
能起	-11.5844
㲲	-11.5844
時諸菩薩偈讚歎佛頭面	-11.5844
七千由旬	-11.5844
饍	-11.5844
宰相	-11.5844
威曜	-11.5844
所作事業	-11.5844
惰	-11.5844
一切世間不可樂想	-11.5845
唯願說之	-11.5845
如說能行	-11.5845
知是眾生因	-11.5845
十二部經	-11.5845
光梵大師賜紫沙門臣惟淨等奉詔譯	-11.5845
勉	-11.5845
智明	-11.5845
昔所未轉	-11.5845
華菓	-11.5845
無增無減	-11.5845
修第一義諦菩薩摩訶薩	-11.5845
菩薩摩訶薩應當修學	-11.5845
燋	-11.5845
曼多	-11.5845
久遠劫來	-11.5845
歡欣	-11.5846
姊妹	-11.5846
阿鞞跋致	-11.5846
抵	-11.5846
志操	-11.5847
財富	-11.5847
不鼓自鳴	-11.5847
轉大梵輪	-11.5847
巨海	-11.5847
無慚無愧	-11.5847
百千酤胝	-11.5847
地味精氣	-11.5847
光澤	-11.5848
梵宮	-11.5848
毀破禁戒	-11.5848
着	-11.5848
魔王說偈	-11.5848
發心已來	-11.5848
曳	-11.5848
修伽陀	-11.5849
無能及者	-11.5849
福多	-11.5849
飽滿	-11.5849
品之餘	-11.5849
谿	-11.585
三十二相八十種好	-11.585
唐天竺三藏波羅頗蜜多羅譯	-11.585
退失神通	-11.585
怨讐	-11.585
編	-11.5851
善得	-11.5851
時婆羅門女	-11.5851
噓	-11.5851
能為一切	-11.5851
鮮	-11.5851
煎	-11.5851
爹	-11.5852
閉塞	-11.5852
簉	-11.5852
是則我師	-11.5852
甚深十二因緣	-11.5853
如前廣說	-11.5854
逮得無所從生法忍	-11.5854
頻婆	-11.5854
門戶	-11.5854
六十二見	-11.5855
牛羊	-11.5855
錢財	-11.5855
於我滅後	-11.5855
興隆	-11.5855
而出家者	-11.5855
清潔	-11.5855
踦	-11.5856
嬰兒	-11.5856
十種功德	-11.5856
說是伽陀	-11.5856
如意足	-11.5856
慳嫉	-11.5857
瘦	-11.5857
屠	-11.5857
舟	-11.5857
欄楯	-11.5857
覺華定自在王如來	-11.5858
津	-11.5858
顏貌	-11.5858
開導	-11.5858
那茶	-11.5859
孫	-11.5859
捷疾	-11.5859
過去諸如來	-11.5859
敬奉	-11.586
戀慕	-11.586
脇	-11.586
曲躬合掌	-11.586
隋	-11.586
策	-11.586
劬勞	-11.586
夭	-11.5861
瞬	-11.5861
無有陰蓋	-11.5861
不忘不失	-11.5861
因緣後來	-11.5861
方俗	-11.5861
艸	-11.5861
剉	-11.5861
俱來集會	-11.5861
復於餘剎或作	-11.5862
幾許	-11.5862
遷	-11.5862
犬	-11.5862
轉女身	-11.5863
明解脫	-11.5863
及諸眾生	-11.5863
斷滅善根	-11.5863
頭摩帝	-11.5863
紛	-11.5863
莫不歡喜	-11.5864
暮	-11.5864
旱	-11.5864
我從昔來	-11.5864
基	-11.5865
棒	-11.5865
諸根具足	-11.5865
無所取著	-11.5865
榮	-11.5865
三不護	-11.5866
廟	-11.5866
無毒答曰	-11.5866
眾生來生其國	-11.5867
同一味	-11.5867
哂離	-11.5867
達磨	-11.5867
持戒多聞	-11.5867
觀察諸法	-11.5867
較量	-11.5868
偶	-11.5868
貧賤	-11.5868
江河沙等	-11.5868
惡剎利王	-11.5868
備足	-11.5869
有諸國王	-11.5869
文辭	-11.5869
巧妙	-11.5869
摩尼珠	-11.5869
渠	-11.5869
希望	-11.587
新學	-11.587
調御師	-11.587
告阿難	-11.5871
裏	-11.5871
統領	-11.5871
鎖	-11.5871
彈	-11.5871
怠	-11.5871
願救濟我	-11.5871
正師子吼	-11.5872
佐助	-11.5872
爾時彌勒菩薩摩訶薩	-11.5872
與諸大眾	-11.5872
無義語	-11.5873
皆是慢業	-11.5874
鞮	-11.5875
此金剛句	-11.5877
諭	-11.5878
國邑	-11.5878
復有十種	-11.5878
是清淨戒	-11.5878
陋	-11.5879
酒肉	-11.5879
三萬二千菩薩	-11.5879
盜竊	-11.588
魯	-11.588
蕩	-11.588
楞伽	-11.5881
武	-11.5881
叫喚	-11.5881
所須之物	-11.5881
七覺意	-11.5881
險難	-11.5882
後際	-11.5882
乞求	-11.5882
諸大聲聞	-11.5884
修四念處	-11.5884
漢	-11.5884
維摩	-11.5885
眾德本	-11.5885
離三惡道	-11.5885
示諸眾生	-11.5885
寂滅涅槃	-11.5886
三律儀	-11.5886
允	-11.5886
皆悉除滅	-11.5886
悉皆消滅	-11.5886
無積聚	-11.5887
資生之具	-11.5887
妙玄云	-11.5888
諂誑	-11.5889
立世阿毗曇	-11.589
檢	-11.5892
以要言之	-11.5893
獲安	-11.5893
婦人	-11.5893
袈裟幢	-11.5894
淨佛世界	-11.5895
是國王等	-11.5896
悔恨	-11.5896
不生貪著	-11.5896
愛憎	-11.5896
塵垢	-11.5896
觀十二緣	-11.5896
豈可	-11.5897
阿含	-11.5897
彼非	-11.5897
賢護當知	-11.5898
有四種法	-11.5898
何囉	-11.5898
投地	-11.5898
七宿	-11.5899
傍生	-11.5899
修善業	-11.5899
我諸弟子	-11.5899
螫	-11.5899
無由	-11.5899
難陀龍王	-11.5899
毀譽	-11.5899
捕	-11.59
已過	-11.59
我今歸依	-11.59
苦惱眾生	-11.59
心不悔	-11.5902
債	-11.5903
作是願	-11.5903
卅	-11.5903
主宰	-11.5904
甚少	-11.5904
施作	-11.5904
指示	-11.5905
經書	-11.5905
問訊世尊	-11.5905
尊法	-11.5906
初發菩提心	-11.5906
牛馬	-11.5906
大德阿難	-11.5907
得力	-11.5908
受如是苦	-11.5909
二千眷屬	-11.5909
無愧	-11.591
迴向法界	-11.5911
習學	-11.5911
博聞	-11.5911
和輪	-11.5912
非器	-11.5913
於善師	-11.5914
諸惡鬼神	-11.5914
龍乃至迦吒富單那等	-11.5915
百一十	-11.5915
無慳	-11.5915
若有信心	-11.5916
即起	-11.5917
百千眾生	-11.5917
至彼岸	-11.5917
是名為定	-11.5917
擁護正法	-11.5917
言無	-11.5917
若佛弟子	-11.5918
是名為義	-11.5919
現神通	-11.592
囉系	-11.592
三途	-11.5921
求利	-11.5921
當見	-11.5921
手掌	-11.5921
魅	-11.5922
寶樓閣	-11.5922
而以供養	-11.5925
得增長故	-11.5925
無恚	-11.5926
亦無所受	-11.5926
於三界中	-11.5926
無濁亂	-11.5928
而致清淨	-11.5928
眾圍遶	-11.5929
見諸如來	-11.5929
香象菩薩	-11.5929
是處非處	-11.5931
十種力	-11.5933
於大海	-11.5933
受持淨戒	-11.5934
智慧之人	-11.5935
一切諸乘	-11.5936
因緣力故	-11.5936
黑色	-11.5938
無意	-11.5941
其誼	-11.5941
平聲	-11.5943
持戒比丘	-11.5943
不審	-11.5943
一切法體性	-11.5943
汝等如是	-11.5944
隨生	-11.5944
無為界	-11.5944
無所失	-11.5946
樂說無礙智	-11.5947
大乘人	-11.5947
耶尼	-11.5948
誼理	-11.5948
皆得自在	-11.5951
醫師	-11.5951
愛子	-11.5952
正號	-11.5952
婆摩	-11.5952
割截	-11.5952
不休	-11.5953
現種種	-11.5953
是精進力	-11.5953
若有眾生樂聞	-11.5955
即滅	-11.5956
緣慮	-11.5957
自活	-11.5957
無誑	-11.5957
次明	-11.5957
宣傳	-11.5958
所執	-11.5958
於諸根	-11.5959
一切身分	-11.596
行十五時	-11.596
一切龍	-11.596
彼阿彌陀	-11.596
勝力	-11.5962
生死法	-11.5963
唯是	-11.5963
一切善	-11.5965
辭辯	-11.5965
無根	-11.5967
陀羅尼力	-11.5968
真善居士	-11.5968
無有文字	-11.5969
於欲	-11.5969
惱熱	-11.597
苦滅	-11.5974
勝於	-11.5974
諸比丘等	-11.5975
一切諸色	-11.5976
第二人	-11.5977
同學	-11.5977
說種種法	-11.5978
真際	-11.598
行施亦復如是	-11.5982
▁【	-11.5983
來集會	-11.5985
一切菩薩摩訶薩眾	-11.5986
學問	-11.5988
造像	-11.5989
得菩提時	-11.599
諸女人	-11.599
能化眾生	-11.5992
師子吼時	-11.5992
幾何	-11.5993
若沙門	-11.5994
無不具足	-11.5995
恚恨	-11.5998
不從他聞	-11.5999
頂相	-11.5999
專行	-11.6
無有量	-11.6001
汝等各	-11.6003
法燈	-11.6003
深解	-11.6003
得宿命智	-11.6003
樂阿蘭若	-11.6004
不逆	-11.6004
一燈	-11.6006
為最上	-11.6006
一切佛事	-11.6008
某人	-11.6009
何為	-11.6009
於如是法	-11.6009
念我	-11.6011
種種衣服	-11.6013
告藥王軍菩薩言	-11.6014
不久當得阿耨多羅三藐三菩提	-11.6014
名道	-11.6015
攝法	-11.6015
王子師子	-11.6016
若未來	-11.6017
世依	-11.6019
嚴麗	-11.6019
眼耳	-11.6022
六十六	-11.6023
慈悲憐愍	-11.6023
淨月	-11.6024
起大慈悲	-11.6026
無我義	-11.6028
罵者	-11.6028
以慈悲	-11.6029
心離	-11.6029
不沒	-11.6031
入出	-11.6031
神通力故	-11.6032
無所乏少	-11.6032
得聞如是	-11.6034
既是	-11.6034
厭悔	-11.6035
知盡	-11.6036
現在世中	-11.6042
諸法門	-11.6045
今此會中	-11.6046
種種三昧	-11.6046
限齊	-11.6047
上座	-11.6048
▁切	-11.6049
供給所須	-11.6049
火然	-11.605
毀戒者	-11.6052
聽聞法	-11.6052
大獄	-11.6053
修四正勤	-11.6059
老眾生	-11.6061
敬愛	-11.6061
王輪	-11.6063
尊導師	-11.6064
是故名曰	-11.6065
婆叉	-11.6066
不如一	-11.6067
成就大悲	-11.6067
是義故	-11.6067
不傷	-11.6069
精進修行	-11.6069
斷三寶種	-11.607
解知	-11.6071
無別異	-11.6072
下根	-11.6072
皆悉遠離	-11.6073
致斯	-11.6074
經者	-11.608
十日	-11.6082
風起	-11.6082
時諸如來	-11.6083
最極	-11.6086
廣明	-11.6086
無過失	-11.6086
妄說	-11.6088
之說	-11.6088
破煩惱	-11.6089
山河	-11.6089
不持戒	-11.609
而不退轉	-11.609
於戒休息	-11.6091
散亂心	-11.6092
唯然已	-11.6092
若未來世中	-11.6093
現大神通	-11.6093
如是諸法	-11.6093
作如是思惟	-11.6094
此大眾	-11.6094
以何為	-11.6097
時彼眾中	-11.6097
住於大乘	-11.6098
一切賢聖	-11.6099
遮魔	-11.6099
天道	-11.61
說三乘法	-11.61
如願	-11.6103
地藏之名	-11.6104
行智	-11.6105
所受用	-11.6107
有信心	-11.611
誘進	-11.6113
無能動	-11.6114
彼婆羅門	-11.6115
是黑	-11.6116
起慈心	-11.6119
以七寶	-11.6119
般遮	-11.612
散失	-11.612
故名大乘	-11.6121
如是諸佛	-11.6125
疾成	-11.6125
進力	-11.6125
如草木	-11.6128
於三有	-11.6128
明顯	-11.6128
寄付	-11.613
者喻於	-11.6131
尼羅	-11.6132
法財	-11.6133
勝報	-11.6133
常清淨	-11.6133
柔軟心	-11.6135
有何等	-11.6136
剎帝利王	-11.6136
施與之	-11.6138
千由旬	-11.6141
念定	-11.6141
乃以	-11.6142
內空	-11.6144
世出世間	-11.6145
能作大	-11.6146
羣生	-11.6147
有取	-11.6153
便於	-11.6154
滅諦	-11.6155
谷響	-11.6157
得大利	-11.6159
顯明	-11.616
知根	-11.6164
得定	-11.6166
身口意惡	-11.6167
若能觀察	-11.6172
心歡悅	-11.6172
住平等	-11.6172
悉皆具足	-11.6176
能除眾生	-11.6178
所造業	-11.6178
謗正法	-11.6179
必獲	-11.618
何不	-11.6183
亦復難	-11.6183
若人於	-11.6183
柔軟語	-11.6185
六識	-11.6185
是名菩薩觀	-11.6185
不勝	-11.6187
諸善法故	-11.6187
生憐愍	-11.6188
離分別	-11.6191
佛頂	-11.6191
我無	-11.6192
得大智慧	-11.6194
無價寶	-11.6196
降雨	-11.6197
受種種苦	-11.6198
無法可	-11.6199
其道	-11.62
除佛	-11.6205
歸命於	-11.6206
去聲	-11.6207
如是見已	-11.621
三世佛	-11.6212
故名如來	-11.6212
多那	-11.6216
凡是	-11.6216
迴向清淨	-11.622
不驚	-11.6221
罪垢	-11.6221
一切草木	-11.6222
便可	-11.6222
所信	-11.6224
以色	-11.6226
自由	-11.6227
諸年少	-11.6233
當知是	-11.6235
示道	-11.6237
往聽受	-11.6237
住是三昧	-11.6237
常好	-11.6238
作善	-11.6239
己心	-11.6239
如來了知	-11.624
名為涅槃	-11.6242
平等覺	-11.6242
熾然三寶種	-11.6243
坐已	-11.6248
下文	-11.6249
非但	-11.625
亦同	-11.625
有愛	-11.6252
不生瞋恚	-11.6253
安住涅槃	-11.6253
復持	-11.6254
菩薩見已	-11.6256
發大精進	-11.6257
於禪定	-11.6258
陀邏	-11.6258
無益	-11.626
普施	-11.6264
心念處	-11.6264
生喜	-11.6266
月輪	-11.6267
佛想	-11.6268
天香	-11.6268
三歸	-11.6269
彼山	-11.627
之益	-11.627
邪心	-11.6273
於魔	-11.6273
後得	-11.6273
發大乘	-11.6274
從空	-11.6274
斯為	-11.6276
無垢穢	-11.6276
佛智慧	-11.6279
三禪	-11.6285
三處	-11.6287
明星	-11.6288
別知	-11.6288
又知	-11.6288
我以如是	-11.6291
色界諸天	-11.6291
無名	-11.6292
作饒益	-11.6292
正顯	-11.6293
得少	-11.6295
無諍訟	-11.6296
舍羅	-11.6296
樂器	-11.6297
輪者	-11.6297
菩薩作是念	-11.6303
施眾生	-11.6307
正義	-11.6308
居止	-11.6309
尼迦	-11.6311
捨家	-11.6312
心得清淨	-11.6317
諸佛剎中	-11.6319
不能害	-11.6319
之聚	-11.632
不退菩提	-11.6323
諸惡事	-11.6324
世間所有	-11.6325
無量俱胝	-11.6325
不為一切	-11.6326
無量阿僧祇眾生	-11.6327
日合昴	-11.633
大功德聚	-11.6331
有所著	-11.6333
修慈悲	-11.6334
滅諸煩惱	-11.6335
自體	-11.6335
大摩尼寶	-11.6335
取義	-11.6337
若坐	-11.6337
二十七者	-11.6338
諸大士	-11.6339
以斯	-11.6346
如是修習	-11.6351
願見	-11.6353
作已	-11.6353
乃至人	-11.6353
善攝	-11.6355
此法門者	-11.6357
大甲冑	-11.6357
一經	-11.6359
追求	-11.6365
調諸根	-11.6366
調暢	-11.6368
慈氏	-11.6369
家中	-11.6369
敬事	-11.6371
滅度後	-11.6373
若持	-11.6378
諸天人民	-11.6379
具足無量	-11.6381
怨憎	-11.6382
誰是	-11.6387
歸佛	-11.6388
此經典者	-11.6391
令諸菩薩	-11.6391
由斯	-11.6391
云何修	-11.6394
雨種種	-11.6394
諸世界中	-11.6394
作禮而	-11.6394
是涅槃	-11.6396
求道	-11.6396
二十六者	-11.6397
欲法	-11.6398
上味	-11.64
沙門中	-11.64
於三千大千世界	-11.6403
迴向無上菩提	-11.6405
不可說言	-11.6408
斷除一切	-11.6414
處空	-11.6414
感報	-11.6415
破無明	-11.6416
各從	-11.642
如來藏	-11.642
無所礙	-11.6421
義利	-11.6421
無女人	-11.6421
勝佛	-11.6422
於何處	-11.6424
乃至十方	-11.6429
波囉	-11.6432
悉覩	-11.6433
末伽	-11.6434
心則	-11.6435
離色	-11.6437
聖果	-11.6437
習交	-11.6438
既無	-11.6438
二十八者	-11.6438
結業	-11.6439
何事	-11.644
化諸眾生	-11.644
世尊告阿難	-11.6441
多求	-11.6441
於義	-11.6444
明珠	-11.6445
終不可	-11.6445
無忘失	-11.6445
大慧	-11.6446
婆梨	-11.6447
雖見	-11.6447
覩諸佛	-11.6453
佛邊	-11.6455
增長一切	-11.6458
貪樂	-11.6458
願欲	-11.6461
亦各	-11.6463
不悕望	-11.6464
之境	-11.6466
三諦	-11.6473
忍得	-11.6475
亦使	-11.6476
皆亦如是	-11.6478
種種花	-11.6478
聲聞辟支佛地	-11.648
慢心	-11.6482
猶未	-11.6484
一切皆是	-11.6494
證大菩提	-11.6496
一切三昧	-11.6497
之味	-11.6498
令知	-11.65
緣法	-11.6502
字義	-11.6505
作相	-11.6505
之病	-11.6508
學大乘	-11.6509
無常法	-11.6509
」「	-11.6509
與拔	-11.6511
天像	-11.6511
塗身	-11.6512
一切沙門	-11.6514
惡意	-11.6514
所講說	-11.6516
遮斷	-11.6516
骨髓	-11.6517
解脫味	-11.6517
身口心	-11.6517
即捨	-11.6518
悉空	-11.6525
報身	-11.6526
筋	-11.6527
謂為	-11.6531
修惡	-11.6532
二十五者	-11.6533
遠離殺生	-11.6533
令久住	-11.6533
不照	-11.6536
大船	-11.6536
依彼	-11.6537
在我	-11.6538
大惡	-11.6539
常欲	-11.6539
三稱	-11.6542
不覺知	-11.6543
護者	-11.6545
各隨所	-11.6546
本自	-11.6547
知現在	-11.6548
起信	-11.655
常施	-11.6552
能如法	-11.6552
作善業	-11.6554
於種種	-11.6557
心等	-11.6558
魔之	-11.6562
一百五十	-11.6562
女等	-11.6562
及大聲聞	-11.6563
空無相	-11.6564
此世界中	-11.6564
超過一切	-11.6565
即問	-11.6566
正法念經	-11.6567
在內	-11.6569
有佛世尊	-11.6569
為諸有情	-11.657
八日合	-11.6573
智通	-11.6575
甚深難	-11.6576
說如是法	-11.6579
天妙	-11.658
非沙門	-11.658
之器	-11.658
專修	-11.6581
此行	-11.6583
不親	-11.6585
法雲	-11.659
佛日	-11.659
智者觀	-11.659
乃至無有	-11.659
能造作	-11.6591
離諸惡	-11.6591
用心	-11.6591
六萬億	-11.6592
現證	-11.6593
生子	-11.6594
說正法	-11.6596
請已	-11.6597
耳鼻舌身	-11.6603
是光	-11.6605
惡行比丘	-11.6605
則便	-11.6606
智慧無礙	-11.6616
大風	-11.6617
汝等若	-11.6619
苑	-11.662
獨一	-11.662
生滅故	-11.6623
能攝	-11.6623
法光	-11.6625
欲解	-11.6631
不生於	-11.6632
如是十種	-11.6634
自讚	-11.6635
眾緣	-11.6636
入中	-11.6638
所用	-11.6639
不捨菩提	-11.6639
三分	-11.6641
能知一切	-11.6645
俱胝如來	-11.6647
有十二	-11.6647
都無所	-11.6647
我請問	-11.6649
愛取	-11.6652
能却	-11.6656
成器	-11.6658
少病	-11.6662
於諸佛法	-11.6662
摩伽	-11.6664
佛法之中	-11.6667
是大菩薩	-11.6668
千萬億	-11.6669
如法行	-11.6669
證果	-11.6669
即欲	-11.667
及菩提	-11.667
雲雨	-11.6672
普等	-11.6678
名菩薩摩訶薩也	-11.6679
當校計百八	-11.6681
以有	-11.6683
護他	-11.6683
信順	-11.6685
乃能如是	-11.6686
眼清淨	-11.6687
不殺	-11.6691
子言	-11.6694
究竟空	-11.6694
示現種種	-11.6696
生也	-11.6697
為說之	-11.6698
即自	-11.67
文殊師利菩薩	-11.67
涅槃性	-11.6705
頭面禮敬右遶	-11.6708
懈倦	-11.6709
非我所	-11.671
億眾生	-11.6713
今見	-11.6714
二日	-11.6714
䟦	-11.6715
破羅	-11.6716
當擁護	-11.6719
見一切佛	-11.6723
非真如	-11.6723
一切諸法無有	-11.6725
普現	-11.6732
大精進力	-11.6732
大神變	-11.6734
無淨	-11.6735
即空	-11.6735
如來無上	-11.6741
成熟一切眾生	-11.6744
智者應	-11.6744
地藏之	-11.6746
觀法界	-11.6746
當勤	-11.6747
三匝	-11.6748
生希有	-11.675
非相	-11.6753
卒暴	-11.6754
身寂靜	-11.6755
汝先	-11.6755
法印	-11.6756
靜默	-11.6757
無信	-11.6759
惑業	-11.6764
現生	-11.6765
香華供養	-11.6766
盡皆	-11.6767
乃可	-11.6768
時四天王	-11.677
精修	-11.677
復重	-11.6771
本業	-11.6772
食時	-11.6773
佛印	-11.6775
無若干	-11.6776
精舍	-11.6777
向者	-11.6777
現在說法	-11.6777
知其數	-11.6779
超出	-11.678
其發心來	-11.6781
優波	-11.6784
叉叉	-11.6784
亦未	-11.6786
超越諸	-11.6788
離世	-11.6793
財穀	-11.6794
歷劫	-11.6795
不能行	-11.68
或令	-11.6801
無上菩提之道	-11.6802
諸仙	-11.6806
壞魔	-11.6806
令流布	-11.6808
現瑞	-11.6809
各隨	-11.6809
過去業	-11.6813
菩薩為	-11.6813
諸佛子	-11.6814
皆與	-11.6815
第二禪	-11.6822
安心	-11.6827
薩羅	-11.6829
五名	-11.6829
善說法	-11.6831
當住	-11.6834
聖明	-11.6836
於東方	-11.6837
空門	-11.6838
我既	-11.684
紫	-11.6843
悉欲	-11.6848
受已	-11.685
能致	-11.6851
天龍鬼神	-11.6853
令我得	-11.6854
思議	-11.6854
能動	-11.6855
中劫	-11.6856
所生常	-11.6861
寂滅心	-11.6861
如如來	-11.687
故使	-11.6871
復雨	-11.6871
難解	-11.6872
衣鉢	-11.6873
眾惱	-11.6873
必令	-11.6874
八十六	-11.6878
人來	-11.688
修布施	-11.6881
集者	-11.6883
今可	-11.6884
婆隸	-11.6884
常念佛	-11.6888
邑	-11.6888
以淨	-11.6891
我今問	-11.6894
生緣	-11.6894
惓	-11.6895
遠離邪見	-11.6895
用是	-11.6896
何以故言	-11.6899
速成	-11.6899
腹中	-11.6901
方便慧	-11.6902
音者	-11.6903
常為眾生	-11.6909
照於	-11.691
仁愛	-11.6913
篤	-11.6915
萬三千	-11.6916
以大慈悲	-11.6916
摩我頂	-11.6917
無礙辯才	-11.6917
能雨	-11.6918
大涅槃城	-11.692
一微塵	-11.6923
婆隷	-11.6924
諸菩薩皆稽首	-11.6924
阿跋	-11.6925
皆依	-11.6926
實非沙門自	-11.6927
若能以此休息	-11.6927
在在	-11.6928
難遇	-11.6931
論說	-11.6931
我等昔來	-11.6931
故名無句義	-11.6932
之念	-11.6932
先所修習一切善根皆悉	-11.6932
重復	-11.6932
恚心	-11.6932
八支聖道	-11.6933
寶勝光佛	-11.6933
昇師子座	-11.6933
能護於戒	-11.6933
洲中	-11.6934
惡味惡語言	-11.6934
諸漏已盡	-11.6935
捨忍清淨平等	-11.6935
寺沙門	-11.6935
勝幢	-11.6935
或復化作	-11.6935
潔白	-11.6935
跋持毘盧遮那阿修羅王	-11.6935
無常苦無我	-11.6935
姦	-11.6936
帶	-11.6936
羅隣那竭菩薩	-11.6937
不敢覆藏	-11.6937
晝夜常	-11.6937
以至誠眼	-11.6937
阿練若處	-11.6938
大力軍將	-11.6938
隱身不現	-11.6938
街	-11.6939
及斷命根	-11.6939
皆是意行	-11.6939
世尊故在欲	-11.6939
性是法性	-11.6939
整衣服	-11.6939
住不退地	-11.6939
在於彼土忽然不	-11.694
於夜後分	-11.694
水火風	-11.6941
非常非斷	-11.6941
而修行慈	-11.6941
現種種形	-11.6941
求索	-11.6942
俱從座起	-11.6942
皆自處	-11.6942
不觀後世可怖畏事	-11.6942
禮覲	-11.6942
幻術	-11.6943
智德峯王佛	-11.6943
於二乘法	-11.6943
散於佛上	-11.6943
分陀利花	-11.6943
故名無分別	-11.6943
難得度脫	-11.6944
彼有世界名曰娑婆	-11.6944
時戒依止大魔軍主	-11.6944
彼是我師	-11.6944
藍	-11.6944
愚戇凡夫不能曉了	-11.6944
侍從	-11.6944
村邑	-11.6944
多摩羅跋	-11.6945
凡所演說	-11.6945
爵祿	-11.6945
法所攝	-11.6945
憂慼	-11.6945
巨富	-11.6945
熙怡	-11.6946
如車輪	-11.6946
如剎帝利灌頂大王	-11.6946
四部眾	-11.6947
出佛身血	-11.6947
住念力時	-11.6947
以是持力	-11.6947
戌達羅	-11.6947
佉羅坻	-11.6947
令盡無餘	-11.6947
最為殊勝	-11.6947
住進力時	-11.6948
為住何處	-11.6948
紹三寶種不斷絕故	-11.6948
拘律陀	-11.6948
隨諸	-11.6948
掉動	-11.6948
婆樓	-11.6948
利益諸眾生	-11.6949
傳梵大師賜紫沙門臣法護等奉詔譯	-11.6949
去此遠近	-11.6949
立此	-11.6949
心無行動	-11.6949
懺謝	-11.6949
啼	-11.695
徐	-11.695
此諸人眾	-11.695
私婆呵	-11.695
阿羅呵	-11.695
疲勞	-11.6951
婆羅門旃陀羅	-11.6951
我今與汝	-11.6951
於大眾中作師子吼	-11.6951
掉	-11.6951
捷	-11.6951
▁41	-11.6951
暖	-11.6951
阿婆叉	-11.6951
燒堅黑沈水	-11.6952
湛然	-11.6952
往至佛所	-11.6952
踐	-11.6952
摩拏嚩迦	-11.6952
中女人	-11.6952
肅國公食邑三千戶賜紫贈司空謚大	-11.6953
金剛山童子	-11.6953
珂貝	-11.6953
試鴻臚卿	-11.6953
著衣持鉢	-11.6953
誠心懺悔	-11.6953
即與十恒河沙等諸	-11.6954
諸樂莊嚴世界	-11.6954
辨	-11.6954
大廣智大興善寺三藏沙門不空奉詔譯	-11.6954
一一供養彼等諸佛	-11.6954
此十	-11.6954
諸來會者	-11.6954
殖眾德本	-11.6954
世尊讚寶女	-11.6955
發如是言	-11.6955
江沙	-11.6955
輕躁	-11.6955
非內非外	-11.6955
一念之頃	-11.6955
大富饒財	-11.6955
了義修多羅義	-11.6955
后	-11.6955
耆年	-11.6955
麞鹿	-11.6955
窣堵波	-11.6955
復有五法	-11.6956
庠序	-11.6956
亦莫令我	-11.6956
入耆闍崛山集於佛所	-11.6956
悉皆銷滅	-11.6956
師和上	-11.6956
笛	-11.6956
降注	-11.6956
嗟嘆	-11.6956
信敬三寶	-11.6956
重閣	-11.6956
團	-11.6956
營理	-11.6957
謨	-11.6957
在一面立	-11.6957
為我出家	-11.6957
往到佛所	-11.6957
若於諸經	-11.6957
寂靜處	-11.6957
棗	-11.6957
無功用	-11.6958
不畏後世苦果	-11.6958
給使	-11.6958
十八不共佛法	-11.6958
深固作意	-11.6958
閻浮提北方第四分	-11.6958
泉源	-11.6959
增上意樂	-11.6959
毀呰賢聖	-11.6959
現其前	-11.6959
校量	-11.6959
惻	-11.696
群臣	-11.696
根不熟	-11.696
譬如須彌山王	-11.696
柰	-11.696
如我今者	-11.6961
願佛為說	-11.6961
飄	-11.6961
親戚	-11.6961
迷荒	-11.6962
於一切法而得自在	-11.6962
突	-11.6962
名戒瓔珞	-11.6962
七寶所成	-11.6962
不來不去	-11.6962
種種所須	-11.6963
能壞魔業	-11.6963
護持禁戒	-11.6963
薪	-11.6963
廣為人說	-11.6963
或有所行	-11.6963
無上法王	-11.6963
野干	-11.6964
搖動	-11.6964
郡國	-11.6964
鑠	-11.6964
栴檀天子	-11.6964
以何方便	-11.6964
汝當諦聽	-11.6964
雖得人身	-11.6964
須彌山頂	-11.6964
見佛聞法	-11.6964
罰	-11.6964
不異真如	-11.6965
四無色定	-11.6965
淺深	-11.6965
地獄一劫受苦	-11.6965
開示演說	-11.6966
僧伽吒經	-11.6966
孔雀	-11.6966
清和	-11.6966
或有禮拜	-11.6966
恃怙	-11.6966
踊悅	-11.6966
無勝意童子	-11.6966
毒熱	-11.6966
不著內外	-11.6966
必墮惡趣	-11.6966
克	-11.6966
鷲王	-11.6966
蝎	-11.6966
圍	-11.6967
羼提	-11.6967
懷聰明慢	-11.6967
拍	-11.6967
義者即	-11.6967
捶	-11.6968
九次第定	-11.6968
奸	-11.6968
叵思議	-11.6968
大樹	-11.6968
不善之業	-11.6968
其日病者	-11.6968
善男女等	-11.6969
為其說法	-11.6969
不生瞋	-11.6969
不可說義	-11.6969
剃頭	-11.6969
拷	-11.6969
皆悉來集	-11.6969
憂悲	-11.6969
闍梨	-11.697
有想無想	-11.697
熏修	-11.697
殷勤	-11.697
若有真善剎帝利王	-11.697
三天童女	-11.697
當知皆是	-11.697
諸大菩薩摩訶薩眾	-11.697
維	-11.697
百千俱胝那由他	-11.6971
大威神力	-11.6971
扣	-11.6971
或復乘	-11.6971
不捨道心	-11.6971
歡然	-11.6971
諸人天等	-11.6971
入惡道	-11.6971
右肩	-11.6972
我說是人	-11.6972
忤	-11.6972
善根微少	-11.6972
淳熟	-11.6973
寬廣	-11.6973
訶波履婆	-11.6973
未來現在	-11.6974
五衰相現	-11.6974
非受持正法	-11.6974
當須	-11.6974
震旦	-11.6974
生龍中	-11.6974
底履	-11.6974
東弗婆提	-11.6974
玩	-11.6975
裔	-11.6975
是曰善權	-11.6975
於百俱胝	-11.6975
從佛聞	-11.6975
於諸眾生不起	-11.6976
趣惡道	-11.6976
亦無增減	-11.6976
得免	-11.6977
某甲	-11.6977
達哩	-11.6977
七寶蓋	-11.6977
軍將	-11.6977
不以為難	-11.6978
秉	-11.6978
隨所住處	-11.6978
年歲	-11.6978
不可盡極	-11.6978
慶幸	-11.6978
成敗	-11.6979
亡者神識	-11.6979
取蘊	-11.6979
速得阿耨多羅三藐三菩提	-11.6979
穢厭	-11.6979
涼	-11.6979
酪	-11.6979
睡夢	-11.6979
四域	-11.6979
哺	-11.6979
稱揚讚歎	-11.698
不可計劫	-11.698
住於慈心	-11.698
起慈悲心	-11.698
大聖人	-11.698
七聖財	-11.698
和順	-11.698
飲血	-11.6981
悉成就故	-11.6981
倉庫	-11.6981
癡闇	-11.6981
州城	-11.6982
勤進	-11.6982
不見有法	-11.6983
穴	-11.6983
求請	-11.6983
諫	-11.6983
亡失	-11.6983
數息	-11.6983
彼天仙七宿	-11.6983
鉢底	-11.6983
星形如	-11.6984
近遠	-11.6984
不成法器	-11.6984
閻浮利	-11.6984
幻惑	-11.6984
觀五陰	-11.6984
常生人天	-11.6984
衰耗	-11.6986
為母說法	-11.6986
言詞	-11.6986
小河	-11.6986
吳	-11.6986
旁	-11.6986
彩	-11.6987
蒭	-11.6987
墮無間獄	-11.6988
惟除	-11.6988
羽	-11.6988
廣度眾生	-11.6988
一闡提	-11.6988
嚕	-11.6988
彈指	-11.6989
被服	-11.6989
華臺	-11.6989
斑宣	-11.6989
祗	-11.6989
俄	-11.699
為眾說法	-11.6991
善清淨	-11.6991
豐樂	-11.6992
說如是言	-11.6992
攝受正法	-11.6992
函	-11.6993
優劣	-11.6994
光音天	-11.6994
懸旛	-11.6994
柧	-11.6994
作如是願	-11.6995
無有相貌	-11.6995
條	-11.6995
不退阿耨多羅三藐三菩提	-11.6995
詮	-11.6996
陷	-11.6996
南閻浮提眾生	-11.6997
興顯	-11.6997
為尊	-11.6997
遍計	-11.6998
永絕	-11.6998
無能勝者	-11.6998
霜	-11.6998
住第一義忍清淨平等	-11.6998
落惡道	-11.6998
彼佛壽命	-11.6998
身放光明	-11.6998
迦邏	-11.6999
方便力故	-11.6999
<	-11.6999
i	-11.6999
煑	-11.7
白銀	-11.7
水沫	-11.7
m	-11.7
儔	-11.7
享	-11.7001
g	-11.7001
縣	-11.7002
一千年	-11.7002
空解脫門	-11.7002
設令	-11.7002
不可作	-11.7003
弘誓願	-11.7004
我先	-11.7004
營從	-11.7004
誣	-11.7005
入初禪	-11.7005
散提	-11.7006
富樂	-11.7006
修勇	-11.7006
勑	-11.7006
修集善法	-11.7007
子息	-11.7007
高顯	-11.7007
是故諸佛色目	-11.7007
四聖種	-11.7009
為壞眾生	-11.7009
不動法界	-11.7009
有為界	-11.701
病患	-11.701
如如意珠	-11.7011
王城	-11.7011
無能壞者	-11.7011
救母	-11.7012
聞持	-11.7013
不爽	-11.7013
囉惹	-11.7014
見如是等	-11.7014
我當擁護	-11.7014
詩	-11.7014
至未曾有	-11.7015
三乘正法	-11.7016
當與汝	-11.7016
受持此陀羅尼	-11.7016
老苦	-11.7016
五苦章句	-11.7017
然於	-11.7017
普於一切	-11.7018
時虛空藏菩薩摩訶薩	-11.7018
化樂天王	-11.7018
諸善功德	-11.7019
亦復不壞	-11.7019
鹽	-11.7019
曷羅	-11.7019
所施與者	-11.702
迷悟	-11.702
薩他	-11.702
容色	-11.7021
共無量百千	-11.7022
終不能得	-11.7022
但坐	-11.7022
一生補處菩薩	-11.7023
八十五	-11.7023
斯輩	-11.7025
血塗	-11.7025
不求報	-11.7026
復有八萬四千	-11.7027
想升	-11.7027
萬倍	-11.7028
愍念眾生	-11.7028
攝眾生	-11.7029
有為方便	-11.703
盧迦	-11.7031
悅意	-11.7032
不以色	-11.7032
如掌	-11.7033
男子身	-11.7036
自侵	-11.7037
通別	-11.7039
此魔波旬	-11.7042
我亦當	-11.7044
當於爾時	-11.7044
若人非人	-11.7044
性常淨	-11.7044
求哀	-11.7045
大師云	-11.7045
貢	-11.7046
誰不	-11.7046
產生	-11.7046
無散	-11.7047
此總持	-11.7048
普達	-11.7048
復入	-11.7048
莫生	-11.7049
好喜	-11.7049
見人	-11.7049
雜穢	-11.705
永盡	-11.7054
無所求	-11.7054
山神	-11.7054
來到此	-11.7054
為行法	-11.7055
等罪	-11.7056
緣而致	-11.7057
而演	-11.7058
出世間道	-11.7058
一日夜	-11.7059
覩者	-11.7059
若具足者	-11.706
獨住	-11.706
遣令	-11.7061
是法器	-11.7061
諸眾生輩	-11.7063
印可	-11.7065
十力四無畏	-11.7066
麁惡	-11.7066
遊處	-11.7068
悟入	-11.7068
有量	-11.7071
目前	-11.7072
七寶莊嚴	-11.7072
亦因	-11.7074
如來為我說	-11.7074
毘舍遮王	-11.7074
於眾會中	-11.7075
合為一	-11.7077
三種菩提	-11.7078
相續不斷	-11.7078
今準	-11.7078
汝何	-11.708
何等三昧	-11.708
皆蒙	-11.7081
能具足者	-11.7081
不壞法界	-11.7082
一百三十	-11.7082
不曾	-11.7084
世閒	-11.7084
六時	-11.7085
神通境界	-11.7086
摩提	-11.7087
始從	-11.7087
利迦	-11.7089
輕易	-11.7089
於百	-11.709
不諂	-11.709
不捨菩提心	-11.7091
修諸行	-11.7095
亦無所著	-11.7095
眼者	-11.7095
并與	-11.7097
欲度生死	-11.7099
文義	-11.71
聞是語	-11.71
深忍	-11.7101
現時	-11.7102
無悋	-11.7102
為說正法	-11.7106
具足慚愧	-11.7107
我輩	-11.7108
今此眾中	-11.7111
為求菩提	-11.7112
可不	-11.7113
記云	-11.7115
十力無畏	-11.7117
七寶具足	-11.7118
師教	-11.712
立世	-11.7122
觀內外	-11.7122
聽說	-11.7123
不斷三寶種	-11.7123
唯佛能	-11.7124
九界	-11.7125
由昔	-11.7125
乾闥婆王	-11.7126
無瑕	-11.7127
亦應如是	-11.7127
十方佛國	-11.7128
形類	-11.713
處于	-11.713
是故曰	-11.7132
不能了知	-11.7133
知眾生心	-11.7133
濟眾生	-11.7133
起大悲	-11.7133
合掌向	-11.7135
滿足一切眾生	-11.7135
金光	-11.7136
生尊貴	-11.7138
其佛世界	-11.7142
若有修集	-11.7142
永處	-11.7142
苦擔	-11.7145
無所造	-11.7145
自在天像	-11.7148
誠言	-11.7149
稱歎	-11.7151
遊觀	-11.7152
紫磨金色	-11.7154
破魔	-11.7154
持戒精進	-11.7162
六十八	-11.7164
羯摩	-11.7165
無加行	-11.7166
於諸陰	-11.7166
明度	-11.7171
尚難	-11.7171
淨陀羅尼	-11.7172
即出	-11.7174
乃至一念	-11.7175
空空	-11.7176
大怖畏	-11.7177
坐菩提樹	-11.7178
黑法	-11.7179
割其	-11.7179
如佛所	-11.718
無有二相	-11.7181
不退於	-11.7182
無倦	-11.7183
身力	-11.7185
懺法	-11.7187
常思	-11.7187
過前	-11.7188
依報	-11.7189
住寂靜	-11.719
一切法相	-11.7191
於三寶所	-11.7192
彼皆	-11.7194
不退轉印	-11.7194
勤修習	-11.7194
調和	-11.7194
精妙	-11.7198
堅意	-11.7198
初句	-11.72
各持	-11.7201
勸他	-11.7205
羅剎王	-11.7206
聖行處	-11.7206
陰魔	-11.7207
大乘故	-11.7208
此地	-11.7211
是語	-11.7212
唯求	-11.7216
法念	-11.7216
如父	-11.7216
觀受	-11.7216
相應聲	-11.7216
辟支佛人	-11.7217
欲往彼	-11.7217
得菩提時成第	-11.7219
無量諸法	-11.722
凡夫人	-11.7221
及於	-11.7221
暴惡	-11.7222
廣流布	-11.7223
又無	-11.7224
度生死海	-11.7225
種種煩惱	-11.7225
如是饒益	-11.7227
爾時眾中	-11.723
地反	-11.723
諸法無有	-11.723
一切業障	-11.7231
若那	-11.7232
中來	-11.7237
入般涅槃	-11.7238
修四無量	-11.7239
諦受	-11.7239
講說法	-11.7239
聞法者	-11.724
此念佛三昧	-11.7245
地持	-11.7246
比尼	-11.7246
信敬心	-11.7247
亦知眾生	-11.7248
多摩	-11.7248
於此娑婆世界	-11.7249
諸惡獸	-11.7251
是為八	-11.7256
得清淨信	-11.7256
則入	-11.7256
發明	-11.7256
以清淨心	-11.726
人民皆	-11.7266
比丘眾	-11.7266
修捨	-11.7266
不退沒	-11.7267
莊嚴事	-11.7268
即指	-11.7269
茂羅	-11.727
此惡	-11.727
萬里	-11.727
講法	-11.7272
善安住	-11.7273
盡漏	-11.7273
於時世尊	-11.7275
持者	-11.7276
水行	-11.728
法師所	-11.7281
阿邏	-11.7281
大天	-11.7281
道智	-11.7283
除眾	-11.7284
照十方	-11.7285
諸聲	-11.7285
於五濁惡世	-11.7286
加之	-11.7286
亦非如來	-11.7286
能大利益	-11.7288
雖為	-11.7288
無數百千	-11.729
此表	-11.7291
亦無分別	-11.7291
而為眾生	-11.7292
高大	-11.7292
智炬	-11.7292
五色	-11.7293
悉除滅	-11.7293
一切十方諸佛	-11.7293
於諸善根	-11.7294
夜叉羅剎	-11.7299
佛境	-11.73
自貢高	-11.7301
初明	-11.7304
恒沙劫	-11.7304
惡風雨	-11.7305
無二相	-11.7306
復說言	-11.7306
為演	-11.7308
大家	-11.7313
大自在天	-11.7314
清淨寂靜	-11.7315
垢染	-11.7316
遍照三千大千世界	-11.7317
不多	-11.732
斯經典	-11.732
憐愍故	-11.7324
彌勒佛	-11.7324
侍者	-11.7324
散心	-11.7328
以願	-11.7329
了諸	-11.7329
聞此經	-11.7334
解脫智	-11.7335
一切世	-11.7335
見身	-11.7336
為第一	-11.7337
先以	-11.7337
能令一切眾生	-11.7337
救之	-11.7338
餓鬼中	-11.734
悉照	-11.734
欲以	-11.7342
十方一切佛	-11.7345
外境	-11.7346
依義	-11.7348
所引	-11.7349
況餘	-11.7351
施食	-11.7353
供養地藏菩薩	-11.7358
一切智人	-11.7358
普見	-11.7358
修善行	-11.7363
珠寶	-11.7365
便有	-11.7365
在心	-11.7369
為現身	-11.737
見眾生	-11.7373
殺人	-11.7374
彌利	-11.7375
不如施一	-11.7379
唯為	-11.7381
由業	-11.7384
無礙心	-11.7384
伽闍	-11.7388
佛聲	-11.7389
饒益眾生	-11.739
都那	-11.7391
便當	-11.7392
世主	-11.7394
不望	-11.7395
無數眾生	-11.7398
於此土	-11.74
佛意	-11.7402
諸受	-11.7403
護我法	-11.7403
癡人	-11.7408
亦不可思議	-11.7409
說經法	-11.741
佛悲心	-11.741
之耳	-11.7411
知義	-11.7412
其樹	-11.7415
亦復非	-11.7415
於佛上	-11.7417
辟支佛等	-11.7418
此娑婆界	-11.7424
汝欲	-11.7425
積德	-11.7426
止處	-11.7428
能治	-11.7429
進行	-11.7429
障難	-11.7432
勝功德	-11.7435
得菩提真如	-11.7435
彼等一切	-11.7436
拔苦	-11.7437
無造作	-11.7439
不慕	-11.744
轉五趣	-11.744
有形	-11.7444
修靜慮	-11.7445
已到	-11.7448
即是真實	-11.7448
說偈答	-11.7449
毘舍首陀	-11.745
修集悲心	-11.7456
苦辛	-11.7459
勤加	-11.7459
廣長	-11.7462
作樂	-11.7463
若有菩薩摩訶薩	-11.7463
本事	-11.7463
棄諸	-11.7465
得無盡	-11.7465
肉血	-11.7466
小劫	-11.7469
如法性	-11.747
既知	-11.7474
珍妙	-11.7475
知無我	-11.7475
若於此	-11.7476
大者	-11.7476
汝亦	-11.7476
受化	-11.7477
一菩薩名	-11.7478
以識	-11.7478
福德力	-11.7479
菩提道場	-11.748
永斷一切煩惱	-11.7481
而演說	-11.7482
皆得安樂	-11.7482
成聲聞	-11.7484
佛即	-11.7484
魔羅	-11.7487
但為自	-11.7488
果藥	-11.7488
寶網	-11.7489
昔有	-11.7492
邏婆	-11.7493
星者	-11.7494
我等皆	-11.7497
調伏心	-11.7498
彼等皆	-11.7498
此亦	-11.7498
此等眾生	-11.7504
出大光明	-11.7505
契經	-11.7507
盲者	-11.7509
彼人爾時	-11.751
若實	-11.7512
不信受	-11.7514
諸天王	-11.7514
共集會	-11.7515
求三昧	-11.7517
令諸眾生得	-11.7517
慈氏菩薩	-11.7519
婆羅門家	-11.7522
於四流	-11.7523
無色無	-11.7525
愚惑	-11.7525
學地	-11.7527
斷眾	-11.753
修行住	-11.753
久住世故	-11.7531
若聽	-11.7532
頗羅	-11.7532
精進波羅蜜	-11.7533
勝因	-11.7536
發於相	-11.7539
能開示	-11.754
於佛所說	-11.754
之理	-11.7541
過百	-11.7542
非實	-11.7542
合掌頂禮	-11.7542
百萬	-11.7543
諸功德法	-11.7544
淨業	-11.7545
義無礙智	-11.7546
入時	-11.755
受學	-11.7553
無穢	-11.7554
於佛世尊	-11.7554
化之	-11.7556
知空	-11.7558
於我等	-11.756
大弟子	-11.756
自可	-11.7561
四明	-11.7561
所應作	-11.7565
稱南無佛	-11.7568
曾作	-11.7575
為諸菩薩說	-11.7577
窮極	-11.7578
菩薩若欲	-11.7578
悉了	-11.7579
諸有情故	-11.7582
天等	-11.7583
時婆羅門	-11.7584
於諸菩薩	-11.7588
邊地	-11.7588
心不著	-11.7592
及阿修羅	-11.7593
意故	-11.7599
無我故	-11.7601
天處	-11.7605
求無上菩提	-11.7606
應見	-11.7607
相師	-11.7609
如涅槃	-11.7611
如淨	-11.7612
師云	-11.7613
所害	-11.7617
諸所作	-11.7618
多受	-11.7619
如虛空故	-11.7619
還入	-11.7619
入無間	-11.762
念之	-11.762
無礙解	-11.762
離性	-11.7621
無上正法	-11.7622
所不應	-11.7626
以金	-11.7626
時彼眾生	-11.7628
處胎經	-11.7629
甚清淨	-11.763
難值	-11.7634
法品	-11.7635
示人	-11.7637
一切聲聞辟支佛	-11.7637
以手摩	-11.7643
生恐怖	-11.7643
種少善根	-11.7646
能化	-11.7648
一毛孔	-11.7649
無礙辯	-11.7651
諸垢	-11.7652
疲厭	-11.7655
壞破	-11.7656
有少	-11.7661
此三千大千世界所有	-11.7661
解義	-11.7664
識念	-11.7665
瞿曇所	-11.7666
得調伏	-11.7677
親近承事	-11.7678
捨離一切	-11.7681
離惡	-11.7683
無相三昧	-11.7684
由我	-11.7684
我於此	-11.7687
故从	-11.7688
於此經	-11.7689
尊勝	-11.7689
教我	-11.7691
心之	-11.7698
無能為	-11.7703
以是故	-11.7704
能轉法輪	-11.7707
苦因	-11.7709
始生	-11.7711
了一切法	-11.7711
空聲	-11.7712
種種諸物	-11.7712
苦切	-11.7713
彼之	-11.7713
颰陀和菩薩	-11.7714
則滅	-11.772
畢竟空	-11.7722
今為汝說	-11.7723
千數	-11.7724
樂施	-11.7725
滅除一切	-11.7726
所覩	-11.7727
首陀羅	-11.7727
此是菩薩	-11.773
貪染	-11.7732
如是供養	-11.7733
斯三昧	-11.7742
莊嚴世界	-11.7743
出家者	-11.7743
普及	-11.7743
維衛如來	-11.7744
一切平等	-11.7745
悉在	-11.7746
常存	-11.7749
知受	-11.7753
諸邪	-11.7755
四天下中	-11.7757
今於佛前	-11.7758
而便	-11.7759
現在法	-11.7761
正明	-11.7765
微妙法門	-11.7765
悉具	-11.7767
無有受者	-11.7767
多竭	-11.7771
即於彼	-11.7776
菩提之道	-11.7778
轉變	-11.7778
念僧	-11.7778
南無佛陀	-11.7778
隨觀	-11.7779
不損	-11.7785
復人身	-11.7788
龍夜叉	-11.7789
寶手菩薩	-11.7794
所修習	-11.7799
如來業	-11.78
於戒遠離	-11.78
其名字	-11.78
聲聞法	-11.78
得法忍	-11.78
世尊而說偈言	-11.78
久處	-11.7801
佛戒	-11.7801
有持是三昧者	-11.7802
那術	-11.7803
至七	-11.7803
之異	-11.7804
所有光明	-11.7805
住無所住	-11.7806
於一一	-11.7814
生死煩惱	-11.7818
處生死	-11.7818
無量無數阿僧祇	-11.7819
復有天	-11.7822
因緣智	-11.7824
丸	-11.7825
最無上	-11.7831
未發心	-11.7831
如是處	-11.7834
應先	-11.7835
之正	-11.7837
之稱	-11.7837
過是	-11.7841
法非法	-11.7842
法本	-11.7843
我想	-11.7846
惱患	-11.7847
疲惓	-11.7848
常願	-11.785
婆羅門身	-11.7851
如是法者	-11.7862
聚中	-11.7867
侵害	-11.7867
時彼賢護	-11.7869
盧遮	-11.7872
日合牛	-11.7875
此方	-11.7876
福德智慧	-11.7879
自性空	-11.7879
本誓	-11.7881
時諸菩薩	-11.7882
心無所住	-11.7886
當作是	-11.7889
學戒	-11.789
諸種子	-11.7893
法不可說	-11.7894
如來前	-11.7894
諸眾生類	-11.7895
大聲	-11.7898
染心	-11.79
能於無量	-11.79
無亂	-11.7902
不立	-11.7902
悉清淨	-11.7904
無瞋恚	-11.7906
猗著	-11.7908
而示	-11.7908
所識	-11.7909
無所念	-11.791
復有魔	-11.791
慧行	-11.7912
退還	-11.7913
隨何	-11.7913
不錯	-11.7914
修行忍辱	-11.7915
藥味	-11.7917
所教	-11.7918
經說	-11.7921
世界名曰	-11.7923
問虛空藏	-11.7923
諸味	-11.7926
不能調伏	-11.7928
得大富	-11.7928
亦無所說	-11.7928
則令	-11.7931
亦護	-11.7936
而為上首	-11.7936
我寧	-11.7938
菩薩所修	-11.7938
悕求	-11.7947
云何而得	-11.7948
當捨	-11.7951
如是平等	-11.7951
身雖	-11.7951
遍行	-11.7952
一方	-11.7953
用此	-11.7955
無字無	-11.7957
先觀	-11.7959
大威神	-11.7959
三萬二千	-11.7962
此彼岸	-11.7965
何物	-11.7965
以頌	-11.7968
一切智慧	-11.7968
清淨佛剎	-11.7975
難行	-11.798
高七多羅樹	-11.798
無量生死	-11.7981
令無所乏	-11.7984
彼仙人	-11.7984
惱我	-11.7985
恭敬頂禮	-11.7988
是善丈夫	-11.799
若善	-11.7993
遠離貪欲	-11.7995
神識	-11.7996
一切眾生無	-11.8001
能離一切	-11.8005
莫令	-11.8006
雖無	-11.8009
不令得	-11.801
蓋幢幡	-11.801
加惡	-11.8013
梵音聲	-11.8013
義味	-11.8014
超越一切	-11.8016
能聽受	-11.8024
化樂	-11.8024
一切眷屬	-11.8026
住止	-11.8026
通奮迅	-11.8029
諸法自在	-11.803
住虛空	-11.8031
眼中	-11.8032
聲聞乘人	-11.8035
魔天	-11.8035
莊	-11.8037
金色百福	-11.8037
四角	-11.8037
婆闍	-11.8041
解脫道	-11.8042
真道	-11.8043
以此因	-11.8051
葉華	-11.8055
殺父	-11.8057
名字何等	-11.8059
實智	-11.8061
者為說	-11.8061
還生	-11.8061
無願順陀羅尼	-11.8061
須陀洹果	-11.8062
靨	-11.8062
最勝尊	-11.8063
遠離一切諸	-11.8065
能救護	-11.8066
主者	-11.8067
所度	-11.8069
成就菩提	-11.807
何可	-11.8071
皆使	-11.8072
得諸	-11.8072
到此	-11.8072
甚可	-11.8073
未成	-11.8073
真淨	-11.8075
自證	-11.8076
以佛神力	-11.8076
具足十力	-11.8077
無喜	-11.8081
如父母	-11.8088
住於佛前	-11.8088
勸諸	-11.8091
之香	-11.8091
無量心	-11.8092
壞煩惱	-11.8096
界法界	-11.8096
顯益	-11.8097
邪定	-11.8098
藍婆	-11.8098
寶女所問	-11.8099
悋惜	-11.8099
餘事	-11.8101
名義無礙	-11.8102
善巧智	-11.8103
寶衣	-11.8104
或觀	-11.8105
一心合掌	-11.8105
勝樂	-11.8105
欲脫	-11.8106
等正覺所	-11.8109
一切聖人	-11.8112
掌中	-11.8113
光明普照	-11.8114
計其	-11.8114
叉蛇	-11.8114
來詣此	-11.8116
依住	-11.8116
記莂	-11.8119
貨	-11.8119
如來印	-11.8119
所歸趣	-11.8124
永斷一切	-11.8125
悉來集	-11.8125
以布施	-11.8125
隨念於	-11.8126
往娑婆世界	-11.8126
經文	-11.813
無遺	-11.813
現在住	-11.813
遮尼	-11.813
阿賴耶	-11.8133
所謂金	-11.8134
栴檀末香	-11.8134
以離	-11.8134
各神足	-11.8136
本空	-11.8139
種種香花	-11.8139
一念頃	-11.8141
常出	-11.8142
三惡道中	-11.8142
得無量福	-11.8142
所歸依	-11.8147
受胎者	-11.8147
一切諸善法	-11.815
及上	-11.815
應當速	-11.815
不流散	-11.8151
是故我等	-11.8152
隙	-11.8152
眴	-11.8152
不可樂想	-11.8153
銕圍	-11.8153
專注	-11.8154
受法者	-11.8156
諸魔子	-11.8157
生驚怖	-11.8157
身輕	-11.8161
是謂取	-11.8162
若能如是觀	-11.8162
毛端	-11.8163
福德人	-11.8163
法喜	-11.8163
了義經者	-11.8163
支提	-11.8164
入聖	-11.8168
驅擯	-11.8169
諸藥	-11.817
好細軟可身	-11.8173
如一切法	-11.8173
菩提不退	-11.8174
高齊天竺三藏那連提耶舍譯	-11.8175
未曾忽忘	-11.8175
講說經法	-11.8177
三萬億	-11.8177
虛假	-11.8177
如雨而下	-11.8178
薜荔	-11.8179
此名曰通	-11.8179
遮𩘌	-11.818
未來諸佛	-11.818
漸次	-11.818
如是忍者是觀	-11.8181
抄寫此經	-11.8181
是故名捨	-11.8181
無緣梵行	-11.8181
聖人住處	-11.8181
婆毘	-11.8182
▁40	-11.8182
耐	-11.8182
速滿六波羅蜜	-11.8182
破魔法門	-11.8182
吾當為汝	-11.8183
善巧方便大甲冑輪	-11.8183
瓦石	-11.8184
是故諸佛	-11.8184
智慧之人觀是事已	-11.8184
心不動	-11.8184
波羅陀阿修羅王	-11.8185
諸善男子及善女人	-11.8185
安庠	-11.8186
如說而住	-11.8186
說諸	-11.8186
是名初發心菩薩犯於第	-11.8186
曷	-11.8186
灌頂剎利大王	-11.8188
若菩薩成就八法	-11.8188
恒河沙諸佛如來	-11.8188
定意正受	-11.8189
因坻達菩薩	-11.8189
著新淨衣	-11.8189
大慈大悲大喜大捨	-11.8189
火不能燒	-11.819
迴向於一切智	-11.819
曼陀羅華	-11.819
厭賤	-11.819
七菩提分	-11.819
貯	-11.819
灌頂王位	-11.819
無有於他實	-11.819
所說經典	-11.8191
得歡喜心	-11.8191
受斯	-11.8191
乃至奪命	-11.8191
殺生乃至邪見	-11.8191
妨廢	-11.8192
摩訶須薩和菩薩	-11.8192
佛出世者即是	-11.8192
多陀阿伽度	-11.8192
凌	-11.8193
菜	-11.8193
無有少法	-11.8193
以何義故	-11.8193
何因何緣	-11.8193
金剛齊	-11.8193
欲作事者	-11.8193
悚	-11.8194
悉令休息	-11.8194
欝單曰	-11.8194
有慧菩薩	-11.8194
蠅	-11.8194
彼佛告言	-11.8194
破戒苾芻	-11.8194
口不能語	-11.8195
無畏大城	-11.8195
頭面禮拜	-11.8195
疲懈	-11.8195
說是語已	-11.8195
頻頭	-11.8195
遍滿三千大千世界	-11.8196
燒滅善根	-11.8196
鉢囉帝	-11.8196
以妙香華	-11.8196
三耶三佛	-11.8196
不厭生死	-11.8197
分別現說	-11.8197
不可復計	-11.8197
涅盤	-11.8197
坐於道場	-11.8197
沙門及婆羅門	-11.8197
2	-11.8197
須臾之間	-11.8197
剃除鬚髮被服袈裟	-11.8197
身毛皆竪	-11.8198
憍曰兜	-11.8198
迮	-11.8198
陂池	-11.8198
在王舍城	-11.8198
實是愚癡	-11.8198
香湯澡浴	-11.8198
祕密章句	-11.8198
為菩薩十校計	-11.8199
是名初行菩薩第	-11.8199
阿差末謂舍利弗	-11.8199
隋天竺三藏達磨笈多譯	-11.8199
住於閑林	-11.8199
付囑於汝	-11.8199
諸珍寶	-11.8199
拘物頭花	-11.8199
稽首足下遶	-11.8199
滿足禪波羅蜜	-11.8199
我橋上	-11.8199
三輪	-11.8199
談論	-11.82
說寶幢陀羅尼	-11.82
殿堂	-11.82
得受阿耨多羅三藐三菩提記	-11.82
而開化之	-11.82
一時同聲	-11.82
無諸障礙	-11.82
為是等故	-11.82
嚌	-11.8201
沒不現	-11.8201
煮	-11.8201
喘息	-11.8201
阿牟	-11.8201
毳	-11.8201
一切法亦然	-11.8202
未得法忍	-11.8202
無有遺餘	-11.8202
逕	-11.8202
伽留	-11.8202
廣長舌	-11.8202
服袈裟	-11.8202
如救頭然	-11.8202
合掌禮佛	-11.8202
斷除五欲	-11.8203
寶橋	-11.8203
捨家出家	-11.8203
歸敬地藏者	-11.8203
被弘誓鎧	-11.8203
三寶種姓	-11.8203
宗親	-11.8203
柔順法忍	-11.8203
株	-11.8204
敬信三寶	-11.8204
打擲	-11.8204
忿恚	-11.8204
以是義故名之為	-11.8204
以慧力故	-11.8204
健達縛	-11.8204
莫呼洛伽	-11.8204
疾成阿耨多羅三藐三菩提	-11.8204
悉滅無餘	-11.8204
而修禪定	-11.8204
如鏡中像	-11.8205
周匝圍遶	-11.8205
摧碎心高緣法等句陀羅尼印入差別記	-11.8205
於阿耨多羅三藐三菩提得不退轉	-11.8205
隨其所須	-11.8205
我悉供養	-11.8205
鴦耆羅娑如來	-11.8205
有反復	-11.8206
難行苦行	-11.8206
耨	-11.8206
若身口意所作罪過	-11.8206
s	-11.8206
修行忍辱得清淨故	-11.8206
教導	-11.8207
目佉	-11.8207
其佛壽命	-11.8207
謙	-11.8207
貧窮困苦	-11.8207
頭面著地	-11.8207
稱虛空藏菩薩摩訶薩名	-11.8207
嗣	-11.8208
夙夜	-11.8208
速得成就阿耨多羅三藐三菩提	-11.8208
惛	-11.8208
常勤修習	-11.8208
那羅達菩薩	-11.8208
食不淨想	-11.8208
戰慄	-11.8208
精味	-11.8208
阿差末菩薩謂舍利弗	-11.8208
大地震動	-11.8209
殺阿羅漢	-11.8209
杵	-11.8209
客塵煩惱	-11.8209
肢節	-11.8209
禾	-11.8209
起居輕利	-11.8209
〔	-11.8209
〕-【	-11.8209
戰鬪	-11.821
得出家	-11.821
加持力故	-11.821
阿耨	-11.821
大目揵連	-11.821
是檀波羅蜜	-11.821
豺狼	-11.821
儒	-11.821
算師	-11.8211
懷抱	-11.8211
慎勿	-11.8211
踏	-11.8211
尊者舍利子	-11.8211
無常變異	-11.8211
四正斷	-11.8211
威神建立	-11.8211
生我國	-11.8211
眷	-11.8211
毘梨耶	-11.8212
卑下	-11.8212
栖	-11.8212
如法而說	-11.8212
初誡聽許說	-11.8212
金剛齊比丘	-11.8212
劣弱	-11.8212
羈	-11.8212
器非器	-11.8212
良福田	-11.8212
星辰	-11.8213
安住十地	-11.8213
轉無上法輪	-11.8213
領納	-11.8213
速證阿耨多羅三藐三菩提	-11.8213
六十億姟	-11.8213
嚩底	-11.8213
常不捨離	-11.8213
何能觸嬈	-11.8213
尚不敢近	-11.8213
人身難得	-11.8213
皤	-11.8213
若菩薩摩訶薩成此	-11.8213
能壞死魔	-11.8213
以惡業故	-11.8213
若減一劫	-11.8214
胡跪	-11.8214
誑惑世間	-11.8214
從禪定起	-11.8214
蓋纏	-11.8214
為欲成熟諸有情故	-11.8214
四諦順忍陀羅尼	-11.8215
覓	-11.8215
要期	-11.8215
助菩提法	-11.8215
與大比丘眾	-11.8215
效	-11.8215
罷	-11.8215
睡臥	-11.8215
無願解脫門	-11.8216
百億四天下	-11.8216
為葉及以華果	-11.8216
靈椉	-11.8216
粟	-11.8216
聖人處	-11.8216
欺𣣋	-11.8216
欄	-11.8216
流注	-11.8216
無明所覆	-11.8216
燈燭	-11.8216
畔	-11.8216
住蘭若	-11.8216
檀提	-11.8217
淨修梵行	-11.8217
平均	-11.8217
峻	-11.8217
釧	-11.8217
陀那波羅蜜	-11.8217
一百六十	-11.8217
業為	-11.8217
所在之處	-11.8217
嚴駕	-11.8217
無言童子	-11.8218
瞋罵	-11.8218
講說經典	-11.8218
阿惟顏	-11.8218
不可覩見	-11.8218
摧折	-11.8219
俯	-11.8219
秦	-11.8219
乙	-11.8219
本來不生	-11.8219
生時死時	-11.8219
護眾生故	-11.8219
心之所念	-11.8219
灌頂大王	-11.8219
光目女	-11.8219
拒	-11.8219
二十八宿	-11.8219
精誠	-11.8219
勒叉	-11.822
引導	-11.822
匿	-11.822
明哲	-11.822
五濁世界	-11.822
威德力故	-11.822
羅睺	-11.8221
尒時年少眾生	-11.8221
英	-11.8221
六和敬	-11.8221
廣為他說	-11.8222
吠	-11.8222
深淺	-11.8222
志性無定	-11.8222
永不墮惡道	-11.8222
災害	-11.8222
眾人愛敬	-11.8222
摩納	-11.8222
蚖	-11.8223
我之正法	-11.8223
無色定	-11.8223
往彼娑婆世界	-11.8223
亦來集會	-11.8223
召集	-11.8223
三輪清淨	-11.8224
監	-11.8224
鏡像	-11.8224
眾祐	-11.8224
灌頂王	-11.8224
簫	-11.8224
行於布施	-11.8224
無上正真道	-11.8225
咽喉	-11.8225
讚美	-11.8225
藥王菩薩摩訶薩	-11.8225
地藏白言	-11.8226
帛	-11.8226
河池	-11.8226
微塵數	-11.8226
無量眾生發阿耨多羅三藐三菩提心	-11.8226
默然不答	-11.8226
寶肩如來	-11.8227
戴	-11.8227
)􂍾	-11.8227
完	-11.8227
不退轉輪	-11.8228
師子進	-11.8228
方處	-11.8228
接引	-11.8228
而語之言	-11.8228
八臂	-11.8228
娑邏	-11.8228
欣然	-11.8228
初成正覺	-11.8229
忿恨	-11.8229
臻	-11.8229
禪悅	-11.8229
旃檀	-11.8229
休休	-11.8229
最正覺	-11.8229
煩惱諸結	-11.8229
知止足	-11.8229
彼出家菩薩	-11.823
汝今不應	-11.823
若菩薩成就四法	-11.823
疾得是定	-11.823
日午之影長	-11.823
蹈	-11.823
供給供養	-11.823
有依行輪	-11.8231
莊嚴道場	-11.8231
炭	-11.8231
殄	-11.8231
詣佛所	-11.8231
結網	-11.8231
稻	-11.8231
侈	-11.8231
有二種人	-11.8232
不應親近	-11.8232
喧	-11.8232
人中師子	-11.8233
大苦惱	-11.8233
毘沙	-11.8233
宛轉	-11.8233
播	-11.8233
姿	-11.8234
肆	-11.8234
乍	-11.8234
豆摩	-11.8234
甘果	-11.8234
不可譬喻	-11.8234
所有聲聞弟子	-11.8234
仁和	-11.8234
為成熟眾生故	-11.8234
天鬘	-11.8235
家室	-11.8235
而來集會	-11.8235
曩	-11.8235
別行疏	-11.8235
軀	-11.8235
所聞不忘	-11.8235
諦聽諦聽	-11.8235
甘露門	-11.8235
河沙	-11.8236
一瞻一禮	-11.8236
我是大乘	-11.8236
修七覺分	-11.8236
朱盧	-11.8236
凍	-11.8237
不失念心	-11.8237
夕	-11.8237
委	-11.8238
頭陀功德	-11.8238
懈惓	-11.8238
高齊天竺三藏那連提耶舍譯爾時	-11.8238
造床	-11.8238
伽他	-11.8238
抑	-11.8238
慧奮迅	-11.8238
即於空中	-11.8239
於此法中	-11.8239
晨	-11.8239
生不樂想	-11.8239
成最正覺	-11.8239
符	-11.8239
終不忘失	-11.8239
迅	-11.824
無我無我所	-11.824
到佛所已	-11.8241
闍藍婆	-11.8241
選	-11.8241
騾	-11.8241
箇	-11.8241
帝釋天王	-11.8241
菩薩修禪	-11.8242
支解	-11.8242
雌	-11.8242
何所饒益	-11.8242
楞嚴	-11.8243
諸菩薩輩	-11.8243
捨諸所有	-11.8243
迦蛇	-11.8243
日密分	-11.8244
面目	-11.8244
不能測	-11.8244
雲雷音	-11.8244
清信	-11.8244
志慕	-11.8244
識空	-11.8244
釋師子	-11.8244
大王當知	-11.8244
風所吹	-11.8245
大鎧	-11.8245
母子	-11.8245
律教	-11.8245
二十四種	-11.8247
其數無量	-11.8247
高遠	-11.8247
皆悉充滿	-11.8248
種種伎樂	-11.8248
黃色	-11.8248
決斷	-11.8249
至如來所	-11.8249
龍眾	-11.825
那荼	-11.825
不著過去	-11.825
現在不住	-11.825
猶如大地	-11.8251
如理修行	-11.8251
魚鼈	-11.8251
羅麼	-11.8251
天台	-11.8252
熏習	-11.8252
管	-11.8252
十二緣起	-11.8252
寶雨經云	-11.8253
景	-11.8253
婆樓那	-11.8253
滿三千大千世界	-11.8253
藥樹	-11.8253
。】【△	-11.8253
若犯一	-11.8253
各各差別	-11.8253
琴	-11.8254
越三界菩薩	-11.8254
此虛空孕菩薩	-11.8254
纖毫	-11.8255
了別	-11.8255
醎	-11.8255
無量阿僧祇劫	-11.8256
逆順	-11.8256
以憐愍故	-11.8256
大福德	-11.8257
諸天子眾	-11.8257
語者說	-11.8258
然後方	-11.8258
徧滿	-11.8258
於生死海	-11.8259
醯履醯履	-11.8259
自己	-11.8259
生人天中	-11.8261
受苦痛	-11.8261
邪歸	-11.8261
聖路	-11.8262
其價	-11.8262
讒	-11.8262
魄	-11.8262
戒清淨平等	-11.8263
杜	-11.8265
豎	-11.8266
消化	-11.8266
以一切	-11.8266
係念	-11.8266
即於會中	-11.8266
冰	-11.8266
膠	-11.8266
諸過惡	-11.8266
億那由他百千眾生	-11.8267
的	-11.8267
速成無上	-11.8267
禮諸佛	-11.8268
旃陀羅王	-11.8268
紀	-11.8268
諸婆羅門	-11.8268
蔓	-11.8268
興供	-11.8269
生死苦惱	-11.8269
若現在世	-11.8269
不祥	-11.8269
大火聚	-11.8271
純至	-11.8271
毗沙門	-11.8272
地藏答言	-11.8272
皆各	-11.8272
貧苦	-11.8273
求此三昧	-11.8274
得報	-11.8274
自在無礙	-11.8275
寤已	-11.8276
各各異	-11.8276
夜叉乃至迦吒富單那等	-11.8277
若善不善	-11.8277
五辛	-11.8277
五百由旬	-11.8279
志性清淨	-11.8279
海邊	-11.8279
毫善	-11.8279
金師	-11.8279
見道	-11.8279
若有受持	-11.828
照觸	-11.8281
佛告賢護	-11.8281
時諸年少	-11.8282
劫火	-11.8282
三昧定	-11.8283
污道	-11.8283
刀輪	-11.8285
犯重	-11.8286
獲安樂	-11.8286
先亡	-11.8287
汝能如是	-11.8288
究竟涅槃	-11.8288
速得解脫	-11.8288
憐愍我故	-11.8289
復有一人	-11.829
須達	-11.8291
三災	-11.8292
觀一切行	-11.8293
之所宣說	-11.8294
修六波羅蜜	-11.8294
悅樂	-11.8294
尚未	-11.8294
用塗	-11.8295
於三世中	-11.8295
大叫	-11.8295
生大悲心	-11.8296
勿呿	-11.8297
若能了知	-11.8298
魔羂	-11.8298
見思	-11.8298
無與等者	-11.8299
戒忍	-11.83
天與人	-11.83
亦不離	-11.83
六塵	-11.83
心不貪著	-11.8301
不樂想	-11.8301
梵德	-11.8301
塵穢	-11.8301
受用種種	-11.8302
無所破壞	-11.8304
將至	-11.8305
無量佛剎	-11.8306
第一禪	-11.8306
於四神足	-11.8306
有靨	-11.8307
佛告海意菩薩	-11.8307
利益一切眾生	-11.8308
又自在王	-11.8309
讀誦受持	-11.831
最為第一	-11.8311
遠離憍慢	-11.8312
種種幡蓋	-11.8312
亦不怖畏	-11.8313
眾香	-11.8314
色心	-11.8315
寶坊中	-11.8316
以是善根	-11.8317
云何可說	-11.8317
四輩	-11.8317
瞿沙	-11.8317
果樹	-11.8317
為人說法	-11.8317
開明	-11.8317
神德	-11.8317
父母師長	-11.8319
具足念心	-11.832
平地	-11.8323
無差特	-11.8323
無有慚愧	-11.8323
諸病苦	-11.8323
有一種	-11.8324
化他	-11.8324
婆羅門種	-11.8325
銕圍山	-11.8326
何須	-11.8326
於菩提心	-11.8326
除滅一切	-11.8327
黑白	-11.8327
有大功德	-11.8327
使諸眾生	-11.8327
能仁	-11.8328
修行檀波羅蜜	-11.8329
誹謗賢聖	-11.833
可思議	-11.8331
我為彼	-11.8333
名善思惟	-11.8334
殖德本	-11.8334
行法施	-11.8335
莊嚴菩提	-11.8335
復有三萬	-11.8337
幾法	-11.8337
功德莊嚴王	-11.8338
供養佛已	-11.8339
不能親近	-11.8339
解達	-11.8339
心大	-11.8339
得三昧已	-11.8339
百萬億	-11.834
法中出家	-11.834
從來	-11.834
知諸有情	-11.834
羸劣者	-11.8341
無有言辭	-11.8341
已即得	-11.8342
即是無上	-11.8343
圓明	-11.8343
身心俱	-11.8346
之詞	-11.8348
哀愍攝受	-11.8349
受食	-11.8349
無諍三昧	-11.835
是名菩薩四	-11.8351
一切惡事	-11.8351
同體	-11.8351
靡不周	-11.8352
聽正法	-11.8353
即是寂靜	-11.8354
箭射	-11.8355
厭離生死	-11.8357
具一切智	-11.8358
常精進	-11.836
化令	-11.8361
尊長	-11.8363
速成就阿耨多羅三藐三菩提	-11.8364
於今現在	-11.8365
大仙人	-11.8366
一切眾魔	-11.8367
教諸眾生	-11.837
燈炬	-11.8371
佛種	-11.8374
何謂菩薩摩訶薩	-11.8374
無為方便	-11.8375
投之	-11.8376
觀視	-11.8376
為供養故	-11.8377
無能見	-11.8379
思惟觀察	-11.838
即是過去	-11.838
其頂上	-11.8382
甚深義	-11.8382
愛染	-11.8383
生死大海	-11.8384
請說	-11.8384
為諸大眾	-11.8384
懈退	-11.8385
地居	-11.8387
行於生死	-11.8388
等持	-11.8388
不著諸法	-11.8389
一切有為法	-11.8389
應須	-11.839
聞說此	-11.8391
於己身	-11.8391
那由他等	-11.8395
陰界	-11.8397
非供養	-11.8398
作佛形像	-11.8398
勝進	-11.8398
多財	-11.8398
離慢	-11.8399
不可分別	-11.8399
差別相	-11.8399
遠離境界	-11.8402
迦陵頻伽	-11.8404
應當至心	-11.8405
起立	-11.8405
離殺生	-11.8406
利物	-11.8407
得出離	-11.8408
不退菩薩	-11.8409
勝處	-11.8411
無量無數眾生	-11.8412
無厭足故	-11.8412
天龍等	-11.8416
百界	-11.8418
迦耶	-11.8418
亦曾	-11.8419
滿足成就	-11.8419
罪輩	-11.8421
具足圓滿	-11.8422
入大乘	-11.8422
亦無所見	-11.8424
汝莫	-11.8424
垢濁	-11.8425
因無常	-11.8425
此陀羅尼句	-11.8426
遍聞	-11.8427
何故不	-11.8429
真善婦女	-11.8432
若使	-11.8434
頭上	-11.8434
根機	-11.8434
其頂	-11.8435
倚著	-11.8435
不得分	-11.8435
度之	-11.8436
二宿	-11.8437
三聚	-11.8437
戒定慧	-11.8439
詣佛	-11.8443
即於佛前而說	-11.8446
以此因緣	-11.8446
亦是一切	-11.8447
入已	-11.8447
真解脫	-11.8452
及以解脫	-11.8453
所奉	-11.8454
無有疲惓	-11.8455
菩薩如說	-11.8456
攝取眾生	-11.8456
真性	-11.8457
一切法無我	-11.8457
乾陀	-11.8458
具足威儀	-11.846
人道中	-11.8461
有勢力	-11.8463
入大海	-11.8463
無乏	-11.8464
欲學	-11.8466
隨彼眾生	-11.8466
若如是見	-11.8467
修八正道	-11.8467
眾味	-11.8467
彼國土	-11.8467
忍辱力	-11.8468
我能生	-11.8473
十方所有	-11.8473
當成佛	-11.8478
呵奢	-11.8479
知法性	-11.8481
累劫	-11.8482
廣宣說	-11.8483
日天子	-11.8483
喜足	-11.8484
展轉相	-11.8486
久存	-11.8487
空虛	-11.8488
頭面禮敬	-11.849
堪為	-11.849
八十二	-11.8492
如來今日	-11.8492
為度	-11.8493
為要	-11.8493
五百菩薩	-11.8498
受苦報	-11.8498
道跡	-11.8502
計著	-11.8503
有退	-11.8504
明利	-11.8508
天王如來	-11.8509
成壞	-11.851
報彌勒	-11.8513
無有覺觀	-11.8517
聞如來說	-11.8519
戒反	-11.852
八大地獄	-11.8521
不可具	-11.8524
世間苦	-11.8524
華雲	-11.8525
入一切法	-11.8527
地大	-11.8527
小善	-11.8529
十二入	-11.8531
悉曉	-11.8532
破除	-11.8535
阿迦尼吒天	-11.8535
若蛇	-11.8537
闍毘	-11.8539
又復際者	-11.8543
或被	-11.8543
少智	-11.8544
捨去	-11.8545
疫	-11.855
捨彼	-11.8554
即獲	-11.8554
報果	-11.8555
相對	-11.8559
形者	-11.8559
視之	-11.8561
生天涅槃	-11.8565
眾好	-11.8567
等者則	-11.8568
為欲供養	-11.8569
諸惡法	-11.8571
如幻相	-11.8575
觀十二因緣	-11.8577
我無我	-11.8578
趣阿鼻地獄	-11.8578
獲斯	-11.8579
十曰	-11.8581
覺了諸法	-11.8582
路迦	-11.8582
不驚怖	-11.8583
化為	-11.8584
不惜身命故	-11.8584
諸聖人	-11.8585
及諸聲聞	-11.8585
化事	-11.8586
名虛空藏	-11.8588
其父	-11.8588
吉祥令	-11.8589
還生人	-11.8591
名曰鐵	-11.8591
先已	-11.8594
甚深大乘	-11.8594
輕利	-11.8594
具滿	-11.8603
到彼岸故	-11.8603
得生天	-11.8605
知眾生界	-11.8609
具足第一	-11.8609
其花	-11.8609
於彼布施清淨平	-11.8609
東方過	-11.8609
伽隸	-11.8611
若準	-11.8613
無高下	-11.8613
銕丸	-11.8615
在其中	-11.8617
修空	-11.8619
自造	-11.862
受人身	-11.8623
多億	-11.8624
葢以	-11.8626
而感	-11.8626
鬼畜	-11.8627
依止威儀	-11.8628
日合七星	-11.863
於彼岸	-11.8631
深樂	-11.8631
能知眾生	-11.8634
復有八	-11.8634
愛別離	-11.8634
深著	-11.8634
修十善	-11.8636
得首楞嚴三昧	-11.8637
豈得	-11.8639
諦智	-11.864
勝道	-11.8644
之戒	-11.8645
釋也	-11.8646
是毘梨耶波羅蜜	-11.8648
念念滅	-11.8648
力無所畏	-11.8649
以彼菩薩	-11.8655
造十惡	-11.8656
即從	-11.8656
無能勝	-11.8656
萬由旬	-11.8657
快說此	-11.8657
不發	-11.8659
諸念	-11.8659
眾人所	-11.8659
如來說法	-11.866
闇蔽	-11.8665
若有眾生得聞	-11.8668
常恒	-11.8669
是滅法	-11.867
上界	-11.8672
若見如來	-11.8673
何謂三十二	-11.8673
世間尊	-11.8675
以方便力	-11.8676
如蓮華	-11.8677
用力	-11.8679
之所讚歎	-11.868
佛滅度後	-11.8681
能竭	-11.8683
吾身	-11.8686
欲愛	-11.8688
慧方便	-11.8693
生貪著	-11.8695
是兒	-11.8696
下明	-11.8697
一切法真如故	-11.8697
各別	-11.8697
令一切眾生得	-11.8697
之氣	-11.8698
樹根	-11.8699
便以	-11.87
種種音聲	-11.8702
識性	-11.8703
無諸煩惱	-11.8705
淨德	-11.8712
常得增長	-11.8714
熾火	-11.8715
行惡者	-11.8718
久住不滅	-11.872
或奪	-11.8721
此業	-11.8721
衣服臥具	-11.8724
石山	-11.8726
彼會	-11.8727
不熱	-11.8727
知色真如	-11.8733
求名聞	-11.8734
皆來至	-11.8736
佛法教	-11.8737
莊嚴佛土	-11.8738
無量德	-11.8738
慈行	-11.8739
以世俗	-11.8742
分分	-11.8744
諸剎	-11.8745
持地	-11.8745
成熟眾生故	-11.8747
亦滅	-11.8748
我實不	-11.875
得好	-11.8752
十方諸佛國土	-11.8752
如塵	-11.8753
無悲	-11.8753
以如上諸	-11.8755
大集眾	-11.8759
而猶	-11.876
知他	-11.876
內外空	-11.8761
戒取	-11.8762
心力	-11.8762
即各	-11.8763
大雨	-11.8765
得無礙辯	-11.8767
迦迦	-11.8768
觀己	-11.8771
遠離一切諸惡	-11.8778
報盡	-11.8779
能發阿耨多羅三藐三菩提心	-11.8782
說伽他	-11.8788
為法故	-11.8789
其本末	-11.8791
十不善	-11.8794
大施主	-11.8795
心平等故	-11.8797
覆心	-11.8799
上虛空中	-11.8802
本具	-11.8803
而不證	-11.8803
四大海	-11.8803
沙門果	-11.8807
生三十三天	-11.8807
應現	-11.8808
生心	-11.881
無量無邊世界	-11.881
毀損	-11.8812
修捨心	-11.8812
法器者	-11.8812
諸惡比丘	-11.8814
準正法念	-11.8819
四辯	-11.8819
如意分	-11.8821
汝等若能	-11.8822
獄鬼	-11.8822
近惡知識	-11.8828
隨力	-11.883
為眾說	-11.8831
大寂靜	-11.8831
及諸天	-11.8832
及諸煩惱	-11.8832
菩薩持戒無	-11.8832
供養我	-11.8834
如來亦如是	-11.8836
懷疑	-11.8836
細微	-11.8839
我此身	-11.8841
有大慈悲	-11.8843
如來則為	-11.8845
無懈	-11.8847
爾時彼人	-11.8848
于大哀	-11.8852
欲界中	-11.8853
空慧	-11.8853
不為邪	-11.8855
三戒	-11.8856
更發	-11.8856
懈怠心	-11.8856
勿生疑	-11.8859
罪重	-11.886
耳界	-11.886
大德舍利弗	-11.8861
若有比丘觀	-11.8862
得如是等	-11.8863
清淨道	-11.8867
思惟此三昧	-11.8869
無脫	-11.887
幾所	-11.887
娑利	-11.8872
戒波羅蜜	-11.8875
淨光明	-11.8878
若有供養	-11.888
以如是等種種	-11.8883
寂靜義	-11.8883
之號	-11.8884
真實相	-11.8886
一切所聞	-11.8888
於世諦	-11.8889
習因	-11.889
眾生起大悲心	-11.8892
打罵	-11.8892
千二百	-11.8893
不習	-11.8895
其眼	-11.8897
宜修	-11.8899
暫捨	-11.89
無目	-11.8903
倍增	-11.8905
我師	-11.8907
怖畏眾生	-11.8909
惟有	-11.891
大富貴	-11.891
無猶豫	-11.8911
告尊者阿難	-11.8911
此第十	-11.8911
從意	-11.8912
▁南無文殊師利	-11.8913
十方菩薩	-11.8913
宮室	-11.8914
彼魔	-11.8914
魔子言	-11.8915
頂法	-11.8915
令度	-11.8915
離一切惡	-11.8915
佛光	-11.8917
無證	-11.8918
無能壞	-11.8924
平等智	-11.8925
功德無量	-11.8926
即解脫	-11.8926
諸樂	-11.8933
一切諸煩惱	-11.8937
得自在故	-11.8939
無所緣	-11.8941
大施	-11.8943
行忍	-11.8943
緣覺法	-11.8945
一切惡見	-11.8945
那耶	-11.8946
所觸	-11.8947
三場	-11.8954
先見	-11.8955
成就三昧	-11.8955
護助	-11.8956
無量福德	-11.8957
五業	-11.8958
無阿賴耶	-11.896
顛倒見	-11.8961
如爾	-11.8962
聖因	-11.8967
聖旨	-11.8972
能除滅	-11.8973
此勝三昧	-11.8974
受是經	-11.8974
叉耶	-11.8975
枉習	-11.8977
禮佛足	-11.8977
設大	-11.8983
牟陀	-11.8985
勝於彼	-11.8987
乃謂	-11.8988
今乃	-11.8988
無缺漏	-11.8988
設能	-11.899
不障	-11.899
大蓮華	-11.8992
不懷恨	-11.8992
一門	-11.8993
即得解脫	-11.9009
八邪	-11.9012
作諸惡業	-11.9013
佛寺	-11.9016
邪智	-11.9018
所建	-11.902
依猗	-11.902
現在諸佛世尊	-11.9028
所往	-11.9028
相好莊嚴	-11.9029
三達	-11.9031
寒熱等	-11.9031
生知足	-11.9035
有大名稱	-11.9035
於我法	-11.9035
有佛出	-11.9038
娑婆世界釋迦如來	-11.9038
大王言	-11.9041
即是苦	-11.9043
如是廣大	-11.9044
十五佛現	-11.9044
以此陀羅尼	-11.9046
更以	-11.9047
性善	-11.9049
愍念	-11.9052
害命	-11.9055
如雨	-11.9055
此佛剎中	-11.9055
經義	-11.9057
種種諸苦	-11.9057
月天子	-11.906
如茲	-11.9061
復微笑	-11.9063
却後	-11.9064
泥犁中	-11.9068
同住	-11.9068
難處	-11.9073
好衣	-11.9076
大蓮花	-11.9077
此獄	-11.9077
稱沙門	-11.9078
復取	-11.908
一切眾生之類	-11.9081
非諸聲聞	-11.9083
寶髻菩薩	-11.9083
奪其	-11.9085
十方現在	-11.9087
香塗	-11.9088
釋迦如來為	-11.9089
梵住	-11.9096
是般若波羅蜜	-11.9099
獲福無量	-11.9106
難可得	-11.9108
眾流	-11.9109
心生念	-11.911
為利眾生	-11.9114
以無數	-11.9115
苦聲	-11.9116
修集無上	-11.9123
當滅	-11.9127
樹神	-11.9128
受滅	-11.913
供養父母	-11.913
七十九	-11.9133
神仙	-11.9134
千葉	-11.9137
修慧	-11.9141
有比丘名	-11.9143
進入	-11.9145
曾修	-11.9153
在何處	-11.9153
不求解脫	-11.9156
普勇菩薩復	-11.9159
境智	-11.916
化佛	-11.9161
信諸法	-11.9163
即復	-11.9164
永斷諸	-11.9164
證義	-11.9166
沙婆	-11.917
妙菩提	-11.9172
為作護	-11.9174
過世	-11.9174
同虛空	-11.9174
千萬劫	-11.9175
為阿耨多羅三藐三菩提	-11.9175
說無常	-11.9175
不欺誑	-11.9179
若過去	-11.9183
諸善業	-11.9184
拘那	-11.9185
不等	-11.9188
是為如來二十	-11.9192
不能得知	-11.9194
以致	-11.9196
退坐	-11.9202
施作佛事	-11.9203
女人之身	-11.9203
因風	-11.9204
幻炎	-11.9204
智積菩薩	-11.9207
實見	-11.921
雖處	-11.9212
能拔	-11.9214
亦不壞	-11.9214
隨意所	-11.9214
各不相	-11.9214
形如	-11.9218
式	-11.9221
諸大菩薩摩訶薩	-11.9223
古昔	-11.9224
在眾中	-11.9225
為何謂	-11.9226
方等經	-11.9229
行此法	-11.9235
寧知	-11.9237
無量壽	-11.924
有智者	-11.9241
至心恭敬	-11.9242
諸佛法中	-11.9243
如子	-11.9243
三眼	-11.9247
無上世尊	-11.925
違失	-11.9251
八名	-11.9253
毛孔中	-11.9257
不依欲界	-11.9259
覺阿耨多羅三藐三菩提	-11.9259
世尊告彼	-11.9259
菩薩行道	-11.9263
以諸眾生	-11.9263
離邪見	-11.9265
之所依	-11.9265
矜	-11.9267
九月	-11.9268
十四日	-11.9269
物想	-11.927
無德	-11.9272
有黑	-11.9276
又二初	-11.9277
修諸善	-11.9278
皆悉得	-11.9279
使其	-11.9284
人中之	-11.9285
九十八	-11.9287
摩兜	-11.9293
彼人所作	-11.9298
眾難	-11.9298
彼諸菩薩摩訶薩	-11.9298
聲遍滿	-11.9299
曉知	-11.9305
若能遠離	-11.9309
十習	-11.9315
應當供養	-11.9316
諸佛海	-11.9317
供養禮拜	-11.9319
百八罪	-11.9321
必利洟	-11.9325
惱他	-11.9326
益彼故	-11.9328
為欲莊嚴	-11.933
自護	-11.9336
憐愍一切眾生	-11.9336
破毀	-11.9337
識無住	-11.9339
趣涅槃	-11.934
摧魔如來	-11.9342
作導師	-11.9342
世間師	-11.9343
慢慢	-11.9347
置一	-11.9348
卷第四十	-11.9351
七日夜	-11.9354
呵羅	-11.9354
世尊即為	-11.9355
辟支佛道	-11.9356
告汝	-11.9357
呵泥	-11.9366
及一切法	-11.9366
六天	-11.937
四意止	-11.9371
說大陀羅尼	-11.9376
作歸依	-11.9377
及法界	-11.9378
現在及未來世	-11.9378
以此精進	-11.9379
摩陀	-11.9379
於眾生所	-11.9384
樹上	-11.9385
隨汝	-11.9385
八十九	-11.9389
於本際	-11.9392
闍呵	-11.9392
上昇虛空	-11.9398
能善分別	-11.9398
修行忍	-11.9403
三百	-11.9414
辟支佛共	-11.9414
明月珠	-11.9416
大名聞	-11.9416
迦摩	-11.9418
無解脫	-11.9418
增勝	-11.9424
分別有	-11.9424
惡觸	-11.9426
或有菩薩	-11.9431
眾患	-11.9431
告語	-11.9434
七十五	-11.9436
萬那由他	-11.9439
經劫	-11.9444
即見如來	-11.9447
崖	-11.9447
大地獄中	-11.9448
迷失	-11.9449
勸助於	-11.9451
無有窮	-11.9452
以世諦	-11.9455
不間	-11.9457
渚	-11.9458
無所受	-11.9462
詐現	-11.9472
世尊重	-11.9473
尼國	-11.9477
無邊功德	-11.9477
嘴宿	-11.9481
寧以	-11.9484
不能損	-11.9485
印印之	-11.9488
八十七	-11.9488
洋	-11.949
從頂	-11.9498
所語	-11.9502
小身	-11.9502
心知無	-11.9504
宜速	-11.9504
法隨念	-11.9505
皆悉合掌	-11.9505
神鬼	-11.9506
虗空藏菩薩	-11.9507
此二種人	-11.951
諷	-11.9511
華葉	-11.9513
所勸	-11.9514
猶不能	-11.9515
觀所攝	-11.9517
諸魔外道	-11.9518
一食	-11.9519
龍婦	-11.952
閻浮提界	-11.9522
奉順	-11.9522
誹	-11.9524
西晉月氏三藏竺法護譯	-11.9526
超諸	-11.9528
迦利	-11.9535
周流	-11.9537
來處	-11.9541
當如法	-11.9544
佛告藥王軍	-11.9544
得作佛	-11.9545
得四禪	-11.9546
之由	-11.9547
修正行	-11.9549
復於餘剎	-11.955
勤方便	-11.955
害眾生	-11.9553
蠱道	-11.9556
無量佛法	-11.9557
修於念	-11.956
]《	-11.9561
誦讀	-11.9562
淨佛國土	-11.9564
殑伽沙數	-11.9565
沙界	-11.9567
貪恚	-11.9567
蠲	-11.9568
一足	-11.9571
善根增長	-11.9571
無所動	-11.9573
菩提果	-11.9573
大眾之中	-11.9574
獲得無上	-11.9575
色聲香味觸	-11.9575
總攝一切佛法	-11.9576
佐	-11.9577
法界亦	-11.9579
菩薩成就四法	-11.9581
老病死	-11.9582
此虛空藏菩薩	-11.9582
乃當	-11.9582
目揵連	-11.9582
謬	-11.9585
汝今見此	-11.9586
亦令一切	-11.9586
藥王菩薩	-11.9588
專注心	-11.9594
犯波羅夷	-11.9594
千菩薩得無生忍	-11.9594
猶尚	-11.9597
有情真如	-11.9597
求食	-11.9598
觀後世畏	-11.9598
淨無垢	-11.9598
翫	-11.9598
毘羅	-11.9598
歌羅羅	-11.9599
寶肩	-11.9599
於真諦	-11.9599
齊限	-11.9599
菩薩觀諦方便	-11.96
供養無量諸佛	-11.9601
修證	-11.9601
盡故有盡	-11.9601
不與聲聞辟支佛共	-11.9602
為如是等	-11.9603
生欲勤進	-11.9604
攝心正除	-11.9604
念總持力	-11.9606
農夫	-11.9607
二萬五千億眾生	-11.9608
變動諸法王菩薩	-11.9608
右臂	-11.9608
心數法	-11.9609
樹王比丘	-11.9609
揵	-11.961
下至無戒	-11.961
令身	-11.961
是則不通	-11.961
艶	-11.9611
掬	-11.9611
曼殊沙華	-11.9611
栴陀羅	-11.9611
夫出家者	-11.9611
摩尼寶珠	-11.9611
有差別	-11.9612
嬾惰	-11.9612
尼犍	-11.9612
令還俗	-11.9612
居士旃陀羅	-11.9612
疵	-11.9613
此妙正法	-11.9613
若無相	-11.9613
快得善利	-11.9614
閱叉鬼神	-11.9614
竹林	-11.9614
了知清淨士	-11.9614
月上境界如來	-11.9614
誰於今日	-11.9614
義今說	-11.9614
忍辱柔和	-11.9615
不免	-11.9615
若有剎利灌頂	-11.9615
剖判	-11.9615
存活	-11.9615
我等今者於世尊前	-11.9615
發聲聞心	-11.9615
須深菩薩	-11.9615
平坦	-11.9615
以經力故	-11.9615
阿練若	-11.9616
阿耨多羅三耶三菩阿惟三佛	-11.9616
栴	-11.9616
於我法中而出家者	-11.9616
防護當來所有罪	-11.9616
不可捉持	-11.9616
斷煩惱	-11.9616
歸敬三寶	-11.9617
功德光王	-11.9617
行大布施	-11.9617
福報莊嚴王	-11.9617
糜	-11.9617
伽伽那	-11.9617
在世尊前	-11.9618
復加	-11.9618
諸婆羅門外道	-11.9618
以何緣故	-11.9618
失譯人名今附北涼錄	-11.9618
蒙光觸身	-11.9618
窟宅	-11.9618
默然許	-11.9619
所顯示	-11.9619
提婆達多	-11.9619
嘿	-11.9619
諸有諸趣	-11.9619
大地六種震動	-11.9619
螺	-11.962
為諸眾生宣說正法	-11.962
來入會中	-11.962
磨拭	-11.962
萬六千菩薩	-11.962
觀三世方便	-11.962
悲啼	-11.962
之所染污	-11.962
容恕	-11.962
努	-11.962
沈沒	-11.962
以四攝法攝取眾生	-11.962
令我等輩	-11.962
惡業盡故	-11.962
菩薩亦承佛神力入	-11.962
一肩	-11.9621
於是三昧中	-11.9621
佛復問諸菩薩	-11.9621
無始無終	-11.9621
善道及涅槃樂	-11.9621
恒受勝報	-11.9621
繞佛三匝	-11.9621
時會大眾	-11.9621
資養	-11.9621
退住一面	-11.9621
和合相	-11.9621
無量百千萬億那由他	-11.9622
盪	-11.9623
大悲根	-11.9623
如意神力	-11.9623
姹	-11.9623
淤泥	-11.9623
請問於如來	-11.9623
干	-11.9623
於賢劫中	-11.9624
滅度之後	-11.9624
狂象	-11.9624
緣是之故	-11.9624
佉羅帝山牟尼諸仙所依住處	-11.9624
巍巍之德莫能當焉	-11.9624
牟真隣陀阿修羅王	-11.9624
諸陀羅尼堅固大忍大甲冑輪	-11.9624
稽首佛足	-11.9624
勝福常得增長	-11.9624
舍利弗語無盡意	-11.9624
訥	-11.9624
四事助歡喜	-11.9624
進度無極	-11.9624
窈冥	-11.9625
威儀庠序	-11.9625
以三昧力	-11.9625
火所燒	-11.9626
前禮佛足	-11.9626
壽命短促	-11.9626
此剎帝利灌頂大王	-11.9626
其等與者	-11.9626
命欲終時	-11.9626
又願生生世	-11.9626
聚落主	-11.9626
男女大小	-11.9626
令三寶種不斷絕故	-11.9626
怨憎會	-11.9626
即便授以修	-11.9627
如者反	-11.9627
善家子	-11.9627
或有眾生聞說	-11.9627
不作是念	-11.9627
偈讚	-11.9627
為流布故	-11.9627
了了分明	-11.9627
聰叡	-11.9627
博差	-11.9627
乞士	-11.9627
常現在前	-11.9627
嵐	-11.9627
雜穢語	-11.9627
或解支節	-11.9627
而化度之	-11.9627
為滿六波羅蜜	-11.9627
痛痒思想生死識	-11.9627
聞我說法	-11.9627
見是相已	-11.9627
此則名為不共凡夫四諦順陀羅尼第	-11.9627
瘖啞	-11.9627
此賢劫初	-11.9628
兵革	-11.9628
在其人前	-11.9628
所散之華	-11.9628
摩睺勒鬼神	-11.9628
百千俱胝那庾多	-11.9628
欺陵	-11.9628
捨是身已	-11.9628
及龍眷屬	-11.9628
未之有也	-11.9628
羶	-11.9628
經營	-11.9628
咄	-11.9628
跋泥	-11.9628
僧坊	-11.9629
歌頌	-11.9629
五音作樂	-11.9629
八千龍王	-11.9629
散其上	-11.9629
塵霧	-11.9629
皆能除滅	-11.9629
菩薩摩訶薩具足修習	-11.9629
啟請	-11.9629
壽命長遠	-11.9629
不高	-11.963
詞辯	-11.963
佷戾	-11.963
鉀	-11.963
隋天竺三藏闍那崛多譯	-11.963
十月	-11.963
合掌而立	-11.963
出入氣息	-11.963
於三昧中	-11.963
彼有世界名曰	-11.963
若如是觀	-11.963
適悅	-11.963
無發悟	-11.963
拘物頭	-11.9631
天仙七宿	-11.9631
病瘦	-11.9631
侵損	-11.9631
無有出期	-11.9631
各與無量百千眷屬	-11.9631
是為如來第十	-11.9632
晃	-11.9632
於此四天下中	-11.9632
娑婆佛剎	-11.9632
阿那波那	-11.9632
震越	-11.9632
剎多羅	-11.9632
八弟	-11.9632
寂默	-11.9632
床褥	-11.9632
得大勢力	-11.9632
法目陀羅尼	-11.9633
庶民	-11.9633
部黨	-11.9633
喃	-11.9633
眾生得如法忍	-11.9633
聞說大乘	-11.9633
釋梵四王	-11.9633
奉迎	-11.9633
心不見心	-11.9633
甚可怖畏	-11.9633
苾芻尼	-11.9633
昵	-11.9633
游	-11.9634
拂	-11.9634
剎帝利種灌頂大王成就如是第	-11.9634
挍	-11.9634
問訊釋迦牟尼佛	-11.9634
慎莫	-11.9634
分衛	-11.9634
汲汲	-11.9634
擁	-11.9634
罪苦之事	-11.9635
暴雨	-11.9635
作者受者	-11.9635
香味觸	-11.9635
歌詠	-11.9635
買	-11.9635
非有非無	-11.9635
晉	-11.9635
陽焰	-11.9635
踊出	-11.9635
欽敬	-11.9635
不如聞是三昧	-11.9635
祐	-11.9636
修心念處	-11.9636
輔佐	-11.9636
乾陀羅國	-11.9636
搏	-11.9636
而取滅度	-11.9636
大寶莊嚴最勝道場	-11.9636
為百分	-11.9636
空中有聲	-11.9636
菩薩復有十校計	-11.9636
成就無量無邊功德	-11.9636
莊校	-11.9636
其功德福	-11.9636
珍財	-11.9636
而調伏之	-11.9636
暉曜	-11.9636
瞑	-11.9636
擣	-11.9636
以大悲故	-11.9636
聞地藏菩薩名	-11.9637
常在定	-11.9637
憶宿命	-11.9637
大眾集會	-11.9637
令自國土增長安樂	-11.9637
婆婁那	-11.9637
隨惡友行	-11.9637
飢渴寒熱	-11.9637
以何為本	-11.9637
我念一時	-11.9637
金輪	-11.9637
但有名字	-11.9638
鎮星	-11.9638
妙高山	-11.9638
填	-11.9638
▁南無地藏王菩薩	-11.9638
無遺餘	-11.9638
守門者	-11.9638
皆以正智如實知	-11.9638
澆	-11.9638
應病與藥	-11.9638
捐棄	-11.9638
復於佛前以偈	-11.9638
忍度無極	-11.9638
皮骨	-11.9638
不可限	-11.9638
栘	-11.9638
析	-11.9638
增損	-11.9639
受地獄苦	-11.9639
汝應當知	-11.9639
於歸我法	-11.9639
發是言	-11.9639
賢聖正見	-11.9639
拘那含牟尼佛	-11.9639
蘇摩那	-11.9639
霧	-11.9639
恒河沙世界	-11.9639
應當容忍莫恨	-11.9639
叱	-11.9639
錫	-11.9639
為火所焚	-11.9639
發大勇猛	-11.9639
涸	-11.964
雨淚	-11.964
發大願	-11.964
黶	-11.964
校飾	-11.964
不分別非不分別	-11.964
逮此總持	-11.964
毘樓博叉	-11.964
天女千眷屬	-11.9641
於己眷屬及他眷屬	-11.9641
菩薩所行諸施	-11.9641
普眼尊	-11.9641
五受陰	-11.9641
稟性	-11.9641
非時寒熱	-11.9641
渧數	-11.9641
虎豹	-11.9641
是人終不	-11.9642
生於天上	-11.9642
乾枯	-11.9642
四攝事	-11.9642
金剛道場三昧	-11.9642
營助	-11.9642
而教化之	-11.9642
菩薩及聲聞眾	-11.9642
輦	-11.9642
往至彼	-11.9642
聽受妙法	-11.9642
令不斷絕	-11.9642
稅	-11.9642
尒時藥王軍菩薩摩訶薩	-11.9642
我以佛眼	-11.9642
善女人輩	-11.9642
毘盧遮那	-11.9642
勝義僧	-11.9642
隣國	-11.9643
梓	-11.9643
方術	-11.9643
醉象	-11.9643
不共聲聞	-11.9643
卑利癡比	-11.9643
而返取	-11.9643
是名不共凡夫如實陀羅尼	-11.9643
波頭摩勝	-11.9643
鞭打	-11.9643
歇	-11.9644
清信士	-11.9644
精懃	-11.9644
馳走	-11.9644
謹	-11.9644
墻壁	-11.9644
前後圍繞	-11.9644
縣邑	-11.9644
額	-11.9644
販賣	-11.9645
慢恣	-11.9645
愛別離苦	-11.9645
慠慢	-11.9645
茹	-11.9645
文飾	-11.9645
種種寶衣	-11.9645
掩	-11.9645
食飲	-11.9645
三天童女護持養育	-11.9645
不譏彼	-11.9645
沒溺	-11.9645
終不退轉	-11.9645
掣	-11.9646
其土有佛	-11.9646
挺	-11.9646
香湯	-11.9646
▁南無普賢	-11.9646
遍震	-11.9646
軍闍	-11.9646
無上法輪	-11.9646
煩惱垢	-11.9646
草木叢林	-11.9646
遠離憒閙	-11.9647
火坑	-11.9647
譏呵	-11.9647
八萬四千由旬	-11.9647
如毛髮	-11.9647
跢	-11.9647
如一念頃	-11.9647
慈悲喜護	-11.9647
而能得之	-11.9647
復有一魔	-11.9648
空無想願	-11.9648
無若干想	-11.9648
我等要當	-11.9648
蠱	-11.9648
何處所攝	-11.9648
二萬五千	-11.9649
遍吼	-11.9649
嫁	-11.9649
替	-11.9649
欺詐	-11.9649
若天若人	-11.9649
地獄罪報	-11.9649
繼	-11.9649
犍	-11.9649
頭骨	-11.965
帝釋像	-11.965
千子具足	-11.965
為斷眾生如是	-11.965
為斷眾生	-11.965
具受眾苦	-11.965
嘔	-11.965
殃舋	-11.965
興盛	-11.965
深種善根	-11.965
分身度脫	-11.965
折伏	-11.965
百八愛	-11.965
有何等相	-11.9651
皆稱譽	-11.9651
樹葉	-11.9651
經律	-11.9651
億載	-11.9651
悲華經	-11.9651
哥	-11.9651
隨汝意	-11.9652
靡所不達	-11.9652
須夜摩天王	-11.9652
俗業	-11.9652
犀	-11.9652
羅毘	-11.9652
怛囉	-11.9653
宿曜辰	-11.9653
旹	-11.9653
鞭	-11.9653
要誓	-11.9653
過去久遠	-11.9653
勃	-11.9653
稼穡	-11.9653
諸魔事業	-11.9653
復有九	-11.9654
經典之要	-11.9654
眾德之本	-11.9654
良田	-11.9654
裹	-11.9654
如是癡人	-11.9654
皆得圓滿	-11.9654
肥	-11.9654
從虛空中	-11.9654
起瞋恚心	-11.9654
牟那	-11.9654
種種器仗	-11.9654
以言宣	-11.9655
伺求	-11.9655
咄哉	-11.9655
習誦	-11.9655
殊絕	-11.9655
讐	-11.9655
𩘌地離	-11.9655
善修三昧	-11.9655
味精氣	-11.9655
輕弄	-11.9656
無復煩惱	-11.9656
遇佛授記	-11.9656
穌	-11.9656
晚	-11.9656
即是我心	-11.9657
而護於戒	-11.9657
輯	-11.9657
法界之性	-11.9657
丑	-11.9657
億百千劫	-11.9657
首楞嚴定	-11.9657
笈多	-11.9657
摩陀那	-11.9657
無舌	-11.9658
為重宣此義	-11.9658
七返	-11.9658
具足三法	-11.9658
特尊	-11.9658
離我我所	-11.9658
速滅	-11.9658
不孝父母	-11.9659
無出滅	-11.9659
非作非	-11.9659
衢	-11.9659
番	-11.9659
猴	-11.9659
普示	-11.9659
祁	-11.9659
書寫讀誦	-11.9659
毫相光	-11.9659
壽量	-11.966
無有罣礙	-11.966
歌讚	-11.966
萬民	-11.966
傲	-11.966
浴池	-11.966
暢達	-11.966
不了義經者	-11.9661
嗚呼	-11.9661
護養育	-11.9661
咨	-11.9661
說法教化	-11.9662
讚頌	-11.9662
世尊告憍陳如	-11.9662
名為信根	-11.9662
難怖	-11.9662
尺	-11.9662
感應道交	-11.9662
伽拏	-11.9662
身心快樂	-11.9662
溝	-11.9662
鳩槃	-11.9662
勤作方便	-11.9662
七日之中	-11.9663
阿修羅城邑宮殿	-11.9663
能與一切眾生	-11.9663
伽樓	-11.9663
庭	-11.9663
棲	-11.9663
難看	-11.9663
繳	-11.9664
淪	-11.9664
吃	-11.9664
遠離惡法	-11.9665
近善友	-11.9665
逾	-11.9665
波斯迦	-11.9665
明闇	-11.9665
闍邏	-11.9665
摩那婆	-11.9665
抑豈	-11.9666
大眾充滿	-11.9666
卑賤	-11.9666
修諸禪定	-11.9667
志樂	-11.9667
菴羅	-11.9667
至心念佛	-11.9667
遠離一切諸煩惱	-11.9668
無縛	-11.9668
諸女人等	-11.9668
勤學	-11.9668
聰明智慧	-11.9668
大目連	-11.9668
皆悉驚怖	-11.9668
奪他	-11.9669
企	-11.9669
汝常	-11.9669
寸	-11.9669
百千歲中	-11.9669
說此金剛	-11.9669
口相稱	-11.9669
瞻禮讚歎	-11.9669
具善巧方便	-11.9669
跋帝國	-11.9669
上昇	-11.967
受具戒	-11.967
此虛空孕菩薩摩訶薩	-11.967
叢	-11.967
文字句義	-11.967
頭痛	-11.967
益加	-11.9671
增一阿含	-11.9671
芒	-11.9672
醒	-11.9672
樂善法	-11.9672
譌	-11.9672
涌出	-11.9672
文分二	-11.9672
宛	-11.9672
我及眷屬	-11.9673
覺支	-11.9673
楊	-11.9673
摩醯	-11.9673
七七日內	-11.9673
彌勒尊	-11.9673
掠	-11.9673
誅	-11.9673
有大威力	-11.9674
逮得總持	-11.9674
燒脚	-11.9674
唎底	-11.9674
娑婆世界主	-11.9674
修諸苦行	-11.9674
籠	-11.9675
甕	-11.9675
腋	-11.9675
流支	-11.9675
過去已盡	-11.9675
斯之謂	-11.9675
二品文二初	-11.9675
調順	-11.9675
鐵丸	-11.9676
金沙	-11.9676
光影	-11.9676
乃至謝過	-11.9676
賴坻	-11.9676
像類	-11.9676
毒蟲	-11.9677
脊	-11.9677
憚	-11.9677
頗梨色	-11.9677
形容	-11.9677
遇罵辱	-11.9677
懇	-11.9678
壑	-11.9678
鵠	-11.9678
災禍	-11.9678
啄	-11.9678
戟	-11.9679
貪瞋癡等	-11.9679
一切智心寶	-11.9679
以是力故	-11.9679
坐一面	-11.9679
勇力	-11.968
運師	-11.968
併	-11.968
如日月	-11.968
塑畵形像	-11.968
邪慢	-11.968
復有五種	-11.968
歡喜踊躍無量	-11.968
百千年	-11.968
此閻浮洲	-11.968
入佛境界	-11.9681
演說正法為令	-11.9681
母生界	-11.9681
器盛	-11.9681
不妨	-11.9682
寡	-11.9682
令得安隱	-11.9682
若有說言	-11.9682
亦不覺知	-11.9683
泰山	-11.9683
不瞋惱	-11.9684
萬二千眾生發阿耨多羅三藐三菩提心	-11.9684
其心不退	-11.9685
凡夫之人	-11.9685
無有諛諂	-11.9685
增善法	-11.9686
永離惡趣	-11.9686
離垢光	-11.9686
水牛	-11.9686
深厭	-11.9687
。』『	-11.9687
悲號	-11.9687
致敬	-11.9687
甘雨	-11.9687
人樂觀	-11.9688
百千那庾多	-11.9688
不與取	-11.9688
五波羅蜜	-11.9688
無邊量	-11.9689
常願不處諸	-11.9689
鱗	-11.9689
一毛端	-11.9689
譯師	-11.969
臭處	-11.969
其義云何	-11.969
焦爛	-11.969
彌尼	-11.9691
持珍寶	-11.9692
從地獄出	-11.9692
𧰃	-11.9692
雜華	-11.9692
即自思惟	-11.9693
隨其所欲	-11.9693
尚獲	-11.9693
之所歸趣	-11.9693
煩惱繫縛	-11.9693
饑餓	-11.9694
求財	-11.9694
無相解脫門	-11.9695
無至處	-11.9695
厨	-11.9695
地藏分身	-11.9695
阿盧	-11.9696
無盡意菩薩摩訶薩	-11.9696
毘沙門王	-11.9696
無增	-11.9697
其事云何	-11.9697
善順思惟	-11.9697
荀	-11.9697
麁語	-11.9698
水洗	-11.9698
無有諍訟	-11.9699
渾	-11.9699
若菩薩能	-11.9699
至死	-11.97
不測	-11.97
所度無極	-11.9701
)]《	-11.9701
諸功德故	-11.9701
坎	-11.9701
攝受大乘	-11.9701
於禁戒	-11.9702
初二句	-11.9702
陰入界等	-11.9702
首流	-11.9702
八十三	-11.9703
我今復以	-11.9703
本迹	-11.9703
口演	-11.9704
表示	-11.9704
地藏菩薩摩訶薩白佛言	-11.9704
周禮	-11.9705
若魔眷屬	-11.9705
亦無處所	-11.9705
衡	-11.9705
慧清淨	-11.9705
口辭	-11.9706
之所依止	-11.9707
樓觀	-11.9707
精進而不可盡	-11.9707
若有聞者	-11.9708
口宣	-11.9708
大麥	-11.9709
所送	-11.9709
交報	-11.9709
生活	-11.9709
制字	-11.9709
得五神通	-11.971
銕蛇	-11.971
或復有說	-11.971
償	-11.9711
於法師所	-11.9711
利益人天	-11.9711
何類	-11.9711
縛著	-11.9712
熱病	-11.9713
果亦然	-11.9713
唯佛能知	-11.9714
隨俗	-11.9714
眾生之心	-11.9716
背捨	-11.9716
利眾生故	-11.9717
非非想	-11.9717
衣被	-11.9717
乃至四禪	-11.9717
進趣	-11.9718
具無礙智	-11.9718
反覆	-11.9718
入於禪定	-11.9719
現入	-11.9719
汝若能	-11.9719
時一切勇菩提薩埵	-11.972
應珠	-11.972
入於大海	-11.972
時諸天子	-11.972
弟子眾	-11.9721
頗能	-11.9721
迦葉佛時	-11.9721
畢竟清淨	-11.9722
鬬	-11.9722
諸佛法藏	-11.9722
悉能受持	-11.9723
為他宣說	-11.9724
能調伏一切眾生	-11.9724
銕牀	-11.9724
長命	-11.9725
銅柱	-11.9725
是中無有	-11.9725
非佛所說	-11.9725
十惡業道	-11.9725
靜處	-11.9726
聞是聲	-11.9726
莊嚴相好	-11.9726
攝諸眾生	-11.9727
降法雨	-11.9727
十方諸佛剎土	-11.9727
三十二業	-11.9728
皆得除滅	-11.9729
葷	-11.9729
口所言	-11.9731
修集忍辱	-11.9731
鬼趣	-11.9731
大般涅槃	-11.9732
無上菩提道故	-11.9733
於身命	-11.9733
囉毘	-11.9733
方便波羅蜜	-11.9734
之黨	-11.9734
修集禪定	-11.9735
今家	-11.9736
長子	-11.9738
從定起已	-11.9738
辯才無礙	-11.9738
鼈	-11.9739
形質	-11.9739
能解眾生	-11.974
正宗	-11.974
信三寶	-11.974
彼土眾生	-11.9742
八力	-11.9742
其家	-11.9743
善解眾生	-11.9744
諸凡夫	-11.9744
令無餘	-11.9744
演說諸法	-11.9745
此據	-11.9745
有二種相	-11.9745
權實	-11.9746
四種奮迅	-11.9746
圓教	-11.9747
更不復	-11.9748
諸魔眷屬	-11.9749
倍常	-11.9749
香味	-11.9749
順念	-11.9749
帝羅	-11.975
牟邏	-11.975
色聲香味觸法	-11.9751
學習	-11.9751
十方佛前	-11.9751
父母眷屬	-11.9753
梵福	-11.9754
遣使	-11.9754
受決	-11.9755
氣息	-11.9756
無變異	-11.9756
無願三昧	-11.9757
謂一切法無	-11.9758
犯禁戒	-11.9759
憎惡	-11.976
說其功德	-11.976
入塔	-11.976
大池	-11.9761
不可說者即是	-11.9761
勇進	-11.9762
為未來眾生	-11.9762
誦念	-11.9762
能測	-11.9762
盡壽	-11.9764
求聲聞乘	-11.9764
一切諸苦	-11.9764
般遮羅國	-11.9765
而成正覺	-11.9766
過諸菩薩	-11.9766
是名正念	-11.9766
王舍城中	-11.9767
涅槃寂靜	-11.9768
愍眾生故	-11.9768
梵本	-11.9769
令不退轉	-11.977
三昧之定	-11.977
迴旋	-11.977
微善	-11.9771
斷一切不善法	-11.9774
修多羅中	-11.9774
纏身	-11.9775
希有之心	-11.9775
口過	-11.9776
懷害	-11.9777
民人	-11.9778
無諂曲	-11.9781
不斷絕故	-11.9781
古今	-11.9782
遍入	-11.9784
之頃	-11.9785
尚能	-11.9785
三有海	-11.9786
修大悲	-11.9786
以四攝法	-11.9786
無數億劫	-11.9787
誰之所	-11.9788
阿提	-11.9788
比婆	-11.9788
財利故	-11.979
設食	-11.9791
深法界	-11.9792
捨諸煩惱	-11.9792
不知足	-11.9792
補處	-11.9793
能施眾生	-11.9793
行善者	-11.9794
誦是三昧	-11.9795
字句義	-11.9796
不得有	-11.9797
不能受持	-11.9798
所散	-11.9798
實不	-11.9798
捨棄	-11.9799
諸惡魔	-11.9799
為護正法	-11.9799
是故彼佛	-11.9799
聞是三昧已	-11.9799
未曾有法	-11.98
是名第一	-11.98
則見如來	-11.9801
但求	-11.9802
洲渚	-11.9803
又彼菩薩	-11.9803
菩薩摩訶薩具足成就	-11.9803
若有一人	-11.9804
自省	-11.9804
賢者舍利弗	-11.9805
其二子	-11.9805
有千眷屬	-11.9806
以為莊嚴	-11.9806
行乞食	-11.9807
燒盡	-11.9807
欲何所	-11.9808
隨類	-11.9808
得聽聞	-11.9809
當先	-11.9809
而無所住	-11.981
萬二千天子	-11.9811
吉意	-11.9812
無有我所	-11.9813
無有信心	-11.9814
遵行	-11.9816
望得	-11.9818
欲學者	-11.9818
菩提之法	-11.9819
違逆	-11.9819
五家	-11.982
清淨佛土	-11.9821
戒蘊	-11.9822
侍佛	-11.9823
詣王舍城	-11.9823
云何令我	-11.9824
愛護	-11.9826
不善之法	-11.9827
無境界	-11.9827
於善法中	-11.9828
有五種	-11.9829
是名第四	-11.9831
於眾生中	-11.9832
諸疑網	-11.9833
得大神通	-11.9833
論義	-11.9834
總名	-11.9834
無明愛	-11.9835
自照	-11.9835
如恒河沙等	-11.9841
不損減	-11.9841
聲聞僧	-11.9842
四天王身	-11.9842
求菩薩道	-11.9845
雖少	-11.9846
受持讀誦書寫解說	-11.985
論議	-11.9851
發願言	-11.9852
十二樹	-11.9853
一切皆知	-11.9854
一切種子	-11.9854
不得法忍	-11.9855
於善知識	-11.9856
興供養	-11.9856
正立	-11.9856
獲得解脫	-11.9856
聖人所	-11.9857
如是苾芻	-11.9857
勿復	-11.9857
語阿難	-11.9859
此典	-11.986
未熟	-11.9862
聞是偈	-11.9864
無遮	-11.9865
菩薩心有所念	-11.9865
空藏	-11.9866
終至	-11.9867
慈忍	-11.9867
於無量阿僧祇劫	-11.9867
無量阿僧祇世界	-11.9868
菩薩於中	-11.9869
離女身	-11.987
能摧伏	-11.987
香美味	-11.9871
而彼眾生	-11.9871
而無所畏	-11.9871
不唐捐	-11.9872
罪咎	-11.9873
妙果	-11.9875
得空三昧	-11.9875
隨風	-11.9876
諸相好	-11.9877
如來所知	-11.9877
令彼佛土	-11.9879
乃至能得	-11.9879
乃至一切迦吒富單那	-11.9883
妄生	-11.9884
足指	-11.9887
外空	-11.9887
同集	-11.9889
慕樂	-11.9889
各見	-11.9891
休息一切	-11.9891
法界無分別	-11.9893
無繫	-11.9894
我等眷屬	-11.9895
與上	-11.9896
諸禪支	-11.9899
堅固莊嚴	-11.99
稽首禮	-11.9902
無有慈悲	-11.9902
利彌	-11.9902
言論	-11.9902
真善沙門	-11.9904
墮三塗	-11.9904
其味	-11.9905
是事已	-11.9906
一切眾生類	-11.9906
初敘	-11.9906
轉輪王像	-11.991
普明	-11.991
得解脫已	-11.991
具足多聞	-11.9911
國土一切天	-11.9912
教汝	-11.9913
無量法門	-11.9913
世間種種	-11.9915
斷命	-11.9917
周圍	-11.9917
妙理	-11.9922
勤護持	-11.9922
樂喜	-11.9923
熟眾生	-11.9924
至心專念	-11.9925
仇摩	-11.9927
為苦所	-11.9927
幻人	-11.9929
目天女	-11.9929
聚沫	-11.993
先明	-11.9932
無所斷	-11.9934
國王等	-11.9936
諸天等	-11.9936
今現	-11.9938
異道	-11.9938
一切法際	-11.9939
無瑕疵	-11.994
住堅固	-11.994
歸仰	-11.9941
何等為百八	-11.9941
我今應	-11.9943
夢也	-11.9943
畏懼	-11.9943
即是涅槃	-11.9944
頗見	-11.9944
為利益一切眾生	-11.9944
一義	-11.9947
重惡	-11.9949
有十八	-11.9949
希有事	-11.9952
陰智	-11.9952
我滅度後	-11.9953
當成正覺	-11.9953
懷樂菩薩	-11.9955
眾會中	-11.9958
當與我	-11.9958
無真實	-11.996
智童真	-11.996
諸天仙	-11.996
造耶	-11.9962
常相應	-11.9963
為法王	-11.9964
未訖	-11.9964
七萬二千	-11.9965
勸汝	-11.9967
有轉輪王	-11.9968
施物	-11.9968
初標	-11.9971
轉報	-11.9972
不安隱	-11.9973
為跡	-11.9975
不被	-11.9976
無缺減	-11.9976
大眾會	-11.9978
滅結	-11.998
真實道	-11.9981
聞者皆	-11.9983
福慶	-11.9984
羅伽	-11.9984
散佛上	-11.9984
無垢清淨	-11.9984
百億魔	-11.9985
如帝釋	-11.9987
禪定樂	-11.9988
出家菩薩	-11.9988
是故諸菩薩	-11.9989
憐愍眾生故	-11.9989
門句	-11.999
於彼前	-11.999
無量善法	-11.9991
菩薩聲聞	-11.9992
種種形色	-11.9992
男身	-11.9993
於實際	-11.9993
十使	-11.9994
自在天	-11.9996
得迴向真如	-11.9996
諸善本	-11.9998
彼惡人	-12
亦無漏	-12.0004
從無始	-12.0007
明燈	-12.0007
於諸世間	-12.0008
若於諸法	-12.0012
行菩提道	-12.0012
心之所	-12.0013
神足力	-12.0015
有定名法	-12.0017
正斷	-12.0018
無所護	-12.0018
良以	-12.0022
識如幻	-12.0022
生惡趣	-12.0022
心不懷	-12.0023
世世所生	-12.0023
諸惡龍	-12.0024
懈怠眾生	-12.0025
汝所問	-12.0029
供養承事	-12.003
意空	-12.003
稱為	-12.0031
更復	-12.0033
惡業因緣	-12.0033
亦復不見	-12.0035
令脫	-12.0037
賢聖行	-12.0039
一切智海	-12.004
所有地獄	-12.0041
阿修羅眾	-12.0043
十惡輪	-12.0043
所不能知	-12.0043
億姟	-12.0044
無上菩提心	-12.0044
大檀越	-12.0046
修菩提道	-12.0051
波利質多	-12.0054
無事不	-12.0056
說此寶星陀羅尼	-12.0058
菩薩成就如是	-12.0058
一切世間天人	-12.0059
所犯罪	-12.0059
內淨	-12.006
愛結	-12.0061
有男子女人	-12.0062
現微笑	-12.0063
骨肉	-12.0064
照世間	-12.0066
斷善根	-12.0066
眾生聞已	-12.0066
如雲	-12.0067
閻浮樹	-12.0072
發慧	-12.0072
壞命	-12.0074
心不退轉	-12.0076
奉修	-12.008
得成佛道	-12.0081
法式	-12.0082
能施一切	-12.0082
佛告自在王	-12.0087
覩於	-12.0091
已訖	-12.0091
依倚	-12.0092
華雨	-12.0095
嫉妬心	-12.0095
如是等處	-12.0096
受果報	-12.0096
集智	-12.0096
隨道	-12.01
香象王菩薩	-12.0104
如此三昧	-12.0104
得灌頂	-12.0105
不見菩提	-12.0105
最勝無上	-12.0106
破戒惡行	-12.0109
更無餘	-12.011
其命根	-12.0111
對佛	-12.0113
安處	-12.0118
難於彼	-12.0121
於大哀	-12.0124
心清淨故	-12.0126
有王名	-12.0127
生淨土	-12.0127
善緣	-12.013
間斷	-12.0132
華聚	-12.0133
外有	-12.0134
常聞	-12.0135
法苑	-12.0136
如來出世有	-12.0137
普密王	-12.0138
諸漏盡	-12.0141
魔網	-12.0141
我當為汝	-12.0141
即發阿耨多羅三藐三菩提心	-12.0141
法滅時	-12.0143
▁間	-12.0145
妙珍寶	-12.0154
悉使	-12.0155
於自境界	-12.0156
受教勅	-12.0156
開度	-12.0158
今初	-12.0159
聞此語	-12.0159
以此閻浮提	-12.0159
欲著	-12.016
不復現	-12.016
寶階	-12.0165
又不能	-12.0167
不欲聞	-12.0168
斷煩惱習	-12.0168
陀兜	-12.017
十方諸世界	-12.0171
速能得	-12.0171
況復能	-12.0173
三合	-12.0175
我神力	-12.0177
如是名字	-12.0179
離瞋	-12.0179
於世法	-12.0182
有三事	-12.0182
妄見	-12.0184
緊那羅等	-12.0188
有幾所	-12.0188
以四攝	-12.0192
本願故	-12.0195
識宿命	-12.0197
伽摩	-12.0198
當設	-12.0198
婆沙	-12.0201
少善	-12.0202
其順法者不以	-12.0203
懷惡心	-12.0205
有所須	-12.0206
可觀	-12.0212
八識	-12.0214
置彼	-12.0214
眷屬圍繞	-12.0217
邪正	-12.0219
其體	-12.0222
廣施	-12.0223
菩薩所成就	-12.0224
復以天	-12.0225
大威勢	-12.0225
得圓滿	-12.0228
若具如是	-12.0228
如實智	-12.0233
為非法	-12.0237
其首	-12.0238
為出生	-12.0238
即還	-12.0239
恒沙佛	-12.0243
設欲	-12.0243
還下	-12.0244
調定	-12.0244
毘梨	-12.0245
三尊	-12.0245
虛空平等	-12.0247
若有求	-12.0254
本清淨故	-12.0254
不善行	-12.0256
瞻禮地藏	-12.0257
馳騁	-12.0265
若如是知	-12.0265
通名	-12.0271
令人得	-12.0271
當得佛	-12.0272
筋骨	-12.0273
無疲厭	-12.0273
諸佛所行	-12.0275
維衛	-12.0278
尚有	-12.0278
真說	-12.0282
便自	-12.0283
百千歲	-12.0285
解說之	-12.0285
所受生	-12.0286
不生慢	-12.029
默然受	-12.0292
其所行	-12.0294
云何能得	-12.0295
賢善	-12.0301
於此四天下	-12.0305
人壽	-12.0306
幢如來	-12.0308
迦那	-12.0308
之樹	-12.0316
不退轉菩薩	-12.0316
樂欲見	-12.0318
行是三昧	-12.0323
無我所	-12.0323
莊嚴瓔珞	-12.0325
精進力故	-12.0326
慧波羅蜜	-12.0326
無所願	-12.0326
無味	-12.033
增廣	-12.0332
共俱	-12.0333
以一音	-12.0336
諸宮殿	-12.034
懷恨	-12.0342
力用	-12.0342
世間眼	-12.0343
能滅眾生	-12.0343
不亡	-12.0347
重增	-12.035
知諸法界	-12.0352
終不起	-12.0353
聞是經典	-12.0356
無有增減	-12.0356
作大光明	-12.0359
無量壽佛	-12.0361
不存	-12.0362
何故如來	-12.0362
不見佛	-12.0363
常安住	-12.0364
大悲方便	-12.0364
智慧辯才	-12.0365
是故菩薩摩訶薩	-12.0367
具足無上	-12.0369
於一切法中	-12.0371
人尊	-12.0374
忍清淨平等	-12.0375
床臥	-12.0376
好惡	-12.0376
心之所行	-12.038
諸佛興	-12.038
現起	-12.0381
淨三場	-12.0382
如大山	-12.0382
不礙	-12.0384
六萬眾生	-12.0386
什	-12.0389
不違失	-12.0391
求願	-12.0391
輕他	-12.04
邏闍	-12.0403
非理	-12.0403
九十三	-12.0403
地藏經	-12.0407
講經	-12.0409
奉戒	-12.041
百三十六	-12.041
攝伏	-12.0414
獲利益	-12.0414
百千世界	-12.0415
寶花	-12.0419
八萬劫	-12.0422
當牽	-12.0423
於天人	-12.0423
六受	-12.0424
皆如幻	-12.0424
誓願力	-12.0425
心知有	-12.0427
修苦行	-12.0427
甚深正法	-12.0432
無能毀	-12.0433
無復疑	-12.0434
無上最勝	-12.0438
不壞信	-12.0438
先聖	-12.0439
遮吒	-12.0444
親近諸佛	-12.0445
信業報	-12.0449
有大神通	-12.0449
愚癡眾生	-12.0449
求出家	-12.0451
於阿鼻地獄	-12.0459
無體	-12.0461
準此	-12.0466
無我想	-12.0468
業相	-12.0472
行慈心	-12.0472
能通	-12.0475
迦吒	-12.0477
所發願	-12.0477
汝寧	-12.0479
上方有	-12.048
清妙	-12.0482
見無量佛	-12.0484
難窮	-12.0492
[...]
