<unk>	0
<s>	0
</s>	0
之	-3.77396
也	-3.90235
而	-4.29693
/	-4.34627
以	-4.60343
者	-4.62672
)	-4.63578
(	-4.64622
則	-4.89697
爲	-5.05734
其	-5.12966
不	-5.16119
有	-5.20693
於	-5.20834
故	-5.30421
人	-5.4596
無	-5.58718
一	-5.62628
曰	-5.62719
)(	-5.67666
言	-5.84965
大	-5.92226
矣	-5.98194
與	-5.99939
為	-6.0509
非	-6.06019
乎	-6.07299
是	-6.07545
行	-6.07728
中	-6.07999
此	-6.09071
自	-6.1315
生	-6.13313
上	-6.15751
皆	-6.18076
得	-6.2078
至	-6.21463
必	-6.23018
如	-6.23174
道	-6.23842
見	-6.25394
天	-6.26026
所	-6.29057
子	-6.32276
若	-6.32681
在	-6.33287
下	-6.3417
使	-6.38739
事	-6.39262
知	-6.40575
亦	-6.43806
用	-6.44416
心	-6.4529
可	-6.45601
乃	-6.45782
或	-6.46163
出	-6.46261
三	-6.47462
能	-6.4776
將	-6.49421
作	-6.50024
水	-6.50046
時	-6.50274
謂	-6.50807
陽	-6.51865
夫	-6.53234
日	-6.53428
君	-6.54032
然	-6.54366
當	-6.54824
▁	-6.57941
雖	-6.59116
成	-6.60845
明	-6.61492
欲	-6.61572
又	-6.62086
主	-6.63638
地	-6.6436
二	-6.66751
○	-6.66874
相	-6.6743
猶	-6.68367
我	-6.69499
正	-6.69799
不能	-6.71195
已	-6.71501
焉	-6.72706
數	-6.72947
故曰	-6.7401
名	-6.74973
及	-6.76657
氣	-6.76759
不可	-6.7757
多	-6.77601
令	-6.77619
因	-6.7919
四	-6.79258
今	-6.79399
同	-6.79443
王	-6.8216
物	-6.83506
兵	-6.83543
神	-6.8405
國	-6.85005
五	-6.85145
入	-6.85243
法	-6.85974
死	-6.86545
民	-6.86899
所以	-6.86972
臣	-6.8706
公	-6.87356
而不	-6.88743
從	-6.89225
善	-6.89227
合	-6.89724
分	-6.90011
處	-6.90767
方	-6.91499
陰	-6.92326
先	-6.93141
利	-6.93819
易	-6.94191
于	-6.95255
去	-6.96366
治	-6.96939
内	-6.99156
吾	-6.99184
後	-6.99741
身	-6.9984
復	-7.03243
即	-7.03253
長	-7.03502
立	-7.04202
小	-7.05569
取	-7.05835
衆	-7.06321
居	-7.06941
盡	-7.07614
常	-7.07999
天下	-7.08159
耳	-7.08478
九	-7.08623
六	-7.08647
測曰	-7.08823
未	-7.09878
守	-7.09924
重	-7.0993
舉	-7.10122
食	-7.10287
以爲	-7.11269
德	-7.11819
外	-7.11878
文	-7.14501
敵	-7.14634
失	-7.14674
馬	-7.14924
說	-7.15361
義	-7.16087
金	-7.16314
火	-7.16592
惡	-7.16667
本	-7.16778
形	-7.16965
月	-7.18471
高	-7.18481
者也	-7.18701
來	-7.20937
過	-7.21222
難	-7.22799
戰	-7.22842
亂	-7.23549
實	-7.2456
木	-7.24864
變	-7.24922
理	-7.25082
齊	-7.25289
命	-7.25462
信	-7.25769
聞	-7.26274
哉	-7.26751
始	-7.27119
勝	-7.27459
動	-7.28247
家	-7.2832
既	-7.28373
世	-7.28823
不得	-7.29055
服	-7.29332
彼	-7.30635
士	-7.31351
反	-7.32084
軍	-7.32381
可以	-7.33018
官	-7.33657
山	-7.33702
離	-7.34036
力	-7.34766
安	-7.34824
求	-7.35119
遂	-7.35286
起	-7.35437
通	-7.35959
且	-7.36423
經	-7.37866
書	-7.3791
貴	-7.38329
周	-7.38384
進	-7.38454
殺	-7.38461
石	-7.38541
遠	-7.39395
發	-7.39948
樂	-7.40041
止	-7.40186
和	-7.40419
意	-7.41851
何	-7.4199
白	-7.42092
是以	-7.44098
前	-7.44309
極	-7.44346
不知	-7.44999
受	-7.45151
少	-7.45758
體	-7.46636
蓋	-7.47707
終	-7.48295
風	-7.48358
凡	-7.49013
好	-7.49058
土	-7.49231
功	-7.49614
智	-7.50112
師	-7.50119
十	-7.50131
應	-7.50289
亡	-7.50314
八	-7.50329
足	-7.50622
異	-7.50695
天地	-7.51027
陳	-7.51167
北	-7.51306
南	-7.51632
玄	-7.51818
强	-7.52464
度	-7.53316
疾	-7.53408
便	-7.53824
視	-7.54247
精	-7.54526
七	-7.54782
歸	-7.54987
兩	-7.55573
直	-7.55888
虚	-7.56062
萬物	-7.56221
諸	-7.56421
親	-7.56737
所謂	-7.56767
門	-7.57332
化	-7.57493
星	-7.57886
也故	-7.58037
車	-7.58064
平	-7.5934
絶	-7.5936
東	-7.59822
近	-7.60138
聲	-7.60451
害	-7.61423
目	-7.61476
象	-7.61732
固	-7.62462
位	-7.62738
音	-7.62756
積	-7.63007
仁	-7.63176
是也	-7.63432
情	-7.63921
輕	-7.64177
節	-7.64178
百	-7.64376
之所	-7.64438
問	-7.64898
勢	-7.65243
賞	-7.65819
間	-7.66232
君子	-7.66385
觀	-7.66858
攻	-7.67083
乘	-7.67134
卒	-7.67261
危	-7.67379
任	-7.67413
謀	-7.67497
制	-7.6759
解	-7.67934
西	-7.68336
益	-7.68471
或作	-7.68532
禍	-7.68683
城	-7.68724
敗	-7.7006
女	-7.70152
巳	-7.70298
交	-7.70355
性	-7.70769
賢	-7.71034
但	-7.7149
志	-7.71725
口	-7.72058
教	-7.7241
流	-7.72527
思	-7.72673
謂之	-7.72734
人之	-7.73777
聖人	-7.73908
論	-7.74013
禮	-7.74179
云	-7.74581
年	-7.74617
尚	-7.74748
秦	-7.74938
計	-7.74999
指	-7.75406
莫	-7.75903
微	-7.75978
窮	-7.76373
備	-7.76658
獨	-7.76825
定	-7.76826
深	-7.77174
宜	-7.77588
也夫	-7.7763
初	-7.78151
請	-7.78677
稱	-7.79008
厚	-7.79226
黄	-7.79273
私	-7.79438
萬	-7.79511
各	-7.80125
傳	-7.81409
愛	-7.81834
學	-7.82223
龍	-7.82388
乾	-7.82575
是故	-7.83081
甚	-7.83154
邪	-7.83651
養	-7.84276
玉	-7.8452
讀	-7.84795
隨	-7.84835
疑	-7.84989
其所	-7.8519
致	-7.85221
惟	-7.85615
弗	-7.85893
施	-7.85996
切	-7.86121
退	-7.86269
武	-7.8663
藏	-7.86653
陰陽	-7.86708
之道	-7.86978
楚	-7.87124
宫	-7.87456
聽	-7.87649
散	-7.87745
由	-7.87782
夏	-7.87866
夜	-7.88305
清	-7.88443
如此	-7.89187
伐	-7.89265
首	-7.89469
刑	-7.90555
果	-7.90559
執	-7.90729
不可以	-7.90891
爾	-7.91158
更	-7.91326
罪	-7.91353
適	-7.91375
美	-7.9141
望	-7.91518
會	-7.9157
日月	-7.91588
盛	-7.91762
辭	-7.91792
色	-7.91854
光	-7.92218
順	-7.92567
修	-7.92745
元	-7.93053
斷	-7.93308
字	-7.93572
隂	-7.93616
往	-7.94324
豈	-7.94362
然則	-7.94629
病	-7.94744
急	-7.94843
滅	-7.95277
符	-7.96753
飛	-7.96953
吏	-7.97176
擊	-7.97503
華	-7.97643
於是	-7.9782
棄	-7.98149
要	-7.9848
舍	-7.98552
張	-7.98572
賊	-7.98786
之中	-7.98839
福	-7.99282
類	-7.99323
屬	-7.99502
引	-7.99583
政	-7.99754
無所	-7.99983
堅	-8.00099
歲	-8.00225
一日	-8.004
聖	-8.00569
不足	-8.01263
誠	-8.0142
坤	-8.01929
容	-8.01956
愚	-8.02868
右	-8.03033
衣	-8.03581
曲	-8.03617
次	-8.03712
趙	-8.03756
脩	-8.03786
持	-8.04061
而無	-8.04297
還	-8.04667
隱	-8.04747
越	-8.04785
存	-8.04978
威	-8.05042
帝	-8.05393
然後	-8.05491
鬼	-8.06054
降	-8.06131
俱	-8.06149
全	-8.0617
共	-8.06539
權	-8.06572
魚	-8.06665
廢	-8.06716
左	-8.06805
傳曰	-8.06904
兼	-8.07192
而後	-8.07668
廣	-8.07673
己	-8.07717
田	-8.07788
州	-8.08102
尊	-8.08284
告	-8.08326
暴	-8.08556
怒	-8.08696
結	-8.08971
加	-8.08986
老	-8.09109
朝	-8.09128
須	-8.09491
聚	-8.09796
怨	-8.09846
敬	-8.10023
素	-8.1019
著	-8.10276
薄	-8.10499
語	-8.10973
父	-8.11466
牛	-8.11526
置	-8.12315
曹操曰	-8.12478
古	-8.1251
就	-8.12657
久	-8.12796
救	-8.12819
禁	-8.12907
息	-8.13065
遇	-8.13165
財	-8.13263
角	-8.13474
傷	-8.13488
務	-8.1367
業	-8.13899
左右	-8.14315
苦	-8.14485
開	-8.14728
走	-8.1474
卦	-8.14761
誅	-8.15122
辯	-8.15167
靈	-8.15244
坐	-8.15447
而已	-8.15532
晋	-8.15777
抱朴子曰	-8.15998
載	-8.16198
喜	-8.16444
别	-8.16957
酒	-8.17117
轉	-8.17179
懷	-8.17261
恐	-8.17932
除	-8.17938
吴	-8.18032
十二	-8.18041
待	-8.18094
之事	-8.18223
對	-8.18663
春	-8.19062
伏	-8.19245
勞	-8.1931
逆	-8.19425
景	-8.19807
設	-8.19898
比	-8.20216
憂	-8.20436
魏	-8.20519
四時	-8.20946
富	-8.21078
鳥	-8.21195
興	-8.21654
俗	-8.21969
御	-8.21986
具	-8.22296
不敢	-8.22783
建	-8.22979
推	-8.23413
忠	-8.23575
登	-8.23678
小人	-8.23695
不爲	-8.23764
有所	-8.23861
察	-8.24121
昔	-8.24124
爲之	-8.24278
辰	-8.24325
人也	-8.24366
損	-8.24567
雲	-8.24706
李	-8.24756
又曰	-8.24786
宋	-8.25446
半	-8.25483
勿	-8.25524
飾	-8.25873
器	-8.26031
藥	-8.26473
冬	-8.26831
破	-8.26858
〇	-8.26911
背	-8.2715
鼓	-8.27381
徒	-8.27883
室	-8.27959
勇	-8.28035
縣	-8.28428
姦	-8.28593
餘	-8.28672
寒	-8.28673
端	-8.28694
毋	-8.29043
澤	-8.29077
唯	-8.29116
天下之	-8.29686
也今	-8.30134
雨	-8.30351
虎	-8.30389
真	-8.30445
之間	-8.30674
諸侯	-8.30877
險	-8.30952
甲	-8.31098
識	-8.31237
毁	-8.31243
遺	-8.31266
達	-8.31422
百姓	-8.31485
他	-8.3164
弱	-8.31792
忽	-8.31827
術	-8.3191
報	-8.3192
等	-8.32282
賤	-8.32421
質	-8.32489
射	-8.32519
□	-8.32569
幽	-8.32788
懼	-8.32789
罰	-8.32931
愈	-8.33073
慮	-8.33222
臨	-8.33312
患	-8.33437
壽	-8.33628
母	-8.33708
營	-8.3402
頭	-8.34028
召	-8.34475
生於	-8.34476
至於	-8.34563
使人	-8.34811
秋	-8.34995
路	-8.35353
氏	-8.35416
巧	-8.35416
張預曰	-8.35556
寡	-8.35727
願	-8.3611
被	-8.36149
犯	-8.36376
原	-8.36394
向	-8.36769
收	-8.36776
之地	-8.36799
章	-8.36927
漢	-8.37071
密	-8.37398
鬼神	-8.37614
表	-8.37667
手	-8.37671
濟	-8.37689
斯	-8.37798
戒	-8.37998
不以	-8.38012
禹	-8.38025
折	-8.38139
滿	-8.38315
才	-8.38451
似	-8.38474
塞	-8.38629
專	-8.38857
到	-8.39021
惑	-8.39042
譽	-8.39052
太	-8.39231
短	-8.40166
律	-8.40374
草	-8.40385
雜	-8.40412
放	-8.40609
眞	-8.40648
運	-8.40653
争	-8.40759
約	-8.40808
圖	-8.40873
嘗	-8.41123
青	-8.41314
申	-8.41357
之時	-8.41585
量	-8.41773
不及	-8.4179
衰	-8.41888
覆	-8.42129
之法	-8.42259
寳	-8.42374
累	-8.42516
爭	-8.42595
釋	-8.42596
保	-8.42638
奉	-8.42638
習	-8.42825
韓	-8.42858
屈	-8.42868
畢	-8.4291
客	-8.42946
者必	-8.43372
之數	-8.43494
升	-8.43594
念	-8.43712
自然	-8.43851
决	-8.43881
赤	-8.43948
布	-8.44002
都	-8.44249
空	-8.44605
列	-8.44685
斗	-8.44761
魯	-8.44927
博	-8.45289
不如	-8.45361
機	-8.45363
操	-8.45374
貌	-8.45601
負	-8.46183
感	-8.4624
忘	-8.46601
參	-8.46626
伯	-8.46991
圍	-8.47106
里	-8.47183
速	-8.47323
仙	-8.47429
辟	-8.47709
議	-8.47714
期	-8.47772
關	-8.47852
末	-8.47947
連	-8.48121
知其	-8.48331
淫	-8.4836
鄉	-8.48972
堯	-8.49112
梅堯臣曰	-8.49313
違	-8.49324
良	-8.49492
孔子	-8.49638
燕	-8.49774
足以	-8.49872
黑	-8.5025
嚴	-8.50388
也光謂	-8.50423
並	-8.50453
天子	-8.50755
集	-8.51096
天之	-8.51496
傾	-8.51527
一人	-8.51574
河	-8.51636
苟	-8.51953
代	-8.52009
穴	-8.52062
丹	-8.52104
之人	-8.52286
舟	-8.52383
貪	-8.5253
面	-8.52578
細	-8.52801
盈	-8.52831
商	-8.53151
審	-8.53492
之士	-8.5354
移	-8.53755
困	-8.53818
得其	-8.53835
索	-8.53863
游	-8.53898
杜牧曰	-8.53944
責	-8.5401
〇張預曰	-8.54306
海	-8.54392
奪	-8.54407
汝	-8.54581
李筌曰	-8.54584
不見	-8.54599
偶	-8.54615
歷	-8.54934
閉	-8.55041
禄	-8.55083
宗	-8.55092
畏	-8.55241
揚	-8.5545
上下	-8.55661
羽	-8.5602
榮	-8.56191
喪	-8.56191
莫不	-8.56289
委	-8.56725
户	-8.56841
剛	-8.56912
蒙	-8.57105
夷	-8.57293
文王	-8.57476
梁	-8.57656
鄭	-8.57676
衛	-8.57697
却	-8.57699
謹	-8.57724
舜	-8.57736
妄	-8.57833
者皆	-8.57956
虛	-8.58142
不用	-8.58424
消	-8.58805
資	-8.58844
篇	-8.58904
卑	-8.59031
五行	-8.59045
故能	-8.59093
悉	-8.59261
之所以	-8.59285
蔽	-8.59415
湯	-8.5966
況	-8.59835
也〇梅堯臣曰	-8.59864
林	-8.59872
調	-8.59886
震	-8.60223
漸	-8.60514
雖有	-8.60529
造	-8.60915
避	-8.61015
循	-8.61186
浮	-8.61277
予	-8.61381
逐	-8.61529
敵人	-8.61815
以此	-8.61953
妻	-8.61989
封	-8.6204
千	-8.62328
者非	-8.62729
静	-8.63271
獲	-8.63584
淵	-8.63741
貧	-8.63941
率	-8.6414
殊	-8.64231
桓公	-8.64334
以為	-8.64453
許	-8.64572
凶	-8.64582
步	-8.64637
太極	-8.64644
彊	-8.6489
羊	-8.65078
侯	-8.65167
遊	-8.65266
飲	-8.65527
紀	-8.65691
垂	-8.6578
記	-8.65806
履	-8.65853
宿	-8.65854
寧	-8.66214
甘	-8.66348
不足以	-8.66429
味	-8.66639
驚	-8.66707
靜	-8.6685
惠	-8.66889
每	-8.66991
新	-8.67006
役	-8.67193
大夫	-8.67303
徃	-8.67381
竭	-8.67794
趨	-8.6783
冠	-8.67964
必有	-8.67982
策	-8.68107
如是	-8.68318
喻	-8.68437
假	-8.68543
而不能	-8.68652
井	-8.68655
恩	-8.68762
仁義	-8.68772
簡	-8.68782
而行	-8.68937
縱	-8.69012
丘	-8.69155
并	-8.69313
拔	-8.69345
柔	-8.69461
根	-8.69619
魄	-8.69631
附	-8.70007
市	-8.70031
照	-8.70119
蛇	-8.70797
然而	-8.70837
龜	-8.70886
不同	-8.71664
陽氣	-8.71762
余	-8.72035
辱	-8.7215
顯	-8.72244
哀	-8.72471
言之	-8.72697
有餘	-8.72789
據	-8.72839
助	-8.72903
千里	-8.72941
候	-8.73047
坎	-8.73076
改	-8.73233
授	-8.73307
朱	-8.73375
谷	-8.73422
呼	-8.73535
荆	-8.73769
效	-8.73828
先生	-8.73932
貞	-8.73995
幾	-8.74022
變化	-8.74129
府	-8.74329
樹	-8.74337
廉	-8.74371
克	-8.74474
留	-8.74728
知之	-8.75004
王皙曰	-8.75014
弊	-8.75208
畫	-8.75256
婦	-8.7558
神仙	-8.75719
奚	-8.75878
也若	-8.75886
熱	-8.76062
投	-8.76106
曰吾	-8.7615
野	-8.76312
此言	-8.76365
隂陽	-8.76742
覺	-8.76898
干	-8.77451
〇王皙曰	-8.77651
〇梅堯臣曰	-8.77769
無形	-8.77887
之言	-8.77967
塗	-8.78007
統	-8.78021
與之	-8.78153
血	-8.78216
免	-8.78289
蟲	-8.78423
潜	-8.78714
純	-8.78829
一曰	-8.79093
而不可	-8.79145
僞	-8.79435
晝	-8.79522
肆	-8.79622
士卒	-8.79948
輔	-8.79958
用之	-8.80032
儀	-8.80097
擇	-8.80167
恃	-8.80237
晦	-8.80279
孰	-8.80633
否	-8.80675
群	-8.81093
略	-8.81095
醜	-8.81098
錢	-8.81152
毒	-8.81175
者不	-8.81543
差	-8.81711
無有	-8.81792
王曰	-8.81905
卷	-8.81931
胡	-8.81962
爵	-8.81972
人主	-8.82313
悔	-8.82361
之象	-8.82503
遣	-8.82524
之說	-8.82642
唐	-8.82666
魂	-8.82867
含	-8.82919
迹	-8.83059
其身	-8.83168
錯	-8.83266
司	-8.8329
各有	-8.83305
種	-8.83412
於人	-8.83545
敢	-8.83562
四方	-8.83864
省	-8.83988
崇	-8.84028
得之	-8.84181
旣	-8.84284
其事	-8.84458
之心	-8.84464
而爲	-8.8449
笑	-8.84513
均	-8.84564
銳	-8.84597
號	-8.84666
闕	-8.84674
矢	-8.84763
光謂	-8.84776
示	-8.84888
依	-8.85641
孤	-8.85666
偏	-8.85857
午	-8.8589
倍	-8.85999
此皆	-8.86063
帶	-8.86119
祭	-8.86263
勸	-8.86372
皇	-8.86474
煩	-8.86486
濁	-8.86534
對曰	-8.86807
天地之	-8.86849
顧	-8.86942
不相	-8.87156
旁	-8.87313
不過	-8.87386
抱	-8.87557
不失	-8.87853
其道	-8.87899
徵	-8.88169
襲	-8.88218
迎	-8.88418
誰	-8.88461
屋	-8.88479
泰	-8.88485
於外	-8.88839
出於	-8.88922
穀	-8.88958
是謂	-8.89109
刻	-8.89487
竒	-8.89554
接	-8.89701
之理	-8.89946
冬至	-8.90041
奇	-8.9008
繩	-8.9015
詩	-8.90237
之氣	-8.90283
無不	-8.90299
邑	-8.90301
不復	-8.90336
爲人	-8.90338
罷	-8.90348
衡	-8.90396
飢	-8.90654
肉	-8.90738
規	-8.90844
尾	-8.90929
工	-8.91055
之日	-8.9114
仰	-8.91164
包	-8.91184
竊	-8.91401
沉	-8.91431
有一	-8.92186
削	-8.92341
仲	-8.92347
獸	-8.92602
幸	-8.92801
特	-8.92887
託	-8.92902
充	-8.92933
陵	-8.93152
其中	-8.93175
割	-8.93319
籍	-8.93328
仲尼	-8.93491
逃	-8.93495
耶	-8.93644
圓	-8.93685
枝	-8.93805
勤	-8.93828
羣	-8.93906
毛	-8.93963
振	-8.94092
族	-8.94117
壯	-8.94316
臺	-8.94345
抑	-8.94372
永	-8.94469
天道	-8.94565
而不知	-8.94685
未有	-8.94891
試	-8.94961
歌	-8.94971
賢者	-8.95231
淺	-8.95278
侵	-8.95445
追	-8.95454
盜	-8.95653
紂	-8.95846
掩	-8.95957
最	-8.96087
厲	-8.96218
骨	-8.96308
進退	-8.96545
之後	-8.96596
一作	-8.96625
池	-8.96837
賜	-8.9703
招	-8.9704
者所以	-8.9716
鳴	-8.97168
横	-8.97267
舊	-8.97302
其心	-8.97321
維	-8.97329
孝	-8.97352
繁	-8.97412
乏	-8.97434
騎	-8.97677
詐	-8.97853
精神	-8.98006
畜	-8.98018
之功	-8.98104
也王曰	-8.98154
人有	-8.98167
奏	-8.98208
古之	-8.98411
之下	-8.98563
寅	-8.98902
斬	-8.9898
雷	-8.99015
援	-8.9909
沈	-8.99129
其上	-8.99142
昌	-8.99155
道也	-8.99176
黄帝	-8.99268
服之	-8.99271
昏	-8.99296
䟽	-8.99424
禽	-8.99424
劫	-8.9947
注	-8.99487
減	-8.99719
不欲	-8.99821
增	-8.99855
賞罰	-8.99881
諭	-8.99988
讓	-9.00028
史	-9.0007
祖	-9.00178
温	-9.00487
羅	-9.00513
決	-9.00558
吉	-9.00622
壞	-9.00634
慕	-9.00766
於此	-9.01037
延	-9.01062
不若	-9.01136
承	-9.01213
出入	-9.01221
兆	-9.01312
繼	-9.01518
馳	-9.01582
亦有	-9.01647
豐	-9.01659
虜	-9.01664
測	-9.01774
而有	-9.01916
殷	-9.01964
之外	-9.02076
矣夫	-9.02321
是非	-9.02322
欺	-9.02357
刺	-9.02455
不動	-9.02535
閑	-9.02689
疏	-9.02763
塵	-9.02865
職	-9.02948
言其	-9.03087
之謂	-9.03101
十六	-9.03171
草木	-9.03309
没	-9.03323
也〇張預曰	-9.03424
悲	-9.03434
憎	-9.03543
材	-9.03587
虞	-9.03662
咸	-9.03663
醫	-9.03729
神明	-9.03813
革	-9.03838
虧	-9.03867
訟	-9.03867
落	-9.03871
露	-9.03989
墮	-9.04325
休	-9.04445
中有	-9.04445
孫	-9.04509
鍾	-9.04613
怪	-9.0468
也故曰	-9.0469
費	-9.04747
燒	-9.04787
之類	-9.04856
珠	-9.04875
徑	-9.04939
翼	-9.04944
洞	-9.04957
驕	-9.04961
而成	-9.0523
不聞	-9.05353
父母	-9.05381
昔者	-9.05492
悟	-9.0553
陸	-9.05625
聞之	-9.05684
序	-9.05703
姓	-9.0572
之變	-9.05877
謝	-9.05906
鑿	-9.0607
回	-9.0614
一年	-9.06151
於上	-9.06174
三十	-9.06266
不行	-9.06557
黨	-9.0674
遲	-9.06792
徐	-9.07023
防	-9.07064
弟	-9.07088
者爲	-9.07141
夏至	-9.07188
靡	-9.07232
典	-9.07242
獻	-9.07258
繫	-9.07277
訓	-9.07281
考	-9.07435
炁	-9.07703
其後	-9.07755
給	-9.07837
驗	-9.07965
獄	-9.07996
尺	-9.08037
再	-9.08191
赴	-9.08203
諫	-9.08218
世之	-9.08344
冥	-9.08349
準	-9.084
迷	-9.08464
而求	-9.08466
耕	-9.08674
古者	-9.09008
之徒	-9.09011
將軍	-9.09167
尤	-9.09167
輪	-9.09469
扶	-9.09473
其子	-9.09477
懸	-9.09495
葬	-9.09511
之上	-9.09552
麗	-9.09554
吐	-9.09564
長生	-9.09573
弓	-9.09587
枉	-9.09738
悅	-9.09948
庶	-9.10167
遷	-9.10215
阿	-9.1067
拜	-9.1068
選	-9.1074
三年	-9.1075
録	-9.10776
人皆	-9.10785
廟	-9.10873
國之	-9.10874
〇杜牧曰	-9.11236
刃	-9.11372
儒	-9.11392
不信	-9.11505
矜	-9.11521
尋	-9.11554
恭	-9.11701
遁	-9.1177
奔	-9.11779
柱	-9.11847
管仲	-9.12128
緩	-9.12146
以其	-9.12172
妙	-9.12223
八卦	-9.12349
陷	-9.12405
也然	-9.12409
輙	-9.12701
誘	-9.12748
不然	-9.12784
使之	-9.12814
劉	-9.12821
征	-9.12879
卯	-9.12993
早	-9.13127
薦	-9.13155
无	-9.13173
以成	-9.1333
三軍	-9.13567
只	-9.13688
令人	-9.13818
孟	-9.13835
夢	-9.1402
狂	-9.14073
智者	-9.14165
涉	-9.14173
竟	-9.14287
激	-9.14303
杜	-9.14374
希	-9.14375
三日	-9.14392
未嘗	-9.14418
旗	-9.1442
一月	-9.14754
三百六十	-9.14769
君臣	-9.15127
房	-9.15137
太一	-9.15218
狗	-9.1522
植	-9.15319
在於	-9.15329
今從諸家	-9.15425
墜	-9.15447
葉	-9.1548
介	-9.15515
忌	-9.15547
雞	-9.1559
卧	-9.15602
遭	-9.15606
太上	-9.15608
闇	-9.15644
子曰	-9.1576
矣故	-9.15885
子孫	-9.15899
者以	-9.16013
管	-9.16105
宣	-9.16239
宅	-9.16286
弗能	-9.16346
按	-9.16405
耳目	-9.16478
尸	-9.16513
利害	-9.16608
婦人	-9.16717
英	-9.1677
庭	-9.16791
不受	-9.17181
詳	-9.17343
納	-9.17448
不勝	-9.17555
江	-9.17601
而得	-9.17625
皆有	-9.17743
先天	-9.1776
失其	-9.17785
武王	-9.17811
逸	-9.17885
隆	-9.17985
見其	-9.18015
枯	-9.18022
鼻	-9.18064
粟	-9.181
寵	-9.18164
也〇李筌曰	-9.18191
不出	-9.18414
筭	-9.18632
彌	-9.18881
之勢	-9.18925
了	-9.18929
者有	-9.18938
萌	-9.18981
格	-9.18993
雄	-9.18994
三十六	-9.1904
環	-9.19172
刀	-9.19177
謙	-9.19334
邦	-9.19364
曹	-9.19578
也是故	-9.19617
旦	-9.19646
或曰	-9.19815
脫	-9.19829
佐	-9.19881
而生	-9.2011
貫	-9.20208
鼎	-9.20359
弩	-9.20579
名曰	-9.2078
▁(	-9.20966
則有	-9.20967
未必	-9.21081
無爲	-9.21194
季	-9.21414
庸	-9.2145
句	-9.21685
不必	-9.21703
其君	-9.21774
之物	-9.21819
以待	-9.21825
丁	-9.21837
楊	-9.2186
寡人	-9.21886
殘	-9.21887
何氏曰	-9.21909
攝	-9.21949
祀	-9.21981
堯舜	-9.22048
倚	-9.22055
七日	-9.22091
而能	-9.22104
子墨子曰	-9.22244
拘	-9.22571
糧	-9.22581
堂	-9.22698
艮	-9.22707
吕	-9.23015
勁	-9.23275
凝	-9.23316
齒	-9.23322
辨	-9.23333
之術	-9.23334
之利	-9.23989
溺	-9.24072
或有	-9.2408
男	-9.24314
君之	-9.24393
巨	-9.24563
大抵	-9.24604
駕	-9.24614
第	-9.24618
劍	-9.24627
姑	-9.24666
杖	-9.24689
契	-9.24733
眀	-9.24839
春秋	-9.25045
不死	-9.25083
無窮	-9.25109
撓	-9.25542
峻	-9.25911
洪	-9.2595
焚	-9.25959
觸	-9.25968
趣	-9.25994
乖	-9.26016
鬭	-9.26044
鈞	-9.2605
而死	-9.26055
撫	-9.26068
配	-9.26076
活	-9.26108
萬民	-9.26189
哭	-9.26209
竈	-9.26362
境	-9.2663
之情	-9.2689
是為	-9.26983
之患	-9.27031
郭	-9.27037
后	-9.27231
驅	-9.27283
巽	-9.27289
道之	-9.27302
奮	-9.27328
儉	-9.27363
慢	-9.27383
羣臣	-9.2739
賦	-9.27435
沮	-9.27462
社	-9.27487
底	-9.27512
匪	-9.27533
芝	-9.2755
值	-9.27747
烏	-9.27756
飲食	-9.27829
腹	-9.27847
不當	-9.2801
國家	-9.28101
霸	-9.28216
子之	-9.28281
曰我	-9.28338
見之	-9.28394
則是	-9.28422
未可	-9.28436
暗	-9.28609
郡	-9.28718
波	-9.28827
肥	-9.28829
晝夜	-9.28831
可謂	-9.2884
鑒	-9.28939
東方	-9.28953
人之所	-9.29147
寒暑	-9.29303
一歲	-9.29458
不與	-9.29517
朔	-9.29548
死者	-9.29568
之意	-9.29772
部	-9.2989
名也	-9.29919
之屬	-9.29959
香	-9.30154
無以	-9.30156
不食	-9.30202
燭	-9.30218
補	-9.30225
昧	-9.3025
頗	-9.3026
毎	-9.30261
占	-9.30268
究	-9.30276
漏	-9.30295
買	-9.30314
逺	-9.3039
人君	-9.30441
腎	-9.30526
戴	-9.30548
不肖	-9.30759
咎	-9.30924
說在	-9.31011
墨	-9.31113
曾	-9.3115
校	-9.31469
於下	-9.31472
而言	-9.31477
何以	-9.31515
泄	-9.31585
叛	-9.31633
兄	-9.31656
采	-9.31665
荒	-9.31705
寢	-9.31732
總	-9.31769
恨	-9.31825
之義	-9.31845
隙	-9.31876
不言	-9.31896
范	-9.31937
而欲	-9.32047
也言	-9.32059
造化	-9.3215
善惡	-9.32233
競	-9.32261
熟	-9.32591
後世	-9.32605
杜佑曰	-9.32793
宰	-9.3288
泉	-9.32891
築	-9.3301
導	-9.33059
道者	-9.33142
二十	-9.33148
社稷	-9.3316
躁	-9.33161
貨	-9.33216
賛曰	-9.33248
戾	-9.33267
道士	-9.3353
古人	-9.33618
輕重	-9.33637
虚實	-9.33731
壁	-9.33939
其國	-9.34059
禍福	-9.3427
卿	-9.34418
死生	-9.34435
三月	-9.34437
戮	-9.34449
戎	-9.3449
牧	-9.34526
不肯	-9.34584
條	-9.34586
伸	-9.3465
宇	-9.34682
頓	-9.34692
棲	-9.34711
狐	-9.34714
於天下	-9.3482
水火	-9.34844
孔	-9.34956
嗚呼	-9.35064
鐵	-9.35078
之用	-9.35404
乾坤	-9.35551
亥	-9.35853
周公	-9.35956
肅	-9.35974
牙	-9.36021
兌	-9.36055
友	-9.36091
影	-9.36093
殆	-9.36146
鹿	-9.3618
郊	-9.36212
鼠	-9.36218
擅	-9.36227
珍	-9.3623
送	-9.36243
罔	-9.36258
東南	-9.36282
陶	-9.36291
覩	-9.36305
彈	-9.36367
側	-9.36467
昭	-9.368
學者	-9.36952
大臣	-9.36987
又有	-9.37014
民之	-9.37124
至于	-9.37235
農	-9.37269
者亦	-9.37291
卵	-9.37365
况	-9.37425
便是	-9.37438
賣	-9.37455
富貴	-9.37498
明日	-9.37539
傅	-9.37572
烈	-9.37577
慎	-9.37594
世人	-9.37626
脾	-9.37649
也昔	-9.37669
舞	-9.37703
其數	-9.3804
慈	-9.38093
則無	-9.38106
拒	-9.38227
不待	-9.38514
蔡	-9.38584
朱子曰	-9.38749
豫	-9.38827
也是以	-9.38853
狀	-9.38935
髮	-9.39041
弦	-9.39044
顔	-9.39055
而自	-9.39076
黃	-9.3917
在上	-9.3917
超	-9.39214
耗	-9.39277
僧	-9.39301
凌	-9.3932
寬	-9.39333
距	-9.39355
混	-9.39357
之禍	-9.39373
缺	-9.39394
不聽	-9.3941
不免	-9.3962
也又	-9.39652
於天	-9.3988
不成	-9.39962
丈	-9.40023
十二月	-9.40054
其人	-9.40233
而已矣	-9.40314
用兵	-9.40826
妾	-9.40827
衝	-9.40844
桀	-9.40844
曠	-9.40845
穿	-9.40924
監	-9.40966
湯武	-9.40999
抱朴子外篇卷之	-9.41318
中央	-9.41465
擊之	-9.41506
山川	-9.41625
而弗	-9.41695
佛	-9.41781
西北	-9.41798
無常	-9.41826
其德	-9.41869
界	-9.42292
疲	-9.42364
邊	-9.42422
痛	-9.42422
捨	-9.42449
曆	-9.4247
幹	-9.42511
剥	-9.42517
矯	-9.42579
仕	-9.4261
者其	-9.42839
二十四	-9.43016
不至	-9.43134
治也	-9.43186
物之	-9.4328
乎賛曰	-9.43644
如此則	-9.43648
擒	-9.43653
潔	-9.43728
曰此	-9.43729
父子	-9.43743
殺之	-9.43801
也〇杜牧曰	-9.43809
則不	-9.43819
猛	-9.44071
有功	-9.44082
住	-9.44103
鎮	-9.44142
賈	-9.44159
胎	-9.44163
淪	-9.44226
人心	-9.44366
若夫	-9.44523
成功	-9.44557
基	-9.44602
也王本	-9.4467
從事	-9.44698
産	-9.44977
從之	-9.4498
不利	-9.45127
窺	-9.45188
液	-9.45304
賴	-9.45441
聖王	-9.45505
不識	-9.4553
也此	-9.45626
巢	-9.45643
讎	-9.45665
鮮	-9.45682
犬	-9.45704
厥	-9.45721
賈林曰	-9.45726
倉	-9.4577
闘	-9.45783
鈎	-9.45819
隘	-9.45821
爲政	-9.45822
秀	-9.45839
竹	-9.45865
敵之	-9.45895
而為	-9.45978
談	-9.46145
其功	-9.46148
鋒	-9.4617
源	-9.46215
公子	-9.46484
溢	-9.46703
料	-9.46705
地形	-9.46731
元氣	-9.46849
徙	-9.4691
曉	-9.46952
之内	-9.47012
或以	-9.47192
箕	-9.47248
樓	-9.4725
大道	-9.47271
遽	-9.47311
酉	-9.47325
慶	-9.47339
偃	-9.4736
耀	-9.47386
網	-9.47399
隊	-9.47405
殃	-9.47416
伊尹	-9.47466
侮	-9.47497
可得	-9.47501
恥	-9.47564
丸	-9.47982
相與	-9.48253
必死	-9.48272
誤	-9.48489
惜	-9.48677
動静	-9.48813
蕩	-9.48872
逢	-9.49119
康	-9.49152
跡	-9.49167
篤	-9.49219
去之	-9.49222
證	-9.49243
借	-9.49253
覽	-9.49259
嘉	-9.49264
啓	-9.49265
賔	-9.49309
聖人之	-9.49455
旣而	-9.49538
其次	-9.49569
王者	-9.49618
因其	-9.49725
伍	-9.49727
攻之	-9.49776
古今	-9.49783
鄙	-9.49912
夕	-9.50021
今日	-9.50037
倫	-9.50081
某	-9.50202
上帝	-9.50226
俟	-9.50352
享	-9.50394
法令	-9.50404
整	-9.50441
故聖人	-9.50593
用也	-9.50632
醉	-9.50702
稽	-9.50713
金玉	-9.50784
而反	-9.50834
盗	-9.50835
災	-9.5087
潤	-9.50893
完	-9.50958
滯	-9.51043
黄鍾	-9.51057
忍	-9.51169
有罪	-9.51192
二人	-9.51365
五十	-9.51504
禦	-9.51917
北方	-9.52008
一名	-9.52076
寄	-9.52128
其意	-9.52164
公曰	-9.52182
五色	-9.5226
侍	-9.52541
丙	-9.52554
舌	-9.52568
㓂	-9.52569
茂	-9.52629
肺	-9.52634
皮	-9.52681
宋曰	-9.52682
領	-9.5274
絃	-9.52764
佯	-9.52787
爵禄	-9.52798
効	-9.52804
看	-9.52805
渠	-9.52819
不知其	-9.52849
冝	-9.52866
澄	-9.52876
踰	-9.53048
豈不	-9.5313
之名	-9.53142
流行	-9.53208
求之	-9.53262
欲以	-9.53267
迫	-9.53296
其志	-9.53393
人臣	-9.53696
道德	-9.53766
染	-9.53941
終始	-9.54049
初一	-9.54088
雪	-9.54092
治國	-9.54126
兄弟	-9.54156
詭	-9.54179
冀	-9.54263
不在	-9.54326
程	-9.54428
旋	-9.54439
匿	-9.54457
狹	-9.54474
飽	-9.54553
不明	-9.54572
亦不	-9.54578
泥	-9.54589
兹	-9.54597
搏	-9.54625
臭	-9.54632
蹈	-9.54662
者謂	-9.54681
十五	-9.54825
之道也	-9.54825
所在	-9.55043
其父	-9.55074
莫能	-9.5551
曰夫	-9.55516
所欲	-9.55553
法也	-9.55596
嬰	-9.55719
是月	-9.55753
治之	-9.55755
育	-9.55766
夫子	-9.55794
以求	-9.55795
必先	-9.55862
可知	-9.55934
南方	-9.56002
其實	-9.56033
及其	-9.56065
壘	-9.56199
蘇	-9.56242
沙	-9.56278
忿	-9.56311
船	-9.56344
乙	-9.5636
庚	-9.56387
舒	-9.56396
淮南鴻烈解卷之	-9.56412
何故	-9.56428
屯	-9.56433
桑	-9.56437
穢	-9.56455
誓	-9.5646
席	-9.56476
仙人	-9.56663
後天	-9.56672
往來	-9.56872
於内	-9.56958
西南	-9.57121
爲善	-9.57141
爲一	-9.57164
不正	-9.57193
有形	-9.57222
司馬	-9.57224
法度	-9.57257
故不	-9.57322
由是	-9.57393
者謂之	-9.57393
范曰	-9.57418
答	-9.5766
泣	-9.57718
百里	-9.5773
起於	-9.57771
限	-9.57903
不從	-9.58088
鄰	-9.58105
所爲	-9.58204
日中	-9.58226
曹公	-9.58229
炎	-9.58243
裂	-9.58271
戲	-9.58304
縁	-9.58309
愼	-9.58311
津	-9.58323
鳳	-9.58325
擬	-9.58329
鉤	-9.58346
者則	-9.58383
快	-9.58389
提	-9.58466
北斗	-9.58651
墻	-9.59152
其行	-9.59301
誣	-9.59437
北極	-9.59453
盖	-9.59916
肝	-9.59971
之性	-9.5998
戌	-9.60074
然也	-9.60089
瞻	-9.60175
銅	-9.60177
裏	-9.60184
翟	-9.60186
輿	-9.60188
行之	-9.60209
鏡	-9.6021
恒	-9.60263
織	-9.60306
科	-9.60343
以上	-9.60357
而去	-9.60362
與人	-9.60365
曰子	-9.60392
川	-9.60425
而知	-9.60449
陰氣	-9.60516
衆人	-9.60552
三十日	-9.60621
人所	-9.60635
子華子曰	-9.60737
安得	-9.60814
十日	-9.60977
踐	-9.61035
安能	-9.61068
之國	-9.61091
文公	-9.61197
太子	-9.61236
而止	-9.61241
地之	-9.61361
也范曰	-9.61367
四象	-9.61426
皆以	-9.61456
萬物之	-9.61971
次四	-9.62002
誦	-9.62008
其可	-9.62024
壤	-9.62035
之罪	-9.62091
縮	-9.62105
大小	-9.62109
掌	-9.62116
拙	-9.62119
兒	-9.62149
之計	-9.62151
取之	-9.62165
盧	-9.62169
譬	-9.62213
禱	-9.6223
翔	-9.62249
弘	-9.62265
囚	-9.62274
饑	-9.62301
芳	-9.62305
支	-9.62329
先王	-9.62502
其氣	-9.62518
風雨	-9.62559
之極	-9.62586
動而	-9.6266
智伯	-9.62746
者無	-9.62781
孫子	-9.62942
所得	-9.63094
刑罰	-9.63144
四海	-9.63491
謗	-9.63512
七十	-9.63581
厭	-9.63589
歳	-9.63716
也凡	-9.63824
遏	-9.63841
有三	-9.63896
不求	-9.63902
妖	-9.63947
南北	-9.63971
乞	-9.6398
冨	-9.64063
甞	-9.64063
踈	-9.64065
俊	-9.64114
像	-9.64165
桀紂	-9.6417
虐	-9.64219
叙	-9.64246
無功	-9.64266
剖	-9.6429
髙	-9.64304
握	-9.64305
始於	-9.64404
五穀	-9.64468
怯	-9.6451
亦然	-9.64525
無道	-9.64555
以相	-9.64581
害也	-9.6463
儒者	-9.64647
城上	-9.64786
之臣	-9.64852
也范本	-9.65009
其言	-9.65219
夫人	-9.6545
其所以	-9.65499
何也	-9.65595
其形	-9.65695
牽	-9.65801
紫	-9.65802
旱	-9.6581
討	-9.65871
西方	-9.65873
童	-9.65954
辛	-9.66012
束	-9.66091
勉	-9.66102
者是	-9.66181
護	-9.66204
捷	-9.66232
爻	-9.66266
樸	-9.66274
璧	-9.66286
匡	-9.66299
詣	-9.6631
明也	-9.66334
男女	-9.66343
播	-9.66346
捕	-9.66363
恕	-9.66364
豪	-9.66371
祝	-9.66377
譬猶	-9.66392
一切	-9.66464
之君	-9.66504
之主	-9.66598
老子	-9.66678
治亂	-9.66723
故老子曰	-9.66861
十一	-9.66862
祥	-9.67219
世間	-9.6723
白馬	-9.67279
無益	-9.6734
禀	-9.67355
括	-9.6741
暮	-9.675
軌	-9.67663
十月	-9.6774
若此	-9.67783
人事	-9.67795
百日	-9.67804
暑	-9.6783
濕	-9.67962
之精	-9.68016
之民	-9.68038
也且	-9.6804
帥	-9.68129
優	-9.68222
而立	-9.68231
徹	-9.68258
賢人	-9.68294
攸	-9.68305
蠶	-9.68306
冒	-9.68312
練	-9.6832
汙	-9.68325
陋	-9.68363
寇	-9.68366
壅	-9.68385
芒	-9.6839
坎離	-9.68421
挾	-9.6844
日月星辰	-9.68442
麥	-9.68442
何必	-9.68516
也〇王皙曰	-9.68634
吉凶	-9.68748
太玄	-9.68819
之門	-9.68837
不入	-9.69003
乃可	-9.69136
丑	-9.69162
也〇賈林曰	-9.69178
行也	-9.69269
其神	-9.69345
而下	-9.69395
蜀	-9.69616
也抱朴子曰	-9.69617
之才	-9.6962
故有	-9.69719
不中	-9.69741
不生	-9.6978
不能自	-9.69923
〇李筌曰	-9.69998
叔	-9.70029
其說	-9.70035
衍	-9.70087
奈何	-9.70123
牢	-9.70145
渡	-9.70171
真人	-9.70208
則民	-9.70232
以示	-9.70239
賛	-9.70291
𩔖	-9.70375
也或曰	-9.70438
碎	-9.70447
也然則	-9.70456
階	-9.70467
絲	-9.70474
膏	-9.70474
採	-9.70475
隋	-9.70486
掘	-9.70506
卜	-9.70514
有道	-9.70547
緫	-9.70553
隔	-9.70573
使民	-9.70578
崑崙	-9.70601
生也	-9.70631
明主	-9.70644
朝廷	-9.7065
其勢	-9.7065
得失	-9.70891
二者	-9.70907
一物	-9.70956
多少	-9.71105
非其	-9.71222
者多	-9.71302
實也	-9.71317
弟子	-9.7133
之際	-9.71358
之聲	-9.71361
未能	-9.71362
使者	-9.7145
柄	-9.71489
箇	-9.715
前後	-9.71671
之謂也	-9.72155
以自	-9.72301
也上九	-9.72339
拂	-9.72466
掠	-9.72532
冰	-9.7255
焦	-9.72562
歛	-9.72577
崩	-9.72597
督	-9.72634
薪	-9.72636
桃	-9.72647
鱗	-9.72662
歡	-9.72662
花	-9.72669
佞	-9.72675
斧	-9.72676
謬	-9.72708
倒	-9.72723
亭	-9.72733
數也	-9.72808
得道	-9.72973
為陰	-9.73008
楚人	-9.73025
度量	-9.73113
百官	-9.73203
朱子	-9.73343
之行	-9.73484
謁	-9.73573
於中	-9.73654
羞	-9.73803
之本	-9.73846
六十	-9.73981
如何	-9.74046
而不得	-9.74135
可見	-9.74166
者乎	-9.74225
者以其	-9.74303
閏	-9.74322
摇	-9.74415
擾	-9.74582
也曹操曰	-9.74636
易曰	-9.74711
燥	-9.74729
藉	-9.74768
烹	-9.74828
蚤	-9.74846
函	-9.74855
箭	-9.74857
藻	-9.74874
稍	-9.7488
祭祀	-9.74881
飯	-9.74881
鴻	-9.74896
區	-9.74947
詞	-9.74984
濫	-9.74991
價	-9.75005
思慮	-9.7508
聦明	-9.75123
道理	-9.75124
亦可	-9.75335
視之	-9.75384
日行	-9.75472
者也故	-9.75542
遠近	-9.75556
不通	-9.75597
之禮	-9.75611
用事	-9.75715
返	-9.75753
灌	-9.75778
乃至	-9.75784
貞測曰	-9.75846
而出	-9.75923
也宋陸本	-9.75924
終身	-9.76
五星	-9.76028
不覺	-9.76102
矣今	-9.76116
不變	-9.76282
餌	-9.76318
係	-9.7638
物也	-9.76396
人者	-9.76589
生物	-9.76707
鍊	-9.76714
供	-9.76816
越人	-9.76954
京	-9.7698
中國	-9.76984
晚	-9.7699
乆	-9.76996
鷄	-9.77065
顛	-9.77066
捐	-9.77067
詩云	-9.77092
晨	-9.77092
闔	-9.77104
吹	-9.7714
滑	-9.7716
霜	-9.77184
案	-9.77202
敦	-9.77216
譏	-9.77228
詔	-9.77245
此乃	-9.77266
朋黨	-9.77285
一度	-9.77376
有過	-9.77397
東北	-9.77447
不仁	-9.77459
不忍	-9.77651
曰汝	-9.77667
不容	-9.77829
怠	-9.77867
逮	-9.78069
禮樂	-9.78114
樞	-9.7813
子墨子	-9.78143
取其	-9.78197
一時	-9.78236
為陽	-9.78305
之初	-9.7834
其家	-9.78424
不善	-9.78497
愚者	-9.78533
牛馬	-9.78598
一陽	-9.7865
之與	-9.78697
人情	-9.78726
只是	-9.78773
眞人	-9.78821
夭	-9.78824
救之	-9.78833
而民	-9.78835
以利	-9.78923
旅	-9.78964
則不然	-9.79039
在乎	-9.7912
嗣	-9.79122
者雖	-9.79215
聦	-9.7927
綱	-9.79313
盟	-9.79333
徧	-9.79439
頤	-9.79448
雍	-9.79479
頃	-9.79518
之器	-9.79543
規矩	-9.79568
㫖	-9.79602
創	-9.79604
地有	-9.79654
貴賤	-9.79703
人間	-9.7971
於君	-9.79809
而入	-9.79922
書曰	-9.8005
必以	-9.80213
而天下	-9.80424
三者	-9.80561
其餘	-9.80617
次三	-9.80935
之令	-9.81036
伏羲	-9.81095
單	-9.81143
女子	-9.8137
其法	-9.81426
也次八	-9.81426
響	-9.81494
則亂	-9.81496
無極	-9.81499
巫	-9.81533
之形	-9.81584
悖	-9.81587
咽	-9.81622
者可亡也	-9.81679
寸	-9.81741
齋	-9.81824
抗	-9.81849
上九	-9.81853
琴	-9.81853
之本也	-9.81855
屢	-9.81898
誕	-9.81925
推之	-9.81983
讒	-9.82028
所生	-9.82091
者不可	-9.8222
利也	-9.82227
延年	-9.82243
四十	-9.82252
次六	-9.82341
恤	-9.82412
不得已	-9.82533
與其	-9.82629
所見	-9.82666
春分	-9.82712
化爲	-9.82768
居中	-9.82863
其妻	-9.82911
臣也	-9.83122
治天下	-9.83188
吴起	-9.83217
渾	-9.83234
合於	-9.83387
莊	-9.83434
或問	-9.83518
甲子	-9.83566
又云	-9.8361
而歸	-9.83713
其名	-9.83996
蒸	-9.84179
愛之	-9.84189
誑	-9.84189
匹	-9.84204
粹	-9.84207
嫁	-9.8421
獵	-9.84226
尉	-9.84233
艾	-9.84234
洛書	-9.84237
佩	-9.84245
熒惑	-9.84251
由此觀之	-9.84264
腐	-9.84265
相應	-9.84273
摩	-9.84276
浸	-9.84291
秉	-9.84298
鐘	-9.84306
斂	-9.84316
自此	-9.84326
裁	-9.84332
竇	-9.84335
霄	-9.8434
禽獸	-9.84349
逼	-9.84404
斥	-9.84408
三十二	-9.84487
之端	-9.8456
奇正	-9.84999
死而	-9.85062
法者	-9.85063
亢	-9.85198
吴王	-9.85342
禮義	-9.85488
墨子	-9.85539
肯	-9.85818
生死	-9.85871
見於	-9.86262
治者	-9.86326
而用	-9.86328
殿	-9.86362
其爲	-9.86482
今夫	-9.86504
品	-9.86524
恣	-9.86535
〇杜佑曰	-9.86573
途	-9.86667
宵	-9.8667
閭	-9.86675
雌	-9.86724
臂	-9.86762
電	-9.86779
判	-9.86782
印	-9.86788
濡	-9.86799
麻	-9.86808
填	-9.86819
耻	-9.86835
也次三	-9.86858
其情	-9.86963
也〇杜佑曰	-9.87003
豈有	-9.87028
山林	-9.87144
十二辰	-9.87289
若以	-9.87355
東西	-9.87412
乎昔	-9.87499
無事	-9.87679
守之	-9.8773
上有	-9.8777
不知所	-9.87939
隅	-9.88036
五味	-9.88162
不亂	-9.88207
動則	-9.88273
以致	-9.88904
蒼	-9.89046
而用之	-9.89072
桓	-9.89093
其間	-9.89112
輜重	-9.89159
析	-9.89178
也次六	-9.89246
姬	-9.89284
矩	-9.89288
輸	-9.89291
𢖍	-9.8931
羸	-9.89314
饒	-9.89357
閣	-9.8936
剛柔	-9.89407
眩	-9.89408
構	-9.89415
式	-9.89441
軸	-9.89449
之子	-9.89463
可使	-9.89478
祕	-9.89487
有五	-9.89524
能知	-9.89564
相去	-9.89574
譬如	-9.89663
牽牛	-9.89898
不備	-9.9
忠臣	-9.90083
彰	-9.90145
不祥	-9.90146
十人	-9.90185
是猶	-9.90248
皆是	-9.90293
受命	-9.90441
十年	-9.90539
五帝	-9.90557
善者	-9.9063
之書	-9.90642
之學	-9.90693
無所不	-9.90816
則必	-9.90836
一事	-9.90893
五月	-9.9096
其位	-9.91031
匠	-9.91195
終不	-9.91231
為主	-9.9124
次二	-9.91247
在外	-9.91286
以備	-9.91348
氣也	-9.91394
所知	-9.91488
殺人	-9.91573
壬	-9.91592
者衆	-9.91643
騰	-9.91679
抵	-9.91719
郎	-9.91731
其於	-9.91756
域	-9.91787
一國	-9.9179
紛	-9.91795
秋分	-9.91813
旌旗	-9.91815
癸	-9.91853
兮	-9.91862
軫	-9.91865
蕃	-9.91879
洽	-9.91886
廬	-9.91893
何可	-9.91905
膽	-9.91915
慧	-9.91922
續	-9.91938
挈	-9.9194
磨	-9.91946
偷	-9.91963
灼	-9.91964
戚	-9.91968
粗	-9.91976
以告	-9.91991
輒	-9.91992
普	-9.91994
賀	-9.92004
宴	-9.92007
酷	-9.92023
諸將	-9.92025
變而	-9.92034
闢	-9.92038
椎	-9.9204
檢	-9.9204
傲	-9.92078
入山	-9.92079
於道	-9.92091
韓信	-9.92238
事者	-9.9242
無復	-9.92446
魂魄	-9.92468
以知	-9.92538
於物	-9.92551
次八	-9.92782
在我	-9.92805
城郭	-9.92889
其利	-9.92921
也然而	-9.93012
必勝	-9.93108
問曰	-9.93163
有司	-9.93185
際	-9.93202
此是	-9.93346
事也	-9.93371
不已	-9.93386
楚王	-9.93433
不自	-9.93461
不可謂	-9.93539
何謂	-9.93548
為天	-9.93559
淩	-9.93621
為用	-9.9371
之節	-9.93819
而復	-9.93866
旬	-9.93905
曰善	-9.9405
方圓	-9.94071
默	-9.94147
答曰	-9.94317
在天	-9.94321
姤	-9.94378
也蓋	-9.94388
也一曰	-9.94398
河圖	-9.94403
名實	-9.94496
瞽	-9.94552
翕	-9.94563
圜	-9.9459
而走	-9.94601
尹	-9.94605
陳皥曰	-9.94622
仇	-9.94666
夾	-9.94675
憤	-9.94678
贊	-9.9468
緣	-9.947
披	-9.947
器械	-9.94703
宗廟	-9.94705
灰	-9.94707
囊	-9.94729
柳	-9.94731
寤	-9.94733
逝	-9.94744
曽	-9.94748
擁	-9.94751
襄子	-9.94766
晩	-9.94783
擢	-9.94821
通於	-9.94907
一氣	-9.94921
佚	-9.94933
形也	-9.94978
强弱	-9.94982
生者	-9.95013
此亦	-9.95044
故人	-9.95061
喜怒	-9.95107
一本	-9.9515
觀之	-9.95179
不顧	-9.95206
且夫	-9.95461
釣	-9.95483
不可得	-9.95551
十一月	-9.95581
哉夫	-9.95592
此之謂	-9.95596
攻其	-9.95726
孔子曰	-9.95933
之鬼	-9.96111
之至也	-9.96204
也〇陳皥曰	-9.96245
天有	-9.96245
好惡	-9.96345
生而	-9.96397
毫	-9.96441
之貌	-9.96442
徇	-9.96454
吞	-9.96456
太公	-9.96559
其罪	-9.9667
劇	-9.96715
勝負	-9.96727
失之	-9.9678
不能使	-9.96841
餓	-9.96906
互	-9.96926
何如	-9.97099
〇又曰	-9.97183
況於	-9.97208
炭	-9.97218
者何也	-9.97289
諸侯之	-9.97311
突	-9.97343
潰	-9.97364
橋	-9.97371
轂	-9.974
俯	-9.97416
漆	-9.97429
敷	-9.97457
脂	-9.97471
當此之時	-9.97483
鶴	-9.97486
鷹	-9.97488
述	-9.97493
秘	-9.97494
的	-9.97496
寫	-9.9751
錫	-9.97514
黍	-9.97517
雀	-9.97523
雉	-9.97528
邈	-9.97558
籠	-9.9756
襄	-9.97579
其用	-9.97586
稷	-9.97589
從而	-9.97595
王本	-9.97605
太清	-9.97667
彼此	-9.97668
不止	-9.9767
也次五	-9.97686
長短	-9.97783
事君	-9.97784
於民	-9.97785
手足	-9.97793
聖賢	-9.97881
三人	-9.97949
疾病	-9.97959
康節	-9.97982
而易	-9.98008
也〇	-9.98336
或無	-9.9839
十八	-9.98402
事之	-9.98709
不義	-9.98727
而非	-9.98768
則為	-9.98796
其民	-9.9884
次五	-9.98894
未得	-9.9894
之妙	-9.9897
君子之	-9.99119
北辰	-9.99202
嘆	-9.99238
亦無	-9.99247
以至	-9.99248
他人	-9.99281
明於	-9.99322
無私	-9.99366
終日	-9.9948
邵子	-9.99753
探	-9.99779
無用	-9.99783
亦何	-10.0008
蟄	-10.0015
之難	-10.0019
眼	-10.0023
此之謂也	-10.0023
那	-10.0024
盤	-10.0026
班	-10.0026
羹	-10.0026
險阻	-10.0027
升降	-10.0028
屠	-10.0028
奢	-10.003
銜	-10.003
訪	-10.003
瓦	-10.0031
筆	-10.0031
眇	-10.0033
溝	-10.0034
身死	-10.0034
馮	-10.0036
詰	-10.0038
蕭	-10.004
必敗	-10.0043
鳥獸	-10.0045
偉	-10.0046
伎	-10.0048
以明	-10.005
伯夷	-10.0054
爲天下	-10.0059
明堂	-10.006
水中	-10.0069
禾	-10.0083
至此	-10.0091
將來	-10.0093
魁	-10.0102
詩曰	-10.0105
孰謂	-10.0109
也所謂	-10.011
不使	-10.0117
第一	-10.0125
必不	-10.0127
道而	-10.0134
亂也	-10.0134
先王之	-10.0137
於心	-10.0139
豈能	-10.0149
明君	-10.0157
理也	-10.0161
其主	-10.0169
至矣	-10.0181
而未	-10.0189
六日	-10.0193
〇賈林曰	-10.0199
行者	-10.0204
一家	-10.0213
相對	-10.0223
裘	-10.0231
次七	-10.0233
也次四	-10.0241
日在	-10.0249
地中	-10.0251
昇	-10.0257
挫	-10.0257
之盛	-10.0257
内外	-10.026
以一	-10.0268
鬻	-10.0269
在前	-10.0272
問之	-10.0301
傷也	-10.0303
滋	-10.0303
洛	-10.0305
駭	-10.0312
一分	-10.0312
想	-10.0312
煙	-10.0316
羨	-10.0317
玩	-10.0318
言不	-10.0318
渴	-10.0319
範	-10.0319
劔	-10.0319
米	-10.032
暫	-10.0321
今從宋陸本	-10.0323
儲	-10.0323
沃	-10.0323
竦	-10.0325
嬰兒	-10.0326
棺	-10.0327
羿	-10.0329
二十八宿	-10.0329
玉女	-10.0329
金石	-10.0332
牀	-10.0333
爛	-10.0333
譎	-10.0333
冶	-10.0334
不易	-10.0334
脅	-10.0334
金液	-10.0339
不解	-10.0349
俗人	-10.0355
圉	-10.0366
取勝	-10.0382
遠矣	-10.0384
男子	-10.0394
三尺	-10.0395
小大	-10.0405
在下	-10.0411
凡此	-10.0412
千歲	-10.0419
行而	-10.0445
數十	-10.0447
十三	-10.0451
人主之	-10.0458
自有	-10.0462
至德	-10.0462
於我	-10.0484
穆	-10.0495
漁	-10.0512
臧	-10.0521
之位	-10.0522
亡國	-10.053
度數	-10.0531
曰君	-10.0533
苗	-10.0545
堪	-10.0551
愛人	-10.0556
神農	-10.056
兵法	-10.0577
性命	-10.0583
戊	-10.059
九天	-10.0595
説	-10.0599
其母	-10.0607
廓	-10.0615
切王曰	-10.0618
今從宋陸范本	-10.0619
不修	-10.0622
賓	-10.0623
乗	-10.0624
竄	-10.0625
豆	-10.0626
軒	-10.0626
禪	-10.0626
彭	-10.0627
脉	-10.0628
其性	-10.0628
逾	-10.0629
蒲	-10.0631
慾	-10.0632
以正	-10.0633
傍	-10.0633
則可以	-10.0634
蘭	-10.0635
奥	-10.0636
唱	-10.0636
脚	-10.0636
韓魏	-10.0636
戟	-10.0638
垣	-10.0639
躍	-10.0639
齊人	-10.0648
消長	-10.0656
號令	-10.0662
未及	-10.0665
嗜欲	-10.068
樂也	-10.0682
若無	-10.0683
文章	-10.0685
盡其	-10.069
之德	-10.0692
存亡	-10.0692
無間	-10.0696
先知	-10.0699
知伯	-10.0705
海内	-10.071
而又	-10.0716
此則	-10.0718
萬里	-10.0723
相反	-10.0741
又如	-10.0747
在人	-10.0754
乃得	-10.0762
其本	-10.0767
所居	-10.0767
二曰	-10.0768
右行	-10.0778
預	-10.0786
明年	-10.079
之美	-10.0794
歎	-10.0797
以治	-10.0797
於地	-10.0819
陸曰	-10.0821
不畏	-10.0834
城下	-10.0844
歸之	-10.0846
養之	-10.0853
在内	-10.0854
二十八	-10.088
吾子	-10.0883
一一	-10.0884
憚	-10.0888
千人	-10.0894
勝敵	-10.0895
歟	-10.0896
木也	-10.0903
躬	-10.0905
雅	-10.0907
帛	-10.092
剋	-10.0925
鄕	-10.0926
幼	-10.0927
此所謂	-10.0931
兔	-10.0933
類也	-10.0936
庫	-10.0936
繆	-10.0937
四者	-10.094
孕	-10.0941
轡	-10.0942
趍	-10.0942
扇	-10.0946
沸	-10.0948
郷	-10.095
雙	-10.0951
銷	-10.0951
蓬	-10.0955
妻子	-10.0955
周孔	-10.0958
不合	-10.096
所以爲	-10.0973
不立	-10.0977
太白	-10.0979
以應	-10.0983
之論	-10.0983
金丹	-10.0984
則不可	-10.0996
者蓋	-10.0998
爲君	-10.101
止也	-10.1013
百人	-10.1013
久矣	-10.1014
也雖	-10.1019
其有	-10.1034
五者	-10.1043
而動	-10.1049
故云	-10.1061
天地之間	-10.1074
知也	-10.1082
卦氣	-10.1108
若有	-10.1112
觀其	-10.1115
百步	-10.1124
二子	-10.1124
無方	-10.1146
之兵	-10.1152
宇宙	-10.1154
九州	-10.1158
之高	-10.1172
其親	-10.1179
人無	-10.1181
以德	-10.1183
則不能	-10.1185
輩	-10.119
不愛	-10.1191
皆得	-10.1195
常以	-10.12
之世	-10.1203
五聲	-10.1208
首尾	-10.1213
勝之	-10.1223
也次七	-10.1224
少而	-10.1229
園	-10.1232
牛羊	-10.1233
妨	-10.1242
翳	-10.1244
今從范本	-10.1246
孚	-10.1247
淮	-10.1247
告之	-10.125
訣	-10.1255
迭	-10.1261
有常	-10.1261
戈	-10.1263
鳳凰	-10.1263
迅	-10.1265
巖	-10.1265
遍	-10.1265
償	-10.1267
拱	-10.1268
盆	-10.1268
弃	-10.1269
仍	-10.127
促	-10.1271
此謂	-10.1273
貸	-10.1273
亦曰	-10.1275
難也	-10.1275
朽	-10.1276
凍	-10.1277
千金	-10.1279
奪之	-10.1279
司命	-10.128
老君	-10.1284
而上	-10.1294
其義	-10.1294
國君	-10.1298
止於	-10.1301
行其	-10.1309
死地	-10.1315
白黑	-10.1316
生焉	-10.1317
江河	-10.1318
不可勝	-10.132
第二	-10.1326
忠信	-10.1329
淳	-10.1329
乎夫	-10.1334
大人	-10.1334
不絶	-10.1334
不樂	-10.1334
之末	-10.1336
者不能	-10.135
文武	-10.1362
形勢	-10.1367
二氣	-10.1369
九變	-10.137
晏子	-10.1378
氏之	-10.1379
可知也	-10.1386
之處	-10.14
十萬	-10.1412
曰天	-10.1422
一說	-10.1425
夫婦	-10.1425
貳	-10.1425
將欲	-10.1434
僕	-10.1435
今從宋陸王本	-10.1439
三公	-10.1444
天下無	-10.1448
萬事	-10.1452
矣又	-10.1455
而進	-10.1457
亡者	-10.1458
不欺	-10.146
中間	-10.1461
億	-10.1464
則雖	-10.1476
不周	-10.1478
不治	-10.1492
無知	-10.1501
子華子	-10.152
可與	-10.1532
衢	-10.1534
大國	-10.1543
非一	-10.1549
頂	-10.1552
貢	-10.1552
當時	-10.1559
題	-10.156
嵩	-10.1563
而當晝	-10.1564
斤	-10.1564
其色	-10.1567
再拜	-10.1568
而來	-10.1579
凡人	-10.1579
絳	-10.158
骨肉	-10.1581
先天圖	-10.1589
鞭	-10.159
講	-10.1591
貶	-10.1591
灾	-10.1592
侈	-10.1592
山中	-10.1593
凉	-10.1593
健	-10.1593
存乎	-10.1595
太宗	-10.1595
丹砂	-10.1596
轅	-10.1597
麋	-10.1601
氷	-10.1601
揣	-10.1603
踵	-10.1604
鹽	-10.1604
蹠	-10.1604
愚按	-10.1604
員	-10.1604
翁	-10.1605
饗	-10.1605
熊	-10.1606
朋	-10.1608
夜半	-10.161
何爲	-10.1612
庶幾	-10.1612
吝	-10.1613
署	-10.1614
子貢	-10.1618
不幸	-10.1621
利而	-10.1624
車馬	-10.1628
亦不可	-10.1628
久而	-10.1628
十五日	-10.1629
㓜	-10.1634
乎其	-10.1639
之類也	-10.164
天文	-10.1641
六陰	-10.1646
簡公	-10.1651
邵子曰	-10.1653
也〇何氏曰	-10.1656
一言	-10.1659
舉事	-10.1667
之方	-10.1668
其下	-10.1669
敗也	-10.1675
賞之	-10.1681
而見	-10.1684
因以	-10.1696
君人者	-10.1698
己者	-10.1699
之智	-10.17
於世	-10.1702
非爲	-10.1708
無一	-10.1715
水也	-10.1719
大怒	-10.1726
中山	-10.1737
弑	-10.1739
所愛	-10.1749
可得而	-10.1751
此其	-10.1755
制也	-10.1758
地而	-10.1759
五音	-10.1765
鬼神之	-10.1766
得一	-10.1767
三百	-10.1767
之色	-10.1776
衣食	-10.1778
二十五	-10.179
萬人	-10.1796
其體	-10.1801
一百	-10.1809
日以	-10.1813
齊王	-10.1815
伺	-10.1823
道路	-10.1825
敵國	-10.1831
則國	-10.1839
不忘	-10.184
其地	-10.1854
太陰	-10.1856
緯	-10.1859
可用	-10.1864
於國	-10.1864
先後	-10.1867
氣之	-10.1868
腸	-10.1877
異也	-10.1877
所貴	-10.1878
胥	-10.1896
數日	-10.1898
秦王	-10.19
七星	-10.1909
得位當晝	-10.1921
腦	-10.1922
示以	-10.1924
不盡	-10.193
縛	-10.1932
虎狼	-10.1932
易也	-10.1933
形者	-10.1933
孟氏曰	-10.1933
冷	-10.1934
柯	-10.1934
麟	-10.1934
邀	-10.1935
板	-10.1936
苛	-10.1939
鬱	-10.1939
切范曰	-10.1943
欽	-10.1943
恬	-10.1943
眉	-10.1944
排	-10.1945
牝	-10.1945
岸	-10.1947
瑕	-10.1948
弛	-10.1951
墓	-10.1952
而不以	-10.1953
疵	-10.1954
第四	-10.1956
珠玉	-10.1959
盜賊	-10.1959
察其	-10.1961
太初	-10.1963
然後可以	-10.1966
六十四	-10.1967
二君	-10.1972
一斤	-10.1976
其臣	-10.1985
盛衰	-10.1985
不應	-10.1988
易之	-10.199
三曰	-10.1991
地獄	-10.1996
攻城	-10.2003
不離	-10.2007
下有	-10.2007
施之	-10.2015
則能	-10.2023
立春	-10.2028
十七	-10.2031
之數也	-10.2033
不加	-10.2034
陽生	-10.2035
不惑	-10.2038
非有	-10.2041
三代	-10.2048
可以爲	-10.2051
于天	-10.2059
自是	-10.2061
〇陳皥曰	-10.2065
其外	-10.2067
非所以	-10.2078
若使	-10.2079
有命	-10.2079
故君子	-10.208
之力	-10.2082
五藏	-10.2089
三州	-10.2095
號曰	-10.2099
微妙	-10.21
曰某	-10.211
南極	-10.2126
三家	-10.2128
訾	-10.2136
德也	-10.2136
而當晝君子	-10.2141
義者	-10.2142
不遠	-10.2142
歲星	-10.2152
問於	-10.2164
欲得	-10.2164
之精也	-10.2172
勝也	-10.218
而忘	-10.2186
六合	-10.2191
〇朱子曰	-10.2206
之義也	-10.2211
銀	-10.2211
藝	-10.2216
雖多	-10.222
養生	-10.2221
遼	-10.2228
莫如	-10.2237
則謂之	-10.2247
非不	-10.2251
又況	-10.2252
霧	-10.226
曜	-10.2275
晏	-10.2277
人道	-10.2278
休息	-10.2283
敖	-10.2286
豕	-10.2288
言曰	-10.2291
祈	-10.2293
遵	-10.2294
墨子卷之	-10.2295
攘	-10.2295
豹	-10.2296
撲	-10.2296
柴	-10.2297
揮	-10.2297
棘	-10.2297
俾	-10.2298
憑	-10.2298
六月	-10.2298
須臾	-10.2299
蟻	-10.2299
睡	-10.23
瀆	-10.2301
宻	-10.2301
局	-10.2301
杪	-10.2302
翰	-10.2302
熾	-10.2302
狼	-10.2305
朴	-10.2308
曩	-10.2308
而退	-10.231
七十二	-10.231
零	-10.231
稅	-10.231
褒	-10.231
涸	-10.2311
汗	-10.2315
唐虞	-10.2316
葆	-10.2324
也賛曰	-10.2327
飢寒	-10.2328
皆爲	-10.2329
者為	-10.2334
運行	-10.2338
也又曰	-10.2338
四維	-10.2343
衆而	-10.2351
也初一	-10.2351
六甲	-10.2352
故謂之	-10.2353
未若	-10.2357
也次二	-10.2358
四面	-10.236
土地	-10.2361
三百六十日	-10.2362
范本	-10.2367
不測	-10.2371
不暇	-10.2375
使敵	-10.2376
真氣	-10.2376
鄭君	-10.2376
代之	-10.2389
將以	-10.2391
諸家	-10.2392
可勝	-10.2394
不能得	-10.2397
性也	-10.2402
主人	-10.2402
主之	-10.241
姓名	-10.2417
死亡	-10.2419
之失	-10.2421
在後	-10.2431
君也	-10.2437
輟	-10.2451
子弟	-10.2455
生人	-10.2458
在此	-10.2461
今以	-10.2465
大將	-10.2465
所不	-10.247
而巳	-10.2477
星辰	-10.2479
高下	-10.248
之體	-10.2493
當知	-10.2494
子産	-10.2497
之分	-10.2501
以來	-10.2502
分為	-10.2509
未知	-10.2519
之害	-10.2521
以救	-10.2523
而治	-10.2525
自以爲	-10.2533
所用	-10.2538
愧	-10.2553
同也	-10.2561
爲大	-10.2573
死於	-10.2583
貴於	-10.2588
一二	-10.2603
之宜	-10.2607
治病	-10.2607
之實	-10.2614
一陰	-10.2615
虎豹	-10.2622
焉故	-10.2623
乎曰	-10.2627
燧	-10.263
寓	-10.2631
平生	-10.2634
䘮	-10.2635
譬若	-10.2638
副	-10.2648
㑹	-10.2649
丈夫	-10.2655
黎	-10.2658
賢而	-10.2663
董	-10.2663
纔	-10.2665
鑑	-10.2665
桂	-10.2666
氐	-10.2666
葛	-10.2666
嬴	-10.2667
揆	-10.2667
俠	-10.2667
崖	-10.2667
洗	-10.2667
守其	-10.2667
打	-10.2668
闊	-10.2669
廪	-10.2669
亟	-10.2669
較	-10.267
祠	-10.267
叔孫	-10.2671
呪	-10.2672
即日	-10.2673
畧	-10.2673
巷	-10.2673
摧	-10.2675
楯	-10.2676
截	-10.2679
父兄	-10.2681
誡	-10.2682
林鍾	-10.2683
臻	-10.2689
法而	-10.2692
白公	-10.2695
此書	-10.2695
能以	-10.2695
未易	-10.2695
子罕	-10.2698
伐之	-10.2707
程子曰	-10.2721
多矣	-10.2725
未見	-10.2732
其力	-10.2746
好憎	-10.2753
許由	-10.2757
大矣	-10.2761
天命	-10.2762
之野	-10.2774
以濟	-10.2777
孰能	-10.2784
無異	-10.2786
倦	-10.2793
匈奴	-10.2794
其大	-10.2797
者也故曰	-10.2798
不服	-10.28
門户	-10.2801
景公	-10.2805
非所	-10.2806
不孝	-10.2815
之始	-10.2826
五百	-10.2846
應之	-10.2848
衆生	-10.2851
遠者	-10.2854
置之	-10.2863
不息	-10.2869
者言	-10.2871
之資	-10.2872
即是	-10.2885
地下	-10.2889
胃	-10.2891
天理	-10.2893
豈非	-10.2895
之序	-10.2895
將何	-10.2895
受之	-10.2896
必欲	-10.2899
無罪	-10.2903
於齊	-10.2912
終於	-10.292
之業	-10.2921
宫室	-10.2928
姦臣	-10.2931
勇者	-10.294
之制	-10.2958
礙	-10.2973
故言	-10.2974
嗜	-10.2976
雖然	-10.2982
形而	-10.2983
則天下	-10.2988
若是	-10.2996
無法	-10.3001
十九	-10.3004
仙道	-10.3012
少陽	-10.3015
得以	-10.3027
鈍	-10.3032
釜	-10.3032
也或問	-10.3032
項	-10.3039
曰臣	-10.304
乳	-10.3047
㝠	-10.3049
垢	-10.305
廷	-10.305
溪	-10.305
繳	-10.305
無術	-10.3051
綴	-10.3052
賂	-10.3052
阜	-10.3053
之源	-10.3053
聘	-10.3053
拊	-10.3055
嚮	-10.3055
松	-10.3059
粉	-10.3059
技	-10.306
熙	-10.3061
季孫	-10.3061
孔丘	-10.3062
尉繚子曰	-10.3062
胷	-10.3063
佳	-10.3063
朝夕	-10.3065
閔	-10.3066
挺	-10.3066
瘡	-10.3067
亦猶	-10.3069
思之	-10.3076
七月	-10.3076
缶	-10.3077
而至	-10.308
之明	-10.3087
喪其	-10.3087
矣故曰	-10.3096
舟車	-10.3101
曲直	-10.3106
莫之	-10.311
也李筌曰	-10.3112
國有	-10.312
五事	-10.3125
衛君	-10.3127
聞而	-10.3128
尚書	-10.3131
之官	-10.3132
未嘗不	-10.3134
不務	-10.314
乎若	-10.3145
何異	-10.3153
爲上	-10.3159
非無	-10.316
兵者	-10.3167
進而	-10.3169
無欲	-10.3179
哀公	-10.3181
用其	-10.3183
光明	-10.3184
軍士	-10.3188
不窮	-10.3191
之命	-10.3197
有大	-10.3204
政事	-10.3208
又以	-10.3211
於前	-10.3219
則當	-10.3223
者何	-10.3226
六陽	-10.324
天時	-10.3248
精氣	-10.325
二月	-10.3252
有天下	-10.3259
仁者	-10.3263
己之	-10.3264
術也	-10.3268
十四	-10.3268
者也夫	-10.3273
民無	-10.3275
小宋本作	-10.3276
自爲	-10.3277
匱	-10.3278
音聲	-10.3284
不任	-10.3285
以道	-10.3286
安可	-10.3286
不忠	-10.3291
有二	-10.33
不察	-10.33
聾	-10.3304
水上	-10.3305
非能	-10.3315
愚謂	-10.332
天一	-10.3321
人物	-10.3326
則知	-10.333
皆在	-10.3341
有備	-10.3359
氏曰	-10.3361
其根	-10.3366
暇	-10.3369
備之	-10.337
患也	-10.3371
進則	-10.3378
措	-10.3382
不戰	-10.3383
其光	-10.3385
至精	-10.3392
者能	-10.3392
煞	-10.3395
能令	-10.34
有德	-10.3402
隨之	-10.3404
五行之	-10.3406
警	-10.3409
立功	-10.3418
鮑	-10.3424
之費	-10.3425
壺	-10.3426
這	-10.343
婁	-10.3433
功成	-10.3435
駟	-10.3438
毅	-10.344
犀	-10.3442
在地	-10.3442
懦	-10.3443
耦	-10.3445
湛	-10.3447
潦	-10.3449
壓	-10.345
吸	-10.345
洲	-10.3451
贏	-10.3453
岀	-10.3453
編	-10.3454
浴	-10.3457
媚	-10.3458
麤	-10.3459
騁	-10.3461
簿	-10.3463
正月	-10.3463
污	-10.3463
畔	-10.3465
彭祖	-10.3465
本於	-10.3465
什	-10.3467
貧賤	-10.3468
動也	-10.3473
清濁	-10.348
者如	-10.3483
令尹	-10.3485
未幾	-10.3487
趙氏	-10.3497
二物	-10.35
奇兵	-10.35
毁譽	-10.3501
此理	-10.3505
四月	-10.3506
是故聖人	-10.3506
在北	-10.3515
小過	-10.3523
食之	-10.3528
不去	-10.3532
堅固	-10.3532
〇何氏曰	-10.3538
勢利	-10.3538
黄白	-10.354
無何	-10.3552
大王	-10.3566
士也	-10.3581
不獲	-10.3586
八月	-10.3586
利者	-10.3596
掇	-10.3598
得意	-10.3599
不傷	-10.3605
若不	-10.3613
曷	-10.3615
上下相	-10.3618
姦邪	-10.362
非常	-10.3626
而無所	-10.3632
不學	-10.3639
福禄	-10.3639
立冬	-10.3645
隂氣	-10.3647
不妄	-10.3649
善人	-10.3659
殺其	-10.3663
戰勝	-10.3668
不能相	-10.3668
家人	-10.3675
不堪	-10.3678
丘陵	-10.3682
爲義	-10.3686
齊之	-10.3699
使其	-10.3706
轉而	-10.3717
何以知	-10.3725
知者	-10.3726
當作	-10.3727
不失其	-10.3731
比於	-10.3737
說之	-10.3741
不取	-10.3741
造父	-10.3742
以生	-10.3745
盲	-10.3751
說者	-10.3756
有數	-10.3758
人能	-10.3766
百二十	-10.3771
在其	-10.3774
之前	-10.3788
而當夜	-10.3789
料敵	-10.379
入于	-10.3792
能自	-10.3792
之神	-10.3793
亂世	-10.3795
求其	-10.3799
䧟	-10.3809
以法	-10.3828
其衆	-10.3832
繞	-10.3834
日夜	-10.3837
失道	-10.3839
做	-10.3841
無益於	-10.3843
三寸	-10.3845
不亦	-10.3846
竅	-10.3855
不免於	-10.3856
與天地	-10.3857
挑	-10.3857
嗇	-10.3857
僻	-10.386
肩	-10.386
加十五日指	-10.3861
蓄	-10.3861
后稷	-10.3864
馴	-10.3866
不虞	-10.3866
股	-10.3867
櫓	-10.3867
韋	-10.3868
汲	-10.3868
陰生	-10.387
針	-10.387
辦	-10.387
誹	-10.387
磬	-10.3872
搆	-10.3872
壇	-10.3873
赫	-10.3873
亮	-10.3874
攺	-10.3875
驥	-10.3875
諱	-10.3876
避之	-10.3876
貟	-10.3876
煎	-10.3877
鑄	-10.3877
戍	-10.3881
學之	-10.3884
飲酒	-10.3884
必得	-10.3886
版	-10.3887
茅	-10.389
以象	-10.3891
請以	-10.3892
梯	-10.3892
太山	-10.3896
在南	-10.3897
消息	-10.3898
無名	-10.3903
白虎	-10.3911
襄王	-10.3913
飛鳥	-10.3915
之役	-10.3919
疑惑	-10.3927
道術	-10.3927
夜光	-10.3928
以三	-10.3942
以養	-10.3943
太守	-10.3944
其理	-10.3948
乃是	-10.395
歸於	-10.3962
師曠	-10.3974
之具	-10.3978
對待	-10.398
神丹	-10.3982
水草	-10.3983
明矣	-10.3985
五六	-10.3989
筋	-10.3989
本末	-10.3994
知人	-10.3997
則我	-10.4
之候	-10.4002
宣王	-10.4008
於無形	-10.4013
不得不	-10.4015
赦	-10.4017
弋	-10.4018
衣服	-10.4018
而利	-10.4018
大功	-10.4022
三五	-10.4022
文學	-10.4028
非獨	-10.4029
穆公	-10.403
堅白	-10.4032
長者	-10.4033
不得其	-10.4045
不勞	-10.4055
從此	-10.4058
之志	-10.4063
之迹	-10.4065
付	-10.407
不救	-10.4071
形名	-10.4072
王道	-10.408
趙王	-10.4084
五日	-10.4087
也謂	-10.4098
數年	-10.4104
刑德	-10.4109
以諭	-10.4114
固守	-10.4114
與道	-10.4117
所由	-10.4124
日月之	-10.4125
日用	-10.4126
辜	-10.4126
之言也	-10.4131
不疑	-10.4133
下降	-10.4136
復生	-10.4141
教人	-10.4149
天神	-10.415
徃來	-10.4159
枚	-10.4161
知此	-10.4166
之文	-10.4168
之深	-10.4168
人不能	-10.4172
便有	-10.4172
又何	-10.4174
始生	-10.4174
無聲	-10.4178
大明	-10.4183
已定	-10.4187
德之	-10.4189
甚於	-10.4192
之策	-10.4192
無可	-10.4196
九十	-10.4202
能得	-10.4205
相爲	-10.4211
而惡	-10.4216
八十	-10.4218
地則	-10.4226
自謂	-10.423
其智	-10.4232
之正	-10.4245
王公大人	-10.4245
中心	-10.4251
德行	-10.4253
足以知	-10.4255
以事	-10.4262
有九	-10.4262
亡也	-10.4263
註	-10.4263
鳩	-10.4275
一方	-10.4278
圭	-10.4279
知己	-10.4283
所以能	-10.4284
隣	-10.4287
相持	-10.4287
爪	-10.4288
人不	-10.429
迂	-10.429
銖	-10.4291
秒	-10.4291
融	-10.4294
誨	-10.4297
愆	-10.4298
雷霆	-10.4298
之政	-10.4299
宦	-10.4299
惰	-10.43
漠	-10.43
碧	-10.43
臞	-10.4301
爽	-10.4301
蛟	-10.4301
狸	-10.4302
遐	-10.4302
噬	-10.4303
尅	-10.4303
橫	-10.4303
怖	-10.4303
熏	-10.4304
隸	-10.4304
嫌	-10.4304
何足	-10.4304
仞	-10.4305
隳	-10.4305
脛	-10.4306
燎	-10.4306
鶡冠子曰	-10.4306
諧	-10.4307
府庫	-10.4307
藴	-10.4307
逍遥	-10.4307
以下	-10.4307
拾	-10.4307
秩	-10.4308
已成	-10.4308
曼	-10.4309
谿	-10.4309
掃	-10.4309
蕪	-10.431
抽	-10.431
淮南	-10.431
榦	-10.4312
暢	-10.4312
躡	-10.4312
韜	-10.4312
障	-10.4312
贖	-10.4312
橐	-10.4312
慘	-10.4313
倡	-10.4313
炙	-10.4313
懲	-10.4314
荷	-10.4314
牡	-10.4315
餐	-10.4317
盜跖	-10.4322
灑	-10.4323
一身	-10.4323
法之	-10.4324
娶	-10.4327
弄	-10.4327
諫曰	-10.4339
不事	-10.4343
王之	-10.4343
譽之	-10.4348
聽之	-10.4352
鄰國	-10.4353
齊桓公	-10.4354
制勝	-10.4356
從其	-10.4357
萬世	-10.4361
虚無	-10.4364
莫敢	-10.437
子胥	-10.4374
大吕	-10.4376
所作	-10.4395
官府	-10.4399
又復	-10.4403
矣是故	-10.4404
攻者	-10.4415
乘之	-10.442
相似	-10.4422
不急	-10.4426
但凡	-10.4431
而制	-10.4433
不曉	-10.4435
無禮	-10.4436
也小宋本	-10.4444
之術也	-10.4445
生數	-10.4445
有聲	-10.4448
之山	-10.445
鼓之	-10.4452
雄黄	-10.4453
死後	-10.4461
自取	-10.4463
貴之	-10.4466
一云	-10.4474
而終	-10.4476
讀書	-10.4478
禮之	-10.4488
人民	-10.4489
城中	-10.4489
者先	-10.4491
人人	-10.4497
法則	-10.4508
山之	-10.4521
不作	-10.4528
恐其	-10.4529
所出	-10.4533
太虚	-10.4537
上黨	-10.4546
左行	-10.455
以喻	-10.455
也若夫	-10.4556
不可以爲	-10.4558
一變	-10.4559
皆不	-10.4569
十餘	-10.4574
鴈	-10.458
有能	-10.4581
過也	-10.4582
見利	-10.4584
之路	-10.4585
以制	-10.4587
盡矣	-10.4593
故得	-10.4603
日出	-10.4605
次之	-10.461
之巧	-10.4616
變者	-10.4621
所利	-10.4625
故其	-10.4627
必爲	-10.463
盡也	-10.4633
而難	-10.4638
所惡	-10.4642
無備	-10.4644
愚曰	-10.4646
斬之	-10.4648
爲天子	-10.4648
也余	-10.4649
撰	-10.4649
後有	-10.4655
乃始	-10.4656
怒而	-10.4661
既已	-10.4661
之狀	-10.4663
則止	-10.4665
黄道	-10.4676
文子	-10.4677
甲兵	-10.4679
而强	-10.468
猶有	-10.4688
不殺	-10.4688
有變	-10.4696
乎此	-10.4697
以攻	-10.4707
正直	-10.4711
故無	-10.4723
九月	-10.4725
夾鍾	-10.4728
汜	-10.4733
寂	-10.4743
悍	-10.4744
燿	-10.4746
鐸	-10.4751
奴	-10.4751
狄	-10.4752
緒	-10.4753
南吕	-10.4754
吾所	-10.4756
菜	-10.4758
段	-10.4758
忤	-10.4759
紹	-10.4759
募	-10.4759
耽	-10.476
慝	-10.476
街	-10.476
燔	-10.4761
畝	-10.4762
軀	-10.4762
研	-10.4762
績	-10.4762
扁	-10.4763
陂	-10.4764
酸	-10.4764
禳	-10.4765
洪範	-10.4765
不可使	-10.4765
輻	-10.4766
屏	-10.4767
滄海	-10.4767
僅	-10.4767
羙	-10.4767
緑	-10.4767
替	-10.4768
該	-10.4768
此三	-10.4769
贍	-10.4769
儒墨	-10.477
小宋	-10.4771
潤澤	-10.4772
汁	-10.4774
此說	-10.4778
叅	-10.4779
本一	-10.4779
刋	-10.478
詘	-10.4781
教之	-10.4781
三分	-10.4782
受其	-10.4784
之辭	-10.4786
昭昭	-10.4787
一本作	-10.4795
動靜	-10.4805
為一	-10.4806
群臣	-10.4806
智也	-10.4807
二十七	-10.4807
以五	-10.4818
論之	-10.4819
命之	-10.482
晋人	-10.4824
於秦	-10.4827
箕子	-10.4829
立秋	-10.483
者乃	-10.4834
和氣	-10.4836
昭侯	-10.4843
染於	-10.4843
不安	-10.4846
外物	-10.4848
血氣	-10.485
帝王	-10.4853
故民	-10.4859
太平	-10.4859
二百	-10.4861
致遠	-10.4863
其政	-10.4869
名爲	-10.4874
王本作	-10.4875
乃曰	-10.4882
不克	-10.4883
暴亂	-10.4884
時有	-10.4887
陽虎	-10.4887
顓頊	-10.4887
六畜	-10.4892
大破之	-10.4896
之運	-10.4896
備矣	-10.4903
能使	-10.4908
曾子	-10.4912
所能	-10.4918
之所在	-10.492
而行之	-10.4921
八十一	-10.493
行則	-10.4931
黄金	-10.4934
尚同	-10.4934
而勿	-10.4937
争利	-10.4941
相生	-10.4955
魯君	-10.4961
衆也	-10.497
不爭	-10.4974
不齊	-10.4975
間者	-10.4993
相連	-10.4996
者天之	-10.5005
之憂	-10.501
病也	-10.5016
當以	-10.5018
於敵	-10.5019
夫差	-10.5022
復有	-10.5026
不移	-10.5029
先至	-10.5029
言語	-10.5033
未至	-10.5039
律吕	-10.5041
爲臣	-10.5043
死戰	-10.5045
也且夫	-10.5062
必知	-10.5064
守一	-10.5065
則勝	-10.5065
之餘	-10.5065
以義	-10.5072
匹夫	-10.5076
於朝	-10.5077
則可	-10.5089
也〇孟氏曰	-10.5091
不可爲	-10.5094
必無	-10.5095
舉兵	-10.51
未發	-10.5103
不廢	-10.5103
至則	-10.5105
外内	-10.5114
之木	-10.512
不起	-10.5126
寺	-10.5131
分數	-10.5135
小利	-10.5139
必待	-10.5147
土也	-10.5155
至誠	-10.5155
槩	-10.5164
情欲	-10.5166
地仙	-10.5171
節按	-10.5193
我者	-10.5195
必將	-10.5197
生萬物	-10.52
也易曰	-10.5207
可不	-10.5208
孫子註解卷之	-10.5217
之月	-10.522
哲	-10.5221
今從二宋陸王本	-10.5221
捉	-10.5221
則得	-10.5223
昴	-10.5223
愚人	-10.5223
二三	-10.5225
憲	-10.5225
今有	-10.5226
幣	-10.5226
羌	-10.5228
傑	-10.5228
煖	-10.5229
皆然	-10.5229
稼	-10.5229
失位當夜	-10.523
卯酉	-10.523
演	-10.5231
酌	-10.5231
斲	-10.5231
岳	-10.5231
淡	-10.5232
孫叔敖	-10.5233
爐	-10.5233
雛	-10.5233
六十四卦	-10.5233
贅	-10.5233
减	-10.5233
撞	-10.5234
級	-10.5234
璞	-10.5235
艱	-10.5235
芻	-10.5236
五臟	-10.5236
裝	-10.5237
祐	-10.5237
人之有	-10.5238
蟬	-10.5238
綿	-10.5238
貯	-10.5238
黜	-10.5238
酣	-10.5238
仗	-10.5239
以取	-10.5239
濯	-10.5239
邇	-10.5239
遜	-10.5239
梟	-10.524
經緯	-10.524
菑	-10.524
罵	-10.5241
劣	-10.5241
瘁	-10.5242
睦	-10.5243
釁	-10.5243
株	-10.5243
洿	-10.5243
牖	-10.5244
衮	-10.5244
炊	-10.5245
數千	-10.5245
戀	-10.5245
婚	-10.5246
太上感應篇卷之	-10.5246
不令	-10.5246
信之	-10.5247
兕	-10.5247
第三	-10.5248
敏	-10.5248
䘏	-10.525
旌	-10.525
貨財	-10.5254
跂	-10.5257
不改	-10.5258
老子曰	-10.5262
皆可	-10.5264
不便	-10.5265
繩墨	-10.5267
丹田	-10.5268
車騎	-10.527
尊卑	-10.5271
賢不肖	-10.5272
文侯	-10.5274
衆寡	-10.5274
去其	-10.5277
矣若	-10.5279
親戚	-10.5284
自守	-10.529
既濟	-10.5294
知彼	-10.5297
人臣之	-10.5297
損益	-10.5298
敵人之	-10.5299
以觀	-10.53
豈可	-10.5303
著於	-10.5305
死也	-10.5305
以類	-10.5308
也〇又曰	-10.531
廣大	-10.5311
近習	-10.5311
生氣	-10.5312
正道	-10.5316
亦如	-10.5318
故為	-10.5319
不宜	-10.5319
玄黄	-10.5325
九地	-10.5327
命也	-10.5329
入於	-10.533
人身	-10.5332
良馬	-10.5333
之師	-10.5334
欲求	-10.534
大者	-10.5342
售	-10.5347
甚矣	-10.535
得仙	-10.5351
安危	-10.5358
陽升	-10.536
不能以	-10.5365
無非	-10.5367
於彼	-10.537
此二	-10.5375
弗知	-10.5376
引兵	-10.538
太祖	-10.5385
先據	-10.5387
八極	-10.5399
未足	-10.54
感應	-10.5403
名者	-10.5409
權變	-10.5409
財物	-10.541
及至	-10.5413
而還	-10.5418
高而	-10.542
然後可	-10.5425
三光	-10.5432
此道	-10.5433
不休	-10.5447
備也	-10.5454
無已	-10.5455
其變	-10.5457
始終	-10.5458
勝者	-10.5459
本無	-10.546
君曰	-10.5461
孝子	-10.5462
不避	-10.5462
令其	-10.5463
言之則	-10.5469
然其	-10.5471
八節	-10.5475
屬陽	-10.5477
不拔	-10.548
少陰	-10.5483
待敵	-10.5484
不見其	-10.5485
清明	-10.549
矣抱朴子曰	-10.5492
或云	-10.5494
事無	-10.5499
反間	-10.5503
經世	-10.5504
有言	-10.5504
用力	-10.5507
利於	-10.5513
故雖	-10.5515
難知	-10.5517
自得	-10.5521
主者	-10.5524
從者	-10.553
曰公	-10.5532
而明	-10.5538
盡力	-10.554
子夏	-10.5543
俄	-10.5544
之要	-10.555
常在	-10.5558
一體	-10.5558
亡國之	-10.5563
然後能	-10.5566
其内	-10.5569
三千	-10.557
又不	-10.5571
度世	-10.5575
晋陽	-10.5581
爲非	-10.5586
奪其	-10.5588
勒	-10.559
一元	-10.56
與同	-10.561
為正	-10.5616
伐齊	-10.5619
未聞	-10.562
所不能	-10.562
其禍	-10.5623
而務	-10.5634
無得	-10.5636
也君子	-10.5638
陰陽之	-10.5638
辰為	-10.5641
子墨子言曰	-10.5644
艮卦	-10.5644
一世	-10.5646
絶其	-10.5647
生明	-10.5649
四十九	-10.565
過於	-10.5655
貴其	-10.5655
五尺	-10.5655
不可復	-10.5656
使不得	-10.566
不平	-10.5662
五千	-10.5674
以行	-10.5674
達者	-10.5677
重人	-10.5679
立而	-10.5681
所說	-10.5681
聞之曰	-10.5682
於淵	-10.5694
遂得	-10.5705
有間	-10.5707
而使	-10.5711
薛	-10.5712
變易	-10.5713
踦	-10.5713
沖	-10.5714
未生	-10.5715
燕王	-10.5715
罕	-10.5716
賁	-10.5718
不喜	-10.572
不貴	-10.5721
唫	-10.5722
煉	-10.5723
睹	-10.5724
合戰	-10.5726
圃	-10.5726
荀	-10.5728
繡	-10.5728
梓	-10.5729
絞	-10.573
揜	-10.5731
摶	-10.5731
汞	-10.5731
沛	-10.5732
狎	-10.5732
栗	-10.5733
裹	-10.5733
於水	-10.5733
豺狼	-10.5734
扁鵲	-10.5734
殽	-10.5734
殫	-10.5734
莒	-10.5735
勞而	-10.5735
頸	-10.5735
今從范王本	-10.5735
鏤	-10.5735
跌	-10.5736
三軍之衆	-10.5736
漫	-10.5736
婆	-10.5736
狀如	-10.5736
譴	-10.5737
庖	-10.5737
弼	-10.5737
扣	-10.5738
蓮	-10.5738
肌膚	-10.5739
漿	-10.5739
鸞	-10.5739
懈	-10.5739
几	-10.574
水火土石	-10.574
攫	-10.5741
晋文公	-10.5741
靖	-10.5743
遥	-10.5743
揭	-10.5743
謾	-10.5743
滌	-10.5743
東西南北	-10.5744
澗	-10.5745
錦	-10.5746
龐子曰	-10.5746
牒	-10.5746
叢	-10.5747
湖	-10.5748
枝葉	-10.5748
諛	-10.5749
蝕	-10.575
桐	-10.575
弭	-10.5752
愁	-10.5752
呈	-10.5754
權衡	-10.5759
所有	-10.576
曰今	-10.5767
及於	-10.5769
何也曰	-10.577
林宗	-10.5772
者必有	-10.5773
用六	-10.5774
中孚	-10.5777
不敬	-10.578
動作	-10.5783
三苗	-10.5783
由乎	-10.5785
卿相	-10.5785
朱雀	-10.5786
不能制	-10.5787
者不以	-10.5788
郎中	-10.5802
一升	-10.5803
華蓋	-10.5814
屬陰	-10.582
勇力	-10.5821
之大者	-10.5824
而擊之	-10.5824
爲物	-10.5827
而後能	-10.5828
之交	-10.5829
敵若	-10.5831
百餘	-10.5832
周禮	-10.5834
何則	-10.5836
説在	-10.584
有苗	-10.5841
尚有	-10.5845
亦自	-10.5845
而卒	-10.5848
則難	-10.585
莊王	-10.585
者或	-10.585
分别	-10.5853
極而	-10.5857
曹公曰	-10.5859
自知	-10.5861
輕兵	-10.5863
太陽	-10.5865
除之	-10.5865
曰不可	-10.5865
之氣也	-10.5867
八風	-10.5867
貴者	-10.5874
天體	-10.5877
于時	-10.5881
發於	-10.5883
盡於	-10.5885
有六	-10.5885
楚人謂	-10.589
匠人	-10.5892
則下	-10.5894
難以	-10.5896
與我	-10.59
旨	-10.5912
智能	-10.5914
保其	-10.5917
雖不	-10.5919
乾卦	-10.5921
之象也	-10.5922
深入	-10.5923
相見	-10.5923
非其人	-10.5925
忽然	-10.5925
而從	-10.5925
其辭	-10.5931
勝則	-10.5932
石也	-10.5935
之疾	-10.5937
木石	-10.5947
而失	-10.5949
此法	-10.5951
圍之	-10.596
治民	-10.5963
一旦	-10.5965
今世	-10.5971
以爲治	-10.5972
四星	-10.5974
人力	-10.5975
之所能	-10.5975
獨立	-10.5979
服食	-10.5979
境内	-10.5981
木之	-10.5981
明其	-10.6
獨見	-10.6
成敗	-10.6001
於己	-10.6013
世而	-10.6015
未定	-10.6021
〇天	-10.6035
此所以	-10.6039
大喜	-10.6044
待之	-10.6045
六氣	-10.6047
之過	-10.6048
勿令	-10.6052
吏卒	-10.6054
太上感應篇卷之二十	-10.6056
必能	-10.6056
如一	-10.6069
安知	-10.6078
耳目之	-10.6086
智士	-10.6087
以威	-10.6088
簡子	-10.6092
猶不	-10.6094
金水	-10.6103
功而	-10.6107
會稽	-10.6121
必使	-10.6122
分明	-10.6124
所載	-10.6124
不敗	-10.6133
四九	-10.6134
二分	-10.6135
為火	-10.6137
抱朴子答曰	-10.614
畏之	-10.6155
近之	-10.6156
離散	-10.6157
若乃	-10.616
死人	-10.6166
雖欲	-10.6167
投之	-10.617
師曰	-10.617
而神	-10.6171
皇帝	-10.6172
乃能	-10.6172
無量	-10.6173
欲令	-10.6179
周天	-10.6182
與物	-10.6183
罪人	-10.6185
自來	-10.619
故有是象	-10.6192
可乎	-10.6198
天地間	-10.62
軍中	-10.6203
不苟	-10.6208
一念	-10.621
般	-10.621
四尺	-10.6233
羲	-10.6234
方一州	-10.6236
浚	-10.6241
勃	-10.6241
晷	-10.6242
夬	-10.6243
牲	-10.6246
惑也	-10.6246
死力	-10.6247
跳	-10.6248
奎	-10.625
彗	-10.625
嗟	-10.6251
甲乙	-10.6252
擣	-10.6252
咨	-10.6252
此以	-10.6253
屈伸	-10.6253
而可	-10.6254
韓非子卷之十	-10.6254
愠	-10.6255
淨	-10.6255
毀	-10.6256
舍之	-10.6256
觴	-10.6256
渭	-10.6256
膳	-10.6257
懈怠	-10.6257
槁	-10.6257
挑戰	-10.6258
裔	-10.6258
瑞	-10.6259
拯	-10.6259
語曰	-10.6259
頑	-10.6259
蠹	-10.626
夷狄	-10.626
寜	-10.626
庚辛	-10.626
斃	-10.626
内無	-10.6261
黿	-10.6261
膚	-10.6261
踞	-10.6262
筐	-10.6263
劒	-10.6263
鼈	-10.6263
砥	-10.6264
盈縮	-10.6264
僚	-10.6264
侏儒	-10.6265
潭	-10.6265
諂	-10.6266
張孟談	-10.6266
殖	-10.6267
犀首	-10.6267
抱朴子内篇卷之十	-10.6267
展	-10.6268
宛	-10.6268
纍	-10.6269
朗	-10.6269
登第	-10.6269
凋	-10.6269
詠	-10.627
彘	-10.6271
蘆	-10.6271
艷	-10.6272
場	-10.6272
玉帛	-10.6272
二十四氣	-10.6273
不進	-10.6274
坑	-10.6274
孫臏	-10.6274
鬪	-10.6275
乍	-10.6276
顔色	-10.6276
麾	-10.6278
呼吸	-10.6279
頌	-10.6279
藍	-10.6282
用兵之法	-10.6284
斛	-10.6284
九竅	-10.6284
爲惡	-10.6285
無人	-10.6286
布衣	-10.6291
處於	-10.6293
先儒	-10.6297
使我	-10.6298
是神	-10.6301
免於	-10.6302
春夏	-10.6304
識者	-10.6304
吴越	-10.6305
積聚	-10.6309
孟子	-10.6309
布施	-10.631
公孫	-10.631
霸王	-10.6312
矣是以	-10.6317
抱朴子外篇卷之三十	-10.6317
童子	-10.6317
自當	-10.6317
曰寡人	-10.6323
道家	-10.633
也所以	-10.6331
是時	-10.6334
諸軍	-10.6334
在位	-10.6336
風俗	-10.6349
假令	-10.6351
之材	-10.6356
誅之	-10.6357
行列	-10.6358
司空	-10.6359
惠王	-10.6362
四曰	-10.6364
有力	-10.6367
大雪	-10.6368
所至	-10.6369
精誠	-10.6372
無物	-10.6373
而當夜小人	-10.6377
故明主	-10.638
未盡	-10.6382
元始	-10.6383
入室	-10.6385
而獨	-10.6386
鄭人	-10.6387
易以	-10.6389
聲色	-10.6391
而況	-10.6392
應變	-10.6394
其首	-10.6395
善於	-10.6396
也一說	-10.6398
勇士	-10.6408
越王	-10.6408
神字	-10.6413
而取之	-10.6416
學士	-10.6416
數百	-10.6421
養性	-10.6423
魏王	-10.6425
許之	-10.6427
而不敢	-10.6431
要在	-10.6432
攻伐	-10.6433
埋	-10.6434
雨水	-10.6436
立夏	-10.6437
知敵情	-10.644
經云	-10.6444
居處	-10.645
不獨	-10.6451
皆如	-10.6453
愛利	-10.6456
刑政	-10.6461
在焉	-10.6463
真君	-10.6464
而爲之	-10.6464
不問	-10.647
高者	-10.648
遠而	-10.6487
言無	-10.6488
太上感應篇卷之十	-10.6489
君子不	-10.6491
反爲	-10.6494
知之者	-10.6496
藪	-10.6499
近者	-10.6501
何足以	-10.6502
至大	-10.6503
揚子	-10.6507
美人	-10.651
雖在	-10.6513
二公	-10.6516
無外	-10.6516
學道	-10.652
未成	-10.6524
加之以	-10.6525
託於	-10.6525
乎故	-10.6533
三星	-10.6539
攻戰	-10.6539
日日	-10.6547
哉故	-10.655
而使之	-10.6551
中氣	-10.6559
和合	-10.6567
名山	-10.6567
退而	-10.6569
賢士	-10.6574
之備	-10.6575
周子	-10.658
但以	-10.6583
相愛	-10.6586
六六	-10.659
不能救	-10.6591
見一	-10.6594
以見	-10.6594
嶽	-10.6595
其精	-10.6596
以廣	-10.6597
輕舉	-10.6597
地利	-10.6602
與天	-10.6607
不可得也	-10.6613
不倦	-10.6613
尚賢	-10.6613
之衆	-10.6619
之元	-10.6621
魯人	-10.6623
用心	-10.6627
而輕	-10.6631
此非	-10.6649
於事	-10.665
所求	-10.6652
曰諾	-10.6653
而外	-10.6654
傳之	-10.6659
而亡	-10.6659
存焉	-10.6661
生成	-10.6662
在其中	-10.6668
大敗	-10.6668
乎地	-10.6671
不親	-10.6674
有異	-10.6675
不能無	-10.6677
死矣	-10.6678
天子之	-10.6682
之賢	-10.6683
其時	-10.6688
民力	-10.6689
而起	-10.669
相救	-10.6693
病者	-10.6696
所守	-10.6697
子午	-10.6699
失時	-10.67
則無以	-10.6703
十二萬九千六百	-10.6704
物而	-10.6709
臍	-10.6715
以定	-10.6718
空中	-10.6719
寐	-10.6725
以我之	-10.6728
於衆	-10.6732
危亡	-10.6739
氣力	-10.6739
而居	-10.6739
大如	-10.674
人自	-10.6742
三國	-10.6743
無足	-10.6744
而得之	-10.6753
物物	-10.6753
而身	-10.6755
停	-10.6757
者常	-10.6758
功也	-10.6763
久則	-10.6767
浩	-10.6768
不違	-10.6769
朕	-10.6775
請問	-10.6775
貴乎	-10.6776
不和	-10.6777
是爲	-10.6778
當日之晝	-10.6779
部二家	-10.6785
中藏	-10.6785
以亂	-10.6786
軍之	-10.6794
平公	-10.6796
方術	-10.6797
阻	-10.6797
程子	-10.6798
臘	-10.6799
異日	-10.6799
霍	-10.68
幕	-10.68
堅守	-10.6801
喙	-10.6802
阨	-10.6803
臯	-10.6807
今從王本	-10.6807
奄	-10.6808
方二州	-10.6809
課	-10.681
沾	-10.681
璽	-10.681
授之	-10.6811
蓍	-10.6813
崔	-10.6814
欒	-10.6814
愛其	-10.6815
峭	-10.6815
狡	-10.6816
頻	-10.6816
蹇	-10.6816
逮至	-10.6817
莖	-10.6817
恚	-10.6817
迴	-10.6818
携	-10.6819
蔚	-10.6819
袁	-10.6819
頽	-10.6819
不美	-10.6819
孽	-10.6819
栢	-10.682
酋	-10.682
醇	-10.6821
堞	-10.6822
翠	-10.6822
以和	-10.6824
奔走	-10.6824
僇	-10.6824
陛下	-10.6825
柰何	-10.6825
鉛	-10.6825
縻	-10.6826
利在	-10.6826
縷	-10.6826
欠	-10.6826
組	-10.6826
聰明	-10.6826
咫尺	-10.6826
廟堂	-10.6827
天原發微卷之十	-10.6827
萃	-10.6828
斫	-10.6828
供養	-10.6828
出奇	-10.6828
汎	-10.6829
嶮	-10.6829
左右前後	-10.6829
館	-10.6829
叩	-10.683
駮	-10.683
閱	-10.6831
妍	-10.6832
闡	-10.6832
岐	-10.6832
沽	-10.6832
斷穀	-10.6833
喉	-10.6835
化也	-10.6835
徽	-10.6839
恐懼	-10.6844
無害	-10.6845
水銀	-10.685
比干	-10.685
宰相	-10.6852
識之	-10.6853
人生	-10.6855
外無	-10.6857
白刃	-10.686
者不必	-10.6862
守職	-10.687
官爵	-10.687
圖書	-10.6872
兩端	-10.688
興師	-10.688
糧道	-10.6884
十二會	-10.6886
一箇	-10.6891
二千	-10.6892
之樂	-10.6894
以兵	-10.6898
月建	-10.69
善言	-10.6901
玄武	-10.6903
爲人臣者	-10.6903
必至	-10.6904
政教	-10.6908
極則	-10.691
軍旅	-10.6915
三方	-10.6915
以御	-10.6917
一寸	-10.692
家之	-10.6924
兵强	-10.693
不煩	-10.693
南陽	-10.6936
晦朔	-10.695
之法也	-10.6953
一夕	-10.6955
賢於	-10.6957
地上	-10.696
目視	-10.6962
也昔者	-10.6963
危矣	-10.6969
山名	-10.697
七年	-10.6971
而不用	-10.6971
也子墨子曰	-10.6975
縣令	-10.6976
根本	-10.6976
而任	-10.6977
必須	-10.6978
一語	-10.6982
帝王之	-10.6986
至乾	-10.6989
何不	-10.699
下者	-10.6991
形之	-10.6994
先人	-10.6995
楚國	-10.6997
則生	-10.6997
盲者	-10.6998
勝於	-10.7001
火之	-10.7004
兼愛	-10.7007
正也	-10.7009
爲法	-10.7011
身中	-10.7015
大過	-10.7018
赤子	-10.7021
以聽	-10.7024
二字	-10.7026
守備	-10.7034
者猶	-10.7034
者道之	-10.7039
有一人	-10.704
非正	-10.7043
以分	-10.7045
反覆	-10.7046
南面	-10.7048
亦當	-10.7048
萬變	-10.7049
以報	-10.7061
不達	-10.7067
而實	-10.7067
姦人	-10.7068
遠也	-10.7072
不戰而	-10.7073
不須	-10.7074
者得	-10.7077
雖無	-10.7082
術者	-10.7082
而食	-10.7084
之所以爲	-10.7084
無限	-10.7087
權勢	-10.7088
法制	-10.7089
脩其	-10.7092
若敵	-10.7093
用此	-10.7097
得其宜	-10.7101
明察	-10.7102
之報	-10.7105
亦得	-10.7111
鑠	-10.7112
守者	-10.7121
我有	-10.7124
為本	-10.7124
不下	-10.713
聞其	-10.7131
者矣	-10.7131
吾之	-10.7141
則失	-10.7142
各自	-10.7142
兊	-10.7144
又當	-10.7144
有四	-10.7145
六爻	-10.7145
者勝	-10.7148
以通	-10.7154
不然則	-10.7155
莫若	-10.7157
皆當	-10.7158
毁之	-10.7168
互相	-10.7174
其他	-10.7174
制之	-10.7177
之亂	-10.7179
之歲	-10.7185
太公曰	-10.7186
爲陽	-10.719
是以聖人	-10.7193
其足	-10.7194
諸神	-10.7195
體道	-10.7196
第三十	-10.7199
而取	-10.72
人曰	-10.7207
明白	-10.721
百家	-10.7215
盡則	-10.722
其類	-10.7228
能致	-10.7228
所長	-10.7232
軍争	-10.7235
之容	-10.7239
各有所	-10.7244
六星	-10.7244
小子	-10.725
郢	-10.7251
不恃	-10.7255
法術	-10.7255
嚴刑	-10.7258
而誅	-10.7259
脩短	-10.7266
彼我	-10.7266
不時	-10.7269
不可輕	-10.7272
至微	-10.7273
又為	-10.7281
者豈	-10.7283
出乎	-10.7301
曰凡	-10.7302
當晝	-10.7306
此心	-10.7306
易其	-10.7308
謀也	-10.7312
子發	-10.7312
破之	-10.7313
治世	-10.7314
三王	-10.7315
有定	-10.7318
之表	-10.732
能勝	-10.7324
各異	-10.7326
止之	-10.7329
腎氣	-10.733
無過	-10.7331
人必	-10.7333
無度	-10.7339
相乘	-10.7342
小者	-10.7343
得罪	-10.7346
乃知	-10.7346
何所	-10.7348
一朝	-10.7348
何以知其然也	-10.7351
衣冠	-10.7359
敗之	-10.7361
異於	-10.7361
命而	-10.7364
圈	-10.7365
炳	-10.7367
出而	-10.737
片	-10.7371
退則	-10.7371
患於	-10.7372
黒	-10.7376
鄒	-10.7376
吏民	-10.7377
莽	-10.7378
敢問	-10.7379
枕	-10.738
我能	-10.7381
皓	-10.7383
必取	-10.7385
塹	-10.7386
告曰	-10.7387
不傳	-10.7389
舅犯	-10.739
太簇	-10.7391
昆	-10.7392
遯	-10.7395
卉	-10.7395
表裏	-10.7396
熒	-10.7396
允	-10.7396
睟	-10.7398
四肢	-10.7401
豚	-10.7401
冢	-10.7401
叟	-10.7402
甕	-10.7402
忒	-10.7402
項羽	-10.7402
勳	-10.7402
厄	-10.7404
鈆	-10.7404
蛟龍	-10.7405
覘	-10.7405
肌	-10.7405
而遠	-10.7405
認	-10.7405
蛤	-10.7405
茹	-10.7406
暖	-10.7406
裳	-10.7406
股肱	-10.7406
恠	-10.7407
尼	-10.7408
莫大於	-10.7408
陣	-10.7408
俛	-10.7409
蹶	-10.7409
杯	-10.741
鑪	-10.741
之家	-10.741
齋鮑雲龍景翔編著虚谷方回萬里校正	-10.741
悶	-10.741
至今	-10.741
訖	-10.7411
壹	-10.7411
誥	-10.7411
隧	-10.7411
穽	-10.7411
微言	-10.7412
詢	-10.7412
墳	-10.7412
懾	-10.7413
標	-10.7413
淹	-10.7413
縱横	-10.7413
魚鼈	-10.7414
纏	-10.7414
貺	-10.7414
循環	-10.7414
浪	-10.7414
確	-10.7415
膝	-10.7415
亦可以	-10.7415
桎梏	-10.7415
巾	-10.7415
麋鹿	-10.7416
漂	-10.7416
稻	-10.7416
秋毫	-10.7416
商鞅	-10.7416
共工	-10.7417
干戈	-10.7418
神化	-10.7419
軾	-10.7419
謟	-10.7419
絳宫	-10.742
芬	-10.742
聊	-10.742
此數	-10.742
泛	-10.7421
曰若	-10.7421
刑戮	-10.7422
輦	-10.7422
六十卦	-10.7423
形於	-10.7424
世主	-10.7424
雨露	-10.7424
加之	-10.7424
娱	-10.7424
呉	-10.7428
四鄰	-10.7429
河伯	-10.7429
飢渴	-10.743
菽	-10.743
清靜	-10.7432
不可不察也	-10.7433
誘之	-10.7433
九地之	-10.7434
蘇秦	-10.7436
十尺	-10.7439
導引	-10.7442
千萬	-10.7444
兩儀	-10.7446
星紀	-10.7446
瓜	-10.7446
卑賤	-10.7447
日為	-10.7448
不許	-10.7449
曰吾聞	-10.7451
昭王	-10.7454
二年	-10.7456
河東	-10.746
孟子曰	-10.746
嵩山	-10.7461
農夫	-10.7465
高也	-10.7469
賢聖	-10.7471
地以	-10.7474
山澤	-10.7477
為體	-10.7478
其能	-10.7482
便於	-10.7484
徯	-10.7484
器也	-10.7488
月行	-10.7489
惠子	-10.7491
白也	-10.7493
在東	-10.7493
黄老	-10.7496
獲罪	-10.7497
為水	-10.7497
田常	-10.7497
千歳	-10.7499
城門	-10.7501
先王之道	-10.7502
猶未	-10.7503
相交	-10.7504
賢愚	-10.7505
室中	-10.751
祝曰	-10.7514
宋陸本	-10.7517
無以異	-10.752
察於	-10.7525
曰何	-10.7525
之卦	-10.7525
不逮	-10.7531
擊其	-10.7534
國人	-10.7536
弗敢	-10.7538
出處	-10.7543
可知矣	-10.7544
之主也	-10.7545
物有	-10.7549
視聽	-10.7551
不可得而	-10.7554
可行	-10.7554
使之然	-10.7554
不悅	-10.7557
既以	-10.7558
吾聞	-10.756
來者	-10.7564
陽數	-10.7571
而莫	-10.7571
有益	-10.7571
危難	-10.7574
耳若	-10.7574
諾	-10.7574
足而	-10.7575
文字	-10.7576
月為	-10.7578
齊國	-10.758
不辜	-10.7581
而責	-10.7581
大利	-10.7584
高祖	-10.7592
情性	-10.7594
各以	-10.7596
於後	-10.7599
之甚	-10.7601
三才	-10.7605
部一家	-10.7608
即位	-10.7608
攻守	-10.7609
吴子	-10.7611
行義	-10.7614
之藥	-10.7619
俄而	-10.7621
其口	-10.7621
遣使	-10.7636
無以自	-10.7641
餌之	-10.7641
人之用	-10.7642
以勸	-10.7647
其要	-10.7655
專任	-10.7661
欣	-10.7661
有可	-10.7665
四為	-10.767
勝敗	-10.7673
在中	-10.7674
入水	-10.7676
而去之	-10.7677
疑之	-10.768
重於	-10.768
周旋	-10.7681
等也	-10.7698
下無	-10.7699
而好	-10.7704
欲與	-10.7714
不給	-10.7716
神也	-10.7717
之吏	-10.7719
是鬼	-10.7723
大寒	-10.7725
法禁	-10.7727
五間	-10.7729
禁也	-10.7729
盛也	-10.7731
用法	-10.7733
世有	-10.7733
得志	-10.7735
者少	-10.7741
丈人	-10.7744
老陽	-10.7745
其威	-10.7752
上聖	-10.7754
多有	-10.7754
之間而	-10.7755
其所欲	-10.7755
之機	-10.7758
之所生也	-10.7759
地方	-10.7766
圖之	-10.777
不重	-10.777
已上	-10.7775
以火	-10.7775
釋之	-10.7776
陷於	-10.778
有國	-10.7781
塞其	-10.7782
成王	-10.7787
成就	-10.7792
亦復	-10.7799
生水	-10.7802
衆人之	-10.7808
不在於	-10.7815
瑶	-10.7816
用兵之	-10.7818
下流	-10.7825
則氣	-10.7826
不肖者	-10.7827
相親	-10.7828
計者	-10.7843
隕	-10.7845
失其所	-10.7845
千餘	-10.7851
不接	-10.7859
平地	-10.7859
皆知	-10.786
疑也	-10.7866
之良	-10.7866
但能	-10.7866
乃以	-10.7869
陽中	-10.7869
終不可	-10.7871
離也	-10.7871
爲子	-10.7873
以力	-10.7873
順其	-10.788
乎天	-10.788
大藥	-10.7883
五人	-10.7886
於身	-10.7898
朱鳥	-10.7899
而發	-10.7904
之所生	-10.7906
得位	-10.7911
萬乘之	-10.7911
起兵	-10.7917
無他	-10.7923
自稱	-10.7925
所存	-10.7929
無能	-10.7938
便可	-10.794
無射	-10.7944
將有	-10.7945
伏兵	-10.7946
言談	-10.7949
在心	-10.7949
理者	-10.7949
能爲	-10.7955
鷙	-10.7955
五兵	-10.7959
君命	-10.7963
刑名	-10.7967
疆	-10.7971
囹圄	-10.7975
有功者	-10.7978
今人	-10.7978
正而	-10.7986
官至	-10.7988
變也	-10.7991
得其所	-10.7994
至道	-10.7995
之府	-10.7995
丞	-10.7996
空虚	-10.7998
為將	-10.8001
倕	-10.8001
邵	-10.8005
下生	-10.8007
信也	-10.8009
七尺	-10.801
不能成	-10.8011
泰山	-10.8012
聰	-10.8016
慚	-10.8018
則萬物	-10.802
壬癸	-10.802
蠱	-10.8021
姚	-10.8021
舛	-10.8022
驟	-10.8022
纖	-10.8022
所當	-10.8022
碑	-10.8022
嶺	-10.8023
獺	-10.8023
民有	-10.8024
精微	-10.8024
菌	-10.8024
琴瑟	-10.8024
之事也	-10.8025
輝	-10.8025
托	-10.8025
紅	-10.8025
膠	-10.8026
祟	-10.8026
肴	-10.8027
司馬法曰	-10.8027
疇	-10.8027
行私	-10.8027
吿	-10.8027
財貨	-10.8028
庳	-10.8028
厠	-10.8029
皆能	-10.8029
苑	-10.8029
籥	-10.803
慨	-10.803
醴泉	-10.8031
堙	-10.8031
䂓	-10.8031
旺	-10.8032
軒轅	-10.8032
刖	-10.8034
悼	-10.8034
瓊	-10.8034
純粹	-10.8035
擲	-10.8035
古者聖王	-10.8035
應鍾	-10.8036
嫉	-10.8036
翮	-10.8036
猿	-10.8036
漉	-10.8036
雒	-10.8037
齊桓	-10.8038
姿	-10.8038
繕	-10.8039
撥	-10.8039
收歛	-10.804
捶	-10.804
袒	-10.8041
巴	-10.8041
巿	-10.8042
衣裳	-10.8042
堤	-10.8043
太隂	-10.8043
江海	-10.8044
故下文云	-10.8044
可食	-10.8044
倨	-10.8044
黙	-10.8044
竪	-10.8045
士不	-10.8045
跋	-10.8045
覿	-10.8045
叱	-10.8045
芥	-10.8046
淑	-10.8046
勇怯	-10.8046
矛	-10.8046
漸漸	-10.8047
棋	-10.8049
紙	-10.805
平陸	-10.805
作爲	-10.8053
嵗	-10.8053
準繩	-10.8053
鬲	-10.8055
三十里	-10.8055
易有	-10.8057
張子曰	-10.806
出門	-10.8062
長生之道	-10.8062
青龍	-10.8063
吕尚	-10.8063
羽翼	-10.8064
論語曰	-10.8067
萬殊	-10.8068
官職	-10.8075
冬夏	-10.8075
次序	-10.8075
不精	-10.8076
矢石	-10.8077
之類是也	-10.8078
其材	-10.8079
榮華	-10.808
子亦	-10.808
語之	-10.8082
尋常	-10.8083
離朱	-10.8085
季氏	-10.8087
千二百	-10.8088
一周天	-10.8088
不審	-10.809
烽	-10.809
封之	-10.8091
欲治	-10.8092
非義	-10.8097
之威	-10.8098
以入	-10.8101
下至	-10.8104
下文	-10.8105
而相	-10.8107
小宋曰	-10.8107
之難也	-10.811
論其	-10.8111
大川	-10.8115
月光	-10.8116
東井	-10.8119
於一	-10.8121
糧食	-10.8122
勞苦	-10.8126
一會	-10.8137
正長	-10.8138
之敗	-10.8141
長幼	-10.8145
著書	-10.8149
不意	-10.8152
日冬至	-10.8154
不擇	-10.8158
其日	-10.8158
工夫	-10.8159
和之	-10.8162
欲使	-10.8164
呼之	-10.8165
不經	-10.817
致其	-10.8171
之勞	-10.8172
便謂	-10.8178
於口	-10.8179
於善	-10.8179
民也	-10.818
陳平	-10.8182
鬻子	-10.8185
不假	-10.8185
民之所	-10.8186
可畏	-10.8188
車之	-10.8191
矣光謂	-10.8193
定位	-10.8193
明者	-10.8195
不懼	-10.8195
中外	-10.8196
荆王	-10.82
死無	-10.8202
足用	-10.8202
道德之	-10.8203
安有	-10.8204
即爲	-10.8204
十有二	-10.8209
一句	-10.8213
稱之	-10.8221
勢位	-10.8222
第五	-10.8223
上升	-10.8225
爲亂	-10.8225
行軍	-10.8227
哉昔	-10.8228
不異	-10.8229
子雲	-10.823
則利	-10.8237
兩軍	-10.8237
學問	-10.8239
賢良	-10.8241
生乎	-10.8242
足矣	-10.8243
莫見其	-10.8244
舉也	-10.8246
便利	-10.8248
行事	-10.8249
地理	-10.8252
大亂	-10.8252
而觀	-10.8256
者固	-10.8275
出來	-10.828
當先	-10.8281
交相	-10.8283
藏於	-10.8284
子路	-10.8287
不節	-10.8288
萬一	-10.8289
未形	-10.8289
不施	-10.8291
失所	-10.8294
未甞	-10.8296
人主不	-10.8298
知有	-10.8303
而笑	-10.8306
變爲	-10.8308
仁也	-10.8311
上士	-10.8312
其患	-10.8314
吾言	-10.8315
八方	-10.8315
不誅	-10.8316
引之	-10.8322
莫之能	-10.8322
則衆	-10.8326
以少	-10.8327
百萬	-10.8331
不能治	-10.834
成形	-10.8342
其聲	-10.8348
天門	-10.8348
待其	-10.835
此五者	-10.8352
數萬	-10.8356
於天地	-10.8356
南至	-10.8359
亦不能	-10.8363
皆謂	-10.8363
各得	-10.8364
由此	-10.8367
覆之	-10.8371
所以然者	-10.8371
鵲	-10.8373
無定	-10.8376
有何	-10.8376
識其	-10.8377
存之	-10.8381
以遠	-10.8381
上文	-10.8385
高山	-10.839
者自	-10.8392
士民	-10.8392
十里	-10.8397
庶人	-10.8399
無遺	-10.8401
之中而	-10.8402
飲之	-10.8411
辱之	-10.8411
時日	-10.8416
得見	-10.8418
氣有	-10.8421
老人	-10.8421
邪正	-10.8422
巧詐	-10.8423
得賢	-10.8425
不分	-10.8429
庸人	-10.8429
聲也	-10.8432
讀如	-10.8434
其目	-10.8434
鶉火	-10.8435
見人	-10.8438
之數而	-10.844
今若	-10.8443
不犯	-10.8444
王小宋本	-10.8446
相合	-10.8448
不輟	-10.8461
矣然	-10.8467
小而	-10.8469
一丸	-10.8477
易者	-10.8477
心者	-10.8481
我何	-10.8483
天下之大	-10.8485
有箇	-10.8486
之首	-10.8487
若非	-10.849
生地	-10.8499
始得	-10.8501
之任	-10.8505
分兵	-10.8514
左旋	-10.8516
楚師	-10.8517
不守	-10.852
之患也	-10.8531
便當	-10.8532
若能	-10.8538
乎抱朴子曰	-10.8543
管仲曰	-10.8547
皆所以	-10.8558
記曰	-10.8559
山名也	-10.8559
四千三百二十	-10.856
爲主	-10.856
皆自	-10.8561
衆人之所	-10.8564
王良	-10.8564
小國	-10.857
實而	-10.8571
隂也	-10.8572
此即	-10.8576
畜生	-10.8583
長也	-10.8587
之力也	-10.8588
以計	-10.8592
後生	-10.8592
善則	-10.8595
月之	-10.8601
塞之	-10.8604
無敢	-10.8612
利用	-10.8615
不盈	-10.8618
以禮	-10.8626
欲爲	-10.8628
而不見	-10.8629
衰也	-10.8629
不强	-10.8629
理則	-10.8633
無所用	-10.8644
争之	-10.8646
骸	-10.8653
辰在	-10.8653
之耳	-10.8657
皆為	-10.8658
節制	-10.8659
大驚	-10.8661
例	-10.8662
聽治	-10.8667
莫知	-10.8667
六為	-10.8668
五五	-10.8669
糞	-10.8674
勒陽關	-10.8674
其謀	-10.8676
杓	-10.8676
爰	-10.8676
宋君	-10.8678
卓	-10.8678
志曰	-10.8682
缾	-10.8683
抄	-10.8683
壼	-10.8684
泥丸	-10.8685
不法	-10.8685
右轉	-10.8686
歐	-10.8686
鄧	-10.8686
併	-10.8686
朋友	-10.8687
瞢	-10.8688
餉	-10.8688
採藥	-10.8689
冕	-10.8689
蟠	-10.869
瘠	-10.869
自上而下	-10.869
伊	-10.869
鎮星	-10.869
謳	-10.869
害之	-10.8691
綸	-10.8691
龐涓	-10.8691
心無	-10.8692
褊	-10.8692
岫	-10.8693
洩	-10.8693
漬	-10.8693
控	-10.8693
哭泣	-10.8694
二百一十六	-10.8694
寶	-10.8694
挂	-10.8694
癡	-10.8694
皆作	-10.8694
畛	-10.8694
戸	-10.8695
李靖	-10.8695
伊川	-10.8696
被髮	-10.8696
引而	-10.8696
褐	-10.8697
虹	-10.8697
胸	-10.8697
需	-10.8697
屨	-10.8698
槃	-10.8698
簫	-10.8698
亦必	-10.8698
喑	-10.8698
元凱	-10.8699
敝	-10.8699
犧牲	-10.8699
低	-10.8699
憐	-10.87
惜其不知	-10.87
把	-10.87
煬	-10.87
褻	-10.8701
稼穡	-10.8701
闔閭	-10.8702
之異	-10.8702
清淨	-10.8702
治身	-10.8702
蹊	-10.8703
奸	-10.8703
黔	-10.8703
賦歛	-10.8704
霜雪	-10.8704
熈	-10.8704
凑	-10.8705
闚	-10.8705
壑	-10.8705
勑	-10.8706
慙	-10.8706
千里之外	-10.8706
孔墨	-10.8706
狐狸	-10.8707
戢	-10.8707
幅	-10.8707
模	-10.8707
遮	-10.8707
樵	-10.8708
劉向	-10.8708
揖	-10.8708
螘	-10.8708
盗賊	-10.8708
榛	-10.8709
口訣	-10.8709
太廟	-10.871
態	-10.871
架	-10.871
宙	-10.871
四海之内	-10.871
潘	-10.871
粒	-10.871
蟹	-10.8711
昩	-10.8711
吾將	-10.8711
雕	-10.8712
四變	-10.8712
嫗	-10.8712
是可	-10.8713
應時	-10.8713
者人之	-10.8713
而致	-10.8713
矧	-10.8714
埃	-10.8714
蹤	-10.8714
張氏曰	-10.8715
虬	-10.8715
鑽	-10.8718
之宗	-10.8719
乃自	-10.8719
逹	-10.872
猛獸	-10.8721
然後有	-10.8723
門而	-10.8723
忠孝	-10.8723
畜積	-10.8724
善用兵者	-10.8724
天帝	-10.8724
致之	-10.8725
摽	-10.8726
陟	-10.8726
澆	-10.8727
一周	-10.8728
迎之	-10.8729
李斯	-10.873
小兒	-10.8731
張儀	-10.8734
復得	-10.8735
彊弱	-10.8736
為奇	-10.8738
苟得	-10.874
王公	-10.874
情也	-10.8741
畏死	-10.8743
太微	-10.8746
用者	-10.8749
美也	-10.8752
天地之氣	-10.8753
營室	-10.8755
修行	-10.8755
江南	-10.8757
餓死	-10.8757
之所爲	-10.8758
人之國	-10.8758
然皆	-10.8759
恃其	-10.876
者唯	-10.876
陽故	-10.8761
不戒	-10.8763
恩信	-10.8765
隨時	-10.8766
無疆	-10.8767
無怨	-10.8777
小人之	-10.8777
已死	-10.878
大風	-10.8782
良久	-10.8784
下弦	-10.8788
讀曰	-10.8791
誅罰	-10.8792
之貌也	-10.8795
此事	-10.8796
林木	-10.8796
而受	-10.8796
懷其	-10.8797
周室	-10.8805
龍門	-10.8807
不以其	-10.8808
未濟	-10.8808
天下而	-10.8809
流俗	-10.8809
相繼	-10.881
伯樂	-10.8811
不舉	-10.8815
物咸	-10.8818
十二次	-10.8819
不化	-10.8821
四正卦	-10.8821
怒則	-10.8825
冀州	-10.8827
李氏	-10.883
八尺	-10.8832
神靈	-10.8833
夫物	-10.8833
靈王	-10.8839
子房	-10.8839
民間	-10.884
民多	-10.8844
所不知	-10.8844
煉形	-10.8848
之臣也	-10.885
物者也	-10.8851
興兵	-10.8853
其善	-10.8854
以玉	-10.8858
而不言	-10.886
之所由	-10.8862
老氏	-10.8862
貌也	-10.8863
驗之	-10.8864
天地人	-10.8865
四十五	-10.8865
不為	-10.8866
修身	-10.8871
氣多	-10.8872
四夷	-10.8878
玉石	-10.888
乎抱朴子答曰	-10.8881
為九	-10.8882
見矣	-10.8885
貪利	-10.8887
而應之	-10.889
大賢	-10.8891
之化	-10.8891
一時之	-10.8891
化之	-10.8892
要害	-10.8894
而望	-10.8895
書之	-10.8895
以成其	-10.8895
積石	-10.8902
盛德	-10.8903
〇邵子曰	-10.8905
有似	-10.8906
親也	-10.8914
伐木	-10.8918
命者	-10.8925
患之	-10.8926
大將軍	-10.8931
所好	-10.8932
取也	-10.8932
三元	-10.8934
列子	-10.8939
以刑	-10.8942
而不止	-10.8943
視其	-10.8946
其旁	-10.8946
圓圖	-10.8947
也范本作	-10.8948
七八	-10.8954
眞君	-10.8959
極星	-10.896
爲禍	-10.8961
其計	-10.8962
爲不善	-10.8964
了不	-10.8966
非我	-10.8968
經曰	-10.8968
大梁	-10.8969
治人	-10.8969
千里之	-10.8971
其門	-10.8976
皆由	-10.8977
其角	-10.898
馬也	-10.8991
五曰	-10.8991
詐僞	-10.8991
治其	-10.8993
木爲	-10.8996
德者	-10.8998
或謂	-10.9
門人	-10.9016
於子	-10.9018
富人	-10.9024
先須	-10.9027
之惡	-10.9028
反復	-10.9028
則易	-10.9031
太行	-10.9032
下愚	-10.9033
虚名	-10.9034
後漢	-10.9034
必危	-10.9037
義則	-10.9037
說也	-10.9039
可得而知	-10.904
臣臣	-10.904
形體	-10.9044
為土	-10.9045
無實	-10.9046
必當	-10.9046
以水	-10.9051
大數	-10.9052
不稱	-10.9052
於俗	-10.9063
君之所	-10.9066
異人	-10.907
約而	-10.9072
伐楚	-10.9072
不全	-10.9075
故次	-10.9076
餘分	-10.9077
不可見	-10.9082
而萬物	-10.9082
竭力	-10.9083
爲賢	-10.9087
雲氣	-10.9087
二陰	-10.9089
蚑	-10.9089
處官	-10.9093
率衆	-10.9095
以避	-10.9103
各一	-10.9103
之病	-10.9106
何其	-10.9107
有此	-10.9107
之流	-10.911
勵	-10.911
能有	-10.9111
術而	-10.9111
勢重	-10.9119
理之	-10.9123
失火	-10.9123
賢也	-10.9125
亡其	-10.9128
君上	-10.9129
雖大	-10.9131
專一	-10.9131
而賤	-10.9134
有術	-10.914
乎對曰	-10.914
生木	-10.9143
與敵	-10.9143
所親	-10.9143
鄙人	-10.9143
所聞	-10.9144
之始也	-10.9145
身體	-10.9146
中宫	-10.9147
解曰	-10.9148
者多矣	-10.9148
其方	-10.9152
韓子	-10.9152
文正	-10.9153
金也	-10.9153
其前	-10.9154
異類	-10.9161
之說乎	-10.9162
當夜	-10.9164
於市	-10.9164
明師	-10.9165
已有	-10.9167
示之以	-10.9171
埋之	-10.9177
以臨	-10.9177
事上	-10.9182
於王	-10.9182
失於	-10.9185
者所	-10.9193
仙經	-10.9193
危國	-10.9195
命曰	-10.9198
月令	-10.9202
父毋	-10.9207
事有	-10.9207
常存	-10.9211
仙藥	-10.9213
變為	-10.9216
知識	-10.9217
然如	-10.9218
窮則	-10.922
近也	-10.9231
乃命	-10.9235
王天下	-10.9235
不怨	-10.9237
其末	-10.9242
韓非	-10.9243
大國之	-10.9244
美者	-10.9245
彼必	-10.9246
何者	-10.9249
抱朴子外篇卷之二十	-10.925
二十六	-10.9253
而食之	-10.9255
政令	-10.9268
商君	-10.9272
辰星	-10.9274
兵勢	-10.9282
爲下	-10.9283
之恩	-10.9283
宜也	-10.9287
自非	-10.9287
無令	-10.9289
爲水	-10.9291
是不	-10.9292
山在	-10.9293
立法	-10.9304
於庭	-10.9305
兩用	-10.9306
後至	-10.9307
無憂	-10.9308
吴曰	-10.9312
以安	-10.9314
今子	-10.9315
駿	-10.9318
而喜	-10.9325
何有	-10.9326
也至於	-10.9328
最爲	-10.9332
乎當知	-10.9343
劑	-10.9354
焚其	-10.9356
一陽生	-10.9356
郄	-10.936
𤕠	-10.9364
肖	-10.9365
十餘年	-10.9366
施於	-10.9367
之音	-10.937
百歲	-10.937
不能知	-10.9371
聖者	-10.9371
不固	-10.9371
頭上	-10.9373
幻	-10.9374
而弗能	-10.9376
三部	-10.9376
爲二	-10.9377
方便	-10.9378
己而	-10.9379
親之	-10.9381
仁人	-10.9386
而待	-10.9388
奕	-10.9388
厨	-10.9389
其美	-10.9391
勝故	-10.9393
我欲	-10.9393
涕	-10.9394
媒	-10.9396
諷	-10.9396
臯陶	-10.9397
驪	-10.9397
孜	-10.9399
神聖	-10.9401
樞宻	-10.9401
座	-10.9401
點	-10.9402
蟄蟲	-10.9402
妃	-10.9403
忿爭	-10.9403
汾	-10.9403
蹻	-10.9404
楹	-10.9404
輯	-10.9404
絹	-10.9404
搜	-10.9404
也大抵	-10.9405
澹	-10.9406
膠漆	-10.9406
嘔	-10.9406
詹	-10.9406
第七	-10.9406
徴	-10.9406
踊	-10.9407
蔑	-10.9407
駒	-10.9407
二百五十六	-10.9407
戊己	-10.9407
劾	-10.9407
瑟	-10.9407
榖	-10.9407
涅	-10.9408
廐	-10.9408
彩	-10.9408
跖	-10.9408
脯	-10.9408
勛	-10.9408
祚	-10.9408
壻	-10.9409
知之故	-10.941
透	-10.941
薛公	-10.941
生子	-10.9411
犢	-10.9411
泊	-10.9411
復姤	-10.9412
伊吕	-10.9412
増	-10.9413
郞	-10.9413
剪	-10.9413
偪	-10.9413
梅	-10.9414
杭	-10.9414
浹	-10.9414
蹏	-10.9414
謌	-10.9414
隴	-10.9414
斗杓	-10.9415
巡	-10.9415
一心	-10.9415
檻	-10.9416
周公旦	-10.9416
莫大焉	-10.9416
酬	-10.9416
吟	-10.9417
妬	-10.9417
邃	-10.9417
㝠㝠	-10.9418
五嶽	-10.9418
曳	-10.9419
川谷	-10.9419
沫	-10.9419
之會	-10.9419
突厥	-10.942
偽	-10.942
啗	-10.942
挽	-10.942
踴	-10.9421
饋	-10.9421
醴	-10.9421
蹙	-10.9422
堁	-10.9422
燼	-10.9422
其卦為	-10.9423
沐浴	-10.9423
甫	-10.9423
猜	-10.9424
絡	-10.9424
不可勝計	-10.9424
恢	-10.9424
蔭	-10.9425
帷	-10.9426
臧否	-10.9426
孰知其	-10.9426
彫	-10.9426
故知	-10.9427
揖讓	-10.9427
沐	-10.9427
溶	-10.9428
齋戒	-10.9428
則吾	-10.9428
𠮷	-10.9429
惻隱	-10.9429
五城	-10.943
觀其所	-10.943
墟	-10.943
同志	-10.9431
眄	-10.9431
扈	-10.9432
嘘	-10.9432
公孫龍	-10.9434
躋	-10.9434
先王之書	-10.9435
其才	-10.9435
鑚	-10.9436
之所及	-10.9437
以奉	-10.9438
夏后氏	-10.9438
所以為	-10.9438
瓠	-10.9438
謫	-10.9438
罔極	-10.9438
殺戮	-10.9439
迷惑	-10.9441
可爲	-10.9441
金銀	-10.9441
坎卦	-10.9441
儀表	-10.9441
六藝	-10.9445
咎犯	-10.9445
桀紂之	-10.9448
勤苦	-10.9448
更相	-10.9449
期年	-10.945
莫測	-10.9451
征伐	-10.9451
柔弱	-10.9452
善而	-10.9454
形骸	-10.9454
朱子謂	-10.9455
四隅	-10.9456
流血	-10.9457
不極	-10.9459
委曲	-10.946
虧盈	-10.9462
罰之	-10.9462
四季	-10.9464
聖人之所	-10.9464
水旱	-10.9466
逆順	-10.9471
渾沌	-10.9473
九鼎	-10.9474
吉凶之	-10.9475
也詩云	-10.9476
功名	-10.9482
北面	-10.9482
獻公	-10.9482
隂降	-10.9487
賢能	-10.9487
光武	-10.9488
亦明矣	-10.949
不可用	-10.9491
臣主	-10.9492
大火	-10.9493
其中有	-10.9496
晋師	-10.9498
往往	-10.95
分而	-10.9501
不可測	-10.9502
而可以	-10.9503
非指	-10.9505
以全	-10.9505
相從	-10.9507
道故	-10.951
壽星	-10.951
善戰者	-10.9515
以理	-10.9516
河内	-10.9517
離卦	-10.9518
而不窮	-10.9519
昇天	-10.9521
聖王之	-10.9521
不久	-10.9522
無餘	-10.9522
度之	-10.9522
則君	-10.9525
悲夫	-10.9526
軍吏	-10.9533
愛民	-10.9533
天下之所	-10.9535
直言	-10.9538
固其	-10.9538
行氣	-10.9538
之俗	-10.9541
八八	-10.9542
諸夏	-10.9544
聞也	-10.9547
不可攻	-10.9547
鶉首	-10.9548
有道者	-10.9548
必見	-10.9552
此輩	-10.9553
賞賜	-10.9557
一門	-10.9561
善否	-10.9561
三尸	-10.9563
諸子	-10.9564
荆山	-10.9568
造物	-10.957
不可知	-10.957
知天	-10.9572
萬物皆	-10.9573
流通	-10.9575
得道者	-10.9578
不因	-10.958
上天	-10.9582
其兄	-10.9583
而勸	-10.9585
冬日	-10.9585
感動	-10.9588
審矣	-10.9591
會于	-10.9597
禁之	-10.96
危也	-10.9603
百姓之	-10.9603
常念	-10.9607
大聖	-10.961
非馬	-10.9613
名號	-10.9613
人倫	-10.9615
勝己	-10.9618
又按	-10.9621
必戰	-10.9621
進士	-10.9623
宫中	-10.9625
其命	-10.9626
明王	-10.9628
名位	-10.9628
三卷	-10.9629
說其	-10.9633
願聞	-10.9634
過人	-10.9634
遂至	-10.964
良將	-10.964
無厭	-10.9646
關梁	-10.9647
爲之長	-10.9648
人之善	-10.9654
萬國	-10.9655
使天下	-10.9658
爲難	-10.9659
所敗	-10.966
不常	-10.966
刺之	-10.9661
富貴者	-10.9665
無二	-10.9667
慎之	-10.9668
之質	-10.9669
試之	-10.9669
是可爲乎	-10.9671
定矣	-10.9673
然且	-10.9675
善事	-10.9676
九年	-10.9676
正色	-10.968
人之情	-10.9681
成湯	-10.9683
不得已而	-10.9689
與神	-10.969
無親	-10.9691
矣然而	-10.9691
攻取	-10.9692
發其	-10.9692
當塗	-10.9696
氣質	-10.9696
無端	-10.9696
重也	-10.9696
日入	-10.97
授以	-10.9703
焉則	-10.9707
既有	-10.9717
老陰	-10.972
不可謂無	-10.9721
人欲	-10.9723
人多	-10.9727
無數	-10.9729
射者	-10.973
弱而	-10.9735
反其	-10.9736
河水	-10.9739
同道	-10.9742
太極之	-10.9744
恐有	-10.9744
加以	-10.9747
之助	-10.9758
其一	-10.9761
常法	-10.9762
静則	-10.9763
夫子之	-10.9766
者必以	-10.9768
先以	-10.9768
則多	-10.9772
達於	-10.9773
難而	-10.9773
火也	-10.9778
不病	-10.9783
鳥之	-10.9788
雖未	-10.9792
無咎	-10.9796
利則	-10.9806
我以	-10.9808
陽陽	-10.9813
月在	-10.9816
起火	-10.982
五官	-10.9836
獨知	-10.9843
彼之	-10.9843
今從	-10.9847
而滅	-10.9848
有時而	-10.9857
乃見	-10.9868
養生之	-10.9869
承之	-10.9874
小宋本	-10.9876
老矣	-10.9886
象天	-10.9898
傷人	-10.9905
或爲	-10.9906
十二時	-10.9914
也杜牧曰	-10.9915
王孫	-10.9916
不滿	-10.9917
之風	-10.9923
周人	-10.9924
武帝	-10.9931
地名	-10.9932
火攻	-10.9935
不是	-10.9938
更生	-10.9943
予之	-10.9943
不怠	-10.9944
而不明	-10.9945
公家	-10.9945
用人	-10.9946
亦如之	-10.9946
不害	-10.9947
明主之	-10.9952
欲知	-10.9955
一畫	-10.9956
輕地	-10.9956
追之	-10.9959
斗柄	-10.9961
順天	-10.9961
丹法	-10.9962
生意	-10.9963
神明之	-10.9966
其高	-10.9966
百一十	-10.997
譬之	-10.9971
氣候	-10.9971
其欲	-10.9974
仲父	-10.9979
利器	-10.9984
者三	-10.9987
不善者	-10.9987
道行	-10.9988
夫唯	-10.9991
輕敵	-10.9993
以合	-10.9994
其文	-11
其處	-11.0004
地道	-11.0015
一丈	-11.0016
多力	-11.0017
一同	-11.002
之佐	-11.002
之淵	-11.0026
比周	-11.0027
其質	-11.003
而遇	-11.0031
天之所	-11.0033
六卦	-11.0034
楚子	-11.0038
楚之	-11.0055
東海	-11.0057
多者	-11.0064
力不足	-11.0066
戰於	-11.007
大事	-11.007
又况	-11.0076
獨有	-11.0078
斯言	-11.0078
聽從	-11.0085
則須	-11.0101
漢武	-11.0106
不好	-11.0108
為陳	-11.0109
上古	-11.011
百年	-11.011
知覺	-11.0115
以小	-11.0117
若水	-11.0124
人之性	-11.0128
天地之中	-11.0131
聲音	-11.0133
此爲	-11.0135
所重	-11.0139
亦如此	-11.014
乃使	-11.014
出軍	-11.0142
適足以	-11.0142
五寸	-11.0145
皇天	-11.0149
矣且	-11.0149
水土	-11.015
不定	-11.015
四卦	-11.0152
恪	-11.0152
故名	-11.0156
丙丁	-11.0157
瑩	-11.0158
處其	-11.0161
不勝其	-11.0161
物無	-11.0162
姑洗	-11.0162
躔	-11.0164
黄庭	-11.0165
翻	-11.0165
逞	-11.0166
亂者	-11.0166
以此觀之	-11.0167
番	-11.0167
牟	-11.0168
非謂	-11.0168
械	-11.0168
協	-11.0168
罟	-11.0168
先見	-11.0168
繭	-11.0168
有八	-11.0169
顓	-11.0169
冲	-11.017
自下而上	-11.0171
䦯	-11.0171
別	-11.0171
餅	-11.0172
譁	-11.0173
晉	-11.0173
蚓	-11.0173
龐	-11.0174
瞑	-11.0174
遂成	-11.0174
岡	-11.0174
腰	-11.0175
樽	-11.0176
黄石公	-11.0176
翅	-11.0176
脆	-11.0177
長子	-11.0178
夸	-11.0178
殞	-11.0179
太尉祭酒臣許愼記上	-11.0179
淚	-11.0179
舟楫	-11.0179
貍	-11.0179
旄	-11.018
侔	-11.018
驂	-11.018
玄枵	-11.0181
乾坤坎離	-11.0181
楚莊王	-11.0181
恍	-11.0182
挹	-11.0182
禆	-11.0182
自見	-11.0182
妓	-11.0182
由是觀之	-11.0182
武王伐紂	-11.0183
䰟	-11.0183
瑣	-11.0183
賓客	-11.0183
駑	-11.0183
羈	-11.0183
根於	-11.0183
殄	-11.0183
無極而太極	-11.0184
黷	-11.0184
攖	-11.0184
涓	-11.0184
飄	-11.0185
聯	-11.0185
恬愉	-11.0185
剌	-11.0185
羡	-11.0185
沼	-11.0185
焕	-11.0185
降婁	-11.0186
評	-11.0186
俸	-11.0186
角亢	-11.0186
良醫	-11.0186
畋	-11.0186
窾	-11.0187
惕	-11.0187
蹲	-11.0187
𥘉	-11.0187
甄	-11.0187
危殆	-11.0187
樊	-11.0188
額	-11.0188
錘	-11.0188
公孫鞅	-11.0189
元會運世	-11.019
扞	-11.019
傴	-11.019
揲	-11.019
埒	-11.019
昵	-11.019
姜	-11.019
齡	-11.019
巵	-11.019
祼	-11.0191
葦	-11.0191
混沌	-11.0191
閶闔	-11.0191
蒼頡	-11.0191
囂	-11.0191
捍	-11.0191
棗	-11.0192
太尉	-11.0192
庇	-11.0192
挐	-11.0192
虺	-11.0192
翦	-11.0192
殯	-11.0193
准	-11.0193
無赦	-11.0193
橈	-11.0193
邁	-11.0193
窘	-11.0193
蠅	-11.0193
脊	-11.0193
諸葛	-11.0194
否泰	-11.0195
驛	-11.0195
流沙	-11.0195
侣	-11.0195
珥	-11.0195
縞	-11.0196
贛	-11.0196
埴	-11.0196
棟	-11.0196
忘其	-11.0196
嘗試	-11.0197
中丞	-11.0197
很	-11.0199
孫武	-11.0199
綺	-11.0199
蜜	-11.0199
訐	-11.02
脣	-11.02
九疇	-11.02
洋	-11.02
紀綱	-11.0201
未有不	-11.0201
諌	-11.0201
翺翔	-11.0201
中牟	-11.0201
之别	-11.0201
秋冬	-11.0201
箴	-11.0202
口舌	-11.0202
毛羽	-11.0202
傳曰按	-11.0203
智慧	-11.0205
纂	-11.0205
竿	-11.0205
百工	-11.0205
現	-11.0206
雲夢	-11.0207
换	-11.0208
澒	-11.0209
鄕長	-11.021
黄泉	-11.0211
秦穆公	-11.0212
月有	-11.0214
莫知其	-11.0215
四寸	-11.0215
舅姑	-11.0219
太素	-11.0219
向背	-11.0219
曰昔	-11.0219
執一	-11.0221
營壘	-11.0221
白露	-11.0221
公輸盤	-11.0226
幽隱	-11.0226
究其	-11.0228
晋平公	-11.0228
明道	-11.0229
不敢不	-11.023
無是非	-11.023
傅說	-11.023
嗟乎	-11.023
雲雨	-11.0231
慎勿	-11.0232
昭公	-11.0233
神二人	-11.0235
成矣	-11.0237
於斯	-11.0237
即此	-11.0238
但知	-11.0238
七十二日	-11.0239
卑辭	-11.024
卿大夫	-11.024
絶穀	-11.0243
厲測曰	-11.0244
易牙	-11.0247
此又	-11.0251
五經	-11.0252
其始	-11.0252
以存	-11.0253
相得	-11.0254
也雖然	-11.0258
然後知	-11.026
上生	-11.0268
六十日	-11.0271
左右曰	-11.0271
爲國	-11.0276
又曰天	-11.0277
暴卒	-11.0279
天數	-11.028
古之人	-11.028
而朝	-11.0282
國亡	-11.0285
十二律	-11.029
六律	-11.0291
之所欲	-11.0295
臨敵	-11.0295
先君	-11.0296
不得入	-11.0298
或問曰	-11.03
討之	-11.0301
庶子	-11.0301
人亦有	-11.0302
也孔子曰	-11.0302
五代	-11.0308
不同而	-11.0311
惑於	-11.0314
不散	-11.0315
亦隨	-11.0316
於人也	-11.0319
者又	-11.0319
修德	-11.032
好色	-11.0334
每月	-11.0336
主於	-11.0337
内有	-11.0338
環中	-11.0339
中庸	-11.0341
矣吾	-11.0343
大有	-11.0345
猶可	-11.0349
人之所以	-11.0354
輕車	-11.0354
滅亡	-11.0363
者斷	-11.0363
今王公大人	-11.0366
不貪	-11.037
苟或	-11.0371
不足以爲	-11.0372
神龜	-11.0373
中旦	-11.0376
在天為	-11.0377
三皇	-11.0377
其樹	-11.0381
行仁義	-11.0383
惟其	-11.0385
由於	-11.0391
獲其	-11.0391
果有	-11.0392
堯夫	-11.0393
也夫以	-11.0393
齊晋	-11.0394
乎子墨子曰	-11.0397
名譽	-11.0398
一曰天	-11.0401
問之曰	-11.0402
福德	-11.0409
篇中	-11.041
關市	-11.0412
率多	-11.0413
人莫之	-11.0415
子書	-11.042
於白	-11.0421
立於	-11.0422
主父	-11.0425
必多	-11.0427
其音	-11.0431
秦人	-11.0433
而不知其	-11.0434
乃令	-11.0434
以歸	-11.0445
五變	-11.0446
不辯	-11.0451
人性	-11.0454
十數	-11.0464
獨行	-11.0465
者可以	-11.0466
之財	-11.0467
第五十	-11.0468
五年	-11.047
之名而	-11.0474
在彼	-11.0474
所殺	-11.048
者不爲	-11.0482
公私	-11.0482
交合	-11.0483
相通	-11.0483
二七	-11.0484
安也	-11.0485
之來	-11.0488
遊於	-11.049
塗之	-11.0499
親近	-11.05
天上	-11.0507
雷同	-11.0508
順也	-11.0511
已具	-11.0512
助之	-11.0519
委之	-11.052
勢也	-11.0528
過則	-11.0531
在朝	-11.0533
虚也	-11.0534
之者衆	-11.0534
者也次二	-11.0537
無以爲	-11.0539
不以爲	-11.054
行不	-11.0541
張子	-11.0542
好生	-11.0543
日暮	-11.0544
有節	-11.0546
君子之道	-11.0547
猶不能	-11.0554
知足	-11.0557
用數	-11.0557
得此	-11.0557
美名	-11.0558
不設	-11.0562
刑法	-11.0567
黨與	-11.057
不相離	-11.0571
之分野	-11.0572
術數	-11.0573
出焉	-11.0575
虚空	-11.0576
辭也	-11.0576
心中	-11.0583
至於此	-11.0585
紂之	-11.0587
尚猶	-11.0587
人主之所	-11.0587
四體	-11.0589
欲攻	-11.0592
山東	-11.0592
跪	-11.0594
七分	-11.0595
無功而	-11.0598
用故	-11.06
以身	-11.0601
物則	-11.0602
静而	-11.0604
家有	-11.0604
而亂	-11.0604
天運	-11.0606
甚多	-11.061
賞也	-11.061
秦將	-11.061
無失	-11.0615
棄之	-11.0615
平易	-11.0616
皆曰	-11.0616
從天	-11.0616
宿則	-11.0619
萬餘	-11.062
一尺	-11.0621
滔	-11.0622
其國家	-11.0624
政也	-11.0633
夜行	-11.0634
二部	-11.0635
殷人	-11.0639
六年	-11.0644
時則	-11.0645
已見	-11.065
亂則	-11.0652
見得	-11.0654
告人	-11.0657
以名	-11.0659
射之	-11.066
有神	-11.0668
邪氣	-11.0671
方來	-11.0678
爲貴	-11.0681
用之則	-11.0682
此人	-11.0688
陰數	-11.0693
始皇	-11.0701
之蟲	-11.0703
言行	-11.0708
不能禁	-11.071
志於	-11.0711
八十一首	-11.0712
傷其	-11.0713
則治	-11.0714
時人	-11.0716
守法	-11.0716
噲	-11.0717
無見	-11.072
殺身	-11.072
否則	-11.0727
智勇	-11.0727
君道	-11.0728
去矣	-11.0729
百事	-11.0734
難得	-11.0735
害故	-11.0736
而任之	-11.0736
失禮	-11.0738
而多	-11.0739
者數	-11.074
是與	-11.074
於韓	-11.0743
分野	-11.0743
小則	-11.0757
心術	-11.0758
無君	-11.0758
臣下	-11.076
可為	-11.076
耳而	-11.0761
相近	-11.0762
況乎	-11.0765
方其	-11.0765
不載	-11.0768
周文	-11.0768
禹之	-11.0768
中則	-11.077
取人	-11.077
雖至	-11.0771
不慈	-11.0778
乘馬	-11.0778
通乎	-11.078
八百	-11.0786
示之	-11.0793
同類	-11.0801
祝之	-11.0802
衆之所	-11.0804
兵革	-11.0806
人死	-11.0809
急也	-11.081
書以	-11.0812
以饗	-11.0813
能用	-11.0816
而趨	-11.0816
色白	-11.0823
金木	-11.0824
天官	-11.0827
處高	-11.0828
十斤	-11.0829
玄天	-11.0831
之柄	-11.0841
民皆	-11.0842
戒之	-11.0844
為變	-11.0845
心神	-11.0847
修道	-11.0849
疾也	-11.0849
不顯	-11.0851
示人	-11.0852
武侯	-11.0854
三代之	-11.0855
色赤	-11.0862
爲用	-11.0862
巧也	-11.0863
政之	-11.0864
少者	-11.0869
如此者	-11.0872
者即	-11.0872
貧者	-11.0873
則上	-11.0881
九丹	-11.0882
爲道	-11.0882
下經	-11.0883
其術	-11.0885
物類	-11.0885
不踰	-11.0887
形容	-11.0888
尚可	-11.0895
者莫不	-11.0896
爲本	-11.0897
日至	-11.0898
以助	-11.0907
三三	-11.0908
形形	-11.0909
利害之	-11.0912
爲德	-11.0912
以長	-11.0912
不能與	-11.0918
不但	-11.0919
以當	-11.0923
以至於	-11.0924
是夕	-11.0928
也又有	-11.0929
世俗	-11.0929
之應	-11.0931
之所出	-11.0933
倉卒	-11.0934
者亡	-11.0935
未嘗有	-11.094
夫聖人	-11.0942
發兵	-11.0942
曾青	-11.0943
亂人	-11.0943
常道	-11.0946
而不行	-11.0947
鬼魅	-11.0947
弱也	-11.0947
哭之	-11.0948
但當	-11.0949
疫	-11.0951
不至於	-11.0953
與子	-11.0956
計之	-11.0958
螮	-11.0962
而變	-11.0966
愛而	-11.0967
乃有	-11.0972
禍害	-11.0973
以此爲	-11.0975
何益	-11.0978
叔向	-11.098
之過也	-11.0985
巽離兌	-11.0987
惶	-11.099
鄴	-11.099
爲對太隂在	-11.0991
子之言	-11.0991
月與之晨出東方	-11.0992
豫讓	-11.0995
則士	-11.0995
八爲禍中	-11.0995
訴	-11.0998
曰臣聞	-11.0998
又能	-11.1
天一生水	-11.1
歲星舍	-11.1001
笞	-11.1001
笄	-11.1002
昻	-11.1003
帑	-11.1003
俱有	-11.1003
鉞	-11.1005
跨	-11.1005
七十二候	-11.1005
影響	-11.1006
雷電	-11.1006
之言曰	-11.1006
秤	-11.1006
睢	-11.1006
應之曰	-11.1006
掣	-11.1007
堅刁	-11.1007
無患	-11.1007
横渠	-11.1008
臧獲	-11.1008
殁	-11.1008
玄光玉女	-11.1008
窕	-11.1008
榆	-11.1009
猪	-11.1009
隻	-11.1009
暝	-11.1009
紘	-11.101
懇	-11.101
犧	-11.101
巍巍	-11.101
纓	-11.101
唾	-11.101
湘	-11.101
疋	-11.1011
老聃	-11.1011
何以明之	-11.1012
趙簡子	-11.1012
峙	-11.1012
勾	-11.1012
弑其君	-11.1013
燈	-11.1013
杼	-11.1014
諄諄	-11.1014
耨	-11.1014
轄	-11.1014
馳騁	-11.1015
乹	-11.1015
今從諸家王曰	-11.1015
日月五星	-11.1015
蠃	-11.1015
塊	-11.1015
甲冑	-11.1015
迂直	-11.1016
鶉尾	-11.1016
注云	-11.1016
諮	-11.1016
匝	-11.1016
芻豢	-11.1017
鍼	-11.1017
恊	-11.1017
湎	-11.1018
京房	-11.1018
疾疫	-11.1018
萍	-11.1018
不可不察	-11.1018
僣	-11.1018
曇	-11.1018
斥澤	-11.1019
算	-11.1019
渚	-11.1019
凖	-11.102
怛	-11.102
嗤	-11.1021
蒿	-11.1021
唐太宗	-11.1021
贈	-11.1021
鵠	-11.1021
鴻鵠	-11.1021
刳	-11.1021
縫	-11.1022
僥	-11.1022
檀	-11.1022
心於	-11.1022
刻鏤	-11.1022
拓	-11.1022
稽留	-11.1022
筴	-11.1023
衽	-11.1023
紾	-11.1023
塵埃	-11.1023
田獵	-11.1023
嘿	-11.1023
袂	-11.1023
歩	-11.1024
銘	-11.1024
龜鶴	-11.1025
㦸	-11.1025
詎	-11.1025
紐	-11.1025
豪傑	-11.1026
輅	-11.1026
季秋	-11.1026
徼	-11.1026
甲寅	-11.1026
𥙷	-11.1026
萇弘	-11.1027
彭蠡	-11.1027
婢	-11.1027
吾身	-11.1027
剔	-11.1027
弓矢	-11.1028
芸	-11.1028
遲速	-11.1028
吮	-11.1028
粲	-11.1028
郤	-11.1028
蒞	-11.1028
衛人	-11.1028
鉅	-11.1028
馳逐	-11.1029
王莽	-11.1029
西山	-11.1029
生金	-11.1029
軼	-11.1029
自成	-11.1029
穫	-11.103
太后	-11.103
將士	-11.103
剖判	-11.103
八紘	-11.103
慈惠	-11.103
治隂官右	-11.103
弇	-11.1031
紆	-11.1031
忮	-11.1031
田成子	-11.1031
槐	-11.1031
鹹	-11.1031
齊景公	-11.1032
盤旋	-11.1032
暴虐	-11.1032
幟	-11.1032
蝯	-11.1032
賞罰不	-11.1033
勤勞	-11.1033
焚香	-11.1033
詹何	-11.1034
豫章	-11.1035
大水	-11.1035
太上感應篇	-11.1036
咸池	-11.1036
也朱子曰	-11.1036
芻狗	-11.1036
夫是之謂	-11.1037
粟米	-11.1038
繇	-11.1038
則見以爲	-11.1038
偕	-11.1039
使敵人	-11.1039
班固	-11.1039
壟	-11.104
一夕夢	-11.1041
月失政	-11.1042
析木	-11.1042
百川	-11.1043
晏子曰	-11.1044
星也	-11.1044
太半	-11.1045
門下	-11.1047
前輩	-11.1048
六翮	-11.105
以亡	-11.105
使間	-11.105
榮辱	-11.1051
龍蛇	-11.1054
當死	-11.1055
眞武	-11.1055
吕梁	-11.1055
位律中	-11.1056
車裂	-11.1057
京師	-11.1057
中極	-11.1059
通判	-11.106
則姦	-11.106
自傷	-11.1061
有所至而	-11.1064
御之	-11.1064
親踈	-11.1065
之事乎昔	-11.1065
青衣	-11.1066
羊牛	-11.1067
方寸	-11.1068
必行	-11.107
之爲物	-11.1071
其過	-11.1074
南斗	-11.1074
天地之道	-11.1075
以供	-11.1076
立爲	-11.1077
文采	-11.1077
乎大抵	-11.1077
千乘	-11.1078
吾所以	-11.1078
擊鼓	-11.1078
厚利	-11.1079
由余	-11.108
淺近	-11.1082
之域	-11.1082
兵貴	-11.1084
堅牛	-11.1085
益也	-11.1087
凶器	-11.1087
夏日	-11.1087
爲金	-11.1088
救火	-11.1089
彼我之	-11.1089
所向	-11.1091
厚者	-11.1092
舉錯	-11.1093
風伯	-11.1095
不知有	-11.1098
何用	-11.1098
二十年	-11.1103
從横	-11.1103
大衆	-11.1104
以赴	-11.1105
竟至	-11.1107
百病	-11.1107
少室	-11.1108
侯王	-11.1108
百鬼	-11.1108
固已	-11.1108
正氣	-11.1108
蕩蕩	-11.111
三百日	-11.1116
威儀	-11.112
江水	-11.1124
水泉	-11.1125
之所加	-11.1128
忠良	-11.1129
晋文	-11.1129
疾風	-11.1129
重地	-11.113
之積	-11.1134
明珠	-11.1135
襲之	-11.1136
愛也	-11.1141
楊子	-11.1142
隂謀	-11.1142
全體	-11.1143
孔明	-11.1143
腹心	-11.1144
愛子	-11.1145
以智	-11.1145
是月也	-11.1148
撓之	-11.1148
鷙鳥	-11.1152
哉抱朴子曰	-11.1153
杜佑曰言	-11.1154
所從	-11.1155
盡而	-11.1156
二儀	-11.1157
夷則	-11.116
者也是故	-11.1161
愛人也	-11.1161
也陽氣	-11.1164
同歸	-11.1167
誠可	-11.1167
務在	-11.1168
各得其所	-11.1168
耳聽	-11.1169
心志	-11.1171
四六	-11.1172
其半	-11.1173
道之所	-11.1173
二國	-11.1175
困窮	-11.1179
五才	-11.1186
以高	-11.1189
接物	-11.119
皆同	-11.1191
以實	-11.1192
亂之	-11.1192
出境	-11.1193
盛則	-11.1193
惡人	-11.1195
多則	-11.1195
險易	-11.1198
庶事	-11.1198
交錯	-11.1203
而攻	-11.1206
孰若	-11.1208
隱居	-11.1214
不侵	-11.1215
渝	-11.1217
萬八千	-11.1219
隂陽之	-11.1219
周流	-11.1219
美食	-11.1221
伯陽	-11.1223
大體	-11.1223
重罪	-11.1225
居高	-11.1229
私門	-11.1236
幾於	-11.1237
爲度	-11.1237
有奇	-11.1238
不嚴	-11.1238
不拘	-11.1242
殺傷	-11.1245
尊者	-11.1246
乃爲	-11.1246
兵弱	-11.1246
不悔	-11.1248
胡不	-11.1249
二星	-11.1254
然則人	-11.1256
之宫	-11.1256
擒也	-11.1257
申子	-11.1258
二十一	-11.1259
八石	-11.1259
通達	-11.1262
必有所	-11.1262
未免	-11.1263
事事	-11.1265
刑賞	-11.1266
其業	-11.1269
之行也	-11.1269
魏武	-11.1276
制敵	-11.1278
〇孟氏曰	-11.1279
月半	-11.1281
棄其	-11.1281
不惟	-11.1281
煑之	-11.1285
安寧	-11.1286
〇杜牧曰言	-11.1286
合諸侯	-11.1287
由是以	-11.1288
以奇	-11.129
難矣	-11.129
舉動	-11.1292
而人主	-11.1293
審於	-11.1303
謀事	-11.1306
積德	-11.1308
得之以	-11.1312
於越	-11.1313
晋國之	-11.1313
所禀	-11.1314
不憂	-11.1325
自矜	-11.1325
物皆	-11.1327
地廣	-11.1327
教化	-11.1329
十六日	-11.1329
自言	-11.1331
過差	-11.1332
反於	-11.1332
適其	-11.1333
安樂	-11.1337
者同	-11.1339
以徇	-11.134
罰也	-11.1342
欲人之	-11.1345
受敵	-11.1348
以佐	-11.1349
於晋	-11.135
之利也	-11.1354
不留	-11.1354
第十	-11.1355
乾之	-11.1355
常思	-11.1355
勢之	-11.136
中來	-11.1363
如人	-11.1364
妄發	-11.1365
也稱	-11.1367
衆心	-11.1368
生魄	-11.1369
適人	-11.137
所行	-11.1379
其在	-11.1383
爲虎	-11.1383
乃復	-11.1385
仙者	-11.1388
中人	-11.1391
德以	-11.1393
乘雲	-11.1404
復歸	-11.1405
其精神	-11.1413
三合	-11.1413
持久	-11.1416
鄭氏	-11.1417
執其	-11.1417
一書	-11.1418
相感	-11.1418
九九	-11.1419
四五	-11.142
可得乎	-11.1424
不詳	-11.1424
長久	-11.1425
器用	-11.1426
爲我	-11.1427
世世	-11.1429
非彼	-11.1429
象數	-11.1432
大運	-11.1442
卒於	-11.1442
豈可以	-11.145
明法	-11.1451
與敵人	-11.1452
死生之	-11.1452
舍人	-11.1452
次則	-11.1453
二十二	-11.1455
其象	-11.1456
李筌曰夫	-11.146
可見也	-11.1462
功業	-11.1465
晋國	-11.1465
上之所	-11.1465
有所不能	-11.1468
上元	-11.1472
齊荆	-11.1475
數十人	-11.1479
蓋聞	-11.1482
自安	-11.1483
成子	-11.1484
大敗之	-11.1484
出兵	-11.1488
責其	-11.1488
爲車	-11.1489
同乎	-11.1493
大澤	-11.1493
無爲而	-11.1496
開物	-11.1501
之累	-11.1505
天根	-11.1507
須是	-11.1507
聖人之治	-11.1509
分則	-11.1528
則進	-11.1531
財用	-11.1532
重耳	-11.1533
於是乃	-11.1539
者何也曰	-11.1539
則臣	-11.1548
留之	-11.1552
非法	-11.1557
金氣	-11.1557
益之	-11.1561
富則	-11.1563
者誠	-11.1564
同於	-11.1565
如是則	-11.1566
公義	-11.1571
不說	-11.1571
可致	-11.1572
者也所謂	-11.1575
無差	-11.158
天象	-11.158
後世之	-11.158
而聽之	-11.1583
相望	-11.1584
用兵者	-11.1587
於南方	-11.1595
四方之	-11.1596
常行	-11.1596
攷	-11.1598
被甲	-11.1601
不流	-11.1601
官吏	-11.1602
也唯	-11.1602
賞其	-11.1604
星主	-11.1608
荆人	-11.1609
貴人	-11.1609
故可	-11.1609
生火	-11.1609
所持	-11.161
濟之	-11.1612
重則	-11.1615
天亦	-11.1619
之事乎	-11.1621
之分也	-11.1623
過此	-11.1626
者斬	-11.1629
人謂之	-11.163
而說之	-11.163
近而	-11.1631
月中	-11.1633
以功	-11.1633
化為	-11.1633
天下有	-11.1636
臣請	-11.1643
能成	-11.1643
窟	-11.1644
不類	-11.1645
吾恐	-11.1645
通也	-11.1649
也以其	-11.1655
過度	-11.1657
謂之天	-11.166
小臣	-11.1661
不可令	-11.1661
五利	-11.1664
爲父	-11.1667
將吏	-11.1673
而弱	-11.1685
積善	-11.1688
何獨	-11.1688
其所愛	-11.1691
仲春	-11.1695
者有矣	-11.1698
以至于	-11.1702
作書	-11.1702
各以其	-11.1708
務於	-11.1711
萬民之	-11.1713
其父母	-11.1715
舍也	-11.1723
隨敵	-11.1724
鶉	-11.1726
也或問曰	-11.1729
上無	-11.1733
之形也	-11.1738
恍惚	-11.1739
度也	-11.1743
飾其	-11.1744
一星	-11.1753
於海	-11.1755
又將	-11.1758
不測之	-11.1758
也范王本	-11.1765
人因	-11.1767
無迹	-11.1767
長大	-11.177
必固	-11.1779
多所	-11.1782
先定	-11.1782
所施	-11.1784
杜牧曰言	-11.1785
善用	-11.1793
以勢	-11.1798
垠	-11.1798
趙襄子	-11.1802
坎為	-11.1803
因命	-11.1805
山神	-11.1808
因時	-11.1811
又爲	-11.1811
適也	-11.1815
長於	-11.1815
有病	-11.1818
智謀	-11.1822
有積	-11.1823
治世之	-11.1823
奪也	-11.1825
則其義也	-11.1825
是也〇張預曰	-11.1828
不虧	-11.1829
之失也	-11.183
其流	-11.1831
為七	-11.1833
藏也	-11.1835
飾也	-11.1836
滅之	-11.1836
矣昔	-11.1837
無傷	-11.1844
左右皆	-11.1846
動動	-11.1846
傳言	-11.1847
遠乎	-11.1848
涯	-11.1851
壽命	-11.1862
欲學	-11.1863
雖衆	-11.1864
中傷	-11.1865
如今	-11.1865
放之	-11.1865
宜其	-11.187
計也	-11.1873
爪牙	-11.1876
居上	-11.1879
出戰	-11.1879
其兵	-11.188
四分	-11.1881
可攻	-11.1883
既成	-11.1885
隱於	-11.1886
必用	-11.1886
使彼	-11.1887
而服之	-11.1888
尺五寸	-11.1889
不悟	-11.189
况於	-11.1893
飴	-11.1895
三百六十五度四分度之一	-11.1895
蕤賓	-11.1896
五常	-11.1896
見疑	-11.1897
以適	-11.1897
一陰一陽	-11.1898
掛	-11.1898
璋	-11.1898
爾雅	-11.1899
冐頓	-11.1901
泰一	-11.1901
瞿	-11.1901
荼	-11.1902
金液還丹	-11.1902
有光	-11.1903
穰	-11.1905
者鮮	-11.1908
憫	-11.1909
一二三四	-11.191
屍	-11.191
恱	-11.191
殉	-11.1911
㡬	-11.1911
攪	-11.1911
者無不	-11.1912
臼	-11.1913
誇	-11.1913
粮	-11.1913
虢	-11.1914
一日一夜	-11.1914
添	-11.1914
蹷	-11.1915
伉	-11.1916
撤	-11.1916
駐	-11.1916
核	-11.1916
自恃	-11.1916
祗	-11.1916
鋸	-11.1916
碩	-11.1916
卜筮	-11.1917
宥	-11.1917
雨風露雷	-11.1917
奈	-11.1917
轍	-11.1917
䕶	-11.1917
餒	-11.1917
彦	-11.1918
奎婁	-11.1918
怡	-11.1918
瘖	-11.1918
不先	-11.1918
曹操李筌曰	-11.1919
髀	-11.1919
今從二宋陸本	-11.192
鳶	-11.192
壽夭	-11.192
菩薩	-11.1921
則如之何武曰	-11.1921
方者	-11.1921
天左旋	-11.1921
金木水火土	-11.1921
堯舜禹湯文武	-11.1922
春夏秋冬	-11.1922
泯	-11.1922
此篇	-11.1922
筌	-11.1923
章甫	-11.1923
太宰	-11.1923
醒	-11.1923
隄防	-11.1923
擿	-11.1923
約束	-11.1923
雲霧	-11.1923
鶡	-11.1923
而視之	-11.1924
妹	-11.1924
朞	-11.1924
吠	-11.1924
篡	-11.1924
稀	-11.1924
雕琢	-11.1925
暉	-11.1925
開闢	-11.1925
鮑叔	-11.1925
奠	-11.1925
皇極經世	-11.1925
萊	-11.1925
冬則	-11.1926
爍	-11.1926
埵	-11.1926
珪	-11.1926
若欲	-11.1926
昆弟	-11.1926
壚	-11.1927
啄	-11.1927
儻	-11.1927
干戚	-11.1927
騃	-11.1928
腑	-11.1928
何若	-11.1928
驢	-11.1928
頰	-11.1929
霞	-11.1929
滓	-11.1929
哉蓋	-11.1929
沬	-11.1929
夙興夜寐	-11.1929
紛紜	-11.193
蠢	-11.193
蜂	-11.193
孟嘗君	-11.193
牧野	-11.193
迦	-11.193
粥	-11.193
三台	-11.193
寡而	-11.193
攝提	-11.1931
烏獲	-11.1931
泥濘	-11.1931
骭	-11.1931
顔淵	-11.1931
倖	-11.1931
太公望	-11.1931
押	-11.1932
雌雄	-11.1932
騖	-11.1932
耒	-11.1932
南華曰	-11.1932
琢	-11.1932
礪	-11.1933
氣應斗建	-11.1933
玉液	-11.1933
夔	-11.1933
吳	-11.1934
疽	-11.1934
耎	-11.1934
泳	-11.1935
凢	-11.1935
虹霓	-11.1935
歙	-11.1935
霖	-11.1936
登高	-11.1936
費仲	-11.1936
贄	-11.1936
逵	-11.1936
啞	-11.1937
千仞	-11.1937
賔客	-11.1937
碣石	-11.1937
序卦	-11.1938
漚	-11.1938
百骸	-11.1938
壅塞	-11.1938
紹興	-11.1938
穿井	-11.1938
雲梯	-11.1939
水潦	-11.194
孺子	-11.194
慊	-11.194
春秋傳曰	-11.1941
萬乘之主	-11.1942
聚歛	-11.1942
婿	-11.1942
憒	-11.1942
藜藿	-11.1942
罄	-11.1943
虱	-11.1943
籙	-11.1943
觚	-11.1943
椽	-11.1944
脇	-11.1944
六七八九	-11.1945
孟賁	-11.1945
鍾鼓	-11.1945
次第	-11.1945
比肩	-11.1945
膊	-11.1945
顙	-11.1945
螫	-11.1946
飈	-11.1947
太歲	-11.1947
漢末	-11.1947
為敵所	-11.1947
禹步	-11.1948
部曲	-11.1948
清潔	-11.1948
昆吾	-11.1949
轉運	-11.1949
教導	-11.1949
朱草	-11.1949
貢舉	-11.195
季春	-11.195
梁柱	-11.195
志在	-11.195
斬首	-11.1951
勇敢	-11.1951
殺不辜	-11.1952
不發	-11.1952
朝菌	-11.1952
甲午	-11.1953
上帝鬼神	-11.1953
河北	-11.1953
所致	-11.1953
好事者	-11.1954
郄子	-11.1954
慈母	-11.1955
魔	-11.1955
丞相	-11.1956
莊周	-11.1956
希夷	-11.1958
曾史	-11.1958
卞	-11.1959
埶	-11.1959
縱之	-11.1959
五緯	-11.196
姓字	-11.196
風波	-11.196
百餘年	-11.1963
尸解	-11.1963
之心而	-11.1964
大夏	-11.1964
拔之	-11.1964
諸己	-11.1965
明哲	-11.1966
因縁	-11.1966
平旦	-11.1966
七曜	-11.1967
都廣	-11.1968
愛憎	-11.1968
隂司	-11.197
流遁	-11.1973
不泄	-11.1974
尫	-11.1974
貧富	-11.1974
以金	-11.1974
淮南王	-11.1977
十干	-11.1977
其腹	-11.1977
體數	-11.1979
言萬物	-11.1982
眞僞	-11.1986
樂羊	-11.1989
深淵	-11.199
一舉而	-11.1991
楚大夫	-11.1992
諸候	-11.1992
事親	-11.1993
能盡	-11.1995
不仕	-11.1997
論語	-11.1998
連城	-11.1998
於外則	-11.2
欲其	-11.2001
小運	-11.2001
不可奪	-11.2001
范氏	-11.2003
央	-11.2004
謀慮	-11.2006
猶豫	-11.2007
我先	-11.2008
師曠曰	-11.201
無慮	-11.2012
無光	-11.2013
則光	-11.2014
失之於	-11.2016
以清	-11.2017
餓鬼	-11.2017
者非以	-11.2018
知事	-11.2019
趨舍	-11.202
孔氏	-11.2023
用間	-11.2024
言敵人	-11.2027
若然者	-11.2029
不納	-11.2032
弗爲也	-11.2033
受賞	-11.2036
食肉	-11.2038
不差	-11.2038
奮擊	-11.204
莫得	-11.2042
而索	-11.2042
樹木	-11.2042
公仲	-11.2043
念慮	-11.2045
漢高	-11.2049
顔子	-11.205
無辜	-11.205
輕薄	-11.205
尊位	-11.2054
侍中	-11.2058
室也	-11.2059
和調	-11.206
也仁者	-11.2061
聾者	-11.2061
視之則	-11.2062
知之矣	-11.2062
從上	-11.2063
大倫	-11.2067
唯聖人	-11.2067
圓者	-11.2068
有度	-11.2069
術則	-11.2069
短長	-11.2069
也〇杜牧曰言	-11.2071
所言	-11.2071
干木	-11.2072
之爲道	-11.2075
則同	-11.2075
此三者	-11.2076
民萌	-11.2076
賁育	-11.2079
商臣	-11.2083
屬土	-11.2085
能審	-11.2088
掩其	-11.2088
凡人之	-11.209
來則	-11.209
盡忠	-11.209
以文	-11.209
純陽	-11.2091
季子	-11.2092
元炁	-11.2094
之由	-11.2094
辟兵	-11.2095
變成	-11.2096
七宿	-11.21
曰不然	-11.2102
子女	-11.2102
鍊形	-11.2102
見敵	-11.2103
相率	-11.2105
蓋謂	-11.2106
命有司	-11.2107
於魯	-11.2109
藏之	-11.211
無一人	-11.2111
卵生	-11.2116
與彼	-11.212
不難	-11.2121
成都	-11.2121
所歸	-11.2123
來至	-11.2125
威德	-11.2125
至公	-11.2126
使然也	-11.2127
簡主	-11.2133
明夷	-11.2134
八音	-11.2134
所論	-11.2134
政者	-11.2138
出于	-11.2139
一字	-11.214
數里	-11.2141
也陸曰	-11.2142
田成	-11.2144
衰世	-11.2147
莫有	-11.2148
則恐	-11.2148
無與	-11.215
厚賞	-11.2152
蓋言	-11.2153
不争	-11.2153
穴中	-11.2158
之原也	-11.216
六子	-11.2164
千歲之	-11.2168
亂政	-11.2169
之謗	-11.2175
不撓	-11.2176
四十八	-11.2177
奚足	-11.2179
天地之心	-11.2182
同其	-11.2184
甚衆	-11.2186
財力	-11.2187
運轉	-11.2188
無德	-11.219
存亡之	-11.219
無爲也	-11.2192
分財	-11.2195
一見	-11.2198
交戰	-11.2202
往者	-11.2203
固不可	-11.2203
三年而	-11.2204
而莫之	-11.2208
成水	-11.2208
未見其	-11.221
子都	-11.2211
佛言	-11.2211
主上	-11.2212
真水	-11.2217
攻韓	-11.2217
十九年	-11.2221
一里	-11.2221
一卦	-11.2234
少則	-11.2234
彼則	-11.2234
馬馬	-11.2234
不勤	-11.2235
念之	-11.2235
不遷	-11.2236
豈無	-11.2239
成其	-11.2241
因果	-11.2241
周官	-11.2244
行炁	-11.2246
第六	-11.2247
聖智	-11.2247
之遠	-11.2252
謀攻	-11.2255
至言	-11.2257
其神爲	-11.2258
所取	-11.2258
問其故	-11.2259
七政	-11.2263
灌之	-11.2267
無從	-11.2268
治矣	-11.2269
原道	-11.2269
大節	-11.2271
不著	-11.2272
死罪	-11.2275
漁者	-11.2277
其書	-11.2283
凡物	-11.2285
千載	-11.2285
攷之	-11.2286
萬方	-11.2287
將必	-11.2288
傾覆	-11.2291
之故也	-11.2293
九日	-11.2293
任重	-11.2299
其禮	-11.2303
内守	-11.2303
比之	-11.2308
其身也	-11.231
九夷	-11.2311
言我	-11.2317
東至	-11.2318
元陽	-11.232
誤也	-11.2321
者也次七	-11.2322
聚也	-11.2326
應侯	-11.2329
平也	-11.233
旣至	-11.233
觀之則	-11.2331
近則	-11.2333
無益也	-11.2338
是何	-11.2339
以承	-11.2339
六經	-11.2339
分為二	-11.234
龍之	-11.2341
心氣	-11.2342
勿用	-11.2345
交也	-11.2346
近世	-11.2346
五種	-11.2346
而不爲	-11.2347
高陽	-11.2348
相錯	-11.235
為人	-11.235
之一字	-11.235
陰陽相	-11.2359
之末也	-11.2361
窮也	-11.2362
立言	-11.2362
至死	-11.2365
兵家	-11.2367
防其	-11.2368
秦之	-11.2371
憂也	-11.2377
數數	-11.2378
以問	-11.2379
漢王	-11.2383
在中央	-11.2385
自養	-11.2385
不具	-11.2387
水流	-11.239
所著	-11.239
至是	-11.2392
愈於	-11.2393
攻宋	-11.2393
不赦	-11.2394
而樂	-11.2395
東流	-11.2397
而顯	-11.24
世俗之	-11.24
以便	-11.2401
如此而	-11.2402
以奪	-11.2403
可否	-11.2404
日稱	-11.2407
兵甲	-11.2409
今天下之士君子	-11.2419
藏形	-11.2424
威勢	-11.2425
發生	-11.2427
凡有	-11.2429
教令	-11.2433
從地	-11.2434
二萬	-11.2434
〇張預曰凡	-11.2435
諸君	-11.2436
君亦	-11.2438
獨以	-11.244
有子	-11.2445
陽城	-11.2447
入見	-11.2448
三辰	-11.2449
死傷	-11.2452
晝日	-11.2453
明目	-11.2453
老者	-11.2454
非眞	-11.2454
爲人臣	-11.2457
在西	-11.2462
無思	-11.2469
者也今	-11.2469
得失之	-11.2471
城池	-11.2471
君臣相	-11.2472
便能	-11.2474
神氣	-11.2474
相遠	-11.2476
無邪	-11.248
行持	-11.2483
而棄	-11.2485
立命	-11.2491
平日	-11.2493
水火之	-11.2497
以前	-11.2503
有悟	-11.2504
以防	-11.2507
况乎	-11.2511
不遇	-11.2518
以取勝	-11.252
臍中	-11.2521
名利	-11.2521
俗之	-11.2523
而不改	-11.2525
其室	-11.2529
陵之	-11.2529
皆合	-11.2531
此等	-11.2536
為陰陽	-11.254
流水	-11.2542
襄公	-11.2542
不禁	-11.2552
五石	-11.2552
不堅	-11.2554
猶且	-11.2559
此物	-11.2567
之黨	-11.2568
專以	-11.2571
火火	-11.2574
後天也	-11.2575
者不得	-11.2575
國無	-11.2576
但見	-11.2576
人之心	-11.2577
也不聞	-11.2583
知來	-11.2585
赤氣	-11.2586
於楚	-11.2587
其所以爲	-11.2592
哉此	-11.2594
者國之	-11.2597
萬人之	-11.2603
正在	-11.2607
皆自然	-11.2608
當日之夜	-11.2609
正赤	-11.261
發之	-11.2611
禍亂	-11.2611
求索	-11.2613
亦與	-11.2613
天所	-11.2615
彼雖	-11.2618
詩書	-11.2618
者刑	-11.262
苟無	-11.2621
則神	-11.2624
静也	-11.2626
竟以	-11.2627
有力者	-11.2636
爲鬼	-11.2637
其禄	-11.2638
處家	-11.264
平心	-11.2641
之極也	-11.2642
己也	-11.2643
守城	-11.2644
一定	-11.2645
兵衆	-11.2645
衆多	-11.2647
之人也	-11.2654
愚智	-11.266
或用	-11.266
辭以	-11.2664
謂爲	-11.2667
進德	-11.2667
戰必	-11.2668
害則	-11.267
修之	-11.2671
然猶	-11.2671
我今	-11.2672
所樂	-11.2673
事大	-11.2675
盛大	-11.2675
也此言	-11.2679
之甚也	-11.2679
其鋒	-11.2688
一小	-11.2688
南海	-11.2688
二八	-11.2699
過者	-11.27
力士	-11.27
蓋其	-11.2703
弗受	-11.2704
焉夫	-11.2704
山水	-11.2707
交則	-11.2707
也但	-11.2709
十餘萬	-11.271
未可以	-11.2713
一半	-11.2715
不恤	-11.2716
于淵	-11.2717
流星	-11.2718
患在	-11.2727
何事	-11.2728
復見	-11.2734
而後行	-11.2734
也子墨子	-11.2735
八日	-11.2741
而化	-11.2741
中國之	-11.2743
燕人	-11.2743
而不顧	-11.2744
勝人	-11.2748
乘車	-11.2749
遣將	-11.2749
而敗	-11.2751
孰爲	-11.2753
之稱	-11.2755
内觀	-11.2755
則異	-11.276
下田	-11.2761
持之	-11.2769
以權	-11.2773
而問之	-11.2776
位也	-11.2776
之勇	-11.2777
以守	-11.2778
不報	-11.278
上至	-11.2783
民知	-11.2783
其狀	-11.2783
不勸	-11.2784
不用者	-11.2787
老而	-11.2787
天地之大	-11.2796
所積	-11.2798
非止	-11.2798
所養	-11.28
居西	-11.28
弗聽	-11.2802
四支	-11.2805
今世之	-11.2805
不來	-11.2808
蒼龍	-11.2809
一身之	-11.2809
變通	-11.2809
矣然則	-11.2809
見鬼	-11.281
六國	-11.2817
至乎	-11.2821
吏士	-11.2823
三爲成意	-11.2825
哉若	-11.2827
上七	-11.2828
用則	-11.2829
獻之	-11.2829
非此	-11.283
則人主	-11.2833
大笑	-11.2834
虚而	-11.2835
扃	-11.2836
節而	-11.2841
之寳也	-11.2843
無義	-11.2844
全勝	-11.2845
人衆	-11.2846
用師	-11.285
不適	-11.2855
化生	-11.2857
此必	-11.2865
或在	-11.2867
汲汲	-11.2869
藥物	-11.2872
終不能	-11.2873
夫以	-11.2874
其知	-11.2875
乃止	-11.2876
而不失其	-11.2877
律中	-11.2883
小善	-11.2884
也律受	-11.2884
十歲	-11.2885
台	-11.289
五十步	-11.2891
飛金晶	-11.2894
知音	-11.2894
諫者	-11.2895
氣質之性	-11.2896
杵	-11.2896
皆從	-11.2898
足以爲	-11.2899
御史	-11.2902
嘻	-11.2902
耳夫	-11.2902
弔	-11.2904
家性爲	-11.2904
若苟	-11.2905
天尊願我	-11.2905
七八九六	-11.2905
涵	-11.2905
是可爲乎賛曰	-11.2906
療	-11.2906
也二宋陸本	-11.2906
蓏	-11.2906
怳	-11.2907
司馬宣王	-11.2907
舂	-11.2908
衒	-11.2908
軔	-11.2909
儼	-11.291
監司	-11.2911
入名山	-11.2911
部伍	-11.2912
簪	-11.2912
也宋陸王本	-11.2912
溟	-11.2913
擔	-11.2913
鈴	-11.2914
禪師	-11.2914
包裹	-11.2914
斧鉞	-11.2914
爾乃	-11.2916
蚊	-11.2916
錙銖	-11.2916
杏	-11.2916
𡨚	-11.2916
貝	-11.2917
衷	-11.2917
歲名曰	-11.2917
法術之士	-11.2917
羔	-11.2917
齧	-11.2917
旃	-11.2919
要道	-11.2919
拭	-11.2919
謨	-11.2919
釐	-11.2919
俄頃	-11.292
綽	-11.292
鎬	-11.292
雁	-11.292
恡	-11.292
鴟	-11.292
弁	-11.2921
嬖	-11.2921
款	-11.2921
幣帛	-11.2921
葵	-11.2921
企	-11.2921
麒麟	-11.2921
愎	-11.2921
漕	-11.2922
瓶	-11.2922
身死國亡	-11.2922
開門	-11.2922
五居盛位	-11.2922
涌	-11.2922
不亦宜乎	-11.2922
殻	-11.2922
▲	-11.2923
慄	-11.2923
蹇叔	-11.2923
蛙	-11.2923
仆	-11.2924
盃	-11.2924
慤	-11.2924
蠻	-11.2924
糾	-11.2924
而理	-11.2925
閲	-11.2925
雋	-11.2925
躓	-11.2926
騏驥	-11.2926
鼎俎	-11.2926
孟孫	-11.2926
勾陳	-11.2926
鶩	-11.2927
臺榭	-11.2927
童蒙	-11.2927
紏	-11.2927
堰	-11.2927
牝牡	-11.2927
魏文侯	-11.2927
仇讎	-11.2927
步騎	-11.2927
穡	-11.2928
菟	-11.2928
眯	-11.2928
劓	-11.2928
天意	-11.2928
塘	-11.2928
淖	-11.2928
裴	-11.2928
驚蟄	-11.2928
佃	-11.2928
鞠	-11.2928
韻	-11.2928
十二支	-11.2929
猨	-11.2929
大厦	-11.2929
冤	-11.2929
者耳	-11.2929
𨓜	-11.293
五帝三王	-11.293
鄧林	-11.293
憾	-11.293
晋人程本著	-11.293
不亦可乎	-11.293
彝倫	-11.2931
黼黻	-11.2931
而長	-11.2931
醮	-11.2931
縶	-11.2931
惛	-11.2931
艘	-11.2931
霤	-11.2931
顚	-11.2932
銓衡	-11.2932
錣	-11.2932
盾	-11.2932
駁	-11.2932
江淮	-11.2932
著述	-11.2933
潮	-11.2933
滋味	-11.2933
雖强	-11.2934
守道	-11.2934
爨	-11.2934
村	-11.2934
雖曰	-11.2934
擯	-11.2935
百神	-11.2935
亶	-11.2935
辤	-11.2935
窒	-11.2935
其勞	-11.2935
優游	-11.2936
恬淡	-11.2936
饜	-11.2936
伴	-11.2936
陜	-11.2936
紈	-11.2936
田忌	-11.2936
讐	-11.2936
谿谷	-11.2936
湊	-11.2937
行冬令則	-11.2937
刈	-11.2937
閭里	-11.2937
雍季	-11.2937
若二公者	-11.2937
呵	-11.2937
不疾	-11.2937
巖穴	-11.2938
賑	-11.2938
與我戰	-11.2938
嘲	-11.2938
祛	-11.2939
鉗	-11.294
芟	-11.294
既生	-11.294
鉢	-11.294
煦	-11.294
不亡	-11.2941
筦	-11.2941
蔓	-11.2941
俞	-11.2941
葅	-11.2941
收録	-11.2941
顔回	-11.2941
玩好	-11.2942
耿	-11.2942
廊	-11.2943
旦暮	-11.2943
榜	-11.2943
也嗚呼	-11.2943
不釋	-11.2944
布帛	-11.2944
恚怒	-11.2944
廣狹	-11.2944
諺曰	-11.2944
猾	-11.2945
太乙	-11.2945
斗斛	-11.2945
弓弩	-11.2945
治隂官左	-11.2945
冡	-11.2945
二步	-11.2946
彼衆我寡	-11.2946
凶人	-11.2946
長丈	-11.2947
恰	-11.2947
兕虎	-11.2948
不困	-11.2948
百里奚	-11.2948
掊	-11.2949
㪷	-11.2949
郵	-11.2949
而聽	-11.295
妻妾	-11.295
不得爲	-11.295
亨	-11.2951
項王	-11.2951
彌綸	-11.2951
司徒	-11.2952
波濤	-11.2953
庚申	-11.2953
奇伏	-11.2955
洛陽	-11.2955
執圭	-11.2955
歐陽	-11.2956
江漢	-11.2956
黃帝	-11.2959
則危	-11.2959
善射者	-11.2962
奇偶	-11.2963
孤寡	-11.2963
判官	-11.2964
之具也	-11.2964
丑未	-11.2964
緩急	-11.2964
不少	-11.2965
宰予	-11.2965
田野	-11.2966
靈龜	-11.2966
推移	-11.2967
玉池	-11.2967
莫不有	-11.2969
金帛	-11.2969
或謂之	-11.297
季夏	-11.297
左手	-11.2971
自衒	-11.2971
鮑生	-11.2971
后土	-11.2973
人馬	-11.2973
淺薄	-11.2974
而語	-11.2975
之塗	-11.2977
乘舟	-11.2977
相干	-11.2977
條風	-11.2978
參政	-11.2979
感應篇	-11.298
者矣或有	-11.2983
任用	-11.2987
明主之道	-11.2987
午至亥	-11.2989
汲汲於	-11.2989
車也	-11.2989
從何	-11.2989
諸儒	-11.2989
奔北	-11.299
六丁	-11.299
不猒	-11.299
餘日	-11.299
焚身	-11.2991
當是時	-11.2991
有名	-11.2992
財寳	-11.2995
之所致也	-11.2995
皇極	-11.2995
失其所以	-11.3
欺也	-11.3001
天性	-11.3002
俊民	-11.3003
之客	-11.3004
伐吴	-11.3005
青黄	-11.3007
故稱	-11.3007
絶倫	-11.3008
秦韓	-11.3009
條達	-11.301
小畜	-11.301
豈唯	-11.301
而進之	-11.301
好醜	-11.3013
自少	-11.3014
長生不死	-11.3016
上昇	-11.3017
行此法	-11.3017
而終於	-11.3018
午後	-11.3018
不滅	-11.3018
五十步一	-11.3019
之道抱朴子曰	-11.3019
二爲思中而當夜	-11.302
者易	-11.302
說而	-11.3021
其節	-11.3021
在其間	-11.3023
齊侯	-11.3023
也今子	-11.3027
曰敢問	-11.3027
明鏡	-11.3027
申不害	-11.3029
城邑	-11.303
草之	-11.303
血流	-11.3031
下士	-11.3033
天仙	-11.3037
其類在	-11.3038
循理	-11.3038
管子	-11.3039
不離乎	-11.304
詐也	-11.3043
庸夫	-11.3043
發機	-11.3043
也范小宋本	-11.3044
進趨	-11.3044
飛龍	-11.3046
亦知	-11.3046
偶俗	-11.3048
謂子墨子曰	-11.305
春風	-11.3052
欲殺	-11.3054
死于	-11.3055
興亡	-11.3056
之樂也	-11.3057
光耀	-11.3057
益其	-11.3058
王皙曰謂	-11.3058
柱國	-11.306
涉水	-11.3061
進賢	-11.3061
大旱	-11.3062
不寧	-11.3063
流轉	-11.3064
心腹	-11.3068
則羣臣	-11.3068
趨利	-11.3069
游於	-11.3069
將軍之	-11.3073
哉子墨子曰	-11.3074
夷吾	-11.3075
廉潔	-11.3076
辰極	-11.3076
罪福	-11.3076
君子小人	-11.3077
待人	-11.308
陳兵	-11.3083
劉氏	-11.3084
所中	-11.3085
斷絶	-11.3089
破其	-11.3089
天地之性	-11.309
之貞	-11.3091
量敵	-11.3092
務光	-11.3094
則彼	-11.3094
長安	-11.3098
犯禁	-11.3099
萬象	-11.3101
良臣	-11.3101
其弟	-11.3106
不愧	-11.3109
苟且	-11.311
何能	-11.3111
自殺	-11.3111
天師	-11.3119
窮極	-11.312
以其所	-11.312
我乃	-11.3122
可以得	-11.3123
位而	-11.3124
虛實	-11.3125
一戰	-11.3126
他日	-11.3127
馬者	-11.3127
審察	-11.3127
必且	-11.3128
求救	-11.313
無害於	-11.313
元年	-11.3131
一百八十	-11.3132
見驗	-11.3132
權謀	-11.3136
計其	-11.3137
遇敵	-11.3138
德薄	-11.3138
不可盡	-11.3139
加於	-11.314
井中	-11.3142
之所以立	-11.3145
夫妻	-11.3148
所經	-11.3149
為春	-11.3149
兩間	-11.3152
無角	-11.3152
畫地	-11.3153
决戰	-11.3156
終身不	-11.3157
而分	-11.316
去就	-11.3161
盡心	-11.3162
賢臣	-11.3164
親親	-11.3167
不能獨	-11.3168
之聖也	-11.3169
三十年	-11.317
藝文	-11.3171
女樂	-11.3174
二日	-11.3177
百戰	-11.3178
於上而	-11.3179
是知	-11.3181
萬化	-11.3181
明德	-11.3184
士有	-11.3184
致千里	-11.3185
精思	-11.3188
斗建	-11.3189
時候	-11.319
白石	-11.3192
神藥	-11.3196
安得無	-11.3198
成物	-11.3199
豈必	-11.3202
魯國	-11.3202
異同	-11.3203
丹田中	-11.3203
其本而	-11.3205
治國者	-11.3208
之宿	-11.3209
甘心	-11.3213
長夜	-11.3217
一貫	-11.3218
可欲	-11.3222
昔張	-11.3227
誰能	-11.3227
誠信	-11.323
半日	-11.3231
將誰	-11.3235
一千	-11.3236
魏將	-11.3238
合於道	-11.324
天下之亂	-11.3241
年命	-11.3247
應乎	-11.325
在地下	-11.325
傷民	-11.3253
於石	-11.3255
皆言	-11.3256
里中	-11.3258
大山	-11.3262
方書	-11.3266
得免	-11.3268
堯時	-11.327
而欲以	-11.3272
以厚利	-11.3272
太師	-11.3273
所及	-11.3273
賞有功	-11.3275
以手	-11.3277
不危	-11.3277
對曰臣	-11.3279
至今不	-11.328
後人	-11.328
明月	-11.3284
和也	-11.3284
適足	-11.3285
智力	-11.329
而慕	-11.3291
六尺	-11.3291
天地四時	-11.3293
惟恐	-11.3295
服藥	-11.3295
不能盡	-11.3299
之軌	-11.3307
且有	-11.3307
宋人	-11.3309
北宫	-11.331
者萬物	-11.331
於人者	-11.3314
車服	-11.3318
不充	-11.3319
仁智	-11.3319
甚至	-11.332
晦日	-11.332
而禍	-11.3321
去國	-11.3322
吾欲	-11.3322
之差	-11.3322
爲王	-11.3325
於公	-11.3326
國小	-11.3326
交兵	-11.3326
為利	-11.3328
加焉	-11.3328
兊卦	-11.3334
其星	-11.3336
任賢	-11.3337
自生	-11.334
不慮	-11.3344
流於	-11.3346
並行	-11.3348
不熟	-11.3352
之死也	-11.3353
以俟	-11.3355
責人	-11.3355
深遠	-11.3357
自外	-11.3361
賤者	-11.3361
今臣	-11.3363
以十二	-11.3366
四達	-11.337
億萬	-11.3371
之國也	-11.3371
怒曰	-11.3371
必不能	-11.3371
事實	-11.3372
金鼓	-11.3377
好士	-11.3386
在身	-11.3387
二陽	-11.3389
賜之	-11.3389
困於	-11.339
不可擊	-11.3393
等事	-11.3394
世無	-11.3394
不可偏	-11.3396
所未	-11.3397
地形之	-11.3397
禍敗	-11.3403
室家	-11.3403
功立	-11.3406
有十	-11.3407
進取	-11.3409
取舍	-11.3418
宿於	-11.3419
一部三	-11.342
争地	-11.342
盛極	-11.342
有禮	-11.3423
方可	-11.3426
震兌	-11.3429
聖人之言	-11.343
有差	-11.3431
死間	-11.3435
非徒	-11.3435
為備	-11.3441
天皇	-11.3441
人謂	-11.3442
一節	-11.3445
故人主	-11.3448
淺深	-11.346
而少	-11.3464
謀臣	-11.3467
得地	-11.3469
君子以	-11.3469
將來之	-11.3471
不營	-11.3471
地之中	-11.3473
富者	-11.3474
為三	-11.3478
校定	-11.3478
同氣	-11.3479
擇人	-11.3479
之子也	-11.3491
事業	-11.3492
門者	-11.3493
者人主之	-11.3495
非特	-11.3496
以窮	-11.3496
兵士	-11.3497
固非	-11.3497
得天下	-11.3497
天形	-11.3499
三十分	-11.3502
空言	-11.3503
而定	-11.3506
遺其	-11.3508
復以	-11.3511
參之	-11.3516
二升	-11.3517
苟有	-11.3518
别有	-11.3519
一爻	-11.3521
阪	-11.3522
而不聽	-11.3526
明明	-11.3529
之景	-11.3529
自作	-11.3535
知禍福	-11.354
日有	-11.3541
其初	-11.3543
斷其	-11.3543
二尺	-11.3549
風雲	-11.355
望之	-11.355
二六	-11.355
而已哉	-11.355
塞也	-11.3552
中有一	-11.3552
始出	-11.3553
國安	-11.3554
黄精	-11.3556
故生	-11.3556
〇何氏曰如	-11.3556
付之	-11.3557
之言乎	-11.356
說得	-11.3562
宣子	-11.3563
之所成	-11.3563
衆所	-11.3565
急於	-11.3567
也王本無	-11.3568
者天也	-11.3571
于外	-11.3572
攻則	-11.3572
墻之	-11.3574
不可失	-11.3577
之草	-11.3579
得五	-11.3579
求得	-11.3586
矣或曰	-11.3587
中虚	-11.3588
一石	-11.359
知道	-11.359
要當	-11.3592
其職	-11.3594
危身	-11.3594
著明	-11.3596
功德	-11.3607
上下同	-11.3607
足也	-11.3608
天下皆	-11.3609
聲名	-11.3609
因此	-11.361
其枝	-11.3615
因曰	-11.3616
之口	-11.3617
亦皆	-11.3619
險難	-11.3619
於諸侯	-11.3619
隨而	-11.362
積隂	-11.3622
爲姦	-11.3627
滿也	-11.3627
六爲上禄	-11.363
雲物	-11.3633
十八日	-11.3634
為善	-11.3637
中黄	-11.3637
得仙者	-11.364
秦軍	-11.364
至要	-11.3641
虚心	-11.3641
相接	-11.3642
生陰陽	-11.3647
至人	-11.3649
爲善者	-11.3651
云何	-11.3652
此其所以	-11.3653
乃成	-11.3654
拒之	-11.366
於巳	-11.3661
不鳴	-11.3661
不料	-11.3661
勿使	-11.3663
故聖	-11.3668
甚易	-11.3671
非牛	-11.3671
法當	-11.3671
物理	-11.3672
如彼	-11.3673
天下之事	-11.3674
卦變	-11.3677
而不動	-11.3678
眞一	-11.3679
四通	-11.368
之實也	-11.3681
少時	-11.3681
耕者	-11.3681
之由是	-11.3689
則死	-11.3691
其所守	-11.3692
者哉	-11.3692
故易曰	-11.3695
治軍	-11.3699
煑	-11.37
若此則	-11.3701
也愚謂	-11.3703
其迹	-11.3704
以後	-11.3705
有意	-11.3708
惟是	-11.3708
范本作	-11.3709
親愛	-11.3713
也若以	-11.3715
乎是以	-11.3715
則不知	-11.3723
末世	-11.3726
不誠	-11.3726
無久	-11.3728
可用也	-11.3736
之基	-11.3738
事物	-11.3744
之飾	-11.3745
造化之	-11.3747
山下	-11.3747
久視	-11.3748
守正	-11.3753
彼有	-11.3756
實是	-11.3761
發乎	-11.3762
知道者	-11.3766
為十二	-11.3766
候其	-11.3768
之境	-11.3773
求諸	-11.3774
可謂知	-11.3777
以盡	-11.3777
不減	-11.3781
真陽	-11.3781
形神	-11.3782
天下之利	-11.3782
數人	-11.3785
國亂	-11.3787
不飾	-11.3787
奚爲	-11.3787
爲變	-11.3787
此意	-11.3787
者邪	-11.3789
也若乃	-11.3792
人才	-11.3792
與吾	-11.3795
三危	-11.3796
北為	-11.38
先聖	-11.3804
交接	-11.3804
日食	-11.3806
一部	-11.381
囿	-11.3811
至貴	-11.3814
根也	-11.3817
求仙	-11.3818
此語	-11.3819
必誅	-11.3822
孫子曰	-11.3823
門外	-11.3829
人言	-11.3829
日數	-11.3831
隨其	-11.3833
敵情	-11.3834
弱水	-11.3834
一聽	-11.3839
還自	-11.3842
效之	-11.3843
爲敗	-11.3844
卑而	-11.3847
不調	-11.3849
曲也	-11.3855
此天下之	-11.3855
本自	-11.3859
不可勝數	-11.3865
居正	-11.3866
難爲	-11.3868
視也	-11.3869
勞之	-11.3872
道引	-11.3874
婦人之	-11.3876
月月	-11.3882
隂德	-11.3883
隱者	-11.3883
乎哉	-11.3886
三變	-11.389
其所長	-11.3891
二十三	-11.3893
主君	-11.3897
故善用兵者	-11.39
之正也	-11.3901
相若	-11.3901
益多	-11.3901
仕於	-11.3902
所與	-11.3902
光大	-11.3903
衣食之	-11.3907
這裏	-11.3913
而不覺	-11.3914
多言	-11.3917
爲人君	-11.3924
白帝	-11.3924
多難	-11.3925
而忽	-11.3927
患其	-11.3927
銳卒	-11.3929
衢地	-11.393
桀紂幽厲	-11.3932
有隙	-11.3932
爻為	-11.3934
九寸	-11.3934
猶不可	-11.3935
以獻	-11.3939
五子	-11.394
逃之	-11.3941
象也	-11.3943
大用	-11.3949
今乃	-11.3954
筩	-11.3959
謂之亂	-11.396
無禍	-11.3961
其故何也	-11.3967
言此	-11.3968
曰非	-11.3969
凡夫	-11.3975
萬乘	-11.3976
胡人	-11.3979
不損	-11.3979
爲衣	-11.3981
合一	-11.3986
二爲思中而當晝君子	-11.3989
輕刑	-11.3989
與衆	-11.399
之〇	-11.3992
百步一	-11.3992
祭之	-11.3992
害於	-11.3993
而擅	-11.3994
雖復	-11.3997
而秦	-11.3998
河圖洛書	-11.3998
圯	-11.3998
蕤賔	-11.4004
三百八十四	-11.4005
蠭	-11.4006
不可任	-11.4009
輜	-11.4009
見驗方止	-11.4009
談者	-11.401
若令	-11.401
君臣上下	-11.4011
功伐	-11.4011
松栢	-11.4013
衂	-11.4014
以塗	-11.4015
啖	-11.4015
震坎艮	-11.4015
夀	-11.4016
於此益知	-11.4016
者五	-11.4017
婬	-11.4018
彬	-11.4019
筮	-11.4019
軰	-11.402
衍之為	-11.402
二百四十	-11.402
竺	-11.402
薰	-11.402
熯	-11.4021
斜	-11.4021
命終之後	-11.4021
曹操	-11.4022
兎	-11.4022
縈	-11.4023
汪濊	-11.4023
百戰百勝	-11.4024
竽	-11.4024
出其不意	-11.4024
六過中而當夜	-11.4024
綬	-11.4024
鯉	-11.4025
觜	-11.4025
憔悴	-11.4025
呌	-11.4025
所活者	-11.4025
茵	-11.4026
遣之	-11.4026
喬	-11.4026
雹	-11.4026
淖齒	-11.4026
比喻曰	-11.4027
日之光	-11.4027
宂	-11.4028
范昭	-11.4028
柏	-11.4028
蓐	-11.4028
攀	-11.4028
蚌	-11.4028
公輸	-11.4029
越王勾踐	-11.4029
袖	-11.4029
𨱆	-11.4029
鯉魚	-11.4029
行春令則	-11.4029
句踐	-11.403
寛	-11.403
熊羆	-11.403
菱	-11.403
勲	-11.4031
沿	-11.4031
濱	-11.4031
施者	-11.4031
藐	-11.4031
集註太玄經卷之	-11.4031
翫	-11.4031
閎	-11.4031
棠	-11.4032
瑗	-11.4032
能明	-11.4032
梧	-11.4032
礥	-11.4032
驍	-11.4032
深山	-11.4033
鸞鳳	-11.4033
悠悠	-11.4033
撻	-11.4033
欬	-11.4033
璣	-11.4033
鍛	-11.4033
猥	-11.4033
製	-11.4033
袴	-11.4034
誹謗	-11.4034
㣲	-11.4034
猴	-11.4035
懽	-11.4035
甑	-11.4035
越王句踐	-11.4035
債	-11.4035
霑	-11.4035
娥	-11.4035
郯	-11.4035
自若	-11.4035
二方	-11.4036
迪	-11.4036
油	-11.4036
㕔	-11.4036
舄	-11.4036
龐子曰願聞	-11.4036
終而復始	-11.4037
勾踐	-11.4037
河洛	-11.4037
孩	-11.4037
箎	-11.4037
絜	-11.4038
齊神武	-11.4038
紊	-11.4038
走飛草木	-11.4038
厚葬久喪	-11.4038
吁	-11.4039
絆	-11.4039
三年之喪	-11.4039
倮	-11.4039
悴	-11.4039
教誨	-11.4039
涔	-11.4039
黍稷	-11.4039
苴	-11.4039
穀雨	-11.404
泓	-11.404
璜	-11.404
公孟子曰	-11.404
彤	-11.404
按如佛說	-11.404
扎	-11.404
皇帝王伯	-11.4041
翕翕	-11.4041
軄	-11.4041
齦	-11.4041
紿	-11.4041
謚	-11.4041
橑	-11.4041
昬	-11.4041
儔	-11.4041
蜩	-11.4041
棊	-11.4041
而示之	-11.4042
戇	-11.4042
穎	-11.4042
令行禁止	-11.4042
斟酌	-11.4042
昆蟲	-11.4042
醯	-11.4043
七日有風名	-11.4043
攄	-11.4043
未之聞也	-11.4043
甌	-11.4043
樵採	-11.4043
跛	-11.4043
揺	-11.4043
綏	-11.4043
鏑	-11.4043
腊	-11.4043
濤	-11.4043
胏	-11.4044
俯仰	-11.4044
浩浩	-11.4044
勣	-11.4044
脱	-11.4044
捲	-11.4044
摛	-11.4044
彊梁	-11.4044
玦	-11.4044
豺	-11.4044
閨	-11.4044
愉	-11.4045
江湖	-11.4045
鐘鼓	-11.4045
畒	-11.4045
強	-11.4045
中為	-11.4045
嗜慾	-11.4045
蓋難分之	-11.4046
伐趙	-11.4046
筩中	-11.4046
崔杼	-11.4046
薺	-11.4046
之災	-11.4047
貽	-11.4047
胎仙	-11.4047
孰敢	-11.4047
榻	-11.4047
瓮	-11.4047
間諜	-11.4047
呪詛	-11.4047
錞	-11.4047
齎	-11.4047
知敵之情	-11.4047
六寸	-11.4047
倪	-11.4047
蜃	-11.4047
昂	-11.4048
二寸	-11.4048
恭敬	-11.4048
蔣	-11.4048
趙奢	-11.4048
寖	-11.4049
郷里	-11.4049
譙	-11.4049
培	-11.4049
九韶	-11.4049
芝草	-11.405
屑	-11.405
貂	-11.405
釘	-11.405
廉頗	-11.405
叚	-11.405
黂	-11.4051
臨淄	-11.4051
切宋曰	-11.4051
斗極	-11.4051
砥礪	-11.4051
不足而	-11.4052
钁	-11.4052
瑰	-11.4052
攻小國	-11.4052
怯弱	-11.4052
勘	-11.4052
區區	-11.4052
衞	-11.4052
繹	-11.4052
吊	-11.4052
螭	-11.4052
輔佐	-11.4053
勞佚	-11.4053
者爲如何	-11.4053
嘈	-11.4054
禦之	-11.4054
境内之	-11.4054
東壁	-11.4054
院	-11.4054
汨	-11.4054
駿馬	-11.4054
河圖之數	-11.4055
墨翟	-11.4055
段干木	-11.4055
嵩岱	-11.4055
夙	-11.4056
田成氏	-11.4056
入門	-11.4057
糟粕	-11.4057
支體	-11.4057
愍	-11.4058
陋巷	-11.4058
寂漠	-11.4058
詭詐	-11.4058
短褐	-11.4059
腐鼠	-11.4059
謐	-11.4059
前後左右	-11.4059
筠	-11.4059
為坤	-11.406
徭役	-11.406
祖宗	-11.4061
嬪	-11.4062
六日七分	-11.4062
立爲天子	-11.4062
拯溺	-11.4062
律曆	-11.4063
憂悲	-11.4063
庶績	-11.4063
清澄	-11.4063
畫卦	-11.4064
碩儒	-11.4065
金匱	-11.4065
皎	-11.4065
孟春	-11.4066
孟諸	-11.4066
迂闊	-11.4066
樂毅	-11.4066
在上位	-11.4067
毒藥	-11.4067
捧	-11.4067
苞	-11.4068
刻削	-11.4068
孝基	-11.407
而尊	-11.4071
良工	-11.4072
碎首	-11.4072
宗族	-11.4072
霜降	-11.4072
三軍之士	-11.4072
則安	-11.4072
兆汝	-11.4074
降伏	-11.4074
必擇	-11.4075
奪筭	-11.4076
括囊	-11.4077
五步一	-11.4079
東嶽	-11.408
不即	-11.408
轉之丹服之	-11.4081
延州	-11.4083
覆載	-11.4083
以利動	-11.4083
參差	-11.4084
笑曰	-11.4084
冠履	-11.4086
沂	-11.4086
勸沮	-11.4088
火德	-11.4089
居中央	-11.409
責之以	-11.409
誦經	-11.409
衰老	-11.409
善攻者	-11.4091
百穀	-11.4091
今有人於此	-11.4093
與日	-11.4094
甲辰	-11.4095
擾亂	-11.4095
劉備	-11.4095
成鳩	-11.4095
財利	-11.4095
忠貞	-11.4097
愚嘗	-11.4097
反舌	-11.4097
唯毋	-11.4098
冨貴	-11.4099
子韋	-11.4099
革車	-11.41
離叛	-11.4101
斷割	-11.4102
不能生	-11.4103
解其	-11.4104
先生之言	-11.4104
未可知也	-11.4105
一般	-11.4106
一部二家	-11.4106
酒肉	-11.4106
雲漢	-11.4107
瞻視	-11.4108
强弩	-11.4109
刑獄	-11.4109
非聖	-11.4109
象之	-11.4112
所以爲治	-11.4114
聽其	-11.4115
逸樂	-11.4115
先自	-11.4116
旣歸	-11.4117
憂懼	-11.4117
聚散	-11.4123
盈虚	-11.4124
於木	-11.4124
哉今	-11.4125
三綱	-11.4125
之治天下也	-11.4126
醫家	-11.4126
在這裏	-11.4129
智則	-11.4129
道不可	-11.413
敵國之	-11.4131
上上	-11.4133
渡水	-11.4133
解脫	-11.4134
法法	-11.4137
幽深	-11.4137
幾何	-11.4138
龍虎	-11.4138
過失	-11.414
水居	-11.414
腹中	-11.4141
者未之有也	-11.4143
西伯	-11.4145
恭王	-11.4145
昭然	-11.4145
燒香	-11.4146
歷山	-11.4147
有謀	-11.4147
十二歲	-11.4148
冬至後	-11.4148
則凶	-11.4149
十倍	-11.4149
而當日之夜	-11.415
力屈	-11.4151
五霸	-11.4153
而殺之	-11.4154
之隆	-11.4155
而不能自	-11.4155
苟免	-11.4156
片言	-11.4158
竈神	-11.4159
歸于	-11.4159
吏卒民	-11.416
山谷	-11.416
雨師	-11.4164
信乎	-11.4167
相害	-11.4168
不停	-11.4168
救火者	-11.4169
景星	-11.417
昏亂	-11.4171
為五	-11.4171
天壤	-11.4172
兵起	-11.4173
玄鳥	-11.4176
安期	-11.4178
之可也	-11.4178
君王	-11.4178
自勝	-11.418
命之曰	-11.418
美玉	-11.4181
五十四	-11.4181
四七	-11.4182
夫豈	-11.4183
房心	-11.4186
歎息	-11.4186
於野	-11.4187
相因	-11.4187
美女	-11.4187
太一君	-11.4188
稽古	-11.4188
太過	-11.4189
有驗	-11.419
家室	-11.419
蒼蒼	-11.419
求福	-11.4192
太和	-11.4196
麤氣	-11.4196
非樂	-11.4198
資於	-11.4198
率兵	-11.4199
禍中	-11.4204
九皇	-11.4205
再三	-11.4206
安得不	-11.4208
日月相	-11.4211
惠公	-11.4211
人面	-11.4212
虎豹之	-11.4212
農事	-11.4212
破家	-11.422
妻之	-11.4226
專制	-11.4226
清静	-11.4226
四凶	-11.4228
之次	-11.4229
漢書	-11.423
以刀	-11.4232
利民	-11.4235
將奈何	-11.4237
終歲	-11.4239
符節	-11.4242
爲戒	-11.4242
窮達	-11.4242
其狀如	-11.4243
仁賢	-11.4244
皆所	-11.4245
也譬若	-11.4245
其妙	-11.4245
因循	-11.4246
乃敢	-11.4248
常居	-11.4249
以天下爲	-11.4249
窮而	-11.425
獨往	-11.4251
而後知	-11.4255
數百人	-11.4255
復何	-11.4255
不可遏	-11.4256
因敵之	-11.4257
爲首	-11.4257
兩箇	-11.4258
者不可勝數	-11.4262
神清	-11.4265
及其身	-11.4266
奚謂	-11.4268
得時	-11.4271
爲道者	-11.4271
造作	-11.4272
伏於	-11.4275
守中	-11.4275
以禦	-11.4277
日没	-11.4278
月餘	-11.4279
丘山	-11.4279
竟不	-11.428
欲退	-11.428
同時	-11.4281
賣之	-11.4281
乘勢	-11.4282
有意於	-11.4282
長養	-11.4282
趙高	-11.4285
中軍	-11.4286
他國	-11.4288
其細	-11.429
氣爲	-11.4291
玄象	-11.4297
如日	-11.43
自然之道	-11.4301
身輕	-11.4301
去一	-11.4301
以免	-11.4302
累世	-11.4302
目前	-11.4303
年七十	-11.4304
曰彼	-11.4306
行伍	-11.4307
百歲之人	-11.4313
人物之	-11.4314
還丹	-11.4315
誠實	-11.4315
辯士	-11.4317
既定	-11.4317
不離於	-11.4317
遂卒	-11.4318
靈公	-11.4319
四游	-11.4319
失人	-11.4321
權重	-11.4321
每事	-11.4323
了無	-11.4329
建德	-11.4331
經星	-11.4331
適情	-11.4333
相敵	-11.4333
有序	-11.4337
中繩	-11.434
其動也	-11.4346
一官	-11.4346
三面	-11.4347
而萬物生	-11.4348
引去	-11.4349
之祖	-11.4352
聖人之道	-11.4354
海水	-11.4356
不能守	-11.4357
卑下	-11.4358
化則	-11.4359
所短	-11.4361
其來	-11.4363
攻守之	-11.4364
還反	-11.4368
一息	-11.4368
計謀	-11.437
群生	-11.4371
所受	-11.4372
圍城	-11.4373
圍地	-11.4373
不附	-11.4375
以静	-11.4376
不掩	-11.4377
不往	-11.4381
此四者	-11.4381
散亂	-11.4382
引軍	-11.4384
昌言	-11.4385
事敗	-11.4385
也士有	-11.439
求長生	-11.4397
進者	-11.4402
八寸	-11.4403
堂下	-11.4405
其宜	-11.4406
治道	-11.4407
主君之	-11.4408
范王本	-11.4412
君不如	-11.4413
立朝	-11.4414
犯法	-11.4414
不隨	-11.4414
隱士	-11.4414
以害	-11.4415
則輕	-11.4418
威王	-11.4419
不由	-11.4421
以次	-11.4422
而廢	-11.4423
則可矣	-11.4425
天之道	-11.4426
意思	-11.4427
好學	-11.4427
臨事	-11.443
應天	-11.443
正矣	-11.4433
以我爲	-11.4436
無所歸	-11.4438
君父	-11.4438
是之謂	-11.4441
於身也	-11.4441
他物	-11.4441
成列	-11.4443
不能行	-11.4447
此二人	-11.4448
者則必	-11.4449
士者	-11.4451
之獸	-11.4452
冬至日	-11.4453
旁國	-11.446
衆星	-11.4464
責成	-11.4465
山精	-11.4467
十二陰	-11.4468
嘆曰	-11.447
之功也	-11.4471
軍至	-11.4472
為八	-11.4473
同學	-11.4476
初九	-11.4477
服於	-11.4482
節度	-11.4484
以候	-11.4486
形器	-11.4487
至治之	-11.4488
守常	-11.4489
列於	-11.4489
實沈	-11.4492
器而	-11.4492
於河	-11.4499
欲利	-11.4501
漢上	-11.4501
天雨	-11.4501
告之以	-11.4503
三統	-11.4504
仲尼曰	-11.4504
庸民	-11.4505
其樂	-11.4506
此時	-11.4506
設伏	-11.4507
子時	-11.4508
氣故	-11.451
入井	-11.4514
不義之	-11.4515
後患	-11.4515
秦師	-11.4515
風氣	-11.4518
不能測	-11.4522
於五	-11.4525
其所生	-11.4527
反本	-11.4528
行善	-11.4529
情實	-11.4534
云天	-11.4536
既而	-11.4539
既不能	-11.454
此固	-11.454
方諸	-11.4543
匹夫之	-11.4546
不偏	-11.4546
多事	-11.4546
安定	-11.4546
宜速	-11.4547
動静而	-11.4548
生生之	-11.4554
因令	-11.4555
聚則	-11.4556
奉行	-11.4559
人形	-11.4559
非直	-11.456
小小	-11.4561
少君	-11.4563
北方之	-11.4565
無疑	-11.4567
亦非	-11.4568
大蛇	-11.457
也非以	-11.4572
如前	-11.4572
霸者	-11.4575
不能用	-11.4577
心心	-11.4579
相和	-11.4581
精兵	-11.4581
公至	-11.4588
用刑	-11.4588
無根	-11.4593
爲陰	-11.4593
運而	-11.4594
先生曰	-11.4595
以還	-11.4597
舉家	-11.4599
其容	-11.46
道里	-11.46
强敵	-11.4604
滔天	-11.4604
任事	-11.4605
九六	-11.4606
將不能	-11.4608
又分	-11.4609
華也	-11.461
有兩	-11.4612
自樂	-11.4613
將相	-11.4614
詩人	-11.4614
死節	-11.4621
民心	-11.4622
商人	-11.4623
一聲	-11.4633
不貳	-11.4638
以招	-11.464
自反	-11.4641
而常	-11.4642
直道	-11.4642
之手	-11.4642
渾天	-11.4644
日月之所	-11.4645
皆須	-11.465
生天地	-11.4654
異物	-11.4655
玉液還丹	-11.4656
不失其正	-11.4657
也張預曰	-11.4657
年二十	-11.4661
不預	-11.4661
致敵	-11.4662
武王之	-11.4665
能無	-11.4665
不忘其	-11.4667
必重	-11.467
子墨子曰今	-11.4672
治强	-11.4672
已得	-11.4673
左足	-11.4674
大懼	-11.4674
於無爲	-11.4675
至和	-11.4675
觀天	-11.4679
縱而	-11.468
公旦	-11.4682
有識	-11.4694
於此乎	-11.4695
之萌	-11.4695
士衆	-11.4696
其所惡	-11.47
大都	-11.4705
非不能	-11.4705
得脫	-11.4707
謁者	-11.4709
豈若	-11.4709
五刑	-11.471
以動	-11.4712
不羞	-11.4719
禄以	-11.4719
發而	-11.4721
任人	-11.4722
未必不	-11.4722
不飢	-11.4723
而避之	-11.4725
以著	-11.4727
也小宋本作	-11.4728
赤道	-11.473
倍於	-11.4732
所安	-11.4739
四海之	-11.4742
而致之	-11.4745
仲尼之	-11.4745
深淺	-11.4752
並用	-11.4753
罪之	-11.4753
必因	-11.4758
奇數	-11.4758
其說在	-11.4762
可敗	-11.4764
於民也	-11.4765
誠能	-11.477
運動	-11.4771
卦之風	-11.4772
也凡人	-11.4772
人之家	-11.4773
不退	-11.4776
反國	-11.4776
旁有	-11.4779
行必	-11.4781
此二者	-11.4782
而交	-11.4784
不遺	-11.4785
三女	-11.4786
亦將	-11.4786
者四	-11.479
之中也	-11.4792
矣次五	-11.4795
薄者	-11.4799
不奪	-11.4803
百代	-11.4803
巧言	-11.4803
盛陽	-11.4805
論者	-11.4806
於趙	-11.4807
人頭	-11.4808
惡乎	-11.4811
語言	-11.4812
三十三	-11.4812
所據	-11.4814
所作也	-11.4819
飾非	-11.482
受氣	-11.4822
與争	-11.4822
之側	-11.4827
易矣	-11.483
復還	-11.4833
草木之	-11.4834
矣人主	-11.4841
當世	-11.4843
車輪	-11.4845
越國	-11.4848
而棄之	-11.4849
至其	-11.4852
如初	-11.4854
於本	-11.4855
莫不皆	-11.4855
分合	-11.4857
字為	-11.4863
足以相	-11.4863
一向	-11.4864
應物	-11.4868
五十五	-11.4868
逐之	-11.487
以無爲	-11.4873
便爲	-11.4878
筋骨	-11.488
天行	-11.4881
於遠	-11.4885
之弊	-11.4885
其明	-11.4885
西施	-11.4886
以鐵	-11.4887
者誅	-11.489
非仁	-11.4891
海中	-11.4893
從下	-11.4894
將出	-11.4898
髓	-11.4901
多欲	-11.4909
遺物	-11.4911
七七	-11.4914
以蔽	-11.4917
先天也	-11.4917
日新	-11.4917
于地	-11.4919
其所由	-11.4924
明見	-11.4925
聖從	-11.4925
光謂八爲禍中	-11.4932
破軍	-11.4935
則退	-11.4936
而愈	-11.4936
曰是	-11.494
始于	-11.4942
四百	-11.4945
形質	-11.4945
遠水	-11.4947
耳然	-11.4951
之變而	-11.4958
天下之人	-11.4961
黄中	-11.4962
微者	-11.4967
九野	-11.497
必反	-11.4971
子西	-11.4977
禁姦	-11.4978
小民	-11.4979
自可	-11.4981
爲盜	-11.4981
不渝	-11.4983
道書	-11.4986
意者	-11.4989
而霸	-11.4991
不售	-11.4992
令得	-11.4994
羣臣之	-11.4996
其死也	-11.4998
在官	-11.5002
之效	-11.5002
得人心	-11.5002
其左右	-11.5006
察也	-11.5007
之神也	-11.5007
冥冥	-11.5009
之官也	-11.5011
與己	-11.5018
軍敗	-11.5023
潜於	-11.5025
百事之	-11.5033
所不見	-11.5033
左傳	-11.5042
北至	-11.5049
乎是故	-11.5051
又問	-11.5054
以天下之	-11.5059
不集	-11.506
故天下	-11.506
人莫不	-11.506
物事	-11.5062
召公	-11.5066
人皆知	-11.507
也况	-11.5072
明照	-11.5077
先入	-11.5079
高崇	-11.5082
專用	-11.5082
其常也	-11.5085
不關	-11.5087
若驚	-11.5092
凡三	-11.5093
所治	-11.5094
其刑	-11.5097
鳥飛	-11.5099
不衰	-11.5099
五百歲	-11.51
惑亂	-11.51
成事	-11.5102
唯恐	-11.5105
見其形	-11.5106
所急	-11.5108
其頭	-11.5111
城内	-11.5114
八年	-11.5117
以絶	-11.5118
耳非	-11.5131
佚而	-11.5132
物各	-11.5133
德音	-11.5134
窈	-11.5139
氣應	-11.514
九星	-11.514
地體	-11.5143
九人	-11.5147
磁石	-11.5151
公曰寡人	-11.5152
故善戰者	-11.5157
大木	-11.5157
不得見	-11.5158
之儀	-11.5162
三十六卦	-11.5165
竭也	-11.5166
周主	-11.5168
九成	-11.5171
金德	-11.5171
渾渾	-11.5174
易勝	-11.5175
則知其	-11.5178
能化	-11.5184
六者	-11.5184
以牛	-11.5193
上令	-11.5195
一爲思始	-11.5196
而陳	-11.5198
焉得無	-11.5198
物生	-11.5199
勢力	-11.52
所以備	-11.5201
慈於	-11.5204
二百二十八	-11.521
也或以	-11.5211
二百五十二	-11.5212
而坐	-11.5215
遞	-11.5224
預知	-11.5225
不憚	-11.5228
正當	-11.5229
其源	-11.523
雖不能	-11.5231
梅堯臣	-11.5233
所獲	-11.5234
法立	-11.5234
而民不	-11.5235
天極	-11.5236
未足以	-11.5237
在今	-11.5239
近人	-11.524
號爲	-11.5246
蕩然	-11.5247
岷山	-11.5248
盧敖	-11.5249
仙矣	-11.5249
四鄰諸侯	-11.525
陽家金準	-11.5254
梵	-11.5256
今從范王小宋本	-11.5256
蔬	-11.5256
遠則	-11.5257
昨	-11.5258
一三五七九	-11.5259
弧	-11.5259
縵	-11.526
祇	-11.526
瑾	-11.526
眷屬	-11.526
扢	-11.526
二宋陸王本	-11.5261
大軍	-11.5262
朔日	-11.5262
鉦	-11.5262
蛾傅	-11.5262
陽家火準	-11.5263
此何	-11.5263
長九分	-11.5263
霆	-11.5265
夫人之	-11.5266
灘	-11.5266
跀	-11.5267
㗖	-11.5267
倍道兼行	-11.5267
曰何謂	-11.5268
鯀	-11.5268
暈	-11.5268
罡	-11.5268
西王母	-11.5269
尺寸	-11.5269
無往而不	-11.5269
破軍殺將	-11.5269
三百六十五日	-11.527
陽家水準	-11.527
术	-11.527
螾	-11.527
詬	-11.527
駔	-11.5271
宋陸范本	-11.5271
涿	-11.5271
陽家木準	-11.5271
兑	-11.5271
昱	-11.5272
塚	-11.5273
縠	-11.5273
旒	-11.5273
十二辟卦	-11.5273
朓	-11.5273
悌	-11.5274
巽坎艮坤	-11.5274
輻凑	-11.5274
昊	-11.5274
坂	-11.5274
湍	-11.5274
胞	-11.5275
故爲人	-11.5275
鞅	-11.5275
縑	-11.5276
溉	-11.5276
亦復如是	-11.5276
冐	-11.5276
三日念	-11.5276
洋洋	-11.5276
汶	-11.5276
韱	-11.5277
峰	-11.5277
羑里	-11.5277
夸父	-11.5277
水火木金土	-11.5277
周天之度	-11.5278
五十有五	-11.5278
刊	-11.5278
十三度	-11.5278
耿弇	-11.5278
圃池	-11.5278
癘	-11.5279
三爲思終	-11.5279
閻	-11.5279
其大略	-11.5279
太一遁甲	-11.5279
薶	-11.5279
從中御	-11.5279
閩	-11.5279
罝	-11.528
艾陵	-11.528
蓍龜	-11.528
饕	-11.528
甸	-11.528
社鼠	-11.528
歐冶	-11.528
鎰	-11.528
輪回	-11.528
它	-11.528
菽粟	-11.528
弟兄	-11.5281
君臣父子	-11.5281
兖州	-11.5281
管絃	-11.5281
幃	-11.5281
薨	-11.5281
長生久視	-11.5281
機械	-11.5281
瀕	-11.5281
暑寒晝夜	-11.5281
閡	-11.5282
束縛	-11.5282
俎	-11.5282
摯	-11.5282
五爲中和	-11.5282
狠	-11.5282
州刺史	-11.5282
堂谿公	-11.5282
嘯	-11.5283
不言而信	-11.5283
一二三四五	-11.5283
僮	-11.5283
矰	-11.5283
罩	-11.5283
肘後	-11.5284
晋獻公	-11.5284
吹竽	-11.5284
荀息	-11.5284
祁	-11.5284
血脉	-11.5284
長六尺	-11.5284
隰朋	-11.5284
𨽻	-11.5284
蹉	-11.5284
帳	-11.5284
故因	-11.5284
冗	-11.5284
只是一箇	-11.5285
三百六十五日四分日之一	-11.5285
航	-11.5285
齕	-11.5285
周亞夫	-11.5285
緘	-11.5285
先天之學	-11.5285
千仞之谿	-11.5286
錬	-11.5286
鬚	-11.5286
儕	-11.5286
顓帝	-11.5286
魏宣子	-11.5286
以善	-11.5286
扼	-11.5286
籬	-11.5286
日行一度	-11.5286
萬八千歲	-11.5286
驚擾	-11.5286
蠧	-11.5287
顛倒	-11.5287
醪	-11.5288
騶	-11.5288
芒種	-11.5288
刮	-11.5288
酤	-11.5288
禹湯文武	-11.5288
浦	-11.5289
坎離震兌	-11.5289
豢	-11.5289
忝	-11.5289
䝉	-11.5289
曝	-11.529
蠻夷	-11.529
鹵	-11.529
錮	-11.529
箸	-11.529
殪	-11.529
顫	-11.529
𤓰	-11.529
塜	-11.529
遁甲	-11.529
漢高祖	-11.529
坦	-11.529
佻	-11.5291
堂堂	-11.5291
剡	-11.5291
侍郎	-11.5291
必令	-11.5291
罌	-11.5291
諒	-11.5291
徐偃王	-11.5291
煗	-11.5291
千變萬化	-11.5291
服八風水爨	-11.5291
歇	-11.5291
錦繡	-11.5292
猫	-11.5292
軵	-11.5292
蹄	-11.5292
莢	-11.5293
呴	-11.5293
金誥曰	-11.5293
髪	-11.5293
蛾	-11.5293
晏嬰	-11.5293
百善則後代	-11.5293
吻	-11.5294
磐	-11.5294
〇程子曰	-11.5294
道要曰	-11.5294
剽	-11.5294
叔獻	-11.5294
坊	-11.5294
鞀	-11.5294
犠	-11.5294
則分	-11.5295
緼	-11.5295
仲達	-11.5295
嫌疑	-11.5295
床	-11.5295
扶桑	-11.5295
竇建德	-11.5295
蓄積	-11.5295
安排	-11.5295
田子方	-11.5295
崑	-11.5295
稚	-11.5296
拆	-11.5296
巨里	-11.5296
瓴	-11.5296
拾遺	-11.5296
怵	-11.5296
晞	-11.5297
甘露	-11.5297
葱	-11.5297
祝融	-11.5297
檄	-11.5297
儺	-11.5297
太初曆	-11.5297
魯哀公	-11.5298
堅壁	-11.5298
溥	-11.5298
胥靡	-11.5298
訕	-11.5298
巫祝	-11.5299
併力	-11.5299
庾	-11.5299
有道之士	-11.5299
酒醴粢盛	-11.5299
于天測曰	-11.53
真訣曰	-11.53
九地之變	-11.53
二方二州	-11.53
少昊	-11.53
權𢖍	-11.53
歉	-11.53
襲鄭	-11.53
磔	-11.53
須㬰	-11.5301
玄圃	-11.5301
皮膚	-11.5301
綵	-11.5301
琳琅	-11.5301
决獄	-11.5301
根荄	-11.5301
詆	-11.5301
非道也	-11.5302
斥鷃	-11.5302
靳	-11.5302
治鄴	-11.5302
甘茂	-11.5302
唐孔氏曰	-11.5302
詈	-11.5302
朱紫	-11.5302
鬢	-11.5303
只管	-11.5303
赤眉	-11.5303
菽麥	-11.5303
招摇	-11.5304
老翁	-11.5304
凌霄	-11.5305
宏	-11.5305
僦	-11.5305
自午至亥	-11.5305
帶甲	-11.5305
兢	-11.5306
海隅	-11.5306
晉公	-11.5306
致行厨	-11.5307
言之庶幾	-11.5307
吕望	-11.5307
揚雄	-11.5307
而不自知	-11.5307
十二萬九千六百年	-11.5307
鼃	-11.5308
黄裳子	-11.5308
太極而	-11.5308
鋭	-11.5308
洞庭	-11.5308
券	-11.5309
飡	-11.5309
女媧	-11.5309
穗	-11.5309
伏尸	-11.5309
札	-11.531
躬耕	-11.5311
尠	-11.5311
工匠	-11.5312
人莫能	-11.5312
越境	-11.5312
束帛	-11.5312
笙	-11.5312
鼓琴	-11.5312
辛苦	-11.5313
鑿井	-11.5313
抵罪	-11.5314
晚年	-11.5314
窮巷	-11.5315
冬至日在	-11.5315
綃	-11.5315
貨賂	-11.5316
凝滯	-11.5316
況於人乎	-11.5317
耒耜	-11.5317
批	-11.5317
二方一州	-11.5317
老弱	-11.5318
犂	-11.5318
安肯	-11.5318
蔡氏曰	-11.5319
鋤	-11.5319
開闔	-11.532
巧工	-11.532
魯之	-11.532
石室	-11.532
玉曆	-11.5321
廉恥	-11.5322
六癸	-11.5323
翣	-11.5323
不可不知	-11.5323
唐堯	-11.5323
受生	-11.5324
禁忌	-11.5324
封侯	-11.5324
一軍	-11.5324
四正	-11.5325
巧拙	-11.5325
畏其	-11.5326
釐負羈	-11.5327
太原	-11.5327
一刀圭	-11.5327
丹朱	-11.5327
各從其	-11.5329
圯地	-11.533
行秋令則	-11.533
善守者	-11.5331
輕慢	-11.5331
尊顯	-11.5332
惑矣	-11.5333
車駕	-11.5334
此世之所	-11.5334
白雪	-11.5334
不能見	-11.5335
豈敢	-11.5336
李牧	-11.5336
悽愴	-11.5338
舉措	-11.5338
參驗	-11.5339
交援	-11.534
蔡州	-11.5343
自古	-11.5343
亦不得	-11.5344
致太平	-11.5345
數千萬	-11.5345
榮衛	-11.5345
左氏	-11.5346
地氣	-11.5348
行者也	-11.5349
泣血	-11.5349
華嚴	-11.5349
消滅	-11.535
軍行	-11.535
嗣公	-11.535
堅剛	-11.5351
委積	-11.5353
茂木	-11.5353
玄妙	-11.5354
而後可以見	-11.5356
日照	-11.5356
貧窮	-11.5356
在其中矣	-11.5358
良善	-11.5358
静静	-11.536
一部一家	-11.536
惠施	-11.536
曲折	-11.536
猛火	-11.536
烈士	-11.536
根源	-11.5361
壬子	-11.5361
毁折	-11.5362
親疏	-11.5362
六十年	-11.5363
之都	-11.5364
審其	-11.5366
丸及	-11.5366
十有三	-11.5367
千千	-11.5367
狀似	-11.5368
青州	-11.5368
使來	-11.5368
梅堯臣曰彼	-11.5368
天下莫不	-11.537
三旬	-11.537
射御	-11.5372
追風	-11.5373
分寸	-11.5373
之速	-11.5374
君子有	-11.5374
口鼻	-11.5375
材木	-11.5376
能聽	-11.5377
細人	-11.538
首之主	-11.538
太華	-11.5381
微細	-11.5381
黄河	-11.5381
即墨	-11.5381
失天下	-11.5381
左轉	-11.5383
公輸子	-11.5385
持滿	-11.5387
純白	-11.5387
之宿有	-11.5387
蓋非	-11.5388
伯玉	-11.539
厚薄	-11.5391
殿下	-11.5392
公正	-11.5392
前有	-11.5392
長驅	-11.5393
范文正公	-11.5393
之民也	-11.5394
所不智	-11.5395
法言曰	-11.5397
方丈	-11.5398
哀樂	-11.5398
浩然	-11.5399
賞譽	-11.5399
居民	-11.54
平等	-11.5401
廢置	-11.5401
任之	-11.5401
計得	-11.5401
宋人有	-11.5401
不巳	-11.5404
利劍	-11.5405
盡其力	-11.5407
凡庸	-11.5408
不勝而	-11.5408
天圓	-11.5408
名之曰	-11.5409
山陵	-11.541
求之於	-11.541
子墨子謂	-11.5412
不振	-11.5413
辰巳	-11.5414
無所容	-11.5414
不歸	-11.5415
造次	-11.5415
利鈍	-11.5415
不能化	-11.5416
昭明	-11.5416
圖而	-11.5419
應機	-11.5419
六六三十六	-11.542
乎答曰	-11.542
鄭君言	-11.5423
大暑	-11.5426
不爲指	-11.5431
父老	-11.5431
不敢犯	-11.5431
西方金	-11.5433
未死	-11.5433
亦安能	-11.5434
藏器	-11.5435
調和	-11.5435
不與焉	-11.5435
執政	-11.5438
行道	-11.5438
速進	-11.5438
報應	-11.5438
智巧	-11.5438
公叔	-11.544
智慮	-11.5441
交爭	-11.5441
和丹	-11.5441
隂賊	-11.5441
又且	-11.5441
世界	-11.5442
墮入	-11.5442
豈得	-11.5442
治國家	-11.5442
好勇	-11.5443
朔虚	-11.5443
默然	-11.5444
闕也	-11.5446
賛曰人之	-11.5447
了然	-11.545
以下皆	-11.5451
數起於	-11.5453
師徒	-11.5455
美則	-11.5457
為緯	-11.5458
方千里	-11.5458
大人之	-11.5458
景風	-11.5459
孝經	-11.546
一枚	-11.5462
地削	-11.5462
之令故	-11.5466
豈獨	-11.5467
積久	-11.5468
衆善	-11.5468
登山	-11.5468
在側	-11.5469
心意	-11.547
過滿	-11.547
積於	-11.547
巧者	-11.5471
各各	-11.5472
大牢	-11.5472
不雜	-11.5473
也故明主	-11.5476
所自出	-11.5477
謂之有	-11.5477
矣次七	-11.5478
一槩	-11.5479
生長	-11.5479
主宰	-11.548
外面	-11.5481
厚禄	-11.5484
論道	-11.5485
洪水	-11.5485
於未形	-11.5485
何以異	-11.5485
勤求	-11.5486
之品	-11.5486
隂位	-11.5487
方略	-11.5487
白起	-11.5488
都是	-11.5488
貞正	-11.549
成羣	-11.549
植物	-11.5491
庭下	-11.5492
極盛	-11.5492
動摇	-11.5492
曰先生	-11.5493
保守	-11.5493
元首	-11.5498
和同	-11.5498
各守	-11.5501
善游	-11.5502
常見	-11.5504
爲仁	-11.5505
爲狗	-11.5506
五伯	-11.5507
爲妖	-11.5507
銳氣	-11.5509
梅堯臣曰因	-11.551
三子	-11.551
也故聖人	-11.551
未嘗見	-11.5511
可以無	-11.5512
達人	-11.5516
閉氣	-11.5522
通塞	-11.5524
賤人	-11.5524
午時	-11.5528
動者	-11.5528
清風	-11.5528
而後可以	-11.5531
破敵	-11.5531
築城	-11.5532
在天上	-11.5532
游氣	-11.5537
之志也	-11.5538
吾能	-11.5541
與世	-11.5542
仁愛	-11.5542
大作	-11.5548
兩目	-11.5549
衆庶	-11.5549
遼水	-11.555
履之	-11.555
移易	-11.5554
上卿	-11.5554
發明	-11.5554
辯說	-11.5558
平平	-11.5563
出令	-11.5563
德至	-11.5564
入海	-11.5566
仰天	-11.5567
趨之	-11.5567
禁止	-11.5567
此皆有	-11.5568
今君	-11.5569
豈知	-11.5569
如此豈	-11.5571
居於	-11.5573
應龍	-11.5573
相如	-11.5575
爲期	-11.5575
豈足以	-11.5575
生液	-11.5576
七十餘	-11.5576
收藏	-11.5582
赤地	-11.5584
復卦	-11.5586
積土	-11.5587
留意	-11.559
聽者	-11.559
安乎	-11.5593
無競	-11.5594
本朝	-11.5594
天尊	-11.5596
神器	-11.5597
宜適	-11.5602
望氣	-11.5602
多風	-11.5604
履地	-11.5604
使士卒	-11.5605
神速	-11.5613
穀也	-11.5614
未始有	-11.5614
力行	-11.5614
郢人	-11.5616
甚惡	-11.5616
丹法以	-11.5616
易行	-11.5617
乎況	-11.5619
丹陽	-11.562
豈徒	-11.5622
詭道	-11.5622
也詩曰	-11.5623
幽明	-11.5623
不臧	-11.5626
生肉	-11.5627
所以開	-11.563
昔三代	-11.5634
于公	-11.5636
臣斯	-11.5637
傳說	-11.5638
得三	-11.5639
能作	-11.5641
丹書	-11.5642
舍止	-11.5643
則死矣	-11.5647
天下莫	-11.5649
地地	-11.5651
惡惡	-11.5654
後數年	-11.5654
王氏	-11.5656
因爲	-11.5659
是以君子	-11.566
莫知其所	-11.5661
三千人	-11.5664
華山	-11.5665
爲寳	-11.5666
動物	-11.5666
不同也	-11.5669
備具	-11.567
無務	-11.567
月窟	-11.5671
在西南	-11.5672
上流	-11.5673
而觀之	-11.5673
主卑	-11.5676
高而不	-11.5681
者誰	-11.5682
此道也	-11.5682
老君曰	-11.5683
國危	-11.5683
無力	-11.5684
始有	-11.5684
醮祭	-11.5692
衛君之	-11.5697
而泣	-11.5697
有分於	-11.5699
得一人	-11.5699
大罪	-11.57
城守	-11.57
大吉	-11.5701
從事於	-11.5703
上得	-11.5707
上智	-11.5708
經時	-11.5709
以是故不	-11.5711
者不可以爲	-11.5711
尊貴	-11.5712
制斷	-11.5715
十善則	-11.5717
比周而	-11.5719
理有	-11.572
戰士	-11.572
年少	-11.5721
之裘	-11.5723
以度	-11.5725
遂爲	-11.5728
亦未	-11.573
大破	-11.573
萬萬	-11.5732
吞之	-11.5732
五材	-11.5733
異形	-11.5734
私家	-11.5742
封以	-11.5743
虚言	-11.5743
不專	-11.5745
兵力	-11.5745
足下	-11.5746
可惜	-11.5747
若敵人	-11.5749
患難	-11.5751
晋將	-11.5753
形象	-11.5754
王虎	-11.5755
得其人	-11.5756
反己	-11.576
抱朴子曰余	-11.5761
皆一也	-11.5762
客主	-11.5766
并兵	-11.5768
有一大	-11.5769
不虚	-11.5769
君因	-11.5771
堯有	-11.5772
蓋以	-11.5772
取諸	-11.5778
將至	-11.5779
如來	-11.578
寡者	-11.5784
而不可易	-11.5788
上德	-11.5789
者陰陽之	-11.579
無故而	-11.579
曰今日	-11.5792
無筭	-11.5794
世事	-11.5797
養性之	-11.5798
以弊	-11.5799
不可以得	-11.58
相傳	-11.5801
乎不聞	-11.5801
又自	-11.5801
于此	-11.5802
角量	-11.5809
以驗	-11.5812
奉事	-11.5812
之地也	-11.5812
自恃其	-11.5818
哉然	-11.5818
子噲	-11.5819
食飲	-11.582
勵士	-11.582
若遇	-11.5826
寡婦	-11.583
爲罪	-11.5832
悅之	-11.5834
猶是也	-11.5836
養氣	-11.5842
火起	-11.5842
大率	-11.5848
遣其	-11.5848
自下	-11.5848
毫釐	-11.5851
勿與	-11.5852
或可以	-11.5853
可立	-11.5857
六曰	-11.5861
地黄	-11.5861
輪轉	-11.5864
以仁義	-11.5865
德義	-11.5871
威令	-11.5873
神仙之	-11.5873
一毛	-11.5875
破國	-11.5879
當世之	-11.5882
道之人	-11.5883
同王曰	-11.5883
故陽	-11.5884
日舍	-11.5888
失位	-11.5889
資用	-11.5889
無不在	-11.5897
未始	-11.59
於未萌	-11.5905
無一物	-11.5906
所感	-11.5907
南陸	-11.591
其羽	-11.591
而汝	-11.5911
者天地之	-11.5912
樹之	-11.592
乎且	-11.592
一致	-11.5922
誣也	-11.5927
一隅	-11.5932
符堅	-11.5932
妄舉	-11.5932
自立	-11.5936
何敢	-11.5938
二少	-11.5942
願得	-11.5943
左君	-11.5949
官長	-11.5951
鵲之	-11.5951
只在	-11.5952
者神之	-11.5953
所執	-11.5957
輔之	-11.5964
乃退	-11.597
合和	-11.5973
公室	-11.5974
不得復	-11.5977
敵先	-11.5978
至尊	-11.5978
跪而	-11.5982
爲僕	-11.5982
為營	-11.5983
久而不	-11.5984
處軍	-11.5984
氣衰	-11.5985
小白	-11.599
爲宫室	-11.5991
從風	-11.5991
以爲己	-11.5996
小星	-11.6001
而誅之	-11.6004
君令	-11.6006
不寒	-11.6007
歲月	-11.6007
則國必	-11.6008
亡命	-11.601
於其中	-11.6015
四極	-11.6015
皆具	-11.6016
陽神	-11.6023
異心	-11.6026
立節	-11.6027
行止	-11.6029
夜小人	-11.603
交數	-11.6032
近臣	-11.6036
五火	-11.6037
制禮	-11.6037
遠去	-11.6038
朔旦	-11.604
令民	-11.604
千金之	-11.6045
萬全	-11.6045
幸而	-11.6048
不讓	-11.6051
必致	-11.6053
有時	-11.6057
於理	-11.6063
鳴鼓	-11.6065
甘苦	-11.607
尚何	-11.607
欣然	-11.6072
禍難	-11.6073
天神也	-11.6085
知者不	-11.6085
吴起曰	-11.6091
一百二十	-11.6095
善謀	-11.6096
將何以	-11.6098
世亂	-11.6098
致死	-11.6102
言雖	-11.6102
於世而	-11.6103
作法	-11.6104
處士	-11.6105
設奇	-11.6109
智與	-11.6109
物無不	-11.6109
材也	-11.6113
嘗與	-11.6115
不能别	-11.6122
為我	-11.613
懼於	-11.6132
所傷	-11.6136
曰吾非	-11.6136
家貧	-11.6138
仁心	-11.614
敗則	-11.6142
不論	-11.6142
日精	-11.6145
凡所謂	-11.6145
心故	-11.6146
豈足	-11.6149
又不知	-11.6155
者物之	-11.6156
而不已	-11.6156
四千	-11.6162
道貴	-11.6163
爲罪遇	-11.6164
因事	-11.6165
難言	-11.6168
遠方	-11.6171
三晋	-11.6173
也說在	-11.6178
不敢言	-11.6179
情僞	-11.618
吉人	-11.6182
我身	-11.6194
正性	-11.6194
暴人	-11.6195
不過五	-11.6197
得一以	-11.6199
發動	-11.6207
小惡	-11.6209
何由	-11.6213
利天下	-11.6218
下令	-11.622
校之	-11.6229
化爲一	-11.6231
非其有	-11.6234
野人	-11.6239
於其所不	-11.6239
尾生	-11.624
六地	-11.6241
易位	-11.6241
一步	-11.6249
而不誅	-11.6249
轉相	-11.6256
極矣	-11.6257
與奪	-11.6258
之君也	-11.6261
迫於	-11.6262
白日	-11.6262
聖君	-11.6266
南面而	-11.6269
見聞	-11.6273
輕戰	-11.6273
光謂一爲思始	-11.6276
推車	-11.6277
所以示	-11.628
以土	-11.6287
不群	-11.6287
所由生	-11.6294
西方之	-11.6299
其旨	-11.6299
後魏	-11.6303
師曠之	-11.6308
則入	-11.6311
冬生	-11.6312
丘之	-11.6312
一爲思始而當夜	-11.6316
當須	-11.6317
故姦	-11.6317
優劣	-11.6318
生庶	-11.6318
釣者	-11.6319
務成	-11.632
守之以	-11.6322
所願	-11.6322
不干	-11.6323
坐此	-11.6324
而顧	-11.6327
得其利	-11.6331
無物不	-11.6333
正爾	-11.6333
者滅	-11.6341
也王本作	-11.635
上求	-11.6354
中州	-11.6358
徒屬	-11.636
臣子	-11.6361
君何	-11.6364
其耳	-11.6364
者陽之	-11.6365
韓昭侯	-11.6369
則以爲	-11.6376
必生	-11.6385
不可言	-11.6387
臣聞	-11.6387
堅强	-11.6388
中流	-11.6389
以圖	-11.6395
無罪而	-11.6396
二主	-11.64
賢君	-11.6401
志意	-11.6402
賞罰之	-11.6404
而忘其	-11.6406
非但	-11.641
又多	-11.641
飛行	-11.6411
不吉	-11.6414
緩之	-11.6419
余聞	-11.6424
者此也	-11.6435
而察	-11.6435
施也	-11.644
戴天	-11.6447
乃召	-11.645
遠行	-11.6452
若是其	-11.6456
法律	-11.646
又嘗	-11.646
上言	-11.6462
呼爲	-11.6464
四國	-11.6465
欲去	-11.6468
可爲也	-11.6472
不辟	-11.6473
使之也	-11.6476
因問	-11.6477
禾之	-11.6481
得其正	-11.6482
則速	-11.6495
求利	-11.6503
賢相	-11.6522
至難	-11.6525
半年	-11.6526
好利	-11.6536
不足也	-11.6536
所恃	-11.6538
以侵	-11.654
小童子	-11.6546
不眀	-11.6546
天民	-11.6558
陽卦	-11.6563
人主之於	-11.6564
無損	-11.6564
争於	-11.657
又生	-11.657
八字	-11.6572
神爲之	-11.6574
伐鄭	-11.6575
天和	-11.6576
聽言	-11.6578
震卦	-11.6583
古有	-11.6585
自藏	-11.6587
在西北	-11.6587
殺牛	-11.6588
出死	-11.6589
三十八	-11.6597
之險	-11.6601
食不足	-11.6601
墮也	-11.6605
而不容	-11.6611
能立	-11.6611
者虚也	-11.6614
道義	-11.6618
之旨	-11.6627
而造	-11.663
求勝	-11.663
理亦	-11.6634
於國家	-11.6636
而無形	-11.6638
治官	-11.6638
蛡	-11.6644
雲母	-11.665
誌	-11.665
有損	-11.6653
蒂	-11.6653
平等智力	-11.6657
其機	-11.666
經營	-11.6662
受日光	-11.6662
不貞	-11.6665
臣聞之	-11.6665
義夫	-11.6666
李筌	-11.6667
子至巳	-11.6667
太史	-11.6669
萇	-11.6671
不同於	-11.6671
不能止	-11.6671
相公	-11.6672
淄	-11.6673
約其	-11.6674
謂諸將曰	-11.6677
矣或問	-11.6677
諺	-11.668
紗	-11.6682
慼	-11.6683
意若	-11.6684
坏	-11.6684
譯	-11.6685
蚩尤	-11.6685
太蔟	-11.6685
極則反	-11.6686
二四六八十	-11.6687
涣	-11.6688
之情狀	-11.6688
曰賊	-11.6689
入無	-11.6689
邸	-11.669
一百九十二	-11.669
梨	-11.6691
暘谷	-11.6692
紫房	-11.6692
田疇	-11.6692
不可止	-11.6692
罘	-11.6693
燄	-11.6693
邠	-11.6693
陰中之陽	-11.6693
深溝高壘	-11.6693
陛	-11.6694
中和之	-11.6694
兼相愛交相利	-11.6694
孫子曰凡	-11.6694
涪	-11.6694
者衆生聞法	-11.6694
太宰嚭	-11.6695
乾兌離震	-11.6695
璨	-11.6695
未戰而	-11.6696
閼	-11.6696
瞋	-11.6696
仁義禮智	-11.6696
朱漢上曰	-11.6696
諸葛亮	-11.6696
閹	-11.6696
步行水上	-11.6697
公尚過	-11.6697
磑	-11.6697
翼軫	-11.6697
裨	-11.6697
申包胥	-11.6697
繘	-11.6697
隄	-11.6698
七爲禍始而當夜	-11.6699
鮪	-11.6699
天時地利	-11.6699
辰戌丑未	-11.6699
真人子丹	-11.6699
百萬之衆	-11.6699
中來爲人	-11.6699
中節	-11.67
掉	-11.67
籟	-11.67
些子	-11.67
七百二十九賛	-11.67
嫫母	-11.67
傳曰太上	-11.67
悔吝	-11.67
姻	-11.67
一年三百六十日	-11.67
有道之君	-11.6701
歧	-11.6701
浣	-11.6701
峯	-11.6701
真原曰	-11.6701
尊天事鬼	-11.6702
彖	-11.6702
孰謂爲不然乎	-11.6702
涇	-11.6702
苗賁皇	-11.6702
知彼知己	-11.6702
概	-11.6702
怙	-11.6702
推而上之	-11.6703
槀	-11.6703
轔	-11.6703
胡氏曰	-11.6703
湧	-11.6703
荆棘	-11.6703
靖郭君	-11.6703
嫚	-11.6703
溼	-11.6704
猶言	-11.6704
惜人不知	-11.6704
冰炭	-11.6704
執有命者	-11.6704
譟	-11.6704
鶻	-11.6705
一日十二時	-11.6705
陁	-11.6705
兀	-11.6705
𢙅	-11.6705
刁	-11.6705
墾	-11.6705
而不及	-11.6705
慈悲	-11.6706
蝗	-11.6706
戕	-11.6706
翡翠	-11.6706
鰥寡	-11.6706
李悝	-11.6706
陰家火準	-11.6706
搜索	-11.6706
茯苓	-11.6706
靈憲曰	-11.6706
濛	-11.6707
寂然	-11.6707
團	-11.6707
肪	-11.6707
𥹋	-11.6707
六爲極大	-11.6708
霽	-11.6708
販	-11.6708
易有太極	-11.6708
燃	-11.6708
百四十有四	-11.6708
租	-11.6708
於道德	-11.6708
淊	-11.6709
斐	-11.6709
醫卜	-11.6709
眥	-11.6709
桑梓	-11.6709
五與十	-11.6709
剛毅	-11.6709
瑜	-11.6709
金木水火	-11.6709
耐	-11.6709
二至二分	-11.6709
乖戾	-11.6709
㧞	-11.6709
也光謂九爲	-11.6709
歐陽文忠	-11.6709
蟾	-11.6709
麑	-11.6709
倉廪	-11.671
衿	-11.671
懦弱	-11.671
皮幣	-11.671
枯槁	-11.671
藏於九地之下	-11.671
請以一二	-11.671
孟軻	-11.671
宼	-11.671
斲削	-11.671
蟒	-11.671
婺女	-11.671
形貌	-11.671
懴	-11.6711
笏	-11.6711
茫茫	-11.6711
膺	-11.6711
西門豹	-11.6711
性情形體	-11.6711
白圭	-11.6711
卜皮	-11.6711
跰	-11.6711
慶忌	-11.6712
鍵	-11.6712
三日三夜	-11.6712
娘	-11.6712
訓練	-11.6712
三百八十四爻	-11.6712
品藻	-11.6712
涂	-11.6712
澠	-11.6712
丈五尺	-11.6712
赫赫	-11.6712
籌	-11.6712
韈	-11.6712
耘	-11.6712
俛仰	-11.6712
匕	-11.6712
堅冰	-11.6712
墮地獄	-11.6712
緇	-11.6713
譛	-11.6713
吹律	-11.6713
溷	-11.6713
不量其力	-11.6713
斤斧	-11.6713
四境之内	-11.6713
諍	-11.6713
砂	-11.6713
丹水	-11.6714
惱	-11.6714
濂溪	-11.6714
錯綜	-11.6714
敕	-11.6714
洒	-11.6714
板築	-11.6714
兇	-11.6714
四九三十六	-11.6714
物莫非指	-11.6714
炎帝	-11.6714
邊境	-11.6714
吴王夫差	-11.6715
白日昇天	-11.6715
糲	-11.6715
傚	-11.6715
廣莫風	-11.6715
惶懼	-11.6715
垂棘之璧	-11.6715
賾	-11.6715
羊腸	-11.6715
詛	-11.6716
嚚	-11.6716
皂	-11.6716
訶	-11.6716
瘗	-11.6716
揉	-11.6716
稔	-11.6716
跣	-11.6716
飆	-11.6716
蹪	-11.6717
潢	-11.6717
轡策	-11.6717
疫癘	-11.6717
鷇	-11.6717
媪	-11.6717
垤	-11.6718
俎豆	-11.6718
人自為戰	-11.6718
神祇	-11.6718
遏惡揚善	-11.6718
天地萬物之理	-11.6718
遄	-11.6718
倫叅於	-11.6718
菊	-11.6718
眷	-11.6718
細腰	-11.6718
也吴王曰	-11.6718
嗜酒	-11.6718
妄想	-11.6718
溝瀆	-11.6718
香餌	-11.6718
啜	-11.6718
颺	-11.6718
税	-11.6718
楫	-11.6719
璇	-11.6719
檐	-11.6719
君命有所不受	-11.6719
叅政	-11.6719
輴	-11.6719
趾	-11.6719
大道之	-11.672
煎熬	-11.672
有道之主	-11.672
𦆵	-11.672
恭儉	-11.672
搔	-11.672
紳	-11.672
痤疽	-11.672
横圖	-11.672
京兆	-11.6721
白銀	-11.6721
㹠	-11.6721
姝	-11.6721
輆	-11.6721
丁壯	-11.6721
弸	-11.6721
同異之	-11.6721
凉風	-11.6721
真武真君	-11.6721
慟	-11.6721
繒	-11.6721
坐在立亡	-11.6721
螺	-11.6721
此筌以	-11.6721
刷	-11.6721
耆	-11.6722
勗	-11.6722
永歎	-11.6722
宓	-11.6722
桓侯	-11.6722
魏武帝	-11.6722
鯤	-11.6722
盂	-11.6722
莠	-11.6723
暍	-11.6723
徐徐	-11.6723
蓆	-11.6723
輓	-11.6723
嬉	-11.6723
洫	-11.6723
凶饑	-11.6723
八極之	-11.6724
滕	-11.6724
誹譽	-11.6724
姒	-11.6724
北而南	-11.6724
楮	-11.6724
百仞之	-11.6724
穉	-11.6724
垂拱	-11.6724
勁弩	-11.6724
有是理	-11.6724
頃刻	-11.6725
多方	-11.6725
插	-11.6725
櫟	-11.6725
胼	-11.6725
殛	-11.6725
渾淪	-11.6725
倅	-11.6725
傭	-11.6725
夙夜	-11.6725
螻	-11.6726
一百八	-11.6726
網罟	-11.6726
墳墓	-11.6726
僭	-11.6726
象箸	-11.6726
黎庶	-11.6726
知杭州	-11.6726
𦔳	-11.6726
筋力	-11.6726
七寸	-11.6726
騏	-11.6726
錐	-11.6726
嚼	-11.6727
感恩	-11.6727
清凈	-11.6727
英俊	-11.6727
孝悌	-11.6727
磨滅	-11.6727
笠	-11.6727
蛛	-11.6727
橘柚	-11.6727
饌	-11.6727
驩	-11.6727
五榖	-11.6727
犀兕	-11.6727
鴻烈	-11.6727
恁地	-11.6727
靜漠	-11.6727
千善則爲	-11.6727
歌舞	-11.6728
財殫	-11.6728
爲天下笑	-11.6728
膏肓	-11.6728
阮	-11.6729
一元之數	-11.6729
戌亥	-11.6729
賄	-11.6729
苓	-11.6729
療治	-11.6729
游宴	-11.6729
乂	-11.673
休咎	-11.673
螳蜋	-11.673
轉輸	-11.673
掖	-11.673
能如是乎	-11.673
哇	-11.673
咀	-11.673
忽怳	-11.673
遼東	-11.673
未萌	-11.6731
英逸	-11.6731
南溟	-11.6731
役使鬼神	-11.6731
苛虐	-11.6731
後天八卦	-11.6731
鯁	-11.6731
仇由	-11.6732
酪	-11.6732
曰吾平生	-11.6732
名山大川	-11.6732
件	-11.6732
浸潤	-11.6733
寘	-11.6733
翹	-11.6733
堯典	-11.6733
誖	-11.6733
訥	-11.6733
鼓刀	-11.6733
貪鄙	-11.6733
茫	-11.6734
伐蜀	-11.6734
竹箭	-11.6734
絀	-11.6734
僚屬	-11.6734
凉風至	-11.6735
趍舍	-11.6735
皺	-11.6735
裸	-11.6735
雍州	-11.6735
之爲度也	-11.6735
滿堂	-11.6735
狖	-11.6736
疲勞	-11.6736
矜孤	-11.6736
婁敬	-11.6736
楊素	-11.6736
烟	-11.6736
竊甞	-11.6736
草萊	-11.6736
荀子曰	-11.6736
王鈇	-11.6736
衣裘	-11.6737
到那	-11.6737
讙	-11.6737
令人長生	-11.6737
摻	-11.6737
欺誑	-11.6737
雷澤	-11.6738
文繡	-11.6738
性命之情	-11.6738
銓	-11.6738
大夫種	-11.6739
稠	-11.6739
被裘	-11.6739
昇仙	-11.6739
暴骸	-11.6739
隗	-11.6739
廬江	-11.6739
誰敢	-11.6739
儋	-11.6739
寒熱	-11.6739
井竈	-11.6739
止之曰	-11.6739
字今從諸家	-11.6739
千鈞	-11.674
折衝	-11.674
蝮蛇	-11.674
巢穴	-11.6741
婉	-11.6741
躬親	-11.6741
蟄伏	-11.6742
彍	-11.6742
十二度	-11.6742
茍	-11.6742
震霆	-11.6742
自然之勢	-11.6742
徵羽	-11.6743
也王曰得位當晝	-11.6743
五十里	-11.6743
猛虎	-11.6743
軍争之法	-11.6743
銅鐵	-11.6743
指掌	-11.6743
百揆	-11.6743
可不謹	-11.6744
萬仞	-11.6744
扶摇	-11.6744
之靈曰	-11.6744
㸃	-11.6744
絶域	-11.6745
遊魂	-11.6746
鄒君	-11.6746
巔	-11.6746
貧道	-11.6747
譬之猶	-11.6747
噫嘻	-11.6748
慨然	-11.6748
掩襲	-11.6748
悲哀	-11.6749
去地	-11.6749
四海之外	-11.6749
蔈	-11.6749
衆木	-11.6749
瞳	-11.675
百斤	-11.675
之丹名	-11.675
者有間其	-11.675
忿怒	-11.675
之所由來	-11.6751
成黄金	-11.6751
戒哉賛曰	-11.6751
三牲	-11.6751
徐州	-11.6751
鄭伯	-11.6751
柔剛	-11.6752
司農	-11.6752
寒温	-11.6753
十五年	-11.6753
玄默	-11.6754
吕后	-11.6754
君臣之義	-11.6754
孝己	-11.6754
曾參	-11.6754
兩手	-11.6756
鳴條	-11.6756
分毫	-11.6756
矜誇	-11.6757
胎息	-11.6757
織女	-11.6757
貲	-11.6757
莫肯	-11.6758
博涉	-11.6758
險隘	-11.6758
支解	-11.6758
貧困	-11.6759
雷雨	-11.6759
數百歲	-11.6759
貞蟲	-11.6759
徒步	-11.676
武丁	-11.676
爲進人	-11.676
陰中陰	-11.6761
而后	-11.6762
龜蛇	-11.6762
最靈	-11.6762
於内而	-11.6762
黄色	-11.6762
律歷	-11.6763
恩澤	-11.6763
五斤	-11.6763
或可爲	-11.6763
塞耳	-11.6763
紀筭	-11.6764
並興	-11.6764
絶祀	-11.6765
副使	-11.6766
側室	-11.6766
太淵	-11.6768
其三	-11.6769
百舌	-11.6769
諸佛	-11.6769
非常之	-11.6769
來侍	-11.6769
斤兩	-11.677
為我用	-11.677
巧僞	-11.6771
宿衛	-11.6771
隱蔽	-11.6771
□□	-11.6771
親舊	-11.6772
貌王曰	-11.6772
晋侯	-11.6772
響應	-11.6773
襄主	-11.6774
雲臺	-11.6775
推步	-11.6775
戊已	-11.6776
浮游	-11.6776
神三人	-11.6776
幽都	-11.6777
采色	-11.6777
野無	-11.6777
魏闕	-11.6778
馳車	-11.6778
玉堂	-11.6778
輕罪	-11.6779
國語曰	-11.6779
得長生	-11.678
陳蔡	-11.6781
火燒	-11.6782
小雪	-11.6784
主道	-11.6785
虞公	-11.6786
戎馬	-11.6787
肉刑	-11.6788
莊子曰	-11.6789
契丹	-11.6789
無所依	-11.679
機權	-11.6793
無所不通	-11.6793
而言則	-11.6794
東胡	-11.6794
逐走	-11.6795
勁風	-11.6796
輕騎	-11.6796
武靈王	-11.6797
慶賞	-11.6797
齊一	-11.6798
子丹	-11.6798
枉直	-11.6798
枯木	-11.6798
申子曰	-11.6799
妻曰	-11.68
北宫子	-11.68
做得	-11.68
教授	-11.68
瓦石	-11.6802
豈況	-11.6802
補過	-11.6802
無所畏	-11.6802
上經	-11.6803
師友	-11.6803
二叔	-11.6804
湛然	-11.6804
隱顯	-11.6804
魄魄	-11.6804
大慚	-11.6807
必隨之	-11.6807
美談	-11.6808
步卒	-11.6808
釜中	-11.6809
結草	-11.6809
辟邪	-11.6809
而未可謂	-11.6809
炳然	-11.6809
犬馬	-11.681
禁暴	-11.6811
郡守	-11.6811
一統	-11.6812
濟濟	-11.6812
嫁之	-11.6813
不可久	-11.6816
以選	-11.6817
二十分	-11.6817
章華	-11.682
文昌	-11.6821
盛滿	-11.6823
無朕	-11.6825
布散	-11.6825
昔劉	-11.6826
得道而	-11.6826
縱火	-11.6826
狗馬	-11.6827
崇高	-11.6829
所愛者	-11.6831
音律	-11.6832
以待之	-11.6832
象牙	-11.6833
垂象	-11.6834
田常之	-11.6834
讃曰	-11.6834
朝鮮	-11.6835
日月之行	-11.6836
天文志	-11.6837
口吐	-11.684
誑事	-11.6841
閉門	-11.6841
居西北	-11.6842
走矣	-11.6842
重濁	-11.6842
寳玉	-11.6843
以戰則	-11.6844
偃王	-11.6845
各半	-11.6845
殘害	-11.6845
至於無	-11.6846
張曰	-11.6846
吾儒	-11.6847
可奪	-11.6847
紫宫	-11.685
面目	-11.6851
散而爲	-11.6852
燕師	-11.6853
積水	-11.6853
歎曰	-11.6854
其眞	-11.6854
大饗	-11.6854
聚而爲	-11.6855
近才	-11.6856
而不變者	-11.6857
又從而	-11.6857
有餘力	-11.6858
三萬里	-11.6858
南游	-11.6859
身後	-11.686
及第	-11.6861
士大夫	-11.6861
復蘇	-11.6863
丙子	-11.6863
臨陳	-11.6863
前行	-11.6864
不材	-11.6864
如水之	-11.6864
不謀而	-11.6865
自恣	-11.6865
附己	-11.6865
但得	-11.6866
否測曰	-11.6866
不死之道	-11.6867
要約	-11.6868
女氏	-11.6869
門閭	-11.6869
忠直	-11.6871
薄疑	-11.6872
咽法	-11.6873
尤不可	-11.6873
青白	-11.6873
華元	-11.6873
其輕重	-11.6875
絶敵	-11.6875
厲王	-11.6875
結交	-11.6875
所務	-11.6878
二老	-11.6879
四爲下禄而當晝君子	-11.6879
同死生	-11.688
大雅	-11.688
孝公	-11.6882
俗間	-11.6883
制度	-11.6886
由己	-11.6886
通于	-11.6886
寓言	-11.6888
是故子墨子言曰	-11.6889
盡力於	-11.689
雖處	-11.6891
游士	-11.6891
以警	-11.6891
智不能	-11.6892
躬自	-11.6894
將帥	-11.6895
臨終	-11.6895
果敗	-11.6896
周密	-11.6896
景仁	-11.6897
以誘	-11.6898
遽至	-11.6898
曲禮	-11.6901
者必無	-11.6904
異端	-11.6904
云爾	-11.6905
海外	-11.6907
殺生之	-11.6908
一十八	-11.6909
於名山	-11.691
大衍	-11.6911
相憎	-11.6911
血食	-11.6912
擊破	-11.6913
今人主	-11.6916
危急	-11.6917
括子	-11.6917
重淵	-11.6917
荆公	-11.6917
諸將皆	-11.6918
先登	-11.6919
無違	-11.6922
鄉長	-11.6924
五卷	-11.6924
通道	-11.6925
〇張預曰士卒	-11.6925
襲我	-11.6926
成銀	-11.6926
而遺	-11.6927
節用	-11.6927
何憂	-11.6928
交地	-11.693
初爻	-11.693
氣禀	-11.6932
還師	-11.6933
下比	-11.6934
得民心	-11.6934
伐謀	-11.6934
深藏	-11.6936
必亂	-11.6936
陰陽之氣	-11.6937
兵刃	-11.6937
管子曰	-11.6937
上眞	-11.6939
所費	-11.6943
曹操曰敵	-11.6944
智氏	-11.6944
高宗	-11.6945
不可留	-11.6945
舉兵伐	-11.6946
忽聞	-11.6947
人主者	-11.6947
在腹	-11.6949
正覺	-11.695
無垠	-11.6954
小滿	-11.6955
與人同	-11.6958
則無不	-11.696
吾當	-11.6961
受天	-11.6961
以子爲	-11.6962
彼自	-11.6965
如何曰	-11.6965
是以明主	-11.6967
彌子	-11.6969
遂降	-11.697
也二者	-11.6974
無愧	-11.6974
積年	-11.6974
不辱	-11.6977
三族	-11.6979
藏精	-11.6981
不强必	-11.6981
榮貴	-11.6981
清虚	-11.6982
誰謂	-11.6983
而取勝	-11.6983
百世	-11.6985
一晝一夜	-11.6985
忽有一	-11.6986
云云	-11.6987
萬古	-11.6996
煞人	-11.6999
憂患	-11.7
更無	-11.7
辯智	-11.7001
而後戰	-11.7001
天人之	-11.7003
入山林	-11.7005
無礙	-11.7007
人有善	-11.7008
四世	-11.7009
九轉	-11.701
二篇	-11.7011
捨去	-11.7011
便可見	-11.7012
君親	-11.7013
西方曰	-11.7014
不可移	-11.7017
死喪	-11.7018
亦不可得	-11.7019
韓王	-11.7019
指歸	-11.7022
武安	-11.7022
德盛	-11.7023
不夭	-11.7024
傷生	-11.7024
若彼	-11.7026
强秦	-11.7028
獸名	-11.7031
者義也	-11.7035
石上	-11.7035
以射	-11.7037
方策	-11.704
六卿	-11.7041
旬日	-11.7041
千日	-11.7043
食穀	-11.7043
帝時	-11.7043
之神曰	-11.7044
至妙	-11.7046
讀人	-11.705
與此	-11.7052
則士卒	-11.7052
相參	-11.7053
寺人	-11.7055
趙軍	-11.7057
不費	-11.7058
少年	-11.7061
居左	-11.7063
無畏	-11.7064
烏得無	-11.7067
七患	-11.7068
弟子皆	-11.707
可成	-11.7071
上書	-11.7073
子思	-11.7074
耶賛曰	-11.7074
交通	-11.7074
不兩	-11.708
正中	-11.7081
市中	-11.7085
形圓	-11.709
全身	-11.7092
其肉	-11.7092
八陳	-11.7099
時時	-11.7099
西安	-11.7105
澤及	-11.7106
相須	-11.7107
五度	-11.7107
重罰	-11.711
接刃	-11.711
亦為	-11.7114
延壽	-11.7114
愛惡	-11.7116
最為	-11.7118
樹下	-11.712
安仁	-11.7122
未兆	-11.7125
所撰	-11.7125
昔王	-11.7126
審乎	-11.7128
各得其	-11.7128
以應敵	-11.7128
劇於	-11.7131
機發	-11.7133
其天性	-11.7133
亂法	-11.7136
正是	-11.7139
謂之狂	-11.714
則歲星	-11.7141
高樓	-11.7143
青陽	-11.7143
得地利	-11.7147
出遊	-11.7148
彼將	-11.7151
無勇	-11.7151
收之	-11.7151
以爲寳	-11.7154
名篇	-11.7154
施用	-11.7154
經國	-11.7156
使羣臣	-11.7157
凡民	-11.7161
復更	-11.7162
顯名	-11.7163
功臣	-11.7163
坎中	-11.7167
合同	-11.7167
者蓋以	-11.7169
知時	-11.7169
有大功	-11.717
之謂道	-11.7171
不少矣	-11.7173
自固	-11.7179
宋公	-11.7183
前起	-11.7183
也兵之	-11.7183
不能避	-11.7184
十二卦	-11.7184
林中	-11.7185
重賞	-11.7187
少女	-11.7187
而悲	-11.7189
孰與	-11.7191
而歎曰	-11.7194
骨髓	-11.7196
五福	-11.7196
率皆	-11.7196
相遇	-11.72
不可廢	-11.7202
職事	-11.7203
南門	-11.7205
受光	-11.7205
有事	-11.7205
聚衆	-11.7206
乎或曰	-11.721
不均	-11.7212
百發	-11.7212
水澤	-11.7216
來歸	-11.7217
氣便	-11.722
來歲	-11.7223
當路	-11.7223
物莫	-11.7225
明星	-11.7228
向使	-11.7236
九尺	-11.724
山河	-11.7241
非命	-11.7244
無害子	-11.7249
何肯	-11.7253
宇宙之	-11.7256
已往	-11.7274
兩山	-11.7274
失道而	-11.7277
敗軍	-11.7283
往視	-11.7288
才士	-11.7289
第九	-11.729
而後成	-11.7292
也王曰居	-11.7293
隨時而	-11.7293
教民	-11.7293
伺敵	-11.7294
而藏之	-11.7297
公事	-11.7297
世務	-11.7299
持重	-11.7301
相傷	-11.7305
患乎	-11.7311
中期	-11.7311
不得其人	-11.7312
獨任	-11.7312
爲妻	-11.7313
陰乾	-11.7316
惡直	-11.7318
民怨	-11.7319
不得長生	-11.7321
足食	-11.7322
因號	-11.7323
不競	-11.7324
憂樂	-11.7327
得衆	-11.7328
苦心	-11.7332
升合	-11.7333
相次	-11.7341
者言其	-11.7341
善善	-11.7341
元主	-11.7341
得三十六	-11.7343
三事	-11.7345
主兵	-11.7347
胃中	-11.7355
重輕	-11.7355
未必能	-11.7355
子之所	-11.7356
了又	-11.7358
以淩	-11.7359
衆邪	-11.7363
不墮	-11.7368
内虚	-11.737
存國	-11.7383
重厚	-11.7383
修治	-11.7385
土木	-11.7387
先聖之	-11.7388
者所以爲	-11.7395
大費	-11.7398
三舍	-11.7399
果何	-11.7406
也如是則	-11.7406
三萬六千	-11.7408
否曰	-11.7408
不可卒	-11.7408
齊楚	-11.7411
地吾將	-11.7412
近易	-11.7419
任意	-11.742
臣將	-11.7421
歸之於	-11.7421
相隨	-11.7422
震巽	-11.7423
其疾也	-11.7427
其氣爲	-11.7427
上賢	-11.7429
大宗	-11.7433
化育	-11.7437
純一	-11.7439
萬善	-11.744
乃隂	-11.7444
腎爲	-11.7448
其所聞	-11.745
以勸之	-11.7453
應卒	-11.7454
之所至	-11.7454
國色	-11.7455
七國	-11.746
西施之	-11.7464
將攻	-11.7466
清水	-11.7471
其佐	-11.7471
所屬	-11.7473
履道	-11.7479
亡矣	-11.7484
天下之民	-11.7486
小節	-11.7493
貴重	-11.7494
縣有	-11.7495
雲中	-11.7497
謝子	-11.7497
武士	-11.7497
萬夫	-11.7499
天之氣	-11.7509
建寅	-11.7511
徃徃	-11.7518
河陽	-11.7519
不能傷	-11.7519
為客	-11.752
上達	-11.752
馬氏	-11.7523
德澤	-11.7526
外交	-11.753
建丑	-11.7531
學仙	-11.7532
矣今夫	-11.754
神龍	-11.7542
皆斷	-11.7543
之類皆	-11.7546
而不肖者	-11.7553
西河	-11.7554
自負	-11.7555
廢公	-11.7556
成形而	-11.7558
歸國	-11.7559
者則謂之	-11.7565
殺臣	-11.7567
時悔	-11.7567
此十二	-11.7567
濟物	-11.7567
弗得	-11.7571
厚愛	-11.7576
天地之所	-11.7583
皆不出	-11.7585
財竭	-11.7587
諸聖	-11.7589
可信	-11.7592
大勇	-11.7599
務本	-11.7605
矣〇張預曰	-11.7606
承天	-11.7607
當日之晝君子	-11.7611
餘十二	-11.7612
玄德	-11.7624
地之體	-11.7624
冠帶	-11.7625
可謂至	-11.7625
所奪	-11.7626
至卑	-11.7627
妄行	-11.7631
寒氣	-11.7639
聚徒	-11.764
之數皆	-11.7646
斗魁	-11.7647
面從	-11.7649
或乘	-11.765
誘慕	-11.765
一卷	-11.7651
爲室	-11.7651
可謂善	-11.7651
曷不	-11.7653
萬斛	-11.7653
亂之道也	-11.7655
是一箇	-11.7656
毫釐之	-11.7657
亦不敢	-11.7661
之藪	-11.7669
子父	-11.767
懷遠	-11.767
三十五	-11.7671
取法	-11.7672
又曰日	-11.7675
不以私	-11.7683
教子	-11.7683
中規	-11.7685
知此者	-11.7686
生間	-11.7691
土土	-11.7691
斯亦	-11.7693
利之也	-11.7696
勝其任	-11.77
改其	-11.7702
失國	-11.7704
威行	-11.7704
小寒	-11.7705
水之上	-11.7712
失正	-11.7712
弑君	-11.7715
氣以生	-11.7717
私怨	-11.772
教之以	-11.7723
不可不審	-11.7724
北方有	-11.7728
故不言	-11.7733
不可欺	-11.776
白公之	-11.7764
水精	-11.7769
不與物	-11.7771
獨處	-11.7776
列星	-11.7777
無德而	-11.7777
新法	-11.7782
廢矣	-11.7784
遇禍	-11.7785
本心	-11.7786
天機	-11.7788
方外	-11.7788
卒擊	-11.7793
山居	-11.7797
亦終	-11.7799
而乘之	-11.7799
至聖	-11.7799
乎人知	-11.7801
妄取	-11.7802
用財	-11.7803
其所以然	-11.7805
利口	-11.781
知人之	-11.781
無待	-11.7812
異時	-11.7813
宫人	-11.782
事情	-11.782
方止	-11.7821
利已	-11.7823
力有餘	-11.7828
故君	-11.7831
木德	-11.7831
見微	-11.7832
不苦	-11.7832
乎又不聞	-11.7833
非所以爲	-11.7838
不穀	-11.784
所以養	-11.784
天下諸侯	-11.7844
大魚	-11.7845
地之下	-11.7845
也〇邵子曰	-11.7851
思之則	-11.7852
春氣	-11.7858
設醮	-11.7859
知氏	-11.7862
不返	-11.7873
有限	-11.7874
之不止	-11.7874
殺一人	-11.7876
謝曰	-11.7878
此術	-11.7878
其黨	-11.7879
故民無	-11.789
謂之神	-11.7895
而不食	-11.7896
天地萬物	-11.7902
若轉	-11.7907
以賜	-11.7916
氣盛	-11.7926
入口	-11.7927
一運	-11.7933
神名	-11.7942
即死	-11.7943
千百	-11.7947
不正則	-11.7947
主術	-11.795
行誅	-11.7951
日西	-11.7951
我之所	-11.7956
又化	-11.7958
也言不	-11.7965
兵少	-11.797
胡爲	-11.7975
氣絶	-11.7979
有違	-11.7979
無止	-11.7985
曰此人	-11.7987
雖云	-11.7987
先靈	-11.7996
萬物莫不	-11.7996
君長	-11.8001
談論	-11.8007
以觀其	-11.8014
之易也	-11.8016
不義而	-11.8023
此治之	-11.8023
所值	-11.8027
屬是也	-11.8027
主之所以	-11.8028
人臣有	-11.8034
事鬼神	-11.8034
苟能	-11.8041
能兼	-11.8048
體用	-11.8051
不可爲也	-11.8055
怯者	-11.8059
陽之氣	-11.8063
年老	-11.8079
有五色	-11.808
而返	-11.8081
法施	-11.8081
子圉	-11.8084
乎此則	-11.8087
驚亂	-11.8093
受之以	-11.8095
蒼天	-11.8099
仲秋	-11.81
而無私	-11.8101
卦畫	-11.8104
其所得	-11.8104
丘園	-11.8108
家老	-11.8109
二爲思中	-11.8115
正位	-11.8128
不衣	-11.813
多病	-11.814
賁育之	-11.8141
篇云	-11.8142
必罰	-11.8153
曆者	-11.8154
而莫知	-11.8155
衆同	-11.8157
芝生	-11.8163
相承	-11.8178
官司	-11.8178
太玄以	-11.8187
小城	-11.8192
末世之	-11.8199
望日	-11.8207
讃	-11.821
也吴曰	-11.8211
重刑	-11.8212
礬石	-11.8215
任子	-11.8219
故上文云	-11.8225
中行氏	-11.8228
失次	-11.823
患害	-11.8231
雖遠	-11.8231
伺其	-11.8231
崑崙山	-11.8234
引至	-11.8235
長存	-11.8236
猒	-11.8248
集於	-11.8251
朔月	-11.826
速去	-11.8265
命吏	-11.8266
烏得	-11.8271
沌	-11.8276
易知	-11.8289
德施	-11.83
北向	-11.83
廟堂之上	-11.8302
靈寳	-11.8302
其敢	-11.8304
可歎	-11.8304
右手	-11.8306
變更	-11.8307
精妙	-11.8317
所集	-11.8319
白馬非馬	-11.8323
簇	-11.8326
躆	-11.8328
小暑	-11.833
受其殃	-11.8332
濮	-11.8336
有一箇	-11.8337
弧矢	-11.8339
用一百	-11.834
篆	-11.834
朏	-11.8348
成形名爲	-11.8349
勞形	-11.8349
騶虞	-11.835
處暑	-11.835
亡者神識	-11.835
隈	-11.8352
離卦採藥	-11.8352
層	-11.8352
也小宋曰	-11.8352
陀	-11.8353
無所往則	-11.8353
十二分	-11.8354
血塗一丸	-11.8354
巽坎	-11.8354
令敵	-11.8354
掎角	-11.8355
疊	-11.8356
忉	-11.8356
擐	-11.8356
洎	-11.8356
絺	-11.8356
轒輼	-11.8357
衰絰	-11.8357
撝	-11.8357
陽之盛也	-11.8357
尹文曰	-11.8357
册	-11.8358
撚	-11.8358
橢	-11.8358
鬯	-11.8358
狂矞	-11.8358
馭	-11.8358
死託祀於	-11.8358
安利	-11.8359
橘	-11.8359
破之必矣	-11.836
以三二因	-11.836
濘	-11.836
莧	-11.836
利也〇張預曰	-11.8361
迄	-11.8361
氷雪	-11.8361
腥穢	-11.8361
大衍之數	-11.8361
鷺	-11.8361
殳	-11.8362
暑濕	-11.8362
鴆	-11.8362
樞機	-11.8362
搶	-11.8363
恢廓	-11.8363
老嫗	-11.8363
𣗳	-11.8363
六陰六陽	-11.8364
糝	-11.8364
鄶	-11.8364
所以勸	-11.8364
黄鍾之律	-11.8364
僵	-11.8365
今從宋陸王本王曰	-11.8365
湣王	-11.8365
王子閭	-11.8365
六十律	-11.8365
潞公	-11.8366
漱	-11.8366
埏	-11.8366
韶	-11.8367
伊摯	-11.8367
穩	-11.8367
悦	-11.8367
經十卷	-11.8367
喪息浪切	-11.8368
跀危	-11.8368
瘦	-11.8368
鵬	-11.8369
初而失位當夜	-11.8369
烝	-11.8369
陽侯之波	-11.8369
今從范小宋本	-11.8369
摹	-11.8369
臠	-11.8369
吴蚣	-11.8369
七百二十	-11.8369
毆	-11.8369
以尚賢使能爲政	-11.8369
遨	-11.837
自外來	-11.837
胃昴畢	-11.837
七十萬家	-11.837
而折之者乎	-11.837
因糧於敵	-11.837
慰	-11.837
軻	-11.837
嫉妬	-11.8371
椀	-11.8371
爲炮烙	-11.8371
宰割	-11.8371
飭	-11.8371
良馬固車	-11.8371
范蠡	-11.8371
振翅	-11.8371
弦望晦朔	-11.8372
鱣	-11.8372
穿窬	-11.8372
迸	-11.8372
沅	-11.8372
薈	-11.8372
緬	-11.8372
羸弱	-11.8372
攓	-11.8372
亞	-11.8373
複	-11.8373
藿	-11.8373
無聲無臭	-11.8373
麛	-11.8373
枋	-11.8373
鷹隼	-11.8373
坼	-11.8373
虞虢	-11.8374
陽以陰為	-11.8374
麽	-11.8374
焰	-11.8374
懈惰	-11.8374
粢	-11.8374
邈世之	-11.8374
鸛	-11.8374
緡	-11.8374
行賞	-11.8375
搗	-11.8375
風縱火	-11.8375
玷	-11.8375
鋌	-11.8375
餔	-11.8375
蔀	-11.8375
吾以此知	-11.8375
愽	-11.8376
倩	-11.8376
剗	-11.8376
景行道受仙	-11.8376
根勘	-11.8377
𥿄	-11.8377
姧	-11.8377
三陽三陰	-11.8377
哆	-11.8377
百四十四	-11.8377
菖蒲	-11.8377
得五便成	-11.8377
袁紹	-11.8378
草莽	-11.8378
眉睫	-11.8378
撮壤	-11.8378
羶	-11.8378
𥚑	-11.8378
絓	-11.8378
裕	-11.8378
廵	-11.8378
擘	-11.8379
尟	-11.8379
映	-11.8379
陰生午	-11.8379
如此者身危	-11.8379
斗牽牛	-11.8379
紹宗	-11.8379
翰林學士	-11.8379
陬	-11.8379
謡	-11.8379
爲之柰何	-11.8379
抒	-11.8379
澀	-11.8379
緊	-11.8379
葺	-11.8379
側匿	-11.8379
萬有一千五百二十	-11.8379
苑囿	-11.8379
豈不悖哉	-11.8379
樗	-11.838
劌	-11.838
懟	-11.838
於人間	-11.838
弃灰	-11.838
負笈	-11.838
涼	-11.838
不旋踵	-11.838
五絃之琴	-11.838
孥	-11.838
攢	-11.838
蒼梧	-11.838
鍜	-11.838
韓康子	-11.838
侵漁	-11.838
狶	-11.838
栖	-11.8381
洪濤	-11.8381
漳	-11.8381
珮	-11.8381
嫡	-11.8381
田單守即墨	-11.8381
磐石	-11.8381
迭為消長	-11.8381
為不可勝之	-11.8382
盡去	-11.8382
扆	-11.8382
堵	-11.8382
炮	-11.8382
王曰七居過滿	-11.8382
蔬食	-11.8382
惜其莫悟	-11.8382
糟	-11.8383
裊	-11.8383
字之誤	-11.8383
潢洿	-11.8383
物固有	-11.8383
動於九天之上	-11.8383
天人之際	-11.8383
毫髮	-11.8383
隽	-11.8383
蔂	-11.8383
豁然	-11.8383
絲竹	-11.8383
者也曹操曰	-11.8384
瓦礫	-11.8384
窮理盡性	-11.8384
有許多	-11.8384
上爲真人	-11.8384
个	-11.8384
以自代	-11.8384
吕牙	-11.8384
腫	-11.8384
陰陽老少	-11.8384
隠	-11.8384
先薦寢廟	-11.8384
夷貉	-11.8384
虹蜺	-11.8384
誚	-11.8385
擠	-11.8385
糺	-11.8385
上中下	-11.8385
六一泥	-11.8385
從間道	-11.8385
春木王	-11.8385
耕柱子	-11.8385
鉒	-11.8385
黄眉	-11.8385
八八六十四	-11.8385
抮	-11.8385
聆	-11.8386
遶	-11.8386
欵	-11.8386
秋毫之末	-11.8386
僂	-11.8386
栝	-11.8386
歲而周天	-11.8386
以炁禁	-11.8386
址	-11.8386
師聖眞仙	-11.8386
棄捐	-11.8386
螻蟻	-11.8386
頡	-11.8386
霓	-11.8386
胞胎	-11.8387
憶	-11.8387
端起乎此	-11.8387
徂	-11.8387
夢寐	-11.8387
滎陽	-11.8387
右个	-11.8387
栽	-11.8387
極而失位當夜	-11.8387
潛	-11.8387
譚	-11.8387
便利之地	-11.8387
邵康節	-11.8387
堯舜禹湯	-11.8387
蔡嫗	-11.8387
鼉	-11.8387
沔	-11.8387
劃	-11.8387
夾脊	-11.8387
奬	-11.8387
倣	-11.8387
有生地一	-11.8388
魯陽文君	-11.8388
興利除害	-11.8388
迅雷	-11.8388
軟	-11.8388
趙普	-11.8388
巫咸	-11.8388
歲月日時	-11.8388
不量力	-11.8388
惇	-11.8388
陳安世	-11.8388
癸亥	-11.8388
綣	-11.8388
蛩	-11.8388
鍾鼎	-11.8388
叡	-11.8388
毗	-11.8388
茨	-11.8389
斟	-11.8389
諦	-11.8389
黑齒	-11.8389
如彈丸	-11.8389
狡兔	-11.8389
飄風	-11.8389
管晏	-11.8389
翺	-11.8389
十十	-11.839
蛻	-11.839
寂然不動	-11.839
莘	-11.839
鉏	-11.839
隊伍	-11.839
慿	-11.839
房中之術	-11.839
拜樞宻	-11.839
願陛下	-11.839
芝圖	-11.839
彝	-11.839
陶冶	-11.839
乎惜其不知	-11.839
屋漏	-11.8391
忍痛	-11.8391
揀	-11.8391
讜	-11.8391
犒	-11.8391
許諾	-11.8392
鋪	-11.8392
瞋目	-11.8393
斧斤	-11.8393
踤	-11.8393
百步之外	-11.8393
倏忽	-11.8393
泣涕	-11.8393
所訴	-11.8393
狠戾自用	-11.8393
獄訟	-11.8393
雪霜	-11.8393
風至四十五日	-11.8393
噫	-11.8394
太倉	-11.8394
間其君臣	-11.8394
揵	-11.8394
纑	-11.8394
酤酒	-11.8394
於胷中	-11.8394
𢡖	-11.8394
太極本無極	-11.8394
絶澗	-11.8394
有所見	-11.8394
梗	-11.8394
斥鹵	-11.8394
有虞氏	-11.8395
炫	-11.8395
劵	-11.8395
張忠定	-11.8395
敞	-11.8395
趙簡主	-11.8395
弘農	-11.8395
慰諭	-11.8395
闞	-11.8395
佼	-11.8395
國之政	-11.8395
利糧道	-11.8395
錙	-11.8395
蒯	-11.8395
蘖	-11.8395
所以然者何也	-11.8395
拯濟	-11.8395
伍員	-11.8395
赤松子	-11.8395
邢	-11.8395
驅馳	-11.8395
必有奇伏	-11.8395
子午卯酉	-11.8396
廣三尺	-11.8396
嘉穀	-11.8396
地祇	-11.8396
升堂	-11.8396
鸚鵡	-11.8396
楞嚴	-11.8396
自子至巳	-11.8397
啼	-11.8397
仲尼聞之曰	-11.8397
以僞雜眞	-11.8397
怡顔	-11.8397
羲和	-11.8397
訛	-11.8397
設奇伏	-11.8397
劫殺之	-11.8397
掌握	-11.8397
純樸	-11.8397
脫兔	-11.8397
頼	-11.8397
丑寅	-11.8398
吴王闔閭	-11.8398
者何也以其	-11.8398
者生於庶	-11.8398
忌諱	-11.8398
頑嚚	-11.8398
驪姬	-11.8398
匣	-11.8398
各得其宜	-11.8398
媿	-11.8398
萬二千里	-11.8398
塵垢	-11.8398
孜孜	-11.8398
牘	-11.8398
蝦蟇	-11.8398
玄㝠	-11.8398
篙	-11.8398
鳥喙	-11.8398
衣紫	-11.8398
酈	-11.8399
賈誼	-11.8399
犴	-11.8399
棓	-11.8399
敖倉	-11.8399
一人之身	-11.8399
待時而	-11.8399
姑置勿論	-11.8399
孔安國	-11.8399
㐜	-11.8399
神之所	-11.8399
毫芒	-11.84
魯昭公	-11.84
絶糧道	-11.84
島	-11.84
流涕	-11.84
陵遲	-11.84
田鳩	-11.84
北狄	-11.84
鑊	-11.8401
害義	-11.8401
無所措其	-11.8401
禍莫大於	-11.8401
管蔡	-11.8401
悵然	-11.8401
低眉	-11.8401
棄輜重	-11.8401
以五乘	-11.8402
等級	-11.8402
與物接	-11.8402
晏子對曰	-11.8402
精絜	-11.8402
松柏	-11.8402
狗犬	-11.8402
伊闕	-11.8402
含笑	-11.8402
陰陽消長	-11.8403
奇怪	-11.8403
蚋	-11.8403
嶁	-11.8403
淮隂	-11.8403
蘇代	-11.8403
焚燒	-11.8403
祧	-11.8403
蜉蝣	-11.8403
逆旅	-11.8403
所行之事	-11.8403
功炁君奏事	-11.8403
覆巢	-11.8403
仿	-11.8404
元之元	-11.8404
這箇	-11.8404
撥亂	-11.8404
糴	-11.8404
陽中之陰	-11.8405
茸	-11.8405
雩	-11.8405
兩乳	-11.8405
咄	-11.8405
圎	-11.8405
仲舒	-11.8406
齊威王	-11.8406
藪澤	-11.8406
衘	-11.8406
有道之國	-11.8406
居四正	-11.8406
陰陽二氣	-11.8406
剱	-11.8406
唯聖人能	-11.8406
螫毒	-11.8406
充塞	-11.8406
或人難曰	-11.8407
和氏之璧	-11.8407
燥濕	-11.8408
繪	-11.8408
膏壤	-11.8408
有餘不足之	-11.8408
太昊	-11.8408
掇禍	-11.8408
故能成其	-11.8408
堯舜湯武	-11.8409
機祥	-11.8409
蘿	-11.8409
子臯	-11.8409
亦所以生	-11.8409
鰥	-11.8409
莊子	-11.8409
王喬	-11.841
太卜	-11.841
龔	-11.841
祀竈	-11.841
鞫	-11.841
人所共	-11.841
城薛	-11.841
高枕	-11.841
六合之内	-11.841
聿	-11.841
林甫	-11.841
蠬	-11.8411
魯周公	-11.8411
隰子	-11.8412
乙丑	-11.8412
釣魚	-11.8412
杜伯	-11.8412
劉牧	-11.8412
鮑魚	-11.8412
萬品	-11.8413
辰戌	-11.8413
大鵬	-11.8413
鄉導	-11.8413
清明風	-11.8414
祝史	-11.8414
坤卦	-11.8414
黄石公素書	-11.8414
吾之宗君	-11.8414
不堪命	-11.8415
天有四時	-11.8415
知成都	-11.8415
三十六宫	-11.8416
椒	-11.8416
歷覽	-11.8416
積薪	-11.8416
卷甲	-11.8416
吐納	-11.8416
狂惑	-11.8416
第十七	-11.8417
隱匿	-11.8417
州部	-11.8417
隙穴	-11.8417
文潞公	-11.8417
閈	-11.8418
申酉	-11.8418
山峙	-11.8418
旗鼓	-11.8418
壽考	-11.8418
延卿	-11.8418
李兌	-11.8418
巍	-11.8418
各居其	-11.8418
蟯	-11.8418
章句	-11.8418
宇宙之間	-11.8418
葬埋	-11.8419
蝨	-11.8419
傾側	-11.8419
超脫	-11.842
重幣	-11.8421
汲引	-11.8421
厚賂	-11.8421
農桑	-11.8421
昊天	-11.8421
不能久	-11.8421
使人問之	-11.8422
輕進	-11.8422
涵養	-11.8423
塊然	-11.8423
詮言	-11.8423
權柄	-11.8423
摸	-11.8423
鄉里	-11.8423
上面	-11.8423
慶雲	-11.8424
亦愈	-11.8424
兩浙	-11.8425
稽首	-11.8425
相加而爲	-11.8425
藉車	-11.8425
典籍	-11.8426
朱輪	-11.8426
沙石	-11.8426
五岳	-11.8426
玉杯	-11.8426
寒露	-11.8426
羅漢	-11.8426
張氏	-11.8427
於當世	-11.8427
靈臺	-11.8427
虞舜	-11.8427
鴞	-11.8427
辟穀	-11.8427
黎民	-11.8427
果毅	-11.8428
黄髮	-11.8428
桑林	-11.8429
嫁女	-11.8429
州牧	-11.843
不朽之	-11.843
游吉	-11.843
甘雨	-11.8431
加減	-11.8431
履踐	-11.8432
滋長	-11.8432
豈肯	-11.8432
下第三十	-11.8432
競逐	-11.8434
躄者	-11.8434
孫吴	-11.8434
何也對曰	-11.8434
徹視	-11.8434
閼與	-11.8434
勃然	-11.8435
晝寢	-11.8435
長三尺	-11.8435
淫祀	-11.8435
面墻	-11.8436
嗇夫	-11.8436
孔孟	-11.8436
叔瞻	-11.8436
獄具	-11.8436
萬鈞	-11.8436
師傅	-11.8437
輕侮	-11.8438
用此術	-11.8438
巢許	-11.8439
設詐	-11.844
治國之道	-11.844
右背	-11.844
於廟堂之上	-11.8441
朝露	-11.8441
第十二	-11.8441
足躡	-11.8441
散而為	-11.8441
夜夢	-11.8441
狀貌	-11.8441
邊城	-11.8441
懷其德	-11.8441
可救	-11.8442
朱子曰天地	-11.8442
也故先王	-11.8442
中央土	-11.8442
李克	-11.8442
土階	-11.8443
遺冠	-11.8444
勞役	-11.8444
驚駭	-11.8445
易緯	-11.8446
冬寒	-11.8446
邪徑	-11.8447
汜水	-11.8447
南巢	-11.8447
光謂二爲思中而當晝君子	-11.8447
減筭	-11.8448
劫賊	-11.8448
人臣之所	-11.8448
河鼓	-11.8448
丹穴	-11.8449
爾雅曰	-11.8449
發憤	-11.8449
而無能	-11.8449
靡草	-11.8449
兩邊	-11.8449
極之山	-11.845
含章	-11.845
病痛	-11.8451
能變化	-11.8452
君臣之道	-11.8452
上下不相	-11.8452
心不專	-11.8453
不免於亂	-11.8453
强諫	-11.8453
玉英	-11.8453
百歳	-11.8453
甲申	-11.8454
聽獄	-11.8456
節宣	-11.8456
隂閉	-11.8457
單于	-11.8457
欲爲道	-11.8458
赤色	-11.8458
申韓	-11.8458
河濟	-11.8459
豈特	-11.8459
恭己	-11.846
切齒	-11.846
閏月	-11.846
閏數	-11.846
少多	-11.8461
死生之地	-11.8461
恐敵人	-11.8461
師延	-11.8461
一介之	-11.8461
五步	-11.8462
第八	-11.8463
甘草	-11.8463
三斤	-11.8463
江東	-11.8464
相生相	-11.8464
陽生於子	-11.8465
則主失	-11.8466
胡越	-11.8466
譬之若	-11.8466
行夏令則	-11.8467
領理	-11.8467
傳曰太上曰	-11.8468
穀食	-11.8469
誅戮	-11.8469
有功則	-11.847
巨象	-11.8471
圖籍	-11.8471
乖宜	-11.8471
列仙	-11.8472
白公勝	-11.8473
戊子	-11.8474
八荒	-11.8474
乾没	-11.8475
貢士	-11.8476
絶跡	-11.8476
佛書	-11.8477
勢孤	-11.8477
騎士	-11.8478
六壬	-11.8479
炭火	-11.8479
金鐵	-11.848
臨晋	-11.848
語默	-11.8481
猶愈於	-11.8481
求諸人	-11.8481
知止	-11.8482
髮白	-11.8482
宇文	-11.8482
者寡矣	-11.8483
趙武	-11.8484
大疫	-11.8485
長乆	-11.8485
若之何	-11.8487
宣力	-11.8488
辰辰	-11.8488
提舉	-11.8488
鄭注	-11.849
斷獄	-11.849
丹經	-11.8491
摇動	-11.8491
戒之曰	-11.8491
爲人用	-11.8491
然而世	-11.8493
數七	-11.8493
九九八十一	-11.8493
隂氣勝	-11.8494
太史公	-11.8494
耕戰	-11.8494
九卿	-11.8495
百毒	-11.8495
今之世	-11.8495
腹背	-11.8495
紛然	-11.8495
亡徵	-11.8495
退讓	-11.8496
五行之氣	-11.8496
殷周	-11.8496
五百里	-11.8496
開示	-11.8496
分謗	-11.8497
被衣	-11.8497
者宜以	-11.8498
舉國	-11.8499
宗室	-11.8499
高辛	-11.8499
陽燧	-11.8501
數十年	-11.8502
純仁	-11.8502
中黃	-11.8502
力征	-11.8503
既没	-11.8505
謹節	-11.8505
幽州	-11.8505
臨財	-11.8506
數輩	-11.8507
繩直	-11.8508
八十四	-11.8508
為偶	-11.8509
不肯信	-11.8509
有二心	-11.851
赤龍	-11.851
陽而生	-11.851
夷射	-11.8512
定計	-11.8513
貫通	-11.8513
糧少	-11.8513
頂中	-11.8514
愛其親	-11.8515
五行相	-11.8516
天地人事	-11.8517
竒士	-11.8517
等威	-11.8518
決戰	-11.8518
議論	-11.8519
盈滿	-11.8519
之所司	-11.852
壺子	-11.8523
星宿	-11.8523
閉藏	-11.8523
發號	-11.8524
而自利	-11.8524
形影	-11.8525
居一年	-11.8526
知利	-11.8528
虚靜	-11.8528
無涯	-11.8529
以賤爲	-11.8529
趙政	-11.8532
元素	-11.8533
瞽師	-11.8533
三升	-11.8533
不及古	-11.8535
衡山	-11.8535
室女	-11.8536
也何以知其然	-11.8537
汝南	-11.8538
閑居	-11.854
節儉	-11.8541
魅	-11.8542
虚妄	-11.8544
忠告	-11.8546
受賜	-11.8548
太仁	-11.8549
九族	-11.855
以爲不然	-11.8552
玉帝	-11.8553
出地上	-11.8553
從革	-11.8555
峻極	-11.8555
争勝	-11.8556
良田	-11.8556
奉養	-11.8557
三川	-11.8557
在人為	-11.8557
患禍	-11.8559
一劑	-11.856
憂尋	-11.8561
自此即	-11.8561
得一箇	-11.8562
於竹帛	-11.8563
欲擊之	-11.8563
莊公	-11.8564
四孟	-11.8564
效功	-11.8565
前却	-11.8565
得其法	-11.8565
尚微	-11.8565
温公	-11.8566
速戰	-11.8566
怪物	-11.8568
武都	-11.8569
交坤	-11.857
在地上	-11.857
向陽	-11.8571
賞必	-11.8571
修政	-11.8572
危之道也	-11.8573
數十萬	-11.8573
客星	-11.8573
六根	-11.8574
阿難	-11.8574
革命	-11.8574
何況	-11.8574
氣運	-11.8575
美好	-11.8575
賛易	-11.8576
安靜	-11.8576
伏藏	-11.8577
須女	-11.8578
殷王	-11.8579
萬物之情	-11.8579
蒼生	-11.858
戎王	-11.8582
祖先	-11.8585
九地篇	-11.8585
群陰	-11.8585
未有能	-11.8585
無求於	-11.8586
盖天	-11.8586
如響	-11.859
嘗聞	-11.859
二十六日	-11.8591
饗士	-11.8593
庸主	-11.8594
而能爲之	-11.8594
再拜曰	-11.8597
乎公曰	-11.86
神妙	-11.8601
太山之	-11.8602
焉洪	-11.8603
王屋	-11.8604
左目	-11.8604
悖矣	-11.8605
生育	-11.8605
富强	-11.8607
先覺	-11.8607
白雲	-11.8609
尤甚	-11.8609
時制	-11.8612
皆自此	-11.8613
稱譽	-11.8615
數千人	-11.8615
不足信	-11.8616
右目	-11.8617
爵穴	-11.862
可謂能	-11.8624
孰多	-11.8628
䧟於	-11.8629
其空虚	-11.863
善卷	-11.8631
積怨	-11.8631
九河	-11.8635
則兵弱	-11.8635
前列	-11.8637
而獻之	-11.8638
含氣	-11.8638
投井	-11.8641
甚微	-11.8643
和氏	-11.8644
傳云	-11.8644
二百七十	-11.8645
萬計	-11.8645
果卒	-11.8649
尊賢	-11.865
殺人者	-11.8654
高才	-11.8654
上爻	-11.8657
者乎賛曰	-11.8658
右足	-11.8661
其實則	-11.8662
白素	-11.8662
之初作	-11.8663
追擊	-11.8667
消盡	-11.8668
出没	-11.8668
詳見	-11.8671
歲終	-11.8672
通靈	-11.8673
女女	-11.8673
腎水	-11.8673
尚爾	-11.8673
神仙之道	-11.8677
最能	-11.8678
舉賢	-11.8681
天曹	-11.8683
歸報	-11.8683
自巽	-11.8684
統於	-11.8685
正朔	-11.869
大醉	-11.869
幽居	-11.8693
務廣	-11.8695
乘城	-11.8696
千息	-11.8697
分計	-11.8697
不足貴	-11.8698
飢者	-11.8698
者非愛	-11.8699
聖王之道	-11.8701
動息	-11.8701
讀近	-11.8701
南宫	-11.8701
受封	-11.8703
不寐	-11.8703
凡俗	-11.8706
玄首	-11.8709
曰卿	-11.8711
清音	-11.8715
勿疑	-11.872
致政	-11.872
要離	-11.8721
耳至於	-11.8723
悉令	-11.8723
者法也	-11.8726
屬木	-11.8726
方圖	-11.873
百六十	-11.8731
二宿	-11.8731
未覺	-11.8732
氣盈	-11.8735
未有形	-11.8735
士會	-11.8736
三百六十為	-11.8739
化而爲	-11.8742
囿於	-11.8742
萌生	-11.8745
赦罪	-11.8749
在野	-11.8751
官屬	-11.8751
祭先	-11.8751
請和	-11.8752
干將	-11.8753
挫其	-11.8754
也一爲思始而當夜	-11.8761
亡秦	-11.8761
無味	-11.8763
近代	-11.8768
而左旋	-11.8771
水灌	-11.8771
諸星	-11.8776
諸侯諸侯	-11.8776
貪欲	-11.8777
易俗	-11.8778
四表	-11.8778
屬火	-11.878
率然	-11.8781
尊重	-11.8783
静時	-11.8783
道家所	-11.8784
徃而不	-11.8786
既望	-11.8787
平直	-11.879
書云	-11.8793
獲利	-11.8793
探其	-11.8794
乃覺	-11.8795
歸焉	-11.8796
長老	-11.8798
於東方	-11.8799
東風	-11.88
陽中陰	-11.88
眞正	-11.8803
仙官	-11.8806
重華	-11.8807
不甘	-11.8809
力全	-11.8813
天之體	-11.8814
李公	-11.8814
費用	-11.8816
宫商	-11.8819
坎水	-11.8819
發政	-11.8819
惑焉	-11.8819
形藏	-11.8819
禄利	-11.882
機變	-11.882
曰歲星	-11.8822
羣生	-11.8822
吕氏	-11.8823
察其所	-11.8823
格言	-11.8829
清高	-11.8829
長二尺	-11.883
美惡	-11.8835
内篇	-11.8839
能忍	-11.8841
犯難	-11.8842
彌久	-11.8847
居右	-11.8848
脩身	-11.8848
守險	-11.885
八變	-11.8851
六宫	-11.8852
夫道者	-11.8855
未甞有	-11.8861
井水	-11.8865
開國	-11.8867
不享	-11.8868
重光	-11.8869
寡君	-11.8871
人理之	-11.8871
甚難	-11.8874
四十日	-11.8875
不加於	-11.8877
是魄	-11.8879
有優劣	-11.8881
久生	-11.8882
精進	-11.8882
望後	-11.8886
無益於治	-11.8888
願成	-11.8895
所奏	-11.8898
東方曰	-11.8899
更復	-11.8901
予子	-11.8904
於會稽	-11.8905
寡欲	-11.8912
善御	-11.8912
平安	-11.8913
惟人	-11.8913
隨師	-11.8918
厚德	-11.8918
矣書曰	-11.892
漢將	-11.8922
樂師	-11.8922
不失正	-11.8923
千古	-11.8924
者不可不	-11.8926
失志	-11.8937
何遠	-11.8937
火勢	-11.8938
虛名	-11.894
者何哉	-11.8941
金城	-11.8943
背水	-11.8948
唐子	-11.8949
也四爲下禄	-11.8949
城外	-11.8952
治邪	-11.8954
子期	-11.8955
不拘於	-11.8956
整齊	-11.8956
源流	-11.8958
何以爲	-11.8958
國名也	-11.8961
擇焉	-11.8964
以知之	-11.8965
所以使人	-11.897
對敵	-11.8975
相聚	-11.8981
引入	-11.8984
係乎	-11.8989
才力	-11.899
之徒雖	-11.8992
原本	-11.8993
相兼	-11.8995
不可妄	-11.8997
隨處	-11.8998
中大夫	-11.9
不改其	-11.9004
屬焉	-11.9008
久留	-11.901
之資而	-11.9011
之徵也	-11.9011
竭其	-11.9012
也今吾	-11.9013
而待之	-11.9013
造父不能	-11.9018
向下	-11.9019
星天之	-11.9021
存神	-11.9029
一毫	-11.9031
六害	-11.9033
九門	-11.9035
微密	-11.9043
其成形	-11.9043
十步一	-11.9048
此便是	-11.9048
用藥	-11.9052
秋氣	-11.9052
致令	-11.9057
形狀	-11.9059
公卿	-11.9062
黄神	-11.9064
上不與	-11.9067
不徙	-11.9071
異辭	-11.9072
甚遠	-11.9074
所以敗也	-11.9077
定公	-11.9082
不可輙	-11.9083
上蔡	-11.9087
何患	-11.9088
又加	-11.9091
起家	-11.9093
封之以	-11.9097
仁義之道	-11.9101
不答	-11.9103
河上	-11.9103
宣言	-11.911
鴈行	-11.9111
高陵	-11.9116
難識	-11.9119
於已也	-11.912
十斛	-11.9125
未甞不	-11.9129
物之情	-11.9129
外篇	-11.9132
偶然	-11.9133
到得	-11.9134
易之本	-11.9139
守門	-11.9144
少少	-11.9147
用才	-11.9149
星之變	-11.9151
之驗	-11.9152
其所欲而	-11.9153
山積	-11.9155
矣且夫	-11.9159
不可不審也	-11.916
蓋世	-11.9169
良能	-11.917
禍極	-11.9173
所聞見	-11.9178
仙去	-11.9181
自用其	-11.9184
辯而不	-11.9186
威强	-11.919
數多少	-11.9198
自然之理也	-11.9198
至晦	-11.92
不匱	-11.92
臨民	-11.9202
亦安得	-11.9206
行歌	-11.9208
貌光謂	-11.9217
無以應	-11.9224
十有四	-11.9244
公曰然則	-11.9252
復歸其	-11.9256
小術	-11.9262
所不逮	-11.9265
星星	-11.9268
孰有	-11.927
卒伍	-11.9274
自定	-11.9276
令敵人	-11.9282
薄矣	-11.9284
觀變	-11.9289
不訾	-11.9291
溺人	-11.9294
賢德	-11.9296
勞而不	-11.93
不變其	-11.9304
知所避	-11.9307
然當日之晝	-11.9311
許君	-11.9319
爲思始而當夜小人	-11.9326
奉法	-11.9328
以類相	-11.9328
自備	-11.9331
閉關	-11.9335
午位	-11.9337
魏末	-11.9339
不溢	-11.9348
此曹	-11.9358
相侵	-11.9361
以身爲	-11.9364
致功	-11.9376
勒兵	-11.9387
亡之道也	-11.9392
何物	-11.9395
雖不肖	-11.9398
復夢	-11.9402
陰陽互	-11.9415
相通也	-11.9424
必克	-11.9432
君無道	-11.9432
天下之士	-11.9434
天樞	-11.9438
禹所	-11.9438
西河之	-11.9445
變而爲	-11.9448
光照	-11.9449
待賢	-11.9452
畏禍	-11.9461
今歲	-11.9468
在臍	-11.9468
艮震	-11.948
伐曹	-11.948
陳氏	-11.9485
不能用其	-11.9488
始交	-11.9489
所踐	-11.95
鬼貪	-11.9501
於日用	-11.9501
損傷	-11.9503
無爲曰吾知道	-11.9503
千年	-11.9512
象天地	-11.9516
亢陽	-11.9533
安静	-11.9535
其易也	-11.9544
未知所	-11.9552
旋轉	-11.9559
自然之理	-11.9564
地而生	-11.9569
可以爲法	-11.9569
實不能	-11.9578
夢神	-11.9579
弋者	-11.9581
未必皆	-11.9583
聖德	-11.9591
天之道也	-11.9593
中亦有	-11.9614
智過	-11.9618
魏軍	-11.962
不掇	-11.9626
三十步	-11.9634
多力而	-11.9653
非仁義	-11.9654
不貴其	-11.9666
昔李	-11.9675
奪氣	-11.9677
欲識	-11.9679
前世	-11.9682
不易其	-11.9703
其福禄	-11.9704
太多	-11.9713
寒暑晝夜	-11.9717
哉然而	-11.9719
陽氣始	-11.9721
嗚呼此	-11.9726
軍師	-11.9741
不義不	-11.9748
游夏	-11.9755
不慎	-11.9757
覆舟	-11.9764
爲聖人	-11.9778
帝顓頊	-11.9779
而求之	-11.9782
不彰	-11.9787
名尊	-11.9799
赤帝	-11.9803
太武	-11.9805
不能悉	-11.982
霜露	-11.982
戰而勝	-11.9833
若此其	-11.984
有之曰	-11.9848
而三之	-11.985
李筌曰將	-11.9852
澹然	-11.986
有之乎	-11.9871
也是故子墨子曰	-11.9872
天之高	-11.9888
數坤	-11.9892
平原	-11.9906
生於地	-11.9911
敢望	-11.9911
山河之	-11.9917
之教也	-11.9925
權權	-11.9927
則下不	-11.993
十有一	-11.9932
不能拔	-11.9935
其所求	-11.9943
育萬物	-11.9962
不可犯	-11.9971
自南而北	-11.9984
之人不得	-11.9986
可以止	-11.9998
乘敵	-12.0004
十七年	-12.0022
其鄰國	-12.0026
二宋陸	-12.005
其職也	-12.005
多怒	-12.0052
若是則	-12.0061
不捨	-12.007
枉殺	-12.0074
物莫不	-12.008
入學	-12.0091
足畏	-12.0099
玉皇	-12.011
病病	-12.0125
也光謂四爲下禄	-12.0127
天地之始	-12.0153
何謂九	-12.0155
所識	-12.0189
臨江	-12.0195
未之有也	-12.0199
二端	-12.0204
物之初生	-12.0205
竹帛	-12.0211
四爲下禄	-12.0229
諸營	-12.0245
升高	-12.0245
儒士	-12.0258
徑尺	-12.0263
行夏令	-12.0264
尉繚子	-12.0285
輕利	-12.029
有智能	-12.0296
遑	-12.0299
凍餓	-12.0299
行秋令	-12.03
〇梅堯臣曰凡	-12.0302
查滓	-12.0302
施所得福報世世	-12.0307
謂人乏食	-12.0309
伊餘	-12.0311
杜牧	-12.0311
隰	-12.0313
抱朴子	-12.0314
二爲思中而當晝	-12.0316
檝	-12.0321
能令人	-12.0326
氏之儒有	-12.0327
葈	-12.0328
⬤	-12.0329
洹	-12.0329
因暝目念	-12.0331
亘	-12.0333
孺	-12.0334
嘷	-12.0336
大衍五十	-12.0336
臟	-12.0336
五為十	-12.0337
設留形而遁	-12.0338
棧	-12.0343
潼關	-12.0343
相愛則不	-12.0344
西益宅	-12.0344
東井輿鬼	-12.0345
從官三千六百人	-12.0346
閙	-12.0348
置閏	-12.0349
八萬四千	-12.0349
韯	-12.0349
肘	-12.035
墉	-12.035
孫子註觧卷之	-12.035
遨遊	-12.0351
善之善者也	-12.0351
灸	-12.0352
嫫	-12.0353
着	-12.0353
漆雕	-12.0353
窳	-12.0354
跙跙	-12.0354
幽冀謂之	-12.0354
兩儀四象八卦	-12.0354
四爲福始而當晝	-12.0354
柰	-12.0355
杲	-12.0355
馳騖	-12.0355
欄	-12.0355
三咽之	-12.0355
方州部家	-12.0355
諝	-12.0355
今從宋陸范本王曰	-12.0356
抱朴子詰曰	-12.0356
摐	-12.0356
涕泣	-12.0357
趣經云	-12.0357
肘後飛金晶	-12.0358
禁錮	-12.0358
黯	-12.0358
殂	-12.0359
自姤至坤	-12.0359
殲	-12.0359
合軍聚衆	-12.0359
屈伸往來	-12.0359
之氣與液也	-12.0359
碬	-12.0359
敗績	-12.036
入敵境	-12.036
桎	-12.036
徤	-12.0361
䟎	-12.0361
凊	-12.0361
蒐	-12.0362
九垓	-12.0362
也王曰失位當夜	-12.0362
曰若何而	-12.0362
鴻濛	-12.0362
聖人知其所	-12.0362
袀	-12.0362
讙兜	-12.0362
醲	-12.0362
汰	-12.0362
缻	-12.0363
鳧	-12.0363
悚	-12.0363
是月平旦時中於南方	-12.0363
猨狖	-12.0363
王曰六居盛位	-12.0363
切又音	-12.0363
太極動而生陽	-12.0363
櫨	-12.0363
咽喉	-12.0364
敺	-12.0364
舉成數	-12.0364
孔竅	-12.0364
淇	-12.0364
叫	-12.0364
泮	-12.0364
自古及今	-12.0364
怵惕	-12.0365
瀾	-12.0365
黽	-12.0365
已之私	-12.0365
與秦人戰	-12.0365
〇王皙同曹操註〇	-12.0365
德王天下號	-12.0365
貉	-12.0365
蠆	-12.0366
礫	-12.0366
葭	-12.0366
孰大焉	-12.0366
胃管中	-12.0366
嬈	-12.0366
飛金晶入腦	-12.0366
來攻我	-12.0366
俞跗	-12.0366
與人争利	-12.0366
鼇	-12.0366
鏻	-12.0366
〇何氏同杜牧註〇張預曰	-12.0366
翊	-12.0366
鄆州	-12.0367
雅頌	-12.0367
嚇	-12.0367
九天之上	-12.0367
陰家水準	-12.0367
乃下令曰	-12.0367
一陰一陽之謂道	-12.0367
壠	-12.0367
汙穢	-12.0367
受之天真	-12.0367
絝	-12.0367
蜺	-12.0368
恂	-12.0368
㓂萊公	-12.0368
惻	-12.0368
痕	-12.0368
秦始皇	-12.0368
陞	-12.0368
三令五申	-12.0368
今皆從范本	-12.0368
圖書之數	-12.0368
有自來矣	-12.0368
紡績織絍	-12.0368
嗄	-12.0368
殃咎	-12.0368
繦	-12.0368
舩	-12.0368
與此異矣	-12.0369
亦猶此也	-12.0369
臏	-12.0369
搢	-12.0369
少陰少陽	-12.0369
第十九	-12.0369
笛	-12.0369
醖釀	-12.0369
其鋒不可當	-12.0369
荆軻	-12.0369
迵	-12.0369
姙	-12.0369
𡛖	-12.0369
則入多	-12.0369
黄黑馬	-12.0369
動而生陽	-12.0369
諄	-12.037
儈	-12.037
茅茨	-12.037
蓬萊	-12.037
斬首之功	-12.037
政令不一	-12.037
林麓	-12.037
毈	-12.037
勇者不得獨進怯者不得獨退	-12.037
叫呼	-12.037
煇	-12.037
劇辛	-12.037
訽	-12.037
樗里疾	-12.037
臣不謂	-12.037
勺	-12.0371
鴦	-12.0371
錡	-12.0371
騁逸	-12.0371
介甫	-12.0371
荻	-12.0371
餕	-12.0371
㘩	-12.0371
斗秤	-12.0371
樞紐	-12.0371
噪	-12.0372
深入敵境	-12.0372
駱	-12.0372
梳	-12.0372
霍光	-12.0372
乾一爻	-12.0372
卹	-12.0372
鷂	-12.0372
蝸	-12.0372
渥	-12.0372
𥢕	-12.0372
楨	-12.0373
朓朒	-12.0373
梧桐	-12.0373
蕙	-12.0373
懌	-12.0373
鷄鳴時	-12.0373
赭	-12.0373
位且當夜	-12.0373
吐谷渾	-12.0374
廣四尺	-12.0374
目耳鼻口	-12.0374
終則有始	-12.0374
之民也而世少之曰	-12.0374
轡筴	-12.0374
艮兌	-12.0374
拳	-12.0374
受恩不感	-12.0375
搢笏	-12.0375
壍	-12.0375
元亨利貞	-12.0375
縗	-12.0375
一三七九	-12.0375
噣	-12.0375
甥	-12.0375
莅	-12.0375
媵	-12.0375
正月建寅	-12.0375
胄	-12.0375
令吾間	-12.0375
此遁於	-12.0375
睿	-12.0375
㩖㩖	-12.0375
木火土金水	-12.0375
不得次已而爲正有	-12.0375
阬	-12.0376
出其所必趨	-12.0376
籌筭	-12.0376
膂	-12.0376
詡	-12.0376
弊袴	-12.0376
故王子曰	-12.0376
偏裨	-12.0376
堆	-12.0376
螢燭	-12.0376
一爻二十四	-12.0376
四六二十四	-12.0376
㪍	-12.0376
知制誥	-12.0376
窖	-12.0376
冰霜	-12.0376
松脂	-12.0377
亂之所由生	-12.0377
堊	-12.0377
莫大乎	-12.0377
生生不窮	-12.0377
愕	-12.0377
潤濕	-12.0377
炬	-12.0377
韋孝寬	-12.0377
蟲三百有六十	-12.0377
受禄	-12.0377
鼓譟	-12.0377
十萬之衆	-12.0377
仲虺	-12.0378
屈人之兵	-12.0378
經五卷	-12.0378
歃血	-12.0378
脣吻	-12.0378
公子糾	-12.0378
杠	-12.0378
終南山	-12.0378
鬬	-12.0378
師問道	-12.0378
諸衆生	-12.0378
先據北山	-12.0378
愛人利人順天之意得天之賞者	-12.0378
人民之衆	-12.0378
樓樓	-12.0379
交趾	-12.0379
怯懦	-12.0379
琬琰	-12.0379
癸丑	-12.0379
與日會	-12.0379
黥布	-12.0379
恬漠	-12.0379
羈旅	-12.0379
蹴	-12.0379
陰家金亦準	-12.0379
兾	-12.0379
噉	-12.0379
虎賁	-12.0379
非其難者也	-12.0379
鷰	-12.0379
乘蹻	-12.0379
帝座	-12.0379
耕稼樹藝	-12.0379
不可不慎	-12.0379
摩羅	-12.038
劉歆	-12.038
摘	-12.038
蚤虱	-12.038
㸃檢	-12.038
狼籍	-12.038
障蔽	-12.038
虵	-12.038
世俗之君子	-12.038
在世時	-12.038
守眞一	-12.038
晦朔弦望	-12.038
瞥	-12.038
噞	-12.038
六爲盛多	-12.038
可勝言哉	-12.038
歡喜	-12.038
縳	-12.038
莙	-12.038
一切衆生	-12.038
二千五百	-12.038
天皇大帝	-12.038
藁	-12.038
褚	-12.038
諤	-12.038
財自足	-12.038
樛	-12.038
笥	-12.0381
雜糅	-12.0381
安能愛君	-12.0381
出於不意	-12.0381
起於中孚	-12.0381
嗔	-12.0381
夫槩王	-12.0381
寰	-12.0381
晡	-12.0381
背水陳	-12.0381
鄢	-12.0381
下五事也	-12.0381
冽	-12.0381
十萬之師	-12.0381
蘧伯玉	-12.0381
行乎其中	-12.0381
鑱	-12.0381
田駢	-12.0381
葭葦	-12.0381
一動一静	-12.0381
柝	-12.0382
幄	-12.0382
不失其機	-12.0382
狐偃	-12.0382
其虚懈	-12.0382
寅申巳亥	-12.0382
攘臂	-12.0382
治亂之機	-12.0382
飫	-12.0382
羽旄	-12.0382
螣	-12.0382
輼車	-12.0382
窠	-12.0382
老莊之	-12.0382
陪	-12.0382
以取禍者	-12.0382
殥	-12.0382
霰	-12.0382
故古聖王	-12.0383
時中於南方	-12.0383
穹	-12.0383
指麾	-12.0383
墻之壞	-12.0383
瓊瑶	-12.0383
瘳	-12.0383
緝	-12.0383
湍瀨	-12.0383
九十一度	-12.0383
伐樹木	-12.0383
伯夷叔齊	-12.0383
俳	-12.0383
剟	-12.0383
根柢	-12.0383
吴王問孫武曰吾	-12.0383
燐	-12.0383
盧多遜	-12.0383
紫微宫	-12.0383
老而無妻	-12.0383
似是而非	-12.0384
壃	-12.0384
枳棘	-12.0384
朋黨比周	-12.0384
汗漫	-12.0384
馮翊	-12.0384
因以題篇	-12.0384
鎖	-12.0384
丁丑	-12.0384
太白辰星	-12.0384
左右執事之臣	-12.0384
甲盾五兵	-12.0384
縮六日	-12.0384
蜓	-12.0384
言得之者	-12.0384
𥚹	-12.0384
𩲸	-12.0384
籧	-12.0384
螟	-12.0385
鳯	-12.0385
城濮	-12.0385
楝	-12.0385
漣	-12.0385
坡	-12.0385
六十甲子	-12.0385
耦耕	-12.0385
怱	-12.0385
壁壘	-12.0385
摭	-12.0385
沓	-12.0385
綰	-12.0385
豨	-12.0385
蹋	-12.0385
痺	-12.0385
髯	-12.0385
黠	-12.0385
乾餱	-12.0385
暨	-12.0385
綆	-12.0385
之爪角害之	-12.0385
佴	-12.0385
喬木	-12.0385
竅通於	-12.0385
頴	-12.0386
於胸中	-12.0386
榭	-12.0386
輿鬼	-12.0386
綺紈	-12.0386
消息盈虚	-12.0386
矯拂	-12.0386
周而復始	-12.0386
頒	-12.0386
淡泊	-12.0386
換	-12.0386
薏	-12.0386
坱埤	-12.0386
害之炁可以辟斥	-12.0386
農祥	-12.0386
𢙢	-12.0386
燠	-12.0387
燋	-12.0387
歆	-12.0387
滿而不溢	-12.0387
覬	-12.0387
轡銜	-12.0387
蠟	-12.0388
作佛事	-12.0388
善爲政者	-12.0388
七日來復	-12.0388
假寐	-12.0388
日月交會	-12.0388
雪霜雨露	-12.0388
先天八卦	-12.0388
廣成子	-12.0388
襟	-12.0388
頷	-12.0388
麋角解	-12.0388
巫馬期	-12.0388
撮	-12.0388
春秋冬夏	-12.0388
酆	-12.0388
畿	-12.0389
大二圍	-12.0389
攻其所必救	-12.0389
綱紀	-12.0389
假借	-12.0389
幽㝠	-12.0389
迓	-12.0389
四四一十六	-12.0389
骸骨	-12.0389
兔絲	-12.0389
淫侈	-12.0389
窯	-12.0389
肝肺	-12.0389
邳	-12.0389
俓	-12.0389
律令敕右法	-12.0389
明月之珠	-12.0389
櫓大楯也	-12.0389
櫛	-12.0389
蜂蠆	-12.0389
堅脆	-12.0389
歳月日時上三命刑害之災	-12.0389
痊	-12.0389
豈不然乎	-12.039
籩	-12.039
辛癸	-12.039
糟糠	-12.039
治百病	-12.039
冥昧	-12.039
睽	-12.039
以曲爲直	-12.039
孤竹	-12.039
鏌邪	-12.039
播種	-12.039
軀殻	-12.039
七宿君主攝者可解	-12.039
冒頓	-12.039
悮	-12.039
貊	-12.039
閒	-12.039
秃	-12.039
娠	-12.0391
甯	-12.0391
戰而不勝	-12.0391
盍	-12.0391
迨	-12.0391
尺二寸	-12.0391
癰	-12.0391
終其壽	-12.0391
蠕動	-12.0391
赤奮若	-12.0391
太牢	-12.0391
鴽	-12.0391
隂陽升降	-12.0391
箱	-12.0391
枘	-12.0392
以安社稷	-12.0392
轉禍爲福	-12.0392
蹔	-12.0392
邅回	-12.0392
騏騄	-12.0392
服一刀圭	-12.0392
眉間	-12.0392
逞志作威	-12.0392
非雞也	-12.0392
剡鋒	-12.0392
蚈	-12.0392
幹柔	-12.0392
孝慈	-12.0392
翼翼	-12.0392
三公諸侯	-12.0392
爲政若此	-12.0393
網羅	-12.0393
坰	-12.0393
猝	-12.0393
甲乙木	-12.0393
嵇	-12.0393
川澤	-12.0393
狷華	-12.0393
瘟疫	-12.0393
穰苴	-12.0393
線	-12.0393
行住坐卧	-12.0393
長五寸	-12.0393
次則石	-12.0393
穀不收謂之	-12.0393
緬邈	-12.0393
部侍郎	-12.0393
月與日	-12.0394
席蓐	-12.0394
梲	-12.0394
爲虚誕	-12.0394
睨	-12.0394
其後官至	-12.0394
惶恐	-12.0394
濮上	-12.0394
筥	-12.0394
蟠龍	-12.0394
增壘	-12.0394
後人發先人至	-12.0394
鴛	-12.0394
拔萃之	-12.0395
陌	-12.0395
書之竹帛	-12.0395
卷舒	-12.0395
聵	-12.0395
東坡	-12.0395
蹊徑	-12.0395
迂其途	-12.0395
厝	-12.0396
綱領	-12.0396
蹇驢	-12.0396
司命司	-12.0396
筌蹄	-12.0396
扛	-12.0396
殮	-12.0396
鼷	-12.0396
陰家木準	-12.0396
祖考	-12.0396
鴟梟	-12.0396
勞而無功	-12.0396
蝦蟆	-12.0396
動静之理	-12.0396
用事火煙	-12.0396
迥	-12.0396
鞍	-12.0397
猗頓	-12.0397
百餘里	-12.0397
藍田	-12.0397
侵掠	-12.0397
曼卿	-12.0397
各隨其	-12.0397
夏桀殷紂	-12.0397
前軰	-12.0397
土圭	-12.0397
柩	-12.0397
震艮	-12.0397
不過百里	-12.0397
安危治亂	-12.0397
臾駢	-12.0397
茅屋	-12.0397
退脩其	-12.0397
龐子問鶡冠子曰	-12.0397
聆聆	-12.0397
軋	-12.0398
何不試	-12.0398
遊戲	-12.0398
旣至乃	-12.0398
燈燭	-12.0398
鷹揚	-12.0398
奰	-12.0398
庭式	-12.0398
破碎	-12.0399
張遼	-12.0399
被褐	-12.0399
厮養	-12.0399
料敵制勝	-12.0399
日用而不知	-12.0399
布衣之士	-12.0399
淫佚	-12.0399
眞淨明妙虚徹靈通	-12.0399
蜾蠃	-12.0399
腯	-12.04
松喬	-12.04
知無不爲	-12.04
摺	-12.04
禹稷	-12.04
所受於天	-12.04
翩	-12.04
丁卯	-12.04
嘉㫖	-12.04
洙	-12.04
雞犬	-12.04
嶺南	-12.0401
司馬温公	-12.0401
高八尺	-12.0401
儷	-12.0401
也其得道以	-12.0401
曄	-12.0401
嬾	-12.0402
爭訟	-12.0402
被攝至	-12.0402
鬼神之情狀	-12.0402
噎	-12.0402
此所以亂也	-12.0402
荀卿	-12.0402
鋒刃	-12.0402
鴈門	-12.0402
之别名也	-12.0402
中黄子	-12.0402
皓首	-12.0402
窈㝠	-12.0402
絫	-12.0402
褒貶	-12.0402
饟	-12.0402
秃頭	-12.0402
陰勝陽	-12.0402
燾	-12.0403
上下相親	-12.0403
沈淪	-12.0403
也二爲思中而當夜小人	-12.0403
六日七分之說	-12.0403
唤	-12.0403
蛇蝮	-12.0403
深谿	-12.0403
陰陽剛柔	-12.0404
夕惕	-12.0404
取象於	-12.0404
琅	-12.0404
卦氣圖	-12.0404
發號施令	-12.0404
鞼	-12.0404
屠城	-12.0404
把握	-12.0404
昨日	-12.0404
當如何哉賛曰	-12.0404
其竅上通於	-12.0404
萊公	-12.0404
堯舜禹湯文武之道	-12.0404
講說	-12.0405
俄見一	-12.0405
齋潔	-12.0405
刖足	-12.0405
蓐收	-12.0405
犧性	-12.0405
奮翼	-12.0405
診	-12.0405
行厨	-12.0405
遐覽	-12.0406
塉	-12.0406
擏	-12.0406
顧眄	-12.0406
閨門	-12.0406
之本在於	-12.0406
棺槨	-12.0406
岐周	-12.0406
海上	-12.0407
飢餓	-12.0407
纎	-12.0407
計算	-12.0407
兆朕	-12.0407
悲鳴	-12.0407
耳目聦明	-12.0407
一人之力	-12.0407
詩賦	-12.0407
光謂二爲思中而當晝	-12.0407
嘉遁	-12.0408
叩頭	-12.0408
精神魂魄	-12.0408
挻	-12.0408
以此推之	-12.0408
運糧	-12.0408
叔卿	-12.0408
擸	-12.0408
楚莊	-12.0409
魚鱗	-12.0409
郁	-12.0409
言而不當	-12.0409
本乎天	-12.0409
雲隂陽相薄爲	-12.0409
雷激揚爲電上者就下流水就通而合于	-12.0409
廊廟	-12.041
孱	-12.041
郊祀	-12.041
飛騰	-12.041
泉之埃上爲	-12.041
險阨遠近	-12.041
某甲	-12.041
悸	-12.0411
䇿	-12.0411
珍寳	-12.0411
崤	-12.0411
都尉	-12.0411
弊邑	-12.0411
玄滋	-12.0411
跬	-12.0411
周天三百六十五度四分度之一	-12.0412
逄蒙	-12.0412
萬歳	-12.0412
乘虚而	-12.0412
蒲輪	-12.0412
凌弱	-12.0412
百尋之	-12.0412
儼然	-12.0412
疾而卒	-12.0412
龍入藏生	-12.0412
疆場	-12.0412
費留	-12.0412
商賈	-12.0413
陰中陽	-12.0413
冥司	-12.0413
句芒	-12.0413
酗	-12.0413
丘阜	-12.0413
皇后	-12.0413
礛諸	-12.0413
㓪	-12.0414
則同其所以	-12.0415
紫府	-12.0415
或失於	-12.0415
推轂	-12.0415
與敵戰	-12.0415
諮問	-12.0415
祖述	-12.0415
伏羲氏	-12.0416
勵志	-12.0416
了了	-12.0416
忣	-12.0416
尼父	-12.0416
梅伯	-12.0416
王曰八居	-12.0416
障塞	-12.0416
孟子所謂	-12.0416
鮮卑	-12.0416
蓽	-12.0417
史記	-12.0417
則無不勝	-12.0417
叅伍	-12.0417
因而擊之	-12.0417
不能爲害	-12.0417
其地宜	-12.0417
儡	-12.0417
吕布	-12.0417
倒懸	-12.0418
感激	-12.0418
檢括	-12.0418
紫衣	-12.0418
侵削	-12.0418
貪殘	-12.0418
鼓旗	-12.0418
逋逃	-12.0419
崑山	-12.0419
罷弊	-12.0419
一見即	-12.0419
柳下惠	-12.042
種種	-12.042
不宜服	-12.042
舟檝	-12.042
終不肯	-12.0421
賢矣哉	-12.0421
礜	-12.0421
踰越	-12.0421
二十三日	-12.0421
太子建	-12.0422
號呼	-12.0422
鼻息	-12.0422
聞雷霆	-12.0423
之民也而世尊之曰	-12.0423
父母妻子	-12.0423
證果	-12.0423
震雷	-12.0424
燕雀	-12.0424
之符或	-12.0424
稚川	-12.0424
鑿齒	-12.0424
氣使入	-12.0425
師敗績	-12.0425
人間之事	-12.0425
徳	-12.0425
激怒	-12.0425
齊宣王	-12.0425
鏏	-12.0425
闇室	-12.0426
京觀	-12.0426
郡大夫	-12.0426
墠	-12.0426
寸隂	-12.0426
駑蹇	-12.0426
掩覆	-12.0428
常法之外	-12.0428
枯骨	-12.0428
秦穆	-12.0428
洞徹	-12.0429
匏	-12.0429
虞慶	-12.0429
否滯	-12.0429
提轉	-12.0429
伎藝	-12.043
郯子	-12.043
翟黄	-12.0431
餘糧	-12.0431
傷肺	-12.0432
殊塗	-12.0432
晷長	-12.0432
資糧	-12.0432
有道之世	-12.0432
四海之士	-12.0432
鄉邑	-12.0432
入郢	-12.0432
哀矜	-12.0432
繩之外	-12.0432
西域	-12.0432
靈鳳	-12.0432
善用兵	-12.0432
便是變	-12.0432
泉源	-12.0433
舉兵而伐	-12.0433
企及	-12.0433
江表	-12.0433
長生之法	-12.0433
陳軫	-12.0433
天下之萬民	-12.0433
是其故何也	-12.0434
華藻	-12.0434
士恍	-12.0434
短近也	-12.0434
苦痛	-12.0435
哉〇又曰	-12.0435
樹枝	-12.0436
建亥	-12.0436
暴露	-12.0436
不欺暗室	-12.0436
錯雜	-12.0436
季冬	-12.0437
潔白	-12.0437
俗儒	-12.0437
巨細	-12.0438
勞逸	-12.0438
與天合	-12.0438
阻水	-12.0438
此其故何也	-12.0438
羅列	-12.0439
王叟	-12.0439
蘢	-12.0439
三辰皆	-12.0439
左右近習	-12.044
夜遁	-12.044
蹉過	-12.0441
日夜分	-12.0441
俄又	-12.0442
太虛	-12.0442
憲令	-12.0442
駟馬	-12.0443
小宋作	-12.0443
而天下稱	-12.0443
卓然	-12.0443
匠石	-12.0443
拜伏	-12.0443
焉夫唯	-12.0443
如之何	-12.0443
邪僻	-12.0444
遭遇	-12.0445
入頂	-12.0445
勸戒	-12.0445
潔志	-12.0445
曰晋陽之	-12.0446
隂陽之氣	-12.0446
得位當晝能	-12.0446
與爲治	-12.0447
覆其上	-12.0447
列宿	-12.0447
周書曰	-12.0447
孟夏	-12.0447
也故明君	-12.0447
此善爲	-12.0448
推司	-12.0449
慈父	-12.0449
漂石	-12.0449
不相盈	-12.0449
耗散	-12.0449
貪榮	-12.0449
其令曰	-12.0449
機神	-12.045
飛鋒	-12.045
孫權	-12.045
貪濁	-12.045
田宅	-12.0451
敬讓	-12.0451
俯伏	-12.0452
赤族	-12.0452
曷若	-12.0452
得二百五十二	-12.0453
伐其功	-12.0453
繩繩	-12.0453
華池	-12.0453
四皓	-12.0454
霧合	-12.0455
瓦器	-12.0456
深峻	-12.0456
七趣	-12.0456
而告之曰	-12.0456
護軍	-12.0457
拂耳	-12.0457
見天地之心	-12.0457
煩勞	-12.0458
干雲	-12.0458
兩腎	-12.0458
懷抱	-12.0458
狐疑	-12.0459
開閉	-12.0459
太柔	-12.046
充廣	-12.046
故曰白馬非馬	-12.0461
宣室	-12.0462
假託	-12.0462
疲困	-12.0462
望舒	-12.0463
叔向曰	-12.0463
觸情	-12.0463
幟到	-12.0463
陽中陽	-12.0464
衝風	-12.0464
計筭	-12.0465
滅没	-12.0465
屬託	-12.0465
飛廉	-12.0465
飛禽	-12.0465
種類	-12.0466
傒	-12.0466
巳亥	-12.0469
頭面	-12.0469
厚葬	-12.0469
燭過	-12.047
捷疾	-12.047
乘奔	-12.047
忠諫	-12.047
日所出	-12.047
昭素	-12.047
驚恐	-12.047
反受其殃	-12.047
之中又有	-12.0471
百倍	-12.0472
十丈	-12.0472
滿野	-12.0472
榮顯	-12.0473
南方火	-12.0473
不聽遂	-12.0473
鬼魂	-12.0473
增益	-12.0474
載馳	-12.0475
驅車	-12.0475
金璧	-12.0475
歷險	-12.0475
因名其	-12.0475
有志者	-12.0476
捐金	-12.0476
漢州	-12.0476
久喪	-12.0476
消散	-12.0476
結繩	-12.0476
荆吴	-12.0476
萬七千	-12.0478
吞氣	-12.0478
玉衡	-12.0478
輕爵禄	-12.0479
遞相	-12.048
一星在	-12.0481
明主弗	-12.0481
儒教	-12.0482
為一元	-12.0483
果敢	-12.0483
則我當	-12.0483
則天下治	-12.0483
太空	-12.0483
良才	-12.0484
魯大夫	-12.0484
寄命	-12.0484
九嬰	-12.0485
者也何謂	-12.0486
枕中	-12.0486
戮力	-12.0486
也一爲思始而當晝君子	-12.0487
曆家	-12.0487
消釋	-12.0487
玄冥	-12.0487
積而成	-12.0487
靜坐	-12.0487
受光於	-12.0487
凡有幾	-12.0488
抱持	-12.0488
此人主之所	-12.0488
全其身	-12.049
巫山	-12.049
不足恃	-12.049
導之以	-12.0492
正其本	-12.0492
邪僞	-12.0492
白髮	-12.0492
九星在	-12.0492
乞食	-12.0493
開封	-12.0493
弦高	-12.0495
與道合	-12.0495
又當晝	-12.0495
醫術	-12.0496
不遑	-12.0496
七卷	-12.0498
骨節	-12.0501
姬公	-12.0501
風格	-12.0501
距敵	-12.0501
廟戰	-12.0502
師巫	-12.0503
不知其所由	-12.0503
兼覆	-12.0503
馬超	-12.0503
遂斬	-12.0504
石乞	-12.0504
隂府	-12.0504
閉塞	-12.0505
以兩手	-12.0506
反側	-12.0507
高丈	-12.0508
禁戒	-12.0508
得道之聖	-12.0509
扶風	-12.0511
一例	-12.0512
深谷	-12.0512
四十萬	-12.0512
巨勝	-12.0512
保其身	-12.0513
氣所生	-12.0514
化而成	-12.0514
走獸	-12.0515
鍾離	-12.0515
貌初一	-12.0516
通其變	-12.0516
古之聖人	-12.0517
清商	-12.0517
則天下亂	-12.0518
蠶食	-12.0518
懸象	-12.0518
吾不知其	-12.0518
各自為	-12.0519
夫豈知	-12.0519
淫辭	-12.0521
爲御史	-12.0521
園中	-12.0521
谷口	-12.0522
免禍	-12.0524
竊視	-12.0527
安忍	-12.0528
記云	-12.0528
五十三	-12.0529
少壯	-12.0529
窮困	-12.0529
試經	-12.0529
其數九	-12.0529
徒費	-12.053
冥測曰	-12.053
冥交	-12.053
天地之和	-12.0531
狹小	-12.0531
鼎食	-12.0531
未曾	-12.0531
女工	-12.0532
平仲	-12.0532
三焦	-12.0533
肝氣	-12.0533
禄厚	-12.0534
上下同心	-12.0534
充實	-12.0536
仁宗	-12.0536
不失其宜	-12.0536
尋木	-12.0537
避害	-12.0537
不知大道之	-12.0539
閉口	-12.0542
有一定之	-12.0543
齊死生	-12.0543
謹獨	-12.0543
言也水	-12.0543
智略	-12.0544
盛之時	-12.0544
何爲不	-12.0545
傳記	-12.0545
厥德	-12.0546
交感	-12.0546
儒家	-12.0547
萬物之形	-12.0547
范中行	-12.0547
洽聞	-12.0547
一圈	-12.0548
白骨	-12.0552
曰善哉	-12.0554
秦氏	-12.0555
河西	-12.0556
繞地	-12.0557
以丹書	-12.0557
專精	-12.0557
大霧	-12.0558
不可忍	-12.0558
難曉	-12.056
長尺	-12.056
何謂三	-12.0561
孰急	-12.0561
植立	-12.0562
相逢	-12.0562
赴火	-12.0563
爲我用	-12.0563
實繁	-12.0565
修飾	-12.0565
玄都	-12.0565
節候	-12.0566
夏禹	-12.0566
解圍	-12.0566
舊說	-12.0567
位卑	-12.0568
陽氣潜	-12.0569
田單	-12.057
日月之明	-12.057
交争	-12.057
威怒	-12.057
罷馬	-12.0572
賢才	-12.0576
而天下治	-12.0576
居東南	-12.0576
未有天地	-12.0577
利征	-12.0577
衆人民	-12.0577
極而當夜	-12.0578
勇武	-12.0579
不妨	-12.0579
子母之	-12.058
助教	-12.058
南河	-12.058
覆敗	-12.0581
多筭	-12.0581
於冥冥	-12.0582
博學	-12.0582
也所以使	-12.0583
親迎	-12.0583
遷善	-12.0583
但患	-12.0584
在蜀	-12.0584
本聞之	-12.0584
脩務	-12.0584
皆登第	-12.0585
殿上	-12.0586
二星曰	-12.0586
者所以救	-12.0586
而實非	-12.0586
居其中	-12.0587
神鼎	-12.0587
其所以亡	-12.0587
註曰	-12.0588
午未	-12.0588
四境	-12.0588
從墜	-12.0589
急救	-12.0591
流連	-12.0593
葉公	-12.0593
剛强	-12.0593
可以長生	-12.0594
南極老人元光	-12.0595
便辟	-12.0597
甲巳	-12.0597
百縣	-12.0599
文墨	-12.06
於泰山	-12.0602
爻在	-12.0602
也王曰處	-12.0602
味甘	-12.0603
失貞	-12.0603
乃所以爲	-12.0603
嗣君	-12.0604
學業	-12.0604
將不通	-12.0605
漸進	-12.0607
可以延年	-12.0608
醜惡	-12.0609
灌民田	-12.061
爲暴者	-12.061
玄圖	-12.061
光謂一爲思始而當晝	-12.0613
請福	-12.0613
弗能治	-12.0614
逸民	-12.0618
不可禦	-12.0618
張武	-12.0619
薄厚	-12.062
之爲人也	-12.062
分至之	-12.0622
世人多	-12.0623
黑白	-12.0624
千里馬	-12.0624
車甲	-12.0625
兆民	-12.0626
牧民	-12.0627
北方水	-12.0629
服丹	-12.063
凶惡	-12.0632
題篇	-12.0632
金錢	-12.0634
是故人主	-12.0635
素女	-12.0635
廢而有	-12.0636
昭陽	-12.0637
上際	-12.0639
著論	-12.064
車載	-12.064
附耳	-12.064
將擊之	-12.0641
一切皆	-12.0642
何嘗	-12.0643
其德乃	-12.0643
法教	-12.0643
異路	-12.0644
具足	-12.0648
遇害	-12.065
人之所不能	-12.0651
博士	-12.0653
侵欺	-12.0653
待制	-12.0654
火候	-12.0655
奉命	-12.0657
說林	-12.0657
其性命	-12.0659
經術	-12.0659
自勉	-12.0659
仰視	-12.066
汩其	-12.066
兩戒	-12.0661
玉清	-12.0661
䟽遠	-12.0661
包藏	-12.0663
在中間	-12.0665
家貧無	-12.0665
墮地	-12.0666
輕舟	-12.0667
相尋	-12.0669
也然即	-12.0675
有得於	-12.068
能全其	-12.0682
非道之	-12.0683
口腹	-12.0685
市易	-12.0685
是故昔者	-12.0687
樂器	-12.0689
忘貧	-12.069
伐交	-12.0691
所謂天者	-12.0691
未見便	-12.0694
原始	-12.0695
窈冥	-12.0697
㓂至	-12.0698
范小宋本	-12.0701
養老	-12.0701
非其時	-12.0703
上五事	-12.0706
善用兵者先	-12.0707
大魁	-12.0708
單行	-12.0708
誦詩	-12.0712
之初生	-12.0713
都市	-12.0714
攻魏	-12.0719
之謂歟	-12.072
結諸侯	-12.0724
矣次二	-12.0724
險疾	-12.0725
獨專	-12.0726
昏明	-12.0727
人同心	-12.0729
用之耳	-12.0732
不以其道	-12.0733
清談	-12.0734
國家治	-12.0738
人有惡	-12.0739
不可無也	-12.074
只說	-12.0742
積財	-12.0743
能爲之者	-12.0744
無所施	-12.0745
陽氣極	-12.0746
況敢	-12.0747
小腸	-12.0754
肅然	-12.0757
於丘園	-12.0758
王者所	-12.0761
戒懼	-12.0763
欲害之	-12.0772
爲上破	-12.0773
是何則	-12.0779
振動	-12.0784
變詐	-12.0786
數始於	-12.0788
必多矣	-12.0788
一國一	-12.079
禁禦	-12.0795
論議	-12.0798
則無以與	-12.0798
東方木	-12.0802
專己	-12.0804
不畏死	-12.0805
利也〇李筌曰	-12.0807
十枚	-12.0807
道不通	-12.0808
仁恩	-12.081
權量	-12.0811
甚愛	-12.0811
所措	-12.0816
猶之爲	-12.0818
朝諸侯	-12.0819
三爻	-12.0826
恍惚之	-12.0845
日與月	-12.0848
心腎	-12.0849
爲畜生	-12.086
是以古之	-12.0862
庶物	-12.0863
三百人	-12.0882
所賴	-12.089
無不成也	-12.089
平夷	-12.0891
分之一	-12.0895
平公曰	-12.0896
救敗	-12.091
苟非其	-12.0927
雖未能	-12.0933
聖人之德	-12.0936
故事有	-12.0939
勒諸	-12.0966
而已豈	-12.0969
星曰天	-12.0976
其終也	-12.0984
則能生	-12.0996
地也梅堯臣曰	-12.1005
故太公曰	-12.1007
八爲禍中而當晝	-12.1017
今世之人	-12.1033
天衢	-12.1043
有福德	-12.1043
山之陰	-12.1044
所失者	-12.1045
北河	-12.1049
不忍見	-12.1055
云古	-12.1061
無所不至	-12.1065
視之乃	-12.107
晝夜不息	-12.1074
蜀中	-12.1081
有脩短	-12.1081
禁誅	-12.1094
此三事	-12.1104
事治也	-12.1106
人之寳	-12.1111
韓白	-12.1112
之所以亡	-12.1114
光謂七爲禍始而當晝	-12.1132
文正曰	-12.1146
所寄	-12.1206
行遲	-12.1221
威武	-12.1223
不得其道	-12.1228
志專	-12.1229
知地利	-12.1232
納甲	-12.1239
之宅也	-12.1239
各守其	-12.1248
明主之國	-12.1252
詩三百	-12.1256
帝之子	-12.126
夕必	-12.1265
加五為	-12.1273
其精微	-12.1274
乾坤二	-12.1295
破亡	-12.1306
傳曰孔子曰	-12.1319
世人但	-12.1319
十二年	-12.132
知勝負	-12.1321
始化	-12.1323
梁山	-12.1339
士庶	-12.1364
人之一身	-12.1379
絶俗	-12.1391
妙處	-12.1396
十八日不	-12.1413
山名也在	-12.1418
合爲一	-12.1423
朱氏	-12.1431
河圖數	-12.1452
失序	-12.1456
必危矣	-12.1465
能有成	-12.1475
鑠金	-12.148
能必勝	-12.1486
源不	-12.1495
許公	-12.1553
陽在上	-12.1565
能使敵人	-12.1565
耶昔	-12.1568
安貧	-12.1584
不稱其	-12.1593
之陰陽也	-12.1618
同宋曰	-12.1657
兌巽	-12.171
敵而取勝	-12.1712
聽左右	-12.1742
其衣冠	-12.1743
十有九	-12.1761
上第二十	-12.1793
之數不過	-12.183
智者不能	-12.1832
亂之本	-12.1888
有生之	-12.1911
人之人有	-12.1911
孔子曰君子	-12.1944
弗能止	-12.1956
祖父	-12.198
否貞	-12.1999
定吉凶	-12.201
衆人皆	-12.2022
魏氏	-12.2043
無不包	-12.2043
信神仙	-12.2049
所堪	-12.2064
北斗七真	-12.2135
祖廟	-12.2142
王良造父	-12.2144
十有八	-12.2222
第六十	-12.2313
玉液煉形	-12.2323
鍾律	-12.2349
是兩箇	-12.2369
生一子	-12.2373
昔也三代之	-12.2409
幼弱	-12.2428
國之俗	-12.2435
考校	-12.244
安其性	-12.2464
宋康	-12.2464
提挈	-12.2501
也其帝	-12.2521
利而動	-12.2525
之極逢禍之窮	-12.2544
貞廉	-12.2553
汩	-12.2563
環堵之	-12.2573
巽卦	-12.2574
居數月	-12.2574
鳥雀	-12.2584
州之民	-12.2637
而國治	-12.2652
不計其	-12.2676
昏時中於南方	-12.2677
閫	-12.2726
二十九日	-12.2728
丈六尺	-12.2746
范文正	-12.2765
爲隂比	-12.2769
静而生陰	-12.2786
㮣	-12.2787
年月日時	-12.2788
五六七八	-12.2797
不敢近人	-12.2801
煒	-12.2802
方八天七宿屬	-12.2802
刀圭	-12.2807
以形貌命者	-12.281
我能施之使復	-12.2813
袷	-12.2816
月建焉而辰在	-12.2817
見者人爲之	-12.2817
氣上騰	-12.2819
敲	-12.2824
而得於五	-12.2825
之性故有	-12.2827
次九日舍	-12.2829
駟馬跙跙	-12.283
襌	-12.2831
燁	-12.2832
嘖	-12.2834
暮夜	-12.2834
不可與語	-12.2835
惴	-12.2835
接天下之政治天下之民	-12.2836
界限	-12.2836
子干戊子	-12.2836
月闕其摶	-12.2836
光謂三爲成意而	-12.2837
聃	-12.2837
中和莫盛乎五	-12.2838
縟	-12.2838
瓊漿	-12.2838
侏侏	-12.2838
子干丙子	-12.2838
椿卿	-12.2838
無繼民	-12.2838
伏尸流血	-12.2839
圭璧	-12.2839
延孝	-12.2839
堡	-12.2841
業交則臨終時先見	-12.2841
苗裔	-12.2841
惠忠父子	-12.2842
臘集於	-12.2842
陰家金準	-12.2842
伊霍	-12.2843
王文正公旦	-12.2843
先天圓圖	-12.2843
訪㝷	-12.2843
不疑於其	-12.2843
子干甲子	-12.2843
變之盡為	-12.2843
後世子孫	-12.2844
威加於敵	-12.2844
昆蟲草木	-12.2845
四陰四陽	-12.2845
報招引惡果此	-12.2845
酋酋	-12.2845
封疆	-12.2845
箠	-12.2846
攅	-12.2846
崇侯惡來	-12.2846
天地生物之心	-12.2846
者能曉此乎	-12.2847
慶弔	-12.2847
是夕復夢	-12.2847
秪	-12.2847
邾	-12.2847
飪	-12.2847
硥	-12.2848
銷報盡多爲	-12.2848
子干庚子	-12.2848
北方玄武	-12.2848
政施教	-12.2848
四千九十六	-12.2849
蠰	-12.2849
霹	-12.2849
瞰	-12.2849
蕤	-12.2849
暘	-12.285
黿鼉	-12.285
南門之外	-12.285
宫之奇	-12.285
葷	-12.285
五間俱起	-12.285
或如青	-12.285
司馬景王	-12.2852
蚩蚩	-12.2852
慣	-12.2852
帶甲十萬	-12.2852
考靈曜	-12.2852
矞	-12.2852
宸	-12.2853
迒	-12.2853
皇天上帝太上道君	-12.2853
窕貨	-12.2853
怍	-12.2853
什伍	-12.2853
縊	-12.2853
何以知其為	-12.2853
竇泰	-12.2853
攝提格	-12.2854
報盡多爲	-12.2854
自下而升	-12.2854
東而西	-12.2854
服方寸匕日三	-12.2854
乾卦進火	-12.2854
於黄池	-12.2854
授以道要	-12.2854
閻遏公孫衍	-12.2854
三三而九	-12.2856
墝	-12.2856
潞	-12.2856
相為經緯	-12.2856
覽㝠	-12.2856
中行文子	-12.2856
麫	-12.2856
尖	-12.2856
屈于根	-12.2856
盼	-12.2856
鞞	-12.2856
鞶	-12.2856
刖跪	-12.2856
子干壬子	-12.2856
冑	-12.2856
旣而得還	-12.2857
兵家者流	-12.2857
參天兩地	-12.2857
浄	-12.2857
酇	-12.2857
𤤽	-12.2857
可立而待	-12.2857
日正于天	-12.2857
知遠近之計	-12.2857
者對待之	-12.2857
入無間獄	-12.2857
扶陽抑陰	-12.2857
上上太一	-12.2857
位當晝	-12.2857
與天地相畢	-12.2857
二十九日半	-12.2859
亥子丑三	-12.2859
罝罘	-12.2859
絮	-12.2859
三百六旬有六	-12.2859
傠	-12.2859
發五苑	-12.2859
矢及蓋	-12.2859
禁外徙	-12.2859
禽子再拜再拜曰敢問	-12.2859
霸王之兵	-12.2859
狷	-12.2859
腥	-12.2859
盪	-12.286
䖏	-12.286
象著明莫大乎日月	-12.286
不可先傳	-12.286
魃	-12.286
酢	-12.286
㧓	-12.286
俶	-12.286
我於來世得	-12.286
溝壑	-12.286
睒	-12.286
致人而不致於人	-12.286
道二出黄道	-12.286
詮	-12.286
三陰三陽	-12.2861
一思之微	-12.2861
死者不可勝數	-12.2861
虔	-12.2861
拙速	-12.2861
未始出其宗	-12.2861
燥溼	-12.2861
奴婢	-12.2861
宋曰謂是時	-12.2861
彗孛	-12.2861
司天考	-12.2861
四千六百六十五萬六千	-12.2861
垝	-12.2861
飲酒酣	-12.2861
盡變則	-12.2861
倏	-12.2861
禽滑釐	-12.2863
你	-12.2863
諏訾	-12.2863
共成三百六十	-12.2863
班超	-12.2863
天包地外	-12.2863
也公孟子謂子墨子曰	-12.2863
參差不齊	-12.2863
戁	-12.2863
櫂	-12.2863
謔	-12.2863
狡猾	-12.2863
以私廢公	-12.2863
其服尚	-12.2863
憍	-12.2863
趙充國	-12.2863
青腰玉女	-12.2863
以實而無愧於	-12.2863
使敵視之為	-12.2863
次之曹操曰	-12.2863
蔟	-12.2863
范王小宋本	-12.2864
枅	-12.2864
亞父	-12.2864
袍	-12.2864
樂天知命	-12.2864
驎	-12.2864
裾	-12.2864
鄭司農	-12.2864
勅	-12.2864
剞	-12.2864
苣	-12.2864
管仲鮑叔	-12.2864
分陰分陽	-12.2864
孝恭	-12.2864
女奴	-12.2864
犠牲	-12.2864
狃	-12.2864
方之神女名曰	-12.2864
畢弋	-12.2864
銳卒勿攻	-12.2864
懿	-12.2865
草木之藥	-12.2865
天道左旋	-12.2865
秆	-12.2865
還師而去	-12.2865
人須得	-12.2865
劗	-12.2865
濊	-12.2865
顚倒	-12.2865
也〇梅堯臣同杜牧註〇王皙	-12.2866
否音鄙	-12.2866
早晩	-12.2866
橑輻	-12.2866
篋	-12.2866
置之危地	-12.2866
逸倫之士	-12.2866
三軍之衆百萬之師	-12.2866
今惟毋在乎	-12.2866
此所謂善治	-12.2866
臣愚以爲國不足爲也事不足治也	-12.2866
𤑔	-12.2866
其牲以	-12.2866
垁	-12.2866
壇壇高	-12.2866
尺堂密	-12.2866
發而止將服必	-12.2866
咸恒	-12.2867
如連珠	-12.2867
只是一氣	-12.2867
瘉	-12.2867
陸范王本	-12.2867
顛頡	-12.2867
字書無之	-12.2867
沍	-12.2867
車十乘已上	-12.2867
乎魯陽文君曰	-12.2867
柔懦	-12.2867
申叔時	-12.2867
糧餉	-12.2867
莎	-12.2867
前後俱起	-12.2867
失其爪牙	-12.2867
方來迎之	-12.2867
抱薪	-12.2867
柘	-12.2867
頊	-12.2868
一念起處	-12.2868
瀨	-12.2868
二李昌齡傳鄭清之賛	-12.2868
胔	-12.2868
霸王之業	-12.2868
三千六百	-12.2868
不勝其忿	-12.2868
儀狄	-12.2868
日所入	-12.2868
曰何哉曰	-12.2868
豈偶然哉	-12.2868
楛	-12.2868
兩其十二	-12.2868
困獸猶鬭	-12.2868
揄	-12.2868
李筌曰量力	-12.2868
次四日舍	-12.2868
渟	-12.2868
眠	-12.2868
跋涉	-12.2868
吐故納新	-12.2868
破璧毁圭	-12.2868
秦西巴	-12.2868
老帝君下降	-12.2868
鋩	-12.2868
糅	-12.2869
今從二宋陸王本宋曰	-12.287
方寸匕	-12.287
周穆王	-12.287
圯地無舍	-12.287
寔	-12.287
惻怛	-12.287
巒	-12.287
離為日	-12.287
龍虎鶉龜	-12.287
侖	-12.287
曾孫小兆王甲好道願得長生	-12.287
系	-12.287
仰觀俯察	-12.287
勝敗之政	-12.287
朶	-12.287
醎	-12.287
鴛鴦	-12.287
人從者莫不見遠者莫不聞著在	-12.287
大鍾鳴鼓琴瑟竽笙之聲	-12.287
季辛	-12.287
損人器物以窮人用	-12.287
日就月將	-12.287
田連成竅	-12.287
薑	-12.287
蝠	-12.287
通天犀	-12.287
千五百三十九歲	-12.2871
犁	-12.2871
受制於	-12.2871
事事物物	-12.2871
湮	-12.2871
綦	-12.2871
陰家水亦準	-12.2871
刑不濫	-12.2871
榱	-12.2871
鄭袖	-12.2871
騏驎	-12.2871
人人自戰	-12.2871
岑	-12.2871
日月居中五星緯外	-12.2871
有扈氏	-12.2871
焜	-12.2871
符十卷	-12.2871
朼	-12.2871
匈	-12.2872
諜	-12.2872
渙	-12.2872
者氣之所	-12.2872
跟	-12.2872
鎗	-12.2872
千駟	-12.2872
簮	-12.2872
無廢功	-12.2872
不厭詐僞	-12.2872
之軍也梅堯臣曰處	-12.2872
字今從二宋陸范本	-12.2872
旛	-12.2872
瀝	-12.2872
生長收藏	-12.2872
以軍為家	-12.2872
循環不已	-12.2872
斡	-12.2872
趹	-12.2872
受聞不悉以告	-12.2872
唁	-12.2872
好侵好奪	-12.2872
故莫弗以爲	-12.2872
昧昧	-12.2872
暉日	-12.2872
東南方曰	-12.2872
西北方曰	-12.2872
鎛	-12.2872
首而復初如中	-12.2872
綜	-12.2873
肱	-12.2873
按經所說	-12.2873
此其分事也	-12.2873
七百二十九	-12.2873
尚爾况	-12.2874
於五湖	-12.2874
也三爲思終而當夜	-12.2874
估	-12.2874
囓	-12.2874
絲竹金石	-12.2874
租稅	-12.2874
軒冕	-12.2874
〇王皙曰皙謂	-12.2874
三十之世	-12.2874
光謂二爲思中而當夜小人	-12.2874
相守數年	-12.2874
眞武眞君	-12.2874
西山真氏曰	-12.2874
黼黻文章	-12.2874
𦵏	-12.2874
㨿	-12.2874
受贓	-12.2874
戎鹽	-12.2874
汭	-12.2874
爲秦使	-12.2874
疑無信	-12.2874
籃	-12.2874
芰	-12.2874
覡	-12.2874
陰家木亦準	-12.2874
鳳凰翔	-12.2874
也光謂七爲	-12.2875
仲吕	-12.2875
蛉	-12.2875
簋	-12.2875
义	-12.2875
肝膽	-12.2875
玃	-12.2875
二二而一	-12.2875
橡	-12.2875
衛靈公	-12.2875
三百五十四日	-12.2875
下面便生	-12.2875
不亦無術乎	-12.2875
人亦有之在	-12.2875
天地設位	-12.2875
得位當晝是能	-12.2875
甬道	-12.2875
乾坤艮巽	-12.2875
俘	-12.2875
入於酉	-12.2875
定所白	-12.2875
惠王惠王	-12.2875
提壺	-12.2875
毬	-12.2875
班輸	-12.2875
肋	-12.2875
蔏	-12.2875
賞厚而信	-12.2875
不精之甚	-12.2875
四并之則為	-12.2875
攋	-12.2875
氣弱咽法日用	-12.2875
短褐不完	-12.2875
踖	-12.2875
子墨子言曰今天下之	-12.2876
寃	-12.2876
斁	-12.2876
孛	-12.2876
隱僻	-12.2876
滂	-12.2877
丘冢	-12.2877
儒雅	-12.2877
四分度之一	-12.2877
延年益壽	-12.2877
樛留	-12.2877
衛嗣君	-12.2877
噬嗑	-12.2877
五嶽四瀆	-12.2877
即就也	-12.2877
却走馬以糞	-12.2877
精神内守	-12.2877
見天地心	-12.2877
參同契	-12.2877
後發先至	-12.2877
杌	-12.2877
蝟	-12.2877
鈔	-12.2877
𢜔	-12.2877
唐一行	-12.2877
埻	-12.2877
天之愛百姓	-12.2877
蹇蹇	-12.2877
王皙曰曹公曰	-12.2877
嚬	-12.2878
兢兢	-12.2878
蒲坂	-12.2878
廻	-12.2878
篲	-12.2878
無所不包	-12.2878
窟穴	-12.2878
氏同杜牧註	-12.2878
簞	-12.2878
癢	-12.2878
而當晝王者	-12.2878
踣	-12.2878
靡靡之樂	-12.2878
髣髴	-12.2878
之所以平者	-12.2878
六過中而當夜小人	-12.2878
其鬼不神	-12.2878
勝敗之數	-12.2878
秦漢以來	-12.2878
莫先於	-12.2878
不飲不食	-12.2878
也謂是時陰氣	-12.2878
合而言之	-12.2878
崇替之	-12.2878
彀	-12.2878
懴悔	-12.2878
柔勝彊	-12.2878
歸妹六五	-12.2878
涿鹿	-12.2878
爲殄絶	-12.2878
疚	-12.2878
覈實	-12.2878
鼓噪	-12.2878
同舟而濟	-12.2878
戎狄	-12.2878
樾	-12.2878
滒	-12.2878
矇	-12.2878
綉	-12.2878
輗	-12.2878
館穀於敵	-12.2878
笈	-12.2878
舒亶	-12.2879
鮒	-12.2879
飄飄	-12.2879
陰極陽生	-12.2879
烏號之弓	-12.2879
其僕曰	-12.2879
一者太極也	-12.2879
七十五人	-12.2879
殺一牛	-12.2879
無遺策	-12.2879
陰變為陽	-12.2879
仇由之君	-12.2879
依前法	-12.2879
田成恒	-12.2879
貿	-12.2879
兩軍相當	-12.2879
孔雀	-12.2879
嶇	-12.2879
成功立事	-12.2879
禦㓂	-12.2879
騮	-12.2879
漲	-12.2879
履冰	-12.288
如小豆	-12.288
查	-12.2881
造化之初	-12.2881
撿	-12.2881
艶	-12.2881
杜預	-12.2881
魚不可脫	-12.2881
崖岸	-12.2881
瑋	-12.2881
勢不便也	-12.2881
匱乏	-12.2881
尚同爲政	-12.2881
怨懟	-12.2881
渡河	-12.2881
焚其積聚	-12.2881
虜掠	-12.2881
騷	-12.2881
尾閭穴	-12.2881
湯放桀	-12.2881
滴	-12.2881
真氣隨天度運而在	-12.2881
鎸	-12.2881
飢飽	-12.2881
飼	-12.2881
中射之士	-12.2881
以利誘之	-12.2881
仲尼不知善賞	-12.2881
憃	-12.2881
氣應陽氣	-12.2881
知戰之地	-12.2881
肇	-12.2881
馨	-12.2881
糊	-12.2881
恁	-12.2881
請謁	-12.2882
順流而	-12.2882
簾	-12.2882
築壘	-12.2882
制百邪	-12.2882
甯戚	-12.2882
秀孝	-12.2882
日昳	-12.2882
白佛言	-12.2882
之道畢矣	-12.2882
是以天下亂	-12.2882
窴	-12.2882
耕稼	-12.2882
肚	-12.2882
與造化者	-12.2882
二宋陸范本	-12.2882
天地陰陽之氣	-12.2882
有功者必賞	-12.2882
逼迫	-12.2882
冢宰	-12.2882
券契	-12.2882
商販	-12.2882
塔	-12.2882
撩	-12.2882
進退六日	-12.2882
信與伸同	-12.2882
奉笥	-12.2882
寬裕	-12.2882
廣武君	-12.2882
搉	-12.2882
苟冨者	-12.2882
著紙	-12.2882
董卓	-12.2882
鞭撻	-12.2882
䪻	-12.2882
九嶷	-12.2882
剉	-12.2882
太隂治	-12.2882
密密不罅	-12.2882
曰若此人者	-12.2882
欶	-12.2882
氣是時不可下功也	-12.2882
沆	-12.2882
湏	-12.2882
經三卷	-12.2882
訬	-12.2882
誘之以利	-12.2882
飱	-12.2882
黈	-12.2882
猗	-12.2883
誼	-12.2883
饉	-12.2883
九爲禍極	-12.2883
除天下之害	-12.2883
三百有六十	-12.2883
此吾所以知	-12.2883
循隨也	-12.2883
糜	-12.2883
蠡	-12.2883
鄒魯	-12.2883
屩	-12.2883
椓	-12.2883
禋	-12.2883
舋	-12.2884
薔	-12.2884
讖	-12.2884
丙丁火	-12.2884
仙法欲	-12.2884
宕	-12.2884
真人得道	-12.2884
碌	-12.2884
道路之迂直	-12.2884
長九尺	-12.2884
鬪爭	-12.2884
以直爲曲	-12.2884
受日之光	-12.2884
右經一	-12.2884
將在軍	-12.2884
竭股肱之力	-12.2884
腸胃	-12.2884
三皇内文	-12.2884
仙人玉女	-12.2884
倜	-12.2884
吴公子光	-12.2884
廣十尺	-12.2884
後天而奉天時	-12.2884
膲	-12.2884
蒺藜	-12.2884
杞	-12.2884
荄	-12.2885
鴨	-12.2885
救療	-12.2885
衣衾	-12.2885
碁	-12.2885
饑饉	-12.2885
七月八月	-12.2885
於來世	-12.2885
躊	-12.2885
銅器中	-12.2885
沸騰	-12.2885
頴川	-12.2885
南華所謂	-12.2885
纆	-12.2885
造書契	-12.2885
乙酉	-12.2885
樣	-12.2885
突圍	-12.2885
若數君者	-12.2885
不能與之爭	-12.2885
不設備	-12.2885
二十步一	-12.2885
刎頸	-12.2885
夏后氏之璜	-12.2885
色自見漸漸升身以入泥丸自	-12.2885
諫不聽	-12.2885
分吾良卒密有所伏敵	-12.2885
甘谷水	-12.2885
竭其力	-12.2885
醫巫	-12.2885
繼嗣	-12.2886
朝晏退聽獄治政	-12.2886
隍	-12.2886
刎	-12.2886
叶	-12.2886
齲	-12.2886
轍迹	-12.2886
傳曰按道藏	-12.2886
剃	-12.2886
彈棋	-12.2886
胾	-12.2886
醬	-12.2886
淋	-12.2886
呪誓	-12.2886
增其高	-12.2886
壇場	-12.2886
桴	-12.2886
隮	-12.2886
一死之後	-12.2886
律中黄鍾	-12.2886
百八十二度	-12.2886
逑	-12.2886
古者有語	-12.2886
尾箕	-12.2886
惡人賊人	-12.2886
搏噬	-12.2886
氷炭	-12.2886
而又得位當晝	-12.2886
録參	-12.2886
鸞鳥	-12.2886
一動一静之間	-12.2886
存亡繼絶	-12.2886
平公曰寡人	-12.2886
檟	-12.2886
淪溺	-12.2886
翼亮	-12.2886
聰眀	-12.2886
萬歩中五災九厄	-12.2886
蓲	-12.2886
醢	-12.2886
投之無所往	-12.2888
愴	-12.2888
相為對待	-12.2888
正封疆	-12.2888
虫	-12.2888
鯀禹	-12.2888
鼔	-12.2888
妍蚩	-12.2888
五日一候	-12.2888
籌策	-12.2888
鷁首	-12.2888
後發而先至	-12.2888
而百節	-12.2888
聾瞽	-12.2888
嘉瑞	-12.2888
彼我之情	-12.2888
循環無端	-12.2888
為上弦	-12.2888
聒耳	-12.2888
蜴	-12.2888
蟁蝱	-12.2888
詩不云乎	-12.2888
㕹	-12.2888
以白馬爲有馬	-12.2888
催	-12.2888
稜	-12.2888
箑	-12.2888
能收萬物之	-12.2888
芴	-12.2888
鄭穆公	-12.2888
陳以待之	-12.2888
灟	-12.2888
穀失䟽數	-12.2888
者養之使	-12.2888
踆	-12.2888
不止此而已	-12.2888
豁	-12.2889
娉	-12.2889
雖賢不能	-12.2889
炎炎	-12.2889
明堂之制	-12.2889
帷幕	-12.2889
二十四炁	-12.2889
上將之道也	-12.2889
亦所不問	-12.2889
存亡之機	-12.2889
寺僧	-12.2889
經綸	-12.2889
犠牛	-12.2889
者非謂其	-12.2889
下侵上	-12.2889
至坤則	-12.2889
䡖	-12.2889
不知戰地	-12.2889
夏竦	-12.2889
枷	-12.2889
桷	-12.2889
死而復生	-12.2889
無益於年命	-12.2889
熠	-12.2889
璇璣	-12.2889
禾穗	-12.2889
闉	-12.2889
無欲其寳	-12.2889
𣎅	-12.2889
服如小豆	-12.2889
天尊同	-12.289
四分日之一	-12.289
不知東西	-12.289
於是乎生	-12.289
貴爲天子富有天下	-12.289
珍玩	-12.289
酖	-12.289
褰	-12.289
勦	-12.289
無差錯	-12.289
上下離心	-12.289
糵	-12.289
興師動衆	-12.289
不測之淵	-12.289
八百四十里	-12.289
公羊傳曰	-12.289
周匝	-12.289
生成之數	-12.289
翠虬	-12.289
蠖	-12.289
迍	-12.289
𡻕	-12.289
四季之月	-12.289
奏于朝	-12.289
嫁娶	-12.289
以患為利	-12.289
在地成形為	-12.289
尺璧	-12.289
彎	-12.289
晋厲公	-12.289
种放	-12.289
能如是乎賛曰	-12.289
芮	-12.289
跐	-12.289
逐獸者	-12.289
長丈餘	-12.289
之日復存之第三十	-12.289
亂而取之	-12.289
所以皆聞兼而非	-12.289
英迪	-12.289
菊花	-12.289
菲菲	-12.289
跚	-12.289
龢	-12.289
蠲	-12.2891
念誦	-12.2891
纊	-12.2891
鱣鮪	-12.2892
總管	-12.2892
槍	-12.2892
鑛	-12.2892
伽	-12.2892
渉	-12.2892
行北陸	-12.2892
鵠卵	-12.2892
鷦	-12.2892
旦夕	-12.2892
有術之士	-12.2892
棄順効逆	-12.2892
謂弟子曰	-12.2892
麟虞	-12.2892
在正東	-12.2892
庶皆知戒	-12.2892
廡	-12.2892
樹在其	-12.2892
盆盎	-12.2892
執贄	-12.2892
塤	-12.2892
無星處	-12.2892
鄭縣人	-12.2892
鈍兵挫銳	-12.2892
僚友	-12.2892
延陵季子	-12.2892
貪愎	-12.2892
㛰	-12.2892
入前表	-12.2892
剛強之剛	-12.2892
口是心非	-12.2892
吒	-12.2892
噐	-12.2892
彭排	-12.2892
感格	-12.2892
棒	-12.2892
灌園	-12.2892
登名山	-12.2892
自剄	-12.2892
虓	-12.2892
鄧析	-12.2892
鑣	-12.2892
陰以陽為	-12.2892
𩥡	-12.2892
帶劔	-12.2893
廟筭	-12.2893
蘧	-12.2893
鸇	-12.2893
商辛	-12.2893
而色澤	-12.2893
棼	-12.2893
溝洫	-12.2893
不世出	-12.2893
皋	-12.2893
兌兌	-12.2893
困瘁	-12.2893
涖	-12.2893
𤦺	-12.2893
英偉	-12.2893
峽	-12.2893
芙蓉	-12.2893
齋祭	-12.2893
在天成象為	-12.2893
壓良爲賤	-12.2893
宗廟社稷	-12.2893
曹咎	-12.2893
狗彘	-12.2893
眺	-12.2893
系辭	-12.2893
紵	-12.2893
蟲螟	-12.2893
豐隆	-12.2893
費無忌	-12.2893
辱人求勝	-12.2893
韞	-12.2893
鼎湖	-12.2893
燎獵	-12.2893
百金之	-12.2893
纉	-12.2893
葉公子高	-12.2893
介鱗	-12.2894
訊	-12.2894
綺繡	-12.2895
其可輙	-12.2895
蝎	-12.2895
軏	-12.2895
騾	-12.2895
從裏面	-12.2895
跱	-12.2895
遠方之外	-12.2895
問左右左右	-12.2895
夷傷也	-12.2895
棟宇	-12.2895
縣嗇夫	-12.2895
賢哲	-12.2895
何以論之	-12.2895
升勺	-12.2895
庸瑣	-12.2895
移徙	-12.2895
鎧	-12.2895
學仙之士	-12.2895
愷悌	-12.2895
經世之數	-12.2895
能射御之士	-12.2895
韓非子卷之二	-12.2895
馮夷	-12.2895
鼙	-12.2895
不得已而用之	-12.2895
僑	-12.2895
坯	-12.2895
天尊同始	-12.2895
媾	-12.2895
專諸曹劌之勇	-12.2895
彭氏之子	-12.2895
日為陽精	-12.2895
炤炤	-12.2895
者則曰唯	-12.2895
都是春	-12.2895
甲戌	-12.2896
梢	-12.2896
悒	-12.2896
姪	-12.2896
蝱	-12.2896
通於神明	-12.2896
高陽氏	-12.2896
超凡入聖	-12.2896
嘉禾	-12.2896
用藥殺樹	-12.2896
三百三十六	-12.2896
不亦難乎	-12.2896
去彼取此	-12.2896
拜賜	-12.2896
韓宣王	-12.2896
毛髮	-12.2896
禹貢	-12.2896
者世謂之	-12.2896
藺	-12.2896
重繭	-12.2896
䧺	-12.2896
吕蒙	-12.2896
問於子墨子曰	-12.2896
强取强求	-12.2896
日費千金	-12.2896
武襄	-12.2896
王氏女	-12.2896
羂	-12.2896
鍪	-12.2896
阼階	-12.2896
抑鬱	-12.2897
樗蒲	-12.2897
旂	-12.2897
羅紈	-12.2897
瘕	-12.2897
胡亥	-12.2897
所眩惑	-12.2897
日月之光	-12.2897
易牙蒸其首子而進之	-12.2897
欒太	-12.2897
維摩	-12.2897
趙宣孟	-12.2897
齧缺	-12.2897
㣲塵	-12.2897
以八節之日	-12.2897
几杖	-12.2897
地坼	-12.2897
憀	-12.2897
三千餘人	-12.2897
之和音	-12.2897
其門庭	-12.2897
禆娉	-12.2897
綺粲	-12.2897
而無所定	-12.2897
菆	-12.2897
輔弼	-12.2897
𣈆	-12.2897
觀辜	-12.2897
距闉者	-12.2897
半寸	-12.2898
形勢之地	-12.2898
安其居	-12.2899
喋	-12.2899
寂然無聲	-12.2899
[...]
