<unk>	0
<s>	0
</s>	0
,	-2.38816
。	-2.58842
、	-3.90256
者	-4.6611
!	-4.82738
故	-4.91445
:「	-5.06831
?	-5.28092
也	-5.31142
。」	-5.4432
;	-5.52695
為	-5.57065
以	-5.58245
於	-5.61044
是	-5.66212
無	-5.74988
若	-5.76082
言	-5.77447
不	-5.7873
菩薩	-5.789
如是	-5.81631
有	-5.81987
心	-5.83726
中	-5.84762
法	-5.85149
之	-5.87476
行	-5.87602
如來	-5.93583
彼	-5.95209
此	-5.9623
如	-6.03634
而	-6.04627
佛	-6.05349
二	-6.06167
等	-6.08734
即	-6.10986
名	-6.13034
及	-6.15068
生	-6.16207
非	-6.16293
已	-6.1926
世尊	-6.19973
時	-6.2137
得	-6.2274
一	-6.26812
一切	-6.27358
其	-6.29237
說	-6.29807
相	-6.31886
眾生	-6.3264
人	-6.33273
。「	-6.34506
身	-6.34551
見	-6.35366
我	-6.35775
下	-6.36831
三	-6.38437
諸	-6.39893
▁	-6.4228
明	-6.45873
?」	-6.46556
又	-6.51037
皆	-6.53499
謂	-6.55482
:『	-6.60816
至	-6.6162
所	-6.64508
智	-6.65916
亦	-6.67622
爾時	-6.6838
處	-6.68689
住	-6.69681
從	-6.6989
觀	-6.70232
)	-6.72252
四	-6.72268
(	-6.72672
因	-6.73081
大	-6.74141
當	-6.74601
則	-6.75465
清淨	-6.78245
常	-6.79058
起	-6.79767
自	-6.80122
作	-6.81137
應	-6.81486
:	-6.81817
欲	-6.81889
舍利子	-6.8426
義	-6.85134
能	-6.85541
或	-6.85861
曰	-6.86658
上	-6.86675
善	-6.86741
想	-6.87494
意	-6.88019
受	-6.88864
。』	-6.89517
多	-6.90631
願	-6.91386
與	-6.9205
知	-6.93013
云何	-6.9309
令	-6.9456
無有	-6.94964
眾	-6.96105
入	-6.96804
事	-6.97175
初	-6.98044
何以故	-6.98892
今	-6.99699
經	-7.00829
在	-7.01857
乃至	-7.02357
依	-7.02497
前	-7.02682
由	-7.02801
無量	-7.04494
道	-7.05543
復	-7.06236
是故	-7.0696
樂	-7.07213
世間	-7.0762
云	-7.08198
問	-7.08204
色	-7.09384
成就	-7.1023
離	-7.11121
勝	-7.11526
念	-7.13368
求	-7.14181
空	-7.15428
聞	-7.15893
果	-7.16254
名為	-7.16305
出	-7.16648
修	-7.16922
天子	-7.17169
迦葉	-7.17954
佛言	-7.18858
解	-7.18952
後	-7.2039
》	-7.20606
現	-7.22078
王	-7.23374
五	-7.24168
業	-7.24942
聲	-7.26211
地	-7.2645
耶	-7.27168
淨	-7.27186
具	-7.2737
捨	-7.27668
成	-7.29385
天	-7.32104
識	-7.32197
悉	-7.32217
施	-7.33392
盡	-7.33439
具足	-7.34973
滅	-7.35052
功德	-7.35949
解脫	-7.36635
文殊師利	-7.37833
苦	-7.37941
雖	-7.38013
語	-7.39692
供養	-7.39698
信	-7.40831
緣	-7.41799
是名	-7.41839
持	-7.41879
本	-7.41889
過	-7.42034
智慧	-7.4205
教	-7.42361
然	-7.42732
來	-7.42802
性	-7.44113
二者	-7.4417
隨	-7.44321
同	-7.44691
莊嚴	-7.46319
證	-7.46688
汝	-7.46737
一者	-7.47199
戒	-7.47365
正	-7.47418
定	-7.4803
取	-7.48272
慧	-7.48371
善男子	-7.48798
即是	-7.49342
方便	-7.49589
不能	-7.50192
平等	-7.5022
化	-7.50558
所謂	-7.51303
門	-7.52831
種種	-7.53047
諸法	-7.53109
可	-7.53292
菩薩摩訶薩	-7.53505
諸佛	-7.53576
分別	-7.53667
力	-7.5389
發	-7.54444
答	-7.54783
亦無	-7.55333
顯	-7.55483
菩提	-7.55753
既	-7.55855
惡	-7.56035
大王	-7.56624
復次	-7.56693
唯	-7.573
實	-7.57549
舍利弗	-7.57947
體	-7.57951
用	-7.57989
《	-7.58509
煩惱	-7.58888
但	-7.59037
所有	-7.59296
譬如	-7.59912
故云	-7.5996
便	-7.6059
光	-7.6107
涅槃	-7.61372
聲聞	-7.62156
別	-7.62198
通	-7.63108
第二	-7.63337
光明	-7.63452
精進	-7.66321
阿難	-7.66492
分	-7.66637
難	-7.66697
眼	-7.67091
釋	-7.67347
理	-7.67755
修行	-7.67807
斷	-7.68826
先	-7.6932
妙	-7.70046
若有	-7.70181
三者	-7.70526
廣	-7.70816
生死	-7.71015
除	-7.71346
食	-7.72244
異	-7.7454
覺	-7.75224
報	-7.75699
亦不	-7.76034
他	-7.76296
華	-7.76477
水	-7.76643
對	-7.76851
】	-7.76871
於彼	-7.77671
寶	-7.77891
乃	-7.78002
第一	-7.78145
重	-7.7864
不得	-7.78902
六	-7.79508
俱	-7.79572
正法	-7.79998
深	-7.80102
大乘	-7.8032
德	-7.80898
遠離	-7.81226
去	-7.81261
論	-7.81379
不生	-7.82585
何	-7.82699
餘	-7.82709
猶如	-7.82921
一切眾生	-7.82966
相應	-7.83013
著	-7.83147
舉	-7.83197
比丘	-7.83252
答曰	-7.83327
攝	-7.84018
各	-7.84155
究竟	-7.84272
因緣	-7.84761
未	-7.84763
斯	-7.84798
根	-7.85339
我今	-7.85443
極	-7.85811
藏	-7.86631
轉	-7.86808
數	-7.86857
耳	-7.86967
引	-7.86979
就	-7.87194
出家	-7.87324
外	-7.87399
共	-7.88208
無所	-7.88483
於此	-7.88963
次	-7.8903
不可	-7.89051
界	-7.89372
說法	-7.89415
文	-7.90101
疏	-7.90319
白佛言	-7.90512
乘	-7.90541
內	-7.9058
世	-7.90737
四者	-7.90819
法身	-7.91369
愛	-7.91789
三昧	-7.91796
諸天	-7.92651
七	-7.92725
合	-7.93776
示	-7.93805
攝受	-7.93813
學	-7.941
所以者何	-7.94511
喻	-7.94854
使	-7.9487
寂靜	-7.95674
八	-7.96396
少	-7.96468
子	-7.96648
二乘	-7.96754
遍	-7.96852
法界	-7.97271
稱	-7.97298
真	-7.9775
句	-7.98085
善根	-7.98611
境	-8.00183
之所	-8.00806
物	-8.01119
亦復如是	-8.01131
自然	-8.01227
小	-8.01338
往	-8.01677
坐	-8.01941
立	-8.02424
之法	-8.02868
安住	-8.03948
當知	-8.04478
結	-8.04502
第三	-8.04604
故名	-8.05171
貪	-8.05389
還	-8.06163
十	-8.06248
是為	-8.06752
尊	-8.0704
樹	-8.07424
不見	-8.07562
淨土	-8.07906
趣	-8.07966
決定	-8.07982
示現	-8.09599
所說	-8.09604
不知	-8.10088
廣大	-8.10361
向	-8.10574
無明	-8.10589
觀察	-8.10608
忍	-8.10621
歎	-8.11091
請	-8.11119
普	-8.11178
女	-8.11393
方	-8.11618
歡喜	-8.11787
必	-8.1224
所以	-8.13258
花	-8.13448
聖	-8.1348
師	-8.13698
一一	-8.13856
自在	-8.13866
佛法	-8.14028
家	-8.14407
命	-8.14683
經曰	-8.14763
無邊	-8.15213
真實	-8.16211
無相	-8.16231
度	-8.16463
利	-8.16847
好	-8.17224
邪	-8.17306
名曰	-8.17416
會	-8.17687
境界	-8.17822
失	-8.17825
有二	-8.18214
位	-8.18373
照	-8.18567
滿	-8.1906
皆悉	-8.19135
虛空	-8.19216
日	-8.19333
。」「	-8.19489
種	-8.19618
長者	-8.19619
更	-8.20672
布施	-8.20767
音	-8.21277
思惟	-8.21668
十方	-8.21875
故言	-8.22387
了知	-8.22412
喜	-8.2286
最勝	-8.22871
死	-8.22941
於是	-8.22945
而不	-8.23133
諸菩薩	-8.23177
此是	-8.23312
一切法	-8.23693
三界	-8.24004
復次舍利子	-8.24453
觸	-8.24547
不同	-8.25003
持戒	-8.25293
將	-8.25493
開	-8.25497
有情	-8.25543
乎	-8.25554
彌勒	-8.25731
一切諸法	-8.25869
我等	-8.26041
劫	-8.26304
歸	-8.26558
以為	-8.26946
復有	-8.27076
父母	-8.27854
香	-8.28038
修習	-8.28232
了	-8.29167
何故	-8.29182
火	-8.29942
國	-8.30014
安	-8.30039
勝鬘	-8.3022
凡夫	-8.305
疑	-8.31065
增長	-8.31212
壞	-8.31231
獲	-8.31724
圓滿	-8.31736
無常	-8.31922
應知	-8.32317
——	-8.32533
不可思議	-8.32616
大悲	-8.33257
最上	-8.33666
口	-8.33857
又復	-8.34083
須	-8.34143
述曰	-8.34352
辨	-8.34587
隨順	-8.34773
諦	-8.35044
執	-8.35247
於諸	-8.35544
遠	-8.35848
恒	-8.35897
眷屬	-8.35998
。【	-8.36506
集	-8.36643
護	-8.36663
世界	-8.37116
沙門	-8.37411
所作	-8.38447
利益	-8.38458
神通	-8.38697
不思議	-8.38743
勸	-8.39433
慈	-8.39509
問曰	-8.39514
阿羅漢	-8.39687
習	-8.39889
土	-8.4041
罪	-8.40672
造	-8.40684
智者	-8.40775
聽	-8.40789
益	-8.4166
第四	-8.42245
破	-8.42312
病	-8.42928
惑	-8.42976
猶	-8.43079
不為	-8.43168
此經	-8.43224
長	-8.43404
記	-8.43476
終	-8.44157
障	-8.44651
高	-8.44671
總	-8.45023
現在	-8.45581
文殊師利言	-8.45635
無生	-8.45677
所行	-8.45691
流	-8.45779
二合	-8.45837
癡	-8.46259
禮	-8.46264
設	-8.46287
金	-8.4635
反	-8.46449
」	-8.4657
未來	-8.46605
愚癡	-8.46797
順	-8.47017
無上	-8.47126
親近	-8.47295
之中	-8.48166
類	-8.48286
音聲	-8.48388
被	-8.48408
無我	-8.48507
我當	-8.4889
以此	-8.49031
微妙	-8.49116
量	-8.49282
墮	-8.49806
散	-8.50266
甚深	-8.50281
白	-8.50304
達	-8.50319
福	-8.50456
致	-8.50629
和合	-8.50732
如是等	-8.50737
悉皆	-8.50782
發起	-8.50792
佛說	-8.50814
不應	-8.51162
女人	-8.51357
之心	-8.51411
其心	-8.51692
及以	-8.51849
味	-8.52061
居	-8.52114
告	-8.52156
風	-8.52408
無畏	-8.52432
衣	-8.52509
速	-8.52741
?』	-8.53488
飲食	-8.53801
財	-8.54098
思	-8.5424
志	-8.54397
僧	-8.54512
正明	-8.54666
無作	-8.55381
是人	-8.55927
動	-8.55928
足	-8.56046
近	-8.56226
阿	-8.56312
常住	-8.56489
羅	-8.56689
止	-8.56737
堅固	-8.57011
奉	-8.57102
一心	-8.57127
號	-8.57849
要	-8.57851
諸眾生	-8.57874
昔	-8.58009
發心	-8.58029
不可得	-8.58051
親	-8.58114
善巧	-8.58185
地獄	-8.58186
龍	-8.58254
過去	-8.58286
外道	-8.58519
以下	-8.59125
爾時世尊	-8.59262
畢竟	-8.59265
略	-8.59668
無礙	-8.59743
形	-8.60047
際	-8.60068
彼佛	-8.60071
九	-8.60301
恭敬	-8.604
寂滅	-8.60551
者即	-8.60573
計	-8.60838
獨	-8.60884
次第	-8.60898
百千	-8.61498
瞋恚	-8.61732
太子	-8.61829
竟	-8.61844
汝等	-8.61942
答言	-8.62239
比	-8.62242
何等	-8.62371
不捨	-8.62437
善哉	-8.62828
約	-8.62967
果報	-8.63
不起	-8.63043
月	-8.6306
興	-8.63079
攝受正法	-8.63349
始	-8.64203
感	-8.64319
母	-8.64474
到	-8.64616
出生	-8.65065
主	-8.65254
善法	-8.65603
辯才	-8.65801
安樂	-8.65977
諸根	-8.66111
演說	-8.66318
顛倒	-8.66417
宣說	-8.66574
無為	-8.66693
山	-8.66853
大眾	-8.66921
所生	-8.6725
聚	-8.67292
差別	-8.67365
小乘	-8.675
天人	-8.67547
諸菩薩摩訶薩	-8.67631
亦非	-8.67639
己	-8.67726
無盡	-8.67814
如此	-8.68038
而為	-8.682
并	-8.68522
亦如是	-8.68788
建立	-8.68961
已下	-8.69124
魔	-8.69231
人民	-8.69569
治	-8.69652
瞋	-8.69667
往生	-8.69853
不淨	-8.69869
多聞	-8.70039
皆是	-8.70152
佛剎	-8.70159
假	-8.70224
受持	-8.7073
如實	-8.70792
自性	-8.70827
之人	-8.70897
讚	-8.70899
緣覺	-8.71167
迴向	-8.71211
城	-8.7129
不住	-8.71318
覆	-8.71559
四種	-8.71733
彼人	-8.71826
無異	-8.71888
已來	-8.72016
法門	-8.72038
品	-8.7218
邊	-8.72226
何等為四	-8.7225
見佛	-8.72312
五者	-8.72389
目	-8.72638
增	-8.7283
三種	-8.73005
甚	-8.73186
圓	-8.73228
法性	-8.73291
應當	-8.73431
及諸	-8.73651
。】「	-8.73679
兩	-8.73894
此法	-8.74032
行者	-8.74061
或有	-8.74228
應供	-8.74422
莫	-8.74634
成佛	-8.74704
。」【【	-8.74777
禪定	-8.7499
而說偈言	-8.75071
授	-8.75169
於中	-8.7533
出離	-8.75374
調伏	-8.755
二種	-8.75619
海	-8.75829
是時	-8.76025
雨	-8.76079
故名為	-8.76105
住於	-8.76207
而能	-8.76243
神	-8.76254
真如	-8.76299
人天	-8.76384
童子	-8.76387
而生	-8.76498
懷	-8.76716
咸	-8.76764
殊勝	-8.76947
「	-8.76955
說偈讚	-8.77023
何況	-8.77054
敬	-8.77202
面	-8.77219
染	-8.7742
縛	-8.77474
獲得	-8.77712
發菩提心	-8.77747
亦復	-8.78144
覩	-8.78338
譬	-8.78397
不退	-8.78456
未曾	-8.78583
那	-8.7861
。《	-8.78843
壽命	-8.79002
善逝	-8.79534
若見	-8.79554
不著	-8.79606
之相	-8.79814
安隱	-8.79864
加	-8.79881
字	-8.79913
弟子	-8.79932
直	-8.80007
悟	-8.80029
不動	-8.80718
且	-8.81129
各各	-8.8133
鈔	-8.8147
若不	-8.81878
蓋	-8.82193
忍辱	-8.82232
若人	-8.82536
誰	-8.82566
大寶積經	-8.82618
國土	-8.82623
能生	-8.82647
名字	-8.82683
不也	-8.8271
壽	-8.82799
愛樂	-8.82832
又舍利子	-8.82867
假使	-8.8294
言說	-8.83044
凡	-8.83405
彰	-8.83537
宣	-8.83704
捨離	-8.83705
情	-8.83989
信解	-8.84042
有三	-8.84156
彌陀	-8.84356
一乘	-8.84415
不以	-8.84533
歸依	-8.84798
百	-8.855
終不	-8.8563
般若	-8.85744
七日	-8.85974
指	-8.86218
此云	-8.86441
目連	-8.86475
宜	-8.86584
正念	-8.86673
以偈讚	-8.86685
積集	-8.87136
因果	-8.87386
若無	-8.87602
今此	-8.87637
吾	-8.87791
所言	-8.87854
適	-8.87907
於法	-8.87952
夫	-8.88
標	-8.88279
經云	-8.88341
慢	-8.88369
遊	-8.88435
無數	-8.88842
像	-8.8897
又問	-8.89116
毒	-8.8915
一切智	-8.89277
況	-8.89616
波羅蜜	-8.89618
所得	-8.89682
不離	-8.9009
開示	-8.90339
諸有	-8.90527
念佛	-8.90637
慈心	-8.90688
無漏	-8.91033
殺	-8.91087
導師	-8.91247
佛告	-8.91262
爾	-8.9127
尋	-8.91427
屬	-8.91553
之行	-8.9158
輕	-8.91618
辯	-8.91636
非是	-8.91677
則無	-8.92104
害	-8.9219
:「『	-8.92214
畏	-8.92264
微	-8.92275
貪欲	-8.9247
。「『	-8.92491
白言	-8.92504
滿足	-8.92858
堅	-8.92942
難陀	-8.93022
當得	-8.93053
金剛	-8.93131
亦然	-8.9317
千	-8.93321
聞法	-8.93434
之事	-8.93616
不信	-8.9365
矣	-8.93733
並	-8.93834
七寶	-8.93863
為說	-8.93886
備	-8.9398
讚歎	-8.94283
無量無邊	-8.94328
息	-8.94483
棄	-8.94789
迷	-8.94816
不取	-8.94848
此人	-8.94869
其身	-8.95001
大士	-8.95022
以是	-8.95246
在家	-8.95281
不樂	-8.95286
破壞	-8.95525
能令	-8.95559
現前	-8.95886
三千大千世界	-8.95888
.	-8.95955
依止	-8.96065
巳	-8.9616
藥	-8.96241
於其	-8.96277
是其	-8.96341
宗	-8.96642
進	-8.96663
亦名	-8.96729
離諸	-8.96785
成熟	-8.96798
是中	-8.96824
詣	-8.96889
第五	-8.9697
作佛	-8.97161
勿	-8.97181
法中	-8.97182
表	-8.97264
是菩薩	-8.97351
如來藏	-8.97573
久	-8.97575
退	-8.97582
手	-8.97595
何者	-8.97616
脫	-8.97776
寂	-8.97818
通達	-8.97927
此明	-8.98011
宮殿	-8.98019
心不	-8.98116
正等覺	-8.9817
三乘	-8.98249
之義	-8.9829
永	-8.98392
對治	-8.98529
嚴	-8.99015
絕	-8.99248
六者	-8.99352
妄	-8.99683
為欲	-8.99754
訖	-9.00227
禪	-9.00665
無分別	-9.00688
沒	-9.01038
陰	-9.01186
豈	-9.01259
法故	-9.01449
他人	-9.01604
變	-9.01647
即得	-9.01755
疾	-9.01898
雜	-9.02215
路	-9.02344
語言	-9.02402
相續	-9.02419
易	-9.02427
憂	-9.02754
勇猛	-9.02758
頭	-9.0285
七者	-9.03012
西方	-9.03078
尊者	-9.03377
棄捨	-9.03555
遂	-9.03578
佛告阿難	-9.03677
諸佛如來	-9.0372
宮	-9.03881
器	-9.04195
於佛	-9.0427
鼻	-9.04291
於意云何	-9.04295
不異	-9.05029
聞已	-9.0505
若能	-9.05076
垢	-9.05085
根本	-9.05282
之時	-9.0533
輪	-9.05377
能知	-9.05386
悲	-9.05504
座	-9.05517
邪見	-9.05688
傳	-9.057
三世	-9.05732
二明	-9.05818
不善	-9.05821
於我	-9.05885
阿彌陀佛	-9.05907
書	-9.06201
和	-9.0632
逮	-9.06586
佛土	-9.06622
稱讚	-9.06719
一時	-9.07045
仁	-9.07122
列	-9.0715
而得	-9.0725
威儀	-9.07455
慈悲	-9.07587
漸	-9.07629
此中	-9.07643
大地	-9.07939
希有	-9.07955
汝今	-9.08084
不斷	-9.08128
云何為	-9.08371
八者	-9.08488
初地	-9.08605
超	-9.0861
於一切法	-9.0867
父	-9.08757
作如是言	-9.08911
力故	-9.09006
中有	-9.09172
菩提心	-9.09176
其人	-9.0924
伏	-9.09282
無不	-9.09513
三摩地	-9.09536
網	-9.09587
恐	-9.09816
怖畏	-9.09903
亦爾	-9.10002
大藥	-9.10132
舍	-9.10224
燒	-9.10291
有為	-9.10487
由是	-9.10517
非法	-9.10577
憶念	-9.10627
授記	-9.10685
得聞	-9.1082
劣	-9.10872
大小	-9.11088
故曰	-9.11317
機	-9.11327
夜	-9.11353
迦	-9.11384
佛身	-9.11387
之處	-9.11601
而住	-9.11639
教化	-9.11677
葉	-9.11712
供	-9.11827
種子	-9.11851
苦惱	-9.12075
遇	-9.12123
畜生	-9.12186
虛妄	-9.12224
不作	-9.1234
正行	-9.12535
福德	-9.12785
不退轉	-9.12863
是以	-9.12865
無邊莊嚴	-9.12924
有所	-9.12925
若有眾生	-9.12999
麁	-9.13041
置	-9.13067
章	-9.13084
諸行	-9.13275
不與	-9.13292
所見	-9.13406
威德	-9.1342
宿	-9.13453
嘆	-9.13609
最	-9.1361
名之為	-9.13647
此二	-9.13676
無能	-9.13762
放逸	-9.13966
出世	-9.14121
攝取	-9.14124
十二	-9.14242
序	-9.14246
陀	-9.14456
『	-9.14473
隱	-9.14549
尚	-9.14594
而無	-9.14698
蓮華	-9.14729
所成	-9.14851
懈怠	-9.14857
作是念	-9.14872
帝釋	-9.14916
虛	-9.14918
此等	-9.14923
如彼	-9.14925
可得	-9.15042
大德	-9.15309
厭	-9.15546
大仙	-9.15726
穢	-9.15811
變易	-9.15861
受生	-9.16105
羅漢	-9.16265
無垢	-9.16304
犯	-9.16318
寧	-9.16465
富樓那	-9.16486
十六	-9.16663
儞	-9.16718
如是如是	-9.16788
無所著	-9.16944
無有是處	-9.16979
熱	-9.17052
塵	-9.1718
蘊	-9.17216
首	-9.1725
生滅	-9.173
然後	-9.17372
于	-9.17447
婆羅門	-9.1749
丈夫	-9.17562
廣說	-9.17572
執著	-9.17582
諸佛世尊	-9.17596
望	-9.17764
有四	-9.17798
池	-9.17827
夫人	-9.17912
細	-9.17912
得生	-9.18025
四諦	-9.18096
苾芻	-9.18132
摩	-9.18211
都	-9.18368
我見	-9.18785
而有	-9.18843
末	-9.18918
欲令	-9.19103
密	-9.19282
尸羅	-9.19359
皆得	-9.19395
偈	-9.1942
舌	-9.19451
有人言	-9.19492
尊重	-9.19551
初明	-9.19756
惱	-9.19887
以是義故	-9.19976
令其	-9.20084
生於	-9.20106
窮	-9.20112
積	-9.20153
一念	-9.20244
患	-9.20542
正遍知	-9.20581
不求	-9.20619
發願	-9.20701
一切世間	-9.20741
法師	-9.20862
若有菩薩	-9.20867
為彼	-9.20879
盛	-9.2089
有餘	-9.21087
時彼	-9.21146
又如	-9.21187
波	-9.2122
此初	-9.21248
亦有	-9.21309
聽聞	-9.21316
在於	-9.21348
內外	-9.21556
則為	-9.21624
怖	-9.21673
亦如	-9.2181
即便	-9.21892
梵行	-9.21933
一切諸	-9.21997
有一	-9.22185
雖復	-9.22285
八萬四千	-9.22295
美	-9.22372
離於	-9.22375
欲界	-9.22381
身心	-9.22543
諸惡	-9.22647
間	-9.22668
無所從來	-9.22931
哉	-9.23006
演	-9.23038
色相	-9.23163
深心	-9.23172
修學	-9.23204
萬	-9.23222
相故	-9.23665
似	-9.23737
曾	-9.23847
而彼	-9.24229
年	-9.24822
往昔	-9.24832
為諸眾生	-9.24932
等者	-9.24957
專	-9.25099
衣服	-9.25178
體性空	-9.25318
速疾	-9.25414
釋迦	-9.25519
云何名為	-9.25721
雖有	-9.25862
無所得	-9.26333
於一切	-9.26339
助	-9.26444
過失	-9.26462
受用	-9.26717
族姓子	-9.26807
奉行	-9.27318
以其	-9.27323
牟尼	-9.27361
眾會	-9.2745
隨所	-9.27638
下劣	-9.27672
誓	-9.27906
障礙	-9.28039
冥	-9.28088
故知	-9.28181
布	-9.28203
顯示	-9.28259
勤修	-9.28272
夜叉	-9.2833
馬	-9.28433
不行	-9.2844
勝慧	-9.28552
不說	-9.28639
智力	-9.28667
由此	-9.28801
中有二	-9.28924
若於	-9.29004
善知	-9.29059
即時	-9.29137
得見	-9.29363
不滅	-9.29377
文殊	-9.29425
無著	-9.29478
梵	-9.29494
唯有	-9.29645
何所	-9.29707
亂	-9.29789
銀	-9.30109
善能	-9.30112
視	-9.30138
有二種	-9.302
柔軟	-9.30283
我於	-9.30436
放	-9.30524
無願	-9.30554
妄想	-9.30852
底	-9.30915
林	-9.31038
實際	-9.31203
此明何義	-9.31292
車	-9.31469
唯願	-9.31517
悔	-9.3158
上來	-9.31606
草	-9.31885
違	-9.31924
極樂	-9.31937
潤	-9.3198
!」	-9.32001
見彼	-9.32211
權	-9.32215
據	-9.32344
師子	-9.32354
有人	-9.32362
無明住地	-9.3237
服	-9.32393
心生	-9.32596
阿修羅	-9.32678
三明	-9.32686
悉能	-9.32698
毀	-9.32751
令得	-9.328
第六	-9.33238
救	-9.33357
無極	-9.33358
總持	-9.33367
兼	-9.33377
無量壽佛	-9.3342
正道	-9.33471
般若波羅蜜	-9.33767
空中	-9.33775
彼等	-9.33808
憍慢	-9.33938
若以	-9.34023
佛所	-9.34121
一明	-9.34199
人中	-9.34314
入於	-9.34328
皆由	-9.34368
之言	-9.34487
法者	-9.34493
是法	-9.34738
痛	-9.34831
陀羅尼	-9.34853
有說	-9.34855
雲	-9.34929
無量壽	-9.35014
囉	-9.35141
三寶	-9.35359
一切有情	-9.35574
甲冑	-9.35616
)(	-9.35639
文字	-9.3572
合掌	-9.35722
妙法	-9.35921
正見	-9.3602
何謂	-9.36054
簡	-9.36118
。』「	-9.36124
梵天	-9.36207
恩	-9.36261
本無	-9.36382
佛道	-9.36439
精	-9.36485
快樂	-9.36497
五百	-9.36578
幢	-9.36637
亦是	-9.36871
如虛空	-9.36881
俗	-9.37191
功	-9.37193
愚	-9.37289
端正	-9.37418
拔	-9.37488
。』」	-9.37586
菩薩行	-9.37726
彼土	-9.37752
神足	-9.37785
龍王	-9.37858
於諸眾生	-9.37863
一切皆	-9.37965
夢	-9.38083
說此	-9.38105
身業	-9.38225
河	-9.38246
無色	-9.38366
可見	-9.38398
眾寶	-9.38401
偏	-9.38417
垂	-9.38485
皆有	-9.3853
無餘	-9.38623
九者	-9.38661
拘	-9.38709
善友	-9.3876
大聖	-9.38783
大海	-9.38807
不受	-9.38848
所願	-9.38942
我所	-9.38953
三十三天	-9.39007
邊際	-9.39008
即能	-9.3914
彼諸	-9.39195
聞說	-9.39301
承	-9.39425
隨其	-9.39513
全	-9.39657
彼國	-9.3969
退轉	-9.40024
是謂	-9.40054
如幻	-9.4013
命終	-9.40193
殊妙	-9.40224
悅	-9.40284
相似	-9.4037
餓鬼	-9.40375
或復	-9.40387
強	-9.40393
珠	-9.40635
諸比丘	-9.40696
二十	-9.40724
無上菩提	-9.40786
黑	-9.40792
化作	-9.40805
珍寶	-9.40836
無智	-9.40969
祕密	-9.41212
雙	-9.41238
億	-9.41397
周	-9.41429
。』」「	-9.41432
惡道	-9.41446
賢者	-9.41539
十力	-9.41596
不失	-9.41625
令彼	-9.41644
此義	-9.41754
施設	-9.41763
降	-9.41883
骨	-9.42176
婆	-9.422
怨	-9.42204
佛告迦葉	-9.4224
佛性	-9.42279
存	-9.42332
瓔珞	-9.42337
而行	-9.42375
不實	-9.42487
之身	-9.42493
等正覺	-9.42619
須賴	-9.42667
增上	-9.42785
賊	-9.42987
神力	-9.43014
察	-9.43074
能得	-9.43151
誹謗	-9.43173
佛智	-9.43175
伽	-9.43268
一曰	-9.43279
即為	-9.43501
晝夜	-9.43611
正覺	-9.43643
剎	-9.44068
成正覺	-9.44181
守護	-9.44202
頂	-9.44257
天人師	-9.44314
諸長者	-9.44331
而說頌曰	-9.44338
中間	-9.44374
善惡	-9.44413
純	-9.44459
作意	-9.44491
闇	-9.44615
上下	-9.44643
無二	-9.44751
今明	-9.44866
自身	-9.45183
即於	-9.45187
明其	-9.45191
二曰	-9.45306
枝	-9.45329
所攝	-9.45333
日月	-9.45357
天眼	-9.45361
往詣	-9.45416
翻	-9.45441
復以	-9.455
今日	-9.45549
所緣	-9.45555
不放逸	-9.45654
十者	-9.45662
業報	-9.45742
彼時	-9.45877
無心	-9.45921
非有	-9.45983
佛國	-9.46083
復次迦葉	-9.46161
降伏	-9.46209
辟支佛	-9.46224
蓮花	-9.46227
頓	-9.46335
利他	-9.46374
東方	-9.46405
非不	-9.46436
譯	-9.46477
無所有	-9.46484
隨意	-9.46496
嚴飾	-9.46553
心無	-9.46621
亦無有	-9.46709
王子	-9.46716
老	-9.46765
亦可	-9.46858
述	-9.4695
惡趣	-9.46962
觀經	-9.46981
是佛	-9.4703
五陰	-9.47046
辭	-9.47081
顯現	-9.47117
若干	-9.4715
即以	-9.47248
諸有情	-9.47288
及與	-9.47297
法藏	-9.47318
淨信	-9.47407
大願	-9.47549
明了	-9.47587
大慈	-9.47623
則能	-9.47863
乃能	-9.48042
贊	-9.48084
鉢	-9.4811
所起	-9.48167
四大	-9.48167
諸煩惱	-9.4831
奪	-9.48339
第七	-9.48388
於他	-9.48428
恐怖	-9.4852
超過	-9.48616
總持門	-9.48665
惡業	-9.48773
比丘尼	-9.48855
遣	-9.4906
倍	-9.49169
勤	-9.49191
疑惑	-9.49283
財物	-9.49329
可知	-9.49345
如實知	-9.49363
神變	-9.4945
相好	-9.49503
天中天	-9.49524
沙	-9.49549
男女	-9.49751
齊	-9.498
礙	-9.49875
導	-9.49891
歸命	-9.49932
故說	-9.49952
恒沙	-9.50107
及餘	-9.50267
貪瞋癡	-9.50419
實相	-9.50648
生彼	-9.50676
暫	-9.50721
諸天人	-9.50816
亡	-9.50866
如法	-9.50896
之力	-9.50902
一切諸佛	-9.51107
善女人	-9.51118
滅度	-9.51169
自利	-9.51212
利養	-9.51213
焰	-9.51365
濟	-9.515
決	-9.51542
仰	-9.517
而復	-9.51754
是則名為	-9.51838
皆令	-9.51912
不復	-9.52024
三觀	-9.52027
貪著	-9.52031
熟	-9.52229
讀誦	-9.52277
不壞	-9.52327
不依	-9.52354
眾人	-9.52358
四智	-9.52451
欲得	-9.52532
不可說	-9.52541
趣向	-9.5271
忘	-9.52795
調	-9.52814
道場	-9.52867
繫	-9.52955
鳥	-9.52972
變化	-9.5299
善知識	-9.53163
不盡	-9.53167
法王	-9.53196
色界	-9.53267
王言	-9.53424
常樂	-9.53572
摩訶	-9.53595
謗	-9.5362
此身	-9.53672
其有	-9.53685
覺悟	-9.53781
證得	-9.54125
安立	-9.54129
之名	-9.54159
亦復然	-9.54174
昇	-9.54182
眾中	-9.54329
譬喻	-9.54375
守	-9.54498
城中	-9.54558
分段	-9.54601
佛語	-9.5468
不可以	-9.54684
地界	-9.54869
無央數	-9.54909
善哉善哉	-9.54914
本性	-9.55042
鼓	-9.55057
吉祥	-9.55151
五欲	-9.55194
名色	-9.55288
橫	-9.55378
諸菩薩眾	-9.55381
不定	-9.55468
仁者	-9.55556
是為四	-9.55714
作是	-9.5573
所知	-9.55831
三曰	-9.55901
愛欲	-9.55934
第一義	-9.55956
聞者	-9.56027
聖人	-9.56081
是則	-9.56211
迹	-9.5623
意樂	-9.5639
但以	-9.56406
一切煩惱	-9.56418
。」《	-9.56421
笑	-9.56443
無邊慧	-9.56541
大智	-9.5657
生者	-9.56581
觀佛	-9.56622
因故	-9.56748
令我	-9.56928
為求	-9.57033
許	-9.57129
總結	-9.57165
飾	-9.57357
解了	-9.5739
思念	-9.57467
靜慮	-9.57473
名號	-9.57494
甘露	-9.57521
曉了	-9.57572
以彼	-9.5758
聖道	-9.57961
我為	-9.58067
修善	-9.58118
父王	-9.58118
一人	-9.58122
』,	-9.58161
故有	-9.58258
如理	-9.58329
律儀	-9.5846
發阿耨多羅三藐三菩提心	-9.58461
殊	-9.58519
韋提	-9.58616
此三	-9.58649
不聞	-9.58663
其所	-9.58897
下明	-9.59005
迷惑	-9.59005
造作	-9.59074
一法	-9.59338
得菩提	-9.59413
信心	-9.59441
得解脫	-9.59508
妙吉祥	-9.59579
巧	-9.5969
合掌向佛	-9.59764
青	-9.5977
淨心	-9.59777
之意	-9.59819
此名	-9.59863
幻	-9.59939
流通	-9.60093
遮	-9.6017
十種	-9.60233
證菩提	-9.60258
何等為三	-9.60375
威神	-9.60383
無厭	-9.60452
靜	-9.60463
帝	-9.6049
其義	-9.60545
見已	-9.6062
一向	-9.60636
諂曲	-9.60991
住處	-9.61048
鬼神	-9.61079
施與	-9.61141
等事	-9.61176
福田	-9.6127
周遍	-9.61301
越	-9.61427
起於	-9.61687
經典	-9.61758
淨戒	-9.6189
身相	-9.61939
修道	-9.62026
繫縛	-9.62034
不念	-9.62061
我今於此	-9.62151
滅諦	-9.62216
不分別	-9.62448
彌勒菩薩	-9.62464
說言	-9.62502
當來	-9.62585
我慢	-9.62815
乾闥婆	-9.62875
文殊師利童子	-9.62994
諸如來	-9.63051
攀緣	-9.6321
十地	-9.63249
園	-9.63292
聽法	-9.63346
本願	-9.63349
等法	-9.63499
受持讀誦	-9.63509
倒	-9.63568
諸菩薩等	-9.63576
若欲	-9.63589
身命	-9.63643
飲	-9.63768
接	-9.63937
慳	-9.63977
各有	-9.64021
眾苦	-9.64071
忽	-9.6408
室	-9.64117
濁	-9.64283
見者	-9.64322
而起	-9.64341
於世間	-9.64407
水精	-9.64464
毘	-9.64575
諸佛法	-9.6465
貪愛	-9.64691
見如來	-9.64727
舍利弗言	-9.6478
則有	-9.64809
舍利	-9.64817
互	-9.64867
流轉	-9.6487
多有	-9.65093
仙人	-9.65276
六十	-9.65295
心故	-9.65326
退失	-9.65403
體性	-9.65431
制	-9.65502
業障	-9.65554
假名	-9.65697
其中	-9.65779
貧窮	-9.65853
惡人	-9.6594
泥	-9.65945
如是我聞	-9.66168
西	-9.66234
少分	-9.66258
支	-9.66301
容	-9.66303
無染	-9.66575
頌	-9.66691
」。	-9.66948
無障礙	-9.66984
信受	-9.66987
我說	-9.6706
阿耨多羅三藐三菩提	-9.67071
樂欲	-9.67091
無實	-9.67116
逆	-9.6719
諦聽	-9.67334
一名	-9.67394
律	-9.674
是故菩薩	-9.6743
往來	-9.67438
值	-9.67456
御	-9.67532
消	-9.67564
戲論	-9.67698
滅時亦無所	-9.67699
此事	-9.67756
相違	-9.67907
為因	-9.68019
所依	-9.68038
作是念已	-9.68069
度脫	-9.68075
此菩薩	-9.68114
此四	-9.68192
世間解	-9.6821
皆為	-9.68256
名聞	-9.68268
聲聞緣覺	-9.68316
清	-9.68373
談	-9.68461
取著	-9.68518
須菩提	-9.68523
不現	-9.68573
曉	-9.68583
牛	-9.68657
縱	-9.6866
影	-9.68671
第八	-9.68809
聽受	-9.68819
前明	-9.6883
世俗	-9.68965
六度	-9.6899
有三種	-9.6899
法華	-9.69082
象	-9.69112
說偈言	-9.69138
所化	-9.69229
之智	-9.69417
有是處	-9.69428
然彼	-9.69432
印	-9.69468
肉	-9.69552
賢	-9.69603
須彌	-9.69604
作如是念	-9.69647
却	-9.69676
如佛	-9.69682
節	-9.69726
於虛空中	-9.69841
無比	-9.69954
心意	-9.70044
佛子	-9.70087
出世間	-9.70204
受戒	-9.70309
無想	-9.70381
嚴淨	-9.70391
彼則	-9.70411
優婆塞	-9.70424
提	-9.70429
問言	-9.70486
說伽陀曰	-9.7051
音樂	-9.70617
未得	-9.7079
四曰	-9.7081
次明	-9.70814
寂慧	-9.70994
諸苦	-9.71092
互相	-9.71124
勇	-9.71134
則不	-9.71202
無住	-9.71276
在家菩薩	-9.71335
願力	-9.7134
愚夫	-9.71347
不久	-9.71401
無上士	-9.71462
彌	-9.71502
莫不	-9.71514
有何	-9.71515
審	-9.71521
喜樂	-9.71523
是也	-9.71557
道者	-9.71637
則是	-9.71745
▁「	-9.71774
薄	-9.71874
行於	-9.71917
牒	-9.71983
化生	-9.72169
非究竟	-9.72206
菩薩如是	-9.72239
響	-9.7227
之業	-9.72312
此即	-9.72375
厭離	-9.72415
彼岸	-9.72442
充滿	-9.72494
聖諦	-9.72569
十五	-9.72609
所受	-9.72634
熱惱	-9.72707
迴	-9.72733
俱胝	-9.72738
應時	-9.7276
寶樹	-9.72889
損	-9.72905
有異	-9.72982
快	-9.73129
幻化	-9.73253
所修	-9.73274
非無	-9.7329
男	-9.73319
含	-9.73334
男子	-9.73396
菩提道	-9.73397
敘	-9.73499
不從	-9.73552
漏	-9.73589
彼法	-9.73633
願我	-9.73668
普遍	-9.73781
輪迴	-9.73842
至於	-9.73847
號曰	-9.73881
燈	-9.73935
略說	-9.74056
處處	-9.74099
一切佛法	-9.74113
口業	-9.74175
救護	-9.74247
鬼	-9.74274
破戒	-9.74305
新	-9.74318
所問	-9.74324
木	-9.74377
之德	-9.74468
珊瑚	-9.74494
正等正覺	-9.74553
是名菩薩摩訶薩	-9.74658
群	-9.74836
三十二	-9.75037
二法	-9.7507
復次金剛摧	-9.75291
不取正覺	-9.75301
何謂為四	-9.75441
覺知	-9.75547
緣起	-9.75689
常行	-9.75721
大師	-9.75775
前白佛言	-9.75893
賢聖	-9.75936
群生	-9.7594
畢	-9.76104
嫉妬	-9.7612
無量眾生	-9.76128
聞佛所說	-9.76154
深法	-9.76192
何以	-9.76206
彼處	-9.76375
三事	-9.7648
哀	-9.76579
胎	-9.76702
?」「	-9.76708
勝妙	-9.76784
而言	-9.7694
為他	-9.77033
於諸法	-9.77092
遊戲	-9.7711
心中	-9.77213
二名	-9.77222
有大	-9.77272
述云此後	-9.77377
塔	-9.77396
四住	-9.77402
梵志	-9.77478
能於	-9.77495
一劫	-9.77658
諸聲聞	-9.7771
自行	-9.77793
於佛法中	-9.77837
無量功德	-9.77872
如何	-9.77984
以無	-9.77997
若得	-9.78078
閻浮提	-9.78139
觀法	-9.78141
四法	-9.78184
稽首	-9.78201
勢	-9.78259
箭	-9.78264
髮	-9.78286
懺悔	-9.78314
所求	-9.78318
後世	-9.78356
無動	-9.78372
弘	-9.78433
蒙	-9.78465
即無	-9.78468
塵勞	-9.78529
財寶	-9.7854
說為	-9.78552
皆當	-9.78554
威	-9.78589
自下	-9.78644
五種	-9.78693
平	-9.78702
心常	-9.78739
亦不可得	-9.78747
驚怖	-9.78755
名稱	-9.78773
妄語	-9.7878
憐愍	-9.78797
應以	-9.78927
待	-9.79051
善行	-9.79105
尼	-9.79146
里	-9.79149
第二明	-9.79214
無人	-9.7926
質	-9.79438
無知	-9.79438
他方	-9.79664
饒益	-9.7979
誠	-9.79793
諸相	-9.80075
是諸	-9.80089
故須	-9.80233
判	-9.80301
黃	-9.80379
勅	-9.80448
草木	-9.80471
運	-9.80479
有量	-9.80707
妻	-9.80757
無始	-9.8082
四句	-9.80891
諸功德	-9.80896
出現	-9.80897
轉法輪	-9.80958
如斯	-9.80977
天女	-9.81004
思量	-9.81122
巍巍	-9.81245
以不	-9.81289
此土	-9.81368
令諸眾生	-9.81382
及彼	-9.81394
修多羅	-9.81515
佛世尊	-9.81634
說經	-9.81807
善巧方便	-9.81829
深信	-9.8184
是名為	-9.81845
知足	-9.81873
本來	-9.81925
得成	-9.81941
懸	-9.82133
作是思惟	-9.82165
侍	-9.82205
樓閣	-9.82259
十一	-9.82282
復能	-9.82349
默然	-9.82363
其名	-9.82378
得道	-9.82454
貧	-9.82457
石	-9.82507
譬如有人	-9.82544
申	-9.82557
聲聞乘	-9.828
三業	-9.82914
聞此	-9.82964
義者	-9.83004
離欲	-9.83079
為一	-9.83084
佛果	-9.83197
所住	-9.83219
如人	-9.83233
勤苦	-9.83356
於如來	-9.83437
短	-9.83538
過患	-9.83601
賢護	-9.83625
無所住	-9.83719
莖	-9.83785
意業	-9.83851
行故	-9.83851
真諦	-9.83908
世人	-9.84001
是名菩薩	-9.84041
四天下	-9.8407
但有	-9.84274
諸魔	-9.84337
如其	-9.84366
而說	-9.84405
涅盤	-9.84421
天上	-9.84487
殿	-9.84578
端嚴	-9.84654
臣	-9.84779
哀愍	-9.84816
功德成就	-9.8485
有漏	-9.84855
又云	-9.84872
亦能	-9.84898
何處	-9.84993
限	-9.85114
歡喜踊躍	-9.85118
捨身	-9.85333
亦得	-9.85377
爾時世尊告	-9.85425
慕	-9.85467
前後	-9.8555
菩薩言	-9.8557
陳	-9.85634
滅盡	-9.85748
上妙	-9.85882
真珠	-9.86031
臂	-9.86213
得佛	-9.86286
欲明	-9.86309
至誠	-9.86324
章門	-9.86346
樂聞	-9.86394
十四	-9.86514
南	-9.86548
鬘	-9.86549
如是法	-9.86564
推	-9.86687
經言	-9.867
四方	-9.8671
觀身	-9.86873
背	-9.86926
十方世界	-9.87067
應身	-9.87102
刀	-9.87124
難得	-9.87189
惟	-9.8731
或從	-9.87352
圍遶	-9.87578
心念	-9.87736
如來所說	-9.87904
睡眠	-9.87912
閉	-9.87992
者即是	-9.88067
合集	-9.88111
阿僧祇	-9.88266
居家	-9.88284
執持	-9.88607
寂然	-9.88676
乃是	-9.88676
何謂為	-9.887
塗	-9.88705
三身	-9.88785
所為	-9.88893
三法	-9.88953
此諸	-9.88979
一處	-9.89055
摩尼寶	-9.89064
嚩	-9.89065
暗	-9.89077
亦復不	-9.891
證入	-9.89131
某	-9.89158
仙	-9.89195
增益	-9.89198
剎土	-9.89286
如是說	-9.89317
自知	-9.89445
諸天人民	-9.89634
是諸菩薩	-9.8964
文殊師利菩薩	-9.89653
不如	-9.89713
得名	-9.89766
眾生界	-9.89772
題	-9.89842
國王	-9.8986
有五	-9.89922
諷誦	-9.90005
收	-9.90116
堪	-9.90125
正觀	-9.90127
臨	-9.90129
承事	-9.90133
大菩提	-9.90234
於空	-9.9036
手足	-9.9036
己身	-9.90396
廣明	-9.90396
愍	-9.90444
中道	-9.90453
若我	-9.90499
儀	-9.90569
離垢	-9.90627
是事	-9.90628
念念	-9.90685
解說	-9.90715
此言	-9.9075
色身	-9.90786
解釋	-9.90897
半	-9.90901
不絕	-9.91103
身體	-9.91134
十念	-9.91213
迦樓羅	-9.91214
如前	-9.91215
頂禮佛足	-9.91286
階	-9.91286
從此	-9.91303
唯除	-9.91341
須彌山	-9.91362
知識	-9.91392
善說	-9.91397
皆能	-9.91415
無取	-9.91439
剎那	-9.9146
建	-9.91545
亦應	-9.91558
惡知識	-9.91572
無別	-9.91657
誓願	-9.91685
教授	-9.91763
如實了知	-9.91774
無眾生	-9.91776
殺生	-9.91821
得果	-9.91895
之因	-9.91972
乞食	-9.91983
正勤	-9.92059
輩	-9.92094
入解	-9.92127
忘失	-9.92145
自他	-9.92197
護持	-9.92283
具足成就	-9.92336
何者是	-9.92342
緊那羅	-9.92367
資糧	-9.92385
累	-9.92398
觀音	-9.92409
由旬	-9.92425
何等為十	-9.92476
例	-9.92537
梵王	-9.92556
願生	-9.92568
伎樂	-9.92583
諍	-9.92595
所證	-9.92662
能斷	-9.92712
聖眾	-9.92763
如我	-9.92807
欣	-9.92828
天中	-9.92851
士	-9.92915
性故	-9.93118
大力	-9.93158
登	-9.9316
減	-9.93234
傷	-9.93252
求菩提	-9.93362
知見	-9.93391
何法	-9.93422
之道	-9.93424
娑婆	-9.93451
十三	-9.93503
泥洹	-9.9353
化眾生	-9.9357
臥	-9.93588
資	-9.93601
逐	-9.93652
不可見	-9.93652
周匝	-9.93663
不動如來	-9.9376
微笑	-9.93805
夢中	-9.93846
無上道	-9.93853
憙	-9.93858
中有三	-9.93894
者謂	-9.93965
斷除	-9.93983
憶	-9.94096
長夜	-9.94109
無復	-9.94138
而常	-9.94152
我想	-9.94201
放光	-9.94254
所聞	-9.94265
不及	-9.94305
無性	-9.94324
步	-9.94344
如空	-9.94413
其意	-9.94421
悉令	-9.9443
無諸	-9.9445
亦當	-9.94454
自性清淨	-9.94474
兒	-9.94512
纏	-9.94526
旨	-9.94543
誦	-9.94596
禁戒	-9.94769
聞是	-9.94782
七地	-9.94818
微細	-9.94902
若彼	-9.94908
舍宅	-9.94939
三有	-9.94993
於未來世	-9.95055
修集	-9.95065
佛菩提	-9.95071
臺	-9.95113
故得	-9.95144
六入	-9.95148
此法門	-9.95307
開化	-9.95318
微塵	-9.95337
一句	-9.95349
諸外道	-9.95448
我身	-9.95487
施主	-9.95494
此文	-9.95552
以法	-9.95555
師子吼	-9.95692
暢	-9.95819
蟲	-9.95847
只	-9.95862
又以	-9.95867
偈言	-9.95885
無量無數	-9.95924
代	-9.95951
優婆夷	-9.95979
百億	-9.9598
熾然	-9.95983
彼諸眾生	-9.96045
留	-9.96071
無間	-9.96138
種性	-9.96263
無限	-9.96273
麗	-9.96302
我我所	-9.96311
隨念	-9.96313
寺	-9.96359
今即	-9.96361
不共	-9.96415
樹下	-9.96434
即有	-9.96435
諸天子	-9.96493
唯佛	-9.96568
不解	-9.96584
損害	-9.96602
」,	-9.96603
能說	-9.96619
無差別	-9.96626
愛著	-9.96753
彼諸菩薩	-9.96787
皆大歡喜	-9.96799
供養如來	-9.96813
無等	-9.96846
經文	-9.96858
摩尼	-9.9689
是經	-9.96896
此翻	-9.96936
生歡喜	-9.9697
希	-9.9705
所說法	-9.97051
養	-9.97072
幻師	-9.97117
行施	-9.97223
妻子	-9.97249
血	-9.97297
氣	-9.97406
苦樂	-9.97427
富	-9.97533
中說	-9.97546
善心	-9.97549
當為	-9.9761
說者	-9.97645
若此	-9.97663
金色	-9.97788
重擔	-9.97824
非一	-9.97946
善業	-9.97946
三毒	-9.97947
於一切眾生	-9.98028
當有	-9.98052
逮得	-9.98147
一切菩薩	-9.98164
此之	-9.9818
禁	-9.98301
得阿耨多羅三藐三菩提	-9.98314
人也	-9.98343
而作	-9.98385
多少	-9.98394
汝當	-9.98496
▁[	-9.98509
交	-9.98565
田	-9.98602
託	-9.98639
預	-9.98641
四住地	-9.98664
是心	-9.98705
超越	-9.98724
而為說法	-9.9878
諸經	-9.9881
九品	-9.98819
慚愧	-9.98829
所欲	-9.98851
若爾	-9.98894
為體	-9.98917
不二	-9.99146
為我	-9.99421
或以	-9.99423
能為	-9.99425
移	-9.99466
寶藏	-9.99481
所須	-9.99498
是菩薩行	-9.99544
敷	-9.99626
經中	-9.99634
乞	-9.99674
大乘菩薩藏正法經	-9.99693
圍繞	-9.99745
佛出世	-9.9975
之想	-9.99793
願生彼國	-9.99826
弟	-9.99893
作是言	-9.99966
三德	-9.9997
喜悅	-10.0005
岸	-10.0008
頂禮	-10.0012
緣生	-10.0016
歷	-10.0022
義故	-10.0037
已得	-10.0037
所觀	-10.0043
作業	-10.0048
赤	-10.0048
不自	-10.005
心者	-10.0058
會中	-10.0058
知彼	-10.0076
生處	-10.0076
餘人	-10.0083
而來	-10.0083
皆從	-10.0085
正受	-10.0086
種類	-10.0089
聚落	-10.0093
染著	-10.01
鉢囉	-10.0102
威力	-10.0102
熾盛	-10.0104
禮敬	-10.0121
請問	-10.0122
身見	-10.0124
摧伏	-10.0124
金銀	-10.0133
加持	-10.014
依正	-10.0147
知其	-10.0158
不隨	-10.0163
德本	-10.0165
蘇	-10.0171
今者	-10.0177
於眾生	-10.0178
難可	-10.0179
樓	-10.0181
時節	-10.0191
經法	-10.0201
三十二相	-10.0227
密迹金剛力士	-10.0229
憂惱	-10.0231
娑	-10.0232
住地	-10.0233
如上	-10.0241
為相	-10.0244
無厭足	-10.0246
作善	-10.025
又此	-10.0252
諸業	-10.0254
不在	-10.0255
上品	-10.0259
不修	-10.0268
後明	-10.0285
而去	-10.0286
是為菩薩	-10.0287
道法	-10.0295
況復	-10.0296
八地	-10.0296
了義	-10.03
光照	-10.0303
展轉	-10.0305
後際	-10.0309
禮拜	-10.0309
菩提者	-10.0309
於世	-10.031
天下	-10.0318
常見	-10.0331
甚難	-10.0334
波羅蜜多	-10.0335
無處	-10.0336
我是	-10.0336
勸修	-10.0339
而此	-10.0342
不了	-10.0345
曲	-10.035
其國	-10.0351
雜染	-10.0363
為善	-10.0368
我作佛時	-10.0372
焉	-10.0373
犯戒	-10.0375
準	-10.0376
壽量	-10.0381
若住	-10.0385
云何得	-10.0397
慮	-10.0401
我聞	-10.0411
復於	-10.0419
無行	-10.042
無疑	-10.0422
我以	-10.043
國中	-10.0432
諸見	-10.0435
遊行	-10.0448
何因緣	-10.0461
柱	-10.0465
依報	-10.047
四明	-10.0475
敬禮	-10.0475
波旬	-10.0477
是身	-10.0482
覺了	-10.0487
友	-10.0488
呪	-10.0493
染污	-10.0494
怒	-10.0495
於汝意云何	-10.0495
不生不滅	-10.0498
未盡	-10.0503
十二因緣	-10.0509
輒	-10.051
或見	-10.051
性空	-10.0517
流布	-10.0522
一相	-10.0527
數數	-10.0527
為大	-10.0529
若諸菩薩	-10.0531
招	-10.0533
至心	-10.0538
薩	-10.0548
得無生忍	-10.0555
臨終	-10.0561
瓶	-10.0565
妙音	-10.0575
於後	-10.0579
如意	-10.0582
三藏	-10.0586
須菩提言	-10.0587
受苦	-10.0594
魔業	-10.0595
不染	-10.0596
至真	-10.0597
隨喜	-10.0609
意識	-10.0615
亦云	-10.0624
欣喜	-10.0626
防	-10.0635
無起	-10.0643
聞佛	-10.0644
不能得	-10.0644
無所緣	-10.065
八十	-10.0657
花鬘	-10.0667
漏盡	-10.067
之者	-10.0673
不相應	-10.0673
依於	-10.0681
義利	-10.0683
苦集	-10.0688
心行	-10.0691
阿彌陀	-10.0706
無所取	-10.071
妙樂	-10.0711
於諸法中	-10.0712
如是一切	-10.0714
返	-10.0719
王舍城	-10.0722
出過	-10.0722
令人	-10.0723
寶蓋	-10.0725
初識	-10.0726
領	-10.0727
茲	-10.073
初中	-10.0731
放大光明	-10.0751
即知	-10.0757
淺	-10.0758
行人	-10.0764
復有四法	-10.0768
善住	-10.0768
正定	-10.0772
生已	-10.0779
如來所	-10.0784
能了知	-10.0787
願終不	-10.0788
遍滿	-10.079
為諸	-10.0791
所應	-10.0796
改	-10.0797
等心	-10.0801
最後	-10.0806
無所依	-10.0806
施者	-10.0813
精勤	-10.0817
應修	-10.0817
姓	-10.0828
妙色	-10.0829
不入	-10.0832
投	-10.0836
深妙	-10.0838
是故言	-10.0846
畜	-10.0852
若聞	-10.0853
三十	-10.0858
共相	-10.0861
佛知	-10.0861
赴	-10.0862
一切善根	-10.0872
歲	-10.0875
慳悋	-10.0876
不得是	-10.0883
無礙智	-10.0888
法忍	-10.0889
速得	-10.0892
天眾	-10.09
又彼	-10.0901
諸欲	-10.0902
爾時世尊而說偈言	-10.0903
寄	-10.0905
所有眾生	-10.0914
五逆	-10.0915
善趣	-10.0921
園林	-10.0923
佛功德	-10.0932
六波羅蜜	-10.094
未曾有	-10.0941
勤求	-10.0948
言語	-10.0953
者則	-10.0953
所可	-10.0969
阿僧祇劫	-10.097
五濁	-10.0972
轉輪聖王	-10.0975
踊躍	-10.0976
無所畏	-10.0977
時有	-10.0981
天帝	-10.0983
諸世間	-10.0984
無形	-10.0987
希求	-10.0991
不虛	-10.0994
所現	-10.0997
毛	-10.1004
或有眾生	-10.1006
所居	-10.1008
八方	-10.1009
無得	-10.1009
特	-10.101
見此	-10.1016
而現	-10.102
說頌曰	-10.1021
事故	-10.1022
亦皆	-10.1032
與我	-10.1033
如汝所說	-10.1034
聲聞眾	-10.1037
非也	-10.1043
承佛威神	-10.1045
不違	-10.1047
元	-10.1049
五蘊	-10.1052
云何菩薩摩訶薩	-10.1053
散亂	-10.1057
於一切處	-10.1059
極樂世界	-10.1065
期	-10.1066
講	-10.1074
善男子善女人	-10.1076
勞	-10.1078
第十	-10.108
如幻化	-10.1081
初又有	-10.1085
彼菩薩	-10.1086
佛者	-10.1095
王宮	-10.1101
心住	-10.1106
勇猛精進	-10.1113
生起	-10.1114
不忘	-10.1115
本際	-10.1118
一生	-10.1119
度眾生	-10.1124
眾多	-10.1124
得涅槃	-10.1126
能以	-10.1127
如夢	-10.1127
兩舌	-10.1127
惡友	-10.113
惡心	-10.1135
少欲	-10.1135
部	-10.1144
月光	-10.1145
謂於	-10.1155
清淨心	-10.1155
右	-10.1156
內心	-10.1157
佛告舍利弗	-10.116
何名	-10.1174
奢摩他	-10.1174
正說	-10.1176
差	-10.1176
耽著	-10.1178
典	-10.1181
能持	-10.1186
諍訟	-10.1186
摩尼珠	-10.1188
呼	-10.1192
或現	-10.1195
積聚	-10.1198
大迦葉	-10.12
經行	-10.1203
眾惡	-10.1216
老死	-10.122
一佛	-10.1223
斷滅	-10.1223
論云	-10.1226
諸弟子	-10.1235
不空	-10.1244
供養佛	-10.1245
歎佛	-10.1249
同一	-10.1254
欲樂	-10.1259
詮	-10.126
此則	-10.1268
十八	-10.1275
而自	-10.1277
語業	-10.1286
之本	-10.1295
議	-10.1298
為是	-10.13
發生	-10.1303
說名	-10.1307
端	-10.1309
生身	-10.1311
震動	-10.1317
不出	-10.1322
出家菩薩	-10.1322
利根	-10.1323
色像	-10.1324
勢力	-10.1326
或時	-10.1331
舊	-10.1336
為令	-10.1337
呵	-10.1339
虛偽	-10.1341
得陀羅尼	-10.1342
但是	-10.1346
作禮	-10.1349
作證	-10.135
前際	-10.1354
童女	-10.1356
空性	-10.1363
亦無所	-10.1377
普照	-10.1381
解云	-10.139
非我	-10.1391
若法	-10.1397
法施	-10.14
算數	-10.1413
化人	-10.1414
若言	-10.1425
不亂	-10.1425
恚	-10.1428
得自在	-10.1433
纏縛	-10.1434
苦行	-10.1436
無滅	-10.1437
此識	-10.1437
忍力	-10.1442
大乘經	-10.1449
東	-10.1456
其數	-10.1456
卷	-10.1457
逼迫	-10.1466
狐疑	-10.1472
准	-10.1473
不欲	-10.1475
帝王	-10.1487
輕慢	-10.1489
親友	-10.149
尊特	-10.149
請佛	-10.1497
寂意	-10.1501
欲求	-10.1503
徒	-10.1506
常為	-10.1506
修因	-10.1508
段	-10.1509
漸次	-10.1509
八萬	-10.1515
愛敬	-10.1524
欺	-10.153
床	-10.1537
入涅槃	-10.1549
如佛所說	-10.1551
悉得	-10.1557
入一乘	-10.1561
有四種	-10.1561
云何名	-10.1565
是一	-10.1565
軍	-10.1566
轉輪王	-10.1571
與彼	-10.1574
大導師	-10.1575
善調伏	-10.1577
雜色	-10.1587
無量百千	-10.1589
蔽	-10.1592
摧	-10.1601
獄	-10.1603
設我得佛	-10.1604
於佛法	-10.1606
貢高	-10.1607
跋陀羅波梨	-10.1607
習氣	-10.1615
惠	-10.1622
勝義	-10.1626
供養諸佛	-10.1628
護法	-10.163
等無有異	-10.1641
為作	-10.1641
天王	-10.1646
種種莊嚴	-10.1651
彼天	-10.1652
度無極	-10.1659
第九	-10.1661
大哀	-10.1663
以何義故	-10.1666
無色界	-10.167
以一	-10.1682
未來世	-10.1685
婬	-10.1686
頗梨	-10.1687
受想行識	-10.1689
正報	-10.1703
於一	-10.1707
生時	-10.1712
古	-10.1713
於時	-10.1718
言教	-10.1721
述云此第二	-10.1726
見聞	-10.1735
幾	-10.1737
術	-10.1739
隨時	-10.1756
能作	-10.1759
見有	-10.1762
有此	-10.1764
摩訶迦葉	-10.1769
宅	-10.177
於大眾中	-10.1771
更無	-10.1782
求道	-10.179
當以	-10.1798
都無	-10.1803
念處	-10.1806
猛	-10.1807
今言	-10.1807
吹	-10.181
斷諸	-10.1815
諸界	-10.1817
上明	-10.1819
是故名為	-10.1826
有所得	-10.1826
願佛	-10.1826
菩薩藏	-10.1827
是故如來	-10.183
普現	-10.1834
眾生故	-10.184
發意	-10.1843
大慈悲	-10.1845
能見	-10.1853
是故得生	-10.1855
信樂	-10.1862
遙	-10.1862
何等四	-10.1865
行相	-10.1865
觀行	-10.1866
利益眾生	-10.1868
曜	-10.1869
唱	-10.1877
有作	-10.1878
此乘	-10.1906
必有	-10.1908
過於	-10.1908
人身	-10.1909
義也	-10.191
無量清淨佛	-10.1912
勇健	-10.1915
上上	-10.1919
始終	-10.1921
諸善	-10.1921
之眾	-10.1923
稱量	-10.1924
若菩薩	-10.1927
不成	-10.1928
走	-10.193
護國	-10.1931
遭	-10.1931
人中尊	-10.1931
風界	-10.1938
為佛	-10.1938
志求	-10.1949
開士	-10.195
不究竟	-10.1956
今我	-10.1959
宿命	-10.1964
善解	-10.1972
無量壽經	-10.1972
若依	-10.1985
欲使	-10.1988
訶	-10.1992
除滅	-10.2
何緣	-10.201
成辦	-10.201
沙門婆羅門	-10.2016
諸天眾	-10.2035
思想	-10.2036
作如是	-10.204
菩薩亦爾	-10.2041
隨轉	-10.2043
安慰	-10.2061
斷見	-10.2062
不可計	-10.2064
旋	-10.2065
說有	-10.2067
若復有人	-10.2076
瞋怒	-10.2085
急	-10.2087
今經	-10.209
法行	-10.2091
空無	-10.2091
空法	-10.2093
而作是言	-10.2093
天宮	-10.2101
如是了知	-10.2101
利樂	-10.2113
當生	-10.2115
涅槃界	-10.2115
即生	-10.2115
分明	-10.2127
識界	-10.2133
令他	-10.2136
由彼	-10.2138
所有一切	-10.2141
永離	-10.2141
敢	-10.2142
教化眾生	-10.2142
地上	-10.2153
立名	-10.2161
是等	-10.2162
聞之	-10.2167
釋言	-10.2179
生信	-10.2181
為其	-10.2185
彼即	-10.2192
此三千大千世界	-10.2194
理趣	-10.2195
行布施	-10.2196
是菩薩摩訶薩	-10.2199
功德莊嚴	-10.2202
入城	-10.2214
露	-10.2216
善思念之	-10.2217
豈非	-10.2219
盡智	-10.2225
化他	-10.2226
虛誑	-10.2227
不貪	-10.2229
逢	-10.2231
委	-10.2233
在虛空中	-10.224
此說	-10.2243
能信	-10.2249
十七	-10.2262
音響	-10.2268
行法	-10.2268
能除	-10.2274
陀羅尼門	-10.2276
而於	-10.2277
唯然	-10.2278
實無	-10.2287
王位	-10.2287
須摩提	-10.2288
若其	-10.2296
佛所說	-10.23
我復有	-10.2309
以是因緣	-10.2317
為本	-10.2321
隨逐	-10.2329
四十	-10.2331
教令	-10.2333
玄	-10.2342
云何菩薩	-10.2345
水界	-10.2345
前世	-10.2353
知一切法	-10.2357
檀	-10.2358
清淨故	-10.2358
以何	-10.2361
往彼	-10.2364
以自	-10.2364
防護	-10.2373
眾緣	-10.2373
優波離	-10.2374
迎	-10.2374
瞋恨	-10.2376
營	-10.2377
一切佛	-10.2377
到彼岸	-10.2379
五百比丘	-10.2379
釋提桓因	-10.2381
曩	-10.2383
瞻	-10.2385
而白佛言	-10.2386
遶	-10.2387
三千	-10.2388
中生	-10.2389
述云此第三	-10.2391
闕	-10.2393
劫中	-10.2398
黃金	-10.2398
父子	-10.2398
穢土	-10.2402
斯等	-10.2404
正士	-10.2404
不可得故	-10.2405
於人	-10.2406
又於	-10.2411
妙慧	-10.2423
空寂	-10.2424
不令	-10.2427
稱歎	-10.243
常以	-10.2432
得不退轉	-10.2433
起行	-10.2439
惡口	-10.2448
虛空界	-10.2451
珍	-10.2452
能觀	-10.246
事業	-10.2461
若諸眾生	-10.2461
各異	-10.2464
佛德	-10.2464
亦以	-10.2466
不懷	-10.2468
常懷	-10.248
言辭	-10.248
左右	-10.2483
更有	-10.2498
是我	-10.2507
趣入	-10.2508
解脫門	-10.2509
吼	-10.2512
所造	-10.2512
何等名為	-10.2513
能成就	-10.2522
徹	-10.2522
不識	-10.2523
擊	-10.2528
阿閦佛	-10.2532
十方諸佛	-10.2533
還復	-10.2534
衰	-10.2535
穀	-10.254
注	-10.2542
軟	-10.2545
空故	-10.2545
驗	-10.2548
戒行	-10.255
何不	-10.2554
此以何義	-10.2554
哩	-10.2554
告溥首	-10.2555
豈不	-10.2564
佛為	-10.2574
一日	-10.2576
凡有	-10.258
第一義諦	-10.2583
於菩提	-10.2586
非實	-10.2589
唯願世尊	-10.2592
若在	-10.2594
願求	-10.2603
天魔	-10.2607
佛告彌勒	-10.2612
不須	-10.2616
於阿耨多羅三藐三菩提	-10.2616
無邊際	-10.2625
罪業	-10.2626
復為	-10.2631
耳鼻舌身意	-10.2637
忉利天	-10.264
道德	-10.2654
現身	-10.2655
大道	-10.2655
為說法	-10.2658
樂法	-10.2662
將欲	-10.2662
五百人	-10.2669
愚人	-10.267
善本	-10.2671
第二從	-10.2682
六處	-10.2687
發趣	-10.2689
醫	-10.2691
勝解	-10.2691
綺語	-10.2705
擲	-10.2707
右膝著地	-10.2709
當作	-10.271
鐵	-10.272
傍生	-10.2721
願也	-10.2722
富貴	-10.2723
教誨	-10.2729
分齊	-10.2732
此方	-10.2735
轉相	-10.2736
次釋	-10.2739
罵	-10.2744
諸法無	-10.2753
佛地	-10.2755
彼佛國土	-10.2755
作如是說	-10.2755
報應	-10.2756
聖者	-10.2761
四天王	-10.2765
但為	-10.2767
想念	-10.277
常有	-10.277
形像	-10.2791
捉	-10.2792
二見	-10.2794
根性	-10.2797
不墮	-10.2805
苦滅	-10.2805
為二	-10.281
一體	-10.2818
生故	-10.2826
皆以	-10.2826
若復	-10.2842
放光明	-10.2855
與諸	-10.2863
恨	-10.2866
明行足	-10.2867
調御丈夫	-10.2869
殖	-10.2874
試	-10.288
敷演	-10.2882
訓	-10.2886
離一切	-10.2889
劇	-10.2889
免	-10.2892
為得	-10.2897
佛時	-10.2897
衣食	-10.2902
菩薩道	-10.2905
此乃	-10.291
行菩薩行	-10.2911
師子座	-10.2914
由斯	-10.292
弊	-10.292
因緣故	-10.292
自有	-10.2924
處所	-10.2937
文中	-10.2939
經道	-10.2943
就文為	-10.2945
補特伽羅	-10.2956
是如來	-10.2957
初發心	-10.2959
索	-10.2961
墮落	-10.2962
五根	-10.2964
為人	-10.2966
三諦	-10.2966
離相	-10.2971
能滅	-10.2971
無緣	-10.2971
若是	-10.2973
戲	-10.2982
不犯	-10.299
貴	-10.2993
原	-10.2993
形色	-10.2995
值遇	-10.2997
化佛	-10.2999
一切智智	-10.3002
便得	-10.3003
魔事	-10.3005
殺害	-10.3005
法僧	-10.3008
自體	-10.3011
摩睺羅伽	-10.3016
如須彌山	-10.3028
渴	-10.303
因中	-10.303
日光	-10.3033
伺察	-10.3035
現證	-10.3036
受記	-10.3036
阿闍梨	-10.3037
如是思惟	-10.3039
無非	-10.304
慶	-10.3042
志願	-10.3043
三品	-10.3045
得往生	-10.3048
八種	-10.3048
星	-10.3049
歌舞	-10.3049
厚	-10.3049
浮	-10.3051
人間	-10.3051
藉	-10.3051
三輩	-10.3052
脈	-10.3057
即為宣說	-10.3057
適悅	-10.3059
猶若	-10.306
無所作	-10.3062
言詞	-10.3063
行也	-10.3067
種姓	-10.3069
徒眾	-10.3072
五明	-10.3073
我不說	-10.3074
言音	-10.3084
一切功德	-10.3086
若修	-10.3086
無戲論	-10.3087
及其	-10.3089
二義	-10.3095
有其	-10.3098
受身	-10.31
果也	-10.3103
可觀	-10.3109
法相	-10.3114
所持	-10.3115
明佛	-10.312
先明	-10.3121
滅除	-10.3121
受者	-10.3125
是常	-10.3135
負	-10.3137
於道	-10.314
如是舍利子	-10.3144
說是	-10.3145
滅故	-10.3147
香花	-10.3155
不覺	-10.3158
遺	-10.3158
花果	-10.3167
其地	-10.3169
然此	-10.3174
為眾生	-10.3175
有佛	-10.3178
猶如虛空	-10.318
飛	-10.3181
牙	-10.319
有無量	-10.3192
婇女	-10.3192
所念	-10.3194
誑	-10.3197
受樂	-10.3202
善住意天子	-10.3204
諸凡夫	-10.3205
不足	-10.3208
經者	-10.3214
損減	-10.3217
不惜身命	-10.3218
眾善	-10.3222
諸餘	-10.3224
解脫知見	-10.3226
蛇	-10.3228
須臾	-10.3228
眠	-10.323
慈氏	-10.3241
若如是者	-10.3242
得清淨	-10.3243
名增上慢	-10.3247
有無	-10.3247
了達	-10.3251
門者	-10.3251
所在	-10.3253
十億	-10.3263
各自	-10.3272
無自性	-10.3276
即起	-10.3279
世世	-10.3282
三解脫門	-10.3287
善人	-10.3289
懼	-10.3293
依此	-10.3294
清淨戒	-10.3295
何有	-10.3299
落	-10.3302
是故當知	-10.3305
梵音	-10.3306
瞻仰	-10.3317
其相	-10.3318
墮惡道	-10.332
污	-10.3321
於生死	-10.3327
菩薩大士	-10.3331
教人	-10.3336
淨穢	-10.3341
一切善法	-10.3345
不受後有	-10.335
奏	-10.3355
默	-10.3357
大智慧	-10.3359
下品	-10.3363
人法	-10.3367
一切法無	-10.3368
佛名	-10.3371
曠野	-10.3371
其性	-10.3377
所作已辦	-10.3381
顏	-10.3382
及諸菩薩	-10.3383
又言	-10.3384
又非處者	-10.3391
阿閦如來	-10.3395
鬪諍	-10.3395
靈	-10.3396
遍照	-10.3399
臭穢	-10.34
每	-10.3401
避	-10.3405
為緣	-10.3406
在前	-10.3408
南無	-10.3409
縱廣	-10.341
常得	-10.3411
化身	-10.3418
安置	-10.342
智故	-10.3421
妙觀	-10.3421
現神變	-10.3423
偏袒右肩	-10.3424
北	-10.3425
以下明	-10.3434
堂	-10.3435
無生無滅	-10.3436
遠離於	-10.3444
捨於	-10.3445
十劫	-10.3447
佛前	-10.3463
即此	-10.3469
二萬	-10.3475
大慧	-10.3482
住持	-10.3484
增上慢	-10.3486
生彼國	-10.3487
勤行	-10.349
照明	-10.3492
報恩	-10.3496
表示	-10.3508
後結	-10.351
能成	-10.3511
或云	-10.3512
不能知	-10.3513
法音	-10.3514
那由他	-10.3515
於眼	-10.3519
清涼	-10.3521
威光	-10.3537
是眼	-10.3538
無所見	-10.3539
次名	-10.3541
所樂	-10.3547
陀曰	-10.355
八法	-10.3558
其土	-10.3559
究	-10.356
叉手	-10.3564
得益	-10.3567
善住意言	-10.3571
道中	-10.3571
精舍	-10.3573
即從座起	-10.3577
洗	-10.3579
之體	-10.3582
閑	-10.3583
二人	-10.3584
一種	-10.3584
飢渴	-10.3589
在此	-10.3591
眾德	-10.3598
之理	-10.3598
造惡	-10.3601
業道	-10.3601
於身	-10.3601
成阿耨多羅三藐三菩提	-10.3603
佛教	-10.3611
之果	-10.3619
六萬	-10.3623
毀謗	-10.3624
無窮	-10.3633
住世	-10.3634
後一	-10.3634
等故	-10.3635
大德舍利弗	-10.3636
淨業	-10.3638
所致	-10.3642
空智	-10.3655
山林	-10.3656
輪王	-10.3659
大法	-10.3667
報身	-10.3671
覆藏	-10.3674
何人	-10.3675
正思惟	-10.3677
不相	-10.3679
不用	-10.368
法也	-10.3692
說之	-10.3692
無可	-10.3697
求於	-10.3698
隨心	-10.3705
高下	-10.3706
彼無	-10.3707
人所	-10.3713
中輩	-10.3715
動搖	-10.372
所施	-10.3723
金剛手菩薩大祕密主	-10.3729
身光	-10.3732
復次自夢	-10.3733
博	-10.3733
野	-10.3737
我已	-10.3737
行願	-10.3743
碎	-10.3745
能行	-10.3747
無量劫	-10.3753
廢	-10.3754
簡擇	-10.3755
若善男子善女人	-10.3757
殊特	-10.3758
薄伽梵	-10.3759
舒	-10.3759
隨其所	-10.3762
是大	-10.3762
不遠	-10.3762
禽獸	-10.3766
劫數	-10.3769
忽然	-10.3771
我昔	-10.3771
神通力	-10.3773
誰為	-10.3773
作是說	-10.3778
必當	-10.378
勸助	-10.3783
炎	-10.3783
親屬	-10.3786
大精進	-10.3787
船	-10.3787
諸善根	-10.3789
自說	-10.3793
五惡	-10.3793
因緣和合	-10.38
修梵行	-10.3807
之類	-10.3809
釋種	-10.381
諸大眾	-10.3812
精進力	-10.3814
三塗	-10.3817
左	-10.3828
無失	-10.3831
今欲	-10.3835
前三	-10.3839
天耳	-10.384
切	-10.3842
今當	-10.3843
比丘僧	-10.3844
』	-10.3846
戀	-10.3856
火界	-10.3857
汝觀	-10.3859
三義	-10.3866
自心	-10.3868
一味	-10.3872
諸大	-10.3886
彼彼	-10.3893
舍衛	-10.3896
何等為五	-10.3899
稱為	-10.3899
經論	-10.3902
惡行	-10.3904
得此	-10.3912
韋提希	-10.3916
三願	-10.3918
欺誑	-10.3925
得無生法忍	-10.3925
之地	-10.3928
中有四	-10.3928
頭面禮足	-10.3929
身口意業	-10.3935
務	-10.3936
我不	-10.3938
黑闇	-10.394
打	-10.394
愛語	-10.3942
二諦	-10.3942
齒	-10.3946
臥具	-10.3948
不共佛法	-10.3955
樹木	-10.3956
無疑惑	-10.3957
初標	-10.3958
悲心	-10.3959
多劫	-10.396
諸善男子	-10.3961
次有佛名	-10.3961
次辨	-10.3963
廣釋	-10.3965
不爾	-10.397
不肯	-10.3974
菩薩眾	-10.3975
正信	-10.3983
離煩惱	-10.3984
風吹	-10.3984
虎珀	-10.3985
大王當知	-10.3987
亦不見	-10.3988
六道	-10.4001
化主	-10.4002
知是	-10.4006
諸大菩薩	-10.4013
一字	-10.4019
無念	-10.402
染愛	-10.402
相者	-10.4026
身中	-10.4029
其佛	-10.4032
有十	-10.4041
專念	-10.4044
三地	-10.4046
從其	-10.4048
智也	-10.4049
吾我	-10.4051
恭敬供養	-10.4051
復次寂慧	-10.406
既是	-10.406
之教	-10.4061
瑞	-10.4062
悕望	-10.4064
成道	-10.4082
一云	-10.4089
覺分	-10.4093
勝也	-10.4093
信者	-10.4094
佛之	-10.4106
佛眼	-10.4117
缺	-10.4118
墜	-10.4119
付	-10.4123
書寫	-10.4123
讀	-10.4126
毀呰	-10.4127
玉	-10.4128
錯	-10.413
資具	-10.413
睡	-10.4131
馱	-10.4133
修治	-10.4134
大城	-10.4134
烏	-10.4136
憎嫉	-10.4136
為諸菩薩	-10.4137
牛王	-10.4138
狗	-10.4139
尾	-10.4139
婬怒癡	-10.4142
仁賢	-10.4142
馬瑙	-10.4144
菩薩乘	-10.4145
求法	-10.4146
作大	-10.4146
菩薩摩訶薩行尸羅波羅蜜多時	-10.4147
問答	-10.4151
去來	-10.4152
資生	-10.4155
心如	-10.4159
如是菩薩	-10.4164
無放逸	-10.4165
不觀	-10.4166
若說	-10.4168
方得	-10.4168
大明	-10.4169
得大	-10.4171
華嚴	-10.4172
如是乃至	-10.4175
非色	-10.4176
總明	-10.418
從彼	-10.4182
堪任	-10.4184
久住	-10.4186
志樂	-10.4187
數量	-10.4199
隨入	-10.4205
常當	-10.4208
其餘	-10.421
勝事	-10.4211
緣故	-10.4214
恣	-10.4215
觀彼	-10.4215
智人	-10.4218
剎中	-10.4221
波羅	-10.4228
斷絕	-10.4236
胎生	-10.4237
作惡	-10.4239
恐懼	-10.4241
生淨信	-10.4244
魔王	-10.4248
妙花	-10.4274
之物	-10.4276
續	-10.4276
驚	-10.4281
人乎	-10.429
有八	-10.4291
彼佛剎中	-10.4292
未聞	-10.4292
以諸	-10.4294
得無垢女	-10.4298
因此	-10.4302
善修	-10.4302
諸善法	-10.4303
誡	-10.4305
所愛	-10.4308
爾時世尊欲重宣此義而說頌曰	-10.4309
慧力	-10.431
乳	-10.4313
徵	-10.4315
麼	-10.4316
牢獄	-10.432
電得	-10.432
狂	-10.4321
寒	-10.4321
偷盜	-10.4322
見是	-10.4323
如是受持	-10.4323
所以然者	-10.4323
或生	-10.4324
不可稱計	-10.4328
告言	-10.4328
貫	-10.433
漸漸	-10.433
合成	-10.4333
孔	-10.4335
豈異	-10.4337
欣樂	-10.4341
無所行	-10.4343
非可	-10.4349
誰能	-10.4351
為證	-10.4351
同時	-10.4359
臨命終時	-10.4362
悉知	-10.4363
或為	-10.4367
倚	-10.4376
諸眾生等	-10.4378
良	-10.4382
無上正真道	-10.4384
難思	-10.4384
於正法	-10.4385
二邊	-10.439
希望	-10.4395
慳貪	-10.4396
勝行	-10.4405
應說	-10.4405
大悲心	-10.4407
復問	-10.4417
不然	-10.4418
尊者阿難	-10.4419
無有異	-10.442
貌	-10.442
華鬘	-10.4422
竭	-10.4423
侍者	-10.4434
於佛所	-10.4436
病苦	-10.4438
現微笑	-10.4439
所出	-10.4439
載	-10.4441
劍	-10.4442
何等為	-10.4446
一切種智	-10.4447
般涅槃	-10.4459
平等心	-10.4462
如來身	-10.4467
邪行	-10.4471
三名	-10.4474
聞如是	-10.4475
慧眼	-10.4479
乖	-10.4481
菩提分	-10.4483
何為	-10.4487
無生滅	-10.4488
無與等	-10.449
遵	-10.449
永斷	-10.4496
悲愍	-10.4496
所趣	-10.4497
修羅	-10.4497
行中	-10.4499
勝法	-10.4501
若非	-10.4503
植	-10.4506
復說	-10.4509
願樂欲聞	-10.4509
毘尼	-10.451
兄	-10.4512
山王	-10.4513
若不爾者	-10.4514
菩提分法	-10.4518
毘琉璃	-10.4518
諸苦惱	-10.4518
脩	-10.4519
成滿	-10.4519
召	-10.4522
甲	-10.4522
幽	-10.4522
仍	-10.4523
飢	-10.4526
聖教	-10.4528
瞋心	-10.4529
無數劫	-10.4543
文云	-10.4544
上首	-10.4545
而行布施	-10.4546
勝於	-10.455
得入	-10.4553
善學	-10.4555
述云第二	-10.4558
靡不	-10.4561
我於爾時	-10.4565
而悉	-10.4566
甚多	-10.4571
婬欲	-10.4573
果德	-10.4576
常修	-10.458
於三界	-10.4585
菩薩成就四法	-10.4588
恒河沙	-10.4589
教法	-10.4594
是初地	-10.4595
幢幡	-10.4597
貪心	-10.4598
命根	-10.4603
之上	-10.4607
志性	-10.4608
即見	-10.4611
或在	-10.4614
能與	-10.4621
遍知	-10.4623
如是諸	-10.4624
不名	-10.4624
或名	-10.4624
是三地	-10.4631
生盲	-10.4633
無依	-10.4635
將護	-10.4635
一切大眾	-10.4637
問佛	-10.4638
此處	-10.4641
之聲	-10.4641
若為	-10.4646
曾無	-10.4651
以來	-10.4652
其上	-10.4654
自見	-10.4661
百劫	-10.4662
上煩惱	-10.4663
因也	-10.4664
無諍	-10.4665
無生忍	-10.4675
其光	-10.4677
此章	-10.468
洲	-10.4687
有二義	-10.4688
人眾	-10.4699
金寶	-10.47
在彼	-10.4702
萬行	-10.4704
怨家	-10.4711
阿須倫	-10.4715
伴	-10.4717
沈	-10.4719
煩	-10.4719
嬰兒	-10.4722
一切人	-10.4723
隔	-10.4723
不滿	-10.4725
魚	-10.4728
盜	-10.4732
復有四事	-10.4736
功勳	-10.4737
無退	-10.4738
單	-10.4739
復更	-10.4741
當知是人	-10.4743
普為	-10.4745
不假	-10.4745
百歲	-10.4746
勸令	-10.4747
正智	-10.4748
諸仁者	-10.4755
梵云	-10.4755
所覆	-10.4758
合會	-10.4758
遷	-10.4759
善不善	-10.4761
而非	-10.4768
六根	-10.477
壽者	-10.4774
不轉	-10.4776
疑網	-10.4776
相見	-10.4778
化度	-10.4783
證也	-10.4785
寂慧當知	-10.4786
所不能	-10.4789
穢惡	-10.4795
顧	-10.4801
捨諸	-10.4805
法輪	-10.4807
知之	-10.4809
嫉	-10.4812
何故不	-10.4816
成熟眾生	-10.482
勝智	-10.4825
彰其	-10.4826
顯勝	-10.483
用是故	-10.4839
假令	-10.4842
四聖諦	-10.4854
七重	-10.4855
能了	-10.4858
欲見	-10.4862
隨應	-10.4876
北方	-10.4876
冠	-10.4878
佛境界	-10.4879
照曜	-10.4887
出現於世	-10.4896
釋之	-10.4899
大光明	-10.4899
為四	-10.4901
奉事	-10.4903
牽	-10.4909
從佛	-10.4913
我亦願	-10.4913
問也	-10.4915
其名曰	-10.4915
澤	-10.4917
四攝	-10.4918
工巧	-10.4919
至于	-10.492
空無相無願	-10.4921
任持	-10.4923
釋師子	-10.4923
惡法	-10.4923
跡	-10.4923
割	-10.4924
冷	-10.4924
或聞	-10.4925
酬	-10.4926
園苑	-10.4926
是無常	-10.4927
是究竟	-10.4928
昏	-10.493
皮	-10.4931
庶	-10.4932
尊貴	-10.4932
佛乘	-10.4937
君	-10.4937
以諸菩薩	-10.4944
第三從	-10.4949
形相	-10.4951
悟入	-10.4954
不具	-10.4966
明智	-10.4966
亦令	-10.4967
昔日	-10.4968
必得	-10.4968
於十方	-10.4971
又二	-10.4972
樹林	-10.4973
必定	-10.4974
到已	-10.4975
成佛道	-10.498
栴檀	-10.498
救濟	-10.4982
不敢	-10.4984
一諦	-10.4984
妙香	-10.4984
我禮	-10.4986
罪福	-10.4987
就中	-10.4988
福報	-10.4992
鏡	-10.4994
佛告文殊師利	-10.4996
諸人	-10.4998
般泥洹	-10.4998
光色	-10.4999
過去未來現在	-10.5001
謂是	-10.5001
良以	-10.5008
百千萬億	-10.5017
願說	-10.5025
諸群生	-10.504
慈愍	-10.504
非常	-10.5041
堅實	-10.5042
合掌恭敬	-10.5046
得忍	-10.5047
有如是	-10.5052
四眾	-10.5056
燈明	-10.5061
大意	-10.5062
等覺	-10.5067
逼	-10.5074
不能了知	-10.5074
此說為	-10.5078
觀世音	-10.5079
念言	-10.508
則非	-10.5082
眼識	-10.5088
十善	-10.5094
天龍	-10.5101
悔過	-10.5113
授與	-10.5115
可愛	-10.5117
剋	-10.512
未生	-10.512
觀之	-10.5123
兩足尊	-10.5126
奴婢	-10.5128
罵詈	-10.513
映	-10.5134
八地以上	-10.5134
良藥	-10.5136
開導	-10.5137
一日一夜	-10.5137
炬	-10.5138
別明	-10.5144
二十五	-10.5145
長短	-10.5145
有世界名	-10.515
百千劫	-10.5152
無少	-10.5154
久遠	-10.5156
隨彼	-10.5162
權實	-10.5165
生淨土	-10.5165
邪命	-10.5167
護念	-10.5168
前中有二	-10.5169
消滅	-10.5182
能忍	-10.5186
我亦	-10.5188
惜	-10.5192
淨故	-10.5194
菩薩摩訶薩以	-10.5198
如是供養	-10.5199
遠離一切	-10.5203
知法	-10.5205
諸患	-10.5208
勸請	-10.5212
為宗	-10.5216
當復	-10.5217
若諸	-10.5217
有緣	-10.5218
二百	-10.5219
?「	-10.5222
得人身	-10.5227
其聲	-10.5233
充	-10.524
中品	-10.5242
之性	-10.5247
捨命	-10.5249
大本	-10.5249
林中	-10.5254
與之	-10.5264
狀	-10.5264
為一切眾生	-10.5265
修菩薩行	-10.5266
奇特	-10.5268
唯是	-10.5271
華香	-10.5275
依彼	-10.5276
常念	-10.5277
乃為	-10.5278
繩	-10.5284
樂於	-10.5291
能善	-10.5292
婦	-10.5294
別體	-10.5294
說法時	-10.5297
於自	-10.5303
二智	-10.5304
為菩薩	-10.531
魔波旬	-10.531
獨覺	-10.5312
羅網	-10.5312
非眼	-10.5313
心清淨	-10.5318
被甲	-10.5319
十善業道	-10.5321
十九	-10.5322
何得	-10.5323
變異	-10.5324
心淨	-10.5324
三分	-10.5325
天帝釋	-10.5329
震	-10.5337
今正是時	-10.5337
瞿曇	-10.5338
亦為	-10.5338
何謂菩薩	-10.5338
黨	-10.5339
屈	-10.534
履	-10.534
得是	-10.5341
從座而起	-10.5341
人非人等	-10.5342
法器	-10.5345
開悟	-10.5349
羸	-10.5349
鎧	-10.535
有佛頂中光明照	-10.5351
羅睺羅	-10.5352
成最正覺	-10.5352
諫	-10.5354
若善男子	-10.5355
止息	-10.5356
故今	-10.5357
即從坐起	-10.5357
違背	-10.536
心生歡喜	-10.5365
彼心	-10.5374
眾祐	-10.5378
惡魔	-10.538
最尊	-10.5381
過惡	-10.5386
樂著	-10.5388
使人	-10.5396
乾闥婆等	-10.5398
若有比丘	-10.5398
菩薩觀身	-10.54
閑居	-10.5403
已見	-10.5404
卿	-10.5407
不愛	-10.5408
第三明	-10.5409
以神通力	-10.541
思議	-10.5413
如如	-10.5413
水中	-10.5414
民	-10.5421
即得往生	-10.5424
所縛	-10.5425
慈悲心	-10.5432
勝相	-10.5434
其體	-10.5436
遙見	-10.5437
摩訶衍	-10.5443
獸	-10.5445
心性	-10.5447
我成佛	-10.545
車𤦲	-10.545
寶幢	-10.5452
如來法身	-10.5453
善護	-10.546
不可盡	-10.5465
與佛	-10.5469
詐	-10.5471
於正行	-10.5473
助道	-10.5476
墮於	-10.5477
無學	-10.5479
一切法皆	-10.5479
令此	-10.548
大會	-10.5484
修觀	-10.5487
最初	-10.549
斷惑	-10.5491
即入	-10.5494
不正	-10.5495
下釋	-10.5496
須知	-10.5499
無煩惱	-10.55
不敬	-10.5502
頗	-10.5504
本覺	-10.551
光明照	-10.5513
眾生心	-10.5515
法教	-10.5518
專心	-10.552
詞	-10.5522
幡	-10.5524
空界	-10.5526
復生	-10.5526
如來藏者	-10.5526
淳	-10.5535
善來	-10.5536
則為欺誑	-10.554
藥叉	-10.5541
無憂	-10.5542
條	-10.5545
有為無為	-10.5547
誠實	-10.5548
優	-10.5551
波羅提木叉	-10.5552
卑	-10.5553
以是緣故	-10.5554
汝見	-10.5554
氷	-10.5559
極重	-10.5561
汝今當知	-10.5563
擁護	-10.5564
緣覺乘	-10.5566
以慧	-10.5567
弱	-10.5568
開示演說	-10.5572
一偈	-10.5572
後時	-10.5573
詣佛所	-10.5575
夏	-10.5577
無生智	-10.558
諸入	-10.5581
難知	-10.5583
不厭	-10.5586
何因	-10.5586
常生	-10.5587
宮中	-10.5589
甘	-10.559
非人	-10.5594
逼惱	-10.5594
名義	-10.5596
奉施	-10.5609
勝處	-10.5611
之內	-10.5611
飛行	-10.5613
以智	-10.5614
一切行	-10.5617
繞	-10.562
弘誓	-10.5623
歡	-10.5627
今謂	-10.563
疑心	-10.5632
得未曾有	-10.5633
章句	-10.5634
普令	-10.5636
真子	-10.5637
女言	-10.5642
金剛手	-10.5644
此界	-10.5645
是諸眾生	-10.5656
聞經	-10.5656
盲	-10.5656
吉	-10.5658
汝應	-10.5659
當知此	-10.5662
一切世界	-10.5663
同事	-10.5665
求佛	-10.5667
是實	-10.5668
十千	-10.5669
大富	-10.5672
柔和	-10.5675
行時	-10.5686
貪瞋	-10.5694
族	-10.57
即佛	-10.5702
然燈	-10.5703
萬善	-10.5703
閻浮	-10.5714
若離	-10.5724
一切聲聞	-10.5725
能感	-10.5725
現世	-10.573
釋梵	-10.5732
熏	-10.5733
此道	-10.5734
從是	-10.5734
無物	-10.5735
故稱	-10.5735
搖	-10.5736
盡故	-10.5736
阿難陀	-10.5744
成如是智	-10.5745
香氣	-10.575
實性	-10.575
道心	-10.5751
更不	-10.5753
醫藥	-10.5753
行菩薩	-10.5754
世諦	-10.5756
阿難白佛言	-10.5757
羅漢辟支	-10.5758
初文	-10.5764
通名	-10.5769
以何因緣	-10.577
點	-10.5772
偏袒右肩右膝著地	-10.5774
一行	-10.5776
學者	-10.5777
噉	-10.5779
愈	-10.5779
地前	-10.578
行住坐臥	-10.5782
畫	-10.5782
經曰設我得佛至不取正覺	-10.5783
令住	-10.5786
國城	-10.5787
飯	-10.5789
我能堪任	-10.5789
送	-10.5789
兄弟	-10.5792
慇懃	-10.5793
頒宣	-10.5796
邪道	-10.5796
塞	-10.5797
王波斯匿	-10.5799
何等為二	-10.5799
壽終	-10.5802
為我說	-10.5807
踰	-10.5812
又有	-10.5813
聚集	-10.5813
憒閙	-10.5821
五戒	-10.5822
勝鬘夫人	-10.5822
應如是知	-10.5823
功德者	-10.5828
諸法性	-10.5829
此是如來	-10.5833
飯食	-10.5839
能捨	-10.5841
諸佛世界	-10.5842
之後	-10.5842
設使	-10.5843
亦不得	-10.5845
二乘人	-10.5848
攝持	-10.5849
當得作佛	-10.5851
悉了知	-10.5852
身口	-10.5854
福業	-10.5855
爾所	-10.5859
未有	-10.5859
有為法	-10.586
總舉	-10.5867
百千億	-10.5869
善根力故	-10.5869
頌曰	-10.5869
作諸	-10.5877
不相違	-10.5882
自下第二	-10.5884
給	-10.5886
說法者	-10.5887
常在	-10.589
糞	-10.5891
是名如來	-10.5891
為名	-10.5892
道諦	-10.5892
是故我	-10.5898
病人	-10.5898
他心	-10.5899
臭	-10.59
歌	-10.59
如是四法	-10.5902
同前	-10.5902
悟道	-10.5902
行業	-10.5902
歡悅	-10.5906
而為上首	-10.5906
以顯	-10.591
皆共	-10.5911
可以	-10.5913
三歸	-10.5914
之門	-10.5933
有諸	-10.5938
相隨	-10.5947
寂定	-10.5948
對曰	-10.5952
以依	-10.5962
於地	-10.5963
彼佛世尊	-10.5964
截	-10.5965
無依止	-10.5968
世尊告	-10.5971
墮地獄	-10.5971
多諸	-10.5972
身口意	-10.5975
活	-10.5981
初釋	-10.5982
契	-10.5983
無生法忍	-10.5983
涌	-10.5987
堅持禁戒	-10.5987
當令	-10.5987
大千	-10.5988
唐	-10.5988
白佛	-10.599
信根	-10.5991
南西北方四維上下	-10.5994
那羅延	-10.5997
阿閦佛剎	-10.5998
停	-10.5999
無義	-10.6
第	-10.6001
帝釋天主	-10.6001
凡夫法	-10.6003
杖	-10.6003
求生	-10.6004
以何緣故	-10.6005
尸	-10.6005
信受奉行	-10.6007
諮問	-10.6008
統	-10.6008
振	-10.6009
塗香	-10.601
危	-10.601
邪婬	-10.601
修慧	-10.6011
偽	-10.6013
健	-10.6015
固	-10.6015
梨	-10.6015
為物	-10.6015
濕	-10.6016
我能堪忍	-10.6016
側	-10.6018
榮	-10.6019
譬如虛空	-10.6021
多所	-10.6022
何等為八	-10.6023
瘡	-10.6023
正命	-10.6024
項	-10.6024
繁	-10.6027
波斯匿王	-10.6027
說我	-10.6028
推求	-10.6029
誘	-10.6029
虫	-10.6031
毀壞	-10.6032
虛空中	-10.6033
唯然世尊	-10.6033
不恭敬	-10.6035
消除	-10.6037
諸龍	-10.604
非身	-10.604
成就如是	-10.6045
取相	-10.6047
就初	-10.6053
諸佛所	-10.6054
如來至真	-10.6055
恐畏	-10.6061
龍樹	-10.6061
五道	-10.6064
當作佛	-10.6064
淨行	-10.6065
悉無	-10.6065
大臣	-10.6068
賢者阿難	-10.6074
以此善根	-10.608
不思	-10.6081
阿羅漢上	-10.6083
作此	-10.6087
無際	-10.6089
所轉	-10.6089
集會	-10.609
妙覺	-10.609
所發	-10.6091
億百千	-10.6106
自然去	-10.6113
本淨	-10.612
諸惡趣	-10.6122
度者	-10.6126
生長	-10.6129
當於	-10.6129
諸聲聞眾	-10.6137
無上正真之道	-10.6146
何時	-10.6147
花香	-10.6155
他化自在天	-10.6156
善安住	-10.6158
辦	-10.6163
證信	-10.6168
道行	-10.6172
如來身者	-10.6176
能破	-10.6177
求索	-10.6183
國界	-10.6186
自歸	-10.6188
為上	-10.6188
角	-10.6196
滅壞	-10.6202
映蔽	-10.6202
當成	-10.6204
无	-10.6207
一生補處	-10.6209
即有其	-10.6211
肩	-10.6212
南方	-10.6215
於大乘	-10.6217
諸漏	-10.6221
我有光名	-10.6221
如來了知	-10.6222
已生	-10.6225
復言	-10.6228
滅罪	-10.6229
唯一	-10.6229
大水	-10.6232
種族	-10.6232
色者	-10.6233
須陀洹	-10.6233
競	-10.6234
中出	-10.6235
遍覆	-10.6237
芥子	-10.6239
當觀利養	-10.6241
見之	-10.6242
唎	-10.6242
源	-10.6246
撿	-10.6247
如是清淨	-10.6249
自謂	-10.625
萬二千	-10.6251
法義	-10.6251
追	-10.6253
見我	-10.6255
涉	-10.6256
契經	-10.6257
扇	-10.6258
除斷	-10.626
大梵天王	-10.6261
調達	-10.6261
以得	-10.6262
恒河沙等	-10.6263
義理	-10.6267
諍論	-10.6267
無力	-10.6268
汝於	-10.6273
入道	-10.6273
影像	-10.6273
大涅槃	-10.6273
下至	-10.6278
三句	-10.6284
或作	-10.6285
已說	-10.6289
二釋	-10.6291
彼有	-10.6295
滅後	-10.6299
慧命	-10.6304
界中	-10.6306
不毀	-10.6306
於前	-10.6307
若干種	-10.6311
夜摩天	-10.6315
遠離諸	-10.6316
當獲	-10.6318
十方佛	-10.6321
當學	-10.6323
各以	-10.6326
言我	-10.6331
終無	-10.6332
道理	-10.6333
阿字	-10.6337
理家	-10.6344
如是大王	-10.6346
發言	-10.6352
無有能	-10.6355
微妙法	-10.6371
安處	-10.6371
除疑	-10.6371
為首	-10.6372
六地	-10.6374
平等故	-10.6375
隱覆	-10.6375
名也	-10.6377
大威德	-10.6379
香華	-10.6385
若能如是	-10.6388
卷第二十	-10.6388
諸眾生故	-10.6388
為惡	-10.6391
利眾生	-10.6395
此間	-10.6395
即自	-10.6397
斷故	-10.6402
說也	-10.6404
日夜	-10.6404
膝	-10.6405
之所說	-10.6408
身分	-10.6409
中下	-10.641
今以	-10.6411
勝進	-10.6412
諸所	-10.6415
照耀	-10.642
彼經	-10.6428
食已	-10.643
大雄	-10.6431
功用	-10.6436
彼眾生	-10.6437
降魔	-10.6438
其行	-10.644
都無有	-10.644
令諸	-10.6444
阿修羅王	-10.6449
疑悔	-10.6449
是道	-10.645
生法	-10.6456
獻	-10.646
阿那含	-10.646
實有	-10.6462
中有佛項中光明照	-10.6464
如法界	-10.6464
災	-10.6468
納	-10.6468
信施	-10.6468
以成	-10.6473
校	-10.6475
朗	-10.6475
刺	-10.6476
孤	-10.648
盧	-10.648
錄	-10.6481
希有世尊	-10.6481
生希有心	-10.6482
令眾生	-10.6483
於其中間	-10.6483
猶豫	-10.6486
伏藏	-10.6486
刀杖	-10.6487
氏	-10.6488
長養	-10.6489
本末	-10.6489
泥犁	-10.6491
油	-10.6494
空閑	-10.6495
以佛	-10.6495
恩愛	-10.6495
調御	-10.6498
講堂	-10.6498
佛語阿難	-10.6499
長老	-10.65
當於爾時	-10.6501
應生	-10.6507
可取	-10.6514
阿羅漢辟支佛	-10.6516
一切如來	-10.6517
於空中	-10.6525
成等正覺	-10.6527
出家者	-10.6529
至此	-10.653
既見	-10.6535
無所生	-10.6537
悋	-10.6541
若諸菩薩修	-10.6545
生天	-10.6546
萬里	-10.6547
斯為	-10.6547
八十俱胝	-10.6548
門中	-10.6549
所獲	-10.6551
阿彌陀佛國	-10.6555
其剎	-10.6558
實語	-10.6566
有七	-10.6569
受諸	-10.6569
娑婆世界	-10.6569
為之	-10.6579
邊見	-10.6585
所修行	-10.6587
開解	-10.6592
斯義	-10.6596
妙好	-10.6599
初生	-10.6601
調順	-10.6603
四面	-10.6608
善見	-10.6609
念佛三昧	-10.6615
有生	-10.6617
有法	-10.6618
尚不	-10.6621
識知	-10.6623
悉為	-10.6624
大歡喜	-10.6628
捨心	-10.6636
福行	-10.6638
見法	-10.6647
師長	-10.665
汝可	-10.6656
如是名為	-10.6658
取其	-10.6659
女身	-10.6665
後生	-10.6665
不能動	-10.6669
白法	-10.667
住者	-10.6673
隨義	-10.6676
僧祇	-10.6676
奉持	-10.6677
波若	-10.6678
多人	-10.6679
於此法中	-10.668
無減	-10.668
乃有	-10.6693
善權方便	-10.6698
牒前	-10.6699
優陀夷	-10.6703
並是	-10.6706
鈍	-10.6706
經說	-10.6706
我生已盡	-10.6708
保	-10.6709
之要	-10.671
自性離故	-10.6712
證法	-10.6712
凡所	-10.6713
諸漏已盡	-10.6714
汎	-10.6715
無垢施女	-10.6716
定心	-10.6716
稱揚	-10.6717
菩薩成就	-10.6717
是名菩薩摩訶薩行於方便	-10.6717
敗壞	-10.672
羅剎	-10.672
非但	-10.672
勤精進	-10.672
祇	-10.6721
意生	-10.6721
文殊師利白佛言	-10.6721
無主	-10.6721
滅道	-10.6722
至彼	-10.6722
覩見	-10.6722
譏	-10.6722
無央數劫	-10.6723
!」「	-10.6724
再	-10.6724
朽	-10.6726
聞是法已	-10.6733
聞聲	-10.6733
稍	-10.6735
房	-10.6736
眾相	-10.6736
丈六	-10.6738
說如來不思議	-10.6738
而見	-10.6739
侵	-10.674
魔眾	-10.6742
鳴	-10.6742
平正	-10.6742
是四地	-10.6742
以偈問	-10.6744
場	-10.6745
天神	-10.6745
為三	-10.6747
之慧	-10.6747
性相	-10.6747
諸趣	-10.6748
而可	-10.6749
雪山	-10.6751
知諸法	-10.6753
乏	-10.6754
若施	-10.6754
為眾生故	-10.6755
供給	-10.6757
如是無量	-10.6758
阿蘭若	-10.6758
告族姓子	-10.6758
一切人民	-10.676
菩薩所	-10.6761
今是	-10.6764
下輩	-10.6764
故能	-10.6769
主故	-10.6771
有三義	-10.6771
聖慧	-10.6773
聖法	-10.6775
既言	-10.6776
四無所畏	-10.6776
我能	-10.6776
圓具	-10.6776
怪	-10.6784
我有	-10.6788
此三種	-10.6794
一切眾會	-10.68
而受	-10.6804
而出	-10.6807
今讚	-10.6809
斯乃	-10.6814
報言	-10.6815
無定	-10.6818
千劫	-10.6828
趣於	-10.6828
便生	-10.6829
如水	-10.6831
樂求	-10.6832
之善	-10.6833
善權	-10.6833
作佛時	-10.6835
福智	-10.6835
此非	-10.6836
於斯	-10.6837
闍	-10.6842
翻為	-10.6845
四事	-10.6853
常說	-10.6855
凡聖	-10.6855
證知	-10.6859
無上智	-10.6861
法眼	-10.6861
等類	-10.6862
諸苾芻	-10.6862
當如是知	-10.6863
之辭	-10.6863
菩薩法	-10.6869
白銀	-10.6878
唯願如來	-10.6885
意生身	-10.6886
所入	-10.6888
受報	-10.6888
或說	-10.6897
長者子	-10.6899
亦不離	-10.6902
受之	-10.6903
應如是	-10.6904
不由	-10.6904
娛樂	-10.6906
四無量	-10.6907
常隨	-10.6908
何等三	-10.6911
一依	-10.6912
敵	-10.6914
一切所有	-10.6922
稱佛	-10.6923
兜率天	-10.6932
到彼	-10.6934
皆生	-10.6934
諸妙	-10.6938
正教	-10.694
恃	-10.6953
鹿	-10.6956
暴	-10.6956
最後識滅	-10.6958
行菩薩道	-10.6958
命欲終時	-10.6962
難信	-10.6963
滅無所去	-10.6963
謝	-10.6964
應如是學	-10.6964
奇	-10.6965
四大天王	-10.6967
師子勇猛	-10.6968
嬈	-10.6968
胡	-10.6971
折	-10.6971
按	-10.6972
得離	-10.6974
發勤精進	-10.6974
而便	-10.6975
任運	-10.6976
素	-10.6979
帶	-10.6979
而發趣	-10.6981
金剛心	-10.6981
天樂	-10.6983
酒	-10.6984
提婆	-10.6984
論說	-10.6986
菩提樹	-10.6986
喚	-10.699
飲酒	-10.6991
戒法	-10.6991
雖不	-10.6994
俱胝劫	-10.6995
於何	-10.6996
顏色	-10.6996
三千界	-10.6996
堪忍	-10.6997
行道	-10.6999
覆蔽	-10.7008
分量	-10.7009
愚癡凡夫	-10.701
於如來所	-10.7022
諸佛國土	-10.7028
日輪	-10.7029
智慧者	-10.703
菩薩亦復如是	-10.7032
隨機	-10.7036
啟	-10.704
就此	-10.7045
白衣	-10.7046
生大	-10.7052
但言	-10.7059
巳下	-10.7066
無為法	-10.7069
外化	-10.7074
諸色	-10.7075
爾乃	-10.7078
阿字非	-10.7079
值佛	-10.7091
乾	-10.7094
皆如	-10.7095
千人	-10.71
今世	-10.7106
十六觀	-10.7109
深廣	-10.7116
貪行	-10.7121
斷常	-10.7128
方等	-10.7131
若諸菩薩摩訶薩	-10.7131
爾時菩薩	-10.7132
在心	-10.7134
見諦	-10.7139
意解	-10.7143
不住於	-10.7146
略明	-10.7146
諸山	-10.7149
正直	-10.715
過去世	-10.715
一面	-10.7153
是總	-10.7155
願得	-10.7158
悉能了知	-10.7168
有是	-10.7173
有疑	-10.7178
惱害	-10.7181
諸佛菩薩	-10.7183
前二	-10.7184
三人	-10.7184
見諸	-10.7186
於有	-10.7188
能入	-10.7188
故無	-10.719
憎	-10.7191
傍	-10.7195
不喜	-10.7197
設有	-10.7204
今現在	-10.7208
諸蘊	-10.7215
雄	-10.7219
修諸	-10.7221
呵責	-10.7221
猶有	-10.7223
如說修行	-10.7224
天子言	-10.7225
結加趺坐	-10.7226
佛說此經已	-10.7226
長跪叉手	-10.7231
射	-10.7231
伸供養	-10.7232
則便	-10.7233
寤	-10.7233
佛剎功德莊嚴	-10.7234
無倦	-10.7234
呪術	-10.7235
以有	-10.7238
如是等法	-10.7239
療	-10.7239
應作	-10.7242
獼猴	-10.7242
支節	-10.7243
馳	-10.7243
朝	-10.7244
留難	-10.7244
苦果	-10.7245
莊飾	-10.7245
阿含	-10.7246
虛假	-10.7246
文句	-10.725
繫念	-10.7252
無上法	-10.7252
真陀羅	-10.7254
旦	-10.7255
六塵	-10.7257
種善根	-10.726
願往生	-10.7264
五住	-10.7266
復作是念	-10.7271
寂光	-10.7273
佛語迦葉	-10.7273
初句	-10.7276
位中	-10.7279
之患	-10.7282
爾時世尊重	-10.7283
菩薩所行	-10.7291
佛號	-10.7293
妄言	-10.7297
三世諸佛	-10.7297
為先	-10.73
種諸善根	-10.7302
行善	-10.7302
清淨行	-10.7304
能攝	-10.7304
隨行	-10.7305
所明	-10.7312
變易生死	-10.7315
如來以	-10.7316
大名稱	-10.7317
能仁	-10.7327
來世	-10.7328
其王	-10.7334
可畏	-10.7334
無思	-10.7334
於諸佛	-10.7335
是空	-10.7337
之境	-10.734
斯法	-10.7341
不食	-10.7345
諂	-10.7346
佛法僧	-10.7346
一切智心	-10.7347
佛住	-10.7348
正理	-10.7348
無違	-10.7349
麥	-10.7351
從於	-10.7353
自相	-10.7357
大劫	-10.7363
一切悉	-10.7368
為實	-10.7369
無等等	-10.7371
解行	-10.7377
如是十種	-10.7378
何者為	-10.7381
實智	-10.7391
釋迦如來	-10.7391
諸佛剎土	-10.7394
覺者	-10.7397
八千	-10.7399
若使	-10.7401
得法	-10.7406
彼一切	-10.7406
合前	-10.7421
香水	-10.7422
勝華藏	-10.7424
不善法	-10.7426
真身	-10.7432
耽	-10.7435
其子	-10.7441
諸佛剎	-10.7445
大德阿難	-10.7446
諦觀	-10.7446
十受	-10.7447
中無	-10.7447
敬重	-10.7451
依法	-10.7455
受法	-10.7457
此亦如是	-10.7461
池者	-10.7463
甚深法	-10.7466
決擇	-10.7466
先舉	-10.7466
醫王	-10.7471
無罣礙	-10.7472
賢劫	-10.7473
是義	-10.7475
財利	-10.7476
於內	-10.7476
賤	-10.7477
我觀	-10.748
殃	-10.748
經名	-10.7483
却住一面	-10.7486
豐	-10.7486
伸	-10.7486
寶地	-10.7487
為眾	-10.7488
戰	-10.7489
善道	-10.749
甚為希有	-10.7491
憍	-10.7492
慳嫉	-10.7492
朋	-10.7493
渡	-10.7493
徐	-10.7495
豪	-10.7496
說是語時	-10.7497
敗	-10.7497
該	-10.7498
說此法時	-10.7498
若論	-10.7501
墮地	-10.7505
稟	-10.7506
有我	-10.751
當得阿耨多羅三藐三菩提	-10.7511
隨緣	-10.7511
四禪	-10.7513
令諸菩薩	-10.7514
明達	-10.7517
所害	-10.7517
貪婬	-10.7521
阿者非	-10.7522
卷下	-10.7523
證於	-10.7523
不可數	-10.7524
唯有如來	-10.7525
我之	-10.7525
大覺	-10.7526
何以故下	-10.7527
深入	-10.7529
踰繕那	-10.7529
作用	-10.7531
頭陀	-10.7534
是二地	-10.7535
故不	-10.7538
聽經	-10.7544
不順	-10.7545
延	-10.7545
既有	-10.7545
一門	-10.755
如來說	-10.7551
化物	-10.7553
身肉	-10.7553
聲聞法	-10.7554
道意	-10.7556
為主	-10.7557
虛無	-10.7557
一義	-10.7559
此下	-10.756
世間眾生	-10.7561
身行	-10.7566
隨覺	-10.7569
初住	-10.7569
道故	-10.7577
等持	-10.7578
光佛	-10.758
堅住	-10.7584
欲心	-10.7585
忍者	-10.7589
并諸	-10.759
三惡道	-10.7592
攝諸	-10.7596
此四法	-10.7603
亦空	-10.7604
知已	-10.7609
下文	-10.7613
來者	-10.7616
千歲	-10.7617
與其	-10.7622
定慧	-10.7626
名無差別	-10.7628
妙智	-10.763
同居	-10.7631
四念處	-10.7635
魔軍	-10.7636
池中	-10.7637
已過去	-10.7639
列名	-10.7641
彼此	-10.7644
五乘	-10.765
豈有	-10.765
非處	-10.7652
如海	-10.7653
能起	-10.7661
何能	-10.7661
賢善	-10.7661
同聲	-10.7663
得為	-10.7665
即作是念	-10.7665
千萬	-10.7667
王城	-10.7667
無取無	-10.7669
慧根	-10.7671
有六	-10.7673
於諸有情	-10.7677
尊敬	-10.7679
或於	-10.768
不能了	-10.7688
起大悲心	-10.769
化現	-10.7692
空者	-10.7693
能令眾生	-10.7693
是處	-10.7693
一切苦	-10.7694
釋迦牟尼如來	-10.7694
其事	-10.7699
世法	-10.771
最大	-10.7711
謗法	-10.7712
為勝	-10.7714
變現	-10.7721
結使	-10.7723
往至	-10.7724
之苦	-10.7727
重罪	-10.7727
成就故	-10.7728
又能	-10.7731
甚大	-10.7732
有八萬四千	-10.7732
愚者	-10.7735
生疑	-10.7736
威勢	-10.7736
兵	-10.7741
即是如來	-10.7743
初一	-10.7743
住阿練兒處	-10.7747
九十	-10.7748
兜率陀天	-10.7749
無有作業者	-10.7749
體相	-10.7749
附	-10.775
卷第三十	-10.775
錯謬	-10.775
聞彼	-10.7754
融	-10.7756
當爾之時	-10.7759
毘鉢舍那	-10.776
遶佛三匝	-10.776
百由旬	-10.776
稱名	-10.776
伊	-10.7761
說是法時	-10.7762
令心	-10.7762
菩	-10.7762
彼後識	-10.7762
有愛	-10.7764
陽焰	-10.7766
遊步	-10.7767
嫌	-10.7767
困	-10.7768
命終之後	-10.777
賜	-10.7771
秋	-10.7772
灰	-10.7773
述云此第四	-10.7773
口中	-10.7774
拏	-10.7774
浴池	-10.7775
得安樂	-10.7776
芽	-10.7777
關	-10.7777
若知	-10.7778
法華經	-10.7778
私	-10.778
棄捐	-10.778
汁	-10.778
眼盡邊	-10.7783
如來智	-10.7784
乃至於	-10.7785
聞慧	-10.7788
得知	-10.7791
頻婆	-10.7792
則於	-10.7795
一切諸法皆	-10.7796
十惡	-10.7797
無因	-10.7798
現見	-10.7799
悅意	-10.7799
意念	-10.7799
復次文殊師利	-10.7803
耀	-10.7807
人等	-10.7809
發起精進	-10.7815
聲聞弟子	-10.782
諸寶	-10.7821
方便善巧	-10.7823
語者	-10.7824
不有	-10.7828
善丈夫	-10.7828
異名	-10.7831
菩薩爾時	-10.7834
第一明	-10.7836
死生	-10.7836
法住	-10.7838
發道心	-10.7839
是真	-10.784
諸法空	-10.7842
大神通	-10.7843
不可量	-10.7845
之益	-10.7847
相對	-10.7848
薩婆若	-10.7849
心想	-10.7853
為法	-10.7854
染心	-10.7856
無量阿僧祇	-10.7856
一身	-10.7868
若有得聞	-10.7868
眾鳥	-10.787
乃得	-10.7876
力士	-10.7878
皆見	-10.7879
如日	-10.7879
美妙	-10.7879
略舉	-10.7891
知者	-10.7891
變為	-10.7892
於法界	-10.7894
觀於	-10.7896
即告	-10.7905
結集	-10.7907
能離	-10.7908
應是	-10.7912
殺者	-10.7912
意也	-10.7914
復見	-10.7917
闍王	-10.7921
則知	-10.7922
善因	-10.7926
當行	-10.7927
其德	-10.7928
皆空	-10.7928
正真	-10.7936
栴檀香	-10.7937
讚言	-10.794
彼佛前有	-10.7941
護世	-10.7944
所止	-10.7947
不當	-10.7948
緣現微笑	-10.7948
離苦	-10.7956
持法	-10.7957
不見有	-10.7959
若斯	-10.7962
說於	-10.7963
此意	-10.7966
當為汝說	-10.7969
菩提之心	-10.7971
無信	-10.7972
宿世	-10.7972
得無	-10.7975
汝能	-10.798
出於	-10.7981
無有少法	-10.7984
離過	-10.7986
怛	-10.799
恒常	-10.7992
結勸	-10.7994
無退轉	-10.7997
諸聖	-10.7999
若就	-10.8001
之緣	-10.8005
中亦	-10.8005
三時	-10.8007
城邑	-10.801
於其中	-10.8011
明二乘	-10.8013
揚	-10.8013
謬	-10.8013
坑	-10.8015
則以	-10.8019
有佛名	-10.802
所感	-10.802
翳	-10.8021
信力	-10.8021
誑惑	-10.8021
毘婆舍那	-10.8022
清淨法	-10.8022
伎	-10.8023
但見	-10.8023
誨	-10.8024
星宿	-10.8028
是七地	-10.8028
繞佛三匝	-10.8032
境界如夢	-10.8033
憍尸迦	-10.8035
大海水	-10.8036
快善	-10.8037
釋迦牟尼佛	-10.8037
懺	-10.8039
乃爾	-10.804
耆婆	-10.8041
不斷絕	-10.8041
如地	-10.8041
施戒	-10.8041
尺	-10.8042
析	-10.8042
善法堂	-10.8042
貪恚癡	-10.8043
以七寶	-10.8043
檀波羅蜜	-10.8043
聞是語已	-10.8044
禮佛	-10.8044
令汝	-10.8045
聰慧	-10.8045
鈍根	-10.8045
付屬	-10.8046
城邑聚落	-10.8046
羸劣	-10.8047
局	-10.8048
溫	-10.8048
對治彼故	-10.805
所著	-10.805
親近供養	-10.8053
若生	-10.8056
文也	-10.8057
糞穢	-10.806
婦女	-10.8061
具大	-10.8061
卒	-10.8062
所照	-10.8062
輕安	-10.8063
今時	-10.8063
安養	-10.8064
皆不可得	-10.8064
愍念	-10.8069
得於	-10.8071
阿彌陀經	-10.8071
遠近	-10.8074
為世	-10.8076
得無垢	-10.8077
眼見	-10.8081
世王	-10.8083
度世	-10.8084
有色	-10.8087
在世	-10.8087
於菩薩	-10.8088
妙寶	-10.8088
我若	-10.8098
目之為	-10.8101
賢者舍利弗	-10.8102
即彼	-10.8102
火燒	-10.8102
大目乾連	-10.8104
三途	-10.8104
而令	-10.8105
正宗	-10.8106
明見	-10.8108
我得菩提	-10.8109
覺支	-10.811
聞如來	-10.8111
以何等	-10.8113
所有善根	-10.8115
生愛樂	-10.8116
之子	-10.8121
五痛	-10.8124
卷上	-10.8124
別釋	-10.8124
五十	-10.8125
多種	-10.8126
欲以	-10.8129
菩薩有四	-10.8134
得至	-10.8136
因行	-10.8137
活命	-10.8137
若菩薩摩訶薩	-10.8137
經中說	-10.8138
伽陀	-10.8142
妙華	-10.8142
復有四	-10.8145
高廣	-10.8148
世間人	-10.8155
皆已	-10.8157
於身命	-10.8158
可信	-10.816
眾魔	-10.8162
為斷	-10.8163
爾時如來	-10.8167
千子	-10.8169
知我	-10.8171
後二	-10.8172
若起	-10.8173
淨智	-10.8176
等觀	-10.8177
八戒	-10.818
其法	-10.8182
釋成	-10.8183
正業	-10.8185
見取	-10.819
象王	-10.8191
大論	-10.8192
二十四	-10.8193
總別	-10.8195
蓮	-10.8202
救度	-10.8206
拔苦	-10.8209
海水	-10.821
無記	-10.8213
涅槃經	-10.8216
頂上	-10.8217
不達	-10.8219
亦同	-10.8221
提婆達多	-10.8224
二十二	-10.8224
即與	-10.8233
於佛前	-10.8234
王如來	-10.8241
攝化	-10.8242
少法	-10.8242
法寶	-10.8246
五人	-10.8251
如是等相	-10.8252
一切眾	-10.8252
利智	-10.8255
聖智	-10.8258
法光明	-10.826
此觀	-10.8262
價	-10.8266
手執	-10.8267
願為	-10.8268
故號	-10.8269
病者	-10.8272
佛有	-10.8274
自性空	-10.8275
四十八願	-10.8277
自大	-10.8283
即名	-10.8284
廣多	-10.8286
疾得	-10.8287
是苦	-10.8293
其本	-10.8295
裂	-10.8297
任	-10.8298
如汝	-10.8301
不畏	-10.8302
成無上正真道最正覺	-10.8304
人中師子	-10.8305
欲知	-10.8313
娜謨	-10.8315
作供養已	-10.8315
而得自在	-10.8316
堪受	-10.8318
詳	-10.8318
初心	-10.8318
渴愛	-10.8319
遍覆三千大千世界	-10.8319
精勤修習	-10.8321
右遶三匝	-10.8323
非有非無	-10.8323
s	-10.8324
說名為	-10.8325
藝	-10.8325
深經	-10.8326
曳	-10.8326
科	-10.8327
言無	-10.8327
三摩呬多	-10.8328
盈滿	-10.8329
荷	-10.8331
薪	-10.8331
智度論	-10.8332
隱沒	-10.8333
墮於地獄	-10.8335
迦羅	-10.8336
剛強	-10.8336
於當來世	-10.8337
生彼土	-10.8339
身不	-10.8339
產	-10.834
天衣	-10.834
論之	-10.8342
加害	-10.8342
其佛剎	-10.8345
渴仰	-10.8346
不造	-10.8349
我時	-10.835
二俱	-10.835
馬勝	-10.8353
彼所	-10.8353
發大心	-10.8353
阿彌陀如來	-10.8353
但能	-10.836
勸發	-10.836
善臂	-10.836
等相	-10.8361
來詣佛所	-10.8363
聚會	-10.8367
無不具足	-10.837
隨佛	-10.8371
發道意	-10.8372
圓光	-10.8374
於今	-10.8376
離分別	-10.8376
怨敵	-10.8383
十方界	-10.839
園中	-10.8391
巧妙	-10.8394
開覺	-10.8401
淨妙	-10.8402
悉是	-10.8402
無作者	-10.8408
普見	-10.841
次復有	-10.8411
次有	-10.8411
永無	-10.8412
顯說	-10.8417
皆無	-10.8419
七覺	-10.8423
二句	-10.8424
奇哉	-10.8425
間錯	-10.8425
出入	-10.8431
佛壽	-10.8436
攝一切	-10.8436
電	-10.8437
故稱為	-10.8437
若諸有情	-10.8438
人皆	-10.8438
村	-10.8441
斷煩惱	-10.8441
雖行	-10.8442
佛即	-10.8443
而能了知	-10.8443
雅	-10.8444
白玉	-10.8444
時分	-10.8447
諸陰	-10.8448
白世尊	-10.8452
世間人民	-10.8453
三千世界	-10.8453
十信	-10.8456
龍象	-10.8457
別序	-10.8457
勝故	-10.8458
意菩薩	-10.846
業故	-10.8461
盡其	-10.8466
如來為	-10.8466
無見	-10.8467
柔	-10.8468
令生	-10.847
但說	-10.8471
是為四法	-10.8474
眼根	-10.8475
彼於	-10.8483
得成就	-10.8483
之文	-10.85
大苦	-10.85
隨諸眾生	-10.8508
勝功德	-10.851
若復有	-10.8515
增進	-10.8515
如是行	-10.8519
攝眾生	-10.852
亦名為	-10.8521
無礙辯	-10.8526
別離	-10.8527
斷一切	-10.8527
昧	-10.8529
正語	-10.8529
生怖畏	-10.853
染淨	-10.8533
五百歲	-10.8534
八難	-10.8536
大雲	-10.8538
二觀	-10.854
毒箭	-10.8541
而成	-10.8541
有智	-10.8543
妙行	-10.8543
世間法	-10.8552
現生	-10.8555
眾聖	-10.8558
住不退轉	-10.8559
聽許	-10.8567
通別	-10.8568
有形	-10.8571
末香	-10.8572
何等法	-10.8577
苦也	-10.8583
寶珠	-10.8583
謙	-10.8587
靡	-10.8587
我今當	-10.8589
等行	-10.859
所不	-10.8592
二相	-10.8594
劫名	-10.8599
順法	-10.8601
於涅槃	-10.8601
惡見	-10.8601
蜎飛蠕動之類	-10.8601
此為	-10.8604
乃至一切	-10.8604
徑	-10.8605
色心	-10.8606
童	-10.8613
菩提行	-10.8615
七日處母胎時	-10.8615
諸根如幻	-10.8615
行處	-10.8616
隨眠	-10.8616
善惡業	-10.8618
阿逸菩薩	-10.8618
師子之座	-10.862
少欲知足	-10.8621
資財	-10.8621
殘	-10.8621
疾病	-10.8622
是為菩薩善權方便	-10.8623
不疑	-10.8623
毒藥	-10.8624
灌頂	-10.8624
入一	-10.8624
亦知	-10.8624
倫	-10.8625
往詣佛所	-10.8629
妙聲	-10.8629
菓	-10.8629
當說	-10.863
百千億萬倍	-10.8632
補處	-10.8632
不名淨	-10.8632
欄楯	-10.8632
佛剎土	-10.8633
右手	-10.8633
悉如實知	-10.8633
一眾生	-10.8633
旋轉	-10.8634
若曹	-10.8634
井	-10.8634
崇	-10.8635
神通變化	-10.8635
獲大	-10.8636
頸	-10.8637
后	-10.8637
憎愛	-10.8637
自思惟	-10.8639
來詣	-10.8641
以能	-10.8644
已曾	-10.8644
智上	-10.8649
心自念言	-10.8649
喜心	-10.8651
自覺	-10.8652
明慧	-10.8653
深生	-10.8653
男子女人	-10.8655
如是所說	-10.8658
之曰	-10.8658
毀戒	-10.8661
此亦	-10.8665
五力	-10.8667
方便者	-10.8667
侍從	-10.867
鮮	-10.8678
聲聞辟支佛	-10.868
如來於彼	-10.868
定意	-10.8681
所能	-10.8682
正解	-10.8683
為有	-10.8685
具有	-10.8687
造立	-10.8689
頗有	-10.8691
未知	-10.8691
良醫	-10.8692
深重	-10.8693
梵天王	-10.8702
枝葉	-10.8703
業力	-10.8703
大丈夫	-10.8703
是五地	-10.8704
雖在	-10.8705
所有功德	-10.8705
不執	-10.8709
勸化	-10.8716
何異	-10.8723
何須	-10.8726
能解	-10.8733
測	-10.8737
神識	-10.8739
阿難言	-10.8741
勝劣	-10.8743
夢見	-10.8744
有五種	-10.8751
四義	-10.8751
於大	-10.8753
分別說	-10.8753
劫濁	-10.8753
法無	-10.8764
勸信	-10.8766
之報	-10.8769
與諸菩薩	-10.877
受於	-10.877
居士	-10.8771
諸佛土	-10.8774
擔	-10.8779
不曾	-10.8791
為沙門	-10.8791
以身	-10.8794
是眾生	-10.8794
三十六	-10.8795
皆當往生	-10.88
已上	-10.8802
法樂	-10.8802
在地	-10.8803
不堅	-10.8804
復令	-10.8807
至佛所	-10.8808
既得	-10.8808
此心	-10.8812
和雅	-10.8815
不證	-10.8816
遊入	-10.8816
云何如來	-10.8817
來迎	-10.8821
堪能	-10.8822
無住處	-10.8827
眾生類	-10.883
實報	-10.883
巧方便	-10.8832
連	-10.8834
自稱	-10.8835
以見	-10.8838
不論	-10.8849
沙門法	-10.885
堅持	-10.885
心懷	-10.8852
傾	-10.8852
一切凡夫	-10.8855
上至	-10.8856
四乘	-10.8856
無所動	-10.886
妙莊嚴	-10.886
非真	-10.8864
心喜	-10.8867
智者不	-10.887
見他	-10.8877
三百	-10.888
能通達	-10.888
具諸	-10.8881
圓成	-10.8883
具足如是	-10.8885
正知	-10.8885
亦不然	-10.889
是菩提	-10.8895
已作	-10.8896
佛國土	-10.8902
聰	-10.8903
念夢中事	-10.8905
毫	-10.8908
而以	-10.8909
却坐一面	-10.8909
一切處	-10.8909
與其眷屬	-10.8911
此諸菩薩	-10.8911
八百	-10.8912
佛告阿難及韋提希	-10.8913
之稱	-10.8918
忿怒	-10.8919
太	-10.8919
祕	-10.8919
若入	-10.8923
扶	-10.8924
如火	-10.8924
衣鉢	-10.8927
周旋	-10.8928
煖	-10.8929
張	-10.8929
湛然	-10.893
誤	-10.8932
尊者護國	-10.8932
超越分別	-10.8932
憂愁	-10.8932
應言	-10.8934
右旋	-10.8934
無分別者	-10.8934
曼	-10.8934
馳走	-10.8934
大身	-10.8934
邪法	-10.8935
逸	-10.8935
輝	-10.8935
官	-10.8937
初業	-10.8938
廣為	-10.8938
揵沓和	-10.8938
雨華	-10.8941
之與	-10.8942
追求	-10.8943
潤澤	-10.8943
求出離	-10.8944
應捨	-10.8944
增語	-10.8945
諮嗟	-10.8946
長時	-10.8949
要須	-10.8951
事中	-10.8953
寶池	-10.8954
若自	-10.8956
為正	-10.8959
彼業	-10.8961
非無因	-10.8961
平等性	-10.8963
供具	-10.8964
并餘	-10.8966
莊嚴具	-10.8968
色等	-10.8969
身色	-10.8969
咸皆	-10.8969
妨	-10.8974
已能	-10.8974
名大	-10.8975
所得功德	-10.8976
觀世音菩薩	-10.898
應觀	-10.8984
實非	-10.8985
經於	-10.899
亦不能	-10.899
見眾生	-10.899
無所分別	-10.8991
三結	-10.8993
舍衛國	-10.8996
為王	-10.8997
畢竟無	-10.9001
時眾	-10.9002
上來明	-10.9003
時佛	-10.9006
無障	-10.9015
致使	-10.9017
願行	-10.9018
莫能	-10.9021
是別	-10.9022
無名	-10.9024
所取	-10.9025
受行	-10.9028
菩薩以	-10.9029
若有菩薩摩訶薩	-10.9029
說此經	-10.9032
受教	-10.9034
末世	-10.9034
既知	-10.9038
而立	-10.9039
謂離	-10.9039
以上	-10.9041
覆護	-10.9048
須彌山王	-10.9049
觀者	-10.9051
常所	-10.9054
但明	-10.9058
今既	-10.9058
德也	-10.906
即白佛言	-10.9061
如天	-10.9061
大目連	-10.9064
無疲倦	-10.9065
不能見	-10.9066
心大歡喜	-10.907
非時	-10.9072
勤修習	-10.9079
二門	-10.9079
是六地	-10.9087
獨處	-10.9087
四兵	-10.9088
勸人	-10.9089
能證	-10.9095
是何	-10.9095
諸波羅蜜	-10.91
無本	-10.9103
現此	-10.9103
邪正	-10.9106
釋名	-10.9107
聖種	-10.9107
自在王	-10.9108
與此	-10.9111
萬物	-10.9111
侶	-10.9113
輪轉	-10.9114
增減	-10.9114
非心	-10.9116
善哉世尊	-10.9116
本空	-10.9119
既無	-10.9123
不想	-10.9124
得安隱	-10.9127
覆障	-10.9134
無聞	-10.9134
舉佛	-10.9136
生分	-10.9136
欲取	-10.9137
於無量	-10.9139
于時	-10.914
離諸疑惑	-10.914
力用	-10.9142
未至	-10.9147
不退轉地	-10.9147
最為	-10.9147
歡樂	-10.915
尋時	-10.9151
不善業	-10.9154
更說	-10.9158
現行	-10.9159
踊	-10.9159
為此	-10.9167
從人	-10.9168
分位	-10.9169
無一	-10.9174
地中	-10.9174
於虛空	-10.9177
是諸佛	-10.9178
其實	-10.9187
無體	-10.9189
發精進	-10.919
來至	-10.919
女色	-10.9192
吾當	-10.9193
死者	-10.9199
彌勒菩薩摩訶薩	-10.9201
除去	-10.9203
見諸佛	-10.9205
二十一	-10.9207
明照	-10.9208
一類	-10.9212
是沙門垢	-10.9213
磨	-10.9215
潔白	-10.9218
法體	-10.9218
眾僧	-10.9218
鬚髮	-10.9219
富樂	-10.9221
是人覺已	-10.9221
含識	-10.9222
右繞三匝	-10.9223
悉見	-10.9223
赫	-10.9225
婆伽婆	-10.9227
作何	-10.9227
生信解	-10.9228
我欲	-10.9229
當受	-10.9229
嬉戲	-10.923
廣為人說	-10.9233
才	-10.9233
四名	-10.9237
不增不減	-10.9237
誼	-10.9239
玉女	-10.9241
五趣	-10.9241
輕賤	-10.9241
抱	-10.9242
稻	-10.9243
曠	-10.9245
密迹	-10.9245
耆闍	-10.9245
可度者	-10.9247
怛薩阿竭	-10.9247
出現世間	-10.9249
暉	-10.925
超絕	-10.9251
厄	-10.9251
能化	-10.9252
菩薩乘人	-10.9253
孔雀	-10.9253
細滑	-10.9254
堅強	-10.9255
多羅樹	-10.9255
一雙	-10.9256
於此法門	-10.9257
是八地	-10.9257
輕重	-10.9263
生死苦	-10.9264
流注	-10.9265
出於世	-10.9267
墮惡趣	-10.9267
講說	-10.9267
七種	-10.9269
何義	-10.927
智慧勇猛	-10.9271
知止足	-10.9277
等諸	-10.928
隨宜	-10.9283
天華	-10.9284
述成	-10.9286
深遠	-10.9289
所宣	-10.9289
惡言	-10.9289
博聞	-10.9292
分二	-10.9294
分段生死	-10.9295
而取	-10.9296
幢菩薩	-10.9296
迴轉	-10.9297
須達	-10.9297
本所	-10.9298
便為	-10.9299
無有障礙	-10.9299
寶莊嚴	-10.9299
為喻	-10.9306
心已	-10.931
迴向菩提	-10.931
不調	-10.9312
一是	-10.9315
文義	-10.9316
心相	-10.9322
來集	-10.9324
事已	-10.9326
無量光	-10.9328
如風	-10.933
別有	-10.9331
無量諸佛	-10.9333
說諸	-10.9333
作利益	-10.9335
欲生	-10.9337
不死	-10.9341
不應生	-10.9347
得言	-10.9351
或可	-10.9351
故有退轉	-10.9352
坐道場	-10.9352
天雨	-10.9356
智斷	-10.9357
是即	-10.9363
恩德	-10.9364
億那由他百千	-10.9364
與樂	-10.9368
不可取	-10.9376
處於	-10.9377
欲令眾生	-10.9382
菩提心者	-10.9384
句義	-10.9385
有兩	-10.9385
汝為	-10.9386
不具足	-10.9388
潔	-10.9389
出聲	-10.9391
有為行	-10.9391
力勢	-10.9392
知眼	-10.9392
為地	-10.9394
執取	-10.9399
不明	-10.9404
摩訶薩	-10.9405
金剛手菩薩	-10.9406
坐臥	-10.9413
然後乃	-10.9413
自下第三	-10.9417
其城	-10.9418
斯道	-10.9418
樂音	-10.9421
有如是等	-10.9424
餘三	-10.9425
六通	-10.9429
彼諸天子	-10.943
大雨	-10.9435
作師子吼	-10.9437
有身見	-10.9438
心起	-10.9439
當見	-10.9439
本有	-10.944
去來今	-10.9445
來生	-10.9448
生天上	-10.9452
身子	-10.9454
則無有	-10.9454
同行	-10.9459
大甲冑	-10.946
諸賢	-10.9465
無覺	-10.947
愁憂	-10.947
生老病死	-10.9472
苦痛	-10.9473
逕	-10.9475
止觀	-10.9477
寶華	-10.948
皆同	-10.9484
於諸佛所	-10.9485
非真實	-10.9489
第三結	-10.949
佛智慧	-10.9492
心所	-10.9495
輕毀	-10.9496
優劣	-10.9497
為利	-10.9501
彼剎	-10.9504
途	-10.9505
又前	-10.9507
頃	-10.9507
二童子	-10.951
身有	-10.951
如師子	-10.9511
各有上中下	-10.9512
淨飯王	-10.9513
初言	-10.9518
未能	-10.9518
幾何	-10.9521
其後	-10.9523
具說	-10.9523
為畢竟	-10.9528
未必	-10.9528
諸法平等	-10.9529
之用	-10.953
有能	-10.9531
等是	-10.9531
受苦惱	-10.9533
肆	-10.9535
尋伺	-10.9538
呬	-10.9538
增勝	-10.9542
如說	-10.9543
上方	-10.9545
迅速	-10.9548
所言止者	-10.955
有分別者	-10.9551
無上正等菩提	-10.9551
等意分別	-10.9551
具戒	-10.9551
耆闍崛山	-10.9552
於色	-10.9556
蜜	-10.9557
湯藥	-10.9559
的	-10.956
由如是故	-10.9561
囊	-10.9562
而轉	-10.9563
深義	-10.9563
痛痒	-10.9563
自德	-10.9563
聾	-10.9563
稽首佛足	-10.9563
諂誑	-10.9564
此義不然	-10.9564
入法	-10.9564
護持正法	-10.9564
重閣	-10.9565
採	-10.9565
百千俱胝	-10.9566
低	-10.9568
誹謗正法	-10.9568
起煩惱	-10.9568
宣揚	-10.9569
慎	-10.9569
如大	-10.9569
悔恨	-10.957
令不	-10.957
膿血	-10.957
紅	-10.9571
梁	-10.9572
集諦	-10.9572
胞胎	-10.9575
應化	-10.9575
洪	-10.9575
隨學	-10.9577
繫著	-10.9578
市	-10.9578
觀諸法	-10.958
不聽	-10.958
豆	-10.9581
躰	-10.9581
貧苦	-10.9581
願樂	-10.9582
以明	-10.9582
發起序	-10.9585
極樂國土	-10.9587
欣悅	-10.9588
住阿蘭若	-10.9589
其音	-10.959
山澤	-10.959
常與	-10.9593
高勝	-10.9593
佛與	-10.9598
俱胝那庾多百千	-10.9599
總標	-10.9602
猗	-10.9604
分段死	-10.9606
無價	-10.9606
佛於	-10.9607
其母	-10.9607
無斷	-10.9608
正是	-10.9608
二百五十	-10.9611
依趣	-10.9612
迷亂	-10.9612
利物	-10.9613
同聞	-10.9614
壯	-10.9615
往古	-10.9618
欲解	-10.9621
非離	-10.9623
無有邊際	-10.9625
不見佛	-10.9629
三聖	-10.9629
光明普照	-10.963
解者	-10.9635
貧人	-10.9636
是方便	-10.9638
如是展轉	-10.9641
我本	-10.9642
妄分別	-10.9643
彰彼	-10.9644
愛念	-10.9645
念力	-10.9645
無益	-10.9646
上中下	-10.9649
彼識	-10.9652
二云	-10.9654
超過一切	-10.9656
有多	-10.966
諸方	-10.9665
初二	-10.9668
迴向阿耨多羅三藐三菩提	-10.9669
眼等	-10.9671
當云何	-10.9672
悕求	-10.9675
造逆	-10.9675
然於	-10.9676
無罪	-10.9679
更生	-10.9694
無有分別	-10.9694
不平等	-10.97
了知諸法	-10.97
正法住	-10.97
若有善男子	-10.9701
聞此經	-10.9707
為他人說	-10.9708
出家人	-10.9709
觀見	-10.9712
施作	-10.9714
疲倦	-10.9715
百千俱胝那由他	-10.9716
長壽	-10.9716
擇	-10.9716
於佛如來	-10.9717
異於	-10.9719
邪定	-10.9722
受其	-10.9724
相現	-10.9727
趣菩提	-10.9728
此三昧	-10.9728
於往昔	-10.9744
又若	-10.9745
就第一	-10.9747
或如	-10.9751
會中有	-10.9753
已盡	-10.9754
覺意	-10.9755
等遊	-10.9756
不計	-10.976
入定	-10.9771
動轉	-10.9772
所由	-10.9773
無有量	-10.9777
便能	-10.9777
以是故	-10.9779
癡人	-10.9779
佛光	-10.9784
讚佛	-10.9786
六年	-10.9791
若已	-10.9794
曇	-10.9802
亦非無	-10.9805
劫成	-10.9806
應當如是	-10.9807
諸受	-10.981
若心	-10.9811
眾色	-10.9813
所演	-10.982
相貌	-10.9825
彼一切法	-10.9825
已度	-10.9826
甚深微妙	-10.9829
咸共	-10.9831
遊於	-10.9835
得不退	-10.9838
無有實	-10.9839
難解	-10.9839
天主	-10.9839
有相	-10.9839
持戒者	-10.9848
見道	-10.985
五燒	-10.9853
妬	-10.9857
皆作	-10.9859
發無上正真道意	-10.986
大菩薩	-10.9861
欲想	-10.9862
梵行已立	-10.9869
象手	-10.9869
向佛	-10.987
遍一切處	-10.9873
善觀察	-10.9873
心之所念	-10.9875
同體	-10.9875
是業滅已	-10.9875
有三昧名	-10.9875
不依東方	-10.9877
厭苦	-10.9877
高大	-10.9878
最後身	-10.9879
三垢	-10.9882
所言進者	-10.9883
印門	-10.9883
以一切法	-10.9883
說誠實言	-10.9883
最勝兩足尊	-10.9884
三藐三佛陀	-10.9885
浴	-10.9885
鬪	-10.9886
嗅	-10.9887
前說	-10.989
西天譯經三藏朝散大夫試光祿卿	-10.9891
離心意識	-10.9891
血肉	-10.9891
阿修羅等	-10.9892
鄙	-10.9893
野干	-10.9893
隣	-10.9894
荷負	-10.9894
發清淨心	-10.9895
丈	-10.9896
淚	-10.9896
法藏比丘	-10.9897
我於今者	-10.9897
姟	-10.9897
述云此次	-10.99
瓦石	-10.99
料簡	-10.9901
難思議	-10.9901
深固	-10.9901
春	-10.9902
是說	-10.9902
訓誨	-10.9902
酪	-10.9903
天竺	-10.9903
跋	-10.9903
看	-10.9904
穿	-10.9904
以智慧	-10.9904
第二段中	-10.9904
池沼	-10.9904
輸	-10.9905
此釋	-10.9906
發如是心	-10.9907
朋友	-10.9907
餘處	-10.9907
妓樂	-10.9911
四十里	-10.9911
又能了知	-10.9912
初舉	-10.9912
其文	-10.9912
勉	-10.9913
諸願	-10.9914
作佛事	-10.9914
長老舍利弗	-10.9916
常應	-10.9917
終不能	-10.9918
正意	-10.992
下賤	-10.992
發起大悲	-10.992
菩薩之將從	-10.9923
意欲	-10.9924
後之	-10.9926
四依	-10.9929
如本	-10.9929
能修	-10.9929
從何	-10.9932
為化	-10.9932
六度無極	-10.9934
象馬	-10.9936
青色	-10.9936
者無名云	-10.9937
所不能及	-10.9938
淨居天	-10.9943
所有諸	-10.9946
極善	-10.9946
轉行	-10.9949
復白	-10.9951
流通分	-10.9951
行七步	-10.9951
佛告舍利子	-10.9953
修供養	-10.9955
三昧門	-10.9957
不能令	-10.9959
尚無	-10.9959
豈可	-10.9961
皆來	-10.9961
住在	-10.9962
顯發	-10.9963
明義	-10.9963
。『	-10.9974
供養已	-10.9976
勝菩提	-10.9979
相及	-10.9981
無餘涅槃	-10.9983
不依止	-10.9984
諸眷屬	-10.9984
佛法中	-10.9985
成也	-10.9992
黃金為	-10.9992
億那由他	-10.9998
無處所	-10.9998
行天子	-11.0005
樂住	-11.0006
貪求	-11.0007
無增減	-11.0009
一百	-11.001
能受持	-11.0011
還歸	-11.0012
如涅槃	-11.0013
若行	-11.0014
於我所	-11.0015
更相	-11.0015
證無上菩提	-11.0017
聖王	-11.0018
從初	-11.0018
是故我今	-11.0022
寧可	-11.0022
分為二	-11.0024
初觀	-11.0025
愛染	-11.0026
於此世界	-11.0029
得勝	-11.0029
大施	-11.0032
初識生時	-11.0037
種智	-11.0037
應須	-11.004
然其	-11.0041
四倒	-11.0042
摧滅	-11.0045
行攝	-11.0047
如是菩薩摩訶薩	-11.0049
功能	-11.005
瑞應	-11.0054
佛慧	-11.0057
於己	-11.0059
若有善男子善女人	-11.0061
幡蓋	-11.0064
心所念	-11.0065
經等	-11.0066
普賢	-11.0069
故如是說	-11.007
譽	-11.0074
故次明	-11.0075
二死	-11.0078
聖賢	-11.0079
於過去世	-11.008
無漏業	-11.0082
諸病	-11.0083
之器	-11.0085
一切天人	-11.0086
住此	-11.0086
所學	-11.009
不息	-11.0091
總觀	-11.0095
觀成	-11.01
甚可愛樂	-11.0101
諛諂	-11.0101
聞其	-11.0111
亦不分別	-11.0111
五句	-11.0111
日觀	-11.0112
見人	-11.0116
壽命無量	-11.0116
亦說	-11.0118
能壞	-11.0118
屍	-11.0121
因生	-11.0124
面門	-11.0124
一一皆	-11.0125
是非	-11.0125
眾行	-11.0129
護正法	-11.013
即成	-11.0133
苦諦	-11.0136
結縛	-11.0141
今得	-11.0141
六種	-11.0142
之所行	-11.0143
不顛倒	-11.0144
過去諸佛	-11.0144
無所不	-11.0144
得福	-11.0146
為大乘	-11.0148
外國	-11.0149
真實法	-11.0149
中住	-11.0152
菩薩摩訶薩亦復如是	-11.0152
發大	-11.0153
大藥王子	-11.0158
開明	-11.0158
有四種法	-11.0162
而是菩薩	-11.0164
燒然	-11.0165
毛孔	-11.0166
諸供養	-11.0168
釋云	-11.0172
二十八	-11.0172
法要	-11.0178
維	-11.0183
去此	-11.0185
能發	-11.0189
若夢	-11.0194
得彼	-11.0201
不善根	-11.0202
有佛性	-11.0204
菩薩摩訶薩於	-11.0208
合為	-11.021
為諸有情	-11.0211
可樂	-11.0213
三惡趣	-11.0214
色聲香味觸	-11.0214
斯陀含	-11.0214
苦報	-11.0214
近止	-11.0214
入彼	-11.0219
不發	-11.022
真金	-11.022
]	-11.0222
甞	-11.0225
嗔	-11.0225
信受諦奉清淨無	-11.0225
五地	-11.0226
無法	-11.0226
倍復踊躍深生歡喜發希奇想	-11.0226
省	-11.0227
行乞食	-11.0228
無執	-11.0229
說是語已	-11.023
人有	-11.023
能盡	-11.0231
域	-11.0231
有所說	-11.0232
無來無去	-11.0232
懃	-11.0233
三十三	-11.0234
㲉	-11.0235
如應	-11.0235
清淨智	-11.0235
無數百千	-11.0237
云何名為菩薩摩訶薩	-11.0237
樂故	-11.0237
有二戶蟲	-11.0237
慈悲喜捨	-11.0238
優鉢羅花	-11.024
醜陋	-11.0242
無等倫	-11.0243
辛	-11.0244
披	-11.0244
捨身命財	-11.0244
百年	-11.0245
渠	-11.0245
未甞	-11.0245
大莊嚴	-11.0246
適意	-11.0247
利益一切諸	-11.0247
嶮	-11.0247
虧	-11.0248
基	-11.0248
客	-11.0249
周匝圍繞	-11.0249
作是語已	-11.025
於過去	-11.0251
以大	-11.0254
未曾見	-11.0254
奢	-11.0255
隨順法智	-11.0257
於我法中	-11.0257
脚	-11.0257
以大悲	-11.0257
飛鳥	-11.0259
唱言	-11.026
二十三	-11.0261
萬德	-11.0262
菩薩有四事法	-11.0264
同彼	-11.0265
億劫	-11.0267
吾今	-11.0268
爾時彼	-11.027
身內	-11.0272
加行	-11.0273
教誡	-11.0275
下中上	-11.0275
爾時文殊師利	-11.0275
不善心	-11.0277
大喜	-11.0278
篤信	-11.028
無過	-11.0281
隨眾生	-11.0281
赤真珠	-11.0287
五欲境界	-11.0287
愛心	-11.0292
所詮	-11.0293
許說	-11.0294
海中	-11.0294
歸趣	-11.0296
不受後有智	-11.03
復得	-11.03
能自	-11.0301
萬億	-11.0301
是為三	-11.0302
宿住	-11.0304
受教而	-11.0306
百種	-11.0306
宣布	-11.0309
為眾生說	-11.0309
此菩薩是初地	-11.0309
猶是	-11.0314
習行	-11.0315
無過失	-11.0315
夷	-11.032
欲度	-11.0322
五通	-11.0323
願令	-11.0325
咸悉	-11.033
空義	-11.033
諸力	-11.0331
即是菩提	-11.0332
大力菩薩	-11.0334
二事	-11.0337
捨家	-11.0338
以大乘	-11.0342
內有	-11.0344
我常	-11.0348
尋求	-11.0358
隨業	-11.0358
唯心	-11.0358
於此正法	-11.036
普光	-11.0361
於菩薩藏正法	-11.0366
之功	-11.0373
一切法空	-11.0375
行因	-11.0377
被大甲冑	-11.038
人見	-11.0385
見故	-11.0385
無邊功德	-11.0385
八億	-11.0388
煩惱魔	-11.0391
彼女人	-11.0391
惡作	-11.0398
聞斯	-11.0399
詣彼	-11.0399
已後	-11.04
說偈	-11.0409
得樂	-11.0412
而求	-11.0412
憂苦	-11.0412
修福	-11.0415
觀此	-11.0419
非彼	-11.042
忍受	-11.0421
觀心	-11.0423
諸子	-11.0428
初禪	-11.0431
若不得	-11.0436
線	-11.0437
險難	-11.044
聞佛說	-11.0441
瞋行	-11.0446
出家受具足	-11.0457
如是觀察	-11.0459
之水	-11.0459
但云	-11.0464
知諸	-11.0464
捨身命	-11.0472
華座	-11.0473
不忍	-11.0475
悉能知	-11.0479
色蘊	-11.0481
後釋	-11.0482
尊者大目乾連	-11.0487
今則	-11.0489
於何處	-11.0495
次說	-11.0495
得如是	-11.0508
諸眾會	-11.051
心得	-11.0514
第二釋	-11.0516
十法	-11.0518
佛所說法	-11.0521
而坐	-11.0523
而心	-11.0524
諸天子眾	-11.0525
清白	-11.0527
證涅槃	-11.0527
以神力	-11.0529
無所起	-11.0529
算	-11.0529
福聚	-11.0532
之耳	-11.0534
現相	-11.0534
能解了	-11.0536
悉平等	-11.0536
六事	-11.0537
意在	-11.0538
分中	-11.0541
業果	-11.0544
無由	-11.0549
有邊	-11.0555
無言說	-11.0558
萬六千	-11.0558
是彼	-11.0558
一音	-11.0561
有信	-11.0561
商	-11.0564
自度	-11.0567
善方便	-11.0568
阿闍世	-11.0569
養育	-11.057
眾等	-11.0575
蔭	-11.0576
一切諸法皆悉空寂	-11.0577
與空共行	-11.0578
空無空相	-11.0578
聽者	-11.0579
於諸世間	-11.058
伺	-11.058
不久亦當	-11.058
唯識	-11.0582
諸天及人	-11.0582
尸羅波羅蜜多	-11.0583
西天譯經三藏朝散大夫試鴻臚	-11.0585
姝好	-11.0585
遠塵離垢	-11.0586
是句	-11.0587
比尼	-11.0589
不捨眾生	-11.0589
諸有情類	-11.059
捶打	-11.0591
餘者	-11.0591
不合	-11.0594
銀青光祿大夫	-11.0594
踊躍歡喜	-11.0594
鑒	-11.0595
黑暗	-11.0596
出家學道	-11.0597
振動	-11.0597
怡	-11.0597
鬪戰	-11.0597
觀諸眾生	-11.0598
躬	-11.0598
而不能	-11.0598
解知	-11.0599
一章	-11.06
焚	-11.06
如是眾生	-11.0601
達摩	-11.0601
屋	-11.0602
大目揵連	-11.0602
無所罣礙	-11.0602
齋	-11.0603
吞	-11.0603
淨修梵行	-11.0603
班宣	-11.0603
爛	-11.0603
祖	-11.0604
智慧方便	-11.0604
復生三想	-11.0605
爾時佛告舍利子	-11.0608
證信序	-11.0608
之色	-11.0608
取捨	-11.0608
成就四法	-11.0609
承事供養	-11.0609
銅	-11.0609
廟	-11.061
奴	-11.0611
眾事	-11.0615
我於往昔	-11.0615
是則名曰	-11.0618
念法	-11.0619
一切有為	-11.0621
勢至	-11.0625
如是法門	-11.0625
虛妄分別	-11.0626
形容	-11.0627
觀諸	-11.0629
而今	-11.0629
此皆	-11.0629
慈氏菩薩	-11.0631
經歷	-11.0633
命者	-11.0634
世時	-11.0635
聰明	-11.0635
不變	-11.0639
上輩	-11.0645
宣說正法	-11.0647
慢心	-11.0647
是我所	-11.0651
皆應	-11.0652
菩薩不爾	-11.0654
梵音聲	-11.0655
廣解	-11.0656
我等今者	-11.0656
□	-11.0659
眼目	-11.0662
凡愚	-11.0668
方廣	-11.0669
毀犯	-11.0671
戲樂	-11.0673
悋惜	-11.0676
實義	-11.0679
修行者	-11.0681
超勝	-11.0682
不相似	-11.0689
違逆	-11.0689
之音	-11.0693
學人	-11.0695
隨我	-11.0697
無有一法	-11.0698
無功用	-11.0698
此理	-11.07
險	-11.0702
自然生	-11.0703
覓	-11.0704
三十七	-11.0706
法已	-11.0709
居家菩薩	-11.0709
亦隨	-11.071
時會	-11.0711
定力	-11.0712
今文	-11.0712
敬愛	-11.0712
猶未	-11.0712
之數	-11.0718
少有	-11.0718
夜分	-11.072
之土	-11.0723
善觀	-11.0724
能取	-11.0725
甚奇	-11.0727
得無畏	-11.0729
五百馬	-11.073
成上	-11.0731
心得解脫	-11.0732
必須	-11.0733
老病	-11.0735
即當	-11.0737
識生	-11.0737
釋也	-11.0739
一子	-11.074
無有生	-11.0742
此世	-11.0743
此相	-11.0747
教門	-11.0748
儀式	-11.0748
不除	-11.0751
復云何	-11.0754
謂諸菩薩	-11.0754
母胎	-11.0754
圓淨	-11.0755
供養恭敬	-11.0757
復現	-11.0758
天妙	-11.0758
正因	-11.0761
大事	-11.0762
以種種	-11.0763
此句	-11.0765
聲聞菩薩	-11.0765
修於	-11.0765
無利	-11.0771
龍女	-11.0778
已還	-11.0779
速證	-11.078
世間所有	-11.0783
麁惡	-11.0784
眾具	-11.0787
造業	-11.079
稱譽	-11.0794
生善	-11.0797
所集	-11.0798
非如	-11.0799
無受	-11.0801
樂受	-11.0801
一由旬	-11.0801
人趣	-11.0804
何謂菩薩等遊	-11.0806
中無有	-11.0807
盡滅	-11.0807
療治	-11.0807
他世	-11.0809
所作業	-11.0809
初示	-11.0811
手中	-11.0813
行慈	-11.0814
覩佛	-11.0815
修慈	-11.0824
是知	-11.0826
無染著	-11.0827
惠施	-11.0827
此語	-11.083
方便智	-11.0833
先道	-11.0834
法而	-11.0837
問我	-11.0845
所歸	-11.0846
此云何	-11.0848
不堪	-11.0849
吾等	-11.0849
信敬	-11.0851
不調伏	-11.0852
諸法門	-11.0852
之屬	-11.0853
佛以	-11.0854
體也	-11.0856
善了知	-11.0858
智行	-11.0859
持其名者	-11.086
上生	-11.0862
即供養	-11.0863
瑕穢	-11.0865
此說是名	-11.0865
常無常	-11.0865
凡夫人	-11.0868
羅云	-11.0868
諸罪	-11.0869
有幾	-11.0869
寶物	-11.0869
長大	-11.0873
所歎	-11.0874
自力	-11.0875
大阿羅漢	-11.0875
同止	-11.0878
諸法實相	-11.088
向前	-11.0881
功德智慧	-11.0882
爾時世尊讚	-11.0883
進趣	-11.0884
時無所從來	-11.0888
淨法	-11.0891
堅牢	-11.0894
甘露法	-11.0895
正住	-11.0896
諸法皆	-11.09
為生	-11.0901
世所	-11.0904
自分	-11.0906
涅槃云	-11.0906
身根	-11.0907
淺深	-11.0909
如須彌	-11.0915
所顯	-11.0915
無貪	-11.0916
無瞋恚	-11.0917
我今為汝	-11.0919
生死之	-11.092
持淨戒	-11.092
二菩薩	-11.0921
覺品	-11.0923
世有	-11.0925
又見	-11.0926
向涅槃	-11.0928
愛之	-11.0929
硨磲	-11.093
其水	-11.0931
明此	-11.0931
所識	-11.0934
攝法	-11.0935
亦不生	-11.0936
離塵	-11.0938
兩義	-11.0938
結歎	-11.0939
中上	-11.0941
咎	-11.0942
忻	-11.0947
佛也	-11.0948
名無相解脫門	-11.0948
此人則為	-11.0948
傳梵大師賜紫沙門臣法護等奉詔譯	-11.0948
羯	-11.0949
三界外	-11.095
爾時世尊欲重宣此義	-11.095
遲	-11.095
他方異國	-11.095
著我	-11.095
惡事	-11.0953
「『	-11.0953
一分	-11.0953
澁	-11.0954
利行	-11.0954
忿	-11.0955
於中初先	-11.0956
事相	-11.0958
大唐三藏菩提流志奉詔譯	-11.0958
以為前導	-11.0959
晝	-11.096
阿脩羅	-11.096
牆壁	-11.0961
彌陀佛	-11.0962
案	-11.0962
常樂我淨	-11.0962
薰	-11.0963
髓	-11.0964
阿逸多	-11.0964
塚間	-11.0964
燃	-11.0964
聞正法	-11.0965
佛已	-11.0965
讚嘆	-11.0965
脂	-11.0966
歎未曾有	-11.0967
蕩	-11.0967
閣	-11.0969
無復煩惱	-11.097
眾所知識	-11.097
瑩	-11.0971
自利利他	-11.0972
下品下生	-11.0972
搖動	-11.0972
練	-11.0972
騰	-11.0972
見於	-11.0973
拂	-11.0974
阿蘭若比丘	-11.0976
嚴淨佛土	-11.0977
否	-11.0978
如我今者	-11.0978
匿	-11.0978
薜荔	-11.0978
百分不及一	-11.0978
山中	-11.0979
盡邊	-11.0979
􂌞	-11.0979
執持名號	-11.0979
一切世間天	-11.0981
恥	-11.0982
剎利	-11.0982
八部	-11.0982
慾	-11.0983
難可了知	-11.0983
愚冥	-11.0983
入大	-11.0983
夫婦	-11.0985
起諸	-11.0987
猪	-11.0987
覺已	-11.0988
無身	-11.0989
醉	-11.099
眾生見	-11.0991
眾妙	-11.0991
誐	-11.0991
名為死	-11.0992
腰	-11.0992
離一切相	-11.0994
得作佛	-11.0995
高座	-11.0995
諸德	-11.0995
無所受	-11.0996
無所染	-11.0999
審諦	-11.1
諸天世人	-11.1
》、《	-11.1002
轉變	-11.1002
善利	-11.1005
獲得如是	-11.1006
隱顯	-11.1007
其過	-11.1009
文殊師利法王子	-11.101
心歡喜	-11.1011
未久	-11.1011
日日	-11.1013
假立	-11.1015
兜率	-11.1015
無忘失	-11.1015
於是世尊	-11.1018
麁細	-11.1019
不親近	-11.1019
機緣	-11.1021
如我所	-11.1021
於諸菩薩	-11.1023
敬信	-11.1024
復何	-11.1024
佛世界	-11.1024
為依	-11.1025
又如實知	-11.1026
古今	-11.1026
諸國	-11.1026
如是知	-11.1027
今此經	-11.1027
五蓋	-11.1028
來集會	-11.1028
如來祕密	-11.103
惱亂	-11.1031
滅道諦	-11.1032
四神足	-11.1035
調和	-11.1037
三萬二千	-11.1037
不言	-11.1038
菩提樹下	-11.1039
進止	-11.104
是無垢	-11.104
開化眾生	-11.1044
前文	-11.1049
王菩薩	-11.1051
人多	-11.1053
解脫者	-11.1055
曼陀羅花	-11.1055
天地	-11.1057
能使	-11.1057
是清淨	-11.1058
若有人	-11.1059
非當有	-11.1059
八十億	-11.1064
當求	-11.1064
當證	-11.107
雖得	-11.107
當知皆是	-11.1071
悟解	-11.1072
今且	-11.1073
行成	-11.1073
聞法已	-11.1073
百千眾生	-11.1073
而已	-11.1073
第二句	-11.1074
三福	-11.1074
之具	-11.1078
及能	-11.1085
癡行	-11.1086
以何為	-11.1086
五欲樂	-11.1089
釋上	-11.1091
而是	-11.1093
是故今	-11.1097
歎其	-11.1097
聲聞獨覺	-11.1099
云何奉持	-11.1099
若取	-11.1102
妙音聲	-11.1103
自作	-11.1104
女報	-11.1104
舉其	-11.1107
迎接	-11.1107
淨持戒	-11.1111
於此經	-11.1113
是曰	-11.1123
說法師	-11.1123
當觀	-11.1127
我心	-11.1131
寂靜故	-11.1132
化益	-11.1132
世界名	-11.1134
殺父	-11.1134
則得	-11.1135
無漏法	-11.1138
千億	-11.1141
說一乘	-11.1142
為空	-11.1143
能現	-11.1144
如來功德	-11.1146
妄生	-11.1146
諸事	-11.1155
我從	-11.1156
令入	-11.1157
之境界	-11.1159
令得阿耨多羅三藐三菩提	-11.116
即同	-11.116
諸大聲聞	-11.1163
高顯	-11.1164
有為生死	-11.1169
甚可	-11.117
之惡	-11.1172
不護	-11.1172
無眼	-11.1174
寶網	-11.1175
不顧	-11.1181
老病死	-11.1182
於佛教	-11.1182
可說	-11.1183
開發	-11.1184
謂之	-11.1186
有種種	-11.1187
諸度	-11.1187
散壞	-11.1187
皆入	-11.1189
廣博	-11.119
心觀	-11.1191
此世界	-11.1193
今說	-11.1193
之間	-11.1195
乃曰	-11.1197
有佛出世	-11.12
比丘眾	-11.1202
因緣生	-11.1207
悕	-11.121
是族姓子	-11.121
之外	-11.121
大捨	-11.1213
大寶	-11.1216
唯說	-11.122
所行處	-11.122
廣略	-11.1221
繫心	-11.1222
對前	-11.1223
說此法	-11.1226
王所	-11.1227
足下	-11.1227
結也	-11.1234
生死涅槃	-11.1235
趣地獄	-11.1236
於欲	-11.1237
順忍	-11.124
之樂	-11.1244
曾有	-11.1245
如是說者	-11.1255
閻浮提中	-11.126
作事	-11.1262
發此	-11.1263
入胎	-11.1264
害心	-11.1265
六界	-11.1266
非想	-11.1267
由其	-11.1268
就文有	-11.1271
道路	-11.1276
起心	-11.1276
紺	-11.1277
修諸行	-11.1277
生執著	-11.1277
滅一切	-11.1277
愍哀	-11.128
解也	-11.128
三處	-11.1283
寶衣	-11.1286
生疑惑	-11.1286
無文字	-11.129
佛塔	-11.1291
是諸菩薩摩訶薩	-11.1293
即前	-11.1294
之難	-11.1295
為最	-11.1295
正定聚	-11.1296
終無有	-11.1303
無量稱王	-11.1303
常想	-11.1304
樂見	-11.1305
不可思議功德	-11.1307
愧	-11.1307
未證	-11.1309
過也	-11.131
乃至涅槃	-11.1311
行德	-11.1314
腹	-11.1315
漢	-11.1317
借	-11.1321
往生彼國	-11.1322
王舍大城	-11.1323
苦受	-11.1324
奉獻	-11.1324
阿羅漢果	-11.1325
說其	-11.1326
得證	-11.1327
有限	-11.1327
辱	-11.1328
得一切佛法	-11.1329
被甲冑	-11.133
貪身	-11.133
釋曰	-11.133
祕密主	-11.1331
法欲滅時	-11.1332
說微妙法	-11.1334
大菩薩藏微妙法門	-11.1334
今現在世	-11.1337
汝言	-11.1339
共生	-11.1343
河沙	-11.1343
忍辱波羅蜜多	-11.1344
逝	-11.1344
無壞	-11.1345
掉	-11.1346
吉利	-11.1346
身量	-11.1346
繫屬	-11.1347
包	-11.1347
靈鷲山	-11.1347
則生	-11.1348
無所得故	-11.1349
勵	-11.1349
伐	-11.1349
飄	-11.1349
何謂菩薩等意分別遊入	-11.135
阿羅呵	-11.135
竊	-11.1351
責	-11.1351
生人中	-11.1351
矜	-11.1352
吒	-11.1352
無難	-11.1352
揀	-11.1352
殑伽沙等	-11.1353
貯	-11.1354
濫	-11.1355
所生之處	-11.1355
大利益	-11.1356
帳	-11.1356
入母胎	-11.1357
給孤獨	-11.1357
乃於	-11.1357
此是菩薩	-11.1358
驢	-11.1358
除愈	-11.1358
荒	-11.1359
叢林	-11.1359
之過	-11.1359
喪	-11.1359
蠲除	-11.136
屠	-11.136
說一切法	-11.1361
豪貴	-11.1361
尊卑	-11.1361
攬	-11.1362
禽	-11.1362
修成	-11.1364
有斯患	-11.1364
久近	-11.1365
半偈	-11.1365
所食	-11.1365
來至此	-11.1365
繒綵	-11.1366
嗚呼	-11.1369
爾時世尊而說頌曰	-11.1371
憶持	-11.1372
說彼	-11.1373
喻如	-11.1373
就前	-11.1376
有千	-11.1378
毒蛇	-11.1381
輪寶	-11.1382
者明	-11.1383
三章	-11.1384
大河	-11.1385
與諸大眾	-11.1385
業因緣故	-11.1386
置於	-11.1386
却後	-11.1386
違諍	-11.139
二別	-11.1391
休息	-11.1393
愛重	-11.1394
有大威德	-11.1395
世界中	-11.1399
說諸法	-11.1401
在閑居者	-11.1403
諸通慧	-11.1405
必能	-11.1405
諸佛子	-11.1406
時淨飯王	-11.1406
大牟尼	-11.1409
耳識	-11.141
行圓滿	-11.1412
稽首禮	-11.1413
所執	-11.1413
先觀	-11.1417
噵	-11.1418
利益安樂	-11.1418
今佛	-11.142
墮在	-11.1421
不減	-11.1422
如其所	-11.1423
非道	-11.1424
濟度	-11.1424
汝問	-11.1427
淨潔	-11.1428
悅可	-11.1428
問如來	-11.143
以善方便	-11.1431
安樂國	-11.1432
眾生令	-11.1433
所纏	-11.1435
佛語彌勒	-11.1435
令諸有情	-11.1436
此則是	-11.1438
一切諸佛所護念經	-11.1439
生厭離	-11.1439
亦難	-11.1439
同等	-11.1439
萬歲	-11.1444
息除	-11.1445
百千俱胝那庾多	-11.1445
為汝	-11.1446
如所說	-11.1451
煩惱濁	-11.1453
無有厭足	-11.1454
蓋是	-11.1454
受我	-11.1454
說一乘道	-11.1454
彼菩提道	-11.1458
四章	-11.1458
得決定	-11.1458
皆使	-11.1459
何謂四	-11.1461
造罪	-11.1461
不殺	-11.1462
不近	-11.1462
顯其	-11.1463
得度	-11.1464
亂心	-11.1464
奉上	-11.1466
皆名	-11.1467
有斯	-11.1467
初發意	-11.1468
六明	-11.1469
能治	-11.1472
問難	-11.1475
有子	-11.1475
專精	-11.1476
頭面	-11.148
滅煩惱	-11.1482
珠寶	-11.1482
由於	-11.1484
得罪	-11.1487
極為	-11.1487
風大	-11.1488
何故菩薩	-11.1491
慧者	-11.1494
為道	-11.1497
備悉	-11.1497
放捨	-11.1499
教主	-11.1501
求解脫	-11.1502
生驚怖	-11.1508
起大悲	-11.1508
為破	-11.1509
如來十力	-11.1509
天子當知	-11.1511
感應	-11.1514
無遺	-11.1514
不待	-11.1515
牟	-11.1515
明修	-11.1515
作沙門	-11.1517
供養我	-11.1518
四地	-11.152
除諸	-11.1521
計我	-11.1522
同於	-11.1523
法財	-11.1526
一切諸眾生	-11.1526
此一	-11.1527
菩薩若能	-11.153
眾圍繞	-11.153
為別	-11.1533
又解	-11.1538
大火	-11.1539
四天王天	-11.1539
同處	-11.1541
不習	-11.1545
方便故	-11.1546
若據	-11.1546
二從	-11.1547
不能自	-11.155
髻	-11.1551
佛復告	-11.1551
要當	-11.1551
文殊言	-11.1553
序分	-11.1555
如是次第	-11.1557
於善	-11.1559
將來	-11.1562
無差	-11.1562
舉足	-11.1563
覺觀	-11.1566
七千	-11.1567
池水	-11.1568
所作事	-11.1568
為未來	-11.157
道教	-11.157
諸不善法	-11.1576
常能	-11.1578
十事	-11.1578
無有少	-11.1582
宮內	-11.1584
得授記	-11.1584
四寶	-11.1586
果故	-11.1587
久已	-11.1587
此會	-11.159
聲聞人	-11.159
於無量劫	-11.159
樂處	-11.1592
施等	-11.1593
解脫道	-11.1594
見諸眾生	-11.1597
行列	-11.1603
相即	-11.1604
三聚	-11.1604
離自性	-11.1604
此娑婆世界	-11.1605
佛地論	-11.1606
復有三	-11.1608
此二歸依	-11.1609
此經典	-11.161
無法可	-11.1611
本自	-11.1611
業行	-11.1614
何故名	-11.1616
彼苾芻	-11.1622
佛是	-11.1628
言其	-11.1632
以佛神力	-11.1632
是故名	-11.1637
成菩提	-11.1641
教示	-11.1641
以施	-11.1642
即於佛前	-11.1642
不逆	-11.1648
限量	-11.1648
善作	-11.1654
得失	-11.1654
稱說	-11.1654
黠	-11.1655
道智	-11.1655
約人	-11.1655
訶毀	-11.1657
瑪瑙	-11.1658
時彼菩薩	-11.166
掌中	-11.1661
坐處	-11.1662
所染	-11.1664
攝論	-11.1666
而食	-11.1671
百萬	-11.1672
永不	-11.1672
本行	-11.1674
報佛	-11.1676
為異	-11.1682
有四句	-11.1689
非唯	-11.1689
遍行	-11.1692
彼若	-11.1695
不等	-11.1697
故令	-11.17
得住	-11.1701
應住	-11.1702
不愛樂	-11.1704
所用	-11.1708
如來具足殊勝	-11.171
於彼佛所	-11.171
生尊重	-11.1711
舍衛城	-11.1716
雖無	-11.1718
印印一切法	-11.172
旃陀羅	-11.172
須菩提復問	-11.1722
旒蘇	-11.1724
皆不失壞	-11.1725
修戒	-11.1726
分不及一	-11.1727
疲惓	-11.173
末利	-11.1733
復起	-11.1735
得是願乃作佛	-11.1737
正慧	-11.1738
筏底	-11.1738
我不作佛	-11.1738
冤	-11.1739
文殊師利童真菩薩	-11.174
與虛空等	-11.1741
*	-11.1742
如是忍故	-11.1743
交絡	-11.1743
凝	-11.1743
入舍婆提城	-11.1744
四大洲	-11.1744
付囑	-11.1744
憂悲苦惱	-11.1746
覲	-11.1746
c	-11.1746
f	-11.1746
寒熱	-11.1746
三十七品	-11.1747
攝受正法者	-11.1747
淤泥	-11.1747
士夫	-11.1748
閻浮檀金	-11.1748
迦陵頻伽	-11.1748
前後圍遶	-11.1749
修作	-11.1749
人王	-11.175
假使有人	-11.1751
捐	-11.1751
拔濟	-11.1751
解脫智見	-11.1752
佛光明	-11.1753
慳惜	-11.1753
數取	-11.1753
相續不斷	-11.1755
歡喜奉行	-11.1755
以是之故	-11.1756
綵	-11.1757
眉間	-11.1757
是則附於欲	-11.1757
縱橫	-11.1757
說此偈已	-11.1758
猛利	-11.1758
祇陀	-11.1759
要期	-11.1759
嘉	-11.176
寂意菩薩	-11.176
乞匃	-11.1761
束	-11.1762
戲笑	-11.1763
尼彌王	-11.1763
咽	-11.1767
籠	-11.1768
於母腹中有風	-11.1768
涼	-11.1771
且止	-11.1773
臨死	-11.1774
質直	-11.1775
不得自在	-11.1777
非聲聞	-11.1778
不取菩提	-11.1783
胎藏	-11.1785
具足功德	-11.1786
佛力	-11.1789
生大歡喜	-11.1789
破無明	-11.1793
百千由旬	-11.1793
法無我	-11.1794
業者	-11.1798
終始	-11.1799
殊異	-11.1799
調伏眾生	-11.18
正勸	-11.1804
別教	-11.1807
聞是經	-11.1807
財富	-11.1808
欲顯	-11.181
教行	-11.1814
如意足	-11.1817
未見	-11.1818
當知即是	-11.182
百千種	-11.182
得此三昧	-11.182
戒定慧	-11.1822
威儀禮節	-11.1823
善聽	-11.1829
不了知	-11.183
能施	-11.1832
動亂	-11.1835
教勅	-11.1836
心法	-11.1836
無其	-11.1836
無方	-11.1838
為菩薩時	-11.1843
塗香末香	-11.1844
於戒	-11.1844
釋此	-11.1845
無病	-11.1847
不必	-11.185
法智	-11.1852
如是寂意	-11.1854
尊重讚歎	-11.1855
聞此法	-11.1857
或見菩薩	-11.1858
初約	-11.1858
雜寶	-11.1858
生歡喜心	-11.1862
勿令	-11.1863
於上	-11.1864
第四從	-11.1865
愛見	-11.1866
施已	-11.1868
愍傷	-11.1868
此業	-11.1871
我應	-11.1872
無轉	-11.1872
大利	-11.1873
初總	-11.1873
心不相應	-11.1878
異論	-11.1881
謗毀	-11.1882
汝云何	-11.1883
可厭	-11.1884
園觀	-11.1884
便即	-11.1885
五曰	-11.1885
一切時	-11.1886
精進行	-11.1889
見諸法	-11.1889
復有二	-11.189
由佛	-11.1891
起大	-11.1892
事究竟	-11.1896
心無所著	-11.1899
迴心	-11.1902
三世平等	-11.1902
妙菩提	-11.1903
為師	-11.1904
無邊智	-11.1905
商主	-11.1905
滅智	-11.1905
死魔	-11.1907
戒德	-11.1911
意者	-11.1914
食時	-11.1914
不散	-11.1915
次觀	-11.1915
住大乘	-11.1917
正示	-11.192
善思惟	-11.192
饒	-11.1922
明鏡	-11.1924
正使	-11.1925
瑞相	-11.193
結成	-11.193
樓觀	-11.1932
戒律	-11.1933
甚為	-11.1936
!』	-11.1937
於眾	-11.1938
皆悉具足	-11.194
真佛	-11.1943
能入解	-11.1946
不及一	-11.1947
合上	-11.1948
釋所以	-11.1948
方所	-11.1951
止住	-11.1952
菩提果	-11.1954
決了	-11.1954
觀無量壽	-11.196
此解	-11.196
為一切	-11.1961
失念	-11.1963
今釋	-11.1963
彼世界	-11.1965
自然智	-11.1968
得成佛	-11.1972
興供養	-11.1972
常起	-11.1976
如世尊	-11.1978
三月	-11.198
顯了	-11.1981
如所	-11.1983
何以故者	-11.1983
一切法中	-11.1984
疏云	-11.1985
菩薩藏正法	-11.1986
入大乘	-11.1986
隨心所	-11.1987
食者	-11.1991
難遇	-11.1993
次於	-11.1994
本國	-11.1995
為最上	-11.1996
滅惡	-11.1999
生死海	-11.2002
於義	-11.2003
亦復無	-11.2003
偏舉	-11.2006
著於	-11.2007
皆依	-11.2009
證明	-11.201
惡聲	-11.2014
分衛	-11.2015
六十四	-11.2018
即非	-11.2021
以妙	-11.2022
圍	-11.2027
華嚴經	-11.2029
謂無	-11.2037
依果	-11.2041
諸結	-11.2044
世事	-11.2044
得成阿耨多羅三藐三菩提	-11.2047
能伏	-11.2052
等虛空	-11.2055
為宣說	-11.2055
生滅故	-11.2056
眾花	-11.2057
名說	-11.2058
嘆佛	-11.2059
長老阿難	-11.206
初發	-11.2063
眼入	-11.2063
以天	-11.2063
應有	-11.2069
行忍辱	-11.207
於後末世	-11.207
明淨	-11.2073
成身	-11.2075
故說為	-11.2076
既云	-11.2076
心自在	-11.2078
如是住	-11.2083
處世	-11.2084
起惡	-11.2087
今復	-11.209
掌	-11.2091
觀智	-11.2091
而與	-11.2099
譬若	-11.2106
句不同	-11.2106
宜應	-11.2108
明如來藏	-11.2108
菩薩若夢中	-11.2109
及聲聞眾	-11.211
善修習	-11.2113
了別	-11.2115
汝說	-11.2115
非二乘	-11.2115
安樂世界	-11.2115
生死者	-11.2117
常處	-11.2118
乘空	-11.2119
所疑	-11.212
與大比丘眾	-11.2121
修空	-11.2122
恭敬尊重	-11.2124
不成就	-11.2126
舉聲	-11.2127
而共同止	-11.213
得脫	-11.213
圓滿故	-11.213
諸菩薩摩訶薩應入	-11.2134
二寶	-11.2134
欲為	-11.2135
寫	-11.2137
萬四千	-11.214
小萎	-11.2143
報土	-11.2144
皆發無上正真道意	-11.2144
未滿	-11.2145
發希有想	-11.2147
意三種業	-11.2147
應如是持	-11.2149
勿生	-11.215
菩薩戒	-11.2152
二十七	-11.2153
大目如來	-11.2154
四種法	-11.2155
境智	-11.2157
策	-11.2157
於諸世間心不疲惓	-11.2159
涅	-11.2159
地獄中	-11.216
入三昧	-11.2161
別相	-11.2161
大集	-11.2161
給侍	-11.2162
既出家已	-11.2163
疲	-11.2163
泡	-11.2164
離垢施	-11.2164
禪波羅蜜	-11.2165
以要言之	-11.2166
二足尊	-11.2166
種種諸	-11.2167
領納	-11.2167
如金剛	-11.2167
陵	-11.2168
憑	-11.217
癡暗	-11.217
爾時彌勒菩薩白佛言	-11.2171
自言	-11.2171
一切樂具	-11.2172
孤獨	-11.2172
竪	-11.2173
耳鼻舌身心	-11.2174
醎	-11.2175
不可限量	-11.2175
肉眼	-11.2176
育	-11.2176
一切諸法無	-11.2177
香潔	-11.2177
卷第三	-11.2177
膩	-11.2177
發淨心	-11.2177
竝	-11.2178
秦	-11.2178
八功德水	-11.2178
希有之法	-11.2178
憂慼	-11.2179
囑	-11.2179
以此功德	-11.218
對二乘	-11.218
華嚴云	-11.2181
弁	-11.2181
曠劫	-11.2181
衣被	-11.2181
安隱快樂	-11.2182
買	-11.2184
誰是	-11.2184
後有	-11.2184
無上丈夫	-11.2186
心則	-11.2188
大光	-11.2189
可解	-11.219
多囉	-11.219
實也	-11.2193
顛倒眾生	-11.2195
菩薩於彼	-11.2195
嚴好	-11.2195
禍	-11.2196
雖殊	-11.22
囉尼	-11.2203
過咎	-11.2203
時也	-11.2203
一切皆是	-11.2204
散花	-11.2204
母腹	-11.2206
被服	-11.2209
▁薩	-11.221
總名	-11.2211
各別	-11.2211
如是種種	-11.2211
自己	-11.2213
商人	-11.2214
床座	-11.2215
非第一義	-11.2216
捨施	-11.2218
俱胝那由他	-11.2222
蒙佛	-11.2222
及眾	-11.2223
之罪	-11.2223
作是觀者	-11.2224
是故世尊	-11.2224
作是語	-11.2225
於正法中	-11.2227
殊勝功德	-11.2228
赤珠	-11.223
得之	-11.2231
受是	-11.2234
是為十	-11.2235
聞是法	-11.2235
法想	-11.2235
現在世	-11.2238
名不思議	-11.2239
相狀	-11.2239
無欲	-11.2242
前中	-11.2242
八諦	-11.2244
業因	-11.2248
妙衣	-11.225
無有眾生	-11.225
出三界	-11.2252
別名	-11.2253
寂慧菩薩	-11.2254
若謂	-11.2256
無量清淨佛光明	-11.2256
其前	-11.2257
四德	-11.2258
觀中	-11.2259
如是知已	-11.226
所生處	-11.2266
其量	-11.2269
惡因	-11.2271
婆羅	-11.2273
甚善	-11.2276
受此	-11.2278
觀想	-11.2278
於諸善法	-11.228
別異	-11.2281
於生死中	-11.2283
異相	-11.2286
以知	-11.2288
之也	-11.2289
布施者	-11.2289
辟支佛乘	-11.2292
卷第四	-11.2297
入惡道	-11.2299
印可	-11.2301
得淨	-11.2302
結示	-11.2302
若能了知	-11.2303
於理	-11.2304
豫	-11.2304
微少	-11.2304
諸天子等	-11.2308
是有	-11.2309
即應	-11.2311
有大利益	-11.2316
更無餘	-11.232
各持	-11.2321
本是	-11.2327
破惡	-11.2327
彼佛剎	-11.2328
當修	-11.233
永滅	-11.2331
說妙法	-11.2331
無量清淨佛國	-11.2334
得佛道	-11.2337
佛陀	-11.234
無苦	-11.234
來此	-11.2344
亦復不能	-11.2346
當更	-11.2347
於諸眾生起	-11.2348
諸禪定	-11.2353
有礙	-11.2354
如是見	-11.2354
唯在	-11.2358
梵眾	-11.236
不至	-11.236
集起	-11.236
無穢	-11.236
勝上	-11.236
佛事	-11.236
平等法	-11.2361
述云	-11.2365
非謂	-11.2365
是第三	-11.2368
感得	-11.2368
如化	-11.2371
此即是	-11.2371
右脇	-11.2372
十八界	-11.2376
法印	-11.238
教中	-11.238
揭	-11.2381
初先	-11.2383
生憂惱	-11.2388
用此	-11.2389
德行	-11.2389
諸佛境界	-11.239
演法	-11.2393
為身	-11.2394
即法	-11.2398
見佛聞法	-11.2399
灑	-11.24
如月	-11.2404
地方	-11.2406
粗	-11.2414
故使	-11.2417
業果報	-11.2418
餘菩薩	-11.2419
初發心菩薩	-11.2419
若至	-11.242
四魔	-11.2421
大菩薩眾	-11.2422
我今欲	-11.2422
汝今諦聽	-11.2425
能如是	-11.2428
唯為	-11.2431
嚴身	-11.2431
無礙心	-11.2434
不去	-11.2435
至涅槃	-11.2438
淨光	-11.2438
若於眼	-11.2439
無量壽觀	-11.2441
唯見	-11.2445
死時	-11.2446
又上	-11.2451
業煩惱	-11.2453
我亦如是	-11.2454
於非	-11.2455
十俱胝	-11.2456
信佛語	-11.2459
了諸法	-11.2462
所逼	-11.2463
金剛杵	-11.2467
惡慧	-11.2468
工	-11.2474
化比丘	-11.2477
無量佛	-11.2479
道品	-11.2479
煩惱病	-11.248
殑伽沙數	-11.2482
為他人	-11.2482
滯	-11.2483
如大海	-11.2483
色愛	-11.2486
是真實	-11.2486
真正	-11.249
所立	-11.2493
以清淨心	-11.2493
不別	-11.2494
由我	-11.2496
如是相	-11.2498
雖知	-11.25
已便	-11.2503
得名為	-11.2504
如是事	-11.2506
邪業	-11.2506
音菩薩	-11.2507
淨布施	-11.2507
以供養	-11.2507
無足	-11.2509
所治	-11.2509
樂睡眠	-11.251
口四	-11.2511
有生死	-11.2513
求出家	-11.2516
皆歡喜	-11.2517
諸魔眾	-11.2518
未除	-11.252
眾病	-11.2523
多羅	-11.2524
或食	-11.2525
聞名	-11.2529
佛告彌勒菩薩	-11.2529
處非處	-11.253
無勝	-11.2533
離殺生	-11.2535
一名字	-11.2535
卷第一	-11.2536
因是	-11.2536
言之	-11.2539
離生死	-11.2541
之願	-11.2541
成就深心	-11.2542
無量眾	-11.2542
世間出世間	-11.2543
名為菩薩	-11.2549
無智者	-11.2554
習學	-11.2555
忿恚	-11.2556
於一事中	-11.2557
何事	-11.2557
之所以	-11.256
壞滅	-11.256
真實功德	-11.2562
又為	-11.2563
般	-11.2565
勝義諦	-11.2568
而發趣於阿耨多羅三藐三菩提	-11.2571
我從今日乃至菩提	-11.2571
順行	-11.2571
三界中	-11.2572
大經	-11.2574
麁言	-11.2575
力者	-11.2576
諸惡道	-11.2576
無慧	-11.2577
窟	-11.2577
誤失	-11.2578
作者	-11.258
是人所夢執	-11.2581
人愛樂於此經	-11.2583
恭	-11.2583
所牽	-11.2584
驚畏	-11.2584
貪染	-11.2585
如人夢中	-11.2585
五百長者	-11.2589
於一一	-11.2589
如來說法	-11.2591
五神通	-11.2591
後復生起身喜心喜	-11.2592
陰界入	-11.2593
罪人	-11.2594
為佛作禮	-11.2594
顧戀	-11.2594
勤行精進	-11.2595
清淨無垢	-11.2596
調御士	-11.2596
以至蜎飛蠕動之類	-11.2596
孝養父母	-11.2597
清徹	-11.2597
資養	-11.2597
無吾我	-11.2597
迦毘羅城	-11.2599
說如是法	-11.2599
千分不及一	-11.26
合有	-11.26
於來世	-11.26
舍摩他	-11.2602
邪定聚	-11.2602
善住意	-11.2602
寬	-11.2602
其國土	-11.2602
瞻禮	-11.2603
豐饒	-11.2603
四門	-11.2603
纔	-11.2603
嬈惱	-11.2603
戾	-11.2604
因其	-11.2605
麁獷	-11.2605
體是	-11.2606
文顯可	-11.2607
幸	-11.2607
匹	-11.2607
峯	-11.2607
逾	-11.2609
叉	-11.2609
玻	-11.2609
籌	-11.2609
陰魔	-11.2611
眉	-11.2611
如所聞法	-11.2612
其城中	-11.2612
始從	-11.2612
得度脫	-11.2613
聲聞之眾	-11.2613
當捨	-11.2613
英	-11.2613
黠慧	-11.2614
或墮	-11.2614
謙下	-11.2616
冬	-11.2616
地天	-11.2617
斯人	-11.2618
佉	-11.2619
宇	-11.2619
禰	-11.262
於長夜中	-11.262
不如理作意	-11.262
得法眼淨	-11.262
迴向發願	-11.2621
誕	-11.2621
接引	-11.2621
形貌	-11.2621
一切種	-11.2622
領解	-11.2622
大勢至菩薩	-11.2622
駕	-11.2623
一切法平等	-11.2624
善順	-11.2624
難事	-11.2624
獵師	-11.2625
身無	-11.2625
故現	-11.2629
大德須菩提	-11.2631
八正道	-11.2633
現其身	-11.2633
獲益	-11.2633
於現在世	-11.2635
當時	-11.2636
時舍利弗	-11.2636
弭	-11.2637
爾時得無垢女	-11.2638
境界故	-11.2638
良由	-11.2638
甚深義	-11.2639
見濁	-11.264
怯弱	-11.264
得其	-11.2641
善達	-11.2641
皆同一	-11.2641
變成	-11.2644
四正勤	-11.2645
而修行	-11.2645
菩薩有四法	-11.265
分證	-11.2653
威神力故	-11.2657
與大比丘	-11.2658
他方世界	-11.2658
親愛	-11.266
乃至一念	-11.2661
入母腹	-11.2664
不但	-11.2667
利益事	-11.2669
寶鈴	-11.267
之語	-11.2671
識住	-11.2671
地前菩薩	-11.2672
以斯	-11.2672
初正	-11.2672
眾生聞	-11.2673
能受	-11.2682
聞佛名	-11.2683
四智究竟	-11.2684
大眾中	-11.2685
法御	-11.2689
受食	-11.2691
過諸	-11.2691
方處	-11.2691
錢財	-11.2692
難量	-11.2693
【	-11.2693
普觀	-11.2695
利養名聞	-11.2696
瞋癡	-11.2696
出種種	-11.2698
前後際	-11.2698
十萬	-11.2699
法師云	-11.2699
婦人	-11.2701
智德	-11.2701
始覺	-11.2702
形體	-11.2702
復無	-11.2705
為苦	-11.2708
調柔	-11.2709
覺慧	-11.271
乃至成佛	-11.2712
像觀	-11.2714
解入	-11.2714
修諸功德	-11.2717
不學	-11.2718
因力	-11.2722
十住	-11.2724
應云	-11.2732
黃色	-11.2732
皆可	-11.2737
為令眾生	-11.2738
所謂身	-11.274
名等	-11.2741
初至	-11.2741
戒聚	-11.2741
愚癡人	-11.2744
心得自在	-11.2745
俱胝歲	-11.2747
遇善知識	-11.2749
槃	-11.275
阿闍世王	-11.2751
信忍	-11.2751
知佛	-11.2758
非我所	-11.2759
受報者	-11.276
大聲聞	-11.2762
於中有三	-11.2763
二足	-11.2763
卷第二	-11.2763
如說行	-11.2766
所度	-11.2766
舉此	-11.2768
取彼	-11.277
觀也	-11.277
而觀	-11.2771
悉空	-11.2771
證故	-11.2772
淨國	-11.2773
無量壽如來	-11.2773
願聞	-11.2775
等無異	-11.2776
小果	-11.2776
如是行相	-11.2778
善也	-11.2781
生也	-11.2784
恒河	-11.2784
佛及菩薩	-11.2785
鈴網	-11.2787
受決	-11.2788
但唯	-11.279
及眾生	-11.2792
邊地	-11.2793
淨名	-11.2797
如來悉知	-11.2797
一切皆如是	-11.2798
宗體	-11.28
樂器	-11.2803
辨其	-11.2805
正路	-11.2806
尊者須菩提	-11.2806
亦不見有	-11.2807
不攝	-11.2809
於聲聞	-11.2812
是為菩薩摩訶薩	-11.2812
異生	-11.2812
五百菩薩	-11.2813
向苦	-11.2814
明其所	-11.2814
同異	-11.2816
諸女	-11.2816
惡趣中	-11.2817
發聲	-11.2819
正為	-11.2824
依怙	-11.2826
強名	-11.2829
生染著	-11.2833
貪瞋癡等	-11.2834
三世佛	-11.2835
人能	-11.2836
白銀為	-11.2838
是誰	-11.2838
爾時有佛	-11.2839
於此法	-11.284
此五	-11.284
當相	-11.284
明菩薩	-11.2841
法空	-11.2843
官屬	-11.2843
四顛倒	-11.2846
普入	-11.2846
一境	-11.2851
如來已	-11.2851
而知	-11.2853
七寶樹	-11.2854
一千	-11.2855
我此	-11.2856
光普照	-11.2857
所藏	-11.2857
愚夫異生	-11.2857
見於如來	-11.286
電光	-11.2861
終歸	-11.2861
讚說	-11.2862
先世	-11.2863
汝等眾生	-11.2863
我皆	-11.2866
聲聞藏	-11.2867
不能斷	-11.2871
不退轉於阿耨多羅三藐三菩提	-11.2872
寶積	-11.2873
不思惟	-11.2876
二藏	-11.2877
而發	-11.2877
何意	-11.2879
中起	-11.2882
正義	-11.2888
是性	-11.2889
樹枝	-11.289
教他	-11.289
利刀	-11.2891
只是	-11.2892
七寶所成	-11.2892
王者	-11.2893
成立	-11.2894
百分	-11.2896
是故說	-11.2901
對治故	-11.2902
三十五	-11.2904
內德	-11.2904
慧菩薩	-11.2907
不妄語	-11.2911
度一切	-11.2911
識亦如是	-11.2912
外凡	-11.2914
亦二	-11.2918
敬心	-11.2919
凡人	-11.292
故不得	-11.2922
皆是如來	-11.2924
以聞	-11.2925
同生	-11.2925
往生者	-11.2925
諸比丘等	-11.2926
此之二	-11.2927
能堪忍	-11.2927
有身	-11.293
地持	-11.2932
施故	-11.2933
此願	-11.2935
不安	-11.2937
菩薩為	-11.2941
此四種	-11.2943
十由旬	-11.2946
不謗	-11.2947
有所作	-11.2948
依教	-11.2948
六曰	-11.2949
久如	-11.2951
三十一	-11.2951
為現	-11.2952
眾想	-11.2954
▁爾時	-11.2954
五事	-11.2957
皆名為	-11.2958
妙果	-11.2962
戒者	-11.2963
諸佛國	-11.2963
下言	-11.2964
與人	-11.2964
散滅	-11.2966
有常	-11.2967
以信	-11.2968
當念	-11.2969
觀其	-11.297
如是如來	-11.2974
此光	-11.2974
戒聞	-11.2975
生彼國者	-11.2979
善施	-11.2979
相不可得	-11.2979
自活	-11.2987
無命	-11.2988
佛會	-11.2988
正修行	-11.2988
住法	-11.2989
最勝尊	-11.2991
最正覺	-11.2993
諸師	-11.2993
非淨	-11.2994
況餘	-11.3
於苦	-11.3005
文別有	-11.3007
愚迷	-11.3007
對上	-11.3007
龍神	-11.3009
能示現	-11.301
根力	-11.301
所習	-11.3011
心念言	-11.3011
滅者	-11.3012
枯	-11.3014
之王	-11.3014
其形	-11.3016
一觀	-11.3017
釋迦文	-11.3017
譬如世間	-11.3019
歸於	-11.3026
缺減	-11.3028
如響	-11.303
阿惟越致	-11.303
身得	-11.3033
佛邊	-11.3035
能藏	-11.3035
上地	-11.3037
一部	-11.3037
到彼岸義	-11.3041
愍眾生	-11.3041
從坐而起	-11.3041
何處眼	-11.3041
空義隱覆	-11.3042
持諸禁戒	-11.3042
身語意	-11.3042
侍衛	-11.3043
不請	-11.3043
乃至施及貯水	-11.3044
相也	-11.3045
四十二	-11.3045
脩羅	-11.3045
發無上道心	-11.3045
播	-11.3046
傾動	-11.3046
不瞋	-11.3047
弄	-11.3047
即現其身而為化度	-11.3047
遠塵離垢得法眼淨	-11.3048
住立一面	-11.3049
右繞七匝	-11.305
一四句偈	-11.305
勤加精進	-11.3051
化樂天	-11.3051
就初段中	-11.3051
螺	-11.3051
無二無別	-11.3052
是故次觀	-11.3052
壁	-11.3052
綺飾	-11.3053
捨家出家	-11.3053
3	-11.3053
頂戴	-11.3054
念根	-11.3055
自然七寶	-11.3055
軌	-11.3056
牆	-11.3057
鉢唎	-11.3058
裹	-11.3058
所觀境	-11.3058
米	-11.3059
如其所應	-11.3059
以空	-11.3059
三耶三佛	-11.306
欽	-11.306
努	-11.306
第三段中	-11.306
充足	-11.3061
嚟	-11.3061
不可窮盡	-11.3063
如其次第	-11.3063
見是事已	-11.3063
是為菩薩等遊	-11.3064
墮於惡趣	-11.3064
詣佛	-11.3065
攝入	-11.3065
上品上生	-11.3065
亦離	-11.3066
顏容	-11.3066
展轉相	-11.3066
灌	-11.3067
甚深之法	-11.3067
忽然不現	-11.3068
開合	-11.3068
棄背	-11.3069
五法	-11.3069
肘	-11.3069
孝順	-11.3069
滋	-11.307
四萬二千	-11.307
證理	-11.3071
摩休勒	-11.3071
無礙辯才	-11.3071
舌根	-11.3071
惑亂	-11.3073
如是言生	-11.3073
位也	-11.3073
爾時世尊即	-11.3074
稽首足下	-11.3076
頭目	-11.3077
智者誰不	-11.3077
餘方	-11.3078
無有邊	-11.3079
而實	-11.3079
車乘	-11.3079
一心不亂	-11.3079
圓備	-11.3079
塵沙	-11.3079
盤	-11.308
正位	-11.308
明月珠	-11.308
無過上	-11.3081
第十五	-11.3081
慈哀	-11.3081
自知作佛	-11.3082
此明夫人	-11.3082
無漸至	-11.3083
乞士	-11.3083
住著	-11.3084
耆年	-11.3084
隨其所應	-11.3085
親近善友	-11.3085
等者無名云	-11.3086
機關	-11.3086
偈頌	-11.3088
定根	-11.3089
是菩薩忍	-11.3092
能覆	-11.3094
為生死	-11.3094
堅固精進	-11.3094
則自然	-11.3095
眾生煩惱	-11.3095
智光	-11.3097
光菩薩	-11.3097
佛滅後	-11.3097
未來世中	-11.3098
離散	-11.3098
得利	-11.3099
佛頂	-11.3099
所向	-11.3099
二身	-11.31
非為	-11.31
在中	-11.3101
今就	-11.3101
靜處	-11.3101
即是此說苦	-11.3102
住止	-11.3103
面目	-11.3104
不墮惡趣	-11.3105
塔廟	-11.3107
地大	-11.3107
能住	-11.3108
滿月	-11.3109
既爾	-11.3114
三智	-11.3115
便當	-11.3116
苦智	-11.3117
藥草	-11.3118
妙善	-11.3119
極苦	-11.3119
有一比丘	-11.312
慈能	-11.3121
如來大悲	-11.3123
離彼	-11.3124
願欲	-11.3126
色欲	-11.3129
佛具	-11.3131
供佛	-11.3132
見一切法	-11.3133
長者居士	-11.3135
卷第一百	-11.314
不思議法	-11.3142
子等	-11.3142
禪思	-11.3144
不來	-11.3146
我國	-11.3148
無諍論	-11.3148
六方	-11.3149
施以	-11.3151
堅著	-11.3151
之藏	-11.3151
無優劣	-11.3152
戒故	-11.3153
諸不善	-11.3154
極貧	-11.3155
彼國眾生	-11.3155
具足戒	-11.3156
此岸	-11.316
所應作	-11.3162
眾患	-11.3163
取之	-11.3165
不以為	-11.3165
又復有	-11.3167
第十四	-11.3168
惡不善法	-11.3169
佛弟子	-11.3169
心相續	-11.3169
此智	-11.3173
四重	-11.3173
能善了知	-11.3176
其色	-11.3177
及聞	-11.318
有煩惱	-11.318
而共	-11.3182
不失壞	-11.3185
無義利	-11.319
不作是念	-11.3191
無為生死	-11.3192
爾時佛告	-11.3196
善言	-11.3198
持禁戒	-11.32
受滅	-11.3201
悅豫	-11.3202
一滅諦	-11.3203
眾共	-11.3204
自性清淨心	-11.3205
性平等	-11.3207
於五欲	-11.3212
覺了故	-11.3213
依何	-11.3213
助成	-11.3218
惡比丘	-11.3218
今之	-11.322
無諂	-11.3222
成其	-11.3223
名相	-11.3224
初略	-11.3226
觀眾生	-11.3227
生後	-11.3227
超出	-11.323
心識	-11.3234
三匝	-11.3235
聲聞乘人	-11.3238
以心	-11.3238
今云	-11.3239
不一	-11.324
白文殊師利言	-11.3242
常親近	-11.3243
雖受	-11.3244
法雨	-11.3246
如是名	-11.3248
從一	-11.3249
超度	-11.325
觀相	-11.325
重明	-11.3252
以離	-11.3253
計著	-11.3253
娑羅	-11.3254
顯前	-11.3255
觀視	-11.3256
名譽	-11.3257
作是願	-11.3258
住立	-11.3259
還生	-11.3261
為色	-11.3262
無量世界	-11.3266
辟支	-11.3273
當往	-11.3277
十年	-11.3278
同歸	-11.3278
以我	-11.3278
無壽者	-11.328
戒定	-11.3288
饒益眾生	-11.3289
怖魔	-11.3291
為成	-11.3294
以手	-11.3296
大法光明	-11.3296
山頂	-11.3297
生此	-11.3297
陀羅	-11.3301
毀罵	-11.3302
諸世界	-11.3302
方能	-11.3302
多不	-11.3302
此如是等	-11.3305
去家	-11.3305
六時	-11.3307
此諦	-11.3308
如世	-11.3314
如來教	-11.3316
故先	-11.3317
勝鬘說	-11.3318
為食	-11.3318
乃名	-11.332
大義	-11.3325
異道	-11.3326
過去佛	-11.3328
人非人	-11.3328
離染	-11.3331
念住	-11.3331
我得	-11.3332
第四明	-11.3333
謂一切法	-11.3334
無所觀	-11.3336
及諸天	-11.3336
起慈心	-11.3338
興發	-11.3339
作金色	-11.3341
證悟	-11.3343
八解脫	-11.3347
眼菩薩	-11.3348
億萬	-11.3349
在後	-11.335
不思議智	-11.3352
略釋	-11.3355
雖見	-11.3356
無熱惱	-11.3356
轉增	-11.3358
為藥	-11.336
不得生	-11.3361
一切眾生心	-11.3361
止善	-11.3361
檀越	-11.3362
而往	-11.3364
本來空	-11.3364
我昔為	-11.3365
求佛道	-11.3365
妙相	-11.3366
起發	-11.337
其道	-11.337
云何是	-11.3371
命濁	-11.3371
頂相	-11.3371
如下	-11.3375
化也	-11.3375
如是等經	-11.3376
別歎	-11.3377
空處	-11.3378
普施	-11.3379
皆成	-11.3379
出其	-11.3388
受彼	-11.3388
之位	-11.3389
無戒	-11.3389
何名為	-11.3392
頂受	-11.3393
口言	-11.3393
當作是念	-11.3396
無我無人	-11.34
三戒	-11.3401
當應	-11.3401
誰當	-11.3401
是法身	-11.3401
性清淨	-11.3403
他國	-11.3404
所說之法	-11.3406
得一切智	-11.3407
愁	-11.3408
有八種	-11.341
彼之	-11.341
水想	-11.3414
四無畏	-11.3416
戒取	-11.3417
隨願	-11.3418
淨除	-11.3419
入法界	-11.3419
樹者	-11.3421
厭惡	-11.3423
持名	-11.3423
度之	-11.3426
雖未	-11.3426
應念	-11.3427
名如來藏	-11.3428
女人身	-11.3429
貧者	-11.3429
頭上	-11.343
出家已	-11.3434
修多羅中	-11.3437
常精進	-11.3437
不能解	-11.344
衣服飲食	-11.344
今現	-11.3441
成就眾生	-11.3445
十萬億	-11.3445
趣中	-11.3448
一尋	-11.345
於時世尊	-11.3454
無救	-11.3459
平等者	-11.3461
學處	-11.3463
智者應	-11.3469
兩句	-11.3469
無礙解	-11.347
當成佛	-11.3472
諸難	-11.3475
彼如是	-11.3476
一萬	-11.3481
聚沫	-11.3484
其華	-11.3485
匝	-11.3486
與眾生	-11.3487
拜	-11.349
欲殺	-11.3496
何故言	-11.3497
於甚深法	-11.35
舉身	-11.3502
感佛	-11.3502
二章	-11.3505
乘七寶車	-11.3505
難及	-11.3508
淨施	-11.3508
起化	-11.3508
獲利	-11.3509
法服	-11.3509
人不樂於此經	-11.3512
聖諦者	-11.3512
殑伽沙數等	-11.3512
離心	-11.3512
犬	-11.3513
炎熾	-11.3513
心想中現	-11.3514
見先所作	-11.3515
自身真如	-11.3515
得三昧	-11.3516
群品	-11.3516
說如來藏	-11.3517
周遍虛空際	-11.3517
薩埵	-11.3517
普覆	-11.3518
閻魔羅界	-11.3518
嗟	-11.3518
發是言	-11.3519
出廣長舌相	-11.352
冀	-11.352
虎	-11.352
朋黨	-11.352
須賴言	-11.3522
爾時世尊欲重宣此義而說偈言	-11.3522
及未來	-11.3524
綖	-11.3524
洗浴	-11.3524
苾芻尼	-11.3524
不生故	-11.3525
或生地獄	-11.3525
五體投地	-11.3525
前已	-11.3526
恣汝所問	-11.3527
為其主	-11.3527
譏嫌	-11.3527
麤	-11.3527
丁	-11.3528
譯經三藏朝散大夫試光祿卿	-11.3528
身壞命終	-11.3528
▁33	-11.3528
州	-11.3529
沙門瞿曇	-11.3529
莊	-11.3529
三昧定	-11.3529
熾	-11.3529
鷲	-11.353
般若波羅蜜多	-11.353
舍衛大城	-11.353
可作	-11.3531
洞	-11.3531
謂為	-11.3532
異口同音	-11.3532
宋	-11.3532
妻妾	-11.3532
補	-11.3532
校量	-11.3533
無邊無際	-11.3533
好醜	-11.3533
二十九	-11.3534
筏	-11.3534
分段變易	-11.3534
多所饒益	-11.3535
貪等	-11.3535
從初訖	-11.3535
公	-11.3536
族姓女	-11.3536
本願力故	-11.3536
]《	-11.3536
明攝受正法	-11.3537
尤	-11.3537
泥洹之道	-11.3537
無上正覺	-11.3538
釋論	-11.3538
瓶中取	-11.3538
泯	-11.3539
在家人	-11.354
餓	-11.354
阿難白佛	-11.354
吐	-11.3541
二乘種不生	-11.3541
朱	-11.3541
現化	-11.3541
即皆	-11.3542
齋戒清淨	-11.3542
胸	-11.3544
蜂	-11.3544
幻惑	-11.3544
八十種好	-11.3544
牢	-11.3544
隆	-11.3544
宣暢	-11.3545
不鼓自鳴	-11.3545
著袈裟	-11.3545
開曉	-11.3546
快哉	-11.3546
饌	-11.3546
鮮潔	-11.3546
證得阿耨多羅三藐三菩提	-11.3548
爭	-11.3549
損壞	-11.355
疲勞	-11.355
乃至意	-11.3551
爾時金剛手菩薩大祕密主	-11.3551
奔	-11.3552
得無疑	-11.3553
仁和	-11.3553
億歲	-11.3553
而供養	-11.3553
爾時淨飯王	-11.3554
龜	-11.3555
眷屬自	-11.3555
婬慾	-11.3557
有風名曰	-11.3557
八萬四千法門	-11.3558
者則為	-11.3558
發露	-11.356
捨三分	-11.356
既不	-11.3561
正宗分	-11.3565
苾芻眾	-11.3565
生中	-11.3566
轉女身	-11.3566
計為	-11.3567
尊者大迦葉	-11.3568
後身	-11.3572
訛也	-11.3573
王及	-11.3573
從空	-11.3574
即滅	-11.3574
如經中說	-11.3575
大慈大悲	-11.3576
句斯謂為發	-11.3576
於是經典	-11.3576
詮表	-11.3578
得無上	-11.3583
上虛空中	-11.3584
自下第四	-11.3584
領受	-11.3585
說四諦	-11.3588
應佛	-11.3588
馥師	-11.3589
知眾生	-11.3591
非菩薩	-11.3592
是大乘	-11.3594
耳聞	-11.3594
語已	-11.3596
判教	-11.3597
常清淨	-11.3598
能所	-11.3598
慧天子	-11.3599
成佛時	-11.3601
尚可	-11.3602
及諸大眾	-11.3603
無相行	-11.3603
退墮	-11.3603
垢染	-11.3603
安和	-11.3603
國名	-11.3604
明行成	-11.3607
清淨之行	-11.3607
佛說經已	-11.3609
精進根	-11.361
有一人	-11.3611
我子	-11.3612
無異也	-11.3612
但欲	-11.3613
法界體性	-11.3613
一切物	-11.3618
緣力	-11.3618
此陀羅尼	-11.3619
不可壞	-11.362
請護	-11.3621
安心	-11.3623
自他根	-11.3624
佛大	-11.3625
菩薩聲聞	-11.3625
語須摩提	-11.3626
於無上菩提	-11.3627
遍計	-11.3628
如是四種	-11.363
諸佛所說	-11.3631
第一義智	-11.3631
謂有	-11.3632
計常	-11.3636
一毛孔	-11.3636
營事比丘	-11.3637
於中有四	-11.3637
速能	-11.3639
之前	-11.3639
生其	-11.3639
四百	-11.364
上妙衣服	-11.3641
有處	-11.3641
於餘	-11.3642
解義	-11.3642
教者	-11.3642
住心	-11.3642
復過	-11.365
無悔	-11.3651
如來今者	-11.3652
見諸阿修羅	-11.3654
污染	-11.3654
非過去	-11.3658
如是說已	-11.3658
令知	-11.3661
懷疑	-11.3665
舍利下	-11.3665
離惡趣	-11.3666
能照	-11.3669
勝果	-11.367
翻前	-11.3674
受快樂	-11.3676
第三句	-11.3677
諸菩薩意	-11.3679
共同	-11.3681
化導	-11.3685
如來於此	-11.3685
斯經	-11.3685
諸天女	-11.3689
令一切眾生	-11.369
軍眾	-11.369
自為	-11.369
常身	-11.3691
在家出家	-11.3692
曾作	-11.3694
諸比丘眾	-11.3694
一標	-11.3695
他化	-11.3696
刀劍	-11.3697
深宮	-11.3697
若滅	-11.3698
眾生相	-11.37
不破壞	-11.3703
生子	-11.3703
是業	-11.3705
空閑處	-11.3705
最極	-11.3708
以為實	-11.3711
三輪	-11.3712
諦聽諦聽	-11.3713
論義	-11.3714
能詮	-11.3716
向者	-11.3716
垢穢	-11.3717
盲者	-11.3718
易可	-11.3719
十號	-11.3719
業緣	-11.372
佛淨土	-11.3722
巨	-11.3723
聞如是法	-11.3724
諸佛及諸菩薩	-11.3725
已到	-11.3727
對治法	-11.3728
於夢中	-11.3729
名得自在	-11.373
此地	-11.3735
非佛	-11.3735
水火	-11.3735
法化	-11.3738
尊長	-11.3739
乃至無有	-11.3741
三惡	-11.3742
金樹	-11.3747
皆發阿耨多羅三藐三菩提心	-11.3749
不移	-11.375
願攝	-11.3751
寶瓶	-11.3751
眾生之類	-11.3754
於長夜	-11.3757
無識	-11.3758
得悟	-11.3758
無愁憂	-11.376
總以結	-11.376
若得聞	-11.3762
廣長	-11.3762
圓明	-11.3765
色無色	-11.3765
顯於	-11.3766
不覩	-11.3771
救我	-11.3771
故次	-11.3774
趣涅槃	-11.3775
善調	-11.3776
所遊	-11.3776
樂修	-11.3777
人壽命	-11.3777
見阿彌陀佛	-11.3778
無主宰	-11.3778
自恣	-11.3782
如實觀	-11.3783
之別	-11.3784
未成	-11.3785
修持	-11.3785
兵眾	-11.379
千由旬	-11.3796
所攝受	-11.38
初問	-11.3801
斷無明	-11.3804
所謂菩薩	-11.3804
生在	-11.3806
說此法門	-11.3809
得生天	-11.3811
慚	-11.3814
於外	-11.3815
長遠	-11.3816
深山	-11.3819
告曰	-11.382
說三乘	-11.382
法句	-11.3822
大慈心	-11.3828
所從	-11.3829
自念言	-11.3829
謂如來	-11.383
利益他	-11.3831
離垢光	-11.3832
爾時復有	-11.3835
七十	-11.3838
正法滅	-11.3838
所從來	-11.3839
得解	-11.3843
我自	-11.3846
二處	-11.3846
諸白法	-11.3847
無量諸天	-11.3848
故經云	-11.3848
心意識	-11.385
居止	-11.3854
菩薩亦如是	-11.3856
及眷屬	-11.3857
應現	-11.386
薄福	-11.3861
樂具	-11.3863
淨光明	-11.3863
常求	-11.3866
卷第四十	-11.3871
入地獄	-11.3871
大勢至	-11.3871
便起	-11.3873
為化眾生	-11.3876
諸光明	-11.3878
五眼	-11.3879
如淨	-11.3884
理觀	-11.3889
而皆	-11.389
第二正	-11.3896
能摧	-11.3896
三千大千世界中	-11.3896
若在家	-11.3899
識蘊	-11.3903
心平等	-11.3906
與他	-11.3907
他心智	-11.3907
樹王	-11.3907
正釋	-11.391
復有無量	-11.3912
諸所有	-11.3914
利益世間	-11.3916
諸佛之法	-11.3919
斷疑	-11.392
何所得	-11.3921
無漏智	-11.3927
舍利子白佛言	-11.3928
太子者	-11.393
若作	-11.3933
受果	-11.3936
今對	-11.3936
爾時尊者阿難	-11.3938
紫金	-11.3941
莊嚴佛土	-11.3942
無量億	-11.3943
樹上	-11.3944
引導	-11.3948
雲雨	-11.3949
令修	-11.395
無量無邊不可思議	-11.3954
福力	-11.3954
於佛菩提	-11.3955
異見	-11.3955
能依	-11.3955
庫藏	-11.3958
即從	-11.3958
已成	-11.396
以如是等	-11.3961
體不可得	-11.3962
一異	-11.3964
從佛聞	-11.3964
教之	-11.3966
不脫	-11.3967
求涅槃	-11.3973
道果	-11.3975
云何有	-11.3976
無分別故	-11.3977
勝德	-11.3978
極果	-11.3981
報者	-11.3982
心無所住	-11.3983
滿中	-11.3984
憐	-11.3984
兜術天	-11.3986
如是之人	-11.3988
上來第一	-11.3993
則自然亂風吹	-11.3995
又釋	-11.4001
告阿難	-11.4002
無上大菩提	-11.4002
跋陀羅	-11.4009
無相無	-11.4009
稱我	-11.4011
為誰	-11.4013
耆	-11.4015
此舉	-11.4016
不應作	-11.4019
第十一	-11.402
當知彼	-11.402
那庾	-11.402
所犯	-11.4021
嚴淨佛剎	-11.4021
修行十善業道	-11.4022
2	-11.4022
復還	-11.4022
綺	-11.4022
開敷	-11.4024
剃除鬚髮	-11.4025
淵	-11.4025
0	-11.4025
受其報	-11.4025
床榻	-11.4025
發無上菩提之心	-11.4025
適悅之相	-11.4026
卿宣梵大師賜紫沙門臣日稱等奉詔譯	-11.4026
焦	-11.4026
等恒河沙數諸佛	-11.4026
婆沙	-11.4026
8	-11.4027
復次夢見如來	-11.4027
安穩	-11.4027
後當	-11.4028
頭面作禮	-11.4028
勳	-11.4029
由此風力	-11.4029
光梵大師賜紫沙門臣惟淨等奉詔譯	-11.4029
謀	-11.4029
業為	-11.4029
圖	-11.4029
深固作意	-11.4029
5	-11.4029
4	-11.403
雨天	-11.403
斯苦甚大	-11.403
謹	-11.403
相中	-11.403
盈	-11.4032
專注	-11.4032
卷第一百一十	-11.4032
伽他	-11.4032
緩	-11.4032
闡	-11.4033
飡	-11.4033
犁	-11.4033
寶幔	-11.4034
速得阿耨多羅三藐三菩提	-11.4034
楚	-11.4034
身語意業	-11.4035
此二句名莊嚴	-11.4036
邪念	-11.4037
態	-11.4037
捺	-11.4037
奮	-11.4037
阿那律	-11.4037
大人	-11.4038
獲得四種	-11.4039
愆	-11.404
洛	-11.404
羯磨	-11.404
謂能	-11.4041
斥	-11.4041
筋	-11.4041
夢中畢竟無有	-11.4041
伴侶	-11.4042
毀辱	-11.4043
轉復	-11.4043
爾時摩訶迦葉白	-11.4044
苑	-11.4044
孝	-11.4044
吠	-11.4044
汗	-11.4044
爪	-11.4044
貝	-11.4045
摩竭	-11.4045
逈	-11.4045
又無	-11.4045
什	-11.4046
無異波羅蜜	-11.4046
頑	-11.4046
八聖道	-11.4047
大千界	-11.4048
資用	-11.4049
白淨	-11.405
於一切時	-11.405
而修	-11.4051
危害	-11.4051
媚	-11.4051
如聞	-11.4051
不取不捨	-11.4051
裏	-11.4051
髀	-11.4052
不定聚	-11.4052
戶	-11.4053
無漏不盡	-11.4053
弗	-11.4054
落日	-11.4054
皆是大阿羅漢	-11.4054
我相	-11.4054
佛說阿彌陀經	-11.4055
穢濁	-11.4055
雖說	-11.4055
大丈夫相	-11.4055
說伽他	-11.4056
清冷	-11.4056
正果	-11.4056
名為正觀	-11.4057
醫師	-11.4057
是無為	-11.4058
佛及僧	-11.4058
觀察時	-11.4059
常勤	-11.406
七覺支	-11.4061
之大	-11.4061
阿須輪	-11.4062
從緣	-11.4062
十八不共法	-11.4063
憶想	-11.4064
積集善根	-11.4064
施食	-11.4065
于地	-11.4067
勝心	-11.4067
於世尊所	-11.4069
時魔波旬	-11.4069
掃	-11.4071
生亦	-11.4071
不周	-11.4072
於無	-11.4073
亦能了知	-11.4073
知覺	-11.4073
三種意生身	-11.4073
生死流轉	-11.4074
中見	-11.4075
時天帝釋	-11.4075
顛倒真實	-11.4076
別圓	-11.4077
常空寂	-11.408
閑靜	-11.4081
正體	-11.4083
普見如來	-11.4083
一切諸法亦復如是	-11.4084
真實行	-11.4086
足蹈	-11.4086
與前	-11.4087
墜墮	-11.4088
正辨	-11.4088
我知	-11.4091
應學	-11.4091
所有一切眾生	-11.4093
即法身	-11.4094
有苦	-11.4096
通序	-11.4097
七百	-11.4098
爾時彌勒菩薩	-11.4098
是名為智	-11.4098
說呪	-11.41
布地	-11.4101
捨一切	-11.4101
無量億劫	-11.4102
如實觀察	-11.4103
牒上	-11.4103
然菩薩	-11.4104
清淨覺	-11.4104
是以言	-11.4106
義趣	-11.4107
如上所說	-11.4109
利益一切眾生	-11.411
無上尊	-11.411
初果	-11.411
逼切	-11.4113
家中	-11.4113
悉已	-11.4114
此尊者	-11.4114
彼王	-11.4114
各隨	-11.4114
得無所畏	-11.4117
過恒沙	-11.4117
迦葉佛	-11.4118
爾時阿難	-11.4118
見思	-11.4118
無量光如來	-11.412
白色	-11.412
不愚法	-11.4124
生如是心	-11.4124
美食	-11.4125
捨財	-11.4127
以金	-11.4129
說經法	-11.413
以方便力	-11.4131
許可	-11.4133
學地	-11.4134
而為供養	-11.4134
常作	-11.4134
然燈佛	-11.4136
一切法忍	-11.4137
人中最為第一	-11.414
餘法	-11.4142
一切諸天	-11.4146
福蘊	-11.415
少時	-11.4151
作書	-11.4153
畏於	-11.4154
劫盡	-11.4154
妄起	-11.4157
其佛國土	-11.4157
釋迦牟尼	-11.4157
生數	-11.416
欲愛	-11.4161
所思	-11.4162
隨化	-11.4163
眾生濁	-11.4163
六法	-11.4166
相應行	-11.4169
求之	-11.4169
釋迦文佛	-11.417
一往	-11.417
樂想	-11.4173
事者	-11.4174
無我我所	-11.4175
法座	-11.4176
持之	-11.4177
涅槃者	-11.4179
恒河沙數	-11.4179
為無	-11.418
遍十方	-11.4184
犯罪	-11.4186
念僧	-11.4188
空行	-11.4189
結上	-11.4191
戒蘊	-11.4192
從天	-11.4195
得生淨土	-11.4196
數取趣	-11.4196
不懈	-11.4197
佛滅度後	-11.4199
勤苦如是	-11.42
一佛剎	-11.4201
淨不淨	-11.4202
六反震動	-11.4203
無作諦	-11.4204
結前	-11.4206
未曾有也	-11.4206
亦有三	-11.4207
在虛空	-11.4212
深樂	-11.4215
地水火風	-11.4219
日月光	-11.422
於父母	-11.4221
第二舉	-11.4222
所解	-11.4224
令捨	-11.4225
便有	-11.4226
如文	-11.423
收入	-11.4231
好樂	-11.4231
初正明	-11.4232
妙藥	-11.4235
唯此	-11.4236
寶光	-11.4237
其中眾生	-11.4238
真理	-11.4238
煩惱障	-11.4239
今所	-11.4241
煩惱業	-11.4245
等也	-11.4245
當住	-11.4247
離惡	-11.4247
言菩提者	-11.4247
諸法相	-11.4248
爾時會中有	-11.4249
能救	-11.4251
便於	-11.4254
華開	-11.4254
少善根	-11.4255
歎德	-11.426
彼得	-11.4261
幻士	-11.4263
斷諸煩惱	-11.4263
住彼	-11.4264
之始	-11.4265
俱生	-11.4271
不倚	-11.4271
又諸菩薩	-11.4273
地水	-11.4274
以之為	-11.4275
空解	-11.4279
生苦	-11.4283
起慈悲心	-11.4285
聖果	-11.4286
乃至菩提	-11.4287
得辯才	-11.4288
謂此	-11.429
得阿羅漢	-11.4291
命終時	-11.4293
彼佛世界	-11.4297
求佛菩提	-11.4297
五劫	-11.4304
而不可	-11.4305
白象	-11.4305
之士	-11.4306
說不能盡	-11.4306
若如來	-11.4307
出世間法	-11.4309
人中上	-11.4312
藏菩薩	-11.4312
三段	-11.4312
為用	-11.4314
經本	-11.4318
當發	-11.432
如今	-11.4321
究竟涅槃	-11.4322
莫不歡喜	-11.4322
還彼	-11.4323
云何受持	-11.4323
族姓子須賴	-11.4324
二十六	-11.4325
人同	-11.4325
故得陀羅尼	-11.4328
如實智	-11.4332
非沙門	-11.4333
聲聞地	-11.4333
頓教	-11.4334
彼以	-11.4336
覺菩薩	-11.4337
中有五	-11.4338
能出	-11.4339
非作	-11.4341
能隨順	-11.4342
他物	-11.4342
三忍	-11.4344
名師子吼	-11.4346
之主	-11.4348
捨此	-11.4349
華果	-11.4349
現笑	-11.4351
自讚	-11.4351
戒學	-11.4352
一切聲聞緣覺	-11.4354
為人說	-11.4355
諸女人	-11.4356
同類	-11.4358
斯由	-11.4358
歸依如來	-11.4359
計執	-11.436
極難	-11.4362
分身	-11.4367
所燒	-11.4367
稱曰	-11.4372
實有不	-11.4373
菩薩有	-11.4374
欲往	-11.4375
生人間	-11.4375
諸眾生類	-11.4376
因緣法	-11.4377
貪樂	-11.4377
妙德	-11.4382
性行	-11.4383
我為說	-11.4384
歸一	-11.4384
等經	-11.4387
類也	-11.4388
皆得成就	-11.439
諸樹	-11.4391
有恐怖	-11.4394
在上	-11.4394
其樹	-11.4395
未曾聞	-11.4395
心相應	-11.4396
無護	-11.4397
地者	-11.4398
先問	-11.4399
利故	-11.44
正遍覺	-11.44
眼界	-11.4402
四威儀	-11.4403
令彼眾生	-11.4404
爾時會中	-11.4405
十種功德	-11.4406
地種	-11.441
學法	-11.441
住不放逸	-11.4411
退還	-11.4416
諮	-11.4419
大神變	-11.442
大龍	-11.4421
速成	-11.4421
智德資糧善巧	-11.4421
於汝	-11.4422
於無相	-11.4428
曾見	-11.4429
捨彼	-11.4429
此就	-11.443
轉輪	-11.4431
魔羅	-11.4431
怠	-11.4432
二歸	-11.4433
卷第九十	-11.4435
難處	-11.4435
證行	-11.4441
空過	-11.4442
非行	-11.4442
諸定	-11.4443
利益諸眾生	-11.4444
諸佛教	-11.4445
調伏者	-11.4446
尊不共法	-11.4454
有別	-11.4455
正以	-11.4457
作樂	-11.4459
違失	-11.4465
視之	-11.4466
卷第六十	-11.4467
眾生想	-11.447
卷第八十	-11.4471
財施	-11.4472
受眾苦	-11.4473
處也	-11.4473
所供養	-11.4474
歎也	-11.4475
像法	-11.4476
六種震動	-11.4477
為論	-11.4477
叵	-11.4477
梵語	-11.448
色中	-11.448
摩羅	-11.448
以慈	-11.448
初段	-11.4481
分之中	-11.4483
此明如來	-11.4485
前四	-11.4485
百千億那由他	-11.4485
成壞	-11.4486
寶座	-11.4488
歸依佛	-11.4492
說之為	-11.4498
有過	-11.4499
受具足	-11.4502
以己	-11.4503
不應親近	-11.4503
一寶	-11.4506
難值	-11.4508
勤勇	-11.4509
不清淨	-11.4511
豈得	-11.4512
不破	-11.4515
稠林	-11.4517
糞掃衣	-11.4518
第十三	-11.4518
牟尼尊	-11.4523
則與	-11.4523
聞此法門	-11.4523
慰	-11.4525
不得言	-11.4528
飲食衣服	-11.4529
江河沙	-11.4529
燒香	-11.4529
上界	-11.4532
三位	-11.4533
則名	-11.4534
繼	-11.4535
現在前	-11.4535
若人若天	-11.4538
弊惡	-11.4539
寶蓮華	-11.4539
輪回	-11.4544
但隨世俗	-11.4544
識身識	-11.4545
於阿耨多羅三藐三菩提得不退轉	-11.4545
話	-11.4547
爾時世尊欲重明斯義說伽	-11.4548
初總標	-11.4548
彌樓揵馱佛	-11.4548
與大比丘眾千二百五十人俱	-11.4548
亦不可	-11.4548
1	-11.4549
不可復計	-11.4549
陀摩尸利比丘	-11.455
當自端	-11.455
遍炎熾	-11.455
漂	-11.455
阿羅訶	-11.4551
所問經論	-11.4552
幼	-11.4553
巖	-11.4553
鳩槃茶	-11.4553
尸波羅蜜	-11.4554
二地	-11.4554
不顧身命	-11.4554
重明斯義說伽	-11.4555
婢	-11.4556
彼現有佛	-11.4556
曼陀羅華	-11.4556
選擇	-11.4556
青黃赤白	-11.4556
陛	-11.4556
】【	-11.4556
觀音勢至	-11.4556
無有受報者	-11.4557
?』」「	-11.4558
麻	-11.4558
菩薩復有四事法	-11.4558
恒河沙等諸佛世界	-11.4559
肉髻	-11.4559
遠離願求	-11.4559
調御師	-11.4559
世自在王佛	-11.4559
心初起	-11.4559
菩薩用是四事	-11.456
不愚於法	-11.456
將護彼意	-11.456
當來之世	-11.456
未嘗	-11.456
自業自	-11.456
腦	-11.456
執故	-11.456
臨壽終時	-11.4561
行精進	-11.4561
早	-11.4561
上品下生	-11.4561
總歎	-11.4561
刃	-11.4562
爾炎	-11.4563
八萬四千由旬	-11.4563
奴僕	-11.4564
八方上下	-11.4564
無有疑	-11.4564
無邊慧菩薩摩訶薩	-11.4564
劣弱	-11.4564
木叉	-11.4564
誦習	-11.4565
諸天龍神	-11.4565
四維	-11.4566
無有出期	-11.4567
雲霧	-11.4567
佛名號	-11.4567
方面	-11.4567
寂寞	-11.4568
別顯	-11.4568
所至	-11.4569
洞達	-11.4569
瞿	-11.457
賴	-11.457
崖	-11.457
展轉其中	-11.4571
南北	-11.4571
嚴麗	-11.4571
一業敷演經法	-11.4572
輔	-11.4572
皆來集會	-11.4573
祠	-11.4573
流行	-11.4573
帛	-11.4573
戍	-11.4574
剃	-11.4574
血氣	-11.4574
憎惡	-11.4574
空如來藏	-11.4575
欣笑	-11.4575
不起不滅	-11.4575
智度論云	-11.4576
寂靜處	-11.4577
法爾	-11.4578
符	-11.4579
括	-11.4579
不過	-11.458
舞	-11.458
諸佛菩提	-11.4581
。○	-11.4581
狂亂	-11.4581
溺	-11.4582
於諸欲	-11.4583
嬈亂	-11.4584
千俱胝	-11.4584
是三昧	-11.4585
谷響	-11.4585
敬事	-11.4585
王之	-11.4586
能演說	-11.4588
空中有聲	-11.4588
如來祕要	-11.4588
於中初言	-11.4589
如佛世尊	-11.4589
一小劫	-11.459
於地獄	-11.459
壞法	-11.459
熾焰	-11.4591
三十四	-11.4592
聞此法已	-11.4594
過恒沙等	-11.4594
華蓋	-11.4595
九地	-11.4595
惟願	-11.4595
無所有故	-11.4597
斯皆	-11.4597
乞食比丘	-11.4597
求生淨土	-11.4598
所言文	-11.4599
非今有	-11.4599
不好	-11.4599
致敬	-11.46
諸物	-11.46
能增長	-11.46
不愚	-11.4602
無高下	-11.4602
女無愁憂	-11.4603
所讚	-11.4603
光音天	-11.4605
後三	-11.4605
畢竟空	-11.4605
優鉢羅華	-11.4607
是本	-11.4608
而未	-11.4608
作法	-11.4608
王舍	-11.4609
悉檀	-11.4609
有諸眾生	-11.461
第十二	-11.461
是染因	-11.461
及比丘僧	-11.4612
諸根寂靜	-11.4612
無常苦	-11.4613
三千大千世界六種震動	-11.4614
常自	-11.4616
世尊入城	-11.4617
為義	-11.4618
當往生阿彌陀佛國	-11.4619
如理方便	-11.4619
祇樹給孤獨園	-11.4621
所興	-11.4622
恭敬心	-11.4622
學戒	-11.4623
枝條	-11.4623
諸惑	-11.4624
摩睺羅伽等	-11.4625
我曹	-11.4626
汝當受持	-11.4628
笑因緣	-11.4628
妙花如來	-11.4629
而得究竟	-11.463
喻攝受	-11.4631
當發趣	-11.4633
是二菩薩	-11.4634
下結	-11.4635
願我當來	-11.4635
無上正法	-11.4635
為釋	-11.4636
口出	-11.4637
為何	-11.4641
何故如來	-11.4641
成無上道	-11.4642
乃至廣說	-11.4642
云何說	-11.4643
而諸菩薩	-11.4644
是淨因	-11.4644
舍衛城中	-11.4645
有十二	-11.4645
我說此	-11.4648
無作相	-11.465
不惜	-11.465
亦見	-11.4652
謂佛如來	-11.4653
一毛	-11.4653
功德海	-11.4654
空無我	-11.4655
六句	-11.4655
摧破	-11.4655
畢竟不	-11.4656
金光	-11.4656
既竟	-11.4658
無毀	-11.4661
有力	-11.4664
略無	-11.4665
如實知見	-11.4666
菩提場	-11.4667
有諸比丘	-11.4668
此二句	-11.4671
相離	-11.4671
卷第五十	-11.4671
向於	-11.4673
是智	-11.4674
彼不動如來	-11.4675
彼國土	-11.4676
本性空	-11.4676
通明	-11.4678
當信是稱讚不可思議功德	-11.4679
式	-11.4681
見己身	-11.4682
成就阿耨多羅三藐三菩提	-11.4683
無懈	-11.4683
修禪定	-11.4684
解空	-11.4685
日出	-11.4686
藏中	-11.4686
佛於是	-11.4687
眾經	-11.4688
滅諸	-11.469
懈	-11.4694
障難	-11.4694
巳上	-11.4697
以理	-11.4698
遊戲神通	-11.4701
受諸苦	-11.4703
命盡	-11.4703
是諸天子	-11.4704
如來智慧	-11.4708
善寂	-11.4709
疑者	-11.471
佛告離垢施	-11.4711
斷集	-11.4711
無執著	-11.4715
供養世尊	-11.4715
覺道	-11.472
能度	-11.472
求利	-11.4721
者偈言	-11.4729
見其	-11.4729
可謂	-11.4731
方便力	-11.4732
少智	-11.4732
無去來	-11.4734
善不善法	-11.4736
盡諸漏	-11.4737
生瞋恚	-11.474
以善	-11.474
侍佛	-11.4741
不共法	-11.4742
功德聚	-11.4743
所共	-11.4743
信之	-11.4746
知身	-11.4747
初識起	-11.4748
明解脫	-11.4752
道眾生	-11.4753
便謂	-11.4756
諸法自性	-11.4757
百俱胝	-11.4758
其間	-11.4758
極大	-11.4759
障故	-11.4763
僧寶	-11.4765
以無量	-11.4766
是果	-11.4766
應物	-11.4767
無漏戒	-11.4768
風輪	-11.4768
俱致	-11.4769
發如是	-11.477
名大乘	-11.477
何因緣故	-11.477
又復菩薩	-11.4772
性離	-11.4773
持此	-11.4774
以智慧力	-11.4775
皆具	-11.4775
實是	-11.4777
出微妙音	-11.4777
無有色	-11.4778
狹	-11.4779
名利	-11.478
見一	-11.4781
萬劫	-11.4786
之解	-11.4786
無變	-11.479
於智慧	-11.479
不還	-11.4791
具三	-11.4796
心境	-11.4797
猛火	-11.4797
攝取眾生	-11.48
染法	-11.4801
如是念	-11.4802
大乘法	-11.4803
如是三法	-11.4805
法利	-11.4806
無涅槃	-11.4808
凡夫二乘	-11.4809
圓滿具足	-11.4812
故被大甲冑	-11.4812
胎中	-11.4815
大比丘	-11.4818
以後	-11.4819
真法	-11.482
如來出世	-11.4821
兩手	-11.4822
令眾	-11.4823
大迦葉言	-11.4824
即我身是	-11.4825
即喻	-11.4826
枯竭	-11.4826
故知是	-11.4826
而無所著	-11.4827
定性	-11.4827
伏魔	-11.4828
以用	-11.483
彼亦	-11.483
數千	-11.4831
如是無明住地	-11.4833
實諦	-11.4833
減少	-11.4835
本處	-11.4836
時王	-11.4837
不忘失	-11.4839
難測	-11.4839
有一類	-11.4841
奪其	-11.4841
我今應當	-11.4842
圓人	-11.4846
不害	-11.4849
未斷	-11.4855
在空	-11.4856
脇	-11.4859
四流	-11.486
示以	-11.486
有罪	-11.4861
上來雖有	-11.4862
無窮盡	-11.4862
佛心	-11.4864
最妙	-11.4864
彼一一	-11.4864
信順	-11.4866
與一切眾生	-11.4867
到佛所	-11.4867
不殊	-11.4868
己之	-11.4868
聞空中	-11.4869
長行	-11.487
自得	-11.4873
過去未來現在諸佛	-11.488
皆阿羅漢	-11.4882
於三有	-11.4883
無所復	-11.4883
求利養	-11.4883
二約	-11.4887
不慕	-11.489
大風	-11.489
空無所有	-11.489
真實性	-11.489
三想	-11.4891
下足	-11.4891
而捨	-11.4891
遊化	-11.4895
方有	-11.4899
別也	-11.49
體故	-11.4901
背捨	-11.4902
識者	-11.4902
二禪	-11.4904
所言義	-11.4906
勤心	-11.4908
誰有	-11.491
生死中	-11.491
安定	-11.4912
法身者	-11.4915
亦有二	-11.4917
思慧	-11.4921
毫相	-11.4921
諸婆羅門	-11.4922
厭患	-11.4924
有三句	-11.4927
化德	-11.4927
彼既	-11.4935
明法身	-11.4936
而得成就	-11.4936
無缺	-11.4937
大菩提心	-11.4938
所斷	-11.4942
一切阿羅漢	-11.4943
當須	-11.4944
不淨觀	-11.4944
下別	-11.4945
猶如夢	-11.4945
聞思	-11.4946
樹葉	-11.4947
名香	-11.4947
但取	-11.4951
其法者	-11.4951
今在	-11.4953
精進者	-11.4954
中現	-11.4955
依身	-11.4955
諸菩薩行	-11.4956
不持	-11.4957
於如來前	-11.4958
是間	-11.4961
現在未來	-11.4961
願見	-11.4961
風力	-11.4963
師子王	-11.4964
十方眾生	-11.4965
自觀	-11.4965
已斷	-11.4965
從生	-11.4965
無所執	-11.4968
惡名	-11.4969
四教	-11.4969
最為第一	-11.497
是故汝等	-11.497
彼二	-11.497
方乃	-11.4972
其心清淨	-11.4973
諸過失	-11.4975
無我故	-11.4977
以喻	-11.4978
愛惜	-11.4979
知苦	-11.4979
即心	-11.4981
身土	-11.4981
無量也	-11.4981
不輕	-11.4986
熱鐵	-11.4987
餘二	-11.499
集智	-11.4992
種種供養	-11.4995
空理	-11.4995
是惡比丘	-11.4997
對彼	-11.4999
一切法自性	-11.5
心無所	-11.5002
最上最勝	-11.5009
寂靜法	-11.501
依之	-11.501
其香	-11.501
生彼國已	-11.5011
雜亂	-11.5015
得智	-11.5015
四十四	-11.5016
法界平等	-11.5018
七步	-11.5018
得無上菩提	-11.5018
無名云	-11.5018
無怖	-11.502
若虛空	-11.502
心恒	-11.5021
惡果	-11.5023
眾所	-11.5024
紫	-11.5025
不飲酒	-11.5029
靜慮波羅蜜多	-11.5029
願我當	-11.503
信欲	-11.5032
王聞	-11.5033
後復	-11.5037
虗	-11.5038
相續心	-11.5043
實法	-11.5044
隨何	-11.505
識心	-11.5051
明二乘不得	-11.5053
乃知	-11.5053
是行	-11.5053
正等	-11.5054
如是諸法	-11.5054
不和合	-11.5055
如文殊師利	-11.5055
修苦行	-11.5057
演說諸法	-11.506
一切分別	-11.5062
一舉	-11.5063
千二百五十人	-11.5064
為受	-11.5064
不耶	-11.5064
二緣生	-11.5065
解脫智	-11.5067
億佛	-11.5068
是人則為	-11.5068
便自墮	-11.5068
然是	-11.5069
同佛	-11.507
諸法本性	-11.507
鈴	-11.5071
厭捨	-11.5072
法自在	-11.5072
如佛所	-11.5073
中際	-11.5074
得諸	-11.5074
法時	-11.5075
說此頌已	-11.5076
一經	-11.5077
曾聞	-11.5078
四土	-11.5078
雪	-11.5079
爾時勝鬘	-11.508
非聲聞緣覺	-11.5082
如是得言	-11.5083
假使菩薩逮得斯定	-11.5083
所應度者	-11.5083
雞	-11.5083
毘利耶波羅蜜多	-11.5084
皤	-11.5085
出離故	-11.5086
彼是	-11.5086
諸音樂	-11.5086
如法華	-11.5086
猶尚	-11.5087
阿者	-11.5087
滅無所至	-11.509
三禪	-11.5091
二種相因	-11.5092
琰摩羅界及阿	-11.5092
師云	-11.5094
今始	-11.5095
若能成就如是四法	-11.5095
若他觀者	-11.5096
蘊處界	-11.5096
不退不轉	-11.5096
前識既滅	-11.5097
般涅盤	-11.5097
在在所生	-11.5097
見所作業及受	-11.5098
金剛手大祕密主菩薩摩訶薩	-11.5098
大蘊如來	-11.5098
其緣生時	-11.5099
藍	-11.5099
其業生時亦	-11.5099
若初識生名	-11.5099
多生	-11.5099
名為邪觀	-11.51
或生阿修羅	-11.51
衛	-11.51
到於彼岸	-11.5101
聞我名號	-11.5101
杵	-11.5102
憍逸	-11.5102
羼底波羅蜜多	-11.5102
弓	-11.5103
以願力故	-11.5103
其水底沙	-11.5104
名相分別	-11.5104
童男	-11.5106
智勝菩薩	-11.5106
供養恭敬尊重讚歎	-11.5106
一切諸法空者	-11.5107
眾務過	-11.5107
▁35	-11.5108
聞是說已	-11.5108
而演說法	-11.5108
酥	-11.5108
乃至算數譬喻所不能及	-11.5108
▁36	-11.5109
善清淨	-11.5109
既成	-11.5109
為人演說	-11.5109
色究竟天	-11.5109
滅度之後	-11.5109
悉不共住	-11.511
無與如來同	-11.511
折伏	-11.5111
內凡	-11.5111
含靈	-11.5111
獵	-11.5111
目真隣陀	-11.5112
波頭摩	-11.5113
七地以還	-11.5113
身語心	-11.5113
阿耨多羅	-11.5113
轉妙法輪	-11.5113
阿彌陀佛光明	-11.5114
游	-11.5114
錠光	-11.5114
默然而住	-11.5114
如恒沙	-11.5115
上品中生	-11.5115
不可稱量	-11.5115
孰	-11.5115
論議	-11.5116
殖眾德本	-11.5116
無生無起	-11.5116
福光太子	-11.5116
不退阿耨多羅三藐三菩提	-11.5116
千二百五十人俱	-11.5116
群萌	-11.5117
晝夜六時	-11.5117
如汝所言	-11.5117
諍競	-11.5117
以不斷故	-11.5118
鞞	-11.5118
衰惱	-11.5118
卵	-11.5119
歡喜心	-11.5119
崛山	-11.5119
寶性論	-11.512
整	-11.512
說是偈已	-11.512
尠	-11.512
迦留羅	-11.512
棲	-11.5121
最後識	-11.5121
聞是等經	-11.5121
紹	-11.5121
不高	-11.5121
宛然	-11.5122
二萬一千	-11.5122
爾時知	-11.5122
死時亦	-11.5122
經宗	-11.5122
馳騁	-11.5122
選	-11.5122
於女人	-11.5123
八萬四千歲	-11.5123
寐	-11.5123
皮肉	-11.5123
從坐起	-11.5123
闍世	-11.5123
還自	-11.5123
大祕密主	-11.5123
骨髓	-11.5123
有一戶蟲名曰	-11.5124
逃	-11.5124
現起	-11.5124
遏	-11.5124
祐	-11.5125
以偈答曰	-11.5125
壞體性空	-11.5125
哭	-11.5125
幢蓋	-11.5125
沈淪	-11.5125
持戒人	-11.5126
九十一劫	-11.5126
陋	-11.5128
身意	-11.5129
阿那含果	-11.5129
寂慧菩薩摩訶薩	-11.5129
又如大地	-11.5131
頓悟	-11.5131
是即名為	-11.5131
營事業者	-11.5131
咽喉	-11.5131
不求果報	-11.5131
救拔	-11.5131
針	-11.5132
端坐	-11.5133
如世尊說	-11.5133
眾香	-11.5134
是空解脫門	-11.5134
是實實語	-11.5134
千佛	-11.5135
又復如來	-11.5135
囚	-11.5135
端身正行	-11.5135
隨人	-11.5136
與諸眷屬	-11.5136
雜穢	-11.5137
阿鼻	-11.5138
學大乘	-11.5138
而悉能知	-11.5138
傷害	-11.5139
句別有	-11.514
覆蓋	-11.514
煩惱故	-11.5141
取證	-11.5142
人物	-11.5142
往生阿彌陀佛國	-11.5142
意根	-11.5142
離老病死	-11.5143
有何所以	-11.5143
初發菩提心	-11.5144
或有菩薩	-11.5144
天冠	-11.5145
諸有智者	-11.5145
百千萬	-11.5146
辟支佛地	-11.5146
欲斷	-11.5146
珂	-11.5147
流出	-11.5147
土也	-11.5148
必成	-11.5148
遍法界	-11.5149
我滅度後	-11.5149
家室	-11.5151
影響	-11.5152
給施	-11.5154
身形	-11.5154
乞求	-11.5155
五穀	-11.5157
光相	-11.5157
滅法	-11.5157
如幻三摩地	-11.5157
童子當知	-11.5158
三際	-11.516
勤進	-11.5161
上味	-11.5162
具善巧方便菩薩摩訶薩	-11.5162
其猶	-11.5162
云何四法	-11.5163
有見	-11.5164
是佛方便	-11.5164
修此	-11.5164
無虛妄	-11.5164
欣然	-11.5165
乃名為	-11.5168
胎子	-11.5169
六識	-11.517
見無量壽佛	-11.517
隨諸	-11.5171
世雄	-11.5171
亦莫	-11.5172
復次自夢見	-11.5172
亦得往生	-11.5172
退失智慧	-11.5173
常喜	-11.5175
作大利益	-11.5175
為明	-11.5176
所稱讚	-11.5177
其座	-11.5177
時時	-11.5177
與王	-11.5179
從初至	-11.5183
得其便	-11.5184
信願	-11.5185
色無色界	-11.5187
便作是念	-11.5188
已去	-11.5189
癡心	-11.519
諦善巧	-11.5194
人尊	-11.5195
如實修行	-11.5196
羊	-11.5196
親聞	-11.5197
示其	-11.5197
其志	-11.5197
而退	-11.5199
莫知	-11.5199
造諸	-11.52
不為難	-11.52
五章	-11.5201
本性清淨	-11.5203
空平等	-11.5204
若未	-11.5204
十一者	-11.5206
異學	-11.5206
器世間	-11.5207
一切聲聞辟支佛	-11.5207
髻菩薩	-11.5207
佛說大乘	-11.5207
是故說言	-11.5209
依倚	-11.521
呪護一切	-11.521
種種雜色	-11.521
佛既	-11.5212
無所念	-11.5215
隨從	-11.5217
和上	-11.522
唯有一	-11.5223
亦不可見	-11.5224
近寂	-11.5224
妙宗	-11.5226
乃曰為	-11.5227
後說	-11.5228
而入	-11.5229
無惡	-11.523
教導	-11.5232
我疑	-11.5233
無怯弱	-11.5234
諸婇女	-11.5235
觀一切法	-11.5236
人無我	-11.5238
四恩	-11.5239
彼能	-11.5243
號為	-11.5244
之家	-11.5247
文殊問	-11.5247
善巧天子	-11.5248
眾生心行	-11.5248
六趣	-11.5249
離貪	-11.5249
斷德	-11.5249
可意	-11.525
尚不能	-11.5253
彼諸比丘	-11.5254
不休息	-11.5258
如來像	-11.5259
學之	-11.526
一卷	-11.5262
諸戲論	-11.5262
迭相	-11.5262
消化	-11.5263
彼地	-11.5265
垂下	-11.5267
降伏魔	-11.5269
談說	-11.5269
性不可得	-11.5269
復告護國	-11.5272
土地	-11.5272
樂聲	-11.5272
耳根	-11.5273
變壞	-11.5273
當得成佛	-11.5273
同虛空	-11.5274
用是	-11.5274
不思議佛法	-11.5274
百味	-11.5275
影現	-11.5277
宜知	-11.5279
毘曇	-11.5281
光曜	-11.5282
天界	-11.5282
以能了知	-11.5283
天人世間	-11.5284
不漏	-11.5285
說已	-11.5288
為魔所	-11.5288
之說	-11.5289
二乘之人	-11.5289
寶冠	-11.529
於四天下	-11.5293
不獨	-11.5295
即取	-11.5295
無他	-11.5297
法藥	-11.5298
以立	-11.53
不斷無明	-11.5301
菩薩靜慮	-11.5301
令得解脫	-11.5302
以好	-11.5302
自誓	-11.5303
善思	-11.5304
之殊	-11.5305
禮拜供養	-11.5306
已曾供養	-11.5307
對昔	-11.5307
亦從	-11.5308
謂言	-11.531
令無	-11.531
諸佛剎中	-11.5311
憶念夢中	-11.5313
詐現	-11.5317
無與等者	-11.5319
無畏女	-11.532
行頭陀	-11.532
記別	-11.5321
欲害	-11.5322
復有菩薩摩訶薩	-11.5322
遍觀	-11.5323
生蘊	-11.5323
百一	-11.5328
生愛	-11.533
緣覺法	-11.533
志意	-11.5332
退沒	-11.5332
義同	-11.5336
了一切法	-11.5338
忍界	-11.5341
修證	-11.5342
今辨	-11.5343
信佛	-11.5345
佛觀	-11.5346
現神通	-11.5346
今依	-11.5347
使我	-11.5347
無散亂	-11.535
漸至	-11.535
聲聞大眾	-11.5351
十五日	-11.5351
有益	-11.5357
一切眾生皆	-11.5358
家業	-11.5358
有若干	-11.536
三十八	-11.5362
即是攝受正法	-11.5362
普皆	-11.5364
覺故	-11.5364
難行	-11.5368
有頂	-11.5368
奉修	-11.5368
之迹	-11.537
)」	-11.537
作想	-11.5373
千二百	-11.5373
十方無量	-11.5375
及於	-11.5375
初徵	-11.538
捨去	-11.5384
昔來	-11.5384
四十三	-11.5384
亦無所得	-11.5384
以是因緣故	-11.5384
皆自	-11.5384
歸向	-11.5385
真實義	-11.5385
即是大乘	-11.5388
遍持	-11.539
第十六	-11.5391
過此	-11.5392
不逮	-11.5394
俗諦	-11.5399
造五逆	-11.54
滅已	-11.5402
聖尊	-11.5407
彌陀經	-11.5408
正由	-11.5409
佛世尊所	-11.541
五門	-11.5413
是為智	-11.5414
極惡	-11.5416
畢竟成就	-11.5419
之樹	-11.542
不能轉	-11.542
愛戀	-11.542
二障	-11.5428
上煩惱者	-11.5428
起願	-11.5433
怯	-11.5433
明知	-11.5433
無出	-11.5438
天花	-11.5438
為無上	-11.5438
而善	-11.544
法性身	-11.5443
安樂淨土	-11.5444
妄見	-11.5447
了無	-11.5447
及無	-11.5448
於閻浮提	-11.5451
汝等應當	-11.5451
於諸佛法	-11.5451
從何以故以下	-11.5452
證果	-11.5453
在世間	-11.5454
遍至	-11.5456
除魔業	-11.5457
生彼國土	-11.5459
正斷	-11.546
本誓	-11.546
於彼處	-11.546
生我剎	-11.5462
計度	-11.5462
千拘胝	-11.5464
釋疑	-11.5466
我等今	-11.5469
於百千劫	-11.5471
處在	-11.5476
等輩	-11.5477
淨智者	-11.5484
苦因	-11.5485
佛法身	-11.5486
己心	-11.5487
非顛倒	-11.5489
罪障	-11.5491
圓教	-11.5496
覺他	-11.55
小劫	-11.5503
安住如是	-11.5504
意地	-11.5504
所壞	-11.5508
那得	-11.5508
大精進力	-11.5509
十六種	-11.551
明淨土	-11.551
有德	-11.551
一念心	-11.5511
各從	-11.5513
諸德本	-11.5514
非梵行	-11.5514
人師子	-11.5516
比丘言	-11.5518
盡時	-11.5518
等諸法	-11.5518
爾時樂	-11.552
金華	-11.552
過彼	-11.5521
無懈怠	-11.5522
非餘	-11.5523
雖爾	-11.5523
觀無量壽佛	-11.5526
此光明	-11.5527
不諂曲	-11.5528
亦無分別	-11.5529
今乃	-11.5531
王法	-11.5531
都不	-11.5532
不著於	-11.5533
時處	-11.5533
本為	-11.5534
流水	-11.5534
」』	-11.5535
證滅	-11.5536
重病	-11.5536
言辯	-11.5537
後識	-11.5537
自業	-11.554
畫師	-11.554
非說	-11.5541
求財	-11.5543
應得	-11.5543
業空	-11.5545
大梵	-11.5548
轉入	-11.5549
自念	-11.5549
便成	-11.5549
緣於	-11.555
今更	-11.5551
無能勝	-11.5552
即是佛	-11.5555
行毘利耶波羅蜜多故	-11.5555
自致	-11.5558
不尊重	-11.5559
化土	-11.5559
千世界	-11.556
當作是觀	-11.5562
不興	-11.5562
下對	-11.5562
大品	-11.5562
皆現	-11.5565
能開示	-11.5566
起想	-11.5567
習近	-11.5568
知諦	-11.5571
三大願	-11.5571
親族	-11.5573
乞者	-11.5574
作是觀	-11.5576
智證	-11.5578
殿堂	-11.5578
或生畜	-11.5579
皆明了	-11.5581
施於	-11.5584
不改	-11.5586
其諸	-11.5588
受根	-11.5591
食噉	-11.5591
無音聲	-11.5593
四十一	-11.5593
舉一	-11.5595
彼皆	-11.5597
無盡意	-11.5597
在會	-11.5599
十行	-11.5602
一切境界	-11.5606
今何	-11.5607
喻顯	-11.5608
總攝	-11.5609
第六天	-11.561
姝	-11.561
但當	-11.5611
明造惡	-11.5615
一時佛在	-11.5617
趣向菩提	-11.5617
罪報	-11.5618
不得往生	-11.5619
名德	-11.5619
證大菩提	-11.562
照世	-11.562
無變異	-11.562
眾中有	-11.562
不缺	-11.5622
滅空	-11.5622
緣法	-11.5624
斯事	-11.5626
廣作	-11.5627
智慧光明	-11.5628
江	-11.563
修捨	-11.5631
空無相	-11.5632
阿蘭若處	-11.5633
千億萬	-11.5634
智見	-11.5637
斷一切煩惱	-11.5638
十八不共佛法	-11.5639
受蘊	-11.5643
無有上	-11.5644
又令	-11.5644
施佛	-11.5646
眾俱	-11.5653
得安住	-11.5653
光聚王	-11.5653
即當成佛號	-11.5655
何用	-11.5658
如理作意	-11.5659
所對	-11.566
諸王	-11.5663
回	-11.5664
中王	-11.5666
歲數	-11.5667
別論	-11.5668
勤加	-11.5669
泉	-11.5672
心即	-11.5674
威神之力	-11.5674
其內	-11.5675
下方	-11.5676
上智	-11.5676
彩	-11.5677
普流	-11.5679
當學般若波羅蜜	-11.568
差別故	-11.568
華適小萎	-11.568
敏	-11.5681
空解脫門	-11.5682
󰥕	-11.5682
眾生轉大悲心	-11.5683
無有少法從於此世	-11.5683
革屣	-11.5684
目揵連	-11.5685
如是愚癡無聞凡夫	-11.5686
彼後識滅時名	-11.5686
若生生空	-11.5686
無智慧	-11.5686
佗	-11.5686
現斯瑞	-11.5686
警	-11.5686
異業現前	-11.5687
不問	-11.5687
謦欬聲	-11.5687
攀	-11.5688
彼業生時	-11.5689
安得	-11.5689
若無相者則無願求名無願	-11.5689
怨憎	-11.5689
江南	-11.569
所宣說	-11.569
對佛	-11.5691
承佛神力	-11.5692
制伏	-11.5693
煙	-11.5694
自分業	-11.5694
無去無來	-11.5694
淨除業障	-11.5695
度生死	-11.5695
從何所來	-11.5695
有取	-11.5696
癡冥	-11.5696
心善解脫	-11.5696
唯有如來得般涅槃	-11.5697
府	-11.5698
斬	-11.5698
蚊虻	-11.5698
銀樹	-11.5698
詺	-11.5698
前後圍繞	-11.5699
右遶	-11.5699
三十二相八十種好	-11.57
如來應等正覺	-11.57
哆	-11.57
為果	-11.57
9	-11.57
擬	-11.57
廣如別章	-11.57
央	-11.5701
乃往過去	-11.5701
啟請	-11.5701
八地巳上	-11.5702
天身	-11.5702
狹劣	-11.5702
饍	-11.5702
退坐一面	-11.5703
卑下	-11.5703
疎	-11.5703
不名為	-11.5703
淡	-11.5703
希奇	-11.5703
貧賤	-11.5704
喉	-11.5704
繖蓋	-11.5704
汝當知	-11.5704
丹	-11.5704
價直	-11.5705
於彼時中	-11.5705
古注	-11.5706
魁膾	-11.5706
如是眾生有	-11.5706
彼諸如來	-11.5706
塹	-11.5706
百倍	-11.5706
荼	-11.5706
現其人前	-11.5706
不斷不究竟	-11.5707
環	-11.5707
肥	-11.5708
共相娛樂	-11.5708
或住	-11.5708
吠琉璃	-11.5708
伺求	-11.5708
籌量	-11.5709
無名無相	-11.5709
修行般若波羅蜜多	-11.5709
磨滅	-11.571
捷	-11.571
鎖	-11.571
作依	-11.571
一行三昧	-11.571
轉身	-11.571
餘殃	-11.571
如應說法	-11.571
不悔	-11.571
鴛鴦	-11.571
味著	-11.571
我說是人	-11.5711
蔔	-11.5711
那羅延法師	-11.5711
初分科	-11.5712
欝	-11.5712
總以標舉	-11.5712
何以得知	-11.5713
燭	-11.5713
闇冥	-11.5713
臍	-11.5713
焚燒	-11.5714
寸	-11.5714
陷	-11.5714
賣	-11.5714
若當	-11.5714
啼	-11.5714
劫奪	-11.5714
從三昧起	-11.5715
唯能	-11.5716
末代	-11.5716
羸瘦	-11.5716
作業果報皆	-11.5716
天上人間	-11.5717
究竟清淨	-11.5717
復有菩薩名	-11.5717
起信論	-11.5717
危厄	-11.5718
汝今若能	-11.5718
智海	-11.5718
諸龍女	-11.5719
甘露味	-11.5719
剃髮	-11.572
無癡	-11.572
怕	-11.572
執我	-11.5721
燈炷	-11.5721
此正法	-11.5721
得其福德	-11.5723
縷	-11.5723
大如車輪	-11.5723
黎	-11.5723
燃燈	-11.5724
離有為相	-11.5724
蘇息	-11.5725
痛不可言	-11.5725
慈孝	-11.5725
尋思	-11.5726
金翅鳥	-11.5727
說是經時	-11.5727
不為眾惡	-11.5727
成熟有情	-11.5728
諸住信菩薩	-11.5728
茂盛	-11.5729
昵	-11.5729
不可分別	-11.5729
寬廣	-11.573
沈沒	-11.573
殺賊	-11.5731
非相	-11.5732
聖旨	-11.5732
為眾說法	-11.5732
勸進	-11.5733
如斯覺故觀無	-11.5733
誦持	-11.5733
鼻根	-11.5734
茂	-11.5734
世俗諦	-11.5734
以下結	-11.5734
迷沒	-11.5736
傷歎	-11.5736
眾星	-11.5736
煩惚	-11.5737
鐵圍山	-11.5739
得是三昧	-11.5739
又復理家	-11.5739
門戶	-11.574
愚闇	-11.574
慧上	-11.574
更復	-11.574
增盛	-11.5741
過度	-11.5742
能隨	-11.5743
淫	-11.5743
無邊聖諦	-11.5744
蘭若	-11.5744
多饒	-11.5744
鼓音	-11.5745
和順	-11.5745
正明夫人	-11.5745
乾闥婆王	-11.5745
若不生者	-11.5747
中有純	-11.5747
希有事	-11.5748
階道	-11.575
極妙	-11.5751
五百苾芻	-11.5751
處胎	-11.5753
隨俗	-11.5753
欄	-11.5755
而能獲得	-11.5755
當入城	-11.5755
千里	-11.5757
下三品	-11.5757
聽聞正法	-11.5758
精進波羅蜜多	-11.5758
在所	-11.5759
地獄眾生	-11.576
其邊	-11.576
甚深正法	-11.5761
幻人	-11.5762
如虛空故	-11.5763
復告	-11.5766
有漏無漏	-11.5766
供養承事	-11.5766
超諸	-11.5766
生無量清淨佛國	-11.5767
有餘涅槃	-11.5768
欲行	-11.5769
真諦云	-11.5771
皆得往生	-11.5772
不與取	-11.5774
善通達	-11.5775
廣大無量	-11.5776
覩斯	-11.5777
戒中	-11.5779
幻術	-11.578
又如世間	-11.5782
諸珍寶	-11.5783
無虛	-11.5785
數者	-11.5785
即今	-11.5786
天人大眾	-11.5786
願說何	-11.5787
其處	-11.5787
專修	-11.5788
見佛身	-11.5789
起滅	-11.5791
七寶具足	-11.5794
而用	-11.5795
為他說	-11.5797
如意珠	-11.5799
復有人言	-11.58
寧有	-11.5801
以眾寶	-11.5803
及得	-11.5803
不可議	-11.5804
菩薩善權方便	-11.5807
餘經	-11.581
於是文殊師利	-11.5811
封	-11.5811
則成	-11.5812
可悅	-11.5813
是無著	-11.5813
諸世界中	-11.5815
無和合	-11.5815
當請問	-11.5815
明人	-11.5818
憂念	-11.5819
殑伽沙劫	-11.5821
恒河沙劫	-11.5821
諸鳥	-11.5822
即指	-11.5822
度於	-11.5823
毒害	-11.5823
心安	-11.5823
初門	-11.5828
依地	-11.5831
於佛道	-11.5831
非涅槃	-11.5831
即向	-11.5834
有諸苾芻	-11.5834
可施設	-11.5836
不復更	-11.5838
復非如	-11.5838
以何意	-11.5839
違順	-11.5839
果證	-11.5842
無量不可思議	-11.5843
若如	-11.5843
雄猛	-11.5844
種種異	-11.5844
不真實	-11.5847
咸生歡喜	-11.5847
無量壽國	-11.5849
國中菩薩	-11.585
手掌	-11.585
不立	-11.5851
或因	-11.5852
諸賢聖	-11.5853
修般若波羅蜜	-11.5856
趣無上道	-11.5857
過世	-11.586
暫時	-11.5861
廣為眾生	-11.5861
阿難當知	-11.5862
種種色	-11.5862
自性空故	-11.5863
布施持戒	-11.5865
八十四	-11.5865
十月	-11.5866
最上乘	-11.5868
之尊	-11.5872
安詳	-11.5873
世話過	-11.5878
有何義	-11.588
隨處	-11.588
一切魔	-11.588
一時者	-11.5883
一塵	-11.5888
勝鬘所說	-11.5893
皆用	-11.5894
無住無	-11.5895
中邊	-11.5895
眾邪	-11.5898
我如是說	-11.5899
了了	-11.59
此閻浮提	-11.5901
苦法	-11.5901
所建立	-11.5901
擇法	-11.5907
自見身	-11.5908
赤色	-11.5908
八千人	-11.591
大善	-11.5912
自在故	-11.5912
光潔	-11.5914
五義	-11.5914
堅固心	-11.5916
忍辱力	-11.5921
菩薩摩訶薩如是	-11.5921
有染	-11.5924
不兩舌	-11.5925
求一切智	-11.5926
煩惱染	-11.5927
一切皆得	-11.5929
智中	-11.5931
無限量	-11.5931
智慧力	-11.5931
如雲	-11.5933
無怨	-11.5934
悉以	-11.594
普聞	-11.5949
別指	-11.595
所住處	-11.5952
二土	-11.5953
華臺	-11.5954
先列	-11.5954
千年	-11.5955
水聚	-11.5957
八相	-11.5957
由前	-11.5959
無障礙智	-11.5961
清淨莊嚴	-11.5963
用也	-11.5964
入一切法	-11.5968
應求	-11.5969
淨因	-11.5973
五德	-11.5975
實無有	-11.5975
此說名為	-11.5978
廣修	-11.5978
云何諸菩薩	-11.5981
乃可	-11.5982
菩提性	-11.5989
往生無量清淨佛國	-11.599
獲是	-11.5991
十歲	-11.5993
因得	-11.5995
求菩薩道	-11.5997
時彼如來	-11.5997
戒清淨	-11.5999
平等性故	-11.6
僧祇劫	-11.6007
諸智者	-11.6007
一化	-11.6009
二聖	-11.6009
無業	-11.6009
分為三	-11.601
理教	-11.6011
寶花	-11.6011
不捨離	-11.6012
卿等	-11.6012
來會	-11.6015
眼所見	-11.6015
他力	-11.6016
故名如來	-11.6019
寶樓	-11.6021
微妙音	-11.6022
誠諦	-11.6023
無染污	-11.6025
之首	-11.6027
成就一切智	-11.6029
定散	-11.603
方名	-11.6031
學道	-11.6032
現有	-11.6034
以此為	-11.6035
謂佛	-11.6035
無縛	-11.6037
文略	-11.6038
最第一	-11.6039
復與	-11.6039
雖觀	-11.6039
名覺	-11.6042
出世法	-11.6042
天香	-11.6043
此菩薩是	-11.6044
入佛法	-11.6044
彼佛壽命	-11.6047
而諸眾生	-11.6048
圓頓	-11.6049
塵垢	-11.6049
不動搖	-11.605
識之	-11.605
不妄	-11.6057
身清淨	-11.6057
種種方便	-11.6058
得聞如是	-11.6061
是化	-11.6062
害母	-11.6063
無形色	-11.6064
生阿閦佛剎者	-11.6067
生我國	-11.6067
三解脫	-11.6067
眾罪	-11.6068
有其四	-11.6071
測量	-11.6072
寶王	-11.6076
福慧	-11.6077
證阿耨多羅三藐三菩提果	-11.6078
問文殊師利	-11.6078
時彼眾中	-11.6079
卒暴	-11.608
乃成	-11.6082
從世尊以下	-11.6083
明珠	-11.6084
恒沙劫	-11.6085
常修梵行	-11.6086
定善	-11.6087
往還	-11.6089
尋即	-11.6094
福利	-11.6095
都無所	-11.6096
諸阿羅漢	-11.6098
不戲論	-11.6099
譬如人	-11.6099
可證	-11.61
為求菩提	-11.61
險惡	-11.6103
從地	-11.6109
若佛	-11.6109
十五者	-11.6113
而生於	-11.6114
以布施	-11.6114
身口業	-11.6115
亦未	-11.6116
邪欲	-11.6116
歸佛	-11.6116
但聞	-11.6117
亦不作	-11.6118
七曰	-11.6122
一乘章	-11.6127
乃至識	-11.6129
知一切眾生	-11.613
喜愛	-11.613
以下釋	-11.6134
求者	-11.6135
一切諸法無有	-11.6135
相差別	-11.6143
既蒙	-11.6145
之徒	-11.6146
盡也	-11.6146
得念	-11.6147
能斷除	-11.6147
照於	-11.615
作眾惡	-11.615
天報	-11.6151
不懼	-11.6153
無慚愧	-11.6155
無明地	-11.6155
因之	-11.6157
得羅漢	-11.6158
爾時世尊知	-11.6158
次想	-11.6161
如來法中	-11.6164
世間無與等	-11.6164
八邪	-11.6168
勝力	-11.6173
眼生邊	-11.6174
如來如實知	-11.6176
功德花	-11.6177
之所由	-11.6178
彼見	-11.6179
是可	-11.6179
設供養	-11.6179
何方	-11.6181
可思議	-11.6184
即無生	-11.6184
所教	-11.6193
以釋	-11.6193
一事	-11.6194
如實說	-11.6196
以大悲心	-11.6196
現其	-11.6197
柔順	-11.6198
於是處	-11.6199
彼界	-11.6199
不生怖畏	-11.62
是住	-11.62
得善利	-11.6202
皆能了知	-11.6202
座上	-11.6203
願故	-11.6207
大悲之心	-11.6207
方世界有	-11.6207
皆獲	-11.6209
皆因	-11.6209
及見	-11.6214
自餘	-11.6216
休	-11.6216
非空	-11.6218
離諸惡道	-11.6219
佛寶	-11.622
外緣	-11.6223
汝自	-11.6223
是經典	-11.6224
無所求	-11.6224
若能了	-11.6227
不知足	-11.6228
然則	-11.6228
汝莫	-11.6228
因他	-11.6235
成德	-11.6235
諸愚夫	-11.6236
大樹	-11.6239
力無畏	-11.6239
澄	-11.6241
皆悉知	-11.6242
彼論	-11.6243
一為	-11.625
如實見	-11.6251
得須陀洹	-11.6252
不可言說	-11.6252
是無漏	-11.6255
四如意足	-11.6257
諸人民	-11.6257
我今略說	-11.6258
三菩提	-11.6258
住故	-11.6258
馥	-11.6258
眾生性	-11.626
是何等	-11.6262
無有人	-11.6262
同名	-11.6263
脫苦	-11.6263
所護念	-11.6264
見色	-11.6264
安隱處	-11.6264
無盡法	-11.6269
通於	-11.6269
廣宣	-11.627
怨親	-11.627
滴	-11.6271
怙	-11.6271
故爾	-11.6274
谷	-11.6277
甘美	-11.6277
不惱	-11.6277
攝諸眾生	-11.6279
後宮	-11.6279
通達一切	-11.6279
後五百歲	-11.628
醜	-11.6283
如是說法	-11.6285
一沙一佛	-11.6287
頻	-11.6288
攝受正法善男子善女人	-11.6289
離我我所	-11.6289
如是般若不與	-11.6289
夢中所見	-11.6291
妻子眷屬	-11.6291
能過	-11.6292
共持散諸佛及	-11.6292
若一	-11.6293
我有光明名	-11.6293
試光祿卿	-11.6294
乘大乘	-11.6297
可往	-11.6297
如陽焰	-11.6298
合為一	-11.6298
目犍連	-11.63
此等皆	-11.6301
懈倦	-11.6301
修之	-11.6303
菩薩得無生法忍	-11.6303
此眾生信	-11.6303
華德藏	-11.6305
又此眼等	-11.6305
於佛智	-11.6305
諸菩薩意各復欲得	-11.6306
此中何有貪	-11.6306
當知是人徒自疲勞	-11.6306
來入	-11.6307
愚癡者	-11.6308
國中人天	-11.6308
歿	-11.6308
又成就修行者	-11.6308
證成	-11.6308
信解清淨乃至發希有想	-11.6309
雖多	-11.6309
目乾連	-11.631
諸仙	-11.631
如是之業乃至	-11.631
論師	-11.631
不可勝	-11.6311
佛讚	-11.6313
如救頭然	-11.6313
勝慧波羅蜜多	-11.6314
西天譯經三藏	-11.6314
映奪	-11.6314
不來不去	-11.6314
金銀琉璃	-11.6316
本無有我亦無有情	-11.6317
多陀阿伽度	-11.6317
眉間白毫	-11.6317
劫生死之罪	-11.6318
乘於大乘	-11.6318
蓮華上	-11.6319
依大乘	-11.6319
伽樓羅	-11.6319
祈	-11.632
縱廣正等	-11.632
吠瑠璃	-11.632
隨順行	-11.632
坐於道場	-11.6321
僧坊	-11.6321
勝高如來	-11.6322
▁32	-11.6322
百味飲食	-11.6322
覺傳梵大師賜紫沙門臣法護等奉詔譯	-11.6322
應得度者	-11.6322
須臾頃	-11.6322
孝養	-11.6322
▁34	-11.6323
苦空無常	-11.6323
拘物頭	-11.6323
法幢	-11.6323
攘	-11.6323
無高無下	-11.6323
7	-11.6323
不願	-11.6324
無量無數不可思議	-11.6324
若內若外	-11.6324
長跪合掌	-11.6324
6	-11.6324
首楞嚴	-11.6324
翼	-11.6324
欲境	-11.6325
明了通達	-11.6325
當何名此經	-11.6325
忿恨	-11.6325
但有名字	-11.6327
求阿耨多羅三藐三菩提	-11.6327
銷	-11.6327
還得	-11.6327
無窮無極	-11.6327
城郭	-11.6327
壽終之後	-11.6327
闡提	-11.6327
今此所論	-11.6327
儻	-11.6327
未來際	-11.6328
化為	-11.6328
不能盡	-11.6328
彼諸人等	-11.6328
當如是學	-11.6328
初識生已	-11.6328
聖行	-11.6329
五濁惡世	-11.633
贍部洲	-11.633
幻士仁賢	-11.633
稽首作禮	-11.633
微風吹動	-11.6331
縮	-11.6332
邏	-11.6332
群迷	-11.6332
難伏地	-11.6332
奉迎	-11.6333
身獨度脫	-11.6333
讓	-11.6333
七寶宮殿	-11.6333
丘	-11.6333
浪	-11.6334
作禮而去	-11.6334
芬	-11.6334
阿彌陀佛剎中	-11.6334
碼碯	-11.6335
不倦	-11.6335
攝生	-11.6336
漿	-11.6336
撰	-11.6336
述云此第五	-11.6336
不斷無明住地	-11.6336
流泉	-11.6336
菴	-11.6337
疲極	-11.6337
救療	-11.6337
軀	-11.6338
恒河上	-11.6338
離垢施女問	-11.6338
償	-11.6339
刑	-11.6339
得不起法忍	-11.6339
殷重	-11.6339
幔	-11.6339
有何差別	-11.634
善香	-11.634
勝觀如來	-11.6341
清潔	-11.6341
爛壞	-11.6341
參	-11.6341
共相謂言	-11.6341
綱	-11.6342
脣	-11.6342
惟願世尊	-11.6342
夭	-11.6342
覽	-11.6342
具大威德	-11.6342
凡有三	-11.6342
余	-11.6342
此即初也	-11.6343
四十八	-11.6343
閉塞	-11.6343
彼處所有	-11.6343
為己	-11.6344
盜賊	-11.6344
天上天下	-11.6344
如是諸菩薩摩訶薩畢竟成就	-11.6345
即有其七	-11.6345
時彼童子	-11.6345
進退	-11.6345
我為汝說	-11.6346
長跪	-11.6346
此約	-11.6346
諸花	-11.6347
地觀	-11.6347
朗然	-11.6347
捨三	-11.6348
剎那不住	-11.6348
籍	-11.6349
授手	-11.6349
本行菩薩道時	-11.6349
不斷三寶	-11.635
究盡	-11.6351
無有智慧	-11.6351
五住地	-11.6351
於中初明	-11.6352
獄卒	-11.6352
劫初	-11.6352
彰己	-11.6353
林樹	-11.6353
於剎那頃	-11.6353
腐	-11.6354
敷具	-11.6354
向佛合掌	-11.6354
光澤	-11.6355
守護正法	-11.6355
辛苦	-11.6355
四大海水	-11.6355
是義云何	-11.6356
皆悉現前	-11.6356
何等為六	-11.6356
不簡	-11.6357
親承	-11.6358
我念過去	-11.6359
尊者優陀夷	-11.636
賓頭盧	-11.6361
今已	-11.6361
不以為難	-11.6361
云何諸菩薩摩訶薩成就	-11.6362
風雨	-11.6362
亦生	-11.6363
執劍	-11.6365
諸境界	-11.6365
志存	-11.6366
患厭	-11.6366
降伏諸魔	-11.6366
為他說法	-11.6366
本所不見	-11.6368
奉上如來	-11.6369
生解	-11.6369
述云第三	-11.6373
何義故作如是說	-11.6373
尊重恭敬	-11.6374
火所燒	-11.6374
幻法	-11.6375
我剎中人	-11.6377
十四章	-11.6377
功力	-11.6378
不空如來藏	-11.6378
觀門	-11.6378
於說法師	-11.638
而修供養	-11.6382
行法施	-11.6384
何者為三	-11.6385
給使	-11.6386
如來境界	-11.6386
不增	-11.6386
悅樂	-11.6386
百千萬億那由他	-11.6386
法亦如是	-11.6386
眼處	-11.6386
舉手	-11.6387
彼虛空	-11.6387
惡逆	-11.6387
所及	-11.6388
承力	-11.6389
復有四法成就	-11.639
悉遍	-11.639
自然化生	-11.6392
怨賊	-11.6392
即有其三	-11.6393
除此	-11.6393
極清淨	-11.6395
法海	-11.6395
玄義	-11.6398
從心	-11.6399
若比丘	-11.64
嗟歎	-11.6403
大海中	-11.6405
為最正覺	-11.6405
知時	-11.6405
一生補處菩薩	-11.6405
離心意	-11.6406
心不顛倒	-11.6406
無損害	-11.6407
色聲香味觸法	-11.6407
日光明	-11.6408
善根力	-11.6408
大法鼓	-11.6409
入於涅槃	-11.641
故名為覺	-11.641
受持諷誦	-11.6411
度一切眾生	-11.6411
誦經	-11.6412
故名阿彌陀	-11.6413
發遣	-11.6413
不損	-11.6413
第四句	-11.6415
重苦	-11.6416
勝華藏菩薩	-11.6417
水流	-11.6419
雷	-11.6422
七法	-11.6422
不嫉	-11.6423
正精進	-11.6424
可捨	-11.6425
投身	-11.6426
若一切法	-11.6428
自分行	-11.6428
是有漏	-11.6428
如有	-11.6429
如其所說	-11.6429
來相	-11.6429
而死	-11.6431
當墮	-11.6432
受胎生	-11.6433
等分	-11.6436
無有作者	-11.6436
全體	-11.6436
況有	-11.6436
住佛前	-11.6437
由彼如來	-11.6438
賢王	-11.6438
隨諸眾生種種	-11.6438
甚希有	-11.6442
奇妙	-11.6443
持法者	-11.6445
諸佛正法	-11.6445
心體	-11.6445
佛剎莊嚴	-11.6445
梵輪	-11.6446
無亂	-11.6448
剎那相應	-11.6449
有八萬	-11.6449
如師子王	-11.645
真實語	-11.6451
西方淨土	-11.6452
之餘	-11.6454
禪樂	-11.6454
兩足	-11.6455
一者菩薩	-11.6459
月實	-11.6459
染故	-11.6459
深心清淨	-11.6459
故涅槃云	-11.6461
不持戒	-11.6461
若愛眼	-11.6462
但應	-11.6462
信已	-11.6462
無明滅	-11.6465
皆隨	-11.6467
金光明	-11.6467
於聲聞乘	-11.6467
時無垢施女謂	-11.6467
餘眾生	-11.6469
若已生	-11.647
諸財寶	-11.647
此神識	-11.647
證無生忍	-11.6471
諸疑惑	-11.6471
經七日	-11.6472
我不見	-11.6473
佛世	-11.6475
引攝	-11.6475
生牙	-11.6475
所聞法	-11.6477
如是廣大	-11.6478
息滅	-11.6478
梵本	-11.6478
在何處	-11.6478
測度	-11.6478
無怖畏	-11.6479
生厭	-11.648
獲福	-11.6481
放光如來	-11.6481
坐於	-11.6481
不可樂	-11.6484
菩薩大悲	-11.6485
亦常	-11.6485
以此因緣	-11.6487
無上正真	-11.6487
出時	-11.6488
齊等	-11.6489
廣果天	-11.649
王與	-11.6491
菩薩神通	-11.6492
萬八千	-11.6493
文分為	-11.6495
六欲天	-11.6497
告彼	-11.6497
無常苦空	-11.6498
我所說	-11.6499
起說	-11.65
段明義	-11.6501
差別之相	-11.6501
復名	-11.6501
種種性	-11.6502
讚云	-11.6502
於此三千大千世界	-11.6503
普門	-11.6504
悉當	-11.6504
又族姓子	-11.6504
十二緣	-11.6504
辯才無礙	-11.6505
願心	-11.6507
若茲	-11.6508
苦海	-11.6509
其功德	-11.6511
得大利	-11.6511
相連	-11.6512
住空中	-11.6513
俗人	-11.6513
彼世界中	-11.6513
有四法	-11.6514
何由	-11.6515
和合生	-11.6515
往生淨土	-11.6516
之形	-11.6516
欲界諸天	-11.6517
實德	-11.6517
為開示	-11.6518
之所攝受	-11.652
往生也	-11.652
以為莊嚴	-11.6521
過者	-11.6521
所化眾生	-11.6522
心樂	-11.6523
令一切眾生悉	-11.6523
瑪瑙為	-11.6523
號佛	-11.6523
非識	-11.6523
大唐三藏法師玄奘奉詔譯	-11.6525
今為	-11.6525
實不	-11.6528
如是勝鬘	-11.6528
佛神力故	-11.6533
凡小	-11.6533
如來善了	-11.6534
財業	-11.6534
法律	-11.6535
值諸佛	-11.6535
法華論	-11.6535
讀誦大乘	-11.6536
菩薩作是思惟	-11.6536
易得	-11.6539
所因	-11.6541
別中	-11.6542
無一眾生	-11.6543
一相法門	-11.6544
在家多	-11.6544
爾時善	-11.6544
之輩	-11.6544
他論	-11.6546
金剛句	-11.6546
二辨	-11.6547
然我	-11.6548
是故今明	-11.6551
魔宮	-11.6551
名言	-11.6552
種種相	-11.6553
同也	-11.6553
念故	-11.6555
譬如有	-11.6556
見菩薩	-11.6556
為魔	-11.6556
一切皆悉	-11.6559
章中	-11.6559
生心	-11.6562
樂說	-11.6563
咸作是	-11.6563
四邊	-11.6563
得除	-11.6564
最上勝	-11.6566
滅也	-11.6566
根性修	-11.6569
我佛	-11.657
故則無	-11.6575
厭倦	-11.6579
見不	-11.6579
寶瓔珞	-11.658
得見佛	-11.6581
水火風界	-11.6581
不獲	-11.6582
不作相	-11.6582
照見	-11.6584
之利	-11.6585
懸諸	-11.6586
▁是	-11.6586
菩薩若入	-11.6586
得神通	-11.6589
還至	-11.6592
說大乘	-11.6594
為第一	-11.6598
能信解	-11.66
戒品	-11.66
而得解脫	-11.6601
正法住世	-11.6601
師尊	-11.6602
眼耳鼻舌身意	-11.6602
增廣	-11.6604
難聞	-11.6604
九種	-11.6605
大梵王	-11.6611
異類	-11.6614
無慚	-11.6615
或言	-11.6617
藏體	-11.6617
謂我	-11.6618
以方便	-11.6619
使其	-11.662
雖同	-11.6621
初識生	-11.6624
若諸眾生有	-11.6626
有漏業	-11.6628
能動	-11.663
其罪	-11.6631
汝已	-11.664
說是經	-11.6643
戒相	-11.6643
雖住	-11.6644
至極	-11.6644
速往	-11.6649
盛滿	-11.6651
斷者	-11.6651
還來	-11.6653
即隨	-11.6653
大品經	-11.6653
事理	-11.6655
無瞋	-11.6655
憂喜	-11.6655
是諸比丘	-11.6657
成故	-11.6657
終至	-11.6657
其慧	-11.6657
善持	-11.6658
既非	-11.6659
雖不能	-11.666
開演	-11.6661
火聚	-11.6662
悉同	-11.6664
無種類	-11.6664
明闇	-11.6664
授其	-11.6665
之異	-11.6666
苦惱眾生	-11.6668
於後世	-11.6669
汝身	-11.6669
凡有二	-11.667
遠聞	-11.6673
上文	-11.6674
來去	-11.6677
一百二十	-11.668
於無上道	-11.668
或是	-11.6682
莊嚴功德	-11.6682
淨土中	-11.6684
三云	-11.6687
如來之身	-11.6687
不了義	-11.6688
智性	-11.6691
三十九	-11.6694
居家為	-11.6695
我終不	-11.6696
其壽	-11.67
為要	-11.6703
往生論	-11.6704
十戒	-11.6705
上人	-11.6706
生相	-11.6707
二行	-11.671
今初	-11.6711
悉入	-11.6714
無底	-11.6715
能聞	-11.6717
六念	-11.6719
此喻	-11.672
得值	-11.6721
此戒	-11.6721
唯佛能	-11.6726
當體	-11.6728
二大士	-11.6728
為樂	-11.6729
身上	-11.673
得近	-11.673
有五百	-11.674
分之	-11.6743
而論	-11.6743
大乘行	-11.6743
無緣慈	-11.6743
非聖	-11.6745
諸境	-11.6745
德菩薩	-11.6745
由觀	-11.6745
想像	-11.675
除一切	-11.675
妙辯才	-11.6751
若見眾生	-11.6751
當何	-11.6753
若受	-11.6753
欲染	-11.6754
於此處	-11.6755
我當云何	-11.6755
知諸眾生	-11.6755
此經中	-11.6755
正答	-11.6758
頗梨為	-11.6758
亦通	-11.6758
當果	-11.6759
無生者	-11.6759
化成	-11.6763
淨慧	-11.6765
喻中	-11.6767
身觸	-11.6771
真俗	-11.6772
名異	-11.6773
正修	-11.6774
無聲	-11.6775
如來真實	-11.6775
畢竟清淨	-11.6776
所以言	-11.6777
就人	-11.6778
雖然	-11.6778
分別起	-11.6779
依行	-11.6779
說一相法門	-11.6779
無量千	-11.678
攝善	-11.6783
如須彌山王	-11.6784
十四者	-11.6784
起瞋恚	-11.6785
尊者舍利弗	-11.6785
上來別	-11.6786
得生彼	-11.6786
如斯覺故觀	-11.6788
妄念	-11.6789
二序	-11.679
苦者	-11.679
謂身	-11.679
於彼時	-11.6791
果中	-11.6791
莊嚴其身	-11.6793
并及	-11.6798
直心	-11.6799
別列	-11.6799
詣如來所	-11.6806
而反	-11.6807
佛出	-11.6808
若觀	-11.6809
有支	-11.681
舉彼	-11.6811
說如是言	-11.6811
無有比	-11.6816
無邊故	-11.6816
非明	-11.6817
繒	-11.6818
得法忍	-11.6818
三僧祇	-11.682
如是世尊	-11.6822
喜捨	-11.6822
如來塔	-11.6824
阿毘	-11.6826
之國	-11.6827
咸生	-11.6829
爾時頂生	-11.683
十小劫	-11.6832
有百千	-11.6835
自用	-11.6835
救世	-11.6836
佛說法	-11.6836
卷第五	-11.6848
雜花	-11.6851
極難得	-11.6853
無異攝受正法	-11.6853
師所	-11.6854
先釋	-11.6855
賢劫中	-11.6857
不專	-11.6857
無量善根	-11.6857
佛寺	-11.6857
成無上正真之道	-11.6859
自性故	-11.6859
甚深般若波羅蜜	-11.6861
一食	-11.6862
亦悉	-11.6866
復有餘	-11.6867
害者	-11.6867
障法	-11.6871
以別	-11.6871
譬如大海	-11.6873
菩薩摩訶薩成就如是	-11.6873
失於	-11.6876
而散佛上	-11.688
如來昔	-11.6881
將無	-11.6881
本生	-11.6882
生瞋	-11.6883
眼識界	-11.6885
耳鼻舌身	-11.6886
迦攝	-11.6889
轉大	-11.6889
金山	-11.6891
得究竟	-11.6893
彌勒佛	-11.6893
聞已即	-11.6895
寶殿	-11.6896
世尊釋迦牟尼如來	-11.6897
罪惡	-11.6898
重顯	-11.6898
何者名為	-11.69
無為者	-11.69
何所作	-11.6902
以說	-11.6907
成就無量功德	-11.6908
心數法	-11.6909
諸法本無	-11.6912
稱讚如來	-11.6913
七十二	-11.692
諸佛出世	-11.692
非物	-11.6924
是常住	-11.6924
周圓	-11.6932
若定	-11.6934
令作	-11.6934
不知也	-11.6937
四種功德	-11.6942
普明	-11.6944
退屈	-11.6946
位在	-11.6948
我等當	-11.6953
訛	-11.6953
美味	-11.6953
勝鬘白佛	-11.6955
乃至無量	-11.6955
成就無量	-11.6958
即現	-11.6958
於千歲中未曾起念	-11.6958
汝意云何	-11.6959
篋	-11.696
中品上生	-11.6965
菩薩有四事	-11.6965
比於	-11.6965
全無	-11.6965
如龍樹	-11.6966
王今	-11.6966
對也	-11.6966
在家者為	-11.6968
於千歲中	-11.6969
擎	-11.697
厄難	-11.697
以求	-11.6971
同分心品相續	-11.6971
其家	-11.6971
舍婆提	-11.6972
使者	-11.6973
決疑	-11.6974
王都	-11.6974
孽	-11.6974
帛延	-11.6975
時亦	-11.6976
宮嬪	-11.6977
膜	-11.6977
是故應當	-11.6977
造彼業已即便謝滅	-11.6977
精勤修學	-11.6977
聞我名字	-11.6977
嚩底	-11.6979
響聲	-11.698
相應文句	-11.698
蘊界處	-11.698
如來所有	-11.6981
莫作	-11.6981
與世	-11.6981
敷座	-11.6983
又昔曾為	-11.6983
我心安住觀察如色	-11.6984
毘梨耶波羅蜜	-11.6984
菩薩摩訶薩為欲修行般若波羅蜜多故	-11.6984
不驚不怖	-11.6985
所以不	-11.6985
菩薩摩訶薩行尸羅波羅蜜多故	-11.6985
皆於中現	-11.6985
取要言之	-11.6985
曠野大城	-11.6985
時諸菩薩	-11.6985
阿閦佛德號法經	-11.6986
我生巳盡	-11.6986
卑賤	-11.6987
縵	-11.6987
焰摩天	-11.6987
為欲勤求大菩薩藏微妙法門	-11.6987
潔淨	-11.6987
與大苾芻眾	-11.6987
示教利喜	-11.6987
訶責	-11.6987
於大眾中正師子吼	-11.6988
▁31	-11.6988
至其所	-11.6988
各於其國	-11.6988
為他廣說	-11.6989
乳糜	-11.699
身之	-11.699
是名菩薩忍辱	-11.699
善哉馬勝	-11.6991
成就如是功德莊嚴	-11.6991
佛本何故起此	-11.6991
妃	-11.6991
阿鞞跋致	-11.6992
躍	-11.6992
佛等	-11.6992
荊棘	-11.6992
阿怒	-11.6992
逮得無所從生法忍	-11.6992
效	-11.6993
剎帝利	-11.6993
鉤	-11.6993
宰	-11.6993
第二段	-11.6993
妙高	-11.6993
謂菩薩	-11.6993
金剛臺	-11.6993
鬪訟	-11.6994
從本已來	-11.6994
名為法身	-11.6994
溪	-11.6994
親覲	-11.6994
十疑論	-11.6994
從是已後	-11.6994
恭信	-11.6994
客塵煩惱	-11.6994
一時佛在舍衛國祇樹給孤獨園	-11.6995
我等從今日已	-11.6995
爾時尊者舍利弗	-11.6995
囑累	-11.6995
娛	-11.6995
歡娛	-11.6995
▁310(3	-11.6995
五痛五燒	-11.6995
苦集滅道	-11.6996
煥	-11.6996
復感業風名為	-11.6996
上下無央數佛國	-11.6997
隨諸所作	-11.6997
芳	-11.6997
阿鼻地獄	-11.6997
潛	-11.6997
加趺而坐	-11.6997
踊悅	-11.6997
摩尼寶珠	-11.6998
紫金臺	-11.6998
諸比丘僧	-11.6998
菩薩藏法門	-11.6998
常身命財	-11.6998
促	-11.6999
凌	-11.6999
霑	-11.6999
擾	-11.7
在閑居	-11.7
其命	-11.7
結跏趺坐	-11.7
人與非人	-11.7
性自空	-11.7
政	-11.7
唱如是言	-11.7001
供諸佛	-11.7001
翻之	-11.7001
故經說言	-11.7002
斯陀含果	-11.7002
邑	-11.7002
降伏眾魔	-11.7002
十二由旬	-11.7002
澡浴	-11.7003
驅	-11.7003
罰	-11.7003
率	-11.7003
是名下結	-11.7003
而告之	-11.7003
觀佛三昧	-11.7004
摩陀比丘	-11.7004
而問	-11.7004
欲重宣此義	-11.7004
授決	-11.7004
與汝	-11.7005
辰	-11.7005
輕躁	-11.7005
光如來	-11.7005
黑山	-11.7005
一一樓閣	-11.7005
綠	-11.7005
踰闍	-11.7006
般舟	-11.7006
植眾德本	-11.7006
▁子	-11.7006
永絕	-11.7007
世世累劫	-11.7007
可為	-11.7008
於剎那間	-11.7008
腸	-11.7008
諸根悅豫	-11.7008
容儀	-11.7008
勝鬘正說	-11.7009
尊勝	-11.7009
為其說法	-11.7009
滿其中	-11.7009
大方便	-11.7009
飽滿	-11.701
填	-11.701
心以存立	-11.701
樂於多言	-11.701
為利養故	-11.7011
重任	-11.7011
東西	-11.7011
勒	-11.7011
大菩提場	-11.7011
齋戒	-11.7012
滑	-11.7012
忻樂	-11.7012
所宜	-11.7013
神仙	-11.7013
恐不然	-11.7013
心以住在	-11.7013
必應	-11.7013
未明	-11.7013
聞是經已	-11.7014
般涅槃後	-11.7015
有為善巧	-11.7015
義門	-11.7015
祇樹	-11.7016
度諸眾生	-11.7016
見有國土	-11.7016
恭恪	-11.7016
復有七	-11.7017
識宿命	-11.7017
紫金色	-11.7018
此翻為	-11.7018
均	-11.7018
於自身	-11.7018
栰	-11.7018
寂止	-11.7018
筆	-11.7018
八聖諦	-11.7019
結成極樂	-11.7019
皇	-11.702
舍那	-11.702
我於彼時	-11.702
我亦不說	-11.702
我復有願	-11.7022
秉作	-11.7022
順理	-11.7023
常聞	-11.7023
一性	-11.7024
夕	-11.7024
毘婆尸如來	-11.7024
涕唾	-11.7025
愁苦	-11.7026
住虛空中	-11.7027
諸賈客	-11.7027
外道言	-11.7027
此諸眾生	-11.7027
半月	-11.7028
野馬	-11.703
恚怒	-11.703
受諸苦惱	-11.703
語言辯才	-11.703
十七者	-11.7032
得阿羅漢道	-11.7032
普照十方	-11.7033
慶喜	-11.7033
我今當說	-11.7033
利鈍	-11.7034
向說	-11.7034
集故	-11.7034
七寶池中	-11.7035
如是等人	-11.7036
得無生	-11.7036
流散	-11.7036
過是	-11.7039
求無上菩提	-11.7041
證小果	-11.7041
今世至	-11.7041
勤勞	-11.7041
今為汝說	-11.7042
勝丈夫	-11.7043
聖主	-11.7043
具足無量	-11.7043
歷事	-11.7043
如來不共法	-11.7044
鬼趣	-11.7044
其花	-11.7045
唯然已	-11.7046
稱機	-11.7047
邪染	-11.7048
無有餘	-11.7048
以受	-11.7048
佛告下	-11.7049
宣示	-11.7049
一一菩薩	-11.705
遍清淨	-11.7051
名波羅蜜	-11.7054
相應故	-11.7054
所表	-11.7054
諮受	-11.7055
皆欣喜	-11.7055
發大精進	-11.7056
大般涅槃	-11.7057
智慧亦復然	-11.7058
言論	-11.7058
是九地	-11.7059
如來如實	-11.706
是故願	-11.706
善為	-11.7066
如來藏章	-11.7069
氣力	-11.707
▁法	-11.7071
六十那由他	-11.7071
大自在	-11.7071
汝等當知	-11.7073
安諦	-11.7073
而般涅槃	-11.7074
三尊	-11.7075
宣正法	-11.7075
命終之時	-11.7076
此等皆是	-11.7077
受胎	-11.7079
分布	-11.7079
貪嫉	-11.7081
離戲論	-11.7082
無退屈	-11.7082
苦哉	-11.7082
久修	-11.7082
聲聞之人	-11.7083
受欲樂	-11.7083
深達	-11.7087
潤益	-11.7088
及諸眷屬	-11.7088
唯佛世尊	-11.709
除其	-11.7091
題目	-11.7091
正師子吼	-11.7091
心得無疑	-11.7094
之旨	-11.7098
則能成就	-11.7099
如性	-11.71
復有諸天	-11.71
永盡	-11.7102
有二十	-11.7102
生喜	-11.7104
便自	-11.7104
是精進根	-11.7105
得智慧	-11.7105
苦滅諦	-11.7106
興起	-11.7106
爾時大王	-11.7106
不施	-11.7107
內懷	-11.7108
中悔	-11.7109
及諸比丘	-11.7112
勿作	-11.7113
苦難	-11.7114
勿得	-11.7115
皆云	-11.7115
有緣生	-11.7115
我執	-11.7116
來至佛所	-11.7117
何況我等	-11.7117
貪惜	-11.7118
菩薩成就如是	-11.7119
無患	-11.7119
割截	-11.7122
容色	-11.7122
於三摩地	-11.7123
欲作	-11.7123
勝中	-11.7124
我不說言	-11.7124
果者	-11.7124
無異相	-11.7126
八萬相	-11.7126
十力尊	-11.7127
我與	-11.7128
萎華	-11.7131
眷屬及	-11.7132
受五欲	-11.7132
倍增	-11.7135
具足清淨	-11.7136
不能解了	-11.7137
雙結	-11.7137
復有二種	-11.7144
得大菩提	-11.7144
上三	-11.7144
諸地	-11.7145
欲食時	-11.7145
遠離一切諸	-11.7145
彼城	-11.7146
從來	-11.7147
聽我	-11.7148
盛年	-11.7148
為利益他	-11.7148
成一切智	-11.715
入聚落	-11.715
是樂	-11.7151
坐禪	-11.7151
無塵	-11.7151
知恩	-11.7152
依本	-11.7153
頭陀功德	-11.7155
人之	-11.7155
捨棄	-11.7156
利群生	-11.7156
持用	-11.7156
斯則	-11.7157
耽欲	-11.7158
末法	-11.7158
以取	-11.7159
中三品	-11.7159
入山	-11.716
謗正法	-11.7162
來意	-11.7163
如是攝受正法	-11.7167
廣利	-11.7167
智慧辯才	-11.7169
名住	-11.717
大梵天	-11.7179
散亂心	-11.7181
無有異也	-11.7181
拘胝劫	-11.7182
水種	-11.7182
四絕	-11.7184
此甚深法	-11.7185
問於尊者	-11.7186
長久	-11.7186
而施	-11.7186
十界	-11.7187
非依	-11.7189
病惱	-11.7192
起悲心	-11.7194
不閑	-11.7196
出城	-11.7199
明護法	-11.7199
故名為大	-11.72
號阿彌陀	-11.7201
增上慢者	-11.7201
亦不應	-11.7203
他家	-11.7203
隨類	-11.7204
唯如來	-11.7205
其池	-11.7206
大病	-11.7209
憐愍眾生	-11.721
有病	-11.7212
不雜	-11.7212
他方佛國	-11.7213
尊重供養	-11.7215
餘事	-11.7219
資身	-11.722
濁水	-11.7221
所施行	-11.7221
遣使	-11.7225
所護	-11.7225
道俗	-11.7225
門釋之	-11.7226
離此	-11.7226
土中	-11.7226
即涅槃	-11.7227
生邊	-11.7228
行大悲	-11.7229
佛性論	-11.723
超過世間	-11.723
是無差別	-11.7234
瓔珞經	-11.7235
隨順世間	-11.7235
不處	-11.7235
生是念	-11.7236
無福	-11.7239
門而入	-11.724
是故應知	-11.724
苦毒	-11.7241
大地獄	-11.7243
下有	-11.7244
求見	-11.7245
明矣	-11.7245
中初言	-11.7246
令見	-11.7248
亦有二種	-11.7249
還是	-11.725
求大乘者	-11.725
或散	-11.7252
請說	-11.7252
雖言	-11.7256
無表示	-11.7256
樂因	-11.7257
菩薩摩訶薩復有	-11.7257
皆悉成就	-11.7258
惡處	-11.7258
為自身	-11.726
之日	-11.7264
乘境	-11.7264
色相光明	-11.7265
立誓	-11.7268
理成	-11.7269
如蓮花	-11.7272
或處	-11.7273
威神力	-11.7274
文殊師利復	-11.7277
空觀	-11.7278
非解脫	-11.7279
二是	-11.7281
婬女	-11.7282
命終已	-11.7283
初出	-11.7285
我從今日	-11.7285
先業	-11.7286
前人	-11.7287
益物	-11.7288
勇菩薩	-11.7289
蘇摩	-11.7289
億分不及一	-11.729
純淨	-11.7291
無佛	-11.7291
諸法中	-11.7292
如似	-11.7293
放逸者	-11.7293
善力	-11.7293
小乘中	-11.7294
講法	-11.7294
忘正法	-11.7296
因見	-11.7296
四指	-11.7298
即令	-11.73
但知	-11.7301
生恐怖	-11.7302
速證阿耨多羅三藐三菩提	-11.7303
爾時彼佛	-11.7304
自守	-11.7309
心解脫	-11.7309
生樂想	-11.7313
所以明	-11.7315
道樹	-11.7318
雖經	-11.7318
口說	-11.7321
不怖	-11.7328
雖異	-11.7329
此教	-11.7329
有餘也	-11.7329
所稱譽	-11.7331
諸善本	-11.7331
雜惡	-11.7332
橫執	-11.7332
無我法	-11.7334
名無垢	-11.7337
諸蓋	-11.7345
勝利	-11.7345
十九者	-11.7345
具受	-11.7346
俱胝那庾多	-11.7348
歎曰	-11.7348
苦患	-11.7351
誠信	-11.7351
治化	-11.7351
成前	-11.7355
我雖	-11.7355
記說	-11.7356
中陰	-11.7357
是名第二	-11.7359
次舉	-11.7363
無行無	-11.7364
彼佛土	-11.7365
須陀洹果	-11.7368
為度	-11.7368
眾華	-11.7369
不被	-11.7371
祥	-11.7372
法藏菩薩	-11.7374
是名為識	-11.7375
於一切智智	-11.7377
不求菩提	-11.7378
證阿耨多羅三藐三菩提	-11.738
拘胝那庾多	-11.7382
亦不可思議	-11.7383
亦無相	-11.7384
惡意	-11.7387
殑伽沙	-11.7387
法有故	-11.7387
十三者	-11.7388
如是患	-11.7389
同住	-11.739
有想	-11.7391
無量佛土	-11.7392
畜生中	-11.7392
佛像	-11.7393
悉清淨	-11.7393
不迷	-11.7393
於母	-11.7395
曾不	-11.7396
偈中	-11.7397
相與	-11.7397
及弟子	-11.7399
無雜	-11.74
餘乘	-11.7402
非直	-11.7403
眾流	-11.7404
復應	-11.7408
富饒	-11.7409
破諸	-11.7414
不得四智	-11.7415
或當	-11.7415
彼中	-11.7416
從他	-11.7418
法非法	-11.742
所離	-11.7421
復聞	-11.7423
非下	-11.7424
若干百千	-11.7425
貪利養	-11.7426
現瑞	-11.7426
其中所有	-11.7427
雖為	-11.7427
諸藥	-11.743
勝報	-11.743
因緣滅	-11.7431
七覺分	-11.7431
宿願	-11.7436
性具	-11.744
名有餘	-11.744
容貌	-11.744
師子吼者	-11.7441
龍等	-11.7445
不墮惡道	-11.7447
一佛國	-11.745
於是經	-11.745
從何而	-11.7453
住滅	-11.7454
豈能	-11.7455
了知一切	-11.7457
盲人	-11.7459
答也	-11.746
種種寶	-11.7461
執為	-11.7464
順向	-11.7464
是十地	-11.7466
求出	-11.7467
菩薩應當	-11.7469
自然有	-11.7471
諸菩薩摩訶薩眾	-11.7474
佛威神	-11.7474
於人中	-11.7477
大方廣	-11.7481
億數	-11.7482
品云	-11.7485
遶三匝	-11.7485
演暢	-11.749
乘體	-11.7493
是諸如來	-11.7496
為重	-11.7498
息心	-11.7499
深心者	-11.7501
因盡	-11.7506
雖少	-11.7507
剎土中	-11.7509
不見諸法	-11.7509
一等	-11.7509
受斯	-11.751
持地	-11.751
此國	-11.751
非汝	-11.7511
處于	-11.7511
樂事	-11.7512
受取	-11.7512
無偏	-11.7513
太子復	-11.7513
鏡中	-11.7514
常於	-11.7515
於僧	-11.7516
無熱	-11.7516
前釋	-11.7518
開顯	-11.7519
無壽命	-11.7524
意云何	-11.7526
寶間錯	-11.7527
道慧	-11.7532
五逆罪	-11.7534
十六者	-11.7536
阿字門	-11.7536
其福	-11.7536
得食	-11.7538
修忍	-11.7538
據此	-11.7538
因成	-11.754
法味	-11.7542
阿耨多羅三藐三菩提故	-11.7544
遍淨天	-11.7545
夜叉眾	-11.7546
著衣	-11.7548
四辯	-11.7549
有二意	-11.7551
作眾	-11.7553
先說	-11.7553
汝等今	-11.7554
略以	-11.7557
善慧	-11.7558
亦無色	-11.7563
言何	-11.7564
彼佛如來	-11.7564
稱意	-11.7564
其所說	-11.7566
咸來	-11.7567
是有為	-11.7569
散華	-11.7571
三門	-11.7572
勝道	-11.7573
其味	-11.7573
善根成熟	-11.7574
此二種	-11.7576
樂入	-11.7577
答云	-11.7577
菩薩等	-11.7578
理性	-11.7579
自受用	-11.7579
於三世	-11.7579
色光	-11.7581
願當	-11.7583
離障	-11.7583
汝若	-11.7584
同共	-11.7586
懈怠者	-11.7586
一者菩薩摩訶薩	-11.759
諂曲心	-11.759
四聖種	-11.7591
亦欲	-11.7591
是時如來	-11.7595
永斷一切	-11.7597
矚	-11.7599
出已	-11.76
雜觀	-11.7601
坐已	-11.7602
十方諸	-11.7602
七寶池	-11.7604
凡夫地	-11.7606
至今	-11.7607
於空法	-11.761
所謂如來	-11.7611
我今說	-11.7613
而能成就	-11.7617
聞持	-11.7619
依如來藏	-11.7619
臺上	-11.762
不可動	-11.763
之觀	-11.7631
隨何等	-11.7634
蹈	-11.7636
為稱	-11.7636
佛神通	-11.7637
賢聖行	-11.7638
得立	-11.7638
無流	-11.7641
何謂三	-11.7643
但念	-11.7644
寶手菩薩	-11.7644
三障	-11.7645
有何等	-11.7648
聽我說	-11.765
淨剎	-11.7651
攝多	-11.7652
不執著	-11.7654
猶如幻	-11.7655
所謂金	-11.7656
亦復無有	-11.7657
及涅槃	-11.7657
金剛身	-11.7657
令物	-11.7659
名為如來	-11.7665
次論	-11.7665
是神	-11.7666
修多羅中說	-11.7666
諸佛各	-11.7667
濁惡	-11.7669
施福	-11.767
各復欲得	-11.7671
無根	-11.7672
往生因	-11.7673
塗身	-11.7673
不實分別	-11.7674
住信菩薩	-11.7675
非理	-11.7675
當來末世後五百歲	-11.7676
又說	-11.7676
不正作意	-11.7678
得一切法	-11.7678
持五戒	-11.7679
下根	-11.7679
多欲	-11.768
有九	-11.7681
滓	-11.7682
亦非有	-11.7682
利世間	-11.7685
一就	-11.7685
善勝天子	-11.7685
迫	-11.7686
三千大千世界所有	-11.7687
高七多羅樹	-11.7687
是人徒自疲勞	-11.7688
昵彌王	-11.7688
一切法無生	-11.7689
坦	-11.7689
如來一一如實了知	-11.769
北齊三藏那連提耶舍譯	-11.769
若有菩薩聞說	-11.769
持國轉輪聖王	-11.769
不定故	-11.769
應親近	-11.769
不異有人求	-11.7691
或生天人中	-11.7691
毗尼	-11.7691
窣堵波	-11.7692
無有一法從於	-11.7692
即詣	-11.7692
我曾	-11.7693
千葉	-11.7693
身識生時	-11.7694
一毛端	-11.7694
逮得己利	-11.7695
又神通智	-11.7695
無願解脫門	-11.7695
世而有生滅	-11.7695
被於	-11.7695
第三釋	-11.7695
某甲	-11.7695
乃以	-11.7696
休廢	-11.7696
端嚴殊特	-11.7696
天人魔梵	-11.7696
沐浴	-11.7696
為女人	-11.7697
給奉水瓶	-11.7697
竅	-11.7697
不可計無央數	-11.7697
摩拏嚩迦	-11.7697
依不求依	-11.7698
訟	-11.7698
了義經	-11.7698
賢護勝上童真	-11.7698
總略乃至	-11.7698
坐禪一心	-11.7699
湛	-11.7699
豐足	-11.7699
得薩芸若慧	-11.7699
歌詠	-11.7699
鳩槃荼	-11.7699
最為殊勝	-11.77
攝善法戒	-11.77
於諸法中得法眼淨	-11.77
羼提波羅蜜	-11.77
如是眾生於未來世當有	-11.77
竹	-11.77
盡其形壽	-11.77
助菩提法	-11.77
須彌山頂	-11.77
甘蔗	-11.7701
初生之時	-11.7701
雖聞	-11.7701
瘦	-11.7701
十大受	-11.7701
僮僕	-11.7702
詣菩提場	-11.7702
肅	-11.7703
妙法門	-11.7703
炭	-11.7703
我人眾生壽者	-11.7703
隙	-11.7703
者無有是處	-11.7704
此應具論	-11.7704
嘗	-11.7704
光世音	-11.7705
鵝	-11.7705
阿閦菩薩	-11.7705
不常	-11.7705
嚕	-11.7705
下品上生	-11.7705
薩芸若意	-11.7706
來求者	-11.7706
一切世間所不能信	-11.7706
額	-11.7706
來到	-11.7706
相似法故	-11.7707
儒童	-11.7707
慰喻	-11.7707
出火	-11.7707
貧乏	-11.7707
一來意門	-11.7708
恭敬圍遶	-11.7708
揵	-11.7708
孕	-11.7708
賈	-11.7708
處非處智力	-11.7708
十日十夜	-11.7708
非盡一切煩惱	-11.7708
阿閦菩薩摩訶薩	-11.7709
惛	-11.7709
縱任	-11.7709
除八十億劫生死之罪	-11.7709
摩訶目揵連	-11.7709
唯然受教	-11.7709
是為下結	-11.7709
瞬	-11.771
在在處處	-11.771
行滿	-11.771
穴	-11.771
說經行道	-11.771
疲苦	-11.771
人民熾盛	-11.771
什物	-11.771
無發悟	-11.771
依此法生此法	-11.771
一日乃至七日	-11.7711
盡未來際	-11.7711
而得生起	-11.7711
滌	-11.7711
密迹力士	-11.7712
如此愚人	-11.7712
受十大受	-11.7712
千輻	-11.7712
放無量光	-11.7712
十不善業道	-11.7712
香象	-11.7712
註	-11.7713
放此光明	-11.7713
鹹	-11.7713
佛說是經已	-11.7713
姦	-11.7713
摩訶曼陀羅花	-11.7714
研	-11.7714
迷醉	-11.7714
寶掌	-11.7714
杜	-11.7714
算計	-11.7715
流淚	-11.7715
觀佛身	-11.7715
大鐵圍山	-11.7715
觸緣受	-11.7716
是心是佛	-11.7716
混	-11.7716
彫	-11.7716
遐	-11.7716
七菩提分	-11.7716
器仗	-11.7716
以佛力故	-11.7717
規	-11.7717
飽	-11.7718
巷	-11.7718
妻室	-11.7718
惔怕	-11.7718
諾	-11.7718
廣分別說	-11.7719
豎	-11.7719
挍	-11.7719
暗冥	-11.7719
濡	-11.772
怨恨	-11.772
次下	-11.772
去時遲疾	-11.772
清信士	-11.7721
不可具說	-11.7721
明好	-11.7721
益作諸善	-11.7721
日子王	-11.7722
革	-11.7722
枳	-11.7722
跛	-11.7722
􂎈	-11.7722
義分	-11.7722
秤	-11.7722
演說妙法	-11.7723
恭敬圍繞	-11.7723
常住僧物	-11.7723
識棄	-11.7723
脊	-11.7723
甜	-11.7724
發如是願	-11.7724
廁	-11.7724
不請友	-11.7724
江河	-11.7725
應機	-11.7725
八聖道分	-11.7725
顛倒故	-11.7726
三種淨業	-11.7726
心心所	-11.7726
樹提	-11.7726
坐之	-11.7726
佛便	-11.7726
無量無邊阿僧祇劫	-11.7726
史	-11.7726
惶	-11.7726
退住一面	-11.7727
應供養	-11.7727
咄哉	-11.7727
鼓聲	-11.7727
犯不與取	-11.7727
面像	-11.7728
令生我剎	-11.7728
阿惟越致菩薩	-11.7728
若干百	-11.7728
映徹	-11.7729
在其中	-11.7729
𦟛	-11.7729
稱讚利益	-11.7729
往返	-11.773
生諸佛前	-11.773
摩睺勒	-11.773
憶想分別	-11.7731
於諸佛前	-11.7731
殃咎	-11.7731
突	-11.7731
必得往生	-11.7731
異分別	-11.7731
平等入解	-11.7731
究竟彼岸	-11.7732
縱使	-11.7733
用之	-11.7734
雙照	-11.7735
眼耳	-11.7735
翫	-11.7736
不可限	-11.7736
其明	-11.7736
而自莊嚴	-11.7737
無數諸佛	-11.7738
漸頓	-11.7739
迷伽	-11.7739
所歸趣	-11.774
我問	-11.774
賈人	-11.774
即有其六	-11.774
阿闍世王太子	-11.7741
無取無捨	-11.7741
方便令	-11.7742
清淨持戒	-11.7742
常安住	-11.7743
面形	-11.7743
彼佛土中	-11.7743
五百弟子	-11.7744
明告命	-11.7744
無終	-11.7744
萬境	-11.7744
譬如幻師	-11.7746
佛告勝鬘	-11.7746
十力無畏	-11.7746
相好光明	-11.7746
障蔽	-11.7746
涌出	-11.7747
甚理家	-11.7747
禪師	-11.7748
無上正等覺	-11.7749
初地已上	-11.7749
偈半	-11.775
如幻三昧	-11.7752
轉共相成	-11.7752
不能如法	-11.7752
如來出現於世	-11.7753
形服	-11.7753
未審	-11.7753
供養舍利	-11.7754
諸種	-11.7756
與授記	-11.7756
在其胞裏於母腹	-11.7756
營事	-11.7757
普攝	-11.7757
其數無量	-11.7757
於後時	-11.7757
回向	-11.7757
是諸人等	-11.7757
明十方佛	-11.7757
本識	-11.7757
能障	-11.7758
應當了知	-11.7759
後方	-11.7759
從因緣生	-11.7759
諸雜	-11.776
佛體	-11.776
意識界	-11.7761
道力	-11.7761
五苦	-11.7762
簡異	-11.7763
琉璃葉	-11.7764
閻浮利	-11.7764
終不生	-11.7765
近遠	-11.7767
攝伏	-11.7767
形狀	-11.7768
夜叉王	-11.7768
而發趣之	-11.7768
興大悲	-11.7769
尚未	-11.7769
不得邊際	-11.7769
因名	-11.7769
於佛正法	-11.777
是故諸長者	-11.777
父母不淨	-11.7771
不證涅槃	-11.7771
共住	-11.7771
若天	-11.7771
一會	-11.7772
變易死	-11.7772
經義	-11.7773
等分行	-11.7774
出妙音聲	-11.7774
不宜	-11.7775
善知方便	-11.7775
下去	-11.7775
名真	-11.7776
諸重擔	-11.7776
不驚	-11.7777
之頃	-11.7778
專一	-11.7779
是不破	-11.778
盲冥	-11.7781
普告	-11.7783
次釋第三	-11.7783
為僧	-11.7786
合譬	-11.7786
名無為	-11.7786
出家之人	-11.7788
我昔曾	-11.7789
有諸菩薩	-11.779
下明其	-11.779
而不受	-11.779
服食	-11.779
釋名門	-11.7791
諸佛國中	-11.7795
演說正法	-11.7795
於三世中	-11.7796
無業報	-11.7796
除遣	-11.7797
神通自在	-11.7799
觀時	-11.7799
從行	-11.7799
不圓	-11.7801
遊止	-11.7801
幾時	-11.7802
興世	-11.7802
盡性	-11.7802
有二種相	-11.7802
聞佛說法	-11.7803
護戒	-11.7804
能師子吼	-11.7804
犯禁戒	-11.7804
唯求	-11.7804
間斷	-11.7806
眾德本	-11.7806
因緣故有	-11.7807
為眾生說法	-11.7808
久習	-11.7808
平等覺	-11.781
無濁	-11.7811
廣辨	-11.7812
普賢如來	-11.7812
成就般若波羅蜜	-11.7815
此說是為	-11.7816
是亦如來如實	-11.7816
一時俱	-11.7817
能具	-11.7818
香貪	-11.7821
父母妻子	-11.7822
無愛	-11.7822
無學果	-11.7824
已辦	-11.7824
彼二菩薩	-11.7828
身業清淨	-11.7832
默然不答	-11.7836
墮大地獄	-11.7837
寂默	-11.7837
第二忉利天	-11.7838
次照	-11.784
滅時	-11.784
無所有處	-11.7844
在一處	-11.7846
廣大法	-11.7847
燈光	-11.7849
七寶莊嚴	-11.785
自非	-11.785
即通	-11.7852
皆悉了知	-11.7853
佛告大藥	-11.7853
生誹謗	-11.7854
所不及	-11.7855
共會	-11.7856
四取	-11.7857
諸土	-11.7858
行正行	-11.7858
去來現在	-11.7858
神通之力	-11.786
即為說法	-11.786
大患	-11.7863
略示	-11.7863
本迹	-11.7866
以偈讚佛	-11.7867
易知	-11.7868
六方諸佛	-11.7868
無有疑惑	-11.787
閻浮提內	-11.7871
現處	-11.7872
發覺	-11.7872
所變	-11.7873
去無所至	-11.7877
剎那心	-11.7878
者則有	-11.7878
既能	-11.7879
無數取	-11.788
不可知	-11.7881
白淨法	-11.7881
所放	-11.7883
其智	-11.7884
則見	-11.7884
於一切法無所	-11.7885
如是此識	-11.7887
乏少	-11.7887
阿耨多羅三藐三菩提心	-11.7887
妙理	-11.7887
為尊	-11.7889
是陀羅尼	-11.7891
一切諸有	-11.7892
恒沙等	-11.7892
惡世	-11.7893
我言	-11.7897
衣者	-11.7898
住大乘者	-11.7899
破戒者	-11.79
耳目	-11.7901
發斯	-11.7902
號釋迦牟尼	-11.7904
次合	-11.7906
出胎	-11.7907
定聚	-11.7908
因彼	-11.7908
正了知	-11.791
一切諸行	-11.791
次就	-11.7912
云何言	-11.7912
顯示一切諸法	-11.7912
閻浮提人	-11.7913
說以為	-11.7913
苦逼	-11.7913
隨法行	-11.7913
信解清淨	-11.7915
本心	-11.7917
八德	-11.7917
開為二	-11.7917
通也	-11.792
無雜亂	-11.7921
緣了	-11.7921
流轉生死	-11.7922
復受	-11.7922
無有自性	-11.7923
爾時住	-11.7925
實觀	-11.7928
欲聽法	-11.7929
淨相	-11.7929
然燈如來	-11.7931
所請	-11.7931
自悔過	-11.7934
我剎中	-11.7935
淨無垢	-11.7939
令起	-11.7939
前問	-11.7939
不復現	-11.794
苾芻僧	-11.794
之方	-11.7941
此經名為	-11.7941
攝受眾生	-11.7943
令歡喜	-11.7944
天親	-11.7945
至道	-11.7947
先後	-11.7948
異報	-11.7949
以前	-11.795
無惱	-11.7952
曾於	-11.7952
眾生生者	-11.7954
除罪	-11.7958
亂意	-11.7958
佛在世	-11.7958
顯照	-11.7959
佛說大	-11.7959
一光中	-11.796
知耶	-11.7961
於諸見	-11.7961
真實故	-11.7963
行四攝法	-11.7967
悉除	-11.7967
於善友	-11.7967
其父	-11.797
食飲	-11.797
無愛著	-11.7971
歸一乘	-11.7973
是則無	-11.7974
隨世	-11.7974
所信	-11.7976
爾時世尊為	-11.7978
是佛境界	-11.798
十七種	-11.7981
若有女人	-11.7982
定中	-11.7984
請已	-11.7985
散善	-11.7985
現形	-11.7988
真實智	-11.7992
無量德	-11.7996
得為人	-11.7996
受化	-11.7996
歡喜地	-11.7997
至如來所	-11.7999
四王	-11.7999
之恩	-11.8
初生時	-11.8
隨信	-11.8003
現作	-11.8005
善得	-11.8005
迦花	-11.8006
離塵垢	-11.8006
對於	-11.8006
此等眾生	-11.8009
無解	-11.8009
遍於	-11.8009
我先	-11.8012
釋題	-11.8014
慧日	-11.8015
皆爾	-11.8017
不復生	-11.8018
和悅	-11.8018
若斷	-11.8019
白毫	-11.802
亦自	-11.802
要由	-11.8021
非境界	-11.8023
寂滅法	-11.8027
汝等當	-11.8028
諸惡行	-11.803
修菩薩行者	-11.8032
若於諸法	-11.8032
無得無	-11.8032
諸禪	-11.8033
勿復	-11.8035
愚癡之人	-11.8035
行步	-11.8035
諸伎樂	-11.8036
自安	-11.8037
能出生	-11.8039
亦達	-11.804
與諸眾生	-11.804
粗見	-11.8041
緊那羅王汝	-11.8044
斯言	-11.8044
頂生	-11.8045
國土莊嚴	-11.8046
離我	-11.8048
世間一切眾生	-11.8049
即教	-11.8051
能覺了	-11.8055
廣度	-11.8056
我於此	-11.8059
我教	-11.8062
百五十	-11.8064
一切諸法悉	-11.8064
王四天下	-11.8064
火焰	-11.8065
須摩提報	-11.8065
真如法	-11.8069
不爾者	-11.807
若干千	-11.8071
隨風	-11.8072
不能及	-11.8078
所受用	-11.8084
光明無量	-11.8086
死已	-11.8088
如子	-11.8097
色力	-11.8097
修精進	-11.8098
第二結	-11.8099
自要	-11.81
得利養	-11.8101
見王	-11.8101
具修	-11.8102
恒沙佛法	-11.8102
所謂菩薩摩訶薩	-11.8105
為護	-11.8105
身口心	-11.8105
名色因緣	-11.8109
從緣生	-11.8111
無命者	-11.8116
王家	-11.8117
不可思議無量	-11.8118
大功德	-11.812
為當	-11.812
亦須	-11.8125
無邊法	-11.8126
在生死	-11.8127
如是法者	-11.8128
自手	-11.8129
拘胝歲	-11.8129
諸乘	-11.813
百里	-11.813
隨其所樂	-11.8131
煩惱盡	-11.8132
第二別	-11.8134
即菩提	-11.8137
而可得	-11.8137
我身是也	-11.8138
勸生	-11.8138
由內	-11.8144
彼名	-11.8144
重復	-11.8145
既聞	-11.8146
床臥	-11.8148
樂果	-11.8149
但就	-11.815
出水	-11.8151
於大菩提	-11.8151
總以	-11.8151
通論	-11.8154
金輪	-11.8154
大動	-11.8156
菩薩摩訶薩成就	-11.8156
今勝鬘	-11.8162
大宗	-11.8164
淨土因果	-11.8167
第二辨	-11.8168
非未來	-11.817
無所依止	-11.8174
學問	-11.8178
因業	-11.8181
菩薩有四種	-11.8183
勝義法	-11.8183
汝信	-11.8183
無真實	-11.8184
能知一切	-11.8184
非定	-11.8185
菩薩之行	-11.8186
勝鬘白佛言	-11.8187
知解	-11.8187
獲果	-11.8187
不生疑惑	-11.8187
忍辱行	-11.819
我今當往	-11.8194
頭面禮	-11.8196
度脫眾生	-11.8196
能護	-11.8198
又作	-11.8198
何物	-11.82
無量清淨佛所	-11.8202
好惡	-11.8202
乃如是	-11.8202
車𤦲為	-11.8204
八曰	-11.8205
不可見故	-11.8206
初明佛	-11.8207
彼則無	-11.8208
佛種	-11.8208
勸物	-11.8209
立意	-11.821
安樂行	-11.8212
有何意	-11.8212
無常想	-11.8214
彼佛告	-11.8216
菩薩摩訶薩安住	-11.8216
之妙	-11.8218
恣意	-11.8219
當於何	-11.822
卷第七十	-11.8221
請法	-11.8222
不勤修	-11.8224
隨事	-11.8224
或入	-11.8227
深妙法	-11.8231
現在諸佛	-11.8232
等色	-11.8232
初偈	-11.8232
諸所作	-11.8234
述曰明	-11.8234
答女	-11.8235
窮盡	-11.8236
生極樂世界	-11.8237
離諸分別	-11.8238
皆歸	-11.8238
以法施	-11.824
無畏者	-11.824
自性不可得	-11.8241
又其	-11.8241
歎言	-11.8241
▁時	-11.8241
智慧光	-11.8244
大品云	-11.8244
行六波羅蜜	-11.8245
汝知	-11.8246
法船	-11.8248
應當知	-11.8251
悉無所有	-11.8252
功德無量	-11.8254
明一乘	-11.8254
如來法	-11.8257
最勝法	-11.8258
上菩提	-11.8262
得阿羅漢果	-11.8262
光明遍照	-11.8262
念彼	-11.8263
即往	-11.8263
身力	-11.8264
成熟一切眾生	-11.8273
有大光明	-11.8273
其諸菩薩	-11.8278
常為眾生	-11.8279
之初	-11.828
迭	-11.8282
無量阿僧祇劫	-11.8284
故前明	-11.8285
益眾生	-11.8286
蒙光	-11.8287
小乘人	-11.8287
堅心	-11.8293
五品	-11.8295
除障	-11.8295
乃生	-11.8296
於此身	-11.8296
引證	-11.8296
非義	-11.8297
無造作	-11.8301
業惑	-11.8307
涯	-11.8307
何故偏	-11.8307
如影	-11.8309
自往	-11.8315
義竟	-11.8316
大智者	-11.8319
二正明	-11.832
尊上	-11.832
次一	-11.8325
細分	-11.8327
無所知	-11.8328
廣大智	-11.8331
生其中	-11.8332
雜香	-11.8332
亦無邊	-11.8333
愛法	-11.8334
堪為	-11.8335
俱空	-11.8337
彼諸有情	-11.8337
不遷	-11.8338
見佛世尊	-11.8339
喜根	-11.834
不久當	-11.8342
後兩	-11.8343
命終後	-11.8346
了知一切法	-11.8348
照世間	-11.8348
無量百千億那由他	-11.8349
蠅	-11.8349
不加	-11.8349
求大菩提	-11.8353
聽眾	-11.8356
功德無邊	-11.8358
大慈悲心	-11.8358
故成	-11.8359
離垢施女	-11.8363
如蓮華	-11.8365
初會	-11.8366
不應起	-11.8367
色陰	-11.8368
不生分別	-11.8369
決定當得	-11.8372
表了	-11.8372
僧伽	-11.8374
知友	-11.8374
無令	-11.8375
而獲	-11.8375
亦無所有	-11.838
肯	-11.8383
猶如日	-11.8384
起大慈心	-11.8386
當往生無量清淨佛國	-11.8386
難作	-11.8387
宗也	-11.8388
踰於	-11.8389
最上清淨	-11.8391
自取	-11.8392
入無餘	-11.8394
所依止	-11.8395
清風	-11.8395
發心為	-11.8396
業因緣	-11.8397
無根本	-11.8397
畏懼	-11.8398
彌樓	-11.84
魔怨	-11.8403
諸人眾	-11.8403
諸神通	-11.8406
居處	-11.8407
經首	-11.8407
王太子	-11.8409
生貪著	-11.8409
授記已	-11.8412
神我	-11.8413
為汝說	-11.8416
共相應	-11.8419
非眾生	-11.842
四正斷	-11.8423
眾生空	-11.8425
一乘道	-11.8426
九十六	-11.8429
一切諸世間	-11.843
腹中	-11.843
以讚於	-11.8432
所侵	-11.8433
大安樂	-11.8434
如金色	-11.8435
得初果	-11.8436
般若波羅蜜多故	-11.8437
別觀	-11.8442
心一境性	-11.8444
雲集	-11.8444
紫磨金	-11.8444
我從今日至	-11.8446
如是之法	-11.8448
菩薩摩訶薩修行靜慮波羅蜜多故	-11.8448
非愚	-11.8449
於後末世五百歲中	-11.8449
體一	-11.8449
速能證得阿耨多羅三藐三菩提	-11.845
神境通	-11.845
為諸菩薩說	-11.8451
亦無受者	-11.8451
風起	-11.8452
菩薩摩訶薩行於方便	-11.8453
廣興供養	-11.8454
無種種想	-11.8455
能作難作	-11.8456
如我解佛所說義	-11.8458
聞是聲已	-11.8459
未生怨	-11.8459
不苦不樂	-11.846
於後末世五百歲時	-11.846
彼人若言	-11.846
摧過咎	-11.8461
專修義利	-11.8461
純一無雜	-11.8461
此有情根性以	-11.8461
同然	-11.8462
自分業報	-11.8462
轉正法輪	-11.8462
十二部經	-11.8463
終不忘失	-11.8464
中品中生	-11.8464
於諸契經	-11.8464
生後利益	-11.8464
智業圓滿	-11.8465
聞授記已	-11.8465
蔡	-11.8465
玩	-11.8465
是見初地	-11.8465
別示	-11.8466
目不暫捨	-11.8467
支謙	-11.8467
乃至命難	-11.8467
七明	-11.8467
醜惡	-11.8467
蠕動之類	-11.8468
十方無央數世界	-11.8468
寢	-11.8468
毛道凡夫	-11.8468
願垂	-11.8468
乃至誰能染	-11.8468
有罪無罪	-11.8469
魔王波旬	-11.8469
毘舍	-11.847
我發是	-11.847
廣也	-11.847
總而言之	-11.847
之機	-11.847
明亮	-11.8471
經一	-11.8471
此輩	-11.8471
法王子	-11.8471
帛謙	-11.8471
作法苾芻	-11.8472
甚希奇法	-11.8472
穢污	-11.8472
無量無邊阿僧祇	-11.8472
剛	-11.8472
幽閉	-11.8473
臘	-11.8473
分陀利花	-11.8473
師子步雷音菩薩	-11.8473
童男童女	-11.8473
鉢底	-11.8473
喃	-11.8473
無明緣行	-11.8473
跪	-11.8473
經曰佛告阿難至	-11.8474
演說法時	-11.8474
我佛剎中	-11.8474
屈伸	-11.8474
而恒	-11.8474
後總結	-11.8474
色相端嚴	-11.8475
一向記說	-11.8475
前起後	-11.8476
運載	-11.8476
冤家	-11.8476
羸弱	-11.8476
禪定波羅蜜多	-11.8476
隨其意樂	-11.8476
微細難知	-11.8476
名足迹	-11.8476
苦等	-11.8476
愛子	-11.8476
捧	-11.8476
自上已來	-11.8477
如鏡中像	-11.8477
剃鬚髮	-11.8477
時淨無垢寶月王光菩薩摩訶薩	-11.8478
行緣識	-11.8478
而嚴飾之	-11.8478
少病少惱	-11.8478
悴	-11.8478
不可觀	-11.8478
鄣	-11.8478
取緣有	-11.8478
珍玩	-11.8478
阿僧企耶劫	-11.8479
戰勝	-11.8479
忌	-11.8479
占	-11.8479
他化自在諸天	-11.8479
從空而來	-11.8479
沮壞	-11.8479
牛跡	-11.8479
坐起	-11.848
無有少法可得	-11.848
金剛步	-11.848
八苦	-11.848
信重	-11.848
顏貌	-11.8481
一時佛在王舍城耆闍崛山	-11.8482
兩種	-11.8482
瞋恚心	-11.8482
如是出現光	-11.8482
承佛聖旨	-11.8482
墨	-11.8483
悲泣	-11.8483
瞻覩	-11.8483
熏習	-11.8483
現此微笑	-11.8484
鈎	-11.8484
瞻視	-11.8484
空義隱覆真實	-11.8484
相應不相應	-11.8484
無憂惱	-11.8484
震吼	-11.8484
愛作菩薩	-11.8485
沾	-11.8485
微薄	-11.8485
復更思惟	-11.8485
自性明亮	-11.8485
又一解	-11.8486
降伏魔軍	-11.8486
姊妹	-11.8486
迦留陀夷	-11.8486
此說名智	-11.8486
啼哭	-11.8486
纓	-11.8486
那羅延力	-11.8486
聲香味觸法	-11.8487
百千萬倍	-11.8487
生信心	-11.8487
到於	-11.8487
壞敗	-11.8487
叫	-11.8487
深信因果	-11.8488
迴小入大	-11.8488
法能障聖道	-11.8488
唯然大聖	-11.8488
紅蓮	-11.8488
淨名云	-11.8488
梯	-11.8488
現成正覺	-11.8488
無量辯才	-11.8488
毘耶娑仙	-11.8488
頭痛	-11.8488
柔順忍	-11.8489
隨所聞法	-11.8489
川	-11.8489
綜	-11.8489
即為聽聞	-11.849
將明	-11.849
躡	-11.849
如理觀察	-11.8491
聲聞辟支佛地	-11.8491
無為界	-11.8491
如向	-11.8491
薗	-11.8491
倉	-11.8491
國貧須賴	-11.8491
戴	-11.8491
芻	-11.8492
校飾	-11.8492
久修梵行	-11.8492
爾時彌勒菩薩摩訶薩	-11.8492
一心三觀	-11.8493
鉢那	-11.8493
無反復	-11.8493
細軟	-11.8493
耕	-11.8493
脾	-11.8494
揣	-11.8494
圓融	-11.8494
衍	-11.8494
受想行識亦復如是	-11.8494
笛	-11.8494
表裏	-11.8494
鎮	-11.8494
林公	-11.8495
空無相願	-11.8495
螢火	-11.8495
阿彌陀國	-11.8496
兩肩	-11.8496
西域	-11.8496
惚	-11.8496
驚怪	-11.8497
第四段中	-11.8497
受持讀誦通利	-11.8497
復有三昧名	-11.8497
皆各	-11.8497
不許	-11.8497
無形質	-11.8498
八十里	-11.8498
名為淨	-11.8498
普攝一切	-11.8498
愛緣取	-11.8499
痛哉	-11.8499
孫陀羅	-11.8499
晨	-11.8499
諸行無常	-11.85
頭頂	-11.8501
依附	-11.8501
不失所願	-11.8501
恚恨	-11.8501
生大怖畏	-11.8503
稍稍	-11.8503
无量	-11.8503
鞭	-11.8503
深淺	-11.8503
寶篋	-11.8503
無問自說	-11.8504
大山	-11.8504
為大醫王	-11.8504
應當捨離	-11.8504
貨	-11.8504
別時意	-11.8505
王應當信	-11.8505
底沙	-11.8505
遍治	-11.8505
畜養	-11.8506
遷化	-11.8506
富有	-11.8506
汝豈不	-11.8507
數中	-11.8507
過去未來	-11.8507
七重行樹	-11.8508
思擇	-11.8508
懈廢	-11.8508
懃苦	-11.8508
無感	-11.8509
死苦	-11.8509
釋論云	-11.8509
此山	-11.851
小兒	-11.8511
以四攝法	-11.8511
積習	-11.8511
正法滅時	-11.8513
無依世間	-11.8513
鹿王	-11.8513
五百人復	-11.8514
增損	-11.8514
雲聚	-11.8514
易悟	-11.8515
聲聞等	-11.8515
復於虛空中	-11.8517
我當為彼	-11.8517
珠瓔	-11.8518
歡喜信受	-11.8518
應學如是	-11.8519
第五從	-11.8519
不生愛著	-11.8521
親近承事諸	-11.8521
作功德	-11.8522
捨離一切	-11.8522
三昧正受	-11.8523
令其永斷	-11.8523
內於母腹	-11.8524
踊身	-11.8524
語文殊師利童子	-11.8524
是經法	-11.8526
皆是阿羅漢	-11.8526
若有淨信	-11.8528
未曾有法	-11.8529
恒沙煩惱	-11.8529
小乘法	-11.853
香味	-11.853
四洲	-11.8531
行作沙門	-11.8531
十方諸佛世界	-11.8532
亦同然	-11.8532
有為界	-11.8532
得四智	-11.8532
乃至十念	-11.8534
江河沙等	-11.8535
清水	-11.8535
亦不可盡	-11.8535
宗親	-11.8535
戲處	-11.8536
四攝法	-11.8536
後廣	-11.8538
周圍	-11.8538
發弘誓	-11.8539
永劫	-11.8539
塔寺	-11.854
阿迦	-11.854
五音	-11.854
十善業	-11.8541
得菩提時	-11.8541
難化	-11.8542
時大目連	-11.8542
登地	-11.8544
菩提之道	-11.8544
寶臺	-11.8545
菩薩之人	-11.8546
鮮明	-11.8546
散失	-11.8547
猶如有人	-11.8548
過去曾	-11.8549
根莖	-11.855
如法修行	-11.855
為救護	-11.855
愛樂正法	-11.8554
修菩薩行時	-11.8554
六波羅蜜多	-11.8555
珍妙	-11.8555
若了眼	-11.8555
施我	-11.8557
世尊如來藏者	-11.8557
造罪業	-11.8558
是心作佛	-11.8558
為何所	-11.8559
說是言	-11.8559
有佛名曰	-11.856
釋經文	-11.856
離故	-11.8561
幾許	-11.8561
遍告	-11.8562
雷音	-11.8562
觀像	-11.8563
無上乘	-11.8564
世尊告曰	-11.8564
被縛	-11.8567
四無量心	-11.8567
道成	-11.8569
聲聞道	-11.857
饒益事	-11.8571
是相已	-11.8573
馬師	-11.8574
昔時	-11.8575
菩薩得菩提時	-11.8576
佛告富樓那	-11.8577
行菩薩行時	-11.8577
安靜	-11.8578
暴惡	-11.8579
先解	-11.858
如前所說	-11.858
傳化	-11.8582
乞人	-11.8582
曾於過去	-11.8583
獲證	-11.8583
愚惑	-11.8584
即觀	-11.8585
辯說	-11.8586
畜財	-11.8587
妬心	-11.8591
於佛世尊	-11.8592
亦不作非	-11.8593
牧牛	-11.8595
大乘法中	-11.8596
記已	-11.8596
須觀	-11.8596
威施	-11.8596
勸持	-11.86
際門	-11.86
為欲調伏	-11.86
緣覺聲聞	-11.8601
非凡	-11.8602
唐言	-11.8603
眾寶莊嚴	-11.8605
但求	-11.8605
一切人眾	-11.8607
一代	-11.8608
不思議功德	-11.8609
初歎	-11.8609
悉具足	-11.8611
淨色	-11.8612
惡欲	-11.8613
不起分別	-11.8613
如法華云	-11.8613
止惡	-11.8615
拔除	-11.8615
五色光	-11.8616
菩薩摩訶薩修行般若波羅蜜多故	-11.8616
此菩薩見第	-11.8616
為弟子	-11.8617
於佛法僧	-11.8617
不堅牢	-11.8617
依持	-11.8617
降雨	-11.8621
自投	-11.8622
十二入	-11.8622
生欲心	-11.8623
遵修	-11.8623
不容受	-11.8625
一題	-11.8625
非不相應	-11.8625
一乘中	-11.8626
我實不	-11.8628
金色身	-11.8631
已竟	-11.8633
於利養	-11.8634
未熟	-11.8635
次別	-11.8635
持其名者離	-11.8635
卷中	-11.8636
斷結	-11.8636
皆悉遠離	-11.8639
水精樹	-11.8639
於我前	-11.8639
甚深忍	-11.8641
受天	-11.8642
會二乘	-11.8643
不能作	-11.8643
廣大心	-11.8645
所捨	-11.8645
言不轉	-11.8645
求哀	-11.8646
戒禁	-11.8646
欲詣	-11.8646
度脫一切	-11.8647
名法身	-11.8647
爾時力	-11.8648
離越	-11.8651
勸他	-11.8651
法會	-11.8651
諸佛法故	-11.8655
如所應	-11.8656
隨滅	-11.8656
略歎	-11.8656
誠如	-11.8656
願尊	-11.8656
往昔曾	-11.8658
不遇	-11.8658
天下人	-11.8658
之食	-11.8659
鐵丸	-11.866
皆不退轉	-11.8661
精進波羅蜜	-11.8661
投之	-11.8661
是比丘	-11.8661
壽命長遠	-11.8662
聽聞法	-11.8664
歸伏	-11.8665
佛及諸菩薩	-11.8666
一切諸法皆悉	-11.8666
神足力	-11.8667
為最勝	-11.8668
族姓	-11.8668
非天	-11.867
通利	-11.867
如是大乘	-11.8674
能遍知	-11.8674
華座觀	-11.8674
意止	-11.8674
不怯	-11.8675
無量法門	-11.8676
必生	-11.868
識境界	-11.868
高慢	-11.8682
惡色	-11.8683
非善知識	-11.8686
得言菩薩	-11.8686
是名正見	-11.8687
往其所	-11.869
巍巍如是	-11.8692
遍滿十方	-11.8692
倒見	-11.8693
不免	-11.8693
終成	-11.8694
染惡	-11.8695
真實觀	-11.8698
純一	-11.8698
外有	-11.8699
義不同	-11.8702
身密	-11.8702
義成	-11.8702
何以不	-11.8703
未解	-11.8704
之情	-11.8705
百二十萬	-11.8706
不變異	-11.8707
爾時世尊知諸	-11.8709
是名第三	-11.8709
吾身	-11.8709
殊勝行	-11.871
一切諸善根	-11.871
實體	-11.8711
廣開	-11.8711
上根	-11.8712
讚歎如來	-11.8715
今約	-11.8715
不動菩薩	-11.8715
明大乘	-11.8716
之流	-11.8718
如是施者	-11.8718
相師	-11.872
如來亦復如是	-11.8721
年少	-11.8721
佛答	-11.8722
乃見	-11.8723
行正法	-11.8724
審如是	-11.8729
能信受	-11.8729
歸依處	-11.873
天童子	-11.8733
觀竟	-11.8733
執著我	-11.8734
斷命	-11.8735
非虛妄	-11.8735
正坐	-11.8735
復以種種	-11.8736
痛惱	-11.8738
五十三	-11.8743
通則	-11.8743
諦者	-11.8744
坐其上	-11.8744
不染著	-11.8745
如是等事	-11.8745
所存	-11.8751
睡眠過	-11.8751
時王舍城	-11.8756
深著	-11.8757
勤力	-11.8757
諸塵	-11.8758
捨物	-11.8762
真佛子	-11.8764
猶在	-11.8764
前章	-11.8764
是一乘	-11.8767
終盡	-11.8768
如是觀已	-11.8768
似沙門	-11.8769
近善知識	-11.877
無瑕穢	-11.877
諸有情等	-11.8772
欲覺	-11.8774
圓觀	-11.8775
為度眾生	-11.8777
令安	-11.878
生嫉妬	-11.8781
無迷惑	-11.8783
無邊世界	-11.8784
又舍利弗	-11.8784
隨法	-11.8785
斯經典	-11.8787
無諛諂	-11.8787
世導師	-11.8789
攝律儀	-11.8789
寂滅故	-11.879
諸法無我	-11.879
入滅	-11.8798
正見者	-11.8798
不復見	-11.8799
宣說妙法	-11.8799
四十九	-11.88
當知菩薩摩訶薩	-11.8803
歸依法僧	-11.8803
是虛妄	-11.8804
無量有情	-11.8804
善所行	-11.8805
意願	-11.8805
無生法	-11.8806
四者菩薩摩訶薩	-11.8807
獲安樂	-11.8809
大人相	-11.8809
他受用	-11.8815
疑謗	-11.8816
心口	-11.8819
不退轉菩薩	-11.8824
萬人俱	-11.8824
能安住	-11.8828
華悉	-11.8829
慧聚	-11.883
所說義	-11.883
向菩提	-11.883
應離	-11.8832
及蜎飛蠕動之類	-11.8833
爾時世尊知彼	-11.8833
利有情	-11.8836
不信受	-11.8838
一物	-11.884
眷屬自得	-11.8841
不信者	-11.8842
當持	-11.8844
六觀	-11.8845
事應知	-11.8848
當來世	-11.885
精進勇猛	-11.8851
聞甚深法	-11.8852
行蘊	-11.8852
但用	-11.8853
無恚	-11.8853
善導	-11.8855
無補特伽羅	-11.8857
奉敬	-11.8857
至誠心	-11.8859
應當發起	-11.886
道業	-11.886
寶成	-11.8862
正出	-11.8865
仁慈	-11.8866
無生死	-11.8866
云何名為如來	-11.8866
勝天	-11.8867
悉共	-11.8867
不放逸行	-11.8868
當墮地獄	-11.8869
心亂	-11.887
復由	-11.887
有情界	-11.8873
豈是	-11.8876
未起	-11.8876
之所成就	-11.888
十八者	-11.8882
後合	-11.8883
毘陀	-11.8885
為好	-11.8885
如來神力	-11.8889
悔心	-11.889
別行	-11.8891
能攝取	-11.8893
獨行	-11.8893
最下	-11.8893
德勝	-11.8893
世出世	-11.8894
所收	-11.8896
聞是言	-11.8898
上來雖有十	-11.8898
或有人	-11.8899
常存	-11.89
清淨佛土	-11.8901
隨別	-11.8904
千六百	-11.8905
如是陀羅尼	-11.8908
次列	-11.8908
有六十	-11.891
之末	-11.891
如來決定	-11.8911
共集會	-11.8911
九萬	-11.8913
自調伏	-11.8914
國邑	-11.8916
善念	-11.8916
滅因	-11.8919
是名為慧	-11.8919
死人	-11.892
無有差別	-11.892
通慧	-11.8922
無希望	-11.8922
韋提白佛	-11.8922
種種差別	-11.8925
無所去	-11.8925
光顯	-11.8926
當速	-11.8928
恚癡	-11.8928
慧光	-11.8929
彰已	-11.893
現在真如	-11.8933
乾枯	-11.8933
無畏德	-11.8934
四界	-11.8935
審實	-11.8937
悉具	-11.8939
何處有	-11.894
未受	-11.8941
百二十	-11.8944
發行	-11.8952
斷善根	-11.8954
能滿	-11.8954
無上菩提道	-11.8955
唯取	-11.8958
大千世界	-11.896
於多聞	-11.8961
但隨	-11.8961
能奉行	-11.8962
貪法	-11.8962
瓔	-11.8964
分真	-11.8965
無我所	-11.8966
林間	-11.8968
風種	-11.8969
不止	-11.8973
性成	-11.8974
造惡業	-11.8975
方可	-11.8976
摩那	-11.8978
可盡	-11.898
恒沙諸佛	-11.8982
若遇	-11.8982
出家心	-11.8984
漸增	-11.8985
一切外道	-11.8985
當問	-11.8985
觸法	-11.8985
復難	-11.8987
餘皆	-11.8989
人俱	-11.8989
欲界中	-11.899
緊那羅王	-11.8991
故名為佛	-11.8994
無有極	-11.8994
德號	-11.8994
三乘人	-11.8998
所覩	-11.8998
勤修精進	-11.9001
自性無所有	-11.9001
佛界	-11.9003
作如是知	-11.9003
所惱	-11.9004
所有物	-11.901
無依無	-11.901
隨彼所	-11.9011
故偏說	-11.9017
人民及蜎飛蠕動之類	-11.9018
愛滅	-11.9021
諸佛同	-11.9021
覆其上	-11.9021
廣施	-11.9026
我所求	-11.9026
以證	-11.9026
智光明	-11.9027
亦言	-11.9031
惑盡	-11.9035
佛聲	-11.9038
略標	-11.9039
乃至識亦無	-11.9039
千倍	-11.9041
為利一切	-11.9041
增上心	-11.9043
不明了	-11.9045
菩薩摩訶薩善巧方便	-11.9045
皆如實知	-11.9047
授阿耨多羅三藐三菩提記	-11.9048
故須辨	-11.9049
加護	-11.905
一切法門	-11.9051
覆心	-11.9053
答無垢施女	-11.9054
智體	-11.9055
迦葉白佛言	-11.9058
是女	-11.9058
能轉	-11.9059
如釋迦	-11.9062
得道者	-11.9063
專求	-11.9066
滅度後	-11.9067
寶鬘	-11.9071
不可宣說	-11.9071
遂即	-11.9072
無受者	-11.9073
師教	-11.9074
我亦當	-11.9076
故名極樂	-11.9077
三慧	-11.908
實語者	-11.9081
禮足	-11.9084
妄說	-11.9089
修習如是	-11.9092
經論中	-11.9096
之果也	-11.9096
求欲	-11.9096
於一切智	-11.9096
五百年	-11.9103
熏修	-11.9103
無垢光	-11.9104
真實見	-11.9104
結云	-11.9105
自下次明	-11.9106
得記	-11.9107
我證菩提	-11.9113
寂靜行	-11.9114
為煩惱所	-11.9116
不慢	-11.9116
出定	-11.9116
自境界	-11.9122
魔及魔	-11.9123
禪定解脫	-11.9123
同居淨土	-11.9123
念之	-11.9127
性地	-11.9127
調適	-11.9128
欲出家	-11.9128
三衣	-11.9129
生彼佛剎	-11.913
下品人	-11.9131
幻事	-11.9132
無所取故	-11.9134
不信有	-11.9138
亂風吹萎華	-11.9139
今身	-11.9139
為調伏	-11.9141
聖性	-11.9142
聖明	-11.9144
無女人	-11.9144
大國	-11.9146
能示	-11.9146
不妨	-11.9148
□□	-11.9148
二乘智	-11.915
諸欲樂	-11.9151
自高	-11.9153
垢濁	-11.9154
彰其所	-11.9159
無害	-11.916
云何修行	-11.9161
滅無餘	-11.9161
一一相	-11.9162
作罪	-11.9165
以大慈悲	-11.9165
二譬	-11.9167
不退菩薩	-11.9169
二乘未	-11.9169
直言	-11.917
應了知	-11.9172
諸神	-11.9173
無漏慧	-11.9174
但使	-11.9175
發心已	-11.9176
能為眾生	-11.9176
瑜伽	-11.9177
不望	-11.9179
受持此經	-11.918
慈念	-11.9181
藥師	-11.9181
非現在	-11.9182
常持	-11.9183
若生若滅	-11.9183
自利行	-11.9186
名之為空	-11.9188
常遠離	-11.9189
如來德	-11.9189
破煩惱	-11.919
無來去	-11.9193
吉安	-11.9194
此所獲福	-11.9194
得致	-11.9196
三乘之	-11.9197
無加行	-11.9197
福焰王子	-11.92
正聞	-11.9202
如是稱讚	-11.9203
悉來	-11.9204
來生我國	-11.9206
趣求	-11.9206
今顯	-11.921
亦復非	-11.9212
理趣善巧	-11.9212
持故	-11.9214
令解脫	-11.9215
是修般若波羅蜜	-11.9215
一剎那	-11.9216
缺漏	-11.9216
出生死	-11.9218
維摩	-11.9219
二乘果	-11.9221
無不盡	-11.9223
在王舍城	-11.9224
今作	-11.9225
勝意樂	-11.9227
三者菩薩摩訶薩	-11.9229
牛羊	-11.9231
栴	-11.9234
柔軟心	-11.9235
相稱	-11.9235
煮	-11.9237
忉利天上	-11.9237
寶髻菩薩	-11.9238
失壞	-11.9239
狀如	-11.9239
詣道場	-11.924
昔行菩薩道時	-11.9241
欲貪	-11.9244
過去久遠	-11.9245
求於菩提	-11.9245
及菩提	-11.9247
大地獄中	-11.9247
愍世間	-11.9249
篤	-11.925
十方一切諸佛	-11.9252
奇異	-11.9254
釋經	-11.9255
獨佛	-11.9256
親近承事	-11.9257
佛薄伽梵	-11.9257
不聞法	-11.9258
又於千歲	-11.926
慰問	-11.926
染義	-11.926
力大	-11.926
二者菩薩摩訶薩	-11.926
蘭	-11.926
緣覺境界	-11.9263
與聲聞	-11.9265
於大海	-11.9267
觀照	-11.9268
皆在虛空中下向	-11.9268
無上覺	-11.9269
觀四諦	-11.927
四依智	-11.9271
十萬里華	-11.9272
瑕	-11.9273
著身	-11.9274
眾尊王菩薩	-11.9274
計之	-11.9274
天耳性	-11.9277
幻偽	-11.9278
不疲惓者	-11.9281
如實知一切法自體相	-11.9283
陀摩尸利	-11.9284
樂邦	-11.9285
文別有三	-11.9286
住立佛前	-11.9287
來應	-11.9287
祕要	-11.9288
師子遊戲金光王如來	-11.9288
慼	-11.9289
非我非我所	-11.9291
第四段	-11.9291
都不可復計	-11.9291
過現未來	-11.9293
天龍鬼神	-11.9293
此菩薩是六地	-11.9294
聞我名已	-11.9294
中品下生	-11.9294
彼風	-11.9294
不可思議佛土功德一切諸佛攝受法門	-11.9294
▁【	-11.9295
是人見已心生	-11.9295
我來迎汝	-11.9295
作供養事	-11.9295
初夜後夜	-11.9295
各各皆乘	-11.9296
若有欲求如來	-11.9296
身威儀	-11.9296
極樂世界淨佛土	-11.9296
循環	-11.9296
景	-11.9296
了知業轉無有作者	-11.9297
廣長舌相	-11.9297
被精進鎧	-11.9297
寶髻	-11.9297
儒	-11.9298
甫當生者	-11.9298
皆應信受	-11.9298
疲懈	-11.9298
是德號法經	-11.9298
猶如夢覺	-11.9299
若行若住若坐若臥	-11.9299
濟拔	-11.9299
惡緣	-11.93
和上阿闍梨	-11.93
令我國中諸菩薩	-11.93
矯	-11.93
妄想見故	-11.93
憂悔	-11.9301
【【	-11.9301
六種振動	-11.9301
具足成就不	-11.9301
是聖人表式	-11.9302
若有菩薩於多聞所	-11.9302
擾亂	-11.9302
攝眾生戒	-11.9302
爾時世尊為馬勝比丘說伽	-11.9302
於七日中	-11.9303
貪恚愚癡	-11.9303
有四戶蟲	-11.9303
巡	-11.9303
東方去此	-11.9303
鳩盤茶	-11.9303
汝同於梵行	-11.9303
惓	-11.9304
亦異	-11.9304
古人	-11.9304
七日七夜	-11.9304
本際不可知	-11.9304
盡智無生智	-11.9304
釋氏	-11.9304
轉大法輪	-11.9304
即自然在前	-11.9305
製	-11.9305
弗婆提	-11.9306
真如來身名	-11.9306
巧便	-11.9306
西方極樂世界	-11.9306
自稱我處大仙尊位	-11.9306
既到彼已	-11.9306
降伏魔怨	-11.9306
貴賤	-11.9306
非有想非無想	-11.9306
惶怖	-11.9306
下品中生	-11.9306
善淨	-11.9307
▁175	-11.9307
去涅槃界遠	-11.9307
娑婆世界主大梵天王	-11.9307
二木	-11.9307
受諸快樂	-11.9307
滿中七寶	-11.9307
牒前起後	-11.9307
聾盲	-11.9308
無增無減	-11.9308
剪	-11.9308
深坑	-11.9308
壓	-11.9309
從佛口生	-11.9309
金翅	-11.9309
執杖	-11.9309
六種動	-11.9309
昔所未	-11.9309
如說而行	-11.9309
晃曜	-11.9309
女人及根缺	-11.9309
郁迦長者	-11.9309
阿若憍陳如	-11.9309
毛竪	-11.9309
讒	-11.9309
貪欲瞋恚愚癡	-11.931
秉	-11.931
本義云	-11.931
緊	-11.931
日月光明	-11.9311
言何以故至	-11.9311
魔不能得其便	-11.9311
六十二見	-11.9311
識緣名色	-11.9311
阿㝹樓馱	-11.9311
天台	-11.9311
塊	-11.9311
滅時亦空	-11.9312
疊	-11.9312
利樂諸有情	-11.9312
四寶所成	-11.9312
涕	-11.9312
怖懼	-11.9312
為法根本	-11.9312
師和上	-11.9312
數取者	-11.9313
所作巳辦	-11.9313
起如是心	-11.9313
新發意菩薩	-11.9313
善業道	-11.9313
號哭	-11.9313
貿易	-11.9313
踈	-11.9313
無所從生法忍	-11.9314
勅聽許說	-11.9314
病緣醫藥	-11.9314
裁	-11.9314
摩那婆	-11.9314
五百侍女	-11.9314
沈溺	-11.9314
飛禽	-11.9314
拂去	-11.9314
彼無邊稱王	-11.9315
遍滿三千大千世界	-11.9315
彼佛名者	-11.9315
顛倒真實章	-11.9315
於世尊前	-11.9315
三千大千界	-11.9315
侵害	-11.9315
隱蔽	-11.9315
愁惱	-11.9315
漫	-11.9315
掩	-11.9315
以散佛上	-11.9315
受種種苦	-11.9315
給孤獨園	-11.9315
歌羅	-11.9315
如水中月	-11.9316
親近惡知識	-11.9316
不休	-11.9316
復問汝等	-11.9316
村落	-11.9316
時尊者馬勝	-11.9316
邪語	-11.9316
眷屬圍遶	-11.9316
乾陀訶提	-11.9316
何以知之	-11.9317
地平如掌	-11.9317
害父	-11.9317
坌	-11.9317
恢廓	-11.9317
顛	-11.9317
妻子及	-11.9317
讚揚	-11.9317
稱之為	-11.9318
不生疲倦	-11.9318
證解脫	-11.9318
俟	-11.9318
不起慢心	-11.9318
王及夫人	-11.9318
輦輿	-11.9318
捶	-11.9318
毘奈耶	-11.9319
於我滅後	-11.9319
宴坐	-11.9319
不望報	-11.9319
考	-11.9319
駝	-11.9319
甚深經典	-11.932
乍	-11.932
捐棄	-11.932
於五受陰	-11.932
祿	-11.932
床敷	-11.932
和鳴	-11.932
啼泣	-11.932
群臣	-11.9321
顧視	-11.9321
郡國	-11.9321
優樓頻螺	-11.9321
堅鞕	-11.9321
維摩云	-11.9321
洲渚	-11.9321
劫盜	-11.9322
蘇油	-11.9322
掘	-11.9322
殖德本	-11.9322
斫	-11.9322
泛	-11.9322
炎熱	-11.9322
受持五戒	-11.9322
珂雪	-11.9322
皮膚	-11.9322
佛告韋提希	-11.9322
前中初言	-11.9323
幾數眾生	-11.9323
權顯實	-11.9323
得如是報	-11.9323
積功累德	-11.9324
離婆多	-11.9324
初中後善	-11.9324
合掌作禮	-11.9324
創	-11.9324
彌勒菩薩白佛言	-11.9324
彌勒領解	-11.9324
恬	-11.9324
輕易	-11.9324
棗	-11.9325
憂悲	-11.9325
陰種諸入	-11.9325
無限大悲	-11.9325
調戲	-11.9325
洽	-11.9325
勝鬘寶窟卷	-11.9325
一諦章	-11.9326
戚	-11.9326
弩	-11.9326
而為先導	-11.9326
假施設	-11.9327
欣慶	-11.9327
廣行布施	-11.9327
奧	-11.9327
凝然	-11.9328
炙	-11.9328
虛妄不實	-11.9328
綵女	-11.9328
當有是相	-11.9329
惱熱	-11.9329
三輩往生	-11.9331
爾許	-11.9331
頰	-11.9331
辜	-11.9331
楚毒	-11.9331
尚爾	-11.9331
首題	-11.9331
祕藏	-11.9332
那術	-11.9332
敬仰	-11.9332
一一觀之	-11.9332
窮極	-11.9332
斂	-11.9332
還入城	-11.9333
愛不愛	-11.9333
兔	-11.9333
無懈倦	-11.9333
金臺	-11.9333
伎藝	-11.9334
觀體	-11.9334
略而言	-11.9334
雷震	-11.9334
易解	-11.9334
異色	-11.9334
信法未久	-11.9334
讎	-11.9334
當成無上正真之道	-11.9334
敬禮無所觀	-11.9334
無有限量	-11.9334
厥	-11.9334
值佛出世	-11.9334
悉無所著	-11.9335
蔓	-11.9335
無減失	-11.9335
困苦	-11.9335
鷄	-11.9335
親近善知識	-11.9335
周迴	-11.9335
遠離殺生	-11.9336
黃頭	-11.9336
具足一切功德	-11.9336
聞說阿彌陀佛	-11.9336
尚復不	-11.9336
皆在前	-11.9338
且置	-11.9339
佛告韋提	-11.9339
間雜	-11.934
陽	-11.934
升	-11.934
和敬	-11.934
中最為第一	-11.934
崩	-11.9341
前詣佛所	-11.9341
未免	-11.9341
綴	-11.9342
大眾之中	-11.9342
頭首	-11.9342
所作事業	-11.9343
出妙聲	-11.9343
楯	-11.9343
要者眾祐	-11.9343
五百由旬	-11.9343
獨覺乘	-11.9343
纏裹	-11.9343
病瘦	-11.9343
憍梵波提	-11.9343
捐捨	-11.9343
破戒比丘	-11.9343
於一切有情	-11.9344
謝滅	-11.9344
迺	-11.9344
勝福田	-11.9345
善權闓士	-11.9345
恒沙惑	-11.9345
退失菩提	-11.9345
自責	-11.9345
三教	-11.9346
即可施設	-11.9346
事不究竟	-11.9347
後善	-11.9347
其理	-11.9347
眼盡邊智	-11.9347
摧折	-11.9347
商主天子	-11.9348
具足十念	-11.9348
報女	-11.9349
複	-11.9349
誠言	-11.9349
依正二報	-11.9349
支體	-11.935
病藥	-11.935
第三段	-11.935
而能發起	-11.935
奈何	-11.9351
彼愚癡人	-11.9351
澹泊	-11.9352
戀著	-11.9352
仁今	-11.9352
生死後際等	-11.9353
顯曜	-11.9353
趣於阿耨多羅三藐三菩提	-11.9353
施眾生	-11.9354
終不退轉	-11.9354
意識境界	-11.9354
彩畫	-11.9354
法華論云	-11.9355
如是大利	-11.9355
諸相具足	-11.9355
至不退轉	-11.9356
聽受正法	-11.9357
妖	-11.9358
損惱	-11.9358
露地	-11.9358
會遇	-11.9358
受果報	-11.9359
去離	-11.9359
不善之法	-11.9359
樞	-11.9359
猶如幻化	-11.936
因陀羅	-11.936
語業清淨	-11.9361
慈心不殺	-11.9361
莊嚴功德成就	-11.9362
聞已歡喜	-11.9362
界外	-11.9362
鼻香	-11.9362
逮致	-11.9362
攝論云	-11.9362
諸釋種	-11.9363
語妙行	-11.9364
各自異行	-11.9364
次釋第二	-11.9365
是名善說	-11.9365
利人	-11.9365
困厄	-11.9365
遍動	-11.9365
剎那間	-11.9366
復說頌曰	-11.9366
那花	-11.9366
非滅	-11.9366
妄法	-11.9367
少福	-11.9367
體性亦復如是	-11.9368
作諸善	-11.9368
惡露	-11.9368
其性平等	-11.9369
迷失	-11.9369
初又二	-11.9371
發如是言	-11.9371
不見少法	-11.9371
見者歡喜	-11.9371
究竟歸依如來	-11.9373
修業	-11.9374
由此因緣	-11.9375
了不可得	-11.9377
飲光	-11.9378
除鬚髮	-11.9378
彼無量稱王	-11.9379
無有慚愧	-11.9379
長也	-11.9379
而於其中	-11.938
此諸比丘	-11.938
福盡	-11.938
願速	-11.9381
勝鬘師子吼	-11.9381
光焰	-11.9381
難伏	-11.9383
身相具足	-11.9383
大醫王	-11.9384
安住不動	-11.9384
藏身	-11.9384
持律	-11.9386
破障	-11.9386
以何義故名為	-11.9386
意妙行	-11.9388
今現在說法者	-11.9388
如來修多羅中說	-11.9388
起塔	-11.9389
迦樓羅王	-11.9389
伽耶	-11.9389
宜各	-11.9391
忍法	-11.9392
何故復	-11.9393
道品法	-11.9393
如理修行	-11.9394
世界中諸佛	-11.9394
遍遊	-11.9394
及比丘眾	-11.9395
淨梵行	-11.9396
不恚	-11.9396
不觸	-11.9396
云何而言	-11.9397
作此觀者	-11.9397
無侶	-11.9398
不諂	-11.94
如聚沫	-11.9401
淨尸羅	-11.9403
當行布施	-11.9403
有一菩薩	-11.9404
多財寶	-11.9404
菩提因	-11.9405
其義云何	-11.9406
我不見有	-11.9406
行菩薩道時	-11.9408
生我國者	-11.9414
二乘不得	-11.9414
甚重	-11.9415
至未曾有	-11.9416
不可說義	-11.9416
眼色	-11.9416
若干品	-11.9416
離諸相	-11.9417
不能害	-11.9417
德增	-11.9418
度彼岸	-11.9418
無塵垢	-11.9418
如前解	-11.942
大論云	-11.942
多求	-11.9421
住無所住	-11.9422
其心平等	-11.9423
如前釋	-11.9423
慈心精進	-11.9424
正嘆	-11.9426
即得無生法忍	-11.9426
五逆十惡	-11.9427
或取	-11.9427
是為四事	-11.9429
於眼生邊	-11.9434
是菩薩持不	-11.9434
舉動	-11.9434
無礙智見	-11.9436
真如法身	-11.9438
門外	-11.9439
盡壽	-11.9439
父母和合	-11.9442
誠心	-11.9442
翻上	-11.9443
觸貪	-11.9444
餘業	-11.9445
當何名	-11.9445
演出	-11.9445
至泥洹	-11.9445
是故我言	-11.9448
出世善根	-11.9448
半身	-11.9449
無差別相	-11.945
得不捨離	-11.945
亦無所取	-11.9452
有何異	-11.9452
迴施	-11.9452
六反	-11.9454
偏就	-11.9455
應具	-11.9456
有五種法	-11.9456
不善業道	-11.9458
生信樂	-11.946
使令	-11.946
得生彼國	-11.9461
瑜伽論	-11.9461
雨天華	-11.9461
火種	-11.9461
故名為識	-11.9463
生阿彌陀佛國	-11.9463
欲壞	-11.9463
寂靜思惟	-11.9463
見佛者	-11.9464
無二故	-11.9464
眾戒	-11.9465
自在力	-11.9465
方知	-11.9467
思之	-11.9468
寶塔	-11.947
族中	-11.9471
眾穢	-11.9471
少年	-11.9471
能消	-11.9472
妄想分別	-11.9473
請問如來	-11.9475
禪解脫	-11.9476
消散	-11.9477
半劫	-11.9478
備具	-11.9478
天上世間	-11.948
不憶念	-11.9481
經後	-11.9484
於凡夫	-11.9485
同聲唱	-11.9485
所益	-11.9487
但有名	-11.9488
云何得知	-11.9489
等流	-11.949
不擇	-11.9491
應速	-11.9492
望想	-11.9492
花散	-11.9493
如是等類	-11.9494
雙標	-11.9495
修菩提行	-11.9495
云何能知	-11.9495
清白法	-11.9497
性淨	-11.9498
雙釋	-11.9501
意趣	-11.9501
勤修學	-11.9502
將去	-11.9503
聖德	-11.9504
中道義	-11.9504
十里	-11.9507
今解	-11.9508
諸垢	-11.9509
本土	-11.9509
從緣起	-11.9511
告語	-11.9512
不動地	-11.9514
以菩提心	-11.9518
雲雷	-11.9519
假使十方	-11.9524
或施	-11.9525
畢竟盡	-11.9527
一月	-11.9528
國土中	-11.9529
便利	-11.953
無垢施菩薩	-11.953
寶山	-11.9531
空無有	-11.9531
殿樓閣	-11.9534
自觀身	-11.9539
繒幡	-11.9539
述云第	-11.9541
當為汝	-11.9541
歡欣	-11.9541
無邊過	-11.9544
共合成	-11.9545
身妙行	-11.9545
智度無極	-11.9547
無思議	-11.9549
花樹	-11.9549
通號	-11.9549
諸念	-11.955
安然	-11.955
生其國	-11.9551
從佛告阿難	-11.9552
能堪任	-11.9554
所動	-11.9555
攝一切法	-11.9555
離諸惡	-11.9555
佛告諸比丘	-11.9555
諸過患	-11.9556
六十億	-11.9556
居住	-11.9556
不捨世間	-11.9557
十方國土	-11.9559
得清涼	-11.9559
染欲	-11.956
幾法	-11.956
知其數	-11.956
一一如來	-11.956
乘性	-11.9561
智論云	-11.9563
一時皆	-11.9563
作是觀已	-11.9564
會入	-11.9566
難調	-11.9568
悉皆空	-11.9569
之心是	-11.9571
禮節	-11.9573
修勝行	-11.9574
差別性	-11.9574
精妙	-11.9574
是時世尊	-11.9575
具足莊嚴	-11.9576
合理	-11.9578
非類	-11.9579
是名第一	-11.9581
日沒	-11.9582
之異名	-11.9582
若執	-11.9584
以偈答	-11.9587
疏釋	-11.9587
百千天女	-11.9587
自體相	-11.9588
智黠	-11.9593
性空故	-11.9595
一期	-11.9602
死法	-11.9602
之原	-11.9605
無所礙	-11.9609
救攝	-11.961
後得智	-11.961
無由得	-11.9611
於三界中	-11.9611
更無別	-11.9612
在西方	-11.9613
身死	-11.9615
觀察諸法	-11.9617
雜染法	-11.9617
能成辦	-11.9618
仁等	-11.9619
禮已	-11.9619
一切世間天人	-11.9621
合掌頂禮	-11.9622
出沒	-11.9622
今將	-11.9622
二十里	-11.9623
下劣眾生	-11.9623
為彼眾生	-11.9624
果實	-11.9625
無卒暴	-11.9625
於菩提道	-11.9626
魔天	-11.9626
中有佛	-11.9628
欲比	-11.9629
障礙法	-11.963
不開	-11.963
悉來集會	-11.9633
為佛事	-11.9633
況我	-11.9634
於諸善根	-11.9634
第二從世尊	-11.9635
要義	-11.9638
滿三千大千世界	-11.964
當證阿耨多羅三藐三菩提	-11.9643
三界內	-11.9644
平等住	-11.9645
知過去	-11.9645
計有	-11.9645
理實	-11.9647
當作是	-11.9648
執解脫	-11.9648
稱性	-11.9649
辟支佛法	-11.9649
淨方	-11.965
大勇猛	-11.965
無慢	-11.9651
普照一切	-11.9652
有是相	-11.9652
逮成	-11.9655
意力	-11.9656
黑白	-11.9656
進修	-11.9661
令歸	-11.9662
種植	-11.9662
受持是經	-11.9662
通別二	-11.9663
與記	-11.9664
魔界	-11.9665
涅槃樂	-11.9666
為轉輪王	-11.9675
習種	-11.9678
是化他	-11.9679
漸得	-11.968
執受	-11.9681
鷲峯山中	-11.9681
根缺	-11.9682
增上緣	-11.9683
色受想行識	-11.9683
唯除如來	-11.9683
今舉	-11.9684
此據	-11.9686
住等引心	-11.9687
退菩提心	-11.9688
入出	-11.9692
應如是觀	-11.9692
令生信	-11.9693
發菩提心已	-11.9696
總說	-11.9697
入死	-11.9703
度脫一切眾生	-11.9706
目之	-11.9706
觀他	-11.9708
非際	-11.971
無明煩惱	-11.9712
第十八	-11.9714
我今不應	-11.9714
亦願	-11.9717
行六度	-11.9718
諸梵天	-11.9722
自宣	-11.9724
淨居	-11.9727
摩訶衍者	-11.973
萬倍	-11.9731
生喜心	-11.9736
淨土之因	-11.9736
佛號釋迦牟尼	-11.9739
妄執	-11.9739
生善道	-11.974
聖財	-11.9741
勝願	-11.9742
修正行	-11.9744
威德王	-11.9746
甚難得	-11.9746
十方一切世界	-11.9747
而說法	-11.9748
必由	-11.9751
如父	-11.9753
金色光	-11.9755
次復	-11.9755
奉佛	-11.9755
雙林	-11.9756
現微笑相	-11.9756
即違	-11.9759
且觀	-11.9759
他身	-11.9761
如青蓮	-11.9764
在水	-11.9766
不相離	-11.9772
思覺	-11.9773
萬億劫	-11.9774
不生信	-11.9778
菩薩摩訶薩修行般若波羅蜜多時	-11.9779
遠住	-11.978
無上智慧	-11.9782
死後	-11.9782
為欺	-11.9785
於菩提心	-11.9785
彼善男子善女人	-11.9787
無所壞	-11.9788
應當遠離	-11.9789
勿起	-11.9789
悉聞	-11.979
解脫天子	-11.9795
破之	-11.9795
作不善業	-11.9796
諸親	-11.9797
在空中	-11.9797
應辯	-11.9797
置之	-11.98
好色	-11.9806
便滅	-11.9811
既具	-11.9812
世尊而說偈言	-11.9812
於正道	-11.9816
四偈	-11.9816
偈重	-11.9822
是故諸法	-11.9824
王語	-11.9827
具智慧	-11.9828
無所執著	-11.9828
所許	-11.9829
淨佛國土	-11.9831
覆面	-11.9831
王意	-11.9832
正觀察	-11.9836
順教	-11.9842
此說名	-11.9842
大火聚	-11.9844
之美	-11.9844
時有一	-11.9846
之座	-11.9847
能捨一切	-11.9848
無厭倦	-11.9849
分別所起	-11.9851
無雙	-11.9851
讚曰	-11.9852
名為自在	-11.9853
除疑惑	-11.9855
村邑	-11.9856
發心求	-11.9859
如地持	-11.986
國人	-11.986
第二出	-11.9861
之惑	-11.9869
相好莊嚴	-11.9871
成就最上	-11.9873
當勤	-11.9873
所乏	-11.9874
四十六	-11.988
大福	-11.9883
生地獄	-11.9886
徵問	-11.9886
時賊	-11.9886
未極	-11.9886
有菩薩名	-11.9887
小大	-11.9887
而彼人	-11.9887
若有想	-11.9888
更有餘	-11.9889
問於如來	-11.9893
法主	-11.9893
天人阿修羅	-11.9894
唯是一	-11.9894
下辨	-11.9898
餘道	-11.9899
諸善根故	-11.99
正願	-11.9903
非阿羅漢	-11.9906
不退轉阿耨多羅三藐三菩提	-11.9907
除疑網	-11.9908
世善	-11.9909
大唐三藏	-11.9912
夜摩	-11.9919
全是	-11.992
入禪定	-11.9921
偏說	-11.9922
持戒清淨	-11.9928
癡迷	-11.9931
為根本	-11.9932
六者菩薩	-11.9937
證小	-11.9938
能令菩薩	-11.9941
緣生法	-11.995
見是已	-11.9951
幢上	-11.9953
作逆	-11.9955
如是行者	-11.9956
不嫉妬	-11.9957
真智	-11.9958
仗	-11.9958
離諸煩惱	-11.9958
千佛國	-11.9961
安坐	-11.9962
如來於中	-11.9964
是輩	-11.9965
無所貪	-11.9967
常恒	-11.9967
正等正覺所	-11.9968
遊觀	-11.9971
眾難	-11.9974
能招	-11.9976
無動搖	-11.9978
聞其聲	-11.9979
二十者	-11.9979
善巧之智	-11.998
不堅固	-11.9981
功德利益	-11.9982
結嘆	-11.9984
違害	-11.9985
復增	-11.9988
曼陀羅	-11.9988
皆遠離	-11.9992
是權	-11.9995
眾生輩	-12.001
出家戒	-12.0011
作如是見	-12.0011
生死輪	-12.0012
通教	-12.0013
在何所	-12.0013
十踰繕那	-12.0013
金沙	-12.0014
錢	-12.0017
受請	-12.0017
生老死	-12.0019
上上智	-12.002
當成正覺	-12.0021
證無生	-12.0021
觀境	-12.0023
今忽	-12.0023
隨煩惱	-12.0025
今此會中	-12.0027
動念	-12.0028
鮮白	-12.003
已訖	-12.0031
願為無上正真	-12.0032
有流	-12.0033
緣念	-12.0036
不饒益	-12.0036
虛言	-12.0036
開化一切	-12.0038
名近寂	-12.004
所加	-12.0041
諸色像	-12.0041
持鉢	-12.0046
分別諸法	-12.0049
何以言	-12.0052
六十八	-12.0053
皆亦如是	-12.0053
如鏡	-12.0053
一切聲聞獨覺	-12.0054
毀禁	-12.0055
味貪	-12.0055
下下品	-12.0055
十解	-12.0056
治生	-12.0057
無所入	-12.0063
如影像	-12.0069
以慈心	-12.0069
聞般若波羅蜜	-12.0071
無量無邊世界	-12.0072
高山	-12.0075
若彼眾生	-12.0076
修淨土	-12.0078
諸事業	-12.0078
斯定	-12.0078
後列	-12.0079
善化	-12.0086
如是經典	-12.0086
如是童子	-12.0087
尚有	-12.0089
止於	-12.009
亦無少法	-12.009
夢得	-12.0093
法華云	-12.0093
不覺知	-12.0093
今當為汝	-12.0094
斷盡	-12.0095
名為無相	-12.01
亦無作	-12.01
善出離	-12.0101
饒益諸世間	-12.0102
外觀色	-12.0108
自護	-12.0108
無量諸眾生	-12.0108
和同	-12.0109
所求索	-12.011
勸其	-12.0111
眼性空	-12.0112
鉢中	-12.0114
蓮華藏	-12.0118
積集無量	-12.0122
教相	-12.0122
尚不見	-12.0129
攝他	-12.013
放大光明遍照	-12.0132
超世	-12.0133
放淨光	-12.0133
次從	-12.0134
好無比	-12.0134
能如實知	-12.0135
鐵圍	-12.0137
華德藏菩薩	-12.0143
一切諸眾生故	-12.0145
不調散壞	-12.0146
離盡	-12.0147
生梵天	-12.0147
風所吹	-12.0148
十八不共	-12.015
時長者子	-12.015
有信心	-12.0151
如蓮	-12.0155
毘婆尸	-12.0159
加哀	-12.0159
八俱胝	-12.016
即有其十	-12.0162
諸結使	-12.0162
法身章	-12.0166
入海	-12.0168
如毒蛇	-12.0169
如來身者不可以	-12.0171
修行善業道	-12.0171
無積聚	-12.0172
心生惱害	-12.0172
教理	-12.0172
所成樓閣	-12.0174
見惡見稠林	-12.0177
便捨	-12.0178
向下	-12.0178
德成	-12.0179
外入	-12.018
利益無量眾生	-12.0182
求正法	-12.0182
便獲	-12.0184
如來身相亦復如是	-12.0185
聞我說	-12.0185
於自他	-12.0185
於他人	-12.0187
二千	-12.0188
阿練兒處	-12.019
簡別	-12.019
攝心	-12.0192
十二有支	-12.0193
雙足	-12.0193
以十法為首	-12.0193
妓	-12.0193
西晉月氏國三藏竺法護譯	-12.0194
是謂中道真實觀	-12.0195
施與者為	-12.0196
彼不動菩薩	-12.0198
得大勢菩薩	-12.0198
乃至不與一切	-12.0198
一毛端量	-12.0198
斷生死	-12.0198
如來音聲	-12.0198
過不定地	-12.0199
礫	-12.02
百分千分	-12.0201
依藏	-12.0202
非想非非想	-12.0202
㮈	-12.0202
盡諸有結	-12.0203
授菩提記	-12.0203
慧善解脫	-12.0203
禮佛足	-12.0203
此菩薩是五地	-12.0203
聲聞及辟支佛	-12.0204
安隱豐樂	-12.0204
說誠諦言	-12.0204
速疾成就阿耨多羅三藐三菩提	-12.0204
如自所證	-12.0205
拘盧舍	-12.0205
是人所夢執謂為實	-12.0205
我語取	-12.0205
揀擇	-12.0205
為顯此義	-12.0205
國王大臣	-12.0206
寡	-12.0206
入諸佛境界智光明莊嚴	-12.0206
精進行童子	-12.0206
少於業障	-12.0207
不離一切智心	-12.0207
波羅奈	-12.0207
酩	-12.0207
阿閦佛摩訶般泥洹時	-12.0207
無間斷	-12.0208
狀貌	-12.0208
曼達多王	-12.0208
大樹緊那羅王	-12.0208
及五百長者子	-12.0208
常光	-12.0208
毘盧遮那	-12.0209
掣	-12.0209
毘沙門天王	-12.0209
譬我亦如	-12.0209
為欲利益一切眾生	-12.0209
晃耀	-12.0209
授阿閦菩薩摩訶薩無上正真道決	-12.0209
晨朝	-12.021
屏	-12.021
吾當為汝分別解說	-12.021
寶積正法經	-12.021
真珠瓔珞	-12.021
鄔	-12.021
=	-12.0211
渴乏	-12.0211
一依章	-12.0211
兜率天宮	-12.0211
明徹	-12.0211
儼	-12.0211
經於七日	-12.0212
勝鬘得書	-12.0212
右遶七匝	-12.0212
闇鈍	-12.0212
聰叡	-12.0212
得勝果報	-12.0212
姦詐	-12.0212
智德資糧	-12.0213
盡諸苦	-12.0213
㯹	-12.0213
長老須菩提	-12.0213
轉妙梵輪	-12.0213
今所明者	-12.0214
貧窮下賤	-12.0214
授佛記	-12.0214
街巷	-12.0214
小聖	-12.0214
象馬車乘	-12.0214
稱揚讚歎	-12.0214
𡀔	-12.0214
然佛如來	-12.0214
陸地	-12.0215
我念往昔	-12.0215
沙門及婆羅門	-12.0215
以攝取心	-12.0215
意業三種	-12.0215
信受諦奉	-12.0215
橋	-12.0215
為得一切智具足一切佛法故	-12.0215
爾時淨無垢寶月王光菩薩摩訶薩	-12.0215
無取捨	-12.0215
從空而下	-12.0216
忻慶	-12.0216
九十九	-12.0216
積累德本	-12.0216
寶上天子	-12.0216
二死兼除	-12.0216
敷榮	-12.0216
此二空智	-12.0216
宛轉	-12.0217
晦	-12.0217
是故今敬禮	-12.0217
唯除五逆誹謗正法	-12.0218
不可復計劫	-12.0218
縣邑	-12.0218
完具	-12.0218
菩薩摩訶薩於勝慧波羅蜜多	-12.0218
梵行巳立	-12.0218
微風	-12.0218
非其境界	-12.0218
羨	-12.0219
於晨朝時	-12.0219
遞	-12.0219
亦復無所施設	-12.0219
離諸疑悔	-12.0219
菩薩於諸眾生轉大悲心	-12.0219
緣覺之乘	-12.0219
三脫門	-12.0219
暖	-12.0219
攝持一切法	-12.0219
非思量境界	-12.0219
諸相好	-12.0219
於一念頃	-12.0219
生死依如來藏	-12.0219
佛言便說	-12.022
財穀	-12.022
人身難得	-12.022
誰於今日	-12.022
八十億劫	-12.022
奉事師長	-12.022
轉無上法輪	-12.022
乘此乘	-12.0221
恕	-12.0221
筋骨	-12.0221
詰	-12.0221
名稱普聞	-12.0221
無應不應	-12.0221
發是願	-12.0221
撥	-12.0222
灼	-12.0222
發勇猛心	-12.0222
謹慎	-12.0222
如來述讚	-12.0222
如是大果	-12.0222
若遠若近	-12.0222
悶	-12.0222
泰	-12.0222
言行相應	-12.0222
不盜	-12.0223
或有諸行	-12.0223
事識	-12.0223
攝大乘論	-12.0223
魏	-12.0223
屋宅	-12.0223
之味	-12.0223
受緣愛	-12.0223
瘖瘂	-12.0223
僧伽梨	-12.0223
大圓鏡智	-12.0223
四十二劫	-12.0223
攝護正法	-12.0223
覺行窮滿	-12.0223
叢	-12.0224
舟	-12.0224
聞所未聞	-12.0224
郡	-12.0224
為利諸眾生	-12.0224
唯願說之	-12.0224
憒	-12.0224
珊	-12.0224
無有退減	-12.0224
不減失	-12.0225
欝單越	-12.0225
大乘廣智	-12.0225
此之一義	-12.0225
煎	-12.0225
不多不少	-12.0225
健達縛	-12.0225
揵沓惒	-12.0226
不可說不可說	-12.0226
罵辱	-12.0226
枷鎖	-12.0226
入城乞食	-12.0226
世尊我從今日乃至菩提	-12.0226
婬妷	-12.0226
格	-12.0226
化樂天王	-12.0226
轉於法輪	-12.0226
甫	-12.0226
兆	-12.0226
抑	-12.0226
樂變化天	-12.0227
無量清淨平等覺經	-12.0227
背痛	-12.0227
搗	-12.0227
若見眾生樂以	-12.0227
街	-12.0227
胡語	-12.0227
房舍	-12.0227
國大夫人	-12.0227
應當發願生彼國土	-12.0227
微淺	-12.0227
用是故得	-12.0227
無相無願	-12.0227
憤	-12.0228
浮雲	-12.0228
嬈害	-12.0228
何因何緣	-12.0228
不可稱數	-12.0228
著衣持鉢	-12.0228
勝華藏菩薩摩訶薩	-12.0228
此神通者	-12.0228
開闡	-12.0228
瑟	-12.0228
生老病死憂悲苦惱	-12.0229
苗稼	-12.0229
聞已淨信	-12.0229
又復何緣菩薩	-12.0229
過去現在未來	-12.0229
功祚	-12.0229
天人本所未得	-12.0229
自性空寂	-12.0229
紙	-12.0229
驅使	-12.0229
覺寤	-12.023
但受諸樂	-12.023
末利夫人	-12.023
沾污	-12.023
十號具足	-12.023
百六十里	-12.023
積累	-12.023
枕	-12.023
七聖財	-12.023
頻婆娑羅	-12.0231
到如來所	-12.0231
焰意王	-12.0231
醫方	-12.0231
善心生焉	-12.0231
汝當諦聽	-12.0231
七尺	-12.0231
末尼	-12.0231
獨作諸善	-12.0231
白鶴	-12.0231
靖	-12.0231
賀	-12.0232
泡沫	-12.0232
一體三寶	-12.0232
彼佛國	-12.0232
乃至發希有想	-12.0232
嗜欲	-12.0232
貿	-12.0232
痰	-12.0232
那含	-12.0233
今此文中	-12.0233
秀	-12.0233
如來色無盡	-12.0233
具諸不善	-12.0233
究暢	-12.0233
嚩帝	-12.0233
膽	-12.0233
聽受經法	-12.0233
勝現王如來	-12.0233
故能爾耳	-12.0234
成實論	-12.0234
捕	-12.0234
曲躬	-12.0234
成就捨心	-12.0234
警覺	-12.0234
施主家	-12.0234
靈禽	-12.0234
贍部	-12.0234
功勳嚴淨	-12.0235
增上意樂	-12.0235
佛本何故興此	-12.0235
出世間善法	-12.0235
怪未曾有	-12.0235
有其二種	-12.0235
垂哀	-12.0235
不保護	-12.0236
辯積	-12.0236
沙彌	-12.0236
悶絕	-12.0236
苟	-12.0236
如是等種種	-12.0237
多所安隱	-12.0237
是智者所知	-12.0237
流支	-12.0237
結前生後	-12.0237
七萬二千	-12.0238
念念不住	-12.0238
伽羅	-12.0238
苞	-12.0238
河水	-12.0239
來至其所	-12.0239
敷設	-12.0239
晚	-12.0239
貧匱	-12.0239
畔	-12.0239
轡	-12.0239
不可稱限	-12.0239
浣	-12.0239
星辰	-12.0239
而能忍受	-12.0239
得沙門果	-12.024
醉象	-12.024
善說法	-12.024
莫測	-12.024
羽	-12.024
魏魏	-12.024
聞此法門亦復如是	-12.024
詩	-12.024
左脇	-12.0241
坐佛樹下	-12.0241
猛焰	-12.0241
到佛所已	-12.0241
為王說法	-12.0241
高才	-12.0241
法界理趣	-12.0242
王夫人	-12.0242
淨居天子	-12.0243
女白王	-12.0243
從是為下	-12.0243
界是佛境界	-12.0244
頭面禮佛	-12.0244
真子章	-12.0244
王阿闍貰	-12.0244
化他德	-12.0245
以偈歎	-12.0245
在大眾中	-12.0245
登地已上	-12.0246
鸞	-12.0246
理行果	-12.0246
兩臂	-12.0246
與五百	-12.0246
亦為眾生說如	-12.0247
上來雖有七	-12.0247
與心相應	-12.0247
諷	-12.0247
從何來	-12.0248
同聞眾	-12.0248
鑊	-12.0248
散提	-12.0248
克	-12.0249
住舍衛	-12.0249
又汝諸魔欲	-12.0249
牛呞	-12.0249
狼	-12.0249
勿怖	-12.025
枉	-12.025
密迹金剛力士謂寂意	-12.0251
畢定	-12.0252
唼	-12.0252
如來妙色身	-12.0252
屎	-12.0252
萬二千人俱	-12.0253
熟藏	-12.0253
閫	-12.0253
眾集	-12.0253
異熟	-12.0254
三十二種	-12.0254
▁「『	-12.0255
獲於	-12.0255
發三願	-12.0255
遍入諸	-12.0255
行於布施	-12.0255
如汝所問	-12.0256
宿昔	-12.0257
墮於惡道	-12.0257
已於過去	-12.0257
車馬	-12.0257
菩提薩埵	-12.0257
紫磨金色	-12.0258
而得增長	-12.0258
從初乃至	-12.0259
悲惱	-12.0259
神通智力	-12.0259
供養奉事	-12.0259
香美	-12.026
入般涅槃	-12.026
速悟	-12.0261
外別有	-12.0261
聞是經典	-12.0261
通達無礙	-12.0261
焰花	-12.0262
持經戒	-12.0263
空拳	-12.0263
出家修道	-12.0263
所不應作	-12.0264
劫波	-12.0264
興雲	-12.0264
放光照	-12.0264
住於斯道	-12.0265
入正定聚	-12.0266
猶存	-12.0266
於一念中	-12.0267
如忉利天	-12.0267
光耀	-12.0269
光聚王菩薩	-12.0269
斷愛欲	-12.027
平滿	-12.027
若我弟子	-12.027
如是念已	-12.027
亦不念	-12.0271
釋迦佛	-12.0271
力強	-12.0271
燋	-12.0271
汝勿	-12.0271
無邊不斷	-12.0271
復有無量百千	-12.0272
無為善巧	-12.0272
演法施	-12.0273
則無分別	-12.0273
不誑	-12.0275
而為眷屬	-12.0275
神呪	-12.0275
何益	-12.0276
善能安住	-12.0276
第一義乘	-12.0276
無生相	-12.0276
備足	-12.0277
於是法中	-12.0277
作如是願	-12.0278
無少法而可	-12.0279
并眷屬	-12.028
尚非	-12.028
忍波羅蜜	-12.0281
發願往生	-12.0281
[...]
