<unk>	0
<s>	0
</s>	0
之	-3.98144
而	-4.57394
也	-4.60943
以	-4.95371
(	-4.9846
)	-4.98512
者	-4.99132
爲	-5.00192
有	-5.24576
於	-5.32299
其	-5.38332
則	-5.4025
不	-5.44671
一	-5.45282
人	-5.5923
無	-5.62993
心	-5.84122
大	-5.84391
▁	-5.84537
自	-5.85741
曰	-5.86729
天	-5.89206
此	-5.90159
中	-5.91725
道	-5.97427
生	-5.98014
如	-5.99006
神	-6.02411
矣	-6.03373
是	-6.03825
得	-6.05472
上	-6.08642
卽	-6.11896
故	-6.1317
與	-6.16053
天尊大悲	-6.17228
在	-6.17233
乎	-6.18055
非	-6.18893
行	-6.20066
言	-6.23472
至	-6.31045
若	-6.36749
明	-6.37759
下	-6.38853
子	-6.39149
時	-6.39276
乃	-6.40862
見	-6.41364
可	-6.42772
成	-6.44333
皆	-6.44648
我	-6.45169
眞	-6.4552
水	-6.45674
出	-6.4588
三	-6.46912
所	-6.48002
氣	-6.50419
已	-6.53395
日	-6.54776
山	-6.5626
入	-6.56526
知	-6.56733
然	-6.57226
身	-6.61984
相	-6.6209
能	-6.62906
亦	-6.63662
來	-6.64181
名	-6.65019
事	-6.65617
又	-6.66277
正	-6.66457
同	-6.67413
或	-6.67625
用	-6.68661
法	-6.68883
當	-6.69891
從	-6.76424
欲	-6.77329
地	-6.78417
處	-6.79075
化	-6.79296
金	-6.79707
火	-6.80347
二	-6.81546
作	-6.81553
後	-6.81625
靈	-6.8193
精	-6.83544
分	-6.83931
陽	-6.85756
仙	-6.86142
合	-6.87036
必	-6.87236
將	-6.87254
盡	-6.87749
命	-6.87884
經	-6.8877
多	-6.89749
德	-6.90106
去	-6.9071
本	-6.91776
吾	-6.91917
臣	-6.92517
未	-6.93081
性	-6.93241
方	-6.93871
空	-6.9423
復	-6.94271
因	-6.94531
常	-6.95666
元	-6.96645
内	-6.96988
月	-6.97186
先	-6.97569
歸	-6.97625
五	-6.97713
四	-6.97719
光	-6.99359
善	-7.00489
修	-7.00494
通	-7.00765
外	-7.01172
文	-7.01632
云	-7.02085
開	-7.02851
夫	-7.02966
難	-7.03356
長	-7.03376
過	-7.03405
何	-7.03495
陰	-7.03589
風	-7.03661
焉	-7.03811
前	-7.04084
今	-7.04235
諸	-7.04649
旣	-7.04807
觀	-7.05105
體	-7.05175
雲	-7.05469
雖	-7.05814
惟	-7.05854
居	-7.05957
于	-7.0598
物	-7.06357
玄	-7.06698
石	-7.06985
實	-7.07
求	-7.08252
天地	-7.08281
耳	-7.08448
功	-7.0861
定	-7.08739
王	-7.0938
安	-7.10191
高	-7.13713
意	-7.14118
不可	-7.14655
應	-7.15438
傳	-7.16009
書	-7.1606
立	-7.16109
○	-7.16446
謂	-7.16738
玉	-7.17711
不能	-7.18086
死	-7.18218
聞	-7.187
起	-7.18752
使	-7.19664
理	-7.19888
易	-7.20906
形	-7.21102
全	-7.21359
及	-7.21703
淸	-7.21705
世	-7.22023
門	-7.22367
師	-7.22507
君	-7.22609
所以	-7.23017
始	-7.23141
炁	-7.23149
度	-7.2327
自然	-7.23706
丹	-7.24162
聖	-7.24227
數	-7.25542
九	-7.25618
不知	-7.26353
重	-7.26555
動	-7.26593
流	-7.2666
初	-7.27404
小	-7.27537
虛	-7.28108
公	-7.28367
哉	-7.28537
說	-7.28614
音	-7.29772
主	-7.30183
靜	-7.30228
會	-7.30504
運	-7.30774
守	-7.30863
字	-7.31488
思	-7.31738
家	-7.32692
發	-7.32772
要	-7.32928
樂	-7.32951
龍	-7.33163
取	-7.33244
念	-7.33597
受	-7.33957
妙	-7.34643
莫	-7.34951
天尊	-7.36318
遂	-7.364
白	-7.36756
深	-7.3702
且	-7.37948
所謂	-7.38131
兩	-7.3862
信	-7.39367
解	-7.39834
離	-7.39924
帝	-7.40728
教	-7.40794
願	-7.41179
利	-7.42214
凡	-7.42427
好	-7.4249
遠	-7.43206
由	-7.43355
而不	-7.43375
萬	-7.44036
某	-7.45118
民	-7.46508
情	-7.46828
花	-7.47983
和	-7.48014
惡	-7.48047
陰陽	-7.48082
故曰	-7.4839
更	-7.48827
可以	-7.49094
等	-7.49669
聲	-7.49703
飛	-7.49832
眾	-7.50168
極	-7.50535
降	-7.50811
六	-7.50873
存	-7.50916
結	-7.51335
學	-7.51523
志	-7.5153
宜	-7.51973
色	-7.52773
還	-7.52919
彼	-7.53776
望	-7.539
天下	-7.55152
俱	-7.55516
息	-7.55826
誠	-7.55895
廣	-7.56254
南	-7.56352
猶	-7.57281
義	-7.57349
女	-7.57381
八	-7.57399
力	-7.5753
平	-7.57642
止	-7.57972
固	-7.58702
大道	-7.58827
隨	-7.58978
語	-7.59
便	-7.5917
土	-7.59601
蓋	-7.5993
關	-7.60117
足	-7.60637
問	-7.6065
寶	-7.60709
符	-7.60881
終	-7.61379
遊	-7.61467
年	-7.61747
養	-7.62174
到	-7.62379
食	-7.62527
間	-7.62555
根	-7.6288
星	-7.63126
令	-7.63319
少	-7.63617
各	-7.63669
轉	-7.63745
口	-7.64047
指	-7.64074
照	-7.64232
斯	-7.64424
謂之	-7.6444
一切	-7.64711
覺	-7.64875
親	-7.64975
以爲	-7.65501
甚	-7.65558
不得	-7.65563
直	-7.66043
藏	-7.66326
治	-7.66416
藥	-7.67165
東	-7.67337
福	-7.67508
老	-7.6756
國	-7.67714
戒	-7.67762
西	-7.6802
失	-7.68025
微	-7.68575
隱	-7.68654
致	-7.69019
七	-7.69126
稱	-7.69444
佛	-7.69464
遇	-7.69476
須	-7.69584
反	-7.70058
邪	-7.70319
十	-7.70577
人之	-7.70935
坐	-7.70993
著	-7.71312
。	-7.71492
眞人	-7.71911
舉	-7.71912
華	-7.72197
香	-7.72311
宫	-7.73398
了	-7.73434
視	-7.73483
春	-7.73609
但	-7.74066
乾	-7.74374
緣	-7.75105
敬	-7.75264
位	-7.75441
木	-7.75454
識	-7.75634
交	-7.76051
古	-7.76227
黃	-7.76699
進	-7.77282
張	-7.7743
獨	-7.77517
百	-7.77523
章	-7.77528
目	-7.77798
爾	-7.77852
果	-7.77989
變	-7.78157
洞	-7.78369
先天	-7.78449
司	-7.78879
向	-7.78984
雨	-7.79128
象	-7.79229
永	-7.79498
禮	-7.79672
宗	-7.80186
煉	-7.8021
母	-7.80322
周	-7.80536
似	-7.80694
登	-7.80752
節	-7.81048
海	-7.81299
具	-7.81686
苦	-7.81737
施	-7.81777
滿	-7.81825
忘	-7.82444
異	-7.82487
達	-7.82768
保	-7.83019
境	-7.83426
病	-7.83548
往	-7.83898
予	-7.84071
景	-7.84303
證	-7.84675
共	-7.85337
右	-7.85763
圖	-7.85869
兮	-7.85913
滅	-7.86249
千	-7.86297
之中	-7.8646
總	-7.86965
者也	-7.87002
北	-7.87634
機	-7.87938
之所	-7.87945
顯	-7.87959
聖人	-7.88091
之道	-7.8826
落	-7.8832
尙	-7.88421
悟	-7.89642
論	-7.89645
路	-7.89668
興	-7.89735
仁	-7.89768
宮	-7.89826
報	-7.89872
亂	-7.90532
朝	-7.90604
順	-7.9072
就	-7.90803
詩	-7.91037
首	-7.91083
散	-7.9127
益	-7.91324
恩	-7.91377
日月	-7.91477
任	-7.91478
都	-7.9162
記	-7.91867
聽	-7.92061
豈	-7.92122
勝	-7.92456
祖	-7.92729
幾	-7.92913
奉	-7.93102
尋	-7.93146
馬	-7.93544
貴	-7.93707
奇	-7.93776
除	-7.9379
參	-7.9384
真	-7.93888
士	-7.94077
塵	-7.94303
⬤	-7.94541
再	-7.95111
執	-7.95273
伏	-7.95528
新	-7.95603
壇	-7.95703
頭	-7.95895
屬	-7.95999
乾坤	-7.96168
萬物	-7.96202
積	-7.96811
耶	-7.97351
乘	-7.97353
夀	-7.97385
夜	-7.9748
請	-7.97762
臨	-7.98196
太極	-7.9832
漢	-7.98624
輕	-7.99046
兵	-7.99102
官	-7.99286
備	-7.99656
殺	-7.99787
尊	-7.99787
窮	-7.99932
原	-8.0001
持	-8.00058
愛	-8.00207
引	-8.0025
勿	-8.00259
己	-8.00302
寒	-8.00552
加	-8.0068
斷	-8.01142
業	-8.01195
集	-8.01244
魔	-8.01578
齊	-8.01596
對	-8.01598
幽	-8.01809
容	-8.02044
陳	-8.02253
圓	-8.02258
亡	-8.0246
江	-8.02581
半	-8.02806
妄	-8.0283
號	-8.02984
制	-8.03107
破	-8.03537
看	-8.0384
並	-8.04016
如此	-8.04116
久	-8.04135
孝	-8.04597
先生	-8.04736
濟	-8.05177
絕	-8.05188
府	-8.06104
金丹	-8.06235
升	-8.06305
列	-8.06654
羣	-8.06715
虎	-8.06722
住	-8.06887
懷	-8.06894
汝	-8.07161
消	-8.07238
左	-8.0727
喜	-8.07491
漸	-8.07519
依	-8.0769
只	-8.07939
秋	-8.08137
鼎	-8.08147
咸	-8.08547
城	-8.08641
坤	-8.08698
示	-8.08795
鍊	-8.08819
他	-8.09152
如是	-8.09488
傷	-8.09855
表	-8.10032
疑	-8.10923
愈	-8.11162
鬼	-8.11228
手	-8.11256
現	-8.11365
靑	-8.11419
堂	-8.12147
次	-8.12291
清	-8.12605
衣	-8.12685
酒	-8.13178
造	-8.13408
返	-8.13639
每	-8.13645
服	-8.13659
林	-8.14178
强	-8.14209
智	-8.1443
無爲	-8.14441
承	-8.14443
魂	-8.14522
悉	-8.14744
巳	-8.1479
普	-8.14999
歌	-8.15163
垂	-8.15233
留	-8.15233
類	-8.15388
賢	-8.1549
太上	-8.15646
感	-8.16041
載	-8.16101
迷	-8.16126
忽	-8.16247
罪	-8.16547
珠	-8.1657
謹	-8.1683
雷	-8.16887
收	-8.16978
美	-8.16998
之心	-8.1779
呼	-8.17933
害	-8.1802
統	-8.18153
俗	-8.18154
啟	-8.18423
回	-8.18459
假	-8.18647
一日	-8.19288
近	-8.19618
太	-8.19706
葢	-8.19865
浮	-8.20225
慧	-8.20426
舍	-8.20807
胎	-8.20914
露	-8.20962
特	-8.20993
造化	-8.21224
端	-8.21353
聚	-8.21439
淨	-8.21464
誰	-8.21534
放	-8.21693
種	-8.21796
是以	-8.21937
仰	-8.21964
鉛	-8.22169
泉	-8.22208
州	-8.22405
凝	-8.2276
期	-8.22875
父	-8.23012
之時	-8.23198
客	-8.23301
素	-8.2384
李	-8.24438
註	-8.24503
超	-8.2453
世人	-8.24566
臺	-8.24753
建	-8.25011
余	-8.25032
是也	-8.25068
曲	-8.25172
步	-8.25461
釋	-8.25564
斗	-8.25585
逆	-8.25662
絶	-8.2571
弟子	-8.25925
面	-8.26009
剛	-8.26195
長生	-8.26427
室	-8.27059
遺	-8.27341
接	-8.27606
皇	-8.27671
於此	-8.2769
之功	-8.27924
許	-8.28093
宣	-8.28354
想	-8.28562
昔	-8.29351
樹	-8.29382
眾生	-8.29555
𡻕	-8.29886
堅	-8.2997
震	-8.30103
愚	-8.30521
田	-8.30602
草	-8.30739
謝	-8.30901
含	-8.31176
眞君	-8.31229
巖	-8.31757
脫	-8.31847
推	-8.32008
而後	-8.32044
星君	-8.32201
水火	-8.32434
神仙	-8.32481
,	-8.32996
喻	-8.33028
調	-8.33134
適	-8.33315
威	-8.33372
光明	-8.33383
至於	-8.3341
採	-8.33412
餘	-8.33675
恐	-8.33676
赤	-8.33769
棄	-8.33941
設	-8.34062
夢	-8.34202
甯	-8.34294
注	-8.34342
裏	-8.34614
軍	-8.34671
計	-8.3491
序	-8.34952
谷	-8.34974
申	-8.3517
松	-8.35772
爭	-8.36069
待	-8.36375
池	-8.36421
而爲	-8.36432
部	-8.36449
笑	-8.36617
拜	-8.36622
走	-8.36845
游	-8.37032
坎	-8.37215
疾	-8.37293
累	-8.37494
氏	-8.37506
吉	-8.37557
延	-8.37789
而已	-8.37847
退	-8.37905
影	-8.37925
厯	-8.38079
亮	-8.38487
休	-8.38589
眼	-8.38613
峰	-8.38756
密	-8.39046
急	-8.39185
嚴	-8.39253
之間	-8.39255
的	-8.3939
慈	-8.39481
補	-8.39713
顧	-8.39781
徒	-8.40132
移	-8.40224
貪	-8.40324
齋	-8.40365
無所	-8.40421
品	-8.4067
武	-8.4092
良	-8.40943
亭	-8.41045
敗	-8.4129
卽是	-8.41335
之理	-8.41412
君子	-8.41423
奏	-8.41468
喪	-8.41479
卦	-8.41554
工夫	-8.41706
慶	-8.41909
嘗	-8.42053
黑	-8.4245
功德	-8.42663
卻	-8.42796
忠	-8.42904
布	-8.43016
劫	-8.43072
性命	-8.43137
畫	-8.43149
驚	-8.43162
克	-8.43197
盛	-8.43259
舊	-8.43362
吳	-8.43446
火候	-8.43492
儒	-8.43532
比	-8.43613
紫	-8.43618
後天	-8.43633
源	-8.43765
魚	-8.4381
細	-8.44051
專	-8.44224
禍	-8.44276
別	-8.44423
封	-8.44597
紅	-8.44847
召	-8.4489
輔	-8.44897
授	-8.44969
汞	-8.45255
䝉	-8.45326
五行	-8.45676
災	-8.45701
劍	-8.45852
溪	-8.45902
錄	-8.45952
雪	-8.45959
獲	-8.46096
無不	-8.4617
波	-8.46313
救	-8.46415
變化	-8.46467
柔	-8.46541
僧	-8.4655
上帝	-8.46559
宿	-8.46764
縱	-8.46831
諸天	-8.4688
貞	-8.47116
中有	-8.47122
損	-8.47462
負	-8.4755
辭	-8.4781
候	-8.48198
代	-8.48297
被	-8.48461
幸	-8.4874
上下	-8.48892
最	-8.49181
生死	-8.49188
蜀	-8.49274
揚	-8.49302
之後	-8.49408
厚	-8.49555
牛	-8.49611
按	-8.49626
遍	-8.49729
其所	-8.49794
澤	-8.50038
質	-8.50066
典	-8.50139
刻	-8.5031
於是	-8.50342
侯	-8.50522
詞	-8.50682
淫	-8.50733
告	-8.5086
孤	-8.50863
竅	-8.51122
血	-8.51141
之法	-8.51266
投	-8.51494
工	-8.51553
何以	-8.51749
兼	-8.52199
劉	-8.52507
惠	-8.52526
筆	-8.52628
車	-8.52671
私	-8.52783
曾	-8.52814
羅	-8.52844
抱	-8.53057
財	-8.53181
父母	-8.53387
竹	-8.53387
味	-8.5355
樓	-8.53969
勢	-8.54059
謀	-8.54104
為	-8.54166
覆	-8.54309
寺	-8.54629
辨	-8.54637
權	-8.54644
禪	-8.54676
兆	-8.54862
無窮	-8.54953
舟	-8.5506
危	-8.55217
閒	-8.55335
朱	-8.55371
鳥	-8.55386
不見	-8.55406
其心	-8.55552
庭	-8.55604
早	-8.55797
骨	-8.55869
無極	-8.55986
切	-8.5625
訓	-8.56264
勞	-8.56322
御	-8.56448
旨	-8.56486
鶴	-8.56617
爐	-8.56639
况	-8.56923
十二	-8.57008
吟	-8.57025
仍	-8.57036
速	-8.57072
殿	-8.57096
昭	-8.57099
務	-8.57129
野	-8.57298
而無	-8.57474
詳	-8.57897
鳴	-8.57929
折	-8.58018
誦	-8.58093
畢	-8.58094
習	-8.58324
河	-8.58411
之意	-8.58579
才	-8.58734
碧	-8.58749
純	-8.58804
篇	-8.58902
十方	-8.58933
均	-8.59239
領	-8.59275
履	-8.59652
把	-8.59668
逐	-8.59775
凶	-8.59829
偏	-8.60025
資	-8.60363
唐	-8.60413
連	-8.60677
恭	-8.60761
淸淨	-8.60791
井	-8.61308
弗	-8.61345
雜	-8.61444
烟	-8.61465
繼	-8.6174
冥	-8.61819
呼吸	-8.6185
憂	-8.62499
也故	-8.62546
句	-8.62577
紀	-8.6269
九天	-8.62757
崇	-8.62823
怒	-8.62932
刑	-8.63056
燈	-8.63081
障	-8.63152
攝	-8.63156
徹	-8.63167
護	-8.6342
之人	-8.63494
慮	-8.63545
談	-8.63613
盜	-8.63682
元始	-8.63704
而成	-8.64021
之事	-8.6405
戰	-8.64078
免	-8.64169
險	-8.64253
毋	-8.64264
演	-8.64265
駕	-8.64352
遷	-8.64409
簡	-8.64442
而生	-8.64519
充	-8.64982
量	-8.65003
考	-8.65199
規	-8.65207
職	-8.65296
默	-8.65354
提	-8.65608
迎	-8.65764
點	-8.65766
盈	-8.65824
榮	-8.65971
秀	-8.66089
否	-8.66241
儀	-8.6628
竟	-8.66309
又曰	-8.66314
末	-8.66556
富	-8.66675
不敢	-8.66676
伏願	-8.66714
薄	-8.66881
魄	-8.66887
狀	-8.67049
助	-8.67089
濁	-8.67141
橫	-8.67168
薦	-8.67182
童	-8.6734
孫	-8.67885
帝君	-8.67923
尤	-8.68169
賴	-8.68224
勤	-8.68365
祈	-8.68786
不爲	-8.68791
其中	-8.68798
不足	-8.68903
鎭	-8.68931
廟	-8.6895
有所	-8.68991
元神	-8.69085
怨	-8.69336
友	-8.69686
玉帝	-8.69695
鬼神	-8.69711
鼓	-8.69804
頂	-8.701
賜	-8.70244
泰	-8.70563
醉	-8.70585
器	-8.70694
完	-8.70745
置	-8.70842
然後	-8.71077
即	-8.7111
宋	-8.71206
是爲	-8.71214
囘	-8.7128
貫	-8.71282
越	-8.71359
虛無	-8.71396
印	-8.71434
奪	-8.71555
縣	-8.71589
借	-8.71607
爰	-8.71842
之妙	-8.72018
一點	-8.72039
產	-8.72159
夏	-8.7216
洪	-8.72238
徑	-8.72273
幻	-8.72445
之士	-8.72527
殊	-8.72555
據	-8.72565
道人	-8.72567
傾	-8.72588
育	-8.72628
悲	-8.72913
道德	-8.72983
往來	-8.73098
察	-8.73182
之氣	-8.73195
題	-8.73289
逢	-8.73329
英	-8.73368
不過	-8.73436
基	-8.73618
跡	-8.73676
納	-8.73785
寂	-8.73956
術	-8.74097
葉	-8.74134
便是	-8.74282
雙	-8.74413
無量	-8.74421
敢	-8.74455
墮	-8.7456
得道	-8.74619
卷	-8.74642
拔	-8.75222
橋	-8.75327
約	-8.75435
懸	-8.75443
透	-8.75467
竊	-8.75515
人心	-8.75554
暗	-8.75643
犯	-8.75707
疏	-8.75715
言之	-8.75768
人間	-8.76105
界	-8.76218
無上	-8.76381
穴	-8.76544
掌	-8.76574
畏	-8.76748
偶	-8.76842
人也	-8.76977
讀	-8.77244
條	-8.77339
太虛	-8.77432
左右	-8.77457
增	-8.77531
訣	-8.77606
翁	-8.77626
大聖	-8.77766
患	-8.7818
伯	-8.78181
卒	-8.78232
叩	-8.78381
純陽	-8.78434
塞	-8.7846
送	-8.78562
之義	-8.78635
鸞	-8.78646
甘	-8.78945
鳳	-8.78952
勸	-8.79165
昌	-8.79547
活	-8.79636
嗣	-8.79791
曉	-8.79882
背	-8.80282
那	-8.80368
融	-8.80936
自有	-8.81029
巧	-8.81258
三界	-8.81347
身心	-8.8149
靈寶	-8.81634
寄	-8.8164
效	-8.81656
政	-8.81756
維	-8.81823
男	-8.8185
賊	-8.82068
究	-8.82098
崖	-8.82189
省	-8.82551
本來	-8.82604
淵	-8.82762
閣	-8.8278
違	-8.82931
旋	-8.82972
銀	-8.83113
率	-8.83216
帶	-8.83529
俾	-8.83578
斬	-8.83808
龍虎	-8.8383
籍	-8.83831
從此	-8.84147
律	-8.84246
沈	-8.84506
惑	-8.84574
熟	-8.84597
坎離	-8.84734
附	-8.84839
盤	-8.84868
魏	-8.84933
契	-8.85004
追	-8.85037
虛空	-8.85084
怪	-8.85142
秘	-8.85145
希	-8.85371
憑	-8.85435
試	-8.85557
種種	-8.85778
富貴	-8.85872
唯	-8.85941
梁	-8.86071
功夫	-8.86111
昏	-8.86126
翠	-8.86132
詔	-8.86179
操	-8.86197
鑒	-8.86216
慈悲	-8.86254
峯	-8.86276
壁	-8.86364
青	-8.86532
一念	-8.8661
此心	-8.86619
閉	-8.86633
霞	-8.86723
哀	-8.86878
像	-8.87036
徵	-8.87069
道之	-8.87257
金闕	-8.87272
輪	-8.87278
菴	-8.8741
讚	-8.87433
精神	-8.87681
祖師	-8.87852
享	-8.87917
朗	-8.87984
腎	-8.88233
冠	-8.88234
庶	-8.88249
茲	-8.88424
曹	-8.88431
今日	-8.88482
招	-8.88493
川	-8.88625
庸	-8.88747
泥丸	-8.8893
誤	-8.89005
浪	-8.89067
祠	-8.89075
陣	-8.89179
天道	-8.89279
一心	-8.89343
格	-8.89379
混	-8.89561
不可以	-8.89563
醮	-8.89567
枝	-8.8959
第	-8.89605
錫	-8.89805
諸子	-8.89889
衞	-8.89939
錢	-8.89995
吏	-8.90006
天地之	-8.90049
出入	-8.90095
動靜	-8.90141
戸	-8.90154
肅	-8.90434
煙	-8.90479
邊	-8.90559
驗	-8.90679
楊	-8.90714
則有	-8.90887
昧	-8.90932
科	-8.91173
房	-8.91431
婦	-8.91481
勇	-8.91596
獻	-8.91775
二字	-8.91985
學者	-8.92036
遣	-8.92169
改	-8.92286
吿	-8.9232
環	-8.92401
渾	-8.92443
兹	-8.92495
羽	-8.9255
廢	-8.92697
暴	-8.93095
午	-8.93097
衰	-8.93104
并	-8.93136
秉	-8.93342
第一	-8.93411
扶	-8.93548
一時	-8.9359
毒	-8.93647
配	-8.93801
避	-8.93926
頓	-8.93989
綠	-8.94009
厥	-8.94088
温	-8.94108
侍	-8.94112
徧	-8.94177
包	-8.94274
飲	-8.94346
映	-8.94383
枯	-8.94422
院	-8.94443
之謂	-8.94447
禁	-8.94506
瓊	-8.94508
無形	-8.94564
仙佛	-8.94581
如何	-8.94671
學道	-8.94775
是非	-8.94876
得其	-8.94902
大藥	-8.94935
隔	-8.94974
稍	-8.94975
差	-8.95003
貧	-8.95007
兌	-8.95098
辰	-8.95252
必有	-8.95364
忍	-8.95432
堪	-8.95591
尅	-8.95682
訪	-8.95821
着	-8.95871
以此	-8.96029
做	-8.96295
亦不	-8.96345
黃庭	-8.96468
咒	-8.96583
祥	-8.96644
昇	-8.96668
蛇	-8.96669
冷	-8.96677
宅	-8.9678
案	-8.97179
無有	-8.97223
天仙	-8.97363
不動	-8.97372
不及	-8.97568
説	-8.97568
之炁	-8.97589
嶺	-8.97655
管	-8.97727
世間	-8.97767
闡	-8.97821
振	-8.97925
不同	-8.97929
還丹	-8.97954
也夫	-8.98094
干	-8.98182
巽	-8.9819
三元	-8.98487
里	-8.98504
悅	-8.98645
之象	-8.98829
賦	-8.98971
内外	-8.99078
係	-8.99088
是謂	-8.99182
纔	-8.99357
旁	-8.99373
潔	-8.99376
不必	-8.99415
之地	-8.99439
鄉	-8.99463
殘	-8.9947
防	-8.9969
趨	-8.9977
渡	-8.9978
觸	-8.99788
沐浴	-8.99851
循	-8.99896
贊	-8.9995
中之	-8.99993
雄	-9.00122
鐵	-9.00133
知其	-9.00178
蕩	-9.00269
述	-9.00331
這	-9.0045
恒	-9.00476
弱	-9.00526
十月	-9.00709
四時	-9.00837
染	-9.00844
壯	-9.00929
之際	-9.01143
淺	-9.0124
之說	-9.01248
沉	-9.0154
修行	-9.01581
亦有	-9.01691
之機	-9.01699
之神	-9.01721
龜	-9.01833
講	-9.02013
擊	-9.02013
地獄	-9.02033
鏡	-9.02077
不離	-9.02107
懼	-9.02142
瞻	-9.02209
之則	-9.02314
孰	-9.02365
赴	-9.02383
索	-9.02398
度人	-9.0248
欺	-9.0249
三稱	-9.02664
一身	-9.02703
梵	-9.02723
悔	-9.02724
吸	-9.02946
巨	-9.0296
市	-9.03006
兒	-9.03065
徐	-9.03076
遵	-9.03179
楚	-9.03259
彰	-9.0332
别	-9.0333
供	-9.03445
鼻	-9.03542
蒼	-9.0355
途	-9.03578
生於	-9.03628
晉	-9.03657
烈	-9.03772
而不知	-9.03779
答曰	-9.0378
神明	-9.03912
子孫	-9.03957
不在	-9.04019
大天尊	-9.04028
爲之	-9.04173
腹	-9.04291
吐	-9.04295
潛	-9.04362
冀	-9.04548
i	-9.04695
之内	-9.04751
神通	-9.04858
此言	-9.04876
伐	-9.04937
略	-9.05054
驅	-9.05085
際	-9.05178
派	-9.05179
道士	-9.05182
逸	-9.05191
狂	-9.05238
僞	-9.05303
角	-9.05379
底	-9.05414
之上	-9.05553
宇	-9.05554
豐	-9.05584
岸	-9.05718
冬	-9.05891
㪚	-9.05961
不生	-9.05988
烏	-9.06383
凡夫	-9.06385
晦	-9.06496
者有	-9.06784
祀	-9.06803
披	-9.0701
胡	-9.07054
先主	-9.07069
淡	-9.07161
愁	-9.07192
天之	-9.07261
漏	-9.07284
燭	-9.0729
祿	-9.07499
艮	-9.07577
天下之	-9.07738
罔	-9.07744
役	-9.07779
一人	-9.07806
營	-9.07826
將軍	-9.0783
未嘗	-9.0788
費	-9.07888
舒	-9.08017
古今	-9.0806
之體	-9.08102
夷	-9.08156
玉皇大天尊玄穹高上帝	-9.08302
牒	-9.08395
壞	-9.08397
燕	-9.08407
攻	-9.08447
北斗	-9.0849
泥	-9.08713
姓	-9.08751
湖	-9.08894
三教	-9.08906
之用	-9.08938
倚	-9.0901
謙	-9.09397
抑	-9.09418
錯	-9.09596
柳	-9.09802
無心	-9.09829
冲	-9.09912
聖賢	-9.09918
寓	-9.09958
仁義	-9.10275
云云	-9.10356
潤	-9.10593
其身	-9.10643
宏	-9.10802
蟲	-9.10818
慕	-9.1092
者皆	-9.1102
敷	-9.11105
三寶	-9.11269
嬰兒	-9.11321
化爲	-9.11359
也然	-9.11409
史	-9.1141
佐	-9.11459
馳	-9.11584
人能	-9.11589
鄕	-9.11595
澄	-9.11701
沙	-9.11829
爻	-9.11838
玉淸	-9.11883
程	-9.11898
園	-9.11961
自在	-9.12053
愼	-9.12076
淸靜	-9.12126
孔	-9.12146
惜	-9.1229
眞炁	-9.1231
覩	-9.12345
小人	-9.12373
人身	-9.12375
赦	-9.12441
妖	-9.1246
妻	-9.12617
瑞	-9.12675
霜	-9.12678
議	-9.12735
甲	-9.12791
隆	-9.1287
式	-9.12932
秦	-9.12978
混沌	-9.12999
圓滿	-9.13218
屋	-9.13314
責	-9.13322
之言	-9.1337
至道	-9.1343
蔽	-9.13484
之精	-9.13656
陵	-9.13724
滋	-9.13739
卑	-9.13774
名曰	-9.13902
分明	-9.13938
旡	-9.13985
麗	-9.14113
爲人	-9.14198
焚	-9.14238
辱	-9.14419
醫	-9.1449
謁	-9.14613
不以	-9.14636
孔子	-9.14738
未有	-9.14866
八卦	-9.14935
陸	-9.14954
天人	-9.15004
不如	-9.15037
然而	-9.1514
道者	-9.15561
是故	-9.15598
可見	-9.15618
刼	-9.15707
仲	-9.15719
液	-9.15759
尾	-9.15851
不用	-9.1599
也此	-9.16123
孔明	-9.16186
髮	-9.16194
苟	-9.16196
寡	-9.16205
滯	-9.16268
鮮	-9.1627
輝	-9.16275
無非	-9.1642
暮	-9.16451
弘	-9.16483
荒	-9.16516
輿	-9.16591
時時	-9.16631
陽神	-9.16772
博	-9.16804
)(	-9.1692
慾	-9.17061
痛	-9.17282
津	-9.17288
方能	-9.17305
藉	-9.17385
遭	-9.17393
僅	-9.17446
身中	-9.1759
解脫	-9.17597
等至心皈命禮願	-9.17669
算	-9.17684
繫	-9.17733
天心	-9.17746
答	-9.17836
邱	-9.17936
闕	-9.18118
停	-9.18355
錦	-9.18472
陶	-9.18529
象曰	-9.18542
墨	-9.18612
座	-9.18613
稽首	-9.18613
則爲	-9.18689
不明	-9.18698
短	-9.18739
鍾	-9.18759
殆	-9.18765
珍	-9.18809
賤	-9.1891
炎	-9.1893
亨	-9.18997
亦無	-9.19043
貌	-9.19053
勅	-9.19098
乞	-9.19121
穢	-9.19212
醒	-9.19301
植	-9.19375
侵	-9.19499
困	-9.19518
道也	-9.19526
舌	-9.19587
者非	-9.19649
衡	-9.19965
上淸	-9.19969
決	-9.20044
判	-9.20112
付	-9.20115
三年	-9.20319
白雲	-9.20362
卿	-9.20431
恨	-9.20442
顚倒	-9.20643
迴	-9.20788
屏	-9.20813
不然	-9.20895
有餘	-9.20969
至此	-9.21028
誅	-9.2122
認	-9.21266
也若	-9.21339
溺	-9.21432
者亦	-9.21453
元炁	-9.21563
衍	-9.21892
天機	-9.21972
樸	-9.21977
毛	-9.21998
元氣	-9.22023
彌	-9.22326
米	-9.22327
而不能	-9.22383
澗	-9.22411
匪	-9.22489
蓮	-9.22789
探	-9.22823
世之	-9.229
詣	-9.22998
肝	-9.23011
天上	-9.23094
闢	-9.23097
俯	-9.23195
人人	-9.23201
之初	-9.23275
男女	-9.23377
採取	-9.23433
雖有	-9.23846
韻	-9.23983
戲	-9.2399
至人	-9.2406
太陽	-9.2417
不是	-9.24174
快	-9.24318
箇	-9.24471
可謂	-9.24553
晨	-9.24733
皆是	-9.24743
者卽	-9.24775
閑	-9.24823
覓	-9.24872
進退	-9.24984
神氣	-9.25059
人生	-9.25121
訟	-9.25171
仗	-9.25223
賓	-9.25387
棲	-9.25449
監	-9.2546
豈不	-9.25472
敵	-9.256
毁	-9.25602
窺	-9.25635
爽	-9.2565
康	-9.25685
太和	-9.25735
彩	-9.25751
琴	-9.26015
支	-9.26029
丹田	-9.26055
酬	-9.26092
掃	-9.26198
嶽	-9.26399
缺	-9.26433
郡	-9.26443
佳	-9.26461
弟	-9.26477
勉	-9.26601
子等	-9.26663
禱	-9.26757
羊	-9.26778
叨	-9.26832
大帝	-9.26847
烹	-9.27096
牽	-9.27204
逍遙	-9.27254
擇	-9.27317
三十六	-9.27449
奚	-9.27451
不出	-9.27499
阿	-9.27586
一炁	-9.27903
宰	-9.27916
竭	-9.27926
嘉	-9.27939
夫人	-9.2798
歟	-9.28058
遙	-9.28061
吹	-9.28064
者曰	-9.2809
刀	-9.2823
而有	-9.28359
姑	-9.28363
綿	-9.284
梅	-9.28439
而得	-9.28491
雞	-9.28524
廬	-9.28601
愆	-9.28604
騰	-9.28764
耀	-9.28776
何如	-9.28795
寛	-9.28927
奔	-9.28941
5	-9.28974
範	-9.29119
有爲	-9.29143
拘	-9.29175
啓	-9.29282
趙	-9.29305
又有	-9.29505
沾	-9.29577
之外	-9.2965
騎	-9.29745
單	-9.29758
魯	-9.29821
削	-9.30161
賞	-9.30235
一事	-9.30254
吞	-9.30259
晝夜	-9.30269
響	-9.30391
者必	-9.30416
摩	-9.30591
鐘	-9.30601
遲	-9.30604
伸	-9.30632
晚	-9.30634
托	-9.3064
射	-9.30654
洗	-9.30656
霧	-9.30929
厲	-9.31044
豈非	-9.31084
贈	-9.31572
於人	-9.3181
寸	-9.31829
必須	-9.31956
穿	-9.3196
屈	-9.32083
培	-9.32249
玅	-9.32295
本無	-9.32332
皆有	-9.32334
允	-9.32409
玉皇	-9.32431
佑	-9.32667
只是	-9.32711
蘭	-9.32782
行之	-9.32938
元精	-9.32982
之德	-9.33071
商	-9.33156
弄	-9.33285
古人	-9.33287
茂	-9.3329
潭	-9.33304
不言	-9.33386
又何	-9.33455
眞鉛	-9.33482
肆	-9.33658
倒	-9.33692
枉	-9.33699
畧	-9.33755
而能	-9.33947
足以	-9.34188
磨	-9.34304
呈	-9.34571
篤	-9.3464
只在	-9.34708
元君	-9.34769
曜	-9.34791
舞	-9.3495
個	-9.34978
修眞	-9.35052
阻	-9.35054
藥物	-9.35058
旺	-9.35082
太乙	-9.35086
歡	-9.3514
煩	-9.35341
善惡	-9.35506
出於	-9.3552
捨	-9.35544
一氣	-9.35546
委	-9.35871
編	-9.35939
䖍	-9.36084
添	-9.36135
莫不	-9.36136
無邊	-9.36181
翼	-9.36245
趣	-9.36281
搖	-9.36292
曰吾	-9.36332
肺	-9.3636
武侯	-9.36396
西南	-9.36405
撫	-9.36428
策	-9.36447
憐	-9.36465
夕	-9.36615
疎	-9.36812
以其	-9.36822
飯	-9.36853
而下	-9.37064
京	-9.37079
翻	-9.37227
何處	-9.37252
人物	-9.37265
不死	-9.37309
奸	-9.37309
之下	-9.37436
此經	-9.37547
擾	-9.37589
又云	-9.37749
給	-9.37787
无	-9.37983
萌	-9.3809
不成	-9.38107
知之	-9.38176
靖	-9.38244
鑄	-9.38266
碑	-9.38312
三千	-9.3832
篆	-9.38356
殃	-9.38566
之旨	-9.38601
至尊	-9.38605
故能	-9.38607
繁	-9.38655
亦可	-9.38731
萬神	-9.38763
旁門	-9.38822
未能	-9.38859
凝神	-9.38905
而自	-9.38931
妙道	-9.39059
世界	-9.39084
智慧	-9.39126
偕	-9.39176
厭	-9.39244
飛昇	-9.3932
黃帝	-9.39598
迹	-9.3966
玉女	-9.39747
化天尊大悲	-9.40044
此時	-9.40062
打	-9.4008
唱	-9.40154
屢	-9.40155
誕	-9.40246
獄	-9.40272
不信	-9.4033
桃	-9.40379
肉	-9.40496
泛	-9.40532
遽	-9.40556
戀	-9.40569
鑿	-9.4058
續	-9.40582
村	-9.40649
元帥	-9.40681
因緣	-9.40746
若有	-9.40767
儉	-9.40788
顚	-9.41085
以來	-9.41093
暫	-9.41157
流行	-9.41244
方可	-9.41322
之道也	-9.41384
三才	-9.41442
於心	-9.41465
鉛汞	-9.415
雅	-9.41523
洩	-9.41831
紛	-9.41861
脈	-9.41941
歎	-9.41981
罷	-9.42027
玄關	-9.42096
死生	-9.42484
蘇	-9.42515
二十四	-9.42697
其神	-9.4283
拂	-9.42953
祭	-9.42954
一陽	-9.4302
經云	-9.43184
刧	-9.43234
芳	-9.43282
升降	-9.43306
丁	-9.43362
肯	-9.43418
剝	-9.4347
此道	-9.43517
捐	-9.43555
藴	-9.43605
卜	-9.43642
胎息	-9.43739
之門	-9.43874
韓	-9.43998
蓬萊	-9.44004
黃芽	-9.4403
物之	-9.44098
祝	-9.44175
周天	-9.44231
併	-9.44307
則不	-9.44341
緩	-9.44416
詠	-9.44478
或有	-9.44532
於天	-9.44577
孽	-9.44634
導	-9.44755
𡨚	-9.44789
吾身	-9.44806
綱	-9.44865
無事	-9.44925
湯	-9.44967
崑崙	-9.44989
K	-9.44989
歸於	-9.45132
由是	-9.4515
萬里	-9.4524
妙用	-9.45245
矜	-9.45354
自得	-9.45385
何爲	-9.4539
盟	-9.45441
雷霆	-9.4548
五臟	-9.4548
菩薩	-9.45518
荷	-9.4552
桂	-9.45656
奈何	-9.45918
垣	-9.4593
杖	-9.4595
R	-9.45989
託	-9.45998
幼	-9.46284
晝	-9.46348
葛	-9.4641
嘆	-9.46433
掩	-9.46437
飾	-9.46474
揭	-9.46504
眞陽	-9.46701
者爲	-9.46704
限	-9.46746
穀	-9.4684
之所以	-9.46861
此是	-9.4687
草木	-9.46892
齒	-9.46937
耗	-9.46942
鑑	-9.46944
猛	-9.4695
蒙	-9.46968
宇宙	-9.46981
風雨	-9.46991
涉	-9.47056
此身	-9.47089
後世	-9.47165
霄	-9.47204
鴻	-9.47388
倫	-9.47408
恬	-9.47442
玄玄	-9.4749
孚	-9.47581
而行	-9.47633
爲一	-9.47635
見其	-9.4777
之類	-9.4779
萬象	-9.47846
而言	-9.47918
羣生	-9.48133
西方	-9.48171
虧	-9.48202
偈	-9.48208
謬	-9.48329
咎	-9.48377
戴	-9.48383
修道	-9.48445
以成	-9.48511
邑	-9.48516
輪迴	-9.48534
寵	-9.48553
到此	-9.4867
東南	-9.48716
網	-9.48769
倘	-9.48775
眞經	-9.48942
之名	-9.48955
春秋	-9.49026
牧	-9.49048
厄	-9.49129
郭	-9.49307
閱	-9.49504
與人	-9.49505
忌	-9.49515
沐	-9.49518
祕	-9.49551
司命	-9.49711
功成	-9.49925
百日	-9.49959
族	-9.49989
修煉	-9.5004
不求	-9.50058
占	-9.50082
漫	-9.50109
三十	-9.50157
不善	-9.50163
躬	-9.50226
呂	-9.50241
日直	-9.50286
不息	-9.50308
階	-9.50336
也蓋	-9.50337
大丹	-9.5037
神光	-9.50396
老子	-9.50397
耕	-9.50559
入道	-9.50662
夫子	-9.50681
之謂也	-9.50742
者乎	-9.50802
神室	-9.50846
眞空	-9.50951
運用	-9.50952
軒	-9.51074
預	-9.51111
禽	-9.51152
曷	-9.51171
班	-9.5122
誓	-9.51241
男子	-9.51278
無常	-9.5134
汝等	-9.51409
下手	-9.51546
晴	-9.51561
寅	-9.51582
第二	-9.51591
冰	-9.51604
慢	-9.51621
道君	-9.51657
動而	-9.51709
道法	-9.52015
仙道	-9.521
何謂	-9.52236
天眞	-9.52299
逃	-9.52387
不易	-9.52513
脩	-9.52565
各有	-9.52566
一曰	-9.52613
衆	-9.52624
大洞	-9.52626
季	-9.52649
抽	-9.52692
一年	-9.52713
成就	-9.52763
則知	-9.5288
温養	-9.52941
此章	-9.53034
席	-9.53062
不聞	-9.53124
用之	-9.53151
四方	-9.53192
讓	-9.53347
之本	-9.53394
莫能	-9.53495
後人	-9.53576
忠孝	-9.5379
砂	-9.53991
畜	-9.54136
稽	-9.54148
無礙	-9.54312
則無	-9.54471
審	-9.54516
顏	-9.54528
玉京	-9.54605
若能	-9.54609
不相	-9.54617
如來	-9.5465
曠	-9.54853
萬世	-9.54871
萬古	-9.55076
天尊大悲大	-9.551
得此	-9.5512
其實	-9.5524
不自	-9.55267
仙翁	-9.55301
征	-9.5539
郎	-9.55418
玩	-9.55435
衝	-9.55452
囊	-9.55463
減	-9.55517
一名	-9.55521
玉清	-9.55535
辯	-9.55579
鬱	-9.55605
中央	-9.55701
譽	-9.55851
懴	-9.55885
億	-9.55909
之物	-9.55911
矣然	-9.55947
濳	-9.55981
戶	-9.56045
飄	-9.56085
之罪	-9.56139
卧	-9.56196
孟	-9.56292
人事	-9.56295
眞意	-9.5635
激	-9.56474
臻	-9.56493
協	-9.56554
介	-9.56638
暢	-9.56731
呂帝	-9.56798
卯	-9.56835
其道	-9.56849
太陰	-9.57
不覺	-9.57086
皈依	-9.5711
旦	-9.57112
北方	-9.57149
有一	-9.57219
萬劫	-9.57348
能知	-9.57368
恃	-9.57411
長存	-9.57441
下降	-9.57453
子曰	-9.57504
辟	-9.57678
眉	-9.57685
者不	-9.57713
卽此	-9.57917
人所	-9.58014
之始	-9.5804
仙家	-9.58098
十五	-9.5816
以致	-9.58172
可知	-9.5824
成眞	-9.58404
三淸	-9.58416
酉	-9.58605
築	-9.58645
消息	-9.58749
罰	-9.58763
郤	-9.58769
尺	-9.58771
獸	-9.58771
標	-9.5878
屯	-9.58783
神炁	-9.58806
聯	-9.58815
爲主	-9.58844
寫	-9.58881
者以	-9.58915
山中	-9.59102
而去	-9.5922
入於	-9.59233
以至	-9.59238
没	-9.59256
禹	-9.59278
展	-9.59295
嬰	-9.59296
饑	-9.593
繞	-9.59322
彭	-9.59337
輒	-9.5935
不識	-9.59417
互	-9.59421
人有	-9.59421
髓	-9.59455
誥	-9.59565
粗	-9.59755
蕭	-9.5981
泄	-9.59846
女子	-9.59887
礙	-9.59895
氷	-9.59952
諭	-9.59953
四象	-9.6003
千里	-9.6008
皈	-9.60104
段	-9.6016
擁	-9.60276
眞精	-9.6028
之要	-9.60286
函	-9.6041
之數	-9.60541
層	-9.6057
而已矣	-9.60586
精氣	-9.60627
神咒	-9.60635
北極	-9.60752
不失	-9.60784
之處	-9.60962
方得	-9.61066
尸	-9.6111
a	-9.61114
換	-9.61115
樞	-9.61202
者乃	-9.61491
躍	-9.61587
欽	-9.61588
說法	-9.61651
側	-9.61678
逼	-9.61678
體天尊大悲	-9.6173
靡	-9.61737
茶	-9.61739
不足以	-9.61839
是經	-9.61895
燒	-9.61897
夫婦	-9.61969
割	-9.61978
之術	-9.62082
歛	-9.62179
處處	-9.62209
枕	-9.62233
口訣	-9.62382
得之	-9.62571
安能	-9.62612
乳	-9.6265
塗	-9.62696
東方	-9.62722
决	-9.62732
隙	-9.6283
擬	-9.6288
使人	-9.63001
切念	-9.63065
馭	-9.63085
德天尊大悲	-9.63143
一生	-9.63228
性情	-9.63308
有此	-9.6332
終身	-9.63348
誦經	-9.63381
譬如	-9.63462
兄	-9.63495
赤子	-9.63523
有無	-9.63606
帝子	-9.63665
必先	-9.63681
終日	-9.63717
煥	-9.6382
垢	-9.63824
禍福	-9.63859
圍	-9.63882
𤣥	-9.63972
第三	-9.63986
生人	-9.63996
靈光	-9.64012
飽	-9.6402
杜	-9.64025
𤍠	-9.64025
睡	-9.64037
覽	-9.64058
船	-9.64102
於外	-9.64151
祗	-9.64179
先天之	-9.64204
庶幾	-9.64237
凡人	-9.64491
九轉	-9.64535
壑	-9.64604
也故曰	-9.64604
恍惚	-9.64637
魂魄	-9.64745
耳目	-9.64759
而不可	-9.64983
凌	-9.65039
人皆	-9.65063
芝	-9.65082
三品	-9.65161
南方	-9.65166
詐	-9.65244
虞	-9.65271
二十	-9.65345
天子	-9.6545
不肯	-9.65494
教人	-9.65557
抵	-9.65575
丹成	-9.6564
所云	-9.65666
甫	-9.65838
主宰	-9.65946
墜	-9.66184
在上	-9.66273
選	-9.6631
沒	-9.66332
其間	-9.66381
無可	-9.66393
不已	-9.6641
㝠	-9.66447
洲	-9.66456
孕	-9.66462
籙	-9.66463
朋	-9.66515
何也	-9.66518
稟	-9.66528
兄弟	-9.66541
輩	-9.66622
嗟	-9.66634
同前	-9.66747
成功	-9.66751
童子	-9.66765
傍	-9.66853
眞性	-9.66855
普度	-9.6698
蓄	-9.6708
圓明	-9.67086
其德	-9.67094
修持	-9.67109
籠	-9.67117
牢	-9.67137
夙	-9.6727
方是	-9.67324
丹經	-9.67331
無盡	-9.67369
天理	-9.67376
諸葛	-9.67432
敦	-9.6744
農	-9.67448
問曰	-9.6746
之眞	-9.67461
眞氣	-9.67492
一言	-9.6753
山川	-9.67565
煞	-9.67667
以上	-9.67668
三天	-9.67706
佩	-9.67714
聖人之	-9.67719
也今	-9.67726
g	-9.67741
電	-9.67743
頗	-9.67746
有形	-9.67772
岡	-9.67806
朔	-9.67895
若不	-9.68012
廣大	-9.68129
千古	-9.68181
既	-9.68297
之至	-9.68313
值	-9.68334
叔	-9.68346
靑城	-9.68388
究竟	-9.68398
一物	-9.68455
結成	-9.68505
至誠	-9.68626
者是	-9.68682
生成	-9.68702
溢	-9.6875
其形	-9.6885
庫	-9.68857
材	-9.68867
上升	-9.68895
灰	-9.68897
矣故	-9.68924
憶	-9.68967
僕	-9.68977
鬬	-9.68983
胥	-9.68985
捧	-9.6903
法象	-9.69039
五帝	-9.69048
猿	-9.69103
亦非	-9.6912
較	-9.69193
校	-9.69247
剛柔	-9.6929
你	-9.69376
一片	-9.69473
庚	-9.69482
后	-9.695
拱	-9.69532
剖	-9.69641
三五	-9.69645
擒	-9.6965
於中	-9.6972
庇	-9.69759
者其	-9.69785
昭烈	-9.69794
總是	-9.69851
上天	-9.70004
爾等	-9.70064
吾道	-9.70142
競	-9.70146
䕶	-9.70167
宴	-9.70199
暑	-9.70228
不勝	-9.7025
頻	-9.70251
寒暑	-9.70265
眠	-9.70268
抽添	-9.70286
黨	-9.7029
泣	-9.70301
奉道	-9.70459
金液	-9.70478
修身	-9.70533
太平	-9.70588
聰	-9.70603
不復	-9.70612
自己	-9.70689
嵗	-9.70912
岳	-9.70913
不盡	-9.71213
辛	-9.71257
腸	-9.71281
無知	-9.71398
誘	-9.71488
尚	-9.71573
守之	-9.71672
無私	-9.7197
洞天	-9.72036
一旦	-9.72115
循環	-9.72232
天門	-9.72281
上有	-9.72323
不知其	-9.7235
之境	-9.72387
正道	-9.72487
禳	-9.72567
豈知	-9.72591
功行	-9.72607
玄妙	-9.72644
毫	-9.72668
妙法	-9.72718
話	-9.72747
檢	-9.72756
窗	-9.72875
銅	-9.72881
副	-9.72884
安得	-9.72895
不受	-9.72917
失其	-9.72959
水中	-9.72989
所言	-9.73081
之極	-9.73128
邀	-9.73133
黃金	-9.73358
飮	-9.73428
鋒	-9.73485
巢	-9.73509
上眞	-9.73744
茅	-9.73796
大小	-9.73856
頃	-9.73909
在人	-9.73945
涵	-9.74068
污	-9.74135
此理	-9.74136
救苦	-9.74161
肩	-9.74184
大法	-9.74196
古之	-9.74315
此一	-9.74323
服食	-9.74484
湛	-9.74518
讀書	-9.74565
堯	-9.74612
矢	-9.74647
諱	-9.74652
而非	-9.74659
得一	-9.74668
癡	-9.74753
束	-9.74787
瑤	-9.74822
嫌	-9.74843
盧	-9.74847
不可不	-9.74848
之情	-9.74888
頒	-9.7508
我之	-9.75179
世尊	-9.75274
太淸	-9.7528
蓬	-9.75294
以下	-9.75298
十八	-9.75305
六合	-9.75402
採藥	-9.75411
恆	-9.75476
之性	-9.75484
【	-9.75512
買	-9.75545
在我	-9.7557
成道	-9.75664
接引	-9.75748
也非	-9.75876
三日	-9.76
高眞	-9.7603
不壞	-9.76048
革	-9.76068
播	-9.76158
心印	-9.76161
絲	-9.76167
十年	-9.76242
曰此	-9.76243
懇	-9.76266
眞火	-9.76271
紙	-9.76404
以求	-9.7648
混合	-9.76488
中黃	-9.76504
當其	-9.7657
往往	-9.76634
利益	-9.76655
之日	-9.76728
廉	-9.76754
符命	-9.7677
西北	-9.76802
等伏聞	-9.76851
蒸	-9.76855
討	-9.76914
之象也	-9.76962
一一	-9.77048
一粒	-9.7709
終始	-9.77184
躁	-9.77207
灌	-9.77301
萬物之	-9.77328
始終	-9.77338
上聖	-9.77347
法門	-9.77394
一個	-9.77437
噫	-9.77438
無名	-9.77458
無所不	-9.77465
瘟	-9.77483
弊	-9.77511
宻	-9.77538
前後	-9.7755
萬化	-9.77604
聞之	-9.77619
聰明	-9.77746
其人	-9.77755
兩儀	-9.77758
脾	-9.77822
若是	-9.77895
令人	-9.779
亥	-9.77997
眞土	-9.78173
酆都	-9.78183
禀	-9.78209
大悲大願大聖大慈	-9.7823
天君	-9.78237
甘露	-9.78257
巾	-9.78277
金水	-9.78318
十六	-9.78403
不忍	-9.78465
心中	-9.78526
天帝	-9.78544
合一	-9.78603
之先	-9.78608
雖然	-9.78728
圓通	-9.78748
明明	-9.78799
排	-9.78812
奠	-9.7886
謗	-9.78866
灑	-9.78912
常存	-9.78958
及其	-9.78986
腳	-9.79
七日	-9.79043
綿綿	-9.79047
一息	-9.79067
視之	-9.79097
也其	-9.79123
愧	-9.79183
夾	-9.79214
無方	-9.79216
相與	-9.79223
其氣	-9.79239
無人	-9.79312
卓	-9.79522
在天	-9.7954
我今	-9.79549
乖	-9.79569
愿	-9.79579
襲	-9.79618
矣夫	-9.79625
東北	-9.7966
無聲	-9.79792
卽有	-9.79803
五十	-9.79856
民之	-9.79892
配合	-9.79928
在於	-9.79997
上元	-9.8007
不容	-9.80125
文字	-9.80163
鄭	-9.80219
需	-9.80249
伊	-9.80273
踰	-9.80286
吕	-9.80291
館	-9.80308
裂	-9.80345
皮	-9.80365
賣	-9.80401
不悟	-9.80403
至今	-9.80451
五色	-9.80507
三者	-9.80528
靜而	-9.80587
有心	-9.80686
眞息	-9.80707
驕	-9.80742
倍	-9.80758
殷	-9.81043
混元	-9.81098
名利	-9.81155
大定	-9.81262
五老	-9.81362
無以	-9.81364
頑	-9.81374
空空	-9.81418
怠	-9.8145
豫	-9.81485
眞仙	-9.815
片	-9.81501
漁	-9.8156
養氣	-9.81613
神化	-9.81685
明月	-9.81703
○○○	-9.81712
鄙	-9.81716
葬	-9.81757
跨	-9.81759
之念	-9.81898
非有	-9.82021
人道	-9.82033
之候	-9.82147
大真君	-9.82225
先後	-9.82248
之根	-9.82317
不外	-9.82339
求之	-9.82379
君臣	-9.82409
眞符	-9.82412
眞心	-9.82435
六根	-9.82479
成仙	-9.82485
墓	-9.82503
捉	-9.82544
嗚呼	-9.82544
中宫	-9.82549
人之所	-9.8255
金精	-9.8258
矣故曰	-9.82669
莊	-9.82757
玉虛	-9.82781
金華	-9.82799
功名	-9.83086
度世	-9.83129
膺	-9.83239
柱	-9.8333
方便	-9.83348
大眾	-9.83411
奥	-9.83454
觀其	-9.83462
沖	-9.83474
一元	-9.83483
四海	-9.83483
潮	-9.83535
行持	-9.83588
爲善	-9.83654
歸根	-9.83677
大真人	-9.83752
悃	-9.83776
由此	-9.83858
須知	-9.83874
貨	-9.8389
逝	-9.83899
煩惱	-9.83908
明日	-9.83917
該	-9.83926
山水	-9.83929
紫微	-9.83954
悖	-9.83956
湻	-9.83961
文章	-9.8403
飲食	-9.84079
蠻	-9.84143
嘯	-9.84192
緒	-9.84203
司馬	-9.84286
一箇	-9.84337
不免	-9.84423
奮	-9.84542
繩	-9.84563
爾時	-9.84582
舜	-9.84628
遁	-9.84635
哭	-9.84641
菩提	-9.84662
𨚫	-9.84664
禮樂	-9.84675
糧	-9.84696
相傳	-9.84707
踏	-9.84714
若無	-9.8472
芒	-9.84733
玄牝	-9.84735
中間	-9.8475
東西	-9.84757
後學	-9.84819
域	-9.84892
築基	-9.84915
奉行	-9.84988
之苦	-9.85065
爵	-9.8507
遯	-9.85314
膏	-9.85316
酌	-9.85329
於道	-9.85369
使者	-9.85413
淸虛	-9.85519
更有	-9.85587
詩曰	-9.85619
其功	-9.85814
而出	-9.85847
使之	-9.86044
旅	-9.8605
僻	-9.86087
奧	-9.86117
真人	-9.86123
掛	-9.86148
疫	-9.86151
苗	-9.86162
四大	-9.86259
而實	-9.8628
主者	-9.86348
以生	-9.86362
撥	-9.86864
邦	-9.86882
魁	-9.86887
寢	-9.86902
例	-9.86906
筵	-9.86929
徙	-9.86942
以後	-9.87151
不欲	-9.87171
測	-9.87237
神功	-9.87253
開化	-9.87318
大羅	-9.87354
蹈	-9.87522
俟	-9.87557
其性	-9.87579
三官	-9.87606
忿	-9.87613
金仙	-9.87627
一字	-9.87695
方寸	-9.87847
丹道	-9.88021
運行	-9.88047
故有	-9.88059
文昌	-9.88136
健	-9.88173
法界	-9.88212
人者	-9.88216
吾心	-9.88272
惟有	-9.88289
祇	-9.8835
其事	-9.88367
峻	-9.88367
銷	-9.88395
肇	-9.88417
憫	-9.88424
此爲	-9.88447
拒	-9.8845
偈曰	-9.88579
精微	-9.88586
不與	-9.88614
白虎	-9.88646
化身	-9.88697
本性	-9.88712
之恩	-9.88846
人知	-9.88956
見之	-9.88959
而上	-9.88975
箕	-9.89039
一體	-9.89071
鹿	-9.8911
巍巍	-9.8919
熙	-9.89211
物也	-9.89214
如意	-9.89215
粉	-9.89235
名山	-9.89307
方知	-9.89341
而至	-9.8944
一理	-9.89442
詩云	-9.89457
三關	-9.89513
念念	-9.89526
此乃	-9.89591
尊經	-9.89619
消災	-9.89639
五方	-9.89721
名爲	-9.89721
興行妙道天尊	-9.89723
學道者	-9.89737
荆	-9.8975
自是	-9.89766
一毫	-9.89844
本命	-9.89863
萃	-9.89945
蒲	-9.89979
人情	-9.89981
犬	-9.90022
乎其	-9.90063
生生	-9.90085
丈人	-9.90099
周流	-9.90143
勳	-9.90197
莊子	-9.90245
矣此	-9.90252
是時	-9.90298
眞靈	-9.9033
學人	-9.9039
誣	-9.90401
百年	-9.90446
内有	-9.90469
督	-9.9057
他人	-9.90643
社	-9.90657
全在	-9.90662
鄰	-9.90672
桑	-9.90675
瞋	-9.9069
矯	-9.90692
只要	-9.90692
臂	-9.90721
銘	-9.90754
饒	-9.90776
崩	-9.90785
成都	-9.90842
人以	-9.90918
豈有	-9.90969
與道	-9.91018
豈能	-9.9111
可也	-9.91173
果能	-9.91307
翳	-9.91424
淚	-9.91501
瀆	-9.91502
蹟	-9.91512
旛	-9.91525
西山	-9.91527
埋	-9.9155
麟	-9.91557
幹	-9.9157
心心	-9.9158
眞實	-9.91641
空中	-9.917
平日	-9.91751
存想	-9.91822
顔	-9.91823
何所	-9.91854
頌	-9.91902
次第	-9.9191
者則	-9.92003
之誠	-9.92015
局	-9.92108
之患	-9.92157
有道	-9.92175
整	-9.92243
萬靈	-9.92245
敝	-9.923
天命	-9.92309
】	-9.92346
心不	-9.92373
知此	-9.92473
紫府	-9.9251
煉丹	-9.92536
三月	-9.92612
存心	-9.92674
無象	-9.92687
不忘	-9.92805
爲用	-9.92882
主人	-9.92907
此卽	-9.9292
我身	-9.92934
化生	-9.92962
不待	-9.92979
當時	-9.93
於内	-9.93034
攸	-9.93041
優	-9.93072
采	-9.93144
雁	-9.93157
千年	-9.93163
何人	-9.93208
淪	-9.93213
至眞	-9.93295
而來	-9.93346
之學	-9.93502
下土	-9.93525
第四	-9.93559
眞元	-9.93598
言語	-9.93603
皆由	-9.93618
本體	-9.93622
苦海	-9.93695
之分	-9.93734
然則	-9.93871
冒	-9.93882
隊	-9.93901
遐	-9.93925
浸	-9.93933
援	-9.93946
紛紛	-9.93963
駐	-9.93976
作用	-9.94032
而歸	-9.94079
無物	-9.94147
不著	-9.94149
此章言	-9.94241
亦是	-9.94322
妄想	-9.94354
與天	-9.94355
尙有	-9.94415
太𡻕	-9.94453
警	-9.94488
元始天尊	-9.94497
山林	-9.945
故云	-9.94513
臍	-9.94541
曹仙官	-9.94558
之憂	-9.94566
蓮花	-9.94569
戾	-9.94651
於物	-9.94672
濕	-9.94712
仕	-9.94714
鱗	-9.9472
有何	-9.94732
挽	-9.94744
逕	-9.9477
久之	-9.94773
無間	-9.94777
英雄	-9.94815
善人	-9.94821
三丰	-9.94825
反覆	-9.94944
文王	-9.94957
而復	-9.9499
第五	-9.95013
玉液	-9.95031
吉凶	-9.95045
三光	-9.95082
至矣	-9.95211
不止	-9.95278
好生	-9.95282
時有	-9.95319
所居	-9.95412
氣之	-9.95419
絡	-9.95441
榜	-9.95464
拯	-9.95502
言其	-9.95538
姿	-9.95546
苑	-9.95556
畔	-9.95572
懿	-9.95593
撰	-9.95593
此中	-9.95612
倉	-9.95616
未必	-9.95622
未得	-9.95624
傅	-9.95629
若夫	-9.9564
報應	-9.95714
在心	-9.95737
自此	-9.95826
分別	-9.95864
姤	-9.95874
發明	-9.95878
金光	-9.95949
弦	-9.96023
十四	-9.96037
陰陽之	-9.96156
奈	-9.96301
夭	-9.96352
一聲	-9.96384
當知	-9.96435
微妙	-9.96454
下民	-9.96501
道心	-9.96529
眾人	-9.96559
見性	-9.9658
之身	-9.9661
無益	-9.96666
可得	-9.96697
山之	-9.968
靜坐	-9.96827
妙行	-9.96979
之火	-9.97043
叅	-9.9706
一般	-9.97078
而入	-9.97097
聖眞	-9.97138
是名	-9.97141
眷	-9.97156
誇	-9.97211
入定	-9.97266
要知	-9.9734
吾今	-9.97346
生天	-9.97457
諦	-9.97475
南北	-9.97479
疾病	-9.97581
則神	-9.97585
仙人	-9.97661
有大	-9.97726
上昇	-9.9775
須要	-9.97838
會合	-9.97841
欲求	-9.97841
世上	-9.97862
何不	-9.97864
延生	-9.9788
焦	-9.97935
宥	-9.9795
壘	-9.97985
䧟	-9.98058
金石	-9.98122
靈臺	-9.98164
是以聖人	-9.98256
九皇	-9.98267
其志	-9.98314
子午	-9.98322
不二	-9.98343
金剛	-9.98347
斜	-9.98383
大地	-9.98439
不思	-9.98464
爲天下	-9.98545
準	-9.98615
其用	-9.98748
我心	-9.98807
竈	-9.98828
守其	-9.9886
低	-9.98881
神靈	-9.98939
旗	-9.98976
與物	-9.98997
不起	-9.99026
全眞	-9.99115
在乎	-9.99381
其言	-9.99402
爐鼎	-9.99454
首領	-9.99491
欣	-9.99496
平安	-9.9955
丞相	-9.9961
者何	-9.99613
旱	-9.99671
陀	-9.99673
感應	-9.99699
佈	-9.99736
産	-9.99751
陋	-9.99757
𣺌	-9.99762
禦	-9.99772
梯	-9.99806
黃婆	-9.99813
仇	-9.99827
拙	-9.99834
此皆	-9.99874
洞玄	-9.99932
之主	-10.001
不行	-10.0013
恥	-10.0023
精氣神	-10.0027
二物	-10.0042
嗜	-10.0046
必要	-10.0048
至寶	-10.0051
天師	-10.0053
偉	-10.0059
慘	-10.0061
化神	-10.0062
事事	-10.0092
雍	-10.0094
猶有	-10.0099
修鍊	-10.0101
陰符	-10.0105
神王	-10.0112
也又	-10.0115
牝	-10.0119
握	-10.012
正一	-10.0123
調和	-10.0125
胞	-10.0125
天王	-10.013
玉光	-10.013
眞一	-10.0133
庥	-10.0142
邇	-10.0144
覔	-10.0147
忽然	-10.0149
忙	-10.0152
遜	-10.0153
侮	-10.0153
敘	-10.0154
突	-10.0154
超昇	-10.0164
之故	-10.0171
週	-10.0171
九幽	-10.0182
而神	-10.0185
二炁	-10.0188
東嶽	-10.0196
其理	-10.0196
渾然	-10.0199
聖天尊大悲	-10.0204
貴賤	-10.0215
准	-10.0216
法身	-10.0222
宵	-10.0223
確	-10.0225
無他	-10.0227
號曰	-10.0231
窟	-10.0232
瑩	-10.0233
屠	-10.0235
譬	-10.0236
戎	-10.0237
貽	-10.0239
踪	-10.0241
高明	-10.0261
莫測	-10.0267
八百	-10.0275
大神	-10.0275
玄元	-10.0299
之路	-10.031
純陽妙道天尊	-10.0317
盲	-10.0317
若此	-10.0318
態	-10.032
萬法	-10.0321
〓	-10.0323
齡	-10.0325
咽	-10.0326
大事	-10.0327
豪	-10.033
碎	-10.0331
瑶	-10.0333
牙	-10.0335
八陣	-10.0341
中天	-10.0355
有功	-10.0356
而止	-10.0357
不入	-10.0358
發生	-10.0369
而又	-10.0373
四十	-10.0373
其下	-10.0376
乾元	-10.0383
仙眞	-10.0383
不可得而	-10.039
之志	-10.0391
臥	-10.0393
揮	-10.0403
矣而	-10.0403
凉	-10.0408
中正	-10.0415
之前	-10.0415
堯舜	-10.0415
裕	-10.0417
三百六十	-10.0418
靜中	-10.0429
丸	-10.0431
金木	-10.0432
丑	-10.0438
罡	-10.0438
無定	-10.0445
者言	-10.0452
一二	-10.0453
人當	-10.0456
堅固	-10.0457
數十	-10.046
東華	-10.0464
證果	-10.0472
此之謂	-10.0476
自生	-10.0478
也吾	-10.0482
所有	-10.0483
湧	-10.0485
非眞	-10.049
恤	-10.0496
躋	-10.0503
出世	-10.0505
膽	-10.0505
遞	-10.0506
范	-10.0507
輙	-10.0508
合道	-10.0508
釣	-10.0509
之文	-10.0525
曰我	-10.0525
一家	-10.0545
日用	-10.0547
脉	-10.055
土地	-10.0555
與之	-10.0561
千萬	-10.0567
聖胎	-10.0568
壺	-10.0572
迨	-10.0577
不得不	-10.0578
不合	-10.0582
蔭	-10.0588
一月	-10.0592
恣	-10.0595
蟻	-10.0598
縁	-10.0599
祟	-10.06
摧	-10.06
一道	-10.061
有三	-10.0615
南陽	-10.0617
也卽	-10.0617
何必	-10.0617
浩浩	-10.0621
七祖	-10.0621
延年	-10.0624
場	-10.0627
養性	-10.0633
此等	-10.064
吾之	-10.065
奢	-10.0652
而化	-10.0655
者如	-10.0659
日日	-10.0661
仙師	-10.0662
芽	-10.0669
鍊丹	-10.067
些	-10.0671
皓	-10.0672
相生	-10.0674
衷	-10.0675
粟	-10.0679
至心皈命禮	-10.0681
暖	-10.0688
洽	-10.0688
誡	-10.0688
渠	-10.0689
技	-10.0691
恕	-10.0692
姹女	-10.0693
伴	-10.0693
爲眞	-10.0697
行道	-10.0699
焚香	-10.0704
焉能	-10.0708
乃是	-10.072
無欲	-10.0722
而反	-10.0739
一朝	-10.074
易曰	-10.0757
葆	-10.0767
太一	-10.0772
之靈	-10.0773
門下	-10.0775
撓	-10.0778
雀	-10.0778
溥	-10.0778
踵	-10.078
憲	-10.0785
昊天	-10.0786
精炁	-10.0802
生而	-10.0804
罵	-10.0806
諸葛亮	-10.0807
形容	-10.0828
未有不	-10.083
十里	-10.0842
太玄	-10.0844
承誥奉行	-10.0854
與我	-10.0859
針	-10.0865
不從	-10.0867
几	-10.087
在此	-10.087
浴	-10.0871
三分	-10.0871
三百	-10.0873
魅	-10.0874
鼠	-10.0876
縮	-10.0876
餐	-10.0877
相通	-10.0877
抛	-10.088
鞭	-10.088
盗	-10.0881
攺	-10.0883
風雲	-10.0887
交媾	-10.0895
有象	-10.0899
妻子	-10.09
自已	-10.0904
十三	-10.0912
老君	-10.0924
腰	-10.0926
四字	-10.0934
不若	-10.0934
大夫	-10.0942
一句	-10.0947
始於	-10.0953
飢	-10.0965
璧	-10.0965
遥	-10.0965
淮	-10.0966
斂	-10.0966
而死	-10.0968
尾閭	-10.097
成丹	-10.0971
摇	-10.0971
帥	-10.0973
刀圭	-10.0973
遮	-10.0973
暉	-10.0975
不當	-10.0975
百姓	-10.0976
生機	-10.098
從事	-10.0984
二年	-10.0987
二氣	-10.0993
之子	-10.0995
鼎器	-10.0996
白雪	-10.0998
昭昭	-10.1002
殊不知	-10.1003
思慮	-10.1013
得失	-10.1015
二者	-10.102
多少	-10.1021
在下	-10.1022
同於	-10.1027
大德	-10.1028
呂祖	-10.1032
乙	-10.1041
天根	-10.1043
歧	-10.1055
吝	-10.1061
翔	-10.1062
薰	-10.1063
灾	-10.1063
攜	-10.1064
截	-10.1068
區	-10.1069
自知	-10.107
叛	-10.1071
此則	-10.1082
紅塵	-10.1086
坦	-10.1091
萬年	-10.1094
中元	-10.1098
金玉	-10.1099
荆州	-10.1101
生者	-10.111
之力	-10.1116
於世	-10.1129
可爲	-10.113
念頭	-10.1138
於上	-10.114
無二	-10.1142
有情	-10.1143
寂滅	-10.1143
持誦	-10.1144
淸明	-10.1149
玄機	-10.1149
哲	-10.1151
峙	-10.1152
敏	-10.1157
罕	-10.1158
寍	-10.1159
眞傳	-10.1161
威靈	-10.1161
挾	-10.1162
濃	-10.1163
谿	-10.1164
河車	-10.1175
癸	-10.1179
則必	-10.1181
自見	-10.1182
五嶽	-10.1183
境界	-10.1191
之可	-10.1201
有人	-10.1202
能生	-10.1203
未嘗不	-10.1215
後天之	-10.1222
神霄	-10.123
終不	-10.1235
清淨	-10.1235
靈官	-10.1235
將來	-10.1237
其機	-10.124
無異	-10.1248
刃	-10.1249
銳	-10.1251
大悲	-10.1253
詭	-10.1256
卯酉	-10.1257
m	-10.1258
鎻	-10.1258
而求	-10.1258
㝛	-10.1258
肥	-10.1262
道在	-10.1263
讚曰	-10.1264
威儀	-10.127
不至	-10.1272
死者	-10.128
食之	-10.128
上乘	-10.1293
天寶	-10.13
曰子	-10.13
靈根	-10.1311
曰汝	-10.1316
一竅	-10.1316
自古	-10.1318
聞道	-10.133
蠱	-10.1335
出神	-10.1337
未免	-10.1337
旬	-10.1345
滌	-10.1349
以明	-10.135
冺	-10.1351
霽	-10.1353
聊	-10.1355
人自	-10.1355
須臾	-10.1357
以及	-10.1371
超度	-10.1389
杯	-10.1399
眞機	-10.1399
凡有	-10.1414
大慈	-10.142
濤	-10.1425
無用	-10.1429
文武	-10.1442
不可得	-10.1442
妾	-10.1443
吉祥	-10.1444
涼	-10.1446
欵	-10.1448
冶	-10.1448
卵	-10.1448
雌	-10.1449
濫	-10.1449
騐	-10.145
倡	-10.1453
彈	-10.1453
徘徊	-10.1454
孩	-10.1454
澹	-10.1455
勵	-10.1455
e	-10.1455
所見	-10.1455
猜	-10.1457
呌	-10.1457
赫赫	-10.1457
未見	-10.146
巡	-10.1461
之源	-10.1461
壤	-10.1467
丹砂	-10.1468
從來	-10.147
祖炁	-10.1474
人欲	-10.1477
善果	-10.1479
默默	-10.1481
一陰	-10.1481
湛然	-10.1484
太微	-10.1486
之位	-10.1486
七寶	-10.1496
冥冥	-10.1496
坎中	-10.1498
上仙	-10.1504
員	-10.1507
靜則	-10.1508
逞	-10.1512
皆得	-10.1521
也惟	-10.1521
其體	-10.1529
踐	-10.1532
未知	-10.1533
取其	-10.1533
所在	-10.1538
兔	-10.1543
觀之	-10.1546
喚	-10.1551
板	-10.1552
縛	-10.1553
辦	-10.1554
乍	-10.1554
/	-10.1555
穆	-10.1555
s	-10.1555
攀	-10.1557
心地	-10.1558
希夷	-10.1562
九州	-10.1563
其名	-10.157
點化	-10.1572
人世	-10.1573
惟願	-10.1575
相應	-10.1578
心以	-10.1582
倦	-10.1585
亦不能	-10.159
故也	-10.1593
之基	-10.1596
羣眞	-10.16
其後	-10.1601
無始	-10.1604
金鼎	-10.1605
用心	-10.1608
萬事	-10.1614
左傳	-10.1623
之樂	-10.1625
久矣	-10.1626
性也	-10.1627
虛靈	-10.1637
天地間	-10.1644
靈通	-10.1646
尹	-10.1647
元陽	-10.1648
朽	-10.165
筋	-10.1651
証	-10.1654
不肖	-10.1655
姦	-10.1655
有時	-10.1655
嗔	-10.1656
眞言	-10.1656
靈明	-10.1656
當年	-10.1658
醜	-10.1659
聳	-10.166
無言	-10.1662
今人	-10.1666
以養	-10.1668
星辰	-10.1672
還虛	-10.1672
物物	-10.1673
皈命	-10.1674
也言	-10.1676
治天下	-10.1684
結胎	-10.1687
尙書	-10.169
德之	-10.1703
十七	-10.1704
𡻕月	-10.1715
元皇	-10.1718
括	-10.1735
𦂳	-10.1739
求道	-10.1741
殺人	-10.1744
頃刻	-10.1746
忱	-10.1747
大乘	-10.1752
譚	-10.1753
大成	-10.1753
伏羲	-10.1754
驟	-10.1756
簾	-10.1757
敲	-10.1758
之義也	-10.1758
景象	-10.1759
叟	-10.1759
呵	-10.1762
創	-10.1765
五炁	-10.1768
快樂	-10.1771
太守	-10.1772
太素	-10.1773
養生	-10.1773
之方	-10.1776
動則	-10.1776
無情	-10.1777
無疆	-10.1793
失之	-10.1804
胸中	-10.1807
三昧	-10.181
十分	-10.1816
者多	-10.1817
以道	-10.1817
心性	-10.1819
因其	-10.1833
陽氣	-10.1841
㤗	-10.1842
其精	-10.1844
聲色	-10.185
化炁	-10.1851
狗	-10.1852
戮	-10.1853
斧	-10.1856
高下	-10.1856
値	-10.1858
陟	-10.1858
羞	-10.1859
屍	-10.186
促	-10.1861
大哉	-10.1861
纒	-10.1861
漿	-10.1863
則是	-10.1863
無限	-10.1864
傲	-10.1865
藍	-10.1866
圓成	-10.1868
皷	-10.1869
不一	-10.1869
至大	-10.187
造化之	-10.1872
之光	-10.1878
皆可	-10.1886
妙如	-10.1886
父子	-10.1886
丈	-10.1887
不染	-10.1892
怕	-10.192
謹疏	-10.1936
爲我	-10.1936
外道	-10.1939
不昧	-10.1939
軸	-10.1945
宸	-10.1948
方士	-10.1951
啼	-10.1952
惕	-10.1954
茫茫	-10.1961
蔡	-10.1962
入聖	-10.1964
殫	-10.1964
亢	-10.1964
悞	-10.1966
偷	-10.1967
暇	-10.1968
台	-10.1969
止於	-10.1978
或以	-10.1983
氣也	-10.1983
無生	-10.1986
九霄	-10.1986
重陽	-10.1988
告下	-10.1992
忘其	-10.1992
皇帝	-10.2001
知者	-10.2003
靑城山	-10.2006
相合	-10.2011
浩	-10.2011
有二	-10.2014
和合	-10.2018
樣	-10.2019
直指	-10.2023
入門	-10.203
泰山	-10.2032
濟度	-10.2033
叢	-10.2036
乎此	-10.2036
交會	-10.2037
三聖	-10.2039
却	-10.2041
九年	-10.2044
道祖	-10.2046
億萬	-10.2052
薪	-10.2057
可不	-10.2058
扇	-10.2068
寬	-10.2071
鴻濛	-10.2071
牆	-10.2072
縈	-10.2073
囉	-10.2073
玄功	-10.2082
伏以	-10.2085
供養	-10.2085
先天一炁	-10.2085
正覺	-10.2097
不得已	-10.21
鼎爐	-10.21
千秋	-10.2101
眾眞總監天尊	-10.2101
俄	-10.2103
下有	-10.2104
故以	-10.2108
熾	-10.2112
功曹	-10.2118
生神	-10.212
南極	-10.2123
莫非	-10.2141
紫陽	-10.2156
六十	-10.2162
塡	-10.2164
甲子	-10.2167
道本	-10.2167
燄	-10.2167
聾	-10.2172
兎	-10.2173
笛	-10.2174
其子	-10.2175
罄	-10.2175
槖籥	-10.2176
催	-10.2176
煮	-10.2177
五行之	-10.2188
元始天王曰	-10.2191
未來	-10.2209
眞道	-10.2211
不定	-10.2218
神神	-10.2239
不測	-10.2244
三陽	-10.2249
遠矣	-10.2249
不爭	-10.2255
宛	-10.2255
伍	-10.2255
難以	-10.2269
復圭子曰	-10.227
賞罰	-10.2279
効	-10.228
在外	-10.2281
圭	-10.2281
鎖	-10.2281
子之	-10.2282
黍米	-10.2283
慈航	-10.2284
灼	-10.2284
濶	-10.2284
沛	-10.2284
遏	-10.2287
通靈	-10.2288
日中	-10.2289
軀	-10.2295
而未	-10.2297
此亦	-10.2303
華池	-10.2306
長生不死	-10.2312
受持	-10.2312
隨之	-10.2313
不難	-10.2313
千載	-10.2317
二月	-10.2321
歡喜	-10.2322
抱一	-10.2329
人民	-10.233
之福	-10.2342
在内	-10.2343
丹書	-10.2353
之水	-10.2354
一刻	-10.2361
姓名	-10.2362
註曰	-10.2363
許多	-10.2365
妄念	-10.2368
百里	-10.2379
裁	-10.2379
柏	-10.238
人天	-10.2381
龍門	-10.2383
餌	-10.2384
頤	-10.2385
守一	-10.2387
溝	-10.2393
歸一	-10.2395
杳冥	-10.2395
迫	-10.2397
卽爲	-10.24
或曰	-10.2402
洞明	-10.2406
聖母	-10.2408
和平	-10.2412
久而	-10.2414
正是	-10.2422
一分	-10.2423
形骸	-10.2426
心爲	-10.2429
以待	-10.2434
道以	-10.2434
道成	-10.2435
及至	-10.2437
大化	-10.2438
豈可	-10.2443
靈文	-10.2445
精進	-10.2448
虛皇	-10.2448
下元	-10.2451
則不能	-10.2452
是日	-10.2457
玄珠	-10.2459
宗旨	-10.2459
章第二十	-10.2463
而况	-10.2466
二人	-10.2469
冬至	-10.2472
丕	-10.2473
之勢	-10.2478
於身	-10.2484
道場	-10.2487
之宗	-10.2489
虫	-10.2492
大道之	-10.2493
護持	-10.2497
郊	-10.2497
性光	-10.2497
虚	-10.2498
囑	-10.25
趾	-10.25
巴	-10.2501
立命	-10.2502
譏	-10.2502
慰	-10.2502
至德	-10.2503
隸	-10.2504
泊	-10.2504
囚	-10.2504
塔	-10.2505
禾	-10.2508
得聞	-10.2508
縱橫	-10.2518
丈夫	-10.252
之書	-10.2524
知有	-10.2533
者能	-10.2536
而民	-10.2546
阜	-10.2558
心無	-10.2561
有緣	-10.2562
其上	-10.2568
何事	-10.2584
蛟	-10.2585
二首	-10.259
明堂	-10.2591
消滅	-10.2592
後來	-10.2594
眞文	-10.2594
貢	-10.2595
玄門	-10.2597
用事	-10.2598
裔	-10.2599
至聖	-10.2601
燥	-10.2606
償	-10.2607
汪	-10.2608
溟	-10.2608
爛	-10.261
妙理	-10.2611
求其	-10.2611
流水	-10.2611
淑	-10.2612
煎	-10.2614
.	-10.2616
若非	-10.2616
塵世	-10.2619
總之	-10.2627
何物	-10.2633
眞詮	-10.2633
第六	-10.2643
七竅	-10.2648
存焉	-10.2653
凝結	-10.2661
調息	-10.267
誰能	-10.2679
參同契	-10.2685
不應	-10.2691
何能	-10.2697
一味	-10.2698
安樂	-10.27
玄中	-10.2705
濯	-10.2717
因以	-10.272
竿	-10.2722
憎	-10.2722
瓦	-10.2723
見人	-10.2724
杳	-10.2724
刦	-10.2725
摘	-10.2726
竇	-10.2727
媚	-10.2728
侶	-10.2728
梓	-10.2728
教主	-10.2728
袖	-10.2728
竝	-10.2729
賀	-10.273
修仙	-10.2731
眞常	-10.2732
水銀	-10.2746
德行	-10.2752
不惟	-10.2765
之形	-10.2768
八景	-10.2777
大抵	-10.2778
何况	-10.2782
同類	-10.2785
八月	-10.2793
彼此	-10.2797
有言	-10.2799
眞武	-10.28
返還	-10.2807
化度	-10.2807
神君	-10.2809
太元	-10.2809
一段	-10.281
變爲	-10.2812
人不知	-10.2822
保命	-10.2827
受生	-10.2831
者是也	-10.2835
黍	-10.2836
朕	-10.2839
畝	-10.2843
蕩蕩	-10.2846
風吹	-10.2847
言也	-10.2848
董	-10.285
道天尊大悲	-10.2866
團	-10.2868
此竅	-10.2873
種子	-10.2882
一身之	-10.2884
又問	-10.2885
陽之	-10.2886
未可	-10.2894
詮	-10.2895
和氣	-10.2897
臭	-10.2897
以自	-10.2901
也聖人	-10.2908
無妄	-10.291
天曹	-10.2928
絳	-10.2929
道而	-10.2931
蟾	-10.2932
之聲	-10.2935
無由	-10.2935
而天下	-10.2947
向上	-10.2947
煖	-10.2949
襟	-10.2952
此書	-10.2953
欠	-10.2953
頼	-10.2955
堆	-10.2956
復還	-10.296
無一	-10.2961
諸仙	-10.2962
十一	-10.2964
始得	-10.2964
養神	-10.2966
仙子	-10.2968
其意	-10.2991
桃花	-10.2993
愚人	-10.2993
故謂之	-10.2994
衣食	-10.2997
▁大悲	-10.2999
第八	-10.3
不落	-10.3003
戊	-10.301
所能	-10.3011
乃爲	-10.3018
齋戒	-10.3023
陽生	-10.3033
交感	-10.3035
有生	-10.3037
身外	-10.304
爲大	-10.3041
欲其	-10.3049
養之	-10.3053
用功	-10.3054
峽	-10.3059
爲本	-10.3063
滑	-10.3065
貸	-10.3065
蟄	-10.3066
黄	-10.3068
署	-10.3068
志心皈命禮	-10.3069
瑤池	-10.3069
罹	-10.307
道家	-10.3071
外物	-10.3073
諸侯	-10.3074
訛	-10.3074
貧賤	-10.3074
粹	-10.3075
水府	-10.308
忍辱	-10.3081
敎	-10.3082
之至也	-10.3085
眞宰	-10.31
三尸	-10.31
眞種	-10.3111
所以爲	-10.3111
治國	-10.3113
自家	-10.3116
見聞	-10.3118
斤	-10.3119
消除	-10.3128
今之	-10.313
二子	-10.3137
其光	-10.3137
不變	-10.3138
祈恩	-10.3147
第二十	-10.3149
之餘	-10.315
也是故	-10.3159
不須	-10.3165
復有	-10.3168
道無	-10.3171
身尊玉虛玄上帝	-10.3174
皆以	-10.318
襄	-10.3182
邁	-10.3183
諫	-10.3185
天宫	-10.3186
挺	-10.3189
隣	-10.3189
之工	-10.319
蟬	-10.319
壓	-10.3192
勒	-10.3197
藏於	-10.3198
虗	-10.3202
元年	-10.3204
刻刻	-10.3205
各各	-10.3206
流通	-10.3212
天然	-10.3216
滴	-10.3217
卽所謂	-10.3224
天尊大悲正	-10.3236
尊神	-10.3238
正氣	-10.3239
色相	-10.3246
存亡	-10.3246
則曰	-10.3249
乃知	-10.3253
已成	-10.3257
爐火	-10.3263
心法	-10.3267
神天尊大悲	-10.3269
赫	-10.3276
漸漸	-10.3276
所說	-10.3277
思之	-10.3277
婦人	-10.3279
書曰	-10.3282
羣仙	-10.3283
久久	-10.3287
孟子	-10.3291
去其	-10.3293
研	-10.3297
鑪	-10.33
不朽	-10.3301
觴	-10.3303
干冒	-10.3303
匿	-10.3304
腐	-10.3305
憾	-10.3306
咏	-10.3308
鋪	-10.3308
從心	-10.3309
狐	-10.331
一陰一陽	-10.331
根本	-10.3313
剪	-10.3313
挂	-10.3314
乎哉	-10.3317
第七	-10.332
濟世	-10.3328
煉已	-10.3333
能使	-10.3335
也哉	-10.3351
合於	-10.3351
以心	-10.3352
長春	-10.3356
勉之	-10.3362
老人	-10.3364
未盡	-10.3367
不解	-10.3368
相交	-10.337
漢中	-10.338
自能	-10.3383
也且	-10.3385
命門	-10.3389
之徒	-10.3391
有志	-10.3394
還元	-10.3403
眞金	-10.3403
級	-10.3406
人亦	-10.3406
此處	-10.3406
胸	-10.3408
昨	-10.3409
作爲	-10.3411
跪	-10.3417
捷	-10.342
之才	-10.3421
闇	-10.3423
是眞	-10.3423
薰蒸	-10.3426
上古	-10.3428
乳哺	-10.3429
叱	-10.3429
榻	-10.3431
績	-10.3431
正陽	-10.3433
宣揚	-10.3448
天中	-10.3448
有感	-10.3452
逮	-10.3456
解厄	-10.3457
有物	-10.3464
無端	-10.3465
指示	-10.347
猶如	-10.3474
血氣	-10.3484
侣	-10.3489
懺	-10.3492
粒	-10.35
不食	-10.3505
偃	-10.3506
全體	-10.3506
婆	-10.3507
國之	-10.351
修德	-10.3512
怡	-10.3512
自謂	-10.3519
本是	-10.3521
戚	-10.3522
尙未	-10.3533
他日	-10.3533
戒者當念	-10.3536
倪	-10.3543
不顧	-10.3544
帝一	-10.3545
湘	-10.3547
頽	-10.3547
也但	-10.3549
練	-10.355
莊嚴	-10.3551
措	-10.3551
艷	-10.3551
眞水	-10.3554
南斗	-10.3554
陷	-10.3554
三田	-10.3555
躡	-10.3558
骨肉	-10.3558
上文	-10.3559
天光	-10.356
件	-10.3569
者又	-10.3573
中藏	-10.3576
塵寰	-10.3576
也是以	-10.358
玄微	-10.3585
神丹	-10.3588
法筵	-10.359
鈞	-10.3593
難言	-10.3596
與天地	-10.3597
恭惟	-10.3598
任其	-10.3601
谷神	-10.3603
今古	-10.3605
孔子曰	-10.3605
運轉	-10.3605
旣已	-10.3609
一卷	-10.3613
成佛	-10.3616
煉精	-10.3627
諸葛武侯	-10.3631
分别	-10.3633
十餘	-10.3634
其一	-10.3637
不能自	-10.3655
緯	-10.3659
化太淸道德大天尊	-10.366
故知	-10.3662
桓	-10.3662
不爽	-10.3665
迓	-10.3666
樵	-10.3667
柴	-10.3668
帛	-10.3668
睹	-10.3669
簇	-10.3669
崔	-10.367
古云	-10.367
欄	-10.367
墻	-10.3673
藝	-10.3673
另	-10.3674
釋迦	-10.3674
婬	-10.3675
誌	-10.3675
眞汞	-10.3676
旣得	-10.3677
毀	-10.3677
照臨	-10.3682
之流	-10.3692
充滿	-10.3692
大士	-10.3695
體用	-10.3695
江湖	-10.3697
鍾離	-10.3699
名之曰	-10.3703
面目	-10.3705
莫若	-10.3706
之秘	-10.3707
皆爲	-10.3707
同歸	-10.3708
梅花	-10.3713
清靜	-10.3719
月華	-10.3719
子時	-10.3722
七十二	-10.3722
太空	-10.3723
熖	-10.3724
一動	-10.3725
七元	-10.3725
雖曰	-10.3739
尋常	-10.3741
之報	-10.3741
其有	-10.3747
應化	-10.3762
漠	-10.377
何時	-10.3772
眞宗	-10.3773
孝子	-10.3774
陽精	-10.3777
虛心	-10.3778
天神	-10.3782
所爲	-10.3784
不遠	-10.3785
是一	-10.3785
黎	-10.3786
不宜	-10.3786
胃	-10.3789
益州	-10.3792
穩	-10.3792
搜	-10.3792
幕	-10.3795
劵	-10.3796
於地	-10.3796
薩	-10.3797
籌	-10.3798
生身	-10.3799
普濟	-10.3799
靈符	-10.38
圃	-10.3801
也凡	-10.3801
渙	-10.3801
第一百	-10.3802
藩	-10.3802
一部	-10.3804
鄧	-10.3804
濡	-10.3804
金丹大道	-10.3812
於我	-10.3812
猶未	-10.3814
黃冠	-10.3817
人不	-10.3822
傳道	-10.3823
互相	-10.3824
正法	-10.3826
慈尊	-10.383
如斯	-10.3834
在其中	-10.3839
不畏	-10.384
空洞	-10.3841
也三	-10.3842
乎天	-10.3843
不使	-10.3843
爲天	-10.385
隅	-10.3851
若以	-10.3853
福天尊大悲	-10.386
恭敬	-10.3861
利害	-10.3864
恢	-10.3864
而知	-10.3879
生焉	-10.388
刋	-10.3882
第九	-10.3901
燦	-10.3904
復生	-10.3904
簿	-10.3905
不仁	-10.3906
只因	-10.3916
豈無	-10.3916
豕	-10.392
何由	-10.3923
栽	-10.3924
這個	-10.3924
何異	-10.3925
噓	-10.3925
肖	-10.3926
歇	-10.3926
血湖	-10.3928
和天尊大悲	-10.393
祐	-10.3931
箋	-10.3932
晏	-10.3933
實爲	-10.3934
其根	-10.394
胞胎	-10.394
城隍	-10.3945
不分	-10.3945
嗟乎	-10.3945
碧落	-10.3952
山在	-10.3954
發於	-10.3954
一次	-10.3956
惟其	-10.3957
諸神	-10.3959
淸濁	-10.3961
浮雲	-10.3963
不安	-10.3968
曹官	-10.397
之說也	-10.3972
於前	-10.3973
千百	-10.3978
惟恐	-10.3981
根源	-10.3981
誰知	-10.3984
春風	-10.3985
眞人云	-10.3985
無過	-10.3989
二句	-10.3991
黃道	-10.3992
釋氏	-10.3994
降伏	-10.4012
也是	-10.4014
而欲	-10.4024
又名	-10.4024
慨	-10.4025
而起	-10.4029
訖	-10.4029
孰能	-10.403
性命之	-10.403
晶	-10.4034
具足	-10.4037
今生	-10.4046
二曰	-10.4046
巫	-10.4047
柯	-10.4047
疲	-10.4048
禽獸	-10.4049
油	-10.4049
固有	-10.4049
怖	-10.4051
仁慈	-10.4053
絃	-10.4053
歸根復命	-10.4053
擕	-10.4053
綵	-10.4054
睿	-10.4054
甚矣	-10.4056
料	-10.4057
涵養	-10.4059
建醮	-10.4061
一寸	-10.4065
學道之士	-10.4065
此節言	-10.4067
感通	-10.4067
▁重刋道藏輯要	-10.4067
何嘗	-10.4067
受其	-10.4068
子弟	-10.4071
金花	-10.4072
洞庭	-10.4077
也如	-10.4079
取之	-10.408
無涯	-10.408
不亦	-10.4082
至理	-10.4083
不堪	-10.4087
不虛	-10.4091
等眾	-10.4092
大將軍	-10.4092
所當	-10.4093
天皇	-10.4101
上士	-10.4103
平生	-10.4105
而可	-10.4106
者謂	-10.4108
虛而	-10.411
神人	-10.4112
衣冠	-10.4122
原是	-10.4125
亦曰	-10.4126
誠心	-10.4131
不知有	-10.4136
不作	-10.4143
姥	-10.4148
亦然	-10.4152
五雷	-10.4155
豁	-10.4156
疇	-10.4157
白鶴	-10.4159
妙有	-10.416
修心	-10.4162
之期	-10.4164
天堂	-10.4165
而不得	-10.4166
跳	-10.4166
證道	-10.4169
下方	-10.417
氣氣	-10.4172
南華	-10.4173
貲	-10.4173
教之	-10.4175
安於	-10.4178
有異	-10.4178
庵	-10.4178
銖	-10.4179
笙	-10.4179
者當	-10.4179
膚	-10.4179
盼	-10.4182
詰	-10.4183
陰神	-10.4183
生物	-10.4185
閭	-10.4186
核	-10.4186
蹇	-10.4186
臘	-10.4193
牀	-10.4195
洗心	-10.4198
三途	-10.4206
不着	-10.4212
平等	-10.4216
七十	-10.4225
從何	-10.4228
五月	-10.4231
終無	-10.4236
正位	-10.4239
有不	-10.4247
而行之	-10.4248
凡情	-10.4248
白日	-10.4248
卽如	-10.4249
指點	-10.4249
岱	-10.4251
於天下	-10.4252
以今	-10.4252
之見	-10.4252
南宫	-10.4255
六月	-10.4257
惡業	-10.4261
而進	-10.4262
帝王	-10.4267
旣有	-10.4267
之狀	-10.4282
有五	-10.4289
安有	-10.4292
生平	-10.4303
旌	-10.4303
嫩	-10.4303
無數	-10.4305
鈎	-10.4306
恪	-10.4307
三台	-10.4307
未至	-10.4307
奕	-10.4308
猷	-10.4308
一步	-10.4309
則能	-10.4309
不窮	-10.431
可惜	-10.4311
廷	-10.4311
亟	-10.4314
牖	-10.4314
裡	-10.4314
儒者	-10.4315
讐	-10.4316
𨚑	-10.4316
解釋	-10.4321
眷屬	-10.4324
地仙	-10.4331
誑	-10.434
脫胎	-10.4343
亡魂	-10.4346
皆從	-10.4353
婦女	-10.4366
知識	-10.4368
所生	-10.4369
知止	-10.4369
陰氣	-10.4376
爲陰	-10.4376
之意也	-10.4377
眞修	-10.438
眞師	-10.4384
風雷	-10.4386
證盟	-10.4387
守中	-10.4389
保安	-10.4392
斯人	-10.4399
陽炁	-10.4406
必不	-10.4406
武夷	-10.441
爲陽	-10.4424
譬之	-10.4426
門戸	-10.4426
不存	-10.4431
四月	-10.4432
圓通自在天尊	-10.4434
壽	-10.4437
佛法	-10.4439
綸	-10.4442
淩	-10.4444
佞	-10.4444
闔闢	-10.4445
岐	-10.4446
慚	-10.4446
邈	-10.4446
擲	-10.4446
不住	-10.4447
曩	-10.4449
喧	-10.445
儲	-10.445
優游	-10.445
成形	-10.445
諸眞	-10.4451
項	-10.4455
堤	-10.4456
大覺	-10.4457
復命	-10.4459
覆載	-10.4464
日夜	-10.4466
氤氲	-10.4469
救人	-10.4472
度厄	-10.4473
出離	-10.4474
孰爲	-10.4481
陽也	-10.4491
方爲	-10.4495
一番	-10.4496
參同	-10.4497
三洞	-10.4499
使其	-10.4499
施行	-10.4501
轍	-10.4502
觀心	-10.4503
詎	-10.4505
大人	-10.4506
覺悟	-10.4506
後之	-10.4509
容易	-10.4515
九九	-10.4517
生民	-10.4518
用兵	-10.4519
玄宗	-10.4522
藥生	-10.4524
紫雲	-10.4524
欲以	-10.4525
壬	-10.4528
飛仙	-10.4534
爲一過	-10.4537
自然之	-10.4539
殺機	-10.454
禮拜	-10.4541
骸	-10.4542
一世	-10.4544
本乎	-10.4545
等魂	-10.4545
對曰	-10.4547
主之	-10.4551
默運	-10.4551
尼	-10.4553
始知	-10.4556
膝	-10.4557
洞中	-10.4561
最上	-10.4561
永無	-10.4568
太子	-10.4572
炫	-10.4574
毓	-10.4579
駭	-10.4582
喬	-10.4583
恬淡	-10.4583
擔	-10.4583
擅	-10.4584
斥	-10.4584
識得	-10.4585
倐	-10.4586
酣	-10.4589
脊	-10.4589
麥	-10.459
亦云	-10.4591
之難	-10.4592
圈	-10.4593
化成	-10.4594
本原	-10.4595
智者	-10.4598
悟道	-10.46
危險	-10.46
煉神	-10.4602
寂寂	-10.4603
直上	-10.4612
覺天尊大悲	-10.4615
天醫	-10.4616
眞知	-10.4618
森	-10.4619
烹煉	-10.4621
厯劫	-10.4623
中和	-10.4624
靈妙	-10.4624
夜光	-10.4626
太初	-10.4627
愆尤	-10.4628
皆言	-10.463
不通	-10.4631
元帥地	-10.4633
不滅	-10.4637
世有	-10.4641
劫運	-10.4641
廬山	-10.4655
太古	-10.4658
所得	-10.4661
授以	-10.4664
吁	-10.4668
力行	-10.467
而終	-10.4681
江南	-10.4684
於今	-10.4685
居士	-10.4696
一定	-10.4697
流傳	-10.4702
之時也	-10.4705
桐	-10.4705
六通	-10.4706
行者	-10.4707
同一	-10.4709
債	-10.4709
自來	-10.4712
不但	-10.4713
叶	-10.4713
潰	-10.4713
日光	-10.4714
大功大行	-10.4716
證道果以	-10.4717
懲	-10.4718
扁	-10.4719
攢	-10.4719
唎	-10.472
溯	-10.472
霹𩆝	-10.4721
之宫	-10.4722
輯	-10.4722
語言	-10.4723
國家	-10.4723
鹽	-10.4725
朱雀	-10.4725
下界	-10.4726
若人	-10.4726
到處	-10.4729
必以	-10.473
朝夕	-10.4732
洞眞	-10.4738
入山	-10.4738
有聲	-10.4739
於下	-10.4739
君子之	-10.474
乃能	-10.4742
障礙	-10.4742
河圖	-10.4747
又爲	-10.4748
終南	-10.4754
斗姥	-10.4755
知覺	-10.4756
無我	-10.4759
寂然	-10.476
其時	-10.4761
非人	-10.4761
朗朗	-10.4762
合天	-10.4762
之所謂	-10.4762
開度	-10.4765
亦猶	-10.4768
者蓋	-10.477
結丹	-10.4771
有知	-10.4771
便可	-10.4776
只有	-10.4789
學士	-10.4789
手足	-10.4803
亦能	-10.4803
則民	-10.4808
淸風	-10.4809
中宮	-10.4809
正天尊大悲	-10.4811
柄	-10.4812
則又	-10.4816
運動	-10.4816
洛	-10.4817
便有	-10.482
救度	-10.4821
之祖	-10.4821
無爲而	-10.4821
善功	-10.4824
古聖	-10.4831
天尊大悲聖	-10.4839
匡	-10.4842
聽之	-10.4843
悟眞	-10.4845
過此	-10.4845
峭	-10.4849
矩	-10.485
凈	-10.485
沿	-10.4851
仙經	-10.4852
太無	-10.4854
大千之法界慈度尋聲而救苦益開利	-10.4854
闕慶普塵寰朝儀居次四之班鸞嘉祉遍	-10.4854
扉	-10.4854
零	-10.4855
𣺌𣺌	-10.4855
不少	-10.4855
藻	-10.4856
升騰至聖至神現身名而救度是誠天	-10.4856
三界無量諸天始盤固於虛皇乃化生於	-10.4856
鎔	-10.4856
戌	-10.4856
浦	-10.4858
貯	-10.4858
瓶	-10.4858
寇	-10.4858
憤	-10.4859
不齊	-10.486
課	-10.486
嫁	-10.4861
諒	-10.4861
天德	-10.4863
銜	-10.4863
勉强	-10.4864
天庭	-10.4865
不可思議	-10.4866
控	-10.4866
韋	-10.4866
不正	-10.4867
笠	-10.4868
由於	-10.4874
三曰	-10.4875
九重	-10.4876
起於	-10.4876
福地	-10.4879
體道	-10.4884
一功	-10.4886
家人	-10.4887
大千	-10.4889
地之	-10.4889
之權	-10.4889
歸來	-10.489
事業	-10.4896
夫妻	-10.4903
人之心	-10.4906
之勝	-10.4908
亦當	-10.491
真官	-10.4919
光陰	-10.4921
中庸	-10.4924
陽火	-10.4949
五龍	-10.495
之教	-10.4951
得遇	-10.4953
最難	-10.4957
信之	-10.4957
風月	-10.496
是道	-10.4961
者自	-10.4961
道道	-10.4961
積功	-10.497
五里	-10.4972
誦之	-10.4974
煉成	-10.4983
義也	-10.4984
裳	-10.4985
之災	-10.4991
八方	-10.4991
痴	-10.4991
時人	-10.4991
距	-10.4993
勘	-10.4994
恩人人佩澤大悲大願大聖大慈玉經啟	-10.4994
搆	-10.4995
邊豈名言之可述大悲大願大聖大	-10.4995
鈍	-10.4996
殞	-10.4997
苦惱	-10.5001
白玉蟾	-10.5001
迺	-10.5002
大天君	-10.5002
有能	-10.5004
沉淪	-10.5004
不祥	-10.5005
剌	-10.5005
戍	-10.5007
梵炁	-10.5008
金丹之	-10.501
處也	-10.5012
之使	-10.5015
九炁	-10.5019
如是則	-10.5028
之交	-10.5029
生萬物	-10.5029
靜定	-10.5033
山下	-10.5034
三塗	-10.5035
不修	-10.5035
入室	-10.5036
孚佑帝君曰	-10.5036
保護	-10.504
先須	-10.5042
是知	-10.5043
靈應	-10.5045
不厭	-10.5047
其能	-10.5054
淨明	-10.5057
價	-10.5057
究其	-10.5058
聖師	-10.5059
一團	-10.5066
每日	-10.5066
者或	-10.5067
光照	-10.507
受命	-10.5071
觀音	-10.5072
江河	-10.5081
朝元	-10.5084
萬緣	-10.5089
而心	-10.5098
水之	-10.5098
明珠	-10.51
之語	-10.5116
然也	-10.5118
超脫	-10.513
弔	-10.5135
戒者不得	-10.5136
眞陰	-10.5137
授亦本靈根設普濟之無	-10.5139
汚	-10.5139
立功	-10.514
賈	-10.514
額	-10.514
疊	-10.514
孤魂	-10.514
軌	-10.5141
搏	-10.5141
造物	-10.5141
酷	-10.5142
橘	-10.5142
秩	-10.5142
靄	-10.5143
琅	-10.5143
渴	-10.5144
析	-10.5144
狼	-10.5145
裝	-10.5145
常在	-10.5146
虹	-10.5146
亷	-10.5147
褒	-10.5148
機關	-10.5148
隨時	-10.5153
曽	-10.5154
刀兵	-10.5154
從而	-10.5154
豆	-10.5155
修齋	-10.5156
又以	-10.5158
形神	-10.516
者此也	-10.5161
無功	-10.5161
孫權	-10.5162
不去	-10.5166
靑龍	-10.5166
進火	-10.5167
大願	-10.5168
豁然	-10.5172
利天尊大悲	-10.5172
不竭	-10.5174
明道	-10.5185
別有	-10.5186
人倫	-10.5189
全無	-10.5192
者何也	-10.5194
飛騰	-10.5195
者謂之	-10.5202
日月之	-10.5203
依然	-10.5205
媒	-10.5215
遊於	-10.5215
怎	-10.5217
之正	-10.5218
可憐	-10.522
利貞	-10.5223
事也	-10.5223
又如	-10.5223
吿下	-10.5225
可以爲	-10.5227
艱	-10.5229
仲尼	-10.5239
譴	-10.5245
案主者嶽府管	-10.5245
香火	-10.5245
旡咎	-10.5245
不由	-10.5246
君子以	-10.5247
經曰	-10.5248
得藥	-10.5255
性之	-10.5256
翕	-10.5265
不異	-10.5267
以應	-10.5272
天樞	-10.5273
甚多	-10.5278
必得	-10.5279
天地萬物	-10.5279
此地	-10.528
乩	-10.528
寥	-10.5282
䇿	-10.5282
關鍵	-10.5285
湼槃	-10.5285
洒	-10.5287
曡	-10.5287
可勝	-10.5289
其爲	-10.5289
岩	-10.529
磬	-10.529
脚	-10.529
甕	-10.5292
初生	-10.5293
俯仰	-10.5297
戊己	-10.5298
寶誥志心皈命禮	-10.5298
朝廷	-10.5299
謹牒	-10.5299
仙官	-10.5307
雨露	-10.5311
或問	-10.5312
者不能	-10.5313
謂其	-10.5316
六賊	-10.5319
達天尊大悲	-10.532
火龍	-10.5321
明矣	-10.5329
恍	-10.5331
光華	-10.5335
則亦	-10.5341
内藥	-10.5343
古仙	-10.5348
俱是	-10.5349
太極之	-10.535
數百	-10.5351
皆因	-10.5352
其所以	-10.5353
精炁神	-10.5358
赤炁	-10.5358
至妙	-10.536
百餘	-10.5361
神全	-10.5363
心治	-10.5363
進士	-10.5364
非道	-10.5368
相見	-10.5375
心者	-10.5375
吉象曰	-10.5379
三家	-10.5384
儼	-10.5386
歸于	-10.5388
十九	-10.5388
無息	-10.539
必至	-10.5395
都是	-10.54
知道	-10.5401
應物	-10.5402
祚	-10.5403
暌	-10.5404
周公	-10.5404
外藥	-10.5415
𢆯	-10.5417
爲惡	-10.5429
塵緣	-10.543
馮	-10.5432
諧	-10.5433
曳	-10.5433
繡	-10.5434
天罡	-10.5434
莖	-10.5434
頂門	-10.5436
唾	-10.5436
衲	-10.5437
翰	-10.5437
雕	-10.5441
呪	-10.5444
龍蛇	-10.5446
等因	-10.5449
掃除	-10.5452
則心	-10.5453
律令	-10.5458
不負	-10.5459
自然而然	-10.546
人爲	-10.5462
道妙	-10.5472
上達	-10.5476
之吉	-10.5482
來往	-10.5485
吾師	-10.5493
萬聖	-10.5496
其餘	-10.5497
字字	-10.5497
何有	-10.5498
之尊	-10.5499
忘言	-10.5499
離中	-10.5506
之喻	-10.5508
有定	-10.5509
明年	-10.5513
內	-10.5516
其家	-10.5517
不斷	-10.5519
無憂	-10.552
赤文	-10.5521
返照	-10.5523
道中	-10.5526
太白	-10.5528
其義	-10.5536
爐中	-10.5537
自無	-10.5538
尸解	-10.5539
七情	-10.5539
六道	-10.554
以定	-10.5543
其生	-10.5549
由我	-10.5549
通天	-10.5551
皆非	-10.5566
羲	-10.557
羡	-10.558
狹	-10.5581
善者	-10.5581
二分	-10.5582
炊	-10.5582
彖曰	-10.5583
祥光	-10.5583
黜	-10.5583
寂然不動	-10.5584
薛	-10.5585
傑	-10.5586
發現	-10.5587
遶	-10.5587
洵	-10.5588
簷	-10.5588
麻	-10.5588
戕	-10.5588
訂	-10.559
汗	-10.559
護法	-10.5591
奴	-10.5591
生殺	-10.5594
見於	-10.5595
喪其	-10.5595
盜賊	-10.5596
去來	-10.5596
此正	-10.5597
其數	-10.5597
兩物	-10.5599
而外	-10.56
通明	-10.5601
故名	-10.5602
於後	-10.5607
秘密	-10.5608
曹操	-10.5613
不假	-10.5617
放下	-10.5618
功天尊大悲	-10.5618
輕重	-10.5622
從容	-10.5629
則氣	-10.5633
同人	-10.5641
臣某	-10.5648
爲先	-10.565
口中	-10.5651
功過	-10.5652
天符	-10.5652
更生	-10.5663
於斯	-10.5684
相去	-10.5688
不亂	-10.5688
不順	-10.5694
無遺	-10.5697
採之	-10.5701
望之	-10.5704
本自	-10.5704
八極	-10.5704
虛中	-10.5705
衢	-10.5707
丙	-10.5707
而退	-10.5711
募	-10.5717
貴乎	-10.572
當以	-10.5723
道化	-10.5723
道德經	-10.5725
奉行科事	-10.5726
猶是	-10.5726
匹	-10.5728
矣若	-10.5729
虐	-10.5729
澈	-10.573
大有	-10.5732
弭	-10.5732
歴	-10.5733
喉	-10.5733
竒	-10.5735
至于	-10.5735
𡚱	-10.5735
主張	-10.5738
實有	-10.5739
之府	-10.5741
床	-10.5742
嵐	-10.5743
問之	-10.5743
袍	-10.5744
步步	-10.5746
火之	-10.5751
草廬	-10.5752
息息	-10.5758
本師	-10.5759
十日	-10.5761
金蓮	-10.5762
蟠	-10.5764
得意	-10.5767
成人	-10.577
于是	-10.577
自稱	-10.577
者不知	-10.5773
前生	-10.5775
修道者	-10.5776
不孝	-10.5779
積德	-10.578
氣化	-10.5781
悉皆	-10.5784
數年	-10.5789
稱揚	-10.5797
此意	-10.5812
之會	-10.5814
吾言	-10.5814
宗師	-10.5815
直論	-10.5818
幽明	-10.5819
有孚	-10.5822
現在	-10.5823
千餘	-10.5824
何故	-10.5825
神凝	-10.5827
不有	-10.5832
成聖	-10.5836
乏	-10.5838
何其	-10.5848
而莫	-10.5849
寶月	-10.5851
戒者	-10.5851
戒之	-10.5852
存神	-10.5852
苔	-10.5853
何須	-10.5858
人多	-10.5859
聖眾	-10.5862
百千	-10.5863
無論	-10.5867
投誠	-10.587
星君天	-10.587
爲神	-10.5871
五官	-10.5872
嗇	-10.5873
否則	-10.5873
無爲之	-10.5877
六陰	-10.5881
醴	-10.5882
亦不可	-10.5885
帝光	-10.5885
武當	-10.5885
苖	-10.5886
糾	-10.5887
膠	-10.5887
岑	-10.5888
蔓	-10.5888
龎	-10.5889
此又	-10.589
纏	-10.589
昆	-10.5891
逾	-10.5892
紹	-10.5892
孼	-10.5892
册	-10.5892
弛	-10.5893
醕	-10.5893
風流	-10.5893
其說	-10.5893
津梁	-10.5893
諸山	-10.5893
臟腑	-10.5894
輸	-10.5894
袁	-10.5896
懴悔	-10.5896
棺	-10.5897
爪	-10.5898
神也	-10.5903
兩字	-10.5903
忘形	-10.5904
者先	-10.5906
難得	-10.5908
其地	-10.5911
眞人曰	-10.5921
强名	-10.5923
蒂	-10.5927
良久	-10.5928
者無	-10.5929
時而	-10.5929
乃至	-10.593
出而	-10.5933
而巳	-10.5937
後主	-10.5938
生滅	-10.5938
其次	-10.5945
而弗	-10.5945
九竅	-10.5949
内觀	-10.5951
不敬	-10.5952
相對	-10.5956
二八	-10.5956
學問	-10.596
小子	-10.5963
也至於	-10.5963
同此	-10.5979
邵	-10.5986
有德	-10.5989
縷	-10.5993
上言	-10.5994
少陽	-10.5994
無餘	-10.6005
而忘	-10.6013
跋	-10.6015
而後能	-10.6018
在世	-10.6019
以示	-10.6024
大義	-10.6028
至精	-10.6036
熊	-10.6038
年月	-10.6038
七月	-10.6039
金液還丹	-10.604
涕	-10.6041
叠	-10.6041
示人	-10.6042
揣	-10.6042
捲	-10.6043
劒	-10.6044
眺	-10.6045
歆	-10.6046
詢	-10.6047
紛紜	-10.6047
存乎	-10.6048
僭	-10.6049
不知所	-10.605
鷄	-10.6053
蕃	-10.6054
宦	-10.6056
地府	-10.6058
血肉	-10.6059
放生	-10.6062
而陰	-10.6063
陽光	-10.6064
有意	-10.6065
黃籙	-10.6068
三清	-10.6069
光天尊大悲	-10.6071
第三十	-10.6071
不到	-10.6073
行火	-10.6076
善事	-10.6076
世法	-10.6076
故無	-10.6076
四者	-10.6078
之奇	-10.6085
長年	-10.6088
蛟龍	-10.6089
回頭	-10.6089
而動	-10.6091
事之	-10.6093
後有	-10.6096
初九	-10.6096
修證	-10.6099
廓	-10.6099
諸生	-10.61
火火	-10.6102
三業	-10.6103
矣吾	-10.6103
之變	-10.6106
天尊言	-10.6108
萬物皆	-10.6108
金火	-10.6109
不散	-10.6118
爲道	-10.612
中人	-10.6124
視聽	-10.6124
物而	-10.6126
凖	-10.6129
則生	-10.6131
者矣	-10.6131
碍	-10.6134
故爲	-10.6136
百神	-10.6141
本壇	-10.6142
經中	-10.6143
是之謂	-10.6143
何用	-10.6145
里許	-10.6148
十二月	-10.6148
歸去	-10.6154
立志	-10.6157
運化	-10.6159
我以	-10.6164
丹元	-10.6165
天運年月日告下奉行便宜科事	-10.6165
戒殺	-10.6166
分身	-10.6169
少年	-10.6174
不傳	-10.6175
超凡入聖	-10.6196
所作	-10.6198
故受之以	-10.6198
鴉	-10.62
輦	-10.6202
活潑	-10.6202
儔	-10.6203
俞	-10.6203
婢	-10.6203
箭	-10.6203
蹤	-10.6204
盂	-10.6205
閩	-10.6205
緊	-10.6207
揖	-10.6207
鋤	-10.6209
璋	-10.621
踞	-10.621
正月	-10.6211
自化	-10.6213
贅	-10.6217
乎故	-10.6219
惟此	-10.6221
劔	-10.6223
這箇	-10.6224
修之	-10.6226
如如	-10.6226
何足	-10.6227
應之	-10.6231
惟是	-10.6231
道則	-10.6234
萬民	-10.6236
三尺	-10.6237
我亦	-10.6239
天尊大悲洪	-10.6239
情欲	-10.6246
一處	-10.6247
也彼	-10.6252
昭明	-10.6253
妨	-10.6258
法事	-10.6262
師曰	-10.6263
眾聖	-10.6264
二三	-10.6269
道藏	-10.6269
旣而	-10.6272
數里	-10.6277
一見	-10.6283
萬天	-10.6284
生也	-10.6285
疆	-10.63
或爲	-10.6302
五常	-10.6307
迄	-10.6307
死而	-10.631
人力	-10.6311
番	-10.6311
不輕	-10.6312
立極	-10.6313
下士	-10.6314
非常	-10.6314
成矣	-10.6322
以神	-10.6324
非我	-10.6326
而猶	-10.6331
所欲	-10.6338
高上	-10.6341
江海	-10.6344
島	-10.6347
駢	-10.6348
神水	-10.6352
亦以	-10.6352
恰	-10.6353
出家	-10.6353
嚮	-10.6355
亘	-10.6355
一意	-10.6356
拾	-10.6358
坑	-10.636
聖德	-10.636
勾	-10.636
授之	-10.6361
㨗	-10.6361
教金闕萬福護身眞人流衍萬眞	-10.6362
一陽初動	-10.6362
形神俱妙	-10.6363
隴	-10.6363
不啻	-10.6363
氣機	-10.6363
鉢	-10.6364
拈	-10.6365
必欲	-10.6366
復性	-10.6366
幽冥	-10.6366
j	-10.6366
p	-10.6367
吃	-10.6367
捕	-10.6367
霸	-10.6369
拳	-10.6369
漲	-10.6369
製	-10.6369
拔度	-10.637
自以爲	-10.637
廊	-10.6371
悠悠	-10.6371
殻	-10.6371
綴	-10.6371
眞官名醫傳世	-10.6372
八陣圖	-10.6375
果報	-10.6381
未聞	-10.6383
猶可	-10.6385
直至	-10.6386
經營	-10.6387
間斷	-10.6388
愛之	-10.6391
無相	-10.6392
寶珠	-10.6394
不可見	-10.6394
聞見	-10.6395
無念	-10.6398
世俗	-10.6406
化育	-10.6407
惡人	-10.6409
同心	-10.6409
小兆	-10.6415
妙合	-10.6415
本根	-10.6415
未發	-10.6418
之微	-10.6425
其位	-10.6427
純陰	-10.643
也所以	-10.6433
九拜	-10.6436
有如	-10.6437
至極	-10.6439
生氣	-10.6443
九十	-10.6443
濟天尊大悲	-10.6444
勃	-10.6448
五年	-10.6452
故必	-10.6452
終於	-10.6456
用意	-10.6459
其情	-10.6462
一方	-10.6464
此二	-10.6464
現前	-10.647
了性	-10.647
以為	-10.6484
而且	-10.6486
聖凡	-10.6486
鈴	-10.6491
通玄	-10.6495
恩光	-10.6501
何在	-10.6502
腦	-10.6503
茫	-10.6504
法會	-10.6505
一兩	-10.6506
惶	-10.6508
相接	-10.6508
能以	-10.6511
物外	-10.6512
性體	-10.6513
蠢	-10.6517
眞符右符告下	-10.6519
娥	-10.6522
街	-10.6524
炬	-10.6524
亦必	-10.6525
熒	-10.6525
相逢	-10.6527
叙	-10.6527
炳	-10.6529
沸	-10.653
蘆	-10.6531
不立	-10.6531
僚	-10.6532
戊土	-10.6532
丘	-10.6534
彌羅	-10.6536
菜	-10.6536
經綸	-10.6537
六陽	-10.6537
多言	-10.6539
理也	-10.654
查	-10.6541
菊	-10.6541
亡人	-10.6542
垂慈	-10.6547
而後可	-10.6549
飲酒	-10.6552
張三丰	-10.6556
玄都	-10.6557
以濟	-10.656
盡性	-10.656
渾淪	-10.6561
外丹	-10.6561
之師	-10.6566
不改	-10.6566
頑空	-10.6583
物天尊大悲	-10.6586
白玉	-10.6595
不許	-10.6595
慈光	-10.6596
問道	-10.6598
照耀	-10.66
幾何	-10.6603
世世	-10.6604
行則	-10.6604
遠近	-10.6604
投詞	-10.6605
斯爲	-10.6607
小周天	-10.6607
不遇	-10.6609
成敗	-10.6615
炁穴	-10.6615
株	-10.6615
公子	-10.6616
五日	-10.6621
一語	-10.6622
方有	-10.6622
周身	-10.6624
度天尊大悲	-10.6628
雷公	-10.6628
流珠	-10.6629
超出	-10.6631
神祗	-10.6633
輪轉	-10.664
欲界	-10.6641
一貫	-10.6641
而返	-10.6647
消長	-10.6648
神奇	-10.6649
少陰	-10.6653
長夜	-10.6653
潘	-10.6656
可得而	-10.6657
玄壇	-10.6657
太真	-10.6657
貞吉	-10.6658
三山	-10.6658
神名	-10.6669
著於	-10.6672
願力	-10.6673
有成	-10.6678
今世	-10.6678
邃	-10.6683
韜	-10.6684
空虛	-10.6687
貺	-10.6688
莫可	-10.6689
綺	-10.6691
匝	-10.6691
模	-10.6691
而言之	-10.6691
見一	-10.6692
墟	-10.6694
吼	-10.6694
謨	-10.6694
漂	-10.6696
豪傑	-10.6696
之功也	-10.6697
毅	-10.6697
疵	-10.6698
氣象	-10.67
艾	-10.67
間有	-10.6701
髻	-10.6702
從前	-10.6702
鬚	-10.6703
斃	-10.6704
闌	-10.6704
之所由	-10.6705
長嘯	-10.6705
淵源	-10.6706
其妙	-10.6706
畢竟	-10.6709
不全	-10.671
爲心	-10.6711
而後有	-10.6715
絳宫	-10.6715
之異	-10.6726
合成	-10.6729
易之	-10.673
禪定	-10.6732
北海	-10.6733
者雖	-10.6736
出定	-10.674
乎道	-10.6742
而何	-10.6748
二十八	-10.6752
地位	-10.6754
布施	-10.6758
持經	-10.6759
眞如	-10.6759
再拜	-10.6762
伏望	-10.6768
枝葉	-10.6775
勸人	-10.6775
人我	-10.6776
衆生	-10.6779
而致	-10.6786
亦何	-10.6787
斗柄	-10.6788
宫中	-10.6791
得以	-10.6795
降生	-10.6795
上章	-10.6796
人無	-10.6796
禪師	-10.6798
列聖	-10.6799
妙經	-10.68
形形	-10.6805
之盛	-10.6807
千金	-10.6808
心傳	-10.6809
故聖人	-10.6809
白帝	-10.6809
所不能	-10.681
乾坤之	-10.6811
昭然	-10.6819
之訣	-10.6821
天尊大悲功	-10.6825
同志	-10.6826
阨	-10.6828
天尊大悲風	-10.683
而不爲	-10.6834
今則	-10.6837
之儀	-10.6839
未易	-10.6846
殉	-10.6849
三顧	-10.6851
一輪	-10.6855
之果	-10.6855
窒	-10.6858
躔	-10.6858
誨	-10.686
嶂	-10.6861
軟	-10.6861
通達	-10.6862
九宫	-10.6862
漓	-10.6862
嵩	-10.6862
靈壇	-10.6862
濱	-10.6863
朴	-10.6863
燃	-10.6864
劣	-10.6864
驛	-10.6865
嬌	-10.6865
坡	-10.6865
隘	-10.6867
本來面目	-10.6868
此法	-10.6869
塵埃	-10.6869
數日	-10.6869
蜂	-10.687
推之	-10.687
概	-10.6872
獵	-10.6872
故次之以	-10.6872
之鄉	-10.6873
可與	-10.6874
瘦	-10.6876
雌雄	-10.6878
指揮	-10.6878
東海	-10.6887
飮食	-10.6889
以正	-10.6893
樞機	-10.6895
登眞	-10.6903
六年	-10.6903
記云	-10.6904
其法	-10.691
卽以	-10.6912
黃房	-10.6923
識神	-10.6926
始生	-10.6927
原來	-10.6929
不見其	-10.6934
究之	-10.6938
妄動	-10.694
毫無	-10.6942
目錄	-10.6945
壇中	-10.6947
以氣	-10.6954
慈心	-10.6957
不克	-10.6958
白金	-10.6959
五靈	-10.6961
不和	-10.6961
鼎中	-10.6964
天地之間	-10.6965
也二	-10.6966
元天尊大悲	-10.6967
三三	-10.6968
之句	-10.6971
平地	-10.6975
害人	-10.6979
行也	-10.6981
魔障	-10.6984
常道	-10.6986
必然	-10.6989
療	-10.6992
玄德	-10.6993
紫氣	-10.6997
何患	-10.7002
其眞	-10.7002
邪說	-10.7005
幽魂	-10.7007
歎曰	-10.701
能見	-10.7012
殺之	-10.7014
洞陽	-10.7016
隱顯	-10.7023
莊子曰	-10.7024
乎曰	-10.7029
喜怒	-10.703
酧	-10.703
墳	-10.7031
侈	-10.7033
釀	-10.7035
逍遥	-10.7035
死後	-10.7037
也予	-10.7038
貶	-10.7039
撮	-10.7039
寶誥一遍	-10.7039
莽	-10.7039
懽	-10.7039
軒轅	-10.704
釁	-10.7041
白鬂老人曰	-10.7041
籬	-10.7043
故不	-10.7043
掠	-10.7044
修丹	-10.7045
然非	-10.7046
大周天	-10.7048
聘	-10.705
以前	-10.705
唆	-10.7051
塵垢	-10.7052
復其	-10.7052
晦朔	-10.7053
不加	-10.706
也我	-10.7063
相似	-10.7063
天下有	-10.7073
中原	-10.7074
戊已	-10.7075
信受	-10.7075
唵	-10.7077
恭望	-10.7077
保其	-10.7077
印證	-10.7078
道理	-10.7078
頂上	-10.7079
也乃	-10.7079
上生	-10.7082
重重	-10.709
衛	-10.709
而立	-10.7098
五六	-10.7099
身天尊大悲	-10.7099
不絶	-10.71
大笑	-10.7101
眼前	-10.7106
有石	-10.7107
十二時	-10.7108
其文	-10.711
淸甯	-10.7113
嚥	-10.7117
行藏	-10.712
心體	-10.7123
坎水	-10.7127
爲十過	-10.7127
一百	-10.7129
道體	-10.7132
登仙	-10.7133
德也	-10.7134
玄帝	-10.7137
鵲橋	-10.7141
而作	-10.7142
慈仁	-10.7142
不得其	-10.7144
花開	-10.715
萬炁	-10.7152
不問	-10.7154
陰也	-10.7163
雲水	-10.7166
玉闕	-10.7167
不違	-10.717
服之	-10.718
以至於	-10.718
邪正	-10.718
亦可以	-10.7182
學仙	-10.7183
祖眞君	-10.7184
光大	-10.7185
隱居	-10.7185
只爲	-10.7187
藏之	-10.7189
認得	-10.7199
元命	-10.7206
王者	-10.7207
規矩	-10.7207
莫知其	-10.7208
所至	-10.7209
之器	-10.7209
渚	-10.7209
賁	-10.721
乃得	-10.7212
敕	-10.7212
一枝	-10.7212
系	-10.7214
唇	-10.7214
紫霄	-10.7214
四肢	-10.7215
揆	-10.7215
腥	-10.7215
槪	-10.7216
屬陰	-10.7216
殁	-10.7217
惹	-10.7217
尉	-10.7217
俊	-10.7217
娶	-10.7218
帆	-10.7218
三代	-10.722
所行	-10.722
中田	-10.7227
是皆	-10.7227
奉命	-10.7229
日月星辰	-10.7232
猶言	-10.7233
有數	-10.7234
靈丹	-10.724
雲霞	-10.7242
自成	-10.7243
愛河	-10.7244
果有	-10.7244
不聽	-10.7246
五穀	-10.7249
一如	-10.7249
山河	-10.7249
般	-10.7251
朝禮	-10.7252
寶光	-10.7254
一曲	-10.7255
通神	-10.7258
天谷	-10.7258
順逆	-10.7258
安知	-10.7259
經文	-10.7263
夕陽	-10.7265
萬類	-10.7266
○○	-10.7267
也四	-10.7269
流於	-10.7277
開通	-10.7279
城南	-10.7282
其勢	-10.7284
之利	-10.7284
爲體	-10.7286
便知	-10.7288
奪其	-10.7294
治世	-10.7294
在中	-10.7294
第十	-10.7295
是何	-10.7298
與夫	-10.7302
離火	-10.7303
解悟	-10.7306
諸聖	-10.7307
於是乎	-10.7309
之所以爲	-10.731
不得而	-10.7311
卽便	-10.7314
伏食	-10.7316
元始之	-10.7319
錫福	-10.732
金丹大藥	-10.7322
道路	-10.7326
之原	-10.7333
萬人	-10.7336
龜蛇	-10.7336
原無	-10.7337
之化	-10.7337
不獨	-10.7345
眞神	-10.7348
涸	-10.735
承上	-10.7351
貫通	-10.7355
者正	-10.7357
先王	-10.7359
笑曰	-10.7364
心神	-10.7375
則人	-10.7376
也所謂	-10.7376
中來	-10.7379
闔	-10.7379
勿以	-10.738
彙	-10.7383
擢	-10.7385
臧	-10.7385
盪	-10.7387
狥	-10.7387
洋洋	-10.7387
簫	-10.7387
𥳑	-10.7388
轟	-10.7389
轅	-10.7391
痊	-10.7392
撼	-10.7392
湛寂	-10.7392
與其	-10.7392
隻	-10.7392
盆	-10.7393
門外	-10.7395
伽	-10.7396
迂	-10.7396
飡	-10.7396
股	-10.7397
痕	-10.7399
黃白	-10.7403
打破	-10.7403
虬	-10.7404
長安	-10.7405
鶯	-10.7406
父兄	-10.7407
不妄	-10.7408
達摩	-10.7412
沖和	-10.7413
者猶	-10.7417
然此	-10.7418
在手	-10.7423
一性	-10.7424
年月日時	-10.7429
禪宗	-10.743
利濟	-10.7438
流光	-10.744
之風	-10.7443
不遺	-10.7444
一線	-10.7444
三人	-10.7447
七星	-10.7449
然如	-10.7451
十功	-10.7451
大約	-10.7451
明德	-10.7455
爍	-10.7458
爲此	-10.7461
皇天	-10.7462
邪魔	-10.7463
天台	-10.7465
巓	-10.7468
往而	-10.7472
以德	-10.7474
方成	-10.7478
以全	-10.7479
使民	-10.7482
雖欲	-10.7482
帝尊	-10.7488
不平	-10.7493
二陰	-10.7494
相忘	-10.7496
法也	-10.7496
金書	-10.7496
若欲	-10.7501
寓言	-10.7508
卽得	-10.7509
不漏	-10.7512
線	-10.752
眞眞	-10.752
於天地	-10.7521
何可	-10.7521
受之	-10.7524
命也	-10.7524
祖宗	-10.7527
天元	-10.7529
魔王	-10.753
紫金	-10.7534
鍊形	-10.7536
各自	-10.7545
虛明	-10.7547
形體	-10.7548
㳟	-10.7554
丰	-10.7554
諸佛	-10.7554
降魔	-10.7555
乾之	-10.7559
鵬	-10.7563
不傷	-10.7564
上品	-10.7566
蛻	-10.7566
纎	-10.7566
𡨴	-10.7567
九地	-10.7567
砌	-10.7568
筏	-10.7568
瘡	-10.7569
要在	-10.7569
挈	-10.757
鵲	-10.757
謫	-10.757
蔣	-10.757
織	-10.7571
彷彿	-10.7572
讒	-10.7573
繪	-10.7573
惰	-10.7574
咨	-10.7574
航	-10.7575
隨其	-10.7577
娛	-10.7577
鉅	-10.7577
汎	-10.7577
替	-10.7578
啖	-10.7578
性命雙修	-10.7578
餓	-10.7579
者哉	-10.7579
裘	-10.758
熱	-10.758
渭	-10.7581
玉宸	-10.7583
庚申	-10.7584
源流	-10.7587
者不可	-10.7589
浮沉	-10.7593
長久	-10.7594
將此	-10.7596
佛仙	-10.7596
到底	-10.76
自明	-10.76
淨土	-10.7606
入手	-10.7608
上清	-10.7609
闡教	-10.761
如有	-10.761
打坐	-10.7611
大靈官内壇廵䕶	-10.7611
口鼻	-10.7611
言者	-10.7613
丹訣	-10.7615
妙諦	-10.7615
不期	-10.7618
不差	-10.7622
損益	-10.7622
如在	-10.7627
墮落	-10.7632
眞官	-10.7632
一派	-10.7638
定位	-10.7641
向來	-10.7641
天性	-10.7646
下田	-10.7647
已而	-10.7648
時也	-10.7649
純一	-10.7649
無成	-10.7659
矣今	-10.7659
昇天	-10.7661
了悟	-10.7661
眞玄	-10.7664
無漏	-10.7666
丹法	-10.7668
濟人	-10.7669
保身	-10.7669
如彼	-10.767
不化	-10.7673
諸峰	-10.7675
必用	-10.7677
常住	-10.7679
之末	-10.768
正直	-10.7681
章第三十	-10.7685
北宗	-10.769
言曰	-10.769
察其	-10.7691
鍊心	-10.7694
明心	-10.7695
變而	-10.7699
敢忘	-10.77
如玉	-10.7701
三炁	-10.7702
寐	-10.7704
治天尊大悲	-10.7706
修天尊大悲	-10.7706
火候之	-10.7712
道光	-10.7712
忠信	-10.7716
此所謂	-10.7716
也昔	-10.7716
無主	-10.7718
五師	-10.7718
飛鸞	-10.7723
性中	-10.7725
之首	-10.7729
匠	-10.7737
進修	-10.7741
眞訣	-10.7743
脂	-10.775
翊	-10.7751
離坎	-10.7752
怯	-10.7753
抗	-10.7754
灘	-10.7754
蠲	-10.7756
亞	-10.7757
啞	-10.7757
天一	-10.7758
社稷	-10.7758
之心濟生拔朽以施仁更廣悲思之德	-10.7758
憩	-10.7758
躭	-10.7758
泯	-10.7759
盍	-10.7759
坪	-10.776
萍	-10.7761
未明	-10.7762
鴈	-10.7762
𥚃	-10.7762
刺	-10.7763
遑	-10.7764
苞	-10.7764
灣	-10.7765
譜	-10.7765
凍	-10.7765
幢	-10.7766
妍	-10.7766
收拾	-10.7766
正心	-10.7766
不絕	-10.7767
插	-10.7768
星斗	-10.7769
五星	-10.7771
秘訣	-10.7774
旣濟	-10.7774
淸氣	-10.7774
隋	-10.7775
感格	-10.7777
天關	-10.7778
孚佑帝君	-10.7782
此氣	-10.7782
隱隱	-10.7783
羅浮	-10.7784
我獨	-10.7785
嶽府	-10.7786
霄漢	-10.7789
三拜	-10.7791
三十二	-10.7792
周旋	-10.7793
不拘	-10.7795
先要	-10.7796
柔弱	-10.7796
之美	-10.7797
虛靜	-10.7798
文昌帝君曰	-10.7799
五雲	-10.7811
教化	-10.7814
正教	-10.7814
精血	-10.7814
此所以	-10.7814
妙訣	-10.7817
無際	-10.7819
之色	-10.782
不可測	-10.7821
旣無	-10.7829
眞光	-10.783
丹天尊大悲	-10.7832
有限	-10.7835
蓋以	-10.7837
自取	-10.7842
莫如	-10.7844
一𡻕	-10.7845
而應	-10.7847
一斤	-10.7849
而易	-10.785
十二年	-10.785
黃老	-10.7856
母也	-10.7857
義理	-10.7857
金陵	-10.7857
復歸於	-10.786
愚者	-10.7861
懈	-10.7866
養心	-10.7866
自爲	-10.7866
交合	-10.7868
存存	-10.7874
久則	-10.7878
明天尊大悲	-10.7878
無害	-10.7884
而今	-10.7886
天尊大悲神	-10.789
但見	-10.7892
中出	-10.7898
慧光	-10.7904
返本	-10.7908
動也	-10.791
之景	-10.7911
會於	-10.7912
夫道	-10.7912
十過	-10.7916
大靈官外壇廵䕶	-10.7918
公曰	-10.7919
不靈	-10.792
傳經	-10.7921
斯道	-10.7931
氏之	-10.7931
令其	-10.7932
氛	-10.7938
血海	-10.7938
髯	-10.794
炙	-10.794
汞鉛	-10.794
得手	-10.7941
安靜	-10.7942
弓	-10.7943
噴	-10.7943
不避	-10.7944
馨	-10.7944
茗	-10.7944
悵	-10.7945
栢	-10.7945
洎	-10.7945
仞	-10.7946
架	-10.7947
朶	-10.7947
煅煉	-10.7947
與世	-10.7948
絪緼	-10.7949
勁	-10.795
無色	-10.795
平平	-10.7951
者此	-10.7952
頸	-10.7952
棟	-10.7954
輝煌	-10.7954
百骸	-10.7954
九月	-10.7956
闊	-10.7957
烹鍊	-10.796
此其	-10.796
形象	-10.7961
上相	-10.7962
天柱	-10.7962
有道者	-10.7963
謾	-10.7963
並無	-10.7966
是人	-10.7966
天宮	-10.7968
烟霞	-10.797
苟能	-10.7971
江山	-10.7971
一大	-10.7971
面壁	-10.7972
三世	-10.7975
表裏	-10.7983
夢中	-10.7985
是書	-10.7987
權衡	-10.799
積累	-10.799
不失其	-10.7996
芬	-10.7996
天地之心	-10.8
得眞	-10.8002
言乎	-10.8004
之害	-10.8005
運天尊大悲	-10.8005
上界	-10.8014
仲尼曰	-10.8015
無爲也	-10.8019
海底	-10.802
十惡	-10.8028
帝心	-10.8032
天魔	-10.8034
惟一	-10.8036
一切眾生	-10.8036
世事	-10.8039
法度	-10.8041
連二	-10.8043
無意	-10.8044
其行	-10.8046
般若	-10.805
相感	-10.8054
始有	-10.8054
和而	-10.8064
虎嘯	-10.8065
天闕	-10.8065
自號	-10.8065
之詞	-10.8066
其色	-10.8067
後聖	-10.807
光輝	-10.8074
曰夫	-10.8077
了了	-10.8083
縱有	-10.8083
則失	-10.8089
昔人	-10.8093
而不敢	-10.8093
玉眞	-10.8094
旣久	-10.8096
不暇	-10.8097
得矣	-10.8097
化而爲	-10.8099
靑天	-10.8102
無思	-10.8106
了道	-10.8106
良因	-10.8115
之民	-10.8119
穹	-10.8121
先聖	-10.8121
云何	-10.8121
丹臺	-10.8122
常有	-10.8123
靜也	-10.8124
其罪	-10.8125
行滿	-10.8126
受用	-10.8127
煉形	-10.8127
孰知	-10.8127
有神	-10.8129
屆	-10.8131
遊行	-10.8132
晰	-10.8132
伺	-10.8133
憇	-10.8133
掘	-10.8134
玄之又玄	-10.8137
・	-10.8138
瑜	-10.8139
蘿	-10.814
洋	-10.814
稀	-10.814
轄	-10.8142
傳心	-10.8142
之私	-10.8142
樊	-10.8143
以靜	-10.8143
汲	-10.8144
九宸	-10.8144
帝主	-10.8144
玄關一竅	-10.8144
崑	-10.8145
蝗	-10.8145
孚佑	-10.8146
鑽	-10.8147
稚	-10.8147
酸	-10.8147
樽	-10.8148
牲	-10.8149
斗母天尊頌曰	-10.8149
天師張眞人曰	-10.8149
耐	-10.815
之世	-10.8151
六十四	-10.8153
身體	-10.8153
太上曰	-10.8154
旌陽	-10.8155
重濁	-10.8156
首尾	-10.8157
處士	-10.8159
之辭	-10.816
暗室	-10.8162
參差	-10.8162
從今	-10.8163
八十	-10.8166
之資	-10.817
祥雲	-10.817
塊	-10.8175
闡發	-10.8179
乃見	-10.8181
祈雨	-10.8182
生靈	-10.8184
之禍	-10.8185
其來	-10.8186
深處	-10.8187
士大夫	-10.8189
開闢	-10.8192
句句	-10.8193
地中	-10.8197
不干	-10.8198
乃可	-10.8199
積善	-10.82
下文	-10.8207
頂禮	-10.8211
以身	-10.8213
則精	-10.8214
神聖	-10.8214
七返	-10.8225
之良	-10.8225
至靈	-10.8225
一小	-10.8231
卧龍	-10.8233
出乎	-10.8237
幽深	-10.8242
行善	-10.8242
欲得	-10.8246
東極	-10.8249
莫大於	-10.8249
一端	-10.8251
寂靜	-10.8251
伏念	-10.8252
人家	-10.8259
何等	-10.826
此一段	-10.8261
月魄	-10.8267
火也	-10.8269
聖人之道	-10.8271
苦行	-10.8273
俄而	-10.8276
金母	-10.8277
而始	-10.8278
可用	-10.8278
不倦	-10.8282
正大	-10.8289
以立	-10.8292
兩相	-10.8293
九曲	-10.8294
不來	-10.8294
當用	-10.8294
歸眞	-10.8296
陰陰	-10.8297
丹陽	-10.8298
元始天王	-10.8305
不言而	-10.8306
天尊大悲普	-10.8306
一書	-10.8309
盡其	-10.8309
君之	-10.8312
麓	-10.8314
眞王	-10.8315
旣生	-10.8315
救劫	-10.8317
極樂	-10.8319
執著	-10.8322
精誠	-10.8324
不隨	-10.8326
頴	-10.833
數也	-10.833
塘	-10.833
存養	-10.8332
饌	-10.8334
霑	-10.8334
琢	-10.8335
廿	-10.8335
瀑	-10.8335
巷	-10.8336
瞽	-10.8336
蠅	-10.8337
0001_	-10.8337
婚	-10.8337
識之	-10.8337
仔細	-10.8338
蘋	-10.8338
層層	-10.8339
之心也	-10.8339
範圍	-10.834
貎	-10.834
作善	-10.8341
迎祥	-10.8343
方丈	-10.8345
子母	-10.8345
粧	-10.8346
雙修	-10.8346
喜怒哀樂	-10.8347
得見	-10.8349
南海	-10.8351
昇仙	-10.8354
樓臺	-10.8355
立基	-10.8355
成胎	-10.8356
何曾	-10.8357
漢書	-10.8359
鍊度	-10.8363
異人	-10.8363
厯厯	-10.8363
五岳	-10.8367
頓悟	-10.837
信心	-10.8373
經典	-10.8373
外來	-10.8373
達士	-10.8374
爲害	-10.8376
須至	-10.8378
有司	-10.8379
其内	-10.8386
愚昧	-10.8386
不致	-10.8387
足矣	-10.8387
實實	-10.839
仙宗	-10.8393
證聖	-10.8395
大丈夫	-10.8397
萬有	-10.8397
只此	-10.8397
物我	-10.84
吕祖	-10.84
文明	-10.8402
靜極	-10.8403
上弦	-10.8403
其聲	-10.8406
之妙用	-10.8407
先天之炁	-10.8409
稱爲	-10.8414
所傳	-10.8416
不留	-10.8416
治之	-10.8421
夫惟	-10.8424
天生	-10.8425
於其中	-10.8426
胎仙	-10.8429
九鼎	-10.8431
一本	-10.8434
之家	-10.8438
聖號	-10.844
而見	-10.8452
方圓	-10.8458
根基	-10.846
以制	-10.8465
明白	-10.8476
惟在	-10.8476
華蓋	-10.8476
過去	-10.8479
兩間	-10.8485
朗天尊大悲	-10.849
無復	-10.8492
勅命	-10.8493
太華	-10.8495
復何	-10.8497
其始	-10.8503
一念之	-10.8504
誦持	-10.8504
皆在	-10.8505
覺世	-10.8507
不殺	-10.8507
皆能	-10.8508
不可爲	-10.8512
所及	-10.8524
覃	-10.8524
終不能	-10.8527
縹緲	-10.8528
下弦	-10.8528
生于	-10.8528
馴	-10.853
宗祖	-10.853
瓜	-10.853
授受	-10.853
曁	-10.8532
雖不	-10.8532
潄	-10.8532
璇璣	-10.8533
故人	-10.8534
羸	-10.8534
檻	-10.8535
迅	-10.8535
聆	-10.8535
瞰	-10.8535
楹	-10.8536
寃	-10.8538
毫髮	-10.8538
悶	-10.8538
甚麽	-10.8538
神合	-10.8538
𢌿	-10.8539
挫	-10.854
韶	-10.854
未始	-10.8541
硯	-10.8541
攘	-10.8542
檀	-10.8542
爲子	-10.8544
轂	-10.8545
弩	-10.8545
委曲	-10.8548
如一	-10.855
淸涼	-10.855
莫知	-10.8553
目前	-10.8557
皇君	-10.8557
覆護	-10.8559
之久	-10.8566
性本	-10.8571
地下	-10.8571
鍊成	-10.8572
未幾	-10.8572
玉篆	-10.8573
問其	-10.8574
五千	-10.8574
開明	-10.8577
旣知	-10.8577
舉世	-10.8583
天尊大悲廣	-10.8589
行事	-10.8589
衣服	-10.859
法籙	-10.8591
在何處	-10.8597
之不可	-10.8599
形而	-10.8602
之中而	-10.8606
此眞	-10.8608
四聖	-10.8609
旋轉	-10.8609
虛虛	-10.8611
好善	-10.8613
帝座	-10.8615
愼之	-10.8615
迷途	-10.8615
超然	-10.8617
華陽	-10.8622
大智	-10.8623
功高	-10.8623
具位	-10.8624
亦不知	-10.8628
而用之	-10.8632
何益	-10.8633
本於	-10.8635
無疑	-10.8638
以行	-10.8638
未始有	-10.864
無厭	-10.864
言此	-10.8643
吽	-10.8645
改過	-10.8646
此非	-10.8648
賢者	-10.8651
修建	-10.8651
天之道	-10.8652
誠意	-10.866
惠子	-10.8662
發願	-10.8662
功滿	-10.8664
正宗	-10.8671
時節	-10.8673
有名	-10.8677
威光	-10.8681
伏魔	-10.8683
吾家	-10.8684
用以	-10.8684
歸元	-10.8688
以還	-10.8688
不利	-10.8689
人若	-10.8692
如今	-10.8694
異於	-10.8697
也亦	-10.8703
將以	-10.8709
四句	-10.8711
此炁	-10.8712
應時	-10.8712
無愧	-10.8713
浩劫	-10.8714
合體	-10.8715
死矣	-10.8718
時刻	-10.8718
兩者	-10.8719
内丹	-10.872
煉藥	-10.872
巍	-10.872
直到	-10.872
而無所	-10.8723
指出	-10.8725
得長生	-10.8727
磴	-10.8727
王母	-10.8729
諾	-10.873
之寶	-10.8731
觔	-10.8731
忘我	-10.8732
超生	-10.8734
不樂	-10.8734
炭	-10.8734
有是	-10.8736
扶桑	-10.8736
至仁	-10.8736
軫	-10.8737
徼	-10.8737
眩	-10.8738
蠧	-10.8738
雉	-10.8738
淘	-10.8738
自然之理	-10.8739
陞	-10.8739
遨遊	-10.8739
_	-10.874
椿	-10.874
虎狼	-10.8741
劄	-10.8741
朿	-10.8741
㩦	-10.8741
蝸	-10.8742
滙	-10.8743
喫	-10.8743
弼	-10.8744
椎	-10.8744
諸經	-10.8745
二十八宿	-10.8746
沽	-10.8746
劈	-10.8747
瓢	-10.8747
卽使	-10.8747
蝶	-10.8747
十餘里	-10.8747
石上	-10.8751
變成	-10.8751
我我	-10.8751
本師言	-10.8753
個個	-10.8754
侯之	-10.8754
聽命	-10.8755
嘉靖	-10.8756
天真	-10.8759
諦聽	-10.8761
時當	-10.8761
上篇	-10.8764
如法	-10.8767
其旨	-10.8769
一夕	-10.877
未及	-10.8771
居於	-10.8771
心如	-10.8772
人不能	-10.8777
所存	-10.8777
帝德	-10.8779
見道	-10.8779
六塵	-10.878
南昌	-10.878
子貢	-10.878
此節	-10.8781
旣成	-10.8782
堂堂	-10.8783
玉華	-10.8784
論之	-10.8784
玄靈	-10.8784
曰天	-10.8785
大慈尊	-10.8788
六爻	-10.8788
制伏	-10.8789
未曾	-10.879
兩忘	-10.8791
蓋其	-10.8794
利用	-10.8795
其門	-10.8796
木火	-10.88
之母	-10.8801
知音	-10.8803
自安	-10.8803
虛實	-10.8804
成象	-10.8806
溺於	-10.8807
此事	-10.8812
則可以	-10.8812
因而	-10.8814
了命	-10.8817
外馳	-10.8821
言言	-10.8821
化現	-10.8825
山上	-10.8825
亦如	-10.8826
九陽	-10.8827
周子	-10.8828
妙在	-10.8829
然其	-10.8829
天恩	-10.8833
進而	-10.8837
超凡	-10.8839
三寸	-10.8839
不論	-10.8843
在焉	-10.8845
者固	-10.8846
萬善	-10.8846
心之所	-10.8847
百萬	-10.8851
斯言	-10.8863
六時	-10.8865
一如誥命	-10.8865
畜生	-10.8866
永安	-10.8868
此篇	-10.8868
玄武	-10.8873
君有曰	-10.8875
十極	-10.8877
化作	-10.8878
爲貴	-10.8881
威神	-10.8883
道果	-10.8886
辜	-10.8891
三乘	-10.8896
忘情	-10.8898
便當	-10.89
前有	-10.89
不老	-10.8902
一則	-10.8904
過於	-10.8905
將見	-10.8906
一眞	-10.891
億劫	-10.8911
而不知其	-10.8923
遂成	-10.8923
不疑	-10.8926
惻	-10.8927
萬丈	-10.8931
盡矣	-10.8933
夬	-10.8934
也葢	-10.8934
時至	-10.8939
尖	-10.894
瑟	-10.8941
褘	-10.8942
修奉	-10.8942
箱	-10.8943
豹	-10.8944
塑	-10.8944
窔	-10.8944
挹	-10.8945
梧	-10.8945
一動一靜	-10.8945
陂	-10.8946
什	-10.8946
梟	-10.8947
構	-10.8947
凋	-10.8947
誠能	-10.8947
止止	-10.8948
滓	-10.8948
至真	-10.8948
繇	-10.8948
道言	-10.8949
厨	-10.8949
矧	-10.8949
槐	-10.895
芙蓉	-10.895
五道	-10.8951
區區	-10.8951
忝	-10.8951
婁	-10.8952
瞞	-10.8954
端倪	-10.8954
皆空	-10.8955
汙	-10.8955
寂寞	-10.8956
日魂	-10.8956
呵呵	-10.8958
豫章	-10.8959
姚	-10.896
仍乞	-10.8961
以此爲	-10.8963
純熟	-10.8964
無量度人	-10.8964
合德	-10.8966
玉樞	-10.8967
又五日	-10.8968
在其中矣	-10.8968
性天	-10.8969
中求	-10.8973
月中	-10.8975
而失	-10.8979
之禮	-10.8984
冲和	-10.8989
迷惑	-10.8989
逸士	-10.899
何難	-10.899
玉符	-10.899
此物	-10.8998
能得	-10.9
形也	-10.9001
誓願	-10.9002
妙相	-10.9005
幽顯	-10.901
不滯	-10.901
祈禳	-10.9012
淺深	-10.9012
靈機	-10.9012
仲達	-10.9012
澄淸	-10.9013
所聞	-10.9013
端坐	-10.9014
王子	-10.9014
順而	-10.9016
落落	-10.902
二十年	-10.9021
之仁	-10.9021
全憑	-10.9021
未分	-10.9023
忠義	-10.9024
神威	-10.9034
乘雲	-10.9035
頌曰	-10.9038
爲德	-10.9039
相依	-10.9042
聽其	-10.9043
三字	-10.9048
二陽	-10.9048
心卽	-10.9049
一室	-10.9053
於無	-10.9057
之端	-10.9059
涯	-10.9061
御史	-10.9066
子輩	-10.9066
天府	-10.9067
起手	-10.9071
囿	-10.9072
水陸	-10.9075
又能	-10.9076
轉爲	-10.9078
生則	-10.9079
所願	-10.9081
處世	-10.9082
道經	-10.9087
永樂	-10.9094
異名	-10.9095
生尅	-10.9104
何敢	-10.9108
及諸	-10.9113
氣自	-10.9114
星星君	-10.9115
雖未	-10.9116
之域	-10.9116
屬陽	-10.912
當前	-10.913
止也	-10.9133
大功	-10.9134
祖父	-10.9134
福祉	-10.9135
五百	-10.9137
大國	-10.9139
說是	-10.914
而論	-10.9142
須用	-10.9143
啣	-10.9147
雷雨	-10.9148
萬國	-10.9148
幾人	-10.915
庶使	-10.9153
大過	-10.9153
藐	-10.9154
命之	-10.9155
逈	-10.9155
濛	-10.9155
翹	-10.9155
琳	-10.9155
嘿	-10.9158
規模	-10.9158
好惡	-10.9158
梗	-10.9158
繹	-10.9159
錮	-10.9159
滄海	-10.916
攖	-10.916
𥸤	-10.916
訴	-10.916
瀉	-10.916
■	-10.916
虎豹	-10.9161
槁	-10.9161
嗜慾	-10.9161
蠶	-10.9162
琉璃	-10.9162
見得	-10.9165
道氣	-10.9165
黍珠	-10.9167
幅	-10.9167
洞神	-10.9167
五祖	-10.9167
杉	-10.9167
玉皇上帝	-10.9167
形如	-10.9168
善行	-10.9169
不生不滅	-10.9169
藤	-10.9171
兩弦	-10.9172
用力	-10.9173
天尊大悲恩	-10.9173
湧泉	-10.9173
識者	-10.9174
不離乎	-10.9174
無所用	-10.9176
滋味	-10.9179
丹家	-10.9181
伏聞	-10.9182
見此	-10.9183
聖智	-10.9183
加以	-10.9185
現出	-10.9186
得來	-10.9187
人必	-10.9188
總領	-10.919
赦罪	-10.9191
最爲	-10.9191
寶誥	-10.9197
明師	-10.9198
眾等	-10.9199
眾眞	-10.92
初六	-10.9204
疑惑	-10.9204
通乎	-10.9205
珍重	-10.9209
飄然	-10.921
淸醮	-10.9212
安甯	-10.9212
巽風	-10.9213
此段	-10.9213
之一字	-10.9216
一靈	-10.9216
淸眞	-10.9217
俗人	-10.9223
一石	-10.9224
䖍誠	-10.9226
得丹	-10.9234
來者	-10.9239
之事也	-10.924
口誦	-10.9241
華山	-10.9241
音余	-10.9246
舍利	-10.9248
二十五	-10.9251
圓覺	-10.9254
居中	-10.9256
及於	-10.9256
許由	-10.9257
陰魄	-10.9258
中極	-10.9263
丹頭	-10.9264
總在	-10.9264
主持	-10.9265
交姤	-10.9267
五過	-10.9268
養其	-10.9274
月光	-10.9275
氣和	-10.9276
乾體	-10.9276
惡乎	-10.9279
夜半	-10.9281
登山	-10.9286
忠臣	-10.9287
可成	-10.9287
大光明	-10.9289
孚佑上帝	-10.9289
無終	-10.929
香花	-10.9292
命根	-10.9295
之理也	-10.9295
萬萬	-10.9297
不勞	-10.9309
安在	-10.9311
之願	-10.9311
仙聖	-10.9312
火符	-10.9312
則死	-10.9315
張紫陽	-10.9316
小事	-10.9317
眞聖	-10.9317
震動	-10.9319
猶存	-10.9323
蒼生	-10.9323
月明	-10.9325
淸微	-10.9325
下流	-10.9326
雷電	-10.9329
九還	-10.9333
而安	-10.9334
正理	-10.9336
便得	-10.9337
妙哉	-10.9339
爲一功	-10.934
周易	-10.934
以安	-10.9343
不欺	-10.9344
名也	-10.9347
道炁	-10.935
䑓	-10.9357
中分	-10.9358
情性	-10.9358
治人	-10.936
節度	-10.9361
其國	-10.9361
洞天仙官	-10.9363
之君	-10.9369
修真	-10.9369
付之	-10.937
狎	-10.9371
黑鉛	-10.9371
腹中	-10.9372
世道	-10.9373
壅	-10.9373
倖	-10.9373
傳於	-10.9374
洞府	-10.9374
悚	-10.9374
知足	-10.9375
隕	-10.9375
百體	-10.9375
廻	-10.9375
隄防	-10.9375
狠	-10.9376
歉	-10.9377
懶	-10.9377
也上六	-10.9377
水火旣濟	-10.9378
見前	-10.9379
皎	-10.9379
縫	-10.9379
水水	-10.9381
者以其	-10.9382
貳	-10.9383
售	-10.9383
大矣哉	-10.9383
慎	-10.9383
漆	-10.9384
覊	-10.9384
稼	-10.9384
水上	-10.9384
惺惺	-10.9386
鎮	-10.9387
石門	-10.9387
照見	-10.9387
合乎	-10.9387
屑	-10.9387
煙霞	-10.9387
擎	-10.9387
陛下	-10.939
包羅	-10.9391
體也	-10.9392
之傳	-10.9396
靈寶天尊	-10.9397
金銀	-10.9397
浩然	-10.9399
則非	-10.9399
艱難	-10.9401
方見	-10.9407
不察	-10.9407
建立	-10.9409
未成	-10.941
因果	-10.941
地軸	-10.9411
自修	-10.9412
雲霄	-10.9414
定而	-10.9415
長短	-10.9426
化人	-10.9427
常定	-10.9428
陰德	-10.9428
不眞	-10.9435
窩	-10.9437
得中	-10.944
事理	-10.9443
注曰	-10.9445
自如	-10.9446
址	-10.9446
之輩	-10.9447
所用	-10.9447
細細	-10.945
二土	-10.9453
任他	-10.9456
用火	-10.9458
所由	-10.9461
不雜	-10.9467
使我	-10.9469
紫炁	-10.9471
源頭	-10.9475
二百	-10.9478
兆民	-10.9479
與君	-10.948
憚	-10.9483
官將	-10.9486
玉爐	-10.9491
同其	-10.9494
周圓	-10.9495
如初	-10.9496
以知	-10.9496
皆然	-10.95
宣王	-10.9505
初學	-10.9505
有事	-10.9508
人各	-10.951
寶鼎	-10.9514
拔出	-10.9516
居之	-10.9518
深入	-10.9519
夀命	-10.9523
稍有	-10.9534
三景	-10.9538
至正	-10.9541
之愆	-10.9546
一行	-10.9548
遂致	-10.955
數語	-10.9552
黃河	-10.9553
陽春	-10.9554
靈魂	-10.9554
魏公	-10.9554
著天尊大悲	-10.9555
不退	-10.9557
待之	-10.9562
是心	-10.9567
賢人	-10.9568
受福	-10.9568
意者	-10.9569
延夀	-10.957
行止	-10.9573
而不見	-10.958
諸大	-10.9583
本源	-10.9586
焉得	-10.9587
萬方	-10.959
誠敬	-10.9593
盜跖	-10.9593
謟	-10.9593
摶	-10.9595
撲	-10.9595
水源	-10.9596
繳	-10.9596
三皇	-10.9597
戈	-10.9597
〓〓	-10.9598
菓	-10.9598
扣	-10.9599
訶	-10.9599
澆	-10.9599
于此	-10.9599
一呼一吸	-10.96
歩	-10.9601
蒲團	-10.9601
太上虛皇三寶十方三界萬靈保	-10.9601
雲中	-10.9601
朋友	-10.9602
惟道	-10.9603
奎	-10.9604
欺人	-10.9604
禧	-10.9604
恍恍惚惚	-10.9604
混然子曰	-10.9604
之序	-10.9604
位而	-10.9605
縳	-10.9605
九載	-10.9606
栗	-10.9606
寔	-10.9607
十萬	-10.9609
跨鶴	-10.961
正當	-10.9611
似有	-10.9611
快活	-10.9611
嬉	-10.9611
朱陵	-10.9612
匣	-10.9613
十戒	-10.9613
者惟	-10.9614
何得	-10.9616
猶在	-10.9616
妙處	-10.9616
大凡	-10.9618
在前	-10.9618
眞身	-10.9619
而益	-10.962
光中	-10.9622
了然	-10.9622
大慧	-10.9624
採戰	-10.9625
至神	-10.963
塵沙	-10.9631
箇箇	-10.9635
和也	-10.9638
流轉	-10.9639
未生	-10.9641
至若	-10.9654
通於	-10.9654
十善	-10.9655
之妙也	-10.9655
反爲	-10.9655
迷津	-10.9657
立壇	-10.9661
名號	-10.9661
人見	-10.9663
陰陽相	-10.9665
濟生	-10.9669
一種	-10.9669
中生	-10.967
以柔	-10.9673
儒家	-10.9674
則不然	-10.9676
語錄	-10.9676
行功	-10.9677
果天尊大悲	-10.9677
煉己	-10.9679
得定	-10.9687
臣等	-10.9688
赤龍	-10.9689
乃有	-10.969
金烏	-10.9691
之失	-10.9692
有箇	-10.9693
風波	-10.9694
古來	-10.9694
雲霧	-10.9696
敢不	-10.9699
自悟	-10.9703
者少	-10.9704
有形之	-10.9704
君親	-10.9708
紅光	-10.9709
三首	-10.9712
八節	-10.9714
關頭	-10.9715
陽明	-10.9717
德者	-10.972
者道之	-10.972
西湖	-10.972
赤書	-10.972
傳授	-10.9722
極其	-10.9723
齋修	-10.973
合天尊大悲	-10.973
必成	-10.973
之用也	-10.9738
不能盡	-10.9738
受度	-10.9739
百世	-10.9743
如人	-10.9743
全書	-10.9743
南宮	-10.9746
丹天	-10.9748
自守	-10.975
砂汞	-10.9752
請曰	-10.9752
皆當	-10.9754
塲	-10.9756
初三	-10.9756
無分	-10.9757
▁遊	-10.9761
大公	-10.9761
在身	-10.9761
慧劍	-10.9762
而萬物	-10.9763
始而	-10.9766
行於	-10.9767
兩腎	-10.9769
洪恩	-10.977
至虛	-10.9771
然有	-10.9773
詩書	-10.9774
昏迷	-10.9774
獲福	-10.9776
焉有	-10.9777
周行	-10.9778
未判	-10.978
不移	-10.9784
媾	-10.9785
大神通	-10.9788
丹基	-10.9788
今朝	-10.9788
不特	-10.9789
海上	-10.9798
自身	-10.98
生方	-10.9806
不取	-10.9809
妄爲	-10.9809
諸司	-10.9811
芹	-10.9812
不犯	-10.9815
霖	-10.9815
之計	-10.9815
五十過	-10.9815
不空	-10.9816
之宜	-10.9817
泗	-10.9818
長生之	-10.9819
峒	-10.982
遼	-10.9821
哆	-10.9822
妙寶神功顯號應化天尊偈曰	-10.9822
之圖	-10.9823
喘	-10.9824
惡之	-10.9824
閨	-10.9824
汁	-10.9825
渝	-10.9826
六十四卦	-10.9827
鐺	-10.9827
摹	-10.9828
綏	-10.9828
槩	-10.9828
評	-10.9829
一致	-10.9829
蔬	-10.9829
祈禱	-10.9829
抒	-10.9829
温温	-10.9829
袪	-10.983
陶鑄	-10.983
愍	-10.983
則其	-10.983
書云	-10.983
夾脊	-10.9831
怛	-10.9832
貪嗔	-10.9833
擬議	-10.9833
喝	-10.9834
沔	-10.9834
作惡	-10.9834
徳	-10.9834
玉蟾	-10.9836
而還	-10.9837
此山	-10.9841
充塞	-10.9841
達於	-10.9842
長跪	-10.9842
康熙	-10.9842
降臨	-10.9842
四體	-10.9843
物命	-10.9843
百脈	-10.9844
包含	-10.9845
八九	-10.9848
其中有	-10.9849
人君	-10.985
一如誥命風火驛傳	-10.9856
章第五	-10.986
者可以	-10.986
而用	-10.9861
一點眞	-10.9861
方外	-10.9863
羅列	-10.9863
然亦	-10.9866
盡是	-10.987
依舊	-10.9872
意也	-10.9877
而爲之	-10.9879
飛來	-10.9881
兩山	-10.9882
造作	-10.9884
死亡	-10.9886
心空	-10.9887
充足	-10.9889
壺中	-10.9893
乎夫	-10.9894
虛也	-10.9896
亭亭	-10.9897
蒼蒼	-10.9898
旡咎象曰	-10.9904
迄今	-10.9906
知所	-10.9907
四川	-10.9908
金容	-10.9909
萬厯	-10.991
一條	-10.9913
有如此	-10.9914
三四	-10.992
開悟	-10.9921
實切	-10.9921
今爲	-10.9922
又當	-10.9924
化形	-10.9927
不同而	-10.9929
深山	-10.9929
修士	-10.9933
可知矣	-10.9933
元帥飛天	-10.9934
回光	-10.9937
善念	-10.9941
心則	-10.9941
無形之	-10.9944
賜福	-10.9946
雲篆	-10.9948
無識	-10.9949
度數	-10.995
南宗	-10.9954
不停	-10.9955
演教	-10.9956
可使之	-10.9959
宗親	-10.9964
天尊大悲德	-10.9968
天開	-10.9968
天地之氣	-10.997
吉也	-10.9971
以見	-10.9976
何哉	-10.9982
始也	-10.9982
山高	-10.9983
福夀	-10.9983
又問曰	-10.9984
生育	-10.9986
有云	-10.9986
之祕	-10.9988
止火	-10.999
規中	-10.9993
之深	-10.9999
是先天	-11.0004
吾見	-11.0004
分爲	-11.0007
者可	-11.0009
之易	-11.0013
者得	-11.0014
水流	-11.0016
念佛	-11.0016
九靈	-11.0017
神將	-11.0017
不得已而	-11.0021
心常	-11.0027
必不能	-11.0027
之本也	-11.0029
讀之	-11.003
俱在	-11.0031
又將	-11.0031
諷	-11.0031
難名	-11.0034
牟尼	-11.0037
象也	-11.0043
傷人	-11.0049
石壁	-11.005
相爲	-11.0051
麽	-11.0051
安可	-11.0052
空寂	-11.0052
煌煌	-11.0054
彊	-11.0054
淆	-11.0055
悼	-11.0055
其外	-11.0056
狄	-11.0056
一誠	-11.0057
佚	-11.0057
惱	-11.0058
嵓	-11.0058
撇	-11.0059
簪	-11.0059
塜	-11.0059
儉者	-11.006
天地之道	-11.006
合同	-11.006
隷	-11.0061
一次爲一功	-11.0061
勻	-11.0062
絮	-11.0063
栖	-11.0063
翦	-11.0064
款	-11.0064
璞	-11.0064
作禮	-11.0065
雛	-11.0065
劇	-11.0065
爵祿	-11.0067
此四	-11.0067
徐徐	-11.0068
碌碌	-11.0068
獅子	-11.0068
葷	-11.0068
滛	-11.0068
有道之士	-11.0069
𥪡	-11.007
枚	-11.0071
如雲	-11.0071
幡	-11.0072
天有	-11.0072
皇后	-11.0072
滇	-11.0073
相隨	-11.0073
桃源	-11.0074
之厄	-11.0075
淫慾	-11.0076
十五里	-11.0076
遂至	-11.0078
淸心	-11.0083
大靈官内外廵䕶	-11.0086
救世	-11.0086
而難	-11.0088
試看	-11.0088
老聃	-11.0088
治身	-11.0094
乾坤坎離	-11.0097
三素	-11.0098
也知	-11.01
張子	-11.0101
之爲物	-11.0103
翠微	-11.0105
陰精	-11.0105
維持	-11.0106
原本	-11.0108
受氣	-11.011
不虧	-11.0111
來臨	-11.0112
囘頭	-11.0113
爲首	-11.0114
煉氣	-11.0117
身不	-11.0118
所以能	-11.0119
一篇	-11.0121
至善	-11.0123
豈容	-11.0124
漸長	-11.0125
斯時	-11.0127
普照	-11.0129
金性	-11.013
其初	-11.0132
特爲	-11.0132
中道	-11.0132
切不可	-11.0132
必由	-11.0133
后土	-11.0133
一周	-11.0135
多方	-11.014
元和	-11.0142
臥龍	-11.0144
用此	-11.0146
坤元	-11.0147
陽而	-11.0149
通天尊大悲	-11.015
上朝	-11.015
有常	-11.015
氣足	-11.0153
本身	-11.0157
能無	-11.0161
大矣	-11.0162
是曰	-11.0163
百過	-11.0167
伏乞	-11.0169
中心	-11.0171
而亦	-11.0171
心志	-11.0175
說到	-11.0176
百福	-11.0178
非無	-11.0179
財物	-11.0185
之不同	-11.0185
由來	-11.0187
不墮	-11.0189
十華	-11.019
以利	-11.0191
失於	-11.0193
比之	-11.0195
故得	-11.0195
龍漢	-11.02
滿足	-11.02
一百二十	-11.0202
色身	-11.0207
聞者	-11.0208
九光	-11.0209
天氣	-11.0211
立地	-11.0213
福果	-11.0218
章第六	-11.0218
隱於	-11.0218
亦爲	-11.0219
氣血	-11.022
梵天	-11.0224
談道	-11.0227
因人	-11.0228
體之	-11.0231
鍊神	-11.0231
已盡	-11.0232
卽道	-11.0232
老子曰	-11.024
起居	-11.0242
雲氣	-11.0242
知見	-11.0243
無根	-11.0248
泓	-11.0249
爲萬物	-11.0252
普天	-11.0252
總要	-11.0252
眞境	-11.0256
太始	-11.0259
遵行	-11.026
丞	-11.026
玄根	-11.0264
偶然	-11.0266
海内	-11.0266
入意	-11.0267
天文	-11.0268
我無	-11.0271
又恐	-11.0272
誥志心皈命禮	-11.0275
微塵	-11.0277
顯化	-11.0279
也上九	-11.0279
埀	-11.0279
從治得道神君	-11.028
老翁	-11.0281
蕊	-11.0282
隆中	-11.0286
杏	-11.0288
楮	-11.029
鵠	-11.0292
浮生	-11.0292
迥	-11.0292
精華	-11.0292
稻	-11.0293
也然則	-11.0294
棗	-11.0294
岫	-11.0295
赦宥	-11.0296
三軍	-11.0297
冐	-11.0297
蹊	-11.0297
嚼	-11.0298
罪過	-11.0298
楓	-11.0298
炷	-11.0298
極而	-11.0298
疫癘	-11.0299
斵	-11.0299
贖	-11.0299
懺悔	-11.0299
複	-11.0299
淹	-11.0299
天目	-11.0299
4	-11.0299
剔	-11.03
出現	-11.0302
庖	-11.0303
順則	-11.0303
演說	-11.0303
孔孟	-11.0303
相濟	-11.0304
栽培	-11.0304
飛玄	-11.0304
紋	-11.0304
咫尺	-11.0304
開天	-11.0305
紐	-11.0306
邉	-11.0306
餅	-11.0307
驢	-11.0308
君曰	-11.0309
屈伸	-11.0309
善緣	-11.0311
嘆曰	-11.0312
混融	-11.0312
靈山	-11.0312
嘲	-11.0314
二日	-11.0314
也然而	-11.0325
厯代	-11.0325
尙存	-11.0325
玉文	-11.033
總歸	-11.0333
金籙	-11.0335
閉目	-11.0336
吾子	-11.0338
聲聞	-11.0338
易於	-11.0338
之累	-11.034
諸弟子	-11.0341
祀典	-11.0342
鍳察大使	-11.0342
而發	-11.0345
不忠	-11.0346
具有	-11.0347
道本無	-11.0348
有身	-11.0348
西天	-11.0348
青龍	-11.035
爲宗	-11.0351
德不	-11.0351
法力	-11.0352
七魄	-11.0352
自然之道	-11.0353
盡而	-11.0353
所宜	-11.0354
瀑布	-11.0355
於已	-11.0355
保全	-11.0359
大眞人	-11.0362
外無	-11.0363
自天	-11.0365
善哉	-11.0366
無奈	-11.0367
天尊大悲弘	-11.0371
片時	-11.0374
轉移	-11.0375
請問	-11.0375
之質	-11.0376
之治	-11.0377
之別	-11.0377
天涯	-11.0377
坤之	-11.0378
之始也	-11.0381
氣穴	-11.0383
性靈	-11.039
善根	-11.0392
然必	-11.0393
乎人	-11.0399
科事	-11.0399
昏昏	-11.04
生化	-11.0405
發露	-11.0406
上應	-11.0409
語曰	-11.041
人言	-11.0415
道術	-11.0415
三里	-11.0418
專一	-11.0423
三生	-11.0423
無外	-11.0423
合爲一	-11.0425
則易	-11.0425
但能	-11.0425
到得	-11.0425
三十里	-11.0426
先覺	-11.0427
禮斗	-11.043
自可	-11.043
者因	-11.0433
三境	-11.0439
神鬼	-11.044
太祖	-11.0442
亡者	-11.0446
帝前	-11.0453
日新	-11.0455
相同	-11.0455
渾合	-11.0455
者不過	-11.0459
子房	-11.0461
也能	-11.0461
之由	-11.0463
萬福	-11.0464
大觀	-11.0465
天尊大悲丹	-11.047
吾願	-11.0471
我自	-11.048
之表	-11.0482
形質	-11.0482
生出	-11.0483
在家	-11.0488
雲路	-11.0489
所以然	-11.0492
本眞	-11.0495
治也	-11.0495
已有	-11.0499
開壇	-11.0499
宮中	-11.0502
出陽神	-11.0504
中國	-11.0506
三災	-11.0511
洞徹	-11.0512
及時	-11.0513
如火	-11.0516
邪淫	-11.0517
靈章	-11.0519
又復	-11.0519
志心朝禮	-11.0522
殄	-11.0522
七眞	-11.0523
應感	-11.0524
虛天尊大悲	-11.0525
置之	-11.0525
鐸	-11.0527
正中	-11.0527
光景	-11.053
之所爲	-11.053
鉤	-11.0531
釡	-11.0532
心靜	-11.0535
況	-11.0535
無虧	-11.0535
修性	-11.0536
瘟疫	-11.0536
必待	-11.0537
苛	-11.0537
粘	-11.0538
飈	-11.0539
箇中	-11.0539
瀾	-11.054
儘	-11.054
妥	-11.054
笥	-11.0541
鷗	-11.0541
龕	-11.0541
磯	-11.0541
急急如律令	-11.0542
三華	-11.0542
耆	-11.0543
鳩	-11.0543
之主宰	-11.0543
知我	-11.0544
b	-11.0544
萬遍	-11.0544
不迷	-11.0544
煉神還虛	-11.0544
凄	-11.0545
膀胱	-11.0545
馨香	-11.0545
翩翩	-11.0546
牌	-11.0547
迸	-11.0547
娘	-11.0547
勇猛	-11.0548
嶠	-11.0549
浣	-11.0549
釐	-11.055
鳳凰	-11.0551
靜靜	-11.0553
與道合眞	-11.0553
祭祀	-11.0554
闗	-11.0554
難遇	-11.0554
帳	-11.0556
𡽪	-11.0557
左手	-11.0561
洪武	-11.0561
法天	-11.0562
書院	-11.0562
亦不得	-11.0563
年年	-11.0563
洞洞	-11.0563
生天地	-11.0566
相望	-11.0571
則可	-11.0572
故其	-11.0574
須彌	-11.0575
善信	-11.0575
此謂	-11.0576
私欲	-11.0579
瞻仰	-11.0579
不見有	-11.0581
也君子	-11.0582
爲天地	-11.0584
高遠	-11.0586
後先	-11.0586
獨立	-11.0587
治心	-11.0593
太清	-11.0594
凡物	-11.0598
之有也	-11.0598
微微	-11.0598
骨節	-11.0598
啟請	-11.0599
在在	-11.0599
道非	-11.06
矣所以	-11.0604
陰中	-11.0604
令我	-11.0605
而强	-11.0605
豈惟	-11.0606
一過	-11.0607
秋月	-11.0608
如何是	-11.0615
四正	-11.0615
希有	-11.0618
化氣	-11.0621
哉夫	-11.0621
安居	-11.0622
一時之	-11.0623
雷聲	-11.0623
亦自	-11.0624
法師	-11.0625
諸人	-11.063
白石	-11.0633
與人同	-11.064
聲音	-11.0641
冥心	-11.0642
一無所	-11.0643
以俟	-11.0643
也若夫	-11.0644
紫淸	-11.0645
不盈	-11.0646
妙境	-11.0649
五賊	-11.065
各得其	-11.0651
一笑	-11.0656
修崇	-11.0659
靑山	-11.0662
心田	-11.0664
天風	-11.0665
和則	-11.0666
三魂	-11.0666
煉之	-11.0667
思議	-11.0669
神祇	-11.0672
至心	-11.0672
至公	-11.0672
以象	-11.0675
事物	-11.0678
朝天	-11.068
安得不	-11.0681
天威	-11.0682
生生之	-11.0683
分野	-11.0683
剛中	-11.0685
氣運	-11.0687
出自	-11.0687
者耶	-11.0688
尊師	-11.0689
爲正	-11.069
者所以	-11.069
則道	-11.0692
忽見	-11.0692
汝當	-11.0695
則火	-11.0697
鶴林	-11.07
心目	-11.0708
切莫	-11.071
金公	-11.0713
太過	-11.0713
一法	-11.0716
明鏡	-11.0716
妄言	-11.0717
同乎	-11.0718
生前	-11.0719
貴於	-11.0719
火不	-11.0723
其死	-11.0723
諸法	-11.0725
年月日	-11.0728
妄心	-11.0736
號爲	-11.0738
尙可	-11.0745
不幸	-11.0747
天下之至	-11.0747
臨壇	-11.0748
攢簇	-11.0749
眞形	-11.075
所致	-11.075
者故	-11.0751
長史	-11.0756
變而爲	-11.0757
陰陽五行	-11.0758
定則	-11.0759
龍沙	-11.0766
命者	-11.0772
慶雲	-11.0773
也猶	-11.0775
柔順	-11.0777
輅	-11.0779
笈	-11.078
尤爲	-11.0781
䙝	-11.0784
霓	-11.0784
凟	-11.0786
虛極靜篤	-11.0786
駒	-11.0787
熏	-11.0787
洗滌	-11.0787
蔚	-11.0788
化而	-11.0788
王天君曰	-11.0789
緖	-11.0789
哺	-11.0789
梨	-11.0789
螺	-11.079
珮	-11.0792
海水	-11.0792
活子時	-11.0792
鬻	-11.0793
擾擾	-11.0793
壬癸	-11.0795
玷	-11.0796
稿	-11.0796
陌	-11.0796
蹶	-11.0797
吒	-11.0797
踴躍	-11.0798
葫蘆	-11.0798
閬苑	-11.0798
搬運	-11.0798
良辰	-11.0799
一中	-11.08
掌握	-11.08
聖帝	-11.0802
三界十方	-11.0802
精修	-11.0803
鼓舞	-11.0803
諸葛孔明	-11.0804
司馬懿	-11.0804
生意	-11.0806
能守	-11.0808
不可不知	-11.0808
城郭	-11.0809
侍郎	-11.0812
元吉	-11.0813
初心	-11.0813
情識	-11.0814
御政	-11.0815
朱砂	-11.0816
外而	-11.0816
善則	-11.0821
襄陽	-11.0822
又見	-11.0824
分形	-11.0825
跳出	-11.0826
交相	-11.0826
羽士	-11.0827
色界	-11.0827
隨心	-11.0829
中虛	-11.0829
惟知	-11.0833
无妄	-11.0833
儼然	-11.0835
大海	-11.0835
其力	-11.0835
金門	-11.0837
流入	-11.0837
默朝	-11.084
仙姑	-11.0841
諸眾生	-11.0841
飄飄	-11.0842
冥司	-11.0843
乘風	-11.0843
獨存	-11.0845
自矜	-11.0847
不學	-11.0854
羣魔	-11.0854
將欲	-11.0856
曹公	-11.0858
冲虛	-11.0858
九華	-11.086
之病	-11.086
者也故	-11.086
而登	-11.0864
紫霞	-11.0864
盡心	-11.0868
上田	-11.0871
勤修	-11.0872
腎中	-11.0876
精思	-11.0876
爲五十過	-11.0877
少女	-11.0881
於其間	-11.0883
亦同	-11.0883
端的	-11.0883
秋風	-11.0884
婆心	-11.0884
化化	-11.0885
用也	-11.0886
洞房	-11.0887
外則	-11.089
盈虛	-11.0892
八兩	-11.0894
虛則	-11.0895
登高	-11.0896
之貌	-11.0899
足下	-11.0902
思量	-11.0902
聖慈	-11.0902
半月	-11.0905
有四	-11.0905
法旨	-11.0912
中流	-11.0915
也必	-11.0915
靑帝	-11.0916
玉池	-11.0916
天尊大悲福	-11.0916
火生	-11.0918
士之	-11.0924
有終	-11.0927
二五	-11.0933
帝君曰	-11.0934
五倫	-11.0936
化機	-11.0937
功在	-11.0941
此種	-11.0942
七曲	-11.0944
小者	-11.0945
有作	-11.0947
修玄	-11.0947
而分	-11.0951
妙化	-11.0953
以作	-11.0954
百步	-11.0954
最靈	-11.0958
統御	-11.0959
卽可	-11.0959
春色	-11.0964
離宫	-11.0966
洞達	-11.0967
凡此	-11.097
只一	-11.0971
五音	-11.0973
真靈	-11.0977
天香	-11.0977
之咎	-11.0979
煉炁	-11.0984
南山	-11.0985
注生	-11.0985
所載	-11.0986
不以爲	-11.099
不惜	-11.099
之竅	-11.0993
詳言	-11.0997
四十九	-11.1
非凡	-11.1002
觀此	-11.1002
有善	-11.1002
世之人	-11.1004
氣聚	-11.1006
不禁	-11.1007
資生	-11.1007
養胎	-11.101
神妙	-11.1011
動者	-11.1012
如水	-11.1013
以取	-11.1015
四曰	-11.102
保舉	-11.102
小國	-11.1021
始靑	-11.1022
住世	-11.1023
多矣	-11.1027
臟	-11.1028
聖心	-11.1029
今日之	-11.1032
小則	-11.1034
迭	-11.1034
之善	-11.1035
禮義	-11.1036
三峯	-11.1038
其才	-11.104
聿	-11.104
昻	-11.1041
蘂	-11.1041
磧	-11.1041
窘	-11.1042
蜜	-11.1042
湥	-11.1042
囂	-11.1043
黔	-11.1043
沼	-11.1044
不守	-11.1044
風生	-11.1045
帖	-11.1045
臼	-11.1045
大梵	-11.1046
明心見性	-11.1046
旌旗	-11.1046
商賈	-11.1046
釜	-11.1047
祉	-11.1047
訕	-11.1047
人在	-11.1048
丐	-11.1048
汶	-11.1049
裴	-11.1049
本然	-11.1049
山人	-11.1049
肘	-11.105
凜	-11.105
拍	-11.105
▁微念咒曰	-11.105
毫釐	-11.105
肌	-11.1051
皂	-11.1052
麾	-11.1052
鷹	-11.1053
爇	-11.1053
浩蕩	-11.1053
欲使	-11.1054
帙	-11.1054
郞	-11.1056
也初	-11.1056
證天尊大悲	-11.1056
日出	-11.1056
深藏	-11.1058
批	-11.1059
太上老君	-11.1059
粥	-11.1059
東坡	-11.1059
其源	-11.106
道德之	-11.1061
易知	-11.1065
所求	-11.1066
有靈	-11.1067
矣是	-11.1068
於陽	-11.1068
爲二過	-11.1068
欣然	-11.1069
我欲	-11.107
可乎	-11.107
寶懴	-11.1071
所出	-11.1072
塵凡	-11.1072
盤旋	-11.1073
多年	-11.1076
莊老	-11.1076
矣乃	-11.1078
瓊臺	-11.1079
維新	-11.1082
寶籙	-11.1082
也於是	-11.1083
壬子	-11.1084
憂患	-11.1084
信也	-11.1084
有得	-11.1084
曲折	-11.1087
冲舉	-11.1089
謹奏爲	-11.109
平常	-11.1091
内景	-11.1091
彼岸	-11.1095
參禪	-11.1096
無實	-11.1098
也况	-11.1099
一拜	-11.11
狀如	-11.1103
順也	-11.1104
因循	-11.1104
小兒	-11.1107
萬殊	-11.1108
先天炁	-11.1108
執法	-11.1108
上詣	-11.1109
林泉	-11.111
交而	-11.1111
二仙	-11.1111
之所能	-11.1111
更無	-11.1112
獲罪	-11.1112
一點靈光	-11.1116
如前	-11.1117
進道	-11.1118
教以	-11.1118
而取	-11.112
又言	-11.1121
而妄	-11.1122
夢覺	-11.1124
自我	-11.1124
望其	-11.1125
無故	-11.1127
同體	-11.1129
高山	-11.1131
亦難	-11.1131
五曰	-11.1134
世天尊大悲	-11.1136
一定之	-11.1138
萬一	-11.1139
相續	-11.114
殺生	-11.1141
於空	-11.1142
一節	-11.1145
所著	-11.1148
凝聚	-11.1148
性性	-11.1149
大王	-11.1151
信者	-11.1153
選仙	-11.1157
水官	-11.1158
合而	-11.1159
師傳	-11.1162
恐其	-11.1162
寡欲	-11.1164
視爲	-11.1168
物有	-11.1169
修行人	-11.1169
鍊已	-11.1171
一神	-11.1173
賦詩	-11.1173
是亦	-11.1174
陰功	-11.1176
不自知	-11.1183
萬眞	-11.1186
無失	-11.1188
非徒	-11.1188
天際	-11.1188
如龍	-11.1191
之辰	-11.1191
曰昔	-11.1193
也因	-11.1194
胎中	-11.1195
離宮	-11.1195
津液	-11.1197
之迹	-11.1197
臨爐	-11.12
不怠	-11.1201
異日	-11.1202
遷善	-11.1208
解結	-11.1212
斗中	-11.1212
則天下	-11.1216
鍊氣	-11.1216
已身	-11.1218
且夫	-11.122
善士	-11.1221
萬變	-11.1222
與神	-11.1222
列於	-11.1223
專爲	-11.1223
列子	-11.1225
特與	-11.1229
不義	-11.1229
善天尊大悲	-11.1232
大戒	-11.1234
今夫	-11.1235
始成	-11.1235
示以	-11.1236
玉書	-11.124
仙機	-11.1241
至靜	-11.1241
也人能	-11.1242
無一物	-11.1244
之柄	-11.1245
放光	-11.1247
自言	-11.1248
出于	-11.125
吏兵	-11.125
自足	-11.1253
法相	-11.1253
孝弟	-11.1256
見天	-11.1262
窮通	-11.1263
者知	-11.1265
上九	-11.1265
緘	-11.1265
棄之	-11.1266
手執	-11.1267
之陰	-11.1269
大則	-11.127
歌曰	-11.127
我所	-11.127
再加	-11.1271
而獨	-11.1273
靑衣	-11.1277
各具	-11.1277
赤帝	-11.1277
惜乎	-11.128
不免於	-11.1281
看得	-11.1283
不貪	-11.1283
夜月	-11.1285
不知其所	-11.1286
夏至	-11.1287
功修	-11.1287
小大	-11.1288
長養	-11.1293
黃鶴	-11.1293
心有	-11.1294
自相	-11.1296
卽知	-11.1297
汨	-11.13
請命	-11.1303
鑰	-11.1303
筍	-11.1303
稔	-11.1303
眞陰眞陽	-11.1305
敞	-11.1306
棹	-11.1306
杳杳冥冥	-11.1307
蹄	-11.1307
又從	-11.1309
笋	-11.1309
寶經	-11.131
噬	-11.131
驂	-11.131
孑	-11.131
隳	-11.131
搗	-11.1311
渣滓	-11.1311
訾	-11.1311
螻蟻	-11.1312
鯨	-11.1312
甦	-11.1313
凑	-11.1313
寳	-11.1313
無聲無臭	-11.1313
抉	-11.1314
惡報	-11.1314
檄	-11.1315
耽	-11.1315
閙	-11.1316
掉	-11.1316
亦在	-11.1317
勿用	-11.1317
撑	-11.1318
坊	-11.132
睛	-11.1321
恐人	-11.1322
夙夜	-11.1322
道力	-11.1323
之人也	-11.1323
昏沉	-11.1324
猛省	-11.1325
寶筏	-11.1325
寨	-11.1325
繫辭	-11.1326
千人	-11.1327
浮沈	-11.133
祁山	-11.133
之軀	-11.1334
四隅	-11.1334
不計	-11.1335
意馬	-11.1336
諷誦	-11.134
武昌	-11.1341
洪慈	-11.1341
月窟	-11.1342
不能以	-11.1343
江陵	-11.1348
念起	-11.1349
問於	-11.135
卦爻	-11.1351
大本	-11.1351
之南	-11.1352
經絡	-11.1357
家庭	-11.1357
訪道	-11.1362
齋壇	-11.1362
下至	-11.1364
以和	-11.1364
中秋	-11.1365
盈滿	-11.1367
嗣教	-11.1368
經功	-11.1375
下人	-11.1377
情慾	-11.1381
數十年	-11.1382
綱常	-11.1382
之具	-11.1383
惑於	-11.1387
直下	-11.1387
登天	-11.1391
休息	-11.1392
當然	-11.1393
顯露	-11.1394
利器	-11.1395
三更	-11.1395
終歸	-11.1396
大還丹	-11.14
卽先天	-11.1402
備矣	-11.1402
利物	-11.1405
以往	-11.1405
本有	-11.1406
黑白	-11.1407
那得	-11.1408
亦宜	-11.1409
上帝之	-11.1409
主於	-11.1412
仁也	-11.1412
卽心	-11.1413
炁炁	-11.1413
武侯祠	-11.1413
柔而	-11.1414
五體	-11.1415
强制	-11.1417
紫極	-11.1418
觀察	-11.1423
制之	-11.1425
如此則	-11.1427
得證	-11.1428
劫數	-11.1429
浮空	-11.1432
之思	-11.1433
是我	-11.1435
百𡻕	-11.1436
養形	-11.1436
玄冥	-11.1436
上中下	-11.1437
之業	-11.1438
生子	-11.1438
之丹	-11.144
性卽	-11.1443
以火	-11.1444
愈遠	-11.1445
由是而	-11.1451
含眞	-11.1454
非心	-11.1454
舟中	-11.1455
寶座	-11.1456
之謀	-11.1457
皆屬	-11.1458
持戒	-11.1459
妄作	-11.146
今年	-11.146
七覺	-11.1461
一路	-11.1463
不下	-11.1463
人身之	-11.1463
天福	-11.1464
大月	-11.1466
倘有	-11.1467
𡻕時	-11.1468
火中	-11.1471
不侵	-11.1473
常靜	-11.1477
於家	-11.1478
身後	-11.1478
亦如是	-11.1478
天外	-11.148
行人	-11.148
至微	-11.1482
四眾	-11.1483
鼎内	-11.1485
福德	-11.1485
未敢	-11.1492
間隔	-11.1492
聖功	-11.1495
於民	-11.1499
其母	-11.15
常常	-11.1501
天運	-11.1503
胎神	-11.1504
常行	-11.1507
文火	-11.1509
心君	-11.151
千二百	-11.1512
皆具	-11.1512
主司	-11.1516
功用	-11.1517
人心之	-11.1522
復歸	-11.1523
之論	-11.1526
妙義	-11.1527
爲鬼	-11.1527
合神	-11.1528
運心	-11.1529
利人	-11.153
書之	-11.1531
而至於	-11.1531
泉石	-11.1533
爲性	-11.1538
七八	-11.154
生時	-11.154
開口	-11.1543
寶天尊大悲	-11.1544
我者	-11.1546
爲二	-11.1546
之眾	-11.1548
志在	-11.155
矣蓋	-11.155
星眞	-11.1551
法王	-11.1551
上登	-11.1553
曹總案	-11.1554
而不言	-11.1554
昔者	-11.1556
而不用	-11.1557
又是	-11.156
有年	-11.1561
隂	-11.1565
飛行	-11.1567
吾欲	-11.1567
當日	-11.1569
長生久視	-11.1569
法者	-11.1569
義則	-11.157
豈是	-11.1571
症	-11.1571
准提	-11.1573
凛	-11.1574
樂也	-11.1575
綘	-11.1575
饈	-11.1577
埃	-11.1577
雹	-11.1577
鍳	-11.1578
緬維	-11.1579
杵	-11.1579
當空	-11.1579
籥	-11.158
舟楫	-11.158
感而遂通	-11.158
峩	-11.1581
不貴	-11.1581
忤	-11.1581
弁	-11.1581
纓	-11.1581
轡	-11.1581
蓬壺	-11.1582
茹	-11.1583
閏	-11.1583
瓊漿	-11.1583
便成	-11.1583
▁服符畢叩齒三通微聲朗念謹請	-11.1584
彥	-11.1584
五苦	-11.1584
常鎭我	-11.1585
挑	-11.1587
巒	-11.1587
則謂之	-11.1589
渾沌	-11.1589
騙	-11.159
定中	-11.159
鰲	-11.159
綱維	-11.159
殷勤	-11.1591
鐵笛	-11.1591
榮辱	-11.1592
葺	-11.1592
跂	-11.1593
妻妾	-11.1594
吐納	-11.1594
滅盡定	-11.1596
紫房	-11.1596
俺	-11.1598
方隅	-11.1599
玉經	-11.1599
娑	-11.1604
調停	-11.1605
蟠桃	-11.1605
由心	-11.1609
大修行人	-11.161
自愛	-11.161
靈天尊大悲	-11.161
也噫	-11.1611
三島	-11.1611
這般	-11.1612
八十一	-11.1613
南嶽	-11.1614
輕淸	-11.1615
口舌	-11.1617
神遊	-11.1617
厚德	-11.1618
時則	-11.1621
成物	-11.1621
操持	-11.1621
結就	-11.1621
無無	-11.1622
春夏	-11.1622
地上	-11.1623
皇皇	-11.1623
垂訓	-11.1625
已得	-11.1626
前人	-11.1626
相遇	-11.1626
春日	-11.1629
生矣	-11.163
朝陽	-11.1632
超乎	-11.1633
如天	-11.1637
而不自	-11.1637
也雖	-11.164
足而	-11.1642
仁者	-11.1643
到頭	-11.1645
羣迷	-11.1646
也不知	-11.1649
不輟	-11.1649
報德	-11.165
懷胎	-11.165
大易	-11.1652
著書	-11.1654
昔有	-11.1655
已久	-11.1656
無塵	-11.1657
巨石	-11.1659
是其	-11.1661
玄科	-11.1662
煉性	-11.1663
且有	-11.1665
我等	-11.1665
福報	-11.1666
當思	-11.1669
爲功	-11.167
怪石	-11.167
見我	-11.1673
一如誥命天運年月日告下	-11.1673
有志者	-11.1674
欲速	-11.1674
漢室	-11.1676
好道	-11.1677
混一	-11.1677
不露	-11.1679
顏子	-11.168
中含	-11.168
得乎	-11.168
非一	-11.168
無罪	-11.1682
太上之	-11.1683
色色	-11.1685
修命	-11.1687
感而	-11.1688
眞體	-11.1691
玄風	-11.1693
全功	-11.1693
號令	-11.1697
無從	-11.1697
五功	-11.1698
于天	-11.1698
師友	-11.1699
當下	-11.1701
乎然	-11.1703
其他	-11.1704
難知	-11.1706
於時	-11.1707
遇一	-11.1707
落花	-11.1708
寶劍	-11.171
惟見	-11.1711
亦卽	-11.1713
九日	-11.1713
談玄	-11.1713
好生之德	-11.1714
能化	-11.1715
丹爐	-11.1718
氣爲	-11.1718
有路	-11.1723
永固	-11.1725
者右	-11.1725
下臨	-11.1726
周天火候	-11.1726
覺路	-11.173
乾乾	-11.1733
神之所	-11.1735
不惑	-11.1736
若干	-11.174
本末	-11.1741
我有	-11.1742
天花	-11.1743
就是	-11.1744
忘物	-11.1746
爲汝	-11.1748
無著	-11.1749
順之	-11.175
洞章	-11.1752
之屬	-11.1753
二儀	-11.1753
在人爲	-11.1759
道之人	-11.176
相連	-11.1762
矣其	-11.1765
眞僞	-11.1766
不能入	-11.1766
無德	-11.1766
承天	-11.1768
劫劫	-11.177
往生	-11.177
疑其	-11.1772
無傷	-11.1775
自覺	-11.1781
以奉	-11.1782
本屬	-11.1782
苟不	-11.1783
二十里	-11.1784
故凡	-11.1785
慈憫	-11.1785
上通	-11.1788
九品	-11.1789
立教	-11.1789
天地陰陽	-11.179
妙果	-11.1792
定慧	-11.1795
其民	-11.1796
偃月	-11.1799
度人無量	-11.1802
同聲	-11.1803
氣數	-11.1804
正念	-11.1804
以通	-11.1806
其可	-11.1806
生我	-11.181
宣化	-11.1811
多生	-11.1812
神龍	-11.1814
二君	-11.1815
七年	-11.1817
法語	-11.1818
至心朝禮	-11.1819
咒曰	-11.182
傳世	-11.1822
之界	-11.1822
莫謂	-11.1825
二里	-11.1827
以意	-11.1828
哀哉	-11.1828
陽子	-11.183
江水	-11.183
天尊大悲身	-11.183
同行	-11.1831
哉故	-11.1833
奏請	-11.1837
無咎	-11.1837
寂照	-11.1837
普化	-11.184
能於	-11.184
宣說	-11.1845
瘵案主者都府管	-11.1846
等至心皈命禮願稽首讚揚	-11.1846
大寶	-11.1848
要人	-11.1848
君王	-11.1849
誼	-11.1849
斛	-11.1851
今應投誠一心敬禮一心敬禮	-11.1851
武火	-11.1852
鳬	-11.1853
煉精化炁	-11.1854
麻姑	-11.1854
掀	-11.1854
一心回向九天心印會上	-11.1855
𦊱	-11.1855
遡	-11.1856
災厄	-11.1856
儆	-11.1856
覺照	-11.1857
離合	-11.1857
慳	-11.1857
俠	-11.1857
煦	-11.1858
纂	-11.1859
倩	-11.1859
果然	-11.1859
巻	-11.1861
碩	-11.1861
0052	-11.1861
伏氣	-11.1862
楞嚴經	-11.1863
筋骨	-11.1863
畦	-11.1863
自欺	-11.1864
靜默	-11.1864
兒女	-11.1865
姻	-11.1865
入藥鏡	-11.1866
纖	-11.1866
我爲	-11.1866
㳟望	-11.1867
打成一片	-11.1868
晨昏	-11.1869
天和	-11.1869
爨	-11.1869
旦夕	-11.187
飛天	-11.187
六腑	-11.187
迦	-11.1871
圜	-11.1871
潦	-11.1872
其明	-11.1872
鳥獸	-11.1876
之關	-11.1878
腎水	-11.1879
不似	-11.1881
志不	-11.1884
庚方	-11.1884
解所犯	-11.1886
寺僧	-11.1886
之鄕	-11.1886
能解	-11.1886
木之	-11.1889
浮邱	-11.189
嗜欲	-11.1891
重樓	-11.1892
也何謂	-11.1892
得大	-11.1892
内視	-11.1893
金身	-11.1894
溪山	-11.1895
本心	-11.1895
省察	-11.1896
榜文	-11.1896
廣成子	-11.1899
累劫	-11.1899
可畏	-11.1902
藥材	-11.1906
善用	-11.1907
不多	-11.1908
統領	-11.1909
銀河	-11.1909
京師	-11.191
玉晨	-11.1911
其流	-11.1912
大慈悲	-11.1913
何以故	-11.1914
皆從此	-11.1917
不能成	-11.1918
應變	-11.1921
以補	-11.1926
雷府	-11.1927
成於	-11.193
天省	-11.193
禮誦	-11.1931
或云	-11.1931
欲知	-11.1932
罪愆	-11.1935
彼之	-11.1936
⬤⬤	-11.1937
未到	-11.1937
朗然	-11.1938
住持	-11.1941
所知	-11.1942
建興	-11.1942
全賴	-11.1945
持之	-11.1951
道卽	-11.1954
不煩	-11.1956
廣化	-11.1957
元眞	-11.1958
氣候	-11.196
虛無自然	-11.1961
立法	-11.1961
道情	-11.1964
國王	-11.1966
養成	-11.1966
凡塵	-11.1967
方方	-11.1968
完全	-11.1969
人身中	-11.1971
前程	-11.1976
有爲之	-11.1978
無碍	-11.1978
上宫	-11.1978
月月	-11.1981
則當	-11.1982
伏藏	-11.1988
之心而	-11.1989
修成	-11.1991
不驕	-11.1992
一章	-11.1992
炁足	-11.1993
患難	-11.1994
不憚	-11.1995
天尊大悲光	-11.1997
道乃	-11.1997
真君	-11.1998
之音	-11.1998
不懼	-11.1999
得仙	-11.2002
上經	-11.2003
玉字	-11.2003
飛揚	-11.2004
乾金	-11.2006
心存	-11.2007
陰之	-11.2009
弱水	-11.201
一口	-11.2011
念慮	-11.2015
有時而	-11.2015
四生	-11.2017
脫離	-11.2017
四面	-11.2018
未足	-11.2022
保守	-11.2022
此三者	-11.2027
金碧	-11.2028
一門	-11.2029
不可言	-11.2032
契合	-11.2033
女人	-11.2034
一畫	-11.2036
八年	-11.2037
處於	-11.2037
之爲道	-11.2038
僧道	-11.204
之任	-11.204
俱有	-11.204
無能	-11.2042
瑕	-11.2043
這些	-11.2046
教法	-11.2053
靈性	-11.2054
我道	-11.2054
所養	-11.2058
惟聖人	-11.2059
人或	-11.2059
㦸	-11.2064
貪求	-11.2065
天尊大悲保	-11.2066
地天	-11.2066
傳之	-11.2068
岷	-11.2071
人之善	-11.2073
行行	-11.2074
皇穹	-11.2075
不休	-11.2077
倫常	-11.2081
殺者	-11.2082
時候	-11.2084
某某	-11.2085
不甯	-11.2086
靑雲	-11.2087
仙階	-11.2088
之以爲	-11.209
其父	-11.2092
散亂	-11.2094
吾亦	-11.2097
其炁	-11.2097
有一毫	-11.2098
不可名	-11.2099
盛德	-11.21
永不	-11.21
一尺	-11.2101
爲君	-11.2107
道門	-11.2111
當先	-11.2113
苦心	-11.2113
不可知	-11.2115
治病	-11.2118
欲人	-11.2118
未嘗有	-11.212
加功	-11.2122
倣	-11.2123
凡屬	-11.2123
乃以	-11.2124
未濟	-11.2124
陛	-11.2125
讀者	-11.2126
刹	-11.2129
一丈	-11.213
之所在	-11.2133
衙	-11.2134
我願	-11.2135
信禮已周仰對慈尊㳟申懴	-11.2136
槎	-11.2136
慵	-11.2136
揚州	-11.2136
☷	-11.2137
玄理	-11.2137
諄諄	-11.2139
曇	-11.2139
武帝	-11.2139
玲瓏	-11.214
昬	-11.2141
吾教	-11.2141
牕	-11.2142
鴛	-11.2142
涓	-11.2142
佛家	-11.2143
迪	-11.2143
熒惑	-11.2144
飛龍	-11.2144
稅	-11.2144
之息	-11.2144
半斤	-11.2145
經法	-11.2145
六子	-11.2145
冊	-11.2145
遊者	-11.2146
騫	-11.2146
罅	-11.2146
喃	-11.2147
佛言	-11.2147
廡	-11.2147
碁	-11.2147
悟眞篇	-11.2148
嫉	-11.2148
純粹	-11.2148
藜	-11.2149
店	-11.2149
廵	-11.215
蝕	-11.215
褻	-11.2152
霍	-11.2153
夢寐	-11.2154
齎	-11.2154
丙丁	-11.2154
之喜	-11.2154
蹙	-11.2155
蚊	-11.2156
爲眾	-11.2156
太史	-11.216
十方三界	-11.2161
先從	-11.2162
而不動	-11.2163
正陽帝君曰	-11.2164
天雷聲普化天尊高上	-11.2165
罪咎	-11.2165
哀憫	-11.2165
韜光	-11.2167
愚夫	-11.2167
靜以	-11.2169
興隆	-11.217
和尙	-11.2172
自持	-11.2172
六甲	-11.2173
氣凝	-11.2179
七政	-11.2187
以陰	-11.2188
安排	-11.2189
兩大	-11.2191
奉行便宜科事	-11.2192
降福	-11.2192
明理	-11.2194
其辭	-11.2199
苦趣	-11.22
關羽	-11.2202
可通	-11.2202
身無	-11.2202
依法	-11.2206
一經	-11.2207
能消	-11.221
經筵	-11.2212
天時	-11.2213
馬之	-11.2213
有過	-11.2213
法雨	-11.2218
榮華	-11.2219
似乎	-11.2219
者眾	-11.222
古者	-11.222
所以然者	-11.2222
靜處	-11.2223
云爾	-11.2227
猶然	-11.2233
物欲	-11.2233
威德	-11.2235
不知何	-11.2236
萬山	-11.2237
帝眞	-11.2237
一到	-11.2237
訓天尊大悲	-11.224
深深	-11.2241
歸宿	-11.2242
自性	-11.2245
聚散	-11.2246
土府	-11.2246
出處	-11.2249
參悟	-11.225
五品	-11.2252
神農	-11.2256
甚至	-11.226
天尊大悲化	-11.2262
極矣	-11.2263
長子	-11.2263
無敵	-11.2263
必能	-11.2263
縱使	-11.2264
之體也	-11.2267
玄通	-11.2267
似此	-11.2268
理而	-11.2269
難逃	-11.227
修習	-11.2273
無爲則	-11.2274
立言	-11.2274
始見	-11.2274
不懈	-11.2274
是諸	-11.2279
起火	-11.2284
以相	-11.2284
無偏	-11.2284
同異	-11.2285
内藏	-11.2285
黃花	-11.2288
其二	-11.2289
隱士	-11.229
莫大	-11.2291
定息	-11.2291
曷以	-11.2291
王侯	-11.2292
生治世福顯利幽弭災集慶法	-11.2293
子當	-11.2298
資始	-11.2299
復卦	-11.2299
道原	-11.2299
設使	-11.23
設教	-11.2302
總結	-11.2302
惟以	-11.2304
難免	-11.2304
等閒	-11.2305
者豈	-11.2308
一出	-11.2308
出來	-11.231
作丹	-11.231
空天尊大悲	-11.2311
寰中	-11.2312
纔得	-11.2314
不妨	-11.2316
炁也	-11.2317
長生觀	-11.2318
在壇	-11.2318
不驚	-11.2318
國土	-11.2318
吾聞	-11.2318
玉府	-11.2321
所化	-11.2323
不甚	-11.2324
與汝	-11.2324
全形	-11.2325
長江	-11.2326
盡人	-11.2326
之慮	-11.2326
大明	-11.2331
皇極	-11.2334
予曰	-11.2335
誦此經	-11.2336
無足	-11.2339
爲最	-11.2343
直道	-11.2345
證眞	-11.2347
大旨	-11.2348
木爲	-11.2351
真炁	-11.2354
雜念	-11.2358
池中	-11.2359
異端	-11.2359
風俗	-11.2362
持齋	-11.2363
題詩	-11.2366
可免	-11.2369
籟	-11.2369
有相	-11.2371
一介	-11.2371
在人身	-11.2372
干戈	-11.2374
必當	-11.2375
山谷	-11.2376
正性	-11.2377
因時	-11.2384
上奏	-11.2384
一天	-11.2385
形色	-11.2385
善言	-11.2386
捫	-11.2387
吾身之	-11.2389
無已	-11.2392
不怒	-11.2392
便宜	-11.2393
美惡	-11.2393
篇中	-11.2395
而後知	-11.2396
無比	-11.2398
之西	-11.2399
心猿	-11.2399
世所	-11.2399
以喻	-11.24
無滯	-11.2401
列仙	-11.2407
則雖	-11.241
孝友	-11.241
月輪	-11.241
參透	-11.2411
夔	-11.2411
無虛	-11.2414
身安	-11.2415
致心皈命禮	-11.2425
寥廓	-11.2425
神淸	-11.2426
又無	-11.2426
人仙	-11.2427
此之謂也	-11.2427
跛	-11.2429
擴	-11.2429
軰	-11.2429
蕋	-11.2429
蠟	-11.243
四時之	-11.2431
瘵	-11.2431
天一生水	-11.2433
譎	-11.2434
屨	-11.2434
脾胃	-11.2434
重刋道藏輯要	-11.2435
愉	-11.2435
錦繡	-11.2435
札	-11.2435
下情無任	-11.2435
㓂	-11.2436
弘萬福乃弘帝福護羣身如護已身處處	-11.2436
森羅	-11.2436
不愛	-11.2436
歿	-11.2436
閽	-11.2437
元亨利貞	-11.2437
漠漠	-11.2437
慈諸天眞宰度災濟	-11.2438
眸	-11.2438
海蟾	-11.2438
東西南北	-11.2438
葦	-11.2438
褐	-11.2439
帡幪	-11.2439
苟非	-11.2439
棋	-11.2439
有益	-11.2439
奄	-11.2439
繚繞	-11.2439
地道	-11.244
翟	-11.244
駁	-11.2441
蝴蝶	-11.2441
懋	-11.2441
紊	-11.2441
溷	-11.2442
行住坐卧	-11.2442
綜	-11.2442
恚	-11.2443
石室	-11.2443
筠	-11.2444
弻	-11.2444
叮嚀	-11.2445
肌膚	-11.2445
飭	-11.2445
只知	-11.2446
也六五	-11.2446
紗	-11.2446
象之	-11.2446
二仙菴	-11.2447
螢	-11.2447
甸	-11.2447
里社	-11.2448
能成	-11.2448
撒手	-11.2449
帷	-11.2449
嶽瀆	-11.2449
磚	-11.245
至孝	-11.245
人之道	-11.2451
裨	-11.2451
否答曰	-11.2453
尙在	-11.2453
退陰符	-11.2453
孝道	-11.2454
女丹	-11.2455
社令	-11.2455
人之所以	-11.2457
人間之	-11.2459
圖解	-11.2461
悔亡	-11.2462
敷陳	-11.2463
導引	-11.2463
謹據	-11.2464
或謂	-11.2465
甲兵	-11.2466
于外	-11.2466
影響	-11.2466
地理	-11.2467
以治	-11.2467
䝉恩	-11.2468
室之	-11.247
康甯	-11.2471
也九三	-11.2472
有力	-11.2472
故我	-11.2473
俯伏	-11.2473
也雖然	-11.2476
春光	-11.2476
祈福	-11.2476
不就	-11.2477
遺跡	-11.2478
殊途	-11.2481
統攝	-11.2482
仙都	-11.2486
先帝	-11.2487
一顆	-11.2488
秘旨	-11.2488
交接	-11.2489
在目	-11.2489
十九年	-11.249
雷部	-11.2491
囘首	-11.2491
非難	-11.2491
不終	-11.2494
順行	-11.2498
土土	-11.2501
勿忘勿助	-11.2504
施功	-11.2505
滿地	-11.2506
無以爲	-11.2507
爲二十過	-11.2509
西華	-11.2511
第十二	-11.2511
朗念	-11.2512
聚會	-11.2513
卻是	-11.2514
始炁	-11.2515
爲樂	-11.2517
做得	-11.2518
公卿	-11.2519
自新	-11.2519
不事	-11.252
滯於	-11.252
御女	-11.2521
登第	-11.2526
不返	-11.253
此二句	-11.2532
身爲	-11.2533
去而	-11.2533
丞相亮	-11.2534
世人不知	-11.2534
道塲	-11.2536
而後可以	-11.2537
斯民	-11.2538
恩愛	-11.254
勞而	-11.254
綱紀	-11.2541
救之	-11.2542
動念	-11.2542
兩手	-11.2544
上皇	-11.2546
眞誥	-11.2546
照天尊大悲	-11.2546
之中有	-11.2547
從上	-11.2547
爲物	-11.2547
爲火	-11.2552
合行	-11.2552
亦從	-11.2554
心腎	-11.2555
煉心	-11.2556
余曰	-11.2556
爲仙	-11.2557
安鎭	-11.2559
天經	-11.2559
東山	-11.256
相繼	-11.2561
必自	-11.2562
性者	-11.2565
之終	-11.2568
法法	-11.257
水中金	-11.2571
虎龍	-11.2572
乃成	-11.2574
也九五	-11.2575
大元帥	-11.2576
罪福	-11.2581
有分	-11.2583
最高	-11.2583
有主	-11.2583
五福	-11.2585
高而	-11.2585
以金	-11.2585
孟子曰	-11.2585
心上	-11.2587
洞照	-11.2589
刑德	-11.2593
對待	-11.2594
造就	-11.2596
難逢	-11.2597
死於	-11.2597
道前	-11.2598
亦惟	-11.2599
洞口	-11.2599
相守	-11.2599
小過	-11.26
情也	-11.2601
也此言	-11.2601
天下之人	-11.2602
應天尊大悲	-11.2603
華葢	-11.2604
諸魔	-11.2608
不外乎	-11.2609
而言也	-11.2609
難盡	-11.2611
吾與	-11.2613
慈父	-11.2616
善也	-11.2619
終身不	-11.262
靈異	-11.2621
無聞	-11.2629
今來	-11.263
自作	-11.2631
皆同	-11.2632
元帥天	-11.2633
殿前	-11.2634
降下	-11.2636
師之	-11.2636
胡不	-11.2638
武功	-11.2638
大還	-11.264
是以君子	-11.264
小乘	-11.2641
雷神	-11.2641
善爲	-11.2642
生之時	-11.2642
能行	-11.2643
天尊大悲修	-11.2648
玄天	-11.2648
先賢	-11.2649
秋冬	-11.265
但有	-11.2651
特賜	-11.2655
一命	-11.2655
一夜	-11.2656
誥至心皈命禮	-11.2656
心能	-11.2657
所遇	-11.2658
命元	-11.2659
爲何	-11.2659
之政	-11.2659
靈書	-11.266
等事	-11.266
名者	-11.2662
吾以	-11.2663
山頭	-11.2664
河伯	-11.2665
復爲	-11.2669
天下後世	-11.267
度命	-11.267
立身	-11.267
匪人	-11.2672
帝命	-11.2675
陽魂	-11.2678
陽和	-11.2678
幾時	-11.268
吾當	-11.2681
洞然	-11.2682
大路	-11.2683
正果	-11.2683
佛祖	-11.2684
道流	-11.2687
元元	-11.2691
異香	-11.2695
愛人	-11.2697
行乎	-11.27
兢	-11.2701
豈可以	-11.2701
成化	-11.2701
敬之	-11.2706
四年	-11.2707
之節	-11.2707
忘機	-11.2709
此語	-11.2712
受苦	-11.2714
勤行	-11.2714
十步	-11.2715
而推	-11.2715
轉轉	-11.2715
至玄	-11.2718
濟濟	-11.2719
造意者切以	-11.272
徒然	-11.272
法中	-11.272
固守	-11.2722
使天下	-11.2723
遂以	-11.2724
𥈠	-11.2725
我與	-11.2727
仁義禮智	-11.2728
靜養	-11.2728
非禮	-11.273
黯	-11.2731
葵	-11.2732
天運年月日	-11.2733
貝	-11.2733
利有攸往	-11.2735
依科	-11.2735
紳	-11.2736
章言	-11.2736
劑	-11.2736
浙	-11.2736
掣	-11.2737
糊	-11.2737
者常	-11.2737
椽	-11.2738
猴	-11.2739
閉塞	-11.2739
視之不見聽之不聞包羅天地養育羣生	-11.2739
無上混元宗壇恭准道旨請頒	-11.2739
役使雷霆鬼妖喪膽精怪亡形	-11.274
蛙	-11.274
衮	-11.274
汀	-11.274
淨心神咒太上台星應變無停驅邪	-11.274
抄	-11.2741
能爲	-11.2741
至眞妙道	-11.2741
三千六百	-11.2742
也六三	-11.2742
穆穆	-11.2742
許旌陽	-11.2742
閻	-11.2743
瘁	-11.2743
衞五帝司迎萬神朝禮	-11.2744
棘	-11.2744
剋	-11.2745
禮謝	-11.2745
無中生有	-11.2745
羲皇	-11.2746
五臟六腑	-11.2746
千變萬化	-11.2746
覯	-11.2747
䜟	-11.2747
哩	-11.2747
竦	-11.2747
槁木	-11.2747
陶鎔	-11.2747
惺	-11.2748
瞬息	-11.2748
妙妙	-11.2748
撞	-11.2748
羹	-11.2749
棧	-11.275
訝	-11.275
讚嘆	-11.275
肢體	-11.275
土釜	-11.275
沈淪	-11.275
鼓琴	-11.2751
河洛	-11.2752
又東	-11.2752
功業	-11.2753
人之一身	-11.2753
領袖	-11.2754
多事	-11.2755
五分	-11.2758
湯武	-11.2758
掃蕩	-11.2759
引証	-11.2762
未了	-11.2762
西域	-11.2763
降而	-11.2764
不踰	-11.2764
爲二功	-11.2766
俯首	-11.2768
末後	-11.277
都督	-11.2771
玄竅	-11.2771
益算	-11.2772
其要	-11.2773
不得謂之	-11.2773
四相	-11.2773
呼吸之氣	-11.2773
神力	-11.2773
地祗	-11.2773
透徹	-11.2774
能通	-11.2775
不辭	-11.2776
雲山	-11.2777
對越	-11.2779
萬二千	-11.278
民物	-11.2781
經書	-11.2782
待時	-11.2782
本同	-11.2782
順其	-11.2782
何有於	-11.2783
立於	-11.2783
形氣	-11.2785
無明	-11.2789
必有所	-11.2789
何妨	-11.279
無迹	-11.2791
諸葛公	-11.2792
至陽	-11.2796
交泰	-11.2798
人之情	-11.2799
東風	-11.28
上至	-11.2803
之貴	-11.2803
賢愚	-11.2805
四季	-11.2808
草堂	-11.2809
遂使	-11.2809
無緣	-11.2809
陰符經	-11.281
之則爲	-11.2811
淫事	-11.2813
水旱	-11.2813
等倫	-11.2814
安神	-11.2814
大智慧	-11.2815
坎爲	-11.2815
的是	-11.2817
玉局	-11.2817
回首	-11.2819
吾人	-11.2821
無此	-11.2821
罪業	-11.2822
方是眞	-11.2824
十二時中	-11.2828
萬慮	-11.2829
宣行	-11.2829
然後可以	-11.283
尊者	-11.2831
作一	-11.2833
燒香	-11.2833
國祚	-11.2835
不交	-11.2835
回向	-11.2836
福祿	-11.2836
言說	-11.2836
無一毫	-11.2838
欲去	-11.2842
王公	-11.2848
凡事	-11.2848
妙覺	-11.2849
六十卦	-11.2851
者亦有	-11.2851
鑒觀	-11.2851
以我之	-11.2852
善於	-11.2852
常人	-11.2853
使然	-11.2855
務使	-11.2856
兩家	-11.2859
異類	-11.2859
者即	-11.2859
在身中	-11.2859
爲事	-11.2864
而往	-11.2866
反復	-11.2871
苦樂	-11.2872
大羅天	-11.2875
八難	-11.2876
曰君	-11.2876
龍吟	-11.2877
世俗之	-11.2877
有根	-11.2878
而愈	-11.2884
從何處	-11.2885
蜀人	-11.2887
子能	-11.2888
人雖	-11.2889
可證	-11.289
節制	-11.2891
本行	-11.2894
不如是	-11.2895
金童	-11.2902
矣且	-11.2903
身内	-11.2903
濁者	-11.2904
動處	-11.2904
河源	-11.2905
在此矣	-11.2907
萬魔	-11.2907
花落	-11.2908
永保	-11.291
較之	-11.2912
飛走	-11.2912
只見	-11.2912
五味	-11.2917
二七	-11.2918
在天地	-11.2921
四顧	-11.2924
願聞	-11.2924
比於	-11.2928
十一月	-11.2929
以合	-11.2932
不美	-11.2934
在後	-11.2934
法壇	-11.2934
自失	-11.2937
平康	-11.2937
將吏	-11.2939
一著	-11.294
風火	-11.2943
些兒	-11.2946
仙傳	-11.2947
誰爲	-11.2948
藏神	-11.2951
止水	-11.2954
聖位	-11.296
始能	-11.2962
事無	-11.2962
聖道	-11.2964
應事	-11.2964
不堅	-11.2966
笑語	-11.2968
主靜	-11.297
西來	-11.2972
内則	-11.2973
王天尊大悲	-11.2974
補之	-11.2975
九眞	-11.2976
紫陽眞人	-11.2976
性功	-11.2983
致虛	-11.2984
之藥	-11.2989
謂之曰	-11.2991
皇人	-11.2993
雖無	-11.2994
神明之	-11.2994
立心	-11.2996
歸依	-11.2998
乞恩	-11.3002
志心	-11.3003
奉天	-11.3006
爲小	-11.3007
有可	-11.3008
何日	-11.3011
力量	-11.3019
報本	-11.3019
如鏡	-11.302
氣合	-11.3021
羽化	-11.3021
肅淸	-11.3025
仙仗	-11.3033
一陽生	-11.3033
文始	-11.3035
開元	-11.3036
子女	-11.3038
非虛	-11.3038
𥥆	-11.3038
☰	-11.3042
槖	-11.3042
於坤	-11.3043
睢	-11.3044
谷神不死	-11.3044
戢	-11.3045
憊	-11.3045
承誥奉行祖師	-11.3046
變易	-11.3047
曼	-11.3048
烝	-11.3048
幃	-11.305
頡	-11.305
返本還元	-11.3051
内守	-11.3051
臆	-11.3052
自今	-11.3053
玄天上帝	-11.3053
猪	-11.3053
形神俱妙與道合眞	-11.3053
刧萬眞無量福護天尊萬福寶誥	-11.3053
玄虛晃朗太	-11.3054
竄	-11.3054
六道四生	-11.3054
詆	-11.3055
肫	-11.3055
侔	-11.3056
勛	-11.3056
舍此	-11.3056
先有	-11.3057
版	-11.3057
鐫	-11.3057
粤	-11.3057
猶龍	-11.3057
玄黃	-11.3057
當此	-11.3058
趁	-11.3058
天慈	-11.3058
金木水火土	-11.3058
☵	-11.3058
冒干	-11.3058
閤	-11.3058
隨意	-11.3059
鄒	-11.3059
梧桐	-11.306
無別	-11.306
糟	-11.306
卉	-11.306
再三	-11.306
懵	-11.306
譙	-11.306
片片	-11.306
賭	-11.3061
實相	-11.3061
乂	-11.3063
換骨	-11.3063
沃	-11.3064
慝	-11.3064
眞鉛眞汞	-11.3064
三萬六千	-11.3064
蕪	-11.3065
從事於	-11.3065
冩	-11.3065
辛亥	-11.3065
琅函	-11.3067
可久	-11.3067
數人	-11.3067
窺其	-11.3067
百家	-11.3068
又不可	-11.3068
塵氛	-11.3068
若要	-11.3068
者由	-11.307
災殃	-11.307
正則	-11.3071
劉璋	-11.3071
厓	-11.3072
得之以	-11.3072
丹鼎	-11.3073
重者	-11.3074
狡	-11.3074
下德	-11.3075
楊柳	-11.3076
恐懼	-11.3077
急急如	-11.3078
飢寒	-11.3079
茫然	-11.3079
兒孫	-11.3079
之休	-11.308
北辰	-11.3082
習染	-11.3083
丹衷	-11.3086
丹悃	-11.3086
貧富	-11.3086
闡揚	-11.3087
潛消	-11.3088
上尊	-11.3088
俗子	-11.3089
不識不知	-11.309
昭垂	-11.3092
不要	-11.3095
與之爲	-11.3096
左將軍	-11.3097
四首	-11.3098
洪造	-11.3099
樓閣	-11.31
勅令	-11.3101
密密	-11.3101
斬斷	-11.3102
土人	-11.3105
合符	-11.3106
長空	-11.3106
智愚	-11.3106
洞淵	-11.3106
四五	-11.3108
有個	-11.311
太明	-11.311
亦得	-11.3112
積行	-11.3114
以施	-11.3114
居上	-11.3117
天地人	-11.3117
爲藥	-11.3119
雷祖	-11.3119
了生死	-11.3119
古佛	-11.3119
氣質	-11.3119
假借	-11.312
入妙	-11.3121
洞門	-11.3122
眞人之	-11.3122
當自	-11.3123
參究	-11.3124
諸惡	-11.3125
陽極	-11.3126
之爲用	-11.3126
徒勞	-11.3126
斗府	-11.3126
只恐	-11.3128
旁有	-11.3131
一點眞陽	-11.3132
天下之事	-11.3133
兆等	-11.3133
必無	-11.3134
竅中	-11.3135
縣西	-11.3139
進步	-11.3139
精光	-11.3139
事君	-11.3139
能令	-11.3142
必求	-11.3143
若愚	-11.3143
昭著	-11.3146
焉此	-11.3146
遵奉	-11.3147
用六	-11.3147
不意	-11.3149
糾察	-11.3149
又非	-11.3149
鼓動	-11.315
西池	-11.3152
卽我	-11.3154
祖竅	-11.3155
不害	-11.3155
禪家	-11.3157
身也	-11.3158
週天	-11.3158
是大	-11.316
不曾	-11.3162
人以爲	-11.3164
恃其	-11.3168
雲飛	-11.3168
太眞	-11.317
思維	-11.3172
能盡	-11.3173
之言也	-11.3175
别有	-11.3181
也九二	-11.3182
千生	-11.3189
不除	-11.3189
六字	-11.319
善心	-11.319
百病	-11.319
不發	-11.3191
邵子	-11.3194
老氏	-11.32
眞是	-11.3204
也余	-11.3204
每見	-11.3208
可愛	-11.3208
天尊大悲貞	-11.3211
剛而	-11.3213
泰定	-11.3215
皆通	-11.3216
極則	-11.3219
應乎	-11.322
也萬物	-11.3223
非惟	-11.3224
文殊	-11.3226
起而	-11.3226
甚難	-11.3226
帝王之	-11.3227
由人	-11.3229
此義	-11.3232
象以	-11.3233
法主	-11.3234
心生	-11.3238
空山	-11.3239
天天	-11.3239
超證	-11.324
從茲	-11.324
亦須	-11.3242
其私	-11.3242
下愚	-11.3242
歸命	-11.3243
天界	-11.3243
火熾	-11.3244
以達	-11.325
我能	-11.3252
一德	-11.3252
鶴駕	-11.3252
顯神通	-11.3253
以形	-11.3257
以入	-11.3258
同登	-11.326
止知	-11.3262
周天之	-11.3264
勿使	-11.3264
性海	-11.3268
兩目	-11.3269
伏炁	-11.327
天行	-11.3271
定心	-11.3275
含靈	-11.3277
何以爲	-11.3279
至陰	-11.328
用之則	-11.328
修行者	-11.3281
甚者	-11.3281
萬物而	-11.3282
所奏	-11.3284
貪生	-11.3284
也人之	-11.3285
不淨	-11.329
採得	-11.3291
飛雲	-11.3293
不治	-11.3297
法令	-11.3297
無心於	-11.3297
應聲	-11.33
芥	-11.33
絕頂	-11.3301
則性	-11.3302
而升	-11.3305
佛宗	-11.3306
力士	-11.3307
下經	-11.3307
東行	-11.3309
天天尊大悲	-11.3312
五神	-11.3312
形於	-11.3314
爲利	-11.3314
法輪	-11.3316
離離	-11.3317
之功用	-11.3321
凡人之	-11.3322
將何	-11.3323
此念	-11.3324
也後	-11.3324
不令	-11.3325
弟子等	-11.3327
避之	-11.3327
生成之	-11.3329
天壤	-11.3329
是則	-11.333
氣海	-11.3332
塵勞	-11.3332
以禮	-11.3333
百靈	-11.3334
無差	-11.3334
天尊大悲神霄運度	-11.3335
損人	-11.3336
行化	-11.3339
光耀	-11.3341
閉門	-11.3342
聲聲	-11.3344
山澤	-11.3345
一千	-11.3347
神寶	-11.3348
得度	-11.335
用九	-11.3351
此便是	-11.3351
此性	-11.3351
不誠	-11.3352
侍中	-11.3353
異矣	-11.3354
入于	-11.3355
無求	-11.3355
宜乎	-11.3356
煆	-11.3356
夢九	-11.3359
祖氣	-11.3359
鸞鶴	-11.336
吾所	-11.3361
者有之	-11.3363
天降	-11.3363
以無爲	-11.3364
護身	-11.3365
酆	-11.3366
秤	-11.3368
悍	-11.3368
去後	-11.3369
砥	-11.3369
妬	-11.337
煉炁化神	-11.337
不愼	-11.337
桀	-11.3371
蚤	-11.3371
渺	-11.3371
搯	-11.3372
渾渾	-11.3373
藹	-11.3373
涎	-11.3373
兑	-11.3375
騁	-11.3375
犢	-11.3375
侍衞	-11.3375
元八方威神使我自然靈寶符命普	-11.3375
筌蹄	-11.3375
呑	-11.3375
掬	-11.3376
彚	-11.3376
心息相依	-11.3376
携	-11.3376
徽	-11.3377
餒	-11.3377
一陽來復	-11.3377
灼灼	-11.3377
靑靈	-11.3377
噪	-11.3377
陪	-11.3378
雞犬	-11.3378
剎	-11.3378
眚	-11.3379
慙	-11.3379
蘊	-11.3379
6	-11.3379
誠惶誠恐稽首頓首	-11.338
玉匱	-11.338
俸	-11.3381
覲	-11.3381
榆	-11.3381
數千	-11.3381
瀛洲	-11.3381
錯綜	-11.3382
錯認	-11.3383
有奇	-11.3383
咦	-11.3383
滯魄	-11.3383
耦	-11.3384
徇	-11.3385
刑罰	-11.3385
醍醐	-11.3387
虜	-11.3387
六七	-11.3388
煆煉	-11.3388
經籙	-11.3388
杳杳	-11.3389
懦	-11.3389
帝師	-11.3391
雪山	-11.3391
守雌	-11.3393
易爲	-11.3393
死則	-11.3394
急急	-11.3394
一遍	-11.3394
最上乘	-11.3397
身居	-11.3397
小成	-11.3398
絳宮	-11.3398
辛苦	-11.3398
者存	-11.3398
端拱	-11.3398
俱化	-11.3399
小而	-11.3401
匹夫	-11.3401
本司	-11.3402
福田	-11.3405
透出	-11.3407
霜雪	-11.3407
大會	-11.3409
祕訣	-11.3411
亦未	-11.3412
南征	-11.3412
妄行	-11.3413
萬般	-11.3413
左旋	-11.3413
午時	-11.3415
廓然	-11.3415
度眾生	-11.3417
大臣	-11.3418
只得	-11.3419
一穴	-11.3419
昨夜	-11.3421
上上	-11.3421
會稽	-11.3422
不自以爲	-11.3423
况於	-11.3423
誤人	-11.3424
死灰	-11.3425
支離	-11.3429
水晶	-11.3431
天尊大悲至	-11.3434
操存	-11.3434
我見	-11.3435
河漢	-11.3436
無弗	-11.3436
符火	-11.3436
精者	-11.3439
福澤	-11.344
無虞	-11.344
爲難	-11.344
志氣	-11.3441
參軍	-11.3443
之殊	-11.3446
無恙	-11.3447
伏於	-11.3448
風塵	-11.3449
野人	-11.3451
向善	-11.3452
留心	-11.3452
牛馬	-11.3453
純乾	-11.3454
候也	-11.3457
精粗	-11.3459
必爲	-11.3463
難於	-11.3465
沖虛	-11.3466
亦由	-11.3467
又生	-11.3469
北行	-11.3469
識其	-11.347
由此而	-11.3471
下丹田	-11.3471
但知	-11.3476
爲先天	-11.3478
各異	-11.3478
出焉	-11.3479
幽人	-11.3479
書於	-11.3481
甘心	-11.3482
六天	-11.3482
聖慈允	-11.3484
愼勿	-11.3485
竭力	-11.3488
萬千	-11.349
乾陽	-11.3491
高處	-11.3491
在天爲	-11.3492
淸音	-11.3493
山有	-11.3493
然以	-11.3497
還是	-11.3497
愛惜	-11.3498
次日	-11.3498
聖神	-11.35
盈虧	-11.35
吉慶	-11.3502
斯世	-11.3503
無物不	-11.3505
邱祖	-11.3505
四維	-11.3507
城西	-11.3508
者必有	-11.351
誰是	-11.351
正炁	-11.3511
之大者	-11.3512
其親	-11.3513
知其所	-11.3515
何者爲	-11.3516
百節	-11.3516
萬刼	-11.3518
皆自	-11.3519
悲哉	-11.352
可觀	-11.3521
爲第一	-11.3523
行法	-11.3524
代天	-11.3526
眞種子	-11.3526
聞而	-11.3526
之奥	-11.3528
前日	-11.353
升天	-11.3531
相尅	-11.3531
五通	-11.3531
仙凡	-11.3532
長者	-11.3533
含光	-11.3537
潛通	-11.3542
皇經	-11.3543
寶號	-11.3543
雖分	-11.3544
世外	-11.3546
而觀之	-11.3546
天將	-11.3549
之機也	-11.355
修善	-11.3552
如日	-11.3554
自從	-11.3555
行下	-11.3555
修省	-11.3555
逆則	-11.3559
年來	-11.356
居下	-11.3562
雖多	-11.3565
元老	-11.3566
結爲	-11.3568
生炁	-11.3572
於水	-11.3573
三十九	-11.3574
竅妙	-11.3576
建安	-11.3576
全是	-11.3576
三省	-11.3578
爲政	-11.3582
相反	-11.3584
道院	-11.3584
但得	-11.3585
丹結	-11.3585
天官	-11.3586
可比	-11.3586
先天後天	-11.3586
朝朝	-11.3587
靜裏	-11.3588
外境	-11.3594
木公	-11.3594
各宜	-11.3594
得志	-11.3595
朝眞	-11.3596
閃	-11.3598
哉然	-11.3598
亮曰	-11.3603
與之俱	-11.3603
頭上	-11.3605
拔度亡過	-11.3607
靜觀	-11.3609
天尊大悲輔	-11.361
洞觀	-11.361
耳若	-11.3611
靈靈	-11.3614
此際	-11.3616
復來	-11.3616
還歸	-11.3617
諸君	-11.3619
死心	-11.362
况乎	-11.362
碧玉	-11.3621
慾海	-11.3621
順理	-11.3623
東土	-11.3625
老聃曰	-11.3625
何常	-11.3627
生理	-11.3627
乘時	-11.363
元化	-11.3632
治亂	-11.3634
但願	-11.3636
富而	-11.3637
不礙	-11.3641
第十四	-11.3643
有命	-11.3644
長而	-11.3646
知之者	-11.3648
奉祀	-11.3649
之厚	-11.3651
之北	-11.3653
一遇	-11.3653
元帥晚朝	-11.3653
悠	-11.3654
矣但	-11.3655
入鼎	-11.3656
仰叩	-11.3657
言行	-11.3657
語云	-11.366
入地	-11.3661
元帥早朝	-11.3662
章第四十	-11.3664
無量無邊	-11.3665
實則	-11.3665
雲集	-11.3668
無影	-11.3669
則陽	-11.367
以成其	-11.3671
顯應	-11.3671
也嗚呼	-11.3674
火氣	-11.3676
參求	-11.3683
天邊	-11.3686
珠玉	-11.3687
辨之	-11.369
兌金	-11.3691
仁義之	-11.3692
一塊	-11.3693
堵	-11.3698
之疾	-11.3698
脱	-11.3698
烜	-11.3699
弗知	-11.37
華嚴經	-11.37
私意	-11.37
相制	-11.3701
洞元	-11.3703
灌漑	-11.3703
聖教	-11.3704
睦	-11.3704
鞏	-11.3704
剩	-11.3705
揜	-11.3705
句曲上眞沖靜妙應天尊	-11.3706
下視	-11.3706
寥寥	-11.3706
搬	-11.3707
陰隲	-11.3708
無極而太極	-11.3708
羨	-11.3708
禎祥	-11.3708
淨口神咒丹朱口神吐穢除氛	-11.3708
窪	-11.3708
昆蟲	-11.371
耳目口鼻	-11.371
神通三界内外惟道獨尊體有金光覆映	-11.371
魂永久魄無喪傾	-11.371
五氣	-11.371
度人萬千中山神咒元始玉文持誦一遍	-11.371
妒	-11.3711
出有入無	-11.3711
袂	-11.3711
圯	-11.3712
攬	-11.3712
杭	-11.3712
斡	-11.3712
兀	-11.3713
輻	-11.3713
讎	-11.3713
鷺	-11.3713
東岳上卿妙道眞應天尊	-11.3714
滄	-11.3714
榴	-11.3714
一塵不染	-11.3714
生長	-11.3716
放心	-11.3716
熙熙	-11.3717
挐	-11.3717
三元貴司沖惠神應天尊	-11.3718
自養	-11.3718
收歛	-11.3718
老嫩	-11.3718
元始符命	-11.3718
烏兔	-11.3719
妄註曰	-11.3719
押	-11.372
靠	-11.3721
牟	-11.3721
解其	-11.3723
化精	-11.3723
篋	-11.3724
各有所	-11.3725
濟物	-11.3725
收心	-11.3725
異乎	-11.3725
不開	-11.3726
絲毫	-11.3727
章第七	-11.3727
好生無量天尊	-11.3727
仙姬	-11.373
大壇	-11.373
帝勅	-11.3731
祝融	-11.3732
若何	-11.3733
洛書	-11.3734
顏色	-11.3735
出師	-11.3736
虛寂	-11.3739
悠然	-11.3739
太后	-11.3739
官至	-11.374
歌舞	-11.3741
夜夢	-11.3742
妙濟無量天尊	-11.3742
瀘	-11.3743
須當	-11.3746
火府	-11.3747
波濤	-11.3747
兢兢	-11.3747
經緯	-11.3748
不服	-11.3748
皓月	-11.3748
波羅	-11.3749
之途	-11.3749
禪天尊大悲	-11.375
安然	-11.3751
火鈴	-11.3751
恍然	-11.3752
頓首	-11.3752
豫州	-11.3752
議論	-11.3753
胡爲	-11.3754
一周天	-11.3754
赤松	-11.3755
鐘聲	-11.3756
五百過	-11.3756
星主	-11.3757
此人	-11.3757
千仞	-11.3758
本願	-11.3759
性而	-11.376
四十里	-11.3763
不居	-11.3763
口腹	-11.3765
正在	-11.3765
初無	-11.3765
堅强	-11.3766
六氣	-11.3767
是卽	-11.3769
炎炎	-11.3769
孔明之	-11.3769
是𡻕	-11.3772
盛衰	-11.3774
遇眞師	-11.3774
開導	-11.3774
賢良	-11.3777
動植	-11.3779
恐有	-11.3781
威武	-11.3782
不獲	-11.3782
變幻	-11.3783
交戰	-11.3783
心本	-11.3784
入口	-11.3789
勤苦	-11.379
作商	-11.3792
偃月爐	-11.3793
宛然	-11.3793
之訓	-11.3793
而結	-11.3794
眞源	-11.3794
淵淵	-11.3795
生木	-11.3796
都府	-11.38
第十一	-11.38
金金	-11.3801
無處	-11.3801
哀樂	-11.3807
能明	-11.3808
天樂	-11.3809
聖前	-11.381
心思	-11.381
其善	-11.381
大師尊	-11.3811
體認	-11.3815
而論之	-11.3816
實悟	-11.3819
法席	-11.3819
不答	-11.3819
因此	-11.382
以仁義	-11.3821
如月	-11.3826
教子	-11.3827
庶人	-11.3829
洛陽	-11.383
小人之	-11.3831
古之人	-11.3833
勿失	-11.3834
度量	-11.3836
役使	-11.3841
數月	-11.3842
草木之	-11.3844
所發	-11.3844
向道	-11.3845
不能得	-11.3846
三公	-11.3849
知時	-11.3849
擁護	-11.3851
謹奏	-11.3851
人不識	-11.3854
符合	-11.3855
中下	-11.3855
受諸	-11.3856
啟教	-11.3856
以助	-11.3856
而形	-11.3856
設醮	-11.3857
陳子	-11.3857
果證	-11.3857
一善	-11.3859
三陰	-11.3859
説法	-11.3861
莫把	-11.3862
可稱	-11.3862
准此	-11.3863
步虛	-11.3864
仙籍	-11.3865
念切	-11.3866
逆流	-11.3867
風淸	-11.3868
亦甚	-11.3869
卽事	-11.387
千山	-11.3871
不了	-11.3872
隨機	-11.3873
真一	-11.3873
侯王	-11.3873
則陰	-11.3874
高人	-11.3874
十數	-11.3878
豈得	-11.3878
法食	-11.3878
心欲	-11.388
卽當	-11.388
陳情	-11.3881
六祖	-11.3881
爲美	-11.3882
之甚也	-11.3885
難明	-11.3887
眞正	-11.3887
一度	-11.3887
同德	-11.389
大都	-11.3891
君也	-11.3892
天下也	-11.3894
靜者	-11.3897
聽法	-11.3898
九龍	-11.3901
足則	-11.3903
不淸	-11.3903
而居	-11.3904
所貴	-11.3906
精液	-11.3908
有若	-11.3909
隨緣	-11.3909
只用	-11.3916
金丹之道	-11.3918
白馬	-11.3921
子欲	-11.3923
以告	-11.3925
文公	-11.3928
保固	-11.3928
斯時也	-11.3928
自度	-11.3931
趨於	-11.3932
凡遇	-11.3932
莫知所	-11.3932
始信	-11.3933
復見	-11.3935
何從	-11.3936
共成	-11.3939
感召	-11.3939
萬億	-11.3939
樂天尊大悲	-11.3939
戒行	-11.394
壁間	-11.3942
一作	-11.3947
靈藥	-11.395
太公	-11.395
無所爲	-11.3951
吾門	-11.3954
其君	-11.3957
說得	-11.3958
若一	-11.3959
實理	-11.3959
河海	-11.3959
中土	-11.396
百千萬	-11.3962
而必	-11.3964
是有	-11.3964
不愧	-11.3964
五斗	-11.3967
行無	-11.3967
煉度	-11.3969
寓於	-11.397
是言	-11.3971
凡一切	-11.3973
慧日	-11.3973
觀於	-11.3974
靜室	-11.3974
蓋言	-11.3975
乃生	-11.3975
囘光	-11.3976
松風	-11.3977
元性	-11.3979
上泥丸	-11.3987
高天	-11.3988
遇之	-11.3989
精精	-11.3989
之威	-11.399
瑞氣	-11.3992
悟得	-11.3993
隨人	-11.3994
曰然則	-11.3995
至要	-11.3999
示人以	-11.4002
蒼穹	-11.4004
不擇	-11.4005
心火	-11.4007
不患	-11.4008
提出	-11.4008
原有	-11.4012
難尋	-11.4013
至樂	-11.4014
不減	-11.4014
次之	-11.4014
莫將	-11.4015
不調	-11.4016
大壯	-11.4019
經世	-11.402
亦未嘗	-11.4021
與子	-11.4022
疾苦	-11.4023
變也	-11.4025
眾善	-11.4027
老成	-11.4029
並行	-11.4029
惡根	-11.403
元帥中朝	-11.403
神虎	-11.4032
難行	-11.4033
於彼	-11.4035
之宮	-11.4036
治大宗師	-11.4037
萬三	-11.4039
去處	-11.4039
用工	-11.4041
牡	-11.4042
無上道	-11.4042
焉而	-11.4042
瞬	-11.4043
獅	-11.4044
瞶	-11.4045
二十七	-11.4046
窮理	-11.4047
鑠	-11.4047
氣滿	-11.4048
證位	-11.4049
鵝	-11.405
樹下	-11.405
企	-11.405
訥	-11.4051
身外有身	-11.4051
爲基	-11.4051
庚辛	-11.4051
瀰	-11.4052
勷	-11.4052
滔滔	-11.4053
我何	-11.4053
滚	-11.4053
以誠	-11.4053
奬	-11.4053
冦	-11.4054
扃	-11.4054
計之	-11.4055
藪	-11.4055
也六四	-11.4055
枯槁	-11.4055
菲	-11.4055
下者	-11.4055
翫	-11.4055
里域	-11.4056
甃	-11.4056
悌	-11.4056
不可得也	-11.4056
放大光明	-11.4056
綿綿若存	-11.4056
窻	-11.4057
廣化弟子惠覺校訂	-11.4057
掇	-11.4058
揉	-11.4058
萊	-11.4058
慷慨	-11.4058
院左宫	-11.4058
行住坐臥	-11.4059
院右宫	-11.4059
也六二	-11.406
猛獸	-11.406
賡	-11.406
一者智慧	-11.406
惡道	-11.4061
螭	-11.4061
飛空	-11.4061
懇禱	-11.4062
方且	-11.4063
鍚	-11.4063
禁忌	-11.4063
切勿	-11.4063
誹謗	-11.4064
膏肓	-11.4064
鄕貫	-11.4064
詈	-11.4064
爲福	-11.4064
寵辱	-11.4064
調神	-11.4064
桑田	-11.4065
崆峒	-11.4066
黃龍	-11.4066
甲寅	-11.4067
之主也	-11.4068
貪狼	-11.4069
刮	-11.4069
原非	-11.407
欽承	-11.407
變通	-11.407
喚醒	-11.4071
譬喻	-11.4072
敗壞	-11.4072
爲民	-11.4072
侍宸	-11.4072
罪消滅願	-11.4073
旦暮	-11.4074
饑寒	-11.4075
經言	-11.4075
計較	-11.4076
無極也	-11.4076
勅旨	-11.4076
之室	-11.4077
夰	-11.4078
鑒察	-11.4078
坐卧	-11.4078
救護	-11.4078
生門	-11.4079
三丰先生	-11.4079
瑾	-11.4079
傾危	-11.4081
昭彰	-11.4082
帝闕	-11.4082
拘拘	-11.4083
充盈	-11.4087
九壘	-11.4087
而求之	-11.4087
大節	-11.4088
莊周	-11.4088
之本體	-11.4089
蓬頭	-11.4089
默然	-11.4089
闕下	-11.409
矣至於	-11.409
故君子	-11.4093
根也	-11.4093
寶花	-11.4094
也苟	-11.4095
黃鍾	-11.4096
五千言	-11.4097
丙子	-11.4097
遷神	-11.4097
卽非	-11.4097
赦除	-11.4099
困苦	-11.4099
洞賓	-11.4099
宏教	-11.41
之效	-11.41
大慈大悲	-11.4102
永貞	-11.4103
不知道	-11.4104
今宵	-11.4104
慨然	-11.4107
公之	-11.4108
躬耕	-11.4109
朱子曰	-11.411
動動	-11.4112
百功	-11.4116
乾道	-11.4117
武當山	-11.4117
食肉	-11.4118
外求	-11.4119
誥命	-11.4122
之頃	-11.4123
心源	-11.4124
羣天尊大悲	-11.4126
守此	-11.4126
於何	-11.4128
試問	-11.4128
執着	-11.4129
根蒂	-11.4131
自棄	-11.4134
希聖	-11.4135
言念	-11.4135
古人云	-11.4135
上宮	-11.4135
亦與	-11.4136
圓融	-11.4137
進也	-11.414
妙音	-11.4141
長沙	-11.4143
宏開	-11.4145
過關	-11.4148
聖人以	-11.4148
靑華	-11.415
發動	-11.4152
終難	-11.4153
養育	-11.4153
聖賢之	-11.4154
下重樓	-11.4154
細微	-11.4154
得一分	-11.4158
内照	-11.416
之虞	-11.4161
可入	-11.4161
先師	-11.4161
江上	-11.4161
各有其	-11.4162
一供	-11.4162
高懸	-11.4162
集福	-11.4163
感之	-11.4164
平易	-11.4164
可容	-11.4164
天竺	-11.4166
以防	-11.4167
發育	-11.4169
爲水	-11.4169
多寡	-11.417
已往	-11.4173
天之所	-11.4174
未定	-11.4175
千眞	-11.4175
飛鳥	-11.4176
虛危	-11.4177
其樂	-11.4178
終古	-11.418
空明	-11.4184
是猶	-11.4184
勸善	-11.4186
上方	-11.4191
聞此	-11.4193
九章	-11.4196
三十年	-11.4196
龍王	-11.4198
之役	-11.4198
丹藥	-11.4198
帝力	-11.42
受戒	-11.42
爲五過	-11.42
立行	-11.4201
如之何	-11.4204
不因	-11.4207
修設	-11.4207
尋聲	-11.4209
相和	-11.4211
離中之	-11.4212
而卒	-11.4213
謂我	-11.4213
不久	-11.4213
爲母	-11.4217
聖王	-11.4219
陰陽之氣	-11.422
飛入	-11.4222
安危	-11.4222
卻有	-11.4223
以觀	-11.4225
節節	-11.4225
可笑	-11.4227
末學	-11.4228
仙花	-11.423
慈雲	-11.423
敢問	-11.4232
試觀	-11.4232
六欲	-11.4233
尤當	-11.4234
離欲	-11.4235
語默	-11.4239
倘能	-11.4244
張子曰	-11.4244
而西	-11.4244
二合	-11.4245
大江	-11.4245
誰識	-11.4247
戒律	-11.4247
心不可	-11.4248
萬夀	-11.4248
人猶	-11.4248
坤母	-11.4255
釋道	-11.4255
有漏	-11.4257
集說	-11.4266
遂爲	-11.4267
運氣	-11.4267
混然	-11.4267
發光	-11.4269
美也	-11.427
潤澤	-11.4272
克保	-11.4276
聖境	-11.4276
鈞天	-11.4277
稱其	-11.4279
之妙用也	-11.4279
疑之	-11.428
和暢	-11.4286
取法	-11.4286
甯有	-11.4287
五首	-11.4288
法則	-11.4288
萬狀	-11.4288
一齊	-11.4289
亦如之	-11.4291
百六	-11.4294
忽忽	-11.4295
之望	-11.4295
十通	-11.4298
不喜	-11.4298
地分	-11.4298
要得	-11.43
最要	-11.4301
碧雲	-11.4304
母元君	-11.4304
表奏	-11.4304
至元	-11.4305
一合	-11.4308
極於	-11.4311
而並	-11.4311
馥	-11.4313
乾父	-11.4314
直入	-11.4317
千門	-11.4321
原夫	-11.4321
官吏	-11.4322
真師	-11.4323
輟	-11.4323
神火	-11.4323
精舍	-11.4323
志於	-11.4323
月照	-11.4326
不常	-11.4329
非實	-11.4331
求諸	-11.4332
忽有	-11.4335
水土	-11.4337
吾想	-11.434
之弗	-11.4341
不可以言	-11.4342
陰陽合	-11.4344
接命	-11.4348
防危	-11.4351
稱名	-11.4351
道有	-11.4351
奉持	-11.4351
記之	-11.4352
二候	-11.4353
三十六天	-11.4353
萬理	-11.4354
顆	-11.4354
而過	-11.4355
立矣	-11.4355
曲直	-11.4356
靡不	-11.4361
之典	-11.4368
盛則	-11.437
三國	-11.437
爲聖	-11.4372
林木	-11.4375
不敢輕	-11.4376
南無	-11.438
近日	-11.4381
坤爲	-11.4382
水面	-11.4385
右符告下	-11.4385
入神	-11.4387
聞聲	-11.4387
罪人	-11.4388
之災願消	-11.4389
如雷	-11.439
得宜	-11.439
五者	-11.439
預修	-11.439
湏	-11.4395
要識	-11.4395
☱	-11.4395
眾妙	-11.4396
來生	-11.4396
歸家	-11.44
裙	-11.44
沴	-11.44
竟不	-11.4401
便能	-11.4401
掖	-11.4402
亘古	-11.4402
一如玄科律令	-11.4403
郁	-11.4404
出門	-11.4404
堦	-11.4404
糞	-11.4405
璣	-11.4406
幸有	-11.4406
瘟㾮	-11.4406
漾	-11.4407
蜉蝣	-11.4409
江西	-11.4409
屐	-11.4409
寤	-11.4409
軒冕	-11.4409
穉	-11.4409
浩刼	-11.4409
緇	-11.4409
伎	-11.4409
誦持萬遍身有光明三界侍	-11.441
貼	-11.441
之危	-11.4411
日月合璧	-11.4411
自心	-11.4411
梢	-11.4411
儻	-11.4412
滄溟	-11.4412
丙午	-11.4412
天地玄宗萬炁本根廣修億劫證吾	-11.4412
儒道	-11.4413
匡廓	-11.4413
婉	-11.4413
組	-11.4413
豔	-11.4413
諍	-11.4413
攷	-11.4414
梯航	-11.4414
湍	-11.4414
柔和	-11.4414
蓑	-11.4414
惚	-11.4414
拊	-11.4414
餓鬼	-11.4414
嬰孩	-11.4415
倐忽	-11.4415
用神	-11.4415
澡	-11.4415
斡旋	-11.4415
一得永得	-11.4415
皆此	-11.4415
羕	-11.4416
羶	-11.4416
墉	-11.4416
聖主	-11.4416
包括	-11.4417
玄穹	-11.4417
我命	-11.4417
豈易	-11.4417
穹蒼	-11.4417
罪消滅玉皇大天尊玄穹高上帝	-11.4417
沮	-11.4418
遐邇	-11.4418
葩	-11.4418
上天下地	-11.4418
揑	-11.4418
纎毫	-11.4419
翺翔	-11.4419
碣	-11.4419
飱	-11.4419
扼	-11.4419
恁	-11.4419
燼	-11.442
信受奉行	-11.442
租	-11.442
㐫	-11.442
之禱	-11.442
馳騁	-11.442
篡	-11.442
懈怠	-11.4421
曠劫	-11.4421
琮	-11.4421
之樞	-11.4421
萬籟	-11.4421
彬	-11.4421
赫奕	-11.4421
稽首皈依	-11.4422
善養	-11.4423
堰	-11.4423
大造	-11.4424
朗耀	-11.4424
騷	-11.4424
子路	-11.4424
松柏	-11.4424
進陽火	-11.4425
涪	-11.4425
何以得	-11.4425
黛	-11.4425
骨髓	-11.4427
莫教	-11.4429
所受	-11.4429
中篇	-11.443
俯垂	-11.4431
丹竈	-11.4433
奔走	-11.4433
星君北斗	-11.4433
合眞	-11.4434
猶恐	-11.4434
難成	-11.4435
大生	-11.4436
大業	-11.4437
深淵	-11.4437
身口	-11.4437
發揮	-11.4441
然後知	-11.4441
傳法	-11.4441
之階	-11.4443
之故也	-11.4443
冬夏	-11.4443
之國	-11.4444
默契	-11.4445
其死也	-11.4447
明王	-11.4449
復返	-11.445
燒煉	-11.445
神機	-11.4452
以養其	-11.4454
聖化	-11.4454
强梁	-11.4455
治聖母	-11.4455
精也	-11.4456
照徹	-11.4457
神風	-11.4458
器之	-11.4458
老師	-11.4458
鳴呼	-11.4459
採補	-11.4459
利名	-11.446
无極	-11.446
存誠	-11.446
枯木	-11.446
結果	-11.4461
無殊	-11.4461
隱山	-11.4462
雲南	-11.4464
癸水	-11.4467
休休	-11.447
千祥	-11.447
終是	-11.4473
按此	-11.4474
朝謁	-11.4479
邪見	-11.4481
分位	-11.4481
退藏	-11.4481
與眾	-11.4482
淸微天	-11.4484
校正	-11.4486
消愆	-11.4487
嘉定	-11.4488
得生	-11.4492
代諱	-11.4492
三卷	-11.4496
亦多	-11.4498
此係	-11.4498
木性	-11.4499
當爲	-11.45
慧照	-11.4501
不固	-11.4502
伏地	-11.4507
凡軀	-11.4507
取諸	-11.4512
祖誥至心皈命禮	-11.4512
試思	-11.4514
伏虎	-11.4518
若得	-11.4519
良緣	-11.4519
全身	-11.4522
天尊大悲仁	-11.4524
上六	-11.4524
山福地仙官聖眾	-11.4526
劍南	-11.4526
太宗	-11.453
元宗	-11.453
興亡	-11.4531
簡易	-11.4535
來復	-11.4536
不怕	-11.4538
之炁以	-11.4538
身家	-11.4539
宇内	-11.4543
徒以	-11.4543
提起	-11.4543
藉此	-11.4544
普救	-11.4544
傳以	-11.4546
眞誠	-11.4546
所愛	-11.4548
夜深	-11.4553
矣彼	-11.4554
神在	-11.4556
有生死	-11.4558
大行	-11.4558
庚子	-11.4559
數丈	-11.4561
至死	-11.4561
安敢	-11.4562
以示人	-11.4562
若在	-11.4563
在目前	-11.4563
不顯	-11.4564
物阜	-11.4568
羣陰	-11.4571
耳故	-11.4572
林天尊大悲	-11.4574
人鬼	-11.4574
不磨	-11.4576
已土	-11.4576
不辨	-11.4577
至剛	-11.4578
玄祖	-11.4581
一太極	-11.4581
若使	-11.4582
旣能	-11.4583
人處	-11.4583
武王	-11.4583
其右	-11.4584
性水	-11.4589
可哀	-11.459
賢聖	-11.4591
黃華	-11.4592
而北	-11.4593
爲要	-11.4595
靑靑	-11.4595
如山	-11.4595
期於	-11.4597
之神也	-11.4599
妙明	-11.4601
一任	-11.4602
世傳	-11.4603
等類	-11.4603
齋醮	-11.4605
至是	-11.4608
身中之	-11.4608
者欲	-11.461
自全	-11.4619
兩端	-11.4621
還返	-11.4624
只須	-11.4625
將何以	-11.4627
藥之	-11.4627
仗道	-11.4628
不近	-11.4629
重修	-11.463
之遺	-11.4635
相因	-11.4636
爲奇	-11.4636
空不空	-11.4636
聚於	-11.4637
所惑	-11.4637
無子	-11.4637
而成丹	-11.4639
異同	-11.4644
妙旨	-11.4645
而遂	-11.4649
亦知	-11.465
此輩	-11.465
志士	-11.465
玄眞	-11.4654
除已	-11.4654
三𡻕	-11.4654
致其	-11.4657
山嶽	-11.4658
愛慾	-11.4658
五内	-11.4659
有一種	-11.4659
如是而	-11.466
爲不善	-11.4661
明了	-11.4663
九宮	-11.4667
載道	-11.4672
中尋	-11.4673
發其	-11.4673
聖真	-11.4673
北山	-11.4674
眞靜	-11.4675
朱子	-11.4678
也譬如	-11.4682
致知	-11.4684
入蜀	-11.4685
修功	-11.4685
將至	-11.4686
還須	-11.4689
一丸	-11.4691
一問	-11.4697
所生之	-11.4698
天命之	-11.4699
仙去	-11.4701
廣度	-11.4705
凡心	-11.4705
正眞	-11.4707
了當	-11.4707
其爲人	-11.471
說經	-11.4712
鍊精	-11.4713
不擾	-11.4714
治都真宗師	-11.4715
者多矣	-11.4716
輝光	-11.4716
高士	-11.4717
轉運	-11.4718
涵三	-11.4718
个	-11.4719
遍體	-11.4723
已知	-11.4725
綿延	-11.4725
告之	-11.4725
諸書	-11.4726
四禪	-11.4726
夫何	-11.4729
則止	-11.4729
實非	-11.473
信道	-11.4731
也又曰	-11.4731
而東	-11.4735
舉動	-11.4735
之間而	-11.4737
之作用	-11.4737
三合	-11.4738
水石	-11.4739
極言	-11.4739
大略	-11.474
不悖	-11.474
音聲	-11.4741
迷於	-11.4741
養眞	-11.4743
洞陰	-11.4743
中一點	-11.4745
雲梯	-11.4745
天尊大悲顯	-11.4747
甚易	-11.4747
洞虛	-11.475
往見	-11.475
知命	-11.475
治都仙宗師	-11.4751
之凶	-11.4753
行火候	-11.4754
治都神宗師	-11.4754
夜靜	-11.4755
龍車	-11.4756
當作	-11.4756
火德	-11.4756
帝庭	-11.4756
千過	-11.4757
實地	-11.4758
青編	-11.476
貧者	-11.476
修道之	-11.4762
傷生	-11.4763
專心	-11.4765
終則	-11.4765
靖真宰	-11.4766
塢	-11.4767
己身	-11.4767
耳然	-11.4767
一首	-11.4768
眇	-11.4769
咄	-11.477
峩眉	-11.4771
身上	-11.4771
相從	-11.4771
瞳	-11.4773
𨶒	-11.4773
滿天	-11.4774
天尊大悲神霄化	-11.4774
妹	-11.4775
我來	-11.4775
荆棘	-11.4776
歲	-11.4776
鶉	-11.4777
沭	-11.4777
水火木金	-11.4778
阮	-11.4778
大洞玉經	-11.4778
啄	-11.4778
些子	-11.4779
楫	-11.478
𤃉	-11.478
不可稱量十者普心	-11.478
不可稱量八者飾身	-11.478
不可稱量九者遣情	-11.478
不可稱量五者修心	-11.478
不可稱量四者行功	-11.478
不可稱量是爲十種	-11.478
不可稱量六者善業	-11.478
亦不過	-11.478
滕	-11.4781
泮	-11.4781
閫	-11.4781
兇	-11.4781
淨天地神咒天地自然穢氣分散洞中	-11.4781
蕩滌	-11.4781
扄	-11.4781
拴	-11.4782
請詳事理	-11.4782
賄	-11.4782
特陳	-11.4782
錐	-11.4782
不可稱量二者慈悲	-11.4782
丁亥	-11.4782
暄	-11.4783
護法神王保衞誦經皈依大道元亨利貞	-11.4783
燎	-11.4783
桎梏	-11.4783
霾	-11.4783
祛	-11.4783
覃恩不可思議功德收讚	-11.4783
墮於	-11.4784
砥柱	-11.4784
諛	-11.4784
梓潼	-11.4784
到此地位	-11.4785
癘	-11.4785
鑒此	-11.4785
姪	-11.4785
厦	-11.4786
稷	-11.4786
適以	-11.4786
鍛鍊	-11.4786
口口相傳	-11.4786
司額	-11.4786
彌綸	-11.4788
僥倖	-11.4788
淳	-11.4788
瘞	-11.4789
二六時中	-11.4789
袋	-11.4789
减	-11.479
泡影	-11.479
五丈原	-11.479
神馭	-11.479
鐵圍	-11.479
粉碎	-11.4791
蘚	-11.4791
水中之金	-11.4792
無所得	-11.4792
坦然	-11.4792
淨天尊大悲	-11.4793
杪	-11.4793
椒	-11.4794
寧	-11.4794
鬢	-11.4795
非道也	-11.4796
憨	-11.4797
哉蓋	-11.4797
增減	-11.4797
嵩山	-11.4798
悠久	-11.4798
杏林	-11.4799
内有霹𩆝雷神隱名	-11.48
斑	-11.48
人人皆	-11.4801
檜	-11.4802
昭格	-11.4802
正傳	-11.4803
懸崖	-11.4804
牡丹	-11.4804
採大藥	-11.4805
斗姆	-11.4805
陰魔	-11.4807
凶象曰	-11.4807
預禳	-11.4807
吾嘗	-11.4809
仰觀	-11.481
曲江	-11.481
睡魔	-11.4811
後跋	-11.4812
坦坦	-11.4812
山麓	-11.4812
養得	-11.4814
萬道	-11.4814
土釡	-11.4817
之木	-11.4818
效驗	-11.4819
超越	-11.4819
居民	-11.482
不足則	-11.4821
朔望	-11.4821
之根也	-11.4822
定其	-11.4823
而趨	-11.4823
山居	-11.4823
玉籙	-11.4825
大悟	-11.4827
根器	-11.4829
夢幻	-11.483
衆真	-11.4831
推移	-11.4831
增益	-11.4834
遵依	-11.4835
爲仁	-11.4835
浩氣	-11.4836
著意	-11.4836
至哉	-11.4836
矣是故	-11.4837
幾希	-11.4837
染著	-11.4838
壬水	-11.4838
戰勝	-11.4838
輕舉	-11.4839
龍飛	-11.4839
天體	-11.484
雖是	-11.484
幻身	-11.4841
精䖍	-11.4845
遊乎	-11.4847
千𡻕	-11.4848
五藴	-11.4849
百千萬億	-11.485
游者	-11.485
黃昏	-11.485
退而	-11.4852
檢點	-11.4853
勝負	-11.4854
及乎	-11.4855
泉曲	-11.4855
矣予	-11.4858
而不失	-11.4858
三要	-11.4858
白蓮	-11.4861
根塵	-11.4862
人皆知	-11.4863
乃復	-11.4863
亡過	-11.4867
勞苦	-11.4868
豚	-11.4869
木液	-11.487
救濟	-11.4876
隨方	-11.4877
根於	-11.4879
雲錦	-11.4879
天地之大	-11.488
物理	-11.488
須憑	-11.488
秋水	-11.4882
下山	-11.4882
慈母	-11.4883
翠虛	-11.4884
廟貌	-11.4884
封固	-11.4885
有一人	-11.4885
亥子	-11.4885
悔過	-11.4886
不徒	-11.4887
物亦	-11.4888
洞裏	-11.4888
無障	-11.4889
寶訓	-11.4891
功深	-11.4895
淫念	-11.4895
不能久	-11.4896
不有其	-11.4897
涉世	-11.4897
仍是	-11.4898
身形	-11.4899
幾度	-11.4899
不可以爲	-11.49
眞君曰	-11.4901
十倍	-11.4902
一塵	-11.4903
出沒	-11.4903
公孫	-11.4904
縣東	-11.4907
勸君	-11.4909
佐命	-11.4911
臨事	-11.4915
上根	-11.4916
求仙	-11.4919
相得	-11.4919
持念	-11.492
遣使	-11.4922
得力	-11.4928
寺寺	-11.4928
無惡	-11.4928
丹經云	-11.4929
難窮	-11.4929
雖在	-11.4932
輕洩	-11.4937
皈神	-11.4938
仙掌	-11.4939
中節	-11.494
所稱	-11.4944
坤道	-11.4945
而不見其	-11.4945
勿令	-11.4948
相親	-11.4949
狀元	-11.495
淨心	-11.495
作事	-11.495
本位	-11.4951
之過也	-11.4951
深遠	-11.4952
覺源	-11.4953
心術	-11.4953
死戸	-11.4953
更能	-11.4953
不能知	-11.4954
不費	-11.4955
和之	-11.4955
以圖	-11.4956
勢必	-11.4957
廣寒	-11.4957
少壯	-11.4958
心印經	-11.4959
八祖	-11.4959
靜虛	-11.4961
五德	-11.4962
之精神	-11.4962
作主	-11.4963
非若	-11.4963
有爲而	-11.4965
天階	-11.4966
則炁	-11.497
身如	-11.4971
我則	-11.4973
宰相	-11.4974
七里	-11.4974
又要	-11.4974
程子	-11.4974
語也	-11.4975
響應	-11.4975
口業	-11.4976
眞功	-11.4978
原從	-11.4985
自反	-11.4987
齋筵	-11.4987
度盡	-11.4988
聖衆	-11.499
慈祥	-11.4992
行方便	-11.4993
無體	-11.4999
不還	-11.5001
取今	-11.5004
萬載	-11.5006
先將	-11.5007
小果	-11.501
路上	-11.501
靜一	-11.5011
無光	-11.5011
尊居	-11.5016
果何	-11.5018
爲坎	-11.5019
忽焉	-11.5019
之歡	-11.502
貴人	-11.502
州人	-11.502
除淫	-11.5021
泰然	-11.5021
合而爲一	-11.5024
同居	-11.5025
勇於	-11.5027
孝信	-11.5028
玅法	-11.5028
互爲	-11.5028
濁氣	-11.5031
惡趣	-11.5035
而徒	-11.5037
左道	-11.5037
政事	-11.5038
如日月	-11.504
之功德	-11.5045
卽在	-11.5046
法財	-11.5047
近而	-11.5047
無字	-11.5048
那時	-11.5051
不可無	-11.5052
壁上	-11.5054
洞在	-11.5055
駕鶴	-11.5055
元靈	-11.5056
千五百	-11.5057
小童	-11.5061
如嬰兒	-11.5062
能修	-11.5062
數萬	-11.507
說來	-11.507
漢陽	-11.507
出山	-11.5071
宜其	-11.5072
炁天君	-11.5074
車之	-11.5076
滅度	-11.5079
匱	-11.5079
可復	-11.5079
此生	-11.508
謹守	-11.5084
品物	-11.5084
少有	-11.5085
更宜	-11.5086
惜哉	-11.5086
之旨也	-11.5088
不怨	-11.5089
能制	-11.509
耳聽	-11.5093
建善	-11.5093
普天尊大悲	-11.5093
幽陰	-11.5094
寶蓋	-11.5094
其妻	-11.5095
隱藏	-11.5096
意意	-11.5096
動作	-11.5097
因之而	-11.5102
魔鬼	-11.5103
九玄	-11.5103
也以其	-11.5104
月白	-11.5108
常懷	-11.5109
大悲大願	-11.5111
日益	-11.5115
海中	-11.5115
多端	-11.5119
寶藏	-11.5122
君山	-11.5122
六百	-11.5123
後起	-11.5126
獨行	-11.5126
百拜	-11.5128
靈眞	-11.5132
受鍊	-11.5135
斷絕	-11.5136
致使	-11.5141
能容	-11.5142
而獲	-11.5143
永斷	-11.5143
三載	-11.5145
屬於	-11.5145
朗照	-11.5146
誠哉	-11.5146
七炁	-11.5147
丹母	-11.5147
一半	-11.5148
瘳	-11.5148
之戒	-11.5148
旂	-11.5149
不記	-11.515
恩澤	-11.5152
人之身	-11.5152
一源	-11.5153
受報	-11.5153
慟	-11.5153
窈	-11.5154
不遷	-11.5155
可指	-11.5156
安用	-11.5157
等伏思	-11.5157
枷	-11.5158
湫	-11.5158
嘻	-11.5158
未開	-11.5158
利涉大川	-11.5158
酥	-11.5159
八萬四千	-11.516
冠冕	-11.5163
陰中之陽	-11.5163
春夏秋冬	-11.5164
湮	-11.5164
發心	-11.5164
琦	-11.5164
嬴	-11.5165
翅	-11.5165
不可稱量七者精進	-11.5165
鉞	-11.5165
不可稱量何等爲十種	-11.5165
太上曰復有十種	-11.5165
舛	-11.5166
乙亥	-11.5166
取坎塡離	-11.5166
棒	-11.5167
賽	-11.5167
不可稱量三者含忍	-11.5167
疴	-11.5167
☴	-11.5167
赤水	-11.5167
恊	-11.5168
嵌	-11.5168
昴	-11.5169
降於	-11.5169
諉	-11.517
藥王	-11.517
籲	-11.517
偪	-11.517
睫	-11.517
衫	-11.517
泡	-11.517
浹	-11.517
涇	-11.517
能如是	-11.5171
猖狂	-11.5171
不忠不孝	-11.5171
謄	-11.5171
矗	-11.5172
鄂	-11.5172
貨財	-11.5172
福緣	-11.5172
妖氛	-11.5173
著明	-11.5173
淡泊	-11.5174
甌	-11.5174
漏盡通	-11.5174
肚	-11.5175
延齡	-11.5175
攫	-11.5175
暈	-11.5175
混混沌沌	-11.5175
闋	-11.5175
蔕	-11.5175
梳	-11.5176
弈	-11.5176
無形無象	-11.5176
蕭蕭	-11.5176
玉陛下	-11.5176
積功累行	-11.5176
鏤	-11.5176
怙	-11.5176
翛然	-11.5177
陸西星曰	-11.5177
繽紛	-11.5177
昊天上帝	-11.5177
汲汲	-11.5178
熬	-11.5178
篁	-11.5179
勾陳	-11.5179
蜃	-11.5179
墀	-11.518
爾心	-11.518
雞鳴	-11.518
激切	-11.5181
充溢	-11.5181
唵字	-11.5182
片餉	-11.5182
以度	-11.5183
營營	-11.5184
劉海蟾	-11.5184
休歇	-11.5184
宗主	-11.5185
真心	-11.5185
形影	-11.5185
連環	-11.5186
利欲	-11.5186
㖿	-11.5186
酒肉	-11.5187
修道之士	-11.5187
十二辰	-11.5187
都䕶	-11.5188
於子	-11.5188
自高	-11.5189
拔宅	-11.519
十餘年	-11.519
甲辰	-11.5191
天上之	-11.5191
文尼	-11.5192
游戲	-11.5192
瑤臺	-11.5192
勤勤	-11.5195
姓氏	-11.5196
長老	-11.5197
本非	-11.5197
敬禮	-11.5198
天池	-11.5198
無僞	-11.5198
至老	-11.5199
貫徹	-11.52
綱目	-11.5201
呈進	-11.5202
赤壁	-11.5204
大洞仙經	-11.5205
碑記	-11.5205
其終	-11.5206
宏仁	-11.5207
分毫	-11.5207
森森	-11.5208
故謂	-11.5209
有慶	-11.5209
惟天	-11.5211
玉枕	-11.5212
金針	-11.5212
白鹿	-11.5212
與時	-11.5212
如醉	-11.5214
道範	-11.5214
八風	-11.5214
品天尊大悲	-11.5214
蕩除	-11.5214
珠光	-11.5215
徧滿	-11.5215
胎元	-11.5216
遙望	-11.5218
老死	-11.5218
延命	-11.5219
有所得	-11.5219
六慾	-11.522
宅舍	-11.5222
扶持	-11.5222
示之以	-11.5222
玉堂	-11.5225
意念	-11.5227
有覺	-11.5227
斷障	-11.5227
彩雲	-11.5228
和光	-11.5229
難量	-11.5229
何方	-11.5229
大要	-11.523
殺身	-11.523
列宿	-11.5233
羅漢	-11.5235
高卧	-11.5236
性地	-11.5237
未審	-11.5237
兩途	-11.5239
學道之人	-11.5241
車馬	-11.5241
關係	-11.5242
之區	-11.5242
自現	-11.5243
微臣	-11.5244
無難	-11.5244
護國	-11.5246
敬畏	-11.5246
罔極	-11.5247
古洞	-11.5248
覺性	-11.5248
氣散	-11.5248
向外	-11.5248
高尊	-11.5248
十眞	-11.5249
爲國	-11.525
孰敢	-11.5251
家國	-11.5252
趙公	-11.5253
湖海	-11.5254
培養	-11.5254
淸吉	-11.5254
心虛	-11.5255
宮殿	-11.5259
梵音	-11.526
戒淫	-11.5261
續命	-11.5261
謹陳	-11.5263
卓然	-11.5263
起一	-11.5263
黃山	-11.5265
安心	-11.5266
无不	-11.5266
而後已	-11.5268
葆眞	-11.5269
謹按	-11.5269
天律	-11.5269
大仁	-11.527
八字	-11.5271
丈餘	-11.5272
千劫	-11.5273
其功德	-11.5277
黃泉	-11.5277
澄心	-11.5278
之內	-11.5278
已定	-11.528
坎離交	-11.5281
大象	-11.5284
庶乎	-11.5285
日生	-11.5285
不好	-11.5286
陳夀	-11.5287
試以	-11.5287
定力	-11.5287
高深	-11.5287
寶符	-11.5288
陽動	-11.5293
科教	-11.5293
掃盡	-11.5294
總持	-11.5297
凡在	-11.5297
合而成	-11.5298
求道者	-11.5298
養精	-11.5298
女子之	-11.5299
相違	-11.53
怒而	-11.5303
得金	-11.5303
厥後	-11.5305
長保	-11.5306
有不同	-11.5306
報恩	-11.5306
南面	-11.5309
最初	-11.5311
門庭	-11.5312
虛名	-11.5313
吾將	-11.5314
秘法	-11.5318
人寰	-11.532
作聖	-11.532
大儒	-11.5322
寒泉	-11.5325
六六	-11.5326
沾恩	-11.5327
畫卦	-11.5327
春雨	-11.5328
亦作	-11.5329
現身	-11.533
而南	-11.533
只待	-11.5331
大盜	-11.5334
逞其	-11.5334
與道合	-11.5339
正色	-11.5341
善善	-11.5342
求眞	-11.5343
往昔	-11.5344
天尊大悲威	-11.5345
叩拜至心朝禮	-11.5346
表文	-11.5348
亦各	-11.5348
無英	-11.535
生來	-11.535
一乘	-11.5351
章第三	-11.5353
猶之	-11.5353
夫豈	-11.5356
九泉	-11.5357
字句	-11.5357
古木	-11.5359
以應之	-11.5361
不可輕	-11.5364
觀照	-11.5365
養就	-11.5366
五更	-11.5367
發乎	-11.5368
不涉	-11.5369
吾性	-11.537
當世	-11.5371
便非	-11.5372
淸泉	-11.5375
守靜	-11.5378
中有一	-11.5382
遇此	-11.5382
數者	-11.5383
忽聞	-11.5386
不墜	-11.5386
雲臺	-11.5388
通眞	-11.5389
水底	-11.5392
大意	-11.5392
聖祖	-11.5392
輕輕	-11.5392
喪失	-11.5395
十三年	-11.5396
於人者	-11.5397
大綱	-11.5401
附於	-11.5401
石刻	-11.5404
仰天	-11.5404
百寶	-11.5406
乃曰	-11.5406
時中	-11.5407
吾儒	-11.5409
存其	-11.5409
四音	-11.541
巖下	-11.5411
無間斷	-11.5413
神定	-11.5414
常明	-11.5416
而不覺	-11.5416
自西	-11.5421
章第一	-11.5423
依此	-11.5424
主壇	-11.5425
丑寅	-11.5427
惡惡	-11.5428
某人	-11.5436
物情	-11.5437
無門	-11.5438
七言	-11.5439
不重	-11.5445
火性	-11.5446
生光	-11.5446
獨坐	-11.5449
訪之	-11.5449
知道者	-11.545
百行	-11.5452
爲人所	-11.5452
相顧	-11.5453
道備	-11.5454
旣入	-11.5455
遂得	-11.5455
天尊大悲赤	-11.5456
洞空	-11.5456
以智	-11.5456
何足以	-11.546
之跡	-11.5461
火藥	-11.5462
效法	-11.5465
可悟	-11.5466
如珠	-11.5467
相會	-11.5469
天地日月	-11.547
水月	-11.5472
愼獨	-11.5472
眞風	-11.5473
金鉛	-11.5474
而人不	-11.5474
不依	-11.5476
僧曰	-11.5476
玉壺	-11.5477
仁人	-11.5479
地方	-11.5481
惟人	-11.5481
圓珠	-11.5482
火足	-11.5485
百丈	-11.5488
乃爾	-11.5488
一件	-11.5491
某等	-11.5494
門戶	-11.5496
問答	-11.5496
時辰	-11.5496
並非	-11.5497
明乎	-11.5498
便爲	-11.5499
受符	-11.55
至靈至	-11.5501
可學	-11.5502
之不足	-11.5502
于人	-11.5505
日久	-11.5506
而為	-11.5508
修鍊者	-11.5508
與前	-11.5509
若存	-11.5509
返胎	-11.551
昊	-11.5512
眞人良醫普救	-11.5514
好殺	-11.5514
不偏	-11.5516
上騰	-11.5516
敬信	-11.5517
靈府	-11.5518
先知	-11.5527
縣令	-11.5527
正北	-11.5529
垂教	-11.5532
又謂	-11.5537
符使	-11.5537
法部	-11.5539
異之	-11.554
因名	-11.554
生明	-11.5542
圖書	-11.5542
甚大	-11.5543
如金	-11.5544
承當	-11.5546
水雲	-11.5547
法寶	-11.5547
苟有	-11.5548
合屬	-11.5548
孺	-11.5549
自滿	-11.555
罩	-11.5553
陳淸醮	-11.5553
可喜	-11.5557
人人具足	-11.5557
☳	-11.5557
木石	-11.5557
駡	-11.5559
慄	-11.5559
淸源	-11.556
何分	-11.556
𣷹	-11.5561
綦	-11.5561
臭腐	-11.5562
鴟	-11.5562
洞天福地	-11.5563
爇玉爐心存帝前眞靈下盼仙斾臨軒令	-11.5563
傭	-11.5563
昃	-11.5564
胚胎	-11.5564
霓裳	-11.5564
冉冉	-11.5564
誰與	-11.5564
捍	-11.5564
蒿	-11.5565
無忌	-11.5565
筌	-11.5565
防危慮險	-11.5565
牘	-11.5566
泠	-11.5566
膜	-11.5566
何地	-11.5567
犀	-11.5567
匹配	-11.5567
帽	-11.5568
逋	-11.5568
狙	-11.5568
琴瑟	-11.5569
瀟瀟	-11.5569
師承	-11.5569
榛	-11.5569
薦亡人	-11.557
舄	-11.557
脆	-11.557
鷲	-11.557
嬰兒姹女	-11.5571
生天生地	-11.5571
饗	-11.5571
據大淸國	-11.5571
沂	-11.5572
顛倒	-11.5572
覈	-11.5572
生生不息	-11.5573
迅速	-11.5573
斗杓	-11.5573
亦名	-11.5574
鐘鼓	-11.5574
庾	-11.5574
賑	-11.5574
邸	-11.5575
絡繹	-11.5575
霓旌	-11.5575
賫	-11.5576
須從	-11.5576
綱領	-11.5576
暝	-11.5576
瑩徹	-11.5576
祝香神咒道由心洽心假香傳香	-11.5576
盥	-11.5576
唐虞	-11.5577
上淸宫	-11.5577
金丹作用	-11.5577
殼	-11.5577
天主	-11.5577
機緣	-11.5578
五老上帝	-11.5578
五戒	-11.558
棊	-11.558
紆	-11.558
攴天	-11.558
知幾	-11.5581
降生天尊	-11.5581
成仙成佛	-11.5581
驀	-11.5581
漢祚	-11.5581
鍼	-11.5581
不淫	-11.5581
誠惶	-11.5581
二十過	-11.5581
勾引	-11.5582
諡	-11.5582
豈在	-11.5582
禹餘	-11.5582
拯救	-11.5585
鉄	-11.5585
捨身	-11.5585
紹興	-11.5586
民情	-11.5588
藥物火候	-11.5588
富者	-11.5589
始可	-11.559
做工夫	-11.559
漸入	-11.559
火燒	-11.5591
歐陽	-11.5593
徹底	-11.5594
千般	-11.5594
肅肅	-11.5594
東岳	-11.5594
和順	-11.5594
辟穀	-11.5595
薦拔	-11.5595
耗散	-11.5595
玉兔	-11.5596
得名	-11.5597
上卷	-11.5601
展轉	-11.5604
矢志	-11.5606
而輕	-11.5607
無根樹	-11.5607
鄭重	-11.5608
鬼仙	-11.5608
察察	-11.561
士卒	-11.5612
聚精	-11.5615
意欲	-11.5616
煉鉛	-11.5616
悔悟	-11.5619
乾隆	-11.562
無拘	-11.562
收攝	-11.5621
如上	-11.5621
不忒	-11.5622
電光	-11.5622
翼翼	-11.5623
舟車	-11.5623
荀子	-11.5624
洞鑒	-11.5624
絕無	-11.5625
悟天尊大悲	-11.5626
意識	-11.5626
的的	-11.5627
元亨	-11.5627
無色界	-11.5627
總讚	-11.5628
冥府	-11.563
靑鸞	-11.563
度死	-11.563
獨有	-11.5631
天仙之	-11.5632
城市	-11.5632
具職	-11.5632
三級	-11.5633
黒簿	-11.5638
聖學	-11.5639
不爲物	-11.5641
光臨	-11.5641
率土	-11.5644
丁未	-11.5647
一座	-11.5648
善因	-11.5651
一云	-11.5653
前愆	-11.5653
眞情	-11.5654
予之	-11.5656
章第四	-11.5657
獨自	-11.5659
慶幸	-11.566
多福	-11.566
夙世	-11.5662
末世	-11.5662
主簿	-11.5664
矣非	-11.5664
阿難	-11.5665
雲車	-11.5667
莫道	-11.5669
復出	-11.5669
之悲	-11.567
1	-11.5671
而人自	-11.5671
浮游	-11.5672
順乎	-11.5673
防其	-11.5676
寡過	-11.5677
感動	-11.5678
於無形	-11.5681
詔書	-11.5682
得道者	-11.5682
旨趣	-11.5683
九二	-11.5684
九鳳	-11.5684
前功	-11.5685
痛苦	-11.5685
盡之矣	-11.5685
奉勅	-11.5686
洞靈	-11.5686
黃甯	-11.5687
旣不能	-11.5688
執對	-11.5689
性根	-11.5689
觀夫	-11.569
半夜	-11.5693
坐時	-11.5695
丹靑	-11.5695
羽流	-11.5697
位列	-11.57
也而其	-11.57
夙根	-11.5704
遇仙	-11.5704
妄意	-11.5705
輔天尊大悲	-11.5705
爲徒	-11.5706
才能	-11.5707
小腸	-11.5709
此四句	-11.5709
丹房	-11.571
故特	-11.5711
殺害	-11.5711
登臨	-11.5713
陰柔	-11.5713
目之	-11.5714
三九	-11.5716
玉篇	-11.5717
鍊虛	-11.5718
塊然	-11.572
於腎	-11.5722
刀山	-11.5724
前言	-11.5725
旣分	-11.5725
斯文	-11.5727
朝宗	-11.5728
爲盜	-11.5733
須得	-11.5733
庚甲	-11.5738
數十里	-11.5739
天爵	-11.574
此一節	-11.5741
混成	-11.5744
助道	-11.5744
性宗	-11.5744
六經	-11.5745
上聞	-11.5746
一月之	-11.575
旣往	-11.5752
善報	-11.5752
形勢	-11.5754
酒食	-11.5754
亨也	-11.5754
香爐	-11.5754
之精華	-11.5758
滅盡	-11.5759
始初	-11.5762
一株	-11.5764
天下事	-11.5764
第十三	-11.5767
吳王	-11.5767
紅雲	-11.5767
孤陰	-11.5768
惡死	-11.5769
夫大道	-11.5774
躬行	-11.5776
大同	-11.5776
我生	-11.5776
大力	-11.5777
邀福	-11.5777
西行	-11.5778
有待	-11.5779
渾身	-11.5781
不謂之	-11.5787
李解	-11.579
七百	-11.5793
最易	-11.5794
黃中	-11.5797
度生	-11.5799
九府	-11.58
解除	-11.5801
眞有	-11.5803
中士	-11.5806
酬神	-11.5808
者也故曰	-11.5809
人但知	-11.581
二十二	-11.5811
人之生也	-11.5811
乘龍	-11.5814
以事	-11.5819
逐日	-11.582
潤下	-11.582
出世之	-11.5821
旣明	-11.5824
大驚	-11.583
或為	-11.5831
治都士宗師	-11.5832
奇特	-11.5832
夜來	-11.5833
居官	-11.5833
我將	-11.5834
矣是以	-11.5835
相侵	-11.5839
之右	-11.5839
亦復	-11.5839
至貴	-11.584
甲申	-11.584
蓮臺	-11.584
奪之	-11.5841
降龍	-11.5842
百尺	-11.5842
純是	-11.5842
教典	-11.5846
必從	-11.5846
賓主	-11.5846
召之	-11.585
息住	-11.5854
口授	-11.5857
六親	-11.5858
日行	-11.5858
不可窮	-11.5859
若水	-11.586
但以	-11.586
城中	-11.5863
仙境	-11.5865
希言	-11.5865
他年	-11.5867
之言曰	-11.587
任意	-11.5873
經年	-11.5875
奇異	-11.5876
小小	-11.5876
一已	-11.5876
四府	-11.5877
自序	-11.5879
7	-11.5879
文帝	-11.588
紅日	-11.588
未形	-11.5884
仁義而	-11.5888
中孚	-11.589
天空	-11.5891
也九四	-11.5891
錫以	-11.5893
聖人之所	-11.5895
俱得	-11.5896
曰予	-11.5897
巖巖	-11.5899
神兵	-11.5901
淨盡	-11.5903
無多	-11.5903
張公	-11.5906
沖虛子	-11.5909
火裏	-11.5912
雖小	-11.5913
入道者	-11.5916
文昌帝君	-11.5919
能養	-11.5919
總司	-11.5919
爲之也	-11.5922
勸之	-11.5924
不得以	-11.5924
竹林	-11.5927
南巖	-11.5927
二十三	-11.5928
於此時	-11.5928
九六	-11.5928
者莫如	-11.593
不寒	-11.593
暗中	-11.5931
勝於	-11.5931
大仙	-11.5932
如虎	-11.5935
亦將	-11.5935
微言	-11.5936
加持	-11.5937
不務	-11.5937
抱朴子	-11.5937
待其	-11.5938
二女	-11.5938
以表	-11.5943
善良	-11.5943
居然	-11.5943
龍神	-11.5943
而言則	-11.5943
老子之	-11.5945
無朕	-11.5947
可憫	-11.5951
州剌史	-11.5952
地戸	-11.5953
章曰	-11.5956
適有	-11.5956
開宗	-11.5959
彖	-11.596
幽靈	-11.5961
殿上	-11.5962
北方之	-11.5963
經行	-11.5966
右旋	-11.5967
姬	-11.5967
元帥掌天下	-11.5968
)○○○	-11.5969
返老還童	-11.5969
安爐	-11.5969
天道之	-11.5969
八分	-11.5971
棍	-11.5972
退火	-11.5972
詹	-11.5973
緬	-11.5973
蘄	-11.5973
獨修一物	-11.5973
第十五	-11.5974
☶	-11.5974
虔	-11.5974
三次	-11.5975
理會	-11.5975
家家	-11.5975
自私	-11.5976
濺	-11.5976
子午卯酉	-11.5976
筮	-11.5976
嘛	-11.5977
七返九還	-11.5977
桴	-11.5978
徃	-11.5978
亶	-11.5979
蝦	-11.5979
泳	-11.598
觧	-11.598
諸公	-11.5981
芟	-11.5982
癸酉	-11.5983
乎故曰	-11.5983
灝	-11.5983
誚	-11.5983
無時不	-11.5983
毗	-11.5983
柩	-11.5984
牿	-11.5984
縹	-11.5984
弋	-11.5984
婆娑	-11.5984
0001-02_	-11.5985
凛凛	-11.5985
鄞鄂	-11.5985
琬	-11.5985
仆	-11.5985
懾	-11.5985
閔	-11.5986
鞠	-11.5986
瘟案主者都府管	-11.5986
人爲善	-11.5986
拄杖	-11.5986
顙	-11.5986
巉	-11.5986
犁	-11.5986
窄	-11.5986
箴	-11.5986
覿面	-11.5986
斟酌	-11.5986
二公	-11.5987
刪	-11.5987
櫛	-11.5987
蚌	-11.5987
一以貫之	-11.5988
宣聖	-11.5988
黃芽白雪	-11.5988
伊尹	-11.5988
坂	-11.5988
彝	-11.5988
張郃	-11.5988
彌陀	-11.5988
佛經	-11.5989
金色	-11.5989
欹	-11.5989
蘧	-11.5989
霛	-11.5989
從古	-11.5989
俄頃	-11.5989
曩謨	-11.5989
把握	-11.5989
腴	-11.599
僉	-11.599
廹	-11.599
陲	-11.5991
彫	-11.5991
釵	-11.5992
上淸眞境	-11.5992
往也	-11.5992
父母未生前	-11.5992
戯	-11.5992
朔旦	-11.5992
一次爲一過	-11.5992
辛酉	-11.5992
累世	-11.5992
佯	-11.5992
洗心滌慮	-11.5993
晃	-11.5993
翩	-11.5993
語言文字	-11.5993
善治	-11.5994
團圓	-11.5995
墅	-11.5995
蓬瀛	-11.5995
脅	-11.5996
棄家	-11.5996
杳㝠	-11.5996
卭	-11.5997
㧞	-11.5997
矣况	-11.5998
胎結	-11.5998
如經故難遇	-11.5998
萬事畢	-11.5999
嗅	-11.5999
宛轉	-11.6
斾	-11.6
織女	-11.6
詐僞	-11.6
啜	-11.6001
叩齒	-11.6001
自若	-11.6001
嗔怒	-11.6002
淸凈	-11.6002
鶴唳	-11.6002
深思	-11.6003
隔礙	-11.6003
澂	-11.6003
輔翼	-11.6003
兵革	-11.6004
玉音	-11.6004
古柏	-11.6004
始爲	-11.6004
箋釋正陽帝君曰	-11.6004
卽成	-11.6005
咸蒙	-11.6005
刻漏	-11.6005
☉	-11.6005
雲衢	-11.6006
翰林	-11.6006
字道	-11.6006
騰騰	-11.6006
冥曹	-11.6007
靖左府宗師	-11.6007
淵默	-11.6007
羣倫	-11.6007
結繩	-11.6008
瑶池	-11.6008
靡窮	-11.6008
實是	-11.6009
有大小	-11.601
賓客	-11.6011
俯賜	-11.6011
斤兩	-11.6012
武陵	-11.6013
芳草	-11.6013
紫煙	-11.6014
胡濙	-11.6017
不曰	-11.6017
桃李	-11.6019
談經	-11.6021
玉壇	-11.6024
太霞	-11.6025
登彼岸	-11.6025
上接	-11.6026
化仙官	-11.6027
萬頃	-11.6027
客曰	-11.6027
老幼	-11.6031
判官	-11.6031
神與	-11.6031
則凡	-11.6032
高僧	-11.6034
矣於是	-11.6035
之勞	-11.6036
神交	-11.6036
重開	-11.6037
實由	-11.6038
帥將	-11.604
符篆	-11.604
士庶	-11.6041
方術	-11.6041
供奉	-11.6044
如海	-11.6044
丈人觀	-11.6044
百川	-11.6045
無能勝	-11.6048
斗牛	-11.6051
之時而	-11.6052
者不爲	-11.6052
莫敢	-11.6055
物類	-11.6056
無爭	-11.6057
黃梁	-11.6057
慧眼	-11.6058
二卦	-11.6059
四圍	-11.6059
布衣	-11.6059
燦然	-11.6062
留題	-11.6064
次序	-11.6065
釋放	-11.6067
宏願	-11.6067
禁戒	-11.6068
靈芝	-11.6068
千日	-11.6069
可與言	-11.6069
以救	-11.607
天籟	-11.6071
可測識	-11.6071
異哉	-11.6072
有人焉	-11.6073
蕭然	-11.6075
邪徑	-11.6075
玉隆	-11.6076
罔不	-11.6076
四十八	-11.6081
西方金	-11.6084
正所謂	-11.6085
精勤	-11.6085
一太極也	-11.6085
亦易	-11.6087
守護	-11.6088
懴法	-11.6089
獨處	-11.609
後嗣	-11.609
玅道	-11.609
風來	-11.6091
舊有	-11.6091
仙班	-11.6092
與天地同	-11.6093
凡愚	-11.6094
變遷	-11.6095
罪障	-11.6098
不尙	-11.61
欲修	-11.6103
證驗	-11.6103
北面	-11.6103
其詞	-11.6104
如愚	-11.6105
地官	-11.6105
四十年	-11.6106
靈感	-11.6107
風化	-11.6108
外篇	-11.611
秘典	-11.6113
未斷	-11.6113
火輪	-11.6114
三十九章	-11.6115
與心	-11.6117
靈泉	-11.6118
聖駕	-11.6118
禮法	-11.6121
退符	-11.6121
黑氣	-11.6121
幽獨	-11.6125
三十過	-11.6129
尙賢	-11.613
總屬	-11.613
命終	-11.613
九天應元雷聲普化天尊	-11.6131
夫何故	-11.6135
大宗師	-11.6136
兩卦	-11.6136
方位	-11.6137
隨風	-11.6137
玉簡	-11.6139
作福	-11.614
變動	-11.6141
八威	-11.6141
轉作	-11.6141
金科	-11.6144
則見	-11.6144
幾多	-11.6144
登壇	-11.6145
又奚	-11.6147
之學也	-11.6148
神器	-11.6151
專言	-11.6153
慈愛	-11.6156
一陣	-11.6156
成德	-11.6158
者比	-11.6159
陽數	-11.616
能勝	-11.6162
星宿	-11.6163
俾爾	-11.6164
鏡中	-11.6164
固精	-11.6169
具此	-11.6172
顯幽	-11.6175
萬罪	-11.6176
過咎	-11.6176
下情	-11.6177
佛教	-11.6178
天龍	-11.6181
金輪	-11.6183
分爲二	-11.6183
於丹田	-11.6184
坤位	-11.6184
凡身	-11.6184
似無	-11.6185
度脫	-11.6186
何堪	-11.6189
從善	-11.6189
右轉	-11.6191
傳云	-11.6197
聞大道	-11.6197
飛天神王	-11.6197
動止	-11.6197
明夷	-11.6198
晦明	-11.6198
無時	-11.6199
五性	-11.6199
塵心	-11.62
贊化	-11.6201
實際	-11.6201
道人曰	-11.6201
會得	-11.6202
所止	-11.6202
以進	-11.6203
演法	-11.6205
不廢	-11.6205
割愛	-11.6207
偏於	-11.6208
故稱	-11.6209
無中有	-11.6212
獻帝	-11.6213
三宮	-11.6217
近於	-11.6217
塵情	-11.6219
河沙	-11.6219
七尺	-11.622
仙術	-11.6221
慮其	-11.6222
要訣	-11.6223
雖云	-11.6224
無幾	-11.6224
斯可	-11.6226
永久	-11.623
飛過	-11.6231
正應	-11.6231
源之在	-11.6231
七七	-11.6234
一偏	-11.6234
存天尊大悲	-11.6239
兌巽	-11.6239
曰孔明	-11.6239
問如何	-11.624
上丹田	-11.624
斷除	-11.6247
變化無窮	-11.6248
關竅	-11.625
則必有	-11.6253
根原	-11.6253
往還	-11.6253
老陰	-11.6254
三毒	-11.6254
行住	-11.6254
之於人	-11.6258
張飛	-11.6258
亦嘗	-11.6258
矣雖然	-11.6261
以手	-11.6263
豈止	-11.6263
天地之始	-11.6263
官符	-11.6266
靈覺	-11.6267
自信	-11.627
參贊	-11.6271
主賓	-11.6271
德德	-11.6272
猶云	-11.6273
無跡	-11.6276
尺許	-11.6277
則無所不	-11.6277
光透	-11.6278
無質	-11.628
八洞	-11.6282
苦志	-11.6283
天魂	-11.6283
以身爲	-11.6285
目視	-11.6287
甚深	-11.6289
此其所以	-11.6289
舌神正倫通命養神羅千齒神	-11.6289
亦且	-11.629
與天同	-11.6291
長夀	-11.6293
取象	-11.6295
俱從	-11.6295
呼之	-11.6295
接物	-11.6296
下及	-11.6296
狀若	-11.6296
士民	-11.6299
如是者	-11.6302
得免	-11.6308
1-	-11.631
希仙	-11.6311
輔正	-11.6311
繼之	-11.6312
有損	-11.6313
千丈	-11.6313
周全	-11.6313
迴風	-11.6316
有道之	-11.6319
右手	-11.6323
不逮	-11.6325
誑人	-11.6328
氣結	-11.6329
實行	-11.6332
詳明	-11.6333
者必先	-11.6334
何以知	-11.6341
官府	-11.6342
照前	-11.6342
平心	-11.6345
山頂	-11.6345
足爲	-11.6347
無着	-11.6353
指迷	-11.6354
盛世	-11.6355
慧通	-11.6358
地魄	-11.6359
反是	-11.636
身業	-11.6363
達者	-11.6363
荀	-11.6365
垂光	-11.6366
嘗有	-11.6367
爲鼎器	-11.6367
弗能	-11.6369
以性	-11.6371
即是	-11.6372
深重	-11.6372
猛火	-11.6373
盞	-11.6373
不足爲	-11.6374
不可復	-11.6374
之樞機	-11.6376
不專	-11.6379
内功	-11.638
師相	-11.638
常守	-11.6382
香風	-11.6382
巵	-11.6383
三十日	-11.6387
龍德	-11.6387
以神爲	-11.639
山僧	-11.639
害物	-11.6391
說破	-11.6393
神吏	-11.6393
者天地之	-11.6395
吾恐	-11.6395
蠱案主者都府管	-11.6396
祁	-11.6396
見心	-11.6398
智力	-11.6398
未除	-11.6399
江流	-11.6399
大天將炁序	-11.64
漸消	-11.64
逰	-11.6402
金剛經	-11.6402
精明	-11.6403
禳災	-11.6404
正好	-11.6404
硃砂	-11.6406
溜	-11.6406
隍	-11.6407
眄	-11.6407
嬾	-11.6408
歸妹	-11.6409
寰區	-11.641
如春	-11.641
腋	-11.641
專氣致柔	-11.641
奇觀	-11.6411
陽中之陰	-11.6411
嫡	-11.6411
瞿	-11.6413
弘萬福乃弘帝福護羣身如護己身處處	-11.6413
廕	-11.6413
豢	-11.6413
我相	-11.6414
終有	-11.6414
三峰	-11.6415
蜩	-11.6415
蓍	-11.6415
一陰一陽之謂道	-11.6415
女得道仙姬	-11.6415
警化	-11.6415
太陽眞火	-11.6416
海島	-11.6416
𦕈	-11.6416
幷	-11.6416
瀟湘	-11.6416
喟然	-11.6416
豎	-11.6417
擺	-11.6417
眞藥	-11.6417
姜	-11.6417
窠	-11.6418
無爲而無不爲	-11.6418
千言萬語	-11.6418
賚	-11.6419
鮑	-11.6419
舖	-11.6419
傘	-11.6419
蹲	-11.6419
玄牝之門	-11.6419
璇	-11.642
蒼梧	-11.642
☲	-11.642
吠	-11.642
六度	-11.642
都來	-11.642
偹	-11.6421
因之以	-11.6421
詛	-11.6421
徹始徹終	-11.6422
旭	-11.6422
噬嗑	-11.6422
摸	-11.6423
鑾	-11.6423
姆	-11.6423
右洎	-11.6423
刁	-11.6423
拍手	-11.6423
睨	-11.6423
宿天	-11.6423
拄	-11.6423
衒	-11.6423
巾幗	-11.6423
删	-11.6424
已過	-11.6424
翮	-11.6424
不可思議功德	-11.6424
優劣	-11.6424
綽	-11.6424
庻	-11.6424
山得道一切神仙	-11.6424
討賊	-11.6425
得之矣	-11.6425
持是經人	-11.6425
靈源	-11.6425
包涵	-11.6425
䑛	-11.6425
倂	-11.6425
藕	-11.6426
迤	-11.6426
丙申	-11.6426
何啻	-11.6426
哈	-11.6426
㫖	-11.6426
持經之人	-11.6426
憔悴	-11.6426
一次爲五過	-11.6427
熈	-11.6427
史記	-11.6427
海棠	-11.6428
贏	-11.6428
跌	-11.6428
潑	-11.6428
琰	-11.6428
脫胎神化	-11.6429
均沾	-11.6429
瑤京	-11.6429
逍遙自在	-11.6429
妓	-11.6429
閬	-11.643
馘	-11.643
兵戈	-11.6432
於萬物	-11.6433
恩命	-11.6434
拔度亡魂	-11.6435
信人	-11.6435
辛勤	-11.6437
開闔	-11.6437
相須	-11.6438
提醒	-11.6438
天地之中	-11.6438
􂆞􂆟	-11.6438
元始祖炁	-11.6438
寄跡	-11.6439
兩足	-11.6439
洞慧交徹五炁騰騰金光速現覆護眞人	-11.6439
聯句	-11.6439
若而人也	-11.6439
如如不動	-11.644
臯	-11.644
原宥	-11.644
黑帝	-11.644
體貼	-11.6441
十五日	-11.6441
鄉貫	-11.6442
屯䝉	-11.6442
彭祖	-11.6442
坐臥	-11.6444
吾又	-11.6445
淮南子	-11.6445
機心	-11.6446
或者	-11.6446
苴	-11.6446
還從	-11.6447
爾輩	-11.6447
太无	-11.6447
塵俗	-11.6449
枯骨	-11.645
教誨	-11.645
精英	-11.645
煉金丹	-11.6451
投之	-11.6452
蓋由	-11.6454
畏之	-11.6454
等至心皈命禮願消	-11.6455
救苦眞人	-11.6461
夀域	-11.6461
之榮	-11.6463
註疏	-11.6463
帝號	-11.6464
切切	-11.6465
貧窮	-11.6465
寶華	-11.6465
煥發	-11.6466
機鋒	-11.6467
夫人之	-11.6467
元牝	-11.6468
可使	-11.6469
羽衣	-11.6469
九五	-11.6471
巧者	-11.6471
透露	-11.6474
尙冀	-11.6475
致敬	-11.6476
俯視	-11.6477
三天門	-11.6477
固已	-11.6478
甲午	-11.6478
能悟	-11.648
章句	-11.648
談笑	-11.6481
交易	-11.6481
夔州	-11.6483
反觀	-11.6484
白晝	-11.6486
三峽	-11.6486
祕密	-11.6486
普告	-11.6487
分司	-11.6489
苟且	-11.6489
謝罪	-11.649
岳陽	-11.649
二三子	-11.6492
結廬	-11.6495
毫光	-11.6495
煉法	-11.6496
名教	-11.6497
剛强	-11.6498
太皇	-11.6498
黑暗	-11.6499
嗟夫	-11.65
木金	-11.65
融融	-11.65
功圓	-11.65
不可與	-11.6501
大魔王	-11.6503
凡民	-11.6503
敬仰	-11.6504
一失	-11.6504
亦因	-11.6505
萬品	-11.6505
逸樂	-11.6508
祀之	-11.6509
仙緣	-11.6511
阨天尊大悲	-11.6513
玉冊	-11.6517
者葢	-11.6517
言訖	-11.6517
護道	-11.6517
必使	-11.6518
玄元之	-11.6518
或見	-11.6519
今吾	-11.6519
百餘里	-11.652
不進	-11.652
岷山	-11.6523
之東	-11.6524
飛躍	-11.6525
玉淸聖境	-11.6525
東北方	-11.6525
造次	-11.6527
實心	-11.6528
執事	-11.653
飛去	-11.6531
不速	-11.6532
均平	-11.6533
渡江	-11.6535
顯然	-11.6535
寄於	-11.6535
尊重	-11.6538
誰敢	-11.6539
南中	-11.654
五彩	-11.654
堯夫	-11.6541
如雪	-11.6541
血人之	-11.6544
凝成	-11.6544
護衞	-11.6544
不苟	-11.6545
小術	-11.6546
幸得	-11.6547
眞君言	-11.6547
纔是	-11.6549
爲喻	-11.6549
赤城	-11.655
失道	-11.6551
含生	-11.6556
祖先	-11.6557
功力	-11.6558
有間	-11.6559
四果	-11.6562
道根	-11.6564
不衰	-11.6566
居處	-11.6567
災害	-11.6568
仍歸	-11.6568
何以謂之	-11.6568
也又云	-11.657
失度	-11.657
章第二	-11.6571
他心	-11.6572
一而已	-11.6572
不能侵	-11.6572
乾鼎	-11.6573
必假	-11.6573
血化	-11.6573
一里	-11.6574
所證	-11.6577
交結	-11.6577
江州	-11.6577
生疑	-11.6578
己土	-11.6578
畫圖	-11.6578
平時	-11.6579
坤宮	-11.658
萬𡻕	-11.6582
深切	-11.6583
崇高	-11.6583
隨處	-11.6585
恩施	-11.6585
紫虛	-11.6586
不誣	-11.6587
丹心	-11.6588
著力	-11.6592
之精也	-11.6592
萬物之母	-11.6592
蓋亦	-11.6592
普及	-11.6595
棲眞	-11.6596
不管	-11.6596
而知之	-11.6601
固濟	-11.6602
而不以	-11.6604
吁嗟	-11.6607
石橋	-11.6607
幽關	-11.6609
不相離	-11.6609
順流	-11.661
鍊藥	-11.6612
指南	-11.6612
靈童	-11.6613
倫理	-11.6613
六府	-11.6615
金符	-11.6619
眞諦	-11.6619
十一年	-11.6623
初關	-11.6624
至重	-11.6626
能全	-11.6626
不被	-11.6626
顯著	-11.6628
攝心	-11.6629
乘鸞	-11.6629
自問	-11.6633
者道也	-11.6634
三種	-11.6638
所以不能	-11.6638
眞儒	-11.664
行淫	-11.6641
無停	-11.6641
有倫	-11.6642
傍有	-11.6642
瓊山	-11.6643
顯道	-11.6645
三子	-11.6649
苦天尊大悲	-11.6651
世運	-11.6651
還有	-11.6651
之劫	-11.6652
特降	-11.6653
有言曰	-11.6654
盡孝	-11.6658
眾星	-11.666
點破	-11.666
始覺	-11.6662
之助	-11.6663
王者之	-11.6663
相配	-11.6663
退舍	-11.6665
金錢	-11.6668
容天尊大悲	-11.6671
志行	-11.6672
日月星	-11.6672
之次	-11.6673
於茲	-11.6676
壁立	-11.6677
養炁	-11.6677
愛惡	-11.6678
也若不	-11.6679
逆行	-11.6681
北都	-11.6681
松竹	-11.6681
世情	-11.6682
愈深	-11.6682
日增	-11.6683
鬱鬱	-11.6684
隨事	-11.6684
日進	-11.6685
不語	-11.6686
白首	-11.6687
清風	-11.6689
焉知	-11.6693
便見	-11.6694
得悟	-11.6694
其末	-11.6695
要皆	-11.6695
六洞	-11.6696
驅邪	-11.6696
之别	-11.6697
夏日	-11.6698
雲雨	-11.6699
誰人	-11.67
淸夜	-11.67
官君	-11.6701
天下之大	-11.6702
有害	-11.6703
虛假	-11.6703
開教	-11.6703
留得	-11.6704
有才	-11.6705
之澤	-11.6706
修此	-11.6707
問我	-11.6708
耳聞	-11.6711
正所以	-11.6712
通身	-11.6713
火炎	-11.6714
城東	-11.6717
而不失其	-11.6718
依時	-11.6719
受教	-11.672
廣成	-11.6722
得其正	-11.6722
坤乾	-11.6722
何似	-11.6722
霞光	-11.6723
輕忽	-11.6727
一峰	-11.6727
昧於	-11.6729
不屈	-11.673
舉止	-11.6731
淸和	-11.6731
妙寶	-11.6732
圓天尊大悲	-11.6735
存眞	-11.6735
口口	-11.6736
配天	-11.6736
習氣	-11.6738
前因	-11.6739
梵行	-11.674
升天尊大悲	-11.6741
元帥正	-11.6742
眞覺	-11.6745
補精	-11.6746
依前	-11.6749
卽今	-11.675
發出	-11.6751
也第	-11.6752
伯陽	-11.6753
下世	-11.6754
使人知	-11.6756
純乎	-11.6756
無不通	-11.6756
四候	-11.6757
花木	-11.6757
喻言	-11.6758
若不能	-11.676
事機	-11.676
旣立	-11.6762
萬物生	-11.6763
致遠	-11.6763
廣修	-11.6764
老仙	-11.6765
猶能	-11.6766
興起	-11.6768
此兩者	-11.6771
詩歌	-11.6771
柱下	-11.6771
超劫	-11.6771
木汞	-11.6772
安得有	-11.6773
降祥	-11.6778
持心	-11.6781
有味	-11.6783
嘗與	-11.6786
天津	-11.6787
慕道	-11.679
最大	-11.679
全具	-11.679
老陽	-11.679
然而然	-11.6791
亦隨	-11.6793
大數	-11.6793
徒爲	-11.6794
格天	-11.6797
一色	-11.6798
遠離	-11.6798
不捨	-11.68
名節	-11.6805
第十六	-11.6805
愈多	-11.6806
幻化	-11.6806
玄文	-11.6807
無隱	-11.6808
水性	-11.6808
萬餘	-11.6809
不逆	-11.6817
數言	-11.6819
惡念	-11.6821
無處不	-11.6822
客來	-11.6823
一葉	-11.6824
諸事	-11.6824
蓮華	-11.683
守眞	-11.6838
何以能	-11.684
眾鬼魂	-11.6841
八品	-11.6844
萬卷	-11.6845
又按	-11.6847
聖體	-11.6849
能變化	-11.6849
要旨	-11.6851
屹	-11.6852
吾之所	-11.6856
東宫慈父太乙尋聲救苦天尊證盟玉清	-11.6856
腑	-11.6856
名實	-11.6857
形狀	-11.6857
所修	-11.6857
霆	-11.6858
贍	-11.6859
神魂	-11.6859
鱉	-11.686
正德	-11.686
蓼	-11.686
幣	-11.6861
大洞經	-11.6862
是日叩干	-11.6862
昔日	-11.6863
匡扶	-11.6863
回春子曰	-11.6863
姝	-11.6863
寡人	-11.6863
馥郁	-11.6863
賔	-11.6864
昏昏默默	-11.6864
察之	-11.6864
訐	-11.6865
殖	-11.6865
日良吉	-11.6866
孀	-11.6867
鞋	-11.6867
冕	-11.6868
舘	-11.6868
澍	-11.6868
重罪	-11.6868
司祿	-11.6869
葱	-11.6869
申朝禮至心朝禮	-11.6869
逡巡	-11.6869
兜率	-11.6869
戊寅	-11.687
剗	-11.687
飼	-11.687
蕙	-11.687
風氣	-11.6872
鎗	-11.6872
賂	-11.6872
徂	-11.6872
山河大地	-11.6872
洋溢	-11.6872
睇	-11.6872
癸亥	-11.6872
關聖帝君	-11.6872
■■	-11.6872
吹噓	-11.6872
䖏	-11.6873
笏	-11.6873
空空洞洞	-11.6873
通天徹地	-11.6873
三家相見	-11.6874
濛濛	-11.6874
仄	-11.6875
羿	-11.6875
香雲	-11.6875
瓣	-11.6875
爲上良因再申稱念	-11.6875
葭	-11.6875
皤	-11.6875
眞聖衞軒兇穢消散道德成全金光神咒	-11.6875
諳	-11.6876
昂	-11.6876
氓	-11.6876
譁	-11.6876
痘	-11.6876
飫	-11.6876
妃	-11.6877
硫	-11.6877
矣昔	-11.6877
暎	-11.6877
呆	-11.6877
拏	-11.6877
鬆	-11.6878
一升一降	-11.6878
纒綿	-11.6878
謳	-11.6878
遐齡	-11.6878
之極也	-11.6879
之災玉皇大天尊玄穹高上帝	-11.6879
劃	-11.6879
欽仰	-11.6879
□	-11.6879
軼	-11.688
芸芸	-11.688
丙寅	-11.688
蹻	-11.688
洪濛	-11.6881
亦復如是	-11.6881
蔣琬	-11.6881
乙丑	-11.6881
樊籠	-11.6881
迴風混合	-11.6882
饋	-11.6882
九天生神	-11.6882
紏	-11.6883
九天開化	-11.6883
甲乙	-11.6883
耨	-11.6883
渣	-11.6883
刳	-11.6883
窅	-11.6883
黑簿	-11.6883
甓	-11.6884
茆	-11.6884
拖	-11.6884
最上一乘	-11.6884
慣	-11.6885
滴滴	-11.6885
鴻齋	-11.6885
臬	-11.6885
前面	-11.6886
釘	-11.6886
止有	-11.6886
子綦	-11.6886
腕	-11.6887
六尺	-11.6887
夸	-11.6887
輾轉	-11.6888
繕	-11.6888
餽	-11.6888
各執	-11.6888
醯	-11.6888
豁落	-11.6888
晃朗	-11.6888
冡	-11.6889
屋漏	-11.6889
老祖	-11.6889
怡然	-11.6889
離明	-11.6889
根株	-11.6889
蓬島	-11.6889
兩般	-11.6889
衍慶	-11.689
伊呂	-11.689
俯鑒	-11.689
有序	-11.6892
兩弦之炁	-11.6892
奔馳	-11.6893
盎	-11.6893
寅具	-11.6894
榮衞	-11.6894
一粒金丹	-11.6895
庶俾	-11.6895
四象五行	-11.6896
取天下	-11.6898
遼陽	-11.6898
登道岸	-11.6899
綿竹	-11.6903
己酉	-11.6903
太上靈寶	-11.6903
持身	-11.6904
朗徹	-11.6904
百八十	-11.6905
震巽	-11.6907
無災	-11.6907
倣此	-11.6908
牽引	-11.6908
輪範	-11.6908
峭壁	-11.6909
陰濁	-11.6909
易易	-11.691
天河	-11.691
求師	-11.6911
巍然	-11.6912
幾乎	-11.6912
題詞	-11.6913
救苦天尊	-11.6914
遺像	-11.6914
不恤	-11.6914
桓公	-11.6916
車輪	-11.6917
尊卑	-11.6917
首章	-11.6917
祈嗣	-11.6917
聞法	-11.6917
無鞅	-11.6919
誦讀	-11.6919
昏昧	-11.692
忠厚	-11.6921
不可使	-11.6921
親疎	-11.6922
苦爽	-11.6923
木蘭	-11.6924
感激	-11.6924
萬種	-11.6924
目擊	-11.6925
紫庭	-11.6926
能久	-11.6927
九天之上	-11.6931
欽哉	-11.6931
良醫	-11.6931
推遷	-11.6935
子瞻	-11.6935
在昔	-11.6935
七分	-11.6935
退悔	-11.6939
開關	-11.6939
寶山	-11.6939
亭侯	-11.6941
隨身	-11.6942
九曜	-11.6943
向背	-11.6947
圓光	-11.6947
豐年	-11.6948
八石	-11.6949
厚薄	-11.6949
痛念	-11.695
五百功	-11.695
潛藏	-11.6951
金粟	-11.6952
之候也	-11.6953
細心	-11.6954
祥符	-11.6954
者未必	-11.6954
漸進	-11.6954
愚迷	-11.6955
徑路	-11.6955
毒藥	-11.6956
玄同	-11.6957
許眞君	-11.6958
迨至	-11.6959
仰惟	-11.6959
崇奉	-11.696
抑且	-11.696
劉表	-11.6961
成正覺	-11.6961
三焦	-11.6961
瓊花	-11.6963
手持	-11.6965
點點	-11.6965
先天一氣	-11.6966
可保	-11.6967
千百年	-11.6968
懷抱	-11.6969
光彩	-11.6969
丹靈	-11.6972
流金	-11.6975
證無上	-11.6976
之眞炁	-11.6976
殃及	-11.6976
之符	-11.6977
禁止	-11.6977
風景	-11.6978
毒龍	-11.6978
利物天尊大悲	-11.6978
城北	-11.698
勞形	-11.698
建壇	-11.698
之基也	-11.698
或言	-11.6981
百物	-11.6982
十丈	-11.6983
九江	-11.6987
老僧	-11.6987
伍子	-11.6988
放光明	-11.6989
俱屬	-11.6989
火車	-11.6989
經旨	-11.699
已失	-11.6991
謹請	-11.6991
米光	-11.6997
玄化	-11.7
刻薄	-11.7
信乎	-11.7001
山北	-11.7002
玉房	-11.7002
可憑	-11.7005
出頭	-11.7008
之法也	-11.7008
只將	-11.7009
滅罪	-11.7012
於父母	-11.7013
陽剛	-11.7014
施設	-11.7015
魚水	-11.7015
殆盡	-11.7016
得道天尊大悲	-11.7016
火光	-11.7017
烏有	-11.7021
背道	-11.7022
節候	-11.7022
奢者	-11.7022
不滿	-11.7023
掌中	-11.7025
石鼓	-11.7026
堅貞	-11.7027
命寶	-11.7028
永絕	-11.7029
務要	-11.7029
之司	-11.7029
香林	-11.7031
成寶	-11.7032
貪財	-11.7032
玉章	-11.7036
一隅	-11.7038
諸法子	-11.7038
求之於	-11.7043
來迎	-11.7045
言詮	-11.7049
丹霞	-11.7053
十字	-11.7054
胎成	-11.7056
默會	-11.7057
白衣	-11.7059
未忘	-11.7059
憐憫	-11.706
年老	-11.7064
坤土	-11.7064
帝鄕	-11.7065
聖人之心	-11.7067
增長	-11.7067
切實	-11.7072
幾微	-11.7072
獨得	-11.7073
風動	-11.7076
良由	-11.708
師尊	-11.7082
陽關	-11.7083
十四年	-11.7084
詩集	-11.7084
好事	-11.7084
小畜	-11.7085
一身之中	-11.7086
武夷山	-11.7087
火煉	-11.7094
也一曰	-11.7096
若果	-11.7097
諸將	-11.71
令節	-11.7103
呂帝曰	-11.7104
相近	-11.7104
重玄	-11.7104
或遇	-11.7105
不悅	-11.7105
流泉	-11.7107
不謹	-11.711
重宣	-11.7111
太師	-11.7111
家貧	-11.7112
之年	-11.7113
又必	-11.7115
不然則	-11.7116
二十一	-11.7122
龍文	-11.7124
謹愼	-11.7124
州縣	-11.7125
輕敵	-11.7125
雷門	-11.7134
曉得	-11.7134
入地獄	-11.7135
亭前	-11.7135
久視	-11.7136
靜氣	-11.7137
謝過	-11.7139
惡鬼	-11.714
列仙班	-11.7142
所藏	-11.7145
師事	-11.7146
何所不	-11.7147
不得與	-11.7151
家風	-11.7152
真性	-11.7154
所屬	-11.7155
魚復	-11.7157
修眞者	-11.7157
造化之妙	-11.7157
豈獨	-11.7159
不憂	-11.7163
遍地	-11.7163
淸閒	-11.7164
實難	-11.7164
房中	-11.7167
方稱	-11.7168
明初	-11.7168
今將	-11.7171
圖南	-11.7171
奚以	-11.7173
悲憫	-11.7175
若肯	-11.7178
一關	-11.7178
輔化	-11.7182
九色	-11.7183
淪於	-11.7183
不越	-11.7184
内含	-11.7185
私心	-11.7187
眞假	-11.7187
方始	-11.719
濁世	-11.719
以道爲	-11.7191
靈巖	-11.7191
運禮	-11.7195
全備	-11.7195
是何物	-11.7195
左有	-11.7195
千聖	-11.7196
不入於	-11.7197
達人	-11.7198
始悟	-11.7201
若徒	-11.7204
六句	-11.7206
淸都	-11.7208
已畢	-11.721
可信	-11.7211
人才	-11.7214
天淵	-11.7215
旣失	-11.7219
之時卽	-11.7219
保我	-11.722
乘機	-11.7221
太甚	-11.7222
黃雲	-11.7222
貴重	-11.7223
予亦	-11.7224
貪欲	-11.7224
七人	-11.7224
天順	-11.7225
月十五日	-11.7228
高祖	-11.723
自適	-11.7231
感化	-11.7233
此句	-11.7236
可聞	-11.7244
識破	-11.7244
分布	-11.7245
水德	-11.7247
此一點	-11.7248
其東	-11.7249
亦不爲	-11.7251
儒曰	-11.7251
被人	-11.7251
我家	-11.7252
過度	-11.7255
求福	-11.7256
邪法	-11.7259
厯數	-11.7259
於一身	-11.7259
苟或	-11.7262
西極	-11.7264
往復	-11.7265
貪心	-11.7266
象地	-11.7267
屬水	-11.7267
如何得	-11.7268
欲聞	-11.7272
以鎭	-11.7272
莫作	-11.7272
固是	-11.7273
氣息	-11.7273
三師	-11.7274
央	-11.7274
月圓	-11.7275
二十六	-11.7275
東宫慈父太乙尋聲救苦天尊證盟	-11.728
盡力	-11.7284
不恭	-11.7284
三時	-11.7285
聲名	-11.7286
傾心	-11.7291
者往往	-11.7292
名字	-11.7294
俱可	-11.7294
太易	-11.7296
應運	-11.7299
過往	-11.73
刖	-11.7301
開示	-11.7304
爲而不恃	-11.7306
龍潭	-11.7307
葆元	-11.7313
產藥	-11.7313
本傳	-11.7314
四序	-11.7314
眞慈	-11.7317
三神	-11.7317
榭	-11.7318
天年	-11.7319
久遠	-11.7321
芻狗	-11.733
樞紐	-11.7331
不拔	-11.7332
下布	-11.7332
清虛	-11.7334
妙應	-11.7336
彼夫	-11.7336
曦	-11.7337
渟	-11.7337
天尊大悲神霄赦除	-11.7338
猥	-11.7339
蛾	-11.7341
無根樹花正	-11.7341
芻	-11.7341
僖	-11.7341
倏	-11.7342
圓圓	-11.7343
摭	-11.7344
冑	-11.7344
平直	-11.7345
硬	-11.7345
壬辰	-11.7345
坎中眞陽	-11.7346
黃籙大齋	-11.7346
鯤	-11.7346
座星君	-11.7346
謠	-11.7347
祖師先天主將赤心護道王天君證盟	-11.7347
敬夫	-11.7347
皋	-11.7347
禎	-11.7348
若復有人	-11.7348
郢	-11.7348
脯	-11.7348
干冒天威	-11.7348
烹煎	-11.7348
縻	-11.7348
令我通眞思神鍊液道炁常存	-11.7349
躱	-11.7349
裹	-11.7349
娑婆	-11.7349
安爐立鼎	-11.7349
癸巳	-11.7349
事據	-11.735
百日功靈	-11.735
嗟嗟	-11.735
不屑	-11.735
洶	-11.735
鬱儀	-11.735
靈寶文檢卷	-11.7351
嶮	-11.7351
腥羶	-11.7351
燮	-11.7351
2	-11.7351
鴆	-11.7351
燦爛	-11.7351
閻浮	-11.7351
斡運	-11.7351
趺坐	-11.7351
叶吉	-11.7351
垂簾	-11.7352
沬	-11.7352
燃燈	-11.7352
郝	-11.7352
覬	-11.7352
徤	-11.7353
礪	-11.7353
牝牡	-11.7353
彌勒	-11.7353
階級	-11.7353
恭對道前	-11.7354
晷	-11.7354
巿	-11.7354
汾	-11.7354
裾	-11.7354
甄	-11.7354
𣺌茫	-11.7354
裸	-11.7354
搬弄	-11.7354
薇	-11.7355
霖雨	-11.7355
怍	-11.7355
謖	-11.7355
粲	-11.7355
沅	-11.7355
結聖胎	-11.7355
蜿蜒	-11.7355
紛擾	-11.7356
羈	-11.7356
安民	-11.7356
奕奕	-11.7356
哄	-11.7356
不洩	-11.7356
甜	-11.7356
花香	-11.7356
僂	-11.7356
踈	-11.7357
江中	-11.7357
位證	-11.7357
陡	-11.7357
撒	-11.7357
廩	-11.7357
日告竣	-11.7358
敻	-11.7358
經史	-11.7359
雷轟	-11.7359
貝葉	-11.736
戕賊	-11.736
盤桓	-11.736
善哉善哉	-11.736
經義	-11.7361
三十三天	-11.7361
屣	-11.7362
漸至	-11.7362
生生不已	-11.7362
姊	-11.7363
直符	-11.7363
寶笈	-11.7364
媪	-11.7364
奴婢	-11.7364
簟	-11.7364
滾	-11.7365
宓	-11.7365
有道人	-11.7365
泝	-11.7365
饒舌	-11.7365
弟兄	-11.7366
摩訶	-11.7366
障蔽	-11.7366
銖兩	-11.7368
犧	-11.737
誑語	-11.7371
儉約	-11.7371
鍾乳	-11.7371
驤	-11.7371
暗侮	-11.7371
聖賢仙佛	-11.7372
實證	-11.7373
火坑	-11.7374
金氣	-11.7374
靖右府宗師	-11.7375
無垠	-11.7375
偶題	-11.7377
外應	-11.7378
層次	-11.7379
火珠	-11.7379
荒唐	-11.738
三惡道	-11.7381
於泥丸	-11.7381
手段	-11.7382
靑霄	-11.7382
淺薄	-11.7384
鬼趣	-11.7384
根深	-11.7385
符籙	-11.7385
徧照	-11.7385
立德	-11.7386
輕慢	-11.7386
不逢	-11.7387
萬德	-11.7388
了手	-11.7388
太上道君	-11.7388
頂有	-11.7389
陰陽二氣	-11.739
彼我	-11.7391
殄滅	-11.7391
故事	-11.7392
武侯廟	-11.7392
周圍	-11.7392
辰巳	-11.7393
講道	-11.7394
敷揚	-11.7394
生發	-11.7396
仙品	-11.7396
天中之	-11.7397
繁華	-11.7398
庸愚	-11.74
咸令	-11.74
玄奧	-11.7402
蠱毒	-11.7403
𡨚債	-11.7403
原赦	-11.7403
六畜	-11.7404
適逢	-11.7405
苦楚	-11.7407
與之同	-11.7407
黃衣	-11.7409
忠武	-11.741
何以見	-11.7411
生涯	-11.7413
震驚	-11.7414
血液	-11.7415
罔識	-11.7415
澤被	-11.7417
晉人	-11.742
玄教	-11.7421
周徧	-11.7421
祖述	-11.7424
永離	-11.7424
關元	-11.7424
昭示	-11.7425
風濤	-11.7425
梵字	-11.7428
自恃	-11.7429
漸次	-11.7429
一紀	-11.743
與語	-11.7431
天地鬼神	-11.7432
諶母	-11.7433
湧出	-11.7435
閉口	-11.7436
枯坐	-11.7436
向人間	-11.7443
絶頂	-11.7447
潔白	-11.7448
聞教	-11.7449
永昌	-11.745
每𡻕	-11.7451
來朝	-11.7451
仍在	-11.7458
太虛中	-11.7459
宮室	-11.7459
劉氏	-11.7461
悟入	-11.7461
臍下	-11.7461
在彼	-11.7461
山巓	-11.7464
生死輪迴	-11.7465
短長	-11.7466
造業	-11.7468
之奧	-11.7468
神存	-11.7468
必死	-11.7469
淵深	-11.7469
蒼龍	-11.747
第二百	-11.7471
醫王	-11.7472
門前	-11.7474
投胎	-11.7478
或隱	-11.7478
萬仞	-11.7479
再造	-11.748
起敬	-11.7482
集中	-11.7484
忘乎	-11.7485
夢見	-11.7485
消盡	-11.7486
安處	-11.7486
五湖	-11.7488
虛僞	-11.7489
妄傳	-11.749
翻身	-11.7492
勇天尊大悲	-11.7492
罪垢	-11.7494
滅亡	-11.7494
轉眼	-11.7495
叢生	-11.7495
此經者	-11.7496
八部	-11.7496
後天之氣	-11.7497
滿室	-11.7498
機動	-11.7498
友人	-11.75
何由而	-11.7501
和風	-11.7502
厯年	-11.7505
承受	-11.7505
做去	-11.7506
躁動	-11.7507
安分	-11.7507
之祖也	-11.751
逐物	-11.751
片言	-11.7512
遇師	-11.7512
業報	-11.7514
千尺	-11.7517
一縷	-11.7519
悉仗眞香普同供養	-11.7521
而實無	-11.7521
道岸	-11.7526
官屬	-11.7527
大悲心	-11.7528
勉力	-11.7528
玉皇經	-11.7529
不可不愼	-11.7529
四寸	-11.753
太息	-11.7531
可見矣	-11.7532
其名曰	-11.7532
元初	-11.7532
玉殿	-11.7534
自然之妙	-11.7537
今且	-11.7538
心無所	-11.7541
廣陵	-11.7544
斜谷	-11.7545
五經	-11.7545
一滴	-11.7546
保精	-11.7548
符咒	-11.755
澤及	-11.7551
塵劫	-11.7551
交錯	-11.7551
條理	-11.7555
迷失	-11.7557
元末	-11.756
金格	-11.756
二真	-11.7561
無分別	-11.7563
帝釋	-11.7565
也故知	-11.7565
淸齋	-11.7565
悟元	-11.7567
寶樹	-11.7569
太妙	-11.7572
卽位	-11.7574
四種	-11.7574
雷震	-11.7575
墨子	-11.7575
魚龍	-11.7581
森列	-11.7583
二種	-11.7584
洞微	-11.7585
未兆	-11.7586
今旣	-11.7586
春來	-11.7586
何窮	-11.759
心有所	-11.7591
未死	-11.7592
無所不至	-11.7592
雲遊	-11.7592
誠信	-11.7593
重建	-11.7594
人之事	-11.7595
南行	-11.7598
固非	-11.7598
矣然則	-11.76
淫根	-11.7604
在茲	-11.7604
宗風	-11.7606
風光	-11.7606
醉後	-11.7609
相公	-11.761
照破	-11.7612
一場	-11.7613
無恥	-11.7613
宫殿	-11.7617
水火交	-11.7617
解𡨚	-11.7623
命蒂	-11.7624
又不能	-11.7629
武曲	-11.7631
而不窮	-11.7631
失足	-11.7631
玉樹	-11.7635
不謀	-11.7637
克治	-11.7639
死魂	-11.7639
天丁	-11.7647
雲門	-11.765
文曲	-11.7657
之門戸	-11.7658
陳言	-11.7659
坐忘	-11.7659
於兹	-11.7659
休將	-11.7661
妄談	-11.7664
人莫能	-11.7665
難忘	-11.7668
土德	-11.767
八門	-11.767
要做	-11.7671
花雨	-11.7671
月現	-11.7674
谷口	-11.7675
格物	-11.7679
勸化	-11.7679
貞天尊大悲	-11.768
者也若	-11.7682
愛民	-11.7683
依依	-11.769
有泉	-11.7693
逢人	-11.7693
坤宫	-11.7698
西風	-11.7698
淸白	-11.77
留意	-11.77
無往不	-11.7704
枝上	-11.7704
吕帝	-11.7705
又何必	-11.7709
存思	-11.7709
保得	-11.771
母子	-11.7711
五陰	-11.7713
鶴鳴	-11.7713
固結	-11.7716
世間人	-11.7716
八仙	-11.7718
山下有	-11.772
殿後	-11.7722
幾年	-11.7724
士人	-11.7724
其術	-11.7725
腎氣	-11.7727
廣運	-11.7733
著相	-11.7736
有形者	-11.7737
枝頭	-11.7742
能持	-11.7743
建齋	-11.7748
口說	-11.7752
而成形	-11.7754
服氣	-11.7755
是個	-11.7756
之名也	-11.7756
着意	-11.7756
同歸於	-11.7756
再拜謹	-11.7759
曾見	-11.7759
之所生	-11.776
由斯	-11.776
而使之	-11.7763
美人	-11.7765
相聚	-11.7767
難易	-11.7769
淸平	-11.7771
忘忘	-11.7776
辯者	-11.7776
持盈	-11.778
相承	-11.7782
數尺	-11.7784
師授	-11.7785
廣教	-11.7794
不類	-11.7794
竟無	-11.7794
丹室	-11.7796
乘此	-11.7798
精固	-11.7802
此箇	-11.7805
黃石	-11.7808
鬼神所	-11.7809
事無事	-11.7812
只可	-11.7816
後世之	-11.7817
去惡	-11.7818
靑陽	-11.7818
聞說	-11.7819
包天地	-11.7822
善勝	-11.7822
罐	-11.7824
坤卦	-11.7824
君子體此	-11.7825
直透	-11.7825
誠恐	-11.7826
一着	-11.7827
天蓬	-11.783
於戲	-11.783
中界	-11.783
下卷	-11.7831
潛修	-11.7832
大天尊掌道掌法	-11.7833
蘖	-11.7834
明禋	-11.7834
舊志云	-11.7834
其背	-11.7836
重陽註曰	-11.7837
稼穡	-11.7838
彘	-11.7838
兵馬	-11.784
輕易	-11.784
永度三途五苦八難超凌仙界逍遙上	-11.784
天運年月日告下奉行	-11.784
蕆	-11.7841
須至具疏申聞者右疏具申	-11.7842
揀	-11.7843
瞎	-11.7843
祠堂	-11.7843
炯	-11.7843
㟁	-11.7843
裒	-11.7844
○(○	-11.7844
於中宫	-11.7845
岳陽樓	-11.7845
綻	-11.7845
矚	-11.7845
斷無	-11.7845
厄難	-11.7845
彤	-11.7845
征凶	-11.7845
菽	-11.7845
黃鶴樓	-11.7845
濟生度死	-11.7845
營求	-11.7846
畛	-11.7846
耿	-11.7846
道不遠人	-11.7846
衾	-11.7846
竣	-11.7846
盻	-11.7847
楷	-11.7847
芸	-11.7847
生人生物	-11.7847
採取烹煉	-11.7847
悄	-11.7848
回光返照	-11.7848
雲漢	-11.7848
五金八石	-11.7848
辣	-11.7849
0	-11.7849
矍	-11.7849
熄	-11.7849
玉宸道君	-11.7849
老少	-11.785
紺	-11.785
焰	-11.785
不可少	-11.785
訊	-11.785
拽	-11.785
盡性至命	-11.785
痿	-11.785
峨	-11.7851
糜	-11.7851
眼目	-11.7851
咬	-11.7851
片晌	-11.7851
縊	-11.7851
稳	-11.7851
胄	-11.7851
襍	-11.7851
天尊萬福寶誥	-11.7851
誠惶誠恐	-11.7851
顓	-11.7851
丶	-11.7851
絆	-11.7851
病後酬天	-11.7852
胆	-11.7852
十類	-11.7853
姜維	-11.7853
勺	-11.7854
稠	-11.7854
瓦礫	-11.7855
糠	-11.7855
扳	-11.7855
正心誠意	-11.7855
蒞	-11.7855
庚辰	-11.7856
饑渴	-11.7856
常規平安	-11.7856
蘋蘩	-11.7856
赭	-11.7857
至玄至妙	-11.7857
抱元	-11.7857
諦聽吾言	-11.7857
净	-11.7857
毁譽	-11.7857
僊	-11.7858
瘴	-11.7858
頰	-11.7858
乖戾	-11.7858
請詳前事理	-11.7858
劉言	-11.7858
役役	-11.7858
幔亭	-11.7859
訢	-11.7859
肝膽	-11.7859
凝神入氣穴	-11.7859
加一等	-11.7859
壹	-11.7859
主人翁	-11.7859
瀟灑	-11.786
冠裳	-11.786
陽燧	-11.786
悔吝	-11.786
斟	-11.7861
淋	-11.7861
淮南	-11.7861
桃康	-11.7861
眞一之水	-11.7861
由此觀之	-11.7862
防閑	-11.7862
樟	-11.7862
室内	-11.7862
蟄藏	-11.7862
見之者	-11.7863
一覽	-11.7863
遲遲	-11.7864
夀夭	-11.7864
覃恩	-11.7864
振響	-11.7865
予謂	-11.7865
一陽動	-11.7865
弱冠	-11.7866
感慨	-11.7867
杲	-11.7867
霎時	-11.7867
北斗九皇	-11.7867
淨明忠孝	-11.7867
攸司	-11.7868
何言哉	-11.7868
刼刼	-11.7868
蕩穢	-11.7869
翕聚	-11.7869
永脫	-11.7869
所係	-11.787
頌揚	-11.787
毁謗	-11.7871
拱手	-11.7872
彰彰	-11.7873
芝草	-11.7873
章第八	-11.7873
吉祥音檀熾鈞	-11.7873
緩急	-11.7874
婚姻	-11.7875
丁甯	-11.7875
玉皇尊帝	-11.7875
空際	-11.7875
機械	-11.7876
也象以	-11.7876
鴻䝉	-11.7878
七世	-11.788
和睦	-11.788
不可離	-11.788
瑤壇	-11.7881
未全	-11.7881
納甲	-11.7883
江東	-11.7883
闓	-11.7884
橫行	-11.7885
時年	-11.7885
百穀	-11.7885
弦望	-11.7885
此一竅	-11.7886
紅霞	-11.7887
陳泥丸	-11.7887
欲學	-11.7888
六丁	-11.7888
旡妄	-11.7888
華胥	-11.789
飮酒	-11.789
斷續	-11.789
眞符玉清	-11.7891
沉溺	-11.7891
動搖	-11.7892
喪身	-11.7893
魏延	-11.7893
但聞	-11.7895
佛說	-11.7896
山寺	-11.7898
秀才	-11.79
甚奇	-11.7901
桂林	-11.7904
問之曰	-11.7906
天衢	-11.7906
錯亂	-11.7907
靈圖	-11.7907
尤不可	-11.7909
俱忘	-11.7909
未來世	-11.791
如水之	-11.791
薪傳	-11.7911
得之者	-11.7912
坤維	-11.7912
羽客	-11.7912
救拔	-11.7915
一百八十	-11.7916
形迹	-11.7916
萬壑	-11.7917
活計	-11.7917
省府	-11.7918
省悟	-11.7921
念誦	-11.7922
飛舞	-11.7923
考官	-11.7925
靑牛	-11.7926
搖動	-11.7927
將帥	-11.7928
鼻息	-11.7928
化生萬物	-11.7929
鸞鳳	-11.793
大塊	-11.7931
而死者	-11.7931
人人有	-11.7934
兩箇	-11.7934
少陵	-11.7934
夢裏	-11.7936
朱衣	-11.7937
無損	-11.7937
平沙	-11.7938
劉備	-11.794
▁唵	-11.794
深造	-11.7942
指掌	-11.7943
剛健	-11.7943
玄綱	-11.7946
題曰	-11.7946
必敗	-11.7947
液炁	-11.7949
赫然	-11.795
姓字	-11.7951
若然者	-11.7952
有爲也	-11.7953
風飄	-11.7953
爲道之	-11.7954
觀物	-11.7955
破軍	-11.7956
凡諸	-11.7956
蜀漢	-11.7957
疏語	-11.7958
無患	-11.7959
無魔	-11.7959
之正氣	-11.7959
一壺	-11.7961
斜陽	-11.7964
調爕	-11.7964
土皇	-11.7965
蓬山	-11.7965
必致	-11.7966
光普照	-11.7966
記名	-11.797
非特	-11.7972
終朝	-11.7973
於心心	-11.7975
諸爻	-11.7976
親切	-11.7978
關告	-11.7979
出没	-11.7979
十𡻕	-11.798
無生滅	-11.798
更須	-11.7982
能有幾	-11.7982
名譽	-11.7982
明辨	-11.7983
永劫	-11.7983
要法	-11.7986
學者當	-11.7988
蓮座	-11.7989
烏能	-11.7989
遵守	-11.7989
陽德	-11.7991
無辜	-11.7991
師長	-11.7992
無所容	-11.7993
命之曰	-11.7994
雷司	-11.7995
鎭靜	-11.7996
隨地	-11.7997
可測	-11.7998
幽暗	-11.8002
直待	-11.8003
中丹田	-11.8004
妙典	-11.8004
總由	-11.8005
渾忘	-11.8006
常寂	-11.8011
玄曹	-11.8011
尹喜	-11.8012
凡庸	-11.8012
腹内	-11.8012
烈火	-11.8016
完固	-11.8018
普施	-11.8023
從此而	-11.8024
降注	-11.8024
香山	-11.8024
李言	-11.8025
天良	-11.8025
賦性	-11.8025
東林	-11.8026
志願	-11.8026
元素	-11.8026
畏人	-11.8026
流連	-11.8027
路頭	-11.8027
無瑕	-11.803
石梁	-11.8034
有基	-11.8035
威力	-11.8036
衞護	-11.8037
着力	-11.8039
勿忘	-11.8039
不審	-11.8044
述其	-11.8046
莫不有	-11.8046
勢力	-11.8047
飛步	-11.8049
相投	-11.805
毫末	-11.8056
傳燈	-11.8056
也又問	-11.8056
仙祖	-11.8058
互用	-11.806
往事	-11.8061
一層	-11.8065
互藏	-11.8067
妙悟	-11.8068
次年	-11.8069
度亡過	-11.8071
道器	-11.8074
弗克	-11.8078
無大小	-11.808
三等	-11.808
凡胎	-11.8084
齋主	-11.8087
嘗見	-11.8087
俯陳	-11.8088
初動	-11.8089
師家	-11.8089
不至於	-11.8097
六龍	-11.8098
告成	-11.8098
五百年	-11.81
際會	-11.8102
老君曰	-11.8106
舉目	-11.8108
無因	-11.811
動機	-11.811
活身	-11.8115
散花	-11.8118
不比	-11.8118
飛身	-11.8119
羣山	-11.8119
乎至於	-11.812
到了	-11.812
然後能	-11.8125
抑或	-11.8126
金庭	-11.8127
五寸	-11.8132
皆出於	-11.8135
保養	-11.8137
癸未	-11.8137
空谷	-11.8137
福堂	-11.8137
玉泉	-11.8138
守城	-11.8139
佛門	-11.814
應干	-11.8142
聽我	-11.8143
無畏	-11.8145
斗樞	-11.8146
可長生	-11.8148
逆順	-11.8149
音耶	-11.8153
修養	-11.8157
也或曰	-11.8157
抑何	-11.8159
忠武侯	-11.8161
吏部	-11.8163
嘗謂	-11.8164
白頭	-11.8164
恩波	-11.8166
一轍	-11.8167
之所得	-11.8168
不能勝	-11.8172
事親	-11.8175
景仰	-11.8176
風寒	-11.8177
秋夜	-11.8178
不動心	-11.818
煉就	-11.819
五臺	-11.8191
無價	-11.8193
失其眞	-11.8194
東方木	-11.8196
幸逢	-11.8196
邱長春	-11.8197
設法	-11.8199
麗於	-11.8207
去妄	-11.8208
未達	-11.8208
星光	-11.8212
孝思	-11.8213
心胸	-11.8214
福力	-11.8217
之德也	-11.8225
心爲主	-11.8226
起首	-11.8227
化工	-11.8232
百餘年	-11.8234
乾家	-11.8239
妖魔	-11.824
凡鉛	-11.8243
不覩	-11.8248
孝養	-11.8248
三百日	-11.8251
信然	-11.8251
秋毫	-11.8253
罡風	-11.8255
滅火	-11.8257
心也心	-11.8259
飛符	-11.826
煙雲	-11.826
雨後	-11.8263
明徹	-11.8265
苟得	-11.8265
情深	-11.8269
逐境	-11.8274
竺	-11.8275
帝位	-11.8277
忒	-11.8278
教令	-11.8279
未獲	-11.828
坐功	-11.828
和樂	-11.8281
豈復	-11.8283
我祖師	-11.8285
聖門	-11.8287
捐貲	-11.8289
臺上	-11.8292
克已	-11.8294
暫時	-11.8298
貞固	-11.8299
養靜	-11.8304
軿	-11.8316
鉛鼎	-11.8317
難測	-11.8325
貞元	-11.8328
不能容	-11.833
一刻之	-11.8332
鍾離眞人	-11.8338
前章	-11.8342
移居	-11.8346
可不謂	-11.835
兼修	-11.8352
雖異	-11.8353
脛	-11.8356
簧	-11.8359
心向道	-11.8361
琳琅	-11.8362
悽	-11.8362
大劫	-11.8363
煅	-11.8363
揖讓	-11.8363
獨居	-11.8364
二寸	-11.8365
駟馬	-11.8365
人而人	-11.8365
慈諸天眞宰度災濟刦萬眞無量福護	-11.8365
巘	-11.8366
趺	-11.8366
噩	-11.8366
五十功	-11.8367
聶	-11.8367
脇	-11.8367
戞	-11.8367
佃	-11.8367
誥奉行祖師三天教主正一眞君張證盟	-11.8368
咀	-11.8368
逭	-11.8368
往往有	-11.8369
眾妙之門	-11.8369
猿啼	-11.8369
沉疴	-11.837
之一也	-11.837
利見大人	-11.837
田地	-11.837
隹	-11.8371
繭	-11.8371
寕	-11.8371
輿地紀勝云	-11.8372
吻	-11.8372
濬	-11.8372
從無入有	-11.8372
届	-11.8372
蔑	-11.8372
至簡至易	-11.8372
驥	-11.8373
琪花	-11.8373
貪妄	-11.8373
提挈	-11.8373
父母未生以前	-11.8373
之可也	-11.8373
雨暘	-11.8374
羅眞人曰	-11.8374
逵	-11.8375
一國	-11.8375
曹局	-11.8375
埽	-11.8375
乙酉	-11.8375
晤	-11.8375
自古及今	-11.8375
瑰	-11.8375
綰	-11.8375
湛湛	-11.8376
三淸三境	-11.8376
灑灑	-11.8376
囦	-11.8376
𨶒浮	-11.8376
坎中一陽	-11.8376
銛	-11.8376
𡨚愆	-11.8376
以靜爲	-11.8376
頷	-11.8377
嚇	-11.8377
冤	-11.8377
元契曰	-11.8377
燿	-11.8377
四生六道	-11.8378
璘	-11.8378
垓	-11.8378
杜甫	-11.8378
鬣	-11.8378
-	-11.8378
宣秘咒	-11.8378
斧斤	-11.8378
太乙救苦天尊	-11.8378
駿	-11.8378
丁酉	-11.8378
兔髓	-11.8378
揺	-11.8379
譔	-11.8379
麻祖元君曰	-11.8379
天尊弟子某等	-11.8379
延壽	-11.8379
鍊神還虛	-11.8379
霄壤	-11.8379
羅酆	-11.8379
玉几下	-11.838
炒	-11.838
凱	-11.838
髏	-11.838
皥	-11.838
喙	-11.8381
蜮	-11.8381
冗	-11.8381
漚	-11.8381
戊辰	-11.8381
幽玄	-11.8381
禕	-11.8381
茨	-11.8381
位居	-11.8382
麼	-11.8382
校尉	-11.8382
洗濯	-11.8382
顚沛	-11.8382
渾渾淪淪	-11.8382
餞	-11.8383
芒鞋	-11.8383
凄凉	-11.8383
甑	-11.8383
案主者	-11.8383
呵護	-11.8383
浮黎	-11.8383
群	-11.8384
八句	-11.8384
攪	-11.8384
證鑒修崇	-11.8384
耄	-11.8384
大千世界	-11.8384
饑饉	-11.8385
逗	-11.8385
其迹	-11.8385
煉氣化神	-11.8385
縧	-11.8385
千千	-11.8386
洞庭湖	-11.8386
零陵	-11.8386
蓬蒿	-11.8386
白祖仙師曰	-11.8386
㓜	-11.8387
征伐	-11.8387
殷殷	-11.8387
儒釋道	-11.8387
眞一之炁	-11.8387
洩漏	-11.8387
有形有象	-11.8388
陷溺	-11.8388
鯉	-11.8389
根柢	-11.839
戸牖	-11.839
火焚	-11.839
調元	-11.8391
拈花	-11.8391
心無其心	-11.8392
浚	-11.8392
鉉	-11.8392
緡	-11.8392
遠望	-11.8393
超凌	-11.8393
涌	-11.8393
盗賊	-11.8394
牽連	-11.8394
無形無名	-11.8394
緝	-11.8394
愛物	-11.8394
勤而行之	-11.8394
陰私	-11.8395
踏破	-11.8397
抱樸	-11.8398
演政	-11.8398
不見不聞	-11.8399
由是觀之	-11.8399
孟氏	-11.8399
仲冬	-11.84
務在	-11.84
殺戮	-11.84
愛憎	-11.8401
無極之眞	-11.8402
流涕	-11.8402
房術	-11.8402
猛虎	-11.8403
換鼎	-11.8404
卦象	-11.8405
三茅	-11.8405
南方火	-11.8406
蠢動	-11.8406
敷奏	-11.8406
㳟惟	-11.8406
血脈	-11.8407
咸臻	-11.8407
癡人	-11.8407
刑政	-11.8407
曷勝	-11.8407
招攝	-11.8407
於天而	-11.8408
幽獄	-11.8409
榮枯	-11.8409
孔竅	-11.8409
氣以生	-11.841
殿宇	-11.8413
猶豫	-11.8415
握固	-11.8417
毒害	-11.8418
年少	-11.8418
莫過於	-11.8419
仰瞻	-11.842
沉迷	-11.8421
宰制	-11.8422
典籍	-11.8423
測其	-11.8423
久定	-11.8423
扶危	-11.8424
大羅天上	-11.8425
莫大乎	-11.8428
潔淨	-11.8429
不可用	-11.8429
秦漢	-11.843
啓教	-11.8431
旣足	-11.8432
川源	-11.8433
用智	-11.8433
爾時天尊	-11.8434
朕兆	-11.8435
混俗	-11.8435
鍊金丹	-11.8436
在眼前	-11.8436
災禍	-11.8438
伏冀	-11.8438
今幸	-11.844
復圭子曰此章	-11.8441
普陀	-11.8442
困於	-11.8443
逆轉	-11.8443
西嶽	-11.8443
瞻禮	-11.8444
天尊大悲斗司	-11.8445
日暮	-11.8446
必至於	-11.8447
薦父	-11.8447
靑鳥	-11.8451
上蒼	-11.8452
奥妙	-11.8453
流輝	-11.8453
紫陽云	-11.8454
無有不	-11.8456
能事	-11.8456
豈必	-11.8456
而心不	-11.8457
萬派	-11.8457
寒庭	-11.846
半點	-11.8461
㤗山	-11.8462
殊恩	-11.8463
貲財	-11.8463
爲五十功	-11.8464
昇平	-11.8465
這等	-11.8467
淡淡	-11.8467
現形	-11.8468
潛心	-11.8472
丁公	-11.8473
依附	-11.8473
屬金	-11.8475
召請	-11.8476
未識	-11.8477
降鑒	-11.8479
有一分	-11.8479
一泓	-11.8479
英華	-11.8481
同源	-11.8481
白炁	-11.8482
最後	-11.8485
樂境	-11.8487
道侣	-11.8491
每每	-11.8491
垂示	-11.8495
莫能知	-11.8496
吾不知其	-11.8499
細雨	-11.85
竅竅	-11.8503
建文	-11.8503
而不顧	-11.8505
忠貞	-11.8506
下注	-11.8506
天譴	-11.8508
管樂	-11.8512
陰消	-11.8513
吾輩	-11.8513
循循	-11.8515
楚王	-11.8517
如是如是	-11.8517
咸令照應	-11.8518
迴光	-11.8519
厥功	-11.852
不能離	-11.852
成至寶	-11.852
學佛	-11.8521
不戰	-11.8523
感悟	-11.8523
登臺	-11.8524
怎能	-11.853
山上有	-11.8531
雖殊	-11.8531
江左	-11.8535
請詳	-11.8535
鍊就	-11.8535
脩煉	-11.8538
崇德	-11.854
無何有	-11.8541
妄語	-11.8546
其巓	-11.8546
赦原	-11.8549
滅魔	-11.8549
發越	-11.8552
陰律	-11.8556
先天一點	-11.8559
樹木	-11.856
可以長生	-11.8565
之根本	-11.8568
曷爲	-11.8569
仰望	-11.8569
也由是知之	-11.8572
玄範	-11.8572
流芳	-11.8574
甯靜	-11.8576
燒丹	-11.8579
川流	-11.8581
儒門	-11.8581
安泰	-11.8585
相資	-11.8587
病苦	-11.8591
丹闕	-11.8593
惡孽	-11.8594
湖山	-11.8595
離塵	-11.8596
乾宮	-11.8598
凡俗	-11.8603
萬端	-11.8608
神與氣	-11.861
舉頭	-11.861
口頭	-11.8612
者物之	-11.8612
青天	-11.8615
三丹田	-11.862
眞消息	-11.8621
所恃	-11.8629
藥石	-11.8629
滋潤	-11.863
諸障	-11.8632
刻石	-11.8632
始祖	-11.8633
何年	-11.8636
恢恢	-11.8637
得解脫	-11.8639
金生水	-11.864
一杯	-11.8642
形軀	-11.8645
修仙者	-11.8648
我輩	-11.8648
爲媒	-11.8652
坎位	-11.8653
箇月	-11.8656
但當	-11.866
乾卦	-11.866
以上皆	-11.8661
危微	-11.8661
好色	-11.8663
無爲之道	-11.8666
海嶽	-11.8668
海潮	-11.8669
文詞	-11.867
隱微	-11.8675
土木	-11.8677
文辭	-11.8678
一陰生	-11.8679
三返	-11.8683
兩頭	-11.8687
維時	-11.869
廣施	-11.8691
拜禮	-11.8694
超三界	-11.8697
自卑	-11.8697
侍御	-11.8697
安縣	-11.8698
習靜	-11.8701
無知無	-11.8706
註云	-11.8708
所造	-11.8709
育物	-11.871
之所當	-11.8713
峰頂	-11.872
妖邪	-11.8721
飛香	-11.8725
帝恩	-11.8725
火宅	-11.873
高上玉皇	-11.8731
而忘其	-11.8736
懴禱已陳㳟申諷詠稽首皈依	-11.8737
前識	-11.8742
風霜	-11.8744
聖域	-11.8748
方纔	-11.876
者神也	-11.8762
悲夫	-11.8762
閣下	-11.8764
基址	-11.8766
成章	-11.8766
包乎	-11.8767
飛鳴	-11.8777
會集	-11.8779
城外	-11.8782
蜀郡	-11.8783
斗母	-11.8784
其生也	-11.8787
周迴	-11.8789
懇祈	-11.8791
天下而不	-11.8793
欺世	-11.8798
無怠	-11.8802
向東	-11.8809
何愁	-11.8809
原屬	-11.8814
教導	-11.8815
瑤天	-11.8816
親友	-11.8819
思想	-11.8821
世儒	-11.8822
知其爲	-11.8823
主客	-11.8824
爭先	-11.883
慈濟	-11.8833
千家	-11.8837
甯不	-11.884
爽氣	-11.8842
一途	-11.8843
幻形	-11.8844
仙橋	-11.8847
太極圖	-11.885
仙胎	-11.885
無乎不	-11.8855
法座	-11.8858
習定	-11.886
巫山	-11.8869
哲人	-11.8874
大羅仙	-11.8876
祚天尊大悲	-11.8876
媾精	-11.8884
冥然	-11.8889
靈汞	-11.8895
而名之	-11.8896
反以爲	-11.8903
世祖	-11.8903
何殊	-11.8905
不出於	-11.8909
皆係	-11.8912
千萬人	-11.8914
齊家	-11.8918
璽	-11.8918
七情六慾	-11.8918
磁	-11.8919
燾	-11.8919
細參	-11.8921
阿羅漢	-11.8921
灌溉	-11.8922
超登蓮化天尊	-11.8922
爲二百功	-11.8922
跖	-11.8922
燦燦	-11.8922
鏗	-11.8922
天君雷府護法	-11.8923
庄	-11.8923
微風	-11.8923
錘	-11.8923
貪嗔癡	-11.8923
煢	-11.8923
爲伍	-11.8923
生身受度刼刼長存隨刼輪轉與天齊年	-11.8924
廛	-11.8924
澹泊	-11.8924
舅姑	-11.8924
太淸仙境	-11.8925
漕	-11.8925
弃	-11.8925
也然此	-11.8926
頺	-11.8926
當面錯過	-11.8926
抱膝	-11.8927
噉	-11.8927
金來歸性	-11.8927
圉	-11.8927
陽神出現	-11.8927
抹	-11.8928
損之又損	-11.8928
高穹	-11.8928
太陰眞水	-11.8928
何幸	-11.8928
剏	-11.8928
頫	-11.8928
貿	-11.8929
媳	-11.8929
坎中之陽	-11.8929
鹵	-11.8929
愠	-11.8929
淫媾	-11.8929
墖	-11.8929
以神馭氣	-11.8929
紂	-11.8929
㜑	-11.893
通玄應變天尊	-11.893
䘏	-11.893
薄蝕	-11.893
眞無量福護天尊萬福寶誥	-11.893
同類相	-11.893
漢嘉長乙山人李西月重編張道淵子深	-11.893
綃	-11.8931
錯過	-11.8931
祠下	-11.8931
西華金母	-11.8931
生老病死	-11.8931
慈諸天眞宰度災濟刼萬	-11.8932
闚	-11.8932
飛行救劫天尊	-11.8932
綬	-11.8932
描	-11.8932
迢迢	-11.8932
叮	-11.8932
泒	-11.8932
𦀦	-11.8932
靜極而動	-11.8932
又無根樹花正	-11.8932
愴	-11.8933
无咎	-11.8933
法信凡儀	-11.8933
紫微大帝	-11.8933
肺腑	-11.8933
田疇	-11.8933
右仰	-11.8933
不偏不倚	-11.8933
冽	-11.8934
靳	-11.8934
横	-11.8934
纍纍	-11.8934
斧鉞	-11.8935
四大假合	-11.8935
陶冶	-11.8935
庇佑	-11.8935
槃	-11.8935
隨聲	-11.8935
瑣	-11.8936
蚩蚩	-11.8936
攄	-11.8936
硃	-11.8936
與天爲徒	-11.8936
壻	-11.8936
醇	-11.8936
唏	-11.8936
注視良久	-11.8936
拓	-11.8937
圭角	-11.8937
韁	-11.8937
歙	-11.8937
戊申	-11.8937
瑞靄	-11.8938
殽	-11.8938
肺肝	-11.8938
涿	-11.8938
蹕	-11.8938
錢塘	-11.8939
塹	-11.8939
光武	-11.8939
昱	-11.8939
抽鉛添汞	-11.8939
詡	-11.8939
徨	-11.8939
耻	-11.8939
忻	-11.8939
㝠㝠	-11.8939
雺	-11.8939
鳶	-11.8939
魁罡	-11.894
華池神水	-11.894
甡	-11.894
珠璣	-11.894
砭	-11.894
珪	-11.894
解脱	-11.894
幟	-11.894
疣	-11.8941
毛髮	-11.8941
虎伏	-11.8941
漁翁	-11.8941
堅剛	-11.8941
愷	-11.8941
玉光弟子	-11.8942
萬法歸一	-11.8943
薄暮	-11.8943
旁門小術	-11.8943
凹	-11.8943
收視返聽	-11.8943
猛烈	-11.8943
萬斛	-11.8943
天皇大帝	-11.8943
􂂁	-11.8943
寂然不動感而遂通	-11.8943
流光耀采天尊	-11.8944
婬姤	-11.8946
黃粱	-11.8946
虺	-11.8946
給付	-11.8946
循環無端	-11.8946
綺語	-11.8947
渡河	-11.8947
宏慈妙法元君	-11.8947
零落	-11.8947
欺罔	-11.8947
滲漏	-11.8948
一念不起	-11.8948
圓通子曰	-11.8949
東華帝君	-11.8949
諸葛忠武侯	-11.8949
努力	-11.8949
羽翼	-11.8949
下手工夫	-11.895
修眞之士	-11.8951
牂	-11.8951
一念不生	-11.8951
幽寥	-11.8952
虛幻	-11.8953
忠恕	-11.8953
呂純陽	-11.8953
恰好	-11.8953
太倉	-11.8953
海外	-11.8954
漁父	-11.8954
階梯	-11.8954
大面山	-11.8955
十方靈寶救苦尊救苦天尊唵啞吽吽啞	-11.8955
受益	-11.8956
蘆花	-11.8956
莫大焉	-11.8956
追悔	-11.8956
有益於	-11.8956
聽其自然	-11.8957
鬱羅	-11.8957
男兒	-11.8958
黃旛	-11.8958
貪戀	-11.8959
寶塔	-11.8959
幽都	-11.896
迎恩	-11.896
尿	-11.8961
神仙鑑	-11.8961
誰肯	-11.8962
羽毛	-11.8962
陀羅	-11.8963
孺子	-11.8964
下篇	-11.8964
仰啓	-11.8965
爐内	-11.8965
昭鑒	-11.8965
長生久視之道	-11.8966
𤣥關	-11.8969
豈不是	-11.897
安穩	-11.897
微忱	-11.897
陳希夷	-11.8971
剛剛	-11.8972
團圞	-11.8972
爲我有	-11.8973
在人間	-11.8973
之樞紐	-11.8974
月影	-11.8975
傾覆	-11.8975
之類是也	-11.8976
孔氏	-11.8977
勝會	-11.8978
削除	-11.8978
禳火	-11.8978
蜀王	-11.8981
盲師	-11.8981
碧霞	-11.8981
正倫	-11.8981
在是矣	-11.8983
日爲始	-11.8983
胎完	-11.8983
盈盈	-11.8983
死之徒	-11.8984
洪休	-11.8985
案主者宫府管	-11.8985
河水	-11.8986
那裏	-11.8986
惠澤	-11.8988
高蹈	-11.8989
二百過	-11.899
陰極而	-11.899
羅天十	-11.8991
讚揚	-11.8994
疾速	-11.8994
盛夏	-11.8995
桐子	-11.8996
盡忠	-11.8996
超凡入聖天尊	-11.8996
從何來	-11.8998
靑霞	-11.9
普吿	-11.9004
三教聖人	-11.9006
丹井	-11.9008
世網	-11.9008
内諱	-11.9011
此何以故	-11.9011
午夜	-11.9012
中丞	-11.9013
劉註	-11.9013
翕然	-11.9014
頑石	-11.9014
五芽	-11.9014
叩頭	-11.9014
涵虛	-11.9014
映天尊大悲	-11.9016
罔知	-11.9016
後裔	-11.9017
旬日	-11.9018
絕句	-11.9019
直達	-11.902
日月星斗	-11.9022
禱雨	-11.9022
長幼	-11.9024
布政	-11.9024
窮究	-11.9026
廣博	-11.9027
循理	-11.9028
全仗	-11.9029
公羊	-11.9029
西川	-11.903
又况	-11.903
白沙	-11.903
直超	-11.9031
落葉	-11.9032
五行顚倒	-11.9032
郡守	-11.9034
無二理	-11.9035
太虛之中	-11.9036
木葉	-11.9036
釋然	-11.9037
畢集	-11.9038
雙目	-11.9038
怎得	-11.9042
有一等	-11.9043
業障	-11.9043
字紙	-11.9045
無人識	-11.9045
包藏	-11.9046
古松	-11.905
敬陳	-11.9051
淺說	-11.9055
詩詞	-11.9055
莫放	-11.9055
雙關	-11.9058
繩墨	-11.906
默坐	-11.906
繼之以	-11.9062
煥然	-11.9062
喻人	-11.9066
蒼苔	-11.9066
爲百功	-11.9068
紫華	-11.907
示現	-11.907
五千文	-11.9072
昇度	-11.9072
下手處	-11.9072
祿存	-11.9075
修竹	-11.9076
慈惠	-11.908
西蜀	-11.908
貪著	-11.908
尤宜	-11.9081
淡然	-11.9082
二十四年	-11.9082
登樓	-11.9084
五陵	-11.9084
惟冀	-11.9084
死籍	-11.9087
堅持	-11.9087
真精	-11.9088
著眼	-11.9092
在丹田	-11.9092
浮圖	-11.9093
尊號	-11.9094
追思	-11.9097
艱貞	-11.9098
正午	-11.91
最宜	-11.91
虧損	-11.9102
長生之道	-11.9102
滋生	-11.9103
十五年	-11.9103
離位	-11.9104
老松	-11.9106
走失	-11.9106
發慈悲	-11.9108
春臺	-11.9108
斗口	-11.9109
頭頭	-11.911
十七年	-11.911
白骨	-11.911
笑指	-11.9111
詩酒	-11.9111
百端	-11.9112
浮華	-11.9113
位不當也	-11.9113
尊貴	-11.9116
以心爲	-11.9116
日輪	-11.9117
大帥	-11.9123
金沙	-11.9123
而不通	-11.9125
交併	-11.9125
仁愛	-11.9127
太帝	-11.9128
倘或	-11.9129
符節	-11.9131
數句	-11.9134
罪犯	-11.9136
報國	-11.9138
長男	-11.9139
光映	-11.914
猶且	-11.9141
九祖	-11.9141
肝氣	-11.9141
最重	-11.9144
謬矣	-11.9147
親近	-11.9148
凌雲	-11.9151
人間世	-11.9151
垂象	-11.9153
無所歸	-11.9155
飛泉	-11.916
碧海	-11.916
久留	-11.9165
則一也	-11.917
上祝	-11.917
三爻	-11.9171
安閒	-11.9172
五拜	-11.9175
不虞	-11.9177
未申	-11.9177
註解	-11.9179
凡世	-11.918
指引	-11.9181
合掌	-11.9181
釋家	-11.9185
風輪	-11.9188
加意	-11.9189
滿目	-11.9191
爲十功	-11.9193
一脉	-11.9195
廣漢	-11.9195
乎答曰	-11.9198
手植	-11.9199
銀鉛	-11.9199
神昏	-11.9202
寸心	-11.9203
所見者	-11.9204
不恃	-11.9205
印心	-11.9205
論語	-11.9206
營謀	-11.9209
高臺	-11.921
平原	-11.921
紙上	-11.9213
凡此皆	-11.9216
敬設	-11.9226
慈救	-11.9229
成銀	-11.9232
結金丹	-11.9233
光發現	-11.9238
金簡	-11.9241
震兌	-11.9245
外護	-11.9252
山之勝	-11.9252
四拜	-11.9252
蔽日	-11.9253
佛氏	-11.9255
流布	-11.9256
飲水	-11.9256
何憂	-11.9257
始末	-11.9258
誰謂	-11.9259
月餘	-11.9264
位置	-11.9267
仰止	-11.9269
庶物	-11.9269
沙界	-11.927
教授	-11.9272
虛室	-11.9277
夾道	-11.9277
先天大道	-11.9279
務須	-11.9285
俟其	-11.9289
顔子	-11.9291
訣曰	-11.9293
在人則	-11.9293
便覺	-11.9296
分胎	-11.93
之天也	-11.9301
奇器	-11.9302
虧盈	-11.9304
利己	-11.9305
殺人者	-11.9308
無倫	-11.931
上宰	-11.9315
莫測其	-11.9317
𡻕寒	-11.932
福庇	-11.9325
者神之	-11.9325
亦可謂	-11.9327
出於自然	-11.9327
洪水	-11.9329
舊傳	-11.9333
德厚	-11.9333
宿世	-11.9334
非我有	-11.9338
𡨚家	-11.9342
亮卒	-11.9345
長歌	-11.9345
屬後天	-11.935
不辯	-11.936
法懴	-11.9363
採煉	-11.937
隨境	-11.937
一區	-11.9372
不讓	-11.9372
精竭	-11.9372
無不利	-11.9374
腔	-11.9385
到手	-11.9385
親愛	-11.9386
真君祖師	-11.9391
祠宇	-11.9395
淵微	-11.9397
其咎	-11.9403
蒼翠	-11.9404
治民	-11.9415
家園	-11.9419
昇眞	-11.9419
宣傳	-11.942
奚必	-11.9421
紅爐	-11.9423
誕生	-11.9426
深淺	-11.9432
懷古	-11.9434
何勞	-11.9449
鎭江	-11.9453
器用	-11.9458
答云	-11.946
圖畫	-11.9472
功效	-11.9474
叚	-11.9474
光昭	-11.948
勿謂	-11.9481
可不戒	-11.9482
醮事	-11.9487
旨哉	-11.9489
天尊大悲統部嶽府	-11.9489
件件	-11.9492
西竺	-11.9492
十七光	-11.9492
眞人註曰此章	-11.9496
之爲言	-11.9498
救生濟死	-11.9499
宼	-11.9505
徊	-11.9506
四天君曰	-11.9506
覿	-11.9507
窮理盡性以至於命	-11.9507
頭頭是道	-11.9507
羌	-11.9507
髫	-11.9507
狸	-11.9508
卽道也	-11.9508
溫養	-11.9508
浄	-11.9508
昭靈	-11.9508
樵夫	-11.9509
地二生火	-11.9509
安身立命	-11.9509
棠	-11.951
九天演政	-11.9511
荇	-11.9511
福善禍淫	-11.9511
硤石	-11.9511
離中眞陰	-11.9511
薈	-11.9511
拷	-11.9511
驪珠	-11.9511
爲聖爲賢	-11.9512
菑	-11.9512
生生化化	-11.9513
繚	-11.9513
蒨	-11.9513
咒詛	-11.9513
樗	-11.9514
魘	-11.9514
嶧	-11.9515
而說偈曰	-11.9515
二十九	-11.9515
盃	-11.9515
熹	-11.9516
齧缺	-11.9516
大金神曰	-11.9516
梭	-11.9516
胸臆	-11.9516
絢	-11.9516
重刋道藏輯要張三丰先生全集	-11.9516
迴光返照	-11.9516
周而復始	-11.9516
翀	-11.9516
楠	-11.9516
鞏固	-11.9517
塋	-11.9517
遘	-11.9517
擘	-11.9518
與時偕行	-11.9518
孝悌	-11.9518
鴨	-11.9518
崎嶇	-11.9518
朔日	-11.9518
荏	-11.9518
菁	-11.9518
㙮	-11.9519
簑	-11.9519
諶姆	-11.9519
詫	-11.9519
缶	-11.9519
渤	-11.9519
常應常靜	-11.9519
碗	-11.952
鬟	-11.952
刹那	-11.952
撻	-11.952
𨓜	-11.952
凭	-11.952
更生永命天尊	-11.952
醖釀	-11.9521
9	-11.9521
傀	-11.9521
庚戌	-11.9521
壬午	-11.9521
媿	-11.9521
楊去奢曰	-11.9521
皎皎	-11.9521
當此之時	-11.9521
饕	-11.9522
丙辰	-11.9522
貧乏	-11.9522
漑	-11.9522
毓秀	-11.9522
噀	-11.9522
鄂渚	-11.9522
孝悌王	-11.9522
九年面壁	-11.9522
勾漏	-11.9522
天柱峰	-11.9523
獰	-11.9523
犍	-11.9523
茸	-11.9523
颯	-11.9523
陽火陰符	-11.9523
鹵莽	-11.9523
弟子某等	-11.9523
完璞	-11.9523
湼	-11.9523
斬赤龍	-11.9524
萌芽	-11.9524
厠	-11.9524
焱	-11.9524
所奏特	-11.9524
尋聲赴感	-11.9524
珊瑚	-11.9524
癢	-11.9525
和光同塵	-11.9525
汪洋	-11.9525
窺測	-11.9525
簽	-11.9525
可冀	-11.9525
四肢百骸	-11.9525
㨗徑	-11.9525
襯	-11.9525
橙	-11.9526
皺	-11.9526
辛丑	-11.9526
壬申	-11.9526
團團	-11.9527
賑濟	-11.9527
笞	-11.9527
耑	-11.9528
无咎象曰	-11.9528
撿	-11.9528
森嚴	-11.9528
諸天聖眾	-11.9528
轆	-11.9528
寂寥	-11.9528
聲響	-11.9529
篙	-11.9529
曾史	-11.9529
丁巳	-11.953
諺云	-11.953
捷徑	-11.953
拭	-11.9531
轝	-11.9531
掾	-11.9531
竽	-11.9531
墊	-11.9531
綘宮	-11.9531
在昔彌羅聖主大放是光無與等者元皇	-11.9531
超脱	-11.9531
大放光明倘能叨沐是光照耀厥身前後	-11.9531
吉凶悔吝	-11.9531
慤	-11.9532
息息歸根	-11.9532
跟	-11.9532
歧路	-11.9532
金匱	-11.9532
仰對元皇曷勝欽仰敬禮	-11.9532
菱	-11.9532
那怕	-11.9532
拆	-11.9532
滯爽	-11.9533
牢獄	-11.9533
傚	-11.9533
幽邃	-11.9533
䭾	-11.9533
爛熳	-11.9533
涓涓	-11.9533
功過格	-11.9534
吟咏	-11.9534
玄要篇	-11.9534
滂	-11.9534
說洞章	-11.9535
深不可測	-11.9535
一如誥命風火驛傳年月	-11.9536
不出不入	-11.9536
之數也	-11.9537
温飽	-11.9537
兩弦之氣	-11.9537
一次爲二過	-11.9538
片刻	-11.9538
慶祝	-11.9538
永消	-11.9538
財貨	-11.9539
悟眞篇云	-11.9539
所聚	-11.9539
地獄之業願解	-11.9539
離中之陰	-11.9539
祈晴	-11.954
神仙兵馬無鞅數眾悉	-11.9541
依稀	-11.9541
栽接	-11.9541
雍容	-11.9541
性命之情	-11.9541
慈顏	-11.9542
遺址	-11.9542
爲第一等弟子	-11.9542
這點	-11.9542
萬彙	-11.9542
沉滯	-11.9543
一統志	-11.9543
晡	-11.9543
奉教	-11.9544
澄徹	-11.9544
羅網	-11.9545
耀天尊大悲	-11.9545
瘋	-11.9546
總而言之	-11.9546
金丹一粒	-11.9546
乳房	-11.9547
待物	-11.9547
混混	-11.9547
何待	-11.9547
巧詐	-11.9548
伐魏	-11.9548
冠帶	-11.9551
諷經	-11.9551
驪龍	-11.9551
監察	-11.9552
踪跡	-11.9552
夙緣	-11.9555
昏沈	-11.9556
微軀	-11.9556
追攝	-11.9557
宣行祖師三天教主正一眞君張證盟	-11.9557
陳泥丸云	-11.9557
耳目口	-11.9557
屬木	-11.9558
儒墨	-11.9561
這裏	-11.9561
昏曉	-11.9562
黎民	-11.9563
引導	-11.9563
百倍	-11.9563
任督	-11.9564
庸申	-11.9564
輔佐	-11.9565
枯寂	-11.9565
何處尋	-11.9566
太湖	-11.9566
初機	-11.9567
少頃	-11.9567
屈曲	-11.9567
與天地同其	-11.9569
淺近	-11.9571
不仕	-11.9571
曾孫	-11.9571
易簡	-11.9571
切慮	-11.9572
淸凉	-11.9575
照燭	-11.9576
也頌曰	-11.9577
資財	-11.9577
募化	-11.9577
特叩	-11.9578
神通變化	-11.9579
權勢	-11.9579
丈許	-11.9579
蕩魔	-11.958
吳越	-11.9582
病病	-11.9583
欣欣	-11.9583
五行之氣	-11.9583
陳迹	-11.9584
月出庚	-11.9584
冷然	-11.9585
損壞	-11.9586
康節	-11.9586
十翼	-11.9586
尺二寸	-11.9588
畏懼	-11.9589
光射	-11.959
罔象	-11.9591
橋橋	-11.9591
香祀	-11.9592
儼若	-11.9594
得十分	-11.9595
太淵	-11.9596
清濁	-11.9597
復姤	-11.9598
演大洞	-11.9599
遇明師	-11.9599
勞勞	-11.9599
醫藥	-11.96
歸寂	-11.9603
西陵	-11.9604
矢口	-11.9604
把持	-11.9609
劍樹	-11.961
金砂	-11.9611
壇場	-11.9612
集慶	-11.9613
宣告	-11.9613
機緘	-11.9614
解穢	-11.9616
致祭	-11.9616
美玉	-11.9618
警化孚佑	-11.9618
改名	-11.9621
性命之學	-11.9622
成果天尊大悲	-11.9622
報怨	-11.9623
觸目	-11.9623
白髮	-11.9626
總攝	-11.9629
萌動	-11.9629
覺壇	-11.963
墮地獄	-11.9632
西施	-11.9633
𦂳要	-11.9633
閉息	-11.9636
最勝	-11.9637
沙門	-11.9638
丹邱	-11.9641
寒温	-11.9643
刼運	-11.9643
濟苦	-11.9644
庶民	-11.9645
朝上帝	-11.9646
洞玄靈寶	-11.9646
不可執	-11.9646
之象故曰	-11.9647
反掌	-11.9649
不寐	-11.9652
遍滿	-11.9654
萬戸	-11.9654
智巧	-11.9655
惜字	-11.9657
音悅	-11.9659
建甯	-11.9661
魚目	-11.9665
對面	-11.9665
務令	-11.9666
掃去	-11.9668
最貴	-11.9669
一腔	-11.9669
充周	-11.9671
以天地爲	-11.9672
切戒	-11.9674
曾子	-11.9674
切近	-11.9676
不必言	-11.9679
坎宫	-11.968
只消	-11.968
道德天尊	-11.9681
暮雲	-11.9683
萬八千	-11.9688
結習	-11.9689
嘗聞	-11.969
疾厄	-11.9693
咸歸	-11.9695
不畏死	-11.9695
謁帝	-11.9698
不成丹	-11.9699
鍊己	-11.9699
護念	-11.9701
脩眞	-11.9702
幻妄	-11.9705
除滅	-11.9708
偃仰	-11.9708
凡銀	-11.9708
消散	-11.9708
默念	-11.9718
純白	-11.9718
成一塊	-11.9718
也懴禱已陳㳟申諷詠稽首皈依	-11.972
夜夜	-11.9721
法乳	-11.9723
之根源	-11.9724
養素	-11.9728
附會	-11.9734
日之光	-11.9735
每遇	-11.9736
毋使	-11.9738
對境	-11.9743
宫室	-11.9757
觀之則	-11.9764
博學	-11.9767
俗學	-11.9769
今之人	-11.9772
人之德	-11.9776
三層	-11.9785
數點	-11.9786
者心也	-11.9786
御前	-11.9787
神員	-11.9788
所以者何	-11.9788
妄求	-11.9792
山腰	-11.9793
金橋	-11.9794
但恐	-11.9794
張果	-11.9794
固屬	-11.9795
調理	-11.9795
無所不知	-11.9799
未見其	-11.9802
一樣	-11.9803
内篇	-11.9803
相孚	-11.9805
國朝	-11.981
非僅	-11.9813
孤雲	-11.9814
五代	-11.9816
修羅	-11.9817
岱嶽	-11.9817
特頒	-11.9834
無上宫	-11.9836
諸品	-11.9836
聲臭	-11.9838
受罪	-11.9842
若亡若存	-11.985
而巳矣	-11.985
關節	-11.9852
好事者	-11.9852
此一心	-11.9855
不自知其	-11.9859
周天之火	-11.9862
陽生於	-11.9865
善不善	-11.9865
救民	-11.9865
與你	-11.9867
大洞救	-11.9867
未可知	-11.9869
地祇	-11.9869
之有哉	-11.9871
豈特	-11.9872
緒天尊大悲	-11.9874
嗣後	-11.9874
父老	-11.9876
八尺	-11.9876
添汞	-11.9877
易動	-11.9878
脩道	-11.9879
吾見其	-11.9879
數百年	-11.9889
茲山	-11.9891
自勉	-11.9895
認眞	-11.9896
尤甚	-11.9909
急須	-11.9909
臨江	-11.9911
功勳	-11.9916
内外交	-11.9916
貪淫	-11.9917
頓然	-11.9917
失卻	-11.9918
底事	-11.9923
坎坎	-11.9928
虛妄	-11.9944
奉養	-11.9952
補足	-11.9956
讀經	-11.9959
紀綱	-11.9963
災難	-11.9967
臨川	-11.9968
元辰	-11.9974
如明鏡	-11.9975
之眞時	-11.9976
元英	-11.9978
一月一	-11.9988
北嶽	-12.0001
災障	-12.0001
十有二	-12.0002
爕理	-12.0011
長生大帝	-12.0021
以無爲爲	-12.003
不復見	-12.0032
釋教	-12.0033
邱眞人	-12.0036
家室	-12.0037
湖南	-12.0042
點蒼	-12.0043
夀考	-12.0045
朗誦	-12.005
孔聖	-12.005
大利益	-12.005
注意	-12.0052
眞液	-12.0052
謙下	-12.0063
五色雲	-12.0063
律應	-12.0063
而已哉	-12.0066
忽爾	-12.0084
一芥	-12.0085
數十人	-12.0092
此等人	-12.0097
其功用	-12.01
救苦大天尊	-12.0102
機在目	-12.0105
薰風	-12.0107
誦是經	-12.0108
庸常	-12.0109
外面	-12.0112
都護	-12.0115
三教總	-12.0119
上經之	-12.0122
楊升菴曰	-12.0123
親授	-12.0127
燥濕	-12.0127
呻吟	-12.0128
道生一	-12.013
告竣	-12.0131
曹還陽	-12.0131
靈寶无量度人	-12.0131
此章申言	-12.0131
十洲三島	-12.0132
鄧艾	-12.0132
金剛力士	-12.0133
鍾靈	-12.0133
閎	-12.0133
三百八十四	-12.0134
爕	-12.0134
弒	-12.0135
人爲萬物之靈	-12.0135
城隍社令	-12.0136
絜	-12.0136
所由生	-12.0136
綢繆	-12.0136
持誦玉皇經	-12.0137
渺渺	-12.0137
鍵	-12.0137
樑	-12.0137
歳	-12.0138
購	-12.0138
姙	-12.0138
氾	-12.0139
塟	-12.0139
纍	-12.0139
現身說法	-12.0139
念茲在茲	-12.014
丁丑	-12.014
宵匝至	-12.014
煌	-12.014
督脈	-12.014
拇	-12.014
領詞䖍切依教奉行	-12.014
不得已而用之	-12.0141
玄珠成象	-12.0141
上善若水	-12.0142
楯	-12.0142
似有似無	-12.0142
蒼胡頡寶	-12.0142
乎陽之說也	-12.0142
瞀	-12.0142
敖	-12.0142
也上章言	-12.0143
功圓行滿	-12.0143
無始以來	-12.0143
愕	-12.0143
天根月窟	-12.0143
套	-12.0143
嶼	-12.0143
毬	-12.0144
干冒眞威	-12.0144
兜	-12.0144
闈	-12.0144
朶朶	-12.0144
璚	-12.0144
甄陶	-12.0144
㕓	-12.0144
繆	-12.0144
金能生水	-12.0144
十五兩	-12.0145
曙	-12.0145
虛室生白	-12.0145
抱元守一	-12.0145
駟	-12.0145
圓通早覺天尊	-12.0145
三萬刻	-12.0145
悶悶	-12.0146
紫虛魏祖元君曰	-12.0146
𢪩	-12.0146
燬	-12.0146
魏伯陽	-12.0146
觀天之道執天之行	-12.0147
0052-04_	-12.0147
疼	-12.0147
閼	-12.0147
逅	-12.0147
聲色貨利	-12.0147
蟹	-12.0147
頻頻	-12.0148
朦朧	-12.0148
步虛聲	-12.0148
證盟修奉	-12.0148
癸丑	-12.0148
螟	-12.0148
馮夷	-12.0148
尻	-12.0148
▁無極子曰	-12.0148
-10	-12.0148
嘶	-12.0148
若存若亡	-12.0148
摯	-12.0148
絹	-12.0148
疚	-12.0149
九龍符命	-12.0149
窒礙	-12.0149
卧龍岡	-12.0149
太上洞玄靈寶	-12.0149
五方五老	-12.0149
若有若無	-12.0149
夥	-12.0149
重刊道藏輯要	-12.0149
功名富貴	-12.015
泛泛	-12.015
昊天金闕	-12.015
貂	-12.015
笻	-12.015
大地山河	-12.015
壬戌	-12.0151
秃	-12.0151
諄	-12.0151
恆河沙	-12.0151
濠	-12.0151
橛	-12.0151
粮	-12.0151
錙	-12.0152
汨没	-12.0152
溟冷	-12.0152
韄	-12.0152
水簾洞	-12.0152
峴	-12.0152
楊墨	-12.0153
回向伏念	-12.0153
幄	-12.0153
悛	-12.0153
只怕	-12.0153
穹窿	-12.0153
朵	-12.0153
寮	-12.0153
拾遺	-12.0154
衣裳	-12.0154
御製	-12.0154
五氣朝元	-12.0154
竪	-12.0154
臉	-12.0155
髩	-12.0155
飢渴	-12.0155
考校	-12.0155
等忝列男身幸生中土	-12.0155
般般	-12.0156
棟宇	-12.0156
乖違	-12.0156
止火之候	-12.0156
㕑	-12.0156
矛	-12.0156
巴陵	-12.0156
白日飛昇	-12.0156
忤逆	-12.0156
伎倆	-12.0157
奥玅	-12.0157
委蛇	-12.0157
闕里	-12.0157
芬芳	-12.0157
矜憐	-12.0157
街亭	-12.0157
愚衷	-12.0157
歡欣	-12.0158
漢丞相諸葛忠武侯集卷之	-12.0158
稜	-12.0158
松栢	-12.0158
營衞	-12.0158
捩	-12.0158
管仲	-12.0158
玉蕊	-12.0158
飍	-12.0159
殀	-12.0159
戀戀	-12.0159
死砂	-12.0159
不知所終	-12.0159
誹	-12.0159
謹跋	-12.0159
纎塵	-12.0159
初八日	-12.016
金木水火	-12.016
忌諱	-12.0161
華嚴經云	-12.0161
伍子答曰	-12.0161
黃庭經云	-12.0161
北辰居	-12.0161
撘	-12.0162
桀紂	-12.0162
刺史	-12.0162
牛犬	-12.0162
拂袖	-12.0163
七十二候	-12.0163
獘	-12.0163
細玩	-12.0163
吞吐	-12.0163
培植	-12.0163
敬跋	-12.0163
章第十一	-12.0164
脈絡	-12.0164
孕育	-12.0164
眞一之氣	-12.0164
巵言	-12.0164
隂陽	-12.0164
廼	-12.0164
青羊	-12.0165
冷冷	-12.0165
數椽	-12.0166
約束	-12.0166
鑪鼎	-12.0166
吾儕	-12.0166
融和	-12.0166
證生方	-12.0166
緬惟	-12.0167
神君火府	-12.0167
狀十分	-12.0167
吝象曰	-12.0167
其中有精	-12.0168
鬼魅	-12.0169
金液大丹	-12.0169
煉虚	-12.017
讚詠	-12.017
無死地	-12.0171
險阻	-12.0171
阿羅	-12.0171
二十餘年	-12.0171
逆旅	-12.0171
遲速	-12.0171
秉燭	-12.0172
憶昔	-12.0172
塞其兌	-12.0172
比干	-12.0172
無無亦無	-12.0172
娑婆訶	-12.0173
嘉慶	-12.0173
蓮池	-12.0173
吟詩	-12.0173
須至牒者	-12.0173
視之不見	-12.0173
慈恩	-12.0176
石磴	-12.0176
碧霄	-12.0176
今而後	-12.0176
穗	-12.0176
烏兎	-12.0176
二生三	-12.0177
渾融	-12.0178
整齊	-12.0179
鄭氏	-12.0179
太尉	-12.0179
顏闔	-12.0179
塡還	-12.0179
禍患	-12.018
翠竹	-12.0181
其象爲	-12.0182
有淸濁	-12.0182
築室	-12.0183
斷句之	-12.0183
黃雀	-12.0183
紫芝	-12.0183
總握	-12.0184
警戒	-12.0185
科儀	-12.0187
穢濁	-12.0188
章第十三	-12.0189
延祥	-12.0189
監臨	-12.0189
十方界	-12.019
沖舉	-12.019
章第十二	-12.0191
玉帝慈悲	-12.0191
變化莫測	-12.0192
昭告	-12.0192
藥餌	-12.0192
[...]
