<unk>	0
<s>	0
</s>	0
/	-3.109
(	-3.58913
)	-3.70203
)(	-3.91455
之	-4.73628
以	-4.97455
也	-5.09406
為	-5.20706
而	-5.43848
有	-5.48806
者	-5.54409
増	-5.55881
於	-5.6443
日	-5.67489
其	-5.73399
一	-5.83184
上	-5.83429
不	-5.84407
曰	-5.91073
中	-5.91777
時	-5.9483
人	-5.94879
月	-6.00011
則	-6.01316
生	-6.01754
至	-6.02076
詩	-6.0209
大	-6.05285
春	-6.07273
如	-6.15622
水	-6.1592
三	-6.19169
子	-6.2264
出	-6.26629
原	-6.29736
天	-6.32417
行	-6.32478
在	-6.34476
秋	-6.37316
故	-6.38321
無	-6.39015
花	-6.39108
自	-6.39215
夜	-6.39759
作	-6.40412
增	-6.41109
下	-6.42728
及	-6.46591
皆	-6.4823
用	-6.49388
令	-6.50981
夏	-6.5144
與	-6.56684
二	-6.57125
山	-6.59467
此	-6.60224
見	-6.63505
所	-6.63685
五	-6.63974
王	-6.64038
冬	-6.64406
風	-6.6638
四	-6.66851
得	-6.67677
長	-6.67803
入	-6.68998
成	-6.69685
後	-6.70132
又	-6.7089
𫝊	-6.74427
方	-6.74635
注	-6.75568
事	-6.75974
取	-6.76112
乃	-6.76321
言	-6.76607
正	-6.77325
書	-6.77732
氣	-6.78604
云	-6.82767
陽	-6.82851
食	-6.83618
白	-6.84308
謂之	-6.86244
初	-6.87043
年	-6.87488
分	-6.88068
地	-6.88572
火	-6.8865
雨	-6.88677
即	-6.88687
謂	-6.88883
可	-6.89139
隂	-6.91323
始	-6.91634
小	-6.918
亦	-6.92026
賜	-6.9233
▁	-6.9243
金	-6.92464
道	-6.93218
名	-6.93675
當	-6.93819
扵	-6.94833
多	-6.96017
開	-6.96455
相	-6.98345
朝	-6.99072
數	-7.00356
石	-7.01074
嵗	-7.01941
是	-7.02304
常	-7.03463
新	-7.03845
酒	-7.04453
寒	-7.05099
九	-7.05782
元	-7.06036
神	-7.06375
使	-7.0727
法	-7.07283
南	-7.07574
前	-7.08041
雲	-7.08232
若	-7.08688
葉	-7.08819
復	-7.08974
木	-7.09061
明	-7.09702
去	-7.10496
已	-7.10752
官	-7.10957
門	-7.11339
黄	-7.11557
青	-7.11599
今	-7.11756
六	-7.12251
物	-7.12847
十	-7.13005
土	-7.1311
先	-7.13546
主	-7.13748
帝	-7.13856
起	-7.13907
文	-7.13962
和	-7.14162
内	-7.14923
東	-7.17706
詔	-7.185
種	-7.19042
註	-7.19562
節	-7.19874
命	-7.2003
過	-7.20593
或	-7.20838
立	-7.21426
公	-7.22271
從	-7.22293
同	-7.23369
草	-7.23389
玉	-7.23514
因	-7.23847
西	-7.24543
欲	-7.24617
香	-7.24631
宜	-7.25167
凡	-7.25411
合	-7.2585
焉	-7.26296
觀	-7.26496
未	-7.27251
傳	-7.27275
北	-7.29283
各	-7.29356
必	-7.29416
色	-7.30198
七	-7.30277
疏	-7.3056
光	-7.30622
家	-7.30707
臣	-7.30732
實	-7.31394
馬	-7.3171
矣	-7.32149
重	-7.324
樂	-7.32574
髙	-7.33298
平	-7.33552
心	-7.33761
清	-7.33781
置	-7.34965
諸	-7.35399
州	-7.3546
星	-7.36182
來	-7.36643
國	-7.37027
盡	-7.37812
將	-7.38148
龍	-7.39526
民	-7.39977
聲	-7.40333
知	-7.40794
熟	-7.40886
間	-7.41479
應	-7.41663
祭	-7.43186
還	-7.43199
八	-7.43355
通	-7.44023
魚	-7.44586
進	-7.44603
▁(	-7.45572
樹	-7.45704
占	-7.46141
收	-7.46417
經	-7.47037
然	-7.47164
禮	-7.47209
正月	-7.47563
衣	-7.47951
居	-7.48049
華	-7.48084
徳	-7.4867
每	-7.48743
周	-7.49569
歸	-7.49705
服	-7.5
宫	-7.50309
飛	-7.50711
百	-7.51442
候	-7.5182
李	-7.52449
田	-7.52712
外	-7.53293
来	-7.53646
遂	-7.53853
處	-7.54015
集	-7.54081
何	-7.55188
五月	-7.55241
宴	-7.5534
問	-7.55421
獻	-7.55544
殿	-7.57054
次	-7.58809
少	-7.58868
治	-7.58992
晝	-7.59006
既	-7.5909
等	-7.59529
聞	-7.59669
八月	-7.59853
坐	-7.60761
于	-7.61292
三月	-7.61426
盛	-7.61547
二月	-7.61619
御	-7.61699
張	-7.61718
歌	-7.61761
惟	-7.61775
定	-7.61896
賦	-7.61926
君	-7.62003
極	-7.62453
雪	-7.626
更	-7.63339
四時	-7.64168
頭	-7.64373
奏	-7.64907
記	-7.65497
能	-7.65647
本	-7.66023
飲	-7.66513
十月	-7.66904
林	-7.67249
止	-7.67364
嘗	-7.68107
望	-7.68156
安	-7.68431
似	-7.69173
女	-7.70107
兩	-7.70472
好	-7.7056
散	-7.71128
朔	-7.7119
九月	-7.71648
著	-7.73101
修	-7.73193
請	-7.73362
動	-7.73408
以為	-7.73442
四月	-7.7351
祀	-7.73721
乾	-7.73909
辰	-7.74123
舉	-7.74294
景	-7.74889
原禮	-7.75019
縣	-7.75163
七月	-7.75474
㑹	-7.76353
甚	-7.76527
十二月	-7.77352
首	-7.78162
非	-7.78941
滿	-7.79275
逺	-7.79339
度	-7.79384
城	-7.79767
餘	-7.79868
半	-7.80412
歴	-7.80539
萬	-7.80578
祠	-7.80777
直	-7.81143
象	-7.82477
士	-7.82654
六月	-7.83015
近	-7.83017
江	-7.83067
設	-7.83167
學	-7.83246
陳	-7.83538
廣	-7.83787
臨	-7.84018
登	-7.84246
就	-7.84318
師	-7.84744
字	-7.8475
别	-7.84784
早	-7.84995
幸	-7.85122
落	-7.85586
志	-7.86332
對	-7.86375
奉	-7.86613
向	-7.8676
流	-7.87191
制	-7.87835
興	-7.88229
鳴	-7.88354
會	-7.88851
降	-7.89306
宿	-7.89509
思	-7.90137
衆	-7.90371
畢	-7.90434
𤼵	-7.90642
海	-7.90666
終	-7.90755
猶	-7.91133
雖	-7.914
仙	-7.91529
泉	-7.91547
身	-7.91583
建	-7.91648
閏	-7.9191
老	-7.91922
臺	-7.92057
造	-7.92183
古	-7.92439
爲	-7.9245
齊	-7.92583
赤	-7.92824
深	-7.93044
鳥	-7.93356
我	-7.93463
刻	-7.93695
河	-7.94117
池	-7.9432
高	-7.94488
一日	-7.94673
漢	-7.94702
寳	-7.94965
曲	-7.9512
母	-7.9514
歲	-7.95289
十二	-7.95306
具	-7.95568
暮	-7.95651
廟	-7.95972
麥	-7.97061
乎	-7.97073
莭	-7.97102
紅	-7.97298
三日	-7.97465
照	-7.97701
萬物	-7.97705
異	-7.97978
霜	-7.98051
送	-7.98228
耳	-7.98401
變	-7.98555
空	-7.98752
逰	-7.98892
兮	-7.98896
竹	-7.98936
客	-7.99015
唐	-7.99224
聖	-7.9933
太	-7.99587
布	-7.99621
獨	-7.99935
足	-8.00084
藏	-8.00138
熱	-8.00339
歳	-8.00433
加	-8.00772
親	-8.0084
共	-8.00862
善	-8.0107
将	-8.01547
受	-8.02073
増本草綱目	-8.02277
堂	-8.02802
易	-8.0299
府	-8.03132
冬至	-8.03146
燈	-8.03871
毎	-8.03933
勝	-8.04259
喜	-8.04346
交	-8.04371
封	-8.04496
夢	-8.0496
隨	-8.05049
舊	-8.05479
十一月	-8.05641
紀	-8.05647
意	-8.05771
位	-8.05819
蠶	-8.06373
眀	-8.06414
序	-8.06503
列	-8.06799
采	-8.06905
靈	-8.06919
武	-8.07054
求	-8.07164
寺	-8.07405
根	-8.07533
且	-8.07542
都	-8.07553
車	-8.07589
兵	-8.07601
梁	-8.07628
貴	-8.07836
世	-8.07903
千	-8.08144
甲	-8.08265
伏	-8.08398
細	-8.08593
錢	-8.09215
宗	-8.09226
天下	-8.09398
角	-8.09452
轉	-8.09659
輕	-8.09682
宋	-8.09882
市	-8.10441
遇	-8.1052
室	-8.10537
便	-8.11385
期	-8.11558
牛	-8.11563
枝	-8.11672
召	-8.11689
申	-8.11962
夕	-8.12139
章	-8.13059
司	-8.13062
畫	-8.13096
微	-8.13165
露	-8.13401
發	-8.13579
所以	-8.13981
燕	-8.13984
疾	-8.14108
雜	-8.14153
連	-8.14346
禁	-8.14371
五日	-8.14685
採	-8.14838
舞	-8.14867
紫	-8.14908
除	-8.15069
形	-8.15198
稱	-8.15322
迎	-8.15363
化	-8.15411
引	-8.15478
劉	-8.15487
遊	-8.15626
語	-8.16292
試	-8.16311
備	-8.16394
雷	-8.16457
目	-8.16638
果	-8.17083
晚	-8.17861
結	-8.18332
致	-8.18416
留	-8.18491
耕	-8.18582
解	-8.18866
視	-8.19005
信	-8.19011
雞	-8.19178
史	-8.19568
鼓	-8.20192
晴	-8.20225
米	-8.20582
尚	-8.2076
苦	-8.20961
拜	-8.21006
旦	-8.21139
掌	-8.2115
午	-8.21296
蓋	-8.21524
義	-8.21637
夫	-8.21759
氏	-8.22013
佛	-8.22243
野	-8.22459
良	-8.2247
羣	-8.22694
乗	-8.22763
三年	-8.22799
左	-8.22849
手	-8.23433
口	-8.24035
盖	-8.24143
射	-8.24391
教	-8.24403
温	-8.24433
真	-8.24863
律	-8.25099
羅	-8.25473
移	-8.25571
莫	-8.26143
豆	-8.26152
隂陽	-8.26202
吏	-8.26229
天子	-8.26564
看	-8.26611
再	-8.26761
絶	-8.2691
郊	-8.27188
桃	-8.27252
忽	-8.27324
並	-8.27699
號	-8.27738
皮	-8.28067
郡	-8.28187
随	-8.28572
率	-8.28889
俗	-8.28911
改	-8.29047
守	-8.29066
燭	-8.30066
暑	-8.30365
省	-8.30515
條	-8.30679
路	-8.30753
謝	-8.30833
薄	-8.30896
日月	-8.30911
軍	-8.30946
圖	-8.30997
俱	-8.31497
澤	-8.3163
體	-8.31632
但	-8.31858
七日	-8.31926
表	-8.3198
冰	-8.32106
給	-8.32426
吉	-8.32436
庭	-8.32693
里	-8.32929
論	-8.33027
丹	-8.3345
難	-8.33594
選	-8.33731
九日	-8.33759
末	-8.33846
放	-8.34002
録	-8.34047
告	-8.3426
不可	-8.34504
瑞	-8.34645
授	-8.34716
政	-8.34822
梅	-8.34822
農	-8.35133
閣	-8.3538
儀	-8.35419
氷	-8.35494
之時	-8.35605
𩔖	-8.35779
晝夜	-8.36028
右	-8.3607
晨	-8.36378
許	-8.36773
莖	-8.37095
榖	-8.37122
卷	-8.37172
醉	-8.37333
説	-8.37448
祖	-8.37599
晉	-8.37602
錄	-8.37677
懐	-8.37716
咸	-8.38278
齋	-8.38441
急	-8.38526
往	-8.38554
聚	-8.3861
精	-8.39157
慶	-8.39237
肉	-8.39279
御製	-8.3938
執	-8.39434
菜	-8.39452
樓	-8.39509
天地	-8.39757
卿	-8.3985
亭	-8.40034
美	-8.40526
宣	-8.40569
房	-8.40771
息	-8.40784
養	-8.40799
臘	-8.41013
名曰	-8.41435
考	-8.4154
推	-8.41643
珠	-8.41779
蟲	-8.41984
載	-8.42647
願	-8.42823
理	-8.42951
嚴	-8.43055
容	-8.43071
絲	-8.43288
力	-8.43344
益	-8.43353
持	-8.43361
永	-8.43395
陰	-8.43583
比	-8.43599
毛	-8.43676
漸	-8.44156
桑	-8.44342
藥	-8.44399
社	-8.44733
薦	-8.44871
面	-8.44925
積	-8.45008
素	-8.45087
含	-8.4515
黒	-8.45208
斗	-8.45304
僧	-8.4541
可以	-8.45422
刑	-8.45564
二十	-8.45696
吹	-8.45766
依	-8.45842
㣲	-8.45905
冷	-8.45998
竝	-8.46014
旱	-8.46092
斷	-8.46097
遣	-8.46105
要	-8.46253
懸	-8.46309
屋	-8.46397
二年	-8.46595
井	-8.46765
卜	-8.4716
一名	-8.47211
曉	-8.47521
離	-8.47767
春秋	-8.478
故曰	-8.47991
任	-8.4804
勞	-8.481
鄉	-8.4824
呼	-8.48369
罷	-8.49133
到	-8.49175
符	-8.49716
利	-8.49899
性	-8.50062
吾	-8.50267
施	-8.50348
功	-8.50374
失	-8.50467
園	-8.50468
蘭	-8.50558
裏	-8.50658
皇帝	-8.5067
甘	-8.50681
察	-8.50695
皇	-8.51219
辭	-8.51311
寅	-8.51323
浮	-8.51822
屬	-8.52109
久	-8.52288
悉	-8.5234
厯	-8.52502
覆	-8.52536
草木	-8.5285
羽	-8.52894
影	-8.53024
十日	-8.53036
接	-8.53267
湯	-8.53485
羊	-8.53544
納	-8.54095
陵	-8.54121
豐	-8.54194
詣	-8.54268
虎	-8.54281
帶	-8.54617
立春	-8.54619
菊	-8.55229
覺	-8.55381
碧	-8.55406
報	-8.55531
孫	-8.55739
蔵	-8.55927
夏至	-8.56
朕	-8.56001
溪	-8.56174
仁	-8.56478
芳	-8.56528
計	-8.5674
嘉	-8.56857
須	-8.56887
賢	-8.56894
歩	-8.56974
運	-8.57019
待	-8.57109
延	-8.57191
元日	-8.57387
端	-8.57387
調	-8.57684
扇	-8.57817
之日	-8.57897
仍	-8.58001
朱	-8.5804
榮	-8.58054
飯	-8.58242
茂	-8.58285
筆	-8.58911
順	-8.58925
退	-8.59077
并	-8.59114
承	-8.59133
器	-8.59262
詞	-8.59299
稻	-8.59311
茶	-8.59408
然後	-8.59525
泥	-8.59652
兼	-8.59655
歡	-8.60666
惡	-8.60692
敬	-8.60729
原淮南子	-8.60785
厚	-8.60908
指	-8.61033
二日	-8.61069
食之	-8.61228
夀	-8.61234
議	-8.61678
殺	-8.61728
情	-8.62017
按	-8.6211
音	-8.62271
上元	-8.6231
院	-8.62744
不得	-8.62884
尊	-8.62945
侯	-8.633
升	-8.63302
翠	-8.63351
感	-8.63449
垂	-8.63473
繁	-8.63614
涼	-8.63632
壇	-8.63695
於是	-8.6398
味	-8.64651
酉	-8.64767
昭	-8.64948
麻	-8.6496
戌	-8.6539
不知	-8.65635
賞	-8.6571
魏	-8.65827
工	-8.65847
郎	-8.65979
聼	-8.66175
雙	-8.66194
鏡	-8.66209
橋	-8.66251
休	-8.66317
戒	-8.67117
増齊民要術	-8.67249
驚	-8.67296
盤	-8.67594
笑	-8.67634
波	-8.67761
駕	-8.6825
谷	-8.68415
宮	-8.68619
栁	-8.68816
遺	-8.68845
却	-8.69081
粟	-8.69154
總	-8.69155
破	-8.69198
凉	-8.69481
勿	-8.70064
燒	-8.70095
閒	-8.70307
被	-8.70375
側	-8.70423
兒	-8.7043
遲	-8.70514
孝	-8.70894
爾	-8.70915
緑	-8.71345
短	-8.71373
讀	-8.71401
管	-8.71634
漏	-8.71689
供	-8.71925
尾	-8.71926
亥	-8.72035
盈	-8.7204
一月	-8.72226
常以	-8.72231
代	-8.72506
尋	-8.72557
沙	-8.72592
典	-8.72629
紙	-8.72789
幽	-8.72826
崇	-8.72941
旗	-8.73112
助	-8.73118
唯	-8.7355
病	-8.73599
舍	-8.73605
静	-8.73795
不能	-8.74089
昔	-8.74117
忌	-8.7427
仲	-8.74323
𤓰	-8.74355
英	-8.74639
宻	-8.74756
騎	-8.75173
潤	-8.75322
鶴	-8.75415
圓	-8.75502
舟	-8.75766
左右	-8.75818
烟	-8.76001
獲	-8.76035
箭	-8.76091
商	-8.76145
監	-8.76285
卧	-8.76288
消	-8.7642
晦	-8.76523
昏	-8.76551
參	-8.76604
陽氣	-8.77242
傷	-8.77282
暖	-8.77627
増玉海	-8.77786
棗	-8.77871
講	-8.7791
秀	-8.77982
秦	-8.77983
趙	-8.78173
侍	-8.78537
户	-8.79037
虚	-8.79067
卯	-8.79255
三十	-8.79415
蛇	-8.79485
霧	-8.79521
原夏小正	-8.79593
葢	-8.79674
務	-8.7979
業	-8.80083
邊	-8.80606
十五日	-8.80893
松	-8.80897
死	-8.80974
特	-8.81003
殘	-8.81023
戸	-8.81191
楚	-8.81504
中有	-8.81703
従	-8.81741
逐	-8.81972
竒	-8.82031
穴	-8.82046
第	-8.82065
鼔	-8.82318
德	-8.82398
揚	-8.8269
之後	-8.82717
補	-8.82767
亂	-8.82854
編	-8.82872
愛	-8.82915
㸃	-8.83186
一人	-8.83331
灰	-8.83354
苗	-8.83513
之所	-8.83688
戲	-8.83825
顧	-8.83954
獸	-8.83977
洞	-8.84018
禾	-8.84051
枯	-8.84342
錦	-8.84351
部	-8.84391
黑	-8.84718
冠	-8.84752
徧	-8.8476
綠	-8.84874
濕	-8.8488
之中	-8.84897
百官	-8.84974
毋	-8.84995
統	-8.85001
丁	-8.85027
窮	-8.85337
塞	-8.85431
適	-8.85641
飬	-8.85799
汝	-8.85834
寧	-8.85926
凍	-8.85932
約	-8.85947
湖	-8.86003
天道	-8.8603
減	-8.86088
蓮	-8.86178
辟	-8.86188
元年	-8.86237
念	-8.86265
為之	-8.86436
而不	-8.8646
洗	-8.86478
父	-8.86538
才	-8.86583
從之	-8.86823
稍	-8.86867
辛	-8.86897
季	-8.87148
五色	-8.87253
銀	-8.87275
祝	-8.8745
全	-8.87459
震	-8.87689
觧	-8.87773
回	-8.87779
鹽	-8.88396
賀	-8.88442
川	-8.88539
庚	-8.88592
甲子	-8.88616
原詩	-8.88633
昌	-8.8895
貢	-8.88985
席	-8.89016
差	-8.89059
壁	-8.89135
堅	-8.89377
閑	-8.89381
肥	-8.89405
宅	-8.89454
最	-8.89566
簡	-8.8963
東方	-8.89632
班	-8.90037
一年	-8.90091
背	-8.90136
呉	-8.90299
京師	-8.90371
恐	-8.90418
冬月	-8.90778
製	-8.90929
乞	-8.90976
蒼	-8.91063
曰此	-8.9108
固	-8.91182
麗	-8.91231
索	-8.91237
船	-8.91262
予	-8.91271
四年	-8.91345
卦	-8.91369
京	-8.91503
八日	-8.9151
太白	-8.91669
盆	-8.91819
者也	-8.91869
闕	-8.92046
楊	-8.92208
春分	-8.92225
婦	-8.92294
職	-8.92601
西南	-8.92801
烏	-8.92848
吐	-8.92913
斜	-8.92955
斯	-8.92958
逹	-8.92999
徴	-8.93058
密	-8.93106
穀	-8.93298
十六日	-8.93616
坤	-8.93832
詔曰	-8.93947
籍	-8.94129
學士	-8.94151
閉	-8.94409
鬼	-8.94456
潮	-8.94683
乘	-8.94716
孔	-8.94887
凝	-8.94892
恩	-8.94912
旁	-8.95226
越	-8.95272
如此	-8.9534
蒸	-8.95844
停	-8.95865
像	-8.95999
寄	-8.96184
殊	-8.96201
不見	-8.9625
五年	-8.96383
汁	-8.96423
是日	-8.96462
織	-8.96487
衛	-8.96512
驗	-8.9657
振	-8.96598
蘇	-8.96606
眼	-8.96626
争	-8.96671
戰	-8.96684
拂	-8.96686
丑	-8.96698
鄭	-8.96734
清明	-8.96904
旬	-8.96922
□	-8.97696
故事	-8.9774
十八日	-8.9777
后	-8.97885
銅	-8.98074
者為	-8.98084
徃	-8.98139
關	-8.98194
尤	-8.98201
郭	-8.9822
寒食	-8.98266
均	-8.98277
賣	-8.98388
綵	-8.98408
輪	-8.98472
福	-8.98556
骨	-8.9858
横	-8.98646
春夏	-8.98687
濟	-8.98822
羣臣	-8.98991
鐘	-8.99025
四方	-8.99053
夫人	-8.99229
庶	-8.99268
風雨	-8.9928
鳳	-8.99503
折	-8.99518
吳	-8.99531
鎮	-8.998
伯	-8.9991
由	-8.99978
月令	-9.00169
輙	-9.00245
館	-9.00319
蜀	-9.00319
營	-9.00379
衡	-9.00428
配	-9.00455
繞	-9.00499
浸	-9.00534
遷	-9.00596
南方	-9.00829
肅	-9.00832
龜	-9.01155
収	-9.01286
魯	-9.01431
蜜	-9.01522
十二日	-9.01663
胡	-9.01718
閏月	-9.01935
煮	-9.01964
岸	-9.0203
履	-9.02194
繼	-9.02279
界	-9.02371
吟	-9.02419
桂	-9.02469
環	-9.02583
柔	-9.02596
享	-9.03057
習	-9.03105
孟	-9.03122
遍	-9.03496
題	-9.0351
圍	-9.0368
仰	-9.03747
誰	-9.03763
湏	-9.03943
油	-9.04411
旋	-9.04424
唱	-9.04455
炊	-9.04509
傾	-9.04583
走	-9.04801
十三日	-9.04819
太守	-9.05103
暴	-9.05135
穿	-9.05199
尺	-9.05258
有司	-9.05786
一嵗	-9.05813
甕	-9.05942
四日	-9.05965
詩云	-9.06023
十四日	-9.06106
植	-9.06364
聽	-9.0639
爵	-9.06394
饗	-9.06394
校	-9.06399
舒	-9.06446
太宗	-9.06527
殷	-9.0659
赴	-9.06601
科	-9.06604
啟	-9.06605
三十日	-9.06757
避	-9.0694
十五	-9.0716
謹	-9.07183
筍	-9.08021
祥	-9.08059
七月七日	-9.08175
勤	-9.08206
瓜	-9.08446
質	-9.08538
逢	-9.08549
暗	-9.08589
晩	-9.08635
反	-9.08775
存	-9.08912
叢	-9.08991
尚書	-9.09037
續	-9.09089
資	-9.09096
豈	-9.09102
西北	-9.09198
諸侯	-9.0927
苑	-9.09455
充	-9.09622
出入	-9.09758
麴	-9.09972
至於	-9.10222
荷	-9.10495
富	-9.10532
仗	-9.10563
保	-9.10606
獵	-9.1073
柳	-9.10754
程	-9.10768
畧	-9.10778
十四	-9.1088
之以	-9.11077
之事	-9.11216
投	-9.11323
物候	-9.11418
之氣	-9.1163
鳯	-9.11641
映	-9.11691
預	-9.1174
丸	-9.11826
宵	-9.11833
秋冬	-9.11928
上下	-9.11954
辨	-9.12017
他	-9.12114
康	-9.12473
塵	-9.12721
杜	-9.12724
煎	-9.12739
之間	-9.12777
恒	-9.12819
印	-9.12859
彼	-9.12866
廢	-9.12881
徐	-9.12923
進士	-9.13107
明日	-9.13372
句	-9.13391
狀	-9.13397
仲春	-9.13626
虞	-9.13999
澄	-9.14016
民用	-9.14088
春風	-9.1414
假	-9.14265
黍	-9.14329
苖	-9.14433
術	-9.1444
廵	-9.14788
丙	-9.14912
博	-9.14939
韓	-9.14952
滅	-9.14967
夏月	-9.14983
憂	-9.15012
琴	-9.1509
疑	-9.15106
鮮	-9.1516
頌	-9.15161
啓	-9.15211
徑	-9.15269
宰相	-9.15305
枕	-9.15397
而後	-9.15477
占驗	-9.15534
腹	-9.1578
江南	-9.15916
上有	-9.16029
機	-9.16776
愈	-9.16844
翼	-9.17018
隔	-9.17184
愁	-9.17192
嶺	-9.17211
輿	-9.17248
害	-9.17314
橘	-9.17325
立秋	-9.17354
卒	-9.17378
鼎	-9.17387
蘇軾	-9.17396
每月	-9.17435
沈	-9.17441
齒	-9.17462
崔	-9.17466
剛	-9.17569
北方	-9.17628
壬	-9.17976
頒	-9.17983
東北	-9.17983
而生	-9.18007
圗	-9.18475
所謂	-9.18573
競	-9.18815
寝	-9.18953
帛	-9.18991
邪	-9.19114
六日	-9.1919
擊	-9.19277
兹	-9.19285
十三	-9.19352
禽	-9.19472
釋	-9.19472
遥	-9.19533
眠	-9.19617
疎	-9.19697
敕	-9.19714
曽	-9.19777
竭	-9.19783
據	-9.19801
遠	-9.19828
識	-9.19844
大小	-9.20074
示	-9.20341
原選擇歴書	-9.20676
而出	-9.20832
戴	-9.20842
佐	-9.2101
佳	-9.2116
祈	-9.21301
生於	-9.21444
賔	-9.21507
罪	-9.21507
團	-9.21972
棲	-9.22037
羙	-9.22048
盧	-9.22094
擇	-9.22114
蟄	-9.2215
煖	-9.2216
以上	-9.2218
坎	-9.22225
領	-9.22321
政典	-9.22433
雜紀	-9.22555
五行	-9.22575
葉似	-9.22867
長安	-9.2316
秋分	-9.23435
珍	-9.23506
真人	-9.23622
白居易	-9.23701
東南	-9.23729
二十五日	-9.23819
塗	-9.23864
門外	-9.24063
邑	-9.24178
十一日	-9.24186
忘	-9.24227
孤	-9.24323
墨	-9.24385
艾	-9.24478
用之	-9.24484
染	-9.24508
津	-9.24532
規	-9.24583
黄帝	-9.24666
劍	-9.24899
前後	-9.25139
篇	-9.25223
勸	-9.25777
役	-9.26044
千里	-9.26274
諺云	-9.26393
霞	-9.26462
巖	-9.2662
否	-9.26649
材	-9.26917
綿	-9.2695
丘	-9.26968
勅	-9.26979
集説	-9.27017
抱	-9.27018
訪	-9.27022
韻	-9.27025
二十日	-9.27053
雍	-9.27106
綴	-9.27167
霜降	-9.27378
雨水	-9.27654
先生	-9.2776
竟	-9.27881
帳	-9.28248
大寒	-9.28281
損	-9.28347
乆	-9.28361
状	-9.28481
原書	-9.28518
葵	-9.28767
其中	-9.2877
訖	-9.28865
晋	-9.28921
二十三日	-9.28951
翻	-9.29136
畏	-9.29161
粥	-9.29165
鹿	-9.29229
立夏	-9.2923
干	-9.2924
堪	-9.29311
災	-9.29459
淺	-9.29469
核	-9.29469
值	-9.29483
陣	-9.29491
軒	-9.29548
貫	-9.29602
寛	-9.29612
威	-9.29613
惠	-9.29619
余	-9.29685
覽	-9.29696
每嵗	-9.30351
品	-9.30401
夜半	-9.30648
賦詩	-9.30687
繫	-9.31249
種之	-9.31323
盛夏	-9.31383
增齊民要術	-9.3164
淡	-9.31649
隠	-9.31739
不及	-9.31779
刺	-9.31901
大如	-9.31905
哉	-9.31931
束	-9.3198
徹	-9.32067
禱	-9.32102
増名勝志	-9.32141
而已	-9.32154
陶	-9.32175
顯	-9.32182
隐	-9.32205
征	-9.32243
詠	-9.32275
買	-9.32281
衰	-9.32312
偶	-9.32343
百姓	-9.32343
畜	-9.32473
於此	-9.32577
道士	-9.32728
以下	-9.32767
十九日	-9.32957
日中	-9.33083
者以	-9.3309
小兒	-9.33353
令人	-9.33381
姓	-9.33755
二十九日	-9.34064
東西	-9.34233
槐	-9.34282
炎	-9.34469
牀	-9.34565
牲	-9.34568
附	-9.34666
重陽	-9.34685
十七日	-9.34706
餅	-9.34707
牡丹	-9.34729
閲	-9.34733
十一	-9.34776
粉	-9.34781
浄	-9.34801
倍	-9.34809
淮	-9.34812
案	-9.34843
夜則	-9.3485
披	-9.34876
揷	-9.34953
階	-9.34977
追	-9.34988
偏	-9.34992
箋	-9.34996
泰	-9.35089
髙祖	-9.35214
用事	-9.35597
吕	-9.35913
一時	-9.36051
人家	-9.36146
不敢	-9.36177
伐	-9.36195
底	-9.36454
刀	-9.36495
以其	-9.36537
鍾	-9.36689
六年	-9.36972
催	-9.37272
蕭	-9.37295
荒	-9.37319
雀	-9.37346
負	-9.37352
戊	-9.37379
私	-9.3744
倉	-9.37455
渡	-9.37615
沉	-9.3763
今年	-9.37673
竊	-9.37686
曹	-9.37704
馳	-9.37706
毒	-9.37713
坊	-9.37733
虛	-9.37748
爰	-9.37756
暢	-9.37797
玩	-9.37844
耀	-9.37846
克	-9.3786
飾	-9.37967
䟽	-9.38123
頃	-9.38268
童	-9.38372
築	-9.38389
日出	-9.38528
說	-9.38634
栽	-9.38904
立冬	-9.38996
免	-9.39213
貯	-9.39226
巳	-9.3932
糞	-9.39367
帯	-9.39459
夘	-9.39791
杖	-9.39951
吴	-9.39975
杯	-9.40023
切	-9.40092
太平	-9.40189
明堂	-9.40219
爛	-9.40248
睡	-9.40248
桐	-9.4027
两	-9.4033
亦有	-9.40466
翔	-9.40476
竿	-9.40478
限	-9.40518
乙	-9.40518
鳩	-9.40531
緩	-9.40566
鴈	-9.40569
單	-9.40593
碎	-9.40605
之法	-9.40608
瓊	-9.40619
陸	-9.40628
擁	-9.40631
憶	-9.40631
漿	-9.40647
恭	-9.40657
水中	-9.40746
太常	-9.40871
三月三日	-9.40921
頂	-9.40921
栗	-9.41005
是也	-9.41119
之𩔖	-9.41205
西方	-9.41346
所在	-9.41374
婦人	-9.416
銘	-9.417
敢	-9.4172
服之	-9.41758
可食	-9.41865
曰吾	-9.42146
貞	-9.42207
蒲	-9.42208
明皇	-9.42371
只	-9.42477
卵	-9.42715
二十八日	-9.42927
讀書	-9.42927
揺	-9.42942
十年	-9.43049
革	-9.43062
育	-9.43081
掩	-9.43155
㡬	-9.43295
純	-9.43382
鵲	-9.43411
妙	-9.43418
撰	-9.43433
繡	-9.43454
雅	-9.43505
牙	-9.43512
曜	-9.43555
暫	-9.43556
亡	-9.43573
强	-9.43596
斂	-9.43603
䧏	-9.43609
傍	-9.43623
鷹	-9.43636
寫	-9.43646
白露	-9.43747
之初	-9.43761
視之	-9.43807
者謂	-9.44022
明年	-9.44106
一曰	-9.44123
季秋	-9.44168
大夫	-9.44287
是月	-9.44301
芝	-9.44347
三時	-9.44405
其日	-9.44552
之地	-9.44785
宫中	-9.44987
南郊	-9.45077
量	-9.45212
十六	-9.45467
冬夏	-9.45516
之屬	-9.45563
洲	-9.45588
頓	-9.4561
産	-9.45794
籠	-9.4594
街	-9.46077
壽	-9.46087
住	-9.46168
御史	-9.46172
峯	-9.46256
忠	-9.46266
宰臣	-9.46317
循	-9.46389
䑕	-9.46401
梨	-9.46422
幾	-9.46501
人神	-9.46524
七夕	-9.46537
巨	-9.46569
響	-9.46617
戎	-9.46632
季冬	-9.46638
増唐㑹要	-9.46683
四月八日	-9.46821
太學	-9.46846
曾	-9.46991
故也	-9.47331
太陽	-9.47339
七年	-9.47472
之曰	-9.47572
故謂之	-9.47579
族	-9.47779
五榖	-9.47781
大雪	-9.4781
季夏	-9.47963
剪	-9.48031
有一	-9.48036
顔	-9.484
弦	-9.48856
頗	-9.48923
也言	-9.48977
宇	-9.49006
杏	-9.49033
融	-9.49176
今日	-9.49203
彌	-9.49267
累	-9.49324
雁	-9.49347
虹	-9.49415
二十一日	-9.49467
中央	-9.49495
潔	-9.495
遣使	-9.49512
簾	-9.49537
淵	-9.49556
浴	-9.49568
煑	-9.49578
燥	-9.49579
鑄	-9.49581
算	-9.49583
頻	-9.49613
天之	-9.49632
輦	-9.49657
輒	-9.49662
誠	-9.4967
權	-9.49689
添	-9.49691
委	-9.49698
𢎞	-9.49725
整	-9.49728
炭	-9.49733
效	-9.49738
而去	-9.49876
端午	-9.49911
二十四日	-9.49951
孟春	-9.50047
王者	-9.50121
荆	-9.50231
此時	-9.50416
之月	-9.50669
績	-9.50679
彩	-9.50735
二十六日	-9.50812
輝	-9.50868
增玉海	-9.50892
賜宴	-9.50916
隂氣	-9.51217
飲食	-9.51325
不足	-9.51505
芽	-9.51561
増農政全書	-9.51669
開元	-9.51671
賤	-9.51729
取之	-9.51884
増淮南子	-9.51897
謁	-9.52125
自是	-9.52312
寒暑	-9.52317
曝	-9.52367
僕	-9.52372
輔	-9.52448
洛	-9.52525
縱	-9.52661
是為	-9.52699
巧	-9.52711
探	-9.52734
壯	-9.52736
㸔	-9.52768
膏	-9.5277
呈	-9.52771
飄	-9.52772
文武	-9.52792
㨗	-9.52814
䇿	-9.5282
廻	-9.52825
薑	-9.52829
麟	-9.52833
觸	-9.52837
雄	-9.52848
傅	-9.52865
署	-9.52867
囊	-9.52881
絹	-9.52894
瓶	-9.52905
招	-9.52913
厲	-9.52914
増酉陽雜俎	-9.52947
幕	-9.52956
旅	-9.52966
雉	-9.5297
韭	-9.5299
驚蟄	-9.52997
癸	-9.53202
碑	-9.53263
朝夕	-9.53273
䝉	-9.53422
遊方	-9.53481
九月九日	-9.5361
火候	-9.53819
防	-9.53865
維	-9.5399
原禮是月也	-9.54153
飲酒	-9.542
是謂	-9.54322
呼為	-9.5457
妻	-9.5472
十二時	-9.54734
式	-9.54825
故以	-9.5483
乳	-9.55002
打	-9.55022
不同	-9.55055
増詩	-9.55127
患	-9.55274
聖人	-9.5529
座	-9.55347
蟬	-9.55455
舜	-9.55479
片	-9.55527
有餘	-9.556
韋	-9.55754
三百	-9.55817
時也	-9.55843
椒	-9.55864
爐	-9.55891
雞鳴	-9.55918
禹	-9.56003
取其	-9.56025
煙	-9.56033
萌	-9.56073
蔡	-9.56075
決	-9.56096
格	-9.56103
犯	-9.56124
絳	-9.56143
増水經注	-9.56151
驅	-9.56154
避暑	-9.56172
増雲笈七籖	-9.56184
倒	-9.56231
范	-9.56233
絃	-9.56233
荔枝	-9.56254
裘	-9.56261
架	-9.56265
蓬	-9.5629
潛	-9.56296
練	-9.56308
勒	-9.56336
濃	-9.56356
武帝	-9.56416
幹	-9.56434
神仙	-9.56563
九年	-9.5689
徒	-9.57186
上曰	-9.57189
二十七日	-9.57328
丞相	-9.57361
時有	-9.57619
中氣	-9.57761
不復	-9.57799
渚	-9.57968
太祖	-9.58006
開花	-9.58133
慈	-9.58144
枚	-9.58161
土人	-9.5839
導	-9.587
丈	-9.5875
速	-9.58779
夏日	-9.58821
誕	-9.5896
五更	-9.58993
之言	-9.58999
脚	-9.59
掘	-9.59046
詳	-9.59148
再拜	-9.59172
例	-9.59178
夷	-9.59291
饑	-9.59326
繩	-9.59391
故云	-9.59394
獄	-9.59451
壺	-9.59454
友	-9.59459
佩	-9.59472
扶	-9.59556
各有	-9.5956
掃	-9.59604
阿	-9.59607
撫	-9.59609
贊	-9.59627
饒	-9.59643
怨	-9.59647
徵	-9.59667
騰	-9.59686
縁	-9.59698
達	-9.59703
諭	-9.59703
肺	-9.59727
諸州	-9.59743
鬱	-9.59749
協	-9.59755
穫	-9.59755
境	-9.59755
者皆	-9.59784
脱	-9.59797
厥	-9.59799
之上	-9.5996
之則	-9.60204
禮畢	-9.6068
怪	-9.60684
禁中	-9.6083
一斗	-9.60907
黄色	-9.61277
鸞	-9.61318
員	-9.61403
屢	-9.61782
人間	-9.61956
自然	-9.61988
君子	-9.62076
也注	-9.62169
皆以	-9.62308
属	-9.62344
寢	-9.62429
霽	-9.62509
又曰	-9.6266
丞	-9.62688
五月五日	-9.62759
凌	-9.62837
豫	-9.62873
蜂	-9.63028
叔	-9.63143
允	-9.63153
貨	-9.63189
不出	-9.63204
付	-9.63207
夾	-9.6321
滋	-9.63233
織女	-9.63255
警	-9.63257
哀	-9.6327
屈	-9.63273
鋤	-9.63288
是以	-9.63297
犬	-9.63325
弱	-9.63341
裁	-9.63357
原參同契朝	-9.63368
敎	-9.63409
裂	-9.63436
北斗	-9.63533
長短	-9.63634
對曰	-9.63665
仲秋	-9.63985
四時之	-9.64026
仙人	-9.64153
十餘	-9.64202
子孫	-9.64296
也者	-9.64329
皆有	-9.64749
迎春	-9.64967
杜甫	-9.65291
也故	-9.65308
隂乾	-9.65675
刺史	-9.65906
其實	-9.65927
羞	-9.65948
大雨	-9.66084
西域	-9.66434
祗	-9.66526
藝	-9.66563
榖雨	-9.66575
暉	-9.66647
歎	-9.66736
瞻	-9.66763
鑿	-9.66766
禄	-9.6677
鐵	-9.66821
銜	-9.66843
姑	-9.66844
帥	-9.66847
帷	-9.6685
違	-9.66887
賈	-9.66893
牽牛	-9.66894
儒	-9.66896
擬	-9.66906
潭	-9.66913
弓	-9.66937
觴	-9.66947
靜	-9.66952
捧	-9.66961
蕩	-9.66967
活	-9.66978
墜	-9.66979
趨	-9.66984
增本草綱目	-9.67002
躍	-9.67012
錫	-9.67014
借	-9.67019
甲寅	-9.67035
網	-9.67035
芒種	-9.67049
寶	-9.67063
肝	-9.67071
其上	-9.67113
桃花	-9.67403
二百	-9.67476
一尺	-9.67484
支	-9.67797
四海	-9.68056
立春日	-9.68127
梅花	-9.68153
之神	-9.68309
爽	-9.68353
二人	-9.68453
女子	-9.6873
衣服	-9.68795
之道	-9.68805
翁	-9.68977
晦日	-9.68994
十八	-9.69179
濶	-9.69197
季春	-9.69208
泛	-9.69242
豐年	-9.6947
隆	-9.6949
故名	-9.69731
六十	-9.69735
兆	-9.69841
之義	-9.69885
艮	-9.70202
岳	-9.70267
㫖	-9.70299
數十	-9.70329
竈	-9.70423
澗	-9.70431
蠟	-9.70477
村	-9.70492
五十	-9.70497
課	-9.70529
簿	-9.70617
談	-9.70617
逸	-9.70637
淨	-9.70658
磨	-9.7067
灌	-9.70687
髪	-9.70691
竅	-9.70714
焦	-9.70721
中秋	-9.70739
液	-9.70745
物也	-9.70755
逆	-9.7078
夲	-9.70811
零	-9.70816
趣	-9.70831
蘂	-9.70833
愆	-9.70844
壓	-9.70848
併	-9.70852
䨇	-9.70858
悲	-9.70858
寕	-9.70859
堯	-9.70862
渉	-9.70881
出於	-9.70887
庚子	-9.70916
稲	-9.70925
嘯	-9.70928
倚	-9.7093
纔	-9.70952
猛	-9.70958
撃	-9.7096
山川	-9.70997
朔望	-9.71013
嘉禾	-9.71035
之禮	-9.71103
三公	-9.71159
化為	-9.71168
節序	-9.71491
洛陽	-9.71701
置酒	-9.71711
南北	-9.71794
結實	-9.72025
牧	-9.72043
雩	-9.72231
士女	-9.72283
大者	-9.72468
而成	-9.72578
焚	-9.72724
小雪	-9.72742
二十四	-9.72774
何也	-9.72909
増禮	-9.72922
芋	-9.72968
塔	-9.73171
訓	-9.73335
衝	-9.73344
譜	-9.73441
使者	-9.73547
慮	-9.73598
晏	-9.73645
貧	-9.7375
酸	-9.73788
萬年	-9.73895
至春	-9.73973
宰	-9.73983
巢	-9.74005
踏	-9.74064
斫	-9.74186
筵	-9.74292
此日	-9.74318
紛	-9.7437
農事	-9.74503
抽	-9.74531
答	-9.74545
二十二日	-9.74563
悦	-9.74571
増宋史禮志	-9.74626
躬	-9.74637
場	-9.7465
脂	-9.74652
酌	-9.7466
藉	-9.74687
展	-9.74706
研	-9.74713
勢	-9.74746
柏	-9.74763
租	-9.7479
耶	-9.74797
怒	-9.74808
脩	-9.74818
俟	-9.7482
何以	-9.74827
輸	-9.74831
囘	-9.7484
軟	-9.74842
侵	-9.74845
審	-9.74852
雕	-9.74865
藻	-9.74875
塲	-9.74918
游	-9.74919
儉	-9.74927
車駕	-9.74928
判	-9.75109
司馬	-9.75244
候選	-9.75402
裹	-9.7547
田家	-9.75751
中元	-9.75877
天氣	-9.7592
漏刻	-9.76174
為一	-9.76254
起居	-9.76264
誦	-9.76461
周禮	-9.76528
黄鍾	-9.76872
公卿	-9.76882
風吹	-9.76911
枝葉	-9.77193
先是	-9.77209
星辰	-9.77223
際	-9.77334
莫不	-9.7762
鱗	-9.77833
戍	-9.77973
層	-9.78124
原後漢書	-9.78127
罰	-9.78158
僚	-9.78354
闌	-9.78409
財	-9.7851
嶽	-9.78581
嫩	-9.78642
男	-9.787
茅	-9.78744
爪	-9.78764
渠	-9.7878
基	-9.78781
晷	-9.78809
尹	-9.78839
禪	-9.78846
血	-9.78862
漲	-9.78863
岐	-9.78909
啼	-9.78919
嗟	-9.7892
䖏	-9.78922
粒	-9.78924
餞	-9.78939
冥	-9.7894
滯	-9.78949
副	-9.78969
装	-9.7897
包	-9.78972
漫	-9.78986
鼠	-9.78993
鐡	-9.79014
巽	-9.79019
䕶	-9.7902
健	-9.79034
璧	-9.791
増陶朱公書	-9.79122
有三	-9.79124
丁亥	-9.79128
郡國	-9.79215
之餘	-9.79277
状如	-9.794
増宋史	-9.79455
登髙	-9.79499
壬子	-9.79639
南風	-9.79656
知縣	-9.79692
皇后	-9.79811
風俗	-9.80166
光明	-9.80514
一夕	-9.80554
畝	-9.80571
司天	-9.80703
與之	-9.80853
小者	-9.80946
山中	-9.81161
埋	-9.81479
臘月	-9.81631
第一	-9.81669
日為	-9.81714
二月二日	-9.81734
曙	-9.81767
惜	-9.81847
后土	-9.82021
縷	-9.82134
源	-9.82381
年年	-9.82399
薪	-9.82434
銷	-9.82721
蒿	-9.82793
三尺	-9.82805
其子	-9.82864
久之	-9.82901
增禮	-9.82947
為人	-9.82968
増拾遺記	-9.83007
超	-9.8305
帖	-9.83064
十九	-9.83107
孔子	-9.83116
平旦	-9.83116
至秋	-9.83139
舎	-9.8315
後苑	-9.83155
數日	-9.8316
醒	-9.83198
呂	-9.83224
膠	-9.8326
博士	-9.83285
步	-9.83297
弗	-9.83297
之數	-9.83312
矢	-9.83314
冊	-9.83317
弄	-9.83317
薛	-9.83324
昬	-9.83325
竇	-9.83333
潜	-9.83347
廼	-9.83355
絮	-9.83357
朋	-9.83373
介	-9.83389
䕃	-9.83396
爭	-9.83402
普	-9.83406
巾	-9.83419
鼻	-9.8343
畱	-9.83444
原爾雅	-9.83445
膽	-9.83446
賊	-9.83472
往往	-9.8348
増左𫝊	-9.83491
也疏	-9.83629
二十四氣	-9.83645
之也	-9.83786
車馬	-9.83788
父母	-9.83834
初八日	-9.83952
初五日	-9.83981
太隂	-9.84246
葉如	-9.84252
白色	-9.84656
五六	-9.8491
東風	-9.8503
五六月	-9.85077
上旬	-9.85298
一石	-9.85323
小寒	-9.85324
之下	-9.85566
數百	-9.8557
居之	-9.85595
都人	-9.85652
正旦	-9.85727
以後	-9.85951
沒	-9.86111
月朔	-9.86164
上言	-9.86187
又有	-9.8623
厭	-9.86607
日在	-9.86758
烈	-9.86946
羮	-9.86953
赦	-9.86998
板	-9.87015
大暑	-9.87066
脯	-9.8708
蔓	-9.87088
煩	-9.87102
有人	-9.87289
午時	-9.87329
冬日	-9.87336
鴻	-9.87416
慎	-9.87507
提	-9.87508
霄	-9.87583
上夀	-9.87608
其時	-9.8763
圎	-9.87635
瑩	-9.87678
葦	-9.8771
把	-9.87712
遽	-9.87746
想	-9.8775
麫	-9.87765
屏	-9.8777
筒	-9.87796
滑	-9.87797
笛	-9.87799
專	-9.8782
痛	-9.87853
洪	-9.87859
岡	-9.87868
跡	-9.87871
糧	-9.87874
廽	-9.87874
狂	-9.87897
菩薩	-9.87899
兄弟	-9.87899
斑	-9.87903
略	-9.87915
棄	-9.87915
簇	-9.8792
困	-9.87933
俾	-9.87947
熙	-9.87949
叙	-9.87951
盞	-9.87953
徙	-9.8797
邉	-9.87972
箕	-9.87999
創	-9.88006
秘閣	-9.8801
熊	-9.88015
凖	-9.88017
疫	-9.88019
巴	-9.88021
聊	-9.88022
除夕	-9.88024
標	-9.88032
料	-9.88048
虧	-9.88051
插	-9.88055
古者	-9.88246
山在	-9.88408
孟冬	-9.88445
也今	-9.88761
宗廟	-9.88876
四十	-9.88888
氣也	-9.88925
了	-9.88985
人有	-9.89028
原易	-9.89298
祭之	-9.89327
初四日	-9.89392
寒氣	-9.89492
中旬	-9.89902
増唐會要	-9.90107
注云	-9.90485
之始	-9.9072
溝	-9.91007
之官	-9.91016
殻	-9.91243
逺近	-9.91361
増管子	-9.91577
奪	-9.91589
婦女	-9.91602
優	-9.91636
蔽	-9.91776
又云	-9.91797
不用	-9.9187
㓜	-9.9194
杜甫詩	-9.91942
生者	-9.92034
狀如	-9.92189
至此	-9.92208
原漢書	-9.9224
渾	-9.92266
浪	-9.92336
歇	-9.92346
主人	-9.92361
額	-9.9238
見之	-9.92392
蔬	-9.92406
稀	-9.92419
綺	-9.9243
寸	-9.92432
燃	-9.92496
膳	-9.92499
蕃	-9.92526
鋪	-9.92551
儲	-9.92562
刈	-9.92563
恵	-9.92575
垣	-9.92604
増圖經本草	-9.92606
乍	-9.92618
芟	-9.92629
以獻	-9.92644
翰林	-9.92645
嗣	-9.92648
覩	-9.92649
挂	-9.92655
賛	-9.92656
摘	-9.92656
須臾	-9.92665
㧞	-9.9267
歷	-9.92677
貌	-9.92684
錯	-9.92684
揮	-9.92689
况	-9.92704
庫	-9.92706
邀	-9.92743
稷	-9.9275
寔	-9.92751
袁	-9.92752
陛下	-9.9277
上帝	-9.92783
己酉	-9.92788
甘露	-9.92803
増國語	-9.92815
子弟	-9.92828
山谷	-9.92972
冬至後	-9.92979
成都	-9.93119
萬里	-9.93237
毎嵗	-9.93395
仲冬	-9.93484
侍中	-9.93567
無不	-9.93597
可愛	-9.9369
是時	-9.93738
詩序	-9.93876
勿令	-9.93975
州刺史	-9.94128
低	-9.9423
家人	-9.94372
増北史	-9.94407
使人	-9.94455
斛	-9.94554
無所	-9.94582
和氣	-9.94592
原管子	-9.94735
無事	-9.94768
戊子	-9.95393
始生	-9.9541
夜夢	-9.95767
而小	-9.95856
狗	-9.95894
中星	-9.9597
元和	-9.96029
囚	-9.96237
増通典	-9.96418
一嵗之	-9.96467
藍	-9.96806
必以	-9.96821
鞭	-9.96858
其葉	-9.9689
形如	-9.96896
襄	-9.96958
一刻	-9.96964
暇	-9.96984
菊花	-9.9705
五穀	-9.97144
敗	-9.97162
塘	-9.97163
憐	-9.97196
賜之	-9.97222
隴	-9.97283
瓦	-9.97295
一級	-9.97306
漬	-9.97338
旌	-9.97393
陂	-9.97402
童子	-9.97411
韶	-9.97418
衙	-9.97435
毬	-9.97472
飼	-9.97486
笋	-9.97488
欣	-9.97522
敷	-9.97543
裳	-9.97549
瑶	-9.97558
函	-9.97561
餳	-9.97582
鈎	-9.97591
鬚	-9.97602
塊	-9.97604
贈	-9.97608
濁	-9.97609
燎	-9.97612
裴	-9.97619
駐	-9.97629
兔	-9.97633
溢	-9.97644
紹	-9.97653
亮	-9.97661
葱	-9.97675
肆	-9.97678
轡	-9.97679
繋	-9.97701
透	-9.97702
翅	-9.97704
勉	-9.9771
沐浴	-9.97714
懼	-9.97714
崖	-9.97715
奔	-9.97718
淫	-9.97719
晝日	-9.97725
割	-9.97728
剝	-9.97729
妓	-9.97736
契	-9.97746
烝	-9.97749
魄	-9.97752
齎	-9.97753
無人	-9.9776
蟄蟲	-9.97766
遵	-9.97767
䆫	-9.97772
己	-9.97955
丙子	-9.98012
將軍	-9.98134
桑葉	-9.98172
必有	-9.98213
有四	-9.98239
於天	-9.98349
此月	-9.98366
沸	-9.98403
以待	-9.98579
相似	-9.98611
飲之	-9.98615
於地	-9.98696
君臣	-9.98821
今朝	-9.99297
縣有	-9.99345
三五	-9.99376
人日	-9.99593
三元	-9.99678
十七	-9.99901
之内	-9.99977
其後	-10.0021
嵗時	-10.0024
以此	-10.0034
春日	-10.0035
以成	-10.0036
原遵生八牋	-10.0038
近臣	-10.0053
其聲	-10.0053
而至	-10.0058
之末	-10.0063
山有	-10.0063
以應	-10.0093
色白	-10.0097
百里	-10.0099
炙	-10.0104
仲夏	-10.0107
八十	-10.0124
南海	-10.0138
牢	-10.0138
臘日	-10.014
黎	-10.0144
五星	-10.0153
流水	-10.0162
灑	-10.0163
迹	-10.0166
觀之	-10.017
以聞	-10.0183
收之	-10.0194
杏花	-10.0197
曬	-10.0202
喧	-10.0208
激	-10.022
朶	-10.0231
司空	-10.0241
増晉書	-10.0247
古之	-10.0248
習射	-10.0251
滴	-10.0253
数	-10.026
河東	-10.0265
蟹	-10.0267
拾	-10.0271
悟	-10.0274
那	-10.0275
李賀	-10.0275
伴	-10.0276
菖蒲	-10.0276
粗	-10.028
彈	-10.028
豪	-10.0282
詰	-10.0283
牽	-10.0283
纂	-10.0283
蒙	-10.0283
峰	-10.0284
𤣥	-10.0284
稼	-10.0284
卓	-10.0284
蠻	-10.0285
墮	-10.0285
鄴	-10.0286
隋	-10.0286
舌	-10.0287
穗	-10.0289
殿前	-10.0289
粲	-10.029
狩	-10.029
危	-10.0291
樞	-10.0291
窺	-10.0293
鶯	-10.0293
汎	-10.0294
之音	-10.0295
策	-10.0295
啖	-10.0295
強	-10.0296
中國	-10.0296
侍郎	-10.0297
幣	-10.0297
磬	-10.0299
講武	-10.03
櫻桃	-10.0301
日入	-10.0301
増春秋繁露	-10.0302
増後漢書	-10.0302
之處	-10.0302
春時	-10.0304
㫁	-10.0305
縦	-10.0305
述	-10.0306
亷	-10.0306
己未	-10.031
丁巳	-10.031
鳥獸	-10.0321
丙寅	-10.0323
祭祀	-10.0329
太蔟	-10.0337
増蘇軾	-10.0364
巫	-10.0385
春月	-10.0387
加十五日斗指	-10.0388
五帝	-10.0401
初七日	-10.0407
不成	-10.0429
小滿	-10.0432
晴雨	-10.0443
六月六日	-10.045
不盡	-10.0481
増唐書	-10.0484
男女	-10.0504
之半	-10.0507
其下	-10.0518
中書	-10.0535
未嘗	-10.0536
觀燈	-10.0541
孟夏	-10.0555
多少	-10.0557
郊祀	-10.0569
南山	-10.0582
増易	-10.0597
一歲	-10.0599
藏之	-10.0607
公曰	-10.0615
線	-10.0628
請以	-10.0628
其根	-10.0637
老人	-10.0649
某	-10.0663
釀	-10.0665
九天	-10.0679
氣候	-10.0681
之不	-10.0683
未有	-10.0684
然則	-10.0688
以示	-10.0699
成熟	-10.0701
半月	-10.0711
亦可	-10.0717
花開	-10.072
甲申	-10.0727
汗	-10.0727
蟻	-10.0728
以供	-10.075
行事	-10.0751
桓	-10.0755
减	-10.0759
鬭	-10.0759
青龍	-10.076
輅	-10.0764
處暑	-10.0767
芒	-10.0768
於時	-10.0779
子午	-10.0782
雌	-10.0798
樽	-10.0802
抵	-10.0804
壊	-10.081
各一	-10.0811
其花	-10.0819
参	-10.0819
腰	-10.082
元旦	-10.0825
宛	-10.0831
寡	-10.0835
鞠	-10.0835
鬻	-10.0835
榆	-10.0836
墓	-10.0837
茱萸	-10.0837
廷	-10.0839
𨽻	-10.084
巷	-10.0841
豹	-10.0841
削	-10.0842
袍	-10.0843
貸	-10.0844
畔	-10.0844
伊	-10.0845
俯	-10.0845
甲乙	-10.0845
欽	-10.0846
㳺	-10.0846
救	-10.0848
糖	-10.0848
藕	-10.0849
蠅	-10.0849
太極	-10.085
秩	-10.0852
原國語	-10.0852
人呼為	-10.0853
溫	-10.0853
闗	-10.0853
折楊栁	-10.0854
蓼	-10.0854
増漢書	-10.0854
寓	-10.0855
本草	-10.0856
嫁	-10.0856
増魏書	-10.0856
孕	-10.0856
凶	-10.0859
太后	-10.086
東坡詩云	-10.0861
奠	-10.0862
曝乾	-10.0862
穂	-10.0863
庚寅	-10.0864
其所	-10.0865
増唐書百官志	-10.0868
玉海	-10.0869
衣冠	-10.0871
霜雪	-10.0872
空中	-10.0877
寒露	-10.0881
原唐書	-10.0885
則為	-10.0885
自今	-10.0893
常有	-10.0899
夏則	-10.0919
燈燭	-10.0931
亦曰	-10.0932
有聲	-10.0957
得一	-10.0977
乃止	-10.0987
三伏	-10.1025
不食	-10.1025
黄花	-10.1025
戊寅	-10.1032
公主	-10.1034
梅雨	-10.1037
何處	-10.1063
春生	-10.1068
日夜	-10.1078
每至	-10.1082
號曰	-10.11
一宿	-10.1108
嵗星	-10.1113
置於	-10.1114
作樂	-10.1125
初九日	-10.1136
後五日	-10.1137
時雨	-10.1155
下有	-10.116
清風	-10.1174
日暮	-10.1175
今人	-10.1195
之氣也	-10.1202
也又	-10.1208
其法	-10.1209
已後	-10.122
唐書	-10.1223
鍼	-10.1225
原選擇歴書二	-10.1234
山林	-10.1295
圃	-10.1329
甲午	-10.1342
冬則	-10.1348
弟	-10.1351
鏤	-10.1369
壬午	-10.137
兄	-10.1371
柴	-10.1375
凋	-10.1377
冶	-10.1383
飽	-10.1384
煥	-10.1385
増易通卦驗	-10.139
顆	-10.139
邦	-10.1391
倦	-10.1393
谿	-10.1393
柱	-10.1394
生子	-10.1396
増史記天官書	-10.1396
匹	-10.1399
圭	-10.1399
瓣	-10.1401
汲	-10.1401
胥	-10.1404
朱子	-10.1407
閤	-10.1408
漆	-10.1408
螢	-10.1414
可作	-10.1416
宸	-10.1417
促	-10.1418
捕	-10.1421
之時也	-10.1421
沐	-10.1422
稠	-10.1422
浩	-10.1424
鯉	-10.1425
拱	-10.1425
簷	-10.1425
屯	-10.1426
緣	-10.1427
餌	-10.1427
驛	-10.1428
掛	-10.1428
勁	-10.1429
挺	-10.1429
擲	-10.143
秉	-10.143
檀	-10.1431
増續文獻通考	-10.1431
陛	-10.1431
排	-10.1432
醫	-10.1432
腎	-10.1432
電	-10.1432
叟	-10.1433
曰我	-10.1433
黃	-10.1434
俊	-10.1435
繭	-10.1435
䑓	-10.1435
隊	-10.1438
臥	-10.1438
蘆	-10.1439
迭	-10.1439
覧	-10.1439
腸	-10.144
携	-10.1441
犀	-10.1441
芙蓉	-10.1442
羔	-10.1443
笙	-10.1443
阜	-10.1443
耗	-10.1445
種者	-10.1445
逼	-10.1448
聘	-10.1449
類	-10.1449
釀酒	-10.1451
暴乾	-10.1453
奇	-10.1457
東方朔	-10.146
賔客	-10.146
三刻	-10.1461
家家	-10.1464
營室	-10.1464
大水	-10.1467
俄而	-10.1468
煒	-10.1472
父老	-10.1476
地氣	-10.148
朔日	-10.1484
一百	-10.1491
以象	-10.1497
測	-10.1498
玉女	-10.1505
瘡	-10.1511
功臣	-10.1515
之聲	-10.1515
古人	-10.1516
下降	-10.1521
初十日	-10.1531
秋風	-10.1533
五刻	-10.1537
者名	-10.1539
三升	-10.154
内外	-10.1541
月初	-10.155
皆可	-10.1562
者天之	-10.1573
黄道	-10.1577
一莖	-10.1591
清明日	-10.1598
不覺	-10.1608
諸軍	-10.1613
暑月	-10.1615
天時	-10.1624
不宜	-10.1628
吞	-10.1634
三曰	-10.1641
至今	-10.1666
天地之	-10.1682
蓮花	-10.1686
大火	-10.1715
是故	-10.172
文章	-10.1722
以進	-10.1723
如何	-10.1724
㦸	-10.173
恨	-10.1764
十一年	-10.1766
之際	-10.177
俗名	-10.1773
為大	-10.1787
三四	-10.179
范成大	-10.1801
者謂之	-10.1808
宴於	-10.1826
相見	-10.183
而行	-10.1835
春色	-10.1837
可為	-10.1842
二曰	-10.1856
摩	-10.1861
唐太宗	-10.1867
人也	-10.187
原四民月令	-10.187
晝則	-10.1876
長生	-10.1878
増南史	-10.1878
舉人	-10.1886
正中	-10.1898
賜近臣	-10.1898
一章	-10.1898
其地	-10.19
湘	-10.1905
區	-10.1907
之制	-10.1912
十九年	-10.192
音比	-10.1923
敦	-10.1924
禮部	-10.1934
日次	-10.1937
太和	-10.1939
伺	-10.1962
騐	-10.1964
酢	-10.1964
瑞雪	-10.1969
於東	-10.1978
生葉	-10.1978
人皆	-10.1982
五尺	-10.1983
泰山	-10.1996
其事	-10.1996
踰	-10.1998
上已	-10.1998
不為	-10.2001
饌	-10.2003
韓愈	-10.2003
太一	-10.2006
乏	-10.2006
風起	-10.2009
藤	-10.201
忽有	-10.2015
葡萄	-10.2019
撒	-10.2031
尉	-10.2036
薺	-10.2039
芸	-10.2039
古今	-10.204
稽	-10.2041
鴉	-10.2043
攪	-10.2044
牕	-10.2044
奴	-10.2045
莊	-10.2046
價	-10.2049
浦	-10.2049
芥	-10.2049
智	-10.2049
丙午	-10.2049
蜡	-10.205
以金	-10.205
至日	-10.205
棚	-10.2052
决	-10.2052
愧	-10.2053
眷	-10.2053
幄	-10.2053
饋	-10.2054
斧	-10.2054
蚊	-10.2055
篆	-10.2055
跪	-10.2055
孰	-10.2056
炒	-10.2056
胎	-10.2057
原晉書	-10.2057
疊	-10.2059
諫	-10.2059
梵	-10.206
夣	-10.206
憑	-10.2061
䖍	-10.2062
太史	-10.2063
迷	-10.2064
圜	-10.2065
眞	-10.2065
彭	-10.2066
熏	-10.2066
簮	-10.2068
綱	-10.2068
勲	-10.2068
兌	-10.2068
蠶市	-10.2071
☶	-10.2071
主簿	-10.2071
鵝	-10.2072
弟子	-10.2073
百僚	-10.2073
刹	-10.2073
初生	-10.2074
甕中	-10.2075
裙	-10.2077
觀者	-10.208
膾	-10.2086
増史記	-10.2087
嶺南	-10.209
覆之	-10.2091
米貴	-10.2101
置閏	-10.2107
當時	-10.2109
白虎	-10.2114
舊俗	-10.2117
七八	-10.2131
百刻	-10.2131
水上	-10.2135
上巳	-10.2139
雲氣	-10.2143
無雨	-10.2144
之意	-10.2146
吏民	-10.2149
非常	-10.2169
故為	-10.218
春寒	-10.2181
三分	-10.2186
社日	-10.2189
神光	-10.2189
知其	-10.2196
八年	-10.2198
親王	-10.2198
之外	-10.2203
望之	-10.2217
初六日	-10.2218
之人	-10.2218
得之	-10.2221
叢生	-10.2223
國家	-10.2236
北風	-10.2237
增詩	-10.2253
原開天遺事	-10.226
北極	-10.2262
十分	-10.2264
有白	-10.2266
夜漏	-10.2272
縣西	-10.228
水旱	-10.2294
白玉	-10.2298
京城	-10.2298
月為	-10.2305
至是	-10.2311
焚之	-10.2324
相傳	-10.2332
謂曰	-10.2342
青色	-10.2342
其餘	-10.2355
一葉	-10.2355
司徒	-10.2357
夢中	-10.2361
行禮	-10.2363
注春	-10.2363
酒食	-10.2388
不死	-10.2394
隅	-10.2403
終日	-10.2415
之物	-10.2428
聞之	-10.2442
盛於	-10.2443
三更	-10.2448
初三日	-10.2449
每日	-10.245
亦不	-10.2459
沃	-10.246
半夜	-10.2464
朝日	-10.2477
黄金	-10.2479
至冬	-10.2481
廬	-10.2494
増舊唐書	-10.2506
秋氣	-10.2511
後十五日斗指	-10.2521
衍	-10.2523
故人	-10.2531
毎年	-10.2534
起於	-10.254
事也	-10.2547
荅	-10.2552
所生	-10.2552
二三月	-10.2566
祭天	-10.2567
互	-10.2575
朗	-10.2577
不生	-10.258
内有	-10.2594
之候	-10.2598
八分	-10.2599
而為	-10.2603
而有	-10.2608
秋月	-10.2615
五百	-10.2623
箔	-10.2624
十有二	-10.2636
札	-10.2636
搗	-10.2646
辛巳	-10.2675
増内經	-10.2676
夏時	-10.2678
原埤雅	-10.2679
樵	-10.2679
自此	-10.268
浣	-10.268
諺曰	-10.2682
月有	-10.2685
其氣	-10.2691
卑	-10.2692
漉	-10.2693
粧	-10.2697
箇	-10.2698
衫	-10.2701
競渡	-10.2707
得其	-10.2708
亟	-10.2713
几	-10.2714
蓄	-10.2716
衢	-10.2716
酣	-10.2716
翰	-10.2717
藉田	-10.2721
眉	-10.2721
邱	-10.2721
欄	-10.2722
徽	-10.2722
擣	-10.2722
呌	-10.2722
牆	-10.2723
馮	-10.2723
濤	-10.2724
醤	-10.2725
歛	-10.2726
嫌	-10.2726
費	-10.2726
寜	-10.2726
揖	-10.2726
肇	-10.2727
幷	-10.2727
之南	-10.2727
硯	-10.2727
幡	-10.2728
乂	-10.2729
囬	-10.2729
濡	-10.2729
遞	-10.2729
敞	-10.273
胄	-10.273
名為	-10.273
己丑	-10.273
洽	-10.2731
暄	-10.2731
犁	-10.2731
壮	-10.2732
阮	-10.2733
飢	-10.2734
滄	-10.2734
㽔賔	-10.2734
滌	-10.2734
脾	-10.2735
殆	-10.2735
踈	-10.2735
☳	-10.2735
祭於	-10.2735
療	-10.2736
翰林學士	-10.2736
砌	-10.2737
缺	-10.2737
衣裳	-10.2737
僅	-10.2738
希	-10.2738
壑	-10.2738
鈴	-10.2739
飭	-10.2739
増嘉定縣志	-10.2739
消息	-10.274
禘	-10.274
畆	-10.274
邦國	-10.274
次第	-10.274
顓頊	-10.2741
皓	-10.2744
緯	-10.2747
原左𫝊	-10.2747
泄	-10.2747
東郊	-10.2747
戊辰	-10.2749
庚戌	-10.2749
稜	-10.275
嗜	-10.275
增酉陽雜爼	-10.2752
數丈	-10.2753
将軍	-10.2755
絲竹	-10.2756
諺	-10.2768
甲辰	-10.2771
元夕	-10.2774
賜羣臣	-10.2781
有大	-10.2784
一枚	-10.2784
所居	-10.2785
玉堂	-10.2788
柄	-10.2792
土功	-10.2795
小暑	-10.2797
百餘	-10.2799
亦名	-10.28
斤	-10.2804
中出	-10.2814
周公	-10.2814
迎氣	-10.2815
四刻	-10.2818
其形	-10.2821
立秋日	-10.2832
六氣	-10.2833
故有	-10.2837
江東	-10.2839
不至	-10.2853
大旱	-10.2856
王母	-10.2863
欲知	-10.2867
朝賀	-10.2883
三十六	-10.289
之象也	-10.2896
夜雨	-10.2899
初置	-10.29
郡守	-10.2902
家貧	-10.2903
少陽	-10.2933
三百六十	-10.2934
有所	-10.2936
鬼神	-10.2944
仁宗	-10.2947
於庭	-10.2953
萬物皆	-10.2955
以水	-10.2958
隂陽之	-10.296
而止	-10.296
明朝	-10.2964
五經	-10.2969
三朝	-10.2978
八九	-10.2988
石上	-10.2993
春初	-10.3004
何如	-10.3016
有異	-10.3021
一兩	-10.3032
元氣	-10.3035
上以	-10.3043
上御	-10.3043
學者	-10.3046
乃命	-10.3051
日行	-10.3052
其皮	-10.3054
以定	-10.3057
不絶	-10.3078
人以	-10.3089
相與	-10.3089
入水	-10.3118
酘	-10.3125
増四民月令	-10.3142
明月	-10.3143
莖葉	-10.3149
旺	-10.3159
已而	-10.3172
漢中	-10.3182
見一	-10.3188
五方	-10.3197
春三月	-10.3199
縣令	-10.3208
於上	-10.321
和之	-10.3211
主水	-10.3213
六合	-10.322
春氣	-10.322
俗以	-10.3226
者所以	-10.324
以正月	-10.3244
澆	-10.3255
貞觀	-10.3259
穆	-10.3265
稔	-10.3274
海上	-10.3282
奏事	-10.3292
尖	-10.3303
食時	-10.3322
杓	-10.333
以授	-10.3334
稼穡	-10.3337
異之	-10.3346
海中	-10.3347
七十二	-10.3348
原荆楚嵗時記	-10.3354
曲江	-10.3356
雨雪	-10.3358
暈	-10.3366
坑	-10.3374
丙辰	-10.3375
爾雅	-10.3376
之東	-10.3384
寤	-10.3391
涸	-10.3391
重九	-10.3398
膝	-10.3398
都城	-10.34
妾	-10.3402
楮	-10.3402
城門	-10.3402
嘆	-10.3405
李嶠	-10.3407
匝	-10.3408
蛾	-10.3408
其間	-10.3408
攤	-10.3411
脆	-10.3411
味甘	-10.3413
下旬	-10.3414
一寸	-10.3414
秘	-10.3415
蕪	-10.3416
栢	-10.3417
蝗	-10.3417
柰	-10.3419
捨	-10.342
逮	-10.342
初一日	-10.3421
七十	-10.3421
初二日	-10.3422
其名	-10.3422
泣	-10.3423
隣	-10.3424
痕	-10.3424
氊	-10.3425
炁	-10.3428
有二	-10.343
淘	-10.343
憲	-10.343
穢	-10.3431
疇	-10.3432
鑑	-10.3433
増述異記	-10.3433
逄	-10.3433
太乙	-10.3433
髮	-10.3434
百寮	-10.3435
毫	-10.3436
杵	-10.3436
鳯凰	-10.3437
厨	-10.3437
姿	-10.3437
淚	-10.3438
貼	-10.3438
諧	-10.3439
挽	-10.344
霑	-10.344
紗	-10.344
芻	-10.344
播	-10.344
楊萬里	-10.344
增雲笈七籖	-10.3441
喻	-10.3443
☵	-10.3443
峻	-10.3443
仕	-10.3443
遶	-10.3443
蚤	-10.3443
増夢溪筆談	-10.3444
☲	-10.3444
藁	-10.3445
菴	-10.3445
嚢	-10.3445
填	-10.3446
遼	-10.3446
釣	-10.3446
剥	-10.3446
禪師	-10.3446
㝠	-10.3447
快	-10.3447
羲和	-10.3449
各以	-10.3449
賽	-10.3449
鄰	-10.345
社稷	-10.345
敵	-10.345
讓	-10.345
也註	-10.345
豔	-10.3451
臻	-10.3451
紋	-10.3451
兑	-10.3451
曠	-10.3452
葭	-10.3452
增左傳	-10.3453
祇	-10.3454
良久	-10.3455
靡	-10.3455
姚	-10.3456
蝶	-10.3456
籌	-10.3456
原雲笈七籖	-10.3457
増唐書禮樂志	-10.3458
乙酉	-10.3458
閤門	-10.3459
倣	-10.346
辰巳	-10.346
乃出	-10.3461
戊巳	-10.3462
鄧	-10.3462
鉸	-10.3464
増白虎通	-10.3465
至則	-10.3465
戊午	-10.3465
昊天	-10.3466
冬生	-10.347
廣陵	-10.3473
増埤雅	-10.3473
侍臣	-10.3475
宗室	-10.3477
順天	-10.3479
四五	-10.3483
黄昏	-10.3484
望日	-10.35
冬至日	-10.3506
附子	-10.3515
陰陽	-10.3518
為正	-10.3518
廣州	-10.352
受命	-10.3526
之用	-10.3527
不如	-10.3531
東向	-10.3537
小麥	-10.354
百草	-10.3547
黒色	-10.3547
太元	-10.3551
子時	-10.3556
張樂	-10.3557
相對	-10.3562
寵	-10.3564
其樹	-10.3581
民間	-10.3583
號為	-10.3587
宫人	-10.3588
除夜	-10.3594
而長	-10.3595
樹木	-10.36
也謂	-10.36
舍人	-10.3606
結子	-10.3608
城南	-10.3608
辰星	-10.3619
甜	-10.3619
姓名	-10.362
城郭	-10.3626
鄉人	-10.3641
之一	-10.3662
之名	-10.3663
麻子	-10.3668
元年五月	-10.3677
去年	-10.3691
一升	-10.3699
主有	-10.37
田野	-10.3701
新年	-10.3725
西有	-10.373
九十	-10.373
二分	-10.3739
周天	-10.3753
之夕	-10.3776
二年正月	-10.3778
不勝	-10.3786
之令	-10.3789
當為	-10.3794
時人	-10.3797
夜中	-10.3806
勸農	-10.3806
正月十五日	-10.3837
大熟	-10.3852
天下之	-10.3853
御書	-10.3862
城東	-10.3865
人亦	-10.3879
十三年	-10.3886
正嵗	-10.389
然而	-10.389
之象	-10.3893
燈火	-10.3898
漢武帝	-10.3918
無風	-10.3922
在天	-10.3924
樹下	-10.3958
長夏	-10.396
餘分	-10.3968
草也	-10.3969
雨則	-10.3973
一千	-10.3983
郡縣	-10.4019
天文	-10.402
大臣	-10.4023
之徳	-10.4024
前有	-10.4027
山下	-10.4032
次五日	-10.4032
千年	-10.4036
荆州	-10.4037
纒	-10.4042
秋成	-10.4046
子曰	-10.4048
下水	-10.4074
位也	-10.4077
四季	-10.4078
月中	-10.4081
辛夘	-10.4081
記之	-10.409
吉凶	-10.4097
輩	-10.4097
八月采	-10.4099
夏小正	-10.4101
郷	-10.4101
黄龍	-10.411
漁	-10.411
寐	-10.4116
帝曰	-10.4122
雪詩	-10.4126
色黄	-10.4128
之乃	-10.4132
白虎通	-10.414
北郊	-10.4143
有五	-10.4149
三嵗	-10.4165
戚	-10.4165
夏至日	-10.4166
操	-10.4168
卯時	-10.417
霍	-10.418
若有	-10.4181
謨	-10.4183
匱	-10.4184
扉	-10.4185
人君	-10.4185
葛	-10.4187
以備	-10.4188
甫	-10.4188
二十五	-10.419
握	-10.419
婚	-10.4192
枸杞	-10.4193
曵	-10.4193
嵩	-10.4194
魁	-10.4195
増清異錄	-10.4196
菽	-10.4197
增淮南子	-10.4198
猿	-10.42
未央	-10.42
二尺	-10.4201
堆	-10.4201
州縣	-10.4202
早晚	-10.4202
繪	-10.4202
喬	-10.4203
縫	-10.4203
逾	-10.4204
肩	-10.4204
辯	-10.4204
乙丑	-10.4204
糕	-10.4205
牖	-10.4205
盃	-10.4205
増癸辛雜識	-10.4205
兎	-10.4207
夭	-10.4207
斬	-10.4208
為民	-10.4209
繒	-10.4209
増法苑珠林	-10.4209
淮南	-10.4209
跋	-10.421
陪	-10.421
蒜	-10.421
蛟	-10.4211
寂	-10.4211
拔	-10.4211
赫	-10.4212
冐	-10.4212
抑	-10.4212
燃燈	-10.4213
魂	-10.4213
墳	-10.4213
軰	-10.4214
檻	-10.4214
廹	-10.4214
元稹	-10.4214
幅	-10.4214
聨	-10.4215
税	-10.4215
鬬	-10.4215
榜	-10.4215
様	-10.4216
閨	-10.4216
攻	-10.4216
㪚	-10.4216
慰	-10.4216
匏	-10.4217
雛	-10.4217
股	-10.4217
觀稼	-10.4217
責	-10.4218
棟	-10.4218
萼	-10.4218
麪	-10.4219
扣	-10.4219
灼	-10.4219
稅	-10.4219
膚	-10.4219
糠	-10.422
寇	-10.422
攸	-10.422
原酉陽雜俎	-10.422
耘	-10.422
巵	-10.422
江淮	-10.422
糉	-10.422
驢	-10.422
誅	-10.4221
餐	-10.4222
尚書省	-10.4222
拳	-10.4223
逍遥	-10.4223
壬寅	-10.4224
婆	-10.4224
腐	-10.4224
截	-10.4224
褥	-10.4226
原雜占	-10.4226
増羣芳譜	-10.4226
元宵	-10.4227
海棠	-10.4228
己亥	-10.4228
襲	-10.4229
日次初一日	-10.423
帚	-10.4232
蓐收	-10.4233
原農政全書	-10.4235
增齊民要術作	-10.4236
太尉	-10.4239
升降	-10.424
宴羣臣	-10.424
佳節	-10.4241
汝南	-10.4242
二刻	-10.4249
甘泉	-10.4251
六時	-10.4251
毎歳	-10.4253
生也	-10.4256
樂工	-10.4259
桃李	-10.4262
日光	-10.4266
樂詞	-10.4266
即位	-10.4268
太清	-10.4274
龍見	-10.4276
西京	-10.4278
上巳日	-10.4278
者亦	-10.4281
作詩	-10.4281
亦如之	-10.4284
一大	-10.4286
朱明	-10.4288
中央土	-10.4292
進退	-10.4298
赤色	-10.4303
王公	-10.4307
暑氣	-10.4312
焚香	-10.4316
土牛	-10.4324
飛去	-10.4328
廵守	-10.4329
白雲	-10.4334
不然	-10.4342
天師	-10.4343
一枝	-10.4346
二十八	-10.4347
何時	-10.4349
宜春	-10.4351
東井	-10.436
郡人	-10.436
可用	-10.4377
四人	-10.4377
来年	-10.4379
三人	-10.4392
同用	-10.4395
之長	-10.4399
從臣	-10.4401
雞子	-10.4402
事之	-10.4404
苑中	-10.441
不過	-10.4415
云是	-10.4418
以来	-10.4419
之兆	-10.4424
增管子	-10.4431
之風	-10.4434
元正	-10.4444
來年	-10.4446
行之	-10.4452
南至	-10.4455
一行	-10.4457
昇	-10.4477
八風	-10.4485
功成	-10.4523
見其	-10.453
嵗首	-10.4542
采根	-10.455
十刻	-10.4551
大率	-10.4552
四分	-10.4553
詩曰	-10.4558
子也	-10.4561
月色	-10.4562
亦以	-10.4567
因以	-10.4567
水浸	-10.4569
御樓	-10.4589
何為	-10.4609
斗柄	-10.4619
又名	-10.4626
山水	-10.463
春雨	-10.4634
金錢	-10.4637
不許	-10.4639
而歸	-10.4644
没	-10.4649
未成	-10.4651
門下	-10.4676
之形	-10.4677
笑曰	-10.468
土王	-10.468
有功	-10.4686
則不	-10.4698
一種	-10.47
而大	-10.4703
春則	-10.4725
麋	-10.4729
則無	-10.4729
一二	-10.4729
至于	-10.473
髙宗	-10.4734
之辰	-10.4739
析	-10.4756
草生	-10.4767
刻漏	-10.4775
以十	-10.4778
俄	-10.4802
髙下	-10.4802
以次	-10.4807
延年	-10.4811
小豆	-10.4814
増遼史禮志	-10.4816
林鍾	-10.4823
南極	-10.4835
日之	-10.484
以正	-10.4854
蔓生	-10.4856
池中	-10.4874
既而	-10.488
一家	-10.4881
原史記	-10.4882
七里	-10.4885
採之	-10.4885
五寸	-10.4896
詔以	-10.4901
茹	-10.4909
其方	-10.4914
時令	-10.493
慕	-10.4944
禳	-10.4959
從官	-10.4967
増帝京景物畧	-10.4979
偃	-10.4982
三陽	-10.4983
入室	-10.4984
哭	-10.4985
十二辰	-10.4986
黨	-10.5004
昧	-10.5005
嚮	-10.5007
醬	-10.5009
杪	-10.5012
局	-10.5013
原本草綱目	-10.5014
遙	-10.5016
歐陽	-10.5016
怠	-10.5018
匠	-10.5019
牓	-10.5019
攝	-10.5022
灘	-10.5023
閭	-10.5023
縛	-10.5025
晡	-10.5026
闔	-10.5026
複	-10.5027
悠悠	-10.5028
禊	-10.5028
荘	-10.5028
苕	-10.5029
淳	-10.503
酬	-10.5031
増種樹書	-10.5031
增唐書百官志	-10.5032
増山家清供	-10.5032
忙	-10.5032
東坡	-10.5033
元年四月	-10.5033
婢	-10.5034
鞍	-10.5034
暨	-10.5035
熬	-10.5035
旄	-10.5035
濯	-10.5035
幼	-10.5035
隙	-10.5036
督	-10.5036
妄	-10.5036
冲	-10.5037
劣	-10.5037
净	-10.5037
嫁娶	-10.5038
敇	-10.5038
範	-10.5038
祚	-10.5038
蜀人	-10.5038
搏	-10.5039
軒轅	-10.5039
綘	-10.504
諷	-10.504
混	-10.5041
壅	-10.5041
拌	-10.5042
鹹	-10.5042
床	-10.5042
彦	-10.5042
簪	-10.5043
屠	-10.5043
天竺	-10.5043
吸	-10.5044
溜	-10.5044
隱	-10.5044
之本	-10.5044
沛	-10.5045
醴	-10.5045
戊戌	-10.5045
脫	-10.5045
祁	-10.5045
態	-10.5046
媚	-10.5046
匿	-10.5046
皁	-10.5046
戯	-10.5046
增爾雅翼	-10.5046
翳	-10.5046
㢠廻	-10.5046
達旦	-10.5047
增圖經本草	-10.5047
㢲	-10.5047
彊	-10.5047
㤙	-10.5047
庖	-10.5047
鉤	-10.5047
學士院	-10.5047
屑	-10.5047
翌日	-10.5048
靖	-10.5048
聳	-10.5048
墻	-10.5048
腥	-10.5048
攀	-10.5049
敏	-10.5049
其色	-10.5049
祝融	-10.5049
誤	-10.5049
西王母	-10.505
又以	-10.505
臂	-10.5051
演	-10.5051
増抱朴子	-10.5052
姤	-10.5053
莎	-10.5053
剖	-10.5053
繕	-10.5053
阻	-10.5054
距	-10.5055
姬	-10.5055
黏	-10.5055
紐	-10.5056
祫	-10.5056
二十八宿	-10.5056
緋	-10.5056
螺	-10.5057
坡	-10.5057
冢	-10.5057
碾	-10.5057
緒	-10.5057
槿	-10.5058
臣僚	-10.5058
丙戌	-10.5058
增晉書	-10.5058
癸丑	-10.5059
針	-10.5059
究	-10.506
増酉陽雜爼	-10.5061
増爾雅翼	-10.5062
軌	-10.5062
原説文	-10.5062
己巳	-10.5063
甞	-10.5063
萌芽	-10.5064
鑒	-10.5064
倉庚	-10.5065
月失政	-10.5069
修撰	-10.5069
苞	-10.5069
梧桐	-10.5069
一株	-10.507
𧖟	-10.5073
朝廷	-10.5073
稱賀	-10.5077
原左傳	-10.5078
善惡	-10.5078
連理	-10.5079
農夫	-10.5079
其功	-10.5098
處處	-10.51
毎歲	-10.5104
漢書	-10.5105
歌舞	-10.5107
人物	-10.5111
木蘭	-10.5114
則以	-10.5126
雜記	-10.5127
清眀	-10.5128
無差	-10.5131
無窮	-10.5132
士庶	-10.5139
上皇	-10.5142
之精	-10.5145
樂章	-10.5149
四面	-10.5153
丹陽	-10.5161
政事	-10.5162
辛丑	-10.5167
以六月	-10.517
之功	-10.5171
酘之	-10.5174
帝紀	-10.5178
祈榖	-10.5179
上春	-10.5188
州府	-10.5188
水底	-10.5195
金吾	-10.5196
入學	-10.5207
五聲	-10.5209
細雨	-10.5219
二月八日	-10.5225
無射	-10.5228
之卦	-10.5236
少年	-10.5245
之家	-10.5245
十里	-10.5249
水火	-10.5254
秋七月	-10.5256
此謂	-10.5256
九重	-10.5259
右主	-10.5274
分龍	-10.5281
所司	-10.5291
太子	-10.5298
平地	-10.5303
相𫝊	-10.5315
二年四月	-10.5327
之始也	-10.5332
以爲	-10.5346
之状	-10.5348
年七月	-10.5349
以紀	-10.5353
之位	-10.5359
中宗	-10.536
以竹	-10.5362
月八日	-10.5365
宜令	-10.5375
吉日	-10.5376
順時	-10.538
日以	-10.5383
八尺	-10.5384
華山	-10.5386
萬國	-10.5392
獻嵗	-10.5413
毎至	-10.5419
梁武帝	-10.5425
其𩔖	-10.5432
條風	-10.5433
林中	-10.5436
第二	-10.5438
萬嵗	-10.5439
申時	-10.5447
五官	-10.5449
色青	-10.5457
改為	-10.5459
日南	-10.5462
雲物	-10.5471
不欲	-10.5484
叚	-10.5491
俗謂之	-10.5492
嵗之	-10.5496
禦	-10.5513
大風	-10.5517
風流	-10.5519
諸生	-10.5526
其年	-10.5536
實録	-10.5538
上昇	-10.5538
者乃	-10.554
其數	-10.5558
二寸	-10.5563
早春	-10.5565
太廟	-10.5585
生而	-10.5591
下種	-10.5596
當用	-10.5615
者言	-10.562
之理	-10.5621
在地	-10.5622
遮	-10.5627
不雨	-10.5629
乃去	-10.5632
亊	-10.5634
豊	-10.5643
曰朕	-10.565
花落	-10.5652
於中	-10.5666
中和	-10.5666
八九月	-10.5666
一曲	-10.5678
去皮	-10.5679
其人	-10.5682
月上	-10.5684
甲戌	-10.5696
獻之	-10.5697
日午時	-10.5698
檢	-10.57
雨露	-10.5704
既至	-10.5705
民事	-10.5708
文帝	-10.5712
其風	-10.5712
台	-10.5717
衆僧	-10.5727
風至	-10.5732
癸亥	-10.5739
十七年	-10.574
豬	-10.5743
孟秋	-10.5746
二千	-10.5752
離宫	-10.5766
江上	-10.5772
盛陽	-10.5772
為春	-10.5775
不凋	-10.5776
蒼龍	-10.5781
之故	-10.5781
或曰	-10.5792
隻	-10.5794
於前	-10.5796
為名	-10.5796
致祭	-10.58
雒陽	-10.5828
今夜	-10.5828
白鶴	-10.5835
庻	-10.5837
官府	-10.5838
暮春	-10.5844
當日	-10.5844
自後	-10.5864
宫殿	-10.5866
月明	-10.5867
帝以	-10.5869
縣志	-10.5869
夜深	-10.5871
三秋	-10.5884
地中	-10.5885
二年十一月	-10.5892
返	-10.59
其母	-10.5903
三年十一月	-10.5904
姑洗	-10.5905
多雨	-10.5907
穰	-10.5913
珪	-10.5913
上作	-10.5914
糜	-10.5915
俸	-10.5916
芹	-10.5916
狙	-10.5917
桃花水	-10.5921
原陶朱公書	-10.5925
昴	-10.5926
増左傳	-10.5927
二千石	-10.5927
窠	-10.5929
黙	-10.593
汪	-10.5931
耆	-10.5931
贏	-10.5933
瑟	-10.5933
牌	-10.5934
晝漏	-10.5934
咏	-10.5935
幸玉津園	-10.5935
渭	-10.5936
峽	-10.5938
誓	-10.5939
樊	-10.594
蒐	-10.5941
蝦蟇	-10.5942
衞	-10.5942
壠	-10.5942
捲	-10.5943
猪	-10.5944
獺	-10.5945
冒	-10.5945
哲	-10.5945
松柏	-10.5946
増晋書	-10.5946
?	-10.5947
模	-10.5947
狐	-10.5948
捉	-10.5949
梗	-10.5949
賚	-10.5949
犧牲	-10.595
婁	-10.595
坼	-10.5951
繇	-10.5951
駢	-10.5951
賁	-10.5951
𫀆	-10.5951
釵	-10.5952
十直齋日	-10.5952
偹	-10.5952
掾	-10.5953
紛紛	-10.5953
腦	-10.5954
驕	-10.5954
謙	-10.5954
奢	-10.5955
縳	-10.5955
豫章	-10.5955
燠	-10.5955
抄	-10.5955
芡	-10.5956
謀	-10.5956
茟	-10.5956
搜	-10.5956
熾	-10.5957
三素雲	-10.5957
戈	-10.5957
稚	-10.5957
沈約	-10.5958
胃	-10.5958
轂	-10.5959
胡桃	-10.5959
嬰	-10.596
潘	-10.596
渴	-10.596
酥	-10.5961
縈	-10.5961
通典	-10.5961
一卷	-10.5961
蜃	-10.5962
痩	-10.5962
噉	-10.5962
遲遲	-10.5962
枇杷	-10.5962
郢	-10.5962
麤	-10.5963
準	-10.5963
榻	-10.5963
歐陽修	-10.5963
澹	-10.5963
慘	-10.5963
鬢	-10.5964
甸	-10.5964
湛	-10.5964
秧	-10.5964
誕辰	-10.5964
原通考	-10.5964
翹	-10.5965
辛酉	-10.5966
祥瑞	-10.5966
未至	-10.5966
専	-10.5966
挑	-10.5967
☰	-10.5967
䋲	-10.5967
十日一	-10.5967
原齊民要術	-10.5968
薇	-10.5968
聴	-10.5968
増山海經	-10.5969
蒔	-10.5969
日月星辰	-10.5969
詳定	-10.5969
三年四月	-10.597
冕	-10.5971
遐	-10.5971
夙夜	-10.5971
去其	-10.5972
也夏小正曰	-10.5972
匪	-10.5972
醪	-10.5973
增漢書律歴志	-10.5973
萃	-10.5974
段	-10.5976
孝經緯曰	-10.5976
四曰	-10.5977
七夕詩	-10.5977
棹	-10.5977
太素	-10.5983
張衡	-10.5983
夷則	-10.5983
數寸	-10.5984
增羣芳譜	-10.5985
踏青	-10.5986
乙卯	-10.5986
百工	-10.5988
壬申	-10.5989
屏風	-10.5989
大會	-10.5991
眀堂	-10.5991
辛未	-10.5992
江湖	-10.5996
圖經	-10.5998
真珠	-10.5998
則有	-10.5998
郎中	-10.5999
山上有	-10.6
而斗建	-10.6
祖宗	-10.6001
真君	-10.6002
雲霧	-10.6004
慶雲	-10.6005
晦朔	-10.6006
田獵	-10.6007
宣和	-10.6012
萬歲	-10.6021
往来	-10.6023
夬	-10.6027
襄陽	-10.603
薦新	-10.6035
北面	-10.6036
八刻	-10.6037
煉	-10.6038
而復	-10.6039
脉	-10.605
羣官	-10.6051
法善	-10.6052
記云	-10.6053
金玉	-10.6059
原禮乃	-10.606
父子	-10.6063
三旬	-10.6066
日沒	-10.6067
月半	-10.6071
於四時	-10.6079
夏旱	-10.6084
積雪	-10.6086
東海	-10.609
一斤	-10.6098
始出	-10.6107
辰為	-10.6119
六出	-10.612
夜行	-10.6122
夏之	-10.6126
亭午	-10.6131
春草	-10.6141
至夏	-10.6149
好學	-10.615
之閒	-10.6154
所造	-10.6164
也物	-10.6167
百蟲	-10.6178
庚辰	-10.6182
十五年	-10.6183
之極	-10.6189
之民	-10.619
是其	-10.6192
伏日	-10.6193
昨夜	-10.6198
四門	-10.6202
者不	-10.6208
太原	-10.6209
増書	-10.6218
枝條	-10.6224
日中時	-10.6229
東門	-10.6232
君王	-10.6235
以時	-10.6239
一夜	-10.6239
有差	-10.6241
春水	-10.6241
三老	-10.6241
之狀	-10.6244
門前	-10.6247
貴賤	-10.6248
車騎	-10.6256
春者	-10.6261
不須	-10.6273
以二月	-10.6275
物皆	-10.6278
種竹	-10.6279
觀書	-10.628
雲開	-10.6284
後有	-10.629
𩔖也	-10.6293
知之	-10.6298
冬官	-10.6298
色赤	-10.6299
土地	-10.6302
之首	-10.6304
初八	-10.6304
李白	-10.6308
辰時	-10.631
者何	-10.6319
香氣	-10.632
一篇	-10.633
木香	-10.6332
為佳	-10.6336
宮中	-10.6338
立春詩	-10.6342
乙未	-10.6345
癸巳	-10.6348
月晦	-10.6356
陽而	-10.6359
十人	-10.6368
正月一日	-10.637
冬青	-10.6395
百日	-10.6395
天神	-10.64
秋日	-10.64
一更	-10.6403
成功	-10.6404
入地	-10.6405
山東	-10.6405
候氣	-10.6412
有光	-10.6419
同時	-10.6419
一分	-10.6424
有黄	-10.6431
還家	-10.6435
布政	-10.6443
張説	-10.6451
之國	-10.6455
盛暑	-10.6461
風從	-10.6464
壬戌	-10.6477
旂	-10.6489
實如	-10.6494
而上	-10.65
見於	-10.6502
之戲	-10.6507
元武	-10.6516
八卦	-10.6517
土氣	-10.6522
冀	-10.6523
戌時	-10.6525
山上	-10.6525
先王	-10.6527
以避	-10.6527
元年正月	-10.6527
日有	-10.6529
城西	-10.653
霜露	-10.6562
十數	-10.6581
雖有	-10.6583
秋為	-10.6584
十卷	-10.6586
春酒	-10.6595
二三	-10.6599
明星	-10.6601
春光	-10.6606
人掌	-10.6606
閏十二月	-10.6609
株	-10.6613
黄雀	-10.6613
六十日	-10.6632
祀之	-10.6638
為末	-10.6657
時刻	-10.6657
白衣	-10.6667
年十	-10.6668
青蒿	-10.6673
不通	-10.6673
舊制	-10.6674
蓬萊	-10.6676
換	-10.6677
行人	-10.6683
之士	-10.6686
節度使	-10.6687
眀日	-10.6695
淮南子	-10.6735
百榖	-10.6745
其性	-10.6756
月建	-10.676
増王	-10.6763
卿等	-10.6764
大官	-10.6768
初夏	-10.6772
宦	-10.6783
許之	-10.6786
皆如	-10.6786
七八月	-10.6792
大明	-10.6808
禽獸	-10.6808
森	-10.682
主旱	-10.6822
閏餘	-10.6824
木葉	-10.6824
不寒	-10.6827
土之	-10.6829
州郡	-10.6837
扵是	-10.6837
而退	-10.6841
殺之	-10.6843
淳熙	-10.6845
鈞	-10.6846
増齊民要術作	-10.6846
以通	-10.6846
見日	-10.6848
縮	-10.685
又作	-10.6852
正月朔	-10.6852
駟	-10.6854
陽春	-10.6855
増家語	-10.6855
増田家五行	-10.6863
其光	-10.6877
月詩	-10.6879
祥符	-10.6884
梓	-10.6887
星居	-10.689
州人	-10.6891
上公	-10.6893
祐	-10.6895
以奉	-10.6897
糟	-10.69
閱	-10.6907
該	-10.6908
級	-10.6912
夏至之日	-10.6915
亘	-10.6917
噐	-10.6918
堤	-10.6918
中丞	-10.6918
紹興	-10.6921
而入	-10.6922
拘	-10.6923
五曰	-10.6925
簫	-10.6925
李白詩	-10.6927
徼	-10.6928
泊	-10.693
酺	-10.693
薤	-10.693
雹	-10.6931
蕉	-10.6931
尼	-10.6931
厠	-10.6932
羡	-10.6933
増東京夢華録	-10.6935
盂	-10.6935
舂	-10.6935
浙	-10.6935
馴	-10.6936
涯	-10.6936
闇	-10.6937
淹	-10.6937
元豐	-10.6937
詔書	-10.6937
太平興國	-10.6938
葩	-10.6938
茄	-10.6939
茗	-10.6939
虫	-10.6939
幔	-10.694
辦	-10.694
楓	-10.694
域	-10.694
訣	-10.694
臯	-10.694
汾	-10.6941
㕔	-10.6941
原南史	-10.6941
蠲	-10.6941
廵狩	-10.6942
臍	-10.6942
掠	-10.6943
毁	-10.6944
鳳凰	-10.6945
叩	-10.6945
鹵簿	-10.6945
芍藥	-10.6945
襟	-10.6945
原列子	-10.6946
䴡	-10.6946
拒	-10.6947
嫗	-10.6947
釡	-10.6947
畦	-10.6947
跳	-10.6947
軿	-10.6947
刃	-10.6947
穎	-10.6947
増列子	-10.6947
奮	-10.6948
炳	-10.6948
祈禱	-10.6948
蜩	-10.6949
勇	-10.6949
狄	-10.6949
異物志	-10.695
苔	-10.695
討	-10.695
上親	-10.695
欺	-10.695
版	-10.695
岑	-10.695
塾	-10.6951
所作	-10.6951
培	-10.6951
爆竹	-10.6951
現	-10.6951
奎	-10.6951
完	-10.6952
董	-10.6952
舘	-10.6952
姦	-10.6952
窟	-10.6952
寘	-10.6953
尅	-10.6953
蔥	-10.6954
帽	-10.6954
梯	-10.6954
綾	-10.6955
晉樂志曰	-10.6955
櫟	-10.6955
愚	-10.6955
増月令章句自	-10.6955
丙丁	-10.6956
增續文獻通考	-10.6956
滕	-10.6956
蝦	-10.6956
邢	-10.6956
貪	-10.6957
蔗	-10.6957
篤	-10.6957
蒂	-10.6957
驟	-10.6957
懽	-10.6958
叶	-10.6958
弛	-10.6958
謫	-10.6958
拊	-10.6958
楹	-10.6958
扶桑	-10.6958
七百	-10.6958
刋	-10.6958
陬	-10.6958
緝	-10.6959
陟	-10.6959
拭	-10.696
邁	-10.696
螢火	-10.696
偷	-10.696
駒	-10.6961
罕	-10.6961
梅堯臣	-10.6961
謬	-10.6961
砂	-10.6962
増汜勝之書	-10.6962
原梁元帝纂要	-10.6963
朱雀	-10.6963
値	-10.6963
蘋	-10.6964
色如	-10.6964
之使	-10.6964
集說	-10.6964
原禮天子居	-10.6964
賑	-10.6964
漢舊儀	-10.6964
蔟	-10.6964
增宋史	-10.6965
各有差	-10.6965
中和節	-10.6965
旣	-10.6965
増通鑑	-10.6966
窓	-10.6967
奥	-10.6967
圜丘	-10.6967
庚辛	-10.6967
霖	-10.6968
宰執	-10.6968
蠱	-10.6969
循環	-10.6969
守歳	-10.6969
卽	-10.697
乙巳	-10.6971
増曲洧舊聞	-10.6971
筐	-10.6971
倪	-10.6972
澇	-10.6972
蓴	-10.6972
參差	-10.6974
乙亥	-10.6975
四維	-10.6975
而鳴	-10.6975
譯	-10.6976
供養	-10.6976
自此始	-10.6977
縱横	-10.6978
侍讀	-10.6979
百辟	-10.6979
武陵	-10.698
榴花	-10.6981
丁酉	-10.6981
樂府	-10.6982
高祖	-10.6983
蔡𫝊	-10.6983
班固	-10.6984
懷	-10.6985
増三禮義宗	-10.6987
漢武	-10.699
問其故	-10.699
増乾淳嵗時記	-10.6991
後人	-10.6991
從此	-10.6992
増説文	-10.6992
龍眼	-10.6995
語曰	-10.6995
王維	-10.6995
甚美	-10.6997
為常	-10.6998
已上	-10.7001
由是	-10.7002
西湖	-10.7004
月之卦也	-10.7007
最宜	-10.7012
前代	-10.7016
天門	-10.7016
沙門	-10.7019
大悦	-10.702
翫月	-10.7022
應制	-10.7025
壬辰	-10.7026
新茶	-10.7026
從容	-10.703
暴雨	-10.7032
明旦	-10.7032
聞其	-10.7038
百二十	-10.704
日食	-10.7041
數里	-10.7045
百物	-10.7045
土中	-10.7047
以助	-10.7048
太極殿	-10.7048
可種	-10.7049
於外	-10.7053
牛馬	-10.7056
五里	-10.7062
詞云	-10.7062
執事	-10.7063
四百	-10.7064
各一人	-10.7065
龍池	-10.7066
十二年	-10.707
所出	-10.7074
白日	-10.7076
而祭之	-10.7077
今嵗	-10.7084
白鹿	-10.7085
種麥	-10.7091
秋蘭	-10.7099
於西	-10.711
在京	-10.7116
小人	-10.7121
過則	-10.7121
青女	-10.7124
當年	-10.7124
人謂之	-10.7126
其旁	-10.7129
五代	-10.7129
制度	-10.713
使君	-10.714
殿上	-10.7144
未盡	-10.7145
吞之	-10.7146
歲星	-10.7146
有徳	-10.7147
王之	-10.7156
涼風	-10.7157
最先	-10.7159
味辛	-10.7163
賢良	-10.7167
召輔臣	-10.7168
其音	-10.7171
乃至	-10.7173
常服	-10.7173
二丈	-10.7175
夏正	-10.7177
中天	-10.7179
河北	-10.7189
有年	-10.719
十四年	-10.719
老子	-10.719
千金	-10.7194
星出	-10.7195
太初	-10.7197
者其	-10.7198
羣飛	-10.7201
白雪	-10.7201
暮夜	-10.7202
進酒	-10.7203
凄	-10.7205
井中	-10.7207
人多	-10.7208
史記	-10.7212
大理	-10.7224
㑹於	-10.7228
文公	-10.7231
黄門	-10.7232
千萬	-10.7232
江水	-10.7233
所載	-10.7236
金石	-10.7244
生長	-10.7246
六七月	-10.7256
受之	-10.726
天帝	-10.7265
夜不	-10.7281
為小	-10.7285
夜鳴	-10.7291
至午	-10.7291
如初	-10.7296
曰卿	-10.7298
之美	-10.7306
十有二月	-10.7311
改元	-10.7311
本朝	-10.7311
相去	-10.7325
大麥	-10.7336
史臣	-10.734
貯之	-10.7341
不解	-10.735
洗之	-10.7352
而罷	-10.7357
而下	-10.7358
一室	-10.7359
者曰	-10.7364
一朝	-10.7369
十有	-10.7373
曰今日	-10.7374
風景	-10.7375
樓下	-10.7382
即是	-10.7392
各以其	-10.7393
臨水	-10.7396
依舊	-10.7396
大中	-10.7405
國朝	-10.742
朔旦	-10.7423
國有	-10.7423
鶉	-10.7432
七刻	-10.7434
未知	-10.7454
以五	-10.7459
年正月	-10.7463
其味	-10.7465
御定月令輯要卷十	-10.747
西山	-10.7471
十天	-10.7472
秋時	-10.7474
置之	-10.7479
庚申	-10.7483
之職	-10.7495
黄氣	-10.7496
六月中	-10.7496
雨後	-10.7499
舟中	-10.7505
平原	-10.7508
初秋	-10.7511
國子	-10.7524
不利	-10.7532
道人	-10.7533
中夜	-10.754
三年八月	-10.754
不動	-10.7541
至八月	-10.7544
五人	-10.7545
夏雲	-10.7548
七言詩	-10.7548
然也	-10.7551
昨	-10.7556
入見	-10.7569
驗之	-10.758
而細	-10.758
夏秋	-10.7581
或作	-10.7591
白如	-10.7595
已下	-10.7596
癘	-10.7598
日雨	-10.76
乃成	-10.76
張說	-10.7601
以八月	-10.7606
夜有	-10.7608
節氣	-10.7617
社前	-10.7619
人之	-10.7621
在内	-10.7628
極星	-10.7633
者則	-10.7634
中宫	-10.7635
清水	-10.7636
二至	-10.7636
耐	-10.7649
堂前	-10.765
至期	-10.7656
大師	-10.7657
人事	-10.7662
增田家五行	-10.767
元祐	-10.7675
内出	-10.7677
出水	-10.7685
生氣	-10.7692
投之	-10.7695
更相	-10.77
時至	-10.7703
有小	-10.7707
増世説	-10.7708
珊瑚	-10.7709
毎月	-10.7709
過此	-10.7716
所宜	-10.7721
南人	-10.7724
人心	-10.7725
元年九月	-10.7726
喚	-10.7726
七月十五日	-10.774
每夜	-10.7745
其令	-10.7745
妃	-10.7748
第三	-10.775
人曰	-10.7755
每年	-10.7778
軸	-10.778
或有	-10.7784
五夜	-10.7789
☷	-10.7796
珥	-10.7796
復生	-10.7802
不問	-10.7803
西北風	-10.7809
嵗以	-10.7813
潦	-10.7825
淳化	-10.7828
有六	-10.783
月祭	-10.7831
第四	-10.7846
増唐六典	-10.7848
眀皇	-10.7848
之心	-10.7848
漢時	-10.7851
年少	-10.7854
不在	-10.7855
東有	-10.7861
數年	-10.7864
増田家雜占	-10.7873
朔旦冬至	-10.7877
南面	-10.7879
禮樂	-10.7881
杭州	-10.7884
始於	-10.7892
紫色	-10.7905
孝經緯	-10.7911
變化	-10.7913
之號	-10.7916
三年五月	-10.7917
於大	-10.792
告朔	-10.7922
貞元	-10.7931
錦繡	-10.7936
欽定四庫全書御定月令輯要卷	-10.7937
簟	-10.7937
應鍾	-10.7942
賜酒	-10.7942
乞巧	-10.7955
卉	-10.7955
夜分	-10.7959
疆	-10.796
多者	-10.7968
熟時	-10.7969
番	-10.7971
褒	-10.7979
月忌	-10.7981
鮓	-10.7982
孟子	-10.7984
翫	-10.7985
蔀	-10.7991
月令曰	-10.7997
増韓愈	-10.7999
邵	-10.8003
扈	-10.8004
廷尉	-10.8005
其家	-10.8009
樹髙	-10.801
焉其	-10.8013
炬	-10.8015
蠧	-10.8022
邸	-10.8022
閙	-10.8023
處也	-10.8024
庾	-10.8027
浥	-10.8027
劉禹錫	-10.8028
石榴	-10.8029
出地	-10.8032
靣	-10.8034
吿	-10.8034
途	-10.8036
日照	-10.8037
陶潛	-10.8037
農家	-10.8038
杭	-10.8039
鮪	-10.804
計吏	-10.804
慧	-10.8041
滓	-10.8041
原周禮天官	-10.8044
無定	-10.8044
熈	-10.8044
誇	-10.8044
籬	-10.8045
瓠	-10.8046
七年九月	-10.8046
𦂳	-10.8047
疋	-10.8047
史官	-10.8048
增選擇歴書	-10.8048
綬	-10.8049
攜	-10.8049
箱	-10.8049
曰昔	-10.8049
扁	-10.805
纂要曰	-10.805
榛	-10.8051
龕	-10.8051
羲	-10.8051
陌	-10.8051
劒	-10.8051
蘖	-10.8052
鑰	-10.8052
振旅	-10.8052
􁀥	-10.8052
原酉陽雜爼	-10.8052
爇	-10.8052
增名勝志	-10.8052
乗輿	-10.8052
磔	-10.8053
菌	-10.8053
䟦	-10.8053
慿	-10.8053
惲	-10.8053
菱	-10.8054
搆	-10.8054
烹	-10.8055
押	-10.8055
偉	-10.8055
翟	-10.8055
瀉	-10.8056
中書門下	-10.8056
飈	-10.8056
帆	-10.8056
貽	-10.8057
鎖	-10.8057
司天監	-10.8058
祓除	-10.8058
弓弩	-10.8059
天倉開	-10.8059
枉	-10.8059
軫	-10.8059
盛長	-10.8059
啄	-10.8059
覔	-10.8059
穹	-10.8059
畤	-10.8059
柑	-10.806
嘲	-10.806
瓢	-10.806
粟米	-10.806
諱	-10.8061
腊	-10.8062
䄂	-10.8062
吹笙	-10.8062
餉	-10.8062
蓂	-10.8062
豕	-10.8062
麓	-10.8063
倩	-10.8063
葺	-10.8063
頴	-10.8063
搖	-10.8064
蔡邕	-10.8064
増遵生八牋	-10.8064
醜	-10.8064
馭	-10.8065
窖	-10.8065
澀	-10.8065
天尊詳見	-10.8065
之節初五日	-10.8065
突	-10.8065
島	-10.8065
辛亥	-10.8066
撥	-10.8066
蛀	-10.8066
矜	-10.8066
覲	-10.8066
㳟	-10.8066
恤	-10.8066
般	-10.8066
償	-10.8066
暝	-10.8066
裝	-10.8066
揉	-10.8066
畿	-10.8066
鑾	-10.8066
勾	-10.8067
増史記封禪書	-10.8067
擘	-10.8067
灑掃	-10.8068
提要録	-10.8068
薫	-10.8068
煎湯	-10.8068
増隋書天文志	-10.8068
恣	-10.8068
蠢	-10.8069
誥	-10.8069
盗	-10.8069
鳬	-10.8069
纎	-10.8069
萹	-10.8069
覈	-10.8069
桶	-10.807
萊	-10.807
忩	-10.807
組	-10.807
樞宻	-10.807
鮑	-10.807
鈿	-10.807
椀	-10.8071
獺祭魚	-10.8071
仞	-10.8071
増李尤	-10.8071
朴	-10.8071
颶風	-10.8072
逕	-10.8073
弹	-10.8073
虵	-10.8073
欵	-10.8073
數千	-10.8073
增農政全書	-10.8073
巡	-10.8073
逃	-10.8073
較	-10.8074
鋒	-10.8074
長尺餘	-10.8074
嘉祐	-10.8074
縑	-10.8075
譽	-10.8075
莧	-10.8075
戾	-10.8075
句芒	-10.8075
沾	-10.8075
蘓	-10.8075
犢	-10.8075
旛	-10.8075
侈	-10.8075
殖	-10.8075
筋	-10.8077
柿	-10.8077
原楚辭	-10.8078
着	-10.8078
王羲之	-10.8078
鑚	-10.8079
淒	-10.8079
牡	-10.8079
菰	-10.8079
増隋書禮儀志	-10.8079
渥	-10.808
岫	-10.808
敘	-10.808
蓍	-10.808
糴	-10.8081
履端	-10.8082
暘	-10.8082
庚午	-10.8082
戊申	-10.8083
舍利	-10.8083
教坊	-10.8084
昧爽	-10.8084
判官	-10.8084
春夏秋冬	-10.8084
遯	-10.8084
蛤	-10.8085
牛羊	-10.8085
為一端	-10.8085
閶闔	-10.8086
少昊	-10.8086
京兆	-10.8087
癸未	-10.8089
之歌	-10.8089
黄梅雨	-10.809
茅君	-10.809
鱸魚	-10.809
鱠	-10.809
増益部方物畧記	-10.809
増輟耕録	-10.809
百鬼	-10.8091
鼓吹	-10.8092
千五百	-10.8093
司馬光	-10.8093
蒸熟	-10.8094
列侯	-10.8094
篴	-10.8095
燈市	-10.8096
靈臺	-10.8097
壬癸	-10.8097
移栽	-10.8098
增漢書	-10.8099
增宋史禮志	-10.81
太常卿	-10.81
女貞	-10.8101
應制詩	-10.8102
原白虎通	-10.8103
増紀厯撮要	-10.8103
乾坤	-10.8105
凡有	-10.8105
文王	-10.8107
經云	-10.8108
在亥	-10.811
三寸	-10.8111
之分野	-10.8113
必得	-10.8115
波斯國	-10.8117
貢士	-10.8118
收斂	-10.8118
造化	-10.8121
八音	-10.8126
不言	-10.8127
侍從	-10.8129
而多	-10.8131
桓公	-10.8132
亦得	-10.8133
丁未	-10.8133
循行	-10.8137
大赦	-10.8138
少許	-10.8139
肅宗	-10.8145
每遇	-10.8149
滿城	-10.815
以大	-10.8152
教之	-10.8152
周易	-10.8154
名之曰	-10.8155
張華	-10.816
之子	-10.816
諸王	-10.8161
亦如	-10.8168
冬𤓰	-10.8168
名也	-10.8168
徳也	-10.8169
無私	-10.8175
大閲	-10.8177
兖州	-10.8181
相呼	-10.8182
邑人	-10.8185
輕重	-10.8185
水晶宫	-10.8188
玉輅	-10.8189
清和	-10.819
月七日	-10.8191
宴飲	-10.8192
七尺	-10.8193
正義	-10.8201
五百里	-10.8201
無水	-10.8204
之樂	-10.8204
麥秋	-10.8205
太官	-10.8206
之前	-10.8209
而無	-10.821
六甲	-10.821
從祀	-10.8212
異香	-10.8213
千官	-10.8215
節度	-10.8218
太嵗	-10.8219
雲漢	-10.8219
殺氣	-10.8225
夕陽	-10.8234
是夕	-10.824
澄清	-10.8248
春盤	-10.8251
十五夜	-10.8252
上弦	-10.8259
化成	-10.8261
元君	-10.8263
閏法	-10.8266
正當	-10.8267
山山	-10.8271
其莖	-10.828
以為常	-10.8281
禁令	-10.8281
不畏	-10.8282
在外	-10.8286
古法	-10.8288
如願	-10.8291
謁者	-10.8298
正朔	-10.8307
萬方	-10.831
紫花	-10.8314
益州	-10.8314
月五日	-10.8327
園中	-10.8331
巳時	-10.8337
右行	-10.8359
之属	-10.8361
所進	-10.8361
旬日	-10.8363
相應	-10.8369
四年二月	-10.8371
正月二日	-10.8377
奉詔	-10.8378
悉以	-10.8378
一次	-10.8383
雷聲	-10.8386
選人	-10.8387
實也	-10.839
齋戒	-10.8402
辰戌	-10.8406
徳言	-10.8414
之術	-10.8415
所見	-10.8418
太公	-10.842
曰天	-10.8424
青青	-10.8425
神農	-10.8429
退而	-10.8438
更有	-10.8438
中則	-10.844
以充	-10.844
自有	-10.8442
一晝夜	-10.8444
不歸	-10.8449
之具	-10.8449
丈餘	-10.8449
隆冬	-10.8451
與天	-10.8458
春秋分	-10.8461
此鳥	-10.8462
聲調	-10.8466
之夜	-10.8468
子丑	-10.8468
正西	-10.8471
五時	-10.8489
星月	-10.8497
百錢	-10.85
為陽	-10.8503
時候	-10.8514
臣王	-10.8517
在於	-10.8518
百花	-10.8526
時務	-10.8528
之謂	-10.854
帝親	-10.8542
應節	-10.8545
其精	-10.8545
萬人	-10.8552
命有司	-10.8553
増通考	-10.8556
始開	-10.8559
其一	-10.8566
成萬物	-10.8568
以防	-10.8568
者有	-10.8569
即此	-10.857
其木	-10.8572
其制	-10.8582
増四民月令正月	-10.8584
井水	-10.859
不必	-10.8595
御定月令輯要卷	-10.86
成也	-10.8601
天徳	-10.8606
正是	-10.8607
前一日	-10.861
使民	-10.8611
中流	-10.8614
者即	-10.8617
芝生	-10.862
者必	-10.8625
三十二	-10.8626
四方之	-10.863
白居易詩	-10.8632
今夕	-10.8632
因名	-10.8637
春牛	-10.8638
紅白	-10.8642
彘	-10.8656
改用	-10.866
從事	-10.866
四年正月	-10.8675
吏部	-10.8679
火火	-10.8686
盛開	-10.8687
初吉	-10.8688
山人	-10.8693
五行之	-10.8696
以紙	-10.8703
見者	-10.871
百年	-10.8712
白帝	-10.8714
是夜	-10.8717
赤帝	-10.8717
雲中	-10.8735
三月中	-10.8735
天河	-10.8742
水面	-10.8744
其有	-10.8747
問曰	-10.8747
祭也	-10.8762
之色	-10.8763
正月中	-10.8763
不已	-10.8765
懐中	-10.8771
七月熟	-10.8772
言事	-10.8773
先聖	-10.8773
去地	-10.8778
花木	-10.8782
出火	-10.8787
熟食	-10.8787
隨月	-10.8793
白馬	-10.8798
其徳	-10.8799
之先	-10.8804
輔臣	-10.8808
花葉	-10.881
一本	-10.881
立秋後	-10.8825
禮儀	-10.8831
至正	-10.8832
陽也	-10.8833
上辛	-10.8838
祠后土	-10.8839
地無	-10.8839
日辰	-10.8842
日占	-10.8842
星也	-10.885
其故	-10.8857
神人	-10.8859
之方	-10.8861
以手	-10.8867
百穀	-10.8872
開時	-10.8876
何必	-10.8882
二十一	-10.889
以十月	-10.8892
又得	-10.8896
故知	-10.89
春華	-10.8905
占曰	-10.891
記其	-10.8911
道也	-10.8913
天而	-10.8919
世人	-10.8925
試之	-10.8926
即今	-10.8928
一聲	-10.8929
官各	-10.8933
紅花	-10.8936
春鳥	-10.894
不甚	-10.8944
兒女	-10.8953
其祀	-10.8954
十萬	-10.8955
腹中	-10.8958
門内	-10.8969
青雲	-10.897
而隂	-10.897
四月初	-10.8971
月九日	-10.8975
師曰	-10.8976
娱	-10.8979
外國	-10.8984
中外	-10.8987
白石	-10.8989
欲得	-10.899
風生	-10.8995
大也	-10.8997
送之	-10.9
唐制	-10.9005
雨詩	-10.9035
春官	-10.904
青陽	-10.9042
角亢	-10.9047
日暈	-10.9057
誕日	-10.9073
八月九月	-10.9078
今之	-10.9082
大内	-10.9083
三卷	-10.9096
氏掌	-10.9097
長大	-10.9104
少時	-10.9112
至夜	-10.9119
開寳	-10.9125
原宋史	-10.9135
已生	-10.9144
閩	-10.9145
内人	-10.9147
凡四	-10.9151
晒	-10.9157
月月令曰	-10.9157
後魏	-10.9158
世祖	-10.9162
方盛	-10.9163
何人	-10.9164
丁丑	-10.9178
入内	-10.9184
正月十四日	-10.9186
可以為	-10.9187
閏三月	-10.9187
里有	-10.9189
周之	-10.9189
此是	-10.919
及諸	-10.9191
釋奠	-10.9191
湧	-10.9194
原後漢書禮儀志	-10.9194
南吕	-10.9196
桴	-10.9205
夏四月	-10.9206
亨	-10.9207
柘	-10.9213
丑未	-10.9216
增唐會要	-10.9217
遂以	-10.9217
泥封	-10.9218
凡三	-10.9219
三年正月	-10.9227
之要	-10.9231
香山	-10.9237
之道也	-10.9239
清明前	-10.9244
之節	-10.9244
取水	-10.9249
經筵	-10.925
正月三日	-10.9253
上天	-10.9254
河豚	-10.9256
江淹	-10.9256
興慶宫	-10.9257
崑崙	-10.9258
北辰	-10.9258
吕氏春秋	-10.9263
天統	-10.9264
牒	-10.9268
勃	-10.9268
闈	-10.9268
奈	-10.927
孚	-10.927
國子監	-10.9272
河南	-10.9272
庾信	-10.9274
麝	-10.9279
形似	-10.9285
千秋節	-10.9289
葫蘆	-10.9289
蹄	-10.929
媒	-10.9291
磚	-10.9292
糶	-10.9292
揭	-10.9294
児	-10.9295
顥	-10.9295
贖	-10.9295
荼	-10.9295
趂	-10.9295
掖	-10.9295
海水	-10.9296
勘	-10.9297
霏	-10.9297
弼	-10.9298
爻	-10.9298
萎	-10.9298
淑	-10.9298
泡	-10.9299
機杼	-10.93
絡	-10.93
增名醫别錄	-10.9301
遜	-10.9301
榴	-10.9302
誡	-10.9302
内侍	-10.9302
暎	-10.9302
猨	-10.9302
陸㳺	-10.9303
詢	-10.9303
天意	-10.9303
咽	-10.9303
綯	-10.9303
漂	-10.9304
喪	-10.9304
誨	-10.9304
豚	-10.9304
貳	-10.9304
醸酒	-10.9304
叱	-10.9304
徃徃	-10.9304
天下太平	-10.9305
泗	-10.9305
桺	-10.9306
媪	-10.9306
東作	-10.9306
咎	-10.9306
稗	-10.9306
慢	-10.9306
諸道	-10.9306
颯	-10.9306
睹	-10.9307
硬	-10.9307
㝎	-10.9307
摧	-10.9307
廉	-10.9308
鬛	-10.9308
老翁	-10.9308
撤	-10.9308
増梁書	-10.9308
弩	-10.9308
傲	-10.9309
秫	-10.9309
閎	-10.9309
㡌	-10.9309
攷	-10.931
肌	-10.931
陪位	-10.931
醋	-10.931
拾遺	-10.931
贄	-10.931
梧	-10.931
増名醫别録	-10.9311
悽	-10.9311
甄	-10.9311
技	-10.9311
贍	-10.9311
棘	-10.9311
齡	-10.9311
訶	-10.9312
凛	-10.9312
増廣志	-10.9312
姜	-10.9312
臧	-10.9312
馥	-10.9313
増清異録	-10.9313
囂	-10.9313
鍾馗	-10.9313
釁	-10.9313
匀	-10.9313
壞	-10.9314
祿	-10.9314
荻	-10.9314
廡	-10.9314
頸	-10.9314
託	-10.9314
銓	-10.9314
褰	-10.9314
會稽	-10.9314
璫	-10.9314
洒	-10.9315
竪	-10.9315
恬	-10.9315
蹟	-10.9315
醮	-10.9315
藜	-10.9315
増開天遺事	-10.9315
笠	-10.9315
岩	-10.9315
沴	-10.9315
昆	-10.9316
燧	-10.9316
盜	-10.9316
禮部尚書	-10.9317
奚	-10.9317
伏羲	-10.9317
逝	-10.9317
鬰	-10.9317
妖	-10.9317
牝	-10.9317
增國語	-10.9317
館閣	-10.9317
望春亭	-10.9317
褐	-10.9317
壘	-10.9317
娥	-10.9318
弧	-10.9318
滛	-10.9318
浚	-10.9318
一丈	-10.9318
祀竈	-10.9318
孛	-10.9319
溽暑	-10.9319
増食譜張手美	-10.9319
袒	-10.9319
誌	-10.9319
盂蘭盆	-10.9319
徐鉉	-10.9319
逓	-10.9319
原千金月令	-10.9319
幢	-10.9319
縠	-10.9319
迄	-10.9319
糾	-10.932
沼	-10.932
夏雨	-10.932
惑	-10.932
嵌	-10.932
惰	-10.932
杏仁	-10.932
箴	-10.932
羹	-10.932
椹	-10.932
泛舟	-10.932
壤	-10.932
薔薇	-10.932
挹	-10.9321
茯苓	-10.9321
彫	-10.9321
峭	-10.9321
樣	-10.9321
両	-10.9321
渡河	-10.9321
洎	-10.9321
朽	-10.9321
肌膚	-10.9321
轝	-10.9321
喙	-10.9321
睛	-10.9321
狼	-10.9322
釘	-10.9322
九成宫	-10.9322
栖	-10.9322
茸	-10.9322
伎	-10.9323
斾	-10.9323
増周禮地官	-10.9323
援	-10.9323
士臣	-10.9323
増楊升菴集	-10.9323
日得壬	-10.9323
圈	-10.9323
隕	-10.9323
啇	-10.9324
糓	-10.9324
以土	-10.9324
臭	-10.9325
險	-10.9325
千畝	-10.9325
荀	-10.9325
原續文獻通考	-10.9325
鄙	-10.9325
瀝	-10.9325
原羣芳譜	-10.9325
怡	-10.9325
命婦	-10.9325
䘮	-10.9326
辜	-10.9326
麋角	-10.9327
鷄	-10.9327
刼	-10.9327
肴	-10.9327
増政和本草	-10.9327
噴	-10.9328
㑹稽	-10.9328
梟	-10.9328
酪	-10.9328
貢舉	-10.9328
侣	-10.9328
餔	-10.9329
擕	-10.933
笳	-10.9331
查	-10.9331
疲	-10.9332
擾	-10.9332
蒺藜	-10.9332
怕	-10.9332
渭濵	-10.9334
緩急	-10.9334
増乾淳嵗時記元夕	-10.9334
禀	-10.9334
鳧	-10.9335
慚	-10.9336
秀才	-10.9336
射之	-10.9336
月行	-10.9337
南薰	-10.9338
斗建	-10.9339
求遺書	-10.9339
瘞	-10.9339
蘿	-10.9339
主雨	-10.9339
王勃	-10.9339
菑	-10.934
弓矢	-10.934
孔氏	-10.934
不合	-10.9342
八十里	-10.9343
揆	-10.9343
増隋書	-10.9345
雅樂	-10.9345
戴勝	-10.9345
翎	-10.9346
萬夀	-10.9346
表裏	-10.9346
尹氏	-10.9346
尤甚	-10.9347
日昃	-10.9351
洗眼	-10.9351
宗紀	-10.9352
詩話	-10.9352
原漢書律歴志	-10.9352
鶉火	-10.9352
真宗	-10.9353
隂雨	-10.9353
太液池	-10.9354
無有	-10.9354
毛羽	-10.9356
四十五日	-10.9356
朱子注	-10.9357
内庫	-10.9358
帖子	-10.9358
陽和	-10.9358
寅夘	-10.9359
金蓮	-10.9359
白髪	-10.936
杜牧	-10.936
天寶遺事	-10.9361
檢校	-10.9363
養老	-10.9364
門之外	-10.9364
北陸	-10.9364
如彈丸	-10.9365
既望	-10.9366
供奉	-10.9367
一合	-10.9369
増吕氏春秋	-10.937
不寐	-10.9372
之嵗曰	-10.9373
竹醉	-10.9373
放燈	-10.9374
召對	-10.9376
殿庭	-10.9378
五十里	-10.9378
蠶室	-10.9382
賜從官	-10.9382
説文	-10.9384
旦日	-10.9384
在辰	-10.9384
文昌	-10.9386
相逢	-10.939
男子	-10.9391
至三	-10.9393
金鏡	-10.9393
一氣	-10.9394
茂盛	-10.9396
炎帝	-10.9396
四月四日	-10.9397
書籍	-10.9397
大呂	-10.9399
羽毛	-10.94
庭樹	-10.9402
佛寺	-10.9403
芳草	-10.9403
香美	-10.9403
咸通	-10.9405
戌亥	-10.9407
不受	-10.9409
諸司	-10.9411
河朔	-10.9411
王褒	-10.9412
上清	-10.9414
以一	-10.9414
浮雲	-10.9414
二升	-10.9418
飛鳥	-10.9418
府志	-10.9422
紅色	-10.9423
一片	-10.9425
仙女	-10.9425
兩制	-10.9425
正東	-10.9425
為水	-10.9426
淮南子註	-10.9427
申酉	-10.9427
奏樂	-10.9429
之交	-10.943
歎曰	-10.9431
花朝	-10.9433
荅曰	-10.9435
之至也	-10.9435
玉燭	-10.9436
甘雨	-10.9437
増杜甫詩	-10.9438
世家	-10.9439
月出	-10.9442
未眀	-10.9443
其禮	-10.9445
北齊	-10.9447
羣神	-10.9447
詔曰朕	-10.9452
肅殺	-10.9452
増周禮	-10.9457
秋風起	-10.9462
頒行	-10.9464
待詔	-10.9464
雷雨	-10.9465
神宗	-10.9465
髙廟	-10.9466
縱觀	-10.9468
黄雲	-10.9468
儀注	-10.9469
苦寒	-10.947
因留	-10.9471
不堪	-10.9475
三十餘	-10.9477
牛酒	-10.9479
舉家	-10.9484
含笑	-10.9484
至七月	-10.9488
改正	-10.9492
忽見	-10.9492
澤中	-10.9496
元會	-10.9499
孝子	-10.9499
四象	-10.9499
實有	-10.9504
金盤	-10.9505
道路	-10.9507
貴人	-10.9507
斗杓	-10.951
在位	-10.9513
郊見	-10.9514
丑時	-10.9516
乾之	-10.9521
祠官	-10.9526
九日詩	-10.9538
羣書	-10.9539
二字	-10.954
食也	-10.9542
靈芝	-10.9542
五味	-10.9544
映日	-10.9544
鬭雞	-10.9545
未必	-10.9546
度數	-10.9548
海南	-10.9548
李公	-10.955
燈光	-10.9552
人統	-10.9552
天有	-10.9553
三統	-10.9556
至曉	-10.9562
賜百官	-10.9564
運行	-10.9566
来日	-10.9567
結夏	-10.957
大事	-10.957
如絲	-10.9574
南陽	-10.9575
夜視	-10.9576
終嵗	-10.9579
大豆	-10.9579
湖上	-10.958
防風	-10.9581
樹上	-10.9582
自古	-10.9587
日冬至	-10.9594
天晴	-10.9608
者咸	-10.9609
昏眀	-10.961
西成	-10.961
六寸	-10.9615
種禾	-10.9617
養之	-10.9623
都下	-10.9623
平明	-10.9625
長也	-10.9626
一遍	-10.9628
及第	-10.9633
是月也	-10.9634
埋之	-10.9636
正晝	-10.9639
朔方	-10.9642
曰某	-10.9644
晨出	-10.9645
三斗	-10.9651
火樹	-10.9653
行漏	-10.9655
之若	-10.9656
相國	-10.9659
故稱	-10.9659
軍士	-10.966
禮成	-10.9661
水之	-10.9662
增易	-10.9666
開元二	-10.9667
百神	-10.9669
一百二十	-10.9672
年二月	-10.9672
書其	-10.9673
星主	-10.9673
已過	-10.9687
故言	-10.9689
以火	-10.9691
上計	-10.9692
猶在	-10.9692
夜月	-10.9694
俗𫝊	-10.9698
二十二	-10.9704
五政	-10.9707
有神	-10.9711
上生	-10.9721
人謂	-10.9721
和元年	-10.9724
春令	-10.9727
觀酺	-10.9729
秋水	-10.9735
可觀	-10.9735
中元日	-10.9737
淮南子注	-10.9744
有紫	-10.9748
八月一日	-10.975
法酒	-10.9758
増周易集解	-10.9763
廬山	-10.9766
三禮義宗	-10.9769
終身	-10.9772
國史	-10.9775
山居	-10.9779
莭氣	-10.978
天一	-10.9782
秋三月	-10.9782
鳴於	-10.9786
二斗	-10.9787
西風	-10.9787
出門	-10.9789
入於	-10.979
音聲	-10.9791
也淮南子	-10.9792
黄衣	-10.9795
武帝紀	-10.9801
受其	-10.9803
景龍	-10.9803
正月七日	-10.9807
庶人	-10.9811
草書	-10.9811
火山	-10.9812
四十八	-10.9814
州西	-10.9815
有雲	-10.982
而香	-10.9824
食物	-10.9829
而知	-10.9834
易曰	-10.9841
時以	-10.9846
清光	-10.985
猶未	-10.9853
人不	-10.9868
先後	-10.9878
君之	-10.9879
一日一夜	-10.9887
月令天道月卦	-10.9892
以四月	-10.9894
之句	-10.9898
以五月	-10.99
以飬	-10.9907
之盛	-10.9909
宣示	-10.9911
朝陽	-10.9912
頗有	-10.9916
號令	-10.9917
朝會	-10.9922
漢人	-10.9933
一陽	-10.9937
取此	-10.994
眀月	-10.9951
與諸	-10.9957
農人	-10.9959
未及	-10.9964
中庭	-10.9969
公與	-10.997
夜燈	-10.9971
之宜	-10.9981
亦謂之	-10.9984
今月	-10.9985
人言	-10.9987
常山	-10.9989
以禦	-10.9995
嘗有	-10.9997
而食	-11
七寸	-11.0005
於南	-11.0006
歌曰	-11.0008
九江	-11.0011
連山	-11.0011
美人	-11.0013
出郊	-11.0015
大有	-11.0018
之政	-11.0029
天馬	-11.0031
生花	-11.0034
所得	-11.0036
此為	-11.0042
秋雨	-11.0045
採桑	-11.0048
四十九	-11.0048
赤豆	-11.0051
不滿	-11.0052
雨多	-11.0053
有鳥	-11.0053
廊	-11.0056
帝王	-11.0057
六年十一月	-11.006
原禮孟	-11.0067
終也	-11.0074
增夢溪筆談	-11.0075
葉青	-11.0076
春来	-11.0076
人民	-11.0079
花實	-11.0082
夜開	-11.0084
季月	-11.0089
城中	-11.009
室中	-11.0098
千餘	-11.0102
秋後	-11.0102
未時	-11.0103
既成	-11.0105
日落	-11.012
春服	-11.012
門入	-11.0122
國人	-11.0125
除之	-11.0128
得金	-11.0129
有客	-11.013
皆用	-11.0131
無聲	-11.0137
以所	-11.0141
林木	-11.0142
自註	-11.0146
昔有	-11.0147
暑退	-11.0158
尋之	-11.0163
日影	-11.0163
月十一日	-11.0165
月餘	-11.0168
漸漸	-11.0174
陽縣	-11.0176
者具	-11.0187
山南	-11.0187
御前	-11.0191
上命	-11.0193
凉風	-11.0194
政教	-11.0198
鉦	-11.0198
火王	-11.0203
諸侯之	-11.0205
侍御	-11.0205
其大	-11.0206
飾以	-11.0207
在前	-11.0218
二十餘	-11.0227
可謂	-11.0231
池水	-11.0233
尚有	-11.0237
長秋	-11.0237
五色雲	-11.0249
不失	-11.0252
二十六	-11.0261
正元	-11.0266
日日	-11.0273
受朝	-11.0273
平生	-11.0274
而起	-11.0277
月開花	-11.0284
夜作	-11.0285
音也	-11.0288
自開	-11.0288
光武	-11.0288
政和	-11.0296
六百	-11.0304
之次	-11.0304
時莭	-11.0308
手詔	-11.0316
夏氣	-11.0317
陽始	-11.0321
賜名	-11.0325
土不	-11.033
穀雨	-11.0334
春雪	-11.0337
傳曰	-11.0341
得名	-11.0342
増玉海紹興十	-11.0345
増玉海淳熙	-11.0352
樓上	-11.0362
頃之	-11.0368
雖無	-11.0376
増李	-11.0378
六尺	-11.0378
大同	-11.0382
月二日	-11.0384
節物	-11.0396
國中	-11.0397
交於	-11.0405
皇城	-11.0405
赤道	-11.0406
原田家雜占	-11.0407
五嵗	-11.041
作一	-11.0414
甲子日	-11.0417
地上	-11.0419
求之	-11.0419
於陽	-11.0423
花樹	-11.0423
之異	-11.0426
數人	-11.0428
應時	-11.0435
小而	-11.0436
乃有	-11.0438
長者	-11.0446
為火	-11.0448
時見	-11.045
賞之	-11.0451
閏九月	-11.0467
乃生	-11.0471
言之	-11.0473
月以	-11.0482
四月一日	-11.0482
取汁	-11.0487
仲月	-11.0489
半夏	-11.0494
夜氣	-11.0494
文宗	-11.0501
月也	-11.0501
各自	-11.0503
夜出	-11.0509
禰	-11.0512
冬至之日	-11.0528
於河	-11.0533
然其	-11.0534
陸游	-11.0538
城外	-11.0542
為上	-11.0542
其言	-11.0545
一周天	-11.055
方出	-11.0551
十八年	-11.0554
嵗終	-11.0557
渙	-11.0558
水氣	-11.0562
露氣	-11.0566
之説	-11.0578
耳目	-11.058
原風土記	-11.0589
乙夘	-11.0592
妨	-11.0594
人主	-11.0594
者各	-11.0594
極寒	-11.0598
上問	-11.0598
増玉海紹興	-11.0603
鷺	-11.0604
冬十月	-11.0606
師而	-11.0606
增後漢書	-11.0609
增史記天官書	-11.0612
長沙	-11.0613
開元中	-11.0614
嚼	-11.0618
弊	-11.0619
原拾遺記	-11.0635
則知	-11.064
謂其	-11.0646
埤雅	-11.0651
初二	-11.0651
本草綱目	-11.0653
水晶	-11.0655
二十七	-11.0657
而青	-11.066
柏葉	-11.0663
大樂	-11.0664
暑雨	-11.0665
翰林院編修加	-11.0668
瀛	-11.067
所用	-11.0672
啟蟄	-11.0672
以告	-11.0675
時方	-11.0675
周書時訓曰	-11.0677
麻姑	-11.0678
東壁	-11.0678
臼	-11.0679
丁夘	-11.0679
芝草	-11.068
韓琦	-11.0683
中得	-11.0691
宋史禮志	-11.0691
為上時	-11.0693
耒	-11.0696
柹	-11.07
最佳	-11.0701
増避暑録話	-11.0701
蒋	-11.0702
夙	-11.0703
秋霖	-11.0705
儺	-11.0706
石為	-11.0706
納之	-11.0707
唐書禮樂志	-11.0708
焰	-11.0708
北向	-11.0709
魏文帝	-11.0709
沈佺期	-11.0711
頤	-11.0712
俗云	-11.0713
肯	-11.0714
鼉	-11.0715
瀆	-11.0715
顒	-11.0716
之瑞	-11.0716
周易集解	-11.0716
瓊林苑	-11.0716
僧孺	-11.0719
方来主	-11.072
鴟	-11.072
進御	-11.0721
太液	-11.0721
為中時	-11.0722
禋	-11.0722
悵	-11.0722
熖	-11.0723
浴佛	-11.0724
􁆸	-11.0724
釐	-11.0724
子者	-11.0724
薰	-11.0724
楷	-11.0724
嚥	-11.0724
庠	-11.0725
娛	-11.0725
筭	-11.0725
以木	-11.0725
増唐詩紀事	-11.0726
李商隐	-11.0727
揀	-11.0727
鵠	-11.0727
尸	-11.0727
裾	-11.0727
賞花	-11.0727
璽	-11.0727
麵	-11.0728
蜘蛛	-11.0728
正也	-11.0728
蔚	-11.0729
甌	-11.0729
聒	-11.0729
鴽	-11.0729
訟	-11.0729
剡	-11.0729
孺	-11.073
敲	-11.073
嶠	-11.073
迥	-11.073
亞	-11.073
恃	-11.073
纖	-11.073
溉	-11.0731
鼈	-11.0731
六典	-11.0731
辟雍	-11.0731
劇	-11.0731
萍	-11.0731
舄	-11.0732
眄	-11.0732
髻	-11.0732
眺	-11.0732
批	-11.0733
綏	-11.0733
鵬	-11.0733
太僕寺	-11.0733
赭	-11.0733
桞	-11.0733
翰林院	-11.0734
主祠	-11.0734
鴛鴦	-11.0734
隰	-11.0734
仲淹	-11.0734
耽	-11.0734
鑪	-11.0734
魚鼈	-11.0734
產	-11.0735
椿	-11.0735
束帛	-11.0735
祓	-11.0735
原事物紀原	-11.0736
軾	-11.0736
蘘荷	-11.0736
行道	-11.0737
障	-11.0737
鵲巢	-11.0737
笏	-11.0737
坂	-11.0737
蓐	-11.0737
諌	-11.0737
岱	-11.0737
沿	-11.0738
括	-11.0738
袴	-11.0738
歉	-11.0738
檐	-11.0738
橙	-11.0738
塩	-11.0738
仲冬之月	-11.0738
而物	-11.0738
增水經注	-11.0739
焙	-11.0739
笙歌	-11.0739
鄉里	-11.0739
袖	-11.0739
躡	-11.0739
唐明皇	-11.0739
増宋史五行志	-11.074
替	-11.074
貝	-11.074
麞	-11.074
漾	-11.074
繆	-11.074
榆莢	-11.074
槁	-11.074
飱	-11.074
関	-11.074
月與	-11.074
居人	-11.074
之文	-11.0741
蔣	-11.0741
彭城	-11.0741
蓬莱	-11.0741
欝	-11.0741
脊	-11.0741
評	-11.0741
飛昇	-11.0741
孤寡	-11.0741
項	-11.0741
淨洗	-11.0742
楠	-11.0742
淋	-11.0742
措	-11.0742
熒惑	-11.0742
苫	-11.0742
翦	-11.0742
增宋書	-11.0742
袂	-11.0742
襦	-11.0742
靄	-11.0742
荆楚歳時記	-11.0742
宏	-11.0743
増漢書五行志	-11.0743
鎔	-11.0743
太史奏	-11.0743
湯餅	-11.0743
謡	-11.0743
醖	-11.0743
貉	-11.0743
朝霞	-11.0744
瓤	-11.0744
杏園	-11.0744
逶迤	-11.0745
杳	-11.0745
麯	-11.0745
翮	-11.0745
冉冉	-11.0745
旻	-11.0745
扆	-11.0745
白虎通徳論曰	-11.0745
垢	-11.0745
蕭瑟	-11.0745
増漢書武帝紀元封	-11.0745
憫	-11.0745
貎	-11.0745
律中無射	-11.0745
高祖紀	-11.0745
為始	-11.0745
撾	-11.0746
鼜	-11.0746
奏請	-11.0746
琢	-11.0747
衷	-11.0747
譬	-11.0747
黄鵠	-11.0747
潑	-11.0747
咒	-11.0747
増漢書郊祀志	-11.0747
稭	-11.0747
皎	-11.0747
増宋書	-11.0748
蹇	-11.0748
掇	-11.0748
耆老	-11.0748
月置或進在	-11.0748
寮	-11.0748
交趾	-11.0748
釋迦	-11.0748
槍	-11.0748
鋭	-11.0748
螳蜋	-11.0748
鎻	-11.0748
莢	-11.0748
牋	-11.0749
増論衡	-11.0749
御座	-11.0749
倫	-11.0749
澍	-11.0749
后稷	-11.0749
朔日值	-11.0749
増舊唐書禮儀志	-11.0749
睂	-11.0749
律中黄鍾	-11.0749
温泉	-11.075
氷泮	-11.075
鄭康成	-11.075
夹	-11.075
亢	-11.075
槌	-11.075
正陽	-11.075
召近臣	-11.075
茭	-11.0751
娟	-11.0751
册	-11.0751
壟	-11.0751
淪	-11.0751
紫宸	-11.0751
綸	-11.0752
京兆府	-11.0752
昆明池	-11.0752
琳	-11.0752
攬	-11.0752
治服之	-11.0752
伍	-11.0753
辛卯	-11.0753
麒麟	-11.0753
増皇極經世	-11.0753
恊	-11.0753
原隋書	-11.0753
滋味	-11.0753
九衢	-11.0754
皂	-11.0754
何首烏	-11.0754
毌	-11.0754
腫	-11.0754
遣中使	-11.0754
巫祠	-11.0754
硫黄	-11.0754
舫	-11.0755
礙	-11.0755
徂	-11.0755
原雲仙雜記	-11.0755
昇平	-11.0755
五嵗再閏	-11.0755
増師曠占	-11.0755
卿大夫	-11.0755
荚	-11.0756
攘	-11.0756
花萼樓	-11.0756
金龜	-11.0756
灸	-11.0757
禾黍	-11.0757
后妃	-11.0757
觜	-11.0757
儼	-11.0757
祓禊	-11.0757
舟楫	-11.0757
裔	-11.0757
詔褒	-11.0757
麟徳殿	-11.0757
常參官	-11.0757
氛	-11.0758
宴近臣	-11.0758
賞花釣魚	-11.0758
藴	-11.0759
楸	-11.0759
池塘	-11.0759
喉	-11.0759
傅休奕	-11.076
太常博士	-11.076
天寳遺事	-11.076
聖製	-11.076
幘	-11.076
曛	-11.076
白日昇天	-11.076
沔	-11.076
囿	-11.076
義倉	-11.076
鶻	-11.076
墀	-11.076
金華殿	-11.076
灾	-11.0761
摶	-11.0761
零落	-11.0761
冩	-11.0761
膺	-11.0761
嵩山	-11.0762
科斗	-11.0762
寢廟	-11.0763
晨昏	-11.0763
燋	-11.0763
筌	-11.0763
史館	-11.0763
多有之	-11.0763
盗賊	-11.0763
遏	-11.0763
挈	-11.0764
校尉	-11.0764
侍衛	-11.0765
𢎞農	-11.0765
原禮天子乃	-11.0765
閏十一月	-11.0765
隂雲出	-11.0766
㯽榔	-11.0766
鸞鳳	-11.0766
司農	-11.0766
丙申	-11.0766
恕	-11.0766
挟	-11.0766
珍果	-11.0766
慶厯	-11.0767
琯	-11.0767
弋	-11.0767
璞	-11.0767
槎	-11.0767
米賤	-11.0768
開封府	-11.0768
㠯	-11.0768
低田	-11.0768
桂林	-11.0769
滎陽	-11.0769
絺	-11.0769
掘土	-11.0769
三月十八日	-11.077
増太平廣記	-11.077
庶㡬	-11.077
夫婦	-11.077
十有一	-11.0771
畫工	-11.0771
頃刻	-11.0772
弁	-11.0773
僕射	-11.0773
籜	-11.0773
梢	-11.0773
漉出	-11.0775
園囿	-11.0775
祈福	-11.0775
宛轉	-11.0775
傾城	-11.0776
蒻	-11.0776
積聚	-11.0776
羣吏	-11.0777
千餘人	-11.0777
王建	-11.0777
精舍	-11.0778
斗指	-11.0778
講論	-11.0778
伏翼	-11.0779
府庫	-11.0779
蛙	-11.078
丁卯	-11.078
春分之	-11.0781
惟有	-11.0782
入山修	-11.0782
黑色	-11.0782
大司農	-11.0782
増楚辭	-11.0782
俗呼	-11.0783
増本草拾遺	-11.0783
決明	-11.0783
不肯	-11.0783
旦而	-11.0785
平陸	-11.0785
製造	-11.0786
者多	-11.0786
増筍譜	-11.0787
今宵	-11.0787
千載	-11.0788
寳鏡	-11.0788
味苦	-11.0789
真武	-11.079
百福	-11.079
張耒	-11.079
人所	-11.0792
飛騎	-11.0792
凝結	-11.0793
存問	-11.0793
樹花	-11.0793
早梅	-11.0794
東嶽	-11.0794
角黍	-11.0794
虎頭	-11.0795
力士	-11.0795
進呈	-11.0796
景福	-11.0798
燒之	-11.0799
河漢	-11.0799
安静	-11.0799
樓臺	-11.0799
州界	-11.0799
紫禁	-11.08
無疆	-11.0801
日初出	-11.0801
辰正	-11.0802
之一候	-11.0803
増漢書律歴志	-11.0803
俗呼為	-11.0804
庭中	-11.0805
髙昌	-11.0806
大抵	-11.0806
獻夀	-11.0806
茅山	-11.0806
之嵗	-11.0807
少卿	-11.0807
於太廟	-11.0807
詳見	-11.0808
質明	-11.081
大稔	-11.081
以白	-11.081
三十卷	-11.0811
石壁	-11.0812
漁人	-11.0812
純陽	-11.0815
便止	-11.0815
不可勝	-11.0816
太室	-11.0816
行春令	-11.0816
在地中	-11.0817
慶雲見	-11.0818
之日也	-11.0819
閉目	-11.082
忽聞	-11.082
合昏	-11.0827
八月十五日	-11.0828
玉皇	-11.0828
秋者	-11.0828
涼風至	-11.0828
七十二日	-11.0829
辛香	-11.083
冰雪	-11.0831
田禾	-11.0832
一箇	-11.0834
起居注	-11.0835
秋令	-11.0835
建武	-11.0835
燒香	-11.0835
答曰	-11.0837
端居	-11.0838
東京	-11.0839
數百人	-11.0839
本義	-11.0843
公侯	-11.0845
明珠	-11.0846
十月一日	-11.0848
一臼	-11.0849
失其	-11.085
四孟	-11.0851
先以	-11.0855
六斗	-11.0856
増蘇軾詩	-11.0856
列坐	-11.0856
老君	-11.0857
俗傳	-11.0858
晏子	-11.086
生薑	-11.086
風塵	-11.086
西園	-11.0861
百果	-11.0865
于廟	-11.0871
恐其	-11.0871
探春	-11.0872
春隂	-11.0872
司命	-11.0874
年豐	-11.0874
晨起	-11.0874
累月	-11.0875
占城	-11.0876
甚盛	-11.0877
葵子	-11.0877
黄梅	-11.0878
乗馬	-11.0878
洛中	-11.088
以三月	-11.088
樓前	-11.0884
八莭	-11.0885
二月十五日	-11.0886
晴明	-11.0888
子産	-11.0889
畢集	-11.0889
猶有	-11.089
之精也	-11.0892
由此	-11.0896
厯書	-11.0897
之味	-11.0897
秋夜	-11.0897
兩頭	-11.0899
嵗一	-11.09
銘曰	-11.0901
進奉	-11.0904
帳中	-11.0904
登歌	-11.0906
長史	-11.0906
朝野	-11.0907
☴)	-11.0907
之因	-11.0908
宋玉	-11.0908
老酒	-11.0908
收藏	-11.091
於禁中	-11.0915
前期	-11.0916
逰人	-11.0917
黄河	-11.0921
陰氣	-11.0921
經宿	-11.0922
桂子	-11.0923
無雲	-11.0924
音律	-11.0924
千門	-11.0925
行宫	-11.0926
也夏小正	-11.0926
五斗	-11.0927
月十六日	-11.0927
盛徳	-11.0927
國學	-11.0932
歸来	-11.0933
清河	-11.0934
迎年	-11.0934
地形	-11.0935
二月十二日	-11.0936
立夏後	-11.0936
海内	-11.094
於南郊	-11.0942
石室	-11.0944
為閏	-11.0947
不識	-11.0952
安公	-11.0953
山藥	-11.0954
奉和	-11.0959
除道	-11.0959
可憐	-11.096
初伏	-11.0963
此之謂	-11.0964
増白居易	-11.0965
午後	-11.0966
沃之	-11.0972
鍾山	-11.0974
落葉	-11.0979
可知	-11.0985
原感應篇	-11.0988
皆見	-11.0989
歴數	-11.0989
七年四月	-11.099
池上	-11.0991
歸家	-11.0992
入山	-11.0994
獸之	-11.0998
一丸	-11.0998
神女	-11.0999
為四	-11.1
乞子	-11.1003
出納	-11.1006
前殿	-11.1006
調和	-11.1008
舉酒	-11.1009
而陽	-11.1009
木棉	-11.101
迎陽	-11.1011
皆在	-11.1011
春事	-11.1013
已定	-11.1015
無蟲	-11.1016
寒甚	-11.1016
用水	-11.1016
終而	-11.1016
祭服	-11.1017
一首	-11.1017
召見	-11.1018
不祥	-11.1018
百合	-11.1018
光眀	-11.1019
陽長	-11.1019
所獲	-11.1019
受賜	-11.1021
甚多	-11.1022
學道	-11.1022
天寒	-11.1022
十一月十	-11.1024
三司	-11.1026
午夜	-11.1027
國獻	-11.1028
霜後	-11.1029
諸國	-11.1037
野生	-11.1037
武王	-11.1043
不輟	-11.1044
長老	-11.1045
美田	-11.1049
三日後	-11.105
不差	-11.1051
諸色	-11.1053
秋興	-11.1055
正見	-11.1063
題詩	-11.1064
御殿	-11.1067
水洗	-11.1067
以七月	-11.107
二七日	-11.1072
二月開花	-11.1072
羞以	-11.1073
拜天	-11.1075
舊事	-11.1078
晴天	-11.1079
懐詩	-11.1079
白而	-11.1082
生萬物	-11.1084
有定	-11.1086
在午	-11.1096
石穴	-11.1098
白晝	-11.1098
同知	-11.1101
上升	-11.1104
方熟	-11.1105
户部	-11.1107
七分	-11.1107
土也	-11.1111
壇上	-11.1125
原野	-11.1126
望後	-11.1126
種黍	-11.1128
之端	-11.1131
而未	-11.1132
時政	-11.1138
未明	-11.1145
其國	-11.1149
楊梅	-11.115
之又	-11.1152
隂也	-11.1153
江夏	-11.1156
大吉	-11.1164
民皆	-11.1173
使之	-11.1173
短長	-11.1173
其詞	-11.1175
行千里	-11.1178
朝臣	-11.118
民安	-11.1196
明年正月	-11.1197
夜夜	-11.1197
吏人	-11.1197
乃以	-11.1204
金色	-11.1214
其狀	-11.1216
九月熟	-11.122
其鄉	-11.1221
不入	-11.1221
相從	-11.1226
五分	-11.123
年夏四月	-11.1234
中山	-11.1236
子母	-11.1236
蜀郡	-11.1241
祭神	-11.1241
出身	-11.1247
江山	-11.1248
之曲	-11.1253
龍沙	-11.1254
者是	-11.1256
者以其	-11.1258
如麥	-11.1262
到此	-11.1262
得之以	-11.1263
寸許	-11.1264
死者	-11.1265
農桑	-11.1266
能知	-11.1266
生苗	-11.1267
者主	-11.1273
時果	-11.1284
在田	-11.1288
自能	-11.1288
生意	-11.1288
疏言	-11.1289
花似	-11.1296
種麻	-11.1301
内火	-11.1302
皆成	-11.1302
貞元十	-11.1303
石間	-11.1305
和風	-11.1306
秋聲	-11.1307
本無	-11.1307
味如	-11.1312
三十年	-11.1315
功徳	-11.1318
其父	-11.1318
為候	-11.1319
覆以	-11.132
病不	-11.132
心星	-11.132
以教	-11.132
逺行	-11.1321
地官	-11.1324
五年正月	-11.1327
不應	-11.1328
小殿	-11.1332
成數	-11.1334
建寅之月	-11.1335
更為	-11.1335
以施	-11.1338
源出	-11.134
至暮	-11.1348
有僧	-11.135
都無	-11.1351
與日	-11.1351
秋霜	-11.1352
夫子	-11.1359
可見	-11.1367
枝上	-11.1368
月三十日	-11.1377
城縣	-11.1382
雨中	-11.1392
㓂	-11.1393
暑熱	-11.1394
之名曰	-11.1399
增玉海紹興	-11.1404
代宗	-11.1406
初嵗	-11.1407
盛以	-11.1413
不異	-11.1416
以鹽	-11.1422
書生	-11.1423
山石	-11.1423
河内	-11.1423
迎日	-11.1425
張燈	-11.1426
三兩	-11.1432
上書	-11.1434
根下	-11.1435
侍講	-11.1439
者並	-11.1448
以五月五日	-11.1449
已成	-11.1451
赤光	-11.1454
山之	-11.1457
望之如	-11.1461
易之	-11.1473
七人	-11.1475
如春	-11.1475
引之	-11.148
自生	-11.1481
不易	-11.1485
象人	-11.1489
水清	-11.1489
背有	-11.1492
萬物成	-11.1492
雪中	-11.1494
如故	-11.1501
四月五月	-11.1505
此乃	-11.1507
帝君	-11.1508
限以	-11.151
伐之	-11.1512
之注	-11.1519
花果	-11.1519
考其	-11.1521
動則	-11.1525
生根	-11.1529
取出	-11.153
又詔	-11.1532
以測	-11.1534
二年二月	-11.1536
以至	-11.1537
經冬	-11.1539
不可以	-11.1541
冬不	-11.1543
三年九月	-11.1552
之㑹	-11.1558
有驗	-11.1559
剪綵	-11.1562
多在	-11.1563
水仙	-11.1564
避風	-11.1567
正始	-11.157
故不	-11.1575
宫門	-11.1579
而味	-11.1581
盛之	-11.1583
乆之	-11.1585
春耕	-11.1588
夏官	-11.1588
火正	-11.1589
行樂	-11.1596
書云	-11.1604
中人	-11.1604
閉蔵	-11.1605
唐書禮志	-11.1607
初出	-11.1609
赤氣	-11.1611
人力	-11.1618
觀其	-11.1622
二年七月	-11.1625
月三日	-11.1629
故號	-11.1636
化生	-11.1639
初成	-11.164
二月中	-11.1642
亦當	-11.1642
原北史	-11.1644
四始	-11.1645
殺草	-11.1647
口中	-11.1655
因為	-11.1657
九月初	-11.1657
次之	-11.1667
之木	-11.1669
呼之	-11.1673
於人	-11.1677
也䟽	-11.1678
四丈	-11.1678
候之	-11.1684
以自	-11.1686
春山	-11.1687
之每	-11.169
日成	-11.1693
従之	-11.1693
光照	-11.1693
時謂	-11.1699
盡則	-11.1702
服其	-11.1703
注今	-11.1707
也增	-11.1717
秋官	-11.1722
上林	-11.1724
三光	-11.1731
州牧	-11.1731
蘇軾詩	-11.1736
縣東	-11.1739
中作	-11.1745
黄赤	-11.1746
日歴	-11.1752
人衣	-11.1753
其理	-11.1756
嵗月	-11.1756
雞人	-11.1757
之變	-11.1766
正月初	-11.1766
當以	-11.1767
得此	-11.1768
下元	-11.177
北山	-11.1772
令諸	-11.1773
重五	-11.1775
暮秋	-11.1783
嘉其	-11.1802
鹿角解	-11.1815
四五月	-11.1816
復出	-11.183
持齋	-11.1832
玉杯	-11.1833
青鳥	-11.1835
自注	-11.1837
望見	-11.1838
風急	-11.1841
道曰	-11.1843
四年九月	-11.1847
三月之時	-11.1847
以給	-11.1851
曰君	-11.1853
縣北	-11.1854
細如	-11.1854
止於	-11.1856
詔賜	-11.1856
於後	-11.1865
分賜	-11.1866
蟾	-11.187
三年二月	-11.1875
太真	-11.1881
正月朔旦	-11.1884
百家	-11.1892
起一	-11.1899
集於	-11.19
木王	-11.1913
夏中	-11.1913
子以	-11.1914
三官	-11.1916
皆得	-11.192
以祈	-11.1921
不去	-11.1926
二枚	-11.1928
騎士	-11.1929
此法	-11.1938
小盂	-11.1939
為戲	-11.1942
香湯	-11.1946
者當	-11.195
聲如	-11.1953
増唐㑹要貞觀	-11.1955
含元殿	-11.1955
氣之	-11.1965
以事	-11.1972
四年四月	-11.1977
正白	-11.198
一度	-11.198
氐	-11.1981
伏於	-11.1982
文曰	-11.1985
樂正	-11.1991
中春	-11.1999
正北	-11.2011
富春	-11.202
下生	-11.2037
二年八月	-11.2037
後至	-11.2038
或用	-11.2044
三九	-11.2045
内殿	-11.2046
者非	-11.205
讀之	-11.2055
山頂	-11.2059
一小	-11.2063
輟	-11.2064
至扵	-11.2065
初一	-11.2066
為莭	-11.2069
入夏	-11.2072
嘗夜	-11.2081
中有一	-11.2082
是嵗	-11.2088
以享	-11.2088
閏二月	-11.2094
子似	-11.2096
得過	-11.2098
崔憬曰	-11.2105
乃下	-11.2113
寒水	-11.2115
癸酉	-11.2127
侍者	-11.2128
地黄	-11.2128
大而	-11.2134
應天	-11.2138
桂樹	-11.2141
乃作	-11.2147
仁也	-11.2149
為我	-11.215
四年六月	-11.2153
孚甲	-11.2154
目為	-11.2156
五品以上	-11.2158
中使	-11.2159
日西	-11.216
李商隠	-11.2165
田者	-11.2165
餘月	-11.2175
也於是	-11.218
増玉海元祐	-11.2182
皆有之	-11.2189
風雪	-11.2189
也故曰	-11.219
五日為	-11.2192
螽	-11.2192
日夕	-11.2194
髙年	-11.2197
卯酉	-11.2201
火中	-11.2203
芎	-11.2204
不習	-11.2204
花白	-11.2206
此山	-11.2219
聖徳	-11.222
挈壺	-11.2227
人問	-11.2228
冬至之	-11.2228
年老	-11.2229
寅申	-11.2232
長養	-11.224
原田家五行	-11.2243
牲用	-11.2246
河水	-11.2251
諸天	-11.2253
夜長	-11.2256
石湖	-11.2259
癸夘	-11.226
政不失	-11.2268
河西	-11.2272
之體	-11.2273
億	-11.2281
熟者	-11.2285
秋初	-11.2285
仲春之月	-11.2285
増西湖志餘	-11.2286
也但	-11.2291
發生	-11.2295
四尺	-11.2295
穄	-11.2298
七月一日	-11.23
占之	-11.2301
如珠	-11.2302
五品	-11.2305
有刺	-11.2307
何所	-11.2307
清凉	-11.231
最為	-11.2312
越王	-11.2313
而坐	-11.2313
中而	-11.2314
法也	-11.2316
分至	-11.2317
畦種	-11.2317
元帝	-11.2319
出以	-11.2322
如雨	-11.2325
復始	-11.2327
臺上	-11.2328
章得象	-11.2328
乾淳嵗時記	-11.2329
欽定四庫全書御定月令輯要卷十	-11.2331
齊民要術	-11.2336
乃還	-11.2337
至十月	-11.2338
瘤	-11.2344
立夏日	-11.2347
宫闕	-11.2347
茍	-11.2349
則花	-11.235
漢書律歴志	-11.2352
的	-11.2354
風俗通	-11.2355
陽明	-11.236
日月之行	-11.2362
不拘	-11.2363
七十六	-11.2363
莠	-11.2364
庾肩吾	-11.2368
篩	-11.2368
五年九月	-11.2368
駭	-11.2368
筍譜	-11.2369
五采	-11.2373
皺	-11.2373
訊	-11.2374
増選擇歴書	-11.2376
原圖經本草	-11.2376
芬	-11.2377
飴	-11.2377
便民圗纂	-11.2378
昆明	-11.2379
増元史	-11.2379
靄靄	-11.238
漠	-11.2381
原逸周書	-11.2381
屠蘇	-11.2381
逐疫	-11.2381
霹靂	-11.2382
鴿	-11.2385
戮	-11.2385
天文志	-11.2385
原晋書	-11.2386
用五	-11.2386
竦	-11.2386
宵旰	-11.2386
増桯史	-11.2386
欖	-11.2386
苐	-11.2387
䦨	-11.2388
列女𫝊	-11.2389
漫漫	-11.2389
嬪	-11.2389
秤	-11.239
輯	-11.239
紉	-11.239
胡椒	-11.239
獮	-11.239
闢	-11.239
肄	-11.239
暍	-11.239
歙	-11.2391
筴	-11.2391
佑	-11.2391
艷	-11.2391
二年九月	-11.2392
季秋之月	-11.2392
募	-11.2393
蚌	-11.2393
懿	-11.2393
乃罷	-11.2393
乖	-11.2393
个	-11.2393
憇	-11.2393
國史補	-11.2394
百卉	-11.2394
皇考	-11.2394
泝	-11.2394
汙	-11.2394
衾	-11.2394
堕	-11.2394
増莊子	-11.2394
醃	-11.2395
禎	-11.2395
鰲	-11.2396
阿措	-11.2396
獄訟	-11.2396
繚	-11.2396
幃	-11.2396
椘	-11.2397
火星中	-11.2397
倡	-11.2397
畋	-11.2397
百二十人	-11.2397
鷗	-11.2397
傘	-11.2398
紺	-11.2398
原荘子	-11.2399
戀	-11.2399
爛熳	-11.2399
車旂	-11.2399
祟	-11.2399
無花	-11.2399
烘	-11.24
睠	-11.24
朝集使	-11.24
井花水	-11.24
瑑	-11.24
嬉	-11.24
偽	-11.24
巒	-11.24
迴	-11.24
旭	-11.2401
飄颻	-11.2401
打毬	-11.2401
泮	-11.2401
燿	-11.2401
矩	-11.2401
祉	-11.2401
原周禮夏官	-11.2401
顕	-11.2402
行冬令	-11.2402
塜	-11.2402
熙寧	-11.2403
𣗳	-11.2403
鵲橋	-11.2403
増瑯嬛記	-11.2403
宼	-11.2403
謂左右曰	-11.2403
臟	-11.2403
偕	-11.2404
榭	-11.2404
茲	-11.2404
増西京雜記	-11.2404
試詩賦	-11.2404
沮	-11.2404
北方元武之宿	-11.2404
冦	-11.2404
什	-11.2404
准	-11.2405
榆栁	-11.2405
駁	-11.2405
頼	-11.2405
原荆楚歳時記	-11.2406
俄頃	-11.2406
増異苑	-11.2406
鎗	-11.2406
㬌	-11.2406
月終則	-11.2406
筠	-11.2406
矯	-11.2407
租税	-11.2407
増博物志	-11.2407
嵐	-11.2407
茵	-11.2408
增酉陽雜俎	-11.2408
増湘山野録	-11.2408
口脂	-11.2408
吼	-11.2408
春秋感精符	-11.2408
盌	-11.2409
郭璞	-11.2409
王建宫詞	-11.2409
拙	-11.2409
撲	-11.2409
幟	-11.241
纓	-11.241
芳菲	-11.241
葭灰	-11.241
跨	-11.2411
爆	-11.2411
祛	-11.2411
螻	-11.2411
憚	-11.2411
張九齡	-11.2411
托	-11.2411
椒盤	-11.2411
私第	-11.2411
貴戚	-11.2411
陸龜䝉	-11.2411
翩	-11.2412
卭	-11.2412
瑤	-11.2412
蔓菁	-11.2412
慙	-11.2412
誘	-11.2412
􁁿	-11.2412
日卯時月在	-11.2412
夕牲	-11.2412
澡	-11.2412
埃	-11.2413
芬香	-11.2413
坊巷	-11.2413
士大夫	-11.2413
廸	-11.2413
芎藭	-11.2413
係	-11.2413
熊羆	-11.2413
邕	-11.2413
膩	-11.2413
刳	-11.2414
雷電	-11.2414
匈奴	-11.2414
朏	-11.2414
長春節	-11.2414
詎	-11.2414
蕪菁	-11.2414
晷影	-11.2415
孳	-11.2415
挾	-11.2415
夙興夜寐	-11.2415
増樂緯	-11.2415
墟	-11.2415
儀仗	-11.2415
原内經	-11.2415
野蠶成繭	-11.2415
或退在	-11.2415
鏤雞子	-11.2415
麥門冬	-11.2415
籖	-11.2415
藩	-11.2415
曦	-11.2415
㤀	-11.2416
廳	-11.2416
貂	-11.2416
二刻半	-11.2416
瞽	-11.2416
瀘	-11.2416
郁	-11.2416
陋	-11.2416
悪	-11.2416
老杜詩云	-11.2416
綽	-11.2416
此花	-11.2417
辱	-11.2417
柯	-11.2417
不生蟲	-11.2417
撻	-11.2417
眩	-11.2417
勝負	-11.2417
罅	-11.2417
梨園	-11.2418
濫	-11.2418
藿	-11.2418
増晉書天文志	-11.2418
售	-11.2418
渇	-11.2418
乾元殿	-11.2419
壻	-11.2419
宋祁	-11.2419
琰	-11.2419
碩	-11.2419
納涼	-11.2419
増農桑通訣	-11.2419
妍	-11.2419
多至	-11.242
欲其	-11.242
耦	-11.242
拖	-11.242
觀刈麥	-11.242
麾	-11.242
溥	-11.242
羗	-11.242
晋書樂志	-11.242
威靈仙	-11.242
相蜂	-11.242
朒	-11.2421
辟邪	-11.2421
糊	-11.2421
翰墨	-11.2421
穠	-11.2421
苟	-11.2421
遼東	-11.2421
配享	-11.2421
吹笛	-11.2421
増宋史樂志	-11.2421
琴瑟	-11.2421
菘	-11.2421
數尺	-11.2421
秃	-11.2422
索隠	-11.2422
鱗甲	-11.2422
日躔	-11.2422
溝瀆	-11.2422
罟	-11.2422
鐃	-11.2423
憎	-11.2423
擎	-11.2423
増後漢書律歴志	-11.2423
増舊唐書音樂志	-11.2423
秘書省	-11.2423
陶𢎞景	-11.2423
睦	-11.2423
浙江	-11.2424
酋	-11.2424
瘦	-11.2424
辛苦	-11.2424
園圃	-11.2424
擢	-11.2424
王洙	-11.2424
鉞	-11.2424
増周髀算經	-11.2424
淒淒	-11.2424
藪	-11.2424
蚊蚋	-11.2424
諡	-11.2424
増星經	-11.2424
増晉書樂志	-11.2424
㺯	-11.2424
二百卷	-11.2424
蘇轍	-11.2424
珉	-11.2424
蜉蝣	-11.2424
筯	-11.2425
漕	-11.2425
鵙始鳴	-11.2425
漚	-11.2425
黿	-11.2425
艱難	-11.2425
五言詩	-11.2425
絕	-11.2425
蒼蒼	-11.2425
浣花	-11.2425
豳	-11.2425
綜	-11.2426
農隙	-11.2426
孟嘗君	-11.2426
􁃽	-11.2426
恰	-11.2426
一觔	-11.2426
導從	-11.2426
正齒位	-11.2426
孟冬之月	-11.2427
五加皮	-11.2427
琅邪	-11.2427
權徳輿	-11.2427
姝	-11.2427
絨	-11.2427
杞	-11.2427
黍米	-11.2428
廓	-11.2428
枝幹	-11.2428
龍涎	-11.2428
團團	-11.2428
憩	-11.2428
毅	-11.2428
煌煌	-11.2428
伸	-11.2428
苧	-11.2428
測景	-11.2429
銀河	-11.2429
换	-11.2429
原後漢書律歴志	-11.2429
原玉燭寳典	-11.2429
錐	-11.2429
行秋令則	-11.2429
委貌	-11.2429
稱觴	-11.2429
竈神	-11.2429
圉	-11.2429
増荘子	-11.243
猷	-11.243
痺	-11.243
五色線	-11.243
㽞	-11.243
摹	-11.243
徂暑	-11.243
増玉海淳化五年	-11.2431
帕	-11.2431
蝴蝶	-11.2431
踝	-11.2431
團扇	-11.2431
數十丈	-11.2431
木鐸	-11.2431
飢寒	-11.2431
􁰳	-11.2431
飛白書	-11.2431
増雲笈七籤	-11.2431
栁絮	-11.2432
蕭蕭	-11.2432
大合樂	-11.2432
冠冕	-11.2432
滚	-11.2432
薰風	-11.2432
増路史	-11.2432
遲速	-11.2432
九寸	-11.2433
濾	-11.2433
澆灌	-11.2433
大赦天下	-11.2433
終而復始	-11.2434
參軍	-11.2434
羅浮	-11.2435
京兆尹	-11.2435
聼政	-11.2435
葛衣	-11.2435
景靈宫	-11.2436
橘柚	-11.2436
飛蛾	-11.2436
鉏	-11.2436
増詩疏廣要	-11.2436
晞	-11.2436
未央宫	-11.2436
火以	-11.2436
校獵	-11.2436
耿	-11.2437
大蜡	-11.2437
增田家雜占	-11.2437
休息	-11.2437
門閭	-11.2437
入貢	-11.2437
邈	-11.2438
射干	-11.2438
橛	-11.2438
桃符	-11.2438
東臯	-11.2438
寥	-11.2438
衞士	-11.2439
兩岸	-11.2439
閉塞	-11.2439
如飴	-11.2439
夾鍾	-11.2439
盝	-11.2439
采蘩	-11.2439
増後漢書祭祀志	-11.2439
亥子	-11.2439
從魁	-11.2439
舅	-11.244
蔓延	-11.244
蚩尤	-11.244
鍾律	-11.244
屛	-11.2441
白鷺	-11.2441
衛士	-11.2441
閉藏	-11.2441
度量	-11.2442
湍	-11.2442
芬芳	-11.2443
佳辰	-11.2443
閉關	-11.2443
教授	-11.2444
汾隂	-11.2444
禽經	-11.2444
顔色	-11.2444
中黄門	-11.2444
陸㳺詩	-11.2445
扵東郊	-11.2445
无	-11.2445
龍潭	-11.2446
茄子	-11.2446
飲酎	-11.2446
印度	-11.2447
昇天	-11.2447
總章	-11.2447
舊儀	-11.2448
月旦	-11.2448
副使	-11.2448
表賀	-11.2448
去滓	-11.2449
晨夕	-11.2449
諸衛	-11.2449
氣和則	-11.245
熙寜	-11.245
幸金明池	-11.245
歳除	-11.2451
右旋	-11.2451
木連理	-11.2451
入閤	-11.2451
蝗蟲	-11.2452
川谷	-11.2452
王維詩	-11.2452
法帖	-11.2452
炎熱	-11.2452
施恵	-11.2452
穴口	-11.2452
加以	-11.2452
晡時	-11.2453
卷耳	-11.2454
祠宇	-11.2454
羣后	-11.2454
日晴主	-11.2454
黒雲	-11.2454
村落	-11.2455
雄雞	-11.2455
侍宴	-11.2455
非時	-11.2455
山礬	-11.2455
杪秋	-11.2455
作三	-11.2456
有司奏	-11.2457
慈恩寺	-11.2458
増又	-11.2458
盈尺	-11.2459
代序	-11.2459
楚師	-11.2459
洗目	-11.246
貧民	-11.246
執燭	-11.2461
乆服	-11.2461
太史令	-11.2462
服飾	-11.2462
只是	-11.2462
山谷及	-11.2463
増南方草木状	-11.2463
長吏	-11.2463
方丈	-11.2463
勞苦	-11.2463
咸池	-11.2463
直學士	-11.2464
紫㣲	-11.2464
受業	-11.2464
賜絹	-11.2464
數十里	-11.2465
王而萬物	-11.2465
稱其	-11.2465
扈從	-11.2465
賜飲	-11.2466
公權	-11.2466
玉牒	-11.2467
里社	-11.2467
燈夕	-11.2467
長一尺	-11.2467
昨日	-11.2467
毛毨	-11.2467
舒州	-11.2468
三四尺	-11.2468
紫微	-11.2468
雨雹	-11.2468
累年	-11.2469
増沈佺期	-11.247
和平	-11.247
端門	-11.247
日精	-11.247
有二種	-11.247
紅紫	-11.247
乘馬	-11.247
杜甫詩云	-11.247
朕甚	-11.2473
者陽氣	-11.2474
晨興	-11.2474
俗號	-11.2474
照夜	-11.2475
龜魚	-11.2475
髙麗	-11.2476
澤蘭	-11.2476
牛角	-11.2476
象閏	-11.2476
相承	-11.2476
上黨	-11.2477
可免	-11.2477
正衙	-11.2478
臨川	-11.2479
詔令	-11.2479
四月十五日	-11.2479
歴代	-11.248
日候之甲	-11.248
屬天	-11.248
成式	-11.248
登樓	-11.248
藏冰	-11.248
運轉	-11.248
增周禮	-11.248
烏頭	-11.2482
加減	-11.2482
集賢	-11.2482
既覺	-11.2483
百戲	-11.2484
賜詩	-11.2485
莫知	-11.2485
月俸	-11.2485
更㸃	-11.2487
不復見	-11.2488
清涼	-11.2488
丁香	-11.2489
西陸	-11.249
之廟	-11.249
荷葉	-11.249
火災	-11.2491
陰盛	-11.2491
行春	-11.2492
凉州	-11.2492
徃來	-11.2492
奉迎	-11.2492
率更	-11.2494
在焉	-11.2495
月律謂之	-11.2495
門户	-11.2496
拜舞	-11.2497
歌吹	-11.2497
貢物	-11.2498
然有	-11.2498
既醉	-11.2499
玉芝	-11.2499
立班	-11.25
到處	-11.25
瑩中	-11.25
門戸	-11.2501
西向	-11.2502
羣仙	-11.2505
鄭公	-11.2507
太微	-11.2508
不暇	-11.2508
登臺	-11.2509
五色玉	-11.2509
正月晦日	-11.251
收蔵	-11.251
髙數尺	-11.251
其前	-11.2511
禮拜	-11.2511
高宗	-11.2511
嘉魚	-11.2511
相繼	-11.2512
寒食節	-11.2512
牛女	-11.2512
増齊民要術凡	-11.2512
太上	-11.2512
増北史魏	-11.2515
劉向	-11.2515
芳樹	-11.2515
動而	-11.2515
寺前	-11.2516
太歳	-11.2516
霖雨	-11.2516
圗經	-11.2517
七枚	-11.2518
閏六月	-11.2518
忽然	-11.2519
石灰	-11.2519
以紅	-11.252
臣等	-11.252
金銀	-11.252
合歡	-11.252
宿根	-11.2521
本司	-11.2521
賜爵	-11.2521
萬寳	-11.2521
放春	-11.2521
宴罷	-11.2524
太師	-11.2524
陳寳	-11.2525
百歩	-11.2526
三辰	-11.2527
臘雪	-11.2527
郎官	-11.2528
作餅	-11.2528
燈山	-11.2529
治兵	-11.253
授衣	-11.2531
寳歴	-11.2532
恒山	-11.2533
馬射	-11.2534
梓州	-11.2536
相賀	-11.2538
花卉	-11.2539
春洲	-11.254
酒味	-11.2542
獻功	-11.2543
立表	-11.2543
退朝	-11.2543
鄉村	-11.2543
永明	-11.2544
清暑	-11.2545
堂上	-11.2546
義者	-11.2547
其書	-11.2548
晚宴	-11.2551
宫室	-11.2552
晉書	-11.2552
日賜	-11.2552
竹筍	-11.2553
嘉之	-11.2554
執政	-11.2555
果實	-11.2556
六千	-11.2556
百病	-11.2559
開皇	-11.256
春睡	-11.256
王公以下	-11.2563
無令	-11.2563
食鹽	-11.2564
以占	-11.2565
宴㑹	-11.2565
清旦	-11.2566
長夀	-11.2567
也秋	-11.257
紫草	-11.2571
來者	-11.2573
九月一日	-11.2573
不厭	-11.2577
仰天	-11.2579
月夜	-11.258
起舞	-11.2582
青白色	-11.2583
為長	-11.2583
夜聞	-11.2584
精神	-11.2584
天關	-11.2584
布衣	-11.2584
書院	-11.2587
曰子	-11.2587
種豆	-11.2587
章奏	-11.2588
設宴	-11.2589
旦起	-11.259
神龍	-11.2592
増杜甫	-11.2592
春二月	-11.2593
隠詩	-11.2594
夏門	-11.2594
大吕	-11.2594
久雨	-11.2595
金陵	-11.2595
武官	-11.2595
漢家	-11.2597
地理	-11.2597
潔白	-11.2598
以治	-11.2599
不忘	-11.2599
扵時	-11.26
之舞	-11.26
百縣	-11.2601
百事	-11.2601
各異	-11.2602
建星	-11.2602
細草	-11.2603
春禽	-11.2603
在戍	-11.2604
草堂	-11.2604
授書	-11.2607
細葉	-11.2608
九嵗	-11.2608
苦雨	-11.2609
搗汁	-11.2609
道俗	-11.2613
今兹	-11.2613
佳人	-11.2614
暮節	-11.2615
五運	-11.2617
采之	-11.2618
帝命	-11.2618
一束	-11.262
是歲	-11.2622
之本也	-11.2623
得失	-11.2623
王融	-11.2624
立廟	-11.2625
京官	-11.2628
應舉	-11.2628
三館	-11.2628
三百六十日	-11.263
葉細	-11.263
子由	-11.2631
最盛	-11.2632
莭物	-11.2633
晒乾	-11.2633
無烟	-11.2634
下則	-11.2635
作酢	-11.2636
養長	-11.2639
安國	-11.2639
入閣	-11.264
風穴	-11.264
尚食	-11.2642
如今	-11.2645
木為	-11.2645
雲母	-11.2649
秦王	-11.2649
言訖	-11.265
而還	-11.265
景物	-11.2655
行孝	-11.2655
明府	-11.2656
悉皆	-11.2657
澆之	-11.2659
山亭	-11.2659
出山	-11.266
廟在	-11.266
望祭	-11.2661
安得	-11.2661
蜀主	-11.2664
有物	-11.2664
布葉	-11.2665
隂陽書	-11.2665
不可得	-11.2665
仍令	-11.2666
便是	-11.2667
不測	-11.2668
神異	-11.267
原禮命	-11.2672
方春	-11.2673
可喜	-11.2673
文字	-11.2674
三卯	-11.2675
為茹	-11.2676
詩二首	-11.2678
但見	-11.2683
紅葉	-11.2683
千歲	-11.2684
必晴	-11.2685
豈不	-11.2686
以前	-11.2692
山河	-11.2694
素秋	-11.2696
居民	-11.2696
有頃	-11.2698
時或	-11.27
作息	-11.2702
𫝊云	-11.2703
屬和	-11.2704
圃中	-11.2705
水浸之	-11.2706
如月	-11.2711
禮以	-11.2711
縣官	-11.2713
者夏	-11.2714
春旱	-11.2716
武成	-11.2717
為名也	-11.2718
月光	-11.2719
終始	-11.2719
配以	-11.272
北門	-11.2721
品物	-11.2721
祈年	-11.2723
河中	-11.2724
翼日	-11.2724
閏年	-11.2725
施行	-11.2726
喜事	-11.2727
正位	-11.2728
最多	-11.2728
嘗新	-11.2728
槐葉	-11.2733
宣帝	-11.2736
作羮	-11.2739
後世	-11.274
小旱	-11.2741
若能	-11.2742
詔近臣	-11.2742
曰今	-11.2742
望前	-11.2743
元㑹	-11.2744
而極	-11.2744
牲以	-11.2745
六月一日	-11.2746
朝拜	-11.2751
秦中	-11.2753
於其中	-11.2754
之樂也	-11.2756
禮記	-11.2758
二月初	-11.2758
文集	-11.276
周正	-11.2762
伏見	-11.2762
大驚	-11.2764
服物	-11.2766
相望	-11.2767
月影	-11.2767
曉則	-11.2772
朝獻	-11.2773
烈日	-11.2773
之間有	-11.2779
風霜	-11.278
諸公	-11.278
八月初	-11.278
六宫	-11.278
下也	-11.2784
八寸	-11.2784
於丑	-11.2786
立春後	-11.2788
更名	-11.2791
清香	-11.2794
天寳	-11.2795
増海	-11.28
誰能	-11.28
秋耕	-11.2804
收子	-11.2805
迎秋	-11.2809
令有司	-11.2809
盤石	-11.2811
也冬	-11.2812
秋露	-11.2818
子路	-11.2818
天花	-11.282
如此者	-11.2821
簡子	-11.2826
改名	-11.2827
太山	-11.2828
同心	-11.283
為二	-11.283
行雨	-11.2836
推之	-11.2836
以杖	-11.2836
煮食	-11.2836
春末	-11.2836
朝天	-11.2837
年一	-11.2837
始動	-11.2838
再三	-11.2839
取子	-11.284
為孤	-11.2842
香味	-11.2842
五臺	-11.2847
種𤓰	-11.2847
出逰	-11.2848
其月	-11.2849
春歸	-11.285
孝經	-11.2851
復以	-11.2854
遣人	-11.2855
少雨	-11.2855
東觀	-11.2856
帝作	-11.2865
祥雲	-11.2872
除日	-11.2873
之容	-11.2877
人生	-11.288
三日雨	-11.2883
人與	-11.2885
於左右	-11.2887
郎臣	-11.2888
令其	-11.2891
南門	-11.2894
四字	-11.2899
引水	-11.29
有時	-11.29
一百八	-11.2907
夜讀書	-11.2908
百斤	-11.2911
不斷	-11.2912
行列	-11.2913
之朝	-11.2915
深秋	-11.2917
識者	-11.2918
百尺	-11.2919
從今	-11.292
之妻	-11.2927
首夏	-11.2932
家有	-11.2932
於下	-11.2935
二七	-11.2935
遊於	-11.2936
其妻	-11.294
乃歸	-11.2942
天漢	-11.2945
則日行	-11.2949
種法	-11.295
除田	-11.2951
僧徒	-11.2952
已復	-11.2953
六人	-11.2954
酒果	-11.2954
文獻通考	-11.2957
先帝	-11.2959
朱夏	-11.2961
日上	-11.2961
勞之	-11.2962
九州	-11.2966
之法也	-11.2968
更以	-11.297
禮也	-11.297
文明	-11.2972
三百里	-11.2973
東都	-11.2974
此其	-11.2978
濟南	-11.2979
夏三月	-11.2983
令傷	-11.2983
夏寒	-11.2984
風寒	-11.2985
夏熟	-11.2987
五年三月	-11.2989
延入	-11.2989
相公	-11.2989
正南	-11.299
降誕	-11.2994
之義也	-11.2994
夏節	-11.2995
擇日	-11.2996
氣色	-11.3004
星在	-11.3005
九門	-11.3012
春蠶	-11.3015
鳥也	-11.3015
御筆	-11.3018
終不	-11.3024
至五月	-11.3025
百斛	-11.3026
失時	-11.3027
猶可	-11.3028
人或	-11.3028
出師	-11.3029
所感	-11.3031
乃取	-11.3031
人面	-11.3033
陽氣始	-11.3034
建寅	-11.3036
子位	-11.3041
金神	-11.3041
而不見	-11.3047
數萬	-11.305
日曝	-11.305
乃詔	-11.3053
秋葉	-11.3057
黑雲	-11.3059
遂令	-11.306
息於	-11.3063
天子乃	-11.3064
樂事	-11.3066
同年	-11.3067
四民	-11.3069
中書令	-11.3071
盛寒	-11.3078
耐寒	-11.3081
國王	-11.3082
五千	-11.3084
五十三	-11.3088
雜物	-11.3091
其名曰	-11.3094
或云	-11.3095
治則	-11.3099
治之	-11.3104
書自	-11.3105
隂中	-11.3105
因號	-11.3115
定時	-11.3117
見龍	-11.312
或言	-11.312
不變	-11.3123
家長	-11.3123
不敬	-11.313
秋賦	-11.3131
流星	-11.3145
月十九日	-11.3148
冬寒	-11.3157
寅時	-11.3158
積月	-11.3159
十月朔	-11.3164
秋社	-11.3168
人語	-11.3171
天行	-11.3175
致其	-11.3175
句云	-11.3175
為主	-11.3177
與客	-11.3182
一歳	-11.3188
始熟	-11.3193
讀為	-11.3194
文書	-11.3196
淮南子曰	-11.3201
渾儀	-11.3202
入申	-11.3203
山隂	-11.3204
則火	-11.3205
方物	-11.3207
九月十月	-11.3209
五年十一月	-11.3212
學生	-11.3218
也夏	-11.3219
農時	-11.3226
微行	-11.3226
原周禮地官	-11.3227
珍之	-11.3227
耕種	-11.3229
焉故	-11.323
草樹	-11.323
以求	-11.3231
因此	-11.3238
正月二十日	-11.3239
為壇	-11.3239
是春	-11.324
此草	-11.3241
遣使者	-11.3243
未得	-11.3246
復還	-11.3249
十六年	-11.325
并州	-11.325
崇文	-11.3251
嵗事	-11.3256
為兩	-11.3259
次年	-11.3262
盛冬	-11.3263
御集	-11.3265
九月十五日	-11.3268
一日二日	-11.3269
於内	-11.327
來朝	-11.3275
在西	-11.3276
雲陽	-11.3281
不停	-11.3282
未申	-11.3283
凡此	-11.3286
上方	-11.3289
何不	-11.3289
無時	-11.3293
清夜	-11.3297
田中	-11.33
天降	-11.33
問何	-11.3304
寒則	-11.3309
後年	-11.3309
神明	-11.3312
多風	-11.3315
春渚	-11.3318
光燭	-11.3318
亦云	-11.3319
注謂	-11.3321
遂為	-11.3322
風雲	-11.3323
如小	-11.3333
髙秋	-11.3333
新雨	-11.3334
八月十五夜	-11.3335
率以	-11.3337
天宗	-11.3338
二年六月	-11.3339
七言	-11.3341
寒風	-11.3346
夏六月	-11.3351
平無	-11.3352
或謂	-11.3352
人日詩	-11.3353
七年十二月	-11.3354
不著	-11.3356
雲山	-11.3361
初陽	-11.3363
不禁	-11.3363
為飾	-11.3365
春木	-11.3369
為異	-11.337
原周禮春官	-11.3371
地為	-11.3377
生魄	-11.3379
秋實	-11.3382
成故	-11.3385
每以	-11.3385
行也	-11.3389
師曠	-11.3393
月十八日	-11.3393
之經	-11.3394
列星	-11.3394
一字	-11.3398
相得	-11.3398
州城	-11.3398
葉落	-11.3399
皆自	-11.3401
秋光	-11.3402
曰可	-11.3406
客至	-11.3406
之服	-11.3408
天光	-11.341
其室	-11.341
鯉魚	-11.3411
虞人	-11.3411
六曰	-11.3413
於天下	-11.3414
象四時	-11.3416
之律	-11.3417
周官	-11.3417
長春	-11.3421
更生	-11.3422
官吏	-11.3426
盤龍	-11.3426
曰請	-11.3441
於石	-11.3443
書之	-11.3443
天樂	-11.345
農書	-11.3456
夢人	-11.3458
十丈	-11.3464
始得	-11.3464
所建	-11.3467
鄉飲酒	-11.3468
土為	-11.3471
四年十一月	-11.3476
増玉海紹興二十五年	-11.3482
如玉	-11.3483
龍星	-11.3488
山中有	-11.349
其志	-11.3491
無過	-11.3492
識之	-11.3493
還宫	-11.3504
御製夜	-11.3506
其行	-11.3509
為度	-11.3519
增埤雅	-11.3521
大禮	-11.3526
際也	-11.3526
未出	-11.3531
元年二月	-11.3533
以春	-11.3542
以祀	-11.3543
石井	-11.3548
以灰	-11.355
辟疫	-11.3551
秋門	-11.3556
仍以	-11.356
諸臣	-11.3561
至七	-11.3562
周文	-11.3569
始見	-11.357
稽首	-11.3575
後十日	-11.3582
春聲	-11.3583
夏至後	-11.3584
氏之	-11.3589
和二年	-11.3594
靈山	-11.3595
也春	-11.3595
原周禮秋官	-11.3595
三月間	-11.3597
増古	-11.3597
彰	-11.3604
可致	-11.3609
道之	-11.3609
雲雨	-11.3615
三合	-11.3619
雨為	-11.3622
天官	-11.3627
成閏	-11.3628
凉風至	-11.3631
之祥	-11.3634
五榖不	-11.3644
不聞	-11.3649
鐘鼓	-11.3655
東華	-11.3659
赤者	-11.366
則鳴	-11.3663
金花	-11.3665
髙低	-11.3668
収之	-11.3668
毎以	-11.367
風氣	-11.3672
八節	-11.3673
北至	-11.3676
兵部	-11.3681
春陽	-11.3684
盆中	-11.3684
使以	-11.3687
味也	-11.3688
生熟	-11.369
得春	-11.3693
種子	-11.3699
筮	-11.3706
氷凍	-11.371
里中	-11.3714
不容	-11.3715
元真	-11.3718
果有	-11.3719
一紀	-11.3719
也然則	-11.3724
反舌	-11.3726
宴樂	-11.3726
經曰	-11.3732
後即	-11.3737
為十二	-11.3743
始也	-11.3749
二候	-11.3751
水衡記黄河水	-11.3753
大家	-11.3758
清明節	-11.3768
文選	-11.3768
已有	-11.3788
客曰	-11.3789
出西	-11.3791
月十五日	-11.3793
殿門	-11.3797
四月八	-11.3799
此物	-11.3799
日合	-11.3801
苦菜	-11.3807
一㸃	-11.3815
作小	-11.382
則殺	-11.382
如是	-11.3837
此名	-11.3839
玉山	-11.3839
之望	-11.384
來也	-11.3846
水涸	-11.3849
而又	-11.3852
春深	-11.3852
有大小	-11.3854
之孫	-11.3856
春獻	-11.3857
本於	-11.3862
禊飲	-11.3869
三葉	-11.3879
跗	-11.3882
火作	-11.3885
清秋	-11.3887
増山堂考索	-11.3893
乃曰	-11.3898
夹鍾	-11.3902
伐木	-11.3905
刑部	-11.3907
乃令	-11.3908
三百六十五日	-11.3914
亥時	-11.3917
載酒	-11.3928
原舊唐書	-11.393
如雲	-11.3943
並以	-11.3947
河清	-11.3952
代之	-11.3954
黄葉	-11.3961
里許	-11.3974
夏長	-11.3977
増宋㑹要	-11.3977
常以二月	-11.3978
授之	-11.3986
謝靈運	-11.3988
賜御書	-11.3988
十二律	-11.3991
増玉海祥符三年	-11.3994
寅日	-11.3998
聖夀	-11.3998
發生之	-11.3998
原東方朔占書	-11.3999
九月三日	-11.4003
天正	-11.4005
人馬	-11.4008
花香	-11.4012
僖	-11.4015
諸山	-11.4016
貧無	-11.4018
位在	-11.4026
之器	-11.4029
三月桃花	-11.4031
天中	-11.4036
舞有	-11.404
神州	-11.4046
人凡	-11.4048
増乾淳歳時記	-11.4053
増後漢書明帝紀永平	-11.4053
始行	-11.4062
鵲始巢	-11.4065
奔走	-11.4067
主晴	-11.4071
長二尺	-11.4074
龍山	-11.4077
九年十一月	-11.408
知制誥	-11.4082
増唐	-11.4084
遣之	-11.4085
春田	-11.4092
迎冬	-11.4093
隩	-11.4094
祭其	-11.4096
物生	-11.4097
燦	-11.4098
來嵗	-11.4099
生育	-11.4103
而散	-11.4106
長夜	-11.4108
自言	-11.4111
旁有	-11.4112
傷之	-11.4114
妻子	-11.4124
書畫	-11.4124
不熟	-11.4124
酒中	-11.4129
其位	-11.4137
無得	-11.4138
外更	-11.4143
五日一	-11.4143
次日	-11.4151
者為勝	-11.4152
城東南	-11.4153
増漢書文帝紀十	-11.4162
賦序	-11.4165
草色	-11.417
以下皆	-11.4173
冬以	-11.4175
嵗旦	-11.4177
諸陵	-11.4183
二十九	-11.4185
大衍	-11.4187
動也	-11.4193
炬照	-11.4195
配天	-11.4202
旱也	-11.4205
原史記天官書	-11.4208
恠	-11.4208
以三月三日	-11.421
比之	-11.4218
孝宗	-11.4219
有山	-11.4225
有常	-11.4235
海中有	-11.4237
三萬	-11.4239
江州	-11.4239
南越	-11.4242
連珠	-11.4242
吉月	-11.4245
六經	-11.4254
深紅	-11.4266
羯鼓	-11.4269
魚龍	-11.4271
玉殿	-11.4274
讀法	-11.4274
蹕	-11.428
縣南	-11.4282
百嵗	-11.4282
御坐	-11.4283
始生於	-11.4284
如火	-11.4285
江浙	-11.4286
晨出曰	-11.4295
見東方	-11.4297
霜不	-11.4298
此則	-11.4301
建中	-11.4304
四時也	-11.4306
又謂之	-11.4306
其用	-11.4308
進賢	-11.431
六十刻	-11.431
宣武	-11.431
増後漢書禮儀志	-11.4311
至元	-11.4312
右軍	-11.4313
爾雅翼	-11.4322
增清異錄	-11.4322
炊飯	-11.4328
帝京景物畧	-11.433
孜	-11.433
其始	-11.4336
荆楚嵗時記	-11.4341
兵馬	-11.4341
増齊民要術種	-11.4344
資治通鑑	-11.4344
不實	-11.4344
彪	-11.4344
寺僧	-11.4347
極歡	-11.4349
寀	-11.4352
爐中	-11.4354
升殿	-11.4357
釜	-11.4357
菉豆	-11.4359
晶	-11.4359
月建焉而辰在	-11.436
雚	-11.436
柞	-11.4361
琵琶	-11.4362
謳	-11.4363
瘟疫	-11.4363
射的	-11.4366
昊	-11.4366
制國用	-11.4367
恐不	-11.4367
皴	-11.4368
十哲	-11.4368
黄白色	-11.4369
庸	-11.437
供佛	-11.4371
增唐㑹要	-11.4372
通鑑	-11.4373
郗	-11.4373
川芎	-11.4373
一日得	-11.4373
詩疏廣要	-11.4374
百餘里	-11.4374
何須	-11.4375
梁元帝	-11.4376
計偕	-11.4376
讀五時令	-11.4376
坦	-11.4377
腓	-11.4379
棠	-11.4379
鐸	-11.438
巳日還位	-11.4381
鴨	-11.4381
斵	-11.4381
嶺表錄異	-11.4381
枳	-11.4382
賡	-11.4382
籥	-11.4382
鸞鳯	-11.4382
槃	-11.4383
元和志	-11.4383
揚州	-11.4383
雒	-11.4383
五年五月	-11.4384
劉邦彦十	-11.4384
牽牛織女	-11.4384
蕨	-11.4384
墅	-11.4385
干戈	-11.4385
悚	-11.4385
聰	-11.4385
傑	-11.4386
網罟	-11.4386
為前行	-11.4386
梭	-11.4386
彎	-11.4386
元年三月	-11.4387
磯	-11.4387
五年十月	-11.4387
偈	-11.4387
鞋	-11.4387
諤	-11.4387
鳸	-11.4388
原千金方	-11.4388
入小學	-11.4389
潁	-11.439
艶	-11.439
曄	-11.439
構	-11.439
唐書百官志	-11.4391
月一日	-11.4391
楚辭	-11.4391
逖	-11.4391
磧	-11.4392
狎	-11.4392
貺	-11.4392
增四民月令	-11.4392
蔞蒿	-11.4392
陀	-11.4393
蛾眉	-11.4393
磴	-11.4393
抹	-11.4393
葷	-11.4394
緊	-11.4394
剔	-11.4394
奕奕	-11.4394
惶	-11.4394
酸棗	-11.4394
懋	-11.4394
加元服	-11.4394
齧	-11.4394
陁	-11.4395
銖	-11.4395
飬老禮	-11.4395
鑼	-11.4395
耜	-11.4395
河圖	-11.4396
侵晨	-11.4396
増北京嵗華記	-11.4396
烏鵲	-11.4396
岑參	-11.4396
棉	-11.4396
籞	-11.4396
仇	-11.4397
勵	-11.4397
𢷬	-11.4397
舉孝廉	-11.4397
叨	-11.4397
影堂常祭	-11.4397
堯典	-11.4397
猴	-11.4398
朓	-11.4398
挑菜	-11.4398
盼	-11.4398
蜻	-11.4398
天文院	-11.4398
曳	-11.4398
撮	-11.4398
聰敏	-11.4398
漢宣帝	-11.4398
禜	-11.4398
原水經注	-11.4399
葡	-11.4399
増宋史食貨志	-11.4399
范仲淹	-11.4399
顏	-11.4399
原初學記	-11.4399
迸	-11.4399
赤小豆	-11.4399
菩	-11.4399
櫃	-11.44
十三絃	-11.44
泉湧	-11.44
原南方草木狀	-11.44
斥	-11.44
細剉	-11.44
鵞	-11.44
是乎	-11.4401
廩	-11.4401
做	-11.4401
杼	-11.4401
薦福寺	-11.4401
痢	-11.4401
檠	-11.4401
漠漠	-11.4401
翆	-11.4401
窺管	-11.4401
舉寃獄	-11.4401
講官	-11.4401
瑣	-11.4401
欲令	-11.4402
御製夏日	-11.4402
劭	-11.4402
苛	-11.4402
増宋書禮志	-11.4402
霸	-11.4402
昃	-11.4402
馨	-11.4402
蹴	-11.4402
豁	-11.4402
熹	-11.4402
増𫝊燈録	-11.4402
扈竊	-11.4402
股肱	-11.4402
科掌印給	-11.4402
葅	-11.4402
酺宴	-11.4403
顛	-11.4403
文宣王	-11.4403
籙	-11.4403
僊	-11.4403
乃不	-11.4403
杷	-11.4403
慕容	-11.4403
侍宴應制詩	-11.4403
叛	-11.4403
肖	-11.4403
沆瀣	-11.4403
萵苣	-11.4403
輦下嵗時記	-11.4403
迨	-11.4403
擊柝	-11.4403
昆吾	-11.4403
娶	-11.4403
叩頭	-11.4404
押班	-11.4404
栢梁體	-11.4404
盪	-11.4404
醅	-11.4404
猥	-11.4404
威儀	-11.4405
昉	-11.4405
穉	-11.4405
鉢	-11.4405
姥	-11.4405
埽	-11.4405
陶潜	-11.4405
丕	-11.4405
庵	-11.4405
拆	-11.4406
豆粥	-11.4406
墉	-11.4406
篚	-11.4406
蟋蟀居壁	-11.4406
遒	-11.4406
増帝京景物略	-11.4406
蘩	-11.4407
絡緯	-11.4407
助生氣	-11.4407
殿中侍御史	-11.4407
耍	-11.4407
椽	-11.4407
對延英	-11.4407
悔	-11.4407
鰲山	-11.4407
櫻	-11.4407
薯	-11.4407
讌	-11.4407
鍊	-11.4407
飮	-11.4407
凰	-11.4407
塑	-11.4408
梧州	-11.4408
讀時令	-11.4408
赤靈符	-11.4408
秪	-11.4408
茱茰	-11.4408
虚危	-11.4408
證	-11.4408
蔞	-11.4408
律中應鍾	-11.4408
爍	-11.4408
都鄙	-11.4408
恢	-11.4409
昌齡	-11.4409
赤光照室	-11.4409
肪	-11.4409
京尹	-11.4409
韓魏公	-11.4409
唾	-11.4409
舶	-11.4409
賴	-11.4409
張道陵	-11.4409
忍冬	-11.4409
沐髪	-11.4409
原世説	-11.4409
時天徳星寳光星	-11.4409
踊	-11.4409
疲倦	-11.4409
蹈	-11.4409
宫嬪	-11.441
汎舟	-11.441
煨	-11.441
茫然	-11.441
流汗	-11.441
白虎通德論曰	-11.441
金櫻子	-11.441
仲呂	-11.441
尚書大傳	-11.441
煩暑	-11.441
蹤	-11.441
鍰	-11.441
時在午位故	-11.441
訾	-11.441
金木水火	-11.441
紵	-11.441
黛	-11.441
蜥蜴	-11.441
耨	-11.4411
嫦娥	-11.4411
颺	-11.4411
赫赫	-11.4411
佚	-11.4411
魚鑰	-11.4411
沛然	-11.4411
羸	-11.4411
蕙	-11.4411
韓翃	-11.4411
増燕翼詒謀録	-11.4411
加卯順數至	-11.4411
后之井以	-11.4411
増荔枝譜	-11.4411
豢	-11.4411
蹉	-11.4411
髙禖	-11.4411
佇	-11.4411
炷	-11.4411
章句	-11.4411
猗	-11.4412
本草拾遺	-11.4412
深紅色	-11.4412
燄	-11.4412
凱風	-11.4412
罩	-11.4412
原論衡	-11.4412
五代史	-11.4412
蓮花漏	-11.4412
撞	-11.4412
旬中無	-11.4412
時天開星少微星	-11.4412
華林園	-11.4412
槩	-11.4412
慨	-11.4413
艱	-11.4413
謝惠連	-11.4413
癢	-11.4413
僉	-11.4413
攽	-11.4413
池沼	-11.4413
晦堂	-11.4413
酉蔀七十六嵗凡三百四嵗	-11.4413
婉	-11.4413
菁	-11.4413
衮	-11.4413
増事物紀原	-11.4413
奄	-11.4413
絙	-11.4414
涵	-11.4414
茵蔯	-11.4414
罄	-11.4414
增政和本草	-11.4414
増大戴禮	-11.4414
林邑國	-11.4414
賈島	-11.4414
清濁	-11.4414
囀	-11.4414
闐	-11.4415
爼	-11.4415
呵	-11.4415
増漢書天文志	-11.4415
忻	-11.4415
司寇	-11.4415
㐲	-11.4415
増夲草綱目	-11.4415
喫	-11.4415
増周易集觧	-11.4415
殃	-11.4415
譚	-11.4415
増子夜歌	-11.4415
鄉貢	-11.4415
數飲於	-11.4415
貴妃	-11.4415
閏當在此年	-11.4415
荇	-11.4416
増周禮天官	-11.4416
廿	-11.4416
冽	-11.4416
掣	-11.4416
増唐書地理志	-11.4416
律中姑洗	-11.4416
敺	-11.4416
款冬	-11.4416
莱	-11.4417
蹙	-11.4417
五月六月	-11.4417
猫	-11.4417
秘省	-11.4417
蹶	-11.4417
集賢院	-11.4417
兒童	-11.4417
参差	-11.4417
坏	-11.4417
孟冬十月	-11.4417
商旅	-11.4417
蜕	-11.4417
韋應物	-11.4417
黔	-11.4418
醇	-11.4418
再宿	-11.4418
鄊	-11.4418
増蕪史	-11.4419
毳	-11.4419
老㓜	-11.4419
楼	-11.4419
薹	-11.4419
晉書律歴志	-11.4419
錢塘	-11.4419
韋荘	-11.4419
嘘	-11.4419
箸	-11.4419
宋仁宗	-11.4419
闥	-11.4419
湔	-11.4419
奕	-11.4419
舊無	-11.442
増齊民要術崔寔曰	-11.442
度支	-11.442
夏竦	-11.442
蔕	-11.442
蜜蠟	-11.442
示輔臣	-11.442
廐	-11.442
扶南國	-11.442
春鶯囀	-11.442
狹	-11.442
飄飄	-11.442
交錯	-11.442
逋	-11.442
盧橘	-11.4421
蔴	-11.4421
粘	-11.4421
凌空	-11.4421
劾	-11.4421
岱宗	-11.4421
潁川	-11.4421
昂	-11.4421
濮	-11.4421
噫	-11.4421
尚書大𫝊	-11.4421
轅	-11.4421
二至二分	-11.4421
此夜	-11.4421
桑椹	-11.4421
拍	-11.4422
祖考	-11.4422
増玉海嘉定	-11.4422
巫覡	-11.4422
荏	-11.4422
因天時	-11.4422
奩	-11.4422
嘉賔	-11.4422
増參同契	-11.4422
玊	-11.4422
勣	-11.4422
店	-11.4422
菹	-11.4422
閹茂	-11.4422
其神如	-11.4422
夙興	-11.4422
愕然	-11.4422
琥	-11.4422
結寔	-11.4422
日窮于次	-11.4422
罔	-11.4422
翕	-11.4422
趾	-11.4422
虞世南	-11.4422
昇仙	-11.4423
奸	-11.4423
丹砂	-11.4423
仁壽	-11.4423
其失次	-11.4423
人氣在	-11.4423
星回于天	-11.4423
荀爽曰	-11.4423
竒絶	-11.4424
遭	-11.4424
貲	-11.4424
臨軒	-11.4424
白蠟	-11.4424
泱	-11.4424
蜂蜜	-11.4424
叡	-11.4424
螭	-11.4424
扃	-11.4424
金匱	-11.4424
􁭤	-11.4424
村人	-11.4424
効	-11.4425
瘧	-11.4425
靑	-11.4425
雷霆	-11.4425
楙	-11.4425
白頭翁	-11.4425
粤	-11.4425
賀知章	-11.4425
黄鍾之宫	-11.4425
増紀歴撮要	-11.4425
月窮于紀	-11.4425
頺	-11.4425
猜	-11.4425
與周	-11.4426
鎬	-11.4426
時政記	-11.4426
航	-11.4426
彗	-11.4426
增蠡海集	-11.4426
嬌	-11.4426
鉛	-11.4426
長二寸許	-11.4426
雙闕	-11.4426
休沐	-11.4426
原尸子	-11.4426
増漢書食貨志	-11.4426
戻	-11.4426
薺麥	-11.4426
地理志	-11.4427
制誥	-11.4427
御崇政殿	-11.4427
増家塾事親	-11.4427
瑀	-11.4427
有數種	-11.4427
胸	-11.4427
􁒊	-11.4427
鰣魚	-11.4427
養蠶	-11.4427
綂	-11.4428
樞宻院	-11.4428
錦袍	-11.4428
昜	-11.4428
氤氲	-11.4428
擊鼓	-11.4428
胷	-11.4428
九子糉	-11.4428
嘉祥	-11.4428
射雉	-11.4428
淸	-11.4428
簫鼓	-11.4428
坤艮	-11.4429
迅	-11.4429
季冬之月	-11.4429
殷勤	-11.4429
栗烈	-11.4429
玉宸殿	-11.4429
瓏	-11.4429
单	-11.4429
山谷詩云	-11.4429
旌旗	-11.4429
銅儀	-11.4429
龎	-11.4429
嵗壹見其貢	-11.4429
河伯	-11.4429
鷁	-11.4429
逵	-11.443
北南臣僚	-11.443
尺寸	-11.443
宋陳元靚撰	-11.443
抗	-11.443
天門冬	-11.443
捕蟬	-11.443
四時氣候	-11.443
增清異録	-11.443
潞州	-11.443
蕷	-11.443
魏文	-11.4431
耒耜	-11.4431
扁鵲	-11.4431
十二度	-11.4431
懶	-11.4431
晏殊	-11.4431
潘炎	-11.4431
紳	-11.4431
於民者	-11.4431
蟾蜍	-11.4431
原抱朴子	-11.4431
大明殿	-11.4431
曲江池	-11.4431
朱櫻	-11.4432
重光	-11.4432
論語	-11.4432
鷙	-11.4432
官及	-11.4432
褚	-11.4432
原博物志	-11.4433
襍	-11.4433
貢獻	-11.4433
増謝朓詩	-11.4433
擁蔽	-11.4433
一晝一夜	-11.4433
孤虚	-11.4433
桐始華	-11.4433
瘁	-11.4433
阡陌	-11.4433
原禽經	-11.4433
心如月	-11.4433
鴨卵	-11.4433
小童	-11.4433
増蠡海集	-11.4434
四瀆	-11.4434
塢	-11.4434
嘉榖	-11.4434
散漫	-11.4434
㤗山	-11.4434
賔虞	-11.4434
奎婁	-11.4434
律中夷則	-11.4434
帝王世紀	-11.4435
河洛	-11.4435
妊	-11.4435
御筵	-11.4436
白兔	-11.4436
認	-11.4436
驚覺	-11.4436
腴	-11.4436
𫝊柑	-11.4436
折楊柳	-11.4436
濟濟	-11.4436
虺	-11.4436
黄雀風	-11.4436
鸎	-11.4436
青城山	-11.4436
堦	-11.4437
鵝毛	-11.4437
豺	-11.4437
芭蕉	-11.4437
令得	-11.4437
采莖	-11.4437
㕔事	-11.4438
武成王	-11.4438
骨肉	-11.4438
封禪	-11.4438
榖賤	-11.4438
各掌其	-11.4438
鴻鴈来	-11.4439
朱子語録	-11.4439
膜	-11.4439
枕席	-11.4439
七月六日	-11.4439
凜	-11.4439
凍釋	-11.4439
為下考	-11.4439
薫風	-11.4439
豺祭獸	-11.4439
天貺	-11.4439
鹿角	-11.444
長生草	-11.444
宻封	-11.444
東廵狩	-11.444
舉觴	-11.444
提舉	-11.444
為中考	-11.444
收歛	-11.4441
陸機	-11.4441
状似	-11.4441
波斯	-11.4441
路駕	-11.4441
燒灰	-11.4441
桃仁	-11.4442
元冥	-11.4442
七襄	-11.4442
二弟	-11.4442
増宋會要	-11.4442
黄庭堅	-11.4442
春帖子	-11.4442
以示羣臣	-11.4443
甚佳	-11.4443
踐更	-11.4443
原風俗通	-11.4443
蘇頌	-11.4444
萬姓	-11.4444
聽政	-11.4444
生白花	-11.4444
孔雀	-11.4444
政要	-11.4444
栢葉	-11.4444
花信風	-11.4444
置律學	-11.4445
邸第	-11.4445
明堂右个	-11.4445
員外郎	-11.4445
讀春令	-11.4445
寳鼎	-11.4446
大如指	-11.4446
迎春苑	-11.4446
増玉海熙寧	-11.4446
代謝	-11.4447
剛柔	-11.4447
唐堯	-11.4447
考績	-11.4447
六千分	-11.4447
延夀	-11.4448
左旋	-11.4448
原紀厯撮要	-11.4448
促織鳴	-11.4448
文帝紀	-11.4448
早晩	-11.4448
太宗御書	-11.4448
辟蚊	-11.4448
桃始華	-11.4448
掃除	-11.4448
増洛陽伽藍記	-11.4449
羊裘	-11.4449
長春殿	-11.445
小分龍	-11.445
原論語	-11.445
少頃	-11.445
屨	-11.445
贅	-11.445
河決	-11.445
考課	-11.445
陳百戲	-11.445
春荑	-11.445
韶年	-11.445
員外	-11.445
單衣	-11.4451
辟寒金	-11.4451
司業	-11.4452
排當	-11.4452
徳也主	-11.4452
奉冊	-11.4452
爛然	-11.4452
辟寒香	-11.4453
擊毬	-11.4453
主来年	-11.4454
麝香	-11.4454
思慮	-11.4454
鬼臼	-11.4454
五六尺	-11.4455
國子學	-11.4455
酒酣	-11.4455
兹辰	-11.4455
依依	-11.4455
射鹿	-11.4455
執徐	-11.4455
衣裘	-11.4456
驪山	-11.4456
付史館	-11.4456
幌	-11.4456
珠簾	-11.4456
辟惡	-11.4456
皮薄	-11.4456
永嘉	-11.4457
故取	-11.4457
奈何	-11.4457
公卿大夫	-11.4457
綵勝	-11.4458
轉運	-11.4458
詔曰夫	-11.4459
己卯風	-11.4459
麥秀	-11.4459
㸃燈	-11.4459
刀尺	-11.446
深淺	-11.446
漏盡	-11.446
魏武	-11.446
䇿問	-11.4461
地菩薩如十	-11.4461
臺諫	-11.4462
武德	-11.4462
蛻	-11.4462
材官	-11.4462
東岳	-11.4462
通考	-11.4462
南呂	-11.4462
雲霄	-11.4463
汝州	-11.4464
增爾雅	-11.4464
番上	-11.4464
石渠	-11.4464
呉興	-11.4464
飲詩	-11.4464
參政	-11.4465
徳宗	-11.4465
珠翠	-11.4465
送窮	-11.4465
十三度	-11.4465
伯玉	-11.4466
亦如之注	-11.4466
正閏餘	-11.4466
萬幾	-11.4467
四年五月	-11.4468
律厯	-11.4468
梨花	-11.4468
藥市	-11.4468
時序	-11.4469
而色	-11.4469
苦熱	-11.4469
教化	-11.4469
向曉	-11.4469
侍女	-11.4469
緡	-11.4469
又為	-11.447
原吕氏春秋	-11.447
文武官	-11.4471
種稻	-11.4471
太祝	-11.4472
數百里	-11.4473
誦書	-11.4473
増元和志	-11.4474
伏臘	-11.4474
玉壺	-11.4475
萬福	-11.4475
酒醒	-11.4476
隂陽之氣	-11.4476
佩魚	-11.4476
雍州	-11.4476
夜泊	-11.4477
綵燕	-11.4477
負戴	-11.4477
集觧	-11.4478
来貢	-11.4478
或乗	-11.4479
圖說	-11.448
四十里	-11.448
血氣	-11.448
至来年	-11.448
秋分之日	-11.4481
燈輪	-11.4481
肅然	-11.4481
春蒐	-11.4481
射栁	-11.4482
郎君	-11.4483
上封事	-11.4483
曰妾	-11.4483
共工	-11.4483
徃来	-11.4483
舊有	-11.4484
日雨主	-11.4484
孔廟	-11.4484
玉津	-11.4485
耕桑	-11.4486
細磨	-11.4486
義井	-11.4487
月生苖	-11.4487
屋室	-11.4488
根莖	-11.4488
採藥	-11.4489
首尾	-11.4489
蠶桑	-11.4489
調露	-11.4489
福州	-11.449
渭水	-11.449
原杜甫	-11.4491
稱疾	-11.4491
火炎	-11.4491
倍收	-11.4491
霿淞	-11.4491
味甜	-11.4492
雷鳴	-11.4492
原孟子	-11.4492
含桃	-11.4492
科舉	-11.4493
掘地	-11.4493
故以名	-11.4493
睿宗	-11.4493
欣然	-11.4493
走馬	-11.4494
省官	-11.4494
馳道	-11.4494
冬夏常	-11.4494
甘澤	-11.4494
句龍	-11.4494
二月十九日	-11.4494
二十一年	-11.4495
六畜	-11.4495
監之	-11.4495
命學士	-11.4495
典禮	-11.4496
立秋之日	-11.4496
所記	-11.4496
九尺	-11.4496
改易	-11.4496
見雲	-11.4497
晝短	-11.4497
歴志	-11.4497
嘆曰	-11.4497
相催	-11.4497
四月朔	-11.4497
風飄	-11.4498
三月十日	-11.4499
孔公	-11.45
玉衡	-11.45
宿齋	-11.45
種植	-11.4501
動静	-11.4501
簷下	-11.4501
世世	-11.4503
鳴鼓	-11.4503
芳辰	-11.4505
如中國	-11.4505
章閣	-11.4506
波浪	-11.4507
湖州	-11.4507
之為言	-11.4508
増孟子	-11.4508
最髙	-11.4508
上旬得	-11.4508
融風	-11.4509
帝詔	-11.451
也位於	-11.451
丹鳥	-11.451
校官	-11.4512
露臺	-11.4513
不倦	-11.4513
草枯	-11.4513
月令天道	-11.4515
夀星	-11.4515
老農	-11.4515
上曰朕	-11.4515
楝花	-11.4515
於是乎	-11.4516
千錢	-11.4517
閉門	-11.4517
時人謂之	-11.4519
祭器	-11.4519
賜帛	-11.452
萬𩔖	-11.452
八月十	-11.452
以入	-11.452
祈雨	-11.4521
良辰	-11.4522
白鴈	-11.4523
赤龍	-11.4524
轉對	-11.4524
初起	-11.4525
種大豆	-11.4525
林亭	-11.4526
都堂	-11.4526
潤州	-11.4527
蜀地	-11.453
土圭	-11.4531
天街	-11.4531
玉海乾徳	-11.4532
頒賜	-11.4532
土德	-11.4532
新羅	-11.4532
道御	-11.4533
徹夜	-11.4533
花朶	-11.4533
閙蛾	-11.4533
無逸	-11.4534
生物	-11.4534
進讀	-11.4534
肥地	-11.4535
回文	-11.4535
禁止	-11.4535
二百五	-11.4536
紙筆	-11.4536
心鏡	-11.4536
楚人	-11.4536
正月十六日	-11.4537
露為霜	-11.4538
三伏中	-11.4539
卯酉年	-11.454
尺五寸	-11.454
大敗	-11.454
題云	-11.4541
乙夜	-11.4541
妃也	-11.4541
洛水	-11.4541
左傳	-11.4542
唐六典	-11.4543
射堂	-11.4543
十歩	-11.4545
歴歴	-11.4546
蘭草	-11.4546
光澤	-11.4547
張良	-11.4547
榮光	-11.4547
歳首	-11.4548
滿室	-11.4549
有泉	-11.455
合格	-11.455
上自	-11.455
宴射	-11.4551
丁謂	-11.4552
清明後	-11.4553
竹刀	-11.4553
俗謂	-11.4556
二兩	-11.4556
辰刻	-11.4556
速成	-11.4557
歸路	-11.4559
増爾雅	-11.4559
歳暮	-11.4559
果然	-11.4559
農民	-11.456
賜進士	-11.4561
百藥	-11.4561
半空	-11.4562
水湧	-11.4563
十一月十二月	-11.4563
漏上	-11.4564
斜陽	-11.4564
即席	-11.4565
均田	-11.4565
紀聞	-11.4565
成實	-11.4566
三輔	-11.4566
増唐㑹要開元二十	-11.4566
牡丹花	-11.4567
時廵	-11.4568
常以三月	-11.4568
以禳	-11.4569
七斗	-11.457
平澤	-11.457
覿	-11.4571
杜陽	-11.4572
文學	-11.4572
少府	-11.4573
宜豆	-11.4573
隴西	-11.4574
翠葉	-11.4576
江頭	-11.4578
如大豆	-11.4578
勿使	-11.458
唐書厯志	-11.4582
数日	-11.4583
遥夜	-11.4583
勿食	-11.4584
布散	-11.4585
臨安	-11.4585
生芽	-11.4586
長庚	-11.4586
下弦	-11.4587
瑞香	-11.4587
刪	-11.4588
漁者	-11.4589
雜花	-11.459
極乾	-11.459
石虎	-11.4593
朕以	-11.4593
志林	-11.4593
有赦	-11.4594
晉公	-11.4594
馬氏	-11.4596
多病	-11.4596
朱草	-11.4597
宿直	-11.4597
天保	-11.4598
世間	-11.4599
卿雲	-11.46
九榖	-11.4601
恠之	-11.4601
咸和	-11.4602
與羣臣	-11.4602
有芒	-11.4603
増朱子	-11.4603
重午	-11.4606
殿中	-11.4607
之弊	-11.4609
墨子	-11.4609
爛如	-11.4609
嘗麥	-11.461
居易	-11.4611
相屬	-11.4612
酒饌	-11.4613
宜暑	-11.4613
湖南	-11.4614
相遺	-11.4615
慶元	-11.4615
秋分後	-11.4616
三品	-11.4617
於東郊	-11.4617
采葉	-11.462
以木為	-11.4621
雜色	-11.4621
自兹	-11.4622
清霜	-11.4622
身輕	-11.4623
不息	-11.4625
嵗稔	-11.4625
左有	-11.4625
闕下	-11.4626
六律	-11.4627
如車輪	-11.4627
五花	-11.4629
四月詔	-11.4631
鳴鼔	-11.4631
章帝	-11.4631
五指	-11.4633
御定月令輯要卷二十	-11.4634
星紀	-11.4634
㡬時	-11.4635
𤼵聲	-11.4637
尊長	-11.4637
河間	-11.4637
八年十二月	-11.4638
玉露	-11.4638
東序	-11.4638
麥熟	-11.4638
宜蠶	-11.4639
㑹宴	-11.464
晴和	-11.4641
夏季	-11.4641
鴻雁	-11.4643
城北	-11.4644
行像	-11.4644
每歲	-11.4645
佛法	-11.4646
將以	-11.4648
地祗	-11.4649
宋公	-11.4651
三月一日	-11.4654
徳殿	-11.4656
益氣	-11.4656
明目	-11.4657
每月三	-11.4657
吴越	-11.4657
新論	-11.466
火炬	-11.4661
無忌	-11.4661
迎神	-11.4663
火燒	-11.4664
仙家	-11.4665
居士	-11.4666
等奏	-11.4666
次對	-11.4667
文正	-11.4668
果木	-11.4668
開封	-11.4669
入藥	-11.467
夏日長	-11.467
軍事	-11.467
新成	-11.4671
金帛	-11.4671
生扵	-11.4672
一嵗三	-11.4672
中宵	-11.4673
季夏土王	-11.4673
玉泉	-11.4674
輕雲	-11.4675
上元夜	-11.4678
帝車	-11.4678
神武	-11.4682
下漏	-11.4683
同宿	-11.4683
山茶	-11.4683
廣樂	-11.4685
隂乾用	-11.4685
最長	-11.4687
莫知所	-11.4688
香草	-11.4688
六十者	-11.4689
聖主	-11.4689
髙㑹	-11.469
備禮	-11.469
送神	-11.4691
臨觀	-11.4692
四月熟	-11.4693
鏤金	-11.4694
以禮	-11.4695
屬火	-11.4696
妨農	-11.4699
於四月八日	-11.4699
皆是	-11.47
十二月八日	-11.4701
在酉	-11.4703
雲封	-11.4706
題名	-11.4707
三月四月	-11.4707
掘取	-11.4713
瑞氣	-11.4714
出震	-11.4714
必用	-11.4714
相交	-11.4714
所主	-11.4715
河鼓	-11.4718
西域記	-11.4718
千六百	-11.4718
天監六年	-11.472
早起	-11.472
者太陽	-11.472
失火	-11.4722
圖書	-11.4722
李商隠詩	-11.4722
頒氷	-11.4725
居安	-11.4726
是歳	-11.4727
一杯	-11.4729
百種	-11.473
遇雨	-11.473
城上	-11.4731
始蠶	-11.4732
寒食詩	-11.4733
利用	-11.4733
駕幸	-11.4734
紛然	-11.4735
石刻	-11.4736
潤澤	-11.4738
伺之	-11.474
閏月則	-11.474
三子	-11.474
之明年	-11.4741
黄鳥	-11.4741
水邊	-11.4742
八百	-11.4743
自稱	-11.4745
洛陽人	-11.4746
上苑	-11.4746
二三寸	-11.4751
合宿	-11.4751
之期	-11.4752
出沒	-11.4753
山澤	-11.4753
韓愈詩	-11.4754
日月所	-11.4755
果得	-11.4756
還歸	-11.4756
獲禽	-11.4758
日曬	-11.4758
律呂	-11.4759
題曰	-11.4759
刻石	-11.4759
百匹	-11.476
長信	-11.4765
學官	-11.4767
來獻	-11.4767
古今注	-11.4769
公田	-11.4769
為人所	-11.4772
因風	-11.4773
増損	-11.4778
異名	-11.4778
白梅	-11.4779
食麥	-11.478
品以	-11.478
如此則	-11.4781
法度	-11.4782
形圓	-11.4788
風日	-11.4788
髙田	-11.4789
始鳴	-11.479
在申	-11.479
巖下	-11.4791
唐開元	-11.4792
風至四十五	-11.4793
疾風	-11.4794
馬上	-11.4795
面作	-11.4795
獻詩	-11.4795
忌月	-11.4797
特異	-11.4797
二尺許	-11.4804
不失其	-11.4805
埋於	-11.4806
避其	-11.4809
時時	-11.481
此夕	-11.4813
一旬	-11.4816
有白鶴	-11.4819
樹色	-11.482
是非	-11.4822
踏歌	-11.4824
堂下	-11.4824
物華	-11.4825
皇子	-11.4826
光華	-11.4827
不减	-11.4827
遂命	-11.4828
五行志	-11.4828
夢得	-11.483
増徐	-11.4831
有罪	-11.4838
金城	-11.484
/☱	-11.484
席上	-11.4841
/☴	-11.4841
節候	-11.4844
大駕	-11.4844
清心	-11.4844
四序	-11.4848
水潦	-11.4849
土俗	-11.4849
豈如	-11.4851
不窮	-11.4852
新安	-11.4856
春園	-11.4857
正如	-11.4857
七星	-11.4857
所稱	-11.4858
蟲蟻	-11.486
石頭	-11.4861
草緑	-11.4862
也是故	-11.4864
精為	-11.4866
萬騎	-11.4869
不愛	-11.4869
上戊	-11.4869
禮官	-11.487
其背	-11.487
土徳	-11.4873
生涼	-11.4873
地之	-11.4874
是何	-11.4876
纒之	-11.4878
南宫	-11.4879
之君	-11.4886
如晝	-11.4888
陽極	-11.4888
種葵	-11.489
上古	-11.4892
中興	-11.4894
絶句	-11.4899
氣味	-11.4899
相問	-11.49
増宋書符瑞志漢	-11.4901
蟲食	-11.4902
何事	-11.4902
當晝	-11.4903
發故	-11.4903
瑞應	-11.4903
殺人	-11.4904
西北風主	-11.4906
之風也	-11.4907
造酒	-11.4909
日一酘	-11.491
採花	-11.4912
五卷	-11.4912
幽人	-11.4916
穆帝	-11.4918
然若	-11.4919
金殿	-11.492
互相	-11.4921
地記	-11.4925
久則	-11.4925
祠之	-11.4929
理也	-11.493
午日	-11.4931
顧謂	-11.4933
有詩云	-11.4933
祭酒	-11.4935
在東	-11.4936
三度	-11.4936
逐日	-11.4936
為虚甲	-11.4937
之迹	-11.4938
方朔	-11.4938
寳厯	-11.494
常居	-11.4941
二麥	-11.4941
國主	-11.4942
不從	-11.4942
嵗華	-11.4942
增宋	-11.4943
俄有	-11.4943
於五行	-11.4946
區種	-11.4948
一笑	-11.4949
盛也	-11.495
花市	-11.4953
道經	-11.4953
六月初	-11.4956
大醉	-11.4957
疾苦	-11.496
毛詩	-11.496
日暖	-11.4966
生菜	-11.4966
増唐㑹要開元	-11.4966
水澤	-11.4968
諸物	-11.4968
功力	-11.4969
新衣	-11.4972
集扵	-11.4973
春冰	-11.4974
魏公	-11.4976
五度	-11.4976
書禮志	-11.4977
曰歸	-11.4978
以報	-11.4978
開宴	-11.498
因命	-11.4981
於天子	-11.4982
必先	-11.4982
上聞	-11.4983
忌日	-11.4984
尺許	-11.4987
増唐㑹要貞觀十	-11.4993
所著	-11.4995
無異	-11.4996
經年	-11.4996
十兩	-11.4999
每五日	-11.5002
雲起	-11.5006
酒家	-11.501
芳春	-11.5011
永和	-11.5011
大射	-11.5012
後九月	-11.5017
無限	-11.5017
放生	-11.5018
四兩	-11.5019
等言	-11.502
月給	-11.502
不納	-11.5021
思與	-11.5022
三年春	-11.5022
之人皆	-11.5024
湖中	-11.5027
親故	-11.5029
一百六	-11.5029
城令	-11.503
祭地	-11.503
正殿	-11.5032
青草	-11.5034
東陸	-11.5036
一僧	-11.5037
獨行	-11.5038
逐月	-11.5039
朝朝	-11.504
釀之	-11.504
▁占	-11.5041
家多	-11.5042
衣食	-11.5042
既有	-11.5045
第六	-11.5049
修治	-11.505
正月二月	-11.5051
命官	-11.5056
然無	-11.5059
有風	-11.506
之患	-11.5062
近世	-11.5068
火也	-11.5072
秋深	-11.5075
王君	-11.5078
増魏	-11.5078
圖之	-11.5082
而死	-11.5082
等曰	-11.5083
察其	-11.5083
大義	-11.5083
時正東	-11.5084
文物	-11.5084
以訓	-11.5085
六分	-11.5087
十畝	-11.5087
冬水	-11.5089
留之	-11.509
正月為	-11.509
一斛	-11.5096
和順	-11.5099
原春秋繁露	-11.51
節酒	-11.51
下霜	-11.5104
所獻	-11.5105
十四年四月	-11.5106
二物	-11.5108
取魚	-11.5113
其利	-11.5115
水燈	-11.5119
十月十日	-11.5119
南向	-11.513
如夢	-11.5131
處所	-11.5131
六度	-11.5132
小刻	-11.5133
百五十	-11.5136
人號為	-11.514
常式	-11.514
以塗	-11.5142
卜日	-11.5144
増荆楚嵗時記	-11.515
年光	-11.515
二八	-11.5153
而昏	-11.5153
八方	-11.5161
尊者	-11.5161
廣南	-11.5163
筮之	-11.5165
經義	-11.5165
不可不	-11.5165
收成	-11.5166
千文	-11.5168
天歴	-11.5169
三錢	-11.5172
糞之	-11.5174
乎如	-11.5174
其肉	-11.5176
方盡	-11.5185
帝乃	-11.5187
蒸食	-11.5188
以五行	-11.5189
曲水	-11.519
遊人	-11.5191
帯之	-11.5191
越人	-11.5192
春夢	-11.5193
成就	-11.5194
忽有一	-11.5196
一條	-11.5196
小春	-11.5197
其次	-11.5197
所服	-11.5198
法以	-11.5201
乳香	-11.5202
五等	-11.5204
目曰	-11.5204
三宿	-11.5205
禮之	-11.5206
有詔	-11.5207
不論	-11.5208
其政	-11.5211
二種	-11.5219
門樓	-11.522
字子	-11.522
唐太宗詩	-11.5222
増農政全書正月	-11.5222
簡文	-11.5223
送春	-11.5223
後園	-11.5225
増唐㑹要開元十	-11.5231
吳人	-11.5232
易生	-11.5232
正色	-11.5234
大熱	-11.5234
不登	-11.5235
長樂	-11.5238
未見	-11.524
温公	-11.524
使相	-11.5246
親御	-11.5248
蠶月	-11.5252
三百六	-11.5252
之西	-11.5255
以銅	-11.5258
或名	-11.5258
春池	-11.5262
帝使	-11.5262
於晝夜	-11.5264
民無	-11.5265
厯日	-11.5267
五龍	-11.5267
百畝	-11.5268
禁水	-11.527
當復	-11.5271
兩日	-11.5276
祠神	-11.5277
史院	-11.528
酒名	-11.5282
各取	-11.5283
而反	-11.5287
東陽	-11.5294
若金	-11.5297
黄初	-11.5297
隂木	-11.5298
桃樹	-11.53
入穴	-11.5301
隂陽氣	-11.5306
有益	-11.5309
歳星	-11.5309
公事	-11.5309
春流	-11.5311
因而	-11.5316
其枝	-11.5316
其夫	-11.5318
香風	-11.532
之佳	-11.532
羣物	-11.5321
其口	-11.5323
春羅	-11.5324
龍門	-11.5327
元嘉	-11.5332
日月之	-11.5332
則曰	-11.5333
内之	-11.5335
移於	-11.5342
一息	-11.5343
部右侍	-11.5344
無處	-11.5344
之發	-11.5345
不數	-11.5347
有一種	-11.5349
動故	-11.535
暴之	-11.5351
大池	-11.5352
月令章句	-11.5353
種芋	-11.5357
五升	-11.5358
晚秋	-11.536
徳行	-11.5363
州常以五	-11.5364
異常	-11.5364
或謂之	-11.537
行歌	-11.5372
於郡	-11.5373
浮陽	-11.5378
繫之	-11.5379
是年	-11.5379
乃與	-11.5382
宗正	-11.5383
五斤	-11.5383
一根	-11.5393
其夕	-11.5395
秋九月	-11.5395
鳴者	-11.5399
春賦	-11.54
長命	-11.54
木而	-11.5404
冀州	-11.5406
不與	-11.5407
辨其	-11.5408
受詔	-11.5408
當午	-11.5412
衆人	-11.5413
諸門	-11.5414
耳中	-11.5415
旂衣	-11.5426
光自	-11.5426
皆為	-11.5427
秋開	-11.5427
白者	-11.5434
手指	-11.5434
金闕	-11.5439
慈竹	-11.5439
舊𫝊	-11.5439
明徳	-11.5456
也凡	-11.5458
王命	-11.5462
諸路	-11.5466
一照	-11.5467
施於	-11.547
夜明	-11.5475
恨不	-11.5476
功過	-11.5478
子亦	-11.548
一變	-11.5482
其靈	-11.5483
大辰	-11.5484
自西	-11.5484
火金	-11.5487
以佐	-11.5491
九年正月	-11.5491
春盡	-11.5499
而食之	-11.55
合祭	-11.5502
但有	-11.5504
祖廟	-11.5511
之數也	-11.5516
曝之	-11.5516
夜來	-11.5519
三殿	-11.5527
觀觀	-11.5529
而告	-11.553
於日中	-11.5537
九成	-11.554
矣其	-11.5543
裹之	-11.5547
奉天	-11.5547
於門	-11.5553
云爾	-11.5553
異也	-11.5554
生辰	-11.5554
之鳥	-11.5555
而圓	-11.5556
五雲	-11.5559
順隂陽	-11.556
復為	-11.556
夜光	-11.5564
古有	-11.5565
)□	-11.5566
折之	-11.5569
薄田	-11.5574
大安	-11.5577
以孝	-11.5579
九四	-11.5582
即出	-11.5582
夘蔀七十六嵗次	-11.5582
嵗成	-11.5586
中方	-11.5589
三月初	-11.559
將行	-11.5591
為第一	-11.5595
枝間	-11.5596
之旁	-11.5597
不安	-11.5605
悉用	-11.5606
帝嘗	-11.561
十一年十一月	-11.5612
天星	-11.5613
節也	-11.5615
知天	-11.5622
間以	-11.5623
郊天	-11.5624
雨時	-11.5624
夜夢一	-11.5625
之仍	-11.5634
若此	-11.5634
子能	-11.5636
不常	-11.5637
得以	-11.5642
孤竹	-11.5644
九夏	-11.5645
官使	-11.5645
朔晦	-11.5645
聲聲	-11.5646
初六	-11.5649
周書	-11.565
迎夏	-11.565
南有	-11.5652
華水	-11.5653
日御	-11.5662
丹鳳	-11.5663
講學士	-11.5667
不鳴	-11.567
其身	-11.5677
直上	-11.5679
凡八	-11.5684
以下至	-11.5684
如人	-11.5685
務農	-11.5686
絲為	-11.5686
為害	-11.5687
九月八日	-11.5693
候雨	-11.5696
合也	-11.5703
其職	-11.5707
三月六日	-11.5707
一閏	-11.5714
地下	-11.5715
城門銘	-11.5719
之差	-11.5721
校定	-11.5724
毋有	-11.5725
七月八月	-11.5728
秋節	-11.5732
得道	-11.5734
臨時	-11.5736
荆楚	-11.5736
在未	-11.5737
水車	-11.5742
丈許	-11.5751
城内	-11.5753
用木	-11.5754
八年四月	-11.5756
各随	-11.5757
無或	-11.5758
第五	-11.5761
十一月十一日	-11.5766
常與	-11.5768
月精	-11.577
君山	-11.5772
在京師	-11.5773
諸子	-11.5773
郡第	-11.5774
鳥飛	-11.5784
千嵗	-11.5792
在此	-11.5793
如期	-11.5797
在寅	-11.5807
野人	-11.5809
不似	-11.581
水盡	-11.581
故周	-11.581
雖得	-11.5815
成矣	-11.5817
冬至前	-11.5819
遂至	-11.583
公車	-11.5837
不加	-11.5843
翰林院侍講	-11.585
數皆	-11.5851
穴中	-11.5856
六刻	-11.5857
積水	-11.5865
初冬	-11.5866
之女	-11.587
者一	-11.5872
香為	-11.5876
次序	-11.5876
四五尺	-11.5879
飛鳴	-11.5881
三統厯曰	-11.5885
注言	-11.5888
自樂	-11.5893
五事	-11.5911
為事	-11.5913
其首	-11.5915
義也	-11.5915
生魚	-11.592
上云	-11.5927
元嘉十	-11.5935
四月七日	-11.5936
寒色	-11.5943
一方	-11.5946
所賜	-11.5948
増周	-11.5949
小大	-11.5956
面上	-11.5957
花春	-11.5963
之才	-11.5963
視其	-11.5968
原杜甫詩	-11.5978
此皆	-11.5979
拜賀	-11.5986
三千	-11.5988
何謂	-11.599
先王之	-11.5991
晦夜	-11.5995
襄公	-11.5998
也是以	-11.6003
天明	-11.6006
在已	-11.6009
北有	-11.6013
增白居易	-11.6014
清道	-11.6017
不辭	-11.6018
青石	-11.6022
秋八月	-11.6022
明帝	-11.6031
臣張	-11.6036
原獨㫁	-11.604
月吉	-11.6041
九真	-11.6046
眀年	-11.6046
神也	-11.6052
上元節	-11.6053
月奉	-11.6061
蔓草	-11.6066
二月三月	-11.6069
一何	-11.6073
原皇極經世	-11.6074
鳥所	-11.6084
日作	-11.6085
☱	-11.6098
夜静	-11.6101
嵗數	-11.6104
火然	-11.6105
五年四月	-11.6106
小池	-11.6108
☴	-11.6111
十二年五月	-11.6111
竟不	-11.6117
請於	-11.6117
春女	-11.6119
水不	-11.612
六年十二月	-11.6121
正月旦	-11.6123
國俗	-11.6124
以秋分	-11.6129
萬物也	-11.613
秋陽	-11.613
欲使	-11.6132
増周易集解乾	-11.6137
元年十月	-11.6145
長風	-11.6148
畜之	-11.615
註謂	-11.6154
六祖	-11.6155
十二月十六日	-11.6159
火氣	-11.6159
明經	-11.6162
所宿	-11.6163
増周禮春官	-11.6169
左手	-11.6169
以來	-11.617
是陽	-11.617
八年正月	-11.6173
習之	-11.6174
真也	-11.6176
有重	-11.6177
為率	-11.6181
正赤	-11.6183
采女	-11.6189
朝參	-11.6193
重則	-11.6193
増玉海乾道	-11.6196
分在	-11.6198
夏食	-11.6199
漢宫	-11.6207
少師	-11.6207
長飬	-11.6208
増唐會要開元	-11.621
十餘日	-11.6213
故謂	-11.6217
向月	-11.6219
大樹	-11.6223
為寒	-11.6224
冠帶	-11.6237
郞	-11.6239
凄凄	-11.6245
擦	-11.6249
了無	-11.6255
西方之	-11.6255
為冬	-11.6256
葉大	-11.6258
郊禮	-11.626
増玉海祥符	-11.6261
送寒	-11.6262
時月仙星福徳星	-11.6267
大次	-11.6269
其直	-11.627
如麻	-11.6271
原易通卦驗	-11.6274
之損	-11.6274
之遺	-11.6276
承天	-11.6278
記曰	-11.6278
女冠	-11.6281
復滿	-11.6285
三代	-11.6288
朝廟	-11.6291
變而	-11.6294
夜誦	-11.6301
増嵗華紀麗譜	-11.6306
春江	-11.6314
而進	-11.6316
濵	-11.6316
帝配	-11.6317
聖人之	-11.6317
十二支	-11.6319
南郡	-11.6322
則多	-11.6325
孔子廟	-11.6331
燭龍	-11.6344
嵗閏	-11.6345
一器	-11.6347
林寺	-11.635
諸方	-11.6353
果以	-11.6355
諸將	-11.6358
寒温	-11.6362
天雨	-11.6364
志云	-11.6364
易為	-11.6366
郊壇	-11.6366
如前	-11.637
吉辰	-11.6374
連枝	-11.6375
辟蟲	-11.6377
離離	-11.6378
月令孟	-11.6387
辰謂	-11.6391
永平	-11.6393
北方之	-11.6393
請令	-11.6396
其源	-11.6405
五十卷	-11.6407
自云	-11.6407
則寒	-11.6407
十匹	-11.6414
士人	-11.6415
至中	-11.6416
為文	-11.6429
頗似	-11.643
六七	-11.6431
二月二十四日	-11.6433
奏曰	-11.644
或生	-11.644
不來	-11.6443
七月上	-11.6448
風露	-11.6449
以比	-11.6454
考試	-11.6459
巫山	-11.6459
問於	-11.646
相續	-11.6462
春眠	-11.6462
四望	-11.6471
就國	-11.6478
地統	-11.6479
久矣	-11.648
有感	-11.6483
夜必	-11.6484
冬榮	-11.6489
坐夏	-11.6492
陽雲出	-11.6492
已矣	-11.6501
三四日	-11.6501
鐘鳴	-11.6506
其説	-11.651
禮天子	-11.6512
未能	-11.6512
大書	-11.6519
朱衣	-11.6525
方諸	-11.6528
増玉海慶厯	-11.6528
御之	-11.6529
中尚	-11.6531
正月十五	-11.6537
榖熟	-11.6541
花盛開	-11.6545
年七十	-11.6547
三七	-11.6551
人形	-11.6554
耕而	-11.6555
分明	-11.6557
咸謂	-11.6557
乃自	-11.6564
雨打	-11.6564
七宿	-11.6566
留守	-11.6574
以嵗時	-11.6574
大酺	-11.6583
蔬食	-11.6584
雲間	-11.6594
之力	-11.6596
及長	-11.6599
正月二十三日	-11.6599
六軍	-11.6602
以太牢	-11.6609
城諸	-11.6614
葉𩔖	-11.6617
方色	-11.6621
以身	-11.6628
至十	-11.663
亦多	-11.6631
宜男	-11.6634
增家語	-11.6635
灑之	-11.6644
栽之	-11.6645
池澤	-11.6652
一百五	-11.6654
宫而	-11.6664
向南	-11.6666
戴之	-11.6669
九日定	-11.667
之火	-11.6674
命曰	-11.6678
元年詔	-11.668
月朔日	-11.6681
歸於	-11.6686
刪定	-11.6686
宴賜	-11.6688
相率	-11.6688
師子	-11.6694
晝漏五十	-11.6697
亦欲	-11.6698
車輪	-11.6699
燈詩	-11.6701
白水	-11.6702
原晉書禮志	-11.6702
明則	-11.6707
増魏書靈徴志	-11.6707
蒲澗	-11.6708
晷景	-11.6711
洞中	-11.6716
金水	-11.6716
乾徳	-11.672
山寺	-11.6723
後漢書和帝紀永元	-11.6726
四月三日	-11.6728
六年八月	-11.673
増唐書太宗紀貞觀	-11.6731
賔主	-11.6731
臺下	-11.6733
下視	-11.6735
荆湖	-11.6736
養萬物	-11.6737
農耕	-11.674
楝	-11.6741
永徽	-11.6748
皇祐	-11.6749
逰觀	-11.6751
品以下	-11.6751
善也	-11.6751
舉賢良	-11.6752
㤗	-11.6755
畨	-11.6757
草上	-11.6757
蕉子	-11.6757
土得	-11.6758
供帳	-11.6762
英宗	-11.6763
射禮	-11.6763
地菩薩如	-11.6766
夜坐	-11.6772
宣令	-11.6772
不妨	-11.6783
七月采	-11.6783
晝夜不	-11.6787
廂	-11.6793
四月開	-11.6796
王宫	-11.6797
不得避	-11.6798
丈夫	-11.68
増玉海唐	-11.6801
田種	-11.6802
孟昶	-11.6804
秋食	-11.6804
翰林院侍	-11.6805
其狀如	-11.6805
原周禮	-11.6807
酉陽雜俎	-11.6808
大雩	-11.6812
皎然	-11.6816
原荆楚歳時記五月五日	-11.6824
事不	-11.6825
原道經	-11.6825
陶朱公書	-11.6825
國初	-11.6827
南京	-11.6827
日蝕	-11.683
田家五行	-11.683
隂氣始	-11.683
早者	-11.683
立春之日	-11.683
漢官儀	-11.683
昳	-11.6834
俚	-11.6837
中皆有	-11.6845
千緡	-11.6845
山海經	-11.6847
五鼓	-11.6848
彝	-11.6848
人意	-11.6849
有闕	-11.685
拜之	-11.6851
原參同契	-11.6851
于闐	-11.6852
向東	-11.6852
飛飛	-11.6853
驪	-11.6853
四寸	-11.6854
月令輯要	-11.6854
在後	-11.6854
梁簡文帝	-11.6854
踐	-11.6855
隅有	-11.6856
汴	-11.6856
警衆	-11.6857
隋書禮儀志	-11.6859
張衡東京賦	-11.6859
杜鎬	-11.6861
屋之	-11.6861
緹	-11.6863
東京夢華錄	-11.6863
之右	-11.6863
咨嗟	-11.6864
灣	-11.6864
話	-11.6864
隋書	-11.6865
増詩䟽廣要	-11.6865
廣恵倉	-11.6865
都尉	-11.6867
沫	-11.6869
洙	-11.6869
太平御覽	-11.687
杜審言	-11.687
呪	-11.6871
譏	-11.6871
曼	-11.6871
煜	-11.6872
為下時	-11.6872
蚯蚓	-11.6872
二十年	-11.6872
漚鳥	-11.6873
甯	-11.6874
天津橋	-11.6875
増乾淳歳時記禁中臘月三十日	-11.6875
賖	-11.6875
增農桑輯要	-11.6875
拾遺記	-11.6875
竹葉	-11.6875
哲宗	-11.6876
掲	-11.6876
左春坊左	-11.6876
瀹	-11.6876
遁	-11.6877
鯨	-11.6877
琛	-11.6877
碓	-11.6877
檉	-11.6877
復起	-11.6878
增洞冥記	-11.6879
驂	-11.6879
如弹丸	-11.6879
僻	-11.6879
王安石	-11.6879
髠	-11.6879
増翰林志	-11.6879
增益部方物記	-11.6879
法苑珠林	-11.6879
涎	-11.6879
之率	-11.688
疉	-11.688
安樂窩	-11.688
簁	-11.688
太平御覧	-11.688
明成祖	-11.688
南方草木狀	-11.6881
靛	-11.6881
甃	-11.6881
增朝野僉載	-11.6882
悄	-11.6882
示現	-11.6882
原荀子	-11.6882
溟	-11.6883
衿	-11.6883
牛塘利	-11.6883
豁宿	-11.6883
梳	-11.6883
漳	-11.6884
來歲	-11.6884
璇	-11.6884
沁	-11.6884
辛辣	-11.6884
以孝聞	-11.6884
聫	-11.6884
櫸	-11.6884
耿耿	-11.6884
𢎞䇿	-11.6884
終身不	-11.6885
瞿	-11.6885
璋	-11.6885
増物理論	-11.6886
炮	-11.6886
筆墨	-11.6886
無餘	-11.6886
裕	-11.6886
罏	-11.6886
椰	-11.6887
流年	-11.6887
歐	-11.6887
彤	-11.6887
五星同色	-11.6887
絳囊	-11.6887
隈	-11.6887
𤣥元皇帝	-11.6887
缸	-11.6888
原藏經	-11.6888
儂	-11.6888
増千金月令	-11.6888
何承天	-11.6889
増研北雜志	-11.6889
披襟	-11.6889
搥	-11.6889
者一人為	-11.6889
庮	-11.6889
瓚	-11.6889
秔	-11.6889
增北史	-11.6889
錬	-11.6889
禹錫	-11.689
娘	-11.689
衛尉	-11.689
勾陳	-11.689
魔	-11.689
兩儀殿	-11.689
賓	-11.689
増一統志	-11.689
簸	-11.689
鷓鴣	-11.689
王子喬	-11.689
詰旦	-11.689
鳯皇集	-11.689
増元史祭祀志	-11.689
未可	-11.689
増物原	-11.6891
所歌也	-11.6891
曰講官起居注翰林院侍	-11.6891
琪	-11.6891
颸	-11.6891
種樹書	-11.6891
増逸周書	-11.6891
葦索	-11.6891
隠隠	-11.6891
却鬼丸	-11.6891
屠蘇酒	-11.6891
渤	-11.6891
籃	-11.6891
膢	-11.6891
匣	-11.6892
弭	-11.6892
颶	-11.6892
詹	-11.6892
燼	-11.6892
騶	-11.6892
斷獄	-11.6893
搭	-11.6893
鬱金香	-11.6893
増名醫别錄	-11.6893
牟	-11.6893
景祐	-11.6893
溲	-11.6894
杲	-11.6894
無恙	-11.6894
戞	-11.6894
待漏院	-11.6894
豉	-11.6894
彥	-11.6894
李泌	-11.6894
瞬息	-11.6894
浃	-11.6894
種苜蓿	-11.6894
虎豹	-11.6894
涓涓	-11.6894
琅	-11.6894
筩	-11.6894
内苑	-11.6894
天台	-11.6894
蹋	-11.6895
晁	-11.6895
襪	-11.6895
决獄	-11.6895
烟靄	-11.6895
通事舍人	-11.6895
山臊	-11.6895
亢旱	-11.6895
淇	-11.6895
賜新及第	-11.6895
鈍	-11.6895
䃡	-11.6895
原獨斷	-11.6895
山川形勢	-11.6895
民所疾苦	-11.6895
祀先農	-11.6895
稈	-11.6895
菠薐	-11.6895
餻	-11.6895
豎	-11.6896
刮	-11.6896
淳祐	-11.6896
郃	-11.6897
增燕翼貽謀錄	-11.6897
本命日	-11.6897
榔	-11.6897
迢遞	-11.6897
増海槎餘錄	-11.6897
瑕	-11.6897
器皿	-11.6897
采根暴乾	-11.6897
倘	-11.6897
巘	-11.6897
彷彿	-11.6897
朧	-11.6897
殼	-11.6897
米九斗	-11.6897
二百三十五	-11.6897
孝經援神契	-11.6897
戶	-11.6897
薍	-11.6897
䅖青	-11.6897
侑	-11.6897
藏彄	-11.6897
太清樓	-11.6897
煇	-11.6897
松栢	-11.6898
銳	-11.6898
冬蠶成繭	-11.6898
桑柴	-11.6898
笞	-11.6898
鐘磬	-11.6898
閔	-11.6898
温庭筠	-11.6898
給事中	-11.6898
著盆中	-11.6898
闚	-11.6898
原戎事𩔖占	-11.6898
増梁簡文帝	-11.6898
觀覽	-11.6898
滇	-11.6899
椎	-11.6899
芼	-11.6899
駘蕩	-11.6899
姑蘇	-11.6899
望春宫	-11.6899
睇	-11.69
厚二寸	-11.69
抛	-11.69
撓	-11.69
原莊子	-11.69
姨	-11.69
賈誼	-11.69
増野菜譜	-11.69
春日載陽	-11.69
洒掃	-11.69
内閣大學	-11.69
恪	-11.69
謐	-11.69
馬嘶	-11.69
啓蟄	-11.69
三百六十五度	-11.69
尊卑	-11.69
麛	-11.69
分夜漏三十	-11.69
原唐詩紀事	-11.6901
蜀芥蕓薹	-11.6901
陸贄	-11.6901
増圗經本草	-11.6901
律中南吕	-11.6901
腐草為螢	-11.6901
鸕	-11.6901
𤾉谷	-11.6901
徭役	-11.6901
棒鼓	-11.6901
琦	-11.6901
鄴中記	-11.6901
萄	-11.6901
倅	-11.6901
誼	-11.6902
唐貞觀	-11.6902
瓮	-11.6902
浹	-11.6902
㢠	-11.6902
所在有之	-11.6902
余靖	-11.6902
兗州	-11.6902
華陽國志	-11.6902
號曰助天	-11.6902
覓	-11.6902
列仙𫝊	-11.6902
勢力	-11.6902
有冬有夏	-11.6902
泚	-11.6902
瑯	-11.6902
矛	-11.6902
一寸九節	-11.6902
增宋史律歴志	-11.6902
湯沐浴令人	-11.6902
些	-11.6902
杜鵑	-11.6902
喘	-11.6903
控	-11.6903
大中祥符元年	-11.6903
錢帛	-11.6903
霰	-11.6903
苴	-11.6903
縚	-11.6904
傭	-11.6904
春秋元命苞	-11.6904
宗正寺	-11.6904
瀾	-11.6904
無知者	-11.6904
增宋史河渠志	-11.6904
己卯	-11.6904
増録異記	-11.6904
尺堂階	-11.6904
獻弓弩	-11.6904
堞	-11.6904
袪	-11.6904
昊天上帝	-11.6904
増東陽縣志	-11.6904
鬚髪	-11.6904
五經通義	-11.6904
八角磨盤	-11.6904
笥	-11.6904
前三日	-11.6904
洩	-11.6904
萋萋	-11.6904
彌勒	-11.6904
凱	-11.6904
祭司寒	-11.6904
都督	-11.6905
夏枯草	-11.6905
樞密	-11.6905
涖	-11.6905
鯢	-11.6905
増唐書五行志	-11.6905
觥	-11.6905
滉	-11.6905
萬仞	-11.6905
増洞冥記	-11.6905
宣政殿	-11.6905
廬山記	-11.6905
蠕	-11.6905
囷倉	-11.6905
臠	-11.6905
䖟	-11.6905
二三丈	-11.6905
份	-11.6905
攻駒	-11.6905
時眀輔星貴人星	-11.6905
盧多遜	-11.6905
蝙蝠	-11.6905
髓	-11.6905
膳膏	-11.6905
井華水	-11.6906
洞庭	-11.6906
蒲萄	-11.6906
折衝	-11.6906
譲	-11.6906
卞	-11.6906
焕	-11.6906
𬒮	-11.6906
椏	-11.6907
甘菊花	-11.6907
隋書音樂志	-11.6907
日抱戴	-11.6907
樗	-11.6907
禮神玉	-11.6907
不舍晝夜	-11.6907
亳	-11.6907
御製初秋	-11.6907
戲馬臺	-11.6907
晳	-11.6907
無逸篇	-11.6907
閬	-11.6907
館閣官	-11.6907
駐輦	-11.6907
日在内衡	-11.6907
湜	-11.6907
藏鉤	-11.6907
璣	-11.6907
曹彬	-11.6907
煗	-11.6907
遨	-11.6907
醢	-11.6907
塤	-11.6908
纊	-11.6908
藹	-11.6908
雌雄	-11.6908
紘	-11.6908
通典唐	-11.6908
怖	-11.6908
増閩部疏	-11.6908
曺	-11.6908
䜿	-11.6908
増本草經	-11.6908
礪	-11.6908
捻	-11.6908
惆悵	-11.6908
聞喜宴	-11.6908
上林賦	-11.6908
増沈約詩	-11.6908
夀星之次	-11.6908
斃	-11.6908
湏臾	-11.6908
遑	-11.6908
増便民圖纂十一月	-11.6908
墾闢	-11.6908
裙腰	-11.6908
阿魏	-11.6908
霜始降	-11.6908
三年一閏	-11.6908
厄	-11.6908
鉉	-11.6909
賭	-11.6909
昻	-11.6909
氣也故	-11.6909
枲	-11.6909
六十四卦	-11.6909
周益公日記	-11.6909
陜西	-11.6909
望氣經	-11.6909
恍惚	-11.6909
躋	-11.6909
増桂海花志	-11.6909
增春秋繁露	-11.6909
栁宗元	-11.6909
溺	-11.6909
聶	-11.6909
霂	-11.6909
㵼	-11.6909
公羊𫝊	-11.6909
千齡節	-11.6909
原荆楚嵗時記寒食	-11.6909
叠	-11.6909
灌佛	-11.6909
灌溉	-11.6909
降聖節	-11.6909
飲一杯	-11.6909
三日太史謁之天子	-11.6909
増元中記	-11.6909
増漢書武帝紀元鼎	-11.6909
濯枝雨	-11.6909
菊花賦	-11.6909
秉燭	-11.6909
㽔	-11.691
醴泉	-11.691
鴝鵒	-11.691
馬蹄	-11.6911
几杖	-11.6911
増寰宇記	-11.6911
春秋二分	-11.6911
王濬	-11.6911
褐色	-11.6911
悴	-11.6911
清凉殿	-11.6911
滄浪	-11.6911
窮困	-11.6911
莪蒿	-11.6911
以滿為限	-11.6911
吉甫	-11.6911
庾肩吾詩	-11.6911
排門	-11.6911
楚亭	-11.6911
紫陌	-11.6911
缸内	-11.6911
缾	-11.6911
孫覿	-11.6911
方春東作	-11.6911
月禮記月令曰孟	-11.6911
橈	-11.6911
灼灼	-11.6911
踐長	-11.6911
開墾	-11.6911
鮑照	-11.6911
余且	-11.6911
擭	-11.6911
禮部選士	-11.6911
窻	-11.6911
酷	-11.6911
水始涸	-11.6911
淫所勝平以	-11.6912
牘	-11.6912
潘岳	-11.6912
枸	-11.6912
夏官司馬	-11.6912
皥	-11.6912
晷漏	-11.6912
春分後	-11.6912
相國寺	-11.6912
穆宗	-11.6912
蓽撥	-11.6912
卓帳	-11.6912
集賢校理	-11.6912
寂寂	-11.6912
櫂	-11.6912
原古三墳	-11.6912
謂輔臣曰	-11.6912
軀	-11.6912
儀禮士冠禮	-11.6912
増玉海祥符元年	-11.6912
玳瑁	-11.6912
珠璣	-11.6912
􁀺	-11.6912
噎	-11.6912
夏侯湛	-11.6912
獻馴象	-11.6912
討論	-11.6912
蹔	-11.6912
小牘	-11.6912
皚	-11.6912
身壬	-11.6912
甘藷	-11.6912
粱	-11.6913
芬馥	-11.6913
黄河清	-11.6913
兆人本業	-11.6913
弹琴	-11.6913
蜜煎	-11.6913
原禮命有司	-11.6913
増隋書食貨志	-11.6913
松脂	-11.6913
龡	-11.6913
二年閏二月	-11.6913
巫祝	-11.6913
春霆	-11.6913
試賢良方正	-11.6913
栱	-11.6913
榮堇	-11.6913
盟	-11.6913
増金史	-11.6913
三品以上	-11.6914
貿	-11.6914
彬	-11.6914
涌	-11.6914
斟	-11.6914
草木黄落	-11.6914
元亨利貞	-11.6914
瀆山	-11.6915
天子請客	-11.6915
増談苑	-11.6915
卬	-11.6915
巔	-11.6915
良宵	-11.6915
蠟燭	-11.6915
薦鮪	-11.6915
緧	-11.6915
槊	-11.6915
鍊形	-11.6915
原隋書天文志	-11.6915
増佛國記	-11.6915
有道術	-11.6915
澤瀉	-11.6915
皮日休	-11.6915
紫笋	-11.6915
耐久	-11.6915
覃	-11.6915
洋洋	-11.6915
葬	-11.6915
辨才	-11.6915
使帥其	-11.6915
鞏	-11.6915
一日一度	-11.6915
李昉	-11.6916
紞	-11.6916
鴛	-11.6916
需	-11.6916
經冬不凋	-11.6916
蘸	-11.6916
薛道衡	-11.6916
顛倒	-11.6916
麽	-11.6916
明帝太和	-11.6916
大雨時行	-11.6916
帙	-11.6916
彛	-11.6916
律長六寸	-11.6916
曲江亭	-11.6916
沖	-11.6916
皇甫	-11.6916
綺羅	-11.6916
前漢律厯志曰	-11.6916
喉舌	-11.6916
穰苴	-11.6916
茜	-11.6916
長三丈	-11.6916
𥜗	-11.6917
絞	-11.6917
甘露降	-11.6917
䭔	-11.6917
媿	-11.6918
正月望夜	-11.6918
喝	-11.6918
箏	-11.6918
緗	-11.6918
鄭司農云	-11.6918
而起助	-11.6918
也萬物之所以	-11.6918
傷害	-11.6918
凍死	-11.6918
須叟	-11.6918
擷	-11.6918
旃	-11.6918
渭川	-11.6918
赤熛怒	-11.6918
迓	-11.6918
鈺	-11.6918
䓁	-11.6918
五年再閏	-11.6918
五年春正月	-11.6918
勾芒	-11.6918
曰某日立	-11.6918
杞菊	-11.6918
薁	-11.6918
鰥寡孤獨	-11.6918
有火光	-11.6918
村村	-11.6918
蚯蚓結	-11.6918
仲夏之月	-11.6919
増百怪斷經	-11.6919
棣	-11.6919
夢華録	-11.6919
莒	-11.6919
春生夏長	-11.6919
霶	-11.6919
之道也逆之則傷	-11.6919
柳絮	-11.6919
著於令	-11.6919
九陌	-11.6919
二政曰	-11.6919
屬而掌邦	-11.6919
拌匀	-11.6919
方故使為	-11.6919
條達	-11.6919
潄	-11.6919
獲玉印	-11.6919
鮒	-11.6919
䇿一道	-11.6919
原周禮乃立	-11.6919
原晋書王	-11.6919
悖	-11.6919
用事火煙	-11.6919
繕寫	-11.6919
躁	-11.6919
道二出黄道	-11.6919
霓裳	-11.6919
瀑	-11.6919
泰畤	-11.6919
律中大呂	-11.6919
元㝠	-11.6919
珮	-11.6919
訴	-11.692
黜	-11.692
趺	-11.692
㯶櫚	-11.692
漢書禮樂志	-11.692
煩襟	-11.692
而有娠	-11.692
冗	-11.692
原續齊諧記	-11.692
器械	-11.692
周伯琦	-11.692
拂曙	-11.692
裡	-11.692
西方白虎之宿	-11.692
述職	-11.692
呂氏春秋註	-11.692
曜靈	-11.692
睢陽	-11.692
種大小麥	-11.692
儆	-11.692
四十八箭	-11.692
官其属六十掌邦	-11.692
移春檻	-11.692
講孝經	-11.692
安置	-11.6921
六年七月	-11.6921
猛獸	-11.6921
邃	-11.6921
増後漢書章帝紀建初	-11.6922
莫見其	-11.6922
粳	-11.6922
擔	-11.6922
賔僚	-11.6922
揮扇	-11.6922
㤗始	-11.6922
増史記律書	-11.6922
神農氏	-11.6922
懐妊	-11.6922
氣罰見	-11.6922
西南風主	-11.6922
鬐	-11.6922
㬉	-11.6922
嚙	-11.6922
四政曰	-11.6922
猿猴	-11.6922
磑	-11.6922
九域志	-11.6922
増周禮秋官	-11.6922
増廣州記	-11.6922
奉天書	-11.6922
彧	-11.6922
恱	-11.6922
挨藍	-11.6922
東方蒼龍之宿	-11.6922
民之府	-11.6922
瞿塘	-11.6922
髩	-11.6922
魅	-11.6922
麋角解	-11.6922
物也位於	-11.6922
醵	-11.6922
臨幸	-11.6922
綱目	-11.6922
五臟	-11.6923
車轄	-11.6923
俎	-11.6923
鷹化為鳩	-11.6923
増鄭氏家範	-11.6923
堯夫	-11.6923
精誠	-11.6923
西京雜記戚夫人侍兒賈佩蘭	-11.6923
長九尺	-11.6923
玻	-11.6923
觱發	-11.6923
釋氏	-11.6923
氣入口	-11.6923
原周禮春官大宗伯以	-11.6923
歳歳隂在	-11.6923
璇璣	-11.6923
萍始生	-11.6923
週	-11.6923
九嬪	-11.6923
五辛盤	-11.6923
劈正斧	-11.6923
周伯星	-11.6923
帀	-11.6923
惕	-11.6923
翼軫	-11.6923
起夜來	-11.6923
嗚	-11.6923
墾	-11.6924
其數七其味苦其臭焦其	-11.6924
右英夫人	-11.6924
洋	-11.6924
縹緲	-11.6924
錦帶	-11.6924
増陸璣詩疏	-11.6924
緻	-11.6925
大鴻臚	-11.6925
冝	-11.6925
去人近	-11.6925
黔南	-11.6925
供飬	-11.6925
俎豆	-11.6925
僖公	-11.6925
方寸匕	-11.6925
丁癸	-11.6925
噬	-11.6925
好事者	-11.6925
張掖	-11.6925
烟霞	-11.6925
閏年圖	-11.6925
畫鴨子	-11.6925
精之帝而	-11.6925
蠏	-11.6925
􁀔	-11.6925
月之行	-11.6925
槽	-11.6925
周而復始	-11.6925
楊栁	-11.6925
番禺	-11.6925
懈	-11.6926
如堵	-11.6926
臘月二十五	-11.6926
曲阜	-11.6926
蚓	-11.6926
傚	-11.6926
水濵	-11.6926
蔡襄	-11.6926
朞	-11.6926
烏夜啼	-11.6926
開闢	-11.6926
振貸	-11.6926
洛濵	-11.6926
涉	-11.6926
太初厯	-11.6926
樞密使	-11.6926
􁘀	-11.6926
田租	-11.6927
螻蟈鳴	-11.6927
膳夫	-11.6927
閫	-11.6927
増輝縣志	-11.6927
八九寸	-11.6927
奏祥瑞	-11.6927
枯死	-11.6927
虹橋	-11.6927
順時節	-11.6927
増鶴慶府志	-11.6927
嵗嵗隂在	-11.6927
用酒脯	-11.6927
脣	-11.6927
輦上詣	-11.6927
律中林鍾	-11.6927
王仲都	-11.6927
白如玉	-11.6927
俛	-11.6927
嵗有閏	-11.6927
律中太蔟	-11.6927
日反支	-11.6927
正月之吉	-11.6927
渺	-11.6927
金天氏	-11.6927
禧	-11.6928
剰	-11.6928
稽古	-11.6928
柷	-11.6928
俯仰	-11.6929
詭	-11.6929
奬	-11.6929
賜高年	-11.6929
商賈	-11.6929
靂	-11.6929
儔	-11.6929
昆蟲	-11.6929
増食療本草	-11.6929
惜分隂	-11.6929
拯	-11.6929
晨出東方	-11.6929
椰子	-11.6929
蠧魚	-11.6929
隘	-11.6929
鯽魚	-11.6929
刺桐	-11.6929
増嬾真子錄	-11.6929
増運氣論	-11.6929
建亥之月	-11.6929
念佛	-11.6929
槖	-11.6929
祀青帝	-11.6929
原魏書	-11.6929
子干丙子	-11.6929
雞唱	-11.6929
二月二十二日	-11.693
洪範	-11.693
增齊民要術崔寔	-11.693
溽	-11.693
魏明帝	-11.693
倐	-11.693
莆	-11.693
陶榖	-11.693
又禮志	-11.693
鵙	-11.693
慤	-11.693
文徳殿	-11.693
内甕中	-11.693
最勝	-11.693
東萊	-11.693
罌	-11.693
刋石	-11.693
一隂生	-11.693
桐花鳯	-11.693
醴泉出	-11.693
南任也	-11.693
聰明	-11.693
闋	-11.693
原歳時雜記端午	-11.693
增左𫝊	-11.693
宜春宫	-11.693
春澑	-11.693
曼陀羅	-11.693
細栁圈	-11.693
鍜	-11.693
魚袋	-11.693
魚醬	-11.693
獅子	-11.6931
酎	-11.6931
日月五星	-11.6931
宋史	-11.6931
流鶯	-11.6931
楊妃	-11.6931
浩然	-11.6931
増居家必用	-11.6931
盬	-11.6931
蛇醫	-11.6931
鍳	-11.6931
之維則	-11.6931
毋殺	-11.6931
蕭索	-11.6931
笛聲	-11.6931
陕西	-11.6931
三嵗一閏	-11.6931
渝	-11.6931
若於夜則月	-11.6931
鑊	-11.6931
雍和殿	-11.6931
原居家宜忌	-11.6932
反舌無聲	-11.6932
脈	-11.6932
蕎麥	-11.6932
蔀首	-11.6933
諦	-11.6933
石廩	-11.6933
曨	-11.6933
月上寅采	-11.6933
律吕	-11.6933
丁壯	-11.6933
即事詩	-11.6933
嘉瑞	-11.6933
播種	-11.6933
瀰	-11.6933
觀察使	-11.6933
龔	-11.6933
原易乾鑿度	-11.6933
諌官	-11.6933
原感遇	-11.6933
指天下皆	-11.6933
栁暗	-11.6933
翾	-11.6933
計獄	-11.6933
澶	-11.6933
曲也	-11.6934
曬乾	-11.6934
蕭颯	-11.6934
𤨏	-11.6934
呪曰	-11.6934
光澤不	-11.6934
凍橘	-11.6934
増魏書靈徵志	-11.6934
孝文皇帝	-11.6934
早孤	-11.6934
東風觧凍	-11.6934
原述異記	-11.6934
瘴	-11.6934
子儀	-11.6935
少皥	-11.6935
大司徒	-11.6935
太醫	-11.6935
豐稔	-11.6936
鸞刀	-11.6936
雞犬	-11.6936
堯樽	-11.6936
孟春之月	-11.6936
俞	-11.6936
栢樹	-11.6936
虞舜	-11.6936
𤼵斂	-11.6936
十一月十二日	-11.6936
正月建寅	-11.6936
􁘅	-11.6936
太康	-11.6936
簧	-11.6937
御試舉人	-11.6937
綵縷	-11.6937
舅姑	-11.6937
竒巧	-11.6937
嘉靖	-11.6937
失逆	-11.6937
横截	-11.6937
泗濵	-11.6937
湯浸	-11.6937
竹笋	-11.6937
汰	-11.6937
子干甲子	-11.6937
寶鼎	-11.6937
五岳	-11.6938
粉團	-11.6938
含情	-11.6938
鹿鳴	-11.6938
以太牢祠	-11.6938
名註中官為	-11.6938
季春出火	-11.6938
以佐王	-11.6938
洗沐	-11.6938
建康	-11.6938
魏徵	-11.6938
封泰山	-11.694
孝弟	-11.694
浸麴	-11.694
門萬物已	-11.694
卒歳	-11.694
採捕	-11.694
六十卦	-11.694
量功	-11.694
律學	-11.694
阪	-11.694
注孝經	-11.694
喜雨詩	-11.694
南陌	-11.694
纁元	-11.694
萬邦	-11.694
闘	-11.694
省牲	-11.694
帬	-11.694
日計	-11.6941
秘書監	-11.6941
癸卯	-11.6941
䧟	-11.6941
戌臘	-11.6941
方之極自	-11.6941
綱紀	-11.6941
葉尖	-11.6941
仙輿	-11.6941
忽憶	-11.6941
移仗	-11.6941
含譽星見	-11.6941
填星	-11.6941
大儺	-11.6941
樸	-11.6941
皇太子	-11.6941
長一丈	-11.6941
雪霽	-11.6941
預知子	-11.6941
一日洞元靈寳月十齋	-11.6942
蒨	-11.6942
郊廟	-11.6942
唐書歴志	-11.6942
隔宿	-11.6943
昕	-11.6943
牀頭	-11.6943
語笑	-11.6943
鳴鈴	-11.6943
凌晨	-11.6943
凛然	-11.6943
増搜神記	-11.6943
拒霜	-11.6943
浮沉	-11.6943
盧氏	-11.6943
原禮先立	-11.6943
隐隐	-11.6943
秋山	-11.6943
富貴	-11.6943
煎餅	-11.6943
城隍	-11.6944
清亮	-11.6944
八九月熟	-11.6944
原通考正月	-11.6944
軍校	-11.6944
鄕	-11.6944
複道	-11.6944
轉運使	-11.6944
原春明退朝録	-11.6944
嬰蜺	-11.6944
屯田	-11.6944
憶長安	-11.6944
日一澆	-11.6944
瀏	-11.6944
狀𩔖	-11.6944
瓠子	-11.6944
元穎	-11.6944
耗磨	-11.6944
黄褐侯	-11.6944
惠連	-11.6944
增史記	-11.6944
蚯蚓出	-11.6945
風從南	-11.6945
増通攷	-11.6945
紅紗	-11.6945
冬至前一日	-11.6945
孝感	-11.6945
歆	-11.6945
詹事	-11.6945
鳳凰集	-11.6945
久旱	-11.6945
綵仗	-11.6945
蓂莢	-11.6945
原東京夢華録	-11.6945
弱冠	-11.6945
薦享	-11.6945
増漏刻經	-11.6945
燈籠	-11.6945
舎利	-11.6945
場圃	-11.6946
歐陽公	-11.6946
白露降	-11.6946
七月中旬	-11.6946
喚起	-11.6946
慵	-11.6947
絃歌	-11.6947
罽	-11.6947
四季花	-11.6947
淑氣	-11.6947
打麥	-11.6947
李乂	-11.6947
沉香	-11.6947
芳菊	-11.6947
上職方	-11.6947
四分歴	-11.6947
都䕶	-11.6947
黒豆	-11.6947
交泰	-11.6947
文忠	-11.6948
榖貴	-11.6948
𣙜	-11.6948
増東京夢華錄	-11.6948
赫然	-11.6948
原國史補	-11.6948
沙苑	-11.6948
秋獮	-11.6948
賦七言詩	-11.6948
歲時廣記	-11.6948
青苔	-11.6948
脛	-11.6948
玉蘂花	-11.6948
紫白色	-11.6948
觀濤	-11.6948
邜	-11.6948
鷹隼	-11.6949
為暑	-11.6949
益智	-11.6949
盒	-11.6949
春秋冬夏	-11.6949
李嶠等	-11.6949
各得其	-11.695
為上考	-11.695
狩田	-11.695
虐	-11.695
開白花	-11.6951
寳器	-11.6951
羅綺	-11.6951
增陶朱公書	-11.6951
拜墓	-11.6951
膏澤	-11.6951
天行健	-11.6951
躬耕	-11.6951
王珪	-11.6951
宴從臣	-11.6952
連綿	-11.6952
長幼	-11.6952
率羣臣	-11.6952
辰戌丑未	-11.6952
勃海	-11.6952
原南方草木状	-11.6952
原釋名	-11.6952
司𨽻	-11.6952
獲白麟	-11.6952
七十二候	-11.6953
居中央	-11.6953
行秋令	-11.6953
水嬉	-11.6953
東廊	-11.6954
原隰	-11.6954
好讀書	-11.6954
數十歩	-11.6954
樞宻使	-11.6954
蓴菜	-11.6954
儒林	-11.6954
樹檀	-11.6954
三月上旬	-11.6954
夭鳥	-11.6954
誦經	-11.6954
宜春苑	-11.6955
蟬聲	-11.6955
庾信詩	-11.6955
十八候	-11.6955
左衛	-11.6955
都督府	-11.6955
靈壇	-11.6955
味聼	-11.6955
在正月	-11.6955
苐一	-11.6955
便殿	-11.6956
課試	-11.6956
櫚	-11.6956
昏旦	-11.6956
七十六嵗	-11.6956
尤美	-11.6956
百餘年	-11.6956
藍田	-11.6956
祈請	-11.6956
芻狗	-11.6956
飬老	-11.6957
俚俗	-11.6957
聼朔	-11.6957
下逮	-11.6957
辛夷	-11.6958
柴門	-11.6958
老嫗	-11.6958
削去	-11.6958
攝生	-11.6958
佛像	-11.6958
習舞	-11.6958
珍寳	-11.6958
市井	-11.6958
臘藥	-11.6958
時潮初	-11.6959
原周益公日記	-11.6959
旗亭	-11.6959
早晏	-11.6959
疣	-11.6959
母病	-11.6959
瑒花	-11.6959
建炎	-11.696
雉雊雞乳	-11.696
上疏	-11.696
溪蠻叢笑	-11.696
嘉蓮	-11.6961
曝衣	-11.6961
算學	-11.6961
朝暮	-11.6961
梁武	-11.6962
孟嘉	-11.6962
大晟樂	-11.6962
功曹	-11.6962
圖經云	-11.6962
増白虎通土	-11.6962
謂建	-11.6963
新芽	-11.6963
増後漢書百官志	-11.6963
西岳	-11.6963
旌門	-11.6965
三峽	-11.6965
栁條	-11.6965
李白詩云	-11.6965
碗	-11.6965
齊人謂之	-11.6965
奉賀	-11.6965
求福	-11.6965
要看	-11.6965
宿衛	-11.6965
御輦	-11.6965
成帝紀	-11.6965
攤令	-11.6965
斗牽牛	-11.6965
圖籍	-11.6965
石菖蒲	-11.6965
冰井	-11.6966
脾主	-11.6966
年八十	-11.6966
承恩	-11.6966
祀南郊	-11.6966
他郡	-11.6966
布帛	-11.6966
拜掃	-11.6966
柔桑	-11.6966
萬物莫不	-11.6966
鄭氏	-11.6966
鎮惡	-11.6966
韓退之	-11.6966
三月上已	-11.6967
儀式	-11.6967
就席	-11.6967
兵仗	-11.6968
貨物	-11.6968
雲低	-11.6968
舞之以	-11.6969
殿柱	-11.6969
原東京夢華錄七夕以	-11.6969
迎富	-11.6969
飬花天	-11.697
諸儒	-11.697
私家	-11.697
大如李	-11.697
太平總	-11.697
挾纊	-11.697
六月十三日	-11.697
帝親書	-11.6972
利市	-11.6972
長㓜	-11.6972
増會稽志	-11.6972
方塘	-11.6972
東牆	-11.6972
停放	-11.6972
種藍	-11.6972
三月二十七日	-11.6973
埒	-11.6973
粔籹	-11.6973
致齋	-11.6973
疾病	-11.6973
表貢	-11.6973
講説	-11.6974
京都	-11.6974
無怠	-11.6974
漸覺	-11.6974
麥苖	-11.6974
中孚	-11.6975
中尚署令	-11.6975
白居易早	-11.6976
日行一度	-11.6976
皇祖	-11.6976
世婦	-11.6976
增白虎通	-11.6976
訪問	-11.6976
手掌	-11.6977
翔集	-11.6977
衣狐	-11.6977
驚異	-11.6977
吳興	-11.6977
因以名	-11.6977
河邊	-11.6977
職司	-11.6977
酌酒	-11.6977
四爪	-11.6977
洪武	-11.6978
南岳	-11.6979
茂美	-11.6979
勞農	-11.6979
張翰	-11.6979
蒸餅	-11.6979
皮扇	-11.698
權量	-11.698
密封	-11.6981
賜錢	-11.6981
亘天	-11.6981
十一月二十九日	-11.6981
池亭	-11.6981
禾麥	-11.6981
講求	-11.6981
𤓰果	-11.6981
谷口	-11.6981
目連	-11.6982
墜地	-11.6982
二十分	-11.6982
致養	-11.6982
雞冠	-11.6983
揷栁	-11.6983
月上寅日	-11.6984
加十五日	-11.6984
孟氏	-11.6984
其文曰	-11.6984
方隅	-11.6984
昴畢	-11.6985
辟兵	-11.6985
浮圖	-11.6986
玉階	-11.6986
日出于	-11.6986
漏澤	-11.6986
穆與	-11.6986
者最佳	-11.6987
採艾	-11.6987
歩厯	-11.6987
車載	-11.6988
閏四月	-11.6988
采茶	-11.6988
維新	-11.6988
分日之	-11.6989
中的	-11.699
南荒	-11.699
往亡	-11.699
老父	-11.699
金壺	-11.699
畫圖	-11.6991
寺卿	-11.6991
桂枝	-11.6991
東坡在	-11.6991
鈞天	-11.6991
原禮昏	-11.6991
春水生	-11.6991
髙適	-11.6991
至未時	-11.6992
大閱	-11.6992
九族	-11.6994
工師	-11.6994
扵其上	-11.6994
天柱	-11.6994
羣聚	-11.6994
豈知	-11.6994
拜表	-11.6994
能否	-11.6994
草芽	-11.6994
松竹	-11.6994
結子如	-11.6995
之君以	-11.6995
勸酒	-11.6995
五月丙午	-11.6995
弦望	-11.6996
酒糟	-11.6996
武功	-11.6996
原本草	-11.6997
江陵	-11.6998
匠人	-11.6998
彌望	-11.6999
秋豪	-11.6999
稱慶	-11.7001
侍老	-11.7001
賔禮	-11.7001
寄語	-11.7001
復得子	-11.7001
小童子	-11.7001
待旦	-11.7001
忙月	-11.7001
經籍	-11.7001
承露	-11.7001
十餘里	-11.7002
糞土	-11.7002
命宰臣	-11.7002
西偏	-11.7002
雄黄	-11.7002
魯國	-11.7002
李嶠詩	-11.7004
編修	-11.7004
騎射	-11.7004
左氏	-11.7005
水三斗	-11.7005
漢書食貨志	-11.7005
一百五日	-11.7006
籍田	-11.7006
朱鳥	-11.7006
蘭亭	-11.7006
雲霞	-11.7006
早春詩	-11.7006
聖瑞	-11.7006
方岳	-11.7007
汲水	-11.7007
道塲	-11.7008
岐王	-11.7008
宫漏	-11.7008
待我	-11.7008
監司	-11.7008
陽氣極	-11.7008
春蕪	-11.7008
寒蟬	-11.7008
拂菻國	-11.7008
都試	-11.7009
至七月十五日	-11.7009
苽	-11.701
司天言	-11.701
紫莖	-11.701
貢舉人	-11.701
不結子	-11.701
五月二十五日	-11.7011
尤盛	-11.7011
鶴来	-11.7011
白羊	-11.7011
女兒	-11.7011
決事	-11.7012
隻日	-11.7012
繁星	-11.7012
辛氏	-11.7013
増玉海至道元年	-11.7013
不能自	-11.7013
親耕	-11.7013
雜録	-11.7013
由來	-11.7013
乾棗	-11.7013
甚厚	-11.7015
栽種	-11.7015
侍坐	-11.7015
禱雨	-11.7015
之曰汝	-11.7015
日昳	-11.7016
大有年	-11.7016
坑中	-11.7016
薄暮	-11.7016
増玉海祥符六年	-11.7017
待制	-11.7017
必湏	-11.7017
雲峯	-11.7017
口號	-11.7017
通籍	-11.7017
千秋	-11.7018
形體	-11.7018
始萌	-11.7018
採根	-11.7019
因其	-11.7019
女郎	-11.7019
鴉子	-11.7019
太陰	-11.7019
安息	-11.7019
順時氣	-11.702
種蓮	-11.7021
十洲	-11.7022
手足	-11.7022
范成大詩	-11.7022
周圍	-11.7023
成穗	-11.7023
如葡萄	-11.7023
人参	-11.7023
旦夕	-11.7023
職田	-11.7023
五色雲見	-11.7024
政曰	-11.7025
玉京	-11.7026
影燈	-11.7026
有數千	-11.7026
繞樹	-11.7026
萬民之	-11.7026
影動	-11.7026
九月采實	-11.7026
六壬	-11.7027
緑色	-11.7027
漆器	-11.7027
庶民	-11.7027
由来	-11.7027
渾天	-11.7028
杜若	-11.7029
初夏詩	-11.7029
穴外	-11.7029
翠華	-11.7029
錢榖	-11.7029
女工	-11.703
羅列	-11.703
頭上有	-11.703
千里内	-11.703
邦人	-11.7031
神龜	-11.7031
桃枝	-11.7031
銅龍	-11.7031
戴氣	-11.7032
三十里	-11.7032
巳午	-11.7032
炎氣	-11.7033
作坑	-11.7033
平仲	-11.7034
舊説	-11.7034
紅燈	-11.7034
神爵	-11.7034
黄精	-11.7035
信宿	-11.7035
二曰月	-11.7036
元枵	-11.7036
景短	-11.7036
於洛	-11.7037
西苑	-11.7037
喜晴	-11.7037
綵雲	-11.7037
八月八日	-11.7037
漏于	-11.7037
移竹	-11.7037
原禮天子	-11.7037
於四季	-11.7038
虹見	-11.7038
白打	-11.7038
交易	-11.7039
殿最	-11.7039
陰乾	-11.7039
訖即	-11.704
須女	-11.704
晴眀	-11.704
丹青	-11.704
燕集	-11.7041
世宗	-11.7041
賜宰臣	-11.7041
長竿	-11.7041
光潤	-11.7041
踰月	-11.7041
戲馬	-11.7041
六十刻夜	-11.7042
羣鳥	-11.7042
不知何	-11.7042
宴賞	-11.7042
當軒	-11.7042
形勝	-11.7042
不能進	-11.7042
稱善	-11.7042
園林	-11.7043
妃子	-11.7044
得其正	-11.7044
尤宜	-11.7044
龍蛇	-11.7044
處處有	-11.7046
舉手	-11.7046
八年五月	-11.7046
黄鐘	-11.7047
一二尺	-11.7047
作巢	-11.7047
凡五十	-11.7047
三月三日取	-11.7047
神祗	-11.7048
㑹要	-11.7048
液雨	-11.7048
庾公	-11.7048
最重	-11.7048
宣散	-11.7048
張載	-11.7048
染草	-11.7048
田器	-11.7048
霧占	-11.7048
長丈	-11.7049
祛疑説	-11.7049
棗熟	-11.7049
鮮明	-11.7049
増管子秋	-11.7049
而易	-11.705
都邑	-11.705
三十一年	-11.7051
文殊	-11.7051
五音	-11.7051
華旗	-11.7051
一員	-11.7051
一匝	-11.7052
左右各	-11.7052
原禮乗	-11.7052
開閉	-11.7052
滿路	-11.7053
感應	-11.7054
再㑹	-11.7054
木𤓰	-11.7054
西流	-11.7054
廟堂	-11.7055
莫能	-11.7055
之屬也	-11.7055
安仁	-11.7055
寢殿	-11.7055
中正	-11.7056
詔州縣	-11.7056
嚮日	-11.7056
蠶麥	-11.7056
入籠	-11.7056
列聖	-11.7056
大雨雪	-11.7056
嘉雪	-11.7056
一畨	-11.7057
髙齋	-11.7058
令式	-11.7058
引河	-11.7058
燥金	-11.7058
㑹計	-11.7058
薦宗廟	-11.7059
再閏	-11.7059
所産	-11.7059
賜尺	-11.7059
下田	-11.7059
大祭祀	-11.706
甲兵	-11.706
萬古	-11.7062
一顆	-11.7062
鳥雀	-11.7063
山薑	-11.7063
而民	-11.7064
黄龍見	-11.7064
至七八月	-11.7064
宴饗	-11.7064
九月末	-11.7065
椒花	-11.7065
兩省	-11.7065
編草	-11.7065
音樂	-11.7066
而返	-11.7066
言隂氣	-11.7067
不敢入	-11.7067
太歲	-11.7069
南昌	-11.7069
嘉應	-11.7069
宫懸	-11.7069
大將軍	-11.707
漢世	-11.707
夏課	-11.707
陳留	-11.707
於北郊	-11.707
依然	-11.7071
金銅	-11.7071
六升	-11.7072
於甕中	-11.7072
常以八月	-11.7072
桐花	-11.7072
造士	-11.7073
増張説	-11.7073
歲歲	-11.7073
永樂	-11.7074
艮為	-11.7074
獨遊	-11.7074
雞頭	-11.7074
參官	-11.7075
閑居	-11.7076
古未有	-11.7076
而哭	-11.7076
其氣曰	-11.7076
本路	-11.7076
将士	-11.7077
龍虎	-11.7077
陳氏	-11.7077
定省	-11.7078
二十卷	-11.7078
此所謂	-11.7078
誰謂	-11.7079
本末	-11.708
少陰	-11.708
漢紀	-11.708
往來	-11.7081
何許	-11.7081
正月一日為	-11.7081
萬物成熟	-11.7082
星河	-11.7082
近郊	-11.7082
修竹	-11.7083
乾體	-11.7083
金蓮花	-11.7083
盤古	-11.7083
深思	-11.7084
食瓜	-11.7084
命工	-11.7084
之則成	-11.7085
明后	-11.7085
漏天	-11.7087
例用	-11.7088
執經	-11.709
豐熟	-11.7091
三斤	-11.7092
三之一	-11.7092
龍圖	-11.7092
之表	-11.7093
集解	-11.7093
分配	-11.7094
續命	-11.7094
采實	-11.7095
經七日	-11.7095
玉漏	-11.7095
對曰此	-11.7095
親祠	-11.7095
水澆	-11.7096
宫城	-11.7096
曰方春	-11.7096
嘉賞	-11.7096
河流	-11.7096
每旦	-11.7097
暇日	-11.7097
夏衣	-11.7098
無量	-11.7098
别歳	-11.7098
萬世	-11.7098
雲五色	-11.7098
居正	-11.7098
見訖	-11.7099
白露下	-11.7099
無敢	-11.7099
切作	-11.7099
一朶	-11.7101
嫩時	-11.7101
中伏	-11.7102
雞林	-11.7102
牀下	-11.7102
康王	-11.7102
千七百	-11.7103
古制	-11.7104
年穀	-11.7104
一匹	-11.7105
作粥	-11.7105
二月九日	-11.7105
或七	-11.7106
微雪	-11.7106
月光明	-11.7106
相和	-11.7108
李氏	-11.7108
西門	-11.7108
當至	-11.7108
太古	-11.7109
十一月一日	-11.7109
増淮南子注	-11.7109
禮義	-11.7109
六十年	-11.7109
遂改	-11.7109
十月八日	-11.711
次仲	-11.711
中秋夜	-11.711
終歳	-11.711
直宿	-11.711
稍長	-11.7112
香藥	-11.7112
朝貢	-11.7112
輅曰	-11.7112
風伯	-11.7112
職方	-11.7113
燕禮	-11.7115
清晨	-11.7115
提月	-11.7115
也陰氣	-11.7115
臨池	-11.7116
碧草	-11.7116
上言曰	-11.7117
女紅	-11.7118
髙一丈	-11.7118
晚来	-11.7119
尚書令	-11.7119
帝即位	-11.7119
毎服	-11.7119
增蘇軾	-11.7121
朔易	-11.7122
慕之	-11.7122
殿試	-11.7122
時訓	-11.7123
春煙	-11.7124
登臨	-11.7124
志元	-11.7126
陽氣施	-11.7126
佛經	-11.7126
以乞巧	-11.7126
尊酒	-11.7126
與諸侯	-11.7127
臨流	-11.7127
章舉	-11.7127
五月十三	-11.7127
出入之	-11.7127
同日	-11.7128
十端	-11.7129
者言萬物	-11.7129
某日	-11.713
根似	-11.713
更深	-11.713
始振	-11.7131
何如而	-11.7131
東北風	-11.7133
易于	-11.7133
劍南	-11.7133
羊酒	-11.7133
宿鳥	-11.7134
萬餘	-11.7135
多歡	-11.7135
尚未	-11.7135
必須	-11.7137
隂升	-11.7137
夜有光	-11.7138
夜去	-11.7139
靈星	-11.714
聖君	-11.714
幽明	-11.714
車服	-11.714
天寳中	-11.7141
薪柴	-11.7141
分野	-11.7141
七政	-11.7141
種菜	-11.7142
四時變	-11.7143
女君	-11.7143
刻六分	-11.7143
芽生	-11.7144
李徳裕	-11.7145
澗中	-11.7145
白英	-11.7145
太學生	-11.7146
皇明	-11.7147
春社	-11.7147
禁民	-11.7149
浸長	-11.7151
收麥	-11.7152
紫雲	-11.7152
四時之氣	-11.7152
瑞木	-11.7152
洞洞	-11.7153
坐客	-11.7153
極熱	-11.7154
赤縣	-11.7155
十干	-11.7156
者次之	-11.7156
萬民	-11.7156
正月甲子	-11.7156
祭日月	-11.7157
挈壺氏	-11.7157
荄	-11.7158
右文	-11.7158
神功	-11.7159
友生	-11.7159
其時曰	-11.7159
廣志	-11.716
厯法	-11.716
露華	-11.716
九卿	-11.7161
元符	-11.7162
冷節	-11.7162
皆湏	-11.7162
日南至	-11.7163
西方金	-11.7164
時有雨	-11.7165
王業	-11.7165
楚王	-11.7166
諸寺	-11.7166
順天時	-11.7167
然燈	-11.7167
在天為	-11.7167
屬隂	-11.7167
秋葵	-11.7167
明燭	-11.7169
宜良	-11.7169
始皇	-11.717
呉王	-11.717
各有時	-11.717
愛此	-11.717
夘為	-11.717
有㫖	-11.7171
四年八月	-11.7171
處士	-11.7172
安縣	-11.7173
青梅	-11.7173
定四時	-11.7173
占夢	-11.7174
未備	-11.7174
不住	-11.7174
彌月	-11.7174
梅葉	-11.7174
鯉魚風	-11.7175
此言	-11.7175
備矣	-11.7176
於中書	-11.7176
父兄	-11.7176
於後苑	-11.7178
夏花	-11.7178
祠廟	-11.7179
所部	-11.718
堂髙	-11.7181
有火	-11.7182
佛光	-11.7183
惡氣	-11.7183
元年十一	-11.7184
授官	-11.7185
名園	-11.7185
擊之	-11.7187
不能成	-11.7187
催生	-11.7187
黒道	-11.7188
不見日	-11.719
帝御	-11.719
泥封之	-11.7191
三伏日	-11.7192
雁不	-11.7193
上壽	-11.7194
龍泉	-11.7194
開金	-11.7194
花三候	-11.7194
萬頃	-11.72
北方水	-11.7202
屬陽	-11.7202
髙堂	-11.7203
東遊	-11.7204
時暑	-11.7204
四出	-11.7204
載陽	-11.7204
韓子	-11.7205
閑夜	-11.7205
終日不	-11.7205
後一日	-11.7206
漢書武帝紀	-11.7206
積隂	-11.7206
功名	-11.7208
戊子日	-11.7208
物化	-11.7209
世傳	-11.7209
履行	-11.7209
鳥聲	-11.7209
神守	-11.7209
所指	-11.7211
☱)	-11.7211
在丑	-11.7211
四時皆	-11.7212
方寸	-11.7213
春愁	-11.7213
民有	-11.7213
凡六	-11.7215
之盖	-11.7216
李晟	-11.7217
深衣	-11.7217
六七日	-11.7217
日出時	-11.7217
作詩云	-11.7219
望祀	-11.7219
之辰季	-11.7219
春筍	-11.722
夏五月	-11.7222
相薄	-11.7223
樂逰	-11.7224
夜半時	-11.7224
宫女	-11.7225
字也	-11.7225
夜卧	-11.7226
於殿中	-11.7227
禮祠	-11.7227
慮有	-11.7227
至春則	-11.7229
即今之	-11.723
可數	-11.723
不掩	-11.723
黄牛	-11.7232
其味甘	-11.7233
沃以	-11.7233
必親	-11.7233
端首	-11.7233
百度	-11.7234
極盛	-11.7234
賣花	-11.7234
改官	-11.7235
五兩	-11.7236
治平	-11.7237
春皇	-11.7238
為限	-11.7238
暴水	-11.7238
中浸	-11.7238
川澤	-11.7239
日脚	-11.7239
聖節	-11.7239
未畢	-11.724
例於	-11.724
錢物	-11.724
官司空	-11.7241
三月此謂	-11.7242
致和	-11.7242
吐蕃	-11.7243
微雲	-11.7244
髙臨	-11.7245
註漢	-11.7246
給事	-11.7246
靈官	-11.7247
東封	-11.7248
相歡	-11.725
承風	-11.7252
黑帝	-11.7252
既定	-11.7254
日平旦	-11.7254
一隻	-11.7255
知舉	-11.7255
一切	-11.7255
思平	-11.7255
夜輙	-11.7255
華林	-11.7256
生春酒	-11.7256
神眀	-11.7256
開口	-11.7258
老臣	-11.7258
神藥	-11.7258
向北	-11.7259
祥風	-11.726
門側	-11.7261
正月半	-11.7262
須令	-11.7265
張宴	-11.7266
陽精	-11.7267
三遍	-11.7267
至一	-11.7267
千葉	-11.7268
左𫝊	-11.7268
落盡	-11.7269
祖禰	-11.7269
流火	-11.7269
今歳	-11.7272
長厯	-11.7272
春岸	-11.7273
増宋史禮志大中祥符元年	-11.7274
雨霽	-11.7276
流光	-11.7276
乗小	-11.7277
假日	-11.7278
送酒	-11.7279
乾徳二年	-11.728
器用	-11.7281
合乎	-11.7281
乃告	-11.7283
臣聞	-11.7283
觀象	-11.7284
就賜	-11.7285
相遇	-11.7286
害人	-11.7288
臘月中	-11.729
文理	-11.729
建立	-11.729
緑野	-11.7291
屬木	-11.7293
増吴	-11.7294
上賦詩	-11.7294
先師	-11.7294
容成	-11.7297
忍寒	-11.7298
得良	-11.7298
安樂	-11.7299
相求	-11.7299
使我	-11.73
松子	-11.73
細小	-11.7301
揚子	-11.7302
北方曰	-11.7303
花栁	-11.7304
十二葉	-11.7305
林間	-11.7306
更衣	-11.7308
文思	-11.7308
建丑	-11.7308
造物	-11.7309
白米	-11.7311
已具	-11.7312
洛下	-11.7312
為宰	-11.7313
事而	-11.7313
寒熱	-11.7313
秋駕	-11.7313
歸餘	-11.7314
景星	-11.7315
市朝	-11.7316
相隨	-11.7319
清景	-11.7319
日入為	-11.7322
雷陽	-11.7323
水漬	-11.7325
即便	-11.7326
六師	-11.7327
分歳	-11.7327
親製	-11.7329
賜天下	-11.7329
間祀	-11.733
求雨	-11.7333
神泉	-11.7333
吳越	-11.7334
大學士	-11.7338
歲起	-11.7339
為十二辰	-11.734
韋公	-11.7341
句曰	-11.7341
銅人	-11.7341
脯也	-11.7343
治民	-11.7343
定國	-11.7344
信風	-11.7344
重定	-11.7345
庶子	-11.7345
不假	-11.7345
春季	-11.7345
等州	-11.7347
嵗暮	-11.735
加賜	-11.7351
出西方	-11.7352
定州	-11.7352
酺三日	-11.7353
未開	-11.7355
來集	-11.7355
天之道	-11.7355
合藥	-11.7356
冬桃	-11.7357
本家	-11.7357
升天	-11.7358
法師	-11.7358
不湏	-11.7359
花下	-11.7359
大川	-11.7359
青城	-11.7361
三層	-11.7362
清晝	-11.7362
流雲	-11.7362
騐之	-11.7364
四郊	-11.7365
秋景	-11.7366
便成	-11.7366
使志	-11.7366
五祀	-11.7369
適至	-11.7369
天妃	-11.737
註辰	-11.7371
難矣	-11.7372
四升	-11.7373
日在足	-11.7375
増玉海紹興十四年	-11.7376
無功	-11.7379
未定	-11.738
每刻	-11.7384
陽甲	-11.7385
奉錢	-11.7385
暮年	-11.7386
相思	-11.7387
王旦	-11.7387
於庭中	-11.7388
張公	-11.7389
大風雨	-11.739
金母	-11.739
無端	-11.7391
車書	-11.7391
原任	-11.7393
只有	-11.7393
風化	-11.7393
早朝	-11.7396
因問	-11.7396
轉方	-11.7397
意氣	-11.7397
年深	-11.74
大小麥	-11.74
陽河	-11.7401
得宦	-11.7401
受事	-11.7402
為僕	-11.7403
最大	-11.7403
銷金	-11.7407
大業	-11.7407
孔子曰	-11.741
作末	-11.7411
不荅	-11.7411
七月七日取	-11.7412
重陽日	-11.7415
大旗	-11.7415
來歸	-11.7417
歸來	-11.7418
春被	-11.7418
殊未	-11.742
道流	-11.7422
四座	-11.7422
幽州	-11.7423
以賜之	-11.7424
載記	-11.7424
大典	-11.7424
王四季	-11.7424
成魄	-11.7425
勤政樓	-11.7431
只在	-11.7431
至十五日	-11.7433
否則	-11.7434
上籍	-11.7436
香聞	-11.7437
半年	-11.7437
動物	-11.7442
十月十三日	-11.7443
内御	-11.7443
為太常	-11.7445
冬藏	-11.7447
牢之	-11.7453
以薪	-11.7453
易長	-11.7454
布於	-11.7455
帝問	-11.7456
勤於	-11.7457
始終	-11.7457
呉郡	-11.7457
原春秋	-11.7458
既起	-11.746
陽鳥	-11.7463
又主	-11.7465
五錢	-11.7465
皆絶	-11.7465
歌雲	-11.7467
北宫	-11.7468
不全	-11.7468
至夜半	-11.7469
秋容	-11.7469
諸星	-11.747
順四時	-11.7471
公羊傳	-11.7473
行慶	-11.7473
無非	-11.7474
皮革	-11.7474
本官	-11.7475
火城	-11.7475
未歸	-11.7478
風來	-11.7479
傷人	-11.7481
可度	-11.7481
東来	-11.7482
萬物咸	-11.7484
放夜	-11.7485
出籠	-11.7485
官田	-11.7486
公服	-11.7488
山之陽	-11.7489
臣民	-11.7491
五兵	-11.7492
聲色	-11.7496
春夏則	-11.7496
用夏正	-11.7496
以厭	-11.7497
取我	-11.7497
照見	-11.7498
廟後	-11.7499
月之時自	-11.75
者是也	-11.7504
青田	-11.7507
出為	-11.7509
不洗	-11.751
飲福	-11.7512
有白雲	-11.7515
幸南	-11.7517
雲集	-11.7518
親見	-11.7518
四卷	-11.7519
地動	-11.7523
嵗三月	-11.7523
増續	-11.7523
欲盡	-11.7524
一紙	-11.7524
冷水	-11.7525
得三	-11.7527
小指	-11.7527
力作	-11.7527
使有司	-11.753
含水	-11.7535
三史	-11.7535
合樂	-11.7536
味酸	-11.7536
順陽	-11.7537
食母	-11.7537
宫前	-11.7538
不爾	-11.7541
行速	-11.7541
他物	-11.7542
各家	-11.7543
請雨	-11.7544
水亭	-11.7545
畢見	-11.7545
已来	-11.7546
上舍	-11.7546
器中	-11.7547
在野	-11.755
同州	-11.755
而愈	-11.7552
俱出	-11.7555
乃登	-11.7555
看天	-11.7556
鏡中	-11.7557
以仲秋	-11.7559
長鳴	-11.7559
七十二日而	-11.7565
御明堂	-11.7566
梅子	-11.7566
十歲	-11.7566
在郡	-11.7569
月正	-11.7569
仰見	-11.7569
金鳳	-11.7573
冬温	-11.7575
其德	-11.7575
主民	-11.7576
光景	-11.7578
日晏	-11.7578
無遺	-11.7579
更始	-11.758
人影	-11.7582
下馬	-11.7582
與語	-11.7584
来嵗	-11.7584
九華	-11.7587
懐春	-11.7587
以為候	-11.7587
戊夜	-11.759
左行	-11.7593
金像	-11.7594
心非	-11.7594
為天門	-11.7596
在目	-11.7597
以生其	-11.7598
作黄衣	-11.76
六龍	-11.7602
其箭	-11.7603
等分	-11.7604
與我	-11.7604
虹見主	-11.7605
台州	-11.7606
春桑	-11.7607
典故	-11.7607
誦之	-11.7609
其羽	-11.7609
三統厯曰立	-11.761
夏麥	-11.761
九年四月	-11.761
詩曉	-11.7612
皆非	-11.7613
三表	-11.7617
七種	-11.7619
初更	-11.762
子良	-11.7621
所求	-11.7621
☷)	-11.7624
黄州	-11.7627
有雲氣	-11.7628
石魚	-11.7629
夏至則	-11.7629
與子	-11.7632
以刀	-11.7634
縣西北	-11.7636
淡紅	-11.7641
如舊	-11.7644
登山	-11.7645
日珥	-11.7648
五十四	-11.7648
助祭	-11.7649
有成	-11.765
以四月八日	-11.7651
三軍	-11.7652
記事	-11.7657
亦未	-11.7658
曉日	-11.7658
龍鳳	-11.7659
増呉	-11.7659
樹間	-11.7661
養生	-11.7661
無意	-11.7662
去心	-11.7662
乃能	-11.7664
熱氣	-11.7665
真如	-11.7665
在十一月	-11.7666
之路	-11.7669
魏孝	-11.7674
斗米	-11.7676
初九	-11.7676
物色	-11.7679
舍中	-11.7682
重門	-11.7682
形容	-11.7683
用以	-11.7683
五際	-11.7683
盛事	-11.7683
火徳	-11.7689
方止	-11.769
以是日	-11.7691
節節	-11.7692
乃熟	-11.7692
至四月	-11.7693
者令	-11.7696
將相	-11.7699
端有	-11.77
為苖	-11.77
越有	-11.7701
第者	-11.7707
以飾	-11.771
燕子	-11.7712
平湖	-11.7712
其應	-11.7715
在堂	-11.7717
清酒	-11.7718
前列	-11.7718
農月	-11.7722
庭前	-11.7723
月暈	-11.7724
公文	-11.7725
郡中	-11.7728
為機	-11.7729
滿庭	-11.773
不任	-11.7732
時採之	-11.7734
年華	-11.7738
布徳	-11.7739
小民	-11.7739
終無	-11.7743
元始	-11.7745
知是	-11.7746
病者	-11.7748
三夕	-11.7753
春晴	-11.7753
服氣	-11.7756
四品	-11.7758
午中	-11.7759
具在	-11.7762
導之	-11.7763
里至	-11.7764
師掌	-11.7765
上詣	-11.7767
乗春	-11.7768
原越絶書	-11.7776
各賜	-11.7776
上谷	-11.7777
坐堂	-11.7778
徳宗詩	-11.7778
曝書	-11.7789
同雲	-11.7789
自落	-11.7791
享先	-11.7794
經𫝊	-11.7799
自鳴	-11.7799
如遇	-11.7803
令乾	-11.7803
十九卷	-11.7805
所奏	-11.7809
寄生	-11.7811
髙尺許	-11.7811
食草	-11.7811
賦得	-11.7815
客來	-11.7815
秋殺	-11.7821
量之	-11.7822
落花	-11.7823
為一時	-11.7823
誰為	-11.7824
三十人	-11.7826
十一月冬至	-11.7828
中軍	-11.7829
之月也	-11.7829
引蔓	-11.7829
之以水	-11.783
春遊	-11.7836
光隂	-11.7836
相命	-11.7837
失之	-11.7838
一代	-11.7838
春枝	-11.7839
即安	-11.784
至晚	-11.7842
春晚	-11.7843
如意	-11.7844
随時	-11.7847
已前	-11.7857
夜不得	-11.7865
賜金	-11.7866
冬李	-11.7867
則雷	-11.7868
孤山	-11.7869
中律	-11.7875
一説	-11.7878
七十五	-11.789
商人	-11.7892
東面	-11.7893
畢出	-11.7893
秋祭	-11.7893
鼓以	-11.7893
異鳥	-11.7894
増南史齊	-11.7897
能令	-11.7899
水水衡記黄河水	-11.79
根大如	-11.7902
亦同	-11.7903
富人	-11.7905
寒門	-11.7906
春曙	-11.7908
召至	-11.7908
三河	-11.791
里人	-11.7911
傳初	-11.7914
其蟲	-11.792
増齊民要術二月	-11.7924
為學士	-11.7931
大㑹	-11.7932
手中	-11.7932
范成大正月	-11.7935
春逰	-11.7938
九九	-11.7942
言語	-11.7944
増玉海皇祐	-11.7945
之害	-11.7949
日漸	-11.7951
清澄	-11.7957
未嘗有	-11.7958
雨過	-11.7959
歸山	-11.7965
樂書	-11.7966
天度	-11.7968
期月	-11.7969
食焉	-11.797
夀考	-11.7971
庚為	-11.7975
之飾	-11.7976
為念	-11.7976
散花	-11.7976
不知其	-11.7979
以足	-11.7986
太皇太后	-11.7987
先開	-11.7993
初立	-11.7993
王建八月十	-11.7994
所至	-11.7999
行縣	-11.8
存焉	-11.8
月建寅	-11.8
容與	-11.8001
冬間	-11.8011
章中	-11.8018
蠶生	-11.8022
以蜜	-11.8024
北地	-11.8027
不凍	-11.8035
為主人	-11.8039
何用	-11.8039
無極	-11.804
服食	-11.804
夕涼	-11.804
氣衝	-11.804
物亦	-11.804
歳事	-11.8045
萬事	-11.8046
凡諸	-11.8053
故能	-11.8053
信之	-11.8055
乃置	-11.8064
焉注	-11.8064
未動	-11.8065
之盛也	-11.8065
為業	-11.8067
空中有	-11.8072
道常	-11.8073
厯有	-11.8073
鍼樓	-11.8075
至秋而	-11.8076
者不過	-11.8078
遇雪	-11.8079
盛水	-11.808
而冬	-11.8084
夏日至	-11.8084
塞北	-11.8093
寺中	-11.8094
地開	-11.8095
花競	-11.8095
及暮	-11.8096
經夏	-11.8096
而不知	-11.8098
臘者	-11.8099
夕則	-11.8102
殿下	-11.8106
異時	-11.8106
都中	-11.8108
聲動	-11.8109
可使	-11.8111
視朝	-11.8111
蒲葉	-11.8115
者竝	-11.812
風光	-11.8122
在坐	-11.8122
冬至則	-11.8123
喜雪	-11.8125
盛行	-11.8125
為昏	-11.8128
天色	-11.8129
日午	-11.8134
三日則	-11.8138
公後	-11.8139
歳時	-11.814
龜以	-11.8141
熱時	-11.8143
迎之	-11.8143
建隆四年	-11.8155
帳殿	-11.8161
髙臺	-11.8163
至老	-11.8164
本出	-11.8166
一世	-11.8168
地寒	-11.817
花頭	-11.8172
畢則	-11.8173
施令	-11.8175
殺雞	-11.8176
雨晴	-11.8177
秋凉	-11.818
令熟	-11.8183
圗之	-11.8187
山家	-11.8189
合諸	-11.819
四合	-11.8192
旱又	-11.8195
皆熟	-11.8199
亦是	-11.8204
二月種	-11.8206
春城	-11.8206
中吕	-11.8214
法云	-11.8215
其中有	-11.8215
後殿	-11.8218
心與	-11.822
動如	-11.822
去惟	-11.8221
教於	-11.8222
屬官	-11.8222
朔望朝	-11.8222
萬春	-11.8225
祠堂	-11.8226
二年五月	-11.8233
生桑	-11.8237
所愛	-11.8238
六月十七日	-11.8241
復得	-11.8241
上喜	-11.8253
服黄	-11.8255
南方有	-11.8256
方今	-11.826
濟陽	-11.8264
所過	-11.8264
種桑	-11.8267
以仲冬	-11.8268
既出	-11.8268
辟寒	-11.8272
晝長	-11.8273
因取	-11.8273
随四時	-11.8277
朝食	-11.8277
按禮	-11.8277
得土	-11.8279
虢	-11.828
時日仙星鳳輦星	-11.8281
士民	-11.8283
常以五	-11.8284
學則	-11.8288
金金	-11.8289
郊外	-11.8292
乃前	-11.8292
自正月	-11.8295
經紀	-11.8296
之言也	-11.8298
花紫	-11.8299
長空	-11.8303
四遊	-11.831
周行	-11.8315
不獨	-11.8317
竹上	-11.8321
五月收	-11.8321
山公	-11.8322
求其	-11.8329
今後	-11.8329
葉稍	-11.833
新月	-11.8333
壬子日	-11.8338
預前	-11.8353
國語	-11.8355
増漢官儀	-11.8355
滿月	-11.836
隂地	-11.8363
五老	-11.8364
自號	-11.8366
取酒	-11.8374
酒肉	-11.8374
然後可	-11.8376
初三	-11.8384
百枚	-11.8393
四角	-11.8394
反其	-11.8395
二十八年	-11.8396
卷詔	-11.8397
至五更	-11.8401
星名	-11.8415
於市	-11.842
正旦大	-11.8422
也日出	-11.8423
近人	-11.8423
以相	-11.8434
雲端	-11.8438
欲用	-11.8439
急則	-11.8445
隂晦	-11.8448
春分日	-11.8449
秋秋	-11.8452
三四月	-11.8465
吞赤	-11.8466
禁火	-11.847
百丈	-11.8474
此心	-11.8479
其品	-11.8488
盛暑之	-11.849
不謝	-11.8493
夏苗	-11.8502
皇心	-11.8505
増曹植	-11.8508
十一月二十八日	-11.8508
大梁	-11.851
鳥鳴	-11.8514
平章事	-11.8515
三月陽氣	-11.8529
奉髙	-11.8533
七丈	-11.8538
花叢	-11.8539
誦詩	-11.8541
正月上辛	-11.8542
有竒	-11.855
入賀	-11.8556
日寅時	-11.8564
増唐本草	-11.8569
者為上	-11.857
者其月	-11.8578
成布	-11.858
獨有	-11.8597
垂拱殿	-11.8598
芝房	-11.8605
龍鳯	-11.8605
聖廟	-11.861
必待	-11.861
六年五	-11.861
而栽	-11.8622
多寒	-11.8623
樂遊	-11.8627
沙地	-11.8628
之備	-11.8629
氷雪	-11.863
積日	-11.8635
深夜	-11.8641
必盡	-11.8647
因謂之	-11.8649
祀后土	-11.8654
不善	-11.8656
水族	-11.8667
八年七月	-11.8669
武宗	-11.867
示羣臣	-11.8673
麻地	-11.8687
五行也	-11.8697
而飬	-11.8699
凡三百	-11.8703
觀御書	-11.8705
青帝	-11.8707
部侍郎	-11.871
久晴	-11.871
臣徐	-11.8712
若今	-11.8715
四月二日	-11.8721
東廵	-11.8722
避社	-11.8726
白沙	-11.8727
陽氣已	-11.8729
十有四	-11.873
氣肅	-11.8731
坤為	-11.8735
田欲	-11.8745
相代	-11.8749
榮茂	-11.8754
年秋八月	-11.8754
列之	-11.8765
露濕	-11.8772
唐人	-11.8772
百騎	-11.8773
四時常	-11.8775
通考正月	-11.8775
考廟	-11.8798
中有小	-11.8802
蔀七十六嵗次	-11.8806
能與	-11.8807
南陸	-11.8809
萬物随陽	-11.8821
送節	-11.8822
進名	-11.8822
福寺	-11.8823
軍中	-11.8824
古人以	-11.8834
至季夏	-11.8841
詔禮官	-11.8843
十餘人	-11.8844
四月二十九日	-11.8849
樹枝	-11.8858
日不殺	-11.8862
相火	-11.8875
開黄花	-11.888
進見	-11.8884
正月五日	-11.8912
神草	-11.8913
無日	-11.8916
初春	-11.892
雨甲子	-11.892
溪山	-11.8932
季夏之月	-11.8933
應見	-11.8936
浮光	-11.8941
原禮是月也命	-11.8941
註按	-11.8941
方士	-11.8952
所以順	-11.8952
五紀	-11.8955
蜀州	-11.8959
雙日	-11.8963
百三十	-11.8964
衣朱衣	-11.8968
精於	-11.8973
皇祐三年	-11.8973
枕之	-11.8989
五月一日	-11.8991
皇太后宫	-11.9
花二候	-11.9
擇其	-11.9002
必當	-11.9003
池魚	-11.9007
益夀	-11.9008
齊武帝	-11.9015
肉味	-11.9019
隨水	-11.9021
鞍馬	-11.9023
右手	-11.9032
箔上	-11.9035
佛堂	-11.9035
皆異	-11.9038
林園	-11.9049
暮食	-11.905
糯米	-11.9068
運於	-11.908
謹以	-11.9089
非吾	-11.9091
山有石	-11.9094
歲時	-11.9094
増魏文帝	-11.9094
歡不	-11.9097
也言陽氣	-11.9106
二十刻	-11.9106
比至	-11.9107
增杜甫詩	-11.9113
増唐書李	-11.9116
北土	-11.9116
生風	-11.9119
五日一朝	-11.9119
似荔枝而	-11.9124
食必	-11.9128
景帝	-11.9138
紫姑神	-11.9139
猶是	-11.9145
為誰	-11.9146
桑葉貴	-11.9156
之吉	-11.9161
和樂	-11.9171
月色青	-11.9174
増南史謝	-11.9179
二年十月	-11.9187
恵連	-11.9193
光彩	-11.9194
兩行	-11.9207
子受制	-11.9222
增皇極經世	-11.9227
雨諺云	-11.9233
而人	-11.9241
增玉海唐	-11.9247
有神光	-11.925
安福	-11.926
綠葉	-11.9261
年季冬	-11.9262
上元前	-11.929
增後漢書明帝紀永平	-11.9299
兩京	-11.9308
正月二十六日	-11.931
開元十三年	-11.9317
商聲	-11.9317
羊毛	-11.9329
天聖	-11.9329
四星	-11.9342
増玉海天禧	-11.9342
太平之	-11.9343
其力	-11.9343
愬	-11.9347
十五里	-11.9355
共為一	-11.9356
毎一	-11.9359
王丞相	-11.9365
怪之	-11.9367
十二月二十一日	-11.9383
増玉海建隆	-11.9388
義𩔖	-11.9389
黒者	-11.9391
築城	-11.9399
諸般	-11.9408
百七十	-11.9431
豁然	-11.9442
増宋書符瑞志	-11.9454
陽用事	-11.946
水滿	-11.9466
正月四日	-11.9479
呂氏春秋	-11.9479
魏郡	-11.9497
郡太守	-11.9499
靈鼓	-11.9501
増玉海雍熙	-11.9508
風清	-11.9516
則資	-11.9518
同姓	-11.9529
原遼史禮志	-11.9533
孔中	-11.9536
各遣	-11.9548
賞賜	-11.9552
敬宗	-11.9573
戚里	-11.9575
之役	-11.9577
沸湯	-11.962
棉花	-11.9628
原感應篇二十	-11.9631
駿	-11.9635
土膏	-11.9638
日子時	-11.9648
定昏	-11.9649
判之	-11.9652
梁天監	-11.9652
雞卵	-11.9656
力田	-11.9657
打春	-11.9658
少牢	-11.9658
居洛	-11.9671
牛皮	-11.9673
唐㑹要	-11.9681
臣皆賦	-11.9681
盈縮	-11.9682
優劣	-11.9682
神后	-11.9683
蟄蟲坏户	-11.9687
有一白	-11.9688
真形	-11.969
大穰	-11.9697
増玉海祥符七年	-11.9706
斗牛	-11.9708
酒杯	-11.9712
觔	-11.9714
栁葉	-11.9716
糵	-11.972
天寳十載	-11.9731
三年一	-11.9732
曾祖	-11.9734
貧人	-11.9737
元年夏四月	-11.9741
如栗	-11.9747
増玉海天聖	-11.9749
二月二十七日	-11.9753
門候	-11.9755
趙普	-11.9757
為感	-11.9767
星經	-11.9768
祀鬼	-11.977
歌詞	-11.9772
州軍	-11.9772
不壊	-11.9778
汶	-11.9789
開花如	-11.9796
綠色	-11.9803
共談	-11.9813
晟	-11.9815
薙	-11.9825
内又	-11.983
無他	-11.9835
十月十五	-11.9843
乾薑	-11.9843
瘡疥	-11.9855
謂夏之	-11.9859
紅藍	-11.9868
脉者	-11.987
鴈北鄉	-11.9876
晨雞	-11.9876
原唐書李	-11.9882
建隆	-11.9891
夏祭	-11.9892
吉祥	-11.9892
芋子	-11.9893
蕃使	-11.9907
朝覿	-11.9912
己夘	-11.9914
閽	-11.9914
南廵	-11.9915
事時	-11.9917
楊柳	-11.9919
起視	-11.9922
禁苑	-11.9922
增舊唐書	-11.9924
㑹昌	-11.9929
得佳	-11.9929
増風土記	-11.9938
有仙人	-11.9949
漬麴	-11.9949
荷花	-11.995
原南部新書	-11.9952
地官司徒	-11.9961
睿	-11.9968
農政全書	-11.9974
寄王	-11.9977
如艾	-11.9978
叩齒	-11.9981
雁來	-11.9984
和丸	-11.9993
月莭晝	-11.9994
二年十二月	-12.0003
每月朔	-12.0005
隨父	-12.0008
一百八十	-12.001
炎暑	-12.0014
増唐詩紀事景龍	-12.0015
田䑕化為鴽	-12.0017
勞酒	-12.003
原通攷	-12.0033
車聲	-12.0034
所撰	-12.0038
萬卷	-12.0039
簟清	-12.0041
雨潤	-12.0043
四月二十七日	-12.0044
楊氏	-12.0045
浮水面	-12.0046
米一石	-12.0047
刑罰	-12.0053
紡績	-12.0058
池中有	-12.0062
民疾	-12.0064
臘月二十四	-12.0065
相佐	-12.0068
離騷	-12.0072
其失次有應見	-12.0073
六年九月	-12.0076
芳林園	-12.008
詩七月曰	-12.0084
數十年	-12.0086
憐其	-12.0087
增玉海淳化	-12.0089
日而畢	-12.009
皎皎	-12.009
元年閏	-12.0097
於水上	-12.0099
斗酒	-12.01
太祖生	-12.01
二月八日為	-12.0102
百官入	-12.0108
食貨志	-12.0111
娯	-12.0112
夜廵	-12.0113
増宋史禮志大中祥符	-12.0114
漳水	-12.0127
百官志	-12.0129
增内經	-12.013
嚴霜	-12.0132
四十刻	-12.0135
金明池	-12.0135
糗	-12.0135
山下有	-12.0137
出氷	-12.0138
増舊唐書百官志	-12.014
親奉	-12.0141
改造	-12.0142
翰林院侍讀	-12.0145
千百	-12.0145
皇祐二年	-12.0147
春生苖	-12.0149
筝	-12.0149
十二次	-12.015
鞠則見	-12.0151
苦竹	-12.0153
㑹慶莭	-12.0155
原唐書食貨志	-12.0156
廣義注	-12.0157
時出初	-12.0157
五年八月	-12.016
増玉海政和	-12.0162
風土記	-12.0164
鏘	-12.0167
牕格	-12.0168
增參同契	-12.017
以糯	-12.017
則小	-12.0174
増玉海元豐	-12.0174
緹縞	-12.0174
蠡海集	-12.0175
廪	-12.0178
五味脯	-12.0179
宋之問	-12.018
七載	-12.0181
肅肅	-12.0181
夕晴麻	-12.0182
増周禮夏官	-12.0183
范甯	-12.0184
頰	-12.0184
鬼宿渡河	-12.0184
秋官司	-12.0184
堯叟	-12.0184
禅	-12.0185
五木耳	-12.0186
櫛	-12.0186
盗啼	-12.0186
名醫别録	-12.0186
曹植	-12.0187
月者間亦有之	-12.0188
厓	-12.0189
甑	-12.0189
妝	-12.019
媛	-12.019
品藥性	-12.019
廱	-12.019
沅	-12.0191
續博物志	-12.0192
律中夹鍾	-12.0192
癡獃	-12.0192
􁇪	-12.0192
抱朴子	-12.0193
右春坊右	-12.0193
宗尊也	-12.0193
懇	-12.0193
命取冰	-12.0193
弓射之	-12.0193
愉	-12.0193
郝	-12.0195
灝	-12.0195
子夜歌	-12.0195
宋史哲宗紀	-12.0195
詹事府少詹	-12.0195
宥	-12.0196
禺	-12.0196
囚徒	-12.0197
米泔	-12.0197
諸伶	-12.0197
造神麴	-12.0197
原便民書	-12.0197
快快	-12.0197
父罪	-12.0197
羞寒花	-12.0197
膠餅	-12.0197
熙寧九年	-12.0197
七年五月	-12.0198
圖經夲草	-12.0198
㓕	-12.0199
阮籍詩	-12.0199
仁義	-12.02
太牢	-12.02
堇	-12.0201
甓	-12.0201
之月法萬物	-12.0201
洪邁	-12.0201
秉燭逰	-12.0201
敷于散	-12.0201
元史祭祀志	-12.0202
紈	-12.0202
紀厯撮要	-12.0202
采芸	-12.0202
洛書	-12.0202
謠	-12.0203
増後漢書章帝紀元和	-12.0203
増金史禮志	-12.0203
㐮	-12.0203
溫庭筠	-12.0203
淘米	-12.0203
增瑯嬛記	-12.0203
輟耕録	-12.0203
堂月令論	-12.0203
刑徳合門	-12.0203
九年二月	-12.0203
娠	-12.0203
謝朓詩	-12.0203
旨	-12.0203
雊	-12.0204
演繁露	-12.0204
竺	-12.0204
宋書符瑞志	-12.0204
太平廣記	-12.0204
史記龜䇿𫝊	-12.0205
而百姓有餘	-12.0205
黍臛	-12.0205
曷	-12.0205
想見	-12.0205
七年八月	-12.0206
狸子肇肆	-12.0206
增齊民要術食經	-12.0207
袋	-12.0207
是何祥也	-12.0207
㕑	-12.0207
羽籥	-12.0207
増夲草	-12.0208
妹	-12.0208
躭	-12.0209
㕍	-12.0209
冰三其凌	-12.0209
榕樹	-12.0209
番直	-12.0209
􁂔	-12.0209
鴻臚	-12.0209
撚	-12.021
陸璣詩疏	-12.021
觀圖	-12.021
岳陽風土記岳州	-12.0211
湘隂縣	-12.0211
㬠	-12.0211
鬆	-12.0211
吳儂	-12.0211
増續夷堅志	-12.0211
粟米飯	-12.0211
次翁	-12.0211
簼	-12.0211
鼉鳴	-12.0211
丹田中	-12.0211
增周禮天官	-12.0211
䍷	-12.0212
殽	-12.0213
葑	-12.0213
愔	-12.0213
懿宗	-12.0213
原談薈正月	-12.0213
平坐鳴	-12.0213
搔	-12.0213
卑㓜	-12.0213
復元氏	-12.0213
富貴坊	-12.0213
通政使司左	-12.0213
馬承直	-12.0213
紏	-12.0213
岐伯	-12.0213
八年六月	-12.0214
摸	-12.0214
香美可食	-12.0215
鶉尾之次	-12.0215
夏后氏	-12.0215
於水際	-12.0215
湫	-12.0215
芰荷	-12.0215
亞獻	-12.0215
原夲草綱目	-12.0215
周禮天官凌人	-12.0215
骼	-12.0215
之属象	-12.0215
劔	-12.0215
庇	-12.0215
昬旦	-12.0215
果餌	-12.0215
看麥娘	-12.0215
秋風亭	-12.0215
豎造	-12.0215
刁	-12.0216
増桂海	-12.0216
鑣	-12.0216
搬	-12.0217
午未申酉	-12.0217
逹磨	-12.0217
鞍轡	-12.0217
原宣室志	-12.0217
韋縚	-12.0217
劉蕡	-12.0217
填河	-12.0217
暌	-12.0217
百子池	-12.0217
𥚑	-12.0217
􁲖	-12.0217
望筒	-12.0217
灰藋	-12.0217
七修𩔖稿	-12.0217
劬	-12.0217
李啇隐	-12.0217
秃師	-12.0217
胡枲	-12.0217
通政使司右	-12.0217
黄道游儀	-12.0217
冡	-12.0217
增宋書符瑞志	-12.0217
春明退朝録	-12.0217
獅	-12.0217
泠	-12.0218
敲氷	-12.0218
括地	-12.0218
繡毬	-12.0218
薩	-12.0218
盫	-12.0218
參知政事	-12.0218
增開寳本草	-12.0218
攅	-12.0218
聿	-12.0218
原易飛候	-12.0218
煤	-12.0218
闔閭	-12.0218
像現	-12.0218
破琴	-12.0218
駙馬	-12.0218
増通鑑貞觀	-12.0218
增雍録	-12.0218
或黄或	-12.0218
遘	-12.0218
五十餘	-12.0219
吏部尚書	-12.0219
綰	-12.0219
太皥	-12.022
原范成大村田樂府序	-12.022
東井輿鬼	-12.022
天遺事	-12.022
晃	-12.022
謗	-12.022
六戊日	-12.022
姑臧	-12.022
枕中記西河女子服枸杞法	-12.022
耬	-12.022
増玉海宣和	-12.022
膠牙餳	-12.022
道家以	-12.022
藹藹	-12.022
原名勝志	-12.022
霙	-12.022
夜燈之始	-12.022
祠先農	-12.022
腰帯	-12.022
藙	-12.022
謾	-12.022
貂裘	-12.022
曹毗	-12.022
百華燈	-12.022
沍	-12.0221
巳午時	-12.0221
礬	-12.0221
蘿蔔	-12.0221
昶	-12.0221
伶	-12.0221
奭	-12.0222
窈	-12.0222
燕子磯	-12.0222
増事文𩔖聚	-12.0222
皆月祭之	-12.0222
百舌鳥	-12.0222
茆	-12.0222
雷乃𤼵聲	-12.0222
蘇頲應制	-12.0222
訝	-12.0222
周禮天官内宰	-12.0222
嶽鎮海瀆	-12.0222
沐浴齋戒	-12.0222
螘	-12.0222
奔騰	-12.0222
晏殊元日詩	-12.0222
漢書刑法志	-12.0222
系	-12.0222
訥	-12.0222
韓愈南山詩	-12.0222
娑羅綿	-12.0222
月一易	-12.0222
齊眡	-12.0222
屛風	-12.0222
庭燎	-12.0223
兗	-12.0223
澑	-12.0223
穜稑之種	-12.0223
四肢	-12.0224
罍	-12.0224
潢	-12.0224
宋史外國𫝊	-12.0224
䜛	-12.0224
犒	-12.0224
淡墨	-12.0224
甘松香	-12.0224
種蘭香	-12.0224
佃	-12.0224
北戸錄	-12.0224
山林川澤	-12.0224
慈烏巢	-12.0224
籮	-12.0224
靈源公	-12.0224
元枵之次	-12.0224
建道塲	-12.0224
桲	-12.0224
禳禬	-12.0224
移徙	-12.0224
餓鬼	-12.0224
朝服而朝	-12.0224
白獸樽	-12.0224
蔈定	-12.0224
鳳毛金	-12.0224
𣙜酤	-12.0224
蕈	-12.0224
續齊諧記	-12.0225
禍	-12.0225
晁補之	-12.0225
李光地	-12.0225
翊	-12.0226
稊	-12.0226
菩提	-12.0226
捫	-12.0226
酤	-12.0226
涕泣	-12.0226
寳馬香車	-12.0226
原朝野僉載	-12.0226
増乾淳歳時記禁中	-12.0226
宋史禮志太平興國九年	-12.0226
宣徳門	-12.0226
精妙	-12.0226
臘前三白	-12.0226
沉水香	-12.0226
三時不害	-12.0226
臉	-12.0226
所立之官	-12.0226
糜粥	-12.0226
紀事詩	-12.0226
銜丹書	-12.0226
㑹稽志	-12.0226
中書宻院	-12.0226
原翰墨大全	-12.0226
増北京歳華記	-12.0226
橡栗	-12.0226
秋白冬黒	-12.0226
裒	-12.0226
㸑鼎	-12.0226
九成宮	-12.0226
原纂要秋曰	-12.0226
放榜	-12.0226
至霸上	-12.0226
讚	-12.0226
踏潮	-12.0226
錫慶院	-12.0226
靴	-12.0226
頻婆	-12.0226
鴳	-12.0226
鷙鳥不	-12.0226
棗栗	-12.0226
荑	-12.0226
玉璽	-12.0227
穡	-12.0227
宋史河渠志	-12.0227
黼	-12.0227
鷹乃祭鳥	-12.0227
飼蠶	-12.0227
孟浩然	-12.0227
罝	-12.0228
自空而下	-12.0228
惋	-12.0228
碧漪	-12.0228
捫蝨新話	-12.0228
撿	-12.0228
瑞聖園觀稼	-12.0228
増集異記	-12.0228
壹	-12.0228
愛惜	-12.0228
永明九年	-12.0228
登科記	-12.0228
以手摩送之	-12.0228
冔	-12.0228
呬	-12.0228
唱第	-12.0228
常氏日錄	-12.0228
江總入攝山棲霞寺詩序	-12.0228
瀛洲	-12.0228
習菴	-12.0228
洛陽伽藍記	-12.0228
顗	-12.0229
叅	-12.0229
赬	-12.0229
増宋史理宗紀	-12.0229
縹	-12.0229
醎	-12.023
扛	-12.023
搜神記	-12.023
鈐	-12.023
堂距邦	-12.023
河南尹	-12.023
長二三尺	-12.023
瀟湘	-12.023
爆仗	-12.023
鼗	-12.023
冕旒	-12.023
原古詩	-12.023
四時占候	-12.023
困乏	-12.023
増杜陽雜編	-12.023
增陳書宣帝紀太建	-12.023
政事堂	-12.023
楝葉	-12.023
著器中	-12.023
鎧	-12.023
鐘鼓樓	-12.023
陳王業	-12.023
陽春曲	-12.023
和令調	-12.023
増五海	-12.023
増史記封禪書髙祖	-12.023
增正蒙	-12.023
增論衡	-12.023
天根見	-12.023
天皇大帝	-12.023
披絮	-12.023
日中測景	-12.023
枸杞湯	-12.023
沌	-12.023
玉樓春詞	-12.023
萸房	-12.023
酒熟詩	-12.023
重明鳥	-12.023
風颯然	-12.023
瑒	-12.023
行一度	-12.023
部左侍	-12.0231
絢	-12.0231
棒	-12.0231
萬五千	-12.0231
禾稼	-12.0231
纉	-12.0231
增梁書	-12.0231
精巧	-12.0231
増楚通志	-12.0232
泉涌	-12.0232
太史局	-12.0232
臾	-12.0232
罇	-12.0232
揚子江	-12.0232
参知政事	-12.0232
楓窻小牘	-12.0232
踵	-12.0232
八月望夜	-12.0232
八能士	-12.0232
原杜陽雜編	-12.0232
圯	-12.0232
煩擾	-12.0232
課殿最	-12.0232
雷𤼵聲	-12.0232
原遵生八箋	-12.0232
右春坊右中	-12.0232
毓	-12.0232
䕸	-12.0232
元史世祖紀	-12.0232
六月二十四日	-12.0232
其令郡國	-12.0232
啾	-12.0232
墐户	-12.0232
増事物紀原唐	-12.0232
増食物本草	-12.0232
增採蘭雜志	-12.0232
太上老君	-12.0232
妃嬪	-12.0232
姪	-12.0232
嵗終則㑹	-12.0232
徐吾	-12.0232
懔	-12.0232
拈	-12.0232
日短至	-12.0232
旬有五日	-12.0232
服衮冕	-12.0232
母李氏	-12.0232
渌	-12.0232
濯濯	-12.0232
用禽獻	-12.0232
紫檀殿	-12.0232
若耶溪	-12.0232
茅茨	-12.0232
藏春塢	-12.0232
蟁蝱	-12.0232
貓	-12.0232
貞元節	-12.0232
進易解	-12.0232
鏘鏘	-12.0232
陰陽争	-12.0232
鳥氏司	-12.0232
冨	-12.0232
濛	-12.0232
嵗時廣記	-12.0233
律中㽔賔	-12.0233
羯	-12.0233
七年七月	-12.0233
物畢成	-12.0233
如釵股	-12.0233
玉燭寳典	-12.0233
璘	-12.0233
剪刀	-12.0234
習水戰	-12.0234
蘇易簡	-12.0234
匕	-12.0234
旭旦	-12.0234
夜漏未盡	-12.0234
簾幃	-12.0234
驛亭	-12.0234
幻	-12.0234
忘倦	-12.0234
田車載	-12.0234
㨿	-12.0234
楊維楨	-12.0234
清泠	-12.0234
湟	-12.0234
縑練	-12.0234
冬曰烝	-12.0234
増北史魏孝文帝紀	-12.0234
増唐書李適𫝊	-12.0234
増宋史天文志	-12.0234
増法苑珠林宋	-12.0234
増說苑	-12.0234
潘尼	-12.0234
等二十四人	-12.0234
緼	-12.0234
纍纍	-12.0234
褊	-12.0234
講洪範	-12.0234
開元七年	-12.0234
封十八姨	-12.0234
楊栁枝	-12.0234
白芷	-12.0234
糞掃	-12.0234
綻	-12.0234
肚	-12.0234
輭	-12.0234
以石壓	-12.0234
増宋書符瑞志晋	-12.0234
増錄異記	-12.0234
孝肅	-12.0234
山稱萬嵗	-12.0234
廿五日	-12.0234
憫農歌	-12.0234
断	-12.0234
於元武門	-12.0234
晼	-12.0234
汚	-12.0234
焞	-12.0234
燔	-12.0234
祭馬歩	-12.0234
結羊腸	-12.0234
趁	-12.0234
靈寳符	-12.0234
頋	-12.0234
髹	-12.0234
餘此陽	-12.0234
讃	-12.0234
藋	-12.0234
跌	-12.0234
干寳曰	-12.0234
餓	-12.0234
會稽志	-12.0235
蜚	-12.0235
砧	-12.0235
塡	-12.0235
翩翩	-12.0235
增魏志	-12.0235
畵	-12.0235
増舊唐書徳宗紀貞元	-12.0236
鎚	-12.0236
夏至前後	-12.0236
祀赤帝	-12.0236
原隋書禮儀志隋制	-12.0236
䙝	-12.0236
昆弟	-12.0236
春耕夏耘秋	-12.0236
匡	-12.0236
天慶觀	-12.0236
如棗栗	-12.0236
嶂	-12.0236
潼	-12.0236
逆旅	-12.0236
食之甚美	-12.0236
依其言	-12.0236
債	-12.0236
原帝京景物略	-12.0236
巴蜀	-12.0236
榆荚	-12.0236
炅	-12.0236
葦茭	-12.0236
鋤成行	-12.0236
原荆楚歲時記	-12.0236
履襪	-12.0236
攢	-12.0236
昌平山水記	-12.0236
進儺	-12.0236
鑠	-12.0236
題四韻	-12.0236
駿馬	-12.0236
髯	-12.0236
鯨魚	-12.0236
鴆	-12.0236
􁄾	-12.0236
以好酒	-12.0236
刻夜損	-12.0236
名山記	-12.0236
増宋㑹要太平興國	-12.0236
學射山	-12.0236
尺五寸至	-12.0236
是也歲欲	-12.0236
潮汐	-12.0236
菌桂	-12.0236
鴟尾	-12.0236
窒	-12.0236
詵	-12.0236
蠡	-12.0236
荆楚歲時記	-12.0237
磁	-12.0237
婺	-12.0237
輿鬼	-12.0237
瓘	-12.0238
挫	-12.0238
雲笈七籖茅盈	-12.0238
湓	-12.0238
搦	-12.0238
凱旋	-12.0238
以名聞	-12.0238
伶倫	-12.0238
歳軸	-12.0238
彘膏塗	-12.0238
沆	-12.0238
増金史太祖紀	-12.0238
救荒	-12.0238
斬伐	-12.0238
楊梅樹	-12.0238
遥相望	-12.0238
郭子儀	-12.0238
都水監	-12.0238
人皆見之	-12.0238
唐書儀衛志	-12.0238
𥘉	-12.0238
不違時	-12.0238
以畢春氣	-12.0238
堋	-12.0238
増西湖志餘淳熙	-12.0238
增周禮秋官	-12.0238
壅塞	-12.0238
崩	-12.0238
烜	-12.0238
珂	-12.0238
療病	-12.0238
禆	-12.0238
羃	-12.0238
見於成紀	-12.0238
諒	-12.0238
長慶中	-12.0238
陵陽子明經	-12.0238
丞相御史	-12.0238
乾㑹節	-12.0238
仆	-12.0238
仲尼	-12.0238
午甌茶	-12.0238
原陶朱公書二月	-12.0238
悲遊子	-12.0238
消夏灣	-12.0238
百工休	-12.0238
腑	-12.0238
薌脯	-12.0238
裙幄	-12.0238
青陽大廟	-12.0238
汐	-12.0238
纁	-12.0238
璿	-12.0238
巷陌	-12.0238
棠梨	-12.0238
劵	-12.0238
嶽瀆	-12.0238
炕	-12.0238
然獨	-12.0238
擅	-12.0239
絜	-12.0239
峨眉山	-12.0239
黍稷	-12.0239
圖冩	-12.024
悼	-12.024
折衝都尉	-12.024
泂	-12.024
枝梗	-12.024
蘧	-12.024
覊	-12.024
修火禁	-12.024
墳典	-12.024
屆	-12.024
怯	-12.024
示許長史	-12.024
稍稍	-12.024
僧伽大師	-12.024
招提	-12.024
范汪祠制	-12.024
亞夫	-12.024
南康記	-12.024
厓上	-12.024
増南史宋孝武帝紀大明元年五月丙寅	-12.024
增南史	-12.024
宋子京	-12.024
餈	-12.024
儡	-12.024
劚	-12.024
唐書百官志少府監	-12.024
址	-12.024
増元史天文志	-12.024
増唐㑹要顯慶	-12.024
增謝承後漢書	-12.024
墠	-12.024
恭儉	-12.024
日月行道	-12.024
春秋考異郵	-12.024
景雲見	-12.024
篁	-12.024
驅逐	-12.024
鰕	-12.024
𤣥武	-12.024
増漢書武帝紀建元元年	-12.024
增後漢書光武紀建武	-12.024
孟婆	-12.024
峨峨	-12.024
張衡西京賦	-12.024
易關市	-12.024
核中仁	-12.024
海鷗	-12.024
碑銘	-12.024
貛	-12.024
青陽右个	-12.024
鶉首之次	-12.024
鶩	-12.024
與父	-12.024
風洞	-12.024
臛	-12.024
之氣乘之也	-12.0241
孝經論語	-12.0241
旒	-12.0241
睢	-12.0241
綈	-12.0241
娵訾	-12.0241
邇	-12.0241
紆	-12.0241
躑	-12.0242
増舊唐書明皇紀天寳	-12.0242
瓊林宴	-12.0242
六齋日	-12.0242
原宋書王	-12.0242
因話	-12.0242
鏁	-12.0242
䕫州	-12.0242
著甕中	-12.0242
降婁之次	-12.0242
笙簧	-12.0242
菟	-12.0242
為飛白	-12.0242
犀象	-12.0242
繚繞	-12.0242
腸胃	-12.0242
休澣	-12.0242
侍衞	-12.0242
増唐會要武徳	-12.0242
恍	-12.0242
斷屠	-12.0242
春色滿皇州	-12.0242
景祐三年	-12.0242
原四時纂要	-12.0242
吉日惟	-12.0242
周必大	-12.0242
増玉海咸平四年	-12.0242
天有四時	-12.0242
時摘取	-12.0242
甚香美	-12.0242
膏糜	-12.0242
訃	-12.0242
請以二月十六	-12.0242
鍪	-12.0242
韉	-12.0242
三日三夜	-12.0242
不可勝計	-12.0242
之用事常以	-12.0242
刑部尚書	-12.0242
原開天遺事長安	-12.0242
堇生	-12.0242
宗族	-12.0242
恢台	-12.0242
晝漏四十五刻	-12.0242
曲江春宴録	-12.0242
漢靈帝	-12.0242
焚牧	-12.0242
王筠詩	-12.0242
生于閏	-12.0242
白紵歌	-12.0242
祓除釁浴	-12.0242
耬耩	-12.0242
膳羞	-12.0242
負薪	-12.0242
顧渚山	-12.0242
鵲巢知風	-12.0242
壚	-12.0242
翰林院編修	-12.0242
翛	-12.0242
嬉遊	-12.0242
嵇	-12.0242
孩	-12.0242
後漢書	-12.0243
倐忽	-12.0243
五月參則見	-12.0243
麑	-12.0243
大慶殿	-12.0243
水泉動	-12.0243
苣	-12.0243
龍圖閣	-12.0243
風騷	-12.0243
醺	-12.0243
吃	-12.0243
各從其事	-12.0243
埀	-12.0243
麴米春	-12.0243
百餘丈	-12.0243
執駒	-12.0244
増雜五行書	-12.0244
建寅為正	-12.0244
弱炊	-12.0244
錦荔枝	-12.0244
原周禮夏官校人	-12.0244
增輿地紀勝	-12.0244
嬰兒	-12.0244
崇文院	-12.0244
陳後主	-12.0244
黄琮	-12.0244
册府元龜	-12.0244
増天中記	-12.0244
庾闡	-12.0244
檢視	-12.0244
流涕	-12.0244
爨	-12.0244
郟	-12.0244
隄防	-12.0244
餘杭	-12.0244
兩兩相對	-12.0244
刻巳未	-12.0244
及尺餘	-12.0244
句曲山	-12.0244
増宋史禮志政和三年	-12.0244
掾吏	-12.0244
暉暉	-12.0244
榨油	-12.0244
永泰元年	-12.0244
洗浴	-12.0244
湧幢小品	-12.0244
用桑木	-12.0244
賞有功	-12.0244
黄道去極	-12.0244
九門磔	-12.0244
乾明節	-12.0244
仗舍	-12.0244
儲光羲	-12.0244
初一日洞元靈寳月十齋二十	-12.0244
取之無所擇也	-12.0244
四方中星	-12.0244
増乾淳歳時記端午	-12.0244
増漢書宣帝紀元康	-12.0244
増選擇厯書	-12.0244
娵隅	-12.0244
婺女	-12.0244
孚卵	-12.0244
建已之月	-12.0244
敖	-12.0244
晦朔弦望	-12.0244
曰令君	-12.0244
曲水詩序	-12.0244
李適詩	-12.0244
析木之次	-12.0244
楊師道	-12.0244
槃瓠	-12.0244
燈毬	-12.0244
爻十日為	-12.0244
盛徳在水	-12.0244
盛徳在火	-12.0244
石流黄	-12.0244
種胡荽	-12.0244
總章大廟	-12.0244
肻	-12.0244
自然汁	-12.0244
萬八千歲	-12.0244
虹蜺	-12.0244
詡	-12.0244
試武藝	-12.0244
鑽	-12.0244
青陽左个	-12.0244
􁊥	-12.0244
欒	-12.0244
梁簡文	-12.0244
寰	-12.0244
律中中呂	-12.0245
寰瀛	-12.0245
分寸之	-12.0245
元嘉二十	-12.0245
修内司	-12.0245
璟	-12.0245
蠛	-12.0245
葛仙	-12.0245
館職	-12.0245
行冬政	-12.0245
生青熟	-12.0245
轆	-12.0245
錫賚	-12.0245
淥	-12.0245
緱氏	-12.0245
陷	-12.0245
齎本月	-12.0245
之别名	-12.0245
増宋史太宗紀淳化	-12.0245
帔	-12.0245
帥其屬而	-12.0245
月蝕	-12.0245
盎	-12.0245
西王母棗	-12.0245
輜	-12.0245
錦繡萬花谷	-12.0245
高尺餘	-12.0245
㤗階	-12.0245
也日之行	-12.0245
乾象歴	-12.0245
乾象法	-12.0245
党項	-12.0245
入名山	-12.0245
初置七夕	-12.0245
卦六四	-12.0245
含光殿	-12.0245
増南史張	-12.0245
増成都古今記	-12.0245
増玉海乾徳四年	-12.0245
增唐會要天寳九載	-12.0245
增隋書天文志	-12.0245
張仁亶	-12.0245
打耗	-12.0245
月廪	-12.0245
朔數曰年	-12.0245
熯	-12.0245
獺肝	-12.0245
盍	-12.0245
箧	-12.0245
讀三朝寳訓	-12.0245
賜諸侯王	-12.0245
車前子	-12.0245
通天犀	-12.0245
逰斜川	-12.0245
侠	-12.0245
夏潮大	-12.0245
妬	-12.0245
水始氷	-12.0245
舉賢良方正	-12.0245
虹蔵不見	-12.0245
博雅	-12.0246
訛	-12.0246
瘟	-12.0246
譙	-12.0246
立夏之日	-12.0246
款	-12.0246
掦	-12.0247
對牀	-12.0247
氲	-12.0247
讙	-12.0247
陜	-12.0247
窩	-12.0247
熙寕	-12.0247
原金門嵗節記洛陽人	-12.0247
氤	-12.0247
天寳四載	-12.0247
舛	-12.0247
四五月間	-12.0247
惻然	-12.0247
佯	-12.0247
増學圃雜疏	-12.0247
増採蘭雜志	-12.0247
朱子家禮集説	-12.0247
垜	-12.0247
如車蓋	-12.0247
生山北	-12.0247
裵	-12.0247
何䖏	-12.0247
呵止	-12.0247
命四監	-12.0247
怪而問之	-12.0247
濱	-12.0247
狥	-12.0247
王欽若	-12.0247
赤帝祝融	-12.0247
雲如羣羊	-12.0247
𤾉	-12.0247
儲峙	-12.0247
升擢	-12.0247
大悅	-12.0247
宴京畿父老	-12.0247
恂	-12.0247
春青夏	-12.0247
獄囚	-12.0247
玉盤盂	-12.0247
磅	-12.0247
祭先蠶	-12.0247
秋秋之為言愁也愁之以時察守	-12.0247
秦椒	-12.0247
種冬藍	-12.0247
粳米	-12.0247
膢臘	-12.0247
蒞	-12.0247
蝦蟹	-12.0247
金史太宗紀天㑹	-12.0247
閟	-12.0247
雲陽宫	-12.0247
馭夫	-12.0247
剥鱓	-12.0247
爕	-12.0247
獲白鹿	-12.0247
獻楛矢石砮	-12.0247
芒種五月莭	-12.0247
蕭晨	-12.0247
蜑	-12.0247
辛壬癸甲	-12.0247
雜咏	-12.0247
馮翊	-12.0247
黄龍負	-12.0247
􁮺	-12.0247
泫	-12.0247
河渠	-12.0248
狭	-12.0248
困敦	-12.0248
青瑣	-12.0248
隄	-12.0248
萸	-12.0249
慶善宫	-12.0249
竄	-12.0249
離合風	-12.0249
増玉海景祐二年	-12.0249
西北隅	-12.0249
通攷	-12.0249
宰相宋琪等	-12.0249
秋登慈恩浮	-12.0249
瀑布	-12.0249
返照	-12.0249
仁宗皇帝	-12.0249
山樝	-12.0249
擂	-12.0249
方三寸	-12.0249
猪脂	-12.0249
豐穰	-12.0249
飛龍在天	-12.0249
五品已上	-12.0249
五而變	-12.0249
祭鮪	-12.0249
命羣臣賦詩	-12.0249
増外臺秘要	-12.0249
端午日賜	-12.0249
三公九卿	-12.0249
孔武仲	-12.0249
宣和書譜	-12.0249
時珍曰	-12.0249
桃核	-12.0249
翥	-12.0249
七夕賦	-12.0249
前月閏	-12.0249
劉勰新論	-12.0249
匪懈	-12.0249
増唐書天文志	-12.0249
增物類相感志	-12.0249
彞	-12.0249
机	-12.0249
為瀉吸為補夫	-12.0249
盱	-12.0249
禮記鄉飲酒曰	-12.0249
秘書郎	-12.0249
聰慧	-12.0249
蕓薹	-12.0249
諸葛武侯	-12.0249
酷烈	-12.0249
鏗然	-12.0249
七夕穿鍼詩	-12.0249
中數曰嵗	-12.0249
兀	-12.0249
則易之以	-12.0249
卷目録	-12.0249
寖	-12.0249
幬	-12.0249
應劭	-12.0249
教治兵	-12.0249
斷獄訟	-12.0249
无妄	-12.0249
有神助	-12.0249
東女國	-12.0249
白堊	-12.0249
知貢舉	-12.0249
竹葉春	-12.0249
舶䑲風	-12.0249
謿	-12.0249
霜露既降	-12.0249
饁獸	-12.0249
騶虞	-12.0249
峙	-12.025
萱	-12.025
廣莫風至	-12.025
一年之内有	-12.025
檢討	-12.025
腹堅	-12.025
御延和殿	-12.025
菉	-12.025
雉震呴	-12.025
煦	-12.0251
元封元年	-12.0251
仲秋之月	-12.0251
米三斗	-12.0251
被髪	-12.0251
騷	-12.0251
性理大全	-12.0251
歟	-12.0251
歸句曲	-12.0251
浴蠶	-12.0251
莫嫌	-12.0251
中華古今註	-12.0251
垂簾	-12.0251
早秋詩	-12.0251
杜子美	-12.0251
孫逖	-12.0251
殷七七	-12.0251
饋遺	-12.0251
樂飲宴	-12.0251
奮迅	-12.0251
刷	-12.0251
堰	-12.0251
祲	-12.0251
原山海經	-12.0251
巢氏	-12.0251
晝漏四十八刻	-12.0251
澹蕩	-12.0251
鑾輿	-12.0251
三百六旬	-12.0251
仲殊	-12.0251
低昻	-12.0251
増神異經	-12.0251
粹	-12.0251
華清宫	-12.0251
霜鹵	-12.0251
驚嘆	-12.0251
不能自存者	-12.0251
冬為信	-12.0251
卑濕	-12.0251
周禮天官宫正	-12.0251
報春鳥	-12.0251
天地之位	-12.0251
天書再降	-12.0251
女兒莭	-12.0251
嵓	-12.0251
左脇	-12.0251
戢	-12.0251
時天貴星太乙星	-12.0251
漚麻	-12.0251
灧澦大如	-12.0251
爪甲	-12.0251
畝收十石	-12.0251
稟	-12.0251
穣	-12.0251
管絃	-12.0251
綖	-12.0251
舊唐書西戎傳	-12.0251
蟳	-12.0251
貶	-12.0251
常平倉	-12.0251
原後漢書章帝紀	-12.0252
陽生於子	-12.0252
原佛書	-12.0252
莫測	-12.0253
草木萌動	-12.0253
祫祭	-12.0253
増唐會要貞觀	-12.0253
應詔詩	-12.0253
倭人	-12.0253
就枕	-12.0253
僮僕	-12.0253
薰陸香	-12.0253
檜柏	-12.0253
太史占	-12.0253
宋之問詩	-12.0253
齊神武	-12.0253
乾者謂之	-12.0253
出蜀中	-12.0253
増太平廣記謝自然	-12.0253
捍	-12.0253
涂	-12.0253
襯	-12.0253
龍見而雩	-12.0253
増玉海嘉祐三年	-12.0253
睫	-12.0253
萍浮	-12.0253
黄楊厄	-12.0253
之所司者萬二千里其令曰	-12.0253
咸秩	-12.0253
増玉海至和元年	-12.0253
增性理大全	-12.0253
增本草衍義	-12.0253
大皥句芒	-12.0253
實沈之次	-12.0253
峻急	-12.0253
恩及於	-12.0253
拾遺記背明國	-12.0253
禍福	-12.0253
秦昭王	-12.0253
給紙筆	-12.0253
翡	-12.0253
莖梗	-12.0253
賜御製詩	-12.0253
伐鼓	-12.0253
光禄大夫	-12.0253
其數六其味鹹其臭朽其祀行祭先腎	-12.0253
出凓下霜	-12.0253
哺	-12.0253
啗	-12.0253
噀	-12.0253
嚶嚶	-12.0253
四月純陽用事	-12.0253
大火之次	-12.0253
天地交泰	-12.0253
天貺莭	-12.0253
彗星	-12.0253
敦牂	-12.0253
月正元日	-12.0253
梁書諸夷傳	-12.0253
棕	-12.0253
榮辱	-12.0253
歡無極	-12.0253
毣	-12.0253
水徳之始	-12.0253
洞户	-12.0253
燕都逰覽志	-12.0253
王負戴於	-12.0253
窈窕	-12.0253
細葛	-12.0253
臨漳	-12.0253
菖葉	-12.0253
菽麥	-12.0253
葱蒜	-12.0253
行御天子出令命左右	-12.0253
豕首	-12.0253
貧富	-12.0253
轉運司	-12.0253
隂在泉	-12.0253
風土記蜀之風俗	-12.0253
餒	-12.0253
蜀葵	-12.0253
旰	-12.0253
觱	-12.0254
痘	-12.0254
▁朱子曰	-12.0254
帟	-12.0254
惻	-12.0254
赤奮若	-12.0254
訪求	-12.0254
隆慶	-12.0254
檜	-12.0254
是乾在	-12.0255
子午夘酉	-12.0255
紫宸殿	-12.0255
保生要錄	-12.0255
盧諶祭	-12.0255
須彌山	-12.0255
莫曉其	-12.0255
蔓荆	-12.0255
白紵	-12.0255
葆	-12.0255
髭	-12.0255
假寐	-12.0255
増玉海天聖八年	-12.0255
增岳陽風土記岳州	-12.0255
嶷	-12.0255
後漢書章帝紀元和二年二月	-12.0255
果如其言	-12.0255
褢	-12.0255
靈憲	-12.0255
飭躬	-12.0255
原禮是月也天子乃	-12.0255
穟	-12.0255
腰帶	-12.0255
䧺黄	-12.0255
劉孝威	-12.0255
命漁師	-12.0255
増唐㑹要貞元	-12.0255
姻	-12.0255
朐	-12.0255
煎茶	-12.0255
金桃銀桃	-12.0255
長三四寸	-12.0255
七月鳴鵙	-12.0255
以火燒之	-12.0255
侯禳	-12.0255
元宵前後	-12.0255
兢	-12.0255
刀劍	-12.0255
別	-12.0255
咎徵	-12.0255
増玉海淳化元年	-12.0255
増齊書	-12.0255
天氣下降地氣	-12.0255
太姥山	-12.0255
子干壬子	-12.0255
子干戊子	-12.0255
官都尉	-12.0255
旱芹	-12.0255
易之地家	-12.0255
普賢	-12.0255
樂遊苑	-12.0255
正月為端	-12.0255
歳以為常	-12.0255
水紀官	-12.0255
沓潮	-12.0255
無餘分是謂	-12.0255
獮田	-12.0255
獻民數扵王	-12.0255
瑜	-12.0255
聖祖降	-12.0255
舊年燈	-12.0255
蜼	-12.0255
行夏令則國	-12.0255
西都賦	-12.0255
解鞍	-12.0255
賣春困	-12.0255
軋	-12.0255
閻立	-12.0255
雲紀官	-12.0255
黄黒豆	-12.0255
千二百	-12.0255
凊	-12.0256
四年春正月	-12.0256
原通鑑	-12.0256
忒	-12.0256
木有文	-12.0256
天寳二年	-12.0257
峨	-12.0257
冉	-12.0257
鴦	-12.0257
㸃綴	-12.0257
置常平倉	-12.0257
七級	-12.0257
舉黄旗	-12.0257
入澤梁	-12.0257
仄	-12.0257
百糓	-12.0257
貧疾	-12.0257
篙	-12.0257
韋莊詩	-12.0257
駐蹕	-12.0257
二百四十	-12.0257
原秦中嵗時記	-12.0257
原説苑	-12.0257
原齊東野語	-12.0257
塵埃	-12.0257
増張籍詩	-12.0257
増膳夫録汴中	-12.0257
湖志餘	-12.0257
蕃廡	-12.0257
鉅野	-12.0257
隂在下	-12.0257
八佾舞	-12.0257
增唐六典凡	-12.0257
懾	-12.0257
散騎常侍	-12.0257
林甫	-12.0257
欬	-12.0257
秘要	-12.0257
綌	-12.0257
補小月	-12.0257
賀表曰	-12.0257
鱣	-12.0257
之精其色	-12.0257
二年春正月	-12.0257
俯視	-12.0257
六百石	-12.0257
周宣王	-12.0257
單閼	-12.0257
増魏書禮志	-12.0257
增齊書	-12.0257
惟瑛	-12.0257
日雨人食	-12.0257
東觀漢記	-12.0257
沾衣	-12.0257
獻繭於	-12.0257
畚	-12.0257
臨安府	-12.0257
荔枝奴	-12.0257
靧面	-12.0257
髙陽氏	-12.0257
鶉火之次	-12.0257
􁁬	-12.0257
䄠	-12.0257
于耜	-12.0257
公羊春王正月	-12.0257
勞農勸民	-12.0257
執干戚	-12.0257
官少内	-12.0257
帝女桑	-12.0257
必釋菜	-12.0257
戊巳校尉	-12.0257
斸	-12.0257
漢人南人	-12.0257
烏膩	-12.0257
物又其外方五百里謂	-12.0257
礫	-12.0257
祀雨師	-12.0257
神光照室	-12.0257
立夏後申日	-12.0257
竹迷日	-12.0257
經絡	-12.0257
耦耕	-12.0257
范文正公	-12.0257
葉如韭	-12.0257
鶯啼	-12.0257
瘠	-12.0257
濬	-12.0258
肄習	-12.0258
箬	-12.0258
牢具	-12.0258
飡	-12.0258
群	-12.0259
倉開日宜	-12.0259
舉白旗	-12.0259
娃	-12.0259
聞見後錄	-12.0259
淅米	-12.0259
刑獄	-12.0259
増續文獻通考宋	-12.0259
砍	-12.0259
奉㫖	-12.0259
超然	-12.0259
休咎	-12.0259
茨菰	-12.0259
事母至孝	-12.0259
凌冬不凋	-12.0259
宰輔	-12.0259
笻	-12.0259
街衢	-12.0259
鮫綃	-12.0259
問曰聞	-12.0259
日在北陸	-12.0259
蕚	-12.0259
障塞	-12.0259
䜴	-12.0259
中和之氣	-12.0259
堯舜	-12.0259
大如棗	-12.0259
嫩苗	-12.0259
廣異記	-12.0259
建辰之月	-12.0259
成公綏	-12.0259
扁豆	-12.0259
擊鼔	-12.0259
欹	-12.0259
溷	-12.0259
繭絲	-12.0259
設厨	-12.0259
貝母	-12.0259
金虀玉膾	-12.0259
隕霜	-12.0259
霓裳羽衣曲	-12.0259
五穀不成	-12.0259
以十一月為正	-12.0259
傅亮	-12.0259
増乾淳歳時記除夜	-12.0259
増唐詩紀事景龍四年正月	-12.0259
増橘錄	-12.0259
大撓作甲子	-12.0259
姊	-12.0259
婆利國	-12.0259
懐貞	-12.0259
招弭	-12.0259
春可樂兮樂	-12.0259
春風扇㣲和	-12.0259
昭君墓	-12.0259
東京夢華錄八月秋社	-12.0259
煼	-12.0259
燃藜	-12.0259
種𤓰瓠	-12.0259
蒹	-12.0259
貧兒	-12.0259
嬴	-12.0259
冬舂	-12.0259
都人士女	-12.0259
苦菜秀	-12.026
承㫖	-12.026
等第	-12.026
暵	-12.026
鎭	-12.0261
嚏	-12.0261
増魏志	-12.0261
夜合花	-12.0261
兼用之	-12.0261
失所在	-12.0261
波濤洶湧	-12.0261
違失	-12.0261
京房易候	-12.0261
彷	-12.0261
纎纎	-12.0261
咫尺	-12.0261
天寳六載	-12.0261
律歷志	-12.0261
紅縷	-12.0261
調適	-12.0261
不䏻	-12.0261
十六國春秋	-12.0261
增廣志	-12.0261
帯露	-12.0261
木也其牲以	-12.0261
玉妃	-12.0261
琴操	-12.0261
紏其	-12.0261
縂	-12.0261
裕陵	-12.0261
陡寒	-12.0261
鷹隼撃	-12.0261
仲吕	-12.0261
劇談録	-12.0261
原古今注	-12.0261
原集異記明皇	-12.0261
拍拍	-12.0261
枌榆社	-12.0261
殳	-12.0261
海寕縣志	-12.0261
漠北	-12.0261
澈	-12.0261
無不悉	-12.0261
物𩔖相感志	-12.0261
詔送史館	-12.0261
銅壺	-12.0261
不應則	-12.0261
互市	-12.0261
原爾雅春為	-12.0261
増玉海咸平五年	-12.0261
増説苑	-12.0261
増魏書釋老志	-12.0261
太昊	-12.0261
尚書郎	-12.0261
方之弧以	-12.0261
施㤙澤	-12.0261
月上旬㧞毛入籠	-12.0261
柱國	-12.0261
柴都	-12.0261
洵	-12.0261
無虚士	-12.0261
瑱	-12.0261
皇覽逸禮	-12.0261
破陣樂	-12.0261
縣西三十里	-12.0261
者有罰	-12.0261
芍藥榮	-12.0261
萬嵗池	-12.0261
萬物畢成	-12.0261
衘	-12.0261
醇酎	-12.0261
韭蓱韲	-12.0261
餽歳	-12.0261
藍尾	-12.0261
靚	-12.0261
季春之月	-12.0262
七月流火	-12.0262
袋盛	-12.0262
啟閉	-12.0262
親戚	-12.0262
齊東野語	-12.0262
櫻笋	-12.0262
乘輿	-12.0263
増元稹詩	-12.0263
闡	-12.0263
皆得作	-12.0263
柳宗元	-12.0263
酉為秋	-12.0263
凟	-12.0263
卧早起	-12.0263
太倉	-12.0263
為立祠	-12.0263
長丈餘	-12.0263
増儀禮	-12.0263
夏中開	-12.0263
致仕官	-12.0263
四仲之	-12.0263
揲	-12.0263
肉切	-12.0263
遨逰	-12.0263
騰虚	-12.0263
勿令泄氣	-12.0263
唐書高宗紀	-12.0263
巨富	-12.0263
得玉璽	-12.0263
朮	-12.0263
簽	-12.0263
雲笈七	-12.0263
黄門郎	-12.0263
佩帯	-12.0263
孝標	-12.0263
寅申己亥	-12.0263
汜	-12.0263
漕運	-12.0263
物於時為	-12.0263
臨海異物志	-12.0263
貧窮	-12.0263
㰂酒	-12.0263
之所昨也	-12.0263
之時萬物始	-12.0263
以三月九日	-12.0263
公旬用	-12.0263
刻鏤	-12.0263
原韓非子	-12.0263
增世説	-12.0263
增大戴禮方	-12.0263
增漢官儀	-12.0263
天地相遇	-12.0263
太陽過宫	-12.0263
婆羅門	-12.0263
尊皆有罍諸臣	-12.0263
康伯	-12.0263
御耒耜	-12.0263
扐	-12.0263
旋味筍	-12.0263
明堂左个	-12.0263
曈曈	-12.0263
歸餘於終	-12.0263
淫巧	-12.0263
激射	-12.0263
種小豆	-12.0263
種竹詩云	-12.0263
章得象帖子	-12.0263
范成大呉郡志	-12.0263
規矩	-12.0263
赤壁賦	-12.0263
迎春髻	-12.0263
閼逄	-12.0263
黄鍾之宮	-12.0263
𫝊燈錄	-12.0263
増易通卦騐	-12.0264
鄭𤣥	-12.0264
剉	-12.0264
倮	-12.0264
搗爛	-12.0264
而得於五者也	-12.0264
增唐六典	-12.0264
獄刑	-12.0264
逡廵	-12.0264
犧	-12.0264
武夷	-12.0264
酒三行	-12.0265
淑景	-12.0265
廣寒殿	-12.0265
左右丞	-12.0265
援筆	-12.0265
率公卿	-12.0265
抃	-12.0265
至朔同日	-12.0265
書終篇	-12.0265
㸃檢	-12.0265
絹袋盛	-12.0265
隣里	-12.0265
増晋書律歴志	-12.0265
東西南北	-12.0265
聨句	-12.0265
之辭也	-12.0265
原禮乃命有司	-12.0265
索綯	-12.0265
經月不	-12.0265
鈿車	-12.0265
鏃	-12.0265
咸亨	-12.0265
増桂海花木志	-12.0265
大中祥符四年	-12.0265
曹溪寺	-12.0265
玘	-12.0265
癰	-12.0265
輪囷	-12.0265
霸陵	-12.0265
駑	-12.0265
在宥	-12.0265
刻木為	-12.0265
原名醫别録	-12.0265
原鶡冠子斗柄	-12.0265
命野虞	-12.0265
嗛	-12.0265
塍	-12.0265
増隋書禮儀志後齊	-12.0265
奉聖亭侯	-12.0265
孟浩然詩	-12.0265
孶	-12.0265
得旨	-12.0265
摩陂	-12.0265
東籬	-12.0265
湊	-12.0265
茶芽	-12.0265
菊華酒	-12.0265
藺	-12.0265
辟蠧	-12.0265
連亘	-12.0265
勞饗	-12.0265
反支日	-12.0265
増圖經夲草	-12.0265
奐	-12.0265
懐孕	-12.0265
洞陽宫	-12.0265
社翁雨	-12.0265
給春衣	-12.0265
羅漢絛	-12.0265
騎火茶	-12.0265
黑猪渡河	-12.0265
靈威仰	-12.0265
増風俗通	-12.0265
横汾	-12.0265
輻	-12.0265
轍	-12.0265
孟夏之月	-12.0265
陽來復	-12.0266
凑	-12.0266
採隂乾	-12.0266
祁祁	-12.0266
契丹	-12.0266
纍	-12.0267
況	-12.0267
楊綰	-12.0267
岑参詩	-12.0267
周禮地官鄉師	-12.0267
嗽	-12.0267
増武林舊事	-12.0267
虬	-12.0267
鞾	-12.0267
馨香	-12.0267
服餌	-12.0267
墻壁	-12.0267
寄旺	-12.0267
智慧	-12.0267
殄	-12.0267
瘥	-12.0267
噏	-12.0267
廣袤	-12.0267
竒之因	-12.0267
舍利放光	-12.0267
菰菜	-12.0267
驥	-12.0267
下邳	-12.0267
丙壬	-12.0267
二百餘里	-12.0267
原搜神記	-12.0267
原漢書郊祀志	-12.0267
原董仲舒雨雹對	-12.0267
四月辛亥	-12.0267
增山海經	-12.0267
增玊海	-12.0267
墾田	-12.0267
學之士	-12.0267
摯	-12.0267
洞庭山	-12.0267
秋分在社	-12.0267
金木水火土	-12.0267
頂上有	-12.0267
頒冰	-12.0267
㑹男女	-12.0267
叅軍	-12.0267
堂贈	-12.0267
增宋史樂志	-12.0267
大廟大室	-12.0267
彤庭	-12.0267
春瀾	-12.0267
紅綾扇	-12.0267
胡葱	-12.0267
赤幟	-12.0267
雉尾蓴	-12.0267
韻畧	-12.0267
麛裘	-12.0267
𨽻太常	-12.0267
􁉸	-12.0267
校書郎	-12.0267
増漢書髙帝紀	-12.0268
補闕	-12.0268
寡人	-12.0268
函鍾	-12.0268
享先農	-12.0268
硃砂	-12.0268
蕭條	-12.0269
元好問	-12.0269
増後漢書郎顗𫝊	-12.0269
炷香	-12.0269
乾元元年	-12.0269
橋橋	-12.0269
篤志	-12.0269
粢	-12.0269
襃	-12.0269
辟寒犀	-12.0269
匙	-12.0269
増聞見録	-12.0269
增宋史職官志	-12.0269
歸妹	-12.0269
珠囊	-12.0269
青白花	-12.0269
增後漢書律厯志	-12.0269
白鵠	-12.0269
同天節	-12.0269
娑羅花	-12.0269
捷	-12.0269
揫	-12.0269
澄霽	-12.0269
索靖	-12.0269
耕稼	-12.0269
虞翻曰	-12.0269
鈎陳	-12.0269
鵰	-12.0269
三齋日	-12.0269
也日影隨	-12.0269
仲冬短	-12.0269
傅咸	-12.0269
刺史楊	-12.0269
劍割肉	-12.0269
原玉歴璇璣	-12.0269
増宋書百官志	-12.0269
布憲	-12.0269
恤民	-12.0269
歴率百年	-12.0269
汴渠	-12.0269
臘明日	-12.0269
詳録	-12.0269
隗	-12.0269
鞭牛	-12.0269
𠻳	-12.0269
洪範皇極	-12.0269
南越志	-12.0269
肅慎	-12.0269
范祖禹	-12.027
牂	-12.027
酸收之以苦𤼵之	-12.027
祥符四年	-12.027
原周禮夏官大司馬中	-12.027
上謂侍臣曰	-12.027
藥枕	-12.027
億載	-12.027
紬	-12.027
斿	-12.027
南廵狩	-12.027
増博雅	-12.027
銅鐡	-12.027
去皮尖	-12.0271
毆	-12.0271
醉鄉日月	-12.0271
鐺	-12.0271
危坐	-12.0271
増本草衍義	-12.0271
晝漏盡	-12.0271
波濤	-12.0271
優寵	-12.0271
宴輔臣	-12.0271
杉木	-12.0271
渚宫	-12.0271
燒存性	-12.0271
逡廵酒	-12.0271
七斤	-12.0271
三卿是	-12.0271
八月下種	-12.0271
原歳華紀麗	-12.0271
增春秋元命苞	-12.0271
數百條	-12.0271
晝夜百刻	-12.0271
種既生	-12.0271
雝	-12.0271
之夀以	-12.0271
享先王以	-12.0271
八十一分	-12.0271
味極甘	-12.0271
專精	-12.0271
履端於始	-12.0271
崇儼	-12.0271
忠懿王	-12.0271
扶疎	-12.0271
日在中衡	-12.0271
春官宗伯	-12.0271
會慶節	-12.0271
朱鬛	-12.0271
淳于	-12.0271
漁舟	-12.0271
濟川	-12.0271
畫圗	-12.0271
石塘	-12.0271
除貧	-12.0271
陳暘樂書	-12.0271
願陛下	-12.0271
養壯佼	-12.0271
𤣥英	-12.0271
古者天子	-12.0271
昏睡	-12.0271
益部方物記	-12.0271
粢盛	-12.0271
脇	-12.0271
水調服	-12.0272
降婁	-12.0272
長四五尺	-12.0272
不啻	-12.0272
白日昇仙	-12.0272
之氣乗之也又行	-12.0272
歐陽詢	-12.0272
三百餘里	-12.0272
匾	-12.0272
増南越志	-12.0272
墮落	-12.0272
惡鬼	-12.0272
令蠶妾	-12.0272
増輟耕錄	-12.0272
滑澤	-12.0272
執矩	-12.0272
閉戸	-12.0272
㪷	-12.0272
元𡨕	-12.0272
准此	-12.0272
圭表	-12.0272
大言賦	-12.0272
天竺國	-12.0272
梨花春	-12.0272
熊膽	-12.0272
蚖蠶	-12.0272
㳂	-12.0272
九十六刻	-12.0272
介蟲	-12.0272
伯趙	-12.0272
導駕	-12.0272
氣上騰	-12.0272
泠然	-12.0272
烟濕	-12.0272
謂之乞巧	-12.0272
之冬日至	-12.0272
剝棗	-12.0272
嗣歲	-12.0272
曷月	-12.0272
月幾望	-12.0272
祼用	-12.0272
簣	-12.0272
翠寒堂	-12.0272
脯田	-12.0272
薦寝廟	-12.0272
踼名	-12.0272
躑躅	-12.0272
醿	-12.0272
長春樹	-12.0272
大壯	-12.0273
珍羞	-12.0273
蟬鳴	-12.0273
涕	-12.0273
銀杏	-12.0273
延壽	-12.0274
師襄	-12.0274
釋菜	-12.0274
若東南風	-12.0274
扁舟	-12.0274
禊洛	-12.0274
周遭	-12.0274
每服一	-12.0274
欽天監	-12.0274
歌括云	-12.0274
而問焉	-12.0274
捕魚	-12.0274
摩㬋羅	-12.0274
逞	-12.0274
金史世宗紀大定	-12.0274
頽	-12.0274
滻	-12.0274
右文殿	-12.0274
越裳	-12.0274
金釵	-12.0274
两岸	-12.0274
瓊樓	-12.0274
盈盈	-12.0274
肥充	-12.0274
莫大焉	-12.0274
二月初二日	-12.0274
以章月	-12.0274
坐客皆	-12.0274
拔河	-12.0274
昒	-12.0274
習習	-12.0274
赤脚	-12.0274
隋制	-12.0274
中書省	-12.0274
亭榭	-12.0274
命民社	-12.0274
増鶴林玉露	-12.0274
撼	-12.0274
祭五祀	-12.0274
紫藤	-12.0274
芝生於名山之陰	-12.0274
一百言演	-12.0274
南訛	-12.0274
庸調	-12.0274
明堂太廟	-12.0274
牧野	-12.0274
猫眼	-12.0274
蒼翠	-12.0274
醉倒	-12.0274
夏之十月	-12.0275
介胄	-12.0275
二年夏四月	-12.0275
陽氣始萌	-12.0275
者衆也	-12.0275
要術	-12.0276
溶	-12.0276
鴻雁来	-12.0276
雩祀	-12.0276
佞	-12.0276
閏當在	-12.0276
渡海	-12.0276
以安身	-12.0276
和四年七月	-12.0276
江浦	-12.0276
吳郡	-12.0276
簫管	-12.0276
繼燭	-12.0276
六月以後	-12.0276
口之家	-12.0276
親札	-12.0276
賜束帛	-12.0276
二十四度去北	-12.0276
李昉等	-12.0276
五行之主	-12.0276
士庻	-12.0276
無頼	-12.0276
㸃艾杖	-12.0276
乾㢲	-12.0276
休徵	-12.0276
修纂	-12.0276
剛柔始交	-12.0276
原周禮地官黨正	-12.0276
原東方朔占書一日得	-12.0276
嚢承	-12.0276
大駭	-12.0276
姦邪	-12.0276
幔亭	-12.0276
慈仁	-12.0276
月莭晝用十一文夜用	-12.0276
歐陽文忠公	-12.0276
沛公	-12.0276
減一文	-12.0276
畫譜	-12.0276
目連經	-12.0276
薦時果	-12.0276
薦韭卵	-12.0276
譏其	-12.0276
赤豆粥	-12.0276
長生殿	-12.0276
雄鳩	-12.0276
麥麴	-12.0277
提要	-12.0278
征鳥厲疾	-12.0278
硃	-12.0278
中庸	-12.0278
正日臨朝詩	-12.0278
麥花夜	-12.0278
嶺表録異	-12.0278
料峭	-12.0278
邊防	-12.0278
增路史	-12.0278
觀水嬉	-12.0278
獻白雉	-12.0278
茅屋	-12.0278
帥府	-12.0278
於月下	-12.0278
腒	-12.0278
集英殿	-12.0278
日月為易	-12.0278
蘆葦	-12.0278
八十以上	-12.0278
盈谷	-12.0278
隂盛陽	-12.0278
増隋書文帝紀開皇	-12.0278
臧榮緒晉書	-12.0278
芽蘖	-12.0278
魏武帝	-12.0278
龍朔二年	-12.0278
之所致也	-12.0278
人家屋	-12.0278
先薦寢廟註	-12.0278
升少半	-12.0278
原漢書魏相𫝊	-12.0278
可爱	-12.0278
均調	-12.0278
宣和殿	-12.0278
寎	-12.0278
寛恤詔令	-12.0278
崇寛	-12.0278
幡勝	-12.0278
憾	-12.0278
所吹者	-12.0278
文潞公	-12.0278
服天門冬	-12.0278
楷木	-12.0278
民不安	-12.0278
沃野	-12.0278
煮梅	-12.0278
瑟瑟	-12.0278
祭靈星	-12.0278
禺中	-12.0278
秋大雩	-12.0278
落更生	-12.0278
見黄牛	-12.0278
賓客	-12.0278
赤鯉	-12.0278
叩門	-12.0279
層氷	-12.0279
乞依	-12.0279
以建子	-12.0279
五十五刻	-12.0279
物之府	-12.028
原詩二之日	-12.028
復槽水	-12.028
原嶺表錄異	-12.028
禅祭	-12.028
驅獸	-12.028
之徴也	-12.028
紫蘇	-12.028
蹙凌水	-12.028
增帝京景物畧	-12.028
寂寥	-12.028
色甚明	-12.028
野薔薇	-12.028
原山居四要	-12.028
烈烈	-12.028
喧闐	-12.028
三十九嵗	-12.028
増帝京景物畧十二月	-12.028
莊嚴	-12.028
磁器	-12.028
紅粉	-12.028
蟄䖝	-12.028
叔度	-12.028
絃管	-12.028
増謝靈運詩	-12.028
女伴	-12.028
幹似	-12.028
拂拂	-12.028
隷	-12.028
天道南行	-12.028
掉	-12.028
正月丙辰	-12.028
者或以	-12.028
莫大乎	-12.028
裀	-12.028
車駕幸	-12.028
入學習吹	-12.028
増老學庵筆記	-12.028
桃花粥	-12.028
牲毛之	-12.028
節之中月	-12.028
顯祖	-12.028
儒臣	-12.028
厦	-12.0281
路寢	-12.0281
赦天下	-12.0281
米價	-12.0282
閃	-12.0282
百九十二	-12.0282
孝義	-12.0282
廣雅	-12.0282
福履	-12.0282
錬形	-12.0282
増宋史禮志太宗	-12.0282
隙地	-12.0282
仰視	-12.0282
文苑英華	-12.0282
正月二月三月	-12.0282
深潭	-12.0282
不落夾	-12.0282
主生物	-12.0282
孫炎	-12.0282
枝柯	-12.0282
水秤	-12.0282
煖足	-12.0282
甲子朔旦	-12.0282
羊欣	-12.0282
翼翼	-12.0282
蟄蟲始振	-12.0282
七月乙酉	-12.0282
冬月采之	-12.0282
太初歴	-12.0282
後漢書郡國志	-12.0282
木半夏	-12.0282
猫兒眼	-12.0282
脂田	-12.0282
蒲柳	-12.0282
造明堂	-12.0282
左扉	-12.0283
羣牧	-12.0283
滴水	-12.0283
蟄獸	-12.0284
日在尾	-12.0284
九十以上	-12.0284
占城國	-12.0284
玉鈎	-12.0284
増宋書文帝紀元嘉二十	-12.0284
移晷	-12.0284
井底	-12.0284
口舌	-12.0284
成都府	-12.0284
原鄴中記	-12.0284
戒壇	-12.0284
鐘鼔	-12.0284
𫝊云昔	-12.0284
其所治	-12.0284
孳尾	-12.0284
聾	-12.0284
丹邱	-12.0284
修城郭	-12.0284
孤鶴	-12.0284
延春閣	-12.0284
文簫	-12.0284
潮漸	-12.0284
祁寒	-12.0284
藝祖	-12.0284
豆寔	-12.0284
邦禮	-12.0284
髄	-12.0284
龍腦	-12.0285
増金史世宗紀	-12.0286
中霤	-12.0286
南二里	-12.0286
月莭晝用	-12.0286
裂葉風	-12.0286
五地六天	-12.0286
豐沛	-12.0286
慈寧宫	-12.0286
相餉	-12.0286
盈虚	-12.0286
俗眼	-12.0286
左契	-12.0286
增山家清供	-12.0286
洪州	-12.0286
隂乾為末	-12.0286
宋武帝	-12.0286
紫牡丹	-12.0286
長八九尺	-12.0286
如是者	-12.0286
橘皮	-12.0286
烏飯	-12.0286
鑄鼎	-12.0286
兔絲子	-12.0286
兩税	-12.0286
刻菖蒲	-12.0286
字倒貼	-12.0286
日候之乙	-12.0286
望春門	-12.0286
正月望日	-12.0286
靉	-12.0286
龍涸	-12.0286
鴨子	-12.0286
付史	-12.0287
考廟曰	-12.0287
久不雨	-12.0288
與日相	-12.0288
原爾雅翼	-12.0288
盲風至	-12.0288
秕	-12.0288
髙三四尺	-12.0288
唐明皇春	-12.0288
外戚	-12.0288
敉	-12.0288
肅敬	-12.0288
備法駕	-12.0288
増洛陽牡丹記	-12.0288
日遣官	-12.0288
祭社稷	-12.0288
一石米	-12.0288
作鄂	-12.0288
海岸	-12.0288
三統歴	-12.0288
増演繁露	-12.0288
失職	-12.0288
流血	-12.0288
燕巢	-12.0288
状𩔖	-12.0288
王山人	-12.0288
皁衣	-12.0288
隴首	-12.0288
妓樂	-12.0288
彝皆	-12.0288
繡袍	-12.0288
釵頭	-12.0288
黄耆	-12.0288
盲風	-12.0288
綵樓	-12.0288
甘美	-12.0288
始電	-12.0289
昭昭	-12.029
纂官	-12.029
屈曲	-12.029
悲鳴	-12.029
取桃仁	-12.029
獨酌	-12.029
紅紫色	-12.029
但覺	-12.029
巳亥	-12.029
磬聲	-12.029
岐伯曰	-12.029
令宫女	-12.029
玉柱	-12.029
忠武	-12.029
愆期	-12.029
招飲	-12.029
暴露	-12.029
睡蓮	-12.029
耐旱	-12.029
覆其上	-12.029
主失財	-12.029
五畤	-12.029
依稀	-12.029
十二月十七日	-12.029
囘班	-12.029
愷之	-12.029
澄水帛	-12.029
煇氣	-12.029
素蓮	-12.029
趋	-12.029
逆暑	-12.029
鎮宅	-12.029
鳯尾	-12.029
小児	-12.0291
行夏政	-12.0292
元和元年	-12.0292
通神明	-12.0292
増唐書選舉志	-12.0292
日未出時	-12.0292
火炙	-12.0292
飮酒	-12.0292
乃誓	-12.0292
作壠	-12.0292
増太平御覽	-12.0292
除害	-12.0292
鳯翔	-12.0292
勲臣	-12.0292
四方之神	-12.0292
憂勤	-12.0292
衣葛	-12.0292
門之西	-12.0292
順其時	-12.0292
仇家	-12.0292
吏案	-12.0292
四千五百	-12.0292
昆明春	-12.0292
玉兎	-12.0292
禪社首	-12.0292
箭筍	-12.0292
羙農臺	-12.0292
萬物萌	-12.0292
鄉校	-12.0292
顯慶	-12.0292
之辰孟	-12.0292
鳳樓	-12.0292
嵗華紀麗	-12.0293
㫖蓄	-12.0293
與計偕	-12.0293
冬之徳寒寒不信	-12.0294
荻苗水	-12.0294
牙符	-12.0294
丹丘	-12.0294
師古曰	-12.0294
白豆蔲	-12.0294
萬物仰	-12.0294
原說文	-12.0294
増王起	-12.0294
浮杯	-12.0294
貫索	-12.0294
鹽湯	-12.0294
人人自	-12.0294
十一月二十三日	-12.0294
卉木	-12.0294
勿憂	-12.0294
原家語	-12.0294
増宋史職官志	-12.0294
歩禱	-12.0294
千尋	-12.0294
而死故	-12.0294
除肉刑	-12.0294
九扈	-12.0294
永樂十	-12.0294
船載	-12.0294
駟見	-12.0294
魏徴	-12.0294
刈麥	-12.0294
工部	-12.0295
紫姑	-12.0295
金梭	-12.0295
抽莖	-12.0296
十一月二十二日	-12.0296
玉佩	-12.0296
長數尺	-12.0296
日未出	-12.0296
珠履	-12.0296
置𢎞文	-12.0296
隐映	-12.0296
整肅	-12.0296
江村	-12.0296
農人候	-12.0296
坊市	-12.0296
曠然	-12.0296
杏花盛	-12.0296
赤繒	-12.0296
形状	-12.0296
御溝	-12.0296
損益	-12.0296
甑中	-12.0296
伏日㑹	-12.0296
石窟	-12.0296
長生樹	-12.0296
阿驛	-12.0296
官司馬	-12.0296
鄒	-12.0297
火焰	-12.0297
孝弟力田	-12.0297
後漢書安帝紀元初六年	-12.0298
抵暮	-12.0298
慶成節	-12.0298
畿内	-12.0298
觀雲色	-12.0298
佳莭	-12.0298
洞微	-12.0298
腰背	-12.0298
増梁簡文帝詩	-12.0298
弓手	-12.0298
湛然	-12.0298
直廬	-12.0298
禁衛	-12.0298
言之自午	-12.0298
召近臣觀	-12.0298
畢昴	-12.0298
月弦	-12.0298
也廣義注	-12.0299
鳳閣	-12.0299
詔自今	-12.0299
瑶草	-12.0299
旋覆	-12.0299
説戒	-12.0299
賜袍	-12.0299
不可識	-12.0299
冬柰	-12.0299
原春秋繁露天有	-12.0299
玉局	-12.0299
衆寡	-12.0299
鹿女	-12.0299
四時之序	-12.0299
離卦	-12.0299
祭祀志	-12.0301
之辰仲	-12.0301
五月五日取	-12.0301
厚薄	-12.0301
客談	-12.0301
天清節	-12.0301
旱禾	-12.0301
張筵	-12.0301
増呂氏春秋	-12.0301
親賔	-12.0301
𤣥宗	-12.0301
剛夘	-12.0301
愈疾	-12.0301
歌呌	-12.0301
郡界	-12.0301
齋郎	-12.0301
京畿	-12.0302
校理	-12.0303
鑿冰	-12.0303
霍山	-12.0303
農事畢	-12.0303
原乾淳嵗時記	-12.0303
桂市	-12.0303
遊豫	-12.0303
有大慶	-12.0303
芳宵	-12.0303
水上浮	-12.0303
翠羽	-12.0303
衆禽	-12.0303
農祥	-12.0303
主大旱	-12.0303
允臣	-12.0303
増乾淳歲時記冬至	-12.0303
嵗之朝	-12.0303
敷文	-12.0303
繞塔	-12.0303
賜及第	-12.0303
君友	-12.0304
永昌	-12.0304
南二十里	-12.0304
謂建子之月	-12.0305
宰相及學士得從	-12.0305
叔孫	-12.0305
吳葵華	-12.0305
鑿池	-12.0305
兆民	-12.0305
八荒	-12.0305
冰堅	-12.0305
左𫝊昭公	-12.0305
幾何	-12.0305
上疏曰	-12.0305
迎福	-12.0305
斗運	-12.0305
皇帝皇后	-12.0305
一陽初	-12.0305
始入學	-12.0305
徃徃得	-12.0305
思量	-12.0305
梅花落	-12.0305
不萎	-12.0305
丙穴	-12.0305
夜徼	-12.0305
漁陽	-12.0305
百年者如	-12.0305
虹飲	-12.0305
襲衣	-12.0305
四五寸	-12.0306
遊宴	-12.0307
盛貯	-12.0307
錦綺	-12.0307
香篆	-12.0307
太常寺	-12.0307
有異物	-12.0307
髙適詩	-12.0307
三十斤	-12.0307
口吐	-12.0307
増張衡東京賦	-12.0307
旺相	-12.0307
兩弦	-12.0307
坤卦	-12.0307
星亡有	-12.0307
狐目	-12.0307
置局	-12.0307
郫	-12.0307
靈育	-12.0307
新汲	-12.0309
冰凍	-12.0309
行春政	-12.0309
颷	-12.0309
丁氏	-12.0309
吕才	-12.0309
河淸	-12.0309
金堤	-12.0309
士卒	-12.0309
細辛	-12.0309
借問	-12.0309
吴興	-12.0309
車徒	-12.0309
増唐書歴志	-12.0309
放鷹	-12.0309
橘洲	-12.0309
淺水中	-12.0309
田疇	-12.0309
聼講	-12.0309
五箴	-12.0309
全収	-12.0309
増唐書食貨志凡新附	-12.0309
大號山	-12.0309
慶賞	-12.0309
秋風辭	-12.0309
蒸熱	-12.0309
路旁	-12.0309
門闌	-12.0309
頓首	-12.0309
馬蹄草	-12.0309
秘書	-12.0309
蜜漿	-12.0311
逹旦	-12.0311
純乾	-12.0311
魚散子	-12.0311
紫微宫	-12.0311
化為龍	-12.0311
無花實	-12.0311
再失閏	-12.0311
禮儀使	-12.0311
増庾肩吾詩	-12.0311
朔日占	-12.0311
躬親	-12.0311
選擇	-12.0311
何晏	-12.0311
木蓮花	-12.0311
納冰	-12.0312
趣民	-12.0313
籬落	-12.0313
百蠻	-12.0313
多寡	-12.0313
賜輔臣	-12.0313
遴	-12.0313
字叔	-12.0313
瑞鹽	-12.0313
蠧書	-12.0313
諸州圖	-12.0313
上親書	-12.0313
升斗	-12.0313
月宜加	-12.0313
毋發	-12.0313
符契	-12.0313
古松	-12.0313
春服既成	-12.0313
杏花雨	-12.0313
正嵗令	-12.0313
逰蒲	-12.0313
里宰	-12.0313
釜中	-12.0313
陬得	-12.0313
於子中	-12.0313
黃帝	-12.0313
舉進士	-12.0314
萬物之所	-12.0314
裴度	-12.0315
范成大九月	-12.0315
研細	-12.0315
清暉	-12.0315
宣政	-12.0315
京房	-12.0315
民饑	-12.0315
鑄造	-12.0315
婚禮	-12.0315
通衢	-12.0315
戰功	-12.0315
從學者	-12.0315
惟允	-12.0315
歡呼	-12.0315
語訖	-12.0315
黄姑	-12.0315
占子時	-12.0315
夏翟	-12.0315
天地之和	-12.0315
林棲	-12.0315
詔中書	-12.0315
牡丹華	-12.0315
非徒	-12.0316
䝉古	-12.0316
每月朔望	-12.0317
荒園	-12.0317
曲江頭	-12.0317
詔禮部	-12.0317
嚴凝	-12.0317
開闔	-12.0317
茂才	-12.0317
馬融	-12.0317
朝朔望	-12.0317
勞力	-12.0317
増雲笈七籖治	-12.0317
編𩔖	-12.0317
而入與	-12.0317
宋均	-12.0317
於祖禰	-12.0317
曰某時	-12.0317
立春詞	-12.0317
蘭盆	-12.0318
旬休	-12.0319
石投之	-12.0319
侍宴詩	-12.0319
瑞圗	-12.0319
倉庚鳴	-12.0319
杯盤	-12.0319
射虎	-12.0319
尖葉	-12.0319
每冬寒	-12.0319
發病	-12.0319
秋巒	-12.0319
作糜	-12.0319
凡此皆	-12.0319
古詩云	-12.0319
季鷹	-12.0319
宜春觀	-12.0319
於勤政樓	-12.0319
旬終	-12.0319
更三㸃	-12.0319
登第	-12.0319
秋砧	-12.0319
舜華	-12.0319
許昌	-12.0319
陸終	-12.0319
龍騰	-12.0319
麟徳	-12.0319
坐像	-12.0321
麥秀寒	-12.0321
凡數百	-12.0321
升壇	-12.0321
天中節	-12.0321
早鶯	-12.0321
狹長	-12.0321
長八尺	-12.0321
夏小正云	-12.0321
渡江	-12.0321
災異	-12.0321
典論	-12.0321
園陵	-12.0321
増釋名	-12.0321
聯	-12.0321
觀刈	-12.0321
開延英	-12.0322
延英殿	-12.0323
赴舉	-12.0323
銀桃	-12.0323
十數里	-12.0323
前輩	-12.0323
參考	-12.0323
圗畫	-12.0323
泡花	-12.0323
調隂陽	-12.0323
増唐書厯志	-12.0323
嵗以八月	-12.0323
帝藉	-12.0323
折枝	-12.0323
絳衣	-12.0323
以娯	-12.0323
出糶	-12.0323
制敕	-12.0323
增燕翼貽謀録	-12.0323
巢居	-12.0323
戎服	-12.0323
雷丸	-12.0323
麴𤼵	-12.0323
太霞	-12.0324
亥時主	-12.0324
𫝊鞠	-12.0324
天之數也	-12.0324
其牲以	-12.0324
醉卧	-12.0325
蝡	-12.0325
遍野	-12.0325
别業	-12.0325
地坼	-12.0325
百草靈	-12.0325
後天而	-12.0325
飛乍	-12.0325
太虚	-12.0325
一疋	-12.0326
安寜	-12.0326
無奈	-12.0326
曰吾聞	-12.0326
甚羙	-12.0326
撰集	-12.0326
六時水	-12.0326
動揺	-12.0326
四鈞	-12.0326
户口	-12.0326
能愈	-12.0326
毛仲	-12.0327
海潮	-12.0327
白榆	-12.0327
胡氏	-12.0327
若干	-12.0327
以水沃	-12.0327
牡丹記	-12.0328
親問	-12.0328
枕枕	-12.0328
百畮	-12.0328
治麴	-12.0328
按月令	-12.0328
為一周	-12.0328
絲綿	-12.0328
之政令	-12.0328
苑池	-12.0328
含秀	-12.0328
本貫	-12.0328
獻壽	-12.0328
馬勃	-12.0328
優禮	-12.033
肉芝	-12.033
以成嵗	-12.033
栽竹	-12.033
曲折	-12.033
内外官	-12.033
黎民	-12.033
指授	-12.033
春糶	-12.033
木葉山	-12.033
潤筆	-12.033
[...]
